<unk>	0
<s>	0
</s>	0
▁б	-0
▁х	-1
ий	-2
аа	-3
ай	-4
ээ	-5
▁т	-6
ан	-7
ар	-8
ол	-9
▁н	-10
уу	-11
▁бай	-12
ал	-13
▁г	-14
ийн	-15
үү	-16
эн	-17
аг	-18
эг	-19
▁д	-20
эр	-21
он	-22
үй	-23
▁с	-24
эл	-25
▁а	-26
▁з	-27
▁бол	-28
ил	-29
ын	-30
өө	-31
ах	-32
▁м	-33
ор	-34
ин	-35
эд	-36
эх	-37
гүй	-38
▁нь	-39
гаа	-40
ийг	-41
▁ч	-42
оо	-43
▁хү	-44
уул	-45
ад	-46
сан	-47
▁ш	-48
▁ү	-49
на	-50
▁у	-51
ам	-52
өр	-53
өн	-54
ээр	-55
▁я	-56
▁Т	-57
▁ю	-58
ог	-59
эж	-60
ох	-61
▁Х	-62
▁би	-63
ой	-64
ур	-65
ыг	-66
..	-67
аар	-68
▁байна	-69
өг	-70
эй	-71
сэн	-72
ир	-73
эм	-74
▁Б	-75
тай	-76
▁юм	-77
тэй	-78
жил	-79
▁бү	-80
ууд	-81
их	-82
өл	-83
гийн	-84
▁Э	-85
од	-86
▁ор	-87
ний	-88
▁ц	-89
ас	-90
иг	-91
▁л	-92
▁М	-93
▁байгаа	-94
үүл	-95
нд	-96
даг	-97
өөр	-98
га	-99
▁гэж	-100
нэ	-101
▁хэр	-102
ны	-103
ом	-104
▁А	-105
▁ху	-106
эв	-107
энэ	-108
▁ту	-109
ав	-110
тг	-111
▁ав	-112
лаг	-113
▁ө	-114
даа	-115
▁хар	-116
ээд	-117
аж	-118
▁"	-119
▁гар	-120
▁байх	-121
▁-	-122
үйл	-123
ид	-124
▁нэг	-125
онг	-126
аас	-127
▁мэд	-128
той	-129
▁1	-130
▁ам	-131
ээс	-132
▁Г	-133
▁хэрэг	-134
▁2	-135
▁өөр	-136
▁эр	-137
сон	-138
...	-139
үүд	-140
өх	-141
аад	-142
өв	-143
▁хо	-144
ат	-145
эс	-146
▁бу	-147
▁ол	-148
▁хам	-149
▁хий	-150
▁энэ	-151
▁хэл	-152
▁ажил	-153
▁Н	-154
жээ	-155
ээл	-156
▁байсан	-157
ер	-158
▁ир	-159
алт	-160
▁С	-161
ьд	-162
▁хүн	-163
▁Энэ	-164
лс	-165
▁ал	-166
хан	-167
▁яв	-168
▁У	-169
им	-170
▁сай	-171
▁он	-172
дээ	-173
▁Д	-174
▁уу	-175
лаа	-176
▁ар	-177
дэг	-178
но	-179
ая	-180
▁О	-181
▁в	-182
▁их	-183
▁З	-184
▁хув	-185
▁сан	-186
ов	-187
үүх	-188
▁үз	-189
▁болох	-190
үүн	-191
▁И	-192
анд	-193
онгол	-194
▁хүр	-195
эсэн	-196
▁дар	-197
▁ж	-198
дал	-199
▁бод	-200
дөр	-201
▁к	-202
▁Ө	-203
чл	-204
үүс	-205
ул	-206
ийм	-207
▁эх	-208
▁дээр	-209
▁өг	-210
өнг	-211
▁бар	-212
энд	-213
гээ	-214
гээр	-215
▁үйл	-216
▁тал	-217
аш	-218
▁бүр	-219
▁улс	-220
▁тэр	-221
▁жил	-222
гаар	-223
▁болно	-224
▁гэд	-225
уур	-226
▁ас	-227
гуул	-228
оор	-229
▁үе	-230
мар	-231
аз	-232
хий	-233
▁Ү	-234
▁төр	-235
▁цаг	-236
▁20	-237
▁чад	-238
▁вэ	-239
▁байдаг	-240
лах	-241
чих	-242
▁дээ	-243
▁зүйл	-244
▁бид	-245
лээ	-246
хай	-247
үр	-248
этг	-249
▁ил	-250
лг	-251
▁тог	-252
сөн	-253
цаа	-254
▁юу	-255
▁ан	-256
мн	-257
ож	-258
▁та	-259
▁тан	-260
инь	-261
мүүс	-262
▁гэсэн	-263
лэг	-264
чил	-265
▁зөв	-266
▁сур	-267
▁Би	-268
▁хэм	-269
▁ур	-270
уулах	-271
үүр	-272
▁яр	-273
дл	-274
▁бүх	-275
ут	-276
арын	-277
гал	-278
▁олон	-279
шиг	-280
аан	-281
▁...	-282
▁шүү	-283
▁газ	-284
ёр	-285
▁Монгол	-286
▁хүмүүс	-287
үн	-288
жл	-289
▁ё	-290
▁ямар	-291
чин	-292
агд	-293
▁баг	-294
охи	-295
омж	-296
өөд	-297
▁ёс	-298
▁төл	-299
▁үн	-300
иний	-301
▁биш	-302
▁шин	-303
ос	-304
оод	-305
иж	-306
▁зар	-307
▁тус	-308
▁эм	-309
дв	-310
▁гэр	-311
▁Тэр	-312
ахгүй	-313
лэл	-314
▁амьд	-315
гийг	-316
▁маш	-317
▁Я	-318
ис	-319
▁хол	-320
▁хоёр	-321
лийн	-322
нг	-323
▁хүүх	-324
эгд	-325
от	-326
онд	-327
▁ой	-328
лд	-329
00	-330
▁өмн	-331
▁хүс	-332
▁боломж	-333
өд	-334
лага	-335
▁Е	-336
▁эрх	-337
олд	-338
уй	-339
▁Хар	-340
▁гэдэг	-341
вэл	-342
▁өр	-343
эт	-344
чид	-345
айр	-346
▁асууд	-347
▁байгуул	-348
▁хамгийн	-349
анай	-350
▁өн	-351
▁нар	-352
▁дараа	-353
▁Ш	-354
▁хэрэгтэй	-355
▁болон	-356
▁үр	-357
эц	-358
▁эс	-359
оос	-360
▁(	-361
▁дах	-362
▁сайн	-363
гд	-364
▁болг	-365
эхдээ	-366
хэн	-367
тээ	-368
айл	-369
рал	-370
үүлэх	-371
▁зор	-372
аал	-373
▁3	-374
▁хэд	-375
▁шиг	-376
лэх	-377
▁сон	-378
▁болсон	-379
▁тухай	-380
▁ний	-381
▁тав	-382
ик	-383
иш	-384
▁холб	-385
▁нэр	-386
▁Ц	-387
▁од	-388
▁хийх	-389
▁ашиг	-390
дог	-391
▁бус	-392
▁даа	-393
▁анх	-394
▁Тэг	-395
двэр	-396
▁ёстой	-397
▁сэтг	-398
бар	-399
вал	-400
▁болов	-401
▁Ч	-402
▁удаа	-403
чд	-404
лог	-405
гэл	-406
иу	-407
▁тэд	-408
▁Ж	-409
▁өмнө	-410
▁хур	-411
уулж	-412
ен	-413
▁ший	-414
▁талаар	-415
гацаа	-416
▁байж	-417
чир	-418
лөг	-419
▁201	-420
▁чинь	-421
▁дэл	-422
▁нам	-423
▁Та	-424
▁ду	-425
ээн	-426
▁үү	-427
▁хор	-428
▁хугацаа	-429
гэж	-430
доо	-431
лаж	-432
амж	-433
өнгө	-434
▁авах	-435
▁о	-436
▁үед	-437
▁р	-438
▁болж	-439
▁дуу	-440
▁зур	-441
▁Бид	-442
▁дур	-443
эгтэй	-444
▁К	-445
▁мэдээл	-446
▁зас	-447
үүнийг	-448
аяр	-449
эхээр	-450
эз	-451
ит	-452
▁хуул	-453
вар	-454
▁ун	-455
▁нас	-456
▁и	-457
▁су	-458
олц	-459
анг	-460
▁тү	-461
▁өдөр	-462
▁одоо	-463
ус	-464
▁газар	-465
үүний	-466
▁Харин	-467
▁бие	-468
▁том	-469
▁илүү	-470
▁байр	-471
▁сонг	-472
▁хэмжээ	-473
ана	-474
▁хамт	-475
▁хя	-476
ийнх	-477
▁бич	-478
▁шаар	-479
▁бөг	-480
ээж	-481
▁зал	-482
өс	-483
▁оны	-484
▁п	-485
лоо	-486
гэд	-487
илц	-488
▁.	-489
▁эд	-490
анц	-491
эхгүй	-492
▁бас	-493
▁нөх	-494
▁тод	-495
▁үг	-496
айг	-497
эмж	-498
▁хийж	-499
сн	-500
▁буй	-501
лал	-502
▁аж	-503
▁гээд	-504
▁тэм	-505
▁ин	-506
элт	-507
▁Хэр	-508
▁шаард	-509
▁жилийн	-510
▁хэн	-511
▁хувьд	-512
▁ийм	-513
▁ер	-514
▁хөг	-515
тын	-516
▁сарын	-517
иул	-518
өнхий	-519
ес	-520
▁гэх	-521
▁Ер	-522
др	-523
▁тогт	-524
▁бөгөөд	-525
ьж	-526
аны	-527
▁5	-528
▁авч	-529
▁шинэ	-530
▁ком	-531
өөс	-532
▁4	-533
гэн	-534
огд	-535
▁ойлг	-536
▁ай	-537
▁бэл	-538
өм	-539
хал	-540
▁Гэхдээ	-541
ив	-542
▁сал	-543
▁Тийм	-544
▁нийт	-545
▁зохи	-546
өлөө	-547
оон	-548
▁зах	-549
асан	-550
хийн	-551
▁онд	-552
▁хүнд	-553
▁хон	-554
даж	-555
лын	-556
хөн	-557
▁нэгэн	-558
▁минь	-559
▁биз	-560
адаг	-561
айн	-562
▁байхгүй	-563
▁бил	-564
ун	-565
▁хүлээ	-566
▁сэтгэл	-567
▁өв	-568
▁алб	-569
тэл	-570
аагүй	-571
▁төс	-572
▁суу	-573
▁хаа	-574
пан	-575
▁бий	-576
▁дот	-577
рын	-578
▁тоо	-579
лагаа	-580
▁сар	-581
▁амьдрал	-582
нийг	-583
ич	-584
орх	-585
▁дав	-586
нууд	-587
тад	-588
▁хүний	-589
▁най	-590
▁гад	-591
үгээр	-592
чийн	-593
шин	-594
▁Тэд	-595
гаж	-596
▁зам	-597
агаад	-598
▁хэв	-599
▁ажл	-600
тгэл	-601
ван	-602
лыг	-603
▁асуудал	-604
▁хайр	-605
▁аа	-606
сд	-607
▁гиш	-608
▁миний	-609
▁санал	-610
▁шал	-611
уулсан	-612
▁сайхан	-613
▁улсын	-614
▁бэ	-615
гах	-616
хаа	-617
▁хувь	-618
▁хэс	-619
арт	-620
▁хүүхд	-621
▁хой	-622
тр	-623
▁нэм	-624
▁өнг	-625
үүлж	-626
охир	-627
▁тохи	-628
өөдөр	-629
▁Одоо	-630
▁манай	-631
орхой	-632
▁Улс	-633
▁над	-634
▁ажиллагаа	-635
хүү	-636
▁АН	-637
▁хал	-638
▁арга	-639
▁худал	-640
▁байдл	-641
▁тат	-642
▁билээ	-643
▁уул	-644
▁хоног	-645
▁Ор	-646
▁боломжтой	-647
▁баяр	-648
▁даг	-649
чүүд	-650
▁төлөө	-651
алтын	-652
▁мөн	-653
▁байлаа	-654
▁Эр	-655
▁ул	-656
▁19	-657
дсан	-658
▁Ар	-659
▁нут	-660
оол	-661
▁компан	-662
өж	-663
▁тодорхой	-664
▁тур	-665
▁Мөн	-666
▁эхэл	-667
гаан	-668
▁оролц	-669
▁тогл	-670
ист	-671
оё	-672
иа	-673
▁Өөр	-674
жилт	-675
▁эн	-676
▁ханд	-677
▁тэг	-678
▁10	-679
▁ут	-680
▁тулд	-681
▁иргэд	-682
▁бат	-683
чууд	-684
▁бүтээ	-685
өлт	-686
▁бүт	-687
▁санаа	-688
▁гэдгийг	-689
▁Л	-690
дах	-691
уун	-692
▁байдал	-693
чр	-694
▁П	-695
ирх	-696
▁өнгөр	-697
▁хоол	-698
▁орон	-699
▁хүртэл	-700
▁хэдэн	-701
йм	-702
илг	-703
▁хэрхэн	-704
лан	-705
▁төг	-706
уг	-707
▁эсвэл	-708
▁Ам	-709
▁өөрчл	-710
▁ид	-711
▁аг	-712
▁уд	-713
▁тийм	-714
▁ба	-715
▁заа	-716
дан	-717
▁гэв	-718
▁гур	-719
▁таны	-720
▁ах	-721
▁маан	-722
in	-723
тан	-724
▁чу	-725
урхан	-726
▁хө	-727
▁учр	-728
▁ажилл	-729
▁маань	-730
вр	-731
▁хүч	-732
▁залуу	-733
▁дол	-734
▁үнд	-735
▁хөр	-736
▁ээ	-737
чилгээ	-738
▁ганц	-739
▁турш	-740
▁дахь	-741
on	-742
▁дахин	-743
агч	-744
ек	-745
▁үйлдвэр	-746
▁холбоо	-747
▁эмэгтэй	-748
араа	-749
▁хич	-750
▁болохгүй	-751
лийг	-752
▁Ерөнхий	-753
▁дэмж	-754
арч	-755
▁Бү	-756
өлд	-757
er	-758
нх	-759
▁ял	-760
олтой	-761
▁ард	-762
▁ирсэн	-763
иал	-764
гэр	-765
▁анхаар	-766
▁өдр	-767
ем	-768
▁мөр	-769
▁тохиолд	-770
!!	-771
▁6	-772
олт	-773
агт	-774
хн	-775
▁зэр	-776
▁өөрийн	-777
▁гарч	-778
▁сургуул	-779
өдөл	-780
агад	-781
ээрээ	-782
▁Миний	-783
▁S	-784
лон	-785
▁үргэл	-786
ак	-787
ср	-788
гөө	-789
▁хамгаа	-790
гой	-791
▁чан	-792
▁чухал	-793
▁7	-794
▁ох	-795
▁чи	-796
уд	-797
▁чадахгүй	-798
хи	-799
▁үнэ	-800
лагатай	-801
▁хэмээн	-802
▁Хү	-803
▁Инг	-804
▁Үүн	-805
ээгүй	-806
▁шил	-807
▁бүгд	-808
▁дунд	-809
▁үнэн	-810
эзээ	-811
▁хойш	-812
▁ая	-813
▁шийдвэр	-814
бөр	-815
аат	-816
▁бүс	-817
эхэд	-818
▁сонс	-819
элц	-820
▁гай	-821
▁гол	-822
▁хүүхэд	-823
▁түр	-824
▁тэн	-825
▁Ийм	-826
▁Манай	-827
▁амь	-828
тал	-829
▁Тиймээс	-830
▁ад	-831
▁өгөх	-832
▁хийсэн	-833
▁хот	-834
▁өндөр	-835
мын	-836
▁муу	-837
▁учир	-838
АН	-839
▁сонирх	-840
ИХ	-841
▁/	-842
▁авсан	-843
▁руу	-844
▁сая	-845
▁машин	-846
▁хариу	-847
▁үүс	-848
▁бага	-849
▁аль	-850
алтай	-851
▁ном	-852
▁Зас	-853
иад	-854
агүй	-855
ийгөө	-856
▁зээл	-857
аарай	-858
▁ф	-859
▁эз	-860
▁түүний	-861
▁Нэг	-862
из	-863
эхүү	-864
▁чам	-865
▁хэсэг	-866
▁8	-867
осон	-868
▁зарим	-869
гаад	-870
▁мэт	-871
ааш	-872
ино	-873
20	-874
аараа	-875
▁төрийн	-876
▁байв	-877
▁дүр	-878
чим	-879
дын	-880
▁бусад	-881
лж	-882
▁уулз	-883
▁мэдээлэл	-884
огт	-885
▁M	-886
▁албан	-887
уудыг	-888
▁гэнэ	-889
гасан	-890
▁Бурхан	-891
▁ажиллаж	-892
үүлсэн	-893
▁төлөв	-894
▁өөрөө	-895
▁хан	-896
▁хөгж	-897
▁бодож	-898
▁УИХ	-899
▁зөвхөн	-900
▁Хэрэв	-901
▁Өн	-902
an	-903
▁хэзээ	-904
▁хууль	-905
▁бур	-906
тер	-907
ье	-908
▁ус	-909
▁учраас	-910
▁эхл	-911
хон	-912
▁мөнгө	-913
▁те	-914
дөг	-915
эгч	-916
▁сүүл	-917
▁унш	-918
▁дүн	-919
▁Хя	-920
▁хугацаанд	-921
▁оч	-922
▁дуус	-923
▁надад	-924
уудын	-925
▁төв	-926
▁200	-927
▁яаж	-928
▁түүх	-929
▁тар	-930
▁ханг	-931
▁сэр	-932
эвч	-933
▁гүй	-934
▁зориул	-935
▁АНУ	-936
наас	-937
▁онц	-938
▁шийд	-939
▁A	-940
▁тэмц	-941
нээс	-942
▁Дэл	-943
▁айм	-944
▁монгол	-945
алд	-946
▁болохоор	-947
этэл	-948
▁тайл	-949
▁Ал	-950
▁В	-951
юу	-952
▁дэв	-953
▁эл	-954
▁орж	-955
▁тохир	-956
тл	-957
▁эц	-958
угаар	-959
▁Монголын	-960
▁чиг	-961
▁зог	-962
▁хөдөл	-963
▁яах	-964
ахад	-965
▁үүр	-966
▁яагаад	-967
▁анг	-968
охгүй	-969
▁зөвш	-970
ац	-971
ооны	-972
гаас	-973
▁харагд	-974
▁яг	-975
▁үүнийг	-976
▁байхад	-977
▁ух	-978
▁удир	-979
▁ажлын	-980
оп	-981
▁хийг	-982
▁намайг	-983
▁зүй	-984
▁Ф	-985
▁шалт	-986
дөө	-987
лөгч	-988
мийн	-989
▁охин	-990
▁мэр	-991
▁хэлб	-992
▁хэлж	-993
▁нөлөө	-994
үг	-995
▁зогс	-996
▁явж	-997
▁олг	-998
▁оруул	-999
▁энд	-1000
лэж	-1001
гоор	-1002
▁C	-1003
▁өрг	-1004
▁түүнийг	-1005
оц	-1006
▁ажиллах	-1007
▁магад	-1008
рах	-1009
▁тул	-1010
эвэр	-1011
▁адил	-1012
юул	-1013
▁нөхц	-1014
▁зөвшөөр	-1015
▁9	-1016
эдэг	-1017
▁Эд	-1018
▁өөрсд	-1019
▁үгүй	-1020
▁дарга	-1021
▁хэрэгж	-1022
"-	-1023
▁P	-1024
▁өм	-1025
ar	-1026
▁шалг	-1027
▁газрын	-1028
▁зураг	-1029
нес	-1030
▁Хам	-1031
лөө	-1032
лаан	-1033
▁өс	-1034
▁Хятад	-1035
▁зэрэг	-1036
▁Гэтэл	-1037
▁барим	-1038
эрхий	-1039
▁уур	-1040
▁амжилт	-1041
▁бидний	-1042
оронд	-1043
даггүй	-1044
▁Засгийн	-1045
▁үндэс	-1046
▁ээж	-1047
▁олж	-1048
▁найз	-1049
▁итг	-1050
▁хая	-1051
▁мэдэх	-1052
ьсан	-1053
одог	-1054
үүнд	-1055
▁Р	-1056
ув	-1057
▁холбогд	-1058
▁сайд	-1059
▁холбоотой	-1060
▁сонгуул	-1061
▁боловср	-1062
▁хэлэлц	-1063
ет	-1064
элд	-1065
or	-1066
▁мөнг	-1067
▁Ир	-1068
олгой	-1069
▁мэнд	-1070
▁байгааг	-1071
▁үйлчилгээ	-1072
▁өнөөдөр	-1073
▁пр	-1074
үүдийн	-1075
▁суур	-1076
▁тэмдэг	-1077
үд	-1078
маар	-1079
▁ирэх	-1080
▁Тэгээд	-1081
илт	-1082
▁хөл	-1083
▁байгууллаг	-1084
▁_	-1085
▁явах	-1086
оно	-1087
▁дотор	-1088
▁зорилг	-1089
▁газр	-1090
▁үнэхээр	-1091
ган	-1092
▁уг	-1093
жиг	-1094
ей	-1095
▁судал	-1096
▁дуртай	-1097
▁буруу	-1098
▁ирээд	-1099
чдын	-1100
▁Мэд	-1101
▁бүрэн	-1102
гай	-1103
▁аюул	-1104
▁танилц	-1105
сний	-1106
▁гишүүн	-1107
дсэн	-1108
▁харь	-1109
▁дэлхийн	-1110
гдэх	-1111
аалт	-1112
▁таа	-1113
▁асуу	-1114
▁хүү	-1115
▁хэлсэн	-1116
▁заг	-1117
▁нийг	-1118
анк	-1119
▁гурван	-1120
▁эдийн	-1121
▁харж	-1122
▁Таны	-1123
үүдийг	-1124
▁өгсөн	-1125
▁үлд	-1126
▁хууд	-1127
яа	-1128
▁болдог	-1129
▁түм	-1130
▁болоод	-1131
▁байвал	-1132
төн	-1133
сийн	-1134
▁зөвл	-1135
ок	-1136
▁зов	-1137
аргал	-1138
▁шат	-1139
ээсээ	-1140
▁санагд	-1141
▁хүрг	-1142
▁мин	-1143
▁хүлээн	-1144
▁танд	-1145
▁Улсын	-1146
эгт	-1147
ел	-1148
таа	-1149
▁дугаар	-1150
▁гарсан	-1151
▁T	-1152
өрийн	-1153
▁буюу	-1154
ээнд	-1155
▁Хүүх	-1156
▁өөрийгөө	-1157
дугаар	-1158
▁салбар	-1159
en	-1160
алын	-1161
▁N	-1162
лөгөө	-1163
лэлийн	-1164
▁шаардлагатай	-1165
▁үл	-1166
▁мэдэгд	-1167
арга	-1168
ерик	-1169
▁хад	-1170
▁I	-1171
▁нэмэгд	-1172
хам	-1173
оны	-1174
▁мя	-1175
аатар	-1176
▁асуул	-1177
▁асуудлыг	-1178
рам	-1179
члэн	-1180
аасаа	-1181
▁үеийн	-1182
пор	-1183
▁гүйц	-1184
▁Хүн	-1185
▁зохион	-1186
▁алд	-1187
▁мэргэж	-1188
нө	-1189
тэн	-1190
▁гэм	-1191
▁Дараа	-1192
шил	-1193
▁Гэвч	-1194
▁гаруй	-1195
▁төрлийн	-1196
▁байн	-1197
▁засгийн	-1198
артай	-1199
ины	-1200
▁харин	-1201
▁бодлог	-1202
▁B	-1203
▁тооц	-1204
▁Шин	-1205
инд	-1206
▁зөр	-1207
гоо	-1208
дэнэ	-1209
гээд	-1210
саар	-1211
вээ	-1212
өгөө	-1213
ээрэй	-1214
▁долоо	-1215
үүдэд	-1216
▁ашигл	-1217
Би	-1218
хайн	-1219
▁хав	-1220
▁хөт	-1221
▁зүйлийг	-1222
▁хай	-1223
▁Түүний	-1224
▁хооронд	-1225
▁Ямар	-1226
ийнхөө	-1227
▁ойр	-1228
▁гарах	-1229
ум	-1230
▁улсад	-1231
▁бүсгүй	-1232
арим	-1233
рийн	-1234
▁чөлөө	-1235
▁100	-1236
st	-1237
ойр	-1238
▁дор	-1239
▁ярилц	-1240
▁бүтээл	-1241
▁шууд	-1242
▁зүгээр	-1243
ли	-1244
▁бизнес	-1245
▁ингэж	-1246
▁минут	-1247
▁мэдэхгүй	-1248
▁боллоо	-1249
ст	-1250
▁ач	-1251
▁нуу	-1252
▁үх	-1253
▁Өмн	-1254
▁боловч	-1255
▁эрүүл	-1256
▁настай	-1257
▁Гэр	-1258
ент	-1259
лэн	-1260
▁тогтоо	-1261
▁байгаад	-1262
▁бүтээгдэх	-1263
▁Үү	-1264
▁Эн	-1265
▁гэвэл	-1266
▁Орос	-1267
агс	-1268
le	-1269
▁болгох	-1270
▁байдлаар	-1271
бээр	-1272
▁төгс	-1273
элтэй	-1274
▁нүүр	-1275
▁авт	-1276
▁хэц	-1277
."	-1278
▁арг	-1279
▁хөрөнгө	-1280
өөн	-1281
▁бүхэн	-1282
рэг	-1283
сгал	-1284
▁Чи	-1285
▁батал	-1286
▁мар	-1287
▁баримт	-1288
уулдаг	-1289
▁явдал	-1290
▁гаргах	-1291
▁аав	-1292
▁илэрхий	-1293
▁Их	-1294
▁ерөнхий	-1295
▁мэдээ	-1296
хээ	-1297
▁Өнөөдөр	-1298
лох	-1299
▁0	-1300
▁болжээ	-1301
▁Үүнийг	-1302
бал	-1303
▁Олон	-1304
▁сол	-1305
▁хат	-1306
үүнээс	-1307
▁тай	-1308
▁наад	-1309
▁авна	-1310
▁ярьж	-1311
▁12	-1312
өгд	-1313
▁амар	-1314
оогүй	-1315
▁11	-1316
▁дүүр	-1317
▁үзүүл	-1318
▁чадвар	-1319
агн	-1320
▁доо	-1321
??	-1322
▁тас	-1323
▁оронд	-1324
▁болгон	-1325
▁иргэн	-1326
▁дагуу	-1327
инг	-1328
▁хэт	-1329
▁дөр	-1330
▁өгч	-1331
▁орох	-1332
▁хүнийг	-1333
▁15	-1334
▁H	-1335
▁гаргаж	-1336
амс	-1337
▁Үн	-1338
юут	-1339
▁сард	-1340
оёр	-1341
▁мэдр	-1342
▁хэцүү	-1343
▁Цаг	-1344
▁хичээл	-1345
▁шалтгаан	-1346
▁гэхэд	-1347
▁хүчин	-1348
төө	-1349
өлбөр	-1350
▁ирж	-1351
▁G	-1352
▁там	-1353
▁цэвэр	-1354
▁итгэл	-1355
▁өнгөрсөн	-1356
йл	-1357
эхийг	-1358
▁анхны	-1359
▁нөхцөл	-1360
▁хариуц	-1361
илцаа	-1362
▁өөрчлөлт	-1363
▁Зөв	-1364
▁хийдэг	-1365
▁Тэгвэл	-1366
▁дэлхий	-1367
▁хян	-1368
уулан	-1369
▁Ю	-1370
▁хариул	-1371
at	-1372
арсан	-1373
▁техн	-1374
▁чадах	-1375
▁Зарим	-1376
олог	-1377
▁бүл	-1378
ъя	-1379
▁D	-1380
истем	-1381
гий	-1382
▁компани	-1383
▁Уг	-1384
al	-1385
▁буур	-1386
гч	-1387
вроп	-1388
▁Ав	-1389
▁дээд	-1390
▁өрөө	-1391
ран	-1392
▁Нам	-1393
орж	-1394
▁тайлбар	-1395
▁дамж	-1396
рөг	-1397
▁таар	-1398
▁эв	-1399
▁F	-1400
шгүй	-1401
▁боддог	-1402
▁тоглоо	-1403
▁тухайн	-1404
длаа	-1405
▁байжээ	-1406
▁бая	-1407
▁улам	-1408
баатар	-1409
чиг	-1410
▁Хамгийн	-1411
▁хадгал	-1412
нз	-1413
▁му	-1414
ээх	-1415
▁жин	-1416
▁тэдний	-1417
▁хэрэггүй	-1418
▁хүлээж	-1419
▁алга	-1420
▁хэрэглэг	-1421
▁цааш	-1422
-1	-1423
ижиг	-1424
▁ярих	-1425
▁Бүх	-1426
▁эсрэг	-1427
сны	-1428
▁засаг	-1429
сү	-1430
oo	-1431
▁судалгаа	-1432
▁э	-1433
▁мэддэг	-1434
▁ашиглах	-1435
▁хуулийн	-1436
алттай	-1437
чдийн	-1438
▁сү	-1439
▁үзэж	-1440
ийнхээ	-1441
▁цах	-1442
гын	-1443
▁багш	-1444
▁Эх	-1445
▁хүмүүсийн	-1446
▁Америк	-1447
ласан	-1448
нэл	-1449
▁Эдгээр	-1450
▁гадаад	-1451
▁харилцаа	-1452
▁МАН	-1453
даад	-1454
ишээ	-1455
гүүр	-1456
▁жагс	-1457
▁дан	-1458
▁ярь	-1459
re	-1460
үүлэг	-1461
агдсан	-1462
▁Ту	-1463
▁гүйцэтг	-1464
▁дараах	-1465
▁нутгийн	-1466
▁байгаагүй	-1467
▁ст	-1468
вэр	-1469
▁хамаар	-1470
▁тохиолдолд	-1471
▁систем	-1472
▁магадгүй	-1473
▁аз	-1474
▁толгой	-1475
▁сург	-1476
▁шүүх	-1477
▁туш	-1478
▁бүрийн	-1479
▁бутл	-1480
▁огт	-1481
олоо	-1482
дийн	-1483
▁Эм	-1484
▁бүү	-1485
▁Тэрээр	-1486
иар	-1487
▁захир	-1488
▁хэлэх	-1489
▁бутлуур	-1490
өмж	-1491
▁цагийн	-1492
▁өдрийн	-1493
жин	-1494
▁30	-1495
▁айл	-1496
маа	-1497
арх	-1498
▁гаргасан	-1499
▁[	-1500
▁сүүлийн	-1501
▁санхүү	-1502
▁орчин	-1503
об	-1504
Эр	-1505
▁зүйлс	-1506
▁цэр	-1507
лэдэг	-1508
▁Хэрвээ	-1509
▁хэрэгс	-1510
энх	-1511
▁зав	-1512
▁бараг	-1513
▁Сан	-1514
▁болчих	-1515
▁эдгээр	-1516
▁Үнд	-1517
▁дээрх	-1518
▁нэв	-1519
▁үс	-1520
төнц	-1521
лэсэн	-1522
▁хүүхдүүд	-1523
▁үнэл	-1524
▁барил	-1525
▁хамгаалах	-1526
▁Ний	-1527
нээ	-1528
▁үзэх	-1529
▁төгрөг	-1530
ууны	-1531
▁хаан	-1532
▁хоногийн	-1533
▁харах	-1534
уулна	-1535
▁орсон	-1536
▁Дэлхийн	-1537
уулга	-1538
өхөөр	-1539
элээ	-1540
▁цагт	-1541
▁Европ	-1542
▁гэрээ	-1543
▁чанар	-1544
▁хөтөлбөр	-1545
▁нэгд	-1546
ac	-1547
▁бор	-1548
▁урьд	-1549
▁18	-1550
ou	-1551
уудад	-1552
▁заавал	-1553
▁Яагаад	-1554
иуд	-1555
▁гоё	-1556
▁боломжгүй	-1557
000	-1558
▁тань	-1559
▁харьц	-1560
чээ	-1561
▁бос	-1562
▁цэц	-1563
▁бүхий	-1564
алз	-1565
▁тун	-1566
▁төрөл	-1567
▁нарын	-1568
▁гадна	-1569
▁хэмжээний	-1570
өмб	-1571
▁Монголд	-1572
▁тойр	-1573
▁Учир	-1574
it	-1575
лагдсан	-1576
▁ухаан	-1577
тгий	-1578
алдаа	-1579
▁дээрээ	-1580
▁мянг	-1581
vv	-1582
олцоо	-1583
▁кино	-1584
▁Бай	-1585
▁чадна	-1586
▁худалдаа	-1587
▁W	-1588
▁Яп	-1589
▁Тус	-1590
тийн	-1591
чилж	-1592
▁гарг	-1593
▁алдаа	-1594
▁төлбөр	-1595
▁Энэхүү	-1596
▁намын	-1597
▁эмнэл	-1598
мд	-1599
▁түв	-1600
▁энэхүү	-1601
▁рүү	-1602
аахан	-1603
▁мэдэж	-1604
▁R	-1605
ман	-1606
▁E	-1607
чилсан	-1608
....	-1609
▁явсан	-1610
▁орны	-1611
▁хийн	-1612
▁L	-1613
▁хуудас	-1614
▁дууд	-1615
чихсан	-1616
▁аваад	-1617
▁нөхөр	-1618
лалаа	-1619
▁эхний	-1620
▁эхэлсэн	-1621
онгос	-1622
▁болохыг	-1623
тэйгээ	-1624
▁Хэн	-1625
▁банк	-1626
▁бэлэн	-1627
өнө	-1628
олын	-1629
▁зан	-1630
▁жаргал	-1631
▁ертөнц	-1632
▁насны	-1633
▁мал	-1634
▁хаана	-1635
▁байхдаа	-1636
▁Шинэ	-1637
▁бидэнд	-1638
▁Тэгэхээр	-1639
гуй	-1640
▁буц	-1641
▁Хоёр	-1642
▁тэрг	-1643
мэл	-1644
▁сэд	-1645
▁утас	-1646
▁хэлбэр	-1647
▁бичиг	-1648
▁шаардлаг	-1649
▁хурдан	-1650
▁онг	-1651
▁хүссэн	-1652
вор	-1653
баяр	-1654
▁Ерөнхийлөгч	-1655
ic	-1656
▁нүд	-1657
халтай	-1658
▁найр	-1659
▁удирд	-1660
▁дут	-1661
▁бүртг	-1662
▁цуг	-1663
▁орнууд	-1664
▁үргэлж	-1665
▁янз	-1666
▁оноос	-1667
алц	-1668
өрсөн	-1669
▁гэхдээ	-1670
▁мянган	-1671
▁тээ	-1672
▁сайт	-1673
ахыг	-1674
өөл	-1675
хийг	-1676
▁хүмүүст	-1677
om	-1678
▁асуудл	-1679
▁дай	-1680
▁Ингээд	-1681
▁хувийн	-1682
▁зү	-1683
бай	-1684
▁Бар	-1685
▁тулг	-1686
үүлэн	-1687
▁хувц	-1688
▁Бус	-1689
▁жижиг	-1690
Бат	-1691
сай	-1692
▁амьдарч	-1693
▁кин	-1694
ныг	-1695
гүйгээр	-1696
▁Үүний	-1697
▁март	-1698
▁үеэр	-1699
▁явц	-1700
▁ажлыг	-1701
▁хориг	-1702
ограм	-1703
▁ажилд	-1704
мж	-1705
лээд	-1706
▁болгож	-1707
▁хаг	-1708
ио	-1709
▁нис	-1710
өөц	-1711
▁угаа	-1712
▁орлог	-1713
▁Сол	-1714
▁бууд	-1715
үүлнэ	-1716
▁дүг	-1717
▁хөөр	-1718
лагын	-1719
алин	-1720
▁амьдралын	-1721
огц	-1722
▁нууц	-1723
▁шилж	-1724
хэг	-1725
руулах	-1726
▁аюулгүй	-1727
▁тоглолт	-1728
▁Хэд	-1729
▁Төрийн	-1730
▁бичсэн	-1731
▁хайртай	-1732
▁орч	-1733
сныг	-1734
▁Ур	-1735
▁хөдөлгөө	-1736
▁шинж	-1737
▁•	-1738
▁олох	-1739
▁үйлд	-1740
▁өмнөх	-1741
▁амьдар	-1742
нэр	-1743
▁Баг	-1744
▁бэр	-1745
саа	-1746
▁сонгол	-1747
аб	-1748
▁Тэрбээр	-1749
▁хотын	-1750
члэг	-1751
▁хүсч	-1752
▁14	-1753
Энх	-1754
▁зай	-1755
ээлт	-1756
▁зорилго	-1757
▁сайж	-1758
▁ихэнх	-1759
▁асуулт	-1760
▁хөн	-1761
▁унт	-1762
▁Бр	-1763
дол	-1764
▁Энд	-1765
үрх	-1766
▁түүнд	-1767
▁тоглоом	-1768
▁байдлыг	-1769
▁тов	-1770
▁хэлбэл	-1771
вөн	-1772
▁Ард	-1773
▁Мэдээж	-1774
▁Яг	-1775
▁ирээдүй	-1776
хгүй	-1777
▁байхыг	-1778
▁шаардлага	-1779
▁Бас	-1780
ью	-1781
өмбөг	-1782
▁ахуй	-1783
▁ажлаа	-1784
▁Над	-1785
es	-1786
эндээ	-1787
омжтой	-1788
▁тусл	-1789
▁мэдээллийг	-1790
▁Бидний	-1791
▁тэгээд	-1792
▁нэвтр	-1793
▁загвар	-1794
▁цар	-1795
▁зохиц	-1796
▁аймгийн	-1797
▁оруулах	-1798
▁агаар	-1799
▁үргэлжл	-1800
▁хэмжээнд	-1801
▁Нүүр	-1802
хар	-1803
▁урт	-1804
▁зориулсан	-1805
уулалт	-1806
Та	-1807
ших	-1808
▁соё	-1809
▁гэлээ	-1810
▁төрсөн	-1811
▁ажилладаг	-1812
▁нөгөө	-1813
▁бололтой	-1814
хэнэ	-1815
▁чиглэл	-1816
▁барих	-1817
ааны	-1818
згаар	-1819
▁бодох	-1820
лайн	-1821
уулаад	-1822
өхөөрөмж	-1823
▁өөртөө	-1824
▁өглөө	-1825
▁эмэгтэйчүүд	-1826
▁сонголт	-1827
▁Анг	-1828
▁эхнэр	-1829
mn	-1830
▁Сур	-1831
▁чамайг	-1832
▁хүүхдийн	-1833
▁ме	-1834
▁удаан	-1835
▁гурав	-1836
екс	-1837
▁Гад	-1838
▁За	-1839
үжиг	-1840
▁тэнд	-1841
▁Улаан	-1842
лалт	-1843
агдаж	-1844
гааны	-1845
ев	-1846
ян	-1847
дэггүй	-1848
▁арай	-1849
▁цагдаа	-1850
▁бүрд	-1851
гээс	-1852
▁явдаг	-1853
▁нийтийн	-1854
лагд	-1855
▁дээш	-1856
▁орчим	-1857
сээр	-1858
лар	-1859
нээр	-1860
▁мэднэ	-1861
▁гишүүд	-1862
▁Бол	-1863
▁үйлчл	-1864
▁төхөөрөмж	-1865
▁Өнг	-1866
▁эзэм	-1867
амд	-1868
▁битгий	-1869
санд	-1870
▁үндсэн	-1871
▁орд	-1872
▁гэдгээ	-1873
▁дал	-1874
▁төлөвл	-1875
▁хязгаар	-1876
жлийн	-1877
▁үзсэн	-1878
▁бүлийн	-1879
▁зарц	-1880
Энэ	-1881
уяа	-1882
▁буу	-1883
▁таныг	-1884
уучин	-1885
▁өөрийнхөө	-1886
▁бүтээгдэхүүн	-1887
хны	-1888
▁Бурханы	-1889
сг	-1890
ант	-1891
варын	-1892
▁мат	-1893
▁түмэн	-1894
▁Сүүл	-1895
▁орой	-1896
ашин	-1897
▁оюут	-1898
▁дүгн	-1899
▁жур	-1900
▁програм	-1901
▁технолог	-1902
▁199	-1903
▁түвшин	-1904
▁шилдэг	-1905
▁төлөвлөгөө	-1906
▁хийнэ	-1907
порт	-1908
▁гуй	-1909
▁өнөө	-1910
▁гэдэгт	-1911
▁Солонгос	-1912
гааш	-1913
▁уран	-1914
▁барьж	-1915
▁хэрэглэх	-1916
▁суурь	-1917
▁бөх	-1918
▁дэх	-1919
▁эргэл	-1920
▁t	-1921
▁сав	-1922
өөсөө	-1923
цээ	-1924
аах	-1925
▁хэдий	-1926
▁хувцас	-1927
икийн	-1928
▁гайх	-1929
▁эрт	-1930
лаад	-1931
▁тон	-1932
▁бодит	-1933
▁удаагийн	-1934
есс	-1935
▁хил	-1936
▁байгал	-1937
▁хөгжил	-1938
▁нэл	-1939
лагч	-1940
▁Бат	-1941
▁байл	-1942
ударга	-1943
▁Үүнээс	-1944
▁амр	-1945
▁эцэг	-1946
▁мод	-1947
am	-1948
▁очиж	-1949
▁нутаг	-1950
▁эхлэх	-1951
▁хоногт	-1952
▁Аз	-1953
энтэй	-1954
▁сууж	-1955
▁ня	-1956
▁тут	-1957
гаараа	-1958
▁нийгэм	-1959
▁чиний	-1960
▁хүрт	-1961
лжээ	-1962
▁өгнө	-1963
▁амьдрах	-1964
энгүй	-1965
этгэл	-1966
▁ээл	-1967
▁багт	-1968
ип	-1969
▁,	-1970
▁v	-1971
▁БН	-1972
эгүй	-1973
▁гэмт	-1974
▁p	-1975
кс	-1976
▁гом	-1977
агдах	-1978
▁хуур	-1979
▁авдаг	-1980
▁халдв	-1981
▁J	-1982
охой	-1983
▁байгууллага	-1984
▁тос	-1985
▁суралц	-1986
▁ашиглаж	-1987
▁хийгээд	-1988
врийн	-1989
▁ялгаа	-1990
сөлд	-1991
▁бариг	-1992
▁бодлого	-1993
▁13	-1994
▁туслах	-1995
олб	-1996
▁зүйн	-1997
мээр	-1998
▁өвч	-1999
▁ухаа	-2000
▁16	-2001
үнд	-2002
▁улир	-2003
тайгаа	-2004
▁хэрэглээ	-2005
ХА	-2006
эгдсэн	-2007
▁гэртээ	-2008
▁17	-2009
▁байдаггүй	-2010
201	-2011
▁эмч	-2012
▁сонирхолтой	-2013
▁·	-2014
▁хамр	-2015
▁бичлэг	-2016
▁яд	-2017
▁ижил	-2018
▁бүлэг	-2019
лөгчийн	-2020
ра	-2021
▁арил	-2022
гүү	-2023
иде	-2024
ноо	-2025
▁50	-2026
▁байнга	-2027
▁минутын	-2028
▁өөрчлөгд	-2029
▁шир	-2030
▁сургууль	-2031
ья	-2032
▁шү	-2033
▁жилд	-2034
▁сэтгүүл	-2035
▁худалдаж	-2036
ХУ	-2037
ro	-2038
элж	-2039
лэгч	-2040
**	-2041
длыг	-2042
нүүд	-2043
▁цалин	-2044
▁үүрэг	-2045
ед	-2046
барын	-2047
▁тусламж	-2048
▁баталгаа	-2049
эст	-2050
иваа	-2051
андаа	-2052
▁аргагүй	-2053
▁худалдан	-2054
▁захиал	-2055
агийн	-2056
жилгээ	-2057
▁Хүмүүс	-2058
▁ажээ	-2059
▁мах	-2060
▁нөөц	-2061
▁өгдөг	-2062
ериал	-2063
▁Тэдний	-2064
өдөө	-2065
▁Y	-2066
▁дөрвөн	-2067
эгдэл	-2068
▁чаддаг	-2069
оохон	-2070
▁оруулж	-2071
вол	-2072
!!!	-2073
.1	-2074
is	-2075
эрч	-2076
өсөн	-2077
▁хулг	-2078
▁яваа	-2079
▁гайхалтай	-2080
дэж	-2081
лам	-2082
▁дас	-2083
▁шагн	-2084
▁таван	-2085
▁хүрээнд	-2086
▁ойлгож	-2087
сыг	-2088
▁1-	-2089
▁сул	-2090
▁энгийн	-2091
▁иргэдийн	-2092
аасан	-2093
▁харилц	-2094
лбар	-2095
▁Дээр	-2096
ндаа	-2097
un	-2098
үүлдэг	-2099
▁тохиолдол	-2100
▁Хуул	-2101
▁25	-2102
тор	-2103
▁нутагт	-2104
▁зайл	-2105
▁хохир	-2106
▁гэхээр	-2107
▁дотоод	-2108
▁өгөө	-2109
he	-2110
▁цэг	-2111
лөх	-2112
▁Эц	-2113
▁c	-2114
▁өрсөлд	-2115
луулах	-2116
▁тавьж	-2117
▁зо	-2118
▁хүсэл	-2119
▁Түүн	-2120
▁гэжээ	-2121
▁хараад	-2122
▁суул	-2123
▁өнгө	-2124
▁эхлээд	-2125
▁бичих	-2126
дэх	-2127
▁юмаа	-2128
▁онгоц	-2129
▁тэрээр	-2130
маас	-2131
▁тавих	-2132
▁хувил	-2133
▁тушаал	-2134
гар	-2135
▁бэрх	-2136
▁тээр	-2137
▁Мар	-2138
▁яам	-2139
▁нийгмийн	-2140
▁тэрб	-2141
▁салбарт	-2142
хоо	-2143
▁хүмүүсийг	-2144
▁s	-2145
▁чадсан	-2146
акц	-2147
▁үедээ	-2148
оф	-2149
▁2020	-2150
еж	-2151
▁чамд	-2152
▁Түүнийг	-2153
юун	-2154
▁өргөн	-2155
▁дүү	-2156
▁мор	-2157
▁үүд	-2158
▁жишээ	-2159
▁сонин	-2160
▁төсөл	-2161
унд	-2162
▁хамаагүй	-2163
эсний	-2164
▁Өөрөөр	-2165
▁Монголчууд	-2166
▁ха	-2167
▁хаш	-2168
▁шинжилгээ	-2169
▁мэдээллийн	-2170
▁Анх	-2171
▁эргэн	-2172
▁Эс	-2173
эрлэг	-2174
Эрдэнэ	-2175
▁олд	-2176
▁е	-2177
▁бя	-2178
▁биел	-2179
ладаг	-2180
▁мөнгөн	-2181
эе	-2182
▁гал	-2183
уулагч	-2184
▁Тухайн	-2185
▁бээл	-2186
0-	-2187
сэг	-2188
▁явна	-2189
▁Хүний	-2190
▁O	-2191
огч	-2192
▁Зөвхөн	-2193
ирус	-2194
ay	-2195
гыг	-2196
▁хотод	-2197
ИЙ	-2198
et	-2199
▁m	-2200
▁Тан	-2201
▁өөрсдөө	-2202
гэх	-2203
▁нийтлэл	-2204
▁Өв	-2205
сын	-2206
▁зу	-2207
▁бүхнийг	-2208
ина	-2209
▁сууц	-2210
▁цахим	-2211
▁жинхэнэ	-2212
▁материал	-2213
АР	-2214
ing	-2215
▁Ажил	-2216
▁ажиллагааны	-2217
▁зүг	-2218
▁утга	-2219
▁үздэг	-2220
▁Өнгөрсөн	-2221
▁зүрх	-2222
Монгол	-2223
▁үнэгүй	-2224
▁2-	-2225
▁цагаан	-2226
▁Намайг	-2227
▁онлайн	-2228
▁хялбар	-2229
▁Хятадын	-2230
▁үзүүлэх	-2231
гүүд	-2232
▁шах	-2233
пп	-2234
▁дэвш	-2235
ol	-2236
▁чул	-2237
▁хамтран	-2238
▁24	-2239
▁бусд	-2240
ноос	-2241
▁Европын	-2242
ааж	-2243
хим	-2244
▁идэв	-2245
ad	-2246
унт	-2247
▁Ан	-2248
үрэн	-2249
▁Сайн	-2250
▁тэднийг	-2251
▁төд	-2252
эсгэл	-2253
▁байдалд	-2254
▁2016	-2255
гэрэнгүй	-2256
el	-2257
▁Сай	-2258
▁ман	-2259
▁жүжиг	-2260
▁эрэгтэй	-2261
▁Хув	-2262
▁бал	-2263
?"	-2264
дагч	-2265
▁нээ	-2266
▁хийлг	-2267
▁эрчим	-2268
▁хатуу	-2269
төр	-2270
▁газарт	-2271
▁Гер	-2272
▁сургалт	-2273
il	-2274
▁хурд	-2275
▁сургуулийн	-2276
▁сууд	-2277
аач	-2278
шээл	-2279
угай	-2280
ангуяа	-2281
▁татаж	-2282
▁тах	-2283
▁зогсоо	-2284
лх	-2285
▁оролцох	-2286
▁мэндийн	-2287
as	-2288
▁Энэт	-2289
▁бичиж	-2290
▁эрд	-2291
аалга	-2292
▁насан	-2293
▁дараагийн	-2294
▁хаж	-2295
маг	-2296
▁бээлий	-2297
▁хоолой	-2298
▁байгууллагын	-2299
▁яриа	-2300
▁үзэл	-2301
▁сонгох	-2302
▁шинэчл	-2303
▁тавь	-2304
▁хүргэж	-2305
▁бүртгэл	-2306
▁хүчний	-2307
▁алх	-2308
▁болт	-2309
▁очих	-2310
▁Бусад	-2311
▁хувилбар	-2312
▁үргэлжил	-2313
идео	-2314
▁Амьд	-2315
жлэх	-2316
▁бодол	-2317
болд	-2318
▁орх	-2319
▁чим	-2320
▁хангалттай	-2321
▁болз	-2322
▁эрсд	-2323
▁нарийн	-2324
▁байгуулах	-2325
ed	-2326
▁хүрч	-2327
▁ариу	-2328
▁хэлэхэд	-2329
).	-2330
▁Эл	-2331
▁нү	-2332
▁Үйл	-2333
▁хөдл	-2334
▁Фр	-2335
▁компанийн	-2336
агчид	-2337
▁Сонг	-2338
▁хүрэх	-2339
сийг	-2340
▁хүчтэй	-2341
▁бүгдийг	-2342
уулахад	-2343
ги	-2344
▁нийл	-2345
члал	-2346
▁мая	-2347
▁Ас	-2348
▁2012	-2349
▁хүнтэй	-2350
наа	-2351
▁адилхан	-2352
оонд	-2353
▁ярьдаг	-2354
▁хугацааны	-2355
эснээр	-2356
▁төдий	-2357
▁тусгаар	-2358
▁U	-2359
ag	-2360
лээр	-2361
▁лээ	-2362
длийг	-2363
▁улмаас	-2364
тгалз	-2365
▁хүрсэн	-2366
АХ	-2367
лиг	-2368
вийн	-2369
▁нэлээд	-2370
ээний	-2371
▁яри	-2372
▁түүн	-2373
▁яваад	-2374
огийн	-2375
өөдрийн	-2376
▁санхүүгийн	-2377
▁буцаа	-2378
аана	-2379
▁жир	-2380
▁мэдлэг	-2381
гад	-2382
▁татгалз	-2383
▁хэрэгжүүлэх	-2384
ow	-2385
▁тавьсан	-2386
▁шударга	-2387
▁V	-2388
▁Хур	-2389
▁боль	-2390
мыг	-2391
▁өрт	-2392
▁тэрбум	-2393
▁байдлын	-2394
▁мэргэжлийн	-2395
бэр	-2396
▁хүсэлт	-2397
▁зөвлөгөө	-2398
удал	-2399
▁өмс	-2400
▁хөгжлийн	-2401
▁тэнц	-2402
▁арван	-2403
▁ойлголт	-2404
▁урам	-2405
▁бэрхшээл	-2406
ахын	-2407
▁Надад	-2408
▁яриад	-2409
амсалтай	-2410
▁тэнэг	-2411
▁хос	-2412
▁үгийг	-2413
▁байшин	-2414
▁тусгай	-2415
▁биднийг	-2416
▁Гур	-2417
▁тусал	-2418
▁тоглох	-2419
▁21	-2420
▁Юу	-2421
▁ажилласан	-2422
▁Ээж	-2423
▁гараад	-2424
▁байгаагаа	-2425
рай	-2426
▁бэлэг	-2427
наж	-2428
▁нээлт	-2429
иц	-2430
▁уурхайн	-2431
длын	-2432
▁2017	-2433
▁тэтг	-2434
▁Гэсэн	-2435
▁талбай	-2436
▁(1	-2437
даас	-2438
▁чадаагүй	-2439
▁лав	-2440
▁хүй	-2441
ьютер	-2442
▁хөдөлм	-2443
▁илэрхийл	-2444
▁баярлалаа	-2445
▁бна	-2446
▁оршин	-2447
▁ОХУ	-2448
▁анги	-2449
▁боломжийг	-2450
▁өгүүл	-2451
▁мэдээж	-2452
▁дасгал	-2453
▁гу	-2454
▁Зур	-2455
▁дэлгүүр	-2456
айз	-2457
▁дургүй	-2458
▁салбарын	-2459
▁амжилттай	-2460
▁Хайр	-2461
үрэл	-2462
▁цэн	-2463
▁сүлжээ	-2464
пьютер	-2465
▁харсан	-2466
▁нарт	-2467
▁дэмжих	-2468
▁үндэсний	-2469
▁чин	-2470
▁илр	-2471
▁сах	-2472
ух	-2473
▁тээрэм	-2474
▁тэдгээр	-2475
▁амьдардаг	-2476
өмөр	-2477
▁талд	-2478
▁хуваал	-2479
орон	-2480
▁Зал	-2481
унтаг	-2482
▁суух	-2483
▁унших	-2484
▁зохиол	-2485
▁ойлгох	-2486
ош	-2487
итан	-2488
орын	-2489
өхгүй	-2490
▁блог	-2491
▁амьдралд	-2492
нээн	-2493
ot	-2494
▁ээлж	-2495
▁давуу	-2496
▁жаахан	-2497
▁сэргээ	-2498
өгч	-2499
▁доор	-2500
▁Сүүлийн	-2501
MN	-2502
ааг	-2503
▁2018	-2504
▁зарна	-2505
орно	-2506
▁алт	-2507
▁ёсны	-2508
лагийн	-2509
▁бодсон	-2510
▁үнэтэй	-2511
▁замын	-2512
▁томил	-2513
▁Эмэгтэй	-2514
▁хэргийн	-2515
▁үзэсгэл	-2516
▁харагдаж	-2517
▁онцлог	-2518
▁хэлдэг	-2519
▁монголчууд	-2520
гт	-2521
ирч	-2522
▁Өр	-2523
▁Өдөр	-2524
▁бэлтг	-2525
▁Үндсэн	-2526
▁ирнэ	-2527
▁оролд	-2528
▁гүн	-2529
чихсэн	-2530
▁станд	-2531
▁хүл	-2532
▁сурвал	-2533
▁суртал	-2534
▁Өг	-2535
▁нур	-2536
▁дэмжлэг	-2537
▁эрг	-2538
▁бэлтгэл	-2539
▁хайж	-2540
▁автом	-2541
▁үлдсэн	-2542
Бид	-2543
▁бүтэн	-2544
▁гарын	-2545
өөрөө	-2546
▁ажиг	-2547
▁|	-2548
бэл	-2549
үүлэгч	-2550
▁Магад	-2551
▁b	-2552
эргүү	-2553
оог	-2554
▁Төр	-2555
▁бүрт	-2556
▁нэрийг	-2557
▁татвар	-2558
▁амж	-2559
эрхүү	-2560
▁хамгаал	-2561
▁зэв	-2562
▁ахуйн	-2563
▁40	-2564
▁#	-2565
▁удахгүй	-2566
уудаа	-2567
▁Он	-2568
▁зээлийн	-2569
АЛ	-2570
бат	-2571
▁муж	-2572
▁Есү	-2573
▁гардаг	-2574
▁мө	-2575
▁2019	-2576
▁дахиад	-2577
ахаар	-2578
▁нунтаг	-2579
▁кон	-2580
тнууд	-2581
▁амиа	-2582
илгын	-2583
ага	-2584
▁ярьсан	-2585
▁чуул	-2586
▁тэнгэр	-2587
эргүүц	-2588
луул	-2589
▁цэргийн	-2590
▁Түүнчлэн	-2591
шаа	-2592
ЭН	-2593
▁нэгж	-2594
▁үлдээ	-2595
▁явуулах	-2596
лэнэ	-2597
ээээ	-2598
▁дүнд	-2599
▁Ком	-2600
▁дэмжиж	-2601
▁жагсаалт	-2602
▁хэрэгсэл	-2603
жлын	-2604
▁нохой	-2605
▁мэдрэмж	-2606
▁яар	-2607
алтыг	-2608
▁интер	-2609
эрсэн	-2610
▁маргааш	-2611
▁эсэхийг	-2612
▁ажиллагааг	-2613
▁дэг	-2614
▁охид	-2615
▁онцгой	-2616
▁магадлал	-2617
▁?	-2618
ондоо	-2619
▁ов	-2620
▁2015	-2621
▁хүсэж	-2622
▁1.	-2623
▁Хэрэг	-2624
▁яахав	-2625
▁за	-2626
▁сөр	-2627
длийн	-2628
игийн	-2629
▁эсэх	-2630
▁Хүүхд	-2631
▁тоног	-2632
▁Газ	-2633
ion	-2634
снээр	-2635
чигдөр	-2636
тон	-2637
үүлээд	-2638
▁ирдэг	-2639
▁хөдөлгөөн	-2640
▁тэж	-2641
▁хэмжээг	-2642
ew	-2643
▁шар	-2644
▁итгэлтэй	-2645
▁шаардлагагүй	-2646
рист	-2647
снаас	-2648
уб	-2649
заар	-2650
▁сонгуулийн	-2651
▁ороод	-2652
слэлийн	-2653
▁Гадаад	-2654
ur	-2655
▁илгээ	-2656
▁хуваалц	-2657
▁гут	-2658
чүүдийн	-2659
▁Ин	-2660
▁Япон	-2661
▁Нөгөө	-2662
ээч	-2663
▁хас	-2664
▁гэрийн	-2665
▁газраас	-2666
▁тэдэнд	-2667
▁элс	-2668
▁бодис	-2669
▁доллар	-2670
▁халдвар	-2671
▁жаргалтай	-2672
▁оо	-2673
▁огц	-2674
илгаан	-2675
этгээд	-2676
▁алдсан	-2677
▁үйлдэл	-2678
▁уй	-2679
▁байлг	-2680
▁томоохон	-2681
▁ёсоор	-2682
▁давхар	-2683
▁хүсдэг	-2684
▁сургуульд	-2685
▁нарыг	-2686
-2	-2687
чдад	-2688
▁сурах	-2689
▁амьтан	-2690
▁ашигтай	-2691
▁Аав	-2692
▁тарх	-2693
▁хүчир	-2694
▁пар	-2695
▁байнаа	-2696
игд	-2697
▁бөмбөг	-2698
▁түмний	-2699
єє	-2700
▁хяналт	-2701
▁эсэргүүц	-2702
тний	-2703
шигч	-2704
▁сэргий	-2705
▁зөвлөл	-2706
▁эмчилгээ	-2707
▁Бая	-2708
▁шагнал	-2709
▁шалгар	-2710
▁Магадгүй	-2711
▁гарга	-2712
▁этгээд	-2713
▁Түүнээс	-2714
▁алхам	-2715
▁цэцэрлэг	-2716
▁зүтг	-2717
иас	-2718
▁Ерөнхийлөгчийн	-2719
▁вэб	-2720
▁ног	-2721
▁аялал	-2722
▁идэвх	-2723
▁Америкийн	-2724
▁үзүүлэлт	-2725
шээ	-2726
▁бр	-2727
▁дуул	-2728
▁хулгай	-2729
уууу	-2730
оорой	-2731
▁тэгж	-2732
▁нэмэлт	-2733
▁өөрсдийн	-2734
▁22	-2735
слэл	-2736
▁зуу	-2737
▁тэс	-2738
▁Бүгд	-2739
▁Франц	-2740
▁талаас	-2741
▁хэлээд	-2742
▁компаниуд	-2743
▁хятад	-2744
id	-2745
▁Өмнөх	-2746
▁дүгнэлт	-2747
▁хурал	-2748
▁хэсэгт	-2749
▁өөрчлөх	-2750
ТГ	-2751
чдыг	-2752
▁хагас	-2753
▁Өөрийн	-2754
▁Улаанбаатар	-2755
▁ос	-2756
▁2014	-2757
▁шүүм	-2758
▁сэдэв	-2759
▁Аф	-2760
▁өвд	-2761
▁төсөв	-2762
▁хариулт	-2763
▁ХХ	-2764
▁дотр	-2765
▁мөрд	-2766
эвчлэн	-2767
▁Эсвэл	-2768
▁орос	-2769
▁тээврийн	-2770
▁сор	-2771
оосон	-2772
цгаа	-2773
▁бах	-2774
▁тогтвор	-2775
▁хэрэглэж	-2776
▁3-	-2777
▁учиртай	-2778
▁анхаарал	-2779
ьс	-2780
▁ирлээ	-2781
▁Британ	-2782
▁хэрэгцээ	-2783
▁асуудлаар	-2784
▁байгуулсан	-2785
▁X	-2786
▁Ажлын	-2787
▁Амьдрал	-2788
▁дэр	-2789
▁Цааш	-2790
us	-2791
гаасаа	-2792
портын	-2793
▁Энэтхэг	-2794
мал	-2795
▁өдөрт	-2796
▁орлого	-2797
дрийн	-2798
огино	-2799
▁стр	-2800
▁эзэн	-2801
▁амархан	-2802
##	-2803
АА	-2804
чдэд	-2805
▁бараа	-2806
▁Тав	-2807
▁дая	-2808
▁хуваар	-2809
▁явуулж	-2810
▁шав	-2811
▁шөнө	-2812
▁алдаг	-2813
▁тамир	-2814
▁мас	-2815
▁2008	-2816
▁вакц	-2817
▁хөнг	-2818
▁уншиж	-2819
▁дэд	-2820
▁урьдчил	-2821
▁Ганц	-2822
▁Хор	-2823
▁авчир	-2824
▁хэвээр	-2825
▁тохиромжтой	-2826
имп	-2827
▁баяртай	-2828
▁d	-2829
▁сүр	-2830
▁чих	-2831
▁сурвалж	-2832
▁Оросын	-2833
▁Үр	-2834
лагыг	-2835
▁эрхийг	-2836
▁сонгуульд	-2837
гэ	-2838
▁хямд	-2839
▁хандаж	-2840
▁дурс	-2841
ent	-2842
▁Хот	-2843
▁тор	-2844
өндөө	-2845
▁танай	-2846
▁багийн	-2847
▁хэдийн	-2848
хад	-2849
▁цөөн	-2850
▁шинээр	-2851
▁Хөг	-2852
▁жолоо	-2853
▁олгох	-2854
▁хуралдаа	-2855
▁орно	-2856
▁хурим	-2857
▁өвчин	-2858
▁тоглог	-2859
▁холбогдох	-2860
ch	-2861
▁Баяр	-2862
▁товч	-2863
▁хамтдаа	-2864
▁Дэлхий	-2865
▁хэвлэл	-2866
▁ганцаараа	-2867
21	-2868
▁ажилтан	-2869
▁амьсгал	-2870
▁түүнээс	-2871
▁хаяг	-2872
▁бурхан	-2873
зан	-2874
▁байд	-2875
▁түвшинд	-2876
ээдэг	-2877
▁эрдэм	-2878
УУ	-2879
▁талын	-2880
▁бодоод	-2881
▁замаар	-2882
▁сонгууль	-2883
▁жуул	-2884
▁K	-2885
▁Гар	-2886
▁хийхэд	-2887
ихгүй	-2888
▁зориг	-2889
▁хөө	-2890
▁харахад	-2891
eb	-2892
АЙ	-2893
▁нот	-2894
▁Холб	-2895
▁Аль	-2896
▁Хал	-2897
▁ойролцоо	-2898
уц	-2899
▁аш	-2900
▁Нийт	-2901
▁зүйлээ	-2902
▁Ингэснээр	-2903
▁цом	-2904
▁олсон	-2905
▁Хүүхэд	-2906
▁бүхэнд	-2907
▁тэрбээр	-2908
евиз	-2909
элийн	-2910
▁нийц	-2911
▁оролцож	-2912
бор	-2913
▁өө	-2914
▁эхэлж	-2915
уудаас	-2916
үрэлсү	-2917
▁видео	-2918
▁төрөлх	-2919
▁өл	-2920
▁мөрөөд	-2921
▁байранд	-2922
▁зургийг	-2923
▁тэмцээн	-2924
▁шалгалт	-2925
▁үзээрэй	-2926
▁болгосон	-2927
▁Нар	-2928
▁алба	-2929
▁дүрэм	-2930
▁уурхай	-2931
▁эхэллээ	-2932
ъё	-2933
▁Тур	-2934
▁Ихэн	-2935
▁Иргэд	-2936
илга	-2937
▁Бүр	-2938
үүдээ	-2939
▁эргэж	-2940
▁тайван	-2941
кк	-2942
▁тел	-2943
▁Үндэсний	-2944
▁багас	-2945
▁зүйтэй	-2946
▁тоглож	-2947
▁хэрэгт	-2948
ель	-2949
асны	-2950
▁Эрх	-2951
▁Залуу	-2952
▁цагдаагийн	-2953
оу	-2954
ойд	-2955
▁амт	-2956
▁барь	-2957
огдсон	-2958
▁Ингэж	-2959
▁ангил	-2960
▁зүгээс	-2961
▁бул	-2962
▁цай	-2963
▁Өмнөд	-2964
▁Ой	-2965
▁Жишээ	-2966
▁даатг	-2967
▁эхлэн	-2968
▁Ял	-2969
▁давт	-2970
▁худлаа	-2971
▁компьютер	-2972
▁хож	-2973
удамж	-2974
▁аварга	-2975
▁нэртэй	-2976
▁байсныг	-2977
▁оноо	-2978
▁гарна	-2979
▁f	-2980
лол	-2981
▁зардал	-2982
▁цаашид	-2983
▁уулзалт	-2984
▁өсөлт	-2985
▁оруулсан	-2986
ub	-2987
руул	-2988
▁эгч	-2989
амжийн	-2990
▁Энх	-2991
▁асар	-2992
▁эргэлз	-2993
онх	-2994
наар	-2995
▁Дав	-2996
▁Маш	-2997
▁Том	-2998
ба	-2999
би	-3000
пер	-3001
улга	-3002
▁зөвшөөрөл	-3003
лбал	-3004
▁тоол	-3005
гаагүй	-3006
▁2013	-3007
▁Нийг	-3008
▁хоёрын	-3009
▁ашигладаг	-3010
▁Уул	-3011
▁хуучин	-3012
▁*	-3013
▁Сон	-3014
▁соёл	-3015
ангийн	-3016
▁шалтгаа	-3017
енеж	-3018
нгын	-3019
▁ангийн	-3020
▁дий	-3021
▁ялг	-3022
▁хааг	-3023
▁дүнтэй	-3024
Ал	-3025
▁зая	-3026
▁хэлний	-3027
шуул	-3028
▁чаддаггүй	-3029
▁хариуцлага	-3030
▁дүүрэн	-3031
▁хүүхдээ	-3032
оль	-3033
▁им	-3034
▁өрн	-3035
▁чулуу	-3036
▁хөв	-3037
▁Эрүүл	-3038
▁хэвийн	-3039
▁хувьцаа	-3040
гам	-3041
сар	-3042
▁гоо	-3043
▁гэрэл	-3044
▁хөдөлмөр	-3045
▁санагддаг	-3046
▁боо	-3047
▁Орон	-3048
▁эрхтэй	-3049
шөө	-3050
▁Сү	-3051
▁Бод	-3052
▁зуун	-3053
бир	-3054
шиж	-3055
▁2.	-3056
▁хөх	-3057
▁хувийг	-3058
лана	-3059
▁буул	-3060
▁албаны	-3061
▁сув	-3062
▁итгэж	-3063
▁хангах	-3064
рийг	-3065
илийн	-3066
▁уламжл	-3067
▁хэргийг	-3068
▁болоогүй	-3069
▁анзаар	-3070
▁түрээс	-3071
ла	-3072
ҮБ	-3073
чихаад	-3074
▁нөхөд	-3075
▁төгсг	-3076
▁нээлттэй	-3077
лов	-3078
мад	-3079
▁Ихэнх	-3080
▁дөрөв	-3081
▁зориулж	-3082
▁нэгдсэн	-3083
▁чиглэлээр	-3084
анх	-3085
▁Ил	-3086
▁Төв	-3087
▁үзэг	-3088
▁Хүүхдийн	-3089
▁юмуу	-3090
▁Зүгээр	-3091
▁дайр	-3092
▁дэлг	-3093
▁сайдын	-3094
▁шалгах	-3095
▁цахилгаан	-3096
лолт	-3097
▁Хууль	-3098
▁зорилгоор	-3099
чиж	-3100
▁одоогийн	-3101
сайхан	-3102
▁номын	-3103
▁хүргэе	-3104
▁ихэвчлэн	-3105
▁оролцсон	-3106
▁чанартай	-3107
▁урьдчилан	-3108
▁i	-3109
▁Ох	-3110
▁мян	-3111
▁цув	-3112
дүгээр	-3113
▁хөдөө	-3114
▁сонсох	-3115
▁алдартай	-3116
▁Оюут	-3117
▁ганцхан	-3118
▁Зах	-3119
▁дайн	-3120
▁аливаа	-3121
тгах	-3122
▁зуур	-3123
▁үзнэ	-3124
▁даяар	-3125
даагүй	-3126
▁хям	-3127
▁стандарт	-3128
ям	-3129
▁талаарх	-3130
▁порно	-3131
▁төлөх	-3132
▁хичээ	-3133
▁нөхцөлд	-3134
▁шийдвэрлэх	-3135
ЭГ	-3136
ХАУ	-3137
лгэр	-3138
лөл	-3139
тэд	-3140
▁өд	-3141
мол	-3142
▁ХХК	-3143
▁бохир	-3144
▁хүрээл	-3145
▁Ах	-3146
▁эг	-3147
▁Мэр	-3148
тэр	-3149
▁агаарын	-3150
▁үнэлгээ	-3151
▁байлгүй	-3152
▁Одоогоор	-3153
▁чадвартай	-3154
▁дэлгэрэнгүй	-3155
30	-3156
▁эрхэм	-3157
▁сам	-3158
▁тогтвортой	-3159
лоор	-3160
▁хэмээ	-3161
▁Үз	-3162
▁тогтоол	-3163
улаа	-3164
эхэ	-3165
амын	-3166
▁2011	-3167
▁санаж	-3168
▁хэмээх	-3169
▁	-3170
а	-3171
э	-3172
н	-3173
г	-3174
л	-3175
р	-3176
д	-3177
о	-3178
х	-3179
й	-3180
и	-3181
у	-3182
ү	-3183
т	-3184
с	-3185
б	-3186
ө	-3187
м	-3188
.	-3189
ж	-3190
в	-3191
ч	-3192
ы	-3193
з	-3194
ь	-3195
ш	-3196
ц	-3197
я	-3198
,	-3199
е	-3200
Т	-3201
-	-3202
Х	-3203
ю	-3204
"	-3205
Б	-3206
Э	-3207
0	-3208
А	-3209
1	-3210
к	-3211
М	-3212
2	-3213
Н	-3214
?	-3215
Г	-3216
У	-3217
ё	-3218
С	-3219
e	-3220
п	-3221
Д	-3222
:	-3223
О	-3224
И	-3225
o	-3226
a	-3227
З	-3228
Ө	-3229
n	-3230
Ү	-3231
i	-3232
3	-3233
r	-3234
5	-3235
t	-3236
9	-3237
s	-3238
4	-3239
!	-3240
Я	-3241
l	-3242
8	-3243
Ш	-3244
Е	-3245
6	-3246
7	-3247
Ц	-3248
)	-3249
u	-3250
Ч	-3251
v	-3252
Ж	-3253
К	-3254
ф	-3255
(	-3256
Л	-3257
m	-3258
c	-3259
d	-3260
/	-3261
Р	-3262
S	-3263
h	-3264
p	-3265
g	-3266
M	-3267
A	-3268
y	-3269
P	-3270
I	-3271
П	-3272
C	-3273
В	-3274
b	-3275
N	-3276
T	-3277
D	-3278
k	-3279
є	-3280
E	-3281
B	-3282
w	-3283
O	-3284
Ф	-3285
_	-3286
ъ	-3287
R	-3288
Й	-3289
G	-3290
L	-3291
f	-3292
F	-3293
H	-3294
;	-3295
*	-3296
x	-3297
Ю	-3298
W	-3299
[	-3300
]	-3301
#	-3302
U	-3303
V	-3304
%	-3305
·	-3306
'	-3307
Y	-3308
J	-3309
•	-3310
X	-3311
>	-3312
ѳ	-3313
K	-3314
z	-3315
|	-3316
$	-3317
j	-3318
Ё	-3319
Ы	-3320
ї	-3321
&	-3322
+	-3323
=	-3324
~	-3325
Z	-3326
<	-3327
Q	-3328
Ь	-3329
q	-3330
^	-3331
@	-3332
→	-3333
ђ	-3334
щ	-3335
һ	-3336
î	-3337
Є	-3338
₮	-3339
🙂	-3340
️	-3341
ҕ	-3342
ҥ	-3343
°	-3344
←	-3345
{	-3346
ا	-3347
à	-3348
′	-3349
}	-3350
ý	-3351
ر	-3352
€	-3353
ü	-3354
¬	-3355
\	-3356
é	-3357
í	-3358
●	-3359
ә	-3360
ë	-3361
ñ	-3362
ѐ	-3363
¿	-3364
ò	-3365
ل	-3366
›	-3367
😀	-3368
â	-3369
©	-3370
Ъ	-3371
↑	-3372
è	-3373
س	-3374
►	-3375
ã	-3376
Ѳ	-3377
ة	-3378
ك	-3379
❤	-3380
ح	-3381
Í	-3382
®	-3383
ä	-3384
₪	-3385
ð	-3386
ج	-3387
́	-3388
√	-3389
£	-3390
♥	-3391
✅	-3392
😉	-3393
Ї	-3394
🎁	-3395
✔	-3396
õ	-3397
い	-3398
á	-3399
☮	-3400
♛	-3401
ó	-3402
Щ	-3403
ᄏ	-3404
★	-3405
😛	-3406
な	-3407
ö	-3408
ん	-3409
Џ	-3410
ѕ	-3411
م	-3412
时	-3413
し	-3414
ў	-3415
の	-3416
・	-3417
ي	-3418
≤	-3419
☞	-3420
す	-3421
×	-3422
ң	-3423
ı	-3424
😍	-3425
🙏	-3426
ì	-3427
ā	-3428
і	-3429
⁄	-3430
÷	-3431
μ	-3432
ま	-3433
る	-3434
😭	-3435
Ø	-3436
Ќ	-3437
う	-3438
て	-3439
😂	-3440
😅	-3441
§	-3442
ћ	-3443
қ	-3444
に	-3445
이	-3446
🔊	-3447
🔥	-3448
😊	-3449
ï	-3450
ø	-3451
җ	-3452
ᅲ	-3453
ế	-3454
≈	-3455
】	-3456
名	-3457
û	-3458
̄	-3459
ن	-3460
♦	-3461
♪	-3462
✿	-3463
【	-3464
そ	-3465
で	-3466
ら	-3467
±	-3468
ç	-3469
ɵ	-3470
Ў	-3471
ќ	-3472
※	-3473
「	-3474
か	-3475
歌	-3476
æ	-3477
ə	-3478
α	-3479
І	-3480
ع	-3481
و	-3482
♫	-3483
あ	-3484
く	-3485
こ	-3486
た	-3487
彩	-3488
曲	-3489
称	-3490
요	-3491
🏻	-3492
¥	-3493
̈	-3494
γ	-3495
د	-3496
⭐	-3497
」	-3498
と	-3499
よ	-3500
り	-3501
れ	-3502
ー	-3503
👉	-3504
👏	-3505
💵	-3506
🤗	-3507
🤣	-3508
🤩	-3509
Õ	-3510
ş	-3511
‐	-3512
↓	-3513
↙	-3514
✓	-3515
。	-3516
が	-3517
だ	-3518
は	-3519
を	-3520
国	-3521
나	-3522
😦	-3523
😱	-3524
Á	-3525
Ü	-3526
š	-3527
ه	-3528
†	-3529
−	-3530
⋆	-3531
☈	-3532
♚	-3533
お	-3534
き	-3535
っ	-3536
も	-3537
ン	-3538
学	-3539
書	-3540
어	-3541
유	-3542
👍	-3543
📌	-3544
😢	-3545
¦	-3546
Ş	-3547
ƒ	-3548
ɪ	-3549
Ћ	-3550
ո	-3551
י	-3552
ר	-3553
ف	-3554
ᄂ	-3555
■	-3556
◆	-3557
○	-3558
☺	-3559
♡	-3560
け	-3561
ば	-3562
日	-3563
기	-3564
리	-3565
💯	-3566
¢	-3567
Ç	-3568
É	-3569
ư	-3570
ˈ	-3571
̷	-3572
β	-3573
ι	-3574
π	-3575
ұ	-3576
ն	-3577
א	-3578
ی	-3579
ᄅ	-3580
ᠠ	-3581
ᠢ	-3582
ớ	-3583
≥	-3584
▪	-3585
☆	-3586
✨	-3587
➜	-3588
➡	-3589
、	-3590
さ	-3591
せ	-3592
ち	-3593
つ	-3594
め	-3595
わ	-3596
ル	-3597
人	-3598
会	-3599
時	-3600
楽	-3601
김	-3602
니	-3603
다	-3604
¤	-3605
Ò	-3606
ß	-3607
ο	-3608
џ	-3609
ґ	-3610
Һ	-3611
ա	-3612
ե	-3613
մ	-3614
ط	-3615
غ	-3616
ᠳ	-3617
―	-3618
‹	-3619
⃣	-3620
∞	-3621
▲	-3622
◊	-3623
☀	-3624
♀	-3625
ご	-3626
じ	-3627
一	-3628
古	-3629
図	-3630
愛	-3631
江	-3632
済	-3633
経	-3634
蒙	-3635
行	-3636
表	-3637
路	-3638
返	-3639
部	-3640
際	-3641
말	-3642
배	-3643
사	-3644
서	-3645
정	-3646
지	-3647
하	-3648
🔴	-3649
😁	-3650
😘	-3651
À	-3652
Ã	-3653
Ë	-3654
Ñ	-3655
Ý	-3656
ú	-3657
İ	-3658
ō	-3659
ω	-3660
Ѕ	-3661
ғ	-3662
ל	-3663
ب	-3664
ق	-3665
ہ	-3666
ค	-3667
᠋	-3668
ᠨ	-3669
ᠷ	-3670
₩	-3671
▼	-3672
☛	-3673
☻	-3674
♂	-3675
え	-3676
げ	-3677
ょ	-3678
ㄟ	-3679
中	-3680
台	-3681
平	-3682
文	-3683
月	-3684
本	-3685
語	-3686
間	-3687
내	-3688
대	-3689
비	-3690
세	-3691
아	-3692
영	-3693
원	-3694
저	-3695
제	-3696
한	-3697
🇷	-3698
🌟	-3699
👩	-3700
💎	-3701
💥	-3702
📍	-3703
😃	-3704
😆	-3705
😇	-3706
😜	-3707
😝	-3708
🥳	-3709
Ä	-3710
Ð	-3711
Ö	-3712
å	-3713
ê	-3714
ô	-3715
þ	-3716
Ā	-3717
č	-3718
ī	-3719
Œ	-3720
ʀ	-3721
̀	-3722
Δ	-3723
ί	-3724
θ	-3725
λ	-3726
σ	-3727
ѓ	-3728
Ҥ	-3729
Ӏ	-3730
ӈ	-3731
ӓ	-3732
ӧ	-3733
ӱ	-3734
ս	-3735
տ	-3736
ւ	-3737
ք	-3738
נ	-3739
ע	-3740
أ	-3741
ش	-3742
ى	-3743
ন	-3744
ਰ	-3745
க	-3746
ง	-3747
น	-3748
ม	-3749
ย	-3750
โ	-3751
่	-3752
ᠡ	-3753
ᠦ	-3754
ᴇ	-3755
ḥ	-3756
ṭ	-3757
‖	-3758
∙	-3759
◦	-3760
☎	-3761
⚡	-3762
⚫	-3763
❗	-3764
➢	-3765
⦁	-3766
《	-3767
》	-3768
〓	-3769
ざ	-3770
ど	-3771
ひ	-3772
み	-3773
ゃ	-3774
や	-3775
キ	-3776
ゴ	-3777
シ	-3778
ナ	-3779
フ	-3780
モ	-3781
リ	-3782
上	-3783
下	-3784
件	-3785
信	-3786
出	-3787
天	-3788
子	-3789
我	-3790
法	-3791
版	-3792
现	-3793
的	-3794
自	-3795
软	-3796
达	-3797
通	-3798
音	-3799
高	-3800
경	-3801
구	-3802
국	-3803
뉴	-3804
는	-3805
라	-3806
로	-3807
바	-3808
법	-3809
부	-3810
수	-3811
스	-3812
신	-3813
야	-3814
오	-3815
우	-3816
의	-3817
인	-3818
자	-3819
장	-3820
주	-3821
태	-3822
토	-3823
티	-3824
함	-3825
해	-3826
현	-3827
횊	-3828
회	-3829
후	-3830
︎	-3831
🌈	-3832
🍷	-3833
🎯	-3834
🏠	-3835
👎	-3836
👨	-3837
💚	-3838
💜	-3839
💫	-3840
💰	-3841
🔬	-3842
🔰	-3843
🚗	-3844
🤑	-3845
🤘	-3846
🤟	-3847
🤮	-3848
🥇	-3849
Æ	-3850
È	-3851
ÿ	-3852
ć	-3853
Č	-3854
đ	-3855
ĕ	-3856
ė	-3857
ğ	-3858
Ł	-3859
ł	-3860
ń	-3861
ś	-3862
ū	-3863
ǿ	-3864
ɐ	-3865
ʜ	-3866
ˌ	-3867
̌	-3868
͜	-3869
Ω	-3870
δ	-3871
ε	-3872
κ	-3873
ν	-3874
ρ	-3875
ς	-3876
φ	-3877
ј	-3878
њ	-3879
Ґ	-3880
Ҳ	-3881
ҳ	-3882
ӣ	-3883
կ	-3884
ղ	-3885
ր	-3886
ב	-3887
ג	-3888
ה	-3889
ו	-3890
ת	-3891
ت	-3892
خ	-3893
ذ	-3894
ص	-3895
ک	-3896
क	-3897
ब	-3898
ल	-3899
ा	-3900
া	-3901
ু	-3902
্	-3903
ਟ	-3904
ਪ	-3905
ਸ	-3906
ก	-3907
ซ	-3908
ด	-3909
ล	-3910
ส	-3911
อ	-3912
ิ	-3913
ี	-3914
เ	-3915
ใ	-3916
้	-3917
྆	-3918
န	-3919
မ	-3920
့	-3921
း	-3922
ᄀ	-3923
ᆞ	-3924
ᠥ	-3925
ᠬ	-3926
ᠭ	-3927
ᠮ	-3928
ᠶ	-3929
ᵴ	-3930
ḍ	-3931
ṅ	-3932
ṇ	-3933
‣	-3934
‰	-3935
₽	-3936
↔	-3937
⇒	-3938
⇨	-3939
∂	-3940
∆	-3941
≠	-3942
⎪	-3943
⏱	-3944
│	-3945
█	-3946
□	-3947
▶	-3948
☹	-3949
♏	-3950
♔	-3951
♠	-3952
⚽	-3953
✈	-3954
❀	-3955
❄	-3956
❷	-3957
❹	-3958
❼	-3959
⠀	-3960
ぐ	-3961
ぶ	-3962
ゅ	-3963
ろ	-3964
イ	-3965
ウ	-3966
ギ	-3967
ク	-3968
コ	-3969
サ	-3970
ソ	-3971
ダ	-3972
ド	-3973
ブ	-3974
ャ	-3975
ョ	-3976
ㄍ	-3977
ㄎ	-3978
ㄨ	-3979
世	-3980
业	-3981
个	-3982
交	-3983
介	-3984
仔	-3985
代	-3986
们	-3987
住	-3988
作	-3989
便	-3990
内	-3991
分	-3992
十	-3993
南	-3994
号	-3995
合	-3996
品	-3997
商	-3998
回	-3999
団	-4000
图	-4001
地	-4002
基	-4003
変	-4004
夢	-4005
安	-4006
展	-4007
山	-4008
形	-4009
後	-4010
御	-4011
手	-4012
族	-4013
是	-4014
曜	-4015
李	-4016
松	-4017
止	-4018
気	-4019
水	-4020
流	-4021
点	-4022
理	-4023
生	-4024
用	-4025
田	-4026
発	-4027
皇	-4028
社	-4029
简	-4030
管	-4031
紀	-4032
線	-4033
网	-4034
美	-4035
翻	-4036
者	-4037
聲	-4038
胡	-4039
解	-4040
言	-4041
証	-4042
話	-4043
誌	-4044
译	-4045
请	-4046
责	-4047
身	-4048
載	-4049
近	-4050
達	-4051
重	-4052
金	-4053
鈴	-4054
门	-4055
革	-4056
類	-4057
麦	-4058
黑	-4059
龙	-4060
꧁	-4061
게	-4062
고	-4063
권	-4064
규	-4065
남	-4066
너	-4067
노	-4068
도	-4069
동	-4070
루	-4071
르	-4072
린	-4073
무	-4074
미	-4075
민	-4076
보	-4077
브	-4078
새	-4079
선	-4080
시	-4081
안	-4082
알	-4083
없	-4084
역	-4085
연	-4086
예	-4087
올	-4088
으	-4089
은	-4090
을	-4091
전	-4092
즈	-4093
직	-4094
창	-4095
초	-4096
최	-4097
크	-4098
통	-4099
튜	-4100
트	-4101
화	-4102
훈	-4103
희	-4104
🇰	-4105
🇲	-4106
🇺	-4107
🌙	-4108
🌱	-4109
🌸	-4110
🎧	-4111
👀	-4112
👐	-4113
👷	-4114
💁	-4115
💃	-4116
💅	-4117
💙	-4118
📎	-4119
🔅	-4120
🔌	-4121
🔑	-4122
🔵	-4123
🔶	-4124
🔸	-4125
🗃	-4126
😋	-4127
😎	-4128
😓	-4129
😔	-4130
🙁	-4131
🙃	-4132
🙌	-4133
🚫	-4134
🛫	-4135
🤔	-4136
🤪	-4137
🥰	-4138
🥺	-4139
🦉	-4140
🦸	-4141
¶	-4142
Â	-4143
Ê	-4144
Ì	-4145
Î	-4146
Ô	-4147
ă	-4148
ē	-4149
Ė	-4150
ę	-4151
ě	-4152
Į	-4153
ĸ	-4154
ľ	-4155
ň	-4156
œ	-4157
ř	-4158
ť	-4159
ŧ	-4160
ů	-4161
Ž	-4162
Ɗ	-4163
ǎ	-4164
ǐ	-4165
ɇ	-4166
ɑ	-4167
ɲ	-4168
ɴ	-4169
ʏ	-4170
ʟ	-4171
ː	-4172
˗	-4173
̵	-4174
̸	-4175
͞	-4176
Η	-4177
Κ	-4178
Μ	-4179
Ο	-4180
Τ	-4181
Φ	-4182
Ψ	-4183
ά	-4184
ή	-4185
η	-4186
τ	-4187
υ	-4188
ό	-4189
ύ	-4190
ώ	-4191
Ђ	-4192
҉	-4193
Җ	-4194
Қ	-4195
ҡ	-4196
Ң	-4197
Ұ	-4198
ҷ	-4199
ӄ	-4200
Ӈ	-4201
ӑ	-4202
Ә	-4203
ӝ	-4204
ӯ	-4205
Ա	-4206
Գ	-4207
Ե	-4208
Ո	-4209
դ	-4210
զ	-4211
ը	-4212
ի	-4213
լ	-4214
խ	-4215
յ	-4216
չ	-4217
վ	-4218
ց	-4219
ז	-4220
ט	-4221
מ	-4222
פ	-4223
،	-4224
؟	-4225
إ	-4226
ز	-4227
ض	-4228
َ	-4229
ۇ	-4230
ە	-4231
ं	-4232
इ	-4233
ए	-4234
ज	-4235
र	-4236
़	-4237
ि	-4238
ै	-4239
१	-4240
४	-4241
७	-4242
९	-4243
অ	-4244
ই	-4245
ক	-4246
চ	-4247
ত	-4248
দ	-4249
ব	-4250
র	-4251
ি	-4252
ে	-4253
ਂ	-4254
ਕ	-4255
ਮ	-4256
ਹ	-4257
ਾ	-4258
ਿ	-4259
ੀ	-4260
ੂ	-4261
ੈ	-4262
ੌ	-4263
ட	-4264
ழ	-4265
ா	-4266
ி	-4267
ூ	-4268
ை	-4269
்	-4270
ೋ	-4271
จ	-4272
ต	-4273
ท	-4274
ฝ	-4275
พ	-4276
ฟ	-4277
ภ	-4278
ว	-4279
ษ	-4280
ห	-4281
ฬ	-4282
ั	-4283
า	-4284
ึ	-4285
แ	-4286
ไ	-4287
์	-4288
࿐	-4289
တ	-4290
လ	-4291
သ	-4292
ဦ	-4293
ိ	-4294
ု	-4295
ေ	-4296
္	-4297
်	-4298
ြ	-4299
၊	-4300
ᄆ	-4301
ᄇ	-4302
ᄋ	-4303
ᄒ	-4304
ᅮ	-4305
ᅳ	-4306
ᅵ	-4307
ᐉ	-4308
ᠤ	-4309
ᠫ	-4310
ᠯ	-4311
ᠰ	-4312
ᠱ	-4313
ᠴ	-4314
ᠵ	-4315
ᠹ	-4316
ᠻ	-4317
ᠼ	-4318
᭄	-4319
ᴀ	-4320
ᴄ	-4321
ᴍ	-4322
ᴜ	-4323
ᴠ	-4324
ᵯ	-4325
ṃ	-4326
ẙ	-4327
ầ	-4328
ắ	-4329
ằ	-4330
ễ	-4331
ờ	-4332
ἰ	-4333
‡	-4334
₹	-4335
↖	-4336
↳	-4337
∈	-4338
≫	-4339
⋯	-4340
⌚	-4341
╒	-4342
╘	-4343
╟	-4344
╢	-4345
▍	-4346
▨	-4347
◇	-4348
☂	-4349
☑	-4350
☔	-4351
☕	-4352
☘	-4353
☝	-4354
☤	-4355
♣	-4356
♻	-4357
⚃	-4358
⚕	-4359
⚙	-4360
⚠	-4361
✌	-4362
✍	-4363
✞	-4364
✯	-4365
❂	-4366
❃	-4367
❏	-4368
❖	-4369
➥	-4370
➳	-4371
⿱	-4372
『	-4373
』	-4374
ぎ	-4375
ぬ	-4376
べ	-4377
ほ	-4378
ゆ	-4379
ィ	-4380
カ	-4381
ガ	-4382
ゲ	-4383
ジ	-4384
セ	-4385
ゼ	-4386
タ	-4387
チ	-4388
ツ	-4389
ヅ	-4390
デ	-4391
ニ	-4392
ハ	-4393
バ	-4394
ヒ	-4395
ビ	-4396
ベ	-4397
ペ	-4398
マ	-4399
ミ	-4400
ム	-4401
ラ	-4402
七	-4403
万	-4404
三	-4405
不	-4406
么	-4407
乐	-4408
也	-4409
二	-4410
云	-4411
互	-4412
京	-4413
今	-4414
他	-4415
付	-4416
任	-4417
企	-4418
伊	-4419
休	-4420
众	-4421
位	-4422
何	-4423
你	-4424
使	-4425
係	-4426
保	-4427
修	-4428
俺	-4429
們	-4430
停	-4431
健	-4432
側	-4433
僕	-4434
優	-4435
儿	-4436
元	-4437
光	-4438
克	-4439
免	-4440
八	-4441
公	-4442
册	-4443
再	-4444
冯	-4445
划	-4446
別	-4447
前	-4448
势	-4449
動	-4450
勖	-4451
務	-4452
勧	-4453
包	-4454
化	-4455
北	-4456
医	-4457
午	-4458
华	-4459
博	-4460
卡	-4461
参	-4462
叫	-4463
召	-4464
向	-4465
吗	-4466
君	-4467
员	-4468
周	-4469
味	-4470
命	-4471
和	-4472
唐	-4473
售	-4474
唱	-4475
問	-4476
喵	-4477
器	-4478
國	-4479
圖	-4480
址	-4481
型	-4482
場	-4483
塑	-4484
塚	-4485
士	-4486
声	-4487
夂	-4488
夕	-4489
夜	-4490
太	-4491
奇	-4492
奋	-4493
好	-4494
妹	-4495
委	-4496
姿	-4497
娱	-4498
字	-4499
宅	-4500
宗	-4501
定	-4502
室	-4503
宽	-4504
密	-4505
导	-4506
小	-4507
少	-4508
局	-4509
属	-4510
履	-4511
岩	-4512
峮	-4513
州	-4514
巡	-4515
巣	-4516
工	-4517
帝	-4518
带	-4519
帮	-4520
帯	-4521
年	-4522
庆	-4523
府	-4524
康	-4525
建	-4526
开	-4527
异	-4528
弦	-4529
当	-4530
录	-4531
心	-4532
必	-4533
志	-4534
忘	-4535
忙	-4536
快	-4537
怎	-4538
恩	-4539
悔	-4540
您	-4541
悲	-4542
情	-4543
意	-4544
憎	-4545
戒	-4546
戰	-4547
戸	-4548
打	-4549
払	-4550
抢	-4551
拶	-4552
指	-4553
挨	-4554
探	-4555
掲	-4556
提	-4557
改	-4558
故	-4559
斗	-4560
斥	-4561
斯	-4562
新	-4563
早	-4564
昌	-4565
星	-4566
昴	-4567
普	-4568
暲	-4569
更	-4570
會	-4571
有	-4572
望	-4573
朝	-4574
机	-4575
村	-4576
林	-4577
査	-4578
株	-4579
格	-4580
椰	-4581
楫	-4582
業	-4583
概	-4584
構	-4585
横	-4586
機	-4587
歳	-4588
残	-4589
毛	-4590
民	-4591
气	-4592
永	-4593
沖	-4594
没	-4595
河	-4596
治	-4597
沿	-4598
注	-4599
泰	-4600
洛	-4601
洞	-4602
浙	-4603
浜	-4604
淮	-4605
渡	-4606
湖	-4607
漏	-4608
演	-4609
照	-4610
燼	-4611
牛	-4612
特	-4613
玉	-4614
甘	-4615
町	-4616
画	-4617
留	-4618
登	-4619
百	-4620
盘	-4621
眉	-4622
码	-4623
破	-4624
礦	-4625
祉	-4626
祐	-4627
神	-4628
福	-4629
离	-4630
私	-4631
秘	-4632
稳	-4633
站	-4634
等	-4635
米	-4636
糞	-4637
紇	-4638
給	-4639
红	-4640
线	-4641
考	-4642
能	-4643
腕	-4644
臨	-4645
舞	-4646
航	-4647
良	-4648
華	-4649
葵	-4650
藏	-4651
藤	-4652
蘭	-4653
蛋	-4654
蠟	-4655
衛	-4656
袖	-4657
裏	-4658
製	-4659
西	-4660
要	-4661
見	-4662
視	-4663
親	-4664
见	-4665
誉	-4666
説	-4667
諸	-4668
識	-4669
讃	-4670
计	-4671
让	-4672
记	-4673
语	-4674
读	-4675
课	-4676
豚	-4677
象	-4678
貸	-4679
費	-4680
賃	-4681
資	-4682
賞	-4683
趋	-4684
車	-4685
軒	-4686
輝	-4687
载	-4688
辉	-4689
输	-4690
辺	-4691
込	-4692
运	-4693
还	-4694
迴	-4695
迹	-4696
送	-4697
逢	-4698
連	-4699
進	-4700
過	-4701
選	-4702
郑	-4703
都	-4704
配	-4705
里	-4706
鑑	-4707
钱	-4708
银	-4709
镇	-4710
长	-4711
関	-4712
问	-4713
间	-4714
阒	-4715
际	-4716
陝	-4717
险	-4718
陳	-4719
随	-4720
雑	-4721
電	-4722
面	-4723
韬	-4724
響	-4725
題	-4726
颚	-4727
駅	-4728
马	-4729
鵬	-4730
黄	-4731
龶	-4732
꧂	-4733
가	-4734
갑	-4735
갤	-4736
거	-4737
걸	-4738
것	-4739
겠	-4740
격	-4741
계	-4742
골	-4743
공	-4744
과	-4745
관	-4746
교	-4747
굴	-4748
긋	-4749
긱	-4750
끼	-4751
단	-4752
달	-4753
답	-4754
더	-4755
돈	-4756
둥	-4757
딩	-4758
떻	-4759
또	-4760
뚜	-4761
뚝	-4762
랑	-4763
래	-4764
랫	-4765
러	-4766
렘	-4767
려	-4768
룬	-4769
룰	-4770
류	-4771
를	-4772
림	-4773
릿	-4774
마	-4775
만	-4776
매	-4777
먹	-4778
메	-4779
며	-4780
명	-4781
모	-4782
몽	-4783
문	-4784
뭘	-4785
뮤	-4786
반	-4787
밥	-4788
백	-4789
밴	-4790
버	-4791
번	-4792
베	-4793
벼	-4794
변	-4795
병	-4796
불	-4797
뷔	-4798
븐	-4799
블	-4800
빈	-4801
뻐	-4802
뿌	-4803
상	-4804
생	-4805
석	-4806
설	-4807
섭	-4808
성	-4809
송	-4810
숙	-4811
슨	-4812
습	-4813
승	-4814
식	-4815
실	-4816
싼	-4817
쌍	-4818
양	-4819
업	-4820
에	-4821
엘	-4822
엥	-4823
여	-4824
열	-4825
옷	-4826
와	-4827
왔	-4828
외	-4829
용	-4830
울	-4831
웆	-4832
워	-4833
월	-4834
윤	-4835
율	-4836
응	-4837
일	-4838
있	-4839
잘	-4840
재	-4841
적	-4842
조	-4843
죄	-4844
죻	-4845
진	-4846
짓	-4847
짱	-4848
찌	-4849
찡	-4850
차	-4851
찾	-4852
채	-4853
청	-4854
체	-4855
침	-4856
칩	-4857
칫	-4858
카	-4859
커	-4860
케	-4861
코	-4862
콕	-4863
콧	-4864
키	-4865
탄	-4866
탓	-4867
탠	-4868
터	-4869
틴	-4870
팅	-4871
팝	-4872
퍼	-4873
펄	-4874
평	-4875
폰	-4876
푸	-4877
플	-4878
픽	-4879
학	-4880
항	-4881
햄	-4882
혀	-4883
혜	-4884
호	-4885
홈	-4886
홍	-4887
횒	-4888
횗	-4889
횜	-4890
흐	-4891
흥	-4892
￼	-4893
𖢘	-4894
🆕	-4895
🇫	-4896
🇳	-4897
🇸	-4898
🇽	-4899
🌃	-4900
🌄	-4901
🌅	-4902
🌍	-4903
🌐	-4904
🌡	-4905
🌳	-4906
🌻	-4907
🍀	-4908
🍁	-4909
🍇	-4910
🍑	-4911
🍞	-4912
🍩	-4913
🍯	-4914
🍰	-4915
🍱	-4916
🍹	-4917
🍽	-4918
🍾	-4919
🎀	-4920
🎄	-4921
🎬	-4922
🎶	-4923
🏆	-4924
🏋	-4925
🏣	-4926
🏦	-4927
🏼	-4928
👑	-4929
👦	-4930
👧	-4931
👽	-4932
💀	-4933
💉	-4934
💋	-4935
💐	-4936
💔	-4937
💕	-4938
💝	-4939
💡	-4940
💢	-4941
💩	-4942
💪	-4943
💸	-4944
💻	-4945
💼	-4946
📁	-4947
📅	-4948
📕	-4949
📖	-4950
📞	-4951
📣	-4952
📦	-4953
📱	-4954
📲	-4955
📷	-4956
🔄	-4957
🔹	-4958
🕑	-4959
🕘	-4960
🕯	-4961
🖐	-4962
🖤	-4963
🗓	-4964
😄	-4965
😈	-4966
😐	-4967
😑	-4968
😡	-4969
😥	-4970
😩	-4971
😫	-4972
😮	-4973
😰	-4974
😲	-4975
😶	-4976
😷	-4977
🙆	-4978
🙋	-4979
🙎	-4980
🚀	-4981
🚘	-4982
🚩	-4983
🛍	-4984
🛑	-4985
🛒	-4986
🛡	-4987
🤍	-4988
🤓	-4989
🤡	-4990
🤫	-4991
🥄	-4992
🦊	-4993
🦋	-4994
🧤	-4995
🧨	-4996
