<unk>	0
<s>	0
</s>	0
▁б	-0
▁х	-1
ий	-2
аа	-3
ай	-4
ээ	-5
▁т	-6
ан	-7
ар	-8
ол	-9
▁н	-10
уу	-11
▁бай	-12
▁г	-13
ал	-14
ийн	-15
үү	-16
эн	-17
▁д	-18
аг	-19
эг	-20
эр	-21
он	-22
▁с	-23
үй	-24
▁а	-25
эл	-26
▁з	-27
▁бол	-28
ил	-29
ын	-30
▁м	-31
өө	-32
ах	-33
ор	-34
ин	-35
эд	-36
эх	-37
▁ч	-38
▁нь	-39
ийг	-40
гүй	-41
гаа	-42
оо	-43
▁хү	-44
▁ш	-45
уул	-46
сан	-47
▁ү	-48
▁у	-49
ад	-50
на	-51
ам	-52
өр	-53
өн	-54
ээр	-55
▁Т	-56
▁я	-57
▁ю	-58
▁Х	-59
ог	-60
эж	-61
ох	-62
▁би	-63
ой	-64
▁.	-65
ур	-66
ыг	-67
аар	-68
▁байна	-69
өг	-70
▁и	-71
эй	-72
▁Б	-73
сэн	-74
▁л	-75
эм	-76
▁юм	-77
▁"	-78
жил	-79
▁бү	-80
▁,	-81
ууд	-82
тэй	-83
тай	-84
▁Э	-85
▁-	-86
өл	-87
▁ор	-88
▁ц	-89
од	-90
гийн	-91
ний	-92
▁М	-93
ас	-94
иг	-95
▁байгаа	-96
үүл	-97
га	-98
даг	-99
өөр	-100
нд	-101
▁гэж	-102
▁А	-103
нэ	-104
▁хэр	-105
ом	-106
ны	-107
▁ху	-108
▁ту	-109
энэ	-110
эв	-111
▁ав	-112
чи	-113
▁ө	-114
..	-115
ав	-116
тг	-117
▁хар	-118
▁гар	-119
▁1	-120
ээд	-121
аж	-122
лаг	-123
▁байх	-124
үйл	-125
▁2	-126
аас	-127
▁нэг	-128
даа	-129
онг	-130
▁Г	-131
▁мэд	-132
▁ам	-133
▁өөр	-134
ээс	-135
той	-136
▁хэрэг	-137
▁эр	-138
сон	-139
▁Н	-140
үүд	-141
▁хо	-142
аад	-143
өх	-144
▁ол	-145
өв	-146
▁бу	-147
эс	-148
▁С	-149
ир	-150
▁хам	-151
▁энэ	-152
▁хий	-153
ат	-154
▁ал	-155
▁хэл	-156
▁ажил	-157
▁ир	-158
▁байсан	-159
ер	-160
ээл	-161
▁...	-162
▁У	-163
▁Д	-164
▁Энэ	-165
ьд	-166
▁хүн	-167
▁он	-168
жээ	-169
▁уу	-170
лс	-171
алт	-172
▁яв	-173
▁сай	-174
▁ар	-175
хан	-176
▁в	-177
▁О	-178
дэг	-179
но	-180
▁Би	-181
лаа	-182
▁З	-183
ая	-184
▁сан	-185
дээ	-186
▁их	-187
▁ж	-188
▁хув	-189
▁И	-190
ов	-191
▁үз	-192
үүх	-193
▁болох	-194
үүн	-195
▁к	-196
▁Ө	-197
им	-198
дал	-199
▁дар	-200
онгол	-201
▁хүр	-202
эсэн	-203
▁бод	-204
анд	-205
▁эх	-206
дөр	-207
үүс	-208
▁өг	-209
▁дээр	-210
▁бар	-211
ийм	-212
ул	-213
өнг	-214
энд	-215
▁тал	-216
▁дээ	-217
▁жил	-218
чл	-219
▁тэр	-220
▁үйл	-221
▁улс	-222
▁бүр	-223
▁гэд	-224
▁20	-225
гээ	-226
аш	-227
▁болно	-228
гээр	-229
▁ас	-230
▁Ү	-231
▁үе	-232
гуул	-233
их	-234
оор	-235
мар	-236
гаар	-237
уур	-238
▁цаг	-239
▁төр	-240
аз	-241
хий	-242
▁вэ	-243
▁чад	-244
▁байдаг	-245
▁бид	-246
▁зүйл	-247
лах	-248
▁ан	-249
▁ил	-250
▁та	-251
хай	-252
лээ	-253
үр	-254
этг	-255
▁тог	-256
▁юу	-257
▁гүй	-258
▁тан	-259
сөн	-260
ож	-261
цаа	-262
мн	-263
лг	-264
▁гэсэн	-265
▁ур	-266
мүүс	-267
инь	-268
▁зөв	-269
▁сур	-270
▁хэм	-271
уулах	-272
▁яр	-273
үүр	-274
лэг	-275
чил	-276
▁олон	-277
▁бүх	-278
▁шүү	-279
ут	-280
дл	-281
охи	-282
▁Монгол	-283
шиг	-284
аан	-285
▁ээ	-286
▁газ	-287
арын	-288
ёр	-289
гал	-290
▁хүмүүс	-291
▁ё	-292
агд	-293
үн	-294
▁ямар	-295
чих	-296
омж	-297
▁баг	-298
▁аж	-299
▁төл	-300
▁ёс	-301
өөд	-302
▁үн	-303
▁:	-304
▁шин	-305
иний	-306
чин	-307
▁биш	-308
▁даа	-309
▁эм	-310
▁зар	-311
лийн	-312
лэл	-313
▁тус	-314
▁гэр	-315
▁Я	-316
ос	-317
оод	-318
▁Тэр	-319
дв	-320
▁р	-321
▁амьд	-322
▁3	-323
▁маш	-324
гийг	-325
▁ой	-326
▁хол	-327
▁хоёр	-328
▁Е	-329
лага	-330
▁хүүх	-331
▁Ш	-332
эгд	-333
▁хүс	-334
▁өмн	-335
▁Хар	-336
нг	-337
▁боломж	-338
▁өр	-339
лэх	-340
ис	-341
▁эрх	-342
ахгүй	-343
от	-344
▁гэдэг	-345
лын	-346
▁аа	-347
лд	-348
▁тай	-349
эт	-350
өд	-351
▁өн	-352
00	-353
▁асууд	-354
онд	-355
▁ний	-356
уй	-357
▁хамгийн	-358
▁байгуул	-359
▁нар	-360
▁дах	-361
вэл	-362
олд	-363
анай	-364
айр	-365
▁эс	-366
▁дараа	-367
▁үр	-368
▁хэрэгтэй	-369
▁болон	-370
▁сайн	-371
▁(	-372
эц	-373
▁Ц	-374
оос	-375
▁болг	-376
гд	-377
чид	-378
▁бүт	-379
▁шиг	-380
▁гэх	-381
үүлэх	-382
▁сон	-383
▁хэд	-384
▁од	-385
▁зор	-386
рал	-387
▁болсон	-388
▁тухай	-389
ид	-390
▁Ч	-391
▁тав	-392
▁нэр	-393
▁холб	-394
▁Ж	-395
хэн	-396
▁хийх	-397
амж	-398
▁о	-399
▁ашиг	-400
ик	-401
▁Тэг	-402
▁бус	-403
дог	-404
▁анх	-405
▁ай	-406
иш	-407
▁үү	-408
▁201	-409
▁сэтг	-410
двэр	-411
▁ёстой	-412
уулж	-413
▁удаа	-414
▁Та	-415
▁болов	-416
ээн	-417
▁тэд	-418
иж	-419
бар	-420
▁хур	-421
▁өмнө	-422
▁ийн	-423
ен	-424
▁ший	-425
▁байж	-426
▁талаар	-427
вал	-428
▁дэл	-429
гацаа	-430
▁К	-431
гэл	-432
аал	-433
лог	-434
▁ду	-435
иу	-436
▁эд	-437
чир	-438
▁чинь	-439
▁нам	-440
лөг	-441
▁хор	-442
▁дуу	-443
өнгө	-444
▁хугацаа	-445
▁авах	-446
▁Бид	-447
лан	-448
▁үед	-449
▁зур	-450
▁болж	-451
▁дур	-452
▁4	-453
лаж	-454
▁зас	-455
гэж	-456
▁мэдээл	-457
▁5	-458
аяр	-459
доо	-460
үүнийг	-461
▁хан	-462
▁ун	-463
эгтэй	-464
эз	-465
▁хуул	-466
▁су	-467
▁нас	-468
эхдээ	-469
▁одоо	-470
▁тү	-471
▁өдөр	-472
вар	-473
▁газар	-474
▁Харин	-475
▁п	-476
олц	-477
▁хэн	-478
үүний	-479
▁илүү	-480
▁том	-481
▁бие	-482
▁оны	-483
▁байр	-484
▁сонг	-485
▁хэмжээ	-486
▁ин	-487
▁хамт	-488
▁хя	-489
ус	-490
▁шаар	-491
эмж	-492
▁зал	-493
▁бөг	-494
лал	-495
▁ер	-496
лоо	-497
чд	-498
өс	-499
▁бас	-500
лыг	-501
илц	-502
▁нөх	-503
▁гээд	-504
▁хаа	-505
▁үг	-506
▁тод	-507
ит	-508
гэд	-509
▁хийж	-510
элт	-511
анц	-512
▁Хэр	-513
▁ийм	-514
▁жилийн	-515
айг	-516
▁Ер	-517
▁буй	-518
▁тэм	-519
▁шаард	-520
▁сарын	-521
▁хувьд	-522
▁хөг	-523
▁шинэ	-524
▁авч	-525
өнхий	-526
иул	-527
ес	-528
▁тогт	-529
ьж	-530
▁ком	-531
▁бөгөөд	-532
др	-533
эхгүй	-534
▁бэл	-535
▁онд	-536
▁ойлг	-537
өөс	-538
эхээр	-539
▁Гэхдээ	-540
огд	-541
гэн	-542
▁сал	-543
▁хон	-544
▁Тийм	-545
▁ыг	-546
гах	-547
өм	-548
▁ийг	-549
ун	-550
▁зохи	-551
▁нийт	-552
▁зах	-553
▁ын	-554
хал	-555
асан	-556
аны	-557
тын	-558
өлөө	-559
▁бич	-560
▁өв	-561
▁хүрт	-562
▁хүнд	-563
▁минь	-564
▁нэгэн	-565
▁биз	-566
сн	-567
ив	-568
▁тоо	-569
хөн	-570
▁бил	-571
▁гад	-572
▁байхгүй	-573
▁хүлээ	-574
▁уул	-575
▁сэтгэл	-576
▁даг	-577
оон	-578
даж	-579
▁алб	-580
▁сар	-581
▁суу	-582
хийн	-583
▁бий	-584
▁төс	-585
▁өөрийн	-586
пан	-587
айн	-588
▁дот	-589
лагаа	-590
▁амьдрал	-591
аагүй	-592
рын	-593
▁Тэд	-594
▁/	-595
▁най	-596
▁хүний	-597
▁дав	-598
▁сайхан	-599
үгээр	-600
адаг	-601
орх	-602
▁зам	-603
▁19	-604
▁хэв	-605
ана	-606
▁хайр	-607
ван	-608
▁бэ	-609
гаж	-610
тад	-611
▁миний	-612
тгэл	-613
▁асуудал	-614
нийг	-615
▁гиш	-616
▁санал	-617
хүү	-618
▁!	-619
▁улсын	-620
▁шал	-621
дийн	-622
▁Л	-623
▁ад	-624
ич	-625
▁Эр	-626
шин	-627
▁АН	-628
үүлж	-629
▁хувь	-630
▁Одоо	-631
▁хой	-632
▁баяр	-633
▁хэс	-634
▁Ор	-635
▁Улс	-636
▁өнг	-637
▁10	-638
▁нэм	-639
▁арга	-640
уулсан	-641
▁аг	-642
охир	-643
▁тохи	-644
өөдөр	-645
▁над	-646
▁манай	-647
▁Ар	-648
▁ажиллагаа	-649
орхой	-650
тр	-651
▁6	-652
▁хал	-653
агаад	-654
▁худал	-655
▁эн	-656
▁байдл	-657
▁билээ	-658
▁хоног	-659
арт	-660
▁ул	-661
▁ах	-662
▁мөн	-663
иа	-664
▁тат	-665
▁боломжтой	-666
нууд	-667
▁төлөө	-668
▁Өөр	-669
▁Мөн	-670
▁байлаа	-671
тан	-672
агч	-673
▁ид	-674
▁нут	-675
▁7	-676
өж	-677
▁П	-678
▁компан	-679
▁тодорхой	-680
...	-681
▁тур	-682
чүүд	-683
▁Ам	-684
▁бат	-685
▁ханд	-686
алтын	-687
▁эхэл	-688
▁тэг	-689
▁тогл	-690
▁оролц	-691
▁ут	-692
▁ба	-693
дсан	-694
гаан	-695
▁)	-696
дөө	-697
оё	-698
▁санаа	-699
▁иргэд	-700
▁тулд	-701
ээж	-702
уун	-703
▁гэдгийг	-704
▁өнгөр	-705
▁байдал	-706
▁орон	-707
олоо	-708
▁хөгж	-709
▁уд	-710
өлт	-711
жилт	-712
▁төг	-713
ирх	-714
чр	-715
▁хэдэн	-716
▁хүртэл	-717
▁S	-718
чийн	-719
▁хэрхэн	-720
йм	-721
▁8	-722
▁гэв	-723
▁эсвэл	-724
▁таны	-725
▁өөрчл	-726
▁тийм	-727
илг	-728
дах	-729
▁хө	-730
▁гур	-731
▁заа	-732
ист	-733
оол	-734
хаа	-735
▁Бү	-736
▁маан	-737
▁чу	-738
урхан	-739
▁учр	-740
▁залуу	-741
▁хоол	-742
дан	-743
▁дахь	-744
▁маань	-745
▁үнд	-746
▁Ерөнхий	-747
in	-748
▁хөр	-749
▁ганц	-750
▁хүч	-751
чилгээ	-752
▁дахин	-753
▁турш	-754
вр	-755
▁чи	-756
уг	-757
▁ард	-758
▁холбоо	-759
▁эмэгтэй	-760
▁үйлдвэр	-761
▁хич	-762
on	-763
ек	-764
▁болохгүй	-765
▁дэмж	-766
лийг	-767
▁ирсэн	-768
▁тэй	-769
▁өдр	-770
▁анхаар	-771
чууд	-772
өдөл	-773
▁мөр	-774
▁Хү	-775
хи	-776
▁чан	-777
▁Миний	-778
▁тохиолд	-779
гэр	-780
▁бүтээ	-781
▁гарч	-782
олтой	-783
арч	-784
▁сургуул	-785
▁зэр	-786
нх	-787
араа	-788
▁үнэ	-789
ем	-790
олт	-791
тээ	-792
er	-793
▁шил	-794
агад	-795
▁Үүн	-796
▁үргэл	-797
▁аас	-798
дөг	-799
иал	-800
▁хамгаа	-801
лон	-802
▁ая	-803
гой	-804
▁M	-805
▁хэмээн	-806
▁Инг	-807
▁чухал	-808
▁руу	-809
▁шаардлага	-810
дын	-811
▁чадахгүй	-812
▁тэн	-813
▁ууд	-814
ср	-815
ээрээ	-816
агт	-817
▁9	-818
гөө	-819
▁гай	-820
лж	-821
▁ф	-822
▁үнэн	-823
▁бүгд	-824
▁дунд	-825
эзээ	-826
▁муу	-827
▁сонс	-828
▁аар	-829
▁гол	-830
▁бүс	-831
▁хойш	-832
▁Манай	-833
ак	-834
▁шийдвэр	-835
▁Ийм	-836
бөр	-837
ээгүй	-838
▁түр	-839
▁хүүхэд	-840
▁амь	-841
элц	-842
▁Тиймээс	-843
▁хүүхд	-844
хн	-845
▁аль	-846
аат	-847
▁A	-848
▁хот	-849
▁өгөх	-850
▁хийсэн	-851
▁өндөр	-852
▁эл	-853
▁бага	-854
▁сая	-855
▁ял	-856
▁Зас	-857
▁ном	-858
▁учир	-859
уд	-860
▁сонирх	-861
▁хариу	-862
▁ажилл	-863
▁Нэг	-864
▁машин	-865
▁авсан	-866
▁үүс	-867
ИХ	-868
эгч	-869
▁өөрөө	-870
▁түүний	-871
ино	-872
▁эз	-873
▁чих	-874
▁гэнэ	-875
▁зээл	-876
▁төрийн	-877
▁зарим	-878
▁хэсэг	-879
▁мэт	-880
айл	-881
ийгөө	-882
▁чам	-883
эхэд	-884
▁ус	-885
галт	-886
▁Бурхан	-887
осон	-888
иад	-889
▁200	-890
▁байв	-891
▁дүр	-892
ааш	-893
мын	-894
хээ	-895
тал	-896
эхүү	-897
▁бусад	-898
▁Өн	-899
▁C	-900
▁мэдээлэл	-901
▁албан	-902
▁УИХ	-903
▁уулз	-904
▁Хя	-905
▁В	-906
▁ажиллаж	-907
чим	-908
▁Ал	-909
▁төлөв	-910
▁те	-911
▁Хэрэв	-912
гаад	-913
▁зөвхөн	-914
▁хууль	-915
агүй	-916
▁энд	-917
▁бур	-918
▁бодож	-919
▁той	-920
▁хэзээ	-921
гасан	-922
үүлсэн	-923
▁Дэл	-924
огт	-925
АН	-926
▁мөнгө	-927
из	-928
▁учраас	-929
ье	-930
▁сүүл	-931
▁унш	-932
▁АНУ	-933
▁тар	-934
аарай	-935
an	-936
алтай	-937
▁надад	-938
▁эхл	-939
▁дүн	-940
▁хугацаанд	-941
▁түүх	-942
▁төв	-943
▁s	-944
▁яаж	-945
▁дуус	-946
▁монгол	-947
▁P	-948
▁сэр	-949
▁зориул	-950
тер	-951
▁онц	-952
▁үүр	-953
▁шийд	-954
▁айм	-955
▁тэмц	-956
▁чиг	-957
▁орж	-958
▁хөдөл	-959
▁дэв	-960
▁эц	-961
▁болохоор	-962
▁анг	-963
▁Ф	-964
▁зүй	-965
хон	-966
▁хийг	-967
этэл	-968
▁Монголын	-969
эвч	-970
▁тохир	-971
▁зог	-972
▁яагаад	-973
▁яах	-974
▁ох	-975
▁?	-976
▁яг	-977
рах	-978
лбар	-979
лөө	-980
угаар	-981
▁зөвш	-982
▁харагд	-983
юу	-984
▁үүнийг	-985
▁ух	-986
▁тул	-987
▁намайг	-988
лөгч	-989
▁олг	-990
▁ажлын	-991
▁байхад	-992
▁удир	-993
ооны	-994
▁шалт	-995
▁Р	-996
нээс	-997
▁мэр	-998
▁өрг	-999
▁охин	-1000
чиж	-1001
▁Хам	-1002
▁хэлж	-1003
▁хэлб	-1004
▁нөлөө	-1005
цөл	-1006
▁уур	-1007
▁Хятад	-1008
▁хөл	-1009
▁оруул	-1010
▁явах	-1011
наас	-1012
▁зогс	-1013
▁явж	-1014
▁өөрс	-1015
▁түүнийг	-1016
оп	-1017
▁ажиллах	-1018
▁магад	-1019
▁өс	-1020
▁дарга	-1021
мийн	-1022
▁үргэлж	-1023
ац	-1024
▁адил	-1025
▁өм	-1026
эвэр	-1027
▁зөвшөөр	-1028
лаан	-1029
юул	-1030
▁зураг	-1031
▁_	-1032
▁үгүй	-1033
үг	-1034
имт	-1035
▁Ир	-1036
▁T	-1037
▁хүү	-1038
▁0	-1039
▁ээж	-1040
▁газрын	-1041
гай	-1042
▁хэрэгж	-1043
оц	-1044
▁Гэтэл	-1045
▁олж	-1046
нес	-1047
▁Засгийн	-1048
▁зэрэг	-1049
▁амжилт	-1050
лэж	-1051
▁сайд	-1052
▁илэр	-1053
▁бидний	-1054
▁I	-1055
▁найз	-1056
эдэг	-1057
▁үндэс	-1058
алд	-1059
▁мэдэх	-1060
ar	-1061
оронд	-1062
▁хая	-1063
▁итг	-1064
одог	-1065
▁сонгуул	-1066
▁холбогд	-1067
ьсан	-1068
▁үүд	-1069
аараа	-1070
▁хэлэлц	-1071
▁холбоотой	-1072
▁боловср	-1073
ган	-1074
▁Мэд	-1075
ет	-1076
гоор	-1077
▁уг	-1078
▁мэнд	-1079
▁пр	-1080
▁мөнг	-1081
▁үйлчилгээ	-1082
олгой	-1083
охгүй	-1084
▁Тэгээд	-1085
▁ирэх	-1086
▁өнөөдөр	-1087
▁суур	-1088
▁N	-1089
▁буруу	-1090
▁тэмдэг	-1091
▁байгааг	-1092
ув	-1093
үүнд	-1094
оно	-1095
▁байгууллаг	-1096
▁дотор	-1097
▁B	-1098
▁таа	-1099
▁зорилг	-1100
or	-1101
▁нөхцөл	-1102
▁үнэхээр	-1103
▁газр	-1104
▁нийг	-1105
яа	-1106
▁дуртай	-1107
▁судал	-1108
илт	-1109
▁бүрэн	-1110
▁ирээд	-1111
▁доо	-1112
үд	-1113
▁аюул	-1114
ей	-1115
▁үеийн	-1116
▁дэлхийн	-1117
20	-1118
▁танилц	-1119
▁гишүүн	-1120
гдэх	-1121
▁хөт	-1122
▁заг	-1123
▁харь	-1124
жиг	-1125
▁Таны	-1126
гаас	-1127
▁эдийн	-1128
▁алд	-1129
▁хэлсэн	-1130
▁хүүхдүүд	-1131
▁танд	-1132
▁Хүүх	-1133
▁асуу	-1134
▁Улсын	-1135
ел	-1136
▁гурван	-1137
▁харж	-1138
▁Төр	-1139
дэл	-1140
▁өгсөн	-1141
▁үл	-1142
▁хууд	-1143
дсэн	-1144
!!	-1145
олл	-1146
аалт	-1147
аатар	-1148
▁болдог	-1149
анк	-1150
▁түм	-1151
▁үлд	-1152
▁мин	-1153
▁зов	-1154
▁болоод	-1155
▁байвал	-1156
▁хад	-1157
▁гарах	-1158
▁дугаар	-1159
сний	-1160
▁шат	-1161
▁зөвл	-1162
▁санагд	-1163
▁э	-1164
лэлийн	-1165
▁гарсан	-1166
▁Дараа	-1167
▁хүлээн	-1168
төн	-1169
▁хүрг	-1170
▁Хүн	-1171
▁буюу	-1172
▁салбар	-1173
▁Эд	-1174
▁өөрийгөө	-1175
аргал	-1176
▁шаардлагатай	-1177
▁Шин	-1178
▁нэмэгд	-1179
▁гэм	-1180
▁мэдэгд	-1181
▁11	-1182
▁t	-1183
▁100	-1184
уудыг	-1185
▁харах	-1186
лөгөө	-1187
▁мя	-1188
▁Гэвч	-1189
ерик	-1190
хөө	-1191
▁гийн	-1192
дугаар	-1193
▁асуул	-1194
▁асуудлыг	-1195
▁гүйц	-1196
▁зохион	-1197
▁12	-1198
ок	-1199
▁бут	-1200
▁хай	-1201
эгт	-1202
▁мэргэж	-1203
маар	-1204
рам	-1205
уудын	-1206
▁ээс	-1207
арга	-1208
пор	-1209
ээнд	-1210
▁гаруй	-1211
▁төрлийн	-1212
▁засгийн	-1213
▁дор	-1214
▁харин	-1215
лох	-1216
члэн	-1217
▁15	-1218
нө	-1219
▁бодлог	-1220
дэнэ	-1221
ээрэй	-1222
▁Гэр	-1223
▁зөр	-1224
▁тооц	-1225
▁чанар	-1226
▁Түүний	-1227
en	-1228
рийн	-1229
▁долоо	-1230
▁Ямар	-1231
▁G	-1232
хам	-1233
▁хав	-1234
▁Зар	-1235
▁ойр	-1236
сийн	-1237
▁H	-1238
▁Өмн	-1239
▁зүйлийг	-1240
▁жин	-1241
▁хооронд	-1242
▁D	-1243
▁байн	-1244
өгөө	-1245
▁баримт	-1246
хайн	-1247
чдын	-1248
▁Чи	-1249
▁шууд	-1250
▁Орос	-1251
вээ	-1252
▁ач	-1253
▁улсад	-1254
▁бүсгүй	-1255
элд	-1256
▁эрүүл	-1257
▁бүтээл	-1258
▁төгс	-1259
▁чөлөө	-1260
шил	-1261
▁ярилц	-1262
▁нуу	-1263
▁үх	-1264
▁зүгээр	-1265
▁ингэж	-1266
▁Эн	-1267
▁минут	-1268
▁Үү	-1269
▁бизнес	-1270
ент	-1271
▁мэдэхгүй	-1272
алын	-1273
▁боллоо	-1274
лэн	-1275
▁гэвэл	-1276
▁настай	-1277
▁F	-1278
лалт	-1279
▁бүтээгдэх	-1280
тэн	-1281
▁мар	-1282
ум	-1283
▁тогтоо	-1284
▁боловч	-1285
гоо	-1286
▁болгон	-1287
▁байгаад	-1288
ины	-1289
таа	-1290
▁аав	-1291
▁нүүр	-1292
▁авт	-1293
▁хөрөнгө	-1294
ли	-1295
▁Үүнийг	-1296
▁i	-1297
▁Цаг	-1298
▁Их	-1299
▁болгох	-1300
▁мэдээ	-1301
▁хэц	-1302
▁байдлаар	-1303
ласан	-1304
агс	-1305
▁наад	-1306
▁арг	-1307
бээр	-1308
▁эв	-1309
▁a	-1310
▁бүхэн	-1311
▁Өнөөдөр	-1312
сгал	-1313
▁Олон	-1314
үүнээс	-1315
уулдаг	-1316
гар	-1317
▁гаргах	-1318
▁ерөнхий	-1319
▁явдал	-1320
рэг	-1321
▁батал	-1322
▁илэрхий	-1323
мж	-1324
▁хат	-1325
▁Зөв	-1326
▁амар	-1327
▁Үн	-1328
гээд	-1329
▁сол	-1330
▁өрөө	-1331
le	-1332
▁авна	-1333
▁ярьж	-1334
▁дагуу	-1335
▁болжээ	-1336
ст	-1337
инд	-1338
▁шинж	-1339
▁Ю	-1340
▁дээд	-1341
Би	-1342
▁оронд	-1343
▁өгч	-1344
▁чадвар	-1345
▁иргэн	-1346
▁орох	-1347
▁дүүр	-1348
▁Ав	-1349
▁хэт	-1350
йл	-1351
▁үзүүл	-1352
▁ирж	-1353
саар	-1354
▁оо	-1355
даггүй	-1356
▁гэхэд	-1357
▁хэцүү	-1358
▁дөр	-1359
▁тас	-1360
▁сард	-1361
▁хүнийг	-1362
▁шалтгаан	-1363
▁[	-1364
▁гаргаж	-1365
▁Тэгвэл	-1366
▁цэвэр	-1367
▁хүчин	-1368
▁хичээл	-1369
▁мэдр	-1370
▁итгэл	-1371
▁там	-1372
юут	-1373
▁Нам	-1374
▁өнгөрсөн	-1375
▁30	-1376
өлбөр	-1377
▁анхны	-1378
төө	-1379
▁техн	-1380
▁хариуц	-1381
агн	-1382
▁оч	-1383
▁Зарим	-1384
▁хийдэг	-1385
▁өөрчлөлт	-1386
илцаа	-1387
▁хян	-1388
▁дэлхий	-1389
амс	-1390
▁Уг	-1391
өгд	-1392
▁дан	-1393
▁v	-1394
гч	-1395
▁Хамгийн	-1396
оёр	-1397
▁алга	-1398
▁чадах	-1399
▁бүл	-1400
оны	-1401
▁гишүүд	-1402
▁компани	-1403
▁ээр	-1404
бал	-1405
оогүй	-1406
истем	-1407
ран	-1408
▁хариул	-1409
▁m	-1410
▁буур	-1411
▁гадаад	-1412
▁таар	-1413
▁18	-1414
вроп	-1415
▁Бүх	-1416
▁бая	-1417
▁зан	-1418
▁Америк	-1419
▁тайлбар	-1420
▁тухайн	-1421
▁МАН	-1422
▁дамж	-1423
рөг	-1424
▁Эм	-1425
▁тоглоо	-1426
ээх	-1427
▁ст	-1428
луур	-1429
▁аз	-1430
▁сү	-1431
▁тэдний	-1432
▁боддог	-1433
агдсан	-1434
▁хүлээж	-1435
▁хүмүүсийн	-1436
▁Эх	-1437
▁хэлэх	-1438
▁хадгал	-1439
▁хуулийн	-1440
▁;	-1441
баатар	-1442
▁хэрэггүй	-1443
▁байжээ	-1444
▁цааш	-1445
▁E	-1446
ъя	-1447
▁Эдгээр	-1448
нз	-1449
▁Сан	-1450
▁хэрэглэг	-1451
▁цах	-1452
▁засаг	-1453
▁Ту	-1454
▁эсрэг	-1455
шгүй	-1456
▁ярих	-1457
олог	-1458
длаа	-1459
▁багш	-1460
ижиг	-1461
▁L	-1462
▁ашиглах	-1463
▁судалгаа	-1464
уулан	-1465
▁мэддэг	-1466
▁R	-1467
▁үзэх	-1468
инг	-1469
▁үзэж	-1470
▁харилцаа	-1471
ишээ	-1472
▁толгой	-1473
re	-1474
гий	-1475
▁c	-1476
ээсээ	-1477
чиг	-1478
oo	-1479
▁жагс	-1480
▁W	-1481
уулга	-1482
аасаа	-1483
өмж	-1484
▁ярь	-1485
▁огт	-1486
▁нутгийн	-1487
▁төрөл	-1488
▁дараах	-1489
▁алдаа	-1490
▁систем	-1491
▁Бар	-1492
лүүл	-1493
▁бүү	-1494
▁магадгүй	-1495
▁тохиолдолд	-1496
▁p	-1497
▁Ний	-1498
▁өдрийн	-1499
▁бүрийн	-1500
сү	-1501
▁шүүх	-1502
▁гүйцэтг	-1503
▁хамаар	-1504
▁рүү	-1505
▁цэц	-1506
▁Тэрээр	-1507
гүүр	-1508
▁байгаагүй	-1509
вэр	-1510
▁туш	-1511
▁Үнд	-1512
▁цагийн	-1513
▁цэр	-1514
▁бутлуур	-1515
▁Бай	-1516
▁захир	-1517
гуй	-1518
нэл	-1519
▁хаан	-1520
орж	-1521
▁сүүлийн	-1522
▁орчин	-1523
▁үс	-1524
▁санхүү	-1525
▁зав	-1526
▁бараг	-1527
▁гаргасан	-1528
▁Хэрвээ	-1529
гын	-1530
▁дээрх	-1531
иар	-1532
▁нэв	-1533
▁тун	-1534
st	-1535
▁эдгээр	-1536
▁хэрэгс	-1537
▁зүйлс	-1538
▁Дэлхийн	-1539
▁орсон	-1540
▁урьд	-1541
▁хоногийн	-1542
сны	-1543
▁барил	-1544
▁гэрээ	-1545
▁болчих	-1546
▁жаргал	-1547
▁төгрөг	-1548
▁хамгаалах	-1549
төнц	-1550
▁бор	-1551
▁Европ	-1552
▁гуй	-1553
▁хийн	-1554
▁Яп	-1555
▁Яагаад	-1556
▁Учир	-1557
▁цагт	-1558
▁Тус	-1559
энх	-1560
▁гоё	-1561
өөн	-1562
ладаг	-1563
▁"-	-1564
▁хөтөлбөр	-1565
▁мал	-1566
лэдэг	-1567
▁заавал	-1568
▁14	-1569
▁Монголд	-1570
двар	-1571
иуд	-1572
▁эсэх	-1573
▁бос	-1574
▁нарын	-1575
чдийн	-1576
▁тань	-1577
▁үнэл	-1578
▁боломжгүй	-1579
▁худалдаа	-1580
al	-1581
элээ	-1582
▁кино	-1583
▁Энэхүү	-1584
об	-1585
▁гадна	-1586
олцоо	-1587
▁бүхий	-1588
▁харьц	-1589
▁дээрээ	-1590
▁ухаан	-1591
▁хэмжээний	-1592
ууны	-1593
өмб	-1594
арх	-1595
өлд	-1596
▁тойр	-1597
тгий	-1598
▁мянг	-1599
лэсэн	-1600
▁чадна	-1601
ou	-1602
алз	-1603
жин	-1604
▁түв	-1605
гүүд	-1606
▁Шинэ	-1607
▁төлбөр	-1608
▁Хэн	-1609
▁эмнэл	-1610
▁намын	-1611
маа	-1612
▁энэхүү	-1613
▁мэдэж	-1614
▁банк	-1615
▁орны	-1616
▁гарг	-1617
аахан	-1618
▁тээ	-1619
▁нөхөр	-1620
▁хуудас	-1621
▁е	-1622
▁эхний	-1623
▁Ерөнхийлөгч	-1624
▁дай	-1625
▁явсан	-1626
арсан	-1627
▁аваад	-1628
үүлэг	-1629
▁Хоёр	-1630
000	-1631
▁эхэлсэн	-1632
▁хаана	-1633
элтэй	-1634
▁бэлэн	-1635
онгос	-1636
▁болохыг	-1637
▁насны	-1638
▁Тэгэхээр	-1639
▁онг	-1640
уулна	-1641
▁ертөнц	-1642
▁оноос	-1643
ээлт	-1644
▁сэд	-1645
▁дууд	-1646
▁бидэнд	-1647
▁Бус	-1648
▁утас	-1649
чилж	-1650
▁хурдан	-1651
алдаа	-1652
▁хувийн	-1653
нээ	-1654
▁хэлбэр	-1655
▁буц	-1656
▁нүд	-1657
▁гэхдээ	-1658
▁Ур	-1659
▁байхдаа	-1660
at	-1661
лалаа	-1662
мэл	-1663
▁найр	-1664
▁хүссэн	-1665
▁бичиг	-1666
мд	-1667
▁удирд	-1668
өнө	-1669
вор	-1670
ман	-1671
▁цуг	-1672
лагдсан	-1673
▁дут	-1674
▁эрс	-1675
▁тэрг	-1676
чилсан	-1677
▁шаардлаг	-1678
▁янз	-1679
▁мянган	-1680
▁орнууд	-1681
өхөөр	-1682
▁Сол	-1683
▁жижиг	-1684
▁сайт	-1685
▁Ингээд	-1686
халтай	-1687
ac	-1688
ио	-1689
▁ий	-1690
лөх	-1691
▁хүүхдийн	-1692
▁хүмүүст	-1693
▁b	-1694
▁зү	-1695
▁хувц	-1696
▁зай	-1697
▁асуудл	-1698
▁Баг	-1699
▁Хэд	-1700
▁март	-1701
▁хөн	-1702
нүүд	-1703
▁дэх	-1704
▁амьдарч	-1705
▁Үүний	-1706
▁му	-1707
үрх	-1708
▁бүртг	-1709
▁кин	-1710
▁Төрийн	-1711
▁нис	-1712
▁явц	-1713
▁За	-1714
▁хориг	-1715
▁ажилд	-1716
▁ажлыг	-1717
▁ы	-1718
▁хүсч	-1719
ограм	-1720
▁үеэр	-1721
▁болгож	-1722
▁орлог	-1723
▁угаа	-1724
▁тулг	-1725
▁хөөр	-1726
▁аюулгүй	-1727
▁Ард	-1728
▁шилж	-1729
▁нууц	-1730
даад	-1731
▁бууд	-1732
▁гэмт	-1733
▁амьдралын	-1734
▁•	-1735
▁орч	-1736
▁хаг	-1737
▁нэгд	-1738
▁олох	-1739
▁хайртай	-1740
алц	-1741
▁бэр	-1742
алин	-1743
▁дүг	-1744
▁тоглолт	-1745
огц	-1746
▁Гад	-1747
▁Сур	-1748
om	-1749
уулалт	-1750
▁бичсэн	-1751
▁Энд	-1752
▁Бол	-1753
хэг	-1754
▁хотын	-1755
▁хөдөлгөө	-1756
▁Бр	-1757
олын	-1758
▁тов	-1759
▁арай	-1760
ныг	-1761
▁сонгол	-1762
▁Тэрбээр	-1763
▁ахуй	-1764
▁зорилго	-1765
▁Бат	-1766
▁Над	-1767
лээд	-1768
▁Бас	-1769
▁өмнөх	-1770
порт	-1771
▁агаар	-1772
үүдэд	-1773
??	-1774
▁тоглоом	-1775
▁амьдар	-1776
▁гүйгээр	-1777
▁Мэдээж	-1778
члэг	-1779
▁асуулт	-1780
▁сайж	-1781
▁ихэнх	-1782
руулах	-1783
▁цар	-1784
▁Улаан	-1785
▁унт	-1786
▁түүнд	-1787
өмбөг	-1788
▁хэлбэл	-1789
▁урт	-1790
агдах	-1791
▁Нүүр	-1792
▁Яг	-1793
▁d	-1794
▁байдлыг	-1795
▁16	-1796
▁ме	-1797
▁гэлээ	-1798
▁лээ	-1799
вөн	-1800
▁ирээдүй	-1801
▁17	-1802
▁Бидний	-1803
▁13	-1804
▁тэгээд	-1805
▁загвар	-1806
лагын	-1807
▁байхыг	-1808
▁оруулах	-1809
▁ажлаа	-1810
▁Анг	-1811
▁199	-1812
ью	-1813
▁нэвтр	-1814
▁түмэн	-1815
екс	-1816
▁мэдээллийг	-1817
▁айл	-1818
▁чин	-1819
▁өө	-1820
▁соё	-1821
▁зохиц	-1822
▁аймгийн	-1823
▁давх	-1824
▁нөгөө	-1825
лана	-1826
омжтой	-1827
▁төрсөн	-1828
▁хэмжээнд	-1829
нэр	-1830
агдаж	-1831
▁тэнд	-1832
▁зориулсан	-1833
▁бусд	-1834
ламж	-1835
▁Өнг	-1836
▁O	-1837
▁50	-1838
нхб	-1839
▁өглөө	-1840
▁сонголт	-1841
▁ажилладаг	-1842
▁эмэгтэйчүүд	-1843
▁бодох	-1844
▁байсн	-1845
▁өөртөө	-1846
it	-1847
▁чиглэл	-1848
▁бололтой	-1849
▁барих	-1850
▁эхнэр	-1851
▁e	-1852
нээр	-1853
өрсөн	-1854
өөл	-1855
згаар	-1856
ааны	-1857
өхөөрөмж	-1858
▁ман	-1859
хэнэ	-1860
▁J	-1861
▁удаан	-1862
аб	-1863
мөр	-1864
▁дал	-1865
▁гурав	-1866
▁чамайг	-1867
▁Сүүл	-1868
▁буу	-1869
▁Бурханы	-1870
Эр	-1871
ги	-1872
лайн	-1873
▁дээш	-1874
▁нийтийн	-1875
▁1-	-1876
үжиг	-1877
▁орой	-1878
▁орд	-1879
ян	-1880
▁дэвш	-1881
▁25	-1882
ахад	-1883
▁цагдаа	-1884
Та	-1885
▁дүгн	-1886
Бат	-1887
▁явдаг	-1888
▁мэднэ	-1889
▁орчим	-1890
▁битгий	-1891
▁үйлчл	-1892
ic	-1893
▁n	-1894
лагатай	-1895
▁амьдрах	-1896
▁эзэм	-1897
▁Солонгос	-1898
▁төхөөрөмж	-1899
▁үндсэн	-1900
бай	-1901
▁хязгаар	-1902
▁таныг	-1903
▁гэдгээ	-1904
▁мат	-1905
▁бүтээгдэхүүн	-1906
▁тон	-1907
▁технолог	-1908
▁эрт	-1909
▁өөрийнхөө	-1910
лагч	-1911
▁өнөө	-1912
▁бүлийн	-1913
▁үзсэн	-1914
▁зарц	-1915
mn	-1916
▁Аз	-1917
▁түвшин	-1918
есс	-1919
▁програм	-1920
▁оюут	-1921
▁уран	-1922
ра	-1923
▁БН	-1924
ланг	-1925
▁жур	-1926
▁мах	-1927
▁хийнэ	-1928
▁хэрэглэх	-1929
▁шилдэг	-1930
уучин	-1931
▁суурь	-1932
▁төлөвлөгөө	-1933
▁Өөрийн	-1934
▁хил	-1935
аах	-1936
гааш	-1937
▁бөх	-1938
варын	-1939
гааны	-1940
ашин	-1941
▁улам	-1942
▁барьж	-1943
▁гэдэгт	-1944
▁ха	-1945
▁эргэл	-1946
▁байгал	-1947
▁сав	-1948
▁зүйн	-1949
▁эхлэх	-1950
▁Үүнээс	-1951
дэх	-1952
▁хөгжил	-1953
лаад	-1954
▁мод	-1955
▁бодит	-1956
амд	-1957
▁хэдий	-1958
▁эцэг	-1959
▁хувцас	-1960
▁гайх	-1961
ев	-1962
уудад	-1963
▁ня	-1964
гөл	-1965
▁нэл	-1966
▁иргэдийн	-1967
саа	-1968
▁байл	-1969
ударга	-1970
▁чиний	-1971
▁хоногт	-1972
▁удаагийн	-1973
▁Y	-1974
▁нутаг	-1975
уулагч	-1976
сай	-1977
▁шир	-1978
▁ээл	-1979
▁амр	-1980
▁өгнө	-1981
▁очиж	-1982
▁эмч	-1983
▁хуур	-1984
▁долл	-1985
▁тут	-1986
уяа	-1987
лэгч	-1988
эгдсэн	-1989
кс	-1990
өөц	-1991
▁сууж	-1992
▁нийгэм	-1993
▁хийгээд	-1994
цээ	-1995
▁ны	-1996
▁гом	-1997
▁тос	-1998
▁багт	-1999
дэж	-2000
▁өвч	-2001
▁авдаг	-2002
▁байгууллага	-2003
тийн	-2004
ro	-2005
▁бодлого	-2006
уулаад	-2007
▁суралц	-2008
▁бариг	-2009
▁ашиглаж	-2010
▁ялгаа	-2011
охой	-2012
гэх	-2013
▁Аж	-2014
энгүй	-2015
этгэл	-2016
▁·	-2017
▁туслах	-2018
▁ухаа	-2019
чээ	-2020
▁төлөвл	-2021
энтэй	-2022
длыг	-2023
эгүй	-2024
▁Хуул	-2025
▁гэртээ	-2026
врийн	-2027
пп	-2028
▁яд	-2029
▁улир	-2030
▁үүрэг	-2031
▁хэрэглээ	-2032
▁нээ	-2033
▁байдаггүй	-2034
▁2-	-2035
өөсөө	-2036
▁арил	-2037
▁жилд	-2038
▁ижил	-2039
▁Хүмүүс	-2040
▁бичлэг	-2041
▁сонирхолтой	-2042
▁24	-2043
▁байнга	-2044
огч	-2045
▁бүлэг	-2046
▁лав	-2047
чихсан	-2048
vv	-2049
▁цалин	-2050
▁минутын	-2051
▁Тэдний	-2052
▁сэтгүүл	-2053
▁хамр	-2054
▁хангалт	-2055
аасан	-2056
▁энгийн	-2057
▁сургууль	-2058
хийг	-2059
▁шү	-2060
лөгчийн	-2061
иде	-2062
гүү	-2063
▁худалдаж	-2064
▁баталгаа	-2065
олб	-2066
▁Мар	-2067
▁дэг	-2068
тэйгээ	-2069
▁худалдан	-2070
▁өөрчлөгд	-2071
▁U	-2072
▁ажээ	-2073
▁тусламж	-2074
▁аргагүй	-2075
эгдэл	-2076
ноо	-2077
сээр	-2078
▁оруулж	-2079
**	-2080
▁Дээр	-2081
▁өгдөг	-2082
хны	-2083
▁зо	-2084
▁өрс	-2085
▁1.	-2086
▁дүү	-2087
▁Өв	-2088
өдөө	-2089
эндээ	-2090
▁дас	-2091
жилгээ	-2092
▁чаддаг	-2093
▁Эц	-2094
▁таван	-2095
▁хулг	-2096
▁дөрвөн	-2097
▁гайхалтай	-2098
иваа	-2099
▁гал	-2100
лагд	-2101
▁бал	-2102
ериал	-2103
оохон	-2104
▁яваа	-2105
▁Ажил	-2106
▁ойлгож	-2107
▁ов	-2108
▁2020	-2109
▁өнгө	-2110
эст	-2111
лжээ	-2112
▁олд	-2113
▁сул	-2114
▁өгөө	-2115
▁захиал	-2116
барын	-2117
he	-2118
ХУ	-2119
▁l	-2120
▁тохиолдол	-2121
▁хүрээнд	-2122
элж	-2123
▁цэг	-2124
▁шагн	-2125
▁гэжээ	-2126
▁u	-2127
өсөн	-2128
▁харилц	-2129
ант	-2130
▁Монголчууд	-2131
▁хохир	-2132
▁дотоод	-2133
▁Тан	-2134
▁нөөц	-2135
лүүлэх	-2136
▁Түүнийг	-2137
▁нутагт	-2138
икийн	-2139
ья	-2140
▁гэхээр	-2141
ХА	-2142
▁тавьж	-2143
▁өмс	-2144
▁Зөвхөн	-2145
▁нийгмийн	-2146
▁зүрх	-2147
▁үздэг	-2148
▁эхлээд	-2149
▁V	-2150
▁Түүн	-2151
▁тээр	-2152
▁хараад	-2153
▁хөө	-2154
вол	-2155
▁өөрсдийн	-2156
▁Эс	-2157
хгүй	-2158
▁тэрээр	-2159
▁мор	-2160
▁Анх	-2161
луулах	-2162
▁онгоц	-2163
▁хувил	-2164
▁жишээ	-2165
▁Ан	-2166
▁бүрд	-2167
▁бэрх	-2168
▁шалг	-2169
▁тавих	-2170
▁төсөл	-2171
▁бичих	-2172
▁'	-2173
▁сонин	-2174
▁өргөн	-2175
▁тэрб	-2176
▁Хув	-2177
▁хүсэлт	-2178
▁чадсан	-2179
▁салбарт	-2180
▁чул	-2181
▁яам	-2182
▁суул	-2183
▁хүмүүсийг	-2184
▁Өөрөөр	-2185
ед	-2186
юун	-2187
үнд	-2188
▁Хятадын	-2189
▁үедээ	-2190
▁чамд	-2191
акц	-2192
үүдийг	-2193
▁Хүний	-2194
▁Тухайн	-2195
▁цагаан	-2196
▁40	-2197
▁Сай	-2198
▁юмаа	-2199
▁эргэн	-2200
артай	-2201
үүлнэ	-2202
▁бя	-2203
▁хаш	-2204
▁хамаагүй	-2205
▁шинжилгээ	-2206
эсний	-2207
▁утга	-2208
▁Өнгөрсөн	-2209
es	-2210
▁Сайн	-2211
▁зайл	-2212
▁мэдээллийн	-2213
еж	-2214
тор	-2215
эрлэг	-2216
▁мөнгөн	-2217
▁2012	-2218
▁ханг	-2219
▁сургуулийн	-2220
▁жинхэнэ	-2221
▁явна	-2222
гаараа	-2223
ина	-2224
▁бээл	-2225
▁өөрсдөө	-2226
▁хотод	-2227
▁Намайг	-2228
маас	-2229
▁зу	-2230
▁Сонг	-2231
төр	-2232
▁нийтлэл	-2233
Энэ	-2234
ирус	-2235
▁Гер	-2236
▁хатуу	-2237
▁онлайн	-2238
▁бүхнийг	-2239
am	-2240
▁o	-2241
ахыг	-2242
▁цахим	-2243
▁материал	-2244
▁Үйл	-2245
▁Амьд	-2246
▁сууц	-2247
▁зүг	-2248
▁хурд	-2249
оф	-2250
▁!!!	-2251
▁чим	-2252
▁2016	-2253
▁үнэгүй	-2254
▁Европын	-2255
▁үзүүлэх	-2256
▁шах	-2257
▁ажиллагааны	-2258
▁#	-2259
сэг	-2260
▁насан	-2261
▁хүрэх	-2262
▁эрэгтэй	-2263
▁хялбар	-2264
▁хамтран	-2265
санд	-2266
▁гээ	-2267
▁оос	-2268
▁сургалт	-2269
▁оор	-2270
үүлдэг	-2271
▁f	-2272
ing	-2273
үрэн	-2274
▁идэв	-2275
▁тусгай	-2276
▁төд	-2277
▁21	-2278
▁тэднийг	-2279
▁алх	-2280
ay	-2281
▁Эл	-2282
▁жүжиг	-2283
дагч	-2284
▁сууд	-2285
гэрэнгүй	-2286
сыг	-2287
эсгэл	-2288
▁байдалд	-2289
хим	-2290
▁яриа	-2291
▁Ас	-2292
▁нээлт	-2293
▁эрчим	-2294
унт	-2295
▁компанийн	-2296
эе	-2297
▁үзэл	-2298
▁Бусад	-2299
▁Юу	-2300
мээр	-2301
▁тах	-2302
▁Энэт	-2303
▁татаж	-2304
▁газарт	-2305
▁Хур	-2306
үүдийн	-2307
▁за	-2308
▁Фр	-2309
▁зогсоо	-2310
гээс	-2311
▁бодол	-2312
▁бээлий	-2313
▁мэндийн	-2314
▁Ху	-2315
члал	-2316
▁хийлг	-2317
лангуяа	-2318
▁хоолой	-2319
▁оролцох	-2320
АР	-2321
идео	-2322
шээл	-2323
▁очих	-2324
▁бичиж	-2325
маг	-2326
▁дараагийн	-2327
ааж	-2328
гыг	-2329
▁хаж	-2330
▁нү	-2331
лам	-2332
ших	-2333
▁эрд	-2334
үүлэн	-2335
▁тавь	-2336
▁байгууллагын	-2337
▁сонгох	-2338
▁..	-2339
▁ариу	-2340
▁бүртгэл	-2341
▁уй	-2342
▁хүрч	-2343
өөдрийн	-2344
▁хүргэж	-2345
▁шинэчл	-2346
андаа	-2347
▁хүчний	-2348
▁байгуулах	-2349
▁хувилбар	-2350
▁гоо	-2351
▁нарийн	-2352
▁үргэлжил	-2353
аач	-2354
▁хангалттай	-2355
Эрдэнэ	-2356
▁Ээж	-2357
▁мэдэр	-2358
ндаа	-2359
▁орх	-2360
▁хос	-2361
▁хөдл	-2362
▁хэлэхэд	-2363
▁хүчтэй	-2364
▁ээлж	-2365
▁бүгдийг	-2366
▁Зур	-2367
▁мая	-2368
▁гэрийн	-2369
▁хүсдэг	-2370
▁жир	-2371
▁хэлдэг	-2372
▁g	-2373
▁Өр	-2374
▁адилхан	-2375
▁тусгаар	-2376
▁хүнтэй	-2377
▁хугацааны	-2378
▁ярьдаг	-2379
▁цэн	-2380
▁анги	-2381
▁хүсэл	-2382
▁Хайр	-2383
▁хэрэгжүүлэх	-2384
▁болт	-2385
▁улмаас	-2386
▁шударга	-2387
▁хүрсэн	-2388
тгалз	-2389
вийн	-2390
▁яваад	-2391
▁нэлээд	-2392
лх	-2393
▁гу	-2394
▁2017	-2395
▁буцаа	-2396
▁Гур	-2397
▁болз	-2398
▁хөгжлийн	-2399
▁санхүүгийн	-2400
▁Эмэгтэй	-2401
ноос	-2402
▁арван	-2403
▁тушаал	-2404
▁тэрбум	-2405
▁уурхайн	-2406
▁өрт	-2407
▁тэнэг	-2408
▁мэдлэг	-2409
эснээр	-2410
▁Надад	-2411
▁мэргэжлийн	-2412
▁боль	-2413
▁татгалз	-2414
▁зөвлөгөө	-2415
▁бна	-2416
▁гараад	-2417
is	-2418
▁тавьсан	-2419
▁яри	-2420
▁байдлын	-2421
▁түүн	-2422
▁урам	-2423
лиг	-2424
▁хүй	-2425
▁тэнц	-2426
▁ойлголт	-2427
▁баярлалаа	-2428
угай	-2429
▁Зал	-2430
▁тоглох	-2431
▁байшин	-2432
▁бэрхшээл	-2433
▁ОХУ	-2434
Энхб	-2435
▁үгийг	-2436
аана	-2437
▁яриад	-2438
▁эрсдэл	-2439
длийг	-2440
▁Сүүлийн	-2441
ow	-2442
▁бэлэг	-2443
▁ирдэг	-2444
амсалтай	-2445
▁биднийг	-2446
▁явуулах	-2447
▁Өг	-2448
▁салбарын	-2449
un	-2450
▁2018	-2451
▁Гэсэн	-2452
▁ажилласан	-2453
▁байгаагаа	-2454
наж	-2455
длын	-2456
АХ	-2457
▁тэтг	-2458
бэр	-2459
рай	-2460
▁Өдөр	-2461
▁оршин	-2462
▁хөдөлмөр	-2463
▁22	-2464
▁мэдээж	-2465
оонд	-2466
▁дуул	-2467
▁давуу	-2468
▁тусал	-2469
▁Гадаад	-2470
il	-2471
▁харсан	-2472
▁чадаагүй	-2473
▁сах	-2474
▁h	-2475
▁доор	-2476
▁бараа	-2477
ol	-2478
et	-2479
лээр	-2480
ьютер	-2481
▁дасгал	-2482
▁2.	-2483
▁Он	-2484
▁дэлгүүр	-2485
▁боломжийг	-2486
▁амжилттай	-2487
▁нарт	-2488
▁сүлжээ	-2489
?"	-2490
▁дургүй	-2491
▁илэрхийл	-2492
▁амьдардаг	-2493
▁бүрт	-2494
▁Үндсэн	-2495
үрэл	-2496
өмөр	-2497
▁гүн	-2498
▁ойлгох	-2499
▁талбай	-2500
▁амж	-2501
▁Баяр	-2502
▁Магад	-2503
▁унших	-2504
▁шалгар	-2505
▁тэдгээр	-2506
▁үндэсний	-2507
агчид	-2508
▁талд	-2509
пьютер	-2510
▁дэмжих	-2511
▁сэргээ	-2512
▁ирнэ	-2513
▁2019	-2514
▁суух	-2515
▁тээрэм	-2516
унтаг	-2517
▁блог	-2518
ла	-2519
▁на	-2520
▁Хэрэг	-2521
▁замын	-2522
▁зохиол	-2523
орно	-2524
▁үйлдэл	-2525
▁монголчууд	-2526
▁є	-2527
дол	-2528
▁илр	-2529
▁жаахан	-2530
▁хуваал	-2531
▁амьдралд	-2532
▁өгүүл	-2533
▁гарын	-2534
▁үнэтэй	-2535
▁*	-2536
▁Бая	-2537
▁оноо	-2538
▁зарна	-2539
▁бодсон	-2540
▁|	-2541
унд	-2542
ээний	-2543
▁ёсны	-2544
▁оролд	-2545
▁томил	-2546
гэ	-2547
итан	-2548
▁станд	-2549
▁хэргийн	-2550
▁сурах	-2551
▁үзэсгэл	-2552
▁r	-2553
▁Ком	-2554
▁дэд	-2555
▁хайж	-2556
▁суртал	-2557
▁харагдаж	-2558
▁онцлог	-2559
▁халдвар	-2560
нээн	-2561
▁2015	-2562
▁ахуйн	-2563
ага	-2564
▁хүл	-2565
▁ажиг	-2566
хоо	-2567
▁Ин	-2568
▁Газ	-2569
▁w	-2570
лагийн	-2571
▁бэлтг	-2572
▁сурвал	-2573
▁үлдсэн	-2574
MN	-2575
▁нур	-2576
▁бүтэн	-2577
▁хулгай	-2578
▁бэлтгэл	-2579
▁дэмжлэг	-2580
▁чуул	-2581
айз	-2582
▁гардаг	-2583
▁зээлийн	-2584
▁Есү	-2585
▁автом	-2586
▁3-	-2587
▁татвар	-2588
▁эг	-2589
эргүү	-2590
▁нэрийг	-2591
орон	-2592
сын	-2593
▁ажл	-2594
гт	-2595
▁зэв	-2596
ух	-2597
▁X	-2598
наа	-2599
▁мө	-2600
▁тэж	-2601
▁ос	-2602
▁кон	-2603
▁тэнгэр	-2604
-1	-2605
▁K	-2606
▁муж	-2607
▁хангах	-2608
▁хяналт	-2609
▁удахгүй	-2610
▁Япон	-2611
▁дахиад	-2612
▁амиа	-2613
длийн	-2614
▁Аав	-2615
эрхүү	-2616
el	-2617
▁нунтаг	-2618
▁маргааш	-2619
▁Түүнчлэн	-2620
ирч	-2621
▁өд	-2622
▁цэргийн	-2623
ad	-2624
▁яар	-2625
▁ярьсан	-2626
ош	-2627
мыг	-2628
▁охи	-2629
▁жагсаалт	-2630
▁ажиллагааг	-2631
▁элс	-2632
▁нэгж	-2633
▁нохой	-2634
▁мэдрэмж	-2635
▁өөрчлөх	-2636
▁хэрэгсэл	-2637
илгын	-2638
▁дүнд	-2639
▁үлдээ	-2640
▁Ерөнхийлөгчийн	-2641
эргүүц	-2642
▁онцгой	-2643
▁дэмжиж	-2644
анг	-2645
▁Хүүхд	-2646
▁интер	-2647
▁илгээ	-2648
▁алдсан	-2649
▁Хор	-2650
▁Нөгөө	-2651
▁магадлал	-2652
▁эсэхийг	-2653
сийг	-2654
▁дүгнэлт	-2655
▁Бүгд	-2656
▁ороод	-2657
▁шар	-2658
▁яахав	-2659
▁сонгуулийн	-2660
▁тоног	-2661
▁хүсэж	-2662
▁Америкийн	-2663
▁хөдөлгөөн	-2664
▁давхар	-2665
чигдөр	-2666
▁итгэлтэй	-2667
▁2014	-2668
▁хэмжээг	-2669
▁шалгалт	-2670
рист	-2671
▁сөр	-2672
▁Цааш	-2673
слэлийн	-2674
▁бөмбөг	-2675
▁Магадгүй	-2676
▁шаардлагагүй	-2677
▁Түүнээс	-2678
▁хуваалц	-2679
▁Улаанбаатар	-2680
▁Хал	-2681
▁ног	-2682
▁гут	-2683
Монгол	-2684
▁алдаг	-2685
▁бодис	-2686
▁жаргалтай	-2687
as	-2688
▁эрг	-2689
илгаан	-2690
▁хас	-2691
▁Ne	-2692
▁нарыг	-2693
▁этг	-2694
▁доллар	-2695
▁огц	-2696
▁гарга	-2697
▁зөвлөл	-2698
▁газраас	-2699
▁компаниуд	-2700
иц	-2701
▁тэдэнд	-2702
▁Амьдрал	-2703
шигч	-2704
▁Франц	-2705
▁Өмнөх	-2706
▁томоохон	-2707
агш	-2708
▁бр	-2709
▁пар	-2710
▁хамгаал	-2711
▁амьтан	-2712
наар	-2713
▁Тав	-2714
▁ёсоор	-2715
▁багийн	-2716
▁Нийт	-2717
▁ашигтай	-2718
▁цэцэрлэг	-2719
▁сургуульд	-2720
▁өл	-2721
▁Хөг	-2722
▁эмчилгээ	-2723
▁хүчир	-2724
гууд	-2725
▁Ажлын	-2726
▁үзүүлэлт	-2727
▁хог	-2728
▁хятад	-2729
▁вэб	-2730
▁байлг	-2731
▁түмний	-2732
▁этгээд	-2733
▁эсэргүүц	-2734
заар	-2735
▁шагнал	-2736
ИЙ	-2737
▁нэмэлт	-2738
▁сэргий	-2739
▁тэс	-2740
▁тарх	-2741
▁аялал	-2742
▁Аф	-2743
▁Нар	-2744
▁2008	-2745
▁жуул	-2746
▁алхам	-2747
▁Эсвэл	-2748
▁ХХ	-2749
▁зуу	-2750
▁60	-2751
▁тэгж	-2752
▁өвд	-2753
▁олсон	-2754
▁хэлээд	-2755
▁орос	-2756
▁Ганц	-2757
▁Гар	-2758
▁хурал	-2759
▁Оросын	-2760
▁талаас	-2761
▁хариулт	-2762
▁сэдэв	-2763
ьс	-2764
▁зүтг	-2765
▁хэсэгт	-2766
лол	-2767
▁сург	-2768
▁тогтвор	-2769
ag	-2770
ип	-2771
▁тор	-2772
ot	-2773
▁хагас	-2774
уб	-2775
▁дотр	-2776
▁идэвх	-2777
▁ирлээ	-2778
▁тээврийн	-2779
▁Энэтхэг	-2780
▁мөрд	-2781
эвчлэн	-2782
▁төсөв	-2783
▁уудыг	-2784
▁ат	-2785
▁дэр	-2786
▁мас	-2787
огино	-2788
▁Су	-2789
илга	-2790
▁тамир	-2791
▁Британ	-2792
▁анхаарал	-2793
▁асуудлаар	-2794
гад	-2795
▁сурвалж	-2796
▁хэрэглэж	-2797
▁хэрэгцээ	-2798
▁байгуулсан	-2799
АЛ	-2800
▁Үр	-2801
слэл	-2802
▁эгч	-2803
▁Дэлхий	-2804
▁уулзалт	-2805
▁стр	-2806
▁Холб	-2807
▁дурс	-2808
▁байнаа	-2809
▁орлого	-2810
▁учиртай	-2811
▁Хот	-2812
тон	-2813
шээ	-2814
▁3.	-2815
тний	-2816
уулахад	-2817
▁баяртай	-2818
орын	-2819
дрийн	-2820
снээр	-2821
▁шөнө	-2822
үүлэгч	-2823
▁өдөрт	-2824
тны	-2825
▁бах	-2826
▁эзэн	-2827
▁жолоо	-2828
ЭН	-2829
▁Дав	-2830
▁хоо	-2831
▁Залуу	-2832
▁амархан	-2833
▁түүнээс	-2834
лэнэ	-2835
▁хож	-2836
▁явуулж	-2837
▁сор	-2838
▁орно	-2839
▁хямд	-2840
портын	-2841
▁уншиж	-2842
▁хуваар	-2843
▁урьдчил	-2844
▁товч	-2845
▁цөөн	-2846
▁дая	-2847
▁сүр	-2848
▁вакц	-2849
▁хуралдаа	-2850
ed	-2851
▁Ой	-2852
▁им	-2853
▁Иргэд	-2854
▁олгох	-2855
▁бурхан	-2856
▁хэвээр	-2857
▁эрчүүд	-2858
▁23	-2859
Бид	-2860
▁тохиромжтой	-2861
▁Аль	-2862
▁алба	-2863
▁шинээр	-2864
ur	-2865
▁цай	-2866
▁танай	-2867
ТГ	-2868
тнууд	-2869
▁цугл	-2870
▁эрхийг	-2871
▁сонгуульд	-2872
▁холбогдох	-2873
ондоо	-2874
▁хандаж	-2875
▁хэдийн	-2876
▁ажилтан	-2877
▁Бүр	-2878
▁Тур	-2879
▁дөө	-2880
▁шав	-2881
▁зориг	-2882
▁өвчин	-2883
▁Эрдэнэ	-2884
▁Үндэсний	-2885
201	-2886
▁Эрх	-2887
▁гэрэл	-2888
▁ганцаараа	-2889
▁хамтдаа	-2890
ion	-2891
▁хэтэр	-2892
▁амьсгал	-2893
тгах	-2894
▁Нийг	-2895
▁эрдэм	-2896
▁аш	-2897
▁тоглог	-2898
▁түвшинд	-2899
▁оруулалт	-2900
бэл	-2901
игд	-2902
▁Сү	-2903
▁байд	-2904
▁амт	-2905
▁хаяг	-2906
▁талын	-2907
▁Хүүхэд	-2908
▁ойролцоо	-2909
▁дол	-2910
▁авчир	-2911
өнгөн	-2912
▁сонгууль	-2913
▁нот	-2914
▁бодоод	-2915
▁замаар	-2916
▁зая	-2917
▁хийхэд	-2918
▁Хүүхдийн	-2919
▁анд	-2920
▁Өмнөд	-2921
▁цом	-2922
▁видео	-2923
▁Бод	-2924
оорой	-2925
▁Сон	-2926
▁Ихэн	-2927
▁харахад	-2928
ээдэг	-2929
▁өөрсд	-2930
иас	-2931
▁зүйлээ	-2932
▁Ингэснээр	-2933
▁Уул	-2934
▁ангийн	-2935
▁тайван	-2936
▁боо	-2937
▁Ингэж	-2938
▁Оюут	-2939
▁гарна	-2940
▁хээ	-2941
дүгээр	-2942
▁бүхэнд	-2943
▁тэрбээр	-2944
АЙ	-2945
өгч	-2946
▁Зах	-2947
▁Жишээ	-2948
▁зургийг	-2949
оу	-2950
евиз	-2951
▁Том	-2952
▁тел	-2953
▁төлөх	-2954
▁эхэлж	-2955
▁аварга	-2956
▁оролцож	-2957
имп	-2958
үүлээд	-2959
▁дүрэм	-2960
▁2013	-2961
үрэлсү	-2962
▁эргэж	-2963
▁тоглож	-2964
▁тэмцээн	-2965
▁эхэллээ	-2966
▁болгосон	-2967
▁нийц	-2968
▁зүйтэй	-2969
▁байранд	-2970
▁соёл	-2971
ийнхээ	-2972
огдсон	-2973
▁төрөлх	-2974
▁үзээрэй	-2975
▁мөрөөд	-2976
ба	-2977
ъё	-2978
▁Ил	-2979
▁худлаа	-2980
▁Маш	-2981
лга	-2982
▁Төв	-2983
▁дий	-2984
▁барь	-2985
▁чулуу	-2986
▁компьютер	-2987
тэр	-2988
▁оруулсан	-2989
▁зөвшөөрөл	-2990
АА	-2991
▁байсныг	-2992
▁цагдаагийн	-2993
▁эхлэн	-2994
▁цаашид	-2995
▁хариуцлага	-2996
▁уламж	-2997
▁зүгээс	-2998
▁бул	-2999
▁асар	-3000
▁Эрүүл	-3001
▁нэртэй	-3002
▁хэвлэл	-3003
ель	-3004
лөл	-3005
чдад	-3006
▁Орон	-3007
▁өсөлт	-3008
зан	-3009
улга	-3010
▁багас	-3011
▁(1	-3012
лагыг	-3013
удамж	-3014
▁мен	-3015
▁хааг	-3016
▁улстөр	-3017
▁зардал	-3018
▁уурхай	-3019
▁хэрэгт	-3020
▁хуучин	-3021
▁зөн	-3022
чихсэн	-3023
▁Зүгээр	-3024
онх	-3025
▁эргэлз	-3026
ко	-3027
ent	-3028
▁давт	-3029
▁охид	-3030
▁хоёрын	-3031
▁хаал	-3032
▁ашигладаг	-3033
▁санагддаг	-3034
▁26	-3035
▁Ох	-3036
▁цу	-3037
гаасаа	-3038
оог	-3039
лбал	-3040
▁тол	-3041
▁хөх	-3042
▁сув	-3043
▁Хууль	-3044
▁Үз	-3045
▁зуун	-3046
▁даатг	-3047
▁дүүрэн	-3048
мал	-3049
▁хэлний	-3050
▁НҮ	-3051
▁Төс	-3052
▁хүүхдээ	-3053
▁дүнтэй	-3054
нгын	-3055
▁дайн	-3056
▁идэх	-3057
▁Хан	-3058
▁хөв	-3059
▁Ихэнх	-3060
▁хэвийн	-3061
▁чаддаггүй	-3062
▁Мэр	-3063
▁Ах	-3064
тайгаа	-3065
▁хөдөө	-3066
▁асуух	-3067
▁зориулж	-3068
▁хувьцаа	-3069
▁эрхтэй	-3070
▁Ун	-3071
ээээ	-3072
▁ангил	-3073
▁хувийг	-3074
ааг	-3075
шуул	-3076
▁Тог	-3077
▁түрээс	-3078
▁одоогийн	-3079
▁Одоогоор	-3080
▁цахилгаан	-3081
▁198	-3082
▁өрн	-3083
▁итгэж	-3084
шөө	-3085
▁албаны	-3086
▁анзаар	-3087
▁нээлттэй	-3088
▁80	-3089
чдэд	-3090
▁мян	-3091
▁нэгдсэн	-3092
id	-3093
пер	-3094
▁Уд	-3095
▁нөхөд	-3096
▁хэргийг	-3097
▁болоогүй	-3098
▁өөд	-3099
▁зуур	-3100
▁номын	-3101
▁чиглэлээр	-3102
йн	-3103
бор	-3104
ихгүй	-3105
▁дөрөв	-3106
▁No	-3107
▁цув	-3108
▁дайр	-3109
▁Өглөө	-3110
▁шалгах	-3111
▁шалтгаа	-3112
▁сэн	-3113
сныг	-3114
▁үзэг	-3115
амжийн	-3116
▁сайдын	-3117
▁сонсох	-3118
ойд	-3119
▁царай	-3120
▁эзэмш	-3121
ub	-3122
▁2011	-3123
▁урьдчилан	-3124
бир	-3125
▁Хэл	-3126
▁алдартай	-3127
▁оролцсон	-3128
▁зорилгоор	-3129
▁ганцхан	-3130
▁ихэвчлэн	-3131
▁чанартай	-3132
мад	-3133
лолт	-3134
▁Чам	-3135
▁буул	-3136
▁үзнэ	-3137
▁порно	-3138
▁хүргэе	-3139
▁стандарт	-3140
асны	-3141
▁Жил	-3142
▁аливаа	-3143
▁борл	-3144
▁сам	-3145
▁даяар	-3146
▁y	-3147
ри	-3148
▁27	-3149
▁Ном	-3150
▁Тэнд	-3151
##	-3152
гэц	-3153
▁шийдвэрлэх	-3154
▁ХХК	-3155
▁талаарх	-3156
eb	-3157
▁хичээ	-3158
▁дэлгэрэнгүй	-3159
▁Тэн	-3160
▁юмуу	-3161
кк	-3162
▁Бур	-3163
ХАУ	-3164
▁Эз	-3165
▁БНХАУ	-3166
▁бохир	-3167
▁Ган	-3168
▁байлгүй	-3169
ch	-3170
▁хям	-3171
▁ялг	-3172
▁дүгээр	-3173
▁агаарын	-3174
▁үнэлгээ	-3175
▁Сар	-3176
▁тоол	-3177
▁нөхцөлд	-3178
▁28	-3179
▁сум	-3180
▁$	-3181
тэл	-3182
▁Танд	-3183
агддаг	-3184
▁эрхэм	-3185
▁чадвартай	-3186
эхэ	-3187
▁>	-3188
▁Ол	-3189
▁Дар	-3190
өөрөө	-3191
▁тогтвортой	-3192
▁уудын	-3193
▁биеийн	-3194
▁зургаан	-3195
▁үнэндээ	-3196
▁Христ	-3197
▁эцсийн	-3198
▁хэмээх	-3199
члах	-3200
▁лаа	-3201
▁хэмээ	-3202
▁засвар	-3203
▁Дараагийн	-3204
огдох	-3205
▁зөрчил	-3206
▁менеж	-3207
▁Ё	-3208
▁Зам	-3209
▁хоё	-3210
▁дарж	-3211
▁хуулийг	-3212
▁тий	-3213
▁нэмж	-3214
▁санаж	-3215
▁хөгжүүлэх	-3216
мол	-3217
лгэр	-3218
▁тараа	-3219
▁надаас	-3220
▁4.	-3221
▁НҮБ	-3222
▁биеэ	-3223
▁ердөө	-3224
▁Үнэхээр	-3225
▁үйлчилгээний	-3226
▁цэцэг	-3227
▁сайжруулах	-3228
▁хэ	-3229
руул	-3230
▁арх	-3231
▁хах	-3232
▁баруун	-3233
▁тайлан	-3234
▁ажиллана	-3235
ям	-3236
▁хөнд	-3237
▁англи	-3238
▁хүрээл	-3239
▁хаанаас	-3240
▁шив	-3241
▁хандах	-3242
▁тогтоох	-3243
рийг	-3244
▁ган	-3245
▁экс	-3246
▁ной	-3247
▁богино	-3248
фф	-3249
бат	-3250
лүүлж	-3251
агдаад	-3252
ook	-3253
▁on	-3254
▁Нэгэн	-3255
▁дэргэд	-3256
▁ухааны	-3257
▁202	-3258
▁Тухай	-3259
▁аргаар	-3260
▁мун	-3261
▁заалт	-3262
▁ашиглан	-3263
▁муухай	-3264
долл	-3265
▁ург	-3266
▁мэдсэн	-3267
▁ерөнхийлөгч	-3268
рэл	-3269
▁Ман	-3270
ийгээр	-3271
▁гараа	-3272
▁байгуулж	-3273
▁гаргадаг	-3274
▁Бу	-3275
▁шүүмж	-3276
▁Англи	-3277
▁тутмын	-3278
▁in	-3279
улаа	-3280
▁зорилт	-3281
ЭГ	-3282
▁зад	-3283
▁хүм	-3284
өнгөж	-3285
▁Өмнө	-3286
▁татах	-3287
▁хороо	-3288
▁мөнгийг	-3289
▁x	-3290
▁урд	-3291
элдэг	-3292
хамшиг	-3293
чилгаа	-3294
▁сумын	-3295
▁түгээ	-3296
▁Цагаан	-3297
лоор	-3298
▁идэж	-3299
▁хүсье	-3300
▁бусдад	-3301
УУ	-3302
▁an	-3303
▁Хүү	-3304
▁суд	-3305
▁сураг	-3306
▁Байгал	-3307
us	-3308
▁даргын	-3309
▁байгаарай	-3310
лов	-3311
▁Дах	-3312
▁олбор	-3313
▁найдвар	-3314
ws	-3315
сар	-3316
цгаа	-3317
чдыг	-3318
▁эцэст	-3319
▁Тод	-3320
▁аараа	-3321
▁мөнгөө	-3322
▁халуун	-3323
▁шийдэх	-3324
▁Сонгуул	-3325
АТ	-3326
▁Бие	-3327
▁яасан	-3328
▁одоогоор	-3329
▁Мал	-3330
ошгүй	-3331
▁хэлэв	-3332
▁телевиз	-3333
▁зүйлд	-3334
жаа	-3335
кет	-3336
ддэг	-3337
▁Кан	-3338
▁Сая	-3339
▁дэм	-3340
▁сүй	-3341
▁уучл	-3342
▁4-	-3343
▁гаа	-3344
▁цус	-3345
▁үнэм	-3346
▁дугуй	-3347
ате	-3348
▁хэллээ	-3349
▁зох	-3350
▁үнэр	-3351
▁өрөөнд	-3352
▁жагсаал	-3353
▁хийхгүй	-3354
▁өгөхгүй	-3355
чүүдийн	-3356
▁бодлоо	-3357
страл	-3358
▁Үнэн	-3359
▁дууссан	-3360
▁анхаарах	-3361
єр	-3362
▁га	-3363
ноор	-3364
▁орхи	-3365
▁барим	-3366
лүүд	-3367
▁сурч	-3368
▁шдээ	-3369
▁Тухайлбал	-3370
гөн	-3371
элсэн	-3372
өхгүй	-3373
▁байхаа	-3374
▁өрсөлд	-3375
▁бизнесийн	-3376
▁агуу	-3377
▁хэнд	-3378
▁төдий	-3379
▁найдаж	-3380
▁боловсруулах	-3381
▁).	-3382
▁гр	-3383
огийн	-3384
▁дүнг	-3385
▁Из	-3386
▁Тү	-3387
▁ну	-3388
▁хэвт	-3389
▁тогтоол	-3390
▁болзошгүй	-3391
▁хэмжээгээр	-3392
▁&	-3393
▁улаан	-3394
▁хэрэглэдэг	-3395
▁үд	-3396
▁Тэм	-3397
▁авар	-3398
▁гудамж	-3399
▁хүргэх	-3400
▁үзэсгэлэн	-3401
▁Дот	-3402
▁Нөх	-3403
даагүй	-3404
▁Цэц	-3405
▁замыг	-3406
▁5-	-3407
ерэг	-3408
▁90	-3409
▁дагаж	-3410
▁ховор	-3411
▁газрыг	-3412
▁шалгаж	-3413
▁чанарын	-3414
▁шинжлэх	-3415
▁технологи	-3416
енер	-3417
алгаа	-3418
▁Эхний	-3419
▁таларх	-3420
▁хямрал	-3421
▁болгодог	-3422
ангуй	-3423
▁зүүд	-3424
▁хэрэв	-3425
▁хамтын	-3426
▁гү	-3427
▁зүүн	-3428
▁худалдааны	-3429
обус	-3430
▁Хөр	-3431
▁хөгжим	-3432
▁сонссон	-3433
▁Гол	-3434
▁Наад	-3435
▁Үүнд	-3436
▁үүнд	-3437
▁дотроо	-3438
▁залуус	-3439
▁төсвийн	-3440
▁гэг	-3441
▁туу	-3442
агийн	-3443
▁вирус	-3444
▁бүхний	-3445
▁тэмцэх	-3446
▁саналыг	-3447
▁үргэлжлүүл	-3448
го	-3449
дэр	-3450
▁ес	-3451
...]	-3452
ланд	-3453
▁инээ	-3454
▁тайгаа	-3455
▁өмнөөс	-3456
▁байхаар	-3457
▁дэлхийд	-3458
баяр	-3459
▁ордог	-3460
▁2009	-3461
▁оюутнууд	-3462
pp	-3463
,000	-3464
▁архи	-3465
▁журам	-3466
▁өрсөл	-3467
▁залуучууд	-3468
▁бөө	-3469
▁[...]	-3470
▁цагаа	-3471
▁Герман	-3472
▁хөөрхөн	-3473
изм	-3474
▁нууд	-3475
▁Чиний	-3476
▁очоод	-3477
▁вакцин	-3478
▁ингээд	-3479
▁орчинд	-3480
▁хүүхэдтэй	-3481
▁юуг	-3482
▁асуудалд	-3483
▁70	-3484
▁сек	-3485
▁цац	-3486
▁сөрөг	-3487
▁нийтэд	-3488
▁сэргийлэх	-3489
то	-3490
орн	-3491
үүж	-3492
▁Афр	-3493
▁түг	-3494
▁хамаа	-3495
▁Сайхан	-3496
▁иргэдэд	-3497
▁тэгш	-3498
▁болчихсон	-3499
▁хоорондоо	-3500
▁уух	-3501
▁шуу	-3502
▁саар	-3503
▁Японы	-3504
▁2010	-3505
▁гэрт	-3506
дээгүй	-3507
▁Засаг	-3508
өнгийн	-3509
▁Худал	-3510
▁хоолны	-3511
▁аваарай	-3512
ia	-3513
ка	-3514
▁хоц	-3515
▁хуу	-3516
▁шан	-3517
▁Сэтг	-3518
ec	-3519
▁Пр	-3520
▁цох	-3521
гэдэг	-3522
гаагүй	-3523
дэггүй	-3524
▁дандаа	-3525
▁хугацааг	-3526
эндүү	-3527
▁үлгэр	-3528
▁Цагдаа	-3529
▁хэрэгжүүлж	-3530
▁Цах	-3531
▁гэс	-3532
▁барилга	-3533
▁мэргэжилт	-3534
тэд	-3535
▁нээх	-3536
▁усны	-3537
▁ширх	-3538
▁явуул	-3539
▁аюултай	-3540
▁түрүүнд	-3541
▁өдрүүдэд	-3542
ээхэн	-3543
▁хүнсний	-3544
▁Есүс	-3545
▁Австрал	-3546
саг	-3547
▁Дараах	-3548
▁хороол	-3549
▁заримдаа	-3550
▁мэргэжил	-3551
▁байгуулагдсан	-3552
лагдаж	-3553
▁мянга	-3554
▁хувиар	-3555
▁зүйлийн	-3556
▁хүүхдэд	-3557
▁ойлгомжтой	-3558
▁ажиллагаанд	-3559
▁очсон	-3560
▁бүрэлд	-3561
▁иймэрхүү	-3562
▁нэгдүгээр	-3563
▁Те	-3564
▁кл	-3565
▁барив	-3566
▁сэтгэгдэл	-3567
члалын	-3568
▁заасан	-3569
▁манайд	-3570
▁эхэлнэ	-3571
▁найзууд	-3572
▁тэргүүн	-3573
▁ойлгодог	-3574
▁харагдах	-3575
▁байгалийн	-3576
▁k	-3577
▁алт	-3578
▁кам	-3579
▁зааж	-3580
▁төсөө	-3581
▁эрхийн	-3582
▁уст	-3583
▁үүл	-3584
бөмбөг	-3585
▁иргэний	-3586
▁холбооны	-3587
ап	-3588
иан	-3589
орм	-3590
▁тухайд	-3591
▁орондоо	-3592
▁үзээгүй	-3593
▁санагдаж	-3594
▁үйлдвэрийн	-3595
▁Түр	-3596
▁уна	-3597
▁....	-3598
▁авлаа	-3599
▁уулзаж	-3600
▁уралдаа	-3601
▁өдрийг	-3602
▁хүрээ	-3603
▁суурил	-3604
▁дамжуулан	-3605
▁нэх	-3606
▁машины	-3607
нет	-3608
▁дарам	-3609
▁хэтэрхий	-3610
▁Ардчилсан	-3611
Миний	-3612
▁байгаль	-3613
▁нд	-3614
▁сэтгэлийн	-3615
▁уулзах	-3616
▁амьдралыг	-3617
▁Пар	-3618
▁ханш	-3619
▁ядаж	-3620
▁дэлгэц	-3621
▁гадаадын	-3622
▁доош	-3623
▁цагаар	-3624
ЭЛ	-3625
ва	-3626
имс	-3627
▁захи	-3628
▁Одоогийн	-3629
снаас	-3630
▁бусдын	-3631
▁зовлон	-3632
▁Сургуул	-3633
▁танилцуул	-3634
▁цөө	-3635
▁спорт	-3636
▁зарчим	-3637
▁эргээд	-3638
▁шийдсэн	-3639
ter	-3640
тулга	-3641
Чи	-3642
алж	-3643
▁Шил	-3644
▁саад	-3645
▁асууж	-3646
▁үүнээс	-3647
▁боловсрол	-3648
дсон	-3649
▁бутлуурын	-3650
ОН	-3651
уууу	-3652
▁апп	-3653
▁Хойд	-3654
▁байцаа	-3655
▁парлам	-3656
▁Ялангуяа	-3657
▁удирдлаг	-3658
▁Харамсалтай	-3659
бэг	-3660
▁Хөгж	-3661
▁амын	-3662
▁Эдийн	-3663
▁ихээр	-3664
▁эерэг	-3665
▁үзүүлж	-3666
▁гүйцэтгэх	-3667
▁шуур	-3668
▁сонсож	-3669
▁чуулган	-3670
▁мөнгөний	-3671
▁тогтолцоо	-3672
▁судалгааны	-3673
▁хоёрдугаар	-3674
▁үйлдвэрлэл	-3675
▁үйлчилгээг	-3676
ааз	-3677
▁цогц	-3678
▁алдах	-3679
▁өссөн	-3680
im	-3681
ОЛ	-3682
▁өнц	-3683
▁судлаа	-3684
▁үүссэн	-3685
▁сонгосон	-3686
галаа	-3687
▁Өнөө	-3688
▁агуул	-3689
▁төслийг	-3690
▁брэнд	-3691
▁хяналтын	-3692
гуу	-3693
▁үй	-3694
ийгээ	-3695
▁аасаа	-3696
▁ёсгүй	-3697
▁жолооч	-3698
▁тэмцээнд	-3699
▁шуг	-3700
▁утасны	-3701
▁итгэдэг	-3702
▁зайлшгүй	-3703
хаг	-3704
▁Ая	-3705
▁олны	-3706
▁төрд	-3707
▁шд	-3708
▁Эхн	-3709
▁оюун	-3710
▁бүтээгдэхүүний	-3711
▁байт	-3712
▁зөөл	-3713
▁ариутг	-3714
▁болгоо	-3715
▁цуврал	-3716
▁сонирхол	-3717
▁өөрсдийгөө	-3718
жилж	-3719
эгдэж	-3720
▁секс	-3721
▁зээлд	-3722
▁хувир	-3723
▁авахгүй	-3724
ig	-3725
иф	-3726
▁юмыг	-3727
▁цагийг	-3728
▁Нийслэлийн	-3729
огчид	-3730
уухан	-3731
үрэлсүх	-3732
игийн	-3733
▁Түүнд	-3734
▁удаад	-3735
▁ууж	-3736
анх	-3737
лав	-3738
▁35	-3739
▁10-	-3740
▁зол	-3741
▁код	-3742
▁үсэг	-3743
ооноос	-3744
▁тооны	-3745
▁үндэслэл	-3746
лэм	-3747
▁5.	-3748
▁айж	-3749
алгүй	-3750
▁Иймд	-3751
▁Ирэх	-3752
далгүй	-3753
▁уриал	-3754
▁өнөөгийн	-3755
элгүй	-3756
▁Танай	-3757
▁Мэргэж	-3758
иб	-3759
▁гэнэт	-3760
▁банкны	-3761
▁хэлээр	-3762
▁хэсгийг	-3763
▁гайхамшиг	-3764
▁эмнэлгийн	-3765
▁Өнөөдрийн	-3766
▁Найз	-3767
▁шатны	-3768
▁таамаг	-3769
▁бодлогын	-3770
▁харагддаг	-3771
гил	-3772
▁нэн	-3773
▁шөн	-3774
▁байрны	-3775
▁технологийн	-3776
▁News	-3777
▁Бага	-3778
▁Багш	-3779
▁баян	-3780
▁өөрт	-3781
▁зууны	-3782
▁төмөр	-3783
▁зөндөө	-3784
▁наадам	-3785
▁тогтмол	-3786
▁вал	-3787
▁эрч	-3788
▁дууг	-3789
▁итгэх	-3790
▁киноны	-3791
▁хуульд	-3792
▁туршлага	-3793
ишээл	-3794
▁хэхэ	-3795
▁үгүйс	-3796
▁нийгэмд	-3797
▁баталгааж	-3798
▁In	-3799
▁500	-3800
огдож	-3801
▁ихтэй	-3802
▁сүүлд	-3803
лагдах	-3804
▁тушаа	-3805
▁барсан	-3806
▁урсгал	-3807
▁саналаа	-3808
▁хийхийг	-3809
▁хөгжилтэй	-3810
▁<	-3811
:00	-3812
▁Нэр	-3813
өлтийн	-3814
▁оюутан	-3815
лэ	-3816
▁Ст	-3817
▁зод	-3818
▁орш	-3819
▁хийлээ	-3820
▁дүүргийн	-3821
▁жүжигчин	-3822
▁хадгалах	-3823
▁Тал	-3824
▁вий	-3825
▁болдоггүй	-3826
▁Ис	-3827
гэсэн	-3828
▁хорооны	-3829
art	-3830
АХН	-3831
▁жив	-3832
▁сэл	-3833
▁даруй	-3834
▁байхын	-3835
▁дэндүү	-3836
▁29	-3837
атор	-3838
▁танхим	-3839
▁хажууд	-3840
▁цагаас	-3841
▁маргаан	-3842
▁туршлагатай	-3843
сайхан	-3844
▁байгуулалт	-3845
gle	-3846
өгс	-3847
▁Дөр	-3848
▁гор	-3849
▁төвл	-3850
ест	-3851
▁гун	-3852
▁түлх	-3853
▁ургам	-3854
▁зүйлсийг	-3855
▁Ул	-3856
лаар	-3857
мийг	-3858
▁болоо	-3859
▁урлаг	-3860
▁шашин	-3861
▁шугам	-3862
▁баярын	-3863
▁ажилдаа	-3864
▁ихээхэн	-3865
▁бүтээсэн	-3866
ve	-3867
цхан	-3868
Манай	-3869
▁зарч	-3870
▁страте	-3871
▁хүнээс	-3872
▁байлгах	-3873
▁нэмэгдүүлэх	-3874
тах	-3875
▁Бэл	-3876
▁алдаж	-3877
▁байнгын	-3878
▁харилцан	-3879
бүү	-3880
вөл	-3881
▁Тай	-3882
▁шид	-3883
▁Эцэг	-3884
лэгийн	-3885
▁нисэх	-3886
▁гомдол	-3887
▁чөлөөтэй	-3888
▁холбогдсон	-3889
▁Өнд	-3890
ингис	-3891
▁Таныг	-3892
Энхбаяр	-3893
▁дөнгөж	-3894
▁надтай	-3895
▁найман	-3896
▁мэддэггүй	-3897
яг	-3898
галан	-3899
▁галз	-3900
▁хорв	-3901
▁өгөөч	-3902
▁залбир	-3903
мс	-3904
овч	-3905
▁гадуур	-3906
эгдүгээр	-3907
▁болохоос	-3908
▁урамшуул	-3909
▁ялангуяа	-3910
▁Хэдийгээр	-3911
▁өнөөдрийн	-3912
єє	-3913
▁Z	-3914
▁айд	-3915
▁утг	-3916
oogle	-3917
▁Улсад	-3918
▁нэмэр	-3919
▁өргөж	-3920
▁бахарх	-3921
▁харамс	-3922
▁ширхэг	-3923
▁байрлал	-3924
лэлт	-3925
▁шаш	-3926
▁санд	-3927
▁барилгын	-3928
▁эмэгтэйчүүдийн	-3929
▁зуг	-3930
▁Хэдэн	-3931
▁нэгтг	-3932
▁бүгдээрээ	-3933
▁Зор	-3934
▁МАХН	-3935
▁дэвс	-3936
▁нүүд	-3937
▁явцад	-3938
▁хэлэлцэх	-3939
▁ажилтнууд	-3940
▁виз	-3941
▁Хөдөл	-3942
▁хажуу	-3943
▁Сэтгэл	-3944
▁даалга	-3945
▁хамтлаг	-3946
▁өчигдөр	-3947
▁+	-3948
овь	-3949
офе	-3950
▁Яр	-3951
▁кар	-3952
▁гуай	-3953
▁зөрч	-3954
▁хүлээх	-3955
▁Хоол	-3956
▁Эхнэр	-3957
▁байгууллагад	-3958
▁St	-3959
ганы	-3960
▁Сал	-3961
▁Герм	-3962
▁Эзэн	-3963
▁сэдв	-3964
▁эмээ	-3965
▁эрүү	-3966
▁үзээд	-3967
▁насанд	-3968
▁идэвхтэй	-3969
▁байгууллагууд	-3970
эш	-3971
стой	-3972
▁Мэдээл	-3973
▁болтол	-3974
▁эндээс	-3975
ir	-3976
игт	-3977
▁Бүс	-3978
▁Канад	-3979
▁ийнхүү	-3980
▁өөрчил	-3981
▁Үнэндээ	-3982
▁ашиглалт	-3983
▁яаралтай	-3984
▁зорилготой	-3985
▁]	-3986
дөөн	-3987
▁карт	-3988
▁өгөөд	-3989
▁долоон	-3990
▁барьсан	-3991
▁бичгийн	-3992
▁Өөрийгөө	-3993
▁дад	-3994
▁Шүүх	-3995
▁дутуу	-3996
▁автобус	-3997
▁Од	-3998
▁Хий	-3999
▁мундаг	-4000
уулалтын	-4001
▁мэдэгдсэн	-4002
ото	-4003
▁Үнэ	-4004
▁Мөнгө	-4005
▁үлдэх	-4006
▁тогтоосон	-4007
би	-4008
ингийн	-4009
▁авахыг	-4010
▁хүсвэл	-4011
▁харуулах	-4012
▁хүүхдийг	-4013
▁Айм	-4014
▁лам	-4015
▁хайх	-4016
▁медал	-4017
▁хэдхэн	-4018
▁гаргаад	-4019
▁хүрэхгүй	-4020
▁бүсгүйчүүд	-4021
шаа	-4022
▁өсг	-4023
one	-4024
раил	-4025
ралт	-4026
▁удирдах	-4027
▁гарахгүй	-4028
ap	-4029
жих	-4030
знес	-4031
▁хэлнэ	-4032
▁Бизнес	-4033
▁өнгөрөө	-4034
▁хэлбэрээр	-4035
үл	-4036
▁Хэв	-4037
тайгаар	-4038
▁авахад	-4039
▁=	-4040
▁яриг	-4041
▁хаалга	-4042
▁жилүүдэд	-4043
цийн	-4044
▁түл	-4045
▁цуц	-4046
улуун	-4047
▁засах	-4048
▁үүний	-4049
▁төслийн	-4050
▁хэлэлцээр	-4051
ck	-4052
dow	-4053
▁гарц	-4054
▁өвөр	-4055
▁Тэдгээр	-4056
▁ухаалаг	-4057
▁зөө	-4058
▁маск	-4059
▁нойр	-4060
▁Ад	-4061
▁уя	-4062
▁цаас	-4063
▁үзвэл	-4064
▁бодлоор	-4065
▁суралцах	-4066
отг	-4067
▁er	-4068
▁шор	-4069
▁дуур	-4070
▁Үгүй	-4071
▁харуул	-4072
▁ялгаатай	-4073
ost	-4074
▁197	-4075
▁Там	-4076
▁төрх	-4077
▁буцаж	-4078
▁урагш	-4079
▁дэглэм	-4080
▁боловсролын	-4081
▁Цэр	-4082
▁харуулж	-4083
▁7-	-4084
бэгд	-4085
▁Гал	-4086
элийн	-4087
▁Газар	-4088
▁тамхи	-4089
бэгдорж	-4090
▁улиралд	-4091
овш	-4092
▁45	-4093
▁АТГ	-4094
▁Жин	-4095
▁нэмэх	-4096
▁хэсгийн	-4097
▁эмнэлэг	-4098
▁магадлалтай	-4099
▁Бор	-4100
▁түмн	-4101
▁гарлаа	-4102
авдугаар	-4103
ишээлбэл	-4104
▁таалагд	-4105
▁эмнэлэгт	-4106
▁хамгаалалт	-4107
▁vv	-4108
мсэг	-4109
▁инг	-4110
▁манайх	-4111
▁хоосон	-4112
Ал	-4113
гис	-4114
олж	-4115
▁цөм	-4116
ангийн	-4117
ерт	-4118
лдөг	-4119
▁Дээрх	-4120
▁Иймээс	-4121
▁болоход	-4122
▁дээрээс	-4123
▁сургалтын	-4124
▁хөлбөмбөг	-4125
▁й	-4126
дэв	-4127
сал	-4128
▁1000	-4129
▁Хувь	-4130
▁юунд	-4131
▁хангамж	-4132
▁хугацаагаар	-4133
ut	-4134
АГ	-4135
▁6-	-4136
▁лаг	-4137
▁тух	-4138
▁дурдсан	-4139
▁иргэдийг	-4140
▁хүчирхий	-4141
ЭР	-4142
бан	-4143
▁Ай	-4144
▁Гр	-4145
▁Хөл	-4146
▁бүхэл	-4147
▁америк	-4148
▁олгодог	-4149
▁санхүүжилт	-4150
▁зугаа	-4151
▁саяхан	-4152
▁хүйтэн	-4153
оён	-4154
лаас	-4155
▁Энх	-4156
▁ганцаар	-4157
▁ашигласан	-4158
▁наас	-4159
▁Интер	-4160
▁угаах	-4161
▁шигээ	-4162
▁нийслэл	-4163
▁Заримдаа	-4164
▁Өөрөө	-4165
▁шоронд	-4166
▁ойлгосон	-4167
▁бууруулах	-4168
шр	-4169
▁Дал	-4170
▁Хэзээ	-4171
▁Санхүү	-4172
▁196	-4173
▁..."	-4174
▁төрж	-4175
▁онцлов	-4176
▁байсангүй	-4177
▁хэрэглэгч	-4178
▁хүмүүстэй	-4179
▁шийдвэрийг	-4180
▁тодорхойлох	-4181
▁~	-4182
гуур	-4183
мент	-4184
▁дог	-4185
▁цол	-4186
▁цэнэ	-4187
▁Компан	-4188
▁нийлүүл	-4189
▁утгаараа	-4190
енз	-4191
▁ноц	-4192
▁Урьд	-4193
огчдын	-4194
▁сайхны	-4195
▁ээлжит	-4196
▁орнуудын	-4197
▁хэвээрээ	-4198
▁зориулалт	-4199
ого	-4200
эйс	-4201
үйц	-4202
өтг	-4203
▁Тайл	-4204
▁хүнс	-4205
▁нэгийг	-4206
▁техник	-4207
▁тээвэр	-4208
▁сангийн	-4209
▁байтугай	-4210
▁хүсэхгүй	-4211
адаа	-4212
▁гав	-4213
ebook	-4214
өлдөр	-4215
▁дүрс	-4216
▁уруу	-4217
▁хааны	-4218
АС	-4219
▁буд	-4220
▁байрш	-4221
▁зогсоох	-4222
▁өөрчилж	-4223
▁хандлага	-4224
▁байдалтай	-4225
тар	-4226
▁жиг	-4227
▁Зүүн	-4228
▁Турк	-4229
лэгчид	-4230
▁авалт	-4231
▁айлын	-4232
em	-4233
▁Кар	-4234
▁шоу	-4235
гуулах	-4236
▁цорын	-4237
▁Израил	-4238
▁дэвсгэр	-4239
▁загварын	-4240
▁төлөвлөж	-4241
▁анхаарлаа	-4242
ul	-4243
▁Итал	-4244
▁хойд	-4245
▁эмчл	-4246
▁Азийн	-4247
▁Хотын	-4248
▁дутаг	-4249
▁жирэм	-4250
▁хангаж	-4251
▁Зураг	-4252
▁Заг	-4253
▁босг	-4254
▁далд	-4255
чихаад	-4256
▁юмсан	-4257
acebook	-4258
▁аймагт	-4259
▁таатай	-4260
▁тохиол	-4261
▁төгсгөл	-4262
ез	-4263
илж	-4264
лалын	-4265
▁доод	-4266
▁дайны	-4267
▁баатар	-4268
▁тэйгээ	-4269
▁хардаг	-4270
▁хичнээн	-4271
▁хүндэтг	-4272
члан	-4273
▁нил	-4274
▁хэлт	-4275
гээрээ	-4276
▁чөлөөт	-4277
▁ертөнцөд	-4278
ьт	-4279
▁шим	-4280
▁2000	-4281
▁Иргэн	-4282
▁унтаж	-4283
▁хэлжээ	-4284
▁гаргана	-4285
▁мэдэгдэл	-4286
▁Нас	-4287
▁таг	-4288
▁ангид	-4289
▁ачаал	-4290
Энхболд	-4291
▁Мөр	-4292
▁сүн	-4293
▁тэв	-4294
▁төвд	-4295
жүүлэх	-4296
▁Google	-4297
▁төстэй	-4298
▁хөрөнг	-4299
▁анхаарч	-4300
▁цэвэрлэх	-4301
▁Солонгосын	-4302
▁МУ	-4303
үүхэн	-4304
хондоо	-4305
▁бүлгийн	-4306
▁хамтарч	-4307
лөн	-4308
▁Ня	-4309
▁тайв	-4310
▁үзэн	-4311
авирус	-4312
▁ойрын	-4313
▁сонгож	-4314
▁тооцоол	-4315
оронавирус	-4316
▁харамсалтай	-4317
os	-4318
▁клуб	-4319
▁тэрэг	-4320
▁үнийн	-4321
▁батлах	-4322
▁төдийг	-4323
▁чадвал	-4324
▁хоорондын	-4325
лэв	-4326
▁st	-4327
▁Онц	-4328
▁өөс	-4329
үүдээ	-4330
▁тоог	-4331
▁Гурван	-4332
▁багтаа	-4333
▁баялаг	-4334
▁ойрхон	-4335
▁үүсвэр	-4336
даан	-4337
▁мөч	-4338
▁хөрш	-4339
▁бүжиг	-4340
▁хойно	-4341
▁өнөөд	-4342
▁Чингис	-4343
▁руугаа	-4344
▁үүднээс	-4345
▁хүсэлтэй	-4346
▁гишүүдийн	-4347
▁to	-4348
▁Тат	-4349
▁каз	-4350
▁мэс	-4351
амсар	-4352
▁Энхб	-4353
▁Тэгсэн	-4354
▁хүлээл	-4355
▁эрхгүй	-4356
▁хийгээгүй	-4357
ЫН	-4358
бүүк	-4359
▁Ийн	-4360
▁Хүс	-4361
▁айх	-4362
иулах	-4363
▁аргыг	-4364
▁туршид	-4365
▁түүнтэй	-4366
лож	-4367
▁Хич	-4368
емент	-4369
эгдэх	-4370
▁үеэс	-4371
▁ахмад	-4372
▁тооцоо	-4373
▁гаралтай	-4374
▁нэмэгдэж	-4375
моор	-4376
▁ногоон	-4377
▁Өдрийн	-4378
▁бэлгийн	-4379
ri	-4380
ЭМ	-4381
ейн	-4382
нэт	-4383
▁Жон	-4384
▁нөхөн	-4385
▁Үйлдвэр	-4386
лт	-4387
дэн	-4388
дөж	-4389
▁дохи	-4390
агдана	-4391
▁иржээ	-4392
▁бүрийг	-4393
▁бүтээх	-4394
▁мэдэрч	-4395
▁түүхэн	-4396
▁үйлдвэрлэлийн	-4397
▁Re	-4398
▁арьс	-4399
▁гарт	-4400
▁Маргааш	-4401
▁өөрийнх	-4402
▁ариутгагч	-4403
▁тодорхойгүй	-4404
▁энх	-4405
снаар	-4406
▁тусам	-4407
▁ардчил	-4408
▁дуучин	-4409
▁судалж	-4410
▁сонирхож	-4411
▁300	-4412
▁авто	-4413
▁магт	-4414
▁олимп	-4415
▁чанарыг	-4416
▁тоглоомын	-4417
▁Үх	-4418
▁???	-4419
▁Биб	-4420
лосон	-4421
гаарай	-4422
▁төвлөр	-4423
▁хүртэлх	-4424
0-	-4425
▁Сир	-4426
▁Шал	-4427
▁гээч	-4428
▁хаяж	-4429
▁хөнг	-4430
▁болго	-4431
▁харьцаа	-4432
чны	-4433
олтын	-4434
▁болгоно	-4435
ИЛ	-4436
СУ	-4437
▁галт	-4438
▁ухаар	-4439
▁нэгний	-4440
▁нийтлэг	-4441
th	-4442
ИЙН	-4443
инэ	-4444
агаа	-4445
▁гам	-4446
▁авлиг	-4447
▁танил	-4448
▁гарчээ	-4449
▁төсөөл	-4450
▁дурсамж	-4451
▁амралтын	-4452
▁болтугай	-4453
▁хүрээлэн	-4454
▁явуулсан	-4455
▁илэрхийлж	-4456
▁да	-4457
сайт	-4458
▁бэх	-4459
▁даж	-4460
▁сараас	-4461
▁дам	-4462
▁олгоно	-4463
▁хувьсгал	-4464
▁проц	-4465
▁үнэт	-4466
лөгчид	-4467
▁цаана	-4468
▁буудал	-4469
▁газраа	-4470
▁төдийгүй	-4471
орт	-4472
ьсон	-4473
▁Чух	-4474
▁станц	-4475
▁тогтн	-4476
▁аймшиг	-4477
▁хөдлөх	-4478
▁биелүүлэх	-4479
▁Хат	-4480
▁биен	-4481
▁амралт	-4482
▁дарамт	-4483
▁сурсан	-4484
▁бодолтой	-4485
▁аял	-4486
▁новш	-4487
▁усан	-4488
наасаа	-4489
▁Чухлыг	-4490
▁мөнгөөр	-4491
▁үнэнийг	-4492
▁өлс	-4493
чдийг	-4494
▁хайл	-4495
▁аймаг	-4496
▁ариун	-4497
ӨР	-4498
эйл	-4499
гана	-4500
мдорж	-4501
▁2021	-4502
▁ирэв	-4503
▁чууд	-4504
▁хорио	-4505
▁талтай	-4506
ome	-4507
▁гэн	-4508
▁дөх	-4509
▁луй	-4510
▁чид	-4511
▁багц	-4512
▁орчны	-4513
▁хөгжиж	-4514
▁шийдэж	-4515
▁захирал	-4516
▁бэрхшээлтэй	-4517
енд	-4518
▁Хамт	-4519
▁нягт	-4520
▁сайжр	-4521
▁хүрээд	-4522
▁түүхийг	-4523
▁гараагүй	-4524
▁инээмсэг	-4525
▁нунтаглах	-4526
▁хөрөнгийн	-4527
етр	-4528
▁жээ	-4529
▁судл	-4530
▁муутай	-4531
▁нэрээр	-4532
онт	-4533
▁шүт	-4534
ерийн	-4535
снийг	-4536
▁дуусах	-4537
▁шийдэл	-4538
рамп	-4539
▁Хав	-4540
▁үнэнч	-4541
▁Өндөр	-4542
▁спортын	-4543
▁суулгах	-4544
Тэг	-4545
▁8-	-4546
▁зун	-4547
▁хорих	-4548
▁хуримт	-4549
ИС	-4550
ШТ	-4551
▁Дан	-4552
▁Аливаа	-4553
▁Эхлээд	-4554
▁хүүхэн	-4555
▁хуулиар	-4556
▁нэрлэдэг	-4557
▁31	-4558
▁ээсээ	-4559
▁дэлгэр	-4560
▁эхчүүд	-4561
▁хэлмээр	-4562
ИН	-4563
лом	-4564
штай	-4565
▁Мос	-4566
▁шув	-4567
▁Дорн	-4568
▁кофе	-4569
▁устгах	-4570
ҮҮ	-4571
▁файл	-4572
▁бүтэц	-4573
▁нөлөөлөх	-4574
ект	-4575
▁Ут	-4576
▁диз	-4577
▁амьт	-4578
▁халд	-4579
▁хатан	-4580
▁зогсож	-4581
▁соёлын	-4582
▁тусдаа	-4583
▁хангал	-4584
▁194	-4585
▁цонх	-4586
▁хураа	-4587
▁бүтээн	-4588
▁дундаж	-4589
▁туршилт	-4590
▁хийхээр	-4591
▁шүүхийн	-4592
анхуй	-4593
▁Болов	-4594
▁илүүд	-4595
▁буцааж	-4596
ло	-4597
ишиг	-4598
▁You	-4599
▁хуралд	-4600
▁төгссөн	-4601
▁ОУ	-4602
▁уйл	-4603
▁гэгч	-4604
▁жирийн	-4605
▁хэлэхдээ	-4606
▁ойлгохгүй	-4607
▁найдвартай	-4608
▁өч	-4609
▁арь	-4610
▁араас	-4611
▁хаалт	-4612
▁ээрээ	-4613
▁өгчих	-4614
▁гарагт	-4615
▁зөвлөх	-4616
▁ноцтой	-4617
ne	-4618
um	-4619
▁БНСУ	-4620
▁зочид	-4621
▁хүчээр	-4622
▁болгоомж	-4623
вөр	-4624
ээч	-4625
иплом	-4626
▁гээр	-4627
▁татан	-4628
▁тулгар	-4629
▁баталсан	-4630
исс	-4631
ьяас	-4632
эгчид	-4633
▁дарх	-4634
▁согт	-4635
▁хэмн	-4636
▁явчих	-4637
▁үгээр	-4638
▁ирэхэд	-4639
▁тавьдаг	-4640
▁Нийгмийн	-4641
▁бүрэлдэх	-4642
▁орнуудад	-4643
▁Жишээлбэл	-4644
▁Цагдаагийн	-4645
атр	-4646
▁-0	-4647
▁сун	-4648
▁Хаан	-4649
▁бөөн	-4650
▁ядуу	-4651
▁бухим	-4652
▁харгал	-4653
▁зөвлөмж	-4654
▁төгөлдөр	-4655
▁App	-4656
▁ккк	-4657
▁Охин	-4658
▁бууж	-4659
▁гүйл	-4660
▁төрөх	-4661
▁цэрэг	-4662
▁чихсан	-4663
лсөн	-4664
▁ing	-4665
чнээн	-4666
▁Амар	-4667
▁чухам	-4668
▁байтал	-4669
▁тэжээл	-4670
▁ирээдүйд	-4671
▁асуудлууд	-4672
▁сэтгэлийг	-4673
"-	-4674
▁юун	-4675
▁данс	-4676
▁Эцэст	-4677
▁талыг	-4678
▁өмгөө	-4679
▁цөөхөн	-4680
▁суугаад	-4681
өц	-4682
гас	-4683
▁гаж	-4684
▁боол	-4685
▁номыг	-4686
▁санааг	-4687
▁хоёулаа	-4688
▁шалгуур	-4689
▁урлагийн	-4690
▁хэрэглэгчид	-4691
!!!	-4692
ore	-4693
дыг	-4694
эйн	-4695
үйн	-4696
▁II	-4697
итал	-4698
женер	-4699
▁заяа	-4700
агнуул	-4701
элтийн	-4702
▁камер	-4703
▁тасал	-4704
ологийн	-4705
▁бичээд	-4706
▁тулгуур	-4707
▁үргэлжлүүлэн	-4708
1.	-4709
30	-4710
▁Банк	-4711
▁айдас	-4712
▁хашаа	-4713
▁Тэднийг	-4714
▁түгээмэл	-4715
▁ухаантай	-4716
лгын	-4717
▁түн	-4718
снээс	-4719
▁мууд	-4720
▁Ардын	-4721
▁далай	-4722
▁орчих	-4723
▁жилдээ	-4724
xt	-4725
илл	-4726
▁үүн	-4727
▁эхлэл	-4728
▁үүдийг	-4729
▁мөрөөдөл	-4730
▁бүтээгдэхүүнийг	-4731
цаг	-4732
▁(2	-4733
▁9-	-4734
▁ДА	-4735
▁цоо	-4736
ынхаа	-4737
өөгүй	-4738
▁.....	-4739
▁киног	-4740
▁солих	-4741
▁бяцхан	-4742
▁тэгвэл	-4743
▁илэрхийлэх	-4744
op	-4745
еф	-4746
дар	-4747
▁жор	-4748
андан	-4749
▁Зохи	-4750
▁булан	-4751
▁уншсан	-4752
▁хэлэлцэж	-4753
ee	-4754
ваа	-4755
▁Хүнд	-4756
▁Албан	-4757
▁буцах	-4758
▁хэлье	-4759
▁явлаа	-4760
▁таарна	-4761
▁ярилцаж	-4762
▁монголын	-4763
▁шаардлагыг	-4764
амч	-4765
▁дом	-4766
уурын	-4767
▁аврах	-4768
▁уудад	-4769
▁хурим	-4770
▁кинонд	-4771
▁шийдэг	-4772
▁удаагаа	-4773
ҮЙ	-4774
▁20-	-4775
▁Мэдээ	-4776
▁хэний	-4777
▁Ийнхүү	-4778
▁дэвшиг	-4779
▁зөөлөн	-4780
▁бидэнтэй	-4781
▁татварын	-4782
▁харьцуулахад	-4783
ийв	-4784
▁ак	-4785
▁Ашиг	-4786
▁морь	-4787
▁өөрөөр	-4788
▁санагдсан	-4789
▁үргэлжилж	-4790
▁ь	-4791
лай	-4792
▁re	-4793
болд	-4794
▁сонгон	-4795
▁суугаа	-4796
▁хоёрыг	-4797
▁утгатай	-4798
▁хохирол	-4799
▁хийгдсэн	-4800
▁хичээлийн	-4801
▁Хө	-4802
▁ЭЗ	-4803
дааны	-4804
▁Төгс	-4805
▁гээс	-4806
▁зэвс	-4807
▁үзье	-4808
▁дуулж	-4809
▁зөвлөж	-4810
▁сууцны	-4811
▁онгоцны	-4812
▁тэмдэглэл	-4813
▁ич	-4814
▁өмч	-4815
▁Ирээд	-4816
▁бусдыг	-4817
▁Боловср	-4818
▁Дэлгэрэнгүй	-4819
илан	-4820
▁биед	-4821
▁бороо	-4822
▁эхээр	-4823
▁гайгүй	-4824
▁улсууд	-4825
▁төгрөгийн	-4826
▁холбогдолтой	-4827
ack	-4828
▁-1	-4829
▁гя	-4830
▁хэмжээтэй	-4831
▁Өөрийнхөө	-4832
итр	-4833
оль	-4834
▁Гай	-4835
▁үгс	-4836
▁эцэс	-4837
▁гадаа	-4838
▁тавиг	-4839
▁усанд	-4840
▁хандив	-4841
▁сонсоод	-4842
▁гуравдугаар	-4843
ube	-4844
зэг	-4845
▁6.	-4846
чээр	-4847
▁Хэт	-4848
▁үхэх	-4849
▁чанга	-4850
▁зургаа	-4851
▁наадмын	-4852
▁сонгодог	-4853
▁оруулалтын	-4854
od	-4855
▁кг	-4856
илаа	-4857
▁дотно	-4858
эйсбүүк	-4859
▁тавиад	-4860
▁тустай	-4861
▁эртний	-4862
▁байршил	-4863
▁хамгаалж	-4864
▁тайлбарлаж	-4865
▁ажиллагаагаа	-4866
▁36	-4867
шний	-4868
▁бит	-4869
▁Дээд	-4870
▁давж	-4871
▁даасан	-4872
▁хулгайч	-4873
▁үзэгдэл	-4874
▁үүрэгтэй	-4875
▁сурталчилгаа	-4876
▁!!	-4877
чилсэн	-4878
▁Орчин	-4879
▁нислэг	-4880
▁газрууд	-4881
▁хэрэглэгчийн	-4882
lo	-4883
иун	-4884
▁Ch	-4885
▁иж	-4886
▁Дур	-4887
▁хаашаа	-4888
▁интернет	-4889
упп	-4890
▁Шв	-4891
нөөс	-4892
▁инээд	-4893
▁баригчид	-4894
▁долларын	-4895
▁амьдралдаа	-4896
ЭЭ	-4897
▁j	-4898
шир	-4899
▁Уу	-4900
▁Яах	-4901
▁даан	-4902
▁метр	-4903
▁нээл	-4904
▁Анхны	-4905
▁гадны	-4906
▁Бидэнд	-4907
▁Бүсгүй	-4908
▁галзуу	-4909
▁далайн	-4910
▁сэргээх	-4911
▁сүүлчийн	-4912
▁батлагдсан	-4913
ТХ	-4914
hone	-4915
соор	-4916
▁бүд	-4917
▁хорт	-4918
▁Трамп	-4919
▁судлах	-4920
Баттулга	-4921
▁эхэлдэг	-4922
▁Facebook	-4923
▁Британийн	-4924
▁Нэгдүгээр	-4925
▁нэмэгдсэн	-4926
луулж	-4927
▁замд	-4928
▁өвөл	-4929
▁агент	-4930
▁орших	-4931
▁халдв	-4932
▁ялалт	-4933
▁тоглогч	-4934
▁насандаа	-4935
▁төрөлхтөн	-4936
▁шүд	-4937
▁Тэгж	-4938
▁гаар	-4939
▁ойрт	-4940
▁цэгц	-4941
▁төвөг	-4942
ралтгүй	-4943
▁Чамайг	-4944
▁мэдрэх	-4945
▁суусан	-4946
▁аваагүй	-4947
▁автомат	-4948
▁оролцоо	-4949
▁Өчигдөр	-4950
▁Энэтхэгийн	-4951
▁харилцааны	-4952
▁фр	-4953
лээс	-4954
▁луу	-4955
▁найм	-4956
▁унаг	-4957
▁хори	-4958
▁санах	-4959
▁ийнхээ	-4960
▁үнэмлэх	-4961
▁нэвтрүүл	-4962
▁амьдралаа	-4963
▁ог	-4964
Баяр	-4965
▁нааш	-4966
▁аялах	-4967
▁дахиж	-4968
▁баярлаж	-4969
▁гишүүний	-4970
▁тэтгэвэр	-4971
▁хичээдэг	-4972
▁харьцангуй	-4973
Энх	-4974
▁тр	-4975
итой	-4976
▁Авт	-4977
▁Бал	-4978
▁Сүх	-4979
▁нээж	-4980
▁мөрөө	-4981
▁орноо	-4982
▁хараа	-4983
▁хүнээ	-4984
▁бариад	-4985
▁нөлөөлж	-4986
▁талбайд	-4987
▁эхлүүлэх	-4988
▁ярилцлага	-4989
гчид	-4990
өлөг	-4991
▁авр	-4992
оосоо	-4993
▁асан	-4994
▁зовж	-4995
▁тэвч	-4996
▁дийлэн	-4997
▁дэмждэг	-4998
▁хүчирхэг	-4999
акт	-5000
▁бгаа	-5001
▁өвөө	-5002
▁Сарын	-5003
▁луйвар	-5004
▁дуудлага	-5005
▁захиалга	-5006
▁үйлдвэрлэх	-5007
ra	-5008
өнх	-5009
▁09	-5010
▁An	-5011
▁баа	-5012
▁залх	-5013
▁нийл	-5014
▁Цаашид	-5015
▁улсаас	-5016
▁хайрлах	-5017
▁төлөөлөгч	-5018
дож	-5019
▁Чин	-5020
▁2007	-5021
▁эхийн	-5022
▁тодотг	-5023
▁утсаар	-5024
▁гадаадад	-5025
▁нөлөөлдөг	-5026
▁Сонгуулийн	-5027
▁ЭН	-5028
▁The	-5029
▁Найр	-5030
▁нөхд	-5031
▁гуниг	-5032
▁нээрээ	-5033
▁Эрэгтэй	-5034
▁хөөрхий	-5035
▁зохицуулалт	-5036
Ган	-5037
▁Дунд	-5038
▁ихэд	-5039
▁тодр	-5040
▁Африк	-5041
▁Судал	-5042
▁дулаан	-5043
▁мэтээр	-5044
▁ханддаг	-5045
▁хэчнээн	-5046
▁байдгийг	-5047
▁харуулсан	-5048
АМ	-5049
Тэр	-5050
хар	-5051
▁Ойр	-5052
▁Мөнх	-5053
▁байсаар	-5054
▁зэргийн	-5055
▁байдлаас	-5056
▁of	-5057
иудын	-5058
▁төлж	-5059
▁унаж	-5060
▁гутал	-5061
▁өртөг	-5062
▁засагт	-5063
▁нэгэнт	-5064
▁Үүнтэй	-5065
▁Германы	-5066
▁хүүгийн	-5067
гөлд	-5068
▁Хон	-5069
▁Илүү	-5070
▁зуны	-5071
▁маяг	-5072
▁улсыг	-5073
▁чадаж	-5074
▁Нийгэм	-5075
▁биздээ	-5076
▁агуулга	-5077
▁мэдээллээ	-5078
▁хангалуун	-5079
хад	-5080
ьер	-5081
ханд	-5082
▁доорх	-5083
▁гэрээг	-5084
▁оруулна	-5085
▁Хүүхдүүд	-5086
▁тохирсон	-5087
шн	-5088
шиж	-5089
▁ойл	-5090
▁айлд	-5091
▁мөнх	-5092
лалтын	-5093
▁амжил	-5094
▁зохих	-5095
▁солилц	-5096
▁талдаа	-5097
▁уншаад	-5098
▁хүрэлц	-5099
▁байгаан	-5100
▁зөрчсөн	-5101
пон	-5102
баат	-5103
▁тер	-5104
▁2006	-5105
▁урьж	-5106
▁Алтан	-5107
▁Машин	-5108
▁харна	-5109
▁Улмаар	-5110
▁Холбоо	-5111
▁шөнийн	-5112
▁Байгаль	-5113
▁процесс	-5114
▁санаанд	-5115
▁харагдана	-5116
джээ	-5117
▁Нью	-5118
▁Уур	-5119
▁нул	-5120
▁төм	-5121
имийн	-5122
▁төсв	-5123
▁өгье	-5124
▁хөнгөн	-5125
▁больсон	-5126
▁Хөдөлмөр	-5127
▁өөрчлөгдсөн	-5128
арм	-5129
аст	-5130
▁32	-5131
раад	-5132
▁төвийн	-5133
▁Байгуул	-5134
▁хайрлаж	-5135
▁ирээдүйн	-5136
еб	-5137
мэлз	-5138
▁хөлс	-5139
лэгдсэн	-5140
▁наймаа	-5141
▁нэрийн	-5142
▁секунд	-5143
▁шүүхэд	-5144
▁олдохгүй	-5145
▁автомашин	-5146
▁Хоёрдугаар	-5147
▁тасралтгүй	-5148
▁сэтгэлээсээ	-5149
ее	-5150
ong	-5151
▁195	-5152
▁гаас	-5153
▁явдл	-5154
▁даван	-5155
▁халамж	-5156
▁хиймэл	-5157
▁эрмэлз	-5158
▁эрхлэх	-5159
▁үүсгэх	-5160
▁арилгах	-5161
▁хөгжмийн	-5162
▁тэмдэглэж	-5163
▁Ук	-5164
▁Чу	-5165
▁стат	-5166
▁тойм	-5167
▁Жижиг	-5168
▁ундаа	-5169
▁Газрын	-5170
▁Сангийн	-5171
▁дундуур	-5172
▁зөвлөлийн	-5173
▁Кр	-5174
үрэв	-5175
өлгөө	-5176
▁Баян	-5177
▁Ядаж	-5178
эгддэг	-5179
▁арилж	-5180
▁өнцөг	-5181
▁багагүй	-5182
▁зургууд	-5183
▁хүүхдүүдэд	-5184
да	-5185
дөгч	-5186
▁Сэр	-5187
▁юуны	-5188
▁зайлс	-5189
▁олгож	-5190
▁дагаад	-5191
▁Удахгүй	-5192
▁эхэлжээ	-5193
▁Ингэхдээ	-5194
▁тоглосон	-5195
ce	-5196
дох	-5197
▁гүр	-5198
▁муз	-5199
▁түй	-5200
цаагүй	-5201
▁Саяхан	-5202
▁бодвол	-5203
▁өвчний	-5204
▁үзүүлсэн	-5205
▁Мэргэжлийн	-5206
▁асуудалтай	-5207
▁үйлчлүүлэг	-5208
єн	-5209
чит	-5210
Таны	-5211
ддаг	-5212
логч	-5213
▁Жир	-5214
▁хань	-5215
▁хэтр	-5216
▁билүү	-5217
▁дагав	-5218
▁дэмий	-5219
▁ихийг	-5220
▁унтах	-5221
▁чимэг	-5222
▁үнийг	-5223
▁түргэн	-5224
▁дэлхийг	-5225
▁сэтгэлд	-5226
▁шаардаг	-5227
▁дутагдал	-5228
▁Q	-5229
and	-5230
өнд	-5231
▁дов	-5232
▁унд	-5233
архал	-5234
▁авчээ	-5235
▁Тэнгэр	-5236
▁дуугар	-5237
▁завгүй	-5238
▁зэвсэг	-5239
▁сайтай	-5240
▁үзэхэд	-5241
▁өдрөөс	-5242
▁түүнийгээ	-5243
▁байгаагаар	-5244
▁захиргааны	-5245
▁хэрэглээний	-5246
авх	-5247
▁Оюун	-5248
▁ЭЗЭН	-5249
▁Өөрс	-5250
▁Хөдөө	-5251
луулсан	-5252
▁амлалт	-5253
▁медаль	-5254
▁байснаа	-5255
▁компанид	-5256
▁сэтгүүлч	-5257
▁Оюутолгой	-5258
▁даатгалын	-5259
УР	-5260
▁лан	-5261
оороо	-5262
▁дийн	-5263
▁хурц	-5264
▁шашны	-5265
▁Манайх	-5266
▁хэнийг	-5267
▁өдрүүд	-5268
▁багатай	-5269
▁менежер	-5270
▁асуудлын	-5271
▁тамирчин	-5272
▁системийн	-5273
▁үргэлжлэх	-5274
ver	-5275
шүүр	-5276
ээтэй	-5277
▁манд	-5278
огддог	-5279
▁бүтээлч	-5280
▁дархлаа	-5281
▁хүндрэл	-5282
▁шуурхай	-5283
▁хүлээсэн	-5284
бод	-5285
таж	-5286
▁1,	-5287
▁Дуу	-5288
▁Пут	-5289
▁сүм	-5290
▁гүүр	-5291
жуулах	-5292
▁алдар	-5293
▁зарах	-5294
▁явдлыг	-5295
Хүрэлсүх	-5296
▁Бурханд	-5297
▁ажилчид	-5298
▁баймаар	-5299
▁инженер	-5300
▁орохгүй	-5301
▁удирдагч	-5302
▁хамаарна	-5303
ss	-5304
ОО	-5305
сэл	-5306
окур	-5307
▁Заа	-5308
▁Най	-5309
▁түнш	-5310
▁хамаг	-5311
▁хуруу	-5312
▁элдэв	-5313
▁жилээр	-5314
▁татсан	-5315
▁ирэхгүй	-5316
еп	-5317
▁км	-5318
гэлж	-5319
▁Яаж	-5320
▁сайтар	-5321
▁үйлчил	-5322
▁вэбсайт	-5323
амб	-5324
▁ям	-5325
▁Win	-5326
▁үер	-5327
▁дулаа	-5328
▁тутам	-5329
▁авьяас	-5330
▁тухтай	-5331
▁ярилцах	-5332
▁засаглал	-5333
▁зөвшөөрч	-5334
▁уламжлал	-5335
▁чимээгүй	-5336
▁зөвшөөрсөн	-5337
ху	-5338
мөц	-5339
ээг	-5340
илал	-5341
үүлт	-5342
өдөг	-5343
▁офф	-5344
▁лаад	-5345
▁Элчин	-5346
▁нүүрс	-5347
▁завсар	-5348
▁тодорхойл	-5349
алаа	-5350
хины	-5351
хныг	-5352
▁наа	-5353
▁сүү	-5354
▁дууны	-5355
▁зориу	-5356
▁мэдэл	-5357
▁ашгийг	-5358
▁диплом	-5359
▁түлхүүр	-5360
▁өгөөгүй	-5361
▁Санхүүгийн	-5362
ie	-5363
ни	-5364
лууд	-5365
оход	-5366
▁хун	-5367
▁Түүх	-5368
▁аяга	-5369
▁тоон	-5370
▁Дахин	-5371
▁Японд	-5372
▁нээгд	-5373
▁охины	-5374
▁Дотоод	-5375
▁Францын	-5376
▁ирээгүй	-5377
▁удирдлага	-5378
▁хамрагдах	-5379
За	-5380
▁11-	-5381
▁Хаа	-5382
▁Хүр	-5383
▁Агаар	-5384
▁хуваа	-5385
▁бичдэг	-5386
▁бичжээ	-5387
▁тусалж	-5388
▁олгосон	-5389
▁хөвгүүд	-5390
▁ертөнцийн	-5391
ҮТ	-5392
тол	-5393
▁үнс	-5394
▁маар	-5395
▁Цахим	-5396
▁дийлэнх	-5397
▁дуулсан	-5398
▁ерөөсөө	-5399
▁хадгалж	-5400
▁бэлд	-5401
▁хачин	-5402
▁Сонирх	-5403
▁Хуучин	-5404
▁нартай	-5405
▁тохиролц	-5406
▁зарцуулах	-5407
авч	-5408
члон	-5409
▁Хөв	-5410
ацарт	-5411
▁таал	-5412
▁унтр	-5413
▁энер	-5414
▁Бараг	-5415
▁нэгэнд	-5416
▁хэрнээ	-5417
▁шатанд	-5418
▁үүргээ	-5419
▁угаасаа	-5420
▁дотоодын	-5421
▁хэрэгжиж	-5422
өч	-5423
▁48	-5424
▁ХҮ	-5425
▁бн	-5426
▁цо	-5427
▁хүсэх	-5428
▁Гэртээ	-5429
ууруулах	-5430
▁болсныг	-5431
▁бусдаас	-5432
▁нэгнийг	-5433
▁угаалгын	-5434
▁холбогдол	-5435
▁нэвтрүүлэг	-5436
банк	-5437
▁Оюу	-5438
▁уншиг	-5439
▁дуулах	-5440
▁харанхуй	-5441
▁хэвлэлийн	-5442
▁чадсангүй	-5443
▁илэрхийлсэн	-5444
▁хамааралтай	-5445
iss	-5446
▁Муу	-5447
▁тариал	-5448
▁шаарддаг	-5449
▁үйлдвэрлэгч	-5450
▁шинжилгээний	-5451
▁Хул	-5452
▁инд	-5453
▁чил	-5454
▁харц	-5455
▁хаалг	-5456
▁бөхийн	-5457
▁дундаа	-5458
▁шигшээ	-5459
▁нутгаар	-5460
мэр	-5461
▁ЖД	-5462
доллар	-5463
▁зөрүү	-5464
▁нөлөөл	-5465
▁унасан	-5466
▁хөнгөл	-5467
▁авахаар	-5468
▁асуудлаа	-5469
▁Сэл	-5470
▁амс	-5471
▁хум	-5472
▁хурлын	-5473
▁хүмүүсээс	-5474
▁зохицуулах	-5475
ОР	-5476
▁УБ	-5477
▁Бул	-5478
▁Каз	-5479
▁Соё	-5480
ээнээс	-5481
▁Асууд	-5482
▁алтан	-5483
▁эвгүй	-5484
▁бутлах	-5485
▁явахад	-5486
▁өөрөөсөө	-5487
▁Монголбанк	-5488
▁бүрэлдэхүүн	-5489
▁удирдлагууд	-5490
▁юү	-5491
дана	-5492
▁ДАШТ	-5493
▁Орой	-5494
агчийн	-5495
эврийн	-5496
үүллээ	-5497
▁Жүжиг	-5498
▁оргил	-5499
▁сууна	-5500
▁шийтг	-5501
▁суудаг	-5502
▁Хуулийн	-5503
▁явахгүй	-5504
▁шүр	-5505
цгаая	-5506
▁Техн	-5507
▁хэмж	-5508
▁шүүм	-5509
▁заавар	-5510
▁хичээж	-5511
▁Хятадад	-5512
▁багадаа	-5513
▁ургамал	-5514
▁өргөдөл	-5515
▁бүхэндээ	-5516
▁гарцаагүй	-5517
▁бүртгэлийн	-5518
ord	-5519
▁ойн	-5520
▁живх	-5521
▁ороо	-5522
▁Өвөр	-5523
▁Нөхөр	-5524
▁эрэлт	-5525
▁Дорнод	-5526
▁рүүгээ	-5527
▁өнгөрөх	-5528
▁баримтал	-5529
▁ардчилсан	-5530
▁75	-5531
▁сэж	-5532
ентын	-5533
▁талб	-5534
▁үгээ	-5535
амжтай	-5536
▁эмзэг	-5537
▁зайлсхий	-5538
▁хараахан	-5539
аф	-5540
▁шүүгч	-5541
руулбал	-5542
▁явуулдаг	-5543
▁үзүүлдэг	-5544
▁тавдугаар	-5545
▁техникийн	-5546
ak	-5547
мун	-5548
ыгаа	-5549
▁өрх	-5550
▁олиг	-5551
▁төөр	-5552
▁өгөг	-5553
▁загас	-5554
▁салах	-5555
▁хянах	-5556
▁Манайд	-5557
▁гэрэлт	-5558
▁улирал	-5559
▁экспорт	-5560
▁мэргэжилтнүүд	-5561
лөж	-5562
▁Яв	-5563
уулт	-5564
▁лах	-5565
▁цас	-5566
▁Моск	-5567
▁сүнс	-5568
▁Таван	-5569
▁дарна	-5570
▁Хичээл	-5571
▁гараар	-5572
▁зорчиг	-5573
▁импорт	-5574
▁махбод	-5575
▁тэтгэл	-5576
▁зохиолч	-5577
▁үйлдсэн	-5578
▁хангасан	-5579
▁z	-5580
нах	-5581
ment	-5582
▁хом	-5583
▁хээр	-5584
▁Замын	-5585
▁авгай	-5586
▁гараг	-5587
▁үнээр	-5588
▁тутамд	-5589
▁зарласан	-5590
▁шалтгаанаар	-5591
ab	-5592
▁ѳ	-5593
???	-5594
руу	-5595
▁HD	-5596
▁Хад	-5597
▁Хая	-5598
▁авъя	-5599
▁саат	-5600
доггүй	-5601
▁идсэн	-5602
гүйгээр	-5603
▁цохилт	-5604
▁зургийн	-5605
▁өвөрмөц	-5606
▁гаргажээ	-5607
▁тоглодог	-5608
▁өөрчлөгдөж	-5609
унк	-5610
▁Ром	-5611
▁тив	-5612
▁тэмд	-5613
үүлэлт	-5614
▁хуудс	-5615
▁эхлэв	-5616
▁маркет	-5617
▁байрлах	-5618
▁удирдлагын	-5619
li	-5620
ао	-5621
рэх	-5622
згий	-5623
лэхгүй	-5624
▁Бүтээ	-5625
▁яамны	-5626
▁Тоглоо	-5627
▁Хувийн	-5628
▁Америкт	-5629
▁ажилгүй	-5630
▁явагдаж	-5631
▁нүүрсний	-5632
▁сэтгэлгээ	-5633
▁танилцуулж	-5634
▁хүүхдүүдийн	-5635
▁холбоотойгоор	-5636
мэг	-5637
раф	-5638
▁оё	-5639
▁дын	-5640
▁алдарт	-5641
▁Аймгийн	-5642
▁болгонд	-5643
▁хамтлагийн	-5644
ard	-5645
▁Шар	-5646
▁урв	-5647
▁Араб	-5648
▁Аюул	-5649
▁орлоо	-5650
▁харвал	-5651
▁цөмийн	-5652
▁шүүмжлэл	-5653
▁эрсдэлтэй	-5654
ӨӨ	-5655
▁Май	-5656
▁Хил	-5657
▁сөн	-5658
уудаа	-5659
▁бүүр	-5660
▁нэлээн	-5661
▁тэмцэж	-5662
▁Биднийг	-5663
▁цэнэтэй	-5664
▁цэргүүд	-5665
▁харилцах	-5666
▁анхаарлыг	-5667
▁мэдэгджээ	-5668
▁уламжлалт	-5669
▁iP	-5670
▁ne	-5671
▁Ха	-5672
▁ЖДҮ	-5673
Алтан	-5674
▁Испан	-5675
▁онцол	-5676
▁хүрнэ	-5677
▁Дуучин	-5678
▁төрөөс	-5679
▁түүхэнд	-5680
▁хандсан	-5681
ОХ	-5682
иос	-5683
▁ИЙ	-5684
▁но	-5685
dows	-5686
длөө	-5687
луул	-5688
▁Хөх	-5689
▁евр	-5690
ынхан	-5691
▁чийг	-5692
▁амрах	-5693
▁механ	-5694
▁Мөнгөн	-5695
▁туршиж	-5696
▁өвчтөн	-5697
▁Тэгэхэд	-5698
▁зэрэгцээ	-5699
▁суралцаж	-5700
OL	-5701
рох	-5702
▁at	-5703
гдсан	-5704
элхий	-5705
▁Чамд	-5706
▁Шууд	-5707
▁дээл	-5708
▁Apple	-5709
▁илгээх	-5710
▁өнгөрч	-5711
▁амаргүй	-5712
▁санагдаад	-5713
▁уучлаарай	-5714
▁байгаагийн	-5715
▁тайлбарлах	-5716
▁урамшуулал	-5717
▁холбогдуулан	-5718
ег	-5719
▁Секс	-5720
▁даваа	-5721
▁бодлогыг	-5722
▁системийг	-5723
▁төгрөгөөр	-5724
▁ашиглалтад	-5725
лаач	-5726
▁Зав	-5727
▁Хөөр	-5728
лаагүй	-5729
▁хаагч	-5730
▁чадал	-5731
).	-5732
орч	-5733
ост	-5734
▁33	-5735
▁99	-5736
Оюун	-5737
аран	-5738
▁зүү	-5739
▁ачаа	-5740
▁чарм	-5741
▁аарай	-5742
▁уулын	-5743
▁тулгам	-5744
▁асуусан	-5745
▁үндэстэн	-5746
▁онлайнаар	-5747
ЕГ	-5748
ооч	-5749
алсан	-5750
▁харья	-5751
▁хөлөг	-5752
▁шүлэг	-5753
▁хүмүүж	-5754
▁чулуун	-5755
▁наадамд	-5756
▁уулзсан	-5757
▁хийлгэх	-5758
▁талаараа	-5759
ук	-5760
▁туй	-5761
▁-201	-5762
▁Home	-5763
▁зовоо	-5764
▁иддэг	-5765
▁нэрээ	-5766
▁цэнэг	-5767
▁өгөгд	-5768
▁дэвших	-5769
▁хуурай	-5770
▁Ангилал	-5771
▁бэлтгэх	-5772
▁холбоос	-5773
▁шаардаж	-5774
▁бололцоо	-5775
▁санаатай	-5776
ех	-5777
мэн	-5778
▁up	-5779
▁Өс	-5780
▁илт	-5781
▁зарж	-5782
▁авчих	-5783
▁өгчээ	-5784
▁биедээ	-5785
▁зогсохгүй	-5786
▁цэцэрлэгт	-5787
se	-5788
орк	-5789
▁7.	-5790
атур	-5791
удит	-5792
▁the	-5793
▁Эмч	-5794
ation	-5795
оодог	-5796
▁Шаар	-5797
▁толь	-5798
▁тунх	-5799
▁гэхээс	-5800
▁нэвтэр	-5801
▁хэлчих	-5802
▁хүүхэлд	-5803
▁Гэм	-5804
▁Даш	-5805
▁Тогт	-5806
▁Удир	-5807
▁орол	-5808
▁тонн	-5809
▁хаха	-5810
▁нуруу	-5811
▁бодоход	-5812
▁эрдэмтэд	-5813
2.	-5814
▁Sh	-5815
▁об	-5816
▁Ариун	-5817
▁голын	-5818
▁театр	-5819
▁тооцох	-5820
▁дараахь	-5821
▁машиныг	-5822
?!	-5823
ьц	-5824
▁нэ	-5825
двал	-5826
▁Эрд	-5827
▁эмх	-5828
▁цгаа	-5829
▁шатах	-5830
▁үгийн	-5831
жуулагч	-5832
▁авахын	-5833
▁жилээс	-5834
▁хэрүүл	-5835
▁хөдөлг	-5836
▁Хөрөнгө	-5837
▁ажилтай	-5838
▁сэтгэлээ	-5839
▁хүргэсэн	-5840
▁танилцуулах	-5841
гөөр	-5842
▁Алд	-5843
▁Нут	-5844
▁ром	-5845
гавар	-5846
▁зорьж	-5847
▁гарвал	-5848
▁мэндэд	-5849
▁сууриа	-5850
▁таагүй	-5851
▁талбар	-5852
▁хэрээр	-5853
▁хүүгээ	-5854
▁Жинхэнэ	-5855
▁гүнзгий	-5856
▁ойлголц	-5857
▁тогтоож	-5858
▁есдүгээр	-5859
▁суурьтай	-5860
▁гэрчилгээ	-5861
▁даалгавар	-5862
ik	-5863
иод	-5864
▁01	-5865
▁Ос	-5866
лого	-5867
▁Кон	-5868
▁Сүн	-5869
▁зул	-5870
агтай	-5871
▁цаад	-5872
▁булаа	-5873
▁оновч	-5874
▁ороогүй	-5875
▁хамаатай	-5876
▁хүрээгүй	-5877
▁ажиллуулах	-5878
▁дөрөвдүгээр	-5879
▁коронавирус	-5880
****	-5881
оосой	-5882
▁онош	-5883
▁цохи	-5884
чуудын	-5885
▁гэтэл	-5886
▁эмийн	-5887
▁байгаам	-5888
▁захидал	-5889
▁буруутай	-5890
▁хуваарил	-5891
▁байгууламж	-5892
▁ойролцоогоор	-5893
вас	-5894
иур	-5895
▁Фил	-5896
▁аян	-5897
онгор	-5898
▁гайхаж	-5899
▁түмэнд	-5900
▁менежмент	-5901
ob	-5902
ль	-5903
ийд	-5904
▁38	-5905
длоо	-5906
энгэ	-5907
сүрэн	-5908
▁буян	-5909
▁үдэш	-5910
аанаас	-5911
▁айдаг	-5912
▁засал	-5913
▁саван	-5914
▁Баруун	-5915
▁Эндээс	-5916
▁бүхнээ	-5917
▁зурагт	-5918
▁тансаг	-5919
▁дээгүүр	-5920
▁түүхтэй	-5921
▁зөвшөөрөх	-5922
▁төлбөрийн	-5923
▁:)	-5924
▁15-	-5925
длүүд	-5926
▁унах	-5927
лүүлнэ	-5928
▁ардын	-5929
▁групп	-5930
▁Гэрийн	-5931
▁биенээ	-5932
▁тахлын	-5933
▁бүрдүүлэх	-5934
▁шалгалтын	-5935
дөх	-5936
ъяа	-5937
▁тох	-5938
▁тааш	-5939
▁яруу	-5940
▁хавар	-5941
▁амттай	-5942
▁илүүтэй	-5943
▁нөөцийн	-5944
▁уучлалт	-5945
▁мэдэгдэж	-5946
▁чиглэлийн	-5947
▁хөтөлбөрийг	-5948
▁Эв	-5949
▁Нэм	-5950
▁Намын	-5951
▁эрхээ	-5952
▁таарсан	-5953
▁улирлын	-5954
▁Христийн	-5955
▁гаргалаа	-5956
▁мэдэгдэх	-5957
▁хэрэгжилт	-5958
ue	-5959
▁тэ	-5960
жийн	-5961
рагч	-5962
▁арч	-5963
▁жиш	-5964
▁хош	-5965
▁залг	-5966
▁ноён	-5967
▁одоог	-5968
▁бүтээж	-5969
▁хийжээ	-5970
▁хилийн	-5971
▁жирэмсэн	-5972
▁интернэт	-5973
▁гүйцэтгэж	-5974
▁нөлөөлсөн	-5975
▁нийслэлийн	-5976
▁сонгогдсон	-5977
▁бүртгэгдсэн	-5978
ort	-5979
▁Үл	-5980
▁Pre	-5981
▁Нүд	-5982
▁Үргэлж	-5983
▁өөрийг	-5984
▁тулгарч	-5985
▁хуурамч	-5986
▁зориулан	-5987
▁шинэчлэл	-5988
▁34	-5989
▁то	-5990
рөөс	-5991
▁Ази	-5992
▁Гиш	-5993
уулаа	-5994
▁илтг	-5995
▁Олимп	-5996
▁Шаард	-5997
▁өмсөх	-5998
▁Амжилт	-5999
▁олдсон	-6000
▁Холбооны	-6001
▁оновчтой	-6002
▁хамааран	-6003
▁тэдгээрийг	-6004
com	-6005
▁ЭМ	-6006
▁2005	-6007
▁боом	-6008
▁мөрт	-6009
▁үхсэн	-6010
▁өмнөд	-6011
▁Шилдэг	-6012
▁дизайн	-6013
▁тунхаг	-6014
▁нэвтрэх	-6015
▁ялгаагүй	-6016
▁сэтгэлтэй	-6017
илтын	-6018
▁осол	-6019
▁функ	-6020
▁хийд	-6021
▁зовох	-6022
▁эмгэн	-6023
▁Нэгэнт	-6024
▁Энгийн	-6025
▁суурин	-6026
▁дэмжсэн	-6027
▁зээлийг	-6028
▁тагнуул	-6029
▁Бурханыг	-6030
▁гаргахгүй	-6031
▁хуралдаан	-6032
▁хөтөлбөрт	-6033
▁Тодруулбал	-6034
▁шалтгааныг	-6035
uck	-6036
аци	-6037
Тийм	-6038
▁Дүр	-6039
▁урс	-6040
▁цам	-6041
естор	-6042
▁месс	-6043
▁Долоо	-6044
▁төсөвт	-6045
▁Windows	-6046
▁бодитой	-6047
▁чиглэлд	-6048
▁жижигхэн	-6049
▁хүсэлтийг	-6050
▁жагсаалтыг	-6051
адар	-6052
ооно	-6053
▁зэс	-6054
ашгүй	-6055
▁бүлг	-6056
үүлжээ	-6057
▁кинон	-6058
▁эргэлт	-6059
▁амгалан	-6060
▁хэлэхгүй	-6061
▁өрсөлдөх	-6062
▁Улаанбаат	-6063
▁өөрчлөлтийг	-6064
Өн	-6065
ate	-6066
▁),	-6067
▁Зо	-6068
▁гэ	-6069
▁шун	-6070
▁Зээл	-6071
▁хүүг	-6072
гээрэй	-6073
▁намар	-6074
▁эхэнд	-6075
▁өвгөн	-6076
▁албанд	-6077
▁нүдэнд	-6078
▁хүртэх	-6079
▁талархаж	-6080
Хэр	-6081
▁12-	-6082
▁дэн	-6083
▁жимс	-6084
▁сунг	-6085
▁тийш	-6086
▁тосны	-6087
▁хийвэл	-6088
▁үүсгэн	-6089
▁дэвшигч	-6090
▁тэвчээр	-6091
▁өгөхийг	-6092
▁борлуулах	-6093
▁тоглолтын	-6094
▁өнөөдрийг	-6095
▁төлөвлөсөн	-6096
▁хөдөлмөрийн	-6097
▁тодорхойлолт	-6098
ft	-6099
бэ	-6100
-19	-6101
сээ	-6102
Мөнх	-6103
▁Жич	-6104
▁хут	-6105
▁Уран	-6106
▁голд	-6107
▁цээж	-6108
▁ногоо	-6109
▁олоод	-6110
▁ордны	-6111
▁зорчих	-6112
▁амжилтанд	-6113
▁хамтарсан	-6114
▁байгуулалтын	-6115
▁НӨ	-6116
▁дэ	-6117
абор	-6118
оооо	-6119
хэгт	-6120
▁Тун	-6121
ашины	-6122
▁байг	-6123
▁хөнөө	-6124
▁Дөрвөн	-6125
▁илтгэл	-6126
▁шилжих	-6127
▁орлогын	-6128
▁хэсгүүд	-6129
▁Тодорхой	-6130
▁программ	-6131
▁хажуугаар	-6132
▁гайхамшигтай	-6133
Ар	-6134
эрч	-6135
▁ск	-6136
ориг	-6137
▁Мак	-6138
▁нээс	-6139
▁тийн	-6140
▁хаах	-6141
▁элэг	-6142
гэхгүй	-6143
▁Путин	-6144
▁учрыг	-6145
▁хүчил	-6146
▁ээээээ	-6147
▁явдлын	-6148
▁иргэдээ	-6149
▁өнгөтэй	-6150
▁хэлээгүй	-6151
▁телевизийн	-6152
ct	-6153
Ам	-6154
ГА	-6155
ерв	-6156
▁55	-6157
▁ни	-6158
снаа	-6159
▁жол	-6160
аасай	-6161
▁Болд	-6162
▁Бээж	-6163
▁нөхц	-6164
▁Видео	-6165
▁Толгой	-6166
▁амьтад	-6167
▁доторх	-6168
▁ордонд	-6169
▁түүхийн	-6170
▁үйлчлэх	-6171
▁хэлснээр	-6172
▁хугацаатай	-6173
ЭД	-6174
дад	-6175
▁Ус	-6176
▁кур	-6177
▁100%	-6178
▁Төмөр	-6179
▁азтай	-6180
▁бичнэ	-6181
▁насыг	-6182
▁хүндр	-6183
▁энийг	-6184
▁үеийг	-6185
▁жоохон	-6186
▁нарийв	-6187
▁суудал	-6188
▁химийн	-6189
▁дундаас	-6190
▁охинтой	-6191
▁хаагчид	-6192
AR	-6193
дам	-6194
▁ХА	-6195
▁ив	-6196
▁ом	-6197
▁and	-6198
▁өсч	-6199
тнүүд	-6200
▁Болз	-6201
▁нөхр	-6202
▁онол	-6203
▁хэвш	-6204
▁дорой	-6205
▁уучлал	-6206
▁хэрвээ	-6207
▁ирэхээр	-6208
▁элемент	-6209
▁зоригтой	-6210
▁борлуулалт	-6211
▁тодорхойлж	-6212
▁зориулагдсан	-6213
▁Өө	-6214
вшин	-6215
▁Даг	-6216
энхэр	-6217
▁Хэдий	-6218
▁Асуулт	-6219
▁Онцгой	-6220
▁хоолоо	-6221
▁хорвоо	-6222
▁үүдийн	-6223
чилгааны	-6224
▁зардлыг	-6225
▁санааны	-6226
▁амжаагүй	-6227
▁байснаас	-6228
▁чадварыг	-6229
▁тэмдэглэх	-6230
▁үзэсгэлэнтэй	-6231
▁ис	-6232
эцэг	-6233
▁Лонд	-6234
▁Шинж	-6235
▁амин	-6236
▁овоо	-6237
▁утсаа	-6238
▁хоёул	-6239
▁юманд	-6240
▁өдгөө	-6241
▁гадагш	-6242
▁зэрэгц	-6243
▁нилээд	-6244
▁Нэгдсэн	-6245
▁хувьдаа	-6246
▁Хөгжлийн	-6247
▁солонгос	-6248
▁шалтгаал	-6249
▁байгаасай	-6250
▁суурилсан	-6251
айх	-6252
лик	-6253
аныг	-6254
атай	-6255
гээе	-6256
истан	-6257
▁тоос	-6258
▁Гурав	-6259
▁Хэрхэн	-6260
▁сонгоно	-6261
▁байгаагаас	-6262
▁тохиолдсон	-6263
▁шалгаруулалт	-6264
ВС	-6265
ау	-6266
Нэг	-6267
агц	-6268
гэш	-6269
▁Си	-6270
лөөр	-6271
▁193	-6272
▁Хов	-6273
▁жим	-6274
▁Юуны	-6275
▁шавь	-6276
▁Захир	-6277
▁гаригт	-6278
▁прокур	-6279
▁сурагч	-6280
▁хосууд	-6281
▁өвчтэй	-6282
▁тойронд	-6283
▁тушаалт	-6284
▁удирдаж	-6285
▁хүмүүсээ	-6286
▁хүсээгүй	-6287
▁ертөнцийг	-6288
▁жагсаалтад	-6289
▁хариуцлагатай	-6290
Эл	-6291
оз	-6292
ine	-6293
гип	-6294
раа	-6295
Йорк	-6296
▁400	-6297
▁хир	-6298
▁зовл	-6299
▁нуур	-6300
▁Дархан	-6301
▁Онлайн	-6302
▁сургаа	-6303
▁хайрын	-6304
▁хүртсэн	-6305
▁эзэмших	-6306
▁хагалгаа	-6307
▁санагдана	-6308
▁хайрладаг	-6309
all	-6310
▁2,	-6311
▁Юм	-6312
адан	-6313
чуур	-6314
▁түү	-6315
шгийн	-6316
▁Ардчил	-6317
▁Энэтхэгт	-6318
▁санагдах	-6319
▁тэдэнтэй	-6320
▁жуулчлалын	-6321
ang	-6322
гон	-6323
▁65	-6324
айлт	-6325
хуяг	-6326
▁Амь	-6327
▁Тар	-6328
▁Эмн	-6329
▁рад	-6330
▁шаг	-6331
ацтай	-6332
▁Байр	-6333
▁хөрв	-6334
▁музей	-6335
▁дээрэм	-6336
▁хичээх	-6337
▁эрдэнэ	-6338
▁зүйлээс	-6339
▁хүүхдүүдийг	-6340
▁хөтөлбөрийн	-6341
▁-2	-6342
▁ХӨ	-6343
▁Өд	-6344
▁цүн	-6345
▁амны	-6346
▁япон	-6347
▁функц	-6348
▁дараал	-6349
▁тэрхүү	-6350
▁хөгшин	-6351
▁эрхтэн	-6352
▁Иргэний	-6353
▁барьцаа	-6354
▁шинжтэй	-6355
▁тухайгаа	-6356
▁бүртгүүлэх	-6357
▁урьдчилсан	-6358
▁зориулалттай	-6359
ээсэй	-6360
▁авир	-6361
▁заал	-6362
▁үзлээ	-6363
▁хэлийг	-6364
▁тэнцвэр	-6365
▁холбогдож	-6366
▁найруулагч	-6367
▁хөдөлгөөний	-6368
ми	-6369
аааа	-6370
▁устг	-6371
▁утаа	-6372
▁өрөв	-6373
▁дурьд	-6374
▁алджээ	-6375
▁баахан	-6376
▁барилг	-6377
▁даргыг	-6378
▁түүхий	-6379
▁шингэн	-6380
▁цөөнгүй	-6381
▁Австрали	-6382
▁байгуулна	-6383
▁хөнгөлөлт	-6384
▁шилжүүлэх	-6385
▁тохиолддог	-6386
are	-6387
жиж	-6388
▁Үг	-6389
▁Жен	-6390
▁Чад	-6391
▁сөх	-6392
▁даав	-6393
өгчийн	-6394
▁Авлиг	-6395
▁туулж	-6396
▁тийшээ	-6397
▁хүчийг	-6398
▁буурсан	-6399
▁стандар	-6400
▁хүртлээ	-6401
Элбэгдорж	-6402
▁гэрээний	-6403
▁мөнгөтэй	-6404
▁талаархи	-6405
▁цэвэрлэг	-6406
▁хэлэлцүүл	-6407
▁болгоомжтой	-6408
гэг	-6409
лас	-6410
▁49	-6411
▁000	-6412
▁БАЙ	-6413
▁Мор	-6414
▁Нис	-6415
▁айр	-6416
алдах	-6417
длого	-6418
оциал	-6419
өтгөр	-6420
▁Зөвл	-6421
▁есөн	-6422
▁таних	-6423
▁ямагт	-6424
▁дамжин	-6425
аборатор	-6426
▁Тайлбар	-6427
▁дуусгах	-6428
▁суурийг	-6429
▁тогооны	-6430
▁алдагдал	-6431
▁санаачил	-6432
▁чадалтай	-6433
▁парламент	-6434
▁ерөнхийдөө	-6435
▁сургуулиуд	-6436
▁боловсруулж	-6437
▁байгууллагаас	-6438
▁8.	-6439
эхэн	-6440
▁лэн	-6441
иценз	-6442
▁эрин	-6443
▁алсан	-6444
▁ялгар	-6445
▁тусмаа	-6446
▁хийчих	-6447
▁үүсгэж	-6448
▁Британи	-6449
▁төсөөлж	-6450
▁Манайхан	-6451
▁агентлаг	-6452
▁худалдах	-6453
.00	-6454
окс	-6455
▁Хөт	-6456
амдах	-6457
▁Эмнэл	-6458
▁хааяа	-6459
▁баталж	-6460
▁нүдний	-6461
▁өвлийн	-6462
▁тохирох	-6463
▁хүчингүй	-6464
▁судлаачид	-6465
▁халдварын	-6466
▁амьдралынхаа	-6467
гор	-6468
хэх	-6469
▁яс	-6470
азил	-6471
▁Цар	-6472
▁Чан	-6473
▁гуйж	-6474
▁санс	-6475
▁Санал	-6476
▁яриаг	-6477
▁дуугүй	-6478
▁казино	-6479
▁охиныг	-6480
▁талууд	-6481
▁оролдож	-6482
▁хайрцаг	-6483
▁хуваарь	-6484
▁уралдаан	-6485
▁аймшигтай	-6486
▁бичлэгийг	-6487
▁татгалзах	-6488
▁хуваалцах	-6489
▁өөрсдийнхөө	-6490
▁06	-6491
▁бх	-6492
▁Син	-6493
▁гард	-6494
▁бусаар	-6495
▁хөгжих	-6496
▁шинжээ	-6497
антолгой	-6498
▁байхаас	-6499
▁хийхдээ	-6500
▁асуултад	-6501
▁харахгүй	-6502
▁өгүүлбэр	-6503
▁тэмцээний	-6504
▁сонгуулиар	-6505
▁хэрэглэсэн	-6506
io	-6507
▁пл	-6508
члэл	-6509
▁кор	-6510
▁мэх	-6511
▁Эрхэм	-6512
▁нүдээ	-6513
▁хүчээ	-6514
▁үүсэх	-6515
▁батлан	-6516
▁буцаан	-6517
▁чихаад	-6518
▁маягаар	-6519
▁мөртлөө	-6520
▁түрүүлж	-6521
▁удалгүй	-6522
▁Жүжигчин	-6523
▁өглөөний	-6524
▁гац	-6525
▁зөг	-6526
▁лог	-6527
▁(201	-6528
▁Егип	-6529
▁мээр	-6530
▁Цалин	-6531
▁Чөлөө	-6532
▁нотол	-6533
▁олонх	-6534
▁хянаж	-6535
▁эдгэр	-6536
▁өгвөл	-6537
▁нэрлэж	-6538
▁юунаас	-6539
▁асуухад	-6540
▁удирдаг	-6541
▁Барилгын	-6542
▁төлбөргүй	-6543
▁Мэдээллийн	-6544
▁зөвшөөрдөг	-6545
▁таалагдсан	-6546
▁хэрэгслийн	-6547
▁Al	-6548
▁от	-6549
ганд	-6550
▁арв	-6551
▁хуц	-6552
октор	-6553
▁малт	-6554
▁салж	-6555
▁фото	-6556
▁хашг	-6557
агчдын	-6558
▁гадар	-6559
▁үнэлж	-6560
▁мартаж	-6561
▁мэдээг	-6562
▁нэгдэж	-6563
▁багтсан	-6564
▁илэрсэн	-6565
▁шийтгэл	-6566
▁Иргэдийн	-6567
▁БИ	-6568
▁ход	-6569
лагчид	-6570
▁ярина	-6571
▁өгөөж	-6572
олдугаар	-6573
▁зүйлсийн	-6574
▁Баярлалаа	-6575
▁арилжааны	-6576
▁Ерөнхийдөө	-6577
▁нэвтрүүлэх	-6578
ry	-6579
эб	-6580
хой	-6581
▁Ду	-6582
▁ТУ	-6583
▁кр	-6584
слан	-6585
▁Хос	-6586
▁маа	-6587
▁сны	-6588
▁салхи	-6589
▁таарч	-6590
▁Заавал	-6591
▁гарган	-6592
▁дүүрэг	-6593
▁тохиож	-6594
▁ярьжээ	-6595
▁Хөдөлмөрийн	-6596
▁төхөөрөмжийн	-6597
▁ъя	-6598
▁бан	-6599
▁Miss	-6600
▁бүлд	-6601
хангай	-6602
▁тархи	-6603
▁үгэнд	-6604
▁үзлэг	-6605
▁байрыг	-6606
▁жилийг	-6607
▁өнгийн	-6608
▁Сүхбаатар	-6609
▁мэдлэгтэй	-6610
▁хүндэтгэл	-6611
рээ	-6612
▁00	-6613
▁IP	-6614
▁ди	-6615
тгон	-6616
ууллаа	-6617
▁Чухам	-6618
▁биеэр	-6619
▁зөрчл	-6620
▁ороход	-6621
▁монголд	-6622
▁мэдээлж	-6623
▁ажиллаад	-6624
▁үйлдлийг	-6625
▁хэрэглэнэ	-6626
ast	-6627
▁0.	-6628
▁Bl	-6629
▁ch	-6630
▁le	-6631
▁зэм	-6632
▁фор	-6633
▁1990	-6634
▁2004	-6635
▁Гүйц	-6636
▁өвчл	-6637
▁өмчл	-6638
▁ондоо	-6639
▁чимээ	-6640
▁өнөөх	-6641
▁чамаас	-6642
▁төрөлхтний	-6643
сд	-6644
OLO	-6645
ill	-6646
асс	-6647
▁иш	-6648
▁не	-6649
▁шт	-6650
Одоо	-6651
▁Ким	-6652
▁Мод	-6653
▁Охид	-6654
▁Эрүү	-6655
огчийн	-6656
хэндээ	-6657
чихсон	-6658
▁Итали	-6659
▁амийг	-6660
▁нүгэл	-6661
▁орныг	-6662
▁шилэн	-6663
▁шувуу	-6664
▁өрнөж	-6665
▁авчрах	-6666
▁бодлыг	-6667
▁мужийн	-6668
▁мэдээд	-6669
▁мөрдөх	-6670
▁хариуг	-6671
▁Эрдэнэт	-6672
▁Африкийн	-6673
▁загварыг	-6674
▁төвөгтэй	-6675
▁мэргэжилтэн	-6676
воо	-6677
лоно	-6678
▁гах	-6679
▁гаш	-6680
орсон	-6681
▁YOLO	-6682
▁нутг	-6683
лэлийг	-6684
▁европ	-6685
▁хөшөө	-6686
▁ёслол	-6687
▁Тэдэнд	-6688
▁дуудаж	-6689
▁утгаар	-6690
▁Ирээдүй	-6691
▁утгагүй	-6692
▁ухамсар	-6693
▁хүндтэй	-6694
▁үүргийг	-6695
▁тогтоогд	-6696
▁харилцаанд	-6697
▁хүүхдүүдээ	-6698
▁хэрэглэгчдийн	-6699
ро	-6700
бил	-6701
▁Un	-6702
▁Ув	-6703
▁дон	-6704
▁тын	-6705
насан	-6706
өөрэй	-6707
▁буйг	-6708
▁эрэг	-6709
▁дохио	-6710
▁үлдэж	-6711
▁Эцсийн	-6712
▁журмын	-6713
▁тантай	-6714
▁туулах	-6715
▁тэмцэл	-6716
▁бүтэлгүй	-6717
▁хараагүй	-6718
▁чиглэсэн	-6719
▁судалгаагаар	-6720
▁2-3	-6721
▁com	-6722
▁Уулз	-6723
▁шарх	-6724
▁оройн	-6725
▁ээрэй	-6726
▁зарлаж	-6727
▁төсөлд	-6728
▁ачаалал	-6729
▁болгоод	-6730
▁даргаар	-6731
▁цаашдаа	-6732
▁хариулах	-6733
▁хуудсууд	-6734
▁Эмэгтэйчүүд	-6735
ED	-6736
аха	-6737
нэгт	-6738
▁Mac	-6739
▁min	-6740
▁алж	-6741
▁жар	-6742
▁уян	-6743
▁шаа	-6744
▁ачаар	-6745
▁дундж	-6746
▁олдог	-6747
▁түрүү	-6748
▁ажлаас	-6749
▁нотлох	-6750
▁охиноо	-6751
▁харлаа	-6752
▁ээжийн	-6753
▁Нийслэл	-6754
▁Сэтгүүл	-6755
▁биелүүлж	-6756
▁мэдээгүй	-6757
▁хүчирхийлэл	-6758
ht	-6759
▁192	-6760
▁Дон	-6761
▁Зөн	-6762
▁Шүү	-6763
▁үйлс	-6764
▁томъё	-6765
▁Баасан	-6766
▁Жилийн	-6767
▁ердийн	-6768
▁зурсан	-6769
▁туйлын	-6770
▁ээлтэй	-6771
▁Энхбаяр	-6772
▁буудлын	-6773
▁сэдвээр	-6774
▁тусалдаг	-6775
▁төдийлөн	-6776
▁үйлдлийн	-6777
og	-6778
инээ	-6779
▁фай	-6780
▁цал	-6781
агдлаа	-6782
гээний	-6783
▁Бодит	-6784
▁ашигт	-6785
▁горим	-6786
▁шүүлт	-6787
▁мөрдөн	-6788
▁Цаашдаа	-6789
▁багшийн	-6790
▁гарахад	-6791
ail	-6792
ain	-6793
вад	-6794
лад	-6795
▁эт	-6796
▁Ший	-6797
▁хуй	-6798
▁НӨАТ	-6799
▁Ёстой	-6800
▁уншигч	-6801
▁эрхлэг	-6802
▁Шударга	-6803
▁Монголыг	-6804
▁багасгах	-6805
▁нэмэгдэх	-6806
▁Амьдралын	-6807
▁эмчилгээний	-6808
ung	-6809
▁07	-6810
▁Pl	-6811
▁en	-6812
▁Зу	-6813
эвэл	-6814
▁Дол	-6815
▁жиж	-6816
▁Хөвс	-6817
▁адуу	-6818
▁ногд	-6819
▁өргө	-6820
тэйгөө	-6821
▁Арван	-6822
▁малын	-6823
▁таньж	-6824
▁шууги	-6825
▁манлай	-6826
▁тэнгис	-6827
▁хандан	-6828
▁тууштай	-6829
▁хүлээлт	-6830
▁зорилгод	-6831
▁боловсруулсан	-6832
oc	-6833
ия	-6834
үж	-6835
ууц	-6836
умын	-6837
▁Mar	-6838
▁Кал	-6839
▁ЭНД	-6840
▁лин	-6841
▁байя	-6842
▁заах	-6843
лолтын	-6844
лээгүй	-6845
▁насаа	-6846
▁барина	-6847
▁хацарт	-6848
▁болохын	-6849
▁тусална	-6850
▁дураараа	-6851
▁сурагчид	-6852
▁байрладаг	-6853
▁хэлэлцүүлэг	-6854
лин	-6855
▁?!	-6856
▁Sp	-6857
▁ТО	-6858
овид	-6859
▁150	-6860
▁фил	-6861
иараа	-6862
огоон	-6863
▁гоол	-6864
▁туур	-6865
▁аудит	-6866
▁ямарч	-6867
▁Бразил	-6868
▁Шинээр	-6869
▁дайсан	-6870
▁дэмжиг	-6871
▁тавина	-6872
▁тойрон	-6873
▁эхнээс	-6874
▁хийгдэж	-6875
▁хураамж	-6876
▁үүнийгээ	-6877
▁боломжийн	-6878
▁төлбөрийг	-6879
▁харилцааг	-6880
▁шалгаруулах	-6881
лз	-6882
ess	-6883
▁Шү	-6884
адад	-6885
дсөн	-6886
▁Бям	-6887
▁нүц	-6888
ошиал	-6889
▁биел	-6890
▁холд	-6891
▁үхэр	-6892
мунист	-6893
▁ахлах	-6894
▁болих	-6895
▁мэдэг	-6896
▁бүсийн	-6897
▁гэмээр	-6898
▁нэгдэл	-6899
▁олноор	-6900
▁цэнгэл	-6901
▁Өөртөө	-6902
▁Төсвийн	-6903
▁тоогоор	-6904
▁торгуул	-6905
▁хөгжилд	-6906
▁хүүхнүүд	-6907
0)	-6908
цан	-6909
▁Арх	-6910
▁Гоо	-6911
▁гер	-6912
▁дамп	-6913
▁Эрчим	-6914
▁янзын	-6915
▁мөргөл	-6916
▁юмнууд	-6917
▁Хайртай	-6918
▁бодохгүй	-6919
▁гэрээсээ	-6920
▁олборлох	-6921
▁тамирчид	-6922
▁тогтоомж	-6923
▁парламентын	-6924
▁танилцуулга	-6925
▁хандлагатай	-6926
дорж	-6927
▁ялах	-6928
▁үйлд	-6929
чихлаа	-6930
▁хожим	-6931
▁авлага	-6932
▁бүхэлд	-6933
▁Английн	-6934
▁хүснэгт	-6935
▁Гадаадын	-6936
▁төлөөлөл	-6937
▁аравдугаар	-6938
ous	-6939
СҮТ	-6940
мин	-6941
▁al	-6942
▁Сам	-6943
▁Хож	-6944
▁цан	-6945
▁Богд	-6946
▁валю	-6947
▁цааз	-6948
▁өгөв	-6949
▁гариг	-6950
▁дором	-6951
▁яадаг	-6952
▁iPhone	-6953
▁Тиймээ	-6954
▁дүгнэж	-6955
▁золиос	-6956
▁мөрийн	-6957
▁хараат	-6958
▁чамтай	-6959
▁явсаар	-6960
▁үүнтэй	-6961
▁Аюулгүй	-6962
▁дуустал	-6963
▁зовлонг	-6964
▁зорьсон	-6965
▁орныхоо	-6966
▁дараалан	-6967
▁нөлөөтэй	-6968
▁хамгаалагч	-6969
qu	-6970
кт	-6971
баа	-6972
▁Об	-6973
аарх	-6974
гэлт	-6975
шина	-6976
▁ёсл	-6977
▁арын	-6978
▁баяж	-6979
▁бөмб	-6980
▁Афган	-6981
▁сэжиг	-6982
▁тулал	-6983
▁тэжээ	-6984
▁авчирч	-6985
▁багаар	-6986
▁буцаад	-6987
▁сайжир	-6988
▁сандал	-6989
▁Нийтийн	-6990
▁арилжаа	-6991
▁туршлаг	-6992
▁танихгүй	-6993
▁компаниудын	-6994
▁хугацаандаа	-6995
пур	-6996
▁!"	-6997
тгал	-6998
▁Гэг	-6999
▁Зүрх	-7000
агцхүү	-7001
▁бүсэд	-7002
▁нарны	-7003
▁нийлж	-7004
▁хоёрт	-7005
▁лиценз	-7006
▁нараас	-7007
▁рестор	-7008
▁төрдөг	-7009
▁шийднэ	-7010
▁шинэчлэх	-7011
▁хариуцсан	-7012
▁хамрагдсан	-7013
▁дасгалжуулагч	-7014
нын	-7015
▁08	-7016
екст	-7017
▁30-	-7018
▁буз	-7019
▁зүс	-7020
▁тем	-7021
▁Март	-7022
▁хийл	-7023
▁Насан	-7024
▁болсн	-7025
▁хөтөл	-7026
▁чинээ	-7027
лагддаг	-7028
▁Тусгай	-7029
▁карьер	-7030
▁төлсөн	-7031
▁хөдлөл	-7032
▁Есүсийн	-7033
▁албагүй	-7034
▁тавилга	-7035
▁толгойд	-7036
▁түвшний	-7037
▁хуудсыг	-7038
▁Иймэрхүү	-7039
▁болгохын	-7040
▁дипломат	-7041
▁чуулганы	-7042
▁компанийг	-7043
▁материалыг	-7044
▁харагдахгүй	-7045
▁хөлбөмбөгийн	-7046
єл	-7047
шинз	-7048
▁нүх	-7049
▁орц	-7050
▁тэл	-7051
▁уут	-7052
▁хэз	-7053
▁Укра	-7054
▁сүйр	-7055
▁хийв	-7056
▁хоцр	-7057
галтын	-7058
▁орхиж	-7059
▁сувил	-7060
лагдлаа	-7061
▁Египет	-7062
▁асуулга	-7063
▁тэднээс	-7064
▁зохистой	-7065
▁тохиргоо	-7066
▁үлдээсэн	-7067
▁амьсгалын	-7068
▁Нэгдүгээрт	-7069
▁стратегийн	-7070
рор	-7071
▁АМ	-7072
азар	-7073
айны	-7074
▁Son	-7075
▁Юун	-7076
▁Товч	-7077
▁Сүүлд	-7078
▁алтны	-7079
▁багаж	-7080
▁цомог	-7081
▁гэрлэх	-7082
▁нартаа	-7083
▁ажиллаг	-7084
▁айлчлал	-7085
▁орхисон	-7086
▁хөрөнгийг	-7087
▁өмгөөлөгч	-7088
▁өрсөлдөгч	-7089
▁Сургуулийн	-7090
▁Тавантолгой	-7091
▁төлөвлөгөөг	-7092
▁зөвшөөрөхгүй	-7093
АУ	-7094
▁%	-7095
лип	-7096
хов	-7097
▁лж	-7098
▁Кин	-7099
▁Пак	-7100
▁хов	-7101
▁Хариу	-7102
▁ордон	-7103
▁элбэг	-7104
▁үзүүр	-7105
▁нээсэн	-7106
▁оршдог	-7107
▁сайтын	-7108
▁хүндээ	-7109
▁сүүлээр	-7110
▁бүрдүүлж	-7111
▁хэрэгцээг	-7112
▁Австралийн	-7113
▁тэдгээрийн	-7114
▁үйлчлүүлэгч	-7115
▁@	-7116
▁02	-7117
▁it	-7118
снээ	-7119
чдод	-7120
гараг	-7121
ингоо	-7122
сноор	-7123
▁арав	-7124
▁гоор	-7125
▁оосоо	-7126
▁хасах	-7127
▁хөндл	-7128
▁Дахиад	-7129
▁зүтгэл	-7130
▁хөөцөл	-7131
▁ярилаа	-7132
▁бөхчүүд	-7133
▁олигтой	-7134
▁Гадаадад	-7135
▁Бүтээгдэх	-7136
▁Хоёрдугаарт	-7137
лий	-7138
▁37	-7139
▁39	-7140
▁42	-7141
▁95	-7142
▁Pro	-7143
▁Бөх	-7144
▁ааж	-7145
▁Post	-7146
▁Арай	-7147
▁Кино	-7148
▁конт	-7149
▁түлш	-7150
▁МАНАН	-7151
▁аавын	-7152
▁бусын	-7153
▁даргад	-7154
▁Ямартай	-7155
▁засгийг	-7156
▁зүйлгүй	-7157
▁сонсдог	-7158
чирхалтай	-7159
▁авчирсан	-7160
▁нутагтаа	-7161
▁төгсгөлд	-7162
▁тодруулах	-7163
▁хязгаарлалт	-7164
▁байгууллагуудын	-7165
иор	-7166
▁Бя	-7167
▁ТВ	-7168
▁800	-7169
▁Буд	-7170
▁Евр	-7171
лодог	-7172
▁Блог	-7173
▁Орхон	-7174
▁бясал	-7175
▁бүлээ	-7176
▁морил	-7177
▁хавдр	-7178
члаарай	-7179
▁аргууд	-7180
▁тэнцүү	-7181
▁шулуун	-7182
▁явахдаа	-7183
▁Компьютер	-7184
▁Хүмүүсийн	-7185
▁хувилбарыг	-7186
хэж	-7187
шсан	-7188
▁таш	-7189
алтыг	-7190
▁2003	-7191
▁Гоол	-7192
▁аваа	-7193
▁мөрг	-7194
авхлан	-7195
▁Ахмад	-7196
▁асуув	-7197
▁хөтөч	-7198
▁Бусдын	-7199
▁ашгийн	-7200
▁бүгдэд	-7201
▁очиход	-7202
▁хэрэгл	-7203
▁цагтаа	-7204
▁оролцогч	-7205
▁төлөвтэй	-7206
▁хүргэдэг	-7207
▁чөлөөлөх	-7208
▁үндэслэн	-7209
▁болчихлоо	-7210
▁эхлүүлсэн	-7211
▁Үйлчилгээ	-7212
gu	-7213
та	-7214
єх	-7215
ect	-7216
гэнд	-7217
▁Мат	-7218
▁Шөн	-7219
ийтэй	-7220
▁зүйр	-7221
▁хавь	-7222
доогүй	-7223
▁Цэвэр	-7224
▁будаа	-7225
▁ширээ	-7226
ператур	-7227
▁Битгий	-7228
▁ажлууд	-7229
▁дахинд	-7230
▁доромж	-7231
▁дэвшил	-7232
▁заслын	-7233
▁орчныг	-7234
Монголын	-7235
▁Тиймдээ	-7236
▁бүсгүйн	-7237
▁зогсоол	-7238
▁сайхныг	-7239
▁яригдаж	-7240
▁мэдэрдэг	-7241
▁тохируулах	-7242
УУЛ	-7243
аяа	-7244
луу	-7245
▁44	-7246
▁хи	-7247
▁Бос	-7248
▁ням	-7249
▁эвс	-7250
билэг	-7251
гадаг	-7252
▁Гэмт	-7253
▁ОУВС	-7254
▁яана	-7255
айлсан	-7256
нуудын	-7257
▁Дарга	-7258
▁дотны	-7259
▁хотыг	-7260
▁шанал	-7261
▁Болзоо	-7262
▁дурлал	-7263
▁мэргэн	-7264
▁нулимс	-7265
гадугаар	-7266
▁гаднаас	-7267
▁ирэхийг	-7268
▁нээлтээ	-7269
▁ярихгүй	-7270
▁өрөөний	-7271
▁салбарыг	-7272
▁танилцаж	-7273
▁Байгалийн	-7274
▁байгаадаа	-7275
▁болчихоод	-7276
▁гудамжинд	-7277
▁дамжуулах	-7278
▁үргэлжилнэ	-7279
▁хамгаалалтын	-7280
ым	-7281
▁→	-7282
oun	-7283
раг	-7284
▁Айл	-7285
▁Мах	-7286
чилэн	-7287
▁Prev	-7288
▁Даан	-7289
▁муур	-7290
▁Хаана	-7291
▁Эрчүүд	-7292
▁алдааг	-7293
▁амьтны	-7294
▁баярыг	-7295
▁туслал	-7296
▁өчүүхэн	-7297
▁бодохоор	-7298
▁сэтгэлээр	-7299
▁хувьцааны	-7300
Ня	-7301
▁ье	-7302
▁Шат	-7303
▁пуу	-7304
эмгий	-7305
▁үүрд	-7306
▁үүсч	-7307
▁Парис	-7308
▁зуунд	-7309
▁олонд	-7310
▁алчуур	-7311
▁зогсох	-7312
▁орноос	-7313
▁санаач	-7314
▁Агаарын	-7315
▁Хэрэглэг	-7316
▁Хүрэлсүх	-7317
▁зарцуулж	-7318
▁манайхан	-7319
▁талархал	-7320
енн	-7321
▁51	-7322
емат	-7323
▁мөх	-7324
итрил	-7325
▁болх	-7326
▁дүрд	-7327
▁мань	-7328
▁олно	-7329
▁Тэгтэл	-7330
▁дажгүй	-7331
▁зарлах	-7332
▁тэсвэр	-7333
▁Шинжлэх	-7334
▁зогсоож	-7335
▁хэргээр	-7336
▁талаасаа	-7337
▁танилцсан	-7338
▁ерөнхийлөгчийн	-7339
Хү	-7340
үх	-7341
өөе	-7342
гүүн	-7343
▁ген	-7344
▁дүрв	-7345
▁удам	-7346
жаргал	-7347
▁анхан	-7348
▁оржээ	-7349
▁элсэн	-7350
▁явган	-7351
Нямдорж	-7352
▁давсан	-7353
▁журмыг	-7354
▁онцлох	-7355
▁байдлаа	-7356
▁зүйлүүд	-7357
▁статист	-7358
▁тайланг	-7359
▁Эрүүгийн	-7360
▁гаргахад	-7361
▁Өнөөгийн	-7362
▁татгалзаж	-7363
▁хандуулах	-7364
▁харгалзан	-7365
▁хийгээрэй	-7366
▁өөрчилсөн	-7367
▁өөрчлөгдөх	-7368
ББ	-7369
▁ї	-7370
▁05	-7371
▁9.	-7372
▁Ух	-7373
адем	-7374
▁Тээ	-7375
Танай	-7376
▁харв	-7377
▁хийц	-7378
▁Синга	-7379
▁боомт	-7380
▁тойрог	-7381
▁Тайланд	-7382
▁анхдагч	-7383
▁зарцуул	-7384
▁хувьтай	-7385
▁Гоолингоо	-7386
▁Элбэгдорж	-7387
▁бүтээлийн	-7388
▁үндэстний	-7389
▁автомашины	-7390
▁таалагддаг	-7391
▁анхааралтай	-7392
ov	-7393
ьё	-7394
▁ЗГ	-7395
идер	-7396
▁19-	-7397
▁Хай	-7398
▁түш	-7399
гуулж	-7400
▁өсөх	-7401
▁жишиг	-7402
▁онгой	-7403
▁сольж	-7404
▁өргөө	-7405
▁Цагийн	-7406
▁мэргэш	-7407
▁хайрыг	-7408
▁буудалд	-7409
▁Монголдоо	-7410
▁баримтлах	-7411
▁сүлжээний	-7412
▁хөдөлгөөнийг	-7413
ice	-7414
our	-7415
вен	-7416
▁1:	-7417
▁Se	-7418
▁УУ	-7419
овол	-7420
▁Баа	-7421
▁Ням	-7422
▁Онг	-7423
▁ная	-7424
иотой	-7425
▁Доор	-7426
▁намд	-7427
▁босоо	-7428
▁уудаг	-7429
▁тооцож	-7430
▁үнэлэх	-7431
▁тавилан	-7432
▁хураалт	-7433
▁хэмээсэн	-7434
▁Компанийн	-7435
▁Солонгост	-7436
▁хэрэгслийг	-7437
▁эсэргүүцэж	-7438
▁үргэлжлүүлэх	-7439
ѳр	-7440
Дэл	-7441
аль	-7442
▁un	-7443
▁Аб	-7444
▁Өм	-7445
▁(1)	-7446
▁Даа	-7447
▁Инд	-7448
▁аад	-7449
▁нух	-7450
▁хаз	-7451
▁туул	-7452
сгалан	-7453
чихдаг	-7454
▁Жолоо	-7455
▁Сирийн	-7456
▁тулаан	-7457
▁тэрийг	-7458
▁өртсөн	-7459
▁даашинз	-7460
▁иргэнийг	-7461
▁огцруулах	-7462
▁туслалцаа	-7463
▁хөдөлгөөнт	-7464
▁хэрэглэгчдэд	-7465
II	-7466
ӨХ	-7467
тгаж	-7468
▁нтр	-7469
▁Авто	-7470
▁Хаяг	-7471
▁гуйх	-7472
▁оныг	-7473
эгдлээ	-7474
▁амарч	-7475
▁аятай	-7476
▁зочин	-7477
▁осолд	-7478
▁Халуун	-7479
▁уншина	-7480
▁чихлаа	-7481
▁буулгах	-7482
▁дуулдаг	-7483
▁хурдтай	-7484
▁уншаарай	-7485
▁эрхэлдэг	-7486
▁настайдаа	-7487
▁таалагдаж	-7488
av	-7489
уурч	-7490
▁маг	-7491
▁рек	-7492
▁Ехов	-7493
▁бүтц	-7494
▁зурах	-7495
▁супер	-7496
▁угааж	-7497
▁утгыг	-7498
▁гамшиг	-7499
▁стресс	-7500
▁чөтгөр	-7501
▁үлдэнэ	-7502
▁Шүүхийн	-7503
▁тогтсон	-7504
▁баримтыг	-7505
▁итгэхгүй	-7506
▁хэрэгтээ	-7507
▁эрүүгийн	-7508
▁ярилцлаг	-7509
▁ярилцсан	-7510
▁хүндрэлтэй	-7511
▁төлөөлөгчид	-7512
wit	-7513
ари	-7514
омт	-7515
▁04	-7516
▁из	-7517
▁шо	-7518
янга	-7519
▁лэг	-7520
▁пас	-7521
▁үйм	-7522
▁ихэс	-7523
▁туйл	-7524
▁хааж	-7525
▁алхаж	-7526
▁элчин	-7527
▁Тайван	-7528
▁хэвтэж	-7529
▁Сингапур	-7530
▁дунджаар	-7531
▁мэдэхийг	-7532
▁Үүнийгээ	-7533
▁лаборатор	-7534
▁төлөвлөлт	-7535
▁хариулсан	-7536
ah	-7537
єг	-7538
▁ХУ	-7539
▁шу	-7540
обот	-7541
▁Урт	-7542
▁хны	-7543
агдан	-7544
зориг	-7545
▁Тэмц	-7546
▁нялх	-7547
▁Хэлэлц	-7548
▁нитрил	-7549
▁нэгдэх	-7550
▁огтхон	-7551
▁сайгүй	-7552
▁хортой	-7553
▁хэнтэй	-7554
▁хүнээр	-7555
▁бүтцийн	-7556
▁бүтээгд	-7557
▁судлаач	-7558
▁агуулсан	-7559
▁чармайлт	-7560
▁эзэмшсэн	-7561
▁зарцуулсан	-7562
▁татгалзсан	-7563
▁Монголчуудын	-7564
▁маркетингийн	-7565
▁монголчуудын	-7566
▁Ат	-7567
▁бо	-7568
▁го	-7569
ософ	-7570
шилж	-7571
▁Ник	-7572
▁лаж	-7573
▁лэх	-7574
лгийн	-7575
▁овог	-7576
▁аймаар	-7577
▁зүтгэж	-7578
▁мессеж	-7579
▁татдаг	-7580
▁Тусгаар	-7581
▁зогссон	-7582
▁тэндээс	-7583
▁хамаарч	-7584
▁хуулбар	-7585
▁танилцах	-7586
▁сонирхлыг	-7587
▁сургуулиа	-7588
▁мэдээллээр	-7589
▁үргэлжилсэн	-7590
▁Байгууллагын	-7591
ки	-7592
рон	-7593
▁Am	-7594
▁Ме	-7595
окол	-7596
▁өнд	-7597
агаах	-7598
▁зайд	-7599
▁аварч	-7600
▁мөчид	-7601
лагдмал	-7602
Өнөөдөр	-7603
▁Чөлөөт	-7604
▁сайдыг	-7605
▁тайлах	-7606
▁хэмээв	-7607
▁Нямдорж	-7608
▁Хөвсгөл	-7609
▁Цэргийн	-7610
▁системд	-7611
▁тэтгэмж	-7612
▁стратеги	-7613
▁төрүүлэх	-7614
▁асуултанд	-7615
▁зөвлөгөөг	-7616
▁сонирхдог	-7617
▁хорооллын	-7618
▁температур	-7619
▁тайлбарласан	-7620
oy	-7621
ьяа	-7622
иулж	-7623
▁Бүт	-7624
▁Ток	-7625
▁олз	-7626
▁Сайд	-7627
▁буух	-7628
▁лээд	-7629
▁серв	-7630
сандаа	-7631
▁Буруу	-7632
▁Санаа	-7633
▁бодно	-7634
▁очдог	-7635
▁тоонд	-7636
▁өмөөр	-7637
▁авлига	-7638
▁сэтгэх	-7639
▁цаасан	-7640
▁өлсгөл	-7641
▁Тэрнээс	-7642
▁Хүнсний	-7643
▁бэлтгэж	-7644
▁бүхнээс	-7645
▁олохгүй	-7646
▁үзүүлнэ	-7647
▁Фэйсбүүк	-7648
▁оролцоно	-7649
▁сүлжээнд	-7650
▁баримтууд	-7651
▁олборлолт	-7652
▁наймдугаар	-7653
▁Боловсролын	-7654
▁Эмэгтэйчүүдийн	-7655
ЭХ	-7656
ма	-7657
end	-7658
▁2:	-7659
▁сп	-7660
▁Үс	-7661
Болд	-7662
ольш	-7663
▁21-	-7664
▁Вэб	-7665
▁Сум	-7666
▁Хүй	-7667
▁жам	-7668
▁мот	-7669
▁Үүр	-7670
▁Мекс	-7671
▁гомд	-7672
▁гурв	-7673
▁очно	-7674
▁сээр	-7675
чихээд	-7676
▁Эрдэм	-7677
▁будаг	-7678
▁снаар	-7679
▁байхав	-7680
▁хуулиа	-7681
долларын	-7682
▁бичгийг	-7683
▁нөхрийн	-7684
▁харгалз	-7685
▁хийхийн	-7686
▁хөгжсөн	-7687
▁захиргаа	-7688
▁цуглуулах	-7689
▁одоохондоо	-7690
▁өнгөрүүлэх	-7691
▁хамгаалахын	-7692
▁харилцаатай	-7693
▁АС	-7694
▁191	-7695
▁ХҮН	-7696
▁айн	-7697
▁саа	-7698
▁хул	-7699
амайг	-7700
чимэг	-7701
▁Next	-7702
▁тест	-7703
▁хийе	-7704
▁гарав	-7705
▁захиа	-7706
▁Өдөрт	-7707
▁зуршил	-7708
▁нэгээр	-7709
▁таарах	-7710
▁тунгаа	-7711
▁барааны	-7712
▁дагуулж	-7713
▁туулсан	-7714
▁Интернет	-7715
▁бахархаж	-7716
▁оруулаад	-7717
▁тоглогчид	-7718
NU	-7719
if	-7720
Хүн	-7721
эгс	-7722
▁47	-7723
▁БОЛ	-7724
▁сод	-7725
▁уус	-7726
актик	-7727
сралт	-7728
▁түгж	-7729
▁үүсг	-7730
▁Автом	-7731
▁Аялал	-7732
▁дурын	-7733
▁номоо	-7734
▁сорилт	-7735
▁сэрэмж	-7736
▁хүрдэг	-7737
▁Ганцхан	-7738
▁Дээрээс	-7739
▁Сэлэнгэ	-7740
▁Хүүхдэд	-7741
▁биднээс	-7742
▁даатгал	-7743
▁хэдийнэ	-7744
▁дамжуулж	-7745
▁компаний	-7746
▁өөрийнхөөрөө	-7747
тү	-7748
out	-7749
ейц	-7750
ирт	-7751
цах	-7752
зүйн	-7753
▁10.	-7754
▁for	-7755
▁ААН	-7756
▁оюу	-7757
▁хус	-7758
инээв	-7759
▁дээж	-7760
▁жигд	-7761
▁цүнх	-7762
ижитал	-7763
▁гэнээ	-7764
▁явцыг	-7765
▁дуулга	-7766
▁зарлиг	-7767
▁хэллэг	-7768
▁хүрчээ	-7769
▁Угаасаа	-7770
▁талбайн	-7771
▁хуваагд	-7772
▁шагналыг	-7773
▁тэнгэрийн	-7774
▁Гуравдугаар	-7775
ама	-7776
▁Му	-7777
▁МҮ	-7778
▁Тр	-7779
▁ян	-7780
ианы	-7781
олон	-7782
▁(0)	-7783
▁Хоё	-7784
лөсөн	-7785
рафик	-7786
удлаа	-7787
▁бааз	-7788
▁бөөр	-7789
▁хонь	-7790
▁Дөрөв	-7791
▁бузар	-7792
▁уусан	-7793
▁Өдгөө	-7794
▁Төлбөр	-7795
▁салсан	-7796
▁суманд	-7797
▁сурдаг	-7798
▁чихээд	-7799
▁ярианы	-7800
▁Үүгээр	-7801
▁Канадын	-7802
▁сургамж	-7803
▁томилох	-7804
▁санаарай	-7805
▁түүнчлэн	-7806
▁хаалттай	-7807
▁Өглөөний	-7808
▁мэдээлсэн	-7809
▁мэдээлснээр	-7810
▁ed	-7811
▁18-	-7812
▁ИТХ	-7813
▁Хаг	-7814
▁алс	-7815
▁шог	-7816
Таныг	-7817
гэрэл	-7818
▁Говь	-7819
▁бонд	-7820
▁гүйж	-7821
▁джээ	-7822
▁клип	-7823
▁ноос	-7824
апитал	-7825
▁Далай	-7826
▁Ярилц	-7827
▁дарах	-7828
▁огцом	-7829
▁орхих	-7830
▁тариа	-7831
▁өнөөг	-7832
▁бүрээс	-7833
▁дуугаа	-7834
▁эрхэлж	-7835
▁болмоор	-7836
▁зэргийг	-7837
▁мэдэхэд	-7838
▁нүүрний	-7839
▁хариулж	-7840
▁амжилтад	-7841
▁Уучлаарай	-7842
▁ажиллахыг	-7843
▁мэдэгдлээ	-7844
▁ажиллахгүй	-7845
▁зарцуулдаг	-7846
▁тусламжтайгаар	-7847
▁Ми	-7848
лоод	-7849
соно	-7850
угаа	-7851
▁ИЙН	-7852
▁Өрг	-7853
▁Грек	-7854
▁баар	-7855
▁болд	-7856
▁уйлж	-7857
▁хомс	-7858
▁ядан	-7859
▁Жирэм	-7860
▁алуур	-7861
▁захын	-7862
▁эзлэх	-7863
▁айгаад	-7864
▁төлдөг	-7865
▁хавдар	-7866
▁хэлтэс	-7867
▁асуудаг	-7868
▁удаагүй	-7869
▁бусадтай	-7870
▁итгэлийг	-7871
▁тусгасан	-7872
▁онцлогтой	-7873
▁асуудлуудыг	-7874
▁58	-7875
▁Ди	-7876
▁Ли	-7877
ахан	-7878
чний	-7879
▁Com	-7880
▁ДЭМ	-7881
▁гий	-7882
длууд	-7883
услан	-7884
▁аагүй	-7885
▁занал	-7886
▁нуугд	-7887
▁хүрэл	-7888
▁дэлбэр	-7889
▁хариуд	-7890
▁хэлтэй	-7891
▁хүртээ	-7892
▁чихсэн	-7893
▁өргөтг	-7894
▁зэргээр	-7895
▁хэсгээс	-7896
▁эрхлэгч	-7897
▁боловсон	-7898
▁харамсаж	-7899
▁үйлдвэрт	-7900
▁Израилийн	-7901
▁ажиллуулж	-7902
▁хариултыг	-7903
▁эсрэгээрээ	-7904
▁гүйцэтгэдэг	-7905
▁хуралдаанаар	-7906
ля	-7907
ime	-7908
oft	-7909
▁En	-7910
▁ёр	-7911
ъект	-7912
▁Эрт	-7913
▁усыг	-7914
өгдсөн	-7915
▁Нохой	-7916
▁байлд	-7917
▁ирвэл	-7918
▁оройт	-7919
▁ялгаж	-7920
▁идэвхи	-7921
▁нүцгэн	-7922
▁хүрлээ	-7923
▁хөндий	-7924
▁явахыг	-7925
▁брэндийн	-7926
▁таалагдах	-7927
▁чадваргүй	-7928
▁өрсөлдөөн	-7929
▁хангалтгүй	-7930
▁худалдаанд	-7931
▁ажиллагаатай	-7932
шг	-7933
лэр	-7934
най	-7935
▁??	-7936
▁ХО	-7937
▁Mic	-7938
▁ЗХУ	-7939
▁дис	-7940
▁цээр	-7941
▁чдын	-7942
▁Даваа	-7943
▁Тэнэг	-7944
▁Төрөл	-7945
▁таньд	-7946
▁хором	-7947
▁бэлдэж	-7948
▁гээгүй	-7949
▁дүнгээ	-7950
▁хотоос	-7951
▁цэнхэр	-7952
▁үлдлээ	-7953
▁Ингэхэд	-7954
▁Оросууд	-7955
▁дуунууд	-7956
▁нөхдүүд	-7957
▁санадаг	-7958
▁хийлгэж	-7959
▁болгоныг	-7960
▁хараарай	-7961
▁хүсдэггүй	-7962
▁цэцэрлэгийн	-7963
ти	-7964
ипп	-7965
▁Хо	-7966
down	-7967
▁Стр	-7968
▁Сэд	-7969
▁өмд	-7970
айхан	-7971
▁Гэнэ	-7972
▁Майк	-7973
▁Тэтг	-7974
▁арал	-7975
▁эхэн	-7976
▁ойлго	-7977
▁хүдэр	-7978
▁ягаан	-7979
▁өсгөх	-7980
▁баригч	-7981
▁суртах	-7982
▁уншдаг	-7983
▁хийхээ	-7984
▁хотноо	-7985
▁чадлаа	-7986
▁Түүнтэй	-7987
▁төмрийн	-7988
▁шилжилт	-7989
▁Сургууль	-7990
▁асуултын	-7991
▁болгоход	-7992
▁нэрлэсэн	-7993
ld	-7994
Их	-7995
ард	-7996
вит	-7997
ейт	-7998
▁46	-7999
мэйл	-8000
▁Бер	-8001
▁ааш	-8002
галаг	-8003
▁гүйн	-8004
▁занг	-8005
▁оров	-8006
▁үсээ	-8007
▁сонго	-8008
▁өргөх	-8009
▁багтаж	-8010
▁биеийг	-8011
▁оросын	-8012
▁татаад	-8013
▁уугаад	-8014
▁хүүтэй	-8015
▁энерги	-8016
▁үлдээх	-8017
▁Нутгийн	-8018
▁дурсгал	-8019
▁таашаал	-8020
▁шинэхэн	-8021
▁ихэнхдээ	-8022
▁тангараг	-8023
▁хөдөлгөөнд	-8024
▁үйлчилгээнд	-8025
▁боловсролтой	-8026
az	-8027
age	-8028
хин	-8029
▁хх	-8030
галж	-8031
мард	-8032
▁Вал	-8033
▁ээд	-8034
▁виде	-8035
▁заас	-8036
▁тенд	-8037
▁Бүрэн	-8038
▁авагч	-8039
▁хошуу	-8040
▁хүсэн	-8041
▁өршөө	-8042
▁бөөний	-8043
▁дуусна	-8044
▁оюутны	-8045
▁тавтай	-8046
▁цаашаа	-8047
▁цалинг	-8048
бараагүй	-8049
▁нийцсэн	-8050
▁танхимд	-8051
▁шаардах	-8052
▁Мэдээлэл	-8053
▁Цэцэрлэг	-8054
▁ардчилал	-8055
▁бүлэглэл	-8056
▁тасалбар	-8057
▁Монголоос	-8058
▁бичигдсэн	-8059
▁гүйцэтгэл	-8060
▁туршилтын	-8061
▁залуучуудын	-8062
▁үгүйсгэхгүй	-8063
EE	-8064
ai	-8065
ѳѳ	-8066
▁ТЭ	-8067
▁ХК	-8068
илоо	-8069
▁бак	-8070
▁бир	-8071
▁өвс	-8072
▁Хуур	-8073
▁гэвч	-8074
▁хэлм	-8075
▁Пүрэв	-8076
▁балай	-8077
▁эвдэр	-8078
▁Оюутан	-8079
▁дуурай	-8080
▁малгай	-8081
▁намууд	-8082
▁согтуу	-8083
▁хэрэгц	-8084
▁эмчлэх	-8085
▁шуугиан	-8086
▁Судалгаа	-8087
▁анхаарна	-8088
▁зөөврийн	-8089
▁хүчилтөр	-8090
▁өгдөггүй	-8091
▁долдугаар	-8092
▁сонголтыг	-8093
aw	-8094
ӨН	-8095
ена	-8096
лид	-8097
▁Ач	-8098
▁Ял	-8099
▁600	-8100
▁ноо	-8101
▁шул	-8102
эцийн	-8103
▁зугт	-8104
▁хаях	-8105
▁юмны	-8106
▁Хүлээ	-8107
▁Швейц	-8108
▁аврал	-8109
▁товчл	-8110
▁эмгэг	-8111
▁Надаас	-8112
▁бүрээр	-8113
▁нэрлэх	-8114
▁хүлээд	-8115
▁хөдөлж	-8116
▁эсэхээ	-8117
▁өгөхөд	-8118
▁бүрдсэн	-8119
▁дууслаа	-8120
▁тэмдэгт	-8121
▁төрүүлж	-8122
▁шүүмжил	-8123
▁илгээсэн	-8124
▁хориглох	-8125
▁цэвэрхэн	-8126
▁эрчимтэй	-8127
▁хөдөлгүүр	-8128
▁технологийг	-8129
▁үйлдвэрлэсэн	-8130
ЗД	-8131
Цаг	-8132
хуу	-8133
▁41	-8134
арат	-8135
инох	-8136
▁бүж	-8137
▁лал	-8138
▁цор	-8139
ллийн	-8140
уулав	-8141
▁Лхаг	-8142
▁форм	-8143
элтгүй	-8144
▁даанч	-8145
▁мужид	-8146
▁орган	-8147
▁тахал	-8148
▁учраа	-8149
▁булчин	-8150
▁хашгир	-8151
▁хогийн	-8152
▁холбох	-8153
▁өмчийн	-8154
агдаагүй	-8155
▁байрлаж	-8156
▁эхнэрээ	-8157
лагдаагүй	-8158
▁ажилчдын	-8159
▁ирээдүйг	-8160
▁хамтрагч	-8161
▁хэрэгжих	-8162
▁өгүүллэг	-8163
▁Бизнесийн	-8164
▁ажиллахад	-8165
▁баригдсан	-8166
▁таамаглаж	-8167
▁асуудалгүй	-8168
▁стандартын	-8169
▁	-8170
а	-8171
э	-8172
н	-8173
г	-8174
л	-8175
р	-8176
д	-8177
о	-8178
х	-8179
й	-8180
и	-8181
у	-8182
ү	-8183
т	-8184
с	-8185
б	-8186
ө	-8187
м	-8188
.	-8189
ж	-8190
в	-8191
ч	-8192
ы	-8193
з	-8194
ь	-8195
ш	-8196
ц	-8197
я	-8198
,	-8199
е	-8200
Т	-8201
-	-8202
Х	-8203
ю	-8204
"	-8205
Б	-8206
Э	-8207
0	-8208
А	-8209
1	-8210
к	-8211
М	-8212
2	-8213
Н	-8214
?	-8215
Г	-8216
У	-8217
ё	-8218
С	-8219
e	-8220
п	-8221
Д	-8222
:	-8223
О	-8224
И	-8225
o	-8226
a	-8227
З	-8228
Ө	-8229
n	-8230
Ү	-8231
i	-8232
3	-8233
r	-8234
5	-8235
t	-8236
9	-8237
s	-8238
4	-8239
!	-8240
Я	-8241
l	-8242
8	-8243
Ш	-8244
Е	-8245
6	-8246
7	-8247
Ц	-8248
)	-8249
u	-8250
Ч	-8251
v	-8252
Ж	-8253
К	-8254
ф	-8255
(	-8256
Л	-8257
m	-8258
c	-8259
d	-8260
/	-8261
Р	-8262
S	-8263
h	-8264
p	-8265
g	-8266
M	-8267
A	-8268
y	-8269
P	-8270
I	-8271
П	-8272
C	-8273
В	-8274
b	-8275
N	-8276
T	-8277
D	-8278
k	-8279
є	-8280
E	-8281
B	-8282
w	-8283
O	-8284
Ф	-8285
_	-8286
ъ	-8287
R	-8288
Й	-8289
G	-8290
L	-8291
f	-8292
F	-8293
H	-8294
;	-8295
*	-8296
x	-8297
Ю	-8298
W	-8299
[	-8300
]	-8301
#	-8302
U	-8303
V	-8304
%	-8305
·	-8306
'	-8307
Y	-8308
J	-8309
•	-8310
X	-8311
>	-8312
ѳ	-8313
K	-8314
z	-8315
|	-8316
$	-8317
j	-8318
Ё	-8319
Ы	-8320
ї	-8321
&	-8322
+	-8323
=	-8324
~	-8325
Z	-8326
<	-8327
Q	-8328
Ь	-8329
q	-8330
^	-8331
@	-8332
→	-8333
ђ	-8334
щ	-8335
һ	-8336
î	-8337
Є	-8338
₮	-8339
🙂	-8340
️	-8341
ҕ	-8342
ҥ	-8343
°	-8344
←	-8345
{	-8346
ا	-8347
à	-8348
′	-8349
}	-8350
ý	-8351
ر	-8352
€	-8353
ü	-8354
¬	-8355
\	-8356
é	-8357
í	-8358
●	-8359
ә	-8360
ë	-8361
ñ	-8362
ѐ	-8363
¿	-8364
ò	-8365
ل	-8366
›	-8367
😀	-8368
â	-8369
©	-8370
Ъ	-8371
↑	-8372
è	-8373
س	-8374
►	-8375
ã	-8376
Ѳ	-8377
ة	-8378
ك	-8379
❤	-8380
ح	-8381
Í	-8382
®	-8383
ä	-8384
₪	-8385
ð	-8386
ج	-8387
́	-8388
√	-8389
£	-8390
♥	-8391
✅	-8392
😉	-8393
Ї	-8394
🎁	-8395
✔	-8396
õ	-8397
い	-8398
á	-8399
☮	-8400
♛	-8401
ó	-8402
Щ	-8403
ᄏ	-8404
★	-8405
😛	-8406
な	-8407
ö	-8408
ん	-8409
Џ	-8410
ѕ	-8411
م	-8412
时	-8413
し	-8414
ў	-8415
の	-8416
・	-8417
ي	-8418
≤	-8419
☞	-8420
す	-8421
×	-8422
ң	-8423
ı	-8424
😍	-8425
🙏	-8426
ì	-8427
ā	-8428
і	-8429
⁄	-8430
÷	-8431
μ	-8432
ま	-8433
る	-8434
😭	-8435
Ø	-8436
Ќ	-8437
う	-8438
て	-8439
😂	-8440
😅	-8441
§	-8442
ћ	-8443
қ	-8444
に	-8445
이	-8446
🔊	-8447
🔥	-8448
😊	-8449
ï	-8450
ø	-8451
җ	-8452
ᅲ	-8453
ế	-8454
≈	-8455
】	-8456
名	-8457
û	-8458
̄	-8459
ن	-8460
♦	-8461
♪	-8462
✿	-8463
【	-8464
そ	-8465
で	-8466
ら	-8467
±	-8468
ç	-8469
ɵ	-8470
Ў	-8471
ќ	-8472
※	-8473
「	-8474
か	-8475
歌	-8476
æ	-8477
ə	-8478
α	-8479
І	-8480
ع	-8481
و	-8482
♫	-8483
あ	-8484
く	-8485
こ	-8486
た	-8487
彩	-8488
曲	-8489
称	-8490
요	-8491
🏻	-8492
¥	-8493
̈	-8494
γ	-8495
د	-8496
⭐	-8497
」	-8498
と	-8499
よ	-8500
り	-8501
れ	-8502
ー	-8503
👉	-8504
👏	-8505
💵	-8506
🤗	-8507
🤣	-8508
🤩	-8509
Õ	-8510
ş	-8511
‐	-8512
↓	-8513
↙	-8514
✓	-8515
。	-8516
が	-8517
だ	-8518
は	-8519
を	-8520
国	-8521
나	-8522
😦	-8523
😱	-8524
Á	-8525
Ü	-8526
š	-8527
ه	-8528
†	-8529
−	-8530
⋆	-8531
☈	-8532
♚	-8533
お	-8534
き	-8535
っ	-8536
も	-8537
ン	-8538
学	-8539
書	-8540
어	-8541
유	-8542
👍	-8543
📌	-8544
😢	-8545
¦	-8546
Ş	-8547
ƒ	-8548
ɪ	-8549
Ћ	-8550
ո	-8551
י	-8552
ר	-8553
ف	-8554
ᄂ	-8555
■	-8556
◆	-8557
○	-8558
☺	-8559
♡	-8560
け	-8561
ば	-8562
日	-8563
기	-8564
리	-8565
💯	-8566
¢	-8567
Ç	-8568
É	-8569
ư	-8570
ˈ	-8571
̷	-8572
β	-8573
ι	-8574
π	-8575
ұ	-8576
ն	-8577
א	-8578
ی	-8579
ᄅ	-8580
ᠠ	-8581
ᠢ	-8582
ớ	-8583
≥	-8584
▪	-8585
☆	-8586
✨	-8587
➜	-8588
➡	-8589
、	-8590
さ	-8591
せ	-8592
ち	-8593
つ	-8594
め	-8595
わ	-8596
ル	-8597
人	-8598
会	-8599
時	-8600
楽	-8601
김	-8602
니	-8603
다	-8604
¤	-8605
Ò	-8606
ß	-8607
ο	-8608
џ	-8609
ґ	-8610
Һ	-8611
ա	-8612
ե	-8613
մ	-8614
ط	-8615
غ	-8616
ᠳ	-8617
―	-8618
‹	-8619
⃣	-8620
∞	-8621
▲	-8622
◊	-8623
☀	-8624
♀	-8625
ご	-8626
じ	-8627
一	-8628
古	-8629
図	-8630
愛	-8631
江	-8632
済	-8633
経	-8634
蒙	-8635
行	-8636
表	-8637
路	-8638
返	-8639
部	-8640
際	-8641
말	-8642
배	-8643
사	-8644
서	-8645
정	-8646
지	-8647
하	-8648
🔴	-8649
😁	-8650
😘	-8651
À	-8652
Ã	-8653
Ë	-8654
Ñ	-8655
Ý	-8656
ú	-8657
İ	-8658
ō	-8659
ω	-8660
Ѕ	-8661
ғ	-8662
ל	-8663
ب	-8664
ق	-8665
ہ	-8666
ค	-8667
᠋	-8668
ᠨ	-8669
ᠷ	-8670
₩	-8671
▼	-8672
☛	-8673
☻	-8674
♂	-8675
え	-8676
げ	-8677
ょ	-8678
ㄟ	-8679
中	-8680
台	-8681
平	-8682
文	-8683
月	-8684
本	-8685
語	-8686
間	-8687
내	-8688
대	-8689
비	-8690
세	-8691
아	-8692
영	-8693
원	-8694
저	-8695
제	-8696
한	-8697
🇷	-8698
🌟	-8699
👩	-8700
💎	-8701
💥	-8702
📍	-8703
😃	-8704
😆	-8705
😇	-8706
😜	-8707
😝	-8708
🥳	-8709
Ä	-8710
Ð	-8711
Ö	-8712
å	-8713
ê	-8714
ô	-8715
þ	-8716
Ā	-8717
č	-8718
ī	-8719
Œ	-8720
ʀ	-8721
̀	-8722
Δ	-8723
ί	-8724
θ	-8725
λ	-8726
σ	-8727
ѓ	-8728
Ҥ	-8729
Ӏ	-8730
ӈ	-8731
ӓ	-8732
ӧ	-8733
ӱ	-8734
ս	-8735
տ	-8736
ւ	-8737
ք	-8738
נ	-8739
ע	-8740
أ	-8741
ش	-8742
ى	-8743
ন	-8744
ਰ	-8745
க	-8746
ง	-8747
น	-8748
ม	-8749
ย	-8750
โ	-8751
่	-8752
ᠡ	-8753
ᠦ	-8754
ᴇ	-8755
ḥ	-8756
ṭ	-8757
‖	-8758
∙	-8759
◦	-8760
☎	-8761
⚡	-8762
⚫	-8763
❗	-8764
➢	-8765
⦁	-8766
《	-8767
》	-8768
〓	-8769
ざ	-8770
ど	-8771
ひ	-8772
み	-8773
ゃ	-8774
や	-8775
キ	-8776
ゴ	-8777
シ	-8778
ナ	-8779
フ	-8780
モ	-8781
リ	-8782
上	-8783
下	-8784
件	-8785
信	-8786
出	-8787
天	-8788
子	-8789
我	-8790
法	-8791
版	-8792
现	-8793
的	-8794
自	-8795
软	-8796
达	-8797
通	-8798
音	-8799
高	-8800
경	-8801
구	-8802
국	-8803
뉴	-8804
는	-8805
라	-8806
로	-8807
바	-8808
법	-8809
부	-8810
수	-8811
스	-8812
신	-8813
야	-8814
오	-8815
우	-8816
의	-8817
인	-8818
자	-8819
장	-8820
주	-8821
태	-8822
토	-8823
티	-8824
함	-8825
해	-8826
현	-8827
횊	-8828
회	-8829
후	-8830
︎	-8831
🌈	-8832
🍷	-8833
🎯	-8834
🏠	-8835
👎	-8836
👨	-8837
💚	-8838
💜	-8839
💫	-8840
💰	-8841
🔬	-8842
🔰	-8843
🚗	-8844
🤑	-8845
🤘	-8846
🤟	-8847
🤮	-8848
🥇	-8849
Æ	-8850
È	-8851
ÿ	-8852
ć	-8853
Č	-8854
đ	-8855
ĕ	-8856
ė	-8857
ğ	-8858
Ł	-8859
ł	-8860
ń	-8861
ś	-8862
ū	-8863
ǿ	-8864
ɐ	-8865
ʜ	-8866
ˌ	-8867
̌	-8868
͜	-8869
Ω	-8870
δ	-8871
ε	-8872
κ	-8873
ν	-8874
ρ	-8875
ς	-8876
φ	-8877
ј	-8878
њ	-8879
Ґ	-8880
Ҳ	-8881
ҳ	-8882
ӣ	-8883
կ	-8884
ղ	-8885
ր	-8886
ב	-8887
ג	-8888
ה	-8889
ו	-8890
ת	-8891
ت	-8892
خ	-8893
ذ	-8894
ص	-8895
ک	-8896
क	-8897
ब	-8898
ल	-8899
ा	-8900
া	-8901
ু	-8902
্	-8903
ਟ	-8904
ਪ	-8905
ਸ	-8906
ก	-8907
ซ	-8908
ด	-8909
ล	-8910
ส	-8911
อ	-8912
ิ	-8913
ี	-8914
เ	-8915
ใ	-8916
้	-8917
྆	-8918
န	-8919
မ	-8920
့	-8921
း	-8922
ᄀ	-8923
ᆞ	-8924
ᠥ	-8925
ᠬ	-8926
ᠭ	-8927
ᠮ	-8928
ᠶ	-8929
ᵴ	-8930
ḍ	-8931
ṅ	-8932
ṇ	-8933
‣	-8934
‰	-8935
₽	-8936
↔	-8937
⇒	-8938
⇨	-8939
∂	-8940
∆	-8941
≠	-8942
⎪	-8943
⏱	-8944
│	-8945
█	-8946
□	-8947
▶	-8948
☹	-8949
♏	-8950
♔	-8951
♠	-8952
⚽	-8953
✈	-8954
❀	-8955
❄	-8956
❷	-8957
❹	-8958
❼	-8959
⠀	-8960
ぐ	-8961
ぶ	-8962
ゅ	-8963
ろ	-8964
イ	-8965
ウ	-8966
ギ	-8967
ク	-8968
コ	-8969
サ	-8970
ソ	-8971
ダ	-8972
ド	-8973
ブ	-8974
ャ	-8975
ョ	-8976
ㄍ	-8977
ㄎ	-8978
ㄨ	-8979
世	-8980
业	-8981
个	-8982
交	-8983
介	-8984
仔	-8985
代	-8986
们	-8987
住	-8988
作	-8989
便	-8990
内	-8991
分	-8992
十	-8993
南	-8994
号	-8995
合	-8996
品	-8997
商	-8998
回	-8999
団	-9000
图	-9001
地	-9002
基	-9003
変	-9004
夢	-9005
安	-9006
展	-9007
山	-9008
形	-9009
後	-9010
御	-9011
手	-9012
族	-9013
是	-9014
曜	-9015
李	-9016
松	-9017
止	-9018
気	-9019
水	-9020
流	-9021
点	-9022
理	-9023
生	-9024
用	-9025
田	-9026
発	-9027
皇	-9028
社	-9029
简	-9030
管	-9031
紀	-9032
線	-9033
网	-9034
美	-9035
翻	-9036
者	-9037
聲	-9038
胡	-9039
解	-9040
言	-9041
証	-9042
話	-9043
誌	-9044
译	-9045
请	-9046
责	-9047
身	-9048
載	-9049
近	-9050
達	-9051
重	-9052
金	-9053
鈴	-9054
门	-9055
革	-9056
類	-9057
麦	-9058
黑	-9059
龙	-9060
꧁	-9061
게	-9062
고	-9063
권	-9064
규	-9065
남	-9066
너	-9067
노	-9068
도	-9069
동	-9070
루	-9071
르	-9072
린	-9073
무	-9074
미	-9075
민	-9076
보	-9077
브	-9078
새	-9079
선	-9080
시	-9081
안	-9082
알	-9083
없	-9084
역	-9085
연	-9086
예	-9087
올	-9088
으	-9089
은	-9090
을	-9091
전	-9092
즈	-9093
직	-9094
창	-9095
초	-9096
최	-9097
크	-9098
통	-9099
튜	-9100
트	-9101
화	-9102
훈	-9103
희	-9104
🇰	-9105
🇲	-9106
🇺	-9107
🌙	-9108
🌱	-9109
🌸	-9110
🎧	-9111
👀	-9112
👐	-9113
👷	-9114
💁	-9115
💃	-9116
💅	-9117
💙	-9118
📎	-9119
🔅	-9120
🔌	-9121
🔑	-9122
🔵	-9123
🔶	-9124
🔸	-9125
🗃	-9126
😋	-9127
😎	-9128
😓	-9129
😔	-9130
🙁	-9131
🙃	-9132
🙌	-9133
🚫	-9134
🛫	-9135
🤔	-9136
🤪	-9137
🥰	-9138
🥺	-9139
🦉	-9140
🦸	-9141
¶	-9142
Â	-9143
Ê	-9144
Ì	-9145
Î	-9146
Ô	-9147
ă	-9148
ē	-9149
Ė	-9150
ę	-9151
ě	-9152
Į	-9153
ĸ	-9154
ľ	-9155
ň	-9156
œ	-9157
ř	-9158
ť	-9159
ŧ	-9160
ů	-9161
Ž	-9162
Ɗ	-9163
ǎ	-9164
ǐ	-9165
ɇ	-9166
ɑ	-9167
ɲ	-9168
ɴ	-9169
ʏ	-9170
ʟ	-9171
ː	-9172
˗	-9173
̵	-9174
̸	-9175
͞	-9176
Η	-9177
Κ	-9178
Μ	-9179
Ο	-9180
Τ	-9181
Φ	-9182
Ψ	-9183
ά	-9184
ή	-9185
η	-9186
τ	-9187
υ	-9188
ό	-9189
ύ	-9190
ώ	-9191
Ђ	-9192
҉	-9193
Җ	-9194
Қ	-9195
ҡ	-9196
Ң	-9197
Ұ	-9198
ҷ	-9199
ӄ	-9200
Ӈ	-9201
ӑ	-9202
Ә	-9203
ӝ	-9204
ӯ	-9205
Ա	-9206
Գ	-9207
Ե	-9208
Ո	-9209
դ	-9210
զ	-9211
ը	-9212
ի	-9213
լ	-9214
խ	-9215
յ	-9216
չ	-9217
վ	-9218
ց	-9219
ז	-9220
ט	-9221
מ	-9222
פ	-9223
،	-9224
؟	-9225
إ	-9226
ز	-9227
ض	-9228
َ	-9229
ۇ	-9230
ە	-9231
ं	-9232
इ	-9233
ए	-9234
ज	-9235
र	-9236
़	-9237
ि	-9238
ै	-9239
१	-9240
४	-9241
७	-9242
९	-9243
অ	-9244
ই	-9245
ক	-9246
চ	-9247
ত	-9248
দ	-9249
ব	-9250
র	-9251
ি	-9252
ে	-9253
ਂ	-9254
ਕ	-9255
ਮ	-9256
ਹ	-9257
ਾ	-9258
ਿ	-9259
ੀ	-9260
ੂ	-9261
ੈ	-9262
ੌ	-9263
ட	-9264
ழ	-9265
ா	-9266
ி	-9267
ூ	-9268
ை	-9269
்	-9270
ೋ	-9271
จ	-9272
ต	-9273
ท	-9274
ฝ	-9275
พ	-9276
ฟ	-9277
ภ	-9278
ว	-9279
ษ	-9280
ห	-9281
ฬ	-9282
ั	-9283
า	-9284
ึ	-9285
แ	-9286
ไ	-9287
์	-9288
࿐	-9289
တ	-9290
လ	-9291
သ	-9292
ဦ	-9293
ိ	-9294
ု	-9295
ေ	-9296
္	-9297
်	-9298
ြ	-9299
၊	-9300
ᄆ	-9301
ᄇ	-9302
ᄋ	-9303
ᄒ	-9304
ᅮ	-9305
ᅳ	-9306
ᅵ	-9307
ᐉ	-9308
ᠤ	-9309
ᠫ	-9310
ᠯ	-9311
ᠰ	-9312
ᠱ	-9313
ᠴ	-9314
ᠵ	-9315
ᠹ	-9316
ᠻ	-9317
ᠼ	-9318
᭄	-9319
ᴀ	-9320
ᴄ	-9321
ᴍ	-9322
ᴜ	-9323
ᴠ	-9324
ᵯ	-9325
ṃ	-9326
ẙ	-9327
ầ	-9328
ắ	-9329
ằ	-9330
ễ	-9331
ờ	-9332
ἰ	-9333
‡	-9334
₹	-9335
↖	-9336
↳	-9337
∈	-9338
≫	-9339
⋯	-9340
⌚	-9341
╒	-9342
╘	-9343
╟	-9344
╢	-9345
▍	-9346
▨	-9347
◇	-9348
☂	-9349
☑	-9350
☔	-9351
☕	-9352
☘	-9353
☝	-9354
☤	-9355
♣	-9356
♻	-9357
⚃	-9358
⚕	-9359
⚙	-9360
⚠	-9361
✌	-9362
✍	-9363
✞	-9364
✯	-9365
❂	-9366
❃	-9367
❏	-9368
❖	-9369
➥	-9370
➳	-9371
⿱	-9372
『	-9373
』	-9374
ぎ	-9375
ぬ	-9376
べ	-9377
ほ	-9378
ゆ	-9379
ィ	-9380
カ	-9381
ガ	-9382
ゲ	-9383
ジ	-9384
セ	-9385
ゼ	-9386
タ	-9387
チ	-9388
ツ	-9389
ヅ	-9390
デ	-9391
ニ	-9392
ハ	-9393
バ	-9394
ヒ	-9395
ビ	-9396
ベ	-9397
ペ	-9398
マ	-9399
ミ	-9400
ム	-9401
ラ	-9402
七	-9403
万	-9404
三	-9405
不	-9406
么	-9407
乐	-9408
也	-9409
二	-9410
云	-9411
互	-9412
京	-9413
今	-9414
他	-9415
付	-9416
任	-9417
企	-9418
伊	-9419
休	-9420
众	-9421
位	-9422
何	-9423
你	-9424
使	-9425
係	-9426
保	-9427
修	-9428
俺	-9429
們	-9430
停	-9431
健	-9432
側	-9433
僕	-9434
優	-9435
儿	-9436
元	-9437
光	-9438
克	-9439
免	-9440
八	-9441
公	-9442
册	-9443
再	-9444
冯	-9445
划	-9446
別	-9447
前	-9448
势	-9449
動	-9450
勖	-9451
務	-9452
勧	-9453
包	-9454
化	-9455
北	-9456
医	-9457
午	-9458
华	-9459
博	-9460
卡	-9461
参	-9462
叫	-9463
召	-9464
向	-9465
吗	-9466
君	-9467
员	-9468
周	-9469
味	-9470
命	-9471
和	-9472
唐	-9473
售	-9474
唱	-9475
問	-9476
喵	-9477
器	-9478
國	-9479
圖	-9480
址	-9481
型	-9482
場	-9483
塑	-9484
塚	-9485
士	-9486
声	-9487
夂	-9488
夕	-9489
夜	-9490
太	-9491
奇	-9492
奋	-9493
好	-9494
妹	-9495
委	-9496
姿	-9497
娱	-9498
字	-9499
宅	-9500
宗	-9501
定	-9502
室	-9503
宽	-9504
密	-9505
导	-9506
小	-9507
少	-9508
局	-9509
属	-9510
履	-9511
岩	-9512
峮	-9513
州	-9514
巡	-9515
巣	-9516
工	-9517
帝	-9518
带	-9519
帮	-9520
帯	-9521
年	-9522
庆	-9523
府	-9524
康	-9525
建	-9526
开	-9527
异	-9528
弦	-9529
当	-9530
录	-9531
心	-9532
必	-9533
志	-9534
忘	-9535
忙	-9536
快	-9537
怎	-9538
恩	-9539
悔	-9540
您	-9541
悲	-9542
情	-9543
意	-9544
憎	-9545
戒	-9546
戰	-9547
戸	-9548
打	-9549
払	-9550
抢	-9551
拶	-9552
指	-9553
挨	-9554
探	-9555
掲	-9556
提	-9557
改	-9558
故	-9559
斗	-9560
斥	-9561
斯	-9562
新	-9563
早	-9564
昌	-9565
星	-9566
昴	-9567
普	-9568
暲	-9569
更	-9570
會	-9571
有	-9572
望	-9573
朝	-9574
机	-9575
村	-9576
林	-9577
査	-9578
株	-9579
格	-9580
椰	-9581
楫	-9582
業	-9583
概	-9584
構	-9585
横	-9586
機	-9587
歳	-9588
残	-9589
毛	-9590
民	-9591
气	-9592
永	-9593
沖	-9594
没	-9595
河	-9596
治	-9597
沿	-9598
注	-9599
泰	-9600
洛	-9601
洞	-9602
浙	-9603
浜	-9604
淮	-9605
渡	-9606
湖	-9607
漏	-9608
演	-9609
照	-9610
燼	-9611
牛	-9612
特	-9613
玉	-9614
甘	-9615
町	-9616
画	-9617
留	-9618
登	-9619
百	-9620
盘	-9621
眉	-9622
码	-9623
破	-9624
礦	-9625
祉	-9626
祐	-9627
神	-9628
福	-9629
离	-9630
私	-9631
秘	-9632
稳	-9633
站	-9634
等	-9635
米	-9636
糞	-9637
紇	-9638
給	-9639
红	-9640
线	-9641
考	-9642
能	-9643
腕	-9644
臨	-9645
舞	-9646
航	-9647
良	-9648
華	-9649
葵	-9650
藏	-9651
藤	-9652
蘭	-9653
蛋	-9654
蠟	-9655
衛	-9656
袖	-9657
裏	-9658
製	-9659
西	-9660
要	-9661
見	-9662
視	-9663
親	-9664
见	-9665
誉	-9666
説	-9667
諸	-9668
識	-9669
讃	-9670
计	-9671
让	-9672
记	-9673
语	-9674
读	-9675
课	-9676
豚	-9677
象	-9678
貸	-9679
費	-9680
賃	-9681
資	-9682
賞	-9683
趋	-9684
車	-9685
軒	-9686
輝	-9687
载	-9688
辉	-9689
输	-9690
辺	-9691
込	-9692
运	-9693
还	-9694
迴	-9695
迹	-9696
送	-9697
逢	-9698
連	-9699
進	-9700
過	-9701
選	-9702
郑	-9703
都	-9704
配	-9705
里	-9706
鑑	-9707
钱	-9708
银	-9709
镇	-9710
长	-9711
関	-9712
问	-9713
间	-9714
阒	-9715
际	-9716
陝	-9717
险	-9718
陳	-9719
随	-9720
雑	-9721
電	-9722
面	-9723
韬	-9724
響	-9725
題	-9726
颚	-9727
駅	-9728
马	-9729
鵬	-9730
黄	-9731
龶	-9732
꧂	-9733
가	-9734
갑	-9735
갤	-9736
거	-9737
걸	-9738
것	-9739
겠	-9740
격	-9741
계	-9742
골	-9743
공	-9744
과	-9745
관	-9746
교	-9747
굴	-9748
긋	-9749
긱	-9750
끼	-9751
단	-9752
달	-9753
답	-9754
더	-9755
돈	-9756
둥	-9757
딩	-9758
떻	-9759
또	-9760
뚜	-9761
뚝	-9762
랑	-9763
래	-9764
랫	-9765
러	-9766
렘	-9767
려	-9768
룬	-9769
룰	-9770
류	-9771
를	-9772
림	-9773
릿	-9774
마	-9775
만	-9776
매	-9777
먹	-9778
메	-9779
며	-9780
명	-9781
모	-9782
몽	-9783
문	-9784
뭘	-9785
뮤	-9786
반	-9787
밥	-9788
백	-9789
밴	-9790
버	-9791
번	-9792
베	-9793
벼	-9794
변	-9795
병	-9796
불	-9797
뷔	-9798
븐	-9799
블	-9800
빈	-9801
뻐	-9802
뿌	-9803
상	-9804
생	-9805
석	-9806
설	-9807
섭	-9808
성	-9809
송	-9810
숙	-9811
슨	-9812
습	-9813
승	-9814
식	-9815
실	-9816
싼	-9817
쌍	-9818
양	-9819
업	-9820
에	-9821
엘	-9822
엥	-9823
여	-9824
열	-9825
옷	-9826
와	-9827
왔	-9828
외	-9829
용	-9830
울	-9831
웆	-9832
워	-9833
월	-9834
윤	-9835
율	-9836
응	-9837
일	-9838
있	-9839
잘	-9840
재	-9841
적	-9842
조	-9843
죄	-9844
죻	-9845
진	-9846
짓	-9847
짱	-9848
찌	-9849
찡	-9850
차	-9851
찾	-9852
채	-9853
청	-9854
체	-9855
침	-9856
칩	-9857
칫	-9858
카	-9859
커	-9860
케	-9861
코	-9862
콕	-9863
콧	-9864
키	-9865
탄	-9866
탓	-9867
탠	-9868
터	-9869
틴	-9870
팅	-9871
팝	-9872
퍼	-9873
펄	-9874
평	-9875
폰	-9876
푸	-9877
플	-9878
픽	-9879
학	-9880
항	-9881
햄	-9882
혀	-9883
혜	-9884
호	-9885
홈	-9886
홍	-9887
횒	-9888
횗	-9889
횜	-9890
흐	-9891
흥	-9892
￼	-9893
𖢘	-9894
🆕	-9895
🇫	-9896
🇳	-9897
🇸	-9898
🇽	-9899
🌃	-9900
🌄	-9901
🌅	-9902
🌍	-9903
🌐	-9904
🌡	-9905
🌳	-9906
🌻	-9907
🍀	-9908
🍁	-9909
🍇	-9910
🍑	-9911
🍞	-9912
🍩	-9913
🍯	-9914
🍰	-9915
🍱	-9916
🍹	-9917
🍽	-9918
🍾	-9919
🎀	-9920
🎄	-9921
🎬	-9922
🎶	-9923
🏆	-9924
🏋	-9925
🏣	-9926
🏦	-9927
🏼	-9928
👑	-9929
👦	-9930
👧	-9931
👽	-9932
💀	-9933
💉	-9934
💋	-9935
💐	-9936
💔	-9937
💕	-9938
💝	-9939
💡	-9940
💢	-9941
💩	-9942
💪	-9943
💸	-9944
💻	-9945
💼	-9946
📁	-9947
📅	-9948
📕	-9949
📖	-9950
📞	-9951
📣	-9952
📦	-9953
📱	-9954
📲	-9955
📷	-9956
🔄	-9957
🔹	-9958
🕑	-9959
🕘	-9960
🕯	-9961
🖐	-9962
🖤	-9963
🗓	-9964
😄	-9965
😈	-9966
😐	-9967
😑	-9968
😡	-9969
😥	-9970
😩	-9971
😫	-9972
😮	-9973
😰	-9974
😲	-9975
😶	-9976
😷	-9977
🙆	-9978
🙋	-9979
🙎	-9980
🚀	-9981
🚘	-9982
🚩	-9983
🛍	-9984
🛑	-9985
🛒	-9986
🛡	-9987
🤍	-9988
🤓	-9989
🤡	-9990
🤫	-9991
🥄	-9992
🦊	-9993
🦋	-9994
🧤	-9995
🧨	-9996
