<unk>	0
<s>	0
</s>	0
▁а	-0
▁б	-1
▁х	-2
▁н	-3
▁т	-4
▁г	-5
ий	-6
▁э	-7
▁.	-8
▁д	-9
▁л	-10
▁о	-11
▁с	-12
аа	-13
ай	-14
▁у	-15
ээ	-16
ар	-17
▁ү	-18
ан	-19
▁ө	-20
▁м	-21
▁ий	-22
ол	-23
▁р	-24
эг	-25
▁и	-26
▁з	-27
аг	-28
▁ай	-29
▁ч	-30
эр	-31
үү	-32
уу	-33
үй	-34
эн	-35
▁ж	-36
ал	-37
▁ийн	-38
▁,	-39
▁бай	-40
▁ы	-41
▁бол	-42
▁ш	-43
▁нь	-44
эл	-45
он	-46
▁гэ	-47
на	-48
ин	-49
▁я	-50
оо	-51
ил	-52
▁хү	-53
▁уу	-54
өр	-55
▁Т	-56
▁-	-57
▁аа	-58
▁гүй	-59
▁Х	-60
▁ол	-61
▁ю	-62
эд	-63
нэ	-64
өө	-65
▁"	-66
гаа	-67
га	-68
▁Б	-69
▁ал	-70
▁ын	-71
▁үү	-72
▁ц	-73
▁байна	-74
ад	-75
▁в	-76
эй	-77
▁эр	-78
▁ор	-79
ах	-80
▁Э	-81
нг	-82
▁ар	-83
▁юм	-84
▁сан	-85
▁ха	-86
ийн	-87
▁ийг	-88
нд	-89
▁ул	-90
▁аж	-91
▁ээ	-92
▁ах	-93
ээр	-94
▁1	-95
▁М	-96
ой	-97
▁би	-98
▁А	-99
сан	-100
▁й	-101
ын	-102
өн	-103
▁тэй	-104
▁айгаа	-105
▁ав	-106
▁эх	-107
гэ	-108
▁ам	-109
▁0	-110
▁тай	-111
ог	-112
▁бү	-113
▁гэж	-114
▁2	-115
▁ху	-116
ох	-117
эх	-118
▁та	-119
ний	-120
▁ан	-121
▁хэр	-122
чи	-123
▁ний	-124
ам	-125
▁ту	-126
▁ыг	-127
▁эд	-128
▁гар	-129
▁хо	-130
уул	-131
▁өр	-132
иг	-133
аар	-134
▁Г	-135
эм	-136
▁нэг	-137
▁хий	-138
▁өг	-139
▁лт	-140
▁Н	-141
▁өөр	-142
од	-143
ур	-144
өл	-145
▁ур	-146
ас	-147
ор	-148
▁мэд	-149
▁уул	-150
▁эл	-151
го	-152
▁С	-153
▁У	-154
▁гд	-155
▁ас	-156
▁байх	-157
▁энэ	-158
▁хэрэг	-159
сэн	-160
гүй	-161
▁ир	-162
▁хар	-163
үүл	-164
▁к	-165
▁е	-166
▁:	-167
▁ээр	-168
▁сон	-169
▁Д	-170
▁ажил	-171
даг	-172
йл	-173
▁дээ	-174
▁аар	-175
▁Энэ	-176
▁О	-177
▁айсан	-178
ны	-179
▁даг	-180
▁га	-181
ом	-182
▁хүн	-183
ьд	-184
▁ны	-185
▁нд	-186
▁сай	-187
но	-188
▁яв	-189
▁ил	-190
▁сэн	-191
▁З	-192
өг	-193
ла	-194
той	-195
▁бу	-196
эв	-197
ир	-198
ыг	-199
▁И	-200
▁аас	-201
▁эг	-202
▁хэл	-203
▁ад	-204
▁Ө	-205
▁онг	-206
▁даа	-207
▁аг	-208
эт	-209
▁лаг	-210
▁их	-211
▁жил	-212
ээд	-213
▁ууд	-214
гу	-215
▁эм	-216
▁үз	-217
▁үр	-218
▁ид	-219
▁Би	-220
▁хө	-221
▁хам	-222
▁Ү	-223
▁ма	-224
ууд	-225
▁гаа	-226
▁ох	-227
өх	-228
дэг	-229
▁дэг	-230
лэ	-231
▁бод	-232
▁дээр	-233
▁чи	-234
▁зүй	-235
▁ба	-236
▁үйл	-237
▁ээс	-238
▁уд	-239
▁болно	-240
▁үе	-241
▁улс	-242
▁йн	-243
өв	-244
▁онгол	-245
▁дар	-246
▁од	-247
▁айдаг	-248
жи	-249
▁лг	-250
▁вэ	-251
▁өд	-252
▁юу	-253
▁да	-254
▁чад	-255
▁өм	-256
▁мж	-257
▁зүйл	-258
▁шүү	-259
▁хув	-260
▁3	-261
▁цаг	-262
▁хан	-263
▁асуу	-264
мар	-265
сон	-266
▁өв	-267
▁боло	-268
▁тан	-269
мүү	-270
▁он	-271
им	-272
▁болох	-273
хай	-274
▁9	-275
▁мин	-276
ха	-277
▁гэсэн	-278
аан	-279
▁бүр	-280
▁ё	-281
▁үүд	-282
▁!	-283
▁лд	-284
▁үг	-285
▁?	-286
▁хүмүү	-287
▁хүр	-288
▁яр	-289
▁үл	-290
▁олон	-291
▁өө	-292
▁5	-293
ийг	-294
нө	-295
▁хэм	-296
▁са	-297
▁тэр	-298
▁газ	-299
▁дал	-300
▁эс	-301
▁..	-302
▁су	-303
▁хэ	-304
ёр	-305
та	-306
▁эрх	-307
▁ог	-308
▁...	-309
▁ямар	-310
▁ер	-311
▁оо	-312
▁сар	-313
▁ёс	-314
сэ	-315
иу	-316
ээс	-317
▁нийг	-318
▁Я	-319
▁үүл	-320
оор	-321
▁4	-322
▁на	-323
да	-324
▁аш	-325
үүх	-326
▁бүх	-327
▁маш	-328
▁нг	-329
▁биш	-330
гал	-331
▁аан	-332
дал	-333
тай	-334
▁гэр	-335
▁амьд	-336
▁нар	-337
▁п	-338
▁Ш	-339
▁ду	-340
▁Е	-341
▁бар	-342
▁ажилл	-343
▁аад	-344
▁чин	-345
аас	-346
тг	-347
ийм	-348
▁өл	-349
энд	-350
▁баг	-351
▁гч	-352
▁нэ	-353
нгө	-354
▁айгу	-355
▁Ц	-356
▁хоёр	-357
▁шиг	-358
▁8	-359
▁гэдэг	-360
ло	-361
▁то	-362
тгэ	-363
▁хамг	-364
▁чих	-365
▁гийн	-366
вэл	-367
лаа	-368
▁бид	-369
▁суу	-370
▁мэдээ	-371
▁сайн	-372
▁олсон	-373
▁болон	-374
▁(	-375
охи	-376
эж	-377
▁сур	-378
▁хэн	-379
▁Тэр	-380
▁ая	-381
өлөө	-382
▁дах	-383
▁гээр	-384
▁6	-385
▁шин	-386
▁Ч	-387
▁но	-388
▁ши	-389
▁дү	-390
▁ээд	-391
▁жээ	-392
▁лаа	-393
▁Ж	-394
хан	-395
ро	-396
▁7	-397
дээ	-398
▁)	-399
хий	-400
▁Та	-401
▁үнэ	-402
ер	-403
▁энд	-404
▁гэх	-405
лаг	-406
▁тав	-407
▁анх	-408
▁ь	-409
▁лага	-410
▁дуу	-411
▁мө	-412
▁нэр	-413
▁дог	-414
▁хийх	-415
▁лээ	-416
үүд	-417
▁хүс	-418
▁рх	-419
▁Хар	-420
▁ашиг	-421
▁бус	-422
анай	-423
этгэ	-424
▁ус	-425
▁тог	-426
▁лэг	-427
▁эн	-428
▁К	-429
дв	-430
▁тул	-431
▁ёстой	-432
▁дараа	-433
нөө	-434
▁нас	-435
▁сөн	-436
▁эв	-437
▁өмнө	-438
▁ин	-439
энэ	-440
жэ	-441
▁айр	-442
▁хол	-443
▁лөг	-444
▁өөрий	-445
дл	-446
бар	-447
▁жи	-448
▁тус	-449
▁байж	-450
гац	-451
юу	-452
▁алт	-453
▁чинь	-454
бо	-455
▁зар	-456
аад	-457
тэй	-458
▁хугац	-459
▁ший	-460
▁анд	-461
▁/	-462
▁үед	-463
▁төр	-464
▁илүү	-465
▁болж	-466
▁авах	-467
▁хи	-468
▁одоо	-469
▁нам	-470
▁онд	-471
чин	-472
▁ат	-473
▁алб	-474
үүхд	-475
▁дэ	-476
▁ээл	-477
▁ич	-478
▁ун	-479
ва	-480
▁алаар	-481
▁зөв	-482
ав	-483
▁өдөр	-484
▁Харин	-485
▁газар	-486
▁эж	-487
▁өгөө	-488
▁ну	-489
▁амьдр	-490
яр	-491
▁хэмжэ	-492
аж	-493
▁той	-494
▁оны	-495
▁гээд	-496
▁сэтгэ	-497
▁тухай	-498
ис	-499
▁ша	-500
▁шаар	-501
▁том	-502
▁со	-503
▁тал	-504
▁холбо	-505
▁үүний	-506
са	-507
▁болго	-508
▁агаа	-509
тээ	-510
▁шаард	-511
▁най	-512
▁лэл	-513
▁ги	-514
▁гарга	-515
▁чл	-516
▁бас	-517
алт	-518
уй	-519
▁хувьд	-520
▁ийм	-521
▁хийж	-522
▁тод	-523
▁рч	-524
▁орон	-525
▁до	-526
гэл	-527
▁өс	-528
үүр	-529
эс	-530
▁нөх	-531
▁Ер	-532
▁ойл	-533
ра	-534
ши	-535
▁шал	-536
▁ут	-537
▁буй	-538
▁гэд	-539
▁удаа	-540
чир	-541
▁нх	-542
▁сары	-543
▁арга	-544
▁үс	-545
илц	-546
▁гөө	-547
▁Бид	-548
▁рт	-549
өнх	-550
вар	-551
▁e	-552
▁авч	-553
▁өгөөд	-554
▁сн	-555
▁лэ	-556
▁дур	-557
▁Тийм	-558
▁лгээ	-559
▁түү	-560
▁ирг	-561
▁эхдээ	-562
▁өх	-563
▁ашигл	-564
▁оор	-565
▁мжтой	-566
▁гэдг	-567
▁дл	-568
▁нээс	-569
агд	-570
▁Л	-571
охио	-572
дэ	-573
▁ойлго	-574
▁тү	-575
▁ой	-576
▁лл	-577
▁оруул	-578
▁i	-579
оод	-580
гд	-581
▁ааг	-582
жээ	-583
▁s	-584
анц	-585
▁ком	-586
▁зур	-587
▁рг	-588
▁яри	-589
▁ф	-590
вал	-591
▁баяр	-592
▁сайха	-593
▁лог	-594
▁Үү	-595
▁йл	-596
▁йр	-597
▁Од	-598
▁минь	-599
▁хүүхд	-600
▁АН	-601
▁нийт	-602
▁шинэ	-603
▁сонго	-604
▁рал	-605
▁чадах	-606
сөн	-607
▁үүх	-608
ик	-609
▁тэд	-610
▁алд	-611
нгөр	-612
▁нэгэн	-613
▁бий	-614
▁айх	-615
ов	-616
▁орол	-617
▁идний	-618
▁комп	-619
▁хүний	-620
▁газр	-621
▁Одоо	-622
▁зор	-623
▁дөр	-624
▁от	-625
▁бил	-626
▁хаа	-627
▁огт	-628
▁гаар	-629
▁ажл	-630
▁Ба	-631
▁үнд	-632
▁лагаа	-633
шүү	-634
▁бэ	-635
▁миний	-636
▁санал	-637
▁анг	-638
▁хэмээ	-639
▁тогло	-640
▁улсын	-641
▁лж	-642
▁өрийн	-643
▁хя	-644
▁ст	-645
▁сана	-646
▁хэс	-647
▁хүнд	-648
▁агаад	-649
▁йг	-650
▁тодо	-651
▁лс	-652
хөн	-653
▁за	-654
▁руу	-655
ээл	-656
▁үн	-657
▁ял	-658
▁гишүү	-659
▁П	-660
▁эдэн	-661
хэ	-662
▁оног	-663
лө	-664
▁бат	-665
▁нэм	-666
▁Хү	-667
ээн	-668
▁мөнгө	-669
▁рхой	-670
▁тоо	-671
хи	-672
▁билээ	-673
▁мэдэх	-674
▁лхий	-675
▁өнд	-676
▁M	-677
чих	-678
▁ие	-679
▁өнөө	-680
▁айлаа	-681
▁тө	-682
▁лал	-683
▁хүү	-684
▁ярь	-685
▁санаа	-686
▁энг	-687
▁төлөө	-688
▁олд	-689
▁чу	-690
▁лөгч	-691
ууль	-692
▁аагүй	-693
▁S	-694
цэ	-695
▁хай	-696
▁10	-697
▁уч	-698
▁эхэл	-699
▁айл	-700
▁дав	-701
▁сү	-702
▁ух	-703
▁агч	-704
▁гай	-705
▁дарга	-706
▁мөн	-707
▁үүр	-708
▁гээ	-709
▁болов	-710
▁др	-711
▁хэв	-712
▁бага	-713
▁тулд	-714
▁доо	-715
эхүү	-716
▁иргэд	-717
▁Мин	-718
амж	-719
уур	-720
▁Хэр	-721
уун	-722
▁айдал	-723
▁үх	-724
▁ртэл	-725
▁Мөн	-726
▁хэрхэ	-727
▁өнгөр	-728
ли	-729
▁үүхэд	-730
лоо	-731
▁Миний	-732
▁өвхөн	-733
▁аз	-734
▁эсвэл	-735
▁зал	-736
▁аанд	-737
▁бари	-738
▁ард	-739
▁оролц	-740
▁тийм	-741
▁a	-742
▁эхл	-743
ээж	-744
▁дэм	-745
▁албан	-746
ож	-747
▁ри	-748
адад	-749
▁маан	-750
▁таны	-751
▁дахь	-752
▁ца	-753
▁урхан	-754
▁o	-755
▁ганц	-756
▁уллаг	-757
▁v	-758
▁Ерөнх	-759
▁эрг	-760
▁маань	-761
▁байдл	-762
▁хор	-763
▁охи	-764
▁өөс	-765
▁Тэд	-766
▁тохио	-767
эргэ	-768
▁ээг	-769
▁дахин	-770
▁эгээд	-771
▁эмэг	-772
оос	-773
▁манай	-774
▁учр	-775
▁гур	-776
▁үйлдв	-777
▁ос	-778
ирх	-779
▁оос	-780
▁наас	-781
▁ув	-782
▁бэл	-783
ос	-784
▁машин	-785
▁ме	-786
▁хой	-787
хайн	-788
▁лийн	-789
элт	-790
▁маг	-791
ино	-792
зээ	-793
▁ирсэн	-794
▁далда	-795
то	-796
▁Р	-797
▁дол	-798
▁гол	-799
лэг	-800
▁уг	-801
▁ана	-802
▁хамт	-803
▁сургу	-804
ян	-805
нх	-806
ус	-807
▁нц	-808
▁мгаа	-809
▁мгаал	-810
▁үзүүл	-811
▁агд	-812
▁A	-813
▁үй	-814
иа	-815
▁гэнэ	-816
▁хууль	-817
▁ла	-818
▁лсан	-819
▁нирх	-820
▁Манай	-821
▁үргэл	-822
▁Ий	-823
▁итгэ	-824
▁рд	-825
▁чух	-826
▁сонс	-827
▁лоо	-828
▁Тан	-829
▁чухал	-830
▁тэм	-831
▁дугаа	-832
▁Ийм	-833
▁эц	-834
▁тур	-835
▁аараа	-836
▁дг	-837
гө	-838
тад	-839
▁бүгд	-840
▁из	-841
▁дунд	-842
▁чууд	-843
▁анхаа	-844
эрг	-845
чид	-846
▁аль	-847
▁рө	-848
▁хөд	-849
▁шийдв	-850
▁жүүл	-851
▁мөр	-852
▁гу	-853
▁яг	-854
▁эрлэ	-855
▁чиг	-856
▁Өөр	-857
▁В	-858
▁C	-859
▁УИ	-860
▁өөрөө	-861
не	-862
▁ирэх	-863
▁олг	-864
▁хувь	-865
▁ханд	-866
▁чүүд	-867
▁шу	-868
▁P	-869
тэ	-870
▁хийсэ	-871
▁ном	-872
▁хөг	-873
▁тэн	-874
▁өндөр	-875
▁ач	-876
▁учир	-877
▁гад	-878
▁ээрээ	-879
▁дот	-880
▁хойш	-881
▁m	-882
▁биз	-883
▁авсан	-884
▁ханга	-885
тр	-886
▁сайд	-887
▁зах	-888
▁эз	-889
▁лб	-890
▁го	-891
▁хэсэг	-892
▁хээр	-893
▁хэзээ	-894
▁ахад	-895
▁олох	-896
▁Өнөө	-897
▁хамаа	-898
▁өлөв	-899
▁зо	-900
▁зарим	-901
▁Хэрэв	-902
▁жл	-903
▁ов	-904
▁оод	-905
▁лбар	-906
▁мэт	-907
▁УИХ	-908
▁цу	-909
▁орж	-910
▁үч	-911
ьц	-912
▁залуу	-913
▁хариу	-914
▁чан	-915
▁хүргэ	-916
▁хот	-917
▁бусад	-918
▁ээж	-919
гай	-920
▁му	-921
▁амжи	-922
▁уулз	-923
▁айм	-924
▁гарч	-925
▁байв	-926
▁бие	-927
▁Хо	-928
▁дор	-929
▁Бү	-930
▁уур	-931
▁өлб	-932
▁Нэг	-933
▁өлбөр	-934
өлт	-935
лээ	-936
▁ээгүй	-937
▁бодож	-938
▁ож	-939
▁өгөх	-940
аал	-941
▁үгээр	-942
чл	-943
▁те	-944
▁лтай	-945
жл	-946
▁АНУ	-947
▁хээ	-948
▁сүүл	-949
▁T	-950
▁гоор	-951
▁ани	-952
▁ви	-953
ирд	-954
▁ом	-955
▁ули	-956
▁лан	-957
▁надад	-958
▁бүтээ	-959
жиг	-960
▁_	-961
▁уули	-962
▁яаж	-963
▁Чи	-964
▁олом	-965
▁дуус	-966
▁Ф	-967
имт	-968
▁огтоо	-969
▁инг	-970
▁зам	-971
▁оломж	-972
▁үйлчи	-973
▁нууд	-974
▁эдний	-975
▁эрэг	-976
▁эрээр	-977
▁өрө	-978
▁явуул	-979
▁n	-980
▁шийд	-981
▁сая	-982
айн	-983
▁зураг	-984
▁эний	-985
▁амьда	-986
▁хон	-987
▁тгэ	-988
▁кино	-989
▁шалга	-990
▁хур	-991
▁ли	-992
▁олж	-993
чим	-994
▁турш	-995
▁Түү	-996
▁бур	-997
▁чанар	-998
▁ъ	-999
▁аат	-1000
эвч	-1001
▁тавь	-1002
цоо	-1003
▁ухайн	-1004
лог	-1005
▁намай	-1006
▁t	-1007
▁дүр	-1008
▁амь	-1009
▁сны	-1010
гээ	-1011
▁өдр	-1012
▁айхад	-1013
▁B	-1014
▁олго	-1015
▁охоор	-1016
▁арил	-1017
▁удирд	-1018
▁олб	-1019
▁Хя	-1020
▁тави	-1021
▁лтэй	-1022
▁лдол	-1023
▁охин	-1024
цө	-1025
▁гал	-1026
▁нэмэ	-1027
▁Хятад	-1028
▁нөлөө	-1029
▁Ма	-1030
▁мар	-1031
▁хэлж	-1032
▁I	-1033
▁дөө	-1034
▁өрөө	-1035
▁b	-1036
▁түүх	-1037
▁ргал	-1038
▁угаа	-1039
▁чам	-1040
▁Зас	-1041
▁муу	-1042
▁отой	-1043
▁лч	-1044
▁яах	-1045
▁явж	-1046
▁зориу	-1047
те	-1048
▁эргэ	-1049
▁үгүй	-1050
▁дэхүү	-1051
▁ян	-1052
▁Засг	-1053
▁ажлын	-1054
лон	-1055
▁өгс	-1056
▁адил	-1057
сд	-1058
▁дэв	-1059
▁лэх	-1060
▁нөө	-1061
▁зай	-1062
▁суур	-1063
▁асг	-1064
▁хөдөл	-1065
▁Таны	-1066
шин	-1067
▁шалтг	-1068
▁N	-1069
▁магад	-1070
▁элхий	-1071
▁вал	-1072
▁мэргэ	-1073
▁алга	-1074
▁рил	-1075
▁анги	-1076
этэл	-1077
▁Гэтэл	-1078
▁ье	-1079
▁мал	-1080
▁Тэг	-1081
▁эгч	-1082
▁илэр	-1083
▁газры	-1084
▁иг	-1085
▁тээ	-1086
▁мэнд	-1087
▁найз	-1088
▁аримт	-1089
▁үндэс	-1090
▁эмдэг	-1091
▁олдог	-1092
▁буруу	-1093
▁сонгу	-1094
таг	-1095
▁Ха	-1096
▁хэд	-1097
▁өвш	-1098
▁төрл	-1099
тер	-1100
▁r	-1101
▁олоод	-1102
▁Их	-1103
▁зу	-1104
нес	-1105
▁длыг	-1106
охир	-1107
▁ргаа	-1108
ит	-1109
▁рах	-1110
▁лсын	-1111
▁явах	-1112
▁дын	-1113
▁өвшө	-1114
▁үтээ	-1115
▁дотор	-1116
▁изнес	-1117
▁үүс	-1118
▁анилц	-1119
араа	-1120
▁D	-1121
▁нөхцө	-1122
▁рөнгө	-1123
▁гү	-1124
▁нуу	-1125
▁Бат	-1126
▁вэл	-1127
луу	-1128
▁хийл	-1129
▁өөрсд	-1130
АН	-1131
▁бүрэн	-1132
▁аюу	-1133
▁судал	-1134
▁мэдэ	-1135
▁эрүүл	-1136
▁аюул	-1137
▁үсгүй	-1138
▁үлээн	-1139
▁арай	-1140
▁риу	-1141
▁цаа	-1142
элц	-1143
▁элэлц	-1144
▁ирж	-1145
▁гурва	-1146
▁аатар	-1147
жил	-1148
▁c	-1149
on	-1150
▁олгон	-1151
▁;	-1152
▁хайр	-1153
▁эгвэл	-1154
▁аарай	-1155
▁хэлэх	-1156
▁эдийн	-1157
▁сл	-1158
▁асан	-1159
яа	-1160
▁лэгч	-1161
▁асаг	-1162
сөл	-1163
▁харж	-1164
ут	-1165
▁өгсөн	-1166
▁айвал	-1167
▁сол	-1168
▁үеийн	-1169
▁үм	-1170
ван	-1171
▁*	-1172
▁итг	-1173
▁G	-1174
▁цо	-1175
▁гоо	-1176
▁олов	-1177
▁араа	-1178
цаа	-1179
▁Өм	-1180
▁охион	-1181
▁хоор	-1182
▁жуул	-1183
▁үтээг	-1184
шээ	-1185
▁Ямар	-1186
▁урд	-1187
▁буюу	-1188
▁H	-1189
▁төн	-1190
▁үлд	-1191
▁айн	-1192
▁про	-1193
▁хүрээ	-1194
▁гарах	-1195
▁өхө	-1196
▁цэ	-1197
▁дуул	-1198
▁лөгөө	-1199
▁гр	-1200
▁танд	-1201
▁Гэвч	-1202
▁эхэд	-1203
▁эдээж	-1204
▁мт	-1205
▁рш	-1206
▁Хүн	-1207
▁лэн	-1208
▁долоо	-1209
▁аав	-1210
▁амар	-1211
▁маар	-1212
▁Тэгэх	-1213
▁гаруй	-1214
▁орох	-1215
▁хоол	-1216
▁Инг	-1217
▁ухаан	-1218
чиж	-1219
өгөө	-1220
▁нутаг	-1221
▁нутг	-1222
▁харин	-1223
▁зэр	-1224
▁F	-1225
▁эрв	-1226
▁зэрэг	-1227
▁оч	-1228
▁ичээл	-1229
▁нү	-1230
▁нхөө	-1231
▁лын	-1232
▁адаг	-1233
▁Оро	-1234
нт	-1235
▁l	-1236
▁даад	-1237
▁оллоо	-1238
▁хүлээ	-1239
▁хооро	-1240
▁бүү	-1241
▁уудыг	-1242
▁Олон	-1243
▁Орос	-1244
▁зохи	-1245
▁ойр	-1246
in	-1247
ar	-1248
энх	-1249
▁үнэн	-1250
▁гаан	-1251
▁улсад	-1252
▁мян	-1253
▁ни	-1254
▁тат	-1255
▁бээр	-1256
▁Ар	-1257
▁тн	-1258
▁төв	-1259
▁уль	-1260
▁ярилц	-1261
▁минут	-1262
▁нирхо	-1263
▁ингэж	-1264
▁олжээ	-1265
▁арла	-1266
мж	-1267
▁анк	-1268
▁олбоо	-1269
▁мянга	-1270
▁Ю	-1271
▁сп	-1272
▁оловч	-1273
▁олтой	-1274
▁дэмж	-1275
▁[	-1276
▁йлбар	-1277
▁20	-1278
▁цэв	-1279
хаа	-1280
▁гэвэл	-1281
▁чадва	-1282
▁лө	-1283
▁вс	-1284
▁явдал	-1285
▁глоо	-1286
▁аасаа	-1287
▁глоом	-1288
ца	-1289
▁дүн	-1290
▁w	-1291
▁тга	-1292
▁дамж	-1293
▁төл	-1294
нөх	-1295
▁хэц	-1296
▁зөвлө	-1297
дө	-1298
▁ерөнх	-1299
▁g	-1300
▁өөд	-1301
▁эрвээ	-1302
▁Ул	-1303
▁рүү	-1304
▁батал	-1305
▁гэл	-1306
▁гэм	-1307
▁авна	-1308
▁сард	-1309
даа	-1310
▁тогт	-1311
▁шууд	-1312
or	-1313
▁барь	-1314
▁R	-1315
▁үзэх	-1316
▁хөт	-1317
▁Жи	-1318
▁Энх	-1319
▁уш	-1320
▁Зар	-1321
▁сийн	-1322
▁сайт	-1323
▁Хам	-1324
▁сал	-1325
▁өгч	-1326
▁ярьж	-1327
▁хэцүү	-1328
уулг	-1329
▁Уг	-1330
▁er	-1331
▁гчид	-1332
▁члөлт	-1333
▁нгээд	-1334
▁рл	-1335
an	-1336
▁хгүй	-1337
▁гдсэн	-1338
лөө	-1339
▁Хамг	-1340
▁ъя	-1341
▁хэт	-1342
▁хний	-1343
▁дагуу	-1344
▁эргүү	-1345
▁агвар	-1346
▁өрсөн	-1347
▁хэрг	-1348
▁мер	-1349
▁Зарим	-1350
▁тохир	-1351
▁не	-1352
▁гайха	-1353
▁унш	-1354
▁дгал	-1355
▁харьц	-1356
▁#	-1357
▁E	-1358
▁эрч	-1359
▁авар	-1360
▁шат	-1361
▁нээ	-1362
▁эдий	-1363
▁Дараа	-1364
нуу	-1365
▁алх	-1366
▁гэхэд	-1367
▁лийг	-1368
рэг	-1369
▁лгүй	-1370
▁саар	-1371
▁цах	-1372
▁араах	-1373
▁гүйцэ	-1374
орт	-1375
бө	-1376
▁лттай	-1377
▁]	-1378
▁лах	-1379
▁өргө	-1380
▁дө	-1381
сгал	-1382
▁чиглэ	-1383
▁Эр	-1384
▁нүүр	-1385
▁гт	-1386
▁нутги	-1387
▁p	-1388
рэ	-1389
лу	-1390
▁зохио	-1391
▁Ху	-1392
▁алда	-1393
▁эгд	-1394
▁L	-1395
▁зүйлс	-1396
▁хороо	-1397
▁ле	-1398
▁гаад	-1399
ба	-1400
▁ээсээ	-1401
▁дага	-1402
▁анхны	-1403
▁Үнэ	-1404
▁Ев	-1405
▁үлээж	-1406
▁гэв	-1407
▁төө	-1408
▁мжгүй	-1409
лага	-1410
▁зов	-1411
▁ажилд	-1412
ул	-1413
роп	-1414
▁мерик	-1415
▁идэнд	-1416
▁жаа	-1417
Би	-1418
▁унши	-1419
▁оно	-1420
▁хөл	-1421
▁айжээ	-1422
▁W	-1423
▁багш	-1424
▁дэмжи	-1425
▁аавал	-1426
▁Бүх	-1427
▁эсрэг	-1428
▁алын	-1429
иал	-1430
▁цааш	-1431
▁руул	-1432
▁гасан	-1433
▁гдсан	-1434
▁дгээр	-1435
▁элб	-1436
▁жа	-1437
▁ран	-1438
▁им	-1439
дөг	-1440
▁отын	-1441
▁дэл	-1442
▁шил	-1443
er	-1444
▁зү	-1445
▁ахир	-1446
▁ураг	-1447
▁ярих	-1448
▁эмч	-1449
▁лгой	-1450
▁цэц	-1451
▁мо	-1452
▁сис	-1453
▁үзэж	-1454
▁утлуу	-1455
▁Үнд	-1456
▁үртгэ	-1457
▁увийн	-1458
▁унт	-1459
▁бүхэн	-1460
▁элтгэ	-1461
▁дээд	-1462
нэр	-1463
▁луул	-1464
чиг	-1465
▁систе	-1466
▁чөлөө	-1467
▁уулж	-1468
▁лдолд	-1469
▁кс	-1470
▁снээр	-1471
▁дээрх	-1472
▁бэр	-1473
▁ульд	-1474
▁орны	-1475
▁шүүх	-1476
▁өрөл	-1477
▁олохы	-1478
▁ик	-1479
▁өдрий	-1480
▁ре	-1481
▁хүчин	-1482
▁рагд	-1483
▁Ний	-1484
▁ээрэй	-1485
▁ахаар	-1486
инэ	-1487
▁олчих	-1488
▁аал	-1489
рөг	-1490
▁Хүүхд	-1491
▁өгрөг	-1492
▁дөг	-1493
▁Са	-1494
▁онго	-1495
▁уна	-1496
▁се	-1497
▁За	-1498
▁Шинэ	-1499
▁ес	-1500
▁харах	-1501
▁инээ	-1502
▁орчин	-1503
▁тусга	-1504
▁рдэнэ	-1505
▁шгүй	-1506
▁бараг	-1507
▁ср	-1508
до	-1509
▁шинж	-1510
▁үмэн	-1511
▁оё	-1512
▁үрх	-1513
▁зург	-1514
▁тань	-1515
▁лдэг	-1516
ма	-1517
▁u	-1518
▁ргалт	-1519
▁зог	-1520
▁Өөрий	-1521
▁МАН	-1522
пон	-1523
▁элэн	-1524
▁хад	-1525
▁игч	-1526
▁төнц	-1527
▁Европ	-1528
▁ган	-1529
▁лого	-1530
▁нө	-1531
▁урдан	-1532
▁зогс	-1533
▁гадна	-1534
▁ста	-1535
▁Учир	-1536
▁Япон	-1537
▁эй	-1538
▁эсэх	-1539
▁аял	-1540
▁уудас	-1541
▁рь	-1542
▁үд	-1543
▁рай	-1544
▁рөө	-1545
▁тэг	-1546
▁орсон	-1547
oo	-1548
▁охир	-1549
▁Улс	-1550
▁лгэ	-1551
▁өрв	-1552
▁гө	-1553
▁ра	-1554
▁цагт	-1555
чээ	-1556
▁лүүл	-1557
▁амьт	-1558
▁нэв	-1559
▁йртай	-1560
▁Үүний	-1561
▁амын	-1562
▁аймг	-1563
▁нс	-1564
▁уучин	-1565
▁архи	-1566
▁хичээ	-1567
▁нэхүү	-1568
▁бич	-1569
▁дэх	-1570
▁бүхий	-1571
▁чадна	-1572
▁30	-1573
▁иргэн	-1574
▁лэж	-1575
▁оноос	-1576
▁амай	-1577
▁·	-1578
▁буур	-1579
▁яриа	-1580
▁дүү	-1581
▁өж	-1582
▁грам	-1583
▁рэг	-1584
▁Ам	-1585
▁алтай	-1586
▁рсан	-1587
▁гөөн	-1588
▁вол	-1589
▁ирээд	-1590
ага	-1591
▁хаана	-1592
▁үүрэг	-1593
▁амайг	-1594
алд	-1595
▁нөхөр	-1596
▁ичиг	-1597
▁дрийн	-1598
▁элбэр	-1599
▁ис	-1600
▁оог	-1601
▁мээр	-1602
▁эхний	-1603
▁сныг	-1604
▁лтой	-1605
▁ээв	-1606
st	-1607
лэх	-1608
▁ралд	-1609
▁аваад	-1610
▁ушаал	-1611
▁улам	-1612
▁ак	-1613
▁рийн	-1614
▁тон	-1615
▁хэвлэ	-1616
▁Да	-1617
▁гуй	-1618
▁утас	-1619
▁вср	-1620
▁рхойл	-1621
▁арь	-1622
этг	-1623
le	-1624
▁лга	-1625
▁нис	-1626
▁онгос	-1627
▁мент	-1628
▁гоё	-1629
▁янз	-1630
▁Ту	-1631
▁хөгжи	-1632
▁рм	-1633
▁зайл	-1634
▁эрс	-1635
▁нарын	-1636
▁гэрээ	-1637
▁Ард	-1638
лах	-1639
▁оронд	-1640
▁цэвэр	-1641
▁ва	-1642
▁ихэнх	-1643
илт	-1644
at	-1645
▁өсл	-1646
▁орнуу	-1647
▁цагда	-1648
▁зүү	-1649
▁рой	-1650
▁жижиг	-1651
▁логи	-1652
▁итгий	-1653
▁спорт	-1654
▁Оюу	-1655
▁нэт	-1656
▁хэсг	-1657
▁өн	-1658
▁жаг	-1659
▁огс	-1660
▁ллийг	-1661
▁рдаг	-1662
▁орхи	-1663
▁цуг	-1664
▁хүссэ	-1665
▁таа	-1666
▁авто	-1667
▁батла	-1668
▁нийл	-1669
▁сс	-1670
▁Хэн	-1671
▁хуваа	-1672
▁бодит	-1673
▁найд	-1674
▁ндээ	-1675
▁'	-1676
▁агүй	-1677
▁тун	-1678
▁ааны	-1679
▁нууц	-1680
▁Өмнө	-1681
ен	-1682
▁ичсэн	-1683
▁Эм	-1684
▁аяг	-1685
▁дан	-1686
▁нөгөө	-1687
▁Гэр	-1688
▁vv	-1689
▁урт	-1690
хно	-1691
▁ажлыг	-1692
сл	-1693
▁анай	-1694
▁риул	-1695
▁улаан	-1696
▁этгэ	-1697
▁атвар	-1698
ль	-1699
▁йрла	-1700
▁O	-1701
▁in	-1702
▁өрөөр	-1703
ac	-1704
▁хөө	-1705
▁алдаа	-1706
▁12	-1707
▁Ир	-1708
▁•	-1709
▁нга	-1710
▁тэнд	-1711
▁тээл	-1712
▁элг	-1713
▁соё	-1714
▁өнгө	-1715
▁тг	-1716
▁сээр	-1717
▁арч	-1718
▁эгүй	-1719
▁ль	-1720
▁лол	-1721
▁оюу	-1722
хү	-1723
▁сруул	-1724
▁ллийн	-1725
▁мс	-1726
▁урьд	-1727
▁зарла	-1728
re	-1729
▁d	-1730
▁отоод	-1731
▁хая	-1732
▁хүсч	-1733
▁гдэл	-1734
▁суури	-1735
▁санхү	-1736
▁зүйн	-1737
▁йгээд	-1738
▁чээ	-1739
▁өгнө	-1740
▁дорж	-1741
▁элт	-1742
▁уран	-1743
▁on	-1744
▁ахуй	-1745
▁илцаа	-1746
▁рилго	-1747
▁чамай	-1748
▁үт	-1749
▁лдвар	-1750
▁увц	-1751
▁түүнд	-1752
▁Яг	-1753
▁оогүй	-1754
▁лиг	-1755
▁үүсгэ	-1756
▁сэд	-1757
арга	-1758
▁Бас	-1759
▁ааш	-1760
▁дээш	-1761
▁үеэр	-1762
арт	-1763
▁чил	-1764
▁аасан	-1765
▁сум	-1766
▁айхыг	-1767
▁өгүүл	-1768
▁явц	-1769
▁явдаг	-1770
▁өрвөн	-1771
▁өглөө	-1772
▁лц	-1773
▁али	-1774
▁сийг	-1775
▁ажлаа	-1776
▁тооц	-1777
ти	-1778
▁йм	-1779
▁бүл	-1780
▁урхай	-1781
▁андаа	-1782
▁ичлэг	-1783
▁ро	-1784
▁нэвтр	-1785
▁огсоо	-1786
▁гчд	-1787
▁хям	-1788
▁увцас	-1789
▁соли	-1790
▁J	-1791
▁ск	-1792
▁гж	-1793
нэл	-1794
▁нхэнэ	-1795
▁удаан	-1796
▁хуу	-1797
▁намын	-1798
▁бүли	-1799
▁рис	-1800
▁авдаг	-1801
зга	-1802
ou	-1803
▁гдаж	-1804
▁гэлээ	-1805
▁зохиц	-1806
▁нл	-1807
ды	-1808
▁эрт	-1809
▁бо	-1810
▁эхнэр	-1811
▁Хоёр	-1812
▁хяна	-1813
▁өмнөх	-1814
▁зуун	-1815
▁алуу	-1816
▁сонин	-1817
▁үйлчл	-1818
▁всрол	-1819
▁өрөмж	-1820
▁лав	-1821
▁жилд	-1822
▁даж	-1823
▁є	-1824
▁ахыг	-1825
▁цар	-1826
▁дүүр	-1827
▁аалт	-1828
▁лаас	-1829
ум	-1830
▁сэргэ	-1831
▁гурав	-1832
▁үндсэ	-1833
▁сайж	-1834
▁жишээ	-1835
▁мэднэ	-1836
▁жагса	-1837
дий	-1838
▁Ор	-1839
▁уй	-1840
▁алба	-1841
▁гааны	-1842
▁лим	-1843
▁f	-1844
▁мон	-1845
▁тэмц	-1846
▁өмс	-1847
▁арилц	-1848
▁11	-1849
▁15	-1850
▁Га	-1851
▁ко	-1852
▁нтэй	-1853
▁нэрлэ	-1854
▁гдох	-1855
▁mn	-1856
▁анийн	-1857
▁ынхаа	-1858
▁эхгүй	-1859
▁орчим	-1860
▁Сол	-1861
▁100	-1862
▁энгэр	-1863
▁агдах	-1864
▁жлийн	-1865
▁техно	-1866
▁жү	-1867
▁ня	-1868
▁суурь	-1869
▁унд	-1870
▁члөг	-1871
▁таныг	-1872
▁төсөл	-1873
▁хязга	-1874
▁нгу	-1875
▁Гэ	-1876
▁нүүд	-1877
▁мийн	-1878
▁сэтг	-1879
▁нийгм	-1880
▁лз	-1881
▁лон	-1882
▁лээр	-1883
▁бүс	-1884
▁бодох	-1885
▁нээл	-1886
▁утга	-1887
▁зарц	-1888
▁Y	-1889
om	-1890
▁жин	-1891
▁яла	-1892
▁дад	-1893
▁Юу	-1894
▁албай	-1895
эмш	-1896
▁жарга	-1897
▁жур	-1898
▁нэгд	-1899
▁нцг	-1900
▁элгэр	-1901
▁алагд	-1902
▁хийнэ	-1903
▁эцэг	-1904
▁ью	-1905
▁дамжу	-1906
▁ралц	-1907
▁айнга	-1908
▁рвал	-1909
▁ээлий	-1910
▁вр	-1911
▁соёл	-1912
▁мат	-1913
▁рам	-1914
▁суд	-1915
▁хл	-1916
▁ргааш	-1917
▁ьсгал	-1918
▁лыг	-1919
▁дсэн	-1920
▁барьж	-1921
▁мын	-1922
▁наад	-1923
▁судла	-1924
▁цэрг	-1925
▁Өнгөр	-1926
▁50	-1927
▁эзэмш	-1928
▁өвч	-1929
▁захи	-1930
▁айлга	-1931
▁лгалт	-1932
Та	-1933
▁өвд	-1934
▁оли	-1935
▁>	-1936
▁U	-1937
члэ	-1938
▁вид	-1939
▁арам	-1940
▁Нүүр	-1941
▁йх	-1942
▁лаж	-1943
▁орно	-1944
▁хүрэх	-1945
▁лаан	-1946
▁урга	-1947
▁чиний	-1948
▁улалт	-1949
ео	-1950
▁h	-1951
▁ен	-1952
▁очиж	-1953
▁улийн	-1954
▁эгж	-1955
▁огүй	-1956
▁гом	-1957
▁шаг	-1958
▁члөгд	-1959
▁хат	-1960
▁нээлт	-1961
al	-1962
▁ялгаа	-1963
▁аниу	-1964
▁сууж	-1965
зо	-1966
▁Баяр	-1967
▁аяа	-1968
▁Сайн	-1969
▁ааж	-1970
▁хил	-1971
▁ээдүй	-1972
▁үгийн	-1973
мүүс	-1974
▁үмүүс	-1975
▁өмбө	-1976
хн	-1977
▁үйлдэ	-1978
▁өрч	-1979
▁аруун	-1980
▁улагд	-1981
▁лтын	-1982
▁лалаа	-1983
▁ахгүй	-1984
▁ерм	-1985
▁гэрэл	-1986
▁гдэж	-1987
▁чамд	-1988
▁лбарт	-1989
▁жо	-1990
▁Энд	-1991
▁өрг	-1992
▁бүлэг	-1993
▁тэмцэ	-1994
▁лаанб	-1995
▁вар	-1996
▁өөсөө	-1997
▁хыг	-1998
▁эрхүү	-1999
▁улгай	-2000
▁дөл	-2001
▁нэгүй	-2002
▁эмнэл	-2003
▁тов	-2004
▁үнг	-2005
▁цө	-2006
▁цлага	-2007
▁арт	-2008
▁шагна	-2009
▁ноос	-2010
▁тата	-2011
▁усгай	-2012
▁вч	-2013
▁дэлгэ	-2014
▁Хүний	-2015
▁хөгжл	-2016
▁яа	-2017
▁ижил	-2018
▁энгүй	-2019
▁ууч	-2020
▁гдах	-2021
▁ажээ	-2022
▁лгын	-2023
▁нөөц	-2024
▁өгдөг	-2025
▁хүрч	-2026
▁барих	-2027
▁амра	-2028
▁хаар	-2029
▁Тус	-2030
▁таван	-2031
▁эрб	-2032
▁тнууд	-2033
▁рна	-2034
▁эрбум	-2035
▁гаас	-2036
▁энги	-2037
эний	-2038
▁вир	-2039
▁лох	-2040
▁V	-2041
▁өч	-2042
▁йнх	-2043
▁уст	-2044
▁хнийг	-2045
▁яваа	-2046
▁ооцоо	-2047
▁шинжи	-2048
▁дууд	-2049
▁үүлэг	-2050
▁уулга	-2051
▁шуул	-2052
▁гэжээ	-2053
nt	-2054
▁бор	-2055
▁риг	-2056
▁цал	-2057
▁хаан	-2058
▁хураа	-2059
▁ийгэм	-2060
▁төрөл	-2061
▁Сүүл	-2062
▁нарий	-2063
▁гл	-2064
▁төс	-2065
▁ариу	-2066
▁ка	-2067
▁лөө	-2068
▁зогсо	-2069
▁тх	-2070
▁аян	-2071
▁оролд	-2072
▁ериал	-2073
▁угаар	-2074
▁уулах	-2075
▁Хө	-2076
▁гн	-2077
▁улг	-2078
▁хоо	-2079
▁зорил	-2080
▁аварг	-2081
▁нз	-2082
▁гжүүл	-2083
▁бэрх	-2084
▁юмаа	-2085
▁сайжр	-2086
▁бичих	-2087
▁рьд	-2088
▁арамс	-2089
▁онгоц	-2090
▁утг	-2091
▁хын	-2092
▁олцоо	-2093
▁тхэг	-2094
▁рж	-2095
▁Жишээ	-2096
▁рга	-2097
▁алуус	-2098
▁өргөн	-2099
▁мтр	-2100
▁гараг	-2101
▁хаг	-2102
▁ндаа	-2103
▁мтран	-2104
▁услах	-2105
▁ргө	-2106
▁сэл	-2107
▁найр	-2108
▁үедээ	-2109
▁эээ	-2110
▁гэмт	-2111
▁явна	-2112
▁лагын	-2113
▁уух	-2114
▁ив	-2115
▁хүүх	-2116
▁эргэн	-2117
▁ОХ	-2118
▁боль	-2119
▁үүнд	-2120
▁ага	-2121
▁маа	-2122
▁Надад	-2123
▁хатуу	-2124
▁Амьд	-2125
▁өлөө	-2126
▁өрсөл	-2127
▁лтан	-2128
▁нцгой	-2129
▁зас	-2130
▁яам	-2131
▁аниуд	-2132
▁тар	-2133
ss	-2134
▁жир	-2135
▁буца	-2136
▁нэчлэ	-2137
▁гдсон	-2138
▁талы	-2139
it	-2140
▁уудад	-2141
▁лжи	-2142
▁дурд	-2143
▁өнг	-2144
маа	-2145
▁Ес	-2146
▁Цаг	-2147
▁агда	-2148
▁мр	-2149
▁тос	-2150
▁ууж	-2151
▁хотод	-2152
▁цгаа	-2153
▁эе	-2154
▁эдэнд	-2155
▁худал	-2156
▁Й	-2157
▁Мо	-2158
▁мжийг	-2159
▁цахим	-2160
▁огч	-2161
▁рэм	-2162
▁ийнх	-2163
▁ачаа	-2164
▁лгүүр	-2165
▁тэнэг	-2166
▁илбар	-2167
▁энтэй	-2168
▁ээрэм	-2169
▁Бус	-2170
▁тусла	-2171
▁асгал	-2172
▁үчтэй	-2173
▁хүч	-2174
▁давха	-2175
▁мах	-2176
гч	-2177
из	-2178
▁Эх	-2179
▁тр	-2180
▁гайх	-2181
▁үзэл	-2182
▁бя	-2183
▁бал	-2184
▁рын	-2185
▁ахын	-2186
▁сууц	-2187
▁хоёры	-2188
▁Хэд	-2189
▁шү	-2190
члэн	-2191
▁Бусад	-2192
▁нчлэн	-2193
▁дут	-2194
▁одол	-2195
▁зан	-2196
▁ндарт	-2197
▁эрчим	-2198
▁шор	-2199
▁тор	-2200
▁лбал	-2201
▁y	-2202
▁сүл	-2203
▁монго	-2204
▁наа	-2205
▁өдлө	-2206
▁уруу	-2207
▁Ав	-2208
▁арилг	-2209
▁нлайн	-2210
▁ялбар	-2211
▁нөөс	-2212
▁үтэн	-2213
▁өрөх	-2214
am	-2215
▁чд	-2216
▁амж	-2217
▁ерман	-2218
▁өрт	-2219
▁эгэн	-2220
▁эсгэл	-2221
▁ашигт	-2222
▁үсэлт	-2223
▁сэ	-2224
▁аач	-2225
эвх	-2226
▁идэвх	-2227
▁үүдэд	-2228
▁татаж	-2229
▁эхлэх	-2230
ay	-2231
▁өнх	-2232
▁Ши	-2233
▁эрд	-2234
▁аран	-2235
▁дий	-2236
▁амир	-2237
▁үнэл	-2238
▁элж	-2239
▁болд	-2240
▁олой	-2241
▁ичг	-2242
▁улга	-2243
▁нгуяа	-2244
▁үхэнд	-2245
▁Ээж	-2246
▁хим	-2247
he	-2248
▁%	-2249
▁рэх	-2250
▁хүсэ	-2251
▁бичиж	-2252
▁үрээс	-2253
яг	-2254
▁ек	-2255
▁гц	-2256
▁оноо	-2257
▁тгал	-2258
мэ	-2259
▁риулт	-2260
▁ди	-2261
▁лтыг	-2262
▁бараа	-2263
▁энх	-2264
▁дийн	-2265
▁очих	-2266
▁вирус	-2267
▁цээ	-2268
▁айрла	-2269
▁урам	-2270
▁үрүү	-2271
▁Эс	-2272
▁Мэд	-2273
▁долла	-2274
▁рхайн	-2275
▁сламж	-2276
▁төдий	-2277
▁гүүр	-2278
▁инээр	-2279
▁эдлэг	-2280
▁Эмэг	-2281
▁рхэг	-2282
▁мш	-2283
▁лэд	-2284
▁уулза	-2285
▁эрлэх	-2286
▁нж	-2287
▁мэл	-2288
▁раг	-2289
▁оол	-2290
▁улмаа	-2291
▁Аав	-2292
▁лагыг	-2293
▁айз	-2294
▁үрд	-2295
▁сав	-2296
▁лэдэг	-2297
▁гдл	-2298
▁ухаа	-2299
▁авь	-2300
▁уйл	-2301
▁бос	-2302
▁дай	-2303
▁эрсдэ	-2304
▁өвлө	-2305
▁бэлэг	-2306
▁йгал	-2307
▁товч	-2308
▁Хэрэг	-2309
▁нги	-2310
▁лаар	-2311
▁йгаль	-2312
▁сгэ	-2313
▁агаар	-2314
▁жлүүл	-2315
▁аах	-2316
▁анайд	-2317
▁чихса	-2318
▁ло	-2319
▁зөө	-2320
▁маяг	-2321
▁тгалз	-2322
▁14	-2323
▁зөр	-2324
▁алдар	-2325
▁яваад	-2326
▁айдл	-2327
ци	-2328
▁устга	-2329
▁снаар	-2330
▁нт	-2331
▁шаш	-2332
▁таар	-2333
▁Өд	-2334
▁элээд	-2335
▁цөө	-2336
▁арван	-2337
▁Па	-2338
▁стр	-2339
▁тэнц	-2340
▁хиад	-2341
▁эмэлт	-2342
▁рист	-2343
▁Үндсэ	-2344
эхэ	-2345
▁алтын	-2346
▁нох	-2347
▁там	-2348
▁яналт	-2349
▁хал	-2350
▁эцэс	-2351
▁агдаж	-2352
▁хийгд	-2353
▁айдлы	-2354
▁мэдрэ	-2355
▁айгал	-2356
▁Мө	-2357
▁лтгүй	-2358
▁ОХУ	-2359
▁бна	-2360
▁бэрхш	-2361
▁40	-2362
▁оёр	-2363
▁үүлэх	-2364
▁арг	-2365
▁мний	-2366
▁дарг	-2367
▁үхэл	-2368
▁яриад	-2369
▁чн	-2370
▁Маг	-2371
▁шөн	-2372
▁Амьдр	-2373
▁үгийг	-2374
▁гс	-2375
▁улан	-2376
▁Үндэс	-2377
▁Ингэ	-2378
▁оёрд	-2379
▁Гэсэн	-2380
▁ухам	-2381
▁хүсэл	-2382
▁үүн	-2383
▁зүтгэ	-2384
▁оох	-2385
▁амаг	-2386
▁алаа	-2387
▁рэмж	-2388
▁лчууд	-2389
▁Ne	-2390
▁лтийн	-2391
▁тогто	-2392
▁MN	-2393
▁шг	-2394
нгли	-2395
▁Англи	-2396
▁давуу	-2397
▁дрийг	-2398
▁тугай	-2399
▁ьютер	-2400
▁X	-2401
▁яар	-2402
▁ваал	-2403
гуй	-2404
▁юуг	-2405
▁видео	-2406
▁рвалж	-2407
▁Гар	-2408
▁ваалц	-2409
▁сүлжэ	-2410
▁өсөв	-2411
▁ирдэг	-2412
▁өрүүл	-2413
▁явдл	-2414
▁сонсо	-2415
игл	-2416
▁эк	-2417
▁бүтэ	-2418
▁нарт	-2419
▁K	-2420
▁Нийт	-2421
▁суух	-2422
▁логын	-2423
▁чуулг	-2424
▁хаагч	-2425
▁Со	-2426
▁зарна	-2427
▁итгэл	-2428
▁Су	-2429
▁сний	-2430
▁йнхүү	-2431
▁Хүр	-2432
▁илр	-2433
▁асал	-2434
▁гаары	-2435
▁нцлог	-2436
▁нгийн	-2437
▁унших	-2438
▁үлдээ	-2439
▁тол	-2440
▁Хүрэл	-2441
▁жааха	-2442
▁илгээ	-2443
▁туул	-2444
▁нэтэй	-2445
үс	-2446
▁ве	-2447
ана	-2448
▁орд	-2449
▁талд	-2450
▁өмөр	-2451
▁Магад	-2452
▁борлу	-2453
▁уудын	-2454
▁лөн	-2455
▁члөх	-2456
▁цалин	-2457
▁зэв	-2458
▁төсв	-2459
▁улир	-2460
▁|	-2461
▁хөгж	-2462
▁бусды	-2463
▁сурта	-2464
▁үүгээ	-2465
▁ирнэ	-2466
▁тавих	-2467
▁сурга	-2468
▁үүц	-2469
▁гнэлт	-2470
▁охиро	-2471
▁сэг	-2472
▁орт	-2473
▁лээд	-2474
▁уучла	-2475
▁x	-2476
хник	-2477
▁гарын	-2478
▁ехник	-2479
▁хайж	-2480
▁Ажл	-2481
▁олл	-2482
▁чнээн	-2483
▁мд	-2484
▁анга	-2485
▁огино	-2486
▁вь	-2487
▁өөн	-2488
▁рлог	-2489
▁Есүс	-2490
▁арах	-2491
▁оохон	-2492
▁ахуйн	-2493
▁снаас	-2494
▁амхи	-2495
▁Нөгөө	-2496
▁олгой	-2497
▁ок	-2498
▁чимэ	-2499
▁эндээ	-2500
▁мтлаг	-2501
▁алгүй	-2502
▁лөх	-2503
▁бүрт	-2504
▁өмч	-2505
▁эжээ	-2506
▁явагд	-2507
▁эмчи	-2508
▁сүх	-2509
▁Ажил	-2510
▁аван	-2511
▁Фр	-2512
▁амиа	-2513
▁болзо	-2514
▁эсэрг	-2515
▁шоро	-2516
▁урлаг	-2517
▁муж	-2518
▁мтдаа	-2519
▁иу	-2520
▁ороод	-2521
▁огц	-2522
▁цэг	-2523
▁Бүгд	-2524
▁мшиг	-2525
▁хэнд	-2526
▁эхлүү	-2527
▁лгуур	-2528
▁ортой	-2529
▁эрхлэ	-2530
▁ажигл	-2531
▁эрэгт	-2532
▁рита	-2533
ot	-2534
▁шо	-2535
▁нцло	-2536
▁шөнө	-2537
▁өгжи	-2538
▁гдүүл	-2539
▁лжүүл	-2540
▁марта	-2541
▁оороо	-2542
▁ум	-2543
▁сэрг	-2544
▁ws	-2545
▁арьс	-2546
▁идэх	-2547
▁өрөлх	-2548
ХА	-2549
▁вак	-2550
▁лцоо	-2551
▁хүчи	-2552
▁айван	-2553
▁арилд	-2554
▁өөгүй	-2555
▁блог	-2556
▁нохой	-2557
▁цээн	-2558
▁Мэдээ	-2559
▁аалга	-2560
▁интер	-2561
▁адаас	-2562
▁элийн	-2563
▁дыг	-2564
▁рлого	-2565
▁анаас	-2566
▁царай	-2567
▁заа	-2568
▁мог	-2569
▁охид	-2570
▁дэвши	-2571
▁нарыг	-2572
▁бөх	-2573
▁вшин	-2574
▁хамр	-2575
▁бодис	-2576
▁ургүй	-2577
▁це	-2578
▁лин	-2579
▁данс	-2580
▁яахав	-2581
▁хууд	-2582
▁хүсэж	-2583
▁кл	-2584
▁ахи	-2585
▁тоног	-2586
▁цэцэр	-2587
▁алуун	-2588
▁удлаа	-2589
▁арк	-2590
▁амла	-2591
▁сах	-2592
▁улуун	-2593
▁иеийн	-2594
ic	-2595
▁18	-2596
▁лаад	-2597
▁шир	-2598
▁Франц	-2599
▁тнүүд	-2600
▁цэцэг	-2601
▁дон	-2602
▁ойро	-2603
▁рс	-2604
▁над	-2605
▁эмээ	-2606
▁иел	-2607
▁инд	-2608
▁амирч	-2609
▁нүд	-2610
▁усд	-2611
▁рк	-2612
▁ань	-2613
▁аялал	-2614
▁хуудс	-2615
▁Өмнөх	-2616
il	-2617
▁нэгн	-2618
▁үлэг	-2619
▁Эрүүл	-2620
nd	-2621
▁цөөн	-2622
▁алдса	-2623
▁бүрд	-2624
▁зэрг	-2625
▁аймаг	-2626
▁ист	-2627
▁Ганц	-2628
ьцаа	-2629
▁вьцаа	-2630
▁Бага	-2631
▁нийн	-2632
▁орос	-2633
▁тайла	-2634
▁йд	-2635
▁сул	-2636
▁Ажлын	-2637
▁Нам	-2638
▁члал	-2639
▁нжл	-2640
▁нүү	-2641
▁ргэн	-2642
▁улаа	-2643
▁мп	-2644
▁шүүл	-2645
▁оршин	-2646
▁алж	-2647
▁хятад	-2648
▁вэб	-2649
▁чла	-2650
▁ахиал	-2651
▁раа	-2652
▁шуу	-2653
▁ориу	-2654
▁алтад	-2655
▁шүүмж	-2656
▁нгэ	-2657
▁угуй	-2658
▁гддаг	-2659
▁далай	-2660
▁длаар	-2661
▁оллар	-2662
ol	-2663
▁Аф	-2664
▁вөл	-2665
▁нда	-2666
▁авра	-2667
▁алхам	-2668
▁осго	-2669
▁Эсвэл	-2670
▁Ном	-2671
▁тний	-2672
▁дн	-2673
▁Ардчи	-2674
▁Сэтгэ	-2675
гэд	-2676
▁анз	-2677
▁Иргэд	-2678
▁Хууль	-2679
▁Анх	-2680
▁вор	-2681
▁Орон	-2682
▁тэгж	-2683
би	-2684
▁нгис	-2685
▁ажилч	-2686
▁мод	-2687
▁улгар	-2688
▁иний	-2689
▁рахад	-2690
▁гах	-2691
▁сэдэв	-2692
▁ion	-2693
▁лам	-2694
▁хагас	-2695
▁25	-2696
▁она	-2697
▁иелүү	-2698
▁ригло	-2699
▁өсөө	-2700
▁Өг	-2701
▁шаа	-2702
▁мөрдө	-2703
▁ёсоор	-2704
▁ламж	-2705
▁Нийсл	-2706
▁гэний	-2707
ad	-2708
тан	-2709
▁Сү	-2710
▁айнаа	-2711
▁тэ	-2712
▁13	-2713
▁хурд	-2714
▁дэд	-2715
▁оюут	-2716
▁аяхан	-2717
▁гэг	-2718
▁үжиг	-2719
▁ирлээ	-2720
▁оц	-2721
▁вшинд	-2722
▁ргийг	-2723
▁лад	-2724
▁дүнд	-2725
▁ахдаа	-2726
▁цгэ	-2727
▁эгш	-2728
▁рчим	-2729
▁рик	-2730
▁нжлэх	-2731
▁лны	-2732
▁гомдо	-2733
▁ази	-2734
▁асар	-2735
▁өдөрт	-2736
▁зочи	-2737
▁олбор	-2738
▁дүгээ	-2739
▁цахил	-2740
▁энгэ	-2741
▁гджээ	-2742
▁ялга	-2743
▁ориул	-2744
▁цуглу	-2745
▁фе	-2746
▁сэр	-2747
▁орх	-2748
▁ами	-2749
▁гши	-2750
▁арсан	-2751
en	-2752
▁ого	-2753
▁эрчүү	-2754
▁ноо	-2755
▁ход	-2756
▁вакци	-2757
▁улиар	-2758
▁амд	-2759
▁амт	-2760
▁уншиж	-2761
▁чулуу	-2762
▁эргэл	-2763
▁галан	-2764
▁роо	-2765
▁бэлд	-2766
▁дая	-2767
▁дэвш	-2768
▁алсан	-2769
▁хир	-2770
▁ндаж	-2771
▁санг	-2772
▁Өдөр	-2773
АА	-2774
▁Ка	-2775
▁илан	-2776
▁уулг	-2777
▁ээлжи	-2778
▁ап	-2779
▁дайн	-2780
▁өгсгө	-2781
▁өсөөл	-2782
▁дас	-2783
▁рсгал	-2784
▁ям	-2785
et	-2786
▁Ган	-2787
▁ндоо	-2788
▁нсний	-2789
▁мол	-2790
▁нхүү	-2791
▁хүүхэ	-2792
▁өвчин	-2793
▁24	-2794
▁үүлж	-2795
▁гавар	-2796
▁даады	-2797
▁урьдч	-2798
ur	-2799
▁рв	-2800
▁эцс	-2801
▁Го	-2802
▁лөл	-2803
▁рүүл	-2804
▁агийн	-2805
▁эрдэм	-2806
▁вөр	-2807
▁адаад	-2808
▁амаар	-2809
▁2-	-2810
▁онц	-2811
▁алив	-2812
▁үрэл	-2813
▁Хэдий	-2814
▁нот	-2815
▁чир	-2816
▁Ингэх	-2817
сн	-2818
▁илж	-2819
▁ээч	-2820
▁боли	-2821
▁чада	-2822
▁дгала	-2823
▁гш	-2824
▁ing	-2825
▁лев	-2826
▁рио	-2827
▁даяар	-2828
▁Өмнөд	-2829
▁уулан	-2830
▁хаж	-2831
▁рлаа	-2832
▁айшин	-2833
▁буцаа	-2834
▁нш	-2835
▁шө	-2836
▁жуулч	-2837
▁Ихэнх	-2838
▁эргэж	-2839
▁ти	-2840
▁хог	-2841
▁ашаа	-2842
▁нуул	-2843
▁тэл	-2844
▁агуу	-2845
▁эзэн	-2846
▁ынхан	-2847
▁элний	-2848
el	-2849
▁дүүрэ	-2850
▁хөдөө	-2851
▁гээс	-2852
▁Ингэж	-2853
▁эхэлж	-2854
▁воо	-2855
▁мн	-2856
▁эгчд	-2857
▁томил	-2858
▁үйтэй	-2859
▁вх	-2860
▁нийц	-2861
▁рдын	-2862
▁17	-2863
▁нгах	-2864
▁ардал	-2865
▁жилт	-2866
▁дүрэм	-2867
▁тгээд	-2868
ри	-2869
▁бүлг	-2870
▁дний	-2871
▁левиз	-2872
▁усдад	-2873
▁эгээр	-2874
▁16	-2875
▁No	-2876
▁Аль	-2877
▁эвийн	-2878
оло	-2879
▁лсэн	-2880
▁тойр	-2881
▁аашаа	-2882
▁луу	-2883
▁уралд	-2884
ка	-2885
▁оош	-2886
▁хав	-2887
▁өрнө	-2888
▁ъё	-2889
▁Мөнгө	-2890
▁аахан	-2891
▁мба	-2892
▁хүүг	-2893
▁эхийн	-2894
илг	-2895
▁Ме	-2896
▁орчи	-2897
▁оон	-2898
▁үйлдл	-2899
▁мөрөө	-2900
▁үрүүл	-2901
▁агц	-2902
▁уян	-2903
▁уриа	-2904
▁хямд	-2905
▁зориг	-2906
▁урагч	-2907
▁үгээс	-2908
▁өгжим	-2909
▁нал	-2910
▁рөв	-2911
▁багт	-2912
▁эрхий	-2913
▁сг	-2914
▁ардчи	-2915
▁гарна	-2916
▁лгээг	-2917
▁хийгэ	-2918
▁Си	-2919
▁ийх	-2920
▁дааны	-2921
▁өсөлт	-2922
▁ит	-2923
▁рн	-2924
▁сра	-2925
▁тгө	-2926
▁айхан	-2927
▁al	-2928
▁ате	-2929
▁тут	-2930
▁цохи	-2931
▁нийсл	-2932
▁юутан	-2933
▁шар	-2934
▁k	-2935
▁дууг	-2936
▁лимп	-2937
▁тэтгэ	-2938
▁ча	-2939
▁неж	-2940
▁омп	-2941
▁риуц	-2942
▁бүт	-2943
▁орилт	-2944
▁Шу	-2945
▁Үз	-2946
▁хлы	-2947
▁эхлэн	-2948
▁днээс	-2949
▁түүхэ	-2950
▁Өглөө	-2951
▁март	-2952
▁тани	-2953
▁төлөх	-2954
▁АХ	-2955
▁гөл	-2956
▁санд	-2957
▁этгэв	-2958
▁&	-2959
▁Се	-2960
▁огд	-2961
▁снаа	-2962
▁мөч	-2963
▁Дээр	-2964
▁Танд	-2965
▁лчил	-2966
▁длага	-2967
▁нүүрс	-2968
▁эгт	-2969
▁аваа	-2970
▁дагу	-2971
▁Зал	-2972
▁виар	-2973
us	-2974
▁лм	-2975
▁зун	-2976
▁йруул	-2977
▁хувий	-2978
▁төрх	-2979
▁атан	-2980
▁хийн	-2981
▁ихэвч	-2982
▁нэгдү	-2983
▁60	-2984
▁түр	-2985
▁хиж	-2986
▁ршилт	-2987
▁хохир	-2988
▁азар	-2989
▁багас	-2990
▁стра	-2991
оон	-2992
▁Оюун	-2993
▁гдэх	-2994
▁ингэ	-2995
▁Залуу	-2996
▁өрчил	-2997
▁$	-2998
▁изм	-2999
▁тэс	-3000
▁эгэнт	-3001
▁өнгөн	-3002
▁ей	-3003
▁Том	-3004
▁ашг	-3005
▁тны	-3006
▁огоон	-3007
▁атаа	-3008
▁өвчн	-3009
▁өрхөн	-3010
▁кк	-3011
▁үлх	-3012
▁гарц	-3013
▁агаан	-3014
▁ойд	-3015
▁олны	-3016
▁үүлч	-3017
▁албир	-3018
▁уухай	-3019
ub	-3020
▁адтай	-3021
▁эндүү	-3022
▁Аз	-3023
▁Re	-3024
▁Гол	-3025
▁нгли	-3026
▁кон	-3027
▁өрөг	-3028
▁хь	-3029
▁агт	-3030
▁йно	-3031
▁таг	-3032
▁чид	-3033
▁анкны	-3034
▁рих	-3035
▁хөнд	-3036
▁ахаас	-3037
▁Баян	-3038
▁алай	-3039
▁аныг	-3040
▁ланд	-3041
▁мтын	-3042
▁сайды	-3043
▁дны	-3044
▁нгийг	-3045
▁тараа	-3046
эгд	-3047
▁өндөө	-3048
as	-3049
▁баа	-3050
▁рий	-3051
▁хүрт	-3052
▁үрдүү	-3053
▁фи	-3054
▁эрүү	-3055
▁салга	-3056
▁ургаа	-3057
▁анш	-3058
▁лив	-3059
▁ээх	-3060
▁суулг	-3061
▁длууд	-3062
▁үнс	-3063
▁агуул	-3064
▁Уул	-3065
▁бая	-3066
▁лаарх	-3067
▁эрийн	-3068
▁айж	-3069
▁НХА	-3070
▁орши	-3071
▁рла	-3072
▁тоог	-3073
▁Ё	-3074
▁чийн	-3075
▁ел	-3076
▁өртө	-3077
▁элдэг	-3078
▁эч	-3079
▁лагд	-3080
▁эгдэх	-3081
▁лсөн	-3082
▁эхлэ	-3083
▁үүлг	-3084
▁онгу	-3085
▁гдэ	-3086
▁дүг	-3087
▁лар	-3088
▁Боло	-3089
▁отр	-3090
▁бэлг	-3091
▁дийл	-3092
▁лгэр	-3093
▁татах	-3094
▁лзуу	-3095
▁тогтв	-3096
▁шах	-3097
▁мад	-3098
▁1-	-3099
▁нгын	-3100
▁асвар	-3101
▁Төв	-3102
▁айц	-3103
▁рин	-3104
▁лооч	-3105
▁найм	-3106
▁чихсэ	-3107
▁ааа	-3108
▁зав	-3109
ко	-3110
▁ийш	-3111
▁лоор	-3112
▁үйлд	-3113
▁дүүрг	-3114
▁лх	-3115
▁рэнд	-3116
▁тс	-3117
▁одо	-3118
▁ооо	-3119
▁алдах	-3120
▁отроо	-3121
▁нч	-3122
▁эш	-3123
▁бут	-3124
▁элс	-3125
▁анаа	-3126
▁олоо	-3127
▁элтэй	-3128
▁гуа	-3129
▁дөөн	-3130
▁шл	-3131
▁гий	-3132
▁биеэ	-3133
▁гэрлэ	-3134
▁лэгчд	-3135
▁уудал	-3136
▁оп	-3137
▁тго	-3138
▁эмж	-3139
▁гадн	-3140
▁рлын	-3141
▁рөнг	-3142
▁танай	-3143
ет	-3144
▁жиж	-3145
▁сүрэ	-3146
▁=	-3147
▁ашин	-3148
▁сурч	-3149
▁дүгнэ	-3150
▁залга	-3151
▁рчуул	-3152
▁~	-3153
▁лий	-3154
▁түв	-3155
ook	-3156
▁рчны	-3157
▁Тухай	-3158
▁элсэн	-3159
▁линг	-3160
▁хэхэ	-3161
▁үгээ	-3162
▁агдаа	-3163
▁лүү	-3164
▁олт	-3165
▁ци	-3166
▁вэр	-3167
▁шдэ	-3168
▁На	-3169
▁йгүй	-3170
▁бүртг	-3171
▁ргаар	-3172
▁лхи	-3173
▁тодр	-3174
▁амы	-3175
▁эгчид	-3176
▁ардл	-3177
▁энийг	-3178
▁st	-3179
▁шд	-3180
▁гөж	-3181
▁өрд	-3182
▁ордо	-3183
▁лжээ	-3184
▁утс	-3185
▁уяа	-3186
▁ге	-3187
▁ми	-3188
▁илц	-3189
▁элд	-3190
▁раад	-3191
▁урал	-3192
▁агтаа	-3193
▁ic	-3194
▁Маш	-3195
▁огоо	-3196
▁ангуй	-3197
▁анзаа	-3198
▁уб	-3199
▁лда	-3200
▁ллы	-3201
▁айхаа	-3202
▁эхээс	-3203
▁өлөөт	-3204
▁арж	-3205
▁ларха	-3206
▁даргы	-3207
▁мрагд	-3208
▁эвч	-3209
▁тали	-3210
▁эрэв	-3211
▁зүйлд	-3212
▁ладаг	-3213
▁ҮБ	-3214
▁цай	-3215
▁гүүд	-3216
▁риад	-3217
▁лагч	-3218
id	-3219
▁То	-3220
▁хин	-3221
▁гүн	-3222
▁зра	-3223
▁лст	-3224
▁хүнс	-3225
▁авт	-3226
▁агна	-3227
▁зуг	-3228
▁үжи	-3229
▁агас	-3230
▁үхний	-3231
өм	-3232
▁хны	-3233
▁йрын	-3234
▁ЙН	-3235
▁рээ	-3236
▁Оюут	-3237
▁ийгөө	-3238
▁оорой	-3239
▁Ли	-3240
▁усны	-3241
▁халд	-3242
▁жүүлж	-3243
▁+	-3244
▁нет	-3245
▁сала	-3246
▁Танай	-3247
▁эйл	-3248
▁агш	-3249
▁ест	-3250
un	-3251
▁ата	-3252
▁өрж	-3253
▁овлон	-3254
▁Бу	-3255
▁хос	-3256
▁аадам	-3257
ace	-3258
▁лтанд	-3259
▁ed	-3260
▁19	-3261
▁ент	-3262
▁1.	-3263
▁рол	-3264
▁үйтэ	-3265
▁мэдэл	-3266
▁ргаан	-3267
▁вий	-3268
▁Ко	-3269
▁алыг	-3270
▁гана	-3271
▁лтад	-3272
▁лөлт	-3273
▁аатай	-3274
▁цийн	-3275
▁цугл	-3276
▁олоон	-3277
▁Цаа	-3278
▁нэл	-3279
▁эрэй	-3280
▁дурса	-3281
do	-3282
▁гам	-3283
▁зүүн	-3284
▁эрсэн	-3285
pp	-3286
▁80	-3287
▁нн	-3288
▁анал	-3289
▁ийлэх	-3290
▁рц	-3291
▁длын	-3292
▁моор	-3293
▁үүрг	-3294
▁руй	-3295
▁ороо	-3296
▁рөөд	-3297
▁агчид	-3298
▁21	-3299
▁рэй	-3300
▁хуй	-3301
ио	-3302
▁re	-3303
▁врал	-3304
▁дгийг	-3305
▁ара	-3306
▁цэс	-3307
▁гуулг	-3308
▁аб	-3309
▁йж	-3310
▁шр	-3311
▁хөх	-3312
▁стой	-3313
▁эрэгц	-3314
▁<	-3315
▁ры	-3316
▁ныг	-3317
▁тохи	-3318
▁гуур	-3319
▁тл	-3320
▁зэн	-3321
▁авчир	-3322
▁вто	-3323
▁гор	-3324
▁жиг	-3325
▁өвө	-3326
▁айлан	-3327
▁нэн	-3328
▁элц	-3329
▁доод	-3330
▁вж	-3331
▁ев	-3332
▁мч	-3333
▁гжил	-3334
▁гэрт	-3335
▁хоос	-3336
▁жүжиг	-3337
▁үсэг	-3338
▁эргэд	-3339
▁ера	-3340
▁далд	-3341
▁хуур	-3342
ЭН	-3343
▁ne	-3344
▁доро	-3345
▁дэр	-3346
▁ахар	-3347
▁алдаг	-3348
▁үчир	-3349
▁гараа	-3350
▁бөм	-3351
▁вуу	-3352
▁оль	-3353
▁гтаа	-3354
▁рамт	-3355
▁хана	-3356
▁чилж	-3357
▁найма	-3358
ri	-3359
▁бөмбө	-3360
▁рло	-3361
▁ссэн	-3362
▁ургу	-3363
єє	-3364
▁гүүл	-3365
▁ото	-3366
▁айны	-3367
▁УУ	-3368
ag	-3369
▁Зөв	-3370
▁Эцэ	-3371
▁жууд	-3372
▁эглэ	-3373
▁ене	-3374
▁ргэ	-3375
▁үрэ	-3376
▁осон	-3377
▁3-	-3378
▁атай	-3379
▁АР	-3380
▁усан	-3381
▁Эрх	-3382
▁өнө	-3383
ro	-3384
▁дөн	-3385
▁рхи	-3386
▁арав	-3387
▁ку	-3388
▁үйд	-3389
▁гүйц	-3390
▁Ла	-3391
▁нийгэ	-3392
▁аха	-3393
▁j	-3394
▁Хай	-3395
▁дам	-3396
▁дута	-3397
▁асах	-3398
▁зуур	-3399
▁лагуу	-3400
за	-3401
▁ооны	-3402
▁саг	-3403
▁өлөг	-3404
▁урш	-3405
▁St	-3406
▁АЙ	-3407
▁дрэл	-3408
▁доор	-3409
▁эртээ	-3410
▁22	-3411
▁ем	-3412
▁лш	-3413
▁жим	-3414
▁урь	-3415
▁анад	-3416
▁рчин	-3417
▁удал	-3418
▁ээрх	-3419
▁св	-3420
▁дууга	-3421
▁илийн	-3422
▁гчдын	-3423
▁тусал	-3424
▁Тү	-3425
▁ахуу	-3426
▁дэнд	-3427
▁хтэй	-3428
▁яара	-3429
▁оу	-3430
▁есс	-3431
▁бодо	-3432
▁гчин	-3433
▁анайх	-3434
▁байхы	-3435
▁илцан	-3436
▁хөв	-3437
▁үдээ	-3438
▁ип	-3439
▁хажуу	-3440
Чи	-3441
▁Бо	-3442
▁амер	-3443
▁ачин	-3444
▁гддэг	-3445
▁аана	-3446
▁ллын	-3447
▁нк	-3448
▁Төр	-3449
▁мжи	-3450
▁лбэг	-3451
ch	-3452
▁вш	-3453
▁иш	-3454
▁па	-3455
▁тари	-3456
▁лстөр	-3457
ЭГ	-3458
▁Уд	-3459
▁уз	-3460
▁цэн	-3461
▁нтер	-3462
▁энэг	-3463
▁өхөн	-3464
▁удаад	-3465
▁Z	-3466
▁ллээ	-3467
▁өрхий	-3468
▁оф	-3469
▁айд	-3470
▁рчм	-3471
▁цэр	-3472
ve	-3473
▁үв	-3474
▁тэв	-3475
▁шигт	-3476
▁эрээ	-3477
▁лөж	-3478
▁мжийн	-3479
▁мшигт	-3480
▁ынх	-3481
▁Цааш	-3482
▁өөрт	-3483
▁аяр	-3484
▁алха	-3485
▁ихээ	-3486
▁лээн	-3487
▁эрэл	-3488
▁амтай	-3489
▁лчин	-3490
▁элсэ	-3491
ck	-3492
▁ХХ	-3493
▁com	-3494
▁нун	-3495
▁анил	-3496
АЛ	-3497
▁ожи	-3498
▁саад	-3499
▁хүртэ	-3500
▁гэгч	-3501
▁аярла	-3502
ct	-3503
▁хр	-3504
▁жүжи	-3505
▁нхны	-3506
▁өхөд	-3507
▁Яа	-3508
▁глэ	-3509
▁цол	-3510
▁Хайр	-3511
▁илэн	-3512
▁өдөл	-3513
▁The	-3514
▁АХН	-3515
▁гдож	-3516
▁эрэн	-3517
▁даатг	-3518
▁нунта	-3519
▁нэлэг	-3520
▁ласан	-3521
▁лмаар	-3522
▁элз	-3523
▁шийдэ	-3524
▁хээс	-3525
▁өрдөг	-3526
▁or	-3527
▁ent	-3528
▁Нас	-3529
▁оро	-3530
▁бууд	-3531
▁рэлт	-3532
▁зөрч	-3533
▁эзээ	-3534
▁gle	-3535
▁эгэ	-3536
▁хнэр	-3537
▁ахл	-3538
▁араг	-3539
▁хоно	-3540
▁оосоо	-3541
▁en	-3542
▁ro	-3543
▁өдөө	-3544
▁Үр	-3545
▁свэр	-3546
▁охиол	-3547
▁нээр	-3548
▁цагаа	-3549
▁игд	-3550
▁аяла	-3551
▁гтой	-3552
▁мөрий	-3553
▁иал	-3554
▁зийн	-3555
▁ргүй	-3556
▁давта	-3557
▁игдөр	-3558
▁өөрчи	-3559
▁рлыг	-3560
▁цхан	-3561
▁виз	-3562
▁дрүүд	-3563
▁тлө	-3564
▁тоол	-3565
▁уламж	-3566
▁урван	-3567
▁Goo	-3568
▁ниг	-3569
▁глал	-3570
▁тгэл	-3571
▁book	-3572
▁үүлсэ	-3573
▁аза	-3574
▁ино	-3575
▁зори	-3576
▁цаад	-3577
▁мг	-3578
▁арьц	-3579
▁готой	-3580
▁улж	-3581
▁өвл	-3582
▁члэн	-3583
▁Ах	-3584
▁ахин	-3585
▁лдаг	-3586
▁цаас	-3587
▁эвлэ	-3588
ЭЭ	-3589
▁олло	-3590
▁2.	-3591
▁сө	-3592
ел	-3593
▁гчийн	-3594
▁тулга	-3595
▁вчи	-3596
▁осоо	-3597
▁Өөрөө	-3598
▁Ша	-3599
▁гдө	-3600
▁рха	-3601
▁оход	-3602
▁үвшин	-3603
ut	-3604
▁тик	-3605
▁зээ	-3606
▁рны	-3607
im	-3608
ra	-3609
▁сүү	-3610
▁лла	-3611
▁лэгээ	-3612
▁энээс	-3613
▁гдаад	-3614
▁өвлөл	-3615
▁заса	-3616
▁лэгт	-3617
▁асуух	-3618
▁багта	-3619
▁эгдэл	-3620
▁кц	-3621
▁ерик	-3622
▁иа	-3623
▁уя	-3624
▁гдана	-3625
▁стэй	-3626
▁омж	-3627
▁төрч	-3628
▁магт	-3629
▁олдох	-3630
▁үхэлд	-3631
АТ	-3632
▁лнэ	-3633
▁ног	-3634
▁оёл	-3635
▁саа	-3636
▁соор	-3637
▁90	-3638
▁йз	-3639
▁лай	-3640
▁мсэ	-3641
▁лбэл	-3642
▁логч	-3643
▁нгүй	-3644
▁антай	-3645
▁хөнгө	-3646
ost	-3647
▁омт	-3648
▁орм	-3649
▁уун	-3650
▁уха	-3651
▁яда	-3652
▁вгүй	-3653
▁эгээ	-3654
▁ламжл	-3655
▁70	-3656
▁ийл	-3657
▁урс	-3658
▁дүүл	-3659
▁зово	-3660
▁лэлт	-3661
▁цэнэ	-3662
▁зе	-3663
▁хас	-3664
▁йлдв	-3665
▁эгэх	-3666
▁гаарт	-3667
▁хориг	-3668
нэн	-3669
▁Хан	-3670
▁вөө	-3671
▁орь	-3672
▁гаач	-3673
▁эрийг	-3674
▁амп	-3675
▁алан	-3676
▁лүүд	-3677
▁ваа	-3678
▁эми	-3679
▁дурла	-3680
▁Ро	-3681
▁гил	-3682
▁ман	-3683
▁сам	-3684
▁ийгм	-3685
▁тайв	-3686
▁араас	-3687
▁үүхэн	-3688
▁инж	-3689
▁Үйл	-3690
▁өөх	-3691
▁стан	-3692
▁үний	-3693
▁өрүү	-3694
▁болоо	-3695
▁ург	-3696
▁рээд	-3697
▁илсэн	-3698
▁ариа	-3699
▁длаа	-3700
▁осууд	-3701
▁Өв	-3702
▁рэн	-3703
▁өгд	-3704
▁эрчи	-3705
▁ац	-3706
▁Бүр	-3707
▁лом	-3708
▁шги	-3709
▁бусд	-3710
▁йхны	-3711
▁лтгэ	-3712
▁ндан	-3713
▁to	-3714
▁орч	-3715
▁гөлдө	-3716
▁атр	-3717
▁алар	-3718
▁дуур	-3719
▁ндөр	-3720
▁утай	-3721
▁этэй	-3722
▁эхэн	-3723
▁цор	-3724
▁наар	-3725
▁Улаан	-3726
▁an	-3727
▁хөн	-3728
▁рьж	-3729
▁аадм	-3730
▁урав	-3731
▁бутл	-3732
▁рэл	-3733
▁ндын	-3734
▁ондоо	-3735
ари	-3736
▁айлы	-3737
▁ууны	-3738
▁алууд	-3739
▁ош	-3740
▁мий	-3741
▁нжи	-3742
▁сек	-3743
▁слан	-3744
▁эгсэ	-3745
▁ливаа	-3746
▁онх	-3747
▁лбан	-3748
▁ргээ	-3749
▁өрөв	-3750
▁ныхаа	-3751
▁хааны	-3752
▁ТГ	-3753
▁гомд	-3754
▁олог	-3755
▁App	-3756
▁де	-3757
▁үни	-3758
руу	-3759
▁вд	-3760
▁зүг	-3761
▁глах	-3762
▁римт	-3763
▁гна	-3764
▁ндий	-3765
▁римтл	-3766
▁сор	-3767
▁дагч	-3768
▁хаас	-3769
▁нэгдэ	-3770
ЫН	-3771
▁жг	-3772
▁очи	-3773
▁шөө	-3774
▁бөө	-3775
▁имп	-3776
▁үлдэ	-3777
▁ийгээ	-3778
▁мжтай	-3779
es	-3780
is	-3781
бли	-3782
▁Те	-3783
▁сх	-3784
▁анч	-3785
▁Чу	-3786
▁нан	-3787
▁эгдл	-3788
▁ичээд	-3789
▁лна	-3790
▁уудл	-3791
▁ийт	-3792
▁өгө	-3793
▁хараа	-3794
▁ья	-3795
▁one	-3796
▁цас	-3797
▁бе	-3798
▁вээ	-3799
▁Face	-3800
▁хлээд	-3801
▁гөн	-3802
▁Ца	-3803
▁си	-3804
▁сти	-3805
▁ио	-3806
▁ХХК	-3807
▁эмнэ	-3808
▁23	-3809
▁мб	-3810
▁галз	-3811
▁Үнэн	-3812
өрө	-3813
▁адал	-3814
▁нага	-3815
▁нгаа	-3816
▁агнуу	-3817
▁одруу	-3818
▁сд	-3819
▁ван	-3820
▁цэст	-3821
▁аргыг	-3822
▁усдаа	-3823
▁дра	-3824
▁далт	-3825
▁эмэл	-3826
▁санда	-3827
▁эхээр	-3828
▁НС	-3829
▁үүдэ	-3830
▁хирол	-3831
▁шинэч	-3832
▁ХК	-3833
▁You	-3834
▁кол	-3835
▁үнэт	-3836
art	-3837
▁лр	-3838
▁лир	-3839
▁мун	-3840
▁дүүд	-3841
▁цаана	-3842
▁До	-3843
▁пи	-3844
▁иун	-3845
▁ооч	-3846
▁арагд	-3847
▁ралт	-3848
▁сахи	-3849
▁улгах	-3850
ir	-3851
▁z	-3852
▁Ал	-3853
▁Жа	-3854
▁цоо	-3855
▁өлс	-3856
▁руун	-3857
ap	-3858
ee	-3859
▁яд	-3860
▁тно	-3861
▁хио	-3862
▁урва	-3863
▁гдлаа	-3864
▁гсаал	-3865
▁ргүүл	-3866
▁ими	-3867
▁айта	-3868
▁олбо	-3869
▁араан	-3870
▁турши	-3871
▁унтаг	-3872
▁ѳ	-3873
▁жол	-3874
▁мууд	-3875
▁элдэ	-3876
▁ногоо	-3877
АР	-3878
▁ьд	-3879
▁аяс	-3880
▁рак	-3881
▁удаг	-3882
▁ээжи	-3883
▁зөрчи	-3884
▁овс	-3885
▁жолоо	-3886
▁йт	-3887
▁дэс	-3888
▁ети	-3889
▁аард	-3890
▁вилг	-3891
▁жилж	-3892
▁лбэ	-3893
▁аяга	-3894
▁галт	-3895
▁амр	-3896
▁хуул	-3897
▁бан	-3898
▁дөх	-3899
▁эвд	-3900
▁авса	-3901
▁гарт	-3902
▁тийн	-3903
▁ch	-3904
▁ру	-3905
▁хоё	-3906
▁мжил	-3907
▁ундаа	-3908
▁уухан	-3909
▁өрөөс	-3910
▁АШ	-3911
▁түгэ	-3912
▁ia	-3913
▁уут	-3914
▁эцг	-3915
▁ална	-3916
▁уурай	-3917
оли	-3918
▁II	-3919
▁ОН	-3920
▁цр	-3921
▁нил	-3922
▁лгар	-3923
xt	-3924
▁НСУ	-3925
▁йлт	-3926
▁хб	-3927
▁яс	-3928
▁ийтлэ	-3929
▁ирийн	-3930
▁нхүүг	-3931
▁азр	-3932
▁ген	-3933
▁дсан	-3934
▁порт	-3935
▁болсн	-3936
um	-3937
▁ель	-3938
▁пон	-3939
▁чээр	-3940
▁Библи	-3941
▁гы	-3942
▁мэс	-3943
▁рги	-3944
▁өрл	-3945
▁эвтэ	-3946
▁эмсэ	-3947
▁аруул	-3948
▁олгүй	-3949
▁Хи	-3950
▁аши	-3951
▁иуд	-3952
▁эле	-3953
▁ахил	-3954
▁гдол	-3955
▁йгаа	-3956
▁луун	-3957
▁Ch	-3958
▁200	-3959
▁ори	-3960
▁орго	-3961
▁оми	-3962
▁пп	-3963
▁шид	-3964
▁олно	-3965
▁ролц	-3966
▁хлаа	-3967
▁элцэ	-3968
▁аарна	-3969
▁об	-3970
єр	-3971
▁Ай	-3972
▁Pre	-3973
▁гда	-3974
▁млэ	-3975
▁ндр	-3976
▁хүй	-3977
▁лууд	-3978
▁сээс	-3979
▁өхийн	-3980
ome	-3981
▁4-	-3982
▁угт	-3983
▁юун	-3984
▁лээс	-3985
ун	-3986
▁ки	-3987
▁гаж	-3988
▁этг	-3989
▁рлал	-3990
▁хурим	-3991
▁ааз	-3992
▁гов	-3993
▁тас	-3994
▁хуви	-3995
▁гадаа	-3996
▁рьдчи	-3997
▁өхөөр	-3998
▁дов	-3999
▁ирч	-4000
▁ьяа	-4001
▁гуул	-4002
▁луур	-4003
▁ориг	-4004
▁ных	-4005
▁ахиад	-4006
▁жих	-4007
▁риун	-4008
▁шинг	-4009
▁эвэр	-4010
▁или	-4011
▁ааши	-4012
▁агва	-4013
▁гааг	-4014
▁лалын	-4015
▁ng	-4016
▁АШТ	-4017
▁Гал	-4018
▁йтай	-4019
▁лонг	-4020
▁ологи	-4021
ей	-4022
▁аф	-4023
▁ачи	-4024
▁нха	-4025
▁уус	-4026
▁цго	-4027
▁айлд	-4028
▁суул	-4029
▁эдлэ	-4030
▁гдуул	-4031
▁чигдө	-4032
кс	-4033
▁авр	-4034
▁алг	-4035
▁Бари	-4036
▁гдал	-4037
▁элгэ	-4038
▁сураг	-4039
▁илг	-4040
▁лдөг	-4041
▁АТ	-4042
▁рон	-4043
▁саж	-4044
▁элч	-4045
▁хтай	-4046
▁буу	-4047
▁дож	-4048
▁жлэх	-4049
▁рсэн	-4050
▁рүүн	-4051
▁3.	-4052
▁рвэ	-4053
▁рдэг	-4054
▁рчих	-4055
▁архан	-4056
▁28	-4057
▁увь	-4058
▁насан	-4059
▁екс	-4060
со	-4061
ack	-4062
▁дод	-4063
▁жлал	-4064
▁автом	-4065
▁26	-4066
▁гла	-4067
▁авья	-4068
▁арчи	-4069
▁эгдү	-4070
▁үйлс	-4071
ore	-4072
▁мийг	-4073
▁In	-4074
▁сч	-4075
▁эт	-4076
▁дит	-4077
▁ржи	-4078
▁цом	-4079
▁амба	-4080
▁рагч	-4081
▁слийн	-4082
▁Дэ	-4083
▁Ази	-4084
▁Хүү	-4085
▁арын	-4086
▁саны	-4087
▁Mi	-4088
▁ar	-4089
▁сы	-4090
▁лго	-4091
▁цан	-4092
▁айлт	-4093
▁утаа	-4094
▁ээжий	-4095
ube	-4096
▁гүү	-4097
▁рнээ	-4098
▁снээ	-4099
▁овсро	-4100
▁уулаа	-4101
▁Хэл	-4102
▁лдл	-4103
▁тер	-4104
▁ргэл	-4105
▁ртээ	-4106
▁эдгэ	-4107
▁рамса	-4108
▁шуула	-4109
▁эрм	-4110
▁атга	-4111
▁хүнээ	-4112
▁уги	-4113
▁ахим	-4114
▁элэг	-4115
▁Үг	-4116
▁зэг	-4117
▁эвш	-4118
▁эри	-4119
▁ижиг	-4120
▁логд	-4121
▁вры	-4122
▁гыг	-4123
▁рва	-4124
▁ээсэн	-4125
ow	-4126
▁(1	-4127
▁27	-4128
▁тгаа	-4129
▁лирал	-4130
ни	-4131
▁Q	-4132
▁ари	-4133
▁ууу	-4134
▁нэхэ	-4135
▁үрэг	-4136
▁аашид	-4137
ги	-4138
▁Уу	-4139
▁жуу	-4140
▁атуу	-4141
▁нгөн	-4142
▁ноор	-4143
▁овоо	-4144
▁УР	-4145
▁ьж	-4146
▁Бод	-4147
▁гөөр	-4148
▁мжлэ	-4149
▁рний	-4150
▁Сар	-4151
▁ост	-4152
▁эмлэ	-4153
▁лэсэн	-4154
▁иул	-4155
▁уйв	-4156
▁Se	-4157
▁of	-4158
▁өт	-4159
▁цог	-4160
▁айла	-4161
▁гоос	-4162
▁тсаа	-4163
▁усды	-4164
▁өглө	-4165
vi	-4166
ГА	-4167
▁Мал	-4168
▁аду	-4169
▁агдал	-4170
▁аргал	-4171
▁ргууд	-4172
▁удалд	-4173
▁айс	-4174
▁акц	-4175
▁дэн	-4176
▁ойлг	-4177
▁рөөс	-4178
▁улна	-4179
▁логоо	-4180
ul	-4181
▁мны	-4182
▁Хаан	-4183
▁тулг	-4184
▁сайта	-4185
▁түвши	-4186
▁үүлд	-4187
▁el	-4188
▁ЭМ	-4189
▁жий	-4190
▁ймг	-4191
▁йгаад	-4192
▁ау	-4193
▁гя	-4194
▁орш	-4195
▁сий	-4196
ne	-4197
▁мэ	-4198
▁Өө	-4199
▁авх	-4200
▁пер	-4201
▁хала	-4202
▁үлээ	-4203
▁эрэлт	-4204
ЭЛ	-4205
▁Al	-4206
▁Эл	-4207
▁даал	-4208
▁сдий	-4209
ОО	-4210
▁Нү	-4211
▁тэж	-4212
▁ондо	-4213
▁голын	-4214
▁лгуул	-4215
ҮЙ	-4216
▁Ой	-4217
▁рлэ	-4218
▁өрх	-4219
▁урай	-4220
▁ет	-4221
▁рми	-4222
▁хэний	-4223
ИЙ	-4224
▁na	-4225
▁ийд	-4226
▁банк	-4227
▁үнийг	-4228
▁Дуу	-4229
▁рав	-4230
▁юул	-4231
▁арва	-4232
▁өнцө	-4233
▁азрын	-4234
дог	-4235
▁өц	-4236
▁нтр	-4237
▁йлгэ	-4238
▁шилж	-4239
▁эгнэ	-4240
▁ардаг	-4241
▁5-	-4242
▁боо	-4243
▁адар	-4244
▁амда	-4245
▁лдарт	-4246
▁хуура	-4247
▁ды	-4248
▁енд	-4249
▁шөөрө	-4250
▁цөл	-4251
▁лсон	-4252
▁нгээ	-4253
▁сайхн	-4254
▁500	-4255
▁инэ	-4256
▁Наад	-4257
▁амаас	-4258
▁мээ	-4259
▁вьяа	-4260
▁огло	-4261
▁алтыг	-4262
▁чдийн	-4263
op	-4264
▁Но	-4265
▁айт	-4266
▁ала	-4267
▁лдсон	-4268
ed	-4269
▁Win	-4270
▁амс	-4271
▁онт	-4272
▁хах	-4273
▁уулын	-4274
▁Эд	-4275
▁Бай	-4276
▁длэ	-4277
▁ина	-4278
▁дулаа	-4279
▁үүтэй	-4280
▁Яаж	-4281
▁эне	-4282
▁оёул	-4283
▁ргыг	-4284
▁ртэй	-4285
ИЛ	-4286
лай	-4287
▁пе	-4288
▁члө	-4289
▁үйс	-4290
▁Apple	-4291
▁үүхий	-4292
▁4.	-4293
▁th	-4294
▁ЭН	-4295
▁арма	-4296
▁нхан	-4297
▁ригд	-4298
▁тгаар	-4299
▁буц	-4300
▁чаа	-4301
▁аагч	-4302
▁өхөр	-4303
▁Ур	-4304
▁гуу	-4305
▁өдий	-4306
▁нийлү	-4307
ue	-4308
▁Ра	-4309
▁мм	-4310
▁по	-4311
▁ют	-4312
▁рад	-4313
▁даан	-4314
▁удам	-4315
▁йнхаа	-4316
▁дм	-4317
▁уп	-4318
▁акт	-4319
▁авуу	-4320
▁онин	-4321
▁орой	-4322
▁длийн	-4323
▁илдэг	-4324
▁un	-4325
▁Гу	-4326
▁шн	-4327
▁сөх	-4328
▁энт	-4329
▁ттай	-4330
▁лтууд	-4331
and	-4332
▁АА	-4333
▁ке	-4334
▁ойн	-4335
▁эрэ	-4336
▁ирээ	-4337
▁чийг	-4338
▁алтан	-4339
▁рэгжи	-4340
▁ol	-4341
▁the	-4342
▁таса	-4343
▁ї	-4344
▁асаа	-4345
▁гээн	-4346
▁йлын	-4347
▁роос	-4348
▁үрэн	-4349
▁гадаг	-4350
▁үнээр	-4351
ле	-4352
▁Хот	-4353
▁зоч	-4354
▁арна	-4355
▁тодор	-4356
▁тооцо	-4357
це	-4358
вор	-4359
▁аса	-4360
▁авха	-4361
▁лтоо	-4362
▁Bl	-4363
▁мь	-4364
▁өгш	-4365
▁сгөл	-4366
▁түүн	-4367
▁аарах	-4368
▁ааруу	-4369
▁имээ	-4370
▁нгуй	-4371
▁нлай	-4372
▁хард	-4373
▁аларх	-4374
▁дөлгө	-4375
▁уусан	-4376
▁HD	-4377
▁le	-4378
▁Бие	-4379
▁АЛ	-4380
▁Гү	-4381
▁Хол	-4382
▁галг	-4383
▁нэвт	-4384
▁члах	-4385
▁өрчл	-4386
▁De	-4387
▁iP	-4388
▁вт	-4389
▁улчи	-4390
▁sh	-4391
▁ило	-4392
▁чиж	-4393
▁рхэм	-4394
▁өлсөн	-4395
▁Ми	-4396
▁лдох	-4397
▁нгар	-4398
▁өгсө	-4399
▁up	-4400
▁бн	-4401
▁вта	-4402
▁ариг	-4403
▁жинг	-4404
ong	-4405
▁35	-4406
▁айч	-4407
▁төрө	-4408
▁элбэ	-4409
▁өгжл	-4410
▁аагаа	-4411
▁эрлэж	-4412
▁Sh	-4413
▁етр	-4414
▁ора	-4415
od	-4416
▁адл	-4417
▁вчл	-4418
▁өхр	-4419
▁угта	-4420
▁бодло	-4421
ig	-4422
▁үүг	-4423
▁гчээ	-4424
▁игчд	-4425
▁сгэх	-4426
▁уучи	-4427
▁андан	-4428
▁баата	-4429
▁элгүй	-4430
▁осл	-4431
▁вээр	-4432
▁лгий	-4433
▁марга	-4434
▁онлай	-4435
OL	-4436
▁кт	-4437
▁они	-4438
▁гтвор	-4439
ce	-4440
▁буд	-4441
▁гут	-4442
▁йса	-4443
▁асга	-4444
▁ааныг	-4445
ia	-4446
ҮТ	-4447
ӨӨ	-4448
▁цү	-4449
▁ГҮЙ	-4450
▁мыг	-4451
▁Home	-4452
▁дэнэ	-4453
▁нгуу	-4454
▁охой	-4455
▁гийнх	-4456
▁ОЛ	-4457
▁учл	-4458
▁эмх	-4459
▁гууд	-4460
▁лдаа	-4461
▁улаг	-4462
▁хийлэ	-4463
os	-4464
бор	-4465
▁хэвч	-4466
ak	-4467
▁иан	-4468
▁цац	-4469
▁асла	-4470
▁авахы	-4471
▁ангил	-4472
▁нэрээ	-4473
▁ээлээ	-4474
▁агу	-4475
▁ири	-4476
▁нто	-4477
▁хага	-4478
▁эрхэн	-4479
▁авс	-4480
▁еми	-4481
▁асай	-4482
▁ллаа	-4483
▁нэгт	-4484
▁үжигч	-4485
АГ	-4486
▁хов	-4487
▁алий	-4488
▁дирд	-4489
▁йлго	-4490
▁лолт	-4491
▁усла	-4492
▁илгаа	-4493
▁төлбө	-4494
▁et	-4495
▁лги	-4496
▁өрш	-4497
▁хэвт	-4498
▁орилг	-4499
▁таала	-4500
▁ддог	-4501
▁лдуу	-4502
▁ийхээ	-4503
ори	-4504
▁li	-4505
▁УВ	-4506
▁мнө	-4507
▁идео	-4508
▁орлу	-4509
▁аала	-4510
▁ишүү	-4511
▁мнөд	-4512
▁үчээ	-4513
▁ндээс	-4514
▁суулт	-4515
▁ууц	-4516
ье	-4517
ord	-4518
uck	-4519
▁te	-4520
▁тий	-4521
▁гэнд	-4522
▁өлдөг	-4523
▁Бе	-4524
▁Ва	-4525
▁Лу	-4526
▁ОР	-4527
▁адуу	-4528
▁увил	-4529
▁засва	-4530
▁рчүүд	-4531
▁арц	-4532
▁ниа	-4533
▁атгал	-4534
фт	-4535
▁дурс	-4536
▁нийх	-4537
▁чигл	-4538
▁улган	-4539
ort	-4540
▁45	-4541
ди	-4542
▁йч	-4543
▁дарс	-4544
▁захиа	-4545
▁Сан	-4546
▁лли	-4547
▁лэв	-4548
▁мши	-4549
▁ово	-4550
▁лэгд	-4551
▁мгий	-4552
▁хувц	-4553
▁цаан	-4554
▁300	-4555
▁and	-4556
▁асс	-4557
▁рим	-4558
▁ром	-4559
▁түвш	-4560
▁Windo	-4561
▁no	-4562
▁ЭР	-4563
▁юү	-4564
▁Нар	-4565
▁үйт	-4566
▁өөл	-4567
▁авир	-4568
▁гтэй	-4569
▁даас	-4570
▁охио	-4571
▁члэх	-4572
▁янга	-4573
ки	-4574
▁гэн	-4575
▁три	-4576
▁май	-4577
▁цус	-4578
▁үсг	-4579
▁айма	-4580
▁ичнэ	-4581
▁хөөр	-4582
▁нди	-4583
▁нте	-4584
▁бурх	-4585
▁рэгт	-4586
▁анс	-4587
▁өсв	-4588
зи	-4589
▁ҮҮ	-4590
▁алл	-4591
▁игт	-4592
▁сын	-4593
▁эмс	-4594
▁лгыг	-4595
▁охон	-4596
▁ээлж	-4597
▁оёрду	-4598
▁Тав	-4599
▁мэх	-4600
▁ргу	-4601
▁эрэгж	-4602
▁Ре	-4603
▁мжин	-4604
▁уудлы	-4605
АС	-4606
УУ	-4607
▁анб	-4608
▁нгө	-4609
▁ура	-4610
▁отор	-4611
▁рхай	-4612
▁улаад	-4613
▁үсийн	-4614
ҮҮ	-4615
▁ома	-4616
▁үйц	-4617
▁Сэтг	-4618
▁цсан	-4619
▁Нэр	-4620
▁өлт	-4621
▁адам	-4622
▁айха	-4623
▁амжаа	-4624
▁em	-4625
▁мэг	-4626
▁бичи	-4627
▁элийг	-4628
▁Шүү	-4629
▁асл	-4630
▁жлэ	-4631
▁түм	-4632
▁шиж	-4633
▁үтэ	-4634
▁раах	-4635
▁уудаа	-4636
▁уудаг	-4637
▁алз	-4638
▁пор	-4639
▁ури	-4640
▁айран	-4641
▁эрхтэ	-4642
▁ty	-4643
▁олзо	-4644
▁ver	-4645
▁ант	-4646
▁мэгд	-4647
▁онги	-4648
▁кг	-4649
▁өлг	-4650
▁билэ	-4651
▁рван	-4652
▁цөлд	-4653
▁элцээ	-4654
▁wn	-4655
▁уга	-4656
▁эгс	-4657
▁давт	-4658
▁лгаа	-4659
▁6-	-4660
▁АМ	-4661
▁ект	-4662
▁сыг	-4663
▁туш	-4664
▁барил	-4665
▁врийн	-4666
▁рох	-4667
▁ахиа	-4668
▁илга	-4669
▁ихгүй	-4670
all	-4671
▁7-	-4672
▁Ви	-4673
▁фр	-4674
▁цг	-4675
▁Жил	-4676
▁ууг	-4677
▁Miss	-4678
▁дсон	-4679
▁алийн	-4680
▁ээгээ	-4681
AR	-4682
▁Бр	-4683
▁мц	-4684
▁йдл	-4685
▁лха	-4686
▁онс	-4687
▁чүү	-4688
▁нөхө	-4689
▁ьсон	-4690
▁орлог	-4691
ама	-4692
▁Pl	-4693
▁ийц	-4694
▁нго	-4695
▁өгж	-4696
▁тарх	-4697
цо	-4698
▁вг	-4699
▁йлчи	-4700
▁лалд	-4701
▁налт	-4702
▁гаанд	-4703
▁оотой	-4704
▁элгээ	-4705
▁ry	-4706
▁Ди	-4707
▁бы	-4708
▁Үл	-4709
▁олз	-4710
▁шоу	-4711
▁асра	-4712
▁байг	-4713
▁раар	-4714
▁тсан	-4715
▁эрлэг	-4716
АХ	-4717
▁q	-4718
▁пу	-4719
▁алч	-4720
▁гло	-4721
▁дер	-4722
▁эсэ	-4723
▁авта	-4724
▁өгдө	-4725
▁ариул	-4726
▁цс	-4727
▁арл	-4728
▁гдо	-4729
▁аарч	-4730
▁вроп	-4731
▁гоод	-4732
▁нгоо	-4733
▁нөхц	-4734
▁рхийн	-4735
За	-4736
▁Sp	-4737
▁ЗЭН	-4738
▁агаж	-4739
▁рила	-4740
▁рээн	-4741
▁Цо	-4742
▁чө	-4743
▁мүү	-4744
▁улах	-4745
▁ргуул	-4746
▁тушаа	-4747
ТГ	-4748
▁IP	-4749
▁ИН	-4750
▁иж	-4751
▁унг	-4752
▁аний	-4753
▁гтай	-4754
▁малт	-4755
▁рлаг	-4756
▁рхон	-4757
▁ураа	-4758
▁ээний	-4759
ОЛ	-4760
▁it	-4761
▁км	-4762
▁хид	-4763
▁Му	-4764
▁єг	-4765
▁цуу	-4766
▁атар	-4767
▁эгний	-4768
la	-4769
▁at	-4770
▁дох	-4771
▁илт	-4772
▁кси	-4773
▁одит	-4774
▁эрдэ	-4775
▁өгүй	-4776
▁лагад	-4777
▁тгэгд	-4778
▁29	-4779
▁Зо	-4780
▁хож	-4781
▁янг	-4782
▁үгс	-4783
▁уури	-4784
▁эгтэ	-4785
▁үрээ	-4786
▁өлгөө	-4787
OLO	-4788
▁Нь	-4789
▁шт	-4790
▁Mac	-4791
▁гял	-4792
▁льс	-4793
▁раи	-4794
▁тло	-4795
▁удл	-4796
▁албар	-4797
▁илгоо	-4798
▁угаад	-4799
▁лу	-4800
▁Жон	-4801
▁лло	-4802
▁сээ	-4803
▁YOLO	-4804
▁чирх	-4805
▁өрөөд	-4806
▁ДҮ	-4807
▁мэн	-4808
▁тэх	-4809
▁ндөө	-4810
▁рган	-4811
▁тоон	-4812
▁тууд	-4813
▁цсийн	-4814
ес	-4815
ing	-4816
▁5.	-4817
▁Жо	-4818
▁гиш	-4819
▁цла	-4820
▁тоох	-4821
▁дамжи	-4822
▁йнхан	-4823
▁Баг	-4824
▁илл	-4825
▁мор	-4826
▁оож	-4827
▁рууд	-4828
▁хрий	-4829
▁@	-4830
▁рнө	-4831
▁үүж	-4832
▁амжу	-4833
▁гэрл	-4834
▁мэдр	-4835
▁тдаг	-4836
ОН	-4837
фи	-4838
▁Үс	-4839
▁Mar	-4840
▁Зах	-4841
▁нчи	-4842
▁элх	-4843
▁эсв	-4844
▁ӨАТ	-4845
▁рчиг	-4846
▁слийг	-4847
▁төсөө	-4848
ik	-4849
ми	-4850
▁!!	-4851
▁өш	-4852
▁пар	-4853
▁өрн	-4854
▁алин	-4855
▁31	-4856
▁агс	-4857
▁амг	-4858
▁мас	-4859
▁овч	-4860
▁рхан	-4861
▁урса	-4862
▁чилг	-4863
▁32	-4864
▁Ну	-4865
▁Хор	-4866
▁хац	-4867
▁гэсн	-4868
▁үхэр	-4869
▁айтай	-4870
АЙ	-4871
▁еж	-4872
▁зм	-4873
▁рр	-4874
▁Бур	-4875
▁лба	-4876
▁рок	-4877
▁жүүд	-4878
▁рөөр	-4879
▁слүү	-4880
▁тээр	-4881
▁урах	-4882
▁эрэм	-4883
рх	-4884
ard	-4885
▁гон	-4886
▁шоо	-4887
▁эдв	-4888
og	-4889
▁Лх	-4890
▁min	-4891
▁сла	-4892
▁лице	-4893
▁лэнэ	-4894
▁хоро	-4895
▁олооч	-4896
▁Ma	-4897
▁Un	-4898
▁me	-4899
▁iPh	-4900
▁ада	-4901
▁дэж	-4902
▁ийв	-4903
▁нти	-4904
▁батл	-4905
▁энүү	-4906
▁одоог	-4907
▁оосон	-4908
▁см	-4909
▁Гоо	-4910
▁нта	-4911
▁авал	-4912
▁ртой	-4913
▁уулиа	-4914
▁уулна	-4915
ht	-4916
itt	-4917
▁Ду	-4918
▁лдо	-4919
▁АНАН	-4920
▁анди	-4921
▁сэгт	-4922
▁арийн	-4923
▁огдол	-4924
▁^	-4925
олд	-4926
▁хн	-4927
▁жгүй	-4928
▁харх	-4929
▁улагч	-4930
ее	-4931
▁Аж	-4932
▁сса	-4933
▁Бурх	-4934
▁агал	-4935
▁гаах	-4936
▁ийнэ	-4937
▁йлга	-4938
▁ором	-4939
▁тгэх	-4940
▁длаас	-4941
▁оловс	-4942
▁ршлаг	-4943
ob	-4944
ill	-4945
▁во	-4946
▁ёо	-4947
▁УВС	-4948
▁алс	-4949
▁ваг	-4950
▁зөн	-4951
▁изи	-4952
▁амаа	-4953
▁дээл	-4954
▁сурт	-4955
▁хама	-4956
▁Холбо	-4957
▁ийнхэ	-4958
▁үлэгч	-4959
во	-4960
▁00	-4961
▁Son	-4962
▁Бая	-4963
▁Муу	-4964
▁Эмч	-4965
▁ьдаг	-4966
▁мжл	-4967
▁лтаа	-4968
▁лөгд	-4969
▁рилт	-4970
▁тэрг	-4971
▁хори	-4972
▁өөрө	-4973
▁үүдээ	-4974
бот	-4975
▁CO	-4976
▁иц	-4977
▁Хөл	-4978
▁код	-4979
▁мра	-4980
▁өсч	-4981
▁агса	-4982
▁айна	-4983
▁рман	-4984
▁усга	-4985
▁үрдэ	-4986
▁Гооли	-4987
▁хиолд	-4988
▁үлэлт	-4989
▁ням	-4990
▁сад	-4991
▁Post	-4992
▁вьса	-4993
▁голд	-4994
▁гөлө	-4995
▁джээ	-4996
▁лдах	-4997
▁рүүд	-4998
▁уршил	-4999
▁ээгдэ	-5000
ip	-5001
▁УУЛ	-5002
▁лгав	-5003
▁учра	-5004
▁элчи	-5005
ат	-5006
▁(2	-5007
▁чр	-5008
▁Хэт	-5009
▁вин	-5010
▁овло	-5011
▁ялал	-5012
ie	-5013
си	-5014
▁Am	-5015
▁To	-5016
▁Юм	-5017
▁ени	-5018
▁лос	-5019
▁рилц	-5020
▁галаа	-5021
▁36	-5022
▁ТХ	-5023
▁2-3	-5024
▁ажи	-5025
▁анда	-5026
▁анса	-5027
▁лэнг	-5028
▁рүүг	-5029
▁умын	-5030
▁гчийг	-5031
▁лабор	-5032
▁лдаан	-5033
▁олгоо	-5034
▁өөний	-5035
ff	-5036
▁Co	-5037
▁Ан	-5038
▁ИЙ	-5039
▁тро	-5040
▁алгаа	-5041
▁учраа	-5042
▁өртэй	-5043
АУ	-5044
ame	-5045
▁ях	-5046
▁Pro	-5047
▁for	-5048
▁ЭНД	-5049
▁рыг	-5050
▁Алта	-5051
▁гурв	-5052
▁инаа	-5053
▁рууг	-5054
▁хууч	-5055
▁өдрөө	-5056
▁→	-5057
▁is	-5058
▁Он	-5059
▁УИС	-5060
▁гой	-5061
▁нху	-5062
▁ойг	-5063
▁длий	-5064
▁лгуу	-5065
▁лцаа	-5066
▁нган	-5067
▁радио	-5068
▁рсний	-5069
▁этгэл	-5070
▁Ня	-5071
▁рек	-5072
▁өмө	-5073
▁лоос	-5074
▁мнэл	-5075
▁ргэд	-5076
▁сэнд	-5077
▁Ким	-5078
▁уда	-5079
▁үеэ	-5080
▁үчи	-5081
▁ймэр	-5082
▁олыг	-5083
▁уура	-5084
▁ээнэ	-5085
▁үзүү	-5086
▁амраг	-5087
▁мжилт	-5088
лагы	-5089
▁ндо	-5090
▁ртэ	-5091
▁хаш	-5092
▁ичих	-5093
▁лчид	-5094
▁нээг	-5095
▁өрөн	-5096
▁араад	-5097
II	-5098
va	-5099
ѳѳ	-5100
▁рэ	-5101
▁йлж	-5102
▁уйц	-5103
▁эвр	-5104
▁угар	-5105
▁эгдэ	-5106
▁анууд	-5107
▁йгуул	-5108
▁ег	-5109
▁аст	-5110
▁мжаа	-5111
ree	-5112
▁Тө	-5113
▁сүм	-5114
▁дээж	-5115
▁рдэм	-5116
▁үйцэ	-5117
▁хурда	-5118
▁шигла	-5119
▁өнөөд	-5120
ine	-5121
▁by	-5122
▁рб	-5123
▁пла	-5124
▁вийг	-5125
▁долд	-5126
▁дөрв	-5127
▁лана	-5128
▁орил	-5129
▁узар	-5130
▁Хүмүү	-5131
▁илүүд	-5132
ЕГ	-5133
▁Le	-5134
▁es	-5135
▁ft	-5136
▁ӨР	-5137
▁мла	-5138
▁сөр	-5139
▁арал	-5140
▁үүрс	-5141
▁андуу	-5142
▁33	-5143
▁48	-5144
▁Ни	-5145
▁ары	-5146
▁лдэ	-5147
▁лил	-5148
▁льд	-5149
▁мэр	-5150
▁адла	-5151
▁глуул	-5152
▁үзэгд	-5153
▁лож	-5154
▁нэх	-5155
▁дгүй	-5156
▁жагс	-5157
▁тоос	-5158
▁харь	-5159
▁(0	-5160
▁8-	-5161
▁Tw	-5162
▁адм	-5163
▁длы	-5164
▁жит	-5165
▁ийж	-5166
▁нов	-5167
▁ирга	-5168
▁мгүй	-5169
ang	-5170
▁АС	-5171
▁ЭД	-5172
▁рго	-5173
▁эмт	-5174
▁анар	-5175
▁гийг	-5176
▁лчих	-5177
▁агууд	-5178
▁элдээ	-5179
NU	-5180
▁ео	-5181
▁аги	-5182
▁драл	-5183
▁дөрт	-5184
▁чана	-5185
пи	-5186
олт	-5187
▁Сэ	-5188
▁you	-5189
▁гнэ	-5190
▁йца	-5191
▁Next	-5192
▁босо	-5193
▁үтгэ	-5194
▁андах	-5195
▁араал	-5196
ед	-5197
ек	-5198
are	-5199
ери	-5200
▁Be	-5201
▁SE	-5202
▁ИТ	-5203
▁Ио	-5204
▁ХУ	-5205
▁Цө	-5206
▁мл	-5207
▁ous	-5208
▁ерө	-5209
▁зуу	-5210
▁адах	-5211
▁лдар	-5212
▁лтгэл	-5213
▁ургам	-5214
▁хайрт	-5215
▁үүлэн	-5216
▁ирт	-5217
▁хла	-5218
▁лбэр	-5219
▁унга	-5220
▁цаар	-5221
▁удсан	-5222
ate	-5223
▁An	-5224
▁ӨС	-5225
▁Com	-5226
▁уди	-5227
▁үмн	-5228
▁аарал	-5229
ао	-5230
▁Mic	-5231
▁эцэ	-5232
▁дтэй	-5233
▁чуул	-5234
▁Ус	-5235
▁Шү	-5236
▁арх	-5237
▁йши	-5238
▁лчлэ	-5239
▁мөрд	-5240
▁охгүй	-5241
▁уугаа	-5242
se	-5243
ви	-5244
▁se	-5245
▁(0)	-5246
▁дрэ	-5247
▁туу	-5248
▁үрс	-5249
▁гэлз	-5250
▁рийг	-5251
▁сноо	-5252
▁тайл	-5253
▁эгдсэ	-5254
▁өгийн	-5255
▁еэ	-5256
▁tube	-5257
▁глэл	-5258
▁уурч	-5259
▁өнөөг	-5260
тф	-5261
▁уа	-5262
▁НАС	-5263
▁лцо	-5264
▁заар	-5265
▁халт	-5266
▁эцэр	-5267
▁одлог	-5268
ah	-5269
ИН	-5270
▁1,	-5271
▁мх	-5272
▁инс	-5273
▁мен	-5274
▁рли	-5275
▁дуун	-5276
▁ехно	-5277
▁инжи	-5278
▁уурха	-5279
EE	-5280
aw	-5281
▁75	-5282
▁de	-5283
▁Дар	-5284
▁айг	-5285
▁лма	-5286
▁өөж	-5287
▁read	-5288
▁ндра	-5289
▁тгэж	-5290
▁өвчи	-5291
▁лцоог	-5292
▁огчид	-5293
ӨР	-5294
▁Fi	-5295
▁Ти	-5296
▁УБ	-5297
▁чм	-5298
▁(1)	-5299
▁ber	-5300
▁алц	-5301
▁зэх	-5302
▁рьс	-5303
▁эжи	-5304
▁нтай	-5305
▁рчээ	-5306
▁ттер	-5307
▁үсээ	-5308
▁йнхээ	-5309
▁тагда	-5310
ME	-5311
ть	-5312
▁34	-5313
▁Зу	-5314
▁агн	-5315
▁гса	-5316
▁гта	-5317
▁дарч	-5318
▁зүрх	-5319
▁чдын	-5320
ud	-5321
▁lo	-5322
▁аяж	-5323
▁урч	-5324
▁энц	-5325
▁эдээ	-5326
▁өндө	-5327
▁аралт	-5328
▁gr	-5329
▁тт	-5330
▁pre	-5331
▁дги	-5332
▁мгэ	-5333
▁сэх	-5334
▁уйд	-5335
▁бама	-5336
▁гөөд	-5337
▁Li	-5338
▁утги	-5339
▁эмжи	-5340
▁эрэгс	-5341
so	-5342
ime	-5343
▁НД	-5344
▁ian	-5345
▁нши	-5346
▁comm	-5347
▁жилл	-5348
▁йрны	-5349
▁лосо	-5350
▁ршуу	-5351
ph	-5352
ГЭ	-5353
бер	-5354
▁400	-5355
▁риа	-5356
▁хих	-5357
▁үлэ	-5358
▁адга	-5359
▁адны	-5360
▁ачих	-5361
▁уурь	-5362
▁элтээ	-5363
eb	-5364
ИС	-5365
▁Ээ	-5366
▁Сая	-5367
▁год	-5368
▁сло	-5369
▁updo	-5370
▁ахав	-5371
▁элэх	-5372
▁эсий	-5373
▁АБ	-5374
▁150	-5375
▁Зам	-5376
▁йва	-5377
▁ккк	-5378
▁баат	-5379
▁дийг	-5380
▁лтүү	-5381
▁рчид	-5382
▁уруул	-5383
▁эгтэй	-5384
Их	-5385
▁US	-5386
▁ЭМБ	-5387
▁Юун	-5388
▁вши	-5389
▁удд	-5390
▁хлэ	-5391
▁члэ	-5392
▁гний	-5393
▁цүүл	-5394
▁лэхэд	-5395
лэл	-5396
▁Jo	-5397
▁Де	-5398
▁Word	-5399
▁агши	-5400
▁үнээ	-5401
▁игийн	-5402
▁ХА	-5403
▁Урт	-5404
▁мет	-5405
▁рни	-5406
▁сго	-5407
▁Tube	-5408
▁эрвэ	-5409
▁арлаг	-5410
▁платф	-5411
ЭХ	-5412
▁ЗХ	-5413
▁ник	-5414
▁урв	-5415
▁авиа	-5416
▁авьж	-5417
▁ланг	-5418
▁рлаж	-5419
▁ршил	-5420
▁сдөө	-5421
▁огдож	-5422
▁удлын	-5423
▁ууууу	-5424
▁хэлээ	-5425
▁үндэт	-5426
▁bo	-5427
▁вга	-5428
▁гжи	-5429
▁мик	-5430
▁алах	-5431
▁лалт	-5432
▁цийг	-5433
▁члөл	-5434
▁ээлт	-5435
▁ишүүд	-5436
▁лдсэн	-5437
ID	-5438
ев	-5439
ast	-5440
▁IS	-5441
▁Ст	-5442
▁ХБ	-5443
▁жс	-5444
▁Хаа	-5445
▁дөж	-5446
▁ной	-5447
▁эрж	-5448
▁олцо	-5449
▁энэт	-5450
▁ӨСҮТ	-5451
▁арааг	-5452
ug	-5453
ont	-5454
▁ly	-5455
▁иас	-5456
▁лдө	-5457
▁нин	-5458
▁тин	-5459
▁ггүй	-5460
▁улал	-5461
▁уурл	-5462
▁ийсэн	-5463
MX	-5464
▁9-	-5465
▁ОНГ	-5466
▁бит	-5467
▁төлө	-5468
▁эмцэ	-5469
▁акцин	-5470
ab	-5471
сг	-5472
▁УС	-5473
▁Ком	-5474
▁адг	-5475
▁иар	-5476
▁үргэ	-5477
▁уулгы	-5478
▁үдийг	-5479
▁үстэй	-5480
ld	-5481
ак	-5482
▁ad	-5483
▁do	-5484
▁Пи	-5485
▁Шө	-5486
▁гто	-5487
▁тна	-5488
▁цөм	-5489
▁атаж	-5490
▁дсөн	-5491
▁лдэх	-5492
▁лхам	-5493
▁лчла	-5494
▁үүрэ	-5495
▁НАСАУ	-5496
▁аргүй	-5497
▁нэний	-5498
OS	-5499
Ер	-5500
▁Ex	-5501
▁БС	-5502
▁Над	-5503
▁эвтр	-5504
▁элнэ	-5505
▁Өнгө	-5506
up	-5507
ell	-5508
▁ББ	-5509
▁ЗГ	-5510
▁ИТХ	-5511
▁йлч	-5512
▁чло	-5513
▁арих	-5514
PS	-5515
▁Me	-5516
▁ce	-5517
▁єє	-5518
▁бби	-5519
▁бер	-5520
▁уры	-5521
▁өлж	-5522
▁шийн	-5523
▁гдсөн	-5524
▁лгийн	-5525
▁робот	-5526
▁этгээ	-5527
▁лэлд	-5528
▁эсэг	-5529
▁уулба	-5530
Яг	-5531
ect	-5532
▁55	-5533
▁Сө	-5534
▁же	-5535
NUMX	-5536
▁000	-5537
▁ght	-5538
▁ави	-5539
▁амб	-5540
▁веб	-5541
▁йсан	-5542
▁нгил	-5543
▁XNUMX	-5544
▁длагы	-5545
▁замаа	-5546
▁Sa	-5547
▁Te	-5548
▁ву	-5549
▁арс	-5550
▁нор	-5551
▁атла	-5552
▁гэрч	-5553
▁хийс	-5554
▁хэмж	-5555
▁шигл	-5556
▁өдрө	-5557
▁Sonin	-5558
▁лагда	-5559
▁лбэрэ	-5560
▁лшгүй	-5561
▁2,	-5562
▁io	-5563
▁us	-5564
▁Пе	-5565
▁ӨХ	-5566
▁May	-5567
▁гис	-5568
▁зэж	-5569
▁рог	-5570
▁цаж	-5571
▁ents	-5572
▁акад	-5573
▁лгас	-5574
▁хуга	-5575
▁эрнэ	-5576
▁Previ	-5577
▁ашины	-5578
ОХ	-5579
our	-5580
▁42	-5581
▁be	-5582
▁ҮР	-5583
▁And	-5584
▁Int	-5585
▁Цар	-5586
▁гын	-5587
▁йчи	-5588
▁наж	-5589
▁хяд	-5590
▁чигд	-5591
▁авхар	-5592
▁хилга	-5593
▁хувиа	-5594
▁цээнд	-5595
ЭР	-5596
ст	-5597
int	-5598
лок	-5599
оот	-5600
▁38	-5601
▁co	-5602
▁ОТ	-5603
▁бх	-5604
▁ук	-5605
▁Гад	-5606
▁Дэд	-5607
▁кий	-5608
▁өвс	-5609
▁угац	-5610
▁шилт	-5611
▁астай	-5612
▁дууда	-5613
ide	-5614
ого	-5615
▁ra	-5616
▁вы	-5617
▁ех	-5618
▁хд	-5619
▁man	-5620
▁Чам	-5621
▁хэг	-5622
▁нхаа	-5623
▁ранц	-5624
▁урла	-5625
age	-5626
▁49	-5627
▁ge	-5628
▁mi	-5629
▁qu	-5630
▁БИ	-5631
▁Дү	-5632
▁ИЛ	-5633
▁Ян	-5634
▁!!!	-5635
▁йны	-5636
▁аачи	-5637
▁анца	-5638
▁лдан	-5639
▁нгоц	-5640
▁ууда	-5641
▁хара	-5642
▁аалты	-5643
▁чилгэ	-5644
ГИ	-5645
ash	-5646
sta	-5647
▁ЭЛ	-5648
▁хх	-5649
▁чх	-5650
▁адн	-5651
▁зин	-5652
▁илэ	-5653
▁өлд	-5654
▁йвал	-5655
▁түрэ	-5656
▁аарда	-5657
▁уулав	-5658
uu	-5659
▁ЗД	-5660
▁Sam	-5661
▁Tag	-5662
▁гас	-5663
▁мга	-5664
▁рөг	-5665
▁тта	-5666
▁цэл	-5667
▁post	-5668
▁roso	-5669
▁ртаа	-5670
▁ууры	-5671
▁амьсг	-5672
▁лбоот	-5673
▁рилга	-5674
▁хуучи	-5675
оп	-5676
ote	-5677
▁51	-5678
▁слэ	-5679
▁эмд	-5680
▁үүт	-5681
▁аалж	-5682
▁огдо	-5683
▁рсөл	-5684
vv	-5685
▁Th	-5686
▁Ле	-5687
▁ед	-5688
▁Хоё	-5689
▁йли	-5690
▁льт	-5691
▁хиц	-5692
▁хун	-5693
▁ших	-5694
▁алаг	-5695
▁лээг	-5696
▁мэдл	-5697
▁урта	-5698
▁эртэ	-5699
▁анхүү	-5700
ѳр	-5701
orn	-5702
▁ri	-5703
▁Ол	-5704
▁Jun	-5705
▁ХАА	-5706
▁вах	-5707
▁гац	-5708
▁рро	-5709
▁рөх	-5710
▁ууш	-5711
▁гсаа	-5712
▁ддэг	-5713
▁слам	-5714
▁хдаг	-5715
▁эсгэ	-5716
▁эсээ	-5717
▁аргуу	-5718
▁ргэлж	-5719
▁хоёрд	-5720
НА	-5721
▁nt	-5722
▁ЕХ	-5723
▁Хэ	-5724
▁тд	-5725
▁өөг	-5726
▁ддаг	-5727
▁лоод	-5728
▁үдэн	-5729
▁Twitt	-5730
▁лүүлж	-5731
▁ээрий	-5732
ЛӨ	-5733
ре	-5734
▁єр	-5735
▁ахы	-5736
▁ила	-5737
▁ины	-5738
▁олс	-5739
▁орв	-5740
▁Fuck	-5741
▁агла	-5742
▁арьж	-5743
▁бодл	-5744
▁эдэх	-5745
▁члүүл	-5746
▁1-2	-5747
▁ерт	-5748
▁жам	-5749
▁илд	-5750
▁тэт	-5751
▁эзэ	-5752
▁ичиж	-5753
▁нэлт	-5754
▁огчд	-5755
▁ьтай	-5756
▁лтаар	-5757
▁рьсан	-5758
вс	-5759
▁Тэ	-5760
▁мчи	-5761
▁фор	-5762
▁чим	-5763
▁next	-5764
▁аата	-5765
▁голо	-5766
▁мате	-5767
▁нада	-5768
▁нгол	-5769
▁салт	-5770
▁хайн	-5771
▁элээ	-5772
▁амтар	-5773
ui	-5774
вв	-5775
▁65	-5776
▁oo	-5777
▁Ил	-5778
▁МН	-5779
▁зи	-5780
▁лв	-5781
▁мьт	-5782
▁нер	-5783
▁цээр	-5784
▁эмжл	-5785
▁өвдө	-5786
▁нгөөр	-5787
▁уурын	-5788
▁үүрэн	-5789
fe	-5790
лг	-5791
тө	-5792
▁Є	-5793
ark	-5794
гар	-5795
▁Lo	-5796
▁ma	-5797
▁Не	-5798
▁мя	-5799
▁800	-5800
▁атл	-5801
▁гав	-5802
▁ныхо	-5803
▁эвсэ	-5804
▁ты	-5805
▁сга	-5806
▁заяа	-5807
▁рлуул	-5808
da	-5809
ид	-5810
▁NE	-5811
▁III	-5812
▁ААН	-5813
▁Вье	-5814
▁Тун	-5815
▁аант	-5816
▁гдан	-5817
▁глаа	-5818
▁слэл	-5819
▁өрсд	-5820
▁варла	-5821
се	-5822
▁🙂	-5823
▁Ar	-5824
▁Gr	-5825
▁OS	-5826
▁sp	-5827
▁СЕ	-5828
▁УГ	-5829
▁УД	-5830
▁лы	-5831
▁Хон	-5832
▁Хув	-5833
▁Шар	-5834
▁зэс	-5835
▁адна	-5836
▁алгы	-5837
▁олын	-5838
▁ренд	-5839
▁улба	-5840
▁аабар	-5841
▁гэлэн	-5842
▁йлчил	-5843
▁мгийн	-5844
▁улстө	-5845
ae	-5846
ИГ	-5847
їй	-5848
▁ex	-5849
▁вө	-5850
orld	-5851
▁аам	-5852
▁нна	-5853
▁ссэ	-5854
▁туг	-5855
▁төг	-5856
▁Үүн	-5857
▁Евро	-5858
▁драх	-5859
▁тгах	-5860
▁хийг	-5861
▁микро	-5862
▁ргийн	-5863
uur	-5864
▁Аа	-5865
▁Вэ	-5866
▁цл	-5867
▁ung	-5868
▁УУД	-5869
▁Урд	-5870
▁зий	-5871
▁рхо	-5872
▁уца	-5873
▁чат	-5874
▁яма	-5875
▁roid	-5876
▁цагд	-5877
▁үүлэ	-5878
▁асанд	-5879
▁эглээ	-5880
ЭЙ	-5881
ick	-5882
▁Cl	-5883
▁Өр	-5884
▁COV	-5885
▁Иер	-5886
▁аца	-5887
▁бэг	-5888
▁вса	-5889
▁Mong	-5890
▁уучл	-5891
▁өөрчл	-5892
AN	-5893
ве	-5894
one	-5895
▁44	-5896
▁Wh	-5897
▁АГ	-5898
▁АД	-5899
▁ZAR	-5900
▁еле	-5901
▁рнэ	-5902
▁ject	-5903
▁аалд	-5904
▁барт	-5905
▁ймээ	-5906
▁лдэж	-5907
▁нуха	-5908
▁унда	-5909
▁элзэ	-5910
▁одсон	-5911
▁₮	-5912
▁Wi	-5913
▁ll	-5914
▁НБ	-5915
▁ЭЭ	-5916
▁DEE	-5917
▁Дор	-5918
▁Хүүх	-5919
▁орын	-5920
▁охыг	-5921
▁талт	-5922
▁хэрэ	-5923
▁ыхаа	-5924
▁start	-5925
▁иргаа	-5926
▁ирсан	-5927
▁үүлээ	-5928
▁6.	-5929
▁Sc	-5930
▁Tr	-5931
▁ie	-5932
▁АВ	-5933
▁ҮН	-5934
▁арв	-5935
▁жоо	-5936
▁жор	-5937
▁шог	-5938
▁боди	-5939
▁вийн	-5940
▁омын	-5941
▁ууна	-5942
▁эхээ	-5943
▁COVID	-5944
▁арган	-5945
▁лзалт	-5946
▁удамж	-5947
AS	-5948
лер	-5949
▁PC	-5950
▁im	-5951
▁жр	-5952
▁уж	-5953
▁эб	-5954
▁ect	-5955
▁дил	-5956
▁нес	-5957
▁ови	-5958
▁ажуу	-5959
▁исте	-5960
▁унаа	-5961
▁ZARME	-5962
▁ОНГОЛ	-5963
▁алаас	-5964
▁аргын	-5965
▁ардам	-5966
▁варга	-5967
▁ргээд	-5968
▁уссан	-5969
▁үрүүн	-5970
▁үссэн	-5971
АЖ	-5972
ust	-5973
▁39	-5974
▁УЛ	-5975
▁art	-5976
▁ial	-5977
▁Ван	-5978
▁тын	-5979
▁ийдв	-5980
▁рмаа	-5981
▁удад	-5982
▁улуу	-5983
▁хайл	-5984
▁аргаа	-5985
▁асуул	-5986
▁истем	-5987
АМ	-5988
▁He	-5989
▁ОК	-5990
▁ХҮ	-5991
▁ЭЗ	-5992
▁ӨВ	-5993
▁day	-5994
▁Чин	-5995
▁зэм	-5996
▁Read	-5997
▁айды	-5998
▁алхи	-5999
▁дтай	-6000
▁ндар	-6001
▁сэдэ	-6002
▁удын	-6003
▁утаг	-6004
▁өсөл	-6005
▁ортын	-6006
▁эвлэл	-6007
▁Ap	-6008
▁Ph	-6009
▁Ве	-6010
▁ОМ	-6011
▁Үх	-6012
▁Увс	-6013
▁ХАБ	-6014
▁Яах	-6015
▁Play	-6016
▁нчлэ	-6017
▁рилж	-6018
▁сгий	-6019
▁удла	-6020
▁олдоо	-6021
▁рүүлэ	-6022
▁өхгүй	-6023
th	-6024
▁(3	-6025
▁om	-6026
▁АТГ	-6027
▁Гоё	-6028
▁gram	-6029
▁болз	-6030
▁галж	-6031
▁лэлээ	-6032
aa	-6033
уа	-6034
▁37	-6035
▁7.	-6036
▁95	-6037
▁Eg	-6038
▁XX	-6039
▁ag	-6040
▁ЗЭ	-6041
▁Цэ	-6042
▁ail	-6043
▁dur	-6044
▁авд	-6045
▁илч	-6046
▁йтг	-6047
▁орг	-6048
▁цад	-6049
▁шим	-6050
▁єєр	-6051
▁жлаа	-6052
▁илээ	-6053
▁мини	-6054
▁уууу	-6055
▁үүжи	-6056
▁икийн	-6057
▁үсийг	-6058
ерс	-6059
▁En	-6060
▁жу	-6061
▁Зул	-6062
▁лсэ	-6063
▁осо	-6064
▁улз	-6065
▁Өнө	-6066
▁айда	-6067
▁илчи	-6068
▁орин	-6069
▁өсөн	-6070
▁өхөө	-6071
▁дэгдэ	-6072
▁лгана	-6073
▁рагда	-6074
▁эртэй	-6075
ок	-6076
эйн	-6077
▁Наа	-6078
▁лов	-6079
▁нци	-6080
▁оот	-6081
▁хүл	-6082
▁цыг	-6083
▁эхэ	-6084
▁гүүн	-6085
▁усад	-6086
▁хнээ	-6087
▁онгон	-6088
▁өнгөт	-6089
▁°	-6090
ant	-6091
old	-6092
▁Ene	-6093
▁SEO	-6094
▁Uni	-6095
▁net	-6096
▁апп	-6097
▁иеэ	-6098
▁мир	-6099
▁сөө	-6100
▁эги	-6101
▁лтуу	-6102
▁ргуу	-6103
▁тэнэ	-6104
▁аалал	-6105
▁артаа	-6106
▁мнэлг	-6107
▁сэнээ	-6108
ft	-6109
▁si	-6110
▁яз	-6111
▁йдс	-6112
▁лье	-6113
▁нүх	-6114
▁ртг	-6115
▁сүр	-6116
▁тра	-6117
▁яна	-6118
▁арта	-6119
▁ваад	-6120
▁олио	-6121
▁усах	-6122
▁өрдө	-6123
мн	-6124
хо	-6125
▁am	-6126
▁ur	-6127
▁Ку	-6128
▁Хур	-6129
▁Янз	-6130
▁гат	-6131
▁гөр	-6132
▁наг	-6133
▁ток	-6134
▁ута	-6135
▁үйч	-6136
▁амга	-6137
▁анху	-6138
▁ахаа	-6139
▁гаца	-6140
▁жийн	-6141
▁иваа	-6142
▁улжээ	-6143
pt	-6144
ем	-6145
ья	-6146
єл	-6147
▁76	-6148
▁El	-6149
▁АЯ	-6150
▁МЯ	-6151
▁зэ	-6152
▁хц	-6153
▁zon	-6154
▁Вэб	-6155
▁бри	-6156
▁ужи	-6157
▁цон	-6158
▁чий	-6159
▁элэ	-6160
▁line	-6161
▁ллах	-6162
▁Insta	-6163
ite	-6164
ver	-6165
ами	-6166
дэн	-6167
зер	-6168
▁ice	-6169
▁Эрт	-6170
▁гра	-6171
▁миа	-6172
▁гдэн	-6173
▁длээ	-6174
▁лдээ	-6175
▁мана	-6176
▁ныха	-6177
▁Press	-6178
▁өлөөл	-6179
▁41	-6180
▁AM	-6181
▁ey	-6182
▁НХ	-6183
▁ТВ	-6184
▁Off	-6185
▁ess	-6186
▁ТАЙ	-6187
▁аху	-6188
▁дна	-6189
▁ону	-6190
▁авчи	-6191
▁блок	-6192
▁суэл	-6193
▁усал	-6194
▁хүлэ	-6195
▁хүрэ	-6196
▁агнал	-6197
▁нухац	-6198
▁одоод	-6199
▁хаалг	-6200
▁{	-6201
ond	-6202
▁--	-6203
▁57	-6204
▁ta	-6205
▁600	-6206
▁Алт	-6207
▁мил	-6208
▁рсд	-6209
▁улав	-6210
▁усаа	-6211
▁эдэв	-6212
▁Eguur	-6213
▁Эрдэн	-6214
▁Ad	-6215
▁ТО	-6216
▁УЗ	-6217
▁ьт	-6218
▁250	-6219
▁Хөх	-6220
▁айв	-6221
▁айва	-6222
▁огтв	-6223
▁тами	-6224
▁уулч	-6225
▁ухал	-6226
▁эцүү	-6227
▁хөтөл	-6228
asi	-6229
ork	-6230
▁TO	-6231
▁ni	-6232
▁Али	-6233
▁ады	-6234
▁рдо	-6235
▁тгий	-6236
▁тэнг	-6237
▁элжи	-6238
▁үндс	-6239
▁агтай	-6240
юс	-6241
oll	-6242
▁58	-6243
▁85	-6244
▁??	-6245
▁Че	-6246
▁end	-6247
▁Лав	-6248
▁вст	-6249
▁үсэ	-6250
▁лдөө	-6251
▁нгас	-6252
▁орио	-6253
▁тагд	-6254
▁шата	-6255
▁үрий	-6256
▁үүсэ	-6257
▁Inter	-6258
▁хүндэ	-6259
▁эдгээ	-6260
ӨН	-6261
ice	-6262
▁43	-6263
▁My	-6264
▁Ro	-6265
▁go	-6266
▁АЗ	-6267
▁Ге	-6268
▁хы	-6269
▁Lin	-6270
▁ава	-6271
▁гїй	-6272
▁ира	-6273
▁рем	-6274
▁амыг	-6275
▁арха	-6276
▁вуул	-6277
▁дчих	-6278
▁дэгд	-6279
▁рчил	-6280
▁урим	-6281
▁чээд	-6282
▁илсан	-6283
▁толго	-6284
▁элжээ	-6285
▁Өнөөд	-6286
▁09	-6287
▁Ло	-6288
▁ble	-6289
▁ive	-6290
▁ним	-6291
▁Comm	-6292
▁Page	-6293
▁алла	-6294
▁друу	-6295
▁йлан	-6296
▁рхий	-6297
▁туур	-6298
▁улиа	-6299
▁хаад	-6300
▁хсэн	-6301
▁галын	-6302
ЫГ	-6303
ake	-6304
▁99	-6305
▁la	-6306
▁sub	-6307
▁Эгч	-6308
▁лиа	-6309
▁таж	-6310
▁улш	-6311
▁хэх	-6312
▁дуга	-6313
▁роол	-6314
▁стай	-6315
▁тэмд	-6316
▁уулт	-6317
▁хойн	-6318
▁үндэ	-6319
▁өөрч	-6320
▁ололт	-6321
▁янган	-6322
▁өрийг	-6323
TS	-6324
si	-6325
uk	-6326
ола	-6327
▁ei	-6328
▁Ял	-6329
▁Air	-6330
▁son	-6331
▁шив	-6332
▁йлчл	-6333
▁рьдч	-6334
▁үзэг	-6335
SD	-6336
ку	-6337
нгє	-6338
▁52	-6339
▁Hu	-6340
▁Hy	-6341
▁PM	-6342
▁Sl	-6343
▁Зе	-6344
▁єв	-6345
▁ISO	-6346
▁ure	-6347
▁бээ	-6348
▁цам	-6349
▁ээш	-6350
▁хсан	-6351
▁арууд	-6352
▁баярт	-6353
▁ргэдэ	-6354
жу	-6355
vid	-6356
зон	-6357
▁Bo	-6358
▁Da	-6359
▁We	-6360
▁ul	-6361
▁її	-6362
▁(2)	-6363
▁Мах	-6364
▁вли	-6365
▁йлд	-6366
▁өрс	-6367
▁берт	-6368
▁дана	-6369
▁жинд	-6370
▁лдог	-6371
▁мжла	-6372
▁чдэд	-6373
▁арлаа	-6374
▁эгдээ	-6375
єх	-6376
▁bl	-6377
▁Ин	-6378
▁Эв	-6379
▁ллэ	-6380
▁нду	-6381
▁нца	-6382
▁пүү	-6383
▁хял	-6384
▁яаг	-6385
▁үдэ	-6386
▁өхц	-6387
▁porn	-6388
▁асны	-6389
▁лдаж	-6390
▁нефт	-6391
▁срэг	-6392
▁эрли	-6393
▁ээвэ	-6394
▁лонго	-6395
▁халуу	-6396
BA	-6397
ST	-6398
▁pl	-6399
▁Шо	-6400
▁120	-6401
▁Nov	-6402
▁ики	-6403
▁рца	-6404
▁тох	-6405
▁Time	-6406
▁акал	-6407
▁ийлж	-6408
▁олдо	-6409
▁уршл	-6410
▁члэл	-6411
▁аатга	-6412
▁адгүй	-6413
▁лтийг	-6414
▁ороон	-6415
▁үүлнэ	-6416
ИД	-6417
act	-6418
▁01	-6419
▁46	-6420
▁Cr	-6421
▁LI	-6422
▁VI	-6423
▁ЕГ	-6424
▁бр	-6425
▁яц	-6426
▁ine	-6427
▁алу	-6428
▁глө	-6429
▁мсө	-6430
▁рей	-6431
▁эвс	-6432
▁Sams	-6433
▁аяар	-6434
▁лжиг	-6435
▁ргын	-6436
▁өхий	-6437
▁бидэн	-6438
▁гарда	-6439
▁длого	-6440
▁логик	-6441
▁үдээс	-6442
▁өрөнг	-6443
ca	-6444
co	-6445
na	-6446
uss	-6447
▁1:	-6448
▁47	-6449
▁ОД	-6450
▁Ama	-6451
▁For	-6452
▁Jan	-6453
▁ирц	-6454
▁лхэ	-6455
▁пуу	-6456
▁учи	-6457
▁өөц	-6458
▁Free	-6459
▁аатг	-6460
▁айрт	-6461
▁айры	-6462
▁зөвш	-6463
▁рхүү	-6464
▁шилд	-6465
▁Гадаа	-6466
▁рдүүл	-6467
ara	-6468
ойн	-6469
▁Fl	-6470
▁Go	-6471
▁IT	-6472
▁LE	-6473
▁So	-6474
▁br	-6475
▁бл	-6476
▁уц	-6477
▁Үе	-6478
▁Apr	-6479
▁Man	-6480
▁Хац	-6481
▁иад	-6482
▁ндл	-6483
▁рос	-6484
▁сог	-6485
▁алет	-6486
▁атал	-6487
▁гнуу	-6488
▁заас	-6489
▁сдын	-6490
▁World	-6491
▁дөрвө	-6492
▁ллага	-6493
▁лосон	-6494
▁уртай	-6495
▁уулал	-6496
▁өхцөл	-6497
▁}	-6498
▁2:	-6499
▁HT	-6500
▁op	-6501
▁КО	-6502
▁Мэ	-6503
▁УТ	-6504
▁зө	-6505
atch	-6506
▁All	-6507
▁nce	-6508
▁ЖИЛ	-6509
▁рат	-6510
▁рус	-6511
▁шүд	-6512
▁өчи	-6513
▁вчин	-6514
▁тээг	-6515
▁уйда	-6516
▁учин	-6517
▁хдаа	-6518
▁эгий	-6519
▁үрэх	-6520
▁өрөм	-6521
▁гарал	-6522
▁тэдэн	-6523
FC	-6524
ЕС	-6525
НГ	-6526
Эх	-6527
фа	-6528
▁ИХ	-6529
▁ЛЭГ	-6530
▁ТЭЙ	-6531
▁Тал	-6532
▁еги	-6533
▁ихс	-6534
▁нах	-6535
▁тух	-6536
▁ьта	-6537
▁эви	-6538
▁үрг	-6539
▁Тэгэ	-6540
▁аарх	-6541
▁всан	-6542
▁жаал	-6543
▁лайн	-6544
▁лгөө	-6545
▁лцох	-6546
▁манд	-6547
▁ранд	-6548
▁туга	-6549
▁үсэл	-6550
▁аймги	-6551
▁улдаг	-6552
▁хөөрө	-6553
үн	-6554
▁8.	-6555
▁AP	-6556
▁As	-6557
▁lt	-6558
▁ИД	-6559
▁цы	-6560
▁pro	-6561
▁ГАА	-6562
▁Лам	-6563
▁Сур	-6564
▁гоц	-6565
▁ион	-6566
▁ува	-6567
▁өмд	-6568
▁сгээ	-6569
▁тагт	-6570
▁шинд	-6571
▁элмэ	-6572
▁лааса	-6573
▁лэгдэ	-6574
▁огийн	-6575
ke	-6576
ata	-6577
ани	-6578
▁мє	-6579
▁Min	-6580
▁Вик	-6581
▁Оны	-6582
▁аях	-6583
▁ива	-6584
▁окс	-6585
▁ЭДЭЭ	-6586
▁лала	-6587
▁лгүү	-6588
▁оооо	-6589
▁рлээ	-6590
▁ртал	-6591
▁рээс	-6592
▁тгэн	-6593
▁угай	-6594
▁ндлаг	-6595
▁тгэсэ	-6596
▁өөрөл	-6597
de	-6598
tt	-6599
бэ	-6600
сс	-6601
фл	-6602
иза	-6603
▁РД	-6604
▁рз	-6605
▁ёр	-6606
▁3-4	-6607
▁Oct	-6608
▁Дүү	-6609
▁йдэ	-6610
▁рхэ	-6611
▁сэж	-6612
▁Паул	-6613
▁Түүн	-6614
▁ваар	-6615
▁йдаг	-6616
▁онсо	-6617
▁ронз	-6618
▁скар	-6619
▁теле	-6620
▁улта	-6621
▁улэг	-6622
▁эдрэ	-6623
▁алдаж	-6624
▁инсти	-6625
▁рүүлж	-6626
▁элцэх	-6627
ХАЙ	-6628
дак	-6629
рон	-6630
▁06	-6631
▁Ed	-6632
▁Ge	-6633
▁ЖД	-6634
▁ЫН	-6635
▁нб	-6636
▁тм	-6637
▁Med	-6638
▁Бүс	-6639
▁ДӨР	-6640
▁ахь	-6641
▁гнө	-6642
▁йро	-6643
▁оды	-6644
▁рши	-6645
▁ума	-6646
▁үлг	-6647
▁Casi	-6648
▁лиар	-6649
▁нхий	-6650
▁уулд	-6651
▁хиро	-6652
▁хлэг	-6653
▁хүрг	-6654
▁чоод	-6655
▁амтра	-6656
▁гацаа	-6657
AD	-6658
cc	-6659
io	-6660
oot	-6661
▁as	-6662
▁my	-6663
▁Ча	-6664
▁дж	-6665
▁Тоо	-6666
▁лдр	-6667
▁лза	-6668
▁овг	-6669
▁icle	-6670
▁анах	-6671
▁галд	-6672
▁наан	-6673
▁ргас	-6674
▁хөөс	-6675
▁эсэн	-6676
▁үрэм	-6677
▁алгах	-6678
df	-6679
ён	-6680
ank	-6681
ose	-6682
▁54	-6683
▁TV	-6684
▁UB	-6685
▁Ub	-6686
▁ph	-6687
▁Ру	-6688
▁хт	-6689
▁1.5	-6690
▁Joh	-6691
▁Айл	-6692
▁Амь	-6693
▁ХҮН	-6694
▁нды	-6695
▁ред	-6696
▁рөл	-6697
▁соо	-6698
▁трэ	-6699
▁чуу	-6700
▁эдү	-6701
▁more	-6702
▁дгий	-6703
▁зорч	-6704
▁нсар	-6705
▁овор	-6706
▁удар	-6707
▁гүүлс	-6708
▁тгүүл	-6709
▁үнэнд	-6710
▁өлөгч	-6711
AC	-6712
AT	-6713
▁pe	-6714
▁НЭ	-6715
▁ТА	-6716
▁ҮЙ	-6717
▁АЙР	-6718
▁АТО	-6719
▁ИНЭ	-6720
▁ади	-6721
▁вра	-6722
▁нир	-6723
▁рма	-6724
▁рьц	-6725
▁сда	-6726
▁цын	-6727
▁шав	-6728
▁анза	-6729
▁гаат	-6730
▁ихсан	-6731
▁токол	-6732
▁хэтэр	-6733
УС	-6734
от	-6735
▁€	-6736
▁←	-6737
ala	-6738
ays	-6739
▁53	-6740
▁Em	-6741
▁Ёс	-6742
▁ОВ	-6743
▁УХ	-6744
▁One	-6745
▁айк	-6746
▁лис	-6747
▁рсө	-6748
▁ршл	-6749
▁More	-6750
▁анта	-6751
▁илла	-6752
▁лгад	-6753
▁ндүү	-6754
▁раас	-6755
▁рхлэ	-6756
▁эрхт	-6757
▁Хүүхэ	-6758
▁агдса	-6759
▁ангаа	-6760
▁ерийн	-6761
▁лахад	-6762
SS	-6763
ОГ	-6764
бе	-6765
oom	-6766
▁64	-6767
▁sa	-6768
▁БТ	-6769
▁ХД	-6770
▁ХЯ	-6771
▁New	-6772
▁Гэж	-6773
▁Нүү	-6774
▁Уур	-6775
▁дул	-6776
▁нол	-6777
▁орн	-6778
▁ment	-6779
▁ичээ	-6780
▁лате	-6781
▁оонд	-6782
▁ргөн	-6783
▁рдаа	-6784
▁тери	-6785
▁эндэ	-6786
▁айден	-6787
▁лүүлэ	-6788
▁нэртэ	-6789
уд	-6790
▁ba	-6791
▁Ун	-6792
▁ЭС	-6793
▁жм	-6794
▁иб	-6795
▁ых	-6796
▁Dec	-6797
▁ИАТ	-6798
▁УУР	-6799
▁зул	-6800
▁кад	-6801
▁цөх	-6802
▁эсг	-6803
▁өвт	-6804
▁варг	-6805
▁голч	-6806
▁нцуй	-6807
▁охоо	-6808
▁уурх	-6809
▁хуйн	-6810
▁ацаан	-6811
▁гатай	-6812
▁лттэй	-6813
▁нзаар	-6814
▁эггүй	-6815
еф	-6816
ere	-6817
▁(4	-6818
▁ha	-6819
▁ip	-6820
▁ДХ	-6821
▁pdf	-6822
▁ОТО	-6823
▁бөг	-6824
▁дри	-6825
▁рхл	-6826
▁ймаа	-6827
▁ооло	-6828
▁убай	-6829
▁Black	-6830
▁лахыг	-6831
▁луулж	-6832
ON	-6833
сє	-6834
ша	-6835
▁️	-6836
▁04	-6837
▁72	-6838
▁ID	-6839
▁he	-6840
▁ot	-6841
▁4-5	-6842
▁Гэх	-6843
▁арм	-6844
▁жиш	-6845
▁йла	-6846
▁кай	-6847
▁лэр	-6848
▁ойш	-6849
▁сси	-6850
▁хэж	-6851
▁эмц	-6852
▁лган	-6853
▁мэйн	-6854
▁өөрс	-6855
▁рээнд	-6856
▁эмжээ	-6857
AM	-6858
жа	-6859
▁¬	-6860
org	-6861
они	-6862
▁#1	-6863
▁56	-6864
▁Ja	-6865
▁бс	-6866
▁тч	-6867
ount	-6868
▁лта	-6869
▁лцэ	-6870
▁фит	-6871
▁эст	-6872
▁боов	-6873
▁даар	-6874
▁дээс	-6875
▁рдан	-6876
▁роод	-6877
▁улза	-6878
▁хувил	-6879
▁үүлэл	-6880
me	-6881
ux	-6882
ИР	-6883
лл	-6884
ҮБ	-6885
ict	-6886
▁07	-6887
▁IN	-6888
▁IV	-6889
▁On	-6890
▁ЭГ	-6891
▁тк	-6892
▁эф	-6893
▁Aug	-6894
▁ain	-6895
▁Нью	-6896
▁УГЖ	-6897
▁гач	-6898
▁дда	-6899
▁зоо	-6900
▁одн	-6901
▁омо	-6902
▁сув	-6903
▁цса	-6904
▁ялж	-6905
▁азаа	-6906
▁алиа	-6907
▁арак	-6908
▁ндат	-6909
▁удыг	-6910
▁эгжи	-6911
▁элсн	-6912
▁өлөн	-6913
▁итлер	-6914
IS	-6915
ge	-6916
▁′	-6917
аль	-6918
▁05	-6919
▁3,	-6920
▁66	-6921
▁98	-6922
▁CD	-6923
▁Gu	-6924
▁ЛА	-6925
▁аи	-6926
▁ard	-6927
▁ДТГ	-6928
▁Түр	-6929
▁гаг	-6930
▁жүү	-6931
▁олу	-6932
▁ршр	-6933
▁түг	-6934
▁чдэ	-6935
▁этр	-6936
▁John	-6937
▁quot	-6938
▁залг	-6939
▁игер	-6940
▁лтга	-6941
▁малн	-6942
▁одог	-6943
▁оруу	-6944
▁риал	-6945
▁уваа	-6946
▁эрхш	-6947
▁луула	-6948
▁мазон	-6949
▁толик	-6950
▁урвал	-6951
MS	-6952
ish	-6953
oto	-6954
uto	-6955
▁02	-6956
▁Br	-6957
▁PR	-6958
▁Pe	-6959
▁sc	-6960
▁Жу	-6961
▁лю	-6962
▁ica	-6963
▁НЕС	-6964
▁НҮБ	-6965
▁Онц	-6966
▁гну	-6967
▁жан	-6968
▁лек	-6969
▁мхи	-6970
▁усл	-6971
▁ягт	-6972
▁агын	-6973
▁ранк	-6974
▁рсон	-6975
▁ӨВЛӨ	-6976
▁posts	-6977
ww	-6978
▁62	-6979
▁Dr	-6980
▁ee	-6981
▁СШ	-6982
▁кү	-6983
▁Sun	-6984
▁Хил	-6985
▁Хог	-6986
▁ЭЗҮ	-6987
▁асы	-6988
▁бра	-6989
▁вөн	-6990
▁лгө	-6991
▁лса	-6992
▁ндө	-6993
▁эко	-6994
▁ҮҮХ	-6995
▁алтг	-6996
▁ооро	-6997
▁ранс	-6998
▁трал	-6999
▁чанд	-7000
▁рууда	-7001
▁үрсэн	-7002
▁өнхий	-7003
AL	-7004
др	-7005
▁9.	-7006
▁Si	-7007
▁wr	-7008
▁РХ	-7009
▁чг	-7010
▁Үд	-7011
▁iOS	-7012
▁Сай	-7013
▁мул	-7014
▁раз	-7015
▁сой	-7016
▁чра	-7017
▁йхан	-7018
▁лдоо	-7019
▁оодо	-7020
▁шгий	-7021
▁эсрэ	-7022
▁аргад	-7023
▁лдсан	-7024
▁надаа	-7025
▁нэлээ	-7026
▁нэтхэ	-7027
▁ррори	-7028
▁урсан	-7029
TE	-7030
pe	-7031
ys	-7032
▁\	-7033
ase	-7034
ала	-7035
оро	-7036
▁BI	-7037
▁CN	-7038
▁Ha	-7039
▁Mo	-7040
▁ЭВ	-7041
▁Эн	-7042
▁(3)	-7043
▁www	-7044
▁Дан	-7045
▁Нүд	-7046
▁Ойр	-7047
▁Чан	-7048
▁ати	-7049
▁ато	-7050
▁бул	-7051
▁ввв	-7052
▁гсн	-7053
▁дэт	-7054
▁ерн	-7055
▁сох	-7056
▁экс	-7057
▁Book	-7058
▁Эрдэ	-7059
▁жилч	-7060
▁инте	-7061
▁ирус	-7062
▁ргэж	-7063
▁рээр	-7064
▁чихв	-7065
▁өвий	-7066
▁рдсан	-7067
▁уудай	-7068
▁үдийн	-7069
BC	-7070
ML	-7071
ga	-7072
ЬД	-7073
Юу	-7074
па	-7075
eek	-7076
ode	-7077
out	-7078
▁MI	-7079
▁UR	-7080
▁nd	-7081
▁ОГ	-7082
▁ЭХ	-7083
▁йс	-7084
▁Big	-7085
▁Jul	-7086
▁alt	-7087
▁Зун	-7088
▁бье	-7089
▁вья	-7090
▁има	-7091
▁реф	-7092
▁рэв	-7093
▁сте	-7094
▁тив	-7095
▁үйн	-7096
▁sort	-7097
▁амта	-7098
▁нэрт	-7099
▁омжи	-7100
▁рлах	-7101
▁ртын	-7102
▁хлэн	-7103
▁ээтэ	-7104
▁үлэн	-7105
▁үртг	-7106
▁өгий	-7107
▁Цагаа	-7108
▁аагий	-7109
▁алчир	-7110
▁амтла	-7111
▁араар	-7112
▁мэдэр	-7113
▁улаам	-7114
▁өртөө	-7115
гт	-7116
ез	-7117
яя	-7118
аго	-7119
ней	-7120
▁(5	-7121
▁aa	-7122
▁os	-7123
ussy	-7124
▁Ser	-7125
▁Мат	-7126
▁Пол	-7127
▁аны	-7128
▁вьд	-7129
▁дом	-7130
▁лжэ	-7131
▁нхи	-7132
▁оло	-7133
▁урм	-7134
▁АЙНА	-7135
▁лууг	-7136
▁ооцо	-7137
▁рлан	-7138
▁рмис	-7139
▁длийг	-7140
▁ельги	-7141
ТА	-7142
▁●	-7143
ХАН	-7144
▁Ci	-7145
▁Po	-7146
▁Sw	-7147
▁50%	-7148
▁Sem	-7149
▁ГӨӨ	-7150
▁ЖДҮ	-7151
▁ЛАГ	-7152
▁НИЙ	-7153
▁Хав	-7154
▁аму	-7155
▁жид	-7156
▁йлс	-7157
▁йти	-7158
▁лэм	-7159
▁нон	-7160
▁пол	-7161
▁шта	-7162
▁эро	-7163
▁ээн	-7164
▁Game	-7165
▁арыг	-7166
▁зүтг	-7167
▁лбир	-7168
▁аанаа	-7169
▁алдан	-7170
▁гадла	-7171
▁дотро	-7172
▁ндсэн	-7173
▁онгуу	-7174
▁рсдэл	-7175
▁эгдэж	-7176
10	-7177
НЭ	-7178
Уг	-7179
нь	-7180
ike	-7181
ith	-7182
ика	-7183
▁5,	-7184
▁>>	-7185
▁pr	-7186
▁НЫ	-7187
▁ШУ	-7188
▁бж	-7189
▁ия	-7190
▁700	-7191
▁Bet	-7192
▁Mon	-7193
▁АБЗ	-7194
▁Лал	-7195
▁Пер	-7196
▁дни	-7197
▁йлу	-7198
▁ндэ	-7199
▁нөм	-7200
▁хна	-7201
▁алчи	-7202
▁орло	-7203
▁игери	-7204
▁өрөөн	-7205
ОР	-7206
ЭМ	-7207
ьф	-7208
ёо	-7209
її	-7210
ull	-7211
▁03	-7212
▁IE	-7213
▁Sk	-7214
▁Sm	-7215
▁йц	-7216
▁10,	-7217
▁Sup	-7218
▁USB	-7219
▁ner	-7220
▁Дав	-7221
▁Мод	-7222
▁СУУ	-7223
▁имэ	-7224
▁льц	-7225
▁ххх	-7226
▁яав	-7227
▁үүк	-7228
▁амди	-7229
▁даац	-7230
▁лиза	-7231
▁ссан	-7232
▁ууга	-7233
▁чихэ	-7234
▁иймээ	-7235
▁оолой	-7236
▁руулж	-7237
▁татга	-7238
ox	-7239
ег	-7240
хе	-7241
ttp	-7242
▁AR	-7243
▁RE	-7244
▁ai	-7245
▁iz	-7246
▁ru	-7247
▁ГД	-7248
▁ИЧ	-7249
▁ЛС	-7250
▁пр	-7251
▁Net	-7252
▁con	-7253
▁БТЗ	-7254
▁Бар	-7255
▁Иос	-7256
▁ЛАХ	-7257
▁Лив	-7258
▁Лос	-7259
▁СЕМ	-7260
▁ашё	-7261
▁гог	-7262
▁йна	-7263
▁лөв	-7264
▁рта	-7265
▁юмс	-7266
▁яая	-7267
▁үгэ	-7268
▁өхд	-7269
▁бэрэ	-7270
▁инал	-7271
▁одой	-7272
▁сэрж	-7273
▁хари	-7274
▁аваар	-7275
▁алгар	-7276
▁гаана	-7277
▁йлчлэ	-7278
▁редак	-7279
▁сахар	-7280
▁эгдүү	-7281
▁ђ	-7282
▁59	-7283
▁Qu	-7284
▁if	-7285
▁mo	-7286
▁ГХ	-7287
▁ЛТ	-7288
▁СЯ	-7289
▁Фл	-7290
▁ХС	-7291
ound	-7292
▁???	-7293
▁ies	-7294
▁Алс	-7295
▁Тай	-7296
▁био	-7297
▁бир	-7298
▁вын	-7299
▁гей	-7300
▁ида	-7301
▁ижи	-7302
▁угл	-7303
▁Love	-7304
▁fuck	-7305
▁http	-7306
▁голы	-7307
▁дгээ	-7308
▁дэвх	-7309
▁нхор	-7310
▁нших	-7311
▁члаа	-7312
▁өлдө	-7313
▁андла	-7314
IN	-7315
ИМ	-7316
ЭТ	-7317
ме	-7318
єв	-7319
ari	-7320
мнє	-7321
▁08	-7322
▁Do	-7323
▁cl	-7324
▁da	-7325
▁su	-7326
▁wh	-7327
▁Exp	-7328
▁cat	-7329
▁che	-7330
▁ОАЖ	-7331
▁Рай	-7332
▁гөд	-7333
▁ери	-7334
▁лат	-7335
▁лдг	-7336
▁рип	-7337
▁анли	-7338
▁байс	-7339
▁данд	-7340
▁лаач	-7341
▁стер	-7342
▁стин	-7343
▁тааг	-7344
▁цага	-7345
▁үхий	-7346
▁wrote	-7347
▁алгаж	-7348
▁байга	-7349
▁боолт	-7350
▁индэр	-7351
▁лазер	-7352
▁рлийн	-7353
▁улсан	-7354
▁эрээс	-7355
..	-7356
зе	-7357
ach	-7358
olo	-7359
ood	-7360
вот	-7361
ный	-7362
▁88	-7363
▁IQ	-7364
▁Op	-7365
▁Ra	-7366
▁fl	-7367
▁ke	-7368
▁ld	-7369
▁Con	-7370
▁nat	-7371
▁БЕГ	-7372
▁ЛАЛ	-7373
▁всэ	-7374
▁еее	-7375
▁лиу	-7376
▁нит	-7377
▁оди	-7378
▁олц	-7379
▁сна	-7380
▁энч	-7381
▁face	-7382
▁бокс	-7383
▁нээн	-7384
▁рхол	-7385
▁ээрэ	-7386
▁барла	-7387
▁орхой	-7388
▁урсга	-7389
OR	-7390
ЗХ	-7391
ада	-7392
ком	-7393
▁EN	-7394
▁fi	-7395
▁xy	-7396
▁МЭ	-7397
▁ОЁ	-7398
▁Це	-7399
▁11,	-7400
▁Can	-7401
▁Eng	-7402
▁NBA	-7403
▁War	-7404
▁Луу	-7405
▁Ням	-7406
▁Чен	-7407
▁арш	-7408
▁жав	-7409
▁кан	-7410
▁лэй	-7411
▁нав	-7412
▁нхэ	-7413
▁рчл	-7414
▁тла	-7415
▁ѳѳр	-7416
▁үхэ	-7417
▁өнц	-7418
▁арда	-7419
▁лизи	-7420
▁одож	-7421
▁пани	-7422
▁ршин	-7423
▁үчин	-7424
▁эмээх	-7425
▁эээээ	-7426
ке	-7427
эк	-7428
▁¿	-7429
arl	-7430
▁79	-7431
▁8,	-7432
▁86	-7433
▁Di	-7434
▁mp	-7435
▁ow	-7436
▁БА	-7437
▁ГО	-7438
▁ЕШ	-7439
▁ЮУ	-7440
▁вл	-7441
▁жэ	-7442
▁хе	-7443
ideo	-7444
▁180	-7445
▁Chi	-7446
▁str	-7447
▁Жин	-7448
▁Зур	-7449
▁ЛЭЛ	-7450
▁авж	-7451
▁где	-7452
▁дгэ	-7453
▁йрх	-7454
▁мит	-7455
▁топ	-7456
▁шээ	-7457
▁Huaw	-7458
▁Куба	-7459
▁болч	-7460
▁була	-7461
▁жийг	-7462
▁йдэг	-7463
▁лсны	-7464
▁отод	-7465
▁сгүй	-7466
▁өрий	-7467
▁харам	-7468
▁чихсо	-7469
▁яагаа	-7470
бу	-7471
III	-7472
oup	-7473
yle	-7474
ЛЭГ	-7475
или	-7476
▁1/	-7477
▁4,	-7478
▁4:	-7479
▁87	-7480
▁CE	-7481
▁ER	-7482
▁PS	-7483
▁МЖ	-7484
▁УН	-7485
▁рү	-7486
▁Dis	-7487
▁Web	-7488
▁АЯР	-7489
▁Лиг	-7490
▁Мэс	-7491
▁Цас	-7492
▁алы	-7493
▁дла	-7494
▁дун	-7495
▁раф	-7496
▁рэд	-7497
▁ска	-7498
▁тел	-7499
▁гарз	-7500
▁йлдэ	-7501
▁наач	-7502
▁ндуу	-7503
▁ханы	-7504
▁айдын	-7505
▁аламж	-7506
▁мэгдү	-7507
▁огдох	-7508
▁ралын	-7509
▁рханы	-7510
ha	-7511
ИХ	-7512
uro	-7513
ера	-7514
зай	-7515
ков	-7516
▁(6	-7517
▁2)	-7518
▁68	-7519
▁AS	-7520
▁ON	-7521
▁ST	-7522
▁^^	-7523
▁Ау	-7524
▁Ри	-7525
▁СС	-7526
▁Bat	-7527
▁Fin	-7528
▁IPO	-7529
▁Nat	-7530
▁XXI	-7531
▁ile	-7532
▁ton	-7533
▁ААТ	-7534
▁вэй	-7535
▁гуч	-7536
▁зга	-7537
▁зол	-7538
▁эль	-7539
▁янь	-7540
▁Cont	-7541
▁HTML	-7542
▁What	-7543
▁ЭРЭГ	-7544
▁дахи	-7545
▁еийн	-7546
▁итэм	-7547
▁лмаа	-7548
▁огто	-7549
▁тгээ	-7550
▁борло	-7551
▁нэрий	-7552
▁ойгоо	-7553
▁ткойн	-7554
▁ээдэг	-7555
**	-7556
еш	-7557
уг	-7558
ял	-7559
▁һ	-7560
ель	-7561
име	-7562
▁0.	-7563
▁92	-7564
▁GB	-7565
▁SS	-7566
▁di	-7567
▁ii	-7568
▁ob	-7569
▁sm	-7570
▁РИ	-7571
▁эп	-7572
▁Pol	-7573
▁bar	-7574
▁est	-7575
▁Иак	-7576
▁Сон	-7577
▁Фин	-7578
▁Хас	-7579
▁бэх	-7580
▁дэй	-7581
▁йга	-7582
▁утл	-7583
▁хит	-7584
▁Auto	-7585
▁агну	-7586
▁айса	-7587
▁алса	-7588
▁атер	-7589
▁байт	-7590
▁гарг	-7591
▁гата	-7592
▁двал	-7593
▁ийдэ	-7594
▁илал	-7595
▁илья	-7596
▁инфл	-7597
▁нгой	-7598
▁ргуй	-7599
▁римд	-7600
▁стор	-7601
▁ємнє	-7602
▁өлгө	-7603
▁дуула	-7604
▁йчүүд	-7605
▁рийнх	-7606
▁ршрут	-7607
li	-7608
мо	-7609
ый	-7610
ыт	-7611
яд	-7612
▁😀	-7613
она	-7614
▁La	-7615
▁fr	-7616
▁id	-7617
▁ms	-7618
▁НЬ	-7619
▁ОЙ	-7620
▁ть	-7621
▁ҮГ	-7622
▁130	-7623
▁5-6	-7624
▁Bit	-7625
▁Don	-7626
▁Rep	-7627
▁bat	-7628
▁cap	-7629
▁ert	-7630
▁Мас	-7631
▁Орж	-7632
▁бли	-7633
▁вьс	-7634
▁гуя	-7635
▁еви	-7636
▁хиа	-7637
▁ҮЙЛ	-7638
▁ҮҮР	-7639
▁өвг	-7640
▁Blue	-7641
▁Dorg	-7642
▁Java	-7643
▁work	-7644
▁Ханд	-7645
▁амбо	-7646
▁амты	-7647
▁англ	-7648
▁байд	-7649
▁бэлэ	-7650
▁гала	-7651
▁дала	-7652
▁енне	-7653
▁квот	-7654
▁лалы	-7655
▁нхээ	-7656
▁төгс	-7657
▁чанг	-7658
▁Иаков	-7659
▁амгай	-7660
▁ариуц	-7661
▁лгааг	-7662
US	-7663
te	-7664
кү	-7665
по	-7666
cel	-7667
ИЙГ	-7668
бби	-7669
▁74	-7670
▁96	-7671
▁Aw	-7672
▁DV	-7673
▁Je	-7674
▁UN	-7675
▁ye	-7676
▁Зи	-7677
▁ТҮ	-7678
▁дь	-7679
▁ѳг	-7680
ight	-7681
▁140	-7682
▁3-5	-7683
▁900	-7684
▁Des	-7685
▁Sep	-7686
▁Tim	-7687
▁Toy	-7688
▁way	-7689
▁ИЙГ	-7690
▁Нэн	-7691
▁Рок	-7692
▁Сүү	-7693
▁ану	-7694
▁ауд	-7695
▁вон	-7696
▁жон	-7697
▁илс	-7698
▁инь	-7699
▁оги	-7700
▁поп	-7701
▁сдэ	-7702
▁төй	-7703
▁үзэ	-7704
▁Star	-7705
▁блет	-7706
▁втом	-7707
▁одох	-7708
▁омдо	-7709
▁рхал	-7710
▁сони	-7711
▁урши	-7712
▁хойг	-7713
▁цуул	-7714
▁элүү	-7715
▁барын	-7716
▁лекул	-7717
▁хялба	-7718
KE	-7719
ka	-7720
ni	-7721
НХ	-7722
НЫ	-7723
ше	-7724
ade	-7725
▁Pa	-7726
▁gi	-7727
▁tr	-7728
▁ЛБ	-7729
▁ее	-7730
▁єл	-7731
▁2.5	-7732
▁Iph	-7733
▁Pow	-7734
▁Pri	-7735
▁ang	-7736
▁nes	-7737
▁tre	-7738
▁Кол	-7739
▁ОНЦ	-7740
▁Рио	-7741
▁күү	-7742
▁лгу	-7743
▁рес	-7744
▁руб	-7745
▁чны	-7746
▁шөл	-7747
▁ямд	-7748
▁Park	-7749
▁load	-7750
▁амна	-7751
▁мэгц	-7752
▁нукс	-7753
▁тийг	-7754
▁түүд	-7755
▁ууса	-7756
▁чний	-7757
▁шүүн	-7758
▁язга	-7759
▁үүмж	-7760
▁агдан	-7761
▁ахилг	-7762
▁рсөлд	-7763
▁тайва	-7764
▁эллээ	-7765
▁эмчил	-7766
DF	-7767
TV	-7768
ЭА	-7769
ink	-7770
irl	-7771
ock	-7772
ool	-7773
oud	-7774
▁6,	-7775
▁61	-7776
▁71	-7777
▁84	-7778
▁CV	-7779
▁XI	-7780
▁bi	-7781
▁gy	-7782
▁ka	-7783
▁БХ	-7784
▁ЛИ	-7785
▁нр	-7786
▁350	-7787
▁Feb	-7788
▁Gre	-7789
▁Ind	-7790
▁LED	-7791
▁Out	-7792
▁Sec	-7793
▁ara	-7794
▁Аан	-7795
▁БСБ	-7796
▁Бүү	-7797
▁Вал	-7798
▁Лай	-7799
▁гту	-7800
▁зүс	-7801
▁идэ	-7802
▁ика	-7803
▁иль	-7804
▁лих	-7805
▁нур	-7806
▁ссо	-7807
▁тад	-7808
▁хэй	-7809
▁эгц	-7810
▁ҮОН	-7811
▁үер	-7812
▁Fore	-7813
▁Gala	-7814
▁Mast	-7815
▁Plus	-7816
▁back	-7817
▁Бела	-7818
▁гүйд	-7819
▁маца	-7820
▁тана	-7821
▁уулс	-7822
▁өтөл	-7823
▁Иосеф	-7824
▁Лабор	-7825
▁аудио	-7826
▁ильям	-7827
▁иулах	-7828
▁ламжи	-7829
▁лахын	-7830
▁рипто	-7831
ЭД	-7832
зз	-7833
шр	-7834
ъя	-7835
єн	-7836
ӨХ	-7837
Өө	-7838
▁à	-7839
▁ò	-7840
▁ا	-7841
ара	-7842
ода	-7843
одк	-7844
▁(8	-7845
▁3:	-7846
▁69	-7847
▁CP	-7848
▁IC	-7849
▁Ke	-7850
▁MS	-7851
▁TH	-7852
▁ЦС	-7853
▁бд	-7854
▁йв	-7855
▁ьц	-7856
▁ѳр	-7857
▁ӨГ	-7858
▁APS	-7859
▁Gen	-7860
▁Per	-7861
▁per	-7862
▁Чех	-7863
▁бог	-7864
▁вил	-7865
▁инт	-7866
▁мөс	-7867
▁омд	-7868
▁орц	-7869
▁пиз	-7870
▁эвх	-7871
▁элн	-7872
▁Prev	-7873
▁АБЭА	-7874
▁Нара	-7875
▁ахда	-7876
▁бүрэ	-7877
▁енни	-7878
▁мааг	-7879
▁магц	-7880
▁энди	-7881
▁энээ	-7882
▁үлгэ	-7883
▁Count	-7884
OM	-7885
vo	-7886
дє	-7887
ҮХ	-7888
үг	-7889
▁©	-7890
its	-7891
▁7,	-7892
▁81	-7893
▁97	-7894
▁Pr	-7895
▁SH	-7896
▁ГА	-7897
▁ТБ	-7898
▁Чө	-7899
▁дс	-7900
▁ии	-7901
ouse	-7902
▁(4)	-7903
▁Ent	-7904
▁Pay	-7905
▁Yah	-7906
▁rip	-7907
▁win	-7908
▁бга	-7909
▁вла	-7910
▁дюс	-7911
▁ичи	-7912
▁рым	-7913
▁сто	-7914
▁уса	-7915
▁хус	-7916
▁эти	-7917
▁атах	-7918
▁байн	-7919
▁илет	-7920
▁нзаа	-7921
▁ншиж	-7922
▁олол	-7923
▁сама	-7924
▁цлаг	-7925
▁энэр	-7926
▁йхгүй	-7927
▁элдэх	-7928
▁үнээс	-7929
TA	-7930
be	-7931
ОЙ	-7932
ОМ	-7933
ча	-7934
▁ѐ	-7935
НГУ	-7936
ути	-7937
эль	-7938
▁-1	-7939
▁73	-7940
▁ME	-7941
▁[1	-7942
▁ig	-7943
▁ny	-7944
▁so	-7945
▁ДС	-7946
▁Йе	-7947
▁МТ	-7948
▁СХ	-7949
▁Эй	-7950
▁хч	-7951
▁Mob	-7952
▁are	-7953
▁int	-7954
▁ret	-7955
▁ual	-7956
▁yun	-7957
▁ДАА	-7958
▁Жан	-7959
▁ЗХУ	-7960
▁НЭГ	-7961
▁Огт	-7962
▁арн	-7963
▁бин	-7964
▁вед	-7965
▁иам	-7966
▁лби	-7967
▁нац	-7968
▁нгл	-7969
▁ндг	-7970
▁рда	-7971
▁спо	-7972
▁ьсо	-7973
▁үлж	-7974
▁үрж	-7975
▁Amer	-7976
▁Comp	-7977
▁iPad	-7978
▁БНГУ	-7979
▁Флор	-7980
▁айжа	-7981
▁лена	-7982
▁ллэг	-7983
▁лори	-7984
▁мөрө	-7985
▁онни	-7986
▁ргей	-7987
▁рдах	-7988
▁рэлд	-7989
▁свэл	-7990
▁угал	-7991
▁үдүү	-7992
▁Covid	-7993
▁артер	-7994
▁гагүй	-7995
▁игтай	-7996
▁тэгээ	-7997
▁эсгий	-7998
ba	-7999
za	-8000
ИО	-8001
ИУ	-8002
НН	-8003
ЦС	-8004
нер	-8005
▁67	-8006
▁82	-8007
▁AN	-8008
▁Hi	-8009
▁Mu	-8010
▁Or	-8011
▁Sy	-8012
▁iv	-8013
▁Ги	-8014
▁СБ	-8015
▁бб	-8016
▁еф	-8017
▁тв	-8018
▁хм	-8019
▁хє	-8020
▁BSD	-8021
▁DVD	-8022
▁ago	-8023
▁her	-8024
▁АНД	-8025
▁Ийн	-8026
▁Иов	-8027
▁Сул	-8028
▁Шри	-8029
▁ару	-8030
▁ату	-8031
▁дак	-8032
▁кин	-8033
▁лак	-8034
▁лес	-8035
▁лик	-8036
▁мьд	-8037
▁нге	-8038
▁нос	-8039
▁нса	-8040
▁нум	-8041
▁чен	-8042
▁life	-8043
▁ХААР	-8044
▁адра	-8045
▁анду	-8046
▁жигл	-8047
▁лний	-8048
▁ньян	-8049
▁пүүл	-8050
▁саан	-8051
▁тгор	-8052
▁чинг	-8053
▁үлий	-8054
▁айгүй	-8055
▁алалт	-8056
▁дуулж	-8057
▁үлжээ	-8058
▁›	-8059
▁↑	-8060
ГЭМ	-8061
ИЛЦ	-8062
лик	-8063
єрє	-8064
▁1)	-8065
▁77	-8066
▁78	-8067
▁CS	-8068
▁Ca	-8069
▁MA	-8070
▁Mc	-8071
▁NO	-8072
▁OE	-8073
▁gu	-8074
▁МА	-8075
▁РГ	-8076
▁ШТ	-8077
▁20%	-8078
▁20,	-8079
▁Che	-8080
▁Day	-8081
▁Dur	-8082
▁ger	-8083
▁gra	-8084
▁ДХВ	-8085
▁Ева	-8086
▁НӨӨ	-8087
▁гүм	-8088
▁дма	-8089
▁лцл	-8090
▁нєх	-8091
▁рсо	-8092
▁цав	-8093
▁эвэ	-8094
▁lish	-8095
▁ress	-8096
▁time	-8097
▁ХААХ	-8098
▁апти	-8099
▁арий	-8100
▁архе	-8101
▁бель	-8102
▁нанд	-8103
▁рлэх	-8104
▁чдад	-8105
▁эмдэ	-8106
▁эмтэ	-8107
▁єнгє	-8108
▁ИЙГЭМ	-8109
▁аланс	-8110
▁гээрэ	-8111
▁жилтн	-8112
▁иргиз	-8113
▁олгос	-8114
▁уузай	-8115
▁халта	-8116
▁эддэг	-8117
▁эдийг	-8118
IF	-8119
sp	-8120
ОК	-8121
вр	-8122
йн	-8123
▁►	-8124
ААР	-8125
зин	-8126
▁Ri	-8127
▁Su	-8128
▁TE	-8129
▁eg	-8130
▁ki	-8131
▁um	-8132
▁По	-8133
▁ХЦ	-8134
▁еб	-8135
▁22,	-8136
▁Det	-8137
▁Her	-8138
▁Wal	-8139
▁ant	-8140
▁can	-8141
▁gui	-8142
▁ААР	-8143
▁АЙН	-8144
▁АСА	-8145
▁ООО	-8146
▁Ойн	-8147
▁ТҮЦ	-8148
▁УСК	-8149
▁ЭЛХ	-8150
▁ЭНЭ	-8151
▁вер	-8152
▁все	-8153
▁дүй	-8154
▁нио	-8155
▁рид	-8156
▁рул	-8157
▁уни	-8158
▁ялг	-8159
▁Fire	-8160
▁Slot	-8161
▁port	-8162
▁УХАЙ	-8163
▁алдр	-8164
▁гени	-8165
▁ибер	-8166
▁ймаг	-8167
▁мафи	-8168
▁ндэс	-8169
▁	-8170
а	-8171
э	-8172
н	-8173
г	-8174
л	-8175
р	-8176
д	-8177
о	-8178
х	-8179
й	-8180
и	-8181
у	-8182
ү	-8183
т	-8184
с	-8185
б	-8186
ө	-8187
м	-8188
.	-8189
ж	-8190
в	-8191
ч	-8192
ы	-8193
з	-8194
ь	-8195
ш	-8196
ц	-8197
я	-8198
,	-8199
е	-8200
Т	-8201
-	-8202
Х	-8203
ю	-8204
"	-8205
Б	-8206
Э	-8207
0	-8208
А	-8209
1	-8210
к	-8211
М	-8212
2	-8213
Н	-8214
?	-8215
Г	-8216
У	-8217
ё	-8218
С	-8219
e	-8220
п	-8221
Д	-8222
:	-8223
О	-8224
И	-8225
o	-8226
a	-8227
З	-8228
Ө	-8229
n	-8230
Ү	-8231
i	-8232
3	-8233
r	-8234
5	-8235
t	-8236
9	-8237
s	-8238
4	-8239
!	-8240
Я	-8241
l	-8242
8	-8243
Ш	-8244
Е	-8245
6	-8246
7	-8247
Ц	-8248
)	-8249
u	-8250
Ч	-8251
v	-8252
Ж	-8253
К	-8254
ф	-8255
(	-8256
Л	-8257
m	-8258
c	-8259
d	-8260
/	-8261
Р	-8262
S	-8263
h	-8264
p	-8265
g	-8266
M	-8267
A	-8268
y	-8269
P	-8270
I	-8271
П	-8272
C	-8273
В	-8274
b	-8275
N	-8276
T	-8277
D	-8278
k	-8279
є	-8280
E	-8281
B	-8282
w	-8283
O	-8284
Ф	-8285
_	-8286
ъ	-8287
R	-8288
Й	-8289
G	-8290
L	-8291
f	-8292
F	-8293
H	-8294
;	-8295
*	-8296
x	-8297
Ю	-8298
W	-8299
[	-8300
]	-8301
#	-8302
U	-8303
V	-8304
%	-8305
·	-8306
'	-8307
Y	-8308
J	-8309
•	-8310
X	-8311
>	-8312
ѳ	-8313
K	-8314
z	-8315
|	-8316
$	-8317
j	-8318
Ё	-8319
Ы	-8320
ї	-8321
&	-8322
+	-8323
=	-8324
~	-8325
Z	-8326
<	-8327
Q	-8328
Ь	-8329
q	-8330
^	-8331
@	-8332
→	-8333
ђ	-8334
щ	-8335
һ	-8336
î	-8337
Є	-8338
₮	-8339
🙂	-8340
️	-8341
ҕ	-8342
ҥ	-8343
°	-8344
←	-8345
{	-8346
ا	-8347
à	-8348
′	-8349
}	-8350
ý	-8351
ر	-8352
€	-8353
ü	-8354
¬	-8355
\	-8356
é	-8357
í	-8358
●	-8359
ә	-8360
ë	-8361
ñ	-8362
ѐ	-8363
¿	-8364
ò	-8365
ل	-8366
›	-8367
😀	-8368
â	-8369
©	-8370
Ъ	-8371
↑	-8372
è	-8373
س	-8374
►	-8375
ã	-8376
Ѳ	-8377
ة	-8378
ك	-8379
❤	-8380
ح	-8381
Í	-8382
®	-8383
ä	-8384
₪	-8385
ð	-8386
ج	-8387
́	-8388
√	-8389
£	-8390
♥	-8391
✅	-8392
😉	-8393
Ї	-8394
🎁	-8395
✔	-8396
õ	-8397
い	-8398
á	-8399
☮	-8400
♛	-8401
ó	-8402
Щ	-8403
ᄏ	-8404
★	-8405
😛	-8406
な	-8407
ö	-8408
ん	-8409
Џ	-8410
ѕ	-8411
م	-8412
时	-8413
し	-8414
ў	-8415
の	-8416
・	-8417
ي	-8418
≤	-8419
☞	-8420
す	-8421
×	-8422
ң	-8423
ı	-8424
😍	-8425
🙏	-8426
ì	-8427
ā	-8428
і	-8429
⁄	-8430
÷	-8431
μ	-8432
ま	-8433
る	-8434
😭	-8435
Ø	-8436
Ќ	-8437
う	-8438
て	-8439
😂	-8440
😅	-8441
§	-8442
ћ	-8443
қ	-8444
に	-8445
이	-8446
🔊	-8447
🔥	-8448
😊	-8449
ï	-8450
ø	-8451
җ	-8452
ᅲ	-8453
ế	-8454
≈	-8455
】	-8456
名	-8457
û	-8458
̄	-8459
ن	-8460
♦	-8461
♪	-8462
✿	-8463
【	-8464
そ	-8465
で	-8466
ら	-8467
±	-8468
ç	-8469
ɵ	-8470
Ў	-8471
ќ	-8472
※	-8473
「	-8474
か	-8475
歌	-8476
æ	-8477
ə	-8478
α	-8479
І	-8480
ع	-8481
و	-8482
♫	-8483
あ	-8484
く	-8485
こ	-8486
た	-8487
彩	-8488
曲	-8489
称	-8490
요	-8491
🏻	-8492
¥	-8493
̈	-8494
γ	-8495
د	-8496
⭐	-8497
」	-8498
と	-8499
よ	-8500
り	-8501
れ	-8502
ー	-8503
👉	-8504
👏	-8505
💵	-8506
🤗	-8507
🤣	-8508
🤩	-8509
Õ	-8510
ş	-8511
‐	-8512
↓	-8513
↙	-8514
✓	-8515
。	-8516
が	-8517
だ	-8518
は	-8519
を	-8520
国	-8521
나	-8522
😦	-8523
😱	-8524
Á	-8525
Ü	-8526
š	-8527
ه	-8528
†	-8529
−	-8530
⋆	-8531
☈	-8532
♚	-8533
お	-8534
き	-8535
っ	-8536
も	-8537
ン	-8538
学	-8539
書	-8540
어	-8541
유	-8542
👍	-8543
📌	-8544
😢	-8545
¦	-8546
Ş	-8547
ƒ	-8548
ɪ	-8549
Ћ	-8550
ո	-8551
י	-8552
ר	-8553
ف	-8554
ᄂ	-8555
■	-8556
◆	-8557
○	-8558
☺	-8559
♡	-8560
け	-8561
ば	-8562
日	-8563
기	-8564
리	-8565
💯	-8566
¢	-8567
Ç	-8568
É	-8569
ư	-8570
ˈ	-8571
̷	-8572
β	-8573
ι	-8574
π	-8575
ұ	-8576
ն	-8577
א	-8578
ی	-8579
ᄅ	-8580
ᠠ	-8581
ᠢ	-8582
ớ	-8583
≥	-8584
▪	-8585
☆	-8586
✨	-8587
➜	-8588
➡	-8589
、	-8590
さ	-8591
せ	-8592
ち	-8593
つ	-8594
め	-8595
わ	-8596
ル	-8597
人	-8598
会	-8599
時	-8600
楽	-8601
김	-8602
니	-8603
다	-8604
¤	-8605
Ò	-8606
ß	-8607
ο	-8608
џ	-8609
ґ	-8610
Һ	-8611
ա	-8612
ե	-8613
մ	-8614
ط	-8615
غ	-8616
ᠳ	-8617
―	-8618
‹	-8619
⃣	-8620
∞	-8621
▲	-8622
◊	-8623
☀	-8624
♀	-8625
ご	-8626
じ	-8627
一	-8628
古	-8629
図	-8630
愛	-8631
江	-8632
済	-8633
経	-8634
蒙	-8635
行	-8636
表	-8637
路	-8638
返	-8639
部	-8640
際	-8641
말	-8642
배	-8643
사	-8644
서	-8645
정	-8646
지	-8647
하	-8648
🔴	-8649
😁	-8650
😘	-8651
À	-8652
Ã	-8653
Ë	-8654
Ñ	-8655
Ý	-8656
ú	-8657
İ	-8658
ō	-8659
ω	-8660
Ѕ	-8661
ғ	-8662
ל	-8663
ب	-8664
ق	-8665
ہ	-8666
ค	-8667
᠋	-8668
ᠨ	-8669
ᠷ	-8670
₩	-8671
▼	-8672
☛	-8673
☻	-8674
♂	-8675
え	-8676
げ	-8677
ょ	-8678
ㄟ	-8679
中	-8680
台	-8681
平	-8682
文	-8683
月	-8684
本	-8685
語	-8686
間	-8687
내	-8688
대	-8689
비	-8690
세	-8691
아	-8692
영	-8693
원	-8694
저	-8695
제	-8696
한	-8697
🇷	-8698
🌟	-8699
👩	-8700
💎	-8701
💥	-8702
📍	-8703
😃	-8704
😆	-8705
😇	-8706
😜	-8707
😝	-8708
🥳	-8709
Ä	-8710
Ð	-8711
Ö	-8712
å	-8713
ê	-8714
ô	-8715
þ	-8716
Ā	-8717
č	-8718
ī	-8719
Œ	-8720
ʀ	-8721
̀	-8722
Δ	-8723
ί	-8724
θ	-8725
λ	-8726
σ	-8727
ѓ	-8728
Ҥ	-8729
Ӏ	-8730
ӈ	-8731
ӓ	-8732
ӧ	-8733
ӱ	-8734
ս	-8735
տ	-8736
ւ	-8737
ք	-8738
נ	-8739
ע	-8740
أ	-8741
ش	-8742
ى	-8743
ন	-8744
ਰ	-8745
க	-8746
ง	-8747
น	-8748
ม	-8749
ย	-8750
โ	-8751
่	-8752
ᠡ	-8753
ᠦ	-8754
ᴇ	-8755
ḥ	-8756
ṭ	-8757
‖	-8758
∙	-8759
◦	-8760
☎	-8761
⚡	-8762
⚫	-8763
❗	-8764
➢	-8765
⦁	-8766
《	-8767
》	-8768
〓	-8769
ざ	-8770
ど	-8771
ひ	-8772
み	-8773
ゃ	-8774
や	-8775
キ	-8776
ゴ	-8777
シ	-8778
ナ	-8779
フ	-8780
モ	-8781
リ	-8782
上	-8783
下	-8784
件	-8785
信	-8786
出	-8787
天	-8788
子	-8789
我	-8790
法	-8791
版	-8792
现	-8793
的	-8794
自	-8795
软	-8796
达	-8797
通	-8798
音	-8799
高	-8800
경	-8801
구	-8802
국	-8803
뉴	-8804
는	-8805
라	-8806
로	-8807
바	-8808
법	-8809
부	-8810
수	-8811
스	-8812
신	-8813
야	-8814
오	-8815
우	-8816
의	-8817
인	-8818
자	-8819
장	-8820
주	-8821
태	-8822
토	-8823
티	-8824
함	-8825
해	-8826
현	-8827
횊	-8828
회	-8829
후	-8830
︎	-8831
🌈	-8832
🍷	-8833
🎯	-8834
🏠	-8835
👎	-8836
👨	-8837
💚	-8838
💜	-8839
💫	-8840
💰	-8841
🔬	-8842
🔰	-8843
🚗	-8844
🤑	-8845
🤘	-8846
🤟	-8847
🤮	-8848
🥇	-8849
Æ	-8850
È	-8851
ÿ	-8852
ć	-8853
Č	-8854
đ	-8855
ĕ	-8856
ė	-8857
ğ	-8858
Ł	-8859
ł	-8860
ń	-8861
ś	-8862
ū	-8863
ǿ	-8864
ɐ	-8865
ʜ	-8866
ˌ	-8867
̌	-8868
͜	-8869
Ω	-8870
δ	-8871
ε	-8872
κ	-8873
ν	-8874
ρ	-8875
ς	-8876
φ	-8877
ј	-8878
њ	-8879
Ґ	-8880
Ҳ	-8881
ҳ	-8882
ӣ	-8883
կ	-8884
ղ	-8885
ր	-8886
ב	-8887
ג	-8888
ה	-8889
ו	-8890
ת	-8891
ت	-8892
خ	-8893
ذ	-8894
ص	-8895
ک	-8896
क	-8897
ब	-8898
ल	-8899
ा	-8900
া	-8901
ু	-8902
্	-8903
ਟ	-8904
ਪ	-8905
ਸ	-8906
ก	-8907
ซ	-8908
ด	-8909
ล	-8910
ส	-8911
อ	-8912
ิ	-8913
ี	-8914
เ	-8915
ใ	-8916
้	-8917
྆	-8918
န	-8919
မ	-8920
့	-8921
း	-8922
ᄀ	-8923
ᆞ	-8924
ᠥ	-8925
ᠬ	-8926
ᠭ	-8927
ᠮ	-8928
ᠶ	-8929
ᵴ	-8930
ḍ	-8931
ṅ	-8932
ṇ	-8933
‣	-8934
‰	-8935
₽	-8936
↔	-8937
⇒	-8938
⇨	-8939
∂	-8940
∆	-8941
≠	-8942
⎪	-8943
⏱	-8944
│	-8945
█	-8946
□	-8947
▶	-8948
☹	-8949
♏	-8950
♔	-8951
♠	-8952
⚽	-8953
✈	-8954
❀	-8955
❄	-8956
❷	-8957
❹	-8958
❼	-8959
⠀	-8960
ぐ	-8961
ぶ	-8962
ゅ	-8963
ろ	-8964
イ	-8965
ウ	-8966
ギ	-8967
ク	-8968
コ	-8969
サ	-8970
ソ	-8971
ダ	-8972
ド	-8973
ブ	-8974
ャ	-8975
ョ	-8976
ㄍ	-8977
ㄎ	-8978
ㄨ	-8979
世	-8980
业	-8981
个	-8982
交	-8983
介	-8984
仔	-8985
代	-8986
们	-8987
住	-8988
作	-8989
便	-8990
内	-8991
分	-8992
十	-8993
南	-8994
号	-8995
合	-8996
品	-8997
商	-8998
回	-8999
団	-9000
图	-9001
地	-9002
基	-9003
変	-9004
夢	-9005
安	-9006
展	-9007
山	-9008
形	-9009
後	-9010
御	-9011
手	-9012
族	-9013
是	-9014
曜	-9015
李	-9016
松	-9017
止	-9018
気	-9019
水	-9020
流	-9021
点	-9022
理	-9023
生	-9024
用	-9025
田	-9026
発	-9027
皇	-9028
社	-9029
简	-9030
管	-9031
紀	-9032
線	-9033
网	-9034
美	-9035
翻	-9036
者	-9037
聲	-9038
胡	-9039
解	-9040
言	-9041
証	-9042
話	-9043
誌	-9044
译	-9045
请	-9046
责	-9047
身	-9048
載	-9049
近	-9050
達	-9051
重	-9052
金	-9053
鈴	-9054
门	-9055
革	-9056
類	-9057
麦	-9058
黑	-9059
龙	-9060
꧁	-9061
게	-9062
고	-9063
권	-9064
규	-9065
남	-9066
너	-9067
노	-9068
도	-9069
동	-9070
루	-9071
르	-9072
린	-9073
무	-9074
미	-9075
민	-9076
보	-9077
브	-9078
새	-9079
선	-9080
시	-9081
안	-9082
알	-9083
없	-9084
역	-9085
연	-9086
예	-9087
올	-9088
으	-9089
은	-9090
을	-9091
전	-9092
즈	-9093
직	-9094
창	-9095
초	-9096
최	-9097
크	-9098
통	-9099
튜	-9100
트	-9101
화	-9102
훈	-9103
희	-9104
🇰	-9105
🇲	-9106
🇺	-9107
🌙	-9108
🌱	-9109
🌸	-9110
🎧	-9111
👀	-9112
👐	-9113
👷	-9114
💁	-9115
💃	-9116
💅	-9117
💙	-9118
📎	-9119
🔅	-9120
🔌	-9121
🔑	-9122
🔵	-9123
🔶	-9124
🔸	-9125
🗃	-9126
😋	-9127
😎	-9128
😓	-9129
😔	-9130
🙁	-9131
🙃	-9132
🙌	-9133
🚫	-9134
🛫	-9135
🤔	-9136
🤪	-9137
🥰	-9138
🥺	-9139
🦉	-9140
🦸	-9141
¶	-9142
Â	-9143
Ê	-9144
Ì	-9145
Î	-9146
Ô	-9147
ă	-9148
ē	-9149
Ė	-9150
ę	-9151
ě	-9152
Į	-9153
ĸ	-9154
ľ	-9155
ň	-9156
œ	-9157
ř	-9158
ť	-9159
ŧ	-9160
ů	-9161
Ž	-9162
Ɗ	-9163
ǎ	-9164
ǐ	-9165
ɇ	-9166
ɑ	-9167
ɲ	-9168
ɴ	-9169
ʏ	-9170
ʟ	-9171
ː	-9172
˗	-9173
̵	-9174
̸	-9175
͞	-9176
Η	-9177
Κ	-9178
Μ	-9179
Ο	-9180
Τ	-9181
Φ	-9182
Ψ	-9183
ά	-9184
ή	-9185
η	-9186
τ	-9187
υ	-9188
ό	-9189
ύ	-9190
ώ	-9191
Ђ	-9192
҉	-9193
Җ	-9194
Қ	-9195
ҡ	-9196
Ң	-9197
Ұ	-9198
ҷ	-9199
ӄ	-9200
Ӈ	-9201
ӑ	-9202
Ә	-9203
ӝ	-9204
ӯ	-9205
Ա	-9206
Գ	-9207
Ե	-9208
Ո	-9209
դ	-9210
զ	-9211
ը	-9212
ի	-9213
լ	-9214
խ	-9215
յ	-9216
չ	-9217
վ	-9218
ց	-9219
ז	-9220
ט	-9221
מ	-9222
פ	-9223
،	-9224
؟	-9225
إ	-9226
ز	-9227
ض	-9228
َ	-9229
ۇ	-9230
ە	-9231
ं	-9232
इ	-9233
ए	-9234
ज	-9235
र	-9236
़	-9237
ि	-9238
ै	-9239
१	-9240
४	-9241
७	-9242
९	-9243
অ	-9244
ই	-9245
ক	-9246
চ	-9247
ত	-9248
দ	-9249
ব	-9250
র	-9251
ি	-9252
ে	-9253
ਂ	-9254
ਕ	-9255
ਮ	-9256
ਹ	-9257
ਾ	-9258
ਿ	-9259
ੀ	-9260
ੂ	-9261
ੈ	-9262
ੌ	-9263
ட	-9264
ழ	-9265
ா	-9266
ி	-9267
ூ	-9268
ை	-9269
்	-9270
ೋ	-9271
จ	-9272
ต	-9273
ท	-9274
ฝ	-9275
พ	-9276
ฟ	-9277
ภ	-9278
ว	-9279
ษ	-9280
ห	-9281
ฬ	-9282
ั	-9283
า	-9284
ึ	-9285
แ	-9286
ไ	-9287
์	-9288
࿐	-9289
တ	-9290
လ	-9291
သ	-9292
ဦ	-9293
ိ	-9294
ု	-9295
ေ	-9296
္	-9297
်	-9298
ြ	-9299
၊	-9300
ᄆ	-9301
ᄇ	-9302
ᄋ	-9303
ᄒ	-9304
ᅮ	-9305
ᅳ	-9306
ᅵ	-9307
ᐉ	-9308
ᠤ	-9309
ᠫ	-9310
ᠯ	-9311
ᠰ	-9312
ᠱ	-9313
ᠴ	-9314
ᠵ	-9315
ᠹ	-9316
ᠻ	-9317
ᠼ	-9318
᭄	-9319
ᴀ	-9320
ᴄ	-9321
ᴍ	-9322
ᴜ	-9323
ᴠ	-9324
ᵯ	-9325
ṃ	-9326
ẙ	-9327
ầ	-9328
ắ	-9329
ằ	-9330
ễ	-9331
ờ	-9332
ἰ	-9333
‡	-9334
₹	-9335
↖	-9336
↳	-9337
∈	-9338
≫	-9339
⋯	-9340
⌚	-9341
╒	-9342
╘	-9343
╟	-9344
╢	-9345
▍	-9346
▨	-9347
◇	-9348
☂	-9349
☑	-9350
☔	-9351
☕	-9352
☘	-9353
☝	-9354
☤	-9355
♣	-9356
♻	-9357
⚃	-9358
⚕	-9359
⚙	-9360
⚠	-9361
✌	-9362
✍	-9363
✞	-9364
✯	-9365
❂	-9366
❃	-9367
❏	-9368
❖	-9369
➥	-9370
➳	-9371
⿱	-9372
『	-9373
』	-9374
ぎ	-9375
ぬ	-9376
べ	-9377
ほ	-9378
ゆ	-9379
ィ	-9380
カ	-9381
ガ	-9382
ゲ	-9383
ジ	-9384
セ	-9385
ゼ	-9386
タ	-9387
チ	-9388
ツ	-9389
ヅ	-9390
デ	-9391
ニ	-9392
ハ	-9393
バ	-9394
ヒ	-9395
ビ	-9396
ベ	-9397
ペ	-9398
マ	-9399
ミ	-9400
ム	-9401
ラ	-9402
七	-9403
万	-9404
三	-9405
不	-9406
么	-9407
乐	-9408
也	-9409
二	-9410
云	-9411
互	-9412
京	-9413
今	-9414
他	-9415
付	-9416
任	-9417
企	-9418
伊	-9419
休	-9420
众	-9421
位	-9422
何	-9423
你	-9424
使	-9425
係	-9426
保	-9427
修	-9428
俺	-9429
們	-9430
停	-9431
健	-9432
側	-9433
僕	-9434
優	-9435
儿	-9436
元	-9437
光	-9438
克	-9439
免	-9440
八	-9441
公	-9442
册	-9443
再	-9444
冯	-9445
划	-9446
別	-9447
前	-9448
势	-9449
動	-9450
勖	-9451
務	-9452
勧	-9453
包	-9454
化	-9455
北	-9456
医	-9457
午	-9458
华	-9459
博	-9460
卡	-9461
参	-9462
叫	-9463
召	-9464
向	-9465
吗	-9466
君	-9467
员	-9468
周	-9469
味	-9470
命	-9471
和	-9472
唐	-9473
售	-9474
唱	-9475
問	-9476
喵	-9477
器	-9478
國	-9479
圖	-9480
址	-9481
型	-9482
場	-9483
塑	-9484
塚	-9485
士	-9486
声	-9487
夂	-9488
夕	-9489
夜	-9490
太	-9491
奇	-9492
奋	-9493
好	-9494
妹	-9495
委	-9496
姿	-9497
娱	-9498
字	-9499
宅	-9500
宗	-9501
定	-9502
室	-9503
宽	-9504
密	-9505
导	-9506
小	-9507
少	-9508
局	-9509
属	-9510
履	-9511
岩	-9512
峮	-9513
州	-9514
巡	-9515
巣	-9516
工	-9517
帝	-9518
带	-9519
帮	-9520
帯	-9521
年	-9522
庆	-9523
府	-9524
康	-9525
建	-9526
开	-9527
异	-9528
弦	-9529
当	-9530
录	-9531
心	-9532
必	-9533
志	-9534
忘	-9535
忙	-9536
快	-9537
怎	-9538
恩	-9539
悔	-9540
您	-9541
悲	-9542
情	-9543
意	-9544
憎	-9545
戒	-9546
戰	-9547
戸	-9548
打	-9549
払	-9550
抢	-9551
拶	-9552
指	-9553
挨	-9554
探	-9555
掲	-9556
提	-9557
改	-9558
故	-9559
斗	-9560
斥	-9561
斯	-9562
新	-9563
早	-9564
昌	-9565
星	-9566
昴	-9567
普	-9568
暲	-9569
更	-9570
會	-9571
有	-9572
望	-9573
朝	-9574
机	-9575
村	-9576
林	-9577
査	-9578
株	-9579
格	-9580
椰	-9581
楫	-9582
業	-9583
概	-9584
構	-9585
横	-9586
機	-9587
歳	-9588
残	-9589
毛	-9590
民	-9591
气	-9592
永	-9593
沖	-9594
没	-9595
河	-9596
治	-9597
沿	-9598
注	-9599
泰	-9600
洛	-9601
洞	-9602
浙	-9603
浜	-9604
淮	-9605
渡	-9606
湖	-9607
漏	-9608
演	-9609
照	-9610
燼	-9611
牛	-9612
特	-9613
玉	-9614
甘	-9615
町	-9616
画	-9617
留	-9618
登	-9619
百	-9620
盘	-9621
眉	-9622
码	-9623
破	-9624
礦	-9625
祉	-9626
祐	-9627
神	-9628
福	-9629
离	-9630
私	-9631
秘	-9632
稳	-9633
站	-9634
等	-9635
米	-9636
糞	-9637
紇	-9638
給	-9639
红	-9640
线	-9641
考	-9642
能	-9643
腕	-9644
臨	-9645
舞	-9646
航	-9647
良	-9648
華	-9649
葵	-9650
藏	-9651
藤	-9652
蘭	-9653
蛋	-9654
蠟	-9655
衛	-9656
袖	-9657
裏	-9658
製	-9659
西	-9660
要	-9661
見	-9662
視	-9663
親	-9664
见	-9665
誉	-9666
説	-9667
諸	-9668
識	-9669
讃	-9670
计	-9671
让	-9672
记	-9673
语	-9674
读	-9675
课	-9676
豚	-9677
象	-9678
貸	-9679
費	-9680
賃	-9681
資	-9682
賞	-9683
趋	-9684
車	-9685
軒	-9686
輝	-9687
载	-9688
辉	-9689
输	-9690
辺	-9691
込	-9692
运	-9693
还	-9694
迴	-9695
迹	-9696
送	-9697
逢	-9698
連	-9699
進	-9700
過	-9701
選	-9702
郑	-9703
都	-9704
配	-9705
里	-9706
鑑	-9707
钱	-9708
银	-9709
镇	-9710
长	-9711
関	-9712
问	-9713
间	-9714
阒	-9715
际	-9716
陝	-9717
险	-9718
陳	-9719
随	-9720
雑	-9721
電	-9722
面	-9723
韬	-9724
響	-9725
題	-9726
颚	-9727
駅	-9728
马	-9729
鵬	-9730
黄	-9731
龶	-9732
꧂	-9733
가	-9734
갑	-9735
갤	-9736
거	-9737
걸	-9738
것	-9739
겠	-9740
격	-9741
계	-9742
골	-9743
공	-9744
과	-9745
관	-9746
교	-9747
굴	-9748
긋	-9749
긱	-9750
끼	-9751
단	-9752
달	-9753
답	-9754
더	-9755
돈	-9756
둥	-9757
딩	-9758
떻	-9759
또	-9760
뚜	-9761
뚝	-9762
랑	-9763
래	-9764
랫	-9765
러	-9766
렘	-9767
려	-9768
룬	-9769
룰	-9770
류	-9771
를	-9772
림	-9773
릿	-9774
마	-9775
만	-9776
매	-9777
먹	-9778
메	-9779
며	-9780
명	-9781
모	-9782
몽	-9783
문	-9784
뭘	-9785
뮤	-9786
반	-9787
밥	-9788
백	-9789
밴	-9790
버	-9791
번	-9792
베	-9793
벼	-9794
변	-9795
병	-9796
불	-9797
뷔	-9798
븐	-9799
블	-9800
빈	-9801
뻐	-9802
뿌	-9803
상	-9804
생	-9805
석	-9806
설	-9807
섭	-9808
성	-9809
송	-9810
숙	-9811
슨	-9812
습	-9813
승	-9814
식	-9815
실	-9816
싼	-9817
쌍	-9818
양	-9819
업	-9820
에	-9821
엘	-9822
엥	-9823
여	-9824
열	-9825
옷	-9826
와	-9827
왔	-9828
외	-9829
용	-9830
울	-9831
웆	-9832
워	-9833
월	-9834
윤	-9835
율	-9836
응	-9837
일	-9838
있	-9839
잘	-9840
재	-9841
적	-9842
조	-9843
죄	-9844
죻	-9845
진	-9846
짓	-9847
짱	-9848
찌	-9849
찡	-9850
차	-9851
찾	-9852
채	-9853
청	-9854
체	-9855
침	-9856
칩	-9857
칫	-9858
카	-9859
커	-9860
케	-9861
코	-9862
콕	-9863
콧	-9864
키	-9865
탄	-9866
탓	-9867
탠	-9868
터	-9869
틴	-9870
팅	-9871
팝	-9872
퍼	-9873
펄	-9874
평	-9875
폰	-9876
푸	-9877
플	-9878
픽	-9879
학	-9880
항	-9881
햄	-9882
혀	-9883
혜	-9884
호	-9885
홈	-9886
홍	-9887
횒	-9888
횗	-9889
횜	-9890
흐	-9891
흥	-9892
￼	-9893
𖢘	-9894
🆕	-9895
🇫	-9896
🇳	-9897
🇸	-9898
🇽	-9899
🌃	-9900
🌄	-9901
🌅	-9902
🌍	-9903
🌐	-9904
🌡	-9905
🌳	-9906
🌻	-9907
🍀	-9908
🍁	-9909
🍇	-9910
🍑	-9911
🍞	-9912
🍩	-9913
🍯	-9914
🍰	-9915
🍱	-9916
🍹	-9917
🍽	-9918
🍾	-9919
🎀	-9920
🎄	-9921
🎬	-9922
🎶	-9923
🏆	-9924
🏋	-9925
🏣	-9926
🏦	-9927
🏼	-9928
👑	-9929
👦	-9930
👧	-9931
👽	-9932
💀	-9933
💉	-9934
💋	-9935
💐	-9936
💔	-9937
💕	-9938
💝	-9939
💡	-9940
💢	-9941
💩	-9942
💪	-9943
💸	-9944
💻	-9945
💼	-9946
📁	-9947
📅	-9948
📕	-9949
📖	-9950
📞	-9951
📣	-9952
📦	-9953
📱	-9954
📲	-9955
📷	-9956
🔄	-9957
🔹	-9958
🕑	-9959
🕘	-9960
🕯	-9961
🖐	-9962
🖤	-9963
🗓	-9964
😄	-9965
😈	-9966
😐	-9967
😑	-9968
😡	-9969
😥	-9970
😩	-9971
😫	-9972
😮	-9973
😰	-9974
😲	-9975
😶	-9976
😷	-9977
🙆	-9978
🙋	-9979
🙎	-9980
🚀	-9981
🚘	-9982
🚩	-9983
🛍	-9984
🛑	-9985
🛒	-9986
🛡	-9987
🤍	-9988
🤓	-9989
🤡	-9990
🤫	-9991
🥄	-9992
🦊	-9993
🦋	-9994
🧤	-9995
🧨	-9996
