<unk>	0
<s>	0
</s>	0
▁.	-3.30072
▁б	-3.72594
▁х	-3.90036
▁н	-4.26154
▁т	-4.30019
▁ийн	-4.51009
▁,	-4.516
▁нь	-4.62566
▁д	-4.7729
▁л	-4.86702
▁-	-4.87668
▁гүй	-4.93878
а	-5.01987
▁"	-5.03407
▁з	-5.10676
▁ч	-5.10986
▁байна	-5.13707
▁ын	-5.14764
▁ж	-5.14912
л	-5.17871
▁юм	-5.26248
▁ийг	-5.30732
г	-5.33846
▁г	-5.3533
▁тэй	-5.4853
▁айгаа	-5.48779
▁0	-5.5282
▁тай	-5.54245
д	-5.54291
.	-5.57023
▁сан	-5.58732
▁гэж	-5.5915
▁Т	-5.59523
▁Х	-5.60032
р	-5.61833
▁бол	-5.63176
▁1	-5.65994
▁ыг	-5.71926
▁2	-5.75271
▁ах	-5.76104
▁Б	-5.79103
▁ха	-5.80575
▁аа	-5.80899
▁с	-5.85292
▁М	-5.8699
э	-5.87554
н	-5.90013
▁ээ	-5.91329
▁энэ	-5.93211
▁р	-5.93425
▁хэрэг	-5.94609
▁А	-5.95235
▁байх	-5.95663
▁:	-6.00862
▁Энэ	-6.03741
▁айсан	-6.0559
▁өөр	-6.07929
?	-6.07942
▁та	-6.08384
▁ажил	-6.09458
▁хүн	-6.11267
▁нэг	-6.11754
▁а	-6.13299
▁сэн	-6.1398
▁ны	-6.16546
▁дээ	-6.17064
ий	-6.20131
▁уу	-6.23169
▁Э	-6.23405
и	-6.23752
▁Г	-6.26505
▁эх	-6.27304
▁м	-6.29146
▁ээр	-6.29171
▁даг	-6.2938
▁аас	-6.32534
▁Д	-6.33812
▁Н	-6.37084
▁жил	-6.38655
▁их	-6.38843
▁аж	-6.39789
▁аар	-6.39925
▁С	-6.41007
▁даа	-6.41762
▁дэг	-6.42701
▁У	-6.44687
о	-6.45422
▁болно	-6.45628
▁эд	-6.47515
▁үү	-6.47636
▁ху	-6.48626
▁о	-6.49345
х	-6.49994
▁онгол	-6.50353
▁ний	-6.50917
▁айдаг	-6.51829
▁хэл	-6.533
▁дээр	-6.53541
▁уул	-6.53997
▁би	-6.54664
▁З	-6.55627
▁гар	-6.56121
▁вэ	-6.56663
▁ээс	-6.57062
ц	-6.57614
▁йн	-6.57919
▁лт	-6.59308
▁асуу	-6.60493
▁хар	-6.62392
▁болох	-6.62744
▁гэсэн	-6.66073
▁нд	-6.66232
▁И	-6.67143
▁шүү	-6.68892
үмүү	-6.69289
▁юу	-6.69559
▁ууд	-6.69997
▁сон	-6.70149
▁!	-6.70382
▁9	-6.71125
▁?	-6.71196
▁олон	-6.71444
▁ы	-6.721
▁тэр	-6.732
▁зүйл	-6.73759
▁ад	-6.7504
▁...	-6.76602
▁ямар	-6.76943
▁Би	-6.77089
▁нийг	-6.77271
▁э	-6.78989
амг	-6.79846
▁цаг	-6.80287
▁хо	-6.80395
▁үүд	-6.80475
▁я	-6.83163
▁биш	-6.84084
▁ор	-6.85895
▁3	-6.86234
▁хө	-6.87075
▁амьд	-6.87455
т	-6.91066
▁на	-6.91184
▁5	-6.91302
у	-6.9156
▁ав	-6.91674
▁үз	-6.92597
▁ид	-6.93189
▁гаа	-6.94195
▁айгу	-6.95294
▁хоёр	-6.95884
▁нэ	-6.96142
▁аад	-6.96663
▁ий	-6.96732
▁боло	-6.96801
▁гэдэг	-6.97029
▁эрх	-6.97181
▁шиг	-6.97865
▁гийн	-6.98822
▁мэдээ	-6.99701
▁бид	-6.9993
▁сайн	-7.00341
▁олсон	-7.00829
▁болон	-7.01222
▁бод	-7.01561
▁хэн	-7.02496
▁Тэр	-7.02954
▁лаа	-7.03883
в	-7.04152
▁4	-7.04593
▁гээр	-7.04725
▁ш	-7.0521
▁улс	-7.06175
▁жээ	-7.06182
▁Та	-7.06575
▁в	-7.07227
▁8	-7.07681
,	-7.08487
▁лага	-7.08623
▁)	-7.09353
▁О	-7.09681
▁мэд	-7.10241
▁гд	-7.1062
▁бүр	-7.10786
▁бай	-7.11809
▁у	-7.11885
ы	-7.11976
▁хийх	-7.12044
▁дог	-7.12148
▁үнэ	-7.12259
▁ши	-7.12433
▁(	-7.12911
▁са	-7.1292
▁чих	-7.14252
▁ер	-7.14866
▁ёстой	-7.162
▁дараа	-7.16634
▁да	-7.16969
▁нас	-7.17359
▁но	-7.17367
▁сөн	-7.17599
▁өмнө	-7.17628
▁бүх	-7.17822
▁га	-7.18218
▁лээ	-7.18375
▁и	-7.19042
▁байж	-7.19995
▁к	-7.20241
▁чинь	-7.21041
▁6	-7.21043
▁илүү	-7.21173
▁эр	-7.21778
▁ээд	-7.2179
▁айр	-7.22232
▁нар	-7.22504
▁ан	-7.22755
▁	-7.23078
▁үед	-7.23371
▁7	-7.23557
▁/	-7.23819
▁болж	-7.23896
▁авах	-7.2394
▁одоо	-7.24604
▁ашиг	-7.25169
▁гч	-7.25249
▁маш	-7.25424
▁ул	-7.2571
▁үүл	-7.25716
үүхд	-7.27266
▁алаар	-7.2763
▁ө	-7.28356
▁хан	-7.29162
▁Ц	-7.29178
▁газар	-7.29427
▁шийд	-7.29617
▁эж	-7.29653
▁энд	-7.30296
▁нэр	-7.30305
м	-7.30823
▁гэр	-7.31276
эмжэ	-7.31301
олбо	-7.31513
▁ал	-7.31765
▁дал	-7.31787
▁оны	-7.32194
▁дэ	-7.32523
▁сэтгэ	-7.32532
▁гээд	-7.32552
▁хий	-7.32643
▁тухай	-7.33181
▁то	-7.33431
▁Я	-7.33574
▁шаар	-7.33704
▁Ө	-7.34108
▁үүний	-7.34494
▁онд	-7.34867
▁болго	-7.34943
▁гэх	-7.36067
▁гарга	-7.36885
▁бас	-7.37064
▁үйл	-7.37643
▁хувьд	-7.3808
▁арга	-7.38248
▁ийм	-7.38626
▁хийж	-7.38638
▁өдөр	-7.39122
▁хү	-7.40313
ч	-7.40872
▁удаа	-7.41231
▁буй	-7.41724
▁су	-7.41725
▁сары	-7.4176
▁той	-7.42042
▁гэд	-7.42196
с	-7.42576
▁үг	-7.42714
▁Ш	-7.42874
▁Бид	-7.43961
▁авч	-7.44121
▁өгөөд	-7.4436
▁К	-7.4461
▁том	-7.44626
▁ам	-7.44739
▁Тийм	-7.4478
▁лэл	-7.45088
▁лгээ	-7.45172
▁эхдээ	-7.45477
▁сайх	-7.45668
▁мжтой	-7.45682
▁нээс	-7.4665
▁ойлго	-7.4699
▁оруул	-7.47416
▁өө	-7.49307
▁Хари	-7.49793
▁лэ	-7.50599
▁баяр	-7.52092
▁минь	-7.52603
▁оо	-7.52628
▁алт	-7.52758
▁Ү	-7.53062
▁шинэ	-7.5331
▁нийт	-7.53456
▁сонго	-7.5352
▁чадах	-7.53548
▁со	-7.53935
▁тэд	-7.54532
ө	-7.55116
▁анд	-7.55117
▁Ж	-7.55209
▁нэгэн	-7.55697
▁эл	-7.56204
▁идний	-7.5837
▁комп	-7.58594
▁од	-7.59006
▁Одоо	-7.59092
▁хүний	-7.59657
▁тодо	-7.60141
▁зөв	-7.60332
▁тус	-7.60555
▁чи	-7.61224
▁миний	-7.61566
▁үр	-7.61925
▁төр	-7.62213
▁лагаа	-7.62297
▁дөр	-7.62658
▁ир	-7.62896
эмээ	-7.63096
▁санал	-7.63124
▁тогло	-7.63186
▁улсын	-7.63241
▁өрийн	-7.63817
▁агаад	-7.65476
▁орон	-7.65521
▁бий	-7.6558
▁чад	-7.65798
▁ар	-7.65842
▁дур	-7.66301
▁Ч	-7.66334
▁эдэн	-7.66364
▁гишүү	-7.66607
▁яв	-7.66779
▁гээ	-7.66924
▁хүнд	-7.6724
▁оног	-7.67404
▁руу	-7.68213
▁мөнгө	-7.68276
▁өг	-7.68765
▁рч	-7.69
▁сана	-7.69017
▁билээ	-7.6925
▁хүс	-7.69325
▁мэдэх	-7.694
▁ох	-7.69548
▁лхий	-7.69711
▁ард	-7.71043
▁өнөө	-7.71096
▁гаар	-7.7119
▁айлаа	-7.71223
▁гөө	-7.71253
чи	-7.71549
▁за	-7.72825
▁бэ	-7.72854
▁ээл	-7.72953
▁лэг	-7.73021
▁оор	-7.73074
▁төлөө	-7.73287
▁лөгч	-7.73427
▁санаа	-7.73638
▁аагүй	-7.74094
▁бага	-7.74244
▁эн	-7.74706
▁ц	-7.74748
▁агч	-7.74939
▁аан	-7.75038
▁мөн	-7.75231
▁дарга	-7.75576
▁доо	-7.75883
▁түү	-7.75984
▁болов	-7.76259
▁ту	-7.76385
▁тулд	-7.76716
▁иргэд	-7.77089
▁эв	-7.77233
▁өд	-7.77407
▁ма	-7.77417
анай	-7.77692
▁айдал	-7.77753
▁Мөн	-7.78646
эрхэ	-7.78681
▁ртэл	-7.7877
▁өнгөр	-7.78868
▁үүхэд	-7.78882
амай	-7.79021
▁Миний	-7.79233
▁өвхөн	-7.79667
▁эсвэл	-7.80018
▁хуга	-7.80085
ээ	-7.80704
ж	-7.81057
▁сург	-7.81085
▁Үү	-7.81141
▁лж	-7.81402
▁аанд	-7.81426
▁тийм	-7.81643
▁албан	-7.82844
▁дахь	-7.83759
▁урхан	-7.84055
▁таны	-7.84114
▁ба	-7.84202
▁ганц	-7.84434
▁улла	-7.84477
▁маань	-7.84767
▁Тэд	-7.85286
▁ү	-7.8535
айдл	-7.85636
▁тал	-7.85709
▁дахин	-7.86213
▁эгээд	-7.86349
уу	-7.86562
▁бус	-7.86829
▁манай	-7.87043
▁үйлдв	-7.87131
охио	-7.87137
▁тү	-7.8746
▁ин	-7.87612
▁дэмж	-7.87896
▁наас	-7.87925
▁ша	-7.88034
▁ца	-7.88244
▁машин	-7.88723
▁суу	-7.89181
▁п	-7.89281
▁үргэ	-7.89605
▁хүү	-7.89818
▁гэ	-7.90049
▁он	-7.90128
▁лийн	-7.90186
▁ирсэн	-7.90339
▁эхэл	-7.90828
▁учр	-7.90982
▁эм	-7.91239
▁ф	-7.9164
▁хамт	-7.91746
▁мгаал	-7.9248
▁үзүүл	-7.92575
үү	-7.92665
▁гэнэ	-7.92722
▁нирх	-7.9282
▁лсан	-7.92861
▁итгэ	-7.93073
▁хууль	-7.93185
▁дуу	-7.93187
▁үе	-7.93828
▁жи	-7.94083
▁өрөө	-7.94405
▁Ерөн	-7.9442
▁чухал	-7.94594
▁сур	-7.94603
▁сонс	-7.94785
▁дугаа	-7.95067
▁s	-7.9559
▁аараа	-7.95878
▁эрлэ	-7.96118
▁бүгд	-7.96209
▁дунд	-7.9655
▁чууд	-7.96578
гац	-7.96642
▁мж	-7.96711
▁ие	-7.97219
▁сар	-7.97433
▁аль	-7.97861
▁яг	-7.98337
▁анха	-7.98798
▁өөрөө	-7.98937
▁хүр	-7.98966
▁ирэх	-7.99016
▁хувь	-7.99077
▁лд	-7.99603
▁чүүд	-7.99729
▁шу	-8.00053
▁ханд	-8.00483
▁өндөр	-8.00689
▁оос	-8.00893
▁учир	-8.01104
▁хойш	-8.01435
▁ном	-8.01537
▁ээрээ	-8.01556
▁биз	-8.02037
ийсэ	-8.02136
▁йг	-8.02268
▁авсан	-8.02344
▁тан	-8.02349
▁ай	-8.02614
▁үйлч	-8.02682
▁сайд	-8.03144
▁хэсэг	-8.03303
▁хэзээ	-8.03357
▁олох	-8.03444
▁ахад	-8.03474
▁Өнөө	-8.03637
▁хамаа	-8.03675
▁өлөв	-8.03747
▁хээр	-8.03795
▁Хэрэв	-8.04025
▁зарим	-8.04189
▁мэт	-8.04465
▁УИХ	-8.04475
▁турш	-8.04906
анга	-8.04909
▁орж	-8.05038
▁залуу	-8.05041
▁хариу	-8.05293
▁рхой	-8.05328
▁амжи	-8.05507
▁бусад	-8.05861
үргэ	-8.05893
▁ана	-8.06359
▁уулз	-8.06575
▁оод	-8.06877
▁гарч	-8.06937
▁байв	-8.06969
▁өлбөр	-8.07843
▁ээгүй	-8.08782
▁бодож	-8.08811
▁Гэ	-8.09156
▁өгөх	-8.09325
▁ож	-8.09422
▁ани	-8.09804
▁үгээр	-8.10076
▁лтай	-8.10247
▁АНУ	-8.10612
▁й	-8.10779
▁бари	-8.10933
▁лоо	-8.11119
▁дуус	-8.11238
▁сүүл	-8.11263
▁гол	-8.11295
▁гоор	-8.11317
▁хи	-8.1141
▁Өөр	-8.11562
▁надад	-8.11616
▁Чи	-8.11693
▁бүтээ	-8.11775
▁яаж	-8.12096
▁_	-8.12211
▁уули	-8.12346
▁нам	-8.12485
▁хээ	-8.13005
▁огтоо	-8.1306
▁П	-8.13216
▁оломж	-8.13547
▁зам	-8.13754
▁эдний	-8.138
▁нууд	-8.13844
▁эрээр	-8.13981
▁явуул	-8.14481
▁жүүл	-8.14629
▁сая	-8.15001
▁зураг	-8.15254
▁10	-8.15555
▁мө	-8.15577
эвч	-8.15581
▁кино	-8.15692
▁ёс	-8.15733
▁олж	-8.15847
▁шалга	-8.15854
▁ээж	-8.1619
▁чанар	-8.16784
▁олго	-8.16912
▁гайх	-8.16935
▁тавь	-8.17179
▁Түү	-8.17203
▁ухайн	-8.17212
▁ойр	-8.17422
▁анх	-8.17694
▁тул	-8.17706
▁өөс	-8.18644
▁илэ	-8.1874
▁айхад	-8.18978
▁арил	-8.19388
▁охоор	-8.19475
▁нэмэ	-8.19497
▁удир	-8.19663
▁муу	-8.20151
▁лтэй	-8.20206
▁охин	-8.20309
▁Хятад	-8.20318
▁нөлөө	-8.20416
й	-8.20522
▁хэлж	-8.20866
▁Зас	-8.21288
▁орол	-8.21313
▁мал	-8.21328
▁отой	-8.21609
▁явж	-8.21813
ийн	-8.21852
▁үгүй	-8.21884
▁ажлын	-8.22398
▁дэхүү	-8.22415
▁лал	-8.22617
▁адил	-8.22698
▁тээ	-8.22854
▁зур	-8.2314
▁асг	-8.23332
▁шалт	-8.23521
өдөл	-8.23672
▁амь	-8.23751
▁шинж	-8.23905
▁магад	-8.23969
▁элхий	-8.23983
▁анги	-8.24079
тэл	-8.24166
▁мэргэ	-8.24413
▁алга	-8.24434
▁вал	-8.24812
▁ье	-8.24879
▁рал	-8.2502
▁бү	-8.25303
▁эгч	-8.25458
t	-8.2564
▁хийл	-8.25712
▁газры	-8.258
▁мэнд	-8.26064
▁ол	-8.26076
▁найз	-8.26109
▁аримт	-8.2628
▁үндэс	-8.26471
▁эмдэг	-8.26499
▁бие	-8.26509
▁тгэ	-8.26547
▁олдог	-8.27248
▁гурв	-8.27301
▁буруу	-8.27334
▁хув	-8.276
▁өдр	-8.2777
▁өвш	-8.28064
▁хэд	-8.28538
үүл	-8.28569
▁Нэ	-8.28615
▁олоод	-8.28642
▁Ер	-8.28804
▁лэх	-8.29151
▁длыг	-8.29333
йм	-8.29484
▁лсын	-8.29876
▁явах	-8.29916
▁ярь	-8.29976
▁зо	-8.30005
▁дын	-8.30312
▁Ха	-8.30339
▁газр	-8.30523
▁өөрс	-8.30585
▁дотор	-8.30597
▁изнес	-8.30815
▁анилц	-8.30987
▁рөнгө	-8.31457
▁е	-8.31505
өхцө	-8.31654
▁хэр	-8.31666
▁өв	-8.32043
▁гу	-8.32138
ла	-8.32285
▁өгс	-8.32611
▁Бат	-8.32614
▁мэдэ	-8.32667
▁бүрэн	-8.33141
▁судал	-8.33184
▁аюул	-8.33558
▁үсгүй	-8.33671
▁эрүүл	-8.33738
▁үлээн	-8.33741
▁уг	-8.33755
▁арай	-8.33803
v	-8.33853
▁тоо	-8.33873
▁уд	-8.33923
элц	-8.33962
▁ирж	-8.34242
ш	-8.34472
▁аатар	-8.34517
цэ	-8.34692
ориу	-8.34729
▁хон	-8.35097
e	-8.35247
▁Л	-8.35323
▁;	-8.35569
▁ач	-8.35616
▁цо	-8.35701
▁хайр	-8.35724
▁үл	-8.35736
▁олгон	-8.35857
▁вэл	-8.35879
▁эгвэл	-8.35949
өнх	-8.35951
▁хэлэх	-8.36009
▁аарай	-8.36047
охир	-8.36179
▁ла	-8.36262
▁ули	-8.36462
▁асан	-8.36594
▁эний	-8.36721
▁эдийн	-8.36897
▁лэгч	-8.37035
▁асаг	-8.37048
▁гоо	-8.37054
аны	-8.37055
▁харж	-8.37343
▁өгсөн	-8.3738
▁айвал	-8.3764
▁хэв	-8.37662
▁үеийн	-8.37857
▁өс	-8.3819
▁үйлд	-8.38248
▁далд	-8.38423
▁дө	-8.38508
▁Тэгэ	-8.38707
▁лаг	-8.38717
▁Яма	-8.38875
▁охион	-8.38997
▁үтээг	-8.39238
▁жуул	-8.39399
▁тэмц	-8.39546
▁буюу	-8.39631
▁*	-8.39745
▁үлд	-8.39978
▁про	-8.40195
▁үч	-8.40306
▁хүрээ	-8.40345
▁гарах	-8.40587
▁арла	-8.40986
▁сайт	-8.41263
▁лөгөө	-8.41285
▁эхэд	-8.41436
▁эдээж	-8.41649
▁танд	-8.41804
▁Хүн	-8.42112
▁В	-8.42298
▁долоо	-8.42398
▁лан	-8.42418
▁дуул	-8.42486
▁ст	-8.42747
▁амар	-8.42924
▁дамж	-8.42985
▁өх	-8.43032
▁гаруй	-8.43086
▁маар	-8.43128
▁орох	-8.43153
▁хоол	-8.43478
▁хот	-8.43582
▁ухаан	-8.43693
▁аав	-8.43823
▁нутаг	-8.43952
▁Ингэ	-8.44003
▁дөө	-8.44324
▁дүр	-8.45025
га	-8.45414
▁харин	-8.45493
▁зэрэг	-8.45548
▁ичээл	-8.45609
▁үнэн	-8.45619
▁нхөө	-8.45681
▁лбар	-8.45915
▁адаг	-8.46033
▁бэл	-8.46099
▁лын	-8.46263
▁гаан	-8.46414
▁оллоо	-8.46472
▁хүлээ	-8.4654
▁оч	-8.46781
▁түүх	-8.47069
"	-8.47084
▁зохи	-8.47278
▁уудыг	-8.47339
▁Олон	-8.47386
▁Орос	-8.47406
▁уур	-8.47561
▁хөгж	-8.48123
ооро	-8.48135
▁улсад	-8.48217
▁эргэ	-8.48516
▁бээр	-8.48957
▁төв	-8.48959
▁ярилц	-8.49037
▁минут	-8.49081
▁ингэж	-8.4918
▁уль	-8.49311
▁олжээ	-8.49313
▁эрэг	-8.4935
▁до	-8.49494
▁олбоо	-8.49812
▁мянга	-8.49841
▁оловч	-8.50412
▁олтой	-8.50456
▁чигл	-8.50644
▁лэн	-8.50658
▁баг	-8.50771
▁йлбар	-8.5085
▁хаа	-8.51032
▁бүү	-8.51115
▁гэвэл	-8.51301
▁чадв	-8.51326
▁явдал	-8.51526
▁тга	-8.51626
▁глоом	-8.51657
▁сэрг	-8.51751
▁дүн	-8.51824
▁аасаа	-8.51862
онгу	-8.52273
▁айл	-8.52313
▁ме	-8.52795
▁эрвээ	-8.53539
▁батал	-8.5357
▁шат	-8.53834
▁авна	-8.54469
▁өөд	-8.54495
▁ус	-8.54688
▁яах	-8.54764
▁Ф	-8.54773
▁шууд	-8.5482
▁[	-8.54862
▁тави	-8.54867
▁му	-8.5492
▁ат	-8.54987
▁үзэх	-8.55013
▁сард	-8.55184
гээд	-8.55187
▁АН	-8.55383
▁өгч	-8.55401
▁хэцүү	-8.55604
▁ярьж	-8.55655
▁Энх	-8.55679
▁сийн	-8.55698
▁гчид	-8.55789
▁члөлт	-8.55891
арим	-8.5615
▁Ма	-8.56254
▁аз	-8.56262
▁ъя	-8.56263
▁дү	-8.56386
▁сол	-8.56501
▁гдсэн	-8.56539
▁v	-8.56712
▁хгүй	-8.5688
▁дав	-8.57395
▁агвар	-8.57412
▁өрсөн	-8.57497
▁дагуу	-8.57537
▁унш	-8.57549
▁харьц	-8.57744
▁эрч	-8.57881
▁мөр	-8.57929
▁огт	-8.58056
▁авар	-8.5814
▁гү	-8.58356
▁зах	-8.58403
▁Дараа	-8.58694
▁гэхэд	-8.58841
▁хэрг	-8.58871
▁агд	-8.58968
▁Уг	-8.59016
өвлө	-8.59552
▁лгүй	-8.59588
▁саар	-8.59602
▁эдий	-8.59605
▁лийг	-8.59785
▁араах	-8.59843
▁өргө	-8.59886
▁лттай	-8.59978
▁үүр	-8.60004
▁нэм	-8.60012
▁Их	-8.60051
▁]	-8.60203
▁хөт	-8.60559
▁хэт	-8.60711
▁er	-8.60951
▁ур	-8.60978
▁хороо	-8.615
▁Үнэ	-8.61763
▁зүйлс	-8.61887
▁анхны	-8.61907
алда	-8.61999
▁оно	-8.62092
▁ээсээ	-8.62152
▁үлээж	-8.62237
▁мжгүй	-8.62288
▁зохио	-8.62436
▁гэв	-8.62588
▁мерик	-8.62833
▁цу	-8.62915
▁идэнд	-8.62986
Би	-8.63001
▁зори	-8.6322
▁сү	-8.63293
▁төө	-8.63516
утги	-8.6354
:	-8.63624
▁рах	-8.63761
▁Ху	-8.6381
▁айжээ	-8.63856
чир	-8.6386
мэг	-8.63887
▁гаад	-8.63897
▁үртг	-8.64039
▁алда	-8.64121
▁багш	-8.64125
▁нээ	-8.64161
▁эхл	-8.64321
▁аавал	-8.64416
▁эсрэг	-8.64472
▁Бүх	-8.64479
▁алын	-8.64585
▁цааш	-8.64614
▁гасан	-8.64876
▁ил	-8.65079
▁гдсан	-8.65082
▁утл	-8.65113
▁зов	-8.65245
▁рагд	-8.65298
▁нөх	-8.65374
▁отын	-8.65851
▁сн	-8.65935
▁мо	-8.66055
▁ахир	-8.66146
▁ярих	-8.6623
▁#	-8.66306
▁лгой	-8.66338
▁даад	-8.66582
▁үзэж	-8.67105
▁унт	-8.67181
▁хөл	-8.67223
▁ажилд	-8.67329
▁увийн	-8.67573
гээр	-8.67585
▁ни	-8.67605
▁ко	-8.67696
▁элтгэ	-8.67838
▁бүхэн	-8.67879
▁ой	-8.68105
исте	-8.68246
олц	-8.68447
▁чөлөө	-8.68526
▁авто	-8.68596
▁лах	-8.68748
▁дага	-8.68889
▁уулж	-8.68983
▁этгэ	-8.69025
▁эмч	-8.69057
▁тогт	-8.69245
▁лдолд	-8.69258
▁снээр	-8.6945
▁үх	-8.69605
▁руул	-8.69847
▁алд	-8.70007
▁рүү	-8.70035
▁ая	-8.70159
▁орны	-8.70251
▁эмэ	-8.70253
▁ульд	-8.70509
▁өрөл	-8.70567
a	-8.70738
▁хүчин	-8.70863
▁дээрх	-8.70977
▁Р	-8.71076
▁уна	-8.71151
▁ээрэй	-8.71253
уур	-8.71291
▁ахаар	-8.71363
▁олчих	-8.71452
▁шүүх	-8.71484
▁өгрөг	-8.71663
▁өр	-8.71929
▁ял	-8.72043
▁дар	-8.72414
▁дөг	-8.72507
▁Шинэ	-8.72661
▁инээ	-8.72773
▁дээд	-8.72852
▁харах	-8.72869
▁луул	-8.72907
▁орчин	-8.73101
▁рдэнэ	-8.73159
▁шгүй	-8.73236
▁За	-8.73587
▁бараг	-8.73665
▁ран	-8.73676
өө	-8.73835
▁үмэн	-8.74115
▁те	-8.74303
▁эс	-8.7443
▁лого	-8.74446
▁лс	-8.74684
▁үрх	-8.74702
▁тань	-8.74827
▁лдэг	-8.75023
▁ргалт	-8.75145
▁20	-8.75212
▁МАН	-8.75214
пон	-8.75241
▁элэн	-8.7535
▁Европ	-8.75474
▁игч	-8.75495
▁төнц	-8.75533
▁нг	-8.75728
▁урдан	-8.75821
▁зогс	-8.75877
▁лгэ	-8.75952
▁Хо	-8.75981
▁гадна	-8.76164
▁эсэх	-8.76183
▁чээ	-8.76401
▁уудас	-8.76462
усга	-8.76506
▁орсон	-8.76594
▁ста	-8.76848
▁Улс	-8.76914
▁охир	-8.76967
▁цэр	-8.7699
▁рай	-8.77201
o	-8.77397
▁йртай	-8.77669
ны	-8.7767
▁цагт	-8.77922
▁лө	-8.77931
▁бич	-8.77944
▁амын	-8.77977
эхүү	-8.7798
ргүү	-8.77986
▁аймг	-8.78092
▁архи	-8.78148
▁тав	-8.78164
лө	-8.78215
▁ну	-8.78364
▁нэвт	-8.7837
▁уучин	-8.78414
▁ли	-8.78537
▁хичээ	-8.78663
▁нө	-8.78684
▁чадна	-8.79035
▁иргэн	-8.79084
аа	-8.79097
▁оноос	-8.79292
▁лэж	-8.79354
▁·	-8.79492
▁дэх	-8.79702
▁яриа	-8.79952
▁бүхий	-8.79957
▁дор	-8.79961
▁ич	-8.80034
▁улга	-8.80128
▁өж	-8.80212
▁грам	-8.80213
▁арч	-8.80271
▁угаа	-8.80442
▁дүү	-8.80462
уулг	-8.80987
▁чин	-8.81338
▁алтай	-8.81516
▁рсан	-8.81643
▁ичиг	-8.81787
▁ос	-8.81958
▁ирээд	-8.81968
▁өхө	-8.81997
▁логи	-8.82141
▁амайг	-8.82204
▁үүрэг	-8.82237
▁гөөн	-8.82485
▁вол	-8.82542
▁хаана	-8.82547
▁нөхөр	-8.82561
▁дрийн	-8.82576
▁элбэр	-8.82637
▁тат	-8.82806
▁кс	-8.82889
▁мээр	-8.82912
▁эхний	-8.82983
▁гай	-8.83099
▁элт	-8.83138
▁ралд	-8.83258
▁сныг	-8.83308
▁лтой	-8.83343
лэ	-8.83438
▁ушаал	-8.83555
▁үрүү	-8.83575
▁хад	-8.83586
▁аваад	-8.83674
▁улам	-8.83776
руул	-8.83838
▁эмнэ	-8.84198
▁хэвлэ	-8.84202
▁жа	-8.84347
лүү	-8.84421
▁анк	-8.84432
▁гуй	-8.845
▁яри	-8.84563
▁дэвш	-8.84625
е	-8.84657
▁рийн	-8.84673
▁утас	-8.84694
▁хор	-8.84728
▁мент	-8.85631
▁онгос	-8.85646
▁янз	-8.85873
▁гоё	-8.85881
▁тэн	-8.85958
▁рхойл	-8.86115
▁нарын	-8.86158
▁цэвэр	-8.86256
▁нис	-8.86298
▁гэрээ	-8.86321
▁Ард	-8.86365
▁ихэнх	-8.86416
эг	-8.86428
▁зайл	-8.86496
▁жижиг	-8.86892
▁рой	-8.86942
▁дут	-8.86954
▁итгий	-8.8722
▁лүүл	-8.8724
▁спорт	-8.87276
▁оронд	-8.87565
▁эрт	-8.87663
▁өсл	-8.87664
▁ас	-8.87684
▁Да	-8.87701
▁эй	-8.87716
▁ллийг	-8.8786
▁рдаг	-8.87957
▁март	-8.87979
▁орхи	-8.88048
▁жагс	-8.88054
үссэ	-8.88658
▁найд	-8.88865
▁Хэн	-8.88881
▁Үүн	-8.8895
▁бодит	-8.89003
▁агүй	-8.89025
▁'	-8.89103
▁ндээ	-8.89167
▁ичсэн	-8.89553
▁тун	-8.89557
▁нууц	-8.89594
▁аяг	-8.89606
▁урт	-8.89659
▁бүл	-8.89693
▁ааны	-8.89861
▁Са	-8.89881
▁Хоё	-8.89943
▁vv	-8.90123
эсг	-8.90123
▁ажлыг	-8.90232
▁атвар	-8.90475
▁улаан	-8.90502
▁йрла	-8.90655
▁нөгөө	-8.90727
▁Гэр	-8.90938
ус	-8.91171
▁чихс	-8.91242
▁өнгө	-8.91574
▁суур	-8.91737
▁йр	-8.91908
▁алдаа	-8.92083
▁анг	-8.92119
▁•	-8.92215
▁гал	-8.92276
▁ги	-8.92472
▁сээр	-8.92521
▁тэнд	-8.92578
▁эгүй	-8.92791
▁оюу	-8.92897
хү	-8.93014
▁сны	-8.93169
▁тээл	-8.93295
▁өрвө	-8.9347
▁бу	-8.93478
▁ллийн	-8.93528
▁ээв	-8.93552
▁зарла	-8.93629
▁отоод	-8.93711
▁урьд	-8.93712
▁эз	-8.94145
i	-8.9424
▁хая	-8.94248
▁хүсч	-8.94267
▁гдэл	-8.94392
атла	-8.94414
▁йгээд	-8.94443
▁үс	-8.94492
▁зүйн	-8.94508
▁вч	-8.94537
▁өгнө	-8.94538
▁мс	-8.94553
сгэ	-8.94643
▁дорж	-8.94652
▁нийл	-8.94792
▁уран	-8.94808
▁рилго	-8.94813
▁илцаа	-8.94814
▁лдвар	-8.95091
▁түүнд	-8.95313
▁оогүй	-8.95316
арин	-8.95533
▁хува	-8.95606
▁үндс	-8.95717
▁цагд	-8.95748
▁Бас	-8.95784
▁Өнгө	-8.95787
▁үеэр	-8.95925
▁айхыг	-8.96141
▁аасан	-8.96153
▁дээш	-8.96242
▁явдаг	-8.96286
▁сум	-8.96287
▁өглөө	-8.96394
▁ажлаа	-8.96648
▁явц	-8.96793
▁сийг	-8.96813
▁урхай	-8.96844
▁тооц	-8.96894
▁ичлэг	-8.96913
ав	-8.9692
▁огсоо	-8.97058
▁увцас	-8.97125
▁нү	-8.97125
▁андаа	-8.97165
▁нүүр	-8.97247
ф	-8.97447
▁лиг	-8.97468
▁ду	-8.97469
▁Яг	-8.97687
▁нхэнэ	-8.97694
▁намын	-8.9786
▁хэ	-8.97876
▁алаг	-8.9802
▁авдаг	-8.98215
▁өвд	-8.98306
▁гдаж	-8.9851
▁гэлээ	-8.9852
▁го	-8.98759
арга	-8.98934
▁удаан	-8.99017
▁эхнэр	-8.99212
▁хяна	-8.99287
▁эц	-8.99358
▁зуун	-8.99385
▁хөө	-8.99402
▁алба	-8.99455
▁алх	-8.99484
▁зу	-8.99508
▁сонин	-8.99608
▁всрол	-8.99638
▁өрөмж	-8.99641
▁30	-8.99731
▁даж	-8.99791
▁ахыг	-9.00067
▁зай	-9.00141
▁аалт	-9.00142
▁өмнөх	-9.00201
▁лав	-9.00207
▁дгал	-9.00411
▁гурав	-9.00441
▁үй	-9.00487
▁сайж	-9.00539
өгжи	-9.00643
▁мэднэ	-9.00676
▁жишээ	-9.00718
▁лаас	-9.01117
▁цг	-9.01183
▁гт	-9.01258
▁ь	-9.01357
▁өмс	-9.01383
▁гааны	-9.01447
▁нэрлэ	-9.01711
▁арилц	-9.01717
▁нтэй	-9.01718
▁гдох	-9.01721
▁mn	-9.01771
▁ынхаа	-9.01799
▁хяз	-9.01801
▁эхгүй	-9.01906
▁анийн	-9.01989
▁дүүр	-9.02082
▁Хар	-9.02115
▁техн	-9.02144
▁орчим	-9.02179
▁цугл	-9.02225
▁100	-9.02325
▁тө	-9.02389
d	-9.02406
▁жлийн	-9.02432
▁суурь	-9.02445
▁олд	-9.02445
▁агдах	-9.02447
▁энгэр	-9.02501
▁шил	-9.02589
▁бар	-9.02613
▁члөг	-9.02622
▁төсөл	-9.02664
▁ик	-9.02717
▁сэтг	-9.02925
▁нүүд	-9.03202
▁эгж	-9.03221
▁мийн	-9.03684
▁бодох	-9.03701
▁урал	-9.03763
▁аяа	-9.03987
▁тэм	-9.04094
▁эг	-9.04096
▁бүс	-9.04105
▁Юу	-9.04143
▁таныг	-9.04161
▁Сол	-9.0419
▁утга	-9.04201
▁албай	-9.04356
▁яла	-9.04402
▁се	-9.04684
▁наад	-9.04713
▁жур	-9.0484
▁элгэр	-9.05038
▁жилд	-9.05155
зэмш	-9.05183
▁мат	-9.05188
▁аш	-9.05192
▁агуу	-9.05214
▁ралц	-9.05219
▁дэв	-9.05242
▁хийнэ	-9.05245
▁эцэг	-9.05382
▁үд	-9.05461
▁үүс	-9.05525
▁айнга	-9.05561
члэ	-9.05791
▁лээр	-9.05837
▁соёл	-9.05866
▁ргааш	-9.0611
▁ьсгал	-9.06173
▁өм	-9.06183
▁сс	-9.063
▁барьж	-9.06432
▁судла	-9.06487
▁ээлий	-9.06487
▁оли	-9.065
▁дсэн	-9.06591
▁мын	-9.06643
▁захи	-9.067
▁лыг	-9.06793
▁дад	-9.06883
▁өвч	-9.06963
▁арва	-9.07049
▁айлга	-9.07074
▁лгалт	-9.07109
Та	-9.07112
үли	-9.07345
▁тод	-9.07927
▁Нүүр	-9.07996
▁лаж	-9.08087
▁орно	-9.08165
▁хүрэх	-9.08232
▁урга	-9.08389
▁улалт	-9.08638
▁чиний	-9.08688
▁Ий	-9.08726
▁очиж	-9.0878
▁ргал	-9.08872
▁огүй	-9.08901
▁улийн	-9.08958
▁улаг	-9.09583
▁нээлт	-9.09652
▁12	-9.09992
▁ов	-9.1003
▁ялгаа	-9.10128
▁сууж	-9.10186
▁Баяр	-9.10189
▁Сайн	-9.10385
▁бат	-9.10444
▁өмбө	-9.10575
▁Га	-9.1068
▁ээдүй	-9.10868
▁үмүүс	-9.11022
▁үгийн	-9.11111
▁жин	-9.11211
гу	-9.11233
▁аруун	-9.11682
▁ааж	-9.11808
▁ураг	-9.11879
▁лалаа	-9.11945
▁лтын	-9.11966
▁ахгүй	-9.12039
▁гэрэл	-9.12204
▁гдэж	-9.12282
▁чамд	-9.12366
▁лбарт	-9.12445
▁Энд	-9.12544
▁бүлэг	-9.12687
▁өөсөө	-9.12883
▁>	-9.12997
▁улгай	-9.1304
▁эрхүү	-9.13247
▁нэгүй	-9.13312
▁рт	-9.1342
▁рш	-9.13524
нб	-9.13809
▁хийг	-9.13809
▁үнг	-9.13832
▁цлага	-9.13862
▁шагна	-9.13915
▁өч	-9.13995
▁усгай	-9.14089
▁ноос	-9.14129
▁хыг	-9.14193
▁ргө	-9.14202
▁лол	-9.14388
▁ижил	-9.14618
▁рна	-9.14739
▁энгүй	-9.14774
▁Хүний	-9.14833
▁гдах	-9.15009
▁лгын	-9.15014
▁найм	-9.15106
▁лдол	-9.1515
▁нөөц	-9.15184
▁амра	-9.15344
▁өгдөг	-9.15358
элгэ	-9.15619
▁хүрч	-9.15639
▁ажээ	-9.15659
▁хол	-9.15676
▁лга	-9.15878
▁таван	-9.15882
▁барих	-9.1595
▁тнууд	-9.1605
▁эсгэ	-9.16186
▁эрбум	-9.16205
▁S	-9.16292
▁мар	-9.16323
▁энги	-9.16401
алга	-9.16452
▁яваа	-9.16519
▁хаар	-9.16546
▁гаас	-9.16622
▁ооцоо	-9.16816
▁хнийг	-9.17106
▁багт	-9.17184
эмэг	-9.17352
▁үүлэг	-9.17406
▁риу	-9.17609
▁хураа	-9.17776
▁ийгэм	-9.17955
▁уулга	-9.18037
▁төрөл	-9.18075
▁хаан	-9.18214
сэ	-9.18281
▁мэдр	-9.18451
▁дууг	-9.18463
▁ериал	-9.18637
▁шуул	-9.1872
▁уулах	-9.18727
▁аян	-9.18936
▁гэжээ	-9.1895
▁дууд	-9.19119
▁угаар	-9.19168
▁хай	-9.19237
▁ня	-9.19278
▁нги	-9.19393
▁нуу	-9.19413
▁оролд	-9.19584
▁Хө	-9.19605
▁лөө	-9.19647
▁бэрх	-9.19726
▁гжүүл	-9.19824
▁хоо	-9.19896
▁рэг	-9.19898
▁жо	-9.19899
▁бичих	-9.19958
▁арамс	-9.19972
▁онгоц	-9.20056
▁олцоо	-9.20083
▁өрсө	-9.20235
▁лох	-9.20342
▁тхэг	-9.20415
▁араа	-9.20436
▁рж	-9.20448
▁11	-9.20472
▁алуус	-9.20695
▁юмаа	-9.20784
▁зар	-9.20797
▁гараг	-9.20812
▁мтран	-9.20859
▁услах	-9.20897
▁B	-9.21013
▁найр	-9.2107
▁ндаа	-9.21128
▁лагын	-9.21152
▁явна	-9.21156
ний	-9.21167
▁өргөн	-9.21183
▁гэмт	-9.21223
▁үедээ	-9.21247
▁ск	-9.21322
▁элж	-9.21354
▁боль	-9.21655
▁хатуу	-9.21689
▁цө	-9.21719
▁Нада	-9.21741
▁Амьд	-9.21798
▁үүнд	-9.21845
▁Е	-9.21852
▁ка	-9.2186
▁эргэн	-9.21887
▁сэл	-9.21895
▁хын	-9.21957
▁нцгой	-9.22126
▁буца	-9.22206
▁лжи	-9.22218
▁авр	-9.22246
▁аниуд	-9.22359
▁яам	-9.22409
▁өнх	-9.22579
этгэ	-9.22586
!	-9.22791
▁гдсон	-9.22895
▁арт	-9.23011
лүүл	-9.23312
▁маа	-9.2334
▁уудад	-9.23451
▁төл	-9.23519
эвх	-9.2368
▁a	-9.23682
▁талы	-9.23691
▁хил	-9.2377
▁өн	-9.23984
ан	-9.24019
▁жир	-9.2405
▁бүрт	-9.24067
▁ган	-9.2407
▁сурт	-9.24086
▁хотод	-9.2415
▁15	-9.24293
▁цгаа	-9.24379
▁тос	-9.24523
▁яа	-9.24528
▁эе	-9.24569
▁худал	-9.24617
▁ууж	-9.2472
▁мжийг	-9.24734
▁цахим	-9.24761
▁уух	-9.24824
▁огч	-9.2486
▁лгүүр	-9.24923
▁ачаа	-9.24951
▁тэнэг	-9.24967
▁илбар	-9.24991
▁энтэй	-9.24995
▁ээрэм	-9.24996
ын	-9.25058
▁тусла	-9.25229
▁үчтэй	-9.25273
▁Цаг	-9.25335
▁асгал	-9.25341
▁бя	-9.25524
сл	-9.25607
▁таа	-9.25752
▁үзэл	-9.25878
▁бусд	-9.25938
авха	-9.262
арц	-9.26326
▁эдэнд	-9.26339
▁хүч	-9.26439
▁али	-9.2644
▁гэм	-9.26508
▁мах	-9.26519
▁Ши	-9.26521
▁Бусад	-9.26593
▁нчлэн	-9.26623
▁ахын	-9.26669
▁рын	-9.26712
s	-9.26723
▁жаа	-9.26758
▁сууц	-9.26869
▁ндарт	-9.27001
▁эрчим	-9.27006
▁уруу	-9.27157
▁одол	-9.27236
▁ахиа	-9.27288
▁лбал	-9.27385
он	-9.27391
лы	-9.27631
▁ялбар	-9.27852
▁чиг	-9.27895
▁нлайн	-9.27915
▁нөөс	-9.27979
▁үтэн	-9.2801
▁Жи	-9.28033
▁өрөх	-9.28059
▁ерман	-9.28232
▁үсэлт	-9.28427
▁Ту	-9.28532
▁татаж	-9.28716
▁үүдэд	-9.28765
▁эхлэх	-9.2881
▁Эх	-9.28977
▁A	-9.29036
▁зан	-9.29131
▁ашигт	-9.29182
▁аач	-9.29359
▁аран	-9.29362
▁олой	-9.29401
▁нгуяа	-9.2949
▁үхэнд	-9.29503
▁вар	-9.29519
▁Ээж	-9.2962
▁%	-9.29688
▁ийнх	-9.29835
▁Мо	-9.29884
▁бичиж	-9.29893
▁рэх	-9.29899
▁үрээс	-9.2992
▁Ав	-9.30153
▁риулт	-9.30227
▁оноо	-9.30334
▁хим	-9.30402
▁бараа	-9.30507
▁лтыг	-9.30579
▁амир	-9.30663
▁эрсд	-9.30705
▁вирус	-9.30774
▁очих	-9.30892
▁чим	-9.30923
▁урам	-9.30994
▁рхайн	-9.31139
▁төдий	-9.31175
▁сламж	-9.31192
▁лч	-9.31291
▁аг	-9.31382
▁улма	-9.31397
▁гүүр	-9.31399
▁рхэг	-9.31528
▁эдлэг	-9.3154
▁энх	-9.3161
▁тор	-9.31649
▁инээр	-9.3193
▁мэл	-9.32016
▁эрлэх	-9.32253
зо	-9.32275
▁лагыг	-9.32303
▁олоо	-9.32338
▁өгөө	-9.32373
▁рь	-9.32392
▁анга	-9.32401
▁айз	-9.32513
▁on	-9.3255
▁цээ	-9.32561
▁лэдэг	-9.32579
▁рга	-9.32767
▁ухаа	-9.32836
▁өвлө	-9.32958
▁бэлэг	-9.33352
эн	-9.33419
▁дийн	-9.33439
▁Хэрэг	-9.33593
▁товч	-9.33605
▁сав	-9.33619
▁уйл	-9.33658
▁йгаль	-9.33694
▁заа	-9.33825
▁агаар	-9.33983
▁сэ	-9.33995
▁анайд	-9.34003
▁дай	-9.34045
▁маяг	-9.34207
▁үнэл	-9.34237
▁тгалз	-9.34309
▁рист	-9.34366
▁үрд	-9.34366
▁зүү	-9.34414
▁шү	-9.34747
▁оё	-9.34841
▁устга	-9.34933
▁яваад	-9.34982
▁шаш	-9.35146
ль	-9.35191
▁алдар	-9.35249
иад	-9.35257
▁хурд	-9.35263
▁снаар	-9.35289
▁I	-9.35386
▁утг	-9.35468
▁элээд	-9.35551
▁Жиш	-9.35576
▁Үндс	-9.35655
▁үнд	-9.35671
▁эмэлт	-9.35696
▁бал	-9.3582
▁таар	-9.35821
▁тэнц	-9.35887
▁алтын	-9.35925
▁яналт	-9.35968
▁стр	-9.35993
▁эцэс	-9.36096
▁агдаж	-9.36101
▁D	-9.36163
▁уучл	-9.36211
да	-9.36228
▁айгал	-9.36288
▁ив	-9.36347
▁лтгүй	-9.36451
▁ОХУ	-9.36597
▁үүлэх	-9.36958
▁үхэл	-9.37167
▁гц	-9.37237
▁сүлж	-9.37244
▁эрг	-9.37361
ндэс	-9.37415
▁мний	-9.37435
▁үгийг	-9.37494
▁улан	-9.37653
▁яриад	-9.37823
▁оёрд	-9.37868
▁ри	-9.37961
▁ухам	-9.38012
▁гдл	-9.38024
▁дах	-9.38062
▁хүсэл	-9.38095
▁төс	-9.38203
▁бна	-9.38252
йдлы	-9.38329
▁алаа	-9.3848
▁зүтгэ	-9.38512
▁амаг	-9.3853
▁лчууд	-9.38616
▁рэмж	-9.38621
▁эгд	-9.38651
▁эээ	-9.38708
▁аах	-9.38902
▁Англи	-9.39046
▁ьютер	-9.39046
▁дрийг	-9.39051
▁тугай	-9.39071
▁давуу	-9.39134
▁лтийн	-9.39193
▁видео	-9.39371
▁рвалж	-9.39388
▁жаах	-9.39431
▁ваалц	-9.39479
▁хний	-9.39584
n	-9.39608
▁ажл	-9.39697
▁өсөв	-9.39699
▁ирдэг	-9.397
▁Гар	-9.40016
▁өрүүл	-9.40019
▁ё	-9.4011
▁MN	-9.40142
▁Баг	-9.40147
▁бүтэ	-9.40175
▁логын	-9.40358
▁Нийт	-9.40448
▁яар	-9.4045
▁ариу	-9.4046
▁хаагч	-9.40461
▁зарна	-9.40574
▁йнхүү	-9.40792
▁суух	-9.41039
▁Гэсэ	-9.41078
▁асал	-9.41092
▁инте	-9.41095
▁аял	-9.41165
▁унших	-9.41167
▁Хүрэл	-9.41228
өгөө	-9.41268
▁нарт	-9.4131
▁нцлог	-9.4134
▁нэтэй	-9.41356
▁үлдээ	-9.41356
▁Мага	-9.41386
▁дөл	-9.41511
орлу	-9.4158
▁илр	-9.41612
▁өмөр	-9.41634
▁цалин	-9.41779
▁тэг	-9.41796
▁члөх	-9.4183
▁C	-9.41857
▁уудын	-9.4186
▁уй	-9.41881
▁нгийн	-9.41904
▁явд	-9.41909
▁илгэ	-9.4191
эрг	-9.41928
▁|	-9.42111
▁чир	-9.42258
▁туул	-9.42278
▁үүгээ	-9.42328
▁ле	-9.42331
▁ирнэ	-9.42347
▁лөн	-9.42546
▁лог	-9.42647
▁лц	-9.42699
▁тавих	-9.42807
▁гнэлт	-9.42893
▁улир	-9.43048
▁итгэл	-9.43052
▁ехник	-9.43229
▁үүн	-9.4329
▁хайж	-9.43425
▁гарын	-9.43433
▁талд	-9.43473
▁чнээн	-9.43573
▁50	-9.43581
▁Су	-9.43635
▁огино	-9.4368
эгж	-9.43864
▁Есүс	-9.4402
▁оохон	-9.44145
онго	-9.44148
рнуу	-9.44153
▁арах	-9.4424
▁зэв	-9.44275
▁снаас	-9.44298
▁амхи	-9.4437
▁орт	-9.44381
▁ахуйн	-9.44422
▁Оюу	-9.44431
▁олгой	-9.44461
▁эмчи	-9.44525
▁мтлаг	-9.44588
▁алгүй	-9.44737
▁эндээ	-9.44846
▁Ний	-9.44852
▁өмч	-9.4502
▁ви	-9.45108
▁Со	-9.45165
▁Ажил	-9.45274
▁лөх	-9.45303
▁аван	-9.45319
▁лбэ	-9.45364
▁эсэр	-9.45437
▁шоро	-9.45465
▁урлаг	-9.45582
▁урва	-9.45602
▁сүх	-9.45618
▁яваг	-9.45687
▁муж	-9.4572
▁мтдаа	-9.45734
▁рита	-9.4587
▁амиа	-9.45875
▁барь	-9.45932
▁ажиг	-9.45962
▁Бүгд	-9.45965
▁лон	-9.4605
▁нцло	-9.46083
▁огц	-9.46088
▁зөрч	-9.46113
▁араг	-9.46127
▁ороод	-9.46147
▁ортой	-9.46151
▁лгуур	-9.46209
▁цэг	-9.46386
y	-9.46393
▁эрэгт	-9.46459
▁юуг	-9.46546
▁наа	-9.46548
▁шөнө	-9.46549
▁роо	-9.46559
▁оороо	-9.46561
ды	-9.46565
▁болд	-9.46676
▁ws	-9.46778
▁арьс	-9.46936
▁лээд	-9.46938
▁идэх	-9.46941
▁өөгүй	-9.47156
▁айван	-9.47161
▁нз	-9.47215
▁эмээ	-9.47236
▁нохой	-9.47245
ай	-9.47261
▁гчд	-9.4727
▁блог	-9.47371
▁цээн	-9.4741
▁хүчи	-9.47451
▁Мэдээ	-9.47492
▁адаас	-9.47619
▁дот	-9.47666
▁орд	-9.47724
▁рлого	-9.47748
▁сал	-9.47751
▁аалга	-9.4778
▁элийн	-9.47858
ууль	-9.48082
нуу	-9.48151
▁ллы	-9.48188
▁царай	-9.4819
▁анаас	-9.48252
ом	-9.48254
▁үүх	-9.48273
▁нарыг	-9.48368
▁охид	-9.48403
▁удал	-9.48422
▁дыг	-9.4847
▁хамр	-9.4851
▁ист	-9.48545
)	-9.48656
▁ургүй	-9.48669
▁бодис	-9.48672
▁тохи	-9.48778
▁яахав	-9.48811
▁данс	-9.4882
▁хүсэж	-9.48911
▁цэцэ	-9.49005
▁тоног	-9.49023
▁це	-9.49138
▁алуун	-9.4922
▁удлаа	-9.4924
▁рх	-9.49254
▁бөх	-9.49287
▁ргаа	-9.49308
▁өрч	-9.49322
▁амла	-9.49592
▁улуун	-9.49651
▁иеийн	-9.49981
▁тнүүд	-9.50093
▁Франц	-9.50096
▁рөө	-9.50217
▁ург	-9.50259
▁ламж	-9.50269
▁нүд	-9.50418
▁хэнд	-9.50551
▁цэцэг	-9.5057
▁одо	-9.50684
▁ун	-9.50746
▁бо	-9.50779
▁нж	-9.50967
▁мог	-9.51089
▁хуур	-9.51188
▁Өмнөх	-9.51205
▁цөөн	-9.51354
▁аялал	-9.51397
▁аймаг	-9.51574
▁там	-9.51625
▁вьцаа	-9.51793
▁Ганц	-9.51799
▁алдс	-9.51819
▁улаа	-9.51844
▁орос	-9.51846
▁шуу	-9.51901
▁Ажлын	-9.52039
▁унд	-9.52064
▁ань	-9.52079
▁14	-9.5227
▁Нам	-9.52272
▁шаа	-9.52313
▁йд	-9.52363
▁Па	-9.52393
▁оол	-9.52413
▁ргэн	-9.52484
▁хятад	-9.52531
▁мд	-9.52596
▁арк	-9.52608
▁бос	-9.52623
▁оршин	-9.5263
▁члал	-9.52733
▁цахи	-9.52751
▁нгэ	-9.52753
▁Эрүү	-9.52778
▁шүүмж	-9.52912
▁алтад	-9.5292
▁вэб	-9.52959
▁лда	-9.53014
▁угуй	-9.53031
▁гддаг	-9.53044
▁далай	-9.53104
▁оллар	-9.53162
▁өөн	-9.53172
▁ди	-9.53187
▁длаар	-9.53221
▁дурс	-9.53286
▁алхам	-9.53322
▁чла	-9.53322
▁вөл	-9.53362
▁Эсвэл	-9.53397
▁осго	-9.53399
ргэд	-9.53621
ү	-9.53859
▁рьд	-9.53906
▁вор	-9.54075
▁шир	-9.54121
▁нгис	-9.54236
▁кл	-9.54402
▁лаад	-9.54523
▁рахад	-9.5453
эгдэ	-9.54536
▁Өмнө	-9.54614
▁гө	-9.54646
▁сэдэв	-9.54666
▁ion	-9.54905
▁Оро	-9.55178
▁ами	-9.55203
▁йх	-9.5527
▁ро	-9.5545
▁ёсоор	-9.55791
▁ригл	-9.55885
▁йм	-9.55915
▁гэний	-9.56051
▁Бо	-9.56124
▁тний	-9.56134
▁Сү	-9.56179
▁айнаа	-9.56223
▁лөг	-9.56261
▁сгэ	-9.5641
▁аяхан	-9.56432
▁хагас	-9.5647
▁сул	-9.56473
гүүл	-9.565
▁ирлээ	-9.5656
▁алж	-9.5659
▁гах	-9.56625
▁ргийг	-9.56697
▁вшинд	-9.56719
▁она	-9.56812
▁ахдаа	-9.5686
▁рчим	-9.57095
▁эгш	-9.57116
▁энгэ	-9.57151
▁нжлэх	-9.57203
▁гши	-9.57279
▁үжиг	-9.57401
▁мод	-9.57409
▁ялга	-9.57429
▁ази	-9.57436
гө	-9.57479
▁асар	-9.57602
▁дон	-9.57693
▁олбор	-9.57777
▁гджээ	-9.57852
▁дүнд	-9.57942
▁ориул	-9.5801
▁өдөрт	-9.5835
▁арсан	-9.58399
акци	-9.58572
▁улиар	-9.58683
үгээ	-9.58687
▁уншиж	-9.58786
▁чулуу	-9.58898
▁урд	-9.58925
▁галан	-9.59071
▁рил	-9.59178
▁лны	-9.592
▁ндаж	-9.59299
▁алсан	-9.59338
▁нүү	-9.59347
▁бүрд	-9.59408
▁амж	-9.59483
▁эмж	-9.59551
▁оц	-9.59638
▁Өдөр	-9.59822
▁сэр	-9.59914
▁ноо	-9.59945
▁фе	-9.59956
▁илан	-9.60036
▁рик	-9.60062
▁өсөөл	-9.60115
б	-9.60133
▁рсгал	-9.6023
▁дэд	-9.60292
▁бэлд	-9.60394
▁дайн	-9.6047
▁аваа	-9.60477
▁илж	-9.60584
▁эргэл	-9.60611
▁ндоо	-9.60682
▁санд	-9.60683
▁төн	-9.60693
▁өвчин	-9.60823
▁гавар	-9.60902
▁хүүхэ	-9.6093
▁нсний	-9.6106
з	-9.61234
▁Ган	-9.61292
▁мп	-9.61418
▁үүлж	-9.61433
▁лагд	-9.61444
▁эрдэм	-9.61474
▁40	-9.6153
▁агш	-9.61577
▁адаад	-9.61586
▁вөр	-9.61624
▁агийн	-9.61639
▁амаар	-9.61666
▁x	-9.61759
▁эк	-9.61813
▁дас	-9.61855
▁охио	-9.62165
▁үрэл	-9.62286
▁рио	-9.62353
▁онц	-9.62354
▁лөл	-9.62529
▁даяар	-9.6265
▁ing	-9.62674
эгдү	-9.62689
▁айшин	-9.6294
▁мба	-9.63034
▁уулан	-9.63061
▁Өмнөд	-9.63096
хэнх	-9.63196
▁эргэж	-9.63326
▁нот	-9.63346
▁ашаа	-9.63425
▁инд	-9.63449
▁i	-9.63458
▁дгала	-9.6358
▁рлаа	-9.63639
▁ынхан	-9.63639
▁нийн	-9.63646
▁эзэн	-9.63678
▁элний	-9.63724
▁хөдөө	-9.63802
▁буцаа	-9.63903
▁Ка	-9.63925
▁воо	-9.64076
▁эхэлж	-9.64115
▁томил	-9.64172
▁үйтэй	-9.64188
▁ен	-9.64336
▁рдын	-9.64377
▁лам	-9.64495
▁ардал	-9.64535
▁дүрэм	-9.6458
▁нгах	-9.64597
▁левиз	-9.64718
▁усдад	-9.6472
▁ээч	-9.64756
▁нөө	-9.65016
▁аашаа	-9.65025
▁эвийн	-9.65049
▁цох	-9.65139
▁эгээр	-9.65244
▁тэл	-9.6526
▁өрнө	-9.65293
▁тон	-9.65312
▁нуул	-9.65347
▁лсэн	-9.65348
▁ъё	-9.65417
▁ход	-9.6543
▁аахан	-9.65445
жүүл	-9.65452
▁оош	-9.65566
▁мол	-9.656
▁Мөнгө	-9.65644
өрдө	-9.65853
▁эглэ	-9.65901
▁гш	-9.65908
▁ааш	-9.66113
▁мөрөө	-9.66173
▁орчи	-9.6623
▁давт	-9.66234
▁агц	-9.66342
▁үгээс	-9.66356
▁урагч	-9.66369
▁эхийн	-9.66401
▁өгжим	-9.66421
огто	-9.66422
▁хям	-9.66429
▁дний	-9.66457
▁уян	-9.66459
▁вх	-9.66499
▁ате	-9.6655
▁жилт	-9.66561
▁рөв	-9.66579
▁маг	-9.66594
▁уриа	-9.66635
▁хямд	-9.66653
оло	-9.66738
▁рк	-9.66762
▁чада	-9.66776
▁сра	-9.66782
▁гарна	-9.66819
▁өсөлт	-9.6685
▁ээлж	-9.66865
▁айхан	-9.67084
▁юутан	-9.67116
▁агна	-9.67269
▁эгт	-9.67277
▁M	-9.67461
▁лимп	-9.67548
▁айм	-9.67576
▁дааны	-9.67589
▁омп	-9.67839
▁неж	-9.67867
▁ям	-9.6788
▁тут	-9.6791
▁тол	-9.67911
▁онгу	-9.67921
▁анза	-9.67932
▁зориг	-9.67997
▁ингэ	-9.67998
▁онго	-9.68036
▁орилт	-9.68042
▁бүт	-9.68073
▁агта	-9.6809
глөө	-9.68091
▁Үз	-9.68178
▁сай	-9.68248
▁днээс	-9.68266
▁хүүг	-9.68383
▁тойр	-9.68401
▁эхлэн	-9.68403
▁Эр	-9.6854
▁тгө	-9.68548
▁йл	-9.6855
▁тани	-9.68676
▁төлөх	-9.68735
▁тгээд	-9.68749
▁снаа	-9.68824
▁лцоо	-9.68881
▁Шу	-9.69052
▁түүхэ	-9.69224
▁длага	-9.6929
▁лчил	-9.69314
▁түр	-9.69351
▁Дээр	-9.69364
▁зас	-9.69478
▁эрхий	-9.69527
▁шар	-9.69556
▁мөч	-9.69566
▁Танд	-9.69579
▁виар	-9.69597
▁зун	-9.69627
▁агда	-9.6983
m	-9.69917
▁&	-9.7002
▁ог	-9.70075
▁атан	-9.70285
▁ршилт	-9.7033
▁хиж	-9.70394
▁F	-9.70456
▁азар	-9.70505
▁хуу	-9.70691
▁18	-9.70718
▁изм	-9.7079
▁P	-9.70827
▁өрчил	-9.709
▁Залуу	-9.70901
▁сэг	-9.70989
▁Си	-9.71034
▁төрх	-9.71081
▁эгэнт	-9.711
▁Оюун	-9.71107
▁гдэх	-9.71125
▁орх	-9.71256
олла	-9.71334
▁өрхөн	-9.71348
▁тэс	-9.71364
▁ут	-9.71384
▁огоон	-9.71451
▁агаан	-9.71597
▁өнгөн	-9.71656
▁олны	-9.71723
▁ес	-9.71771
▁Том	-9.71778
▁албир	-9.71799
▁хог	-9.71828
▁уухай	-9.71847
▁атаа	-9.71986
▁адтай	-9.72002
▁Ме	-9.72015
▁бэр	-9.72047
▁үлх	-9.72086
нх	-9.72242
▁стра	-9.72264
▁нгли	-9.72273
▁эндүү	-9.72373
▁амд	-9.72452
▁цэв	-9.72498
▁өрөг	-9.72509
▁Ne	-9.72509
▁үүлч	-9.72522
▁дагу	-9.72569
▁элс	-9.72579
▁анкны	-9.72583
▁нда	-9.7276
▁ахаас	-9.72775
▁ороо	-9.72805
▁мтын	-9.72845
▁Баян	-9.72931
▁алай	-9.72963
▁гомд	-9.73101
▁тараа	-9.73162
▁нгийг	-9.73179
▁рих	-9.73281
▁өндөө	-9.73329
▁хь	-9.7348
▁эрүү	-9.73517
▁анш	-9.73632
▁хүрт	-9.73746
▁хав	-9.73761
▁ок	-9.7381
▁ланд	-9.73816
▁ойд	-9.73821
▁Сэтг	-9.73896
▁длууд	-9.73909
▁Гол	-9.73911
▁нх	-9.7397
▁үчи	-9.73985
▁ва	-9.74041
▁үнс	-9.74083
▁дэл	-9.74108
▁боли	-9.74177
▁24	-9.74206
▁лаарх	-9.74517
▁орши	-9.7452
▁бая	-9.74568
▁рин	-9.74596
▁НХА	-9.74628
▁Уул	-9.74675
▁ве	-9.74679
▁Се	-9.74691
▁анаа	-9.74723
▁сө	-9.74777
▁ургаа	-9.74875
▁фи	-9.74976
ийг	-9.75084
▁өртө	-9.75114
▁тны	-9.75349
▁эгдэх	-9.75358
▁$	-9.75364
▁элдэг	-9.75443
▁гарц	-9.75598
▁нш	-9.75607
▁лсөн	-9.75679
▁дны	-9.75747
▁чид	-9.75842
▁татах	-9.75963
▁лзуу	-9.76094
ийгэ	-9.76106
▁хур	-9.7616
▁дийл	-9.76307
▁эхлэ	-9.76317
p	-9.76351
▁йно	-9.76377
▁лим	-9.76402
▁эч	-9.76425
▁угт	-9.76489
▁гүйц	-9.76517
▁мраг	-9.76552
▁асвар	-9.76562
▁нгын	-9.76579
▁тго	-9.76717
▁Төв	-9.76723
▁тоог	-9.76768
▁дг	-9.76838
▁лгэр	-9.76925
▁лооч	-9.77017
▁нга	-9.77182
▁мн	-9.77288
▁шах	-9.77298
▁ийш	-9.7742
▁нэт	-9.77451
▁айц	-9.77512
эр	-9.77517
▁No	-9.77582
▁рэнд	-9.77605
▁эгс	-9.77867
▁отроо	-9.77962
▁нт	-9.77965
▁ом	-9.78175
▁алдах	-9.78288
▁элтэй	-9.783
▁гдэ	-9.78321
▁огоо	-9.78358
▁от	-9.78361
▁гадн	-9.78387
▁T	-9.784
▁рм	-9.78588
▁уулг	-9.78594
▁линг	-9.78595
▁мий	-9.78638
үүрс	-9.78708
▁ший	-9.78728
▁рөнг	-9.78736
▁жиж	-9.7874
▁рүүл	-9.78781
▁уудал	-9.78816
▁гэрлэ	-9.78872
▁рлын	-9.7889
▁луу	-9.7896
▁зав	-9.7896
▁эш	-9.78992
▁ре	-9.79058
▁дүгнэ	-9.79088
▁25	-9.79134
▁ааг	-9.79154
▁лоор	-9.79253
▁ото	-9.7944
▁олт	-9.79501
▁дөөн	-9.7951
▁мад	-9.79557
▁Тухай	-9.79573
▁~	-9.79575
▁рчны	-9.79704
▁хэхэ	-9.79779
▁элсэн	-9.79819
▁биеэ	-9.79886
ыг	-9.79897
▁үгээ	-9.79906
▁ци	-9.79993
▁үлэг	-9.80025
▁йгүй	-9.80245
▁Хэд	-9.80273
▁шдэ	-9.80331
▁ль	-9.80343
▁лхи	-9.8048
▁эгчид	-9.80554
▁амы	-9.80644
▁ргаар	-9.80711
▁гуа	-9.80718
▁ордо	-9.80798
▁гөж	-9.80922
▁утс	-9.80941
▁йруу	-9.80991
▁айх	-9.81193
▁ээх	-9.81261
▁лжээ	-9.81364
▁уяа	-9.81527
▁лагч	-9.81622
▁ангуй	-9.81696
▁вто	-9.81793
▁Маш	-9.81815
▁раад	-9.81882
▁өлөөт	-9.81937
арха	-9.81964
▁өрд	-9.81997
▁эхээс	-9.82012
▁Ар	-9.82079
▁шл	-9.82108
▁айж	-9.82118
▁айхаа	-9.82152
▁арж	-9.82212
үрэ	-9.82391
▁ладаг	-9.82528
ал	-9.82561
▁эрэв	-9.8263
▁арь	-9.82684
▁энийг	-9.82755
▁үжи	-9.82794
▁хийн	-9.82816
▁Ир	-9.82833
▁гүүд	-9.83073
▁нэгд	-9.83109
▁цай	-9.83114
▁рий	-9.83342
▁лүү	-9.83395
▁тали	-9.83461
удс	-9.83481
▁цэ	-9.83492
▁эвч	-9.83495
▁риад	-9.8356
▁ло	-9.83564
▁сп	-9.83646
▁ум	-9.83693
▁ест	-9.83787
▁рчуу	-9.83983
▁үхний	-9.8407
▁зра	-9.84086
▁эрс	-9.84147
▁агас	-9.84169
▁гад	-9.84213
▁йрын	-9.84236
▁оорой	-9.84388
▁ЙН	-9.84398
▁гүн	-9.8454
▁16	-9.84575
▁усны	-9.846
▁нет	-9.84756
▁жүүлж	-9.8476
▁ент	-9.84832
▁халд	-9.84875
▁13	-9.84997
▁зуг	-9.85017
▁зүй	-9.85243
▁сала	-9.85327
▁17	-9.85598
▁вс	-9.85619
▁овлон	-9.85656
▁өрж	-9.8569
▁аадам	-9.85783
▁ата	-9.85808
▁ийгөө	-9.85859
рла	-9.8593
▁al	-9.85979
▁хүнс	-9.86113
▁нс	-9.86267
▁лтанд	-9.86273
▁X	-9.86329
▁G	-9.86356
▁шд	-9.86478
▁үм	-9.86509
▁үйтэ	-9.86523
▁аны	-9.86695
▁гр	-9.86713
▁Аз	-9.8676
▁ргэ	-9.8677
h	-9.86802
▁лтад	-9.8684
▁ми	-9.86878
▁лөлт	-9.869
▁алыг	-9.86958
▁аатай	-9.86962
▁рөөд	-9.86989
▁цийн	-9.87201
▁рла	-9.87339
▁эрэй	-9.87343
l	-9.87349
▁y	-9.87428
▁суул	-9.87439
▁хос	-9.87443
▁эрсэн	-9.87521
▁ийлэх	-9.87652
b	-9.87835
▁моор	-9.8784
▁ҮБ	-9.87871
▁зүүн	-9.87947
▁агчид	-9.88005
▁руй	-9.8804
▁гана	-9.88102
▁шо	-9.88337
аргы	-9.88354
▁длын	-9.88358
▁дгийг	-9.88428
▁врал	-9.88436
▁йж	-9.88441
▁им	-9.88457
▁Ба	-9.88655
агас	-9.88706
▁ахуй	-9.88829
▁R	-9.88891
▁гам	-9.88994
▁мэдэл	-9.89143
▁над	-9.89151
▁Ю	-9.89262
▁танай	-9.89373
▁эйл	-9.89448
▁рд	-9.89454
▁стой	-9.8953
▁үүрг	-9.89563
▁хин	-9.89839
▁цэс	-9.89911
▁вий	-9.89954
▁=	-9.9015
той	-9.90231
▁ваа	-9.90387
▁вэр	-9.9039
▁нал	-9.90617
▁айлан	-9.90696
▁авчир	-9.90735
▁рэй	-9.90767
▁хны	-9.90802
рх	-9.90937
▁хоос	-9.90998
▁гжил	-9.91012
▁рло	-9.91145
▁олдо	-9.91184
▁үсэг	-9.91238
▁жүжиг	-9.9127
▁зэн	-9.91302
▁нхүү	-9.91413
▁зүйлд	-9.91432
өнд	-9.91549
▁шал	-9.91576
▁60	-9.91615
▁гуур	-9.91888
▁рамт	-9.92011
▁анал	-9.92012
▁вуу	-9.9208
▁<	-9.92136
▁раа	-9.92163
▁рха	-9.92169
▁гэрт	-9.92198
▁чилж	-9.92213
өмбө	-9.92216
▁вж	-9.92219
▁амт	-9.92223
▁ахар	-9.92286
▁вчи	-9.92356
▁рхи	-9.92372
▁гтаа	-9.92405
▁гараа	-9.92419
▁ссэн	-9.92717
▁эргэд	-9.92828
эв	-9.92957
▁хөх	-9.92997
▁айны	-9.93031
▁мч	-9.93111
▁Зөв	-9.93232
▁алдаг	-9.93295
▁жууд	-9.93475
▁e	-9.93555
▁ed	-9.93581
▁раг	-9.93615
▁осон	-9.93837
▁элд	-9.93966
▁атай	-9.93991
▁доод	-9.94064
▁оп	-9.94081
▁Бу	-9.94146
лж	-9.94186
омдо	-9.94361
▁ит	-9.94368
▁усан	-9.94386
лаа	-9.94399
▁өнө	-9.94405
▁Яа	-9.94504
▁үрэ	-9.94525
▁ра	-9.9456
▁эмс	-9.94628
▁Ор	-9.94683
▁арав	-9.94743
▁ап	-9.94773
▁эрээ	-9.95024
▁рээ	-9.95135
▁жиг	-9.95678
▁ис	-9.95684
▁үйд	-9.95729
▁асах	-9.95769
▁гүүл	-9.95784
▁гий	-9.95975
гийн	-9.95994
▁Ко	-9.96289
▁+	-9.96323
▁уб	-9.96405
▁ком	-9.96486
▁омж	-9.96709
▁хуви	-9.96717
▁нэн	-9.96773
▁рц	-9.96783
уул	-9.96838
▁урь	-9.96955
огтв	-9.96968
▁ера	-9.97087
▁сэд	-9.97135
▁ене	-9.97154
▁нч	-9.97238
▁глэ	-9.97241
▁оль	-9.9725
▁рчин	-9.9733
▁лтан	-9.97371
▁өгж	-9.97407
▁уш	-9.97487
▁гчдын	-9.97634
▁зуур	-9.97921
▁илцан	-9.97978
▁анайх	-9.97979
▁гчин	-9.98042
▁дэнд	-9.98054
▁жим	-9.98357
▁хтэй	-9.98423
▁үдээ	-9.98543
к	-9.9861
Чи	-9.98697
▁дэр	-9.98754
w	-9.98925
▁гддэг	-9.98964
▁цар	-9.98981
▁амер	-9.9904
сон	-9.9906
▁цэн	-9.99089
▁ачин	-9.99159
▁H	-9.99219
▁аб	-9.99313
▁тари	-9.99363
▁Төр	-9.9948
ажуу	-9.99506
▁лстөр	-9.99566
▁нтер	-9.99821
▁анад	-9.99906
▁вш	-9.99916
▁өрхий	-10.0006
▁мжи	-10.0006
▁ллээ	-10.0007
▁доор	-10.0037
▁лл	-10.0041
▁шр	-10.0053
▁ку	-10.0057
▁мшигт	-10.0061
▁өхөн	-10.0065
▁лөж	-10.0068
▁мжийн	-10.0076
▁То	-10.0081
▁хөн	-10.0087
▁Цааш	-10.0094
▁бодо	-10.0096
▁аргы	-10.0101
▁оф	-10.0118
▁амтай	-10.0119
▁кк	-10.0134
▁саг	-10.0136
▁лчин	-10.0136
▁өлөө	-10.0145
▁эрэл	-10.0149
▁элсэ	-10.0157
▁өнд	-10.0166
▁жүжи	-10.0168
▁E	-10.0187
▁гэгч	-10.0198
▁хана	-10.02
▁есс	-10.0207
▁саад	-10.0209
▁ожи	-10.0211
▁хүртэ	-10.0212
▁нхны	-10.0217
▁мжл	-10.0228
▁Ша	-10.0229
▁Хайр	-10.0235
▁мин	-10.0246
▁байхы	-10.0256
унта	-10.0266
▁ихээ	-10.0269
▁The	-10.0275
▁нэлэг	-10.0276
▁гдож	-10.0277
▁оу	-10.0278
ли	-10.0279
▁АХН	-10.0284
▁эрэн	-10.0288
▁2-	-10.0288
▁алха	-10.029
▁өдөл	-10.0295
▁ласан	-10.0297
▁лмаар	-10.03
▁риул	-10.0304
▁уха	-10.0317
▁өхөд	-10.0345
ба	-10.0346
▁өрдөг	-10.0347
▁gle	-10.0358
▁Ца	-10.0359
▁гор	-10.0365
▁рэлт	-10.0365
▁Нас	-10.0372
▁ип	-10.0374
k	-10.0393
▁эзээ	-10.0398
▁эртэ	-10.0401
▁бууд	-10.0401
▁виз	-10.0402
▁гуул	-10.0403
▁хнэр	-10.0407
▁илэн	-10.0411
▁ооо	-10.0419
▁оосоо	-10.0421
▁ага	-10.0427
▁дол	-10.0445
▁аза	-10.046
▁свэр	-10.0461
▁хоно	-10.0464
аатг	-10.0472
▁асл	-10.0474
▁аана	-10.0474
▁Тү	-10.0476
▁удаад	-10.0504
▁чил	-10.0505
▁авь	-10.0507
▁хуй	-10.0521
▁игдөр	-10.0523
▁дан	-10.0525
▁анил	-10.0531
▁цол	-10.0539
▁цхан	-10.0544
▁ргүй	-10.0548
▁Goo	-10.0549
▁рлыг	-10.0552
▁оро	-10.0559
▁ашин	-10.0559
▁лээн	-10.0563
▁дрүүд	-10.0566
▁хээс	-10.0574
▁аяла	-10.0579
▁иал	-10.0588
▁уламж	-10.0601
▁па	-10.0613
▁book	-10.0628
▁ры	-10.0628
▁21	-10.0638
▁глал	-10.0652
ээс	-10.0655
▁лла	-10.0657
▁олло	-10.0663
▁цаад	-10.0674
▁готой	-10.0693
▁эвлэ	-10.0694
▁арьц	-10.071
▁нээр	-10.072
▁члэн	-10.0723
▁цаас	-10.0741
ах	-10.0767
▁улж	-10.0773
▁ахин	-10.0786
▁ута	-10.0803
▁осоо	-10.0824
▁Өөрөө	-10.0831
са	-10.084
▁үвшин	-10.0841
▁гчийн	-10.0847
▁оход	-10.085
▁тулга	-10.0859
▁Үр	-10.0882
▁лдаг	-10.0898
▁тоол	-10.0907
c	-10.0919
▁ей	-10.0922
▁сүү	-10.0931
▁зийн	-10.0932
▁лий	-10.0939
▁ниг	-10.0942
▁энээс	-10.0944
▁гдаад	-10.095
▁гэл	-10.0954
▁тгэл	-10.0957
▁уя	-10.0958
▁ори	-10.0961
сн	-10.098
▁лэгээ	-10.0982
▁тэ	-10.0985
▁Ам	-10.0995
▁ерик	-10.0998
▁эгдэл	-10.1005
▁иг	-10.1021
ь	-10.1022
▁Ла	-10.1026
▁рны	-10.1028
▁гдана	-10.1034
▁орил	-10.1045
▁стэй	-10.1049
▁N	-10.1049
▁ино	-10.105
▁элцэ	-10.1051
▁урс	-10.1069
▁өвлөл	-10.1072
▁лэгт	-10.1085
▁магт	-10.1098
өнгө	-10.1109
▁соор	-10.1112
▁Ё	-10.112
▁эгээ	-10.1124
▁тик	-10.1125
▁тас	-10.113
▁1-	-10.1133
▁төрч	-10.1134
урх	-10.1138
▁логч	-10.1139
▁Дэ	-10.1142
▁лнэ	-10.1146
▁антай	-10.1155
▁зээ	-10.1161
▁омт	-10.1163
▁вгүй	-10.1179
▁ргээ	-10.1186
гүй	-10.1187
▁тайв	-10.1193
гыг	-10.1201
ер	-10.1212
эдий	-10.122
▁цэнэ	-10.1225
▁оёл	-10.1225
▁яда	-10.1233
▁мсэ	-10.1234
▁лбэл	-10.1235
▁кц	-10.1247
▁На	-10.1247
▁аард	-10.1261
▁нгүй	-10.1269
▁орь	-10.1272
▁ев	-10.1276
▁йз	-10.1278
▁эрийг	-10.128
▁эгэ	-10.1282
▁орм	-10.1284
▁амп	-10.1295
▁вөө	-10.1295
x	-10.1322
▁шги	-10.1322
▁өлөг	-10.1325
▁гаарт	-10.133
▁уга	-10.1336
▁лэлт	-10.1338
▁алан	-10.1339
▁өрүү	-10.1356
▁Үй	-10.1356
▁лүүд	-10.136
▁үүхэн	-10.1375
гуул	-10.1377
▁дурла	-10.1386
▁араас	-10.1391
▁ариа	-10.1398
▁ныг	-10.1398
▁авт	-10.1405
▁гаач	-10.141
▁илсэн	-10.142
▁эми	-10.1426
▁зоч	-10.1427
▁Уд	-10.1429
▁стан	-10.144
▁лтгэ	-10.1442
▁ндан	-10.1451
оро	-10.1457
▁осууд	-10.1465
▁шг	-10.1467
▁рээд	-10.1467
▁үний	-10.1473
▁асуух	-10.1477
▁ара	-10.1489
▁рэн	-10.1502
▁длаа	-10.1514
▁йхны	-10.1514
▁Fac	-10.152
▁ге	-10.1521
өлдө	-10.154
▁этэй	-10.1561
▁19	-10.1562
▁ндөр	-10.1563
▁утай	-10.1568
▁Улаан	-10.1603
▁өөх	-10.1614
▁Сүү	-10.162
g	-10.1632
▁дрэ	-10.1638
▁гил	-10.1644
▁рьж	-10.1659
▁эрчи	-10.166
▁in	-10.166
▁урав	-10.1661
▁атр	-10.1683
▁Ах	-10.1685
▁орч	-10.1687
▁Ай	-10.1692
▁ахи	-10.1697
▁наар	-10.17
▁галз	-10.1704
▁нжи	-10.1708
▁ондоо	-10.171
▁алууд	-10.1745
▁Өв	-10.1745
▁ахил	-10.1763
▁нгө	-10.177
▁ишүү	-10.177
▁вил	-10.1774
▁хас	-10.1778
▁ийх	-10.1778
▁слан	-10.1782
▁өрөв	-10.1795
▁нутг	-10.1796
▁ндын	-10.1797
▁лбан	-10.1807
▁ныхаа	-10.1812
▁ууны	-10.1815
▁гна	-10.1823
▁онх	-10.1826
▁цор	-10.1826
▁Го	-10.1831
▁V	-10.1832
▁ia	-10.1832
▁хүүх	-10.1833
▁нк	-10.1855
▁үни	-10.1868
▁удам	-10.188
▁олог	-10.1884
▁o	-10.1886
▁римт	-10.1891
▁b	-10.19
▁зе	-10.1903
▁глах	-10.191
▁шө	-10.1918
Я	-10.1918
▁зүг	-10.1921
▁сам	-10.1932
рий	-10.1944
▁лива	-10.1949
▁өгд	-10.1952
▁ья	-10.1973
▁имп	-10.1983
▁шөө	-10.1984
▁мжтай	-10.1986
▁Ли	-10.2008
▁хааны	-10.2012
▁болоо	-10.2023
▁онг	-10.2037
▁ичээд	-10.2039
▁дүүл	-10.2049
та	-10.205
▁энг	-10.2051
▁үлдэ	-10.2054
▁нгээ	-10.2057
▁хаас	-10.2057
очи	-10.2067
оли	-10.2079
лээд	-10.2084
▁сти	-10.2085
▁Те	-10.2085
▁сек	-10.2091
▁эдгэ	-10.2092
▁очи	-10.2107
▁нийс	-10.2111
▁Чу	-10.2112
▁рис	-10.2115
▁one	-10.2135
▁өгө	-10.2139
▁лна	-10.2141
▁ош	-10.2157
▁лай	-10.2158
▁to	-10.2158
▁не	-10.2176
▁олз	-10.218
▁рлэ	-10.2181
▁анч	-10.2182
▁хараа	-10.2189
▁цас	-10.2195
үртг	-10.2217
▁рэл	-10.2224
▁ХХК	-10.223
▁уун	-10.2242
▁дагч	-10.2244
агуу	-10.2246
▁ралт	-10.2261
олоо	-10.2271
▁хио	-10.2272
▁ынх	-10.2275
▁одруу	-10.2278
▁дуур	-10.2278
▁усдаа	-10.2304
▁айта	-10.2304
▁Хан	-10.2315
▁адал	-10.2329
▁хэм	-10.2343
▁өнг	-10.2345
өөрө	-10.2347
▁эхээр	-10.2349
▁иун	-10.2363
▁хирол	-10.2364
▁Но	-10.2379
▁Уу	-10.2379
▁нага	-10.2381
▁гөн	-10.2387
▁Үнэн	-10.2391
▁мун	-10.2393
▁нгаа	-10.2399
▁аала	-10.2422
▁эмэл	-10.2428
▁цаана	-10.2446
▁элч	-10.2465
▁хам	-10.2473
▁сахи	-10.2475
▁өлс	-10.2485
▁вд	-10.2486
▁You	-10.2499
▁80	-10.2501
▁олбо	-10.2501
▁ети	-10.2503
▁элдэ	-10.2505
▁аат	-10.2512
▁улгах	-10.2517
▁гдлаа	-10.2522
▁гсаал	-10.2524
▁ими	-10.2532
▁унтаг	-10.2533
▁үйц	-10.2538
на	-10.2544
▁айн	-10.2551
▁ногоо	-10.256
▁22	-10.2563
▁ийд	-10.2563
▁ТГ	-10.2564
▁ио	-10.2568
▁дүүд	-10.2571
▁лз	-10.2578
▁далт	-10.2585
▁цоо	-10.2585
▁тно	-10.2593
▁K	-10.2604
▁үнэт	-10.2605
▁аяс	-10.2611
▁удаг	-10.2624
▁ел	-10.263
ориг	-10.2632
▁h	-10.2632
▁түгэ	-10.2635
ари	-10.2641
▁ндий	-10.2642
▁йт	-10.2656
▁хоё	-10.2675
▁лом	-10.2691
▁ю	-10.2694
▁нц	-10.2694
▁кол	-10.2705
▁ХК	-10.2717
▁сор	-10.2726
▁уухан	-10.2741
▁авса	-10.2742
▁L	-10.2743
▁ээжи	-10.2755
▁ундаа	-10.2761
▁пи	-10.2769
▁ури	-10.2774
2	-10.2774
▁ген	-10.2775
▁агну	-10.2775
▁рак	-10.2792
▁нха	-10.2798
r	-10.2799
▁өрөөс	-10.28
▁мжил	-10.2801
▁саа	-10.2808
▁ооч	-10.2815
▁үт	-10.2816
▁аши	-10.2822
▁ална	-10.2826
▁өрл	-10.2831
▁жилж	-10.2834
▁дэс	-10.284
▁иа	-10.2843
▁уурай	-10.2848
ри	-10.285
▁сх	-10.2857
▁Тан	-10.2861
▁мууд	-10.2865
▁рги	-10.288
▁НСУ	-10.2894
▁йлт	-10.2913
▁оми	-10.2915
▁ийтл	-10.2919
▁аяга	-10.2927
▁порт	-10.2927
▁өл	-10.294
чих	-10.2966
▁екс	-10.297
▁Библи	-10.2974
▁t	-10.2986
▁мэс	-10.2993
▁олгүй	-10.3004
▁дсан	-10.3004
▁3-	-10.3004
лив	-10.301
▁лгар	-10.3012
▁өнц	-10.3015
▁эвтэ	-10.3016
▁До	-10.3019
▁рс	-10.3025
▁ти	-10.3028
▁дарг	-10.3029
▁гаж	-10.3036
▁пон	-10.3049
▁эле	-10.3051
▁бөө	-10.3054
▁Хү	-10.3059
▁гдол	-10.3065
▁200	-10.3065
▁рам	-10.3066
▁луун	-10.3075
▁ью	-10.3085
▁рвэ	-10.3091
Г	-10.3092
▁хуул	-10.31
▁аруул	-10.3107
▁орго	-10.311
▁олно	-10.311
▁шин	-10.3111
▁аарна	-10.3137
▁гарт	-10.3142
▁пп	-10.3145
▁сах	-10.3149
▁үүдэ	-10.3155
▁рвал	-10.3157
▁дра	-10.3163
▁энэг	-10.3169
▁c	-10.3178
▁гла	-10.3185
▁риг	-10.3207
▁инж	-10.3213
▁өхийн	-10.3215
утл	-10.322
▁or	-10.3223
▁сээс	-10.323
▁хурим	-10.3245
▁элз	-10.3248
▁эвд	-10.3248
▁нил	-10.3249
▁лууд	-10.3259
▁ориг	-10.3261
▁или	-10.3262
дүүл	-10.3265
▁гадаа	-10.3281
▁өхөөр	-10.3283
▁вээ	-10.3284
▁цр	-10.3292
▁мшиг	-10.3297
▁уут	-10.3303
▁яс	-10.3316
▁дов	-10.3316
▁ки	-10.3321
▁хүй	-10.3329
▁ааз	-10.3329
▁гов	-10.3331
▁рлал	-10.3335
дөө	-10.3341
▁анда	-10.3353
▁най	-10.3364
▁ьяа	-10.3373
▁агва	-10.3381
▁йлчи	-10.3393
▁ирч	-10.3394
▁шинг	-10.3406
▁хб	-10.3422
▁лалын	-10.3425
▁эгэн	-10.3436
▁АШТ	-10.3438
▁амба	-10.3441
▁йтай	-10.3442
я	-10.345
▁70	-10.3453
▁ааши	-10.3463
▁лээс	-10.3463
▁увь	-10.3475
▁элгэ	-10.3476
▁эдлэ	-10.3497
▁сураг	-10.3498
▁гы	-10.3505
▁жих	-10.3505
▁90	-10.3508
▁огдо	-10.3518
▁ахиад	-10.3524
▁чам	-10.3526
ры	-10.3528
▁лонг	-10.3537
▁лдөг	-10.3543
▁лго	-10.3555
▁янга	-10.3557
▁гдал	-10.357
▁ьд	-10.358
▁уч	-10.3581
▁дож	-10.3584
▁жлэх	-10.3591
▁ек	-10.36
▁рсэн	-10.36
▁архан	-10.3617
▁эвш	-10.3619
▁эгдү	-10.3621
▁рдэг	-10.3623
▁саж	-10.3655
▁ржи	-10.3663
▁насан	-10.3674
▁жлал	-10.3697
▁чилг	-10.371
▁Гал	-10.3712
▁айлд	-10.3712
▁яд	-10.3719
▁авья	-10.3723
▁рүүн	-10.3724
▁O	-10.3748
▁хтай	-10.3748
▁ван	-10.3749
▁Тэг	-10.3752
▁луур	-10.3764
▁иуд	-10.3778
▁Өө	-10.3786
тай	-10.3789
▁рагч	-10.3789
▁слийн	-10.3793
▁аф	-10.3804
▁арын	-10.3811
▁Бү	-10.3824
▁цом	-10.3845
игдө	-10.3845
▁ух	-10.3845
▁үйлс	-10.3847
▁лш	-10.3853
▁снээ	-10.3856
▁эгтэ	-10.3861
▁овсро	-10.3867
▁ent	-10.3875
▁рнээ	-10.3878
▁атга	-10.3889
▁рамс	-10.3897
▁дит	-10.3897
▁айлт	-10.3902
▁тийн	-10.3905
D	-10.3908
▁en	-10.3917
▁ртээ	-10.3927
▁ачи	-10.3951
▁ng	-10.3959
▁дод	-10.3974
▁ахим	-10.3976
▁W	-10.3982
▁рва	-10.3993
▁ижиг	-10.3993
▁элэг	-10.4
▁уулаа	-10.4015
▁уги	-10.4016
▁ээжий	-10.4026
▁лирал	-10.4044
▁шид	-10.4051
▁нэхэ	-10.4067
▁ээсэн	-10.408
▁си	-10.4088
▁эрм	-10.4088
▁цан	-10.4108
▁Хэ	-10.4121
▁тур	-10.4126
▁аха	-10.4126
▁23	-10.4127
▁овоо	-10.4146
▁гыг	-10.4153
▁акт	-10.4156
▁үрэг	-10.4178
▁огло	-10.418
▁ьж	-10.418
▁лэсэн	-10.4198
▁эмлэ	-10.4213
▁үлээ	-10.4214
▁ноор	-10.4221
▁Хүү	-10.4222
▁зэг	-10.4224
▁вид	-10.4226
▁хүнээ	-10.4228
▁эцэ	-10.4262
▁Y	-10.427
▁рний	-10.4281
▁лх	-10.4283
▁эри	-10.4285
▁тсаа	-10.4286
▁айд	-10.4287
▁долл	-10.4289
▁ина	-10.4294
▁юун	-10.4301
▁өглө	-10.4303
▁ээг	-10.4315
▁гоос	-10.4333
▁ойлг	-10.4341
▁ргууд	-10.4341
▁Сар	-10.4351
▁улна	-10.4359
▁сдий	-10.4361
▁рөөс	-10.4361
▁є	-10.4363
▁сч	-10.4394
▁p	-10.4405
анк	-10.441
▁рьдч	-10.4421
▁мр	-10.4433
▁логоо	-10.4433
▁агдал	-10.4434
▁йгаад	-10.4441
▁мны	-10.4453
▁урш	-10.447
▁айс	-10.4474
ct	-10.4489
▁уз	-10.4497
▁эрэлт	-10.4515
олд	-10.4516
X	-10.4521
▁ймг	-10.4528
▁Жа	-10.4543
▁рми	-10.455
▁алий	-10.4567
▁лдл	-10.4574
▁гүү	-10.4576
гээ	-10.4584
би	-10.4612
u	-10.462
▁арма	-10.4622
▁айла	-10.463
▁урай	-10.4632
▁орш	-10.4637
▁Од	-10.464
▁мгий	-10.4646
▁ац	-10.4657
▁цог	-10.4665
▁өрт	-10.4678
үр	-10.4692
▁аду	-10.4693
-	-10.4695
▁Ой	-10.4716
▁гөөр	-10.4717
▁азрын	-10.472
▁ргэл	-10.4724
▁na	-10.4725
▁уви	-10.4725
▁эгнэ	-10.4754
▁ардаг	-10.4764
▁Наад	-10.4765
▁хой	-10.4767
▁тулг	-10.4771
▁тэж	-10.4778
▁шилж	-10.4784
▁онт	-10.4786
▁лдарт	-10.4791
▁об	-10.4796
▁Мал	-10.4799
▁жуу	-10.4808
▁адар	-10.481
▁уда	-10.4817
▁Эм	-10.4825
▁амда	-10.4828
▁хала	-10.4837
▁буу	-10.4841
▁Үг	-10.4842
▁нтр	-10.4844
▁иш	-10.4856
▁гда	-10.4861
▁ондо	-10.4871
▁500	-10.4884
▁амаас	-10.4887
▁айт	-10.4895
алт	-10.4897
▁хал	-10.491
▁чдийн	-10.4917
▁мээ	-10.4918
▁алтыг	-10.4926
▁вьяа	-10.4927
ЭН	-10.4931
▁лдсон	-10.4951
▁өрх	-10.4957
▁гааг	-10.4961
▁Дуу	-10.4969
йлдв	-10.4971
▁йлг	-10.4979
▁лсон	-10.4979
▁пер	-10.499
▁Нү	-10.4991
ин	-10.4992
▁үүтэй	-10.5018
▁ирга	-10.5033
▁рв	-10.5034
▁элбэ	-10.504
▁n	-10.5043
▁оёул	-10.5043
▁рээн	-10.5044
▁цөл	-10.505
▁уулын	-10.505
▁Яаж	-10.5051
▁J	-10.5056
▁ртэй	-10.506
▁Apple	-10.5076
▁уус	-10.5076
▁лгий	-10.5081
▁амс	-10.5096
▁ют	-10.5098
▁өц	-10.51
▁саны	-10.5109
▁com	-10.511
▁тгаар	-10.5114
▁үүхий	-10.5133
▁Й	-10.5137
▁буц	-10.5156
эх	-10.5158
▁нхан	-10.5159
▁аагч	-10.517
▁унши	-10.519
▁инэ	-10.5203
▁түвш	-10.5205
▁йнхаа	-10.5211
▁длэ	-10.5216
▁ойн	-10.5216
▁лцо	-10.5227
▁Алт	-10.5238
▁илдэг	-10.5243
▁ке	-10.5248
луул	-10.5254
▁орой	-10.5255
▁дам	-10.5267
▁онин	-10.5273
▁сүр	-10.5286
▁арна	-10.5286
▁лтууд	-10.529
▁тар	-10.5301
▁члө	-10.5306
▁длийн	-10.531
▁орло	-10.5316
▁сөх	-10.5329
▁алтан	-10.5334
▁өхөр	-10.534
▁the	-10.5345
▁лгуу	-10.5345
▁ирээ	-10.5346
▁авха	-10.5357
▁нан	-10.5362
▁сы	-10.5362
улаа	-10.5375
▁үүлд	-10.5376
▁йлын	-10.5382
▁авуу	-10.5385
▁гадаг	-10.5387
▁асаа	-10.539
▁роос	-10.5395
▁Хи	-10.5416
▁үнээр	-10.542
▁уп	-10.5423
аса	-10.543
▁ттай	-10.5434
вор	-10.5434
▁ет	-10.5442
▁үрэн	-10.5445
▁энт	-10.5445
▁лтоо	-10.545
▁лаар	-10.5462
▁рав	-10.5469
▁гс	-10.5471
▁of	-10.5479
▁сгөл	-10.5485
▁енд	-10.5487
▁Хот	-10.5496
▁пе	-10.5517
▁нлай	-10.5518
▁аларх	-10.5521
▁эвэ	-10.5525
▁имээ	-10.5528
▁чаа	-10.5531
▁ман	-10.5532
▁өөрө	-10.5532
▁нгуй	-10.5533
▁ост	-10.5534
▁уусан	-10.5537
▁an	-10.5551
▁аса	-10.5562
st	-10.5563
▁HD	-10.5569
▁аргал	-10.5576
▁етр	-10.559
▁ахл	-10.5603
▁цац	-10.5626
▁таг	-10.564
▁члах	-10.5642
▁өлсөн	-10.5653
▁рхэм	-10.5655
▁вта	-10.5655
▁буд	-10.5685
▁эрэ	-10.569
▁лдох	-10.5698
▁өгсө	-10.5709
▁ило	-10.5709
лжи	-10.5712
▁эрхт	-10.5723
▁ааруу	-10.5727
▁чиж	-10.5732
▁нгуу	-10.5748
▁ариг	-10.5749
▁чуул	-10.5753
▁батл	-10.5755
үвши	-10.5762
▁адл	-10.5764
лын	-10.5772
▁аагаа	-10.5772
▁өрөн	-10.5775
▁ууч	-10.5778
▁ийл	-10.5778
өлгө	-10.5781
▁вь	-10.5792
▁ири	-10.58
▁төрө	-10.5802
▁айч	-10.5812
▁нгар	-10.582
▁олов	-10.5831
▁они	-10.5832
▁эт	-10.5853
▁рэгж	-10.5856
▁игт	-10.5858
▁ch	-10.5863
ирд	-10.5864
▁гээн	-10.5888
▁ne	-10.5899
▁түүн	-10.5899
▁сгэх	-10.5906
▁йса	-10.5919
▁иул	-10.5921
▁лги	-10.5928
▁Home	-10.5938
▁дэн	-10.5959
▁Гу	-10.5979
▁гчээ	-10.5981
▁гут	-10.5995
▁вээр	-10.6
▁усд	-10.6004
▁дэнэ	-10.6007
▁ГҮЙ	-10.6008
▁охой	-10.6013
▁цаа	-10.6038
▁мыг	-10.6058
▁шн	-10.6064
▁урса	-10.6077
▁зү	-10.6079
▁зор	-10.6083
▁гууд	-10.6083
▁Ан	-10.6084
▁28	-10.6118
▁нто	-10.6118
▁жү	-10.6144
рэл	-10.6147
▁ных	-10.6151
▁голы	-10.616
▁еми	-10.6165
▁усла	-10.6175
▁йлго	-10.6179
▁кт	-10.6189
▁эрхэн	-10.6191
▁цү	-10.6191
▁ээлээ	-10.6197
▁үтэ	-10.6198
▁асай	-10.6198
▁осл	-10.6198
▁el	-10.6205
өлбө	-10.6217
▁илий	-10.6217
▁уучи	-10.6219
▁ааныг	-10.6244
▁агу	-10.6252
▁мэ	-10.6254
▁инг	-10.6257
▁уса	-10.6261
▁ol	-10.627
▁эмх	-10.6272
▁лолт	-10.6274
▁m	-10.6276
▁Гү	-10.6284
▁илгаа	-10.6285
▁зал	-10.6303
▁ддог	-10.6306
▁ийхээ	-10.6311
▁орлу	-10.6321
нлай	-10.6325
▁лли	-10.6332
эй	-10.6335
▁идео	-10.634
▁цуу	-10.6353
▁бут	-10.6358
▁хэвт	-10.6359
▁лдуу	-10.6361
▁засв	-10.6367
▁ллаа	-10.6383
▁авс	-10.6389
▁Ва	-10.6401
эл	-10.6423
мнөд	-10.6427
▁ндээс	-10.6435
▁үсг	-10.6435
▁өлдөг	-10.6465
▁мши	-10.6468
▁26	-10.6475
одло	-10.6477
▁цаан	-10.6483
/	-10.6487
▁рчүүд	-10.6489
▁гэнд	-10.6493
▁лдаа	-10.6498
▁ак	-10.6522
▁ово	-10.655
▁асга	-10.655
▁аср	-10.6559
▁no	-10.6563
▁Ра	-10.6573
▁алуу	-10.6576
▁сий	-10.6586
▁алз	-10.6588
▁атгал	-10.6601
▁Wind	-10.6611
▁эгдэ	-10.6647
▁длий	-10.6649
▁огд	-10.6649
▁хори	-10.6666
▁хага	-10.6672
▁дарс	-10.6686
▁өрв	-10.6688
▁адуу	-10.6694
▁ic	-10.6696
▁27	-10.6704
▁гж	-10.6711
▁et	-10.6712
▁жлэ	-10.6719
▁300	-10.6725
▁хир	-10.6725
▁and	-10.6726
▁Зу	-10.6737
▁ангил	-10.6738
▁члэх	-10.6768
▁үйт	-10.6783
▁авир	-10.6783
▁гтэй	-10.679
▁өт	-10.6795
▁айма	-10.6826
▁ичнэ	-10.6838
▁гуу	-10.6844
▁айха	-10.6862
сэн	-10.6876
▁рө	-10.6882
▁юү	-10.6887
▁эрд	-10.6889
▁ниа	-10.6906
Л	-10.691
▁цус	-10.6911
▁цэц	-10.692
▁рэгт	-10.6921
▁ала	-10.6941
▁хов	-10.6949
▁захиа	-10.6966
▁ома	-10.6974
▁мэх	-10.7
▁ель	-10.7035
абор	-10.7038
▁хөөр	-10.7052
▁лэгд	-10.7056
▁4-	-10.7058
▁лэв	-10.7061
▁рхай	-10.7076
сан	-10.7081
▁хард	-10.7081
▁арц	-10.7089
▁мжин	-10.7098
▁сын	-10.7117
ЫН	-10.712
▁түм	-10.7122
▁бе	-10.7128
▁цсан	-10.7128
▁ргу	-10.7133
▁нэгт	-10.7136
▁даан	-10.7142
▁хууд	-10.7149
▁ргы	-10.7162
▁отор	-10.7166
▁үдэ	-10.7168
▁амжаа	-10.7169
▁өлт	-10.7173
▁адам	-10.7174
өн	-10.718
▁Ро	-10.7189
▁II	-10.72
▁улаад	-10.7204
▁ура	-10.7218
▁лха	-10.7218
▁уудаг	-10.7269
▁нте	-10.727
▁раах	-10.7273
ю	-10.7298
▁үүрэ	-10.7301
▁Mar	-10.7302
▁тер	-10.7319
▁мөрд	-10.7319
▁айран	-10.732
▁дэм	-10.7321
▁th	-10.7346
▁мон	-10.7359
▁пу	-10.7361
▁рох	-10.7364
▁пор	-10.7365
▁уудаа	-10.7368
▁шиж	-10.7387
▁онги	-10.7395
▁уурх	-10.7425
▁рван	-10.7444
▁wn	-10.7445
ра	-10.7445
▁Цо	-10.7451
▁ект	-10.7452
▁элцээ	-10.7459
▁гэн	-10.7463
▁мб	-10.7471
▁рон	-10.7475
▁йлд	-10.7477
▁врийн	-10.7488
▁билэ	-10.75
▁Мө	-10.7501
▁em	-10.7506
▁үсий	-10.7519
▁Re	-10.7527
▁юул	-10.753
▁илга	-10.753
▁йц	-10.754
▁ихгүй	-10.756
▁нөхц	-10.7564
▁Miss	-10.757
▁ver	-10.7571
жи	-10.7581
аан	-10.7587
▁три	-10.7588
S	-10.7589
ам	-10.759
▁ау	-10.7591
▁Нэр	-10.7612
▁нөхө	-10.762
▁ьсон	-10.7621
▁бичи	-10.7627
▁Ми	-10.7629
▁гло	-10.7632
▁йч	-10.7636
▁сыг	-10.7636
▁лив	-10.7648
1	-10.7658
▁Ви	-10.767
▁боо	-10.7707
▁оотой	-10.7711
▁Хаа	-10.7714
▁анс	-10.7718
▁онс	-10.7724
▁үтээ	-10.7734
▁гял	-10.7736
▁тог	-10.7741
▁өгдө	-10.7748
▁ъ	-10.7749
▁элгээ	-10.7752
▁шоу	-10.7766
▁илт	-10.777
▁хах	-10.7771
▁лгаа	-10.7772
▁де	-10.7776
▁ьда	-10.7803
▁Жил	-10.7822
▁эсэ	-10.7827
▁раар	-10.7832
▁нгоо	-10.7843
▁йдл	-10.7844
▁рхийн	-10.7855
▁иан	-10.7857
▁ууры	-10.7859
За	-10.7871
▁агаж	-10.7879
▁налт	-10.788
▁тсан	-10.7889
ая	-10.7893
▁монг	-10.7899
хэ	-10.7904
▁ууга	-10.7908
▁Сан	-10.7923
У	-10.7931
▁ргуу	-10.7935
▁улах	-10.7936
аата	-10.7946
▁алч	-10.7966
Н	-10.7966
▁рхон	-10.7979
▁ариул	-10.8008
▁ураа	-10.8011
▁по	-10.802
▁гтай	-10.8036
ong	-10.8042
▁вт	-10.8049
▁эгний	-10.8056
▁рила	-10.8059
▁Эд	-10.809
▁рлаг	-10.8097
▁өгүй	-10.8108
▁лло	-10.8109
▁гаанд	-10.8112
▁раи	-10.8112
▁өөрч	-10.8118
▁эрдэ	-10.8119
▁ээний	-10.8132
▁өлгөө	-10.8137
▁кси	-10.8141
▁атар	-10.8147
▁агаа	-10.816
▁мор	-10.8165
▁Mac	-10.8181
▁илгоо	-10.8181
▁ант	-10.8186
▁нти	-10.8187
▁фр	-10.82
▁лалд	-10.821
▁YOLO	-10.8225
▁цал	-10.8231
▁эмт	-10.8231
▁5-	-10.8232
▁ууц	-10.8239
ушаа	-10.8243
▁унг	-10.8248
▁тов	-10.8259
▁дох	-10.8263
гэгд	-10.8265
▁мүү	-10.8268
▁гоод	-10.8272
▁Жон	-10.8273
▁ty	-10.8274
▁тло	-10.8295
▁гдо	-10.8296
▁үрээ	-10.8298
▁тууд	-10.8302
▁ийц	-10.8303
▁км	-10.8306
▁барил	-10.8309
▁йнхан	-10.8318
▁үгс	-10.832
▁гиш	-10.8333
▁ДҮ	-10.8351
▁аарч	-10.8352
▁рган	-10.8352
▁ора	-10.8354
▁цла	-10.8355
▁d	-10.8365
▁вср	-10.8366
▁элц	-10.837
▁асс	-10.8376
▁хож	-10.8381
▁льс	-10.8389
вроп	-10.8395
▁To	-10.8404
аала	-10.8405
▁рнө	-10.8409
▁албар	-10.8411
▁нта	-10.8431
▁иж	-10.8433
▁ром	-10.8439
▁рчиг	-10.8448
▁оож	-10.8448
▁слийг	-10.8455
▁ӨАТ	-10.8455
сийн	-10.8463
▁баат	-10.8469
▁угаад	-10.8477
▁эсв	-10.8479
▁олцо	-10.8485
▁тоох	-10.85
ail	-10.8512
▁лба	-10.8516
▁ry	-10.852
▁тдаг	-10.8523
▁овч	-10.8524
▁лөгд	-10.8532
▁тэх	-10.8542
▁из	-10.8549
▁хууч	-10.855
▁эрлэг	-10.8551
▁алин	-10.8552
▁лице	-10.8558
▁дер	-10.856
▁Гоо	-10.8568
▁өш	-10.8584
▁ды	-10.8598
▁усга	-10.8599
▁айтай	-10.8605
▁агс	-10.8607
▁ндөө	-10.861
▁үхэр	-10.861
▁Зах	-10.862
▁анб	-10.8621
▁at	-10.8626
▁хид	-10.8635
▁тоон	-10.8641
▁жүүд	-10.8645
▁сээ	-10.8645
▁эрэм	-10.8651
▁урах	-10.8663
▁мь	-10.8676
▁жарг	-10.8689
▁Үс	-10.869
от	-10.8695
▁сла	-10.8695
▁хэвч	-10.8703
▁халт	-10.8725
▁өрн	-10.8732
▁чүү	-10.8734
▁үүж	-10.8756
▁вьса	-10.8762
▁олооч	-10.8764
▁дий	-10.8771
▁элх	-10.8779
▁рөөр	-10.8783
▁шоо	-10.8784
▁май	-10.8811
▁нди	-10.8814
▁гэг	-10.8814
▁шт	-10.8816
▁оосон	-10.8818
▁35	-10.8836
▁Лу	-10.8836
▁еж	-10.8839
▁хаж	-10.8842
▁охи	-10.8849
▁уст	-10.8862
▁дм	-10.8863
▁аний	-10.8867
▁лдо	-10.8872
▁уулна	-10.8875
▁АНАН	-10.8902
▁ртой	-10.8903
▁сэгт	-10.8911
▁авал	-10.892
▁Ну	-10.8932
ой	-10.8936
▁өрөөд	-10.8944
▁Лх	-10.8948
▁дэж	-10.8951
өсөө	-10.8953
ло	-10.8954
▁изи	-10.8955
▁ср	-10.8957
▁te	-10.8961
▁улагч	-10.8963
▁Зо	-10.8969
но	-10.8974
▁огдол	-10.8975
▁длаас	-10.8989
▁45	-10.9001
3	-10.9011
сний	-10.9014
Х	-10.9017
▁өрс	-10.9025
▁лэнэ	-10.9026
▁УВС	-10.9026
▁ором	-10.9036
▁үлэгч	-10.9042
▁Бая	-10.9044
▁адн	-10.9048
▁үн	-10.905
▁жгүй	-10.9054
▁амаа	-10.9055
▁хама	-10.906
▁ваг	-10.9079
▁Нар	-10.9081
▁Эмч	-10.9083
С	-10.909
▁ршла	-10.9092
▁нцг	-10.9092
ага	-10.9094
▁Му	-10.9105
▁рман	-10.9106
▁Хор	-10.911
▁зөн	-10.9118
▁@	-10.9132
▁мра	-10.9134
▁гэс	-10.9136
▁тро	-10.9139
▁агса	-10.9145
▁мас	-10.9147
▁кг	-10.9151
▁рилт	-10.916
▁үлэлт	-10.9172
Ph	-10.9173
▁le	-10.918
▁айна	-10.9184
▁тгэх	-10.9188
▁алс	-10.9188
▁ндра	-10.921
өх	-10.9212
▁7-	-10.922
▁Post	-10.9222
▁джээ	-10.9223
▁ёо	-10.9223
▁мм	-10.9223
▁уршил	-10.9236
▁min	-10.9242
▁лтаа	-10.9246
▁Ди	-10.9249
▁ийв	-10.925
▁вр	-10.9259
▁Үл	-10.9275
дын	-10.928
▁Ча	-10.9285
▁ням	-10.9291
▁Юм	-10.9292
▁овло	-10.9297
▁алл	-10.9299
▁хоро	-10.9303
▁сса	-10.931
▁үрдэ	-10.931
▁АА	-10.9316
▁гон	-10.9316
▁лгав	-10.9326
▁арл	-10.9337
▁анди	-10.9338
▁мц	-10.9368
.5	-10.9394
▁for	-10.9405
▁умын	-10.9426
▁галаа	-10.9426
▁үүдээ	-10.943
▁2-3	-10.943
хүүг	-10.9438
ак	-10.944
▁анса	-10.9448
▁Ду	-10.9451
эт	-10.9451
▁гчийг	-10.9453
▁лдаан	-10.947
зар	-10.9471
▁рилц	-10.9473
▁Эл	-10.9474
▁өртэй	-10.9476
▁Хөл	-10.9498
▁Аж	-10.9498
▁Prev	-10.9503
▁чө	-10.9521
A	-10.9539
▁код	-10.9546
▁үүг	-10.955
▁ЭНД	-10.9551
▁үсэ	-10.9559
▁ээнэ	-10.9569
▁хоор	-10.9571
▁өмө	-10.9577
▁→	-10.9577
▁радио	-10.958
▁учраа	-10.958
▁УИС	-10.9585
▁рүүд	-10.959
▁3.	-10.9592
▁6-	-10.9598
▁лцаа	-10.9605
▁нху	-10.961
ur	-10.9613
▁мэн	-10.9621
▁мнэл	-10.9631
▁цуг	-10.9637
▁нган	-10.9638
▁лдэ	-10.964
▁Бе	-10.9646
50	-10.9649
▁гой	-10.965
▁байг	-10.9665
▁олгоо	-10.968
▁ймэр	-10.9684
▁Ким	-10.9684
▁инаа	-10.9685
uck	-10.9699
▁мжилт	-10.9701
▁Муу	-10.9709
▁ялал	-10.9711
▁гаца	-10.9714
▁Nex	-10.9721
▁ртэ	-10.9721
▁лоос	-10.9737
▁рек	-10.9738
I	-10.974
▁ени	-10.9744
▁рыг	-10.9745
▁ичих	-10.9751
ик	-10.9753
лагы	-10.976
А	-10.9778
▁ргэд	-10.9785
▁Гоол	-10.9789
▁анууд	-10.9795
▁эвт	-10.9799
▁йгуул	-10.9803
▁рим	-10.9818
ье	-10.9819
G	-10.9827
Т	-10.9835
▁үзүү	-10.9845
▁уйц	-10.9853
ch	-10.9868
▁акци	-10.987
▁илл	-10.9874
▁голд	-10.9874
▁re	-10.9876
▁Pro	-10.988
▁мжаа	-10.9886
nd	-10.9893
▁ерө	-10.9894
▁рго	-10.9895
▁Эс	-10.9899
▁уулиа	-10.9907
▁лэнг	-10.9924
▁r	-10.9934
▁by	-10.9947
▁соё	-10.995
▁йлга	-10.9955
▁сүм	-10.9969
▁амраг	-10.9973
ка	-10.9995
▁мэгд	-10.9996
▁ft	-11.0008
▁мла	-11.0019
▁лож	-11.0024
▁аги	-11.0026
▁еэ	-11.0063
сөн	-11.0066
▁үзэгд	-11.0074
▁үүрс	-11.0101
▁Цө	-11.0112
▁вийг	-11.0125
▁харь	-11.0131
▁Ch	-11.0131
▁ях	-11.0153
▁арал	-11.016
▁харх	-11.0169
▁тоос	-11.0201
▁мгүй	-11.0208
▁иц	-11.0219
▁үеэ	-11.0237
эс	-11.0266
▁Ес	-11.0266
▁Өд	-11.0278
▁чана	-11.0288
▁элдээ	-11.029
▁унга	-11.0311
▁дгүй	-11.0318
▁ous	-11.0341
▁ео	-11.0351
▁гнэ	-11.0352
▁аст	-11.0368
▁андах	-11.0374
▁ива	-11.0376
▁лчих	-11.0382
▁драл	-11.039
▁ийж	-11.0398
▁болз	-11.0401
▁дээж	-11.0411
▁ндр	-11.0423
▁Жо	-11.0426
▁адах	-11.0435
▁жит	-11.0435
▁үүлэн	-11.0443
▁пар	-11.0444
▁АЛ	-11.0447
ен	-11.0455
▁өдрө	-11.0469
▁1.	-11.0476
▁ары	-11.0479
▁алгаа	-11.0482
▁уди	-11.0484
▁агууд	-11.0499
▁гэрл	-11.05
▁цаар	-11.0503
▁рууд	-11.0522
▁лтгэл	-11.0522
▁бор	-11.053
▁адм	-11.0535
▁үмн	-11.0539
▁уура	-11.0543
▁лдар	-11.0544
▁31	-11.0547
▁мэр	-11.055
▁tube	-11.0554
▁Шү	-11.0573
▁гийг	-11.0576
▁акц	-11.0581
▁йши	-11.0583
▁Co	-11.0585
▁рли	-11.0592
▁учра	-11.0597
▁аарал	-11.06
▁длы	-11.0607
▁Өм	-11.062
▁охгүй	-11.0622
▁лбэр	-11.0622
▁Эрдэ	-11.0629
ун	-11.063
▁дтэй	-11.0633
▁Mic	-11.0637
▁гса	-11.0639
▁рхан	-11.0649
▁рууг	-11.0661
▁инжи	-11.0662
ко	-11.0662
▁(0)	-11.0668
▁сноо	-11.0671
▁гэлз	-11.0671
▁амг	-11.0684
▁es	-11.0685
не	-11.0685
▁ирт	-11.0686
▁араал	-11.0686
▁гдүү	-11.0705
▁ндо	-11.0711
▁элий	-11.0716
МБ	-11.0717
▁лил	-11.074
▁4.	-11.074
▁риа	-11.0744
▁үүлс	-11.0754
▁ру	-11.0756
▁өгийн	-11.0783
чид	-11.079
чла	-11.0791
▁одлог	-11.0793
▁Ня	-11.0795
▁вин	-11.0801
▁29	-11.0803
▁лана	-11.0807
өлө	-11.0814
▁вг	-11.0818
f	-11.0822
▁амр	-11.0828
▁it	-11.0835
▁ехн	-11.084
▁un	-11.0845
▁во	-11.0846
▁үрс	-11.0864
▁алг	-11.0877
▁8-	-11.0887
▁яр	-11.0888
▁нов	-11.0889
агда	-11.089
▁глэл	-11.0899
▁read	-11.0901
▁огчид	-11.0902
▁do	-11.0903
5	-11.0907
▁рчи	-11.0914
Д	-11.0915
▁хэмж	-11.0933
▁шор	-11.0943
▁чдэ	-11.0944
▁рийг	-11.096
▁(1)	-11.0961
▁йнхээ	-11.0962
▁you	-11.0965
▁тгэж	-11.097
хо	-11.0977
▁мен	-11.099
▁рьс	-11.0995
▁Тө	-11.1
▁U	-11.1002
▁Ни	-11.1006
ов	-11.1013
▁рб	-11.1016
▁зүрх	-11.1021
▁ттер	-11.1046
▁өөж	-11.105
▁йва	-11.1051
ит	-11.1051
▁өндө	-11.1054
▁нэх	-11.1058
▁лма	-11.1074
п	-11.1075
▁рчээ	-11.1086
▁лцоог	-11.1093
▁өвчи	-11.1093
▁дарч	-11.1093
▁зэх	-11.1098
▁мгэ	-11.1099
▁аралт	-11.1103
▁бама	-11.112
▁аяж	-11.1126
▁ажи	-11.1142
ек	-11.1143
▁урч	-11.1147
▁өрө	-11.115
▁адга	-11.1163
▁Дар	-11.1174
даг	-11.1188
▁льд	-11.1194
▁мет	-11.1197
▁l	-11.1202
▁цах	-11.1214
▁айды	-11.1222
▁Ио	-11.1223
▁хийс	-11.123
єє	-11.1245
▁эмжи	-11.1257
▁плат	-11.1262
▁дги	-11.1263
▁ian	-11.1264
▁comm	-11.1264
▁авх	-11.1286
▁лосо	-11.1296
7	-11.1299
ха	-11.1301
▁анар	-11.1302
▁нтай	-11.1305
тэй	-11.1309
▁УБ	-11.131
▁ТХ	-11.1313
▁Al	-11.132
▁сэх	-11.1323
▁хүсэ	-11.1325
▁400	-11.133
▁уурь	-11.1332
▁орв	-11.1333
ишээ	-11.1334
▁is	-11.1339
▁эхэ	-11.1341
▁oo	-11.1342
ing	-11.135
▁32	-11.1361
▁сад	-11.1366
▁уйд	-11.1385
▁ber	-11.1386
▁элэх	-11.1407
▁ачих	-11.1407
▁2.	-11.1415
▁утги	-11.1425
▁48	-11.1433
▁Хүүх	-11.1433
▁рг	-11.1436
▁Tube	-11.1447
▁рни	-11.1448
▁ккк	-11.1449
ээр	-11.1449
Ж	-11.1454
▁гто	-11.1456
B	-11.1476
▁150	-11.1489
▁хих	-11.1504
үй	-11.1511
▁эдээ	-11.1511
▁лэхэд	-11.1511
Их	-11.1512
▁дуун	-11.1515
▁вши	-11.1519
▁рчид	-11.1521
▁хла	-11.1525
▁урв	-11.153
▁сло	-11.1531
▁оди	-11.1534
▁хэс	-11.1548
▁Зам	-11.1554
▁CO	-11.156
▁upd	-11.1562
▁Ус	-11.1571
▁уца	-11.1586
▁жий	-11.1596
▁гжи	-11.161
▁эрвэ	-11.1611
лгы	-11.1614
▁үлэ	-11.162
ян	-11.1635
▁Урт	-11.1639
▁сго	-11.165
▁гта	-11.1652
▁co	-11.1652
▁лин	-11.166
▁io	-11.1662
▁алц	-11.1664
бар	-11.1667
▁f	-11.1676
▁см	-11.1687
▁ахав	-11.1698
▁удлын	-11.1704
▁үндэт	-11.1706
▁ууууу	-11.1708
▁авьж	-11.1711
▁оог	-11.1721
▁ршил	-11.1736
▁Z	-11.1741
ьт	-11.1744
▁Wor	-11.1745
▁ros	-11.176
▁авиа	-11.1772
-5	-11.1774
▁Че	-11.1784
▁цийг	-11.1795
▁33	-11.1801
ght	-11.1806
▁зуу	-11.1808
▁ави	-11.1809
▁бби	-11.1826
▁алах	-11.1826
▁лдө	-11.1827
▁ӨСҮТ	-11.1829
er	-11.1832
▁дөж	-11.1841
▁үнээ	-11.1847
EE	-11.185
▁зм	-11.1864
▁члөл	-11.1865
▁айг	-11.1866
▁лбо	-11.1881
▁ly	-11.1898
▁вга	-11.1908
▁ийсэн	-11.191
▁уруул	-11.1913
▁ува	-11.1914
▁иас	-11.1929
▁мэг	-11.193
▁For	-11.1931
▁улал	-11.1934
▁элг	-11.1947
▁гний	-11.1954
▁дийг	-11.1961
О	-11.1969
▁ээлт	-11.1976
▁өгжи	-11.1977
ми	-11.1977
▁төлө	-11.2012
▁удд	-11.2013
нэ	-11.2016
▁эрж	-11.2017
▁цөм	-11.2023
▁Ев	-11.2025
▁үстэй	-11.2025
▁ггүй	-11.2033
▁үдийг	-11.2038
▁вир	-11.2045
▁иар	-11.2055
▁Soni	-11.2057
▁энц	-11.2075
▁Ком	-11.2082
▁члэ	-11.2094
▁йлчл	-11.2104
▁аргүй	-11.2104
▁лхам	-11.2105
▁элнэ	-11.2106
▁эжи	-11.2107
▁9-	-11.211
▁лдэх	-11.2118
▁НАСА	-11.2119
▁лалт	-11.2127
Ер	-11.2153
▁ег	-11.2162
▁тата	-11.2164
▁өөл	-11.2186
▁Шө	-11.2187
рдэм	-11.2198
▁ИТХ	-11.2225
▁хэлээ	-11.2233
▁арих	-11.2241
▁нэний	-11.2257
▁чигд	-11.2257
NUM	-11.2259
▁ЗГ	-11.226
▁Нь	-11.2265
4	-11.2277
▁робот	-11.2291
▁залг	-11.2293
▁гдсөн	-11.2304
10	-11.2326
▁g	-11.2342
▁шигл	-11.2347
дсэн	-11.2348
▁ари	-11.2348
▁Над	-11.2363
▁ерм	-11.2373
▁уры	-11.2398
▁веб	-11.2403
аас	-11.2414
-2	-11.2431
▁st	-11.2445
▁эсэг	-11.2456
30	-11.2458
▁000	-11.2463
▁илг	-11.2467
▁эвс	-11.248
▁атла	-11.2485
▁йсан	-11.2487
▁лшгүй	-11.2498
яд	-11.25
зи	-11.2516
ши	-11.2521
▁мга	-11.2533
P	-11.2543
▁рок	-11.2543
Яг	-11.2552
гар	-11.2563
▁May	-11.2567
▁ents	-11.2568
▁Com	-11.2574
Ө	-11.2575
▁анца	-11.2575
▁эрнэ	-11.2579
▁акад	-11.2587
▁ууг	-11.2595
▁ашины	-11.2597
▁лгас	-11.2618
▁зэж	-11.2628
▁ХУ	-11.2629
▁нин	-11.2632
▁цаж	-11.2635
ЭЭ	-11.2645
ME	-11.2664
▁арам	-11.2666
▁нчи	-11.2671
E	-11.2672
▁элээ	-11.2682
▁Ре	-11.269
▁аниу	-11.2697
хай	-11.2706
▁астай	-11.2712
▁авхар	-11.2717
гоц	-11.2719
▁тагд	-11.2739
▁тна	-11.2746
▁ной	-11.2748
▁АР	-11.275
▁єє	-11.2758
▁агла	-11.2767
ма	-11.277
▁рта	-11.2772
▁рхий	-11.2793
▁гис	-11.2795
лыг	-11.2796
▁лад	-11.2799
▁нхаа	-11.2801
▁шилт	-11.2805
▁урла	-11.2806
▁man	-11.2811
▁өвс	-11.2832
▁лдан	-11.2845
▁алар	-11.2845
агд	-11.2845
▁!!!	-11.2849
▁бит	-11.2864
▁IP	-11.2869
▁цээнд	-11.2875
▁je	-11.2911
▁An	-11.2913
▁цөө	-11.2918
▁Twit	-11.2923
▁Сэ	-11.2929
▁өрий	-11.2931
▁ву	-11.2946
▁Ло	-11.2984
▁наж	-11.2987
▁йвал	-11.2989
▁Tag	-11.2993
▁34	-11.2996
▁w	-11.3001
ack	-11.3008
▁Сө	-11.3009
▁star	-11.3013
Y	-11.3013
▁рилга	-11.3032
▁эсээ	-11.3036
▁^	-11.3067
нд	-11.3071
▁год	-11.3075
▁уулав	-11.3079
▁илч	-11.3081
▁олс	-11.3083
▁рөг	-11.3085
▁льт	-11.3094
▁йли	-11.3095
▁рсөл	-11.31
▁тин	-11.3109
▁рро	-11.3129
▁сга	-11.3131
тө	-11.3134
▁Ст	-11.3134
z	-11.3147
▁айда	-11.3154
нь	-11.3161
▁зин	-11.3169
▁75	-11.3194
vv	-11.3206
▁аргуу	-11.3218
▁ЕХ	-11.3219
▁слам	-11.3223
▁mi	-11.3235
▁Uni	-11.3236
мьсг	-11.3242
▁гсаа	-11.3247
▁цэл	-11.3256
▁ддэг	-11.3259
▁ада	-11.3267
▁ББ	-11.3271
▁слэ	-11.328
▁мате	-11.328
▁яз	-11.3282
▁рөх	-11.3286
▁рог	-11.3325
▁вах	-11.3331
▁Sam	-11.3335
▁лүүлж	-11.3339
▁НД	-11.3365
▁иел	-11.3381
▁арьж	-11.3382
▁фор	-11.3388
▁амга	-11.3431
▁ичиж	-11.3441
▁рьсан	-11.3443
▁нэлт	-11.3444
▁ьтай	-11.3445
ас	-11.3445
осо	-11.3459
▁нгол	-11.3475
▁ХБ	-11.3478
▁рши	-11.3483
▁хдаг	-11.3496
▁лтаар	-11.35
▁de	-11.3512
АР	-11.3515
▁next	-11.3516
▁йдэ	-11.3534
▁амтар	-11.3535
00	-11.3545
▁тта	-11.3547
▁эзэ	-11.3562
Ц	-11.3577
ard	-11.3578
ЭГ	-11.3591
▁нгөөр	-11.3598
▁сгий	-11.3608
▁хя	-11.3609
за	-11.3615
▁ойг	-11.3617
вс	-11.362
▁жам	-11.3649
илга	-11.3652
▁салт	-11.367
▁микр	-11.367
▁ем	-11.3694
▁голо	-11.3707
▁илд	-11.3711
▁ила	-11.3718
М	-11.3728
▁тэт	-11.3729
▁Мэд	-11.3742
▁урта	-11.3744
▁ууш	-11.3746
▁ерт	-11.3749
ки	-11.3751
▁заяа	-11.3753
▁нна	-11.3754
▁нада	-11.3755
▁кий	-11.3796
эж	-11.3796
▁хайн	-11.3804
▁ica	-11.3806
▁ед	-11.381
▁аата	-11.3823
▁III	-11.3828
▁ех	-11.3839
▁йны	-11.384
▁варла	-11.3855
▁янг	-11.3865
▁слэл	-11.3889
▁хлэ	-11.3894
▁🙂	-11.3906
▁гэлэн	-11.391
▁гдан	-11.3923
▁ренд	-11.3936
▁US	-11.3938
И	-11.3956
▁олын	-11.3966
T	-11.3986
▁Евро	-11.3989
▁амб	-11.3993
▁инст	-11.3995
▁зэс	-11.4006
▁рхо	-11.401
▁чан	-11.402
▁драх	-11.4033
▁36	-11.4035
▁чат	-11.4043
nter	-11.4054
▁вы	-11.4057
▁Шар	-11.4062
▁li	-11.4067
▁roid	-11.4067
▁ung	-11.4071
лийн	-11.4086
▁гас	-11.409
▁элзэ	-11.4092
▁аца	-11.4098
.1	-11.4112
АБ	-11.4115
▁us	-11.412
▁ce	-11.4122
▁ших	-11.4132
▁рнэ	-11.4134
Р	-11.4143
▁pro	-11.4151
▁Q	-11.4158
▁рэм	-11.4158
▁хөд	-11.4161
▁вө	-11.4178
▁Дор	-11.4181
лаг	-11.4189
▁амтр	-11.4207
▁OS	-11.4229
▁эмд	-11.4229
▁ZAR	-11.423
▁гац	-11.4233
▁5.	-11.4233
▁глаа	-11.4233
▁осо	-11.424
▁лдэж	-11.4241
▁жоо	-11.4243
гч	-11.4251
▁ge	-11.4253
▁мчи	-11.4258
▁еле	-11.4261
0%	-11.4262
▁эгий	-11.4283
▁k	-11.4295
▁be	-11.43
OS	-11.4311
▁₮	-11.4313
▁лоод	-11.4314
▁рхл	-11.4318
▁ирсан	-11.4324
▁Вэ	-11.4331
▁нуха	-11.4339
70	-11.4352
▁үүт	-11.4392
ang	-11.4393
▁омын	-11.4402
то	-11.4405
▁арв	-11.441
АХ	-11.4416
▁орын	-11.4417
▁яма	-11.4417
VID	-11.4417
▁ссэ	-11.4417
ью	-11.4445
▁ови	-11.4453
6	-11.4457
▁вса	-11.4471
▁ОНГОЛ	-11.448
▁уссан	-11.4485
▁ардам	-11.4494
▁ыха	-11.4506
▁исте	-11.4509
▁ндар	-11.4524
арт	-11.4532
▁алаас	-11.4538
▁рмаа	-11.4544
▁бил	-11.4565
▁ial	-11.4568
▁art	-11.4571
▁арта	-11.4597
▁унда	-11.4614
▁үүлээ	-11.4615
▁Inst	-11.462
ce	-11.4629
le	-11.4637
▁варга	-11.4642
▁49	-11.466
▁өсөл	-11.4662
▁day	-11.4662
▁зэм	-11.4665
▁шог	-11.4681
олго	-11.4693
▁Хон	-11.4705
▁удла	-11.4707
▁Иер	-11.4712
▁(1	-11.4713
▁нер	-11.4714
▁лби	-11.4722
▁ууна	-11.4727
▁Play	-11.4737
▁zon	-11.4739
▁ртг	-11.4739
▁чм	-11.474
▁өхгүй	-11.4745
▁атл	-11.4759
▁вийн	-11.4759
▁өлд	-11.4762
▁рилж	-11.4768
▁сэдэ	-11.4768
▁уудл	-11.4777
▁жс	-11.4779
al	-11.4781
▁Дү	-11.4781
▁цыг	-11.4802
▁улуу	-11.4807
▁ie	-11.4812
▁олдоо	-11.4814
▁go	-11.4821
▁gram	-11.4824
at	-11.4831
▁утаг	-11.4838
▁АТГ	-11.4851
▁ргүү	-11.4854
▁сси	-11.4855
▁Гоё	-11.4864
▁la	-11.4866
ё	-11.4872
▁гав	-11.4875
▁туу	-11.488
▁эвлэл	-11.4881
us	-11.4894
ЕГ	-11.4909
▁үүжи	-11.4909
▁dur	-11.4914
▁Ван	-11.4914
▁галж	-11.4915
▁ri	-11.4917
▁УУД	-11.4922
ѳѳ	-11.4926
▁ред	-11.4941
in	-11.4945
▁икийн	-11.4945
▁жор	-11.4969
▁Бар	-11.4973
▁хэрэ	-11.4976
▁ОК	-11.4988
L	-11.4994
▁мини	-11.4995
▁Өнө	-11.4996
C	-11.5017
▁апп	-11.502
▁арха	-11.5022
▁эртэй	-11.5026
▁өсөн	-11.5028
▁рдо	-11.503
▁ur	-11.5032
▁хнээ	-11.5035
▁лгана	-11.5049
▁Зул	-11.5055
▁ll	-11.507
ни	-11.5071
▁өхөө	-11.5075
▁талт	-11.5077
▁йтг	-11.508
▁Ene	-11.5095
▁эги	-11.5098
▁лэлээ	-11.5111
▁уууу	-11.5119
▁нес	-11.5134
▁эхээ	-11.5143
▁мш	-11.5145
▁ажуу	-11.5147
▁єєр	-11.515
▁орин	-11.5162
▁нци	-11.5169
eb	-11.5171
▁SEO	-11.5179
▁°	-11.518
▁net	-11.5201
▁Fi	-11.5244
▁онгон	-11.5266
▁эмц	-11.5267
▁Үх	-11.5268
▁ужи	-11.5268
▁артаа	-11.5273
;	-11.5287
ст	-11.5292
▁арс	-11.5307
▁берт	-11.5308
▁дил	-11.5311
▁өрдө	-11.5312
▁усах	-11.5318
▁Go	-11.5325
▁Wi	-11.533
▁Де	-11.5331
▁дгээ	-11.5332
▁ro	-11.5339
▁Янз	-11.5362
▁лзал	-11.5372
▁миа	-11.5376
▁гя	-11.5379
▁улжээ	-11.538
▁яна	-11.5397
ck	-11.5399
▁ra	-11.5402
K	-11.5419
▁55	-11.5428
▁үйч	-11.544
▁42	-11.5454
▁line	-11.5455
▁унаа	-11.5462
▁нүх	-11.5468
▁Чин	-11.5481
▁анху	-11.5483
$	-11.5484
▁Он	-11.5502
▁ice	-11.5508
▁ni	-11.5526
▁Өр	-11.5528
▁оот	-11.5531
үтгэ	-11.554
▁тэнэ	-11.5544
▁зөр	-11.5555
ва	-11.5562
est	-11.5565
R	-11.5568
▁лье	-11.5572
40	-11.5588
▁ьт	-11.5592
▁ян	-11.5614
▁охо	-11.5615
▁om	-11.5631
▁мир	-11.5639
▁Off	-11.5643
▁ахы	-11.5643
▁длээ	-11.5651
▁ТАЙ	-11.5654
▁ess	-11.5657
▁гөр	-11.5664
▁мана	-11.5668
▁блок	-11.5672
▁сөө	-11.5691
▁ЗЭ	-11.5696
▁ныха	-11.57
▁гат	-11.5705
▁Cas	-11.5709
▁шим	-11.5711
▁лтуу	-11.5719
▁анз	-11.5721
▁Egu	-11.5738
▁{	-11.5738
▁хүлэ	-11.5739
▁улав	-11.5744
▁600	-11.5747
▁өөг	-11.5751
▁se	-11.5754
up	-11.5755
▁ТВ	-11.5761
▁огс	-11.5767
▁лдээ	-11.578
▁гдэн	-11.5805
▁алла	-11.5808
▁ума	-11.5817
▁айва	-11.5818
▁эдэв	-11.5822
еле	-11.5842
тер	-11.5851
▁We	-11.5853
өтөл	-11.5857
▁Ээ	-11.5865
▁МН	-11.5874
▁эцүү	-11.5886
▁ey	-11.5889
▁250	-11.5893
▁лсэ	-11.5899
▁туг	-11.5923
▁гра	-11.5926
▁si	-11.5932
▁улш	-11.5934
▁усаа	-11.5951
▁Jun	-11.5955
▁ААН	-11.5961
▁огтв	-11.5963
ash	-11.5964
со	-11.5965
▁ar	-11.5982
▁нгас	-11.5988
▁Үе	-11.5994
аалг	-11.6005
▁ОХ	-11.6012
▁єг	-11.6016
▁ону	-11.6024
▁үүсэ	-11.6031
▁Лав	-11.6042
▁ble	-11.6045
▁шээ	-11.6046
▁тгий	-11.6046
▁лов	-11.6049
▁end	-11.6058
▁ei	-11.6061
th	-11.6062
▁тами	-11.6072
▁рэ	-11.6072
▁Хөх	-11.6079
АЛ	-11.6079
▁үүлэ	-11.608
▁Хур	-11.6091
▁друу	-11.6098
▁элэ	-11.61
▁ухал	-11.6107
▁сэнээ	-11.6119
▁хат	-11.6122
▁App	-11.6125
▁гїй	-11.6131
▁илсан	-11.6133
▁боди	-11.6152
Й	-11.6152
▁Цэ	-11.6171
▁элжээ	-11.6174
▁иеэ	-11.6178
▁ive	-11.618
▁My	-11.6186
хи	-11.6186
▁цон	-11.6194
▁38	-11.6201
▁65	-11.6212
▁айв	-11.6214
▁Пи	-11.6214
▁Page	-11.6228
уучи	-11.6229
▁ki	-11.6239
▁Шо	-11.6249
▁09	-11.6252
лаж	-11.6252
▁йлан	-11.6258
▁тра	-11.6264
▁галын	-11.6267
▁дуга	-11.6318
▁УЗ	-11.6318
Ш	-11.6323
▁me	-11.6332
our	-11.6334
▁ололт	-11.6334
▁sub	-11.6334
▁Nov	-11.6342
▁рсд	-11.6352
▁76	-11.6352
▁44	-11.6354
▁Ге	-11.6357
ОХ	-11.6365
▁тын	-11.6371
▁ахаа	-11.6372
ISO	-11.638
,5	-11.6386
▁ad	-11.6388
рч	-11.6392
ели	-11.64
▁op	-11.6411
▁єр	-11.6424
▁хойн	-11.6431
▁Air	-11.6431
el	-11.6436
▁АХ	-11.6437
▁нчлэ	-11.6445
▁Pres	-11.6452
▁амыг	-11.6463
▁up	-11.6465
▁дөрв	-11.6472
▁дна	-11.6476
▁Наа	-11.6479
кер	-11.6483
▁Ти	-11.6497
агаа	-11.6501
j	-11.6535
▁стай	-11.6537
▁AM	-11.6542
Э	-11.6542
ос	-11.6545
▁арууд	-11.6546
тэ	-11.6559
▁ure	-11.6569
▁Паул	-11.6583
▁вли	-11.6584
▁үндэ	-11.6591
▁үзэг	-11.6594
▁лаан	-11.6621
▁(2)	-11.6639
▁ого	-11.6642
▁її	-11.6644
▁pre	-11.6645
▁Time	-11.6647
M	-11.6657
▁ex	-11.666
Б	-11.6663
▁Хэр	-11.6683
▁тэнг	-11.6687
ИС	-11.669
▁цад	-11.6696
▁нца	-11.67
▁лээг	-11.672
ear	-11.6731
▁дда	-11.6733
▁porn	-11.6745
▁лдог	-11.6749
um	-11.6754
▁тэмд	-11.6758
▁Ama	-11.6763
▁nce	-11.6764
▁рца	-11.6766
▁ЕГ	-11.6777
▁Rea	-11.6778
▁асны	-11.6788
▁рат	-11.679
an	-11.6791
▁уулч	-11.6795
▁хсэн	-11.6795
▁эрли	-11.6795
▁PM	-11.6796
▁суэл	-11.6804
▁чээд	-11.6825
▁лхэ	-11.6841
60	-11.6846
all	-11.6852
▁цам	-11.6866
▁үүлнэ	-11.6869
▁ээвэ	-11.6877
▁оооо	-11.6883
▁120	-11.6885
▁39	-11.6897
▁акал	-11.6898
▁адгүй	-11.6907
▁Jan	-11.6915
▁аатга	-11.6924
▁манд	-11.6925
лого	-11.6943
▁члэл	-11.6949
▁ine	-11.6956
▁Free	-11.6958
АН	-11.6964
▁str	-11.6964
▁лтийг	-11.6972
▁ады	-11.6973
▁цл	-11.6991
▁Mon	-11.6997
▁үдээс	-11.6998
▁ba	-11.7025
en	-11.7031
▁nd	-11.705
▁дана	-11.7058
▁Man	-11.7061
▁Mi	-11.7063
▁Гадаа	-11.7067
▁ЗХ	-11.7071
O	-11.7077
▁авчи	-11.7081
▁хсан	-11.7082
▁Apr	-11.7085
▁эб	-11.7092
ote	-11.7093
▁БС	-11.7094
▁лиа	-11.7098
▁алет	-11.7099
▁рхүү	-11.7108
▁рхэ	-11.7115
ent	-11.7119
▁In	-11.7125
20	-11.7129
▁үрий	-11.7131
▁уйда	-11.7134
▁өхий	-11.7135
▁On	-11.714
▁НБ	-11.7154
▁арх	-11.7164
▁жинд	-11.7165
▁шив	-11.7168
N	-11.7169
▁World	-11.7176
▁өхцөл	-11.7178
▁баярт	-11.7179
▁гарда	-11.7182
▁пуу	-11.719
▁лжиг	-11.7192
▁ллага	-11.7193
▁уртай	-11.7201
▁сда	-11.7204
▁же	-11.7206
▁All	-11.721
▁зөвш	-11.7211
▁лосон	-11.723
одит	-11.7234
▁сдын	-11.7236
▁АМ	-11.7253
▁Мах	-11.7253
▁ma	-11.7254
▁хаад	-11.7265
▁аатг	-11.7271
ph	-11.7279
▁37	-11.7283
▁илц	-11.7285
▁}	-11.7287
▁ЖИЛ	-11.729
ами	-11.7291
▁өрөм	-11.7296
▁окс	-11.7305
ick	-11.7306
▁учин	-11.7316
'	-11.7318
▁El	-11.7319
▁орн	-11.7322
▁хдаа	-11.7327
ѳ	-11.7338
▁уулал	-11.7356
▁хэх	-11.7364
▁илла	-11.7383
▁еги	-11.7389
▁ики	-11.7392
▁үрэх	-11.7399
▁ТЭЙ	-11.7403
БХ	-11.7403
]	-11.7405
▁йлдэ	-11.7406
Эх	-11.7407
▁лгөө	-11.7411
on	-11.7412
▁улдаг	-11.7418
▁УУЛ	-11.7426
▁лайн	-11.7429
Ч	-11.7439
▁pe	-11.7442
▁ьта	-11.7454
▁гарал	-11.7461
▁бодл	-11.7464
▁иад	-11.7466
▁51	-11.7469
▁всан	-11.7469
▁эдрэ	-11.7473
йн	-11.7476
▁дахи	-11.7477
▁адг	-11.7486
▁аам	-11.749
▁нох	-11.7499
▁рма	-11.7508
▁үсэл	-11.7517
8	-11.7517
▁элмэ	-11.7523
▁ec	-11.7532
▁ллэ	-11.7533
▁Зе	-11.7539
▁мя	-11.7552
ill	-11.7556
▁өрг	-11.7559
▁тагт	-11.756
▁онсо	-11.7561
▁лонго	-11.7563
▁бри	-11.7575
▁атал	-11.7583
▁таж	-11.7585
▁нши	-11.7589
ед	-11.7601
▁лгүү	-11.761
▁туга	-11.7616
▁рол	-11.7628
▁ЭДЭЭ	-11.7632
▁Dec	-11.7635
▁учи	-11.7637
▁ронз	-11.7646
▁ta	-11.7658
▁улта	-11.7665
▁сүл	-11.7665
▁угай	-11.7677
▁КО	-11.769
▁Тоо	-11.7694
▁алу	-11.7697
▁Вик	-11.7701
▁ээш	-11.7707
▁ранд	-11.7717
▁шүд	-11.7721
ӨӨ	-11.7723
▁ИНЭ	-11.7733
▁иу	-11.7733
▁вра	-11.7734
▁Ве	-11.7734
▁3-4	-11.7745
▁Oct	-11.7746
▁lt	-11.7749
гай	-11.7756
▁son	-11.776
▁йдаг	-11.7761
▁1,	-11.7768
▁скар	-11.7768
▁рлээ	-11.7769
▁шилд	-11.7778
ип	-11.7779
▁рүүлж	-11.7785
▁Gam	-11.7788
▁Par	-11.7789
▁уж	-11.7791
▁ЗД	-11.7805
▁con	-11.781
▁ртал	-11.7814
▁лиар	-11.7824
▁58	-11.7827
▁сэж	-11.784
▁алдаж	-11.7843
▁хиро	-11.7865
▁ДӨР	-11.7866
▁єв	-11.7875
▁чоод	-11.7876
▁ррор	-11.7882
▁глө	-11.789
өрвө	-11.789
▁Бүс	-11.7892
▁ник	-11.7909
▁улэг	-11.7914
TS	-11.7916
лет	-11.7923
▁угл	-11.7931
▁am	-11.7931
▁анта	-11.7943
▁ҮҮ	-11.7943
▁аях	-11.7955
▁ЫН	-11.7965
▁my	-11.7984
SS	-11.7995
▁хлэг	-11.7996
▁j	-11.7999
.3	-11.8
▁Ле	-11.8008
▁улиа	-11.8012
▁Сур	-11.8017
▁үрэм	-11.803
▁cat	-11.8032
▁йлс	-11.8035
луу	-11.8036
▁улза	-11.8049
sh	-11.805
▁овор	-11.8055
▁ргас	-11.8056
▁ёр	-11.8056
▁хүрэ	-11.8057
BA	-11.8059
▁u	-11.8061
▁ваар	-11.8062
▁Амь	-11.8069
▁хөөс	-11.8089
▁br	-11.8099
▁more	-11.8102
▁ХҮН	-11.8104
▁дри	-11.8105
▁нсар	-11.8107
▁өмд	-11.8109
▁эсэн	-11.8114
▁тох	-11.8116
▁жаал	-11.8126
▁уулт	-11.8133
▁өлөгч	-11.8135
▁TV	-11.8136
▁ахь	-11.8138
▁хүрг	-11.8143
▁трэ	-11.8145
▁--	-11.8152
▁Эв	-11.8153
▁Лам	-11.8191
▁Ja	-11.8201
▁эдү	-11.8204
▁токол	-11.8224
ЕС	-11.8233
▁удар	-11.8247
▁АТО	-11.8249
▁мер	-11.8259
▁тух	-11.8263
▁Ёс	-11.8264
▁Мат	-11.8265
▁шөн	-11.8267
▁IT	-11.8269
▁рдаа	-11.8273
▁ихсан	-11.8277
▁рсө	-11.8277
▁Star	-11.8281
▁рөл	-11.8287
є	-11.8289
▁цын	-11.8307
▁дгий	-11.8324
▁ul	-11.8326
▁лза	-11.8335
▁эви	-11.8346
▁More	-11.8347
▁←	-11.835
▁95	-11.835
▁лахад	-11.8353
бо	-11.8359
▁лате	-11.8362
▁дул	-11.8364
▁жиш	-11.8369
▁One	-11.8384
▁Joh	-11.8387
▁омо	-11.8405
▁рьц	-11.8418
lack	-11.8428
▁жийн	-11.8432
▁раас	-11.8441
▁нор	-11.8453
▁ичээ	-11.8463
кс	-11.8469
▁ment	-11.8473
5%	-11.8477
▁Ub	-11.848
▁арлаа	-11.8487
▁нэрт	-11.8494
▁ранк	-11.851
▁ОТО	-11.852
▁алгах	-11.8524
▁ТА	-11.8527
▁оонд	-11.8528
▁өлдө	-11.8546
▁рем	-11.8582
▁овг	-11.8583
▁охоо	-11.8586
▁2:	-11.8591
▁€	-11.8599
▁нцуй	-11.8599
▁икол	-11.8602
▁ацаан	-11.8604
▁АЙР	-11.8604
▁тери	-11.8604
▁эггүй	-11.8606
▁ИАТ	-11.8606
▁ооло	-11.8613
▁нзаар	-11.8622
ве	-11.8627
▁лттэй	-11.8627
▁лцэ	-11.8628
▁боов	-11.863
ИД	-11.8642
▁ихс	-11.8667
▁ерийн	-11.8673
▁уц	-11.8683
▁срэ	-11.8685
▁57	-11.869
▁анах	-11.8691
ЭХ	-11.8697
▁оон	-11.8701
▁ОМ	-11.8702
▁хуйн	-11.8717
оти	-11.872
▁pdf	-11.8727
оо	-11.8729
▁мэйн	-11.8732
▁убай	-11.8733
▁лахыг	-11.8743
▁ЭЭ	-11.8748
-6	-11.8749
▁ймаа	-11.875
▁АТ	-11.8752
▁рдан	-11.8753
▁сдэ	-11.8774
▁2,	-11.879
▁гну	-11.8793
▁ИХ	-11.88
▁бөг	-11.8811
▁эст	-11.8813
▁луулж	-11.8826
▁️	-11.8858
▁шав	-11.8863
▁голч	-11.8864
ub	-11.8872
vid	-11.8874
▁зэр	-11.8879
▁арак	-11.8889
▁эмжээ	-11.89
SD	-11.8901
▁наан	-11.8921
▁43	-11.8933
▁лгад	-11.8942
▁АЙ	-11.8942
▁экс	-11.8947
лах	-11.8954
▁ндүү	-11.8954
ет	-11.8966
▁олу	-11.8974
▁яц	-11.8978
ТЗ	-11.8981
▁¬	-11.8988
НИЙ	-11.899
уй	-11.9014
▁aa	-11.9016
ri	-11.9038
▁йла	-11.9048
этэр	-11.9054
им	-11.9057
ово	-11.906
▁айк	-11.9079
▁азаа	-11.908
▁оло	-11.9084
▁ндат	-11.91
ти	-11.9106
▁үүлэл	-11.9112
ҮБ	-11.9112
ол	-11.9117
▁мазо	-11.9119
▁итлер	-11.9122
▁УГЖ	-11.9124
▁айде	-11.9127
▁ain	-11.9129
▁бул	-11.9129
▁өлөн	-11.9133
▁Me	-11.9142
▁мхи	-11.9154
▁цса	-11.9159
ей	-11.916
▁варг	-11.9161
▁аху	-11.9162
▁1:	-11.9187
▁чра	-11.9218
▁лган	-11.9232
▁игер	-11.9242
▁nt	-11.9248
▁кад	-11.9253
org	-11.9254
▁quot	-11.9254
▁Chi	-11.9256
БЗ	-11.9258
хар	-11.9261
▁ДТГ	-11.9262
ЕШ	-11.9264
▁ату	-11.9269
▁шта	-11.9272
мж	-11.9281
▁La	-11.9288
ме	-11.9289
▁ршл	-11.9291
▁алчи	-11.9291
▁01	-11.9313
▁ОР	-11.9313
▁нир	-11.9315
▁хүл	-11.9324
▁ip	-11.9332
▁Хол	-11.9336
ra	-11.9352
ast	-11.9353
▁соо	-11.9364
.2	-11.9372
▁эко	-11.9384
ЗҮ	-11.9392
▁хувил	-11.9393
▁posts	-11.9394
▁ӨВЛӨ	-11.9395
▁үлг	-11.9403
▁риал	-11.9404
▁Онц	-11.9419
▁Нүү	-11.942
▁амди	-11.9423
▁авд	-11.943
▁!!	-11.9441
▁роод	-11.9445
огд	-11.9446
▁вак	-11.9449
▁НЭ	-11.9467
▁вуул	-11.947
ML	-11.9474
▁ира	-11.9475
▁фит	-11.9478
▁тив	-11.9504
il	-11.9504
ААР	-11.9512
▁Ma	-11.9513
-8	-11.9514
элээ	-11.9532
▁Ci	-11.9534
▁маан	-11.9541
▁way	-11.9546
▁үрсэн	-11.9553
▁Ажл	-11.9555
▁UB	-11.9568
▁os	-11.9571
лик	-11.9578
▁ним	-11.9588
ре	-11.9602
▁рсон	-11.9604
▁вөн	-11.9614
▁зул	-11.9619
▁трал	-11.9621
▁ади	-11.9624
▁эсрэ	-11.9629
ди	-11.9632
▁Be	-11.9632
▁чды	-11.9641
▁Гэх	-11.9656
●	-11.9673
▁лдсан	-11.9687
▁йхан	-11.9704
▁05	-11.9715
▁ХД	-11.9718
▁лдоо	-11.9726
▁ka	-11.9727
▁Aug	-11.973
▁асы	-11.9732
ОО	-11.9742
▁нхор	-11.9748
ель	-11.9759
еф	-11.9761
▁ээтэ	-11.9767
▁огто	-11.9767
▁ати	-11.9773
▁цы	-11.9779
▁има	-11.978
12	-11.9785
▁лтга	-11.9789
▁Цаа	-11.979
▁ld	-11.9792
▁рус	-11.9798
▁улб	-11.9799
▁оодо	-11.9804
▁надаа	-11.9812
▁сув	-11.9813
▁\	-11.9816
▁(3)	-11.9816
▁Book	-11.9817
ОЙ	-11.982
▁рдсан	-11.9821
▁ww	-11.9826
▁НЫ	-11.9827
▁41	-11.9833
гєє	-11.9835
▁зоо	-11.9836
▁оруу	-11.9839
▁нду	-11.9849
▁ӨХ	-11.9858
▁гач	-11.9863
▁ЛЭГ	-11.9874
▁IV	-11.9897
▁вья	-11.99
аш	-11.9909
▁УД	-11.9911
▁эрий	-11.9913
▁bo	-11.9922
ене	-11.9932
рон	-11.994
▁урвал	-11.9949
▁Фло	-11.9952
Юу	-11.9955
▁ака	-11.996
▁Ser	-11.9966
▁АЙНА	-11.997
▁ртын	-11.9979
▁уудай	-11.998
▁Чан	-11.9988
▁сте	-11.9988
▁as	-11.9996
▁Jul	-11.9999
▁реф	-12
▁инжа	-12.0002
▁өртөө	-12.0018
▁Un	-12.0022
ел	-12.0023
▁alt	-12.0028
▁рдэ	-12.0036
▁Big	-12.0038
▁урм	-12.005
▁алиа	-12.0051
▁Хил	-12.0057
.8	-12.0061
▁үлэн	-12.0063
▁Ro	-12.007
ца	-12.0071
▁нго	-12.0074
▁АСА	-12.0083
▁ооцо	-12.0094
ур	-12.0097
▁хлэн	-12.0105
▁ельги	-12.0109
▁ee	-12.0111
tt	-12.0113
▁ато	-12.0122
▁рлах	-12.0123
▁рмис	-12.0138
▁PC	-12.0149
ell	-12.0152
ud	-12.0172
▁анли	-12.019
▁di	-12.0191
▁рээр	-12.0195
▁лала	-12.0197
▁стер	-12.0214
▁ойл	-12.0214
▁зүтг	-12.023
▁элүү	-12.0247
ори	-12.0256
▁′	-12.0257
▁ЖДҮ	-12.0258
үн	-12.0261
▁06	-12.0261
ЭР	-12.0268
▁этр	-12.0272
▁нхи	-12.0274
▁эгдэж	-12.0275
ЕМ	-12.028
▁mo	-12.0281
▁гсн	-12.0281
▁ГӨӨ	-12.0283
▁итг	-12.029
▁wr	-12.0308
аз	-12.032
▁йти	-12.0322
▁Ya	-12.0324
▁64	-12.0337
▁рлан	-12.0353
▁Se	-12.0363
▁ҮҮХ	-12.0368
В	-12.0371
▁ранс	-12.0373
ибер	-12.0385
▁лса	-12.0405
▁имэ	-12.0409
▁ия	-12.0409
К	-12.0413
▁ув	-12.0414
▁Aut	-12.042
▁лууг	-12.0421
▁47	-12.0421
▁Sep	-12.0422
▁700	-12.0424
▁игери	-12.0431
ХБ	-12.0434
▁Mo	-12.0434
▁арыг	-12.044
▁лгө	-12.0444
▁ион	-12.0445
▁ХХ	-12.047
▁одой	-12.0474
▁дни	-12.0491
▁амта	-12.0499
▁УС	-12.0499
▁Car	-12.051
▁үтг	-12.053
▁үйн	-12.0531
▁HT	-12.0531
▁Bet	-12.0532
J	-12.0533
▁Лал	-12.0539
▁post	-12.0563
Уг	-12.0565
▁БИ	-12.0565
▁Зи	-12.0566
▁ner	-12.0569
▁оолой	-12.0569
▁бье	-12.0581
▁лиза	-12.0583
▁УУР	-12.059
▁Fir	-12.0597
ул	-12.0608
OP	-12.0609
▁яая	-12.061
▁ru	-12.0623
▁ндсэн	-12.0626
▁нхий	-12.0638
▁улз	-12.0642
ор	-12.0644
▁ндө	-12.0647
▁вшин	-12.0675
▁ых	-12.0681
▁нээл	-12.069
▁хэц	-12.0699
▁Дан	-12.0701
▁Өг	-12.0719
▁үүк	-12.0721
▁руулж	-12.0721
▁ашё	-12.0727
V	-12.0729
▁Love	-12.0733
90	-12.0747
▁иб	-12.0764
▁ies	-12.0783
отро	-12.0787
▁ссан	-12.0789
▁ийдэ	-12.0794
▁ЛАХ	-12.0796
▁лмаа	-12.0801
▁Sun	-12.0808
ҮТ	-12.0808
бби	-12.0811
▁енни	-12.0826
▁gi	-12.0827
▁үрг	-12.0831
▁Ad	-12.0835
САН	-12.0847
▁байс	-12.0851
▁НХ	-12.0856
▁ижи	-12.0857
▁72	-12.0869
▁аму	-12.0875
▁http	-12.0878
▁fuck	-12.0878
▁бокс	-12.0881
▁???	-12.0889
▁ооро	-12.089
▁Алс	-12.0895
▁нших	-12.0897
▁осы	-12.0904
▁56	-12.0907
em	-12.0915
▁аанаа	-12.092
0	-12.0941
▁гей	-12.0956
▁лөв	-12.0963
▁яав	-12.0967
▁рэв	-12.0974
дэг	-12.098
▁СЯ	-12.0988
▁10,	-12.0992
▁CD	-12.0996
▁зө	-12.1003
▁fac	-12.1006
азер	-12.1009
▁Min	-12.1017
ака	-12.1025
▁bar	-12.1029
&	-12.103
▁Stor	-12.1039
▁Eng	-12.1041
mp	-12.1045
▁боолт	-12.1048
▁индэр	-12.1049
▁Пе	-12.106
▁Куб	-12.1081
aa	-12.1084
ff	-12.1086
ольф	-12.1087
▁вын	-12.1087
▁стин	-12.1105
▁85	-12.1121
▁төг	-12.1127
анд	-12.1132
ЭТ	-12.1136
▁алдан	-12.1144
▁эрээс	-12.115
▁54	-12.1152
▁эндэ	-12.1152
▁где	-12.1175
▁гог	-12.1199
¿	-12.1203
▁IQ	-12.1204
▁илья	-12.1211
▁сох	-12.1212
ound	-12.1214
ort	-12.122
АД	-12.1224
▁nat	-12.1232
її	-12.1232
▁лэм	-12.1235
▁Бол	-12.124
▁Ji	-12.1241
▁одн	-12.1242
▁дэт	-12.1258
изи	-12.1261
▁War	-12.1263
▁сог	-12.1267
▁Ин	-12.1273
▁ai	-12.1285
▁ойго	-12.1298
▁Bat	-12.13
▁лат	-12.131
▁Кол	-12.1313
▁mp	-12.1322
▁рхол	-12.1323
ум	-12.1342
ком	-12.1351
▁sp	-12.1366
▁Bo	-12.1369
▁пани	-12.1373
▁52	-12.1386
▁ѳѳр	-12.1387
▁агт	-12.1387
ead	-12.1391
▁жид	-12.1392
▁ИЙГ	-12.1394
до	-12.1395
▁Лив	-12.1395
▁топ	-12.1404
▁XXI	-12.1408
▁лдр	-12.1409
▁we	-12.141
cle	-12.1413
▁адра	-12.142
▁ємнє	-12.1423
▁гуя	-12.1428
▁xy	-12.1428
▁эээээ	-12.1447
▁ГД	-12.1448
▁ton	-12.1454
ро	-12.1457
▁нды	-12.147
▁07	-12.1475
▁гата	-12.1477
▁Луу	-12.1478
▁ХС	-12.1492
▁данд	-12.15
▁НИЙ	-12.1519
укс	-12.153
▁өгий	-12.1533
▁>>	-12.1539
▁ҮН	-12.154
ake	-12.1544
▁үхэ	-12.1559
▁lo	-12.1569
▁180	-12.157
▁ow	-12.1572
▁рос	-12.1576
йл	-12.158
▁ЛЭЛ	-12.1582
▁стор	-12.1592
▁66	-12.1595
▁46	-12.1602
▁est	-12.1603
▁04	-12.1617
08	-12.1622
▁мэдэр	-12.1625
▁ara	-12.1629
▁дгэ	-12.1631
▁che	-12.1631
▁байга	-12.1638
▁Wal	-12.1648
▁энч	-12.1653
▁Лиг	-12.1661
▁усл	-12.1665
▁РГЭ	-12.1671
гэсэ	-12.1675
▁53	-12.1691
▁ее	-12.1693
▁лиу	-12.17
▁газ	-12.1703
ман	-12.1706
▁nes	-12.172
▁Gen	-12.1723
▁Nat	-12.1726
▁Мод	-12.1732
▁ile	-12.1736
▁Пол	-12.1738
ЬД	-12.1744
▁ѳ	-12.1747
орло	-12.175
F	-12.1757
▁ралын	-12.1766
▁Це	-12.1769
28	-12.1775
▁Hua	-12.1776
▁Цас	-12.1787
▁кво	-12.1794
▁ID	-12.1799
▁мит	-12.1807
▁наач	-12.1815
▁Gal	-12.1816
▁еви	-12.1818
▁ЭР	-12.1819
ad	-12.1839
дад	-12.1847
▁раз	-12.1851
▁ввв	-12.1872
▁99	-12.1873
НБ	-12.1875
▁ms	-12.1884
▁ткойн	-12.1887
▁^^	-12.1887
▁What	-12.1887
▁IPO	-12.1887
▁итэм	-12.1888
▁Cont	-12.1891
▁нхэ	-12.1892
эртэ	-12.1893
▁ЭРЭГ	-12.1895
▁енне	-12.1899
▁инфл	-12.19
▁гарз	-12.19
▁МЭ	-12.1914
▁өөлө	-12.1915
▁Жу	-12.1918
▁ї	-12.1931
▁эти	-12.1944
афи	-12.1952
▁ЭХ	-12.1958
▁mon	-12.1983
▁АС	-12.2003
▁хит	-12.2009
ламж	-12.2014
▁ика	-12.202
▁АРГА	-12.202
▁нгой	-12.2023
▁bi	-12.2027
▁римд	-12.2029
ob	-12.2033
рш	-12.2034
BC	-12.2036
▁арий	-12.2037
▁лаач	-12.2039
▁тааг	-12.2048
vi	-12.2052
▁Exp	-12.2053
▁war	-12.2054
ss	-12.2054
УУД	-12.2055
▁id	-12.2064
▁йчүүд	-12.2066
▁ршрут	-12.2066
▁двал	-12.2068
▁чуу	-12.2069
ури	-12.2071
▁жигл	-12.2076
▁ob	-12.2083
ХЯ	-12.2084
▁Res	-12.2087
▁АЯР	-12.2088
▁Don	-12.209
▁ргуй	-12.2097
▁Фин	-12.2099
▁лжэ	-12.2102
▁Can	-12.2108
▁адва	-12.211
▁ang	-12.2111
ем	-12.2111
ста	-12.2114
▁өлгө	-12.2115
Ү	-12.2116
АЖ	-12.2129
▁поп	-12.214
▁GB	-12.2153
▁su	-12.2167
▁Fin	-12.2175
▁Dis	-12.2185
▁ээдэг	-12.2186
▁Жин	-12.2197
9	-12.2197
▁рым	-12.2199
▁ko	-12.2205
▁bat	-12.221
▁лцуу	-12.2214
▁гуч	-12.2215
▁Рок	-12.2216
▁Ri	-12.2223
▁вьс	-12.2226
▁илал	-12.2235
ес	-12.2238
▁😀	-12.2247
▁ҮЙЛ	-12.2248
▁work	-12.2248
▁Blue	-12.2248
▁Иаков	-12.2251
▁леку	-12.2255
▁НЬ	-12.2255
▁Day	-12.2262
▁дун	-12.2263
▁Йе	-12.2266
▁амгай	-12.2268
▁вон	-12.2269
▁cap	-12.2275
▁нум	-12.2281
▁йнх	-12.2285
▁айса	-12.2299
ng	-12.2304
ar	-12.2318
▁БА	-12.2333
H	-12.2341
▁ert	-12.2342
▁нхээ	-12.2346
▁алса	-12.2349
▁ук	-12.2352
▁члаа	-12.2359
▁оги	-12.2363
▁нээн	-12.2366
▁St	-12.2369
▁2)	-12.2377
▁EN	-12.2388
▁йи	-12.24
▁жийг	-12.2403
дак	-12.2407
▁PR	-12.2431
▁нефт	-12.2432
▁рипт	-12.2433
▁Toy	-12.2435
ъя	-12.2439
ялба	-12.2441
▁im	-12.2443
▁Рио	-12.2448
it	-12.245
▁Aw	-12.2451
TE	-12.2459
▁900	-12.2463
НЫ	-12.2476
▁байд	-12.2476
▁Иос	-12.2476
▁Sec	-12.2483
▁арш	-12.2483
▁Виз	-12.2492
▁урши	-12.2498
▁унж	-12.2503
▁авж	-12.2503
▁аша	-12.2506
▁төй	-12.2508
▁дма	-12.2514
▁ЭМ	-12.2523
▁влэ	-12.2533
▁омдо	-12.2538
out	-12.2539
туу	-12.2553
тэр	-12.2557
се	-12.256
▁спо	-12.2569
▁VI	-12.2573
▁атер	-12.2577
▁Rep	-12.2581
▁ii	-12.2586
ерс	-12.2591
▁Ope	-12.2597
ony	-12.2597
▁(2	-12.2619
▁load	-12.2621
▁Pow	-12.2621
▁ОНЦ	-12.2622
▁Park	-12.2622
▁эллээ	-12.2629
▁ОАЖ	-12.263
▁гидр	-12.2636
одк	-12.2639
те	-12.2639
▁игл	-12.264
op	-12.2653
▁ЭНЭ	-12.2656
лгэ	-12.2656
▁Net	-12.2657
▁мэгц	-12.2665
▁02	-12.2674
▁лир	-12.2677
▁янь	-12.2691
▁лори	-12.2704
▁Stat	-12.2713
▁4:	-12.272
▁Ол	-12.2721
▁хойг	-12.2723
▁лалы	-12.2731
Z	-12.2732
▁Jav	-12.2743
▁Boo	-12.2763
бу	-12.2766
▁ндуу	-12.2776
▁лст	-12.2783
▁илс	-12.2789
▁Si	-12.2795
▁раф	-12.2796
uch	-12.2797
▁УУ	-12.2799
удио	-12.2807
▁єгє	-12.281
▁дэй	-12.2814
▁LED	-12.2814
▁Out	-12.2814
▁Plus	-12.2814
▁back	-12.2815
▁иулах	-12.2817
▁БСБ	-12.2817
ñ	-12.2821
даж	-12.2822
▁блет	-12.2824
▁6.	-12.2826
өгс	-12.2826
▁хиа	-12.2832
▁per	-12.2833
se	-12.2838
▁өтөл	-12.2846
▁CV	-12.2847
▁62	-12.2853
▁Ру	-12.2854
▁Сон	-12.2858
▁зүс	-12.2868
▁нанд	-12.2869
▁үлгэ	-12.2875
▁жав	-12.2879
▁gy	-12.2881
EM	-12.2914
анг	-12.292
АТ	-12.2935
▁MA	-12.2958
▁ҮҮР	-12.2965
▁лца	-12.2975
▁Sp	-12.2978
▁дом	-12.2987
▁мил	-12.2992
▁жен	-12.2999
▁ьц	-12.3
▁АБЭА	-12.301
▁APS	-12.301
▁Pay	-12.3012
Өө	-12.3015
▁Per	-12.3019
▁Vis	-12.302
▁рэд	-12.3023
▁агдан	-12.3024
▁Хас	-12.3024
80	-12.3027
▁Rec	-12.3034
▁ууса	-12.3038
▁goo	-12.3042
▁сто	-12.3046
▁АД	-12.3056
▁арги	-12.3059
ЭД	-12.3061
▁гту	-12.3061
▁mu	-12.3066
18	-12.3077
▁ссо	-12.3083
алба	-12.3087
▁шөл	-12.3087
▁Нара	-12.3092
▁онни	-12.3093
▁da	-12.3096
▁күү	-12.3099
▁Sc	-12.3099
▁удл	-12.31
▁вла	-12.3111
▁үгэ	-12.3115
▁олол	-12.3117
▁гөл	-12.3118
пти	-12.3123
▁ЛАЛ	-12.3127
▁арг	-12.3128
эдэн	-12.3133
▁ямд	-12.3161
▁мна	-12.3163
ета	-12.3176
▁PS	-12.3178
▁ИЛ	-12.318
ite	-12.3181
▁Gran	-12.3181
▁рес	-12.3188
ҮЦ	-12.3203
▁©	-12.321
▁Slot	-12.321
▁(4)	-12.321
▁алы	-12.3211
▁йхгүй	-12.3216
▁єнгє	-12.322
▁Eur	-12.3222
▁илет	-12.3227
▁Вал	-12.3231
▁нзаа	-12.3242
la	-12.3244
▁ОТ	-12.3246
арын	-12.3249
▁пүү	-12.3252
▁уни	-12.3262
mer	-12.3286
▁can	-12.3289
▁Lee	-12.3296
▁say	-12.3299
ис	-12.331
▁ЛИ	-12.3311
▁элдэх	-12.3334
▁ДАА	-12.3341
▁кү	-12.3341
▁ny	-12.3355
▁цлаг	-12.337
▁Clo	-12.3376
гє	-12.3388
▁nam	-12.3392
24	-12.3397
вар	-12.3401
▁ьсо	-12.3401
▁атах	-12.3412
▁iPad	-12.3414
НГУ	-12.3414
▁ЗХУ	-12.3415
▁ргей	-12.3415
▁олл	-12.3417
▁свэл	-12.3417
▁мөс	-12.3417
аоао	-12.3418
▁ual	-12.3418
▁are	-12.342
ain	-12.3424
▁эсгий	-12.3426
▁рдах	-12.3426
▁Her	-12.3428
▁Hu	-12.343
do	-12.3439
АМ	-12.3443
ll	-12.3447
▁лих	-12.345
ут	-12.3461
▁XX	-12.3477
▁mas	-12.3486
▁гагүй	-12.3488
▁омд	-12.3502
НЭ	-12.3508
▁Ph	-12.3536
▁ллэг	-12.356
▁бэлэ	-12.3569
▁ИД	-12.3584
25	-12.3591
▁03	-12.3609
▁рсо	-12.3611
ЛС	-12.3617
▁DVD	-12.3622
▁life	-12.3622
▁time	-12.3623
▁ago	-12.3623
▁эмчил	-12.3624
▁үлжээ	-12.3626
▁59	-12.3627
▁ò	-12.363
ook	-12.363
▁архе	-12.3632
▁her	-12.3633
.4	-12.3635
▁мөрө	-12.3639
▁Des	-12.364
ОК	-12.3646
ut	-12.3658
▁eg	-12.3669
▁алалт	-12.3674
▁үлж	-12.3677
▁ХААР	-12.3678
▁oin	-12.3678
ü	-12.3685
▁Bar	-12.3687
▁Шри	-12.369
▁йв	-12.3706
▁Exce	-12.3706
▁Үд	-12.371
гой	-12.3713
▁айжа	-12.3728
▁00	-12.3737
▁Har	-12.3738
▁Ял	-12.3751
▁gui	-12.3752
▁Bur	-12.3784
ЗХ	-12.3795
▁Мас	-12.3813
▁08	-12.3826
▁↑	-12.3835
▁lish	-12.3835
▁ger	-12.3836
▁›	-12.3837
▁мулт	-12.3838
эк	-12.3838
▁уузай	-12.3839
▁ХААХ	-12.3842
▁имба	-12.3842
▁ОН	-12.3843
▁ress	-12.3844
ХВ	-12.3847
▁рейд	-12.385
▁англ	-12.3867
▁эмдэ	-12.3872
▁саан	-12.3873
▁сна	-12.3875
▁ret	-12.388
▁үрж	-12.3884
95	-12.3884
ку	-12.389
▁5,	-12.3896
U	-12.3904
▁эро	-12.3905
▁ахда	-12.3908
hoto	-12.3909
▁ya	-12.391
▁20%	-12.3919
▁Con	-12.3928
▁пүүл	-12.3937
▁дак	-12.3937
▁Red	-12.3949
ргиз	-12.3951
▁ери	-12.3952
▁рү	-12.3958
▁Бел	-12.3963
▁аку	-12.3964
▁ҮР	-12.3965
▁Live	-12.3968
▁байт	-12.3972
▁uk	-12.3987
▁олш	-12.3988
аци	-12.3996
▁угал	-12.3996
▁анду	-12.4012
▁Сай	-12.4014
▁3:	-12.4016
-7	-12.4022
▁98	-12.4038
оза	-12.4048
►	-12.4052
▁Linux	-12.4052
▁Sky	-12.4053
▁Times	-12.4054
▁УХАЙ	-12.4055
▁УСК	-12.4056
▁лен	-12.4056
▁port	-12.4057
▁ймаг	-12.4058
▁льци	-12.4059
▁ООО	-12.4065
▁намик	-12.4065
▁ant	-12.4068
▁ролл	-12.4073
ви	-12.4073
▁ибер	-12.4075
ез	-12.4076
▁МЖ	-12.408
▁eng	-12.4083
ЕХ	-12.4086
айф	-12.41
▁ирм	-12.4101
▁Coun	-12.4107
▁Mu	-12.4109
ver	-12.412
▁Hi	-12.4124
▁Det	-12.4132
SP	-12.4133
ӨХ	-12.4134
▁окер	-12.4138
ден	-12.414
▁22,	-12.4148
▁ХЦ	-12.4157
▁3,	-12.4159
▁луг	-12.4161
▁po	-12.4164
▁Dr	-12.4166
ГИ	-12.4166
єрє	-12.417
▁Mot	-12.4172
▁гүм	-12.4175
▁тгор	-12.42
ок	-12.4208
▁бель	-12.4213
▁иргэ	-12.4224
▁Mas	-12.4228
▁ньян	-12.4239
▁sh	-12.4262
▁айши	-12.4265
▁овс	-12.427
▁API	-12.4275
▁рубль	-12.4275
▁bout	-12.4275
▁so	-12.4275
▁shop	-12.4275
▁пүүз	-12.4275
▁роид	-12.4276
▁Hyun	-12.4276
▁опул	-12.4276
▁ААТАР	-12.4277
▁Ang	-12.4284
▁ha	-12.4293
▁woo	-12.4293
▁рмой	-12.4297
ate	-12.4299
▁des	-12.4315
▁Ho	-12.4316
▁ндэс	-12.4316
▁ного	-12.4333
▁олом	-12.4334
▁гтоо	-12.4336
▁аалц	-12.4338
▁АЙН	-12.4344
▁ЭЛХИ	-12.4344
инз	-12.4353
▁нгк	-12.4354
▁нзон	-12.4354
▁Гад	-12.4363
▁лак	-12.4364
хе	-12.4364
▁Ы	-12.4364
▁ану	-12.4377
▁ER	-12.4379
▁ржээ	-12.4381
ён	-12.439
▁босс	-12.439
▁Цоо	-12.4391
▁инь	-12.4393
▁Le	-12.4398
▁эдсэн	-12.4406
ung	-12.4418
▁өдө	-12.4426
▁cs	-12.4433
▁тел	-12.4439
▁Топ	-12.4443
▁vs	-12.4447
▁йха	-12.445
тон	-12.4453
▁бур	-12.4455
▁мянг	-12.4477
▁нио	-12.4477
▁Li	-12.449
▁1)	-12.4494
▁УУЛЬ	-12.4502
ة	-12.4502
▁ӨХТГ	-12.4502
▁URL	-12.4502
▁(5)	-12.4502
▁сойз	-12.4504
▁дүй	-12.451
▁лзэ	-12.4514
▁асна	-12.4524
▁80%	-12.4526
TA	-12.4527
▁ort	-12.4536
ull	-12.4546
▁RE	-12.4551
▁тгээ	-12.4552
ля	-12.4555
▁Ирж	-12.4563
▁Poli	-12.4565
▁того	-12.4575
▁чний	-12.4576
сє	-12.458
▁Mode	-12.458
▁ска	-12.4583
▁Dow	-12.4588
▁68	-12.4597
ech	-12.4599
▁икаг	-12.4604
ЭС	-12.4611
▁Ar	-12.4611
▁азр	-12.4613
▁wi	-12.4615
▁гала	-12.4618
▁лдг	-12.4619
лай	-12.4628
▁ina	-12.4632
▁иам	-12.4641
am	-12.4642
1,	-12.4645
▁Пер	-12.4646
АУ	-12.4655
▁ОЛО	-12.4656
▁ЦС	-12.4671
▁адда	-12.4679
ed	-12.469
▁амбо	-12.4694
OM	-12.4695
ОЛ	-12.4699
or	-12.4701
оход	-12.4703
▁өсө	-12.4715
▁ллаж	-12.4716
▁Дур	-12.4718
ly	-12.4731
▁PDF	-12.4734
▁Life	-12.4734
▁UFC	-12.4734
▁Edit	-12.4735
▁йсны	-12.4735
▁Share	-12.4736
▁nk	-12.4738
▁Top	-12.474
▁веде	-12.4741
▁bet	-12.4742
▁1%	-12.4747
ta	-12.475
▁Жан	-12.4751
▁это	-12.4751
▁Ha	-12.4755
im	-12.4756
▁ҮЦ	-12.4762
.6	-12.4769
▁арон	-12.4772
▁нефть	-12.4772
▁Th	-12.4775
▁үүнэ	-12.4776
▁NE	-12.4776
▁САН	-12.4784
▁PCR	-12.4789
and	-12.4794
▁цав	-12.481
нер	-12.4814
▁ari	-12.4827
▁74	-12.4829
▁ндла	-12.4831
▁үдэг	-12.4833
▁10%	-12.4836
▁um	-12.484
▁MS	-12.4855
▁Up	-12.4856
▁sta	-12.4864
-3	-12.487
▁CS	-12.4872
▁гом	-12.4876
▁гэе	-12.4881
▁нит	-12.4903
▁Dat	-12.4903
▁Сул	-12.4907
▁эли	-12.4909
▁лбор	-12.4911
▁лси	-12.4924
▁иви	-12.4928
ИЙГ	-12.493
▁nb	-12.4965
eek	-12.4967
ust	-12.497
▁fe	-12.4973
▁Gold	-12.4973
▁АНИЛ	-12.4974
▁Hall	-12.4974
uri	-12.4978
▁лько	-12.4981
▁при	-12.4987
▁авлик	-12.499
▁вэй	-12.5001
▁лгу	-12.5002
▁лифт	-12.5005
▁ндуй	-12.5005
▁ron	-12.5006
▁вда	-12.501
▁Save	-12.5011
▁андаж	-12.5019
ft	-12.5021
▁#1	-12.5024
▁галах	-12.5024
▁чны	-12.503
▁авай	-12.5031
▁эвх	-12.5039
▁Lo	-12.5041
▁Su	-12.5047
▁уулс	-12.5054
FC	-12.5061
▁rol	-12.507
▁аме	-12.5081
▁анба	-12.5083
▁Not	-12.5095
17	-12.5105
ле	-12.511
▁здэг	-12.5111
бе	-12.5112
▁Мин	-12.5117
▁Зар	-12.5118
▁too	-12.5131
▁БХ	-12.5135
лог	-12.5141
▁Ри	-12.5148
▁mat	-12.515
▁Ta	-12.5159
▁Бри	-12.5172
▁адаа	-12.5173
▁Не	-12.5176
сэр	-12.518
РЖ	-12.5185
rl	-12.5187
▁ОД	-12.5196
ple	-12.52
▁гое	-12.5203
▁драт	-12.5203
î	-12.5206
▁tal	-12.5212
▁Í	-12.5216
▁GPS	-12.5217
▁жонш	-12.5217
▁ript	-12.5217
▁эфир	-12.5217
▁ota	-12.5218
▁/>	-12.5219
▁ИЙГЭ	-12.5219
єнгє	-12.5219
▁lin	-12.5227
РАЛ	-12.5229
▁Am	-12.523
▁Geo	-12.5231
▁org	-12.5237
▁prev	-12.5243
▁НМ	-12.5245
▁алдр	-12.5252
▁итан	-12.5256
▁алца	-12.5278
▁vi	-12.5281
▁Medi	-12.5287
▁арм	-12.5288
▁виа	-12.5294
▁que	-12.5304
ntu	-12.5307
ск	-12.5307
▁все	-12.5307
▁gor	-12.5313
▁фэн	-12.5315
ям	-12.5316
▁yun	-12.5317
▁ХЕГ	-12.5321
ord	-12.5323
▁ххх	-12.5328
▁Мак	-12.5367
▁арре	-12.5367
▁Sol	-12.538
▁Inc	-12.5381
▁69	-12.5384
▁майн	-12.5386
▁Di	-12.5386
▁ӨР	-12.5387
▁бух	-12.5398
IP	-12.5404
бэ	-12.5409
▁ЛТ	-12.5409
▁орк	-12.5416
AD	-12.5416
енко	-12.5416
▁8,	-12.5417
▁Жам	-12.5417
▁Пете	-12.543
▁арао	-12.5441
ҮХ	-12.5445
▁хял	-12.5451
▁хоп	-12.5453
жу	-12.5456
IS	-12.5463
▁pussy	-12.5466
▁ини	-12.5466
▁Link	-12.5468
ТИС	-12.5478
▁скоп	-12.5487
▁ЕС	-12.5491
▁gn	-12.5497
▁улзах	-12.5499
яа	-12.5508
▁агий	-12.5509
▁гни	-12.5528
▁87	-12.5534
▁gen	-12.554
ула	-12.5543
▁По	-12.5552
▁ооно	-12.5558
▁ОЛ	-12.5569
▁поли	-12.5574
▁иог	-12.5588
▁нур	-12.559
▁ser	-12.561
▁урын	-12.5623
▁нка	-12.5625
ark	-12.5627
▁88	-12.5642
гуй	-12.5647
фи	-12.565
лян	-12.5662
▁Wik	-12.5665
▁Met	-12.5675
▁ээвр	-12.5685
АС	-12.5687
▁энди	-12.5688
▁3)	-12.5695
▁Хана	-12.5699
▁АЙХ	-12.5702
ЛЭГ	-12.5702
▁оосо	-12.5715
▁71	-12.5718
▁word	-12.5723
▁ك	-12.5723
▁оддог	-12.5724
▁ЗНН	-12.5726
▁эзэм	-12.5726
04	-12.5726
▁96	-12.5726
▁иэн	-12.5727
▁дюсе	-12.573
▁top	-12.573
лє	-12.5733
▁Лук	-12.5739
▁исне	-12.5742
▁Sch	-12.5746
▁дарь	-12.575
▁lor	-12.5751
шуу	-12.5751
▁Une	-12.5767
▁sor	-12.5785
▁It	-12.5787
нэн	-12.5794
▁z	-12.5808
ace	-12.5809
ее	-12.581
▁tren	-12.581
ъ	-12.5818
ia	-12.582
ДЭГ	-12.5825
▁амбар	-12.5827
▁Fil	-12.5833
▁ллоо	-12.5835
▁Yu	-12.5838
▁ier	-12.5838
▁Win	-12.5843
▁үүе	-12.5848
▁ойт	-12.5849
low	-12.5858
▁алжи	-12.586
ress	-12.5861
de	-12.5869
▁86	-12.5887
BS	-12.5904
инат	-12.5911
▁эгз	-12.5912
va	-12.5923
▁iP	-12.5927
▁ухай	-12.5932
▁ейс	-12.5934
▁цны	-12.5938
▁эль	-12.5939
IT	-12.5943
*	-12.5949
▁асва	-12.5957
ера	-12.5961
▁fo	-12.5967
▁сэв	-12.5974
سار	-12.5986
îâ	-12.5986
▁®	-12.5986
▁CPU	-12.5986
▁Watch	-12.5986
▁ЭСЯ	-12.5987
▁off	-12.5988
▁сони	-12.5989
▁ЛАА	-12.599
co	-12.5991
▁раун	-12.5996
сс	-12.5996
▁ньпи	-12.6002
▁ное	-12.6007
re	-12.6009
▁МС	-12.6015
▁мой	-12.6016
ук	-12.6019
▁Ливи	-12.6023
▁Em	-12.6031
лер	-12.6033
▁МТ	-12.6041
da	-12.6046
▁1.2	-12.6057
▁анхи	-12.6057
▁not	-12.6074
▁ванн	-12.6081
▁rd	-12.6086
tyle	-12.6087
▁7.	-12.6088
▁Ul	-12.6095
СЭН	-12.6097
▁iv	-12.6099
▁рокк	-12.6102
▁иин	-12.6102
▁ST	-12.6105
▁отте	-12.6116
ули	-12.6122
▁ялг	-12.6133
▁үер	-12.6143
▁АВ	-12.6159
▁grap	-12.6168
▁ориу	-12.6173
▁АНД	-12.6174
▁дэлт	-12.6176
▁Da	-12.6181
▁агв	-12.6183
▁dat	-12.6186
▁лдам	-12.6195
бер	-12.6195
▁he	-12.6196
▁ргам	-12.6203
ki	-12.6213
эйс	-12.6216
▁ac	-12.6235
▁рези	-12.6244
**	-12.6244
́	-12.6256
▁الحجر	-12.6256
▁❤	-12.6256
▁job	-12.6256
▁АЗАР	-12.6257
▁Fri	-12.6258
▁оохо	-12.6258
▁age	-12.6259
▁лб	-12.6263
▁rome	-12.6263
eam	-12.6264
▁что	-12.6265
▁ОЁР	-12.6266
▁АЗ	-12.6268
▁зэл	-12.6268
▁ЭРХ	-12.6269
▁Перу	-12.6269
▁АБ	-12.6272
▁Vic	-12.6273
▁ассе	-12.6278
▁ааааа	-12.6281
▁han	-12.6282
▁ew	-12.6282
▁рса	-12.6284
▁ЛС	-12.6285
▁ндгай	-12.6288
▁Жак	-12.6289
▁гуд	-12.6292
ol	-12.6297
▁яаг	-12.6298
▁ооооо	-12.6298
lock	-12.6302
▁пара	-12.631
▁Hos	-12.6318
ДС	-12.6318
сби	-12.6323
ери	-12.6331
▁РИ	-12.6333
оть	-12.6335
▁Inte	-12.6337
▁рөн	-12.6339
ean	-12.6342
ah	-12.6348
▁bu	-12.6349
Q	-12.635
▁Tra	-12.6355
▁Sim	-12.6357
▁раан	-12.6359
▁мян	-12.6359
енж	-12.6364
▁Ром	-12.6373
▁акс	-12.6374
▁bus	-12.6387
▁эйр	-12.6388
▁сорт	-12.639
▁Хос	-12.6395
арк	-12.6398
▁Робо	-12.6404
▁инт	-12.6406
▁Йо	-12.6408
▁Cat	-12.6409
▁79	-12.6418
ЭЛ	-12.6427
▁De	-12.6428
▁84	-12.6436
19	-12.6444
art	-12.6448
▁Ёо	-12.6468
оп	-12.648
▁ААР	-12.6482
З	-12.649
▁Cra	-12.649
TV	-12.6494
▁ЮУ	-12.6495
▁ӨРИ	-12.6498
де	-12.6501
▁боть	-12.6502
55	-12.6509
ВАР	-12.6514
▁үхээ	-12.6518
дє	-12.6519
é	-12.6524
hare	-12.6528
▁VPN	-12.6534
▁NEWS	-12.6534
▁play	-12.6534
▁Space	-12.6534
▁пицца	-12.6535
▁адеш	-12.6538
▁үүш	-12.6539
▁фо	-12.6539
▁дло	-12.6539
▁ТББ	-12.6539
▁wal	-12.6542
▁ЛЭХ	-12.6544
▁рти	-12.6544
вейт	-12.6545
▁AR	-12.655
ХС	-12.6552
си	-12.6552
▁Bu	-12.6554
▁мани	-12.6555
юу	-12.6555
TP	-12.6556
▁эдийг	-12.6558
8%	-12.6565
▁30%	-12.6571
▁алко	-12.6574
▁лэй	-12.6576
▁lan	-12.6585
▁РХ	-12.6592
▁миль	-12.6598
▁ьс	-12.6602
▁yy	-12.6604
air	-12.6611
▁ke	-12.6613
▁IN	-12.6615
▁vie	-12.6625
iss	-12.6627
ry	-12.6635
me	-12.6636
▁нгл	-12.6644
ҮҮ	-12.6644
▁shi	-12.6645
▁ков	-12.665
▁өсөө	-12.6655
▁q	-12.6657
▁гори	-12.6657
▁Sha	-12.6658
▁лду	-12.6666
▁гва	-12.6668
▁еф	-12.667
14	-12.6672
▁иаг	-12.6673
▁ЭЗ	-12.6674
ара	-12.6683
▁оши	-12.6687
SL	-12.6697
uk	-12.6705
▁чип	-12.6706
▁Mag	-12.6709
▁анчи	-12.6711
▁Фи	-12.6728
▁81	-12.673
▁Gi	-12.6731
▁7,	-12.6734
▁лис	-12.6749
ный	-12.675
▁Bro	-12.6761
▁элн	-12.6772
ӨН	-12.6775
▁fi	-12.6778
▁6,	-12.6779
▁cle	-12.6794
▁ҮГ	-12.6797
▁УР	-12.6799
▁өгт	-12.6803
хлэ	-12.6805
▁сэт	-12.6813
▁орц	-12.6813
▁ay	-12.6817
▁✅	-12.682
▁😉	-12.682
▁Girl	-12.682
▁twi	-12.682
▁√	-12.682
▁(8)	-12.682
▁нац	-12.682
▁Acc	-12.682
УЛГА	-12.6821
▁video	-12.6821
ше	-12.6821
▁Ger	-12.6823
▁дис	-12.6823
▁Art	-12.6823
▁єлєє	-12.6823
▁ютер	-12.6824
▁лчгар	-12.6827
▁омби	-12.6829
▁шоп	-12.6831
▁иги	-12.6833
▁ӨНГӨ	-12.6833
▁Cap	-12.6834
▁ЧД	-12.6839
▁юри	-12.6841
▁ональ	-12.6842
▁ness	-12.6845
▁pot	-12.685
▁Ноо	-12.6857
▁атери	-12.6862
▁Blog	-12.6878
▁ist	-12.688
tree	-12.6881
ист	-12.6889
▁Поп	-12.6892
▁tan	-12.6897
▁ГХЭ	-12.6906
▁Soc	-12.6921
▁NO	-12.6922
▁Glo	-12.6923
▁63	-12.6923
▁ХЭ	-12.6924
15	-12.6926
▁ууги	-12.6933
▁()	-12.6946
▁рєє	-12.6948
.9	-12.6955
▁роке	-12.6968
РӨӨ	-12.6977
рүүл	-12.6983
▁sa	-12.6985
ork	-12.6987
▁арда	-12.6987
▁Яам	-12.6991
▁13,	-12.6991
pe	-12.7011
Ф	-12.7015
▁78	-12.7026
▁MI	-12.7028
ИЛ	-12.7033
▁гос	-12.7033
▁Won	-12.7041
рей	-12.7042
▁рно	-12.7046
▁Лай	-12.7048
▁ph	-12.7052
▁эйж	-12.7059
▁мт	-12.7061
▁хнэ	-12.7071
▁АГ	-12.7081
▁АМЭ	-12.7082
▁ini	-12.7086
▁ѳр	-12.7091
льз	-12.7097
▁йцэ	-12.7101
▁89	-12.7103
▁Music	-12.7114
▁world	-12.7114
🎁	-12.7114
▁♥	-12.7114
▁Hol	-12.7114
▁ЛАГА	-12.7114
▁Group	-12.7114
▁like	-12.7114
▁Mill	-12.7116
▁bay	-12.7117
▁УДАЛ	-12.7117
▁va	-12.7117
▁рмос	-12.7117
▁box	-12.7118
▁Nik	-12.712
▁ool	-12.7122
▁түг	-12.7125
▁эдс	-12.7127
▁нжл	-12.7127
▁4,	-12.7137
13	-12.714
▁нгалт	-12.7142
рхой	-12.7149
▁stor	-12.7153
▁ерри	-12.716
▁free	-12.7162
ке	-12.7163
▁log	-12.7164
▁ДС	-12.7172
▁чон	-12.7172
▁Bitc	-12.7173
rag	-12.7175
8,	-12.7177
▁марк	-12.7178
▁нсо	-12.7181
▁дтэ	-12.7189
▁Cor	-12.7198
нє	-12.7202
▁ЧИ	-12.7212
▁ирс	-12.7214
any	-12.7225
▁рмен	-12.7228
▁ns	-12.7243
▁арсе	-12.7243
▁ЭГ	-12.7251
▁Ради	-12.7256
▁ГА	-12.7268
▁лист	-12.7272
их	-12.7276
▁ga	-12.7277
ити	-12.7285
▁ti	-12.7299
▁ндал	-12.7303
▁авли	-12.7316
▁Do	-12.7321
32	-12.733
▁дэлд	-12.7344
▁Fl	-12.7348
▁рмэ	-12.7348
ild	-12.7349
▁Del	-12.7361
арла	-12.7368
▁йга	-12.7373
▁ВЭ	-12.7375
▁дла	-12.7391
atch	-12.7394
▁лстө	-12.7396
▁83	-12.7405
▁лоуин	-12.7417
▁RAM	-12.7417
▁PVC	-12.7417
▁Like	-12.7417
▁АРИЛ	-12.7417
▁унэ	-12.7418
▁Hard	-12.742
▁ялба	-12.7423
▁enc	-12.7424
▁ics	-12.7424
бэг	-12.7425
▁СШУС	-12.7428
om	-12.7431
▁Эз	-12.7434
▁Фит	-12.7438
▁ануу	-12.7441
▁пизда	-12.7446
ix	-12.7446
-9	-12.7449
ник	-12.745
▁Vo	-12.745
▁Ab	-12.7452
▁82	-12.7453
▁лгор	-12.7455
▁скри	-12.7457
▁tr	-12.7458
▁get	-12.7463
оаоа	-12.7464
▁ast	-12.7467
▁Веб	-12.7475
▁дик	-12.7476
▁ембр	-12.7481
ap	-12.7482
▁үхэн	-12.7484
опол	-12.7484
▁рубл	-12.7488
▁Хүч	-12.7488
▁дахаа	-12.7498
▁вца	-12.7502
▁?!	-12.7525
▁утан	-12.7526
2,	-12.753
ink	-12.7536
▁Wo	-12.7541
▁wit	-12.7542
▁улг	-12.7546
▁вдл	-12.7554
4,	-12.7555
▁ШТ	-12.7556
▁нгэр	-12.7565
▁рад	-12.7572
ИО	-12.7595
ИХ	-12.7604
▁бум	-12.7606
ee	-12.7618
▁акро	-12.762
▁чсэн	-12.762
▁ука	-12.7621
▁эйт	-12.7629
лз	-12.7642
▁67	-12.7651
▁түв	-12.7651
ә	-12.7655
ani	-12.7664
▁Nam	-12.7671
▁йгаа	-12.7676
NC	-12.7692
АЙ	-12.7692
▁ЭД	-12.7708
▁XI	-12.7723
ена	-12.7726
▁QUIZ	-12.7729
▁ъцаа	-12.7729
▁VIP	-12.773
▁een	-12.7735
▁site	-12.7736
▁ерн	-12.7738
▁пол	-12.774
▁иего	-12.774
▁Mad	-12.7744
FL	-12.7744
▁ШИГ	-12.7747
▁амшиг	-12.7749
▁нгос	-12.7751
▁Kim	-12.7754
▁вввв	-12.7755
▁ейна	-12.7761
▁Vv	-12.7762
▁дель	-12.7762
▁ента	-12.7764
▁Ra	-12.7765
▁огсо	-12.7769
DA	-12.7769
▁Will	-12.7774
▁Tran	-12.7777
▁дой	-12.778
▁ДИ	-12.7782
▁этэр	-12.7782
▁вчих	-12.7783
▁Ливе	-12.7786
▁all	-12.7787
▁Ver	-12.7789
ице	-12.7792
▁ute	-12.7794
▁гоя	-12.7794
▁лест	-12.7804
▁ca	-12.7805
▁oc	-12.7808
из	-12.7821
▁220	-12.7823
П	-12.7825
▁УРГА	-12.7828
▁MB	-12.783
▁нух	-12.783
▁ридо	-12.7833
▁ME	-12.7833
▁ХАН	-12.7837
▁Woo	-12.7838
▁19,	-12.7847
▁10.	-12.7853
▁УРВА	-12.7856
CS	-12.7856
▁Ану	-12.7862
▁ийдэг	-12.7869
▁Char	-12.787
эгээ	-12.7878
сти	-12.7881
outh	-12.7884
▁Vie	-12.7893
▁Cal	-12.7893
илца	-12.7898
▁анте	-12.7902
▁ji	-12.7904
ame	-12.7906
ште	-12.7911
▁ГЧ	-12.7915
▁рсен	-12.792
▁енри	-12.7925
▁ЗДХ	-12.7926
▁ore	-12.7934
▁Ol	-12.7936
▁Сум	-12.7944
▁ейт	-12.7944
PS	-12.7947
▁MP	-12.7957
▁эдэл	-12.7969
▁5:	-12.7983
▁Mat	-12.7984
▁глуу	-12.7987
ОМ	-12.7995
зга	-12.7998
▁мтэ	-12.7999
▁ОВИ	-12.8002
▁mic	-12.8006
▁92	-12.8009
▁алб	-12.8011
▁нхр	-12.8015
▁сли	-12.8036
▁анат	-12.8039
ров	-12.804
▁роп	-12.8041
▁Medee	-12.8052
▁АЙХАН	-12.8052
▁£	-12.8052
▁(6)	-12.8053
▁фика	-12.8057
▁Men	-12.8058
▁ианна	-12.8062
▁одлоо	-12.8067
логы	-12.8069
CE	-12.8075
▁орхо	-12.8078
▁йнга	-12.808
▁Мини	-12.8084
▁кин	-12.8086
сүх	-12.8091
▁FI	-12.8095
уля	-12.8098
▁рдаж	-12.8099
▁үлс	-12.81
q	-12.8104
▁97	-12.8105
▁лооз	-12.811
▁Ant	-12.812
▁Loca	-12.8127
▁ОРИГ	-12.813
▁мєн	-12.814
▁dy	-12.815
▁ЭУ	-12.8159
▁Дээ	-12.8162
▁мхо	-12.8174
УУ	-12.8177
▁Пите	-12.8181
▁Joe	-12.8188
▁ТС	-12.8192
▁za	-12.8199
▁АЖ	-12.8215
▁сэлж	-12.8219
▁pa	-12.822
▁So	-12.8227
▁рхтэ	-12.8227
▁Is	-12.8229
,4	-12.823
▁col	-12.8234
ова	-12.8241
▁гада	-12.8254
ёо	-12.8262
рик	-12.8263
таа	-12.8267
▁дрон	-12.8268
▁Мет	-12.8268
▁кай	-12.8268
omm	-12.8275
▁лааз	-12.8275
▁рлог	-12.8277
ие	-12.8279
▁рент	-12.8283
11	-12.8293
▁He	-12.8297
▁ойжи	-12.8305
old	-12.831
▁roo	-12.8314
▁цс	-12.8315
▁ций	-12.8345
▁tar	-12.8351
▁du	-12.8357
▁ичи	-12.8359
▁оби	-12.8381
▁from	-12.8385
▁week	-12.8385
▁Show	-12.8386
▁core	-12.8386
▁виней	-12.8386
▁list	-12.8387
▁мкв	-12.8389
▁дєр	-12.8393
аар	-12.8395
▁норов	-12.8396
▁үж	-12.8397
ть	-12.8404
▁Саул	-12.8409
▁ДЭЛ	-12.8409
▁ѳг	-12.841
▁mous	-12.8415
▁Use	-12.8417
▁ГО	-12.8418
li	-12.8419
▁моод	-12.842
▁uni	-12.8426
мой	-12.8426
илл	-12.8428
эжээ	-12.843
▁боор	-12.843
▁ева	-12.8432
▁Газ	-12.8433
▁Dia	-12.8437
▁эф	-12.8438
▁рюс	-12.844
▁арби	-12.8441
▁Ins	-12.8452
вж	-12.8466
▁Ac	-12.8467
▁ban	-12.8469
▁sys	-12.8477
▁SD	-12.8488
22	-12.8491
56	-12.8491
▁Pe	-12.8493
MS	-12.8495
гнө	-12.8502
▁БД	-12.8503
▁эхнэ	-12.8509
▁Joo	-12.8514
▁нцл	-12.8518
▁ийхэ	-12.8518
▁хари	-12.8521
во	-12.8526
▁тни	-12.8552
эрэ	-12.8553
▁DC	-12.8555
▁Єєр	-12.856
▁Tae	-12.8563
DE	-12.8565
▁иана	-12.8573
▁амха	-12.8581
EC	-12.8583
int	-12.8595
▁чоо	-12.8595
йж	-12.8599
▁Рик	-12.8601
▁Пак	-12.8603
▁wind	-12.8608
▁Fe	-12.8614
▁олла	-12.8621
▁Sal	-12.8625
▁уутай	-12.8631
▁Лао	-12.8633
▁inu	-12.8637
▁lat	-12.8638
▁mac	-12.864
▁4)	-12.8642
▁муй	-12.8645
▁шок	-12.8648
▁tor	-12.8663
▁ЦАГ	-12.8663
хаа	-12.8667
▁Cam	-12.8673
▁ради	-12.8688
ara	-12.8703
▁унь	-12.8704
▁61	-12.8716
▁=>	-12.873
▁Drive	-12.873
▁льный	-12.8731
▁edit	-12.8731
▁Law	-12.8731
▁Pub	-12.8732
▁ӨГЖ	-12.8732
▁Mini	-12.8733
па	-12.8734
▁ликон	-12.8735
▁Land	-12.8735
▁lla	-12.8737
▁June	-12.8738
▁here	-12.8739
▁Pod	-12.8742
▁Tel	-12.8744
▁хоч	-12.8744
▁come	-12.8755
▁ep	-12.8757
▁Nort	-12.8758
▁Бор	-12.8764
▁360	-12.8765
99	-12.8771
+	-12.8774
▁ize	-12.8775
▁Ая	-12.8788
▁рто	-12.8789
▁boy	-12.8794
▁тгал	-12.8795
уни	-12.8796
▁Ёоо	-12.8797
▁иро	-12.8799
6,	-12.8804
▁йран	-12.8809
▁ТХЯ	-12.8809
▁ris	-12.881
ew	-12.8812
▁одло	-12.8812
▁Leg	-12.8815
▁жив	-12.8815
▁but	-12.8818
▁мэнт	-12.8819
▁CR	-12.8822
▁gue	-12.8823
▁QR	-12.8826
▁lic	-12.8826
▁ell	-12.8834
ca	-12.8836
▁нгир	-12.8843
▁роли	-12.8846
▁Ass	-12.8856
▁атле	-12.8856
▁SA	-12.8857
▁Гэв	-12.8858
gue	-12.8858
IVE	-12.8865
▁БЭ	-12.8866
▁инч	-12.8876
▁Поли	-12.8887
▁Spi	-12.8889
▁иуде	-12.8893
▁арза	-12.8898
ия	-12.89
ASA	-12.8902
FA	-12.8909
▁йог	-12.8912
OT	-12.8914
▁ксон	-12.8923
пи	-12.8924
▁ину	-12.8926
▁93	-12.8927
▁Gee	-12.8928
▁өлө	-12.8929
▁Нац	-12.8938
▁ja	-12.894
ve	-12.8948
▁73	-12.8962
▁ima	-12.8967
▁ѳѳ	-12.8976
УС	-12.8977
85	-12.8978
▁Alt	-12.8979
▁аста	-12.8987
оми	-12.8992
▁аруу	-12.8993
▁ойко	-12.8995
▁Ку	-12.8996
▁nia	-12.8999
▁Цац	-12.9008
▁АЙЛ	-12.9008
-1	-12.9012
▁ez	-12.903
▁Є	-12.9031
ша	-12.9037
сөлт	-12.9041
▁mak	-12.9057
▁car	-12.9059
▁Tur	-12.9066
CC	-12.907
▁Chan	-12.9074
ев	-12.9081
▁Ag	-12.9082
▁Маг	-12.9083
▁Pussy	-12.9087
▁УРХАЙ	-12.9087
▁[1]	-12.9087
▁ѳмнѳ	-12.9087
▁Japan	-12.9087
▁ЛАГАА	-12.9087
▁ееее	-12.9087
▁VII	-12.9088
▁SQ	-12.9088
▁здэ	-12.909
▁Hub	-12.9093
▁base	-12.9093
▁365	-12.9094
▁Гэс	-12.9106
▁Бал	-12.9107
▁Лиза	-12.9108
▁РО	-12.9108
▁рзан	-12.9112
▁аути	-12.9116
▁IEL	-12.9117
▁5%	-12.9119
▁увц	-12.9125
▁олчи	-12.913
▁lay	-12.9131
W	-12.9136
▁үдий	-12.9143
▁Hot	-12.9146
ере	-12.9151
▁Cha	-12.9161
NS	-12.9166
▁элм	-12.9169
▁ЕР	-12.917
▁єндє	-12.9173
▁77	-12.9185
ще	-12.9189
ОН	-12.9196
Tu	-12.9196
▁Ука	-12.9201
▁Sy	-12.9207
ЛИ	-12.9211
▁DI	-12.9212
nch	-12.9214
▁реги	-12.9221
▁chi	-12.9225
▁нами	-12.9229
чер	-12.9232
▁rat	-12.9246
▁Bl	-12.9249
▁ot	-12.925
ro	-12.9252
▁ide	-12.9253
тони	-12.9258
гор	-12.9258
▁оёх	-12.9262
▁By	-12.9263
▁таал	-12.9264
▁ah	-12.9264
▁Ex	-12.9269
▁ртиз	-12.9273
▁арте	-12.9274
▁gh	-12.9277
РИ	-12.9281
аши	-12.9282
▁ЭЭЛ	-12.9295
▁hi	-12.9295
yy	-12.9296
▁LA	-12.9298
▁Fu	-12.9311
▁Pal	-12.9315
be	-12.9318
▁Na	-12.9323
▁улт	-12.9323
рэг	-12.9337
▁нос	-12.9339
▁Pen	-12.9339
▁алра	-12.9352
▁dis	-12.9357
▁как	-12.9359
▁OK	-12.936
▁Ман	-12.9379
▁CE	-12.9387
▁ЛОН	-12.939
▁нгел	-12.9396
ать	-12.9397
▁ельт	-12.9409
мэн	-12.9418
▁uu	-12.9419
ийп	-12.942
▁аама	-12.9423
орт	-12.9423
▁gat	-12.9428
▁Pi	-12.9428
▁паа	-12.9435
ЭЖ	-12.9436
жин	-12.9444
єдє	-12.9448
←	-12.9448
Аз	-12.9453
хє	-12.9454
▁page	-12.9458
▁CNN	-12.9458
▁Snap	-12.9458
▁рдөг	-12.9458
▁mark	-12.9458
▁key	-12.9459
▁Thi	-12.9459
▁ЭМТ	-12.9462
▁Pop	-12.9463
▁ln	-12.9465
▁mart	-12.9465
▁ндром	-12.9472
▁As	-12.9474
үрдү	-12.9474
▁донна	-12.9475
▁Ray	-12.948
MW	-12.9482
▁энь	-12.9484
▁mer	-12.9485
▁гим	-12.9508
oll	-12.9512
▁шраа	-12.9513
нєє	-12.9514
▁Цаас	-12.9517
▁cy	-12.9519
▁Col	-12.9521
▁San	-12.9523
▁med	-12.9525
▁мгай	-12.9536
єв	-12.9537
▁сгө	-12.954
ka	-12.9541
▁ui	-12.9541
ni	-12.9553
▁Dem	-12.9559
▁йры	-12.9559
▁ргада	-12.956
▁АК	-12.9568
▁иев	-12.9581
▁ганд	-12.9584
▁ГАА	-12.9586
▁лфи	-12.9593
фес	-12.9601
▁гнал	-12.9619
поли	-12.9632
▁Ён	-12.9637
▁МА	-12.9643
▁ИДЕ	-12.9648
▁Gree	-12.9656
▁Bra	-12.9657
▁нхаар	-12.9659
NU	-12.9671
▁zar	-12.9672
▁Одо	-12.9679
▁ндиа	-12.9679
ock	-12.9681
▁uar	-12.9687
▁анна	-12.9688
▁nic	-12.9688
▁ллан	-12.9689
▁ндро	-12.9703
▁Хам	-12.9708
ne	-12.9714
▁байн	-12.9723
▁аая	-12.9726
▁ТТ	-12.9727
▁няц	-12.9729
▁Spor	-12.9732
ank	-12.9734
▁ula	-12.9736
▁Пу	-12.9748
▁ойж	-12.9756
анна	-12.9766
▁АЙД	-12.977
▁Nigh	-12.9777
▁акү	-12.98
▁wa	-12.9802
▁ллен	-12.9803
▁урж	-12.9804
▁Бен	-12.9808
▁GE	-12.981
to	-12.9812
▁Tha	-12.9813
▁рив	-12.9819
eu	-12.9822
45	-12.9825
▁94	-12.9834
▁БЗД	-12.9842
▁iba	-12.9842
▁TOE	-12.9842
▁РДЭНЭ	-12.9842
▁board	-12.9842
▁слайд	-12.9842
▁Tits	-12.9843
мин	-12.9843
▁SMS	-12.9844
▁Cock	-12.9844
▁Bay	-12.9844
▁Def	-12.9845
▁chat	-12.9845
▁inter	-12.9845
▁LAN	-12.9846
CO	-12.9846
▁єдєр	-12.9846
▁йрго	-12.9847
▁num	-12.9849
тү	-12.985
▁Roy	-12.9851
▁blog	-12.9852
▁ТОП	-12.9854
ралт	-12.9859
▁lf	-12.9863
▁длоо	-12.9868
▁ray	-12.9869
▁101	-12.988
▁резин	-12.9882
оз	-12.9883
кү	-12.9885
мө	-12.9887
▁Poin	-12.9888
▁SS	-12.9891
▁мпус	-12.9892
▁омоо	-12.9896
рэн	-12.9898
▁Ber	-12.9898
▁od	-12.9905
▁Bea	-12.9912
▁мэгт	-12.9914
▁Гял	-12.992
▁ёоо	-12.992
ала	-12.992
▁ON	-12.9925
▁rg	-12.9927
оё	-12.993
ХГ	-12.9932
ОНТ	-12.9932
▁рдс	-12.9935
EP	-12.9937
▁Du	-12.9938
ант	-12.994
▁арри	-12.9943
▁ров	-12.9946
жаал	-12.9947
РЫН	-12.9948
Ах	-12.9949
,8	-12.9954
▁ua	-12.9955
▁das	-12.9958
▁РАЛ	-12.9958
▁хоног	-12.9964
ряд	-12.9967
▁sm	-12.9973
3,	-12.9975
Эр	-12.9979
▁11.	-12.998
RO	-12.9985
өгдө	-12.9987
▁Рай	-12.9988
▁Боб	-12.9988
▁sup	-12.9995
▁nu	-12.9995
ДИ	-12.9997
▁риан	-12.9999
НО	-13.0003
▁IE	-13.0004
FS	-13.0012
▁LG	-13.0013
▁АЛТ	-13.0014
▁ЭН	-13.002
▁урги	-13.0021
▁цул	-13.0024
кок	-13.0025
▁Pra	-13.003
▁tha	-13.0032
▁Вас	-13.0032
ева	-13.0037
▁эвдэ	-13.0038
рен	-13.0039
▁тана	-13.004
▁Crea	-13.0042
AP	-13.005
▁UI	-13.0065
▁bol	-13.0076
▁рама	-13.0089
▁оста	-13.0092
CD	-13.0098
▁Arc	-13.0102
▁î	-13.0115
33	-13.0129
▁AT	-13.0133
▁УХ	-13.0135
ьда	-13.0135
ня	-13.0142
▁ОЛГО	-13.0147
ount	-13.0157
88	-13.0158
oul	-13.016
РЭЛ	-13.0165
PA	-13.0166
▁ОЛОО	-13.0167
rn	-13.0168
▁hy	-13.0178
ума	-13.0182
▁РС	-13.0185
▁ХИЙ	-13.0191
▁щ	-13.0192
НЬ	-13.0193
▁гур	-13.0194
GL	-13.0194
ути	-13.0199
▁ерий	-13.0226
▁ТИ	-13.0233
7,	-13.024
▁ky	-13.0242
▁vidio	-13.0242
▁РДЧИ	-13.0242
▁вказ	-13.0242
▁(9)	-13.0242
▁VIII	-13.0242
▁ҮОНРТ	-13.0243
▁vice	-13.0243
▁Rock	-13.0243
▁илле	-13.0243
▁нук	-13.0245
▁NET	-13.0245
▁Лазер	-13.0248
▁Stra	-13.0248
▁рен	-13.0249
▁жүүс	-13.0249
▁ИЙМ	-13.0249
АК	-13.025
48	-13.0252
▁ҮТ	-13.0254
▁Tom	-13.0254
▁Gm	-13.0256
▁rent	-13.0258
9%	-13.0261
▁вуулж	-13.0266
яг	-13.0268
▁ѐр	-13.0271
▁нде	-13.0275
ншиж	-13.0277
ҮК	-13.0279
▁елен	-13.028
▁исэ	-13.0283
▁идэ	-13.0284
▁анжи	-13.0287
▁hell	-13.0288
▁юкс	-13.0295
▁чихаа	-13.0297
IKE	-13.0298
amp	-13.0299
▁kh	-13.0302
▁оёот	-13.0305
▁nit	-13.0311
▁МҮТ	-13.0312
▁ршал	-13.0314
▁15.	-13.0319
▁ГАЛ	-13.0319
▁лити	-13.0321
▁Коб	-13.0321
▁азра	-13.0326
▁Ноа	-13.0327
▁ОХИО	-13.0331
эрж	-13.0333
▁авол	-13.0334
▁Gre	-13.0337
▁Py	-13.0337
▁Сав	-13.0337
▁пра	-13.0338
ã	-13.0339
▁радо	-13.0341
▁air	-13.0343
rack	-13.0343
▁Plac	-13.0352
▁rus	-13.0353
▁яха	-13.0353
▁DJ	-13.0355
▁if	-13.0364
▁ьчи	-13.0369
▁6:	-13.0369
▁итай	-13.0371
▁нзан	-13.0381
▁ьер	-13.0389
▁Же	-13.0395
▁үрт	-13.0399
Е	-13.0401
▁Pri	-13.0402
▁ИС	-13.0411
lor	-13.0417
▁АРД	-13.0419
▁вер	-13.0421
▁CL	-13.0427
▁Ann	-13.0433
▁ear	-13.0436
▁Jus	-13.0451
▁мбий	-13.0452
рь	-13.0452
ОР	-13.0456
▁#3	-13.0457
ген	-13.0459
иков	-13.0464
ana	-13.0465
▁МАР	-13.0466
▁Shi	-13.047
▁CH	-13.0478
ков	-13.048
▁тээв	-13.048
мо	-13.0493
▁ийт	-13.0504
zy	-13.0505
ED	-13.051
око	-13.051
▁Jo	-13.0519
DM	-13.0529
mi	-13.0538
▁наст	-13.0546
▁нхо	-13.0547
▁AI	-13.0548
яр	-13.055
SH	-13.0556
▁Ѳ	-13.0562
▁Stu	-13.0569
▁wan	-13.0574
▁алло	-13.0579
▁ye	-13.0581
▁aar	-13.059
ици	-13.0592
▁ён	-13.0597
ode	-13.0602
▁ломб	-13.0609
хан	-13.0609
▁Bit	-13.0609
▁Жим	-13.0611
▁рант	-13.0614
▁тей	-13.0621
▁рке	-13.0621
▁cas	-13.0622
үл	-13.0623
▁нжаа	-13.0628
▁арса	-13.0631
▁Mr	-13.0632
▁лдай	-13.0632
ту	-13.0634
#	-13.0637
бул	-13.0638
▁ОО	-13.0653
▁Jess	-13.0658
▁Ltd	-13.0659
▁izer	-13.0659
▁Mess	-13.066
ideo	-13.066
▁ЗӨВ	-13.066
▁Rose	-13.066
▁шкаф	-13.066
▁Bank	-13.066
▁tph	-13.066
▁ONE	-13.0661
▁shot	-13.0661
▁USD	-13.0661
▁АРИМТ	-13.0663
▁збек	-13.0665
▁Ava	-13.0665
▁тиоп	-13.0665
▁anc	-13.0665
▁үүвэй	-13.0666
▁fon	-13.0666
▁СШУЯ	-13.0667
▁Ter	-13.0668
▁льва	-13.0668
▁СХ	-13.0669
▁Pok	-13.067
▁ьё	-13.067
▁илтэй	-13.0676
▁Ben	-13.0676
▁ЛЭЭ	-13.0677
▁ПО	-13.0678
ET	-13.0679
▁Лена	-13.0681
▁остон	-13.0692
▁Bill	-13.0692
▁ish	-13.0696
▁Eb	-13.07
▁схи	-13.0707
▁ЛҮҮ	-13.0711
▁Яс	-13.0713
▁Inf	-13.0714
▁АНЫ	-13.0723
▁Логи	-13.0724
▁var	-13.0729
▁dom	-13.073
36	-13.0732
▁san	-13.0733
▁Tr	-13.0735
тта	-13.0736
▁арца	-13.0738
MA	-13.0745
37	-13.076
СҮТ	-13.0763
▁эгв	-13.0764
▁mar	-13.0764
▁upda	-13.0766
▁УА	-13.0769
br	-13.0771
▁Vol	-13.0773
▁Smar	-13.0778
▁#2	-13.0781
▁Dur	-13.0782
ИА	-13.0786
▁Мэдэ	-13.0787
▁260	-13.0789
▁нжин	-13.0792
▁Yoo	-13.0794
▁+1	-13.0796
акс	-13.0802
▁240	-13.0808
▁чини	-13.0809
▁эйк	-13.081
▁рси	-13.0811
▁мма	-13.0816
по	-13.0817
їн	-13.0823
▁EUR	-13.0831
▁tac	-13.0833
▁ag	-13.0837
▁нгон	-13.0856
▁ЭМЖ	-13.0858
▁AP	-13.0858
▁лиго	-13.0859
мен	-13.0865
▁куу	-13.0865
▁Ной	-13.0866
▁COM	-13.0872
▁ерно	-13.0873
BM	-13.0879
щ	-13.0881
69	-13.0885
▁Or	-13.0887
▁JS	-13.0888
пе	-13.0901
▁МД	-13.0903
▁2"	-13.0903
▁ллер	-13.0906
▁ҮНИЙ	-13.0908
▁ийтэ	-13.0912
▁икс	-13.0912
▁ую	-13.0914
▁ята	-13.0927
AT	-13.0928
ї	-13.0936
▁рун	-13.0941
▁ток	-13.0944
▁EX	-13.0946
▁Мао	-13.0955
▁мє	-13.0955
▁кок	-13.0958
hi	-13.0964
▁дая	-13.097
▁XP	-13.0972
▁Dura	-13.0975
▁амжа	-13.0979
SC	-13.0983
үгэй	-13.0985
нес	-13.1
▁РУУ	-13.1005
▁нья	-13.1009
▁Тод	-13.1011
▁Im	-13.1012
ана	-13.1017
uu	-13.1018
▁(3	-13.1018
▁сэм	-13.1018
▁йлч	-13.1025
▁рби	-13.1027
ОС	-13.1029
▁ля	-13.1029
▁Set	-13.1038
▁РД	-13.1042
si	-13.105
▁цга	-13.105
▁Jon	-13.1051
▁жар	-13.1053
▁ена	-13.1063
▁ШГ	-13.1063
ja	-13.1065
▁win	-13.1066
▁моо	-13.1067
бри	-13.1071
▁Ave	-13.1075
RP	-13.1076
▁AN	-13.1076
▁Фран	-13.108
▁Pac	-13.1085
УЗ	-13.1086
▁Мєн	-13.1092
▁Paul	-13.1094
▁Voice	-13.1094
▁2.0	-13.1094
▁РГА	-13.1095
▁How	-13.1095
▁ION	-13.1095
▁сбад	-13.1096
▁ЮМ	-13.1097
▁End	-13.1099
▁style	-13.11
▁ley	-13.1101
▁иско	-13.1101
6%	-13.1102
▁red	-13.1104
▁ГБТ	-13.111
▁At	-13.111
▁THE	-13.111
▁Блок	-13.1111
▁Max	-13.1112
MO	-13.1112
▁Сент	-13.1114
▁Bin	-13.1116
▁лэнд	-13.1119
▁2%	-13.1119
▁Fro	-13.1121
▁Sain	-13.1121
vo	-13.1126
▁Саад	-13.1127
▁ir	-13.1136
▁ждаг	-13.1137
▁95%	-13.1138
77	-13.1142
▁лее	-13.1153
▁дуг	-13.1156
▁мъя	-13.1158
▁еее	-13.1159
▁Ap	-13.1159
мон	-13.1167
▁280	-13.1167
▁мми	-13.1167
▁Boe	-13.1169
▁ern	-13.117
▁кут	-13.1177
▁125	-13.1178
▁огра	-13.1184
▁енит	-13.1185
▁Cl	-13.1189
▁CoV	-13.119
▁ТМ	-13.1191
▁уны	-13.1201
ЙЖ	-13.1208
▁val	-13.121
23	-13.121
▁Holl	-13.1211
▁ДЭЭ	-13.1212
▁Eas	-13.1216
үг	-13.1222
▁13.	-13.1222
▁гөх	-13.1226
▁Pat	-13.1233
▁АЙГ	-13.1233
▁ню	-13.1237
▁лгуй	-13.1238
▁Zi	-13.124
▁YG	-13.1241
▁Are	-13.1247
▁суб	-13.1249
4%	-13.1252
▁í	-13.1253
▁юси	-13.1254
▁GD	-13.1259
уз	-13.1262
▁энзэ	-13.1266
▁рук	-13.1266
▁Los	-13.1284
▁мго	-13.1287
▁ТЕГ	-13.1288
▁Sta	-13.1293
▁gam	-13.13
ИТ	-13.1305
ХК	-13.1311
▁УЛГА	-13.1313
▁нєхє	-13.1315
▁ъе	-13.1319
▁чав	-13.1321
▁оглох	-13.1322
ama	-13.1327
▁Ora	-13.1337
▁Mer	-13.1339
▁SM	-13.1348
▁нге	-13.1354
▁цөц	-13.1357
▁юр	-13.1368
ама	-13.1376
▁УГА	-13.1392
▁ару	-13.14
▁ьч	-13.1403
▁еер	-13.1404
89	-13.1407
гер	-13.141
▁tra	-13.1411
ТО	-13.1412
үчтэ	-13.1412
▁эп	-13.1414
▁Нет	-13.1423
▁Hum	-13.1426
ge	-13.1428
▁oi	-13.143
▁хян	-13.1432
rd	-13.1432
HP	-13.1437
▁Ki	-13.1442
DP	-13.1446
PF	-13.1465
▁эгн	-13.1469
▁алал	-13.1482
▁Gu	-13.1493
▁пц	-13.1499
▁Рес	-13.1507
МД	-13.1518
сен	-13.1521
▁rn	-13.1522
▁ЭРГЭ	-13.1526
▁pres	-13.1533
▁СТ	-13.1547
・	-13.1548
▁Asuu	-13.1548
▁XIII	-13.1548
▁раоке	-13.1548
▁tics	-13.1548
▁Stop	-13.1548
▁нтра	-13.1549
▁PST	-13.1549
▁love	-13.1549
▁raft	-13.155
▁Key	-13.155
▁мєр	-13.155
▁★	-13.1551
▁row	-13.1551
▁РҮҮ	-13.1551
ПУ	-13.1551
▁РӨН	-13.1551
▁Bon	-13.1552
▁УРХАН	-13.1552
▁ЕЗ	-13.1553
ГТ	-13.1554
▁СУУЛ	-13.1555
▁бэгэр	-13.1555
▁exp	-13.1557
▁men	-13.1562
▁Ball	-13.1563
▁ӨЛӨӨ	-13.1564
▁лит	-13.1565
▁эснэ	-13.1567
▁Quiz	-13.157
▁5-7	-13.1571
▁Лизи	-13.1576
▁росс	-13.1576
▁рафт	-13.1577
▁иён	-13.1579
▁103	-13.158
▁Brit	-13.1586
▁сэй	-13.1587
▁чєлєє	-13.1587
най	-13.1587
▁йсэн	-13.1587
86	-13.1588
▁ирдаг	-13.1591
▁лайк	-13.1592
▁ire	-13.1593
▁фен	-13.1593
▁шка	-13.1603
▁авда	-13.1605
▁дух	-13.1613
еми	-13.1614
снаа	-13.1616
лез	-13.1624
єлє	-13.1625
ou	-13.163
▁Bus	-13.1632
▁нё	-13.1633
MC	-13.1637
LL	-13.1639
▁гото	-13.164
hou	-13.1642
▁ийлэ	-13.1647
▁eb	-13.1651
▁Doc	-13.1655
▁ганы	-13.166
бор	-13.1674
▁ГИ	-13.1676
▁єх	-13.1677
еро	-13.1683
▁йлээ	-13.1691
▁Бао	-13.1692
▁rom	-13.171
rush	-13.1715
29	-13.1717
▁gar	-13.1723
ess	-13.1724
▁Єн	-13.1734
▁Рей	-13.1736
ha	-13.1738
lass	-13.1752
TM	-13.1752
▁оэф	-13.1753
▁ргад	-13.1755
▁төрд	-13.1762
▁длу	-13.1763
шта	-13.1763
▁Ju	-13.1766
▁ЯВД	-13.1776
▁rop	-13.1776
▁Нефт	-13.1776
лей	-13.1782
▁bit	-13.1788
▁au	-13.1789
▁чдий	-13.1789
▁їр	-13.1789
▁wo	-13.1789
▁Jou	-13.179
НХ	-13.1791
▁yo	-13.1797
▁stat	-13.1801
▁рра	-13.1824
▁маль	-13.1825
БД	-13.1828
▁ртер	-13.1832
▁bal	-13.1834
▁ОНГ	-13.1839
РЭГ	-13.1842
CT	-13.1847
98	-13.185
▁mm	-13.185
▁Sw	-13.1858
▁Vir	-13.1867
тгэ	-13.1868
▁RS	-13.1869
▁tex	-13.1882
DS	-13.1883
▁nz	-13.1892
▁BI	-13.1893
▁кан	-13.1894
▁АРАА	-13.1896
▁рхт	-13.19
▁Wel	-13.1904
LE	-13.191
▁Xi	-13.1911
ost	-13.1916
▁fl	-13.1916
▁льте	-13.1919
▁ЭТГЭ	-13.1923
▁АГА	-13.1924
▁мбаа	-13.1927
ток	-13.193
▁Sea	-13.1936
▁ОП	-13.1937
мед	-13.1941
▁Нуу	-13.1945
▁МБ	-13.1948
▁ико	-13.1949
▁Ga	-13.1951
▁нии	-13.1952
▁єгсє	-13.1952
▁ens	-13.1954
шєє	-13.1956
▁met	-13.1956
is	-13.1958
▁Yv	-13.1971
ga	-13.1977
ГЗ	-13.1979
▁ran	-13.1987
▁Ї	-13.1989
▁ХАЙ	-13.1992
НУ	-13.1994
▁UP	-13.1996
ђђ	-13.2003
ý	-13.2005
▁чух	-13.2007
▁Мана	-13.201
▁реп	-13.2014
ä	-13.2015
Pod	-13.2022
ЭЭР	-13.2024
▁house	-13.2024
▁АЗРЫН	-13.2024
▁УХМ	-13.2024
▁Fami	-13.2024
▁ИЧЛЭГ	-13.2025
▁Tweet	-13.2025
▁Alph	-13.2025
▁Жозе	-13.2026
▁ham	-13.2026
▁Of	-13.2027
▁гђй	-13.2027
▁ense	-13.2028
▁ОСК	-13.2028
▁Eth	-13.2029
▁Sof	-13.2029
▁єрєє	-13.2029
▁zo	-13.203
▁Cum	-13.2033
ach	-13.2034
▁HA	-13.2035
▁АВАН	-13.2036
▁юнх	-13.2037
▁ария	-13.2037
▁Bi	-13.2038
▁РЭЛ	-13.2039
▁микс	-13.2039
▁чайз	-13.2042
tud	-13.2045
▁ü	-13.2046
▁ТӨР	-13.2052
27	-13.2052
▁вере	-13.2056
▁лфет	-13.2057
▁Rio	-13.2057
▁ade	-13.2058
▁ЭРЭМ	-13.206
▁UK	-13.2068
юзи	-13.2069
▁60%	-13.207
йх	-13.2071
▁ХАА	-13.2074
▁ромж	-13.2079
▁кот	-13.2079
eas	-13.2083
▁умб	-13.2084
▁hen	-13.2084
▁РОН	-13.2085
▁дэнж	-13.2086
▁АРИУ	-13.2089
▁Davi	-13.2089
▁Тим	-13.209
ЧИН	-13.2091
▁мно	-13.2092
▁сак	-13.2095
▁SAR	-13.2096
▁ov	-13.2096
▁RA	-13.2106
ёр	-13.2111
▁4.5	-13.2112
SF	-13.2113
омбо	-13.2117
▁Рой	-13.2121
ТГЭЛ	-13.2122
хуа	-13.2124
▁duc	-13.2131
▁Хун	-13.2131
▁DM	-13.2132
▁Pin	-13.2134
▁bur	-13.2135
уужу	-13.2137
▁ђ	-13.2138
▁ЙЛ	-13.2138
ma	-13.2138
МС	-13.2139
ХЦ	-13.2156
▁рена	-13.2164
▁лия	-13.2176
▁Lat	-13.2178
өгч	-13.2181
▁Ti	-13.2183
▁yu	-13.2183
í	-13.2184
▁ллас	-13.2185
▁идан	-13.2188
▁үсэх	-13.2192
▁baa	-13.2195
▁eu	-13.2195
▁Tex	-13.2197
▁Дик	-13.2197
▁вчн	-13.2199
ST	-13.2199
ГҮҮ	-13.2202
act	-13.2205
▁ниу	-13.2209
▁сис	-13.2209
▁догь	-13.221
amj	-13.2211
▁ЧИН	-13.2241
▁Por	-13.2245
▁cha	-13.225
▁Ec	-13.2258
кэ	-13.2258
тра	-13.2262
▁глэн	-13.2272
▁ita	-13.2276
ест	-13.2277
▁лус	-13.2281
▁Saf	-13.2296
ue	-13.2303
▁имд	-13.2309
ТА	-13.2312
▁дийм	-13.2315
▁GO	-13.2316
▁TO	-13.2317
▁Жя	-13.2327
▁голь	-13.2331
▁rid	-13.2341
▁Ca	-13.2342
▁appl	-13.2344
▁ora	-13.2356
▁Clu	-13.2364
▁IU	-13.2365
▁ral	-13.2367
ë	-13.2368
71	-13.2371
▁густ	-13.2375
ЭМ	-13.238
айта	-13.239
▁Seo	-13.2392
иш	-13.2392
▁ju	-13.2394
▁fu	-13.24
▁вье	-13.2403
▁нама	-13.2405
▁АРТ	-13.2405
▁Ке	-13.2411
▁RT	-13.2417
▁нп	-13.2432
et	-13.2432
▁сода	-13.2438
▁сва	-13.244
53	-13.2445
▁тиг	-13.245
TC	-13.2453
75	-13.2462
▁онал	-13.2463
шир	-13.2465
▁Гүн	-13.2467
▁так	-13.2469
▁Stan	-13.2469
ЙН	-13.2472
64	-13.2479
▁il	-13.2489
▁СС	-13.2495
▁мѳн	-13.2497
ниме	-13.2509
▁есси	-13.2513
ool	-13.2515
▁номи	-13.2517
▁Lady	-13.2524
▁Queen	-13.2524
▁Микро	-13.2524
▁Fox	-13.2524
▁Happ	-13.2524
▁House	-13.2524
▁Guard	-13.2524
▁XIV	-13.2524
▁флот	-13.2526
▁á	-13.2526
▁Билли	-13.2527
▁show	-13.2527
▁Benz	-13.2527
▁БИШ	-13.2528
▁ward	-13.2529
▁ртур	-13.2532
▁bate	-13.2532
▁Иуде	-13.2533
▁ОАК	-13.2535
▁едиц	-13.2537
▁снэ	-13.2537
▁уков	-13.254
гэр	-13.254
▁үлт	-13.2542
▁ИЛИ	-13.2542
▁мали	-13.2546
▁аргу	-13.2546
▁joo	-13.2547
▁Arm	-13.2547
▁ОНЫ	-13.2547
▁альто	-13.255
▁mond	-13.255
7%	-13.2551
▁HU	-13.2553
▁cal	-13.2553
▁дней	-13.2556
▁ОЙМ	-13.256
▁Map	-13.2564
lf	-13.2566
▁ебро	-13.257
▁реа	-13.2571
▁ЖЛЫ	-13.2573
▁Hen	-13.2573
▁ok	-13.2576
▁Form	-13.2582
▁инс	-13.2582
▁КН	-13.2586
▁Санд	-13.2589
▁аали	-13.2592
▁Smi	-13.2592
▁115	-13.2596
▁113	-13.2597
▁ллон	-13.2597
▁ku	-13.2599
▁Typ	-13.26
▁нза	-13.2601
na	-13.2603
▁иде	-13.2604
роп	-13.2604
▁1.6	-13.2604
▁nie	-13.2604
▁таль	-13.2605
руто	-13.2606
юм	-13.261
▁оры	-13.2611
inte	-13.2613
▁нфл	-13.2615
▁арти	-13.2618
▁tag	-13.2626
▁рит	-13.2628
▁ерна	-13.263
▁ӨВ	-13.2631
▁билд	-13.2636
СОН	-13.264
▁Bre	-13.2646
▁DO	-13.2652
▁аган	-13.2656
▁канд	-13.2658
▁PE	-13.266
▁fa	-13.2666
▁эсг	-13.2678
und	-13.2683
йз	-13.2683
ACK	-13.269
▁ps	-13.2694
▁Соло	-13.2697
▁енж	-13.2698
▁MO	-13.2705
▁йш	-13.2706
про	-13.2708
▁нцар	-13.2715
▁MV	-13.2715
▁ХА	-13.2718
▁AS	-13.272
ХИД	-13.2724
▁Shin	-13.2738
▁ллуу	-13.2739
eep	-13.2742
▁ирал	-13.2746
▁УНД	-13.2747
▁нку	-13.2747
фра	-13.2748
▁Reg	-13.2751
▁Kit	-13.2754
▁7:	-13.2755
эм	-13.2756
21	-13.2769
RM	-13.2777
▁XVII	-13.2778
▁Boy	-13.2779
▁енев	-13.2794
кк	-13.28
▁Евр	-13.28
▁итм	-13.2811
▁нгөө	-13.2811
▁Ник	-13.2813
▁енге	-13.2817
▁юум	-13.2819
▁мээн	-13.2825
▁ivi	-13.2834
том	-13.2838
▁елла	-13.2839
▁renc	-13.2844
▁төд	-13.2844
ul	-13.2849
MP	-13.286
▁18.	-13.2865
▁СЕ	-13.2873
▁Ok	-13.2873
▁Yo	-13.2878
оги	-13.2879
▁олч	-13.2879
EST	-13.288
▁өнч	-13.2884
бра	-13.2887
ква	-13.2892
NA	-13.2897
▁Рен	-13.2898
▁use	-13.2899
логч	-13.2899
▁Sh	-13.29
▁ET	-13.2904
▁hel	-13.2904
▁илли	-13.2909
▁Bloo	-13.2915
МИ	-13.2916
▁Ice	-13.2918
▁ОНОГ	-13.2925
▁ссон	-13.2932
▁bod	-13.2933
ени	-13.2934
су	-13.2939
НИ	-13.2943
▁ОНИ	-13.2948
▁ѐ	-13.2955
рим	-13.2958
▁шаг	-13.296
лон	-13.2963
сѳ	-13.2964
ome	-13.2968
ото	-13.2969
кон	-13.2976
▁Pre	-13.2976
ргиж	-13.2978
▁sc	-13.2979
▁ХҮ	-13.2986
▁Лин	-13.3007
▁ртаг	-13.301
Ю	-13.302
▁FA	-13.3027
▁айхн	-13.3029
▁Роби	-13.3033
▁UN	-13.3037
▁LC	-13.3041
▁йта	-13.3042
▁атг	-13.3049
▁эйс	-13.305
▁zaluu	-13.3051
▁Cosm	-13.3051
▁ГОЁ	-13.3051
▁what	-13.3051
▁ШУҮ	-13.3051
▁Stri	-13.3051
▁(7)	-13.3051
ЖШ	-13.3051
▁With	-13.3051
▁УУЦ	-13.3052
▁pow	-13.3052
▁CMS	-13.3052
▁React	-13.3052
▁еннай	-13.3053
▁їз	-13.3053
▁cum	-13.3053
▁ЛГЭЭ	-13.3054
▁гипс	-13.3054
▁Rob	-13.3054
▁Tik	-13.3054
▁cut	-13.3055
▁del	-13.3055
▁ваань	-13.3055
▁***	-13.3055
▁ильм	-13.3055
▁Way	-13.3057
▁емод	-13.3058
▁иент	-13.3059
▁бинет	-13.306
▁Id	-13.3061
GH	-13.3062
▁ount	-13.3065
▁чнээ	-13.3067
▁99%	-13.3067
▁аннер	-13.3069
лен	-13.3069
ИК	-13.3071
▁=)	-13.3074
це	-13.3074
▁ОУ	-13.3075
ДТГ	-13.3076
▁fun	-13.3077
▁влог	-13.3079
▁ОС	-13.308
▁4-6	-13.309
шин	-13.3097
▁жазз	-13.3099
▁нгер	-13.31
▁УМ	-13.3101
▁Run	-13.3102
▁tv	-13.3104
▁єс	-13.3109
▁Lea	-13.3109
▁40%	-13.311
▁Cy	-13.312
▁арен	-13.313
▁TM	-13.313
▁Pan	-13.3131
енд	-13.3133
▁Epi	-13.3134
▁Код	-13.3136
ДАА	-13.3136
▁СИ	-13.314
rypt	-13.3141
▁инск	-13.3144
▁GS	-13.3169
▁Line	-13.3174
▁вен	-13.3178
▁ig	-13.3196
▁кайд	-13.3196
▁гот	-13.3201
▁ааги	-13.3202
▁LO	-13.321
▁ss	-13.3213
ого	-13.3222
▁AC	-13.3231
す	-13.3232
pt	-13.3236
▁НН	-13.3237
▁ндор	-13.3246
▁Die	-13.3249
▁ea	-13.3254
ig	-13.3254
▁RO	-13.3255
▁триц	-13.3258
▁ler	-13.3259
хийл	-13.3263
▁set	-13.3265
▁Лү	-13.3266
▁En	-13.327
▁See	-13.3273
▁лут	-13.3274
51	-13.3276
▁имот	-13.3278
▁йрл	-13.3281
▁стик	-13.329
че	-13.329
▁mot	-13.3296
anna	-13.3299
▁mode	-13.33
▁рэлс	-13.3303
igh	-13.3304
▁Kin	-13.3304
ДАГ	-13.3305
un	-13.3306
▁Tor	-13.3308
▁thi	-13.3309
▁йлаа	-13.3317
▁cc	-13.3319
БА	-13.3332
▁хї	-13.3334
▁дэлг	-13.3342
▁нако	-13.3345
гү	-13.3353
38	-13.3353
▁Шаг	-13.3361
▁НАС	-13.3374
ҥ	-13.338
▁Mor	-13.3382
▁лзра	-13.3383
стер	-13.3385
шиг	-13.3391
▁єсє	-13.3411
▁айдо	-13.3422
▁орс	-13.3422
IM	-13.3424
ска	-13.3424
▁Mal	-13.3426
▁ЛД	-13.3427
▁oe	-13.3429
▁UNI	-13.3432
▁нгал	-13.3435
▁Cur	-13.344
ett	-13.3448
▁ИК	-13.3454
84	-13.3455
хой	-13.3468
▁Mp	-13.348
ХД	-13.3486
reak	-13.3495
▁унде	-13.3502
▁нтэр	-13.3506
▁ҮС	-13.3509
ДЭЭ	-13.3513
▁йс	-13.3514
68	-13.3518
▁жори	-13.3526
▁IC	-13.3526
▁kee	-13.3535
▁Gar	-13.3539
▁Ed	-13.3545
▁ӨӨ	-13.3555
▁нгү	-13.3556
▁mes	-13.3559
▁Val	-13.3563
▁Sin	-13.3574
▁Тэс	-13.3575
II	-13.3578
ьян	-13.3581
78	-13.3583
▁Lu	-13.3591
▁рилл	-13.3591
▁Fra	-13.3595
▁Get	-13.3606
▁ткоин	-13.3606
▁HTTP	-13.3606
▁3.0	-13.3607
▁cock	-13.3608
▁макро	-13.3608
▁Opt	-13.3608
▁арло	-13.3608
▁АЙГАА	-13.3609
▁file	-13.3609
▁bolo	-13.3609
▁part	-13.3609
▁ling	-13.3609
▁Audi	-13.361
▁2-4	-13.361
▁gem	-13.3611
▁нєхц	-13.3611
▁1/3	-13.3612
▁õ	-13.3612
▁ддо	-13.3612
▁form	-13.3613
йг	-13.3615
▁nda	-13.3617
▁иото	-13.3617
▁льфи	-13.3618
▁никю	-13.3621
▁Ea	-13.3626
▁Hell	-13.3627
▁Shop	-13.3628
айт	-13.3632
▁rho	-13.3632
▁льти	-13.3632
▁BIG	-13.3634
▁Rain	-13.3637
▁Git	-13.364
▁Pf	-13.364
▁олан	-13.3643
АЗ	-13.3644
▁НГИ	-13.3645
weet	-13.3649
▁усс	-13.365
▁ииг	-13.365
44	-13.3651
▁175	-13.3652
76	-13.3655
▁үмх	-13.366
aga	-13.3667
▁Add	-13.3667
2%	-13.3667
▁bot	-13.3669
▁салон	-13.3671
▁майк	-13.3672
▁ойно	-13.3672
▁ond	-13.3681
▁СНЭ	-13.3682
тори	-13.3682
▁ржиг	-13.3682
▁ндре	-13.3683
FT	-13.3687
▁int	-13.3691
▁СБ	-13.3696
▁зэвэг	-13.3699
▁ссен	-13.37
▁чөм	-13.3704
▁Mil	-13.3704
▁Юй	-13.3705
▁йлш	-13.3706
▁91	-13.3707
▁трас	-13.3709
Үр	-13.3715
▁ДХ	-13.3716
▁рлэн	-13.3716
▁Prot	-13.3717
ить	-13.3718
▁hd	-13.3721
▁14.	-13.3721
▁унэн	-13.3725
ВЬ	-13.3726
▁чив	-13.3728
▁DD	-13.3728
ЕК	-13.3735
▁зарт	-13.3739
▁глас	-13.3748
ava	-13.3754
▁sec	-13.3761
▁Lit	-13.3767
▁ХГ	-13.3768
▁пал	-13.3769
▁эгэс	-13.377
▁fil	-13.3774
▁баба	-13.3775
▁Te	-13.3777
▁кв	-13.3778
▁Mont	-13.3778
▁map	-13.378
▁Рос	-13.3781
ize	-13.3782
НД	-13.3782
▁йлгах	-13.3782
▁16.	-13.3787
ori	-13.3787
▁Роз	-13.3789
▁демо	-13.3801
▁Ido	-13.3814
мм	-13.3819
▁Spin	-13.382
РИУ	-13.3821
▁сно	-13.3826
▁ско	-13.3826
амжи	-13.3827
▁УТА	-13.3828
эль	-13.3831
ээвр	-13.3834
▁roni	-13.3845
▁элш	-13.3848
oo	-13.3848
▁FOR	-13.385
үс	-13.3853
34	-13.3856
▁амби	-13.3863
▁дуо	-13.3867
▁цэм	-13.3872
▁WP	-13.3883
ЧИ	-13.3889
▁loo	-13.3903
▁риш	-13.3904
▁үв	-13.3906
▁Пээ	-13.3915
▁DS	-13.3917
▁Fla	-13.3919
▁Moo	-13.3928
▁Fa	-13.3929
▁aut	-13.3934
vil	-13.3935
ke	-13.3938
tch	-13.3939
▁акул	-13.3939
ья	-13.3961
▁уухэ	-13.3963
▁ЭЭР	-13.3964
офт	-13.3968
49	-13.3969
LS	-13.3969
▁Ris	-13.3971
▁SHA	-13.3976
▁Zoo	-13.3976
▁let	-13.398
▁JY	-13.3985
▁елл	-13.3988
▁lon	-13.3994
▁суль	-13.3997
▁ap	-13.4006
▁заав	-13.4009
▁19.	-13.4011
ион	-13.4014
▁AA	-13.402
сов	-13.4026
▁Ки	-13.4027
97	-13.4029
▁tur	-13.4037
▁чарт	-13.4037
▁Lis	-13.4042
ео	-13.4043
▁шон	-13.4047
▁ts	-13.4053
▁Son	-13.4054
▁Ион	-13.4055
▁ника	-13.4058
лю	-13.4059
ЦС	-13.4061
47	-13.4066
▁Hear	-13.4068
▁WI	-13.4069
ОГ	-13.408
▁пиг	-13.4086
RE	-13.4091
▁ита	-13.4093
▁ut	-13.4097
16	-13.4103
▁сма	-13.4107
еп	-13.411
▁УУН	-13.4112
▁wat	-13.4114
биб	-13.4115
▁hav	-13.4119
▁рез	-13.412
▁12.	-13.4122
▁DE	-13.4124
▁ОВ	-13.4127
▁Кан	-13.4133
▁ОГТО	-13.4147
▁юи	-13.4156
▁хохи	-13.4159
▁rai	-13.4163
▁Busi	-13.4166
▁(4	-13.417
67	-13.4171
▁ллар	-13.4172
▁les	-13.4172
▁Ir	-13.4181
▁вас	-13.4182
ФА	-13.4184
ифт	-13.4185
▁ЭЛ	-13.4186
▁Jen	-13.4187
▁ik	-13.4194
▁Tesla	-13.4194
▁jpg	-13.4195
▁шёор	-13.4195
▁This	-13.4196
▁АРНА	-13.4196
▁НГӨ	-13.4196
▁үвш	-13.4197
▁og	-13.4199
▁cest	-13.4199
▁SW	-13.4199
▁TE	-13.4199
▁йонс	-13.4201
▁ХУД	-13.4202
▁rypt	-13.4205
▁Port	-13.4206
▁ђђ	-13.4206
▁ada	-13.4207
▁вгор	-13.4208
▁очоо	-13.421
▁ооёо	-13.4211
ӨЛ	-13.4215
▁мфон	-13.4216
▁ИНЖ	-13.4218
ТМ	-13.4219
▁Vi	-13.4219
▁Fer	-13.422
▁ЛЭГЧ	-13.4222
▁УУС	-13.4223
▁bd	-13.4224
▁хлай	-13.4225
▁3.4	-13.4227
▁acc	-13.4228
▁АНИ	-13.4233
▁fd	-13.4233
▁иим	-13.4241
▁Sel	-13.4241
▁уухэд	-13.4244
▁ene	-13.4245
мбож	-13.4245
▁ifi	-13.4246
▁Coll	-13.4249
▁3.3	-13.4252
▁Rip	-13.4255
NG	-13.4258
ext	-13.426
муд	-13.4267
▁Ell	-13.4268
▁рсє	-13.427
▁Wat	-13.4271
рой	-13.4277
▁Roo	-13.4278
▁лиш	-13.428
▁Rem	-13.4284
▁SE	-13.4288
ХАН	-13.429
ЗО	-13.429
▁мѳ	-13.4293
▁анхар	-13.4293
▁sch	-13.4302
яо	-13.4303
▁ели	-13.4305
▁tit	-13.4308
▁AD	-13.4312
▁PU	-13.4317
Ы	-13.4317
▁Дэн	-13.4318
▁cam	-13.432
▁лекс	-13.4321
▁лдун	-13.4324
VR	-13.4326
▁ney	-13.4327
▁Lev	-13.4327
ап	-13.4328
▁lol	-13.4329
▁SAT	-13.4329
ТАЙ	-13.4329
here	-13.4333
ульм	-13.4335
▁Bri	-13.4336
ЛАЛ	-13.4337
▁моно	-13.4338
▁Sur	-13.4344
▁ЗА	-13.4345
▁илб	-13.4348
▁Lum	-13.4349
▁азон	-13.4352
▁ьтан	-13.4354
▁лсээ	-13.4358
при	-13.4358
▁Trad	-13.4364
▁ИМ	-13.4364
▁ӨНХ	-13.4368
▁ШУ	-13.4368
▁мдэг	-13.437
cri	-13.4371
Ус	-13.4371
риб	-13.4377
▁рри	-13.4381
▁УРАГ	-13.4381
▁АХА	-13.4389
▁zi	-13.4389
▁ҮНД	-13.4396
▁лос	-13.4402
▁енг	-13.4407
SA	-13.4411
▁ОДО	-13.4413
ерт	-13.4421
▁dev	-13.4421
▁УВЬ	-13.4423
▁сийм	-13.4433
аль	-13.4436
▁АНАА	-13.4443
▁вой	-13.4454
65	-13.4461
▁ниме	-13.4462
▁rec	-13.4465
▁NT	-13.4467
▁stra	-13.4473
▁нште	-13.4474
▁эрсэ	-13.4476
▁СТА	-13.4478
▁мби	-13.448
▁үрз	-13.4483
ски	-13.4486
35	-13.4492
▁oh	-13.4495
▁МӨ	-13.4503
EN	-13.4508
оди	-13.4509
61	-13.451
▁Сала	-13.4511
▁раш	-13.4513
▁Вер	-13.4514
es	-13.452
кан	-13.4527
▁ранз	-13.4531
зон	-13.4532
▁Rad	-13.4534
te	-13.4541
▁our	-13.4543
▁ела	-13.4543
▁EU	-13.4544
шээ	-13.4547
▁typ	-13.4548
▁рага	-13.4558
EO	-13.4558
▁КА	-13.4559
▁лет	-13.456
UP	-13.456
▁льжи	-13.4568
▁pri	-13.4578
▁ИШ	-13.458
▁ната	-13.4582
olo	-13.4583
▁аби	-13.4583
▁ндер	-13.4584
▁foo	-13.459
▁hae	-13.4597
▁bil	-13.4597
▁Хе	-13.4598
▁өөсө	-13.4601
▁ХО	-13.4601
▁нова	-13.4603
ТС	-13.4604
▁ЭС	-13.4614
▁оров	-13.4615
▁Лан	-13.4624
▁Inde	-13.4625
▁Cop	-13.4627
Ё	-13.4628
▁үлтэ	-13.4633
▁8:	-13.4641
▁ct	-13.4641
▁Ерө	-13.4656
▁ере	-13.4658
▁эсс	-13.4658
ЛА	-13.4661
ty	-13.4668
BE	-13.4697
▁єм	-13.4697
▁sur	-13.4699
▁аглал	-13.4702
▁өхи	-13.4712
▁pic	-13.4718
▁суда	-13.4724
ГАН	-13.4732
▁айди	-13.4737
▁Pic	-13.4746
▁елле	-13.4748
вє	-13.4757
ide	-13.4758
▁-1	-13.4765
▁прен	-13.4766
▁20.	-13.4767
▁угж	-13.477
eak	-13.4778
66	-13.4779
▁gin	-13.4785
▁har	-13.4785
▁ажла	-13.4792
▁ульс	-13.4797
LC	-13.4798
▁рини	-13.4808
️	-13.481
AX	-13.4811
57	-13.4816
▁КС	-13.4817
▁Wil	-13.4818
Юм	-13.4819
Ø	-13.4819
▁✔️	-13.4819
▁изнэс	-13.4819
▁ОЛБОО	-13.4819
▁ОЛОМЖ	-13.4819
▁Zone	-13.4819
▁YES	-13.482
▁first	-13.482
▁Dog	-13.482
▁ncy	-13.482
▁php	-13.4821
▁😍	-13.4821
▁Code	-13.4821
▁ГЛӨӨ	-13.4821
▁Aust	-13.4822
▁ӨҮГ	-13.4823
▁ЛБЭ	-13.4824
▁Порт	-13.4825
▁апас	-13.4826
ОШ	-13.4827
▁51%	-13.4827
▁Num	-13.4828
▁nel	-13.4831
▁Pass	-13.4831
▁невр	-13.4831
▁adi	-13.4831
▁ЭВЭР	-13.4832
▁Софи	-13.4832
▁Литв	-13.4832
▁Лихт	-13.4832
▁mont	-13.4833
КО	-13.4835
▁3%	-13.4836
▁pad	-13.4837
▁чё	-13.4841
▁нехе	-13.4844
▁ЛӨГЧ	-13.4845
▁эмп	-13.4846
▁Рон	-13.4846
пу	-13.4847
▁ерее	-13.4848
▁Иош	-13.4849
PP	-13.4849
▁ИУЛ	-13.4849
▁Zaa	-13.4851
46	-13.4852
▁Ct	-13.4853
▁Mega	-13.4855
алья	-13.4855
▁fat	-13.4857
▁ҮРЭН	-13.4857
▁нител	-13.486
CP	-13.486
▁hic	-13.4861
▁ваку	-13.4864
▁лллл	-13.4867
▁ИТ	-13.4868
▁кини	-13.4869
▁лек	-13.4874
▁mem	-13.4877
▁127	-13.4879
▁Bio	-13.4881
ave	-13.4881
СР	-13.4885
лѳ	-13.4886
▁УРД	-13.4887
▁ерси	-13.4896
▁Il	-13.4896
▁has	-13.49
▁деби	-13.4901
илат	-13.4902
▁sha	-13.4902
▁111	-13.4905
▁rep	-13.4906
нгѳ	-13.4907
▁йгаар	-13.4909
▁Jer	-13.4912
▁хорл	-13.4918
▁Beau	-13.4921
▁ремл	-13.4921
▁rua	-13.4923
▁НТ	-13.4924
tf	-13.4924
▁ХЗХ	-13.4934
▁саун	-13.4935
▁Jam	-13.4936
ӨР	-13.4939
хүү	-13.4942
▁BE	-13.4944
▁пап	-13.4948
▁эрв	-13.4951
▁кэй	-13.4953
бот	-13.4955
пер	-13.4958
▁DA	-13.4959
▁уже	-13.4959
▁эльс	-13.4961
▁нє	-13.4966
its	-13.4967
чу	-13.4969
AR	-13.4973
▁ектр	-13.4973
▁kno	-13.4977
▁ric	-13.4978
ноз	-13.4981
asa	-13.4983
▁pla	-13.4983
Үг	-13.4983
SM	-13.4984
уэль	-13.4989
ВЧ	-13.499
Вт	-13.4993
▁энри	-13.4999
гоо	-13.4999
▁майл	-13.5001
▁анет	-13.5001
▁ou	-13.5002
▁фу	-13.5009
▁АМГИ	-13.5017
▁ship	-13.5026
ТЭЭ	-13.5028
▁юуш	-13.5029
▁ero	-13.5031
▁ртон	-13.5032
▁эвхэ	-13.5041
▁лян	-13.5042
▁мест	-13.5045
▁Pot	-13.5045
▁leg	-13.5046
▁Es	-13.5051
▁аю	-13.5058
▁эгү	-13.5061
▁mt	-13.5065
▁Papa	-13.5066
▁зиа	-13.5069
му	-13.5072
▁hu	-13.5073
▁элли	-13.5074
ИЙ	-13.5077
▁атир	-13.5078
▁UE	-13.5079
▁алка	-13.5083
▁SP	-13.509
▁Hit	-13.5093
▁олб	-13.5093
▁ралца	-13.5099
▁айш	-13.5099
▁обу	-13.5104
MD	-13.5105
▁ren	-13.5105
▁гозо	-13.5111
екс	-13.5113
▁үлдэг	-13.5123
ГАЛ	-13.513
▁app	-13.5133
▁ОЙ	-13.5136
pan	-13.5137
▁тю	-13.5137
▁ннан	-13.5137
unk	-13.5146
▁рег	-13.5154
икс	-13.5154
як	-13.5155
иги	-13.5157
▁nov	-13.516
рос	-13.5162
▁Who	-13.5164
иас	-13.5175
▁лөгө	-13.5178
▁реал	-13.518
ная	-13.5182
▁Zen	-13.5184
▁pol	-13.5184
▁IR	-13.5188
▁рлий	-13.5189
▁ien	-13.5191
▁ргай	-13.5191
▁Lan	-13.5196
%	-13.5199
▁Рот	-13.52
▁Ent	-13.5212
▁осто	-13.5216
▁Лар	-13.5217
▁рей	-13.5224
▁Лат	-13.5225
▁тгүү	-13.5229
▁ЖД	-13.5229
2:	-13.5232
PT	-13.5233
▁асте	-13.5234
▁осс	-13.5234
▁атом	-13.5238
ика	-13.5248
▁акар	-13.525
rt	-13.5253
ута	-13.5259
▁аде	-13.5261
▁BOO	-13.5267
82	-13.5268
▁нчиг	-13.5269
0+	-13.5281
▁Cli	-13.5285
▁Kha	-13.5287
ТЭЙ	-13.5287
▁энс	-13.5287
▁вдо	-13.5292
азз	-13.5307
▁fla	-13.5322
▁исл	-13.5325
▁ind	-13.5329
▁Gan	-13.5338
▁АМТ	-13.534
▁Scan	-13.5349
ся	-13.5352
▁@@	-13.5355
▁Щ	-13.5356
▁ef	-13.5361
▁py	-13.5368
▁АДА	-13.5373
▁Adv	-13.5377
▁хинд	-13.538
▁ОРИ	-13.5384
▁dam	-13.5385
▁Кок	-13.5387
▁гєє	-13.5389
IG	-13.539
WD	-13.5394
▁пад	-13.54
▁унта	-13.5401
▁lg	-13.5404
ey	-13.5411
▁Пап	-13.5416
▁Райо	-13.5417
▁пизд	-13.5425
дэн	-13.5427
▁Yos	-13.5433
▁Us	-13.5435
▁ень	-13.5438
93	-13.5443
▁ЦАА	-13.5464
▁ҕа	-13.5464
▁цөв	-13.5478
▁өлг	-13.5478
▁Юн	-13.5479
▁Dig	-13.548
▁БОЛ	-13.5482
КН	-13.5485
▁Рам	-13.5486
§	-13.5486
▁СБНХ	-13.5486
▁Drop	-13.5486
▁рзгар	-13.5486
▁×	-13.5486
▁Light	-13.5487
▁ИЛТ	-13.5487
▁quo	-13.5487
▁÷	-13.5487
▁block	-13.5487
▁ЛАГЧ	-13.5487
▁hine	-13.5487
▁Class	-13.5487
▁who	-13.5487
▁MTV	-13.5488
▁less	-13.5488
▁Mora	-13.5488
▁ӨТӨ	-13.5489
▁Ever	-13.5489
▁xxx	-13.549
▁SNS	-13.549
▁акку	-13.5491
ЛҮҮ	-13.5492
▁исек	-13.5492
▁Tri	-13.5492
▁fy	-13.5497
инс	-13.5497
▁ххк	-13.5498
GB	-13.5499
▁ртл	-13.5504
id	-13.5505
▁докс	-13.5506
▁ДЦС	-13.5507
▁tch	-13.5508
▁акка	-13.5509
▁ИЧ	-13.5509
▁Ny	-13.5511
CI	-13.5514
▁ИН	-13.5515
▁Ps	-13.552
▁эйгээ	-13.5523
▁Eun	-13.5525
の	-13.5525
▁Гя	-13.5529
▁Dir	-13.5531
▁152	-13.5531
▁116	-13.5536
РАВ	-13.5538
▁реце	-13.554
БИ	-13.5541
▁нжон	-13.5549
▁Ni	-13.5551
▁Appl	-13.5551
ot	-13.5551
▁їн	-13.5558
▁123	-13.5558
▁ria	-13.5559
▁wag	-13.5561
▁SIM	-13.5563
ko	-13.5564
▁Маза	-13.5564
▁ито	-13.5564
▁ЭЖ	-13.5571
▁мбан	-13.5571
▁епа	-13.558
▁нтур	-13.5583
▁люко	-13.5585
▁ѳл	-13.5586
▁Петер	-13.5589
▁моли	-13.559
▁анни	-13.5592
▁cus	-13.5594
▁Lib	-13.5598
▁ѳгс	-13.5598
▁ейж	-13.5603
▁кра	-13.5604
▁Emm	-13.5605
ейс	-13.5606
▁уе	-13.5606
▁ойнд	-13.5609
▁ЯГ	-13.5618
@@	-13.5619
▁Lou	-13.5627
▁Sil	-13.5627
▁Indi	-13.5635
▁теф	-13.5636
▁LE	-13.5638
▁АЦС	-13.5644
▁Han	-13.5648
▁АШ	-13.565
▁алби	-13.5655
CA	-13.5656
имов	-13.5657
▁ҮХ	-13.5659
▁Pant	-13.5666
▁гее	-13.5673
▁хє	-13.5677
елла	-13.5677
▁Ori	-13.5679
▁тоно	-13.5692
▁кас	-13.5692
▁лооль	-13.5695
▁Cons	-13.5699
чик	-13.5706
▁ОРЖ	-13.5707
▁NB	-13.5711
▁ein	-13.5712
▁мари	-13.5715
▁ume	-13.5719
▁ЭГД	-13.572
▁рико	-13.5721
nt	-13.5723
pp	-13.5723
▁inc	-13.5724
▁вот	-13.5726
▁ЛОГ	-13.5729
▁Ye	-13.573
▁ася	-13.5731
▁Come	-13.5736
▁лар	-13.5737
▁PH	-13.5744
▁rac	-13.5748
▁ev	-13.5749
▁Пүү	-13.575
USI	-13.5753
▁pt	-13.5757
▁crea	-13.576
▁МУ	-13.5762
▁cl	-13.5764
▁МХ	-13.5766
сей	-13.5767
▁Shen	-13.5771
▁ҮҮД	-13.5774
▁fic	-13.5779
oot	-13.5779
▁UR	-13.5781
▁УЛ	-13.5782
AY	-13.5782
▁Ву	-13.5783
▁ЮУН	-13.5784
ð	-13.5788
▁иами	-13.5795
▁ЭРГИ	-13.5798
74	-13.58
▁туша	-13.5801
US	-13.5802
▁rap	-13.5802
▁сия	-13.5804
айте	-13.5805
▁ски	-13.5808
▁Er	-13.5809
▁fir	-13.5813
иф	-13.5814
еть	-13.5815
▁кум	-13.5825
▁юз	-13.5826
uit	-13.5827
▁pat	-13.5835
▁Lay	-13.5835
бол	-13.584
▁ӨЛӨ	-13.585
▁ҮЙ	-13.5851
▁лер	-13.5854
▁лмэ	-13.5855
▁жик	-13.5856
▁роно	-13.5858
▁НЭН	-13.5873
▁lu	-13.5876
▁онш	-13.5877
▁шаф	-13.5879
▁Tho	-13.5884
▁gaa	-13.5885
▁Lot	-13.5886
▁арко	-13.5899
йш	-13.59
FI	-13.5907
79	-13.5912
▁Dar	-13.5913
ДЭВ	-13.5914
▁под	-13.5924
хон	-13.5937
▁EP	-13.5938
▁ve	-13.5942
▁гжл	-13.5945
▁PO	-13.5946
▁надо	-13.5948
▁онто	-13.5957
кси	-13.5959
72	-13.5967
▁ланк	-13.5978
мп	-13.5981
▁матр	-13.5985
▁оз	-13.5985
▁Sa	-13.599
▁слэг	-13.5998
▁фла	-13.6001
ИР	-13.6002
ay	-13.6002
▁Uk	-13.6005
▁GT	-13.6012
һ	-13.6013
mart	-13.6023
▁йда	-13.6024
▁АНК	-13.6026
▁риф	-13.6031
▁дарж	-13.6033
ON	-13.6036
гїй	-13.6039
▁нжиг	-13.6042
▁Йог	-13.6043
▁Che	-13.6045
▁инне	-13.6057
▁ä	-13.6059
▁АЛГА	-13.6061
ЖИЛ	-13.6071
▁Tar	-13.6071
окза	-13.6074
▁par	-13.6074
▁Tal	-13.6074
хор	-13.6078
олле	-13.6078
три	-13.6083
▁Doo	-13.6085
ОД	-13.6087
▁ҮЭ	-13.609
▁лот	-13.6091
▁АСТ	-13.6092
~	-13.6092
▁Wa	-13.6092
▁Сок	-13.6097
шка	-13.6102
▁Коу	-13.6103
▁dar	-13.6108
▁ЗЗ	-13.6111
▁ОНО	-13.6114
OG	-13.6116
ейк	-13.6121
ГҮЙ	-13.6122
▁BUS	-13.6124
▁гава	-13.6127
▁ААНА	-13.6128
єлєє	-13.613
4:	-13.6145
▁пя	-13.615
▁уба	-13.6151
▁хуйл	-13.6157
cc	-13.6161
▁gu	-13.6165
▁лья	-13.6171
▁(6	-13.6171
▁los	-13.6183
▁УРАА	-13.6185
▁дүгн	-13.6194
▁Tin	-13.6194
▁орто	-13.6194
▁Райа	-13.6195
Fi	-13.6197
ん	-13.6197
Ёс	-13.6199
ань	-13.6199
▁dr	-13.62
▁ZALUU	-13.62
▁Zaluu	-13.62
▁СҮРЭН	-13.62
▁ӨЛБӨ	-13.62
▁☮♛	-13.62
名	-13.62
▁Title	-13.62
▁Spot	-13.62
▁Spec	-13.6201
▁plus	-13.6201
▁😊	-13.6201
▁live	-13.6201
▁baby	-13.6201
▁ault	-13.6201
▁Peak	-13.6201
▁льбом	-13.6201
▁😂	-13.6201
▁ЛБӨ	-13.6202
▁NBC	-13.6202
▁инчен	-13.6202
PM	-13.6203
▁оэль	-13.6203
▁АМЖ	-13.6203
81	-13.6203
аузе	-13.6203
▁шмир	-13.6204
▁tech	-13.6204
▁pub	-13.6205
▁дир	-13.6206
▁лбум	-13.6207
▁vsi	-13.6208
▁ign	-13.6209
▁АНЗ	-13.6209
▁ý	-13.6209
▁Fant	-13.621
▁---	-13.6211
▁Mom	-13.6212
▁зѳв	-13.6212
▁uro	-13.6213
▁usa	-13.6216
▁ТГЭЛ	-13.6216
▁ууцай	-13.6216
▁Биш	-13.6216
▁уох	-13.6217
▁Линз	-13.6217
▁Hal	-13.6219
▁Prem	-13.6219
aw	-13.622
▁Dev	-13.6221
▁АНАЛ	-13.6224
▁АЯГ	-13.6225
▁айдл	-13.6225
▁лзаж	-13.6226
▁ипр	-13.6228
▁SH	-13.6228
▁СҮХ	-13.6231
/4	-13.6238
▁band	-13.6241
ети	-13.6241
▁max	-13.6244
▁ҮК	-13.6245
▁никан	-13.6247
Аж	-13.6251
▁ЭЛГЭ	-13.6252
пус	-13.6263
▁ze	-13.6266
▁MONG	-13.6266
▁рейл	-13.627
▁CU	-13.6272
▁bor	-13.6284
гѳѳ	-13.6284
СТ	-13.6289
▁идэн	-13.6293
бє	-13.6296
▁Ын	-13.6297
▁Cit	-13.6301
▁ртап	-13.6304
▁Od	-13.6305
▁тель	-13.6307
▁fin	-13.6312
▁ОДЛО	-13.632
мони	-13.632
▁Єм	-13.632
▁ХҮҮ	-13.6323
▁Боо	-13.6327
▁bl	-13.6328
▁Ear	-13.6328
▁Ko	-13.6328
сте	-13.6329
▁сков	-13.633
▁Шин	-13.6332
▁Буш	-13.6333
▁IKE	-13.6334
▁BA	-13.6335
ҮХА	-13.6338
или	-13.6343
HS	-13.6346
▁огий	-13.6354
▁tat	-13.6355
▁ҥ	-13.6365
▁tt	-13.6367
▁DR	-13.6368
▁ѳлѳ	-13.6371
▁Hor	-13.6374
▁Blo	-13.6374
▁WW	-13.6382
▁pan	-13.6385
▁онер	-13.6392
▁Дин	-13.6399
gg	-13.6403
▁уку	-13.6405
НӨ	-13.6407
▁Quot	-13.6407
▁gal	-13.6413
26	-13.6429
RI	-13.6432
▁асти	-13.6433
▁ИЙТ	-13.6436
▁Жул	-13.6438
▁алав	-13.6442
▁ЛАГ	-13.6443
ist	-13.6445
▁WA	-13.6445
▁Бет	-13.6451
▁ОЛД	-13.6452
▁Hat	-13.6459
▁imi	-13.6461
ТАН	-13.6461
▁Core	-13.6462
▁нгор	-13.6464
▁Lin	-13.6467
▁Age	-13.6472
▁секс	-13.6475
▁Pol	-13.6476
▁PA	-13.648
▁tta	-13.6482
▁лимб	-13.6484
мер	-13.6487
39	-13.6488
одо	-13.6493
▁ura	-13.6493
▁Tre	-13.6494
▁ОЛОВ	-13.6494
▁ниве	-13.6502
bu	-13.6506
sy	-13.651
▁ьо	-13.6521
▁мбал	-13.6522
62	-13.6524
▁түгэй	-13.6527
sla	-13.6528
▁FB	-13.6529
▁ксим	-13.6529
▁rev	-13.6531
ят	-13.6532
go	-13.6534
uul	-13.6537
▁ршр	-13.654
▁sn	-13.6542
▁25.	-13.6548
РК	-13.655
▁лэк	-13.6554
ok	-13.6563
▁Je	-13.6563
▁рейс	-13.6575
▁ab	-13.6575
ys	-13.6576
ими	-13.6576
▁мину	-13.6581
цер	-13.659
▁оты	-13.659
нис	-13.6595
ЛЖ	-13.6597
▁ооов	-13.6609
▁IA	-13.6614
GE	-13.6615
▁үст	-13.6618
▁БТ	-13.6619
▁йра	-13.6627
▁мэй	-13.6628
▁Fat	-13.6634
име	-13.6635
▁рее	-13.6638
▁hom	-13.664
мь	-13.6644
▁нтон	-13.6652
ВС	-13.6654
▁DH	-13.6656
di	-13.668
лов	-13.6684
▁нито	-13.6687
iam	-13.669
▁лє	-13.6695
▁Devi	-13.6695
үк	-13.6696
раг	-13.6699
▁eva	-13.6708
гал	-13.6709
▁рот	-13.671
▁рэйг	-13.6713
▁ргий	-13.6714
▁анто	-13.6714
▁суал	-13.6717
хем	-13.6722
▁IS	-13.6723
▁CC	-13.6723
▁нне	-13.6737
oth	-13.6741
▁нгє	-13.6753
▁АНЦ	-13.6753
▁РЧ	-13.6759
▁vis	-13.676
▁Пеп	-13.6766
▁eo	-13.677
▁hai	-13.6772
▁flo	-13.6776
▁мне	-13.6776
41	-13.6777
бас	-13.6788
▁1/	-13.6791
▁стро	-13.6793
▁RC	-13.6797
▁Zo	-13.6797
май	-13.68
96	-13.6801
▁НА	-13.6801
IRE	-13.6802
▁WE	-13.6803
▁Mel	-13.6805
▁рет	-13.6805
▁gan	-13.6808
анз	-13.681
ku	-13.6811
▁pl	-13.6825
▁ПУ	-13.6827
▁Rom	-13.6831
АЯ	-13.6837
▁ЙЛЧ	-13.6841
уде	-13.6841
тек	-13.6848
УМ	-13.6862
▁саал	-13.6863
▁ВС	-13.6864
▁Dea	-13.6869
▁Deu	-13.6871
>	-13.6871
▁Бух	-13.6876
▁dai	-13.6878
▁ейк	-13.688
▁Нап	-13.6888
▁рхе	-13.6905
ata	-13.6911
сто	-13.6912
▁Sen	-13.6914
▁өртэ	-13.6918
хххх	-13.6921
лок	-13.6922
▁НК	-13.6923
▁ЛЖ	-13.6924
▁Med	-13.6927
_	-13.6929
CM	-13.6932
end	-13.6933
▁rad	-13.6934
уш	-13.6939
▁nol	-13.6943
▁pay	-13.6946
▁ИЛДЭ	-13.695
орго	-13.6953
ѳрѳ	-13.6954
▁ТАА	-13.6956
▁оржи	-13.6957
box	-13.696
▁нтор	-13.6965
▁₪₪₪	-13.697
♦	-13.697
【	-13.697
▁Limi	-13.697
▁ЭСЭГ	-13.697
▁УХАЛ	-13.697
▁Russ	-13.697
▁bbw	-13.697
▁ться	-13.697
▁】	-13.697
▁Slut	-13.697
▁псул	-13.697
▁cool	-13.6971
▁Over	-13.6971
▁White	-13.6971
▁gay	-13.6972
▁vas	-13.6972
▁μ	-13.6972
▁еееее	-13.6973
▁kg	-13.6973
▁Рези	-13.6974
Mac	-13.6975
▁MK	-13.6975
▁ield	-13.6976
▁Pet	-13.6977
▁ДОРЖ	-13.6977
▁мюэл	-13.6978
▁mg	-13.6978
▁kn	-13.6979
▁енхо	-13.6981
фон	-13.6981
▁px	-13.6981
▁ged	-13.6982
▁hos	-13.6982
▁eca	-13.6982
▁үнз	-13.6984
▁ass	-13.6985
▁Кле	-13.6987
▁Movi	-13.6987
▁ife	-13.6987
▁єдлє	-13.6991
ую	-13.6993
▁pm	-13.6994
3%	-13.6995
63	-13.6996
▁é	-13.6997
▁Ani	-13.6998
ic	-13.6998
▁194	-13.6999
▁Prop	-13.6999
▁ДАГ	-13.7001
▁109	-13.7001
▁THC	-13.7003
▁изон	-13.7004
▁Jac	-13.7009
▁rt	-13.701
МХ	-13.7015
тә	-13.7021
▁авес	-13.7021
▁Ret	-13.7022
▁чуха	-13.7025
▁(5	-13.7025
шаа	-13.7026
▁ТАС	-13.7032
▁Дүр	-13.7036
▁AV	-13.7042
▁НС	-13.7043
▁HP	-13.7046
▁Лого	-13.7046
ино	-13.705
▁ЭЭД	-13.7052
▁Horn	-13.7052
▁эсэй	-13.7059
▁льж	-13.7063
▁tut	-13.7064
▁рда	-13.707
▁tai	-13.707
РҮҮ	-13.7071
ОТ	-13.7072
▁Ge	-13.7074
▁(7	-13.7077
▁ox	-13.7078
▁лотт	-13.7081
▁Wid	-13.7081
▁рфи	-13.7084
дор	-13.7085
▁Ba	-13.7087
▁нжр	-13.7087
▁Рут	-13.7091
FP	-13.7097
▁#4	-13.7099
▁їнэ	-13.7101
▁өтө	-13.7106
Ээ	-13.7114
▁ili	-13.7117
▁нэш	-13.7119
▁кци	-13.7119
▁Stev	-13.712
qua	-13.712
▁Nan	-13.7123
▁Kl	-13.7125
шев	-13.7126
orm	-13.7126
▁ras	-13.7127
▁nis	-13.7129
▁пин	-13.7131
▁fri	-13.7138
▁cli	-13.7139
▁law	-13.714
▁SO	-13.7148
▁Ads	-13.715
гел	-13.7151
РБ	-13.7153
rius	-13.7153
▁иксе	-13.7155
аза	-13.7156
▁Oh	-13.7156
▁uha	-13.7159
▁OR	-13.7161
УГ	-13.7162
▁ЭЦ	-13.7166
▁Chap	-13.7168
▁lok	-13.7168
▁Инг	-13.7173
▁Shuu	-13.7176
▁mus	-13.7179
inja	-13.7185
АГ	-13.7191
▁12:	-13.7199
▁Sant	-13.7199
кг	-13.7201
▁Bom	-13.7201
▁Саас	-13.7202
дү	-13.7203
ял	-13.721
рє	-13.7211
▁нгс	-13.7214
▁ӨРЧЛ	-13.7216
gle	-13.7217
▁ннел	-13.722
▁Und	-13.722
▁арвал	-13.7223
топ	-13.7226
ze	-13.7228
▁17.	-13.723
▁мбу	-13.7232
▁хят	-13.7233
▁МИ	-13.7236
▁нхой	-13.7237
▁УВАА	-13.7237
▁ДБЭ	-13.7238
▁Shu	-13.724
▁Foo	-13.7255
енте	-13.7262
▁mit	-13.7263
угай	-13.7266
▁AST	-13.7269
SE	-13.7275
▁Kan	-13.7276
бин	-13.7276
▁Dot	-13.7279
▁ылла	-13.728
СС	-13.7286
▁scor	-13.7288
▁MAC	-13.729
ir	-13.7293
NT	-13.7296
▁ES	-13.7299
али	-13.7302
аков	-13.7305
▁Лев	-13.7308
▁Dai	-13.731
▁Луи	-13.731
емал	-13.7311
▁мк	-13.7312
▁nal	-13.7315
▁русс	-13.7324
▁RF	-13.7329
▁куб	-13.7336
▁tel	-13.7337
▁Руф	-13.7344
▁Рус	-13.7344
зы	-13.7344
▁cop	-13.7351
▁всё	-13.7351
▁УСТА	-13.7351
▁rc	-13.7353
орхи	-13.7367
▁Cros	-13.7368
▁BIO	-13.7368
▁иво	-13.7375
▁Kas	-13.7378
▁еке	-13.7385
ae	-13.7386
INK	-13.7386
▁NAS	-13.7389
▁XVI	-13.739
▁газа	-13.7395
Ь	-13.7402
▁эпп	-13.7402
▁фон	-13.7403
UB	-13.7404
▁Sie	-13.7406
▁guar	-13.7406
aru	-13.7408
▁Wei	-13.7413
▁Ken	-13.7414
нэр	-13.7417
▁зев	-13.7426
▁ТО	-13.7427
▁Swa	-13.7428
▁олк	-13.7433
▁fee	-13.7436
▁Hop	-13.7438
▁zu	-13.7438
▁qui	-13.7439
ER	-13.7456
▁МГ	-13.7459
▁Пин	-13.7463
ies	-13.7471
▁Лха	-13.7478
▁могш	-13.7486
▁TA	-13.7493
▁Shar	-13.7498
▁Prin	-13.75
▁СА	-13.7509
▁vo	-13.7514
ow	-13.7522
тре	-13.7523
▁ЙМГ	-13.7524
▁шалг	-13.753
73	-13.7536
СИ	-13.7537
АА	-13.7539
eal	-13.7539
▁GM	-13.754
РАН	-13.754
▁илтэ	-13.7543
▁ck	-13.7543
SV	-13.7544
▁Chea	-13.7548
нууд	-13.7554
▁иксо	-13.7556
▁khu	-13.7557
уда	-13.756
▁bro	-13.7562
▁үкү	-13.7565
зе	-13.7566
CH	-13.7569
▁рааа	-13.7583
▁Лед	-13.7592
▁Неа	-13.7592
▁Mak	-13.7597
54	-13.76
stra	-13.7603
▁аут	-13.7603
▁ттэр	-13.7608
▁clo	-13.7624
▁Пен	-13.7628
DC	-13.7636
ГАЙ	-13.7637
ip	-13.7638
▁Int	-13.7643
▁ейх	-13.7674
▁PP	-13.7677
▁wid	-13.7684
▁Gri	-13.7684
МГ	-13.7685
▁РУ	-13.7687
▁Хуй	-13.7687
ask	-13.7687
вен	-13.7689
▁las	-13.7691
рсє	-13.7694
▁уед	-13.7697
▁Fal	-13.77
ХИН	-13.7706
▁ӨДӨ	-13.7711
za	-13.7717
▁VS	-13.7721
ома	-13.7727
▁won	-13.7732
▁Вин	-13.7734
▁Ind	-13.7737
▁Лю	-13.7741
▁Ada	-13.7748
мат	-13.7748
▁сет	-13.7749
▁bre	-13.7751
рөө	-13.7754
▁тгэс	-13.7755
АШ	-13.7755
тейл	-13.7756
▁айка	-13.7759
▁ҮҮН	-13.7761
▁ндрю	-13.7765
юр	-13.7769
▁Mone	-13.7772
▁рка	-13.7773
▁rea	-13.7775
▁хѳ	-13.7776
▁Ur	-13.7776
▁гдсө	-13.7778
0"	-13.7782
▁риц	-13.7783
▁qua	-13.7785
▁шев	-13.7785
Џ	-13.7793
▁è	-13.7801
▁Grou	-13.7803
±	-13.7803
▁^_^	-13.7803
▁GoGo	-13.7803
▁юллер	-13.7803
▁JOY	-13.7803
▁иһи	-13.7803
▁Piece	-13.7803
▁ӨРВӨ	-13.7803
▁УХҮ	-13.7803
▁Vega	-13.7803
▁ЛОГИ	-13.7803
▁EXO	-13.7803
▁oa	-13.7803
▁[2]	-13.7803
▁èé	-13.7803
▁Talk	-13.7803
▁АТАХ	-13.7804
▁УРУУ	-13.7804
▁copy	-13.7804
▁ылаас	-13.7804
▁ААИС	-13.7804
▁1.0	-13.7805
▁Nich	-13.7805
ҮҮЛ	-13.7805
▁slut	-13.7805
▁Ike	-13.7805
▁AG	-13.7807
▁өег	-13.7808
▁Band	-13.7808
▁bang	-13.7808
▁ншуй	-13.7809
▁агре	-13.7809
▁ломит	-13.7809
▁Yong	-13.7809
▁ius	-13.781
▁Jas	-13.781
▁блем	-13.781
▁soni	-13.781
▁Matt	-13.7811
▁bia	-13.7813
▁взан	-13.7813
▁есни	-13.7813
▁ПП	-13.7813
▁анпри	-13.7814
▁iin	-13.7814
▁дьон	-13.7814
▁ОВЧ	-13.7814
бат	-13.7815
▁Cer	-13.7816
▁If	-13.7816
▁анйа	-13.7816
▁рзна	-13.7816
▁уола	-13.7817
▁ИР	-13.7818
ХИМ	-13.782
▁АЛУУ	-13.7821
▁Саид	-13.7822
▁Nut	-13.7822
ТГ	-13.7823
▁Revi	-13.7824
▁атлон	-13.7824
▁Рафа	-13.7825
▁слим	-13.783
▁FAC	-13.783
▁БГД	-13.7831
▁243	-13.7831
▁Ker	-13.7833
1%	-13.7835
▁ХААН	-13.7836
ХХ	-13.7838
▁ЭВТ	-13.7839
▁ООЛ	-13.784
▁ЛБАН	-13.7841
▁192	-13.7842
ООР	-13.7846
▁ндела	-13.7847
▁мхой	-13.7848
▁Colo	-13.7849
▁Робин	-13.7849
ي	-13.785
▁ТЫ	-13.785
▁унци	-13.7851
▁ейли	-13.7851
ААТ	-13.7852
кот	-13.7854
▁Tren	-13.7857
▁201	-13.7859
▁Heal	-13.7862
▁поль	-13.7863
▁Mik	-13.7866
▁ррис	-13.7866
▁4.2	-13.7867
▁107	-13.7869
▁Саун	-13.7872
▁ПЛ	-13.7873
Эв	-13.7873
▁Ari	-13.7874
▁ГҮҮ	-13.7875
▁129	-13.7876
▁Ham	-13.788
▁Wol	-13.788
▁дрүү	-13.7881
▁ндви	-13.7883
эмбэ	-13.7884
▁Phi	-13.7887
▁Вэй	-13.7887
▁АМГА	-13.7888
▁ААВ	-13.7888
ID	-13.7889
▁syn	-13.789
▁->	-13.7891
▁атсон	-13.7893
▁ГЭР	-13.7897
pa	-13.7899
▁cm	-13.79
▁мсон	-13.7901
roup	-13.7913
▁Info	-13.7914
▁grat	-13.792
▁pc	-13.7922
XT	-13.7923
▁спер	-13.7923
▁лег	-13.7926
▁лока	-13.7927
▁ЛА	-13.7927
▁ЯТ	-13.7929
▁ӨРТ	-13.7929
▁ния	-13.7932
▁kin	-13.7935
▁рсга	-13.7938
▁овис	-13.7941
▁Hy	-13.7942
▁Pu	-13.7944
▁zz	-13.7944
▁iva	-13.7946
▁Doll	-13.7947
▁even	-13.7947
▁Pand	-13.7948
▁ионе	-13.7948
▁чать	-13.7953
▁сю	-13.7956
▁лина	-13.7957
▁prin	-13.7959
▁прио	-13.7963
▁Саар	-13.7964
елле	-13.797
83	-13.7972
▁лизо	-13.7974
ож	-13.7981
ҮҮД	-13.7981
ищ	-13.7982
GA	-13.7983
▁ПС	-13.7983
ANG	-13.7984
▁Moz	-13.7988
▁Cir	-13.7989
▁дым	-13.799
▁їл	-13.799
▁yes	-13.7995
▁рво	-13.7995
▁mid	-13.8
lu	-13.801
▁ггер	-13.8016
▁Лиф	-13.8023
▁Саха	-13.8025
▁ДА	-13.8027
▁УХН	-13.8035
CL	-13.8036
АЛТ	-13.8041
▁иани	-13.8044
▁ельс	-13.8046
▁унк	-13.8046
▁скав	-13.8049
▁үё	-13.8055
▁дсо	-13.8056
cci	-13.8059
▁Leo	-13.8059
▁Раул	-13.806
▁ҮРХ	-13.8063
▁эвэл	-13.8067
кен	-13.8067
▁Sor	-13.8069
▁авэй	-13.8069
▁God	-13.8071
tro	-13.8071
▁атма	-13.8072
▁нээе	-13.8074
▁РХИ	-13.8074
сть	-13.8075
▁-2	-13.8076
▁ARM	-13.8076
▁арго	-13.8081
▁Kh	-13.8086
BO	-13.8086
▁Lil	-13.8087
▁аюу	-13.8092
▁23.	-13.8096
▁угш	-13.8098
▁инар	-13.8108
▁Lam	-13.8109
PC	-13.811
▁pas	-13.8112
▁удио	-13.8113
▁хххх	-13.8114
ефть	-13.8117
▁Zer	-13.812
▁дотр	-13.8124
гѳ	-13.8132
▁ТШ	-13.8133
▁ИЗН	-13.8137
lug	-13.8138
iz	-13.8147
ive	-13.8161
LP	-13.8163
▁ИЙ	-13.8163
еви	-13.8169
▁иод	-13.8169
▁айни	-13.8171
▁Adi	-13.8174
▁tu	-13.8176
йс	-13.8178
▁НУ	-13.8179
▁дня	-13.818
apa	-13.8181
▁реле	-13.8186
▁Sher	-13.819
▁ЭТ	-13.8195
▁Leav	-13.8197
▁рза	-13.8202
▁ейн	-13.8202
ec	-13.8205
▁яас	-13.8205
юци	-13.8209
оне	-13.8213
БГ	-13.8218
ѐ	-13.822
▁сым	-13.8222
▁Ast	-13.823
▁джа	-13.8233
▁mor	-13.8233
▁ue	-13.824
▁Mine	-13.8241
▁Сам	-13.8245
▁chu	-13.825
▁ние	-13.8253
▁ek	-13.8257
▁ira	-13.8257
сфа	-13.826
зан	-13.8261
zz	-13.8264
▁GA	-13.8266
▁око	-13.827
▁АГАТ	-13.8283
▁мпа	-13.8286
▁Ink	-13.8289
▁Fur	-13.8291
▁үүгий	-13.8311
▁Ren	-13.8313
:1	-13.8314
▁энк	-13.8316
▁Фу	-13.8318
▁РЬ	-13.8318
олк	-13.8333
НА	-13.834
GS	-13.8342
▁ХТ	-13.8342
▁Рэ	-13.836
▁Болл	-13.8365
орь	-13.8365
▁че	-13.837
уп	-13.8373
бы	-13.8377
▁план	-13.8377
▁уке	-13.8377
▁жийна	-13.8395
үд	-13.8397
wn	-13.8398
▁Ru	-13.8411
олт	-13.8412
кое	-13.8412
▁гї	-13.8412
▁was	-13.8415
сель	-13.8421
▁Dan	-13.8421
▁торт	-13.8425
лда	-13.8435
▁Crim	-13.8438
зер	-13.8441
▁Suga	-13.8456
ишг	-13.8457
▁хайт	-13.8462
єхє	-13.8464
▁пс	-13.8464
▁IB	-13.8466
ТОО	-13.847
FE	-13.847
льци	-13.8479
▁ранж	-13.8479
▁lau	-13.8482
анне	-13.8483
▁(8	-13.8489
дик	-13.849
▁инф	-13.8491
азе	-13.8492
нет	-13.8492
▁бсн	-13.85
ade	-13.8507
▁But	-13.8509
вово	-13.8512
▁sti	-13.8512
▁инер	-13.8513
еди	-13.8515
▁Энхб	-13.852
▁RAD	-13.8521
▁цув	-13.8522
▁Mn	-13.8522
ike	-13.8524
оль	-13.8524
▁ДБ	-13.8531
сия	-13.8532
▁à	-13.8535
▁елан	-13.8553
▁тти	-13.8553
▁Van	-13.8558
▁she	-13.856
РАМ	-13.8561
▁Сод	-13.8582
▁2/	-13.8585
sa	-13.8587
оф	-13.8587
▁Uz	-13.8593
▁Az	-13.8593
▁Bir	-13.8594
▁усуу	-13.8596
▁5)	-13.8596
ХА	-13.861
▁21.	-13.861
▁sel	-13.8612
шке	-13.8615
айл	-13.8616
▁дем	-13.8622
▁асу	-13.8626
▁pin	-13.8632
▁Ob	-13.8632
▁ванс	-13.8635
42	-13.8638
▁FM	-13.8642
▁Луиз	-13.8645
▁стат	-13.8653
▁ub	-13.8663
▁мгаа	-13.8666
▁нала	-13.8667
▁Bod	-13.867
sc	-13.8671
ya	-13.8672
▁fre	-13.8674
▁СШУ	-13.8678
▁ӨӨР	-13.8682
BT	-13.8683
▁#7	-13.8686
oT	-13.8686
▁ı	-13.8688
▁ЭЭЖ	-13.8689
▁вав	-13.8693
тен	-13.8694
ign	-13.8698
ДО	-13.8698
ѕ	-13.8701
▁рє	-13.8701
い	-13.8702
ýý	-13.8703
▁Log	-13.8704
ВЛӨ	-13.8706
▁рю	-13.8711
う	-13.8712
ر	-13.8712
て	-13.8712
▁♛☮	-13.8712
曲	-13.8712
称	-13.8712
요	-13.8712
▁ОЛЛОО	-13.8712
▁яяяяя	-13.8712
▁ррент	-13.8712
▁ШУА	-13.8712
▁UTC	-13.8712
▁info	-13.8712
▁УСАД	-13.8712
▁Hype	-13.8712
▁Suzy	-13.8712
▁Guys	-13.8713
▁LLC	-13.8713
▁Eye	-13.8713
▁Orgy	-13.8713
▁АХИА	-13.8713
▁лось	-13.8713
▁Forum	-13.8713
▁Gro	-13.8713
▁АЙЛАН	-13.8714
▁Trend	-13.8714
▁rock	-13.8714
▁Yes	-13.8714
▁Slee	-13.8714
▁Side	-13.8714
▁ВНА	-13.8714
▁photo	-13.8714
▁sds	-13.8714
▁pie	-13.8714
▁йййй	-13.8714
▁+18	-13.8715
▁said	-13.8715
▁nho	-13.8715
▁Jet	-13.8716
▁Plan	-13.8716
▁трикс	-13.8717
▁uae	-13.8718
▁Rang	-13.8718
▁АЛЬ	-13.8719
▁iK	-13.8719
▁эйлор	-13.872
▁пийш	-13.872
▁1/2	-13.872
▁2/3	-13.872
▁☞	-13.8721
лмаз	-13.8721
▁иё	-13.8723
▁Cour	-13.8723
▁рмоз	-13.8723
▁рвин	-13.8724
▁ебу	-13.8725
▁step	-13.8726
▁IME	-13.8727
▁Пере	-13.8727
▁Past	-13.8728
▁ренс	-13.8729
▁vel	-13.8729
▁ЛОО	-13.873
▁льпи	-13.8731
▁нсже	-13.8732
▁мак	-13.8733
дов	-13.8733
▁Squi	-13.8734
▁Нора	-13.8735
▁овка	-13.8736
▁Writ	-13.8737
▁ДИР	-13.8737
вер	-13.8739
▁kkk	-13.874
▁аына	-13.8741
▁поз	-13.8741
▁iT	-13.8742
МЗ	-13.8742
▁gel	-13.8742
▁фия	-13.8743
▁bn	-13.8744
▁Jenn	-13.8745
▁ster	-13.8746
▁огба	-13.8747
▁Swi	-13.8747
▁143	-13.8748
ДР	-13.8751
▁por	-13.8753
▁Тэй	-13.8753
▁ux	-13.8754
▁**	-13.8754
▁амши	-13.8755
▁4.4	-13.8756
▁велл	-13.8756
▁Tru	-13.8756
▁hit	-13.8759
õ	-13.8763
▁Swit	-13.8766
▁Бус	-13.8767
▁пере	-13.8768
he	-13.8768
▁айнз	-13.8769
▁исси	-13.877
▁Sara	-13.8771
▁Spee	-13.8771
TF	-13.8775
▁йтэ	-13.8778
▁єгч	-13.8779
ЛЭЭ	-13.8782
TO	-13.8785
▁ндерс	-13.8787
BG	-13.8788
▁ссел	-13.879
▁lex	-13.8792
▁ѳрѳ	-13.8793
▁28.	-13.8804
▁ht	-13.8806
▁Ston	-13.8808
▁рдин	-13.881
▁Поке	-13.881
екв	-13.8811
▁ёоло	-13.8811
▁тєр	-13.8811
▁Юү	-13.8814
▁Ten	-13.8815
▁Dre	-13.8818
▁Maa	-13.8818
МО	-13.8821
▁Eri	-13.8821
▁рени	-13.8823
▁OP	-13.8823
▁рия	-13.8823
▁ОГТ	-13.8826
▁pal	-13.8827
▁ндук	-13.8827
ГААН	-13.8829
▁паар	-13.8833
вэй	-13.8835
▁енис	-13.8837
▁нйи	-13.8838
▁чень	-13.8838
▁410	-13.8841
▁AY	-13.8851
▁азна	-13.8852
▁rot	-13.8852
▁Иоси	-13.8853
▁ho	-13.8854
▁pain	-13.8859
▁Яаг	-13.8862
▁ale	-13.8863
▁Бело	-13.8866
▁йиг	-13.8867
▁ЕНЕ	-13.887
▁блиц	-13.8872
▁ico	-13.8873
▁рён	-13.8873
▁xl	-13.8874
▁MT	-13.8876
▁АНБ	-13.8879
asi	-13.8881
▁ёнд	-13.8882
▁күр	-13.8883
ТИ	-13.8884
▁иши	-13.8892
▁рази	-13.8899
▁sim	-13.89
ура	-13.89
▁авка	-13.8907
▁lea	-13.8917
▁ТЗ	-13.8918
▁whi	-13.8922
▁bel	-13.8925
ШУЯ	-13.8926
▁льза	-13.8928
▁Пит	-13.8929
▁өлбө	-13.8932
,9	-13.8934
ЛАГ	-13.8934
▁MAR	-13.8936
уков	-13.8939
pm	-13.894
▁юан	-13.8942
▁BB	-13.8943
▁ллис	-13.8946
энд	-13.8949
УЛ	-13.8949
▁OM	-13.895
▁Org	-13.8955
▁PL	-13.8955
▁дион	-13.8957
▁был	-13.8959
▁инчи	-13.8961
▁NES	-13.8969
▁ргио	-13.8969
▁але	-13.897
▁Ace	-13.8972
▁УВ	-13.8972
▁Po	-13.8972
▁Rosa	-13.8973
▁Єв	-13.8975
AS	-13.8975
▁Jos	-13.8976
кэн	-13.8984
▁вдал	-13.8992
lo	-13.8994
▁nim	-13.9001
▁whe	-13.9004
▁эроз	-13.9007
▁FC	-13.9009
▁Орд	-13.9013
▁льви	-13.9033
▁вет	-13.9034
▁ААБ	-13.9038
▁MM	-13.9044
▁енде	-13.905
ris	-13.905
▁отр	-13.9053
▁Soo	-13.9056
ГД	-13.9069
▁эрри	-13.9069
▁энз	-13.9071
сү	-13.9074
pad	-13.908
GF	-13.9083
▁НГЭ	-13.9085
ВХ	-13.9088
▁ИЙД	-13.9088
▁Cr	-13.9093
▁Sai	-13.9098
▁ьерр	-13.9104
▁наль	-13.9105
▁ельф	-13.9111
нк	-13.9114
▁Дел	-13.9119
▁акр	-13.912
▁Kni	-13.912
31	-13.9126
▁Сун	-13.9129
▁айжи	-13.9132
▁иат	-13.9133
▁мшр	-13.9137
▁сни	-13.9138
айк	-13.9139
ёв	-13.914
▁нсен	-13.9141
ёон	-13.9141
▁гэсс	-13.9143
▁СЭН	-13.9147
▁Luc	-13.915
▁Brea	-13.9151
▁Fre	-13.9165
▁EL	-13.9172
▁fan	-13.9177
▁сце	-13.9178
орк	-13.9184
ТХ	-13.9184
▁pi	-13.9185
▁ъю	-13.9192
ык	-13.9194
▁SC	-13.9203
▁LT	-13.9203
ХӨ	-13.9204
▁его	-13.9208
ссе	-13.9218
▁шуда	-13.9224
ГЖ	-13.9228
▁лю	-13.9235
▁эссе	-13.9241
▁мля	-13.9244
▁gur	-13.9247
▁hat	-13.9258
СЖ	-13.9259
▁АЙГА	-13.9263
▁Dol	-13.9263
маф	-13.9272
▁хєв	-13.9273
ES	-13.9279
рес	-13.9282
▁BO	-13.9294
▁үрү	-13.9294
▁Cro	-13.9298
▁двэ	-13.9298
▁анны	-13.9302
▁phi	-13.9307
▁арба	-13.931
▁jil	-13.9318
▁24.	-13.9318
▁mind	-13.9322
▁ольф	-13.9326
айн	-13.9327
pace	-13.9333
▁энни	-13.9335
▁Пика	-13.9339
IC	-13.9343
▁Үер	-13.9343
ЕР	-13.9351
▁вов	-13.9357
▁Disc	-13.9363
▁Ze	-13.9367
▁иник	-13.9372
ень	-13.9395
ААН	-13.9415
▁йло	-13.9419
▁erg	-13.9422
эз	-13.943
▁Gh	-13.9432
▁gra	-13.9434
▁ОНГО	-13.9435
▁арио	-13.9437
▁IO	-13.9444
▁Bab	-13.9444
▁УТ	-13.9452
офи	-13.9463
▁РАМ	-13.9464
MG	-13.9476
▁Za	-13.9486
рай	-13.9487
зу	-13.9504
▁hee	-13.951
▁аск	-13.9514
▁ѳдѳ	-13.9515
зай	-13.9521
▁LOC	-13.9522
▁sex	-13.9527
▁TS	-13.9527
▁Wh	-13.9537
▁tes	-13.9537
▁вэйл	-13.9541
▁Hee	-13.9543
▁boo	-13.9543
▁Жуд	-13.9543
үм	-13.9557
гэн	-13.9561
▁лес	-13.9561
▁ОРО	-13.9564
▁рша	-13.9571
▁пала	-13.9572
УТ	-13.9575
▁ОНХ	-13.9576
▁PI	-13.9577
▁нист	-13.9585
▁Єє	-13.9596
▁ala	-13.9597
кус	-13.9606
▁hou	-13.9608
өк	-13.9609
▁рош	-13.9611
▁поо	-13.9625
▁rou	-13.9625
ГЭЭ	-13.9628
▁Blu	-13.9628
▁иль	-13.963
ТИК	-13.9636
▁ФФ	-13.9638
▁<<	-13.964
▁MNB	-13.9648
▁Ut	-13.9654
▁ЛЫ	-13.9655
ps	-13.9655
лһ	-13.9661
ной	-13.9668
▁Pl	-13.9669
▁УРГ	-13.9669
▁ҮЛ	-13.967
▁эллэ	-13.9676
▁ЛБА	-13.9676
▁хүмү	-13.9677
▁пен	-13.9681
à	-13.9681
ま	-13.969
で	-13.97
▁СП	-13.9701
і	-13.9702
++	-13.9702
☞	-13.9702
▁льга	-13.9706
ЛО	-13.9707
▁ѕ	-13.9708
ux	-13.9709
My	-13.9711
ебют	-13.9711
👉	-13.9712
💵	-13.9712
▁html	-13.9712
▁һиги	-13.9712
▁medee	-13.9712
▁ОЛНО	-13.9712
▁[7]	-13.9712
▁OFF	-13.9712
▁WAN	-13.9712
▁Nice	-13.9712
▁Step	-13.9712
▁ЛАГЫН	-13.9712
▁Frank	-13.9712
▁ville	-13.9713
▁α	-13.9713
▁Jeep	-13.9713
▁Slide	-13.9713
▁Feed	-13.9713
▁лдинг	-13.9713
▁==	-13.9713
▁4.0	-13.9713
▁sapp	-13.9713
▁EQ	-13.9714
▁hip	-13.9714
▁Asp	-13.9715
▁Sex	-13.9715
▁кэкэ	-13.9715
▁Hey	-13.9715
▁black	-13.9715
▁окадо	-13.9716
▁Pala	-13.9717
▁dge	-13.9718
▁иаво	-13.9718
▁льфат	-13.9718
▁смос	-13.9719
▁Gram	-13.972
▁MH	-13.9721
▁итти	-13.9721
▁Есү	-13.9722
▁йана	-13.9725
▁Пьер	-13.9727
▁нхө	-13.9727
▁Иорк	-13.9727
▁NA	-13.9729
▁bed	-13.9729
▁САЙ	-13.9732
▁nm	-13.9732
ГО	-13.9734
ГӨӨ	-13.9735
▁Kore	-13.9738
▁Пре	-13.9739
СК	-13.974
▁WIN	-13.974
▁УШАА	-13.9741
▁Роуз	-13.9741
▁нзас	-13.9743
▁нухаш	-13.9744
▁Laur	-13.9744
▁мъ	-13.9744
▁наю	-13.9745
▁6%	-13.9745
▁БЦТ	-13.9748
фер	-13.9748
▁ХЗ	-13.975
ЛЭЛ	-13.975
▁рийд	-13.975
▁СБД	-13.975
▁рев	-13.975
▁rand	-13.9751
▁Jok	-13.9751
▁Qual	-13.9752
▁МАА	-13.9752
ѳлѳ	-13.9753
▁Росс	-13.9753
▁АСС	-13.9754
▁лдуй	-13.9754
▁рави	-13.9758
жет	-13.9758
KU	-13.9759
▁ильт	-13.976
▁ерез	-13.9763
▁ГБ	-13.9763
▁расс	-13.9765
ХЬ	-13.9767
▁ЭРЭЛ	-13.9769
▁лмаз	-13.9772
▁nga	-13.9774
▁мэйд	-13.9776
фо	-13.9778
▁жийнс	-13.9778
▁plan	-13.978
тє	-13.978
▁айяа	-13.9782
▁big	-13.9783
▁ОЁЛ	-13.9785
▁Say	-13.9785
▁167	-13.9786
▁токс	-13.9789
▁147	-13.979
▁Мик	-13.979
▁BD	-13.9794
▁Dom	-13.9798
▁ГИЙГ	-13.9801
▁ЦИ	-13.9802
▁мут	-13.9806
▁ѳв	-13.9809
орд	-13.9811
▁MIT	-13.9811
▁дюсс	-13.9812
▁руне	-13.9814
ушка	-13.9815
▁Pit	-13.9816
▁Wire	-13.9817
▁еме	-13.9819
▁raw	-13.9819
▁иле	-13.9823
▁РТ	-13.9824
▁роль	-13.9826
өс	-13.9826
▁лио	-13.9828
▁LI	-13.9829
▁tte	-13.9829
▁дел	-13.9833
▁inst	-13.9834
▁ОМО	-13.9838
RC	-13.9838
▁нейт	-13.9838
диго	-13.9839
▁лейк	-13.984
ввв	-13.9844
▁Tu	-13.9848
▁алек	-13.985
▁4"	-13.9856
МҮТ	-13.9858
uzz	-13.986
▁цє	-13.9862
▁ЭНГЭ	-13.9865
▁эрье	-13.9868
ЛЭХ	-13.9875
ДН	-13.9877
▁/1	-13.9882
▁js	-13.9882
▁Op	-13.9882
▁ЯВ	-13.9883
▁Хааг	-13.9883
:0	-13.9884
▁OE	-13.9885
▁иссе	-13.9886
▁УРАН	-13.9886
▁сим	-13.9887
▁Ton	-13.9898
▁влє	-13.9899
▁UA	-13.9901
▁Cub	-13.9902
GI	-13.9903
▁Гоме	-13.9907
NO	-13.9911
▁олдав	-13.9914
▁sw	-13.9923
ело	-13.9924
нтер	-13.9928
▁Сама	-13.9929
▁Hon	-13.9929
▁ӨСӨ	-13.993
LA	-13.9933
йдс	-13.994
▁ОРД	-13.9941
опи	-13.9941
кос	-13.9943
nc	-13.9943
▁СО	-13.995
аге	-13.995
▁Вон	-13.9952
▁Bib	-13.9967
▁11:	-13.9967
▁эгчи	-13.9968
▁илго	-13.9975
жиг	-13.9982
▁ae	-13.9987
▁ейл	-13.9989
▁ГАР	-13.999
ump	-13.9991
▁gt	-13.9992
▁ida	-13.9994
▁MD	-13.9995
▁Лио	-14.0002
сеп	-14.0003
▁бдул	-14.0004
▁Sui	-14.0005
▁рвай	-14.0013
▁лдэн	-14.0014
▁ЭВ	-14.0014
▁рко	-14.002
▁Мон	-14.0025
pam	-14.0029
ниг	-14.0029
▁скон	-14.003
▁айдер	-14.0032
▁ҮРГЭ	-14.0032
▁рѳѳ	-14.0034
лиз	-14.0041
сет	-14.0043
▁ёкү	-14.0044
▁мрог	-14.0045
▁Qu	-14.0046
▁лдє	-14.0054
▁Линд	-14.0055
▁үнт	-14.0055
▁ДД	-14.0061
овы	-14.0064
▁Хит	-14.0065
зэ	-14.0067
▁Кла	-14.0071
▁АИ	-14.008
▁Cru	-14.0081
▁Шаа	-14.0083
▁мери	-14.0084
▁dor	-14.0088
▁rm	-14.0101
▁мбер	-14.0105
▁CA	-14.0112
кки	-14.0115
▁Mai	-14.0116
Ар	-14.012
01	-14.0129
кин	-14.0137
реа	-14.0139
єнє	-14.0139
▁Суё	-14.0147
Эд	-14.015
▁иак	-14.016
ҮГ	-14.0164
▁yl	-14.0174
тик	-14.018
▁ter	-14.0185
▁Asi	-14.0194
▁lou	-14.0195
▁мили	-14.0195
▁яя	-14.0196
▁иаз	-14.0197
llu	-14.0206
▁Дүн	-14.0207
▁Caa	-14.0213
пс	-14.0225
▁рүн	-14.0226
элтг	-14.023
lus	-14.0233
▁хак	-14.0233
берт	-14.0236
▁Нүх	-14.0236
▁lk	-14.0237
▁ожиг	-14.024
▁тле	-14.0243
▁Поло	-14.0243
yri	-14.0248
▁фф	-14.025
ose	-14.0253
▁їг	-14.0259
▁АГДА	-14.0272
ak	-14.0277
▁dl	-14.0279
▁Rat	-14.028
▁tom	-14.0284
охи	-14.0285
▁ишг	-14.031
Ай	-14.0314
▁ёж	-14.0315
▁хдд	-14.0317
▁ААС	-14.0318
ВА	-14.0318
ever	-14.032
acc	-14.0323
▁Dep	-14.0324
▁хико	-14.0324
єрєє	-14.0326
▁kar	-14.0335
▁ою	-14.0338
sk	-14.0338
▁ТАН	-14.0338
OUT	-14.0341
▁YOU	-14.0341
illa	-14.0343
бре	-14.0345
▁Rya	-14.0347
▁Wu	-14.0353
▁xa	-14.0355
риф	-14.0358
▁гдрэ	-14.036
▁Жао	-14.0362
ты	-14.0362
▁лини	-14.0364
▁Лаа	-14.0365
▁ргаж	-14.0368
▁Пау	-14.0371
▁Роу	-14.0378
▁oli	-14.0386
▁ёк	-14.0386
▁рхог	-14.0387
▁льф	-14.0389
▁Jum	-14.0401
HT	-14.0404
▁лоу	-14.0404
▁лото	-14.0411
▁ЭМД	-14.0415
▁Rap	-14.0415
ЛАХ	-14.042
▁Еф	-14.042
▁айти	-14.0424
▁xi	-14.043
DI	-14.0431
▁ндур	-14.0433
▁ква	-14.0445
▁рмо	-14.0448
SI	-14.0449
ухай	-14.0451
▁Zu	-14.0451
▁ful	-14.0453
▁льди	-14.0453
▁УН	-14.0454
▁ено	-14.0466
▁29.	-14.0466
ААС	-14.0467
▁Мун	-14.0468
▁бка	-14.047
ful	-14.0475
дєє	-14.0479
ивер	-14.0482
pi	-14.0486
▁EM	-14.0501
▁FID	-14.0504
▁нсай	-14.0504
▁ram	-14.0506
▁nc	-14.0506
▁ише	-14.0507
еб	-14.0509
rk	-14.0509
иза	-14.0509
▁ньп	-14.0512
▁ЛАЛТ	-14.0515
уди	-14.0518
СӨН	-14.0518
▁sar	-14.0526
▁Fun	-14.0526
ВШ	-14.0529
▁лади	-14.0529
▁тран	-14.0541
▁РА	-14.0559
▁cv	-14.0561
▁Wif	-14.0562
▁pos	-14.0573
▁вит	-14.0574
иви	-14.0575
▁єгж	-14.0582
▁РАА	-14.0589
▁Yea	-14.0591
▁РЕ	-14.0592
ЬЕ	-14.0593
▁АМД	-14.0605
▁локо	-14.0605
▁ОЁ	-14.0611
жуу	-14.0612
▁GI	-14.062
▁Hur	-14.0622
▁Вт	-14.0627
▁GH	-14.0633
▁юни	-14.0634
▁Scr	-14.0636
идр	-14.0639
▁шизо	-14.0641
▁Nav	-14.0643
AK	-14.0644
▁jo	-14.0652
ете	-14.0653
▁Бэй	-14.0666
▁өөнд	-14.067
ism	-14.0676
▁ндес	-14.0678
▁Cry	-14.068
▁руб	-14.0684
вэр	-14.0687
▁MC	-14.07
ЕО	-14.0705
▁ror	-14.0716
ЧИХ	-14.0717
▁eq	-14.0721
рѳ	-14.0723
▁ГААН	-14.0735
▁Kar	-14.0737
▁Во	-14.0742
▁Ly	-14.0747
▁Ext	-14.0749
▁OO	-14.0754
▁плаз	-14.0754
▁ў	-14.0755
▁Whe	-14.076
▁KB	-14.076
▁Merc	-14.0762
BI	-14.0769
▁швил	-14.077
▁євє	-14.0777
щё	-14.078
▁Тер	-14.0787
su	-14.0792
▁Џ	-14.0792
▁FO	-14.0797
уми	-14.0798
тор	-14.0801
▁гоз	-14.0802
▁bri	-14.0805
irt	-14.0807
▁ë	-14.0811
ПХ	-14.0811
єтє	-14.0812
し	-14.0813
ø	-14.0813
è	-14.0813
›	-14.0814
▁rem	-14.0817
▁НТЭ	-14.0819
бокс	-14.0819
lly	-14.0822
VE	-14.0823
▁АНХ	-14.0823
国	-14.0823
↙	-14.0823
▁WORLD	-14.0823
😦	-14.0823
▁Honda	-14.0823
▁zine	-14.0823
▁Vimeo	-14.0823
▁dvd	-14.0823
▁Numen	-14.0823
▁Shake	-14.0823
▁GPL	-14.0823
▁Lion	-14.0824
▁ЯНЗА	-14.0824
▁Close	-14.0824
▁¥	-14.0824
▁ӨРД	-14.0824
▁ОГОО	-14.0824
▁cvs	-14.0824
▁ѳсѳ	-14.0824
▁УУЛЬД	-14.0825
▁ѳндѳ	-14.0825
▁XII	-14.0825
▁Less	-14.0825
▁Kiss	-14.0825
▁never	-14.0825
▁Герм	-14.0825
▁rics	-14.0825
▁егее	-14.0825
▁cums	-14.0825
▁ОАЖГ	-14.0825
▁онент	-14.0825
▁spec	-14.0826
▁ОЛЬ	-14.0826
▁ёолк	-14.0826
▁dig	-14.0827
▁boot	-14.0827
▁ó	-14.0827
▁oem	-14.0827
▁ЪЯ	-14.0827
▁ОГЛО	-14.0828
▁Gem	-14.0828
▁ï	-14.0828
▁газин	-14.0829
▁ИЙХ	-14.0829
▁ОХОЙ	-14.0829
▁ҮНС	-14.0829
▁АГЧ	-14.0829
mb	-14.0829
▁Fem	-14.083
▁road	-14.083
▁Юки	-14.0831
▁сссс	-14.0831
▁Апп	-14.0832
▁ХААГ	-14.0832
▁ДДД	-14.0832
▁Їнэ	-14.0832
▁Kong	-14.0833
▁РТӨН	-14.0833
▁ения	-14.0834
▁УЧИР	-14.0834
87	-14.0835
▁Руби	-14.0835
▁ЛОЛ	-14.0835
▁Ломб	-14.0836
▁++	-14.0836
▁Ping	-14.0836
▁обаг	-14.0839
▁абел	-14.0839
▁imt	-14.084
▁алют	-14.084
▁NH	-14.0841
▁ime	-14.0841
▁Lex	-14.0842
▁АЛБА	-14.0842
▁Фре	-14.0842
▁ЭТТ	-14.0842
урд	-14.0842
▁паца	-14.0844
▁Лим	-14.0845
▁энцэн	-14.0846
▁Sour	-14.0847
▁ауэр	-14.0851
▁нгойж	-14.0852
▁аптер	-14.0854
▁нсой	-14.0856
iff	-14.0857
▁Софт	-14.0858
▁ЯАМ	-14.0858
▁cul	-14.0858
ВИ	-14.0859
▁льцг	-14.0859
▁дьяа	-14.086
▁ОМП	-14.0861
▁RIA	-14.0863
▁етти	-14.0864
▁True	-14.0864
▁дина	-14.0867
Ён	-14.0868
ААЯ	-14.0868
▁ОЛИ	-14.0869
ппо	-14.0869
▁шгуй	-14.0869
▁иэтл	-14.0872
▁Ima	-14.0873
▁nna	-14.0873
▁fum	-14.0874
▁27.	-14.0878
▁Kat	-14.0878
▁Сага	-14.0878
▁цүү	-14.0882
▁Bel	-14.0882
єх	-14.0882
▁Dra	-14.0883
▁139	-14.0884
▁нбаа	-14.0885
▁IG	-14.0886
▁Aca	-14.0886
айж	-14.0887
▁pod	-14.0887
ood	-14.089
▁ность	-14.0891
▁Flor	-14.0891
▁Ие	-14.0891
▁мпил	-14.0895
▁216	-14.0895
▁Tea	-14.09
▁Рэд	-14.09
iri	-14.09
▁гэлж	-14.0903
▁инни	-14.0903
▁ельга	-14.0903
GO	-14.0904
▁САА	-14.0905
▁161	-14.0907
фет	-14.0908
▁авод	-14.0908
3:	-14.0909
▁ёооо	-14.091
▁Iris	-14.091
94	-14.0912
▁Юан	-14.0913
▁рхє	-14.0913
▁эпи	-14.0915
▁Any	-14.0917
▁рөй	-14.0917
▁hop	-14.0918
nse	-14.0918
▁IRA	-14.0919
▁mag	-14.0919
▁ЦЕГ	-14.092
ЧУ	-14.0924
▁ЦА	-14.0924
api	-14.0925
▁УУЛИ	-14.0926
▁gre	-14.0928
▁11)	-14.0929
▁БУС	-14.093
▁мцуу	-14.0932
▁Фул	-14.0932
▁*2	-14.0932
▁АДАА	-14.0934
▁Scoo	-14.0935
▁121	-14.0939
▁алли	-14.0942
ДӨР	-14.0942
▁жүж	-14.0944
рмен	-14.0946
▁кос	-14.0946
▁trad	-14.095
▁Hun	-14.095
▁чех	-14.0955
▁ЗЭХ	-14.096
ФО	-14.0961
▁брие	-14.0961
▁Sum	-14.0961
▁АНГА	-14.0962
KI	-14.0963
▁умаа	-14.0964
▁рдай	-14.0964
▁ark	-14.0965
▁Edg	-14.0967
▁ИЧИГ	-14.0971
▁MIU	-14.0973
▁ейло	-14.0983
▁LEG	-14.0987
▁лмас	-14.0989
имо	-14.0991
▁sol	-14.0992
FD	-14.0993
▁елик	-14.0995
▁өрхө	-14.0999
▁Ven	-14.1001
▁ИЙС	-14.1003
▁АЙЗ	-14.1005
нго	-14.1006
МЭН	-14.1008
▁ТЭН	-14.1009
GC	-14.1012
▁EST	-14.1012
▁иньп	-14.1013
▁Нана	-14.1017
▁млет	-14.102
▁ттен	-14.1023
▁bb	-14.1024
ОП	-14.1025
▁Bell	-14.1026
▁lam	-14.1027
▁ерчи	-14.1029
▁иэс	-14.1029
▁res	-14.1031
▁Af	-14.1032
ёол	-14.1033
▁Spar	-14.1037
ТАЛ	-14.1038
▁Sir	-14.1039
КА	-14.104
▁IK	-14.1043
▁НШ	-14.1045
▁шик	-14.1045
▁gg	-14.1046
инь	-14.1046
УР	-14.1047
АНД	-14.1052
▁ками	-14.1053
▁ьон	-14.1055
▁ейке	-14.1056
92	-14.1058
▁нкэн	-14.1062
1:	-14.1067
вет	-14.1071
0$	-14.1074
▁лүг	-14.1077
▁овов	-14.1085
▁увс	-14.1087
▁укч	-14.1094
▁айфа	-14.1095
мент	-14.1097
▁СМ	-14.1098
▁дори	-14.1098
▁$1	-14.1102
ьд	-14.1108
▁az	-14.1124
▁НО	-14.1129
▁Иш	-14.1133
▁Far	-14.1133
▁сман	-14.1137
cree	-14.1143
▁LY	-14.1143
юс	-14.1144
▁rar	-14.115
▁Gui	-14.1151
ект	-14.1151
▁ls	-14.1155
▁ХИН	-14.1157
▁реж	-14.1158
ҮР	-14.116
МЧ	-14.1161
ye	-14.1163
▁рлет	-14.1165
▁ХАТ	-14.1176
LD	-14.1181
ase	-14.1182
▁АЧ	-14.1186
▁ich	-14.1186
▁унц	-14.1187
▁нжир	-14.1187
OC	-14.1189
▁Лий	-14.1193
▁ЛЬ	-14.1193
сай	-14.1198
▁jac	-14.1202
Жи	-14.1205
oice	-14.1205
ИГ	-14.1207
▁IMA	-14.1215
▁Bot	-14.1219
▁rag	-14.1221
▁Nu	-14.1223
▁УВИ	-14.1223
сфат	-14.1231
▁летт	-14.1232
aza	-14.124
ax	-14.1244
▁Ram	-14.1245
▁нѳ	-14.1258
▁DW	-14.1259
▁char	-14.1262
roth	-14.1263
▁ҮРЭ	-14.1267
СХ	-14.1268
07	-14.127
гаар	-14.1277
▁Куа	-14.1279
▁тєв	-14.128
▁CAN	-14.128
▁арли	-14.128
▁ѳнѳ	-14.1285
▁ленд	-14.1293
▁Las	-14.1295
▁eh	-14.1306
▁Rela	-14.1307
▁ссе	-14.1309
▁CAR	-14.1311
lk	-14.1314
мар	-14.1316
ХО	-14.1316
мун	-14.1318
▁мода	-14.1322
▁Fli	-14.1322
▁CM	-14.1333
▁мич	-14.1333
▁kan	-14.1334
ико	-14.1335
▁HE	-14.1336
▁нъ	-14.1338
▁МГТ	-14.1343
▁Жун	-14.1345
HA	-14.1347
▁жип	-14.1347
▁акл	-14.1348
шки	-14.135
ВАН	-14.1353
▁ЛААН	-14.1359
▁Gat	-14.1361
ука	-14.1364
▁Ty	-14.1366
▁индр	-14.1367
емо	-14.1371
▁uy	-14.1372
▁ml	-14.1389
▁инта	-14.1398
УЖ	-14.1409
orn	-14.1412
unt	-14.1413
▁орек	-14.142
▁BC	-14.1421
▁mis	-14.1421
▁see	-14.1426
▁рау	-14.1427
▁Let	-14.1428
▁SOL	-14.1434
▁рекс	-14.1438
▁альк	-14.144
огоо	-14.1443
▁ines	-14.1444
▁Gues	-14.1445
▁експ	-14.1446
нож	-14.1454
▁Ребе	-14.146
▁Вол	-14.1461
ача	-14.1461
▁Ок	-14.1462
▁вест	-14.1465
▁Хада	-14.1466
НН	-14.147
▁cn	-14.1476
▁меон	-14.1477
руз	-14.1478
▁pv	-14.1479
фри	-14.1479
▁вэрг	-14.1479
▁таун	-14.1484
91	-14.1489
▁asi	-14.149
▁Cel	-14.1502
PU	-14.1503
▁жгай	-14.1504
▁Ot	-14.1509
нам	-14.1514
ЕЗ	-14.1516
▁Сау	-14.1519
no	-14.1523
▁плэ	-14.1527
▁ОНХА	-14.1529
▁ОРТ	-14.153
▁Mur	-14.1536
▁Ь	-14.1537
▁OT	-14.1544
эрс	-14.1546
▁Mir	-14.1548
▁дела	-14.1556
▁ssi	-14.156
▁osi	-14.1561
сиг	-14.1575
rc	-14.1576
dy	-14.1576
▁акан	-14.1577
lot	-14.1581
UM	-14.1584
▁IM	-14.159
увер	-14.1613
▁гем	-14.1613
▁стө	-14.1619
▁rit	-14.162
▁ден	-14.1626
роз	-14.1635
▁6)	-14.1637
▁кая	-14.1646
▁амбу	-14.1646
▁MY	-14.1648
ейт	-14.1649
▁coun	-14.1651
сор	-14.1652
▁tam	-14.1664
▁($	-14.1672
▁Ai	-14.1675
asy	-14.1688
▁ДҮЙ	-14.1691
▁икот	-14.1708
тка	-14.1708
▁far	-14.1712
▁риж	-14.1715
▁пэр	-14.1716
ИЗ	-14.1719
▁nik	-14.1721
▁льто	-14.1725
▁АНА	-14.1728
▁qu	-14.173
▁die	-14.1733
▁кат	-14.1741
▁OL	-14.1757
IF	-14.176
▁нче	-14.1761
күү	-14.1764
▁Gur	-14.1764
▁gri	-14.1772
UE	-14.1772
59	-14.1773
бан	-14.1775
▁ЭДЭ	-14.1781
▁айя	-14.1796
руй	-14.1807
ek	-14.181
▁gun	-14.1812
▁Вит	-14.1826
бит	-14.1829
▁ñ	-14.1831
▁Ras	-14.1843
▁Sus	-14.1847
▁3/	-14.1861
▁Сава	-14.1866
▁Cre	-14.1867
team	-14.1867
put	-14.1869
▁wel	-14.1869
▁маза	-14.1872
▁Wan	-14.1875
DF	-14.1876
▁аки	-14.1877
ho	-14.1889
▁Prim	-14.189
SK	-14.1891
НОО	-14.1894
▁cre	-14.1896
ЖИ	-14.1901
SN	-14.1902
▁BU	-14.1917
▁doc	-14.192
▁Ros	-14.192
_'	-14.1922
▁Enc	-14.1922
▁кВ	-14.1924
tc	-14.1927
ny	-14.1929
▁ермо	-14.193
ass	-14.1931
ГАР	-14.1938
▁UV	-14.1941
▁dd	-14.1943
▁риб	-14.195
▁Nar	-14.195
ати	-14.1951
▁YT	-14.1955
▁ИЗ	-14.1955
▁ree	-14.1956
▁лдра	-14.1959
зов	-14.196
▁HS	-14.1962
▁LV	-14.1965
▁Aa	-14.1968
ппе	-14.1972
дер	-14.1975
▁Юри	-14.1978
ТТ	-14.1981
▁IDE	-14.1982
09	-14.1985
▁leas	-14.1985
быт	-14.1987
▁бери	-14.1989
зит	-14.1992
▁айп	-14.1993
▁gree	-14.2006
▁Кү	-14.2007
СГӨ	-14.201
▁ерте	-14.201
▁мбэ	-14.2013
▁гдж	-14.2017
▁Сяо	-14.202
▁Ќ	-14.2021
▁Tro	-14.2023
Ам	-14.2027
спи	-14.2028
неве	-14.2034
▁gro	-14.2043
▁(9	-14.2043
ЭЗ	-14.2045
▁енз	-14.205
▁аҕа	-14.205
▁Раз	-14.2052
▁лсө	-14.2054
▁ГЗ	-14.2055
に	-14.2062
▁Os	-14.2063
م	-14.2063
ò	-14.2064
адеш	-14.2065
MN	-14.2065
▁їгї	-14.2067
аҕы	-14.2071
â	-14.2071
▁Хят	-14.2072
сси	-14.2072
▁ç	-14.2073
ا	-14.2073
⋆	-14.2073
▁-_-	-14.2073
▁WHSR	-14.2073
▁ЪЪ	-14.2073
▁ال	-14.2073
☈	-14.2073
♚	-14.2073
学	-14.2073
▁Prezi	-14.2073
▁ЛЦОО	-14.2073
▁чугэй	-14.2073
よ	-14.2073
▁blue	-14.2073
▁УЙВАР	-14.2073
▁/2/	-14.2073
▁ҮМҮҮС	-14.2073
▁Shift	-14.2073
▁Ipod	-14.2073
▁WWF	-14.2073
▁WOW	-14.2073
▁price	-14.2073
▁УГ	-14.2073
▁єглєє	-14.2073
▁лфой	-14.2073
▁ӨГС	-14.2073
▁АРЧ	-14.2074
▁FAQ	-14.2074
▁УУДАС	-14.2074
▁ЕВР	-14.2074
▁тмунд	-14.2074
▁Nico	-14.2074
▁Mesh	-14.2074
▁ddy	-14.2074
▁burg	-14.2074
▁гйү	-14.2075
▁Kean	-14.2075
▁」	-14.2075
▁bab	-14.2076
▁ع	-14.2076
▁І	-14.2076
▁Haw	-14.2077
▁УНГА	-14.2077
▁Плат	-14.2078
▁Hye	-14.2078
▁асмин	-14.2078
▁ЗҮЙ	-14.2078
▁РГӨ	-14.2079
ицца	-14.2079
▁ЛГА	-14.2079
▁call	-14.2079
▁م	-14.2079
▁Budd	-14.208
▁дѳр	-14.208
▁Heav	-14.208
▁кэш	-14.2081
▁ҮЛЭЭ	-14.2081
шш	-14.2082
▁рмогц	-14.2082
▁이	-14.2082
▁ТӨВ	-14.2082
▁окте	-14.2082
▁АШИН	-14.2082
▁ѳмѳ	-14.2083
▁Вест	-14.2083
▁ГУУЛ	-14.2083
▁pur	-14.2083
▁музин	-14.2084
▁card	-14.2084
▁Gut	-14.2084
агоя	-14.2084
▁spot	-14.2085
▁і	-14.2086
▁gb	-14.2086
▁яяя	-14.2087
▁отти	-14.2088
▁RY	-14.2088
▁LX	-14.2089
▁TY	-14.209
▁АРЛАЛ	-14.209
▁Ѳѳр	-14.2091
вест	-14.2093
альф	-14.2093
▁ммон	-14.2093
▁lli	-14.2094
▁AZ	-14.2095
▁DAY	-14.2095
▁еп	-14.2096
▁уйзаа	-14.2096
▁Trip	-14.2098
▁ркес	-14.2099
ohn	-14.21
ТГА	-14.21
▁ШИЛ	-14.2103
▁ЭГЭЭ	-14.2103
ВД	-14.2104
▁ã	-14.2105
▁єлє	-14.2105
▁rip	-14.2107
▁ken	-14.2108
▁ФМ	-14.211
▁uur	-14.2111
▁Fly	-14.2111
▁чакр	-14.2112
▁ДӨЛ	-14.2115
▁ААГ	-14.2115
▁аввв	-14.2117
▁дєл	-14.2117
▁вайна	-14.2118
одя	-14.2118
пози	-14.2118
▁det	-14.2119
▁Pep	-14.2122
▁Ve	-14.2125
▁low	-14.2127
▁187	-14.2129
▁эби	-14.2129
ХИР	-14.2131
▁ДҮҮ	-14.2131
zo	-14.2132
▁КИ	-14.2132
▁11%	-14.2132
▁ыть	-14.2133
▁рбан	-14.2134
how	-14.2135
so	-14.2136
▁131	-14.214
▁ИП	-14.2141
▁негр	-14.2141
▁TH	-14.2142
▁энси	-14.2143
▁стана	-14.2144
▁деб	-14.2144
▁Хаш	-14.2145
▁ref	-14.2145
▁онк	-14.2145
▁рати	-14.2148
▁НОМ	-14.2148
ГБ	-14.2153
▁Emo	-14.2155
ГШ	-14.2155
▁Have	-14.2156
▁126	-14.2158
▁ug	-14.2158
его	-14.2161
Эм	-14.2167
▁Луиза	-14.2171
▁икел	-14.2171
▁CB	-14.2173
▁еля	-14.2174
УУЛ	-14.2175
▁рре	-14.2175
▁нжэр	-14.2176
▁elt	-14.2176
▁bull	-14.2177
▁овна	-14.2177
52	-14.2178
▁som	-14.2179
▁Сайх	-14.2179
ЕНТ	-14.2181
wi	-14.2184
єр	-14.2184
▁sal	-14.2186
▁gv	-14.2189
▁"4	-14.219
▁jun	-14.219
▁ЖЖ	-14.2193
▁Desc	-14.2198
▁виде	-14.22
▁ёоё	-14.22
ield	-14.2201
▁Even	-14.2208
▁виль	-14.2208
▁Him	-14.2213
▁Gig	-14.2215
▁СК	-14.2215
▁nai	-14.2217
▁судл	-14.2218
▁нойс	-14.2219
▁аксе	-14.222
▁eas	-14.2223
▁222	-14.2224
▁Фла	-14.2225
▁анжа	-14.2227
▁чик	-14.223
▁sd	-14.223
ван	-14.2231
ӨГ	-14.2233
▁майка	-14.2238
▁года	-14.2239
ARC	-14.2239
▁lga	-14.2243
▁sin	-14.2246
▁лоре	-14.2247
▁Lear	-14.2248
▁Лиз	-14.2248
▁18%	-14.2258
▁XD	-14.2259
▁shar	-14.2261
▁GP	-14.2263
▁iet	-14.2264
uur	-14.2264
▁114	-14.227
мит	-14.2273
▁лэш	-14.2273
же	-14.2276
ИМ	-14.2277
▁àà	-14.228
▁дони	-14.228
▁Пет	-14.2281
dle	-14.2283
йха	-14.2284
▁Eunj	-14.2289
▁danc	-14.2291
the	-14.2293
▁Mid	-14.2295
▁RAN	-14.2296
▁aud	-14.23
▁лко	-14.2305
AZ	-14.2306
▁урин	-14.2309
▁kk	-14.2309
▁Bau	-14.2311
▁локч	-14.2312
УИС	-14.2313
▁ӨРӨ	-14.2318
▁ДАЛ	-14.2325
▁ese	-14.2329
▁aha	-14.2332
▁PART	-14.2333
▁mb	-14.2335
oca	-14.2335
▁ЗИ	-14.2336
▁ммм	-14.2337
ондо	-14.234
▁нгѳ	-14.2347
▁ЭВШИ	-14.2351
▁кой	-14.2353
ЛУУ	-14.2353
▁OLE	-14.2357
▁РИК	-14.2359
▁Bak	-14.2362
▁Ox	-14.2368
each	-14.2368
зз	-14.2373
▁анту	-14.2374
▁pp	-14.2374
▁mr	-14.2376
▁азын	-14.238
▁ЖЯ	-14.2384
▁CN	-14.2393
▁ако	-14.2394
ПИН	-14.2394
▁болк	-14.2396
нбе	-14.2398
тар	-14.24
▁жийс	-14.2402
▁вово	-14.2404
▁СД	-14.2408
▁Bee	-14.241
▁Пир	-14.2418
▁инда	-14.2421
▁рдч	-14.2425
▁AB	-14.2432
▁ЛЭ	-14.2434
▁нхн	-14.244
▁Bun	-14.2447
ьдр	-14.2448
▁hin	-14.2448
▁Bai	-14.2448
▁трат	-14.2448
▁Sho	-14.2449
▁(0	-14.245
▁ольн	-14.245
▁рум	-14.2452
бал	-14.2452
▁dec	-14.2453
▁Пиф	-14.2455
AO	-14.2456
▁гуэр	-14.2466
▁Carl	-14.2471
FF	-14.2473
▁tro	-14.2473
▁нски	-14.2474
▁Kno	-14.2475
▁НЖ	-14.2476
▁ртог	-14.2477
▁овер	-14.248
cs	-14.2482
▁rs	-14.2483
ế	-14.2484
▁maa	-14.2485
▁жерс	-14.2486
ГИЙ	-14.2488
инне	-14.249
▁пес	-14.2494
▁ыва	-14.2494
РАГ	-14.2499
ех	-14.2502
▁Saa	-14.2506
sp	-14.251
▁Хаад	-14.2527
use	-14.2527
▁нег	-14.2529
кей	-14.2533
ДХ	-14.2539
ьё	-14.254
▁Oka	-14.2544
БС	-14.2544
▁равд	-14.2548
▁SHI	-14.2549
IO	-14.2549
▁cons	-14.2565
▁СААЛ	-14.257
▁"3	-14.2574
▁bon	-14.2577
::	-14.2577
▁ЕН	-14.2584
▁nap	-14.2584
▁Луй	-14.2586
▁Ash	-14.2586
▁ТБ	-14.2587
▁дет	-14.2596
OLA	-14.2596
нов	-14.2598
▁#5	-14.26
▁Ep	-14.2604
▁ХАЛ	-14.2605
▁ҮД	-14.2606
▁рья	-14.2608
GM	-14.2619
ВЭР	-14.2622
▁раль	-14.2622
оген	-14.2629
▁гчды	-14.2632
▁hei	-14.2633
▁опко	-14.2637
▁CAS	-14.2645
чка	-14.2647
PI	-14.265
▁ДУ	-14.265
▁Лок	-14.2652
лот	-14.2653
GP	-14.2655
▁льтр	-14.2656
▁ассс	-14.2665
▁SR	-14.2674
СГ	-14.2676
▁риза	-14.2678
▁Tit	-14.2681
▁Danc	-14.2685
▁Indu	-14.269
▁хлор	-14.2698
▁shuu	-14.2701
тно	-14.2706
ѳл	-14.2706
ush	-14.2712
▁nco	-14.2714
▁Xp	-14.2714
▁жун	-14.2717
▁АНС	-14.2722
▁үүтэ	-14.2722
▁Vit	-14.2722
▁Род	-14.2723
ld	-14.2727
▁гел	-14.2728
▁иона	-14.2731
ршав	-14.2733
үз	-14.2736
dd	-14.2738
▁Риг	-14.274
▁Hei	-14.2743
▁Ak	-14.2747
ока	-14.2748
lag	-14.275
▁лета	-14.2752
▁Nor	-14.2758
▁Vin	-14.2762
▁Ёооо	-14.2764
ЛОН	-14.2765
du	-14.277
пид	-14.2771
▁шош	-14.2784
▁лени	-14.2786
▁Priv	-14.2802
ity	-14.2805
5:	-14.2809
▁АЯА	-14.2809
МАР	-14.2816
рог	-14.2821
▁остя	-14.2822
бэк	-14.2823
▁нник	-14.2824
een	-14.2826
▁энтр	-14.2833
▁лей	-14.2834
ьев	-14.2835
▁ужиг	-14.2843
▁shor	-14.2845
▁ниги	-14.285
▁алат	-14.2854
▁Dee	-14.2856
▁FF	-14.2859
ини	-14.2868
▁стон	-14.287
▁Lau	-14.2876
▁GOO	-14.2879
ugh	-14.2884
▁дне	-14.2884
▁SB	-14.2889
▁sod	-14.289
▁ейсо	-14.2894
ЛАА	-14.2896
▁ким	-14.2899
▁ff	-14.2903
▁льет	-14.2903
▁xD	-14.2908
▁льм	-14.2915
exc	-14.2917
▁mai	-14.2918
▁ерма	-14.2919
▁рисб	-14.2921
▁ннес	-14.2922
еее	-14.2926
гши	-14.2928
▁лдс	-14.2934
▁Vel	-14.2934
▁SV	-14.2935
og	-14.2944
▁GR	-14.2945
▁ИЗНЕ	-14.2945
IN	-14.2947
SB	-14.2948
▁sam	-14.2949
▁Рас	-14.2957
▁док	-14.2957
MI	-14.2957
ШХ	-14.2961
үв	-14.2962
▁ben	-14.2971
▁fie	-14.2976
▁SER	-14.2978
▁7)	-14.2979
дее	-14.2982
▁нтам	-14.2989
uz	-14.2992
UN	-14.2993
▁МНӨ	-14.2993
щи	-14.3013
МП	-14.3018
лой	-14.3019
tz	-14.3019
фре	-14.3022
▁Лон	-14.3023
▁егч	-14.3024
▁fas	-14.3027
DR	-14.3028
ift	-14.3033
LT	-14.3035
▁Sym	-14.304
▁ins	-14.3042
▁Que	-14.305
▁Dut	-14.3055
▁ьы	-14.3062
ugu	-14.3062
▁BT	-14.3065
рок	-14.3066
▁Nee	-14.3067
еме	-14.3069
▁Хир	-14.3073
ЛГОХ	-14.3077
▁айте	-14.3078
▁БН	-14.3089
▁YO	-14.3093
▁igh	-14.3096
▁НДС	-14.3099
▁иша	-14.3101
▁сыл	-14.3103
▁мну	-14.3105
▁улда	-14.3106
eet	-14.3107
▁ААД	-14.311
py	-14.3129
▁РЭ	-14.3132
▁SI	-14.3133
▁SK	-14.3139
▁Арт	-14.314
▁8)	-14.3145
▁Tak	-14.3147
йч	-14.3148
ГЫН	-14.3149
▁dan	-14.3157
▁рап	-14.3173
АВ	-14.318
▁non	-14.3182
▁ola	-14.3183
▁YU	-14.3186
▁ā	-14.3186
rame	-14.3189
lar	-14.319
▁Hex	-14.3195
тов	-14.3197
▁Exc	-14.3198
oyd	-14.3204
▁ссер	-14.3213
▁wh	-14.3215
▁tx	-14.3219
МА	-14.3221
▁his	-14.3226
▁ЛЧ	-14.3233
▁FL	-14.3238
▁чев	-14.3239
ELL	-14.3248
mm	-14.3259
ond	-14.3265
▁кет	-14.3271
рук	-14.3277
▁Rel	-14.3281
▁Пик	-14.3283
avi	-14.3283
▁ПИ	-14.3284
▁Duo	-14.3285
▁inte	-14.3289
▁JH	-14.3292
fi	-14.3297
▁СҮ	-14.3302
НТ	-14.3303
ней	-14.3303
▁тико	-14.3303
▁#6	-14.3305
VI	-14.3305
мє	-14.331
▁этэ	-14.3322
НЭЭ	-14.3324
▁Ky	-14.3324
воп	-14.3325
▁АНТ	-14.3329
▁ХН	-14.3331
▁rov	-14.3331
▁нфо	-14.3334
▁лиз	-14.3338
▁MON	-14.3343
lut	-14.3353
UX	-14.3354
▁нси	-14.3355
▁ЕК	-14.3361
▁CES	-14.3364
▁кто	-14.3368
hl	-14.3372
ЦЭР	-14.3374
OI	-14.3375
▁резо	-14.3378
▁UEF	-14.3378
▁Bol	-14.338
ЭМЖ	-14.338
ЭУ	-14.3381
gar	-14.3383
▁naa	-14.339
ac	-14.3392
▁Fan	-14.3395
▁tz	-14.3395
▁ока	-14.3405
▁sun	-14.3405
▁dro	-14.3406
▁NI	-14.3407
ЭЦ	-14.3409
▁рэмм	-14.3413
▁вент	-14.3416
ём	-14.342
▁iq	-14.3423
▁Hil	-14.3424
▁Син	-14.3426
ща	-14.3426
▁SAS	-14.3431
смо	-14.3432
cel	-14.3445
▁айга	-14.3448
ö	-14.3449
▁льп	-14.345
қ	-14.3451
лєє	-14.3452
eve	-14.3455
▁эндэн	-14.3458
▁__	-14.346
▁soc	-14.3463
▁Шан	-14.3465
ОЖ	-14.3467
▁рэп	-14.3469
▁нато	-14.347
▁ЛАВ	-14.3471
▁Ран	-14.3471
▁Edi	-14.3472
▁EA	-14.3472
▁Биби	-14.3475
▁орле	-14.3477
▁хайо	-14.3477
▁лаз	-14.3481
=	-14.3483
▁АГШ	-14.3483
▁үөр	-14.3485
▁Hel	-14.3487
▁УЧ	-14.3489
æ	-14.3491
ќ	-14.3491
эҕэ	-14.3492
û	-14.3492
이	-14.3492
▁ыһы	-14.3492
^	-14.3492
ему	-14.3493
▁Wr	-14.3493
ПГ	-14.3496
инжн	-14.3498
▁ГОО	-14.35
▁phot	-14.3501
▁′′	-14.3502
■	-14.3502
◆	-14.3502
○	-14.3502
が	-14.3502
리	-14.3502
ɪ	-14.3502
▁ККК	-14.3502
▁Valve	-14.3502
▁РХЭМ	-14.3502
▁ибона	-14.3502
▁Basic	-14.3502
▁HOME	-14.3502
▁1⁄4	-14.3502
▁>>>	-14.3502
▁рємж	-14.3502
▁SUV	-14.3502
▁ИЧЭЭЛ	-14.3502
▁Kelly	-14.3502
▁skill	-14.3502
▁Whit	-14.3502
▁экхё	-14.3502
▁Ladi	-14.3502
▁docx	-14.3502
▁Kyu	-14.3502
▁Doub	-14.3502
▁Лохан	-14.3502
▁ugg	-14.3502
▁Crow	-14.3502
▁Á	-14.3503
▁お	-14.3503
▁📌	-14.3503
▁java	-14.3503
▁AUT	-14.3503
▁hism	-14.3503
▁NOW	-14.3503
▁ОРИЛ	-14.3503
▁Кво	-14.3503
▁UTF	-14.3503
▁wort	-14.3503
▁ОГСО	-14.3503
▁льчик	-14.3503
▁quest	-14.3504
▁Ля	-14.3504
▁ебя	-14.3504
▁track	-14.3504
▁bug	-14.3504
▁ватт	-14.3504
▁ольше	-14.3504
▁Chem	-14.3505
▁Joy	-14.3505
▁ppt	-14.3505
▁Hook	-14.3506
эҕи	-14.3506
▁пайз	-14.3506
▁ньюй	-14.3506
▁((	-14.3506
▁rain	-14.3507
▁oil	-14.3508
▁Bold	-14.3508
▁тѳр	-14.3509
▁ёгт	-14.3509
▁Bond	-14.3509
▁ЦЭЦ	-14.3509
▁вости	-14.3509
▁ЛӨЛ	-14.3509
▁Assa	-14.3509
НХЭ	-14.3509
їр	-14.351
▁лдмай	-14.351
▁Ъ	-14.351
▁ссссс	-14.351
▁$20	-14.351
▁Era	-14.3511
▁berg	-14.3512
▁1-4	-14.3512
▁indi	-14.3512
▁Equi	-14.3512
▁fro	-14.3513
▁nts	-14.3513
▁Жосе	-14.3513
▁овый	-14.3514
▁fb	-14.3515
▁уфет	-14.3515
No	-14.3516
▁Лимб	-14.3516
оҕо	-14.3517
▁fm	-14.3517
▁eer	-14.3518
▁Lord	-14.3518
▁їед	-14.3519
▁ейп	-14.352
▁ыыыы	-14.352
▁ООД	-14.3521
▁Gay	-14.3522
▁йзам	-14.3522
▁ð	-14.3523
▁ҮНЭ	-14.3525
▁моде	-14.3525
▁aru	-14.3525
▁ѳвх	-14.3525
▁EVE	-14.3525
▁ильмы	-14.3526
▁Папу	-14.3528
▁bg	-14.3528
▁Kenn	-14.3528
▁ГААЯ	-14.353
▁СУУ	-14.353
▁руль	-14.3531
▁үөрэ	-14.3532
▁Нєхє	-14.3532
▁ираль	-14.3533
▁Sue	-14.3534
▁hot	-14.3537
▁Эйр	-14.3538
▁fs	-14.3538
апа	-14.3539
▁НФ	-14.354
▁filt	-14.354
▁yx	-14.3541
▁97%	-14.3541
ТГИ	-14.3543
▁уолу	-14.3543
▁Twil	-14.3545
▁Pain	-14.3545
▁анел	-14.3546
▁Cut	-14.3547
▁хахха	-14.3548
▁моол	-14.3548
ТВ	-14.3548
▁ПБ	-14.3548
▁GL	-14.3549
▁got	-14.355
▁ste	-14.3551
▁брам	-14.3553
▁ИНО	-14.3553
▁511	-14.3554
▁DDD	-14.3554
▁lug	-14.3555
▁Erd	-14.3555
▁Пенн	-14.3555
▁Syn	-14.3558
▁льмг	-14.3558
▁ркос	-14.356
▁Yon	-14.356
пин	-14.3561
▁плас	-14.3569
ЕД	-14.3569
▁енна	-14.3569
▁грег	-14.357
▁рзээ	-14.3572
▁ХХХ	-14.3573
▁Soh	-14.3574
▁ЗБ	-14.3574
▁Жош	-14.3575
▁ринт	-14.3576
▁sit	-14.3576
▁АВЬ	-14.3577
▁ela	-14.3579
▁Plat	-14.358
▁Kah	-14.3581
▁Bah	-14.3581
▁Vand	-14.3581
▁ОХИР	-14.3581
▁7.8	-14.3583
▁ласс	-14.3587
▁арод	-14.3589
▁врит	-14.359
▁km	-14.3591
▁163	-14.3592
▁ркоз	-14.3593
▁плаза	-14.3593
▁апер	-14.3594
▁СОН	-14.3595
ART	-14.3595
▁АЯ	-14.3596
УБ	-14.3598
▁Asa	-14.3601
▁Лот	-14.3602
▁цета	-14.3608
os	-14.3611
▁Whi	-14.3611
▁138	-14.3613
▁sain	-14.3614
▁йдар	-14.3616
▁имор	-14.3616
▁КТ	-14.3617
▁mod	-14.3619
▁ижгэ	-14.362
▁ацаа	-14.3621
▁ршєє	-14.3622
вѳ	-14.3623
▁ришт	-14.3623
▁uz	-14.3624
▁чка	-14.3625
маа	-14.3626
▁рзай	-14.3627
▁Bed	-14.363
▁рлэнд	-14.3631
▁күээ	-14.3633
▁этэг	-14.3639
▁БҮ	-14.3641
UT	-14.3641
▁ойто	-14.3641
▁mad	-14.3641
▁ОРЛО	-14.3642
▁һин	-14.3644
▁БАЙ	-14.3654
LIA	-14.3655
▁Бур	-14.3657
▁кп	-14.3662
▁ннит	-14.3662
▁тыы	-14.3663
▁cos	-14.3666
▁їй	-14.3667
▁гири	-14.3668
▁Alf	-14.3669
▁roga	-14.367
▁леви	-14.3674
▁үүни	-14.3675
▁ГУУД	-14.3678
▁орги	-14.3678
оку	-14.3685
▁920	-14.3687
▁пэй	-14.3689
▁ГХ	-14.3693
рет	-14.3697
▁суол	-14.3698
▁shu	-14.3704
▁рков	-14.3706
▁guul	-14.3708
▁нгра	-14.371
яда	-14.3712
анч	-14.3712
оки	-14.3713
▁Voy	-14.3714
▁Valu	-14.3719
▁bli	-14.372
уна	-14.372
▁cor	-14.3724
▁204	-14.3724
▁Inn	-14.3725
▁лдой	-14.3727
▁ЛЛИ	-14.3729
eau	-14.373
▁noo	-14.3732
if	-14.3733
▁Кен	-14.3737
▁arm	-14.3737
▁Эгц	-14.374
▁ббл	-14.374
ѳг	-14.3741
▁CAM	-14.3742
▁tse	-14.3743
▁рида	-14.3747
▁арра	-14.3756
СБ	-14.3759
NET	-14.3759
лэк	-14.3763
▁лзэн	-14.3765
▁удна	-14.3765
▁ДАН	-14.3771
▁Quer	-14.3772
▁Enk	-14.3772
▁ona	-14.3773
eel	-14.3773
▁Gb	-14.3773
▁roll	-14.3774
▁Мичи	-14.3776
▁ААХ	-14.3778
▁195	-14.3783
▁Vib	-14.3783
▁rim	-14.3784
бок	-14.3785
▁лев	-14.3785
▁Сэм	-14.3792
▁FAT	-14.3793
▁Mt	-14.3795
адди	-14.3795
▁гэсэ	-14.3796
оме	-14.3797
▁kha	-14.3805
▁валь	-14.3811
▁"5	-14.3813
▁АЯН	-14.3814
agi	-14.3816
▁bag	-14.3818
SIS	-14.3818
▁эски	-14.3818
▁ХИ	-14.382
▁Hosp	-14.3823
▁РХО	-14.3827
▁Ней	-14.3831
лех	-14.3836
▁290	-14.3842
▁gni	-14.3853
▁ужг	-14.3858
▁lik	-14.3862
▁ноз	-14.3862
▁WEB	-14.3865
ДӨӨ	-14.3867
ASC	-14.3868
▁Hom	-14.3869
▁нсур	-14.387
▁Жоу	-14.3872
ң	-14.3873
БҮ	-14.3873
▁имер	-14.3874
▁паст	-14.3876
▁nci	-14.3876
▁эмз	-14.3877
▁Duk	-14.388
▁рост	-14.3881
СЭ	-14.3885
▁нтре	-14.3887
▁ИУ	-14.3888
ocus	-14.3888
▁ДӨ	-14.3891
тив	-14.3892
▁Mall	-14.3896
▁ёон	-14.3896
▁ндел	-14.3896
▁IZ	-14.3898
▁nn	-14.3902
▁моч	-14.3903
кай	-14.3904
▁SU	-14.391
▁10)	-14.3911
дєр	-14.3912
▁Rei	-14.3913
пы	-14.3913
▁ED	-14.3913
aby	-14.3914
уууу	-14.3915
aid	-14.3915
▁JOI	-14.3922
ym	-14.3928
▁ыраа	-14.393
alt	-14.3933
ug	-14.3938
▁льма	-14.394
▁рмэн	-14.3942
▁овой	-14.3949
▁Роб	-14.395
▁сами	-14.395
хлай	-14.3951
▁jc	-14.3957
▁роу	-14.3964
▁Ane	-14.3964
ҮН	-14.3965
▁роти	-14.3968
упи	-14.3969
▁РШ	-14.397
▁кГ	-14.3977
▁nar	-14.3978
▁льчи	-14.398
▁пози	-14.3982
амба	-14.3982
▁ёдо	-14.3982
АНЫ	-14.3983
▁окал	-14.3983
▁dj	-14.3989
▁оёо	-14.3989
▁tas	-14.3991
▁АРАМ	-14.3996
ivi	-14.3998
HU	-14.4
▁Рит	-14.4
▁DIN	-14.4002
▁еби	-14.401
▁рабо	-14.401
▁мєє	-14.4015
Үл	-14.4021
▁PEC	-14.4022
▁Ся	-14.4027
▁Cash	-14.4033
ica	-14.4033
▁mc	-14.4034
MB	-14.4036
▁мья	-14.4038
▁clu	-14.4041
елл	-14.4041
вава	-14.4042
TK	-14.4047
▁найт	-14.4054
eg	-14.4062
▁лиф	-14.4063
▁лыш	-14.4064
WC	-14.4065
▁Лен	-14.407
▁тхх	-14.4078
▁цым	-14.4089
▁hol	-14.4095
yp	-14.4098
▁MER	-14.4099
To	-14.41
oz	-14.41
нгуя	-14.41
▁ax	-14.4102
▁нтал	-14.4103
▁AH	-14.4104
сли	-14.4106
▁икер	-14.411
▁эмми	-14.4117
ифа	-14.4129
▁АНСА	-14.4132
▁ММ	-14.4132
ind	-14.4148
жаа	-14.4154
▁тини	-14.4159
▁EF	-14.416
▁Ред	-14.4162
▁ерни	-14.4163
▁Лег	-14.4167
▁даль	-14.4169
▁Holi	-14.4171
РА	-14.4177
нас	-14.4186
▁TOR	-14.4186
▁PB	-14.419
▁Ku	-14.4191
▁рите	-14.4192
▁АЙХА	-14.4197
ёл	-14.4199
▁Ke	-14.4201
▁Avi	-14.4207
▁Rid	-14.4208
▁орди	-14.4212
▁JA	-14.4217
ези	-14.4219
▁Нед	-14.4219
▁mal	-14.4221
▁ngu	-14.4224
ИЛО	-14.4224
яс	-14.4228
▁Рож	-14.423
▁лаус	-14.4236
▁moo	-14.424
▁пүн	-14.4242
▁нсер	-14.4244
▁СЛ	-14.4253
▁само	-14.4256
▁дош	-14.4259
▁Trea	-14.4264
▁алк	-14.4265
▁АТА	-14.4269
NN	-14.4273
▁Tee	-14.4277
▁оре	-14.4286
лори	-14.4288
ДЭН	-14.4296
пэ	-14.4298
▁цєє	-14.4298
унг	-14.4301
KE	-14.4308
▁раво	-14.4313
▁luu	-14.4313
▁Att	-14.4313
▁tk	-14.4314
▁UG	-14.4314
ельф	-14.4322
▁FR	-14.4322
инсо	-14.4322
43	-14.4327
▁ici	-14.4331
еес	-14.4331
ДАЛ	-14.4333
этг	-14.4334
▁арль	-14.4339
▁Sk	-14.4347
▁ЭМЖИ	-14.4351
▁gran	-14.4351
PG	-14.4356
▁nom	-14.436
▁сї	-14.4361
▁Lac	-14.4362
▁ej	-14.4364
▁нима	-14.4368
▁гөлд	-14.4371
58	-14.4373
▁ХМ	-14.4375
▁Реж	-14.4375
▁rie	-14.4387
▁lib	-14.439
▁ТӨ	-14.4391
lit	-14.4396
бай	-14.4397
rg	-14.4403
▁ISS	-14.4405
ЛЕ	-14.4408
oda	-14.4417
хел	-14.4418
RR	-14.4441
▁эск	-14.4454
OOL	-14.4455
▁шер	-14.446
OR	-14.4465
▁нью	-14.4468
▁Cort	-14.447
▁Mod	-14.4472
▁ИМЭ	-14.4476
еде	-14.4483
▁9:	-14.4489
бик	-14.4489
▁енди	-14.4491
тис	-14.4492
▁Ron	-14.4493
▁ркин	-14.4495
▁амен	-14.4499
▁Bal	-14.45
▁єлгє	-14.45
▁-3	-14.4503
▁MAD	-14.4509
▁Нао	-14.4515
zi	-14.4516
▁рего	-14.4516
DN	-14.4525
▁чен	-14.4527
▁hyu	-14.4532
ГА	-14.4535
▁Роки	-14.4536
lum	-14.4541
▁bio	-14.4542
▁нут	-14.4546
▁Yan	-14.4549
▁-5	-14.4556
▁АГАА	-14.456
▁Yi	-14.4566
PE	-14.4568
書	-14.4582
▁vic	-14.4587
▁рэдл	-14.4591
▁Va	-14.4594
ипи	-14.4599
▁40,	-14.4601
▁SPS	-14.4606
INE	-14.4609
AM	-14.4614
ыты	-14.4617
▁алам	-14.4617
▁рдог	-14.4622
фил	-14.4625
▁ваё	-14.4629
nnu	-14.4632
iế	-14.4634
yd	-14.464
зза	-14.4642
▁уссе	-14.4655
mn	-14.4655
▁Cri	-14.4655
▁Ka	-14.4657
1"	-14.4658
▁INF	-14.4662
▁уучий	-14.4675
▁диш	-14.4676
▁GF	-14.4678
уку	-14.4685
▁ойду	-14.4689
▁Kon	-14.4691
▁орен	-14.4695
НС	-14.4703
▁bas	-14.4714
▁fra	-14.4719
▁XL	-14.4733
▁элло	-14.4733
▁RM	-14.4739
нннн	-14.474
▁rl	-14.474
▁УРТ	-14.4748
НГИ	-14.4751
унт	-14.4757
▁ҮҮЛ	-14.4758
▁арро	-14.4759
▁икро	-14.476
ЖИН	-14.476
▁ЖИ	-14.4762
▁ализ	-14.4777
▁вле	-14.478
мор	-14.4781
▁NY	-14.4782
омб	-14.4785
есте	-14.4787
▁glo	-14.4787
лиг	-14.479
стр	-14.479
льм	-14.4794
Ѳ	-14.4794
▁егж	-14.4799
▁нее	-14.4803
road	-14.4814
▁vat	-14.4816
▁рож	-14.4825
▁арз	-14.4828
▁мни	-14.4829
▁нєх	-14.4831
▁NIT	-14.4833
▁ХОА	-14.4836
куу	-14.4841
▁кул	-14.4842
▁АЙМ	-14.4842
▁Est	-14.4843
rna	-14.4845
ази	-14.4848
▁элла	-14.4853
▁stal	-14.4862
▁рлє	-14.4863
▁Sno	-14.4864
кап	-14.4867
▁нита	-14.4868
▁hor	-14.487
▁hs	-14.4872
▁cel	-14.4874
ХИ	-14.4874
нтре	-14.4879
▁АРС	-14.4881
▁мочи	-14.4886
igg	-14.4886
ЖЭЭ	-14.4889
▁сист	-14.489
▁ЭМЦЭ	-14.4898
▁дера	-14.49
▁ЧЛ	-14.4901
ёс	-14.4905
xi	-14.4907
▁Sop	-14.4907
hu	-14.491
юун	-14.4929
▁avi	-14.4931
▁LIC	-14.4933
▁ллел	-14.4935
▁ПГ	-14.4939
▁ИДН	-14.4946
▁ila	-14.4947
▁rut	-14.4958
▁тэтг	-14.4959
▁эээм	-14.4964
▁кэн	-14.4975
▁ОРОН	-14.4975
/8	-14.4977
мес	-14.4978
àà	-14.4979
вик	-14.4982
ale	-14.4986
xx	-14.4989
▁ЕД	-14.4991
▁hea	-14.5001
▁Mos	-14.5001
▁ААТ	-14.5004
тэн	-14.5005
ray	-14.5009
чел	-14.5012
дог	-14.5016
MF	-14.5017
▁ЕМ	-14.5021
▁Sn	-14.5037
▁ЭЙ	-14.5039
▁MR	-14.5048
▁Hyo	-14.506
LF	-14.5065
онд	-14.5065
жел	-14.5068
күш	-14.507
ива	-14.5071
▁ҮЕ	-14.508
▁єгс	-14.5082
▁orn	-14.5083
▁pra	-14.5087
ЛАН	-14.5087
UR	-14.5089
▁нъя	-14.5091
▁aus	-14.5092
ллвв	-14.5093
ā	-14.5097
▁кууу	-14.5097
▁нзаг	-14.5097
Ъ	-14.5098
▁Ste	-14.5099
RA	-14.5102
▁Tim	-14.5108
▁kl	-14.5109
▁ћ	-14.5112
▁хён	-14.5116
▁ӨБ	-14.5119
6:	-14.5119
▁ейб	-14.5123
con	-14.5125
▁пел	-14.5126
⁄	-14.513
▁ҮШ	-14.5131
едж	-14.5134
▁Squ	-14.5134
▁ААГЧ	-14.5134
▁апте	-14.5135
▁АЛХ	-14.514
НК	-14.514
▁ВГА	-14.5142
ЧИР	-14.5146
▁Soy	-14.5147
ГЛ	-14.5148
▁gna	-14.5148
▁aur	-14.5153
▁••	-14.5153
▁Ry	-14.5155
ن	-14.5155
▁рё	-14.5156
▁УУХ	-14.5156
と	-14.5156
ー	-14.5156
き	-14.5156
を	-14.5157
ў	-14.5159
ı	-14.5159
★	-14.5159
гђй	-14.5159
°	-14.5159
MH	-14.516
МТ	-14.5163
▁Лоу	-14.5163
▁Хүмү	-14.5166
و	-14.5166
た	-14.5167
РАФ	-14.5167
っ	-14.5167
د	-14.5168
É	-14.5168
ư	-14.5168
̷	-14.5168
π	-14.5168
ұ	-14.5168
א	-14.5168
ᄅ	-14.5168
ᠢ	-14.5168
ớ	-14.5168
≥	-14.5168
▁(%)	-14.5168
▁Kodak	-14.5168
▁тьяго	-14.5168
▪	-14.5168
☆	-14.5168
、	-14.5168
せ	-14.5168
다	-14.5168
어	-14.5168
▁PTFE	-14.5168
▁ЛХАМ	-14.5168
▁Союз	-14.5168
会	-14.5168
▁УЛЗА	-14.5168
▁àé	-14.5168
▁Guide	-14.5168
▁yeah	-14.5168
▁-->	-14.5169
▁тѳнц	-14.5169
▁Bosch	-14.5169
▁[5]	-14.5169
▁Fuji	-14.5169
▁тзыв	-14.5169
▁NHK	-14.5169
▁ОГООН	-14.5169
▁(*)	-14.5169
▁Клум	-14.5169
▁UTI	-14.5169
▁писда	-14.5169
▁Coach	-14.5169
▁Нафт	-14.5169
▁рбакс	-14.5169
▁Kids	-14.5169
рант	-14.5169
▁LOL	-14.5169
▁Aud	-14.5169
lide	-14.5169
▁лбєр	-14.5169
▁Milf	-14.5169
▁àð	-14.5169
▁Ş	-14.5169
▁¦	-14.5169
▁term	-14.5169
▁аьаа	-14.5169
▁îë	-14.5169
▁епси	-14.517
▁Thor	-14.517
▁[4]	-14.517
▁NSA	-14.517
▁ъъ	-14.517
▁УУРЬ	-14.517
▁Scar	-14.517
▁EAT	-14.517
▁Guy	-14.5171
▁Pool	-14.5171
ѳтѳ	-14.5171
▁ӨМӨР	-14.5171
▁viii	-14.5171
▁Vuk	-14.5171
▁š	-14.5171
▁γ	-14.5171
▁DOC	-14.5171
▁Jord	-14.5171
▁пяз	-14.5171
▁Ёоко	-14.5171
We	-14.5172
▁kino	-14.5172
▁itle	-14.5172
▁Davis	-14.5172
▁Ask	-14.5172
▁Oil	-14.5173
▁емфи	-14.5173
▁Õ	-14.5173
▁Uka	-14.5174
▁Usa	-14.5174
▁hose	-14.5174
▁resp	-14.5174
▁fing	-14.5174
▁VV	-14.5174
▁дѳѳ	-14.5175
▁rick	-14.5175
▁Нехе	-14.5175
▁ЧДИ	-14.5176
▁тисс	-14.5176
▁こ	-14.5177
▁тєл	-14.5177
▁Lem	-14.5178
ёз	-14.5178
▁лэйк	-14.5179
▁ella	-14.518
▁ЭВСЭ	-14.518
▁û	-14.518
▁эгэгэ	-14.518
▁Om	-14.518
▁аузер	-14.518
▁oco	-14.5181
▁mix	-14.5181
▁каут	-14.5181
▁&;	-14.5182
▁куза	-14.5182
▁mall	-14.5182
▁ЭЛЭН	-14.5183
ich	-14.5183
▁ейру	-14.5184
▁увак	-14.5185
▁ДАГЧ	-14.5186
▁Gra	-14.5187
▁ниэл	-14.5187
ыров	-14.5187
▁[3	-14.5188
▁UNE	-14.5188
▁Bull	-14.5189
▁db	-14.5191
▁инп	-14.5191
▁lel	-14.5192
▁НАА	-14.5193
▁АДАР	-14.5193
скри	-14.5194
▁Zy	-14.5194
+1	-14.5194
▁jp	-14.5194
▁aj	-14.5195
▁neg	-14.5195
▁мєч	-14.5196
▁уфер	-14.5197
▁ИВА	-14.5197
▁ios	-14.5198
▁476	-14.52
▁RX	-14.52
▁ИЛЖ	-14.5201
▁АСГ	-14.5202
▁Тоби	-14.5202
▁50+	-14.5202
▁Esp	-14.5202
▁Quan	-14.5204
▁475	-14.5204
▁мысл	-14.5204
▁ечен	-14.5205
▁евел	-14.5205
АЛГА	-14.5205
▁ЭДЛЭ	-14.5206
▁mum	-14.5206
▁Pad	-14.5209
▁ҮЧ	-14.521
▁FX	-14.5211
▁ємє	-14.5212
▁gif	-14.5213
▁lot	-14.5213
▁рнел	-14.5213
▁ШҮҮ	-14.5215
▁ВЧ	-14.5215
▁ллэнд	-14.5216
▁iza	-14.5216
▁Монг	-14.5217
▁РМ	-14.5218
▁TOY	-14.5219
▁ГЫ	-14.522
▁ЛАН	-14.5221
ёёёё	-14.5221
▁7%	-14.5222
▁рсел	-14.5222
▁Scot	-14.5222
▁енсе	-14.5223
▁АРИМ	-14.5224
▁Pur	-14.5225
▁Ah	-14.5225
▁ушка	-14.5226
▁лдаак	-14.5227
▁88%	-14.523
▁159	-14.5232
▁эвин	-14.5234
▁райо	-14.5234
▁ХЛ	-14.5235
▁раба	-14.5235
ҕа	-14.5236
▁writ	-14.5237
▁ХЛЭЛ	-14.5237
▁атте	-14.5238
▁эмбэ	-14.5239
▁льск	-14.5239
▁умер	-14.5239
▁Nis	-14.524
▁ость	-14.524
▁дюш	-14.5241
▁ym	-14.5243
▁Лайт	-14.5244
▁КК	-14.5244
▁элү	-14.5245
▁Ik	-14.5246
риг	-14.5247
▁аштай	-14.5247
ИЕ	-14.5248
▁Sau	-14.5248
▁rest	-14.5248
▁inde	-14.5254
▁ЯЦ	-14.5255
▁ЕНЕР	-14.5258
ЛБА	-14.5259
яяя	-14.5259
▁РӨӨ	-14.5259
▁чилс	-14.526
▁еман	-14.5261
▁емон	-14.5262
▁паб	-14.5263
▁швилл	-14.5264
осф	-14.5265
▁жент	-14.5265
▁Рим	-14.5266
▁lue	-14.5268
▁266	-14.5272
HC	-14.5272
▁ытаа	-14.5272
▁пци	-14.5272
▁льфа	-14.5273
▁льба	-14.5273
ПО	-14.5275
▁BS	-14.5276
▁ООР	-14.5276
▁242	-14.5277
▁пан	-14.528
▁249	-14.5281
▁Bacc	-14.5282
ОБ	-14.5282
▁денс	-14.5283
▁exe	-14.5284
▁sea	-14.5285
▁Ski	-14.5285
▁Hyd	-14.5286
▁ИТИ	-14.5289
▁guy	-14.5296
▁Expo	-14.5296
▁197	-14.5297
Да	-14.5301
жү	-14.5301
▁Pir	-14.5302
▁сєє	-14.5303
эст	-14.5306
▁EVA	-14.5307
▁мѳр	-14.5307
▁вдог	-14.531
▁нзог	-14.531
▁рейг	-14.5313
▁АТЛА	-14.5313
нар	-14.5314
ЖОО	-14.5319
▁орге	-14.5322
▁van	-14.5323
▁vail	-14.5323
▁860	-14.5326
янь	-14.5328
▁2,8	-14.5329
▁репо	-14.5331
▁LUC	-14.5331
▁лєх	-14.5337
▁hah	-14.5338
ýí	-14.5339
▁Burg	-14.5339
▁sani	-14.534
▁ллллл	-14.5341
вээ	-14.5344
▁хєл	-14.5345
▁lig	-14.535
▁Lag	-14.5351
▁qual	-14.5351
▁Фри	-14.5352
▁cr	-14.5353
▁uc	-14.5354
▁PT	-14.5354
▁аден	-14.5354
▁Rah	-14.5354
▁Синд	-14.5355
▁хђ	-14.5355
odi	-14.5358
▁IRE	-14.5359
▁ммад	-14.5359
▁Юни	-14.536
xt	-14.5361
▁АФ	-14.5365
▁хым	-14.5374
▁ттар	-14.5375
▁xx	-14.5376
▁211	-14.5377
▁илсон	-14.5381
▁bt	-14.5382
▁ИАН	-14.5385
СӨ	-14.5385
▁угь	-14.539
▁Лаг	-14.5391
▁kid	-14.5391
▁хыты	-14.5393
▁бсол	-14.5393
▁АРЛА	-14.5394
▁/4	-14.5398
▁215	-14.54
▁айф	-14.54
▁амма	-14.5402
вов	-14.5407
▁Bae	-14.5407
▁мбээ	-14.5408
▁vp	-14.5409
▁льц	-14.541
▁lit	-14.541
ХТ	-14.5411
▁wil	-14.5414
▁ЦХ	-14.5415
▁еоли	-14.5416
▁poli	-14.5418
▁ШН	-14.5418
▁sum	-14.5422
▁Falc	-14.5423
▁Лара	-14.5425
▁tami	-14.5426
▁ИЛД	-14.5432
▁cu	-14.5436
▁дисо	-14.5436
▁dep	-14.5437
▁ИГА	-14.5437
▁хпы	-14.5439
▁смо	-14.5441
▁PEG	-14.5442
▁гуууу	-14.5444
▁БӨХ	-14.5445
АСС	-14.5446
▁рый	-14.5448
хым	-14.5448
▁күй	-14.5448
▁sk	-14.5448
▁эппе	-14.5449
▁Hay	-14.5453
▁Иог	-14.5455
жик	-14.5456
▁ql	-14.5457
▁zam	-14.5457
▁твет	-14.5459
▁елло	-14.546
▁Gab	-14.5461
▁ОВД	-14.5462
▁Мие	-14.5464
▁ҮСГҮ	-14.5464
▁ниви	-14.5466
▁Yog	-14.5467
▁спан	-14.5467
▁Tv	-14.547
▁Ay	-14.5474
TH	-14.5477
▁ЭЛЭ	-14.5478
▁Мич	-14.5478
▁ci	-14.5481
▁Kris	-14.5486
▁игр	-14.5493
▁лего	-14.5496
емц	-14.5498
▁олле	-14.5502
уки	-14.5507
▁Unt	-14.5509
▁арки	-14.5509
▁ирги	-14.5512
зен	-14.5514
▁лика	-14.5515
▁Pia	-14.5515
▁md	-14.5518
▁мерк	-14.5521
une	-14.5526
▁DAL	-14.5527
▁gii	-14.5531
▁Сайт	-14.5534
РНО	-14.5534
▁nuu	-14.5538
▁рдса	-14.5539
▁амой	-14.554
▁ранч	-14.5541
▁FU	-14.5548
▁рити	-14.555
▁Ное	-14.5558
▁гнит	-14.5559
▁луни	-14.556
пен	-14.5563
▁blo	-14.5565
омж	-14.5569
▁пай	-14.5571
▁эйжи	-14.5573
ют	-14.5574
ерри	-14.5576
ГУУ	-14.5576
юк	-14.5581
▁Tek	-14.5582
▁налыг	-14.5585
ШИГ	-14.5585
▁Rub	-14.5597
▁ЦГ	-14.5601
▁ДЛИ	-14.5602
ez	-14.5604
▁ño	-14.5605
▁Eco	-14.5607
▁дее	-14.5608
▁lie	-14.5613
▁NC	-14.5616
шү	-14.5625
▁прай	-14.5626
▁їхэ	-14.5626
▁хохо	-14.5629
ДҮҮ	-14.5629
▁һ	-14.5636
▁Lei	-14.5636
▁nba	-14.5637
▁тьян	-14.5638
▁zen	-14.5638
ТӨ	-14.5638
▁OC	-14.5644
▁#8	-14.5648
КИ	-14.565
▁Лех	-14.5654
нѳ	-14.5654
сио	-14.5664
▁Idea	-14.5665
▁ОРЧ	-14.5666
▁Пала	-14.5672
yna	-14.5676
▁shin	-14.5678
мас	-14.5679
ЗГ	-14.568
▁Dav	-14.568
нее	-14.5681
▁оне	-14.5682
▁ӨӨЦ	-14.5682
▁lud	-14.5686
▁Лит	-14.5688
▁rp	-14.5689
лоб	-14.5689
▁Єнє	-14.5695
▁ANG	-14.5697
▁Kay	-14.5697
▁АВХ	-14.5702
▁осси	-14.5702
▁Tai	-14.571
▁пси	-14.5711
орс	-14.5713
▁CI	-14.5717
▁мунд	-14.5718
▁Лаге	-14.5721
▁URA	-14.5721
ТР	-14.5722
▁Der	-14.5724
▁үк	-14.5724
▁АНДИ	-14.5726
ЙЧ	-14.5732
▁РАН	-14.5735
▁ємсє	-14.5736
лев	-14.5739
гоме	-14.574
▁huu	-14.5743
▁юре	-14.5748
▁Chen	-14.5751
▁mens	-14.5756
▁ill	-14.5757
▁скал	-14.5759
▁Сю	-14.5763
▁БШ	-14.5763
AC	-14.5765
▁Ena	-14.5765
rup	-14.5766
oS	-14.5769
▁юс	-14.577
уя	-14.577
▁вро	-14.5783
▁Bla	-14.5795
▁Ric	-14.5796
мгай	-14.5798
▁Hyor	-14.5801
yla	-14.5806
VC	-14.5809
дри	-14.581
анс	-14.581
▁хѳѳ	-14.5812
▁Как	-14.5814
▁Cond	-14.5826
▁виан	-14.5829
apx	-14.5833
▁yos	-14.5833
▁bell	-14.5836
▁шья	-14.5836
▁нгий	-14.5841
▁EB	-14.5845
▁TAL	-14.5855
ефи	-14.5859
ББ	-14.5861
чен	-14.5861
ПЕР	-14.5861
▁РШИ	-14.5861
▁йк	-14.5865
▁lai	-14.5866
▁ХШ	-14.5868
▁Fav	-14.587
▁Nap	-14.5874
▁рели	-14.588
ür	-14.5884
▁иёо	-14.5884
▁ллэн	-14.5885
▁DN	-14.5885
▁Eva	-14.5896
att	-14.5897
▁ИНГ	-14.5902
бэр	-14.5903
▁DHC	-14.5906
УН	-14.5909
▁CAA	-14.5914
▁урба	-14.5914
▁ргон	-14.5915
▁БО	-14.5921
▁ХИД	-14.5927
мьп	-14.5928
▁LIG	-14.5931
▁#9	-14.5933
▁squ	-14.5941
▁Пил	-14.5947
▁рчле	-14.5949
▁DU	-14.595
▁Flo	-14.5952
ззи	-14.5955
▁олка	-14.5955
▁райт	-14.5963
▁SL	-14.5966
▁Fo	-14.5972
uld	-14.5972
ёт	-14.5977
Си	-14.5978
▁коф	-14.5979
▁Jes	-14.5981
СО	-14.5983
YC	-14.5984
▁Райн	-14.5986
▁АМБА	-14.5987
▁dea	-14.5991
▁Сен	-14.5993
▁Eu	-14.5996
уги	-14.5997
▁УУГ	-14.5997
TW	-14.5999
▁cen	-14.6003
wa	-14.6005
ns	-14.6008
▁Qui	-14.601
▁bear	-14.601
▁Shel	-14.6013
▁рэк	-14.6017
▁лово	-14.6021
▁Fen	-14.6022
▁пят	-14.604
▁EC	-14.6042
▁Mous	-14.6051
▁йов	-14.6053
сё	-14.6053
▁длаг	-14.6056
▁ртин	-14.6061
▁пти	-14.6065
аак	-14.6071
OL	-14.6073
РХАН	-14.6075
▁нкар	-14.6078
▁ЛЭН	-14.6081
▁УСЛ	-14.6092
▁роя	-14.6096
рис	-14.6096
▁ансе	-14.6097
▁имбе	-14.6102
▁вич	-14.6106
▁лүүм	-14.6109
▁fram	-14.6115
▁мгор	-14.6126
ьсга	-14.614
▁gha	-14.6143
▁liz	-14.6145
етт	-14.6151
▁Cyr	-14.6152
нхуа	-14.6154
ири	-14.6161
ЭВ	-14.6165
тине	-14.6167
▁чем	-14.6169
ерик	-14.6171
▁ртик	-14.6177
her	-14.6192
асс	-14.6197
йса	-14.6198
▁хяс	-14.6208
xa	-14.6209
OW	-14.6209
▁dic	-14.6213
▁инац	-14.6216
етти	-14.622
▁Hw	-14.622
Ид	-14.6225
▁зайк	-14.623
вон	-14.6236
ooh	-14.6238
な	-14.6244
МАА	-14.6245
мир	-14.6246
▁ща	-14.6249
▁дко	-14.6252
▁МШ	-14.6255
BY	-14.6257
▁Eh	-14.6259
ven	-14.6259
рєє	-14.6261
▁АДГА	-14.6266
▁ХАХ	-14.627
▁пүр	-14.6271
ube	-14.6271
▁интр	-14.628
▁иэт	-14.6281
рое	-14.6285
▁Bec	-14.6291
▁Кет	-14.6295
CK	-14.6296
▁алде	-14.6303
▁SON	-14.6309
▁улха	-14.6315
iii	-14.6321
▁енин	-14.6321
▁aap	-14.6324
nni	-14.6327
▁уот	-14.6335
▁Iso	-14.6336
▁айпе	-14.6338
▁све	-14.6341
▁рвел	-14.6356
▁hun	-14.636
▁Mond	-14.636
▁Rai	-14.6364
▁dra	-14.6367
▁рсе	-14.6367
▁"1	-14.6367
АЦ	-14.6368
SW	-14.6376
wl	-14.6377
▁Fle	-14.6381
▁TJ	-14.6381
▁NS	-14.6382
▁нати	-14.6385
adi	-14.6385
▁bitc	-14.6394
▁дє	-14.6404
:3	-14.6406
▁емм	-14.6411
▁атта	-14.6413
▁уру	-14.6413
▁POD	-14.6414
ргы	-14.6415
▁tic	-14.6416
▁асло	-14.6421
▁исп	-14.6427
▁Lak	-14.643
ile	-14.6431
▁poo	-14.6433
RT	-14.6436
▁нфи	-14.6444
▁Bas	-14.6454
▁Gon	-14.6462
вэл	-14.6471
BD	-14.6472
▁Cu	-14.648
ie	-14.6481
▁риск	-14.6485
ька	-14.6487
пот	-14.6493
▁JB	-14.6494
ях	-14.6494
▁run	-14.6502
▁нкол	-14.6515
▁руто	-14.6524
▁HAN	-14.6524
je	-14.6525
▁Bes	-14.6532
▁Раж	-14.6535
▁масс	-14.6538
еж	-14.6543
▁3"	-14.6546
uest	-14.6547
▁льк	-14.6553
ЛАР	-14.6553
▁торс	-14.6554
▁холб	-14.6557
▁QC	-14.656
▁олто	-14.6563
▁AF	-14.6567
▁Shee	-14.6568
энт	-14.6569
▁zd	-14.6569
▁ҮГЭЭ	-14.6569
бэй	-14.6569
▁Scal	-14.6578
▁емп	-14.6579
CN	-14.6582
▁IBA	-14.6583
▁jae	-14.6583
▁коп	-14.6584
BN	-14.6586
▁Amo	-14.6589
▁БӨ	-14.6591
▁ҮЧТЭ	-14.6592
▁bee	-14.6592
▁ажлы	-14.6598
▁ьи	-14.6598
LV	-14.6611
▁Dam	-14.6611
▁вани	-14.6612
▁роги	-14.6613
ney	-14.6618
▁ерре	-14.6618
kk	-14.6622
ЧЛӨ	-14.6628
ьма	-14.6631
▁мож	-14.6632
PD	-14.6639
ulk	-14.6641
Mo	-14.6645
▁ринц	-14.6646
RD	-14.6646
▁fen	-14.665
▁BV	-14.6655
▁Риа	-14.6657
▁Came	-14.666
▁орке	-14.6661
▁fr	-14.6676
ьяк	-14.6681
▁tn	-14.6686
▁nh	-14.6687
▁nta	-14.6687
▁Кум	-14.6689
▁абиа	-14.6689
▁Наок	-14.6692
лис	-14.6693
▁sil	-14.6693
▁hp	-14.6695
▁дия	-14.6696
dge	-14.6697
▁UF	-14.6698
▁роз	-14.67
ХОЙ	-14.6709
ds	-14.6713
БАЛ	-14.6714
are	-14.6715
▁Pos	-14.6724
▁септ	-14.6726
▁ТГЭ	-14.6733
▁Gn	-14.6735
▁Иод	-14.6736
▁эйли	-14.6748
▁ємс	-14.675
▁санов	-14.6752
kt	-14.6754
ЛЖЭЭ	-14.6756
▁jon	-14.6758
▁амиб	-14.6761
пел	-14.6763
ҕ	-14.6769
▁ЙГ	-14.6771
▁Gun	-14.6778
ber	-14.678
1$	-14.678
▁иск	-14.6789
▁йага	-14.6799
nne	-14.6805
qui	-14.6805
▁Fit	-14.6808
▁pul	-14.6813
▁игел	-14.6816
▁rh	-14.6831
▁dh	-14.6833
жина	-14.6834
▁рле	-14.6835
кт	-14.6835
▁їх	-14.6837
АГЧ	-14.6844
ђ	-14.6845
▁ШИН	-14.6846
▁Иох	-14.6851
хун	-14.6852
▁ö	-14.6853
пэр	-14.6855
оор	-14.6856
oc	-14.6856
БО	-14.6865
ТАЖ	-14.687
EA	-14.6872
▁АРЦ	-14.6891
▁юк	-14.6893
▁ПА	-14.6895
ӨЗ	-14.6901
мел	-14.6907
▁этрэ	-14.6911
▁кро	-14.6915
аяа	-14.692
▁ИНГИ	-14.692
▁Єр	-14.6923
кия	-14.6935
▁OB	-14.694
port	-14.6944
way	-14.6948
▁Mee	-14.6949
▁Sat	-14.6953
▁АВТ	-14.6964
▁Reve	-14.6964
▁АРЬ	-14.697
▁Ome	-14.697
▁JP	-14.697
rgy	-14.6974
▁Салж	-14.698
mo	-14.6984
▁pn	-14.6995
▁рүүк	-14.7004
ЭЙ	-14.7004
▁нск	-14.701
ЦӨ	-14.701
VA	-14.7015
▁Гуд	-14.7018
ik	-14.7022
AL	-14.7025
▁BF	-14.7025
▁Boa	-14.7032
▁Bos	-14.7033
▁вийт	-14.7045
▁DOT	-14.7048
НАА	-14.7052
▁енк	-14.7057
duc	-14.7059
▁nor	-14.7059
bi	-14.706
▁ЕЛ	-14.7064
▁еба	-14.7065
гге	-14.7065
▁jar	-14.7067
▁берр	-14.7068
▁ups	-14.7073
▁mou	-14.7075
▁кип	-14.7079
▁jin	-14.7081
▁жива	-14.7088
▁нок	-14.7088
вой	-14.7089
рике	-14.709
▁LS	-14.7091
▁YS	-14.7095
▁Barc	-14.7097
▁әә	-14.7097
hr	-14.7098
▁IF	-14.7098
▁PLA	-14.7102
▁Shad	-14.7103
▁люз	-14.7105
▁ЧШ	-14.7106
фе	-14.7109
▁худа	-14.7111
▁энсо	-14.7115
▁кК	-14.7117
ауче	-14.712
▁АГН	-14.7123
ГУ	-14.7124
▁vor	-14.7126
▁җ	-14.7126
▁рз	-14.7126
роф	-14.7133
fc	-14.7134
▁ласт	-14.7134
▁gd	-14.7134
▁Ная	-14.7137
▁OZ	-14.7143
▁АРИ	-14.7144
▁иос	-14.7144
▁ЭВИ	-14.7146
▁хэзэ	-14.7147
ì	-14.715
▁вайн	-14.7152
WA	-14.7156
ОВ	-14.7156
け	-14.7156
れ	-14.7156
기	-14.7156
る	-14.7156
▁алле	-14.7157
ه	-14.7157
гем	-14.7158
く	-14.7158
җ	-14.7158
こ	-14.7158
ï	-14.7159
á	-14.7159
люк	-14.7159
€	-14.7159
gree	-14.7159
((	-14.7159
НАЛ	-14.716
юсь	-14.716
фел	-14.7162
YP	-14.7165
▁Driv	-14.7166
▁XV	-14.7167
апол	-14.7168
지	-14.7168
时	-14.7168
나	-14.7168
¤	-14.7168
ююю	-14.7168
ґ	-14.7168
մ	-14.7168
ح	-14.7168
ط	-14.7168
⃣	-14.7168
▁РЛӨГ	-14.7168
▁ШОУ	-14.7168
▁ᄏᄏᄏ	-14.7168
▁ᅲᅲ	-14.7168
◊	-14.7168
ン	-14.7168
図	-14.7168
江	-14.7168
済	-14.7168
経	-14.7168
行	-14.7168
路	-14.7168
部	-14.7168
際	-14.7168
서	-14.7168
정	-14.7168
غ	-14.7168
▁Xant	-14.7168
▁БОИЗ	-14.7168
も	-14.7168
は	-14.7168
사	-14.7168
▁ИНУТ	-14.7168
▁Font	-14.7168
▁TÜ	-14.7168
▁===	-14.7168
▁Xopo	-14.7168
▁MILF	-14.7168
[...]
