<unk>	0
<s>	0
</s>	0
.	-3.12383
▁нь	-4.32416
д	-4.58901
,	-4.67653
н	-4.74613
▁байна	-4.83236
▁	-4.854
ийн	-4.91019
ын	-4.9465
▁юм	-4.96714
▁"	-4.98319
▁ч	-5.00568
▁,	-5.00862
▁л	-5.06233
▁-	-5.07331
г	-5.1162
ж	-5.18573
т	-5.23597
▁гэж	-5.28075
▁.	-5.33041
х	-5.35117
▁байгаа	-5.39415
гүй	-5.39692
р	-5.4139
▁бол	-5.48147
?	-5.49557
с	-5.50268
ийг	-5.54489
ыг	-5.54725
ээ	-5.64686
▁энэ	-5.68893
▁Энэ	-5.74902
▁байсан	-5.75764
-	-5.75805
л	-5.76909
▁...	-5.79333
аа	-5.8207
▁нэг	-5.89191
ч	-5.90253
▁байх	-5.90385
▁хүн	-5.958
тай	-5.96368
▁уу	-5.99949
ны	-6.11551
тэй	-6.12761
▁их	-6.12979
▁болно	-6.15383
▁би	-6.15767
:	-6.17157
▁та	-6.17767
сан	-6.18788
▁дээ	-6.19399
▁вэ	-6.25883
"	-6.27506
ад	-6.30111
▁байдаг	-6.30969
▁гэсэн	-6.34187
▁дээр	-6.34972
▁олон	-6.40761
аар	-6.40844
▁Би	-6.41372
▁д	-6.42111
▁юу	-6.42151
▁шүү	-6.46217
▁ямар	-6.46284
▁тэр	-6.46854
▁биш	-6.52252
▁:	-6.53676
▁гүй	-6.61954
а	-6.63087
м	-6.63536
даг	-6.64996
ээр	-6.65746
▁даа	-6.66324
ц	-6.67426
▁г	-6.67592
▁болох	-6.6793
▁хамгийн	-6.68455
▁Тэр	-6.68742
▁Та	-6.69921
▁сайн	-6.69969
▁ээ	-6.69983
▁хэрэгтэй	-6.70167
▁болон	-6.70523
ний	-6.71152
▁бид	-6.72409
на	-6.74864
эл	-6.75221
▁хоёр	-6.75498
аас	-6.75821
▁болсон	-6.78778
▁гэдэг	-6.79575
▁зүйл	-6.7966
ах	-6.7967
эд	-6.80682
ээс	-6.82488
ан	-6.82736
сэн	-6.83194
▁өмнө	-6.83518
▁шиг	-6.83687
▁(	-6.84548
▁ёстой	-6.85881
▁Т	-6.86018
▁цаг	-6.86449
▁үү	-6.87185
▁Х	-6.88191
▁жил	-6.88398
в	-6.88583
▁байж	-6.8919
ууд	-6.89963
▁чинь	-6.90721
▁х	-6.91087
▁өөр	-6.91461
▁улс	-6.92224
▁бүх	-6.92416
▁үед	-6.92878
▁аа	-6.94755
▁болж	-6.9528
▁Хари	-6.95673
▁илүү	-6.96347
▁маш	-6.96702
ш	-6.96886
▁бүр	-6.96961
▁хүмүүс	-6.9712
▁авах	-6.97385
▁т	-6.97898
нд	-6.98616
▁оны	-6.99246
▁2	-6.99888
▁талаар	-7.00313
▁Б	-7.00378
оо	-7.02539
лаа	-7.03462
▁хийж	-7.04142
гийн	-7.04859
▁Монгол	-7.05212
▁ийн	-7.05486
▁бас	-7.06169
▁гээд	-7.06542
▁нар	-7.06651
▁дараа	-7.07365
▁хувьд	-7.08461
▁хэн	-7.09021
▁ажил	-7.09701
▁Д	-7.09898
▁жилийн	-7.10458
▁сарын	-7.11453
▁хийх	-7.11792
▁с	-7.1211
▁үйл	-7.12873
▁үг	-7.13353
▁одоо	-7.1341
▁тухай	-7.13438
▁бөгөөд	-7.14036
▁газар	-7.14122
▁өдөр	-7.143
▁буй	-7.14861
ий	-7.16088
▁онд	-7.16361
▁Гэхдээ	-7.16497
▁ийм	-7.16839
▁бэ	-7.18153
▁авч	-7.19479
и	-7.19843
▁С	-7.20539
▁ыг	-7.21388
▁минь	-7.22226
▁ийг	-7.22668
▁үр	-7.23171
ал	-7.2335
▁ба	-7.23824
▁Бид	-7.23959
▁нэгэн	-7.24008
дэг	-7.24349
▁байхгүй	-7.2508
▁бий	-7.25147
дээ	-7.25843
аад	-7.26175
▁эрх	-7.26417
▁шинэ	-7.2658
!	-7.27999
▁ын	-7.28114
э	-7.28196
з	-7.28594
▁/	-7.28802
үүд	-7.29095
▁сайхан	-7.29248
о	-7.29253
)	-7.29786
e	-7.30463
▁хүний	-7.30602
▁миний	-7.31176
▁арга	-7.31335
▁улсын	-7.34071
▁ш	-7.34505
өө	-7.34567
даа	-7.3545
▁том	-7.35547
ы	-7.35619
ь	-7.3641
▁хэрэг	-7.36499
▁удаа	-7.37576
той	-7.37757
▁1	-7.37913
ар	-7.38325
▁чи	-7.38816
▁нэр	-7.38888
▁Н	-7.38977
▁билээ	-7.39117
▁тай	-7.39691
▁гар	-7.39741
▁боломжтой	-7.39895
ав	-7.40174
хан	-7.406
▁А	-7.40786
сон	-7.41049
нэ	-7.41171
▁байлаа	-7.41239
▁гэр	-7.41761
▁санал	-7.41946
▁хар	-7.42418
v	-7.42661
▁аж	-7.44377
эн	-7.45364
▁тоо	-7.46514
▁Мөн	-7.46559
е	-7.46604
▁10	-7.46694
▁тулд	-7.46827
▁орон	-7.47005
он	-7.47034
▁3	-7.47414
▁гэдгийг	-7.47539
▁асуудал	-7.48048
▁)	-7.48263
й	-7.48347
▁мөн	-7.48973
▁бие	-7.49029
▁хэдэн	-7.49459
▁5	-7.49545
▁хэрхэн	-7.49921
▁эсвэл	-7.50868
o	-7.5118
▁тийм	-7.516
▁таны	-7.52022
▁эх	-7.53412
у	-7.53664
▁а	-7.53734
▁хэл	-7.54216
▁Г	-7.54348
▁дахь	-7.54377
▁маань	-7.5444
▁н	-7.54595
▁гэх	-7.5474
▁б	-7.55444
га	-7.55758
▁тус	-7.56115
▁дахин	-7.56164
лах	-7.5627
эх	-7.56694
▁өөрийн	-7.56839
s	-7.56914
▁Одоо	-7.58163
▁хүртэл	-7.58325
▁ирсэн	-7.59246
▁болохгүй	-7.5929
уу	-7.59328
▁бага	-7.59452
▁ам	-7.59594
▁зөв	-7.60877
гаа	-7.61193
▁төлөө	-7.61315
▁Миний	-7.61437
ай	-7.61942
▁манай	-7.61943
a	-7.61955
▁хүнд	-7.63175
▁!	-7.63689
▁хэмээн	-7.63886
▁чухал	-7.64266
▁чадахгүй	-7.64829
▁гол	-7.65028
лээ	-7.65822
ам	-7.66642
▁М	-7.66644
анд	-7.67332
▁хувь	-7.6774
ер	-7.68444
эр	-7.68893
▁өөрөө	-7.69399
▁аль	-7.69399
▁албан	-7.69472
хүү	-7.69693
▁руу	-7.70065
▁хийсэн	-7.70205
▁хамт	-7.7031
▁байр	-7.70751
▁түүний	-7.70856
лт	-7.70964
▁дуу	-7.71403
оор	-7.71628
▁авсан	-7.71889
ин	-7.72172
▁ард	-7.72329
▁хэзээ	-7.7303
...	-7.73049
од	-7.73277
▁хойш	-7.73555
▁төрийн	-7.73794
ид	-7.74197
▁үнэ	-7.74465
▁Ц	-7.74555
▁гарч	-7.74725
▁байв	-7.75096
жээ	-7.75673
▁бусад	-7.75714
▁мэдээлэл	-7.75858
▁УИХ	-7.76019
▁Манай	-7.76909
Х	-7.76915
▁ажиллаж	-7.77243
▁муу	-7.77255
▁бус	-7.7743
▁S	-7.77459
▁тэй	-7.77494
гч	-7.7756
▁хууль	-7.77625
▁4	-7.7768
▁Хэрэв	-7.77812
▁зөвхөн	-7.78017
▁өндөр	-7.78413
▁бодож	-7.7852
ү	-7.7863
0	-7.78772
▁орж	-7.78887
аг	-7.79527
▁тул	-7.79734
▁Тэд	-7.798
▁учраас	-7.7995
▁төр	-7.80219
▁биз	-7.8026
▁дарга	-7.80498
▁АНУ	-7.80504
▁Ийм	-7.80553
А	-7.8077
▁надад	-7.81193
▁болов	-7.81303
▁Тийм	-7.81399
▁хугацаанд	-7.81552
▁эд	-7.81657
▁6	-7.81732
▁яаж	-7.81799
▁аас	-7.81803
▁З	-7.81989
▁тэд	-7.82152
y	-7.82199
▁сэтгэл	-7.82229
▁7	-7.82634
▁мөнгө	-7.82794
ол	-7.83046
▁сая	-7.83366
▁нас	-7.83508
ээд	-7.83556
▁У	-7.84474
▁хүүхэд	-7.84487
▁8	-7.84773
Т	-7.84807
к	-7.85007
▁О	-7.85551
▁болохоор	-7.85664
▁яагаад	-7.85681
▁яг	-7.8585
▁байдал	-7.86329
▁Монголын	-7.86497
гээ	-7.86733
▁бай	-7.86964
ор	-7.87328
▁мэт	-7.87392
▁намайг	-7.87394
▁тодорхой	-7.87414
наас	-7.87714
эг	-7.87798
▁үүнийг	-7.87841
▁явж	-7.88054
▁тал	-7.88116
▁сар	-7.88191
▁гэнэ	-7.88267
▁Нэг	-7.88287
аж	-7.88582
▁ажлын	-7.88761
1	-7.89037
▁Таны	-7.89331
▁энд	-7.89847
▁хэлж	-7.9001
▁зарим	-7.90037
▁байхад	-7.90072
▁олж	-7.90753
С	-7.91424
▁залуу	-7.91466
▁ажиллах	-7.91883
▁сайд	-7.91888
▁зураг	-7.92273
▁мэдэх	-7.92404
▁дотор	-7.92455
▁Тиймээ	-7.92645
▁санаа	-7.92847
▁_	-7.92863
▁түүнийг	-7.93317
▁газрын	-7.93744
▁ирэх	-7.93798
үү	-7.93855
▁Чи	-7.94107
▁учир	-7.94207
▁эр	-7.94318
я	-7.94383
▁долоо	-7.94615
▁Засгийн	-7.94791
▁бидний	-7.95097
ил	-7.95464
▁үе	-7.95563
▁он	-7.95807
▁Гэт	-7.9589
б	-7.96531
▁м	-7.96686
▁эмэгтэй	-7.9686
2	-7.96868
▁аар	-7.97122
лан	-7.97205
▁и	-7.97368
▁үнэн	-7.9749
▁хаа	-7.97828
▁сан	-7.9784
▁уг	-7.97892
▁р	-7.9828
ө	-7.98683
▁боломж	-7.98737
▁өгөх	-7.98959
▁Тэгээ	-7.99508
сөн	-7.99647
чих	-7.99705
▁20	-7.99719
▁өнөөдөр	-7.99761
/	-7.99794
▁хэсэг	-8.00878
▁ав	-8.00912
оос	-8.00957
▁гишүүн	-8.00982
▁C	-8.01777
▁үнэхээр	-8.01925
▁машин	-8.0196
▁M	-8.02435
дог	-8.02708
▁байгааг	-8.02962
▁ц	-8.02963
▁дуртай	-8.03069
▁бүрэн	-8.03208
▁дэлхийн	-8.04188
▁хүлээн	-8.04245
▁зам	-8.04272
▁нам	-8.04385
лэг	-8.04513
▁s	-8.04537
ас	-8.04786
▁Ж	-8.05111
▁мэдээ	-8.05209
▁Л	-8.05275
Г	-8.0534
▁хэлсэн	-8.05648
өх	-8.05955
▁танд	-8.05999
эв	-8.06123
▁гурван	-8.06173
▁хугацаа	-8.06199
▁нийт	-8.06281
▁эдийн	-8.06318
Д	-8.0636
▁өгсөн	-8.06571
▁харж	-8.066
▁Ш	-8.06675
▁Улсын	-8.06755
үүл	-8.0679
i	-8.07726
лаг	-8.07815
▁ор	-8.07867
▁байвал	-8.07895
▁явах	-8.07948
▁болоод	-8.08075
▁дугаар	-8.08173
▁B	-8.08374
▁холбоотой	-8.0878
▁гарсан	-8.09259
▁буюу	-8.09305
▁өөрийгөө	-8.09625
ов	-8.09704
▁ээж	-8.09759
▁шийдвэр	-8.10085
▁A	-8.10188
▁ганц	-8.1022
▁шаардлагатай	-8.10353
▁үгүй	-8.10751
▁Гэв	-8.10844
▁үеийн	-8.10875
▁асуудлыг	-8.1136
▁зохион	-8.11395
3	-8.11554
▁хэмжээ	-8.11669
4	-8.11994
▁Ч	-8.12074
▁дунд	-8.12614
▁баяр	-8.12694
▁гаруй	-8.12813
▁төрлийн	-8.12909
u	-8.12926
▁засгийн	-8.12987
ик	-8.13179
▁Түүний	-8.13319
▁харин	-8.13446
ана	-8.13469
▁хүү	-8.13756
▁хэд	-8.14289
▁ар	-8.14849
▁Ямар	-8.1506
▁ажиллагаа	-8.15244
▁ярьж	-8.15362
▁эрүүл	-8.15691
▁ном	-8.16074
▁зах	-8.16224
▁гарах	-8.16446
▁гийн	-8.16747
▁дагуу	-8.16907
▁яах	-8.17114
l	-8.17175
▁За	-8.17507
ен	-8.17688
▁алга	-8.1786
▁Уг	-8.1786
▁Ер	-8.1804
▁хөрөнгө	-8.1815
▁анх	-8.18151
▁зүйлийг	-8.18183
▁T	-8.1826
уул	-8.18271
хаа	-8.18274
▁Хүн	-8.18274
▁улсад	-8.18531
▁зүгээр	-8.18657
▁ингэж	-8.18748
▁байдлаар	-8.188
ир	-8.18999
▁найз	-8.1918
▁9	-8.19359
▁?	-8.19511
▁гэвэл	-8.19535
▁охин	-8.19763
▁боллоо	-8.19774
▁Э	-8.1979
▁мэдэхгүй	-8.19806
▁к	-8.19973
▁хэр	-8.20235
▁болгон	-8.20359
нээс	-8.2036
▁боловч	-8.20613
▁гэв	-8.20819
▁P	-8.20933
▁явдал	-8.21203
▁зэрэг	-8.21215
▁бүгд	-8.21397
вал	-8.21489
▁иргэд	-8.21553
5	-8.21562
лэх	-8.21568
▁аав	-8.21615
Би	-8.21988
лоо	-8.22097
▁Үүнийг	-8.22495
▁ж	-8.22631
▁ах	-8.22642
▁хоол	-8.22674
▁үзэх	-8.22837
▁Өнөөдөр	-8.22982
▁Олон	-8.23091
▁хайр	-8.23217
Э	-8.23304
алт	-8.23442
▁буруу	-8.23474
▁хэцүү	-8.23605
▁болгох	-8.2376
▁шууд	-8.23764
эм	-8.23878
▁авна	-8.23965
им	-8.24041
чин	-8.2413
но	-8.24622
▁чих	-8.24784
▁И	-8.2502
Б	-8.25033
▁бүү	-8.25249
лж	-8.25313
▁амьдрал	-8.25467
▁бүл	-8.25664
▁12	-8.257
▁ял	-8.25837
эж	-8.26163
▁сард	-8.26315
▁ирж	-8.26584
▁Улс	-8.26585
8	-8.26587
▁11	-8.26887
▁болжээ	-8.27049
▁Их	-8.27135
▁гэхэд	-8.27159
▁нөхцөл	-8.27254
ой	-8.27449
▁гаргаж	-8.27613
▁Орос	-8.27839
n	-8.27871
▁компани	-8.28218
▁настай	-8.28678
9	-8.28683
▁өнгөрсөн	-8.28801
▁болдог	-8.28843
▁анхны	-8.2939
▁Бүх	-8.29505
▁хийдэг	-8.29545
▁амжилт	-8.29738
▁монгол	-8.29792
▁Хамг	-8.29833
▁хэлэх	-8.29841
▁ил	-8.29875
Н	-8.29889
▁хоног	-8.30007
er	-8.30053
▁за	-8.30336
▁з	-8.30347
▁ал	-8.30408
▁ад	-8.31049
▁чадах	-8.31077
▁гаргах	-8.3175
▁үл	-8.32258
▁АН	-8.32424
▁адил	-8.32432
▁зээл	-8.32618
лын	-8.32635
▁18	-8.32875
гоо	-8.32982
▁багш	-8.33182
▁хүнийг	-8.33206
▁ус	-8.33428
▁тэдний	-8.33528
▁боддог	-8.33689
доо	-8.33996
▁ур	-8.34106
▁хүлээж	-8.34244
▁хуулийн	-8.34286
эгвэл	-8.34388
▁;	-8.3462
▁ид	-8.34747
▁Эдгээр	-8.34808
6	-8.34943
▁тань	-8.35019
уур	-8.3517
c	-8.3555
▁хэрэггүй	-8.35692
▁ярих	-8.35848
▁в	-8.35866
▁тухайн	-8.36048
▁дээд	-8.36126
▁байжээ	-8.36126
▁хөл	-8.36136
▁байгаад	-8.36399
▁ашиглах	-8.36445
▁бүхэн	-8.36616
▁бараг	-8.36727
▁үзэж	-8.3679
▁өөрчлөлт	-8.36808
▁орох	-8.36832
▁ээс	-8.37233
▁ээр	-8.37615
гаар	-8.37702
▁кино	-8.37844
▁К	-8.37873
▁15	-8.37964
▁ер	-8.3803
7	-8.38049
▁оо	-8.38401
▁нутгийн	-8.38466
▁D	-8.38565
▁хүмүүсийн	-8.38735
A	-8.38869
▁тэг	-8.38893
▁доо	-8.39043
▁систем	-8.39055
▁магадгүй	-8.39285
▁өдрийн	-8.39325
t	-8.39353
▁30	-8.39357
▁үргэлж	-8.39521
▁өгч	-8.39642
▁тохиолдолд	-8.39857
▁хүчин	-8.39942
▁G	-8.40917
уулах	-8.41302
▁сүүлийн	-8.4155
▁хө	-8.41555
▁хот	-8.41911
▁огт	-8.42097
▁дүр	-8.42629
▁гаргасан	-8.42943
▁бүрийн	-8.43061
▁гадна	-8.43082
▁Хэрвээ	-8.43116
▁баримт	-8.43446
О	-8.43629
S	-8.43636
b	-8.43651
I	-8.43893
▁цагийн	-8.43955
▁эдгээр	-8.43994
▁МАН	-8.44022
ул	-8.44282
ат	-8.44411
▁хүүхдүүд	-8.44453
▁орсон	-8.44608
▁хүч	-8.44818
▁Дэлхийн	-8.449
▁эсрэг	-8.45019
▁хамгаалах	-8.45239
▁хол	-8.45336
▁хоногийн	-8.45455
▁харах	-8.45456
▁дээрх	-8.45633
▁дор	-8.45643
Учир	-8.45743
▁Шинэ	-8.45955
▁Яагаад	-8.46015
▁я	-8.46191
▁Бурхан	-8.46265
▁Монголд	-8.46308
▁толгой	-8.46691
▁гоё	-8.46744
▁Ерөнхий	-8.47102
▁бүсгүй	-8.47102
▁заавал	-8.47456
У	-8.47466
▁зар	-8.47475
▁14	-8.47605
▁аз	-8.47797
▁100	-8.47814
▁Хар	-8.4791
▁бизнес	-8.48219
▁Бидний	-8.48394
▁зан	-8.48638
▁боломжгүй	-8.48722
ей	-8.48758
▁чадна	-8.48759
▁цагт	-8.48784
P	-8.48913
▁бүхий	-8.49119
▁П	-8.49348
▁ашиг	-8.49385
▁I	-8.49399
аагүй	-8.49464
▁хэмжээний	-8.49641
▁байгаагүй	-8.49803
p	-8.49852
▁холбоо	-8.49876
ог	-8.50049
ри	-8.50334
өөс	-8.50363
▁хаана	-8.50552
лийн	-8.5073
вэл	-8.50902
▁хий	-8.51034
▁уул	-8.51353
▁рүү	-8.51355
▁мэнд	-8.51644
▁оноос	-8.51695
▁L	-8.51718
▁алдаа	-8.51736
▁Ерөнхийлөгч	-8.51769
▁хан	-8.51868
▁мэдэж	-8.51904
▁загвар	-8.52038
▁бүтээл	-8.52042
▁дээрээ	-8.52068
▁E	-8.52393
▁энэхүү	-8.52409
▁хуудас	-8.52489
▁гэрээ	-8.52745
▁явсан	-8.52796
%	-8.52837
▁эхний	-8.52885
▁аваад	-8.5292
▁дүү	-8.52982
▁Тэг	-8.53032
D	-8.53251
▁шалтгаан	-8.53291
▁хүмүүст	-8.53295
▁эхэлсэн	-8.53378
▁шаардлага	-8.5343
▁нарын	-8.53448
▁Зарим	-8.53477
▁бэлэн	-8.53558
▁болгож	-8.53568
▁өр	-8.53765
▁о	-8.5387
гөө	-8.54025
өн	-8.5408
▁төв	-8.54108
▁өнгө	-8.54196
▁намын	-8.54276
▁гишүүд	-8.54311
▁бидэнд	-8.5434
ох	-8.54382
▁Хэн	-8.54434
▁турш	-8.54446
эс	-8.54468
▁хурдан	-8.54533
▁дараах	-8.54558
тан	-8.54616
▁хувийн	-8.54656
чид	-8.54967
▁гэхдээ	-8.55245
▁хүссэн	-8.55434
▁өг	-8.5545
▁засаг	-8.55513
▁дүн	-8.5555
▁Ү	-8.55669
гээр	-8.55903
an	-8.55938
▁H	-8.55947
▁у	-8.56003
▁болохыг	-8.56058
▁мянган	-8.56064
▁ихэнх	-8.56067
▁байхдаа	-8.56182
▁дэх	-8.56349
▁янз	-8.56437
нууд	-8.56522
уулж	-8.56697
▁э	-8.56763
▁яриа	-8.57272
▁F	-8.57286
▁Үүний	-8.57307
дөг	-8.57519
энд	-8.58163
▁оронд	-8.58165
▁"-	-8.58192
▁дэлхий	-8.58207
рах	-8.58298
И	-8.58478
▁ажлаа	-8.58577
Та	-8.58641
п	-8.58706
▁амьдарч	-8.5871
▁чанар	-8.58719
▁мал	-8.58813
▁хариу	-8.59077
өл	-8.59273
▁нууц	-8.59276
▁баг	-8.5933
▁бар	-8.59659
▁ажлыг	-8.59854
▁нөгөө	-8.59883
▁Төрийн	-8.59901
▁хүсч	-8.59989
▁Бурханы	-8.60147
▁үеэр	-8.60215
▁олох	-8.60336
өөр	-8.60497
E	-8.60509
иа	-8.60525
хэн	-8.60667
▁тун	-8.60792
ноос	-8.60809
ом	-8.6098
▁аюулгүй	-8.60992
▁яв	-8.61084
эй	-8.61118
▁Тус	-8.61336
k	-8.61492
▁•	-8.61627
▁ха	-8.61673
▁эмч	-8.61877
▁зүйлс	-8.61879
▁урт	-8.6193
▁Хятад	-8.62041
▁анги	-8.62135
C	-8.62383
▁сайт	-8.62507
▁ол	-8.62562
▁бичсэн	-8.62568
өд	-8.62576
▁хайртай	-8.62648
аасаа	-8.62821
▁ууд	-8.63011
▁ай	-8.63015
▁арай	-8.63223
▁Тэрбээр	-8.63315
▁Яг	-8.63467
▁гэдгээ	-8.63697
▁хотын	-8.63857
▁Бас	-8.63864
▁ажилд	-8.63889
▁өрөө	-8.63926
▁v	-8.63965
▁насны	-8.641
сны	-8.6419
▁Мэдээж	-8.64195
▁иргэн	-8.64248
▁Ингээ	-8.64251
▁гүйгээр	-8.64289
▁ир	-8.64859
▁хэлбэл	-8.64903
▁чамайг	-8.64903
▁мэддэг	-8.64936
▁Нүүр	-8.65012
▁Ө	-8.65095
▁түүнд	-8.65239
▁орны	-8.65242
▁байдлыг	-8.65251
▁m	-8.65279
лаад	-8.65317
▁16	-8.65407
O	-8.65519
▁гэлээ	-8.65565
ос	-8.65584
чил	-8.65732
▁17	-8.65895
▁түүх	-8.65946
▁тэгээд	-8.65952
▁13	-8.6599
лэн	-8.65999
▁явдаг	-8.66085
▁гэмт	-8.66107
▁оруулах	-8.66191
ье	-8.66396
d	-8.66476
▁мэдээллийг	-8.6687
М	-8.66989
▁аймгийн	-8.67368
▁өглөө	-8.67381
▁амьдралын	-8.67465
▁үйлчилгээ	-8.6754
▁авдаг	-8.67552
▁хал	-8.67597
▁ы	-8.67689
al	-8.67716
▁Тэгэхээ	-8.67832
▁лээ	-8.67851
маар	-8.67951
▁төрсөн	-8.67967
▁зориулсан	-8.68033
▁ухаан	-8.68047
▁хэмжээнд	-8.68054
▁хүүхдийн	-8.6814
▁хэдий	-8.68153
▁байгууллага	-8.68223
▁нүүр	-8.68291
▁ажилладаг	-8.68442
▁эмэгтэйчүүд	-8.68455
▁үс	-8.68478
▁ий	-8.68593
▁өөртөө	-8.68611
▁бололтой	-8.6866
го	-8.6868
▁хичээл	-8.68758
▁эхнэр	-8.68878
▁барих	-8.68889
үүлэх	-8.68895
ли	-8.68919
жин	-8.69087
T	-8.69179
▁сонин	-8.6923
хон	-8.69283
r	-8.69307
▁түмэн	-8.69401
▁амьдрах	-8.69546
▁өө	-8.6973
▁гэдэгт	-8.69765
▁50	-8.69845
дөө	-8.70274
рч	-8.70276
Ү	-8.70339
▁өмнөх	-8.70339
▁мэднэ	-8.70381
▁b	-8.70408
on	-8.70409
mn	-8.70579
▁үз	-8.7062
ф	-8.70633
▁тоглоом	-8.70634
▁той	-8.7065
▁улам	-8.70943
▁орой	-8.70977
▁зай	-8.71188
▁бодлого	-8.71215
сний	-8.71256
▁уур	-8.71429
өр	-8.71503
▁ая	-8.71512
▁шинж	-8.71606
▁төсөл	-8.7174
▁орчим	-8.71814
▁битгий	-8.71868
ив	-8.71979
▁[	-8.71989
▁од	-8.72014
▁нийтийн	-8.72117
▁амь	-8.72146
▁уран	-8.72182
▁бүс	-8.72239
▁мэд	-8.72254
ра	-8.72284
▁байхыг	-8.72375
▁барьж	-8.72638
▁үндсэн	-8.72647
▁ёс	-8.72649
ит	-8.72862
▁бараа	-8.7289
лэл	-8.73018
▁удаан	-8.73084
ран	-8.73098
дан	-8.73186
▁өөрийнхөө	-8.73262
▁үзсэн	-8.73654
▁хай	-8.73886
▁хэт	-8.7411
▁таныг	-8.74111
ar	-8.74161
▁үүрэг	-8.74239
▁эрт	-8.7426
▁жишээ	-8.74305
ет	-8.74311
▁бутлуур	-8.74359
оод	-8.74369
▁хийнэ	-8.74399
▁жижиг	-8.74597
▁эцэг	-8.74688
▁өгнө	-8.74697
ээрээ	-8.74734
g	-8.74838
▁тушаал	-8.74881
▁хэрэглэх	-8.74956
▁Я	-8.75003
ъя	-8.75009
▁шилдэг	-8.75032
▁Үүнээс	-8.75202
▁нөхөр	-8.75231
ла	-8.75362
▁дур	-8.7542
▁сонголт	-8.75445
▁өв	-8.75467
үүлж	-8.7565
▁Хоёр	-8.75747
▁ф	-8.75766
▁бүтээгдэхүүн	-8.75853
▁дөрвө	-8.75904
ак	-8.76018
▁асуулт	-8.76221
▁хувцас	-8.76312
▁тэнд	-8.76385
▁яваа	-8.76453
▁бичиг	-8.76566
▁бодит	-8.76772
▁бичлэг	-8.7686
▁на	-8.76981
▁ний	-8.77166
▁нутаг	-8.77283
▁зүйн	-8.77299
▁сууж	-8.77535
▁хоногт	-8.77724
▁p	-8.77866
▁удаагийн	-8.77932
дах	-8.78052
▁очиж	-8.78127
M	-8.78427
▁гал	-8.78445
▁t	-8.7852
▁чиний	-8.78862
▁ой	-8.78902
▁хийгээд	-8.78931
▁итгэл	-8.79017
00	-8.79137
ка	-8.79227
h	-8.79314
▁судалгаа	-8.79328
▁татвар	-8.79406
▁ирээд	-8.796
▁оруулж	-8.7965
▁ач	-8.7977
▁халдвар	-8.79803
▁Дараа	-8.80067
▁1-	-8.80113
▁худалдан	-8.80302
▁ашиглаж	-8.8038
▁дээш	-8.80382
▁орчин	-8.80392
▁Ажил	-8.80502
▁Гэр	-8.80625
▁эм	-8.8067
▁чадвар	-8.80837
▁туслах	-8.80961
▁·	-8.80981
▁үүд	-8.81103
re	-8.81284
▁гэртээ	-8.81431
▁тавьж	-8.81432
▁зорилго	-8.81938
ун	-8.81975
ел	-8.82025
▁сонирхолтой	-8.82038
▁Хүмүүс	-8.82069
vv	-8.82157
▁байнга	-8.82186
▁24	-8.82274
нө	-8.82415
▁Тэдний	-8.82496
би	-8.82581
▁салбарт	-8.8264
▁хооронд	-8.82681
▁үйлдвэр	-8.8284
▁чамд	-8.82943
▁энгийн	-8.82975
▁Энд	-8.83005
▁гуй	-8.83038
▁минутын	-8.83227
▁худалдаж	-8.8326
гэ	-8.83598
▁иргэдийн	-8.83834
▁бүрт	-8.83892
▁Ха	-8.84274
Л	-8.84511
▁25	-8.84517
▁өгдөг	-8.8454
▁үзэл	-8.84565
▁бод	-8.84603
▁чаддаг	-8.84669
өж	-8.84882
▁ойлгож	-8.84918
▁доллар	-8.84923
агч	-8.84938
▁жин	-8.85126
▁a	-8.85144
or	-8.85193
▁ажээ	-8.85276
▁c	-8.85364
▁гайхалтай	-8.85365
лл	-8.8538
▁таван	-8.85387
▁тохиолдол	-8.85443
▁Ф	-8.85535
тал	-8.85584
▁бодол	-8.85631
▁төгрөг	-8.85721
▁байгуулах	-8.8577
▁хөдөлгөөн	-8.85811
▁2020	-8.85821
▁нөлөө	-8.85955
▁аргагүй	-8.86015
▁өөрсдөө	-8.86243
▁анхаарал	-8.86246
ба	-8.86284
▁ан	-8.86345
▁даг	-8.86398
ю	-8.86491
▁хүрээнд	-8.86554
it	-8.8664
▁Хүний	-8.86746
▁W	-8.86965
▁гэхээр	-8.87
Р	-8.87026
▁төрөл	-8.87201
▁чөлөө	-8.87217
▁Ан	-8.87297
▁Ал	-8.87321
▁өргөн	-8.87346
▁оролцох	-8.87353
тэйгээ	-8.8744
▁Монголчууд	-8.87504
▁байдаггүй	-8.87585
▁Ар	-8.87758
en	-8.87906
▁хүрэх	-8.87968
З	-8.87974
in	-8.87984
▁ху	-8.88158
▁эхлэх	-8.8822
▁Тухай	-8.88225
▁п	-8.88408
▁нутагт	-8.88451
▁Зөвхөн	-8.88488
гай	-8.88506
▁нийгмийн	-8.88609
▁эхлээд	-8.8862
▁үздэг	-8.8866
арч	-8.88686
▁хэлбэр	-8.8871
▁жилд	-8.88855
▁сургууль	-8.88892
▁цагаан	-8.89011
▁жинхэнэ	-8.89017
▁гадаад	-8.89163
R	-8.89221
▁хараад	-8.89327
▁эргэн	-8.89469
▁салбар	-8.89543
▁нийтлэл	-8.89586
▁40	-8.89599
▁ны	-8.89819
B	-8.89944
▁Цаг	-8.90069
▁тэрбум	-8.90084
▁'	-8.90175
▁тавих	-8.9023
▁зүрх	-8.90231
▁бичих	-8.90249
▁алба	-8.90293
▁хор	-8.90309
▁төхөөрөмж	-8.90339
▁тэрээр	-8.90402
▁J	-8.90482
▁Өөрөөр	-8.9061
саар	-8.90644
▁Түүнийг	-8.90656
▁амар	-8.90703
▁явна	-8.90929
m	-8.91049
▁N	-8.91063
▁дар	-8.91135
аарай	-8.91257
▁Сүүл	-8.91272
▁хатуу	-8.91273
▁Гар	-8.91295
▁сур	-8.91368
▁Хятадын	-8.91391
▁O	-8.91474
▁Сайн	-8.91729
▁шалгалт	-8.9174
▁Эд	-8.91742
▁хамаагүй	-8.91755
лал	-8.91803
▁да	-8.91903
▁Өнгөрсөн	-8.91946
x	-8.91965
рал	-8.92034
▁мэдээллийн	-8.92072
ур	-8.92206
▁шат	-8.92267
▁оруулалт	-8.92278
▁мөр	-8.923
гийг	-8.92306
▁ерөнхий	-8.92325
сээр	-8.9238
▁зүй	-8.92392
▁эс	-8.92519
Энэ	-8.92526
▁шүүх	-8.92604
лаж	-8.92605
▁2012	-8.92633
▁сургуулийн	-8.92839
▁хүмүүсийг	-8.92989
▁Улаанбаатар	-8.92991
▁В	-8.93032
▁бээлий	-8.93093
▁утас	-8.93137
▁минут	-8.93202
шиг	-8.93233
▁амьд	-8.93241
▁хотод	-8.93341
▁Намайг	-8.9336
▁үедээ	-8.93391
▁газарт	-8.93396
▁гоо	-8.93645
▁га	-8.93711
үүлсэн	-8.93783
ло	-8.93794
хээ	-8.93847
▁төгс	-8.94121
▁сурах	-8.94132
▁цахим	-8.94381
▁Эр	-8.94498
▁бүхнийг	-8.94525
▁Япон	-8.94563
▁хил	-8.94765
ви	-8.94794
▁тусгай	-8.94841
▁зав	-8.94849
▁эл	-8.94889
▁2016	-8.94943
▁ижил	-8.94954
▁үзүүлэх	-8.94987
▁сонгох	-8.95077
▁тоглолт	-8.95221
▁Европын	-8.95403
хи	-8.95476
▁бүлийн	-8.95523
▁Ху	-8.95584
▁шударга	-8.95602
▁ажиллагааны	-8.95624
▁тэнэг	-8.9563
та	-8.95751
▁хамтран	-8.95756
▁ярьдаг	-8.95773
ийнхээ	-8.95844
▁түр	-8.9587
▁онгоц	-8.95986
ко	-8.96086
▁лав	-8.96191
за	-8.96208
▁үнэгүй	-8.96448
▁хувилбар	-8.96457
▁компаниуд	-8.96472
▁Үнэн	-8.9649
▁19	-8.96612
▁алд	-8.96667
▁давхар	-8.96676
даж	-8.96827
▁байдалд	-8.97365
▁хүчний	-8.97841
▁чин	-8.97859
▁n	-8.97877
▁яа	-8.97978
▁компанийн	-8.97979
▁гардаг	-8.98042
]	-8.98097
▁Бусад	-8.9819
▁татаж	-8.98312
▁тэднийг	-8.98397
▁суурь	-8.98516
лөө	-8.98586
▁хаан	-8.98627
таа	-8.98729
лга	-8.98736
▁U	-8.98827
▁Юу	-8.98862
▁хүрч	-8.99248
w	-8.9926
▁d	-8.99365
▁бат	-8.9951
▁бичиж	-8.99627
▁тусламж	-8.99749
▁байгууллагын	-9.00247
▁мэндийн	-9.00259
▁дараагийн	-9.00271
▁гэжээ	-9.00285
▁суух	-9.00373
▁Ингэ	-9.0048
хай	-9.00547
лох	-9.00584
▁хүргэж	-9.00917
▁бна	-9.00944
▁оноо	-9.00944
▁хүсэл	-9.00952
▁цай	-9.01072
▁хангалттай	-9.01243
Ц	-9.01378
▁аг	-9.01717
▁Ээж	-9.0181
агдсан	-9.02072
▁хэлэхэд	-9.02075
лийг	-9.02125
▁Эх	-9.0224
▁хөө	-9.02481
▁хүсдэг	-9.02569
▁хүчтэй	-9.02687
N	-9.02731
▁Бу	-9.02863
▁R	-9.02884
▁нээ	-9.02985
▁хэлдэг	-9.03071
▁Ка	-9.0309
▁бүгдийг	-9.0313
▁адилхан	-9.03185
аараа	-9.03197
АР	-9.0336
▁ойлголт	-9.03399
▁програм	-9.03442
▁хэрэгжүүлэх	-9.03713
▁улмаас	-9.03776
▁түмний	-9.03779
то	-9.03821
▁тоглох	-9.0383
▁хугацааны	-9.0385
▁буу	-9.03926
▁хүрсэн	-9.03984
▁уурхайн	-9.03993
L	-9.04034
▁Хайр	-9.04122
▁Р	-9.04148
▁2017	-9.04394
▁2-	-9.04438
▁нэлээд	-9.04492
▁санхүүгийн	-9.04522
at	-9.04542
▁хүр	-9.0462
▁хөгжлийн	-9.04637
20	-9.0475
оно	-9.04812
▁l	-9.04872
▁эв	-9.04889
▁сул	-9.04961
▁хэм	-9.05523
▁зөвлөгөө	-9.05542
▁айл	-9.05545
▁мэргэжлийн	-9.0555
мж	-9.05596
▁яваад	-9.05645
▁хи	-9.05754
▁худалдаа	-9.05783
▁тавьсан	-9.05823
▁цалин	-9.05904
▁Нада	-9.06
▁байдлын	-9.06061
ис	-9.0611
▁баярлалаа	-9.0627
▁нарийн	-9.0631
▁бүлэг	-9.06354
▁g	-9.06392
▁уулз	-9.06458
▁байшин	-9.06501
▁залуус	-9.06578
▁ОХУ	-9.06586
▁хүнтэй	-9.06608
тар	-9.06688
▁давуу	-9.06861
▁гараад	-9.0687
▁бу	-9.0697
▁хөтөлбөр	-9.07057
▁явуулах	-9.0722
▁ирдэг	-9.07227
▁юмаа	-9.073
▁шар	-9.07467
▁22	-9.07475
ст	-9.07515
▁2018	-9.0754
▁соёл	-9.07578
йн	-9.07588
▁амьдардаг	-9.07592
өөд	-9.07621
▁ажилласан	-9.07817
уулсан	-9.07904
▁*	-9.08002
▁хангах	-9.08055
▁оршин	-9.08094
▁эрэгтэй	-9.08146
MN	-9.08195
маа	-9.08352
▁тав	-9.08356
▁тод	-9.08395
▁Гадаад	-9.08398
▁чадаагүй	-9.08507
▁яриад	-9.0857
le	-9.08595
дал	-9.08658
▁мод	-9.08707
▁ирнэ	-9.08837
лог	-9.08867
▁салбарын	-9.09055
джээ	-9.09065
▁арьс	-9.09108
Ж	-9.09204
▁дэлгүүр	-9.09261
▁үгийг	-9.09433
▁үйлдэл	-9.09449
▁бодох	-9.0949
▁Бат	-9.095
▁байгаагаа	-9.09516
▁сургалт	-9.09566
вол	-9.09604
▁биднийг	-9.0962
▁харсан	-9.09631
ган	-9.09652
▁жаргал	-9.0967
▁#	-9.09744
▁мэдээж	-9.09761
▁спорт	-9.09912
▁нөөц	-9.09939
▁Үндсэн	-9.10022
▁ойлгох	-9.10171
лагч	-9.10359
▁амжилттай	-9.10361
▁уулзалт	-9.10377
▁эзэн	-9.1039
▁дургүй	-9.1044
▁боломжийг	-9.10445
▁дэмжих	-9.10466
▁унших	-9.10467
▁зарна	-9.10521
▁хэрэгсэл	-9.10572
рай	-9.10594
▁2019	-9.10679
▁Өөрийн	-9.107
▁төлөвлөгөө	-9.10747
▁эсэх	-9.10791
▁үндэсний	-9.10803
▁блог	-9.10882
▁ойр	-9.11024
▁монголчууд	-9.11035
▁хаяг	-9.11052
ни	-9.11062
▁жаахан	-9.11134
▁чиг	-9.11193
лага	-9.11255
▁эгч	-9.11291
▁амиа	-9.11341
үүр	-9.11359
үй	-9.11393
▁архи	-9.11607
▁мэдрэмж	-9.11674
▁Гэсэ	-9.11697
▁хэв	-9.11704
Ө	-9.1187
▁бодсон	-9.11981
▁видео	-9.12007
▁|	-9.1201
ист	-9.12098
▁хороо	-9.12098
▁стандарт	-9.12119
▁Е	-9.12223
▁үнэтэй	-9.12315
▁ёсны	-9.12344
▁хэргийн	-9.12372
▁харагдаж	-9.12379
▁хялбар	-9.12385
ва	-9.12487
▁шөнө	-9.125
?"	-9.12503
ро	-9.12569
▁2015	-9.12573
шил	-9.1275
▁идэх	-9.12904
▁үлдсэн	-9.12905
▁нүд	-9.13024
▁ахуйн	-9.13127
▁дэмжлэг	-9.13143
▁хайж	-9.1316
▁нарт	-9.13175
▁амьдралд	-9.13221
чууд	-9.13324
▁бүтэн	-9.13358
▁өөрсдийн	-9.13369
▁сургуульд	-9.13413
▁хэсэгт	-9.13531
▁замын	-9.1359
▁Анх	-9.13635
f	-9.13737
ус	-9.13815
▁талд	-9.13891
▁хэрэгт	-9.13911
▁амьтан	-9.14067
▁ертөнц	-9.14073
▁хяналт	-9.14128
К	-9.14182
▁олгох	-9.14229
▁суу	-9.14276
▁өөрчлөх	-9.14375
▁Дэлхий	-9.14446
ян	-9.14449
ут	-9.14459
▁тэнгэр	-9.14613
▁гэрэл	-9.14697
▁дэд	-9.14721
▁гурав	-9.14763
▁удахгүй	-9.14833
Ш	-9.14985
▁гайх	-9.15066
▁эрчим	-9.1509
▁бэлтгэл	-9.15099
▁оор	-9.15174
▁бөмбөг	-9.15177
▁Бол	-9.15214
Эрдэнэ	-9.15216
гчид	-9.15255
дсан	-9.15256
▁K	-9.1526
▁3-	-9.15281
▁материал	-9.15364
гэр	-9.15417
▁Аав	-9.15868
▁Түүнчлэн	-9.15869
▁маргааш	-9.15871
▁хэмжээг	-9.15917
▁зээлийн	-9.15989
▁оос	-9.15993
▁цэргийн	-9.16101
▁харилцаа	-9.16106
▁Са	-9.16155
▁талбай	-9.16181
▁аварга	-9.16193
▁нэрийг	-9.16196
▁газраас	-9.16246
▁мах	-9.1627
▁Сан	-9.16327
гар	-9.16381
▁ярьсан	-9.16487
▁гарын	-9.16505
▁зуун	-9.16615
ed	-9.16629
▁сурвалж	-9.16684
▁арван	-9.16703
ги	-9.16772
▁шагнал	-9.16788
▁нохой	-9.17034
АН	-9.17078
▁цааш	-9.17101
▁хариуцлага	-9.17127
▁бал	-9.17194
вар	-9.17199
▁онцгой	-9.17269
▁ажиллагааг	-9.17336
▁дэмжиж	-9.17388
ек	-9.17428
их	-9.17474
▁ерөнхийлөгч	-9.17745
▁21	-9.17778
▁өдөрт	-9.17784
▁Өөр	-9.17875
▁царай	-9.17892
▁алдсан	-9.17894
▁охид	-9.17977
▁дүгнэлт	-9.18108
▁Бүгд	-9.18215
ио	-9.18259
▁эсэхийг	-9.18278
▁үх	-9.18303
▁бодис	-9.18392
▁зо	-9.18415
▁0	-9.18565
▁тоног	-9.18575
▁е	-9.18579
▁Ерөнхийлөгчийн	-9.18579
▁хүрээ	-9.18581
▁явц	-9.18614
▁яахав	-9.18615
▁То	-9.18682
▁сонгуулийн	-9.18685
▁ороод	-9.18727
▁хүсэж	-9.18786
▁тэдэнд	-9.18889
▁V	-9.18904
лыг	-9.18956
G	-9.19238
ic	-9.19273
▁2014	-9.19285
▁i	-9.19398
▁Америкийн	-9.19445
▁Магадгүй	-9.19448
▁тайлбар	-9.19532
▁Түүнээс	-9.19646
▁нарыг	-9.20267
▁итгэлтэй	-9.20391
▁дүнг	-9.20516
▁тави	-9.20518
▁жаргалтай	-9.20519
▁тос	-9.20534
В	-9.20588
▁аялал	-9.20635
▁чулуу	-9.20802
▁наад	-9.20811
▁Франц	-9.20855
▁томоохон	-9.20862
▁Ор	-9.2093
▁сонс	-9.20944
▁шаардлагагүй	-9.21013
▁чадсан	-9.21164
▁Өмнөх	-9.2123
дэл	-9.21268
▁хээ	-9.21315
▁60	-9.21342
▁очих	-9.21377
▁дүнд	-9.21538
▁дахиа	-9.21813
▁агаар	-9.21838
▁байранд	-9.21889
▁ёсоор	-9.21952
▁Ажлын	-9.22081
ѳ	-9.22307
лон	-9.22571
▁нэмэлт	-9.22575
ага	-9.22715
▁сав	-9.22775
▁1.	-9.22866
▁2008	-9.22963
▁алхам	-9.22981
▁ашигтай	-9.23045
▁Эсвэл	-9.2308
▁!!!	-9.23091
раа	-9.23144
▁шийд	-9.23166
▁тооцоо	-9.234
▁гээ	-9.23442
▁хүүхдээ	-9.23452
▁явуулж	-9.23464
▁багийн	-9.23509
▁олсон	-9.23559
▁шинжилгээ	-9.23572
▁хэлээд	-9.23679
▁амралт	-9.23696
маг	-9.2375
үүн	-9.23793
▁Хо	-9.2389
▁онлайн	-9.24035
тер	-9.24055
▁утга	-9.24089
▁урьд	-9.2422
▁сэдэв	-9.24324
▁талаас	-9.24379
▁баталгаа	-9.24438
▁гараа	-9.24464
▁Мөнгө	-9.24471
▁Энэтхэг	-9.24554
▁дэг	-9.24573
▁хо	-9.24581
ти	-9.24778
▁хагас	-9.2483
ё	-9.24941
ch	-9.24948
▁тээврийн	-9.2498
▁ирлээ	-9.25045
▁хямд	-9.25083
иг	-9.25118
лц	-9.25199
▁дай	-9.25214
чдын	-9.25219
et	-9.25316
▁хоолой	-9.25366
▁нууд	-9.25443
чихсан	-9.2546
us	-9.25509
▁шинээр	-9.25557
руу	-9.25749
▁дав	-9.25749
▁тээрэм	-9.25847
гуу	-9.25916
▁асуудлаар	-9.25965
▁Нөгөө	-9.25975
▁f	-9.26009
▁байгуулсан	-9.26016
▁уудыг	-9.26083
▁h	-9.26102
▁хэрэглэж	-9.26165
▁эхлэн	-9.2653
бал	-9.26622
гэн	-9.26738
▁но	-9.26842
▁дайн	-9.26958
▁тэмдэг	-9.27098
▁ажилтан	-9.2719
▁зохиол	-9.27308
▁бөх	-9.27343
гдсан	-9.27359
▁цэг	-9.27498
▁учиртай	-9.27587
▁амархан	-9.27744
▁түүнээс	-9.27758
▁сонгуульд	-9.27812
▁алт	-9.27817
жиг	-9.27928
V	-9.27933
андаа	-9.27978
▁шалга	-9.28068
▁хэвээр	-9.28069
▁Хө	-9.28098
▁уншиж	-9.28123
▁хурд	-9.28243
▁Ав	-9.28304
▁орнууд	-9.28396
▁хог	-9.2843
▁Ми	-9.2846
▁вакцин	-9.28571
▁түвшинд	-9.2862
▁Орон	-9.28657
▁бурхан	-9.28732
▁эрчүүд	-9.28773
▁тохиромжтой	-9.28966
▁баяртай	-9.29064
▁23	-9.2913
▁Аль	-9.2919
▁Эл	-9.29227
▁танай	-9.29283
▁Ингэснээр	-9.29502
▁холбогдох	-9.2951
▁төлбөр	-9.29623
▁замаар	-9.29741
▁хандаж	-9.29825
▁цахилгаан	-9.29895
▁өвчин	-9.30208
▁хэрэглээ	-9.30251
▁o	-9.30266
▁дөө	-9.30282
▁Үндэсний	-9.30295
▁тэн	-9.3032
АЛ	-9.30507
▁асар	-9.30623
▁ганцаараа	-9.30736
▁цагдаа	-9.30779
АА	-9.30888
▁хамтдаа	-9.31032
тэн	-9.31033
am	-9.31056
▁маяг	-9.3122
Бид	-9.31373
ay	-9.31409
▁гүн	-9.31422
йл	-9.31433
▁Ард	-9.31514
▁төлөх	-9.31524
▁Хүүхэд	-9.31572
▁цэвэр	-9.31576
ra	-9.31666
▁Хууль	-9.3171
▁мэдлэг	-9.31753
▁ка	-9.31959
▁бодоод	-9.32092
▁су	-9.32161
▁Хан	-9.32171
▁даяар	-9.32186
▁тоглож	-9.32345
▁сонсох	-9.32354
▁эрхийг	-9.32379
▁Хүүхдийн	-9.32395
▁яам	-9.32463
;	-9.32514
▁Төр	-9.32575
▁заяа	-9.32628
▁Солонгос	-9.32722
▁Жишээ	-9.32733
▁хорио	-9.32751
гоор	-9.32755
▁Нийслэл	-9.32788
энэ	-9.32847
▁ган	-9.32859
ынхаа	-9.32871
▁Ихэнх	-9.32873
▁r	-9.32875
▁Үнэ	-9.32899
▁үндэс	-9.32934
▁No	-9.32935
▁оролцоо	-9.32968
▁сууц	-9.32969
▁гарна	-9.33009
ro	-9.33026
▁зур	-9.33053
▁e	-9.33127
▁хөдөө	-9.33188
▁хийхэд	-9.33204
▁харахад	-9.33315
Ч	-9.334
▁бүртгэл	-9.3344
▁Өмнөд	-9.33441
▁тайван	-9.33471
▁сонгууль	-9.33556
▁зүйлээ	-9.3363
▁Америк	-9.33642
▁ангийн	-9.33677
▁агуу	-9.3382
▁ө	-9.33821
▁тэрбээр	-9.33836
▁Өдөр	-9.33869
▁Ур	-9.33877
▁шийдэх	-9.33891
▁муж	-9.33978
▁зургийг	-9.3399
▁эхэлж	-9.34061
▁оролцож	-9.34113
▁дотоод	-9.34211
▁татах	-9.3422
▁хэрэгцээ	-9.3426
▁дүрэм	-9.34318
▁ажигла	-9.34362
▁онцлог	-9.34417
▁оч	-9.34436
▁хандах	-9.34532
▁хая	-9.34556
▁эхэллээ	-9.34557
Бат	-9.34558
▁гэрийн	-9.34574
▁болгосон	-9.34578
F	-9.34604
▁2013	-9.34606
▁Ун	-9.34654
▁чиглэл	-9.34708
▁над	-9.34721
▁w	-9.34758
▁үзээрэй	-9.34825
▁эргэж	-9.3493
▁богино	-9.3495
▁зүйтэй	-9.35003
▁худлаа	-9.35116
▁банк	-9.3523
▁компьютер	-9.35372
мээр	-9.35398
▁Төв	-9.35467
▁зөвшөөрөл	-9.35522
▁Англи	-9.3554
▁зас	-9.35602
▁орд	-9.35707
▁цагдаагийн	-9.35749
▁оруулсан	-9.35749
▁байсныг	-9.35791
▁цаашид	-9.35849
▁хуур	-9.35871
▁зүгээс	-9.36005
>	-9.36014
▁дасгал	-9.36079
▁үүл	-9.36146
▁хүргэх	-9.36195
▁Нам	-9.36211
▁өмч	-9.36243
▁талын	-9.36252
el	-9.36258
дэж	-9.36277
▁өсөлт	-9.36364
▁бүхэнд	-9.36391
▁байгуулж	-9.36418
▁хэвлэл	-9.36423
▁зүү	-9.3657
оп	-9.36612
▁нийслэл	-9.36789
U	-9.36879
▁зардал	-9.36961
ми	-9.37148
Я	-9.37169
уй	-9.37239
▁хуучин	-9.3725
▁Зүгээр	-9.37362
▁харуул	-9.37504
▁ойлго	-9.37807
▁мэдэл	-9.37875
▁байнаа	-9.37879
▁мянга	-9.37966
▁Дээр	-9.37993
▁цэн	-9.38025
▁тэмцээн	-9.38039
▁санагддаг	-9.38082
гуй	-9.38127
▁ашигладаг	-9.38157
▁аливаа	-9.38227
▁эн	-9.38255
▁элс	-9.3832
▁Герман	-9.3836
▁уурхай	-9.38382
лд	-9.38439
▁орно	-9.38482
▁26	-9.38484
▁тэ	-9.38494
▁Европ	-9.38536
▁80	-9.38593
инг	-9.38597
▁дүүрэн	-9.3868
▁эмээ	-9.38708
▁үзүүлэлт	-9.3874
▁хөх	-9.38755
▁Ма	-9.38781
▁уулзах	-9.38811
ум	-9.38948
▁На	-9.39131
▁оруул	-9.39226
от	-9.39275
ма	-9.39278
▁ду	-9.39403
▁ханд	-9.39444
▁сал	-9.39455
лээд	-9.39531
▁газрууд	-9.39539
▁Ли	-9.39559
▁Да	-9.39592
▁үзнэ	-9.39657
ing	-9.39699
▁чиглэлээр	-9.39757
▁шалгах	-9.39789
▁хариулт	-9.39925
▁дүнтэй	-9.39974
▁Есүс	-9.39979
▁Бо	-9.3998
▁жагсаалт	-9.40058
▁нэмэгд	-9.40095
▁орлого	-9.40142
гээд	-9.40153
▁өн	-9.40157
▁чаддаггүй	-9.40174
ot	-9.40178
мн	-9.40194
▁порно	-9.40282
▁Одоогоо	-9.40356
▁хэвийн	-9.40392
▁Бай	-9.40418
▁хувийг	-9.40424
▁зориулж	-9.40507
▁биеэ	-9.4055
▁нэртэй	-9.40614
▁Тэгэх	-9.40618
ээсээ	-9.40741
▁заалт	-9.4095
▁Хүү	-9.40956
▁эрсдэл	-9.40957
▁хэлний	-9.41007
▁доош	-9.41011
▁Тэнд	-9.41075
▁нэгдсэн	-9.41098
▁Y	-9.41126
▁нээлттэй	-9.41131
лол	-9.41138
Е	-9.41183
▁хэргийг	-9.41219
▁алдах	-9.41228
▁итгэж	-9.41255
▁одоогийн	-9.41296
▁цус	-9.41398
▁болоогүй	-9.41549
▁нөхөд	-9.41551
▁Өглөө	-9.4162
▁хур	-9.41628
▁унт	-9.41665
▁Эрүү	-9.41682
▁ухааны	-9.41689
▁этгээд	-9.41696
▁орос	-9.41883
▁эцэст	-9.4191
▁хараа	-9.41915
аргыг	-9.41938
▁секс	-9.4197
лэлт	-9.42188
▁Өнөөдр	-9.42218
▁хятад	-9.42266
▁урьдчилан	-9.42367
▁2011	-9.4238
тайгаа	-9.42513
▁оролцсон	-9.42541
▁орхи	-9.42613
▁Су	-9.42634
▁алдартай	-9.42662
▁Холбоо	-9.42669
▁ихэвчлэн	-9.42676
▁зорилгоор	-9.42684
▁технологий	-9.4285
▁хүргэе	-9.42853
▁ганцхан	-9.429
▁хязгаар	-9.43002
▁Ганц	-9.43078
▁Том	-9.43106
мб	-9.4317
чилж	-9.43197
аш	-9.43274
▁утгаар	-9.43386
▁эрхтэй	-9.43406
▁цагаа	-9.43448
▁гэ	-9.43466
▁гэм	-9.43555
▁итгэ	-9.43568
▁бэлэг	-9.436
▁Бага	-9.43629
▁анхаарах	-9.43643
▁хаалга	-9.43681
▁англи	-9.43694
илж	-9.43707
▁чанартай	-9.43741
▁номын	-9.43833
▁шийдвэрлэх	-9.43838
▁27	-9.43845
▁тогтоол	-9.43921
▁Жил	-9.44021
▁ХХК	-9.44041
тэл	-9.44128
▁бодлоо	-9.44143
▁Өмнө	-9.44195
дугаар	-9.44309
▁дэлгэрэнгүй	-9.44349
▁данс	-9.44378
▁тогтоох	-9.44403
▁ас	-9.44425
▁технологи	-9.44473
▁халуун	-9.44509
▁нуу	-9.44521
аз	-9.44531
▁тэргүүн	-9.44579
өв	-9.44714
▁үзэсгэлэн	-9.44748
▁БНХАУ	-9.44811
▁нэмж	-9.4491
▁Нийт	-9.44989
▁байлгүй	-9.45001
▁шил	-9.45016
▁үнэлгээ	-9.45122
▁журам	-9.4513
▁хамгаалалт	-9.45145
▁сайдын	-9.45147
th	-9.45235
▁зориул	-9.45508
▁төрх	-9.45531
▁дүгээр	-9.45574
Монгол	-9.45675
▁28	-9.45733
▁$	-9.45794
▁мөч	-9.45886
▁урд	-9.45914
▁агаарын	-9.46024
▁боловсруулах	-9.46025
гаас	-9.46033
▁гэнэт	-9.46078
▁Ам	-9.46086
▁тогтвортой	-9.46097
▁баруун	-9.46153
▁чадвартай	-9.46235
▁худал	-9.46261
▁байгуул	-9.4643
▁то	-9.465
▁эцсийн	-9.46527
▁хэмээх	-9.46688
▁үнэндээ	-9.46707
▁ма	-9.46749
▁тэмцэх	-9.46872
ок	-9.4696
▁Дараагийн	-9.47018
▁зөрчил	-9.47025
▁хав	-9.47073
▁ердөө	-9.47171
▁зургаан	-9.47178
▁барилга	-9.47227
▁ну	-9.47251
▁хуулийг	-9.47325
▁Хэрэг	-9.47326
ель	-9.47396
▁хаанаас	-9.47425
▁сум	-9.47434
Чи	-9.47442
▁тайгаа	-9.47481
▁хөгжүүлэх	-9.47516
хоо	-9.47601
▁олны	-9.47633
▁санаж	-9.47657
▁дан	-9.47672
шгүй	-9.47688
▁Гол	-9.47714
▁хүсэлт	-9.47746
▁надаас	-9.47775
▁НҮБ	-9.47794
▁Үнэхээр	-9.47798
▁тан	-9.47801
▁сэргээ	-9.47862
ээрэй	-9.47918
▁Танд	-9.47989
▁хувиар	-9.47989
▁сайжруулах	-9.48022
▁үйлчилгээний	-9.48068
▁сэн	-9.48135
ья	-9.48195
▁хоёрын	-9.48214
▁ажиллана	-9.48218
▁дарж	-9.48284
▁90	-9.48315
▁засвар	-9.48394
▁ярь	-9.484
▁Ном	-9.48405
лөг	-9.4844
▁тээ	-9.48505
▁нөхцөлд	-9.4862
▁дууд	-9.48677
▁жолооч	-9.48739
▁асуудлууд	-9.48755
▁юмуу	-9.48865
агдах	-9.49083
▁байлгах	-9.49111
▁дэргэд	-9.49239
▁ховор	-9.49239
un	-9.49318
▁аюул	-9.49358
▁явуул	-9.49432
рэх	-9.49453
▁талаарх	-9.49488
▁илэрхийл	-9.49495
раг	-9.49523
▁па	-9.49547
▁Нар	-9.49603
▁иргэний	-9.4963
▁ханга	-9.49673
▁муухай	-9.49796
▁уудын	-9.49856
▁тас	-9.49881
▁нүүрс	-9.49905
H	-9.49935
▁март	-9.49946
▁ашиглан	-9.50013
▁аргаар	-9.50029
▁сүүлд	-9.50103
es	-9.50105
▁хон	-9.5011
▁мэдсэн	-9.50117
▁гаргадаг	-9.50152
▁X	-9.50162
▁харагдах	-9.50194
▁сон	-9.50215
▁зуур	-9.50252
▁Залуу	-9.50367
▁тутмын	-9.50377
▁Бие	-9.50452
нүүд	-9.50568
▁нэм	-9.50639
▁биеийн	-9.50643
гууд	-9.50676
▁зөвлөл	-9.50678
▁хангамж	-9.50717
▁туршлага	-9.50721
▁мөнгийг	-9.5083
▁байгууллагууд	-9.50839
▁цол	-9.50945
▁Цагаан	-9.51038
ad	-9.51075
▁бөө	-9.51115
▁тат	-9.51126
ац	-9.51225
ur	-9.5123
▁сурч	-9.51268
▁хүсье	-9.51369
▁бусдад	-9.51375
▁идэж	-9.51488
гаад	-9.51495
▁Ган	-9.51521
▁цаана	-9.51522
▁цар	-9.51657
▁сонирхол	-9.51659
▁даргын	-9.51713
мо	-9.51724
▁байгаль	-9.51724
▁сэтгэгдэл	-9.5186
ri	-9.51962
▁улсууд	-9.52044
▁мөнгөө	-9.52081
▁файл	-9.52194
вч	-9.52197
ласан	-9.52231
▁x	-9.52254
▁ажиллагаанд	-9.5235
▁найзууд	-9.5241
▁байгаарай	-9.52414
▁одоогоор	-9.5246
▁Уул	-9.52481
▁эмчилгээ	-9.52581
▁суулга	-9.52616
▁дут	-9.5266
▁сумын	-9.52662
▁яасан	-9.52713
▁хэлэв	-9.52751
▁төлөв	-9.52829
мэл	-9.52983
▁Сая	-9.52984
▁Ко	-9.5299
▁өргө	-9.53018
▁дугуй	-9.53038
снаар	-9.53043
чиг	-9.53077
▁алх	-9.53119
▁4-	-9.53194
▁сурга	-9.53215
▁буц	-9.5335
▁бэлтгэ	-9.53545
▁товч	-9.53546
▁хэллээ	-9.5355
▁зүүн	-9.53609
▁цор	-9.53647
аль	-9.53718
▁өрөөнд	-9.53718
▁хойно	-9.53739
▁сэр	-9.53754
▁боловсрол	-9.53786
▁шоу	-9.53895
▁тайлан	-9.54074
уд	-9.54086
▁Амьдрал	-9.54137
жих	-9.54174
▁10-	-9.54187
▁хүүхэдтэй	-9.54218
▁Тухайлбал	-9.54381
▁хамгаал	-9.54382
▁гаа	-9.54522
▁мэргэжил	-9.54536
▁зал	-9.54558
▁Баяр	-9.54588
ем	-9.54605
▁цөөн	-9.54694
▁найдаж	-9.54743
▁хөгжим	-9.54909
▁Га	-9.55002
гддаг	-9.55022
▁болзошгүй	-9.55064
ter	-9.55098
▁аараа	-9.5511
▁үлдээ	-9.55117
ая	-9.5523
▁өд	-9.55237
▁улаан	-9.5524
▁хэрэглэдэг	-9.55307
▁шдээ	-9.55353
хий	-9.55388
▁5-	-9.55459
▁лаг	-9.55511
is	-9.55539
▁гуай	-9.55618
▁өгөхгүй	-9.55668
лалт	-9.55676
▁зургаа	-9.55702
▁туршилт	-9.55783
▁гүйцэтгэх	-9.5581
▁зогсоо	-9.55816
▁хэмжээгээр	-9.55893
▁бизнесийн	-9.55925
▁Засаг	-9.55925
▁сүр	-9.56043
▁газрыг	-9.56098
▁хураа	-9.56129
▁шинжлэх	-9.56161
▁дагаж	-9.56179
▁хямрал	-9.56271
▁болгодог	-9.56303
▁үйлчилгээг	-9.56311
▁Эрх	-9.56388
▁асуу	-9.56409
▁Ман	-9.56421
▁Хамт	-9.56451
▁Эхний	-9.56484
▁сүм	-9.56498
ван	-9.56551
▁дотроо	-9.56565
▁хэрэв	-9.56567
▁бүсгүйчүүд	-9.56637
▁хугацааг	-9.56726
▁Сур	-9.568
▁хичээ	-9.56809
▁шалгаж	-9.56822
▁сонссон	-9.5688
▁болго	-9.56936
▁зааж	-9.56943
▁Ингэх	-9.56969
▁өнгөрөө	-9.5697
▁худалдааны	-9.56988
▁яда	-9.57003
▁тө	-9.57088
▁үүр	-9.57135
▁төсвийн	-9.57154
▁Ша	-9.57169
▁со	-9.57255
▁вирус	-9.57317
▁хурал	-9.57318
▁дуусах	-9.5732
▁хориг	-9.57324
▁ахуй	-9.57351
▁ин	-9.57359
▁орчинд	-9.5739
▁болчих	-9.57505
▁замыг	-9.57531
▁өмнөөс	-9.57671
▁дүрс	-9.57673
жил	-9.57676
▁70	-9.57739
▁Ай	-9.57841
▁чуулган	-9.5792
▁хадгалах	-9.5795
▁чанарын	-9.57992
▁ордог	-9.58017
▁оюутнууд	-9.58021
▁2009	-9.58044
▁хэлэлцэх	-9.58051
Энхболд	-9.58254
▁залуучууд	-9.58257
▁ов	-9.58264
▁Үүнд	-9.58296
▁Японы	-9.58362
▁Эмэгтэй	-9.58369
▁[...]	-9.58375
▁хөөрхөн	-9.58379
▁го	-9.58571
▁очоод	-9.58573
гаараа	-9.58605
▁үүнд	-9.58749
▁шал	-9.58862
▁сэргийлэх	-9.5893
▁сөрөг	-9.58976
лсан	-9.59044
хад	-9.59064
▁Бүр	-9.59072
▁газраа	-9.5922
▁Хий	-9.59256
▁шашин	-9.59264
▁болчихсон	-9.59327
▁сонго	-9.59331
▁нийтэд	-9.59424
▁хоорондоо	-9.59456
▁сэтгүүл	-9.5951
▁иргэдэд	-9.59529
▁му	-9.59563
▁авалт	-9.59574
▁Африк	-9.59622
▁2010	-9.59641
▁ярилцлага	-9.59644
▁бэрхшээл	-9.5977
▁тамхи	-9.59816
▁чанга	-9.5983
▁асууж	-9.59861
▁аваарай	-9.59869
▁тэгш	-9.60017
▁Ши	-9.60098
▁3.	-9.60135
▁босго	-9.60149
▁нээх	-9.60151
▁цэцэг	-9.60162
АЙ	-9.60199
▁зовлон	-9.60237
▁үсэг	-9.60256
▁юуг	-9.60263
▁уй	-9.60307
▁үлгэр	-9.60382
▁зэ	-9.604
▁дэлхийд	-9.60432
▁дандаа	-9.60481
▁дуусга	-9.60495
▁хүлээх	-9.60506
▁нэгж	-9.60618
▁хэрэгжүүлж	-9.60645
▁хоолны	-9.60695
▁Чиний	-9.60699
▁Хэл	-9.60723
▁түрүүнд	-9.60773
▁унш	-9.60782
▁өдрүүдэд	-9.608
▁цагаар	-9.6082
бэ	-9.60857
▁ес	-9.60943
▁аюултай	-9.60993
▁Дараах	-9.61039
чнээн	-9.61065
▁хамтын	-9.61119
▁хөгжил	-9.61136
рэн	-9.61234
▁байгуулагдсан	-9.6127
▁тойр	-9.61366
▁тараа	-9.61382
▁үзүүлж	-9.61406
▁ойлгомжтой	-9.61432
▁хүүхдэд	-9.61432
▁усны	-9.61552
▁заримдаа	-9.61623
▁хүнсний	-9.61626
▁гомдол	-9.61658
▁иймэрхүү	-9.61662
дэн	-9.61668
▁очсон	-9.61695
мал	-9.61764
▁нэгдүгээр	-9.61807
▁орноо	-9.61892
▁хийхгүй	-9.61965
да	-9.61971
▁автобус	-9.61982
▁са	-9.61986
▁заасан	-9.61986
▁ойлгодог	-9.62023
▁эхэлнэ	-9.62025
▁тохио	-9.62066
z	-9.62088
▁байгалийн	-9.62166
▁Бусд	-9.62359
▁байхаа	-9.6236
▁амьсгал	-9.62375
▁ажилла	-9.62534
▁Сайхан	-9.62535
▁үзээгүй	-9.62538
▁санагдаж	-9.62561
▁албаны	-9.62626
▁in	-9.62758
▁уулзаж	-9.62785
▁ул	-9.62809
▁маргаан	-9.62849
▁Хүүхдүүд	-9.62904
▁өдрийг	-9.62906
▁лаа	-9.62907
▁нэмэх	-9.62961
▁Гэ	-9.62966
▁харагддаг	-9.62966
▁хэлээр	-9.62984
▁хас	-9.62986
▁орондоо	-9.63019
▁холбооны	-9.63034
Миний	-9.63067
▁эргэ	-9.6311
▁ялгаа	-9.63121
▁дамжуулан	-9.63137
▁авлаа	-9.6317
▁Сар	-9.63176
▁Өөрийг	-9.63181
▁машины	-9.63183
▁Маш	-9.63188
▁сүлжээ	-9.63216
▁устга	-9.63239
эт	-9.63266
▁зүйлд	-9.63274
лүүд	-9.63277
▁анд	-9.63479
▁үйлдвэрийн	-9.63507
▁болоо	-9.63509
өм	-9.63632
▁Ардчилсан	-9.63649
▁хэтэрхий	-9.63667
▁дэ	-9.63701
il	-9.63802
▁гэрт	-9.63864
▁Со	-9.63936
▁ханш	-9.63987
▁хам	-9.64022
▁үлдэх	-9.64025
ки	-9.64137
▁бүхний	-9.6416
жи	-9.64202
▁хос	-9.64343
▁цэцэрлэг	-9.64353
▁брэнд	-9.64401
▁хад	-9.64423
▁Сэтгэл	-9.64436
▁хэдийн	-9.64472
▁дэлгэц	-9.64475
▁хэнд	-9.64505
▁нийгэм	-9.64527
▁ү	-9.64573
▁оюутан	-9.64587
▁ширхэг	-9.64587
оороо	-9.64682
lo	-9.64688
▁Гал	-9.64728
▁байхаар	-9.6485
▁хуралдаан	-9.64972
▁хуралд	-9.64977
▁ядаж	-9.6504
▁бусдын	-9.65064
▁Ин	-9.65093
▁итгэх	-9.65117
▁зарчим	-9.65154
Й	-9.65165
▁>	-9.65222
▁асуудалд	-9.65268
▁хандлага	-9.65308
▁эргээд	-9.6531
▁шийдсэн	-9.65314
▁Харамсал	-9.65344
as	-9.65477
▁хэхэ	-9.65485
▁Одоогийн	-9.65487
кс	-9.65494
'	-9.65529
▁Иргэд	-9.65592
▁үгс	-9.65734
▁амьдралыг	-9.65779
▁дава	-9.65855
▁Ялангуяа	-9.65915
▁Хойд	-9.6592
▁гадаадын	-9.65924
▁сор	-9.65977
вэр	-9.66021
▁төсөв	-9.66084
▁эерэг	-9.66106
▁уралдаан	-9.66126
▁санах	-9.66153
▁цагаас	-9.66156
▁дуул	-9.66174
ce	-9.66213
▁Эзэн	-9.66298
▁сонсож	-9.66298
лэж	-9.66305
▁дарамт	-9.66491
▁үйлдвэрлэл	-9.66491
сныг	-9.66506
▁өссөн	-9.66512
▁дайр	-9.66564
▁уруу	-9.66583
▁эг	-9.66614
▁хоёрдугаар	-9.66638
▁үүссэн	-9.66689
▁үүнээс	-9.6671
▁сонгосон	-9.66746
▁Үр	-9.66813
▁судалгааны	-9.66827
▁Мо	-9.66839
▁яри	-9.6686
▁төслийг	-9.66875
▁саар	-9.67091
хөө	-9.67105
▁мөнгөний	-9.67139
▁мэдэгдэл	-9.67158
тнууд	-9.67173
▁саад	-9.67215
▁&	-9.67265
ингээд	-9.67269
руулах	-9.67307
▁сэтгүүлч	-9.67316
▁эрч	-9.67412
▁уух	-9.6742
ЭР	-9.67428
▁бүтээгдэхүүний	-9.67431
▁зайлшгүй	-9.6746
▁нийгэмд	-9.67485
▁бутлуурын	-9.67513
▁итгэдэг	-9.67544
▁карт	-9.67624
▁сэтгэлийн	-9.67682
▁Ирэх	-9.67713
ҮҮ	-9.67739
▁зориг	-9.6781
▁утасны	-9.67922
▁өөрсдийгөө	-9.68039
▁цуврал	-9.68043
▁айх	-9.6818
▁хэрэглэгч	-9.68253
эндээ	-9.68256
лэсэн	-9.68263
цгаая	-9.68269
▁хяналтын	-9.68283
▁цац	-9.68419
▁ёсгүй	-9.68429
▁оюун	-9.68439
▁уучлал	-9.6853
ваа	-9.68552
▁хөдөлмөр	-9.68635
▁зорилт	-9.68688
хир	-9.68709
▁Эм	-9.68755
▁Түүнд	-9.68826
тон	-9.68891
▁Бар	-9.68894
▁ярилц	-9.68958
▁хадгал	-9.69018
▁хамтлаг	-9.69102
арсан	-9.69158
▁200	-9.69185
ia	-9.69208
▁үндэслэл	-9.6924
▁зууны	-9.69315
▁эрхийн	-9.69321
▁тэмцээнд	-9.69475
▁төлөвлөж	-9.69534
▁явчих	-9.69536
▁урлаг	-9.69591
▁сүй	-9.69617
▁бо	-9.6965
▁манайд	-9.69718
▁саналаа	-9.69728
▁өнөөгийн	-9.69747
▁Ро	-9.69787
▁эмнэлгийн	-9.6981
баатар	-9.69814
▁хэсгийг	-9.69815
▁бос	-9.69823
▁Танай	-9.69916
ir	-9.69926
▁бодлогын	-9.70009
▁Найз	-9.70009
▁шугам	-9.7001
▁сахи	-9.7001
лдаг	-9.70117
▁банкны	-9.70124
▁зээлд	-9.70168
ент	-9.7023
▁гарт	-9.70309
ев	-9.70347
▁хүрээлэн	-9.70439
▁гү	-9.70451
▁шатны	-9.70494
▁төмөр	-9.70608
▁харилцан	-9.70608
▁зөндөө	-9.70615
▁News	-9.70615
▁тогтмол	-9.7062
▁ихээр	-9.70654
▁Багш	-9.70682
▁баян	-9.70736
ре	-9.70739
▁тог	-9.70755
▁засах	-9.70759
▁хийлээ	-9.70783
▁цонх	-9.7084
▁тогтоо	-9.70962
▁айж	-9.71043
▁суралцах	-9.7109
▁бууруулах	-9.71103
▁наадам	-9.71129
▁ачаа	-9.71134
▁код	-9.71275
▁Хоол	-9.71306
үн	-9.71314
▁тогтолцоо	-9.71357
▁аасаа	-9.7146
уулга	-9.71461
▁нэ	-9.71508
▁хэвт	-9.71593
▁урсгал	-9.71604
▁харьцуул	-9.71619
▁хөгжилтэй	-9.71653
▁киноны	-9.7167
▁нэн	-9.7167
▁<	-9.71751
▁k	-9.71757
▁ни	-9.71785
▁Ла	-9.71804
▁өгөөч	-9.71817
▁дүүргийн	-9.71818
▁on	-9.71861
▁бул	-9.71962
▁хөнд	-9.71985
▁буур	-9.71997
▁Зураг	-9.72019
▁жүжигчин	-9.72035
▁байрны	-9.72049
▁Дээрх	-9.72054
▁Нэр	-9.72065
▁Гу	-9.72086
▁барсан	-9.72097
Таны	-9.72104
:00	-9.72126
▁вий	-9.72157
▁эз	-9.7218
▁байрлал	-9.722
▁цом	-9.72203
▁зүтгэ	-9.72223
нөөс	-9.72297
▁илрүүл	-9.72324
▁гарга	-9.72332
▁байгуулалт	-9.72361
▁Ю	-9.7239
▁төрд	-9.7241
▁асуух	-9.72415
▁удирдлага	-9.72441
эдийгээр	-9.72531
▁инээ	-9.7263
▁дэндүү	-9.72631
члэн	-9.72636
▁даруй	-9.72649
▁үнэр	-9.72753
▁нисэх	-9.72784
▁хорооны	-9.72833
▁танхим	-9.72835
дар	-9.73038
▁луу	-9.73041
Манай	-9.73096
▁туршлагатай	-9.73157
▁үзүүл	-9.73173
▁29	-9.73223
▁холбогд	-9.73228
K	-9.73302
▁198	-9.73382
тгэл	-9.73395
▁эрс	-9.73409
▁хардаг	-9.73437
▁Нас	-9.73473
▁бү	-9.735
▁Аз	-9.73507
дсон	-9.73556
▁чууд	-9.73562
▁хашаа	-9.73599
▁ихээхэн	-9.73659
Энхбаяр	-9.73719
▁бүтээсэн	-9.73744
▁зүйлийн	-9.73835
▁хувьцаа	-9.73852
▁нэмэгдүүлэх	-9.73887
oo	-9.73904
▁хажууд	-9.73933
▁хүнс	-9.73988
АМ	-9.73988
▁хэлнэ	-9.74028
▁байнгын	-9.74073
▁ядуу	-9.74075
▁Дуу	-9.74082
▁Над	-9.74097
▁болдоггүй	-9.7414
▁Кар	-9.74183
▁алдаж	-9.74204
▁to	-9.74246
▁Эцэг	-9.74278
▁хуульд	-9.74332
▁илэрхийлж	-9.74334
▁холбогдсон	-9.74339
▁амын	-9.74404
▁Ах	-9.74436
▁харуулах	-9.74468
▁дөнгөж	-9.74486
▁цэрэг	-9.74489
▁тусга	-9.74495
▁найман	-9.7452
бар	-9.74553
▁зүйлсийг	-9.74673
▁хүнээс	-9.74681
▁давта	-9.74692
▁зэвсэг	-9.74694
▁Газар	-9.74694
▁хүйтэн	-9.74755
▁чөлөөтэй	-9.74812
▁тусгаарла	-9.74874
▁надтай	-9.74883
▁ялангуяа	-9.74903
чүүд	-9.74923
шин	-9.74966
▁Иймд	-9.75041
▁уд	-9.75045
▁Хэзээ	-9.75112
▁галзуу	-9.75114
▁авахгүй	-9.75161
▁нэмэр	-9.75168
▁бороо	-9.75187
▁35	-9.75346
▁өнөөдрийн	-9.75376
▁тухайд	-9.75455
▁Үүн	-9.75456
▁доор	-9.75478
▁ажилдаа	-9.75506
▁барилгын	-9.75511
▁бүгдээрээ	-9.75609
лэгч	-9.7561
▁ирээдүй	-9.75616
▁зуу	-9.75692
▁МАХН	-9.75742
алж	-9.75829
▁ажилтнууд	-9.75834
▁мэддэггүй	-9.75842
▁сануул	-9.75855
▁хулгай	-9.75924
▁Улсад	-9.75932
▁өчигдөр	-9.75953
▁виз	-9.75975
▁харуулж	-9.76022
▁явцад	-9.76071
▁нунтаг	-9.76112
▁4.	-9.76196
эгдсэн	-9.76239
▁Эхнэр	-9.76378
▁цоо	-9.76432
▁+	-9.7655
▁мөнгөн	-9.76555
▁ойролцоо	-9.7658
▁ух	-9.76641
▁үзээд	-9.76711
▁хийхийг	-9.76789
▁бүтээх	-9.76798
▁идэвхтэй	-9.76802
эгдэж	-9.76813
▁болтол	-9.7682
оль	-9.7682
▁өдрүүд	-9.76903
лав	-9.76904
өрөг	-9.76935
тнүүд	-9.76953
▁наадмы	-9.76978
аб	-9.76979
изм	-9.77001
▁яаралтай	-9.77015
▁Канад	-9.77023
▁өл	-9.7704
▁эмнэлэгт	-9.77143
▁насанд	-9.77145
▁зогсоох	-9.77162
▁зорилготой	-9.77177
▁саван	-9.77256
дох	-9.7726
▁барьсан	-9.77265
▁баярын	-9.77275
▁өгөөд	-9.77278
АХ	-9.77282
▁осол	-9.77301
П	-9.77313
▁энх	-9.77341
▁гарц	-9.77418
▁1000	-9.77427
▁бүрэлдэхүүн	-9.77443
▁Шүүх	-9.77444
▁хэлэлцээр	-9.77461
▁далд	-9.77479
▁өрх	-9.7749
▁дутуу	-9.77506
▁төлөөлөгч	-9.77515
▁эндээс	-9.77551
▁бичгийн	-9.77578
▁мундаг	-9.77659
▁500	-9.77673
▁ийнхүү	-9.77761
▁мэдэгдсэн	-9.77767
▁сэл	-9.77897
▁илгээ	-9.77908
▁тогтоосон	-9.77936
кт	-9.77993
▁Өөрөө	-9.7802
▁шаха	-9.78021
▁болохоос	-9.78065
▁хүүхдийг	-9.78088
▁байлга	-9.78097
▁хүсвэл	-9.78098
▁цаас	-9.78124
▁хуваалц	-9.78166
▁багтаа	-9.78166
▁шд	-9.78242
▁хаагч	-9.78459
▁шийдэл	-9.78504
▁Мар	-9.78507
▁юунд	-9.78533
▁нислэг	-9.78537
▁гаргаад	-9.7859
▁соли	-9.78613
▁удаад	-9.78618
▁наас	-9.78645
▁удирдах	-9.78812
▁улиралд	-9.78817
▁идэвх	-9.78864
▁Бизнес	-9.78955
ut	-9.79028
▁найр	-9.79047
!!!	-9.7909
▁Ус	-9.79107
▁Наад	-9.79124
▁Яа	-9.79134
▁зургууд	-9.79186
жиж	-9.79253
▁ихтэй	-9.79271
▁хэлбэрээр	-9.79276
·	-9.7928
▁өөрт	-9.7935
▁суудал	-9.79415
▁хүрэхгүй	-9.7942
▁жилүүдэд	-9.79442
баяр	-9.79502
▁7-	-9.79519
▁Жи	-9.79546
▁авто	-9.79556
ul	-9.79559
▁төслийн	-9.7961
▁зохицуул	-9.79699
▁=	-9.7973
▁бүтээлч	-9.79803
ag	-9.79807
▁лам	-9.7981
▁ухаалаг	-9.79829
хөн	-9.79892
гуул	-9.79957
▁тохируул	-9.79964
▁Тэдгээр	-9.79983
▁салхи	-9.80001
▁зүүд	-9.80003
▁нойр	-9.80051
▁маск	-9.80054
▁угаах	-9.80119
▁тэйгээ	-9.80156
▁тэдгээр	-9.8017
▁Хэдэ	-9.80221
▁үзвэл	-9.80331
▁морь	-9.80337
▁Хү	-9.80369
▁цөм	-9.80569
▁ко	-9.80578
▁дэглэм	-9.80711
ЭЭ	-9.80744
▁ня	-9.80745
УУ	-9.80754
▁буцаж	-9.8076
ес	-9.8077
▁u	-9.80787
▁ялгаатай	-9.80799
▁буцах	-9.80852
өнө	-9.80898
лгүй	-9.80903
▁бодлоор	-9.80911
▁дууссан	-9.8093
▁өвчний	-9.80935
▁гадны	-9.80959
▁эрхэм	-9.80963
▁Охин	-9.80978
▁суугаа	-9.80984
▁төсөөл	-9.80993
▁эмнэлэг	-9.81021
екс	-9.81038
▁гарахгүй	-9.81049
жилт	-9.81098
▁байгууллагад	-9.811
өөсөө	-9.81134
ЭН	-9.81208
▁нд	-9.81256
дорж	-9.81302
▁хүүхэн	-9.81303
ОР	-9.81366
▁тэв	-9.81369
▁АТГ	-9.81378
▁хэсгийн	-9.8141
▁магадлалтай	-9.81607
▁боловсролын	-9.8165
▁дайны	-9.81803
▁хоосон	-9.81878
▁6-	-9.81878
▁зов	-9.81893
▁тусгаар	-9.81901
▁буулга	-9.81973
▁манайх	-9.82022
▁ногоон	-9.82043
▁Үгүй	-9.82047
члал	-9.82057
▁y	-9.82104
▁хааны	-9.82107
▁эхчүүд	-9.8211
▁ангид	-9.82137
▁хөлбөмбөг	-9.82274
лагдсан	-9.82275
▁амин	-9.82289
▁авахад	-9.82306
ед	-9.82375
Хүрэлсүх	-9.82411
▁тү	-9.82421
▁буд	-9.82474
▁өөрчилж	-9.82534
▁гарлаа	-9.82588
▁булан	-9.82641
▁баатар	-9.82689
▁халамж	-9.82727
▁дурдсан	-9.82763
▁дууг	-9.82776
▁Зүүн	-9.82808
▁Жа	-9.82832
▁мөнгөөр	-9.82835
▁хугацаагаар	-9.82853
▁тэгэх	-9.8287
▁төрж	-9.82947
▁санхүүжилт	-9.82954
▁олгодог	-9.82974
▁Си	-9.83204
▁зугаа	-9.83227
▁дулаан	-9.83287
▁болоход	-9.83314
▁оролд	-9.83369
▁баялаг	-9.83405
▁цуглуул	-9.8347
ОН	-9.83582
▁ашигласан	-9.83591
ЭЛ	-9.83595
▁өнөө	-9.83619
▁vv	-9.83623
▁саяхан	-9.8363
▁дагуул	-9.83654
▁сургалтын	-9.83751
рэг	-9.83753
▁Заримдаа	-9.8388
▁гараг	-9.83905
▁Зөв	-9.83913
▁дээрээс	-9.83923
▁хувир	-9.83933
▁нүүд	-9.83939
▁ойлгосон	-9.83957
▁дэмж	-9.84023
▁мэ	-9.84082
▁сайхны	-9.84176
▁техник	-9.84269
▁сонгож	-9.84327
▁хэ	-9.84328
▁онцлов	-9.84359
▁196	-9.84377
▁анхаарлаа	-9.84396
▁тодорхойлох	-9.84407
▁зовоо	-9.8441
▁хайрла	-9.84421
▁орчуул	-9.8445
▁түүнтэй	-9.84614
▁чада	-9.84674
▁тур	-9.84695
▁танилц	-9.84698
▁иргэдийг	-9.84704
ип	-9.84734
▁шоронд	-9.84739
▁дурла	-9.84749
▁хөрш	-9.84782
▁асуудлаа	-9.84799
▁унага	-9.84831
▁~	-9.84927
▁удирдагч	-9.84979
▁Британи	-9.84998
▁байтугай	-9.8501
▁ээлжит	-9.85031
▁Үйл	-9.85045
▁хоно	-9.85078
▁зохио	-9.85093
▁үхэх	-9.85109
▁захирал	-9.85117
▁ялга	-9.85118
▁тоглогч	-9.85142
▁салга	-9.85174
соор	-9.85196
▁2000	-9.8521
▁засаглал	-9.85295
▁таатай	-9.85303
лөн	-9.85324
▁хүсэхгүй	-9.8535
▁цас	-9.85394
▁Тэ	-9.85394
▁хэвээрээ	-9.85438
▁танилцуул	-9.85452
нийхээ	-9.85537
▁төгсгөл	-9.85625
▁сангийн	-9.85634
▁Хи	-9.85639
▁Турк	-9.85707
▁Ойр	-9.85924
▁Re	-9.85936
▁дуудлага	-9.8598
▁хүмүүстэй	-9.86005
▁байдалтай	-9.86007
▁орнуудын	-9.86038
▁er	-9.86052
▁хөдлөх	-9.86063
▁араас	-9.86072
▁тэрэг	-9.86138
оосоо	-9.86162
▁хохир	-9.86211
▁хуулиар	-9.86363
▁тор	-9.8639
▁хулгайч	-9.86403
▁St	-9.86415
гдэх	-9.86454
▁шаард	-9.86496
▁Жон	-9.8652
▁шийдвэрийг	-9.86574
▁45	-9.8665
▁угаа	-9.86739
ших	-9.86765
▁Хотын	-9.86773
▁авчих	-9.86781
▁тодруул	-9.86798
▁анзаар	-9.86802
▁сүү	-9.86822
▁нийл	-9.86858
▁багц	-9.86866
▁гай	-9.8689
▁ёслол	-9.86905
▁хангаж	-9.86934
▁аймагт	-9.86954
▁Азийн	-9.87034
om	-9.87084
▁төл	-9.87095
▁түүхэн	-9.8712
▁салах	-9.8712
▁ертөнцөд	-9.87152
▁хойд	-9.87171
▁гээч	-9.8719
рой	-9.8722
▁мэдэрч	-9.87252
▁чам	-9.87292
▁айлын	-9.87389
▁унтаж	-9.87409
▁зүг	-9.87432
▁Хал	-9.87521
▁гаргана	-9.87556
▁Өдрий	-9.87596
▁устгах	-9.87658
▁төстэй	-9.87825
▁Google	-9.87827
▁буудал	-9.87901
▁үүний	-9.87902
▁анхаарч	-9.88065
аагаад	-9.88066
▁өнгөрүүл	-9.88085
▁цэвэрлэх	-9.88163
▁хуруу	-9.88168
▁нуруу	-9.88174
▁харамсалтай	-9.88305
сүрэн	-9.88386
▁Өр	-9.88433
▁ман	-9.88444
▁уйл	-9.88461
▁үзэн	-9.88488
▁бүлгийн	-9.88517
▁чөлөөт	-9.88526
▁клуб	-9.8854
▁хувьсгал	-9.8854
▁чадвал	-9.88547
▁үнийн	-9.88557
▁Мал	-9.88599
▁батлах	-9.88674
▁тэмдэглэл	-9.88728
▁сонирх	-9.88776
▁үүсвэр	-9.88781
▁хэдхэ	-9.88795
▁ойрхон	-9.88818
▁судалж	-9.8885
▁Гурван	-9.88888
▁амьдралаа	-9.88908
▁хайх	-9.89
ухлыг	-9.89023
▁төрөх	-9.8903
▁хурим	-9.89056
▁Солонгосын	-9.89066
▁Чингис	-9.89112
▁тавьдаг	-9.89134
▁дон	-9.89156
▁үүднээс	-9.89228
▁хийгээгүй	-9.89262
▁төвд	-9.89295
▁мэс	-9.89301
te	-9.89318
▁Ё	-9.89472
▁руугаа	-9.89476
▁хөлс	-9.89488
ЫН	-9.89513
▁Мэд	-9.89533
▁Ийн	-9.89568
▁хүсэлтэй	-9.89575
op	-9.8961
▁тоог	-9.89624
▁бгаа	-9.89678
▁дахи	-9.8969
луулах	-9.89703
▁ми	-9.89732
▁гэрээг	-9.89733
▁гаралтай	-9.89748
▁шүүгч	-9.89754
▁өнгөрч	-9.89787
▁нэмэгдэж	-9.89796
▁ойрын	-9.89862
снаа	-9.89929
▁тэмдэглэ	-9.8993
▁дурсамж	-9.89988
инд	-9.89994
▁таг	-9.9003
▁үеэс	-9.90046
ee	-9.90048
▁кон	-9.90048
▁бэлгийн	-9.90072
▁Хаан	-9.90091
▁(1	-9.90186
▁доорх	-9.90199
▁цохи	-9.90213
▁дэв	-9.90239
▁сүнс	-9.90246
▁болгоно	-9.90276
▁хүлээ	-9.90281
▁Яда	-9.90329
▁хэлжээ	-9.90376
▁шигээ	-9.90385
▁гишүүдийн	-9.904
ино	-9.90446
▁саа	-9.9047
▁мэдэгд	-9.90514
чи	-9.90528
▁гэгч	-9.90537
▁өөд	-9.9055
чихсэн	-9.90591
▁хаяж	-9.90592
аахан	-9.90602
▁туршид	-9.90606
▁зөвлөх	-9.90607
▁хоорондын	-9.9061
▁нөх	-9.90636
▁агуулга	-9.90656
▁экспорт	-9.90719
▁Маргааш	-9.9072
▁ариутгагч	-9.90737
▁суулгах	-9.90777
▁нөхөн	-9.90779
▁тархи	-9.90822
▁дөрөв	-9.90857
▁сонирхож	-9.90965
▁Албан	-9.9098
▁дуучин	-9.91204
▁олимп	-9.91211
▁жимс	-9.91219
▁бүтээн	-9.91256
▁өөс	-9.91326
▁Эрдэнэ	-9.91334
▁үйлдвэрлэлийн	-9.9143
▁тусам	-9.91444
▁тариа	-9.91454
▁хана	-9.91469
▁өргөж	-9.91478
эгддэг	-9.91497
агдаж	-9.91497
ИЛ	-9.915
▁бүтээ	-9.91503
▁хү	-9.91522
▁ялалт	-9.91626
_	-9.9168
УР	-9.91773
▁хэвлэ	-9.91889
▁станц	-9.91952
өлт	-9.9202
дол	-9.92054
▁Ви	-9.92072
▁вэб	-9.92144
▁удирдлагууд	-9.92199
▁Аливаа	-9.92202
▁танил	-9.92264
▁хөөр	-9.92317
▁нэрээр	-9.92348
▁8-	-9.92435
▁болтугай	-9.92448
▁Эмэгтэйчүүд	-9.92457
▁иржээ	-9.92464
▁нэх	-9.92547
ина	-9.92604
▁чанарыг	-9.92682
▁Эцэст	-9.92697
▁вэбсайт	-9.92697
▁чадал	-9.92714
▁явуулсан	-9.92805
▁түүхийг	-9.92808
▁харьцаа	-9.92826
▁ухаар	-9.92904
▁Ол	-9.92914
▁аян	-9.92935
▁магадлал	-9.9295
▁олгоно	-9.92969
дэнтэй	-9.93012
лэгдсэн	-9.93047
▁шатанд	-9.93076
▁барил	-9.93077
▁боо	-9.93119
▁урагш	-9.93162
▁Шар	-9.93264
▁шу	-9.93326
▁гэхээс	-9.93338
▁камер	-9.93449
▁анхааруул	-9.93514
▁биелүүлэх	-9.93521
ьд	-9.93588
▁шилжүүл	-9.936
▁тоглоомын	-9.93605
▁сараас	-9.93613
▁унтах	-9.9363
▁төдийгүй	-9.93638
За	-9.93679
▁доод	-9.93689
▁тохи	-9.93708
▁үүсгэх	-9.93709
▁хорих	-9.93731
▁ууж	-9.93853
▁бодолтой	-9.93886
▁аймаг	-9.93907
▁???	-9.93939
▁не	-9.93951
▁новш	-9.93956
▁мэдрэх	-9.9398
▁Өв	-9.94032
▁орчны	-9.94114
▁амт	-9.94203
▁ариун	-9.94207
▁тодорхойгүй	-9.94208
▁Мэдээ	-9.94235
▁бор	-9.9424
▁сурсан	-9.94274
▁байснаа	-9.94278
▁ээлж	-9.94288
12	-9.94314
▁сайжруул	-9.94352
▁2021	-9.94483
▁галт	-9.94493
▁Ба	-9.94535
▁ирэв	-9.94576
▁хөгжиж	-9.94715
▁борлуулалт	-9.94732
▁хандуул	-9.94749
▁хүчээр	-9.94756
▁шийдэж	-9.94767
▁Ме	-9.94821
▁далай	-9.94891
la	-9.94894
▁ажлууд	-9.94974
▁зохицуулалт	-9.95
▁бэрхшээлтэй	-9.95024
▁нунтаглах	-9.95034
▁Дав	-9.95069
▁ирээдүйд	-9.95124
ЭГ	-9.95144
лиг	-9.95183
бу	-9.95243
арга	-9.95244
▁Кино	-9.95272
▁уна	-9.95296
▁түвшин	-9.95319
▁хөрөнгийн	-9.95431
▁кофе	-9.95482
шиж	-9.95553
▁мэдээллээ	-9.95557
▁гарчээ	-9.95614
▁эрхгүй	-9.95643
▁яригда	-9.95665
▁зохи	-9.95689
▁Дахи	-9.95702
▁эргүүл	-9.95734
▁Өндөр	-9.95739
▁Зах	-9.95745
▁сэргээх	-9.95748
▁..."	-9.95834
▁төдий	-9.95835
ap	-9.95856
▁залга	-9.95916
▁тэжээ	-9.95997
▁ундаа	-9.96018
▁зогс	-9.96045
▁яс	-9.96083
▁ком	-9.96125
амба	-9.96161
▁гараагүй	-9.96172
▁инээмсэглэ	-9.96255
▁хохирол	-9.96299
▁утсаар	-9.96307
▁нэрлэдэг	-9.96328
ИЙН	-9.96335
▁хүртэлх	-9.96412
▁зөрүү	-9.96413
▁Дар	-9.96453
▁эхэл	-9.96458
▁шавь	-9.96554
▁талтай	-9.96555
▁300	-9.96614
▁хэлмээр	-9.96615
▁сэтгэ	-9.96702
▁ороо	-9.96721
▁гудамж	-9.96769
Ь	-9.96774
▁мөрөөдөл	-9.96774
▁учруул	-9.96793
▁солих	-9.96807
ого	-9.96834
▁(2	-9.97015
▁нөлөөлөх	-9.97035
▁бусдыг	-9.9707
▁гээр	-9.97092
▁аяга	-9.97094
▁эргэлт	-9.97097
▁бүтэц	-9.97109
▁хүрээд	-9.97246
▁Ил	-9.97246
▁гуниг	-9.97296
▁зогсож	-9.97296
ion	-9.97314
▁хөгжмий	-9.97397
▁захиалга	-9.97404
▁хатан	-9.97451
▁хэрэглэ	-9.97512
▁муутай	-9.97524
▁усан	-9.97537
▁194	-9.9764
▁Бү	-9.97672
▁үнэнч	-9.97744
▁Хур	-9.97765
▁Баг	-9.97768
▁дундаж	-9.97797
▁гадуур	-9.97806
▁үгээр	-9.97815
▁буцааж	-9.97823
пи	-9.97839
▁засал	-9.97899
▁үнэт	-9.97937
снээр	-9.97988
▁хоо	-9.98022
▁хөгж	-9.98049
▁тусдаа	-9.9805
▁бүрийг	-9.98051
▁шин	-9.98055
▁Долоо	-9.98122
▁Улаан	-9.98136
▁төгссөн	-9.98178
▁ё	-9.98203
иар	-9.98287
▁Эхлээ	-9.98344
▁жирийн	-9.98351
▁Хэрэглэгч	-9.98361
▁9-	-9.9843
▁найдвартай	-9.98514
▁хүргэ	-9.98607
▁импорт	-9.98612
▁ноцтой	-9.98612
▁дэлгэр	-9.98644
▁үргэлжилж	-9.98653
▁нээлт	-9.98664
гор	-9.98719
▁хэлэхдээ	-9.98751
▁аврах	-9.98756
▁зун	-9.98835
▁эхлэл	-9.98849
▁шаа	-9.98871
▁Энх	-9.98874
▁БНСУ	-9.98877
▁нэгийг	-9.98886
▁31	-9.9889
▁эхлүүл	-9.98909
▁зочид	-9.98918
▁гарагт	-9.98931
▁соёлын	-9.9905
лз	-9.99052
▁амьдар	-9.99148
▁дотно	-9.99152
▁турши	-9.99156
▁Өөрийнхөө	-9.99164
дүгээр	-9.99192
▁томил	-9.99198
▁Христ	-9.99206
▁сурагч	-9.99281
ле	-9.99296
▁баталсан	-9.9931
▁байдлаас	-9.99351
▁урам	-9.99374
,000	-9.99392
▁Жишээлбэл	-9.99409
▁Нийгмийн	-9.99409
▁ойлгохгүй	-9.99446
▁Цагдаагийн	-9.99456
▁зарах	-9.99476
▁утаа	-9.99492
▁санааг	-9.99585
▁тогтоож	-9.99619
ку	-9.99675
▁нэвтрүүлэг	-9.99677
▁төгөлдөр	-9.99677
▁Мэргэжл	-9.99682
▁зөвлөмж	-9.99686
▁Гү	-9.99694
▁цэц	-9.99723
▁өөрөөр	-9.99728
▁ээсээ	-9.99745
▁орнуудад	-9.99787
▁бүртгүүл	-9.99813
▁тэмц	-9.99822
▁шүүхийн	-9.99826
▁шинэчлэл	-9.99832
▁хийхээр	-9.9985
▁ккк	-9.99945
мэг	-10
гүйгээр	-10.0006
▁өрнө	-10.0006
▁гээс	-10.0012
▁давж	-10.0014
▁тойм	-10.0015
хэр	-10.0016
▁шөний	-10.0018
▁чухам	-10.0021
▁цо	-10.0023
▁татан	-10.0024
▁ирэхэд	-10.0029
▁Гэрт	-10.0029
▁суралц	-10.0031
▁бэлд	-10.0033
▁байтал	-10.0034
▁зодо	-10.0035
▁хийлгэх	-10.0036
▁хөгжүүл	-10.0039
▁дохио	-10.0048
▁цөөхөн	-10.0049
um	-10.0054
ъё	-10.0056
▁дэмждэг	-10.0057
▁Бал	-10.0062
▁манд	-10.0063
моор	-10.0067
▁зөвлөж	-10.0068
▁жээ	-10.0071
▁шалгуур	-10.0075
▁таарна	-10.0076
▁хэрэглэгчид	-10.0083
▁Чамайг	-10.0085
▁Ая	-10.009
▁анхаар	-10.0095
▁хоёулаа	-10.0095
▁бичээд	-10.0103
▁Хөл	-10.0107
▁үргэлжлүүлэн	-10.0107
зо	-10.0109
▁мөрөө	-10.0112
▁ярилцах	-10.0117
▁зугт	-10.0127
▁шашны	-10.013
▁кинонд	-10.013
▁Банк	-10.013
▁айдас	-10.013
▁түгээмэл	-10.013
▁гадаа	-10.0131
Y	-10.0135
ман	-10.014
▁бууж	-10.014
▁гариг	-10.0142
▁хариул	-10.0154
▁театр	-10.0157
▁цогц	-10.0157
▁үзэгдэл	-10.0158
▁тутамд	-10.0165
▁ing	-10.0165
▁үй	-10.0168
бо	-10.0168
▁үд	-10.0168
▁суугаад	-10.0174
▁урлагийн	-10.0177
▁боол	-10.0183
▁байгууламж	-10.0184
үүлэн	-10.0191
▁Баян	-10.0204
▁казино	-10.0212
▁бяцхан	-10.0213
▁шир	-10.0215
тор	-10.0216
▁хожи	-10.022
▁илэрхийлэх	-10.0221
▁Цааши	-10.0227
▁ухаантай	-10.0228
▁тэжээл	-10.0231
▁түрүү	-10.0239
▁Па	-10.0241
▁хэлэлцэж	-10.0241
Баттулга	-10.0245
▁дуулж	-10.0254
▁уншсан	-10.027
▁ярилцаж	-10.0272
▁чихсан	-10.0272
▁баяж	-10.0274
▁тэгвэл	-10.0274
▁гишүүний	-10.0281
▁тавь	-10.0283
▁Од	-10.0284
▁хэлье	-10.0287
▁шаардлагыг	-10.0293
▁загас	-10.0296
▁пи	-10.0299
▁мэдэгдэх	-10.03
▁сурталчилгаа	-10.0301
na	-10.0302
▁явлаа	-10.0302
▁Ардын	-10.0304
▁хийн	-10.0308
▁хя	-10.0309
▁ун	-10.0312
▁харьцуулахад	-10.0322
▁дэвшигч	-10.0322
▁зөөлөн	-10.0323
▁номыг	-10.0325
мар	-10.0325
▁ээрээ	-10.0327
▁үзэг	-10.0329
▁гараар	-10.0329
▁үүдийг	-10.0332
▁хуваа	-10.0333
▁Илүү	-10.0335
▁эхээр	-10.0335
▁хэний	-10.0341
▁таларх	-10.0341
▁зохих	-10.0344
▁усанд	-10.0352
▁гүйцэ	-10.0353
▁шив	-10.0354
▁санагдсан	-10.036
▁нөлөөлж	-10.036
▁наймаа	-10.0363
▁зохиолч	-10.0366
▁удаагаа	-10.0367
▁Ашиг	-10.0368
▁сэтгэлийг	-10.0375
ig	-10.0379
▁хийгдсэн	-10.0379
▁Өө	-10.0381
▁уудад	-10.0385
▁даваа	-10.0387
▁Сү	-10.0392
▁уншигч	-10.0399
▁тэс	-10.0401
▁интернэт	-10.0406
▁бүтээгдэхүүнийг	-10.0409
▁Зам	-10.0411
▁үзье	-10.0412
▁нийтлэг	-10.0416
▁Ди	-10.0419
▁унаж	-10.0421
▁нээж	-10.0423
▁утгатай	-10.0435
▁талыг	-10.0436
▁Дэлгэрэнгүй	-10.0441
▁жилдээ	-10.0441
▁сууцны	-10.0451
▁лан	-10.0452
▁өгчих	-10.0454
▁зөвшөөрч	-10.0459
▁Манайх	-10.046
▁Мөнх	-10.0461
▁процесс	-10.0462
▁хорт	-10.0466
▁холбогдолтой	-10.0467
▁талууд	-10.0467
▁магт	-10.0472
▁Тэднийг	-10.0482
▁!!	-10.0483
▁жагсаал	-10.0484
▁ажиллагаагаа	-10.049
▁дурс	-10.0494
▁түрээс	-10.0496
▁мо	-10.0496
▁сонгон	-10.0505
▁гайгүй	-10.0519
▁нэгэнт	-10.0519
▁гуравдугаар	-10.052
▁сонсоод	-10.0522
X	-10.0526
▁өвөл	-10.0526
▁буян	-10.0527
▁авт	-10.0532
▁In	-10.0535
▁түүн	-10.0539
▁шувуу	-10.0547
▁Сонго	-10.0548
▁шигшээ	-10.0549
▁сонгодог	-10.0551
▁тайлбарла	-10.0554
▁ногоо	-10.0557
▁бэл	-10.0558
▁Хот	-10.0561
▁шаарддаг	-10.0562
▁20-	-10.0569
▁ашигла	-10.0581
j	-10.0584
▁байршил	-10.0586
▁гэгээ	-10.059
▁мөнх	-10.0592
▁ту	-10.0592
▁боль	-10.0594
▁хичээлийн	-10.0601
▁инээд	-10.0605
▁үйлдвэрлэгч	-10.0606
▁Эс	-10.061
▁Сон	-10.0613
▁тавиад	-10.0615
▁телевиз	-10.0615
фи	-10.0616
▁Ази	-10.062
өрөвдүгээр	-10.0624
▁улирл	-10.0632
уулна	-10.0632
▁36	-10.0635
▁1990	-10.0635
▁Орчин	-10.0638
▁хэмжээтэй	-10.0641
▁уя	-10.0645
me	-10.0647
▁интернет	-10.066
▁хаашаа	-10.0664
▁хамгаалж	-10.0668
▁онол	-10.0672
▁монголын	-10.0673
com	-10.0676
алсан	-10.0677
ладаг	-10.0677
▁уламжлал	-10.0678
ндаа	-10.0682
▁ю	-10.0683
▁Дээд	-10.0685
▁бур	-10.0689
▁баригчид	-10.0692
▁Му	-10.0695
▁бусдаас	-10.0698
▁талбайд	-10.0698
W	-10.0699
▁төгрөгийн	-10.0707
яа	-10.0711
▁менежер	-10.0718
os	-10.0718
▁сүүлчийн	-10.0718
▁нүү	-10.0719
▁мэдээлж	-10.0721
ver	-10.0734
▁11-	-10.0737
▁батлагдсан	-10.0738
▁хэрэглэгчийн	-10.074
об	-10.0742
▁алс	-10.0746
▁луйвар	-10.0747
▁Трамп	-10.0747
▁зөвшөөр	-10.0747
▁Британийн	-10.0749
ори	-10.0754
▁зуны	-10.0754
▁Facebook	-10.0755
▁эхэлдэг	-10.0755
▁тов	-10.0761
▁үүрэгтэй	-10.0763
▁нэмэгдсэн	-10.0769
sh	-10.0775
▁эрүү	-10.0775
▁Анхны	-10.0776
▁төрөлхтөн	-10.0776
▁тайлбарлаж	-10.0777
▁метр	-10.078
▁өс	-10.0781
жуулах	-10.0789
▁судлах	-10.079
▁j	-10.0796
▁Үл	-10.0798
▁нэвтр	-10.0798
▁Австрали	-10.0798
▁Жо	-10.0803
▁Өчигдөр	-10.0805
▁автомат	-10.0805
▁Нэгэн	-10.0805
▁амьдралдаа	-10.0807
▁хүндэтгэ	-10.0808
▁Байгаль	-10.0811
▁унах	-10.0813
▁олгож	-10.0813
жүүлэх	-10.0813
▁Түүх	-10.0817
▁далайн	-10.0818
▁аваагүй	-10.0823
▁мэдэ	-10.0829
▁насандаа	-10.083
▁ханддаг	-10.0831
▁бохир	-10.0832
▁цэгц	-10.0833
▁дизайн	-10.0834
▁үнэмлэх	-10.0834
▁гутал	-10.0834
▁Машин	-10.0837
оё	-10.0839
▁хөөрхий	-10.0841
li	-10.0851
▁суусан	-10.0857
▁харилцааны	-10.0861
▁бүхэлд	-10.0861
▁Хэд	-10.0862
▁харьцангуй	-10.0864
уулагч	-10.0872
▁баярлаж	-10.0873
дож	-10.0874
▁хичээдэг	-10.0875
▁өвөө	-10.0878
▁аялах	-10.0884
▁хун	-10.0886
▁]	-10.0888
▁тустай	-10.0892
▁бөглө	-10.0893
▁түг	-10.0895
из	-10.09
▁эхлүүлэх	-10.0903
▁хэлэлц	-10.0906
▁Z	-10.0922
▁Ни	-10.0922
▁дийлэнх	-10.0922
▁хүчирхэг	-10.0922
▁өртөг	-10.0922
▁улстөр	-10.0923
▁Германы	-10.0925
▁ангилал	-10.0928
▁Хүнд	-10.0939
▁кг	-10.095
▁бариад	-10.0952
▁Хөдөө	-10.0956
ГА	-10.096
ӨР	-10.0972
id	-10.0987
▁жуул	-10.0987
▁09	-10.0988
▁дэмий	-10.0988
эрхүү	-10.0989
▁үйлдвэрлэх	-10.0989
▁ингэ	-10.099
▁зовж	-10.0996
▁Сонгуулийн	-10.1011
▁нөлөөлдөг	-10.1011
тгий	-10.1012
▁2007	-10.1014
ОО	-10.1015
▁овоо	-10.1016
▁The	-10.1016
▁оруулна	-10.1016
▁Оюун	-10.1018
▁нааш	-10.1027
чиж	-10.1028
▁өдрөөс	-10.103
▁цээж	-10.1034
hi	-10.1035
▁Тай	-10.1036
▁өмс	-10.1039
▁Эрэгтэй	-10.1041
ho	-10.1046
▁санд	-10.1049
▁солио	-10.1052
▁санаанд	-10.1053
▁сунга	-10.1054
▁хосууд	-10.1057
▁Удах	-10.1057
▁Муу	-10.1061
▁нээрээ	-10.1065
Тэр	-10.1065
▁Сарын	-10.1068
▁байдгийг	-10.1071
▁хэчнээн	-10.1071
▁гадаадад	-10.1073
▁ашиглалт	-10.109
▁мэдрэг	-10.1095
▁зэргийн	-10.1101
▁Үзэ	-10.1101
▁харь	-10.1104
▁ийнхээ	-10.1104
▁ирээдүйн	-10.1105
▁шан	-10.1106
▁Улмаа	-10.1112
▁байсаар	-10.1114
▁мө	-10.1116
▁иж	-10.1122
▁ь	-10.1128
▁харуулсан	-10.1129
▁of	-10.1133
▁Хор	-10.1135
▁хорло	-10.1137
лөгч	-10.1138
▁тулгар	-10.1143
▁үүргээ	-10.1143
▁төвлөр	-10.1144
▁хайрлах	-10.1148
▁хангалуун	-10.1161
▁согтуу	-10.1161
▁бичдэг	-10.1162
▁бүтээж	-10.1167
▁программ	-10.1169
▁ганцаар	-10.1169
▁Нийгэм	-10.1181
▁жиг	-10.1188
▁зэрэгцээ	-10.1189
▁тохирсон	-10.1191
▁мэтээр	-10.1193
▁дах	-10.1198
▁үүргий	-10.1198
▁шим	-10.1198
▁Бод	-10.1201
ab	-10.1204
▁Эмч	-10.1214
доллар	-10.1215
▁харна	-10.1215
ry	-10.1216
▁асан	-10.1217
▁Яв	-10.122
▁тулаан	-10.1222
▁зөрчсөн	-10.1224
▁даасан	-10.1233
▁уншаад	-10.1233
▁шуу	-10.1236
▁биздээ	-10.1237
▁босоо	-10.1243
▁Авто	-10.1244
▁урьж	-10.1252
▁медаль	-10.1254
▁2006	-10.1255
▁харагдана	-10.1259
▁авгай	-10.1264
▁улсаас	-10.1268
▁тасла	-10.1269
▁Хөдөлмөр	-10.1282
▁тооцох	-10.1282
▁хөнгөн	-10.1282
▁өөрчлөгдсөн	-10.1284
▁Нью	-10.1285
▁төлж	-10.1288
▁Өнөө	-10.1289
▁больсон	-10.1289
▁өгье	-10.129
▁амлалт	-10.1291
▁гаар	-10.1292
▁наа	-10.1293
▁хийчих	-10.1294
мэйл	-10.13
▁ат	-10.1311
▁сай	-10.1313
▁сэргэ	-10.1314
▁тойрог	-10.1316
▁32	-10.1325
▁нэгний	-10.1326
▁De	-10.1327
▁авагч	-10.1335
▁хиймэ	-10.1337
ex	-10.1337
▁жи	-10.1341
▁тасралтгүй	-10.1343
▁секунд	-10.1343
▁сургуулиуд	-10.1343
▁суурин	-10.1344
▁хууч	-10.1348
▁сэтгэлээсээ	-10.1352
▁Секс	-10.1354
▁олдохгүй	-10.1362
"-	-10.1364
▁талдаа	-10.1367
▁нуур	-10.1369
ess	-10.1371
▁амгалан	-10.1374
▁билүү	-10.138
хондоо	-10.1382
▁шүүхэд	-10.1383
▁иддэг	-10.1387
▁тэмцэл	-10.1387
▁автомашин	-10.1391
▁харамса	-10.1392
▁хийлгэ	-10.1398
▁шанал	-10.1398
▁сургуулиа	-10.1398
▁Боловсрол	-10.1405
▁Газрын	-10.1405
▁Жижиг	-10.1406
▁засагт	-10.1407
▁Ад	-10.1411
▁хүсэх	-10.1417
йг	-10.1417
▁дундуур	-10.1422
▁эрхлэх	-10.1422
▁арилгах	-10.1423
▁удирд	-10.1425
▁улирал	-10.1432
▁Дан	-10.1435
▁хайрлаж	-10.1435
▁өнцөг	-10.1436
▁Судалгаа	-10.1436
im	-10.1441
▁сэтгэлд	-10.1445
▁Зо	-10.1452
ци	-10.1454
▁буруутга	-10.1456
▁өсгө	-10.146
▁тайланг	-10.1462
▁хоёрыг	-10.1467
▁Ариун	-10.1467
аасай	-10.1469
▁тоглосон	-10.1472
▁зүйлүүд	-10.1477
шир	-10.149
▁дол	-10.1494
▁хүүхдүүдэд	-10.1497
▁дагаад	-10.1497
▁тохирох	-10.1498
▁үйлчлэх	-10.1498
▁бодвол	-10.1502
▁хамрагдах	-10.1503
▁Ле	-10.1508
▁зөрч	-10.1509
ow	-10.151
▁үзүүлсэн	-10.152
▁хичээллэ	-10.1524
▁хаха	-10.1529
▁бил	-10.1532
▁түргэн	-10.1533
▁Эрдэнэт	-10.1535
▁замд	-10.1538
▁алдар	-10.1541
▁зохицуулах	-10.1545
▁зөвлөлийн	-10.1547
▁дог	-10.155
▁эхэлжээ	-10.1551
▁Эргэ	-10.1552
▁элэг	-10.1554
есс	-10.1559
▁Хувь	-10.1561
▁Тэнгэр	-10.1561
▁сайжир	-10.1561
▁найд	-10.1561
▁өсч	-10.1563
▁там	-10.1563
▁хань	-10.1565
▁аргууд	-10.1567
▁түүхэнд	-10.157
▁онц	-10.1571
▁үзүүлдэг	-10.1572
▁байгаагаар	-10.1575
▁дам	-10.1575
▁захиргааны	-10.1577
▁хутга	-10.158
▁бн	-10.1582
▁дэлгэ	-10.1583
▁197	-10.1586
▁гэл	-10.1586
рэй	-10.1588
▁хэрэглээний	-10.159
▁ЭЗЭН	-10.1592
▁Оюутолгой	-10.1592
▁хүлээлгэ	-10.1592
▁Санхүүг	-10.1594
-19	-10.1596
ie	-10.1597
▁таалагдах	-10.16
үнийг	-10.1601
▁шид	-10.1603
▁дурлал	-10.1606
▁сү	-10.1609
▁сайтай	-10.1609
▁Хил	-10.161
▁охины	-10.162
▁багт	-10.1623
▁асуудлын	-10.1624
▁Зар	-10.1625
▁тамирчин	-10.1625
▁бэлэглэ	-10.163
▁айлд	-10.1632
▁хүндрэл	-10.1634
▁үзэхэд	-10.1638
▁үргэлжлэх	-10.164
▁бууд	-10.164
▁Ир	-10.164
▁нутгаар	-10.1646
▁Дур	-10.1648
▁хурц	-10.165
▁ши	-10.1651
▁олго	-10.1652
▁даатгалын	-10.1653
▁америк	-10.1654
▁шуурхай	-10.1655
▁үүсэх	-10.1656
▁эрэлт	-10.1656
▁Аймг	-10.1658
▁Бидэн	-10.1664
▁зарцуулах	-10.1666
▁хүлээсэн	-10.1669
▁харц	-10.1674
▁төвийн	-10.1678
▁хэнийг	-10.1678
▁Өөрт	-10.1683
▁ихэд	-10.1685
▁инженер	-10.1687
▁явдлыг	-10.1687
▁хамаарна	-10.1687
▁тэмдэглэж	-10.1692
▁харвал	-10.1699
▁баймаар	-10.1704
▁Хэдий	-10.1705
▁парламент	-10.1711
▁завгүй	-10.1713
▁гүйцэтгэл	-10.1714
▁Зохио	-10.1719
▁элдэв	-10.1719
od	-10.172
▁хянах	-10.1721
▁цохилт	-10.1725
▁Хуучи	-10.1726
▁зори	-10.1727
▁үгүйсгэ	-10.1728
▁ажилчид	-10.1729
▁гаас	-10.173
▁тонн	-10.1732
▁лал	-10.1737
▁Эрт	-10.1739
▁Ирээдүй	-10.1751
▁музей	-10.1751
хуу	-10.1755
▁дэвш	-10.1756
▁лах	-10.1756
▁захи	-10.1759
▁хүрэлцэ	-10.1761
▁татсан	-10.1764
▁хуваалцах	-10.1767
???	-10.1771
▁айдаг	-10.178
▁сайтар	-10.1781
▁авьяас	-10.1783
▁зөвшөөрсөн	-10.1787
▁хэлчих	-10.1791
▁гүүр	-10.1791
▁тухтай	-10.1797
ск	-10.1797
ma	-10.18
▁эхийн	-10.1816
▁шороо	-10.1817
▁зовох	-10.1818
▁Элчин	-10.1822
ЭМ	-10.1822
ее	-10.1823
иас	-10.1825
▁чимээгүй	-10.1825
▁биед	-10.1832
▁зү	-10.1833
▁Бор	-10.1833
▁Ас	-10.1838
▁км	-10.1841
▁Хай	-10.1845
▁харилцах	-10.1847
▁Путин	-10.1847
▁ашгийг	-10.1847
▁өгөөгүй	-10.1847
▁угаалгы	-10.1847
000	-10.1848
▁хавь	-10.1848
ation	-10.1849
▁Кон	-10.1849
▁Яаж	-10.1851
▁түлхүүр	-10.1852
▁зарцуул	-10.1857
▁сууна	-10.1858
▁до	-10.186
▁Өөрсд	-10.1862
ОХ	-10.1864
▁хорвоо	-10.1865
▁бх	-10.1866
▁дуулах	-10.1866
▁юү	-10.1868
▁асуудалтай	-10.1875
▁Дотоод	-10.188
▁бололцоо	-10.188
▁ургамал	-10.188
▁өнгөрөх	-10.188
▁ирээгүй	-10.188
▁хүсэ	-10.1884
ub	-10.1899
▁эхэнд	-10.1901
▁живх	-10.1908
лээр	-10.1909
▁хөвгүүд	-10.1912
▁бичжээ	-10.1913
▁олгосон	-10.1918
▁тусалж	-10.1921
▁үргэлжлүүл	-10.1921
▁компанид	-10.1924
▁батлагд	-10.1931
▁Ду	-10.194
▁Цахим	-10.1945
▁ерөөсөө	-10.1948
▁түрүүл	-10.195
▁хамаа	-10.195
▁асуусан	-10.1951
▁Агаар	-10.1951
▁дэвшүүл	-10.1953
▁толь	-10.1959
▁орохгүй	-10.1962
▁багатай	-10.1964
▁чид	-10.1964
▁хүндэтгэл	-10.1965
▁шүтэ	-10.1978
▁захиа	-10.1979
▁гаж	-10.1981
▁хачин	-10.199
▁хама	-10.1993
▁бэлгэ	-10.2001
▁түмэнд	-10.2003
тайгаар	-10.2003
▁танилцуулж	-10.2004
▁туул	-10.2004
▁хэрнээ	-10.2012
▁Бараг	-10.2018
▁хэрэгжиж	-10.202
▁багагүй	-10.2025
▁нартай	-10.2031
▁хадгалж	-10.2032
ИН	-10.2036
▁Үг	-10.2036
▁нийц	-10.2037
пер	-10.2038
▁дуулсан	-10.2042
▁холбогдол	-10.2043
▁хороолол	-10.2046
▁урамшуулал	-10.2046
▁эргэлзээ	-10.2046
▁үйлс	-10.2048
▁Но	-10.2049
▁хэрэгжүүл	-10.2053
▁шалтгаал	-10.2053
▁хүмүүсээс	-10.2055
▁үйлчлүүлэгч	-10.2056
▁маа	-10.2057
▁бэлтгэх	-10.2069
▁48	-10.2073
▁жилээр	-10.2073
▁Бурханд	-10.2075
▁харанхуй	-10.2076
▁алтан	-10.2076
▁хамааралтай	-10.2076
▁Нүд	-10.2079
▁Алтан	-10.2092
▁илэрхийлсэн	-10.2097
▁195	-10.2104
▁дэвших	-10.2111
▁дууны	-10.2113
▁болсныг	-10.2114
▁киног	-10.2114
▁Юм	-10.2121
▁эзэмш	-10.2123
▁ертөнцийн	-10.2125
▁по	-10.2133
▁шинжилгээний	-10.2142
▁агентлаг	-10.2142
▁хадгаламж	-10.2143
▁ирэхгүй	-10.2146
▁зайл	-10.2146
▁Үс	-10.215
лбэр	-10.2151
▁улсыг	-10.2151
▁түлш	-10.2154
▁хэрээр	-10.2155
▁бүхэл	-10.2158
риу	-10.2168
▁залбир	-10.2169
▁re	-10.2175
▁цааз	-10.2176
▁оно	-10.2177
▁жүжиг	-10.2177
▁Амжилт	-10.2177
▁дотоодын	-10.218
орно	-10.2188
▁Далай	-10.2191
өөрөө	-10.2192
▁хариуцлаг	-10.2197
▁чадсангүй	-10.2199
▁унасан	-10.2201
▁Чамд	-10.2203
▁байгуулаг	-10.2209
үйц	-10.2212
▁Гэрээ	-10.222
▁хуваарил	-10.2222
▁хүүгээ	-10.2226
▁Ри	-10.2226
▁сонсогдо	-10.2229
▁хурлын	-10.224
▁Монголбанк	-10.2243
▁үндэстэн	-10.2245
▁хариуца	-10.2247
▁бутлах	-10.2248
▁тэмүүл	-10.2248
▁арил	-10.225
▁хэвлэлийн	-10.2253
▁ст	-10.2255
▁33	-10.2256
▁өөрөөсөө	-10.2258
▁хүүгийн	-10.2259
▁авчээ	-10.2263
▁199	-10.2265
▁ДАШТ	-10.2276
▁оргил	-10.2277
▁Хуулийн	-10.2277
▁төрүүл	-10.2278
▁хамгаалагч	-10.2281
▁Орой	-10.2289
▁хийд	-10.2296
▁12-	-10.2301
▁амрах	-10.2304
▁өргөдөл	-10.231
мент	-10.2312
▁гарцаагүй	-10.2314
▁суудаг	-10.2315
▁үнээр	-10.233
10	-10.2332
▁бөхийн	-10.2334
▁багадаа	-10.2337
▁хой	-10.2338
▁Нөхөр	-10.2344
▁ардчилсан	-10.2344
▁Дорнод	-10.2344
▁дундаа	-10.2345
▁нүдэнд	-10.2352
▁тахлы	-10.2361
▁шүүмжлэл	-10.2363
▁барилдаан	-10.2364
▁рүүгээ	-10.2369
▁татгалз	-10.2377
▁хуу	-10.2378
▁сууриа	-10.2378
▁уриал	-10.2379
▁унаа	-10.2386
▁зэрэглэл	-10.2391
▁уламжлалт	-10.2392
лин	-10.2392
▁эвгүй	-10.2393
▁дэл	-10.2394
лаарай	-10.2395
▁нэгнийг	-10.2396
▁ажиллуулах	-10.2398
▁хараахан	-10.2401
▁явахад	-10.2402
▁Хятадад	-10.2403
▁дуугар	-10.2408
▁хичээж	-10.2418
▁асуулга	-10.2419
▁хийгдэ	-10.242
and	-10.2422
▁юуны	-10.2424
▁Итали	-10.243
ру	-10.2432
▁По	-10.2433
▁чимээ	-10.2438
▁явуулдаг	-10.244
▁хим	-10.2441
▁хөдөлгөөний	-10.2441
▁япон	-10.2447
▁мэргэжилтнүүд	-10.2448
▁байн	-10.2459
▁бүхэндээ	-10.246
▁туу	-10.2473
▁тааруу	-10.2477
▁өрсөлдөх	-10.2478
50	-10.2481
▁Хичээл	-10.2481
▁зорчигч	-10.2481
▁махбод	-10.2481
▁Дөрвө	-10.2481
▁үйлдсэн	-10.2483
▁хүүг	-10.2484
ack	-10.2486
▁шатаа	-10.2486
▁өндөрлө	-10.2488
▁бүртгэлийн	-10.2492
▁чулуун	-10.2498
▁Өнгө	-10.2499
▁орлоо	-10.2505
▁баталгаажуул	-10.2512
▁шүлэг	-10.2515
▁Таван	-10.2516
▁зарласан	-10.252
▁хангасан	-10.2522
▁техникийн	-10.2523
▁дарна	-10.2526
▁болгонд	-10.2529
▁зу	-10.2529
▁хорь	-10.254
pe	-10.2541
▁Сэр	-10.2541
▁өвөрмөц	-10.255
▁өөрчлөгдөж	-10.2551
▁Уу	-10.2552
▁тоглодог	-10.2553
уулан	-10.2554
▁нэрийн	-10.256
▁HD	-10.2561
▁явагда	-10.2562
▁түгээ	-10.2564
▁зургийн	-10.2572
Хүн	-10.2573
агдана	-10.2574
▁Москва	-10.2585
▁удирдлагын	-10.2585
▁тэмдг	-10.2585
▁харьяа	-10.2586
▁цалинг	-10.2589
▁маар	-10.2593
▁татгалзах	-10.2596
▁тив	-10.2596
▁эхлэв	-10.2599
▁Замын	-10.2605
▁хөдөлгө	-10.2608
▁шалтгаанаар	-10.2609
▁лиг	-10.2609
▁яар	-10.2614
▁хандан	-10.2615
▁өвчтөн	-10.2619
▁Хувийн	-10.262
▁шалгаруулалт	-10.2621
▁хэлэлцээ	-10.2622
▁батал	-10.2624
▁бөөн	-10.2625
▁илгээх	-10.2626
▁идсэн	-10.2627
▁холбоотойгоор	-10.2628
▁нэлээ	-10.2633
▁чинээ	-10.2654
▁Сүхбаатар	-10.2654
▁холбогдуула	-10.2655
▁нүх	-10.2657
▁z	-10.266
▁сэтгэлгээ	-10.2664
▁онош	-10.2666
▁Q	-10.2668
▁явахгүй	-10.2669
▁Дунд	-10.2674
▁яамны	-10.2676
▁намууд	-10.2677
▁санаатай	-10.2685
▁байрлах	-10.2686
▁иргэдээ	-10.2688
▁Араб	-10.2692
ши	-10.2692
▁төрөөс	-10.2694
▁Ту	-10.2694
▁хариулах	-10.2697
▁хүртэ	-10.2701
ard	-10.2704
▁унтраа	-10.271
охо	-10.2716
▁Баруун	-10.2719
▁хүүхдүүдийн	-10.2721
▁оё	-10.2722
▁Америкт	-10.2724
▁цэргүүд	-10.2725
▁анхаарлыг	-10.2726
▁тэмцэж	-10.2728
▁мэдэгджээ	-10.2731
▁Хүр	-10.2732
▁цэцэрлэгт	-10.2733
▁ойн	-10.2734
▁түл	-10.2737
▁эрсдэлтэй	-10.2741
тавдугаар	-10.2742
▁цэнэтэй	-10.2743
▁баталж	-10.2748
▁магад	-10.275
▁Ре	-10.2753
▁санаачла	-10.276
▁Тоглоом	-10.2761
▁Дуучин	-10.2765
▁санагдах	-10.2768
логч	-10.2771
▁Төгс	-10.2773
▁танилцуулах	-10.278
▁хүрнэ	-10.2781
▁хамтлагийн	-10.2787
▁Өг	-10.2792
▁зорьж	-10.2796
▁нулимс	-10.2796
ест	-10.2798
▁суралцаж	-10.28
▁бүхнээ	-10.2804
▁гаргажээ	-10.2815
▁хандсан	-10.2817
ly	-10.2817
▁дэлхийг	-10.2819
▁өрсөлдөгч	-10.2824
▁Үйлдвэр	-10.2829
▁Apple	-10.2831
▁комисс	-10.2831
▁уучлаарай	-10.2831
▁харилцааг	-10.2831
▁хэлэлцүүлэг	-10.2832
▁хөгжих	-10.2833
▁санагдаад	-10.2833
тэйгээр	-10.2839
АТ	-10.2841
▁Цааш	-10.2848
▁Ром	-10.2851
▁ахмад	-10.2857
▁шүд	-10.2859
▁Хэр	-10.2865
▁бодлогыг	-10.2867
▁хөтөлбөрт	-10.2867
▁талбар	-10.2874
▁төгрөгөөр	-10.2875
ээсэй	-10.2886
эрвээ	-10.2886
▁ашиглалтад	-10.2889
▁оролцогч	-10.2891
▁наадамд	-10.2895
▁Ку	-10.2899
▁хүйс	-10.2903
▁үүсгэн	-10.2904
▁таарах	-10.2904
▁үзлэг	-10.2918
▁75	-10.2924
▁Шууд	-10.2925
▁тайлбарлах	-10.2933
▁Цэц	-10.2935
▁01	-10.2935
ate	-10.2936
▁ноён	-10.2941
▁хагалгаа	-10.2941
оро	-10.2944
▁Дархан	-10.2948
▁Тэдэн	-10.2949
▁үгэнд	-10.2949
гдаж	-10.2951
▁99	-10.2959
▁үгээ	-10.2966
▁энийг	-10.2973
▁баривчил	-10.2975
▁өөрчлөгдөх	-10.2977
▁барилд	-10.2982
▁хөлөг	-10.2984
▁Лу	-10.2985
▁онлайнаар	-10.2987
▁Эв	-10.2998
▁нягт	-10.3009
▁Home	-10.3011
▁маркетинг	-10.3011
▁эзэмшигч	-10.3011
▁амаргүй	-10.3011
▁Ангилал	-10.3011
▁the	-10.3012
▁айлчлал	-10.3013
▁хуваарь	-10.3015
▁Жинхэн	-10.3016
▁шаардаж	-10.3017
▁илт	-10.3021
▁хуурай	-10.3024
▁бууруул	-10.303
▁баригда	-10.3031
▁зөвлө	-10.3032
▁уулзсан	-10.3045
▁хээр	-10.3047
▁судлаач	-10.3047
▁тодорхойлолт	-10.3047
▁төрөлхтний	-10.3047
▁байрлуул	-10.305
▁хоолло	-10.3057
▁дэн	-10.3064
▁яана	-10.308
▁зогсохгүй	-10.3082
▁хүүхэлдэй	-10.3084
▁адуу	-10.3087
▁өмсөх	-10.3088
▁193	-10.3095
лүүлэх	-10.3096
сноор	-10.3096
▁Тал	-10.3097
ОЛ	-10.3104
em	-10.3106
▁up	-10.3109
▁Санал	-10.311
▁Нэгэнт	-10.3114
▁Ча	-10.3115
ac	-10.3116
▁эрдэмтэд	-10.3121
▁бодоход	-10.3136
▁Хүрэлсүх	-10.3136
▁тасар	-10.314
▁Израил	-10.3142
▁хотууд	-10.3151
▁илэр	-10.3153
▁тэтгэ	-10.3154
▁ре	-10.3155
▁Соёл	-10.3158
▁Мэдээллий	-10.316
▁Хол	-10.3162
▁урва	-10.3177
▁судал	-10.3183
▁Урьд	-10.3187
▁тулга	-10.3191
▁Хүчи	-10.3193
▁хоцор	-10.3194
▁дараахь	-10.3195
▁авлига	-10.3196
▁тэмдэглэх	-10.3196
▁ачаалал	-10.3197
▁дүнгээ	-10.3197
▁Тав	-10.32
▁дэвсгэр	-10.3203
өрсөн	-10.3204
▁хүргэсэн	-10.3209
▁Ст	-10.3213
өгдсөн	-10.3214
▁биенээ	-10.3214
▁биедээ	-10.3214
▁вал	-10.3215
▁хязгаарла	-10.3218
▁хоригло	-10.322
ine	-10.322
▁хэрүүл	-10.3221
▁зохис	-10.3225
▁бут	-10.3229
▁15-	-10.323
▁гүнзгий	-10.3231
▁гэрчилгээ	-10.3231
▁даалгавар	-10.3231
чихаад	-10.3234
▁чадлаа	-10.3238
▁зөр	-10.3242
▁багта	-10.3249
▁зарж	-10.325
▁сэтгэлээ	-10.3253
▁сонгуул	-10.3264
Мөнх	-10.3267
▁коронавирус	-10.3268
▁зул	-10.3269
▁Дай	-10.3273
▁Mo	-10.3273
▁хүргүүл	-10.3276
▁Чам	-10.3277
▁буцаан	-10.3278
▁хүртэх	-10.3279
▁Ра	-10.328
▁гарвал	-10.3282
▁өгчээ	-10.3288
▁бодо	-10.3289
▁үзлээ	-10.329
▁Ло	-10.3291
▁цэвэрлэ	-10.3292
▁дүрмий	-10.3295
▁хамаатай	-10.3298
▁авир	-10.33
▁хамаарах	-10.3301
▁таагүй	-10.3301
үүлэгч	-10.3303
▁захидал	-10.3307
▁ойролцоогоор	-10.3307
▁тэмцээний	-10.3308
▁гэтэл	-10.3308
▁даатгал	-10.3309
▁төлөвлөлт	-10.331
▁нэвтрэх	-10.3312
▁аарай	-10.3329
▁суурьтай	-10.333
▁ороогүй	-10.3334
▁зөвшөөрөх	-10.334
▁хат	-10.334
▁менежмент	-10.3343
▁өршөө	-10.3343
▁өрсөлдөөн	-10.3346
▁:)	-10.3349
▁цаад	-10.3355
▁гайхаж	-10.3355
еп	-10.3358
▁жолоо	-10.336
▁байснаас	-10.3365
▁хоолоо	-10.3367
▁Фи	-10.3371
▁тансаг	-10.3381
rt	-10.3381
▁дурьд	-10.3386
▁ме	-10.3386
▁хураалт	-10.3391
▁Намын	-10.3401
▁дээгүүр	-10.3401
▁эсэргүүцэ	-10.3405
уулалт	-10.3407
▁Хөх	-10.3409
▁хүрээгүй	-10.341
▁тогтнол	-10.3412
▁илтгэ	-10.3414
Оюун	-10.3417
▁групп	-10.3418
▁хайрцаг	-10.3418
▁ауди	-10.3419
▁38	-10.3426
▁Эндээс	-10.3432
▁бүрдүүлэх	-10.3433
▁булаа	-10.3436
11	-10.3436
▁эмх	-10.3439
▁зөө	-10.3447
▁ордны	-10.3451
ent	-10.3452
▁суртал	-10.3452
▁тодорхойлж	-10.3455
▁Асуулт	-10.3456
▁төсөвт	-10.3461
▁мэдээг	-10.3462
▁яруу	-10.3463
▁мэдэгдэж	-10.3463
▁уулын	-10.3464
▁түмнээ	-10.3469
▁дө	-10.3476
▁хув	-10.3477
▁хавар	-10.3477
▁алдарт	-10.3477
▁Худалда	-10.3494
Пүрэв	-10.3494
▁Татвар	-10.3495
og	-10.3496
▁Эрчүүд	-10.3497
▁түүхтэй	-10.3498
▁амттай	-10.3498
▁Өд	-10.3503
▁хэрэгжилт	-10.3505
▁гаргалаа	-10.3511
est	-10.3512
▁Уран	-10.3513
ong	-10.3515
▁буруутай	-10.3516
▁стратегий	-10.3525
▁зурагт	-10.3526
▁хөнөө	-10.3532
####	-10.3533
▁сонгогдсон	-10.3533
▁бүртгэгдсэн	-10.3533
▁нөлөөлсөн	-10.3533
▁гомд	-10.3533
▁ивээ	-10.3534
▁таарсан	-10.3536
▁жирэмсэн	-10.3536
▁Ял	-10.3543
▁эрин	-10.3543
гүүр	-10.3547
▁Хон	-10.3548
▁гүйцэтгэж	-10.3548
▁эрэг	-10.3551
▁жилээс	-10.3552
▁нэрээ	-10.3554
▁Co	-10.3556
▁Бүсгүй	-10.356
▁Байгал	-10.3563
▁Санг	-10.3565
▁өөрчил	-10.3569
▁төслүүд	-10.3571
▁хуурамч	-10.3574
▁зүтгэл	-10.3584
▁авар	-10.3585
ым	-10.3586
▁төлбөрийн	-10.3592
▁хажуу	-10.3595
▁олдог	-10.3595
▁хөтөлбөрийг	-10.3596
▁зориулан	-10.3597
▁Христийн	-10.36
▁тулгарч	-10.3606
▁оновчтой	-10.3609
▁Олимп	-10.3609
Баяр	-10.361
▁Дүр	-10.361
▁олдсон	-10.3613
▁Шин	-10.3617
▁хэлснээр	-10.3617
▁тойронд	-10.3628
▁байг	-10.3633
▁хаах	-10.364
▁Гэрийн	-10.3646
▁уха	-10.3647
▁Шилдэг	-10.3648
▁орших	-10.3652
▁2005	-10.3653
Тийм	-10.3653
▁эмийн	-10.3654
▁туулах	-10.3658
▁хотхон	-10.366
▁34	-10.3663
▁дүгнэ	-10.3665
ЭХ	-10.3669
▁хамааран	-10.3669
▁машиныг	-10.3673
▁өнөөдрий	-10.3677
▁тэдгээрийг	-10.3678
▁борлуул	-10.3678
▁баримтууд	-10.3679
▁жор	-10.3682
▁үхсэн	-10.3684
▁Тодруулбал	-10.3687
▁функц	-10.3687
▁байгаагаас	-10.3687
▁тагнуул	-10.3687
▁дарс	-10.3687
▁дархлаа	-10.3687
▁Даш	-10.3687
co	-10.3688
▁олборлолт	-10.3689
▁дүүргэ	-10.3694
▁хааяа	-10.3695
▁Энгийн	-10.3696
огоо	-10.3699
▁дэмжсэн	-10.3705
▁хөдлөл	-10.3711
▁алдаг	-10.3712
▁нөөцийн	-10.3716
▁найруул	-10.3722
▁лаад	-10.3724
▁Windows	-10.3726
өнгө	-10.373
▁бүлэглэл	-10.3732
▁жижигхэн	-10.3735
qu	-10.3737
▁бодитой	-10.3738
▁тогло	-10.3742
▁Амар	-10.3743
▁ялгаагүй	-10.3743
▁эрхтэн	-10.3749
▁Сургалт	-10.3765
▁найруулагч	-10.3767
▁санхүү	-10.3772
▁400	-10.3774
ари	-10.3777
▁Сүүлд	-10.3778
▁Хэт	-10.3788
▁ордонд	-10.3801
▁өвгөн	-10.3804
▁учры	-10.3804
нээсээ	-10.3805
▁Сайд	-10.3806
▁Айл	-10.3806
▁бичнэ	-10.3807
▁тийш	-10.3808
▁талархаж	-10.3809
▁Зээл	-10.3817
▁хүсэлтийг	-10.3824
▁жагсаалтыг	-10.3829
▁будаа	-10.3831
▁Эн	-10.3835
▁барах	-10.3835
▁тогтвор	-10.3837
▁тэвчээр	-10.3843
▁туршлаг	-10.3844
▁төлөвлөсөн	-10.3846
▁эрхээ	-10.3846
▁Хөгжлий	-10.3851
▁ажилтай	-10.3853
▁ширээ	-10.3855
▁борлуулах	-10.3855
▁холбоос	-10.3857
▁си	-10.3859
▁тохиолдо	-10.3866
▁Тоо	-10.3868
▁намар	-10.3869
OS	-10.3872
▁оролц	-10.3876
иф	-10.3882
▁хөнгөлөлт	-10.3883
▁зорчих	-10.3883
▁гадагш	-10.3883
▁бөхчүүд	-10.3885
УУЛ	-10.3891
▁хамтарсан	-10.3892
▁олоод	-10.3893
▁гайхамшиг	-10.3897
▁хандив	-10.3911
▁амжилтанд	-10.3921
▁тосны	-10.3921
▁Тодорхой	-10.3922
▁хэсгүүд	-10.3922
▁орлогын	-10.3923
иуд	-10.3923
▁амьтны	-10.3923
▁хажуугаар	-10.3925
▁шилжих	-10.3925
▁худалдах	-10.3927
▁дас	-10.3927
▁сэтгэлтэй	-10.3928
ost	-10.3928
ang	-10.3929
▁Жич	-10.3931
▁МУ	-10.3939
ууууу	-10.3944
▁санаачил	-10.3944
▁туг	-10.3948
▁гайхамшигтай	-10.3948
▁дундаас	-10.395
▁ялгар	-10.3961
▁явдлын	-10.3962
▁дотны	-10.3963
▁хэлээгүй	-10.3965
▁шалтгааныг	-10.3972
▁тогоо	-10.399
▁зээлийг	-10.3991
▁хөдөлмөрийн	-10.3993
▁харагд	-10.4
ak	-10.4002
▁Толгой	-10.4002
▁Видео	-10.4002
▁Бээжин	-10.4002
▁амьтад	-10.4003
жоохон	-10.4004
▁st	-10.4012
▁чиглэлд	-10.4013
▁байгуулалтын	-10.4022
ll	-10.4024
▁!!!!	-10.4025
▁Де	-10.4035
▁Библи	-10.4041
▁Төмөр	-10.4042
▁нур	-10.4044
Очир	-10.4049
▁100%	-10.4056
▁Заава	-10.4058
▁хаагчид	-10.4063
▁телевизийн	-10.4066
▁утсаа	-10.4075
▁өргөө	-10.4076
ld	-10.4076
▁хугацаатай	-10.4078
▁элемент	-10.4083
▁Цалин	-10.4083
▁боловсруулж	-10.4084
▁зориулагдсан	-10.4086
▁угаас	-10.4086
▁хаалт	-10.409
▁цуг	-10.4094
▁зоригтой	-10.4096
▁унд	-10.4097
▁охинтой	-10.41
▁дорой	-10.4101
▁өнгөтэй	-10.4102
▁салж	-10.4103
▁зүйлээс	-10.4104
ёо	-10.4113
▁Тэгсэ	-10.4116
▁барьцаа	-10.4123
▁Онцгой	-10.4123
▁тохиргоо	-10.4123
▁өмгөөлөгч	-10.4123
▁Загвар	-10.4123
▁амжаагүй	-10.4123
▁хэлэхгүй	-10.4131
по	-10.4132
▁өдий	-10.4133
▁хоёул	-10.4134
▁нэмэгдэх	-10.4137
▁Архи	-10.4137
▁тоглолтын	-10.4139
▁an	-10.4141
рил	-10.4148
▁зардлыг	-10.4148
▁гурв	-10.4157
▁өөрсдийнхөө	-10.4158
▁сэргийл	-10.4159
▁солонгос	-10.4164
▁хуудсууд	-10.4164
▁Лондон	-10.4164
▁байгаасай	-10.4167
▁хойшлуул	-10.4167
лэгдэх	-10.417
▁алин	-10.4171
▁суурилсан	-10.4173
▁Нэгдсэн	-10.4177
▁найдвар	-10.418
▁үзэсгэлэнтэй	-10.418
▁илтгэл	-10.4183
▁нөхө	-10.4188
▁мартах	-10.4191
▁and	-10.4194
▁дуулга	-10.4199
Нэг	-10.4201
▁Компани	-10.4203
▁Гурав	-10.4204
▁гуйж	-10.4204
▁тохиолдсон	-10.4205
▁Хэрхэн	-10.4207
▁хариулж	-10.4207
ИС	-10.4209
▁асаа	-10.4211
өрөө	-10.4216
▁сонгоно	-10.4221
долларын	-10.4221
▁азтай	-10.4221
▁дуурай	-10.4222
▁алдагдал	-10.4224
▁150	-10.4225
▁асуув	-10.4227
▁шаардлаг	-10.4228
ta	-10.423
▁нилээд	-10.4231
▁гавьяа	-10.4246
▁хүсээгүй	-10.4246
▁өвчтэй	-10.4246
▁авилга	-10.4246
▁Сум	-10.4249
▁удирдаж	-10.4251
тэйгөө	-10.4255
▁батлан	-10.4263
▁биелүүл	-10.4265
▁Амьд	-10.4268
вөл	-10.427
▁хариуг	-10.427
▁эрдэм	-10.4286
АВ	-10.4286
▁Сургууль	-10.4287
Йорк	-10.4287
▁Онлайн	-10.4287
▁заавар	-10.4287
▁хүртсэн	-10.4287
▁эзэмших	-10.4288
▁зарлиг	-10.4291
▁санагдана	-10.4291
▁жагсаалтад	-10.4298
▁гаригт	-10.4298
▁насан	-10.4308
▁шарх	-10.431
▁хайрладаг	-10.4314
▁чадварыг	-10.4318
▁Тэгэхэ	-10.4321
▁прокурор	-10.4328
▁стресс	-10.4328
цгээе	-10.4331
▁тэдэнтэй	-10.4331
ъ	-10.4332
▁түүхий	-10.4332
▁авчрах	-10.4337
▁асуугаа	-10.4338
▁нис	-10.434
▁таалагд	-10.4347
▁Юун	-10.4358
▁зүс	-10.4359
▁жуулчлалын	-10.4362
▁тээвэрлэ	-10.4365
▁төлбөргүй	-10.4366
▁тунгаа	-10.4366
▁буудлы	-10.4369
▁аймшигтай	-10.437
▁эрдэнэ	-10.437
▁Ну	-10.437
▁от	-10.4371
▁төлөвлө	-10.4374
▁дамжуул	-10.4377
▁мөрдөн	-10.4381
▁II	-10.4383
▁таарч	-10.4387
▁авлага	-10.4389
▁санааны	-10.4393
▁инд	-10.44
▁Ээ	-10.44
▁Оюу	-10.4403
▁хамруул	-10.4403
▁Мак	-10.4406
▁урьдчилсан	-10.4411
▁зориулалттай	-10.4411
▁цүнх	-10.4411
▁Барилгы	-10.4411
▁хөгшин	-10.4414
▁сонгогдо	-10.4416
▁Иргэний	-10.4417
▁бүртгүүлэх	-10.4419
▁Тун	-10.4422
▁гаргахгүй	-10.4432
▁хасах	-10.4436
▁түүхийн	-10.4447
▁тэнцвэр	-10.4453
▁холбогдож	-10.4453
▁тэнгис	-10.4454
▁Парис	-10.4454
▁үнэлж	-10.4456
▁хийв	-10.4457
▁мөрдөх	-10.4457
Элбэгдорж	-10.446
▁хөндий	-10.4466
▁сам	-10.4477
▁дамжин	-10.4481
▁хичээх	-10.4481
▁төрөө	-10.4485
▁Байнг	-10.449
рьсан	-10.4493
ill	-10.4493
▁Го	-10.4495
▁тохиолддог	-10.4495
▁битүү	-10.4498
▁алдааг	-10.4499
▁цомог	-10.4499
▁Энэтхэгт	-10.4502
+	-10.4503
▁үеийг	-10.4505
▁тулгуурла	-10.4507
▁шав	-10.4509
▁төлөвлөгөөг	-10.4515
АЖ	-10.4517
▁ск	-10.4522
ондоо	-10.4523
▁алджээ	-10.4523
▁буух	-10.4524
▁байгуулна	-10.4527
▁харилцаанд	-10.453
▁сүүл	-10.4534
▁шинжтэй	-10.4534
▁карьер	-10.4537
▁хүртлээ	-10.4537
▁өгөөж	-10.4539
▁гуйх	-10.4539
▁таних	-10.4539
all	-10.4539
▁үүдийн	-10.4541
▁болгоомжтой	-10.4541
▁маягаар	-10.4543
▁шилжүүлэх	-10.4547
▁заах	-10.4548
▁таалагддаг	-10.4551
▁тухайгаа	-10.4551
▁туйл	-10.4553
▁Байр	-10.4559
▁хны	-10.4567
▁уян	-10.457
▁эвдэ	-10.457
▁тийшээ	-10.4575
▁зогсоол	-10.4579
▁дуусч	-10.4579
▁Тайлбар	-10.458
▁ямагт	-10.458
▁суурийг	-10.4581
▁буурсан	-10.4581
▁уриа	-10.4583
▁тогтно	-10.4587
▁ерөнхийдөө	-10.4588
▁хуулиа	-10.4588
▁нээс	-10.4593
▁хүүхдүүдээ	-10.4593
pp	-10.4594
ti	-10.4595
▁ван	-10.4595
▁зааг	-10.4596
▁дурда	-10.4597
▁есөн	-10.4597
▁талаархи	-10.46
▁дал	-10.4603
▁тогооны	-10.4603
▁байгууллагаас	-10.4606
▁цөөнгүй	-10.4607
▁тутам	-10.461
▁ch	-10.4611
▁49	-10.4617
▁тарга	-10.4617
ive	-10.4618
▁манлай	-10.4622
▁чадалтай	-10.4624
▁Сүнс	-10.4631
▁ааш	-10.4632
▁ордон	-10.4635
агдаагүй	-10.4642
▁тусмаа	-10.4644
▁малчи	-10.4645
▁хөгжилд	-10.4646
▁хариуцлагатай	-10.4647
өрөнгө	-10.4648
▁Иргэдийн	-10.4652
▁хөтөлбөрийн	-10.466
▁шилэн	-10.4665
▁судлаачид	-10.467
▁эмзэг	-10.4671
▁захиал	-10.4673
▁мэх	-10.4676
▁сонсдог	-10.4677
▁туулж	-10.4677
▁өвлийн	-10.4677
▁хоолойг	-10.4678
▁ог	-10.468
▁буурч	-10.4687
▁шингэ	-10.4691
гээрэй	-10.4698
▁000	-10.4701
▁УБ	-10.4701
▁тэл	-10.4701
▁Амьдралын	-10.4703
st	-10.4707
▁ирэхээр	-10.4708
▁дагалда	-10.4709
▁оролдож	-10.4709
▁цэнэ	-10.4711
▁мөрий	-10.4718
Үүл	-10.472
▁сэтгэлээр	-10.4723
▁дарах	-10.4724
▁Наран	-10.4725
ук	-10.4726
▁дуусгах	-10.4729
▁төсөөлж	-10.473
▁май	-10.4734
ЕГ	-10.4735
▁Ким	-10.4742
▁охиноо	-10.4743
▁өгүүлбэр	-10.4751
▁хэлтэс	-10.4751
▁сонгуулиар	-10.4752
▁хавдар	-10.4753
▁дөхө	-10.4753
▁цэвэрлэгээ	-10.4755
▁06	-10.476
▁хир	-10.476
▁ойрто	-10.4769
▁Хэв	-10.4776
▁55	-10.4781
▁хэрэглэсэн	-10.4783
▁үүсгэж	-10.4786
▁шинжээч	-10.4789
▁атга	-10.4789
▁хэрэгцээг	-10.4793
▁амны	-10.4793
▁бүтэ	-10.4794
▁мөртлөө	-10.4794
▁удалгүй	-10.4794
▁Жүжигчин	-10.4795
▁хүсэлтээ	-10.4796
▁мөрдө	-10.4799
▁тер	-10.4799
▁хөндө	-10.48
▁цан	-10.48
иб	-10.4803
▁орхиж	-10.4813
▁Цар	-10.4813
▁болих	-10.4816
▁хайрын	-10.4819
▁ингэх	-10.482
▁дураар	-10.4821
▁үер	-10.4823
▁чуулганы	-10.4824
▁хүчийг	-10.4832
▁Ван	-10.4834
▁Пе	-10.4836
▁192	-10.4837
▁хэрэгслийн	-10.4838
▁өгвөл	-10.484
▁зөвшөөрдөг	-10.4841
▁сургаал	-10.4841
▁мөнгөтэй	-10.4842
▁Оросууд	-10.4842
▁үүсч	-10.4843
▁орхих	-10.4844
▁хязгаарлалт	-10.4845
▁чамаас	-10.485
▁асуултад	-10.4854
▁Mar	-10.4854
▁таалагдсан	-10.4859
▁арилжаа	-10.486
▁түрүүлж	-10.4877
▁хянаж	-10.4879
▁асуухад	-10.4879
▁цэ	-10.488
▁ЖДҮ	-10.4881
▁фото	-10.4883
▁нүдний	-10.4885
▁нүдээ	-10.4886
▁баригч	-10.4886
▁мартаж	-10.4892
цэцэг	-10.4892
▁илэрсэн	-10.4894
▁захиргаа	-10.4903
▁багтсан	-10.4911
▁ъя	-10.4918
▁Баярлалаа	-10.4925
▁ди	-10.4927
▁хийц	-10.4927
▁нэвтрүүлэх	-10.4928
▁ген	-10.4928
▁өсөх	-10.493
мэн	-10.4933
ha	-10.4941
▁алсан	-10.4947
▁арилжааны	-10.4948
▁ярина	-10.4952
▁чихаад	-10.4953
▁хүрдэг	-10.4956
еле	-10.4958
▁шилж	-10.4959
тро	-10.4961
▁хийхдээ	-10.4968
▁орчих	-10.497
▁нэгдэх	-10.4976
▁хаш	-10.498
▁нэгдэж	-10.4982
▁гэрэлт	-10.4984
▁хийсний	-10.4991
▁мор	-10.4998
▁ирээдүйг	-10.5014
▁Miss	-10.5014
▁Спорт	-10.5014
▁эмгэг	-10.5014
▁манга	-10.5015
▁тэтгэлэг	-10.5018
▁хүчээ	-10.502
▁хүчингүй	-10.5026
▁про	-10.5027
▁цэнэглэ	-10.5034
▁Шударга	-10.5034
▁хүс	-10.5037
▁Арга	-10.5037
▁өнгийн	-10.5041
▁шийтгэл	-10.5048
▁өнөөх	-10.5051
фо	-10.5053
▁таамаг	-10.5056
▁65	-10.5056
▁Чухам	-10.5058
▁үйлдлийг	-10.5058
▁чармайлт	-10.5059
▁хуудсы	-10.5059
▁Хэвлэл	-10.506
▁шийтгэ	-10.5065
▁юунаас	-10.5066
▁хэрэглэнэ	-10.5069
▁дэм	-10.5079
▁мэдлэгтэй	-10.5085
Одоо	-10.5091
▁халаа	-10.5092
▁ороход	-10.5096
▁харахгүй	-10.5096
▁min	-10.5097
▁олно	-10.5098
▁даргаар	-10.5099
▁элбэг	-10.5103
▁онцолж	-10.5103
▁Эцсий	-10.5103
▁сонирхдог	-10.5109
▁2004	-10.511
иль	-10.5112
▁Сам	-10.5118
угаа	-10.512
ап	-10.5125
▁багаар	-10.5128
▁өөрчлөгд	-10.5138
▁Ки	-10.5142
▁түнш	-10.5146
▁нүгэл	-10.5148
▁курс	-10.5148
▁боомт	-10.5148
▁тунхагла	-10.5148
▁Охид	-10.5148
▁мэргэжилтэн	-10.515
▁Бодит	-10.5151
сөг	-10.5151
▁чамтай	-10.5151
▁тууштай	-10.5153
ео	-10.5153
▁бодлыг	-10.5154
▁дэвшил	-10.5154
▁төвөгтэй	-10.5159
▁ажиллаад	-10.516
▁нэрлэж	-10.5168
▁гарган	-10.517
▁Пи	-10.5173
амп	-10.5191
▁бодогдо	-10.5192
▁YOLO	-10.5193
▁Зүрх	-10.5193
▁орчлон	-10.5193
▁хөшөө	-10.5193
▁хашгир	-10.5193
▁Al	-10.5193
▁европ	-10.5194
▁апп	-10.5197
▁стратеги	-10.5201
▁тэнцүү	-10.5201
Болор	-10.5202
▁үүсгэ	-10.5203
▁хэрэглэгчдийн	-10.521
▁туяа	-10.5211
Энх	-10.5214
▁дуудаж	-10.5225
▁Төсвий	-10.5238
▁журмын	-10.5238
▁мэдэрдэг	-10.5238
▁өрнөж	-10.5242
▁овог	-10.5243
фф	-10.5243
зи	-10.5245
▁чиглэсэн	-10.5246
▁үлдэж	-10.5246
▁судалгаагаар	-10.5251
***	-10.5254
▁мээр	-10.5259
▁шалгуул	-10.5261
тур	-10.5273
▁айлга	-10.5279
▁дасгалжуулагч	-10.5283
▁биеэр	-10.5284
▁Даваа	-10.5285
▁тахал	-10.5286
▁харлаа	-10.5293
▁зарлаж	-10.5294
▁2-3	-10.5297
уль	-10.5298
▁болгоод	-10.53
▁хийл	-10.5303
▁цаашдаа	-10.531
гдсэн	-10.5311
▁дайсан	-10.5312
ast	-10.5314
▁Амь	-10.5322
▁тоглоо	-10.5325
▁дүүрэг	-10.5326
▁хацарт	-10.5329
▁гүйлгээ	-10.533
▁хөдөл	-10.5331
▁тойрон	-10.5331
▁хүчирхийлэл	-10.5335
▁Mac	-10.5336
▁хорооллы	-10.5337
▁төхөөрөмжийн	-10.5338
▁насаар	-10.5342
▁нотлох	-10.5342
▁үлдээх	-10.5352
▁урал	-10.5354
▁утгагүй	-10.5356
▁Ва	-10.5365
▁хүслээ	-10.5372
▁үнэлэх	-10.5373
▁золиос	-10.5375
▁томъёо	-10.5375
▁тусалдаг	-10.5375
▁төдийлөн	-10.5376
▁үйлдлийн	-10.5376
▁Цэн	-10.5377
▁ээлтэй	-10.5378
▁жагса	-10.5378
▁ердийн	-10.5381
▁сэдвээр	-10.5385
▁талархал	-10.5387
▁биелүүлж	-10.5388
▁хэмээж	-10.5389
▁жарга	-10.5403
▁зовлонг	-10.5404
▁буцаад	-10.5406
▁Бүтэ	-10.5406
▁буурах	-10.5408
▁үхэл	-10.542
▁горим	-10.5421
▁хараагүй	-10.5423
▁арчи	-10.543
цан	-10.543
лэдэг	-10.5431
▁загварыг	-10.5437
чилсэн	-10.5438
▁Гэрэл	-10.5442
▁танилцах	-10.5443
▁зурсан	-10.5443
▁тэсэ	-10.5452
▁зөвшөөрлий	-10.5452
▁туйлын	-10.5452
▁зурах	-10.546
▁ажиллуул	-10.5462
▁алж	-10.5463
▁бүжиглэ	-10.5465
▁НӨАТ	-10.5467
▁түвшний	-10.5467
▁Ёстой	-10.5467
▁нөхдүүд	-10.5467
▁Мод	-10.5467
▁авчирч	-10.5468
▁Гэмт	-10.5468
▁гэснээ	-10.547
▁учраа	-10.5474
▁Цэрг	-10.5475
▁ондоо	-10.5477
▁зайлуул	-10.548
~	-10.5484
▁00	-10.5485
▁шаардах	-10.5489
▁тогто	-10.5494
▁Гоо	-10.5497
▁эмчилгээний	-10.5501
▁илэрч	-10.5502
▁боловсруулсан	-10.5514
▁хүлээлт	-10.5523
▁07	-10.5523
▁тавилан	-10.5526
▁даралт	-10.5527
▁ачаар	-10.5527
▁дуугаа	-10.5527
▁багасгах	-10.5531
▁автомашины	-10.5535
▁ээрэй	-10.5539
▁шингэн	-10.554
▁гаднаас	-10.5541
▁Хав	-10.5543
▁шинэчлэх	-10.5548
▁Энхбаяр	-10.5548
▁орныг	-10.5548
▁ЭНД	-10.5561
▁тусална	-10.5561
Амгалан	-10.5561
▁барина	-10.5564
son	-10.5565
▁экс	-10.5566
тра	-10.557
▁сурагчид	-10.557
▁торго	-10.557
▁удам	-10.5571
▁Ням	-10.5577
▁үүрд	-10.5578
▁байрладаг	-10.558
▁ажлаас	-10.5585
▁салаа	-10.5603
io	-10.5606
▁Бразил	-10.5607
▁дагавар	-10.5607
▁хохирогч	-10.5608
▁хүндтэй	-10.5611
▁хураамж	-10.5611
▁байя	-10.5613
▁шалгаруулах	-10.5619
▁Өргө	-10.5619
▁гарахад	-10.5623
▁хэрэгжих	-10.5625
▁өгө	-10.563
▁алхах	-10.5639
үүгээ	-10.5641
▁Өдөрт	-10.5645
▁тавина	-10.5652
▁Болзоо	-10.5655
▁хүүхнүүд	-10.5655
▁хэмнэл	-10.5657
▁Шинээр	-10.566
▁зогсох	-10.5662
▁бүлээ	-10.5663
инээв	-10.5667
▁зарлаг	-10.5671
▁үхэр	-10.5673
▁800	-10.5677
▁олноор	-10.568
▁Чад	-10.5684
▁?!	-10.569
▁татдаг	-10.5697
▁гэмээр	-10.5698
▁Үргэлж	-10.5702
▁Хөвсгөл	-10.5702
▁Эрчим	-10.5702
▁агуулгы	-10.5703
▁дампуу	-10.5703
▁дурсгал	-10.5703
▁тамирчид	-10.5704
▁тогтоомж	-10.5705
▁үндэстний	-10.5706
▁ахлах	-10.5712
▁танилцуулга	-10.5714
▁зогсоож	-10.5715
▁02	-10.5716
▁гэрлэх	-10.5719
▁гэрээсээ	-10.5723
▁Хаана	-10.5726
▁олборлох	-10.5732
Болд	-10.5735
▁Урт	-10.5741
▁төлбөрийг	-10.5747
▁Эрхэм	-10.5747
▁хүснэгт	-10.575
▁аравдугаар	-10.575
ai	-10.5751
▁Английн	-10.5754
▁ухамсар	-10.5759
▁зоог	-10.5763
▁Зуу	-10.5765
▁жиж	-10.5766
▁хандлагатай	-10.5767
▁төлөөлөл	-10.5767
▁засгаа	-10.5773
▁нэгдэл	-10.5776
▁хожим	-10.5779
▁мань	-10.5781
ямба	-10.5789
▁доромжил	-10.5797
▁зорьсон	-10.5797
▁валют	-10.5797
▁дуустал	-10.5798
▁iPhone	-10.5798
▁Богд	-10.5801
▁орныхоо	-10.5803
▁үүнтэй	-10.5806
▁явсаар	-10.5808
▁парламентын	-10.5809
▁Аюулгүй	-10.5814
▁өгөв	-10.5814
▁гэдгээр	-10.5819
▁ашигт	-10.5834
▁насаа	-10.5842
▁тоогоор	-10.585
▁Pro	-10.5856
▁цугла	-10.5866
*	-10.5868
ӨӨ	-10.5872
▁сандал	-10.5875
▁мэдээгүй	-10.5876
алан	-10.5881
if	-10.5885
бер	-10.5893
▁лиценз	-10.5894
▁ресторан	-10.5894
▁төсвөө	-10.5894
▁хариуцсан	-10.5894
▁даавуу	-10.5894
▁танихгүй	-10.5897
▁тариалан	-10.5901
▁хийснээ	-10.5901
▁бодохгүй	-10.5901
▁ялах	-10.5903
▁хараат	-10.5909
эк	-10.591
▁Не	-10.5911
▁хамрагдсан	-10.5912
▁дараалан	-10.5915
▁шийднэ	-10.5917
▁нөлөөтэй	-10.592
▁цуу	-10.5921
▁төрдөг	-10.5924
▁заслы	-10.5936
▁зарцуулж	-10.5939
▁сураг	-10.594
▁Дарга	-10.594
▁евро	-10.5941
▁Тэмцээн	-10.5942
▁ардчилал	-10.5942
▁хошуу	-10.5942
▁хөтөл	-10.5942
▁Үе	-10.5943
гддог	-10.5944
▁дипломат	-10.5947
▁тавилга	-10.5947
▁үндэслэн	-10.5949
▁төлсөн	-10.5949
▁хөрөнгий	-10.5953
▁08	-10.5953
▁Австрал	-10.5954
▁манайхан	-10.5957
▁бүсэд	-10.5967
ами	-10.597
up	-10.5973
▁эсэргүүц	-10.5974
▁Египет	-10.5991
▁байгуулагч	-10.5998
▁компанийг	-10.6
▁буудалд	-10.6
▁судла	-10.6005
▁дотроос	-10.6006
▁баяс	-10.6012
▁мэдлий	-10.6019
▁үлдээсэн	-10.6022
▁нийлж	-10.6025
▁тэндээс	-10.6026
▁Нэгдүгээрт	-10.6028
▁тон	-10.6028
▁судлал	-10.6029
▁Тавантолгой	-10.604
▁Сургуулийн	-10.604
▁Увс	-10.6041
ud	-10.6046
▁бодлогоо	-10.6046
▁нийгэмлэг	-10.6049
▁жу	-10.6049
▁дүгнэж	-10.6051
▁орхисон	-10.606
▁будаг	-10.6061
=	-10.6062
▁харагдахгүй	-10.6078
▁Нийтийн	-10.6078
▁Санаа	-10.6084
▁оршдог	-10.6089
▁бүрдүүлж	-10.609
▁имэйл	-10.6095
▁тэднээс	-10.6096
▁үзүүр	-10.6097
аврын	-10.6099
▁зөвшөөрөхгүй	-10.61
▁тосгон	-10.61
оф	-10.6103
ts	-10.6104
▁суугч	-10.6105
▁ногдо	-10.6106
▁сүүлээр	-10.6106
▁өвс	-10.6106
▁байцаагч	-10.6108
▁материалыг	-10.6108
▁тасал	-10.611
болд	-10.6117
▁42	-10.6117
уз	-10.6123
▁хаагчды	-10.6124
▁тоглолтоо	-10.6124
▁уншдаг	-10.6125
ез	-10.6131
ээврийн	-10.6132
▁хөөцөлд	-10.6139
▁олигтой	-10.6139
ip	-10.6141
▁шүүмж	-10.6144
▁зөн	-10.6145
▁анг	-10.6147
▁нээсэн	-10.6149
аяа	-10.6151
▁асуултууд	-10.6153
▁ярилаа	-10.6161
▁@	-10.6163
▁үйлчлүүл	-10.617
▁Хоёрдугаарт	-10.6172
▁Ве	-10.6174
▁амьсгалын	-10.6182
▁Дахиад	-10.6183
▁албагүй	-10.6189
▁авчирсан	-10.6189
▁Есүсийн	-10.6189
▁Худалдаа	-10.619
▁Post	-10.6192
▁шог	-10.6194
▁тушаа	-10.6194
▁засгийг	-10.6194
▁арилга	-10.6195
▁хэргээр	-10.6198
▁МАНАН	-10.6198
▁баримтлал	-10.6202
▁номоо	-10.6202
▁Нэм	-10.6208
▁арав	-10.6209
▁жилүүд	-10.6213
▁тодруулах	-10.6215
▁бариа	-10.6215
▁ооо	-10.622
▁нартаа	-10.6221
▁ани	-10.6231
▁30-	-10.6233
▁шулуун	-10.6239
▁Компьютер	-10.6239
▁хамтрагч	-10.6241
▁37	-10.6243
▁бүжиг	-10.6244
▁for	-10.6244
▁хурдтай	-10.6246
▁Орхон	-10.6246
▁39	-10.6248
▁Урлаг	-10.625
▁үүдэн	-10.625
▁очдог	-10.6251
▁дуудах	-10.6253
▁тэдгээрийн	-10.6257
▁амраг	-10.6257
▁Зург	-10.626
▁гоол	-10.6263
▁Ro	-10.6266
▁түү	-10.6268
кер	-10.6275
▁ТВ	-10.6282
▁Үйлчилгээ	-10.6289
▁хөтөч	-10.6289
▁Сонгууль	-10.6289
▁бясалга	-10.6289
▁чөлөөлөх	-10.6289
▁Ахмад	-10.6289
▁Блог	-10.6289
▁ашгийн	-10.6289
▁үйлдвэрлэ	-10.6293
▁өчүүх	-10.6293
▁бухимд	-10.6294
▁2003	-10.6297
▁болчихлоо	-10.6297
▁ургуул	-10.6298
▁шүүмжлэ	-10.6299
ОГ	-10.6299
▁хүргэдэг	-10.6303
▁очиход	-10.6307
▁эхлүүлсэн	-10.6309
▁хэтрүүл	-10.6313
▁хул	-10.6313
сөөр	-10.6316
▁Хори	-10.632
▁гүтгэ	-10.6323
▁явахдаа	-10.6325
▁тарха	-10.6338
мөөр	-10.6341
▁харьцах	-10.6342
▁Даан	-10.6351
ото	-10.6351
▁төлөвтэй	-10.6355
▁тохируулах	-10.6366
▁халдлага	-10.6367
▁олдо	-10.637
▁Иран	-10.6376
▁хаях	-10.6379
▁нэрлэ	-10.6381
▁снаар	-10.6386
▁ОУВС	-10.639
▁зэвсг	-10.639
▁мэргэн	-10.639
▁үргэлжилнэ	-10.639
▁хүдрий	-10.6391
▁гудамжинд	-10.6391
▁Хаяг	-10.6392
▁Тайван	-10.6392
ѳѳ	-10.6394
▁болчихоод	-10.6395
па	-10.6398
▁танилцаж	-10.6399
эээээ	-10.6401
Ган	-10.6402
▁дамжуулах	-10.6404
▁байгууллагуудын	-10.6407
▁дагах	-10.6408
▁арал	-10.6408
▁төгсгөлд	-10.6408
▁харгалзан	-10.6409
nd	-10.6409
▁бүгдэд	-10.6415
▁Түр	-10.6417
▁очно	-10.6433
▁Сэлэнгэ	-10.6441
▁Чөлөөт	-10.6441
▁даашинз	-10.6441
▁44	-10.6443
▁ярилцсан	-10.6443
▁хаз	-10.6444
▁Аялал	-10.6444
▁сургамж	-10.6445
▁шорон	-10.645
▁суманд	-10.6451
▁95	-10.6457
▁үүгээр	-10.6458
▁нээлтээ	-10.6458
▁орчныг	-10.6461
▁тэмдэгт	-10.6462
▁бодохоор	-10.6462
▁те	-10.6463
▁Сири	-10.6465
▁эхнээс	-10.6465
▁сайхныг	-10.6473
▁өрөөний	-10.6482
▁боломжууд	-10.6483
▁өдөө	-10.6485
▁Халдвар	-10.6493
▁Чулуу	-10.6493
▁алчуур	-10.6493
Эрдэнэбат	-10.6493
Монголын	-10.6495
▁өвчнөө	-10.6495
▁хувьцааны	-10.6496
▁бүтээлүүд	-10.65
▁эцг	-10.65
▁байдлаа	-10.6502
ook	-10.6503
▁уналт	-10.6507
аци	-10.6508
▁балай	-10.6514
▁мэргэжлээр	-10.6519
Нямдорж	-10.6519
▁давс	-10.654
▁бодно	-10.6541
▁оюутны	-10.6544
▁пуужин	-10.6544
▁хуулбар	-10.6544
▁Шинжлэх	-10.6544
▁малтмал	-10.6544
▁радио	-10.6544
▁сорилт	-10.6544
▁тэсвэр	-10.6545
▁Үүр	-10.6545
▁түрээслэ	-10.6547
▁дажгүй	-10.6549
▁гахай	-10.6552
▁мөргө	-10.6554
▁тохиолдох	-10.6554
ment	-10.6557
▁эмчлэх	-10.6565
▁сурдаг	-10.6567
Танай	-10.6572
▁ээлжи	-10.658
▁асуултанд	-10.6585
▁ширээн	-10.6585
▁танилцсан	-10.659
▁зарлах	-10.6591
aa	-10.6592
▁журмыг	-10.6596
▁Боломж	-10.6596
▁хэсгээс	-10.6596
▁шүр	-10.6597
▁Мах	-10.6598
▁хийгээрэй	-10.6598
▁Цагдаа	-10.6599
▁танигд	-10.66
▁өөрчилсөн	-10.66
▁татгалзаж	-10.6602
▁явган	-10.6605
▁Бүтээ	-10.6607
мен	-10.6608
▁цагтаа	-10.6609
▁бүлийнхэн	-10.661
▁салбарыг	-10.6614
▁сүлжээн	-10.6623
▁хандуулах	-10.6626
▁тамир	-10.6627
▁Эрүүгийн	-10.6627
▁банкууд	-10.6633
ain	-10.6636
үүхэн	-10.6637
▁гоор	-10.6637
▁онцлох	-10.6639
▁Үхэ	-10.6641
ph	-10.6643
▁Афганистан	-10.6648
▁Гоолингоо	-10.6648
▁хэрэгслүүд	-10.6648
▁Тайланд	-10.6648
▁анхдагч	-10.6649
▁en	-10.6655
▁Шөнө	-10.6656
▁тээвэр	-10.6656
▁05	-10.666
▁Яах	-10.6661
АД	-10.6675
Ф	-10.6675
▁зуух	-10.6675
ахиад	-10.6677
▁Өнөөг	-10.6688
▁давсан	-10.669
der	-10.6693
▁талаасаа	-10.6697
▁наснаас	-10.6697
▁оффис	-10.67
▁статистик	-10.67
▁суваг	-10.67
▁сольж	-10.67
▁тэтгэмж	-10.6702
▁жишиг	-10.6703
▁суурилуул	-10.6709
▁тогтолцоог	-10.6715
ИХ	-10.6719
▁хэллэг	-10.6721
▁элсэн	-10.6721
▁Найр	-10.6728
▁нийгм	-10.6734
▁Сирий	-10.6743
▁сүлжээний	-10.6743
▁Элбэгдорж	-10.6744
▁баримтлах	-10.675
▁тооцож	-10.6753
▁явдлууд	-10.6753
down	-10.6753
▁эмгэнэл	-10.6753
▁хэрэгслийг	-10.6753
▁хэмээсэн	-10.6753
▁тэтгэвэр	-10.6754
▁гашуу	-10.6754
▁Компанийн	-10.6755
▁ЗГ	-10.6755
▁нураа	-10.6756
▁загна	-10.6759
▁Бямба	-10.676
▁үргэлжлүүлэх	-10.6765
▁хатаа	-10.6766
▁Мон	-10.6769
▁мэдэгдлээ	-10.6773
15	-10.6775
вер	-10.678
▁нүдээр	-10.6784
▁гаргахад	-10.6792
▁туслалцаа	-10.6806
▁өртсөн	-10.6806
▁хэрэглэгчдэд	-10.6806
▁de	-10.6809
▁Арван	-10.681
бол	-10.6815
▁Ой	-10.6815
▁For	-10.6819
▁(1)	-10.6821
▁эсэргүүцэж	-10.6832
▁гэмтэл	-10.6845
▁хуваар	-10.6846
▁хөрс	-10.6849
▁өрсөлдө	-10.6849
▁Халуун	-10.6859
▁эрхэлдэг	-10.6859
▁co	-10.6861
▁уншаарай	-10.6863
▁таалагдаж	-10.6864
▁зочил	-10.6864
▁Солонгост	-10.6865
▁шилжүүлэ	-10.6865
▁нтр	-10.6865
▁Итгэл	-10.6866
▁уншина	-10.6867
▁зочин	-10.687
▁Хүлээ	-10.6871
пп	-10.6873
▁19-	-10.6877
▁IP	-10.6878
0,000	-10.6879
▁жигд	-10.688
▁цуглаан	-10.6881
▁Цаашд	-10.6881
▁марга	-10.6887
▁зайлсхийх	-10.689
▁үнсэ	-10.6895
▁Төрөл	-10.6897
▁эрхлэгч	-10.6899
ери	-10.69
▁Уур	-10.6902
▁заан	-10.6905
▁дуулдаг	-10.6909
▁Ехова	-10.6913
▁чөтгөр	-10.6913
▁утгыг	-10.6913
▁гамшиг	-10.6913
▁бузар	-10.6913
▁тогтсон	-10.6913
▁үлдэнэ	-10.6913
▁супер	-10.6914
▁бариул	-10.6914
▁хөдлөлт	-10.6916
▁эгнээ	-10.6921
▁шуугиан	-10.6921
▁төлөөлөгчид	-10.6924
▁нийлүүлэгч	-10.6928
▁эрүүгийн	-10.6929
▁настайдаа	-10.6934
▁Се	-10.6944
▁агуулах	-10.6946
▁төлбөрөө	-10.6947
▁хүндрэлтэй	-10.695
▁Баасан	-10.695
▁өдрөөр	-10.6952
ОМ	-10.6956
▁чихлаа	-10.6962
▁хуудсанд	-10.6963
▁сулла	-10.6964
▁Сингапур	-10.6966
▁таашаал	-10.6966
▁Грек	-10.6966
▁дунджаар	-10.6968
▁орц	-10.6969
▁оролцдог	-10.6971
▁томилох	-10.6971
▁хэвтэж	-10.6973
end	-10.6976
▁малгай	-10.6978
▁алхаж	-10.6979
▁04	-10.698
▁элчин	-10.6983
▁орлогоо	-10.6983
▁занги	-10.6984
▁мана	-10.6994
▁it	-10.6995
▁сургуул	-10.7008
▁Ио	-10.7009
▁буулгах	-10.701
▁хариулсан	-10.7013
▁төрүүлж	-10.7015
▁Интернэт	-10.702
▁Цахилгаан	-10.702
▁бүтцийн	-10.702
▁нитрил	-10.702
▁герман	-10.702
▁тэтгэвр	-10.702
▁нялх	-10.7021
ХБ	-10.7023
▁намаас	-10.7025
▁агуулсан	-10.703
▁хумс	-10.7033
▁хуралдаанаар	-10.7033
▁эзэмшсэн	-10.7038
лүүлнэ	-10.704
▁хэдийнэ	-10.7041
▁итгэхгүй	-10.7042
▁угааж	-10.7042
▁алах	-10.7048
▁таньдаг	-10.7048
▁модон	-10.7049
▁амарч	-10.7052
Өнөөдөр	-10.7053
▁татгалзсан	-10.7053
▁зарцуулсан	-10.7054
▁дуунууд	-10.706
▁хортой	-10.7063
▁байлда	-10.7073
▁байрла	-10.7074
▁эцэс	-10.7075
▁Байгууллагын	-10.7075
▁мессеж	-10.7075
▁үргэлжилсэн	-10.7075
▁сонирхлыг	-10.7077
адар	-10.7079
▁хамаарч	-10.708
▁зогссон	-10.7088
▁аймаар	-10.7089
Ганбаатар	-10.7089
▁мэдүүлэг	-10.7091
▁Тусгаар	-10.7094
▁мэргэжл	-10.7094
▁сайтууд	-10.7101
▁сайгүй	-10.7102
ҮТ	-10.7102
ide	-10.7106
охь	-10.7107
▁багасга	-10.7113
▁Марк	-10.7114
▁халда	-10.7117
оу	-10.7118
▁51	-10.7122
▁Иргэн	-10.7123
НЫ	-10.7126
▁температур	-10.7129
▁Амралт	-10.7129
▁хэмээв	-10.713
▁Зочи	-10.7131
▁ханамж	-10.7133
▁тахил	-10.7137
▁тест	-10.7146
▁мөчид	-10.7149
гтун	-10.7154
▁эрмэлз	-10.7157
▁төрөлх	-10.7158
▁хуй	-10.7163
▁зардлаа	-10.7165
▁өгөхөө	-10.7166
▁төрүүлэх	-10.7168
▁is	-10.7169
▁мэдээллээр	-10.7169
▁тайлбарласан	-10.7172
▁тэргүү	-10.7176
ИЙ	-10.7178
▁Фэйсбүүк	-10.7184
▁өлсгөлөн	-10.7184
▁Говь	-10.7184
▁шунал	-10.7185
▁өмөөр	-10.7186
▁оролцоно	-10.7186
ock	-10.7187
▁наймдугаар	-10.7187
▁аварч	-10.7189
▁Буруу	-10.719
ell	-10.7197
▁тангараг	-10.7197
ооооо	-10.7198
tr	-10.7201
▁үзүүлнэ	-10.7201
▁зураач	-10.7204
▁Хүнсний	-10.7205
▁аваач	-10.7211
▁Нямдорж	-10.7212
Q	-10.7219
туяа	-10.7219
▁бичгий	-10.7219
чимэг	-10.7219
▁Жин	-10.7222
▁зүтгэж	-10.7224
▁Хүч	-10.7229
ke	-10.7229
▁жив	-10.7234
▁Мексик	-10.724
▁єєр	-10.724
▁єг	-10.724
▁нөхрийн	-10.724
▁өгүүллэг	-10.7241
▁амраа	-10.7241
▁утсан	-10.7241
▁хөгжсөн	-10.7246
▁өнгөрүүлэх	-10.7251
one	-10.7253
▁уриалж	-10.7256
▁цаасан	-10.7265
▁цуглуулах	-10.7267
▁компаний	-10.7269
▁тайлах	-10.7282
юу	-10.7285
▁олз	-10.7286
ия	-10.7286
▁хамрагд	-10.7287
▁Next	-10.7295
▁Интернет	-10.7295
▁гурил	-10.7295
▁холбох	-10.7295
ахиж	-10.7296
▁Мэдээлэл	-10.7299
▁зуршил	-10.7299
▁бэрх	-10.7303
▁хамар	-10.7303
▁ХҮН	-10.7304
▁жам	-10.7306
▁тоглогчид	-10.7307
▁хоч	-10.7316
▁гэрлэлт	-10.7318
▁Хороо	-10.7322
▁оруулаад	-10.7322
▁бахархаж	-10.7332
▁БИ	-10.7333
▁анхан	-10.7347
▁хийе	-10.7347
▁Хүүхдэд	-10.7351
▁арслан	-10.7351
▁өөрийнхөөрөө	-10.7351
▁бууда	-10.7353
▁зайг	-10.7357
▁харилцаатай	-10.7363
▁БОЛ	-10.7365
▁больж	-10.7373
▁мар	-10.7374
▁таараа	-10.7384
▁туулсан	-10.7384
▁нийлэх	-10.7384
▁байцаа	-10.7386
▁47	-10.7396
▁Ник	-10.7405
▁Тэнэг	-10.7408
▁Гуравдугаар	-10.7408
▁зохицо	-10.7409
▁Мөр	-10.741
▁өмд	-10.7413
Алтанхуяг	-10.7415
жаргал	-10.7421
▁дамжуулж	-10.7427
▁600	-10.7427
▁бонд	-10.7432
▁дүрвэ	-10.7433
▁ОУ	-10.7437
▁ААН	-10.7437
чихсөн	-10.7442
ьё	-10.7459
▁гарав	-10.7462
▁Төлбөр	-10.7464
▁Хоёул	-10.7464
▁мэдээлснээр	-10.7464
▁Үүгээр	-10.7464
▁(0)	-10.7464
огцом	-10.7464
▁мэдээлсэн	-10.7464
Ы	-10.7465
pa	-10.7466
▁хонь	-10.7486
▁бааз	-10.7491
▁эхэн	-10.7493
хийвэл	-10.7496
▁чимэг	-10.7498
▁тоонд	-10.7499
ью	-10.75
▁хаалттай	-10.75
▁санаарай	-10.7506
▁хүрэл	-10.751
▁найрагч	-10.7511
▁чихээд	-10.7516
уйц	-10.7517
▁Гүйцэтгэ	-10.752
▁Уучлаарай	-10.752
▁Ярилц	-10.752
▁ИТХ	-10.752
▁клип	-10.752
▁холболт	-10.752
▁зэргийг	-10.752
▁үйлчлэгч	-10.7521
▁гэдэс	-10.7521
▁эрхэлж	-10.7523
▁тусламжтайгаар	-10.7523
▁Шалгалт	-10.7523
▁дутагдал	-10.7524
▁тавьчих	-10.7525
▁бүхнээс	-10.7526
▁гэнээ	-10.753
▁чихэр	-10.7532
▁өрнүүл	-10.7542
ИР	-10.7543
▁зарцуулдаг	-10.7543
▁Шо	-10.7556
▁Алт	-10.7558
▁салсан	-10.7562
▁Баттулга	-10.7565
▁одон	-10.7565
▁21-	-10.7566
түүнчлэн	-10.7568
▁бухимда	-10.7572
▁төлдөг	-10.7582
▁Дүү	-10.7582
▁айгаад	-10.7585
▁толгойгоо	-10.7586
▁тараах	-10.7588
▁хус	-10.7591
▁явцыг	-10.7594
▁өнөөг	-10.7597
▁халаас	-10.7598
▁шагналыг	-10.7598
▁онцлогтой	-10.7604
▁нэгжүүд	-10.7605
▁жуулчи	-10.7608
▁болмоор	-10.7612
▁хүрчээ	-10.7612
mp	-10.7619
▁асуудаг	-10.762
▁эзлэх	-10.7624
▁Испани	-10.7625
▁тусгасан	-10.7633
▁өргөтгө	-10.7635
▁таниул	-10.7635
▁тодотгол	-10.7636
▁масс	-10.7636
▁гүйцэтгэдэг	-10.7638
▁зочло	-10.7638
▁Тоглолт	-10.7638
▁дэмжинэ	-10.7642
▁хөдөлмөрлө	-10.7646
▁эсрэгээрээ	-10.7652
▁зэргээр	-10.7657
▁орил	-10.7657
▁харамс	-10.766
▁ярианы	-10.7661
▁ялагд	-10.7661
▁багаас	-10.7664
$	-10.7674
логдсон	-10.7682
▁шалгаруул	-10.7685
▁цээр	-10.7688
▁цгаа	-10.7693
▁өвдөлт	-10.7693
▁Нохой	-10.7693
▁хангалтгүй	-10.7693
▁атаарх	-10.7694
▁дэмжигч	-10.7695
da	-10.77
▁58	-10.7703
▁ажиллуулж	-10.7705
▁мөрөн	-10.7706
our	-10.7708
▁огцруула	-10.7709
▁ирвэл	-10.771
▁мэдэхэд	-10.7711
▁нүцгэн	-10.7712
рамд	-10.7714
▁хүрлээ	-10.772
▁ярив	-10.7723
▁уйлж	-10.7725
УС	-10.7725
▁Арьс	-10.7726
Дэлхий	-10.7734
▁хэрэглээг	-10.7741
▁Агуу	-10.7748
▁ИЙН	-10.7749
▁худалдаанд	-10.7749
▁ЗХУ	-10.7751
▁үлдлээ	-10.7752
▁санадаг	-10.7752
▁энерги	-10.7752
▁саатуу	-10.7753
▁боловсон	-10.7753
▁хүлээгээ	-10.7753
▁хөрвүүл	-10.7753
▁бэлдэж	-10.7759
▁сэжиг	-10.7762
▁хором	-10.7763
▁түвшинг	-10.7767
▁зэрэгцэ	-10.7767
▁Өрөө	-10.7767
▁хүртээ	-10.7768
▁шидэ	-10.7771
▁хатга	-10.7783
▁хотоос	-10.7787
▁хариултыг	-10.779
▁хараарай	-10.7794
▁хамаара	-10.7794
▁дансанд	-10.7798
▁ирц	-10.78
▁суртахуун	-10.7809
▁төмрийн	-10.7809
▁Түүнтэй	-10.781
▁Гэнэт	-10.781
▁хотноо	-10.781
▁Утас	-10.7811
▁шилжилт	-10.7812
▁амьтды	-10.7813
▁Сайт	-10.7813
▁Майк	-10.7813
▁Залуучууд	-10.7814
▁ягаан	-10.7815
▁хүдэр	-10.7817
▁ялгаж	-10.7832
огдсон	-10.784
▁нэрлэсэн	-10.784
▁форум	-10.7868
▁Швед	-10.7868
▁домог	-10.7868
▁Нутгийн	-10.7868
▁текст	-10.7869
▁мэдрэл	-10.7869
▁Онц	-10.787
▁Wi	-10.7871
▁Зөвлөл	-10.7875
▁улай	-10.7884
▁тэргүүлэ	-10.7887
▁буйгаа	-10.7888
▁боловсролтой	-10.789
▁хамрагда	-10.7894
▁давхи	-10.7895
▁өсгөх	-10.7899
▁татаад	-10.79
▁оров	-10.7914
▁46	-10.7917
▁Сэтг	-10.7917
▁Цэцэрлэг	-10.7927
▁огцор	-10.7928
▁үгүйсгэхгүй	-10.7928
▁оролдлого	-10.7928
▁тасалбар	-10.7928
▁бичигдсэн	-10.7928
▁дуусна	-10.7929
ӨЛ	-10.7929
▁43	-10.793
▁Гадны	-10.793
▁дүүрэгт	-10.7937
▁нийцсэн	-10.7947
▁Бүрэн	-10.7948
▁чихсэн	-10.795
▁Кл	-10.7952
ge	-10.7953
▁заал	-10.7955
▁Гадна	-10.7959
▁нүүрний	-10.7961
▁Бараа	-10.7962
mi	-10.7964
▁үйлчилгээнд	-10.7965
▁Зай	-10.7965
хнаа	-10.7974
▁уугаад	-10.7974
▁Зөвлөлт	-10.7981
▁оюуны	-10.7984
▁зөөврийн	-10.7987
▁хүчилтөрөгч	-10.7987
▁зурвас	-10.7987
▁үйлчилдэг	-10.7987
баясгалан	-10.7987
▁Оюутан	-10.799
▁цув	-10.8007
▁анхаарна	-10.8014
▁амжуул	-10.8016
▁онцло	-10.8027
▁өргөх	-10.8031
br	-10.8034
ени	-10.8041
▁ХК	-10.8041
▁хийлгэж	-10.8043
▁Швейцар	-10.8047
▁Авлига	-10.8047
▁хөдөлгүүр	-10.8047
▁багууд	-10.8048
▁дууслаа	-10.8048
▁самбар	-10.8048
▁бүрдсэн	-10.8052
▁цэвэрхэн	-10.8055
▁тух	-10.8056
▁гэрийнхэн	-10.8058
▁өвөр	-10.806
▁үйлдвэрлэсэн	-10.8064
▁аврал	-10.807
▁хянан	-10.8071
▁илгээсэн	-10.8077
▁БАЙ	-10.8077
▁өгөхөд	-10.8078
▁эзэлж	-10.8079
▁цаашаа	-10.8081
ИД	-10.8082
▁хяна	-10.8083
▁оролцуул	-10.8096
▁хорин	-10.8098
▁ариутга	-10.8103
▁бүтэлгүйт	-10.8107
▁дадлага	-10.8107
▁Сэтгүүлч	-10.8107
▁Хэнтий	-10.8109
▁таамаглаж	-10.8109
▁хөрөнгөө	-10.811
▁санср	-10.811
▁үеэ	-10.8111
▁Крис	-10.8111
▁тэргүүлж	-10.8111
▁Le	-10.8112
▁шахуу	-10.8114
▁булчин	-10.8115
▁хориглосон	-10.8117
▁Ру	-10.8117
▁баригдсан	-10.8121
▁хөдөлж	-10.8121
▁эрхэмлэ	-10.8121
iz	-10.8122
▁даанч	-10.8123
▁арми	-10.8123
▁хүмүүжүүл	-10.8123
▁мэдлээ	-10.8124
▁хориглох	-10.8127
▁хорвоог	-10.8135
▁хийгдэх	-10.8136
▁тоглуул	-10.8136
▁ажилчдын	-10.8146
▁Зургаа	-10.8146
▁аваргы	-10.8147
▁тэнцэх	-10.8149
Шинэ	-10.8152
▁Жу	-10.8153
▁Бая	-10.8157
▁амьдраа	-10.8161
▁эрчимтэй	-10.8161
▁жирэмс	-10.8162
▁Баянзүрх	-10.8168
▁фэйсбүүк	-10.8168
▁тавигдах	-10.8168
▁мэдэрсэн	-10.8168
▁болоосой	-10.8168
▁бохирдол	-10.8169
▁үүдэлтэй	-10.817
▁эмчлүүл	-10.8173
▁цөө	-10.8174
▁гял	-10.8177
▁нэрлэх	-10.8187
отуур	-10.8189
▁250	-10.8192
▁ялагда	-10.8192
▁ослы	-10.8198
снөө	-10.8209
▁хувааж	-10.8209
▁явуулна	-10.8217
▁эдлэх	-10.8224
Олон	-10.8224
▁харилцагч	-10.8229
▁механизм	-10.8229
▁сервер	-10.8229
▁Польш	-10.8229
▁Хүүхдээ	-10.8229
▁өмсөж	-10.8232
▁тархалт	-10.8234
▁Энийг	-10.8236
▁ури	-10.8244
▁илчлэ	-10.8248
**	-10.8249
▁нутгаас	-10.8257
▁Эмээ	-10.8278
▁эмчид	-10.8285
▁сунгах	-10.8287
▁тодотго	-10.829
▁Отгон	-10.829
▁Пакистан	-10.829
▁Сэтгэгдэл	-10.829
▁тулгамдсан	-10.829
▁Жолооч	-10.829
▁гүйцэтгэсэн	-10.8295
▁Ажлаа	-10.8299
▁сэрээ	-10.8304
▁Урьдчил	-10.8305
▁толи	-10.8305
▁хүлээдэг	-10.8308
▁авиа	-10.8325
▁давтагда	-10.8339
▁эмчил	-10.8342
▁товчоо	-10.8342
▁41	-10.8344
ӨХ	-10.835
▁тээрмийн	-10.8352
▁дэвтэр	-10.8352
▁барьдаг	-10.8352
цгооё	-10.8352
▁захирамж	-10.8353
▁санасан	-10.8354
▁шалтгааны	-10.8355
▁тушаалтнууд	-10.8357
▁томилгоо	-10.8357
ru	-10.8359
▁сэв	-10.836
Уул	-10.836
▁уруул	-10.836
▁цэвэрлэгч	-10.8362
▁тамхины	-10.8366
▁санаагаа	-10.8369
▁Али	-10.8384
▁больчих	-10.839
▁өдрөө	-10.8392
они	-10.8392
▁гомдоо	-10.8399
▁Бүс	-10.8401
▁баримтал	-10.8403
▁амьдарсан	-10.8404
▁цуглар	-10.8406
▁өгөгдөл	-10.8414
▁өгөөрэй	-10.8414
▁Богино	-10.8414
▁ходоод	-10.8414
▁Зуны	-10.8415
▁чадавх	-10.8416
▁шинэчлэлт	-10.8417
НИЙ	-10.8419
IN	-10.8429
▁орхиод	-10.8432
▁ашгаа	-10.8433
▁гээл	-10.8436
ect	-10.844
▁бирж	-10.8443
гэлз	-10.8452
▁сурталчилгааны	-10.8464
▁мм	-10.847
▁жүүл	-10.8473
өөрхий	-10.8474
▁доктор	-10.8476
▁Токио	-10.8476
▁Нууц	-10.8477
▁тодорхойлсон	-10.8477
▁хэмнэх	-10.8477
▁илрэл	-10.8477
▁үйлдэх	-10.8479
▁хачирхалтай	-10.8479
▁кар	-10.8479
▁цэс	-10.848
▁олонхи	-10.8484
▁Ховд	-10.8485
▁поп	-10.8489
ура	-10.8489
▁тоглоомууд	-10.8499
▁багтах	-10.8504
▁Гоё	-10.851
▁улстөрч	-10.8512
▁өргөдл	-10.8518
▁олоход	-10.8519
▁шагна	-10.8526
▁гайхах	-10.8534
▁Програм	-10.8539
▁зургадугаар	-10.8539
▁зөрчиж	-10.854
▁Дорж	-10.854
▁залхуу	-10.8542
▁бүтээмж	-10.8543
▁зохиогч	-10.8546
удлаа	-10.8549
▁үйлдвэрлэгчид	-10.8551
▁Удаа	-10.8553
▁хүүхдийнхээ	-10.8553
ist	-10.8557
▁эш	-10.8562
▁Машины	-10.8563
кү	-10.8565
uu	-10.8567
▁хагар	-10.8567
▁үйлчилж	-10.8573
▁асга	-10.8578
▁авав	-10.8581
ng	-10.8583
▁Дол	-10.8585
▁дэвсгэрт	-10.8588
аагуур	-10.8602
▁Бурхны	-10.8603
▁аппарат	-10.8603
▁объект	-10.8603
▁платформ	-10.8603
▁мэтчилэн	-10.8603
▁Баатар	-10.8603
▁хүслийг	-10.8604
▁шаардагдах	-10.8605
▁тогтох	-10.8606
▁хайгуул	-10.8608
▁модны	-10.861
▁дгийг	-10.8615
атор	-10.8621
▁хэс	-10.8627
▁удаж	-10.8628
▁хэлээрэй	-10.863
▁Хятадууд	-10.8634
▁дарагд	-10.8635
▁буйгаар	-10.8636
▁айраг	-10.8639
▁жий	-10.8641
▁нилээ	-10.8645
▁зарчмыг	-10.8646
J	-10.8653
Алтан	-10.8654
хэвч	-10.8654
▁оруулдаг	-10.8658
▁байршуул	-10.8663
щ	-10.8666
ight	-10.8666
Жавхлан	-10.8666
▁бүтэхгүй	-10.8667
▁Май	-10.8671
▁Алдарт	-10.8673
▁оршуул	-10.8674
▁явбал	-10.8675
▁урагшаа	-10.8678
▁зардл	-10.8678
▁уудаас	-10.8687
▁найм	-10.869
▁Сонин	-10.8691
ran	-10.8692
▁хаясан	-10.8692
▁Израиль	-10.8692
▁сэтгэц	-10.8697
▁явагдах	-10.8698
▁тойрны	-10.8699
▁түши	-10.8702
▁нүүдэл	-10.8703
▁Цай	-10.871
ков	-10.8717
▁болгочих	-10.8722
▁өсвөр	-10.873
▁мэдээллүүд	-10.873
▁тохиолдлы	-10.873
замбараагүй	-10.8731
▁ширүүн	-10.8733
▁өндөг	-10.8739
▁хоорондох	-10.8746
Батболд	-10.8746
▁үүсээ	-10.8747
▁засаж	-10.8747
▁хаши	-10.8749
▁илэрхийлдэг	-10.8758
▁хэлэлцүүлг	-10.8758
▁Фор	-10.8758
▁байлдаа	-10.876
▁байрлуулах	-10.8762
▁өдөрлөг	-10.8762
ik	-10.8768
▁Хама	-10.8771
▁цөл	-10.8774
▁ээждээ	-10.8789
▁Word	-10.8795
▁Гишүүд	-10.8795
▁цуцал	-10.8795
▁Зөндөө	-10.8795
▁Асуудал	-10.8795
▁мөсөн	-10.8797
▁Ногоон	-10.8797
▁Ирак	-10.8798
▁харагдсан	-10.8801
▁1992	-10.8802
▁тендер	-10.8803
▁ГҮЙ	-10.8804
▁ойлгуулах	-10.8805
▁хэрэгслээ	-10.8806
▁ширтэ	-10.8806
▁хаягдлы	-10.881
▁зардаг	-10.881
▁оролдсон	-10.8812
▁зүрхэнд	-10.8819
▁Алха	-10.8821
▁үнс	-10.8827
▁Про	-10.8831
▁төвлөрүүл	-10.8838
▁үйлдлээ	-10.8839
▁болзоо	-10.8839
▁замдаа	-10.8842
▁болхоор	-10.8842
▁хэргээ	-10.8844
The	-10.8848
▁саруул	-10.885
AS	-10.8859
▁ДЭМБ	-10.886
▁цогцолбор	-10.886
▁Дубай	-10.886
▁нутгийг	-10.886
▁гэлтгүй	-10.886
▁Хариулт	-10.8861
▁хуримтлуул	-10.8862
▁тавцан	-10.8863
▁залгамж	-10.8863
▁аймар	-10.8864
▁эрхлэгчид	-10.8865
▁120	-10.8867
▁нягтлан	-10.8869
▁шийдвэрлэж	-10.887
▁байршуулах	-10.8871
▁эргэлзэ	-10.8871
▁бэлдэх	-10.8872
▁сугалаа	-10.8872
▁хуудсаа	-10.8873
▁эзэмшдэг	-10.8874
▁шинэчлэ	-10.8875
▁тушаалтан	-10.888
▁барууны	-10.8887
▁ярилцлаа	-10.8889
▁хэвш	-10.8894
▁байгууллаа	-10.8896
▁харагдуул	-10.8898
▁Сүм	-10.89
▁нэмсэн	-10.8902
окс	-10.8903
▁ялагч	-10.8904
▁машинууд	-10.8906
▁түлхэ	-10.8909
▁зөөл	-10.8915
ust	-10.8918
▁Эгч	-10.8925
▁Вакцин	-10.8925
▁Төслийн	-10.8925
▁хатагтай	-10.8925
▁Обама	-10.8925
▁Хулгай	-10.8925
▁Умард	-10.8925
▁насныхан	-10.8925
▁эрдэмтэн	-10.8927
▁Зориг	-10.8927
▁зурхай	-10.8931
▁өдөржин	-10.8933
▁Тамхи	-10.8934
▁ашиглана	-10.8939
▁хоцро	-10.8942
age	-10.8945
▁хүснэ	-10.8946
▁яваарай	-10.8948
▁унадаг	-10.8957
▁эргэлзэх	-10.8973
▁76	-10.8976
▁эргүү	-10.8986
ааааа	-10.8987
▁оруулагч	-10.8989
▁Архангай	-10.8991
▁хязгаарлагдмал	-10.8991
▁зэрлэг	-10.8991
▁Нэмэлт	-10.8991
▁тэтгэвэрт	-10.8991
▁цамц	-10.8991
▁тааралд	-10.8991
▁нэвтрүүлгий	-10.8992
▁ардчиллы	-10.8992
▁Ноён	-10.8993
▁агуулдаг	-10.8994
▁нэмэгдэнэ	-10.8995
ice	-10.8997
аруухан	-10.9001
▁Буян	-10.9002
▁босох	-10.9002
▁залгаа	-10.9003
▁дүгнэх	-10.9005
ian	-10.9009
▁тэмдэглэдэг	-10.9011
▁шингээ	-10.9014
▁Бари	-10.9029
▁эрэн	-10.9045
▁ойлгуул	-10.9046
▁ичих	-10.9054
▁хоригдо	-10.9056
▁БНАСАУ	-10.9057
▁түймэр	-10.9057
▁контент	-10.9057
Гэр	-10.9057
▁хэрэглэгддэг	-10.9057
▁наяд	-10.9058
ST	-10.9059
▁Булган	-10.9062
▁Яахав	-10.9065
▁чигээрээ	-10.9068
▁порт	-10.9069
▁pre	-10.907
▁2001	-10.907
▁мужи	-10.907
▁нөхрөө	-10.9074
▁үерхэ	-10.9075
▁Туул	-10.908
▁бүтээгч	-10.9081
▁Өвлий	-10.9083
▁Хурда	-10.9083
▁by	-10.9094
▁үзжээ	-10.9097
▁Петр	-10.9101
▁хадгалагда	-10.9106
▁төрүүлсэн	-10.9107
▁US	-10.9111
▁шаардсан	-10.9115
Ямар	-10.9116
▁танилцуулсан	-10.9118
▁сураггүй	-10.9119
▁Цус	-10.9122
▁сошиал	-10.9124
▁эвлэр	-10.9124
▁МУИС	-10.9124
▁чимэглэл	-10.9126
▁Будд	-10.9128
▁захиалагч	-10.9129
▁андуур	-10.9134
▁нийцэх	-10.9134
▁хавры	-10.9135
▁1980	-10.9137
▁сандар	-10.9139
▁хийлгэсэн	-10.9147
Баасанхүү	-10.9148
▁авъя	-10.915
▁хамарсан	-10.9151
▁ширээний	-10.9152
▁тэргүүний	-10.9159
▁хооллох	-10.9162
▁самар	-10.9165
эгдээгүй	-10.917
▁байгууллаг	-10.9178
ГҮЙ	-10.9182
эмсэг	-10.9184
▁шалгана	-10.9184
▁архив	-10.9187
▁сөхө	-10.9188
▁мөргөл	-10.9189
▁Коронавирус	-10.9191
һ	-10.9191
▁YouTube	-10.9191
▁Хөтөлбөр	-10.9191
▁Өсвөр	-10.9191
▁Малайз	-10.9191
▁ургамлы	-10.9191
▁ахиу	-10.9192
▁эдэлж	-10.9193
▁дээшлүүлэх	-10.9194
▁өсөж	-10.9194
▁VI	-10.9203
▁үхэж	-10.9206
▁тууз	-10.9218
▁нийтээрээ	-10.922
▁гаргав	-10.9229
▁190	-10.9247
▁төлөвлөгөөтэй	-10.9256
▁робот	-10.9259
▁корпорац	-10.9259
▁аймгууд	-10.9259
▁хүзүү	-10.9259
Ма	-10.9259
▁ажилтны	-10.9267
▁хэрэгжүүлнэ	-10.9271
ear	-10.9275
▁цуглуулга	-10.9277
▁ирүүлсэн	-10.9282
▁Цэвэр	-10.9282
▁ийш	-10.9282
▁бахархал	-10.9294
▁сэдвийг	-10.9298
▁хичээсэн	-10.93
▁хятадууд	-10.9304
▁баржээ	-10.9304
▁тогооч	-10.9305
▁жагс	-10.9307
эсэг	-10.9309
▁байгуулдаг	-10.9314
▁зорилто	-10.9315
Яагаад	-10.9318
▁эзэл	-10.9321
▁яав	-10.9322
▁Вашингтон	-10.9327
▁бялуу	-10.9327
▁доромжло	-10.9327
▁нотолгоо	-10.9327
▁санамсаргүй	-10.9327
▁явагддаг	-10.9327
▁Чингэл	-10.9327
▁Цэрэн	-10.9327
▁тарих	-10.9329
▁57	-10.933
▁тоглоно	-10.9331
▁.......	-10.9333
▁хаягдал	-10.9334
▁үүсгэдэг	-10.9337
▁ойлгоно	-10.9339
▁ижилхэн	-10.934
▁тэнцэ	-10.9341
▁мартсан	-10.9344
▁хүрэхэд	-10.9346
▁асуулаа	-10.9361
Нада	-10.9365
▁ажлаасаа	-10.9372
▁An	-10.9372
▁сонгогч	-10.9385
▁амжих	-10.9388
▁өрөвдө	-10.9389
▁зорилгоо	-10.9394
▁шуурга	-10.9395
▁эхэлснээ	-10.9396
▁Фото	-10.9397
▁далан	-10.9398
▁үзэгчид	-10.94
▁Кол	-10.9401
▁03	-10.9405
▁шинэчилсэн	-10.9406
▁тайза	-10.9426
▁Ухаан	-10.9429
ark	-10.9432
▁танин	-10.9434
▁шийддэг	-10.9434
▁хойч	-10.9435
▁хүйт	-10.9444
SS	-10.9455
Хэрэв	-10.9457
▁тархины	-10.9457
▁дараалал	-10.9463
▁Sonin	-10.9464
▁XNUMX	-10.9464
▁өвчлөл	-10.9464
▁Найрамда	-10.9464
▁хороонд	-10.9465
▁гацаа	-10.9468
▁даган	-10.9471
▁төвшин	-10.9471
▁эзэлдэг	-10.9471
▁өгүүлсэн	-10.9479
▁хүргэнэ	-10.948
▁шалтгаална	-10.9489
ЛЭГ	-10.9492
олбо	-10.9499
▁хөгш	-10.952
▁хувьса	-10.9526
ash	-10.9527
▁Ертөнц	-10.9533
▁Дасгал	-10.9534
▁ТББ	-10.9534
▁баялгий	-10.9534
▁холбож	-10.9534
▁арчилгаа	-10.9534
▁өвдөх	-10.9534
▁нүүлгэ	-10.9534
▁шүүмжилж	-10.9535
▁хужаа	-10.9535
▁Ами	-10.9535
▁салшгүй	-10.9537
▁оршиж	-10.9542
▁2002	-10.9546
▁хоолонд	-10.9547
▁May	-10.955
▁өгүүлэх	-10.9552
▁дутагдалтай	-10.9565
▁нэвтэр	-10.9576
▁түш	-10.9583
▁хувирга	-10.9587
ува	-10.9589
▁гэгээр	-10.9594
▁comment	-10.9603
▁огцрох	-10.9603
▁зуслан	-10.9603
▁Баримт	-10.9604
▁Хатуу	-10.9604
▁бодоогүй	-10.9604
▁ядарсан	-10.9604
▁үзэгчдий	-10.9604
▁Асуудл	-10.9605
▁хүртээмж	-10.9605
▁интер	-10.9608
▁хориглоно	-10.9608
▁байцаалт	-10.9609
▁олгогч	-10.9615
▁шахалт	-10.9619
▁рок	-10.9622
▁өгүүлж	-10.9623
▁амласан	-10.9624
▁нөхөрлөл	-10.9624
▁товло	-10.9629
▁захиалах	-10.9632
▁сонголтоо	-10.9634
▁этгээдүүд	-10.9635
Хурц	-10.9636
▁махан	-10.9638
▁эрмэлзэ	-10.9639
▁бөөнөөр	-10.9648
лүүлдэг	-10.9662
Батзандан	-10.9674
▁коммунист	-10.9674
▁эрэлхийл	-10.9674
▁Салбар	-10.9674
▁Оюутнууд	-10.9675
▁үүсдэг	-10.9676
▁үнэмшил	-10.9676
▁алдагдсан	-10.9685
▁намры	-10.9692
▁атлаа	-10.9697
▁шалтгаалан	-10.9697
▁Нэгдүгээр	-10.9702
▁багтдаг	-10.9704
▁орууллаа	-10.9716
▁Чой	-10.9716
▁шийдлээ	-10.9726
▁шивээс	-10.9735
Улаан	-10.9741
▁хөтлөх	-10.9745
▁журмаар	-10.9745
▁доогуур	-10.9745
▁Үлдсэн	-10.9745
▁сурагчдын	-10.9748
▁болгоомж	-10.9756
▁болчихдог	-10.9758
▁эргүүлэн	-10.9763
▁өөрчлөлтүүд	-10.9766
▁хөгжлий	-10.9772
▁Шөний	-10.9775
▁хальс	-10.9781
▁хивс	-10.9783
▁эдлэл	-10.9785
▁харгалза	-10.9789
▁хаалг	-10.9791
▁хилэн	-10.9801
▁эхлэхээс	-10.9804
▁бүтээгдэхүүнүүд	-10.9808
▁Previous	-10.9816
▁франц	-10.9816
▁түрээслүүлнэ	-10.9817
▁ээжийгээ	-10.9819
25	-10.9819
▁дууссаны	-10.9819
▁ахин	-10.9828
▁нэмээд	-10.9835
▁урамшуул	-10.9836
▁дуулна	-10.9837
▁гаал	-10.984
▁эрхэнд	-10.9859
▁хамгаална	-10.9866
Z	-10.9884
▁сургалтанд	-10.9884
▁үдэш	-10.9885
▁хувиа	-10.9886
▁Евро	-10.9886
▁Стандарт	-10.9888
▁паспорт	-10.9888
▁нэгтгэх	-10.9888
▁шүүлтүүр	-10.9888
▁Гэгээн	-10.9888
▁авъяас	-10.9892
▁чадамж	-10.9892
▁бохирдлы	-10.9894
▁залги	-10.9901
▁5000	-10.9918
▁нийлүүлэх	-10.9919
▁захирагч	-10.992
▁амьдарна	-10.9921
▁ажиглагда	-10.9923
▁хэрэглээнд	-10.993
▁тоглолтонд	-10.994
▁нэгнээ	-10.9942
Сайн	-10.9958
icrosoft	-10.9961
î	-10.9961
▁өнөөдрөөс	-10.9961
▁төслөө	-10.9961
▁өнгөрлөө	-10.9961
▁линк	-10.9961
▁Донал	-10.9963
▁төлнө	-10.9965
▁тоохгүй	-10.9968
▁хахаха	-10.9969
▁үйлдвэрлэдэг	-10.9974
▁навч	-10.9979
▁аргачлал	-10.9983
▁кинонууд	-10.9988
▁танилцууллаа	-10.9988
▁орлоготой	-10.9992
▁гуравда	-11
▁үеийнхэн	-11.0001
RE	-11.0002
▁98	-11.0003
▁ирүүл	-11.0007
▁хувцсаа	-11.0012
үлхүүр	-11.0024
▁ХӨСҮТ	-11.0034
▁Филиппин	-11.0034
▁академи	-11.0034
▁цуцлах	-11.0034
▁хурдацтай	-11.0034
▁эвсэл	-11.0034
▁тайлагна	-11.0035
▁яддаг	-11.0035
▁1999	-11.0039
▁ZA	-11.0039
▁Америкчууд	-11.004
▁хавтан	-11.0043
▁тусалсан	-11.0048
▁солилцо	-11.0049
▁хөгжөө	-11.0052
▁яамнаас	-11.0055
▁үхлий	-11.0058
▁гүйцэтгэгч	-11.0059
▁төгсөө	-11.0064
▁залруул	-11.0068
▁хүнийхээ	-11.0072
▁харьца	-11.0077
▁яара	-11.0087
▁үйлдвэрүүд	-11.0094
▁тэргүүлэгч	-11.0097
▁анзаарсан	-11.0097
▁үндс	-11.0099
▁анхнаас	-11.0099
▁санхүүжүүл	-11.0102
▁64	-11.0106
▁Онгоц	-11.0107
▁Сөүл	-11.0107
▁Вэб	-11.0107
▁Хяналт	-11.0107
uck	-11.0107
▁Завхан	-11.0107
▁бичгээр	-11.0108
▁дуулиан	-11.0108
▁ерөөл	-11.0109
▁дэвшиж	-11.0109
▁гүрэн	-11.011
▁сонирхогч	-11.0111
▁1996	-11.0112
▁байгал	-11.0113
▁оролдох	-11.0114
▁Аса	-11.0123
▁тохиролцоо	-11.013
▁баталгаажуулах	-11.0133
▁аялж	-11.0135
▁томилогдо	-11.0154
▁төрчид	-11.0155
▁олдох	-11.0163
▁аваачи	-11.0163
ожим	-11.018
▁Техник	-11.0181
▁график	-11.0181
▁нойтон	-11.0181
▁ЭМЯ	-11.0181
▁зориулалтаар	-11.0181
▁Автобус	-11.0181
▁өвөг	-11.0181
▁роман	-11.0181
▁амьсгаа	-11.0181
▁дуусаагүй	-11.0181
▁нөхцлий	-11.0182
▁тооцогдо	-11.0182
▁Италийн	-11.0184
▁хамаатан	-11.0186
▁улмаар	-11.0189
▁будалт	-11.019
▁зөрчлий	-11.0191
▁Мари	-11.0192
▁ямаа	-11.0197
▁олборло	-11.0204
▁тэвчи	-11.021
▁Төрсөн	-11.0221
▁хаячих	-11.0224
▁хүндэт	-11.0225
▁дэвшигчдий	-11.0243
▁медал	-11.0252
&	-11.0254
Намайг	-11.0254
▁Хугацаа	-11.0256
▁мэргэшсэн	-11.0256
▁генерал	-11.0256
▁Хүсэл	-11.0256
▁өмсөгч	-11.0256
▁суудлын	-11.0256
▁сансар	-11.0256
▁Янз	-11.0256
▁үнэлдэг	-11.0256
▁диск	-11.0257
▁Уурхай	-11.0258
▁сонирхлын	-11.0264
▁батлуул	-11.0264
▁үүсгэсэн	-11.0273
ft	-11.028
▁хайгаа	-11.0282
▁начин	-11.0283
▁Ираны	-11.0296
▁хялбархан	-11.0297
▁чиглүүлэ	-11.0306
▁оросууд	-11.0306
▁тэгэ	-11.0308
▁Ерөнхийлөгчид	-11.0311
зүйн	-11.0313
▁3000	-11.0314
▁Зул	-11.0316
▁залха	-11.0317
▁мэдрүүл	-11.032
-10	-11.033
хоёрдугаар	-11.033
Зориг	-11.033
▁онгойлго	-11.0331
▁Ардчилал	-11.0331
▁анагаах	-11.0331
рваннэгдүгээр	-11.0331
▁ахиц	-11.0331
▁хомсдол	-11.0331
▁хэлэлцэнэ	-11.0333
▁Цэцэг	-11.0339
▁зүйрлэ	-11.0342
▁харагдаад	-11.0351
▁мөхө	-11.0352
▁ахмадууд	-11.0353
▁шүдний	-11.0357
▁чадлы	-11.0361
▁хүсээд	-11.0365
▁урамшууллы	-11.038
▁солилцоо	-11.0391
▁залбирч	-11.0392
агдаад	-11.0392
Є	-11.0407
▁next	-11.0407
▁практик	-11.0407
▁физик	-11.0407
Хүрэлбаатар	-11.0407
▁аяллын	-11.0407
▁хавдры	-11.0408
▁хуца	-11.0411
▁цө	-11.0412
▁өмссөн	-11.0415
▁зоос	-11.0417
▁тэмдэглэгээ	-11.0418
▁тогтооно	-11.0419
▁Чуулган	-11.0422
▁Түрээс	-11.0424
▁зохиосон	-11.0426
▁хугар	-11.0428
▁нуугд	-11.0432
ung	-11.0434
▁элсэх	-11.0434
▁цалингаа	-11.0434
▁тэртээ	-11.0435
▁тулгардаг	-11.0439
▁заль	-11.0446
han	-11.045
▁тулгуур	-11.0463
▁хэмжээнээс	-11.0464
▁Сонирхо	-11.0483
▁санагдлаа	-11.0483
▁философи	-11.0483
▁өөдрөг	-11.0483
▁сэтгэгдлээ	-11.0483
▁шудрага	-11.0483
▁жүжг	-11.0483
▁хэлтсийн	-11.0483
▁авлигын	-11.0483
▁бэлчээр	-11.0483
▁Харилцаа	-11.0483
▁Гагц	-11.0484
▁Мэргэжил	-11.0484
▁зориуд	-11.0485
▁Шүүгч	-11.0486
▁гэсний	-11.0492
▁бокс	-11.0492
▁700	-11.0493
▁орчихсон	-11.0494
▁шууданг	-11.0506
▁гэрлэсэн	-11.0507
▁гаргачих	-11.0508
▁барилдах	-11.0511
▁нэвтэрч	-11.0513
▁тамга	-11.0518
▁цэгүүд	-11.0524
▁сэрэмж	-11.0546
▁бөмбөлөг	-11.056
▁сувилагч	-11.056
▁өнцгөөс	-11.056
▁анкет	-11.056
▁дулаахан	-11.056
▁тархсан	-11.056
▁бичигдэ	-11.0561
▁ингэснээр	-11.0561
▁шимтгэл	-11.0562
▁Үйлдвэрлэл	-11.0564
▁Өвөр	-11.0565
▁You	-11.0567
▁сонирхох	-11.0568
▁суга	-11.057
УЛ	-11.0576
▁гишгэ	-11.0579
▁шилжсэн	-11.058
▁хуралдаж	-11.0581
▁хаалгаа	-11.0582
▁нисэ	-11.0588
▁зайлуулах	-11.0589
▁Утаа	-11.0604
▁Алдаа	-11.0618
▁байсны	-11.0621
▁шалта	-11.0621
▁боловсруу	-11.0633
▁Парламент	-11.0638
▁Хөгжим	-11.0638
▁Өмнөговь	-11.0638
▁өгөгдлийг	-11.0638
▁Женко	-11.0638
▁бооцоо	-11.0638
▁нөлөөлнө	-11.0638
▁Дөнгөж	-11.0638
▁парк	-11.0638
▁заадаг	-11.0639
▁алдалгүй	-11.0639
▁дижи	-11.0639
▁1998	-11.0644
▁дуулаад	-11.0644
▁Ганцаараа	-11.0644
▁толбо	-11.0648
▁гарсны	-11.065
▁Цөм	-11.0656
▁бүжгий	-11.0658
▁1.5	-11.0658
▁сэтгүүлчид	-11.0664
▁түрхэ	-11.0692
▁Jun	-11.0697
▁удирдан	-11.0698
▁авсны	-11.0714
▁Бэлг	-11.0715
▁капитал	-11.0716
▁сэтгэхүй	-11.0716
▁Мянга	-11.0716
▁тээрэмдэх	-11.0716
▁Time	-11.0716
▁такси	-11.0716
▁Хааяа	-11.0718
▁угсаа	-11.0718
▁III	-11.072
▁Хурим	-11.0723
▁Өөрчлө	-11.0725
▁бахархдаг	-11.0725
▁Өвөл	-11.0725
▁үйлчлүүлэгчид	-11.0726
▁Библий	-11.0728
▁сэхээ	-11.0728
▁дотооддоо	-11.073
▁хөвө	-11.0733
▁Архив	-11.0736
▁Хажуу	-11.0741
ОД	-11.0742
▁Насанд	-11.0766
▁огцруул	-11.0773
▁хоцрогд	-11.0774
ендер	-11.0787
int	-11.0792
▁заналхийл	-11.0794
▁тайвшруу	-11.0794
▁мөрөөдлөө	-11.0794
▁Чанар	-11.0795
▁дамжуулагч	-11.0797
▁үдэшлэг	-11.0798
▁агшин	-11.08
▁шатахуун	-11.08
▁санаачилга	-11.0802
▁хэлхээ	-11.0809
▁суугчид	-11.0809
▁Фе	-11.0815
▁жиргэ	-11.0817
▁албаныхан	-11.0822
▁тойргийн	-11.0833
▁харшил	-11.0836
▁жолоодо	-11.0848
▁мэдээлэх	-11.0851
ike	-11.0852
өлгө	-11.086
▁Com	-11.0865
▁өмчи	-11.0873
▁Автомашин	-11.0874
▁Хувцас	-11.0874
▁бүдүүлэг	-11.0874
▁зөгнө	-11.0874
▁сөргөө	-11.0874
▁аятайхан	-11.0874
▁томьёо	-11.0874
▁золго	-11.0874
▁үзэмж	-11.0874
▁Нигер	-11.0877
▁америкчууд	-11.0877
▁эрэгтэйчүүд	-11.0878
▁өмсдөг	-11.0879
▁оруулагчид	-11.0879
▁сонсогч	-11.088
▁төсөөлөл	-11.0881
▁илэрхийлье	-11.0882
хэвчлэн	-11.0884
▁улстөрчид	-11.0885
▁команд	-11.0889
▁хэрэгжүүлсэн	-11.09
▁Харри	-11.0905
▁нэгдлий	-11.0908
▁зарагда	-11.0922
Шаардлагатай	-11.0922
ЛАГ	-11.0935
▁хүмүүн	-11.0954
▁математик	-11.0954
▁Вьетнам	-11.0954
▁гадаргуу	-11.0954
▁градус	-11.0954
▁мэндчилгээ	-11.0954
▁Дэлгүүр	-11.0954
▁тарьж	-11.0954
▁хуулинд	-11.0954
▁орлогыг	-11.0954
▁өвдөж	-11.0954
▁Улстөр	-11.0954
▁албыг	-11.0954
▁элсэлт	-11.0954
▁бардам	-11.0954
▁Барилга	-11.0955
▁өөдөөс	-11.0959
▁мөрөөдлий	-11.0961
▁нэмэгдүүлж	-11.0962
▁мэдэгдэв	-11.0964
▁баярласан	-11.0968
▁тохиролцо	-11.0973
▁хамра	-11.0978
▁ирснээ	-11.0978
▁сангаас	-11.0979
▁ээжийнхээ	-11.098
▁чадварлаг	-11.0985
▁Хоёрдугаар	-11.099
▁үзүүлэлтүүд	-11.0992
▁наадмаа	-11.1014
ӨН	-11.1022
▁Хүүхдий	-11.1029
▁Гайхалтай	-11.1034
▁Зөвлөгөө	-11.1034
️	-11.1034
▁Оролцо	-11.1034
▁далбаа	-11.1035
▁голомт	-11.1035
▁Чех	-11.1035
▁яриагаа	-11.1037
▁Бүртгэл	-11.1037
▁бодъё	-11.1039
▁баривчла	-11.1041
▁гэсээр	-11.1042
▁урилга	-11.1049
▁эрсдл	-11.1052
▁сонгогчды	-11.1052
▁оролцуулах	-11.1053
▁номонд	-11.1055
▁хэрэлд	-11.1057
▁аяндаа	-11.1062
▁шийджээ	-11.1063
▁явагдана	-11.1067
▁зайлсхий	-11.1068
▁Лхагва	-11.1074
▁уйлах	-11.1095
▁Кен	-11.1107
▁хобби	-11.1116
▁СЕХ	-11.1116
▁тайвшир	-11.1116
▁аялгуу	-11.1116
▁гүрний	-11.1116
▁сонсгол	-11.1116
▁гаргаагүй	-11.1117
▁хадгала	-11.1118
▁тахиа	-11.1119
▁гүйцэтгэнэ	-11.1119
Улс	-11.1123
▁хөнөөсөн	-11.1123
▁хэвшил	-11.1128
баасан	-11.113
▁уулзана	-11.1137
▁гардуул	-11.114
▁шийдлий	-11.1148
МН	-11.1174
▁төсвий	-11.1192
▁Калифорни	-11.1198
▁тооцогддог	-11.1198
▁түгжрэл	-11.1198
▁микро	-11.1198
▁Эмнэлг	-11.1198
▁Дотор	-11.1198
start	-11.1198
▁хонгил	-11.1198
▁хамаардаг	-11.1198
▁шалгарсан	-11.1198
▁олоогүй	-11.1198
▁захира	-11.1201
▁түүгээр	-11.1203
▁хуваагда	-11.1209
▁гөлөг	-11.1209
▁хамгааллын	-11.121
▁сүүлчээ	-11.1214
▁орчуулга	-11.1216
▁өнгөөр	-11.122
▁заавры	-11.1221
▁хэлэлцсэн	-11.1227
▁эргэлдэ	-11.1228
▁уста	-11.123
▁боломжит	-11.1236
NE	-11.1239
▁эзэд	-11.1242
олдуу	-11.125
▁төвөг	-11.1259
▁шивнэ	-11.1264
▁Украины	-11.1266
▁шатахууны	-11.1274
RMEDEE	-11.128
^	-11.128
▁НИТХ	-11.128
▁нэхэмжлэ	-11.128
▁Үйлчлүүлэгч	-11.128
▁Уулзалт	-11.128
▁удирдамж	-11.128
▁учрах	-11.128
▁хандлагыг	-11.128
▁бүртгэх	-11.1281
▁бэхжүүлэх	-11.1283
▁амжи	-11.1283
▁хошин	-11.1284
мөсөн	-11.1287
▁оролцогчид	-11.1291
▁иргэншил	-11.1293
▁Тогло	-11.1298
огдох	-11.1298
▁өрсөлд	-11.1312
▁PC	-11.1314
ass	-11.1317
▁төмс	-11.1323
▁Cha	-11.1341
▁гомдлы	-11.1349
▁Жаргал	-11.1356
COVID	-11.1364
▁Гудамж	-11.1364
▁Израйл	-11.1364
▁Сонирхолтой	-11.1364
▁мастер	-11.1364
▁үлддэг	-11.1365
▁таамаглал	-11.1366
▁харъяа	-11.1368
▁захиалгы	-11.1368
▁тогтоогдсон	-11.137
▁dur	-11.137
▁Доорх	-11.1373
▁төсөөлөх	-11.1375
▁дэвшигчид	-11.1377
▁Адам	-11.1378
▁хүргэлт	-11.1379
▁дэвшүүлэх	-11.1381
оми	-11.1382
▁хамруулах	-11.1388
▁сэрэх	-11.1389
▁өсөн	-11.1391
▁ичээ	-11.1396
▁илэрхий	-11.1419
▁хохироо	-11.1423
▁гарчиг	-11.1427
▁Тамг	-11.1438
▁шууги	-11.1441
ҕ	-11.1448
ҥ	-11.1448
▁Телевиз	-11.1448
▁тєр	-11.1448
▁Үзэсгэлэн	-11.1448
▁үзүүлбэр	-11.1448
▁өшөө	-11.1448
▁Давхар	-11.1448
▁Галзуу	-11.1448
▁тооцно	-11.1448
▁бурхны	-11.1448
▁[[	-11.1448
▁энергий	-11.1449
▁шилжиж	-11.1451
▁]]	-11.1451
▁үзүүлэгч	-11.1454
Наран	-11.1456
▁орсноо	-11.1462
▁залбирал	-11.1466
▁хүргүүлсэн	-11.1472
▁Хөрөнг	-11.1473
▁үсрэ	-11.1475
▁дамжи	-11.1477
▁сонирхуул	-11.1478
Ю	-11.1482
▁сагсан	-11.15
▁Хэргий	-11.1501
Юу	-11.1514
▁мини	-11.1531
▁Android	-11.1532
▁Систем	-11.1532
▁механик	-11.1532
▁Сонгино	-11.1532
▁товчлуур	-11.1532
▁Райли	-11.1532
▁найрсаг	-11.1533
▁бөгс	-11.1533
▁цэнгэл	-11.1533
▁бүрдэнэ	-11.1533
▁Жорж	-11.1534
▁баримталдаг	-11.155
▁тооцоолж	-11.1555
▁тохирч	-11.1558
▁you	-11.1583
▁гарснаа	-11.1586
▁гиш	-11.1602
ies	-11.1603
ave	-11.1605
▁Мань	-11.161
▁догол	-11.1615
°	-11.1618
▁тааламжтай	-11.1618
▁фракц	-11.1618
▁МОНГОЛ	-11.1618
▁УОК	-11.1618
▁Шийдвэр	-11.1618
▁шүршигч	-11.1618
▁эзэмшиж	-11.1618
▁авчирдаг	-11.1618
▁огноо	-11.1618
▁санамж	-11.1619
▁Тамир	-11.162
▁аймгаа	-11.1622
▁Барууны	-11.1634
ууштай	-11.1636
▁банкнаас	-11.1642
▁хуваагд	-11.1656
▁буцал	-11.1674
▁ээээээ	-11.1676
▁эелдэг	-11.1704
▁Ухаалаг	-11.1704
▁Баянгол	-11.1704
▁Баабар	-11.1704
▁харгис	-11.1705
▁хичээгээрэй	-11.1706
TE	-11.1706
▁XX	-11.1706
▁Read	-11.1707
▁хэсгээр	-11.1708
▁Хамгаала	-11.1709
▁Сауд	-11.171
▁торгууль	-11.171
▁мартаарай	-11.1711
Эрүү	-11.1713
Төрийн	-11.1715
үүлээгүй	-11.1716
▁нисдэг	-11.1719
▁хуваалцаж	-11.1719
▁очлоо	-11.1721
▁орвол	-11.1729
▁AM	-11.1737
▁таваг	-11.174
▁найраг	-11.1742
▁банкин	-11.1744
▁морины	-11.1746
Эрдэний	-11.1759
▁төлөөлөгчдий	-11.1762
▁төлөөлө	-11.1773
▁Төсөв	-11.1791
▁алуурчин	-11.1791
▁эрэмбэ	-11.1791
▁хуримтлал	-11.1791
▁уялдаа	-11.1791
▁Ковид	-11.1791
▁ойлгоогүй	-11.1791
▁Бичлэг	-11.1792
▁мөргөлдөөн	-11.1793
▁пост	-11.1797
▁байгуулагдаж	-11.1797
▁Товч	-11.1797
▁Идэ	-11.1799
ant	-11.1799
▁эвсл	-11.1805
port	-11.1805
▁тавиул	-11.1811
нгараг	-11.1812
RA	-11.1816
▁сөнө	-11.1816
▁Түрүү	-11.1819
өнгийг	-11.1854
▁морин	-11.1858
ибер	-11.1859
▁Тархи	-11.1862
▁одды	-11.1865
▁нутгаа	-11.1866
▁Төлөвлө	-11.1879
▁бүтцийг	-11.1879
▁зэвүүн	-11.1879
▁үргэлжилсээр	-11.1879
▁араншин	-11.1879
▁романтик	-11.1879
▁өчнө	-11.1879
▁бетон	-11.1879
▁Хорвоо	-11.1879
▁хорхой	-11.1879
▁Хүссэн	-11.1879
▁ялгаварла	-11.1879
▁бичээрэй	-11.1879
▁жорлон	-11.1881
ектор	-11.1883
▁нярай	-11.1883
▁айлчил	-11.1884
▁ирээрэй	-11.1889
Ё	-11.189
▁шавар	-11.1892
▁жуулчлал	-11.1897
▁зарчмы	-11.1907
▁Хурал	-11.191
▁алдчих	-11.193
▁Дани	-11.1936
▁хүчирхийллий	-11.1937
пол	-11.1948
▁хөдлө	-11.1948
яцхан	-11.1962
▁Налайх	-11.1967
▁тохиолдлууд	-11.1967
▁цемент	-11.1967
▁металл	-11.1967
▁баавгай	-11.1967
▁тооцсон	-11.1968
▁содон	-11.1968
▁лекц	-11.1968
▁хэргүүд	-11.1968
▁утсы	-11.1971
▁баярладаг	-11.1977
▁Нийтлэл	-11.1977
▁хэвлий	-11.1985
▁баригд	-11.1991
Анх	-11.1993
▁хувцс	-11.1997
▁дэвшүүлсэн	-11.2
▁тэсрэ	-11.2001
при	-11.2025
▁завсарлага	-11.204
єнгє	-11.2057
▁конвенц	-11.2057
▁Танилц	-11.2057
▁хуулиуд	-11.2057
▁мөрөөддөг	-11.2057
▁Хувьцаа	-11.2057
▁блок	-11.2057
▁Салхи	-11.2057
▁мухар	-11.2057
▁нандин	-11.2057
▁томилогдсон	-11.2057
▁индекс	-11.2058
▁морилно	-11.2059
▁Ene	-11.2059
▁Шүд	-11.2061
▁Найма	-11.2062
▁жүжигчид	-11.2062
▁ташаа	-11.2066
▁садан	-11.2067
▁1970	-11.2068
▁олголт	-11.207
▁Ингэхэ	-11.2072
▁удирдагчид	-11.2074
▁дуугарах	-11.2085
▁баярлуул	-11.2092
▁акт	-11.2094
▁анзаарах	-11.2098
▁хүмүүж	-11.2119
▁завсар	-11.212
Үүд	-11.2121
▁тогтоогд	-11.2132
чихвол	-11.2141
хайрхан	-11.2144
▁өмгөөл	-11.2147
▁Хонконг	-11.2147
▁хүрэгчд	-11.2147
Удирдах	-11.2147
▁Ирланд	-11.2147
▁лавлагаа	-11.2147
▁гэдсээр	-11.2147
еми	-11.2147
▁орчмы	-11.2147
▁лидер	-11.2148
▁Хөгши	-11.2149
▁Зол	-11.2151
▁Хаалга	-11.2151
▁боловсруулалт	-11.2152
▁орлогч	-11.2155
▁Хурлын	-11.2155
net	-11.2159
▁Саруул	-11.2161
▁дэмжээд	-11.2163
▁угаагч	-11.2164
▁Түг	-11.2165
үдэр	-11.2165
▁хүчирхийл	-11.2166
▁тохижуул	-11.2168
ыхоо	-11.2175
▁сагс	-11.2188
▁эрхлэгчдий	-11.2192
▁таниа	-11.22
лайн	-11.2213
▁марк	-11.2234
▁ноолуур	-11.2238
▁онцолсон	-11.2238
▁хавсралт	-11.2238
▁цэврийн	-11.2238
▁бөгж	-11.2238
▁Буриад	-11.2238
▁ерөөе	-11.2238
▁хүндэлдэг	-11.2238
▁халбага	-11.2238
▁онгон	-11.2239
▁тохижилт	-11.224
▁нийлүүлэлт	-11.224
▁бахарха	-11.2241
▁тасалгаа	-11.2249
Хоёр	-11.2253
▁Sha	-11.2259
▁хагал	-11.2272
▁Шаардлага	-11.2274
▁идэвхжүүл	-11.228
▁итгэгч	-11.2281
▁дутагда	-11.2294
▁сандра	-11.2298
▁найрамдах	-11.2329
▁баатрууд	-11.2329
▁Play	-11.2329
▁эмнэлгээ	-11.2329
▁үймээн	-11.2329
▁Дэлгэр	-11.2329
▁арчаагүй	-11.233
▁өвдсөн	-11.233
▁ханиад	-11.233
▁болиул	-11.233
▁өртөө	-11.2332
▁мунхаг	-11.2332
▁үүсэл	-11.2333
▁хослол	-11.2334
▁амжсан	-11.2334
▁1997	-11.2336
▁сурталчил	-11.235
▁Хатан	-11.2351
▁бодогч	-11.2353
▁татам	-11.2357
▁ойлгоод	-11.2358
▁Наадмы	-11.2374
▁Жирэмсэ	-11.2384
▁нөхөрлө	-11.2403
▁байцгаа	-11.2405
▁аажм	-11.2406
▁Vi	-11.241
огдож	-11.2421
←	-11.2422
▁гїй	-11.2422
▁бодоорой	-11.2422
▁тунгалаг	-11.2422
▁мансуур	-11.2422
сайхан	-11.2422
▁зарлалаа	-11.2422
▁Түүгээр	-11.2422
▁бүртгэж	-11.2422
▁үйлдлүүд	-11.2422
▁Бэлэн	-11.2422
▁нөхрийг	-11.2423
▁нөхдийн	-11.2425
ick	-11.2432
▁эхлэ	-11.2435
Тэгэхээ	-11.244
▁Тулга	-11.2451
▁дээрэмд	-11.2457
▁тохиролц	-11.2464
{	-11.2515
Тэмүүжин	-11.2515
▁үлдэгдэл	-11.2515
▁Шуурхай	-11.2515
Press	-11.2515
▁бүдүүн	-11.2515
▁цутга	-11.2515
ухацтай	-11.2515
▁Засвар	-11.2515
▁тодорхойлдог	-11.2516
▁шагай	-11.2516
▁горьд	-11.2517
▁бутлагч	-11.2519
▁халаалт	-11.2526
▁чиглэ	-11.2528
▁ойлголоо	-11.2533
жүүлэлт	-11.2546
1-2	-11.2562
act	-11.2562
▁хэвлүүл	-11.2567
▁шинэчлэгдэ	-11.257
▁буугаа	-11.2608
▁зөвшилцө	-11.261
▁коллеж	-11.261
▁террорист	-11.261
▁Өвөрхангай	-11.261
▁Шагнал	-11.261
▁сайшаа	-11.261
▁туслаач	-11.2611
▁формат	-11.2611
▁Уншигч	-11.2611
▁хонгор	-11.2613
▁эцэслэн	-11.2613
▁Загас	-11.2613
▁хакер	-11.2613
▁art	-11.2614
▁зэмлэ	-11.2614
▁>>	-11.2614
▁байгуулагдах	-11.2619
▁тооцоолох	-11.2619
▁Япончууд	-11.2621
▁хуудсан	-11.2621
▁зурган	-11.2624
Оргил	-11.2624
▁оролцогчды	-11.2629
▁Бүтээгдэхүүний	-11.2662
▁ашиглагда	-11.2667
▁задар	-11.2679
▁Eguur	-11.2705
▁Казино	-11.2705
▁зузаан	-11.2705
Сайханбилэг	-11.2705
▁нөлөөлөл	-11.2705
▁босож	-11.2705
▁давалгаа	-11.2705
▁эрдэс	-11.2706
▁уншигчдад	-11.2706
▁Хонгор	-11.2706
▁ганцаарда	-11.2708
▁Мягмар	-11.2708
▁бүртгэгдэ	-11.2708
▁хүндэлж	-11.2709
▁багтаамж	-11.2711
▁Ядуу	-11.2715
▁дууриа	-11.2715
▁Испаний	-11.2721
Хэрвээ	-11.2736
▁суучих	-11.2755
▁засварла	-11.2767
▁захиалгаа	-11.2778
▁диплом	-11.2799
▁шийдэгдэх	-11.2801
▁Индонез	-11.2801
▁Хөөрхөн	-11.2801
▁БЗД	-11.2801
▁ДНБ	-11.2801
▁судас	-11.2802
▁төгсөгч	-11.2803
▁байдгийн	-11.2804
▁Page	-11.2805
▁анхаараарай	-11.2806
▁зөгий	-11.2806
▁ирмэг	-11.2808
▁1993	-11.281
▁Эхлэл	-11.2817
өлөг	-11.284
▁лаборатори	-11.2843
▁Шилэ	-11.2844
хуяг	-11.2853
▁буруугаа	-11.286
огтвортой	-11.2888
▁Хөдөлгөөн	-11.2898
▁Төсөл	-11.2898
▁нэрэмжит	-11.2898
▁профессор	-11.2898
▁дарангуйла	-11.2898
▁кампан	-11.2898
▁шийдвэрлэнэ	-11.2898
▁бужигн	-11.2899
сгөл	-11.2899
▁Дараачийн	-11.2901
▁эвдрэ	-11.2904
▁давтамж	-11.2904
▁ичиж	-11.291
▁Үнийн	-11.291
▁орчноо	-11.2919
▁нэрвэгд	-11.2929
Ард	-11.2934
Ганхуяг	-11.2951
▁суурил	-11.2965
▁Венесуэл	-11.2996
▁Дэлгэц	-11.2996
▁зорилгыг	-11.2996
▁харилцаж	-11.2996
▁хөвгүүн	-11.2996
▁өгөгдлийн	-11.2996
▁SEO	-11.2996
▁Хацар	-11.2996
▁өөрчлөн	-11.2996
▁үйлчлэл	-11.2997
Өлзий	-11.2997
▁бүтцэ	-11.2997
▁торгуул	-11.2997
▁Яриа	-11.2999
▁мөнхө	-11.3001
▁ирчихсэн	-11.3003
▁Шалга	-11.3004
▁Паул	-11.3005
▁гаргагч	-11.3006
АРГА	-11.3006
▁амттан	-11.3008
еди	-11.3012
▁барилдаж	-11.3012
Энхсайхан	-11.3021
ЛАЛ	-11.3035
▁хандивла	-11.3037
▁барилгы	-11.3062
str	-11.3087
▁үрэгд	-11.309
▁Мэргэ	-11.3093
▁африк	-11.3095
▁электрон	-11.3095
à	-11.3095
Энхтүвшин	-11.3095
▁Иерусалим	-11.3095
▁Маркетинг	-11.3095
▁Эмнэлэг	-11.3095
▁реклам	-11.3095
▁Зорилго	-11.3095
Номтойбаяр	-11.3095
▁зарчмаар	-11.3095
▁ургац	-11.3095
▁ололт	-11.3096
▁магтаал	-11.3096
▁дурдахад	-11.3097
▁Борлуулалт	-11.3097
▁бэлдмэл	-11.3098
▁захирлы	-11.3101
▁зугтаж	-11.3109
▁гулга	-11.3109
▁гэргий	-11.3142
▁Анги	-11.3151
▁Эрдэм	-11.3158
▁амьжиргаа	-11.3195
▁түрэмгий	-11.3195
▁шоколад	-11.3195
▁Төлөөлөгч	-11.3195
▁ТУЗ	-11.3195
▁Шүлэг	-11.3195
▁хавтгай	-11.3195
▁довтло	-11.3195
▁тооцдог	-11.3195
▁авснаас	-11.3196
▁дуулгавар	-11.3198
▁ятга	-11.3199
▁армийн	-11.32
▁алчих	-11.3201
▁хаанчлал	-11.3201
▁хурандаа	-11.3201
▁анхаарлын	-11.3205
▁аргын	-11.3206
▁дайралт	-11.3209
▁татагда	-11.3218
▁даатга	-11.3241
▁алдагда	-11.3255
▁гэчих	-11.3256
ЕР	-11.3261
агсдын	-11.3265
▁Технологий	-11.3279
▁мартчих	-11.3284
▁эсхүл	-11.3296
▁Нөгөөтэйгүүр	-11.3296
▁бөлгөө	-11.3296
▁конусан	-11.3296
▁олуулаа	-11.3296
▁ногдуул	-11.3297
▁Байшин	-11.3301
▁сахилга	-11.3303
▁Мөрдө	-11.3304
▁зөвлөлдө	-11.3317
аашаа	-11.3334
▁товчхон	-11.334
▁заалда	-11.3353
▁үнэмш	-11.3359
▁гомдолло	-11.3385
▁сонирхлоо	-11.3389
▁унши	-11.3393
▁Туршилт	-11.3398
▁Хөлбөмбөг	-11.3398
▁баримжаа	-11.3398
▁санагдав	-11.3398
▁ШХАБ	-11.3398
▁чансаа	-11.3398
▁Хуудас	-11.3399
Сумъяа	-11.3399
▁арвин	-11.3399
▁Түргэн	-11.34
▁түншлэл	-11.3402
▁ойлгогдо	-11.3402
▁хүмүүжил	-11.3402
▁гадуурха	-11.3405
▁оролцлоо	-11.3405
олдвол	-11.3406
▁байршлы	-11.3406
▁нугал	-11.3407
▁ангиуд	-11.341
Хүмүүс	-11.3425
▁хослуул	-11.3426
▁төлөгч	-11.3457
Өлгий	-11.3463
засварлах	-11.3468
▁ухамсарла	-11.3481
АЯ	-11.3481
▁өндий	-11.3482
этэрхий	-11.3492
▁заалга	-11.3496
▁нарийвчлан	-11.3501
▁оффшор	-11.3501
▁ЭСЯ	-11.3501
▁холимог	-11.3501
▁Украйн	-11.3501
▁сэлбэг	-11.3501
▁гамшгий	-11.3501
▁харьцдаг	-11.3501
▁сургуулилт	-11.3501
▁онигоо	-11.3502
▁сонсоогүй	-11.3502
▁сүүдэр	-11.3502
▁болиоч	-11.3502
▁Ойлго	-11.3502
▁зөвшөөрөгдсөн	-11.3503
▁хамааралгүй	-11.3503
▁гайхшруул	-11.3503
▁мотор	-11.3503
Энхбат	-11.3504
▁ашиглагддаг	-11.3504
▁Дугуй	-11.3504
▁хэвшлийн	-11.3505
▁өөрчлөгддөг	-11.3506
▁зөвшөөрнө	-11.3506
▁тавиур	-11.3512
Амарсайхан	-11.3524
▁сэдвий	-11.3546
▁өлгий	-11.3547
▁Бүтээгдэхүүн	-11.3548
▁халдлаг	-11.3549
▁баригчды	-11.3584
▁гүйцээ	-11.3588
▁porn	-11.3606
▁Даатгал	-11.3606
▁Казахстан	-11.3606
▁Удирдлаг	-11.3606
▁зорилгын	-11.3606
▁өөрсдөд	-11.3606
▁илрээгүй	-11.3606
▁жүдо	-11.3606
▁үйлчилнэ	-11.3606
▁тунадас	-11.3606
▁өнгөрдөг	-11.3606
▁үзэгдэх	-11.3606
▁Нобел	-11.3606
▁Шорон	-11.3606
▁гагц	-11.3607
▁таалал	-11.3607
▁хулхи	-11.3609
▁холбон	-11.3612
Жаргалсайхан	-11.3616
▁шалгагда	-11.3632
▁морил	-11.3642
▁завсарла	-11.3657
q	-11.3681
олдож	-11.3682
▁болгоомжил	-11.3685
ode	-11.3685
▁Зэвсэг	-11.3711
▁Түмэн	-11.3711
▁статус	-11.3711
▁түгшүүр	-11.3711
▁тулгамдаж	-11.3711
▁хэлмэгдүүл	-11.3711
▁шүлгий	-11.3711
nread	-11.3711
▁Сүлжээ	-11.3711
▁шалгаарай	-11.3711
▁Хэлэлцэ	-11.3711
▁авчирна	-11.3711
▁олдоогүй	-11.3711
▁хавтас	-11.3711
▁Оюутны	-11.3711
▁хомс	-11.3712
▁эзлэ	-11.3713
▁мэдүүлг	-11.3714
▁барилгууд	-11.3714
▁хөгжүүлэгч	-11.3717
▁болгоё	-11.3717
▁Ачаа	-11.3731
▁Эрээн	-11.3731
нэхээр	-11.3738
Ийм	-11.374
▁Гаалий	-11.3784
▁харда	-11.379
ount	-11.3793
уранхай	-11.3797
▁баривчлагд	-11.3809
▁ISO	-11.3817
▁Коммуни	-11.3817
▁Талийгаач	-11.3817
Баттулгы	-11.3817
▁туурви	-11.3817
▁цэнгэлдэх	-11.3817
▁нисгэгч	-11.3817
▁Товчхондоо	-11.3818
▁элдв	-11.3819
mail	-11.382
▁оруулагчды	-11.3835
▁аврагда	-11.3835
▁жуулчды	-11.3848
▁боловсруула	-11.3851
Баярцогт	-11.3855
▁цэцэглэ	-11.3913
Samsung	-11.3925
Гантулга	-11.3925
▁Гайхамшиг	-11.3925
▁бөмбөр	-11.3925
▁Согтуу	-11.3925
▁Роберт	-11.3925
▁зөвөлгөө	-11.3925
▁шумуул	-11.3925
▁зогсолт	-11.3925
▁Багануур	-11.3925
▁шаргал	-11.3925
▁Эсрэг	-11.3927
▁сүлд	-11.3929
▁хөгшир	-11.3929
▁зогсоно	-11.393
▁нээгдсэн	-11.3931
▁суралцагч	-11.3936
▁нөлөөллий	-11.3948
▁тоглогчды	-11.3966
▁үйлчлүүлэгчдийн	-11.3977
▁хувьчла	-11.3982
ДАА	-11.4
▁Малчи	-11.4021
▁түдгэлзүүл	-11.4033
▁түймрий	-11.4033
▁Apr	-11.4033
▁Хүйтэн	-11.4033
▁даалгавры	-11.4033
▁илүүдэхгүй	-11.4033
▁нүглий	-11.4033
▁ишлэл	-11.4033
▁тохирно	-11.4033
▁гишүүнчлэл	-11.4034
▁ирснийг	-11.4034
▁онуудад	-11.4034
эрхэг	-11.4034
▁Цонх	-11.4034
▁Мартин	-11.4035
▁эрхлэгчдэ	-11.4036
▁Маск	-11.4037
▁өснө	-11.4039
▁чаджээ	-11.4039
▁Шада	-11.4041
▁хэлэлцүүл	-11.4064
▁бичүүл	-11.4078
▁нийцүүлэ	-11.4079
▁Суда	-11.4089
▁Дулаан	-11.4089
▁Эхэнд	-11.409
▁биччих	-11.4104
▁бахарх	-11.4105
}	-11.4143
ý	-11.4143
<	-11.4403
€	-11.448
ü	-11.5439
¬	-11.5955
\	-11.65
é	-11.6641
í	-11.6641
●	-11.6641
ә	-11.6784
ñ	-11.7225
ë	-11.7225
@	-11.7609
ѐ	-11.7686
¿	-11.817
#	-11.826
ò	-11.8337
›	-11.9033
😀	-11.9215
â	-11.9977
©	-12.0177
Ъ	-12.0589
[	-12.0941
►	-12.102
è	-12.102
ã	-12.1242
Ѳ	-12.1242
ة	-12.1469
ك	-12.1702
®	-12.269
ä	-12.269
ð	-12.2953
(	-12.3147
́	-12.3223
√	-12.3501
♥	-12.3787
✅	-12.3787
Ї	-12.4081
🎁	-12.4081
い	-12.4697
õ	-12.4697
á	-12.5019
ا	-12.5352
ó	-12.5697
Щ	-12.5697
★	-12.6054
な	-12.6425
ん	-12.6809
ö	-12.6809
时	-12.7209
Џ	-12.7209
ѕ	-12.7209
م	-12.7209
し	-12.8061
ل	-12.8061
ў	-12.8515
・	-12.8515
の	-12.8515
ي	-12.8992
☞	-12.8992
す	-12.8992
×	-12.9492
ң	-12.9492
ı	-13.0018
😍	-13.0018
🙏	-13.0018
ì	-13.0573
⁄	-13.0573
ā	-13.0574
і	-13.0574
•	-13.1085
ま	-13.1162
る	-13.1162
μ	-13.1162
😭	-13.1162
÷	-13.1162
て	-13.1787
う	-13.1787
Ø	-13.1787
Ќ	-13.1787
😂	-13.1787
😅	-13.1787
§	-13.2453
ћ	-13.2453
қ	-13.2453
ر	-13.2453
이	-13.2453
😊	-13.2453
に	-13.2453
ï	-13.3168
җ	-13.3168
ᅲ	-13.3168
ế	-13.3168
】	-13.3168
名	-13.3168
ø	-13.3168
そ	-13.3937
で	-13.3937
û	-13.3937
♦	-13.3937
̄	-13.3937
ن	-13.3937
【	-13.3937
ら	-13.3937
ç	-13.477
Ў	-13.477
±	-13.477
ɵ	-13.477
ќ	-13.477
※	-13.477
か	-13.477
歌	-13.477
α	-13.5679
І	-13.5679
く	-13.5679
요	-13.5679
æ	-13.5679
ə	-13.5679
ع	-13.5679
و	-13.5679
あ	-13.5679
こ	-13.5679
曲	-13.5679
称	-13.5679
🏻	-13.5679
た	-13.5679
د	-13.6679
り	-13.6679
¥	-13.6679
」	-13.6679
ー	-13.6679
👉	-13.6679
💵	-13.6679
🤣	-13.6679
よ	-13.6679
γ	-13.6679
と	-13.6679
れ	-13.6679
だ	-13.779
を	-13.779
は	-13.779
Õ	-13.779
ş	-13.779
が	-13.779
‐	-13.779
。	-13.779
国	-13.779
나	-13.779
😦	-13.779
も	-13.904
学	-13.904
っ	-13.904
س	-13.904
Ü	-13.904
어	-13.904
유	-13.904
š	-13.904
−	-13.904
⋆	-13.904
☈	-13.904
♚	-13.904
書	-13.904
👍	-13.904
📌	-13.904
Á	-13.904
ه	-13.904
†	-13.904
き	-13.904
お	-13.904
ン	-13.9041
ɪ	-14.0469
ո	-14.0469
Ş	-14.0469
ƒ	-14.0469
Ћ	-14.0469
ᄂ	-14.0469
■	-14.0469
◆	-14.0469
○	-14.0469
☺	-14.0469
け	-14.0469
ば	-14.0469
日	-14.0469
기	-14.0469
리	-14.0469
💯	-14.0469
♡	-14.0469
ف	-14.0469
י	-14.0469
ר	-14.0469
ն	-14.2136
ᠠ	-14.2136
つ	-14.2136
ˈ	-14.2136
、	-14.2136
せ	-14.2136
É	-14.2136
ư	-14.2136
β	-14.2136
π	-14.2136
ұ	-14.2136
ی	-14.2136
ᄅ	-14.2136
ớ	-14.2136
≥	-14.2136
☆	-14.2136
✨	-14.2136
➡	-14.2136
め	-14.2136
会	-14.2136
니	-14.2136
다	-14.2136
ι	-14.2136
א	-14.2136
ᠢ	-14.2136
楽	-14.2136
Ç	-14.2136
̷	-14.2136
ち	-14.2136
ル	-14.2136
時	-14.2136
人	-14.2136
わ	-14.2136
済	-14.4136
経	-14.4136
際	-14.4136
ա	-14.4136
返	-14.4136
մ	-14.4136
Ò	-14.4136
ご	-14.4136
배	-14.4136
사	-14.4136
ح	-14.4136
ᠳ	-14.4136
¤	-14.4136
ß	-14.4136
ο	-14.4136
ґ	-14.4136
ե	-14.4136
غ	-14.4136
‹	-14.4136
⃣	-14.4136
∞	-14.4136
▲	-14.4136
◊	-14.4136
♀	-14.4136
じ	-14.4136
一	-14.4136
図	-14.4136
江	-14.4136
路	-14.4136
部	-14.4136
말	-14.4136
정	-14.4136
지	-14.4136
하	-14.4136
🔴	-14.4136
😁	-14.4136
😘	-14.4136
џ	-14.4136
ط	-14.4136
서	-14.4136
Һ	-14.4136
表	-14.4136
行	-14.4136
え	-14.6636
ب	-14.6636
平	-14.6636
本	-14.6636
세	-14.6636
Ë	-14.6636
Ý	-14.6636
ú	-14.6636
İ	-14.6636
ō	-14.6636
ω	-14.6636
Ѕ	-14.6636
ғ	-14.6636
ל	-14.6636
᠋	-14.6636
ᠨ	-14.6636
ᠷ	-14.6636
₩	-14.6636
▼	-14.6636
☛	-14.6636
☻	-14.6636
げ	-14.6636
ㄟ	-14.6636
中	-14.6636
台	-14.6636
文	-14.6636
月	-14.6636
語	-14.6636
내	-14.6636
대	-14.6636
비	-14.6636
영	-14.6636
저	-14.6636
제	-14.6636
한	-14.6636
🇷	-14.6636
🌟	-14.6636
💎	-14.6636
😆	-14.6636
😝	-14.6636
원	-14.6636
À	-14.6636
間	-14.6636
아	-14.6636
ق	-14.6636
ค	-14.6636
Ñ	-14.6636
|	-14.9893
リ	-14.9969
フ	-14.9969
达	-14.9969
高	-14.9969
ս	-14.9969
տ	-14.9969
ง	-14.9969
่	-14.9969
ゃ	-14.9969
シ	-14.9969
ナ	-14.9969
天	-14.9969
오	-14.9969
Ä	-14.9969
Ð	-14.9969
ḥ	-14.9969
み	-14.9969
キ	-14.9969
下	-14.9969
현	-14.9969
ӈ	-14.9969
Ö	-14.9969
å	-14.9969
ê	-14.9969
Ā	-14.9969
ī	-14.9969
Œ	-14.9969
ʀ	-14.9969
̀	-14.9969
ί	-14.9969
θ	-14.9969
λ	-14.9969
σ	-14.9969
Ҥ	-14.9969
Ӏ	-14.9969
ӓ	-14.9969
ӱ	-14.9969
ք	-14.9969
ע	-14.9969
ਰ	-14.9969
க	-14.9969
น	-14.9969
ม	-14.9969
ᴇ	-14.9969
ṭ	-14.9969
‖	-14.9969
∙	-14.9969
◦	-14.9969
⚡	-14.9969
⚫	-14.9969
❗	-14.9969
➢	-14.9969
⦁	-14.9969
《	-14.9969
上	-14.9969
信	-14.9969
出	-14.9969
版	-14.9969
现	-14.9969
通	-14.9969
경	-14.9969
구	-14.9969
국	-14.9969
뉴	-14.9969
는	-14.9969
라	-14.9969
로	-14.9969
법	-14.9969
부	-14.9969
스	-14.9969
신	-14.9969
야	-14.9969
의	-14.9969
인	-14.9969
자	-14.9969
주	-14.9969
태	-14.9969
티	-14.9969
함	-14.9969
해	-14.9969
회	-14.9969
후	-14.9969
︎	-14.9969
🌈	-14.9969
🍷	-14.9969
🎯	-14.9969
🏠	-14.9969
💚	-14.9969
💫	-14.9969
💰	-14.9969
🔰	-14.9969
🤑	-14.9969
🤘	-14.9969
🤟	-14.9969
🥇	-14.9969
ӧ	-14.9969
ย	-14.9969
🤮	-14.9969
č	-14.9969
ѓ	-14.9969
נ	-14.9969
أ	-14.9969
ش	-14.9969
ى	-14.9969
ন	-14.9969
ᠦ	-14.9969
ど	-14.9969
子	-14.9969
我	-14.9969
的	-14.9969
수	-14.9969
장	-14.9969
토	-14.9969
횊	-14.9969
💜	-14.9969
音	-14.9969
우	-14.9969
โ	-14.9969
ᠡ	-14.9969
〓	-14.9969
や	-14.9969
法	-14.9969
自	-14.9969
ô	-14.9969
ひ	-14.9969
ク	-15.4969
ν	-15.4969
ɐ	-15.4969
ղ	-15.4969
ซ	-15.4969
อ	-15.4969
ใ	-15.4969
ᠮ	-15.4969
ウ	-15.4969
ソ	-15.4969
ョ	-15.4969
个	-15.4969
分	-15.4969
地	-15.4969
夢	-15.4969
発	-15.4969
解	-15.4969
証	-15.4969
화	-15.4969
ÿ	-15.4969
ส	-15.4969
ᠭ	-15.4969
ḍ	-15.4969
ṇ	-15.4969
ャ	-15.4969
Ґ	-15.4969
サ	-15.4969
역	-15.4969
은	-15.4969
ć	-15.4969
Č	-15.4969
đ	-15.4969
ė	-15.4969
Ł	-15.4969
ń	-15.4969
ǿ	-15.4969
ʜ	-15.4969
Ω	-15.4969
ε	-15.4969
κ	-15.4969
ς	-15.4969
φ	-15.4969
ј	-15.4969
њ	-15.4969
ӣ	-15.4969
կ	-15.4969
ր	-15.4969
ה	-15.4969
ו	-15.4969
خ	-15.4969
ذ	-15.4969
ک	-15.4969
क	-15.4969
ल	-15.4969
ু	-15.4969
ਪ	-15.4969
ਸ	-15.4969
ก	-15.4969
ล	-15.4969
ิ	-15.4969
ี	-15.4969
ᆞ	-15.4969
ᠶ	-15.4969
ᵴ	-15.4969
‣	-15.4969
‰	-15.4969
↔	-15.4969
⇨	-15.4969
∂	-15.4969
≠	-15.4969
⏱	-15.4969
█	-15.4969
□	-15.4969
▶	-15.4969
⚽	-15.4969
❀	-15.4969
❄	-15.4969
⠀	-15.4969
ぐ	-15.4969
ぶ	-15.4969
ゅ	-15.4969
ろ	-15.4969
イ	-15.4969
コ	-15.4969
ㄨ	-15.4969
介	-15.4969
仔	-15.4969
代	-15.4969
们	-15.4969
住	-15.4969
十	-15.4969
南	-15.4969
号	-15.4969
品	-15.4969
商	-15.4969
回	-15.4969
安	-15.4969
展	-15.4969
山	-15.4969
形	-15.4969
御	-15.4969
是	-15.4969
曜	-15.4969
松	-15.4969
止	-15.4969
気	-15.4969
水	-15.4969
流	-15.4969
点	-15.4969
理	-15.4969
生	-15.4969
用	-15.4969
田	-15.4969
简	-15.4969
管	-15.4969
紀	-15.4969
美	-15.4969
翻	-15.4969
者	-15.4969
胡	-15.4969
言	-15.4969
話	-15.4969
誌	-15.4969
译	-15.4969
身	-15.4969
載	-15.4969
近	-15.4969
達	-15.4969
门	-15.4969
革	-15.4969
麦	-15.4969
게	-15.4969
고	-15.4969
권	-15.4969
규	-15.4969
노	-15.4969
동	-15.4969
르	-15.4969
린	-15.4969
무	-15.4969
미	-15.4969
민	-15.4969
보	-15.4969
브	-15.4969
선	-15.4969
시	-15.4969
안	-15.4969
연	-15.4969
올	-15.4969
으	-15.4969
을	-15.4969
전	-15.4969
즈	-15.4969
창	-15.4969
초	-15.4969
크	-15.4969
통	-15.4969
튜	-15.4969
트	-15.4969
훈	-15.4969
희	-15.4969
🇰	-15.4969
🇺	-15.4969
🌙	-15.4969
🌱	-15.4969
🌸	-15.4969
👐	-15.4969
👷	-15.4969
💁	-15.4969
💃	-15.4969
💅	-15.4969
💙	-15.4969
📎	-15.4969
🔌	-15.4969
🔑	-15.4969
🔵	-15.4969
🔶	-15.4969
🔸	-15.4969
🗃	-15.4969
😋	-15.4969
😓	-15.4969
😔	-15.4969
🙁	-15.4969
🚫	-15.4969
🤔	-15.4969
🤪	-15.4969
🥺	-15.4969
🦸	-15.4969
ҳ	-15.4969
ג	-15.4969
ब	-15.4969
李	-15.4969
루	-15.4969
예	-15.4969
🥰	-15.4969
Æ	-15.4969
È	-15.4969
ś	-15.4969
ت	-15.4969
ص	-15.4969
ा	-15.4969
া	-15.4969
ਟ	-15.4969
྆	-15.4969
့	-15.4969
♏	-15.4969
♠	-15.4969
ギ	-15.4969
ブ	-15.4969
作	-15.4969
内	-15.4969
族	-15.4969
線	-15.4969
남	-15.4969
너	-15.4969
도	-15.4969
🛫	-15.4969
ด	-15.4969
เ	-15.4969
้	-15.4969
း	-15.4969
ᠥ	-15.4969
ᠬ	-15.4969
ṅ	-15.4969
业	-15.4969
交	-15.4969
便	-15.4969
皇	-15.4969
网	-15.4969
责	-15.4969
金	-15.4969
😎	-15.4969
图	-15.4969
ū	-15.4969
্	-15.4969
န	-15.4969
ᄀ	-15.4969
͜	-15.4969
မ	-15.4969
世	-15.4969
🦉	-16.4845
🙌	-16.4846
🙃	-16.4847
🔅	-16.4848
👀	-16.4849
🎧	-16.485
🇲	-16.4851
최	-16.4852
직	-16.4853
없	-16.4854
알	-16.4855
새	-16.4856
꧁	-16.4857
龙	-16.4858
黑	-16.4859
類	-16.486
鈴	-16.4861
重	-16.4862
请	-16.4863
聲	-16.4864
社	-16.4865
手	-16.4866
後	-16.4867
変	-16.4868
基	-16.4869
団	-16.487
合	-16.4871
ㄎ	-16.4872
ㄍ	-16.4873
ド	-16.4874
ダ	-16.4875
❼	-16.4876
❹	-16.4877
❷	-16.4878
✈	-16.4879
♔	-16.488
☹	-16.4881
│	-16.4882
⎪	-16.4883
∆	-16.4884
⇒	-16.4885
₽	-16.4886
ת	-16.4887
ב	-16.4888
Ҳ	-16.4889
ρ	-16.489
δ	-16.4891
̌	-16.4892
ˌ	-16.4893
ł	-16.4894
ğ	-16.4895
ĕ	-16.4896
🚗	-16.4897
🔬	-16.4898
👨	-16.4899
👎	-16.49
바	-16.4901
软	-16.4902
件	-16.4903
モ	-16.4904
ゴ	-16.4905
ざ	-16.4906
》	-16.4907
☎	-16.4908
ւ	-16.4909
Δ	-16.491
þ	-16.4911
🥳	-16.4912
😜	-16.4913
😇	-16.4914
😃	-16.4915
📍	-16.4916
💥	-16.4917
👩	-16.4918
ょ	-16.4919
♂	-16.492
ہ	-16.4921
Ã	-16.4922
蒙	-16.4923
愛	-16.4924
古	-16.4925
☀	-16.4926
―	-16.4927
김	-16.4928
さ	-16.4929
➜	-16.493
▪	-16.4931
¢	-16.4932
¦	-16.4933
😢	-16.4934
😱	-16.4935
✓	-16.4936
↙	-16.4937
↓	-16.4938
🤩	-16.4939
🤗	-16.494
👏	-16.4941
⭐	-16.4942
̈	-16.4943
彩	-16.4944
♫	-16.4945
「	-16.4946
✿	-16.4947
♪	-16.4948
≈	-16.4949
🔥	-16.495
🔊	-16.4951
≤	-16.4952
😛	-16.4953
ᄏ	-16.4954
♛	-16.4955
☮	-16.4956
✔	-16.4957
😉	-16.4958
£	-16.4959
₪	-16.496
Í	-16.4961
❤	-16.4962
↑	-16.4963
′	-16.4964
🙂	-16.4965
₮	-16.4966
ђ	-16.4967
→	-16.4968
ї	-16.4969
Τ	-16.4969
ύ	-16.4969
լ	-16.4969
ฝ	-16.4969
ึ	-16.4969
แ	-16.4969
ᠻ	-16.4969
ィ	-16.4969
チ	-16.4969
ニ	-16.4969
ヒ	-16.4969
ミ	-16.4969
位	-16.4969
停	-16.4969
健	-16.4969
博	-16.4969
售	-16.4969
型	-16.4969
士	-16.4969
少	-16.4969
庆	-16.4969
康	-16.4969
录	-16.4969
払	-16.4969
残	-16.4969
浜	-16.4969
登	-16.4969
破	-16.4969
舞	-16.4969
見	-16.4969
資	-16.4969
込	-16.4969
还	-16.4969
逢	-16.4969
险	-16.4969
駅	-16.4969
Ê	-16.4969
ʟ	-16.4969
Ұ	-16.4969
զ	-16.4969
ի	-16.4969
অ	-16.4969
ਕ	-16.4969
ਿ	-16.4969
ᠰ	-16.4969
ᴜ	-16.4969
マ	-16.4969
ム	-16.4969
君	-16.4969
憎	-16.4969
探	-16.4969
考	-16.4969
費	-16.4969
黄	-16.4969
겠	-16.4969
골	-16.4969
몽	-16.4969
빈	-16.4969
찡	-16.4969
😷	-16.4969
ท	-16.4969
╒	-16.4969
淮	-16.4969
있	-16.4969
🦊	-16.4969
¶	-16.4969
Â	-16.4969
Ì	-16.4969
Î	-16.4969
Ô	-16.4969
ă	-16.4969
ē	-16.4969
Ė	-16.4969
Į	-16.4969
ň	-16.4969
œ	-16.4969
ř	-16.4969
ť	-16.4969
ŧ	-16.4969
ů	-16.4969
Ɗ	-16.4969
ǎ	-16.4969
ǐ	-16.4969
ɇ	-16.4969
ɲ	-16.4969
ɴ	-16.4969
ʏ	-16.4969
ː	-16.4969
˗	-16.4969
͞	-16.4969
Η	-16.4969
Κ	-16.4969
Μ	-16.4969
Ο	-16.4969
Φ	-16.4969
Ψ	-16.4969
ά	-16.4969
ή	-16.4969
η	-16.4969
τ	-16.4969
υ	-16.4969
ό	-16.4969
ώ	-16.4969
Ђ	-16.4969
Җ	-16.4969
Қ	-16.4969
ҡ	-16.4969
Ң	-16.4969
ӄ	-16.4969
Ӈ	-16.4969
ӑ	-16.4969
Ә	-16.4969
ӝ	-16.4969
ӯ	-16.4969
Ա	-16.4969
Գ	-16.4969
Ե	-16.4969
Ո	-16.4969
դ	-16.4969
ը	-16.4969
խ	-16.4969
յ	-16.4969
չ	-16.4969
վ	-16.4969
ց	-16.4969
ז	-16.4969
ט	-16.4969
מ	-16.4969
פ	-16.4969
،	-16.4969
؟	-16.4969
إ	-16.4969
ض	-16.4969
َ	-16.4969
ۇ	-16.4969
ە	-16.4969
ं	-16.4969
इ	-16.4969
ए	-16.4969
र	-16.4969
ि	-16.4969
ै	-16.4969
४	-16.4969
७	-16.4969
९	-16.4969
ই	-16.4969
ক	-16.4969
দ	-16.4969
ব	-16.4969
ি	-16.4969
ਂ	-16.4969
ਮ	-16.4969
ਹ	-16.4969
ਾ	-16.4969
ੀ	-16.4969
ੂ	-16.4969
ੈ	-16.4969
ੌ	-16.4969
ட	-16.4969
ழ	-16.4969
ா	-16.4969
ி	-16.4969
ூ	-16.4969
ை	-16.4969
்	-16.4969
ೋ	-16.4969
จ	-16.4969
ต	-16.4969
พ	-16.4969
ฟ	-16.4969
ภ	-16.4969
ว	-16.4969
ษ	-16.4969
ห	-16.4969
ฬ	-16.4969
ั	-16.4969
า	-16.4969
ไ	-16.4969
์	-16.4969
࿐	-16.4969
ဦ	-16.4969
ိ	-16.4969
ု	-16.4969
်	-16.4969
၊	-16.4969
ᄆ	-16.4969
ᄇ	-16.4969
ᄋ	-16.4969
ᅮ	-16.4969
ᅳ	-16.4969
ᅵ	-16.4969
ᐉ	-16.4969
ᠤ	-16.4969
ᠫ	-16.4969
ᠯ	-16.4969
ᠱ	-16.4969
ᠴ	-16.4969
ᠹ	-16.4969
ᠼ	-16.4969
᭄	-16.4969
ᴀ	-16.4969
ᴄ	-16.4969
ᴍ	-16.4969
ᴠ	-16.4969
ᵯ	-16.4969
ṃ	-16.4969
ẙ	-16.4969
ắ	-16.4969
ằ	-16.4969
ễ	-16.4969
ờ	-16.4969
ἰ	-16.4969
‡	-16.4969
₹	-16.4969
↖	-16.4969
↳	-16.4969
∈	-16.4969
≫	-16.4969
⋯	-16.4969
⌚	-16.4969
╘	-16.4969
╟	-16.4969
╢	-16.4969
▨	-16.4969
◇	-16.4969
☂	-16.4969
☑	-16.4969
☕	-16.4969
☘	-16.4969
☝	-16.4969
☤	-16.4969
♣	-16.4969
♻	-16.4969
⚃	-16.4969
⚕	-16.4969
⚙	-16.4969
⚠	-16.4969
✌	-16.4969
✍	-16.4969
✞	-16.4969
✯	-16.4969
❂	-16.4969
❃	-16.4969
❏	-16.4969
❖	-16.4969
➥	-16.4969
➳	-16.4969
』	-16.4969
ぎ	-16.4969
べ	-16.4969
ほ	-16.4969
ゆ	-16.4969
カ	-16.4969
ガ	-16.4969
ゲ	-16.4969
ジ	-16.4969
セ	-16.4969
ゼ	-16.4969
ツ	-16.4969
ヅ	-16.4969
デ	-16.4969
ハ	-16.4969
バ	-16.4969
ビ	-16.4969
ベ	-16.4969
七	-16.4969
三	-16.4969
不	-16.4969
么	-16.4969
乐	-16.4969
也	-16.4969
二	-16.4969
云	-16.4969
互	-16.4969
京	-16.4969
今	-16.4969
他	-16.4969
任	-16.4969
企	-16.4969
休	-16.4969
众	-16.4969
何	-16.4969
你	-16.4969
使	-16.4969
係	-16.4969
保	-16.4969
修	-16.4969
俺	-16.4969
們	-16.4969
側	-16.4969
優	-16.4969
儿	-16.4969
元	-16.4969
克	-16.4969
免	-16.4969
八	-16.4969
册	-16.4969
再	-16.4969
冯	-16.4969
划	-16.4969
势	-16.4969
勖	-16.4969
務	-16.4969
勧	-16.4969
包	-16.4969
化	-16.4969
医	-16.4969
午	-16.4969
华	-16.4969
卡	-16.4969
参	-16.4969
叫	-16.4969
召	-16.4969
向	-16.4969
吗	-16.4969
员	-16.4969
周	-16.4969
命	-16.4969
和	-16.4969
唱	-16.4969
器	-16.4969
國	-16.4969
圖	-16.4969
址	-16.4969
場	-16.4969
声	-16.4969
夂	-16.4969
夕	-16.4969
夜	-16.4969
奋	-16.4969
好	-16.4969
妹	-16.4969
委	-16.4969
姿	-16.4969
娱	-16.4969
字	-16.4969
宅	-16.4969
宗	-16.4969
定	-16.4969
宽	-16.4969
密	-16.4969
导	-16.4969
属	-16.4969
履	-16.4969
岩	-16.4969
峮	-16.4969
州	-16.4969
巡	-16.4969
巣	-16.4969
工	-16.4969
帝	-16.4969
带	-16.4969
帮	-16.4969
年	-16.4969
府	-16.4969
建	-16.4969
异	-16.4969
弦	-16.4969
必	-16.4969
志	-16.4969
忘	-16.4969
忙	-16.4969
快	-16.4969
您	-16.4969
悲	-16.4969
意	-16.4969
戒	-16.4969
戰	-16.4969
打	-16.4969
抢	-16.4969
拶	-16.4969
指	-16.4969
挨	-16.4969
掲	-16.4969
改	-16.4969
故	-16.4969
斗	-16.4969
早	-16.4969
昌	-16.4969
星	-16.4969
昴	-16.4969
普	-16.4969
會	-16.4969
有	-16.4969
望	-16.4969
朝	-16.4969
村	-16.4969
林	-16.4969
査	-16.4969
株	-16.4969
格	-16.4969
椰	-16.4969
楫	-16.4969
業	-16.4969
概	-16.4969
構	-16.4969
横	-16.4969
機	-16.4969
歳	-16.4969
毛	-16.4969
气	-16.4969
永	-16.4969
沖	-16.4969
没	-16.4969
河	-16.4969
治	-16.4969
注	-16.4969
泰	-16.4969
洛	-16.4969
洞	-16.4969
浙	-16.4969
渡	-16.4969
湖	-16.4969
漏	-16.4969
演	-16.4969
照	-16.4969
燼	-16.4969
牛	-16.4969
玉	-16.4969
甘	-16.4969
町	-16.4969
画	-16.4969
留	-16.4969
盘	-16.4969
眉	-16.4969
码	-16.4969
礦	-16.4969
祉	-16.4969
祐	-16.4969
神	-16.4969
福	-16.4969
离	-16.4969
私	-16.4969
秘	-16.4969
稳	-16.4969
站	-16.4969
等	-16.4969
米	-16.4969
糞	-16.4969
紇	-16.4969
红	-16.4969
线	-16.4969
能	-16.4969
腕	-16.4969
航	-16.4969
良	-16.4969
葵	-16.4969
藏	-16.4969
藤	-16.4969
蘭	-16.4969
蛋	-16.4969
蠟	-16.4969
衛	-16.4969
袖	-16.4969
製	-16.4969
西	-16.4969
要	-16.4969
視	-16.4969
见	-16.4969
誉	-16.4969
説	-16.4969
諸	-16.4969
識	-16.4969
讃	-16.4969
计	-16.4969
让	-16.4969
记	-16.4969
语	-16.4969
读	-16.4969
课	-16.4969
豚	-16.4969
象	-16.4969
貸	-16.4969
賞	-16.4969
趋	-16.4969
車	-16.4969
軒	-16.4969
輝	-16.4969
载	-16.4969
输	-16.4969
辺	-16.4969
运	-16.4969
迴	-16.4969
迹	-16.4969
連	-16.4969
進	-16.4969
過	-16.4969
選	-16.4969
郑	-16.4969
都	-16.4969
里	-16.4969
鑑	-16.4969
银	-16.4969
镇	-16.4969
长	-16.4969
関	-16.4969
问	-16.4969
间	-16.4969
阒	-16.4969
际	-16.4969
陳	-16.4969
雑	-16.4969
面	-16.4969
韬	-16.4969
響	-16.4969
颚	-16.4969
马	-16.4969
鵬	-16.4969
꧂	-16.4969
가	-16.4969
갑	-16.4969
갤	-16.4969
거	-16.4969
걸	-16.4969
것	-16.4969
격	-16.4969
계	-16.4969
공	-16.4969
과	-16.4969
관	-16.4969
교	-16.4969
굴	-16.4969
긋	-16.4969
긱	-16.4969
끼	-16.4969
단	-16.4969
달	-16.4969
답	-16.4969
더	-16.4969
둥	-16.4969
딩	-16.4969
떻	-16.4969
또	-16.4969
뚜	-16.4969
뚝	-16.4969
랑	-16.4969
래	-16.4969
랫	-16.4969
러	-16.4969
렘	-16.4969
려	-16.4969
룬	-16.4969
룰	-16.4969
류	-16.4969
를	-16.4969
림	-16.4969
릿	-16.4969
마	-16.4969
만	-16.4969
매	-16.4969
먹	-16.4969
메	-16.4969
며	-16.4969
명	-16.4969
모	-16.4969
문	-16.4969
뭘	-16.4969
뮤	-16.4969
반	-16.4969
밥	-16.4969
백	-16.4969
밴	-16.4969
버	-16.4969
번	-16.4969
베	-16.4969
벼	-16.4969
변	-16.4969
병	-16.4969
불	-16.4969
뷔	-16.4969
븐	-16.4969
블	-16.4969
뻐	-16.4969
뿌	-16.4969
상	-16.4969
생	-16.4969
석	-16.4969
설	-16.4969
섭	-16.4969
성	-16.4969
송	-16.4969
숙	-16.4969
슨	-16.4969
습	-16.4969
승	-16.4969
식	-16.4969
실	-16.4969
싼	-16.4969
쌍	-16.4969
양	-16.4969
업	-16.4969
에	-16.4969
엘	-16.4969
엥	-16.4969
여	-16.4969
열	-16.4969
옷	-16.4969
왔	-16.4969
외	-16.4969
용	-16.4969
울	-16.4969
웆	-16.4969
월	-16.4969
윤	-16.4969
율	-16.4969
응	-16.4969
일	-16.4969
잘	-16.4969
재	-16.4969
적	-16.4969
조	-16.4969
죄	-16.4969
죻	-16.4969
진	-16.4969
짓	-16.4969
짱	-16.4969
찌	-16.4969
차	-16.4969
찾	-16.4969
채	-16.4969
청	-16.4969
체	-16.4969
칩	-16.4969
칫	-16.4969
카	-16.4969
코	-16.4969
콕	-16.4969
키	-16.4969
탄	-16.4969
탓	-16.4969
탠	-16.4969
터	-16.4969
틴	-16.4969
팅	-16.4969
팝	-16.4969
펄	-16.4969
평	-16.4969
폰	-16.4969
푸	-16.4969
플	-16.4969
픽	-16.4969
학	-16.4969
항	-16.4969
혀	-16.4969
혜	-16.4969
호	-16.4969
홈	-16.4969
홍	-16.4969
횗	-16.4969
흐	-16.4969
흥	-16.4969
𖢘	-16.4969
🆕	-16.4969
🇫	-16.4969
🇳	-16.4969
🇸	-16.4969
🇽	-16.4969
🌃	-16.4969
🌄	-16.4969
🌅	-16.4969
🌍	-16.4969
🌐	-16.4969
🌡	-16.4969
🌳	-16.4969
🌻	-16.4969
🍀	-16.4969
🍁	-16.4969
🍑	-16.4969
🍞	-16.4969
🍩	-16.4969
🍯	-16.4969
🍰	-16.4969
🍱	-16.4969
🍹	-16.4969
🍽	-16.4969
🎀	-16.4969
🎄	-16.4969
🎬	-16.4969
🎶	-16.4969
🏆	-16.4969
🏋	-16.4969
🏣	-16.4969
🏦	-16.4969
🏼	-16.4969
👑	-16.4969
👦	-16.4969
👧	-16.4969
👽	-16.4969
💀	-16.4969
💉	-16.4969
💋	-16.4969
💐	-16.4969
💔	-16.4969
💕	-16.4969
💝	-16.4969
💡	-16.4969
💢	-16.4969
💩	-16.4969
💪	-16.4969
💸	-16.4969
💻	-16.4969
💼	-16.4969
📁	-16.4969
📅	-16.4969
📕	-16.4969
📖	-16.4969
📞	-16.4969
📣	-16.4969
📦	-16.4969
📱	-16.4969
📲	-16.4969
📷	-16.4969
🔄	-16.4969
🔹	-16.4969
🕑	-16.4969
🕘	-16.4969
🕯	-16.4969
🖐	-16.4969
🖤	-16.4969
🗓	-16.4969
😄	-16.4969
😈	-16.4969
😐	-16.4969
😑	-16.4969
😡	-16.4969
😥	-16.4969
😩	-16.4969
😫	-16.4969
😮	-16.4969
😰	-16.4969
😲	-16.4969
😶	-16.4969
🙆	-16.4969
🙋	-16.4969
🙎	-16.4969
🚀	-16.4969
🚘	-16.4969
🚩	-16.4969
🛍	-16.4969
🛑	-16.4969
🛒	-16.4969
🛡	-16.4969
🤍	-16.4969
🤓	-16.4969
🤡	-16.4969
🤫	-16.4969
🥄	-16.4969
🧤	-16.4969
🧨	-16.4969
ĸ	-16.4969
ľ	-16.4969
ҷ	-16.4969
ج	-16.4969
ز	-16.4969
ᄒ	-16.4969
ầ	-16.4969
▍	-16.4969
☔	-16.4969
ラ	-16.4969
北	-16.4969
太	-16.4969
室	-16.4969
开	-16.4969
斯	-16.4969
机	-16.4969
辉	-16.4969
龶	-16.4969
와	-16.4969
케	-16.4969
햄	-16.4969
￼	-16.4969
🦋	-16.4969
ę	-16.4969
ě	-16.4969
Ž	-16.4969
ɑ	-16.4969
ज	-16.4969
़	-16.4969
१	-16.4969
ত	-16.4969
র	-16.4969
သ	-16.4969
ᠵ	-16.4969
⿱	-16.4969
『	-16.4969
タ	-16.4969
ペ	-16.4969
伊	-16.4969
光	-16.4969
前	-16.4969
動	-16.4969
味	-16.4969
唐	-16.4969
問	-16.4969
喵	-16.4969
塚	-16.4969
奇	-16.4969
小	-16.4969
当	-16.4969
心	-16.4969
情	-16.4969
戸	-16.4969
新	-16.4969
暲	-16.4969
更	-16.4969
民	-16.4969
沿	-16.4969
華	-16.4969
裏	-16.4969
賃	-16.4969
陝	-16.4969
電	-16.4969
題	-16.4969
돈	-16.4969
워	-16.4969
침	-16.4969
커	-16.4969
콧	-16.4969
퍼	-16.4969
횒	-16.4969
횜	-16.4969
🍇	-16.4969
🍾	-16.4969
̵	-16.4969
̸	-16.4969
҉	-16.4969
চ	-16.4969
ে	-16.4969
တ	-16.4969
လ	-16.4969
ေ	-16.4969
္	-16.4969
ြ	-16.4969
ぬ	-16.4969
万	-16.4969
僕	-16.4969
公	-16.4969
塑	-16.4969
局	-16.4969
怎	-16.4969
恩	-16.4969
悔	-16.4969
提	-16.4969
斥	-16.4969
百	-16.4969
送	-16.4969
配	-16.4969
钱	-16.4969
随	-16.4969
є	-16.497
付	-16.497
別	-16.497
帯	-16.497
特	-16.497
給	-16.497
臨	-16.497
親	-16.497
