{
  "version": "1.0",
  "truncation": null,
  "padding": null,
  "added_tokens": [
    {
      "id": 0,
      "content": "[UNK]",
      "single_word": false,
      "lstrip": false,
      "rstrip": false,
      "normalized": false,
      "special": true
    },
    {
      "id": 1,
      "content": "[CLS]",
      "single_word": false,
      "lstrip": false,
      "rstrip": false,
      "normalized": false,
      "special": true
    },
    {
      "id": 2,
      "content": "[SEP]",
      "single_word": false,
      "lstrip": false,
      "rstrip": false,
      "normalized": false,
      "special": true
    },
    {
      "id": 3,
      "content": "[PAD]",
      "single_word": false,
      "lstrip": false,
      "rstrip": false,
      "normalized": false,
      "special": true
    },
    {
      "id": 4,
      "content": "[MASK]",
      "single_word": false,
      "lstrip": false,
      "rstrip": false,
      "normalized": false,
      "special": true
    }
  ],
  "normalizer": {
    "type": "Sequence",
    "normalizers": [
      {
        "type": "NFKC"
      },
      {
        "type": "Lowercase"
      }
    ]
  },
  "pre_tokenizer": {
    "type": "Whitespace"
  },
  "post_processor": null,
  "decoder": {
    "type": "WordPiece",
    "prefix": "##",
    "cleanup": true
  },
  "model": {
    "type": "WordPiece",
    "unk_token": "[UNK]",
    "continuing_subword_prefix": "##",
    "max_input_chars_per_word": 100,
    "vocab": {
      "[UNK]": 0,
      "[CLS]": 1,
      "[SEP]": 2,
      "[PAD]": 3,
      "[MASK]": 4,
      "!": 5,
      "\"": 6,
      "#": 7,
      "$": 8,
      "%": 9,
      "&": 10,
      "'": 11,
      "(": 12,
      ")": 13,
      "*": 14,
      "+": 15,
      ",": 16,
      "-": 17,
      ".": 18,
      "/": 19,
      "0": 20,
      "1": 21,
      "2": 22,
      "3": 23,
      "4": 24,
      "5": 25,
      "6": 26,
      "7": 27,
      "8": 28,
      "9": 29,
      ":": 30,
      ";": 31,
      "<": 32,
      "=": 33,
      ">": 34,
      "?": 35,
      "@": 36,
      "[": 37,
      "\\": 38,
      "]": 39,
      "^": 40,
      "_": 41,
      "a": 42,
      "b": 43,
      "c": 44,
      "d": 45,
      "e": 46,
      "f": 47,
      "g": 48,
      "h": 49,
      "i": 50,
      "j": 51,
      "k": 52,
      "l": 53,
      "m": 54,
      "n": 55,
      "o": 56,
      "p": 57,
      "q": 58,
      "r": 59,
      "s": 60,
      "t": 61,
      "u": 62,
      "v": 63,
      "w": 64,
      "x": 65,
      "y": 66,
      "z": 67,
      "{": 68,
      "|": 69,
      "}": 70,
      "~": 71,
      "¢": 72,
      "£": 73,
      "¤": 74,
      "¥": 75,
      "¦": 76,
      "§": 77,
      "©": 78,
      "¬": 79,
      "®": 80,
      "°": 81,
      "±": 82,
      "¶": 83,
      "·": 84,
      "¿": 85,
      "×": 86,
      "ß": 87,
      "à": 88,
      "á": 89,
      "â": 90,
      "ã": 91,
      "ä": 92,
      "å": 93,
      "æ": 94,
      "ç": 95,
      "è": 96,
      "é": 97,
      "ê": 98,
      "ë": 99,
      "ì": 100,
      "í": 101,
      "î": 102,
      "ï": 103,
      "ð": 104,
      "ñ": 105,
      "ò": 106,
      "ó": 107,
      "ô": 108,
      "õ": 109,
      "ö": 110,
      "÷": 111,
      "ø": 112,
      "ú": 113,
      "û": 114,
      "ü": 115,
      "ý": 116,
      "þ": 117,
      "ÿ": 118,
      "ā": 119,
      "ă": 120,
      "ć": 121,
      "č": 122,
      "đ": 123,
      "ē": 124,
      "ĕ": 125,
      "ė": 126,
      "ę": 127,
      "ě": 128,
      "ğ": 129,
      "ī": 130,
      "į": 131,
      "ı": 132,
      "ĸ": 133,
      "ľ": 134,
      "ł": 135,
      "ń": 136,
      "ň": 137,
      "ō": 138,
      "œ": 139,
      "ř": 140,
      "ś": 141,
      "ş": 142,
      "š": 143,
      "ť": 144,
      "ŧ": 145,
      "ū": 146,
      "ů": 147,
      "ž": 148,
      "ƒ": 149,
      "ư": 150,
      "ǎ": 151,
      "ǐ": 152,
      "ǿ": 153,
      "ɇ": 154,
      "ɐ": 155,
      "ɑ": 156,
      "ɗ": 157,
      "ə": 158,
      "ɪ": 159,
      "ɲ": 160,
      "ɴ": 161,
      "ɵ": 162,
      "ʀ": 163,
      "ʏ": 164,
      "ʜ": 165,
      "ʟ": 166,
      "ˈ": 167,
      "ˌ": 168,
      "ː": 169,
      "˗": 170,
      "̀": 171,
      "́": 172,
      "̄": 173,
      "̇": 174,
      "̈": 175,
      "̌": 176,
      "̵": 177,
      "̷": 178,
      "̸": 179,
      "͜": 180,
      "͞": 181,
      "ά": 182,
      "ή": 183,
      "ί": 184,
      "α": 185,
      "β": 186,
      "γ": 187,
      "δ": 188,
      "ε": 189,
      "η": 190,
      "θ": 191,
      "ι": 192,
      "κ": 193,
      "λ": 194,
      "μ": 195,
      "ν": 196,
      "ο": 197,
      "π": 198,
      "ρ": 199,
      "ς": 200,
      "σ": 201,
      "τ": 202,
      "υ": 203,
      "φ": 204,
      "ψ": 205,
      "ω": 206,
      "ό": 207,
      "ύ": 208,
      "ώ": 209,
      "а": 210,
      "б": 211,
      "в": 212,
      "г": 213,
      "д": 214,
      "е": 215,
      "ж": 216,
      "з": 217,
      "и": 218,
      "й": 219,
      "к": 220,
      "л": 221,
      "м": 222,
      "н": 223,
      "о": 224,
      "п": 225,
      "р": 226,
      "с": 227,
      "т": 228,
      "у": 229,
      "ф": 230,
      "х": 231,
      "ц": 232,
      "ч": 233,
      "ш": 234,
      "щ": 235,
      "ъ": 236,
      "ы": 237,
      "ь": 238,
      "э": 239,
      "ю": 240,
      "я": 241,
      "ѐ": 242,
      "ё": 243,
      "ђ": 244,
      "ѓ": 245,
      "є": 246,
      "ѕ": 247,
      "і": 248,
      "ї": 249,
      "ј": 250,
      "њ": 251,
      "ћ": 252,
      "ќ": 253,
      "ў": 254,
      "џ": 255,
      "ѳ": 256,
      "҉": 257,
      "ґ": 258,
      "ғ": 259,
      "ҕ": 260,
      "җ": 261,
      "қ": 262,
      "ҡ": 263,
      "ң": 264,
      "ҥ": 265,
      "ү": 266,
      "ұ": 267,
      "ҳ": 268,
      "ҷ": 269,
      "һ": 270,
      "ӄ": 271,
      "ӈ": 272,
      "ӏ": 273,
      "ӑ": 274,
      "ӓ": 275,
      "ә": 276,
      "ӝ": 277,
      "ӣ": 278,
      "ӧ": 279,
      "ө": 280,
      "ӯ": 281,
      "ӱ": 282,
      "ա": 283,
      "գ": 284,
      "դ": 285,
      "ե": 286,
      "զ": 287,
      "ը": 288,
      "ի": 289,
      "լ": 290,
      "խ": 291,
      "կ": 292,
      "ղ": 293,
      "մ": 294,
      "յ": 295,
      "ն": 296,
      "ո": 297,
      "չ": 298,
      "ս": 299,
      "վ": 300,
      "տ": 301,
      "ր": 302,
      "ց": 303,
      "ւ": 304,
      "ք": 305,
      "א": 306,
      "ב": 307,
      "ג": 308,
      "ה": 309,
      "ו": 310,
      "ז": 311,
      "ט": 312,
      "י": 313,
      "ל": 314,
      "מ": 315,
      "נ": 316,
      "ע": 317,
      "פ": 318,
      "ר": 319,
      "ת": 320,
      "،": 321,
      "؟": 322,
      "أ": 323,
      "إ": 324,
      "ا": 325,
      "ب": 326,
      "ة": 327,
      "ت": 328,
      "ج": 329,
      "ح": 330,
      "خ": 331,
      "د": 332,
      "ذ": 333,
      "ر": 334,
      "ز": 335,
      "س": 336,
      "ش": 337,
      "ص": 338,
      "ض": 339,
      "ط": 340,
      "ع": 341,
      "غ": 342,
      "ف": 343,
      "ق": 344,
      "ك": 345,
      "ل": 346,
      "م": 347,
      "ن": 348,
      "ه": 349,
      "و": 350,
      "ى": 351,
      "ي": 352,
      "َ": 353,
      "ک": 354,
      "ہ": 355,
      "ۇ": 356,
      "ی": 357,
      "ە": 358,
      "ं": 359,
      "इ": 360,
      "ए": 361,
      "क": 362,
      "ज": 363,
      "ब": 364,
      "र": 365,
      "ल": 366,
      "़": 367,
      "ा": 368,
      "ि": 369,
      "ै": 370,
      "१": 371,
      "४": 372,
      "७": 373,
      "९": 374,
      "অ": 375,
      "ই": 376,
      "ক": 377,
      "চ": 378,
      "ত": 379,
      "দ": 380,
      "ন": 381,
      "ব": 382,
      "র": 383,
      "া": 384,
      "ি": 385,
      "ু": 386,
      "ে": 387,
      "্": 388,
      "ਂ": 389,
      "ਕ": 390,
      "ਟ": 391,
      "ਪ": 392,
      "ਮ": 393,
      "ਰ": 394,
      "ਸ": 395,
      "ਹ": 396,
      "ਾ": 397,
      "ਿ": 398,
      "ੀ": 399,
      "ੂ": 400,
      "ੈ": 401,
      "ੌ": 402,
      "க": 403,
      "ட": 404,
      "ழ": 405,
      "ா": 406,
      "ி": 407,
      "ூ": 408,
      "ை": 409,
      "்": 410,
      "ೋ": 411,
      "ก": 412,
      "ค": 413,
      "ง": 414,
      "จ": 415,
      "ซ": 416,
      "ด": 417,
      "ต": 418,
      "ท": 419,
      "น": 420,
      "ฝ": 421,
      "พ": 422,
      "ฟ": 423,
      "ภ": 424,
      "ม": 425,
      "ย": 426,
      "ล": 427,
      "ว": 428,
      "ษ": 429,
      "ส": 430,
      "ห": 431,
      "ฬ": 432,
      "อ": 433,
      "ั": 434,
      "า": 435,
      "ิ": 436,
      "ี": 437,
      "ึ": 438,
      "เ": 439,
      "แ": 440,
      "โ": 441,
      "ใ": 442,
      "ไ": 443,
      "่": 444,
      "้": 445,
      "์": 446,
      "྆": 447,
      "࿐": 448,
      "တ": 449,
      "န": 450,
      "မ": 451,
      "လ": 452,
      "သ": 453,
      "ဦ": 454,
      "ိ": 455,
      "ု": 456,
      "ေ": 457,
      "့": 458,
      "း": 459,
      "္": 460,
      "်": 461,
      "ြ": 462,
      "၊": 463,
      "ᄀ": 464,
      "ᄂ": 465,
      "ᄅ": 466,
      "ᄆ": 467,
      "ᄇ": 468,
      "ᄋ": 469,
      "ᄏ": 470,
      "ᄒ": 471,
      "ᅮ": 472,
      "ᅲ": 473,
      "ᅳ": 474,
      "ᅵ": 475,
      "ᆞ": 476,
      "ᐉ": 477,
      "᠋": 478,
      "ᠠ": 479,
      "ᠡ": 480,
      "ᠢ": 481,
      "ᠤ": 482,
      "ᠥ": 483,
      "ᠦ": 484,
      "ᠨ": 485,
      "ᠫ": 486,
      "ᠬ": 487,
      "ᠭ": 488,
      "ᠮ": 489,
      "ᠯ": 490,
      "ᠰ": 491,
      "ᠱ": 492,
      "ᠳ": 493,
      "ᠴ": 494,
      "ᠵ": 495,
      "ᠶ": 496,
      "ᠷ": 497,
      "ᠹ": 498,
      "ᠻ": 499,
      "ᠼ": 500,
      "᭄": 501,
      "ᴀ": 502,
      "ᴄ": 503,
      "ᴇ": 504,
      "ᴍ": 505,
      "ᴜ": 506,
      "ᴠ": 507,
      "ᵯ": 508,
      "ᵴ": 509,
      "ḍ": 510,
      "ḥ": 511,
      "ṃ": 512,
      "ṅ": 513,
      "ṇ": 514,
      "ṭ": 515,
      "ẙ": 516,
      "ầ": 517,
      "ắ": 518,
      "ằ": 519,
      "ế": 520,
      "ễ": 521,
      "ớ": 522,
      "ờ": 523,
      "ἰ": 524,
      "‐": 525,
      "―": 526,
      "‖": 527,
      "†": 528,
      "‡": 529,
      "•": 530,
      "‣": 531,
      "‰": 532,
      "′": 533,
      "‹": 534,
      "›": 535,
      "※": 536,
      "⁄": 537,
      "₩": 538,
      "₪": 539,
      "€": 540,
      "₮": 541,
      "₹": 542,
      "₽": 543,
      "⃣": 544,
      "←": 545,
      "↑": 546,
      "→": 547,
      "↓": 548,
      "↔": 549,
      "↖": 550,
      "↙": 551,
      "↳": 552,
      "⇒": 553,
      "⇨": 554,
      "∂": 555,
      "∆": 556,
      "∈": 557,
      "−": 558,
      "∙": 559,
      "√": 560,
      "∞": 561,
      "≈": 562,
      "≠": 563,
      "≤": 564,
      "≥": 565,
      "≫": 566,
      "⋆": 567,
      "⋯": 568,
      "⌚": 569,
      "⎪": 570,
      "⏱": 571,
      "│": 572,
      "╒": 573,
      "╘": 574,
      "╟": 575,
      "╢": 576,
      "█": 577,
      "▍": 578,
      "■": 579,
      "□": 580,
      "▨": 581,
      "▪": 582,
      "▲": 583,
      "▶": 584,
      "►": 585,
      "▼": 586,
      "◆": 587,
      "◇": 588,
      "◊": 589,
      "○": 590,
      "●": 591,
      "◦": 592,
      "☀": 593,
      "☂": 594,
      "★": 595,
      "☆": 596,
      "☈": 597,
      "☎": 598,
      "☑": 599,
      "☔": 600,
      "☕": 601,
      "☘": 602,
      "☛": 603,
      "☝": 604,
      "☞": 605,
      "☤": 606,
      "☮": 607,
      "☹": 608,
      "☺": 609,
      "☻": 610,
      "♀": 611,
      "♂": 612,
      "♏": 613,
      "♔": 614,
      "♚": 615,
      "♛": 616,
      "♠": 617,
      "♡": 618,
      "♣": 619,
      "♥": 620,
      "♦": 621,
      "♪": 622,
      "♫": 623,
      "♻": 624,
      "⚃": 625,
      "⚕": 626,
      "⚙": 627,
      "⚠": 628,
      "⚡": 629,
      "⚫": 630,
      "⚽": 631,
      "✅": 632,
      "✈": 633,
      "✌": 634,
      "✍": 635,
      "✓": 636,
      "✔": 637,
      "✞": 638,
      "✨": 639,
      "✯": 640,
      "✿": 641,
      "❀": 642,
      "❂": 643,
      "❃": 644,
      "❄": 645,
      "❏": 646,
      "❖": 647,
      "❗": 648,
      "❤": 649,
      "❷": 650,
      "❹": 651,
      "❼": 652,
      "➜": 653,
      "➡": 654,
      "➢": 655,
      "➥": 656,
      "➳": 657,
      "⠀": 658,
      "⦁": 659,
      "⭐": 660,
      "⿱": 661,
      "、": 662,
      "。": 663,
      "《": 664,
      "》": 665,
      "「": 666,
      "」": 667,
      "『": 668,
      "』": 669,
      "【": 670,
      "】": 671,
      "〓": 672,
      "あ": 673,
      "い": 674,
      "う": 675,
      "え": 676,
      "お": 677,
      "か": 678,
      "が": 679,
      "き": 680,
      "ぎ": 681,
      "く": 682,
      "ぐ": 683,
      "け": 684,
      "げ": 685,
      "こ": 686,
      "ご": 687,
      "さ": 688,
      "ざ": 689,
      "し": 690,
      "じ": 691,
      "す": 692,
      "せ": 693,
      "そ": 694,
      "た": 695,
      "だ": 696,
      "ち": 697,
      "っ": 698,
      "つ": 699,
      "て": 700,
      "で": 701,
      "と": 702,
      "ど": 703,
      "な": 704,
      "に": 705,
      "ぬ": 706,
      "の": 707,
      "は": 708,
      "ば": 709,
      "ひ": 710,
      "ぶ": 711,
      "べ": 712,
      "ほ": 713,
      "ま": 714,
      "み": 715,
      "め": 716,
      "も": 717,
      "ゃ": 718,
      "や": 719,
      "ゅ": 720,
      "ゆ": 721,
      "ょ": 722,
      "よ": 723,
      "ら": 724,
      "り": 725,
      "る": 726,
      "れ": 727,
      "ろ": 728,
      "わ": 729,
      "を": 730,
      "ん": 731,
      "ィ": 732,
      "イ": 733,
      "ウ": 734,
      "カ": 735,
      "ガ": 736,
      "キ": 737,
      "ギ": 738,
      "ク": 739,
      "ゲ": 740,
      "コ": 741,
      "ゴ": 742,
      "サ": 743,
      "シ": 744,
      "ジ": 745,
      "セ": 746,
      "ゼ": 747,
      "ソ": 748,
      "タ": 749,
      "ダ": 750,
      "チ": 751,
      "ツ": 752,
      "ヅ": 753,
      "デ": 754,
      "ド": 755,
      "ナ": 756,
      "ニ": 757,
      "ハ": 758,
      "バ": 759,
      "ヒ": 760,
      "ビ": 761,
      "フ": 762,
      "ブ": 763,
      "ベ": 764,
      "ペ": 765,
      "マ": 766,
      "ミ": 767,
      "ム": 768,
      "モ": 769,
      "ャ": 770,
      "ョ": 771,
      "ラ": 772,
      "リ": 773,
      "ル": 774,
      "ン": 775,
      "・": 776,
      "ー": 777,
      "ㄍ": 778,
      "ㄎ": 779,
      "ㄟ": 780,
      "ㄨ": 781,
      "一": 782,
      "七": 783,
      "万": 784,
      "三": 785,
      "上": 786,
      "下": 787,
      "不": 788,
      "世": 789,
      "业": 790,
      "个": 791,
      "中": 792,
      "么": 793,
      "乐": 794,
      "也": 795,
      "二": 796,
      "云": 797,
      "互": 798,
      "交": 799,
      "京": 800,
      "人": 801,
      "今": 802,
      "介": 803,
      "仔": 804,
      "他": 805,
      "付": 806,
      "代": 807,
      "们": 808,
      "件": 809,
      "任": 810,
      "企": 811,
      "伊": 812,
      "休": 813,
      "众": 814,
      "会": 815,
      "位": 816,
      "住": 817,
      "何": 818,
      "作": 819,
      "你": 820,
      "使": 821,
      "便": 822,
      "係": 823,
      "保": 824,
      "信": 825,
      "修": 826,
      "俺": 827,
      "們": 828,
      "停": 829,
      "健": 830,
      "側": 831,
      "僕": 832,
      "優": 833,
      "儿": 834,
      "元": 835,
      "光": 836,
      "克": 837,
      "免": 838,
      "八": 839,
      "公": 840,
      "内": 841,
      "册": 842,
      "再": 843,
      "冯": 844,
      "出": 845,
      "分": 846,
      "划": 847,
      "別": 848,
      "前": 849,
      "势": 850,
      "動": 851,
      "勖": 852,
      "務": 853,
      "勧": 854,
      "包": 855,
      "化": 856,
      "北": 857,
      "医": 858,
      "十": 859,
      "午": 860,
      "华": 861,
      "南": 862,
      "博": 863,
      "卡": 864,
      "参": 865,
      "古": 866,
      "叫": 867,
      "召": 868,
      "台": 869,
      "号": 870,
      "合": 871,
      "名": 872,
      "向": 873,
      "吗": 874,
      "君": 875,
      "员": 876,
      "周": 877,
      "味": 878,
      "命": 879,
      "和": 880,
      "品": 881,
      "唐": 882,
      "售": 883,
      "唱": 884,
      "商": 885,
      "問": 886,
      "喵": 887,
      "器": 888,
      "回": 889,
      "団": 890,
      "図": 891,
      "国": 892,
      "图": 893,
      "國": 894,
      "圖": 895,
      "地": 896,
      "址": 897,
      "型": 898,
      "基": 899,
      "場": 900,
      "塑": 901,
      "塚": 902,
      "士": 903,
      "声": 904,
      "夂": 905,
      "変": 906,
      "夕": 907,
      "夜": 908,
      "夢": 909,
      "天": 910,
      "太": 911,
      "奇": 912,
      "奋": 913,
      "好": 914,
      "妹": 915,
      "委": 916,
      "姿": 917,
      "娱": 918,
      "子": 919,
      "字": 920,
      "学": 921,
      "宅": 922,
      "安": 923,
      "宗": 924,
      "定": 925,
      "室": 926,
      "宽": 927,
      "密": 928,
      "导": 929,
      "小": 930,
      "少": 931,
      "局": 932,
      "展": 933,
      "属": 934,
      "履": 935,
      "山": 936,
      "岩": 937,
      "峮": 938,
      "州": 939,
      "巡": 940,
      "巣": 941,
      "工": 942,
      "帝": 943,
      "带": 944,
      "帮": 945,
      "帯": 946,
      "平": 947,
      "年": 948,
      "庆": 949,
      "府": 950,
      "康": 951,
      "建": 952,
      "开": 953,
      "异": 954,
      "弦": 955,
      "当": 956,
      "录": 957,
      "形": 958,
      "彩": 959,
      "後": 960,
      "御": 961,
      "心": 962,
      "必": 963,
      "志": 964,
      "忘": 965,
      "忙": 966,
      "快": 967,
      "怎": 968,
      "恩": 969,
      "悔": 970,
      "您": 971,
      "悲": 972,
      "情": 973,
      "意": 974,
      "愛": 975,
      "憎": 976,
      "我": 977,
      "戒": 978,
      "戰": 979,
      "戸": 980,
      "手": 981,
      "打": 982,
      "払": 983,
      "抢": 984,
      "拶": 985,
      "指": 986,
      "挨": 987,
      "探": 988,
      "掲": 989,
      "提": 990,
      "改": 991,
      "故": 992,
      "文": 993,
      "斗": 994,
      "斥": 995,
      "斯": 996,
      "新": 997,
      "族": 998,
      "日": 999,
      "早": 1000,
      "时": 1001,
      "昌": 1002,
      "星": 1003,
      "是": 1004,
      "昴": 1005,
      "時": 1006,
      "普": 1007,
      "暲": 1008,
      "曜": 1009,
      "曲": 1010,
      "更": 1011,
      "書": 1012,
      "會": 1013,
      "月": 1014,
      "有": 1015,
      "望": 1016,
      "朝": 1017,
      "本": 1018,
      "机": 1019,
      "李": 1020,
      "村": 1021,
      "松": 1022,
      "林": 1023,
      "査": 1024,
      "株": 1025,
      "格": 1026,
      "椰": 1027,
      "楫": 1028,
      "業": 1029,
      "楽": 1030,
      "概": 1031,
      "構": 1032,
      "横": 1033,
      "機": 1034,
      "歌": 1035,
      "止": 1036,
      "歳": 1037,
      "残": 1038,
      "毛": 1039,
      "民": 1040,
      "气": 1041,
      "気": 1042,
      "水": 1043,
      "永": 1044,
      "江": 1045,
      "沖": 1046,
      "没": 1047,
      "河": 1048,
      "治": 1049,
      "沿": 1050,
      "法": 1051,
      "注": 1052,
      "泰": 1053,
      "洛": 1054,
      "洞": 1055,
      "流": 1056,
      "浙": 1057,
      "浜": 1058,
      "淮": 1059,
      "済": 1060,
      "渡": 1061,
      "湖": 1062,
      "漏": 1063,
      "演": 1064,
      "点": 1065,
      "照": 1066,
      "燼": 1067,
      "版": 1068,
      "牛": 1069,
      "特": 1070,
      "玉": 1071,
      "现": 1072,
      "理": 1073,
      "甘": 1074,
      "生": 1075,
      "用": 1076,
      "田": 1077,
      "町": 1078,
      "画": 1079,
      "留": 1080,
      "発": 1081,
      "登": 1082,
      "百": 1083,
      "的": 1084,
      "皇": 1085,
      "盘": 1086,
      "眉": 1087,
      "码": 1088,
      "破": 1089,
      "礦": 1090,
      "社": 1091,
      "祉": 1092,
      "祐": 1093,
      "神": 1094,
      "福": 1095,
      "离": 1096,
      "私": 1097,
      "秘": 1098,
      "称": 1099,
      "稳": 1100,
      "站": 1101,
      "等": 1102,
      "简": 1103,
      "管": 1104,
      "米": 1105,
      "糞": 1106,
      "紀": 1107,
      "紇": 1108,
      "経": 1109,
      "給": 1110,
      "線": 1111,
      "红": 1112,
      "线": 1113,
      "网": 1114,
      "美": 1115,
      "翻": 1116,
      "考": 1117,
      "者": 1118,
      "聲": 1119,
      "胡": 1120,
      "能": 1121,
      "腕": 1122,
      "臨": 1123,
      "自": 1124,
      "舞": 1125,
      "航": 1126,
      "良": 1127,
      "華": 1128,
      "葵": 1129,
      "蒙": 1130,
      "藏": 1131,
      "藤": 1132,
      "蘭": 1133,
      "蛋": 1134,
      "蠟": 1135,
      "行": 1136,
      "衛": 1137,
      "表": 1138,
      "袖": 1139,
      "裏": 1140,
      "製": 1141,
      "西": 1142,
      "要": 1143,
      "見": 1144,
      "視": 1145,
      "親": 1146,
      "见": 1147,
      "解": 1148,
      "言": 1149,
      "証": 1150,
      "話": 1151,
      "誉": 1152,
      "誌": 1153,
      "語": 1154,
      "説": 1155,
      "諸": 1156,
      "識": 1157,
      "讃": 1158,
      "计": 1159,
      "让": 1160,
      "记": 1161,
      "译": 1162,
      "语": 1163,
      "请": 1164,
      "读": 1165,
      "课": 1166,
      "豚": 1167,
      "象": 1168,
      "貸": 1169,
      "費": 1170,
      "賃": 1171,
      "資": 1172,
      "賞": 1173,
      "责": 1174,
      "趋": 1175,
      "路": 1176,
      "身": 1177,
      "車": 1178,
      "軒": 1179,
      "載": 1180,
      "輝": 1181,
      "软": 1182,
      "载": 1183,
      "辉": 1184,
      "输": 1185,
      "辺": 1186,
      "込": 1187,
      "达": 1188,
      "运": 1189,
      "近": 1190,
      "返": 1191,
      "还": 1192,
      "迴": 1193,
      "迹": 1194,
      "送": 1195,
      "通": 1196,
      "逢": 1197,
      "連": 1198,
      "進": 1199,
      "過": 1200,
      "達": 1201,
      "選": 1202,
      "郑": 1203,
      "部": 1204,
      "都": 1205,
      "配": 1206,
      "里": 1207,
      "重": 1208,
      "金": 1209,
      "鈴": 1210,
      "鑑": 1211,
      "钱": 1212,
      "银": 1213,
      "镇": 1214,
      "长": 1215,
      "間": 1216,
      "関": 1217,
      "门": 1218,
      "问": 1219,
      "间": 1220,
      "阒": 1221,
      "际": 1222,
      "陝": 1223,
      "险": 1224,
      "陳": 1225,
      "随": 1226,
      "際": 1227,
      "雑": 1228,
      "電": 1229,
      "面": 1230,
      "革": 1231,
      "韬": 1232,
      "音": 1233,
      "響": 1234,
      "題": 1235,
      "類": 1236,
      "颚": 1237,
      "駅": 1238,
      "马": 1239,
      "高": 1240,
      "鵬": 1241,
      "麦": 1242,
      "黄": 1243,
      "黑": 1244,
      "龙": 1245,
      "龶": 1246,
      "꧁": 1247,
      "꧂": 1248,
      "가": 1249,
      "갑": 1250,
      "갤": 1251,
      "거": 1252,
      "걸": 1253,
      "것": 1254,
      "게": 1255,
      "겠": 1256,
      "격": 1257,
      "경": 1258,
      "계": 1259,
      "고": 1260,
      "골": 1261,
      "공": 1262,
      "과": 1263,
      "관": 1264,
      "교": 1265,
      "구": 1266,
      "국": 1267,
      "굴": 1268,
      "권": 1269,
      "규": 1270,
      "긋": 1271,
      "기": 1272,
      "긱": 1273,
      "김": 1274,
      "끼": 1275,
      "나": 1276,
      "남": 1277,
      "내": 1278,
      "너": 1279,
      "노": 1280,
      "뉴": 1281,
      "는": 1282,
      "니": 1283,
      "다": 1284,
      "단": 1285,
      "달": 1286,
      "답": 1287,
      "대": 1288,
      "더": 1289,
      "도": 1290,
      "돈": 1291,
      "동": 1292,
      "둥": 1293,
      "딩": 1294,
      "떻": 1295,
      "또": 1296,
      "뚜": 1297,
      "뚝": 1298,
      "라": 1299,
      "랑": 1300,
      "래": 1301,
      "랫": 1302,
      "러": 1303,
      "렘": 1304,
      "려": 1305,
      "로": 1306,
      "루": 1307,
      "룬": 1308,
      "룰": 1309,
      "류": 1310,
      "르": 1311,
      "를": 1312,
      "리": 1313,
      "린": 1314,
      "림": 1315,
      "릿": 1316,
      "마": 1317,
      "만": 1318,
      "말": 1319,
      "매": 1320,
      "먹": 1321,
      "메": 1322,
      "며": 1323,
      "명": 1324,
      "모": 1325,
      "몽": 1326,
      "무": 1327,
      "문": 1328,
      "뭘": 1329,
      "뮤": 1330,
      "미": 1331,
      "민": 1332,
      "바": 1333,
      "반": 1334,
      "밥": 1335,
      "배": 1336,
      "백": 1337,
      "밴": 1338,
      "버": 1339,
      "번": 1340,
      "법": 1341,
      "베": 1342,
      "벼": 1343,
      "변": 1344,
      "병": 1345,
      "보": 1346,
      "부": 1347,
      "불": 1348,
      "뷔": 1349,
      "브": 1350,
      "븐": 1351,
      "블": 1352,
      "비": 1353,
      "빈": 1354,
      "뻐": 1355,
      "뿌": 1356,
      "사": 1357,
      "상": 1358,
      "새": 1359,
      "생": 1360,
      "서": 1361,
      "석": 1362,
      "선": 1363,
      "설": 1364,
      "섭": 1365,
      "성": 1366,
      "세": 1367,
      "송": 1368,
      "수": 1369,
      "숙": 1370,
      "스": 1371,
      "슨": 1372,
      "습": 1373,
      "승": 1374,
      "시": 1375,
      "식": 1376,
      "신": 1377,
      "실": 1378,
      "싼": 1379,
      "쌍": 1380,
      "아": 1381,
      "안": 1382,
      "알": 1383,
      "야": 1384,
      "양": 1385,
      "어": 1386,
      "업": 1387,
      "없": 1388,
      "에": 1389,
      "엘": 1390,
      "엥": 1391,
      "여": 1392,
      "역": 1393,
      "연": 1394,
      "열": 1395,
      "영": 1396,
      "예": 1397,
      "오": 1398,
      "올": 1399,
      "옷": 1400,
      "와": 1401,
      "왔": 1402,
      "외": 1403,
      "요": 1404,
      "용": 1405,
      "우": 1406,
      "울": 1407,
      "웆": 1408,
      "워": 1409,
      "원": 1410,
      "월": 1411,
      "유": 1412,
      "윤": 1413,
      "율": 1414,
      "으": 1415,
      "은": 1416,
      "을": 1417,
      "응": 1418,
      "의": 1419,
      "이": 1420,
      "인": 1421,
      "일": 1422,
      "있": 1423,
      "자": 1424,
      "잘": 1425,
      "장": 1426,
      "재": 1427,
      "저": 1428,
      "적": 1429,
      "전": 1430,
      "정": 1431,
      "제": 1432,
      "조": 1433,
      "죄": 1434,
      "죻": 1435,
      "주": 1436,
      "즈": 1437,
      "지": 1438,
      "직": 1439,
      "진": 1440,
      "짓": 1441,
      "짱": 1442,
      "찌": 1443,
      "찡": 1444,
      "차": 1445,
      "창": 1446,
      "찾": 1447,
      "채": 1448,
      "청": 1449,
      "체": 1450,
      "초": 1451,
      "최": 1452,
      "침": 1453,
      "칩": 1454,
      "칫": 1455,
      "카": 1456,
      "커": 1457,
      "케": 1458,
      "코": 1459,
      "콕": 1460,
      "콧": 1461,
      "크": 1462,
      "키": 1463,
      "탄": 1464,
      "탓": 1465,
      "태": 1466,
      "탠": 1467,
      "터": 1468,
      "토": 1469,
      "통": 1470,
      "튜": 1471,
      "트": 1472,
      "티": 1473,
      "틴": 1474,
      "팅": 1475,
      "팝": 1476,
      "퍼": 1477,
      "펄": 1478,
      "평": 1479,
      "폰": 1480,
      "푸": 1481,
      "플": 1482,
      "픽": 1483,
      "하": 1484,
      "학": 1485,
      "한": 1486,
      "함": 1487,
      "항": 1488,
      "해": 1489,
      "햄": 1490,
      "혀": 1491,
      "현": 1492,
      "혜": 1493,
      "호": 1494,
      "홈": 1495,
      "홍": 1496,
      "화": 1497,
      "횊": 1498,
      "회": 1499,
      "횒": 1500,
      "횗": 1501,
      "횜": 1502,
      "후": 1503,
      "훈": 1504,
      "흐": 1505,
      "흥": 1506,
      "희": 1507,
      "︎": 1508,
      "️": 1509,
      "￼": 1510,
      "�": 1511,
      "𖢘": 1512,
      "🆕": 1513,
      "🇫": 1514,
      "🇰": 1515,
      "🇲": 1516,
      "🇳": 1517,
      "🇷": 1518,
      "🇸": 1519,
      "🇺": 1520,
      "🇽": 1521,
      "🌃": 1522,
      "🌄": 1523,
      "🌅": 1524,
      "🌈": 1525,
      "🌍": 1526,
      "🌐": 1527,
      "🌙": 1528,
      "🌟": 1529,
      "🌡": 1530,
      "🌱": 1531,
      "🌳": 1532,
      "🌸": 1533,
      "🌻": 1534,
      "🍀": 1535,
      "🍁": 1536,
      "🍇": 1537,
      "🍑": 1538,
      "🍞": 1539,
      "🍩": 1540,
      "🍯": 1541,
      "🍰": 1542,
      "🍱": 1543,
      "🍷": 1544,
      "🍹": 1545,
      "🍽": 1546,
      "🍾": 1547,
      "🎀": 1548,
      "🎁": 1549,
      "🎄": 1550,
      "🎧": 1551,
      "🎬": 1552,
      "🎯": 1553,
      "🎶": 1554,
      "🏆": 1555,
      "🏋": 1556,
      "🏠": 1557,
      "🏣": 1558,
      "🏦": 1559,
      "🏻": 1560,
      "🏼": 1561,
      "👀": 1562,
      "👉": 1563,
      "👍": 1564,
      "👎": 1565,
      "👏": 1566,
      "👐": 1567,
      "👑": 1568,
      "👦": 1569,
      "👧": 1570,
      "👨": 1571,
      "👩": 1572,
      "👷": 1573,
      "👽": 1574,
      "💀": 1575,
      "💁": 1576,
      "💃": 1577,
      "💅": 1578,
      "💉": 1579,
      "💋": 1580,
      "💎": 1581,
      "💐": 1582,
      "💔": 1583,
      "💕": 1584,
      "💙": 1585,
      "💚": 1586,
      "💜": 1587,
      "💝": 1588,
      "💡": 1589,
      "💢": 1590,
      "💥": 1591,
      "💩": 1592,
      "💪": 1593,
      "💫": 1594,
      "💯": 1595,
      "💰": 1596,
      "💵": 1597,
      "💸": 1598,
      "💻": 1599,
      "💼": 1600,
      "📁": 1601,
      "📅": 1602,
      "📌": 1603,
      "📍": 1604,
      "📎": 1605,
      "📕": 1606,
      "📖": 1607,
      "📞": 1608,
      "📣": 1609,
      "📦": 1610,
      "📱": 1611,
      "📲": 1612,
      "📷": 1613,
      "🔄": 1614,
      "🔅": 1615,
      "🔊": 1616,
      "🔌": 1617,
      "🔑": 1618,
      "🔥": 1619,
      "🔬": 1620,
      "🔰": 1621,
      "🔴": 1622,
      "🔵": 1623,
      "🔶": 1624,
      "🔸": 1625,
      "🔹": 1626,
      "🕑": 1627,
      "🕘": 1628,
      "🕯": 1629,
      "🖐": 1630,
      "🖤": 1631,
      "🗃": 1632,
      "🗓": 1633,
      "😀": 1634,
      "😁": 1635,
      "😂": 1636,
      "😃": 1637,
      "😄": 1638,
      "😅": 1639,
      "😆": 1640,
      "😇": 1641,
      "😈": 1642,
      "😉": 1643,
      "😊": 1644,
      "😋": 1645,
      "😍": 1646,
      "😎": 1647,
      "😐": 1648,
      "😑": 1649,
      "😓": 1650,
      "😔": 1651,
      "😘": 1652,
      "😛": 1653,
      "😜": 1654,
      "😝": 1655,
      "😡": 1656,
      "😢": 1657,
      "😥": 1658,
      "😦": 1659,
      "😩": 1660,
      "😫": 1661,
      "😭": 1662,
      "😮": 1663,
      "😰": 1664,
      "😱": 1665,
      "😲": 1666,
      "😶": 1667,
      "😷": 1668,
      "🙁": 1669,
      "🙂": 1670,
      "🙃": 1671,
      "🙆": 1672,
      "🙋": 1673,
      "🙌": 1674,
      "🙎": 1675,
      "🙏": 1676,
      "🚀": 1677,
      "🚗": 1678,
      "🚘": 1679,
      "🚩": 1680,
      "🚫": 1681,
      "🛍": 1682,
      "🛑": 1683,
      "🛒": 1684,
      "🛡": 1685,
      "🛫": 1686,
      "🤍": 1687,
      "🤑": 1688,
      "🤓": 1689,
      "🤔": 1690,
      "🤗": 1691,
      "🤘": 1692,
      "🤟": 1693,
      "🤡": 1694,
      "🤣": 1695,
      "🤩": 1696,
      "🤪": 1697,
      "🤫": 1698,
      "🤮": 1699,
      "🥄": 1700,
      "🥇": 1701,
      "🥰": 1702,
      "🥳": 1703,
      "🥺": 1704,
      "🦉": 1705,
      "🦊": 1706,
      "🦋": 1707,
      "🦸": 1708,
      "🧤": 1709,
      "🧨": 1710,
      "🧼": 1711,
      "##ж": 1712,
      "##к": 1713,
      "##й": 1714,
      "##б": 1715,
      "##а": 1716,
      "##з": 1717,
      "##л": 1718,
      "##и": 1719,
      "##г": 1720,
      "##в": 1721,
      "##ш": 1722,
      "##ө": 1723,
      "##d": 1724,
      "##l": 1725,
      "##у": 1726,
      "##д": 1727,
      "##ё": 1728,
      "##ю": 1729,
      "##м": 1730,
      "##o": 1731,
      "##н": 1732,
      "##т": 1733,
      "##о": 1734,
      "##е": 1735,
      "##x": 1736,
      "##с": 1737,
      "##э": 1738,
      "##х": 1739,
      "##h": 1740,
      "##a": 1741,
      "##r": 1742,
      "##п": 1743,
      "##u": 1744,
      "##y": 1745,
      "##g": 1746,
      "##ь": 1747,
      "##я": 1748,
      "##p": 1749,
      "##р": 1750,
      "##m": 1751,
      "##t": 1752,
      "##i": 1753,
      "##k": 1754,
      "##n": 1755,
      "##s": 1756,
      "##c": 1757,
      "##є": 1758,
      "##e": 1759,
      "##f": 1760,
      "##ү": 1761,
      "##ᠢ": 1762,
      "##ы": 1763,
      "##2": 1764,
      "##0": 1765,
      "##b": 1766,
      "##8": 1767,
      "##7": 1768,
      "##v": 1769,
      "##ц": 1770,
      "##😋": 1771,
      "##z": 1772,
      "##æ": 1773,
      "##ч": 1774,
      "##щ": 1775,
      "##6": 1776,
      "##9": 1777,
      "##3": 1778,
      "##_": 1779,
      "##q": 1780,
      "##5": 1781,
      "##ý": 1782,
      "##ま": 1783,
      "##す": 1784,
      "##4": 1785,
      "##ў": 1786,
      "##w": 1787,
      "##ф": 1788,
      "##ѳ": 1789,
      "##노": 1790,
      "##ї": 1791,
      "##ҥ": 1792,
      "##һ": 1793,
      "##ъ": 1794,
      "##け": 1795,
      "##る": 1796,
      "##モ": 1797,
      "##1": 1798,
      "##ᠮ": 1799,
      "##ᠫ": 1800,
      "##ᠦ": 1801,
      "##j": 1802,
      "##う": 1803,
      "##い": 1804,
      "##é": 1805,
      "##ằ": 1806,
      "##س": 1807,
      "##ا": 1808,
      "##ر": 1809,
      "##ة": 1810,
      "##á": 1811,
      "##ط": 1812,
      "##ҕ": 1813,
      "##\"": 1814,
      "##😍": 1815,
      "##ә": 1816,
      "##ü": 1817,
      "##っ": 1818,
      "##た": 1819,
      "##ど": 1820,
      "##ᅲ": 1821,
      "##қ": 1822,
      "##ə": 1823,
      "##.": 1824,
      "##️": 1825,
      "##⃣": 1826,
      "##ى": 1827,
      "##ي": 1828,
      "##ە": 1829,
      "##!": 1830,
      "##ᴀ": 1831,
      "##더": 1832,
      "##걸": 1833,
      "##ï": 1834,
      "##~": 1835,
      "##^": 1836,
      "##ん": 1837,
      "##ð": 1838,
      "##으": 1839,
      "##세": 1840,
      "##요": 1841,
      "##優": 1842,
      "##斗": 1843,
      "##際": 1844,
      "##経": 1845,
      "##ā": 1846,
      "##彩": 1847,
      "##号": 1848,
      "##码": 1849,
      "##յ": 1850,
      "##ո": 1851,
      "##文": 1852,
      "##키": 1853,
      "##렘": 1854,
      "##问": 1855,
      "##ه": 1856,
      "##د": 1857,
      "##ê": 1858,
      "##è": 1859,
      "##화": 1860,
      "##찡": 1861,
      "##긋": 1862,
      "##ë": 1863,
      "##à": 1864,
      "##$": 1865,
      "##í": 1866,
      "##ä": 1867,
      "##ö": 1868,
      "##•": 1869,
      "##本": 1870,
      "##和": 1871,
      "##音": 1872,
      "##,": 1873,
      "##ょ": 1874,
      "##ひ": 1875,
      "##🔥": 1876,
      "##し": 1877,
      "##夢": 1878,
      "##コ": 1879,
      "##ー": 1880,
      "##ド": 1881,
      "##时": 1882,
      "##平": 1883,
      "##台": 1884,
      "##ã": 1885,
      "##藏": 1886,
      "##族": 1887,
      "##ペ": 1888,
      "##ン": 1889,
      "##ђ": 1890,
      "##わ": 1891,
      "##غ": 1892,
      "##و": 1893,
      "##ل": 1894,
      "##ی": 1895,
      "##@": 1896,
      "##ش": 1897,
      "##م": 1898,
      "##ば": 1899,
      "##に": 1900,
      "##連": 1901,
      "##身": 1902,
      "##җ": 1903,
      "##で": 1904,
      "##よ": 1905,
      "##こ": 1906,
      "##か": 1907,
      "##≥": 1908,
      "##線": 1909,
      "##が": 1910,
      "##治": 1911,
      "##州": 1912,
      "##業": 1913,
      "##管": 1914,
      "##理": 1915,
      "##者": 1916,
      "##ن": 1917,
      "##南": 1918,
      "##어": 1919,
      "##려": 1920,
      "##御": 1921,
      "##学": 1922,
      "##妹": 1923,
      "##격": 1924,
      "##영": 1925,
      "##月": 1926,
      "##的": 1927,
      "##奇": 1928,
      "##迹": 1929,
      "##人": 1930,
      "##☞": 1931,
      "##あ": 1932,
      "##?": 1933,
      "##야": 1934,
      "##î": 1935,
      "##하": 1936,
      "##기": 1937,
      "##意": 1938,
      "##識": 1939,
      "##)": 1940,
      "##め": 1941,
      "##国": 1942,
      "##要": 1943,
      "##;": 1944,
      "##π": 1945,
      "##ό": 1946,
      "##🚘": 1947,
      "##̀": 1948,
      "##탠": 1949,
      "##토": 1950,
      "##리": 1951,
      "##칩": 1952,
      "##辺": 1953,
      "##祐": 1954,
      "##紀": 1955,
      "##れ": 1956,
      "##も": 1957,
      "##普": 1958,
      "##通": 1959,
      "##新": 1960,
      "##休": 1961,
      "##止": 1962,
      "##ち": 1963,
      "##😆": 1964,
      "###": 1965,
      "##û": 1966,
      "##›": 1967,
      "##ル": 1968,
      "##ハ": 1969,
      "##イ": 1970,
      "##동": 1971,
      "##차": 1972,
      "##չ": 1973,
      "##:": 1974,
      "##업": 1975,
      "##장": 1976,
      "##변": 1977,
      "##경": 1978,
      "##실": 1979,
      "##래": 1980,
      "##예": 1981,
      "##웆": 1982,
      "##주": 1983,
      "##°": 1984,
      "##下": 1985,
      "##载": 1986,
      "##ñ": 1987,
      "##✨": 1988,
      "##-": 1989,
      "##ј": 1990,
      "##성": 1991,
      "##ң": 1992,
      "##း": 1993,
      "##公": 1994,
      "##众": 1995,
      "##形": 1996,
      "##象": 1997,
      "##🤪": 1998,
      "##ì": 1999,
      "##ô": 2000,
      "##😊": 2001,
      "##🇽": 2002,
      "##な": 2003,
      "##ご": 2004,
      "##え": 2005,
      "##나": 2006,
      "##의": 2007,
      "##팅": 2008,
      "##ḥ": 2009,
      "##ґ": 2010,
      "##해": 2011,
      "##인": 2012,
      "##사": 2013,
      "##말": 2014,
      "##>": 2015,
      "##ら": 2016,
      "##|": 2017,
      "##ќ": 2018,
      "##湖": 2019,
      "##ӱ": 2020,
      "##ս": 2021,
      "##ɪ": 2022,
      "##ㄟ": 2023,
      "##]": 2024,
      "##{": 2025,
      "##恩": 2026,
      "##娱": 2027,
      "##乐": 2028,
      "##α": 2029,
      "##η": 2030,
      "##і": 2031,
      "##ゲ": 2032,
      "##ò": 2033,
      "##ư": 2034,
      "##だ": 2035,
      "##て": 2036,
      "##福": 2037,
      "##祉": 2038,
      "##法": 2039,
      "##′": 2040,
      "##ѐ": 2041,
      "##せ": 2042,
      "##き": 2043,
      "##り": 2044,
      "##ナ": 2045,
      "##դ": 2046,
      "##ր": 2047,
      "##<": 2048,
      "##逢": 2049,
      "##間": 2050,
      "##ş": 2051,
      "##―": 2052,
      "##펄": 2053,
      "##즈": 2054,
      "##설": 2055,
      "##류": 2056,
      "##査": 2057,
      "##証": 2058,
      "##비": 2059,
      "##🏻": 2060,
      "##☈": 2061,
      "##ø": 2062,
      "##/": 2063,
      "##と": 2064,
      "##親": 2065,
      "##ӓ": 2066,
      "##作": 2067,
      "##器": 2068,
      "##ћ": 2069,
      "##ó": 2070,
      "##の": 2071,
      "##は": 2072,
      "##ゃ": 2073,
      "##自": 2074,
      "##信": 2075,
      "##斯": 2076,
      "##泰": 2077,
      "##帮": 2078,
      "##我": 2079,
      "##ʟ": 2080,
      "##ı": 2081,
      "##청": 2082,
      "##υ": 2083,
      "##ς": 2084,
      "##糞": 2085,
      "##ľ": 2086,
      "##ि": 2087,
      "##ल": 2088,
      "##ㄨ": 2089,
      "##😱": 2090,
      "##側": 2091,
      "##%": 2092,
      "##*": 2093,
      "##ѕ": 2094,
      "##夜": 2095,
      "##を": 2096,
      "##=": 2097,
      "##±": 2098,
      "##ō": 2099,
      "##表": 2100,
      "##裏": 2101,
      "##響": 2102,
      "##楽": 2103,
      "##団": 2104,
      "##구": 2105,
      "##직": 2106,
      "##자": 2107,
      "##(": 2108,
      "##õ": 2109,
      "##호": 2110,
      "##や": 2111,
      "##џ": 2112,
      "##ː": 2113,
      "##진": 2114,
      "##법": 2115,
      "##무": 2116,
      "##창": 2117,
      "##電": 2118,
      "##話": 2119,
      "##機": 2120,
      "##â": 2121,
      "##ӄ": 2122,
      "##다": 2123,
      "##을": 2124,
      "##便": 2125,
      "##斥": 2126,
      "##责": 2127,
      "##'": 2128,
      "##█": 2129,
      "##♥": 2130,
      "##이": 2131,
      "##ذ": 2132,
      "##ہ": 2133,
      "##🙏": 2134,
      "##気": 2135,
      "##内": 2136,
      "##故": 2137,
      "##キ": 2138,
      "##ミ": 2139,
      "##つ": 2140,
      "##&": 2141,
      "##🤔": 2142,
      "##ղ": 2143,
      "##ա": 2144,
      "##ն": 2145,
      "##튜": 2146,
      "##브": 2147,
      "##정": 2148,
      "##א": 2149,
      "##西": 2150,
      "##路": 2151,
      "##是": 2152,
      "##等": 2153,
      "##ᄏ": 2154,
      "##명": 2155,
      "##과": 2156,
      "##학": 2157,
      "##生": 2158,
      "##💁": 2159,
      "##售": 2160,
      "##间": 2161,
      "##サ": 2162,
      "##会": 2163,
      "##発": 2164,
      "##한": 2165,
      "##는": 2166,
      "##지": 2167,
      "##☤": 2168,
      "##후": 2169,
      "##수": 2170,
      "##金": 2171,
      "##辉": 2172,
      "##林": 2173,
      "##ゆ": 2174,
      "##格": 2175,
      "##里": 2176,
      "##克": 2177,
      "##خ": 2178,
      "##ú": 2179,
      "##ʜ": 2180,
      "##ầ": 2181,
      "##르": 2182,
      "##식": 2183,
      "##命": 2184,
      "##昌": 2185,
      "##万": 2186,
      "##蒙": 2187,
      "##古": 2188,
      "##도": 2189,
      "##서": 2190,
      "##관": 2191,
      "##대": 2192,
      "##로": 2193,
      "##ք": 2194,
      "##ը": 2195,
      "##ē": 2196,
      "##ย": 2197,
      "##そ": 2198,
      "##红": 2199,
      "##华": 2200,
      "##계": 2201,
      "##올": 2202,
      "##ז": 2203,
      "##י": 2204,
      "##\\": 2205,
      "##훈": 2206,
      "##ぶ": 2207,
      "##ר": 2208,
      "##ט": 2209,
      "##+": 2210,
      "##엘": 2211,
      "##係": 2212,
      "##콕": 2213,
      "##크": 2214,
      "##국": 2215,
      "##부": 2216,
      "##터": 2217,
      "##一": 2218,
      "##水": 2219,
      "##品": 2220,
      "##ắ": 2221,
      "##💫": 2222,
      "##考": 2223,
      "##흐": 2224,
      "##部": 2225,
      "##적": 2226,
      "##뚝": 2227,
      "##배": 2228,
      "##ざ": 2229,
      "##보": 2230,
      "##😂": 2231,
      "##태": 2232,
      "##가": 2233,
      "##왔": 2234,
      "##€": 2235,
      "##安": 2236,
      "##현": 2237,
      "##숙": 2238,
      "##返": 2239,
      "##ᠰ": 2240,
      "##ᠶ": 2241,
      "##ک": 2242,
      "##ł": 2243,
      "##골": 2244,
      "##뉴": 2245,
      "##스": 2246,
      "##費": 2247,
      "##載": 2248,
      "##ẙ": 2249,
      "##μ": 2250,
      "##ӑ": 2251,
      "##勧": 2252,
      "##唱": 2253,
      "##ή": 2254,
      "##̇": 2255,
      "##😅": 2256,
      "##们": 2257,
      "##记": 2258,
      "##住": 2259,
      "##📌": 2260,
      "##ç": 2261,
      "##駅": 2262,
      "##个": 2263,
      "##忙": 2264,
      "##吗": 2265,
      "##저": 2266,
      "##트": 2267,
      "##际": 2268,
      "##ӈ": 2269,
      "##ė": 2270,
      "##상": 2271,
      "##아": 2272,
      "##ṇ": 2273,
      "##上": 2274,
      "##げ": 2275,
      "##ぐ": 2276,
      "##ろ": 2277,
      "##心": 2278,
      "##ᠳ": 2279,
      "##ᠡ": 2280,
      "##ᠨ": 2281,
      "##싼": 2282,
      "##ǎ": 2283,
      "##♚": 2284,
      "##時": 2285,
      "##ม": 2286,
      "##ห": 2287,
      "##น": 2288,
      "##ق": 2289,
      "##역": 2290,
      "##£": 2291,
      "##ᅵ": 2292,
      "##ת": 2293,
      "##은": 2294,
      "##ح": 2295,
      "##☮": 2296,
      "##ف": 2297,
      "##ÿ": 2298,
      "##夕": 2299,
      "##姿": 2300,
      "##曜": 2301,
      "##日": 2302,
      "##ӣ": 2303,
      "##←": 2304,
      "##ิ": 2305,
      "##ง": 2306,
      "##њ": 2307,
      "##ǿ": 2308,
      "##ᵴ": 2309,
      "##č": 2310,
      "##너": 2311,
      "##블": 2312,
      "##帝": 2313,
      "##录": 2314,
      "##地": 2315,
      "##址": 2316,
      "##ベ": 2317,
      "##կ": 2318,
      "##さ": 2319,
      "##ซ": 2320,
      "##ว": 2321,
      "##😭": 2322,
      "##照": 2323,
      "##ค": 2324,
      "##ニ": 2325,
      "##チ": 2326,
      "##ソ": 2327,
      "##ウ": 2328,
      "##유": 2329,
      "##}": 2330,
      "##行": 2331,
      "##企": 2332,
      "##ī": 2333,
      "##リ": 2334,
      "##민": 2335,
      "##권": 2336,
      "##社": 2337,
      "##任": 2338,
      "##译": 2339,
      "##θ": 2340,
      "##マ": 2341,
      "##フ": 2342,
      "##₮": 2343,
      "##팝": 2344,
      "##委": 2345,
      "##员": 2346,
      "##建": 2347,
      "##言": 2348,
      "##ἰ": 2349,
      "##δ": 2350,
      "##ί": 2351,
      "##체": 2352,
      "##都": 2353,
      "##召": 2354,
      "##見": 2355,
      "##ν": 2356,
      "##ο": 2357,
      "##洛": 2358,
      "##ジ": 2359,
      "##ョ": 2360,
      "##ガ": 2361,
      "##أ": 2362,
      "##ᅮ": 2363,
      "##루": 2364,
      "##룰": 2365,
      "##🏆": 2366,
      "##韬": 2367,
      "##ṅ": 2368,
      "##إ": 2369,
      "##書": 2370,
      "##類": 2371,
      "##ك": 2372,
      "##曲": 2373,
      "##名": 2374,
      "##称": 2375,
      "##宗": 2376,
      "##נ": 2377,
      "##叫": 2378,
      "##医": 2379,
      "##誌": 2380,
      "##小": 2381,
      "##画": 2382,
      "##册": 2383,
      "##λ": 2384,
      "##ε": 2385,
      "##ι": 2386,
      "##ώ": 2387,
      "##込": 2388,
      "##み": 2389,
      "##라": 2390,
      "##🇷": 2391,
      "##现": 2392,
      "##达": 2393,
      "##鑑": 2394,
      "##賞": 2395,
      "##끼": 2396,
      "##մ": 2397,
      "##×": 2398,
      "##픽": 2399,
      "##회": 2400,
      "##우": 2401,
      "##고": 2402,
      "##回": 2403,
      "##전": 2404,
      "##💉": 2405,
      "##☛": 2406,
      "##塑": 2407,
      "##悔": 2408,
      "##시": 2409,
      "##윤": 2410,
      "##离": 2411,
      "##线": 2412,
      "##语": 2413,
      "##տ": 2414,
      "##티": 2415,
      "##早": 2416,
      "##く": 2417,
      "##칫": 2418,
      "##ए": 2419,
      "##빈": 2420,
      "##랑": 2421,
      "##ế": 2422,
      "##초": 2423,
      "##코": 2424,
      "##릿": 2425,
      "##介": 2426,
      "##벼": 2427,
      "##ɵ": 2428,
      "##♛": 2429,
      "##제": 2430,
      "##미": 2431,
      "##昴": 2432,
      "##賃": 2433,
      "##貸": 2434,
      "##宅": 2435,
      "##还": 2436,
      "##型": 2437,
      "##健": 2438,
      "##康": 2439,
      "##ฟ": 2440,
      "##🇸": 2441,
      "##⠀": 2442,
      "##᠋": 2443,
      "##ᠤ": 2444,
      "##國": 2445,
      "##礦": 2446,
      "##վ": 2447,
      "##လ": 2448,
      "##庆": 2449,
      "##蘭": 2450,
      "##府": 2451,
      "##達": 2452,
      "##짱": 2453,
      "##蛋": 2454,
      "##푸": 2455,
      "##딩": 2456,
      "##며": 2457,
      "##读": 2458,
      "##ใ": 2459,
      "##จ": 2460,
      "##選": 2461,
      "##べ": 2462,
      "##网": 2463,
      "##τ": 2464,
      "##γ": 2465,
      "##ρ": 2466,
      "##→": 2467,
      "##气": 2468,
      "##字": 2469,
      "##改": 2470,
      "##夂": 2471,
      "##ゅ": 2472,
      "##じ": 2473,
      "##선": 2474,
      "##희": 2475,
      "##天": 2476,
      "##♪": 2477,
      "##♫": 2478,
      "##ب": 2479,
      "##린": 2480,
      "##답": 2481,
      "##江": 2482,
      "##ύ": 2483,
      "##엥": 2484,
      "##ਮ": 2485,
      "##ਸ": 2486,
      "##們": 2487,
      "##钱": 2488,
      "##站": 2489,
      "##午": 2490,
      "##別": 2491,
      "##給": 2492,
      "##付": 2493,
      "##ṭ": 2494,
      "##紇": 2495,
      "##ج": 2496,
      "##门": 2497,
      "##규": 2498,
      "##好": 2499,
      "##혜": 2500,
      "##원": 2501,
      "##🖤": 2502,
      "##ィ": 2503,
      "##士": 2504,
      "##京": 2505,
      "##슨": 2506,
      "##븐": 2507,
      "##틴": 2508,
      "##항": 2509,
      "##🥄": 2510,
      "##シ": 2511,
      "##ビ": 2512,
      "##讃": 2513,
      "##ᠠ": 2514,
      "##化": 2515,
      "##습": 2516,
      "##니": 2517,
      "##势": 2518,
      "##盘": 2519,
      "##点": 2520,
      "##ɑ": 2521,
      "##돈": 2522,
      "##ゴ": 2523,
      "##語": 2524,
      "##望": 2525,
      "##●": 2526,
      "##漏": 2527,
      "##洞": 2528,
      "##软": 2529,
      "##件": 2530,
      "##工": 2531,
      "##衛": 2532,
      "##星": 2533,
      "##러": 2534,
      "##ぬ": 2535,
      "##ờ": 2536,
      "##ᠭ": 2537,
      "##ᠵ": 2538,
      "##展": 2539,
      "##會": 2540,
      "##声": 2541,
      "##十": 2542,
      "##율": 2543,
      "##흥": 2544,
      "##ت": 2545,
      "##क": 2546,
      "##味": 2547,
      "##儿": 2548,
      "##没": 2549,
      "##有": 2550,
      "##내": 2551,
      "##문": 2552,
      "##매": 2553,
      "##를": 2554,
      "##ᴇ": 2555,
      "##ʀ": 2556,
      "##ʏ": 2557,
      "##ᵯ": 2558,
      "##ɇ": 2559,
      "##帯": 2560,
      "##臨": 2561,
      "##와": 2562,
      "##κ": 2563,
      "##ά": 2564,
      "##ҡ": 2565,
      "##暲": 2566,
      "##陝": 2567,
      "##燼": 2568,
      "##勖": 2569,
      "##먹": 2570,
      "##게": 2571,
      "##定": 2572,
      "##版": 2573,
      "##ᠷ": 2574,
      "##[": 2575,
      "##ษ": 2576,
      "##♦": 2577,
      "##ᠯ": 2578,
      "##💋": 2579,
      "##运": 2580,
      "##输": 2581,
      "##에": 2582,
      "##떻": 2583,
      "##짓": 2584,
      "##เ": 2585,
      "##ғ": 2586,
      "##動": 2587,
      "##車": 2588,
      "##用": 2589,
      "##용": 2590,
      "##ブ": 2591,
      "##ギ": 2592,
      "##굴": 2593,
      "##ו": 2594,
      "##ל": 2595,
      "##φ": 2596,
      "##연": 2597,
      "##计": 2598,
      "##划": 2599,
      "##ャ": 2600,
      "##胡": 2601,
      "##破": 2602,
      "##解": 2603,
      "##폰": 2604,
      "##밥": 2605,
      "##带": 2606,
      "##💚": 2607,
      "##ほ": 2608,
      "##諸": 2609,
      "##ɴ": 2610,
      "##ի": 2611,
      "##재": 2612,
      "##ต": 2613,
      "##า": 2614,
      "##พ": 2615,
      "##ล": 2616,
      "##🤣": 2617,
      "##眉": 2618,
      "##毛": 2619,
      "##₪": 2620,
      "##긱": 2621,
      "##面": 2622,
      "##田": 2623,
      "##ع": 2624,
      "##š": 2625,
      "##👐": 2626,
      "##代": 2627,
      "##元": 2628,
      "##云": 2629,
      "##횗": 2630,
      "##횊": 2631,
      "##플": 2632,
      "##랫": 2633,
      "##龙": 2634,
      "##פ": 2635,
      "##ע": 2636,
      "##阒": 2637,
      "##죻": 2638,
      "##송": 2639,
      "##통": 2640,
      "##拶": 2641,
      "##説": 2642,
      "##승": 2643,
      "##位": 2644,
      "##必": 2645,
      "##中": 2646,
      "##ص": 2647,
      "##怎": 2648,
      "##么": 2649,
      "##局": 2650,
      "##提": 2651,
      "##藤": 2652,
      "##留": 2653,
      "##美": 2654,
      "##子": 2655,
      "##楫": 2656,
      "##流": 2657,
      "##残": 2658,
      "##ี": 2659,
      "##่": 2660,
      "##į": 2661,
      "##★": 2662,
      "##ß": 2663,
      "##զ": 2664,
      "##ւ": 2665,
      "##😁": 2666,
      "##包": 2667,
      "##僕": 2668,
      "##憎": 2669,
      "##채": 2670,
      "##商": 2671,
      "##場": 2672,
      "##안": 2673,
      "##玉": 2674,
      "##良": 2675,
      "##ե": 2676,
      "##ұ": 2677,
      "##ض": 2678,
      "##อ": 2679,
      "##ส": 2680,
      "##аа": 2681,
      "##ай": 2682,
      "##ээ": 2683,
      "##ий": 2684,
      "##ар": 2685,
      "##ан": 2686,
      "ий": 2687,
      "##ол": 2688,
      "##эг": 2689,
      "##аг": 2690,
      "ай": 2691,
      "##эр": 2692,
      "##үү": 2693,
      "##уу": 2694,
      "##үй": 2695,
      "##эн": 2696,
      "##ал": 2697,
      "ийн": 2698,
      "бай": 2699,
      "бол": 2700,
      "нь": 2701,
      "##эл": 2702,
      "гэ": 2703,
      "##он": 2704,
      "##на": 2705,
      "хү": 2706,
      "##ин": 2707,
      "##оо": 2708,
      "##ил": 2709,
      "уу": 2710,
      "##өр": 2711,
      "эн": 2712,
      "аа": 2713,
      "гүй": 2714,
      "ол": 2715,
      "##эд": 2716,
      "үү": 2717,
      "##өө": 2718,
      "##гаа": 2719,
      "би": 2720,
      "##га": 2721,
      "ал": 2722,
      "ын": 2723,
      "байна": 2724,
      "ор": 2725,
      "ха": 2726,
      "эр": 2727,
      "##ад": 2728,
      "##эй": 2729,
      "ар": 2730,
      "ан": 2731,
      "##ах": 2732,
      "юм": 2733,
      "##ийн": 2734,
      "сан": 2735,
      "##өн": 2736,
      "ул": 2737,
      "ийг": 2738,
      "аж": 2739,
      "энэ": 2740,
      "ээ": 2741,
      "ах": 2742,
      "он": 2743,
      "##ээр": 2744,
      "##гэ": 2745,
      "##ой": 2746,
      "та": 2747,
      "##сан": 2748,
      "##ын": 2749,
      "ам": 2750,
      "ав": 2751,
      "бү": 2752,
      "эх": 2753,
      "тэй": 2754,
      "айгаа": 2755,
      "тай": 2756,
      "ху": 2757,
      "##ог": 2758,
      "хэр": 2759,
      "гэж": 2760,
      "##ох": 2761,
      "хүн": 2762,
      "##эх": 2763,
      "хо": 2764,
      "ту": 2765,
      "ний": 2766,
      "##чи": 2767,
      "хар": 2768,
      "нэг": 2769,
      "эд": 2770,
      "ыг": 2771,
      "гар": 2772,
      "өөр": 2773,
      "##уул": 2774,
      "өр": 2775,
      "##ам": 2776,
      "##аар": 2777,
      "##иг": 2778,
      "##эм": 2779,
      "өг": 2780,
      "##го": 2781,
      "лт": 2782,
      "##од": 2783,
      "##өл": 2784,
      "хий": 2785,
      "##ур": 2786,
      "ба": 2787,
      "ур": 2788,
      "мэд": 2789,
      "уул": 2790,
      "эл": 2791,
      "хэрэг": 2792,
      "ир": 2793,
      "##ор": 2794,
      "##гүй": 2795,
      "ас": 2796,
      "гд": 2797,
      "##ний": 2798,
      "байх": 2799,
      "##сэн": 2800,
      "##үүл": 2801,
      "ажил": 2802,
      "ээр": 2803,
      "сон": 2804,
      "га": 2805,
      "##даг": 2806,
      "##йл": 2807,
      "дээ": 2808,
      "аар": 2809,
      "айсан": 2810,
      "сай": 2811,
      "даг": 2812,
      "үн": 2813,
      "##ом": 2814,
      "өн": 2815,
      "нд": 2816,
      "ны": 2817,
      "бу": 2818,
      "ил": 2819,
      "##ьд": 2820,
      "яв": 2821,
      "их": 2822,
      "сэн": 2823,
      "##ыг": 2824,
      "##өг": 2825,
      "##ла": 2826,
      "##той": 2827,
      "тэр": 2828,
      "чи": 2829,
      "од": 2830,
      "ма": 2831,
      "##но": 2832,
      "эм": 2833,
      "хэл": 2834,
      "##гу": 2835,
      "эг": 2836,
      "аас": 2837,
      "на": 2838,
      "ад": 2839,
      "##ир": 2840,
      "даа": 2841,
      "хам": 2842,
      "жил": 2843,
      "лаг": 2844,
      "үз": 2845,
      "аг": 2846,
      "ууд": 2847,
      "##ээд": 2848,
      "үр": 2849,
      "хэ": 2850,
      "ид": 2851,
      "ер": 2852,
      "тан": 2853,
      "хө": 2854,
      "ох": 2855,
      "##тгэ": 2856,
      "мин": 2857,
      "улс": 2858,
      "дар": 2859,
      "дээр": 2860,
      "##ууд": 2861,
      "гаа": 2862,
      "бод": 2863,
      "өм": 2864,
      "да": 2865,
      "##дэг": 2866,
      "##өх": 2867,
      "үйл": 2868,
      "уд": 2869,
      "дэг": 2870,
      "##лэ": 2871,
      "зүй": 2872,
      "йн": 2873,
      "онг": 2874,
      "ээс": 2875,
      "болно": 2876,
      "үе": 2877,
      "юу": 2878,
      "өд": 2879,
      "##өв": 2880,
      "бид": 2881,
      "онгол": 2882,
      "##ны": 2883,
      "цаг": 2884,
      "айдаг": 2885,
      "вэ": 2886,
      "мж": 2887,
      "лг": 2888,
      "ям": 2889,
      "хан": 2890,
      "##гө": 2891,
      "шүү": 2892,
      "боло": 2893,
      "чад": 2894,
      "өв": 2895,
      "олон": 2896,
      "##жи": 2897,
      "зүйл": 2898,
      "хув": 2899,
      "ин": 2900,
      "##эв": 2901,
      "асуу": 2902,
      "##сон": 2903,
      "ямар": 2904,
      "мөн": 2905,
      "са": 2906,
      "гэсэн": 2907,
      "##мүү": 2908,
      "##им": 2909,
      "##ха": 2910,
      "болох": 2911,
      "##хай": 2912,
      "##та": 2913,
      "бүр": 2914,
      "хүр": 2915,
      "хүү": 2916,
      "##аан": 2917,
      "эс": 2918,
      "үг": 2919,
      "##ийг": 2920,
      "су": 2921,
      "бүх": 2922,
      "үүд": 2923,
      "өө": 2924,
      "үл": 2925,
      "лд": 2926,
      "хүмүү": 2927,
      "яр": 2928,
      "одоо": 2929,
      "эрх": 2930,
      "хэм": 2931,
      "газ": 2932,
      "##тг": 2933,
      "дал": 2934,
      "..": 2935,
      "гэр": 2936,
      "сар": 2937,
      "##ёр": 2938,
      "ог": 2939,
      "...": 2940,
      "##нө": 2941,
      "оо": 2942,
      "ёс": 2943,
      "түү": 2944,
      "маш": 2945,
      "амьд": 2946,
      "##сэ": 2947,
      "##да": 2948,
      "##иу": 2949,
      "хамг": 2950,
      "аш": 2951,
      "##ээс": 2952,
      "нэ": 2953,
      "үүл": 2954,
      "нийг": 2955,
      "##оор": 2956,
      "хэн": 2957,
      "за": 2958,
      "хоёр": 2959,
      "биш": 2960,
      "аан": 2961,
      "баг": 2962,
      "нар": 2963,
      "##дал": 2964,
      "##гал": 2965,
      "ду": 2966,
      "бар": 2967,
      "нг": 2968,
      "##тай": 2969,
      "шин": 2970,
      "сайн": 2971,
      "чин": 2972,
      "тий": 2973,
      "үнэ": 2974,
      "ажилл": 2975,
      "аад": 2976,
      "##аас": 2977,
      "то": 2978,
      "сэ": 2979,
      "өл": 2980,
      "мэдээ": 2981,
      "тийм": 2982,
      "ийм": 2983,
      "гч": 2984,
      "##дэ": 2985,
      "дараа": 2986,
      "ши": 2987,
      "айгу": 2988,
      "ман": 2989,
      "шиг": 2990,
      "жи": 2991,
      "энд": 2992,
      "##ло": 2993,
      "гэдэг": 2994,
      "чих": 2995,
      "зар": 2996,
      "гийн": 2997,
      "##вэл": 2998,
      "тэд": 2999,
      "##лаа": 3000,
      "суу": 3001,
      "өөрий": 3002,
      "миний": 3003,
      "олсон": 3004,
      "болон": 3005,
      "##энд": 3006,
      "өмнө": 3007,
      "сур": 3008,
      "ая": 3009,
      "дү": 3010,
      "харин": 3011,
      "##охи": 3012,
      "бус": 3013,
      "но": 3014,
      "анх": 3015,
      "##өлөө": 3016,
      "дах": 3017,
      "гээр": 3018,
      "##их": 3019,
      "##нд": 3020,
      "ээд": 3021,
      "жээ": 3022,
      "лаа": 3023,
      "тус": 3024,
      "##хан": 3025,
      "тав": 3026,
      "дуу": 3027,
      "нэр": 3028,
      "##дээ": 3029,
      "##хий": 3030,
      "##ер": 3031,
      "гэх": 3032,
      "нас": 3033,
      "ус": 3034,
      "##лаг": 3035,
      "##тэй": 3036,
      "лага": 3037,
      "хүүх": 3038,
      "рх": 3039,
      "лээ": 3040,
      "дог": 3041,
      "хийх": 3042,
      "хүс": 3043,
      "##үүд": 3044,
      "ашиг": 3045,
      "үүний": 3046,
      "бая": 3047,
      "лэг": 3048,
      "тог": 3049,
      "нам": 3050,
      "хол": 3051,
      "эв": 3052,
      "##дв": 3053,
      "тул": 3054,
      "ёстой": 3055,
      "өнөө": 3056,
      "төр": 3057,
      "айр": 3058,
      "сөн": 3059,
      "##энэ": 3060,
      "хя": 3061,
      "##жэ": 3062,
      "бас": 3063,
      "дэ": 3064,
      "лөг": 3065,
      "амьдр": 3066,
      "алт": 3067,
      "өдөр": 3068,
      "##бар": 3069,
      "##дл": 3070,
      "байж": 3071,
      "##гац": 3072,
      "##юу": 3073,
      "зөв": 3074,
      "манай": 3075,
      "ун": 3076,
      "##бо": 3077,
      "чинь": 3078,
      "хи": 3079,
      "лэ": 3080,
      "##аад": 3081,
      "сн": 3082,
      "со": 3083,
      "хугац": 3084,
      "ший": 3085,
      "сэтгэ": 3086,
      "үед": 3087,
      "илүү": 3088,
      "болж": 3089,
      "авах": 3090,
      "анд": 3091,
      "том": 3092,
      "##чин": 3093,
      "онд": 3094,
      "тухай": 3095,
      "бат": 3096,
      "алб": 3097,
      "ат": 3098,
      "ша": 3099,
      "хүүхд": 3100,
      "ич": 3101,
      "ээл": 3102,
      "шинэ": 3103,
      "ну": 3104,
      "##ва": 3105,
      "алаар": 3106,
      "##са": 3107,
      "ган": 3108,
      "орон": 3109,
      "##ис": 3110,
      "эж": 3111,
      "газар": 3112,
      "##тэл": 3113,
      "өгөө": 3114,
      "оны": 3115,
      "хэмжэ": 3116,
      "##аж": 3117,
      "той": 3118,
      "холбо": 3119,
      "баяр": 3120,
      "гээд": 3121,
      "таны": 3122,
      "тал": 3123,
      "ирг": 3124,
      "шаар": 3125,
      "до": 3126,
      "агаа": 3127,
      "болго": 3128,
      "##тээ": 3129,
      "ги": 3130,
      "най": 3131,
      "шаард": 3132,
      "лэл": 3133,
      "чл": 3134,
      "гарга": 3135,
      "өнг": 3136,
      "##алт": 3137,
      "өс": 3138,
      "##ро": 3139,
      "хувьд": 3140,
      "тү": 3141,
      "хийж": 3142,
      "тод": 3143,
      "үс": 3144,
      "нийт": 3145,
      "рч": 3146,
      "##гэл": 3147,
      "хүний": 3148,
      "##ра": 3149,
      "##үүр": 3150,
      "нөх": 3151,
      "нх": 3152,
      "ойл": 3153,
      "шал": 3154,
      "ой": 3155,
      "буй": 3156,
      "##чир": 3157,
      "гөө": 3158,
      "арга": 3159,
      "гэд": 3160,
      "удаа": 3161,
      "##илц": 3162,
      "сары": 3163,
      "өх": 3164,
      "##вар": 3165,
      "авч": 3166,
      "ерөн": 3167,
      "ерөнх": 3168,
      "дур": 3169,
      "өгөөд": 3170,
      "лгээ": 3171,
      "эхдээ": 3172,
      "оор": 3173,
      "ашигл": 3174,
      "мжтой": 3175,
      "ажл": 3176,
      "дл": 3177,
      "гэдг": 3178,
      "уг": 3179,
      "нээс": 3180,
      "##уй": 3181,
      "##агд": 3182,
      "##охио": 3183,
      "ойлго": 3184,
      "лл": 3185,
      "ком": 3186,
      "оруул": 3187,
      "ааг": 3188,
      "##оод": 3189,
      "##гд": 3190,
      "##жээ": 3191,
      "зур": 3192,
      "##вч": 3193,
      "бага": 3194,
      "##вал": 3195,
      "лог": 3196,
      "сайха": 3197,
      "ла": 3198,
      "ард": 3199,
      "йл": 3200,
      "йр": 3201,
      "үүх": 3202,
      "минь": 3203,
      "рал": 3204,
      "##ик": 3205,
      "лс": 3206,
      "##иа": 3207,
      "сонго": 3208,
      "чадах": 3209,
      "алд": 3210,
      "##хэ": 3211,
      "өнгөр": 3212,
      "мөнгө": 3213,
      "зо": 3214,
      "бий": 3215,
      "нэгэн": 3216,
      "айх": 3217,
      "хаа": 3218,
      "##цэ": 3219,
      "от": 3220,
      "##ши": 3221,
      "##ги": 3222,
      "дөр": 3223,
      "зарим": 3224,
      "идний": 3225,
      "сү": 3226,
      "орол": 3227,
      "комп": 3228,
      "газр": 3229,
      "бил": 3230,
      "зор": 3231,
      "огт": 3232,
      "гаар": 3233,
      "өгс": 3234,
      "бэ": 3235,
      "ст": 3236,
      "лагаа": 3237,
      "##шүү": 3238,
      "иргэд": 3239,
      "учир": 3240,
      "##нэ": 3241,
      "яг": 3242,
      "санал": 3243,
      "над": 3244,
      "хэмээ": 3245,
      "тогло": 3246,
      "улсын": 3247,
      "хай": 3248,
      "лж": 3249,
      "аз": 3250,
      "ингэ": 3251,
      "эсвэл": 3252,
      "өрийн": 3253,
      "ял": 3254,
      "ца": 3255,
      "сана": 3256,
      "хэс": 3257,
      "эмэг": 3258,
      "агаад": 3259,
      "чу": 3260,
      "йг": 3261,
      "тодо": 3262,
      "руу": 3263,
      "##лө": 3264,
      "##хөн": 3265,
      "##ээл": 3266,
      "зал": 3267,
      "гишүү": 3268,
      "эдэн": 3269,
      "хуул": 3270,
      "оног": 3271,
      "тоо": 3272,
      "ганц": 3273,
      "ут": 3274,
      "хүнд": 3275,
      "нэм": 3276,
      "##ээн": 3277,
      "тө": 3278,
      "рхой": 3279,
      "##хи": 3280,
      "билээ": 3281,
      "мэдэх": 3282,
      "маг": 3283,
      "лхий": 3284,
      "лал": 3285,
      "өнд": 3286,
      "ие": 3287,
      "##чих": 3288,
      "айлаа": 3289,
      "ух": 3290,
      "айл": 3291,
      "##ос": 3292,
      "ярь": 3293,
      "санаа": 3294,
      "ме": 3295,
      "дав": 3296,
      "олд": 3297,
      "төлөө": 3298,
      "10": 3299,
      "лөгч": 3300,
      "аагүй": 3301,
      "уч": 3302,
      "гай": 3303,
      "үүр": 3304,
      "эхэл": 3305,
      "хууль": 3306,
      "үх": 3307,
      "агч": 3308,
      "др": 3309,
      "го": 3310,
      "дарга": 3311,
      "гол": 3312,
      "гээ": 3313,
      "бүгд": 3314,
      "доо": 3315,
      "болов": 3316,
      "тулд": 3317,
      "рг": 3318,
      "дэх": 3319,
      "##амж": 3320,
      "##уун": 3321,
      "айдал": 3322,
      "##уур": 3323,
      "##лоо": 3324,
      "тэг": 3325,
      "ртэл": 3326,
      "хэрхэ": 3327,
      "үүхэд": 3328,
      "ув": 3329,
      "өвхөн": 3330,
      "аль": 3331,
      "бусад": 3332,
      "ээж": 3333,
      "хор": 3334,
      "ном": 3335,
      "##ли": 3336,
      "аанд": 3337,
      "шу": 3338,
      "сүүл": 3339,
      "оролц": 3340,
      "мэ": 3341,
      "##ас": 3342,
      "##ээж": 3343,
      "эхл": 3344,
      "дэм": 3345,
      "хэв": 3346,
      "албан": 3347,
      "##ож": 3348,
      "надад": 3349,
      "маан": 3350,
      "урхан": 3351,
      "дахь": 3352,
      "эрг": 3353,
      "уллаг": 3354,
      "охи": 3355,
      "маань": 3356,
      "байдл": 3357,
      "өөс": 3358,
      "тохио": 3359,
      "ээг": 3360,
      "##эргэ": 3361,
      "дахин": 3362,
      "ос": 3363,
      "эгээд": 3364,
      "эз": 3365,
      "учр": 3366,
      "##оос": 3367,
      "гур": 3368,
      "үйлдв": 3369,
      "өөрөө": 3370,
      "оос": 3371,
      "залуу": 3372,
      "наас": 3373,
      "##ав": 3374,
      "бэл": 3375,
      "хой": 3376,
      "##то": 3377,
      "машин": 3378,
      "гу": 3379,
      "##хайн": 3380,
      "мө": 3381,
      "лийн": 3382,
      "##элт": 3383,
      "##ино": 3384,
      "ирсэн": 3385,
      "далда": 3386,
      "##лэг": 3387,
      "нир": 3388,
      "дол": 3389,
      "ана": 3390,
      "үндэ": 3391,
      "үй": 3392,
      "хамт": 3393,
      "рд": 3394,
      "сургу": 3395,
      "нц": 3396,
      "мгаа": 3397,
      "агд": 3398,
      "лсан": 3399,
      "үзүүл": 3400,
      "мгаал": 3401,
      "гэнэ": 3402,
      "нирх": 3403,
      "үргэл": 3404,
      "итгэ": 3405,
      "лоо": 3406,
      "##тэ": 3407,
      "сонс": 3408,
      "чух": 3409,
      "чухал": 3410,
      "тэм": 3411,
      "дугаа": 3412,
      "тур": 3413,
      "из": 3414,
      "сол": 3415,
      "аараа": 3416,
      "##тад": 3417,
      "цу": 3418,
      "хэд": 3419,
      "чууд": 3420,
      "анхаа": 3421,
      "хятад": 3422,
      "##эрг": 3423,
      "зах": 3424,
      "мөр": 3425,
      "дунд": 3426,
      "ли": 3427,
      "##чид": 3428,
      "магад": 3429,
      "##нга": 3430,
      "хөд": 3431,
      "шийдв": 3432,
      "гад": 3433,
      "жүүл": 3434,
      "чиг": 3435,
      "те": 3436,
      "хот": 3437,
      "эрлэ": 3438,
      "үндэс": 3439,
      "ханд": 3440,
      "ажлын": 3441,
      "##не": 3442,
      "му": 3443,
      "бие": 3444,
      "ирэх": 3445,
      "##эж": 3446,
      "ри": 3447,
      "хувь": 3448,
      "ач": 3449,
      "чүүд": 3450,
      "тэн": 3451,
      "олг": 3452,
      "дг": 3453,
      "хийсэ": 3454,
      "хөг": 3455,
      "өндөр": 3456,
      "бари": 3457,
      "ээрээ": 3458,
      "дот": 3459,
      "хойш": 3460,
      "лб": 3461,
      "биз": 3462,
      "зас": 3463,
      "авсан": 3464,
      "##тр": 3465,
      "ханга": 3466,
      "олох": 3467,
      "ви": 3468,
      "сайд": 3469,
      "##зээ": 3470,
      "орж": 3471,
      "уур": 3472,
      "яаж": 3473,
      "дор": 3474,
      "хэсэг": 3475,
      "хээр": 3476,
      "хэзээ": 3477,
      "ахад": 3478,
      "чан": 3479,
      "жл": 3480,
      "хамаа": 3481,
      "өлөв": 3482,
      "оод": 3483,
      "хэрэв": 3484,
      "уих": 3485,
      "лбар": 3486,
      "үч": 3487,
      "мэт": 3488,
      "##ьц": 3489,
      "хариу": 3490,
      "хүргэ": 3491,
      "##гай": 3492,
      "амжи": 3493,
      "уулз": 3494,
      "айм": 3495,
      "эрүүл": 3496,
      "гарч": 3497,
      "байв": 3498,
      "өлб": 3499,
      "ом": 3500,
      "өлбөр": 3501,
      "##өлт": 3502,
      "аав": 3503,
      "ану": 3504,
      "өрс": 3505,
      "ов": 3506,
      "гал": 3507,
      "##лээ": 3508,
      "зам": 3509,
      "ээгүй": 3510,
      "ож": 3511,
      "бодож": 3512,
      "рөн": 3513,
      "онго": 3514,
      "өгөх": 3515,
      "##аал": 3516,
      "сая": 3517,
      "үгээр": 3518,
      "##чл": 3519,
      "лтай": 3520,
      "үнд": 3521,
      "бур": 3522,
      "хээ": 3523,
      "ани": 3524,
      "лан": 3525,
      "гоор": 3526,
      "##ирд": 3527,
      "ули": 3528,
      "олом": 3529,
      "хон": 3530,
      "бүтээ": 3531,
      "уули": 3532,
      "##имт": 3533,
      "##жиг": 3534,
      "нүүр": 3535,
      "эрэг": 3536,
      "дуус": 3537,
      "хур": 3538,
      "огтоо": 3539,
      "оломж": 3540,
      "нууд": 3541,
      "үйлчи": 3542,
      "эдний": 3543,
      "эрээр": 3544,
      "цаа": 3545,
      "мал": 3546,
      "муу": 3547,
      "явуул": 3548,
      "шийд": 3549,
      "олж": 3550,
      "оло": 3551,
      "зураг": 3552,
      "аат": 3553,
      "тгэ": 3554,
      "амьда": 3555,
      "кино": 3556,
      "амь": 3557,
      "шалга": 3558,
      "цэ": 3559,
      "##чим": 3560,
      "энх": 3561,
      "танд": 3562,
      "чам": 3563,
      "турш": 3564,
      "чанар": 3565,
      "##цоо": 3566,
      "зу": 3567,
      "олго": 3568,
      "ухайн": 3569,
      "##лог": 3570,
      "өрө": 3571,
      "тавь": 3572,
      "орос": 3573,
      "ян": 3574,
      "яах": 3575,
      "##гээ": 3576,
      "намай": 3577,
      "дүр": 3578,
      "хайр": 3579,
      "арил": 3580,
      "айхад": 3581,
      "өдр": 3582,
      "олб": 3583,
      "охоор": 3584,
      "мар": 3585,
      "удирд": 3586,
      "өрөө": 3587,
      "##цө": 3588,
      "лтэй": 3589,
      "лдол": 3590,
      "охин": 3591,
      "нэмэ": 3592,
      "нөлөө": 3593,
      "дөө": 3594,
      "хэлж": 3595,
      "угаа": 3596,
      "явж": 3597,
      "оюу": 3598,
      "##те": 3599,
      "ргал": 3600,
      "эргэ": 3601,
      "лч": 3602,
      "гү": 3603,
      "нөө": 3604,
      "отой": 3605,
      "ингэж": 3606,
      "унш": 3607,
      "мо": 3608,
      "зориу": 3609,
      "үгүй": 3610,
      "дэхүү": 3611,
      "лэх": 3612,
      "засг": 3613,
      "эгч": 3614,
      "эц": 3615,
      "вал": 3616,
      "зай": 3617,
      "адил": 3618,
      "дэв": 3619,
      "элхий": 3620,
      "суур": 3621,
      "##шин": 3622,
      "хөдөл": 3623,
      "шалтг": 3624,
      "асг": 3625,
      "төв": 3626,
      "алга": 3627,
      "ес": 3628,
      "мэргэ": 3629,
      "анги": 3630,
      "рил": 3631,
      "гэтэл": 3632,
      "ье": 3633,
      "аримт": 3634,
      "илэр": 3635,
      "тээ": 3636,
      "газры": 3637,
      "найз": 3638,
      "мэнд": 3639,
      "иг": 3640,
      "эмдэг": 3641,
      "##таг": 3642,
      "##сд": 3643,
      "олдог": 3644,
      "##тер": 3645,
      "буруу": 3646,
      "сонгу": 3647,
      "өвш": 3648,
      "төрл": 3649,
      "олоод": 3650,
      "##нес": 3651,
      "лсын": 3652,
      "рах": 3653,
      "длыг": 3654,
      "дын": 3655,
      "анилц": 3656,
      "ргаа": 3657,
      "##охир": 3658,
      "цо": 3659,
      "явах": 3660,
      "өвшө": 3661,
      "үтээ": 3662,
      "нү": 3663,
      "анг": 3664,
      "гоо": 3665,
      "изнес": 3666,
      "дотор": 3667,
      "##ит": 3668,
      "нуу": 3669,
      "үүс": 3670,
      "нөхцө": 3671,
      "рөнгө": 3672,
      "##on": 3673,
      "үнэн": 3674,
      "##гэр": 3675,
      "мэдэ": 3676,
      "ирж": 3677,
      "##луу": 3678,
      "вэл": 3679,
      "хийл": 3680,
      "аатар": 3681,
      "өөрсд": 3682,
      "аюу": 3683,
      "бүрэн": 3684,
      "судал": 3685,
      "үсгүй": 3686,
      "үлээн": 3687,
      "аюул": 3688,
      "риу": 3689,
      "арай": 3690,
      "элэл": 3691,
      "урд": 3692,
      "элэлц": 3693,
      "гурва": 3694,
      "се": 3695,
      "олгон": 3696,
      "эгвэл": 3697,
      "аарай": 3698,
      "хэлэх": 3699,
      "сл": 3700,
      "асан": 3701,
      "асаг": 3702,
      "лэгч": 3703,
      "эдийн": 3704,
      "эний": 3705,
      "үм": 3706,
      "харж": 3707,
      "##яа": 3708,
      "##ван": 3709,
      "##ут": 3710,
      "өгсөн": 3711,
      "ев": 3712,
      "айвал": 3713,
      "мя": 3714,
      "жиш": 3715,
      "үеийн": 3716,
      "араа": 3717,
      "итг": 3718,
      "##ar": 3719,
      "##цаа": 3720,
      "охион": 3721,
      "яри": 3722,
      "хоор": 3723,
      "жуул": 3724,
      "үтээг": 3725,
      "буюу": 3726,
      "төн": 3727,
      "мт": 3728,
      "үлд": 3729,
      "про": 3730,
      "хүрээ": 3731,
      "гарах": 3732,
      "өхө": 3733,
      "төс": 3734,
      "дуул": 3735,
      "жишээ": 3736,
      "гр": 3737,
      "лөгөө": 3738,
      "рш": 3739,
      "ни": 3740,
      "##жл": 3741,
      "гэвч": 3742,
      "эхэд": 3743,
      "эдээж": 3744,
      "тэ": 3745,
      "цааш": 3746,
      "лэн": 3747,
      "долоо": 3748,
      "маар": 3749,
      "амар": 3750,
      "нөг": 3751,
      "гаруй": 3752,
      "тэгэх": 3753,
      "орох": 3754,
      "хоол": 3755,
      "ухаан": 3756,
      "##чиж": 3757,
      "нутаг": 3758,
      "бүү": 3759,
      "нөгөө": 3760,
      "нутг": 3761,
      "##in": 3762,
      "зэр": 3763,
      "ойр": 3764,
      "##нт": 3765,
      "лын": 3766,
      "оч": 3767,
      "ичээл": 3768,
      "эрв": 3769,
      "зэрэг": 3770,
      "нхөө": 3771,
      "адаг": 3772,
      "оллоо": 3773,
      "даад": 3774,
      "хүлээ": 3775,
      "хооро": 3776,
      "жа": 3777,
      "не": 3778,
      "түүх": 3779,
      "уудыг": 3780,
      "үндсэ": 3781,
      "зохи": 3782,
      "гаан": 3783,
      "хэт": 3784,
      "##энх": 3785,
      "улсад": 3786,
      "ихэнх": 3787,
      "тат": 3788,
      "mn": 3789,
      "бээр": 3790,
      "тн": 3791,
      "анк": 3792,
      "ярилц": 3793,
      "уль": 3794,
      "арла": 3795,
      "минут": 3796,
      "нирхо": 3797,
      "олбоо": 3798,
      "20": 3799,
      "##мж": 3800,
      "олжээ": 3801,
      "сп": 3802,
      "мянга": 3803,
      "оловч": 3804,
      "олтой": 3805,
      "##an": 3806,
      "вс": 3807,
      "дэмж": 3808,
      "явдал": 3809,
      "##хаа": 3810,
      "йлбар": 3811,
      "цэв": 3812,
      "er": 3813,
      "гэвэл": 3814,
      "чадва": 3815,
      "лө": 3816,
      "рүү": 3817,
      "дүн": 3818,
      "##ца": 3819,
      "##or": 3820,
      "глоо": 3821,
      "нэх": 3822,
      "аасаа": 3823,
      "глоом": 3824,
      "тга": 3825,
      "дамж": 3826,
      "төл": 3827,
      "##нөх": 3828,
      "хэц": 3829,
      "өмнөх": 3830,
      "гэм": 3831,
      "зөвлө": 3832,
      "##дө": 3833,
      "ле": 3834,
      "сал": 3835,
      "өөд": 3836,
      "гэл": 3837,
      "эрвээ": 3838,
      "батал": 3839,
      "хөл": 3840,
      "##даа": 3841,
      "уш": 3842,
      "авна": 3843,
      "сард": 3844,
      "тогт": 3845,
      "шууд": 3846,
      "өгч": 3847,
      "тави": 3848,
      "барь": 3849,
      "үзэх": 3850,
      "хөт": 3851,
      "өгл": 3852,
      "сийн": 3853,
      "сайт": 3854,
      "ярьж": 3855,
      "хэцүү": 3856,
      "рл": 3857,
      "##уулг": 3858,
      "in": 3859,
      "гчид": 3860,
      "члөлт": 3861,
      "ре": 3862,
      "эмч": 3863,
      "нгээд": 3864,
      "ъя": 3865,
      "хгүй": 3866,
      "гдсэн": 3867,
      "мер": 3868,
      "эргүү": 3869,
      "эрч": 3870,
      "өглөө": 3871,
      "хний": 3872,
      "лах": 3873,
      "дагуу": 3874,
      "ран": 3875,
      "өрсөн": 3876,
      "агвар": 3877,
      "нс": 3878,
      "хэрг": 3879,
      "шат": 3880,
      "тохир": 3881,
      "гайха": 3882,
      "дгал": 3883,
      "харьц": 3884,
      "авар": 3885,
      "алх": 3886,
      "нээ": 3887,
      "эдий": 3888,
      "##нуу": 3889,
      "саар": 3890,
      "гэхэд": 3891,
      "лийг": 3892,
      "##рэг": 3893,
      "дө": 3894,
      "лгүй": 3895,
      "цах": 3896,
      "араах": 3897,
      "гүйцэ": 3898,
      "##орт": 3899,
      "ко": 3900,
      "##бө": 3901,
      "лттай": 3902,
      "гт": 3903,
      "өргө": 3904,
      "ра": 3905,
      "##сгал": 3906,
      "чиглэ": 3907,
      "##рэ": 3908,
      "##ба": 3909,
      "нутги": 3910,
      "##лу": 3911,
      "зохио": 3912,
      "хийн": 3913,
      "алда": 3914,
      "зүйлс": 3915,
      "хороо": 3916,
      "гэв": 3917,
      "гаад": 3918,
      "ээсээ": 3919,
      "дага": 3920,
      "анхны": 3921,
      "үлээж": 3922,
      "##лага": 3923,
      "төө": 3924,
      "мжгүй": 3925,
      "ажилд": 3926,
      "зов": 3927,
      "##роп": 3928,
      "мерик": 3929,
      "жаа": 3930,
      "оно": 3931,
      "идэнд": 3932,
      "##er": 3933,
      "им": 3934,
      "цэц": 3935,
      "эгд": 3936,
      "айжээ": 3937,
      "аавал": 3938,
      "багш": 3939,
      "##айн": 3940,
      "дэмжи": 3941,
      "гж": 3942,
      "дэл": 3943,
      "алын": 3944,
      "эсрэг": 3945,
      "руул": 3946,
      "##иал": 3947,
      "зү": 3948,
      "шил": 3949,
      "гасан": 3950,
      "элб": 3951,
      "гдсан": 3952,
      "дгээр": 3953,
      "ураг": 3954,
      "улаан": 3955,
      "отын": 3956,
      "ахир": 3957,
      "##дөг": 3958,
      "ро": 3959,
      "ярих": 3960,
      "лгой": 3961,
      "ка": 3962,
      "сис": 3963,
      "үзэж": 3964,
      "утлуу": 3965,
      "бо": 3966,
      "үртгэ": 3967,
      "##чиг": 3968,
      "увийн": 3969,
      "унт": 3970,
      "элтгэ": 3971,
      "бүхэн": 3972,
      "дээд": 3973,
      "луул": 3974,
      "уулж": 3975,
      "##нэр": 3976,
      "кс": 3977,
      "систе": 3978,
      "чөлөө": 3979,
      "ик": 3980,
      "лдолд": 3981,
      "бэр": 3982,
      "снээр": 3983,
      "дээрх": 3984,
      "ва": 3985,
      "ульд": 3986,
      "орны": 3987,
      "шүүх": 3988,
      "өрөл": 3989,
      "олохы": 3990,
      "өдрий": 3991,
      "аал": 3992,
      "хүчин": 3993,
      "рагд": 3994,
      "##гуй": 3995,
      "ээрэй": 3996,
      "ахаар": 3997,
      "үд": 3998,
      "олчих": 3999,
      "өгр": 4000,
      "өгрөг": 4001,
      "рдэнэ": 4002,
      "уна": 4003,
      "дөг": 4004,
      "тг": 4005,
      "рай": 4006,
      "эй": 4007,
      "##до": 4008,
      "орчин": 4009,
      "харах": 4010,
      "инээ": 4011,
      "оё": 4012,
      "тусга": 4013,
      "шгүй": 4014,
      "ср": 4015,
      "##oo": 4016,
      "бараг": 4017,
      "үрх": 4018,
      "үмэн": 4019,
      "хад": 4020,
      "шинж": 4021,
      "дүү": 4022,
      "тар": 4023,
      "зург": 4024,
      "лдэг": 4025,
      "тань": 4026,
      "элэн": 4027,
      "лого": 4028,
      "зог": 4029,
      "ргалт": 4030,
      "ста": 4031,
      "##пон": 4032,
      "нө": 4033,
      "игч": 4034,
      "урдан": 4035,
      "европ": 4036,
      "төнц": 4037,
      "рь": 4038,
      "зогс": 4039,
      "гадна": 4040,
      "уудас": 4041,
      "япон": 4042,
      "аял": 4043,
      "рөө": 4044,
      "эсэх": 4045,
      "охир": 4046,
      "##st": 4047,
      "өрв": 4048,
      "ne": 4049,
      "гө": 4050,
      "орсон": 4051,
      "лгэ": 4052,
      "бич": 4053,
      "30": 4054,
      "амын": 4055,
      "цагт": 4056,
      "лүүл": 4057,
      "амьт": 4058,
      "нэв": 4059,
      "йртай": 4060,
      "гоё": 4061,
      "ута": 4062,
      "##чээ": 4063,
      "уучин": 4064,
      "архи": 4065,
      "хичээ": 4066,
      "янз": 4067,
      "нэхүү": 4068,
      "бүхий": 4069,
      "чадна": 4070,
      "амай": 4071,
      "лэж": 4072,
      "иргэн": 4073,
      "ис": 4074,
      "оноос": 4075,
      "буур": 4076,
      "яа": 4077,
      "on": 4078,
      "урт": 4079,
      "яриа": 4080,
      "##ма": 4081,
      "өж": 4082,
      "эцэ": 4083,
      "рэг": 4084,
      "грам": 4085,
      "вол": 4086,
      "тун": 4087,
      "ак": 4088,
      "өнгө": 4089,
      "үүрэг": 4090,
      "алтай": 4091,
      "рт": 4092,
      "рсан": 4093,
      "##at": 4094,
      "гөөн": 4095,
      "ирээд": 4096,
      "амайг": 4097,
      "ичиг": 4098,
      "хаана": 4099,
      "##алд": 4100,
      "оог": 4101,
      "элбэр": 4102,
      "нөхөр": 4103,
      "##лах": 4104,
      "дрийн": 4105,
      "мээр": 4106,
      "эхний": 4107,
      "##le": 4108,
      "ээв": 4109,
      "сныг": 4110,
      "лтой": 4111,
      "##лэх": 4112,
      "аймг": 4113,
      "ушаал": 4114,
      "ралд": 4115,
      "аваад": 4116,
      "тон": 4117,
      "улам": 4118,
      "рийн": 4119,
      "хэвлэ": 4120,
      "гуй": 4121,
      "сс": 4122,
      "дан": 4123,
      "лга": 4124,
      "утас": 4125,
      "вср": 4126,
      "наад": 4127,
      "рхойл": 4128,
      "арь": 4129,
      "эрс": 4130,
      "нис": 4131,
      "мент": 4132,
      "рой": 4133,
      "##ac": 4134,
      "рм": 4135,
      "онгос": 4136,
      "ня": 4137,
      "логи": 4138,
      "зүү": 4139,
      "хөгжи": 4140,
      "##илт": 4141,
      "оронд": 4142,
      "зайл": 4143,
      "нарын": 4144,
      "сэтг": 4145,
      "гэрээ": 4146,
      "цэвэр": 4147,
      "таа": 4148,
      "өсл": 4149,
      "орнуу": 4150,
      "co": 4151,
      "цагда": 4152,
      "жижиг": 4153,
      "итгий": 4154,
      "огс": 4155,
      "спорт": 4156,
      "жаг": 4157,
      "цуг": 4158,
      "vv": 4159,
      "хэсг": 4160,
      "ллийг": 4161,
      "рдаг": 4162,
      "орхи": 4163,
      "хүссэ": 4164,
      "хөн": 4165,
      "авто": 4166,
      "батла": 4167,
      "нийл": 4168,
      "ндээ": 4169,
      "хуваа": 4170,
      "бодит": 4171,
      "аяг": 4172,
      "найд": 4173,
      "агүй": 4174,
      "ааны": 4175,
      "этгэ": 4176,
      "ичсэн": 4177,
      "али": 4178,
      "нууц": 4179,
      "##хно": 4180,
      "12": 4181,
      "##сл": 4182,
      "атвар": 4183,
      "цар": 4184,
      "анай": 4185,
      "ажлыг": 4186,
      "риул": 4187,
      "мс": 4188,
      "йрла": 4189,
      "ардчи": 4190,
      "өрөөр": 4191,
      "##ен": 4192,
      "хөө": 4193,
      "алдаа": 4194,
      "##ус": 4195,
      "лиг": 4196,
      "эрт": 4197,
      "##re": 4198,
      "лол": 4199,
      "##хү": 4200,
      "хаан": 4201,
      "лав": 4202,
      "ль": 4203,
      "нийсл": 4204,
      "нга": 4205,
      "арч": 4206,
      "тэнд": 4207,
      "тээл": 4208,
      "соё": 4209,
      "па": 4210,
      "сээр": 4211,
      "сны": 4212,
      "эгүй": 4213,
      "үт": 4214,
      "сруул": 4215,
      "ллийн": 4216,
      "урьд": 4217,
      "зарла": 4218,
      "хая": 4219,
      "сум": 4220,
      "отоод": 4221,
      "дорж": 4222,
      "уран": 4223,
      "хүсч": 4224,
      "гдэл": 4225,
      "суури": 4226,
      "санхү": 4227,
      "зүйн": 4228,
      "чээ": 4229,
      "йгээд": 4230,
      "өгнө": 4231,
      "элт": 4232,
      "гv": 4233,
      "ахуй": 4234,
      "илцаа": 4235,
      "увц": 4236,
      "рилго": 4237,
      "ааш": 4238,
      "урхай": 4239,
      "чамай": 4240,
      "йм": 4241,
      "лдвар": 4242,
      "түүнд": 4243,
      "чил": 4244,
      "аасан": 4245,
      "оогүй": 4246,
      "жо": 4247,
      "сэд": 4248,
      "ичлэг": 4249,
      "үүсгэ": 4250,
      "re": 4251,
      "иж": 4252,
      "өрвөн": 4253,
      "уй": 4254,
      "##ти": 4255,
      "en": 4256,
      "лц": 4257,
      "##арга": 4258,
      "дээш": 4259,
      "үеэр": 4260,
      "ск": 4261,
      "явц": 4262,
      "айхыг": 4263,
      "өгүүл": 4264,
      "##арт": 4265,
      "бүл": 4266,
      "явдаг": 4267,
      "сийг": 4268,
      "хаг": 4269,
      "ажлаа": 4270,
      "тооц": 4271,
      "огсоо": 4272,
      "хуу": 4273,
      "андаа": 4274,
      "увцас": 4275,
      "нэвтр": 4276,
      "гчд": 4277,
      "хям": 4278,
      "бүс": 4279,
      "соли": 4280,
      "##нэл": 4281,
      "удаан": 4282,
      "нхэнэ": 4283,
      "намын": 4284,
      "бүли": 4285,
      "авдаг": 4286,
      "##зга": 4287,
      "мон": 4288,
      "рис": 4289,
      "гдаж": 4290,
      "гэлээ": 4291,
      "алуу": 4292,
      "гvй": 4293,
      "нл": 4294,
      "зохиц": 4295,
      "##ды": 4296,
      "цө": 4297,
      "даж": 4298,
      "эхнэр": 4299,
      "лим": 4300,
      "жилд": 4301,
      "хяна": 4302,
      "зуун": 4303,
      "жин": 4304,
      "сонин": 4305,
      "үйлчл": 4306,
      "ахыг": 4307,
      "өрөмж": 4308,
      "всрол": 4309,
      "аалт": 4310,
      "15": 4311,
      "дүүр": 4312,
      "лаас": 4313,
      "оюут": 4314,
      "сэргэ": 4315,
      "11": 4316,
      "гурав": 4317,
      "лон": 4318,
      "сайж": 4319,
      "мат": 4320,
      "алба": 4321,
      "##дий": 4322,
      "мэднэ": 4323,
      "жагса": 4324,
      "гааны": 4325,
      "өмс": 4326,
      "тэмц": 4327,
      "нтэй": 4328,
      "арилц": 4329,
      "гдох": 4330,
      "нэрлэ": 4331,
      "ынхаа": 4332,
      "анийн": 4333,
      "эхгүй": 4334,
      "энгэр": 4335,
      "орчим": 4336,
      "жү": 4337,
      "100": 4338,
      "агдах": 4339,
      "техно": 4340,
      "жлийн": 4341,
      "суурь": 4342,
      "тх": 4343,
      "члөг": 4344,
      "таныг": 4345,
      "хязга": 4346,
      "төсөл": 4347,
      "нүүд": 4348,
      "ен": 4349,
      "мийн": 4350,
      "рам": 4351,
      "лз": 4352,
      "##ou": 4353,
      "нийгм": 4354,
      "утга": 4355,
      "лээр": 4356,
      "дад": 4357,
      "бодох": 4358,
      "нээл": 4359,
      "зарц": 4360,
      "яла": 4361,
      "##al": 4362,
      "албай": 4363,
      "##ум": 4364,
      "жур": 4365,
      "жарга": 4366,
      "##эмш": 4367,
      "элгэр": 4368,
      "нэгд": 4369,
      "нцг": 4370,
      "хл": 4371,
      "хил": 4372,
      "эцэг": 4373,
      "алагд": 4374,
      "хийнэ": 4375,
      "50": 4376,
      "вр": 4377,
      "ью": 4378,
      "дамжу": 4379,
      "айнга": 4380,
      "ралц": 4381,
      "лыг": 4382,
      "рвал": 4383,
      "ээлий": 4384,
      "соёл": 4385,
      "дсэн": 4386,
      "мын": 4387,
      "суд": 4388,
      "ргааш": 4389,
      "ьсгал": 4390,
      "лаан": 4391,
      "урга": 4392,
      "барьж": 4393,
      "судла": 4394,
      "оли": 4395,
      "цэрг": 4396,
      "ди": 4397,
      "эзэмш": 4398,
      "өвч": 4399,
      "айлга": 4400,
      "захи": 4401,
      "th": 4402,
      "лгалт": 4403,
      "өвд": 4404,
      "лаж": 4405,
      "арам": 4406,
      "шаг": 4407,
      "##члэ": 4408,
      "##ео": 4409,
      "вид": 4410,
      "##зо": 4411,
      "орно": 4412,
      "йх": 4413,
      "хат": 4414,
      "гом": 4415,
      "айн": 4416,
      "хүрэх": 4417,
      "чиний": 4418,
      "эгж": 4419,
      "улалт": 4420,
      "аяа": 4421,
      "очиж": 4422,
      "улийн": 4423,
      "огүй": 4424,
      "члөгд": 4425,
      "нээлт": 4426,
      "ялгаа": 4427,
      "иу": 4428,
      "аниу": 4429,
      "өрч": 4430,
      "үмүү": 4431,
      "сууж": 4432,
      "унд": 4433,
      "ааж": 4434,
      "үмүүс": 4435,
      "шү": 4436,
      "вар": 4437,
      "##хн": 4438,
      "ээдүй": 4439,
      "үгийн": 4440,
      "өмбө": 4441,
      "үйлдэ": 4442,
      "арт": 4443,
      "аруун": 4444,
      "хаар": 4445,
      "улагд": 4446,
      "лтын": 4447,
      "гэрэл": 4448,
      "лалаа": 4449,
      "ахгүй": 4450,
      "лаанб": 4451,
      "ерм": 4452,
      "гдэж": 4453,
      "лбарт": 4454,
      "чамд": 4455,
      "танай": 4456,
      "дөл": 4457,
      "##ss": 4458,
      "өрг": 4459,
      "ло": 4460,
      "улгай": 4461,
      "бүлэг": 4462,
      "тэмцэ": 4463,
      "хыг": 4464,
      "өөсөө": 4465,
      "эрхүү": 4466,
      "st": 4467,
      "нэгүй": 4468,
      "эмнэл": 4469,
      "уя": 4470,
      "вч": 4471,
      "усгай": 4472,
      "цлага": 4473,
      "бор": 4474,
      "ийгэм": 4475,
      "шагна": 4476,
      "ноос": 4477,
      "үнг": 4478,
      "тата": 4479,
      "лох": 4480,
      "дэлгэ": 4481,
      "уулга": 4482,
      "хөгжл": 4483,
      "ижил": 4484,
      "ууч": 4485,
      "энгүй": 4486,
      "гдах": 4487,
      "ажээ": 4488,
      "лгын": 4489,
      "эрб": 4490,
      "нөөц": 4491,
      "өгдөг": 4492,
      "хүрч": 4493,
      "барих": 4494,
      "амра": 4495,
      "таван": 4496,
      "гаас": 4497,
      "аян": 4498,
      "аф": 4499,
      "тнууд": 4500,
      "рна": 4501,
      "уст": 4502,
      "энги": 4503,
      "эрбум": 4504,
      "no": 4505,
      "вир": 4506,
      "өч": 4507,
      "##эний": 4508,
      "ариу": 4509,
      "мах": 4510,
      "яваа": 4511,
      "йнх": 4512,
      "наа": 4513,
      "хнийг": 4514,
      "ооцоо": 4515,
      "шинжи": 4516,
      "дууд": 4517,
      "риг": 4518,
      "үүлэг": 4519,
      "цал": 4520,
      "шуул": 4521,
      "гэжээ": 4522,
      "##it": 4523,
      "гл": 4524,
      "хураа": 4525,
      "уулах": 4526,
      "хоо": 4527,
      "төрөл": 4528,
      "угаар": 4529,
      "нарий": 4530,
      "лөө": 4531,
      "an": 4532,
      "яам": 4533,
      "зогсо": 4534,
      "оролд": 4535,
      "гн": 4536,
      "ериал": 4537,
      "рга": 4538,
      "ага": 4539,
      "улг": 4540,
      "нз": 4541,
      "си": 4542,
      "зорил": 4543,
      "эрд": 4544,
      "аварг": 4545,
      "маа": 4546,
      "утг": 4547,
      "гжүүл": 4548,
      "юмаа": 4549,
      "бэрх": 4550,
      "сайжр": 4551,
      "хын": 4552,
      "өлөө": 4553,
      "уух": 4554,
      "бичих": 4555,
      "рьд": 4556,
      "онгоц": 4557,
      "арамс": 4558,
      "олцоо": 4559,
      "ив": 4560,
      "эээ": 4561,
      "лагын": 4562,
      "тхэг": 4563,
      "ази": 4564,
      "рж": 4565,
      "ргө": 4566,
      "сэл": 4567,
      "ндаа": 4568,
      "алуус": 4569,
      "өргөн": 4570,
      "мтр": 4571,
      "##am": 4572,
      "гараг": 4573,
      "услах": 4574,
      "эе": 4575,
      "мтран": 4576,
      "үедээ": 4577,
      "найр": 4578,
      "лтан": 4579,
      "явна": 4580,
      "гэмт": 4581,
      "фр": 4582,
      "боль": 4583,
      "эргэн": 4584,
      "үүнд": 4585,
      "бал": 4586,
      "хатуу": 4587,
      "өрсөл": 4588,
      "нцгой": 4589,
      "гдсон": 4590,
      "жир": 4591,
      "аниуд": 4592,
      "хүч": 4593,
      "ууж": 4594,
      "мр": 4595,
      "бя": 4596,
      "буца": 4597,
      "нэчлэ": 4598,
      "тос": 4599,
      "талы": 4600,
      "зан": 4601,
      "лжи": 4602,
      "уудад": 4603,
      "##маа": 4604,
      "дурд": 4605,
      "чд": 4606,
      "агда": 4607,
      "хотод": 4608,
      "цгаа": 4609,
      "эдэнд": 4610,
      "үүн": 4611,
      "худал": 4612,
      "мжийг": 4613,
      "цахим": 4614,
      "рэм": 4615,
      "ийнх": 4616,
      "асгал": 4617,
      "огч": 4618,
      "үчтэй": 4619,
      "амж": 4620,
      "ээрэм": 4621,
      "лгүүр": 4622,
      "ачаа": 4623,
      "тэнэг": 4624,
      "энтэй": 4625,
      "илбар": 4626,
      "тусла": 4627,
      "унши": 4628,
      "##en": 4629,
      "##ay": 4630,
      "давха": 4631,
      "рын": 4632,
      "үзэл": 4633,
      "гайх": 4634,
      "монго": 4635,
      "тор": 4636,
      "ахын": 4637,
      "өвлө": 4638,
      "сууц": 4639,
      "одол": 4640,
      "хоёры": 4641,
      "уруу": 4642,
      "нчл": 4643,
      "нчлэн": 4644,
      "дут": 4645,
      "эрчим": 4646,
      "ндарт": 4647,
      "дий": 4648,
      "өрт": 4649,
      "al": 4650,
      "шор": 4651,
      "лбал": 4652,
      "ве": 4653,
      "нгу": 4654,
      "өнх": 4655,
      "сүл": 4656,
      "ялбар": 4657,
      "өдлө": 4658,
      "тр": 4659,
      "үтэн": 4660,
      "арилг": 4661,
      "нлайн": 4662,
      "аран": 4663,
      "эгэн": 4664,
      "нөөс": 4665,
      "улга": 4666,
      "өрөх": 4667,
      "ел": 4668,
      "ерман": 4669,
      "эсгэл": 4670,
      "аач": 4671,
      "ашигт": 4672,
      "үсэлт": 4673,
      "идэв": 4674,
      "үүдэд": 4675,
      "идэвх": 4676,
      "амир": 4677,
      "эхлэх": 4678,
      "татаж": 4679,
      "гц": 4680,
      "ек": 4681,
      "рэх": 4682,
      "үнэл": 4683,
      "сав": 4684,
      "элж": 4685,
      "раг": 4686,
      "хим": 4687,
      "болд": 4688,
      "олой": 4689,
      "ичг": 4690,
      "үхэнд": 4691,
      "нгуяа": 4692,
      "хүсэ": 4693,
      "бичиж": 4694,
      "үрээс": 4695,
      "оноо": 4696,
      "урам": 4697,
      "тгал": 4698,
      "##мэ": 4699,
      "риулт": 4700,
      "вь": 4701,
      "оол": 4702,
      "лтыг": 4703,
      "эдлэг": 4704,
      "бараа": 4705,
      "мш": 4706,
      "дийн": 4707,
      "нж": 4708,
      "ок": 4709,
      "цээ": 4710,
      "үрүү": 4711,
      "очих": 4712,
      "вирус": 4713,
      "нха": 4714,
      "айрла": 4715,
      "рхайн": 4716,
      "долла": 4717,
      "гүүр": 4718,
      "төдий": 4719,
      "сламж": 4720,
      "мэл": 4721,
      "айз": 4722,
      "инээр": 4723,
      "##яг": 4724,
      "рхэг": 4725,
      "лэд": 4726,
      "эрлэх": 4727,
      "уулза": 4728,
      "нги": 4729,
      "улмаа": 4730,
      "үрд": 4731,
      "дай": 4732,
      "лагыг": 4733,
      "14": 4734,
      "авь": 4735,
      "бос": 4736,
      "уйл": 4737,
      "гдл": 4738,
      "лэдэг": 4739,
      "рс": 4740,
      "ухаа": 4741,
      "оёр": 4742,
      "бэлэг": 4743,
      "эрсдэ": 4744,
      "лаар": 4745,
      "нт": 4746,
      "аах": 4747,
      "йгал": 4748,
      "товч": 4749,
      "сгэ": 4750,
      "йгаль": 4751,
      "агаар": 4752,
      "жлүүл": 4753,
      "чихса": 4754,
      "анайд": 4755,
      "зөө": 4756,
      "маяг": 4757,
      "гс": 4758,
      "тгалз": 4759,
      "зөр": 4760,
      "##ци": 4761,
      "хал": 4762,
      "яваад": 4763,
      "алдар": 4764,
      "айдл": 4765,
      "там": 4766,
      "шо": 4767,
      "оху": 4768,
      "таар": 4769,
      "устга": 4770,
      "снаар": 4771,
      "шаш": 4772,
      "40": 4773,
      "эк": 4774,
      "элээд": 4775,
      "хиад": 4776,
      "цөө": 4777,
      "арван": 4778,
      "стр": 4779,
      "яналт": 4780,
      "чир": 4781,
      "эмэлт": 4782,
      "тэнц": 4783,
      "##гч": 4784,
      "алтын": 4785,
      "рист": 4786,
      "нох": 4787,
      "хийгд": 4788,
      "эцэс": 4789,
      "агдаж": 4790,
      "айгал": 4791,
      "мэдрэ": 4792,
      "айдлы": 4793,
      "лтгүй": 4794,
      "бна": 4795,
      "юуг": 4796,
      "бэрхш": 4797,
      "##ol": 4798,
      "үүлэх": 4799,
      "мний": 4800,
      "чн": 4801,
      "дарг": 4802,
      "үхэл": 4803,
      "яриад": 4804,
      "шөн": 4805,
      "улан": 4806,
      "үгийг": 4807,
      "оёрд": 4808,
      "хүсэл": 4809,
      "ухам": 4810,
      "дэд": 4811,
      "оох": 4812,
      "алаа": 4813,
      "зүтгэ": 4814,
      "амаг": 4815,
      "##из": 4816,
      "лчууд": 4817,
      "рэмж": 4818,
      "лтийн": 4819,
      "тогто": 4820,
      "орд": 4821,
      "тугай": 4822,
      "давуу": 4823,
      "дрийг": 4824,
      "англи": 4825,
      "ьютер": 4826,
      "яар": 4827,
      "өсөв": 4828,
      "ваал": 4829,
      "рвалж": 4830,
      "видео": 4831,
      "ваалц": 4832,
      "явдл": 4833,
      "сүлжэ": 4834,
      "ти": 4835,
      "өрүүл": 4836,
      "ирдэг": 4837,
      "вэб": 4838,
      "суух": 4839,
      "сонсо": 4840,
      "арг": 4841,
      "бүтэ": 4842,
      "##игл": 4843,
      "нарт": 4844,
      "чуулг": 4845,
      "логын": 4846,
      "ит": 4847,
      "хаагч": 4848,
      "ми": 4849,
      "асал": 4850,
      "зарна": 4851,
      "итгэл": 4852,
      "мд": 4853,
      "сний": 4854,
      "йнхүү": 4855,
      "илр": 4856,
      "це": 4857,
      "илгээ": 4858,
      "өмөр": 4859,
      "гаары": 4860,
      "нцлог": 4861,
      "ум": 4862,
      "нгийн": 4863,
      "тол": 4864,
      "үлдээ": 4865,
      "унших": 4866,
      "зэв": 4867,
      "хүрэл": 4868,
      "жааха": 4869,
      "лөн": 4870,
      "туул": 4871,
      "уудын": 4872,
      "нэтэй": 4873,
      "талд": 4874,
      "улир": 4875,
      "борлу": 4876,
      "члөх": 4877,
      "цалин": 4878,
      "##үс": 4879,
      "төсв": 4880,
      "үүгээ": 4881,
      "хөгж": 4882,
      "өөн": 4883,
      "орт": 4884,
      "сул": 4885,
      "сурта": 4886,
      "бусды": 4887,
      "ch": 4888,
      "ирнэ": 4889,
      "охиро": 4890,
      "сэг": 4891,
      "тавих": 4892,
      "анга": 4893,
      "сурга": 4894,
      "нүд": 4895,
      "бөх": 4896,
      "нүү": 4897,
      "аван": 4898,
      "ехн": 4899,
      "олл": 4900,
      "үүц": 4901,
      "арах": 4902,
      "сүх": 4903,
      "гнэлт": 4904,
      "лээд": 4905,
      "уучла": 4906,
      "гарын": 4907,
      "ехник": 4908,
      "хайж": 4909,
      "олгой": 4910,
      "лин": 4911,
      "чнээн": 4912,
      "огино": 4913,
      "рлог": 4914,
      "өмч": 4915,
      "лам": 4916,
      "##me": 4917,
      "эндээ": 4918,
      "есүс": 4919,
      "шө": 4920,
      "оохон": 4921,
      "##ic": 4922,
      "амхи": 4923,
      "снаас": 4924,
      "ахуйн": 4925,
      "цэг": 4926,
      "чимэ": 4927,
      "муж": 4928,
      "лөх": 4929,
      "эжээ": 4930,
      "мтлаг": 4931,
      "алгүй": 4932,
      "бүрт": 4933,
      "явагд": 4934,
      "заа": 4935,
      "эмчи": 4936,
      "кл": 4937,
      "урлаг": 4938,
      "болзо": 4939,
      "амиа": 4940,
      "эсэрг": 4941,
      "огц": 4942,
      "шоро": 4943,
      "##ad": 4944,
      "рита": 4945,
      "мтдаа": 4946,
      "ороод": 4947,
      "мшиг": 4948,
      "мод": 4949,
      "ортой": 4950,
      "онц": 4951,
      "эхлүү": 4952,
      "лгуур": 4953,
      "эрхлэ": 4954,
      "хэнд": 4955,
      "лцоо": 4956,
      "ажигл": 4957,
      "эрэгт": 4958,
      "ws": 4959,
      "өгжи": 4960,
      "гдүүл": 4961,
      "оороо": 4962,
      "лжүүл": 4963,
      "нцло": 4964,
      "марта": 4965,
      "вак": 4966,
      "шөнө": 4967,
      "de": 4968,
      "сэрг": 4969,
      "18": 4970,
      "ахи": 4971,
      "аалга": 4972,
      "айван": 4973,
      "идэх": 4974,
      "өрөлх": 4975,
      "арьс": 4976,
      "хүчи": 4977,
      "өөгүй": 4978,
      "арилд": 4979,
      "блог": 4980,
      "нохой": 4981,
      "фран": 4982,
      "сах": 4983,
      "цээн": 4984,
      "интер": 4985,
      "to": 4986,
      "дон": 4987,
      "дыг": 4988,
      "элийн": 4989,
      "адаас": 4990,
      "рлого": 4991,
      "лх": 4992,
      "вшин": 4993,
      "дн": 4994,
      "мог": 4995,
      "анаас": 4996,
      "царай": 4997,
      "нарыг": 4998,
      "охид": 4999,
      "дэвши": 5000,
      "ургүй": 5001,
      "арк": 5002,
      "хамр": 5003,
      "бодис": 5004,
      "удлаа": 5005,
      "яахав": 5006,
      "данс": 5007,
      "хууд": 5008,
      "хүсэж": 5009,
      "цэцэр": 5010,
      "тоног": 5011,
      "ча": 5012,
      "##ул": 5013,
      "алуун": 5014,
      "##il": 5015,
      "амла": 5016,
      "цэцэг": 5017,
      "үлэг": 5018,
      "улуун": 5019,
      "ань": 5020,
      "шар": 5021,
      "шир": 5022,
      "иеийн": 5023,
      "лаад": 5024,
      "тнүүд": 5025,
      "франц": 5026,
      "ргэн": 5027,
      "ойро": 5028,
      "хүүхэ": 5029,
      "иний": 5030,
      "эмээ": 5031,
      "иел": 5032,
      "ориу": 5033,
      "усд": 5034,
      "амирч": 5035,
      "мн": 5036,
      "аялал": 5037,
      "рк": 5038,
      "хуудс": 5039,
      "нэгн": 5040,
      "ист": 5041,
      "алдса": 5042,
      "цөөн": 5043,
      "зэрг": 5044,
      "раа": 5045,
      "бүрд": 5046,
      "аймаг": 5047,
      "ion": 5048,
      "йд": 5049,
      "мп": 5050,
      "нгэ": 5051,
      "вьц": 5052,
      "улаа": 5053,
      "вьцаа": 5054,
      "нийн": 5055,
      "тайла": 5056,
      "алж": 5057,
      "анз": 5058,
      "члал": 5059,
      "нжл": 5060,
      "инд": 5061,
      "рик": 5062,
      "шүүл": 5063,
      "оршин": 5064,
      "ахиал": 5065,
      "угуй": 5066,
      "хог": 5067,
      "чла": 5068,
      "шуу": 5069,
      "the": 5070,
      "25": 5071,
      "вөл": 5072,
      "шүүмж": 5073,
      "алтад": 5074,
      "гддаг": 5075,
      "далай": 5076,
      "длаар": 5077,
      "оллар": 5078,
      "авра": 5079,
      "нда": 5080,
      "алхам": 5081,
      "тний": 5082,
      "осго": 5083,
      "лад": 5084,
      "ноо": 5085,
      "нш": 5086,
      "шаа": 5087,
      "вор": 5088,
      "13": 5089,
      "нгис": 5090,
      "тэгж": 5091,
      "гах": 5092,
      "##ur": 5093,
      "ажилч": 5094,
      "улгар": 5095,
      "зэн": 5096,
      "рахад": 5097,
      "ro": 5098,
      "сэдэв": 5099,
      "она": 5100,
      "аб": 5101,
      "хагас": 5102,
      "рио": 5103,
      "иелүү": 5104,
      "ап": 5105,
      "ламж": 5106,
      "амт": 5107,
      "ригло": 5108,
      "сэр": 5109,
      "өсөө": 5110,
      "ёсоор": 5111,
      "мөрдө": 5112,
      "лив": 5113,
      "гэний": 5114,
      "айнаа": 5115,
      "оц": 5116,
      "хав": 5117,
      "хурд": 5118,
      "гэг": 5119,
      "эгш": 5120,
      "аяхан": 5121,
      "уб": 5122,
      "үжиг": 5123,
      "ирлээ": 5124,
      "ргийг": 5125,
      "вшинд": 5126,
      "луу": 5127,
      "ахдаа": 5128,
      "дүнд": 5129,
      "бе": 5130,
      "рчим": 5131,
      "цгэ": 5132,
      "энгэ": 5133,
      "лны": 5134,
      "асар": 5135,
      "нжлэх": 5136,
      "гомдо": 5137,
      "ого": 5138,
      "##ко": 5139,
      "өдөрт": 5140,
      "фе": 5141,
      "ами": 5142,
      "зочи": 5143,
      "олбор": 5144,
      "амд": 5145,
      "дүгээ": 5146,
      "цахил": 5147,
      "24": 5148,
      "гджээ": 5149,
      "ялга": 5150,
      "орх": 5151,
      "арсан": 5152,
      "цуглу": 5153,
      "ориул": 5154,
      "хир": 5155,
      "гши": 5156,
      "ход": 5157,
      "эрчүү": 5158,
      "улиар": 5159,
      "вакци": 5160,
      "роо": 5161,
      "уншиж": 5162,
      "##сн": 5163,
      "эргэл": 5164,
      "чулуу": 5165,
      "##as": 5166,
      "үрэл": 5167,
      "галан": 5168,
      "se": 5169,
      "алсан": 5170,
      "дая": 5171,
      "бэлд": 5172,
      "мол": 5173,
      "дэвш": 5174,
      "рүүл": 5175,
      "санг": 5176,
      "ндаж": 5177,
      "дас": 5178,
      "түр": 5179,
      "##id": 5180,
      "өгсгө": 5181,
      "##тан": 5182,
      "уулг": 5183,
      "илан": 5184,
      "адаад": 5185,
      "ээлжи": 5186,
      "зун": 5187,
      "дайн": 5188,
      "##ot": 5189,
      "ндоо": 5190,
      "өсөөл": 5191,
      "рсгал": 5192,
      "гавар": 5193,
      "ing": 5194,
      "нсний": 5195,
      "өвчин": 5196,
      "нхүү": 5197,
      "вөр": 5198,
      "үүлж": 5199,
      "даады": 5200,
      "лөл": 5201,
      "рв": 5202,
      "хэдий": 5203,
      "урьдч": 5204,
      "амаар": 5205,
      "эцс": 5206,
      "лев": 5207,
      "илж": 5208,
      "агийн": 5209,
      "эргэж": 5210,
      "эрдэм": 5211,
      "##us": 5212,
      "##ана": 5213,
      "нот": 5214,
      "ээч": 5215,
      "алив": 5216,
      "гш": 5217,
      "##un": 5218,
      "боли": 5219,
      "рн": 5220,
      "ингэх": 5221,
      "17": 5222,
      "чада": 5223,
      "ap": 5224,
      "хаж": 5225,
      "дгала": 5226,
      "айхан": 5227,
      "өмнөд": 5228,
      "уян": 5229,
      "даяар": 5230,
      "айшин": 5231,
      "уулан": 5232,
      "рлаа": 5233,
      "элний": 5234,
      "буцаа": 5235,
      "рдын": 5236,
      "жуулч": 5237,
      "ашаа": 5238,
      "воо": 5239,
      "нуул": 5240,
      "тэл": 5241,
      "16": 5242,
      "агуу": 5243,
      "##ри": 5244,
      "ынхан": 5245,
      "эзэн": 5246,
      "хөдөө": 5247,
      "дүүрэ": 5248,
      "гээс": 5249,
      "эхэлж": 5250,
      "жилт": 5251,
      "вх": 5252,
      "хэх": 5253,
      "ардал": 5254,
      "томил": 5255,
      "үйтэй": 5256,
      "эгчд": 5257,
      "##ка": 5258,
      "нийц": 5259,
      "ге": 5260,
      "лсэн": 5261,
      "нгах": 5262,
      "дүрэм": 5263,
      "тгээд": 5264,
      "дний": 5265,
      "эгээр": 5266,
      "аашаа": 5267,
      "бүлг": 5268,
      "усдад": 5269,
      "левиз": 5270,
      "эвийн": 5271,
      "тойр": 5272,
      "уралд": 5273,
      "оош": 5274,
      "азар": 5275,
      "оон": 5276,
      "аахан": 5277,
      "өрнө": 5278,
      "мба": 5279,
      "ъё": 5280,
      "хүүг": 5281,
      "ийх": 5282,
      "эхийн": 5283,
      "агц": 5284,
      "нал": 5285,
      "##илг": 5286,
      "орчи": 5287,
      "уриа": 5288,
      "санд": 5289,
      "урагч": 5290,
      "үйлдл": 5291,
      "үрүүл": 5292,
      "мөрөө": 5293,
      "60": 5294,
      "үгээс": 5295,
      "зориг": 5296,
      "хямд": 5297,
      "рөв": 5298,
      "өгжим": 5299,
      "эрхий": 5300,
      "багт": 5301,
      "омп": 5302,
      "гарна": 5303,
      "хийгэ": 5304,
      "ате": 5305,
      "лгээг": 5306,
      "дааны": 5307,
      "өсөлт": 5308,
      "кк": 5309,
      "сра": 5310,
      "тгө": 5311,
      "тут": 5312,
      "сг": 5313,
      "цохи": 5314,
      "юутан": 5315,
      "лимп": 5316,
      "орилт": 5317,
      "эрүү": 5318,
      "##би": 5319,
      "дууг": 5320,
      "тэтгэ": 5321,
      "неж": 5322,
      "фи": 5323,
      "риуц": 5324,
      "бүт": 5325,
      "эхлэн": 5326,
      "мөч": 5327,
      "хлы": 5328,
      "түүхэ": 5329,
      "тэс": 5330,
      "днээс": 5331,
      "ic": 5332,
      "март": 5333,
      "тани": 5334,
      "огд": 5335,
      "төлөх": 5336,
      "гөл": 5337,
      "снаа": 5338,
      "лм": 5339,
      "эгт": 5340,
      "этгэв": 5341,
      "ооо": 5342,
      "таг": 5343,
      "аваа": 5344,
      "ip": 5345,
      "длага": 5346,
      "нүүрс": 5347,
      "лчил": 5348,
      "дагу": 5349,
      "ed": 5350,
      "өлс": 5351,
      "виар": 5352,
      "хувий": 5353,
      "йруул": 5354,
      "##ub": 5355,
      "төрх": 5356,
      "агаан": 5357,
      "le": 5358,
      "шах": 5359,
      "атан": 5360,
      "ей": 5361,
      "ихэв": 5362,
      "хиж": 5363,
      "өнгөн": 5364,
      "ойд": 5365,
      "нэгдү": 5366,
      "ихэвч": 5367,
      "хохир": 5368,
      "ршилт": 5369,
      "огоон": 5370,
      "тго": 5371,
      "гдэх": 5372,
      "чид": 5373,
      "багас": 5374,
      "өрчил": 5375,
      "стра": 5376,
      "изм": 5377,
      "айж": 5378,
      "оюун": 5379,
      "эгэнт": 5380,
      "тны": 5381,
      "хv": 5382,
      "уухай": 5383,
      "ашг": 5384,
      "хь": 5385,
      "өрхөн": 5386,
      "атаа": 5387,
      "өвчн": 5388,
      "лар": 5389,
      "тс": 5390,
      "##ст": 5391,
      "гарц": 5392,
      "агт": 5393,
      "үлх": 5394,
      "кон": 5395,
      "олны": 5396,
      "элс": 5397,
      "com": 5398,
      "sh": 5399,
      "өрөг": 5400,
      "одо": 5401,
      "үүлч": 5402,
      "албир": 5403,
      "po": 5404,
      "адтай": 5405,
      "эндүү": 5406,
      "үнс": 5407,
      "хөх": 5408,
      "нгли": 5409,
      "ланд": 5410,
      "рий": 5411,
      "йно": 5412,
      "аныг": 5413,
      "un": 5414,
      "анкны": 5415,
      "рих": 5416,
      "ахаас": 5417,
      "хөнд": 5418,
      "алай": 5419,
      "баян": 5420,
      "мтын": 5421,
      "сайды": 5422,
      "дны": 5423,
      "ээх": 5424,
      "нгийг": 5425,
      "салга": 5426,
      "тараа": 5427,
      "үрдүү": 5428,
      "баа": 5429,
      "##эгд": 5430,
      "өндөө": 5431,
      "анш": 5432,
      "хүрт": 5433,
      "ургаа": 5434,
      "li": 5435,
      "суулг": 5436,
      "нэт": 5437,
      "зав": 5438,
      "длууд": 5439,
      "агуул": 5440,
      "ar": 5441,
      "эрийн": 5442,
      "лаарх": 5443,
      "рин": 5444,
      "рла": 5445,
      "орши": 5446,
      "тоог": 5447,
      "ааа": 5448,
      "хх": 5449,
      "чийн": 5450,
      "олоо": 5451,
      "элдэг": 5452,
      "өнө": 5453,
      "оп": 5454,
      "ци": 5455,
      "өртө": 5456,
      "ку": 5457,
      "эч": 5458,
      "лагд": 5459,
      "эгдэх": 5460,
      "эш": 5461,
      "эхлэ": 5462,
      "үүлг": 5463,
      "лсөн": 5464,
      "##лон": 5465,
      "анаа": 5466,
      "онгу": 5467,
      "отр": 5468,
      "гдэ": 5469,
      "лгэр": 5470,
      "дүг": 5471,
      "лүү": 5472,
      "бэлг": 5473,
      "татах": 5474,
      "дийл": 5475,
      "boo": 5476,
      "лий": 5477,
      "арж": 5478,
      "асвар": 5479,
      "тогтв": 5480,
      "лзуу": 5481,
      "мад": 5482,
      "нч": 5483,
      "айц": 5484,
      "нгын": 5485,
      "лооч": 5486,
      "ио": 5487,
      "ийш": 5488,
      "эмж": 5489,
      "чихсэ": 5490,
      "найм": 5491,
      "##el": 5492,
      "оро": 5493,
      "гуа": 5494,
      "лоор": 5495,
      "рэнд": 5496,
      "үйлд": 5497,
      "дүүрг": 5498,
      "шл": 5499,
      "ашин": 5500,
      "алдах": 5501,
      "отроо": 5502,
      "бут": 5503,
      "ото": 5504,
      "элтэй": 5505,
      "агдаа": 5506,
      "гий": 5507,
      "цай": 5508,
      "вэр": 5509,
      "уудал": 5510,
      "дөөн": 5511,
      "гэрлэ": 5512,
      "биеэ": 5513,
      "лэгчд": 5514,
      "урал": 5515,
      "гадн": 5516,
      "рөнг": 5517,
      "рлын": 5518,
      "нэн": 5519,
      "хос": 5520,
      "жиж": 5521,
      "сүрэ": 5522,
      "сурч": 5523,
      "түв": 5524,
      "рчуул": 5525,
      "рчны": 5526,
      "залга": 5527,
      "дүгнэ": 5528,
      "де": 5529,
      "үгээ": 5530,
      "өрд": 5531,
      "элсэн": 5532,
      "олт": 5533,
      "линг": 5534,
      "хэхэ": 5535,
      "or": 5536,
      "сө": 5537,
      "гүн": 5538,
      "уяа": 5539,
      "шдэ": 5540,
      "ргаар": 5541,
      "йгүй": 5542,
      "бүртг": 5543,
      "огоо": 5544,
      "лхи": 5545,
      "амы": 5546,
      "тодр": 5547,
      "лжээ": 5548,
      "шд": 5549,
      "энийг": 5550,
      "эгчид": 5551,
      "рээ": 5552,
      "хин": 5553,
      "ордо": 5554,
      "ардл": 5555,
      "лагч": 5556,
      "элд": 5557,
      "утс": 5558,
      "гөж": 5559,
      "өлөөт": 5560,
      "агтаа": 5561,
      "раад": 5562,
      "##өм": 5563,
      "уз": 5564,
      "илц": 5565,
      "ангуй": 5566,
      "айхаа": 5567,
      "анзаа": 5568,
      "эхээс": 5569,
      "лда": 5570,
      "ллы": 5571,
      "ларха": 5572,
      "сала": 5573,
      "мрагд": 5574,
      "даргы": 5575,
      "ладаг": 5576,
      "хны": 5577,
      "эвч": 5578,
      "эрэв": 5579,
      "зүйлд": 5580,
      "тали": 5581,
      "нет": 5582,
      "гүүд": 5583,
      "иа": 5584,
      "риад": 5585,
      "үб": 5586,
      "авт": 5587,
      "лст": 5588,
      "you": 5589,
      "нн": 5590,
      "##do": 5591,
      "агна": 5592,
      "агас": 5593,
      "ата": 5594,
      "зра": 5595,
      "хүнс": 5596,
      "үжи": 5597,
      "үхний": 5598,
      "##ace": 5599,
      "##ro": 5600,
      "агш": 5601,
      "зуг": 5602,
      "йрын": 5603,
      "ийгөө": 5604,
      "оорой": 5605,
      "халд": 5606,
      "эйл": 5607,
      "усны": 5608,
      "жүүлж": 5609,
      "хуй": 5610,
      "хана": 5611,
      "19": 5612,
      "рол": 5613,
      "ест": 5614,
      "аадам": 5615,
      "##ет": 5616,
      "анал": 5617,
      "овлон": 5618,
      "өрж": 5619,
      "ороо": 5620,
      "лөлт": 5621,
      "рэй": 5622,
      "аатай": 5623,
      "лтанд": 5624,
      "вий": 5625,
      "21": 5626,
      "олоон": 5627,
      "ент": 5628,
      "мэдэл": 5629,
      "үйтэ": 5630,
      "ргаан": 5631,
      "80": 5632,
      "алыг": 5633,
      "лтад": 5634,
      "гана": 5635,
      "гам": 5636,
      "цийн": 5637,
      "цугл": 5638,
      "нэл": 5639,
      "эрэй": 5640,
      "дурса": 5641,
      "длын": 5642,
      "моор": 5643,
      "ийлэх": 5644,
      "эрсэн": 5645,
      "зүүн": 5646,
      "рц": 5647,
      "руй": 5648,
      "агчид": 5649,
      "стой": 5650,
      "рөөд": 5651,
      "ара": 5652,
      "үүрг": 5653,
      "врал": 5654,
      "вто": 5655,
      "дгийг": 5656,
      "шр": 5657,
      "айлан": 5658,
      "иш": 5659,
      "гуулг": 5660,
      "жиг": 5661,
      "ргэ": 5662,
      "гор": 5663,
      "йж": 5664,
      "саг": 5665,
      "##за": 5666,
      "ныг": 5667,
      "эрэгц": 5668,
      "ры": 5669,
      "тл": 5670,
      "мч": 5671,
      "тохи": 5672,
      "ахар": 5673,
      "гуур": 5674,
      "аяр": 5675,
      "ma": 5676,
      "оль": 5677,
      "авчир": 5678,
      "дэр": 5679,
      "элц": 5680,
      "өвө": 5681,
      "доод": 5682,
      "ера": 5683,
      "book": 5684,
      "вж": 5685,
      "хоос": 5686,
      "удал": 5687,
      "гэрт": 5688,
      "үсэг": 5689,
      "эргэд": 5690,
      "гжил": 5691,
      "жүжиг": 5692,
      "ене": 5693,
      "пи": 5694,
      "хуур": 5695,
      "үчир": 5696,
      "далд": 5697,
      "цагаа": 5698,
      "доро": 5699,
      "вуу": 5700,
      "алдаг": 5701,
      "бөм": 5702,
      "гараа": 5703,
      "mi": 5704,
      "жим": 5705,
      "рхи": 5706,
      "найма": 5707,
      "гтаа": 5708,
      "чилж": 5709,
      "рамт": 5710,
      "рло": 5711,
      "бөмбө": 5712,
      "зе": 5713,
      "ссэн": 5714,
      "аха": 5715,
      "ургу": 5716,
      "гүүл": 5717,
      "##єє": 5718,
      "##ve": 5719,
      "айны": 5720,
      "жууд": 5721,
      "эглэ": 5722,
      "ent": 5723,
      "оу": 5724,
      "үрэ": 5725,
      "юун": 5726,
      "дам": 5727,
      "атай": 5728,
      "осон": 5729,
      "##um": 5730,
      "pre": 5731,
      "усан": 5732,
      "goo": 5733,
      "дөн": 5734,
      "наг": 5735,
      "св": 5736,
      "арав": 5737,
      "гүйц": 5738,
      "үйд": 5739,
      "22": 5740,
      "айд": 5741,
      "нийгэ": 5742,
      "хб": 5743,
      "урш": 5744,
      "асах": 5745,
      "дута": 5746,
      "ван": 5747,
      "ем": 5748,
      "зуур": 5749,
      "лагуу": 5750,
      "ооны": 5751,
      "өлөг": 5752,
      "эртээ": 5753,
      "урь": 5754,
      "аана": 5755,
      "дрэл": 5756,
      "анад": 5757,
      "ип": 5758,
      "нк": 5759,
      "доор": 5760,
      "лш": 5761,
      "рчин": 5762,
      "##ch": 5763,
      "хоё": 5764,
      "##ио": 5765,
      "ээрх": 5766,
      "илийн": 5767,
      "гчин": 5768,
      "дууга": 5769,
      "лбэг": 5770,
      "сүү": 5771,
      "саад": 5772,
      "##ck": 5773,
      "тусал": 5774,
      "гчдын": 5775,
      "вш": 5776,
      "хтэй": 5777,
      "ахуу": 5778,
      "есс": 5779,
      "яара": 5780,
      "шг": 5781,
      "үдээ": 5782,
      "байхы": 5783,
      "бодо": 5784,
      "анайх": 5785,
      "илцан": 5786,
      "ачин": 5787,
      "дэнд": 5788,
      "##ct": 5789,
      "энэг": 5790,
      "хөв": 5791,
      "one": 5792,
      "амер": 5793,
      "шигт": 5794,
      "хажуу": 5795,
      "лу": 5796,
      "нтер": 5797,
      "хас": 5798,
      "гддэг": 5799,
      "me": 5800,
      "эрээ": 5801,
      "эрэл": 5802,
      "ллын": 5803,
      "виз": 5804,
      "мжи": 5805,
      "ллээ": 5806,
      "оф": 5807,
      "тэв": 5808,
      "цэр": 5809,
      "цэн": 5810,
      "рчм": 5811,
      "өхөн": 5812,
      "тари": 5813,
      "лстөр": 5814,
      "удаад": 5815,
      "цол": 5816,
      "үв": 5817,
      "##ag": 5818,
      "өрхий": 5819,
      "лай": 5820,
      "мжийн": 5821,
      "лөж": 5822,
      "мшигт": 5823,
      "ынх": 5824,
      "лчин": 5825,
      "амтай": 5826,
      "өөрт": 5827,
      "ожи": 5828,
      "хр": 5829,
      "алха": 5830,
      "ихээ": 5831,
      "лээн": 5832,
      "нун": 5833,
      "ho": 5834,
      "##ap": 5835,
      "анил": 5836,
      "элсэ": 5837,
      "эзээ": 5838,
      "мг": 5839,
      "цаас": 5840,
      "эрэн": 5841,
      "илэн": 5842,
      "хүртэ": 5843,
      "аярла": 5844,
      "be": 5845,
      "өхөд": 5846,
      "гэгч": 5847,
      "өдөл": 5848,
      "нхны": 5849,
      "жүжи": 5850,
      "глэ": 5851,
      "гдож": 5852,
      "ласан": 5853,
      "ахн": 5854,
      "даатг": 5855,
      "нэлэг": 5856,
      "нунта": 5857,
      "пе": 5858,
      "лмаар": 5859,
      "тгэл": 5860,
      "элз": 5861,
      "шийдэ": 5862,
      "gle": 5863,
      "хээс": 5864,
      "эгэ": 5865,
      "##ut": 5866,
      "өрдөг": 5867,
      "хоно": 5868,
      "te": 5869,
      "бууд": 5870,
      "рэлт": 5871,
      "кол": 5872,
      "урван": 5873,
      "өдөө": 5874,
      "зөрч": 5875,
      "хнэр": 5876,
      "араг": 5877,
      "ахл": 5878,
      "охиол": 5879,
      "оосоо": 5880,
      "ру": 5881,
      "иал": 5882,
      "лла": 5883,
      "ргүй": 5884,
      "свэр": 5885,
      "гтой": 5886,
      "нээр": 5887,
      "ино": 5888,
      "игд": 5889,
      "ахин": 5890,
      "аяла": 5891,
      "мөрий": 5892,
      "зийн": 5893,
      "ниг": 5894,
      "сам": 5895,
      "өөрчи": 5896,
      "давта": 5897,
      "игдөр": 5898,
      "face": 5899,
      "саа": 5900,
      "цхан": 5901,
      "рлыг": 5902,
      "уун": 5903,
      "дрүүд": 5904,
      "тлө": 5905,
      "уламж": 5906,
      "тоол": 5907,
      "цаад": 5908,
      "аза": 5909,
      "глал": 5910,
      "of": 5911,
      "лдаг": 5912,
      "үүлсэ": 5913,
      "зээ": 5914,
      "##ri": 5915,
      "арьц": 5916,
      "зори": 5917,
      "өвл": 5918,
      "члэн": 5919,
      "цас": 5920,
      "готой": 5921,
      "улж": 5922,
      "эвлэ": 5923,
      "сх": 5924,
      "олло": 5925,
      "тулга": 5926,
      "вчи": 5927,
      "рө": 5928,
      "тик": 5929,
      "гчийн": 5930,
      "осоо": 5931,
      "app": 5932,
      "рха": 5933,
      "гдө": 5934,
      "лэгээ": 5935,
      "үний": 5936,
      "оход": 5937,
      "үвшин": 5938,
      "рны": 5939,
      "өөх": 5940,
      "90": 5941,
      "el": 5942,
      "лэгт": 5943,
      "оёл": 5944,
      "эми": 5945,
      "өвлөл": 5946,
      "энээс": 5947,
      "бурх": 5948,
      "гдаад": 5949,
      "70": 5950,
      "##ел": 5951,
      "асуух": 5952,
      "заса": 5953,
      "багта": 5954,
      "эгдэл": 5955,
      "ац": 5956,
      "кц": 5957,
      "ерик": 5958,
      "стэй": 5959,
      "гдана": 5960,
      "инж": 5961,
      "гадаа": 5962,
      "лнэ": 5963,
      "орь": 5964,
      "эгээ": 5965,
      "уха": 5966,
      "төрч": 5967,
      "омж": 5968,
      "орм": 5969,
      "магт": 5970,
      "олдох": 5971,
      "үхэлд": 5972,
      "вгүй": 5973,
      "йз": 5974,
      "ног": 5975,
      "соор": 5976,
      "лбэл": 5977,
      "мсэ": 5978,
      "нгүй": 5979,
      "антай": 5980,
      "логч": 5981,
      "ваа": 5982,
      "хөнгө": 5983,
      "яда": 5984,
      "ийл": 5985,
      "үүхэн": 5986,
      "омт": 5987,
      "ламжл": 5988,
      "дүүл": 5989,
      "лом": 5990,
      "рэл": 5991,
      "цэнэ": 5992,
      "урс": 5993,
      "лэлт": 5994,
      "зово": 5995,
      "эгэх": 5996,
      "йлдв": 5997,
      "гаарт": 5998,
      "хориг": 5999,
      "ii": 6000,
      "ийгм": 6001,
      "вөө": 6002,
      "алан": 6003,
      "эрийг": 6004,
      "амп": 6005,
      "гаач": 6006,
      "бөө": 6007,
      "лүүд": 6008,
      "рэн": 6009,
      "өрүү": 6010,
      "урав": 6011,
      "мб": 6012,
      "цор": 6013,
      "ндөр": 6014,
      "дурла": 6015,
      "стан": 6016,
      "гил": 6017,
      "длаа": 6018,
      "араас": 6019,
      "ариа": 6020,
      "тайв": 6021,
      "болоо": 6022,
      "рээд": 6023,
      "цоо": 6024,
      "орч": 6025,
      "илсэн": 6026,
      "алар": 6027,
      "осууд": 6028,
      "пер": 6029,
      "эрчи": 6030,
      "lo": 6031,
      "ош": 6032,
      "өгд": 6033,
      "лтгэ": 6034,
      "атр": 6035,
      "шги": 6036,
      "энг": 6037,
      "ндан": 6038,
      "бусд": 6039,
      "йхны": 6040,
      "наар": 6041,
      "по": 6042,
      "онх": 6043,
      "дуур": 6044,
      "лбан": 6045,
      "гөлдө": 6046,
      "нан": 6047,
      "утай": 6048,
      "этэй": 6049,
      "эхэн": 6050,
      "мэс": 6051,
      "зүг": 6052,
      "сор": 6053,
      "рьж": 6054,
      "аадм": 6055,
      "for": 6056,
      "мий": 6057,
      "##is": 6058,
      "ууны": 6059,
      "бутл": 6060,
      "ндын": 6061,
      "ондоо": 6062,
      "сек": 6063,
      "хаас": 6064,
      "алууд": 6065,
      "өрөв": 6066,
      "айлы": 6067,
      "нжи": 6068,
      "эгсэ": 6069,
      "ргээ": 6070,
      "слан": 6071,
      "ливаа": 6072,
      "дагч": 6073,
      "ныхаа": 6074,
      "хааны": 6075,
      "олог": 6076,
      "ург": 6077,
      "гомд": 6078,
      "ххк": 6079,
      "сд": 6080,
      "вд": 6081,
      "ийт": 6082,
      "үни": 6083,
      "глах": 6084,
      "римт": 6085,
      "##руу": 6086,
      "гна": 6087,
      "анч": 6088,
      "ндий": 6089,
      "римтл": 6090,
      "очи": 6091,
      "нэгдэ": 6092,
      "шөө": 6093,
      "ийгээ": 6094,
      "лна": 6095,
      "мжтай": 6096,
      "үлдэ": 6097,
      "имп": 6098,
      "ья": 6099,
      "##art": 6100,
      "wor": 6101,
      "##бли": 6102,
      "эгдл": 6103,
      "ичээд": 6104,
      "нага": 6105,
      "sp": 6106,
      "уудл": 6107,
      "атг": 6108,
      "өгө": 6109,
      "мун": 6110,
      "жг": 6111,
      "##ir": 6112,
      "хараа": 6113,
      "am": 6114,
      "вээ": 6115,
      "ки": 6116,
      "хк": 6117,
      "сти": 6118,
      "хлээд": 6119,
      "it": 6120,
      "гөн": 6121,
      "адал": 6122,
      "23": 6123,
      "эмнэ": 6124,
      "and": 6125,
      "ау": 6126,
      "нгаа": 6127,
      "галз": 6128,
      "дүүд": 6129,
      "дра": 6130,
      "##өрө": 6131,
      "одруу": 6132,
      "агнуу": 6133,
      "далт": 6134,
      "усдаа": 6135,
      "цэст": 6136,
      "аргыг": 6137,
      "санда": 6138,
      "эхээр": 6139,
      "эмэл": 6140,
      "гя": 6141,
      "лир": 6142,
      "ралт": 6143,
      "үүдэ": 6144,
      "шинэч": 6145,
      "азр": 6146,
      "хирол": 6147,
      "бан": 6148,
      "лр": 6149,
      "үнэт": 6150,
      "нил": 6151,
      "цаана": 6152,
      "иун": 6153,
      "ia": 6154,
      "арагд": 6155,
      "ооч": 6156,
      "ими": 6157,
      "гуул": 6158,
      "тно": 6159,
      "олбо": 6160,
      "урва": 6161,
      "улгах": 6162,
      "сахи": 6163,
      "порт": 6164,
      "ориг": 6165,
      "мжил": 6166,
      "хио": 6167,
      "руун": 6168,
      "иуд": 6169,
      "is": 6170,
      "жол": 6171,
      "яд": 6172,
      "##ee": 6173,
      "гдлаа": 6174,
      "аард": 6175,
      "унтаг": 6176,
      "ргүүл": 6177,
      "гсаал": 6178,
      "рон": 6179,
      "айта": 6180,
      "араан": 6181,
      "тас": 6182,
      "амр": 6183,
      "элдэ": 6184,
      "инэ": 6185,
      "турши": 6186,
      "bl": 6187,
      "зэ": 6188,
      "мууд": 6189,
      "##ат": 6190,
      "лбэ": 6191,
      "ногоо": 6192,
      "удаг": 6193,
      "##xt": 6194,
      "ээжи": 6195,
      "аяс": 6196,
      "овс": 6197,
      "зөрчи": 6198,
      "йт": 6199,
      "этг": 6200,
      "дэс": 6201,
      "жолоо": 6202,
      "вилг": 6203,
      "галт": 6204,
      "ети": 6205,
      "уут": 6206,
      "жилж": 6207,
      "яс": 6208,
      "аяга": 6209,
      "авса": 6210,
      "дөх": 6211,
      "об": 6212,
      "тийн": 6213,
      "хүй": 6214,
      "гарт": 6215,
      "эвд": 6216,
      "нсу": 6217,
      "рак": 6218,
      "ундаа": 6219,
      "рги": 6220,
      "уухан": 6221,
      "өрөөс": 6222,
      "дсан": 6223,
      "ална": 6224,
      "пп": 6225,
      "пон": 6226,
      "гаж": 6227,
      "или": 6228,
      "түгэ": 6229,
      "ген": 6230,
      "do": 6231,
      "лго": 6232,
      "олно": 6233,
      "уурай": 6234,
      "эцг": 6235,
      "суул": 6236,
      "уус": 6237,
      "ори": 6238,
      "лгар": 6239,
      "угт": 6240,
      "цр": 6241,
      "түүн": 6242,
      "йлт": 6243,
      "ирийн": 6244,
      "эвэр": 6245,
      "ель": 6246,
      "нхүүг": 6247,
      "ийтлэ": 6248,
      "болсн": 6249,
      "библи": 6250,
      "гов": 6251,
      "win": 6252,
      "йгаа": 6253,
      "луун": 6254,
      "чээр": 6255,
      "ахил": 6256,
      "гдол": 6257,
      "эвтэ": 6258,
      "гы": 6259,
      "олгүй": 6260,
      "аруул": 6261,
      "өрл": 6262,
      "эмсэ": 6263,
      "ng": 6264,
      "##оли": 6265,
      "орго": 6266,
      "эдгэ": 6267,
      "эле": 6268,
      "аши": 6269,
      "лалын": 6270,
      "##vi": 6271,
      "элч": 6272,
      "оми": 6273,
      "200": 6274,
      "##ack": 6275,
      "na": 6276,
      "аарна": 6277,
      "pl": 6278,
      "хлаа": 6279,
      "элцэ": 6280,
      "шид": 6281,
      "ролц": 6282,
      "эт": 6283,
      "##со": 6284,
      "##єр": 6285,
      "bo": 6286,
      "us": 6287,
      "лууд": 6288,
      "млэ": 6289,
      "сээс": 6290,
      "ааз": 6291,
      "гда": 6292,
      "өхийн": 6293,
      "увь": 6294,
      "mon": 6295,
      "гла": 6296,
      "лээс": 6297,
      "gr": 6298,
      "луур": 6299,
      "арын": 6300,
      "хурим": 6301,
      "рлал": 6302,
      "28": 6303,
      "элгэ": 6304,
      "хуви": 6305,
      "дов": 6306,
      "риун": 6307,
      "өхөөр": 6308,
      "рьдчи": 6309,
      "ьяа": 6310,
      "ирч": 6311,
      "ных": 6312,
      "жих": 6313,
      "лонг": 6314,
      "ахиад": 6315,
      "тер": 6316,
      "ндр": 6317,
      "шинг": 6318,
      "сы": 6319,
      "ааши": 6320,
      "алг": 6321,
      "агва": 6322,
      "гааг": 6323,
      "ашт": 6324,
      "ol": 6325,
      "ачи": 6326,
      "йтай": 6327,
      "ологи": 6328,
      "рсэн": 6329,
      "цго": 6330,
      "архан": 6331,
      "авр": 6332,
      "эдлэ": 6333,
      "аса": 6334,
      "гдуул": 6335,
      "айлд": 6336,
      "чигдө": 6337,
      "буу": 6338,
      "гүү": 6339,
      "ьд": 6340,
      "гдал": 6341,
      "илг": 6342,
      "саж": 6343,
      "сураг": 6344,
      "26": 6345,
      "up": 6346,
      "хтай": 6347,
      "лдөг": 6348,
      "бн": 6349,
      "дод": 6350,
      "рдэг": 6351,
      "насан": 6352,
      "дож": 6353,
      "жлэх": 6354,
      "рүүн": 6355,
      "рчих": 6356,
      "##ни": 6357,
      "рвэ": 6358,
      "эгдү": 6359,
      "авья": 6360,
      "дэн": 6361,
      "өт": 6362,
      "ргэл": 6363,
      "цом": 6364,
      "аргал": 6365,
      "ахим": 6366,
      "өрх": 6367,
      "жлал": 6368,
      "екс": 6369,
      "автом": 6370,
      "дит": 6371,
      "арчи": 6372,
      "амба": 6373,
      "үйлс": 6374,
      "эвш": 6375,
      "ойн": 6376,
      "em": 6377,
      "мийг": 6378,
      "сч": 6379,
      "рагч": 6380,
      "ржи": 6381,
      "цан": 6382,
      "уулаа": 6383,
      "элэг": 6384,
      "үрэг": 6385,
      "слийн": 6386,
      "ке": 6387,
      "саны": 6388,
      "гыг": 6389,
      "сий": 6390,
      "эри": 6391,
      "утаа": 6392,
      "айлт": 6393,
      "ээжий": 6394,
      "рнээ": 6395,
      "рад": 6396,
      "##ul": 6397,
      "снээ": 6398,
      "##ube": 6399,
      "овсро": 6400,
      "mo": 6401,
      "ртээ": 6402,
      "лдл": 6403,
      "атга": 6404,
      "рамса": 6405,
      "шуула": 6406,
      "27": 6407,
      "эрм": 6408,
      "хүнээ": 6409,
      "post": 6410,
      "зэг": 6411,
      "ижиг": 6412,
      "уги": 6413,
      "логд": 6414,
      "рва": 6415,
      "ууу": 6416,
      "ээсэн": 6417,
      "атуу": 6418,
      "вры": 6419,
      "ri": 6420,
      "тгаа": 6421,
      "лирал": 6422,
      "аашид": 6423,
      "qu": 6424,
      "ноор": 6425,
      "нэхэ": 6426,
      "азрын": 6427,
      "et": 6428,
      "жуу": 6429,
      "цог": 6430,
      "сайта": 6431,
      "овоо": 6432,
      "нгөн": 6433,
      "лэсэн": 6434,
      "рний": 6435,
      "ьж": 6436,
      "мжлэ": 6437,
      "гөөр": 6438,
      "эмлэ": 6439,
      "уйв": 6440,
      "son": 6441,
      "tube": 6442,
      "дд": 6443,
      "min": 6444,
      "бр": 6445,
      "боо": 6446,
      "өглө": 6447,
      "логоо": 6448,
      "акц": 6449,
      "гоос": 6450,
      "мны": 6451,
      "айла": 6452,
      "усды": 6453,
      "ргууд": 6454,
      "ймг": 6455,
      "тсаа": 6456,
      "ийд": 6457,
      "аду": 6458,
      "агдал": 6459,
      "удалд": 6460,
      "увс": 6461,
      "айс": 6462,
      "улна": 6463,
      "авх": 6464,
      "ойлг": 6465,
      "рөөс": 6466,
      "орш": 6467,
      "тулг": 6468,
      "ост": 6469,
      "түвши": 6470,
      "жий": 6471,
      "үлээ": 6472,
      "үүлд": 6473,
      "сөх": 6474,
      "##кс": 6475,
      "юул": 6476,
      "йгаад": 6477,
      "ge": 6478,
      "рав": 6479,
      "үнийг": 6480,
      "эрэлт": 6481,
      "хала": 6482,
      "ет": 6483,
      "мм": 6484,
      "сдий": 6485,
      "даал": 6486,
      "урай": 6487,
      "адар": 6488,
      "лгуул": 6489,
      "ондо": 6490,
      "голын": 6491,
      "next": 6492,
      "рлэ": 6493,
      "илдэг": 6494,
      "банк": 6495,
      "арва": 6496,
      "хэний": 6497,
      "рми": 6498,
      "iph": 6499,
      "тэж": 6500,
      "нтр": 6501,
      "өц": 6502,
      "ардаг": 6503,
      "өнцө": 6504,
      "ды": 6505,
      "енд": 6506,
      "лсон": 6507,
      "уп": 6508,
      "цү": 6509,
      "##ke": 6510,
      "амда": 6511,
      "эгнэ": 6512,
      "лдарт": 6513,
      "йлгэ": 6514,
      "шилж": 6515,
      "мээ": 6516,
      "цөл": 6517,
      "##ов": 6518,
      "хуура": 6519,
      "apple": 6520,
      "айт": 6521,
      "хах": 6522,
      "огло": 6523,
      "шөөрө": 6524,
      "ex": 6525,
      "ni": 6526,
      "амс": 6527,
      "амаас": 6528,
      "сайхн": 6529,
      "үрэн": 6530,
      "нгээ": 6531,
      "vi": 6532,
      "500": 6533,
      "hd": 6534,
      "ина": 6535,
      "##ль": 6536,
      "онт": 6537,
      "уулын": 6538,
      "алтыг": 6539,
      "чдийн": 6540,
      "вьяа": 6541,
      "ртэй": 6542,
      "арна": 6543,
      "даан": 6544,
      "лдсон": 6545,
      "аагч": 6546,
      "lin": 6547,
      "гуу": 6548,
      "дм": 6549,
      "шн": 6550,
      "үйс": 6551,
      "ti": 6552,
      "длэ": 6553,
      "үүтэй": 6554,
      "хац": 6555,
      "онин": 6556,
      "дулаа": 6557,
      "##and": 6558,
      "чаа": 6559,
      "ют": 6560,
      "эне": 6561,
      "өхөр": 6562,
      "ргыг": 6563,
      "оёул": 6564,
      "at": 6565,
      "нхан": 6566,
      "##ей": 6567,
      "үүхий": 6568,
      "члө": 6569,
      "энт": 6570,
      "ала": 6571,
      "арма": 6572,
      "хов": 6573,
      "цац": 6574,
      "ригд": 6575,
      "тгаар": 6576,
      "si": 6577,
      "##лай": 6578,
      "##сөн": 6579,
      "буц": 6580,
      "акт": 6581,
      "pro": 6582,
      "орой": 6583,
      "өдий": 6584,
      "инг": 6585,
      "нийлү": 6586,
      "авуу": 6587,
      "удам": 6588,
      "йнхаа": 6589,
      "home": 6590,
      "ирээ": 6591,
      "длийн": 6592,
      "имээ": 6593,
      "вт": 6594,
      "ром": 6595,
      "ттай": 6596,
      "эрэ": 6597,
      "лтууд": 6598,
      "цус": 6599,
      "олов": 6600,
      "##ore": 6601,
      "мь": 6602,
      "чийг": 6603,
      "алтан": 6604,
      "йлын": 6605,
      "рэгжи": 6606,
      "таса": 6607,
      "асаа": 6608,
      "идео": 6609,
      "гээн": 6610,
      "роос": 6611,
      "эрдэ": 6612,
      "үнээр": 6613,
      "гадаг": 6614,
      "иул": 6615,
      "##це": 6616,
      "лтоо": 6617,
      "рхэм": 6618,
      "тодор": 6619,
      "зоч": 6620,
      "тооцо": 6621,
      "##вор": 6622,
      "авха": 6623,
      "өгш": 6624,
      "нгуй": 6625,
      "##ле": 6626,
      "они": 6627,
      "ааруу": 6628,
      "аарах": 6629,
      "эмх": 6630,
      "сгөл": 6631,
      "##ra": 6632,
      "уусан": 6633,
      "хард": 6634,
      "нлай": 6635,
      "дөлгө": 6636,
      "аларх": 6637,
      "кт": 6638,
      "ариг": 6639,
      "la": 6640,
      "өрчл": 6641,
      "өнөөд": 6642,
      "члах": 6643,
      "галг": 6644,
      "нэвт": 6645,
      "ad": 6646,
      "улчи": 6647,
      "буд": 6648,
      "нгар": 6649,
      "read": 6650,
      "өлсөн": 6651,
      "35": 6652,
      "ууц": 6653,
      "ило": 6654,
      "чиж": 6655,
      "айч": 6656,
      "өрөн": 6657,
      "охой": 6658,
      "лдох": 6659,
      "эрхэн": 6660,
      "андан": 6661,
      "аагаа": 6662,
      "өгсө": 6663,
      "вта": 6664,
      "иан": 6665,
      "пу": 6666,
      "элбэ": 6667,
      "жинг": 6668,
      "суулт": 6669,
      "windo": 6670,
      "mar": 6671,
      "ег": 6672,
      "өгжл": 6673,
      "төрө": 6674,
      "эрлэж": 6675,
      "гууд": 6676,
      "етр": 6677,
      "вчл": 6678,
      "уучи": 6679,
      "үүг": 6680,
      "ора": 6681,
      "элгүй": 6682,
      "адл": 6683,
      "бодло": 6684,
      "өхр": 6685,
      "угта": 6686,
      "лгий": 6687,
      "гчээ": 6688,
      "игчд": 6689,
      "сгэх": 6690,
      "баата": 6691,
      "ty": 6692,
      "вээр": 6693,
      "нто": 6694,
      "онлай": 6695,
      "учл": 6696,
      "осл": 6697,
      "марга": 6698,
      "мыг": 6699,
      "чө": 6700,
      "асга": 6701,
      "гтвор": 6702,
      "рок": 6703,
      "хага": 6704,
      "ver": 6705,
      "дэнэ": 6706,
      "жон": 6707,
      "йса": 6708,
      "улаг": 6709,
      "ааныг": 6710,
      "гут": 6711,
      "дирд": 6712,
      "##ce": 6713,
      "авс": 6714,
      "лдаа": 6715,
      "нгуу": 6716,
      "гийнх": 6717,
      "цс": 6718,
      "хийлэ": 6719,
      "bi": 6720,
      "##бор": 6721,
      "асла": 6722,
      "хэвч": 6723,
      "агу": 6724,
      "##зи": 6725,
      "##se": 6726,
      "нэрээ": 6727,
      "авахы": 6728,
      "ээлээ": 6729,
      "ангил": 6730,
      "ллаа": 6731,
      "ири": 6732,
      "йлго": 6733,
      "лолт": 6734,
      "еми": 6735,
      "мнө": 6736,
      "юү": 6737,
      "арц": 6738,
      "нэгт": 6739,
      "асай": 6740,
      "үжигч": 6741,
      "май": 6742,
      "алий": 6743,
      "илгаа": 6744,
      "усла": 6745,
      "төлбө": 6746,
      "ишүү": 6747,
      "мэх": 6748,
      "сын": 6749,
      "айна": 6750,
      "орилг": 6751,
      "өрш": 6752,
      "лги": 6753,
      "увил": 6754,
      "хэвт": 6755,
      "таала": 6756,
      "ийхээ": 6757,
      "лдуу": 6758,
      "үчээ": 6759,
      "##olo": 6760,
      "ддог": 6761,
      "su": 6762,
      "шт": 6763,
      "алс": 6764,
      "орлу": 6765,
      "асс": 6766,
      "mac": 6767,
      "sa": 6768,
      "мор": 6769,
      "нгө": 6770,
      "анс": 6771,
      "ндээс": 6772,
      "аала": 6773,
      "атгал": 6774,
      "мнөд": 6775,
      "45": 6776,
      "fi": 6777,
      "охио": 6778,
      "io": 6779,
      "ra": 6780,
      "гэнд": 6781,
      "ниа": 6782,
      "рим": 6783,
      "цаан": 6784,
      "өлдөг": 6785,
      "лли": 6786,
      "улган": 6787,
      "ех": 6788,
      "йч": 6789,
      "##ди": 6790,
      "##фт": 6791,
      "өгж": 6792,
      "адуу": 6793,
      "рчүүд": 6794,
      "засва": 6795,
      "comm": 6796,
      "лэв": 6797,
      "өөл": 6798,
      "нийх": 6799,
      "шоу": 6800,
      "we": 6801,
      "лос": 6802,
      "дурс": 6803,
      "чигл": 6804,
      "ry": 6805,
      "ням": 6806,
      "jo": 6807,
      "мэг": 6808,
      "##ян": 6809,
      "дарс": 6810,
      "члэх": 6811,
      "захиа": 6812,
      "гэн": 6813,
      "мши": 6814,
      "нго": 6815,
      "янга": 6816,
      "анб": 6817,
      "хувц": 6818,
      "лэгд": 6819,
      "үсг": 6820,
      "ово": 6821,
      "мгий": 6822,
      "гтэй": 6823,
      "мас": 6824,
      "үйт": 6825,
      "300": 6826,
      "түвш": 6827,
      "кг": 6828,
      "авир": 6829,
      "эгдэ": 6830,
      "даас": 6831,
      "өсв": 6832,
      "ичнэ": 6833,
      "три": 6834,
      "хөөр": 6835,
      "айма": 6836,
      "эдээ": 6837,
      "нди": 6838,
      "рэгт": 6839,
      "нте": 6840,
      "пор": 6841,
      "эмс": 6842,
      "лха": 6843,
      "ёо": 6844,
      "##uck": 6845,
      "алл": 6846,
      "охон": 6847,
      "лгыг": 6848,
      "ээлж": 6849,
      "түм": 6850,
      "игт": 6851,
      "оёрду": 6852,
      "ргу": 6853,
      "цсан": 6854,
      "##ки": 6855,
      "ура": 6856,
      "илт": 6857,
      "отор": 6858,
      "эрэгж": 6859,
      "дох": 6860,
      "адам": 6861,
      "мжин": 6862,
      "miss": 6863,
      "уудлы": 6864,
      "рхай": 6865,
      "бичи": 6866,
      "улаад": 6867,
      "ахиа": 6868,
      "үсийн": 6869,
      "лабор": 6870,
      "ант": 6871,
      "үйц": 6872,
      "ома": 6873,
      "go": 6874,
      "цг": 6875,
      "үтэ": 6876,
      "айха": 6877,
      "алз": 6878,
      "өлт": 6879,
      "амжаа": 6880,
      "раах": 6881,
      "as": 6882,
      "cl": 6883,
      "рван": 6884,
      "элийг": 6885,
      "асл": 6886,
      "айран": 6887,
      "жлэ": 6888,
      "уудаг": 6889,
      "ури": 6890,
      "уудаа": 6891,
      "шиж": 6892,
      "йлчи": 6893,
      "гял": 6894,
      "лгаа": 6895,
      "мэн": 6896,
      "рох": 6897,
      "ууг": 6898,
      "олзо": 6899,
      "онги": 6900,
      "эрхтэ": 6901,
      "wn": 6902,
      "анда": 6903,
      "man": 6904,
      "ph": 6905,
      "мэгд": 6906,
      "уга": 6907,
      "##de": 6908,
      "##ун": 6909,
      "өлг": 6910,
      "##ue": 6911,
      "олз": 6912,
      "арл": 6913,
      "ураа": 6914,
      "билэ": 6915,
      "##all": 6916,
      "элцээ": 6917,
      "цөлд": 6918,
      "гло": 6919,
      "##шаа": 6920,
      "эгс": 6921,
      "давт": 6922,
      "di": 6923,
      "зөн": 6924,
      "сыг": 6925,
      "чүү": 6926,
      "илга": 6927,
      "барил": 6928,
      "лице": 6929,
      "врийн": 6930,
      "ект": 6931,
      "онс": 6932,
      "ихгүй": 6933,
      "ээгээ": 6934,
      "дсон": 6935,
      "дер": 6936,
      "мц": 6937,
      "алийн": 6938,
      "алта": 6939,
      "йдл": 6940,
      "ьсон": 6941,
      "##үт": 6942,
      "ийц": 6943,
      "орлог": 6944,
      "эрэм": 6945,
      "үрээ": 6946,
      "эсэ": 6947,
      "нөхө": 6948,
      "бы": 6949,
      "см": 6950,
      "##цо": 6951,
      "элгээ": 6952,
      "тарх": 6953,
      "ариул": 6954,
      "es": 6955,
      "налт": 6956,
      "хн": 6957,
      "эрлэг": 6958,
      "гаанд": 6959,
      "оотой": 6960,
      "лалд": 6961,
      "ta": 6962,
      "раар": 6963,
      "тсан": 6964,
      "байг": 6965,
      "авта": 6966,
      "асра": 6967,
      "агаж": 6968,
      "con": 6969,
      "мүү": 6970,
      "єг": 6971,
      "алч": 6972,
      "өгдө": 6973,
      "рхон": 6974,
      "хид": 6975,
      "29": 6976,
      "вроп": 6977,
      "гоод": 6978,
      "гдо": 6979,
      "аарч": 6980,
      "нгоо": 6981,
      "рхийн": 6982,
      "атар": 6983,
      "нөхц": 6984,
      "vн": 6985,
      "малт": 6986,
      "рээн": 6987,
      "хд": 6988,
      "янг": 6989,
      "рила": 6990,
      "##ort": 6991,
      "tw": 6992,
      "сээ": 6993,
      "цуу": 6994,
      "улах": 6995,
      "тушаа": 6996,
      "үгс": 6997,
      "ргуул": 6998,
      "yolo": 6999,
      "гтай": 7000,
      "км": 7001,
      "рлаг": 7002,
      "ээний": 7003,
      "аний": 7004,
      "одит": 7005,
      "унг": 7006,
      "ie": 7007,
      "wi": 7008,
      "овч": 7009,
      "пар": 7010,
      "удл": 7011,
      "хож": 7012,
      "эгний": 7013,
      "сүм": 7014,
      "гооли": 7015,
      "by": 7016,
      "во": 7017,
      "##нг": 7018,
      "албар": 7019,
      "өгүй": 7020,
      "лагад": 7021,
      "кси": 7022,
      "тгэгд": 7023,
      "өлгөө": 7024,
      "код": 7025,
      "тэх": 7026,
      "эгтэ": 7027,
      "лба": 7028,
      "уури": 7029,
      "радио": 7030,
      "тууд": 7031,
      "тло": 7032,
      "##ht": 7033,
      "угаад": 7034,
      "раи": 7035,
      "илгоо": 7036,
      "бс": 7037,
      "лло": 7038,
      "өш": 7039,
      "гиш": 7040,
      "рган": 7041,
      "өрөөд": 7042,
      "льс": 7043,
      "##ent": 7044,
      "чирх": 7045,
      "wh": 7046,
      "ндөө": 7047,
      "тоон": 7048,
      "цсийн": 7049,
      "so": 7050,
      "зм": 7051,
      "рэ": 7052,
      "рнө": 7053,
      "цла": 7054,
      "анан": 7055,
      "йнхан": 7056,
      "оож": 7057,
      "тоох": 7058,
      "дамжи": 7059,
      "оловс": 7060,
      "32": 7061,
      "гон": 7062,
      "рууд": 7063,
      "рчиг": 7064,
      "өат": 7065,
      "##ми": 7066,
      "##vid": 7067,
      "##фи": 7068,
      "үүж": 7069,
      "амг": 7070,
      "илл": 7071,
      "тов": 7072,
      "хрий": 7073,
      "ba": 7074,
      "je": 7075,
      "тдаг": 7076,
      "алин": 7077,
      "урса": 7078,
      "мэдр": 7079,
      "элх": 7080,
      "эсв": 7081,
      "гэрл": 7082,
      "амжу": 7083,
      "31": 7084,
      "pe": 7085,
      "нчи": 7086,
      "урах": 7087,
      "агс": 7088,
      "слийг": 7089,
      "төсөө": 7090,
      "##ill": 7091,
      "!!": 7092,
      "вг": 7093,
      "рхан": 7094,
      "айтай": 7095,
      "өрн": 7096,
      "еж": 7097,
      "хоро": 7098,
      "эдв": 7099,
      "ада": 7100,
      "рек": 7101,
      "чилг": 7102,
      "тээр": 7103,
      "гэсн": 7104,
      "уулна": 7105,
      "үхэр": 7106,
      "##ard": 7107,
      "he": 7108,
      "жүүд": 7109,
      "сла": 7110,
      "шоо": 7111,
      "##ее": 7112,
      "авал": 7113,
      "дэж": 7114,
      "слүү": 7115,
      "рөөр": 7116,
      "mic": 7117,
      "вин": 7118,
      "лэнэ": 7119,
      "нта": 7120,
      "этгэл": 7121,
      "sc": 7122,
      "гой": 7123,
      "уулиа": 7124,
      "оосон": 7125,
      "анди": 7126,
      "олооч": 7127,
      "нти": 7128,
      "пла": 7129,
      "рр": 7130,
      "##во": 7131,
      "ийв": 7132,
      "энүү": 7133,
      "агал": 7134,
      "одоог": 7135,
      "батл": 7136,
      "тгэх": 7137,
      "хvн": 7138,
      "ваг": 7139,
      "ртой": 7140,
      "##va": 7141,
      "ийнэ": 7142,
      "os": 7143,
      "арийн": 7144,
      "##ама": 7145,
      "##ори": 7146,
      "эмт": 7147,
      "лдо": 7148,
      "##itt": 7149,
      "сэгт": 7150,
      "огдол": 7151,
      "жгүй": 7152,
      "сад": 7153,
      "сса": 7154,
      "##te": 7155,
      "##олд": 7156,
      "харх": 7157,
      "өөрө": 7158,
      "хама": 7159,
      "гаах": 7160,
      "улагч": 7161,
      "##си": 7162,
      "ором": 7163,
      "амаа": 7164,
      "сурт": 7165,
      "длаас": 7166,
      "йлга": 7167,
      "ялал": 7168,
      "изи": 7169,
      "ршлаг": 7170,
      "00": 7171,
      "ft": 7172,
      "ийнхэ": 7173,
      "дээл": 7174,
      "үлэгч": 7175,
      "ce": 7176,
      "my": 7177,
      "мх": 7178,
      "ьдаг": 7179,
      "лтаа": 7180,
      "мжл": 7181,
      "##бот": 7182,
      "өсч": 7183,
      "иц": 7184,
      "ким": 7185,
      "аст": 7186,
      "тэрг": 7187,
      "үүдээ": 7188,
      "лөгд": 7189,
      "хори": 7190,
      "рилт": 7191,
      "br": 7192,
      "мра": 7193,
      "уа": 7194,
      "хаш": 7195,
      "агса": 7196,
      "үрдэ": 7197,
      "үлэлт": 7198,
      "лдах": 7199,
      "усга": 7200,
      "хиолд": 7201,
      "ргэд": 7202,
      "рман": 7203,
      "уршил": 7204,
      "op": 7205,
      "джээ": 7206,
      "рилц": 7207,
      "чр": 7208,
      "голд": 7209,
      "ээгдэ": 7210,
      "вьса": 7211,
      "гөлө": 7212,
      "word": 7213,
      "im": 7214,
      "же": 7215,
      "элчи": 7216,
      "учра": 7217,
      "net": 7218,
      "лгав": 7219,
      "ени": 7220,
      "##ame": 7221,
      "умын": 7222,
      "##la": 7223,
      "ойг": 7224,
      "олгоо": 7225,
      "овло": 7226,
      "36": 7227,
      "da": 7228,
      "лил": 7229,
      "мик": 7230,
      "тт": 7231,
      "че": 7232,
      "анса": 7233,
      "ажи": 7234,
      "лдаан": 7235,
      "учраа": 7236,
      "галаа": 7237,
      "өөний": 7238,
      "бб": 7239,
      "зг": 7240,
      "нб": 7241,
      "рыг": 7242,
      "гчийг": 7243,
      "лэнг": 7244,
      "рүүг": 7245,
      "ber": 7246,
      "fuck": 7247,
      "тро": 7248,
      "ях": 7249,
      "айг": 7250,
      "алгаа": 7251,
      "өртэй": 7252,
      "ерө": 7253,
      "бх": 7254,
      "ари": 7255,
      "анар": 7256,
      "инаа": 7257,
      "нху": 7258,
      "рууг": 7259,
      "гурв": 7260,
      "лана": 7261,
      "өдрөө": 7262,
      "##ree": 7263,
      "хууч": 7264,
      "амраг": 7265,
      "ичих": 7266,
      "лцаа": 7267,
      "уис": 7268,
      "орил": 7269,
      "өмө": 7270,
      "лгуу": 7271,
      "нган": 7272,
      "длий": 7273,
      "зул": 7274,
      "рсний": 7275,
      "лоос": 7276,
      "мнэл": 7277,
      "сэнд": 7278,
      "үзүү": 7279,
      "уда": 7280,
      "угар": 7281,
      "нес": 7282,
      "33": 7283,
      "48": 7284,
      "гийг": 7285,
      "зуу": 7286,
      "рб": 7287,
      "ээнэ": 7288,
      "үчи": 7289,
      "##ia": 7290,
      "ийж": 7291,
      "уура": 7292,
      "олыг": 7293,
      "араад": 7294,
      "адах": 7295,
      "үеэ": 7296,
      "мжилт": 7297,
      "ймэр": 7298,
      "ub": 7299,
      "лчид": 7300,
      "##ѳѳ": 7301,
      "арал": 7302,
      "ндо": 7303,
      "##лагы": 7304,
      "йлж": 7305,
      "үйцэ": 7306,
      "нээг": 7307,
      "ртэ": 7308,
      "анууд": 7309,
      "аги": 7310,
      "эвр": 7311,
      "йгуул": 7312,
      "рдэм": 7313,
      "##ing": 7314,
      "уйц": 7315,
      "vз": 7316,
      "мжаа": 7317,
      "үүрс": 7318,
      "##ang": 7319,
      "int": 7320,
      "узар": 7321,
      "time": 7322,
      "вийг": 7323,
      "мэр": 7324,
      "дээж": 7325,
      "шигла": 7326,
      "мет": 7327,
      "хурда": 7328,
      "ag": 7329,
      "ha": 7330,
      "илүүд": 7331,
      "лдэ": 7332,
      "дөрв": 7333,
      "долд": 7334,
      "льд": 7335,
      "мл": 7336,
      "мла": 7337,
      "сөр": 7338,
      "##рх": 7339,
      "ары": 7340,
      "жит": 7341,
      "нов": 7342,
      "унга": 7343,
      "андуу": 7344,
      "ly": 7345,
      "зи": 7346,
      "лож": 7347,
      "адла": 7348,
      "үзэгд": 7349,
      "глуул": 7350,
      "eg": 7351,
      "дгүй": 7352,
      "ео": 7353,
      "рго": 7354,
      "харь": 7355,
      "тоос": 7356,
      "covid": 7357,
      "жагс": 7358,
      "еэ": 7359,
      "жу": 7360,
      "лчих": 7361,
      "мгүй": 7362,
      "ник": 7363,
      "##da": 7364,
      "ирга": 7365,
      "адм": 7366,
      "үрс": 7367,
      "длы": 7368,
      "робот": 7369,
      "чат": 7370,
      "риа": 7371,
      "үтгэ": 7372,
      "арх": 7373,
      "элдээ": 7374,
      "агууд": 7375,
      "андах": 7376,
      "##are": 7377,
      "##ate": 7378,
      "day": 7379,
      "gu": 7380,
      "ht": 7381,
      "ous": 7382,
      "sm": 7383,
      "ехно": 7384,
      "##пи": 7385,
      "лтгэл": 7386,
      "элг": 7387,
      "лдар": 7388,
      "дөрт": 7389,
      "драл": 7390,
      "чана": 7391,
      "ur": 7392,
      "гнэ": 7393,
      "йца": 7394,
      "араал": 7395,
      "лбэр": 7396,
      "босо": 7397,
      "tr": 7398,
      "ной": 7399,
      "хла": 7400,
      "аарал": 7401,
      "үүлэн": 7402,
      "мен": 7403,
      "хайрт": 7404,
      "эцэр": 7405,
      "ургам": 7406,
      "веб": 7407,
      "зэх": 7408,
      "рүүд": 7409,
      "цаар": 7410,
      "ирт": 7411,
      "удсан": 7412,
      "ros": 7413,
      "уди": 7414,
      "уурч": 7415,
      "үмн": 7416,
      "ккк": 7417,
      "дтэй": 7418,
      "чуул": 7419,
      "##ес": 7420,
      "тайл": 7421,
      "ндра": 7422,
      "эмб": 7423,
      "34": 7424,
      "oo": 7425,
      "гын": 7426,
      "йши": 7427,
      "##олт": 7428,
      "уугаа": 7429,
      "охгүй": 7430,
      "мөрд": 7431,
      "лчлэ": 7432,
      "75": 7433,
      "рийг": 7434,
      "туу": 7435,
      "өгийн": 7436,
      "агн": 7437,
      "сноо": 7438,
      "дрэ": 7439,
      "гэлз": 7440,
      "эгдсэ": 7441,
      "чдын": 7442,
      "жам": 7443,
      "заар": 7444,
      "өнөөг": 7445,
      "лцо": 7446,
      "глэл": 7447,
      "халт": 7448,
      "одлог": 7449,
      "зд": 7450,
      "эмжи": 7451,
      "өвчи": 7452,
      "инжи": 7453,
      "дуун": 7454,
      "##ери": 7455,
      "уурха": 7456,
      "тгэж": 7457,
      "рьс": 7458,
      "утги": 7459,
      "nt": 7460,
      "гса": 7461,
      "лма": 7462,
      "рли": 7463,
      "сэх": 7464,
      "эжи": 7465,
      "##тф": 7466,
      "өөж": 7467,
      "огчид": 7468,
      "цэс": 7469,
      "лцоог": 7470,
      "pr": 7471,
      "нтай": 7472,
      "сло": 7473,
      "ттер": 7474,
      "чм": 7475,
      "##ао": 7476,
      "##чил": 7477,
      "бит": 7478,
      "алц": 7479,
      "үсээ": 7480,
      "рчээ": 7481,
      "уурь": 7482,
      "уйд": 7483,
      "йнхээ": 7484,
      "рни": 7485,
      "тагда": 7486,
      "ian": 7487,
      "sam": 7488,
      "ву": 7489,
      "гта": 7490,
      "дийг": 7491,
      "урч": 7492,
      "адга": 7493,
      "дарч": 7494,
      "аяж": 7495,
      "зүрх": 7496,
      "more": 7497,
      "дги": 7498,
      "##лэл": 7499,
      "##ud": 7500,
      "энц": 7501,
      "аралт": 7502,
      "хун": 7503,
      "өндө": 7504,
      "бама": 7505,
      "год": 7506,
      "мгэ": 7507,
      "хих": 7508,
      "элэх": 7509,
      "өвс": 7510,
      "гөөд": 7511,
      "##lo": 7512,
      "ахав": 7513,
      "эрэгс": 7514,
      "ршуу": 7515,
      "mong": 7516,
      "twitt": 7517,
      "лалт": 7518,
      "тин": 7519,
      "үлэ": 7520,
      "адны": 7521,
      "жилл": 7522,
      "үргэ": 7523,
      "йрны": 7524,
      "new": 7525,
      "лосо": 7526,
      "fe": 7527,
      "ачих": 7528,
      "элтээ": 7529,
      "400": 7530,
      "платф": 7531,
      "вга": 7532,
      "нор": 7533,
      "рчид": 7534,
      "тв": 7535,
      "##бер": 7536,
      "агши": 7537,
      "эсий": 7538,
      "updo": 7539,
      "dur": 7540,
      "йва": 7541,
      "хлэ": 7542,
      "##ау": 7543,
      "лтүү": 7544,
      "уруул": 7545,
      "эгтэй": 7546,
      "инс": 7547,
      "цөм": 7548,
      "150": 7549,
      "баат": 7550,
      "tag": 7551,
      "вши": 7552,
      "гний": 7553,
      "цүүл": 7554,
      "члэ": 7555,
      "алах": 7556,
      "эрж": 7557,
      "үнээ": 7558,
      "удд": 7559,
      "эсэг": 7560,
      "лэхэд": 7561,
      "авьж": 7562,
      "зх": 7563,
      "##ld": 7564,
      "арлаг": 7565,
      "ланг": 7566,
      "игийн": 7567,
      "сдөө": 7568,
      "cr": 7569,
      "сго": 7570,
      "єє": 7571,
      "авиа": 7572,
      "эрвэ": 7573,
      "uni": 7574,
      "art": 7575,
      "##umx": 7576,
      "id": 7577,
      "цийг": 7578,
      "##ид": 7579,
      "урв": 7580,
      "хэлээ": 7581,
      "лдсэн": 7582,
      "үндэт": 7583,
      "ршил": 7584,
      "лхам": 7585,
      "огдож": 7586,
      "рлаж": 7587,
      "play": 7588,
      "ууууу": 7589,
      "удлын": 7590,
      "гжи": 7591,
      "нин": 7592,
      "хц": 7593,
      "##fe": 7594,
      "энэт": 7595,
      "ээлт": 7596,
      "члөл": 7597,
      "дөж": 7598,
      "ишүүд": 7599,
      "ггүй": 7600,
      "жс": 7601,
      "пол": 7602,
      "##сг": 7603,
      "##im": 7604,
      "ийсэн": 7605,
      "олцо": 7606,
      "арс": 7607,
      "хара": 7608,
      "өсүт": 7609,
      "арааг": 7610,
      "атаж": 7611,
      "ja": 7612,
      "иас": 7613,
      "угац": 7614,
      "улал": 7615,
      "лдө": 7616,
      "уурл": 7617,
      "off": 7618,
      "may": 7619,
      "zar": 7620,
      "##ед": 7621,
      "эмцэ": 7622,
      "ато": 7623,
      "төлө": 7624,
      "үдийг": 7625,
      "зэс": 7626,
      "акцин": 7627,
      "иар": 7628,
      "##ta": 7629,
      "арих": 7630,
      "ави": 7631,
      "адг": 7632,
      "үстэй": 7633,
      "уулгы": 7634,
      "ac": 7635,
      "гто": 7636,
      "дсөн": 7637,
      "нэний": 7638,
      "тна": 7639,
      "аргүй": 7640,
      "лдэх": 7641,
      "насау": 7642,
      "үүрэ": 7643,
      "лчла": 7644,
      "55": 7645,
      "jun": 7646,
      "бри": 7647,
      "ед": 7648,
      "амб": 7649,
      "элнэ": 7650,
      "эвтр": 7651,
      "start": 7652,
      "xn": 7653,
      "вы": 7654,
      "чло": 7655,
      "гдсөн": 7656,
      "өлж": 7657,
      "итх": 7658,
      "бер": 7659,
      "бби": 7660,
      "вах": 7661,
      "рог": 7662,
      "тын": 7663,
      "шийн": 7664,
      "##ip": 7665,
      "уры": 7666,
      "лгийн": 7667,
      "вье": 7668,
      "##ash": 7669,
      "этгээ": 7670,
      "ght": 7671,
      "##uu": 7672,
      "эдэх": 7673,
      "уулба": 7674,
      "лэлд": 7675,
      "sonin": 7676,
      "38": 7677,
      "длагы": 7678,
      "йсан": 7679,
      "хэг": 7680,
      "##ье": 7681,
      "##ba": 7682,
      "нгил": 7683,
      "атла": 7684,
      "замаа": 7685,
      "##ков": 7686,
      "##ide": 7687,
      "000": 7688,
      "xnumx": 7689,
      "42": 7690,
      "гис": 7691,
      "тд": 7692,
      "цаж": 7693,
      "эрнэ": 7694,
      "хийс": 7695,
      "эмд": 7696,
      "лагда": 7697,
      "мини": 7698,
      "хэмж": 7699,
      "гэрч": 7700,
      "шигл": 7701,
      "өдрө": 7702,
      "ранц": 7703,
      "previ": 7704,
      "лшгүй": 7705,
      "микро": 7706,
      "лбэрэ": 7707,
      "49": 7708,
      "hy": 7709,
      "зин": 7710,
      "зэж": 7711,
      "єєр": 7712,
      "хуга": 7713,
      "астай": 7714,
      "наж": 7715,
      "адн": 7716,
      "хяд": 7717,
      "чигд": 7718,
      "акад": 7719,
      "лгас": 7720,
      "ашины": 7721,
      "ents": 7722,
      "бло": 7723,
      "йчи": 7724,
      "##pt": 7725,
      "урла": 7726,
      "уулав": 7727,
      "хувиа": 7728,
      "##sta": 7729,
      "хилга": 7730,
      "цээнд": 7731,
      "авхар": 7732,
      "51": 7733,
      "xx": 7734,
      "кий": 7735,
      "чх": 7736,
      "##сс": 7737,
      "шилт": 7738,
      "дууда": 7739,
      "her": 7740,
      "##ви": 7741,
      "##оот": 7742,
      "нхаа": 7743,
      "##age": 7744,
      "ul": 7745,
      "рөг": 7746,
      "хе": 7747,
      "##ть": 7748,
      "аачи": 7749,
      "анца": 7750,
      "ууда": 7751,
      "йны": 7752,
      "лдан": 7753,
      "чилгэ": 7754,
      "аалты": 7755,
      "нгоц": 7756,
      "!!!": 7757,
      "йвал": 7758,
      "тта": 7759,
      "цэл": 7760,
      "єр": 7761,
      "олс": 7762,
      "үүт": 7763,
      "алаг": 7764,
      "аарда": 7765,
      "илэ": 7766,
      "өлд": 7767,
      "түрэ": 7768,
      "рилга": 7769,
      "hu": 7770,
      "sl": 7771,
      "ины": 7772,
      "мга": 7773,
      "##op": 7774,
      "ууш": 7775,
      "илд": 7776,
      "ших": 7777,
      "голо": 7778,
      "лбоот": 7779,
      "ууры": 7780,
      "амьсг": 7781,
      "ртаа": 7782,
      "хуучи": 7783,
      "iii": 7784,
      "roso": 7785,
      "pa": 7786,
      "рөх": 7787,
      "слэ": 7788,
      "ты": 7789,
      "орв": 7790,
      "яма": 7791,
      "огдо": 7792,
      "йли": 7793,
      "аалж": 7794,
      "рсөл": 7795,
      "бv": 7796,
      "ддаг": 7797,
      "ддэг": 7798,
      "хдаг": 7799,
      "өөг": 7800,
      "##ѳр": 7801,
      "эртэ": 7802,
      "урта": 7803,
      "мэдл": 7804,
      "ндар": 7805,
      "анхүү": 7806,
      "лээг": 7807,
      "хиц": 7808,
      "хайн": 7809,
      "үдэн": 7810,
      "льт": 7811,
      "dee": 7812,
      "рро": 7813,
      "тра": 7814,
      "##ug": 7815,
      "##th": 7816,
      "ахы": 7817,
      "гав": 7818,
      "гац": 7819,
      "агла": 7820,
      "эсээ": 7821,
      "эсгэ": 7822,
      "хоёрд": 7823,
      "слам": 7824,
      "##orn": 7825,
      "арьж": 7826,
      "гсаа": 7827,
      "аргуу": 7828,
      "ргэлж": 7829,
      "sub": 7830,
      "zon": 7831,
      "лоод": 7832,
      "мчи": 7833,
      "яаг": 7834,
      "##df": 7835,
      "##nd": 7836,
      "аам": 7837,
      "аабар": 7838,
      "ээрий": 7839,
      "эзэ": 7840,
      "евро": 7841,
      "лүүлж": 7842,
      "world": 7843,
      "3d": 7844,
      "om": 7845,
      "par": 7846,
      "лв": 7847,
      "нер": 7848,
      "салт": 7849,
      "ила": 7850,
      "бодл": 7851,
      "члүүл": 7852,
      "утаг": 7853,
      "##our": 7854,
      "ичиж": 7855,
      "нэлт": 7856,
      "ук": 7857,
      "ьтай": 7858,
      "##ow": 7859,
      "лтаар": 7860,
      "элээ": 7861,
      "чим": 7862,
      "ерт": 7863,
      "заяа": 7864,
      "нада": 7865,
      "үүрэн": 7866,
      "тэт": 7867,
      "рьсан": 7868,
      "огчд": 7869,
      "амтар": 7870,
      "ice": 7871,
      "65": 7872,
      "ye": 7873,
      "фор": 7874,
      "##ев": 7875,
      "аата": 7876,
      "##ого": 7877,
      "ндэ": 7878,
      "мате": 7879,
      "адна": 7880,
      "нгол": 7881,
      "атл": 7882,
      "гэлэн": 7883,
      "мьт": 7884,
      "pc": 7885,
      "иер": 7886,
      "тм": 7887,
      "цээр": 7888,
      "##лг": 7889,
      "##вв": 7890,
      "туг": 7891,
      "эмжл": 7892,
      "өвдө": 7893,
      "хайл": 7894,
      "уурын": 7895,
      "seo": 7896,
      "line": 7897,
      "нгөөр": 7898,
      "page": 7899,
      "рос": 7900,
      "сга": 7901,
      "шог": 7902,
      "##тө": 7903,
      "##si": 7904,
      "эвсэ": 7905,
      "сүр": 7906,
      "ene": 7907,
      "800": 7908,
      "ныхо": 7909,
      "блок": 7910,
      "fl": 7911,
      "ll": 7912,
      "бэг": 7913,
      "лы": 7914,
      "##ек": 7915,
      "гас": 7916,
      "топ": 7917,
      "тгах": 7918,
      "рлуул": 7919,
      "ренд": 7920,
      "end": 7921,
      "ung": 7922,
      "press": 7923,
      "inter": 7924,
      "gi": 7925,
      "iv": 7926,
      "глаа": 7927,
      "эб": 7928,
      "##ft": 7929,
      "хаб": 7930,
      "улба": 7931,
      "гдан": 7932,
      "аант": 7933,
      "омын": 7934,
      "өрсд": 7935,
      "слэл": 7936,
      "нефт": 7937,
      "варла": 7938,
      "##ick": 7939,
      "cas": 7940,
      "вө": 7941,
      "жор": 7942,
      "ссэ": 7943,
      "##ре": 7944,
      "олын": 7945,
      "улз": 7946,
      "хийг": 7947,
      "улстө": 7948,
      "мана": 7949,
      "йлчил": 7950,
      "мгийн": 7951,
      "алгы": 7952,
      "ey": 7953,
      "fa": 7954,
      "nat": 7955,
      "зий": 7956,
      "нна": 7957,
      "төг": 7958,
      "##їй": 7959,
      "эхээ": 7960,
      "драх": 7961,
      "ргийн": 7962,
      "all": 7963,
      "еле": 7964,
      "roid": 7965,
      "gram": 7966,
      "44": 7967,
      "free": 7968,
      "pdf": 7969,
      "вса": 7970,
      "мє": 7971,
      "уца": 7972,
      "цл": 7973,
      "шим": 7974,
      "##ок": 7975,
      "##uur": 7976,
      "үүлэ": 7977,
      "эглээ": 7978,
      "цагд": 7979,
      "рхо": 7980,
      "нуха": 7981,
      "##тем": 7982,
      "асанд": 7983,
      "аргын": 7984,
      "ect": 7985,
      "аца": 7986,
      "рнэ": 7987,
      "##гар": 7988,
      "уучл": 7989,
      "орын": 7990,
      "өөрчл": 7991,
      "усад": 7992,
      "унда": 7993,
      "ймээ": 7994,
      "ca": 7995,
      "can": 7996,
      "жд": 7997,
      "жр": 7998,
      "жан": 7999,
      "жоо": 8000,
      "ууна": 8001,
      "арв": 8002,
      "улуу": 8003,
      "одсон": 8004,
      "лдэж": 8005,
      "барт": 8006,
      "өсөл": 8007,
      "үссэн": 8008,
      "нүх": 8009,
      "аалд": 8010,
      "элзэ": 8011,
      "ject": 8012,
      "ess": 8013,
      "дил": 8014,
      "уж": 8015,
      "ыхаа": 8016,
      "хэрэ": 8017,
      "иргаа": 8018,
      "ирсан": 8019,
      "охыг": 8020,
      "үүлээ": 8021,
      "талт": 8022,
      "ови": 8023,
      "арган": 8024,
      "апп": 8025,
      "med": 8026,
      "39": 8027,
      "air": 8028,
      "bar": 8029,
      "lt": 8030,
      "вийн": 8031,
      "мир": 8032,
      "авд": 8033,
      "асуул": 8034,
      "илч": 8035,
      "боди": 8036,
      "удамж": 8037,
      "эвлэл": 8038,
      "лзалт": 8039,
      "ial": 8040,
      "варга": 8041,
      "зэм": 8042,
      "##лер": 8043,
      "##ah": 8044,
      "алаас": 8045,
      "алхи": 8046,
      "ажуу": 8047,
      "илээ": 8048,
      "удад": 8049,
      "уссан": 8050,
      "унаа": 8051,
      "ардам": 8052,
      "олдоо": 8053,
      "ргээд": 8054,
      "ine": 8055,
      "үрүүн": 8056,
      "zarme": 8057,
      "37": 8058,
      "ail": 8059,
      "жлаа": 8060,
      "##ья": 8061,
      "##ii": 8062,
      "ийдв": 8063,
      "орио": 8064,
      "аргаа": 8065,
      "истем": 8066,
      "рмаа": 8067,
      "ser": 8068,
      "гра": 8069,
      "дх": 8070,
      "дтай": 8071,
      "миа": 8072,
      "сөө": 8073,
      "##sh": 8074,
      "айды": 8075,
      "удын": 8076,
      "удла": 8077,
      "ухал": 8078,
      "##int": 8079,
      "сэдэ": 8080,
      "ортын": 8081,
      "ama": 8082,
      "bat": 8083,
      "йтг": 8084,
      "нчлэ": 8085,
      "яз": 8086,
      "орг": 8087,
      "эхэ": 8088,
      "лэлээ": 8089,
      "өхгүй": 8090,
      "рилж": 8091,
      "##ite": 8092,
      "top": 8093,
      "рүүлэ": 8094,
      "сгий": 8095,
      "##ell": 8096,
      "bet": 8097,
      "iso": 8098,
      "цад": 8099,
      "##хо": 8100,
      "##ak": 8101,
      "болз": 8102,
      "орин": 8103,
      "галж": 8104,
      "рей": 8105,
      "95": 8106,
      "мил": 8107,
      "айда": 8108,
      "үүжи": 8109,
      "##эйн": 8110,
      "эдэв": 8111,
      "оот": 8112,
      "үсийг": 8113,
      "иеэ": 8114,
      "insta": 8115,
      "икийн": 8116,
      "уууу": 8117,
      "ble": 8118,
      "mp": 8119,
      "ms": 8120,
      "ваад": 8121,
      "лсэ": 8122,
      "яна": 8123,
      "хүл": 8124,
      "эртэй": 8125,
      "элэ": 8126,
      "ирц": 8127,
      "илчи": 8128,
      "дэгдэ": 8129,
      "онгон": 8130,
      "лгана": 8131,
      "өсөн": 8132,
      "өхөө": 8133,
      "осо": 8134,
      "лье": 8135,
      "шүд": 8136,
      "артаа": 8137,
      "рагда": 8138,
      "ke": 8139,
      "pm": 8140,
      "sk": 8141,
      "цыг": 8142,
      "##ust": 8143,
      "арта": 8144,
      "гат": 8145,
      "эги": 8146,
      "анху": 8147,
      "нци": 8148,
      "өнгөт": 8149,
      "eng": 8150,
      "олио": 8151,
      "гүүн": 8152,
      "хнээ": 8153,
      "hi": 8154,
      "пүү": 8155,
      "ртг": 8156,
      "тэнэ": 8157,
      "##co": 8158,
      "лтуу": 8159,
      "сэнээ": 8160,
      "ргуу": 8161,
      "аалал": 8162,
      "мнэлг": 8163,
      "ei": 8164,
      "таж": 8165,
      "амга": 8166,
      "өрдө": 8167,
      "гаца": 8168,
      "ток": 8169,
      "усах": 8170,
      "ллах": 8171,
      "үйч": 8172,
      "йдс": 8173,
      "tv": 8174,
      "гөр": 8175,
      "жийн": 8176,
      "ион": 8177,
      "фит": 8178,
      "чен": 8179,
      "єв": 8180,
      "##мн": 8181,
      "##na": 8182,
      "улжээ": 8183,
      "ахаа": 8184,
      "усал": 8185,
      "длээ": 8186,
      "nov": 8187,
      "иваа": 8188,
      "41": 8189,
      "76": 8190,
      "??": 8191,
      "sy": 8192,
      "ужи": 8193,
      "хаад": 8194,
      "цон": 8195,
      "чий": 8196,
      "##зер": 8197,
      "##фа": 8198,
      "лдээ": 8199,
      "логик": 8200,
      "dr": 8201,
      "уц": 8202,
      "##ак": 8203,
      "##ps": 8204,
      "айв": 8205,
      "аху": 8206,
      "гдэн": 8207,
      "ныха": 8208,
      "лов": 8209,
      "ang": 8210,
      "өлөөл": 8211,
      "##ice": 8212,
      "агнал": 8213,
      "нухац": 8214,
      "--": 8215,
      "58": 8216,
      "57": 8217,
      "ive": 8218,
      "дна": 8219,
      "рсд": 8220,
      "хт": 8221,
      "##уа": 8222,
      "хүлэ": 8223,
      "ону": 8224,
      "авчи": 8225,
      "уулч": 8226,
      "хүрэ": 8227,
      "суэл": 8228,
      "одоод": 8229,
      "хаалг": 8230,
      "##unt": 8231,
      "eguur": 8232,
      "per": 8233,
      "її": 8234,
      "##ga": 8235,
      "##єл": 8236,
      "##ver": 8237,
      "арха": 8238,
      "улав": 8239,
      "ира": 8240,
      "усаа": 8241,
      "тэнг": 8242,
      "эцүү": 8243,
      "эрдэн": 8244,
      "600": 8245,
      "cat": 8246,
      "ьт": 8247,
      "айва": 8248,
      "огтв": 8249,
      "үндс": 8250,
      "хөтөл": 8251,
      "тами": 8252,
      "250": 8253,
      "43": 8254,
      "лиа": 8255,
      "рус": 8256,
      "үсэ": 8257,
      "ава": 8258,
      "эдгээ": 8259,
      "элжи": 8260,
      "ады": 8261,
      "агтай": 8262,
      "үрий": 8263,
      "лдөө": 8264,
      "рчил": 8265,
      "рдо": 8266,
      "галын": 8267,
      "рем": 8268,
      "тгий": 8269,
      "blo": 8270,
      "85": 8271,
      "ru": 8272,
      "вли": 8273,
      "дv": 8274,
      "жэ": 8275,
      "ним": 8276,
      "нши": 8277,
      "рхий": 8278,
      "тагд": 8279,
      "хы": 8280,
      "үүсэ": 8281,
      "хүндэ": 8282,
      "шата": 8283,
      "вст": 8284,
      "нгас": 8285,
      "porn": 8286,
      "sw": 8287,
      "ww": 8288,
      "вуул": 8289,
      "гїй": 8290,
      "дчих": 8291,
      "чээд": 8292,
      "алла": 8293,
      "аны": 8294,
      "улш": 8295,
      "амыг": 8296,
      "урим": 8297,
      "элжээ": 8298,
      "илсан": 8299,
      "дэгд": 8300,
      "шив": 8301,
      "толго": 8302,
      "поп": 8303,
      "09": 8304,
      "52": 8305,
      "ure": 8306,
      "туур": 8307,
      "хсэн": 8308,
      "улиа": 8309,
      "уулт": 8310,
      "йлан": 8311,
      "друу": 8312,
      "##ong": 8313,
      "##old": 8314,
      "99": 8315,
      "bus": 8316,
      "ee": 8317,
      "out": 8318,
      "vo": 8319,
      "бл": 8320,
      "пуу": 8321,
      "стай": 8322,
      "срэг": 8323,
      "яц": 8324,
      "##pe": 8325,
      "ололт": 8326,
      "өөрч": 8327,
      "өрийг": 8328,
      "уулал": 8329,
      "дуга": 8330,
      "эвс": 8331,
      "хойн": 8332,
      "тэмд": 8333,
      "роол": 8334,
      "дана": 8335,
      "янган": 8336,
      "46": 8337,
      "pu": 8338,
      "wat": 8339,
      "зө": 8340,
      "##ве": 8341,
      "##ca": 8342,
      "асны": 8343,
      "үзэг": 8344,
      "йлчл": 8345,
      "ики": 8346,
      "##act": 8347,
      "рьдч": 8348,
      "чдэд": 8349,
      "web": 8350,
      "sams": 8351,
      "ga": 8352,
      "бээ": 8353,
      "ллэ": 8354,
      "хсан": 8355,
      "цам": 8356,
      "##жу": 8357,
      "##ег": 8358,
      "##sd": 8359,
      "арууд": 8360,
      "арлаа": 8361,
      "ээш": 8362,
      "лгөө": 8363,
      "лдаж": 8364,
      "баярт": 8365,
      "##ant": 8366,
      "alt": 8367,
      "sup": 8368,
      "ios": 8369,
      "##нгє": 8370,
      "ргэдэ": 8371,
      "if": 8372,
      "jan": 8373,
      "үдэ": 8374,
      "##зон": 8375,
      "##ани": 8376,
      "##ами": 8377,
      "эгдээ": 8378,
      "мжла": 8379,
      "лдог": 8380,
      "дэт": 8381,
      "атал": 8382,
      "члэл": 8383,
      "ранд": 8384,
      "жинд": 8385,
      "лонго": 8386,
      "big": 8387,
      "берт": 8388,
      "cap": 8389,
      "gen": 8390,
      "вик": 8391,
      "тох": 8392,
      "эрли": 8393,
      "хял": 8394,
      "өхц": 8395,
      "гоц": 8396,
      "нца": 8397,
      "аатга": 8398,
      "рат": 8399,
      "акал": 8400,
      "ээвэ": 8401,
      "халуу": 8402,
      "иат": 8403,
      "01": 8404,
      "ai": 8405,
      "рца": 8406,
      "сог": 8407,
      "ахь": 8408,
      "лтийг": 8409,
      "урвал": 8410,
      "нду": 8411,
      "адгүй": 8412,
      "өөц": 8413,
      "үүлнэ": 8414,
      "аяар": 8415,
      "эви": 8416,
      "олдо": 8417,
      "тэгэ": 8418,
      "120": 8419,
      "che": 8420,
      "ороон": 8421,
      "уршл": 8422,
      "ийлж": 8423,
      "47": 8424,
      "aa": 8425,
      "tre": 8426,
      "way": 8427,
      "глө": 8428,
      "еги": 8429,
      "иад": 8430,
      "ива": 8431,
      "кү": 8432,
      "лайн": 8433,
      "мьд": 8434,
      "өхий": 8435,
      "##ку": 8436,
      "##оп": 8437,
      "##се": 8438,
      "##fc": 8439,
      "нью": 8440,
      "алу": 8441,
      "гарда": 8442,
      "өмд": 8443,
      "бидэн": 8444,
      "длого": 8445,
      "лжиг": 8446,
      "ргын": 8447,
      "лиза": 8448,
      "үдээс": 8449,
      "мсө": 8450,
      "эко": 8451,
      "life": 8452,
      "өрөнг": 8453,
      "du": 8454,
      "ps": 8455,
      "wr": 8456,
      "всан": 8457,
      "вчин": 8458,
      "лхэ": 8459,
      "нах": 8460,
      "учи": 8461,
      "аатг": 8462,
      "уртай": 8463,
      "үрг": 8464,
      "рхүү": 8465,
      "айрт": 8466,
      "айры": 8467,
      "зөвш": 8468,
      "үсэл": 8469,
      "рдүүл": 8470,
      "шилд": 8471,
      "лцох": 8472,
      "apr": 8473,
      "ipo": 8474,
      "quot": 8475,
      "casi": 8476,
      "aut": 8477,
      "cs": 8478,
      "mu": 8479,
      "nce": 8480,
      "uk": 8481,
      "бд": 8482,
      "гнуу": 8483,
      "дж": 8484,
      "заас": 8485,
      "лю": 8486,
      "ллага": 8487,
      "ся": 8488,
      "ума": 8489,
      "хдаа": 8490,
      "алет": 8491,
      "ндл": 8492,
      "эмжээ": 8493,
      "үрэх": 8494,
      "манд": 8495,
      "лосон": 8496,
      "окс": 8497,
      "экс": 8498,
      "prev": 8499,
      "сдын": 8500,
      "дөрвө": 8501,
      "өхцөл": 8502,
      "mc": 8503,
      "ment": 8504,
      "pi": 8505,
      "учин": 8506,
      "өчи": 8507,
      "##єх": 8508,
      "##ойн": 8509,
      "гарал": 8510,
      "ихс": 8511,
      "эгий": 8512,
      "үрэм": 8513,
      "сэж": 8514,
      "тэдэн": 8515,
      "угж": 8516,
      "йлд": 8517,
      "лала": 8518,
      "дри": 8519,
      "өрөм": 8520,
      "тээг": 8521,
      "col": 8522,
      "уйда": 8523,
      "like": 8524,
      "exp": 8525,
      "oct": 8526,
      "ваар": 8527,
      "жаал": 8528,
      "рлээ": 8529,
      "соо": 8530,
      "ьта": 8531,
      "ёр": 8532,
      "улдаг": 8533,
      "тух": 8534,
      "туга": 8535,
      "аарх": 8536,
      "хөөрө": 8537,
      "угай": 8538,
      "аймги": 8539,
      "ред": 8540,
      "love": 8541,
      "ko": 8542,
      "еф": 8543,
      "рөл": 8544,
      "сгээ": 8545,
      "ува": 8546,
      "цы": 8547,
      "##tp": 8548,
      "##фл": 8549,
      "анта": 8550,
      "онсо": 8551,
      "эдрэ": 8552,
      "элмэ": 8553,
      "огийн": 8554,
      "шинд": 8555,
      "лэгдэ": 8556,
      "паул": 8557,
      "лааса": 8558,
      "оооо": 8559,
      "тагт": 8560,
      "black": 8561,
      "posts": 8562,
      "bit": 8563,
      "ci": 8564,
      "gn": 8565,
      "il": 8566,
      "sn": 8567,
      "йдаг": 8568,
      "наан": 8569,
      "рз": 8570,
      "рээс": 8571,
      "сб": 8572,
      "сда": 8573,
      "хс": 8574,
      "өөрөл": 8575,
      "ндлаг": 8576,
      "лгүү": 8577,
      "аях": 8578,
      "лазер": 8579,
      "тгэсэ": 8580,
      "тгэн": 8581,
      "ртал": 8582,
      "joh": 8583,
      "ab": 8584,
      "kh": 8585,
      "аи": 8586,
      "бөг": 8587,
      "йдэ": 8588,
      "эсэн": 8589,
      "##лл": 8590,
      "##ша": 8591,
      "##ем": 8592,
      "улэг": 8593,
      "улта": 8594,
      "уулд": 8595,
      "рхэ": 8596,
      "ялж": 8597,
      "уваа": 8598,
      "лиар": 8599,
      "теле": 8600,
      "алгах": 8601,
      "##ank": 8602,
      "алдаж": 8603,
      "##ata": 8604,
      "скар": 8605,
      "##ala": 8606,
      "chi": 8607,
      "dec": 8608,
      "рүүлж": 8609,
      "элцэх": 8610,
      "ронз": 8611,
      "инсти": 8612,
      "яагаа": 8613,
      "06": 8614,
      "54": 8615,
      "bur": 8616,
      "vг": 8617,
      "vнэ": 8618,
      "гнө": 8619,
      "дс": 8620,
      "зн": 8621,
      "йро": 8622,
      "нхий": 8623,
      "ухай": 8624,
      "хлэг": 8625,
      "чоод": 8626,
      "##ён": 8627,
      "##рон": 8628,
      "гацаа": 8629,
      "оды": 8630,
      "эмц": 8631,
      "хүрг": 8632,
      "ичээ": 8633,
      "анах": 8634,
      "овор": 8635,
      "rep": 8636,
      "амтра": 8637,
      "хиро": 8638,
      "icle": 8639,
      "cd": 8640,
      "dis": 8641,
      "eur": 8642,
      "ka": 8643,
      "sun": 8644,
      "лис": 8645,
      "рши": 8646,
      "гаат": 8647,
      "удар": 8648,
      "үлг": 8649,
      "лате": 8650,
      "омо": 8651,
      "овг": 8652,
      "галд": 8653,
      "икол": 8654,
      "хөөс": 8655,
      "лза": 8656,
      "ргас": 8657,
      "боов": 8658,
      "кай": 8659,
      "рма": 8660,
      "трэ": 8661,
      "чуу": 8662,
      "##ff": 8663,
      "айк": 8664,
      "ангаа": 8665,
      "эдү": 8666,
      "үнэнд": 8667,
      "нды": 8668,
      "ади": 8669,
      "нара": 8670,
      "зорч": 8671,
      "дгий": 8672,
      "нсар": 8673,
      "тгүүл": 8674,
      "хуйн": 8675,
      "гүүлс": 8676,
      "өлөгч": 8677,
      "cont": 8678,
      "53": 8679,
      "64": 8680,
      "cn": 8681,
      "ger": 8682,
      "pol": 8683,
      "вра": 8684,
      "гаг": 8685,
      "иб": 8686,
      "рьц": 8687,
      "сой": 8688,
      "цын": 8689,
      "ёоо": 8690,
      "орн": 8691,
      "ихсан": 8692,
      "лдр": 8693,
      "шав": 8694,
      "ргөн": 8695,
      "хэтэр": 8696,
      "лахад": 8697,
      "рсө": 8698,
      "анза": 8699,
      "токол": 8700,
      "yo": 8701,
      "бт": 8702,
      "раас": 8703,
      "##uk": 8704,
      "##ml": 8705,
      "##ts": 8706,
      "##sp": 8707,
      "##үн": 8708,
      "##vv": 8709,
      "эндэ": 8710,
      "ндүү": 8711,
      "илла": 8712,
      "ерийн": 8713,
      "эрхт": 8714,
      "##дак": 8715,
      "дул": 8716,
      "рхлэ": 8717,
      "агдса": 8718,
      "ршл": 8719,
      "лгад": 8720,
      "ren": 8721,
      "back": 8722,
      "ep": 8723,
      "game": 8724,
      "ton": 8725,
      "гх": 8726,
      "жм": 8727,
      "кад": 8728,
      "нол": 8729,
      "##от": 8730,
      "##ux": 8731,
      "ууль": 8732,
      "гатай": 8733,
      "охоо": 8734,
      "өвт": 8735,
      "нэртэ": 8736,
      "рдаа": 8737,
      "лахыг": 8738,
      "лүүлэ": 8739,
      "star": 8740,
      "өртөө": 8741,
      "оонд": 8742,
      "айден": 8743,
      "тери": 8744,
      "56": 8745,
      "72": 8746,
      "iz": 8747,
      "лэр": 8748,
      "сш": 8749,
      "цөх": 8750,
      "ых": 8751,
      "##ha": 8752,
      "лттэй": 8753,
      "эггүй": 8754,
      "эсг": 8755,
      "ойш": 8756,
      "голч": 8757,
      "нцуй": 8758,
      "уурх": 8759,
      "ймаа": 8760,
      "варг": 8761,
      "нзаар": 8762,
      "ооло": 8763,
      "##oll": 8764,
      "del": 8765,
      "share": 8766,
      "live": 8767,
      "ard": 8768,
      "ацаан": 8769,
      "ir": 8770,
      "jack": 8771,
      "ki": 8772,
      "ny": 8773,
      "ok": 8774,
      "ob": 8775,
      "pri": 8776,
      "wal": 8777,
      "зоо": 8778,
      "тк": 8779,
      "хм": 8780,
      "эф": 8781,
      "арм": 8782,
      "эст": 8783,
      "усл": 8784,
      "рхл": 8785,
      "түг": 8786,
      "раз": 8787,
      "луулж": 8788,
      "str": 8789,
      "ste": 8790,
      "убай": 8791,
      "john": 8792,
      "04": 8793,
      "ain": 8794,
      "gre": 8795,
      "mat": 8796,
      "йла": 8797,
      "мэйн": 8798,
      "тч": 8799,
      "##жа": 8800,
      "##бе": 8801,
      "##зе": 8802,
      "##др": 8803,
      "##юс": 8804,
      "##сє": 8805,
      "##ge": 8806,
      "араар": 8807,
      "өөрс": 8808,
      "хэж": 8809,
      "лган": 8810,
      "ягт": 8811,
      "тэгээ": 8812,
      "лизи": 8813,
      "сси": 8814,
      "##ict": 8815,
      "sem": 8816,
      "рээнд": 8817,
      "mast": 8818,
      "what": 8819,
      "07": 8820,
      "98": 8821,
      "aug": 8822,
      "car": 8823,
      "fo": 8824,
      "nd": 8825,
      "oe": 8826,
      "sou": 8827,
      "war": 8828,
      "даар": 8829,
      "жүү": 8830,
      "лцэ": 8831,
      "роод": 8832,
      "##они": 8833,
      "улза": 8834,
      "лта": 8835,
      "гач": 8836,
      "дээс": 8837,
      "нац": 8838,
      "хувил": 8839,
      "үүлэл": 8840,
      "дун": 8841,
      "лат": 8842,
      "азаа": 8843,
      "рдан": 8844,
      "риал": 8845,
      "##org": 8846,
      "лек": 8847,
      "ica": 8848,
      "ххх": 8849,
      "66": 8850,
      "est": 8851,
      "дтг": 8852,
      "дда": 8853,
      "цса": 8854,
      "этр": 8855,
      "алиа": 8856,
      "элсн": 8857,
      "ндсэн": 8858,
      "одн": 8859,
      "мак": 8860,
      "эгжи": 8861,
      "удыг": 8862,
      "сув": 8863,
      "эрхш": 8864,
      "өлөн": 8865,
      "##ook": 8866,
      "##ssy": 8867,
      "тив": 8868,
      "итлер": 8869,
      "ндат": 8870,
      "pow": 8871,
      "арак": 8872,
      "que": 8873,
      "ждү": 8874,
      "02": 8875,
      "05": 8876,
      "62": 8877,
      "bu": 8878,
      "ig": 8879,
      "iq": 8880,
      "san": 8881,
      "вер": 8882,
      "кан": 8883,
      "рсон": 8884,
      "чдэ": 8885,
      "олу": 8886,
      "оруу": 8887,
      "лтга": 8888,
      "урсан": 8889,
      "одог": 8890,
      "мазон": 8891,
      "ямд": 8892,
      "залг": 8893,
      "үйн": 8894,
      "мул": 8895,
      "малн": 8896,
      "игер": 8897,
      "ршр": 8898,
      "лена": 8899,
      "редак": 8900,
      "ранк": 8901,
      "луула": 8902,
      "толик": 8903,
      "сэрж": 8904,
      "sec": 8905,
      "comp": 8906,
      "are": 8907,
      "fin": 8908,
      "sol": 8909,
      "лса": 8910,
      "мхи": 8911,
      "под": 8912,
      "##aw": 8913,
      "өнхий": 8914,
      "ндө": 8915,
      "агын": 8916,
      "үрсэн": 8917,
      "ооро": 8918,
      "эзү": 8919,
      "нүб": 8920,
      "сем": 8921,
      "рес": 8922,
      "реф": 8923,
      "ранс": 8924,
      "има": 8925,
      "яая": 8926,
      "ant": 8927,
      "гну": 8928,
      "трал": 8929,
      "www": 8930,
      "bb": 8931,
      "cv": 8932,
      "data": 8933,
      "бра": 8934,
      "вөн": 8935,
      "гог": 8936,
      "еш": 8937,
      "иос": 8938,
      "сох": 8939,
      "фл": 8940,
      "##fi": 8941,
      "био": 8942,
      "алтг": 8943,
      "асы": 8944,
      "лгө": 8945,
      "инь": 8946,
      "эсрэ": 8947,
      "ати": 8948,
      "аргад": 8949,
      "чанд": 8950,
      "абэ": 8951,
      "edit": 8952,
      "##eek": 8953,
      "рууда": 8954,
      "http": 8955,
      "watch": 8956,
      "ev": 8957,
      "gb": 8958,
      "jul": 8959,
      "ner": 8960,
      "xy": 8961,
      "дом": 8962,
      "жав": 8963,
      "ия": 8964,
      "йхан": 8965,
      "чг": 8966,
      "чра": 8967,
      "##бэ": 8968,
      "орло": 8969,
      "бул": 8970,
      "ерн": 8971,
      "лдоо": 8972,
      "лдсан": 8973,
      "жид": 8974,
      "надаа": 8975,
      "оодо": 8976,
      "##one": 8977,
      "##oom": 8978,
      "вья": 8979,
      "##oto": 8980,
      "##ote": 8981,
      "нэтхэ": 8982,
      "нэлээ": 8983,
      "шгий": 8984,
      "ррори": 8985,
      "aw": 8986,
      "ввв": 8987,
      "рээр": 8988,
      "шvv": 8989,
      "яав": 8990,
      "##ьф": 8991,
      "##ed": 8992,
      "##es": 8993,
      "алчир": 8994,
      "юмс": 8995,
      "ирус": 8996,
      "жилч": 8997,
      "уудай": 8998,
      "өвий": 8999,
      "инте": 9000,
      "аанаа": 9001,
      "чихв": 9002,
      "длийг": 9003,
      "рдсан": 9004,
      "үдийн": 9005,
      "ртын": 9006,
      "red": 9007,
      "гсн": 9008,
      "сахар": 9009,
      "улаам": 9010,
      "ргэж": 9011,
      "plus": 9012,
      "land": 9013,
      "sq": 9014,
      "sort": 9015,
      "woo": 9016,
      "бье": 9017,
      "вэй": 9018,
      "лэм": 9019,
      "рэв": 9020,
      "##па": 9021,
      "гэс": 9022,
      "ээтэ": 9023,
      "амта": 9024,
      "өгий": 9025,
      "мэдэр": 9026,
      "үртг": 9027,
      "үлэн": 9028,
      "нэрт": 9029,
      "аагий": 9030,
      "омжи": 9031,
      "##ond": 9032,
      "рлах": 9033,
      "хлэн": 9034,
      "амтла": 9035,
      "гей": 9036,
      "usb": 9037,
      "##ull": 9038,
      "ast": 9039,
      "cp": 9040,
      "ji": 9041,
      "men": 9042,
      "nb": 9043,
      "ow": 9044,
      "pay": 9045,
      "вьд": 9046,
      "лих": 9047,
      "лжэ": 9048,
      "нон": 9049,
      "пр": 9050,
      "юн": 9051,
      "ѳѳр": 9052,
      "##tt": 9053,
      "үүк": 9054,
      "арыг": 9055,
      "урм": 9056,
      "одд": 9057,
      "ооцо": 9058,
      "рхол": 9059,
      "нхи": 9060,
      "йлс": 9061,
      "алдан": 9062,
      "сте": 9063,
      "##ней": 9064,
      "рлан": 9065,
      "рмис": 9066,
      "оолой": 9067,
      "des": 9068,
      "toy": 9069,
      "лууг": 9070,
      "ельги": 9071,
      "pussy": 9072,
      "auto": 9073,
      "**": 9074,
      "ld": 9075,
      "ss": 9076,
      "tal": 9077,
      "va": 9078,
      "xi": 9079,
      "еб": 9080,
      "еее": 9081,
      "йти": 9082,
      "лиу": 9083,
      "рэд": 9084,
      "шта": 9085,
      "ээн": 9086,
      "үхэ": 9087,
      "##яя": 9088,
      "##vd": 9089,
      "орк": 9090,
      "эро": 9091,
      "аму": 9092,
      "онгуу": 9093,
      "иймээ": 9094,
      "хит": 9095,
      "гадла": 9096,
      "дотро": 9097,
      "лбир": 9098,
      "зүтг": 9099,
      "##out": 9100,
      "led": 9101,
      "vie": 9102,
      "эгдэж": 9103,
      "html": 9104,
      "рсдэл": 9105,
      ">>": 9106,
      "gm": 9107,
      "mer": 9108,
      "wit": 9109,
      "бж": 9110,
      "рта": 9111,
      "хна": 9112,
      "ємн": 9113,
      "##ез": 9114,
      "ууга": 9115,
      "алчи": 9116,
      "аваар": 9117,
      "гаана": 9118,
      "йлу": 9119,
      "стер": 9120,
      "өрөөн": 9121,
      "игери": 9122,
      "имэ": 9123,
      "нөм": 9124,
      "дни": 9125,
      "абз": 9126,
      "ipad": 9127,
      "700": 9128,
      "mark": 9129,
      "03": 9130,
      "59": 9131,
      "fr": 9132,
      "mart": 9133,
      "nba": 9134,
      "бин": 9135,
      "вон": 9136,
      "ижи": 9137,
      "йна": 9138,
      "льц": 9139,
      "ссан": 9140,
      "ён": 9141,
      "##хе": 9142,
      "##up": 9143,
      "##її": 9144,
      "##аль": 9145,
      "хари": 9146,
      "өрий": 9147,
      "эль": 9148,
      "где": 9149,
      "одой": 9150,
      "нав": 9151,
      "даац": 9152,
      "ида": 9153,
      "чихэ": 9154,
      "өхд": 9155,
      "татга": 9156,
      "руулж": 9157,
      "боолт": 9158,
      "##oot": 9159,
      "тааг": 9160,
      "count": 9161,
      "ариуц": 9162,
      "амди": 9163,
      "shop": 9164,
      "ara": 9165,
      "алгар": 9166,
      "ies": 9167,
      "java": 9168,
      "eb": 9169,
      "port": 9170,
      "вын": 9171,
      "кво": 9172,
      "лөв": 9173,
      "сод": 9174,
      "үгэ": 9175,
      "үчин": 9176,
      "##еф": 9177,
      "##go": 9178,
      "##ki": 9179,
      "олц": 9180,
      "бир": 9181,
      "үер": 9182,
      "инал": 9183,
      "ашё": 9184,
      "угл": 9185,
      "йлдэ": 9186,
      "йлчлэ": 9187,
      "ралын": 9188,
      "рип": 9189,
      "эгдүү": 9190,
      "бэрэ": 9191,
      "##ель": 9192,
      "work": 9193,
      "sim": 9194,
      "бтз": 9195,
      "08": 9196,
      "don": 9197,
      "part": 9198,
      "ut": 9199,
      "йц": 9200,
      "члаа": 9201,
      "үхий": 9202,
      "##aa": 9203,
      "оди": 9204,
      "ери": 9205,
      "өлдө": 9206,
      "лаач": 9207,
      "андла": 9208,
      "нхор": 9209,
      "голы": 9210,
      "дгээ": 9211,
      "дэвх": 9212,
      "алгаж": 9213,
      "раф": 9214,
      "нших": 9215,
      "бег": 9216,
      "##ase": 9217,
      "blue": 9218,
      "box": 9219,
      "grou": 9220,
      "mob": 9221,
      "qui": 9222,
      "???": 9223,
      "86": 9224,
      "ay": 9225,
      "bay": 9226,
      "gy": 9227,
      "mot": 9228,
      "tit": 9229,
      "yah": 9230,
      "зиа": 9231,
      "оаж": 9232,
      "чон": 9233,
      "##лє": 9234,
      "байс": 9235,
      "байга": 9236,
      "эрээс": 9237,
      "анли": 9238,
      "улсан": 9239,
      "ээрэ": 9240,
      "##ный": 9241,
      "цага": 9242,
      "лдг": 9243,
      "атах": 9244,
      "стин": 9245,
      "мөс": 9246,
      "рлийн": 9247,
      "гөд": 9248,
      "данд": 9249,
      "sty": 9250,
      "индэр": 9251,
      "орхой": 9252,
      "wrote": 9253,
      "ємнє": 9254,
      "88": 9255,
      "act": 9256,
      "name": 9257,
      "vide": 9258,
      "week": 9259,
      "всэ": 9260,
      "лэй": 9261,
      "мит": 9262,
      "нээн": 9263,
      "нит": 9264,
      "сна": 9265,
      "##ёо": 9266,
      "##ме": 9267,
      "##ьм": 9268,
      "##аго": 9269,
      "энч": 9270,
      "аламж": 9271,
      "арда": 9272,
      "одож": 9273,
      "эгц": 9274,
      "барла": 9275,
      "нум": 9276,
      "гуч": 9277,
      "бокс": 9278,
      "ска": 9279,
      "une": 9280,
      "урсга": 9281,
      "fore": 9282,
      "exc": 9283,
      "blog": 9284,
      "say": 9285,
      "бэх": 9286,
      "дэй": 9287,
      "жийг": 9288,
      "пани": 9289,
      "рү": 9290,
      "ршин": 9291,
      "тла": 9292,
      "тгээ": 9293,
      "хє": 9294,
      "эп": 9295,
      "##ком": 9296,
      "##по": 9297,
      "##gi": 9298,
      "##ne": 9299,
      "##үг": 9300,
      "##ага": 9301,
      "арш": 9302,
      "авж": 9303,
      "өнц": 9304,
      "илья": 9305,
      "нхэ": 9306,
      "отод": 9307,
      "тел": 9308,
      "эээээ": 9309,
      "эмээх": 9310,
      "sha": 9311,
      "куба": 9312,
      "link": 9313,
      "xxi": 9314,
      "квот": 9315,
      "61": 9316,
      "79": 9317,
      "cy": 9318,
      "gala": 9319,
      "ile": 9320,
      "vis": 9321,
      "аут": 9322,
      "дгэ": 9323,
      "йдэг": 9324,
      "сгүй": 9325,
      "тб": 9326,
      "хэй": 9327,
      "шээ": 9328,
      "##мо": 9329,
      "болч": 9330,
      "харам": 9331,
      "була": 9332,
      "чихсо": 9333,
      "атер": 9334,
      "йрх": 9335,
      "лсны": 9336,
      "утл": 9337,
      "янь": 9338,
      "##ade": 9339,
      "180": 9340,
      "pop": 9341,
      "айдын": 9342,
      "load": 9343,
      "huaw": 9344,
      "park": 9345,
      "video": 9346,
      "68": 9347,
      "87": 9348,
      "cam": 9349,
      "dvd": 9350,
      "sar": 9351,
      "sch": 9352,
      "vs": 9353,
      "дла": 9354,
      "зол": 9355,
      "лмаа": 9356,
      "тад": 9357,
      "фин": 9358,
      "##mo": 9359,
      "##ka": 9360,
      "##wn": 9361,
      "алы": 9362,
      "гарз": 9363,
      "ндуу": 9364,
      "үзэ": 9365,
      "ханы": 9366,
      "өвг": 9367,
      "##ерс": 9368,
      "огто": 9369,
      "ind": 9370,
      "nes": 9371,
      "наач": 9372,
      "итэм": 9373,
      "огдох": 9374,
      "shi": 9375,
      "host": 9376,
      "мэгдү": 9377,
      "рханы": 9378,
      "чех": 9379,
      "^^": 9380,
      "bre": 9381,
      "cre": 9382,
      "har": 9383,
      "mou": 9384,
      "mus": 9385,
      "sd": 9386,
      "too": 9387,
      "um": 9388,
      "дик": 9389,
      "еийн": 9390,
      "зга": 9391,
      "нгал": 9392,
      "пс": 9393,
      "пиз": 9394,
      "ть": 9395,
      "тийг": 9396,
      "ѳг": 9397,
      "##эт": 9398,
      "##ght": 9399,
      "##нат": 9400,
      "урши": 9401,
      "бух": 9402,
      "мафи": 9403,
      "дахи": 9404,
      "ээдэг": 9405,
      "нэрий": 9406,
      "түц": 9407,
      "гуя": 9408,
      "омд": 9409,
      "гала": 9410,
      "ert": 9411,
      "inc": 9412,
      "зүс": 9413,
      "##ach": 9414,
      "ret": 9415,
      "борло": 9416,
      "sep": 9417,
      "fire": 9418,
      "photo": 9419,
      "ойгоо": 9420,
      "acc": 9421,
      "ндэс": 9422,
      "sky": 9423,
      "ткойн": 9424,
      "92": 9425,
      "vед": 9426,
      "бог": 9427,
      "бли": 9428,
      "вил": 9429,
      "дүй": 9430,
      "двал": 9431,
      "йга": 9432,
      "кн": 9433,
      "ргуй": 9434,
      "цуул": 9435,
      "єнгє": 9436,
      "##зд": 9437,
      "##зай": 9438,
      "##уд": 9439,
      "##ъя": 9440,
      "ийдэ": 9441,
      "айса": 9442,
      "байт": 9443,
      "алса": 9444,
      "гарг": 9445,
      "гата": 9446,
      "илал": 9447,
      "одох": 9448,
      "маца": 9449,
      "инфл": 9450,
      "##име": 9451,
      "нгой": 9452,
      "өлгө": 9453,
      "эвт": 9454,
      "хиа": 9455,
      "стор": 9456,
      "еви": 9457,
      "дуула": 9458,
      "реал": 9459,
      "рийнх": 9460,
      "руб": 9461,
      "сама": 9462,
      "римд": 9463,
      "йчүүд": 9464,
      "агну": 9465,
      "ршрут": 9466,
      "74": 9467,
      "81": 9468,
      "cor": 9469,
      "dorg": 9470,
      "ec": 9471,
      "lan": 9472,
      "pin": 9473,
      "site": 9474,
      "ева": 9475,
      "ука": 9476,
      "хг": 9477,
      "шөл": 9478,
      "##et": 9479,
      "##ый": 9480,
      "##ыт": 9481,
      "байд": 9482,
      "амбо": 9483,
      "амгай": 9484,
      "хус": 9485,
      "дала": 9486,
      "оги": 9487,
      "энди": 9488,
      "уса": 9489,
      "нхээ": 9490,
      "лалы": 9491,
      "бэлэ": 9492,
      "агдан": 9493,
      "чанг": 9494,
      "англ": 9495,
      "енне": 9496,
      "store": 9497,
      "вьс": 9498,
      "130": 9499,
      "амты": 9500,
      "show": 9501,
      "иаков": 9502,
      "лгааг": 9503,
      "нефть": 9504,
      "төгс": 9505,
      "пүүз": 9506,
      "style": 9507,
      "71": 9508,
      "84": 9509,
      "96": 9510,
      "dar": 9511,
      "dan": 9512,
      "ea": 9513,
      "fro": 9514,
      "hou": 9515,
      "nc": 9516,
      "ple": 9517,
      "ram": 9518,
      "ray": 9519,
      "vй": 9520,
      "val": 9521,
      "виа": 9522,
      "дь": 9523,
      "ее": 9524,
      "нур": 9525,
      "нєх": 9526,
      "сдэ": 9527,
      "фэн": 9528,
      "чний": 9529,
      "##бби": 9530,
      "##зз": 9531,
      "##ше": 9532,
      "үүмж": 9533,
      "орц": 9534,
      "амна": 9535,
      "уулс": 9536,
      "элүү": 9537,
      "сони": 9538,
      "илс": 9539,
      "идэ": 9540,
      "барын": 9541,
      "рхал": 9542,
      "төй": 9543,
      "хойг": 9544,
      "омдо": 9545,
      "140": 9546,
      "бела": 9547,
      "org": 9548,
      "900": 9549,
      "ауд": 9550,
      "втом": 9551,
      "age": 9552,
      "feb": 9553,
      "мєн": 9554,
      "блет": 9555,
      "хялба": 9556,
      "лекул": 9557,
      "quiz": 9558,
      "gir": 9559,
      "lu": 9560,
      "pot": 9561,
      "ичи": 9562,
      "йо": 9563,
      "күү": 9564,
      "лгу": 9565,
      "нv": 9566,
      "чны": 9567,
      "язга": 9568,
      "үц": 9569,
      "үон": 9570,
      "##еш": 9571,
      "ууса": 9572,
      "олол": 9573,
      "ахилг": 9574,
      "тайва": 9575,
      "худ": 9576,
      "эллээ": 9577,
      "шүүн": 9578,
      "түүд": 9579,
      "нукс": 9580,
      "эмчил": 9581,
      "ика": 9582,
      "ссо": 9583,
      "max": 9584,
      "best": 9585,
      "мэгц": 9586,
      "бсб": 9587,
      "gui": 9588,
      "рсөлд": 9589,
      "67": 9590,
      "69": 9591,
      "bro": 9592,
      "hel": 9593,
      "ib": 9594,
      "lor": 9595,
      "od": 9596,
      "tor": 9597,
      "wa": 9598,
      "yun": 9599,
      "вв": 9600,
      "вла": 9601,
      "рул": 9602,
      "свэл": 9603,
      "фа": 9604,
      "ьц": 9605,
      "ѳр": 9606,
      "##кер": 9607,
      "##нь": 9608,
      "##тт": 9609,
      "##яд": 9610,
      "##ms": 9611,
      "энээ": 9612,
      "гүйд": 9613,
      "арн": 9614,
      "үрж": 9615,
      "тана": 9616,
      "ллэг": 9617,
      "сто": 9618,
      "лахын": 9619,
      "гту": 9620,
      "иулах": 9621,
      "stat": 9622,
      "note": 9623,
      "мааг": 9624,
      "ламжи": 9625,
      "aps": 9626,
      "перс": 9627,
      "##eet": 9628,
      "өтөл": 9629,
      "350": 9630,
      "slot": 9631,
      "бvх": 9632,
      "бvр": 9633,
      "ншиж": 9634,
      "иосеф": 9635,
      "рипто": 9636,
      "ильям": 9637,
      "аудио": 9638,
      "5g": 9639,
      "97": 9640,
      "ben": 9641,
      "gor": 9642,
      "ky": 9643,
      "kn": 9644,
      "pub": 9645,
      "tra": 9646,
      "еп": 9647,
      "ии": 9648,
      "иог": 9649,
      "йв": 9650,
      "лик": 9651,
      "саал": 9652,
      "угал": 9653,
      "это": 9654,
      "юр": 9655,
      "##кү": 9656,
      "##li": 9657,
      "##или": 9658,
      "ахда": 9659,
      "элн": 9660,
      "лагер": 9661,
      "инт": 9662,
      "бүрэ": 9663,
      "үлгэ": 9664,
      "үлжээ": 9665,
      "эвх": 9666,
      "магц": 9667,
      "все": 9668,
      "ймаг": 9669,
      "монг": 9670,
      "енни": 9671,
      "##oud": 9672,
      "any": 9673,
      "вед": 9674,
      "рым": 9675,
      "зху": 9676,
      "key": 9677,
      "абэа": 9678,
      "group": 9679,
      "bang": 9680,
      "cle": 9681,
      "dy": 9682,
      "ron": 9683,
      "yu": 9684,
      "бга": 9685,
      "гос": 9686,
      "иам": 9687,
      "йе": 9688,
      "кин": 9689,
      "лор": 9690,
      "лори": 9691,
      "нса": 9692,
      "рда": 9693,
      "хч": 9694,
      "цлаг": 9695,
      "эти": 9696,
      "##зин": 9697,
      "##dy": 9698,
      "##дє": 9699,
      "##ph": 9700,
      "##vc": 9701,
      "байн": 9702,
      "энэр": 9703,
      "ахан": 9704,
      "эддэг": 9705,
      "үнээс": 9706,
      "илет": 9707,
      "чинг": 9708,
      "лифт": 9709,
      "рид": 9710,
      "##ool": 9711,
      "ness": 9712,
      "йхгүй": 9713,
      "лоу": 9714,
      "нзаа": 9715,
      "det": 9716,
      "ari": 9717,
      "элдэх": 9718,
      "##єрє": 9719,
      "boy": 9720,
      "ago": 9721,
      "hyun": 9722,
      "сойз": 9723,
      "подк": 9724,
      "girl": 9725,
      "78": 9726,
      "73": 9727,
      "cum": 9728,
      "gh": 9729,
      "hard": 9730,
      "ide": 9731,
      "mt": 9732,
      "ua": 9733,
      "ual": 9734,
      "вл": 9735,
      "вас": 9736,
      "мк": 9737,
      "нр": 9738,
      "фо": 9739,
      "шри": 9740,
      "ьер": 9741,
      "ьсо": 9742,
      "##ке": 9743,
      "##лєє": 9744,
      "##шр": 9745,
      "##om": 9746,
      "##эс": 9747,
      "##ча": 9748,
      "ару": 9749,
      "арий": 9750,
      "артер": 9751,
      "онни": 9752,
      "авл": 9753,
      "дак": 9754,
      "үлж": 9755,
      "нгл": 9756,
      "ргей": 9757,
      "рдах": 9758,
      "мөрө": 9759,
      "лби": 9760,
      "игтай": 9761,
      "спо": 9762,
      "рен": 9763,
      "үдүү": 9764,
      "линз": 9765,
      "айжа": 9766,
      "аааа": 9767,
      "your": 9768,
      "рэлд": 9769,
      "amer": 9770,
      "бнгу": 9771,
      "get": 9772,
      "url": 9773,
      "гагүй": 9774,
      "эсгий": 9775,
      "fox": 9776,
      "флор": 9777,
      "63": 9778,
      "82": 9779,
      "aй": 9780,
      "ass": 9781,
      "bsd": 9782,
      "ct": 9783,
      "ot": 9784,
      "vр": 9785,
      "ya": 9786,
      "zal": 9787,
      "ао": 9788,
      "бө": 9789,
      "гб": 9790,
      "жигл": 9791,
      "лний": 9792,
      "пал": 9793,
      "пүүл": 9794,
      "поли": 9795,
      "сууд": 9796,
      "саан": 9797,
      "##pa": 9798,
      "##mi": 9799,
      "##sa": 9800,
      "##ze": 9801,
      "айгүй": 9802,
      "ньян": 9803,
      "##эль": 9804,
      "алалт": 9805,
      "иргэ": 9806,
      "эглэх": 9807,
      "нат": 9808,
      "адра": 9809,
      "үлий": 9810,
      "нге": 9811,
      "анду": 9812,
      "ату": 9813,
      "гидр": 9814,
      "лак": 9815,
      "цав": 9816,
      "дуулж": 9817,
      "тгор": 9818,
      "иов": 9819,
      "ort": 9820,
      "linux": 9821,
      "prot": 9822,
      "77": 9823,
      "bout": 9824,
      "cal": 9825,
      "cur": 9826,
      "fri": 9827,
      "kia": 9828,
      "king": 9829,
      "lg": 9830,
      "lay": 9831,
      "py": 9832,
      "sour": 9833,
      "tar": 9834,
      "дма": 9835,
      "ибер": 9836,
      "йс": 9837,
      "ля": 9838,
      "##кэ": 9839,
      "##ma": 9840,
      "##ара": 9841,
      "уузай": 9842,
      "улхай": 9843,
      "эдс": 9844,
      "эдийг": 9845,
      "эмдэ": 9846,
      "эмтэ": 9847,
      "адаа": 9848,
      "гээрэ": 9849,
      "нама": 9850,
      "эвэ": 9851,
      "хип": 9852,
      "иргиз": 9853,
      "рчл": 9854,
      "уви": 9855,
      "лит": 9856,
      "олгос": 9857,
      "##тен": 9858,
      "гүм": 9859,
      "лес": 9860,
      "рлэх": 9861,
      "рези": 9862,
      "cop": 9863,
      "come": 9864,
      "ress": 9865,
      "лцл": 9866,
      "чдад": 9867,
      "рсо": 9868,
      "халта": 9869,
      "апти": 9870,
      "бель": 9871,
      "жилтн": 9872,
      "lish": 9873,
      "аланс": 9874,
      "нанд": 9875,
      "usa": 9876,
      "єгє": 9877,
      "open": 9878,
      "архе": 9879,
      "дхв": 9880,
      "trend": 9881,
      "zaluu": 9882,
      "ado": 9883,
      "oin": 9884,
      "ter": 9885,
      "yy": 9886,
      "ез": 9887,
      "йсн": 9888,
      "лус": 9889,
      "нма": 9890,
      "пл": 9891,
      "сэв": 9892,
      "чт": 9893,
      "ыл": 9894,
      "ыр": 9895,
      "##зх": 9896,
      "##нер": 9897,
      "##ec": 9898,
      "эрл": 9899,
      "##ада": 9900,
      "элит": 9901,
      "ирами": 9902,
      "ндг": 9903,
      "нде": 9904,
      "эгийн": 9905,
      "өдө": 9906,
      "уск": 9907,
      "рхийг": 9908,
      "намик": 9909,
      "алтаа": 9910,
      "уни": 9911,
      "алдр": 9912,
      "ялг": 9913,
      "нио": 9914,
      "эйр": 9915,
      "аку": 9916,
      "нян": 9917,
      "not": 9918,
      "now": 9919,
      "ексон": 9920,
      "окер": 9921,
      "chat": 9922,
      "гэгдэ": 9923,
      "##asa": 9924,
      "api": 9925,
      "point": 9926,
      "опул": 9927,
      "met": 9928,
      "space": 9929,
      "гени": 9930,
      "save": 9931,
      "file": 9932,
      "times": 9933,
      "икола": 9934,
      "with": 9935,
      "excel": 9936,
      "ah": 9937,
      "cent": 9938,
      "iel": 9939,
      "nic": 9940,
      "num": 9941,
      "will": 9942,
      "жар": 9943,
      "зр": 9944,
      "кв": 9945,
      "ллагы": 9946,
      "ржээ": 9947,
      "рлэг": 9948,
      "шан": 9949,
      "шка": 9950,
      "ال": 9951,
      "##вр": 9952,
      "##ui": 9953,
      "##цца": 9954,
      "##айд": 9955,
      "айши": 9956,
      "үүнэ": 9957,
      "хоп": 9958,
      "эдсэн": 9959,
      "урил": 9960,
      "эмэ": 9961,
      "адр": 9962,
      "ини": 9963,
      "инч": 9964,
      "нгк": 9965,
      "снэ": 9966,
      "лас": 9967,
      "лси": 9968,
      "доог": 9969,
      "оосо": 9970,
      "анаж": 9971,
      "гтоо": 9972,
      "өрвө": 9973,
      "rec": 9974,
      "110": 9975,
      "лзэ": 9976,
      "нзон": 9977,
      "босс": 9978,
      "170": 9979,
      "160": 9980,
      "mail": 9981,
      "##app": 9982,
      "tran": 9983,
      "polit": 9984,
      "рубль": 9985,
      "94": 9986,
      "ball": 9987,
      "ew": 9988,
      "gd": 9989,
      "hall": 9990,
      "look": 9991,
      "mb": 9992,
      "ota": 9993,
      "tur": 9994,
      "ufc": 9995,
      "vp": 9996,
      "ve": 9997,
      "гг": 9998,
      "дв": 9999,
      "дин": 10000,
      "зэл": 10001,
      "лф": 10002,
      "мой": 10003,
      "ций": 10004,
      "үдэг": 10005,
      "##зан": 10006,
      "##os": 10007,
      "гэе": 10008,
      "арон": 10009,
      "элээс": 10010,
      "асна": 10011,
      "аардл": 10012,
      "бум": 10013,
      "адвар": 10014,
      "сарын": 10015,
      "өсө": 10016,
      "гэдий": 10017,
      "өхтг": 10018,
      "үүрий": 10019,
      "осы": 10020,
      "гуд": 10021,
      "либер": 10022,
      "лбор": 10023,
      "жлыг": 10024,
      "мянг": 10025,
      "имба": 10026,
      "ээвр": 10027,
      "cock": 10028,
      "sta": 10029,
      "лоход": 10030,
      "chan": 10031,
      "pod": 10032,
      "list": 10033,
      "луг": 10034,
      "tech": 10035,
      "ллаж": 10036,
      "рэнг": 10037,
      "log": 10038,
      "sony": 10039,
      "job": 10040,
      "cloud": 10041,
      "улзах": 10042,
      "биоти": 10043,
      "рафон": 10044,
      "аути": 10045,
      "89": 10046,
      "gps": 10047,
      "pal": 10048,
      "дга": 10049,
      "иэн": 10050,
      "мү": 10051,
      "рю": 10052,
      "таас": 10053,
      "уны": 10054,
      "хха": 10055,
      "хнэ": 10056,
      "чэн": 10057,
      "##йй": 10058,
      "##сѳ": 10059,
      "##пе": 10060,
      "##gh": 10061,
      "##рт": 10062,
      "##fa": 10063,
      "##фо": 10064,
      "биком": 10065,
      "эрлэл": 10066,
      "эдл": 10067,
      "##гор": 10068,
      "ерон": 10069,
      "төрд": 10070,
      "нух": 10071,
      "төд": 10072,
      "108": 10073,
      "##ine": 10074,
      "жак": 10075,
      "ina": 10076,
      "роид": 10077,
      "ейс": 10078,
      "ного": 10079,
      "down": 10080,
      "увьс": 10081,
      "grap": 10082,
      "мори": 10083,
      "soc": 10084,
      "pcr": 10085,
      "oem": 10086,
      "says": 10087,
      "83": 10088,
      "gee": 10089,
      "glo": 10090,
      "gold": 10091,
      "ix": 10092,
      "mg": 10093,
      "mas": 10094,
      "pat": 10095,
      "ris": 10096,
      "vict": 10097,
      "бзд": 10098,
      "зон": 10099,
      "здэг": 10100,
      "кэ": 10101,
      "кр": 10102,
      "шон": 10103,
      "##ho": 10104,
      "##fl": 10105,
      "нья": 10106,
      "олшр": 10107,
      "орво": 10108,
      "арр": 10109,
      "амш": 10110,
      "аме": 10111,
      "амбар": 10112,
      "амтр": 10113,
      "ндал": 10114,
      "ндуй": 10115,
      "илий": 10116,
      "ерий": 10117,
      "нгуул": 10118,
      "ное": 10119,
      "анхи": 10120,
      "сүг": 10121,
      "галах": 10122,
      "олгод": 10123,
      "икаго": 10124,
      "аалц": 10125,
      "рти": 10126,
      "лько": 10127,
      "лобби": 10128,
      "##ild": 10129,
      "set": 10130,
      "##ush": 10131,
      "гене": 10132,
      "пицца": 10133,
      "инжа": 10134,
      "гөний": 10135,
      "уусга": 10136,
      "grand": 10137,
      "mode": 10138,
      "андаж": 10139,
      "bab": 10140,
      "хег": 10141,
      "cpu": 10142,
      "ведев": 10143,
      "авлик": 10144,
      "/>": 10145,
      "//": 10146,
      "but": 10147,
      "core": 10148,
      "fir": 10149,
      "fact": 10150,
      "gue": 10151,
      "oc": 10152,
      "rou": 10153,
      "ui": 10154,
      "ware": 10155,
      "бве": 10156,
      "влэ": 10157,
      "гй": 10158,
      "ейл": 10159,
      "майн": 10160,
      "что": 10161,
      "яга": 10162,
      "єм": 10163,
      "єн": 10164,
      "байл": 10165,
      "##илл": 10166,
      "үүе": 10167,
      "ангал": 10168,
      "ээтэй": 10169,
      "ама": 10170,
      "хоч": 10171,
      "урын": 10172,
      "ирм": 10173,
      "одло": 10174,
      "дааа": 10175,
      "мани": 10176,
      "жээнд": 10177,
      "того": 10178,
      "лөгдө": 10179,
      "утис": 10180,
      "гольф": 10181,
      "рина": 10182,
      "рент": 10183,
      "stor": 10184,
      "иви": 10185,
      "rome": 10186,
      "lee": 10187,
      "араон": 10188,
      "map": 10189,
      "ell": 10190,
      "ронд": 10191,
      "ript": 10192,
      "geo": 10193,
      "жонш": 10194,
      "єгєє": 10195,
      "ntu": 10196,
      "нтайж": 10197,
      "medee": 10198,
      "нхийл": 10199,
      "эфир": 10200,
      "house": 10201,
      "нмау": 10202,
      "91": 10203,
      "bank": 10204,
      "cc": 10205,
      "dre": 10206,
      "dri": 10207,
      "ik": 10208,
      "ier": 10209,
      "ist": 10210,
      "mr": 10211,
      "nin": 10212,
      "rol": 10213,
      "sb": 10214,
      "бах": 10215,
      "вай": 10216,
      "вда": 10217,
      "дюс": 10218,
      "мѳ": 10219,
      "ню": 10220,
      "ниу": 10221,
      "сорт": 10222,
      "цох": 10223,
      "єд": 10224,
      "##уз": 10225,
      "##пол": 10226,
      "үүш": 10227,
      "алца": 10228,
      "арль": 10229,
      "улд": 10230,
      "улт": 10231,
      "өрлө": 10232,
      "##оро": 10233,
      "илгэ": 10234,
      "ихи": 10235,
      "чип": 10236,
      "сака": 10237,
      "лду": 10238,
      "##ера": 10239,
      "ойт": 10240,
      "сех": 10241,
      "inf": 10242,
      "боть": 10243,
      "икс": 10244,
      "аалах": 10245,
      "оёж": 10246,
      "лцож": 10247,
      "дели": 10248,
      "лук": 10249,
      "пете": 10250,
      "тгэлт": 10251,
      "орчн": 10252,
      "драт": 10253,
      "law": 10254,
      "анбаа": 10255,
      "гялс": 10256,
      "year": 10257,
      "рейд": 10258,
      "euro": 10259,
      "93": 10260,
      "call": 10261,
      "fil": 10262,
      "full": 10263,
      "han": 10264,
      "lat": 10265,
      "mill": 10266,
      "rd": 10267,
      "ric": 10268,
      "ts": 10269,
      "ue": 10270,
      "дис": 10271,
      "жен": 10272,
      "заг": 10273,
      "при": 10274,
      "уцаа": 10275,
      "цны": 10276,
      "чо": 10277,
      "чэ": 10278,
      "шээл": 10279,
      "эу": 10280,
      "юри": 10281,
      "үж": 10282,
      "##ют": 10283,
      "##най": 10284,
      "##еа": 10285,
      "##za": 10286,
      "##ار": 10287,
      "##она": 10288,
      "энэн": 10289,
      "биг": 10290,
      "ануу": 10291,
      "анчи": 10292,
      "ула": 10293,
      "асва": 10294,
      "эмээн": 10295,
      "үйлч": 10296,
      "аша": 10297,
      "нос": 10298,
      "ллоо": 10299,
      "сүт": 10300,
      "гое": 10301,
      "осын": 10302,
      "цул": 10303,
      "хийлг": 10304,
      "цахи": 10305,
      "исней": 10306,
      "ака": 10307,
      "акс": 10308,
      "пап": 10309,
      "res": 10310,
      "stud": 10311,
      "гни": 10312,
      "дель": 10313,
      "рээг": 10314,
      "ийлгэ": 10315,
      "lock": 10316,
      "нано": 10317,
      "form": 10318,
      "doc": 10319,
      "vip": 10320,
      "рокко": 10321,
      "парад": 10322,
      "эмжих": 10323,
      "мьда": 10324,
      "знн": 10325,
      "cnc": 10326,
      "оддог": 10327,
      "льци": 10328,
      "music": 10329,
      "hen": 10330,
      "hot": 10331,
      "just": 10332,
      "lc": 10333,
      "lad": 10334,
      "mor": 10335,
      "nk": 10336,
      "ore": 10337,
      "pvc": 10338,
      "sing": 10339,
      "íî": 10340,
      "дло": 10341,
      "дэлт": 10342,
      "иин": 10343,
      "йог": 10344,
      "пин": 10345,
      "раан": 10346,
      "рас": 10347,
      "сүй": 10348,
      "сдэг": 10349,
      "фэй": 10350,
      "хї": 10351,
      "хєє": 10352,
      "ьс": 10353,
      "##сэр": 10354,
      "##єв": 10355,
      "##zy": 10356,
      "##ja": 10357,
      "анаг": 10358,
      "анаар": 10359,
      "ээт": 10360,
      "амгаа": 10361,
      "лти": 10362,
      "аср": 10363,
      "хэлд": 10364,
      "агв": 10365,
      "дарь": 10366,
      "эся": 10367,
      "гэрэ": 10368,
      "##ерт": 10369,
      "батт": 10370,
      "йлдл": 10371,
      "нэмэг": 10372,
      "гул": 10373,
      "соло": 10374,
      "раун": 10375,
      "оёо": 10376,
      "акци": 10377,
      "this": 10378,
      "no1": 10379,
      "ani": 10380,
      "мраг": 10381,
      "rom": 10382,
      "ori": 10383,
      "ролл": 10384,
      "ванг": 10385,
      "mod": 10386,
[...]
