{
  "version": "1.0",
  "truncation": null,
  "padding": null,
  "added_tokens": [
    {
      "id": 10000,
      "content": "[UNK]",
      "single_word": false,
      "lstrip": false,
      "rstrip": false,
      "normalized": false,
      "special": true
    }
  ],
  "normalizer": null,
  "pre_tokenizer": {
    "type": "Sequence",
    "pretokenizers": [
      {
        "type": "Split",
        "pattern": {
          "Regex": "\\p{N}{1,3}| ?[^\\s\\p{L}\\p{N}]{2,}[\\r\\n/]*| +(?!\\S)"
        },
        "behavior": "Isolated",
        "invert": false
      }
    ]
  },
  "post_processor": null,
  "decoder": null,
  "model": {
    "type": "BPE",
    "dropout": null,
    "unk_token": null,
    "continuing_subword_prefix": null,
    "end_of_word_suffix": null,
    "fuse_unk": false,
    "byte_fallback": false,
    "ignore_merges": false,
    "vocab": {
      "\n": 0,
      " ": 1,
      "!": 2,
      "\"": 3,
      "#": 4,
      "$": 5,
      "%": 6,
      "&": 7,
      "'": 8,
      "(": 9,
      ")": 10,
      "*": 11,
      "+": 12,
      ",": 13,
      "-": 14,
      ".": 15,
      "/": 16,
      "0": 17,
      "1": 18,
      "2": 19,
      "3": 20,
      "4": 21,
      "5": 22,
      "6": 23,
      "7": 24,
      "8": 25,
      "9": 26,
      ":": 27,
      ";": 28,
      "<": 29,
      "=": 30,
      ">": 31,
      "?": 32,
      "@": 33,
      "A": 34,
      "B": 35,
      "C": 36,
      "D": 37,
      "E": 38,
      "F": 39,
      "G": 40,
      "H": 41,
      "I": 42,
      "J": 43,
      "K": 44,
      "L": 45,
      "M": 46,
      "N": 47,
      "O": 48,
      "P": 49,
      "Q": 50,
      "R": 51,
      "S": 52,
      "T": 53,
      "U": 54,
      "V": 55,
      "W": 56,
      "X": 57,
      "Y": 58,
      "Z": 59,
      "[": 60,
      "\\": 61,
      "]": 62,
      "_": 63,
      "`": 64,
      "a": 65,
      "b": 66,
      "c": 67,
      "d": 68,
      "e": 69,
      "f": 70,
      "g": 71,
      "h": 72,
      "i": 73,
      "j": 74,
      "k": 75,
      "l": 76,
      "m": 77,
      "n": 78,
      "o": 79,
      "p": 80,
      "q": 81,
      "r": 82,
      "s": 83,
      "t": 84,
      "u": 85,
      "v": 86,
      "w": 87,
      "x": 88,
      "y": 89,
      "z": 90,
      "~": 91,
      "": 92,
      "£": 93,
      "¤": 94,
      "¥": 95,
      "¦": 96,
      "§": 97,
      "©": 98,
      "¬": 99,
      "­": 100,
      "°": 101,
      "²": 102,
      "³": 103,
      "µ": 104,
      "·": 105,
      "¹": 106,
      "º": 107,
      "¼": 108,
      "½": 109,
      "¾": 110,
      "É": 111,
      "Ë": 112,
      "Ö": 113,
      "×": 114,
      "ß": 115,
      "à": 116,
      "á": 117,
      "ä": 118,
      "ç": 119,
      "è": 120,
      "é": 121,
      "ê": 122,
      "ë": 123,
      "í": 124,
      "ð": 125,
      "ó": 126,
      "ô": 127,
      "õ": 128,
      "ö": 129,
      "ø": 130,
      "ü": 131,
      "þ": 132,
      "ā": 133,
      "ę": 134,
      "ī": 135,
      "İ": 136,
      "ı": 137,
      "Ł": 138,
      "ń": 139,
      "ŏ": 140,
      "ś": 141,
      "Ş": 142,
      "ş": 143,
      "Š": 144,
      "š": 145,
      "ʀ": 146,
      "ʼ": 147,
      "˚": 148,
      "́": 149,
      "̆": 150,
      "̈": 151,
      "Έ": 152,
      "Α": 153,
      "Γ": 154,
      "Η": 155,
      "Ν": 156,
      "Σ": 157,
      "έ": 158,
      "α": 159,
      "β": 160,
      "λ": 161,
      "μ": 162,
      "ν": 163,
      "ο": 164,
      "ρ": 165,
      "τ": 166,
      "χ": 167,
      "ώ": 168,
      "Є": 169,
      "І": 170,
      "Ї": 171,
      "Ў": 172,
      "А": 173,
      "Б": 174,
      "В": 175,
      "Г": 176,
      "Д": 177,
      "Е": 178,
      "Ж": 179,
      "З": 180,
      "И": 181,
      "Й": 182,
      "К": 183,
      "Л": 184,
      "М": 185,
      "Н": 186,
      "О": 187,
      "П": 188,
      "Р": 189,
      "С": 190,
      "Т": 191,
      "У": 192,
      "Ф": 193,
      "Х": 194,
      "Ц": 195,
      "Ч": 196,
      "Ш": 197,
      "Щ": 198,
      "Ъ": 199,
      "Ы": 200,
      "Ь": 201,
      "Э": 202,
      "Ю": 203,
      "Я": 204,
      "а": 205,
      "б": 206,
      "в": 207,
      "г": 208,
      "д": 209,
      "е": 210,
      "ж": 211,
      "з": 212,
      "и": 213,
      "й": 214,
      "к": 215,
      "л": 216,
      "м": 217,
      "н": 218,
      "о": 219,
      "п": 220,
      "р": 221,
      "с": 222,
      "т": 223,
      "у": 224,
      "ф": 225,
      "х": 226,
      "ц": 227,
      "ч": 228,
      "ш": 229,
      "щ": 230,
      "ъ": 231,
      "ы": 232,
      "ь": 233,
      "э": 234,
      "ю": 235,
      "я": 236,
      "є": 237,
      "і": 238,
      "ї": 239,
      "ў": 240,
      "џ": 241,
      "ғ": 242,
      "Қ": 243,
      "қ": 244,
      "ҳ": 245,
      "ӣ": 246,
      "‍": 247,
      "‎": 248,
      "‐": 249,
      "‑": 250,
      "‒": 251,
      "―": 252,
      "•": 253,
      "‪": 254,
      "‬": 255,
      "″": 256,
      "€": 257,
      "№": 258,
      "⅓": 259,
      "→": 260,
      "−": 261,
      "∙": 262,
      "⋅": 263,
      "─": 264,
      "■": 265,
      "▲": 266,
      "►": 267,
      "●": 268,
      "☃": 269,
      "☝": 270,
      "♫": 271,
      "⚽": 272,
      "❄": 273,
      "《": 274,
      "》": 275,
      "": 276,
      "️": 277,
      "🌞": 278,
      "🍺": 279,
      "🎂": 280,
      "🐅": 281,
      "🐗": 282,
      "🐺": 283,
      "💪": 284,
      "😂": 285,
      "🙈": 286,
      " п": 287,
      "ст": 288,
      " в": 289,
      " с": 290,
      "ен": 291,
      "ов": 292,
      "ра": 293,
      " н": 294,
      ".\n": 295,
      "и ": 296,
      "о ": 297,
      "е ": 298,
      ", ": 299,
      "а ": 300,
      "ре": 301,
      "ро": 302,
      "ко": 303,
      "но": 304,
      "то": 305,
      "ан": 306,
      "ет": 307,
      " по": 308,
      "ал": 309,
      "ит": 310,
      "ер": 311,
      "й ": 312,
      "ел": 313,
      "ны": 314,
      "я ": 315,
      "го": 316,
      "ин": 317,
      " в ": 318,
      "ат": 319,
      "ил": 320,
      "ка": 321,
      "м ": 322,
      "об": 323,
      "ени": 324,
      "от": 325,
      "ри": 326,
      " на": 327,
      "ь ": 328,
      "за": 329,
      "ол": 330,
      "ни": 331,
      "ци": 332,
      "ки": 333,
      "ств": 334,
      "х ": 335,
      "од": 336,
      "ру": 337,
      "ос": 338,
      "он": 339,
      "ав": 340,
      "ли": 341,
      "ед": 342,
      "го ": 343,
      "ес": 344,
      "ор": 345,
      " про": 346,
      "ем": 347,
      "из": 348,
      "ар": 349,
      "ани": 350,
      "у ": 351,
      "ы ": 352,
      "мо": 353,
      "ла": 354,
      " на ": 355,
      "ред": 356,
      "та": 357,
      ", ч": 358,
      "ис": 359,
      "ти": 360,
      "си": 361,
      "ся": 362,
      "ров": 363,
      " со": 364,
      "ей": 365,
      "ми": 366,
      "на": 367,
      "то ": 368,
      "уд": 369,
      "ель": 370,
      " не": 371,
      "к ": 372,
      "ско": 373,
      "ет ": 374,
      "ев": 375,
      "бы": 376,
      "- ": 377,
      "ек": 378,
      "до": 379,
      "ры": 380,
      "да": 381,
      " вы": 382,
      "ест": 383,
      "ут": 384,
      "мен": 385,
      "ль": 386,
      "ю ": 387,
      " при": 388,
      "ча": 389,
      "аль": 390,
      "раз": 391,
      "ков": 392,
      "ку": 393,
      " с ": 394,
      " во": 395,
      "ло": 396,
      "во": 397,
      "ля": 398,
      "сто": 399,
      "ма": 400,
      "ност": 401,
      "ски": 402,
      "ги": 403,
      "ют": 404,
      "ся ": 405,
      "лу": 406,
      "ят": 407,
      "рав": 408,
      "ран": 409,
      "ком": 410,
      "ид": 411,
      "кото": 412,
      "ам": 413,
      "это": 414,
      " под": 415,
      " не ": 416,
      "год": 417,
      "ать": 418,
      "ва": 419,
      ", что ": 420,
      "ент": 421,
      "ной ": 422,
      "им": 423,
      " пред": 424,
      "\",": 425,
      "жд": 426,
      "ере": 427,
      "кон": 428,
      "ных ": 429,
      "20": 430,
      "став": 431,
      "каз": 432,
      "\" ": 433,
      "ход": 434,
      " по ": 435,
      "сл": 436,
      "ак": 437,
      "сп": 438,
      "чес": 439,
      "Рос": 440,
      "ей ": 441,
      "ом": 442,
      "но ": 443,
      "ди": 444,
      ", что": 445,
      "ов ": 446,
      " пре": 447,
      "ного ": 448,
      "ения": 449,
      "рос": 450,
      " м": 451,
      "ши": 452,
      "оп": 453,
      "яв": 454,
      "Росси": 455,
      "оль": 456,
      "В ": 457,
      "общ": 458,
      "ист": 459,
      "итель": 460,
      "те": 461,
      "ас": 462,
      "же": 463,
      "ез": 464,
      "гра": 465,
      "щи": 466,
      " д": 467,
      "га": 468,
      "не": 469,
      " вс": 470,
      "ме": 471,
      "уп": 472,
      "ки ": 473,
      "че": 474,
      "лю": 475,
      "ур": 476,
      "ения ": 477,
      " \"": 478,
      "кра": 479,
      " сп": 480,
      "дел": 481,
      "гов": 482,
      "ные ": 483,
      "ать ": 484,
      "которы": 485,
      "ад": 486,
      "сти": 487,
      "раб": 488,
      "ить": 489,
      "201": 490,
      "ив": 491,
      "\".\n": 492,
      "ный ": 493,
      "ну": 494,
      "ствен": 495,
      "ител": 496,
      "сс": 497,
      "мож": 498,
      "буд": 499,
      "ле": 500,
      "был": 501,
      " - ": 502,
      "ка ": 503,
      "ение": 504,
      "род": 505,
      "же ": 506,
      "али": 507,
      "или": 508,
      "ение ": 509,
      "ции": 510,
      "ера": 511,
      "му": 512,
      "ил ": 513,
      "а.\n": 514,
      "ля ": 515,
      ": ": 516,
      "ще": 517,
      "тер": 518,
      "ми ": 519,
      "ря": 520,
      "уб": 521,
      "лен": 522,
      "ных": 523,
      " сво": 524,
      "ить ": 525,
      "стан": 526,
      "ной": 527,
      "е.\n": 528,
      "вер": 529,
      "за ": 530,
      "из ": 531,
      "ется": 532,
      "лав": 533,
      "ал ": 534,
      "том": 535,
      "мер": 536,
      "ции ": 537,
      "ово": 538,
      " сообщ": 539,
      "дол": 540,
      "зв": 541,
      "овы": 542,
      "оч": 543,
      "е с": 544,
      "работ": 545,
      "тив": 546,
      ", по": 547,
      "ного": 548,
      "стра": 549,
      "де": 550,
      " и ": 551,
      "лов": 552,
      " пр": 553,
      "ше": 554,
      "или ": 555,
      "ской ": 556,
      "бо": 557,
      ", н": 558,
      "ты": 559,
      "рем": 560,
      " воз": 561,
      "мест": 562,
      "ду": 563,
      "ко ": 564,
      "нов": 565,
      "ее ": 566,
      "так": 567,
      "жен": 568,
      " пере": 569,
      "р ": 570,
      ", которы": 571,
      "ус": 572,
      "лет": 573,
      " год": 574,
      "е в": 575,
      "тов": 576,
      "ту": 577,
      "ити": 578,
      "ай": 579,
      "лек": 580,
      " пер": 581,
      "ня": 582,
      "ем ": 583,
      "комп": 584,
      "мин": 585,
      "пол": 586,
      "ли ": 587,
      "чи": 588,
      ", с": 589,
      "от ": 590,
      "дер": 591,
      "чески": 592,
      "фи": 593,
      "и.\n": 594,
      "ным ": 595,
      "ра ": 596,
      "говор": 597,
      "фор": 598,
      "бол": 599,
      "луч": 600,
      "года": 601,
      "росси": 602,
      "ступ": 603,
      "овани": 604,
      "руб": 605,
      "ный": 606,
      "вы": 607,
      " в с": 608,
      "анд": 609,
      ", в ": 610,
      "стро": 611,
      "част": 612,
      "боль": 613,
      "ского ": 614,
      "цион": 615,
      "жи": 616,
      "ром": 617,
      " пол": 618,
      "и с": 619,
      "зд": 620,
      "али ": 621,
      "а, ": 622,
      "По": 623,
      "заяв": 624,
      "зна": 625,
      "На": 626,
      "его ": 627,
      "иль": 628,
      "ном": 629,
      " посл": 630,
      "чит": 631,
      " ни": 632,
      " прав": 633,
      "е, ": 634,
      "ющи": 635,
      "т ": 636,
      "глав": 637,
      "как ": 638,
      " пров": 639,
      "мы": 640,
      "дв": 641,
      "его": 642,
      "ери": 643,
      "мет": 644,
      "для ": 645,
      "атель": 646,
      "стви": 647,
      "кв": 648,
      "ны ": 649,
      "ется ": 650,
      "ть": 651,
      "рез": 652,
      ". ": 653,
      "ает ": 654,
      "чен": 655,
      "да ": 656,
      " нап": 657,
      "вод": 658,
      "россий": 659,
      "реш": 660,
      "ател": 661,
      "ном ": 662,
      "яз": 663,
      "ста": 664,
      "тре": 665,
      "ческо": 666,
      "тор": 667,
      "цен": 668,
      "ит ": 669,
      " нач": 670,
      " -": 671,
      "зап": 672,
      "ян": 673,
      "вет": 674,
      "ок": 675,
      "ют ": 676,
      "рас": 677,
      "еч": 678,
      "мат": 679,
      "руп": 680,
      "ная ": 681,
      "ина": 682,
      "мог": 683,
      ", в": 684,
      "ное ": 685,
      "ство": 686,
      "кол": 687,
      "ным": 688,
      ", а ": 689,
      "ке ": 690,
      "бор": 691,
      "лож": 692,
      "расс": 693,
      "ыва": 694,
      "орг": 695,
      "еред": 696,
      "ала ": 697,
      "долж": 698,
      "роп": 699,
      "гу": 700,
      "елов": 701,
      " прин": 702,
      "пи": 703,
      "чет": 704,
      "до ": 705,
      "компани": 706,
      "кан": 707,
      "та ": 708,
      "ении ": 709,
      "лед": 710,
      "дан": 711,
      " мл": 712,
      "коно": 713,
      "и, ": 714,
      "кры": 715,
      "гла": 716,
      "ность": 717,
      "ства ": 718,
      "объ": 719,
      "ство ": 720,
      "д ": 721,
      "рак": 722,
      "Мос": 723,
      "вест": 724,
      "ин ": 725,
      "без": 726,
      "с ": 727,
      "ало": 728,
      "оро": 729,
      "дру": 730,
      "челов": 731,
      " пл": 732,
      "би": 733,
      "ов.\n": 734,
      "идент": 735,
      "эк": 736,
      "ные": 737,
      " пар": 738,
      "бы ": 739,
      " през": 740,
      "ах": 741,
      "н ": 742,
      "зи": 743,
      "Ка": 744,
      "ска": 745,
      "клю": 746,
      " года": 747,
      "я.\n": 748,
      "ников": 749,
      "это ": 750,
      "держ": 751,
      "их": 752,
      "ень": 753,
      "руд": 754,
      "яб": 755,
      "ала": 756,
      "уль": 757,
      "ещ": 758,
      " соб": 759,
      "станов": 760,
      "ы.\n": 761,
      "рат": 762,
      "удар": 763,
      "обла": 764,
      "гос": 765,
      "ам ": 766,
      "стре": 767,
      "по": 768,
      "том ": 769,
      "ели": 770,
      "ству": 771,
      " произ": 772,
      "По ": 773,
      "стран": 774,
      "дей": 775,
      " сов": 776,
      "А ": 777,
      " все": 778,
      " представ": 779,
      "ский ": 780,
      "ности ": 781,
      "бан": 782,
      "мот": 783,
      "ись": 784,
      "уч": 785,
      "Об": 786,
      "минист": 787,
      "циаль": 788,
      "ник": 789,
      "ут ": 790,
      "лько ": 791,
      " перед": 792,
      "ную ": 793,
      " получ": 794,
      "ось": 795,
      "ция": 796,
      "аг": 797,
      "00": 798,
      "ув": 799,
      "са": 800,
      "которо": 801,
      "этом": 802,
      "й с": 803,
      "й.\n": 804,
      "СШ": 805,
      "ства": 806,
      "ниц": 807,
      "яс": 808,
      "ских ": 809,
      "ила ": 810,
      "бу": 811,
      "ост": 812,
      ").\n": 813,
      "и в": 814,
      "19": 815,
      "ап": 816,
      "лекс": 817,
      "ку ": 818,
      "тат": 819,
      "рен": 820,
      " на с": 821,
      "луж": 822,
      "казал": 823,
      "стоя": 824,
      "он ": 825,
      "цент": 826,
      "уще": 827,
      "е по": 828,
      "кто": 829,
      "шен": 830,
      "еб": 831,
      "прос": 832,
      "город": 833,
      "у.\n": 834,
      "ари": 835,
      "ания": 836,
      "их ": 837,
      "чем": 838,
      "реги": 839,
      "иг": 840,
      "России ": 841,
      " состав": 842,
      "сти ": 843,
      "ой ": 844,
      "вед": 845,
      "е в ": 846,
      " слов": 847,
      "РФ": 848,
      "ится": 849,
      "точ": 850,
      "ри ": 851,
      "ум": 852,
      "Ев": 853,
      "и по": 854,
      "того": 855,
      "ответ": 856,
      "ним": 857,
      "убли": 858,
      "ыв": 859,
      "?\n": 860,
      "лиц": 861,
      "Укра": 862,
      "ина ": 863,
      "про": 864,
      "ец": 865,
      " президент": 866,
      "отно": 867,
      "иц": 868,
      " (": 869,
      "как": 870,
      " ты": 871,
      "еж": 872,
      "больш": 873,
      "на ": 874,
      "ей.\n": 875,
      "гда ": 876,
      " все ": 877,
      "уж": 878,
      "полн": 879,
      "дет": 880,
      "ника": 881,
      "ых ": 882,
      ", но ": 883,
      "имо": 884,
      "тро": 885,
      "),": 886,
      "государ": 887,
      " нед": 888,
      "этом ": 889,
      "ож": 890,
      "и в ": 891,
      "иту": 892,
      "исп": 893,
      "ба": 894,
      "более ": 895,
      "Ан": 896,
      "рован": 897,
      "еп": 898,
      "со": 899,
      "для": 900,
      " св": 901,
      "ания ": 902,
      "кономи": 903,
      "чис": 904,
      "фин": 905,
      " нес": 906,
      "оз": 907,
      "кой": 908,
      "Алекс": 909,
      "Вла": 910,
      "па": 911,
      " сам": 912,
      "ила": 913,
      "исто": 914,
      "она": 915,
      "ция ": 916,
      "бл": 917,
      "мы ": 918,
      "кла": 919,
      "сторо": 920,
      " врем": 921,
      "цев": 922,
      "ти ": 923,
      "ун": 924,
      " вопрос": 925,
      "ная": 926,
      "след": 927,
      "ман": 928,
      "орт": 929,
      "ность ": 930,
      "ла ": 931,
      "изн": 932,
      "тех": 933,
      "форма": 934,
      "рам": 935,
      " суд": 936,
      "зов": 937,
      "ле ": 938,
      "образ": 939,
      "экономи": 940,
      " прош": 941,
      "кор": 942,
      "ом ": 943,
      "пл": 944,
      "яти": 945,
      "будет ": 946,
      "ору": 947,
      "ми.\n": 948,
      "луча": 949,
      "особ": 950,
      "явля": 951,
      "основ": 952,
      "уча": 953,
      "будет": 954,
      "ре ": 955,
      "аниза": 956,
      "Ин": 957,
      "России": 958,
      "я, ": 959,
      "также ": 960,
      "готов": 961,
      "разв": 962,
      "зн": 963,
      "при": 964,
      "en": 965,
      ", на": 966,
      "егод": 967,
      "отмет": 968,
      "цию": 969,
      " возмож": 970,
      "er": 971,
      "амо": 972,
      "ке": 973,
      "ерг": 974,
      "ая ": 975,
      "эксп": 976,
      " и": 977,
      "ности": 978,
      "кой ": 979,
      "тел": 980,
      ", а": 981,
      "рет": 982,
      "ультат": 983,
      "тори": 984,
      "ейча": 985,
      "10": 986,
      "ой": 987,
      "жду": 988,
      "рай": 989,
      "ению": 990,
      "ся в ": 991,
      "ющ": 992,
      " пов": 993,
      "ири": 994,
      "хран": 995,
      "уже": 996,
      "Мин": 997,
      "она ": 998,
      "доб": 999,
      ", и ": 1000,
      "человек": 1001,
      "ись ": 1002,
      "щен": 1003,
      "л ": 1004,
      "тра": 1005,
      " вз": 1006,
      " послед": 1007,
      "груп": 1008,
      "ание ": 1009,
      "жа": 1010,
      "тем": 1011,
      "организа": 1012,
      "отнош": 1013,
      "отруд": 1014,
      "ключ": 1015,
      "ского": 1016,
      "равл": 1017,
      "опас": 1018,
      " полити": 1019,
      " пос": 1020,
      "мент": 1021,
      "бли": 1022,
      "ета ": 1023,
      "кат": 1024,
      "США": 1025,
      "результат": 1026,
      "тур": 1027,
      "нут": 1028,
      " сред": 1029,
      "ению ": 1030,
      " вид": 1031,
      "лин": 1032,
      "ремен": 1033,
      "Од": 1034,
      "об ": 1035,
      " вер": 1036,
      "едера": 1037,
      "e ": 1038,
      "х.\n": 1039,
      "кар": 1040,
      "Влади": 1041,
      "дав": 1042,
      "ень ": 1043,
      "Со": 1044,
      "гражд": 1045,
      ", как ": 1046,
      "На ": 1047,
      "ять ": 1048,
      "ую ": 1049,
      "и \"": 1050,
      "расп": 1051,
      "еро": 1052,
      "ее": 1053,
      " нас": 1054,
      "един": 1055,
      "ич": 1056,
      "ском ": 1057,
      "..": 1058,
      "также": 1059,
      "ы, ": 1060,
      "мн": 1061,
      " проек": 1062,
      "пу": 1063,
      "ает": 1064,
      "ех": 1065,
      "ными ": 1066,
      "алист": 1067,
      "информа": 1068,
      "ковод": 1069,
      "так ": 1070,
      "лиш": 1071,
      "было": 1072,
      "пер": 1073,
      "рубл": 1074,
      "дж": 1075,
      "сов": 1076,
      "гда": 1077,
      "вар": 1078,
      "у, ": 1079,
      "15": 1080,
      "ась": 1081,
      "ый ": 1082,
      "ть ": 1083,
      "е \"": 1084,
      "лько": 1085,
      "Владими": 1086,
      "был ": 1087,
      "СС": 1088,
      "лич": 1089,
      "руш": 1090,
      "други": 1091,
      "хот": 1092,
      "ых": 1093,
      "конц": 1094,
      "ник ": 1095,
      "сть": 1096,
      "ки.\n": 1097,
      " воен": 1098,
      " согла": 1099,
      "Москв": 1100,
      "ами ": 1101,
      " вла": 1102,
      "ан ": 1103,
      "фак": 1104,
      "они": 1105,
      "м.\n": 1106,
      "есп": 1107,
      "еще ": 1108,
      "гол": 1109,
      "что": 1110,
      "еся": 1111,
      "фон": 1112,
      "оло": 1113,
      "ней": 1114,
      "жел": 1115,
      "ма ": 1116,
      "ную": 1117,
      " новы": 1118,
      "ему ": 1119,
      "извест": 1120,
      "ются": 1121,
      "ская ": 1122,
      "ые ": 1123,
      " в С": 1124,
      "илли": 1125,
      "кур": 1126,
      " наш": 1127,
      "но-": 1128,
      "ять": 1129,
      "но, ": 1130,
      "С ": 1131,
      "г ": 1132,
      "итель ": 1133,
      "доро": 1134,
      "ских": 1135,
      "газ": 1136,
      "итуа": 1137,
      "чер": 1138,
      "таки": 1139,
      "ия": 1140,
      "сед": 1141,
      "эти": 1142,
      "куп": 1143,
      "й, ": 1144,
      " созд": 1145,
      " млр": 1146,
      "ось ": 1147,
      "руковод": 1148,
      "ские ": 1149,
      "ta": 1150,
      "стол": 1151,
      " правитель": 1152,
      "может ": 1153,
      "стру": 1154,
      " неско": 1155,
      "народ": 1156,
      "было ": 1157,
      "регион": 1158,
      " при ": 1159,
      "мощ": 1160,
      "есть ": 1161,
      "уже ": 1162,
      " против": 1163,
      ", но": 1164,
      "вин": 1165,
      "ыт": 1166,
      "аться": 1167,
      " сказ": 1168,
      " ново": 1169,
      " года ": 1170,
      "Гос": 1171,
      "закон": 1172,
      "анс": 1173,
      "только ": 1174,
      " счит": 1175,
      "ил, что ": 1176,
      "дов": 1177,
      "чин": 1178,
      "усл": 1179,
      "один ": 1180,
      "грам": 1181,
      "ека": 1182,
      "Та": 1183,
      "мед": 1184,
      "ствов": 1185,
      "цию ": 1186,
      "может": 1187,
      "200": 1188,
      "ской обла": 1189,
      " след": 1190,
      " необ": 1191,
      "ное": 1192,
      "прав": 1193,
      "тран": 1194,
      "автом": 1195,
      "ген": 1196,
      "но.\n": 1197,
      "знач": 1198,
      "ются ": 1199,
      " наход": 1200,
      ", которые ": 1201,
      " вед": 1202,
      "люд": 1203,
      "участ": 1204,
      "мит": 1205,
      "ош": 1206,
      "раво": 1207,
      "ритори": 1208,
      ") ": 1209,
      "аз": 1210,
      "ая": 1211,
      "ятель": 1212,
      "де ": 1213,
      "те ": 1214,
      "мар": 1215,
      "МИ": 1216,
      " после ": 1217,
      "орган": 1218,
      "ждународ": 1219,
      ", сообщ": 1220,
      "а в ": 1221,
      "инг": 1222,
      "торо": 1223,
      "ений ": 1224,
      "ции.\n": 1225,
      "инт": 1226,
      "сь": 1227,
      "ер ": 1228,
      ", про": 1229,
      "сяч": 1230,
      "При": 1231,
      "рит": 1232,
      "рассказ": 1233,
      "истем": 1234,
      "ru": 1235,
      "ясн": 1236,
      " производ": 1237,
      "Александ": 1238,
      "ения.\n": 1239,
      "ы в ": 1240,
      "территори": 1241,
      "цел": 1242,
      "из-": 1243,
      "Об ": 1244,
      "ито": 1245,
      "ото": 1246,
      "ов, ": 1247,
      "ало ": 1248,
      "ком ": 1249,
      "зав": 1250,
      "Пут": 1251,
      " поддерж": 1252,
      "ара": 1253,
      "уров": 1254,
      "а и ": 1255,
      "опера": 1256,
      " тыс": 1257,
      "служ": 1258,
      "обще": 1259,
      "ир": 1260,
      "исполь": 1261,
      " спе": 1262,
      "граждан": 1263,
      "ерт": 1264,
      "треб": 1265,
      "on": 1266,
      "Вс": 1267,
      "актив": 1268,
      "амери": 1269,
      "были ": 1270,
      "изи": 1271,
      " вос": 1272,
      "ня ": 1273,
      "Украи": 1274,
      " сдел": 1275,
      "ений": 1276,
      "американ": 1277,
      "му ": 1278,
      "Но ": 1279,
      "Серг": 1280,
      "е врем": 1281,
      "ерб": 1282,
      "ую": 1283,
      "блем": 1284,
      "бе": 1285,
      "Ни": 1286,
      "бю": 1287,
      "кин": 1288,
      "12": 1289,
      "егодня": 1290,
      "откры": 1291,
      "ден": 1292,
      " неф": 1293,
      "су": 1294,
      "пис": 1295,
      "Во": 1296,
      "остав": 1297,
      "ении": 1298,
      "не ": 1299,
      "голов": 1300,
      "авто": 1301,
      "\"С": 1302,
      "ании ": 1303,
      " г": 1304,
      " но": 1305,
      " встре": 1306,
      "30": 1307,
      "ники ": 1308,
      "деп": 1309,
      "ета": 1310,
      "рын": 1311,
      "следовани": 1312,
      "ний ": 1313,
      ".ru": 1314,
      "бед": 1315,
      "Ран": 1316,
      "сс-": 1317,
      "развити": 1318,
      " необход": 1319,
      " сотруд": 1320,
      "услов": 1321,
      "Про": 1322,
      " прив": 1323,
      "Так": 1324,
      ": \"": 1325,
      "имен": 1326,
      "быв": 1327,
      "ят ": 1328,
      "дире": 1329,
      "рес": 1330,
      "обра": 1331,
      "если ": 1332,
      "ится ": 1333,
      " себ": 1334,
      "только": 1335,
      "ск": 1336,
      "анк": 1337,
      "были": 1338,
      "уз": 1339,
      "жден": 1340,
      " выступ": 1341,
      " парти": 1342,
      "й по": 1343,
      "ел ": 1344,
      "тен": 1345,
      "ерез": 1346,
      "фер": 1347,
      "рей": 1348,
      "роз": 1349,
      "групп": 1350,
      "госп": 1351,
      "Пет": 1352,
      "ами": 1353,
      "гор": 1354,
      "укра": 1355,
      "еще": 1356,
      "логи": 1357,
      "интере": 1358,
      "коло ": 1359,
      "Как": 1360,
      "струк": 1361,
      "аш": 1362,
      " млн ": 1363,
      "уг": 1364,
      "автомоб": 1365,
      "ших": 1366,
      "котора": 1367,
      "Европ": 1368,
      "ших ": 1369,
      "К ": 1370,
      ", чтобы ": 1371,
      " само": 1372,
      "Пос": 1373,
      " первы": 1374,
      "За": 1375,
      "жив": 1376,
      "они ": 1377,
      "меча": 1378,
      "олод": 1379,
      " перво": 1380,
      "каж": 1381,
      ", на ": 1382,
      "утат": 1383,
      "тя": 1384,
      "миров": 1385,
      "истори": 1386,
      " продолж": 1387,
      " вой": 1388,
      "ью": 1389,
      "ряд": 1390,
      "аться ": 1391,
      "циональ": 1392,
      "име": 1393,
      " под ": 1394,
      "доку": 1395,
      "in": 1396,
      "рост": 1397,
      "алось": 1398,
      "ением ": 1399,
      "кую ": 1400,
      "ному ": 1401,
      "участи": 1402,
      "офи": 1403,
      "Ново": 1404,
      "ября": 1405,
      "министра": 1406,
      " до ": 1407,
      "При ": 1408,
      "реб": 1409,
      " проблем": 1410,
      ", при": 1411,
      "и и ": 1412,
      "ными": 1413,
      "около ": 1414,
      "оче": 1415,
      "мента": 1416,
      "нич": 1417,
      ", по ": 1418,
      "ны.\n": 1419,
      "рев": 1420,
      "ави": 1421,
      " ситуа": 1422,
      "ческой ": 1423,
      "вяз": 1424,
      "редел": 1425,
      "безопас": 1426,
      " году ": 1427,
      "рин": 1428,
      "ась ": 1429,
      "этого ": 1430,
      " прошло": 1431,
      "сы": 1432,
      "рори": 1433,
      " к": 1434,
      "эн": 1435,
      " програм": 1436,
      "ают": 1437,
      "роме ": 1438,
      "an": 1439,
      "От": 1440,
      "лег": 1441,
      "щит": 1442,
      "ог": 1443,
      "ий": 1444,
      " предлож": 1445,
      "зани": 1446,
      "еш": 1447,
      "ился": 1448,
      "Кон": 1449,
      "Как ": 1450,
      "агент": 1451,
      " пресс-": 1452,
      "ший ": 1453,
      "ати": 1454,
      "измен": 1455,
      "ух": 1456,
      "18": 1457,
      "50": 1458,
      "Он": 1459,
      "Дж": 1460,
      "Это ": 1461,
      "что ": 1462,
      "ков ": 1463,
      " случа": 1464,
      " вод": 1465,
      "Ар": 1466,
      "аб": 1467,
      "ря ": 1468,
      "уш": 1469,
      "обвин": 1470,
      "когда ": 1471,
      "ОО": 1472,
      "ы и ": 1473,
      ", вы": 1474,
      "ого ": 1475,
      "сть ": 1476,
      "установ": 1477,
      "гиб": 1478,
      "Одна": 1479,
      " провед": 1480,
      "действи": 1481,
      "арта": 1482,
      " назв": 1483,
      "И ": 1484,
      "Под": 1485,
      "ники": 1486,
      ", п": 1487,
      "каки": 1488,
      "управл": 1489,
      "урн": 1490,
      "бра": 1491,
      "Это": 1492,
      "есть": 1493,
      "-лет": 1494,
      "о том": 1495,
      ", что в ": 1496,
      "тон": 1497,
      "иж": 1498,
      "круп": 1499,
      "Ко": 1500,
      "плат": 1501,
      " дол": 1502,
      "интер": 1503,
      "ителя": 1504,
      "ему": 1505,
      "Россий": 1506,
      " нуж": 1507,
      "арти": 1508,
      " показ": 1509,
      "аж": 1510,
      ", не": 1511,
      "зем": 1512,
      " тыс. ": 1513,
      "изнес": 1514,
      "респ": 1515,
      "чемпи": 1516,
      "ской": 1517,
      ", г": 1518,
      "ка.\n": 1519,
      "жду ": 1520,
      " поли": 1521,
      "район": 1522,
      "очеред": 1523,
      "ейчас": 1524,
      "ной с": 1525,
      "реж": 1526,
      "рий ": 1527,
      " произош": 1528,
      "Тур": 1529,
      "задерж": 1530,
      "неш": 1531,
      "ло ": 1532,
      "террори": 1533,
      " состоя": 1534,
      "11": 1535,
      "защит": 1536,
      "иться": 1537,
      "е-": 1538,
      "\"М": 1539,
      "стве ": 1540,
      "Пол": 1541,
      "бла": 1542,
      "Владимир ": 1543,
      "голос": 1544,
      "ино": 1545,
      " млрд ": 1546,
      "филь": 1547,
      " пло": 1548,
      "инвест": 1549,
      ".ru\n": 1550,
      "директо": 1551,
      "бюдж": 1552,
      " начал": 1553,
      "жал": 1554,
      "ата": 1555,
      "% ": 1556,
      "ства.\n": 1557,
      "ческого ": 1558,
      "дес": 1559,
      "законо": 1560,
      "украин": 1561,
      "официаль": 1562,
      "ческих ": 1563,
      "ние ": 1564,
      " году": 1565,
      "крат": 1566,
      "ителей ": 1567,
      "строитель": 1568,
      " проц": 1569,
      "ках ": 1570,
      "едераль": 1571,
      " поп": 1572,
      "дем": 1573,
      "са ": 1574,
      "ше ": 1575,
      "ром ": 1576,
      "пом": 1577,
      "Дмит": 1578,
      "\" (": 1579,
      ", чтобы": 1580,
      "кред": 1581,
      "и с ": 1582,
      "обод": 1583,
      "Но": 1584,
      ", - ": 1585,
      "каче": 1586,
      "ук": 1587,
      "обяз": 1588,
      "зыва": 1589,
      "им ": 1590,
      "через": 1591,
      "ул": 1592,
      "ноги": 1593,
      "е с ": 1594,
      "ью ": 1595,
      " нет": 1596,
      "лар": 1597,
      " года.\n": 1598,
      " время ": 1599,
      "тиров": 1600,
      "Ком": 1601,
      "хи": 1602,
      ", который ": 1603,
      "ления": 1604,
      "я в ": 1605,
      "день": 1606,
      " тысяч": 1607,
      " план": 1608,
      "\"Р": 1609,
      "журн": 1610,
      "Кроме ": 1611,
      " сер": 1612,
      "Дон": 1613,
      "игра": 1614,
      "жизн": 1615,
      "раст": 1616,
      "канд": 1617,
      "обы": 1618,
      "меся": 1619,
      " соответ": 1620,
      "ым ": 1621,
      "ента": 1622,
      "16": 1623,
      "ьер": 1624,
      "контро": 1625,
      "увели": 1626,
      " приня": 1627,
      "хоро": 1628,
      " передает ": 1629,
      "арт": 1630,
      "воз": 1631,
      "шего": 1632,
      "мос": 1633,
      "ились": 1634,
      "можно ": 1635,
      "or": 1636,
      "ание": 1637,
      "ением": 1638,
      "апре": 1639,
      "бизнес": 1640,
      "отмеча": 1641,
      "ский": 1642,
      "раж": 1643,
      "дом": 1644,
      "ТА": 1645,
      "ные с": 1646,
      "куль": 1647,
      "езд": 1648,
      "очень ": 1649,
      "ен ": 1650,
      " со с": 1651,
      "ург": 1652,
      "оборо": 1653,
      "Пер": 1654,
      "евра": 1655,
      "enta": 1656,
      "звол": 1657,
      "ников ": 1658,
      " нем": 1659,
      "определ": 1660,
      "гру": 1661,
      "будут": 1662,
      "ители ": 1663,
      "огра": 1664,
      "14": 1665,
      "ту ": 1666,
      "ю.\n": 1667,
      " призн": 1668,
      "ило": 1669,
      "и на": 1670,
      "!\n": 1671,
      "17": 1672,
      "ег": 1673,
      "усп": 1674,
      "ектив": 1675,
      "es": 1676,
      "охран": 1677,
      "строй": 1678,
      " сем": 1679,
      " сни": 1680,
      "исси": 1681,
      "элек": 1682,
      "Lenta": 1683,
      " связ": 1684,
      "боев": 1685,
      "кам": 1686,
      "дель": 1687,
      "мод": 1688,
      "администра": 1689,
      "государствен": 1690,
      "февра": 1691,
      " право": 1692,
      "рыв": 1693,
      "фф": 1694,
      " несколько ": 1695,
      "Глав": 1696,
      "ват": 1697,
      "хо": 1698,
      "ил, что": 1699,
      "дев": 1700,
      "кая ": 1701,
      "международ": 1702,
      "сти.\n": 1703,
      ": Lenta": 1704,
      ": Lenta.ru\n": 1705,
      "е и ": 1706,
      "ана ": 1707,
      "кого": 1708,
      "команд": 1709,
      " милли": 1710,
      "когда": 1711,
      "комит": 1712,
      " президента ": 1713,
      " па": 1714,
      "есс": 1715,
      " плани": 1716,
      "тов ": 1717,
      "была ": 1718,
      "Ки": 1719,
      "ели ": 1720,
      "ети": 1721,
      "обо": 1722,
      "ори": 1723,
      " в по": 1724,
      ", к": 1725,
      " не с": 1726,
      "25": 1727,
      " М": 1728,
      "пит": 1729,
      ", не ": 1730,
      " высо": 1731,
      "зат": 1732,
      "матери": 1733,
      "США ": 1734,
      " на по": 1735,
      "том чис": 1736,
      "Моск": 1737,
      "ался": 1738,
      "\" в ": 1739,
      "вор": 1740,
      " наруш": 1741,
      "глава ": 1742,
      "Сергей ": 1743,
      "ТАСС": 1744,
      "я по": 1745,
      "сион": 1746,
      "юще": 1747,
      "окт": 1748,
      "ается": 1749,
      " словам": 1750,
      "могут": 1751,
      "я с": 1752,
      "шего ": 1753,
      "кри": 1754,
      "твер": 1755,
      "Кроме того": 1756,
      "ar": 1757,
      "ней ": 1758,
      " за": 1759,
      " провод": 1760,
      "мира": 1761,
      "быть": 1762,
      ", как": 1763,
      " спор": 1764,
      "кос": 1765,
      "нес": 1766,
      "илась": 1767,
      "член": 1768,
      "13": 1769,
      "депутат": 1770,
      ", которые": 1771,
      "уголов": 1772,
      "Напом": 1773,
      "ейчас ": 1774,
      "маш": 1775,
      "кну": 1776,
      "ший": 1777,
      "ления ": 1778,
      "зан": 1779,
      "ился ": 1780,
      "унк": 1781,
      "ление": 1782,
      "\"\n": 1783,
      "ника ": 1784,
      "чемпион": 1785,
      "пус": 1786,
      "два ": 1787,
      "ление ": 1788,
      "сточ": 1789,
      "трансп": 1790,
      "Кры": 1791,
      "Он ": 1792,
      " не по": 1793,
      "ей, ": 1794,
      " словам ": 1795,
      "уни": 1796,
      "дук": 1797,
      "много": 1798,
      "январ": 1799,
      "обесп": 1800,
      "Напомним": 1801,
      "Из": 1802,
      "раль": 1803,
      "ались": 1804,
      "была": 1805,
      " выбор": 1806,
      ", нап": 1807,
      "ита": 1808,
      "руг": 1809,
      "одна": 1810,
      "источ": 1811,
      ", который": 1812,
      "роб": 1813,
      "иш": 1814,
      "маль": 1815,
      "ева": 1816,
      "рода": 1817,
      "муж": 1818,
      "Сов": 1819,
      "регу": 1820,
      "стри": 1821,
      " провер": 1822,
      "оказал": 1823,
      "ого": 1824,
      "можно": 1825,
      "этого": 1826,
      " продук": 1827,
      "ах ": 1828,
      "овой ": 1829,
      "Вы": 1830,
      "ущ": 1831,
      "Об этом": 1832,
      "ован": 1833,
      " них ": 1834,
      "четы": 1835,
      "ков.\n": 1836,
      "-то ": 1837,
      "эта": 1838,
      "авиа": 1839,
      " плат": 1840,
      " сказал ": 1841,
      "бар": 1842,
      "ова": 1843,
      "тора": 1844,
      "он.\n": 1845,
      "люб": 1846,
      "автомобил": 1847,
      " поч": 1848,
      "СМИ": 1849,
      "клад": 1850,
      "ов и ": 1851,
      " лет": 1852,
      " подчер": 1853,
      " выс": 1854,
      "ским ": 1855,
      "данным ": 1856,
      " побед": 1857,
      "заявил ": 1858,
      "ини": 1859,
      "него ": 1860,
      "которых ": 1861,
      "ант": 1862,
      "идет": 1863,
      "Ав": 1864,
      "кого ": 1865,
      "Александр ": 1866,
      "деятель": 1867,
      "Пред": 1868,
      "из-за ": 1869,
      " нало": 1870,
      "будут ": 1871,
      "сли ": 1872,
      "финанс": 1873,
      "использ": 1874,
      "лага": 1875,
      " помощ": 1876,
      " проис": 1877,
      ", передает ": 1878,
      "ки, ": 1879,
      "х, ": 1880,
      "\" - ": 1881,
      "оцен": 1882,
      " настоя": 1883,
      " пят": 1884,
      "конт": 1885,
      "завис": 1886,
      "могут ": 1887,
      "торгов": 1888,
      "ября ": 1889,
      "Путин": 1890,
      "быть ": 1891,
      "\"Б": 1892,
      "al": 1893,
      "илось": 1894,
      "Трам": 1895,
      "24": 1896,
      " социаль": 1897,
      "мень": 1898,
      " прода": 1899,
      " преступ": 1900,
      " способ": 1901,
      " второ": 1902,
      "овые ": 1903,
      "рест": 1904,
      "ных с": 1905,
      "ха": 1906,
      "анал": 1907,
      "Газ": 1908,
      " для ": 1909,
      "Д ": 1910,
      "улиц": 1911,
      "уст": 1912,
      "ций ": 1913,
      "кси": 1914,
      "три": 1915,
      "ций": 1916,
      "является ": 1917,
      "ерж": 1918,
      "леч": 1919,
      "резидент": 1920,
      "ги ": 1921,
      "иться ": 1922,
      " выход": 1923,
      "атив": 1924,
      "тому ": 1925,
      " площ": 1926,
      "жива": 1927,
      "увелич": 1928,
      "ров ": 1929,
      " свою ": 1930,
      "стар": 1931,
      "ИА ": 1932,
      "анти": 1933,
      " подтвер": 1934,
      "ракти": 1935,
      "дости": 1936,
      " пери": 1937,
      ", сообщает ": 1938,
      "Фран": 1939,
      "мал": 1940,
      "бес": 1941,
      "Анд": 1942,
      "уда": 1943,
      "звест": 1944,
      "зр": 1945,
      "фут": 1946,
      "Интер": 1947,
      "Госду": 1948,
      "сут": 1949,
      "ям": 1950,
      "Украин": 1951,
      "кредит": 1952,
      "Россия": 1953,
      "ило ": 1954,
      " пор": 1955,
      " сент": 1956,
      "ющих": 1957,
      "рец": 1958,
      "зад": 1959,
      "четвер": 1960,
      " вес": 1961,
      "прияти": 1962,
      "добав": 1963,
      "нет": 1964,
      "муз": 1965,
      " период": 1966,
      "иде": 1967,
      "журналист": 1968,
      " со ": 1969,
      "коли": 1970,
      "объяв": 1971,
      "страны": 1972,
      "\"В": 1973,
      "Извест": 1974,
      " составля": 1975,
      "исполн": 1976,
      "луб": 1977,
      "республи": 1978,
      " человек": 1979,
      "ира": 1980,
      " времен": 1981,
      ", а также ": 1982,
      "завер": 1983,
      "рус": 1984,
      "дву": 1985,
      "движ": 1986,
      "ИА Ново": 1987,
      "лет ": 1988,
      " совер": 1989,
      "стат": 1990,
      "ым": 1991,
      "ыш": 1992,
      "оров": 1993,
      "количе": 1994,
      "рует ": 1995,
      "бора": 1996,
      "ок ": 1997,
      "хоз": 1998,
      "ности.\n": 1999,
      "главы ": 2000,
      "хов": 2001,
      "мещ": 2002,
      "тек": 2003,
      "конч": 2004,
      "бло": 2005,
      "ились ": 2006,
      "брит": 2007,
      "и не": 2008,
      " подготов": 2009,
      "шие ": 2010,
      "а - ": 2011,
      "t ": 2012,
      "каб": 2013,
      " парла": 2014,
      " всех ": 2015,
      "екрет": 2016,
      "ализа": 2017,
      " постав": 2018,
      "даже": 2019,
      "нее ": 2020,
      "ве": 2021,
      " С": 2022,
      "этому ": 2023,
      "друго": 2024,
      "22": 2025,
      " насел": 2026,
      "прин": 2027,
      "лим": 2028,
      "Цент": 2029,
      "три ": 2030,
      "больше": 2031,
      "ы на ": 2032,
      "ования ": 2033,
      "компании ": 2034,
      "седател": 2035,
      "запре": 2036,
      " подпис": 2037,
      "е на": 2038,
      "ов в ": 2039,
      "к.\n": 2040,
      "кро": 2041,
      " соглаш": 2042,
      "кола": 2043,
      "меня": 2044,
      "нев": 2045,
      "авгу": 2046,
      "отдел": 2047,
      "руч": 2048,
      "а \"": 2049,
      " собствен": 2050,
      "кс": 2051,
      "ительно": 2052,
      "них ": 2053,
      "руж": 2054,
      "онд": 2055,
      "ющий ": 2056,
      " против ": 2057,
      "таб": 2058,
      "кус": 2059,
      "без ": 2060,
      "увер": 2061,
      ", за": 2062,
      "Бел": 2063,
      "стать": 2064,
      "ниче": 2065,
      " проф": 2066,
      "ское ": 2067,
      "%.\n": 2068,
      "коро": 2069,
      "ляр": 2070,
      " прем": 2071,
      "ана": 2072,
      "Дмитрий ": 2073,
      " специ": 2074,
      "ты ": 2075,
      "между ": 2076,
      " В": 2077,
      "ностран": 2078,
      "бал": 2079,
      " важ": 2080,
      "лиров": 2081,
      "убликов": 2082,
      "ющих ": 2083,
      "s ": 2084,
      "обрат": 2085,
      "хват": 2086,
      " нор": 2087,
      "челове": 2088,
      "ях": 2089,
      "и п": 2090,
      ", в том чис": 2091,
      "Андре": 2092,
      "О \"": 2093,
      " появ": 2094,
      "ним ": 2095,
      " своей ": 2096,
      "идат": 2097,
      "ках": 2098,
      "ви": 2099,
      "итай": 2100,
      "кращ": 2101,
      " спорт": 2102,
      "-то": 2103,
      "ьез": 2104,
      "ции, ": 2105,
      "утвер": 2106,
      "у в ": 2107,
      "конф": 2108,
      "уществ": 2109,
      "многи": 2110,
      " нов": 2111,
      "мор": 2112,
      "смот": 2113,
      "Если ": 2114,
      "обна": 2115,
      "ких ": 2116,
      "урман": 2117,
      "ближ": 2118,
      "России.\n": 2119,
      "Сири": 2120,
      "ительно ": 2121,
      "нем ": 2122,
      "года ": 2123,
      "лат": 2124,
      "доход": 2125,
      " предприяти": 2126,
      "ы с": 2127,
      "даль": 2128,
      "ке.\n": 2129,
      "ру ": 2130,
      "ими ": 2131,
      "указ": 2132,
      "вал": 2133,
      "смен": 2134,
      "федераль": 2135,
      "О ": 2136,
      "режд": 2137,
      " пут": 2138,
      "100": 2139,
      " соглас": 2140,
      " всего ": 2141,
      " ведом": 2142,
      "оказ": 2143,
      "нологи": 2144,
      "кли": 2145,
      "it": 2146,
      "ителя ": 2147,
      "я в": 2148,
      "еди": 2149,
      "По словам ": 2150,
      ", с ": 2151,
      "сь ": 2152,
      "ена": 2153,
      "говорится": 2154,
      "или в ": 2155,
      "очень": 2156,
      "ерна": 2157,
      "евер": 2158,
      "этой ": 2159,
      "борь": 2160,
      "рублей.\n": 2161,
      "овер": 2162,
      " подо": 2163,
      "инф": 2164,
      "Не": 2165,
      "отправ": 2166,
      " слож": 2167,
      "егодня ": 2168,
      "место": 2169,
      "сыл": 2170,
      "РФ ": 2171,
      "одно": 2172,
      "там": 2173,
      "объек": 2174,
      "бюджет": 2175,
      "та.\n": 2176,
      "молод": 2177,
      "Мих": 2178,
      "чем ": 2179,
      " направ": 2180,
      " сохран": 2181,
      "oo": 2182,
      " приш": 2183,
      "ях ": 2184,
      "если": 2185,
      " пресс-служ": 2186,
      "овых ": 2187,
      "региональ": 2188,
      "обществен": 2189,
      "олет": 2190,
      "должен": 2191,
      " президент ": 2192,
      ".,": 2193,
      "40": 2194,
      "людей": 2195,
      " проход": 2196,
      " - сказал ": 2197,
      " необходимо": 2198,
      "СК": 2199,
      "этот": 2200,
      " повы": 2201,
      "бере": 2202,
      "Ранее ": 2203,
      ", пред": 2204,
      "аэ": 2205,
      "в ": 2206,
      "оста": 2207,
      " систем": 2208,
      "-п": 2209,
      "руб. ": 2210,
      "теч": 2211,
      "Гер": 2212,
      "Сп": 2213,
      "ива": 2214,
      "месяц": 2215,
      "бират": 2216,
      "материал": 2217,
      " процент": 2218,
      " презид": 2219,
      "обеспеч": 2220,
      "ter": 2221,
      "ности, ": 2222,
      "ести ": 2223,
      "Ме": 2224,
      " спис": 2225,
      " практи": 2226,
      " площад": 2227,
      "лик": 2228,
      "ключа": 2229,
      " ма": 2230,
      "рон": 2231,
      "дач": 2232,
      "ора": 2233,
      "датель": 2234,
      "ские": 2235,
      "близ": 2236,
      "ка, ": 2237,
      " пример": 2238,
      "того ": 2239,
      "Ст": 2240,
      "матри": 2241,
      "иностран": 2242,
      "даже ": 2243,
      "комисси": 2244,
      "крас": 2245,
      "ию": 2246,
      "ера ": 2247,
      "нос": 2248,
      "удов": 2249,
      "Мар": 2250,
      "алось ": 2251,
      "чего": 2252,
      "ша": 2253,
      " прог": 2254,
      "рошен": 2255,
      "ку.\n": 2256,
      "дом ": 2257,
      " подчеркну": 2258,
      "уточ": 2259,
      "мыш": 2260,
      " внут": 2261,
      "глас": 2262,
      "Петерб": 2263,
      "лимпи": 2264,
      "этому": 2265,
      "ев ": 2266,
      "%,": 2267,
      "ям ": 2268,
      "Нов": 2269,
      "договор": 2270,
      "кварти": 2271,
      "рь": 2272,
      "решение ": 2273,
      " апре": 2274,
      "ече": 2275,
      " поль": 2276,
      "конкур": 2277,
      " сы": 2278,
      "Крас": 2279,
      "электро": 2280,
      "юз": 2281,
      "сторон": 2282,
      "ному": 2283,
      "территории ": 2284,
      "21": 2285,
      "рист": 2286,
      "засед": 2287,
      "\"Д": 2288,
      "под": 2289,
      "ать.\n": 2290,
      "Украины": 2291,
      "я и ": 2292,
      "и на ": 2293,
      "опубликов": 2294,
      "асса": 2295,
      "изб": 2296,
      "тест": 2297,
      "ском": 2298,
      "разд": 2299,
      "28": 2300,
      "пло": 2301,
      " проку": 2302,
      " мин": 2303,
      "ми, ": 2304,
      " пен": 2305,
      "разработ": 2306,
      "пуст": 2307,
      "интерес": 2308,
      "его словам": 2309,
      " вмест": 2310,
      "и не ": 2311,
      " ию": 2312,
      "ю, ": 2313,
      "этот ": 2314,
      "ик": 2315,
      "баз": 2316,
      "ро ": 2317,
      "Я ": 2318,
      "дис": 2319,
      "человека": 2320,
      "ы на": 2321,
      "тор ": 2322,
      "которая ": 2323,
      "дек": 2324,
      "ом.\n": 2325,
      "ностью ": 2326,
      "23": 2327,
      "Ис": 2328,
      "ческие ": 2329,
      "эфф": 2330,
      "города": 2331,
      "199": 2332,
      "ответствен": 2333,
      "При этом ": 2334,
      "ко.\n": 2335,
      "е время ": 2336,
      "кандидат": 2337,
      "итог": 2338,
      "страна": 2339,
      "\"Ъ": 2340,
      "эти ": 2341,
      "технологи": 2342,
      "двух ": 2343,
      "ый": 2344,
      " переговор": 2345,
      " средств": 2346,
      "екретар": 2347,
      "ался ": 2348,
      "йд": 2349,
      "ется в ": 2350,
      "е на ": 2351,
      "рач": 2352,
      "ради": 2353,
      "у не": 2354,
      "роч": 2355,
      "убий": 2356,
      "инов": 2357,
      "одной ": 2358,
      "женщ": 2359,
      "хозя": 2360,
      "ни ": 2361,
      "коль": 2362,
      " всего": 2363,
      "ством ": 2364,
      "первы": 2365,
      " необходим": 2366,
      "гля": 2367,
      "и вы": 2368,
      "скую ": 2369,
      " планиру": 2370,
      "дорож": 2371,
      "\" и ": 2372,
      "анси": 2373,
      "коман": 2374,
      "лив": 2375,
      " специаль": 2376,
      "дал": 2377,
      "дело": 2378,
      "стал": 2379,
      "мас": 2380,
      "уберна": 2381,
      "Минист": 2382,
      "отношении ": 2383,
      "ль ": 2384,
      "реп": 2385,
      "мент ": 2386,
      "ческий ": 2387,
      "инвести": 2388,
      "ферен": 2389,
      "лон": 2390,
      "ущи": 2391,
      "лев": 2392,
      " недел": 2393,
      "объем": 2394,
      "результате ": 2395,
      "конеч": 2396,
      "27": 2397,
      "европ": 2398,
      " в Сири": 2399,
      "ага": 2400,
      "жда": 2401,
      "ь.\n": 2402,
      "лидер": 2403,
      "ской области": 2404,
      "Трамп": 2405,
      "стоимо": 2406,
      "ать в ": 2407,
      "сылкой": 2408,
      " во ": 2409,
      "Бол": 2410,
      "нед": 2411,
      "мир": 2412,
      "эксперт": 2413,
      "ti": 2414,
      "ro": 2415,
      "чемпионат": 2416,
      "Как сообщ": 2417,
      "Ос": 2418,
      "стало ": 2419,
      ", то ": 2420,
      "цип": 2421,
      "клуб": 2422,
      "ребен": 2423,
      " со ссылкой": 2424,
      "ближай": 2425,
      "Са": 2426,
      " февра": 2427,
      ". - ": 2428,
      "у и ": 2429,
      "...": 2430,
      ", где ": 2431,
      "дополн": 2432,
      "европей": 2433,
      "зыв": 2434,
      "ителей": 2435,
      "отказ": 2436,
      "нер": 2437,
      "годар": 2438,
      "столиц": 2439,
      "га ": 2440,
      "здес": 2441,
      "кий ": 2442,
      "26": 2443,
      "ями ": 2444,
      "занима": 2445,
      "кую": 2446,
      "которой ": 2447,
      "МВ": 2448,
      "Мы ": 2449,
      "ющие ": 2450,
      " националь": 2451,
      "ения в ": 2452,
      "ались ": 2453,
      "екаб": 2454,
      "проек": 2455,
      "...\n": 2456,
      "бер": 2457,
      " них": 2458,
      "\"Т": 2459,
      "заключ": 2460,
      "москов": 2461,
      "обращ": 2462,
      "ки в ": 2463,
      "ассажи": 2464,
      " пози": 2465,
      " декаб": 2466,
      "ac": 2467,
      "стал ": 2468,
      "РИА Ново": 2469,
      "туры": 2470,
      "уверен": 2471,
      "ают ": 2472,
      " встреч": 2473,
      " погиб": 2474,
      "и при": 2475,
      "илась ": 2476,
      "там ": 2477,
      "ропри": 2478,
      "ции в ": 2479,
      "решение": 2480,
      "расследовани": 2481,
      "той ": 2482,
      "чива": 2483,
      "использов": 2484,
      "le": 2485,
      " совет": 2486,
      " выполн": 2487,
      "энер": 2488,
      "ращ": 2489,
      "Мурман": 2490,
      "Прав": 2491,
      "обязатель": 2492,
      "\"А": 2493,
      "Ген": 2494,
      "После ": 2495,
      "бир": 2496,
      " возв": 2497,
      "альных ": 2498,
      " млн": 2499,
      "ской области ": 2500,
      " называ": 2501,
      "одного ": 2502,
      "тепер": 2503,
      "труд": 2504,
      " прост": 2505,
      "\"Л": 2506,
      "штаб": 2507,
      "АТ": 2508,
      "милли": 2509,
      "границ": 2510,
      "ким ": 2511,
      " предостав": 2512,
      " спортсмен": 2513,
      "рева": 2514,
      " парт": 2515,
      "техни": 2516,
      "изд": 2517,
      "услу": 2518,
      "российских ": 2519,
      "рублей": 2520,
      " окт": 2521,
      "момент": 2522,
      "За ": 2523,
      "То": 2524,
      "зис": 2525,
      ", когда ": 2526,
      " состо": 2527,
      "роприяти": 2528,
      "дво": 2529,
      "реч": 2530,
      "условия": 2531,
      "итет": 2532,
      " нас ": 2533,
      "одерж": 2534,
      "град": 2535,
      "По данным ": 2536,
      "цы ": 2537,
      "треть": 2538,
      "организ": 2539,
      " состояни": 2540,
      "Ив": 2541,
      "ового ": 2542,
      "осв": 2543,
      "е - ": 2544,
      "графи": 2545,
      "29": 2546,
      "ЕС": 2547,
      "гран": 2548,
      "Президент": 2549,
      "ет, что ": 2550,
      "Известия": 2551,
      "ящи": 2552,
      "ра.\n": 2553,
      "за с": 2554,
      "ем.\n": 2555,
      "Однако": 2556,
      "цией ": 2557,
      " подоб": 2558,
      " перв": 2559,
      "масс": 2560,
      "россиян": 2561,
      "У ": 2562,
      "шим ": 2563,
      "требу": 2564,
      "бит": 2565,
      "асс": 2566,
      "август": 2567,
      "завод": 2568,
      "\" и \"": 2569,
      "груз": 2570,
      " в Москв": 2571,
      " предпол": 2572,
      "мотря": 2573,
      "Герм": 2574,
      "города ": 2575,
      "Мак": 2576,
      " прод": 2577,
      "ее с": 2578,
      "останов": 2579,
      "заявил": 2580,
      "Однако ": 2581,
      "ано": 2582,
      "м год": 2583,
      "тиво": 2584,
      "говорит ": 2585,
      "Мы": 2586,
      ", а также": 2587,
      "арест": 2588,
      "имп": 2589,
      "закры": 2590,
      "один": 2591,
      "ействи": 2592,
      ", -": 2593,
      "обещ": 2594,
      "Киев": 2595,
      "дар": 2596,
      " ни ": 2597,
      "шо": 2598,
      " после": 2599,
      " верси": 2600,
      "футбол": 2601,
      "кие ": 2602,
      "лия": 2603,
      "равля": 2604,
      "теле": 2605,
      "доп": 2606,
      "размер": 2607,
      "десят": 2608,
      "ства, ": 2609,
      "дз": 2610,
      " позвол": 2611,
      " млрд": 2612,
      "законодатель": 2613,
      "конфлик": 2614,
      "ходит": 2615,
      "генера": 2616,
      "жиз": 2617,
      " сегодня": 2618,
      "тин": 2619,
      "конс": 2620,
      "ходе ": 2621,
      "шестви": 2622,
      "ческих": 2623,
      "Сегодня": 2624,
      "мышлен": 2625,
      "траф": 2626,
      "мента ": 2627,
      "ья": 2628,
      "кое ": 2629,
      "ице-": 2630,
      "через ": 2631,
      " время": 2632,
      "должны ": 2633,
      "a ": 2634,
      " пам": 2635,
      " намер": 2636,
      "боро": 2637,
      "Олимпи": 2638,
      "ея ": 2639,
      " ны": 2640,
      " специалист": 2641,
      "Никола": 2642,
      "d ": 2643,
      " пунк": 2644,
      "гон": 2645,
      " воору": 2646,
      "имуще": 2647,
      "ирий": 2648,
      "других ": 2649,
      ", \"": 2650,
      "ятся": 2651,
      "данным": 2652,
      "шей ": 2653,
      "топ": 2654,
      "лини": 2655,
      "йти": 2656,
      "анов": 2657,
      ", так ": 2658,
      "нач": 2659,
      "меч": 2660,
      "По его словам": 2661,
      "цы": 2662,
      " сбор": 2663,
      "равн": 2664,
      " привод": 2665,
      "ма.\n": 2666,
      " сум": 2667,
      " направл": 2668,
      " вним": 2669,
      "но по": 2670,
      "Вели": 2671,
      "капит": 2672,
      "раздел": 2673,
      "Вер": 2674,
      "исследовани": 2675,
      " январ": 2676,
      "трен": 2677,
      "но, что ": 2678,
      "Лю": 2679,
      "ологи": 2680,
      "Федера": 2681,
      " народ": 2682,
      "Алексей ": 2683,
      "верс": 2684,
      "мол": 2685,
      "замест": 2686,
      "о том, что ": 2687,
      "y ": 2688,
      ", чем ": 2689,
      " серьез": 2690,
      "Петербург": 2691,
      "фото": 2692,
      "Москов": 2693,
      "ству ": 2694,
      "жизни": 2695,
      "Для ": 2696,
      "сужд": 2697,
      "омн": 2698,
      "co": 2699,
      "ые": 2700,
      "Зап": 2701,
      "реаль": 2702,
      "ример": 2703,
      "но с": 2704,
      " вол": 2705,
      " премьер": 2706,
      "стоян": 2707,
      "бел": 2708,
      "каль": 2709,
      " наб": 2710,
      "жида": 2711,
      "ев.\n": 2712,
      "хоч": 2713,
      "м и ": 2714,
      "доступ": 2715,
      " году.\n": 2716,
      "шей": 2717,
      "ме ": 2718,
      "избират": 2719,
      "Кар": 2720,
      "ицин": 2721,
      "Москвы": 2722,
      "ат ": 2723,
      "ании": 2724,
      "айте": 2725,
      "расход": 2726,
      "тр": 2727,
      "ения, ": 2728,
      "ag": 2729,
      "60": 2730,
      "лит": 2731,
      " сил": 2732,
      " пал": 2733,
      " поясн": 2734,
      "стоятель": 2735,
      " настояще": 2736,
      "час": 2737,
      "ет.\n": 2738,
      " полож": 2739,
      "неф": 2740,
      "суд": 2741,
      "бил": 2742,
      " председател": 2743,
      "теат": 2744,
      "зам": 2745,
      " потреб": 2746,
      "лись": 2747,
      "аэроп": 2748,
      "а на ": 2749,
      "ение.\n": 2750,
      " виде": 2751,
      "музы": 2752,
      "сли": 2753,
      "аны ": 2754,
      "меш": 2755,
      " своих ": 2756,
      " возду": 2757,
      "\"П": 2758,
      "леж": 2759,
      "кризис": 2760,
      "осуществ": 2761,
      "иров": 2762,
      " пока": 2763,
      "котору": 2764,
      "исс": 2765,
      "матч": 2766,
      "люди": 2767,
      "действу": 2768,
      " соответству": 2769,
      "Миха": 2770,
      " публи": 2771,
      "него": 2772,
      "иници": 2773,
      "школ": 2774,
      "Украины ": 2775,
      "ская": 2776,
      "рамках ": 2777,
      "заверш": 2778,
      "заявил, что ": 2779,
      "he ": 2780,
      " ноч": 2781,
      "приним": 2782,
      "и про": 2783,
      "страны ": 2784,
      "Кроме того, ": 2785,
      " подтверд": 2786,
      "пози": 2787,
      ", что в": 2788,
      " представитель ": 2789,
      " пост": 2790,
      "докумен": 2791,
      "ца ": 2792,
      " выбора": 2793,
      "ки и ": 2794,
      "оружи": 2795,
      "запрещен": 2796,
      "формиров": 2797,
      "Ал": 2798,
      " суще": 2799,
      "гот": 2800,
      "культур": 2801,
      "тура": 2802,
      " напис": 2803,
      "больше ": 2804,
      "оф": 2805,
      "мероприяти": 2806,
      " свобод": 2807,
      "ган": 2808,
      "особен": 2809,
      "экспер": 2810,
      "благодар": 2811,
      "има": 2812,
      "сколь": 2813,
      "чинов": 2814,
      "бом": 2815,
      "кров": 2816,
      "ал в ": 2817,
      "икто": 2818,
      "ы в": 2819,
      " сейчас": 2820,
      "обсужд": 2821,
      " свои ": 2822,
      "лот": 2823,
      "бой": 2824,
      "комплекс": 2825,
      "ерв": 2826,
      "ще ": 2827,
      "ками": 2828,
      "ать на ": 2829,
      "стали ": 2830,
      "губерна": 2831,
      "учен": 2832,
      " потер": 2833,
      " от": 2834,
      "Не ": 2835,
      "ров.\n": 2836,
      " продаж": 2837,
      "el": 2838,
      "ками ": 2839,
      "лаг": 2840,
      " выш": 2841,
      "транспорт": 2842,
      "доста": 2843,
      "боеви": 2844,
      "ечат": 2845,
      "ями": 2846,
      "ключен": 2847,
      "яр": 2848,
      "чески ": 2849,
      "или, что ": 2850,
      "эко": 2851,
      "пиров": 2852,
      "След": 2853,
      "а (": 2854,
      "м, ": 2855,
      "ей и ": 2856,
      "ительных ": 2857,
      "страх": 2858,
      "ный с": 2859,
      "банков": 2860,
      "развития ": 2861,
      "рассмот": 2862,
      "ы с ": 2863,
      "Об этом ": 2864,
      "il": 2865,
      "у в": 2866,
      " поступ": 2867,
      "ине ": 2868,
      "огранич": 2869,
      " в связ": 2870,
      "которого ": 2871,
      " прогно": 2872,
      "исключ": 2873,
      "нуть": 2874,
      "Куб": 2875,
      "больниц": 2876,
      " пресс-служб": 2877,
      "ные в": 2878,
      "тан": 2879,
      " пассажи": 2880,
      "ля.\n": 2881,
      "терак": 2882,
      " спец": 2883,
      "ероят": 2884,
      "жил": 2885,
      "лам": 2886,
      "часть ": 2887,
      "лем": 2888,
      "ранее ": 2889,
      "цев ": 2890,
      "здоров": 2891,
      "уче": 2892,
      "лицей": 2893,
      "ывает ": 2894,
      " следу": 2895,
      " покуп": 2896,
      "евид": 2897,
      "пара": 2898,
      "лишь ": 2899,
      "Сам": 2900,
      "российского ": 2901,
      "ожид": 2902,
      "господин ": 2903,
      "ростран": 2904,
      "Россия ": 2905,
      "достаточ": 2906,
      "ню": 2907,
      "арен": 2908,
      "миним": 2909,
      "устрой": 2910,
      " пря": 2911,
      "ец ": 2912,
      " власт": 2913,
      " нынеш": 2914,
      "пос": 2915,
      " силь": 2916,
      " ном": 2917,
      "коп": 2918,
      "различ": 2919,
      "министр ": 2920,
      "требовани": 2921,
      "Ра": 2922,
      "обнов": 2923,
      "есмотря": 2924,
      "Игор": 2925,
      "- в ": 2926,
      "образом": 2927,
      "ООН": 2928,
      "Ru": 2929,
      "онов ": 2930,
      "е время": 2931,
      "ol": 2932,
      "худ": 2933,
      " по с": 2934,
      "установлен": 2935,
      "ятся ": 2936,
      "алась": 2937,
      "раз ": 2938,
      "большин": 2939,
      "ете": 2940,
      "рия ": 2941,
      "ин.\n": 2942,
      "контрак": 2943,
      "знаком": 2944,
      "остров": 2945,
      "ре.\n": 2946,
      " собира": 2947,
      "безопасности ": 2948,
      "ач": 2949,
      "финанси": 2950,
      "распростран": 2951,
      " просто": 2952,
      "рели": 2953,
      "ализ": 2954,
      "и К": 2955,
      " не мен": 2956,
      "леп": 2957,
      " тысяч ": 2958,
      "сутстви": 2959,
      "торы": 2960,
      "тора ": 2961,
      "кая": 2962,
      "кажд": 2963,
      "анию ": 2964,
      " представля": 2965,
      " служ": 2966,
      " полу": 2967,
      " поряд": 2968,
      "мнению ": 2969,
      "либ": 2970,
      "конце ": 2971,
      "экс": 2972,
      "из-за": 2973,
      "именно ": 2974,
      "тяжел": 2975,
      "Интерфак": 2976,
      "ремон": 2977,
      "этих ": 2978,
      "штраф": 2979,
      " празд": 2980,
      "оря": 2981,
      "тем ": 2982,
      "нем": 2983,
      "мери": 2984,
      "телек": 2985,
      "Все ": 2986,
      "вя": 2987,
      "ется, что ": 2988,
      "тради": 2989,
      "й в ": 2990,
      " назад": 2991,
      "ах.\n": 2992,
      "стороны": 2993,
      "коммен": 2994,
      "тов.\n": 2995,
      "Об этом сообщ": 2996,
      "эффектив": 2997,
      "лан": 2998,
      "то, что ": 2999,
      "Рост": 3000,
      "зрева": 3001,
      "ены ": 3002,
      "СР": 3003,
      "ель ": 3004,
      "тай": 3005,
      "комму": 3006,
      ", в том числе ": 3007,
      "Да": 3008,
      " наде": 3009,
      " полно": 3010,
      "ческого": 3011,
      "отметил ": 3012,
      "лучш": 3013,
      "При этом": 3014,
      "фран": 3015,
      "но в ": 3016,
      "класс": 3017,
      "До": 3018,
      "т-": 3019,
      " попыт": 3020,
      "законопроек": 3021,
      "am": 3022,
      "але ": 3023,
      "которых": 3024,
      "Чер": 3025,
      "спек": 3026,
      " за ": 3027,
      "рыно": 3028,
      "айте ": 3029,
      "вид": 3030,
      "лива": 3031,
      "идет ": 3032,
      "организации ": 3033,
      "рити": 3034,
      "и за": 3035,
      "года.\n": 3036,
      "ясня": 3037,
      "лся": 3038,
      "игро": 3039,
      "Сред": 3040,
      "ака": 3041,
      "стороны ": 3042,
      "Андрей ": 3043,
      "этом год": 3044,
      " пис": 3045,
      " приход": 3046,
      " профес": 3047,
      "рис": 3048,
      "запад": 3049,
      "ракет": 3050,
      "медицин": 3051,
      " правоохран": 3052,
      "харак": 3053,
      "бот": 3054,
      "ип": 3055,
      " во время ": 3056,
      "является": 3057,
      "коллек": 3058,
      "Евг": 3059,
      "обыч": 3060,
      " сек": 3061,
      " противо": 3062,
      " предлага": 3063,
      " процесс": 3064,
      "пред": 3065,
      "илось ": 3066,
      "управления ": 3067,
      " сказал": 3068,
      ", например": 3069,
      "оконч": 3070,
      "атри": 3071,
      " началь": 3072,
      "ца": 3073,
      ", то": 3074,
      "ским": 3075,
      "рассказал": 3076,
      "каса": 3077,
      "теги": 3078,
      "Также ": 3079,
      " сентября": 3080,
      "пон": 3081,
      " дру": 3082,
      "компания ": 3083,
      "четыре": 3084,
      "скому ": 3085,
      "кру": 3086,
      "стой": 3087,
      "хозяй": 3088,
      "Мед": 3089,
      "отв": 3090,
      "рассказал ": 3091,
      "ды": 3092,
      "жест": 3093,
      "ры ": 3094,
      "отмен": 3095,
      "Ру": 3096,
      "овый ": 3097,
      "ностью": 3098,
      "интернет": 3099,
      "матрива": 3100,
      "Амери": 3101,
      "али в ": 3102,
      "ь, ": 3103,
      " над ": 3104,
      " внутрен": 3105,
      "росл": 3106,
      "оппози": 3107,
      "которая": 3108,
      "универс": 3109,
      "человек ": 3110,
      ", под": 3111,
      "брос": 3112,
      " прошлого ": 3113,
      "директор ": 3114,
      "ений.\n": 3115,
      " мар": 3116,
      " а ": 3117,
      "ri": 3118,
      " для": 3119,
      " в не": 3120,
      "определен": 3121,
      "российской ": 3122,
      " находится": 3123,
      "х в ": 3124,
      "обвиня": 3125,
      " млрд руб": 3126,
      "нима": 3127,
      " марта": 3128,
      "аров": 3129,
      "ряд ": 3130,
      "Ъ\" ": 3131,
      "мон": 3132,
      "ольш": 3133,
      "йти ": 3134,
      "ожида": 3135,
      "авари": 3136,
      "ить в ": 3137,
      "фика": 3138,
      "Соглас": 3139,
      " Б": 3140,
      "Сто": 3141,
      ", чем": 3142,
      "ным.\n": 3143,
      "Вал": 3144,
      "много ": 3145,
      "ститу": 3146,
      "ела ": 3147,
      "окра": 3148,
      "овател": 3149,
      "алин": 3150,
      "стве": 3151,
      "которые ": 3152,
      "зон": 3153,
      "\"К": 3154,
      "два": 3155,
      " помо": 3156,
      "тысяч": 3157,
      "ябре ": 3158,
      "тому": 3159,
      " возглав": 3160,
      "сси": 3161,
      "ального ": 3162,
      " не только ": 3163,
      "Если": 3164,
      "ров: ": 3165,
      "ания.\n": 3166,
      "ровать ": 3167,
      "Респ": 3168,
      "дин": 3169,
      "дина": 3170,
      "арх": 3171,
      "рубеж": 3172,
      " со ссылкой на ": 3173,
      "рок": 3174,
      "арми": 3175,
      "интерв": 3176,
      "ы по ": 3177,
      "ья ": 3178,
      ", посколь": 3179,
      "турец": 3180,
      " (\"": 3181,
      "зар": 3182,
      "разреш": 3183,
      "ам.\n": 3184,
      "цией": 3185,
      " К": 3186,
      " всех": 3187,
      "образовани": 3188,
      "Республи": 3189,
      "штат": 3190,
      " выстав": 3191,
      " выплат": 3192,
      "или в": 3193,
      "декаб": 3194,
      " совмест": 3195,
      "документ": 3196,
      "работа": 3197,
      ", потому ": 3198,
      "прочем": 3199,
      "ЦБ": 3200,
      "мя": 3201,
      "реализа": 3202,
      "кино": 3203,
      "группиров": 3204,
      "террористи": 3205,
      " соверш": 3206,
      "и - ": 3207,
      "разу": 3208,
      " первый ": 3209,
      " спрос": 3210,
      "язы": 3211,
      "дома": 3212,
      "чего ": 3213,
      " повод": 3214,
      " дв": 3215,
      "ИГ": 3216,
      "ет в ": 3217,
      " вопрос ": 3218,
      "Пав": 3219,
      "одействи": 3220,
      " предприним": 3221,
      ", посл": 3222,
      "on ": 3223,
      "услови": 3224,
      " сниж": 3225,
      "каждо": 3226,
      "клон": 3227,
      "искус": 3228,
      "значен": 3229,
      "районе ": 3230,
      " сез": 3231,
      " начале ": 3232,
      ", просмот": 3233,
      "рю": 3234,
      "кварт": 3235,
      " времени": 3236,
      "чув": 3237,
      ":\n": 3238,
      "СБ": 3239,
      ", просмотров: ": 3240,
      "35": 3241,
      "сон": 3242,
      " превы": 3243,
      "Юж": 3244,
      "елен": 3245,
      "турни": 3246,
      "ь в ": 3247,
      "бира": 3248,
      "ке, ": 3249,
      " санк": 3250,
      "жерт": 3251,
      "ада": 3252,
      "Над": 3253,
      " приним": 3254,
      "Глава ": 3255,
      "алют": 3256,
      "мо ": 3257,
      "ством": 3258,
      "ровать": 3259,
      "тру": 3260,
      " всем": 3261,
      "Порошен": 3262,
      "стратеги": 3263,
      "ыта": 3264,
      "объедин": 3265,
      " примен": 3266,
      "гост": 3267,
      "70": 3268,
      ", от": 3269,
      "городе ": 3270,
      "Аб": 3271,
      "крити": 3272,
      "комен": 3273,
      "доллар": 3274,
      "угроз": 3275,
      ", одна": 3276,
      "фици": 3277,
      "ной.\n": 3278,
      "том, что ": 3279,
      "агентство ": 3280,
      "течение ": 3281,
      "Красно": 3282,
      "80": 3283,
      "ительные ": 3284,
      "ментари": 3285,
      "ческая ": 3286,
      "е\n": 3287,
      "ic": 3288,
      "дент": 3289,
      " постра": 3290,
      " У": 3291,
      "й в": 3292,
      " считает": 3293,
      "гляд": 3294,
      " премьер-": 3295,
      "чет ": 3296,
      "анг": 3297,
      "ственного ": 3298,
      "ник, ": 3299,
      ") и ": 3300,
      "Что ": 3301,
      "эту ": 3302,
      "ли в ": 3303,
      " последние ": 3304,
      "зависимо": 3305,
      ", если ": 3306,
      "ться": 3307,
      "обнаруж": 3308,
      "транс": 3309,
      "цуз": 3310,
      "Министер": 3311,
      "ое ": 3312,
      "олю": 3313,
      "мони": 3314,
      "гам ": 3315,
      "достиг": 3316,
      "день ": 3317,
      "Владимир Путин": 3318,
      "ице-п": 3319,
      "Викто": 3320,
      "Ле": 3321,
      "мой ": 3322,
      "атель ": 3323,
      " принад": 3324,
      " повыш": 3325,
      "замет": 3326,
      "31": 3327,
      "стала ": 3328,
      "отстав": 3329,
      "заим": 3330,
      " над": 3331,
      "части ": 3332,
      ", кто ": 3333,
      "тот ": 3334,
      "ТАСС.\n": 3335,
      "альной ": 3336,
      "ути": 3337,
      "есед": 3338,
      "управля": 3339,
      "британ": 3340,
      "ы по": 3341,
      "рассчит": 3342,
      "трав": 3343,
      "на.\n": 3344,
      "ивал": 3345,
      "этап": 3346,
      "мнению": 3347,
      "остан": 3348,
      " пара": 3349,
      " ноября": 3350,
      "- это ": 3351,
      "такой ": 3352,
      " предвар": 3353,
      "ников.\n": 3354,
      "Президент ": 3355,
      " спас": 3356,
      "министра ": 3357,
      "ресс": 3358,
      "отдель": 3359,
      "анкт-": 3360,
      "задержан": 3361,
      " налогов": 3362,
      " в сред": 3363,
      "ou": 3364,
      "Интерфакс": 3365,
      "овать ": 3366,
      "Сегодня в ": 3367,
      " S": 3368,
      "няя ": 3369,
      "ама": 3370,
      "пров": 3371,
      "цени": 3372,
      "студ": 3373,
      "кам ": 3374,
      "пора": 3375,
      "транспор": 3376,
      "анием ": 3377,
      " возраст": 3378,
      " несколь": 3379,
      "финансиров": 3380,
      "ена ": 3381,
      "расши": 3382,
      "Источ": 3383,
      "ард": 3384,
      "цию.\n": 3385,
      " правительства ": 3386,
      "\" в": 3387,
      "ину": 3388,
      "министер": 3389,
      " - заявил ": 3390,
      "жар": 3391,
      "стер": 3392,
      "енных ": 3393,
      " сокращ": 3394,
      "достав": 3395,
      "ческой": 3396,
      " сниз": 3397,
      "использу": 3398,
      "кни": 3399,
      " сократ": 3400,
      "ей в ": 3401,
      " прос": 3402,
      "пуляр": 3403,
      "коло": 3404,
      "лись ": 3405,
      "банка ": 3406,
      " суб": 3407,
      " пи": 3408,
      "стрем": 3409,
      "Международ": 3410,
      "Тем": 3411,
      "Эк": 3412,
      "МИД ": 3413,
      " пятниц": 3414,
      "Сав": 3415,
      "вобод": 3416,
      "геро": 3417,
      "ливо": 3418,
      "части": 3419,
      "\"Газ": 3420,
      "режим": 3421,
      "ователь": 3422,
      "реть": 3423,
      "ящ": 3424,
      "дает ": 3425,
      "хотя ": 3426,
      "Также": 3427,
      "НАТ": 3428,
      "йдет": 3429,
      " напад": 3430,
      "гри": 3431,
      "столь": 3432,
      "рабат": 3433,
      "которого": 3434,
      "епутат": 3435,
      "террорист": 3436,
      "отказал": 3437,
      "рекомен": 3438,
      "группы ": 3439,
      " пользов": 3440,
      "лы": 3441,
      "ить.\n": 3442,
      " начала ": 3443,
      "учрежд": 3444,
      "господ": 3445,
      "re": 3446,
      " возбу": 3447,
      "пера": 3448,
      "зай": 3449,
      "ing": 3450,
      "90": 3451,
      "рабоч": 3452,
      "стит": 3453,
      "котором": 3454,
      " проект": 3455,
      ".Ru": 3456,
      "ении.\n": 3457,
      " вывод": 3458,
      " перед ": 3459,
      "относ": 3460,
      "о.\n": 3461,
      "двиг": 3462,
      "трех ": 3463,
      "In": 3464,
      "крес": 3465,
      " внеш": 3466,
      "ести": 3467,
      "страны.\n": 3468,
      "заним": 3469,
      "is": 3470,
      "уда ": 3471,
      "добы": 3472,
      " нужно ": 3473,
      "ется.\n": 3474,
      "ющий": 3475,
      "пример": 3476,
      " составляет ": 3477,
      "Медвед": 3478,
      "участвов": 3479,
      "инициатив": 3480,
      "Что": 3481,
      "спектив": 3482,
      "двух": 3483,
      ", и": 3484,
      "кобрит": 3485,
      "одним ": 3486,
      " выдел": 3487,
      " своего ": 3488,
      "at": 3489,
      "доч": 3490,
      "более": 3491,
      "е не": 3492,
      " ви": 3493,
      "физи": 3494,
      "демон": 3495,
      "илот": 3496,
      "объясн": 3497,
      "зал": 3498,
      "лай": 3499,
      "ФА": 3500,
      " претен": 3501,
      "адво": 3502,
      " на территории ": 3503,
      " памят": 3504,
      "меня ": 3505,
      "конструк": 3506,
      " нашей ": 3507,
      "\")": 3508,
      "чина": 3509,
      "Вол": 3510,
      "цити": 3511,
      "ельз": 3512,
      "Пес": 3513,
      "дум": 3514,
      "использовани": 3515,
      "ыми ": 3516,
      "держива": 3517,
      " науч": 3518,
      "Эр": 3519,
      " вырос": 3520,
      "стоит": 3521,
      "ство.\n": 3522,
      "недель": 3523,
      "ст ": 3524,
      " смер": 3525,
      "конферен": 3526,
      "край": 3527,
      "ка и ": 3528,
      " новых ": 3529,
      "ума": 3530,
      "цер": 3531,
      "замен": 3532,
      "оператив": 3533,
      "таких ": 3534,
      "каза": 3535,
      "шим": 3536,
      "дипло": 3537,
      "фикси": 3538,
      "мысл": 3539,
      "центра": 3540,
      " пять ": 3541,
      " приоб": 3542,
      "крупней": 3543,
      " семь": 3544,
      "Первы": 3545,
      "Они": 3546,
      "регулиров": 3547,
      "Федераль": 3548,
      " сейчас ": 3549,
      "место ": 3550,
      "АО \"": 3551,
      "лся ": 3552,
      " руб": 3553,
      " в сво": 3554,
      "сив": 3555,
      "лена ": 3556,
      "теперь ": 3557,
      " просто ": 3558,
      "корруп": 3559,
      "лом": 3560,
      "ченко": 3561,
      "действ": 3562,
      "фест": 3563,
      "рок ": 3564,
      "област": 3565,
      " спортив": 3566,
      "ерин": 3567,
      "Российской ": 3568,
      " октября": 3569,
      " введ": 3570,
      "альный ": 3571,
      "га.\n": 3572,
      "ственной ": 3573,
      "запрет": 3574,
      " современ": 3575,
      "ресур": 3576,
      ", у": 3577,
      "удалось": 3578,
      " себя ": 3579,
      "заня": 3580,
      "адвокат": 3581,
      "Ор": 3582,
      "ъем": 3583,
      "юри": 3584,
      " пад": 3585,
      "ток": 3586,
      " не только": 3587,
      "отношения": 3588,
      "лоб": 3589,
      "секретар": 3590,
      "ано ": 3591,
      "опрос": 3592,
      "ющим": 3593,
      "Впрочем": 3594,
      "альные ": 3595,
      "информации ": 3596,
      "Владимира ": 3597,
      "дня": 3598,
      " в К": 3599,
      "бус": 3600,
      "лес": 3601,
      "любо": 3602,
      "ну ": 3603,
      "анало": 3604,
      "лась": 3605,
      " призна": 3606,
      "России, ": 3607,
      " президента": 3608,
      "Мари": 3609,
      "макси": 3610,
      " сообщил ": 3611,
      "Они ": 3612,
      "четыре ": 3613,
      " возвращ": 3614,
      "НР": 3615,
      "где ": 3616,
      "поль": 3617,
      "цель": 3618,
      " назнач": 3619,
      "чера": 3620,
      "Великобрит": 3621,
      "ыти": 3622,
      "отд": 3623,
      "доказ": 3624,
      "доволь": 3625,
      "еть ": 3626,
      "стоит ": 3627,
      " пенсион": 3628,
      "й и ": 3629,
      " ме": 3630,
      " - говорится": 3631,
      " возник": 3632,
      "Воз": 3633,
      "Дональ": 3634,
      "\"З": 3635,
      "\"Н": 3636,
      "вен": 3637,
      "иск": 3638,
      "до с": 3639,
      " причин": 3640,
      "али.\n": 3641,
      " сотрудниче": 3642,
      "ох": 3643,
      "ют, что ": 3644,
      " событи": 3645,
      "ков, ": 3646,
      "камп": 3647,
      "стало извест": 3648,
      " втор": 3649,
      "Лен": 3650,
      "цов": 3651,
      "оборуд": 3652,
      "Ре": 3653,
      " низ": 3654,
      "полня": 3655,
      "45": 3656,
      "евро": 3657,
      " взрыв": 3658,
      " восстанов": 3659,
      " доллар": 3660,
      "успеш": 3661,
      "комитета ": 3662,
      " пись": 3663,
      "СССР": 3664,
      "Re": 3665,
      "гип": 3666,
      "но в": 3667,
      "альян": 3668,
      " начина": 3669,
      "отметил, что ": 3670,
      "Ранее": 3671,
      "дц": 3672,
      "пром": 3673,
      "у с": 3674,
      "барре": 3675,
      "китай": 3676,
      "оложен": 3677,
      "се": 3678,
      "забол": 3679,
      "анию": 3680,
      "ы - ": 3681,
      "США.\n": 3682,
      "француз": 3683,
      "вать ": 3684,
      "торов": 3685,
      " призв": 3686,
      "пони": 3687,
      " совершен": 3688,
      ", после ": 3689,
      "итар": 3690,
      "интересов": 3691,
      "вязан": 3692,
      "Гол": 3693,
      "маши": 3694,
      "Националь": 3695,
      "электрон": 3696,
      "Ту": 3697,
      "-летний ": 3698,
      "дальней": 3699,
      "должны": 3700,
      " собра": 3701,
      " наблюд": 3702,
      "характер": 3703,
      "тури": 3704,
      "форм": 3705,
      " прил": 3706,
      "другие ": 3707,
      "The ": 3708,
      "ил в ": 3709,
      " в суд": 3710,
      "Север": 3711,
      " не было": 3712,
      " предус": 3713,
      "омет": 3714,
      "стади": 3715,
      " самолет": 3716,
      " нам": 3717,
      "циа": 3718,
      "коре": 3719,
      "мати": 3720,
      "РБ": 3721,
      "лад": 3722,
      "ют в ": 3723,
      "ателей ": 3724,
      "расположен": 3725,
      "запис": 3726,
      "е место": 3727,
      "Игорь ": 3728,
      "либо ": 3729,
      "алась ": 3730,
      "ющей": 3731,
      ", но и ": 3732,
      " декабря": 3733,
      "комментиров": 3734,
      "момент ": 3735,
      "Александра ": 3736,
      "стать ": 3737,
      " в материал": 3738,
      "деньги": 3739,
      "уточн": 3740,
      "ге": 3741,
      "ежд": 3742,
      "отре": 3743,
      " выпус": 3744,
      "огром": 3745,
      "т.\n": 3746,
      " справ": 3747,
      "работы ": 3748,
      "ывает": 3749,
      "ew": 3750,
      "Лу": 3751,
      " пон": 3752,
      "ела": 3753,
      "кад": 3754,
      "нова": 3755,
      " палат": 3756,
      " проп": 3757,
      "ревнов": 3758,
      "Подроб": 3759,
      "\":": 3760,
      "ir": 3761,
      "Сейчас": 3762,
      "лер": 3763,
      "ка в ": 3764,
      "ное дело": 3765,
      " вооружен": 3766,
      "Алеп": 3767,
      "Мино": 3768,
      "лей": 3769,
      "гич": 3770,
      "российских": 3771,
      " пес": 3772,
      "ско-": 3773,
      "благо": 3774,
      "качестве ": 3775,
      " вызв": 3776,
      " прид": 3777,
      "окру": 3778,
      " лет ": 3779,
      "as": 3780,
      "Япони": 3781,
      "ст. ": 3782,
      " полицей": 3783,
      "импи": 3784,
      "нее": 3785,
      "дела": 3786,
      " всегда ": 3787,
      "ивать ": 3788,
      "банк": 3789,
      "зарплат": 3790,
      "Ваш": 3791,
      "Суд": 3792,
      "обиль": 3793,
      " перспектив": 3794,
      "леду": 3795,
      "\"Рос": 3796,
      "кал": 3797,
      " нет.\n": 3798,
      "отече": 3799,
      "ты.\n": 3800,
      "шел": 3801,
      " в России ": 3802,
      "заявля": 3803,
      "крет": 3804,
      "ний": 3805,
      "товар": 3806,
      " взя": 3807,
      " следстви": 3808,
      "-с": 3809,
      "- на ": 3810,
      "жение ": 3811,
      "жиль": 3812,
      "государства": 3813,
      "Ма": 3814,
      "олот": 3815,
      "ерев": 3816,
      "ГУ": 3817,
      "функ": 3818,
      " миллионов ": 3819,
      "рожд": 3820,
      " протест": 3821,
      "мех": 3822,
      "минут": 3823,
      "числен": 3824,
      "ющего ": 3825,
      " наказ": 3826,
      "одна ": 3827,
      "Бан": 3828,
      "Бер": 3829,
      "Так ": 3830,
      "Представ": 3831,
      "теп": 3832,
      "будуще": 3833,
      " посет": 3834,
      "контроль": 3835,
      "луш": 3836,
      " перевоз": 3837,
      " самол": 3838,
      "Ри": 3839,
      "я на ": 3840,
      "тон ": 3841,
      "ал \"": 3842,
      "лишь": 3843,
      "ализи": 3844,
      "рыва": 3845,
      "голосовани": 3846,
      " почти ": 3847,
      "цвет": 3848,
      "заказ": 3849,
      "ложен": 3850,
      "ции и ": 3851,
      "итогам ": 3852,
      "К РФ": 3853,
      " профессион": 3854,
      "сол": 3855,
      "ину ": 3856,
      " в случа": 3857,
      "ила, что ": 3858,
      "такие ": 3859,
      " прошлом год": 3860,
      "\"п": 3861,
      "Еще ": 3862,
      "мэ": 3863,
      "уть ": 3864,
      "опыт": 3865,
      " ничего": 3866,
      " новый ": 3867,
      "Вед": 3868,
      "тали": 3869,
      "могли ": 3870,
      "Напомним, ": 3871,
      "уро": 3872,
      " промышлен": 3873,
      "мигран": 3874,
      " преми": 3875,
      " прекращ": 3876,
      "меж": 3877,
      "\"О": 3878,
      "фир": 3879,
      " возможность": 3880,
      "500": 3881,
      " на не": 3882,
      "котором ": 3883,
      "структур": 3884,
      " в сообщ": 3885,
      " внес": 3886,
      "ли.\n": 3887,
      " г. ": 3888,
      ", где": 3889,
      "оши": 3890,
      " сери": 3891,
      " сирий": 3892,
      "ено": 3893,
      "заявл": 3894,
      "торы ": 3895,
      "ТП": 3896,
      "ланд": 3897,
      ", которо": 3898,
      "аний ": 3899,
      "дума": 3900,
      "рублей ": 3901,
      " свою очеред": 3902,
      "Сейчас ": 3903,
      "муни": 3904,
      "иностранных ": 3905,
      "зреваем": 3906,
      "Im": 3907,
      "омин": 3908,
      "читайте": 3909,
      "этим ": 3910,
      "шая": 3911,
      "развед": 3912,
      "лены ": 3913,
      "\" на ": 3914,
      "исти": 3915,
      "Например": 3916,
      "Михаил ": 3917,
      "Мат": 3918,
      " сегодня ": 3919,
      "рует": 3920,
      "компании": 3921,
      "желез": 3922,
      "автомобиль": 3923,
      "оны": 3924,
      "ов - ": 3925,
      "вести ": 3926,
      "живот": 3927,
      "ap": 3928,
      "ником ": 3929,
      "басс": 3930,
      "ии ": 3931,
      "обед": 3932,
      " получили ": 3933,
      "бесп": 3934,
      "лани": 3935,
      "инци": 3936,
      "из них ": 3937,
      "ально ": 3938,
      "режисс": 3939,
      ";\n": 3940,
      "Екат": 3941,
      "анкт-Петербург": 3942,
      "таким ": 3943,
      "бежен": 3944,
      "ООО \"": 3945,
      "количество ": 3946,
      " собесед": 3947,
      " власти ": 3948,
      " почти": 3949,
      "Бори": 3950,
      "них": 3951,
      "ственно": 3952,
      "усил": 3953,
      "отмечает ": 3954,
      "-й ": 3955,
      " не в": 3956,
      "ергети": 3957,
      "здесь ": 3958,
      " предваритель": 3959,
      "300": 3960,
      "Поч": 3961,
      " незакон": 3962,
      "ение в ": 3963,
      "должен ": 3964,
      "Кол": 3965,
      " валют": 3966,
      "Таким ": 3967,
      "утвержда": 3968,
      "Вас": 3969,
      "юж": 3970,
      "тогда ": 3971,
      "зако": 3972,
      " выраз": 3973,
      "ющим ": 3974,
      "стрел": 3975,
      "ющей ": 3976,
      "административ": 3977,
      "РИА Новости.\n": 3978,
      " в материале \"": 3979,
      "Теп": 3980,
      "круг": 3981,
      "зах": 3982,
      "да.\n": 3983,
      "дает": 3984,
      " доб": 3985,
      "ледстви": 3986,
      " возможность ": 3987,
      "эта ": 3988,
      "рек": 3989,
      "ской с": 3990,
      "заявил, что": 3991,
      " партнер": 3992,
      "степ": 3993,
      "задач": 3994,
      "магаз": 3995,
      "конкрет": 3996,
      "конкурс": 3997,
      "избиратель": 3998,
      "II": 3999,
      "дат": 4000,
      "оцени": 4001,
      "стали": 4002,
      " вари": 4003,
      "ать с": 4004,
      "должна ": 4005,
      "Москва": 4006,
      "твор": 4007,
      "режи": 4008,
      "одоб": 4009,
      " соревнов": 4010,
      "Когда ": 4011,
      " первую ": 4012,
      "аэропор": 4013,
      "ститут": 4014,
      "Она ": 4015,
      " пси": 4016,
      "лем ": 4017,
      "Пре": 4018,
      ", кто": 4019,
      "округ": 4020,
      "катего": 4021,
      "бург": 4022,
      "ально": 4023,
      " подчеркнул": 4024,
      "Бо": 4025,
      " по дел": 4026,
      "овой": 4027,
      "Ир": 4028,
      " вели": 4029,
      "ких": 4030,
      "ранее": 4031,
      "коммер": 4032,
      " мест": 4033,
      ", получ": 4034,
      "ческим ": 4035,
      "ишет ": 4036,
      "Imag": 4037,
      " недав": 4038,
      "информацион": 4039,
      " января ": 4040,
      "et": 4041,
      "Ба": 4042,
      "Ми": 4043,
      "фа": 4044,
      "шая ": 4045,
      "рань": 4046,
      "ность.\n": 4047,
      "центре ": 4048,
      "ов на ": 4049,
      " процес": 4050,
      "размере ": 4051,
      " марта ": 4052,
      " пыт": 4053,
      "осед": 4054,
      "Макси": 4055,
      "тю": 4056,
      "ингов": 4057,
      "департа": 4058,
      "идетель": 4059,
      "овых": 4060,
      "говорит": 4061,
      " соответстви": 4062,
      "телефон": 4063,
      " в связи с ": 4064,
      "ВВ": 4065,
      "тоже ": 4066,
      "иломет": 4067,
      "у \"": 4068,
      " перес": 4069,
      " человек.\n": 4070,
      "еты": 4071,
      "ственный ": 4072,
      " перен": 4073,
      "цев.\n": 4074,
      "меди": 4075,
      " нефти": 4076,
      " апреля": 4077,
      " из ": 4078,
      "НД": 4079,
      " прев": 4080,
      "опров": 4081,
      "дополнитель": 4082,
      "лось": 4083,
      "чай": 4084,
      "диров": 4085,
      "ный суд": 4086,
      "аналити": 4087,
      " вы ": 4088,
      "столич": 4089,
      "eb": 4090,
      "ее в ": 4091,
      "о-": 4092,
      "тоже": 4093,
      "скими ": 4094,
      "станет ": 4095,
      "По мнению ": 4096,
      "аем": 4097,
      "ули": 4098,
      " сопер": 4099,
      " всем ": 4100,
      "очевид": 4101,
      "Известия\n": 4102,
      "равнению": 4103,
      "Новые ": 4104,
      "говора": 4105,
      "Еврос": 4106,
      " нового ": 4107,
      "ело ": 4108,
      "фотографи": 4109,
      "Ъ-": 4110,
      "заб": 4111,
      "ласти": 4112,
      "есмотря на ": 4113,
      "Источник": 4114,
      "енных": 4115,
      "тол": 4116,
      "ывают": 4117,
      "Эксп": 4118,
      "Иль": 4119,
      "курс": 4120,
      "женщин": 4121,
      "ядер": 4122,
      "но с ": 4123,
      "частности, ": 4124,
      "- с": 4125,
      "Крем": 4126,
      "шив": 4127,
      "регистри": 4128,
      "энергети": 4129,
      "каких": 4130,
      " минист": 4131,
      "Согласно ": 4132,
      " нет ": 4133,
      "удив": 4134,
      "стаб": 4135,
      "фонд": 4136,
      "овершен": 4137,
      " прокура": 4138,
      "Запад": 4139,
      "Image ": 4140,
      "Фин": 4141,
      "овет": 4142,
      "аталь": 4143,
      "ать в": 4144,
      ", связан": 4145,
      "Обще": 4146,
      "ократи": 4147,
      " принадлеж": 4148,
      "школь": 4149,
      " своих": 4150,
      " наи": 4151,
      "страниц": 4152,
      "дос": 4153,
      "ее в": 4154,
      "реализ": 4155,
      "ал.\n": 4156,
      " выясн": 4157,
      "ечер": 4158,
      "действов": 4159,
      "генераль": 4160,
      "НАТО": 4161,
      "астро": 4162,
      "зу": 4163,
      "олимпи": 4164,
      "одном ": 4165,
      "ми в ": 4166,
      " свой ": 4167,
      "клиент": 4168,
      "заболев": 4169,
      "Больш": 4170,
      "лось ": 4171,
      " постоян": 4172,
      "мой": 4173,
      "шем ": 4174,
      "Комп": 4175,
      "\"с": 4176,
      "Оле": 4177,
      "устро": 4178,
      "шев": 4179,
      "ь на ": 4180,
      " переход": 4181,
      " представители ": 4182,
      " получить ": 4183,
      " ноября ": 4184,
      "меньш": 4185,
      "цитирует ": 4186,
      "s.\n": 4187,
      "Аль": 4188,
      "мочи": 4189,
      "дорог": 4190,
      " происход": 4191,
      "чев": 4192,
      "198": 4193,
      "Подробнее ": 4194,
      "Кир": 4195,
      "аний": 4196,
      "корпора": 4197,
      "сет": 4198,
      "сты": 4199,
      "кораб": 4200,
      " соц": 4201,
      "уничто": 4202,
      "обнару": 4203,
      "вол": 4204,
      "еев": 4205,
      " подход": 4206,
      "ов (": 4207,
      "большой ": 4208,
      "Восто": 4209,
      " лет.\n": 4210,
      "Вашинг": 4211,
      "Кур": 4212,
      "и С": 4213,
      "Исп": 4214,
      "ощ": 4215,
      " вход": 4216,
      "испыт": 4217,
      " власти": 4218,
      "один из ": 4219,
      "марш": 4220,
      "По его словам, ": 4221,
      "интервью ": 4222,
      "Ана": 4223,
      "отсутстви": 4224,
      "или, что": 4225,
      "атели ": 4226,
      "ла в ": 4227,
      "области ": 4228,
      "линтон": 4229,
      "ондент": 4230,
      "масштаб": 4231,
      " которы": 4232,
      "где": 4233,
      "том.\n": 4234,
      "тура ": 4235,
      "часть": 4236,
      "ующе": 4237,
      "Ислам": 4238,
      "ликв": 4239,
      "Тепер": 4240,
      "е всего": 4241,
      "зало": 4242,
      "ыду": 4243,
      "она.\n": 4244,
      "тари": 4245,
      "актер": 4246,
      " на сайте ": 4247,
      "ено ": 4248,
      ", когда": 4249,
      " после того": 4250,
      " предполага": 4251,
      "осуществля": 4252,
      " Г": 4253,
      "а в": 4254,
      "яет ": 4255,
      "ентом ": 4256,
      " нельз": 4257,
      "еров": 4258,
      "которую ": 4259,
      " нали": 4260,
      "респондент": 4261,
      "инфра": 4262,
      "зло": 4263,
      "ния ": 4264,
      "ать, что ": 4265,
      "тера": 4266,
      "квали": 4267,
      " февраля": 4268,
      "ены": 4269,
      "ателей": 4270,
      "автобус": 4271,
      "читайте в материале \"": 4272,
      " нос": 4273,
      "рекла": 4274,
      "ку в ": 4275,
      "ады": 4276,
      "али, что ": 4277,
      "вящен": 4278,
      "Миноборо": 4279,
      "май": 4280,
      " процед": 4281,
      "Лав": 4282,
      " содерж": 4283,
      "и (": 4284,
      "ций.\n": 4285,
      "едом": 4286,
      "российский ": 4287,
      "тяж": 4288,
      "Верхов": 4289,
      "да, ": 4290,
      "202": 4291,
      "ческом": 4292,
      " проекта ": 4293,
      "рассмотр": 4294,
      "Евросо": 4295,
      "зит": 4296,
      "та, ": 4297,
      "ствует ": 4298,
      " получил ": 4299,
      ", в том числе": 4300,
      "каждый ": 4301,
      "ток ": 4302,
      "ка: ": 4303,
      "дают": 4304,
      "енко": 4305,
      "ние": 4306,
      "кистан": 4307,
      "между": 4308,
      "запрос": 4309,
      "ади": 4310,
      "чу": 4311,
      " сол": 4312,
      "рекор": 4313,
      " Т": 4314,
      "\"Г": 4315,
      "отли": 4316,
      " предуп": 4317,
      "соедин": 4318,
      "обороны ": 4319,
      "жителей ": 4320,
      "pp": 4321,
      "гар": 4322,
      "дра": 4323,
      "ский с": 4324,
      "конку": 4325,
      "ения и ": 4326,
      "категори": 4327,
      " C": 4328,
      "разу ": 4329,
      " свою": 4330,
      "Сергея ": 4331,
      "открыти": 4332,
      "обязан": 4333,
      "кресень": 4334,
      "Российской Федера": 4335,
      "мени": 4336,
      "зации ": 4337,
      " всей ": 4338,
      " возбужден": 4339,
      "муницип": 4340,
      "колько ": 4341,
      "тип": 4342,
      "мимо ": 4343,
      " млн руб": 4344,
      " практически": 4345,
      " называем": 4346,
      "Фото": 4347,
      "р.\n": 4348,
      "либо": 4349,
      "ческую ": 4350,
      " спек": 4351,
      " - отметил ": 4352,
      "жизни ": 4353,
      ") - ": 4354,
      "Зах": 4355,
      "ю, что ": 4356,
      "Государ": 4357,
      "ить на ": 4358,
      "нефти": 4359,
      "традицион": 4360,
      "ch": 4361,
      "un": 4362,
      "федера": 4363,
      " ней": 4364,
      "блоки": 4365,
      "ондон": 4366,
      " полномочи": 4367,
      "шв": 4368,
      "эт": 4369,
      "трех": 4370,
      "ывать ": 4371,
      " партии ": 4372,
      " ситуация": 4373,
      "ed": 4374,
      "ба ": 4375,
      "фору": 4376,
      "я на": 4377,
      "никами ": 4378,
      "После": 4379,
      "ив ": 4380,
      " сообщалось": 4381,
      "Поэтому ": 4382,
      "ключев": 4383,
      "услуг": 4384,
      " август": 4385,
      "32": 4386,
      "к, ": 4387,
      "я с ": 4388,
      " виз": 4389,
      "ился в ": 4390,
      "орв": 4391,
      "гаран": 4392,
      " военно": 4393,
      "чат": 4394,
      " приговор": 4395,
      " несколько": 4396,
      "ook": 4397,
      "Ром": 4398,
      "ки на ": 4399,
      "дел ": 4400,
      "фигу": 4401,
      "голосов": 4402,
      "статус": 4403,
      "№ ": 4404,
      " вступ": 4405,
      "\"У": 4406,
      "Рус": 4407,
      "е за": 4408,
      " популяр": 4409,
      "ело": 4410,
      "ина.\n": 4411,
      "широ": 4412,
      "Вен": 4413,
      "ск ": 4414,
      "за.\n": 4415,
      "информацию ": 4416,
      "участие в ": 4417,
      "уголовное дело": 4418,
      "Раз": 4419,
      "тинг": 4420,
      "скому": 4421,
      "администрации ": 4422,
      " воздуш": 4423,
      "господина ": 4424,
      "еть": 4425,
      "обстоятель": 4426,
      "руют": 4427,
      "успех": 4428,
      "фил": 4429,
      "жен ": 4430,
      " не менее ": 4431,
      "Итали": 4432,
      "шест": 4433,
      "емь": 4434,
      "ться ": 4435,
      "может быть": 4436,
      " долж": 4437,
      " направлен": 4438,
      "im": 4439,
      "Аф": 4440,
      "Его ": 4441,
      "мало": 4442,
      " постро": 4443,
      "обсуд": 4444,
      "изуч": 4445,
      " прежд": 4446,
      " новые ": 4447,
      "мов": 4448,
      " в отношении ": 4449,
      "этой": 4450,
      "документа": 4451,
      "речь ": 4452,
      " вот ": 4453,
      "зас": 4454,
      "шие": 4455,
      ", включа": 4456,
      "данный ": 4457,
      "мотрен": 4458,
      "Все": 4459,
      " первом ": 4460,
      " войны": 4461,
      "максималь": 4462,
      " A": 4463,
      "СП": 4464,
      "инди": 4465,
      "вает ": 4466,
      "так называем": 4467,
      " принима": 4468,
      "банк ": 4469,
      " среди ": 4470,
      "многие ": 4471,
      "С.\n": 4472,
      "умер": 4473,
      "удалось ": 4474,
      "комплек": 4475,
      "государство": 4476,
      "России по ": 4477,
      ", поскольку ": 4478,
      "Ди": 4479,
      "ственных ": 4480,
      "турист": 4481,
      "веча": 4482,
      " союз": 4483,
      " причи": 4484,
      "ку, ": 4485,
      "России в ": 4486,
      " слова ": 4487,
      "Централь": 4488,
      "солют": 4489,
      "Бы": 4490,
      "ФСБ": 4491,
      "ается ": 4492,
      "учит": 4493,
      "у нас": 4494,
      "отчет": 4495,
      " невоз": 4496,
      " прием": 4497,
      "дело ": 4498,
      "уровне ": 4499,
      "Российская ": 4500,
      "37": 4501,
      "ww": 4502,
      "Бар": 4503,
      "ресто": 4504,
      " в стран": 4505,
      "закуп": 4506,
      "редак": 4507,
      "нуть ": 4508,
      " второй ": 4509,
      "уход": 4510,
      " впервы": 4511,
      "жимо": 4512,
      " считает ": 4513,
      "значитель": 4514,
      ", при ": 4515,
      "ащи": 4516,
      " вп": 4517,
      ", что на ": 4518,
      "освобо": 4519,
      "источник": 4520,
      "Евгений ": 4521,
      "юриди": 4522,
      "Олег ": 4523,
      " в состав": 4524,
      "рад": 4525,
      "ил \"": 4526,
      " прось": 4527,
      "нужден": 4528,
      "работу": 4529,
      "значит": 4530,
      "детей": 4531,
      " посел": 4532,
      " происшестви": 4533,
      "МВД ": 4534,
      "глу": 4535,
      "тал": 4536,
      " постанов": 4537,
      " в год": 4538,
      " случае ": 4539,
      "Ростов": 4540,
      "гат": 4541,
      "анные ": 4542,
      "исход": 4543,
      " никогда": 4544,
      "машин": 4545,
      "ска ": 4546,
      "эп": 4547,
      " соз": 4548,
      " неизвест": 4549,
      "мы.\n": 4550,
      "цензи": 4551,
      " парламент": 4552,
      "инфля": 4553,
      "Таким образом": 4554,
      "Оль": 4555,
      "узн": 4556,
      "енные ": 4557,
      "эконом": 4558,
      "Новые Известия\n": 4559,
      "Ира": 4560,
      " считают": 4561,
      "ной систем": 4562,
      "Болга": 4563,
      "ДТП": 4564,
      "енса": 4565,
      "то же": 4566,
      "равоохран": 4567,
      " привлеч": 4568,
      "ью-": 4569,
      "Турции ": 4570,
      "олимпий": 4571,
      "беж": 4572,
      "улучш": 4573,
      " сро": 4574,
      "еверо": 4575,
      "ам, ": 4576,
      "угро": 4577,
      "Па": 4578,
      "оформ": 4579,
      "алкого": 4580,
      "ем, ": 4581,
      " немец": 4582,
      "опубликован": 4583,
      "до сих": 4584,
      "бов": 4585,
      " в сил": 4586,
      "организации": 4587,
      "дирек": 4588,
      "Совета ": 4589,
      "36": 4590,
      "увид": 4591,
      "мне ": 4592,
      "Европей": 4593,
      "косми": 4594,
      " к ": 4595,
      "Быв": 4596,
      "я по ": 4597,
      "е (": 4598,
      " - привод": 4599,
      " передач": 4600,
      "ской области.\n": 4601,
      "Фед": 4602,
      "Хот": 4603,
      "аги": 4604,
      "ибир": 4605,
      "лид": 4606,
      "уди": 4607,
      "гово": 4608,
      "усили": 4609,
      " необходимо ": 4610,
      "аналогич": 4611,
      "ченко ": 4612,
      "глаш": 4613,
      "РИА Новости": 4614,
      "яко": 4615,
      " счет": 4616,
      "какой": 4617,
      "осу": 4618,
      ", потому что ": 4619,
      "ура": 4620,
      " сомн": 4621,
      "ющего": 4622,
      " сентября ": 4623,
      " апреля ": 4624,
      "здесь": 4625,
      " предыду": 4626,
      "ных средств": 4627,
      "звон": 4628,
      "компании \"": 4629,
      "чемпионата ": 4630,
      " декабря ": 4631,
      "com": 4632,
      "фестивал": 4633,
      "В настояще": 4634,
      "кто ": 4635,
      " пока ": 4636,
      "улице ": 4637,
      "КП": 4638,
      "жения": 4639,
      "девуш": 4640,
      " позд": 4641,
      "мист": 4642,
      "России и ": 4643,
      ", которая ": 4644,
      "мето": 4645,
      "распоря": 4646,
      "ad": 4647,
      "К \"": 4648,
      " нар": 4649,
      "домаш": 4650,
      "могли": 4651,
      "Обам": 4652,
      "человек.\n": 4653,
      "единствен": 4654,
      "ное с": 4655,
      " пройд": 4656,
      "дома ": 4657,
      "куро": 4658,
      "четверг": 4659,
      "\"Интерфакс": 4660,
      "Ак": 4661,
      "Соб": 4662,
      "флот": 4663,
      "чив": 4664,
      "юсь": 4665,
      "Имен": 4666,
      " надо ": 4667,
      "ств ": 4668,
      ", счит": 4669,
      " встрет": 4670,
      "Правитель": 4671,
      ", соглас": 4672,
      "Мо": 4673,
      "и под": 4674,
      "ъез": 4675,
      "я не ": 4676,
      "ина, ": 4677,
      "еся ": 4678,
      "надз": 4679,
      "уть": 4680,
      "щий ": 4681,
      "работать": 4682,
      "ческое ": 4683,
      "колле": 4684,
      " высказ": 4685,
      "маршру": 4686,
      "Fac": 4687,
      "жения ": 4688,
      "ляет ": 4689,
      " мат": 4690,
      "Россию": 4691,
      " своей": 4692,
      "Москвы ": 4693,
      "консуль": 4694,
      "Гре": 4695,
      "Пари": 4696,
      " всп": 4697,
      "руем": 4698,
      "российского": 4699,
      " прогноз": 4700,
      "Еди": 4701,
      ", это ": 4702,
      "кой.\n": 4703,
      "ником": 4704,
      "циф": 4705,
      "ных и ": 4706,
      " напомн": 4707,
      " новой ": 4708,
      "и\n": 4709,
      "анта": 4710,
      "разме": 4711,
      "удовлет": 4712,
      "Олимпий": 4713,
      " нескольких ": 4714,
      "33": 4715,
      "Кер": 4716,
      " сай": 4717,
      " на п": 4718,
      "крыти": 4719,
      " судь": 4720,
      "граждан ": 4721,
      "Гор": 4722,
      "Мож": 4723,
      "Юрий ": 4724,
      "конца ": 4725,
      "комитет": 4726,
      "расшир": 4727,
      "Кита": 4728,
      " суп": 4729,
      "ется на ": 4730,
      "региона": 4731,
      "ега": 4732,
      "кет": 4733,
      "обмен": 4734,
      "стве.\n": 4735,
      "вает": 4736,
      " принцип": 4737,
      "хожд": 4738,
      "gh": 4739,
      "Иран": 4740,
      "зер": 4741,
      " пыта": 4742,
      " выяв": 4743,
      " - добав": 4744,
      "ной полити": 4745,
      "om": 4746,
      "ur": 4747,
      "Р ": 4748,
      "Род": 4749,
      "мне": 4750,
      " ним": 4751,
      " нам ": 4752,
      "мом": 4753,
      "аться в ": 4754,
      "распол": 4755,
      "МЧ": 4756,
      "и по ": 4757,
      "кре": 4758,
      "ъяв": 4759,
      " врач": 4760,
      "мом ": 4761,
      "овым ": 4762,
      "террориз": 4763,
      "Болгари": 4764,
      "ОП": 4765,
      "лении ": 4766,
      " вра": 4767,
      "ав ": 4768,
      "жегод": 4769,
      "регуляр": 4770,
      "экс-": 4771,
      "удовлетвор": 4772,
      " нан": 4773,
      "едж": 4774,
      "али на ": 4775,
      "станав": 4776,
      "лучше": 4777,
      "частности": 4778,
      "стара": 4779,
      "являются ": 4780,
      "гент": 4781,
      "ствует": 4782,
      "Май": 4783,
      "хок": 4784,
      "чист": 4785,
      "ыск": 4786,
      "ьев": 4787,
      "лицензи": 4788,
      "ром.\n": 4789,
      "решения": 4790,
      " привлек": 4791,
      "каких ": 4792,
      "Алеппо": 4793,
      "\"Ф": 4794,
      "гн": 4795,
      "но, что": 4796,
      "риц": 4797,
      "кова": 4798,
      "запус": 4799,
      ", вед": 4800,
      "рать ": 4801,
      "ница ": 4802,
      "у нас ": 4803,
      "енти": 4804,
      " во время": 4805,
      "скими": 4806,
      "ераль": 4807,
      "членов ": 4808,
      "читайте в материале \"Ъ\" ": 4809,
      "стало": 4810,
      "ала в ": 4811,
      "банка": 4812,
      "уровень ": 4813,
      "Источник: ": 4814,
      "ЦСК": 4815,
      "размещ": 4816,
      "ассо": 4817,
      "факти": 4818,
      "Путин ": 4819,
      "денеж": 4820,
      " нефтя": 4821,
      " млрд руб. ": 4822,
      " видео": 4823,
      "ebook": 4824,
      " - цитирует ": 4825,
      "работает": 4826,
      "форми": 4827,
      "Информа": 4828,
      "Восточ": 4829,
      "энерги": 4830,
      "РБК": 4831,
      "ошиб": 4832,
      "Для": 4833,
      "брен": 4834,
      "гин": 4835,
      " меся": 4836,
      " своего": 4837,
      ", поэтому ": 4838,
      " полностью ": 4839,
      " г.": 4840,
      "Его": 4841,
      "ске ": 4842,
      ", конеч": 4843,
      "исслед": 4844,
      "опол": 4845,
      "аппара": 4846,
      "РФ.\n": 4847,
      "руководитель ": 4848,
      " тыс.": 4849,
      "безопасности": 4850,
      "Николай ": 4851,
      "Пере": 4852,
      "ия ": 4853,
      "мере": 4854,
      " взаим": 4855,
      "чие ": 4856,
      "стран ": 4857,
      "централь": 4858,
      "хорош": 4859,
      "энерго": 4860,
      "телеканал": 4861,
      "РА": 4862,
      "вис": 4863,
      "овал": 4864,
      "ан-": 4865,
      "ел в ": 4866,
      "оплат": 4867,
      "лекар": 4868,
      "две ": 4869,
      "ближайше": 4870,
      "Брю": 4871,
      " не будет": 4872,
      " нефть": 4873,
      "футболист": 4874,
      " военнослуж": 4875,
      " от ": 4876,
      "чь": 4877,
      "лась ": 4878,
      "ся на ": 4879,
      "В результате ": 4880,
      "которой": 4881,
      "денег": 4882,
      "Донбасс": 4883,
      " февраля ": 4884,
      " УК РФ": 4885,
      "Facebook": 4886,
      "Жен": 4887,
      "ных.\n": 4888,
      "Констан": 4889,
      "Арав": 4890,
      "ищ": 4891,
      "Евро": 4892,
      ", наход": 4893,
      "люди ": 4894,
      "хищ": 4895,
      "футболь": 4896,
      "обнаружен": 4897,
      "-го ": 4898,
      "34": 4899,
      "us": 4900,
      "уэ": 4901,
      " вице-п": 4902,
      "ла.\n": 4903,
      "опти": 4904,
      "организация": 4905,
      "ении с": 4906,
      "мог ": 4907,
      " высоко": 4908,
      "хол": 4909,
      ", он": 4910,
      " на про": 4911,
      "из сам": 4912,
      "должно ": 4913,
      " сделать ": 4914,
      "текуще": 4915,
      "вижимо": 4916,
      "Медведев": 4917,
      "осна": 4918,
      "лий": 4919,
      "имеет ": 4920,
      "оборудовани": 4921,
      "стабиль": 4922,
      "Мир": 4923,
      "экономического ": 4924,
      "другой ": 4925,
      " прокуро": 4926,
      "тариф": 4927,
      "Без": 4928,
      " ва": 4929,
      " вет": 4930,
      "ита ": 4931,
      "ит в ": 4932,
      "ому ": 4933,
      " возобнов": 4934,
      " правиль": 4935,
      " свя": 4936,
      " последстви": 4937,
      "имеет": 4938,
      "App": 4939,
      "бур": 4940,
      "дерев": 4941,
      "у на ": 4942,
      "итета ": 4943,
      " в ми": 4944,
      "есси": 4945,
      " не за": 4946,
      "акти": 4947,
      "не.\n": 4948,
      "женщи": 4949,
      "говорят": 4950,
      "того, что ": 4951,
      "рейтинг": 4952,
      " P": 4953,
      " него": 4954,
      "ной России": 4955,
      "Украина": 4956,
      " первую очеред": 4957,
      "конкурен": 4958,
      "Зат": 4959,
      "отлич": 4960,
      "моз": 4961,
      "та в ": 4962,
      "ется, ": 4963,
      "рынке ": 4964,
      " себе ": 4965,
      "АЗ": 4966,
      "золот": 4967,
      " выигра": 4968,
      "офис": 4969,
      " G": 4970,
      "\").\n": 4971,
      "скую": 4972,
      "ор ": 4973,
      "комментари": 4974,
      "ной и ": 4975,
      "ителем ": 4976,
      "избеж": 4977,
      "Основ": 4978,
      "New": 4979,
      "тонн": 4980,
      "МВД": 4981,
      "зин": 4982,
      "х и ": 4983,
      "данные ": 4984,
      "бума": 4985,
      " повер": 4986,
      "директора ": 4987,
      "мужчин": 4988,
      " платеж": 4989,
      "Она": 4990,
      "спор": 4991,
      "ства и ": 4992,
      "Отмеча": 4993,
      "креп": 4994,
      "ские в": 4995,
      " мет": 4996,
      "российские ": 4997,
      " всегда": 4998,
      "ывать": 4999,
      " воскресень": 5000,
      "абсолют": 5001,
      "деятельности ": 5002,
      " пенси": 5003,
      "\"в": 5004,
      "ими": 5005,
      "нет ": 5006,
      "тогда": 5007,
      " потен": 5008,
      " прокомментиров": 5009,
      " совс": 5010,
      "концер": 5011,
      " сезон": 5012,
      "; ": 5013,
      "нему ": 5014,
      " владель": 5015,
      " программы ": 5016,
      " на Украин": 5017,
      " сожал": 5018,
      ", что с": 5019,
      "решения ": 5020,
      "друг": 5021,
      "ot": 5022,
      "Егип": 5023,
      "Кан": 5024,
      "гром": 5025,
      "шись": 5026,
      "ова ": 5027,
      "- это": 5028,
      "точки ": 5029,
      " судеб": 5030,
      "экспор": 5031,
      "газет": 5032,
      "Гри": 5033,
      "Кор": 5034,
      "тес": 5035,
      " назначен": 5036,
      "объясня": 5037,
      "ителям ": 5038,
      " раз": 5039,
      "Вит": 5040,
      "сят": 5041,
      " своим ": 5042,
      " нужно": 5043,
      "Совет": 5044,
      " президентом ": 5045,
      "os": 5046,
      "бен": 5047,
      "мел": 5048,
      "пар": 5049,
      "еры ": 5050,
      " вынужден": 5051,
      " приех": 5052,
      "дела ": 5053,
      "ent": 5054,
      " правительство ": 5055,
      "гал": 5056,
      "извод": 5057,
      "щиков": 5058,
      "ценари": 5059,
      "людей ": 5060,
      " пострадав": 5061,
      "бин": 5062,
      "чина ": 5063,
      "яще": 5064,
      " сет": 5065,
      " подраздел": 5066,
      "мерт": 5067,
      "болез": 5068,
      "ства в ": 5069,
      " верну": 5070,
      " сыгра": 5071,
      "худож": 5072,
      "То ": 5073,
      "ьер ": 5074,
      " получа": 5075,
      "кипа": 5076,
      "ходе": 5077,
      "ители": 5078,
      "лен ": 5079,
      "которую": 5080,
      "\"),": 5081,
      "Хил": 5082,
      "у-": 5083,
      "чан": 5084,
      "тот": 5085,
      "контак": 5086,
      " - сообщ": 5087,
      " по сравнению": 5088,
      "ва ": 5089,
      "ее по": 5090,
      "стала": 5091,
      " вот": 5092,
      " на в": 5093,
      "нии ": 5094,
      "конец": 5095,
      "ного с": 5096,
      "Анг": 5097,
      " ситуацию": 5098,
      "ограни": 5099,
      "Нью-": 5100,
      "ЦИ": 5101,
      "дня ": 5102,
      "душ": 5103,
      "197": 5104,
      "может быть ": 5105,
      "Полити": 5106,
      "-х ": 5107,
      "гроз": 5108,
      "шем": 5109,
      "юза ": 5110,
      "отра": 5111,
      " него ": 5112,
      " напря": 5113,
      "регистра": 5114,
      "истории ": 5115,
      "меньше": 5116,
      "Белору": 5117,
      "нен": 5118,
      "гуман": 5119,
      "число ": 5120,
      "темпера": 5121,
      "бизнесмен": 5122,
      " вместе с ": 5123,
      "этом году ": 5124,
      " T": 5125,
      "Воро": 5126,
      "Сегодня ": 5127,
      " в Л": 5128,
      "м дел": 5129,
      "кура": 5130,
      "ственные ": 5131,
      "рамках": 5132,
      " проект ": 5133,
      "рост ": 5134,
      " пресс-секретар": 5135,
      " проведения ": 5136,
      "ительных орган": 5137,
      "рекорд": 5138,
      " пит": 5139,
      "ании.\n": 5140,
      "быстро": 5141,
      "вают": 5142,
      " составила ": 5143,
      " помощью ": 5144,
      " превыш": 5145,
      "ьют": 5146,
      "элем": 5147,
      "к и ": 5148,
      "лян": 5149,
      " октября ": 5150,
      "КО": 5151,
      "пре": 5152,
      "станции ": 5153,
      "работы": 5154,
      "коллег": 5155,
      "ющая ": 5156,
      " произошло": 5157,
      "ресурс": 5158,
      "а с": 5159,
      " полов": 5160,
      "удоб": 5161,
      " непри": 5162,
      "участников ": 5163,
      "тором ": 5164,
      "ителями ": 5165,
      "республикан": 5166,
      "стоимость ": 5167,
      "МО": 5168,
      "фрак": 5169,
      "оволь": 5170,
      " проб": 5171,
      "емь ": 5172,
      "быт": 5173,
      "му.\n": 5174,
      " представитель": 5175,
      "150": 5176,
      "газета": 5177,
      "структуры": 5178,
      "инвестицион": 5179,
      "кнов": 5180,
      "докла": 5181,
      "или.\n": 5182,
      "тов, ": 5183,
      "194": 5184,
      "госпит": 5185,
      " со стороны ": 5186,
      ", пере": 5187,
      "омина": 5188,
      "ений в ": 5189,
      "Конеч": 5190,
      " о": 5191,
      "АС": 5192,
      "бри": 5193,
      " полет": 5194,
      "ал, что ": 5195,
      " неодно": 5196,
      "восто": 5197,
      "те.\n": 5198,
      "других": 5199,
      "о том, что": 5200,
      " паци": 5201,
      "обеспе": 5202,
      "договорен": 5203,
      ".com": 5204,
      "Оп": 5205,
      "ози": 5206,
      "поч": 5207,
      "трасс": 5208,
      "обс": 5209,
      "ги.\n": 5210,
      "акцион": 5211,
      "В итог": 5212,
      "главный ": 5213,
      " недвижимо": 5214,
      "\"Ислам": 5215,
      "ой.\n": 5216,
      "фрон": 5217,
      "еров ": 5218,
      " вош": 5219,
      " во втор": 5220,
      "ности в ": 5221,
      "неж": 5222,
      "ющие": 5223,
      "игры": 5224,
      "девоч": 5225,
      "академ": 5226,
      "демонстри": 5227,
      "\" с ": 5228,
      ", все ": 5229,
      "Побед": 5230,
      "дали ": 5231,
      "мисси": 5232,
      "ува": 5233,
      "завед": 5234,
      " \"С": 5235,
      "илищ": 5236,
      "лено ": 5237,
      "звуч": 5238,
      " на себ": 5239,
      "ания, ": 5240,
      "телекан": 5241,
      "ay": 5242,
      "ФР": 5243,
      "мно": 5244,
      "рой": 5245,
      "ными.\n": 5246,
      "микро": 5247,
      "делать ": 5248,
      "ить с": 5249,
      "компания": 5250,
      "Инди": 5251,
      "38": 5252,
      "чест": 5253,
      "мошен": 5254,
      " вып": 5255,
      " дет": 5256,
      "заплани": 5257,
      "никам ": 5258,
      "этим": 5259,
      " создан": 5260,
      "избран": 5261,
      "Порошенко": 5262,
      "к с": 5263,
      "заработ": 5264,
      " никто": 5265,
      " пяти ": 5266,
      "отребл": 5267,
      "ежегод": 5268,
      "мей": 5269,
      "фильм": 5270,
      "окончатель": 5271,
      "жертв": 5272,
      "Эрдо": 5273,
      "\"На": 5274,
      "реак": 5275,
      "кий": 5276,
      "арда ": 5277,
      "мост": 5278,
      "ать, ": 5279,
      "ительный ": 5280,
      "работо": 5281,
      "лежа": 5282,
      "парат": 5283,
      " планиров": 5284,
      "директор": 5285,
      "а по": 5286,
      "еше": 5287,
      "шах": 5288,
      " ну": 5289,
      "толи": 5290,
      "или на ": 5291,
      "ясь": 5292,
      ", а в ": 5293,
      " правоохранительных орган": 5294,
      "ub": 5295,
      "гатив": 5296,
      "ы\n": 5297,
      "ова.\n": 5298,
      "вая ": 5299,
      "родствен": 5300,
      " связан": 5301,
      "uter": 5302,
      "а на": 5303,
      "а\" ": 5304,
      "с.\n": 5305,
      "ское": 5306,
      " депутат": 5307,
      "март": 5308,
      "Всем": 5309,
      "бывший ": 5310,
      " ст. ": 5311,
      "йден": 5312,
      "ожд": 5313,
      "ание.\n": 5314,
      "допуст": 5315,
      ", сред": 5316,
      " возможности ": 5317,
      "рынка ": 5318,
      "имени ": 5319,
      "достаточно ": 5320,
      "Даль": 5321,
      "гой ": 5322,
      "ы для ": 5323,
      "газа": 5324,
      " свое ": 5325,
      "ется в": 5326,
      "лишком ": 5327,
      "аться.\n": 5328,
      "-преж": 5329,
      "учеб": 5330,
      "up": 5331,
      "Сер": 5332,
      "двер": 5333,
      "По словам": 5334,
      "Reuter": 5335,
      "55": 5336,
      "сел": 5337,
      "шесть ": 5338,
      "такой": 5339,
      "разных ": 5340,
      "ческом ": 5341,
      " принять ": 5342,
      " порт": 5343,
      "Более ": 5344,
      "Саудов": 5345,
      "Олимпиад": 5346,
      "мобиль": 5347,
      " поис": 5348,
      "кап": 5349,
      "моно": 5350,
      "такого ": 5351,
      "дают ": 5352,
      "ения на ": 5353,
      ", ни ": 5354,
      "касается ": 5355,
      "До ": 5356,
      "нят": 5357,
      "ой с": 5358,
      "ях.\n": 5359,
      "япон": 5360,
      "имвол": 5361,
      " повед": 5362,
      "катастро": 5363,
      "Коре": 5364,
      "\"Я": 5365,
      "стати": 5366,
      "зад ": 5367,
      " года в ": 5368,
      "роста ": 5369,
      " преступл": 5370,
      "ГИ": 5371,
      "Зам": 5372,
      "мель": 5373,
      "из них": 5374,
      "арбит": 5375,
      "док": 5376,
      "запас": 5377,
      " совета ": 5378,
      " составил ": 5379,
      "ника.\n": 5380,
      "Сообщ": 5381,
      "команды ": 5382,
      " преступления": 5383,
      "стоимость": 5384,
      "ассоциа": 5385,
      "нест": 5386,
      "ками.\n": 5387,
      "едино": 5388,
      "ся.\n": 5389,
      " возможност": 5390,
      "ером ": 5391,
      "лайн": 5392,
      "отдых": 5393,
      "Брюсс": 5394,
      "лод": 5395,
      "иться в ": 5396,
      "ственно ": 5397,
      "борной ": 5398,
      " все-": 5399,
      "отметил": 5400,
      " весь": 5401,
      "400": 5402,
      "жан": 5403,
      "роль": 5404,
      " поруч": 5405,
      "отреб": 5406,
      " препара": 5407,
      "отметил, что": 5408,
      "Турции": 5409,
      "утвержд": 5410,
      "многих ": 5411,
      "ум ": 5412,
      "а -": 5413,
      "ны, ": 5414,
      "автор": 5415,
      " продав": 5416,
      "ельги": 5417,
      " спо": 5418,
      " принят": 5419,
      " приняти": 5420,
      " приняли ": 5421,
      "благодаря ": 5422,
      "обвиняем": 5423,
      "инцидент": 5424,
      "гаранти": 5425,
      "Куз": 5426,
      "Рад": 5427,
      "холод": 5428,
      " пла": 5429,
      " наступ": 5430,
      "овом ": 5431,
      " произвед": 5432,
      "196": 5433,
      "Баш": 5434,
      "Сил": 5435,
      "пп": 5436,
      "аниз": 5437,
      "инстру": 5438,
      " надо": 5439,
      "лет.\n": 5440,
      "государств": 5441,
      "целом": 5442,
      " пресс-службе ": 5443,
      "ia": 5444,
      "ut": 5445,
      "жение": 5446,
      " влия": 5447,
      "ите ": 5448,
      "атлет": 5449,
      "станд": 5450,
      "ется, что": 5451,
      "няти": 5452,
      "рассматрива": 5453,
      "хорошо": 5454,
      "Из ": 5455,
      "а и": 5456,
      "альных": 5457,
      "новремен": 5458,
      "Один ": 5459,
      " назвал ": 5460,
      "бесплат": 5461,
      "молодеж": 5462,
      ")\n": 5463,
      "44": 5464,
      "ВТ": 5465,
      "кут": 5466,
      "ъек": 5467,
      "ю в ": 5468,
      "авших": 5469,
      " простран": 5470,
      "тако": 5471,
      "годы ": 5472,
      "употребл": 5473,
      "которым ": 5474,
      " - говорит ": 5475,
      "ового": 5476,
      "тем, что ": 5477,
      " происходит": 5478,
      "of": 5479,
      "Зем": 5480,
      "е, а ": 5481,
      " представителей ": 5482,
      "бег": 5483,
      "сен": 5484,
      "ле.\n": 5485,
      "уббот": 5486,
      "еще в ": 5487,
      " публика": 5488,
      "DA": 5489,
      "вать": 5490,
      "о с": 5491,
      " пак": 5492,
      "той": 5493,
      " в рамках ": 5494,
      " природ": 5495,
      " вообщ": 5496,
      " нефти ": 5497,
      "береж": 5498,
      " П": 5499,
      ": в ": 5500,
      " пилот": 5501,
      "ственной": 5502,
      "ителей.\n": 5503,
      "месте ": 5504,
      "а, а ": 5505,
      "основан": 5506,
      " первого ": 5507,
      "затем ": 5508,
      "аэропорт": 5509,
      "студент": 5510,
      "ov": 5511,
      " - поясн": 5512,
      "ербай": 5513,
      " подозреваем": 5514,
      "трат": 5515,
      "яет": 5516,
      "овал ": 5517,
      "циони": 5518,
      "ослав": 5519,
      "такое ": 5520,
      "ейц": 5521,
      "tion": 5522,
      " добав": 5523,
      "Йор": 5524,
      "рефор": 5525,
      "коали": 5526,
      "сия ": 5527,
      " предел": 5528,
      "компаний ": 5529,
      "75": 5530,
      "е не ": 5531,
      " вас": 5532,
      "ю и ": 5533,
      "\" -": 5534,
      "участие ": 5535,
      "ной служ": 5536,
      "инвестор": 5537,
      " соцсет": 5538,
      "зим": 5539,
      "цеп": 5540,
      " назад ": 5541,
      "лара": 5542,
      "тах ": 5543,
      "долго": 5544,
      " себя": 5545,
      "фере ": 5546,
      " прилож": 5547,
      " пожар": 5548,
      "ки с": 5549,
      "одер": 5550,
      "ру.\n": 5551,
      "ябре": 5552,
      "ник.\n": 5553,
      "Тогда ": 5554,
      "допингов": 5555,
      " порядка ": 5556,
      ", однако ": 5557,
      "гуманитар": 5558,
      "уступ": 5559,
      "эфи": 5560,
      "ал на ": 5561,
      " причаст": 5562,
      "мечен": 5563,
      " про ": 5564,
      "говорить ": 5565,
      "рассказывает ": 5566,
      " времени ": 5567,
      "федерального ": 5568,
      " июля ": 5569,
      "Мер": 5570,
      "НИ": 5571,
      "житель": 5572,
      "экипа": 5573,
      "ме.\n": 5574,
      "ивать": 5575,
      "лено": 5576,
      "полити": 5577,
      " виде ": 5578,
      "теперь": 5579,
      "оны ": 5580,
      " полага": 5581,
      "индек": 5582,
      "ений, ": 5583,
      "одно ": 5584,
      "области": 5585,
      ", однако": 5586,
      "Аз": 5587,
      "Кри": 5588,
      "Наталь": 5589,
      "урегулиров": 5590,
      "институт": 5591,
      "анием": 5592,
      "ческие": 5593,
      "Москве ": 5594,
      "рынка": 5595,
      "Между ": 5596,
      "Белорусси": 5597,
      "Поль": 5598,
      "м в ": 5599,
      "ыми": 5600,
      "референ": 5601,
      "ите": 5602,
      "камер": 5603,
      "низ": 5604,
      " приостанов": 5605,
      " присоедин": 5606,
      " перевод": 5607,
      " в понедель": 5608,
      " примерно ": 5609,
      "дале": 5610,
      " предполож": 5611,
      "Всемир": 5612,
      "бро": 5613,
      "дать ": 5614,
      "коти": 5615,
      "это не ": 5616,
      "ствуют": 5617,
      "таких": 5618,
      "действия ": 5619,
      "\"РИА Ново": 5620,
      "Госдумы ": 5621,
      "итогам": 5622,
      "у него ": 5623,
      "ения в": 5624,
      "ского кра": 5625,
      "жалоб": 5626,
      "террористической ": 5627,
      "\"РИА Новости": 5628,
      " Источник: ": 5629,
      "Дру": 5630,
      "ирован": 5631,
      "шанс": 5632,
      " сообщил, что ": 5633,
      "об этом ": 5634,
      "Авто": 5635,
      "Брит": 5636,
      "анных ": 5637,
      "какой ": 5638,
      "ы (": 5639,
      "див": 5640,
      "ить, что ": 5641,
      "Поэтому": 5642,
      " провин": 5643,
      "государства ": 5644,
      "брать": 5645,
      " полиции ": 5646,
      "Донец": 5647,
      "остаточ": 5648,
      "одной из ": 5649,
      "Американ": 5650,
      "Констант": 5651,
      "ье ": 5652,
      "а С": 5653,
      "ева ": 5654,
      " прекрат": 5655,
      "станет": 5656,
      ", пос": 5657,
      " наши ": 5658,
      "ился на ": 5659,
      "удач": 5660,
      "течение": 5661,
      "зависимости ": 5662,
      "Бла": 5663,
      "толет": 5664,
      "ные.\n": 5665,
      "ли на ": 5666,
      "изобра": 5667,
      "ы и": 5668,
      " воро": 5669,
      "оправ": 5670,
      "расчет": 5671,
      " прошед": 5672,
      "заместитель ": 5673,
      " тр": 5674,
      "Второ": 5675,
      "Дени": 5676,
      "тах": 5677,
      "ваку": 5678,
      "гранич": 5679,
      " сообще": 5680,
      "Казах": 5681,
      "уголовного ": 5682,
      "одобр": 5683,
      "кост": 5684,
      "илл": 5685,
      "ка\" ": 5686,
      "зада": 5687,
      "равлен": 5688,
      "или с": 5689,
      " правил": 5690,
      "оке": 5691,
      "коррек": 5692,
      "эксплу": 5693,
      " сервис": 5694,
      "Валери": 5695,
      "ber": 5696,
      "глоб": 5697,
      "я - ": 5698,
      "госс": 5699,
      "обстре": 5700,
      "ремьер": 5701,
      "компьют": 5702,
      "Бара": 5703,
      "Реш": 5704,
      "бе ": 5705,
      "уне": 5706,
      "стен": 5707,
      "рид": 5708,
      "еремони": 5709,
      "для того": 5710,
      "ок.\n": 5711,
      "этих": 5712,
      "университет": 5713,
      " возглавля": 5714,
      "ербайдж": 5715,
      "ами.\n": 5716,
      "озна": 5717,
      "чь ": 5718,
      "формат": 5719,
      "строительство ": 5720,
      "le ": 5721,
      "o ": 5722,
      "Бал": 5723,
      "СА": 5724,
      "гу ": 5725,
      " дей": 5726,
      "ряс": 5727,
      "ческой с": 5728,
      " млн руб. ": 5729,
      "кабин": 5730,
      "Ам": 5731,
      "Чел": 5732,
      "гре": 5733,
      "ока": 5734,
      "овать": 5735,
      " покин": 5736,
      "елег": 5737,
      "ция.\n": 5738,
      "езда": 5739,
      "фиц": 5740,
      "компании.\n": 5741,
      " получил": 5742,
      " минут": 5743,
      "ализирован": 5744,
      "Дав": 5745,
      "ч. ": 5746,
      "юр": 5747,
      " вече": 5748,
      "горо": 5749,
      "Елена ": 5750,
      "евой ": 5751,
      "рядом": 5752,
      " принял ": 5753,
      " что": 5754,
      "Кам": 5755,
      "Нем": 5756,
      "Пен": 5757,
      "ге ": 5758,
      "ями.\n": 5759,
      ", у ": 5760,
      " поддержива": 5761,
      "жеб": 5762,
      "мера": 5763,
      " персон": 5764,
      " свидетель": 5765,
      " подчеркнул ": 5766,
      " продл": 5767,
      "избирател": 5768,
      "точки зр": 5769,
      "Лит": 5770,
      "горя": 5771,
      "уры ": 5772,
      "компенса": 5773,
      " начин": 5774,
      "детей ": 5775,
      "уточня": 5776,
      "Виктор ": 5777,
      "Ку": 5778,
      "ет, что": 5779,
      "ении в": 5780,
      "опы": 5781,
      "двор": 5782,
      "чему ": 5783,
      "образом ": 5784,
      "какие-": 5785,
      "-м ": 5786,
      "49": 5787,
      "стил": 5788,
      "инград": 5789,
      "илет": 5790,
      "зафикси": 5791,
      "ительной ": 5792,
      "ный представитель ": 5793,
      "метал": 5794,
      "демократи": 5795,
      "Госдумы": 5796,
      "Мурманск": 5797,
      "трени": 5798,
      " - говорится в сообщ": 5799,
      "Минобороны ": 5800,
      "ДП": 5801,
      "Раб": 5802,
      "юн": 5803,
      " внов": 5804,
      "ет на ": 5805,
      " наших ": 5806,
      "нера": 5807,
      " повтор": 5808,
      "Хиллар": 5809,
      "юза": 5810,
      "о и ": 5811,
      "зарегистри": 5812,
      " не вы": 5813,
      " подс": 5814,
      "ционного ": 5815,
      "000": 5816,
      "евасто": 5817,
      "Свет": 5818,
      "аф": 5819,
      "ида": 5820,
      "ект": 5821,
      "ных в ": 5822,
      "друз": 5823,
      "центр": 5824,
      "карьер": 5825,
      "хотел": 5826,
      " нового": 5827,
      "экологи": 5828,
      "Фото: ": 5829,
      "осужден": 5830,
      "\"В ": 5831,
      "дл": 5832,
      "руют ": 5833,
      " ним ": 5834,
      "четырех ": 5835,
      ", со": 5836,
      "Китай": 5837,
      " винов": 5838,
      "тором": 5839,
      "инспек": 5840,
      "ном с": 5841,
      "законч": 5842,
      "иро": 5843,
      "эваку": 5844,
      "ов\n": 5845,
      "ции по ": 5846,
      "ми и ": 5847,
      "раскры": 5848,
      "ются.\n": 5849,
      "ографи": 5850,
      "комитета": 5851,
      " подозр": 5852,
      "Сол": 5853,
      "пев": 5854,
      "ячес": 5855,
      " в пятниц": 5856,
      "менее ": 5857,
      "ционное ": 5858,
      "здравоохран": 5859,
      "двум": 5860,
      "хими": 5861,
      "августа": 5862,
      "ячеслав": 5863,
      "Дан": 5864,
      "Пар": 5865,
      "Толь": 5866,
      "у с ": 5867,
      "чт": 5868,
      "енно": 5869,
      "экономики ": 5870,
      " мая ": 5871,
      " спецслуж": 5872,
      "мяг": 5873,
      "ческим": 5874,
      "полне ": 5875,
      "ила, что": 5876,
      " новост": 5877,
      " первой ": 5878,
      " показател": 5879,
      ", передает РИА Новости.\n": 5880,
      "борьбе": 5881,
      " сборной ": 5882,
      "ервис": 5883,
      "декабре ": 5884,
      "di": 5885,
      "Санкт-Петербург": 5886,
      "г.\n": 5887,
      "нат": 5888,
      "итальян": 5889,
      "мигра": 5890,
      "часов": 5891,
      " свой": 5892,
      "игн": 5893,
      "рейс": 5894,
      "баррель": 5895,
      "воев": 5896,
      "вад": 5897,
      " предъяв": 5898,
      "акан": 5899,
      "ного суд": 5900,
      ", которые по": 5901,
      "заявление ": 5902,
      " собой ": 5903,
      "факт": 5904,
      " встречи": 5905,
      "Новос": 5906,
      "Многи": 5907,
      "а из ": 5908,
      "цией.\n": 5909,
      "одну ": 5910,
      "заявление": 5911,
      ", согласно ": 5912,
      "Казахстан": 5913,
      "и-": 5914,
      "ича": 5915,
      "ке в ": 5916,
      "ала.\n": 5917,
      "ровали ": 5918,
      "удал": 5919,
      "льз": 5920,
      "ениях ": 5921,
      "заявила ": 5922,
      "ывают ": 5923,
      "распредел": 5924,
      "Дмитрия ": 5925,
      "ущерб": 5926,
      "одного из ": 5927,
      " други": 5928,
      "Теперь ": 5929,
      "ail": 5930,
      "мет ": 5931,
      " по вопрос": 5932,
      " по повод": 5933,
      "отрас": 5934,
      "диало": 5935,
      "стрель": 5936,
      " вернуть": 5937,
      "Послед": 5938,
      "освобожд": 5939,
      "wit": 5940,
      "овали ": 5941,
      "обход": 5942,
      "адрес": 5943,
      "района ": 5944,
      "e.\n": 5945,
      "Дол": 5946,
      "евич": 5947,
      " прекрас": 5948,
      " спуст": 5949,
      " провести ": 5950,
      " ситуации": 5951,
      "Спорт": 5952,
      " приобрет": 5953,
      "механиз": 5954,
      " возбуждено ": 5955,
      "Мол": 5956,
      "Рез": 5957,
      " в п": 5958,
      "но на ": 5959,
      "то, что": 5960,
      "едливо": 5961,
      "часто": 5962,
      " день": 5963,
      " всю ": 5964,
      "ного по": 5965,
      "Анка": 5966,
      "жизнь": 5967,
      "Перво": 5968,
      " список ": 5969,
      "доказатель": 5970,
      "до сих пор": 5971,
      "48": 5972,
      "ul": 5973,
      "П ": 5974,
      "у - ": 5975,
      "купа": 5976,
      "ский.\n": 5977,
      "никами": 5978,
      "бывшего ": 5979,
      " произошед": 5980,
      " внимание": 5981,
      " военнослужащи": 5982,
      "Нью-Йор": 5983,
      "ениях": 5984,
      "работают": 5985,
      "никам": 5986,
      "Павел ": 5987,
      "Хиллари К": 5988,
      "39": 5989,
      "шаг": 5990,
      "аны": 5991,
      " попрос": 5992,
      "гораз": 5993,
      " процен": 5994,
      "ласти ": 5995,
      " приз": 5996,
      " с Росси": 5997,
      "дик": 5998,
      "леб": 5999,
      "и сред": 6000,
      "информации": 6001,
      "Жан": 6002,
      "ауди": 6003,
      "т.": 6004,
      "шую": 6005,
      "рел": 6006,
      "зарубеж": 6007,
      "ливы": 6008,
      " начали ": 6009,
      " взят": 6010,
      "фонда ": 6011,
      "управления": 6012,
      " миллиона ": 6013,
      ", передает ТАСС.\n": 6014,
      "отечествен": 6015,
      "46": 6016,
      "47": 6017,
      "Единой России": 6018,
      "Сах": 6019,
      "ким": 6020,
      "авший": 6021,
      "лять ": 6022,
      "В результат": 6023,
      "жем ": 6024,
      "данных ": 6025,
      " на само": 6026,
      "активист": 6027,
      "допинг": 6028,
      "Дем": 6029,
      " сот": 6030,
      "енного ": 6031,
      "заинтересов": 6032,
      ", а по": 6033,
      " воздух": 6034,
      " M": 6035,
      "ий ": 6036,
      "ород": 6037,
      "и от": 6038,
      "обслуж": 6039,
      " накан": 6040,
      "менедж": 6041,
      " присут": 6042,
      "езж": 6043,
      " начала": 6044,
      "банкро": 6045,
      "ул. ": 6046,
      "Изра": 6047,
      "однако ": 6048,
      "интернет-": 6049,
      "Российская газета": 6050,
      "\"Э": 6051,
      "ке с": 6052,
      "выше ": 6053,
      "центра ": 6054,
      " встреча": 6055,
      "ресси": 6056,
      "нефть": 6057,
      "Дональд ": 6058,
      " неоднократ": 6059,
      "\" с": 6060,
      "Тать": 6061,
      "Чеч": 6062,
      "чной ": 6063,
      "люда": 6064,
      "ном.\n": 6065,
      "США и ": 6066,
      "руководителя ": 6067,
      "рейтин": 6068,
      " прямо": 6069,
      "42": 6070,
      "Мал": 6071,
      "бас": 6072,
      "виж": 6073,
      " в России": 6074,
      " создав": 6075,
      "движения ": 6076,
      "-го": 6077,
      "т, ": 6078,
      "ыл": 6079,
      "эм": 6080,
      " век": 6081,
      " вообще": 6082,
      "участников": 6083,
      "затем": 6084,
      "регуля": 6085,
      "этаж": 6086,
      " июля": 6087,
      ", возмож": 6088,
      "Буд": 6089,
      "ежи": 6090,
      " ваш": 6091,
      "резв": 6092,
      "го-": 6093,
      "еда": 6094,
      "воро": 6095,
      "гад": 6096,
      "Кады": 6097,
      "гря": 6098,
      "ске": 6099,
      "я не": 6100,
      " сель": 6101,
      "но вы": 6102,
      ", в котором ": 6103,
      "однако": 6104,
      " после того, как ": 6105,
      " спокой": 6106,
      "Асс": 6107,
      "БД": 6108,
      "Ман": 6109,
      "ье": 6110,
      "эй": 6111,
      "обуч": 6112,
      "защи": 6113,
      "циалист": 6114,
      "ностей": 6115,
      " подроб": 6116,
      "туаль": 6117,
      "ясь ": 6118,
      "корреспондент": 6119,
      " новых": 6120,
      " нормаль": 6121,
      "религи": 6122,
      "Ранее сообщалось": 6123,
      "инга": 6124,
      " назыв": 6125,
      " прибы": 6126,
      " дел": 6127,
      "грузов": 6128,
      " подчерки": 6129,
      "текст": 6130,
      "65": 6131,
      "фар": 6132,
      " пев": 6133,
      "кодек": 6134,
      "но не": 6135,
      "отстран": 6136,
      "его мнению": 6137,
      "ожидан": 6138,
      "Лавров": 6139,
      "умышлен": 6140,
      "ые с": 6141,
      "енной ": 6142,
      "кот": 6143,
      "корей": 6144,
      "але": 6145,
      " предмет": 6146,
      ", ни": 6147,
      " вопросы ": 6148,
      "образования ": 6149,
      "за счет ": 6150,
      ", например, ": 6151,
      " спектак": 6152,
      " сожалению": 6153,
      "Гру": 6154,
      "Есть ": 6155,
      "гов ": 6156,
      "енный ": 6157,
      "заключен": 6158,
      "сист": 6159,
      "мус": 6160,
      "работу ": 6161,
      "Власти ": 6162,
      " правительство": 6163,
      "корее всего": 6164,
      "тут ": 6165,
      "овс": 6166,
      ", он ": 6167,
      "дожд": 6168,
      ", по словам ": 6169,
      " последне": 6170,
      "фоне ": 6171,
      "Украины.\n": 6172,
      " принято": 6173,
      " председатель ": 6174,
      " псих": 6175,
      "Здес": 6176,
      "устанав": 6177,
      "фаль": 6178,
      " патри": 6179,
      "енно ": 6180,
      "голь": 6181,
      "замо": 6182,
      "ание с": 6183,
      " подряд": 6184,
      " представлен": 6185,
      "уне ": 6186,
      "Примор": 6187,
      "tion ": 6188,
      "Как сообщает ": 6189,
      "условиях ": 6190,
      "запланирован": 6191,
      "-про": 6192,
      "Дом": 6193,
      "ное в": 6194,
      " в Европ": 6195,
      " пройдет": 6196,
      "ании, ": 6197,
      "лять": 6198,
      " прес": 6199,
      " преимуще": 6200,
      "агентства ": 6201,
      "обыти": 6202,
      "ское государство": 6203,
      "тюрь": 6204,
      "Витали": 6205,
      "Сотруд": 6206,
      "ьера": 6207,
      "ерьез": 6208,
      "кому ": 6209,
      "бой ": 6210,
      " году, ": 6211,
      " программы": 6212,
      " вариан": 6213,
      ", включая ": 6214,
      " F": 6215,
      "Лиг": 6216,
      "гресс": 6217,
      "оти": 6218,
      "отриц": 6219,
      "изъ": 6220,
      "ы \"": 6221,
      "ряда ": 6222,
      "де-": 6223,
      "метро": 6224,
      "тренер": 6225,
      "бомбар": 6226,
      "Екатерин": 6227,
      "Вашингто": 6228,
      "witter": 6229,
      "Ch": 6230,
      "Нор": 6231,
      "Сбер": 6232,
      " покол": 6233,
      "бокс": 6234,
      "США, ": 6235,
      "дороги": 6236,
      " сделать": 6237,
      " произошел": 6238,
      "круг ": 6239,
      "у\n": 6240,
      "эту": 6241,
      " вклад": 6242,
      "но не ": 6243,
      "гора": 6244,
      "этой с": 6245,
      "здрав": 6246,
      "борьбы": 6247,
      "Германии ": 6248,
      "Ло": 6249,
      "по ": 6250,
      "церемони": 6251,
      "инжен": 6252,
      "верг": 6253,
      "ческий": 6254,
      "форму": 6255,
      "которое ": 6256,
      "малень": 6257,
      "регионального ": 6258,
      "Иван": 6259,
      "большинство ": 6260,
      "Вячеслав": 6261,
      "и и": 6262,
      "ны и ": 6263,
      "ности с": 6264,
      "россия": 6265,
      "один из": 6266,
      "уровня": 6267,
      " процентов ": 6268,
      "команду": 6269,
      "виду": 6270,
      " считает, что ": 6271,
      "(в ": 6272,
      "ь и ": 6273,
      "разно": 6274,
      "мастер": 6275,
      " все с": 6276,
      "Наш": 6277,
      " - сказал": 6278,
      "класси": 6279,
      "отношения ": 6280,
      "ствовать ": 6281,
      "любой ": 6282,
      "Брюссел": 6283,
      "Twitter": 6284,
      "уме": 6285,
      "обли": 6286,
      "делать": 6287,
      "туру": 6288,
      "Помимо ": 6289,
      "Дмитрий Пес": 6290,
      "катастроф": 6291,
      "хож": 6292,
      "ен.\n": 6293,
      "коор": 6294,
      "застав": 6295,
      "осп": 6296,
      " привы": 6297,
      "звезд": 6298,
      "195": 6299,
      "ится в ": 6300,
      " проекта": 6301,
      "пущен": 6302,
      "узы": 6303,
      "фильм ": 6304,
      "феврале ": 6305,
      "Крым": 6306,
      "Россия: Lenta.ru\n": 6307,
      "ычай": 6308,
      "нодорож": 6309,
      " нау": 6310,
      "мира ": 6311,
      "ские с": 6312,
      "В то же": 6313,
      "картин": 6314,
      "Петр ": 6315,
      "револю": 6316,
      " тыс. руб": 6317,
      "бесед": 6318,
      "использовать ": 6319,
      " пресс-служба ": 6320,
      "об этом": 6321,
      "строительства ": 6322,
      "деньги ": 6323,
      "количество": 6324,
      " национальной ": 6325,
      "ЦСКА": 6326,
      " А": 6327,
      "ы: ": 6328,
      "яют": 6329,
      " включ": 6330,
      "енит": 6331,
      "каф": 6332,
      "отвеча": 6333,
      "кие": 6334,
      " вылет": 6335,
      "ков и ": 6336,
      "тепл": 6337,
      "стране ": 6338,
      "Алексея ": 6339,
      "телев": 6340,
      "открыты": 6341,
      ", пишет ": 6342,
      "Трампа": 6343,
      "статисти": 6344,
      "нюю ": 6345,
      "Вот ": 6346,
      "алов": 6347,
      "ные, ": 6348,
      "ил.\n": 6349,
      "ния": 6350,
      " негатив": 6351,
      " вынес": 6352,
      "ком.\n": 6353,
      "По данным": 6354,
      "числ": 6355,
      "траг": 6356,
      "легко": 6357,
      "-летнего ": 6358,
      "культуры": 6359,
      "Андрея ": 6360,
      "города.\n": 6361,
      "Иванов": 6362,
      " в своем ": 6363,
      " по делу ": 6364,
      "е по ": 6365,
      "хит": 6366,
      "чно ": 6367,
      " пат": 6368,
      " сл": 6369,
      "овремен": 6370,
      "атар": 6371,
      "на, ": 6372,
      "дизай": 6373,
      "граф": 6374,
      "чиво": 6375,
      "крым": 6376,
      "букв": 6377,
      " самостоятель": 6378,
      "Джон ": 6379,
      "посред": 6380,
      "коллектив": 6381,
      "Офи": 6382,
      "Фон": 6383,
      " скры": 6384,
      "акци": 6385,
      "рупп": 6386,
      "область": 6387,
      "унд": 6388,
      "уже в ": 6389,
      "земель": 6390,
      "oog": 6391,
      "фицирован": 6392,
      "Ольга ": 6393,
      ", выступ": 6394,
      "РИ": 6395,
      "дон": 6396,
      "куда ": 6397,
      " настро": 6398,
      "граду": 6399,
      "будущ": 6400,
      "месте с ": 6401,
      "руководство ": 6402,
      " партий": 6403,
      " высот": 6404,
      "меньше ": 6405,
      "литера": 6406,
      "уменьш": 6407,
      "ет, ": 6408,
      " привед": 6409,
      "кому": 6410,
      "ительного ": 6411,
      " правительства": 6412,
      " произошло ": 6413,
      " - сказал он.\n": 6414,
      "человека.\n": 6415,
      "Савченко": 6416,
      "хокке": 6417,
      "ограничен": 6418,
      "Российская газета\n": 6419,
      "КС": 6420,
      "Поп": 6421,
      "ки с ": 6422,
      "ровал": 6423,
      "акций ": 6424,
      "терн": 6425,
      "минув": 6426,
      " полностью": 6427,
      "России \"": 6428,
      "имеют": 6429,
      " семей": 6430,
      "мужчи": 6431,
      "организован": 6432,
      "речь идет ": 6433,
      " трл": 6434,
      "ADA": 6435,
      " случ": 6436,
      "толо": 6437,
      "емся": 6438,
      " сопров": 6439,
      "ят в ": 6440,
      "амолет": 6441,
      "тех ": 6442,
      "постав": 6443,
      "яться": 6444,
      "Ниж": 6445,
      " первые ": 6446,
      "ght ": 6447,
      " августа": 6448,
      "Ад": 6449,
      "устой": 6450,
      "ям.\n": 6451,
      "раза": 6452,
      "задолжен": 6453,
      "роволь": 6454,
      "быст": 6455,
      "общей": 6456,
      "страдав": 6457,
      "нова ": 6458,
      "ателя ": 6459,
      " - сказ": 6460,
      "раймер": 6461,
      " поддержку ": 6462,
      "СКР": 6463,
      " мая": 6464,
      "импор": 6465,
      " соответствии с ": 6466,
      "элемент": 6467,
      "КНД": 6468,
      "круш": 6469,
      "нь": 6470,
      " пообещ": 6471,
      "емых ": 6472,
      " предпоч": 6473,
      "любы": 6474,
      ", которые с": 6475,
      "ющая": 6476,
      "Путина": 6477,
      "ющее ": 6478,
      "кримин": 6479,
      "зависим": 6480,
      " со ссылкой на": 6481,
      "овед": 6482,
      "ансов": 6483,
      " поз": 6484,
      "онов": 6485,
      "идер": 6486,
      "е вз": 6487,
      "активно ": 6488,
      "Отмет": 6489,
      " сегодняш": 6490,
      "рынок ": 6491,
      "Bl": 6492,
      "Коро": 6493,
      "шед": 6494,
      " в начале ": 6495,
      " пош": 6496,
      "ание, ": 6497,
      "мах": 6498,
      " по итогам ": 6499,
      "четом ": 6500,
      "ение, ": 6501,
      "ной в ": 6502,
      "объем ": 6503,
      "Соедин": 6504,
      " при этом ": 6505,
      "ухуд": 6506,
      "комиссии ": 6507,
      " пациент": 6508,
      "Дональд Трамп": 6509,
      "%).\n": 6510,
      "/ ": 6511,
      "уник": 6512,
      "рой ": 6513,
      " поезд": 6514,
      "я Россия": 6515,
      "зации": 6516,
      "ева.\n": 6517,
      "ов и": 6518,
      "ным данным": 6519,
      "яна ": 6520,
      " принес": 6521,
      "яться ": 6522,
      " тысячи ": 6523,
      " следует ": 6524,
      "борьбе с ": 6525,
      "резвычай": 6526,
      "Рас": 6527,
      "ЭС": 6528,
      "бу ": 6529,
      " найден": 6530,
      "захват": 6531,
      "рук": 6532,
      "ровали": 6533,
      " не зна": 6534,
      "конститу": 6535,
      " правило": 6536,
      " соблюд": 6537,
      "мотреть": 6538,
      "ликвид": 6539,
      "Бывший ": 6540,
      "Ази": 6541,
      "жители ": 6542,
      "о не": 6543,
      "алек": 6544,
      "нив": 6545,
      "осков": 6546,
      "ку на ": 6547,
      ", соб": 6548,
      " следовател": 6549,
      "Когда": 6550,
      "Руковод": 6551,
      "Надежд": 6552,
      "действительно ": 6553,
      "лидера": 6554,
      "эксплуата": 6555,
      "Новосибир": 6556,
      " о ": 6557,
      "а\n": 6558,
      " помещ": 6559,
      " наслед": 6560,
      " предвы": 6561,
      "страш": 6562,
      "богат": 6563,
      " километ": 6564,
      "Леони": 6565,
      "еверо-": 6566,
      "Сем": 6567,
      "зелен": 6568,
      "эро": 6569,
      "ровал ": 6570,
      "бы.\n": 6571,
      "дешев": 6572,
      "метров": 6573,
      " начали": 6574,
      " года, ": 6575,
      " встрече": 6576,
      ", по данным ": 6577,
      "тому, что ": 6578,
      " наличи": 6579,
      "cap": 6580,
      "Нед": 6581,
      "л-": 6582,
      "тут": 6583,
      "ю на ": 6584,
      " свет": 6585,
      "инте": 6586,
      " сообщает ": 6587,
      "рассматри": 6588,
      "экспорт": 6589,
      "лагер": 6590,
      "дипломати": 6591,
      "Браз": 6592,
      "хем": 6593,
      "шко": 6594,
      " понима": 6595,
      " нагруз": 6596,
      "онлайн": 6597,
      "ение на ": 6598,
      "ных в": 6599,
      "Пока ": 6600,
      "развива": 6601,
      "района": 6602,
      " посещ": 6603,
      " сотрудников": 6604,
      " весь ": 6605,
      "конкурент": 6606,
      "экспертиз": 6607,
      " млрд.\n": 6608,
      "англий": 6609,
      "целью ": 6610,
      " наркоти": 6611,
      "гер": 6612,
      "ествен": 6613,
      "ню ": 6614,
      "ка на ": 6615,
      "ной, ": 6616,
      "работать ": 6617,
      "страхов": 6618,
      "андат": 6619,
      "главного ": 6620,
      "ина и ": 6621,
      "исправ": 6622,
      "er ": 6623,
      "ее слов": 6624,
      "динами": 6625,
      "ардов ": 6626,
      " высказыв": 6627,
      "обслужив": 6628,
      "клу": 6629,
      "лл": 6630,
      " не может": 6631,
      "опис": 6632,
      "адре": 6633,
      "ившего": 6634,
      "ты, ": 6635,
      "до конца ": 6636,
      "рассказала ": 6637,
      "корот": 6638,
      " председателя ": 6639,
      "- в": 6640,
      "клини": 6641,
      " сам ": 6642,
      "ов с ": 6643,
      "ы из ": 6644,
      "ил он.\n": 6645,
      "ование ": 6646,
      "ные в ": 6647,
      "ябин": 6648,
      "ности и ": 6649,
      "карт": 6650,
      "участники ": 6651,
      "индивиду": 6652,
      "экипаж": 6653,
      "\"Известия": 6654,
      "Дэ": 6655,
      "разговор": 6656,
      "гибли": 6657,
      "ятся в ": 6658,
      ", пока": 6659,
      ", пока ": 6660,
      "информация ": 6661,
      "седатель ": 6662,
      "Об этом сообщает ": 6663,
      "oc": 6664,
      "Депутат": 6665,
      "еф": 6666,
      "ый с": 6667,
      "ения свобод": 6668,
      "будем ": 6669,
      "убед": 6670,
      "верх": 6671,
      "или и": 6672,
      "ный.\n": 6673,
      "его в ": 6674,
      "колес": 6675,
      "компаний": 6676,
      " находится в ": 6677,
      "Впрочем, ": 6678,
      "\"Исламское государство": 6679,
      "Goog": 6680,
      "Нав": 6681,
      "сказ": 6682,
      "ы не ": 6683,
      " поним": 6684,
      "осуд": 6685,
      "ем в ": 6686,
      " спа": 6687,
      "делега": 6688,
      " своими ": 6689,
      ", в результате ": 6690,
      "ечь ": 6691,
      "мальчи": 6692,
      "оверш": 6693,
      " приобре": 6694,
      " л": 6695,
      "\" сообщ": 6696,
      "(с": 6697,
      "Ро": 6698,
      "ига": 6699,
      "ное, ": 6700,
      "гом": 6701,
      "тами": 6702,
      "ев, ": 6703,
      "россов": 6704,
      " свои": 6705,
      "овым": 6706,
      "ческими ": 6707,
      " в суббот": 6708,
      "месяцев": 6709,
      "контроли": 6710,
      " населения ": 6711,
      ", так как ": 6712,
      "Image cap": 6713,
      " августа ": 6714,
      "%),": 6715,
      "Оте": 6716,
      "Штат": 6717,
      "эмо": 6718,
      " сразу": 6719,
      "ств.\n": 6720,
      "из \"": 6721,
      "образователь": 6722,
      "Союз": 6723,
      "концеп": 6724,
      " сказать": 6725,
      "только в ": 6726,
      " втором ": 6727,
      "Газета ": 6728,
      "освобод": 6729,
      " помощи": 6730,
      "иру": 6731,
      "ы,": 6732,
      " вероят": 6733,
      " полез": 6734,
      "сторож": 6735,
      "жизнь ": 6736,
      "Краснодар": 6737,
      "Дал": 6738,
      "мири": 6739,
      "дост": 6740,
      "дой ": 6741,
      "ма, ": 6742,
      "ство в ": 6743,
      " воспит": 6744,
      "Ник": 6745,
      "боевых ": 6746,
      "республики ": 6747,
      "cop": 6748,
      " прошлого года": 6749,
      "департамента ": 6750,
      "академи": 6751,
      "Отметим": 6752,
      "-м": 6753,
      "е\" ": 6754,
      "збе": 6755,
      " по-преж": 6756,
      "скор": 6757,
      "это не": 6758,
      "говари": 6759,
      "шее ": 6760,
      "ный по": 6761,
      " должен ": 6762,
      "оппозицион": 6763,
      ", потому что": 6764,
      "железнодорож": 6765,
      "li": 6766,
      "Ла": 6767,
      "тере": 6768,
      "а за": 6769,
      "гом ": 6770,
      "ках.\n": 6771,
      "разруш": 6772,
      "куш": 6773,
      "ют.\n": 6774,
      "ов из ": 6775,
      " спик": 6776,
      "запуст": 6777,
      "матив": 6778,
      "орож": 6779,
      "осталь": 6780,
      "музыкаль": 6781,
      "ипот": 6782,
      " нанес": 6783,
      "-на": 6784,
      "Лат": 6785,
      "оре": 6786,
      "таки ": 6787,
      "акции ": 6788,
      "число": 6789,
      "мира.\n": 6790,
      "Генераль": 6791,
      "одним из ": 6792,
      " предусмотрен": 6793,
      " взаимодействи": 6794,
      " по сравнению с ": 6795,
      "Накан": 6796,
      "трак": 6797,
      "чных ": 6798,
      "чные ": 6799,
      "стим": 6800,
      " скоро": 6801,
      "е и": 6802,
      "ций, ": 6803,
      " недо": 6804,
      "карти": 6805,
      "столкнов": 6806,
      "ближайшие ": 6807,
      "различных ": 6808,
      "ощущ": 6809,
      "Вчера": 6810,
      "Ост": 6811,
      "чуть ": 6812,
      "год ": 6813,
      "ереб": 6814,
      "дистан": 6815,
      "ке и ": 6816,
      "факту": 6817,
      "операции": 6818,
      "группа ": 6819,
      "ью.\n": 6820,
      "занимал": 6821,
      "квартир": 6822,
      "ответственность ": 6823,
      "особенно ": 6824,
      "столько ": 6825,
      "рабатыва": 6826,
      "Максим ": 6827,
      "Азербайдж": 6828,
      "Зав": 6829,
      "пад": 6830,
      "сад": 6831,
      "номо": 6832,
      "ерни": 6833,
      "ни.\n": 6834,
      "ки в": 6835,
      "страж": 6836,
      ", нуж": 6837,
      "сом ": 6838,
      "оборон": 6839,
      "космос": 6840,
      "январе ": 6841,
      "музыкан": 6842,
      "Кубка ": 6843,
      "условия ": 6844,
      "рекомендов": 6845,
      "алкоголь": 6846,
      "трениров": 6847,
      "В свою очеред": 6848,
      "Сво": 6849,
      ", которая": 6850,
      " пор ": 6851,
      "екси": 6852,
      "же.\n": 6853,
      "том, что": 6854,
      " в сфере ": 6855,
      " совещ": 6856,
      "жела": 6857,
      "уровня ": 6858,
      " пресс-конферен": 6859,
      "заседании ": 6860,
      "коммун": 6861,
      "дипломат": 6862,
      "арбитраж": 6863,
      "Официаль": 6864,
      "WADA": 6865,
      "янов": 6866,
      "ови": 6867,
      ", если": 6868,
      "одновремен": 6869,
      "ла на ": 6870,
      "меры": 6871,
      "резерв": 6872,
      "ила в ": 6873,
      " военной ": 6874,
      "огня": 6875,
      "артист": 6876,
      "условиях": 6877,
      "Республики ": 6878,
      "хорошо ": 6879,
      "Фили": 6880,
      "ешестви": 6881,
      "яют ": 6882,
      " нелег": 6883,
      "о \"": 6884,
      "горе": 6885,
      " пресс": 6886,
      "В частности, ": 6887,
      "большая ": 6888,
      " последний ": 6889,
      " посад": 6890,
      "ами и ": 6891,
      " счита": 6892,
      "целом ": 6893,
      "Поли": 6894,
      " на пост": 6895,
      "контракт": 6896,
      "коммуника": 6897,
      " претензи": 6898,
      "ВТБ": 6899,
      " был ": 6900,
      "-в": 6901,
      "Несмотря на ": 6902,
      "Стра": 6903,
      " вред": 6904,
      "ов по ": 6905,
      " прото": 6906,
      " парков": 6907,
      "ится.\n": 6908,
      "ющую ": 6909,
      "развития": 6910,
      "Арм": 6911,
      "бюджета ": 6912,
      "элект": 6913,
      "Первый ": 6914,
      "Air": 6915,
      "em": 6916,
      "дней": 6917,
      " слу": 6918,
      " сами": 6919,
      " попа": 6920,
      "орги": 6921,
      "вают ": 6922,
      "трети": 6923,
      " получила ": 6924,
      "ания в ": 6925,
      " в связи с": 6926,
      "обсуж": 6927,
      "ГИБД": 6928,
      ", во": 6929,
      "Ph": 6930,
      "Ге": 6931,
      "НП": 6932,
      "а с ": 6933,
      "сель": 6934,
      " сконч": 6935,
      "енко ": 6936,
      "ют, что": 6937,
      "тов в ": 6938,
      "болель": 6939,
      " собой": 6940,
      "лишения свобод": 6941,
      "оказыва": 6942,
      " написал ": 6943,
      "Га": 6944,
      "Юли": 6945,
      "е: ": 6946,
      "фере": 6947,
      "яд": 6948,
      " пу": 6949,
      "сто ": 6950,
      " су": 6951,
      " сразу ": 6952,
      "ова, ": 6953,
      "ры.\n": 6954,
      "чера ": 6955,
      "знамен": 6956,
      "матча": 6957,
      "глашен": 6958,
      "готовы ": 6959,
      "развитие ": 6960,
      "пуск": 6961,
      " невозмож": 6962,
      "сколько ": 6963,
      " - это ": 6964,
      "могла ": 6965,
      "озн": 6966,
      " км": 6967,
      "крупных ": 6968,
      "множе": 6969,
      " Д": 6970,
      "gr": 6971,
      "Ры": 6972,
      "ладель": 6973,
      " самого ": 6974,
      "рослав": 6975,
      "Анатоли": 6976,
      "бомбардиров": 6977,
      "\"Х": 6978,
      "ЕК": 6979,
      "КХ": 6980,
      "блюд": 6981,
      "и со": 6982,
      "ыгра": 6983,
      "рах ": 6984,
      " некоторые ": 6985,
      "опрошен": 6986,
      " свое": 6987,
      " возника": 6988,
      "Объ": 6989,
      "деть": 6990,
      "иться с ": 6991,
      "бюджета": 6992,
      "жалу": 6993,
      "Коммер": 6994,
      " связи с ": 6995,
      "добычи": 6996,
      "квалифика": 6997,
      " процеду": 6998,
      "Мен": 6999,
      "кин ": 7000,
      " но ": 7001,
      "В конце ": 7002,
      " спут": 7003,
      " ниже ": 7004,
      "экст": 7005,
      "результаты ": 7006,
      " военных ": 7007,
      "автомати": 7008,
      " нефть ": 7009,
      " привати": 7010,
      " спорта ": 7011,
      "антидопингов": 7012,
      ", предус": 7013,
      "остается ": 7014,
      "начала ": 7015,
      "жизни.\n": 7016,
      "курор": 7017,
      "КР": 7018,
      "атак": 7019,
      "избра": 7020,
      " выруч": 7021,
      "кович": 7022,
      "дий ": 7023,
      " полос": 7024,
      ", а не ": 7025,
      "электри": 7026,
      "Крыма ": 7027,
      " подтвержда": 7028,
      " млн. ": 7029,
      "Мир: Lenta.ru\n": 7030,
      "Бразили": 7031,
      ".ру": 7032,
      "АР": 7033,
      "я: ": 7034,
      " в прошлом год": 7035,
      "ра, ": 7036,
      " приор": 7037,
      ", что \"": 7038,
      " предстоя": 7039,
      "слав": 7040,
      "поко": 7041,
      "большой": 7042,
      " самым ": 7043,
      "кин.\n": 7044,
      " премьер-министр ": 7045,
      "иностранных дел ": 7046,
      "оминает ": 7047,
      "ечерний ": 7048,
      "Евросоюз": 7049,
      "Работ": 7050,
      " был": 7051,
      "\" по": 7052,
      "43": 7053,
      "85": 7054,
      "Перед": 7055,
      "Ча": 7056,
      "Через": 7057,
      "берг": 7058,
      "ее, ": 7059,
      "чрезвычай": 7060,
      " века": 7061,
      " ск": 7062,
      "ете ": 7063,
      "итер": 7064,
      " в том, что ": 7065,
      "тиру": 7066,
      " подав": 7067,
      " преж": 7068,
      " в себ": 7069,
      "экспери": 7070,
      "седатель": 7071,
      "мечатель": 7072,
      "Захар": 7073,
      "стандарт": 7074,
      "Му": 7075,
      "СУ": 7076,
      "ращи": 7077,
      "ался в ": 7078,
      "кова ": 7079,
      "ить в": 7080,
      " своим": 7081,
      " недостаточ": 7082,
      " согласов": 7083,
      "уровне": 7084,
      "том числе ": 7085,
      "учетом ": 7086,
      " предусматрива": 7087,
      "из самых ": 7088,
      "океан": 7089,
      "евастопол": 7090,
      "ухудш": 7091,
      "цем ": 7092,
      "ань": 7093,
      "альная ": 7094,
      "упол": 7095,
      "люка": 7096,
      "должност": 7097,
      "ах, ": 7098,
      " представителя ": 7099,
      " сотрудники ": 7100,
      " сотрудников ": 7101,
      "любов": 7102,
      "Спе": 7103,
      "заслу": 7104,
      "57": 7105,
      "ие ": 7106,
      "раг": 7107,
      "атай": 7108,
      "арь": 7109,
      " приступ": 7110,
      "ение о": 7111,
      " своем ": 7112,
      ", в котором": 7113,
      "российской": 7114,
      "экономики": 7115,
      "управление ": 7116,
      " полиции": 7117,
      " парламентари": 7118,
      "roup": 7119,
      " продажи ": 7120,
      " начальник ": 7121,
      " прошлого года ": 7122,
      "Рио-": 7123,
      "ss": 7124,
      "Вы ": 7125,
      "Там": 7126,
      "оже": 7127,
      " вось": 7128,
      " нен": 7129,
      "торов ": 7130,
      "ин, ": 7131,
      "обой": 7132,
      "жды ": 7133,
      "читыва": 7134,
      "региона ": 7135,
      " ведущи": 7136,
      "Так, ": 7137,
      "укре": 7138,
      "стати, ": 7139,
      "четырех": 7140,
      "глубо": 7141,
      "Информационное ": 7142,
      "текущего ": 7143,
      "реест": 7144,
      "то время ": 7145,
      "инвал": 7146,
      "ческая": 7147,
      "ки - ": 7148,
      "полож": 7149,
      "российским ": 7150,
      " все рав": 7151,
      " взгляд": 7152,
      "единиц": 7153,
      "екретарь ": 7154,
      "рынок": 7155,
      "беженцев": 7156,
      "гораздо ": 7157,
      "yri": 7158,
      "НА": 7159,
      "Экономи": 7160,
      "одол": 7161,
      " препод": 7162,
      "щих": 7163,
      "родук": 7164,
      "ного.\n": 7165,
      " в сент": 7166,
      "должна": 7167,
      "канал": 7168,
      "алом ": 7169,
      "ников, ": 7170,
      "ябрь": 7171,
      " составит ": 7172,
      " ноябре ": 7173,
      "рынке": 7174,
      " привле": 7175,
      "октябре ": 7176,
      "деятельность": 7177,
      "Люд": 7178,
      "культуры ": 7179,
      "Информационное агентство ": 7180,
      ". м": 7181,
      "Иг": 7182,
      " смен": 7183,
      "кими ": 7184,
      " прибыл": 7185,
      " присутстви": 7186,
      "ются в ": 7187,
      ", несмотря на ": 7188,
      " православ": 7189,
      " произой": 7190,
      ", по мнению ": 7191,
      " период ": 7192,
      "ВД": 7193,
      "Кит": 7194,
      "Улюка": 7195,
      "зо": 7196,
      "мил": 7197,
      "сона": 7198,
      " свед": 7199,
      "ража": 7200,
      "ко, ": 7201,
      "алон": 7202,
      "ит \"": 7203,
      " выгод": 7204,
      " выраж": 7205,
      "деб": 7206,
      "дефиц": 7207,
      "уровень": 7208,
      "базе ": 7209,
      "готовы": 7210,
      "означа": 7211,
      "трагеди": 7212,
      " L": 7213,
      "09": 7214,
      "ИЛ": 7215,
      "динг": 7216,
      "километ": 7217,
      " вся": 7218,
      "авши": 7219,
      "разум": 7220,
      "вой ": 7221,
      "ом, ": 7222,
      " сообщил, что": 7223,
      ", пол": 7224,
      ", суд": 7225,
      "ствуют ": 7226,
      " при этом": 7227,
      ", но в ": 7228,
      "фильма ": 7229,
      "ТАСС\"\n": 7230,
      "Франции ": 7231,
      ", которое ": 7232,
      "Наталья ": 7233,
      ", посвящен": 7234,
      "России \"ТАСС\"\n": 7235,
      "Информационное агентство России \"ТАСС\"\n": 7236,
      "вели": 7237,
      "мощи": 7238,
      "ить, ": 7239,
      "более чем": 7240,
      "действия": 7241,
      " новую ": 7242,
      "людей.\n": 7243,
      "хочет": 7244,
      "Именно ": 7245,
      "Политика: ": 7246,
      "збекистан": 7247,
      "укрепл": 7248,
      "yright ": 7249,
      "id": 7250,
      "Гра": 7251,
      "Новый ": 7252,
      "Сам ": 7253,
      "Тай": 7254,
      "е,": 7255,
      " вел": 7256,
      "ов,": 7257,
      " на выбора": 7258,
      "ейс": 7259,
      " непро": 7260,
      "лом ": 7261,
      "ческую": 7262,
      "ения с ": 7263,
      " никаких ": 7264,
      " принци": 7265,
      "отношение ": 7266,
      "информацию": 7267,
      " производства ": 7268,
      " поддержки ": 7269,
      "апреле ": 7270,
      "государственного ": 7271,
      "губернатора ": 7272,
      "Image cop": 7273,
      "Кузне": 7274,
      "Хиллари Клинтон": 7275,
      "Image copyright ": 7276,
      "Эти ": 7277,
      "ду ": 7278,
      "ущен": 7279,
      "роста": 7280,
      " поправ": 7281,
      "кид": 7282,
      "альный": 7283,
      "истему ": 7284,
      "езон": 7285,
      ", поэтому": 7286,
      "лова": 7287,
      "ционной ": 7288,
      "ционный ": 7289,
      "ередине ": 7290,
      " посоль": 7291,
      "Госп": 7292,
      " партии \"": 7293,
      " программ": 7294,
      "Владимир Путин ": 7295,
      "топ-": 7296,
      "здоровь": 7297,
      "архит": 7298,
      " провинции ": 7299,
      "Жаней": 7300,
      ") в ": 7301,
      "Бли": 7302,
      "нибуд": 7303,
      "актри": 7304,
      " назвал": 7305,
      "очередной ": 7306,
      " принято ": 7307,
      "модерни": 7308,
      " парламента": 7309,
      " профил": 7310,
      " принимать ": 7311,
      " собеседник ": 7312,
      "банкрот": 7313,
      "архитек": 7314,
      "77": 7315,
      "пят": 7316,
      " нрав": 7317,
      "дох": 7318,
      "комфор": 7319,
      " правам ": 7320,
      " начн": 7321,
      "особо ": 7322,
      "темп": 7323,
      "Из-": 7324,
      " планирует": 7325,
      "Министр ": 7326,
      "реализации ": 7327,
      "пользов": 7328,
      "ресторан": 7329,
      "инвалид": 7330,
      "О.\n": 7331,
      "и для ": 7332,
      " в интервью ": 7333,
      "ской, ": 7334,
      "ской по": 7335,
      " вокруг ": 7336,
      " возбуд": 7337,
      "ный в ": 7338,
      "здор": 7339,
      "резолю": 7340,
      " военно-": 7341,
      "ением.\n": 7342,
      " со счетом ": 7343,
      "хоже": 7344,
      "заняти": 7345,
      "оказалось": 7346,
      " внутренних ": 7347,
      "мошенниче": 7348,
      "тернатив": 7349,
      "экстрен": 7350,
      "ечерний Мурманск": 7351,
      "120": 7352,
      "od": 7353,
      "атом": 7354,
      " пораж": 7355,
      "цик": 7356,
      "дом.\n": 7357,
      " выше": 7358,
      "ский, ": 7359,
      "амб": 7360,
      "годов": 7361,
      "ждан": 7362,
      "более с": 7363,
      "По информации ": 7364,
      "основном ": 7365,
      "аться на ": 7366,
      "безопасности.\n": 7367,
      "\"Рост": 7368,
      "Южной ": 7369,
      "Волго": 7370,
      "41": 7371,
      "правл": 7372,
      "ьян": 7373,
      "а для ": 7374,
      "еры": 7375,
      "ении, ": 7376,
      "доме": 7377,
      "кова.\n": 7378,
      " не хват": 7379,
      "ениям ": 7380,
      "ктор ": 7381,
      "организация ": 7382,
      "абри": 7383,
      "десять ": 7384,
      " повыс": 7385,
      "чемпионате ": 7386,
      " смерт": 7387,
      "ный суд ": 7388,
      "данный момент": 7389,
      "ak": 7390,
      "оци": 7391,
      "чный ": 7392,
      "роли": 7393,
      " в этом": 7394,
      " в размере ": 7395,
      "истреб": 7396,
      "летряс": 7397,
      "центр ": 7398,
      "сторона": 7399,
      "госпож": 7400,
      " продолжает ": 7401,
      "какие ": 7402,
      " прогнози": 7403,
      "гостин": 7404,
      " субъек": 7405,
      " наиболее ": 7406,
      "размещен": 7407,
      "Ли": 7408,
      "кт": 7409,
      "юс": 7410,
      " сним": 7411,
      "ени ": 7412,
      "рель": 7413,
      "осс": 7414,
      "аний.\n": 7415,
      "тамож": 7416,
      "чиков": 7417,
      "ционных ": 7418,
      "орожд": 7419,
      "экстре": 7420,
      "епарта": 7421,
      "жалов": 7422,
      "Петербур": 7423,
      "странах ": 7424,
      " потеря": 7425,
      "мяч": 7426,
      "Порошенко ": 7427,
      "Министерство ": 7428,
      "церкв": 7429,
      "Господин ": 7430,
      "52": 7431,
      "Там ": 7432,
      "и пере": 7433,
      "фун": 7434,
      "ники.\n": 7435,
      "леген": 7436,
      "али в": 7437,
      "ской Арав": 7438,
      "онач": 7439,
      "ющую": 7440,
      "директора": 7441,
      "ные сред": 7442,
      "столице ": 7443,
      "издание ": 7444,
      "туриз": 7445,
      "(в": 7446,
      "Вар": 7447,
      "Эн": 7448,
      "бай": 7449,
      "вез": 7450,
      "ины ": 7451,
      "рал": 7452,
      "реаги": 7453,
      "тами ": 7454,
      "нув": 7455,
      "овые": 7456,
      "формаль": 7457,
      "Антон ": 7458,
      " средства": 7459,
      "ствовать": 7460,
      "развитию ": 7461,
      " ведомства ": 7462,
      "готвор": 7463,
      "Среди ": 7464,
      "номочен": 7465,
      "Коммерс": 7466,
      "Рио-де-": 7467,
      "- с ": 7468,
      "Кал": 7469,
      "Клинтон": 7470,
      "Роб": 7471,
      "Ред": 7472,
      "мут": 7473,
      "нар": 7474,
      " в президент": 7475,
      " нат": 7476,
      "ное по": 7477,
      " пожа": 7478,
      " на своей ": 7479,
      "есь": 7480,
      "ностей ": 7481,
      "гает ": 7482,
      ", позвол": 7483,
      " в само": 7484,
      " право ": 7485,
      " создание ": 7486,
      "ились в ": 7487,
      " норматив": 7488,
      "Дональда ": 7489,
      "Рио-де-Жаней": 7490,
      " или ": 7491,
      "Бур": 7492,
      "цу": 7493,
      "ъезд": 7494,
      " в течение ": 7495,
      "ейн": 7496,
      " вызыва": 7497,
      " выпуст": 7498,
      "нул": 7499,
      " права ": 7500,
      "что-то": 7501,
      " высказал": 7502,
      "деятельности": 7503,
      " настоящий ": 7504,
      "билет": 7505,
      "Михаила ": 7506,
      "Орг": 7507,
      "Сообщается": 7508,
      " час": 7509,
      "ation": 7510,
      "· В": 7511,
      "шин": 7512,
      " сосед": 7513,
      ", за ": 7514,
      "одном": 7515,
      "лабора": 7516,
      "досто": 7517,
      "ности в": 7518,
      "диаг": 7519,
      " ника": 7520,
      "реть ": 7521,
      "Крыма": 7522,
      " пока не ": 7523,
      "группировки ": 7524,
      "довольно ": 7525,
      "Израил": 7526,
      "\" со ссылкой на ": 7527,
      "250": 7528,
      "Зна": 7529,
      "Кав": 7530,
      "гвар": 7531,
      "о, ": 7532,
      "ца.\n": 7533,
      "роль ": 7534,
      " в \"": 7535,
      "ата ": 7536,
      "авший ": 7537,
      " не вид": 7538,
      "им. ": 7539,
      "аган": 7540,
      "России Владимир Путин": 7541,
      "трой": 7542,
      " создать ": 7543,
      "Такое ": 7544,
      "американских ": 7545,
      " состояние ": 7546,
      "оказался ": 7547,
      "Особ": 7548,
      "Иван ": 7549,
      "хочет ": 7550,
      "аварий": 7551,
      " выпуск": 7552,
      "Пресс-": 7553,
      " преврат": 7554,
      " вперед": 7555,
      " созда": 7556,
      "ечерний Мурманск\n": 7557,
      "· Вечерний Мурманск\n": 7558,
      "w.": 7559,
      "Бельги": 7560,
      "Дев": 7561,
      "Лондон": 7562,
      "Мне ": 7563,
      " пет": 7564,
      "ковой ": 7565,
      ", которые в": 7566,
      "марте ": 7567,
      "участие в": 7568,
      " в польз": 7569,
      "Напомним, что ": 7570,
      "закрыти": 7571,
      ", поскольку": 7572,
      "которому ": 7573,
      "раньше": 7574,
      " - приводит ": 7575,
      " Х": 7576,
      "ДНР": 7577,
      "аук": 7578,
      "ером": 7579,
      "устав": 7580,
      "учет": 7581,
      "обствен": 7582,
      "ут в ": 7583,
      "ениями ": 7584,
      " мы ": 7585,
      "В ходе ": 7586,
      "мыс": 7587,
      "увол": 7588,
      "чему": 7589,
      "того, ": 7590,
      "корпус": 7591,
      "хотят": 7592,
      "ешь": 7593,
      "мира по ": 7594,
      "отличие ": 7595,
      "ФИ": 7596,
      "золо": 7597,
      "мяс": 7598,
      "енного": 7599,
      "ети ": 7600,
      "ении по": 7601,
      "от \"": 7602,
      "ли в": 7603,
      " проголосов": 7604,
      "емо": 7605,
      " выгляд": 7606,
      "но и ": 7607,
      "щих ": 7608,
      "ивших": 7609,
      "за рубеж": 7610,
      "здание ": 7611,
      " - подчеркнул ": 7612,
      "ителям": 7613,
      "Евгения ": 7614,
      "отвеч": 7615,
      "Василь": 7616,
      "уничтож": 7617,
      "www.": 7618,
      "Кадыров": 7619,
      "53": 7620,
      "Лив": 7621,
      "Мэ": 7622,
      "Муж": 7623,
      "че ": 7624,
      " пуст": 7625,
      " пишет ": 7626,
      " ско": 7627,
      "ил на ": 7628,
      "ь - ": 7629,
      "авшего": 7630,
      " непосред": 7631,
      "ениями": 7632,
      "али, что": 7633,
      "читать на ": 7634,
      "данных": 7635,
      "международных ": 7636,
      "Ирина ": 7637,
      "четверг, ": 7638,
      "аются": 7639,
      "осторож": 7640,
      "цами": 7641,
      "елля": 7642,
      " прокат": 7643,
      " прис": 7644,
      "гах ": 7645,
      "краси": 7646,
      "летом ": 7647,
      " - заявил": 7648,
      " сообщили ": 7649,
      "лучше ": 7650,
      "глаза": 7651,
      "ку и ": 7652,
      " первых ": 7653,
      "художе": 7654,
      "ЦБ ": 7655,
      " превыс": 7656,
      " пресеч": 7657,
      "Br": 7658,
      "ik": 7659,
      "Татар": 7660,
      "нему": 7661,
      "устран": 7662,
      " вещ": 7663,
      "ремьер ": 7664,
      " перемири": 7665,
      ", который по": 7666,
      "Минфин": 7667,
      " последних ": 7668,
      " вертолет": 7669,
      "руководством ": 7670,
      " находятся": 7671,
      " погибли ": 7672,
      "столько": 7673,
      "стало известно ": 7674,
      "Например, ": 7675,
      " вообще ": 7676,
      "едаго": 7677,
      " что ": 7678,
      "66": 7679,
      "Шв": 7680,
      "брон": 7681,
      "а Б": 7682,
      "обстанов": 7683,
      "ристи": 7684,
      " на основ": 7685,
      " неп": 7686,
      "ковых ": 7687,
      "ходатай": 7688,
      "Россию ": 7689,
      "месторожд": 7690,
      "Нач": 7691,
      "российская ": 7692,
      ", вз": 7693,
      "гу.\n": 7694,
      " прошл": 7695,
      "рессив": 7696,
      "модел": 7697,
      "администрации": 7698,
      " предпринимател": 7699,
      "Тем не мен": 7700,
      " между ": 7701,
      " понять": 7702,
      " Источник: Информационное агентство России \"ТАСС\"\n": 7703,
      "компьютер": 7704,
      "Узбекистан": 7705,
      "хра": 7706,
      "овор": 7707,
      " наград": 7708,
      "издел": 7709,
      " восточ": 7710,
      " подар": 7711,
      " предлаг": 7712,
      "часто ": 7713,
      "\"Сп": 7714,
      "тенни": 7715,
      " прошлой": 7716,
      "СМИ ": 7717,
      " помощи ": 7718,
      " пассажиров": 7719,
      "достаточно": 7720,
      "минимум": 7721,
      "рекоменда": 7722,
      " подчеркнул, что ": 7723,
      "опровод": 7724,
      " на себя ": 7725,
      "МК": 7726,
      "Те": 7727,
      "кроссов": 7728,
      "цам": 7729,
      " найти ": 7730,
      " прояв": 7731,
      " восто": 7732,
      "общего ": 7733,
      "долго ": 7734,
      "няя": 7735,
      "Поз": 7736,
      "цен на": 7737,
      "окруж": 7738,
      "ала, что ": 7739,
      " на сум": 7740,
      "производ": 7741,
      "испан": 7742,
      "человека ": 7743,
      "отрудниче": 7744,
      "довери": 7745,
      "ился с ": 7746,
      "Этот ": 7747,
      "мужчина": 7748,
      "финансов ": 7749,
      "июле ": 7750,
      "европейских ": 7751,
      "Краснояр": 7752,
      "Чтобы ": 7753,
      "аэропорту ": 7754,
      "Мерк": 7755,
      " Н": 7756,
      "600": 7757,
      "НГ": 7758,
      "дател": 7759,
      "рв": 7760,
      "ил в": 7761,
      "исла": 7762,
      "га, ": 7763,
      "ивший": 7764,
      "ка - ": 7765,
      ": Политика: ": 7766,
      " ниже": 7767,
      "ению.\n": 7768,
      "отношений": 7769,
      "ском районе ": 7770,
      "американского ": 7771,
      "Дмитри": 7772,
      "ющихся ": 7773,
      "монитор": 7774,
      "Пан": 7775,
      "реконструк": 7776,
      "ки\n": 7777,
      "ки\" ": 7778,
      "ту.\n": 7779,
      "двин": 7780,
      "оружен": 7781,
      "Петра ": 7782,
      "Джон": 7783,
      "хожи": 7784,
      " намерен": 7785,
      "Валент": 7786,
      "-либо ": 7787,
      "Луг": 7788,
      "Учен": 7789,
      "фили": 7790,
      "шести ": 7791,
      " сканд": 7792,
      " смысл": 7793,
      "го.\n": 7794,
      "инду": 7795,
      "оно ": 7796,
      "исполня": 7797,
      " ней ": 7798,
      "альным ": 7799,
      "глава": 7800,
      "тех, кто": 7801,
      " войска": 7802,
      " случай": 7803,
      " плохо": 7804,
      " пришлось ": 7805,
      "требует ": 7806,
      "арестован": 7807,
      "минимум ": 7808,
      " предупрежд": 7809,
      "Олимпийских ": 7810,
      " на самом дел": 7811,
      "\"не": 7812,
      "Ай": 7813,
      "куда": 7814,
      "чно": 7815,
      "чного ": 7816,
      " неожидан": 7817,
      "евой": 7818,
      "ального": 7819,
      "лок": 7820,
      " предотв": 7821,
      "люс": 7822,
      "работает ": 7823,
      "деж": 7824,
      "По предваритель": 7825,
      "министр": 7826,
      "плот": 7827,
      "являются": 7828,
      " в Сирии.\n": 7829,
      "документы": 7830,
      "нюю": 7831,
      "охра": 7832,
      "машины": 7833,
      "эфире ": 7834,
      "Организа": 7835,
      "- по": 7836,
      ".)": 7837,
      "Гал": 7838,
      "ето": 7839,
      "тору": 7840,
      "касс": 7841,
      "емых": 7842,
      "альное ": 7843,
      "ные и ": 7844,
      "заявления": 7845,
      "главой ": 7846,
      "увидет": 7847,
      "тех, кто ": 7848,
      " насили": 7849,
      "другие": 7850,
      " первого": 7851,
      "анализ": 7852,
      "женщина": 7853,
      "августе ": 7854,
      "двумя ": 7855,
      "Виталий ": 7856,
      "Отече": 7857,
      " человек ": 7858,
      "800": 7859,
      "Sp": 7860,
      " всему ": 7861,
      "могла": 7862,
      "193": 7863,
      "иться.\n": 7864,
      "затра": 7865,
      "пуска": 7866,
      " ничего не ": 7867,
      "одном из ": 7868,
      " потенциаль": 7869,
      "-нибуд": 7870,
      "08": 7871,
      "Их ": 7872,
      "жи ": 7873,
      "юрист": 7874,
      "яй": 7875,
      " печат": 7876,
      "анный ": 7877,
      "к - ": 7878,
      "вой": 7879,
      "овое ": 7880,
      " ниж": 7881,
      " начал ": 7882,
      "ющими ": 7883,
      "ились на ": 7884,
      "последстви": 7885,
      "этом году": 7886,
      "долларов.\n": 7887,
      "закона": 7888,
      "ликвида": 7889,
      "Челябин": 7890,
      "Грузи": 7891,
      "Эта ": 7892,
      "жилищ": 7893,
      "и,": 7894,
      "нять": 7895,
      " в пол": 7896,
      "иннова": 7897,
      " выб": 7898,
      " выше ": 7899,
      "мае ": 7900,
      " - рассказал ": 7901,
      "большое ": 7902,
      "государства.\n": 7903,
      " самый ": 7904,
      "тенден": 7905,
      "укреп": 7906,
      "ящих": 7907,
      "матче ": 7908,
      ".com\n": 7909,
      "56": 7910,
      "Да, ": 7911,
      "Су-": 7912,
      "Фор": 7913,
      "развер": 7914,
      "муль": 7915,
      "мировой ": 7916,
      " предложил ": 7917,
      "Конститу": 7918,
      ", - говорит ": 7919,
      "финансовых ": 7920,
      " необходимости": 7921,
      "ребенка": 7922,
      "школы ": 7923,
      " существу": 7924,
      " пассажир": 7925,
      "транспорта ": 7926,
      " возрасте ": 7927,
      "Компания ": 7928,
      "зитив": 7929,
      " рублей": 7930,
      "Ярослав": 7931,
      "о в ": 7932,
      "окаж": 7933,
      "пыт": 7934,
      "фан": 7935,
      "мире": 7936,
      "ся к ": 7937,
      " своем": 7938,
      " пересмот": 7939,
      "стреч": 7940,
      "Всего ": 7941,
      "Этот": 7942,
      "исполнитель": 7943,
      "объектов ": 7944,
      "сторону ": 7945,
      "оряд": 7946,
      " млрд руб.": 7947,
      "ИГИЛ": 7948,
      "окружа": 7949,
      " на протяж": 7950,
      "религиоз": 7951,
      "Phon": 7952,
      "Нес": 7953,
      "Пара": 7954,
      "Само": 7955,
      "лением ": 7956,
      "шут": 7957,
      "стов": 7958,
      "раста": 7959,
      "извин": 7960,
      "компози": 7961,
      "чень ": 7962,
      "российском ": 7963,
      "торже": 7964,
      "финансов": 7965,
      " гри": 7966,
      "многочислен": 7967,
      ", направлен": 7968,
      "губернатор ": 7969,
      " не было.\n": 7970,
      "РАН": 7971,
      "экстремист": 7972,
      "ТР": 7973,
      "ора ": 7974,
      "чез": 7975,
      "ил с": 7976,
      "такая ": 7977,
      "ставки ": 7978,
      "акции": 7979,
      "заплат": 7980,
      "нику ": 7981,
      " повест": 7982,
      "давно ": 7983,
      "пута": 7984,
      "американской ": 7985,
      "Австра": 7986,
      "Центро": 7987,
      "обеспечить ": 7988,
      " прокурат": 7989,
      " состоится ": 7990,
      "законопроект": 7991,
      "квартале ": 7992,
      " пользовател": 7993,
      "опроверг": 7994,
      "якобы": 7995,
      " связа": 7996,
      "ешеход": 7997,
      "th": 7998,
      "Доб": 7999,
      "ды ": 8000,
      "дали": 8001,
      "ею ": 8002,
      " на пол": 8003,
      "лаб": 8004,
      "ся в": 8005,
      "гим": 8006,
      " не будет ": 8007,
      "годы": 8008,
      "гами": 8009,
      " провели ": 8010,
      "Минф": 8011,
      "доброволь": 8012,
      " создания ": 8013,
      "\"Мы ": 8014,
      " миллиарда ": 8015,
      "илась в ": 8016,
      "Ведь ": 8017,
      " поверх": 8018,
      "Конечно, ": 8019,
      "Константин ": 8020,
      "Татьяна ": 8021,
      " Ф": 8022,
      "Li": 8023,
      "Мут": 8024,
      "вес": 8025,
      "днев": 8026,
      "труб": 8027,
      "ует ": 8028,
      "я\n": 8029,
      "ит.\n": 8030,
      "риз": 8031,
      "море": 8032,
      " не было ": 8033,
      "опла": 8034,
      "мотр": 8035,
      "большую ": 8036,
      "имость ": 8037,
      "отношении": 8038,
      "ском кра": 8039,
      "закона ": 8040,
      "егодняш": 8041,
      "Подмосков": 8042,
      "-летняя ": 8043,
      " плох": 8044,
      "Интернет": 8045,
      " версии ": 8046,
      "коммуни": 8047,
      "действительно": 8048,
      "Мария ": 8049,
      "Отмечается, что ": 8050,
      "Между тем": 8051,
      " возбуждено уголовное дело": 8052,
      " - сказала ": 8053,
      "Image caption ": 8054,
      "Дей": 8055,
      "Луч": 8056,
      "ОБ": 8057,
      "Пам": 8058,
      "Речь ": 8059,
      "ины": 8060,
      " понедель": 8061,
      "рим": 8062,
      "удеб": 8063,
      "комнат": 8064,
      "госроч": 8065,
      " недели": 8066,
      "так как ": 8067,
      "факту ": 8068,
      "аратов": 8069,
      "требования ": 8070,
      "качестве": 8071,
      "илась на ": 8072,
      "депутат ": 8073,
      "деятельность ": 8074,
      "инфек": 8075,
      "остается": 8076,
      "команда": 8077,
      " а также ": 8078,
      "якобы ": 8079,
      " первую очередь ": 8080,
      " совсем": 8081,
      "% в ": 8082,
      "-М": 8083,
      "For": 8084,
      "st": 8085,
      "В начале ": 8086,
      "Кос": 8087,
      "Туль": 8088,
      "завоев": 8089,
      "исключа": 8090,
      "спорт": 8091,
      "знамени": 8092,
      ", вид": 8093,
      "рополь": 8094,
      "отношению ": 8095,
      "довер": 8096,
      " следующе": 8097,
      "территорию ": 8098,
      "розы": 8099,
      " миллиардов ": 8100,
      "зависит ": 8101,
      "утверд": 8102,
      "Став": 8103,
      " вместо ": 8104,
      "Таким образом, ": 8105,
      "зарегистрирован": 8106,
      "устанавлива": 8107,
      "!\"": 8108,
      "%)": 8109,
      "Вести": 8110,
      "Премьер": 8111,
      "Участ": 8112,
      "ее.\n": 8113,
      "хен": 8114,
      "и к ": 8115,
      "я из ": 8116,
      "отмеч": 8117,
      "есточ": 8118,
      "кури": 8119,
      "лоп": 8120,
      "комот": 8121,
      " подня": 8122,
      "ственная ": 8123,
      " провел": 8124,
      "инамо": 8125,
      " поврежд": 8126,
      "стью ": 8127,
      " населения": 8128,
      " пришлось": 8129,
      " повышен": 8130,
      " список": 8131,
      "Правда": 8132,
      " вооруж": 8133,
      "кадров": 8134,
      "Банк ": 8135,
      " самолета ": 8136,
      " перенос": 8137,
      " трлн ": 8138,
      "Лев": 8139,
      "жа ": 8140,
      "такого": 8141,
      " некоторых ": 8142,
      "утра": 8143,
      "России с": 8144,
      "ных по": 8145,
      "полага": 8146,
      "учени": 8147,
      " самым": 8148,
      " случае": 8149,
      "землетряс": 8150,
      "благотвор": 8151,
      "оказались ": 8152,
      " помощью": 8153,
      "Сирии ": 8154,
      "двое ": 8155,
      "Следственного ": 8156,
      " предприниматель": 8157,
      "05": 8158,
      "ra": 8159,
      "ОАО \"": 8160,
      "Пуш": 8161,
      "иран": 8162,
      "кина": 8163,
      "охот": 8164,
      "ым.\n": 8165,
      "одежд": 8166,
      "ание в": 8167,
      " на мест": 8168,
      "ева, ": 8169,
      "даст": 8170,
      " призыв": 8171,
      " привести ": 8172,
      "размест": 8173,
      "мая ": 8174,
      " получили": 8175,
      "ского.\n": 8176,
      ", как и ": 8177,
      "услыш": 8178,
      "структура": 8179,
      "комитет ": 8180,
      " в Сирии ": 8181,
      "Татарстан": 8182,
      "95": 8183,
      "Ах": 8184,
      "Бу": 8185,
      "л.\n": 8186,
      "юбил": 8187,
      " праймер": 8188,
      "атмос": 8189,
      "ард ": 8190,
      "исчез": 8191,
      "чаще": 8192,
      "альную ": 8193,
      " мед": 8194,
      ", в частности": 8195,
      "Анто": 8196,
      "МИД": 8197,
      "идео": 8198,
      "команди": 8199,
      "туристи": 8200,
      "ГУ М": 8201,
      " выяснилось": 8202,
      "Правительство ": 8203,
      " по поводу ": 8204,
      "аудитори": 8205,
      "Екатеринбург": 8206,
      "iPhon": 8207,
      "Мил": 8208,
      "оно": 8209,
      " сравн": 8210,
      "готов ": 8211,
      "есь ": 8212,
      "разб": 8213,
      " подрост": 8214,
      " по стать": 8215,
      "термин": 8216,
      " год ": 8217,
      "ериал": 8218,
      "группа": 8219,
      "отношений ": 8220,
      " под страж": 8221,
      "оборот": 8222,
      " вместе с": 8223,
      "йдет ": 8224,
      "у него": 8225,
      " в Москве ": 8226,
      "ряд ли ": 8227,
      "тысячи ": 8228,
      "Представитель ": 8229,
      "В настоящее время ": 8230,
      "распоряж": 8231,
      "коллеги": 8232,
      "ob": 8233,
      "А \"": 8234,
      "Чех": 8235,
      "гани": 8236,
      "кти": 8237,
      "устра": 8238,
      "я\" ": 8239,
      " пяти": 8240,
      ", это": 8241,
      "а Г": 8242,
      "ер.\n": 8243,
      "ото ": 8244,
      "изод": 8245,
      "кова, ": 8246,
      "ского района ": 8247,
      ", в свою очеред": 8248,
      "данные": 8249,
      " самой ": 8250,
      "Российский ": 8251,
      "защиты ": 8252,
      "стартов": 8253,
      " июня ": 8254,
      "Генпро": 8255,
      "ремонт": 8256,
      "imes": 8257,
      "обеспечива": 8258,
      "Лиги ": 8259,
      "ran": 8260,
      "ЕС ": 8261,
      "Олег": 8262,
      "Шве": 8263,
      "юго-": 8264,
      "стек": 8265,
      "ко-": 8266,
      " наши": 8267,
      " наста": 8268,
      "еднев": 8269,
      "дочер": 8270,
      " прибыли": 8271,
      "стом ": 8272,
      "енты": 8273,
      " муж": 8274,
      "ственное ": 8275,
      "ряда": 8276,
      "заявления ": 8277,
      " поддержке ": 8278,
      " состоянии ": 8279,
      "за счет": 8280,
      "магазин": 8281,
      "Агент": 8282,
      "День": 8283,
      "Калин": 8284,
      "Тер": 8285,
      "ато": 8286,
      "зрач": 8287,
      "лению ": 8288,
      " внед": 8289,
      " сня": 8290,
      "анной ": 8291,
      "ет с": 8292,
      "оскор": 8293,
      " на уровне ": 8294,
      "док ": 8295,
      "утся ": 8296,
      "уплат": 8297,
      "мун": 8298,
      "местных ": 8299,
      " после с": 8300,
      "требл": 8301,
      " находится ": 8302,
      "Причи": 8303,
      "операция": 8304,
      " пройдет ": 8305,
      "грузови": 8306,
      "Коммерсант": 8307,
      "Дума": 8308,
      "Едина": 8309,
      "эпо": 8310,
      " пиш": 8311,
      "итет ": 8312,
      "кас": 8313,
      "анима": 8314,
      "иск ": 8315,
      "к конц": 8316,
      " подел": 8317,
      "способ": 8318,
      " возле ": 8319,
      "уск": 8320,
      "стране": 8321,
      "Обама": 8322,
      "городской ": 8323,
      "людь": 8324,
      "именно": 8325,
      " выборов": 8326,
      " парламента ": 8327,
      " процентов": 8328,
      "дискус": 8329,
      " пока не": 8330,
      " начальника ": 8331,
      "Савченко ": 8332,
      " в случае ": 8333,
      "Почему ": 8334,
      "залож": 8335,
      "КНДР": 8336,
      " приоритет": 8337,
      "72": 8338,
      "I ": 8339,
      "древ": 8340,
      "фе": 8341,
      " плен": 8342,
      " погибли": 8343,
      "интел": 8344,
      " найти": 8345,
      "за последние ": 8346,
      "авших ": 8347,
      "достой": 8348,
      "альтернатив": 8349,
      "ной продук": 8350,
      ", несмотря": 8351,
      ", сдел": 8352,
      ", скорее всего": 8353,
      "российско-": 8354,
      "ство, ": 8355,
      "стояни": 8356,
      "рассказыв": 8357,
      "фильма": 8358,
      " системы ": 8359,
      "конфликт": 8360,
      "режим ": 8361,
      "режима": 8362,
      "Эксперт": 8363,
      "телеканала ": 8364,
      "мартфон": 8365,
      "уполномочен": 8366,
      " в пользу ": 8367,
      "Пот": 8368,
      "У нас ": 8369,
      " помог": 8370,
      "одино": 8371,
      "ив, что ": 8372,
      "будем": 8373,
      "ера.\n": 8374,
      "Нау": 8375,
      "столкну": 8376,
      "ных сет": 8377,
      " площади ": 8378,
      "ущий ": 8379,
      "лидер ": 8380,
      " за баррель": 8381,
      "располага": 8382,
      "Саудовской Арав": 8383,
      "Георги": 8384,
      "Швейц": 8385,
      "Bo": 8386,
      "Te": 8387,
      "ней.\n": 8388,
      "а от": 8389,
      " в ходе ": 8390,
      "момента": 8391,
      "сиди": 8392,
      " приглаш": 8393,
      "ности по": 8394,
      " \"Ъ": 8395,
      "ным и ": 8396,
      "и следстви": 8397,
      "здания ": 8398,
      "ала на ": 8399,
      "ульман": 8400,
      "По его мнению": 8401,
      "банки": 8402,
      " слова": 8403,
      "ответству": 8404,
      " военные ": 8405,
      "государственных ": 8406,
      "члены ": 8407,
      "облига": 8408,
      "индустри": 8409,
      "Даг": 8410,
      "Эль": 8411,
      "у них ": 8412,
      "ын": 8413,
      "шие с": 8414,
      "ить на": 8415,
      "ции на ": 8416,
      "лов.\n": 8417,
      "рублей, ": 8418,
      " восемь ": 8419,
      "ники, ": 8420,
      "Киров": 8421,
      "оказались": 8422,
      "кладыва": 8423,
      " планируется": 8424,
      "Министерства ": 8425,
      " понят": 8426,
      "ВВП": 8427,
      " оч": 8428,
      " руб. ": 8429,
      " граду": 8430,
      "\" по ": 8431,
      "СЕ": 8432,
      "ии": 8433,
      "кали": 8434,
      "омо": 8435,
      "щей ": 8436,
      "но про": 8437,
      "обе": 8438,
      "рушен": 8439,
      "рулем ": 8440,
      ", ча": 8441,
      "ов для ": 8442,
      "России в": 8443,
      " дав": 8444,
      "гах": 8445,
      " переда": 8446,
      "прият": 8447,
      "рассказали ": 8448,
      "истемы ": 8449,
      "рознич": 8450,
      "изменения": 8451,
      "действий": 8452,
      "эффек": 8453,
      "Иркут": 8454,
      "фигуран": 8455,
      "говора ": 8456,
      ", конечно, ": 8457,
      "Apple": 8458,
      "Амур": 8459,
      "Гон": 8460,
      "МА": 8461,
      "Рам": 8462,
      "Тран": 8463,
      "гро": 8464,
      "шта": 8465,
      "кач": 8466,
      "застрой": 8467,
      " на улице ": 8468,
      "- и ": 8469,
      "ции с ": 8470,
      ", который с": 8471,
      " год.\n": 8472,
      "ный, ": 8473,
      ", в частности, ": 8474,
      "могу": 8475,
      "По ее слов": 8476,
      " вопросы": 8477,
      "участо": 8478,
      "чтобы ": 8479,
      " новогод": 8480,
      "Александров": 8481,
      "этого года": 8482,
      "all": 8483,
      " соглашения ": 8484,
      "Игоря ": 8485,
      " назад.\n": 8486,
      "двигател": 8487,
      "крайне": 8488,
      "В итоге ": 8489,
      " все-таки ": 8490,
      "% до ": 8491,
      "Боль": 8492,
      "лана ": 8493,
      "ста ": 8494,
      " вов": 8495,
      " вполне ": 8496,
      "рах": 8497,
      "ерина ": 8498,
      "ении в ": 8499,
      "стве с": 8500,
      "изготов": 8501,
      "дозреваем": 8502,
      "нее.\n": 8503,
      " \"Ъ\" ": 8504,
      "ных, ": 8505,
      "главным ": 8506,
      "ательно ": 8507,
      "ченко.\n": 8508,
      "ская, ": 8509,
      " на следу": 8510,
      "Владивосто": 8511,
      " проблемы ": 8512,
      "раньше ": 8513,
      "эпизод": 8514,
      "референду": 8515,
      "AS": 8516,
      "Жу": 8517,
      "Мон": 8518,
      "Нидер": 8519,
      "дро": 8520,
      " слишком ": 8521,
      "олет ": 8522,
      "щики ": 8523,
      "говорил ": 8524,
      "значительно ": 8525,
      "международной ": 8526,
      "зампред": 8527,
      "реализации": 8528,
      "Афгани": 8529,
      "читайте в материале \"Ъ\" \"": 8530,
      "формирован": 8531,
      " рублей.\n": 8532,
      "You": 8533,
      "ed ": 8534,
      "us ": 8535,
      "Рай": 8536,
      "Тро": 8537,
      "моло": 8538,
      "ы\" ": 8539,
      "а к ": 8540,
      "обез": 8541,
      "ная.\n": 8542,
      "альные": 8543,
      "куб": 8544,
      "упер": 8545,
      "ителем": 8546,
      "ствие ": 8547,
      "абил": 8548,
      "объявлен": 8549,
      "движения": 8550,
      "каждого ": 8551,
      "\"Газпро": 8552,
      "Великобритании ": 8553,
      "Ту-": 8554,
      " прекращения ": 8555,
      "блокиров": 8556,
      " прошлой недел": 8557,
      " E": 8558,
      "Кат": 8559,
      "ещи": 8560,
      "ечен": 8561,
      "е всего ": 8562,
      "яч": 8563,
      "ы за": 8564,
      "основной ": 8565,
      "цию в ": 8566,
      "блиот": 8567,
      "руководства ": 8568,
      "аться с ": 8569,
      "бизнес-": 8570,
      " планирует ": 8571,
      "ориенти": 8572,
      "идетел": 8573,
      "удаст": 8574,
      "общественного ": 8575,
      "Москвы.\n": 8576,
      "труда ": 8577,
      " придется ": 8578,
      "овершенно": 8579,
      "злоумышлен": 8580,
      "МЧС ": 8581,
      "Дагест": 8582,
      "51": 8583,
      "МФ": 8584,
      "Руб": 8585,
      "Тех": 8586,
      "банд": 8587,
      "ович": 8588,
      " потом": 8589,
      "осень": 8590,
      "быстре": 8591,
      "заявили, что ": 8592,
      "безработ": 8593,
      "детей.\n": 8594,
      "ную с": 8595,
      "Джей": 8596,
      "депутатов ": 8597,
      "королев": 8598,
      "Генна": 8599,
      "страховани": 8600,
      ", провед": 8601,
      "-первы": 8602,
      "58": 8603,
      "Чем": 8604,
      "шись ": 8605,
      "ы не": 8606,
      "ка с": 8607,
      " с \"": 8608,
      "места": 8609,
      "айт ": 8610,
      " никак": 8611,
      "против": 8612,
      " президенту ": 8613,
      "как в ": 8614,
      "Анна ": 8615,
      "ная с": 8616,
      "уже не ": 8617,
      " противодействи": 8618,
      "марки ": 8619,
      "объявил ": 8620,
      "запрещ": 8621,
      "отделения ": 8622,
      "одной из": 8623,
      "расследования ": 8624,
      " два ": 8625,
      "критиков": 8626,
      " сопровожд": 8627,
      "\" на": 8628,
      "К.\n": 8629,
      "Уже": 8630,
      "Читай": 8631,
      "бут": 8632,
      "дал ": 8633,
      "у на": 8634,
      "колько": 8635,
      " по-": 8636,
      "еле ": 8637,
      "мимо": 8638,
      "ов за ": 8639,
      "езжа": 8640,
      "овый": 8641,
      "частью ": 8642,
      " прав ": 8643,
      "решили": 8644,
      "ность, ": 8645,
      " получить": 8646,
      "Вооружен": 8647,
      " попад": 8648,
      "избав": 8649,
      " планируется ": 8650,
      "дорожного ": 8651,
      "Чтобы": 8652,
      "Васили": 8653,
      "59": 8654,
      "69": 8655,
      "Гар": 8656,
      "Зв": 8657,
      "длин": 8658,
      "школа": 8659,
      "ю в": 8660,
      "ал в": 8661,
      " не в ": 8662,
      "альном ": 8663,
      "теб": 8664,
      "туре": 8665,
      " никаких": 8666,
      " - сообщил ": 8667,
      " получения ": 8668,
      "и вер": 8669,
      "апелля": 8670,
      " возможности": 8671,
      "Минэконом": 8672,
      " новые": 8673,
      ", сообщает": 8674,
      " нефте": 8675,
      " млн рублей.\n": 8676,
      " войск": 8677,
      " времени.\n": 8678,
      "стало известно, что ": 8679,
      "корпоратив": 8680,
      "точки зрения ": 8681,
      "зафиксирован": 8682,
      "Ближ": 8683,
      "Молод": 8684,
      "Прин": 8685,
      "Сан": 8686,
      "бек": 8687,
      "уре": 8688,
      "ь президента ": 8689,
      "ята": 8690,
      "ен в ": 8691,
      "изнач": 8692,
      " на \"": 8693,
      "наб": 8694,
      " выбра": 8695,
      "работе ": 8696,
      "е, и ": 8697,
      "остат": 8698,
      " власть": 8699,
      "курс ": 8700,
      " производства": 8701,
      " себе": 8702,
      "участия в ": 8703,
      " произошел ": 8704,
      "украинской ": 8705,
      "ответственности ": 8706,
      "отказаться ": 8707,
      "документов": 8708,
      " призвал ": 8709,
      "Роман ": 8710,
      "гварди": 8711,
      "Афганистан": 8712,
      ".),": 8713,
      "ЛДП": 8714,
      "РП": 8715,
      "СИ": 8716,
      "а по ": 8717,
      " вне": 8718,
      " независимо": 8719,
      "евых ": 8720,
      " вызов": 8721,
      "аль-": 8722,
      " всей": 8723,
      "меры ": 8724,
      "мы не ": 8725,
      "метро ": 8726,
      "решил": 8727,
      ", вероят": 8728,
      "числа ": 8729,
      "так и ": 8730,
      "людям": 8731,
      "июне ": 8732,
      "мешатель": 8733,
      "Многие ": 8734,
      "замороз": 8735,
      " преподав": 8736,
      "гостиниц": 8737,
      "67": 8738,
      "Вместе с ": 8739,
      "а не ": 8740,
      "аются ": 8741,
      "д.\n": 8742,
      "дней ": 8743,
      "иной ": 8744,
      "фам": 8745,
      "честь ": 8746,
      "шай": 8747,
      "ьера ": 8748,
      "регла": 8749,
      "кое-": 8750,
      "тирован": 8751,
      "- Новые Известия\n": 8752,
      "ляет": 8753,
      "жды": 8754,
      " препят": 8755,
      "можем": 8756,
      "том, ": 8757,
      "Потому ": 8758,
      "цены на": 8759,
      "сыла": 8760,
      " проведения": 8761,
      " подтвержд": 8762,
      "обеспечения ": 8763,
      "адим ": 8764,
      " считают, что ": 8765,
      "Сахалин": 8766,
      "BC": 8767,
      "ec": 8768,
      "ex": 8769,
      "А в ": 8770,
      "Ее ": 8771,
      "Ста": 8772,
      "вел": 8773,
      "джи": 8774,
      "жид": 8775,
      "иФ": 8776,
      "к н": 8777,
      "к в ": 8778,
      "хак": 8779,
      "щад": 8780,
      " вчера": 8781,
      " сид": 8782,
      "овали": 8783,
      "я \"": 8784,
      "обнарод": 8785,
      "киев": 8786,
      " некоторы": 8787,
      "альной": 8788,
      "щие ": 8789,
      " дев": 8790,
      " все в": 8791,
      "ленный ": 8792,
      "кв. м": 8793,
      "друж": 8794,
      "газета ": 8795,
      "ших в ": 8796,
      "модель": 8797,
      "депутаты ": 8798,
      " подозрева": 8799,
      " необходимости ": 8800,
      "конфликта": 8801,
      "Что касается ": 8802,
      "отлича": 8803,
      "Эрдоган": 8804,
      "Соч": 8805,
      "Твер": 8806,
      "бав": 8807,
      " символ": 8808,
      "е -": 8809,
      "мото": 8810,
      "опер": 8811,
      "долгосроч": 8812,
      "зву": 8813,
      "Народ": 8814,
      "городского ": 8815,
      "ежеднев": 8816,
      "ания и ": 8817,
      "erc": 8818,
      "Соответству": 8819,
      "другими ": 8820,
      "изирован": 8821,
      "участием ": 8822,
      "украинского ": 8823,
      " польз": 8824,
      "консер": 8825,
      "эксперты": 8826,
      " властей ": 8827,
      "Валерий ": 8828,
      "аукцион": 8829,
      "Единая Россия": 8830,
      "ai": 8831,
      "ow": 8832,
      "sta": 8833,
      "Им": 8834,
      "КБ": 8835,
      "Треть": 8836,
      "йского ": 8837,
      "рил": 8838,
      "сом": 8839,
      "тян": 8840,
      "хро": 8841,
      "шую ": 8842,
      " сена": 8843,
      "рике ": 8844,
      "едь": 8845,
      "мире ": 8846,
      "допрос": 8847,
      "дома.\n": 8848,
      " во всех ": 8849,
      "щиков ": 8850,
      "мере ": 8851,
      " персона": 8852,
      "большие ": 8853,
      "Позд": 8854,
      "борная ": 8855,
      "давать ": 8856,
      " производство ": 8857,
      "государственной ": 8858,
      " площади": 8859,
      "ходит в ": 8860,
      "относительно ": 8861,
      "Второй ": 8862,
      "e, ": 8863,
      "ТС": 8864,
      "ю, что": 8865,
      " счаст": 8866,
      " действи": 8867,
      "щего ": 8868,
      "ленные ": 8869,
      ", нес": 8870,
      "полне": 8871,
      "курд": 8872,
      "ербург": 8873,
      "бывшего": 8874,
      " название ": 8875,
      " апреля.\n": 8876,
      "Тогда": 8877,
      " внимание ": 8878,
      " полуостров": 8879,
      " в мире": 8880,
      "az": 8881,
      "Исто": 8882,
      "Нуж": 8883,
      "Рей": 8884,
      "кей": 8885,
      "титу": 8886,
      " пути": 8887,
      "еле": 8888,
      "ятел": 8889,
      "опуст": 8890,
      "ение с ": 8891,
      "живо": 8892,
      "резид": 8893,
      "компании, ": 8894,
      "становится ": 8895,
      "аппарат": 8896,
      "ится на ": 8897,
      "Институт": 8898,
      " имен": 8899,
      "Москве": 8900,
      ", сообщил ": 8901,
      "Европы": 8902,
      "Законо": 8903,
      "законопроект ": 8904,
      " вопрос о": 8905,
      " - говорится в ": 8906,
      " придется": 8907,
      "досроч": 8908,
      "Подробнее о": 8909,
      "То есть ": 8910,
      "Премьер-": 8911,
      " Ш": 8912,
      "64": 8913,
      "Ду": 8914,
      "Патри": 8915,
      "цов ": 8916,
      "итета": 8917,
      "изол": 8918,
      "можем ": 8919,
      " соци": 8920,
      ", почему ": 8921,
      "объектив": 8922,
      " ведь ": 8923,
      "операции ": 8924,
      "имеют ": 8925,
      " программу ": 8926,
      " тыс. руб. ": 8927,
      "контролиров": 8928,
      " семь ": 8929,
      "Австри": 8930,
      "одного из": 8931,
      " прямы": 8932,
      " нельзя ": 8933,
      "Британ": 8934,
      "Швейцари": 8935,
      "s, ": 8936,
      "ЖКХ": 8937,
      "От ": 8938,
      "РЖ": 8939,
      "РО": 8940,
      "ра в ": 8941,
      "менты": 8942,
      "ать с ": 8943,
      "иметь ": 8944,
      "ство: ": 8945,
      "становится": 8946,
      "уведом": 8947,
      "ужас": 8948,
      "телевид": 8949,
      " военного ": 8950,
      "завтра": 8951,
      " проблемы": 8952,
      " внутри ": 8953,
      "заседания ": 8954,
      " версии следстви": 8955,
      "топлив": 8956,
      " приводит ": 8957,
      " прошлого года.\n": 8958,
      " после того, как": 8959,
      "онлайн-": 8960,
      "\" не ": 8961,
      "В с": 8962,
      "Говор": 8963,
      "МС": 8964,
      "Мест": 8965,
      "Пу": 8966,
      "лос": 8967,
      "тщ": 8968,
      "чуд": 8969,
      "ов на": 8970,
      "ка\n": 8971,
      "заем": 8972,
      "лиде": 8973,
      "исключен": 8974,
      "ей-": 8975,
      " нев": 8976,
      "евро ": 8977,
      "ло.\n": 8978,
      "верд": 8979,
      " сообщил": 8980,
      "говорят ": 8981,
      ", в которой ": 8982,
      "колон": 8983,
      "экономической ": 8984,
      " взыск": 8985,
      " новый": 8986,
      "команда ": 8987,
      "два года": 8988,
      "автомобилей": 8989,
      "говорится в ": 8990,
      "Федерации ": 8991,
      "белору": 8992,
      "Северной ": 8993,
      "Григо": 8994,
      "oy": 8995,
      "um": 8996,
      "оциа": 8997,
      "шли ": 8998,
      " ввод": 8999,
      "копи": 9000,
      " в качестве ": 9001,
      "скоре": 9002,
      "ленных ": 9003,
      "большим ": 9004,
      "пуля": 9005,
      "информация": 9006,
      " планет": 9007,
      "Сирии.\n": 9008,
      "электроэнерги": 9009,
      "стоимости ": 9010,
      "Возмож": 9011,
      "енных пунк": 9012,
      "инфраструктур": 9013,
      "госпитализирован": 9014,
      " во вторник, ": 9015,
      "координа": 9016,
      "ГИБДД": 9017,
      " в президенты ": 9018,
      "Рио-де-Жанейро": 9019,
      "62": 9020,
      "цам ": 9021,
      "енси": 9022,
      "енко.\n": 9023,
      "ра и ": 9024,
      "отзыв": 9025,
      "утром": 9026,
      "ну.\n": 9027,
      "илиза": 9028,
      "здания": 9029,
      " - считает ": 9030,
      ", но и": 9031,
      " недоволь": 9032,
      " повлия": 9033,
      " самое ": 9034,
      " предложения": 9035,
      "\"Рус": 9036,
      " во глав": 9037,
      " партнера": 9038,
      "Николая ": 9039,
      "боевиков": 9040,
      "касается": 9041,
      " сентября.\n": 9042,
      "Бориса ": 9043,
      " выразил": 9044,
      "Финлян": 9045,
      ", ведь ": 9046,
      ", среди ": 9047,
      "для того, чтобы ": 9048,
      "защищ": 9049,
      "интегра": 9050,
      "Паль": 9051,
      "иби": 9052,
      "мани": 9053,
      "са.\n": 9054,
      "уют": 9055,
      "цу ": 9056,
      "ством.\n": 9057,
      " продемонстри": 9058,
      "емой ": 9059,
      " созн": 9060,
      "назначен": 9061,
      " выбо": 9062,
      "маги": 9063,
      "акция": 9064,
      "ивши": 9065,
      ", нед": 9066,
      "чи.\n": 9067,
      " в след": 9068,
      "ерий": 9069,
      "ность в ": 9070,
      "безуслов": 9071,
      " посред": 9072,
      "хоть ": 9073,
      "что-то ": 9074,
      "фонда": 9075,
      "ской област": 9076,
      "официальный представитель ": 9077,
      "ные сил": 9078,
      "Он также ": 9079,
      "ались в ": 9080,
      "илось.\n": 9081,
      " населенных пунк": 9082,
      "ack": 9083,
      "м году ": 9084,
      " постеп": 9085,
      "у вас": 9086,
      " международ": 9087,
      "Кирил": 9088,
      "рядом с ": 9089,
      "Ассоциа": 9090,
      " прибыль": 9091,
      " психологи": 9092,
      "Австрали": 9093,
      "вердлов": 9094,
      "02": 9095,
      "68": 9096,
      "res": 9097,
      "Ль": 9098,
      "Эл": 9099,
      "нять ": 9100,
      "тед": 9101,
      "шла ": 9102,
      "ов в": 9103,
      ", я ": 9104,
      "ствовани": 9105,
      " подверг": 9106,
      "ать и ": 9107,
      "е сред": 9108,
      "местные ": 9109,
      "летчи": 9110,
      "ерии ": 9111,
      "ностью.\n": 9112,
      "стран.\n": 9113,
      "центре": 9114,
      " самые ": 9115,
      " суда ": 9116,
      "организаций": 9117,
      " названием ": 9118,
      "указан": 9119,
      "биратель": 9120,
      "Берлин": 9121,
      "Борис ": 9122,
      ", предусмотрен": 9123,
      "Финлянди": 9124,
      "ab": 9125,
      "ВИ": 9126,
      "изв": 9127,
      "архи": 9128,
      "уд ": 9129,
      "утся": 9130,
      " применя": 9131,
      "разные ": 9132,
      "ом в ": 9133,
      "трево": 9134,
      " - в ": 9135,
      "уволь": 9136,
      "лужбы ": 9137,
      "игров": 9138,
      "хотят ": 9139,
      "чтобы": 9140,
      "ается.\n": 9141,
      "статьи ": 9142,
      "беремен": 9143,
      "дачи ": 9144,
      "эксперты ": 9145,
      ", чем в ": 9146,
      " психи": 9147,
      "женщины": 9148,
      "фракции ": 9149,
      "Здесь ": 9150,
      "54": 9151,
      "Групп": 9152,
      "Пути": 9153,
      "Яцен": 9154,
      "раши": 9155,
      "ротив": 9156,
      "роли ": 9157,
      "замед": 9158,
      "ли, ": 9159,
      "щик ": 9160,
      "овощ": 9161,
      "доля ": 9162,
      "звез": 9163,
      "крыш": 9164,
      "библиот": 9165,
      "и вос": 9166,
      "числе ": 9167,
      "организации.\n": 9168,
      " воспользов": 9169,
      " проведение ": 9170,
      " платфор": 9171,
      "использования ": 9172,
      "эксперт.\n": 9173,
      " марта.\n": 9174,
      "добыч": 9175,
      "Илья ": 9176,
      " предупред": 9177,
      " впечат": 9178,
      " потенци": 9179,
      "далеко": 9180,
      "\"на": 9181,
      "-е ": 9182,
      "07": 9183,
      "Бай": 9184,
      "Пов": 9185,
      "Парти": 9186,
      "Польш": 9187,
      "Хаб": 9188,
      "ке в": 9189,
      "м\" ": 9190,
      "элит": 9191,
      "есуэ": 9192,
      " прожив": 9193,
      "работы.\n": 9194,
      "получ": 9195,
      " после по": 9196,
      " провока": 9197,
      "мотив": 9198,
      " в Сирии": 9199,
      "our": 9200,
      "ОПЕК": 9201,
      "исследователь": 9202,
      " профилакти": 9203,
      "% - ": 9204,
      "-Дон": 9205,
      "Ян": 9206,
      "у по": 9207,
      " плав": 9208,
      "а за ": 9209,
      "осред": 9210,
      "ессион": 9211,
      "емые ": 9212,
      "армей": 9213,
      "ание в ": 9214,
      " на то, что ": 9215,
      "най": 9216,
      " выда": 9217,
      " приказ": 9218,
      "думы": 9219,
      " напада": 9220,
      "онаруш": 9221,
      " поддержку": 9222,
      " нужда": 9223,
      "клиента": 9224,
      "oom": 9225,
      "радикаль": 9226,
      "\"Роснефти": 9227,
      "оценива": 9228,
      "Керри": 9229,
      "Благодар": 9230,
      "?\"": 9231,
      "An": 9232,
      "шему ": 9233,
      "старт": 9234,
      " свыше ": 9235,
      "обес": 9236,
      "ет и ": 9237,
      " причина": 9238,
      "России по": 9239,
      "В частности": 9240,
      "неполити": 9241,
      "из которых ": 9242,
      " сообщения ": 9243,
      "товари": 9244,
      "рубля": 9245,
      " средства ": 9246,
      " верх": 9247,
      "купить ": 9248,
      "региона.\n": 9249,
      "е время.\n": 9250,
      " первым ": 9251,
      "an ": 9252,
      "ителями": 9253,
      "кредито": 9254,
      "девять ": 9255,
      "Госдуму": 9256,
      "зоне ": 9257,
      "беспилот": 9258,
      "Екатерина ": 9259,
      " совсем ": 9260,
      " влияни": 9261,
      "зависимости от ": 9262,
      "стиму": 9263,
      "SJ": 9264,
      "Зад": 9265,
      "Куд": 9266,
      "НХ": 9267,
      "Свобод": 9268,
      "Хоро": 9269,
      "лением": 9270,
      "штур": 9271,
      "ых.\n": 9272,
      "е за ": 9273,
      "институ": 9274,
      "обост": 9275,
      "заключа": 9276,
      "цидент": 9277,
      " подключ": 9278,
      "Росп": 9279,
      " много": 9280,
      "долгов": 9281,
      "минус": 9282,
      "192": 9283,
      "испы": 9284,
      "Инцидент": 9285,
      " в Санкт-Петербург": 9286,
      "группы": 9287,
      " первый": 9288,
      " млрд рублей": 9289,
      "регули": 9290,
      " проверки ": 9291,
      "иться к ": 9292,
      "увеличить ": 9293,
      "Дмитрий Медведев": 9294,
      " сохраня": 9295,
      " система ": 9296,
      " тысяч рублей.\n": 9297,
      "Стоит ": 9298,
      "одним из": 9299,
      "Реги": 9300,
      " соревнования": 9301,
      "Барак ": 9302,
      "Луган": 9303,
      " рублей ": 9304,
      "op": 9305,
      "Нам": 9306,
      "Сим": 9307,
      "Эти": 9308,
      "к-": 9309,
      " в воскресень": 9310,
      " нож": 9311,
      "инского ": 9312,
      " невы": 9313,
      " по итогам": 9314,
      "ных с ": 9315,
      "е вним": 9316,
      "заявили ": 9317,
      " правонаруш": 9318,
      "янва": 9319,
      "экран": 9320,
      "казалось": 9321,
      "ском район": 9322,
      "154": 9323,
      "Владимиром ": 9324,
      " наша ": 9325,
      "ank": 9326,
      "официально ": 9327,
      " году в ": 9328,
      "Но в ": 9329,
      " соответствен": 9330,
      "Франции": 9331,
      "университета ": 9332,
      " пищ": 9333,
      "инциден": 9334,
      " причиной ": 9335,
      "какой-то ": 9336,
      "отрасл": 9337,
      "одержа": 9338,
      " в понедельник, ": 9339,
      "костю": 9340,
      "общей слож": 9341,
      " л.": 9342,
      ",\n": 9343,
      "Двор": 9344,
      "Дело": 9345,
      "Тим": 9346,
      "лы ": 9347,
      " сценари": 9348,
      "енс": 9349,
      "нижение ": 9350,
      "емся ": 9351,
      "та на ": 9352,
      "миру": 9353,
      "ек.\n": 9354,
      "договора": 9355,
      " выполня": 9356,
      "те, ": 9357,
      "убит": 9358,
      "места ": 9359,
      " переговора": 9360,
      ", сам": 9361,
[...]
