[UNK]	0
[CLS]	1
[SEP]	2
[PAD]	3
[MASK]	4
!	5
"	6
#	7
$	8
%	9
&	10
'	11
(	12
)	13
*	14
+	15
,	16
-	17
.	18
/	19
0	20
1	21
2	22
3	23
4	24
5	25
6	26
7	27
8	28
9	29
:	30
;	31
<	32
=	33
>	34
?	35
@	36
[	37
\	38
]	39
_	40
`	41
a	42
b	43
c	44
d	45
e	46
f	47
g	48
h	49
i	50
j	51
k	52
l	53
m	54
n	55
o	56
p	57
q	58
r	59
s	60
t	61
u	62
v	63
w	64
x	65
y	66
z	67
~	68
	69
£	70
¤	71
¥	72
¦	73
§	74
©	75
¬	76
­	77
°	78
·	79
×	80
ß	81
à	82
á	83
ä	84
ç	85
è	86
é	87
ê	88
ë	89
í	90
ð	91
ó	92
ô	93
õ	94
ö	95
ø	96
ü	97
þ	98
ā	99
ę	100
ī	101
ı	102
ł	103
ń	104
ŏ	105
ś	106
ş	107
š	108
ʀ	109
ʼ	110
́	111
̆	112
̇	113
̈	114
̊	115
έ	116
α	117
β	118
γ	119
η	120
λ	121
μ	122
ν	123
ο	124
ρ	125
σ	126
τ	127
χ	128
ώ	129
а	130
б	131
в	132
г	133
д	134
е	135
ж	136
з	137
и	138
й	139
к	140
л	141
м	142
н	143
о	144
п	145
р	146
с	147
т	148
у	149
ф	150
х	151
ц	152
ч	153
ш	154
щ	155
ъ	156
ы	157
ь	158
э	159
ю	160
я	161
є	162
і	163
ї	164
ў	165
џ	166
ғ	167
қ	168
ҳ	169
ӣ	170
‍	171
‎	172
‐	173
‒	174
―	175
•	176
‪	177
‬	178
′	179
⁄	180
€	181
→	182
−	183
∙	184
⋅	185
─	186
■	187
▲	188
►	189
●	190
☃	191
☝	192
♫	193
⚽	194
❄	195
《	196
》	197
	198
️	199
🌞	200
🍺	201
🎂	202
🐅	203
🐗	204
🐺	205
💪	206
😂	207
🙈	208
##ф	209
##т	210
##а	211
##ь	212
##о	213
##н	214
##u	215
##r	216
##р	217
##ю	218
##с	219
##я	220
##ч	221
##7	222
##у	223
##л	224
##д	225
##б	226
##з	227
##и	228
##к	229
##t	230
##y	231
##l	232
##e	233
##й	234
##м	235
##е	236
##ц	237
##п	238
##х	239
##a	240
##p	241
##v	242
##ы	243
##i	244
##c	245
##s	246
##в	247
##ш	248
##o	249
##m	250
##n	251
##g	252
##г	253
##b	254
##5	255
##6	256
##k	257
##і	258
##9	259
##8	260
##2	261
##э	262
##0	263
##щ	264
##4	265
##3	266
##w	267
##d	268
##q	269
##ж	270
##h	271
##f	272
##x	273
##"	274
##,	275
##1	276
##z	277
##ü	278
##ö	279
##ъ	280
##-	281
##j	282
##;	283
##є	284
##é	285
##.	286
##)	287
##ä	288
##ó	289
##õ	290
##ў	291
##ї	292
##̇	293
##/	294
###	295
##+	296
##ο	297
##μ	298
##ν	299
##í	300
##ҳ	301
##ð	302
##ғ	303
##:	304
##η	305
##σ	306
##=	307
##>	308
##ë	309
##$	310
##ş	311
##à	312
##ʼ	313
##қ	314
##*	315
##ç	316
##ώ	317
##α	318
##?	319
##γ	320
##έ	321
##ā	322
##_	323
##ę	324
##ê	325
##ī	326
##ʀ	327
##þ	328
##%	329
##ø	330
##′	331
##!	332
##]	333
по	334
##ст	335
на	336
пр	337
##то	338
##ен	339
##ер	340
##ов	341
##ет	342
##ни	343
ов	344
##ан	345
##ел	346
##го	347
но	348
ст	349
ко	350
не	351
##од	352
за	353
ра	354
##ед	355
##ор	356
##ск	357
##ли	358
##ра	359
ит	360
##но	361
##ин	362
об	363
##ль	364
ом	365
##ос	366
ен	367
от	368
##ся	369
ны	370
про	371
##ла	372
##ем	373
ка	374
ни	375
ени	376
из	377
##ко	378
##ал	379
что	380
то	381
##ит	382
ой	383
##ть	384
до	385
ре	386
##ва	387
##ро	388
ил	389
та	390
##ил	391
ан	392
при	393
ол	394
ин	395
##си	396
со	397
вы	398
##ка	399
он	400
это	401
во	402
##ми	403
ли	404
ер	405
##тор	406
##ав	407
бы	408
ор	409
##он	410
##уд	411
год	412
тр	413
ост	414
##ель	415
ей	416
мо	417
ого	418
##ат	419
ал	420
рос	421
ие	422
##во	423
##ти	424
их	425
ар	426
ру	427
##ек	428
##ент	429
ри	430
##ки	431
раз	432
##ци	433
ет	434
##ар	435
ме	436
оп	437
ия	438
##ля	439
##ей	440
пер	441
ро	442
##ес	443
котор	444
од	445
ани	446
##ир	447
пред	448
##ны	449
ци	450
росси	451
##че	452
ить	453
ос	454
##же	455
##ез	456
##ло	457
под	458
##от	459
##об	460
им	461
ий	462
ла	463
##сти	464
ые	465
##ру	466
##жд	467
##ма	468
##да	469
##ле	470
ает	471
##ур	472
ая	473
##ств	474
ых	475
ии	476
лен	477
де	478
ения	479
кон	480
са	481
его	482
ско	483
ах	484
тор	485
##ут	486
так	487
ль	488
как	489
##на	490
ам	491
##сс	492
иче	493
ическ	494
##сь	495
ем	496
ист	497
##сп	498
##ви	499
ать	500
ат	501
ся	502
##ют	503
сл	504
ый	505
ев	506
ных	507
пос	508
стр	509
##ис	510
для	511
вс	512
ник	513
ение	514
##льн	515
##ев	516
##ол	517
ной	518
ком	519
ного	520
##ож	521
ти	522
ав	523
##ча	524
ив	525
итель	526
оз	527
ми	528
ств	529
ую	530
ое	531
ви	532
раб	533
сп	534
те	535
##ги	536
ами	537
ир	538
ть	539
ес	540
буд	541
##та	542
##каз	543
тел	544
се	545
ки	546
##общ	547
##сть	548
да	549
ок	550
##ят	551
##кт	552
нов	553
йск	554
ные	555
пере	556
тер	557
##уп	558
кр	559
вер	560
ный	561
все	562
прав	563
ски	564
работ	565
пре	566
сообщ	567
лени	568
##ее	569
##ект	570
тв	571
ее	572
ля	573
##чн	574
ог	575
ма	576
сто	577
этом	578
##льк	579
ад	580
сво	581
яв	582
ед	583
##уж	584
ста	585
##уч	586
##еч	587
##им	588
бо	589
ым	590
гла	591
пол	592
гов	593
ча	594
говор	595
##ую	596
##ик	597
вед	598
ут	599
су	600
ик	601
мы	602
ск	603
гра	604
гор	605
ур	606
ак	607
##ыв	608
лет	609
гос	610
ран	611
уд	612
ят	613
сам	614
ход	615
комп	616
мир	617
##вн	618
ку	619
ред	620
ек	621
па	622
ва	623
мож	624
кра	625
или	626
ию	627
##бр	628
ания	629
али	630
мен	631
мест	632
также	633
##ход	634
ции	635
ности	636
след	637
руб	638
став	639
##из	640
ай	641
ства	642
##ог	643
ство	644
воз	645
##ул	646
ном	647
##лю	648
мер	649
дент	650
##ран	651
##льш	652
оч	653
каз	654
го	655
ают	656
ской	657
тран	658
вид	659
##дел	660
будет	661
вод	662
же	663
##лен	664
кан	665
##бы	666
лю	667
##ерж	668
уб	669
##ди	670
##рав	671
дел	672
##ре	673
през	674
ель	675
ров	676
году	677
реш	678
рас	679
мет	680
прези	681
мент	682
эк	683
##ных	684
ест	685
они	686
иров	687
##тов	688
лов	689
расс	690
ве	691
нес	692
##ще	693
##не	694
ным	695
ости	696
##ам	697
инт	698
##ган	699
ова	700
оск	701
уже	702
ты	703
##ной	704
##ном	705
ении	706
##ита	707
после	708
##вы	709
##яв	710
тель	711
см	712
иг	713
ность	714
ится	715
пар	716
##ри	717
ное	718
##ющ	719
мин	720
ис	721
тро	722
ду	723
был	724
##ве	725
ива	726
##ша	727
поли	728
ского	729
мл	730
том	731
она	732
орган	733
ков	734
нач	735
ют	736
лож	737
чем	738
##сн	739
##ии	740
уч	741
##яз	742
уча	743
ел	744
чер	745
без	746
##гда	747
дол	748
##емя	749
было	750
город	751
ная	752
вр	753
##екс	754
гол	755
остав	756
чел	757
время	758
оро	759
зна	760
##их	761
интер	762
ость	763
ле	764
##тив	765
##нов	766
##рт	767
##ой	768
челов	769
##де	770
овы	771
мини	772
##ий	773
еще	774
ласти	775
ус	776
чет	777
##ник	778
##ень	779
тольк	780
начал	781
пу	782
##руп	783
может	784
##иц	785
тви	786
##рос	787
рез	788
##ян	789
мог	790
тур	791
уп	792
евро	793
ется	794
если	795
нап	796
##оч	797
ян	798
явил	799
сов	800
ди	801
##ыт	802
ук	803
рем	804
иза	805
##яд	806
ила	807
вла	808
##ябр	809
ании	810
##ня	811
##ом	812
олее	813
кор	814
га	815
##рат	816
стран	817
участ	818
##жду	819
между	820
ап	821
сша	822
цент	823
иц	824
##люч	825
еств	826
аг	827
мат	828
ас	829
бор	830
цион	831
того	832
##те	833
ож	834
ступ	835
ления	836
авто	837
##ось	838
веден	839
аз	840
##ени	841
олж	842
перв	843
сказ	844
##ме	845
минис	846
##ше	847
арств	848
##есс	849
кольк	850
##лик	851
инф	852
##ного	853
##ейс	854
анк	855
изв	856
дет	857
би	858
##ные	859
луч	860
вел	861
зв	862
##руг	863
ло	864
чтобы	865
ную	866
иа	867
вз	868
##ад	869
озм	870
центр	871
озмож	872
коном	873
ается	874
##мен	875
держ	876
тре	877
были	878
уст	879
огла	880
роект	881
##тат	882
кур	883
альн	884
отр	885
ован	886
ский	887
олуч	888
че	889
ому	890
##бор	891
нар	892
рф	893
цен	894
око	895
готов	896
##сто	897
дор	898
тех	899
##ку	900
лед	901
больш	902
госуд	903
род	904
ср	905
над	906
исп	907
св	908
пл	909
тан	910
эти	911
анд	912
ня	913
сир	914
##мм	915
си	916
опрос	917
сред	918
отно	919
ош	920
##ац	921
му	922
атель	923
нт	924
ры	925
народ	926
зд	927
алекс	928
##пи	929
нет	930
ублик	931
фа	932
краин	933
долж	934
сч	935
мар	936
оф	937
ранее	938
ует	939
ремен	940
кл	941
еч	942
##це	943
суд	944
когда	945
ыми	946
ледов	947
ох	948
##ции	949
есть	950
аб	951
дейс	952
ец	953
ений	954
газ	955
##стн	956
тем	957
##тр	958
##анд	959
ид	960
ерт	961
тра	962
##стр	963
перед	964
пут	965
ствен	966
ание	967
ими	968
орма	969
##вер	970
пис	971
вш	972
счита	973
тав	974
##га	975
##му	976
нима	977
мол	978
фед	979
##ным	980
##циа	981
ьтат	982
##ним	983
этого	984
дж	985
##ящ	986
ению	987
годня	988
бу	989
ился	990
полн	991
наз	992
ться	993
эксп	994
ающ	995
кт	996
##ери	997
ряд	998
##час	999
нас	1000
ейчас	1001
явля	1002
асс	1003
ными	1004
осси	1005
##чин	1006
резул	1007
полит	1008
груп	1009
ольш	1010
групп	1011
жд	1012
##ив	1013
опер	1014
хо	1015
##зов	1016
отруд	1017
ловам	1018
отнош	1019
ез	1020
влади	1021
енно	1022
ление	1023
ке	1024
стал	1025
тся	1026
наш	1027
##ясн	1028
орт	1029
кла	1030
сед	1031
ала	1032
##мер	1033
иться	1034
гр	1035
ыва	1036
##ина	1037
опа	1038
неф	1039
ень	1040
торон	1041
чис	1042
изаци	1043
овал	1044
нару	1045
ивн	1046
ru	1047
##ста	1048
гражд	1049
дна	1050
млн	1051
стан	1052
##ущ	1053
ских	1054
фи	1055
теля	1056
бл	1057
рай	1058
европ	1059
днако	1060
метил	1061
##бо	1062
риз	1063
##кон	1064
лиш	1065
будут	1066
знач	1067
кол	1068
телей	1069
орм	1070
служ	1071
охран	1072
федер	1073
олог	1074
главн	1075
ово	1076
была	1077
ников	1078
ген	1079
иск	1080
произ	1081
мил	1082
совет	1083
дви	1084
аем	1085
себ	1086
##енн	1087
един	1088
ротив	1089
ковод	1090
могут	1091
##ец	1092
сел	1093
рав	1094
где	1095
мотр	1096
ьн	1097
ска	1098
ция	1099
уж	1100
истем	1101
следн	1102
иту	1103
##00	1104
рубле	1105
можно	1106
них	1107
ики	1108
ип	1109
очень	1110
один	1111
быть	1112
##кол	1113
оказ	1114
связ	1115
ью	1116
руги	1117
ему	1118
##ный	1119
таки	1120
заяв	1121
ич	1122
траны	1123
иру	1124
закон	1125
отв	1126
аш	1127
##рд	1128
оманд	1129
ейск	1130
##лиц	1131
два	1132
отм	1133
оста	1134
млрд	1135
итуац	1136
##ыл	1137
яет	1138
ось	1139
##дан	1140
лист	1141
ивш	1142
ех	1143
сего	1144
ыст	1145
люб	1146
ну	1147
##еж	1148
ьзов	1149
##ус	1150
овер	1151
овать	1152
наход	1153
фон	1154
##nt	1155
##по	1156
спор	1157
##анс	1158
енных	1159
##сяч	1160
друг	1161
техн	1162
управ	1163
ием	1164
ились	1165
дв	1166
жиз	1167
ото	1168
тысяч	1169
ква	1170
твов	1171
ба	1172
лся	1173
район	1174
##ител	1175
дир	1176
пи	1177
грамм	1178
##овн	1179
иальн	1180
амери	1181
глава	1182
инанс	1183
милли	1184
андр	1185
оль	1186
##уб	1187
дву	1188
##лич	1189
оглас	1190
##цен	1191
ги	1192
##ия	1193
лиц	1194
##уча	1195
бли	1196
пра	1197
укра	1198
вели	1199
оссия	1200
блем	1201
голов	1202
##ых	1203
##er	1204
ено	1205
ыв	1206
ита	1207
нд	1208
усл	1209
утин	1210
теле	1211
основ	1212
полиц	1213
опера	1214
ег	1215
ело	1216
ун	1217
ответ	1218
##ить	1219
необ	1220
лат	1221
обра	1222
терри	1223
извес	1224
цел	1225
моб	1226
доб	1227
кро	1228
тыс	1229
много	1230
##ощ	1231
##оро	1232
тели	1233
мед	1234
ество	1235
##ком	1236
пресс	1237
одим	1238
мобил	1239
##кой	1240
даже	1241
сер	1242
зап	1243
##ок	1244
есп	1245
хот	1246
этому	1247
ники	1248
опас	1249
стреч	1250
транс	1251
##ну	1252
гро	1253
место	1254
ключ	1255
ольше	1256
стоян	1257
пла	1258
реа	1259
мор	1260
##ест	1261
аль	1262
аж	1263
редел	1264
летн	1265
ыступ	1266
ервы	1267
объ	1268
анным	1269
стро	1270
бр	1271
бел	1272
ум	1273
ующ	1274
##ета	1275
ская	1276
ха	1277
##олн	1278
рын	1279
необх	1280
цию	1281
##анк	1282
ще	1283
казал	1284
защ	1285
право	1286
пом	1287
военн	1288
бес	1289
точ	1290
еги	1291
твия	1292
украи	1293
около	1294
дирек	1295
##зу	1296
илась	1297
путат	1298
##вин	1299
лег	1300
сен	1301
ния	1302
##нес	1303
ись	1304
авш	1305
ана	1306
##са	1307
нти	1308
этот	1309
рин	1310
le	1311
##сим	1312
пет	1313
сдел	1314
пуск	1315
быв	1316
##ие	1317
пе	1318
ался	1319
##нер	1320
канск	1321
чит	1322
недел	1323
ивает	1324
рен	1325
ример	1326
рус	1327
ави	1328
ением	1329
тно	1330
име	1331
оверш	1332
оцен	1333
клад	1334
выс	1335
аться	1336
предп	1337
являе	1338
щик	1339
юд	1340
ул	1341
ены	1342
люд	1343
доку	1344
тен	1345
ним	1346
нич	1347
месте	1348
выбор	1349
реж	1350
аки	1351
порт	1352
рат	1353
##щен	1354
ние	1355
ери	1356
танов	1357
ека	1358
омощ	1359
стра	1360
три	1361
лучил	1362
истра	1363
устан	1364
иал	1365
##атр	1366
спорт	1367
ика	1368
всех	1369
раж	1370
маш	1371
дал	1372
тву	1373
лись	1374
еб	1375
кач	1376
агент	1377
звал	1378
мон	1379
кин	1380
ыш	1381
стави	1382
иф	1383
##льт	1384
план	1385
ител	1386
сла	1387
еть	1388
ющ	1389
ества	1390
истор	1391
снов	1392
##ду	1393
извод	1394
стоящ	1395
пока	1396
частн	1397
отмеч	1398
ника	1399
ейш	1400
троит	1401
ях	1402
сро	1403
офиц	1404
сни	1405
енко	1406
него	1407
рак	1408
чик	1409
ерг	1410
илось	1411
##отв	1412
луж	1413
##аж	1414
ские	1415
мь	1416
движ	1417
сра	1418
инг	1419
измен	1420
наруш	1421
нени	1422
вал	1423
рист	1424
омент	1425
терро	1426
бур	1427
спец	1428
испол	1429
##един	1430
##том	1431
##ующ	1432
кто	1433
##би	1434
круп	1435
нуж	1436
вани	1437
курс	1438
обвин	1439
ило	1440
нос	1441
ском	1442
вос	1443
теп	1444
лич	1445
вой	1446
показ	1447
дм	1448
ятся	1449
##жет	1450
редит	1451
тк	1452
10	1453
этой	1454
пособ	1455
мьер	1456
лект	1457
всем	1458
крупн	1459
дан	1460
ляет	1461
рт	1462
аний	1463
защит	1464
авиа	1465
##сяц	1466
там	1467
лид	1468
##инг	1469
себя	1470
рани	1471
рег	1472
твующ	1473
месяц	1474
циона	1475
поб	1476
юджет	1477
чемпи	1478
отре	1479
изнес	1480
##вар	1481
само	1482
через	1483
бира	1484
сет	1485
жител	1486
двух	1487
льно	1488
вести	1489
##юз	1490
тя	1491
сирии	1492
егион	1493
респ	1494
ведом	1495
енные	1496
шло	1497
новос	1498
бург	1499
стви	1500
день	1501
дела	1502
жи	1503
вра	1504
куп	1505
пор	1506
ья	1507
числе	1508
свою	1509
голос	1510
отказ	1511
##итр	1512
сбор	1513
лит	1514
эта	1515
жел	1516
одно	1517
филь	1518
##лаг	1519
еп	1520
рам	1521
ьник	1522
ять	1523
нем	1524
енной	1525
ричин	1526
нск	1527
ному	1528
ались	1529
дав	1530
апр	1531
овой	1532
кроме	1533
кварт	1534
дмитр	1535
##ак	1536
йд	1537
гл	1538
##гиб	1539
соотв	1540
ецк	1541
нии	1542
кци	1543
##нир	1544
рия	1545
велич	1546
рован	1547
школ	1548
овых	1549
ара	1550
##мин	1551
лим	1552
ются	1553
стве	1554
ман	1555
лаг	1556
матер	1557
бра	1558
##вол	1559
##лож	1560
сь	1561
сс	1562
##есь	1563
град	1564
ланир	1565
олла	1566
алось	1567
хоро	1568
игра	1569
##ык	1570
конц	1571
акт	1572
соб	1573
зем	1574
админ	1575
езд	1576
оскве	1577
гер	1578
нее	1579
обств	1580
ческ	1581
дд	1582
нев	1583
менно	1584
сай	1585
мит	1586
ъект	1587
етс	1588
##ым	1589
##щин	1590
турци	1591
своей	1592
поз	1593
ктябр	1594
апрел	1595
член	1596
ям	1597
лектр	1598
ивать	1599
стать	1600
январ	1601
добав	1602
ткр	1603
полаг	1604
ткрыт	1605
15	1606
селен	1607
вк	1608
##ый	1609
тории	1610
отреб	1611
местн	1612
озвол	1613
оллар	1614
##nta	1615
але	1616
lenta	1617
20	1618
овые	1619
##отр	1620
смотр	1621
дач	1622
##зда	1623
созда	1624
казан	1625
прос	1626
олжны	1627
ент	1628
держк	1629
вет	1630
тябр	1631
овлен	1632
фф	1633
тивн	1634
связи	1635
дорог	1636
уз	1637
ожи	1638
##жн	1639
реб	1640
ергей	1641
лиз	1642
лидер	1643
ией	1644
особ	1645
арти	1646
факт	1647
уг	1648
сущ	1649
скор	1650
труд	1651
служб	1652
вит	1653
вар	1654
росто	1655
блю	1656
уровн	1657
вое	1658
асп	1659
прин	1660
оор	1661
##бол	1662
##on	1663
лимпи	1664
енщин	1665
торг	1666
игр	1667
оздан	1668
цев	1669
пы	1670
льной	1671
дн	1672
##гра	1673
##сят	1674
сев	1675
поч	1676
мод	1677
тов	1678
рк	1679
тасс	1680
сми	1681
йти	1682
лучш	1683
омним	1684
жил	1685
подин	1686
фильм	1687
луча	1688
хва	1689
оби	1690
людей	1691
дон	1692
ноябр	1693
рост	1694
зн	1695
##an	1696
стар	1697
емь	1698
лощ	1699
сдела	1700
мал	1701
##лог	1702
ругих	1703
ддерж	1704
обяз	1705
час	1706
матч	1707
исс	1708
культ	1709
прод	1710
машин	1711
ней	1712
налог	1713
обы	1714
доста	1715
дем	1716
ели	1717
уют	1718
виде	1719
вестн	1720
разн	1721
ятель	1722
еспеч	1723
нальн	1724
ини	1725
тон	1726
побед	1727
крыт	1728
укт	1729
шт	1730
лин	1731
страд	1732
ту	1733
вот	1734
лучае	1735
очн	1736
ожида	1737
ье	1738
воб	1739
сти	1740
тар	1741
риа	1742
десят	1743
лощад	1744
уктур	1745
енн	1746
ровод	1747
сновн	1748
вобод	1749
еж	1750
сек	1751
ризна	1752
in	1753
гру	1754
втор	1755
шел	1756
##езд	1757
сил	1758
еты	1759
пуст	1760
натор	1761
источ	1762
ере	1763
ходе	1764
естве	1765
зам	1766
тяж	1767
седа	1768
##дат	1769
##неш	1770
дидат	1771
##тон	1772
утбол	1773
вин	1774
кар	1775
шли	1776
жизни	1777
##мп	1778
ближ	1779
фор	1780
отдел	1781
част	1782
ранич	1783
ащ	1784
арт	1785
марта	1786
пыта	1787
канал	1788
появ	1789
свои	1790
хоз	1791
ял	1792
##or	1793
хорош	1794
твор	1795
артии	1796
##еп	1797
главы	1798
огда	1799
оглаш	1800
ству	1801
яют	1802
ществ	1803
мно	1804
еро	1805
ервый	1806
назыв	1807
лишь	1808
мур	1809
рынк	1810
изм	1811
нению	1812
крым	1813
##утр	1814
разов	1815
чин	1816
вяз	1817
олож	1818
оциа	1819
уш	1820
ужчин	1821
фер	1822
жив	1823
верну	1824
ичн	1825
##шл	1826
стат	1827
улиц	1828
ового	1829
сут	1830
фонд	1831
своих	1832
ями	1833
ена	1834
рек	1835
стало	1836
равил	1837
зав	1838
онд	1839
лась	1840
##ar	1841
трамп	1842
вп	1843
крат	1844
обяза	1845
цесс	1846
чере	1847
груз	1848
фин	1849
осквы	1850
нг	1851
оли	1852
удал	1853
вн	1854
##зи	1855
нужно	1856
вли	1857
ито	1858
чен	1859
ериод	1860
числ	1861
фес	1862
пециа	1863
##нул	1864
##дум	1865
мента	1866
осдум	1867
преду	1868
услов	1869
сири	1870
аэ	1871
кой	1872
гон	1873
объем	1874
вития	1875
мне	1876
льн	1877
сыл	1878
ела	1879
нор	1880
парла	1881
цы	1882
лении	1883
##ун	1884
ател	1885
12	1886
четве	1887
анных	1888
пост	1889
олю	1890
есн	1891
клуб	1892
стали	1893
хват	1894
##лек	1895
внутр	1896
30	1897
##ная	1898
трет	1899
ирует	1900
почти	1901
ниц	1902
пит	1903
ард	1904
молод	1905
зыв	1906
##es	1907
конце	1908
колич	1909
красн	1910
сутс	1911
дать	1912
рамк	1913
бар	1914
эт	1915
др	1916
вор	1917
нефти	1918
общ	1919
ант	1920
ари	1921
ерь	1922
пад	1923
остью	1924
тране	1925
обе	1926
ново	1927
детей	1928
руч	1929
ратур	1930
бла	1931
уа	1932
беж	1933
фр	1934
дома	1935
ользу	1936
##ял	1937
ава	1938
полож	1939
маг	1940
ром	1941
часть	1942
практ	1943
бин	1944
вещ	1945
плат	1946
люди	1947
меня	1948
глав	1949
срок	1950
тп	1951
части	1952
##раф	1953
бло	1954
поясн	1955
стол	1956
сумм	1957
раст	1958
ооруж	1959
нам	1960
ложн	1961
ца	1962
ера	1963
no	1964
редн	1965
отому	1966
тября	1967
одной	1968
включ	1969
позиц	1970
инск	1971
лял	1972
пят	1973
верш	1974
уть	1975
шн	1976
омощь	1977
гу	1978
актив	1979
твует	1980
мещен	1981
бер	1982
одерж	1983
олжен	1984
годн	1985
мерен	1986
ностр	1987
твие	1988
благо	1989
нять	1990
##уг	1991
режд	1992
жур	1993
сильн	1994
усп	1995
сборн	1996
оступ	1997
успе	1998
онат	1999
метр	2000
оюз	2001
тоим	2002
инв	2003
санк	2004
рияти	2005
санкц	2006
анию	2007
ади	2008
сключ	2009
комме	2010
точно	2011
перс	2012
округ	2013
верен	2014
наруж	2015
суб	2016
режим	2017
дт	2018
ообщ	2019
сети	2020
полу	2021
ороны	2022
трол	2023
##ая	2024
итог	2025
фев	2026
парат	2027
ругие	2028
аци	2029
ась	2030
хи	2031
зван	2032
ерьез	2033
тит	2034
уто	2035
ъясн	2036
авг	2037
росл	2038
февра	2039
тправ	2040
аст	2041
мв	2042
##ьб	2043
утвер	2044
доход	2045
смен	2046
авгус	2047
теч	2048
иаль	2049
дорож	2050
кажд	2051
сниж	2052
треб	2053
сад	2054
высок	2055
айш	2056
шир	2057
эр	2058
ше	2059
сих	2060
жела	2061
ама	2062
гран	2063
прет	2064
власт	2065
co	2066
жизн	2067
нтон	2068
молет	2069
инств	2070
чи	2071
аксим	2072
##ям	2073
вол	2074
##ью	2075
аются	2076
оедин	2077
блок	2078
уется	2079
енее	2080
ывает	2081
ике	2082
##ерт	2083
дного	2084
йн	2085
седан	2086
миров	2087
ио	2088
шта	2089
пож	2090
исход	2091
энер	2092
борьб	2093
энерг	2094
ировк	2095
разом	2096
кабр	2097
образ	2098
бывш	2099
тик	2100
стоят	2101
ивают	2102
читыв	2103
надо	2104
ано	2105
вес	2106
крыл	2107
кос	2108
кабря	2109
проце	2110
никак	2111
ложил	2112
аэро	2113
такой	2114
петер	2115
еск	2116
остан	2117
ицу	2118
ечно	2119
топ	2120
лова	2121
сполн	2122
сужд	2123
угро	2124
сылк	2125
инвес	2126
мас	2127
пен	2128
уль	2129
иха	2130
вни	2131
фо	2132
гля	2133
тот	2134
русск	2135
долг	2136
назад	2137
зон	2138
онов	2139
ерб	2140
ское	2141
штаб	2142
25	2143
едь	2144
ффект	2145
##al	2146
ивал	2147
еньги	2148
мести	2149
киев	2150
смерт	2151
алась	2152
итай	2153
жен	2154
арм	2155
имо	2156
казыв	2157
ышлен	2158
справ	2159
сматр	2160
рит	2161
овый	2162
юр	2163
дня	2164
мая	2165
этих	2166
тол	2167
роди	2168
зж	2169
##рыв	2170
иван	2171
иль	2172
трех	2173
обрат	2174
среди	2175
питал	2176
ящ	2177
##le	2178
ечер	2179
арест	2180
##oo	2181
писал	2182
ации	2183
гно	2184
торой	2185
##гио	2186
себе	2187
чу	2188
итета	2189
ополн	2190
губ	2191
регио	2192
оряд	2193
лять	2194
тиц	2195
внима	2196
яя	2197
тоит	2198
одоб	2199
здан	2200
ите	2201
фран	2202
ством	2203
удов	2204
близ	2205
11	2206
худ	2207
вания	2208
дис	2209
одобн	2210
важн	2211
личн	2212
рук	2213
рият	2214
ркнул	2215
подче	2216
имущ	2217
йский	2218
класс	2219
журна	2220
тин	2221
##he	2222
земл	2223
тоже	2224
должн	2225
адр	2226
парти	2227
##тивн	2228
граф	2229
убий	2230
хозя	2231
ажд	2232
дь	2233
пя	2234
север	2235
сегда	2236
дум	2237
ителя	2238
орядк	2239
лекс	2240
конод	2241
ступн	2242
мног	2243
##шен	2244
воего	2245
мере	2246
пенси	2247
прям	2248
делал	2249
парк	2250
этим	2251
банк	2252
ьян	2253
йские	2254
нст	2255
чь	2256
добр	2257
ассаж	2258
шед	2259
прещ	2260
твер	2261
гноз	2262
сез	2263
эту	2264
пять	2265
ноч	2266
енник	2267
верси	2268
сезон	2269
заб	2270
ихся	2271
конч	2272
ато	2273
ущ	2274
минут	2275
сущес	2276
обира	2277
знан	2278
пон	2279
анков	2280
##оп	2281
анием	2282
тверд	2283
воим	2284
##гие	2285
влия	2286
никол	2287
слов	2288
ге	2289
толиц	2290
годы	2291
ребен	2292
тогда	2293
ринят	2294
акие	2295
йдет	2296
либо	2297
дума	2298
гром	2299
нстру	2300
ате	2301
удар	2302
фото	2303
указ	2304
стала	2305
нди	2306
вят	2307
##сл	2308
верк	2309
иш	2310
##кс	2311
доров	2312
тиво	2313
взрыв	2314
ским	2315
лета	2316
здесь	2317
ногие	2318
несен	2319
руж	2320
гляд	2321
римен	2322
кино	2323
тест	2324
айн	2325
осл	2326
устро	2327
блюда	2328
ион	2329
шла	2330
яется	2331
шен	2332
роз	2333
рий	2334
погиб	2335
крыв	2336
шедш	2337
ша	2338
будущ	2339
мурма	2340
нег	2341
ставк	2342
сравн	2343
олев	2344
своем	2345
могли	2346
рожд	2347
бил	2348
иго	2349
мел	2350
льных	2351
мвд	2352
имею	2353
фли	2354
тия	2355
станц	2356
ренд	2357
риним	2358
юс	2359
висим	2360
больн	2361
урн	2362
пам	2363
моск	2364
литик	2365
дежд	2366
троен	2367
ензи	2368
росил	2369
аря	2370
ух	2371
ыск	2372
франц	2373
18	2374
илл	2375
тепер	2376
уточн	2377
товар	2378
фликт	2379
тог	2380
лизац	2381
руп	2382
озр	2383
хож	2384
чего	2385
ику	2386
реаль	2387
памят	2388
er	2389
ревн	2390
алл	2391
ладел	2392
муз	2393
ьев	2394
олот	2395
случа	2396
услуг	2397
давно	2398
кли	2399
##вик	2400
автор	2401
одна	2402
слав	2403
бесп	2404
регул	2405
##ce	2406
решил	2407
ослед	2408
новых	2409
влек	2410
##пис	2411
ало	2412
##вест	2413
анные	2414
акц	2415
видео	2416
креп	2417
права	2418
осто	2419
##за	2420
вязан	2421
ихаил	2422
ходит	2423
исло	2424
нефт	2425
свой	2426
дукт	2427
жден	2428
ывш	2429
рб	2430
олн	2431
усил	2432
тракт	2433
ункт	2434
сразу	2435
данн	2436
онк	2437
лив	2438
тнер	2439
мотря	2440
медиц	2441
онал	2442
нтов	2443
поп	2444
вока	2445
трен	2446
музык	2447
14	2448
50	2449
родаж	2450
таких	2451
омина	2452
##леч	2453
веду	2454
влеч	2455
чита	2456
ндр	2457
##ноп	2458
меш	2459
косм	2460
ьц	2461
аны	2462
емон	2463
обещ	2464
re	2465
овск	2466
мид	2467
выход	2468
ляци	2469
води	2470
вен	2471
иб	2472
имп	2473
кк	2474
##ге	2475
стрем	2476
озрев	2477
рск	2478
издан	2479
строи	2480
зор	2481
конф	2482
ракет	2483
ицы	2484
ъяв	2485
оруж	2486
коп	2487
сит	2488
дальн	2489
уда	2490
оевик	2491
мой	2492
окуп	2493
яч	2494
ласт	2495
объяв	2496
неж	2497
нефть	2498
чина	2499
свое	2500
ице	2501
отлич	2502
стрел	2503
мероп	2504
имеет	2505
ьзова	2506
слам	2507
быт	2508
##дач	2509
##роб	2510
тим	2511
стоит	2512
ехал	2513
герма	2514
ризис	2515
лог	2516
тай	2517
етыре	2518
рыв	2519
выше	2520
явлен	2521
проку	2522
тек	2523
ний	2524
13	2525
исто	2526
озник	2527
ьб	2528
иници	2529
вне	2530
разил	2531
##леж	2532
требо	2533
авл	2534
ктивн	2535
равн	2536
атем	2537
осков	2538
ып	2539
зар	2540
анс	2541
хотя	2542
нтир	2543
губер	2544
ляющ	2545
здрав	2546
оценк	2547
штраф	2548
яж	2549
суда	2550
изац	2551
аф	2552
скую	2553
логи	2554
искус	2555
одимо	2556
мов	2557
наком	2558
март	2559
рынке	2560
чинов	2561
ывший	2562
каж	2563
сайте	2564
як	2565
печ	2566
учас	2567
коноп	2568
нивер	2569
ейств	2570
16	2571
туд	2572
деп	2573
нял	2574
лений	2575
регис	2576
ахов	2577
восп	2578
ност	2579
новый	2580
учен	2581
инс	2582
рынка	2583
демо	2584
##со	2585
взят	2586
енц	2587
орд	2588
тогам	2589
ици	2590
театр	2591
ести	2592
обед	2593
дио	2594
##at	2595
пуля	2596
нужд	2597
вращ	2598
руш	2599
лужб	2600
22	2601
еме	2602
кции	2603
лаго	2604
ьск	2605
##ro	2606
##ман	2607
омн	2608
остоя	2609
енный	2610
кал	2611
лу	2612
пром	2613
олле	2614
рибы	2615
зов	2616
ошел	2617
ау	2618
остиг	2619
жизнь	2620
ощ	2621
аэроп	2622
ака	2623
арк	2624
писан	2625
урнал	2626
трат	2627
ритан	2628
леч	2629
ожд	2630
руго	2631
треть	2632
игор	2633
##она	2634
асл	2635
пиш	2636
йт	2637
задач	2638
быстр	2639
цией	2640
газет	2641
веч	2642
осущ	2643
шлого	2644
адици	2645
17	2646
окон	2647
танет	2648
модел	2649
обычн	2650
пожар	2651
угроз	2652
лось	2653
разви	2654
айте	2655
ервые	2656
аспро	2657
лан	2658
овали	2659
ази	2660
##re	2661
нед	2662
енд	2663
нынеш	2664
пыт	2665
строй	2666
врач	2667
меч	2668
равда	2669
кв	2670
елей	2671
алат	2672
тяжел	2673
ищ	2674
обор	2675
ина	2676
ельно	2677
рибыл	2678
шест	2679
цов	2680
##езн	2681
атак	2682
олжна	2683
фесси	2684
ъедин	2685
блемы	2686
бол	2687
оа	2688
ругой	2689
##ему	2690
ведет	2691
такие	2692
еш	2693
одейс	2694
тельн	2695
шенко	2696
марк	2697
титут	2698
ач	2699
##мес	2700
исси	2701
чера	2702
оллег	2703
овмес	2704
годов	2705
куб	2706
очему	2707
овым	2708
повы	2709
риход	2710
повыш	2711
амп	2712
##лиз	2713
ne	2714
атив	2715
ках	2716
рабоч	2717
дев	2718
воду	2719
оссию	2720
##ген	2721
хара	2722
две	2723
июн	2724
каса	2725
ниче	2726
боев	2727
июля	2728
гар	2729
низ	2730
финал	2731
опинг	2732
митет	2733
опыт	2734
рубл	2735
клон	2736
мире	2737
ероят	2738
норма	2739
шес	2740
##мо	2741
ток	2742
ствия	2743
изов	2744
омощи	2745
уальн	2746
орту	2747
дней	2748
нят	2749
лик	2750
ляют	2751
мощ	2752
очк	2753
яз	2754
ерж	2755
прис	2756
вольн	2757
телем	2758
##ag	2759
пуляр	2760
иев	2761
жал	2762
нвест	2763
орв	2764
конс	2765
цена	2766
аким	2767
ыгра	2768
карт	2769
онер	2770
вице	2771
ринял	2772
бой	2773
оон	2774
пара	2775
секре	2776
ндрей	2777
огиб	2778
мигра	2779
сф	2780
ничег	2781
осуд	2782
дух	2783
лега	2784
нашей	2785
сниз	2786
тм	2787
##ика	2788
экс	2789
гиона	2790
тарь	2791
аждый	2792
ланд	2793
нир	2794
дук	2795
гиб	2796
помн	2797
ифика	2798
##ыр	2799
арш	2800
иктор	2801
дукци	2802
потом	2803
окра	2804
сст	2805
сстан	2806
отмен	2807
олезн	2808
осква	2809
треби	2810
кир	2811
сть	2812
конт	2813
факс	2814
разд	2815
верх	2816
рел	2817
теря	2818
нут	2819
оен	2820
осточ	2821
принц	2822
опасн	2823
твуют	2824
пытк	2825
еже	2826
яг	2827
пов	2828
омп	2829
еа	2830
##цу	2831
етом	2832
олжно	2833
ока	2834
бран	2835
вч	2836
ровер	2837
лот	2838
слу	2839
ократ	2840
обращ	2841
21	2842
гресс	2843
онима	2844
ертв	2845
хотел	2846
этап	2847
курор	2848
##поз	2849
войн	2850
артин	2851
вокат	2852
кс	2853
вис	2854
еньше	2855
ций	2856
стров	2857
оконч	2858
19	2859
ори	2860
серге	2861
оо	2862
нок	2863
терак	2864
цип	2865
the	2866
харак	2867
риск	2868
инте	2869
сем	2870
ерво	2871
ообще	2872
24	2873
оев	2874
льные	2875
мерно	2876
лужбы	2877
одроб	2878
евген	2879
грок	2880
орот	2881
рх	2882
##вс	2883
детск	2884
омет	2885
досто	2886
оне	2887
ситет	2888
огибл	2889
рон	2890
##бн	2891
поко	2892
руз	2893
рг	2894
хе	2895
пас	2896
номоч	2897
оу	2898
писк	2899
ебн	2900
заим	2901
хозяй	2902
атег	2903
везд	2904
проб	2905
арта	2906
монт	2907
##лав	2908
сайт	2909
тому	2910
оенно	2911
бужд	2912
рет	2913
физ	2914
анг	2915
лиент	2916
рик	2917
шлом	2918
мало	2919
пок	2920
поезд	2921
печат	2922
яти	2923
евер	2924
пятн	2925
йтинг	2926
ion	2927
изир	2928
штат	2929
часов	2930
окращ	2931
рад	2932
раг	2933
обой	2934
ранцу	2935
самых	2936
тив	2937
варит	2938
ходил	2939
неза	2940
рубеж	2941
фици	2942
сей	2943
твии	2944
учн	2945
окупа	2946
on	2947
st	2948
выясн	2949
лини	2950
елико	2951
ьер	2952
урс	2953
ловин	2954
мос	2955
оммер	2956
уров	2957
акци	2958
видет	2959
оба	2960
одним	2961
оман	2962
знак	2963
тарт	2964
елать	2965
ерд	2966
декс	2967
тут	2968
путе	2969
отмет	2970
точк	2971
войны	2972
ясь	2973
ею	2974
ужд	2975
лиг	2976
ариа	2977
омб	2978
бам	2979
ерн	2980
свобо	2981
завод	2982
ствие	2983
яр	2984
проче	2985
мощн	2986
28	2987
йст	2988
курен	2989
трел	2990
едл	2991
кил	2992
пект	2993
едве	2994
верг	2995
100	2996
наи	2997
долго	2998
сор	2999
етер	3000
ерты	3001
осток	3002
обран	3003
естр	3004
еля	3005
мысл	3006
хода	3007
ерал	3008
бал	3009
водит	3010
валют	3011
лагод	3012
бот	3013
##ров	3014
боров	3015
ожал	3016
нта	3017
рд	3018
цель	3019
твий	3020
цены	3021
конфе	3022
##in	3023
ходящ	3024
ката	3025
мень	3026
стана	3027
##as	3028
вив	3029
обыч	3030
нно	3031
цер	3032
екс	3033
ева	3034
##ad	3035
ассов	3036
нис	3037
точн	3038
баз	3039
льг	3040
ошло	3041
оппоз	3042
унд	3043
брос	3044
иям	3045
пуска	3046
23	3047
дов	3048
ын	3049
адлеж	3050
става	3051
остр	3052
дебн	3053
40	3054
запад	3055
помог	3056
бив	3057
яем	3058
джо	3059
ойск	3060
дар	3061
нкт	3062
нь	3063
нему	3064
новен	3065
исты	3066
фун	3067
узе	3068
трав	3069
##ter	3070
рис	3071
черн	3072
рев	3073
##иров	3074
вью	3075
места	3076
иссии	3077
оно	3078
яс	3079
оля	3080
кер	3081
доп	3082
ути	3083
чник	3084
щего	3085
графи	3086
ывать	3087
овая	3088
таким	3089
глу	3090
ервом	3091
ети	3092
боле	3093
огн	3094
ыб	3095
овить	3096
спект	3097
черед	3098
вто	3099
##йс	3100
елов	3101
нято	3102
ица	3103
колле	3104
иях	3105
виз	3106
иков	3107
ренц	3108
неу	3109
таж	3110
остов	3111
ипл	3112
тонн	3113
еком	3114
сон	3115
дает	3116
омат	3117
бесед	3118
нф	3119
носит	3120
al	3121
чист	3122
хоч	3123
ранен	3124
меж	3125
меры	3126
петр	3127
союз	3128
лучше	3129
дер	3130
дом	3131
льз	3132
юри	3133
пора	3134
аха	3135
лер	3136
зал	3137
лач	3138
ниг	3139
цб	3140
менты	3141
рес	3142
ывают	3143
тенд	3144
йм	3145
##нешн	3146
родн	3147
дл	3148
йте	3149
вас	3150
ули	3151
расп	3152
актер	3153
ометр	3154
бит	3155
##us	3156
##il	3157
дин	3158
жа	3159
##ха	3160
являю	3161
прие	3162
роста	3163
бок	3164
еи	3165
##ol	3166
етк	3167
лаб	3168
авр	3169
атыв	3170
27	3171
атри	3172
илу	3173
спа	3174
крес	3175
##ения	3176
оволь	3177
трудн	3178
тип	3179
раздн	3180
меньш	3181
новой	3182
уне	3183
##мир	3184
ональ	3185
фик	3186
хр	3187
жеств	3188
ечн	3189
вящ	3190
фил	3191
ейн	3192
елу	3193
##ич	3194
дава	3195
en	3196
генер	3197
26	3198
озна	3199
ног	3200
четыр	3201
брита	3202
пал	3203
йской	3204
акции	3205
живо	3206
рби	3207
нул	3208
сан	3209
льный	3210
алин	3211
гост	3212
яющ	3213
орож	3214
чн	3215
ерм	3216
спис	3217
хан	3218
##am	3219
теку	3220
ине	3221
паса	3222
кращ	3223
бус	3224
нуть	3225
гри	3226
ктор	3227
29	3228
фра	3229
шь	3230
свет	3231
блюд	3232
оци	3233
пп	3234
еву	3235
ремл	3236
авари	3237
кого	3238
егу	3239
пт	3240
an	3241
##ut	3242
##пр	3243
брать	3244
рии	3245
рь	3246
писа	3247
тд	3248
овик	3249
спе	3250
чив	3251
лены	3252
яжен	3253
аден	3254
ходят	3255
более	3256
какой	3257
миним	3258
im	3259
ормир	3260
атар	3261
зи	3262
##енк	3263
ента	3264
вез	3265
##it	3266
ео	3267
зер	3268
елк	3269
ниж	3270
нужн	3271
зык	3272
игу	3273
илов	3274
олга	3275
ших	3276
гори	3277
еха	3278
лаз	3279
обо	3280
олет	3281
##сср	3282
апад	3283
зр	3284
мя	3285
нер	3286
орк	3287
тива	3288
сим	3289
истов	3290
ители	3291
порта	3292
енс	3293
инк	3294
опол	3295
роис	3296
логич	3297
цит	3298
стит	3299
илет	3300
мину	3301
ув	3302
##лат	3303
ойд	3304
реф	3305
канц	3306
реду	3307
реди	3308
усск	3309
проц	3310
кате	3311
рец	3312
орис	3313
ондо	3314
ращ	3315
терин	3316
наши	3317
ея	3318
оя	3319
ровал	3320
легк	3321
ельн	3322
йц	3323
ассе	3324
дпис	3325
еф	3326
ссср	3327
отеч	3328
лам	3329
часто	3330
няли	3331
оружи	3332
хов	3333
ога	3334
понят	3335
хран	3336
овета	3337
асно	3338
ьше	3339
прек	3340
одном	3341
тдель	3342
илы	3343
дил	3344
ховн	3345
омер	3346
прошл	3347
ажи	3348
непо	3349
мерик	3350
паден	3351
цк	3352
##се	3353
км	3354
аге	3355
тавки	3356
внешн	3357
овил	3358
оче	3359
тю	3360
ыта	3361
проп	3362
гн	3363
уем	3364
глаш	3365
шк	3366
вт	3367
##мун	3368
фере	3369
бк	3370
##тер	3371
собра	3372
аев	3373
щей	3374
начн	3375
телям	3376
зе	3377
ивно	3378
москв	3379
пони	3380
ыплат	3381
инам	3382
социа	3383
знача	3384
кцион	3385
пришл	3386
ага	3387
режде	3388
мск	3389
ппо	3390
имени	3391
крет	3392
мина	3393
встр	3394
изит	3395
лав	3396
пил	3397
юк	3398
еев	3399
иде	3400
екабр	3401
льян	3402
com	3403
вченк	3404
нс	3405
рител	3406
ловия	3407
ing	3408
еле	3409
##бу	3410
одо	3411
клю	3412
вам	3413
ооо	3414
##гл	3415
ляе	3416
режи	3417
ысо	3418
ещ	3419
атели	3420
отста	3421
бан	3422
анный	3423
скому	3424
орон	3425
елен	3426
рн	3427
отив	3428
олд	3429
маю	3430
троль	3431
круг	3432
##ace	3433
нтар	3434
дписа	3435
щен	3436
наю	3437
опро	3438
срочн	3439
ником	3440
муни	3441
мч	3442
тие	3443
ститу	3444
аги	3445
егуля	3446
ъем	3447
итар	3448
ениях	3449
случ	3450
есс	3451
дых	3452
рейс	3453
лон	3454
##ap	3455
оши	3456
назв	3457
дтвер	3458
лт	3459
диа	3460
зло	3461
овле	3462
##age	3463
ущен	3464
неиз	3465
бело	3466
реч	3467
ксп	3468
ражен	3469
вку	3470
ино	3471
лд	3472
ками	3473
див	3474
льск	3475
акет	3476
траж	3477
платы	3478
толк	3479
вст	3480
роли	3481
##ir	3482
лада	3483
пада	3484
ажно	3485
юн	3486
мирн	3487
оды	3488
кст	3489
сы	3490
лез	3491
оправ	3492
ошли	3493
ереж	3494
двиг	3495
амер	3496
относ	3497
итор	3498
разде	3499
авлен	3500
абл	3501
анали	3502
нац	3503
роль	3504
сель	3505
инци	3506
тож	3507
аск	3508
ват	3509
##рал	3510
оме	3511
ечен	3512
ьма	3513
крас	3514
здн	3515
встре	3516
мб	3517
чат	3518
рбк	3519
вып	3520
ro	3521
трир	3522
енную	3523
мп	3524
ради	3525
ниже	3526
инд	3527
сия	3528
ои	3529
рок	3530
роп	3531
айд	3532
возду	3533
енск	3534
дог	3535
выш	3536
image	3537
прост	3538
евр	3539
андре	3540
чувс	3541
сш	3542
ысоко	3543
ульт	3544
омис	3545
ap	3546
орн	3547
дале	3548
яде	3549
недо	3550
спас	3551
ура	3552
щий	3553
онец	3554
вода	3555
кция	3556
ды	3557
брал	3558
to	3559
льная	3560
te	3561
той	3562
рив	3563
имен	3564
лению	3565
пог	3566
полне	3567
актор	3568
оюза	3569
кн	3570
сами	3571
дц	3572
шу	3573
стой	3574
канд	3575
хл	3576
##рет	3577
гры	3578
шо	3579
соц	3580
реда	3581
айк	3582
ельс	3583
спеш	3584
дали	3585
ъявил	3586
ключе	3587
дости	3588
одн	3589
верн	3590
асил	3591
обре	3592
ука	3593
ерк	3594
лад	3595
леж	3596
буде	3597
всю	3598
мчс	3599
йл	3600
фс	3601
ьного	3602
арх	3603
##ерь	3604
31	3605
ван	3606
енная	3607
йская	3608
ровел	3609
дат	3610
лк	3611
еперь	3612
сии	3613
фе	3614
спи	3615
бере	3616
екрет	3617
листы	3618
рая	3619
гре	3620
тных	3621
##вис	3622
анти	3623
ща	3624
new	3625
роиз	3626
имн	3627
обеди	3628
нав	3629
овую	3630
мена	3631
лко	3632
рал	3633
олос	3634
жива	3635
наб	3636
скр	3637
дущ	3638
дется	3639
жер	3640
рут	3641
сот	3642
стей	3643
овор	3644
рест	3645
никам	3646
ыл	3647
итет	3648
ндар	3649
льше	3650
лл	3651
ума	3652
еврал	3653
рко	3654
шеств	3655
щих	3656
обиль	3657
мэ	3658
li	3659
воч	3660
смог	3661
дну	3662
##en	3663
хар	3664
##ri	3665
##быт	3666
олит	3667
елик	3668
тт	3669
рае	3670
зрени	3671
пило	3672
60	3673
дут	3674
муж	3675
нк	3676
тали	3677
ауд	3678
событ	3679
енное	3680
внов	3681
##ска	3682
анов	3683
аю	3684
##ите	3685
чай	3686
чев	3687
обнов	3688
дея	3689
мф	3690
лено	3691
дии	3692
ший	3693
сол	3694
мост	3695
ектор	3696
слож	3697
снова	3698
яко	3699
завис	3700
кри	3701
мн	3702
рина	3703
озит	3704
кат	3705
возгл	3706
оэ	3707
ваний	3708
200	3709
одар	3710
оток	3711
гроз	3712
шин	3713
хол	3714
ене	3715
boo	3716
менит	3717
очи	3718
абс	3719
ерег	3720
##зр	3721
ельск	3722
двига	3723
прекр	3724
уга	3725
аде	3726
овое	3727
прес	3728
йским	3729
кита	3730
ласть	3731
ык	3732
начит	3733
читат	3734
иби	3735
чан	3736
шев	3737
вд	3738
вв	3739
енда	3740
эле	3741
кост	3742
масс	3743
ивающ	3744
танци	3745
нит	3746
поряд	3747
стати	3748
ати	3749
ерто	3750
рот	3751
fi	3752
##ение	3753
овано	3754
жды	3755
енном	3756
изо	3757
ресс	3758
рошен	3759
весь	3760
енит	3761
дтп	3762
одозр	3763
ерии	3764
норм	3765
сно	3766
##уст	3767
еред	3768
азета	3769
оронн	3770
book	3771
ризм	3772
ета	3773
трана	3774
пись	3775
ранс	3776
язан	3777
ходов	3778
ович	3779
дают	3780
ерно	3781
ируют	3782
ург	3783
епл	3784
амб	3785
иж	3786
ктив	3787
син	3788
ирм	3789
замет	3790
face	3791
цеп	3792
раи	3793
тмеч	3794
еализ	3795
нерг	3796
ia	3797
може	3798
лн	3799
юю	3800
##чер	3801
иновн	3802
есов	3803
били	3804
потер	3805
стк	3806
тори	3807
морск	3808
елю	3809
изма	3810
орск	3811
ченко	3812
mo	3813
аи	3814
оммун	3815
орта	3816
ыч	3817
мс	3818
##хо	3819
восто	3820
лица	3821
раниц	3822
дина	3823
бав	3824
жить	3825
иро	3826
ыр	3827
кам	3828
юб	3829
##el	3830
арь	3831
##ch	3832
рач	3833
app	3834
ада	3835
таб	3836
роф	3837
вак	3838
сцен	3839
скоро	3840
пали	3841
еда	3842
##la	3843
ентов	3844
видн	3845
гин	3846
зации	3847
олк	3848
плани	3849
шего	3850
тян	3851
орг	3852
борон	3853
бильн	3854
ница	3855
утк	3856
ально	3857
нен	3858
легко	3859
осн	3860
лека	3861
тят	3862
ывал	3863
щиков	3864
цска	3865
изб	3866
одств	3867
икл	3868
тобы	3869
олл	3870
жало	3871
ши	3872
эф	3873
ерс	3874
вали	3875
проса	3876
лем	3877
##ur	3878
перат	3879
зиров	3880
рави	3881
арл	3882
очт	3883
идер	3884
ора	3885
рств	3886
овар	3887
мещ	3888
стрир	3889
олнен	3890
ar	3891
боту	3892
фсб	3893
рв	3894
обс	3895
олод	3896
устил	3897
ошла	3898
торов	3899
удь	3900
лох	3901
нек	3902
##st	3903
нализ	3904
скими	3905
игн	3906
дчер	3907
щем	3908
вич	3909
ацие	3910
етел	3911
лена	3912
тром	3913
давн	3914
иан	3915
ича	3916
йств	3917
льзов	3918
едал	3919
йно	3920
зах	3921
ошенн	3922
нение	3923
ферен	3924
500	3925
есь	3926
лом	3927
олько	3928
гат	3929
эм	3930
преп	3931
дчерк	3932
ti	3933
асти	3934
ьми	3935
прив	3936
выд	3937
ипа	3938
кцию	3939
35	3940
рель	3941
ху	3942
жан	3943
лле	3944
тил	3945
адо	3946
ожник	3947
поле	3948
ерез	3949
елл	3950
лее	3951
крит	3952
форм	3953
ицион	3954
руд	3955
адк	3956
оказа	3957
сб	3958
##бли	3959
овест	3960
едж	3961
публи	3962
ртал	3963
рующ	3964
ньк	3965
овом	3966
стин	3967
енным	3968
ch	3969
одпис	3970
тябре	3971
квал	3972
тки	3973
зан	3974
льным	3975
суде	3976
щи	3977
метро	3978
ссе	3979
комму	3980
кий	3981
ходы	3982
лей	3983
ужден	3984
##ss	3985
оло	3986
ma	3987
ород	3988
века	3989
арак	3990
ушк	3991
енти	3992
70	3993
бро	3994
рели	3995
овре	3996
разу	3997
льном	3998
плате	3999
аще	4000
ину	4001
рази	4002
тавил	4003
гент	4004
ежд	4005
сери	4006
озв	4007
ыти	4008
##фа	4009
еству	4010
пита	4011
бед	4012
жн	4013
номи	4014
икр	4015
июл	4016
парта	4017
каки	4018
ствов	4019
ежи	4020
каких	4021
торго	4022
преж	4023
ограф	4024
астро	4025
спрос	4026
йства	4027
новл	4028
пел	4029
расте	4030
асть	4031
иги	4032
уме	4033
онн	4034
влад	4035
ден	4036
##йд	4037
ады	4038
екци	4039
##ada	4040
зб	4041
иже	4042
циа	4043
ире	4044
авать	4045
акс	4046
гал	4047
еру	4048
ерри	4049
ослав	4050
зии	4051
олиц	4052
ьги	4053
торию	4054
##up	4055
роме	4056
олон	4057
прежд	4058
льное	4059
семи	4060
ево	4061
жк	4062
нат	4063
стен	4064
неш	4065
проч	4066
uter	4067
дни	4068
нает	4069
етств	4070
нимал	4071
араб	4072
news	4073
неп	4074
экстр	4075
uters	4076
атом	4077
иции	4078
ечь	4079
итали	4080
пев	4081
щие	4082
ерв	4083
акан	4084
ретен	4085
300	4086
sp	4087
асто	4088
ыг	4089
ыстав	4090
запис	4091
икой	4092
##дд	4093
руг	4094
авля	4095
air	4096
тором	4097
важ	4098
ище	4099
эн	4100
отн	4101
осп	4102
чест	4103
ривод	4104
ытия	4105
ако	4106
сн	4107
чре	4108
еду	4109
айне	4110
защи	4111
сси	4112
ойти	4113
таль	4114
анам	4115
кова	4116
ойдет	4117
стер	4118
омоч	4119
ложно	4120
ыша	4121
вок	4122
ерев	4123
вно	4124
азе	4125
семь	4126
фт	4127
##ht	4128
ерл	4129
apple	4130
ic	4131
стью	4132
ких	4133
акл	4134
авших	4135
йских	4136
сьм	4137
иат	4138
##др	4139
ойк	4140
етал	4141
тист	4142
оком	4143
аши	4144
селе	4145
ериал	4146
стор	4147
ениям	4148
айм	4149
могу	4150
нка	4151
рп	4152
тск	4153
олго	4154
чета	4155
отя	4156
одол	4157
емн	4158
cap	4159
алк	4160
опуст	4161
боро	4162
сид	4163
шка	4164
##wi	4165
иска	4166
аспор	4167
80	4168
идел	4169
сфер	4170
циаль	4171
зг	4172
хим	4173
##ck	4174
нию	4175
анц	4176
имет	4177
bo	4178
тру	4179
ата	4180
рте	4181
итр	4182
чать	4183
це	4184
умы	4185
нл	4186
истам	4187
аков	4188
идно	4189
вший	4190
икт	4191
оин	4192
дост	4193
for	4194
енер	4195
слови	4196
тал	4197
яд	4198
ария	4199
льную	4200
арат	4201
ерни	4202
it	4203
двер	4204
лес	4205
юм	4206
кие	4207
тир	4208
льс	4209
авал	4210
борот	4211
ару	4212
страх	4213
наци	4214
емп	4215
оке	4216
анск	4217
оско	4218
алог	4219
рош	4220
исан	4221
стане	4222
едине	4223
внес	4224
дно	4225
сче	4226
ъя	4227
отк	4228
емен	4229
маль	4230
ихо	4231
de	4232
дес	4233
дной	4234
мм	4235
поте	4236
ете	4237
льд	4238
мени	4239
охо	4240
ульта	4241
уки	4242
чень	4243
вышен	4244
ввп	4245
аша	4246
уру	4247
арн	4248
un	4249
##зд	4250
мае	4251
окол	4252
яются	4253
век	4254
одав	4255
здо	4256
ентир	4257
дос	4258
атл	4259
днем	4260
роизо	4261
нием	4262
ины	4263
роход	4264
рана	4265
празд	4266
знал	4267
трети	4268
зглав	4269
45	4270
ооб	4271
рган	4272
ресто	4273
нова	4274
кус	4275
тию	4276
суль	4277
апа	4278
увств	4279
зы	4280
вание	4281
туа	4282
ильно	4283
ta	4284
сю	4285
##ое	4286
итик	4287
особо	4288
лива	4289
тора	4290
йство	4291
реми	4292
ити	4293
риг	4294
одел	4295
валь	4296
gr	4297
бю	4298
##et	4299
манда	4300
инима	4301
one	4302
збе	4303
лы	4304
апита	4305
абот	4306
кндр	4307
дра	4308
помощ	4309
енты	4310
чт	4311
ейс	4312
ален	4313
втб	4314
десь	4315
gle	4316
вся	4317
тория	4318
уры	4319
ub	4320
еет	4321
жения	4322
фиц	4323
етр	4324
купк	4325
акое	4326
авка	4327
da	4328
вход	4329
уле	4330
торог	4331
держа	4332
афик	4333
щая	4334
етн	4335
миха	4336
ip	4337
отор	4338
ьных	4339
арла	4340
ыска	4341
эп	4342
##ve	4343
оворя	4344
эл	4345
опров	4346
торое	4347
bl	4348
twi	4349
лев	4350
щин	4351
нача	4352
емл	4353
goo	4354
аже	4355
уго	4356
льт	4357
атр	4358
лично	4359
пин	4360
ао	4361
зин	4362
##ic	4363
кнул	4364
мель	4365
атери	4366
уля	4367
авил	4368
ким	4369
нтари	4370
дро	4371
риоб	4372
tter	4373
мк	4374
нец	4375
евск	4376
есед	4377
ске	4378
ашн	4379
жно	4380
пан	4381
мок	4382
имя	4383
вили	4384
азы	4385
велик	4386
##ети	4387
кад	4388
орите	4389
буду	4390
90	4391
оих	4392
рно	4393
леп	4394
уша	4395
осла	4396
аба	4397
езно	4398
ган	4399
ысл	4400
рект	4401
ига	4402
пло	4403
озг	4404
раща	4405
банка	4406
лков	4407
рл	4408
цик	4409
тмети	4410
атор	4411
рж	4412
оди	4413
лите	4414
скоре	4415
ii	4416
жной	4417
нц	4418
наче	4419
роде	4420
брат	4421
оки	4422
шно	4423
вать	4424
наль	4425
рож	4426
ателя	4427
000	4428
vi	4429
тн	4430
еров	4431
кому	4432
терн	4433
взя	4434
et	4435
тей	4436
яться	4437
лия	4438
режн	4439
итан	4440
рио	4441
риго	4442
имат	4443
ири	4444
диров	4445
ig	4446
нз	4447
вые	4448
амен	4449
столь	4450
очь	4451
##un	4452
##ниц	4453
сяч	4454
чк	4455
##vi	4456
ражд	4457
пройд	4458
оку	4459
ni	4460
прим	4461
po	4462
дк	4463
зко	4464
ню	4465
рм	4466
тура	4467
плен	4468
сег	4469
ебе	4470
улир	4471
or	4472
ира	4473
пик	4474
ода	4475
счет	4476
дск	4477
нист	4478
адим	4479
екла	4480
бора	4481
мари	4482
елове	4483
ижн	4484
пир	4485
тих	4486
кров	4487
ац	4488
кг	4489
ань	4490
оциал	4491
ыт	4492
овсе	4493
есно	4494
орожн	4495
рошло	4496
асса	4497
алья	4498
ома	4499
оса	4500
оао	4501
ега	4502
уэ	4503
омен	4504
кпр	4505
нак	4506
мак	4507
capt	4508
кпрф	4509
утр	4510
нацио	4511
икс	4512
прев	4513
овен	4514
##ul	4515
овки	4516
раш	4517
уте	4518
овед	4519
реко	4520
огод	4521
озиц	4522
глас	4523
янс	4524
ря	4525
##ay	4526
оте	4527
завер	4528
оми	4529
инов	4530
довол	4531
ьмо	4532
оты	4533
отни	4534
рочн	4535
спек	4536
овало	4537
читаю	4538
мэр	4539
ушен	4540
рупп	4541
ce	4542
коло	4543
вка	4544
етро	4545
cop	4546
отел	4547
танц	4548
150	4549
онии	4550
bre	4551
поста	4552
либ	4553
азу	4554
обще	4555
онт	4556
гибдд	4557
оже	4558
эро	4559
кап	4560
of	4561
wada	4562
дко	4563
кру	4564
##гу	4565
заг	4566
толи	4567
суди	4568
оотв	4569
елем	4570
рым	4571
рофес	4572
оем	4573
сень	4574
цир	4575
цам	4576
енз	4577
изу	4578
лома	4579
альне	4580
am	4581
олов	4582
ливо	4583
угол	4584
##шк	4585
овь	4586
лиж	4587
ерп	4588
меет	4589
виж	4590
естн	4591
ируе	4592
ержив	4593
бить	4594
деж	4595
gro	4596
хор	4597
##yr	4598
торы	4599
екл	4600
and	4601
нн	4602
трое	4603
служи	4604
вати	4605
sh	4606
есо	4607
очет	4608
ровск	4609
рода	4610
лизир	4611
el	4612
ww	4613
ико	4614
льц	4615
днр	4616
онных	4617
трон	4618
нешне	4619
32	4620
оров	4621
сточ	4622
еди	4623
напр	4624
пеш	4625
омпан	4626
нна	4627
уи	4628
воен	4629
делен	4630
рови	4631
400	4632
so	4633
гог	4634
рва	4635
щим	4636
##ба	4637
ятс	4638
ипе	4639
тиков	4640
вырос	4641
оры	4642
аниям	4643
пус	4644
ight	4645
group	4646
che	4647
эй	4648
иву	4649
учил	4650
tim	4651
na	4652
арод	4653
рой	4654
правд	4655
дп	4656
дох	4657
верд	4658
рже	4659
##ed	4660
арии	4661
одит	4662
тям	4663
орош	4664
ишь	4665
стори	4666
акой	4667
рю	4668
##ia	4669
стил	4670
кальн	4671
иями	4672
напад	4673
вших	4674
жет	4675
хм	4676
рол	4677
еста	4678
copyr	4679
вро	4680
##id	4681
арен	4682
рид	4683
стоя	4684
редне	4685
int	4686
дель	4687
##ум	4688
##эс	4689
опек	4690
упал	4691
кви	4692
аров	4693
есси	4694
аду	4695
удо	4696
форма	4697
yo	4698
вить	4699
юди	4700
тики	4701
урман	4702
лово	4703
ицей	4704
##ks	4705
рч	4706
емье	4707
ra	4708
##ra	4709
обр	4710
ивер	4711
добн	4712
оц	4713
отов	4714
##мис	4715
оспо	4716
лава	4717
мик	4718
дели	4719
есте	4720
36	4721
коро	4722
онно	4723
перес	4724
сили	4725
ацию	4726
##лин	4727
ожен	4728
ствии	4729
убер	4730
упр	4731
.,	4732
жей	4733
нин	4734
перев	4735
аза	4736
итае	4737
олис	4738
ыгр	4739
ent	4740
каб	4741
анта	4742
вых	4743
мии	4744
сал	4745
тиров	4746
сты	4747
аты	4748
ожно	4749
назна	4750
ежден	4751
анка	4752
ийск	4753
пала	4754
офе	4755
вшей	4756
пат	4757
тет	4758
##ук	4759
www	4760
арск	4761
ятн	4762
чива	4763
ибли	4764
mar	4765
ввс	4766
устр	4767
зит	4768
нстр	4769
рку	4770
проф	4771
получ	4772
уста	4773
гио	4774
ex	4775
ыж	4776
нами	4777
допус	4778
нные	4779
пох	4780
еса	4781
орог	4782
сив	4783
иви	4784
комис	4785
рант	4786
ссыл	4787
бщ	4788
нко	4789
##эт	4790
оту	4791
пци	4792
##хл	4793
соп	4794
циал	4795
тече	4796
нге	4797
##is	4798
33	4799
ола	4800
инн	4801
оре	4802
екц	4803
душ	4804
ухо	4805
елич	4806
сос	4807
узов	4808
##ово	4809
жит	4810
фл	4811
мес	4812
опи	4813
алит	4814
ктур	4815
уй	4816
##ct	4817
етров	4818
ber	4819
рмо	4820
росс	4821
совер	4822
атов	4823
длеж	4824
иво	4825
рац	4826
торая	4827
бог	4828
игил	4829
евой	4830
вил	4831
вир	4832
мей	4833
окк	4834
очка	4835
водо	4836
ложен	4837
покуп	4838
жем	4839
##нс	4840
верж	4841
",	4842
lo	4843
аро	4844
зл	4845
прово	4846
ирск	4847
кул	4848
ставл	4849
возбу	4850
учит	4851
вшие	4852
нения	4853
sa	4854
вну	4855
еход	4856
изы	4857
онда	4858
ерна	4859
se	4860
##ft	4861
оборо	4862
лис	4863
лиции	4864
азо	4865
ота	4866
##сир	4867
одк	4868
ясн	4869
иста	4870
ваз	4871
иден	4872
ажу	4873
седн	4874
лана	4875
тала	4876
сток	4877
iph	4878
еми	4879
пс	4880
тле	4881
юда	4882
ходя	4883
ислен	4884
тивно	4885
ярн	4886
сын	4887
итов	4888
отс	4889
тоян	4890
перво	4891
акр	4892
ражда	4893
кэ	4894
##ье	4895
контр	4896
##ess	4897
титу	4898
потр	4899
ерман	4900
едом	4901
уре	4902
иду	4903
биле	4904
олу	4905
арто	4906
ожет	4907
ктора	4908
ером	4909
75	4910
mer	4911
ащен	4912
нп	4913
урм	4914
сроч	4915
ероя	4916
at	4917
нци	4918
шан	4919
ьи	4920
ьк	4921
нать	4922
кать	4923
ничн	4924
прият	4925
етей	4926
има	4927
кив	4928
55	4929
дним	4930
лли	4931
оей	4932
ртов	4933
ьниц	4934
одня	4935
атил	4936
ницы	4937
times	4938
нау	4939
итер	4940
орва	4941
оза	4942
мых	4943
екре	4944
вая	4945
вает	4946
сию	4947
думы	4948
дне	4949
ою	4950
чно	4951
изе	4952
ерск	4953
ерва	4954
тери	4955
стои	4956
гани	4957
##ank	4958
##ort	4959
аив	4960
тина	4961
нечн	4962
вои	4963
лья	4964
едк	4965
пута	4966
ленно	4967
иниц	4968
избир	4969
пец	4970
тинг	4971
шим	4972
овк	4973
зак	4974
ляр	4975
еоб	4976
стик	4977
дающ	4978
убл	4979
овала	4980
нил	4981
ованы	4982
егат	4983
обход	4984
дам	4985
кана	4986
або	4987
дить	4988
тные	4989
рано	4990
мущ	4991
исте	4992
авт	4993
учш	4994
нты	4995
ребов	4996
##um	4997
лак	4998
редпо	4999
