<unk>	0
<s>	0
</s>	0
▁,	-3.55321
▁а	-3.7363
▁и	-3.7417
▁в	-3.771
▁с	-3.77242
▁.	-3.83938
▁о	-4.26296
▁"	-4.37034
н	-4.41473
▁на	-4.48146
▁п	-4.51665
▁у	-4.56946
▁е	-4.6428
и	-4.67515
▁-	-4.70717
▁к	-4.72133
▁по	-4.7676
▁д	-4.85049
а	-4.92437
▁ы	-4.98846
▁ов	-5.01342
т	-5.02212
▁не	-5.08733
▁за	-5.08837
е	-5.19155
о	-5.20782
л	-5.23202
▁м	-5.25715
▁т	-5.39449
▁про	-5.39694
▁В	-5.43168
▁б	-5.43373
п	-5.44232
к	-5.46064
▁что	-5.47045
▁об	-5.50811
▁ом	-5.57401
▁от	-5.58351
▁ой	-5.58841
р	-5.58978
▁1	-5.64476
▁я	-5.68299
▁0	-5.73054
▁С	-5.79835
с	-5.7994
▁2	-5.82553
в	-5.82687
▁при	-5.82788
▁из	-5.85119
м	-5.87025
▁ого	-5.94582
▁П	-5.94607
▁вы	-5.98865
▁л	-5.99229
▁М	-5.99866
▁ил	-6.01187
▁но	-6.01352
▁ен	-6.09638
▁их	-6.11153
▁ие	-6.12077
▁н	-6.12695
отор	-6.13812
▁:	-6.15755
▁ия	-6.17276
▁р	-6.19466
▁ь	-6.19744
▁К	-6.20457
▁раз	-6.23272
▁пред	-6.2351
▁Р	-6.27445
д	-6.27812
▁А	-6.28105
▁до	-6.28359
▁ий	-6.28582
▁ые	-6.29795
▁ей	-6.31131
й	-6.33318
▁ф	-6.33343
у	-6.35571
▁ить	-6.35618
▁ая	-6.36562
▁ых	-6.37541
▁И	-6.41848
▁ения	-6.4269
▁под	-6.43171
▁(	-6.43836
▁его	-6.44176
▁ах	-6.44258
▁О	-6.4476
▁ическ	-6.44816
ля	-6.46948
▁)	-6.47081
▁ый	-6.51262
▁ии	-6.51289
▁ных	-6.51522
▁ся	-6.51753
▁год	-6.52005
▁ре	-6.53878
▁Д	-6.55361
▁ение	-6.5661
▁Б	-6.57324
▁ной	-6.58724
▁з	-6.58768
▁ного	-6.60702
ж	-6.60797
▁ает	-6.61298
▁Т	-6.61691
▁со	-6.62078
▁ать	-6.63294
▁5	-6.63367
▁итель	-6.649
▁Росси	-6.65067
▁был	-6.65942
▁как	-6.6629
▁ит	-6.67005
з	-6.69079
▁им	-6.69274
▁ал	-6.69898
▁Г	-6.70275
▁По	-6.70538
ен	-6.70642
▁ами	-6.71095
▁ком	-6.71756
▁й	-6.72043
▁это	-6.75351
▁пере	-6.76546
▁он	-6.7677
▁ю	-6.77026
▁6	-6.78489
▁ные	-6.80221
▁то	-6.80339
▁ое	-6.8061
▁ник	-6.81773
▁ам	-6.8241
▁ный	-6.82924
▁де	-6.83528
▁э	-6.83921
▁ет	-6.84626
ов	-6.85783
▁работ	-6.85847
ообщ	-6.86553
▁На	-6.87176
▁9	-6.87876
▁3	-6.87884
▁ую	-6.88478
▁г	-6.8888
▁4	-6.90203
▁кон	-6.91179
▁пре	-6.91472
▁ч	-6.91967
▁У	-6.92485
▁Л	-6.92541
ольк	-6.95518
▁ан	-6.96783
▁этом	-6.96891
▁ее	-6.98054
▁ка	-6.9916
▁ым	-6.99317
▁йск	-6.99631
▁так	-7.00162
▁говор	-7.02489
ш	-7.02694
▁Н	-7.04843
▁ть	-7.05484
щ	-7.07563
,	-7.0787
▁7	-7.09024
.	-7.09571
▁ем	-7.10254
ч	-7.10448
▁прав	-7.11971
▁тр	-7.12493
▁росс	-7.1279
▁ок	-7.13869
ер	-7.14704
▁ания	-7.18766
▁ции	-7.18938
▁ности	-7.19009
ы	-7.19373
▁став	-7.19387
▁8	-7.20199
▁ства	-7.21405
▁ки	-7.21809
ю	-7.22072
▁воз	-7.23543
▁Ка	-7.23545
▁дент	-7.23862
▁все	-7.26537
▁мир	-7.26676
▁же	-7.26815
▁ской	-7.26878
дел	-7.27435
▁будет	-7.28023
▁ж	-7.28763
▁ин	-7.29179
▁след	-7.29299
ил	-7.29601
▁Ф	-7.3046
▁рас	-7.31092
▁году	-7.32272
▁реш	-7.32568
▁ств	-7.33557
▁ш	-7.33744
▁ство	-7.3391
ду	-7.34305
▁Е	-7.34834
▁глав	-7.3488
▁во	-7.35297
б	-7.35459
▁иров	-7.35763
▁ным	-7.35855
▁расс	-7.3589
▁также	-7.36321
▁ев	-7.37086
▁ости	-7.37103
▁ко	-7.37346
▁тор	-7.3807
г	-7.38829
▁пос	-7.39108
▁ении	-7.40045
▁х	-7.41101
▁Пр	-7.4125
▁уже	-7.42254
осле	-7.42276
▁тель	-7.42361
▁ность	-7.43201
▁ится	-7.43275
▁Ч	-7.43466
▁ают	-7.43622
▁ию	-7.44082
рези	-7.44147
▁ос	-7.45239
▁сам	-7.45753
▁ского	-7.46056
▁орган	-7.46739
▁ное	-7.4681
ц	-7.47123
▁ли	-7.47955
я	-7.48106
▁стоя	-7.48166
▁	-7.49263
▁оп	-7.50521
▁город	-7.5087
▁без	-7.50939
▁лен	-7.51105
▁было	-7.51524
▁чем	-7.51826
▁ек	-7.51873
▁остав	-7.52403
▁ная	-7.52471
▁время	-7.52509
▁З	-7.52649
▁она	-7.52734
▁том	-7.53333
▁лет	-7.53598
▁авто	-7.54117
нтер	-7.54878
▁нес	-7.5497
▁ель	-7.55149
▁нов	-7.5516
прав	-7.55899
▁ласти	-7.56121
▁чело	-7.56297
▁может	-7.57615
чал	-7.57714
▁мы	-7.57821
вод	-7.58356
▁ста	-7.58936
ход	-7.60744
▁али	-7.61022
▁или	-7.61232
▁явил	-7.61521
▁вид	-7.61855
▁ется	-7.62218
бы	-7.62319
ейс	-7.62928
▁Я	-7.63348
альн	-7.63546
ств	-7.63575
▁ном	-7.63648
ой	-7.63891
лее	-7.63992
▁стр	-7.64417
▁Х	-7.64757
▁ании	-7.65061
ого	-7.65866
сли	-7.66288
▁?	-7.66379
▁стран	-7.6646
▁Он	-7.66545
▁США	-7.67247
▁стве	-7.67304
их	-7.67512
ет	-7.6781
▁еще	-7.67975
▁мент	-7.67986
из	-7.69186
▁ист	-7.69232
▁ход	-7.70521
▁цион	-7.71013
▁Эт	-7.71582
▁ступ	-7.72318
▁ления	-7.7235
▁уч	-7.72757
▁ль	-7.72978
▁уд	-7.73294
▁веде	-7.73643
▁арств	-7.73722
▁экс	-7.738
▁ят	-7.73854
▁ру	-7.74017
▁инф	-7.7403
▁тер	-7.74151
▁сказ	-7.7421
▁%	-7.74859
▁Ш	-7.75219
▁альн	-7.7531
▁ян	-7.76136
▁терр	-7.76226
▁лова	-7.76268
▁ми	-7.76813
▁ную	-7.77104
▁лож	-7.77737
▁озмо	-7.77848
▁меж	-7.78049
▁ку	-7.78226
од	-7.78254
▁Ко	-7.78587
▁ается	-7.78736
▁ер	-7.78784
▁держ	-7.78982
▁роект	-7.8027
▁ость	-7.80403
▁олуч	-7.80716
▁они	-7.80735
▁овал	-7.81177
▁ский	-7.81298
ят	-7.81535
▁ован	-7.81908
инис	-7.82667
▁кор	-7.82867
▁готов	-7.83677
▁част	-7.83768
▁нима	-7.83799
▁ют	-7.83876
▁ому	-7.8399
▁полн	-7.84291
▁Но	-7.8461
▁перв	-7.84642
▁Са	-7.85036
▁вод	-7.85103
тель	-7.85574
e	-7.86364
▁бы	-7.86532
▁опрос	-7.87121
▁Алек	-7.8798
▁народ	-7.88546
▁РФ	-7.88627
▁чере	-7.88709
▁сред	-7.88724
▁За	-7.89352
▁ублик	-7.8941
ольш	-7.89542
▁краи	-7.90167
▁госу	-7.90218
▁долж	-7.90268
▁енно	-7.90826
▁гос	-7.91138
▁ремен	-7.91944
▁мест	-7.9211
▁стал	-7.92741
▁ивн	-7.92776
▁од	-7.929
▁Э	-7.93037
▁дел	-7.93474
▁есть	-7.94228
▁ив	-7.94721
▁рубл	-7.94746
▁ений	-7.95345
▁знач	-7.955
▁Не	-7.95523
▁ыми	-7.95757
▁Об	-7.96183
▁ледо	-7.96733
▁ание	-7.9747
▁перед	-7.981
▁су	-7.98109
▁орма	-7.98167
ступ	-7.98405
чита	-7.98499
▁ир	-7.9876
▁ьтат	-7.99396
▁льно	-7.99433
олиц	-7.99556
▁этого	-7.99557
▁кур	-7.99699
оном	-7.999
▁годня	-8.00026
▁ению	-8.0016
зул	-8.0074
▁ился	-8.00823
▁ться	-8.01011
▁ес	-8.01041
▁ими	-8.0167
▁одно	-8.02319
▁ейчас	-8.02778
▁руб	-8.03086
▁явля	-8.0328
▁тур	-8.03386
▁анк	-8.03594
част	-8.03929
▁груп	-8.04084
▁нет	-8.04169
▁Влад	-8.04215
ерш	-8.0423
▁ряд	-8.04237
▁хо	-8.04437
▁оста	-8.04708
труд	-8.05142
▁могу	-8.0521
▁ными	-8.05385
ем	-8.05694
▁ление	-8.0606
▁тся	-8.06357
ять	-8.06458
▁Евро	-8.06511
▁иться	-8.07067
▁зна	-8.07374
ий	-8.07901
кон	-8.07999
▁торон	-8.0822
▁орм	-8.08239
▁жд	-8.08433
им	-8.08553
▁ны	-8.08847
▁пол	-8.08947
нош	-8.09208
▁ающ	-8.0954
▁млн	-8.09725
▁ских	-8.09741
ясн	-8.10218
▁зва	-8.1024
▁опас	-8.10546
▁днако	-8.10785
▁метил	-8.10885
▁ур	-8.11341
▁ор	-8.11709
кие	-8.11993
▁центр	-8.11995
▁те	-8.12016
▁чет	-8.12025
▁риме	-8.1207
▁будут	-8.12077
▁олог	-8.125
стан	-8.12529
хран	-8.1281
▁телей	-8.12916
▁обра	-8.13139
▁нас	-8.132
▁ик	-8.13854
▁ро	-8.1405
▁ников	-8.14328
ира	-8.14817
▁конц	-8.14866
ражд	-8.15563
▁ротив	-8.15765
▁еств	-8.15854
▁тав	-8.15951
▁мотр	-8.16589
▁когда	-8.16774
▁мен	-8.16894
▁аем	-8.17649
▁истем	-8.17791
▁один	-8.18366
▁ьн	-8.18475
йск	-8.1853
▁где	-8.18801
▁ью	-8.18819
дин	-8.1882
▁можно	-8.18824
▁нт	-8.1889
▁тем	-8.19076
чень	-8.19251
▁ран	-8.19375
▁них	-8.19419
▁ни	-8.19465
▁быть	-8.19535
▁дела	-8.19591
▁вш	-8.19755
▁ики	-8.19799
▁ключ	-8.19833
▁рост	-8.20051
▁руг	-8.20168
▁свое	-8.2024
▁треб	-8.20462
ращ	-8.20655
мен	-8.20691
▁ц	-8.2081
▁ков	-8.20936
▁оказ	-8.21101
▁ция	-8.21254
▁траны	-8.2128
▁заяв	-8.21341
▁Ж	-8.22299
держ	-8.22445
▁го	-8.2245
▁оманд	-8.23022
▁эти	-8.23309
▁млрд	-8.23473
▁техн	-8.23502
▁дост	-8.24526
▁ивш	-8.24622
▁Ю	-8.24907
▁ме	-8.2494
▁ось	-8.2498
уац	-8.25051
ужд	-8.25099
▁ри	-8.25282
▁сего	-8.25311
▁ля	-8.25406
▁люб	-8.25432
▁ему	-8.25536
▁ьзов	-8.25991
▁ке	-8.2601
▁твую	-8.26058
▁газ	-8.26063
▁ъ	-8.2623
▁овать	-8.26639
▁седа	-8.26798
▁друг	-8.26957
▁ила	-8.27218
едер	-8.27302
заци	-8.2741
▁енных	-8.27458
се	-8.28076
▁ились	-8.28146
▁тысяч	-8.28467
тр	-8.2858
▁лся	-8.28811
▁район	-8.28849
▁теля	-8.293
енно	-8.2934
▁ген	-8.29392
▁Мин	-8.2952
▁ар	-8.29558
▁грамм	-8.29575
▁рес	-8.29597
▁милл	-8.2986
▁инанс	-8.29972
▁теле	-8.30033
▁ует	-8.30103
t	-8.30303
▁ти	-8.30346
▁над	-8.30373
▁два	-8.31057
олит	-8.31555
▁андр	-8.31659
▁орт	-8.31699
▁оссия	-8.31739
▁рос	-8.32094
▁ут	-8.32646
ник	-8.32934
▁писа	-8.33028
▁утин	-8.33132
ых	-8.33377
▁ием	-8.33804
▁ело	-8.34148
▁ответ	-8.34317
вин	-8.34658
▁олжн	-8.34693
ключ	-8.34709
▁план	-8.34749
звес	-8.3518
▁ат	-8.35488
▁лат	-8.35545
▁цел	-8.3565
ним	-8.35721
▁тыс	-8.36339
▁ск	-8.36486
снов	-8.36649
▁Дж	-8.3673
▁цен	-8.36918
▁!	-8.3692
▁тели	-8.36938
▁много	-8.37041
▁три	-8.37059
▁ено	-8.37153
ив	-8.37214
бор	-8.37321
обил	-8.37347
▁пресс	-8.3755
▁одим	-8.37582
обх	-8.37695
▁учас	-8.37714
▁ество	-8.37766
▁ла	-8.382
▁даж	-8.38594
▁До	-8.38605
▁стреч	-8.38646
▁транс	-8.38763
▁ци	-8.39068
▁му	-8.39312
зыв	-8.39411
▁ольше	-8.39467
▁нич	-8.39521
▁ел	-8.3957
▁пока	-8.39627
▁ru	-8.39671
нным	-8.39797
▁место	-8.40051
▁наш	-8.40106
▁каз	-8.40253
мери	-8.40266
s	-8.40329
▁ляе	-8.4053
▁каза	-8.40612
об	-8.40719
здан	-8.4089
▁гор	-8.41228
▁ская	-8.41244
ск	-8.41593
▁чин	-8.41711
▁уров	-8.41917
▁цию	-8.4199
меч	-8.42013
▁лист	-8.42304
нима	-8.42407
▁летн	-8.42531
▁кр	-8.42543
▁ог	-8.42622
▁ники	-8.4273
лич	-8.42774
▁защи	-8.42828
▁пыт	-8.4288
▁рият	-8.42896
i	-8.42951
▁Ново	-8.43076
▁ич	-8.43322
▁твия	-8.43476
▁бес	-8.43565
▁тно	-8.43615
сточ	-8.43784
▁лиц	-8.43843
▁дире	-8.44151
▁путат	-8.4417
▁суд	-8.44383
▁кан	-8.44429
▁Укра	-8.44474
▁право	-8.44862
▁ния	-8.44918
▁илась	-8.4501
ный	-8.45209
аль	-8.45421
▁се	-8.45869
▁оцен	-8.46229
▁ующ	-8.46284
▁ись	-8.46443
▁ика	-8.46445
анск	-8.46572
▁един	-8.46862
▁ался	-8.46941
▁мер	-8.47006
▁лаг	-8.47332
▁ивает	-8.47341
▁порт	-8.47362
▁нап	-8.47366
▁ерт	-8.47633
▁клад	-8.48001
▁аться	-8.48107
пи	-8.48438
▁огла	-8.48482
ить	-8.48696
▁этот	-8.49081
▁ние	-8.49301
▁ст	-8.49398
▁ением	-8.49591
▁кол	-8.49619
▁ены	-8.49739
глас	-8.50024
▁тив	-8.50112
▁месте	-8.50145
▁лучил	-8.50439
анее	-8.50514
стра	-8.5076
то	-8.50879
▁рист	-8.5101
▁спорт	-8.51017
▁всех	-8.51026
руш	-8.51266
▁иал	-8.51408
▁лись	-8.51577
▁агент	-8.51918
▁кач	-8.52059
▁мет	-8.52128
ад	-8.52152
коло	-8.52662
▁Рос	-8.52704
▁сво	-8.52705
▁эт	-8.52719
▁исп	-8.53059
ир	-8.53258
▁нти	-8.53403
▁еть	-8.5378
▁ества	-8.5394
▁ейш	-8.53997
▁трои	-8.54223
▁ях	-8.5427
фиц	-8.54337
вар	-8.54338
ать	-8.54419
▁енко	-8.54515
▁чик	-8.54674
отв	-8.54676
▁тво	-8.54755
▁инг	-8.54769
▁него	-8.54929
виж	-8.54945
оенн	-8.54973
полн	-8.55084
▁ид	-8.55218
стор	-8.55652
спол	-8.55713
ущ	-8.55731
пец	-8.56248
ом	-8.5631
▁омент	-8.56544
▁оро	-8.56685
▁круп	-8.56687
▁илось	-8.56746
▁кин	-8.56841
▁гол	-8.56902
▁Мы	-8.56923
▁пара	-8.57252
вых	-8.57259
▁дет	-8.576
▁вз	-8.57626
▁ад	-8.57761
o	-8.58054
▁эк	-8.58102
▁реги	-8.58132
▁ятся	-8.58134
▁редит	-8.58366
▁коно	-8.5837
▁авиа	-8.58493
▁мьер	-8.58517
нные	-8.58736
анов	-8.58816
▁торг	-8.59095
▁аний	-8.59526
▁себя	-8.59589
▁мор	-8.59628
▁голо	-8.59655
▁ском	-8.59693
▁всем	-8.59756
ta	-8.59766
▁рав	-8.59999
▁ност	-8.60059
ан	-8.60136
▁месяц	-8.6015
▁лект	-8.60373
▁юджет	-8.60512
▁сен	-8.60562
ком	-8.60809
▁изнес	-8.60907
▁точн	-8.61276
▁двух	-8.61285
▁авш	-8.61524
▁шта	-8.61654
▁верн	-8.6183
▁вести	-8.62147
▁егион	-8.6218
▁Во	-8.62208
▁жите	-8.62231
▁мере	-8.62376
▁Сирии	-8.62392
▁та	-8.62675
▁само	-8.62762
▁бург	-8.62969
твер	-8.63095
▁день	-8.63127
каз	-8.63372
▁ило	-8.63503
"	-8.63733
▁числе	-8.64029
▁нем	-8.64431
▁голос	-8.64523
▁ья	-8.64692
▁отказ	-8.64938
▁бли	-8.65123
r	-8.65388
▁ьник	-8.65673
▁ричин	-8.65773
▁ова	-8.65805
особ	-8.65814
▁вер	-8.65904
▁евро	-8.65968
▁ец	-8.66101
▁квар	-8.66158
▁ались	-8.66321
▁ис	-8.66328
ку	-8.66425
ыв	-8.66474
тор	-8.66478
▁тви	-8.66547
▁дес	-8.66549
митр	-8.66755
роме	-8.66804
▁доб	-8.66889
▁ному	-8.66952
ре	-8.66968
▁ведо	-8.67034
▁жел	-8.67098
▁Так	-8.67119
овет	-8.67228
▁адми	-8.6727
▁чит	-8.67492
▁рез	-8.67576
▁сбор	-8.67654
▁рек	-8.6791
лаг	-8.67943
▁ецк	-8.67982
▁лиш	-8.68064
▁рев	-8.68107
лось	-8.68294
ного	-8.68449
ит	-8.68519
▁школ	-8.68687
оку	-8.68807
▁пис	-8.68812
▁ются	-8.68973
▁рован	-8.69154
▁щик	-8.69223
▁Пет	-8.69608
▁вис	-8.6963
▁овой	-8.69765
▁яет	-8.6979
▁ай	-8.69929
тябр	-8.70011
▁тен	-8.70057
▁раж	-8.70155
▁ечн	-8.70271
▁град	-8.70596
▁дук	-8.7068
▁жил	-8.70829
▁блем	-8.70831
ф	-8.70944
ед	-8.7099
иров	-8.71003
елич	-8.71073
▁сти	-8.71084
▁хоро	-8.71122
▁$	-8.71134
▁ляю	-8.71187
▁оскве	-8.71406
▁езд	-8.71477
▁иск	-8.71634
▁игра	-8.71704
▁зем	-8.71725
▁льн	-8.71845
нц	-8.72018
▁етс	-8.72059
ци	-8.7215
▁ческ	-8.72154
▁10	-8.72294
▁лани	-8.72612
естн	-8.72821
▁ъект	-8.72821
▁ранее	-8.72937
▁проц	-8.73003
▁нии	-8.73055
▁куп	-8.73159
▁пар	-8.73163
▁лич	-8.73171
▁мат	-8.73302
▁Турц	-8.73319
▁куль	-8.73409
обав	-8.73491
▁опер	-8.73574
прел	-8.73589
▁ул	-8.73752
▁озво	-8.73807
▁чле	-8.73813
▁ивать	-8.73824
▁стать	-8.73903
▁ткрыт	-8.74047
▁оциа	-8.74075
▁оск	-8.74545
ных	-8.74705
▁тории	-8.74822
▁Len	-8.7512
▁оллар	-8.75161
пера	-8.75234
▁гр	-8.75247
▁там	-8.75553
треб	-8.756
вые	-8.75644
мотр	-8.75668
▁ала	-8.75698
▁ющ	-8.75759
озда	-8.75806
▁вин	-8.7599
▁ум	-8.76116
▁бу	-8.76172
▁Глав	-8.76523
ко	-8.76604
▁дорог	-8.76647
▁оз	-8.76711
▁аль	-8.76931
▁лидер	-8.76934
▁Ъ	-8.7695
▁стре	-8.77004
▁связи	-8.77044
▁скор	-8.77176
▁факт	-8.77191
▁хот	-8.77232
▁особ	-8.77247
▁тивн	-8.77376
▁служб	-8.77628
▁прос	-8.77676
▁казан	-8.7773
▁труд	-8.77734
▁ерге	-8.77872
▁блюд	-8.77905
▁овлен	-8.77913
ябр	-8.77917
▁вел	-8.7816
▁лимп	-8.78356
сил	-8.7845
▁ям	-8.7854
▁енщин	-8.78543
▁дал	-8.78996
▁цев	-8.79094
▁очн	-8.7911
▁лучш	-8.79298
▁кто	-8.79379
▁рк	-8.79381
▁Се	-8.7943
▁Пре	-8.79537
▁ТАСС	-8.79696
▁сер	-8.79718
▁йти	-8.79794
▁СМИ	-8.79891
▁ека	-8.79934
▁Бел	-8.79967
ров	-8.80039
ильн	-8.80098
▁фильм	-8.80133
▁хва	-8.80211
▁людей	-8.80288
▁луча	-8.80328
▁лин	-8.8055
▁мас	-8.80652
▁лощ	-8.80781
▁ров	-8.81194
▁ним	-8.81204
▁ией	-8.8129
▁исс	-8.81324
яв	-8.81463
▁аш	-8.81496
сь	-8.81517
▁ложн	-8.81561
▁игр	-8.81652
▁матч	-8.81658
▁Из	-8.81772
▁машин	-8.81823
▁води	-8.82
▁ере	-8.82
▁налог	-8.82068
▁таки	-8.82217
▁втор	-8.82256
▁ять	-8.82275
▁асс	-8.82452
новн	-8.82501
▁еспе	-8.82557
един	-8.82568
▁мате	-8.82663
▁обыч	-8.82757
▁тв	-8.82763
▁пуск	-8.83075
▁нск	-8.83135
обед	-8.83172
▁ятель	-8.83221
▁ожид	-8.83499
▁сил	-8.83523
▁крыт	-8.83526
▁нев	-8.83598
▁дач	-8.83828
▁ье	-8.84211
▁ервы	-8.84335
▁мещ	-8.84376
▁ируе	-8.84384
ерен	-8.84406
▁изм	-8.84504
▁/	-8.84552
ому	-8.84781
▁вну	-8.84785
▁укту	-8.84825
▁ман	-8.84833
елен	-8.84866
▁пуст	-8.85182
▁парт	-8.85397
▁шел	-8.85542
▁шн	-8.85651
▁вет	-8.85876
▁гру	-8.86036
ной	-8.86053
▁иаль	-8.86184
▁РИА	-8.86256
▁дида	-8.86257
▁редн	-8.86292
▁стро	-8.86535
▁утбол	-8.86572
▁естве	-8.86605
▁натор	-8.86713
нию	-8.86761
▁ризн	-8.86783
▁20	-8.86918
▁служ	-8.87049
трад	-8.87097
y	-8.87386
▁тож	-8.87413
▁жизни	-8.87457
▁йски	-8.87525
▁шли	-8.87608
▁изац	-8.8824
a	-8.88307
▁прод	-8.88471
▁канал	-8.88488
▁марта	-8.88649
дал	-8.89189
▁ходи	-8.89295
▁комм	-8.89328
влен	-8.8939
О	-8.89415
▁артии	-8.89557
▁свои	-8.89853
▁огда	-8.89908
▁твор	-8.89915
▁ществ	-8.89948
▁Ку	-8.89998
▁ас	-8.90474
▁почт	-8.90551
▁жив	-8.90612
▁Де	-8.90633
▁ству	-8.9069
▁Крым	-8.90844
▁олож	-8.91078
▁ял	-8.91424
▁ужчин	-8.91504
▁уп	-8.91729
▁улиц	-8.92464
▁своих	-8.92745
▁ди	-8.92808
▁Ц	-8.9283
▁фонд	-8.92838
▁равил	-8.93318
▁Трамп	-8.93556
▁ичн	-8.93624
Ъ	-8.93724
▁уда	-8.93754
х	-8.93823
▁цесс	-8.93837
▁ями	-8.93884
ак	-8.93953
▁осквы	-8.93954
▁сь	-8.94127
▁крат	-8.94209
▁нужно	-8.9453
▁стало	-8.94564
▁числ	-8.94589
▁нее	-8.94598
▁ней	-8.94654
▁ериод	-8.94758
▁ового	-8.9485
▁пост	-8.94928
ишь	-8.94957
▁стат	-8.94982
▁пеци	-8.95049
нул	-8.95181
▁быв	-8.95339
▁объе	-8.9564
▁вития	-8.95717
▁тех	-8.95819
анич	-8.95918
▁бор	-8.95955
онч	-8.95973
▁емь	-8.95996
▁нос	-8.96062
▁ху	-8.96421
лож	-8.96441
дум	-8.96564
шл	-8.96569
▁ард	-8.96595
▁чита	-8.96652
▁цы	-8.96699
▁лении	-8.96806
▁вос	-8.9689
арла	-8.96907
▁мин	-8.97226
слов	-8.97316
▁Га	-8.97358
▁анных	-8.97365
▁ара	-8.97376
▁ена	-8.97491
▁ра	-8.97624
В	-8.97642
▁мон	-8.97649
▁оф	-8.97743
▁клуб	-8.97804
▁мента	-8.97826
▁Ба	-8.97892
▁олю	-8.97911
етве	-8.98001
ракт	-8.98068
▁либ	-8.98107
▁ктив	-8.98174
▁зыв	-8.98222
▁уют	-8.98232
утс	-8.98478
▁хи	-8.98518
▁гон	-8.98544
вой	-8.98613
▁благ	-8.98803
▁рамк	-8.98912
▁ост	-8.98962
▁полу	-8.99203
▁фон	-8.99358
▁име	-8.99488
▁остью	-8.99512
▁тране	-8.99536
▁олж	-8.99632
▁детей	-8.99645
▁одн	-8.99649
▁нефти	-8.99782
▁маг	-8.99802
▁лег	-8.99885
▁кой	-8.99935
▁дать	-8.9998
▁да	-9.00012
▁руч	-9.00035
▁бра	-9.00135
▁ольз	-9.00236
▁ол	-9.00242
▁ром	-9.0032
▁часть	-9.00508
▁дома	-9.00546
▁есн	-9.00683
акже	-9.00744
ктив	-9.00855
▁вещ	-9.01002
▁Ма	-9.01013
▁кры	-9.01113
▁общ	-9.01131
▁рату	-9.01194
▁шест	-9.01203
▁срок	-9.01312
▁люди	-9.01316
▁меня	-9.0134
▁стол	-9.01446
дела	-9.01591
▁ике	-9.01742
▁Центр	-9.01925
▁Ст	-9.01983
▁щ	-9.02331
оруж	-9.02409
▁бин	-9.02533
▁ащ	-9.02559
▁тября	-9.02592
руж	-9.02601
▁ника	-9.02637
▁;	-9.0272
озиц	-9.02785
▁разд	-9.02835
▁изме	-9.02914
рав	-9.02974
▁лял	-9.03308
▁омощь	-9.03332
умм	-9.03428
▁твует	-9.0355
▁инск	-9.0357
▁ень	-9.03665
▁связ	-9.03829
▁s	-9.03886
▁ук	-9.03918
▁режд	-9.0432
▁уть	-9.04355
▁успе	-9.04454
▁норм	-9.04473
▁части	-9.04504
▁метр	-9.04675
▁твие	-9.0476
му	-9.04781
▁тоим	-9.05147
анкц	-9.05155
▁гран	-9.05246
▁перс	-9.05267
▁сов	-9.05357
▁вал	-9.0552
▁округ	-9.0552
▁ца	-9.05697
▁мол	-9.05713
▁ент	-9.05737
лек	-9.05913
▁режим	-9.05973
олод	-9.06182
▁бер	-9.06255
ласт	-9.06273
▁мед	-9.06304
▁ороны	-9.06316
▁буду	-9.06374
▁S	-9.06407
▁пят	-9.0647
тог	-9.065
▁трол	-9.06619
▁сети	-9.06631
▁ругие	-9.06677
▁Совет	-9.06681
▁зв	-9.06713
▁уб	-9.06788
▁ерьез	-9.06921
орож	-9.07285
▁суб	-9.07359
▁февр	-9.07566
аса	-9.07674
▁рук	-9.07763
▁теп	-9.07802
ь	-9.07894
▁выше	-9.07946
ажд	-9.07964
▁Ег	-9.08006
вгус	-9.08017
ую	-9.08097
▁анию	-9.08306
ниж	-9.08354
ысок	-9.08629
▁Меж	-9.08662
▁шир	-9.08662
▁доход	-9.0873
▁айш	-9.08828
за	-9.09042
ев	-9.09217
▁нтон	-9.09244
▁15	-9.09269
▁рода	-9.09304
▁молет	-9.09372
▁борь	-9.09466
▁стан	-9.09864
▁ась	-9.09892
▁Вы	-9.09913
▁елик	-9.09952
▁аб	-9.09964
▁трое	-9.09973
▁блок	-9.10084
▁акси	-9.10091
▁теч	-9.10167
▁ывает	-9.10217
лон	-9.10246
▁аются	-9.10258
ли	-9.10309
▁ры	-9.10328
▁30	-9.10401
ящ	-9.10406
▁обяз	-9.10434
▁уется	-9.10515
▁бил	-9.1077
▁щи	-9.10775
▁кар	-9.11044
лиз	-9.11153
▁энер	-9.11296
▁ивал	-9.11304
▁пут	-9.11308
m	-9.11378
d	-9.11496
▁дин	-9.11561
▁Ар	-9.11774
▁разом	-9.11888
▁ивают	-9.1212
▁акт	-9.12313
▁вед	-9.12552
нной	-9.12605
▁рт	-9.12613
льно	-9.12638
▁кабря	-9.12662
чер	-9.12743
▁аэро	-9.12941
▁реа	-9.12948
▁сад	-9.13091
▁вес	-9.13137
▁рем	-9.13165
▁трен	-9.13209
▁хов	-9.13306
▁ицу	-9.13486
▁соб	-9.13661
▁пл	-9.13683
нвес	-9.13704
▁угро	-9.13755
▁долг	-9.13833
▁ана	-9.13867
▁виде	-9.13966
▁надо	-9.1407
▁назад	-9.14379
▁ант	-9.14458
ть	-9.14462
▁зон	-9.14493
▁яют	-9.14595
▁ффект	-9.14654
▁ама	-9.14735
▁едь	-9.14754
▁прет	-9.15055
▁еньги	-9.15137
▁наль	-9.15215
▁раб	-9.15316
▁ское	-9.15317
▁арм	-9.15437
▁Киев	-9.15558
▁итай	-9.15616
матр	-9.15694
▁гля	-9.15707
▁фа	-9.1578
▁тре	-9.15863
мерт	-9.15964
нер	-9.15971
ей	-9.16051
▁овый	-9.16125
▁уточ	-9.16152
дче	-9.16266
▁трех	-9.16694
шей	-9.16762
▁русс	-9.16856
▁мая	-9.16881
мер	-9.16892
▁арест	-9.16893
▁вот	-9.16914
▁пом	-9.16954
▁ышл	-9.17039
▁роди	-9.1719
▁онов	-9.17273
лия	-9.17273
▁себе	-9.1732
▁ации	-9.17358
▁тин	-9.17421
▁алась	-9.17466
▁банк	-9.17484
тер	-9.17572
▁торой	-9.17704
▁губ	-9.17715
▁итета	-9.17849
▁ус	-9.17887
▁тиц	-9.1798
ент	-9.18005
ылк	-9.18055
ания	-9.18131
▁заб	-9.18206
▁тик	-9.18252
▁оряд	-9.18267
▁одоб	-9.1828
▁зж	-9.18323
▁здан	-9.18386
▁тоит	-9.18473
▁кл	-9.18479
▁топ	-9.18672
▁ящ	-9.18786
▁сих	-9.18964
▁каж	-9.19417
▁журн	-9.19454
▁ано	-9.19468
▁дис	-9.1955
▁класс	-9.19767
▁годн	-9.19956
чн	-9.2006
▁яя	-9.20148
▁адр	-9.20195
ольн	-9.20209
▁хозя	-9.20226
▁граф	-9.20235
▁Да	-9.20239
▁пенс	-9.20321
▁ха	-9.20332
▁мног	-9.20343
▁Нико	-9.20375
ющ	-9.20442
▁Север	-9.20538
▁личн	-9.20556
▁ством	-9.20615
▁сегда	-9.20646
▁рак	-9.20647
▁мне	-9.20704
▁ителя	-9.20793
▁тол	-9.20914
▁воего	-9.21026
▁лекс	-9.21175
▁взя	-9.21217
тар	-9.21365
▁ите	-9.21426
▁жен	-9.21433
▁боль	-9.21775
▁ассаж	-9.21791
▁гноз	-9.2183
▁отме	-9.21889
▁шед	-9.21986
▁рове	-9.22029
▁дь	-9.22038
▁сезон	-9.22128
ерси	-9.22312
▁ихся	-9.22328
▁ЕС	-9.22365
▁нди	-9.22673
▁йн	-9.22678
▁минут	-9.22879
▁имо	-9.22883
▁крас	-9.22928
▁анков	-9.23013
верд	-9.23057
▁воим	-9.23136
▁чь	-9.23163
▁ед	-9.23197
▁крыв	-9.23213
▁слов	-9.23236
рям	-9.23306
▁проч	-9.23313
▁йдет	-9.23461
▁титу	-9.23516
▁тогда	-9.23683
▁гром	-9.23757
бий	-9.23796
▁ьян	-9.23798
иним	-9.23812
▁анием	-9.23824
▁ринят	-9.23881
▁фото	-9.24015
▁дня	-9.24018
▁ыгр	-9.24028
▁льз	-9.24086
▁дума	-9.24091
▁ноч	-9.24117
▁годы	-9.24228
▁сел	-9.24274
▁зап	-9.24355
цион	-9.24359
щес	-9.2453
▁взрыв	-9.24628
▁A	-9.24708
нов	-9.24718
▁ег	-9.24753
▁удар	-9.24769
▁здесь	-9.24781
▁айн	-9.24879
▁ляц	-9.24882
▁лад	-9.24996
▁ина	-9.25009
▁верк	-9.25085
▁тест	-9.25168
▁але	-9.2518
▁ноги	-9.25283
▁рыв	-9.25334
▁ыв	-9.25379
▁вне	-9.25381
▁парк	-9.25411
▁несен	-9.25686
▁ским	-9.25718
урма	-9.25746
▁ново	-9.25759
▁яется	-9.25778
▁лог	-9.25805
▁шла	-9.25882
▁обор	-9.2589
▁ител	-9.25909
▁12	-9.25927
▁погиб	-9.25933
▁роз	-9.2594
▁указ	-9.25944
▁аря	-9.26021
▁рита	-9.2614
▁кино	-9.26225
▁олев	-9.2627
▁гл	-9.2627
▁авл	-9.26361
▁ероя	-9.26383
▁рожд	-9.26531
▁ниц	-9.26614
оль	-9.26802
▁МВД	-9.26891
▁тия	-9.2705
▁рий	-9.27053
▁меч	-9.27099
▁ион	-9.27286
▁Го	-9.27356
▁могл	-9.27426
▁пам	-9.27488
мет	-9.27606
▁ква	-9.27657
▁дежд	-9.277
вер	-9.27845
▁мог	-9.27869
▁еж	-9.27883
▁ензи	-9.27892
по	-9.27973
▁ерб	-9.28035
С	-9.2811
▁Фран	-9.282
▁онд	-9.28218
▁др	-9.28255
▁атив	-9.28258
▁бр	-9.28262
▁дан	-9.28302
▁фликт	-9.28366
▁регу	-9.28374
▁ыш	-9.28435
▁меро	-9.28447
▁товар	-9.28605
▁чего	-9.28625
енд	-9.28654
▁юс	-9.28781
▁Бр	-9.28795
ус	-9.28922
▁лета	-9.28952
▁лити	-9.28981
▁услуг	-9.29005
▁срав	-9.29042
▁двиг	-9.29164
▁акц	-9.29174
▁нг	-9.2924
▁ьев	-9.29271
▁алл	-9.29312
▁олот	-9.29313
▁сири	-9.29373
▁давно	-9.29386
▁слав	-9.29499
▁нефт	-9.29514
▁мел	-9.29531
▁ыск	-9.29598
▁пас	-9.29633
p	-9.29702
▁ребе	-9.29935
И	-9.30071
▁тот	-9.30085
2	-9.30085
▁креп	-9.30143
▁ез	-9.30196
▁нег	-9.30351
беж	-9.30364
▁тога	-9.30423
ает	-9.3047
пис	-9.3052
▁вяз	-9.30532
▁исло	-9.30537
▁No	-9.30647
▁ихаил	-9.30711
▁ывш	-9.30781
▁сразу	-9.30943
▁ункт	-9.31015
▁моде	-9.31078
▁озре	-9.31087
▁видео	-9.31126
▁ущ	-9.31151
изац	-9.31172
леч	-9.31256
ъяв	-9.31599
узык	-9.31621
▁тракт	-9.31639
ста	-9.31805
▁ику	-9.31896
▁нтов	-9.31946
рск	-9.32018
▁разв	-9.32109
▁данн	-9.32239
▁Иван	-9.32339
▁лив	-9.32364
▁обещ	-9.32441
▁ех	-9.32511
▁руж	-9.32521
▁меш	-9.32613
▁ково	-9.32627
след	-9.32765
▁емон	-9.32773
▁тог	-9.32778
▁меди	-9.32893
▁зор	-9.33189
▁ракет	-9.33307
▁конф	-9.33351
▁зам	-9.33372
стро	-9.33441
▁ласт	-9.33443
▁аны	-9.33447
▁Ан	-9.33551
▁ицы	-9.33605
▁ьц	-9.33617
▁ъяв	-9.33794
▁бар	-9.33821
▁иску	-9.33871
▁оевик	-9.34008
▁онал	-9.34011
▁выход	-9.34098
▁ице	-9.34126
▁овск	-9.3426
▁ты	-9.34348
▁вят	-9.34387
▁нефть	-9.34437
▁рск	-9.34477
П	-9.3461
▁C	-9.34629
▁имеет	-9.34667
танц	-9.34757
▁иф	-9.34964
лам	-9.35037
▁спек	-9.35073
ген	-9.35118
▁анные	-9.35148
ерма	-9.35173
▁енн	-9.35276
▁ризис	-9.35276
▁выс	-9.35277
▁чер	-9.35315
▁ехал	-9.35543
▁през	-9.35543
▁оруж	-9.35604
▁орд	-9.35643
▁етыр	-9.35757
c	-9.3605
▁коп	-9.36217
▁анс	-9.36369
▁То	-9.36394
▁мал	-9.36394
суд	-9.36491
▁юр	-9.3657
пад	-9.36644
▁ьм	-9.36646
зна	-9.36706
▁права	-9.36761
▁штраф	-9.36818
Р	-9.36833
том	-9.36971
▁адиц	-9.36997
жно	-9.37201
▁скую	-9.373
▁март	-9.37354
▁ний	-9.37375
▁руш	-9.37385
▁яч	-9.37431
▁Кл	-9.37517
▁кт	-9.37527
▁аг	-9.37632
▁оско	-9.37857
▁ьб	-9.37903
▁быт	-9.37943
яза	-9.38099
▁нял	-9.38188
▁рынке	-9.38198
▁илл	-9.38337
ывш	-9.38362
▁снов	-9.3847
▁инс	-9.3856
▁орож	-9.38599
▁вол	-9.38622
▁сайте	-9.38675
дов	-9.38683
▁суда	-9.38764
▁енд	-9.38803
▁ази	-9.38806
▁нят	-9.38992
▁пер	-9.39009
▁лений	-9.39044
▁имп	-9.39109
▁туд	-9.39161
▁опол	-9.39167
▁новый	-9.39181
▁тим	-9.39233
лит	-9.39308
▁ари	-9.39334
▁i	-9.39343
▁здра	-9.39423
▁арк	-9.39474
▁демо	-9.39514
▁театр	-9.39625
▁рынка	-9.39808
▁лужб	-9.39847
▁уж	-9.39885
▁ифик	-9.39985
▁раст	-9.40035
▁кции	-9.40176
▁урна	-9.40289
А	-9.40296
рач	-9.40308
гор	-9.40419
▁мигр	-9.40429
стоя	-9.40435
▁ести	-9.40491
▁ене	-9.40621
▁обед	-9.40666
▁ошел	-9.40698
▁рибы	-9.40782
▁ьск	-9.40822
▁чен	-9.40833
▁жизнь	-9.40881
▁мите	-9.40977
▁дум	-9.41182
▁ло	-9.41203
▁фере	-9.41247
▁нут	-9.41551
▁леч	-9.41779
▁ред	-9.41813
▁треть	-9.4198
▁еск	-9.42005
▁иру	-9.42036
▁енц	-9.42104
▁цией	-9.42177
▁задач	-9.42183
▁трат	-9.42195
▁МИД	-9.42237
▁кри	-9.42274
выш	-9.42326
▁ани	-9.4235
▁осущ	-9.42385
▁веч	-9.42409
▁шлого	-9.42424
▁еб	-9.42442
▁ша	-9.42466
▁фор	-9.42468
▁пиш	-9.42506
▁час	-9.42537
▁гла	-9.42617
▁мой	-9.4264
▁айте	-9.42642
▁олн	-9.42726
▁пожар	-9.42959
лась	-9.43162
▁ольш	-9.43215
▁асл	-9.43231
▁две	-9.43279
▁вор	-9.43363
▁лось	-9.43385
спро	-9.43391
▁От	-9.43471
▁еме	-9.43582
▁ъе	-9.43677
▁Ев	-9.43805
▁рен	-9.43892
▁равда	-9.43897
▁гу	-9.43993
▁мини	-9.44085
▁елей	-9.44143
▁марк	-9.44195
▁строй	-9.44229
▁ервые	-9.4424
▁рест	-9.44275
▁тяже	-9.44331
▁неж	-9.44522
▁деп	-9.44564
▁блемы	-9.44607
▁атак	-9.44623
▁мов	-9.44628
▁рат	-9.4464
▁цов	-9.44729
▁отно	-9.44805
▁ариа	-9.44819
▁логи	-9.44869
еду	-9.45043
▁шенко	-9.45158
▁печа	-9.45265
есси	-9.45338
▁оллег	-9.45403
▁25	-9.45486
▁оль	-9.45529
вмес	-9.45578
▁овым	-9.45598
▁род	-9.45623
▁конт	-9.457
▁ори	-9.4576
▁гар	-9.45826
▁чив	-9.45897
▁Фед	-9.45911
▁чера	-9.4592
▁уль	-9.45921
▁озни	-9.45923
▁мит	-9.46012
▁оссию	-9.46051
▁инте	-9.4619
▁вели	-9.4621
▁быст	-9.46227
чему	-9.46234
▁ках	-9.4634
▁ще	-9.46368
тем	-9.46426
▁екс	-9.46557
▁лю	-9.46631
ич	-9.46653
мина	-9.4666
▁11	-9.46694
▁рабо	-9.46749
лед	-9.46772
▁орту	-9.4679
▁шес	-9.46869
▁боев	-9.46873
▁ельс	-9.46964
ще	-9.46983
тоит	-9.47009
▁финал	-9.47017
▁опинг	-9.47029
▁опыт	-9.47107
▁теря	-9.47239
▁ниве	-9.47257
▁тане	-9.47315
▁очк	-9.47489
▁годов	-9.47555
▁воду	-9.47583
▁ствия	-9.47694
▁омощи	-9.47861
ким	-9.47919
▁дней	-9.4795
▁июля	-9.48059
▁Крас	-9.48108
▁иц	-9.48132
,5	-9.48157
▁тар	-9.48177
▁мощ	-9.48288
▁пад	-9.483
▁риня	-9.48322
осто	-9.48455
ные	-9.48466
▁фици	-9.48508
тали	-9.48595
▁вице	-9.48646
чен	-9.48675
▁ведет	-9.48822
▁онк	-9.48883
▁ака	-9.4901
▁хара	-9.4922
огда	-9.49301
▁ООН	-9.49329
▁телем	-9.49381
▁огиб	-9.49428
▁Серг	-9.49449
▁орв	-9.49466
▁пр	-9.49493
▁мерн	-9.49525
▁карт	-9.49842
▁йд	-9.49861
М	-9.49874
▁слу	-9.49887
▁ожд	-9.49918
▁аждый	-9.49918
▁гиона	-9.49921
▁низ	-9.49929
▁18	-9.49953
екре	-9.49954
▁Тр	-9.50016
▁арш	-9.5013
ичег	-9.5017
▁ланд	-9.50179
▁вар	-9.50239
▁АТО	-9.50247
▁еже	-9.5036
▁иктор	-9.50408
ная	-9.50451
ект	-9.50509
▁сдел	-9.50686
▁олез	-9.50712
ници	-9.50797
арь	-9.50816
▁дух	-9.50846
▁нам	-9.50889
▁факс	-9.50912
▁носи	-9.50938
▁верх	-9.51041
▁ндре	-9.51043
▁цена	-9.51088
▁точ	-9.51109
▁лега	-9.5112
уляр	-9.51157
▁er	-9.51233
▁дж	-9.51352
▁осква	-9.51413
▁случ	-9.51481
▁дев	-9.51638
▁бол	-9.51648
▁тон	-9.51759
▁тай	-9.51789
▁ели	-9.51837
4	-9.51889
▁амп	-9.52215
▁ока	-9.52237
▁Бу	-9.52253
▁изов	-9.52343
▁мире	-9.5244
▁ток	-9.52505
▁онер	-9.52533
▁лот	-9.52534
7	-9.5259
епер	-9.52705
▁эта	-9.5271
▁есп	-9.52753
▁грес	-9.52829
▁ебн	-9.5285
щен	-9.53088
▁курор	-9.53153
▁вокат	-9.53283
▁бел	-9.53287
▁рова	-9.53297
▁еньше	-9.53328
▁етом	-9.53367
▁артин	-9.53434
▁этап	-9.53466
▁исхо	-9.53483
▁сир	-9.53608
вобо	-9.53677
мог	-9.5368
▁лик	-9.53713
▁ертв	-9.53778
▁олжно	-9.53821
▁войн	-9.53853
▁анг	-9.54033
▁E	-9.54063
▁ций	-9.54126
▁атег	-9.54172
▁ела	-9.54173
▁плат	-9.54214
▁бой	-9.54276
▁як	-9.54309
▁бран	-9.5432
▁сть	-9.54338
▁ранц	-9.54388
▁ельн	-9.54398
▁аст	-9.54533
k	-9.54714
▁яг	-9.54726
▁лужбы	-9.54775
▁льные	-9.54813
К	-9.54818
вест	-9.5486
▁риск	-9.54935
▁ало	-9.5498
▁стров	-9.55016
▁амер	-9.55062
g	-9.55074
▁лав	-9.55101
▁ну	-9.55164
▁лови	-9.55182
▁ситет	-9.55183
▁грок	-9.55216
▁отр	-9.55246
осм	-9.55329
▁Нов	-9.55367
итал	-9.55562
▁сайт	-9.5557
ерв	-9.55571
▁опро	-9.55611
▁оюз	-9.5562
▁боро	-9.55731
луча	-9.5577
дроб	-9.55859
▁оче	-9.56098
▁сроч	-9.56124
▁везд	-9.56165
ист	-9.56205
▁пита	-9.56242
▁арта	-9.56291
▁июн	-9.56398
▁би	-9.5649
▁поезд	-9.5654
▁шлом	-9.56548
ынеш	-9.56646
▁йтинг	-9.56647
омоч	-9.56841
▁орот	-9.56877
▁раг	-9.56943
рат	-9.5705
▁часов	-9.57086
▁мало	-9.57104
▁ion	-9.57176
▁монт	-9.5721
▁Кр	-9.57358
ную	-9.5736
▁рубеж	-9.57448
▁14	-9.57496
низ	-9.57511
▁тери	-9.57518
▁рх	-9.57538
▁Ру	-9.5758
▁нстр	-9.57598
▁Ru	-9.5762
▁изир	-9.57633
▁рг	-9.57682
▁урс	-9.57703
▁ерд	-9.57738
э	-9.5787
▁хоте	-9.57895
▁ерво	-9.57957
▁рад	-9.58028
▁Й	-9.58136
Н	-9.58162
▁акци	-9.5857
▁едл	-9.58595
▁50	-9.586
крат	-9.5864
▁евер	-9.58776
▁важ	-9.58989
▁декс	-9.59013
▁сек	-9.59055
▁войны	-9.59179
▁четы	-9.59425
▁тарт	-9.5952
▁встр	-9.59658
▁лиг	-9.59842
▁лини	-9.59875
▁обой	-9.60048
▁колл	-9.60072
▁бам	-9.60099
▁деб	-9.60261
▁ствие	-9.60383
▁омб	-9.6052
▁ьер	-9.6053
▁апад	-9.60563
▁нир	-9.60678
▁хе	-9.6078
▁едве	-9.60781
▁верг	-9.60808
зв	-9.6081
▁преж	-9.60835
▁оман	-9.6093
▁руп	-9.61023
▁ита	-9.6109
▁100	-9.61136
▁нно	-9.6114
▁ката	-9.61144
▁осток	-9.6118
▁Re	-9.61277
▁ерты	-9.61299
▁естр	-9.61401
▁мысл	-9.61407
ажн	-9.61521
▁G	-9.61545
▁ерал	-9.6158
▁остр	-9.61691
аю	-9.6171
▁долго	-9.61832
▁валют	-9.61839
▁оев	-9.61887
▁иев	-9.61981
▁сей	-9.6201
▁цель	-9.62105
▁ож	-9.6214
вал	-9.62224
▁цены	-9.62322
▁ши	-9.62324
▁ладе	-9.6238
▁бал	-9.62401
▁льг	-9.62482
▁боров	-9.62491
▁мени	-9.62596
l	-9.62758
▁дву	-9.62778
▁баз	-9.62793
▁унд	-9.62913
Т	-9.62954
▁ошло	-9.62975
▁яти	-9.63056
▁узе	-9.63468
▁17	-9.63514
▁стана	-9.63583
▁брос	-9.63635
▁нис	-9.63671
▁ща	-9.63673
▁детс	-9.63699
▁танц	-9.63821
▁ращ	-9.63934
же	-9.63943
▁цер	-9.64023
арит	-9.64128
▁W	-9.64212
▁оли	-9.64213
▁нта	-9.64308
тал	-9.64429
▁етер	-9.64453
▁рон	-9.6456
▁16	-9.64686
▁завод	-9.6491
▁пуска	-9.64922
▁глу	-9.65048
▁ыва	-9.65098
▁анд	-9.65125
▁аты	-9.65228
▁фун	-9.65284
▁Ге	-9.65367
▁дар	-9.65462
▁исты	-9.65527
▁рис	-9.6556
▁иссии	-9.65783
▁P	-9.65954
▁вью	-9.65964
▁реб	-9.66127
▁щего	-9.66161
▁арт	-9.66252
▁ывать	-9.66313
уб	-9.66328
▁ица	-9.6638
▁хода	-9.66426
▁ерн	-9.66458
▁иза	-9.66554
▁аде	-9.66741
▁учн	-9.66814
Д	-9.66899
▁овая	-9.67108
▁тяж	-9.67122
▁лу	-9.67281
▁ги	-9.67301
▁ле	-9.67425
▁оя	-9.67553
▁зар	-9.676
▁иль	-9.67659
▁нято	-9.67836
▁22	-9.67873
▁ипл	-9.67935
▁остов	-9.68008
▁таж	-9.68242
▁ываю	-9.68289
▁фра	-9.68337
▁ага	-9.68424
▁ути	-9.68466
▁иях	-9.68513
нее	-9.6854
▁13	-9.68542
▁омат	-9.68573
▁Ист	-9.68811
▁нул	-9.68871
▁ска	-9.69065
▁союз	-9.69093
▁меры	-9.6911
▁лан	-9.69136
▁лач	-9.69238
▁сущ	-9.69241
▁ранен	-9.69315
▁огн	-9.6935
▁ыб	-9.69356
▁ети	-9.69466
▁тонн	-9.69486
▁ниг	-9.69574
▁места	-9.69677
▁ева	-9.69832
▁крес	-9.69844
есь	-9.699
▁адле	-9.6992
нешн	-9.70072
▁пора	-9.70081
n	-9.70138
▁ею	-9.70283
▁фр	-9.70364
▁йте	-9.70364
▁менты	-9.70375
го	-9.70389
▁лучше	-9.70452
▁ометр	-9.70456
▁актер	-9.70575
▁нок	-9.70578
▁фик	-9.70649
▁ЦБ	-9.70728
▁игу	-9.70735
▁авр	-9.70966
▁ня	-9.71134
▁лаб	-9.71248
▁юри	-9.71308
У	-9.71359
▁родн	-9.71378
▁ерм	-9.71586
▁сор	-9.71629
▁иям	-9.71687
▁19	-9.71707
▁бок	-9.7172
▁уне	-9.71829
▁ойск	-9.71924
▁атри	-9.72078
▁брит	-9.72163
▁оппо	-9.72175
▁става	-9.72202
▁селе	-9.72287
▁оне	-9.72408
▁лер	-9.72423
▁рби	-9.72512
▁тера	-9.72658
▁рик	-9.72687
▁Ле	-9.72788
▁ух	-9.72798
▁пал	-9.7284
▁гер	-9.72855
▁иде	-9.72921
осп	-9.72947
▁хр	-9.73078
▁УК	-9.73181
▁бит	-9.73323
воем	-9.73503
▁дава	-9.73609
еньш	-9.737
▁ине	-9.73739
▁елу	-9.73779
▁тут	-9.73952
▁льный	-9.74395
1	-9.74396
жал	-9.74452
▁ога	-9.74465
▁ног	-9.74508
ают	-9.74528
▁теку	-9.74538
▁роста	-9.74543
▁дем	-9.74566
▁дом	-9.74584
▁тип	-9.74607
▁вас	-9.74636
▁нуть	-9.7477
▁акции	-9.74839
▁w	-9.74886
▁Але	-9.74946
▁живо	-9.74998
v	-9.75145
▁свет	-9.75175
▁Пар	-9.75198
▁шь	-9.75214
▁гри	-9.7523
▁Ник	-9.75269
▁расп	-9.75275
▁оч	-9.75289
▁нвес	-9.75336
▁бо	-9.75336
▁ообщ	-9.75373
▁ента	-9.7562
Б	-9.75855
▁24	-9.75925
▁яс	-9.75987
▁e	-9.76048
▁фил	-9.76077
▁шк	-9.76134
▁ажи	-9.76283
▁гро	-9.76513
▁лам	-9.76658
▁тро	-9.76661
ну	-9.76789
▁рус	-9.76799
▁кос	-9.7693
▁йм	-9.76947
▁овик	-9.76986
нят	-9.77048
▁кил	-9.77171
▁аге	-9.77177
▁21	-9.7724
▁еву	-9.77373
▁лены	-9.7738
▁кро	-9.7745
▁етк	-9.77521
▁нужн	-9.77536
▁боле	-9.77618
▁орис	-9.77736
▁ходят	-9.77803
▁ктор	-9.7782
▁Эр	-9.77846
▁еха	-9.78004
▁вез	-9.78039
▁Че	-9.78172
▁шт	-9.78223
▁еда	-9.78284
▁рок	-9.78436
вари	-9.78452
▁кал	-9.78528
▁еты	-9.78563
▁уста	-9.78579
▁зык	-9.78605
▁Ал	-9.78608
▁че	-9.78639
h	-9.78842
дель	-9.78859
▁зер	-9.78944
▁лаз	-9.79008
▁олет	-9.79167
▁нд	-9.7921
▁ощ	-9.79237
▁мину	-9.79321
▁ших	-9.79323
▁олга	-9.79363
▁илу	-9.79365
▁люд	-9.79382
▁ту	-9.7942
▁орн	-9.79441
▁кер	-9.79517
▁чн	-9.79651
▁The	-9.79667
▁хан	-9.79702
▁аги	-9.79765
▁усск	-9.79852
до	-9.79916
▁28	-9.79975
▁хран	-9.79992
▁елк	-9.80062
▁вам	-9.80106
▁мод	-9.80116
▁рои	-9.80139
▁реф	-9.80163
▁истов	-9.80286
▁кате	-9.80351
▁H	-9.8038
▁спор	-9.80393
▁реди	-9.80535
▁ниже	-9.8056
▁СССР	-9.80594
▁ондо	-9.80695
▁легк	-9.80725
▁рии	-9.80768
▁ысок	-9.80851
▁ьше	-9.80882
▁асно	-9.81021
▁чис	-9.81091
▁овета	-9.81174
▁яже	-9.81387
8	-9.8142
▁ассе	-9.81448
▁лез	-9.81573
▁ппо	-9.81625
▁зд	-9.81847
▁дпис	-9.81944
▁порта	-9.8201
▁няли	-9.82055
▁реду	-9.82065
▁B	-9.82132
T	-9.82133
▁атар	-9.82244
▁гост	-9.82267
▁тавки	-9.82371
▁риг	-9.82376
▁гори	-9.82409
▁омис	-9.82471
▁рец	-9.8265
теч	-9.82789
▁фин	-9.82936
▁зав	-9.82946
гл	-9.83184
▁иков	-9.83235
▁орк	-9.83316
▁ыта	-9.83366
ерик	-9.8342
обра	-9.83503
▁сет	-9.83694
▁­	-9.83862
▁зло	-9.83906
▁ыплат	-9.84002
▁еш	-9.84041
▁Моск	-9.84238
кабр	-9.84345
▁зов	-9.8443
▁илы	-9.84539
▁ули	-9.84584
▁нф	-9.84611
▁илов	-9.8463
▁маш	-9.84662
▁эр	-9.847
▁оу	-9.84718
▁торо	-9.84769
▁льян	-9.84785
▁инк	-9.84839
▁телям	-9.84912
▁пони	-9.85106
▁алин	-9.85178
Г	-9.85183
▁ге	-9.85317
▁имени	-9.85403
▁кк	-9.85404
ченк	-9.85449
▁ловия	-9.85471
▁I	-9.85534
▁пера	-9.85554
▁еле	-9.85635
▁неу	-9.85746
▁D	-9.85839
▁ООО	-9.8596
▁вое	-9.85964
▁сед	-9.86062
▁канд	-9.86069
▁Андр	-9.86095
▁виз	-9.86252
▁режи	-9.86309
▁мина	-9.86337
▁Па	-9.8636
рг	-9.8643
▁рия	-9.86447
Мы	-9.86719
▁ея	-9.86928
▁тан	-9.87095
▁круг	-9.87123
▁троль	-9.87131
▁атели	-9.87132
▁ing	-9.87253
▁скому	-9.87254
▁рынк	-9.87255
▁муни	-9.87515
титу	-9.8764
▁мск	-9.8766
▁аха	-9.87702
▁фес	-9.87804
▁рам	-9.87823
▁нтар	-9.87868
▁ечен	-9.87876
C	-9.8793
▁ником	-9.87936
A	-9.8802
▁оши	-9.88035
▁овле	-9.88141
▁ениях	-9.88211
▁олд	-9.88496
▁лит	-9.88576
ител	-9.88603
быт	-9.88691
нец	-9.88715
▁ест	-9.88756
▁аз	-9.88774
уд	-9.88858
▁рай	-9.88966
▁ино	-9.89004
купа	-9.89083
3	-9.89088
▁+	-9.89121
▁гиб	-9.8921
▁аев	-9.89287
▁прек	-9.89355
▁27	-9.89438
▁елен	-9.89495
▁лаго	-9.89581
▁тю	-9.89582
▁26	-9.89703
9	-9.89771
▁платы	-9.89959
▁траж	-9.89977
▁акет	-9.9008
▁23	-9.90082
▁чат	-9.90149
▁льск	-9.90305
▁нача	-9.90326
▁рд	-9.90355
▁абл	-9.90355
▁диа	-9.90358
▁омер	-9.90406
▁тие	-9.90429
▁ками	-9.90447
гуля	-9.90465
▁роли	-9.90481
▁тов	-9.90486
▁уз	-9.90518
)	-9.90531
▁40	-9.90626
ая	-9.90661
▁нс	-9.90722
▁кст	-9.90733
▁оды	-9.91012
▁орон	-9.91016
▁есс	-9.91111
Я	-9.91125
▁енс	-9.91286
▁a	-9.91326
▁инци	-9.91429
▁пада	-9.91437
▁ниж	-9.91492
▁лон	-9.91552
▁ксп	-9.91705
▁роль	-9.91888
▁ходя	-9.91906
обще	-9.92022
▁айк	-9.92077
▁дил	-9.92086
▁дых	-9.92101
▁анти	-9.92294
u	-9.92491
▁РБК	-9.92553
▁en	-9.92628
нали	-9.92658
▁еев	-9.92786
▁прин	-9.92808
x	-9.92814
стру	-9.92826
▁итар	-9.92999
▁ета	-9.93002
тел	-9.93018
▁цк	-9.93078
▁сель	-9.93128
▁Imag	-9.93289
▁екц	-9.933
▁сия	-9.93384
▁ери	-9.9357
▁ды	-9.93583
▁чувс	-9.93594
▁дале	-9.93666
▁яза	-9.9369
шли	-9.93737
▁овер	-9.93752
▁паде	-9.93769
▁зи	-9.93847
АО	-9.93948
I	-9.94119
▁див	-9.94125
▁окол	-9.94458
▁яде	-9.94481
▁ател	-9.94484
▁мост	-9.94531
▁юк	-9.94542
▁сим	-9.94622
▁ради	-9.94658
▁кция	-9.94669
раз	-9.94836
▁29	-9.94881
▁енск	-9.95022
▁выш	-9.95026
S	-9.95039
▁льная	-9.95064
▁Су	-9.95121
▁гре	-9.95184
▁иг	-9.95238
▁Та	-9.95281
▁ука	-9.95455
▁вто	-9.95475
▁дог	-9.95505
оциа	-9.95506
▁лению	-9.95627
▁ульт	-9.95644
▁инд	-9.95673
ес	-9.95712
пас	-9.95746
▁актор	-9.95804
ерь	-9.95844
▁уш	-9.9603
ян	-9.96218
▁зрен	-9.96398
▁гры	-9.96477
▁рите	-9.96576
▁стой	-9.96582
▁екл	-9.96607
▁оюза	-9.96843
ис	-9.96976
пеш	-9.97188
▁Мос	-9.97304
▁буде	-9.9731
▁соц	-9.97319
▁олг	-9.97329
▁очт	-9.97358
▁лек	-9.97492
▁гн	-9.97498
▁МЧС	-9.97641
▁арх	-9.9767
▁реда	-9.97675
▁леж	-9.97736
▁ото	-9.97797
тир	-9.97934
▁чу	-9.98012
▁вку	-9.98027
▁айд	-9.98145
ден	-9.98261
▁ват	-9.9846
▁F	-9.98694
вис	-9.98773
▁евра	-9.9884
▁екрет	-9.98869
Ф	-9.98973
▁чест	-9.99066
▁воен	-9.99077
▁листы	-9.99277
▁аф	-9.99308
▁рая	-9.99315
▁ган	-9.99353
▁оно	-9.99365
▁ИГ	-9.9943
▁хар	-9.99612
▁ищ	-9.99666
▁олос	-9.99709
▁дали	-9.99824
ающ	-9.9986
▁лле	-10.0001
▁роиз	-10.0003
чит	-10.0019
ман	-10.0049
▁тных	-10.0051
▁лко	-10.0057
▁ума	-10.0061
▁ывал	-10.0063
▁олл	-10.0067
▁стей	-10.0068
▁рал	-10.0069
▁лов	-10.0078
ения	-10.0079
▁ерс	-10.0083
▁омн	-10.009
▁вода	-10.0107
▁рко	-10.0114
▁M	-10.0123
▁ура	-10.0126
▁фер	-10.013
▁ерк	-10.0135
▁ндар	-10.0142
▁льше	-10.0147
ор	-10.015
▁иби	-10.0153
▁нед	-10.0163
▁еги	-10.0168
▁прие	-10.0178
▁никам	-10.0183
▁щих	-10.0202
▁жива	-10.0208
▁нац	-10.0208
▁пило	-10.0215
▁дея	-10.022
-	-10.0244
▁спи	-10.0255
дар	-10.0258
▁сон	-10.0259
▁фф	-10.0264
▁сии	-10.0302
▁хл	-10.0307
P	-10.0345
▁итет	-10.0347
▁одни	-10.0354
▁Ну	-10.0355
▁поп	-10.0357
▁яв	-10.0362
▁тали	-10.0368
▁N	-10.0368
▁дут	-10.0369
▁воч	-10.0376
▁мена	-10.041
▁всю	-10.0415
▁чай	-10.044
▁уга	-10.0443
▁цент	-10.0453
▁рае	-10.0455
▁той	-10.0465
▁чев	-10.0468
ряд	-10.0477
фер	-10.048
▁озит	-10.0481
▁орми	-10.0498
▁пог	-10.0504
▁ваний	-10.0544
▁200	-10.0581
▁рина	-10.0582
▁рин	-10.0584
▁оток	-10.0593
▁очи	-10.0597
▁смог	-10.06
▁га	-10.0635
▁ега	-10.0643
▁яко	-10.0643
▁ацие	-10.0655
▁роше	-10.0655
▁олит	-10.0665
▁ауд	-10.0666
цио	-10.0667
нам	-10.067
▁чан	-10.0689
▁СКР	-10.0704
▁раи	-10.0707
▁рут	-10.0721
▁овое	-10.0726
▁щен	-10.0727
▁аск	-10.0733
▁ласть	-10.0733
▁абс	-10.0734
▁оло	-10.0735
▁ода	-10.0761
ется	-10.0762
▁шев	-10.0765
▁жер	-10.0768
b	-10.079
▁енное	-10.079
▁сами	-10.0796
▁шин	-10.0801
▁оля	-10.0814
▁Ха	-10.0819
▁эле	-10.0832
▁ург	-10.0859
▁al	-10.0861
▁йским	-10.0862
▁ерто	-10.0865
▁дии	-10.0871
an	-10.0874
▁орг	-10.0886
▁хол	-10.0909
▁тра	-10.0913
▁ете	-10.0932
биль	-10.0935
озр	-10.0935
▁енда	-10.0937
▁шо	-10.0937
ня	-10.0939
▁жа	-10.0953
▁Сири	-10.0959
▁епл	-10.0962
▁дц	-10.0975
▁Гр	-10.098
▁ДТП	-10.098
▁буд	-10.0997
дер	-10.0998
ализ	-10.0999
▁йл	-10.1017
▁ерг	-10.1023
▁азета	-10.1033
▁ейн	-10.1039
▁амб	-10.1048
▁мя	-10.1058
▁ирм	-10.1065
▁ризм	-10.107
▁Кит	-10.1074
▁пись	-10.1077
лат	-10.1095
бу	-10.1102
▁ерии	-10.1114
▁раже	-10.1122
▁трана	-10.1128
▁рави	-10.1134
▁еред	-10.1138
▁енит	-10.114
▁com	-10.1143
▁ресс	-10.1149
▁слож	-10.1158
▁ируют	-10.116
▁рач	-10.1163
▁ера	-10.1189
▁ван	-10.1196
▁дав	-10.12
▁моск	-10.1204
▁Те	-10.121
▁X	-10.1216
▁може	-10.1223
▁ерно	-10.1225
▁ходов	-10.1232
▁кова	-10.1233
▁реч	-10.124
er	-10.1246
▁ович	-10.1262
▁асп	-10.129
▁цеп	-10.1303
▁анов	-10.1314
▁морск	-10.1337
▁Fac	-10.1344
Л	-10.1359
▁ченко	-10.1366
▁луж	-10.1374
▁омму	-10.1379
▁рот	-10.1382
▁елю	-10.1395
▁жал	-10.1399
ание	-10.1399
▁прес	-10.1402
▁рств	-10.1406
тур	-10.1415
▁шу	-10.1422
▁раниц	-10.1438
▁тил	-10.1453
▁еля	-10.1466
▁ада	-10.1481
стр	-10.1493
▁асти	-10.1496
▁бав	-10.1499
▁юю	-10.1501
▁ива	-10.1504
▁жить	-10.1513
▁мар	-10.1513
▁ыч	-10.1518
▁V	-10.1518
:	-10.1525
▁Аб	-10.1532
▁арь	-10.1543
▁сцен	-10.1555
▁таб	-10.1586
▁шего	-10.1613
▁зации	-10.1614
▁Пол	-10.1615
наль	-10.1621
▁глас	-10.1625
▁ентов	-10.1626
▁изма	-10.1626
▁book	-10.1627
▁кра	-10.1652
▁арн	-10.1655
▁акс	-10.1656
▁ФСБ	-10.1666
▁тян	-10.169
▁наб	-10.1697
▁удь	-10.1699
▁ейс	-10.17
ar	-10.1705
▁пали	-10.1707
▁ошен	-10.171
▁имен	-10.1712
▁ЦСКА	-10.1723
▁ире	-10.1724
▁Му	-10.1749
▁легко	-10.175
▁щиков	-10.1751
▁стк	-10.1774
▁гин	-10.178
▁олк	-10.1781
▁рь	-10.1785
▁жало	-10.1785
▁скоро	-10.179
▁31	-10.1791
▁c	-10.1802
ье	-10.1805
▁орта	-10.1806
▁юб	-10.1814
▁T	-10.1816
▁арл	-10.1826
ул	-10.183
▁Ту	-10.1839
▁ище	-10.1841
▁адо	-10.1842
▁лица	-10.1844
▁устр	-10.1845
▁боту	-10.1853
З	-10.1855
▁ошла	-10.1863
▁игн	-10.1867
▁син	-10.1874
▁гат	-10.1906
Е	-10.1919
▁олод	-10.1922
▁O	-10.1932
раб	-10.1934
▁лох	-10.1941
▁ипа	-10.1946
▁пов	-10.1959
▁утк	-10.1971
▁нение	-10.2003
▁йств	-10.2007
▁щем	-10.2008
▁аще	-10.2012
▁кам	-10.2016
▁тоя	-10.202
▁500	-10.203
▁давн	-10.2035
▁дер	-10.2043
▁тром	-10.2047
▁кцию	-10.2058
ха	-10.206
▁хоз	-10.206
▁Фр	-10.2073
▁иро	-10.2075
▁ia	-10.2078
▁проса	-10.2088
▁аши	-10.2091
▁рель	-10.2092
▁мур	-10.2092
▁ежи	-10.2093
▁азе	-10.2098
▁ожник	-10.2103
▁тки	-10.2106
▁вали	-10.2121
▁окуп	-10.2122
▁лем	-10.2124
▁жно	-10.2125
▁юн	-10.2127
▁форм	-10.2128
▁елов	-10.2132
▁сол	-10.2134
убли	-10.2138
▁йно	-10.2139
▁торов	-10.2148
▁Пос	-10.2149
▁сот	-10.2151
▁итик	-10.2152
▁Гор	-10.2154
▁ерв	-10.2156
черк	-10.2158
▁скими	-10.2163
R	-10.2171
▁ьг	-10.2192
▁икл	-10.2201
▁лом	-10.2202
▁уг	-10.221
▁ньк	-10.221
▁Ла	-10.2211
z	-10.2214
E	-10.2222
▁пет	-10.2226
▁жан	-10.2231
▁иги	-10.2232
▁зах	-10.2235
▁лее	-10.2236
▁тябре	-10.224
чк	-10.224
▁елл	-10.2242
▁ерев	-10.2248
▁сче	-10.2248
▁едж	-10.225
▁p	-10.2262
▁ьми	-10.2271
▁обо	-10.2277
▁льным	-10.2281
▁иб	-10.2297
▁кат	-10.2302
▁оэ	-10.2324
ост	-10.2336
лько	-10.2342
▁мно	-10.2344
▁60	-10.2347
▁рете	-10.235
▁адк	-10.2374
M	-10.2375
▁оба	-10.2377
▁Со	-10.2386
▁осн	-10.2387
▁доп	-10.2387
▁ерл	-10.2401
▁олиц	-10.2405
▁ича	-10.2414
▁ходы	-10.2414
▁Ме	-10.2426
▁ужден	-10.2437
▁акл	-10.2439
▁лей	-10.2447
▁яр	-10.2459
▁эм	-10.246
▁века	-10.2467
▁есь	-10.2473
▁емп	-10.2477
▁метро	-10.2481
▁рели	-10.2483
▁Одн	-10.2496
▁здо	-10.2503
стил	-10.251
▁вой	-10.251
▁ади	-10.2522
▁естн	-10.2526
▁ород	-10.2545
▁ушк	-10.256
▁поте	-10.2567
▁рте	-10.2576
▁плате	-10.2578
▁сто	-10.2586
▁омп	-10.2607
▁бро	-10.2614
▁суде	-10.2616
▁ду	-10.2619
D	-10.2633
▁поле	-10.2638
жет	-10.2647
граф	-10.2658
▁уме	-10.266
▁on	-10.2661
▁мил	-10.2662
6	-10.2666
▁еству	-10.267
▁дат	-10.2674
▁спрос	-10.2677
▁бк	-10.268
▁фе	-10.2686
▁ерж	-10.2702
▁влад	-10.2704
▁сф	-10.2731
▁in	-10.2748
▁асть	-10.2748
▁йства	-10.2754
▁рв	-10.2769
▁мб	-10.2804
▁бед	-10.2808
▁авать	-10.2809
▁овар	-10.2809
▁пел	-10.281
▁ады	-10.2811
▁сан	-10.2814
▁ава	-10.282
▁выд	-10.2822
▁ерри	-10.2833
▁енным	-10.2839
рег	-10.285
▁расте	-10.2858
▁озв	-10.2869
▁икр	-10.287
▁осла	-10.2871
▁асто	-10.2872
шк	-10.2884
▁стен	-10.2938
дпис	-10.2945
▁айне	-10.2952
00	-10.2957
▁ечь	-10.2958
▁торы	-10.2963
▁вак	-10.297
▁ати	-10.2971
▁гал	-10.2973
▁брат	-10.2973
▁дово	-10.2974
став	-10.2975
▁uters	-10.2977
▁еру	-10.2983
▁ата	-10.299
▁еч	-10.2993
▁Их	-10.2994
al	-10.2999
▁озда	-10.3011
▁айм	-10.3011
▁зии	-10.3038
▁300	-10.3054
▁иции	-10.3056
▁лед	-10.3057
▁уст	-10.306
▁реж	-10.3078
▁ытия	-10.311
▁авля	-10.3114
▁роме	-10.3123
▁евр	-10.3136
йд	-10.3137
f	-10.3137
▁дни	-10.3146
▁Ре	-10.3149
▁иже	-10.3173
стре	-10.3184
▁ойдет	-10.3196
▁лес	-10.3204
▁аже	-10.3204
▁стои	-10.3204
▁щие	-10.3206
чет	-10.3212
еми	-10.3224
жен	-10.3225
▁омоч	-10.3227
емь	-10.3238
▁ta	-10.3239
▁ойти	-10.3247
▁дор	-10.3253
▁шка	-10.3256
▁рно	-10.3265
вы	-10.3268
▁астро	-10.3289
▁иан	-10.329
▁акан	-10.3305
▁стью	-10.3307
▁авших	-10.3315
us	-10.3321
▁сьм	-10.3321
▁ину	-10.3322
▁Mo	-10.3324
очк	-10.3324
ья	-10.333
▁Apple	-10.3334
▁икой	-10.3346
▁зе	-10.3377
▁нка	-10.3378
▁ериал	-10.338
▁тран	-10.3409
▁ыша	-10.3441
рию	-10.3451
пуст	-10.3453
▁таль	-10.3455
▁разу	-10.3459
▁ъя	-10.3461
спор	-10.3501
▁ссе	-10.3508
▁рта	-10.3509
анц	-10.351
re	-10.3521
nd	-10.3527
▁ужд	-10.3538
▁Аз	-10.3543
O	-10.3548
▁иат	-10.3561
▁сид	-10.3567
▁хим	-10.3586
▁b	-10.3591
▁июл	-10.3592
▁анам	-10.3594
▁ебе	-10.3615
▁дно	-10.3635
▁атом	-10.3646
▁НИ	-10.3654
▁нию	-10.3658
▁Air	-10.3681
▁одо	-10.3692
▁оор	-10.3708
▁идно	-10.3709
реж	-10.3716
▁иш	-10.3718
▁истам	-10.3722
▁умы	-10.3725
▁Мих	-10.3729
▁мф	-10.3735
▁аков	-10.3742
▁R	-10.3773
▁рази	-10.3782
▁ария	-10.3814
▁СК	-10.3838
▁иска	-10.384
▁жизн	-10.3849
▁лизи	-10.3856
▁ига	-10.3857
▁век	-10.3866
▁стер	-10.3869
▁охо	-10.3882
▁лл	-10.3887
▁еф	-10.389
▁оме	-10.3904
▁роч	-10.3905
▁ещ	-10.3918
▁тск	-10.3926
инг	-10.3933
▁оци	-10.3946
▁алог	-10.3976
▁аки	-10.4002
▁лт	-10.4017
▁ерни	-10.4036
▁исан	-10.4037
▁етро	-10.4047
▁имн	-10.4065
▁рофе	-10.4066
▁борот	-10.4074
▁чк	-10.4074
▁манд	-10.408
▁есо	-10.4085
at	-10.4095
▁отя	-10.4101
▁еду	-10.4107
▁чета	-10.4118
▁оин	-10.4123
трах	-10.4129
▁вок	-10.4147
▁аба	-10.4159
▁ВВП	-10.4162
▁иваю	-10.4187
▁чень	-10.4193
ния	-10.4196
N	-10.4214
▁эф	-10.4221
▁Ком	-10.4226
▁ульта	-10.4229
▁льс	-10.423
▁яются	-10.423
▁стане	-10.4231
▁рой	-10.4238
▁суль	-10.4264
▁иниц	-10.4272
▁оком	-10.4273
▁збе	-10.4276
глав	-10.4281
▁мае	-10.4282
▁укра	-10.4288
разд	-10.4313
▁рган	-10.4318
▁кус	-10.4319
▁анск	-10.4319
▁поб	-10.4321
▁жн	-10.4322
▁льд	-10.4326
▁ски	-10.4329
▁трети	-10.4334
▁увств	-10.4341
F	-10.4374
▁вли	-10.4374
w	-10.4375
▁дра	-10.4379
▁уру	-10.4379
▁атл	-10.4382
кое	-10.4395
▁маль	-10.4396
▁тию	-10.4408
▁есл	-10.4413
▁Бо	-10.4433
▁лид	-10.4445
ra	-10.4449
▁це	-10.4451
▁аша	-10.4457
▁уки	-10.4472
▁номи	-10.4473
▁йство	-10.4482
▁олне	-10.4484
▁туа	-10.4491
▁исл	-10.4503
кой	-10.4508
жден	-10.4509
▁ске	-10.4511
уч	-10.4513
▁нием	-10.4517
▁сты	-10.4525
▁ГУ	-10.4527
▁дне	-10.4529
▁ины	-10.4531
▁K	-10.4531
▁КНДР	-10.4539
пита	-10.4539
омощ	-10.4578
▁жи	-10.458
▁абот	-10.4584
роп	-10.4586
▁ВТБ	-10.459
▁нит	-10.4593
▁енты	-10.4599
▁икт	-10.461
▁жид	-10.4638
▁лива	-10.4642
▁тория	-10.4643
▁анц	-10.4652
▁азу	-10.4662
▁иден	-10.4665
▁U	-10.4669
▁око	-10.4677
▁ких	-10.4686
▁рб	-10.469
▁авка	-10.4695
▁прив	-10.47
5	-10.4703
▁афик	-10.4721
▁нает	-10.4721
▁уры	-10.473
▁лев	-10.4735
▁Сов	-10.4754
▁оже	-10.4777
▁70	-10.4778
▁бот	-10.4781
▁фиц	-10.48
▁лд	-10.4802
▁юм	-10.4806
▁Сев	-10.4851
▁шло	-10.4856
▁лы	-10.4858
▁енер	-10.487
▁ате	-10.488
▁сш	-10.4886
▁авил	-10.4891
▁озг	-10.491
▁ениям	-10.4916
▁Fi	-10.4917
▁Twi	-10.4931
▁рана	-10.499
▁атери	-10.4994
▁an	-10.4998
▁уле	-10.5007
▁мель	-10.5015
чин	-10.503
▁пла	-10.5033
ах	-10.5037
▁зова	-10.5052
▁емен	-10.5054
G	-10.5059
елик	-10.5062
слав	-10.5065
▁tter	-10.5065
▁оке	-10.5075
ующ	-10.5102
▁лично	-10.5107
▁t	-10.511
▁азы	-10.511
▁евск	-10.5121
▁вили	-10.5129
хо	-10.5146
ПК	-10.515
ur	-10.5172
▁км	-10.518
▁леп	-10.519
▁наче	-10.5193
▁арла	-10.5201
▁стра	-10.5203
▁пин	-10.5208
▁уша	-10.5221
▁ско	-10.5225
en	-10.5239
▁рож	-10.5254
▁Goo	-10.5256
▁лков	-10.5282
▁gle	-10.5283
▁нь	-10.5299
▁o	-10.5305
Э	-10.5307
оря	-10.5309
▁оди	-10.5319
пы	-10.5325
рос	-10.5331
▁кс	-10.5356
▁лите	-10.537
▁щин	-10.5374
▁ооб	-10.5376
▁ателя	-10.5394
рите	-10.5399
▁яться	-10.5423
дств	-10.5423
▁000	-10.5436
▁дро	-10.5448
▁Bo	-10.5452
диц	-10.546
▁ален	-10.5466
▁тек	-10.5472
▁кие	-10.5474
▁роде	-10.5474
▁усл	-10.5478
▁очь	-10.5509
▁исто	-10.5509
▁банка	-10.5511
▁итан	-10.5538
▁вич	-10.5558
▁риз	-10.556
▁ЦИК	-10.5563
▁Цен	-10.5568
▁ашн	-10.5576
мети	-10.5585
▁имат	-10.559
▁осп	-10.5596
▁учил	-10.5607
▁озиц	-10.5618
▁ора	-10.5635
▁АО	-10.5644
ская	-10.5665
▁аю	-10.5681
▁ря	-10.5693
▁ажд	-10.5697
Х	-10.57
▁плен	-10.5732
▁оку	-10.5734
▁Мар	-10.5738
▁яз	-10.5739
▁ныне	-10.5739
▁бю	-10.574
▁емн	-10.5742
▁te	-10.5748
▁зин	-10.5764
▁тора	-10.577
▁ержи	-10.579
▁адим	-10.5804
▁сыл	-10.5811
▁алья	-10.5815
▁елове	-10.5816
▁тат	-10.5821
▁рошло	-10.5822
▁тей	-10.5822
▁Ду	-10.5827
▁ражд	-10.5839
▁онн	-10.5841
▁News	-10.5852
ch	-10.5852
it	-10.5853
▁икс	-10.5853
▁обс	-10.5854
▁оспо	-10.5879
▁ожа	-10.5894
▁cap	-10.5909
▁нист	-10.5922
▁вест	-10.5928
▁пир	-10.5934
▁КПРФ	-10.5939
▁асса	-10.5947
▁бл	-10.5989
гол	-10.6
▁сяч	-10.6009
▁тих	-10.6029
▁бора	-10.6081
▁сег	-10.6086
·	-10.6087
▁есно	-10.6098
▁овки	-10.6104
▁роп	-10.6113
▁€	-10.6117
▁ше	-10.6122
▁инов	-10.6133
▁раш	-10.6146
▁ипе	-10.615
▁нце	-10.6162
▁чно	-10.6167
▁et	-10.6172
рак	-10.6175
▁еров	-10.6205
▁1,	-10.6212
▁яд	-10.6222
▁етр	-10.6241
леж	-10.6242
▁отни	-10.6251
▁ню	-10.6251
▁филь	-10.6251
орог	-10.6269
▁отре	-10.6281
толь	-10.63
▁дос	-10.631
▁сточ	-10.631
▁150	-10.6324
▁сно	-10.6341
▁уте	-10.6343
▁удо	-10.635
▁Ее	-10.6351
▁чи	-10.6366
▁олов	-10.6377
бли	-10.639
▁ГИБДД	-10.639
▁ань	-10.6395
▁ушен	-10.6395
▁st	-10.6407
▁ави	-10.6418
▁пик	-10.642
▁тир	-10.6424
L	-10.6447
▁WADA	-10.6452
▁кад	-10.6458
▁омин	-10.6461
▁коло	-10.6465
▁ош	-10.6481
▁кров	-10.6488
ль	-10.6501
▁лома	-10.6507
▁нна	-10.6512
▁'	-10.6515
▁сень	-10.6524
▁нешн	-10.6526
Ц	-10.6546
▁толи	-10.6554
▁тура	-10.6567
▁яж	-10.6574
▁елем	-10.6585
▁вка	-10.6594
▁янс	-10.6597
▁80	-10.6606
▁ким	-10.6607
▁обще	-10.6611
▁рж	-10.6621
▁мос	-10.6623
ag	-10.6623
▁емл	-10.6628
▁сла	-10.6639
▁L	-10.6644
▁эп	-10.6667
▁отел	-10.6684
▁нз	-10.6703
▁ровск	-10.6719
▁цам	-10.672
▁имя	-10.673
▁ливо	-10.6765
▁ДНР	-10.6767
▁ару	-10.677
▁еди	-10.677
▁пеш	-10.677
▁отом	-10.6775
▁кому	-10.679
▁руд	-10.6832
▁дко	-10.6843
▁one	-10.687
▁ира	-10.6872
▁льц	-10.6874
▁цир	-10.6885
▁igh	-10.6896
▁атор	-10.6899
▁рва	-10.6899
▁400	-10.6911
▁овь	-10.6913
дав	-10.6949
▁редп	-10.6954
▁реал	-10.6973
▁ухо	-10.6995
▁тал	-10.701
▁тиков	-10.7011
▁нова	-10.7015
▁рид	-10.702
▁ro	-10.7059
▁тям	-10.7063
▁учш	-10.7071
▁оры	-10.7077
▁циал	-10.7088
▁тече	-10.709
▁рже	-10.709
▁виж	-10.7105
▁дох	-10.7105
▁Ас	-10.711
▁ола	-10.7125
▁copy	-10.7126
▁ишь	-10.7128
▁есте	-10.7136
▁орош	-10.7139
▁верд	-10.7147
▁g	-10.7155
ut	-10.7164
▁оты	-10.7175
▁одит	-10.7175
▁эро	-10.7179
▁вать	-10.7191
▁вся	-10.7195
▁Мэ	-10.722
▁кви	-10.7228
▁упал	-10.7229
▁иву	-10.7239
при	-10.724
▁деж	-10.7252
мпан	-10.7258
▁ОПЕК	-10.7259
▁лово	-10.726
▁акр	-10.726
▁35	-10.726
▁верж	-10.7276
▁хор	-10.7282
▁ико	-10.7283
30	-10.7285
▁пус	-10.7293
,6	-10.7304
▁кру	-10.7311
▁дель	-10.7318
▁рио	-10.7323
сед	-10.7333
B	-10.7347
▁юди	-10.7361
▁ицей	-10.7369
▁арен	-10.7378
▁форма	-10.7382
▁урман	-10.7382
▁тве	-10.7389
ся	-10.7404
▁терн	-10.7405
▁иями	-10.7407
▁онно	-10.7423
▁to	-10.743
ФО	-10.7451
▁Щ	-10.7463
▁чт	-10.7464
▁ацию	-10.7464
▁ерп	-10.7465
▁убер	-10.7474
▁Тур	-10.7492
▁есси	-10.7498
▁утр	-10.7498
▁ВВС	-10.7498
▁рови	-10.75
рез	-10.751
▁ятс	-10.7518
хин	-10.7523
тин	-10.7525
гин	-10.7528
▁юд	-10.7529
▁атр	-10.7532
el	-10.7534
▁упр	-10.7544
▁рац	-10.7585
▁Le	-10.7591
▁каб	-10.7614
▁For	-10.7626
▁рмо	-10.7628
▁эй	-10.7646
▁of	-10.7663
▁ТВ	-10.7681
тори	-10.7687
▁олис	-10.7704
▁эл	-10.7706
▁емье	-10.7707
▁еста	-10.7709
ww	-10.7711
▁уэ	-10.7732
▁тики	-10.7744
▁ише	-10.7752
▁енз	-10.7754
▁итае	-10.7769
▁Group	-10.7777
▁анта	-10.7778
▁La	-10.7785
▁алк	-10.7788
▁90	-10.7793
▁стил	-10.78
▁офе	-10.7806
▁рол	-10.7806
▁[	-10.7812
▁ожен	-10.782
▁роб	-10.783
ss	-10.7834
ly	-10.7841
▁пала	-10.7844
ck	-10.7867
во	-10.7876
шин	-10.7885
▁аниям	-10.7912
▁оих	-10.793
▁нге	-10.7933
in	-10.7942
▁рку	-10.7945
▁ce	-10.7962
▁азо	-10.7992
▁гио	-10.8003
▁пояс	-10.8027
опус	-10.8034
▁Co	-10.8059
▁ени	-10.8063
▁жит	-10.8068
▁ох	-10.8069
▁онии	-10.8092
▁чел	-10.8095
▁мес	-10.8119
▁заг	-10.8131
дол	-10.8133
▁]	-10.8137
▁еса	-10.8142
▁зит	-10.8158
▁пат	-10.8161
▁°	-10.8174
▁Хо	-10.8179
ях	-10.8181
▁сси	-10.8183
▁узов	-10.8187
▁пан	-10.8202
▁жей	-10.8203
▁итр	-10.8213
▁оров	-10.8264
▁торая	-10.8272
▁m	-10.8295
▁Ос	-10.8296
▁тле	-10.8306
▁Ro	-10.8326
▁совер	-10.8339
st	-10.8341
ro	-10.835
▁ерна	-10.835
▁МОК	-10.836
шен	-10.8397
▁ИГИЛ	-10.8397
▁пох	-10.8413
▁сев	-10.8438
▁лиции	-10.8445
▁Ол	-10.8464
▁заме	-10.8478
▁вно	-10.8478
▁изб	-10.8507
,3	-10.851
▁РАН	-10.8518
▁биле	-10.8519
ce	-10.853
▁атов	-10.8532
▁ажу	-10.8539
▁изу	-10.8542
le	-10.8552
▁учит	-10.8567
▁душ	-10.8568
▁коро	-10.8571
▁очка	-10.8573
▁убл	-10.8589
▁сток	-10.8601
▁мик	-10.8614
▁тала	-10.863
▁нами	-10.8644
10	-10.8647
шие	-10.8656
▁прим	-10.8659
Ph	-10.866
нес	-10.8677
▁J	-10.8697
▁юда	-10.8716
▁думы	-10.872
▁олу	-10.8724
▁ra	-10.8731
▁no	-10.8734
▁етн	-10.8734
▁амен	-10.8746
▁або	-10.8758
,8	-10.8765
бир	-10.8767
▁ером	-10.8778
▁лана	-10.8796
▁анка	-10.8804
▁ВАЗ	-10.8818
▁рю	-10.8824
▁одня	-10.8831
▁Лу	-10.8835
▁45	-10.8842
▁бщ	-10.8857
20	-10.8868
▁рч	-10.8875
▁li	-10.8876
▁кул	-10.8888
куп	-10.8892
▁ярн	-10.89
▁ьниц	-10.891
▁пци	-10.891
▁ясн	-10.8917
▁ic	-10.8922
▁ницы	-10.8939
▁Эк	-10.8949
▁екре	-10.8956
мун	-10.8965
▁етей	-10.8967
▁ртов	-10.8985
▁отв	-10.8994
▁рив	-10.8994
▁урм	-10.9004
▁оки	-10.9007
▁иве	-10.9009
▁ктора	-10.901
▁гра	-10.901
▁изо	-10.9013
▁&	-10.902
▁сию	-10.9024
▁Ис	-10.9025
▁арто	-10.9049
▁лис	-10.9057
▁ent	-10.9057
▁бан	-10.9067
▁апа	-10.908
▁тивно	-10.9084
▁ерва	-10.909
▁Times	-10.91
ецк	-10.9115
сыл	-10.9118
▁ловн	-10.9134
▁пло	-10.9136
V	-10.914
80	-10.9154
▁Юр	-10.9175
сту	-10.9191
▁овор	-10.9195
▁дели	-10.9202
▁орва	-10.9203
▁ири	-10.9205
▁айо	-10.921
▁or	-10.9219
▁нин	-10.9243
▁лья	-10.9262
▁еет	-10.9264
es	-10.9285
▁пец	-10.9296
▁Анд	-10.9298
▁стви	-10.9298
▁вая	-10.9306
▁елич	-10.9308
▁ихо	-10.9314
про	-10.9317
оя	-10.932
▁шим	-10.9322
▁пек	-10.9336
▁сы	-10.9344
▁арс	-10.9345
▁You	-10.9349
▁ури	-10.9351
▁соци	-10.9365
▁азви	-10.9415
▁рье	-10.9432
▁водо	-10.9433
▁пута	-10.9435
нем	-10.9449
▁ато	-10.946
▁дам	-10.9465
▁отов	-10.9477
▁едв	-10.9477
▁тина	-10.949
▁II	-10.9491
▁нты	-10.9492
▁едк	-10.9494
▁re	-10.9504
▁олле	-10.9504
▁Кэ	-10.9506
▁итов	-10.9508
▁рри	-10.9511
▁мыш	-10.9514
▁грам	-10.9515
▁ФАС	-10.9515
▁дов	-10.9525
▁опор	-10.9526
▁it	-10.9528
▁оре	-10.9531
ЭС	-10.9532
▁чес	-10.9541
▁ЛДПР	-10.9554
▁изы	-10.9556
▁Vi	-10.9561
▁жем	-10.9566
▁авт	-10.9574
▁шан	-10.9576
▁еры	-10.9577
▁иму	-10.9579
▁арти	-10.958
▁кса	-10.9583
На	-10.9618
▁иво	-10.9619
▁мах	-10.9619
▁гул	-10.9623
шего	-10.9629
▁жет	-10.964
▁жение	-10.9645
▁пожа	-10.965
▁z	-10.9655
▁To	-10.9656
За	-10.9661
▁бле	-10.9665
▁вока	-10.9669
▁Зе	-10.9679
▁ляр	-10.969
озво	-10.9693
▁ющих	-10.9729
▁иция	-10.9731
▁аше	-10.975
▁орни	-10.9773
▁стик	-10.9787
▁нков	-10.979
il	-10.9791
▁льт	-10.9794
▁олен	-10.9794
▁щн	-10.9802
▁тет	-10.9807
50	-10.9812
▁ойк	-10.9841
▁уре	-10.9843
▁лак	-10.9847
▁ожил	-10.9852
▁сос	-10.9859
мест	-10.9862
▁реле	-10.9881
▁Su	-10.989
▁мии	-10.9904
▁el	-10.9904
▁иви	-10.992
▁Им	-10.9923
▁отк	-10.9924
▁онс	-10.9941
ct	-10.9941
▁ne	-10.9942
▁ЖКХ	-10.9942
▁ндр	-10.9959
▁ma	-10.9972
▁шаг	-10.9973
▁сум	-10.9984
▁кана	-10.9986
▁РЖД	-10.9986
▁пит	-10.9991
▁едо	-11.0003
▁тани	-11.001
▁лиз	-11.0028
▁СНГ	-11.003
▁тыр	-11.0048
nt	-11.0067
▁атч	-11.0068
▁Ra	-11.0071
um	-11.0074
▁едн	-11.0078
▁визи	-11.0086
▁Ins	-11.0088
all	-11.0089
ng	-11.0094
▁еро	-11.0121
тон	-11.0127
▁окк	-11.013
▁жур	-11.0136
▁ian	-11.0138
▁лок	-11.0139
▁рын	-11.014
▁рано	-11.0142
li	-11.0151
▁нсо	-11.0155
▁зы	-11.0157
▁КНР	-11.0164
▁исте	-11.0169
▁емле	-11.0179
▁бог	-11.0195
▁Bren	-11.0203
▁овен	-11.0214
▁ибо	-11.0223
▁бом	-11.0237
▁мать	-11.0255
▁уба	-11.026
▁нский	-11.03
▁вета	-11.0302
▁Inte	-11.0304
▁ющи	-11.0311
▁f	-11.0322
▁кте	-11.0327
рман	-11.0342
▁щее	-11.0347
▁омен	-11.036
▁оза	-11.036
мон	-11.036
▁лоб	-11.0361
ПП	-11.0365
▁ешк	-11.0369
▁фир	-11.0406
сон	-11.041
▁тным	-11.0413
▁алого	-11.044
▁лиза	-11.0451
▁куд	-11.0454
▁обход	-11.0455
▁омме	-11.0455
дом	-11.0457
▁ропа	-11.0463
▁ВКС	-11.0467
▁жир	-11.0475
ций	-11.0483
▁ятн	-11.049
▁ольши	-11.0491
▁оем	-11.0497
▁одро	-11.05
▁дия	-11.0509
▁жест	-11.0513
▁фт	-11.0523
▁рали	-11.053
▁руже	-11.0534
ri	-11.0547
▁600	-11.0555
▁выб	-11.0557
▁l	-11.056
ld	-11.057
▁аси	-11.0573
▁трук	-11.0574
▁опи	-11.0584
▁ЧП	-11.0597
on	-11.06
▁онт	-11.0609
рин	-11.061
▁щат	-11.0613
▁the	-11.0621
АЗ	-11.0624
▁силь	-11.0633
▁тф	-11.0668
▁сб	-11.0672
▁иФ	-11.0682
la	-11.0683
▁ильн	-11.0689
▁вора	-11.0727
▁рих	-11.0736
▁che	-11.0736
▁ерси	-11.0754
as	-11.0755
▁оном	-11.0769
▁зво	-11.0772
▁кап	-11.0781
▁ожи	-11.0788
рац	-11.0796
смо	-11.0797
ются	-11.081
▁ары	-11.081
vi	-11.081
▁gram	-11.0814
▁снос	-11.0817
▁дъ	-11.082
▁фина	-11.0822
▁ветс	-11.083
▁ежд	-11.0842
▁ици	-11.0853
НК	-11.0855
▁рези	-11.0869
▁енси	-11.0871
▁вари	-11.0871
5%	-11.0888
тик	-11.0888
▁дик	-11.0901
▁астр	-11.0907
▁Vol	-11.091
▁вери	-11.0922
чат	-11.0941
▁МВФ	-11.0959
▁дроб	-11.0966
▁енци	-11.0971
▁вых	-11.0988
▁ажн	-11.0995
▁h	-11.0997
▁Merc	-11.1008
▁ube	-11.101
▁шей	-11.1026
▁lo	-11.1043
▁нса	-11.1048
▁des	-11.1059
▁дми	-11.1062
▁ВС	-11.1064
▁ехн	-11.107
▁лор	-11.108
▁250	-11.1091
▁опе	-11.1099
▁ОБСЕ	-11.1106
▁онта	-11.1107
▁нсп	-11.112
ad	-11.1134
▁u	-11.1134
▁de	-11.1134
▁лас	-11.1135
▁тел	-11.1146
▁уше	-11.1146
▁вра	-11.1148
▁ремя	-11.1148
▁ойд	-11.1157
▁мое	-11.1161
▁иси	-11.1168
ател	-11.1181
▁ебя	-11.1188
▁необ	-11.1189
▁сын	-11.1199
2%	-11.1199
▁агр	-11.122
ve	-11.1242
▁лла	-11.1244
дет	-11.1245
90	-11.1246
8%	-11.1255
▁ФРГ	-11.1255
▁ратно	-11.1259
▁Гер	-11.126
▁риш	-11.1265
▁тии	-11.1266
▁орит	-11.1267
▁ержа	-11.1277
▁ai	-11.1278
▁тру	-11.1282
▁итвы	-11.1289
▁иван	-11.1301
▁нным	-11.1302
▁госп	-11.1303
▁мисс	-11.1309
шек	-11.1324
▁вир	-11.1338
▁тка	-11.1345
ОС	-11.135
▁орен	-11.1378
▁илли	-11.1388
▁руппа	-11.1404
70	-11.141
▁наде	-11.141
▁тств	-11.1412
ью	-11.1414
▁кг	-11.1417
▁огу	-11.1426
▁спон	-11.1429
▁умен	-11.143
▁емо	-11.1436
▁алов	-11.1439
▁алит	-11.1443
▁berg	-11.1458
▁So	-11.1463
▁оенн	-11.1471
▁цу	-11.1477
se	-11.1499
▁уши	-11.1502
ятел	-11.1504
▁купа	-11.153
▁еня	-11.1533
▁кив	-11.1534
▁вити	-11.1542
ne	-11.1552
▁опо	-11.1552
▁n	-11.1552
▁поэт	-11.1563
▁ыло	-11.1596
▁инга	-11.1605
▁уси	-11.1607
▁WSJ	-11.1612
▁ници	-11.1621
▁бек	-11.1635
▁De	-11.1638
▁нил	-11.1661
ard	-11.1664
▁айдан	-11.1673
▁гим	-11.1677
▁рика	-11.1689
пол	-11.1696
▁ung	-11.1717
▁наше	-11.1725
▁иста	-11.1729
▁еал	-11.174
▁арод	-11.1752
▁оща	-11.1769
▁Bloo	-11.1769
▁анди	-11.1785
▁ыли	-11.1789
▁трет	-11.1814
▁мене	-11.1818
По	-11.1822
▁азн	-11.1826
▁Dai	-11.1827
▁уков	-11.1847
▁ерем	-11.1856
▁очер	-11.1857
▁50%	-11.1881
▁осту	-11.1885
▁яли	-11.1886
▁мся	-11.1906
▁and	-11.1911
▁ула	-11.1919
▁Ma	-11.1919
H	-11.1923
▁2,	-11.1939
▁луч	-11.194
▁езо	-11.196
▁еря	-11.1966
ash	-11.1974
▁спа	-11.1977
▁ЛНР	-11.1983
▁вига	-11.1983
▁рию	-11.1984
ский	-11.1994
ed	-11.2
▁сени	-11.2004
▁120	-11.2032
▁тного	-11.2037
▁кая	-11.2038
▁шоу	-11.2039
is	-11.2043
▁рше	-11.2049
per	-11.2064
СК	-11.2067
▁рда	-11.2074
▁очки	-11.2081
W	-11.2085
▁екта	-11.2087
▁Str	-11.2093
▁Ше	-11.2095
эн	-11.2123
фф	-11.214
сал	-11.2145
ks	-11.2145
9%	-11.2145
da	-11.2148
▁виа	-11.2172
▁уди	-11.2173
,1	-11.2176
▁жк	-11.2195
‐	-11.2201
▁СИЗО	-11.2201
▁мэр	-11.2202
▁ерба	-11.2211
▁Pe	-11.2215
▁сме	-11.2227
бол	-11.2255
▁еют	-11.2263
▁ar	-11.2265
▁Al	-11.2267
▁Tr	-11.2279
▁Ho	-11.2283
▁55	-11.2309
%.	-11.2316
▁остей	-11.2322
▁k	-11.2327
0	-11.233
▁32	-11.2346
co	-11.2352
СС	-11.2354
▁BMW	-11.2367
▁нга	-11.2383
▁рати	-11.2403
▁лта	-11.2404
▁чук	-11.2415
▁аран	-11.2415
▁ФИФА	-11.2424
▁руга	-11.2428
▁ающий	-11.2445
▁айт	-11.2453
▁исси	-11.2456
▁Евр	-11.2489
▁мот	-11.2492
▁Mar	-11.2497
ечн	-11.2503
▁ссии	-11.2514
▁олы	-11.2523
ТО	-11.2528
▁лли	-11.2565
▁мяч	-11.2569
луг	-11.2572
lo	-11.2578
▁In	-11.2579
▁року	-11.2582
▁лете	-11.2585
▁ВК	-11.2591
▁апр	-11.2607
▁36	-11.2607
АК	-11.2619
▁бат	-11.2625
ul	-11.2629
▁ницу	-11.2663
▁офи	-11.2683
▁овес	-11.2683
▁ерст	-11.2713
▁ФБР	-11.2713
▁сте	-11.273
▁СУ	-11.2741
▁аса	-11.2748
▁чей	-11.2757
4%	-11.2762
▁руют	-11.277
▁Sam	-11.2771
▁рич	-11.2785
▁ься	-11.2803
▁Be	-11.2815
▁лим	-11.2825
▁внос	-11.2838
гер	-11.2838
und	-11.2847
МС	-11.2857
▁рш	-11.2857
ными	-11.2861
U	-11.2879
▁пион	-11.289
▁еатр	-11.29
▁зде	-11.2905
▁тья	-11.291
25	-11.294
―	-11.2944
▁хэ	-11.2948
АП	-11.2954
▁ur	-11.2979
un	-11.2998
▁узы	-11.2999
j	-11.3003
▁Tel	-11.3004
▁ация	-11.3005
▁таци	-11.3008
▁nit	-11.3012
▁еран	-11.3018
▁20%	-11.3018
▁бое	-11.3043
авш	-11.3046
тил	-11.3054
▁лод	-11.3061
▁тч	-11.3071
▁33	-11.3075
▁чему	-11.3083
▁АЭС	-11.3089
тных	-11.3106
▁шие	-11.3108
вед	-11.311
бин	-11.313
▁Ar	-11.3138
▁аций	-11.314
▁ФА	-11.3151
мин	-11.3158
▁лаш	-11.3164
чев	-11.3172
1%	-11.3179
▁FT	-11.3186
▁Z	-11.3198
▁непр	-11.3206
▁Mi	-11.3207
▁елям	-11.325
▁бас	-11.3253
▁d	-11.326
▁спе	-11.3264
▁мерт	-11.3266
▁зыва	-11.3278
верс	-11.3286
am	-11.3305
▁есяц	-11.3307
▁ужа	-11.3308
▁10%	-11.3325
▁дачи	-11.3327
▁СБУ	-11.3333
▁man	-11.3347
▁tal	-11.3354
▁еве	-11.3361
6%	-11.3363
ель	-11.3365
▁Mail	-11.3368
▁ично	-11.3377
▁елос	-11.3387
▁нси	-11.3395
▁нгр	-11.3416
▁воров	-11.3417
▁оват	-11.3423
K	-11.3425
▁едс	-11.3437
▁речи	-11.3458
▁юз	-11.347
ИС	-11.348
▁ртв	-11.3486
фан	-11.3491
▁аур	-11.3495
▁нны	-11.3497
▁стиж	-11.3497
▁at	-11.3498
▁гур	-11.3501
хан	-11.3502
▁чал	-11.3526
ll	-11.3527
▁огд	-11.3529
▁шит	-11.3552
▁етен	-11.3602
джи	-11.3608
▁Life	-11.3619
me	-11.364
▁3,	-11.3662
3%	-11.3677
▁ету	-11.3684
▁май	-11.372
▁осс	-11.3733
▁Wi	-11.374
▁New	-11.3745
▁ылк	-11.3749
▁рман	-11.3751
▁азан	-11.3764
мат	-11.3766
▁енте	-11.3775
▁ваш	-11.3797
▁nal	-11.3801
▁гда	-11.3804
▁37	-11.3809
МК	-11.381
▁Ch	-11.3825
▁ерро	-11.3827
▁бур	-11.3829
▁илос	-11.3838
▁епа	-11.3839
▁раке	-11.3843
▁етов	-11.3844
60	-11.3854
▁рит	-11.3863
▁икул	-11.3878
▁ni	-11.3885
▁ПАО	-11.3923
▁ешен	-11.3938
орит	-11.3949
▁лил	-11.3951
▁язы	-11.3962
▁роя	-11.3962
▁АР	-11.397
▁Fo	-11.3977
▁тас	-11.3982
тич	-11.3986
▁нной	-11.4
id	-11.4012
▁nat	-11.4019
▁нки	-11.4038
40	-11.407
▁НХЛ	-11.4074
▁тна	-11.4076
▁НКО	-11.4078
▁оны	-11.4088
▁ида	-11.4109
▁ачи	-11.4116
▁Sa	-11.4133
▁Lo	-11.4145
▁борн	-11.4149
▁убо	-11.4157
▁тых	-11.4162
▁ппа	-11.4187
▁Te	-11.4197
▁арко	-11.4205
▁шем	-11.4207
▁зация	-11.4208
▁ВЭБ	-11.4224
▁арте	-11.4225
▁циям	-11.4231
▁рах	-11.4233
▁узык	-11.4235
рек	-11.4239
▁еньк	-11.4249
олуч	-11.4253
▁кир	-11.4253
ошл	-11.4259
▁елы	-11.4262
▁na	-11.4263
Не	-11.4273
▁НПФ	-11.4275
▁ФРС	-11.4275
ух	-11.4275
ub	-11.4276
АР	-11.4277
▁Ран	-11.4294
▁анда	-11.4299
▁ton	-11.432
▁роне	-11.4325
▁чая	-11.4325
;	-11.4337
▁руко	-11.4338
▁итуа	-11.4343
▁очной	-11.4354
▁Yo	-11.4363
rk	-11.4373
▁рудо	-11.4375
▁ГК	-11.4376
▁мек	-11.4387
иль	-11.4389
▁рых	-11.4411
стер	-11.4413
▁джа	-11.4417
▁Кра	-11.4421
▁онг	-11.4436
его	-11.447
▁агер	-11.4474
▁бъ	-11.4475
▁тко	-11.4487
▁рма	-11.4509
BC	-11.454
▁акар	-11.4542
▁ОСАГО	-11.455
▁Pro	-11.4551
▁Q	-11.4553
▁верт	-11.4568
▁Мир	-11.4578
▁mo	-11.458
▁42	-11.4588
▁пти	-11.4589
X	-11.4596
▁оков	-11.4597
▁атин	-11.46
уар	-11.4633
▁азани	-11.4652
▁ндо	-11.4659
▁езу	-11.4665
▁юге	-11.4667
▁айл	-11.467
▁Do	-11.4671
▁анси	-11.4673
БУ	-11.469
▁30%	-11.4696
▁Ba	-11.4704
▁ехо	-11.4706
▁рди	-11.471
▁nt	-11.4718
зов	-11.4719
▁On	-11.4724
▁дение	-11.4753
▁*	-11.4762
▁>	-11.4763
▁bg	-11.4763
СП	-11.477
поз	-11.4775
▁ровь	-11.4777
▁пуля	-11.4785
▁умм	-11.4797
цы	-11.4802
▁Сер	-11.4803
▁Y	-11.4808
▁аун	-11.4811
▁75	-11.4812
▁38	-11.4813
▁овка	-11.4817
▁ерне	-11.4819
▁мам	-11.4825
▁Da	-11.4828
▁рада	-11.4838
▁тите	-11.4847
▁ed	-11.485
▁go	-11.4862
▁нне	-11.4884
ении	-11.4886
знь	-11.4893
tt	-11.4902
▁есен	-11.4909
▁65	-11.4915
▁5%	-11.4925
ющих	-11.4938
▁шум	-11.4944
▁Рост	-11.4955
▁рят	-11.4963
▁апе	-11.4971
▁ссы	-11.4984
▁ЧМ	-11.4993
▁арди	-11.5024
▁Лю	-11.5031
▁An	-11.5033
КР	-11.5035
▁емых	-11.5038
чук	-11.5043
▁аке	-11.5045
de	-11.5077
▁еза	-11.5103
▁агра	-11.5107
дь	-11.5126
▁Sp	-11.5127
▁34	-11.5164
▁ятно	-11.5167
▁Con	-11.5173
▁40%	-11.5204
vo	-11.5243
щев	-11.5245
аст	-11.5255
▁рех	-11.5258
▁воих	-11.5263
▁АСВ	-11.5272
▁Eur	-11.5275
▁РФС	-11.5292
▁мей	-11.5297
▁лос	-11.5301
▁ишк	-11.531
▁игер	-11.5317
▁co	-11.5317
▁nault	-11.5347
▁рип	-11.5373
ug	-11.5408
▁ua	-11.5411
▁нах	-11.5414
▁for	-11.5431
Ч	-11.5431
▁МС	-11.5441
▁Po	-11.5464
▁Ca	-11.5468
▁Toy	-11.5502
▁шко	-11.5504
▁пул	-11.5511
ls	-11.5514
▁рдо	-11.5519
▁унк	-11.5522
▁шек	-11.5523
15	-11.5531
▁анкер	-11.5546
▁bo	-11.5548
▁нту	-11.5565
▁ноше	-11.5568
▁рме	-11.5579
▁МГУ	-11.5595
▁трал	-11.5607
▁уал	-11.5612
▁Ni	-11.5614
маз	-11.5617
▁льб	-11.5623
▁ольф	-11.5641
7%	-11.5648
▁Ha	-11.5651
▁ВИЧ	-11.5654
▁Li	-11.5655
▁раю	-11.5674
▁гуля	-11.5679
▁бло	-11.5681
ft	-11.5731
▁Pri	-11.5734
▁Hy	-11.574
▁Gal	-11.5766
▁нице	-11.5767
11	-11.5777
▁Gu	-11.5783
▁Wor	-11.5811
ПЦ	-11.5817
▁IT	-11.5829
▁ri	-11.5847
▁нко	-11.5881
▁МК	-11.5887
▁le	-11.5888
▁апу	-11.5892
▁нде	-11.59
▁рупп	-11.5904
ГА	-11.5951
▁r	-11.5955
▁огер	-11.5955
ниц	-11.5964
▁УЕФА	-11.597
ack	-11.5972
▁орам	-11.5977
▁егу	-11.5982
▁шил	-11.5986
IX	-11.5992
▁рни	-11.5996
▁цид	-11.6005
ПС	-11.6015
ВД	-11.6021
▁ers	-11.6022
▁En	-11.6024
▁ge	-11.6042
▁ure	-11.6048
▁48	-11.6051
▁Bank	-11.6051
▁47	-11.6061
▁черк	-11.6077
▁еща	-11.6078
▁рго	-11.6086
▁ующих	-11.6116
▁наме	-11.6123
ТИ	-11.6136
▁леду	-11.6146
▁уве	-11.6174
▁me	-11.6186
фор	-11.6192
мар	-11.6198
iki	-11.6217
▁рмац	-11.6221
▁th	-11.6227
▁вости	-11.6232
▁етон	-11.6246
тиц	-11.6259
▁жат	-11.6272
бун	-11.6284
▁ch	-11.6285
▁зь	-11.6345
▁риб	-11.6355
▁гг	-11.6368
ТС	-11.6371
▁алют	-11.6388
КБ	-11.6397
▁тац	-11.642
▁$1	-11.6462
▁итат	-11.6462
▁ерь	-11.6464
▁ОНФ	-11.6464
ni	-11.6465
▁bus	-11.6466
лкан	-11.6471
▁рыл	-11.6475
▁икова	-11.6492
▁есу	-11.6495
▁ильм	-11.6501
▁4%	-11.6531
▁гей	-11.6533
▁рна	-11.6535
▁рба	-11.6543
▁ефо	-11.6547
▁Micr	-11.6549
ab	-11.6554
НАС	-11.6569
▁ющим	-11.6577
▁ауз	-11.6579
СА	-11.6604
▁рсе	-11.6609
КА	-11.661
22	-11.6624
▁рто	-11.6626
▁ght	-11.6634
th	-11.6644
▁ard	-11.6645
▁ial	-11.6667
▁la	-11.6684
ГУП	-11.6686
▁ерам	-11.6692
▁46	-11.6712
ber	-11.6727
▁Рио	-11.6747
▁роф	-11.6751
пул	-11.6766
▁ефт	-11.6773
▁антов	-11.6781
▁ыка	-11.6801
▁ПДД	-11.6808
▁roid	-11.6808
▁пря	-11.681
▁щении	-11.6814
▁ропо	-11.6828
▁мейк	-11.6863
▁ьес	-11.6874
▁онку	-11.6886
▁ЦРУ	-11.6895
▁se	-11.6898
лены	-11.6899
▁Jou	-11.69
ГУ	-11.6907
ke	-11.6908
СУ	-11.691
родн	-11.6913
▁рты	-11.6954
▁Go	-11.7057
▁орре	-11.7067
▁III	-11.7074
▁рене	-11.7084
▁трак	-11.7085
▁кси	-11.7102
▁44	-11.7111
ение	-11.7119
▁Nov	-11.7137
▁мба	-11.7155
▁ПФР	-11.7163
▁Lada	-11.7163
▁асов	-11.7165
▁асх	-11.7174
КС	-11.7177
▁жает	-11.7178
va	-11.7185
ИК	-11.7204
▁ренн	-11.7228
▁39	-11.7233
▁есто	-11.7239
▁люч	-11.7243
▁КОСа	-11.7254
боч	-11.7261
▁чным	-11.7264
▁io	-11.7273
▁ванию	-11.7284
ации	-11.7284
▁еше	-11.7291
▁ообща	-11.7317
▁ВМС	-11.7324
▁Pi	-11.7331
▁рне	-11.7346
▁Por	-11.7348
▁Com	-11.7354
▁етра	-11.7356
▁СПГ	-11.7362
▁воре	-11.737
▁чка	-11.7373
▁жар	-11.7376
▁вгуст	-11.7439
▁ax	-11.7441
▁сса	-11.7464
12	-11.7475
▁рог	-11.7484
/	-11.7491
▁льш	-11.7492
18	-11.7496
▁Ri	-11.7503
▁СП	-11.7523
СИН	-11.7528
▁Benz	-11.7532
▁КС	-11.7552
▁лах	-11.7556
▁жим	-11.7559
▁ФЗ	-11.7564
▁soft	-11.7626
▁НДС	-11.7626
▁Post	-11.7626
pace	-11.7626
▁aks	-11.7627
▁зис	-11.7629
▁ty	-11.7631
Об	-11.7638
▁площ	-11.7647
щин	-11.7653
▁менов	-11.769
▁епе	-11.7691
▁РГ	-11.77
▁рям	-11.7701
ПЧ	-11.7703
▁трой	-11.7705
▁1%	-11.7707
▁85	-11.7715
▁ЕСПЧ	-11.7722
▁80%	-11.7727
▁350	-11.7745
▁тства	-11.7783
▁VI	-11.7785
▁Fl	-11.7789
▁боя	-11.7789
▁нну	-11.7868
пред	-11.787
▁тало	-11.7877
▁лка	-11.7878
▁57	-11.7878
▁15%	-11.7889
эй	-11.7903
▁CAS	-11.7915
▁CNN	-11.7915
▁US	-11.7919
ным	-11.7921
ud	-11.7922
▁лай	-11.7922
▁онны	-11.7925
▁Me	-11.7944
СР	-11.7951
▁шет	-11.7959
▁Par	-11.7968
▁160	-11.7969
▁ti	-11.7971
АД	-11.7982
бар	-11.7987
▁ерф	-11.7991
КОЙ	-11.8013
▁ble	-11.8014
▁ллион	-11.8014
▁Bre	-11.8029
АН	-11.8055
▁mi	-11.8055
▁ine	-11.8063
▁ice	-11.8077
▁мок	-11.8085
▁КХЛ	-11.8112
▁НТВ	-11.8112
▁объ	-11.8183
▁айан	-11.8186
▁43	-11.82
_	-11.8212
▁ЕГЭ	-11.8212
▁иумф	-11.8212
▁−	-11.8212
▁мень	-11.8217
▁шенк	-11.8265
▁раны	-11.8293
▁инь	-11.8297
▁ВЦИОМ	-11.8313
▁ВМФ	-11.8313
▁XX	-11.8313
ai	-11.8313
АСЕ	-11.8313
▁FM	-11.8315
OS	-11.8317
▁ner	-11.8318
▁1/	-11.8351
▁льф	-11.8361
воз	-11.8363
▁омощ	-11.8367
▁ЕР	-11.8379
▁sh	-11.839
?	-11.8409
▁Audi	-11.8415
▁Sport	-11.8415
▁news	-11.8415
▁ex	-11.8419
▁49	-11.8425
▁полов	-11.8429
▁мпан	-11.8441
Ж	-11.8449
est	-11.8466
▁ужб	-11.8468
ави	-11.8472
▁ссан	-11.8472
▁AP	-11.8477
айер	-11.8502
ill	-11.8509
▁унг	-11.8519
▁ерх	-11.8528
▁дите	-11.8547
▁МТС	-11.8549
gyp	-11.8556
▁ОИ	-11.8582
▁64	-11.8599
РК	-11.8615
▁вена	-11.8615
▁Tesla	-11.8622
▁ФНС	-11.8622
▁сией	-11.8656
35	-11.8664
▁изда	-11.8683
45	-11.8686
▁3%	-11.8693
▁net	-11.8718
Y	-11.8722
q	-11.8727
▁раф	-11.8734
▁склю	-11.8767
▁mon	-11.8793
▁tor	-11.8825
▁nanc	-11.8834
▁Uni	-11.8834
▁зала	-11.8859
форм	-11.8871
pp	-11.8929
▁IV	-11.8943
▁ive	-11.8943
БР	-11.8944
▁TV	-11.8946
▁ицию	-11.8963
ter	-11.8976
▁25%	-11.9008
FC	-11.902
▁боч	-11.903
▁зни	-11.9046
фон	-11.9052
▁Aut	-11.9053
▁Ex	-11.9054
гран	-11.906
бэ	-11.9087
▁Car	-11.915
▁2-3	-11.916
▁арок	-11.9171
▁онча	-11.9174
▁fi	-11.9184
▁Ka	-11.9199
▁ФК	-11.92
▁мме	-11.9207
▁ВСУ	-11.9216
▁Na	-11.9235
▁is	-11.924
▁AFP	-11.9271
▁Ser	-11.9279
▁ДПС	-11.9292
▁Sto	-11.9354
▁икаг	-11.9356
зрыв	-11.9362
16	-11.9366
▁ban	-11.9367
▁ичны	-11.939
▁ичем	-11.9392
dy	-11.9392
▁pe	-11.9405
тун	-11.9417
▁am	-11.9423
ff	-11.9425
СТ	-11.9429
▁DA	-11.9457
▁Si	-11.9485
Ы	-11.9496
▁line	-11.9497
▁RU	-11.9497
▁BBC	-11.9498
▁РФПЛ	-11.9499
:2	-11.9502
▁Cap	-11.951
ak	-11.9514
бек	-11.9519
▁мка	-11.9522
▁нды	-11.9567
▁трас	-11.9604
і	-11.9606
▁son	-11.9615
▁ФТС	-11.9621
▁ТЭК	-11.9624
J	-12.0325
Q	-12.0705
Ш	-12.0835
Ю	-12.0966
@	-12.2092
Й	-12.2697
Z	-12.3181
&	-12.3181
Ь	-12.4049
̆	-12.4416
!	-12.56
=	-12.5819
`	-12.6718
ü	-12.824
+	-12.9395
ä	-12.9401
ї	-12.9401
>	-12.9707
•	-13.0714
é	-13.3532
õ	-13.3532
×	-13.5034
⁄	-13.559
<	-13.6178
ъ	-13.6633
*	-13.7464
є	-13.747
■	-13.8184
ó	-14.0696
′	-14.1696
°	-14.2801
©	-14.2807
ö	-14.2807
́	-14.4057
‒	-14.4057
І	-14.5485
'	-14.7146
]	-14.7146
þ	-14.7152
−	-14.9146
Щ	-15.1646
\	-15.1652
μ	-15.1652
ў	-15.1652
‍	-15.1652
😂	-15.1652
#	-15.498
­	-15.498
Ö	-15.4985
¦	-15.4985
¬	-15.4985
à	-15.4985
Ş	-15.4985
α	-15.4985
β	-15.4985
Ў	-15.4985
қ	-15.4985
‪	-15.4985
Ν	-15.4986
ç	-15.9985
í	-15.9985
ð	-15.9985
ī	-15.9985
ŏ	-15.9985
ś	-15.9985
ʀ	-15.9985
ʼ	-15.9985
Η	-15.9985
ν	-15.9985
ο	-15.9985
▲	-15.9985
⚽	-15.9985
️	-15.9985
Š	-15.9986
Α	-15.9986
ғ	-16.997
џ	-16.9971
ı	-16.9972
ô	-16.9973
ê	-16.9974
ë	-16.9975
É	-16.9976
~	-16.9977
‬	-16.9978
è	-16.9979
→	-16.998
£	-16.9981
[	-16.9982
€	-16.9983
$	-16.9984
%	-16.9985
¤	-16.9985
¥	-16.9985
§	-16.9985
Ë	-16.9985
ß	-16.9985
á	-16.9985
ø	-16.9985
ā	-16.9985
Ł	-16.9985
ń	-16.9985
ş	-16.9985
š	-16.9985
̈	-16.9985
̊	-16.9985
Έ	-16.9985
Γ	-16.9985
Σ	-16.9985
έ	-16.9985
λ	-16.9985
ρ	-16.9985
τ	-16.9985
χ	-16.9985
ώ	-16.9985
Є	-16.9985
Ї	-16.9985
Қ	-16.9985
ҳ	-16.9985
ӣ	-16.9985
∙	-16.9985
⋅	-16.9985
─	-16.9985
►	-16.9985
●	-16.9985
☃	-16.9985
☝	-16.9985
♫	-16.9985
❄	-16.9985
《	-16.9985
》	-16.9985
	-16.9985
🌞	-16.9985
🍺	-16.9985
🎂	-16.9985
🐅	-16.9985
🐗	-16.9985
🐺	-16.9985
💪	-16.9985
(	-16.9986
ę	-16.9986
İ	-16.9986
