<unk>	0
<s>	0
</s>	0
,	-3.06162
.	-3.35339
▁в	-3.67965
▁и	-4.17938
а	-4.21661
▁на	-4.40858
е	-4.41791
▁"	-4.54002
▁	-4.58678
▁с	-4.74015
▁-	-4.82733
и	-4.88791
▁не	-4.91873
-	-4.97437
▁по	-5.00684
▁что	-5.02767
м	-5.06173
"	-5.13866
й	-5.15701
ы	-5.22697
у	-5.26042
х	-5.36481
▁В	-5.39351
о	-5.48042
ом	-5.55453
▁за	-5.61055
ов	-5.62618
:	-5.64916
▁из	-5.67777
▁о	-5.70868
▁к	-5.76422
",	-5.78502
▁от	-5.86843
ой	-5.88706
го	-5.94255
▁у	-6.03558
▁(	-6.03778
я	-6.04792
▁а	-6.07825
▁для	-6.1123
".	-6.20271
▁до	-6.21185
▁как	-6.22627
▁года	-6.26822
ся	-6.27323
ого	-6.32098
▁России	-6.32116
▁По	-6.34881
с	-6.35016
ми	-6.38202
▁это	-6.39249
▁его	-6.4121
ая	-6.43928
▁при	-6.45785
▁он	-6.54326
в	-6.55098
▁С	-6.60678
▁но	-6.63554
ных	-6.64285
ю	-6.65804
▁этом	-6.66443
)	-6.69568
▁все	-6.71338
▁будет	-6.73713
т	-6.74859
ной	-6.76318
▁под	-6.77348
▁году	-6.77375
▁А	-6.78594
ами	-6.78669
ую	-6.79582
▁со	-6.80365
ка	-6.8069
▁также	-6.81278
ых	-6.82894
▁На	-6.83692
ли	-6.86122
ного	-6.87037
ки	-6.8738
▁то	-6.89864
ные	-6.92017
▁был	-6.92045
▁уже	-6.92091
на	-6.92459
▁об	-6.93637
но	-6.93748
ый	-6.95362
▁было	-6.95641
ный	-6.95711
▁же	-6.97392
то	-6.98045
за	-6.99205
▁время	-6.99261
▁которые	-7.00051
д	-7.0075
ет	-7.02589
▁раз	-7.0296
ь	-7.05419
▁том	-7.05844
л	-7.05874
ем	-7.06122
▁И	-7.0861
▁после	-7.10113
ий	-7.10223
▁так	-7.11423
▁вы	-7.11425
ах	-7.11908
▁только	-7.11935
▁их	-7.12583
ам	-7.1301
▁мы	-7.13348
▁США	-7.14024
▁еще	-7.14185
▁или	-7.14908
ые	-7.15203
▁во	-7.16043
▁того	-7.16556
з	-7.17667
▁может	-7.17972
?	-7.1833
▁более	-7.19474
▁про	-7.1997
▁Но	-7.2082
▁чтобы	-7.22401
ть	-7.22574
ку	-7.22707
▁Как	-7.23203
ей	-7.23371
▁лет	-7.23508
ие	-7.24205
▁были	-7.25756
▁который	-7.26341
ла	-7.27001
▁я	-7.27108
▁ее	-7.27777
к	-7.29504
▁они	-7.29554
ная	-7.30979
▁У	-7.31439
).	-7.32351
▁РФ	-7.34292
▁заявил	-7.34354
н	-7.34394
ия	-7.38226
ым	-7.38835
ло	-7.3906
▁человек	-7.4008
▁бы	-7.4189
▁есть	-7.4199
С	-7.42008
п	-7.42199
им	-7.43135
ии	-7.43599
▁К	-7.44417
▁1	-7.44614
▁этого	-7.45121
ст	-7.45686
▁словам	-7.47128
▁При	-7.47674
ным	-7.49062
▁2016	-7.5071
▁области	-7.50894
р	-7.5136
▁Об	-7.51557
▁руб	-7.52531
),	-7.52832
▁Это	-7.53564
▁млн	-7.54515
ч	-7.54675
ля	-7.56531
▁будут	-7.57728
▁если	-7.57744
ную	-7.58174
не	-7.58914
▁2015	-7.59231
▁пере	-7.59473
ию	-7.60602
да	-7.61022
▁была	-7.61695
▁когда	-7.61951
▁она	-7.62254
му	-7.62442
г	-7.62454
▁чем	-7.62533
▁Он	-7.63499
▁рублей	-7.63819
▁можно	-7.64052
ое	-7.64401
▁быть	-7.64438
▁За	-7.64572
ке	-7.65231
▁г	-7.65368
ской	-7.65577
▁без	-7.6606
▁очень	-7.66424
б	-7.66737
▁где	-7.66823
ва	-7.67096
их	-7.67288
ит	-7.6759
▁страны	-7.68024
▁Я	-7.68259
▁млрд	-7.68471
▁компании	-7.68636
ок	-7.69202
▁тем	-7.69446
▁ли	-7.69711
▁сообщает	-7.71282
▁О	-7.72826
▁них	-7.73731
ского	-7.74311
▁19	-7.74978
▁год	-7.75221
ное	-7.76654
та	-7.78471
▁один	-7.78771
В	-7.7939
ить	-7.80055
ж	-7.80157
▁сказал	-7.80391
ко	-7.80834
▁больше	-7.8091
ном	-7.80954
▁тыс	-7.81116
ни	-7.81295
ru	-7.81487
▁данным	-7.81738
▁Не	-7.81876
ют	-7.82049
▁против	-7.82461
s	-7.83148
▁даже	-7.83207
Ъ	-7.8367
ев	-7.83728
▁2	-7.84005
▁ни	-7.85154
▁нас	-7.85599
▁могут	-7.8617
ков	-7.88949
ра	-7.8912
▁Россия	-7.89267
▁пресс	-7.89308
▁сейчас	-7.89557
А	-7.89893
▁всего	-7.90035
▁сообщил	-7.90079
▁Украины	-7.90134
▁нет	-7.90529
де	-7.91012
▁10	-7.91204
▁этот	-7.91272
▁президента	-7.91672
ят	-7.9211
ский	-7.9221
▁два	-7.92524
▁которая	-7.92718
по	-7.92727
▁3	-7.93025
▁отметил	-7.93055
▁несколько	-7.93229
ин	-7.93489
▁около	-7.93556
▁Ранее	-7.95278
О	-7.95356
ль	-7.9554
▁суд	-7.9695
ется	-7.97463
▁всех	-7.97987
ен	-7.98002
▁пока	-7.98046
вер	-7.98562
от	-7.99634
▁Мы	-7.99697
▁тысяч	-8.00291
▁которых	-8.00322
▁является	-8.0106
▁Владимир	-8.01517
▁между	-8.01576
▁президент	-8.0199
!	-8.02019
ш	-8.02727
ал	-8.02762
▁решение	-8.02962
сти	-8.03493
ф	-8.04262
▁себя	-8.04432
ос	-8.05452
через	-8.05891
▁этой	-8.06327
▁Сирии	-8.07023
он	-8.07106
▁двух	-8.07197
▁Однако	-8.07355
▁5	-8.07381
или	-8.07767
▁числе	-8.07773
▁кто	-8.08065
▁20	-8.08513
ру	-8.08599
▁свою	-8.08793
М	-8.09341
▁Александр	-8.10131
▁передает	-8.10158
ская	-8.10659
▁глава	-8.11052
об	-8.11319
лись	-8.12172
▁4	-8.12269
ными	-8.12371
ти	-8.12679
▁Кроме	-8.13154
▁три	-8.13453
Т	-8.13559
ться	-8.13644
из	-8.13874
▁власти	-8.14516
▁города	-8.15178
▁момент	-8.15968
▁день	-8.16059
Д	-8.16195
▁Москве	-8.16298
▁Если	-8.1634
кой	-8.16533
Р	-8.16712
▁М	-8.17033
▁сегодня	-8.17473
ны	-8.17853
▁место	-8.18175
ма	-8.18483
▁эти	-8.18551
▁своей	-8.18685
▁2014	-8.18808
ри	-8.19412
ются	-8.19484
▁результате	-8.19624
▁вопрос	-8.19703
лась	-8.19863
▁должны	-8.19917
Б	-8.20212
▁Lenta	-8.20432
▁Так	-8.20721
▁стал	-8.20903
те	-8.20911
▁работы	-8.21015
...	-8.21131
▁над	-8.21208
▁15	-8.2228
ча	-8.22285
чи	-8.22451
ыми	-8.22757
▁которой	-8.23093
▁Сергей	-8.23334
▁просто	-8.23359
ских	-8.23485
▁стороны	-8.23725
▁стран	-8.24095
ать	-8.2417
▁перед	-8.24189
▁безопасности	-8.24403
П	-8.2471
▁людей	-8.25136
▁дело	-8.25141
▁случае	-8.25292
мен	-8.25335
▁много	-8.25353
▁связи	-8.25557
▁ему	-8.25967
▁Путин	-8.26482
▁12	-8.26559
же	-8.26569
▁СМИ	-8.26629
▁П	-8.2675
▁других	-8.26784
лен	-8.27045
00	-8.28483
лся	-8.28595
ле	-8.28714
ил	-8.28714
▁ранее	-8.29303
▁Напомним	-8.2966
▁рассказал	-8.29675
▁территории	-8.30435
▁меня	-8.30467
прав	-8.31093
У	-8.31467
ер	-8.31551
▁мира	-8.31677
тор	-8.31947
▁граждан	-8.32137
▁жизни	-8.3216
че	-8.3223
би	-8.32362
сть	-8.32366
ну	-8.3319
▁После	-8.33374
▁считает	-8.3351
▁марта	-8.33853
▁него	-8.33941
▁цен	-8.34039
▁говорит	-8.34122
▁организации	-8.34185
до	-8.34598
ому	-8.34659
▁нужно	-8.34724
ова	-8.34894
▁18	-8.35017
▁которого	-8.35375
▁российских	-8.35396
▁лишь	-8.35434
▁мнению	-8.3549
▁ходе	-8.35532
▁человека	-8.35561
▁свои	-8.35649
e	-8.35738
ви	-8.35827
2	-8.36109
га	-8.36429
К	-8.36547
▁6	-8.37297
▁Да	-8.37379
▁Д	-8.37635
▁своих	-8.38289
▁7	-8.38304
лов	-8.38497
▁8	-8.38617
▁Москвы	-8.39036
ив	-8.39093
▁стало	-8.39376
▁Также	-8.39576
▁Новости	-8.4007
▁ре	-8.40098
▁там	-8.40134
вод	-8.40808
ба	-8.4106
▁почти	-8.41264
▁господин	-8.4134
кр	-8.4174
ди	-8.4186
вы	-8.41918
ение	-8.4217
▁11	-8.42425
▁отношении	-8.42482
ц	-8.42514
▁партии	-8.42951
ту	-8.42999
▁ТАСС	-8.43095
ские	-8.43255
ности	-8.43264
▁им	-8.43335
ство	-8.43347
▁рас	-8.43357
▁9	-8.43364
И	-8.43646
ском	-8.43652
▁До	-8.4394
▁именно	-8.44025
▁Во	-8.44316
ро	-8.4437
▁детей	-8.4467
ги	-8.44869
▁тех	-8.4488
са	-8.44921
Ф	-8.45221
▁Сегодня	-8.45621
ты	-8.45855
▁дела	-8.46031
▁люди	-8.46296
ком	-8.46314
▁стране	-8.46529
▁30	-8.46569
ения	-8.46798
▁апреля	-8.46844
▁часть	-8.47099
▁сентября	-8.47518
▁говорится	-8.47552
3	-8.47583
си	-8.4761
▁однако	-8.47665
али	-8.47821
o	-8.47867
▁Дмитрий	-8.48075
▁главы	-8.48332
▁государства	-8.4933
▁средств	-8.49389
▁стали	-8.49477
1	-8.49564
тель	-8.49983
▁проект	-8.49997
▁Все	-8.501
;	-8.50401
Г	-8.5056
▁рамках	-8.50577
пол	-8.51012
▁правительства	-8.51013
▁должен	-8.51085
/	-8.51128
▁представитель	-8.51188
▁п	-8.51289
ец	-8.51355
дер	-8.51847
▁сообщили	-8.52219
овой	-8.52348
ду	-8.52485
ись	-8.52714
i	-8.52768
▁Б	-8.53774
ре	-8.54005
▁участие	-8.54185
▁м	-8.54219
▁дел	-8.54447
▁дома	-8.54452
ние	-8.54882
4	-8.54907
▁февраля	-8.54983
ность	-8.55006
▁идет	-8.55049
▁де	-8.55075
▁одной	-8.55133
▁компания	-8.55308
▁Г	-8.55364
▁16	-8.5544
ор	-8.55924
▁образом	-8.56466
▁S	-8.56618
▁менее	-8.56695
▁времени	-8.56869
▁одного	-8.57092
ник	-8.57128
▁14	-8.57172
цы	-8.57384
▁декабря	-8.57397
▁ноября	-8.57533
▁Они	-8.57623
▁17	-8.57786
ости	-8.57842
▁13	-8.57864
▁октября	-8.58146
▁развития	-8.58214
▁счет	-8.58217
▁Про	-8.5828
▁информации	-8.58695
пи	-8.58705
ось	-8.58939
▁назад	-8.59183
▁те	-8.59472
▁такой	-8.59927
▁января	-8.60009
▁2017	-8.60018
мер	-8.6007
▁период	-8.6007
про	-8.60209
▁мая	-8.60327
▁другие	-8.60458
ня	-8.60515
ина	-8.60536
▁Из	-8.60634
ель	-8.60866
ировать	-8.61041
ице	-8.61158
нов	-8.61469
ар	-8.61922
жи	-8.61932
▁этих	-8.61937
▁управления	-8.62277
при	-8.62437
▁известно	-8.62487
▁российского	-8.62816
▁части	-8.62958
▁мне	-8.63076
жен	-8.6358
▁Сейчас	-8.63599
▁сам	-8.63707
▁себе	-8.63994
▁трех	-8.64237
▁Т	-8.64288
▁Турции	-8.64353
▁тот	-8.64399
▁работу	-8.64445
ист	-8.64537
▁конце	-8.64602
▁первый	-8.64862
▁прав	-8.64893
▁среди	-8.64904
▁долларов	-8.64918
ве	-8.65044
▁премьер	-8.65366
ров	-8.65411
▁тоже	-8.65457
▁потому	-8.65471
▁слова	-8.65854
▁Дл	-8.6613
▁возможность	-8.66297
▁частности	-8.66639
сылкой	-8.66943
ца	-8.66964
▁удалось	-8.67081
ци	-8.67487
▁РИА	-8.67516
t	-8.67656
▁пост	-8.67894
ась	-8.67903
▁надо	-8.68026
ан	-8.68118
▁получил	-8.68259
▁течение	-8.68276
▁районе	-8.68511
▁ситуации	-8.68511
ний	-8.68624
▁своего	-8.68657
ства	-8.68705
▁министр	-8.68772
▁закон	-8.68885
▁пор	-8.69048
па	-8.69128
▁которое	-8.69196
▁ЕС	-8.69323
ян	-8.69519
▁пред	-8.70287
▁здесь	-8.70348
▁очередь	-8.70426
▁этим	-8.70651
▁22	-8.70859
ость	-8.70911
▁группы	-8.70944
тер	-8.71187
▁ко	-8.71742
▁вместе	-8.71839
ик	-8.72176
▁21	-8.7262
зна	-8.72719
Н	-8.72809
▁тогда	-8.72851
▁деньги	-8.73207
▁полиции	-8.73249
▁теперь	-8.73647
ста	-8.73866
▁находится	-8.7405
ис	-8.74541
▁свой	-8.74545
▁вот	-8.74578
▁25	-8.75409
▁системы	-8.75441
▁необходимо	-8.75902
▁добавил	-8.7591
▁сразу	-8.75927
ман	-8.76114
▁Президент	-8.76186
ход	-8.76372
ают	-8.76498
▁эту	-8.76661
▁подчеркнул	-8.76777
▁уровне	-8.76893
▁От	-8.76927
▁начала	-8.7698
y	-8.77134
бо	-8.77153
▁стала	-8.77174
Л	-8.77265
лось	-8.773
5	-8.773
▁всегда	-8.77306
▁качестве	-8.77389
▁директор	-8.77534
▁таких	-8.77567
▁т	-8.77577
со	-8.77895
▁котором	-8.77953
▁Р	-8.78284
▁стать	-8.78494
▁новых	-8.7856
ева	-8.78643
▁То	-8.78811
▁ряд	-8.7916
▁ст	-8.79244
ел	-8.79335
▁комитета	-8.79479
▁лучше	-8.79484
▁Ф	-8.79881
ща	-8.79916
▁гор	-8.8003
ша	-8.80144
▁российской	-8.80212
ряд	-8.80446
ше	-8.80452
▁агентство	-8.806
ников	-8.80642
ает	-8.80658
ному	-8.80759
▁рост	-8.80928
6	-8.80964
лю	-8.81177
зи	-8.81222
▁сделать	-8.81252
▁месте	-8.81258
▁решения	-8.81372
▁A	-8.81574
S	-8.81849
▁проекта	-8.81958
Э	-8.81969
▁Алексей	-8.81976
лет	-8.82081
ры	-8.82138
▁начале	-8.82166
во	-8.8224
жд	-8.82298
n	-8.82311
7	-8.82437
▁рынка	-8.82446
er	-8.82636
▁суда	-8.82637
▁последние	-8.82664
▁чего	-8.82676
▁итогам	-8.82881
▁прошлого	-8.83159
▁действия	-8.83235
▁стоит	-8.83249
▁годы	-8.83526
▁количество	-8.83574
ут	-8.83734
▁дня	-8.83875
▁сайте	-8.83945
летний	-8.8407
енко	-8.84203
▁рынке	-8.84338
▁конечно	-8.84445
▁августа	-8.84453
▁например	-8.84674
▁деятельности	-8.84695
▁No	-8.84772
▁24	-8.84939
▁процесс	-8.85013
лу	-8.85176
▁МВД	-8.8541
▁хотя	-8.85444
▁право	-8.85495
▁гос	-8.85787
▁б	-8.86209
▁нового	-8.86227
раз	-8.86323
ат	-8.86773
▁сил	-8.86934
▁МИД	-8.87222
▁Она	-8.87226
▁поэтому	-8.87227
▁ответ	-8.87453
▁нефти	-8.87498
▁пять	-8.87595
▁свое	-8.8768
▁городе	-8.87759
цев	-8.87833
гу	-8.87868
▁23	-8.88003
▁Что	-8.88055
▁100	-8.88113
▁Ре	-8.88132
род	-8.88146
▁второй	-8.88246
▁новый	-8.88423
▁отмечает	-8.88505
▁которую	-8.88604
вал	-8.88615
▁бюджет	-8.88958
овых	-8.89286
▁C	-8.89961
▁всем	-8.90218
▁Ш	-8.90304
▁считают	-8.90424
P	-8.90428
▁эта	-8.90498
▁должна	-8.9057
сь	-8.90794
▁новые	-8.90955
▁внимание	-8.91044
бы	-8.91123
э	-8.91358
▁настоящее	-8.91425
▁компаний	-8.91465
стро	-8.91497
▁июля	-8.91625
▁Россию	-8.91711
▁такие	-8.91724
▁интерес	-8.91749
лог	-8.91793
мет	-8.92209
вин	-8.92248
▁состав	-8.9243
▁четыре	-8.92548
▁имеет	-8.9258
ция	-8.92644
ол	-8.92702
▁помощи	-8.92769
иться	-8.92919
▁50	-8.93143
▁поскольку	-8.93156
ус	-8.93351
▁Э	-8.93403
▁мире	-8.93439
ир	-8.93523
▁средства	-8.93747
k	-8.93764
▁миллионов	-8.93809
▁Трамп	-8.93853
▁д	-8.93893
▁28	-8.93927
▁Федерации	-8.94034
▁Н	-8.94081
лин	-8.94185
▁Де	-8.94235
▁авто	-8.94248
▁своем	-8.94292
▁Украине	-8.94421
C	-8.94568
▁станет	-8.94836
▁бизнес	-8.94891
▁потом	-8.95026
▁ООН	-8.9512
▁получили	-8.95227
▁Глава	-8.95316
▁нашей	-8.95392
▁работать	-8.95413
▁Ли	-8.95474
▁две	-8.95598
▁да	-8.95686
▁региона	-8.95718
▁ничего	-8.96011
▁проблемы	-8.96014
ож	-8.96146
ским	-8.96165
▁дней	-8.96266
▁банка	-8.9634
▁Андрей	-8.96371
▁истории	-8.96411
Х	-8.96426
u	-8.96513
▁мир	-8.96852
▁лиц	-8.97263
▁экс	-8.97316
▁срок	-8.9745
▁жизнь	-8.97593
▁Европы	-8.97623
▁Вы	-8.97655
▁ведомства	-8.97743
▁Ку	-8.97798
▁источник	-8.98044
▁работа	-8.98082
▁полностью	-8.98134
▁данные	-8.98149
пе	-8.98222
▁город	-8.98248
▁сборной	-8.98319
▁кино	-8.98393
▁Поэтому	-8.98473
▁информацию	-8.98539
▁евро	-8.9854
▁Ко	-8.98572
се	-8.98689
▁россиян	-8.98834
ками	-8.98976
▁27	-8.99013
c	-8.99229
▁прошлом	-8.99403
▁26	-8.99455
▁получить	-9.00152
g	-9.0037
▁меньше	-9.00491
▁Его	-9.00536
▁G	-9.00832
▁приводит	-9.00858
▁администрации	-9.00922
▁программы	-9.01003
под	-9.01127
▁места	-9.01134
▁другой	-9.01185
аль	-9.01236
кор	-9.01335
▁составляет	-9.01364
лы	-9.01409
▁практически	-9.01449
▁самых	-9.0204
ур	-9.0209
▁Сам	-9.02145
▁достаточно	-9.02223
нее	-9.02228
▁ситуация	-9.02295
▁проблем	-9.02297
▁банк	-9.0238
▁Со	-9.02526
▁месяцев	-9.02554
▁совет	-9.02598
▁центра	-9.02656
▁пре	-9.02726
▁ним	-9.02805
▁весь	-9.02913
8	-9.03032
бер	-9.03036
▁просмотров	-9.03089
ск	-9.03289
ды	-9.03375
▁этому	-9.03591
▁кон	-9.03658
ним	-9.03735
▁Под	-9.03775
од	-9.03935
▁Когда	-9.04101
0	-9.04102
сп	-9.04113
▁кор	-9.04127
▁правительство	-9.04261
▁войны	-9.043
▁населения	-9.04337
▁само	-9.04339
▁одним	-9.04597
▁B	-9.04654
▁многие	-9.04662
▁Е	-9.04667
▁команды	-9.04897
ации	-9.05067
кин	-9.05143
щи	-9.05386
▁план	-9.05406
▁тому	-9.05448
зы	-9.05517
▁Тем	-9.05534
▁жителей	-9.05539
ши	-9.05563
▁часов	-9.05725
▁должно	-9.05925
▁Госдумы	-9.06088
стра	-9.06196
ели	-9.06367
скую	-9.06639
рен	-9.06706
▁назвал	-9.06846
▁Михаил	-9.06857
▁экономики	-9.06867
Я	-9.06868
▁процентов	-9.06877
▁Ма	-9.06926
9	-9.06996
▁возможности	-9.07375
▁службы	-9.07479
▁впервые	-9.07538
ния	-9.07725
▁число	-9.07869
стр	-9.07902
▁готов	-9.07976
▁стар	-9.08034
щ	-9.08038
▁одна	-9.08055
чен	-9.08109
▁интернет	-9.08134
▁выборов	-9.08351
▁одно	-9.08383
▁делать	-9.08408
▁цены	-9.08417
▁участников	-9.08528
▁курс	-9.08669
ски	-9.08811
▁вопросы	-9.09047
▁выборах	-9.09062
▁отношения	-9.09092
▁Германии	-9.09124
лив	-9.09139
ики	-9.09243
нд	-9.09318
▁Порошенко	-9.09457
▁2013	-9.09584
▁Согласно	-9.09714
ще	-9.09803
▁нам	-9.10085
овать	-9.10141
▁законодательств	-9.1026
фи	-9.10365
овые	-9.10384
▁депутат	-9.10469
▁пяти	-9.10509
▁сотрудников	-9.1053
▁первом	-9.10686
▁29	-9.10933
оп	-9.11216
ья	-9.11353
M	-9.11464
ится	-9.11468
▁права	-9.11564
▁Россией	-9.11768
▁таким	-9.11837
ич	-9.11854
▁политики	-9.12123
▁итоге	-9.12219
▁сообщении	-9.12591
▁социально	-9.12646
З	-9.12695
m	-9.12825
▁Еще	-9.12833
▁Российско	-9.12933
ика	-9.1297
ран	-9.13052
ска	-9.13077
▁встречи	-9.13209
По	-9.13314
Ru	-9.13374
▁виде	-9.13487
▁л	-9.13509
▁мало	-9.13567
▁Клинтон	-9.13656
кс	-9.1386
▁представители	-9.13896
▁агентства	-9.13961
▁размере	-9.1399
кова	-9.14121
▁интервью	-9.14133
жа	-9.14158
▁особенно	-9.14342
бор	-9.14382
▁меры	-9.14398
▁произошло	-9.14734
▁собой	-9.14786
кон	-9.14809
▁которым	-9.14826
▁Источник	-9.14854
▁возможно	-9.14862
▁целом	-9.14939
▁нефть	-9.14976
▁обороны	-9.15111
▁Ле	-9.15407
▁улице	-9.15541
▁дом	-9.15559
▁мест	-9.1558
▁затем	-9.1559
ировал	-9.15607
▁работ	-9.15607
▁вообще	-9.15823
▁движения	-9.15949
▁Франции	-9.1595
▁условиях	-9.15964
▁уровень	-9.15967
▁ЦБ	-9.16035
воз	-9.16055
▁иностранных	-9.16218
▁услуг	-9.16249
▁примерно	-9.16397
мы	-9.16482
▁тонн	-9.1651
ган	-9.16612
ря	-9.16654
▁бюджета	-9.16687
▁40	-9.167
▁действительно	-9.16719
пер	-9.1673
вед	-9.16735
ила	-9.16772
▁пояснил	-9.16814
▁результат	-9.16857
дин	-9.16966
▁ситуацию	-9.17171
▁Ж	-9.17189
▁автомобиль	-9.17289
in	-9.17393
▁минут	-9.17429
▁выход	-9.17445
▁активно	-9.17629
▁("	-9.17773
▁Ка	-9.17896
▁российские	-9.17914
▁Мо	-9.17956
▁Ъ	-9.1797
▁встреча	-9.18004
▁роста	-9.18031
ясь	-9.18134
▁помощью	-9.18161
▁министра	-9.18167
▁конца	-9.18204
▁каждый	-9.18222
▁па	-9.18247
су	-9.18264
▁пишет	-9.18288
▁заявление	-9.18412
▁уголовное	-9.18429
▁Санкт	-9.18482
a	-9.18585
ент	-9.18623
▁сообщила	-9.18773
▁заявила	-9.18895
▁видео	-9.18933
▁какие	-9.18945
▁центре	-9.19279
ирован	-9.19285
▁НАТО	-9.19291
вести	-9.19381
▁задержан	-9.19397
дел	-9.19628
▁своим	-9.19751
▁Ар	-9.19937
▁воз	-9.20026
▁объем	-9.20057
сы	-9.20113
▁первую	-9.20177
▁ч	-9.20315
▁российский	-9.2036
▁речь	-9.20447
▁УК	-9.20455
▁погибли	-9.20641
▁сети	-9.20738
▁Ц	-9.20784
вали	-9.20929
ился	-9.20967
ье	-9.20998
")	-9.21046
▁Су	-9.21109
▁та	-9.21157
▁государство	-9.21211
▁сообщалось	-9.21212
ация	-9.21394
▁сказать	-9.21403
▁э	-9.21405
вший	-9.21445
▁всей	-9.21507
▁самолет	-9.21696
▁F	-9.21871
▁следует	-9.21976
▁материале	-9.2208
▁действий	-9.22103
▁опыт	-9.22236
оль	-9.22298
▁новой	-9.22363
▁хорошо	-9.2269
▁газета	-9.22699
▁ведь	-9.22756
▁Впрочем	-9.22883
▁эксперт	-9.22919
▁законопроект	-9.22954
зе	-9.22988
al	-9.2301
▁понедельник	-9.23014
▁производства	-9.23018
▁Ра	-9.23074
▁деле	-9.23289
ун	-9.23319
▁нем	-9.2339
▁Ха	-9.23414
▁Новы	-9.23425
▁Трампа	-9.23784
▁помощь	-9.23804
▁читайте	-9.23806
тов	-9.23855
▁P	-9.23902
лад	-9.24063
ника	-9.24086
ге	-9.2413
министр	-9.24276
оз	-9.24372
▁свет	-9.24404
ники	-9.2441
▁пар	-9.24415
▁сбор	-9.24456
▁Владимира	-9.24506
▁вас	-9.24588
▁проведения	-9.2463
v	-9.2473
▁данных	-9.24759
▁либо	-9.24799
▁республики	-9.25141
вид	-9.25181
бира	-9.25192
цен	-9.25194
ней	-9.25208
▁правоохранитель	-9.25397
Ц	-9.25462
Е	-9.25527
b	-9.2553
▁пятницу	-9.25533
рос	-9.25547
▁месяца	-9.25577
рон	-9.25623
▁рынок	-9.25665
▁стоимость	-9.2567
▁клуб	-9.25672
D	-9.25869
▁совета	-9.25942
I	-9.25971
тели	-9.25996
ием	-9.26058
▁СССР	-9.26069
▁факт	-9.26202
▁ф	-9.26209
▁пол	-9.26241
▁M	-9.26252
▁важно	-9.26305
▁сотрудники	-9.26314
след	-9.26336
▁четверг	-9.26353
На	-9.26394
▁делу	-9.26483
уш	-9.26584
▁начали	-9.2662
▁большой	-9.26702
B	-9.26753
▁среду	-9.26778
чин	-9.26796
▁наши	-9.26921
▁работает	-9.27023
ское	-9.27037
▁предприятия	-9.27042
▁района	-9.27052
▁работе	-9.27154
▁одном	-9.27246
▁центр	-9.27317
▁Ч	-9.2733
▁Игорь	-9.27427
▁принято	-9.27505
▁Га	-9.27597
▁тысячи	-9.27643
иль	-9.27648
▁заявили	-9.27762
тив	-9.278
▁Дональд	-9.27838
▁никто	-9.2784
Интерфакс	-9.27855
▁какой	-9.27939
▁Ми	-9.27943
▁версии	-9.27975
▁Путина	-9.27997
ван	-9.28112
Мы	-9.28148
ул	-9.28219
­	-9.2825
▁сфере	-9.28259
цион	-9.28274
дов	-9.28281
▁самым	-9.28309
рат	-9.28319
▁произошел	-9.28388
▁ООО	-9.28388
▁Ла	-9.28391
▁имени	-9.28587
нес	-9.2859
▁выше	-9.28676
▁говорят	-9.28717
тся	-9.28729
▁Па	-9.28743
▁Крыма	-9.28791
▁Москва	-9.28914
▁взрыв	-9.28977
ении	-9.29043
▁мог	-9.29064
тро	-9.29069
▁наших	-9.2908
▁H	-9.29132
▁лидер	-9.29246
▁ребенка	-9.29359
▁несмотря	-9.2936
ar	-9.29404
нер	-9.2946
▁четырех	-9.29492
▁порядка	-9.29501
нос	-9.29533
▁ей	-9.29695
ции	-9.29786
▁группа	-9.29814
▁первого	-9.29821
▁Алеппо	-9.29918
▁призвал	-9.30003
▁З	-9.30009
▁самом	-9.30083
▁ди	-9.30114
▁такое	-9.30115
▁ма	-9.30142
▁фильм	-9.302
обра	-9.30252
▁Европе	-9.30284
▁The	-9.30319
▁органов	-9.3035
▁изменения	-9.30356
▁цитирует	-9.30628
▁Киев	-9.30631
▁доступ	-9.30693
▁вторник	-9.30765
▁образования	-9.30767
▁смогут	-9.30772
▁31	-9.30784
▁Ро	-9.30868
▁Савченко	-9.30905
ового	-9.30944
▁банков	-9.31001
▁D	-9.31041
▁Александра	-9.31063
▁сайт	-9.31129
▁прогноз	-9.31419
▁часто	-9.31468
итель	-9.31487
▁Совета	-9.31532
▁первой	-9.31571
▁заместитель	-9.31614
▁денег	-9.31614
ющие	-9.31638
▁такого	-9.3168
шен	-9.31859
ед	-9.31924
d	-9.3193
▁з	-9.32007
▁женщин	-9.32051
▁телефон	-9.32105
▁комплекс	-9.32118
▁газ	-9.32138
▁силы	-9.32188
▁Украина	-9.32308
▁труд	-9.3232
▁Ту	-9.32383
▁Ди	-9.32458
▁операции	-9.32479
▁роль	-9.3248
▁нескольких	-9.32617
инг	-9.32682
▁договор	-9.32702
▁провести	-9.32703
ала	-9.32808
ью	-9.32851
▁могли	-9.32871
▁комиссии	-9.3305
▁закона	-9.33065
ительно	-9.33281
▁Л	-9.33345
чер	-9.33387
▁готовы	-9.3339
▁начал	-9.33392
▁Х	-9.3358
стве	-9.33678
▁использовать	-9.33691
▁торгов	-9.33808
▁газа	-9.33845
ек	-9.33847
куп	-9.33901
A	-9.33901
▁касается	-9.3393
R	-9.33946
▁бо	-9.33987
ках	-9.34029
r	-9.34058
▁уровня	-9.34068
фор	-9.3408
▁ш	-9.34092
▁культуры	-9.34093
мин	-9.34236
фе	-9.34266
▁Кар	-9.3431
▁принял	-9.34337
▁нельзя	-9.3436
▁никогда	-9.34515
▁являются	-9.34519
▁Песков	-9.34524
▁строительство	-9.34654
секретарь	-9.34693
▁I	-9.34718
тан	-9.34888
еж	-9.35088
▁комитет	-9.35288
ились	-9.353
re	-9.35307
стан	-9.35378
▁чемпионата	-9.35418
▁постоянно	-9.35546
ющим	-9.3555
30	-9.35698
▁рубля	-9.35707
▁T	-9.35756
▁переговоры	-9.35769
гор	-9.35831
▁Например	-9.35836
▁пройдет	-9.35985
▁преступления	-9.35987
▁документ	-9.36002
ват	-9.36075
▁Таким	-9.36094
данный	-9.36111
гра	-9.36165
▁некоторые	-9.36178
▁ближайше	-9.36221
▁Ан	-9.36255
▁круг	-9.36282
▁список	-9.36338
▁строительства	-9.36433
▁стро	-9.36466
▁Петр	-9.36531
▁руководитель	-9.36582
▁Олег	-9.36658
▁находятся	-9.36736
▁говорить	-9.36824
▁силу	-9.3691
▁акции	-9.36967
▁тут	-9.37009
▁совместно	-9.37058
▁200	-9.37108
теля	-9.37204
▁Фото	-9.37238
▁Бо	-9.37333
▁Тогда	-9.37334
▁фонд	-9.37339
▁Известия	-9.37364
нг	-9.37399
▁Бел	-9.37404
нова	-9.37435
▁Ни	-9.37531
бр	-9.37564
вар	-9.37638
ид	-9.37682
▁сумму	-9.37702
▁написал	-9.37732
▁быстро	-9.37784
▁происходит	-9.37789
▁2012	-9.3796
пре	-9.38056
50	-9.38175
▁условия	-9.38274
E	-9.38304
▁бывший	-9.38315
▁поддержку	-9.38702
▁имеют	-9.38746
▁Виктор	-9.38759
▁Image	-9.38855
▁членов	-9.38856
▁РБК	-9.38858
▁многих	-9.39009
▁организация	-9.39046
▁режим	-9.39065
ак	-9.39099
рас	-9.391
▁район	-9.39152
▁состоянии	-9.39166
▁система	-9.39257
▁председатель	-9.39269
ший	-9.39294
бу	-9.39483
▁поводу	-9.39518
▁бес	-9.39522
▁сравнению	-9.39625
▁благодаря	-9.39799
▁сможет	-9.39841
▁тур	-9.39845
службе	-9.39868
▁штраф	-9.39877
▁сами	-9.39888
▁давно	-9.39926
▁самолета	-9.40003
▁Совет	-9.40025
▁бизнеса	-9.40216
ско	-9.40277
an	-9.40283
▁Мир	-9.40296
▁создан	-9.40472
▁назначен	-9.40605
нию	-9.40651
▁самого	-9.40723
говор	-9.40741
▁сильно	-9.40819
лев	-9.40848
▁Минобороны	-9.40868
▁почему	-9.40869
▁остается	-9.40889
▁крайне	-9.40907
▁миллиона	-9.40925
ятся	-9.4094
▁фонда	-9.41026
▁карт	-9.41077
▁главный	-9.41117
▁мужчина	-9.41284
▁раза	-9.41301
рав	-9.41363
ими	-9.41425
ест	-9.41473
вен	-9.41569
▁иск	-9.4157
▁спорта	-9.41575
летнего	-9.41817
тра	-9.41832
▁выбор	-9.4187
▁месяц	-9.41882
▁регионе	-9.41883
▁разных	-9.4194
▁машин	-9.41961
▁согласно	-9.41968
▁Максим	-9.4198
▁E	-9.42173
▁автомобиля	-9.42285
▁вопросам	-9.42335
таки	-9.42407
▁Подробнее	-9.42603
▁соглашения	-9.42605
f	-9.42659
тур	-9.42691
нии	-9.42756
▁МЧС	-9.42762
ирует	-9.42786
▁кредит	-9.42789
▁военных	-9.42817
стер	-9.42886
▁Ме	-9.42888
уют	-9.4291
▁жертв	-9.42912
▁глав	-9.43033
▁организаций	-9.43081
▁развитие	-9.43081
▁запрос	-9.43157
l	-9.43164
кар	-9.43224
▁выборы	-9.433
пл	-9.43336
▁составе	-9.43478
▁провел	-9.43652
▁мо	-9.43724
▁анти	-9.43784
▁деятельность	-9.43793
▁масштаб	-9.43884
▁проблема	-9.43931
▁принять	-9.43983
▁края	-9.44058
▁точно	-9.44077
▁представителей	-9.44208
зов	-9.44208
ющих	-9.44234
▁результаты	-9.44251
▁специально	-9.44266
▁погиб	-9.44344
▁кур	-9.44611
езд	-9.44626
гер	-9.44732
лон	-9.4475
▁сообщается	-9.44802
▁продукции	-9.44855
▁депутатов	-9.4487
ите	-9.44922
гла	-9.44946
▁отношений	-9.45018
▁никаких	-9.45048
▁Медведев	-9.45197
▁уверен	-9.45222
ница	-9.45257
▁вариант	-9.45274
уд	-9.45277
нут	-9.45461
▁автомобилей	-9.45504
▁2011	-9.45526
▁Крым	-9.45551
тар	-9.45617
▁собственно	-9.45638
▁Борис	-9.45889
▁Российски	-9.45901
▁Сергея	-9.46001
▁Теперь	-9.46001
▁большинство	-9.46001
ешь	-9.46039
вшего	-9.46133
▁раньше	-9.46166
▁семей	-9.46174
▁бывше	-9.46179
▁ракет	-9.46197
тон	-9.46269
▁предложил	-9.46273
За	-9.46302
▁сих	-9.46565
работ	-9.46731
▁говорил	-9.46891
▁недели	-9.46895
бе	-9.4692
▁позиции	-9.46994
▁совсем	-9.46994
▁придется	-9.47027
▁президентом	-9.47314
▁июня	-9.47333
▁2018	-9.47341
▁признал	-9.47346
либо	-9.47365
▁переговоров	-9.47388
ra	-9.47442
▁клуба	-9.47516
▁Среди	-9.47523
▁свободы	-9.47682
год	-9.47814
▁декабре	-9.47996
▁куда	-9.48016
▁найти	-9.48026
▁минимум	-9.48037
▁ней	-9.48078
▁ближайши	-9.481
▁N	-9.48164
▁властей	-9.48165
▁эксперты	-9.48343
▁процента	-9.48462
▁санкции	-9.48502
▁адрес	-9.4854
▁размер	-9.48631
▁всю	-9.4864
мент	-9.4878
▁особо	-9.48876
▁фоне	-9.48963
▁борьбе	-9.49009
▁уголовно	-9.49048
▁оказался	-9.4919
ями	-9.49218
p	-9.4931
":	-9.49394
быт	-9.49409
ден	-9.49549
▁слишком	-9.4958
ад	-9.49703
РИА	-9.49731
N	-9.49789
▁зрения	-9.49861
служба	-9.49897
место	-9.49976
ву	-9.49986
▁странах	-9.50021
▁тренер	-9.50022
▁будем	-9.50033
▁вновь	-9.50037
ству	-9.50357
▁собеседник	-9.50362
▁планирует	-9.50369
w	-9.50373
▁факту	-9.50505
▁январе	-9.50547
▁снова	-9.50564
▁нарушения	-9.50602
▁решил	-9.50633
▁акций	-9.5072
▁скорее	-9.5072
▁вполне	-9.50723
▁Антон	-9.50734
▁Пол	-9.50833
эн	-9.50871
▁пе	-9.509
▁совершенно	-9.50903
▁прямо	-9.51021
▁конфликт	-9.51082
ировали	-9.51162
▁производство	-9.51252
▁объектов	-9.51272
▁арест	-9.51332
▁кризис	-9.51353
▁матче	-9.5141
▁Ша	-9.51417
▁реализации	-9.51419
▁шесть	-9.51543
ацию	-9.51546
▁образ	-9.51566
▁Великобритании	-9.51586
дан	-9.51619
▁Хо	-9.51698
▁ниже	-9.51732
сон	-9.51738
▁продажи	-9.51739
иков	-9.51744
▁заседании	-9.51761
▁мероприятия	-9.51761
▁следствия	-9.51761
Ш	-9.51808
три	-9.51876
▁расположен	-9.51908
▁контроль	-9.52018
▁Евгений	-9.52018
▁значительно	-9.52114
▁мер	-9.52186
ген	-9.52248
изм	-9.52468
▁машины	-9.52522
кам	-9.52544
▁Российская	-9.5257
овым	-9.52611
▁информация	-9.52636
▁Ю	-9.52644
ания	-9.52723
овая	-9.52801
лек	-9.53217
кан	-9.53305
▁национальной	-9.53307
T	-9.5334
▁рассказывает	-9.53349
▁Кр	-9.53354
▁мед	-9.53364
▁санкций	-9.5352
ченко	-9.53523
▁целью	-9.53605
чат	-9.53631
▁пришлось	-9.537
▁ремонт	-9.53742
▁пользу	-9.53814
▁L	-9.53999
▁член	-9.54097
нь	-9.54128
рт	-9.54144
нев	-9.54164
▁значит	-9.54185
▁команда	-9.54186
▁хочет	-9.54219
▁губернатор	-9.54396
рак	-9.54398
▁Ну	-9.54411
ались	-9.54426
рез	-9.54459
клю	-9.54544
▁V	-9.54574
▁неделе	-9.54611
▁семьи	-9.54661
▁актер	-9.5476
▁воскресенье	-9.5477
▁директора	-9.54771
▁школы	-9.54822
фер	-9.54832
▁точки	-9.54857
▁председателя	-9.54951
▁ДТП	-9.54953
▁документы	-9.5504
ирования	-9.55045
аться	-9.55096
▁налогов	-9.55096
▁расс	-9.55278
▁заявления	-9.55325
▁лично	-9.55369
зу	-9.55432
▁сделал	-9.55498
▁равно	-9.55502
▁встрече	-9.55595
com	-9.55664
▁документов	-9.55737
▁Мурманск	-9.55771
▁годов	-9.55815
▁здания	-9.55856
▁планируется	-9.55879
ению	-9.55937
▁Суд	-9.56003
!"	-9.56056
▁предложения	-9.5607
чу	-9.56106
▁смерти	-9.56218
▁представителя	-9.56233
▁теле	-9.56248
ющий	-9.56263
6%	-9.56274
20	-9.56336
▁голосов	-9.56346
▁наш	-9.56362
▁запрет	-9.5669
▁снижение	-9.56743
▁экономического	-9.56777
▁Всего	-9.56817
▁характер	-9.56931
▁удар	-9.57026
▁дороги	-9.57103
▁500	-9.57113
▁невозможно	-9.5713
▁систему	-9.57173
▁пример	-9.57201
▁фото	-9.57202
▁состоится	-9.57215
▁транспорт	-9.57233
мат	-9.57245
▁доме	-9.57272
▁оружия	-9.57318
▁плат	-9.57321
▁сложно	-9.57328
▁дети	-9.57425
строй	-9.57502
▁одну	-9.57504
▁подтвердил	-9.5751
▁выразил	-9.57561
▁фильма	-9.57714
дель	-9.57718
▁приняли	-9.57735
сов	-9.57771
▁официально	-9.57822
ается	-9.57843
▁друг	-9.57932
▁самый	-9.57951
премьер	-9.57994
▁телеканал	-9.57997
▁установлен	-9.58024
мор	-9.58033
▁станции	-9.5806
коп	-9.58115
рев	-9.58188
▁Юрий	-9.58291
Газпром	-9.58292
▁долго	-9.58305
▁W	-9.58375
▁столицы	-9.58432
▁игр	-9.58438
жил	-9.58446
▁некоторых	-9.58616
7%	-9.58745
on	-9.58758
▁столице	-9.58821
▁самой	-9.58879
рус	-9.58906
▁Те	-9.58909
▁конкурс	-9.58917
▁цел	-9.58965
▁Николай	-9.58994
▁участия	-9.5905
▁женщина	-9.59109
▁лес	-9.5912
цов	-9.59128
▁соответствии	-9.59178
▁армии	-9.59179
▁соглашение	-9.59181
▁цена	-9.59229
▁партий	-9.59319
нуть	-9.59379
▁серьезно	-9.59403
▁линии	-9.59425
кол	-9.59467
▁основном	-9.59554
вес	-9.59575
▁включая	-9.59597
▁вчера	-9.59607
раж	-9.59611
▁рядом	-9.59676
▁режима	-9.59711
▁программ	-9.59722
▁жители	-9.59743
▁ночь	-9.59803
▁руководителя	-9.59826
▁марте	-9.59839
▁работают	-9.59843
▁Лавров	-9.59872
▁площади	-9.59932
ируют	-9.59937
▁избран	-9.60028
▁Пока	-9.60092
▁отмечают	-9.60121
▁создание	-9.60129
▁$1	-9.60135
лич	-9.6014
уп	-9.60176
▁60	-9.60218
▁внутри	-9.60287
няя	-9.60394
Ч	-9.60409
▁наибол	-9.60595
▁народ	-9.60691
▁поддержки	-9.60692
чит	-9.60715
его	-9.60717
▁70	-9.60722
аются	-9.60726
изации	-9.60737
Россия	-9.60846
le	-9.60964
▁обычно	-9.60971
▁регионов	-9.60982
▁море	-9.61018
▁составил	-9.61018
▁вид	-9.61037
▁оно	-9.61065
▁резко	-9.61096
▁необходимости	-9.61163
▁экспорт	-9.61216
▁первые	-9.61262
▁якобы	-9.61266
станов	-9.61273
▁отмечается	-9.61278
▁вес	-9.61318
▁боевиков	-9.61335
ован	-9.61383
бан	-9.61395
▁крас	-9.61398
Исламско	-9.61432
исты	-9.61513
пут	-9.61525
▁позволит	-9.61581
▁Ал	-9.61623
▁основе	-9.6165
▁СКР	-9.61774
▁составила	-9.6179
▁парламента	-9.61796
▁решили	-9.61831
порт	-9.61844
▁пути	-9.61864
▁исследования	-9.62039
▁довольно	-9.62081
▁км	-9.62092
▁получила	-9.62136
▁Джон	-9.62138
▁автор	-9.62175
▁сообщал	-9.62205
нет	-9.62286
▁спор	-9.62405
▁первым	-9.62424
▁сезон	-9.62478
▁Рио	-9.62596
▁расследования	-9.62617
илась	-9.62638
▁матч	-9.62713
▁ту	-9.62717
▁вокруг	-9.62827
▁адвокат	-9.62877
сла	-9.63038
▁отчет	-9.63063
дар	-9.63085
▁руководство	-9.63151
G	-9.63184
▁метров	-9.63221
▁300	-9.63323
▁начальник	-9.63328
▁Вот	-9.63386
▁Facebook	-9.63397
▁субботу	-9.63397
▁ответственности	-9.63403
▁сказала	-9.63418
▁пожар	-9.63455
▁Эти	-9.63497
дет	-9.63633
▁Один	-9.63665
▁втором	-9.63686
лан	-9.63771
▁погибших	-9.63797
▁мере	-9.63806
▁номер	-9.63811
▁норм	-9.63929
ены	-9.63975
▁конфликта	-9.63976
▁феврале	-9.63987
пас	-9.6399
▁Более	-9.63992
▁область	-9.63993
▁контракт	-9.64016
ует	-9.64084
ях	-9.6415
▁текст	-9.64187
▁оказались	-9.642
▁выплат	-9.64202
▁стол	-9.64274
▁Китай	-9.64319
▁актив	-9.64342
▁игры	-9.6435
▁Роман	-9.64358
лова	-9.64375
▁неделю	-9.64384
▁защиты	-9.64384
▁Там	-9.64386
стью	-9.64422
▁боевы	-9.6445
▁транспорта	-9.6449
es	-9.64508
▁Мар	-9.64621
▁Есть	-9.64624
▁прежде	-9.64743
▁ты	-9.64774
▁мяч	-9.64791
▁прием	-9.64909
шин	-9.64969
рыв	-9.65018
▁общей	-9.65089
це	-9.65121
▁работал	-9.65124
▁ФСБ	-9.65176
▁государств	-9.65241
▁создать	-9.65245
▁авиа	-9.65288
▁напомнил	-9.65376
▁Москву	-9.65377
▁Именн	-9.65465
▁рассказали	-9.65503
▁лица	-9.65524
F	-9.65569
▁обязательно	-9.65623
лав	-9.65636
тен	-9.65657
▁ответственность	-9.65674
▁Этот	-9.65735
▁Саудовск	-9.65776
бра	-9.6584
ера	-9.65914
▁пят	-9.65922
▁любой	-9.65953
▁Сер	-9.65957
▁ЦСКА	-9.65977
▁обвинения	-9.65984
▁Би	-9.66044
сел	-9.66045
▁мировой	-9.66105
▁пассажиров	-9.66164
▁Кон	-9.66229
▁способ	-9.66239
банк	-9.6629
▁ул	-9.66316
▁переход	-9.66582
en	-9.66589
▁концерт	-9.6667
▁метро	-9.66821
▁рассказала	-9.66826
нич	-9.66911
▁парламент	-9.66985
Ж	-9.66995
жу	-9.67087
мон	-9.67108
-1	-9.67142
▁воды	-9.67146
▁Бар	-9.67316
▁Иванов	-9.67418
ана	-9.67614
ток	-9.67648
▁департамента	-9.67675
▁возбуждено	-9.67724
us	-9.67726
гин	-9.67729
вой	-9.67775
▁Отмечается	-9.67802
▁учетом	-9.67925
h	-9.68017
▁хотят	-9.68066
▁Нью	-9.6818
▁артист	-9.6822
луч	-9.68291
▁самое	-9.68407
▁причин	-9.68543
▁расследование	-9.68625
поль	-9.68627
▁жив	-9.68696
▁Бывши	-9.6871
▁спортсменов	-9.68815
▁международных	-9.68863
▁R	-9.68924
▁завод	-9.6905
▁допинг	-9.69097
пов	-9.69132
O	-9.69175
вит	-9.69218
▁Японии	-9.69246
▁взгляд	-9.69246
▁O	-9.69264
▁намерен	-9.69285
ion	-9.693
▁участники	-9.69399
▁сентябре	-9.69454
▁сообщения	-9.69461
L	-9.69493
вшихся	-9.69512
юсь	-9.69631
▁Му	-9.69657
▁Министр	-9.69662
▁которому	-9.69707
▁Иван	-9.69717
▁издание	-9.69806
▁чуть	-9.69872
▁Обама	-9.69886
▁журналистов	-9.69949
анс	-9.69999
▁Гол	-9.70028
▁сторону	-9.70088
▁голосования	-9.7009
▁правил	-9.70131
▁кандидатов	-9.7014
▁российским	-9.70166
▁ноябре	-9.7029
граф	-9.70316
▁кого	-9.70332
15	-9.70338
▁смогли	-9.70382
▁федерального	-9.705
пад	-9.70563
▁35	-9.70628
▁блок	-9.70654
▁баррель	-9.7071
▁беженцев	-9.7071
▁октябре	-9.7071
▁Мал	-9.70782
40	-9.7079
▁Чтоб	-9.70854
▁Иран	-9.70908
▁Бр	-9.7093
▁аппарат	-9.70946
▁техники	-9.7096
ович	-9.71017
ины	-9.71068
мест	-9.71072
▁ИГ	-9.71149
▁своими	-9.71182
▁мнение	-9.71276
прежнему	-9.71327
▁спрос	-9.71336
онов	-9.71348
ально	-9.71378
иц	-9.71439
▁проектов	-9.71477
▁официальный	-9.71515
▁позволяет	-9.71558
лей	-9.71568
▁победу	-9.71594
▁такая	-9.71667
▁накануне	-9.7177
▁направлен	-9.71929
цию	-9.71936
▁баз	-9.71962
▁должность	-9.71963
ложить	-9.72002
▁поле	-9.72059
▁ними	-9.72124
лом	-9.72185
▁Между	-9.722
▁приходится	-9.72254
▁выступил	-9.72337
▁Кур	-9.72356
▁проходит	-9.72397
▁офис	-9.72417
▁мастер	-9.72424
▁прост	-9.72437
др	-9.72454
террористической	-9.72523
▁Ново	-9.72546
Не	-9.72582
ической	-9.72629
тин	-9.72678
▁органы	-9.72753
▁Госдуму	-9.7284
▁полиция	-9.72842
▁тр	-9.72968
▁мод	-9.73087
▁различных	-9.73092
▁подход	-9.73106
▁K	-9.73107
▁суде	-9.73177
▁каких	-9.73181
▁становится	-9.73272
▁водитель	-9.73279
нцев	-9.73376
ред	-9.73401
4%	-9.73425
▁ген	-9.7347
▁валют	-9.7351
▁расчет	-9.73512
▁самые	-9.7354
▁связан	-9.73558
▁отказ	-9.73617
▁Мне	-9.73672
▁состояние	-9.73765
▁финансов	-9.73866
▁вам	-9.73882
▁электро	-9.73896
▁признан	-9.73906
▁борьбы	-9.73922
19	-9.73982
ъ	-9.74011
▁страна	-9.74028
▁депутаты	-9.7427
▁шаг	-9.74298
▁продолжает	-9.74435
▁военные	-9.74447
▁данно	-9.7446
▁годах	-9.74484
▁проверки	-9.74578
▁плохо	-9.74578
▁ради	-9.74591
▁Рас	-9.74647
▁века	-9.7472
el	-9.74787
▁Reuters	-9.74797
▁движение	-9.74804
▁принимать	-9.74823
лег	-9.74881
▁округа	-9.74925
▁генерал	-9.74975
▁апреле	-9.75017
▁шести	-9.7525
▁системе	-9.75275
▁крупных	-9.75298
ске	-9.75352
ического	-9.75375
сад	-9.75404
▁отметили	-9.75467
▁Вер	-9.75472
вол	-9.75491
чев	-9.75532
ing	-9.75544
чет	-9.75556
▁сколько	-9.75557
сен	-9.75561
▁Помимо	-9.75569
▁хотел	-9.75574
вшийся	-9.75663
▁провели	-9.75669
▁Китая	-9.7568
ино	-9.75727
▁семь	-9.7573
смотр	-9.75772
▁проб	-9.75782
▁войск	-9.75783
▁объявил	-9.75826
▁сутки	-9.75907
▁муж	-9.75951
ирование	-9.75952
▁думаю	-9.75976
▁Кор	-9.76035
▁пообещал	-9.76123
▁история	-9.76123
▁бр	-9.76264
16	-9.76449
▁структур	-9.76461
▁женщины	-9.76502
▁делам	-9.76552
▁дальше	-9.76569
▁страну	-9.76711
▁домов	-9.76779
▁военного	-9.76834
-2016	-9.76849
st	-9.7688
▁дни	-9.76891
▁последнее	-9.77017
▁Конечно	-9.77063
▁Банк	-9.77111
скому	-9.7719
▁события	-9.77241
▁случай	-9.77293
инов	-9.77478
▁вечером	-9.77528
▁Несмотря	-9.77529
▁Раз	-9.77572
Это	-9.7763
ланд	-9.77724
▁Верховн	-9.77734
▁легко	-9.77736
▁га	-9.77743
▁Гор	-9.77767
▁сумма	-9.77772
▁отдел	-9.77784
кий	-9.77837
▁начать	-9.77909
at	-9.77915
Единой	-9.77948
▁статус	-9.78066
шим	-9.78076
▁знаком	-9.78099
▁недавно	-9.78145
▁Московской	-9.78146
▁объявлен	-9.78152
вяз	-9.78155
▁могу	-9.78174
рь	-9.78194
вшиеся	-9.78238
▁будущем	-9.78338
").	-9.78392
▁мин	-9.78455
x	-9.78509
▁риск	-9.78518
▁Интернет	-9.786
уб	-9.78622
▁Че	-9.78658
▁расходы	-9.78659
▁бел	-9.78672
▁нашли	-9.78679
▁режиссер	-9.78751
суд	-9.78783
▁мужчин	-9.78785
ям	-9.78802
▁происшествия	-9.78829
▁коллег	-9.78841
or	-9.78952
▁главного	-9.78975
▁45	-9.78981
НИ	-9.78987
шей	-9.7901
▁сред	-9.79011
ri	-9.79011
▁Apple	-9.79058
▁кампании	-9.79058
▁общества	-9.79067
▁причиной	-9.79138
▁спорт	-9.79146
тки	-9.79153
дор	-9.79198
чита	-9.79324
▁матча	-9.796
▁времен	-9.79637
енные	-9.79658
▁комплекса	-9.79662
▁требования	-9.79681
it	-9.79713
▁террористов	-9.79716
▁кроме	-9.7975
▁регионах	-9.79763
▁сезона	-9.79767
ант	-9.79793
пр	-9.79826
▁Сочи	-9.79876
▁той	-9.79877
▁Ру	-9.79905
▁дал	-9.79926
▁протест	-9.79952
▁Хиллари	-9.79978
пал	-9.79996
зер	-9.80014
▁Их	-9.80019
▁статье	-9.80068
▁главе	-9.80139
25	-9.80187
▁Елена	-9.8021
▁перспектив	-9.80215
▁Вчера	-9.80222
лез	-9.80343
фа	-9.80566
▁издания	-9.80568
▁труда	-9.80578
вел	-9.80582
▁Ба	-9.806
▁иметь	-9.80686
▁политике	-9.80728
▁Гос	-9.8074
▁нашего	-9.80743
▁существует	-9.80788
▁систем	-9.8084
▁уточнил	-9.80854
овый	-9.80873
▁механизм	-9.80907
▁умер	-9.80976
▁предложение	-9.81019
▁управление	-9.81022
енный	-9.81026
сер	-9.81036
город	-9.81053
▁сад	-9.81069
▁наук	-9.81088
▁другими	-9.81122
▁заседания	-9.81141
▁сотрудничества	-9.81141
▁добычи	-9.81141
нные	-9.81154
шие	-9.81201
▁военной	-9.81237
▁губернатора	-9.81325
дум	-9.81392
игр	-9.81441
▁кризиса	-9.81456
▁(1	-9.81526
▁программу	-9.81537
эт	-9.81556
▁задержали	-9.8161
▁помочь	-9.8161
▁фактически	-9.81738
▁Пу	-9.81801
лага	-9.81839
▁побед	-9.81855
▁обнаружили	-9.81861
▁открыт	-9.81894
жал	-9.81901
емся	-9.81937
▁сервис	-9.81939
▁первых	-9.81952
▁всему	-9.81959
истов	-9.8198
▁др	-9.82046
лер	-9.82072
▁группировки	-9.82082
▁американских	-9.82087
▁партия	-9.82087
▁местных	-9.82091
▁регионального	-9.82118
▁экспертов	-9.82253
is	-9.82312
▁кв	-9.82367
▁перевод	-9.82384
12	-9.82432
аш	-9.82444
▁данном	-9.82573
▁государственной	-9.82587
▁предприятий	-9.82792
▁указ	-9.82836
овский	-9.82868
▁фин	-9.82882
▁успешно	-9.82888
▁смог	-9.82943
▁сторона	-9.82979
ющая	-9.82998
гар	-9.83087
ших	-9.83118
▁поиск	-9.83128
▁Ло	-9.83136
ницы	-9.83168
▁культур	-9.83217
▁обе	-9.83222
ину	-9.83237
▁Болгарии	-9.83269
чная	-9.83426
▁должности	-9.83581
ic	-9.83601
"),	-9.83611
▁рождения	-9.83762
▁новую	-9.83997
▁Павел	-9.84004
нных	-9.84024
▁топ	-9.84031
▁голов	-9.84107
▁Первый	-9.84174
▁матери	-9.84179
аг	-9.84185
▁абсолютно	-9.84196
▁проведение	-9.84197
▁Бу	-9.84212
▁огня	-9.84231
▁положение	-9.84245
рит	-9.84247
▁создания	-9.84335
▁прошли	-9.84343
▁этап	-9.84375
▁Запад	-9.84451
▁Правда	-9.84471
▁потребовал	-9.84471
▁рад	-9.84546
▁определен	-9.84678
▁Мин	-9.84681
енной	-9.84764
мар	-9.84849
рес	-9.84849
оло	-9.84895
▁Хотя	-9.84956
▁чаще	-9.84956
▁Чу	-9.84962
▁политика	-9.84965
▁модели	-9.84973
▁2010	-9.84985
▁структуры	-9.8504
▁Та	-9.85072
▁Международно	-9.85122
▁показал	-9.85134
▁отставку	-9.85215
▁закрыт	-9.85222
цеп	-9.85277
▁десять	-9.85296
▁стандарт	-9.85355
▁Власти	-9.85524
▁роли	-9.85547
▁кандидата	-9.85622
▁Кол	-9.85675
▁утром	-9.85693
▁импорт	-9.85729
▁ряда	-9.85829
▁понять	-9.85838
▁министерства	-9.85902
кал	-9.85927
▁поток	-9.85942
▁журналистам	-9.85949
▁модель	-9.85966
ьев	-9.85969
▁лидера	-9.86038
▁отметила	-9.86055
чей	-9.8608
▁прибыль	-9.86131
нский	-9.86157
▁историю	-9.86178
▁кажется	-9.86179
▁рекорд	-9.86208
▁товаров	-9.86246
▁университета	-9.86308
▁Бер	-9.8632
овского	-9.86379
том	-9.86387
▁июле	-9.86439
▁числа	-9.86505
17	-9.86586
▁команд	-9.86644
цу	-9.86668
▁Италии	-9.86671
▁аэропорта	-9.86671
Един	-9.86681
▁построен	-9.86685
▁Марк	-9.86742
▁инцидент	-9.86847
▁введен	-9.8686
▁гол	-9.86912
▁Ведь	-9.86919
▁мигрантов	-9.8692
▁экран	-9.86923
▁оказалось	-9.86929
▁называют	-9.86934
▁прошел	-9.86971
▁куп	-9.87014
нный	-9.87079
▁Дмитрия	-9.87173
▁ан	-9.87179
ПК	-9.87317
▁1,5	-9.87323
▁служба	-9.87372
▁неоднократно	-9.87416
▁территорию	-9.87416
▁условий	-9.87416
▁ВВП	-9.87417
▁августе	-9.87434
▁Уже	-9.8751
▁акт	-9.87534
ro	-9.87554
▁дать	-9.87567
прос	-9.87615
▁коллектив	-9.87665
▁последний	-9.87665
▁последних	-9.87677
▁фигур	-9.87715
▁документа	-9.87762
фик	-9.87813
▁открыл	-9.87835
ления	-9.87847
бил	-9.87895
▁Республики	-9.87915
▁далеко	-9.87921
▁среднем	-9.87921
ление	-9.87929
▁Крыму	-9.87957
▁компьютер	-9.87964
▁Минфин	-9.87966
▁свобод	-9.87979
▁отказался	-9.88004
зова	-9.8805
▁р	-9.88085
▁летом	-9.88112
V	-9.88158
▁Вячеслав	-9.88166
▁Денис	-9.88172
дж	-9.88178
твор	-9.88184
▁Министерство	-9.8835
▁защитник	-9.88354
▁бу	-9.88388
▁восемь	-9.88417
▁появилась	-9.88423
▁борту	-9.88475
▁общего	-9.88542
руд	-9.88566
▁представлен	-9.8871
▁причем	-9.88727
▁корреспондент	-9.88746
▁звезд	-9.88751
▁специалисты	-9.88767
ических	-9.88768
▁доля	-9.88902
▁канал	-9.88945
▁предлагает	-9.88983
ень	-9.89036
▁Эта	-9.89108
гре	-9.89128
▁максимально	-9.89174
▁отделения	-9.89198
▁раздел	-9.89223
она	-9.89429
▁дает	-9.89484
чки	-9.89495
бин	-9.89549
бл	-9.89561
▁сторон	-9.89596
▁язык	-9.89597
▁крае	-9.89597
▁ставки	-9.89662
▁развитию	-9.89683
нского	-9.89703
▁коп	-9.89732
▁контроля	-9.89779
▁долг	-9.89781
▁возник	-9.898
▁экономической	-9.89841
альный	-9.89929
▁Ис	-9.89949
▁депутата	-9.89954
▁существенно	-9.8997
▁вопросов	-9.90105
ch	-9.90131
▁оборот	-9.90141
▁проводить	-9.90304
мол	-9.90324
таль	-9.90418
▁позицию	-9.9045
▁регулярно	-9.9045
▁отдела	-9.90498
▁мае	-9.90519
Ка	-9.9059
ur	-9.90698
кла	-9.90708
▁порядке	-9.9071
▁Стар	-9.90769
▁Почему	-9.90779
▁программа	-9.90808
▁активов	-9.90886
▁вывод	-9.90905
▁занима	-9.90952
вели	-9.90957
▁гораздо	-9.90965
▁относительно	-9.90966
▁палаты	-9.91006
▁ответил	-9.91014
▁программе	-9.91034
▁скоро	-9.91057
▁полу	-9.91071
вшая	-9.91107
▁взят	-9.91117
▁жил	-9.91129
▁Си	-9.91199
▁сенатор	-9.91237
▁турнира	-9.91249
▁СК	-9.91259
пар	-9.91281
▁доходов	-9.91287
▁базе	-9.91329
▁бед	-9.91354
▁торговли	-9.91404
▁стоимости	-9.91482
▁московск	-9.91515
лок	-9.91608
▁продаж	-9.91621
ража	-9.91631
вшие	-9.91689
▁ход	-9.91711
вать	-9.91737
▁оказалась	-9.91761
▁отсутствие	-9.91771
▁серии	-9.91805
▁двумя	-9.91838
▁оста	-9.91901
▁правила	-9.9196
▁0	-9.9201
▁Сан	-9.92063
▁взрыва	-9.92065
▁обстрел	-9.92135
лик	-9.9221
▁учреждения	-9.92264
▁нужны	-9.92272
▁ла	-9.92288
%.	-9.92313
аж	-9.92353
▁главным	-9.92373
луж	-9.92397
президент	-9.92426
овую	-9.92451
▁Пере	-9.92468
▁доллара	-9.92519
▁КНДР	-9.92525
▁оппозиции	-9.92525
▁сожалению	-9.92525
▁отрасли	-9.92526
▁зарегистрирован	-9.9255
▁000	-9.9256
▁победы	-9.92588
министра	-9.9259
▁занял	-9.92606
▁журналист	-9.92613
▁чемпион	-9.92619
▁первое	-9.92627
▁другим	-9.92649
пет	-9.92787
шн	-9.92915
▁миллиардов	-9.92935
▁показатель	-9.92942
пере	-9.93006
енных	-9.93049
▁внутренних	-9.93051
▁середине	-9.93051
стей	-9.93071
▁недо	-9.93185
▁Пре	-9.93186
▁цели	-9.93198
▁аэропорту	-9.93224
еш	-9.93258
▁дорог	-9.93291
10	-9.9332
чные	-9.93325
▁обеспечить	-9.93334
▁2008	-9.93359
▁32	-9.93413
▁подал	-9.93435
рин	-9.93515
▁пришли	-9.93519
▁основной	-9.93579
▁имя	-9.93585
▁ста	-9.936
▁зоне	-9.93613
чка	-9.93614
▁Константин	-9.93714
вание	-9.93719
▁свыше	-9.93833
▁символ	-9.93845
▁отметить	-9.93845
▁собирается	-9.9387
▁каждого	-9.93906
▁правило	-9.93927
телем	-9.94023
▁очередной	-9.94047
▁квартале	-9.94056
▁дли	-9.94059
▁людям	-9.9411
▁прокуратуры	-9.9411
пы	-9.94112
▁сотрудник	-9.9416
▁американского	-9.94205
▁ГУ	-9.94234
▁днем	-9.94248
очки	-9.94268
▁украинско	-9.94358
▁прибыли	-9.9437
▁здоровья	-9.94377
▁большая	-9.9438
▁мой	-9.94386
▁пострадали	-9.94403
▁150	-9.94446
▁подписал	-9.94576
▁разные	-9.94577
▁обо	-9.94592
▁клиентов	-9.94628
▁кол	-9.94642
▁утверждает	-9.94645
▁самостоятельно	-9.94646
▁подверг	-9.94649
▁увеличить	-9.94653
сс	-9.94678
▁международным	-9.94717
▁знаю	-9.94734
тик	-9.94869
▁часа	-9.94878
▁вести	-9.94908
▁помощник	-9.94913
ез	-9.95048
▁принцип	-9.95078
▁старт	-9.95105
▁маршрут	-9.95111
▁приговор	-9.95165
▁марки	-9.95183
▁здание	-9.95187
▁союза	-9.95189
нул	-9.95214
▁капитал	-9.95275
▁созда	-9.95307
▁выда	-9.95365
▁парк	-9.9539
уль	-9.95403
▁протяжении	-9.95451
▁сигнал	-9.95452
▁жить	-9.95461
▁Андрея	-9.95515
центр	-9.95678
▁плане	-9.95683
летняя	-9.95703
▁степени	-9.95721
▁Ольга	-9.95721
▁политической	-9.95724
бли	-9.95766
щен	-9.95772
▁вне	-9.95799
▁источники	-9.95806
ta	-9.9582
парт	-9.95866
▁размещен	-9.95932
мир	-9.95942
▁новое	-9.9597
нин	-9.95973
▁поддержке	-9.95992
▁Китае	-9.95997
▁использования	-9.96017
▁услуги	-9.96031
et	-9.96038
рел	-9.96039
?"	-9.96045
▁семье	-9.96076
▁мэр	-9.96083
▁/	-9.96118
▁пр	-9.96167
▁местные	-9.96209
▁соответственно	-9.96264
▁Алексея	-9.96265
пан	-9.96321
▁главное	-9.96338
шу	-9.96531
▁путем	-9.96538
▁миллиарда	-9.96538
▁двое	-9.96545
▁социальных	-9.96571
▁решить	-9.96576
▁сложности	-9.96587
▁никак	-9.96611
били	-9.9662
▁чемпионат	-9.96689
▁продуктов	-9.96713
▁вышел	-9.96774
▁заседание	-9.9681
▁обеспечения	-9.96843
пор	-9.96857
ацией	-9.96886
▁директоров	-9.96893
▁сер	-9.96932
Ю	-9.96993
▁Ри	-9.97113
▁оперативно	-9.97118
▁информационн	-9.97121
дал	-9.9714
▁онлайн	-9.9714
▁требует	-9.97167
▁част	-9.9719
▁чемпионате	-9.9721
▁Киеве	-9.97227
▁руки	-9.97283
▁международной	-9.97323
▁Здесь	-9.97358
▁экономике	-9.97359
изма	-9.97372
▁Причем	-9.97381
▁второго	-9.97382
▁масс	-9.97425
▁дипломат	-9.97516
▁имущества	-9.97634
▁Ее	-9.97651
рем	-9.97681
▁составит	-9.97703
▁проекты	-9.97734
▁врач	-9.97737
▁кандидат	-9.97796
ируем	-9.97903
оф	-9.97909
▁Twitter	-9.9791
▁инвестиций	-9.9791
▁пункт	-9.97916
руч	-9.97955
▁заниматься	-9.97985
▁эффект	-9.97991
дать	-9.98005
▁повышение	-9.98008
нц	-9.98087
мп	-9.98125
▁ваш	-9.9818
▁Многие	-9.98187
▁промышленности	-9.98205
▁немного	-9.98343
▁научно	-9.98474
▁украинских	-9.98476
▁содержа	-9.98521
▁Донбассе	-9.98569
X	-9.98579
▁ежегодно	-9.98601
▁Новый	-9.98626
▁конкурса	-9.98741
▁Ст	-9.98801
▁эфире	-9.98839
▁американской	-9.98841
ание	-9.98882
▁влияние	-9.98897
▁странице	-9.98904
▁рук	-9.98919
▁сначала	-9.98957
щик	-9.98969
▁попросил	-9.9897
▁режиме	-9.98983
чик	-9.98997
▁товар	-9.9918
пред	-9.99189
шая	-9.99217
la	-9.9922
▁руководства	-9.99303
мена	-9.99303
▁событий	-9.99303
▁ученые	-9.99305
▁июне	-9.99335
▁странами	-9.99351
▁получит	-9.99351
11	-9.99512
▁спец	-9.99541
▁брон	-9.99564
ъя	-9.99664
▁открыто	-9.99686
▁получения	-9.9978
-2	-9.99841
▁лег	-9.99856
▁позже	-9.99868
льд	-9.99895
эр	-9.99911
емых	-9.9994
зор	-10.0001
▁возраст	-10.0001
▁государственных	-10.0002
государственного	-10.0013
▁трлн	-10.0015
ук	-10.0015
▁предстоит	-10.0015
▁вирус	-10.0018
▁Правительство	-10.0022
вет	-10.0028
▁расходов	-10.0029
▁задача	-10.0029
▁Рос	-10.0039
▁посту	-10.0042
▁зависимости	-10.0043
▁Институт	-10.0048
▁городской	-10.0056
▁осужден	-10.0056
▁мол	-10.0062
▁читать	-10.0068
фин	-10.007
▁80	-10.0074
il	-10.0076
▁сезоне	-10.0078
печат	-10.0082
▁новым	-10.0083
▁Федерально	-10.0086
прокомментировал	-10.009
▁специалистов	-10.0098
▁подозрени	-10.01
▁Кстати	-10.01
▁Мария	-10.0101
▁2009	-10.0105
Известиям	-10.0112
▁туристов	-10.0113
▁нарушение	-10.0125
▁инженер	-10.0129
▁прошла	-10.0129
▁сирийско	-10.014
рей	-10.0143
te	-10.0144
▁Вмест	-10.0147
▁правда	-10.0148
▁вход	-10.0151
▁возрасте	-10.0156
▁команду	-10.0161
▁лишения	-10.0164
▁ведет	-10.0164
▁направлении	-10.0166
ia	-10.0166
ьер	-10.0168
ита	-10.017
нием	-10.0181
▁попал	-10.0182
▁подготовки	-10.0186
▁можем	-10.0186
▁жилья	-10.0187
▁украинского	-10.0188
▁рыб	-10.0191
▁уж	-10.0196
▁хозяйства	-10.0199
▁усилия	-10.0201
ТАСС	-10.0202
▁доход	-10.0206
град	-10.0208
▁обмен	-10.021
,5%	-10.0213
▁политических	-10.022
▁сын	-10.0222
▁военно	-10.0225
▁ожидается	-10.0226
▁могла	-10.0231
ывают	-10.0234
иф	-10.024
▁Премьер	-10.0244
▁федерации	-10.0244
скими	-10.0244
▁посвящен	-10.0244
▁вопросу	-10.0246
▁спас	-10.0246
▁ранения	-10.0248
▁вещи	-10.0252
▁мужчины	-10.0253
▁объяснил	-10.0255
▁участием	-10.0267
▁Пред	-10.0271
li	-10.0272
▁Турция	-10.0273
кина	-10.0286
службы	-10.0289
раб	-10.0294
торы	-10.0297
▁больницу	-10.0297
рис	-10.0298
▁Только	-10.0302
▁Компания	-10.0302
сан	-10.0305
▁штаб	-10.0305
летней	-10.0309
▁вовсе	-10.0311
-20	-10.0312
▁вызов	-10.0313
▁X	-10.0318
▁лидеров	-10.0318
▁технологий	-10.0331
▁текущего	-10.0331
▁руководством	-10.0338
тре	-10.034
▁момента	-10.0342
▁временем	-10.0342
▁w	-10.0344
▁телеканала	-10.0347
ирова	-10.035
сси	-10.0351
▁общем	-10.0355
▁общественного	-10.0358
▁приоритет	-10.036
▁делает	-10.0362
▁честь	-10.0363
▁Политика	-10.0388
▁спустя	-10.0389
▁Гу	-10.0393
▁вынужден	-10.0395
▁выросла	-10.0396
Ба	-10.0398
▁доллар	-10.0398
▁объект	-10.0402
▁границы	-10.0402
дон	-10.0411
▁Леонид	-10.0419
▁европейских	-10.0419
▁прокурор	-10.0421
▁привести	-10.0426
▁основан	-10.0429
▁Пе	-10.0432
▁трудно	-10.0436
▁разговор	-10.0438
ed	-10.0444
▁произошла	-10.0448
▁установить	-10.0449
▁правильно	-10.045
▁Им	-10.0451
▁коллеги	-10.0451
▁наказание	-10.0452
▁изменений	-10.0453
▁контакт	-10.0454
▁пакет	-10.0457
эй	-10.046
▁бизнесмен	-10.0462
ата	-10.0466
люб	-10.0468
▁Ти	-10.0475
▁Отметим	-10.0478
▁исключительно	-10.0478
▁проверку	-10.0478
▁добиться	-10.0478
▁Затем	-10.0478
▁сообщение	-10.0479
рек	-10.0484
дут	-10.0487
илл	-10.0489
▁час	-10.0491
вшись	-10.0497
▁столько	-10.05
зин	-10.0506
готов	-10.0507
Роснефти	-10.0508
▁настоящий	-10.0508
▁последствия	-10.0508
▁участвовать	-10.0508
▁заключил	-10.0508
▁выхода	-10.0508
▁полагает	-10.0509
▁договора	-10.0511
▁ракеты	-10.0511
▁Национально	-10.0515
ена	-10.0518
▁Украину	-10.0518
▁Пан	-10.0522
▁сама	-10.0522
▁выплаты	-10.0528
▁велик	-10.053
▁Дело	-10.0532
▁имел	-10.0533
▁российском	-10.0537
▁члены	-10.0537
▁Google	-10.0537
альная	-10.0538
чную	-10.0539
▁цель	-10.054
▁рейтинг	-10.054
▁400	-10.0544
▁которыми	-10.0544
вест	-10.056
▁опубликован	-10.056
▁Ирана	-10.0563
▁мор	-10.0566
·	-10.0567
▁capt	-10.0567
▁предприниматель	-10.0567
▁лучших	-10.0567
▁ОАО	-10.0569
▁вклад	-10.0572
стар	-10.0574
▁страхов	-10.0575
ску	-10.0576
▁холод	-10.0578
▁пер	-10.0578
▁появились	-10.0578
▁счетом	-10.0588
▁завода	-10.0588
▁мероприятий	-10.0597
▁любим	-10.0597
нтер	-10.06
▁отдыха	-10.0605
▁вернуть	-10.0606
▁находи	-10.0611
▁международного	-10.0611
▁Виталий	-10.0618
▁Вашингтон	-10.062
▁промышленн	-10.0621
▁праздник	-10.0623
еры	-10.0623
▁оружие	-10.0624
▁бензин	-10.0627
▁праймериз	-10.0627
▁технологии	-10.0627
▁хоть	-10.0627
▁зависит	-10.063
▁Эрдоган	-10.0632
▁предмет	-10.0634
бол	-10.0637
несли	-10.0638
▁партнер	-10.0642
йте	-10.0642
▁примеру	-10.0652
▁связано	-10.0652
▁индекс	-10.0656
▁ведомстве	-10.0658
▁Керри	-10.0659
▁снижения	-10.0659
бить	-10.0659
▁рулем	-10.0669
альной	-10.0674
▁газеты	-10.0678
▁утра	-10.0682
▁Вести	-10.0684
▁пройти	-10.0688
▁давление	-10.0688
▁бар	-10.0693
нести	-10.0703
▁вечер	-10.0708
▁занимается	-10.0709
бле	-10.0713
ющихся	-10.0716
▁гривен	-10.0718
рот	-10.0721
▁инвест	-10.0727
▁британск	-10.0729
▁дух	-10.0734
ходит	-10.0741
▁анализ	-10.0742
▁группе	-10.0742
▁исход	-10.0746
▁статьи	-10.0746
▁Кирилл	-10.0749
60	-10.0749
▁большим	-10.0749
остью	-10.0749
▁Пресс	-10.075
тол	-10.0751
▁пан	-10.0754
▁правам	-10.0756
реш	-10.0759
▁штат	-10.0764
▁ж	-10.0767
▁Рад	-10.0767
▁Кубка	-10.0769
▁Кан	-10.0771
▁городов	-10.0772
вания	-10.0778
▁здравоохранения	-10.0779
евой	-10.0779
▁пал	-10.0779
▁состава	-10.0784
▁политику	-10.0792
▁автобус	-10.0795
▁союз	-10.0796
нец	-10.0802
'	-10.0809
▁памяти	-10.0809
▁говоря	-10.0811
вших	-10.0812
пт	-10.0816
Петербурге	-10.0826
джи	-10.0829
▁граждане	-10.0831
▁главных	-10.0834
▁брат	-10.0838
▁окончательно	-10.0839
▁ЦИК	-10.0841
ющую	-10.0841
▁вод	-10.0844
фон	-10.0853
▁банки	-10.0855
совет	-10.0856
нс	-10.0859
▁игра	-10.0861
▁секрет	-10.0863
леп	-10.087
▁Накануне	-10.0871
▁двор	-10.0871
При	-10.0873
▁километров	-10.0873
▁сделали	-10.0875
▁ограничен	-10.0878
▁сообщают	-10.0881
коль	-10.0882
▁сроки	-10.0883
пло	-10.0883
▁запланирован	-10.0891
▁включен	-10.0899
▁годом	-10.09
▁опроверг	-10.0902
▁следующем	-10.0904
беж	-10.0905
▁Евро	-10.0906
▁генеральн	-10.0906
▁предварительным	-10.0912
▁Игр	-10.0915
▁финансовых	-10.0917
бот	-10.0927
▁избирательно	-10.093
кер	-10.093
▁провинции	-10.0933
▁десяти	-10.0934
▁качества	-10.0938
▁Ча	-10.0939
▁аэропорт	-10.0943
носить	-10.0947
чным	-10.0948
▁Пар	-10.0951
▁правительственн	-10.0954
дали	-10.0954
▁чиновников	-10.0958
▁боя	-10.0961
▁попытки	-10.0964
▁пострадавших	-10.0964
▁падение	-10.0964
▁денежны	-10.0969
▁процент	-10.0974
▁агент	-10.0975
шка	-10.0977
близи	-10.0983
▁ар	-10.0986
▁вернуться	-10.0986
▁олимпийск	-10.0987
Газета	-10.0989
▁Министерства	-10.099
ять	-10.0994
▁сделан	-10.0997
▁находился	-10.0997
▁традиционно	-10.0998
▁доходы	-10.1001
▁пунктов	-10.1003
▁отдельно	-10.1004
стал	-10.1006
22	-10.1012
ари	-10.1013
юк	-10.1019
▁КПРФ	-10.1026
▁Наталья	-10.1026
▁Вадим	-10.1026
▁порядок	-10.1026
еров	-10.1029
▁коммун	-10.1031
▁судебны	-10.1034
▁Представитель	-10.1037
▁цвет	-10.1039
альных	-10.1045
жан	-10.1046
МК	-10.1056
▁ребенок	-10.1057
▁находились	-10.1061
▁запуск	-10.1062
▁входит	-10.1063
▁дальнейше	-10.1073
▁Люб	-10.1073
▁насколько	-10.1075
▁инвесторов	-10.1079
▁крупнейших	-10.1081
▁француз	-10.1087
ическая	-10.1091
▁выступления	-10.1091
▁тяжело	-10.1092
▁сеть	-10.1092
▁метод	-10.1094
▁пилот	-10.1094
▁успех	-10.1095
орож	-10.1101
▁сегодняшний	-10.1102
▁квартиры	-10.1104
▁Ин	-10.1106
иан	-10.1117
▁боев	-10.1117
▁груз	-10.1122
▁концу	-10.1122
▁квартал	-10.1127
▁базы	-10.1133
▁организован	-10.1138
▁интересов	-10.114
▁групп	-10.1143
▁случаев	-10.1148
▁сделки	-10.1152
▁исследований	-10.1153
кат	-10.1153
▁Бе	-10.1154
Про	-10.1155
▁миру	-10.1156
▁90	-10.1157
▁портал	-10.116
счет	-10.116
ило	-10.1162
▁финансирования	-10.1164
метр	-10.1165
▁тест	-10.1165
Петербург	-10.1168
▁отличие	-10.1169
▁подряд	-10.1174
инского	-10.1178
H	-10.118
▁сохранить	-10.1183
▁падения	-10.1184
▁операция	-10.1185
▁опубликовал	-10.1188
▁Евросоюз	-10.1198
▁столь	-10.1199
банка	-10.121
z	-10.1212
▁пользователей	-10.1216
▁хочу	-10.1216
▁ограничения	-10.1223
▁Ги	-10.1223
▁заключен	-10.1228
▁опер	-10.1234
▁наша	-10.1247
▁аварии	-10.1248
▁моря	-10.1249
▁колонии	-10.1251
▁убийстве	-10.1256
▁33	-10.1261
▁суммы	-10.1262
▁продолжают	-10.1264
▁школьн	-10.1265
▁Федеральн	-10.1267
▁поста	-10.127
план	-10.1273
Ма	-10.1275
▁меж	-10.1277
▁земли	-10.128
▁Второй	-10.128
▁Северной	-10.1286
▁президенту	-10.1288
▁местах	-10.1288
▁поможет	-10.1289
▁взять	-10.129
▁заметил	-10.1301
▁ВТБ	-10.1304
Новости	-10.1311
▁Информационно	-10.1312
▁Михаила	-10.1314
▁роман	-10.1315
▁возраста	-10.1315
ающие	-10.1316
▁временно	-10.1316
▁посла	-10.1321
▁платеж	-10.1324
▁энерго	-10.1329
давать	-10.133
▁театр	-10.133
▁прошлой	-10.1334
▁конференции	-10.134
▁проблему	-10.134
▁кому	-10.1351
гран	-10.1352
эл	-10.1353
▁массовы	-10.1355
цам	-10.1358
▁интересы	-10.1358
▁благо	-10.1361
▁встречу	-10.1362
▁явля	-10.1366
▁вырос	-10.1369
▁Ос	-10.1372
▁сыграл	-10.1376
▁одновременно	-10.1377
ществ	-10.1378
▁театра	-10.138
▁административно	-10.1381
▁J	-10.1388
▁направил	-10.1393
▁(2	-10.1398
ично	-10.1398
▁радио	-10.1403
▁определенны	-10.1405
▁результатам	-10.1406
▁большое	-10.1409
▁инфраструктуры	-10.1409
▁авиакомпании	-10.1409
дро	-10.1417
▁близ	-10.1419
ol	-10.1421
родной	-10.1422
▁треть	-10.1424
▁проезд	-10.1424
▁торговы	-10.1425
бой	-10.1427
▁атак	-10.1427
▁след	-10.1432
▁министров	-10.1432
еле	-10.1434
▁Без	-10.1439
▁скандал	-10.1441
▁фирм	-10.1441
▁основных	-10.1441
▁отношение	-10.1441
▁огонь	-10.1442
▁следующий	-10.1443
▁дополнительные	-10.1444
▁нарушений	-10.1444
▁ведомство	-10.1446
зелен	-10.1448
▁название	-10.145
иш	-10.1452
енным	-10.1454
▁Лу	-10.1455
▁назвать	-10.1455
▁Джо	-10.1455
▁поезд	-10.1456
Зенит	-10.1459
▁президенты	-10.1461
▁планируют	-10.1461
чал	-10.1467
▁Сообщается	-10.1474
▁путь	-10.1474
right	-10.1474
▁выяснилось	-10.1475
▁Через	-10.1476
▁сектор	-10.1477
охран	-10.1477
▁этапе	-10.1478
▁сути	-10.148
бен	-10.1484
▁получат	-10.1486
▁$	-10.15
▁мост	-10.1504
вшегося	-10.1505
шки	-10.1507
▁выступал	-10.1507
▁сельско	-10.1507
▁храм	-10.1507
▁решений	-10.151
▁правительстве	-10.1524
вшей	-10.1524
▁считать	-10.1533
W	-10.1538
▁Господин	-10.154
▁избирателей	-10.154
▁российская	-10.154
▁пройдут	-10.154
щая	-10.154
▁тре	-10.1551
80	-10.1563
▁идут	-10.1563
▁убийство	-10.1565
▁митинг	-10.1572
▁просьбой	-10.1573
▁родителей	-10.1573
▁выйти	-10.1575
лит	-10.1577
▁использование	-10.1579
▁заключения	-10.1579
▁единиц	-10.1581
яков	-10.1582
тика	-10.1582
▁рода	-10.1583
▁слов	-10.1585
▁упал	-10.1586
▁Государственн	-10.1589
▁Южной	-10.159
▁количества	-10.159
▁полном	-10.1596
▁поддержал	-10.1597
▁япон	-10.1603
▁ГИБДД	-10.1606
▁Кремля	-10.1606
▁госпож	-10.1606
▁вред	-10.1608
▁семи	-10.1609
▁Центр	-10.161
шего	-10.161
▁животных	-10.161
▁призыв	-10.1617
▁рейс	-10.1628
▁памятник	-10.1634
▁начало	-10.1635
▁занимает	-10.1638
▁copy	-10.1639
▁авиации	-10.1641
техническ	-10.1643
▁отказались	-10.1643
▁класс	-10.1647
▁возле	-10.1651
▁другом	-10.1657
▁конкурент	-10.1662
▁цене	-10.1669
▁институт	-10.1675
▁частью	-10.1678
▁орган	-10.168
енд	-10.1681
▁начальника	-10.1681
кая	-10.1682
▁Шу	-10.1683
▁обвиня	-10.1684
тел	-10.1688
▁север	-10.1688
▁случаях	-10.169
▁назвали	-10.1691
▁богат	-10.1696
▁пожара	-10.1696
▁местного	-10.17
▁средне	-10.1701
▁игру	-10.1702
работа	-10.1702
Жанейро	-10.1706
нибудь	-10.1706
▁Речь	-10.1706
ющей	-10.1707
am	-10.1707
▁плен	-10.171
▁капитала	-10.1711
▁туда	-10.1715
ходить	-10.1715
▁бур	-10.1717
▁прокат	-10.1717
▁чемпионов	-10.1718
▁игроков	-10.1725
▁работников	-10.1726
▁убийства	-10.1732
▁войска	-10.1737
▁голос	-10.1737
▁следствие	-10.1739
▁гибели	-10.174
▁большую	-10.174
▁комиссия	-10.174
▁теракт	-10.1742
▁проведен	-10.1742
▁Чи	-10.1744
▁Возможно	-10.1745
зон	-10.1745
▁ката	-10.1749
▁36	-10.1751
акт	-10.1758
▁ночью	-10.1763
жн	-10.1769
▁ассоциации	-10.1773
▁напоминает	-10.1773
▁письмо	-10.1773
▁скончался	-10.1773
▁народа	-10.1774
▁иначе	-10.1774
▁шоу	-10.1774
бег	-10.1774
нки	-10.1777
▁выпуск	-10.1779
▁теракта	-10.1783
▁списка	-10.1791
чан	-10.1794
▁Тако	-10.1799
▁материалы	-10.18
▁форму	-10.1803
▁съезд	-10.1807
▁инфляции	-10.1807
▁подготовке	-10.1807
▁полицию	-10.1807
▁ждет	-10.1808
▁Аль	-10.181
Если	-10.181
▁прос	-10.181
альные	-10.1813
▁картин	-10.1815
▁кредитов	-10.1819
ce	-10.1825
▁старше	-10.1826
▁принят	-10.1828
▁процесса	-10.1834
▁улицы	-10.1839
▁другого	-10.184
ался	-10.1851
пресс	-10.1851
▁многочисленны	-10.1852
▁Кто	-10.1852
▁форме	-10.1864
ющего	-10.1864
▁Эксперты	-10.1865
▁Юр	-10.1865
▁встреч	-10.1872
▁заболевания	-10.1875
▁розыск	-10.1875
▁Го	-10.1877
▁организм	-10.1886
▁показали	-10.1894
▁выезд	-10.1895
▁коррупции	-10.1909
▁Ирина	-10.1913
▁стен	-10.1916
▁выступает	-10.1917
▁общество	-10.1918
▁флаг	-10.1921
▁каким	-10.1923
▁Татьяна	-10.1927
▁реформ	-10.193
нской	-10.193
▁Мак	-10.1946
▁друга	-10.1949
▁вошли	-10.195
▁подобные	-10.195
реза	-10.1951
09	-10.1952
▁мар	-10.1954
▁сосед	-10.1959
▁знает	-10.196
▁национальн	-10.1963
▁картины	-10.1963
▁новом	-10.1964
▁боевики	-10.1969
▁ущерб	-10.1969
зо	-10.197
▁выиграл	-10.1972
▁команде	-10.1973
проб	-10.1974
▁вступил	-10.1976
▁совершил	-10.1977
▁означает	-10.1978
▁финансирование	-10.1978
▁генеральны	-10.1979
▁региональных	-10.1981
▁отстранен	-10.1981
▁итоги	-10.1983
брать	-10.1985
to	-10.199
▁считаю	-10.199
▁поставки	-10.1992
▁городах	-10.1998
ывал	-10.1998
▁Центра	-10.2001
гля	-10.2003
▁появится	-10.2012
▁очередн	-10.2013
▁Вечерни	-10.202
▁золото	-10.202
▁прошло	-10.2021
▁Евросоюза	-10.2031
▁наград	-10.2035
▁собира	-10.2038
▁областн	-10.2039
▁Воз	-10.2039
▁огромн	-10.2041
▁подтвердили	-10.2041
▁долга	-10.2043
▁Белоруссии	-10.2047
▁фракции	-10.2047
▁изменить	-10.205
ейн	-10.2051
▁травм	-10.2053
конференции	-10.2054
▁проходят	-10.2055
▁официальном	-10.2057
▁совершени	-10.2057
▁множество	-10.2062
▁увеличение	-10.2068
14	-10.2073
▁занимал	-10.2073
▁планы	-10.2075
▁института	-10.2076
▁камер	-10.2079
▁взял	-10.2081
▁солдат	-10.2081
▁участков	-10.2081
▁предприятие	-10.2082
▁желание	-10.2082
▁турнир	-10.2084
енного	-10.2088
▁приняты	-10.2089
▁Киева	-10.2091
▁высказал	-10.2098
▁источников	-10.2098
▁потенциал	-10.2109
дает	-10.2112
дис	-10.2113
▁полицейские	-10.2116
▁ОПЕК	-10.2116
▁угрозы	-10.2117
▁тела	-10.2122
▁показать	-10.2122
▁собак	-10.2123
нка	-10.2123
ностью	-10.2129
▁обл	-10.2134
▁слово	-10.2135
▁проходил	-10.2135
бед	-10.2138
▁кг	-10.2138
▁лож	-10.2139
▁главной	-10.2141
▁Ор	-10.2144
цами	-10.2144
▁регион	-10.2146
енная	-10.2146
ходят	-10.2148
▁земле	-10.2151
рет	-10.2152
▁ВВС	-10.2152
▁рабочих	-10.2153
мимо	-10.2154
▁необходимость	-10.2154
▁девять	-10.2157
▁2020	-10.2157
▁положения	-10.2161
▁Петра	-10.2163
▁курса	-10.2165
ющее	-10.2167
пат	-10.2168
ллер	-10.2173
дя	-10.2174
▁безопасность	-10.2175
▁спроса	-10.2181
▁заместителя	-10.2186
▁компанией	-10.2186
▁нападения	-10.2186
▁защите	-10.2187
ww	-10.2188
08	-10.2188
▁остались	-10.219
▁обнаружен	-10.2191
▁передачи	-10.2197
▁широко	-10.2201
▁действие	-10.2203
лина	-10.2211
▁непосредственно	-10.2215
▁писал	-10.2216
▁внесен	-10.2218
▁Париже	-10.2218
▁опрос	-10.2218
▁34	-10.222
▁буквально	-10.2222
▁появился	-10.2222
▁уход	-10.2223
▁37	-10.2223
▁американский	-10.2223
Об	-10.2225
▁+	-10.2228
▁Евгения	-10.2228
ального	-10.2234
▁представляет	-10.2239
▁оказа	-10.224
хин	-10.2243
более	-10.2245
▁власть	-10.2245
▁пришел	-10.2247
▁самолетов	-10.2248
полит	-10.2251
▁аль	-10.2255
▁объекта	-10.2258
▁типа	-10.2261
▁волн	-10.2266
ода	-10.2268
▁трое	-10.2269
щенко	-10.2269
вает	-10.227
▁тепло	-10.227
тав	-10.2271
▁знают	-10.2272
9%	-10.2275
▁выпуска	-10.2281
ань	-10.2285
▁квартир	-10.2285
▁акция	-10.2292
▁новая	-10.2295
▁водителя	-10.2297
▁штата	-10.23
▁городского	-10.2307
▁Валерий	-10.2307
▁заявлял	-10.2311
▁знак	-10.2315
▁производителей	-10.232
стран	-10.2321
ственно	-10.2326
°	-10.2328
▁динамик	-10.2328
▁Полиция	-10.2328
▁материалов	-10.2329
▁житель	-10.2332
▁Ду	-10.2335
▁сотрудничество	-10.2335
▁подобных	-10.2337
ma	-10.2338
▁оборудования	-10.2339
ающих	-10.2348
▁республик	-10.2352
▁продаже	-10.2356
ню	-10.2361
▁U	-10.2362
▁неизвестно	-10.2364
▁полицейских	-10.2364
▁выделен	-10.2379
пп	-10.2379
чных	-10.238
▁In	-10.238
▁пункта	-10.2381
▁каждой	-10.2382
▁Лев	-10.2382
шел	-10.2382
▁Вол	-10.2382
▁Дан	-10.2385
▁буду	-10.2385
ывать	-10.2385
▁группу	-10.2386
▁Лондоне	-10.239
юр	-10.2395
▁пострадал	-10.2396
▁диалог	-10.2399
]	-10.2399
▁предусматривает	-10.2399
▁идти	-10.2401
▁устройства	-10.2401
▁крыш	-10.2402
▁2007	-10.2404
▁такую	-10.2407
Москва	-10.2408
▁назначения	-10.2414
фр	-10.2416
▁содержание	-10.242
▁50%	-10.2421
%,	-10.2425
очка	-10.2426
▁утвержден	-10.2432
▁Донецк	-10.2433
▁готова	-10.2434
▁Соединенны	-10.2435
▁недвижимости	-10.2435
▁профессор	-10.2435
▁бороться	-10.2435
▁предлагают	-10.2435
▁внимания	-10.2435
▁необходим	-10.2445
очно	-10.2448
▁оборудование	-10.245
▁собран	-10.2452
▁обратился	-10.2453
ические	-10.2456
▁Представител	-10.2459
▁нему	-10.246
▁10%	-10.2462
▁Род	-10.2466
▁школе	-10.2469
▁победил	-10.247
▁Group	-10.2472
▁поколения	-10.2472
▁поправки	-10.2472
▁терактов	-10.2474
▁состоя	-10.2474
▁населенны	-10.2476
▁визит	-10.2478
▁пассажир	-10.2478
▁грозит	-10.2482
▁прекращения	-10.249
▁говорили	-10.249
▁веществ	-10.2492
▁транс	-10.2492
▁Олимпийских	-10.2495
▁Перед	-10.2496
▁всеми	-10.2497
▁полномочий	-10.2508
▁требований	-10.2508
▁Ши	-10.2512
▁Барак	-10.2514
▁верну	-10.2524
▁обязательства	-10.2528
▁Нет	-10.253
▁гражданин	-10.2531
▁автомобили	-10.2531
▁тело	-10.2531
▁делают	-10.2531
▁подписан	-10.2535
▁согласован	-10.2538
▁желез	-10.2541
▁административны	-10.2543
▁прокуратура	-10.2544
▁задержаны	-10.2552
ический	-10.2555
см	-10.2555
▁Решение	-10.2557
анд	-10.2563
▁водо	-10.2567
▁никакого	-10.2568
потреб	-10.2571
▁купить	-10.2574
▁зоны	-10.2578
▁соревнований	-10.2581
▁аукцион	-10.2581
▁футбольно	-10.2583
▁[	-10.2583
▁$2	-10.2584
▁отказаться	-10.2584
▁дальнейшем	-10.2593
евич	-10.2595
▁кадров	-10.2598
▁ключевы	-10.2601
▁играть	-10.2603
▁качество	-10.2609
▁органах	-10.261
▁распространен	-10.2614
▁Меркель	-10.2617
▁очевидно	-10.2617
▁Европу	-10.2617
▁видно	-10.2617
▁принадлежит	-10.2618
гро	-10.262
▁Фа	-10.2624
ter	-10.2624
▁молодых	-10.2626
▁Мор	-10.2634
бежал	-10.2635
сков	-10.2638
▁грузов	-10.2638
▁считается	-10.2639
▁очков	-10.2639
▁нарко	-10.2639
▁зале	-10.264
▁оставил	-10.2642
13	-10.2644
ителей	-10.2648
18	-10.2649
▁долги	-10.2649
70	-10.2651
▁зарплат	-10.2653
▁разработан	-10.2655
▁таком	-10.2658
▁Кара	-10.2668
▁сына	-10.2673
▁назван	-10.2684
▁предварительно	-10.2685
дол	-10.2686
▁категории	-10.2686
класс	-10.2689
▁продолжается	-10.269
▁военнослужащих	-10.2691
▁имущество	-10.2692
▁целях	-10.2692
▁вышли	-10.2699
▁вооруженных	-10.2699
U	-10.2701
▁Мат	-10.2704
вор	-10.2708
▁избежать	-10.2708
▁намерены	-10.271
Рос	-10.2711
▁продолжать	-10.2726
▁увидеть	-10.2728
рн	-10.2728
▁Можно	-10.2729
рова	-10.2737
▁Чер	-10.2739
▁АО	-10.274
▁Международн	-10.2741
син	-10.275
▁футболист	-10.2751
▁политик	-10.2752
▁российско	-10.2756
▁тему	-10.2763
▁Греции	-10.2766
Динамо	-10.2766
▁смартфон	-10.2767
▁источника	-10.2767
▁заявлении	-10.2768
▁восьми	-10.2768
▁повышения	-10.2768
▁высоко	-10.2768
рад	-10.2773
▁налог	-10.2776
▁судебно	-10.2776
▁Дом	-10.2778
есть	-10.2778
▁оценкам	-10.2783
▁предусмотрен	-10.2792
льц	-10.2795
▁семья	-10.2801
▁компанию	-10.2802
▁юрист	-10.2803
▁снизить	-10.2805
Спартак	-10.2807
▁клиент	-10.2811
▁вероятно	-10.2812
▁потеря	-10.2817
▁собрал	-10.2818
▁создании	-10.2819
▁университет	-10.2821
▁Али	-10.2823
▁границ	-10.2825
▁Такие	-10.2829
вшим	-10.2831
зд	-10.2834
▁юго	-10.2836
90	-10.2838
▁совместны	-10.284
▁второе	-10.2841
▁информационно	-10.2844
дик	-10.2846
▁продукты	-10.2848
▁сокращение	-10.285
рам	-10.2854
▁дополнительно	-10.2856
▁зарплаты	-10.2857
▁любом	-10.2858
▁вида	-10.286
▁совершен	-10.2861
▁38	-10.2861
льт	-10.2862
▁дали	-10.2863
▁советник	-10.2865
de	-10.2872
▁иногда	-10.2877
▁останется	-10.2878
▁смерть	-10.2878
▁55	-10.2881
▁различные	-10.2882
надзор	-10.2892
▁$3	-10.2893
▁Иль	-10.2896
▁проводится	-10.29
▁слаб	-10.2909
▁став	-10.2909
▁Гер	-10.2912
▁пара	-10.2912
▁подразделения	-10.2915
▁Некоторые	-10.2916
▁неожиданно	-10.2916
▁центрально	-10.2923
▁Союза	-10.2941
+	-10.2942
▁арестован	-10.2942
▁третий	-10.2943
▁искусства	-10.295
▁электронны	-10.295
лат	-10.2951
▁продажу	-10.2952
Локомотив	-10.2953
буд	-10.2953
▁премии	-10.2954
▁обратно	-10.2954
▁обязанности	-10.2955
▁станут	-10.2955
▁осталось	-10.2955
▁протеста	-10.2962
▁мск	-10.2962
▁уверены	-10.2963
илось	-10.2967
▁представить	-10.2967
запад	-10.2967
▁убежден	-10.297
▁Зе	-10.2985
▁уникальн	-10.2986
▁постепенно	-10.2991
▁Далее	-10.2991
35	-10.2993
▁фестиваля	-10.2994
▁пытались	-10.2997
▁специалист	-10.3
▁арбитраж	-10.3003
▁Люди	-10.3007
▁больнице	-10.3007
глав	-10.3008
был	-10.3008
ведении	-10.3011
▁Сотрудники	-10.3012
▁бирже	-10.3012
▁шест	-10.3012
▁бесплатно	-10.3012
▁прибыл	-10.3017
▁спортсмен	-10.3023
05	-10.3026
▁утверждают	-10.3029
▁хватает	-10.3029
нем	-10.3031
чный	-10.3032
▁растет	-10.3033
пел	-10.3037
▁началась	-10.3041
▁хотели	-10.3044
ваться	-10.3046
▁видит	-10.3048
▁незаконно	-10.3048
24	-10.3052
▁льгот	-10.3053
▁шанс	-10.3058
нок	-10.306
▁доклад	-10.306
▁долгов	-10.3062
▁документе	-10.3064
▁первая	-10.3068
▁оценки	-10.3068
▁ждут	-10.3068
▁пенсионн	-10.3071
▁Хи	-10.3072
▁Лиги	-10.3076
▁20%	-10.3079
транс	-10.3083
▁Бен	-10.3087
▁задачи	-10.3094
▁россияне	-10.3095
▁дорож	-10.3096
▁зло	-10.3097
шек	-10.3098
▁набрал	-10.3103
▁плюс	-10.3106
▁Обамы	-10.3107
▁of	-10.3108
▁пытается	-10.3109
▁среднего	-10.311
▁News	-10.3113
5%	-10.3118
Интер	-10.312
▁входят	-10.3129
долго	-10.3129
▁недостаточно	-10.3135
яр	-10.3137
as	-10.3141
95	-10.3142
▁роди	-10.3144
▁мусор	-10.3145
▁решать	-10.3146
▁долю	-10.3157
▁идея	-10.3158
▁получать	-10.3161
▁обязательств	-10.3162
▁эксперимент	-10.3164
ыш	-10.3167
▁Джа	-10.3168
ниц	-10.3168
ишь	-10.3169
чук	-10.3173
▁подпис	-10.3177
▁высокой	-10.3179
▁машина	-10.3181
▁известный	-10.3182
▁действовать	-10.3183
▁отношению	-10.3183
▁график	-10.3184
▁родители	-10.3184
силь	-10.319
▁куб	-10.319
▁одному	-10.3194
становлен	-10.3198
▁получают	-10.3199
▁пытают	-10.3199
▁сборная	-10.3203
вала	-10.3209
▁острова	-10.3209
8%	-10.321
что	-10.3216
▁больницы	-10.3217
▁плав	-10.322
▁преступлений	-10.3222
▁детям	-10.3222
▁Центробанк	-10.3222
▁постановление	-10.3223
▁особ	-10.3223
▁РАН	-10.3223
▁приехал	-10.3225
lo	-10.3227
▁получен	-10.3233
▁инцидента	-10.3234
аков	-10.3235
%)	-10.3236
пле	-10.3237
▁Сал	-10.3243
▁домой	-10.3245
,2%	-10.3253
▁Гар	-10.3254
▁Позже	-10.3262
▁связь	-10.3262
▁ждать	-10.3262
▁решению	-10.3264
▁сотни	-10.3264
ТО	-10.3271
▁массово	-10.3274
▁взятки	-10.3277
ляет	-10.3277
▁сто	-10.3283
шут	-10.3284
▁42	-10.3286
▁контракта	-10.3288
▁мотор	-10.329
итайте	-10.3298
▁атмосфер	-10.3301
▁последнего	-10.3301
▁нужна	-10.3301
▁память	-10.3301
▁наконец	-10.3301
▁публикации	-10.3301
▁доктор	-10.3301
читал	-10.3303
▁сверх	-10.3305
▁основании	-10.331
▁Бор	-10.3313
▁нашим	-10.3314
▁музыкант	-10.3318
▁чист	-10.3318
▁класса	-10.3322
Со	-10.3322
▁гендиректор	-10.3324
▁заказ	-10.3326
▁маленьк	-10.3327
▁Анна	-10.3327
45	-10.3327
предел	-10.3329
▁Гри	-10.3334
▁боль	-10.3334
,9%	-10.3339
▁Мутко	-10.334
▁фотографии	-10.3343
▁остаются	-10.3344
▁футболу	-10.3345
▁запас	-10.3353
▁связанны	-10.3362
▁предложили	-10.3363
▁сократить	-10.3364
шев	-10.3364
▁резерв	-10.337
ируется	-10.3373
▁указал	-10.3375
▁террористически	-10.3375
ард	-10.3377
явлен	-10.3377
▁кроссовер	-10.338
▁немало	-10.3383
▁обвинил	-10.3384
▁пару	-10.3384
▁идеи	-10.3393
▁квартире	-10.3395
аты	-10.3401
Ростов	-10.3401
все	-10.3402
ставить	-10.3404
айте	-10.3404
рик	-10.3404
▁зал	-10.3405
кредит	-10.3405
▁слав	-10.341
росс	-10.3413
▁открыва	-10.3414
▁итальянск	-10.3417
▁Брюсселе	-10.3419
▁выглядит	-10.3419
▁коалиции	-10.3419
▁действует	-10.3419
▁сюжет	-10.3419
▁спокойно	-10.342
▁настолько	-10.342
▁категори	-10.3424
водить	-10.3424
ял	-10.3426
▁привлечь	-10.3427
рук	-10.3432
бар	-10.3432
▁Бур	-10.3433
▁границу	-10.3434
▁премьера	-10.3438
Ре	-10.3441
тек	-10.3447
▁нашем	-10.3448
▁писали	-10.3456
▁названием	-10.3458
предпринимателей	-10.3459
▁iPhone	-10.3459
▁доставлен	-10.3459
▁дважды	-10.3459
▁версия	-10.3459
▁новостей	-10.3459
▁Председатель	-10.346
▁гостей	-10.3462
▁акционер	-10.3463
▁будущего	-10.3466
▁Следственно	-10.3466
▁отношениях	-10.3467
▁крупные	-10.3467
▁Стоит	-10.3473
▁достиг	-10.3474
▁ДНР	-10.3485
▁примет	-10.3489
▁ТВ	-10.349
маш	-10.3493
▁ФАС	-10.3494
▁реальн	-10.3496
▁тай	-10.3497
▁видим	-10.3498
инэкономразвития	-10.3499
▁людьми	-10.3499
▁одобрил	-10.3499
▁художественн	-10.3499
▁реестр	-10.3501
▁районах	-10.3502
▁Захарова	-10.3504
▁явно	-10.3504
▁вопроса	-10.3505
▁самая	-10.3508
тики	-10.3509
▁Экс	-10.351
▁медицинско	-10.3516
телей	-10.3525
▁уменьш	-10.3527
▁итогов	-10.3531
▁тариф	-10.3531
▁визита	-10.3532
▁Всемирно	-10.3535
▁современно	-10.3535
▁ИГИЛ	-10.3539
▁Стоимость	-10.3539
▁Игоря	-10.3539
▁министерство	-10.3541
руб	-10.3542
▁Пер	-10.3543
▁бумаг	-10.3544
ром	-10.3546
▁Треть	-10.3546
▁технологическ	-10.3552
▁проводит	-10.3555
нен	-10.3559
▁причины	-10.3563
ведение	-10.3564
▁добр	-10.3565
▁границе	-10.3568
▁Мурманска	-10.3569
щение	-10.3571
▁причине	-10.3573
▁фронт	-10.3575
▁предложен	-10.3576
изация	-10.3579
▁нынешнего	-10.358
▁требуют	-10.358
▁Карл	-10.358
дова	-10.3583
ie	-10.3583
лес	-10.3586
▁интересно	-10.3589
защит	-10.3591
восточн	-10.3594
▁проведении	-10.3594
▁нормально	-10.3594
▁видов	-10.3595
разу	-10.3599
первых	-10.3602
▁чиновники	-10.3608
▁тер	-10.3609
СК	-10.361
▁ясно	-10.3612
▁платить	-10.362
ово	-10.362
▁Ученые	-10.362
▁остался	-10.3624
▁Потому	-10.3626
▁террорист	-10.3628
▁собственности	-10.3628
▁руках	-10.3632
▁Перв	-10.3635
▁потерял	-10.364
▁баланс	-10.3642
▁Фи	-10.3647
▁связанные	-10.3649
▁война	-10.365
бел	-10.3657
▁Артем	-10.366
▁питания	-10.3661
▁Ки	-10.3666
un	-10.367
▁конец	-10.3671
▁приказ	-10.3672
▁связаны	-10.3676
цем	-10.3676
нта	-10.3677
▁публично	-10.368
ющийся	-10.3682
аций	-10.3683
овое	-10.3684
▁посмотреть	-10.3685
28	-10.3686
▁британски	-10.3689
▁Два	-10.3696
▁гражданской	-10.3697
▁заверш	-10.3697
чел	-10.3701
Владивосток	-10.3702
▁поставок	-10.3702
▁операций	-10.3702
▁сумел	-10.3702
▁Times	-10.3702
▁пресечения	-10.3704
▁времена	-10.3706
▁мнения	-10.371
▁контр	-10.3711
▁опрошенных	-10.3712
▁проч	-10.3712
me	-10.3715
▁гуманитарн	-10.3717
кур	-10.3718
▁Ху	-10.3718
▁объема	-10.3721
жин	-10.3725
▁референдум	-10.3728
полне	-10.374
блюд	-10.3741
▁убит	-10.3745
▁обвинение	-10.3746
▁частично	-10.3747
▁суб	-10.3748
▁прямы	-10.3748
▁успел	-10.3749
нт	-10.3753
▁Красноярск	-10.3754
▁Новосибирск	-10.3756
▁знал	-10.3759
th	-10.376
▁провал	-10.3761
▁Эр	-10.3764
▁округе	-10.3769
альное	-10.3769
▁науки	-10.3773
овали	-10.3774
нная	-10.3776
▁школ	-10.3777
▁стимул	-10.378
▁наоборот	-10.3782
парк	-10.3784
▁окончания	-10.3784
▁бомб	-10.3784
▁молодежи	-10.3784
▁регистрации	-10.3785
▁лед	-10.3786
дела	-10.3791
▁образование	-10.3795
▁вперед	-10.3799
▁Кам	-10.3801
▁налога	-10.3802
ad	-10.3807
▁властями	-10.3815
▁автомат	-10.3816
▁дешев	-10.3818
▁участок	-10.3825
▁эпизод	-10.3825
▁детьми	-10.3825
▁лечение	-10.3825
▁проверка	-10.3826
▁большие	-10.3826
▁обращение	-10.3829
pe	-10.3829
▁физическ	-10.383
27	-10.3835
▁Николая	-10.3838
▁красно	-10.3848
▁паспорт	-10.3848
▁каза	-10.385
МС	-10.3857
▁пыта	-10.3859
▁владе	-10.3859
▁обстоятельств	-10.3859
▁результатов	-10.3861
▁знаменит	-10.3862
▁удастся	-10.3866
▁оценке	-10.3866
▁определить	-10.3869
▁повод	-10.3873
▁службу	-10.3873
▁позволил	-10.3875
жим	-10.3885
%	-10.3889
▁объясняет	-10.3889
▁предполагает	-10.3889
двига	-10.3889
техник	-10.3892
чать	-10.3892
▁интернете	-10.3894
▁стороне	-10.3898
ании	-10.3905
▁необходимые	-10.3907
▁кабинет	-10.3908
▁операцию	-10.3909
▁пытался	-10.3911
▁заключение	-10.3914
▁общественных	-10.3915
▁снят	-10.3915
лем	-10.3916
▁выросли	-10.3922
▁бег	-10.3922
сса	-10.3932
носит	-10.3934
▁попасть	-10.3935
▁счета	-10.394
▁похоже	-10.3942
стями	-10.3944
ent	-10.3945
гуля	-10.395
▁Аравии	-10.395
▁дочь	-10.395
▁Светлана	-10.395
▁уйти	-10.3951
▁идею	-10.3952
▁поручени	-10.3956
Петербурга	-10.3958
ара	-10.396
▁форума	-10.3961
▁снег	-10.3962
части	-10.3967
▁ног	-10.3968
▁могло	-10.3969
▁дороге	-10.3973
инский	-10.3978
тия	-10.3979
▁Национальн	-10.398
▁книги	-10.398
бек	-10.398
▁объекты	-10.3982
▁причина	-10.3982
▁вертолет	-10.3983
▁правления	-10.3983
Йорк	-10.3984
▁обстоятельства	-10.3984
лиги	-10.3984
▁прошедши	-10.3987
▁сопровожда	-10.3992
▁требовал	-10.3992
▁элит	-10.3994
▁бор	-10.4
▁процессе	-10.4001
щу	-10.4001
▁срока	-10.4002
▁искать	-10.4006
▁Шар	-10.401
▁жалоб	-10.4013
▁фильме	-10.4016
▁обратил	-10.4016
▁финал	-10.402
▁будущее	-10.4024
тяж	-10.4029
▁Чечни	-10.4034
▁благотворительн	-10.4034
▁суток	-10.4035
▁американские	-10.4036
▁нефтян	-10.4038
▁лист	-10.4039
ума	-10.404
нат	-10.4041
▁разрешен	-10.4044
▁врачей	-10.4046
Тр	-10.4051
До	-10.4051
▁Спорт	-10.4053
▁температура	-10.4056
▁полной	-10.4059
▁миллиардер	-10.406
Ан	-10.406
▁поддерживает	-10.4061
▁площадь	-10.4064
▁закону	-10.4065
ьный	-10.4065
▁кров	-10.4065
▁обеспечение	-10.4066
так	-10.4067
▁Востока	-10.4068
▁Хар	-10.4074
кции	-10.4076
▁здании	-10.4077
▁оснащен	-10.4077
▁Может	-10.4077
▁вскоре	-10.4077
▁вышла	-10.4077
▁обращения	-10.4077
бит	-10.4078
▁плана	-10.4083
▁экипажа	-10.4084
▁техника	-10.4086
рок	-10.4086
▁мера	-10.4086
se	-10.4087
▁принимал	-10.4088
шина	-10.4089
ора	-10.4091
▁воздуха	-10.4097
▁лекарств	-10.4102
ступить	-10.4104
кинуть	-10.4105
▁форм	-10.4108
▁600	-10.411
▁ворота	-10.411
▁уничтожен	-10.4111
прашива	-10.4111
▁областной	-10.4112
▁участка	-10.4114
Роснефть	-10.4119
▁предназначен	-10.4119
▁церкви	-10.4119
▁серьезные	-10.4119
▁ученых	-10.4119
▁наличие	-10.412
▁вкус	-10.4123
▁Мол	-10.4123
▁посетил	-10.4123
▁книг	-10.4124
▁понятно	-10.4125
ницу	-10.4128
щий	-10.4132
метров	-10.4137
▁Тре	-10.4138
▁мировых	-10.4143
▁получает	-10.4144
▁Кадыров	-10.4144
▁нашу	-10.4144
▁(3	-10.4146
▁Илья	-10.4146
▁перенос	-10.4155
▁спецслужб	-10.4156
▁северо	-10.4157
▁представителями	-10.4161
▁Олимпиаде	-10.4162
▁Турцию	-10.4162
▁Общество	-10.4163
▁зафиксирован	-10.4163
▁мониторинг	-10.4163
▁принимают	-10.4172
▁эконом	-10.4176
▁поступил	-10.4178
▁климат	-10.4179
фф	-10.4179
▁российскими	-10.4187
▁бренд	-10.4189
▁столичн	-10.4191
▁мои	-10.4194
▁экономика	-10.4195
▁допрос	-10.4196
овском	-10.4202
▁топлива	-10.4205
▁протокол	-10.4205
▁Азии	-10.4205
▁финансовой	-10.4206
▁живет	-10.4206
▁крови	-10.4208
▁вину	-10.4208
▁состоялась	-10.4208
ступает	-10.4209
▁должностны	-10.4209
▁труб	-10.421
▁пояс	-10.4211
▁осуществлени	-10.4213
▁десятки	-10.4214
▁властям	-10.4216
▁сказали	-10.4217
▁профессиональны	-10.422
▁лицо	-10.423
▁состоит	-10.4231
▁120	-10.4232
▁повтор	-10.4233
▁сохраня	-10.4234
▁попали	-10.4241
▁планах	-10.4245
▁вызван	-10.4248
▁гонки	-10.4248
▁горд	-10.4248
▁рис	-10.4248
▁значение	-10.4249
▁эффективно	-10.4251
▁какое	-10.4259
мобил	-10.4263
▁электронн	-10.4267
▁Главный	-10.4267
▁участник	-10.4273
▁преврати	-10.4277
▁космическо	-10.4283
▁четверт	-10.4284
▁отдельных	-10.4285
чил	-10.4285
Известия	-10.4286
▁75	-10.429
▁Бразилии	-10.4291
▁борьбу	-10.4291
▁некоторо	-10.4291
▁федеральных	-10.4291
▁признать	-10.4292
▁обсуждения	-10.4295
лист	-10.4295
крыл	-10.4297
▁готовности	-10.43
▁другое	-10.4304
▁душ	-10.4304
▁Мари	-10.4308
▁эффективн	-10.4309
▁Три	-10.431
▁оборон	-10.4311
док	-10.4312
▁2,5	-10.4313
▁спикер	-10.4315
▁человеческ	-10.4315
щей	-10.4316
альным	-10.4318
▁гре	-10.4321
▁устройство	-10.4323
▁своему	-10.4328
нар	-10.4328
▁Кремле	-10.4332
▁Ше	-10.4333
▁конкретны	-10.4333
▁сведения	-10.4333
Дону	-10.4334
▁Московского	-10.4335
▁предлагал	-10.4335
▁четко	-10.4335
▁предоставить	-10.4336
▁журналисты	-10.4336
▁окруж	-10.4337
▁Мон	-10.434
▁Газета	-10.4343
▁расти	-10.4344
вшейся	-10.4344
длежащ	-10.4346
▁канала	-10.4349
23	-10.435
▁черн	-10.435
▁продолжит	-10.4351
▁магазин	-10.4351
▁мал	-10.4352
▁запрещен	-10.4353
▁сериал	-10.4359
очные	-10.4361
▁Екатерина	-10.4362
▁Тер	-10.4363
▁отзыв	-10.4364
▁комплект	-10.4364
▁Красно	-10.4365
СП	-10.4366
▁рубеж	-10.4367
работал	-10.4369
казывать	-10.4369
▁устойчив	-10.4373
мель	-10.4376
председател	-10.4378
▁баррелей	-10.4378
▁возглавил	-10.4378
▁девушка	-10.4378
▁попытка	-10.4378
▁энергетики	-10.4378
▁последним	-10.4378
▁федеральном	-10.4379
▁полагают	-10.4379
▁быстрее	-10.4379
стрел	-10.4381
▁дополнительных	-10.4382
авших	-10.4383
▁гостиниц	-10.4386
иста	-10.4392
▁финансовые	-10.4395
▁завершен	-10.4397
▁расход	-10.4397
лис	-10.4399
▁мэра	-10.4401
▁Кир	-10.4412
курорт	-10.4413
▁дефицит	-10.4416
▁подобн	-10.4422
▁злоумышленник	-10.4422
▁таможенн	-10.4422
▁украинские	-10.4424
реп	-10.4424
▁чиновник	-10.4424
▁завершил	-10.4425
▁Проект	-10.4433
дент	-10.4439
▁официального	-10.4445
▁третьем	-10.4448
▁250	-10.4449
▁продукт	-10.4449
K	-10.4455
ti	-10.4455
▁Co	-10.4457
▁сообщило	-10.4457
ическую	-10.4457
▁строго	-10.4461
▁WADA	-10.4464
▁Brent	-10.4466
▁соответствующе	-10.4466
▁Польши	-10.4466
▁вызывает	-10.4466
▁Индии	-10.4466
▁полгода	-10.4466
▁лишен	-10.4468
▁позиция	-10.4471
▁чуж	-10.4471
рош	-10.4474
▁задач	-10.4474
▁Фр	-10.4475
▁фондов	-10.4476
▁состоялся	-10.4476
▁44	-10.4479
щиков	-10.448
▁борт	-10.4481
▁соперник	-10.4482
стат	-10.4494
▁возвраща	-10.4504
▁строй	-10.4504
▁аппарата	-10.4505
▁порт	-10.4506
щихся	-10.4507
дра	-10.4508
▁65	-10.4509
▁Вооруженны	-10.451
▁любовь	-10.4511
▁зампред	-10.4511
ическое	-10.4511
▁состоянию	-10.4511
▁испытания	-10.4512
▁заверил	-10.4514
▁приведет	-10.4516
▁ведомств	-10.4517
▁друж	-10.4519
▁пап	-10.4522
▁требованиям	-10.4523
▁Одна	-10.4524
▁приняла	-10.4532
мед	-10.4537
▁отпуск	-10.454
▁объявили	-10.4542
▁ребята	-10.4549
▁минимальн	-10.4551
ающий	-10.4554
нять	-10.4555
▁дер	-10.4555
▁ситуацией	-10.4555
▁чрезвычайно	-10.4555
▁письма	-10.4555
Рус	-10.4558
▁Ман	-10.4564
▁пуск	-10.4564
▁жестко	-10.4564
▁30%	-10.4567
▁фар	-10.4567
пом	-10.4567
▁II	-10.457
▁вроде	-10.457
▁рано	-10.457
▁военный	-10.4572
▁судом	-10.4573
▁цар	-10.4575
хан	-10.4575
▁лишил	-10.4576
▁доли	-10.4576
▁Мурманской	-10.4578
▁захват	-10.4579
закон	-10.458
▁преступн	-10.4582
▁искусств	-10.4584
▁ут	-10.4586
▁вел	-10.4597
Справедлив	-10.46
▁администрация	-10.46
▁основные	-10.46
▁пенсии	-10.46
▁превышает	-10.46
▁полтора	-10.46
▁поручил	-10.46
▁экономических	-10.46
▁наказания	-10.4602
▁ужас	-10.4603
▁Петербурге	-10.4604
▁флота	-10.4606
ПП	-10.4607
▁машину	-10.4611
▁начались	-10.4611
▁городских	-10.4611
01	-10.4615
▁каждом	-10.4617
▁произведен	-10.463
,8%	-10.4635
▁въезд	-10.4638
▁лент	-10.4639
родного	-10.4642
▁ЖКХ	-10.4644
▁зрителей	-10.4644
▁регламент	-10.4644
▁СНГ	-10.4644
▁решении	-10.4648
▁мать	-10.4648
▁пояснили	-10.4649
опо	-10.4651
альную	-10.4656
▁микро	-10.4659
29	-10.4667
▁обсудили	-10.4667
▁небольшой	-10.4667
▁следов	-10.4671
▁секунд	-10.4681
▁Фор	-10.4684
▁сотрудниками	-10.4685
ниж	-10.4686
▁некоторым	-10.4689
▁нынешнем	-10.4689
▁потребителей	-10.4689
▁политического	-10.469
▁больших	-10.469
▁подготовил	-10.469
26	-10.4691
▁виду	-10.4693
пин	-10.4695
▁заметно	-10.4695
▁бой	-10.4696
▁обратиться	-10.4699
▁главу	-10.4701
▁градусов	-10.4702
▁начнется	-10.4707
▁48	-10.4709
▁моей	-10.471
▁показывает	-10.4713
▁негативн	-10.4713
▁травмы	-10.4714
▁текущи	-10.4715
дают	-10.4718
меня	-10.4721
▁предлагается	-10.4724
▁металл	-10.4726
▁Депутат	-10.4726
▁педагог	-10.4727
▁приз	-10.4727
вард	-10.4732
ющиеся	-10.4733
▁Васильев	-10.4733
▁приватизации	-10.4735
▁удовлетворен	-10.4735
▁соглашений	-10.4735
нным	-10.4737
▁отказа	-10.4738
леч	-10.4741
Ле	-10.4742
чке	-10.4742
▁десят	-10.4744
▁основания	-10.4746
▁представил	-10.4746
▁Асада	-10.475
щих	-10.4751
▁брак	-10.4754
▁звон	-10.4759
▁аналитик	-10.476
▁ядерно	-10.4761
▁планов	-10.4761
▁гости	-10.4762
▁круп	-10.4763
нюю	-10.4765
▁авторы	-10.4776
▁Благодар	-10.478
▁Египта	-10.478
▁списке	-10.478
держать	-10.478
▁Победы	-10.478
▁рейтинге	-10.4782
▁элемент	-10.4782
рим	-10.4782
▁палат	-10.4783
▁увеличен	-10.4785
▁юридическо	-10.4785
▁выпустил	-10.4786
▁мальчик	-10.4789
▁поддерживать	-10.479
ul	-10.4791
▁российское	-10.4793
3%	-10.48
▁медицинской	-10.4802
▁Востоке	-10.4802
▁ново	-10.4806
▁ресурсов	-10.4809
▁(19	-10.4814
▁титул	-10.4815
▁недель	-10.4819
▁лицензии	-10.4826
▁студент	-10.4828
▁далее	-10.4829
▁потери	-10.4829
ay	-10.4829
co	-10.4832
▁Ус	-10.4837
▁открытия	-10.4838
▁продолжа	-10.484
▁Зна	-10.4846
▁Молод	-10.4847
НК	-10.4851
кратн	-10.4856
▁Потом	-10.486
▁лидером	-10.4862
рог	-10.4868
▁избирательны	-10.487
катастроф	-10.487
▁футбол	-10.4872
▁Испании	-10.4872
▁КНР	-10.4872
▁экономику	-10.4872
▁Минздрав	-10.4872
▁вероятность	-10.4873
▁черно	-10.4873
▁голосование	-10.4875
▁Думаю	-10.4875
▁Банка	-10.4876
▁инвестиционно	-10.4884
▁прекрасно	-10.4884
▁выполнять	-10.4889
шему	-10.4889
▁мм	-10.4893
▁бюро	-10.4893
▁Al	-10.4896
▁счету	-10.4898
▁Гал	-10.4903
эк	-10.4903
▁смысл	-10.4903
▁атаки	-10.4908
▁опасно	-10.4908
▁39	-10.491
▁способны	-10.4915
▁вдруг	-10.4916
▁дают	-10.4916
▁секретарь	-10.4917
Мо	-10.4917
▁территорий	-10.4918
▁перевозчик	-10.4918
сек	-10.4919
▁остановить	-10.4919
▁трат	-10.4922
▁тип	-10.4924
▁принятия	-10.4926
▁поражение	-10.4926
▁Сбербанк	-10.493
▁минуты	-10.4931
▁Путиным	-10.4932
▁обсуждать	-10.4933
▁крупном	-10.4936
ическим	-10.4943
нская	-10.4943
▁устройств	-10.4944
очных	-10.4948
▁нормы	-10.4949
▁грузовик	-10.4953
ивать	-10.4954
сет	-10.4954
▁ведут	-10.4955
чения	-10.4955
▁аналогичны	-10.4958
▁проекте	-10.496
▁Тро	-10.4962
▁ЛДПР	-10.4964
▁Тульской	-10.4964
▁установил	-10.4969
▁конкретно	-10.497
▁штаба	-10.4974
▁следственны	-10.4974
▁воду	-10.4975
▁Федор	-10.4976
▁обще	-10.4976
спасательн	-10.4985
▁законопроекта	-10.4985
▁отец	-10.4987
торг	-10.4987
▁Виктора	-10.4987
▁позднее	-10.4989
▁пенсионер	-10.4991
▁начина	-10.4993
▁МОК	-10.4994
▁устав	-10.4995
▁спин	-10.4998
▁земель	-10.5
▁Кал	-10.5009
европейск	-10.501
▁музея	-10.5011
▁половине	-10.5011
▁раунд	-10.5011
▁антидопингово	-10.5011
▁разработки	-10.5011
▁лечения	-10.5011
▁Известно	-10.5011
▁организацию	-10.5011
▁Тим	-10.5012
Кр	-10.5013
▁продлен	-10.5013
▁родился	-10.5014
▁имена	-10.5014
▁комнат	-10.5015
▁2019	-10.5017
▁мусульман	-10.5026
▁рез	-10.5028
▁превысил	-10.5029
▁профессионально	-10.5029
▁войне	-10.5031
▁высот	-10.5032
▁молодой	-10.5037
▁продолжил	-10.5038
▁достижения	-10.5041
▁формат	-10.5046
▁командир	-10.5046
▁ставка	-10.5048
▁вынуждены	-10.5049
▁поставлен	-10.5049
▁сыр	-10.5049
▁многом	-10.505
▁Само	-10.5051
ование	-10.5055
сматрива	-10.5056
▁исчез	-10.5057
ывает	-10.5057
▁Инцидент	-10.5057
▁задолженности	-10.5057
▁Америки	-10.5057
▁ныне	-10.5058
▁формирования	-10.5058
▁проведет	-10.506
▁применения	-10.506
▁песни	-10.5061
▁члена	-10.5064
▁партнеров	-10.5065
▁началось	-10.5066
иловые	-10.5066
тил	-10.5066
▁врача	-10.5073
▁прекратить	-10.5073
давал	-10.5076
▁видел	-10.5077
▁сайта	-10.5078
▁медиа	-10.5089
▁проводят	-10.5092
um	-10.5095
▁тренера	-10.5097
▁Ростов	-10.5103
▁половины	-10.5104
▁Сирию	-10.5104
▁костюм	-10.5104
▁подозреваемых	-10.5105
▁супер	-10.5106
▁церемонии	-10.5106
▁Наука	-10.5107
▁Международны	-10.511
▁ЧП	-10.5113
▁игрока	-10.5115
▁служб	-10.5117
▁Очень	-10.5118
▁площадью	-10.5119
▁46	-10.5122
▁демократ	-10.5123
▁взяли	-10.5123
▁пуст	-10.5124
ьян	-10.513
▁помог	-10.5133
▁получение	-10.5135
▁террористическ	-10.5136
▁Надо	-10.5137
▁смотреть	-10.5146
▁продав	-10.5151
▁осенью	-10.5151
▁обещал	-10.5152
пись	-10.5158
▁республике	-10.5168
▁увидел	-10.5171
▁карты	-10.5171
жно	-10.5175
пособ	-10.5176
▁рисков	-10.5176
▁реформы	-10.5177
▁фирмы	-10.5181
Во	-10.5185
ура	-10.5187
жат	-10.5188
топ	-10.519
Восточн	-10.519
▁Бы	-10.5192
▁обнаружил	-10.5196
▁поля	-10.5197
▁доказательств	-10.5198
▁положительно	-10.5199
▁похорон	-10.5199
▁Армении	-10.5199
▁изначально	-10.5199
▁замминистра	-10.5199
▁появилось	-10.5199
▁остальные	-10.5203
▁отправлен	-10.5204
▁отделение	-10.5204
▁докладе	-10.5206
▁заключается	-10.5206
ПС	-10.5207
▁собираются	-10.5208
чиков	-10.5208
▁развива	-10.521
▁Владимиру	-10.5211
▁Юлия	-10.5212
екс	-10.5212
▁сан	-10.5214
▁введения	-10.5214
▁села	-10.5215
▁шансы	-10.5217
▁направлены	-10.5222
есс	-10.5226
▁подготовлен	-10.5229
▁враг	-10.5232
▁Нам	-10.5233
емой	-10.5236
▁край	-10.5237
▁Самар	-10.524
▁стоят	-10.5243
▁Владимиром	-10.5244
▁Саакашвили	-10.5246
▁основным	-10.5246
▁армия	-10.5247
▁океан	-10.5248
▁ислам	-10.5249
▁валюты	-10.5254
▁Анатолий	-10.5258
▁столичны	-10.5259
▁обыск	-10.5259
▁мирового	-10.526
▁объявила	-10.5262
▁районов	-10.5262
▁реально	-10.5262
▁Арсен	-10.5266
om	-10.5266
дом	-10.5268
шли	-10.5268
▁укреп	-10.5275
▁День	-10.5276
▁судов	-10.5278
шку	-10.5279
нной	-10.5281
▁мотив	-10.5281
▁достигнут	-10.5283
ивший	-10.5285
ухов	-10.5288
▁Коми	-10.5292
стин	-10.5293
шт	-10.5294
▁Олимпиады	-10.5294
▁Официальны	-10.5294
▁заранее	-10.5294
▁Дамаск	-10.5295
▁назначил	-10.5295
▁печати	-10.5296
▁найден	-10.5298
▁Ростовской	-10.5299
▁планировал	-10.5299
работать	-10.53
▁решением	-10.5301
▁приговорил	-10.5306
▁снять	-10.5309
льф	-10.5316
▁активы	-10.5319
▁национального	-10.5319
▁третье	-10.532
чить	-10.5321
▁полномочия	-10.5324
▁общественн	-10.5324
▁Мурманске	-10.5326
▁фактор	-10.5331
▁начинает	-10.5332
▁лидеры	-10.5334
▁просит	-10.5336
▁рубежом	-10.5337
▁предоставлен	-10.5342
▁трагедии	-10.5342
▁ВКС	-10.5343
▁помогает	-10.5344
▁жилье	-10.5345
▁проводил	-10.5345
▁живут	-10.5346
▁диск	-10.5348
▁St	-10.535
▁арт	-10.5356
▁смогла	-10.5356
бас	-10.5363
▁осмотр	-10.5364
▁объеме	-10.5364
сия	-10.5368
бель	-10.5371
льский	-10.5373
▁транспортных	-10.5374
▁Рус	-10.5376
▁регулятор	-10.5376
▁минуте	-10.5377
атов	-10.5379
▁Глав	-10.5382
тка	-10.5382
▁намерена	-10.5384
очной	-10.5389
▁поступило	-10.5389
▁Или	-10.539
▁продукцию	-10.5391
▁руководителей	-10.5391
▁нападение	-10.5391
▁рубрике	-10.5391
▁угрозу	-10.5391
▁гражданам	-10.5393
▁инвестиционны	-10.5395
▁Вопрос	-10.5395
писать	-10.5396
▁установлено	-10.5398
▁инструмент	-10.5399
▁Лидер	-10.5401
▁тура	-10.5402
▁силами	-10.5404
▁политолог	-10.5404
▁судья	-10.5405
▁удален	-10.5407
▁намерени	-10.5409
касс	-10.541
▁перестал	-10.5411
чкой	-10.5413
ством	-10.5418
▁любит	-10.5418
▁800	-10.5421
▁этапа	-10.5425
чист	-10.543
лиц	-10.5431
ерн	-10.5436
▁комментариев	-10.5439
▁транзит	-10.5439
▁подчеркивает	-10.5439
▁соцсети	-10.5439
▁общественно	-10.544
▁Минск	-10.5441
▁договорились	-10.5442
▁помещения	-10.5442
▁сектора	-10.5443
▁голоса	-10.5444
▁турецко	-10.5446
дание	-10.5449
берут	-10.5449
21	-10.5451
▁Пен	-10.5451
▁поддержать	-10.5453
▁доста	-10.5454
ковой	-10.5457
▁Закон	-10.5461
щем	-10.5465
▁препаратов	-10.5468
▁департамент	-10.5469
▁снял	-10.5472
▁госпитализирова	-10.5478
анти	-10.5479
▁привело	-10.5479
▁бывает	-10.548
▁московски	-10.5481
тр	-10.5482
▁спутник	-10.5484
▁штате	-10.5486
анов	-10.5487
▁оператор	-10.5488
причастности	-10.5488
▁Бизнес	-10.5488
▁Экономика	-10.5488
▁соответствует	-10.5488
▁управлении	-10.5488
▁получени	-10.5488
верс	-10.5488
▁владельца	-10.5488
▁украинский	-10.5491
▁сахар	-10.5491
енс	-10.5492
▁молод	-10.5494
▁Юрия	-10.5498
мана	-10.5498
▁Зато	-10.5502
▁развед	-10.5509
▁квартиру	-10.551
1%	-10.5517
▁начнет	-10.5518
▁смысле	-10.5518
▁ведется	-10.5521
▁свидетельств	-10.5523
▁склад	-10.5526
▁фон	-10.5532
▁продан	-10.5533
▁шт	-10.5534
▁ран	-10.5535
▁участии	-10.5537
▁информацией	-10.5537
▁хотим	-10.5537
▁ведущих	-10.5537
Яндекс	-10.5537
55	-10.5537
▁событие	-10.5537
▁the	-10.5538
▁голову	-10.554
торов	-10.5543
▁пусть	-10.5546
▁глобально	-10.5548
▁исторически	-10.555
▁видимо	-10.5551
▁вооруженн	-10.5552
▁Re	-10.5562
▁угроз	-10.5563
▁пешеход	-10.5563
▁47	-10.5563
▁Хам	-10.557
▁Год	-10.5576
▁соперника	-10.5579
▁Хе	-10.5579
▁Казахстана	-10.558
ИК	-10.5582
▁взаимодействия	-10.5586
▁произойдет	-10.5586
▁показатели	-10.5586
▁отрицательн	-10.5586
▁защиту	-10.5587
▁технически	-10.559
▁виновным	-10.5592
▁победа	-10.5592
99	-10.5593
▁установили	-10.5594
▁ресторан	-10.5598
▁Бог	-10.5599
▁Рай	-10.5599
▁петербургск	-10.5599
▁продать	-10.56
▁называется	-10.56
▁начался	-10.5602
▁привлек	-10.5609
▁основа	-10.5615
▁отправил	-10.5618
▁требуется	-10.5621
вис	-10.5621
▁чувств	-10.5628
ица	-10.5631
▁рок	-10.5632
▁девяти	-10.5633
▁Турцией	-10.5636
▁большинства	-10.5636
▁традиции	-10.5636
▁горожан	-10.5636
▁одержал	-10.5636
▁альбом	-10.5636
▁Роберт	-10.5636
▁текущем	-10.5639
начала	-10.5645
▁ставку	-10.5646
▁комфорт	-10.565
▁Путину	-10.5654
ицы	-10.5657
▁художник	-10.5658
31	-10.5658
▁Мед	-10.566
▁понял	-10.5663
▁заказчик	-10.5664
ированы	-10.5666
▁решила	-10.567
инга	-10.567
▁воздушно	-10.5671
▁возможных	-10.5671
нском	-10.5672
▁кодекс	-10.5675
▁отбор	-10.568
ивая	-10.568
цки	-10.5683
▁счастлив	-10.5685
▁рассматривать	-10.5686
Газете	-10.5686
▁охраны	-10.5686
▁Королев	-10.5687
▁Вас	-10.5688
▁исполнения	-10.5689
▁вернулся	-10.5689
▁десятков	-10.569
▁направление	-10.569
ge	-10.569
▁выполнения	-10.569
▁Тур	-10.5692
▁Буд	-10.5695
кли	-10.5696
▁американским	-10.5699
▁пик	-10.5701
гад	-10.5702
Русская	-10.5704
джа	-10.5704
щения	-10.5705
▁сообщали	-10.5711
▁карьеру	-10.5713
▁база	-10.5715
▁поставить	-10.5715
▁войну	-10.5717
реж	-10.572
без	-10.5726
▁врачи	-10.5728
▁инициативы	-10.5731
▁Париж	-10.5732
первые	-10.5735
▁Большинство	-10.5735
▁патриарх	-10.5735
▁Грузии	-10.5735
▁поясняет	-10.5736
▁звук	-10.5736
▁показателя	-10.5736
▁птиц	-10.5737
вое	-10.5739
▁старший	-10.5739
▁Улюкаев	-10.574
▁селе	-10.574
▁2006	-10.5743
▁завтра	-10.5744
37	-10.5746
▁$4	-10.5746
▁принимает	-10.5747
▁20-	-10.5748
ve	-10.5754
▁кот	-10.5755
ивают	-10.5759
-5	-10.5761
▁огне	-10.5762
▁парад	-10.5763
▁используют	-10.5767
▁общественны	-10.577
▁перспективе	-10.577
месячн	-10.5771
▁выкуп	-10.5773
▁юн	-10.5775
▁признали	-10.5776
▁продолж	-10.578
АЗ	-10.5781
▁заработал	-10.5781
Амур	-10.5781
▁вынес	-10.5781
▁договоренности	-10.5786
▁музей	-10.5786
▁оппонент	-10.5786
▁редактор	-10.5786
▁собственных	-10.5786
▁Следственны	-10.5786
▁единственный	-10.5786
▁завоевал	-10.5786
▁ФРГ	-10.5786
▁выставки	-10.5789
спорт	-10.5789
зия	-10.579
▁играх	-10.579
▁Казахстан	-10.5792
ca	-10.5799
▁футбольны	-10.5804
▁сборную	-10.5805
▁политические	-10.5806
▁разрушен	-10.5811
дорожного	-10.5811
▁привел	-10.5811
▁редко	-10.5812
▁газете	-10.5813
звать	-10.5814
▁полета	-10.5815
▁ожидает	-10.5817
▁ушел	-10.582
▁введение	-10.5822
орд	-10.5825
ir	-10.5826
офф	-10.5831
▁упомина	-10.5832
▁показания	-10.5841
▁открыть	-10.5843
носил	-10.5844
ite	-10.5849
▁школу	-10.5849
ходили	-10.5852
▁ссыла	-10.5853
▁замглав	-10.5855
жки	-10.5859
▁фильмов	-10.5863
▁поселке	-10.5867
дзе	-10.5868
-10	-10.5868
Больш	-10.5869
▁рек	-10.587
▁поведение	-10.587
▁инвестор	-10.5871
вторых	-10.5871
▁законодательн	-10.5873
емые	-10.5873
▁Ван	-10.5878
▁товары	-10.5882
▁напрямую	-10.5887
▁российскую	-10.5887
▁участки	-10.5887
▁Особенно	-10.5887
▁никакой	-10.5888
▁построить	-10.5889
мут	-10.5889
▁признался	-10.5894
▁Сбербанка	-10.5895
▁2005	-10.5897
▁разведки	-10.5898
▁опять	-10.5898
ушка	-10.59
▁2000	-10.5901
,1%	-10.5902
▁собственник	-10.5902
чник	-10.5902
▁направления	-10.5905
ьте	-10.5905
▁прибор	-10.5907
▁открыли	-10.5909
▁Великой	-10.5913
▁40%	-10.5916
▁Узбекистана	-10.5917
▁супруг	-10.5918
▁экспорта	-10.5918
,3%	-10.5919
▁колес	-10.592
▁Ста	-10.5921
▁терроризмом	-10.5921
одно	-10.5926
▁развивать	-10.5927
служив	-10.5927
▁пришла	-10.593
▁миллион	-10.5932
▁Матвиенко	-10.5938
▁Следствие	-10.5938
▁восстановить	-10.5938
▁компенсации	-10.5938
▁добычу	-10.5938
▁сердце	-10.5938
▁вдвое	-10.5938
▁Кореи	-10.594
▁случайно	-10.594
02	-10.5941
▁страх	-10.5942
▁самолеты	-10.5943
▁Каждый	-10.5943
▁детских	-10.5943
▁худ	-10.5943
▁скорости	-10.5945
▁Кузнецов	-10.5946
▁Тар	-10.5946
эль	-10.5947
щую	-10.5947
▁потенциальны	-10.5947
вшаяся	-10.5956
▁поставил	-10.5956
маркет	-10.5957
▁общий	-10.5957
▁спортсмены	-10.5957
▁востоке	-10.5958
▁Бес	-10.5959
овича	-10.5968
▁третьего	-10.5968
▁30-	-10.5977
▁Ярослав	-10.598
▁негативно	-10.5983
▁моно	-10.5986
ne	-10.5987
соедини	-10.5987
▁постоянн	-10.5988
▁периода	-10.5989
▁Директор	-10.5989
▁ОБСЕ	-10.5989
▁библиотек	-10.5989
▁приобрел	-10.5989
▁стадии	-10.5989
▁коллектор	-10.5989
▁кстати	-10.599
▁проверить	-10.5992
▁фестиваль	-10.5992
▁относятся	-10.5997
▁финансового	-10.5998
▁правительству	-10.6001
▁вынесен	-10.6007
▁журнала	-10.6013
▁международном	-10.6014
▁продавать	-10.6019
▁агентству	-10.6023
▁успешн	-10.6031
▁судей	-10.6031
▁экипаж	-10.6032
▁указан	-10.6034
▁прогресс	-10.6039
j	-10.6041
▁участке	-10.6041
▁федеральный	-10.6041
▁технология	-10.6041
бал	-10.6041
▁русского	-10.6041
очку	-10.6046
▁обеспечен	-10.6046
▁выступление	-10.6048
▁разрешения	-10.6049
▁играет	-10.6055
▁Никол	-10.6056
▁усилен	-10.6059
▁боксер	-10.606
▁Российского	-10.6061
▁регистр	-10.6064
жить	-10.6065
▁прекращени	-10.6067
▁законом	-10.6067
▁шар	-10.6069
▁бытов	-10.6069
▁стоял	-10.6075
▁выходит	-10.6075
яют	-10.6076
пром	-10.6076
▁Олега	-10.6077
);	-10.6081
▁отдых	-10.6082
▁Зам	-10.6082
▁настроен	-10.6084
▁Ma	-10.6088
▁Ак	-10.6089
▁исполнил	-10.6093
▁строительстве	-10.6093
▁шоссе	-10.6093
▁капитан	-10.6093
▁стратегии	-10.6094
▁покинул	-10.6095
▁концов	-10.6096
тал	-10.6097
▁находиться	-10.6098
▁тема	-10.6099
говарива	-10.61
▁верх	-10.6102
▁просил	-10.6106
чество	-10.6107
мышлен	-10.6111
▁высоким	-10.6113
▁иска	-10.6118
▁Какие	-10.6118
▁минувше	-10.6119
сил	-10.6124
▁Вене	-10.6124
▁полет	-10.6127
▁языка	-10.6129
▁уступил	-10.6138
▁Руководител	-10.6145
▁отвечает	-10.6145
▁площадке	-10.6145
▁дежур	-10.6145
▁современных	-10.6145
▁появление	-10.6145
▁Руслан	-10.6146
▁Мосул	-10.6147
▁исследование	-10.615
▁Украиной	-10.6155
▁Каз	-10.6162
▁значительны	-10.6168
▁набор	-10.6169
▁успеха	-10.617
▁цену	-10.6172
▁аналог	-10.6176
▁Лю	-10.6184
изирован	-10.6185
▁Гран	-10.6187
▁жена	-10.6187
▁составлял	-10.6188
▁ремонта	-10.619
▁медицинских	-10.6191
▁шла	-10.6193
бри	-10.6193
▁местной	-10.6193
▁Бельгии	-10.6197
▁Севастополя	-10.6197
▁сотрудничестве	-10.6197
▁лучшим	-10.6197
▁развитии	-10.6197
▁Дэвид	-10.6197
▁пойдет	-10.6198
▁Самолет	-10.6199
▁глаза	-10.6201
▁рассмотрения	-10.6202
▁влияния	-10.6203
ly	-10.6203
▁проекту	-10.6204
цер	-10.6204
▁спасти	-10.6206
▁2004	-10.6207
ывая	-10.6207
▁ядерны	-10.6207
▁сделано	-10.6212
83	-10.6213
ex	-10.6216
81	-10.6221
▁производителя	-10.6221
▁следственно	-10.6223
▁весной	-10.6229
▁сказано	-10.6232
▁изменение	-10.6233
▁детск	-10.6237
▁посольства	-10.6239
▁Кавказ	-10.6245
▁Комитета	-10.6245
▁отмечал	-10.6248
▁Документ	-10.625
▁немедленно	-10.625
▁Госдуме	-10.625
▁Валентина	-10.625
▁водителей	-10.625
▁Южно	-10.6251
▁малыш	-10.6252
▁правительством	-10.6252
▁Ангел	-10.6253
▁Черн	-10.6253
▁Мэр	-10.6255
▁рейтинга	-10.6259
▁АТО	-10.6266
▁офицер	-10.6267
▁РЖД	-10.627
▁кос	-10.6271
▁49	-10.6272
▁получается	-10.6274
▁Американски	-10.6277
▁полос	-10.6278
▁угрозой	-10.6278
▁моста	-10.6279
▁президентских	-10.6286
▁43	-10.6286
▁стратегическ	-10.6288
▁запрещена	-10.6288
▁управлением	-10.6288
▁студентов	-10.6291
▁религиозн	-10.6292
▁оставить	-10.6292
▁известных	-10.6293
▁креп	-10.6298
▁Роспотребнадзор	-10.6303
▁Работа	-10.6303
▁выйдет	-10.6303
▁Нужно	-10.6304
▁минус	-10.6307
▁зарубежных	-10.6307
▁высокий	-10.6308
шив	-10.6308
▁безусловно	-10.631
▁дорожно	-10.6311
▁черт	-10.6312
уха	-10.6324
кас	-10.6329
▁выступили	-10.6329
▁роз	-10.6331
▁отца	-10.6339
▁долгосрочн	-10.6341
▁Z	-10.6345
▁матчей	-10.6345
▁мил	-10.6348
▁инициативу	-10.6349
▁бит	-10.6355
Ли	-10.6356
▁предупредил	-10.6356
▁строительству	-10.6356
▁большого	-10.6356
▁хуже	-10.6356
▁группировка	-10.6356
▁инициативе	-10.6358
▁представлены	-10.6359
▁полуфинал	-10.6359
эм	-10.6361
▁инвалид	-10.6362
▁журнал	-10.6362
▁разруш	-10.6364
▁охот	-10.6364
▁продюсер	-10.6366
▁бывших	-10.6367
▁улучш	-10.6367
id	-10.6368
▁изъят	-10.6368
▁обязан	-10.6371
▁занимаются	-10.6373
▁начинают	-10.6379
▁мама	-10.6379
▁продолжить	-10.6381
▁английск	-10.6382
▁передал	-10.6383
▁полезны	-10.6383
хоз	-10.6383
▁Урал	-10.6384
▁пристав	-10.6385
▁жителям	-10.6388
Реал	-10.6395
▁Новгород	-10.6397
▁население	-10.6397
06	-10.6398
дес	-10.6402
▁иностран	-10.6403
▁низко	-10.6405
▁Зи	-10.6407
▁Оста	-10.6407
▁Mercedes	-10.6409
▁WSJ	-10.6409
▁земля	-10.6409
▁тебя	-10.6409
▁многим	-10.6409
▁характера	-10.6414
▁объемы	-10.6418
Йорке	-10.642
▁ну	-10.6421
▁базу	-10.6427
▁медали	-10.6427
▁предоставлени	-10.6427
Бо	-10.6427
▁глаз	-10.6427
▁режиссера	-10.6428
▁целей	-10.6431
▁опроса	-10.6433
▁подключ	-10.6434
щики	-10.6442
▁Май	-10.6446
Оскар	-10.6451
▁здоровье	-10.6453
▁Кост	-10.6455
▁преодоле	-10.6456
▁урок	-10.6459
▁сирийского	-10.646
▁высше	-10.646
дача	-10.6461
▁Автор	-10.6462
▁создает	-10.6463
▁Адвокат	-10.6463
▁корабля	-10.6463
▁пистолет	-10.6463
▁Латвии	-10.6463
▁архив	-10.6463
▁случаи	-10.6463
▁оценку	-10.6463
▁будто	-10.6463
▁глубин	-10.6463
вались	-10.6465
▁Государственно	-10.6465
▁поэт	-10.6467
пали	-10.6467
Олимп	-10.647
▁международный	-10.647
шат	-10.6472
лас	-10.6474
▁1,2	-10.6477
▁Фонд	-10.648
▁организатор	-10.6482
Бел	-10.6483
▁создавать	-10.6489
▁перемен	-10.6492
▁глубоко	-10.6495
ЭК	-10.6499
▁поврежден	-10.6502
▁передать	-10.6502
это	-10.6504
писал	-10.6504
гл	-10.6507
ологии	-10.6508
ледственного	-10.6509
ставят	-10.6512
АК	-10.6512
манов	-10.6513
▁произошедшего	-10.6518
▁наверное	-10.6518
▁преступление	-10.6518
mo	-10.6518
▁авторов	-10.6519
тина	-10.6519
▁сокращения	-10.652
2%	-10.652
▁изменил	-10.6521
▁цикл	-10.6522
▁запущен	-10.6524
▁спад	-10.6527
▁оказывается	-10.6527
хозяйственн	-10.6529
шкин	-10.6532
▁медицински	-10.6533
▁готовится	-10.6538
▁бомбардировщик	-10.6541
▁связана	-10.6543
читать	-10.6557
▁Северо	-10.6557
дина	-10.6561
▁отметив	-10.6562
▁внешней	-10.6564
медицинск	-10.6568
▁случилось	-10.6571
▁аренду	-10.6572
▁узнать	-10.6572
▁Христ	-10.6572
▁похищен	-10.6572
▁выводу	-10.6573
▁состояния	-10.6573
▁окна	-10.6574
Башнефт	-10.6578
ложения	-10.658
▁составили	-10.6585
▁Главно	-10.6587
▁цвета	-10.6588
▁банке	-10.659
▁примут	-10.659
▁акциз	-10.659
33	-10.6591
▁внести	-10.6592
▁оказаться	-10.6592
▁гражданина	-10.6592
▁Первая	-10.6594
▁прокурора	-10.6594
▁олимпийски	-10.6594
▁игре	-10.6597
ng	-10.6599
▁c	-10.66
▁преду	-10.6601
пира	-10.6602
▁слыш	-10.6602
ивается	-10.6604
Ни	-10.6605
▁мечта	-10.6609
▁находя	-10.6609
▁Рады	-10.6625
▁Bloomberg	-10.6626
▁Америке	-10.6626
▁Позднее	-10.6626
▁позволяют	-10.6626
▁Уголовно	-10.6626
▁Число	-10.6626
▁относится	-10.6626
това	-10.6626
▁величин	-10.6626
шения	-10.6627
04	-10.6627
Ин	-10.6628
▁инвесторы	-10.6628
▁стихи	-10.663
▁опасности	-10.663
▁пойти	-10.6631
▁Союз	-10.6632
дели	-10.6634
▁органами	-10.6635
▁рассмотрение	-10.6636
▁сообщества	-10.6636
▁вошел	-10.664
▁Европейского	-10.6645
▁билет	-10.6648
Да	-10.6648
▁иранск	-10.6649
▁предвыборной	-10.6651
▁Сар	-10.6652
▁риски	-10.6654
▁обнаружены	-10.6655
▁регионы	-10.6655
▁хозяйств	-10.6656
▁пациентов	-10.6656
информ	-10.6658
▁выбрать	-10.6664
▁Велик	-10.6664
АН	-10.6666
-8	-10.6669
na	-10.6674
▁дав	-10.668
‐	-10.6681
▁ожидаем	-10.6681
▁любви	-10.6681
▁необычн	-10.6681
▁Соколов	-10.6682
▁экономические	-10.6683
▁собрания	-10.6691
▁Пекин	-10.6695
▁очка	-10.6702
▁Приморск	-10.6705
▁страниц	-10.6706
чика	-10.6707
РА	-10.6707
▁целый	-10.671
час	-10.6712
▁закончил	-10.6712
▁рассчитывает	-10.6714
▁парка	-10.6716
▁запуска	-10.6716
▁участвовал	-10.6716
▁друзья	-10.6718
42	-10.6721
▁американском	-10.6724
▁процедуры	-10.6725
▁адвоката	-10.6727
▁руку	-10.673
87	-10.6733
шиб	-10.6734
▁начиная	-10.6736
Аэрофлот	-10.6736
▁Boeing	-10.6736
▁СИЗО	-10.6736
▁заболеваний	-10.6736
▁утвердил	-10.6736
▁МВФ	-10.6736
▁конгресс	-10.6736
▁предоставил	-10.6736
▁дебют	-10.6736
▁лучшие	-10.6736
▁волонтер	-10.6736
▁единственным	-10.6736
▁покупки	-10.6737
▁европейской	-10.6737
▁следующего	-10.6737
▁давления	-10.6737
▁нравится	-10.6737
▁понимаю	-10.6739
▁робот	-10.6739
▁Нескольк	-10.6739
▁концерн	-10.6741
▁Первы	-10.6741
▁объединения	-10.6742
щего	-10.6747
▁рассказ	-10.6748
Союз	-10.6748
▁возврат	-10.6753
менять	-10.6753
▁дат	-10.6753
▁действовал	-10.6759
▁напротив	-10.6759
▁создана	-10.6762
▁рубль	-10.6763
36	-10.6765
▁расп	-10.6765
служит	-10.6766
▁норматив	-10.6766
енную	-10.6771
вия	-10.6779
изацию	-10.678
▁финальн	-10.6782
▁приобрет	-10.6782
пост	-10.6784
▁платы	-10.6786
▁работали	-10.679
▁Станислав	-10.6792
▁Янукович	-10.6792
▁ежедневно	-10.6792
▁героя	-10.6792
▁оценить	-10.6792
▁сетях	-10.6792
▁знать	-10.6792
▁составить	-10.6793
▁дорогу	-10.6795
▁реализацию	-10.6802
▁доверия	-10.6803
75	-10.6805
▁создал	-10.6807
▁перспективы	-10.6808
ори	-10.6812
▁пес	-10.6813
▁уничтож	-10.6814
▁понимать	-10.6815
▁думск	-10.6815
▁Пра	-10.6818
боль	-10.6819
34	-10.6821
▁проиграл	-10.6822
▁ликвидации	-10.6823
▁приход	-10.6826
▁проходить	-10.683
как	-10.6831
пот	-10.6832
▁банд	-10.684
▁политиков	-10.6846
▁добавила	-10.6847
▁хакер	-10.6847
▁Губернатор	-10.6848
▁досрочно	-10.6848
▁очереди	-10.6848
▁ожидания	-10.6848
▁подозреваемого	-10.6848
▁Причиной	-10.6848
▁жилищно	-10.6848
▁хлеб	-10.6848
▁переговорах	-10.6853
▁золота	-10.6853
▁одни	-10.6856
уса	-10.6856
▁заняла	-10.6856
▁доклада	-10.686
нке	-10.6861
-24	-10.6861
пил	-10.6863
▁музыкально	-10.6864
▁осв	-10.6864
Ла	-10.6864
▁ограничива	-10.6865
▁полуострова	-10.6866
▁исполнение	-10.6868
▁референдума	-10.6868
▁муниципальных	-10.6875
Пер	-10.6876
йтесь	-10.688
нения	-10.6883
Ку	-10.6884
▁малого	-10.6886
▁трассе	-10.6888
▁стадиона	-10.6889
шир	-10.6895
▁опор	-10.6895
▁спортивно	-10.6895
di	-10.6897
Мар	-10.69
▁BMW	-10.6904
▁тюрьмы	-10.6904
▁христиан	-10.6904
▁обыграл	-10.6904
▁космос	-10.6904
▁учебно	-10.6904
▁близких	-10.6904
▁Минюст	-10.6904
ИГ	-10.6905
▁заработн	-10.6907
▁хороший	-10.691
▁применя	-10.6911
▁запретить	-10.6917
▁газов	-10.6917
гли	-10.6918
ируются	-10.6918
▁среды	-10.6921
берг	-10.6926
▁крупнейше	-10.6927
▁представ	-10.6928
▁15-	-10.6928
▁подписали	-10.6931
▁фронта	-10.6934
▁обвиняют	-10.6935
Спорт	-10.6939
▁стартовал	-10.6941
▁изменен	-10.6944
▁отдельны	-10.6946
▁Такой	-10.6948
▁передач	-10.6951
▁ресурс	-10.6952
▁угроза	-10.6955
▁использованием	-10.6957
▁передан	-10.6958
▁YouTube	-10.696
▁Встреча	-10.696
▁заморозк	-10.696
▁Джордж	-10.696
▁рассчитан	-10.6961
РК	-10.6961
▁позитив	-10.6964
ировка	-10.6966
ящие	-10.6967
▁Кат	-10.6971
▁выросло	-10.6971
▁Европейски	-10.6975
▁смертн	-10.6981
шняя	-10.6982
▁поднять	-10.6985
▁ярки	-10.6986
арт	-10.6991
▁туризма	-10.6992
▁ролик	-10.6994
▁Кли	-10.6998
▁менять	-10.6999
рио	-10.6999
▁вылет	-10.7
Газпрома	-10.7002
здоров	-10.7005
свет	-10.7006
▁склон	-10.7009
▁Лен	-10.7009
▁добавляет	-10.7013
▁специальны	-10.7015
▁позиций	-10.7017
▁смягч	-10.7017
Манчестер	-10.7017
▁подготовку	-10.7017
▁наличии	-10.7017
Коммерсантъ	-10.7018
▁знаем	-10.7018
▁вокзал	-10.7018
▁скромн	-10.702
▁передаче	-10.7023
▁хорошие	-10.7023
▁номера	-10.7023
▁командой	-10.7024
▁новинк	-10.7027
ставлять	-10.7029
▁усили	-10.7031
▁подозрева	-10.7033
▁банковской	-10.7036
▁обязательны	-10.7041
▁чисто	-10.7042
▁какая	-10.7051
▁Мур	-10.7052
кажут	-10.7053
▁Север	-10.7055
▁миссии	-10.7056
▁преступник	-10.706
▁шок	-10.7063
▁Минфина	-10.7064
вз	-10.7064
▁службе	-10.7066
▁стоимостью	-10.7072
▁зданий	-10.7074
▁максимум	-10.7074
▁оплаты	-10.7074
▁организацией	-10.7074
▁пользоваться	-10.7074
▁сердца	-10.7074
▁столкновения	-10.7074
▁утверждал	-10.7074
▁энергии	-10.7074
▁взыскани	-10.7074
▁форвард	-10.7074
▁мандат	-10.7075
▁Москвой	-10.7075
▁фанат	-10.7076
zr	-10.7076
▁улица	-10.7077
▁соревнования	-10.7084
▁ваши	-10.7085
едва	-10.7089
▁человеком	-10.7095
▁принципе	-10.7097
оруж	-10.7098
▁частных	-10.7101
▁восстановление	-10.7102
▁един	-10.7102
Ленты	-10.7107
▁женщину	-10.7109
▁разрешение	-10.711
▁Петербурга	-10.711
мисс	-10.7113
▁терроризм	-10.712
▁французско	-10.7121
▁понимает	-10.7123
казать	-10.7123
▁брать	-10.7123
▁закупк	-10.713
▁крушения	-10.7132
▁Аравия	-10.7132
▁катастрофы	-10.7133
-154	-10.7133
▁звание	-10.7134
▁ослаб	-10.7135
▁острове	-10.7136
▁сцене	-10.7137
▁затрат	-10.7137
мира	-10.7138
▁зон	-10.7138
▁составляют	-10.714
▁Чем	-10.7141
▁жир	-10.7142
▁западных	-10.7142
▁месту	-10.7142
евский	-10.7143
нными	-10.7145
▁получилось	-10.7147
▁Гра	-10.7148
сервис	-10.7149
▁строить	-10.715
▁националист	-10.7151
▁исходя	-10.7153
▁человеку	-10.7156
▁моя	-10.7156
▁исполнитель	-10.7158
▁корпус	-10.7161
▁зим	-10.7162
▁заключа	-10.7162
▁перес	-10.7162
сети	-10.7165
▁Советск	-10.7166
нную	-10.7167
лять	-10.7175
▁прекрасн	-10.7175
▁сотрудника	-10.7176
▁общественной	-10.7177
▁будущи	-10.7181
▁указывает	-10.7182
▁флот	-10.7182
▁одобрен	-10.7183
дачу	-10.7186
▁наше	-10.7187
▁фа	-10.7187
▁улицах	-10.7188
▁забил	-10.7188
і	-10.719
▁впоследствии	-10.719
▁урегулирования	-10.719
▁авиаудар	-10.719
▁следователи	-10.719
▁акцию	-10.719
▁недвижимость	-10.719
▁выполнить	-10.7191
▁драм	-10.7191
▁обратились	-10.7194
▁остальных	-10.7196
ником	-10.7196
оваться	-10.7196
▁специальн	-10.72
▁субъект	-10.7203
▁ущерба	-10.7204
▁поддержали	-10.7205
губернатор	-10.7207
▁поездки	-10.7208
сторон	-10.7208
▁принес	-10.7209
go	-10.7209
▁месяцы	-10.7211
▁&	-10.7211
▁био	-10.7214
▁конкурсе	-10.7214
▁севере	-10.7216
Та	-10.722
кую	-10.722
▁другая	-10.7224
неж	-10.7226
рия	-10.7229
▁взяла	-10.723
черк	-10.7232
▁минувши	-10.7233
атора	-10.7234
▁праздничн	-10.7234
▁скорость	-10.724
85	-10.7247
▁Минэкономики	-10.7248
▁Участники	-10.7248
▁Швеции	-10.7248
▁добавив	-10.7248
▁комментировать	-10.7248
▁попытке	-10.7248
▁пространства	-10.7248
▁девочка	-10.7248
▁наблюдения	-10.7248
▁приостановлен	-10.7248
▁свин	-10.725
▁содержания	-10.725
▁След	-10.7252
▁ребят	-10.7255
▁определил	-10.7255
▁мысли	-10.7257
▁туре	-10.7258
▁функции	-10.7259
▁кодекса	-10.726
▁обсуждение	-10.7261
▁пересмотр	-10.7261
▁освобожден	-10.7264
▁бюджетны	-10.7271
лева	-10.7273
▁бесплатн	-10.7273
▁риска	-10.7278
▁воздушного	-10.7279
▁десятка	-10.7282
▁машине	-10.7283
тру	-10.7285
▁дизайнер	-10.7293
▁надежду	-10.7294
▁детали	-10.7296
проект	-10.7299
▁зону	-10.7301
▁полит	-10.7302
▁сложи	-10.7303
▁снос	-10.7303
▁призван	-10.7303
▁большинстве	-10.7306
▁муниципалитет	-10.7306
▁соответствующие	-10.7306
▁партию	-10.7306
▁откуда	-10.7307
▁портрет	-10.7307
▁возможностей	-10.7309
▁напитк	-10.731
▁хотелось	-10.7311
38	-10.7313
▁оружием	-10.7313
▁салон	-10.7315
▁космически	-10.7316
▁преимущество	-10.7318
От	-10.7319
▁Фо	-10.732
▁улиц	-10.732
▁размещения	-10.732
▁Хабаровск	-10.7321
▁допустил	-10.7324
▁инициатив	-10.7325
пустить	-10.7326
Авто	-10.7328
тест	-10.7328
▁областно	-10.7329
ходы	-10.733
▁воздух	-10.7334
орган	-10.7335
▁рынках	-10.7335
▁ветеран	-10.7338
▁исламист	-10.7338
чку	-10.7342
▁активность	-10.7342
▁судна	-10.7345
▁5%	-10.7346
▁кредитор	-10.7348
▁уточняет	-10.735
▁энергетическ	-10.7355
▁бол	-10.7356
антов	-10.736
▁пла	-10.7361
▁дорогах	-10.7362
▁показ	-10.7364
▁алкоголя	-10.7365
▁собственные	-10.7365
▁Англии	-10.7365
▁Василий	-10.7365
▁последней	-10.7365
▁наследия	-10.7365
▁ожидал	-10.7366
живать	-10.7366
▁страхования	-10.7367
▁значения	-10.7367
▁выставка	-10.7371
▁остаться	-10.7372
52	-10.7374
▁Жан	-10.7374
▁дизайн	-10.7379
▁поселка	-10.738
▁каса	-10.738
вил	-10.7381
ющейся	-10.7382
Но	-10.7383
▁жар	-10.7387
▁производитель	-10.739
стон	-10.739
экономически	-10.7391
тера	-10.7391
▁ответить	-10.7392
шую	-10.7393
нис	-10.7396
▁Азербайджан	-10.7397
▁Эль	-10.7401
▁написала	-10.7402
▁стоя	-10.7402
▁Кра	-10.7405
▁чьи	-10.7406
▁Фе	-10.7406
▁популярность	-10.7411
▁даст	-10.7413
▁интересах	-10.7416
▁Дж	-10.742
мея	-10.7423
▁девушки	-10.7424
―	-10.7424
▁болезни	-10.7424
▁Стр	-10.7431
▁центров	-10.7431
▁остров	-10.7431
▁квадратны	-10.7432
▁медаль	-10.7433
▁вкладов	-10.7436
▁платежей	-10.7438
▁стрельб	-10.7438
▁официальной	-10.7442
▁розничн	-10.7443
▁отменен	-10.7446
▁полученных	-10.7448
газ	-10.7451
▁Друг	-10.7452
▁третьей	-10.7452
ow	-10.7453
▁разрыв	-10.7455
▁летчик	-10.7457
дит	-10.7461
▁электронной	-10.7465
va	-10.7468
нина	-10.7469
▁Николаев	-10.7483
▁Австралии	-10.7484
▁Смоленск	-10.7484
▁академии	-10.7484
▁аргумент	-10.7484
▁друзей	-10.7484
▁конкуренции	-10.7484
▁одежды	-10.7484
▁инвестиции	-10.7484
▁топливо	-10.7484
▁спирт	-10.7484
▁надеется	-10.7485
▁нужен	-10.7486
▁отставке	-10.7486
▁повысить	-10.7486
ившего	-10.7487
▁планеты	-10.7489
▁плеч	-10.749
"?	-10.7491
▁увеличения	-10.7492
▁ареста	-10.7493
▁Белого	-10.7494
49	-10.7495
▁банковских	-10.7495
▁родственников	-10.7496
▁53	-10.7497
ьная	-10.7498
▁700	-10.7498
▁спецслужбы	-10.75
▁разрабатыва	-10.75
▁строит	-10.7502
▁сервиса	-10.7505
▁прокомментирова	-10.7505
▁открытие	-10.7505
▁Одно	-10.7506
▁тщательно	-10.7507
▁57	-10.7511
▁Хан	-10.7511
▁Азербайджана	-10.7512
факт	-10.7514
евым	-10.7519
сня	-10.752
▁собрать	-10.7522
▁рассматривает	-10.7524
43	-10.7527
▁Эн	-10.7527
авто	-10.7529
▁картина	-10.753
▁узнал	-10.7534
▁группой	-10.7536
▁Ев	-10.754
▁3,5	-10.7543
▁руководству	-10.7544
▁недалеко	-10.7544
▁разобраться	-10.7544
▁кафе	-10.7544
▁взлом	-10.7545
▁остановил	-10.7545
▁Ирака	-10.7546
пен	-10.7549
шков	-10.755
op	-10.755
▁клиник	-10.7551
▁ред	-10.7552
▁Специалисты	-10.7554
▁Член	-10.7556
▁Ким	-10.7557
▁анализа	-10.7557
▁специальные	-10.7561
▁видели	-10.7561
кос	-10.7562
▁созыва	-10.7562
елей	-10.757
▁25-	-10.7574
гло	-10.7575
▁социального	-10.7575
▁Попов	-10.7576
▁активны	-10.7576
ившись	-10.7577
▁фигурант	-10.7578
▁спортивных	-10.7584
▁Вар	-10.7586
▁дач	-10.7586
▁Было	-10.7587
▁стратегических	-10.7589
▁стартов	-10.7591
▁выходные	-10.7591
вшимся	-10.7595
жит	-10.7596
▁закрыл	-10.7596
сок	-10.7596
▁получ	-10.7597
▁практике	-10.7597
▁стрел	-10.76
▁автомобиле	-10.7602
▁борьба	-10.7604
▁Мужчина	-10.7604
▁девочки	-10.7604
▁покупку	-10.7604
▁мясо	-10.7605
▁выявил	-10.7605
▁оставаться	-10.7606
▁тренд	-10.7607
▁возбуждени	-10.7608
▁Павла	-10.761
▁купил	-10.7611
▁Ген	-10.7612
▁препарат	-10.7616
48	-10.7618
▁сел	-10.7622
03	-10.7628
▁днях	-10.7629
▁здорово	-10.7637
▁Зо	-10.7637
цвет	-10.7639
▁субъектов	-10.7641
▁внесени	-10.7642
▁выполнение	-10.7648
скорб	-10.7652
ысокопоставленны	-10.7652
▁сроком	-10.7654
▁государством	-10.7658
▁необходимых	-10.7663
▁инспектор	-10.7665
▁комментарии	-10.7665
▁соцсетях	-10.7665
▁актриса	-10.7665
▁рынки	-10.7665
▁версию	-10.7665
▁учреждений	-10.7665
▁установки	-10.7665
▁сессии	-10.7665
▁покупать	-10.7665
▁дисциплин	-10.7666
▁сетей	-10.7668
▁Новак	-10.7668
▁такими	-10.7669
Извести	-10.767
▁отменил	-10.767
ck	-10.7671
учить	-10.7674
▁рассчитывать	-10.7674
▁военную	-10.7675
▁личности	-10.7676
▁Рак	-10.7679
спор	-10.768
ry	-10.7682
▁Московский	-10.7684
▁страховы	-10.7687
▁широк	-10.7692
▁благодар	-10.7693
▁намного	-10.7697
▁учения	-10.7698
▁началом	-10.7699
▁15%	-10.7708
▁страной	-10.7708
исто	-10.7708
▁достигл	-10.7717
tor	-10.7721
▁видеть	-10.7722
▁площадки	-10.7725
▁рекомендовал	-10.7725
▁реконструкции	-10.7725
▁индивидуальны	-10.7726
▁востребован	-10.7726
▁перемирия	-10.7726
▁разработчик	-10.7726
▁отменить	-10.7726
▁распределен	-10.7726
▁учителя	-10.7726
▁свидетельствуют	-10.7727
▁Заместител	-10.7727
▁Пушкин	-10.7728
▁продолжал	-10.773
▁эффективности	-10.7733
▁ставок	-10.7734
▁АЭС	-10.7735
ханов	-10.7737
▁километр	-10.7738
▁двигателя	-10.7739
▁Йо	-10.774
Вы	-10.7743
▁кара	-10.7744
▁ГК	-10.7745
Краснодар	-10.7749
▁кандидатур	-10.775
▁направлений	-10.775
▁сторонников	-10.7752
77	-10.7757
▁тво	-10.7759
▁предвыборн	-10.7759
▁Сад	-10.776
▁наблюдал	-10.7762
▁ВС	-10.7765
▁Надежда	-10.7767
рост	-10.7767
▁приглашен	-10.7769
▁техническо	-10.7769
▁пояснила	-10.7774
вари	-10.7775
▁честно	-10.7776
▁вагон	-10.7776
▁62	-10.7776
▁игрок	-10.7777
ot	-10.7778
технолог	-10.7779
▁Сил	-10.778
▁Майкл	-10.778
нули	-10.7782
▁Ян	-10.7786
крывает	-10.7786
▁Швейцарии	-10.7787
▁корпорации	-10.7787
▁областях	-10.7787
▁организовать	-10.7787
▁последствий	-10.7787
▁экзамен	-10.7787
▁известен	-10.7787
▁ипотечн	-10.7787
▁защитить	-10.7788
▁Около	-10.7788
▁молодые	-10.7798
льной	-10.78
▁получал	-10.78
▁2015-	-10.7802
▁формы	-10.7803
▁мирных	-10.7803
od	-10.7806
▁Главное	-10.7811
льную	-10.7811
чики	-10.7811
Урал	-10.7813
▁жили	-10.7816
▁задержания	-10.7818
▁фермер	-10.7819
▁Интерфакс	-10.782
▁СУ	-10.7822
енное	-10.7822
▁речи	-10.7827
ушки	-10.7828
▁41	-10.783
вок	-10.7831
ования	-10.7831
▁выполнен	-10.7834
▁шум	-10.7837
▁компаниями	-10.784
▁препараты	-10.7841
чили	-10.7841
▁Запада	-10.7842
нное	-10.7842
авшие	-10.7843
96	-10.7845
▁Сто	-10.7847
▁Подмосковье	-10.7849
▁Республике	-10.7849
▁должник	-10.7849
▁поддержка	-10.7849
▁организовал	-10.7849
▁коридор	-10.7849
▁демонстраци	-10.7849
▁застройщик	-10.7849
▁ЗАО	-10.7849
▁важных	-10.785
▁выбран	-10.785
▁уверенность	-10.7852
"...	-10.7853
▁хочется	-10.7853
▁выступать	-10.7853
▁вторая	-10.7853
▁поднял	-10.7862
▁жест	-10.7862
▁терминал	-10.7863
▁больниц	-10.7863
▁ограничений	-10.7866
цкого	-10.7867
▁турнире	-10.7868
▁гг	-10.7869
▁(4	-10.7869
▁мозга	-10.7869
▁отправля	-10.787
▁экономист	-10.787
чева	-10.7872
▁главная	-10.7875
▁функци	-10.7875
2)	-10.7881
▁ближе	-10.7882
очный	-10.7883
▁покида	-10.7884
▁причинам	-10.7888
▁завершить	-10.7889
▁нефте	-10.7893
▁проголосовали	-10.7893
▁внутренней	-10.7894
дневн	-10.7895
▁направля	-10.7896
▁Орлов	-10.7897
▁гроз	-10.7898
▁призер	-10.7898
▁кадр	-10.79
▁согласи	-10.7901
▁располага	-10.7901
▁возобновлен	-10.7904
▁пенсионны	-10.7905
▁разве	-10.7906
▁доступа	-10.7907
▁угрожа	-10.7907
44	-10.7908
кажет	-10.791
▁воспользоваться	-10.7911
▁делегации	-10.7911
▁Реджеп	-10.7911
▁выполнил	-10.7911
▁лучший	-10.7911
▁наблюдается	-10.7911
▁классическ	-10.7911
▁намечен	-10.7911
▁Mail	-10.7911
▁рассмотреть	-10.7912
▁росту	-10.7912
▁представляют	-10.7912
▁социальные	-10.7917
АД	-10.7919
▁западн	-10.7921
▁ша	-10.7923
▁Асад	-10.7923
▁Цель	-10.7924
телю	-10.7925
▁террористы	-10.7928
▁менеджер	-10.7933
▁активности	-10.7934
▁Рим	-10.7935
▁лекарства	-10.7936
▁подчеркнула	-10.7936
▁провод	-10.7936
▁FT	-10.7938
▁взнос	-10.7938
▁расширен	-10.794
ительных	-10.7945
вании	-10.7945
▁Наши	-10.7946
▁имели	-10.7946
держит	-10.7947
▁центральны	-10.7948
▁противоречи	-10.7954
▁Фонда	-10.7955
▁АиФ	-10.7955
▁объемов	-10.7961
▁официальным	-10.7962
56	-10.7963
▁зато	-10.7966
▁нашел	-10.7969
стри	-10.7969
настоящему	-10.7973
▁достичь	-10.7973
▁профсоюз	-10.7973
▁историк	-10.7973
▁серьезных	-10.7973
▁маневр	-10.7973
ВКонтакте	-10.7974
Ново	-10.7974
▁экономический	-10.7974
▁снизилась	-10.7974
мог	-10.7975
▁Больше	-10.7976
▁сюда	-10.7976
▁сообщ	-10.7977
▁важным	-10.7979
▁записи	-10.798
▁эксперта	-10.798
▁вуз	-10.7981
▁офшор	-10.7982
плоть	-10.7986
▁Vi	-10.7986
▁заряд	-10.7989
▁Le	-10.7989
▁$5	-10.799
▁возвращения	-10.799
▁сохранил	-10.799
os	-10.7992
▁возглавлял	-10.7993
▁дипломатически	-10.7995
▁Тра	-10.7997
▁защища	-10.7997
▁вызвал	-10.7997
шер	-10.7999
▁разным	-10.7999
▁линия	-10.8002
▁берегов	-10.8005
▁играл	-10.8006
▁вещества	-10.8006
ine	-10.8006
дания	-10.801
▁думал	-10.8011
пул	-10.8017
▁другую	-10.802
▁закрыть	-10.8024
▁72	-10.8025
▁хим	-10.8025
▁Медведева	-10.803
▁понимают	-10.8035
▁поезда	-10.8036
▁Отечественной	-10.8036
▁велосипед	-10.8036
▁заместителем	-10.8036
▁приобрести	-10.8036
▁Рамзан	-10.8036
▁страшно	-10.8036
▁сделка	-10.804
сказ	-10.8042
▁лиги	-10.8044
рвать	-10.8045
▁заводе	-10.8045
▁Стран	-10.8046
▁футбола	-10.8046
▁фраз	-10.8046
ступил	-10.8047
▁Тай	-10.8047
▁Оно	-10.8049
стать	-10.805
▁земельны	-10.8051
▁разработал	-10.8051
▁завис	-10.8051
▁миллиард	-10.8058
▁многое	-10.8058
▁просят	-10.8059
▁допустить	-10.8059
57	-10.8066
▁запрещенной	-10.8069
▁вода	-10.8069
▁Ираке	-10.808
▁жителя	-10.8081
▁начнут	-10.8083
очек	-10.8083
▁магазинов	-10.8087
▁полковник	-10.809
▁жительниц	-10.8091
профессионал	-10.8099
▁подростков	-10.8099
▁лагеря	-10.8099
▁турецких	-10.8099
Оренбург	-10.8099
▁Земли	-10.81
▁авиабаз	-10.81
▁русских	-10.81
▁Тайип	-10.81
▁квартала	-10.81
Организаци	-10.8101
▁согласился	-10.8102
▁Сен	-10.8102
бросил	-10.8106
▁добро	-10.811
▁самих	-10.8111
▁быстр	-10.8112
ha	-10.8115
▁Кер	-10.8119
▁ожидают	-10.8122
-3	-10.8122
▁остро	-10.8133
▁Жен	-10.8138
▁запустил	-10.8139
▁имеющих	-10.8141
ателей	-10.8141
▁аналитики	-10.8141
▁потребительски	-10.8144
▁отказыва	-10.8144
▁управля	-10.8146
76	-10.8148
▁финала	-10.8149
▁знач	-10.815
серьез	-10.8151
▁улицу	-10.8157
▁объяв	-10.8157
▁лауреат	-10.8163
▁подтверждает	-10.8163
▁пользователи	-10.8163
▁совещании	-10.8163
▁крымски	-10.8163
▁Екатеринбурге	-10.8164
▁двойн	-10.8167
▁возникает	-10.8167
▁рассказывал	-10.8168
▁танк	-10.8168
▁отказалась	-10.8169
▁использовали	-10.8169
▁респондентов	-10.8169
уров	-10.8169
▁международные	-10.8171
ительные	-10.8171
Все	-10.8172
▁чиновника	-10.8172
▁Омск	-10.8173
▁Алтайск	-10.8174
▁ранен	-10.8175
▁64	-10.8176
▁каждому	-10.8176
▁заинтересован	-10.8183
▁традиционны	-10.8184
▁татар	-10.8185
▁постановк	-10.8185
друг	-10.8187
ницей	-10.8194
▁цифры	-10.8195
▁оказать	-10.8196
летних	-10.8197
▁скорой	-10.8207
▁итог	-10.8207
стрем	-10.8208
▁Город	-10.8211
▁предложением	-10.8211
▁90-	-10.8213
▁предложила	-10.8215
▁ходатайство	-10.8215
▁саммита	-10.8216
▁называем	-10.8216
ФС	-10.8217
▁обещан	-10.8221
*	-10.8227
▁ФИФА	-10.8227
▁наркотиков	-10.8227
▁отреагировал	-10.8227
▁пожалуй	-10.8227
▁председателем	-10.8227
▁сообщество	-10.8227
▁пределами	-10.8227
▁Ro	-10.8229
цкая	-10.8229
▁городу	-10.8232
TV	-10.8232
▁рабочей	-10.8232
86	-10.8233
▁пишут	-10.8233
▁осталась	-10.8234
▁реальности	-10.8235
стоять	-10.8235
▁государственные	-10.8235
▁эксплуатации	-10.8238
▁Сирийск	-10.8238
nd	-10.8239
▁футболиста	-10.8243
▁сотрудникам	-10.8243
▁школа	-10.8246
▁ед	-10.8246
▁письме	-10.8247
▁образова	-10.8247
Мир	-10.8256
энерго	-10.8256
▁Ему	-10.8258
очного	-10.8263
▁контролем	-10.8264
▁чему	-10.8266
групп	-10.8267
▁свободно	-10.8268
▁грамот	-10.8269
▁называл	-10.8274
▁образовательн	-10.8276
▁демократов	-10.8276
▁полетов	-10.8277
▁Афганистан	-10.8278
▁Джона	-10.8279
▁деятельностью	-10.8279
▁оценил	-10.8281
▁знали	-10.8282
▁переворота	-10.8283
нимал	-10.8283
ac	-10.8284
▁отечественн	-10.8291
▁основного	-10.8292
▁шахмат	-10.8292
▁Лебедев	-10.8292
▁единоросс	-10.8292
▁выехал	-10.8293
▁сферы	-10.8293
▁ПАО	-10.8294
▁естественно	-10.8295
▁Гру	-10.8295
▁срочно	-10.8295
▁Европа	-10.8295
▁направить	-10.8296
▁выражении	-10.8296
▁правилам	-10.8297
▁физических	-10.8299
▁52	-10.83
▁подъезд	-10.83
▁государственный	-10.8301
▁двум	-10.8302
итесь	-10.8305
▁оригинальн	-10.8306
▁территория	-10.8309
▁мужчину	-10.8309
▁союзник	-10.8311
▁подрядчик	-10.8312
▁подробно	-10.8313
▁восстановлен	-10.8315
Транс	-10.8315
▁яр	-10.8316
▁составляла	-10.8316
▁участниками	-10.8316
▁любого	-10.8318
▁вспомина	-10.8318
▁Джи	-10.8322
Вести	-10.8323
▁торгово	-10.8323
▁Кот	-10.8325
▁литр	-10.8328
▁посеща	-10.833
ительный	-10.8333
лично	-10.8336
ell	-10.8336
ышев	-10.8337
▁Ок	-10.8338
▁готовность	-10.834
▁вузов	-10.834
▁Американск	-10.8349
▁персонаж	-10.835
тепл	-10.8351
бат	-10.8354
▁договоренностей	-10.8357
▁недавне	-10.8357
▁сценарий	-10.8357
▁авторитет	-10.8357
▁железнодорожно	-10.8357
▁посетителей	-10.8357
▁сделок	-10.8357
▁непросто	-10.8357
фабрик	-10.8357
▁Петербург	-10.8359
▁поражения	-10.836
▁замеча	-10.8361
▁дверь	-10.8361
▁нарушении	-10.8361
▁заявив	-10.8361
▁штук	-10.8361
▁учет	-10.8362
▁восстановления	-10.8363
▁высши	-10.8365
▁открыты	-10.8368
▁вопросом	-10.8376
▁уголовны	-10.8377
▁ЛНР	-10.8377
▁ключ	-10.8378
▁производители	-10.8378
▁гендиректора	-10.8383
▁Ер	-10.8387
▁заложен	-10.8388
ведению	-10.8389
▁учета	-10.839
▁зачем	-10.8392
▁приема	-10.8396
▁спросил	-10.8396
▁формате	-10.8397
▁Гре	-10.84
▁взросл	-10.8402
▁носит	-10.8403
▁Новая	-10.8405
▁отмене	-10.8406
▁Татарстан	-10.8407
▁экспертизы	-10.8408
▁исследова	-10.841
▁возбудил	-10.8412
▁близко	-10.8413
▁удобн	-10.8415
Спартака	-10.8415
98	-10.8419
▁Израиля	-10.8422
▁кинематограф	-10.8422
▁появятся	-10.8422
▁революции	-10.8422
▁землю	-10.8422
▁отмечен	-10.8422
хватил	-10.8422
▁штурм	-10.8422
▁производству	-10.8422
▁Польше	-10.8423
▁Спуст	-10.8424
▁проверя	-10.8424
▁взлет	-10.8424
▁Миронов	-10.8425
вос	-10.8426
▁договориться	-10.8428
▁болельщиков	-10.8428
▁обладает	-10.8428
▁кредиты	-10.8433
▁устранен	-10.8433
0%	-10.8436
▁Петров	-10.8437
тельный	-10.8438
▁советских	-10.8438
▁50-	-10.8441
▁Жител	-10.8441
▁пациента	-10.8441
▁85	-10.8442
▁компаниям	-10.8446
▁Тот	-10.8449
▁надежд	-10.845
▁действиях	-10.8451
жать	-10.8453
▁Син	-10.8454
▁1990-	-10.8456
▁политическим	-10.8457
▁Лес	-10.8457
родные	-10.846
▁легкой	-10.8469
89	-10.8469
▁знамениты	-10.847
▁пережив	-10.847
▁хор	-10.847
▁дохода	-10.8471
▁форуме	-10.8473
ber	-10.8476
▁отправить	-10.8484
лежа	-10.8488
▁Daily	-10.8488
▁Собянин	-10.8488
▁Финляндии	-10.8488
▁пространство	-10.8488
▁стражей	-10.8488
▁Госдума	-10.8488
▁перечень	-10.8488
▁понрави	-10.8488
▁показателей	-10.8488
▁1,6	-10.8488
▁судьи	-10.8489
▁ФБР	-10.8489
▁специальных	-10.8489
▁владелец	-10.8492
▁думать	-10.8492
▁выводы	-10.8493
▁занятия	-10.8493
▁холдинг	-10.8494
менеджер	-10.8494
завод	-10.8499
▁пациент	-10.8499
▁предложений	-10.8502
▁перелом	-10.8507
▁бело	-10.8509
▁общ	-10.8509
▁детского	-10.8511
▁украинским	-10.8512
Ко	-10.8514
▁четверо	-10.8516
▁объединен	-10.8516
▁современной	-10.8519
лак	-10.8521
строить	-10.8524
▁храни	-10.8525
▁бросил	-10.8526
▁массовой	-10.8527
▁едино	-10.8532
▁гриппа	-10.8533
▁залог	-10.8535
▁создали	-10.8536
космическ	-10.8537
▁мировом	-10.8538
▁Дем	-10.854
▁масло	-10.8547
all	-10.8547
▁лице	-10.8551
▁производстве	-10.8551
▁сбора	-10.8553
опа	-10.8553
Челябинск	-10.8554
▁заявку	-10.8554
▁мероприятие	-10.8554
▁реализовать	-10.8554
▁учитывая	-10.8554
▁становятся	-10.8554
▁Олланд	-10.8554
▁доказательства	-10.8555
▁трансфер	-10.8555
▁привлечен	-10.8556
ga	-10.8557
▁следующей	-10.8557
▁называть	-10.8558
▁1991	-10.8558
▁выяснили	-10.8559
▁Одним	-10.8559
игра	-10.856
▁украин	-10.856
▁обход	-10.8561
▁судя	-10.8561
▁покушени	-10.8563
▁членом	-10.8565
▁составило	-10.8568
▁попросили	-10.8568
▁Краснодар	-10.8572
Аль	-10.8572
▁Mo	-10.8573
▁Элл	-10.8578
▁Фил	-10.8578
льянов	-10.8581
▁правов	-10.8582
▁Геннадий	-10.8586
▁возможн	-10.8588
▁прекратил	-10.859
▁Лук	-10.8592
▁Яр	-10.8593
гиб	-10.8596
▁почв	-10.8598
▁языке	-10.8599
▁поворот	-10.8601
▁составлен	-10.8601
▁реал	-10.8602
▁сформирован	-10.8603
▁Мартин	-10.8608
▁отказал	-10.8618
льные	-10.862
▁Instagram	-10.8621
▁распоряжении	-10.8621
▁покупателя	-10.8621
▁полузащитник	-10.8621
▁пригласил	-10.8621
▁чтении	-10.8621
▁Версия	-10.8622
▁Минтранс	-10.8622
▁убедить	-10.8622
▁погибшего	-10.8622
▁Барака	-10.8622
▁обсудить	-10.8623
ЕР	-10.8624
▁материал	-10.8624
▁коллегами	-10.8626
нсульт	-10.8628
bo	-10.8628
▁выступают	-10.8629
art	-10.863
▁выстрел	-10.8631
Так	-10.8637
▁кредитных	-10.8638
▁Группа	-10.8641
▁удается	-10.8642
▁неизвестны	-10.8645
▁Франция	-10.8649
ступив	-10.8652
чность	-10.8653
▁уверенно	-10.8653
▁Германия	-10.8657
Золот	-10.8657
▁телефону	-10.866
▁меньшей	-10.8666
-2"	-10.8667
▁похожи	-10.8671
▁Агентство	-10.8674
▁доступны	-10.8675
нте	-10.8675
▁New	-10.8676
▁экспертиз	-10.8677
▁условно	-10.868
▁процедур	-10.8682
▁известного	-10.8685
▁Предполагается	-10.8688
▁отвечать	-10.8688
▁ошибки	-10.8688
▁европейские	-10.8688
▁Видео	-10.8688
▁Гл	-10.8688
кле	-10.8691
Наш	-10.8691
▁автоматически	-10.8696
▁Ассоциации	-10.8699
рск	-10.8704
нить	-10.8707
▁одинаков	-10.8707
▁личной	-10.8707
▁участвовали	-10.8712
▁ориентир	-10.8718
▁оказывают	-10.8718
▁бирж	-10.8718
▁подозревают	-10.8719
▁отдал	-10.8722
▁какую	-10.8725
▁колонн	-10.8728
▁семью	-10.8728
▁представление	-10.873
▁слову	-10.8731
▁официальных	-10.8733
▁любо	-10.8733
▁запис	-10.8734
тег	-10.8736
91	-10.8738
ичный	-10.8741
чков	-10.8745
Прав	-10.8747
▁каб	-10.8751
▁крупнейши	-10.8752
▁криминал	-10.8754
▁телевизор	-10.8755
▁Samsung	-10.8755
▁Египет	-10.8755
▁исключил	-10.8755
▁обслуживания	-10.8755
▁спасатели	-10.8755
▁подъем	-10.8755
▁считаем	-10.8756
▁насилия	-10.8756
▁дочери	-10.8756
▁думы	-10.8757
▁требование	-10.8759
▁слух	-10.876
▁средний	-10.876
▁готовит	-10.8763
▁родн	-10.8764
▁мелки	-10.8764
▁канцлер	-10.8766
▁министром	-10.8766
▁обнаружено	-10.8767
65	-10.877
▁уточнили	-10.8771
▁теннисист	-10.8772
▁закрытия	-10.8773
фан	-10.8776
46	-10.8777
▁убийц	-10.8781
▁подать	-10.8781
▁прямой	-10.8783
ставляет	-10.8784
▁Мер	-10.8784
▁форум	-10.8786
▁заставил	-10.8786
ированию	-10.8787
▁голод	-10.8788
▁зимой	-10.8788
▁гражданских	-10.8789
▁денежно	-10.879
▁Такая	-10.8791
несут	-10.8792
▁количеств	-10.8795
гром	-10.8797
▁эк	-10.8797
▁партнерами	-10.8798
бесед	-10.8798
▁увеличил	-10.8799
▁владельцев	-10.8802
▁Сред	-10.8806
▁дальнейши	-10.8806
пустил	-10.8807
жир	-10.8807
думал	-10.8808
▁возможным	-10.881
▁закрыты	-10.8813
▁удары	-10.8816
▁вспоминает	-10.8818
▁ударов	-10.882
ящих	-10.8822
▁показала	-10.8823
▁Volkswagen	-10.8823
▁Норвегии	-10.8823
▁героев	-10.8823
▁контролировать	-10.8823
▁покупателей	-10.8823
▁сирийских	-10.8823
▁Единственн	-10.8824
рина	-10.8824
▁показывают	-10.8824
▁Ряд	-10.8825
▁серьезным	-10.8825
▁прийти	-10.8825
▁такси	-10.8825
▁эксплуатацию	-10.8825
▁состоялось	-10.8827
▁Демократическо	-10.8833
леб	-10.8833
▁80%	-10.8833
▁слуша	-10.8833
следственн	-10.8837
▁тайм	-10.8839
▁нефтяных	-10.8841
▁проходили	-10.8845
▁Кадырова	-10.8852
▁русском	-10.8853
-7	-10.8853
▁терроризма	-10.886
▁Жуков	-10.8862
▁новогодни	-10.8866
▁блока	-10.8867
▁противодействи	-10.8868
▁новость	-10.8868
хал	-10.8869
▁альянса	-10.8872
▁называет	-10.8873
▁внешне	-10.8874
▁обычн	-10.8875
▁свеж	-10.8877
▁делом	-10.8878
▁Калининград	-10.8887
▁пит	-10.8888
▁Мос	-10.889
▁предположил	-10.889
▁здоровью	-10.8892
▁ожидать	-10.8892
▁разработке	-10.8892
▁поправок	-10.8892
▁русский	-10.8892
▁освободил	-10.8893
▁увеличилось	-10.8894
▁препода	-10.8894
▁данн	-10.8895
▁гл	-10.8895
▁строя	-10.8896
▁май	-10.8896
▁Республиканской	-10.8896
▁высокие	-10.8898
▁спортивн	-10.8898
▁чемпиона	-10.8899
▁заявлением	-10.89
▁балет	-10.8901
▁мощностью	-10.8903
▁пласт	-10.8904
▁принимали	-10.8905
▁(20	-10.8906
имся	-10.8911
Пар	-10.8914
▁оснований	-10.8915
▁выступая	-10.8915
▁атомн	-10.8917
▁вызвали	-10.892
▁Ге	-10.892
фир	-10.8921
ПО	-10.8922
около	-10.8926
▁мужа	-10.8928
▁оценивает	-10.893
▁существенны	-10.893
▁Мил	-10.8931
сона	-10.8932
▁известны	-10.8939
▁Дуб	-10.894
Й	-10.8942
▁процедуру	-10.8945
▁наруш	-10.8951
▁региональном	-10.8952
▁бокс	-10.8954
▁Лондон	-10.8954
59	-10.8955
▁допуск	-10.8955
▁кем	-10.8956
▁использовал	-10.8958
паков	-10.896
ложили	-10.896
восток	-10.896
▁американцев	-10.8961
▁задолженность	-10.8961
▁землетрясения	-10.8961
▁коррупцией	-10.8961
▁отсутствия	-10.8961
▁претензии	-10.8961
▁присутствовал	-10.8961
▁учитывать	-10.8961
АвтоВАЗ	-10.8961
▁аэродром	-10.8961
▁диагност	-10.8961
▁дизель	-10.8961
▁наставник	-10.8961
▁постановления	-10.8961
▁Казани	-10.8961
▁Восточной	-10.8961
▁южно	-10.8961
▁разместил	-10.8962
▁мощности	-10.8964
▁ранены	-10.8966
2,5	-10.8967
▁монет	-10.8967
▁звезды	-10.8968
▁трав	-10.8972
▁обоих	-10.8975
▁парламенте	-10.898
▁испытыва	-10.8981
▁метра	-10.8984
▁вертолета	-10.8985
▁зимни	-10.8986
тека	-10.8986
▁неудач	-10.8987
▁проводятся	-10.899
▁исключено	-10.8992
▁праздника	-10.8992
▁физик	-10.8993
Центр	-10.9
▁волос	-10.9
когда	-10.9002
im	-10.9002
Ст	-10.9005
▁занять	-10.9008
▁ман	-10.9009
▁устроили	-10.9009
▁испанск	-10.901
▁обновлен	-10.9011
тали	-10.9011
▁отличи	-10.9012
▁Бол	-10.9013
▁Вашингтона	-10.9017
▁часы	-10.9017
▁меш	-10.9018
▁финале	-10.9019
▁различным	-10.9019
▁исполнит	-10.902
▁сек	-10.9021
▁распространя	-10.9021
▁арабск	-10.9022
▁колон	-10.9022
▁затраты	-10.9025
▁хозяев	-10.9029
ающей	-10.903
▁боли	-10.903
▁Начал	-10.903
▁помогал	-10.903
▁Молдавии	-10.903
▁Франсуа	-10.903
▁Эдуард	-10.903
▁антимонопольн	-10.903
▁действуют	-10.903
▁депозит	-10.903
▁резолюции	-10.903
▁хранения	-10.903
▁юстиции	-10.903
▁руководители	-10.903
▁СБУ	-10.903
▁Женеве	-10.903
▁покупке	-10.903
▁добровольно	-10.903
▁годовщин	-10.9031
▁допинга	-10.9031
▁собор	-10.9032
▁Air	-10.9032
▁помогут	-10.9033
▁виды	-10.9033
▁отличается	-10.9034
▁изучения	-10.9035
▁исполнении	-10.9035
ическом	-10.9035
вшем	-10.9036
▁отверг	-10.9039
▁потребуется	-10.9039
▁забот	-10.9039
помнить	-10.904
▁композици	-10.904
труд	-10.9041
▁взрослых	-10.9042
▁2001	-10.9043
▁Эл	-10.9048
▁открытии	-10.9049
▁Против	-10.905
▁ветер	-10.905
▁отлича	-10.905
▁выпускник	-10.9051
▁юридически	-10.9053
ноги	-10.9059
курс	-10.9059
▁Никита	-10.906
▁матчах	-10.9066
▁процедура	-10.9067
▁трасс	-10.9069
звезд	-10.907
▁Надежды	-10.9073
▁водой	-10.9073
ard	-10.9074
▁общая	-10.9074
гас	-10.9075
▁юридических	-10.9078
▁Дн	-10.908
▁алкоголь	-10.9081
▁слышал	-10.9082
▁факторов	-10.9082
▁проще	-10.9083
▁установлены	-10.9084
▁Рост	-10.9086
mp	-10.9089
везли	-10.9094
-200	-10.9095
▁направлено	-10.9095
▁обществе	-10.9096
▁парке	-10.9097
▁утрат	-10.9098
▁Владислав	-10.91
▁электроэнергии	-10.91
▁половиной	-10.91
▁причастны	-10.91
▁сильнее	-10.91
▁большом	-10.91
▁любые	-10.91
▁перейти	-10.9101
▁посол	-10.9101
▁близкий	-10.9102
▁технику	-10.9102
▁Думы	-10.9103
▁обратилась	-10.9105
▁глобальны	-10.9105
▁конкретных	-10.9107
рение	-10.9108
руга	-10.9111
▁пьян	-10.9112
▁использован	-10.9113
▁системой	-10.9113
ation	-10.9118
▁выплатить	-10.9119
▁Дер	-10.9121
▁Берлин	-10.9124
▁юге	-10.9126
▁спортсмена	-10.9131
кладывается	-10.9134
▁приговорен	-10.9135
▁почетн	-10.9136
▁ярко	-10.9136
лаб	-10.9137
▁стадион	-10.9139
рабатывать	-10.9139
▁валютны	-10.914
▁проблемой	-10.9144
Ро	-10.9152
▁партнеры	-10.9152
▁получив	-10.9155
▁лук	-10.9156
производств	-10.9159
▁москвич	-10.9163
▁боевой	-10.9164
▁приехали	-10.9166
▁личность	-10.9168
ером	-10.9169
Роскосмос	-10.9171
▁Вообще	-10.9171
▁Сибири	-10.9171
▁Таджикистан	-10.9171
▁болезнь	-10.9171
▁компонент	-10.9171
▁рекомендации	-10.9171
▁фаворит	-10.9171
▁Львов	-10.9171
▁жюри	-10.9171
▁совокупн	-10.9171
▁республиканцев	-10.9171
▁продлил	-10.9171
▁недостатк	-10.9171
▁Володин	-10.9171
▁половина	-10.9171
▁обруши	-10.9171
▁Токио	-10.9171
▁характеристик	-10.9171
▁моделей	-10.9171
глу	-10.9172
▁отмены	-10.9173
▁выпущен	-10.9175
дадут	-10.9175
▁убор	-10.9177
лайн	-10.9178
Как	-10.9178
▁космонавт	-10.9182
президента	-10.9183
▁зуб	-10.9183
▁серию	-10.9184
▁Вал	-10.9186
чек	-10.9186
he	-10.9187
▁опасность	-10.9189
▁Павлов	-10.919
▁регулятора	-10.9191
▁пропал	-10.9193
▁100%	-10.9194
▁Был	-10.9196
ФЗ	-10.9197
бул	-10.9197
▁вуза	-10.9198
▁67	-10.9199
▁подобного	-10.9199
казал	-10.92
хор	-10.9201
▁заведения	-10.9202
▁51	-10.9203
▁начинается	-10.9204
66	-10.9205
Кар	-10.9208
▁движ	-10.9208
▁56	-10.9209
▁коммерчески	-10.9212
ельского	-10.9212
▁ухудш	-10.9213
гул	-10.9215
▁приобретен	-10.9215
▁назвала	-10.9216
▁фур	-10.9216
ражение	-10.9216
▁бренда	-10.9217
▁Баб	-10.9217
кладывать	-10.9221
▁Лит	-10.9221
▁пригород	-10.9224
▁независимо	-10.923
изировать	-10.9234
▁Марина	-10.9237
телями	-10.9239
▁предусмотрено	-10.924
▁американцы	-10.9242
▁нескольким	-10.9242
▁участвуют	-10.9242
▁впрочем	-10.9242
▁Захарченко	-10.9242
▁трибун	-10.9242
▁свидетельствует	-10.9243
▁Карабах	-10.9243
▁допущен	-10.9246
▁снижа	-10.9247
▁подрыв	-10.9247
bg	-10.9248
▁Наш	-10.9249
▁заявлений	-10.9249
▁рецепт	-10.9253
▁рады	-10.9257
гат	-10.9259
▁Бул	-10.9261
▁ждал	-10.9269
▁памятника	-10.9269
▁клиентам	-10.927
Он	-10.9282
Ал	-10.9287
▁нефтяной	-10.9288
▁Донбасса	-10.9288
▁Дон	-10.929
вязан	-10.929
▁Авто	-10.9295
▁упали	-10.9295
ЭС	-10.9301
47	-10.9304
▁тарифов	-10.9305
▁План	-10.9308
▁школах	-10.931
▁удара	-10.931
▁произошедш	-10.9311
ОВ	-10.9311
▁потерпев	-10.9312
▁организаторы	-10.9312
▁Вашингтоне	-10.9313
▁ОСАГО	-10.9313
▁индивидуально	-10.9313
▁предпринимателя	-10.9313
▁подозреваемый	-10.9313
▁Объем	-10.9313
▁неплохо	-10.9313
▁окажется	-10.9313
▁нередко	-10.9313
▁стражу	-10.9313
▁поздно	-10.9313
▁прежни	-10.9314
▁высказывания	-10.9314
▁попытался	-10.9314
▁волну	-10.9317
▁подробности	-10.9318
▁отчетности	-10.9321
▁клиническ	-10.9322
▁плей	-10.9322
▁везде	-10.9327
▁снизился	-10.9328
FA	-10.933
▁русской	-10.933
Саратов	-10.9331
ухи	-10.9331
▁1%	-10.9332
▁лицом	-10.9336
▁крест	-10.9336
▁сохрани	-10.9337
▁Мас	-10.9337
▁69	-10.9338
летнюю	-10.934
сли	-10.9342
▁актера	-10.9343
▁патриот	-10.9349
▁формально	-10.935
▁работник	-10.935
▁атаку	-10.9353
Газ	-10.9354
68	-10.9356
69	-10.9358
▁магазина	-10.9359
▁условиям	-10.9359
▁Сталин	-10.9362
▁обид	-10.9364
▁полный	-10.9364
▁театре	-10.9366
▁Ирак	-10.937
ивших	-10.9371
▁занят	-10.9377
▁Novin	-10.9385
▁месторождения	-10.9385
Объединенн	-10.9385
▁Шеремет	-10.9385
▁Карелии	-10.9385
▁полицейского	-10.9385
▁связей	-10.9385
▁мертв	-10.9386
▁отозвал	-10.9386
▁вооружения	-10.9386
▁обучения	-10.9387
▁Марс	-10.9389
санкционн	-10.9389
▁сталкива	-10.939
▁кабинета	-10.9394
▁тебе	-10.9394
вела	-10.9395
▁Цена	-10.9397
▁блокад	-10.9397
▁иностранные	-10.9398
▁потока	-10.9398
▁2003	-10.9399
▁запрета	-10.9399
▁игроки	-10.9401
39	-10.9401
▁региональной	-10.9404
▁действующих	-10.9407
▁выступить	-10.9408
▁Катар	-10.941
▁доказать	-10.9411
▁давать	-10.9414
ряду	-10.9417
▁поддерживают	-10.942
▁личного	-10.9421
▁стабильно	-10.9427
▁ядерного	-10.9428
БР	-10.943
&	-10.943
траст	-10.9432
▁упор	-10.9434
▁культурного	-10.9434
per	-10.9435
СС	-10.9438
▁повышен	-10.9439
▁слабо	-10.944
▁международн	-10.9446
▁космодрома	-10.9447
▁необходимы	-10.945
▁акционеров	-10.945
▁сотруднича	-10.945
актив	-10.9452
▁58	-10.9453
▁атлет	-10.9457
▁Валентин	-10.9457
▁стратегически	-10.9457
▁присутствие	-10.9457
▁Кудрин	-10.9457
▁доставили	-10.9458
▁Минэнерго	-10.9458
▁легенд	-10.9458
-2018	-10.9458
▁цех	-10.9459
▁дала	-10.946
▁ходить	-10.9461
▁бог	-10.9463
террористическ	-10.9464
▁Свердловской	-10.9466
▁головы	-10.9467
▁активист	-10.9467
▁дороже	-10.9467
▁плод	-10.9468
▁детский	-10.947
▁Валерия	-10.947
▁66	-10.9471
▁следить	-10.9471
▁коротко	-10.9472
▁ЧМ	-10.9473
▁исполнительны	-10.9473
▁точку	-10.9473
▁реализаци	-10.9475
▁пря	-10.9477
▁двери	-10.9478
▁продал	-10.9479
▁Луганской	-10.9481
▁стиле	-10.9482
▁кандидатом	-10.9486
биты	-10.9488
hi	-10.949
▁высказыва	-10.949
▁применять	-10.9493
инской	-10.9494
жели	-10.9497
▁Ростове	-10.9497
▁опубликованном	-10.9497
центра	-10.95
местному	-10.95
▁мозг	-10.9502
▁рыночн	-10.9502
▁налоговых	-10.9505
▁смеш	-10.9509
▁жертвами	-10.9509
▁Крис	-10.951
▁местный	-10.9513
▁света	-10.9515
▁Украински	-10.9517
▁запрещено	-10.9518
▁округ	-10.9522
монт	-10.9526
▁изображение	-10.9527
▁придержива	-10.9527
▁зафиксировано	-10.9528
КБ	-10.9529
▁обыски	-10.953
ступление	-10.953
▁баскетбол	-10.953
▁хоккеист	-10.953
▁Британии	-10.953
▁НХЛ	-10.953
▁выдвинут	-10.953
▁зачастую	-10.953
▁нынешней	-10.953
▁объяснить	-10.953
▁прокуратуру	-10.953
▁сыграть	-10.953
▁экстремизм	-10.953
▁ФРС	-10.953
▁потерпел	-10.953
▁Анкаре	-10.953
▁появления	-10.953
▁Совбез	-10.953
▁появляется	-10.953
▁Штатов	-10.9531
▁отметки	-10.9531
▁употребля	-10.9531
▁разрешил	-10.9531
▁никому	-10.9532
▁школьников	-10.9532
▁побывал	-10.9533
▁Литвы	-10.9533
▁кредитования	-10.9533
▁жестоко	-10.9533
▁казалось	-10.9533
▁проник	-10.9533
▁подачи	-10.9533
▁совершить	-10.9534
▁независимости	-10.9534
▁высоких	-10.9534
▁свободу	-10.9535
▁жанр	-10.9535
▁решает	-10.9536
▁ограничение	-10.9538
▁говорилось	-10.9539
▁мини	-10.9541
▁Южн	-10.9541
▁различ	-10.9541
няли	-10.9541
▁2002	-10.9547
▁военным	-10.9548
▁судно	-10.9549
▁иностранным	-10.955
▁Центральной	-10.9552
востоке	-10.9556
▁уточняется	-10.9556
▁инициатива	-10.9559
▁делал	-10.9561
стям	-10.9573
J	-10.9578
▁25%	-10.9579
▁толк	-10.958
устройств	-10.9582
▁трассы	-10.9586
▁убил	-10.9587
▁проход	-10.959
▁дар	-10.9596
▁факты	-10.9599
▁изготовлен	-10.9599
праздн	-10.96
учрежден	-10.9603
▁фундамент	-10.9604
▁Журналист	-10.9604
▁Университет	-10.9604
▁случившегося	-10.9604
▁НКО	-10.9604
▁Партии	-10.9604
▁произвел	-10.9604
ставлял	-10.9605
▁Тут	-10.9605
ключение	-10.9606
▁никого	-10.9606
▁основатель	-10.9607
▁подготовить	-10.9607
вался	-10.9612
▁Северного	-10.9617
▁Центрального	-10.9618
ющегося	-10.9618
▁политический	-10.9619
▁используется	-10.962
▁темп	-10.9622
жные	-10.9622
▁общения	-10.9623
▁публичны	-10.9626
▁линию	-10.9626
ринг	-10.9632
▁взорвал	-10.9632
нно	-10.9635
▁опусти	-10.9636
▁детской	-10.9643
тельная	-10.9645
Чер	-10.9647
▁налоговой	-10.9648
▁вылетел	-10.9648
▁странам	-10.9652
инском	-10.9653
▁ходу	-10.9654
▁партнера	-10.9655
бежать	-10.9659
▁уваж	-10.9659
▁домашне	-10.966
▁практика	-10.9661
▁фильмы	-10.9661
Ак	-10.9665
▁размера	-10.9665
▁рейсов	-10.9667
▁бизнесмена	-10.9667
нном	-10.9672
▁нарушител	-10.9674
▁Дворкович	-10.9678
▁Нарышкин	-10.9678
▁выставке	-10.9678
▁павильон	-10.9678
▁преддвери	-10.9678
▁столицу	-10.9678
▁желающих	-10.9678
▁громки	-10.9678
▁подорожал	-10.9678
▁Джеймс	-10.9678
▁отдать	-10.9679
▁писатель	-10.9679
▁рассматривал	-10.968
▁La	-10.9681
▁общин	-10.9681
▁художника	-10.9681
▁Ленина	-10.9682
▁дешевле	-10.9683
▁качественно	-10.9683
▁вещей	-10.9683
▁новости	-10.9684
▁Судя	-10.9687
▁обучение	-10.969
▁4%	-10.9691
популярн	-10.9692
▁завершения	-10.9692
▁жалобу	-10.9695
везти	-10.9696
▁работой	-10.97
рман	-10.97
средств	-10.9704
▁статуса	-10.9704
▁транспортно	-10.9707
▁знакомый	-10.971
78	-10.9714
▁полк	-10.9716
▁претендент	-10.9717
общую	-10.9718
▁выброс	-10.9721
▁соц	-10.9722
пускать	-10.9722
▁популярных	-10.9726
▁материала	-10.9728
штаб	-10.973
▁получится	-10.973
▁судим	-10.9732
член	-10.9732
▁уголовных	-10.9733
▁Алекс	-10.9735
цин	-10.9735
▁Том	-10.9736
ория	-10.9737
▁поведения	-10.9739
▁объявлено	-10.9739
▁стоил	-10.9747
Кон	-10.9751
роз	-10.9753
▁Австрии	-10.9753
▁Недавно	-10.9753
▁Прокуратура	-10.9753
▁Эстонии	-10.9753
▁кампанию	-10.9753
▁распоряжение	-10.9753
▁сыграет	-10.9753
▁фрагмент	-10.9753
▁хоккею	-10.9753
▁НПФ	-10.9753
▁угол	-10.9753
▁стан	-10.9753
▁проезж	-10.9754
▁заменить	-10.9755
▁коммунальны	-10.9756
▁убиты	-10.9756
▁Дагестан	-10.9759
▁обоснован	-10.9759
▁стороной	-10.976
▁седан	-10.976
▁домах	-10.976
▁шахт	-10.976
▁достойно	-10.976
▁Майдан	-10.9763
▁специалиста	-10.9763
man	-10.9765
▁сократился	-10.9769
▁выдвига	-10.9769
da	-10.977
▁способность	-10.9771
▁распространение	-10.9772
▁ответили	-10.9772
▁Филипп	-10.9773
▁Пав	-10.9775
▁нижней	-10.9776
▁ноги	-10.978
▁советского	-10.9783
▁Воронеж	-10.9784
летие	-10.9784
▁пошли	-10.9787
▁завершился	-10.9788
▁ворот	-10.9792
▁рассмотрен	-10.9797
▁туристическ	-10.9798
72	-10.9798
▁средствами	-10.9802
▁думает	-10.9803
золот	-10.9806
▁признаки	-10.9807
штат	-10.9809
▁московскому	-10.981
▁Кипр	-10.9811
▁ответа	-10.9811
▁успели	-10.9815
▁популярны	-10.9818
ильных	-10.9819
▁российскому	-10.9819
▁Просто	-10.9824
▁шахте	-10.9826
▁прес	-10.9827
▁Ивана	-10.9828
▁боеприпас	-10.9828
▁повлиять	-10.9828
▁претензий	-10.9828
▁скажем	-10.9828
▁судьба	-10.9828
▁урожен	-10.9828
▁европейского	-10.9828
▁изделий	-10.9828
▁орден	-10.9828
▁эпох	-10.9828
▁актуальны	-10.9829
▁талантлив	-10.9829
▁представлял	-10.983
емая	-10.983
▁продолжение	-10.9831
ab	-10.9832
▁вторую	-10.9832
1)	-10.9833
▁привели	-10.9834
▁рабочие	-10.9834
▁прошедше	-10.9834
▁возглавляет	-10.9835
▁полного	-10.9835
▁освобождения	-10.9836
вление	-10.9836
▁произведения	-10.9839
▁торговле	-10.984
▁приложение	-10.984
▁названия	-10.9842
▁63	-10.9842
▁фотограф	-10.9843
▁ректор	-10.9844
▁министерстве	-10.9845
▁мэрии	-10.9845
▁Егор	-10.9845
ступают	-10.9846
▁молодежно	-10.9847
▁жалобы	-10.9848
▁умеренн	-10.9848
▁прирост	-10.985
▁позволят	-10.985
▁внутреннего	-10.9853
Ведомости	-10.9857
▁вторым	-10.9857
▁сохранение	-10.9858
▁оценивал	-10.9859
▁жилых	-10.986
▁советской	-10.9861
▁исключением	-10.9862
▁проспект	-10.9864
▁экстренно	-10.9866
▁пас	-10.9874
▁59	-10.9876
▁Бат	-10.9879
▁Генеральн	-10.988
промышленн	-10.9882
▁признает	-10.9884
бург	-10.989
32	-10.989
▁Сити	-10.9891
▁порог	-10.9892
▁сделала	-10.9893
▁структура	-10.9894
▁пошел	-10.9894
полис	-10.9897
▁музыка	-10.9899
▁заканчива	-10.99
▁Законопроект	-10.9904
▁ликвидирован	-10.9904
▁оппозиционер	-10.9904
▁рынков	-10.9904
▁сможем	-10.9904
▁потребления	-10.9904
▁Кремль	-10.9904
▁Ожидается	-10.9904
▁поздравил	-10.9904
предположительно	-10.9904
▁Одесско	-10.9904
▁федеральным	-10.9904
▁станция	-10.9905
▁берем	-10.9905
▁годовых	-10.9909
▁аварийно	-10.9911
▁рыба	-10.9915
▁лицам	-10.9917
SA	-10.9918
ысшего	-10.9918
▁забрал	-10.9918
▁видят	-10.9919
шить	-10.992
▁вечера	-10.9925
▁этаже	-10.9926
▁Комитет	-10.993
▁хол	-10.9935
▁уплаты	-10.9936
▁позволить	-10.9938
▁россиянин	-10.9939
▁имеющие	-10.9939
ill	-10.9943
▁камеры	-10.9944
▁заключенных	-10.9945
▁участи	-10.9947
▁ученик	-10.9948
▁эффективность	-10.9949
▁социальн	-10.9952
▁гражданами	-10.9957
▁Эксперт	-10.9957
▁награжден	-10.9958
▁130	-10.9959
▁кредитам	-10.996
▁предварительны	-10.9961
Ленинград	-10.9963
ствует	-10.9964
▁раскритиковал	-10.9965
▁корм	-10.9968
конференц	-10.9969
▁мошенничестве	-10.9969
▁способом	-10.997
▁Бал	-10.9971
▁дорога	-10.9972
io	-10.9974
▁пассажирски	-10.9974
ните	-10.9974
крытие	-10.9975
ировки	-10.9978
индустрии	-10.998
▁Renault	-10.998
▁Минпромторг	-10.998
▁Сергеем	-10.998
▁зафиксировал	-10.998
▁компромисс	-10.998
▁наверняка	-10.998
▁произошли	-10.998
▁реализован	-10.998
▁спонсор	-10.998
▁прозрачно	-10.998
▁вооружений	-10.998
▁Абэ	-10.998
▁индийск	-10.998
▁Служб	-10.9981
▁бойцов	-10.9981
▁Всероссийск	-10.9982
▁актов	-10.9983
▁численность	-10.9983
▁опасения	-10.9984
▁оправдан	-10.9985
ящим	-10.999
▁приходилось	-10.9992
▁получивши	-10.9994
▁психолог	-10.9995
▁нарушением	-10.9998
▁тел	-10.9999
▁заплатить	-10.9999
▁подан	-11
▁гражданство	-11
▁мной	-11.0004
▁Пермск	-11.0004
▁действующего	-11.0004
▁Sa	-11.0006
▁лов	-11.0007
▁дыр	-11.0008
▁государственном	-11.0009
ba	-11.0009
▁Крас	-11.001
ity	-11.0012
▁обмена	-11.0018
▁искусство	-11.002
▁опубликовала	-11.0021
▁Наша	-11.003
свобод	-11.0032
▁народных	-11.0033
▁Жу	-11.0034
систем	-11.0035
▁холдинга	-11.0039
▁температур	-11.0042
живают	-11.0046
▁популярно	-11.0048
▁снимал	-11.0049
▁штрафа	-11.005
▁смартфонов	-11.0054
▁экземпляр	-11.0057
▁музыки	-11.0057
▁юбилей	-11.0057
▁заявки	-11.0057
▁жидко	-11.0057
▁Шойгу	-11.0057
▁вакцин	-11.0057
▁контент	-11.0057
▁сумме	-11.0057
▁федеральной	-11.0057
▁авиационно	-11.0058
▁операционн	-11.0058
▁хозяева	-11.0058
▁автора	-11.006
▁Европейско	-11.0061
▁нефтегазов	-11.0061
▁Теле	-11.0062
▁конкурентов	-11.0063
▁Кастро	-11.0066
▁Другие	-11.0067
▁комитете	-11.007
ительным	-11.0071
▁гараж	-11.0072
▁крупный	-11.0073
▁крупного	-11.0074
▁аккаунт	-11.0075
фар	-11.0078
НБ	-11.0078
▁существуют	-11.0079
▁искусственно	-11.008
▁Результаты	-11.0082
водится	-11.0098
▁группово	-11.0104
▁новому	-11.0106
правлять	-11.011
▁короле	-11.0116
▁уходит	-11.012
▁официальны	-11.012
▁пусты	-11.0122
▁бомбардиров	-11.0125
▁культуре	-11.0126
крест	-11.0126
▁цифров	-11.0127
▁Герман	-11.0129
one	-11.0131
▁беспилотник	-11.0133
▁Происшествия	-11.0134
▁УМВД	-11.0134
▁диагноз	-11.0134
▁кораблей	-11.0134
▁принадлежат	-11.0134
▁резонанс	-11.0134
▁редакции	-11.0134
▁безвизов	-11.0134
▁половину	-11.0134
▁Амурской	-11.0134
▁Канады	-11.0134
▁Ливии	-11.0135
▁справиться	-11.0135
▁гранат	-11.0135
▁пределы	-11.0136
▁членами	-11.0136
▁снижению	-11.0137
▁сильный	-11.0138
▁1999	-11.0141
▁проводим	-11.0142
▁результатом	-11.0142
▁производить	-11.0143
▁заявляет	-11.0143
▁видом	-11.0145
▁отечественных	-11.0148
▁организациями	-11.0148
ГА	-11.0149
▁увеличив	-11.015
▁играют	-11.0155
▁крупным	-11.0155
▁аспект	-11.0155
▁вызвало	-11.0156
▁держать	-11.0156
▁позвонил	-11.0159
▁Хор	-11.0161
▁обуча	-11.0162
ИС	-11.0163
▁глубок	-11.0166
▁упала	-11.0168
шан	-11.0175
▁мощно	-11.0176
▁статью	-11.0177
лить	-11.0177
▁алкогольно	-11.0178
▁проспекте	-11.0181
▁(5	-11.0185
▁занимался	-11.0185
нятие	-11.0188
▁собственность	-11.0188
▁пилота	-11.0188
▁Бри	-11.019
▁Берлине	-11.0191
▁московском	-11.0198
▁противник	-11.0199
07	-11.02
▁сохранен	-11.0201
ленд	-11.0201
▁мобильн	-11.0202
шем	-11.0202
релизе	-11.0205
▁следствием	-11.0205
▁Верховного	-11.0206
▁приходит	-11.0208
▁билеты	-11.021
▁акцент	-11.0212
▁диапазон	-11.0212
▁оркестр	-11.0212
▁основная	-11.0212
▁предотвращени	-11.0212
▁рекламы	-11.0212
▁вовремя	-11.0212
▁нынешний	-11.0212
▁последнем	-11.0212
▁стремительно	-11.0213
-2015	-11.0214
▁уволен	-11.0214
▁МГУ	-11.0215
▁журналиста	-11.0215
▁Pro	-11.0216
ci	-11.0219
▁надежно	-11.022
▁найдены	-11.0221
▁повреждения	-11.0222
▁западные	-11.0224
вшую	-11.0224
▁принятие	-11.0227
▁исполнительной	-11.0227
страивать	-11.0228
рский	-11.0229
▁Долг	-11.023
▁Много	-11.0233
гарант	-11.0237
▁баллов	-11.0238
▁финансово	-11.0239
54	-11.0241
фонд	-11.0246
▁лот	-11.0246
Кор	-11.0249
▁попала	-11.0251
▁экологии	-11.0253
▁внимательно	-11.0254
▁отлично	-11.0254
▁легкоатлет	-11.0255
▁награды	-11.0256
41	-11.0257
▁миграционн	-11.026
▁клубов	-11.0262
53	-11.0264
▁организаторов	-11.0265
7,5	-11.0266
несла	-11.027
▁предполагаем	-11.0271
▁неизвестные	-11.0273
нимает	-11.0275
ЕК	-11.0275
ладить	-11.0276
▁приводят	-11.0279
▁марш	-11.028
мигрант	-11.0283
▁оказывать	-11.0284
▁темпы	-11.0285
▁газет	-11.0286
▁супруга	-11.0287
Голос	-11.0287
ированный	-11.0287
▁Данил	-11.0288
▁Дне	-11.0288
СТ	-11.0289
▁достижени	-11.029
▁Морозов	-11.029
▁Памфилова	-11.0291
▁академик	-11.0291
▁внедорожник	-11.0291
▁неправильно	-11.0291
▁впечатление	-11.0291
▁подготовка	-11.0291
▁реакции	-11.0291
▁учитель	-11.0291
▁Курс	-11.0291
▁мирного	-11.0292
▁премию	-11.0292
▁кинотеатр	-11.0292
▁Каримов	-11.0292
▁подмосковно	-11.0292
▁уехал	-11.0292
▁преимущественно	-11.0293
Граждан	-11.0293
▁длительно	-11.0293
▁обязаны	-11.0293
▁потенциально	-11.0294
▁помогают	-11.0294
▁предоставля	-11.0294
▁ставит	-11.0296
▁Олимпийски	-11.0296
▁медики	-11.0297
▁самоубийств	-11.0306
▁разработать	-11.0306
▁четвертый	-11.0309
Альфа	-11.031
▁страховщик	-11.0316
▁клубе	-11.0319
Мор	-11.0323
▁зарплату	-11.0323
▁приобретение	-11.0325
▁Министерств	-11.0325
▁снега	-11.0327
▁поставили	-11.0329
▁установленны	-11.034
▁тонк	-11.0341
НА	-11.0342
71	-11.0342
▁наступление	-11.0344
▁оппозиционн	-11.0345
▁привод	-11.0345
▁нерв	-11.0348
▁единого	-11.0348
▁судебного	-11.0348
спикер	-11.0351
▁теннис	-11.0351
ловно	-11.0351
ающего	-11.0352
▁выходить	-11.0353
▁займет	-11.0353
анты	-11.0354
влечь	-11.0355
▁Эрдогана	-11.0358
▁государственно	-11.0362
▁делали	-11.0363
строя	-11.0364
▁внутренне	-11.0365
▁ресурсы	-11.0366
▁народов	-11.0366
▁двига	-11.0369
▁материально	-11.037
▁Toyota	-11.0371
▁Вьетнам	-11.0371
▁Дальнего	-11.0371
▁Елизавет	-11.0371
▁Ричард	-11.0371
▁Ситуация	-11.0371
▁инфляция	-11.0371
▁кладбище	-11.0371
▁коллекции	-11.0371
▁наблюдателей	-11.0371
▁домашний	-11.0371
▁поколение	-11.0371
▁любых	-11.0371
▁молодежь	-11.0371
▁карман	-11.0372
▁важный	-11.0372
▁научных	-11.0372
сот	-11.0373
▁удивлен	-11.0373
▁признают	-11.0377
▁трети	-11.0379
▁погода	-11.0381
▁54	-11.0381
▁мягк	-11.0382
▁перешел	-11.0382
▁методик	-11.0382
▁государственным	-11.0382
▁огромное	-11.0383
льным	-11.0383
▁студенты	-11.0384
▁задне	-11.0385
▁24"	-11.0385
▁спектакль	-11.0385
▁вступления	-11.0385
▁77	-11.0386
нулся	-11.0392
▁хорош	-11.0392
▁книга	-11.0394
▁предстоящи	-11.0397
чем	-11.0399
▁устроил	-11.0401
▁возвращение	-11.0403
▁предполагается	-11.0407
▁охранник	-11.0408
▁Оп	-11.0409
▁Основн	-11.0412
▁Щ	-11.0417
▁снимать	-11.0419
▁новыми	-11.0423
▁бригады	-11.0423
▁защищать	-11.0424
▁позво	-11.0426
▁обсужден	-11.0426
квартир	-11.0429
▁включает	-11.0429
вили	-11.043
▁поиска	-11.0433
ичной	-11.0437
▁71	-11.0438
▁кандидатуру	-11.0438
▁производит	-11.0439
перед	-11.0442
этажно	-11.0443
▁швейцарск	-11.0446
▁изображен	-11.0448
▁Анастасия	-11.0451
▁Поскольку	-11.0451
▁бельгийск	-11.0451
▁каникул	-11.0451
▁кубометров	-11.0451
▁отсутствии	-11.0451
▁полицией	-11.0451
▁православно	-11.0451
▁степень	-11.0451
▁экспедици	-11.0451
▁отвечал	-11.0451
▁Наконец	-11.0451
▁ВИЧ	-11.0451
▁Плюс	-11.0451
▁Почти	-11.0451
▁пределах	-11.0451
▁краю	-11.0452
▁вооружение	-11.0452
▁кафедр	-11.0453
▁герои	-11.0454
▁планируем	-11.0454
▁выявлени	-11.0455
энд	-11.0455
▁1998	-11.0456
▁посетить	-11.0457
чиво	-11.0459
▁Лар	-11.046
▁Ислам	-11.0462
▁четк	-11.0463
▁бывшим	-11.0464
Фор	-11.0471
▁отечественного	-11.0473
▁силовых	-11.0473
▁существу	-11.0479
▁развиваться	-11.0486
ni	-11.0486
▁расширение	-11.0486
▁палата	-11.0489
▁уголовной	-11.049
▁общее	-11.0492
▁оценка	-11.0494
дается	-11.0499
▁Меня	-11.0501
▁указанны	-11.0512
▁пенсионеров	-11.0513
плен	-11.0515
▁древне	-11.0517
▁соревнованиях	-11.0518
ставляют	-11.0518
▁шли	-11.0519
▁сменил	-11.052
▁бумаги	-11.0521
▁участникам	-11.0526
▁британской	-11.0526
АО	-11.0529
▁перехода	-11.053
▁имеется	-11.0531
▁International	-11.0531
▁Пенсионн	-11.0531
▁Роскомнадзор	-11.0531
▁выяснить	-11.0531
▁сертификат	-11.0531
▁совещания	-11.0531
▁урегулированию	-11.0531
▁хозяин	-11.0531
▁благоприятн	-11.0531
▁Скорее	-11.0531
▁поблагодарил	-11.0531
▁серьезный	-11.0531
▁группировок	-11.0531
▁обязанностей	-11.0531
▁Стивен	-11.0531
▁десятилетия	-11.0532
щев	-11.0532
▁категорически	-11.0532
▁снизились	-11.0533
▁осудил	-11.0533
вшуюся	-11.0534
▁помогать	-11.0536
▁рассказать	-11.0536
▁Донецко	-11.0538
▁Важно	-11.0538
▁сведениям	-11.0539
▁мински	-11.0539
▁парламентских	-11.0542
▁ударил	-11.0543
▁73	-11.0544
▁пользуются	-11.0544
▁познакоми	-11.0546
▁национальных	-11.0557
▁препарата	-11.0559
▁бригад	-11.0559
74	-11.0566
▁грани	-11.0567
▁идее	-11.0568
▁швед	-11.0568
▁вывел	-11.057
▁трудово	-11.0573
▁военном	-11.0574
▁самому	-11.0577
▁Регион	-11.0581
▁Маркин	-11.0584
▁запрещенных	-11.0585
▁отрыв	-11.0588
64	-11.0591
▁активисты	-11.0593
США	-11.0595
ковский	-11.0595
▁усилить	-11.0595
▁задачу	-11.0596
▁контрактов	-11.0596
ers	-11.0598
▁Pe	-11.0601
▁требованием	-11.0608
▁мурманчан	-11.0612
▁станций	-11.0613
▁Последний	-11.0613
▁пищев	-11.0613
▁турецкие	-11.0613
▁Сандерс	-11.0613
▁генсек	-11.0613
▁Тру	-11.0613
▁Корея	-11.0614
▁беседе	-11.0614
▁населенн	-11.0615
▁цифра	-11.0616
▁аналогичным	-11.0616
▁держав	-11.0617
▁реформа	-11.0618
▁Джей	-11.0619
▁работающих	-11.0621
▁штрафов	-11.0622
▁подтвердила	-11.0622
▁прочих	-11.0623
▁Восток	-11.0625
▁приятно	-11.0626
рва	-11.0627
▁Эй	-11.0628
▁Бут	-11.0628
▁решит	-11.0628
ФИ	-11.0629
▁Титов	-11.0629
▁68	-11.0629
67	-11.063
▁варианты	-11.0633
▁квот	-11.0635
▁законодательно	-11.0636
▁огромный	-11.0636
▁поверхности	-11.0636
▁применение	-11.0637
▁сбил	-11.064
ho	-11.0646
▁форма	-11.0647
▁представила	-11.0649
нице	-11.0649
▁агентств	-11.065
Зенита	-11.065
Сам	-11.0651
ящего	-11.0652
▁задержании	-11.0654
▁ростом	-11.0655
▁фонды	-11.0658
▁карьеры	-11.0659
▁нагрузки	-11.0659
▁заявлен	-11.066
▁скандала	-11.0667
крыть	-11.0669
Рубин	-11.0669
▁губ	-11.0669
ведения	-11.067
▁выполня	-11.067
▁минимума	-11.0674
▁Мел	-11.0675
Сахалин	-11.0675
▁неприят	-11.0681
▁матчи	-11.0682
▁экстремист	-11.0684
▁обвинили	-11.0686
▁специализирован	-11.0689
▁командиров	-11.069
▁технических	-11.069
▁знания	-11.0692
▁противника	-11.0694
▁американца	-11.0694
▁допустим	-11.0694
▁обойдется	-11.0694
▁подразделений	-11.0694
▁публику	-11.0694
▁сигарет	-11.0694
▁способствовать	-11.0694
▁аренды	-11.0694
▁Черно	-11.0695
▁генпрокурор	-11.0695
▁песню	-11.0695
▁украинцев	-11.0696
ставил	-11.0696
▁Ex	-11.0697
▁жилой	-11.0702
рабатывает	-11.0705
▁налоги	-11.0706
▁350	-11.0706
▁служебно	-11.0707
▁Великобритания	-11.0708
учив	-11.0709
▁Тимур	-11.0709
▁Po	-11.0709
▁ходатайств	-11.071
ритейлер	-11.0712
▁Эту	-11.0714
▁меч	-11.0722
▁ящик	-11.0723
линг	-11.0724
▁Sh	-11.0725
▁уступ	-11.0727
▁полно	-11.0728
▁морской	-11.0729
▁продукта	-11.0732
▁ограничить	-11.0735
▁Константина	-11.0735
▁74	-11.0741
▁взносов	-11.0742
▁Анти	-11.0742
▁случаю	-11.0744
▁располагает	-11.0745
ителям	-11.0746
НД	-11.0746
▁законов	-11.0747
МИ	-11.0748
▁директором	-11.075
▁Ред	-11.0753
▁предпоч	-11.0756
▁смотр	-11.0758
российско	-11.0758
▁турист	-11.0761
▁Лос	-11.0762
▁просмотр	-11.0765
▁подтвержден	-11.0765
СМ	-11.0765
▁назначение	-11.0766
▁запретили	-11.077
▁эпидеми	-11.0772
ющимся	-11.0773
▁оператора	-11.0773
ight	-11.0776
▁Руководство	-11.0777
▁беженца	-11.0777
▁используем	-11.0777
▁корпорация	-11.0777
▁пенсию	-11.0777
▁факультет	-11.0777
▁посредник	-11.0777
▁перевозок	-11.0777
▁перевозки	-11.0777
▁понимание	-11.0777
▁Прежде	-11.0777
▁учений	-11.0777
нешнеполитическо	-11.0777
▁пребывания	-11.0778
▁громко	-11.0778
▁оскорблен	-11.0779
▁встретиться	-11.0779
остях	-11.0781
▁радикальны	-11.0781
▁Pri	-11.0782
▁общественности	-11.0786
▁рот	-11.0794
▁исполня	-11.0794
▁смысла	-11.0794
▁счетов	-11.0796
▁лишение	-11.0798
▁вручил	-11.0799
▁трудности	-11.0799
шов	-11.0801
▁Витали	-11.0803
▁Ближнем	-11.0804
▁перечислен	-11.0805
▁заметили	-11.0806
-1"	-11.0807
ОР	-11.0808
▁прорыв	-11.0811
94	-11.0813
▁бюджете	-11.0813
▁Григорий	-11.0814
▁муниципально	-11.0816
▁числу	-11.0819
▁запись	-11.0819
▁транспортной	-11.0819
печен	-11.082
▁соседни	-11.0822
▁либерал	-11.0826
▁творчески	-11.0827
▁сотен	-11.0828
▁сухо	-11.0828
▁ресурса	-11.0831
▁внезапно	-11.0832
красив	-11.0833
дорожн	-11.0834
▁зона	-11.0835
▁правом	-11.0844
Евро	-11.0845
▁атака	-11.0846
лететь	-11.0848
▁предъявил	-11.0849
▁сидел	-11.0851
▁пункты	-11.0852
водят	-11.0858
ированных	-11.0858
ленные	-11.0858
▁Иркутск	-11.0858
▁Конгресс	-11.086
▁Силуанов	-11.086
▁кампания	-11.086
▁корабль	-11.086
▁руководителем	-11.086
▁традиция	-11.086
▁сердечно	-11.086
▁Таиланд	-11.086
▁уровню	-11.086
▁китайских	-11.086
▁Вскоре	-11.0861
▁Георгий	-11.0861
▁Смирнов	-11.0861
▁гибель	-11.0861
▁тендер	-11.0861
▁надеюсь	-11.0861
▁Большой	-11.0861
▁сомнения	-11.0861
▁перемещен	-11.0861
▁возмущен	-11.0861
▁заявляют	-11.0862
▁чудо	-11.0863
▁вдоль	-11.0864
▁выгодно	-11.0864
▁дилер	-11.0865
ковым	-11.0865
▁двигатель	-11.0865
▁перекрыт	-11.0866
▁Лондона	-11.0868
▁Самарской	-11.0869
▁вижу	-11.0869
▁явление	-11.087
2,6	-11.087
▁предложить	-11.087
▁избиратель	-11.0872
▁сирийском	-11.0873
▁способен	-11.0874
БК	-11.0875
▁стреми	-11.0877
▁содержится	-11.0877
тельные	-11.0878
для	-11.0878
▁планета	-11.0878
▁ночно	-11.0879
▁узнали	-11.0882
▁жизнью	-11.0884
▁опубликовано	-11.0885
ящий	-11.0885
▁особенности	-11.0885
падает	-11.0886
▁вывоз	-11.0886
▁омбудсмен	-11.0886
▁автобуса	-11.0887
▁Средне	-11.0892
▁Генеральны	-11.0894
▁автономн	-11.0895
▁IT	-11.0897
▁антироссийски	-11.0898
▁шаги	-11.0899
▁чемпионом	-11.0901
▁решено	-11.0901
▁коммерческ	-11.0904
▁хватит	-11.0909
▁Общественн	-11.0909
sa	-11.0914
▁Ана	-11.0916
ГУ	-11.0918
▁действующе	-11.0919
▁спикера	-11.0919
▁сериала	-11.092
▁финансовым	-11.0921
▁включил	-11.0922
▁территориальн	-11.0924
-2016"	-11.0925
▁Эд	-11.0927
▁туристически	-11.0927
ителю	-11.0929
коммерческ	-11.0929
Лучш	-11.0934
▁мощность	-11.0934
sh	-11.0935
▁шел	-11.0937
▁Джан	-11.0938
port	-11.0943
▁желт	-11.0943
▁критику	-11.0944
Джебхат	-11.0944
▁Израиль	-11.0944
▁ребенком	-11.0944
▁император	-11.0944
▁пенсий	-11.0944
▁соблюдение	-11.0944
▁Одновременно	-11.0945
▁баллистическ	-11.0945
▁представляющи	-11.0945
монтаж	-11.0945
▁лагере	-11.0945
▁Европарламент	-11.0945
▁полигон	-11.0945
▁обещают	-11.0945
▁граб	-11.0945
▁гриб	-11.0945
▁соратник	-11.0946
Ельцин	-11.0946
▁пересечени	-11.0947
▁такому	-11.0952
▁окончательн	-11.0953
▁оперативны	-11.0954
▁Труд	-11.0955
▁секретаря	-11.0957
▁Пожар	-11.096
▁книгу	-11.096
▁президентской	-11.0962
▁турецкой	-11.0962
▁транспорте	-11.0963
▁кровь	-11.0964
▁Лун	-11.0967
▁начальн	-11.0967
▁160	-11.0969
▁снижать	-11.0969
▁Коз	-11.097
▁производственны	-11.097
▁красиво	-11.0971
▁Кен	-11.0983
▁Абд	-11.0987
▁активистов	-11.0988
▁знаете	-11.0989
▁похож	-11.099
▁пить	-11.099
▁молочн	-11.0991
▁увидели	-11.0995
▁стадионе	-11.1005
▁выбрали	-11.1009
▁качественны	-11.101
▁соседне	-11.1014
▁известные	-11.1017
▁Луганск	-11.102
ответственн	-11.1022
люк	-11.1022
Мос	-11.1026
▁бассейн	-11.1029
▁повлиял	-11.1029
▁поддержкой	-11.1029
▁правоохранители	-11.1029
▁собственный	-11.1029
▁Bank	-11.1029
▁Пострадавш	-11.1029
▁композитор	-11.1029
▁Киргизии	-11.1029
▁основу	-11.1029
▁закупок	-11.1029
▁мяса	-11.1029
▁заявок	-11.1029
▁освободить	-11.1029
ran	-11.103
▁праздновани	-11.103
▁задержанных	-11.1031
▁герой	-11.1031
▁сырья	-11.1031
▁гимнаст	-11.1031
▁Свои	-11.1034
▁воздухе	-11.1034
58	-11.1037
▁работники	-11.1037
даль	-11.1037
▁привела	-11.104
вольно	-11.1041
▁Интересно	-11.1042
mi	-11.1042
▁Тверской	-11.1043
▁разверну	-11.1044
▁конституционно	-11.1044
▁задачей	-11.1044
▁войти	-11.1044
▁вариантов	-11.1045
▁полеты	-11.1045
51	-11.1047
▁владеет	-11.1047
▁дед	-11.1048
▁обвал	-11.1053
▁Яценюк	-11.1054
▁альянс	-11.1054
▁Семен	-11.1055
▁меняется	-11.1055
никами	-11.1061
▁нашими	-11.1061
▁Руси	-11.1063
▁шайб	-11.1064
▁месяце	-11.1065
▁районы	-11.1068
▁повторя	-11.107
▁Красной	-11.1072
▁заемщик	-11.1081
▁март	-11.1083
▁экстренны	-11.1088
▁прогнозирует	-11.109
▁Немцова	-11.1091
▁качеств	-11.1092
▁изданию	-11.1093
▁использует	-11.1096
▁россиянам	-11.1099
демократ	-11.11
▁Ты	-11.1105
:20	-11.1107
▁несет	-11.111
▁определенн	-11.111
▁Юли	-11.1113
▁Михайлов	-11.1113
▁размещение	-11.1114
▁талант	-11.1114
▁эпохи	-11.1114
>	-11.1115
▁Конституционн	-11.1115
▁Патриарх	-11.1115
▁автосалон	-11.1115
▁контрабанд	-11.1115
▁коэффициент	-11.1115
▁нынешних	-11.1115
▁разумеется	-11.1115
▁соответствующих	-11.1115
▁задержала	-11.1115
▁каждая	-11.1115
▁колледж	-11.1115
▁разработку	-11.1115
▁ужесточен	-11.1115
▁проверок	-11.1115
Газеты	-11.1115
▁угодно	-11.1115
▁китайской	-11.1115
▁Финансы	-11.1115
▁Челябинской	-11.1115
▁следователя	-11.1115
▁подарок	-11.1115
▁управляющий	-11.1116
▁представлять	-11.1118
▁сцены	-11.1118
▁моего	-11.112
▁Пал	-11.1121
регулиров	-11.1122
▁превышени	-11.1123
знакомиться	-11.1124
▁километрах	-11.1127
▁проведенно	-11.1128
▁накопительн	-11.1131
▁тяг	-11.1132
▁совершили	-11.1134
▁университете	-11.1135
▁60%	-11.1136
ываются	-11.1137
▁представления	-11.1137
▁решен	-11.1141
▁тарифы	-11.1142
▁Кубк	-11.1144
бегать	-11.1146
▁ухода	-11.1146
▁используются	-11.1147
▁бок	-11.1154
▁Гус	-11.1155
▁сельхоз	-11.1156
сирийск	-11.1157
▁прошлый	-11.1158
нские	-11.1162
▁французского	-11.1168
▁(+	-11.1169
▁продолжительно	-11.117
▁младш	-11.1171
РТ	-11.1171
▁стены	-11.1173
▁округу	-11.1175
▁жилого	-11.1176
против	-11.118
▁поддерживал	-11.1181
▁седьм	-11.1183
▁шин	-11.1187
оценивается	-11.1188
▁законы	-11.119
ленный	-11.1196
секретаря	-11.1197
▁Мик	-11.1197
тис	-11.1199
нструктор	-11.1199
летию	-11.1199
son	-11.12
▁заболевание	-11.1201
▁Раньше	-11.1201
▁обнародован	-11.1201
▁расширить	-11.1201
▁согласен	-11.1201
▁двоих	-11.1201
▁обвиняемого	-11.1201
▁взаимодействие	-11.1201
▁зоопарк	-11.1201
▁Франк	-11.1202
Георг	-11.1202
▁нелегальны	-11.1203
▁оказания	-11.1204
▁нуждается	-11.1205
▁любил	-11.1206
▁обращаться	-11.1208
▁обсуждал	-11.1209
▁сотрудничать	-11.121
▁открытым	-11.1211
▁минимальны	-11.1211
▁4,5	-11.1212
▁разговора	-11.1212
местить	-11.1213
▁заявляли	-11.1216
▁распространения	-11.1216
▁секунды	-11.1217
▁зарплата	-11.1217
▁балла	-11.1218
▁Шан	-11.1218
▁правозащитник	-11.1218
▁чай	-11.1218
▁здоровы	-11.1222
▁возможной	-11.1223
▁De	-11.1228
▁приговора	-11.1228
рица	-11.1229
▁владельцы	-11.1235
безопасн	-11.1237
▁руками	-11.1237
▁действующим	-11.124
нскую	-11.1241
▁персональны	-11.1241
▁Спец	-11.1241
▁комплексов	-11.1243
вшему	-11.1247
▁оценивают	-11.1247
▁вреда	-11.1248
▁Где	-11.125
▁Америка	-11.1253
льная	-11.1254
▁ветеранов	-11.1254
нинг	-11.1254
ированные	-11.1256
▁доверие	-11.1257
▁продолжаются	-11.1259
▁физической	-11.1259
▁Mar	-11.1262
▁секс	-11.1263
▁Надежд	-11.1263
▁идеолог	-11.1264
▁силов	-11.1264
ack	-11.1267
97	-11.1269
▁погодны	-11.1272
айн	-11.1272
▁Федоров	-11.1274
63	-11.1274
▁стрельбы	-11.1279
▁управлять	-11.1279
клуб	-11.1283
▁пошлин	-11.1284
▁3%	-11.1284
▁лишни	-11.1286
▁попав	-11.1286
▁Аркадий	-11.1288
▁Нидерландов	-11.1288
▁банкротства	-11.1288
▁интеграции	-11.1288
▁обусловлен	-11.1288
▁сложнее	-11.1288
▁философ	-11.1288
▁Пакистан	-11.1288
▁Рогозин	-11.1288
▁отрасль	-11.1288
▁любят	-11.1288
▁полутора	-11.1288
▁оттуда	-11.1288
▁стресс	-11.1288
▁сексуально	-11.1288
▁полицейским	-11.1288
▁Питер	-11.1289
▁Ford	-11.1289
▁диалога	-11.1289
▁вывода	-11.1289
320	-11.1289
▁Причина	-11.1289
▁Богдан	-11.129
▁соблюдать	-11.1291
нимая	-11.1296
▁обвиняется	-11.1297
▁1,4	-11.1299
▁охране	-11.1299
▁пары	-11.1299
▁арестовал	-11.13
▁победой	-11.1302
▁Депутаты	-11.1304
▁журнале	-11.1311
▁готовятся	-11.1311
▁Гро	-11.1312
▁отставки	-11.1312
▁приложения	-11.1313
▁Были	-11.1314
▁бомбы	-11.1314
▁дефицита	-11.1316
▁называемой	-11.1326
принима	-11.1327
▁приступ	-11.1331
▁добива	-11.1332
▁Соло	-11.1334
▁каждым	-11.1345
▁тигр	-11.1347
tion	-11.1349
Из	-11.1349
▁территориях	-11.1353
▁адресу	-11.1355
▁прописан	-11.1355
▁перво	-11.1358
▁работникам	-11.1358
▁пакета	-11.1359
культур	-11.1361
компания	-11.1363
▁комментиру	-11.1363
▁девят	-11.1368
▁Коб	-11.1368
▁вызвала	-11.137
карт	-11.1371
▁филиала	-11.1371
▁спецназ	-11.1372
▁кофе	-11.1372
▁Донбасс	-11.1373
▁пир	-11.1373
Коммерсант	-11.1375
▁устал	-11.1375
▁мультфильм	-11.1376
Нафтогаз	-11.1376
▁Африки	-11.1376
▁музыку	-11.1376
▁происхождения	-11.1376
▁реакция	-11.1376
▁удовлетворил	-11.1376
▁хищении	-11.1376
▁Аксенов	-11.1376
▁останутся	-11.1376
▁выручки	-11.1376
▁недавни	-11.1376
▁Анкара	-11.1376
▁нехватк	-11.1376
▁изделия	-11.1376
▁мешает	-11.1378
Русский	-11.1378
▁молоко	-11.1379
▁действиями	-11.138
▁чувствует	-11.138
▁родину	-11.1381
▁глазах	-11.1382
▁американская	-11.1382
▁смотрел	-11.1382
▁сохранения	-11.1383
▁еду	-11.1383
▁выделить	-11.1384
▁Нагорно	-11.1384
▁грант	-11.1384
▁слухи	-11.1385
▁услышал	-11.1386
▁добавить	-11.1387
▁61	-11.1391
▁хирург	-11.1392
▁ведения	-11.1395
▁Женщина	-11.1395
▁Татарстана	-11.1396
▁свойств	-11.1401
▁Зика	-11.1401
▁закупки	-11.1402
▁блогер	-11.1403
▁карту	-11.1404
▁правяще	-11.1404
марк	-11.1405
Банк	-11.1406
▁обзор	-11.1407
▁полную	-11.141
▁оформлен	-11.1413
ашей	-11.1414
▁клиента	-11.1415
▁продают	-11.1417
▁посольство	-11.1417
Под	-11.1418
▁аналогично	-11.142
▁хит	-11.1425
▁предоставления	-11.1426
▁попада	-11.1429
▁разбира	-11.1431
▁пунктах	-11.1434
дневны	-11.1436
▁сдать	-11.1439
▁признакам	-11.1439
▁Людмила	-11.1441
▁практику	-11.1442
речь	-11.1442
▁вывести	-11.1443
▁государственн	-11.1443
▁материалах	-11.1444
▁тяжелой	-11.1453
▁Дагестана	-11.1457
▁поклонник	-11.1457
▁Сав	-11.1459
жек	-11.1463
▁фестивале	-11.1463
ведут	-11.1464
▁Android	-11.1464
▁Кэмерон	-11.1464
▁неподалеку	-11.1464
▁полугодии	-11.1464
▁суверенитет	-11.1464
▁Тегеран	-11.1464
▁обещает	-11.1464
▁Кубок	-11.1464
▁архитектор	-11.1464
▁пространстве	-11.1464
▁счастью	-11.1464
▁зерна	-11.1465
▁ищут	-11.1465
▁пропуска	-11.1465
▁гидро	-11.1466
▁Томас	-11.1466
▁выдвинул	-11.1467
▁объемом	-11.1468
▁служебны	-11.1468
▁собрались	-11.1469
▁незаконным	-11.147
▁Никто	-11.1471
хранилищ	-11.1471
▁проведут	-11.1472
▁легче	-11.1472
Fi	-11.1472
▁региональные	-11.1473
▁порта	-11.1476
▁коррект	-11.1476
▁посвященны	-11.1479
▁Общая	-11.148
совершеннолетних	-11.1481
▁Екатерин	-11.1484
▁серия	-11.1488
Право	-11.1489
▁защищен	-11.1494
▁заключении	-11.1495
▁военное	-11.1495
▁ровно	-11.1497
▁статьям	-11.1498
лип	-11.15
▁устанавлива	-11.1502
▁Це	-11.1504
▁180	-11.1507
валь	-11.1508
▁Фер	-11.1509
▁1,3	-11.1513
▁практики	-11.1513
огн	-11.1514
▁отправили	-11.1515
шит	-11.1516
▁рейсы	-11.1517
▁проводили	-11.1517
▁наращива	-11.1529
▁элементов	-11.1534
▁осуществлять	-11.1534
▁героин	-11.1535
▁возможном	-11.1537
▁дворе	-11.1539
▁органа	-11.154
▁дым	-11.1541
▁раненых	-11.1542
Y	-11.1544
▁совершения	-11.1544
▁сомнева	-11.1551
оенная	-11.1551
▁УЕФА	-11.1553
▁Центризбирком	-11.1553
▁очевидцев	-11.1553
▁сведений	-11.1553
▁сложных	-11.1553
▁спектакля	-11.1553
▁Кандидат	-11.1553
▁апелляционн	-11.1553
▁мотоцикл	-11.1553
▁Сколько	-11.1553
▁Полицейские	-11.1553
▁современные	-11.1553
▁Госдеп	-11.1553
▁здрав	-11.1553
▁рассматривают	-11.1554
▁принципиально	-11.1555
▁зеркал	-11.1556
▁близким	-11.1556
▁приостановил	-11.1556
▁последовал	-11.1557
▁украинская	-11.1557
▁согласились	-11.1558
ъезд	-11.1558
▁смешанн	-11.1559
▁обеспечению	-11.1562
▁покажет	-11.1562
бактери	-11.1563
▁обладател	-11.1565
▁квартира	-11.1565
▁Первое	-11.1566
▁врезал	-11.1566
▁писать	-11.1566
▁оценили	-11.1568
▁вооруженные	-11.1569
▁головой	-11.157
▁сложной	-11.1573
▁продовольственн	-11.1574
▁указывают	-11.1575
▁Республика	-11.1575
ty	-11.1576
йдя	-11.1579
▁обсуждают	-11.158
▁Часть	-11.1581
▁полученные	-11.1581
▁выведен	-11.1582
инка	-11.1583
▁дистанци	-11.1587
▁крут	-11.1588
▁соотечественник	-11.1591
▁выдал	-11.1592
▁выборами	-11.1593
Тур	-11.1596
▁случая	-11.1596
▁претендентов	-11.1597
правились	-11.1598
▁900	-11.1603
▁Муж	-11.1604
▁нулев	-11.1605
пита	-11.1606
▁кредиторов	-11.1608
ДП	-11.1608
▁возможны	-11.1609
▁персонала	-11.1609
▁пограничн	-11.1611
▁нож	-11.1612
Пол	-11.1613
▁неофициальн	-11.1613
▁эфир	-11.1614
евского	-11.1614
классник	-11.1616
▁формиру	-11.1618
▁телеканалу	-11.1623
▁смотрит	-11.1625
андер	-11.1626
▁Хал	-11.1627
АП	-11.1629
службу	-11.1635
агент	-11.1635
▁привык	-11.1636
пакет	-11.1636
▁Bo	-11.164
▁60-	-11.1641
▁Тор	-11.1643
Огонек	-11.1643
▁Касьянов	-11.1643
▁внешних	-11.1643
▁предыдущих	-11.1643
▁просьбе	-11.1643
▁условие	-11.1643
▁История	-11.1643
▁горячи	-11.1644
▁посадку	-11.1644
▁престижн	-11.1644
▁похитил	-11.1644
▁повысил	-11.1644
ицкий	-11.1644
▁Культура	-11.1644
▁Авторы	-11.1645
▁победителей	-11.1645
▁кибер	-11.1646
▁Бах	-11.1647
▁весом	-11.1648
▁особого	-11.1648
▁защита	-11.1648
▁аудитории	-11.1648
▁завершилась	-11.1649
▁развивается	-11.165
▁визитом	-11.165
▁ехал	-11.165
▁сегменте	-11.166
▁Давид	-11.166
▁автоматическ	-11.166
▁ею	-11.1663
резать	-11.1665
▁весел	-11.167
▁Силь	-11.1672
Интерфаксу	-11.1674
▁полномочиями	-11.1677
альтернатив	-11.1678
▁возглавля	-11.1684
шедше	-11.1685
▁давал	-11.1686
▁автомобилист	-11.1686
▁Степан	-11.1688
▁нагрузка	-11.1691
▁боевиками	-11.1692
▁количестве	-11.1693
ковского	-11.1696
▁государству	-11.1697
▁песен	-11.1699
▁товарищ	-11.1701
▁выясня	-11.1703
▁инвалидов	-11.1705
▁получали	-11.1706
▁Нового	-11.1707
роб	-11.1708
молодеж	-11.171
▁служил	-11.1712
кроют	-11.1712
▁какими	-11.1712
▁Дво	-11.1713
ff	-11.1715
▁всяки	-11.1715
▁заинтересованы	-11.1716
▁мальчика	-11.1717
▁Первым	-11.1719
бур	-11.172
▁персонал	-11.1721
мост	-11.1722
▁пробы	-11.1724
греб	-11.1725
▁странно	-11.1725
▁Росстата	-11.1729
▁усилий	-11.1731
тянуть	-11.1731
▁магистр	-11.1732
▁Кос	-11.1733
▁бухгалтер	-11.1734
▁симптом	-11.1734
лейтенант	-11.1734
▁Journal	-11.1734
▁Безопасности	-11.1734
▁Гройсман	-11.1734
▁Режиссер	-11.1734
▁Япония	-11.1734
▁комиссию	-11.1734
▁мероприятии	-11.1734
▁тенденция	-11.1734
▁предъявлено	-11.1734
▁расследованию	-11.1734
▁продлить	-11.1734
▁Шевченко	-11.1734
▁выставлен	-11.1734
▁вырасти	-11.1735
▁ездить	-11.1735
▁траур	-11.1735
▁говорю	-11.1735
▁путев	-11.1735
▁экологически	-11.1736
▁спектр	-11.1737
▁собирать	-11.1737
▁наблюдать	-11.1738
▁меру	-11.1738
▁полуострове	-11.1738
▁виноват	-11.1738
▁пересмотреть	-11.1739
больше	-11.1742
up	-11.1745
▁Козлов	-11.1746
▁участках	-11.1746
▁сняты	-11.1748
▁помещение	-11.1748
▁голосовать	-11.1751
правится	-11.1754
▁профессиональн	-11.1756
▁частей	-11.176
▁Порт	-11.176
ьков	-11.176
▁реальные	-11.176
▁показан	-11.1762
▁занимают	-11.1765
кнул	-11.1766
▁встретил	-11.1768
▁Срок	-11.1769
▁Узбекистан	-11.1772
▁Турецк	-11.1774
лян	-11.1774
▁представили	-11.1776
▁Перми	-11.1776
▁обеспечивает	-11.1778
▁выражен	-11.1781
Платон	-11.1784
▁лидерами	-11.1785
▁соверш	-11.1789
▁a	-11.179
▁(0	-11.1792
летним	-11.1796
▁необходимым	-11.1797
▁and	-11.18
▁снизил	-11.1801
спект	-11.1804
грузку	-11.1806
▁термин	-11.1809
▁родственникам	-11.1815
▁нарушает	-11.1815
▁Лин	-11.1816
▁центры	-11.1816
▁выступит	-11.1817
tro	-11.1821
▁прогнозам	-11.1822
▁создают	-11.1826
▁ансамбл	-11.1826
▁скульптур	-11.1826
▁Йемен	-11.1826
▁компенсацию	-11.1826
▁лицензию	-11.1826
▁отклонил	-11.1826
▁ощущение	-11.1826
▁разрешить	-11.1826
▁нападении	-11.1826
▁цирк	-11.1826
▁Сербии	-11.1826
▁потребителя	-11.1826
▁любую	-11.1826
▁сделает	-11.1827
▁последующе	-11.1827
▁обвиняемых	-11.1827
▁одноименн	-11.1827
▁Победител	-11.1828
летия	-11.1829
▁добиваться	-11.1829
▁четвертьфинал	-11.183
▁рейтингов	-11.183
▁ищет	-11.1832
пытались	-11.1833
▁банком	-11.1833
▁являлся	-11.1833
▁экономическим	-11.1837
▁настаивает	-11.184
▁пыл	-11.184
▁76	-11.1841
▁Башара	-11.1842
▁70%	-11.1842
▁выиграла	-11.1843
▁хорошая	-11.1845
нял	-11.1846
▁огромные	-11.1849
эконом	-11.1849
▁классик	-11.1849
▁увеличился	-11.1852
▁Коро	-11.1859
▁молодого	-11.1861
▁лайнера	-11.1864
▁ведутся	-11.1865
глуб	-11.1867
▁достигли	-11.1869
▁экономическом	-11.1869
▁Другой	-11.1869
политическая	-11.187
▁корпуса	-11.1872
▁оборудован	-11.1875
▁ряду	-11.1877
▁исключен	-11.1881
▁семьям	-11.1881
логов	-11.1882
▁Военно	-11.1883
▁бал	-11.1888
▁82	-11.1889
▁запустить	-11.189
▁Реш	-11.1891
▁Итог	-11.1892
▁поддержани	-11.1893
▁грузовиков	-11.19
▁портале	-11.19
▁городом	-11.19
▁сторонники	-11.1901
▁разряд	-11.1902
▁Спас	-11.1905
▁ОП	-11.1905
шь	-11.1906
баш	-11.1906
▁перерыв	-11.1908
щают	-11.1914
▁пришло	-11.1917
Анджелес	-11.1919
контролируем	-11.1919
▁Башкирии	-11.1919
▁Брюсселя	-11.1919
▁Следователи	-11.1919
▁ПДД	-11.1919
▁ОНФ	-11.1919
▁потратил	-11.1919
▁казни	-11.1919
▁пьес	-11.1919
▁предпринят	-11.1919
▁клетки	-11.1919
▁русские	-11.192
▁интеллектуальн	-11.192
▁священник	-11.192
▁горяче	-11.1921
▁конструктор	-11.1921
▁певц	-11.1921
▁увеличилась	-11.1921
▁возможностями	-11.1921
▁Сай	-11.1923
▁РФС	-11.1923
▁психиатр	-11.1923
▁своеобразн	-11.1925
выше	-11.1925
▁En	-11.1925
▁кост	-11.1926
Север	-11.1928
▁угрожает	-11.1932
пускают	-11.1932
▁подводн	-11.1935
▁победить	-11.1935
▁магазины	-11.1938
▁пересек	-11.1938
▁проживающи	-11.1943
майор	-11.1943
▁гектаров	-11.1943
▁Соответствующи	-11.1944
▁террористами	-11.1944
бивать	-11.1945
▁гигантск	-11.1946
Большая	-11.1949
▁Остальны	-11.195
▁призыва	-11.1951
▁скандальн	-11.1952
▁кредитно	-11.1952
▁гуманитарно	-11.1953
▁злоупотреблени	-11.1954
▁согласия	-11.1954
▁свободной	-11.1954
▁дейст	-11.1954
▁Буш	-11.1958
▁финансовый	-11.1961
▁Нико	-11.1961
▁Ол	-11.1963
▁Мус	-11.1963
▁раст	-11.1965
▁Гагарина	-11.1969
▁высоте	-11.1972
▁карьер	-11.1973
▁рассчитывают	-11.1979
▁билетов	-11.1979
▁другу	-11.198
▁выразили	-11.1983
инвест	-11.1983
ностей	-11.1984
▁аварий	-11.1984
▁коммерческих	-11.1988
▁продвижени	-11.1988
▁переселен	-11.1988
▁носил	-11.1989
▁намек	-11.1991
▁дорожны	-11.1991
▁сократил	-11.1992
▁правовой	-11.1994
▁предстоящ	-11.1995
экономического	-11.1996
левого	-11.1999
▁неизвестный	-11.2
2,7	-11.2001
▁футболистов	-11.2008
пытаться	-11.2009
▁Нижнем	-11.2012
▁бульвар	-11.2012
▁голкипер	-11.2012
▁капремонт	-11.2012
▁лозунг	-11.2012
▁правонарушения	-11.2012
▁предыдущего	-11.2012
▁президиум	-11.2012
▁принадлежащи	-11.2012
▁прогремел	-11.2012
▁свидетелей	-11.2012
▁тяжести	-11.2012
▁хотите	-11.2012
Benz	-11.2012
▁Собеседник	-11.2012
▁нападающий	-11.2012
▁осторожно	-11.2012
▁судьбу	-11.2012
▁выручка	-11.2012
▁люблю	-11.2012
▁областей	-11.2012
▁Сборная	-11.2012
▁зритель	-11.2012
▁мошенник	-11.2012
▁вызывают	-11.2012
▁Lada	-11.2012
▁европейским	-11.2013
▁предлагаем	-11.2014
▁формирование	-11.2014
tra	-11.2015
▁III	-11.2015
▁Верховны	-11.2015
▁78	-11.2015
▁испытаний	-11.2016
▁отделении	-11.2016
▁исключает	-11.2017
▁следующие	-11.2017
▁ВМС	-11.2018
▁возникают	-11.2018
▁важные	-11.2019
▁вернулись	-11.202
▁Сумма	-11.202
▁укрепление	-11.2021
▁яйца	-11.2025
▁Зелен	-11.2026
▁называемый	-11.2027
дия	-11.203
▁ключевой	-11.2032
▁Жил	-11.2034
▁Джу	-11.2034
▁подозревает	-11.2035
рского	-11.204
стоящая	-11.2041
▁$50	-11.2041
▁рассматривается	-11.2042
▁вылета	-11.2045
▁идей	-11.2045
▁Деньги	-11.2045
▁достижение	-11.2046
▁единой	-11.2047
бывать	-11.2056
крут	-11.2057
▁Авиа	-11.206
мобильных	-11.2062
бросить	-11.2064
▁веке	-11.2064
▁So	-11.2067
▁банках	-11.2067
▁палате	-11.2068
▁высок	-11.2068
▁биолог	-11.2069
▁колеса	-11.2069
▁перелет	-11.2071
▁Эк	-11.2072
net	-11.2072
▁Дар	-11.2073
▁готовил	-11.2075
▁контракты	-11.2076
▁07	-11.2077
▁Всемирн	-11.2077
▁порту	-11.2079
мотор	-11.208
▁расширя	-11.2086
▁устанавливают	-11.2091
держав	-11.2091
▁известн	-11.2094
▁крупнейшим	-11.2096
Ростех	-11.2099
бюджет	-11.2099
▁Шир	-11.21
ресурс	-11.21
ительная	-11.2101
аждую	-11.2101
▁сбит	-11.2102
мешать	-11.2103
▁Фар	-11.2104
Россельхознадзор	-11.2106
▁сюрприз	-11.2106
▁Еврокомиссии	-11.2106
▁Организатор	-11.2106
▁недовольство	-11.2106
▁певица	-11.2106
▁попытку	-11.2106
▁сотрудничеству	-11.2106
▁номинации	-11.2107
▁ошибок	-11.2107
▁прекраща	-11.2107
▁зависеть	-11.2107
▁существования	-11.2107
▁версий	-11.2107
▁удивил	-11.2107
▁пляж	-11.2107
▁ошибка	-11.2107
▁лекарственны	-11.2107
▁разработка	-11.2107
Открытие	-11.2108
▁научный	-11.2108
▁сцену	-11.211
▁1992	-11.2111
▁Волков	-11.2112
▁сообщить	-11.2113
▁вернулась	-11.2114
▁состояться	-11.2114
▁будучи	-11.2114
▁Круз	-11.2115
елем	-11.2115
▁капитально	-11.2116
▁сильным	-11.2117
▁загоре	-11.2118
▁демократии	-11.2119
▁поставщика	-11.2122
▁жены	-11.2124
▁подписей	-11.2124
▁тесно	-11.2125
▁превосход	-11.2128
ради	-11.2128
писывать	-11.2133
▁2000-	-11.2135
▁спортивны	-11.2136
▁88	-11.2137
▁украинском	-11.2138
ируя	-11.2139
▁депутатом	-11.214
стол	-11.2142
нимают	-11.2143
▁отправился	-11.2144
▁льготы	-11.2144
▁возникли	-11.2145
▁чувства	-11.2146
▁знаменитого	-11.2146
▁облачн	-11.2148
▁берет	-11.2148
▁паспорта	-11.2151
▁Свято	-11.2151
майдан	-11.2155
▁Пентагона	-11.2156
▁положении	-11.2156
▁Общественно	-11.2159
▁объяснили	-11.2164
▁дорогой	-11.2164
▁диплом	-11.2168
ОК	-11.2169
3,6	-11.2169
Московск	-11.2172
▁исследовательск	-11.2178
▁заказа	-11.2178
▁третьим	-11.2186
министром	-11.2187
ka	-11.2188
кроет	-11.2193
▁учиться	-11.2194
▁верно	-11.2198
▁долей	-11.2198
▁передачу	-11.22
падают	-11.2201
▁фьючерс	-11.2202
ступенчат	-11.2202
−	-11.2202
▁Russia	-11.2202
▁Пользовател	-11.2202
▁внутренние	-11.2202
▁снегопад	-11.2202
▁прыжк	-11.2202
▁детства	-11.2202
▁аптек	-11.2202
▁гипер	-11.2202
▁столичном	-11.2202
▁хватило	-11.2202
▁выбирать	-11.2203
▁барьер	-11.2203
▁ценностей	-11.2204
▁планировалось	-11.2206
▁передали	-11.2206
▁Управления	-11.2206
▁Местны	-11.2207
▁курдов	-11.2207
▁сторонник	-11.2208
▁Фл	-11.221
▁Крест	-11.221
▁лишить	-11.2213
▁высокую	-11.2213
org	-11.2214
▁Лучши	-11.2214
▁досто	-11.2215
92	-11.2217
остей	-11.2217
▁проблемами	-11.2218
▁точек	-11.2219
▁Добр	-11.2222
▁придумал	-11.2224
▁духовно	-11.2226
▁карьере	-11.223
▁участника	-11.2231
▁автодорог	-11.2231
▁привлечения	-11.2234
огрев	-11.2235
моему	-11.2236
▁Меж	-11.2238
▁отряда	-11.2241
▁встрети	-11.2242
Что	-11.2246
▁участниц	-11.2248
▁Пентагон	-11.2248
▁Татьян	-11.2248
▁Зин	-11.2248
▁площадка	-11.225
▁Британски	-11.2251
Укр	-11.2253
▁туризм	-11.2253
▁уголь	-11.2255
▁глазами	-11.2255
▁посчитал	-11.2255
▁живот	-11.2256
▁80-	-11.2262
морского	-11.2263
▁фактов	-11.2263
▁молча	-11.2263
ашвили	-11.2265
Звезд	-11.2266
▁границей	-11.2267
▁жителями	-11.2268
▁цветы	-11.2269
гигант	-11.2271
ВО	-11.2274
▁Главным	-11.2275
▁разговоры	-11.2277
ant	-11.2279
▁порой	-11.2282
▁музее	-11.2284
▁указано	-11.2284
контроль	-11.229
▁ФК	-11.2291
ворот	-11.2292
структур	-11.2293
az	-11.2294
граждан	-11.2295
Открыт	-11.2295
▁содержит	-11.2296
▁опытом	-11.2297
▁оппозиция	-11.2298
▁пользователь	-11.2298
▁профессии	-11.2298
▁редакцию	-11.2298
▁самоуправления	-11.2298
▁собственным	-11.2298
▁соответствующий	-11.2298
▁субсидий	-11.2298
▁Обычно	-11.2298
▁ЦРУ	-11.2298
▁неизбежно	-11.2298
▁ребенку	-11.2298
▁специализиру	-11.2298
▁ПФР	-11.2298
▁поставку	-11.2298
▁армян	-11.2298
▁Чиновник	-11.2298
▁череп	-11.2298
▁проживания	-11.2298
▁АСВ	-11.2298
▁Второе	-11.2298
▁сделку	-11.2298
▁беседы	-11.2299
▁намерева	-11.2299
▁Ряб	-11.2299
▁семинар	-11.2299
▁состоятся	-11.23
▁плакат	-11.2301
▁лыжн	-11.2301
▁заражен	-11.2301
▁уважение	-11.2301
▁Издание	-11.2301
▁соблюда	-11.2303
▁пожалова	-11.2304
▁улучшения	-11.2307
▁фотография	-11.2308
OS	-11.231
Говорит	-11.231
▁смены	-11.231
▁периодически	-11.2311
Южный	-11.2313
двор	-11.2314
▁изображения	-11.2317
▁Каир	-11.2317
▁баб	-11.2318
▁испытание	-11.2319
▁помогли	-11.2319
▁нужда	-11.2322
▁поднят	-11.2323
▁объявления	-11.2326
▁кожи	-11.2326
▁приходят	-11.2327
▁нарушил	-11.2328
▁развод	-11.2329
Радио	-11.2331
▁ценности	-11.2337
▁четверть	-11.2344
ist	-11.2347
▁налоговые	-11.2347
▁исполнен	-11.2348
▁критическ	-11.2351
▁поступления	-11.2354
▁привлекать	-11.2356
▁островов	-11.2357
▁больных	-11.2357
▁сегмента	-11.2358
▁Мун	-11.236
▁считали	-11.2361
▁Театр	-11.2361
▁колен	-11.2362
▁Ближне	-11.2363
авиа	-11.2365
▁Александрова	-11.2366
ub	-11.2366
▁2%	-11.2367
▁операторов	-11.2369
Арсенал	-11.2374
▁обороне	-11.2379
позицион	-11.238
ционные	-11.2382
▁переговор	-11.2383
▁направлениям	-11.2384
▁обязал	-11.2384
▁Улюкаева	-11.2386
-18	-11.2389
▁кабин	-11.239
ton	-11.2391
государств	-11.2392
фильм	-11.2393
▁дальне	-11.2393
▁York	-11.2395
▁Венесуэлы	-11.2395
▁Макларен	-11.2395
▁инстанции	-11.2395
▁коммуникаций	-11.2395
▁контекст	-11.2395
▁набережной	-11.2395
▁навсегда	-11.2395
▁подразделение	-11.2395
▁собственную	-11.2395
▁условии	-11.2395
▁регулирования	-11.2395
▁обращают	-11.2395
▁приближа	-11.2395
▁однажды	-11.2395
▁солидар	-11.2395
▁желании	-11.2395
▁тревог	-11.2395
▁деньгами	-11.2395
▁сомнительн	-11.2395
▁политическую	-11.2395
▁гонке	-11.2396
▁снаряд	-11.2396
▁пойдут	-11.2396
▁растут	-11.2397
CAS	-11.2397
▁схема	-11.2397
▁занятости	-11.2397
▁появиться	-11.2398
▁лифт	-11.2398
▁реальной	-11.2398
шоу	-11.2399
▁текущей	-11.2399
▁рабоч	-11.24
▁1996	-11.2402
правил	-11.2402
▁концепт	-11.2403
▁новостн	-11.2405
▁низкой	-11.2405
▁россиянина	-11.2405
▁осуществляется	-11.2408
▁ПАРНАС	-11.2408
500	-11.2408
▁Правил	-11.2409
▁построил	-11.2413
▁обман	-11.2415
▁партнером	-11.2421
ография	-11.2421
тивно	-11.2422
▁ветра	-11.2423
льный	-11.2425
▁(8	-11.2426
▁To	-11.2432
▁называли	-11.2435
▁устроить	-11.2435
▁Наибол	-11.244
▁инициативой	-11.2441
▁Западной	-11.2441
▁убийств	-11.2444
ющаяся	-11.2444
▁ежегодн	-11.2445
▁народный	-11.2445
▁картину	-11.2448
▁Пет	-11.2449
▁общим	-11.2451
▁московский	-11.2451
▁судить	-11.2451
▁рож	-11.2452
етесь	-11.2456
▁придет	-11.2456
▁годовом	-11.2457
▁перенесен	-11.2457
▁Q	-11.2461
▁журналистами	-11.2466
▁Пят	-11.2467
▁Ленинск	-11.2468
▁Бала	-11.2471
▁мороз	-11.2471
писывает	-11.2471
▁Борисов	-11.2471
▁корпоративн	-11.2472
кович	-11.2474
группы	-11.2474
▁Марин	-11.2477
▁Куба	-11.2478
▁министерств	-11.2478
▁Кузнецова	-11.2479
▁дата	-11.2482
даст	-11.2484
▁Действительно	-11.2493
▁ведущий	-11.2493
▁девушек	-11.2493
▁дискуссии	-11.2493
▁зрители	-11.2493
▁исключить	-11.2493
▁лаборатории	-11.2493
▁появляются	-11.2493
▁принадлежал	-11.2493
▁противоположн	-11.2493
▁реакцию	-11.2493
▁таблице	-11.2493
▁модернизации	-11.2493
▁Чечне	-11.2493
▁вошла	-11.2493
▁учреждение	-11.2493
▁ЮКОСа	-11.2493
▁тираж	-11.2494
▁слушания	-11.2495
-2017	-11.2495
▁обращении	-11.2495
шпион	-11.2496
Народный	-11.2498
▁будь	-11.2499
▁p	-11.2499
▁памятн	-11.25
▁2-3	-11.25
▁окружающей	-11.25
▁добавля	-11.2501
▁смену	-11.2502
▁1995	-11.2503
▁ученым	-11.2504
тормоз	-11.2504
▁удивительно	-11.2505
▁профильны	-11.2505
▁настроения	-11.2506
▁продлении	-11.2506
▁следующим	-11.2507
▁поездок	-11.2507
функциональн	-11.2507
▁весны	-11.2508
▁Корее	-11.2512
▁Задержан	-11.2513
ложение	-11.2514
▁Учитывая	-11.2515
▁Джонсон	-11.2516
▁вниз	-11.2517
▁встретился	-11.2517
Ar	-11.2522
бон	-11.2524
▁Бас	-11.2524
▁определя	-11.2524
▁делается	-11.2526
▁повторно	-11.2529
▁раскол	-11.2529
▁маршрута	-11.2529
▁бюджету	-11.2529
▁действующий	-11.253
▁плот	-11.253
▁радиостанции	-11.2533
▁улучшить	-11.2533
вон	-11.2535
▁прекращение	-11.2536
ive	-11.2538
▁Тал	-11.2538
Строй	-11.2542
▁муниципальны	-11.2544
Мин	-11.2545
▁молодым	-11.2552
▁воздушны	-11.2554
несло	-11.2554
▁главные	-11.2554
▁Y	-11.2556
рег	-11.2558
плод	-11.2562
▁прогнозы	-11.2566
▁разбирательств	-11.2566
▁масла	-11.2567
▁нарушениях	-11.257
▁ночи	-11.2573
▁нашла	-11.2574
▁впереди	-11.2577
ea	-11.2578
▁позициям	-11.2581
▁Миш	-11.2583
▁$6	-11.2584
▁окон	-11.2586
▁Всероссийско	-11.2586
▁переданы	-11.2588
▁Кап	-11.2589
▁применен	-11.2589
▁исторических	-11.259
удовлетворительн	-11.2592
▁CNN	-11.2592
▁Понятно	-11.2592
▁бразильск	-11.2592
▁брифинг	-11.2592
▁контейнер	-11.2592
▁мельдоний	-11.2592
▁обеспечил	-11.2592
▁поликлиник	-11.2592
▁прозвучал	-11.2592
▁регулярны	-11.2592
▁соответствуют	-11.2592
▁телевизионн	-11.2592
▁церковь	-11.2592
▁€1	-11.2592
▁Горбачев	-11.2592
▁резидент	-11.2592
▁столкнулись	-11.2592
▁грунт	-11.2592
▁имею	-11.2592
▁Фильм	-11.2592
▁Штаты	-11.2592
▁код	-11.2592
▁соглашению	-11.2592
▁способствует	-11.2593
полицейск	-11.2593
▁витамин	-11.2593
▁Екатеринбурга	-11.2593
▁Wall	-11.2593
▁общаться	-11.2593
▁букв	-11.2593
▁Стамбуле	-11.2593
▁объединить	-11.2594
здрав	-11.2594
▁обвинению	-11.2595
▁совершено	-11.2596
▁церемония	-11.2596
▁1994	-11.2597
ke	-11.2597
▁понятие	-11.26
▁радикально	-11.2604
▁Светл	-11.2604
▁готовят	-11.2606
▁подписать	-11.2607
▁элементы	-11.2609
Раз	-11.2616
▁крупной	-11.2617
▁облада	-11.2617
▁важна	-11.2618
▁разочарован	-11.2621
▁банкир	-11.2624
щиеся	-11.2625
▁высокого	-11.2631
▁назначении	-11.2633
▁приведен	-11.2636
▁Британск	-11.264
▁точка	-11.2641
82	-11.2644
▁сроков	-11.2644
▁написан	-11.2652
писание	-11.2654
▁канале	-11.2655
турецк	-11.2659
▁1000	-11.2661
▁местным	-11.2661
▁единый	-11.2667
▁взяты	-11.2668
нность	-11.2671
▁беспоко	-11.2674
▁нанесен	-11.2675
▁чувство	-11.2675
владел	-11.2676
▁способности	-11.2678
▁магазинах	-11.2679
$	-11.2681
▁маршруту	-11.2682
▁числ	-11.2683
▁знаков	-11.2686
миллион	-11.2691
программ	-11.2691
▁сцена	-11.2691
▁саммит	-11.2692
ure	-11.2692
продаж	-11.2692
_	-11.2692
▁Airbus	-11.2692
▁Шарапова	-11.2692
▁асфальт	-11.2692
▁обслуживание	-11.2692
▁олигарх	-11.2692
▁происходят	-11.2692
▁победителем	-11.2692
▁учителей	-11.2692
▁НДС	-11.2692
Челси	-11.2692
▁заблокирован	-11.2692
▁немецкого	-11.2692
▁аудио	-11.2692
▁Компании	-11.2692
▁антикоррупционн	-11.2692
▁стекло	-11.2693
▁презентации	-11.2693
▁отходов	-11.2693
чивать	-11.2693
▁Вторая	-11.2693
▁объективно	-11.2694
▁вспомнить	-11.2694
▁стабильности	-11.2697
▁воздействия	-11.2701
▁Post	-11.2702
▁Зуб	-11.2703
▁выделено	-11.2705
▁преодолеть	-11.2706
▁высокая	-11.271
▁Жел	-11.2711
▁подбор	-11.2712
▁Лоб	-11.2713
▁саммите	-11.2713
везен	-11.2714
▁90%	-11.2714
▁тепла	-11.2715
▁особый	-11.2717
▁кузов	-11.2721
▁подходит	-11.2721
▁понят	-11.2723
ft	-11.2724
▁Рыб	-11.2724
носителя	-11.2729
▁Март	-11.2732
▁положен	-11.2737
▁созданы	-11.2738
▁региону	-11.2741
▁поверхность	-11.2742
▁посыл	-11.2742
▁высказался	-11.2748
▁теракты	-11.275
баев	-11.2752
▁союзников	-11.2753
СЕ	-11.2755
▁сложившей	-11.2755
▁Корн	-11.2759
▁полка	-11.276
▁собственников	-11.2763
Северный	-11.2765
▁переведен	-11.2766
▁проигра	-11.2766
▁Wi	-11.2766
▁предметы	-11.2769
▁применением	-11.2772
▁соперников	-11.2772
▁хозяйство	-11.2773
▁ориентирован	-11.2776
▁центром	-11.2777
▁мимо	-11.2778
▁кандидаты	-11.2785
грязн	-11.2786
маз	-11.2788
▁победитель	-11.2789
▁Microsoft	-11.2793
▁Пхеньян	-11.2793
▁Румынии	-11.2793
▁господдержк	-11.2793
▁железнодорожны	-11.2793
▁захвачен	-11.2793
▁низких	-11.2793
▁оптимизм	-11.2793
▁ситуаций	-11.2793
▁стационар	-11.2793
▁антикризисн	-11.2793
▁выполнял	-11.2793
▁сильнейш	-11.2793
▁контролирует	-11.2793
▁сообщений	-11.2793
▁полицейский	-11.2793
▁СПГ	-11.2793
механик	-11.2793
▁опасных	-11.2793
▁вернется	-11.2793
▁Сахалинской	-11.2793
▁двигателей	-11.2793
▁нелегально	-11.2795
▁сквер	-11.2795
▁обвинительн	-11.2795
▁курдски	-11.2795
▁гарантирован	-11.2796
▁взаимно	-11.2796
▁ресторана	-11.2798
▁филиал	-11.2798
плав	-11.2798
▁автомобилем	-11.2799
▁последнюю	-11.2799
▁московской	-11.2799
▁институтов	-11.28
▁сохраняется	-11.2801
▁укрепления	-11.2802
▁запретил	-11.2804
▁комбинат	-11.2805
▁спортсменам	-11.2805
▁подобное	-11.2805
▁вовлечен	-11.2806
▁Макаров	-11.2806
▁личных	-11.2807
▁выходил	-11.2808
Крым	-11.281
ect	-11.2813
▁сегмент	-11.2813
Прям	-11.2813
▁Самым	-11.2816
РГ	-11.2816
Сахалинск	-11.2816
▁цветов	-11.2817
елли	-11.282
Хорош	-11.2822
▁признание	-11.2826
▁запасы	-11.283
ставка	-11.2832
▁бывшему	-11.2833
▁признаны	-11.2839
▁привлечение	-11.284
be	-11.2843
▁праздники	-11.2843
рец	-11.2844
▁причину	-11.2846
▁ушли	-11.2848
▁удержать	-11.2849
▁лайнер	-11.2853
▁ранне	-11.2856
▁зимне	-11.2856
▁обрати	-11.2861
▁полезно	-11.2861
▁могил	-11.2863
▁температуры	-11.2864
▁достоинства	-11.2867
▁поступили	-11.2869
▁аналитиков	-11.2874
хождения	-11.2877
▁Акци	-11.2878
▁1,1	-11.2884
-35	-11.2884
▁расста	-11.289
знания	-11.2892
▁Тан	-11.2893
▁сентябрь	-11.2895
Адмирал	-11.2895
менеджмент	-11.2895
▁Audi	-11.2895
▁ЕГЭ	-11.2895
▁Иногда	-11.2895
▁вырастет	-11.2895
▁ежемесячно	-11.2895
▁конструкции	-11.2895
▁крушение	-11.2895
▁недобросовестн	-11.2895
▁окончании	-11.2895
▁хранение	-11.2895
▁январь	-11.2895
▁Магомед	-11.2895
▁Путешествия	-11.2895
▁покупатель	-11.2895
▁приостановк	-11.2895
▁Аналогичн	-11.2895
▁поделился	-11.2895
▁Взрыв	-11.2895
Система	-11.2895
▁королевств	-11.2895
▁кибератак	-11.2896
Испания	-11.2896
▁стартует	-11.2898
▁Две	-11.2899
▁салоне	-11.2899
▁Дарья	-11.2901
▁Воронежской	-11.2902
▁присвоен	-11.2902
▁съемки	-11.2904
▁уволил	-11.2904
▁дополнен	-11.2905
▁силой	-11.2907
▁лимит	-11.2907
▁успехов	-11.2907
▁Вес	-11.2908
▁плит	-11.2908
▁стоить	-11.2908
Кубань	-11.291
▁Никит	-11.2913
▁живущи	-11.2913
ver	-11.2915
вич	-11.2915
▁реализу	-11.2917
▁Новгороде	-11.292
▁вооруженно	-11.292
▁Чемпионат	-11.292
▁Шер	-11.2921
▁немец	-11.2922
▁возникла	-11.2923
▁структуру	-11.2923
FI	-11.2925
▁заложников	-11.2927
▁запланировано	-11.2929
▁обед	-11.2931
▁целево	-11.2932
▁Матч	-11.2938
электрическ	-11.2945
▁Хол	-11.2947
▁волк	-11.2947
▁фаз	-11.295
▁усиление	-11.2954
▁берегу	-11.2957
▁Чист	-11.2957
▁транспортировк	-11.2959
▁методы	-11.2966
▁арбитражны	-11.2967
▁художников	-11.2969
вляется	-11.297
▁проведена	-11.2977
▁контакты	-11.2977
▁Ra	-11.2978
▁закрыв	-11.2979
▁Лат	-11.298
▁продажа	-11.298
▁доходность	-11.2982
▁110	-11.2987
если	-11.2989
▁Центральн	-11.2992
рист	-11.2994
-11	-11.2997
▁старых	-11.2997
▁позволяющи	-11.2997
▁едины	-11.2997
▁взаимо	-11.2997
▁Galaxy	-11.2998
▁Госдепартамент	-11.2998
▁Лукашенко	-11.2998
▁Распечатать	-11.2998
▁абонент	-11.2998
▁деревянн	-11.2998
▁максимальны	-11.2998
▁одежду	-11.2998
▁пострадавшим	-11.2998
▁причастность	-11.2998
▁рассуждает	-11.2998
▁сегодняшнего	-11.2998
▁тротуар	-11.2998
▁Количество	-11.2998
▁Сергею	-11.2998
▁делегация	-11.2998
▁небольшие	-11.2998
▁участвует	-11.2998
▁Последние	-11.2998
▁Шувалов	-11.2998
▁Чехии	-11.2998
▁Карякин	-11.2998
▁волейбол	-11.2998
▁прожиточн	-11.2998
▁ВМФ	-11.2998
▁обострени	-11.2998
▁рацион	-11.2999
▁следователей	-11.2999
сосудист	-11.2999
▁фантастическ	-11.2999
▁питание	-11.3
▁надеются	-11.3
живает	-11.3002
▁нечего	-11.3002
▁Цвет	-11.3002
▁утечк	-11.3003
▁предпочитаю	-11.3003
▁Насколько	-11.3003
▁охват	-11.3005
▁русским	-11.3005
▁видимости	-11.301
▁посетит	-11.3011
значить	-11.3011
▁конфликтов	-11.3012
▁интересам	-11.3013
▁возбудили	-11.3014
▁Ленинградской	-11.3015
делить	-11.3019
▁черный	-11.3021
кевич	-11.3021
▁улучшение	-11.3024
▁связал	-11.3026
▁Домодедово	-11.3029
▁воспитанник	-11.303
▁признак	-11.3032
▁реки	-11.3034
образован	-11.3034
▁заняты	-11.304
▁Остров	-11.3042
лор	-11.3045
▁организованно	-11.3046
ографии	-11.3047
▁послужил	-11.3048
знание	-11.3049
▁документах	-11.3049
▁килограмм	-11.3051
▁достигает	-11.3051
▁аэро	-11.3052
▁юг	-11.3054
Капитал	-11.3059
ance	-11.3059
воздушн	-11.3066
▁(6	-11.3067
независим	-11.3076
▁зл	-11.3077
pp	-11.3081
▁возможностью	-11.3083
▁народу	-11.3083
▁выборам	-11.3083
▁дополнительного	-11.3089
▁Бон	-11.309
▁предоставлять	-11.309
▁инвесторам	-11.3095
▁создавал	-11.31
федеральн	-11.31
▁отклонен	-11.3101
▁Street	-11.3102
▁Tesla	-11.3102
▁Конашенков	-11.3102
▁осуществлял	-11.3102
▁предотвратить	-11.3102
▁середины	-11.3102
▁сопротивление	-11.3102
▁триллион	-11.3102
▁Анкары	-11.3102
▁извинения	-11.3102
▁остальн	-11.3102
▁дождь	-11.3103
▁удивля	-11.3103
▁инфраструктуру	-11.3103
▁раскрыв	-11.3103
▁Дмитриев	-11.3103
▁аналогичн	-11.3105
▁скач	-11.3105
▁гонка	-11.3105
▁предоставляет	-11.3105
национальн	-11.3106
▁однозначно	-11.3106
▁1997	-11.3108
▁раскрыл	-11.3108
WADA	-11.3108
▁Германию	-11.3109
▁писателя	-11.3109
▁отстаива	-11.3112
▁1,8	-11.3112
▁победителя	-11.3114
▁направили	-11.3114
ph	-11.3115
▁снятия	-11.3118
▁детские	-11.3118
▁призывает	-11.3119
Рияд	-11.3119
▁забор	-11.3121
Блок	-11.3122
▁Информация	-11.3123
▁подземны	-11.3127
▁проголосовал	-11.3132
▁незаконном	-11.3135
▁опубликовали	-11.3139
▁намерения	-11.3141
▁перерыва	-11.3141
пасть	-11.3145
▁прошлым	-11.3145
▁разделен	-11.3147
Кол	-11.3147
▁Сел	-11.3148
▁признания	-11.3149
важны	-11.315
▁Томск	-11.3151
▁задействованы	-11.3152
священ	-11.3154
-21	-11.3156
ственная	-11.3156
▁Жив	-11.3158
▁возможные	-11.316
▁отправк	-11.3161
▁цифр	-11.3162
▁узк	-11.3165
▁распространил	-11.3166
гель	-11.3166
▁реальность	-11.3169
▁торжеств	-11.317
Кредит	-11.3175
▁согласие	-11.3176
ционный	-11.3176
▁Яценюка	-11.3177
▁продолжат	-11.3178
▁Фед	-11.3178
▁сильного	-11.318
▁безопасно	-11.3181
▁заработать	-11.3183
▁посещени	-11.3184
88	-11.3184
▁надежды	-11.3187
▁адвокатов	-11.3189
▁независимой	-11.319
▁представит	-11.3194
▁арестовали	-11.3195
▁зрителям	-11.3196
▁обратить	-11.3196
▁заставить	-11.3198
▁Кино	-11.32
▁дорого	-11.3202
▁обсуждали	-11.3204
▁сооружен	-11.3204
▁боевик	-11.3204
▁Баку	-11.3207
▁XIX	-11.3208
▁Бастрыкин	-11.3208
▁Дальнем	-11.3208
▁Жертв	-11.3208
▁Четыре	-11.3208
▁владельцем	-11.3208
▁диабет	-11.3208
▁математик	-11.3208
▁произойти	-11.3208
▁рекомендует	-11.3208
▁рынку	-11.3208
▁соболезнования	-11.3208
▁федерация	-11.3208
▁физлиц	-11.3208
▁фунтов	-11.3208
▁эвакуирован	-11.3208
▁требовать	-11.3208
▁констатировал	-11.3208
▁выглядел	-11.3208
заповедник	-11.3208
▁копеек	-11.3208
адмирал	-11.3208
▁парламентарий	-11.3208
▁относиться	-11.3208
▁Большого	-11.3208
▁мысль	-11.3208
▁Девушк	-11.3208
▁молока	-11.3208
▁незаконных	-11.3208
▁беспоряд	-11.3208
▁силовиков	-11.3209
▁скончалась	-11.3209
▁окончил	-11.321
▁держал	-11.321
▁именем	-11.3211
▁двигаться	-11.3212
▁замедлен	-11.3212
▁брал	-11.3213
RU	-11.3214
ua	-11.3215
ченные	-11.3215
▁отражает	-11.3216
▁москвичей	-11.3219
▁французский	-11.322
▁удобно	-11.322
▁Нижегородской	-11.3221
▁пилотов	-11.3222
два	-11.3226
▁дату	-11.3226
▁вооруж	-11.3226
▁главном	-11.3227
жар	-11.3227
▁печаль	-11.3228
▁братья	-11.3228
▁региональным	-11.3231
ate	-11.3234
▁начнутся	-11.324
▁уголовному	-11.324
▁главную	-11.3242
▁Свое	-11.3242
▁частные	-11.3245
▁высоком	-11.3246
▁понимаем	-11.3247
▁потребительско	-11.3252
▁развал	-11.3252
▁инновационн	-11.3253
▁спортивные	-11.3253
▁технического	-11.3255
▁осужденных	-11.3256
▁знакомых	-11.3259
НТ	-11.3259
ИН	-11.326
▁трем	-11.326
▁килограммов	-11.326
▁велико	-11.3261
▁выполняет	-11.3264
▁тюрем	-11.3265
▁сокращен	-11.3266
▁разгон	-11.3266
няк	-11.3267
▁нрав	-11.3268
▁ходом	-11.3268
зданию	-11.3269
▁шайбу	-11.3272
▁классов	-11.3272
▁рекламны	-11.3272
▁105	-11.3273
▁перешли	-11.3274
экс	-11.3274
▁Программа	-11.3275
ТК	-11.3276
▁танков	-11.3276
Бар	-11.3276
ющему	-11.3277
▁пул	-11.3279
▁ресторанов	-11.3284
Национальный	-11.3289
▁биатлонист	-11.329
▁мисси	-11.329
ренко	-11.3291
тянул	-11.3292
▁фактором	-11.3294
▁дистанции	-11.3296
▁вертолетов	-11.3298
▁массы	-11.3299
▁краево	-11.3299
продукт	-11.33
▁появи	-11.3304
BA	-11.3306
lin	-11.3306
слушать	-11.3309
▁Выяснилось	-11.3314
▁Конституции	-11.3314
▁Курдистан	-11.3314
▁адаптирова	-11.3314
▁выглядят	-11.3314
▁выдвижени	-11.3314
▁захоронен	-11.3314
▁мельдония	-11.3314
▁облигаций	-11.3314
▁одномандатны	-11.3314
▁резюмировал	-11.3314
▁теоретическ	-11.3314
▁заведомо	-11.3314
▁влияет	-11.3314
▁лежит	-11.3314
▁транш	-11.3314
▁добавлен	-11.3314
▁троих	-11.3314
▁Минтруд	-11.3315
▁исследовании	-11.3315
▁настаивал	-11.3315
▁Сечин	-11.3315
китайск	-11.3316
▁тяжелом	-11.3317
▁обсуждается	-11.3317
нормандско	-11.3317
▁Подобны	-11.3317
▁континент	-11.3318
▁пиво	-11.3318
▁территориальны	-11.3321
▁существовал	-11.3321
▁дубл	-11.3323
езжать	-11.3323
▁рабочий	-11.3323
▁западе	-11.3324
▁инструменты	-11.3324
▁региональный	-11.3325
изирует	-11.3326
аемый	-11.3326
▁серебряны	-11.3326
▁1970	-11.3327
▁достойны	-11.3327
▁финансовом	-11.3328
▁заксобрания	-11.3331
▁арестом	-11.3337
▁Андре	-11.3337
▁тремя	-11.3339
▁распад	-11.334
▁ОИ	-11.3343
▁происходило	-11.3344
▁противоречит	-11.3346
▁предписан	-11.3346
▁противодействия	-11.3351
▁пропавш	-11.3354
▁пассажиры	-11.3355
▁частной	-11.3358
▁Ca	-11.3358
▁вспомнил	-11.3359
▁уполномочен	-11.336
▁войн	-11.3361
▁ножом	-11.3363
▁берега	-11.3365
▁возможного	-11.3365
▁внук	-11.337
▁принц	-11.3371
▁отстав	-11.3373
рабатывают	-11.3375
Com	-11.3377
▁популярным	-11.3379
▁принесли	-11.3384
ТП	-11.3386
▁Лиге	-11.3391
▁проявил	-11.3392
боев	-11.3394
▁полное	-11.3399
▁доставк	-11.3401
▁торговой	-11.3404
▁кадры	-11.3404
▁140	-11.3405
▁патруль	-11.3411
меняют	-11.3413
учение	-11.3414
▁92	-11.3417
Ы	-11.3419
▁Мосгорсуд	-11.3421
▁воспитыва	-11.3421
▁гаджет	-11.3421
▁мессенджер	-11.3421
▁Впоследствии	-11.3422
▁Гитлер	-11.3422
▁литературы	-11.3422
▁пожизненно	-11.3422
▁приехать	-11.3422
▁рассмотрит	-11.3422
▁потребление	-11.3422
▁пулемет	-11.3422
▁зарегистрировал	-11.3422
▁включить	-11.3422
▁поединка	-11.3422
▁патент	-11.3422
Боевики	-11.3422
▁рожден	-11.3422
▁скрылся	-11.3422
▁грамм	-11.3422
▁лизинг	-11.3422
Ценности	-11.3422
▁уйдет	-11.3422
▁встретится	-11.3423
▁обрушени	-11.3423
▁шеф	-11.3424
▁иностранцев	-11.3424
▁закончилась	-11.3425
▁изменилась	-11.3425
▁выделил	-11.3425
▁химическо	-11.3426
▁продлится	-11.3426
▁песня	-11.3427
▁выполнены	-11.3427
▁республиканско	-11.3428
▁выработк	-11.3428
▁заявлению	-11.3428
▁изменится	-11.343
▁удовольствием	-11.343
▁рассмотрении	-11.3431
▁выдачи	-11.3432
▁гимн	-11.3432
▁стрелково	-11.3432
▁Сети	-11.3433
▁миф	-11.3433
▁документации	-11.3434
ленко	-11.3437
▁фрукт	-11.3438
стремится	-11.3438
сирот	-11.3439
▁советские	-11.3444
▁Черного	-11.3444
▁Движение	-11.3446
qu	-11.3447
▁определения	-11.3447
▁даты	-11.3448
▁тренером	-11.3448
▁рассчитыва	-11.3448
лиге	-11.3449
▁Счетн	-11.345
красн	-11.3453
▁залива	-11.3453
ющем	-11.3455
зываю	-11.3457
▁авиационны	-11.346
▁смертник	-11.3461
▁Человек	-11.3465
ПА	-11.3465
fa	-11.3468
▁родственники	-11.347
▁супруги	-11.347
▁КС	-11.3473
▁производственно	-11.3475
Звезда	-11.3476
езжают	-11.348
▁уменьшени	-11.3483
▁окно	-11.3484
▁вагонов	-11.3485
оплот	-11.3485
снаб	-11.3488
чувст	-11.3496
▁отзыва	-11.3498
▁Мюнхене	-11.3508
▁правозащитн	-11.3512
ифицирован	-11.3514
▁Марии	-11.3519
▁запасов	-11.3521
▁кабмина	-11.3522
компании	-11.3527
▁удостовер	-11.3528
▁обращал	-11.3528
норвежск	-11.353
▁Guardian	-11.353
▁Израиле	-11.353
▁Необходимо	-11.353
▁Правительства	-11.353
▁агрессии	-11.353
▁инициатор	-11.353
▁предприятии	-11.353
▁присутствия	-11.353
▁реагировать	-11.353
▁руководил	-11.353
▁тяжелые	-11.353
Калашников	-11.353
▁перемирие	-11.353
▁водители	-11.353
▁осадков	-11.353
▁формирований	-11.353
▁Толст	-11.353
▁гарантий	-11.353
▁крымско	-11.353
▁переехал	-11.353
▁захотел	-11.353
▁Утром	-11.3531
▁Харьков	-11.3531
▁вмешательства	-11.3531
▁Новиков	-11.3531
▁почтов	-11.3532
▁подтвердить	-11.3533
▁следующих	-11.3534
▁военными	-11.3534
▁откровенно	-11.3534
▁погоды	-11.3535
▁равны	-11.3535
▁сгорел	-11.3535
▁помещении	-11.3536
▁естественны	-11.3537
▁помещений	-11.3538
▁повышении	-11.3539
▁памятников	-11.3539
▁освоен	-11.3541
процентн	-11.3541
▁бандит	-11.3544
▁Главная	-11.3545
▁высоты	-11.3545
▁Кажд	-11.3546
▁Алексеев	-11.3547
Аэро	-11.3552
▁кредитны	-11.3555
▁биатлон	-11.3555
▁крыла	-11.3559
our	-11.356
учиться	-11.3561
Гарри	-11.3561
браться	-11.3562
▁попадают	-11.3563
▁установления	-11.3566
▁аналитическо	-11.3567
▁Иркутской	-11.3567
▁резервы	-11.3568
▁написано	-11.3574
▁изучен	-11.3575
▁Свет	-11.3576
▁возвращени	-11.3577
▁договоров	-11.3579
▁ключевым	-11.3581
▁незаконной	-11.359
▁Команда	-11.3591
▁камеру	-11.3599
▁столичной	-11.3601
▁ракетны	-11.3602
▁сидя	-11.3603
▁Папа	-11.3604
▁Ваш	-11.361
▁штрафной	-11.3611
3,5	-11.3615
▁Лет	-11.3622
▁собрание	-11.3627
литровы	-11.3627
гнать	-11.3628
▁визов	-11.363
тветственность	-11.3631
нское	-11.3631
▁подопечн	-11.3632
▁подавляющ	-11.364
▁ЛУКОЙЛ	-11.364
▁Роналду	-11.364
▁комментарий	-11.364
▁консультации	-11.364
▁опасаются	-11.364
▁предприниматели	-11.364
▁прокуратуре	-11.364
▁снайпер	-11.364
▁тюрьме	-11.364
▁выиграть	-11.364
▁почувствовал	-11.364
▁армию	-11.364
▁бонус	-11.364
Монако	-11.364
▁авария	-11.364
▁голландск	-11.3641
▁Боб	-11.3641
▁ушла	-11.3641
▁рабочего	-11.3641
▁современным	-11.3641
▁избирателя	-11.3642
▁кольца	-11.3642
▁сильные	-11.3642
миссия	-11.3643
▁Масс	-11.3643
▁IV	-11.3644
▁декларации	-11.3644
▁фу	-11.3645
▁совещание	-11.3645
▁решают	-11.3647
▁белорусско	-11.3649
▁метрополитена	-11.365
▁FM	-11.365
белых	-11.365
Кавказ	-11.365
▁Волгоградской	-11.3651
▁комментирует	-11.3651
▁Наверно	-11.3651
▁тверд	-11.3653
▁анонсировал	-11.3654
▁расписан	-11.3655
трек	-11.3656
левых	-11.3656
▁марок	-11.3658
▁социолог	-11.3659
Благо	-11.3661
госпитализирован	-11.3663
▁выбрал	-11.3663
▁городские	-11.3664
пир	-11.3665
fi	-11.3668
▁давности	-11.3669
ведено	-11.3669
Камчатск	-11.367
ian	-11.3671
6,6	-11.3673
▁вверх	-11.3675
▁оппозиционны	-11.3676
посадочн	-11.3682
ear	-11.3683
▁рекламн	-11.3683
▁XX	-11.3686
▁контроле	-11.3688
тический	-11.369
▁стиль	-11.3691
вшее	-11.37
▁родителями	-11.3704
читался	-11.3706
▁искусственны	-11.3708
▁невероятно	-11.3709
▁культурно	-11.371
правляется	-11.3711
▁морск	-11.3712
▁полным	-11.3713
▁овощи	-11.3715
езжает	-11.3717
▁1,7	-11.3718
▁84	-11.3719
▁преимущества	-11.372
▁угля	-11.372
▁разбор	-11.3725
заказ	-11.3725
▁позволили	-11.373
▁поражен	-11.3732
вою	-11.3732
▁6,5	-11.3733
1,5	-11.3734
▁стрельбу	-11.3737
▁моим	-11.3738
правление	-11.3739
▁чек	-11.3741
▁материалам	-11.3741
▁души	-11.3748
▁арбитр	-11.375
▁AFP	-11.3751
▁Голодец	-11.3751
▁Минобрнауки	-11.3751
▁Примечательно	-11.3751
▁Расследование	-11.3751
▁гибрид	-11.3751
▁диспетчер	-11.3751
▁домашних	-11.3751
▁капуст	-11.3751
▁микрорайон	-11.3751
▁отвечая	-11.3751
▁руководстве	-11.3751
▁парламентариев	-11.3751
▁интриг	-11.3751
▁сравнения	-11.3751
▁обозначен	-11.3751
▁Гюлен	-11.3751
▁НТВ	-11.3751
▁последовательно	-11.3751
▁турецкий	-11.3751
▁разбился	-11.3751
▁природных	-11.3751
вшееся	-11.3753
▁Euro	-11.3754
▁популярности	-11.3756
▁79	-11.3756
▁ДПС	-11.3756
▁насилие	-11.3758
II	-11.3759
▁спуск	-11.3759
▁Юго	-11.376
▁использовании	-11.3762
▁состоялись	-11.3762
▁госсекретарь	-11.3762
▁мигрантам	-11.3764
▁гео	-11.3766
столь	-11.3767
8,5	-11.3768
▁образовательных	-11.377
▁круж	-11.377
▁льда	-11.3771
▁предполагаемы	-11.378
▁разбирательства	-11.3781
▁растущ	-11.3781
▁подписания	-11.3781
▁овощ	-11.3782
▁газопровода	-11.3783
▁Футбол	-11.3785
▁батальона	-11.3786
ущие	-11.3787
▁демонстрирует	-11.3788
▁другому	-11.3788
▁общение	-11.3794
формат	-11.3796
▁сняли	-11.3797
▁Ba	-11.3799
▁окружающ	-11.3799
▁выдаче	-11.3805
▁известным	-11.3805
▁редки	-11.381
▁задействован	-11.381
▁держат	-11.3813
▁прекращен	-11.3813
▁способы	-11.3813
▁перенес	-11.3813
Пре	-11.3819
▁играли	-11.382
▁август	-11.3822
стоящих	-11.3822
шил	-11.3823
▁съемочн	-11.3823
смотреть	-11.3827
▁нарушен	-11.3828
▁An	-11.3829
▁US	-11.383
▁предварительной	-11.3831
ошлись	-11.3838
▁VI	-11.3841
▁Li	-11.3843
▁Be	-11.3844
▁доставки	-11.3844
▁будущих	-11.3845
▁потеряли	-11.3845
джер	-11.3847
iz	-11.3852
▁удовольстви	-11.3854
распространяется	-11.3855
▁отражен	-11.3855
▁погашен	-11.3857
Лент	-11.3861
▁оперативного	-11.3862
▁Пальмиры	-11.3864
▁Тимошенко	-11.3864
▁возобновил	-11.3864
▁колоссальн	-11.3864
▁краткосрочн	-11.3864
▁лондонско	-11.3864
▁медицины	-11.3864
▁отсутствует	-11.3864
▁повлияет	-11.3864
▁соответствие	-11.3864
▁соответствующим	-11.3864
▁сравнении	-11.3864
▁рухнул	-11.3864
▁Надеюсь	-11.3864
▁певец	-11.3864
▁медалей	-11.3864
▁китайского	-11.3864
сознательно	-11.3864
▁существование	-11.3864
▁равен	-11.3864
▁турецким	-11.3864
▁вышло	-11.3864
▁наблюдатель	-11.3864
▁Следующи	-11.3865
▁льду	-11.3866
▁купюр	-11.3866
▁сократилось	-11.3867
▁справедливости	-11.3868
▁Актер	-11.3868
▁перекрест	-11.3871
▁овощей	-11.3871
Смотр	-11.3872
▁химически	-11.3873
магазин	-11.3875
голос	-11.3877
следствие	-11.3877
▁Договор	-11.3878
▁опубликованны	-11.388
▁этажа	-11.3881
▁крем	-11.3881
▁лицами	-11.3881
TA	-11.3882
▁здоровьем	-11.3885
▁открытых	-11.3885
▁техническим	-11.3885
▁Берез	-11.3887
▁съем	-11.3888
▁полях	-11.3889
▁звонки	-11.3889
▁Дании	-11.3889
2,8	-11.3894
▁Стал	-11.3895
▁Играх	-11.3895
▁заняться	-11.3895
▁Бир	-11.3896
▁описан	-11.3897
▁труп	-11.3901
▁ферм	-11.3904
ходясь	-11.3905
▁Актив	-11.3909
ud	-11.391
▁Групп	-11.3911
▁покинули	-11.3915
круг	-11.3924
▁поступать	-11.3925
Милан	-11.3926
▁травму	-11.3926
▁списки	-11.3931
▁региональн	-11.3934
часов	-11.3935
▁политикой	-11.3948
▁чистой	-11.395
▁обяза	-11.3957
▁банками	-11.3961
▁шансов	-11.397
хождение	-11.3972
▁идеальн	-11.3975
▁торжественно	-11.3976
ster	-11.3977
▁Ерофеев	-11.3977
▁Официально	-11.3977
▁землетрясение	-11.3977
▁оплату	-11.3977
▁субсидии	-11.3977
▁эстафет	-11.3977
▁Автомобиль	-11.3977
▁Вероятно	-11.3977
▁КХЛ	-11.3977
▁небольшим	-11.3977
▁повседневн	-11.3977
▁солнце	-11.3977
▁контролю	-11.3977
▁чудес	-11.3977
ысокотехнологичн	-11.3977
▁Осетии	-11.3977
▁гарантии	-11.3977
▁Восточный	-11.3977
▁недовольны	-11.3977
▁Минсельхоз	-11.3977
▁поставщиков	-11.3977
▁пуга	-11.3978
▁надеемся	-11.3978
▁близкие	-11.3978
tic	-11.3978
▁КоАП	-11.3979
▁избавиться	-11.3979
▁показывал	-11.3979
▁расстрел	-11.3981
▁Высок	-11.3981
-2014	-11.3981
Сибирск	-11.3982
▁согласилась	-11.3982
▁Ответ	-11.3984
▁автомобильных	-11.3984
▁ничем	-11.3985
▁Артур	-11.3986
▁собеседников	-11.3986
▁прошлы	-11.3987
▁Супер	-11.3987
▁расширения	-11.3989
▁сестра	-11.3989
▁массив	-11.399
бизнес	-11.3992
ug	-11.3992
▁2025	-11.3992
ФАС	-11.3993
▁широкий	-11.3994
▁недопустимо	-11.3999
▁мета	-11.4
▁успехом	-11.4002
▁Афганистана	-11.4002
▁составлять	-11.4003
▁бывшие	-11.4003
тайн	-11.4004
▁нужд	-11.4004
казатель	-11.4005
▁чиновникам	-11.4011
▁свеже	-11.4012
79	-11.4012
▁выдан	-11.4012
▁Pa	-11.4015
Яблоко	-11.4016
плыв	-11.4018
▁обсужда	-11.402
▁объединение	-11.4021
▁четвертого	-11.4025
▁хорошим	-11.4025
▁забывать	-11.4025
▁Команд	-11.4029
▁Вид	-11.4029
▁воздушных	-11.4033
▁сыном	-11.4034
▁волны	-11.4035
▁возведени	-11.4035
▁размеща	-11.4035
▁сырье	-11.4035
▁Белом	-11.4037
Юг	-11.4045
▁Эрик	-11.4049
▁дисквалифицир	-11.405
лагаем	-11.4053
ходящий	-11.4053
▁повышать	-11.4054
▁жизненно	-11.4056
▁письменн	-11.4057
▁балл	-11.406
боя	-11.4062
▁озвучил	-11.4066
ВК	-11.4068
▁возглавляем	-11.4076
▁повышенно	-11.4079
▁чемпионка	-11.4079
▁Cha	-11.4083
▁направлениях	-11.4086
▁BBC	-11.4092
▁World	-11.4092
▁Оказалось	-11.4092
▁ПАСЕ	-11.4092
▁Приморье	-11.4092
▁РПЦ	-11.4092
▁Штайнмайер	-11.4092
▁выставку	-11.4092
▁конституции	-11.4092
▁мгновен	-11.4092
▁миграции	-11.4092
▁низкие	-11.4092
▁объясняют	-11.4092
▁оптимальн	-11.4092
▁опьянения	-11.4092
▁площадку	-11.4092
▁подчеркивают	-11.4092
▁предупреждение	-11.4092
▁уязвим	-11.4092
▁эмбарго	-11.4092
революционн	-11.4092
▁обжаловать	-11.4092
правоохранителей	-11.4092
▁расследовании	-11.4092
▁интерьер	-11.4092
▁попробовать	-11.4092
▁добыча	-11.4092
▁Тарасов	-11.4092
▁Абу	-11.4092
▁любителей	-11.4093
▁актуально	-11.4093
▁предпочтени	-11.4093
▁входящих	-11.4093
▁авиакомпания	-11.4093
▁юмор	-11.4093
▁управляющих	-11.4094
▁прибывши	-11.4094
▁беспилотн	-11.4094
▁госсекретаря	-11.4094
▁0,5	-11.4094
▁Sport	-11.4095
▁мировы	-11.4097
▁ДНК	-11.4098
бумажн	-11.4099
▁Краснодарского	-11.41
▁Цар	-11.4101
Примерно	-11.4101
▁осужд	-11.4102
▁верить	-11.4103
▁своевременно	-11.4104
▁Средиземном	-11.4105
нется	-11.4105
▁Центральный	-11.4106
▁Основно	-11.4108
Q	-11.4108
Сегодня	-11.4109
холдинг	-11.4109
▁личный	-11.4109
▁праздников	-11.4114
[...]
