[UNK]	0
[CLS]	1
[SEP]	2
[PAD]	3
[MASK]	4
!	5
"	6
#	7
$	8
%	9
&	10
'	11
(	12
)	13
*	14
+	15
,	16
-	17
.	18
/	19
0	20
1	21
2	22
3	23
4	24
5	25
6	26
7	27
8	28
9	29
:	30
;	31
<	32
=	33
>	34
?	35
@	36
[	37
\	38
]	39
_	40
`	41
a	42
b	43
c	44
d	45
e	46
f	47
g	48
h	49
i	50
j	51
k	52
l	53
m	54
n	55
o	56
p	57
q	58
r	59
s	60
t	61
u	62
v	63
w	64
x	65
y	66
z	67
~	68
	69
£	70
¤	71
¥	72
¦	73
§	74
©	75
¬	76
­	77
°	78
·	79
×	80
ß	81
à	82
á	83
ä	84
ç	85
è	86
é	87
ê	88
ë	89
í	90
ð	91
ó	92
ô	93
õ	94
ö	95
ø	96
ü	97
þ	98
ā	99
ę	100
ī	101
ı	102
ł	103
ń	104
ŏ	105
ś	106
ş	107
š	108
ʀ	109
ʼ	110
́	111
̆	112
̇	113
̈	114
̊	115
έ	116
α	117
β	118
γ	119
η	120
λ	121
μ	122
ν	123
ο	124
ρ	125
σ	126
τ	127
χ	128
ώ	129
а	130
б	131
в	132
г	133
д	134
е	135
ж	136
з	137
и	138
й	139
к	140
л	141
м	142
н	143
о	144
п	145
р	146
с	147
т	148
у	149
ф	150
х	151
ц	152
ч	153
ш	154
щ	155
ъ	156
ы	157
ь	158
э	159
ю	160
я	161
є	162
і	163
ї	164
ў	165
џ	166
ғ	167
қ	168
ҳ	169
ӣ	170
‍	171
‎	172
‐	173
‒	174
―	175
•	176
‪	177
‬	178
′	179
⁄	180
€	181
→	182
−	183
∙	184
⋅	185
─	186
■	187
▲	188
►	189
●	190
☃	191
☝	192
♫	193
⚽	194
❄	195
《	196
》	197
	198
️	199
🌞	200
🍺	201
🎂	202
🐅	203
🐗	204
🐺	205
💪	206
😂	207
🙈	208
##i	209
##t	210
##h	211
##1	212
##0	213
##ф	214
##д	215
##р	216
##ю	217
##с	218
##х	219
##к	220
##е	221
##в	222
##а	223
##т	224
##a	225
##p	226
##м	227
##и	228
##ь	229
##я	230
##ш	231
##н	232
##з	233
##й	234
##у	235
##л	236
##l	237
##e	238
##ж	239
##о	240
##ц	241
##r	242
##u	243
##c	244
##п	245
##o	246
##z	247
##5	248
##9	249
##г	250
##ч	251
##d	252
##ы	253
##б	254
##n	255
##g	256
##s	257
##w	258
##2	259
##m	260
##y	261
##і	262
##v	263
##k	264
##f	265
##3	266
##7	267
##j	268
##щ	269
##э	270
##b	271
##6	272
##є	273
##?	274
##)	275
##x	276
##4	277
##8	278
##ї	279
##q	280
##ê	281
##ę	282
##ü	283
##"	284
##%	285
##é	286
##ş	287
##;	288
##õ	289
##ъ	290
##!	291
##ä	292
##ғ	293
##ö	294
##ç	295
##à	296
##α	297
##γ	298
##έ	299
##қ	300
##-	301
##ў	302
##,	303
##í	304
##:	305
##þ	306
##/	307
##ν	308
##ώ	309
##μ	310
##]	311
##_	312
##ʀ	313
##.	314
##+	315
###	316
##ó	317
##̇	318
##*	319
##ҳ	320
##′	321
##η	322
##σ	323
##ʼ	324
##ā	325
##ë	326
##=	327
##>	328
##ø	329
##$	330
##ī	331
##ο	332
##ð	333
по	334
##ст	335
на	336
пр	337
##то	338
##ен	339
##ер	340
##ов	341
##ет	342
##ни	343
ов	344
##ан	345
##ел	346
##го	347
но	348
ст	349
ко	350
не	351
##од	352
за	353
ра	354
##ед	355
##ор	356
##ск	357
##ли	358
##ра	359
ит	360
##но	361
##ин	362
об	363
##ль	364
ом	365
##ос	366
ен	367
от	368
##ся	369
ны	370
про	371
##ла	372
##ем	373
ка	374
ни	375
ени	376
из	377
##ко	378
##ал	379
что	380
то	381
##ит	382
ой	383
##ть	384
до	385
ре	386
##ва	387
##ро	388
ил	389
та	390
##ил	391
ан	392
при	393
ол	394
ин	395
##си	396
со	397
вы	398
##ка	399
он	400
это	401
во	402
##ми	403
ли	404
ер	405
##тор	406
##ав	407
бы	408
ор	409
##он	410
##уд	411
год	412
тр	413
ост	414
##ель	415
ей	416
мо	417
ого	418
##ат	419
ал	420
рос	421
ие	422
##во	423
##ти	424
их	425
ар	426
ру	427
##ек	428
##ент	429
ри	430
##ки	431
раз	432
##ци	433
ет	434
##ар	435
ме	436
оп	437
ия	438
##ля	439
##ей	440
пер	441
ро	442
##ес	443
котор	444
од	445
ани	446
##ир	447
пред	448
##ны	449
ци	450
росси	451
##че	452
ить	453
ос	454
##же	455
##ез	456
##ло	457
под	458
##от	459
##об	460
им	461
ий	462
ла	463
##сти	464
ые	465
##ру	466
##жд	467
##ма	468
##да	469
##ле	470
ает	471
##ур	472
ая	473
##ств	474
ых	475
ии	476
лен	477
де	478
ения	479
кон	480
са	481
его	482
ско	483
ах	484
тор	485
##ут	486
так	487
ль	488
как	489
##на	490
ам	491
##сс	492
иче	493
ическ	494
##сь	495
ем	496
ист	497
##сп	498
##ви	499
ать	500
ат	501
ся	502
##ют	503
сл	504
ый	505
ев	506
ных	507
пос	508
стр	509
##ис	510
для	511
вс	512
ник	513
ение	514
##льн	515
##ев	516
##ол	517
ной	518
ком	519
ного	520
##ож	521
ти	522
ав	523
##ча	524
ив	525
итель	526
оз	527
ми	528
ств	529
ую	530
ое	531
ви	532
раб	533
сп	534
те	535
##ги	536
ами	537
ир	538
ть	539
ес	540
буд	541
##та	542
##каз	543
тел	544
се	545
ки	546
##общ	547
##сть	548
да	549
ок	550
##ят	551
##кт	552
нов	553
йск	554
ные	555
пере	556
тер	557
##уп	558
кр	559
вер	560
ный	561
все	562
прав	563
ски	564
работ	565
пре	566
сообщ	567
лени	568
##ее	569
##ект	570
тв	571
ее	572
ля	573
##чн	574
ог	575
ма	576
сто	577
этом	578
##льк	579
ад	580
сво	581
яв	582
ед	583
##уж	584
ста	585
##уч	586
##еч	587
##им	588
бо	589
ым	590
гла	591
пол	592
гов	593
ча	594
говор	595
##ую	596
##ик	597
вед	598
ут	599
су	600
ик	601
мы	602
ск	603
гра	604
гор	605
ур	606
ак	607
##ыв	608
лет	609
гос	610
ран	611
уд	612
ят	613
сам	614
ход	615
комп	616
мир	617
##вн	618
ку	619
ред	620
ек	621
па	622
ва	623
мож	624
кра	625
или	626
ию	627
##бр	628
ания	629
али	630
мен	631
мест	632
также	633
##ход	634
ции	635
ности	636
след	637
руб	638
став	639
##из	640
ай	641
ства	642
##ог	643
ство	644
воз	645
##ул	646
ном	647
##лю	648
мер	649
дент	650
##ран	651
##льш	652
оч	653
каз	654
го	655
ают	656
ской	657
тран	658
вид	659
##дел	660
будет	661
вод	662
же	663
##лен	664
кан	665
##бы	666
лю	667
##ерж	668
уб	669
##ди	670
##рав	671
дел	672
##ре	673
през	674
ель	675
ров	676
году	677
реш	678
рас	679
мет	680
прези	681
мент	682
эк	683
##ных	684
ест	685
они	686
иров	687
##тов	688
лов	689
расс	690
ве	691
нес	692
##ще	693
##не	694
ным	695
ости	696
##ам	697
инт	698
##ган	699
ова	700
оск	701
уже	702
ты	703
##ной	704
##ном	705
ении	706
##ита	707
после	708
##вы	709
##яв	710
тель	711
см	712
иг	713
ность	714
ится	715
пар	716
##ри	717
ное	718
##ющ	719
мин	720
ис	721
тро	722
ду	723
был	724
##ве	725
ива	726
##ша	727
поли	728
ского	729
мл	730
том	731
она	732
орган	733
ков	734
нач	735
ют	736
лож	737
чем	738
##сн	739
##ии	740
уч	741
##яз	742
уча	743
ел	744
чер	745
без	746
##гда	747
дол	748
##емя	749
было	750
город	751
ная	752
вр	753
##екс	754
гол	755
остав	756
чел	757
время	758
оро	759
зна	760
##их	761
интер	762
ость	763
ле	764
##тив	765
##нов	766
##рт	767
##ой	768
челов	769
##де	770
овы	771
мини	772
##ий	773
еще	774
ласти	775
ус	776
чет	777
##ник	778
##ень	779
тольк	780
начал	781
пу	782
##руп	783
может	784
##иц	785
тви	786
##рос	787
рез	788
##ян	789
мог	790
тур	791
уп	792
евро	793
ется	794
если	795
нап	796
##оч	797
ян	798
явил	799
сов	800
ди	801
##ыт	802
ук	803
рем	804
иза	805
##яд	806
ила	807
вла	808
##ябр	809
ании	810
##ня	811
##ом	812
олее	813
кор	814
га	815
##рат	816
стран	817
участ	818
##жду	819
между	820
ап	821
сша	822
цент	823
иц	824
##люч	825
еств	826
аг	827
мат	828
ас	829
бор	830
цион	831
того	832
##те	833
ож	834
ступ	835
ления	836
авто	837
##ось	838
веден	839
аз	840
##ени	841
олж	842
перв	843
сказ	844
##ме	845
минис	846
##ше	847
арств	848
##есс	849
кольк	850
##лик	851
инф	852
##ного	853
##ейс	854
анк	855
изв	856
дет	857
би	858
##ные	859
луч	860
вел	861
зв	862
##руг	863
ло	864
чтобы	865
ную	866
иа	867
вз	868
##ад	869
озм	870
центр	871
озмож	872
коном	873
ается	874
##мен	875
держ	876
тре	877
были	878
уст	879
огла	880
роект	881
##тат	882
кур	883
альн	884
отр	885
ован	886
ский	887
олуч	888
че	889
ому	890
##бор	891
нар	892
рф	893
цен	894
око	895
готов	896
##сто	897
дор	898
тех	899
##ку	900
лед	901
больш	902
госуд	903
род	904
ср	905
над	906
исп	907
св	908
пл	909
тан	910
эти	911
анд	912
ня	913
сир	914
##мм	915
си	916
опрос	917
сред	918
отно	919
ош	920
##ац	921
му	922
атель	923
нт	924
ры	925
народ	926
зд	927
алекс	928
##пи	929
нет	930
ублик	931
фа	932
краин	933
долж	934
сч	935
мар	936
оф	937
ранее	938
ует	939
ремен	940
кл	941
еч	942
##це	943
суд	944
когда	945
ыми	946
ледов	947
ох	948
##ции	949
есть	950
аб	951
дейс	952
ец	953
ений	954
газ	955
##стн	956
тем	957
##тр	958
##анд	959
ид	960
ерт	961
тра	962
##стр	963
перед	964
пут	965
ствен	966
ание	967
ими	968
орма	969
##вер	970
пис	971
вш	972
счита	973
тав	974
##га	975
##му	976
нима	977
мол	978
фед	979
##ным	980
##циа	981
ьтат	982
##ним	983
этого	984
дж	985
##ящ	986
ению	987
годня	988
бу	989
ился	990
полн	991
наз	992
ться	993
эксп	994
ающ	995
кт	996
##ери	997
ряд	998
##час	999
нас	1000
ейчас	1001
явля	1002
асс	1003
ными	1004
осси	1005
##чин	1006
резул	1007
полит	1008
груп	1009
ольш	1010
групп	1011
жд	1012
##ив	1013
опер	1014
хо	1015
##зов	1016
отруд	1017
ловам	1018
отнош	1019
ез	1020
влади	1021
енно	1022
ление	1023
ке	1024
стал	1025
тся	1026
наш	1027
##ясн	1028
орт	1029
кла	1030
сед	1031
ала	1032
##мер	1033
иться	1034
гр	1035
ыва	1036
##ина	1037
опа	1038
неф	1039
ень	1040
торон	1041
чис	1042
изаци	1043
овал	1044
нару	1045
ивн	1046
ru	1047
##ста	1048
гражд	1049
дна	1050
млн	1051
стан	1052
##ущ	1053
ских	1054
фи	1055
теля	1056
бл	1057
рай	1058
европ	1059
днако	1060
метил	1061
##бо	1062
риз	1063
##кон	1064
лиш	1065
будут	1066
знач	1067
кол	1068
телей	1069
орм	1070
служ	1071
охран	1072
федер	1073
олог	1074
главн	1075
ово	1076
была	1077
ников	1078
ген	1079
иск	1080
произ	1081
мил	1082
совет	1083
дви	1084
аем	1085
себ	1086
##енн	1087
един	1088
ротив	1089
ковод	1090
могут	1091
##ец	1092
сел	1093
рав	1094
где	1095
мотр	1096
ьн	1097
ска	1098
ция	1099
уж	1100
истем	1101
следн	1102
иту	1103
##00	1104
рубле	1105
можно	1106
них	1107
ики	1108
ип	1109
очень	1110
один	1111
быть	1112
##кол	1113
оказ	1114
связ	1115
ью	1116
руги	1117
ему	1118
##ный	1119
таки	1120
заяв	1121
ич	1122
траны	1123
иру	1124
закон	1125
отв	1126
аш	1127
##рд	1128
оманд	1129
ейск	1130
##лиц	1131
два	1132
отм	1133
оста	1134
млрд	1135
итуац	1136
##ыл	1137
яет	1138
ось	1139
##дан	1140
лист	1141
ивш	1142
ех	1143
сего	1144
ыст	1145
люб	1146
ну	1147
##еж	1148
ьзов	1149
##ус	1150
овер	1151
овать	1152
наход	1153
фон	1154
##nt	1155
##по	1156
спор	1157
##анс	1158
енных	1159
##сяч	1160
друг	1161
техн	1162
управ	1163
ием	1164
ились	1165
дв	1166
жиз	1167
ото	1168
тысяч	1169
ква	1170
твов	1171
ба	1172
лся	1173
район	1174
##ител	1175
дир	1176
пи	1177
грамм	1178
##овн	1179
иальн	1180
амери	1181
глава	1182
инанс	1183
милли	1184
андр	1185
оль	1186
##уб	1187
дву	1188
##лич	1189
оглас	1190
##цен	1191
ги	1192
##ия	1193
лиц	1194
##уча	1195
бли	1196
пра	1197
укра	1198
вели	1199
оссия	1200
блем	1201
голов	1202
##ых	1203
##er	1204
ено	1205
ыв	1206
ита	1207
нд	1208
усл	1209
утин	1210
теле	1211
основ	1212
полиц	1213
опера	1214
ег	1215
ело	1216
ун	1217
ответ	1218
##ить	1219
необ	1220
лат	1221
обра	1222
терри	1223
извес	1224
цел	1225
моб	1226
доб	1227
кро	1228
тыс	1229
много	1230
##ощ	1231
##оро	1232
тели	1233
мед	1234
ество	1235
##ком	1236
пресс	1237
одим	1238
мобил	1239
##кой	1240
даже	1241
сер	1242
зап	1243
##ок	1244
есп	1245
хот	1246
этому	1247
ники	1248
опас	1249
стреч	1250
транс	1251
##ну	1252
гро	1253
место	1254
ключ	1255
ольше	1256
стоян	1257
пла	1258
реа	1259
мор	1260
##ест	1261
аль	1262
аж	1263
редел	1264
летн	1265
ыступ	1266
ервы	1267
объ	1268
анным	1269
стро	1270
бр	1271
бел	1272
ум	1273
ующ	1274
##ета	1275
ская	1276
ха	1277
##олн	1278
рын	1279
необх	1280
цию	1281
##анк	1282
ще	1283
казал	1284
защ	1285
право	1286
пом	1287
военн	1288
бес	1289
точ	1290
еги	1291
твия	1292
украи	1293
около	1294
дирек	1295
##зу	1296
илась	1297
путат	1298
##вин	1299
лег	1300
сен	1301
ния	1302
##нес	1303
ись	1304
авш	1305
ана	1306
##са	1307
нти	1308
этот	1309
рин	1310
le	1311
##сим	1312
пет	1313
сдел	1314
пуск	1315
быв	1316
##ие	1317
пе	1318
ался	1319
##нер	1320
канск	1321
чит	1322
недел	1323
ивает	1324
рен	1325
ример	1326
рус	1327
ави	1328
ением	1329
тно	1330
име	1331
оверш	1332
оцен	1333
клад	1334
выс	1335
аться	1336
предп	1337
являе	1338
щик	1339
юд	1340
ул	1341
ены	1342
люд	1343
доку	1344
тен	1345
ним	1346
нич	1347
месте	1348
выбор	1349
реж	1350
аки	1351
порт	1352
рат	1353
##щен	1354
ние	1355
ери	1356
танов	1357
ека	1358
омощ	1359
стра	1360
три	1361
лучил	1362
истра	1363
устан	1364
иал	1365
##атр	1366
спорт	1367
ика	1368
всех	1369
раж	1370
маш	1371
дал	1372
тву	1373
лись	1374
еб	1375
кач	1376
агент	1377
звал	1378
мон	1379
кин	1380
ыш	1381
стави	1382
иф	1383
##льт	1384
план	1385
ител	1386
сла	1387
еть	1388
ющ	1389
ества	1390
истор	1391
снов	1392
##ду	1393
извод	1394
стоящ	1395
пока	1396
частн	1397
отмеч	1398
ника	1399
ейш	1400
троит	1401
ях	1402
сро	1403
офиц	1404
сни	1405
енко	1406
него	1407
рак	1408
чик	1409
ерг	1410
илось	1411
##отв	1412
луж	1413
##аж	1414
ские	1415
мь	1416
движ	1417
сра	1418
инг	1419
измен	1420
наруш	1421
нени	1422
вал	1423
рист	1424
омент	1425
терро	1426
бур	1427
спец	1428
испол	1429
##един	1430
##том	1431
##ующ	1432
кто	1433
##би	1434
круп	1435
нуж	1436
вани	1437
курс	1438
обвин	1439
ило	1440
нос	1441
ском	1442
вос	1443
теп	1444
лич	1445
вой	1446
показ	1447
дм	1448
ятся	1449
##жет	1450
редит	1451
тк	1452
10	1453
этой	1454
пособ	1455
мьер	1456
лект	1457
всем	1458
крупн	1459
дан	1460
ляет	1461
рт	1462
аний	1463
защит	1464
авиа	1465
##сяц	1466
там	1467
лид	1468
##инг	1469
себя	1470
рани	1471
рег	1472
твующ	1473
месяц	1474
циона	1475
поб	1476
юджет	1477
чемпи	1478
отре	1479
изнес	1480
##вар	1481
само	1482
через	1483
бира	1484
сет	1485
жител	1486
двух	1487
льно	1488
вести	1489
##юз	1490
тя	1491
сирии	1492
егион	1493
респ	1494
ведом	1495
енные	1496
шло	1497
новос	1498
бург	1499
стви	1500
день	1501
дела	1502
жи	1503
вра	1504
куп	1505
пор	1506
ья	1507
числе	1508
свою	1509
голос	1510
отказ	1511
##итр	1512
сбор	1513
лит	1514
эта	1515
жел	1516
одно	1517
филь	1518
##лаг	1519
еп	1520
рам	1521
ьник	1522
ять	1523
нем	1524
енной	1525
ричин	1526
нск	1527
ному	1528
ались	1529
дав	1530
апр	1531
овой	1532
кроме	1533
кварт	1534
дмитр	1535
##ак	1536
йд	1537
гл	1538
##гиб	1539
соотв	1540
ецк	1541
нии	1542
кци	1543
##нир	1544
рия	1545
велич	1546
рован	1547
школ	1548
овых	1549
ара	1550
##мин	1551
лим	1552
ются	1553
стве	1554
ман	1555
лаг	1556
матер	1557
бра	1558
##вол	1559
##лож	1560
сь	1561
сс	1562
##есь	1563
град	1564
ланир	1565
олла	1566
алось	1567
хоро	1568
игра	1569
##ык	1570
конц	1571
акт	1572
соб	1573
зем	1574
админ	1575
езд	1576
оскве	1577
гер	1578
нее	1579
обств	1580
ческ	1581
дд	1582
нев	1583
менно	1584
сай	1585
мит	1586
ъект	1587
етс	1588
##ым	1589
##щин	1590
турци	1591
своей	1592
поз	1593
ктябр	1594
апрел	1595
член	1596
ям	1597
лектр	1598
ивать	1599
стать	1600
январ	1601
добав	1602
ткр	1603
полаг	1604
ткрыт	1605
15	1606
селен	1607
вк	1608
##ый	1609
тории	1610
отреб	1611
местн	1612
озвол	1613
оллар	1614
##nta	1615
але	1616
lenta	1617
20	1618
овые	1619
##отр	1620
смотр	1621
дач	1622
##зда	1623
созда	1624
казан	1625
прос	1626
олжны	1627
ент	1628
держк	1629
вет	1630
тябр	1631
овлен	1632
фф	1633
тивн	1634
связи	1635
дорог	1636
уз	1637
ожи	1638
##жн	1639
реб	1640
ергей	1641
лиз	1642
лидер	1643
ией	1644
особ	1645
арти	1646
факт	1647
уг	1648
сущ	1649
скор	1650
труд	1651
служб	1652
вит	1653
вар	1654
росто	1655
блю	1656
уровн	1657
вое	1658
асп	1659
прин	1660
оор	1661
##on	1662
##бол	1663
лимпи	1664
енщин	1665
торг	1666
игр	1667
оздан	1668
цев	1669
пы	1670
льной	1671
дн	1672
##гра	1673
##сят	1674
сев	1675
поч	1676
мод	1677
тов	1678
рк	1679
тасс	1680
сми	1681
йти	1682
лучш	1683
омним	1684
жил	1685
подин	1686
фильм	1687
луча	1688
хва	1689
оби	1690
людей	1691
дон	1692
ноябр	1693
рост	1694
зн	1695
##an	1696
стар	1697
емь	1698
лощ	1699
сдела	1700
мал	1701
##лог	1702
ругих	1703
ддерж	1704
обяз	1705
час	1706
матч	1707
исс	1708
культ	1709
прод	1710
машин	1711
ней	1712
налог	1713
обы	1714
доста	1715
дем	1716
ели	1717
уют	1718
виде	1719
вестн	1720
разн	1721
ятель	1722
еспеч	1723
нальн	1724
ини	1725
тон	1726
побед	1727
крыт	1728
укт	1729
шт	1730
лин	1731
страд	1732
ту	1733
вот	1734
лучае	1735
очн	1736
ожида	1737
ье	1738
воб	1739
сти	1740
тар	1741
риа	1742
десят	1743
лощад	1744
уктур	1745
енн	1746
ровод	1747
сновн	1748
вобод	1749
еж	1750
сек	1751
ризна	1752
in	1753
гру	1754
втор	1755
шел	1756
##езд	1757
сил	1758
еты	1759
пуст	1760
натор	1761
источ	1762
ере	1763
ходе	1764
естве	1765
зам	1766
тяж	1767
седа	1768
##дат	1769
##неш	1770
дидат	1771
##тон	1772
утбол	1773
вин	1774
кар	1775
шли	1776
жизни	1777
##мп	1778
ближ	1779
фор	1780
отдел	1781
част	1782
ранич	1783
ащ	1784
арт	1785
марта	1786
пыта	1787
канал	1788
появ	1789
свои	1790
хоз	1791
ял	1792
##or	1793
хорош	1794
твор	1795
артии	1796
##еп	1797
главы	1798
огда	1799
оглаш	1800
ству	1801
яют	1802
ществ	1803
мно	1804
еро	1805
ервый	1806
назыв	1807
лишь	1808
мур	1809
рынк	1810
изм	1811
нению	1812
крым	1813
##утр	1814
разов	1815
чин	1816
вяз	1817
олож	1818
оциа	1819
уш	1820
ужчин	1821
фер	1822
жив	1823
верну	1824
ичн	1825
##шл	1826
стат	1827
улиц	1828
ового	1829
сут	1830
фонд	1831
своих	1832
ями	1833
ена	1834
рек	1835
стало	1836
равил	1837
зав	1838
онд	1839
лась	1840
##ar	1841
трамп	1842
вп	1843
крат	1844
обяза	1845
цесс	1846
чере	1847
груз	1848
фин	1849
осквы	1850
нг	1851
оли	1852
удал	1853
вн	1854
##зи	1855
нужно	1856
вли	1857
ито	1858
чен	1859
ериод	1860
числ	1861
фес	1862
пециа	1863
##нул	1864
##дум	1865
мента	1866
осдум	1867
преду	1868
услов	1869
сири	1870
аэ	1871
кой	1872
гон	1873
объем	1874
вития	1875
мне	1876
льн	1877
сыл	1878
ела	1879
нор	1880
парла	1881
цы	1882
лении	1883
##ун	1884
ател	1885
12	1886
четве	1887
анных	1888
пост	1889
олю	1890
есн	1891
клуб	1892
стали	1893
хват	1894
##лек	1895
внутр	1896
30	1897
##ная	1898
трет	1899
ирует	1900
почти	1901
ниц	1902
пит	1903
ард	1904
молод	1905
зыв	1906
##es	1907
конце	1908
колич	1909
красн	1910
сутс	1911
дать	1912
рамк	1913
бар	1914
эт	1915
др	1916
вор	1917
нефти	1918
общ	1919
ант	1920
ари	1921
ерь	1922
пад	1923
остью	1924
тране	1925
обе	1926
ново	1927
детей	1928
руч	1929
ратур	1930
бла	1931
уа	1932
беж	1933
фр	1934
дома	1935
ользу	1936
##ял	1937
ава	1938
полож	1939
маг	1940
ром	1941
часть	1942
практ	1943
бин	1944
вещ	1945
плат	1946
люди	1947
меня	1948
глав	1949
срок	1950
тп	1951
части	1952
##раф	1953
бло	1954
поясн	1955
стол	1956
сумм	1957
раст	1958
ооруж	1959
нам	1960
ложн	1961
ца	1962
ера	1963
no	1964
редн	1965
отому	1966
тября	1967
одной	1968
включ	1969
позиц	1970
инск	1971
лял	1972
пят	1973
верш	1974
уть	1975
шн	1976
омощь	1977
гу	1978
актив	1979
твует	1980
мещен	1981
бер	1982
одерж	1983
олжен	1984
годн	1985
мерен	1986
ностр	1987
твие	1988
благо	1989
нять	1990
##уг	1991
режд	1992
жур	1993
сильн	1994
усп	1995
сборн	1996
оступ	1997
успе	1998
онат	1999
метр	2000
оюз	2001
тоим	2002
инв	2003
санк	2004
рияти	2005
санкц	2006
анию	2007
ади	2008
сключ	2009
комме	2010
точно	2011
перс	2012
округ	2013
верен	2014
наруж	2015
суб	2016
режим	2017
дт	2018
ообщ	2019
сети	2020
полу	2021
ороны	2022
трол	2023
##ая	2024
итог	2025
фев	2026
парат	2027
ругие	2028
аци	2029
ась	2030
хи	2031
зван	2032
ерьез	2033
тит	2034
уто	2035
ъясн	2036
авг	2037
росл	2038
февра	2039
тправ	2040
аст	2041
мв	2042
##ьб	2043
утвер	2044
доход	2045
смен	2046
авгус	2047
теч	2048
иаль	2049
дорож	2050
кажд	2051
сниж	2052
треб	2053
сад	2054
высок	2055
айш	2056
шир	2057
эр	2058
ше	2059
сих	2060
жела	2061
ама	2062
гран	2063
прет	2064
власт	2065
co	2066
жизн	2067
нтон	2068
молет	2069
инств	2070
чи	2071
аксим	2072
##ям	2073
вол	2074
##ью	2075
аются	2076
оедин	2077
блок	2078
уется	2079
енее	2080
ывает	2081
ике	2082
##ерт	2083
дного	2084
йн	2085
седан	2086
миров	2087
ио	2088
шта	2089
пож	2090
исход	2091
энер	2092
борьб	2093
энерг	2094
ировк	2095
разом	2096
кабр	2097
образ	2098
бывш	2099
тик	2100
стоят	2101
ивают	2102
читыв	2103
надо	2104
ано	2105
вес	2106
крыл	2107
кос	2108
кабря	2109
проце	2110
никак	2111
ложил	2112
аэро	2113
такой	2114
петер	2115
еск	2116
остан	2117
ицу	2118
ечно	2119
топ	2120
лова	2121
сполн	2122
сужд	2123
угро	2124
сылк	2125
инвес	2126
мас	2127
пен	2128
уль	2129
иха	2130
вни	2131
фо	2132
гля	2133
тот	2134
русск	2135
долг	2136
назад	2137
зон	2138
онов	2139
ерб	2140
ское	2141
штаб	2142
25	2143
едь	2144
ффект	2145
##al	2146
ивал	2147
еньги	2148
мести	2149
киев	2150
смерт	2151
алась	2152
итай	2153
жен	2154
арм	2155
имо	2156
казыв	2157
ышлен	2158
справ	2159
сматр	2160
рит	2161
овый	2162
юр	2163
дня	2164
мая	2165
этих	2166
тол	2167
роди	2168
зж	2169
##рыв	2170
иван	2171
иль	2172
трех	2173
обрат	2174
среди	2175
питал	2176
ящ	2177
##le	2178
ечер	2179
арест	2180
##oo	2181
писал	2182
ации	2183
гно	2184
торой	2185
##гио	2186
себе	2187
чу	2188
итета	2189
ополн	2190
губ	2191
регио	2192
оряд	2193
лять	2194
тиц	2195
внима	2196
яя	2197
тоит	2198
одоб	2199
здан	2200
ите	2201
фран	2202
ством	2203
удов	2204
близ	2205
11	2206
худ	2207
вания	2208
дис	2209
одобн	2210
важн	2211
личн	2212
рук	2213
рият	2214
ркнул	2215
подче	2216
имущ	2217
йский	2218
класс	2219
журна	2220
тин	2221
##he	2222
земл	2223
тоже	2224
должн	2225
адр	2226
парти	2227
##тивн	2228
граф	2229
убий	2230
хозя	2231
ажд	2232
дь	2233
пя	2234
север	2235
сегда	2236
дум	2237
ителя	2238
орядк	2239
лекс	2240
конод	2241
ступн	2242
мног	2243
##шен	2244
воего	2245
мере	2246
пенси	2247
прям	2248
делал	2249
парк	2250
этим	2251
банк	2252
ьян	2253
йские	2254
нст	2255
чь	2256
добр	2257
ассаж	2258
шед	2259
прещ	2260
твер	2261
гноз	2262
сез	2263
эту	2264
пять	2265
ноч	2266
енник	2267
верси	2268
сезон	2269
заб	2270
ихся	2271
конч	2272
ато	2273
ущ	2274
минут	2275
сущес	2276
обира	2277
знан	2278
пон	2279
анков	2280
##оп	2281
анием	2282
тверд	2283
воим	2284
##гие	2285
влия	2286
никол	2287
слов	2288
ге	2289
толиц	2290
годы	2291
ребен	2292
тогда	2293
ринят	2294
акие	2295
йдет	2296
либо	2297
дума	2298
гром	2299
нстру	2300
ате	2301
удар	2302
фото	2303
указ	2304
стала	2305
нди	2306
вят	2307
##сл	2308
верк	2309
иш	2310
##кс	2311
доров	2312
тиво	2313
взрыв	2314
ским	2315
лета	2316
здесь	2317
ногие	2318
несен	2319
руж	2320
гляд	2321
римен	2322
кино	2323
тест	2324
айн	2325
осл	2326
устро	2327
блюда	2328
ион	2329
шла	2330
яется	2331
шен	2332
роз	2333
рий	2334
погиб	2335
крыв	2336
шедш	2337
ша	2338
будущ	2339
мурма	2340
нег	2341
ставк	2342
сравн	2343
олев	2344
своем	2345
могли	2346
рожд	2347
бил	2348
иго	2349
мел	2350
льных	2351
мвд	2352
имею	2353
фли	2354
тия	2355
станц	2356
ренд	2357
риним	2358
юс	2359
висим	2360
больн	2361
урн	2362
пам	2363
моск	2364
литик	2365
дежд	2366
троен	2367
ензи	2368
росил	2369
аря	2370
ух	2371
ыск	2372
франц	2373
18	2374
илл	2375
тепер	2376
уточн	2377
товар	2378
фликт	2379
тог	2380
лизац	2381
руп	2382
озр	2383
хож	2384
чего	2385
ику	2386
реаль	2387
памят	2388
er	2389
ревн	2390
алл	2391
ладел	2392
муз	2393
ьев	2394
олот	2395
случа	2396
услуг	2397
давно	2398
кли	2399
##вик	2400
автор	2401
одна	2402
слав	2403
бесп	2404
регул	2405
##ce	2406
решил	2407
ослед	2408
новых	2409
влек	2410
##пис	2411
ало	2412
##вест	2413
анные	2414
акц	2415
видео	2416
креп	2417
права	2418
осто	2419
##за	2420
вязан	2421
ихаил	2422
ходит	2423
исло	2424
нефт	2425
свой	2426
дукт	2427
жден	2428
ывш	2429
рб	2430
олн	2431
усил	2432
тракт	2433
ункт	2434
сразу	2435
данн	2436
онк	2437
лив	2438
тнер	2439
мотря	2440
медиц	2441
онал	2442
нтов	2443
поп	2444
вока	2445
трен	2446
музык	2447
14	2448
50	2449
родаж	2450
таких	2451
омина	2452
##леч	2453
веду	2454
влеч	2455
чита	2456
ндр	2457
##ноп	2458
меш	2459
косм	2460
ьц	2461
аны	2462
емон	2463
обещ	2464
re	2465
овск	2466
мид	2467
выход	2468
ляци	2469
води	2470
вен	2471
иб	2472
имп	2473
кк	2474
##ге	2475
стрем	2476
озрев	2477
рск	2478
издан	2479
строи	2480
зор	2481
конф	2482
ракет	2483
ицы	2484
ъяв	2485
оруж	2486
коп	2487
сит	2488
дальн	2489
уда	2490
оевик	2491
мой	2492
окуп	2493
яч	2494
ласт	2495
объяв	2496
неж	2497
нефть	2498
чина	2499
свое	2500
ице	2501
отлич	2502
стрел	2503
мероп	2504
имеет	2505
ьзова	2506
слам	2507
быт	2508
##дач	2509
##роб	2510
тим	2511
стоит	2512
ехал	2513
герма	2514
ризис	2515
лог	2516
тай	2517
етыре	2518
рыв	2519
выше	2520
явлен	2521
проку	2522
тек	2523
ний	2524
13	2525
исто	2526
озник	2527
ьб	2528
иници	2529
вне	2530
разил	2531
##леж	2532
требо	2533
авл	2534
ктивн	2535
равн	2536
атем	2537
осков	2538
ып	2539
зар	2540
анс	2541
хотя	2542
нтир	2543
губер	2544
ляющ	2545
здрав	2546
оценк	2547
штраф	2548
яж	2549
суда	2550
изац	2551
аф	2552
скую	2553
логи	2554
искус	2555
одимо	2556
мов	2557
наком	2558
март	2559
рынке	2560
чинов	2561
ывший	2562
каж	2563
сайте	2564
як	2565
печ	2566
учас	2567
коноп	2568
нивер	2569
ейств	2570
16	2571
туд	2572
деп	2573
нял	2574
лений	2575
регис	2576
ахов	2577
восп	2578
ност	2579
новый	2580
учен	2581
инс	2582
рынка	2583
демо	2584
##со	2585
взят	2586
енц	2587
орд	2588
тогам	2589
ици	2590
театр	2591
ести	2592
обед	2593
дио	2594
##at	2595
пуля	2596
нужд	2597
вращ	2598
руш	2599
лужб	2600
22	2601
еме	2602
кции	2603
лаго	2604
ьск	2605
##ман	2606
##ro	2607
омн	2608
остоя	2609
енный	2610
кал	2611
лу	2612
пром	2613
олле	2614
рибы	2615
зов	2616
ошел	2617
ау	2618
остиг	2619
жизнь	2620
ощ	2621
аэроп	2622
ака	2623
арк	2624
писан	2625
урнал	2626
трат	2627
ритан	2628
леч	2629
ожд	2630
руго	2631
треть	2632
игор	2633
##она	2634
асл	2635
пиш	2636
йт	2637
задач	2638
быстр	2639
цией	2640
газет	2641
веч	2642
осущ	2643
шлого	2644
адици	2645
17	2646
окон	2647
танет	2648
модел	2649
обычн	2650
пожар	2651
угроз	2652
лось	2653
разви	2654
айте	2655
ервые	2656
аспро	2657
лан	2658
овали	2659
ази	2660
##re	2661
нед	2662
енд	2663
нынеш	2664
пыт	2665
строй	2666
врач	2667
меч	2668
равда	2669
кв	2670
елей	2671
алат	2672
тяжел	2673
ищ	2674
обор	2675
ина	2676
ельно	2677
рибыл	2678
шест	2679
цов	2680
##езн	2681
атак	2682
олжна	2683
фесси	2684
ъедин	2685
блемы	2686
бол	2687
оа	2688
ругой	2689
##ему	2690
ведет	2691
такие	2692
еш	2693
одейс	2694
тельн	2695
шенко	2696
марк	2697
титут	2698
ач	2699
##мес	2700
исси	2701
чера	2702
оллег	2703
овмес	2704
годов	2705
куб	2706
очему	2707
овым	2708
повы	2709
риход	2710
повыш	2711
амп	2712
##лиз	2713
ne	2714
атив	2715
ках	2716
рабоч	2717
дев	2718
воду	2719
оссию	2720
##ген	2721
хара	2722
две	2723
июн	2724
каса	2725
ниче	2726
боев	2727
июля	2728
гар	2729
низ	2730
финал	2731
опинг	2732
митет	2733
опыт	2734
рубл	2735
клон	2736
мире	2737
ероят	2738
норма	2739
шес	2740
##мо	2741
ток	2742
ствия	2743
изов	2744
омощи	2745
уальн	2746
орту	2747
дней	2748
нят	2749
лик	2750
ляют	2751
мощ	2752
очк	2753
яз	2754
ерж	2755
прис	2756
вольн	2757
телем	2758
##ag	2759
пуляр	2760
иев	2761
жал	2762
нвест	2763
орв	2764
конс	2765
цена	2766
аким	2767
ыгра	2768
карт	2769
онер	2770
вице	2771
ринял	2772
бой	2773
оон	2774
пара	2775
секре	2776
ндрей	2777
огиб	2778
мигра	2779
сф	2780
ничег	2781
осуд	2782
дух	2783
лега	2784
нашей	2785
сниз	2786
тм	2787
##ика	2788
экс	2789
гиона	2790
тарь	2791
аждый	2792
ланд	2793
нир	2794
дук	2795
гиб	2796
помн	2797
ифика	2798
##ыр	2799
арш	2800
иктор	2801
дукци	2802
потом	2803
окра	2804
сст	2805
сстан	2806
отмен	2807
олезн	2808
осква	2809
треби	2810
кир	2811
сть	2812
конт	2813
факс	2814
разд	2815
верх	2816
рел	2817
теря	2818
нут	2819
оен	2820
осточ	2821
принц	2822
опасн	2823
твуют	2824
пытк	2825
еже	2826
яг	2827
пов	2828
омп	2829
еа	2830
##цу	2831
етом	2832
олжно	2833
ока	2834
бран	2835
вч	2836
ровер	2837
лот	2838
слу	2839
ократ	2840
обращ	2841
21	2842
гресс	2843
онима	2844
ертв	2845
хотел	2846
этап	2847
курор	2848
##поз	2849
войн	2850
артин	2851
вокат	2852
кс	2853
вис	2854
еньше	2855
ций	2856
стров	2857
оконч	2858
19	2859
ори	2860
серге	2861
оо	2862
нок	2863
терак	2864
цип	2865
the	2866
харак	2867
риск	2868
инте	2869
сем	2870
ерво	2871
ообще	2872
24	2873
оев	2874
льные	2875
мерно	2876
лужбы	2877
одроб	2878
евген	2879
грок	2880
орот	2881
рх	2882
##вс	2883
детск	2884
омет	2885
досто	2886
оне	2887
ситет	2888
огибл	2889
рон	2890
##бн	2891
поко	2892
руз	2893
рг	2894
хе	2895
пас	2896
номоч	2897
оу	2898
писк	2899
ебн	2900
заим	2901
хозяй	2902
атег	2903
везд	2904
проб	2905
арта	2906
монт	2907
##лав	2908
сайт	2909
тому	2910
оенно	2911
бужд	2912
рет	2913
физ	2914
анг	2915
лиент	2916
рик	2917
шлом	2918
мало	2919
пок	2920
поезд	2921
печат	2922
яти	2923
евер	2924
пятн	2925
йтинг	2926
ion	2927
изир	2928
штат	2929
часов	2930
окращ	2931
рад	2932
раг	2933
обой	2934
ранцу	2935
самых	2936
тив	2937
варит	2938
ходил	2939
неза	2940
рубеж	2941
фици	2942
сей	2943
твии	2944
учн	2945
окупа	2946
on	2947
st	2948
выясн	2949
лини	2950
елико	2951
ьер	2952
урс	2953
ловин	2954
мос	2955
оммер	2956
уров	2957
акци	2958
видет	2959
оба	2960
одним	2961
оман	2962
знак	2963
тарт	2964
елать	2965
ерд	2966
декс	2967
тут	2968
путе	2969
отмет	2970
точк	2971
войны	2972
ясь	2973
ею	2974
ужд	2975
лиг	2976
ариа	2977
омб	2978
бам	2979
ерн	2980
свобо	2981
завод	2982
ствие	2983
яр	2984
проче	2985
мощн	2986
28	2987
йст	2988
курен	2989
трел	2990
едл	2991
кил	2992
пект	2993
едве	2994
верг	2995
100	2996
наи	2997
долго	2998
сор	2999
етер	3000
ерты	3001
осток	3002
обран	3003
естр	3004
еля	3005
мысл	3006
хода	3007
ерал	3008
бал	3009
водит	3010
валют	3011
лагод	3012
бот	3013
##ров	3014
боров	3015
ожал	3016
нта	3017
рд	3018
цель	3019
твий	3020
цены	3021
конфе	3022
##in	3023
ходящ	3024
ката	3025
мень	3026
стана	3027
##as	3028
вив	3029
обыч	3030
нно	3031
цер	3032
екс	3033
ева	3034
##ad	3035
ассов	3036
нис	3037
точн	3038
баз	3039
льг	3040
ошло	3041
оппоз	3042
унд	3043
брос	3044
иям	3045
пуска	3046
23	3047
дов	3048
ын	3049
адлеж	3050
става	3051
остр	3052
дебн	3053
40	3054
запад	3055
помог	3056
бив	3057
яем	3058
джо	3059
ойск	3060
дар	3061
нкт	3062
нь	3063
нему	3064
новен	3065
исты	3066
фун	3067
узе	3068
трав	3069
##ter	3070
рис	3071
черн	3072
рев	3073
##иров	3074
вью	3075
места	3076
иссии	3077
оно	3078
яс	3079
оля	3080
кер	3081
доп	3082
ути	3083
чник	3084
щего	3085
графи	3086
ывать	3087
овая	3088
таким	3089
глу	3090
ервом	3091
ети	3092
боле	3093
огн	3094
ыб	3095
овить	3096
спект	3097
черед	3098
вто	3099
##йс	3100
елов	3101
нято	3102
ица	3103
колле	3104
иях	3105
виз	3106
иков	3107
ренц	3108
неу	3109
таж	3110
остов	3111
ипл	3112
тонн	3113
еком	3114
сон	3115
дает	3116
омат	3117
бесед	3118
нф	3119
носит	3120
al	3121
чист	3122
хоч	3123
ранен	3124
меж	3125
меры	3126
петр	3127
союз	3128
лучше	3129
дер	3130
дом	3131
льз	3132
юри	3133
пора	3134
аха	3135
лер	3136
зал	3137
лач	3138
ниг	3139
цб	3140
менты	3141
рес	3142
ывают	3143
тенд	3144
йм	3145
##нешн	3146
родн	3147
дл	3148
йте	3149
вас	3150
ули	3151
расп	3152
актер	3153
ометр	3154
бит	3155
##il	3156
##us	3157
дин	3158
жа	3159
##ха	3160
являю	3161
прие	3162
роста	3163
бок	3164
еи	3165
##ol	3166
етк	3167
лаб	3168
авр	3169
атыв	3170
27	3171
атри	3172
илу	3173
спа	3174
крес	3175
##ения	3176
оволь	3177
трудн	3178
тип	3179
раздн	3180
меньш	3181
новой	3182
уне	3183
##мир	3184
ональ	3185
фик	3186
хр	3187
жеств	3188
ечн	3189
вящ	3190
фил	3191
ейн	3192
елу	3193
##ич	3194
дава	3195
en	3196
генер	3197
26	3198
озна	3199
ног	3200
четыр	3201
брита	3202
пал	3203
йской	3204
акции	3205
живо	3206
рби	3207
нул	3208
сан	3209
льный	3210
алин	3211
гост	3212
яющ	3213
орож	3214
чн	3215
ерм	3216
спис	3217
хан	3218
##am	3219
теку	3220
ине	3221
паса	3222
кращ	3223
бус	3224
нуть	3225
гри	3226
ктор	3227
29	3228
фра	3229
шь	3230
свет	3231
блюд	3232
оци	3233
пп	3234
еву	3235
ремл	3236
авари	3237
кого	3238
егу	3239
пт	3240
an	3241
##ut	3242
##пр	3243
брать	3244
рии	3245
рь	3246
писа	3247
тд	3248
овик	3249
спе	3250
чив	3251
лены	3252
яжен	3253
аден	3254
ходят	3255
более	3256
какой	3257
миним	3258
im	3259
ормир	3260
атар	3261
зи	3262
##енк	3263
ента	3264
вез	3265
##it	3266
ео	3267
зер	3268
елк	3269
ниж	3270
нужн	3271
зык	3272
игу	3273
илов	3274
олга	3275
ших	3276
гори	3277
еха	3278
лаз	3279
обо	3280
олет	3281
##сср	3282
апад	3283
зр	3284
мя	3285
нер	3286
орк	3287
тива	3288
сим	3289
истов	3290
ители	3291
порта	3292
енс	3293
инк	3294
опол	3295
роис	3296
логич	3297
цит	3298
стит	3299
илет	3300
мину	3301
ув	3302
##лат	3303
ойд	3304
реф	3305
канц	3306
реди	3307
реду	3308
усск	3309
проц	3310
кате	3311
рец	3312
орис	3313
ондо	3314
ращ	3315
терин	3316
наши	3317
ея	3318
оя	3319
ровал	3320
легк	3321
ельн	3322
йц	3323
ассе	3324
дпис	3325
еф	3326
ссср	3327
отеч	3328
лам	3329
часто	3330
няли	3331
оружи	3332
хов	3333
ога	3334
понят	3335
хран	3336
овета	3337
асно	3338
ьше	3339
прек	3340
одном	3341
тдель	3342
илы	3343
дил	3344
ховн	3345
омер	3346
прошл	3347
ажи	3348
непо	3349
мерик	3350
паден	3351
цк	3352
##се	3353
км	3354
аге	3355
тавки	3356
внешн	3357
овил	3358
оче	3359
тю	3360
ыта	3361
проп	3362
гн	3363
уем	3364
глаш	3365
шк	3366
вт	3367
##мун	3368
фере	3369
бк	3370
##тер	3371
собра	3372
аев	3373
щей	3374
начн	3375
телям	3376
зе	3377
ивно	3378
москв	3379
пони	3380
ыплат	3381
инам	3382
социа	3383
знача	3384
кцион	3385
пришл	3386
ага	3387
режде	3388
мск	3389
ппо	3390
имени	3391
крет	3392
мина	3393
встр	3394
изит	3395
лав	3396
пил	3397
юк	3398
еев	3399
иде	3400
екабр	3401
льян	3402
com	3403
вченк	3404
нс	3405
рител	3406
ловия	3407
ing	3408
еле	3409
##бу	3410
одо	3411
клю	3412
вам	3413
ооо	3414
##гл	3415
ляе	3416
режи	3417
ысо	3418
ещ	3419
атели	3420
отста	3421
бан	3422
анный	3423
скому	3424
орон	3425
елен	3426
рн	3427
отив	3428
олд	3429
маю	3430
троль	3431
круг	3432
##ace	3433
нтар	3434
дписа	3435
щен	3436
наю	3437
опро	3438
срочн	3439
ником	3440
муни	3441
мч	3442
тие	3443
ститу	3444
аги	3445
егуля	3446
ъем	3447
итар	3448
ениях	3449
случ	3450
есс	3451
дых	3452
рейс	3453
лон	3454
##ap	3455
оши	3456
назв	3457
дтвер	3458
лт	3459
диа	3460
зло	3461
овле	3462
##age	3463
ущен	3464
неиз	3465
бело	3466
реч	3467
ксп	3468
ражен	3469
вку	3470
ино	3471
лд	3472
ками	3473
див	3474
льск	3475
акет	3476
траж	3477
платы	3478
толк	3479
вст	3480
роли	3481
##ir	3482
лада	3483
пада	3484
ажно	3485
юн	3486
мирн	3487
оды	3488
кст	3489
сы	3490
лез	3491
оправ	3492
ошли	3493
ереж	3494
двиг	3495
амер	3496
относ	3497
итор	3498
разде	3499
авлен	3500
абл	3501
анали	3502
нац	3503
роль	3504
сель	3505
инци	3506
тож	3507
аск	3508
ват	3509
##рал	3510
оме	3511
ечен	3512
ьма	3513
крас	3514
здн	3515
встре	3516
мб	3517
чат	3518
рбк	3519
вып	3520
ro	3521
трир	3522
енную	3523
мп	3524
ради	3525
ниже	3526
инд	3527
сия	3528
ои	3529
рок	3530
роп	3531
айд	3532
возду	3533
енск	3534
дог	3535
выш	3536
image	3537
прост	3538
евр	3539
андре	3540
чувс	3541
сш	3542
ысоко	3543
ульт	3544
омис	3545
ap	3546
орн	3547
дале	3548
яде	3549
недо	3550
спас	3551
ура	3552
щий	3553
онец	3554
вода	3555
кция	3556
ды	3557
брал	3558
to	3559
льная	3560
te	3561
той	3562
рив	3563
имен	3564
лению	3565
пог	3566
полне	3567
актор	3568
оюза	3569
кн	3570
сами	3571
дц	3572
шу	3573
стой	3574
канд	3575
хл	3576
##рет	3577
гры	3578
шо	3579
соц	3580
реда	3581
айк	3582
ельс	3583
спеш	3584
дали	3585
ъявил	3586
ключе	3587
дости	3588
одн	3589
верн	3590
асил	3591
обре	3592
ука	3593
ерк	3594
лад	3595
леж	3596
буде	3597
всю	3598
мчс	3599
йл	3600
фс	3601
ьного	3602
арх	3603
##ерь	3604
31	3605
ван	3606
енная	3607
йская	3608
ровел	3609
дат	3610
лк	3611
еперь	3612
сии	3613
фе	3614
спи	3615
бере	3616
екрет	3617
листы	3618
рая	3619
гре	3620
тных	3621
##вис	3622
анти	3623
ща	3624
new	3625
роиз	3626
имн	3627
обеди	3628
нав	3629
овую	3630
мена	3631
лко	3632
рал	3633
олос	3634
жива	3635
наб	3636
скр	3637
дущ	3638
дется	3639
жер	3640
рут	3641
сот	3642
стей	3643
овор	3644
рест	3645
никам	3646
ыл	3647
итет	3648
ндар	3649
льше	3650
лл	3651
ума	3652
еврал	3653
рко	3654
шеств	3655
щих	3656
обиль	3657
мэ	3658
li	3659
воч	3660
смог	3661
дну	3662
##en	3663
хар	3664
##ri	3665
##быт	3666
олит	3667
елик	3668
тт	3669
рае	3670
зрени	3671
пило	3672
60	3673
дут	3674
муж	3675
нк	3676
тали	3677
ауд	3678
событ	3679
енное	3680
внов	3681
##ска	3682
анов	3683
аю	3684
##ите	3685
чай	3686
чев	3687
обнов	3688
дея	3689
мф	3690
лено	3691
дии	3692
ший	3693
сол	3694
мост	3695
ектор	3696
слож	3697
снова	3698
яко	3699
завис	3700
кри	3701
мн	3702
рина	3703
озит	3704
кат	3705
возгл	3706
оэ	3707
ваний	3708
200	3709
одар	3710
оток	3711
гроз	3712
шин	3713
хол	3714
ене	3715
boo	3716
менит	3717
очи	3718
абс	3719
ерег	3720
##зр	3721
ельск	3722
двига	3723
прекр	3724
уга	3725
аде	3726
овое	3727
прес	3728
йским	3729
кита	3730
ласть	3731
ык	3732
начит	3733
читат	3734
иби	3735
чан	3736
шев	3737
вд	3738
вв	3739
енда	3740
эле	3741
кост	3742
масс	3743
ивающ	3744
танци	3745
нит	3746
поряд	3747
стати	3748
ати	3749
ерто	3750
рот	3751
fi	3752
##ение	3753
овано	3754
жды	3755
енном	3756
изо	3757
ресс	3758
рошен	3759
весь	3760
енит	3761
дтп	3762
одозр	3763
ерии	3764
норм	3765
сно	3766
##уст	3767
еред	3768
азета	3769
оронн	3770
book	3771
ризм	3772
ета	3773
трана	3774
пись	3775
ранс	3776
язан	3777
ходов	3778
ович	3779
дают	3780
ерно	3781
ируют	3782
ург	3783
епл	3784
амб	3785
иж	3786
ктив	3787
син	3788
ирм	3789
замет	3790
face	3791
цеп	3792
раи	3793
тмеч	3794
еализ	3795
нерг	3796
ia	3797
може	3798
лн	3799
юю	3800
##чер	3801
иновн	3802
есов	3803
били	3804
потер	3805
стк	3806
тори	3807
морск	3808
елю	3809
изма	3810
орск	3811
ченко	3812
mo	3813
аи	3814
оммун	3815
орта	3816
ыч	3817
мс	3818
##хо	3819
восто	3820
лица	3821
раниц	3822
дина	3823
бав	3824
жить	3825
иро	3826
ыр	3827
кам	3828
юб	3829
##el	3830
арь	3831
##ch	3832
рач	3833
app	3834
ада	3835
таб	3836
роф	3837
вак	3838
сцен	3839
скоро	3840
пали	3841
еда	3842
##la	3843
ентов	3844
видн	3845
гин	3846
зации	3847
олк	3848
плани	3849
шего	3850
тян	3851
орг	3852
борон	3853
бильн	3854
ница	3855
утк	3856
ально	3857
нен	3858
легко	3859
осн	3860
лека	3861
тят	3862
ывал	3863
щиков	3864
цска	3865
изб	3866
одств	3867
икл	3868
тобы	3869
олл	3870
жало	3871
ши	3872
эф	3873
ерс	3874
вали	3875
проса	3876
лем	3877
##ur	3878
перат	3879
зиров	3880
рави	3881
арл	3882
очт	3883
идер	3884
ора	3885
рств	3886
овар	3887
мещ	3888
стрир	3889
олнен	3890
ar	3891
боту	3892
фсб	3893
рв	3894
обс	3895
олод	3896
устил	3897
ошла	3898
торов	3899
удь	3900
лох	3901
нек	3902
##st	3903
нализ	3904
скими	3905
игн	3906
дчер	3907
щем	3908
вич	3909
ацие	3910
етел	3911
лена	3912
тром	3913
давн	3914
иан	3915
ича	3916
йств	3917
льзов	3918
едал	3919
йно	3920
зах	3921
ошенн	3922
нение	3923
ферен	3924
500	3925
есь	3926
лом	3927
олько	3928
гат	3929
эм	3930
преп	3931
дчерк	3932
ti	3933
асти	3934
ьми	3935
прив	3936
выд	3937
ипа	3938
кцию	3939
35	3940
рель	3941
ху	3942
жан	3943
лле	3944
тил	3945
адо	3946
ожник	3947
поле	3948
ерез	3949
елл	3950
лее	3951
крит	3952
форм	3953
ицион	3954
руд	3955
адк	3956
оказа	3957
сб	3958
##бли	3959
овест	3960
едж	3961
публи	3962
ртал	3963
рующ	3964
ньк	3965
овом	3966
стин	3967
енным	3968
ch	3969
одпис	3970
тябре	3971
квал	3972
тки	3973
зан	3974
льным	3975
суде	3976
щи	3977
метро	3978
ссе	3979
комму	3980
кий	3981
ходы	3982
лей	3983
ужден	3984
##ss	3985
оло	3986
ma	3987
ород	3988
века	3989
арак	3990
ушк	3991
енти	3992
70	3993
бро	3994
рели	3995
овре	3996
разу	3997
льном	3998
плате	3999
аще	4000
ину	4001
рази	4002
тавил	4003
гент	4004
ежд	4005
сери	4006
озв	4007
ыти	4008
##фа	4009
еству	4010
пита	4011
бед	4012
жн	4013
номи	4014
икр	4015
июл	4016
парта	4017
каки	4018
ствов	4019
ежи	4020
каких	4021
торго	4022
преж	4023
ограф	4024
астро	4025
спрос	4026
йства	4027
новл	4028
пел	4029
расте	4030
асть	4031
иги	4032
уме	4033
онн	4034
влад	4035
ден	4036
##йд	4037
ады	4038
екци	4039
##ada	4040
зб	4041
иже	4042
циа	4043
ире	4044
авать	4045
акс	4046
гал	4047
еру	4048
ерри	4049
ослав	4050
зии	4051
олиц	4052
ьги	4053
торию	4054
##up	4055
роме	4056
олон	4057
прежд	4058
льное	4059
семи	4060
ево	4061
жк	4062
нат	4063
стен	4064
неш	4065
проч	4066
uter	4067
дни	4068
нает	4069
етств	4070
нимал	4071
араб	4072
news	4073
неп	4074
экстр	4075
uters	4076
атом	4077
иции	4078
ечь	4079
итали	4080
пев	4081
щие	4082
ерв	4083
акан	4084
ретен	4085
300	4086
sp	4087
асто	4088
ыг	4089
ыстав	4090
запис	4091
икой	4092
##дд	4093
руг	4094
авля	4095
air	4096
тором	4097
важ	4098
ище	4099
эн	4100
отн	4101
осп	4102
чест	4103
ривод	4104
ытия	4105
ако	4106
сн	4107
чре	4108
еду	4109
айне	4110
защи	4111
сси	4112
ойти	4113
таль	4114
анам	4115
кова	4116
ойдет	4117
стер	4118
омоч	4119
ложно	4120
ыша	4121
вок	4122
ерев	4123
вно	4124
азе	4125
семь	4126
фт	4127
##ht	4128
ерл	4129
apple	4130
ic	4131
стью	4132
ких	4133
акл	4134
авших	4135
йских	4136
сьм	4137
иат	4138
##др	4139
ойк	4140
етал	4141
тист	4142
оком	4143
аши	4144
селе	4145
ериал	4146
стор	4147
ениям	4148
айм	4149
могу	4150
нка	4151
рп	4152
тск	4153
олго	4154
чета	4155
отя	4156
одол	4157
емн	4158
cap	4159
алк	4160
опуст	4161
боро	4162
сид	4163
шка	4164
##wi	4165
иска	4166
аспор	4167
80	4168
идел	4169
сфер	4170
циаль	4171
зг	4172
хим	4173
##ck	4174
нию	4175
анц	4176
имет	4177
bo	4178
тру	4179
ата	4180
рте	4181
итр	4182
чать	4183
це	4184
умы	4185
нл	4186
истам	4187
аков	4188
идно	4189
вший	4190
икт	4191
оин	4192
дост	4193
for	4194
енер	4195
слови	4196
тал	4197
яд	4198
ария	4199
льную	4200
арат	4201
ерни	4202
it	4203
двер	4204
лес	4205
юм	4206
кие	4207
тир	4208
льс	4209
авал	4210
борот	4211
ару	4212
страх	4213
наци	4214
емп	4215
оке	4216
анск	4217
оско	4218
алог	4219
рош	4220
исан	4221
стане	4222
едине	4223
внес	4224
дно	4225
сче	4226
ъя	4227
отк	4228
емен	4229
маль	4230
ихо	4231
de	4232
дес	4233
дной	4234
мм	4235
поте	4236
ете	4237
льд	4238
мени	4239
охо	4240
ульта	4241
уки	4242
чень	4243
вышен	4244
ввп	4245
аша	4246
уру	4247
арн	4248
un	4249
##зд	4250
мае	4251
окол	4252
яются	4253
век	4254
одав	4255
здо	4256
ентир	4257
дос	4258
атл	4259
днем	4260
роизо	4261
нием	4262
ины	4263
роход	4264
рана	4265
празд	4266
знал	4267
трети	4268
зглав	4269
45	4270
ооб	4271
рган	4272
ресто	4273
нова	4274
кус	4275
тию	4276
суль	4277
апа	4278
увств	4279
зы	4280
вание	4281
туа	4282
ильно	4283
ta	4284
сю	4285
##ое	4286
итик	4287
особо	4288
лива	4289
тора	4290
йство	4291
реми	4292
ити	4293
риг	4294
одел	4295
валь	4296
gr	4297
бю	4298
##et	4299
манда	4300
инима	4301
one	4302
збе	4303
лы	4304
апита	4305
абот	4306
кндр	4307
дра	4308
помощ	4309
енты	4310
чт	4311
ейс	4312
ален	4313
втб	4314
десь	4315
gle	4316
вся	4317
тория	4318
уры	4319
ub	4320
еет	4321
жения	4322
фиц	4323
етр	4324
купк	4325
акое	4326
авка	4327
da	4328
вход	4329
уле	4330
торог	4331
держа	4332
афик	4333
щая	4334
етн	4335
миха	4336
ip	4337
отор	4338
ьных	4339
арла	4340
ыска	4341
эп	4342
##ve	4343
оворя	4344
эл	4345
опров	4346
торое	4347
bl	4348
twi	4349
лев	4350
щин	4351
нача	4352
емл	4353
goo	4354
аже	4355
уго	4356
льт	4357
атр	4358
лично	4359
пин	4360
ао	4361
зин	4362
##ic	4363
кнул	4364
мель	4365
атери	4366
уля	4367
авил	4368
ким	4369
нтари	4370
дро	4371
риоб	4372
tter	4373
мк	4374
нец	4375
евск	4376
есед	4377
ске	4378
ашн	4379
жно	4380
пан	4381
мок	4382
имя	4383
вили	4384
азы	4385
велик	4386
##ети	4387
кад	4388
орите	4389
буду	4390
90	4391
оих	4392
рно	4393
леп	4394
уша	4395
осла	4396
аба	4397
езно	4398
ган	4399
ысл	4400
рект	4401
ига	4402
пло	4403
озг	4404
раща	4405
банка	4406
лков	4407
рл	4408
цик	4409
тмети	4410
атор	4411
рж	4412
оди	4413
лите	4414
скоре	4415
ii	4416
жной	4417
нц	4418
наче	4419
роде	4420
брат	4421
оки	4422
шно	4423
вать	4424
наль	4425
рож	4426
ателя	4427
000	4428
vi	4429
тн	4430
еров	4431
кому	4432
терн	4433
взя	4434
et	4435
тей	4436
яться	4437
лия	4438
режн	4439
итан	4440
рио	4441
риго	4442
имат	4443
ири	4444
диров	4445
ig	4446
нз	4447
вые	4448
амен	4449
столь	4450
очь	4451
##un	4452
##ниц	4453
сяч	4454
чк	4455
##vi	4456
ражд	4457
пройд	4458
оку	4459
ni	4460
прим	4461
po	4462
дк	4463
зко	4464
ню	4465
рм	4466
тура	4467
плен	4468
сег	4469
ебе	4470
улир	4471
or	4472
ира	4473
пик	4474
ода	4475
счет	4476
дск	4477
нист	4478
адим	4479
екла	4480
бора	4481
мари	4482
елове	4483
ижн	4484
пир	4485
тих	4486
кров	4487
ац	4488
кг	4489
ань	4490
оциал	4491
ыт	4492
овсе	4493
есно	4494
орожн	4495
рошло	4496
асса	4497
алья	4498
ома	4499
оса	4500
оао	4501
ега	4502
уэ	4503
омен	4504
кпр	4505
нак	4506
мак	4507
capt	4508
кпрф	4509
утр	4510
нацио	4511
икс	4512
прев	4513
овен	4514
##ul	4515
овки	4516
раш	4517
уте	4518
овед	4519
реко	4520
огод	4521
озиц	4522
глас	4523
янс	4524
ря	4525
##ay	4526
оте	4527
завер	4528
оми	4529
инов	4530
довол	4531
ьмо	4532
оты	4533
отни	4534
рочн	4535
спек	4536
овало	4537
читаю	4538
мэр	4539
ушен	4540
рупп	4541
ce	4542
коло	4543
вка	4544
етро	4545
cop	4546
отел	4547
танц	4548
150	4549
онии	4550
bre	4551
поста	4552
либ	4553
азу	4554
обще	4555
онт	4556
гибдд	4557
оже	4558
эро	4559
кап	4560
of	4561
wada	4562
дко	4563
кру	4564
##гу	4565
заг	4566
толи	4567
суди	4568
оотв	4569
елем	4570
рым	4571
рофес	4572
оем	4573
сень	4574
цир	4575
цам	4576
енз	4577
изу	4578
лома	4579
альне	4580
am	4581
олов	4582
ливо	4583
угол	4584
##шк	4585
овь	4586
лиж	4587
ерп	4588
меет	4589
виж	4590
естн	4591
ируе	4592
ержив	4593
бить	4594
деж	4595
gro	4596
хор	4597
##yr	4598
торы	4599
екл	4600
and	4601
нн	4602
трое	4603
служи	4604
вати	4605
sh	4606
есо	4607
очет	4608
ровск	4609
рода	4610
лизир	4611
el	4612
ww	4613
ико	4614
льц	4615
днр	4616
онных	4617
трон	4618
нешне	4619
32	4620
оров	4621
сточ	4622
еди	4623
напр	4624
пеш	4625
омпан	4626
нна	4627
уи	4628
воен	4629
делен	4630
рови	4631
400	4632
so	4633
гог	4634
рва	4635
щим	4636
##ба	4637
ятс	4638
ипе	4639
тиков	4640
вырос	4641
оры	4642
аниям	4643
пус	4644
ight	4645
group	4646
che	4647
эй	4648
иву	4649
учил	4650
tim	4651
na	4652
арод	4653
рой	4654
правд	4655
дп	4656
дох	4657
верд	4658
рже	4659
##ed	4660
арии	4661
одит	4662
тям	4663
орош	4664
ишь	4665
стори	4666
акой	4667
рю	4668
##ia	4669
стил	4670
кальн	4671
иями	4672
напад	4673
вших	4674
жет	4675
хм	4676
рол	4677
еста	4678
copyr	4679
вро	4680
##id	4681
арен	4682
рид	4683
стоя	4684
редне	4685
int	4686
дель	4687
##ум	4688
##эс	4689
опек	4690
упал	4691
кви	4692
аров	4693
есси	4694
аду	4695
удо	4696
форма	4697
yo	4698
вить	4699
юди	4700
тики	4701
урман	4702
лово	4703
ицей	4704
##ks	4705
рч	4706
емье	4707
ra	4708
##ra	4709
обр	4710
ивер	4711
добн	4712
оц	4713
отов	4714
##мис	4715
оспо	4716
лава	4717
мик	4718
дели	4719
есте	4720
36	4721
коро	4722
онно	4723
перес	4724
сили	4725
ацию	4726
##лин	4727
ожен	4728
ствии	4729
убер	4730
упр	4731
.,	4732
жей	4733
нин	4734
перев	4735
аза	4736
итае	4737
олис	4738
ыгр	4739
ent	4740
каб	4741
анта	4742
вых	4743
мии	4744
сал	4745
тиров	4746
сты	4747
аты	4748
ожно	4749
назна	4750
ежден	4751
анка	4752
ийск	4753
пала	4754
офе	4755
вшей	4756
пат	4757
тет	4758
##ук	4759
www	4760
арск	4761
ятн	4762
чива	4763
ибли	4764
mar	4765
ввс	4766
устр	4767
зит	4768
нстр	4769
рку	4770
проф	4771
получ	4772
уста	4773
гио	4774
ex	4775
ыж	4776
нами	4777
допус	4778
нные	4779
пох	4780
еса	4781
орог	4782
сив	4783
иви	4784
комис	4785
рант	4786
ссыл	4787
бщ	4788
нко	4789
##эт	4790
оту	4791
пци	4792
##хл	4793
соп	4794
циал	4795
тече	4796
нге	4797
##is	4798
33	4799
ола	4800
инн	4801
оре	4802
екц	4803
душ	4804
ухо	4805
елич	4806
сос	4807
узов	4808
##ово	4809
жит	4810
фл	4811
мес	4812
опи	4813
алит	4814
ктур	4815
уй	4816
##ct	4817
етров	4818
ber	4819
рмо	4820
росс	4821
совер	4822
атов	4823
длеж	4824
иво	4825
рац	4826
торая	4827
бог	4828
игил	4829
евой	4830
вил	4831
вир	4832
мей	4833
окк	4834
очка	4835
водо	4836
ложен	4837
покуп	4838
жем	4839
##нс	4840
верж	4841
",	4842
lo	4843
аро	4844
зл	4845
прово	4846
ирск	4847
кул	4848
ставл	4849
возбу	4850
учит	4851
вшие	4852
нения	4853
sa	4854
вну	4855
еход	4856
изы	4857
онда	4858
ерна	4859
se	4860
##ft	4861
оборо	4862
лис	4863
лиции	4864
азо	4865
ота	4866
##сир	4867
одк	4868
ясн	4869
иста	4870
ваз	4871
иден	4872
ажу	4873
седн	4874
лана	4875
тала	4876
сток	4877
iph	4878
еми	4879
пс	4880
тле	4881
юда	4882
ходя	4883
ислен	4884
тивно	4885
ярн	4886
сын	4887
итов	4888
отс	4889
тоян	4890
перво	4891
акр	4892
ражда	4893
кэ	4894
##ье	4895
контр	4896
##ess	4897
титу	4898
потр	4899
ерман	4900
едом	4901
уре	4902
иду	4903
биле	4904
олу	4905
арто	4906
ожет	4907
ктора	4908
ером	4909
75	4910
mer	4911
ащен	4912
нп	4913
урм	4914
сроч	4915
ероя	4916
at	4917
нци	4918
шан	4919
ьк	4920
ьи	4921
нать	4922
кать	4923
ничн	4924
прият	4925
етей	4926
има	4927
кив	4928
55	4929
дним	4930
лли	4931
оей	4932
ртов	4933
ьниц	4934
одня	4935
атил	4936
ницы	4937
times	4938
нау	4939
итер	4940
орва	4941
оза	4942
мых	4943
екре	4944
вая	4945
вает	4946
сию	4947
думы	4948
дне	4949
ою	4950
чно	4951
изе	4952
ерск	4953
ерва	4954
тери	4955
стои	4956
гани	4957
##ank	4958
##ort	4959
аив	4960
тина	4961
нечн	4962
вои	4963
лья	4964
едк	4965
пута	4966
ленно	4967
иниц	4968
избир	4969
пец	4970
тинг	4971
шим	4972
овк	4973
зак	4974
ляр	4975
еоб	4976
стик	4977
дающ	4978
убл	4979
овала	4980
нил	4981
ованы	4982
егат	4983
обход	4984
дам	4985
кана	4986
або	4987
дить	4988
тные	4989
рано	4990
мущ	4991
исте	4992
авт	4993
учш	4994
нты	4995
ребов	4996
##um	4997
лак	4998
редпо	4999
ачал	5000
be	5001
wi	5002
еры	5003
орни	5004
опор	5005
иве	5006
едн	5007
етье	5008
жида	5009
34	5010
нсп	5011
чес	5012
ыс	5013
оллек	5014
грам	5015
фас	5016
позво	5017
вше	5018
вон	5019
бом	5020
лдпр	5021
вшего	5022
акон	5023
ема	5024
рс	5025
науч	5026
обес	5027
анн	5028
тии	5029
##and	5030
посту	5031
вета	5032
гул	5033
жение	5034
шив	5035
года	5036
арс	5037
осет	5038
мать	5039
рова	5040
пожа	5041
шаг	5042
man	5043
nat	5044
sk	5045
куд	5046
олен	5047
разг	5048
ивы	5049
##ецк	5050
ющих	5051
реть	5052
вм	5053
нный	5054
раво	5055
олном	5056
роб	5057
ашен	5058
иция	5059
ву	5060
##ид	5061
##bc	5062
тани	5063
етил	5064
миг	5065
ожил	5066
нков	5067
вроп	5068
##чк	5069
мах	5070
%.	5071
37	5072
выб	5073
##ными	5074
нимаю	5075
отом	5076
ржд	5077
реле	5078
онечн	5079
вэ	5080
иси	5081
лоб	5082
##da	5083
прид	5084
емо	5085
атч	5086
алого	5087
жкх	5088
ьм	5089
поне	5090
спл	5091
вери	5092
brent	5093
еки	5094
мис	5095
ури	5096
ольши	5097
снг	5098
th	5099
вме	5100
дик	5101
еят	5102
сом	5103
бс	5104
уе	5105
щее	5106
мое	5107
анима	5108
визи	5109
ляю	5110
госпо	5111
ian	5112
тф	5113
фир	5114
##фо	5115
ловно	5116
тема	5117
рье	5118
кнр	5119
42	5120
астр	5121
уф	5122
емле	5123
озда	5124
нский	5125
38	5126
жир	5127
оход	5128
рри	5129
овн	5130
рали	5131
вого	5132
ешк	5133
gram	5134
des	5135
ибо	5136
ллек	5137
едет	5138
елев	5139
go	5140
jo	5141
иент	5142
лил	5143
юл	5144
##co	5145
алов	5146
вора	5147
ропа	5148
оном	5149
тным	5150
щую	5151
##ud	5152
##ция	5153
етвер	5154
ирек	5155
май	5156
урецк	5157
ающих	5158
авший	5159
лор	5160
наде	5161
еня	5162
ерси	5163
атить	5164
дия	5165
восс	5166
кций	5167
тайск	5168
вмест	5169
сск	5170
##sj	5171
онс	5172
вкс	5173
##oom	5174
600	5175
нсо	5176
чп	5177
чных	5178
##lo	5179
носи	5180
енси	5181
ge	5182
фина	5183
кома	5184
обл	5185
илли	5186
очер	5187
узы	5188
нител	5189
трукт	5190
звест	5191
чные	5192
ныне	5193
реали	5194
йк	5195
щат	5196
олг	5197
ары	5198
тыр	5199
la	5200
нео	5201
возв	5202
ужно	5203
купа	5204
увер	5205
цу	5206
яли	5207
тат	5208
моя	5209
сум	5210
лете	5211
##изо	5212
жили	5213
снос	5214
lin	5215
pe	5216
vol	5217
дъ	5218
трени	5219
честв	5220
аси	5221
бе	5222
шей	5223
##ья	5224
##ub	5225
тоят	5226
лок	5227
рыно	5228
ародн	5229
65	5230
вов	5231
дроб	5232
рата	5233
орен	5234
уются	5235
ативн	5236
ула	5237
тоял	5238
одро	5239
мвф	5240
##all	5241
##жи	5242
##ki	5243
кры	5244
##ard	5245
еся	5246
осмо	5247
уба	5248
ужен	5249
250	5250
кет	5251
рш	5252
ремя	5253
обсе	5254
онта	5255
руга	5256
иму	5257
ube	5258
ur	5259
ыли	5260
меча	5261
ебя	5262
собен	5263
fo	5264
ho	5265
аран	5266
виа	5267
агр	5268
вг	5269
иком	5270
тка	5271
итвы	5272
инга	5273
опе	5274
евых	5275
азн	5276
ратно	5277
фрг	5278
шоу	5279
##ke	5280
стных	5281
ранн	5282
редо	5283
ково	5284
ромн	5285
yout	5286
berg	5287
ed	5288
##fe	5289
поль	5290
осе	5291
вино	5292
твет	5293
азв	5294
езул	5295
руппа	5296
merce	5297
pro	5298
вск	5299
спон	5300
бек	5301
пк	5302
тного	5303
ыло	5304
ерем	5305
убеж	5306
епро	5307
чески	5308
уши	5309
иной	5310
лла	5311
ветс	5312
кте	5313
поэт	5314
онной	5315
айт	5316
очки	5317
еятел	5318
wsj	5319
гим	5320
оим	5321
тств	5322
800	5323
рукт	5324
айдан	5325
вити	5326
##ite	5327
заня	5328
кот	5329
ету	5330
ерба	5331
еальн	5332
ung	5333
ильн	5334
сени	5335
##хи	5336
подс	5337
слуг	5338
bm	5339
авар	5340
лод	5341
мся	5342
илан	5343
рию	5344
пера	5345
вест	5346
тное	5347
нской	5348
boe	5349
обу	5350
еря	5351
апи	5352
прода	5353
46	5354
tr	5355
tor	5356
us	5357
еют	5358
ычн	5359
ьт	5360
рита	5361
##ын	5362
наше	5363
анди	5364
вига	5365
исхо	5366
ажет	5367
120	5368
дерац	5369
лнр	5370
bloom	5371
48	5372
we	5373
дю	5374
тс	5375
##fa	5376
най	5377
уков	5378
меди	5379
##ash	5380
нное	5381
bank	5382
тной	5383
юз	5384
онные	5385
вою	5386
етен	5387
екта	5388
mail	5389
44	5390
wag	5391
xx	5392
ае	5393
ммун	5394
нб	5395
сий	5396
##ние	5397
едва	5398
47	5399
бле	5400
сна	5401
##yp	5402
роком	5403
мыш	5404
екса	5405
мерт	5406
ровн	5407
офи	5408
ередн	5409
ападе	5410
нса	5411
оенн	5412
рма	5413
сизо	5414
есту	5415
дачи	5416
чук	5417
нцев	5418
дробн	5419
бъ	5420
бат	5421
дз	5422
еал	5423
исти	5424
рда	5425
рше	5426
остей	5427
чему	5428
inst	5429
43	5430
нная	5431
ваш	5432
ающий	5433
ажн	5434
ющие	5435
моде	5436
ащит	5437
мяч	5438
ссии	5439
bmw	5440
mic	5441
sam	5442
zr	5443
уше	5444
чей	5445
##te	5446
оват	5447
прое	5448
тья	5449
екущ	5450
ошл	5451
фифа	5452
зован	5453
мисси	5454
азвит	5455
чной	5456
ратор	5457
ечат	5458
попа	5459
##und	5460
inter	5461
зю	5462
##эк	5463
заме	5464
опо	5465
есл	5466
ницу	5467
мпе	5468
айск	5469
ющей	5470
зыва	5471
лта	5472
оси	5473
осту	5474
тий	5475
куль	5476
аэс	5477
##ily	5478
идео	5479
фбр	5480
хир	5481
ьными	5482
соци	5483
бое	5484
техно	5485
епри	5486
ернет	5487
pr	5488
tal	5489
ише	5490
тный	5491
ыбор	5492
ься	5493
руют	5494
лаш	5495
вик	5496
полно	5497
елос	5498
ично	5499
оща	5500
bus	5501
гур	5502
етов	5503
сар	5504
умен	5505
шие	5506
яла	5507
онф	5508
атал	5509
борн	5510
аций	5511
tele	5512
авлял	5513
me	5514
аше	5515
ект	5516
еатр	5517
иен	5518
уц	5519
сте	5520
риш	5521
року	5522
осс	5523
емпи	5524
атер	5525
идент	5526
ствий	5527
лиза	5528
зво	5529
иди	5530
##ши	5531
зато	5532
ерст	5533
рих	5534
сят	5535
тве	5536
естно	5537
роду	5538
няя	5539
life	5540
wor	5541
жск	5542
зде	5543
кас	5544
еран	5545
амо	5546
ужа	5547
ация	5548
41	5549
85	5550
ai	5551
ba	5552
ft	5553
xi	5554
дения	5555
мка	5556
тч	5557
кая	5558
едо	5559
оги	5560
сли	5561
##гер	5562
##de	5563
кое	5564
непр	5565
едан	5566
исе	5567
мате	5568
ртв	5569
иверс	5570
шит	5571
едиц	5572
тых	5573
речи	5574
зао	5575
омин	5576
отп	5577
оны	5578
онен	5579
мои	5580
огд	5581
мани	5582
воров	5583
39	5584
49	5585
do	5586
гк	5587
сбу	5588
##йн	5589
ойн	5590
мот	5591
рич	5592
стиж	5593
ворит	5594
daily	5595
влен	5596
зо	5597
щн	5598
##mi	5599
овав	5600
енте	5601
отер	5602
илос	5603
вад	5604
ающие	5605
нгр	5606
ето	5607
зу	5608
##ti	5609
лир	5610
верт	5611
икул	5612
нтер	5613
раке	5614
di	5615
pri	5616
ri	5617
тас	5618
разб	5619
еве	5620
огу	5621
аку	5622
вающ	5623
нимат	5624
деньг	5625
зк	5626
нной	5627
##ца	5628
##ge	5629
торую	5630
оним	5631
циям	5632
уточ	5633
son	5634
ешен	5635
оят	5636
реста	5637
оков	5638
ирово	5639
лето	5640
net	5641
%,	5642
57	5643
ыстр	5644
отл	5645
боль	5646
аса	5647
азан	5648
ылк	5649
##ult	5650
insta	5651
sams	5652
io	5653
nal	5654
ton	5655
сд	5656
тна	5657
##зв	5658
енк	5659
мыв	5660
ажен	5661
рите	5662
льтур	5663
52	5664
700	5665
гда	5666
дей	5667
мек	5668
шем	5669
арко	5670
икан	5671
ющий	5672
##old	5673
op	5674
нным	5675
чал	5676
ъе	5677
обя	5678
вызв	5679
опр	5680
мира	5681
спы	5682
уди	5683
вето	5684
##трк	5685
овке	5686
##нин	5687
ращен	5688
льм	5689
ляц	5690
едс	5691
сков	5692
айо	5693
бас	5694
ппа	5695
рман	5696
##ci	5697
онск	5698
уса	5699
туре	5700
агер	5701
рых	5702
язы	5703
роне	5704
внос	5705
кти	5706
нхл	5707
пить	5708
рта	5709
рят	5710
тос	5711
тбол	5712
хэ	5713
иля	5714
ейк	5715
амм	5716
оего	5717
тый	5718
елы	5719
рези	5720
еньк	5721
вари	5722
рных	5723
фг	5724
стиц	5725
анр	5726
приз	5727
##авш	5728
рип	5729
иса	5730
орол	5731
жид	5732
адио	5733
bg	5734
аур	5735
кп	5736
нки	5737
пти	5738
чм	5739
зация	5740
енци	5741
руко	5742
стоял	5743
лого	5744
53	5745
is	5746
pla	5747
si	5748
рди	5749
##яс	5750
нош	5751
раве	5752
рево	5753
ерну	5754
очной	5755
сме	5756
исал	5757
ашей	5758
фрс	5759
volks	5760
cn	5761
мят	5762
фект	5763
##уа	5764
##цк	5765
олы	5766
арди	5767
торым	5768
пао	5769
учк	5770
еза	5771
ехн	5772
ниман	5773
дмин	5774
ers	5775
нпф	5776
62	5777
fl	5778
par	5779
асн	5780
еу	5781
нсир	5782
рц	5783
умм	5784
ыть	5785
рада	5786
ерр	5787
мого	5788
убо	5789
ждал	5790
войс	5791
stre	5792
иу	5793
ида	5794
нга	5795
уск	5796
намер	5797
аме	5798
джа	5799
езо	5800
cas	5801
орат	5802
##зер	5803
овет	5804
арте	5805
роя	5806
тика	5807
есен	5808
темы	5809
осаго	5810
азани	5811
есяце	5812
бъем	5813
eu	5814
нных	5815
##ld	5816
нанс	5817
овка	5818
ноп	5819
есе	5820
мам	5821
чая	5822
ожар	5823
ломк	5824
su	5825
аго	5826
дение	5827
уро	5828
юге	5829
неи	5830
орит	5831
сист	5832
вшим	5833
нув	5834
nite	5835
рный	5836
нициа	5837
онг	5838
дание	5839
адн	5840
ровь	5841
орой	5842
ищев	5843
лма	5844
мма	5845
нце	5846
тник	5847
овес	5848
обыт	5849
воих	5850
одов	5851
емых	5852
несе	5853
исл	5854
novi	5855
ружен	5856
ачен	5857
дател	5858
дпол	5859
ib	5860
бн	5861
лос	5862
тст	5863
уал	5864
##ср	5865
обил	5866
икал	5867
ндо	5868
рупн	5869
ted	5870
шум	5871
бет	5872
олич	5873
пф	5874
уси	5875
##yo	5876
нах	5877
рати	5878
нить	5879
татов	5880
адавш	5881
гласи	5882
транн	5883
ашин	5884
ачи	5885
эфф	5886
мгу	5887
оял	5888
пул	5889
уан	5890
##se	5891
остро	5892
одни	5893
пода	5894
ятно	5895
кован	5896
агра	5897
рыва	5898
ыполн	5899
64	5900
mi	5901
шко	5902
пояс	5903
##ско	5904
руже	5905
миро	5906
ирк	5907
окр	5908
огр	5909
сул	5910
айл	5911
види	5912
нту	5913
унк	5914
почт	5915
##est	5916
he	5917
рго	5918
овод	5919
анда	5920
лиров	5921
асв	5922
мун	5923
изошл	5924
ard	5925
51	5926
ice	5927
бен	5928
кса	5929
нне	5930
##эн	5931
##чев	5932
мые	5933
еку	5934
ваем	5935
вами	5936
возм	5937
анкер	5938
рфс	5939
тко	5940
шл	5941
ыз	5942
арна	5943
оду	5944
силь	5945
трал	5946
езу	5947
икак	5948
щать	5949
nault	5950
eg	5951
аил	5952
бов	5953
рто	5954
рки	5955
раю	5956
раль	5957
нице	5958
дой	5959
орно	5960
мите	5961
акар	5962
еобх	5963
af	5964
рци	5965
шил	5966
шек	5967
##va	5968
енат	5969
анной	5970
цид	5971
ходим	5972
гуля	5973
тите	5974
jour	5975
жу	5976
##дж	5977
##vo	5978
кими	5979
мый	5980
джет	5981
тайн	5982
зова	5983
рикан	5984
ad	5985
es	5986
gu	5987
sm	5988
кем	5989
рни	5990
тл	5991
##тс	5992
рех	5993
огер	5994
черк	5995
russ	5996
чьи	5997
toyo	5998
gal	5999
шая	6000
наст	6001
рах	6002
рей	6003
приб	6004
ишк	6005
con	6006
mon	6007
аун	6008
оител	6009
##жен	6010
наме	6011
ону	6012
мом	6013
алу	6014
леду	6015
рыл	6016
ичк	6017
ольф	6018
дово	6019
рудо	6020
ford	6021
hy	6022
pa	6023
вую	6024
етон	6025
жда	6026
йс	6027
ренн	6028
##шин	6029
итк	6030
итат	6031
добы	6032
онят	6033
рим	6034
етить	6035
оде	6036
атк	6037
раба	6038
ующих	6039
орам	6040
67	6041
74	6042
гг	6043
жат	6044
пек	6045
пей	6046
##me	6047
ейт	6048
конеч	6049
оник	6050
нтябр	6051
тавк	6052
ашк	6053
##ers	6054
уефа	6055
micro	6056
play	6057
ждает	6058
56	6059
вля	6060
мул	6061
прем	6062
обав	6063
оле	6064
бычн	6065
лях	6066
очти	6067
четы	6068
икова	6069
soft	6070
tes	6071
зь	6072
##як	6073
арп	6074
осв	6075
ийн	6076
амы	6077
атин	6078
тавит	6079
ующие	6080
введ	6081
ектр	6082
ben	6083
ьный	6084
##ls	6085
##ue	6086
##ca	6087
зад	6088
отд	6089
вости	6090
разве	6091
рони	6092
одр	6093
вищ	6094
тике	6095
euro	6096
77	6097
aut	6098
lada	6099
гей	6100
кую	6101
цру	6102
##чи	6103
реп	6104
ане	6105
аня	6106
инь	6107
вог	6108
##очк	6109
рдо	6110
world	6111
рна	6112
рсе	6113
сса	6114
##гин	6115
тац	6116
алют	6117
лага	6118
есу	6119
едов	6120
апл	6121
ильм	6122
рской	6123
130	6124
ефо	6125
рмац	6126
ax	6127
med	6128
##az	6129
риб	6130
авод	6131
ехо	6132
ющим	6133
wiki	6134
72	6135
ial	6136
нутр	6137
хн	6138
##су	6139
##ап	6140
лать	6141
мене	6142
жест	6143
ерам	6144
огич	6145
ght	6146
iv	6147
nt	6148
pol	6149
бре	6150
сат	6151
пот	6152
отал	6153
антов	6154
льб	6155
уде	6156
очно	6157
арнас	6158
95	6159
ph	6160
укой	6161
чного	6162
яза	6163
стн	6164
тога	6165
арр	6166
удит	6167
азов	6168
трак	6169
воре	6170
ущес	6171
uni	6172
##udi	6173
укойл	6174
54	6175
пдд	6176
рме	6177
уве	6178
ьес	6179
обна	6180
лян	6181
меро	6182
аген	6183
печа	6184
лизи	6185
ообща	6186
щении	6187
roid	6188
лярн	6189
тном	6190
ыка	6191
яб	6192
омс	6193
ройс	6194
трой	6195
упи	6196
асов	6197
обща	6198
##ood	6199
ксан	6200
влены	6201
get	6202
жар	6203
пле	6204
ыясн	6205
##пл	6206
##эр	6207
онный	6208
рог	6209
мейк	6210
cl	6211
зм	6212
##ту	6213
##па	6214
отч	6215
изн	6216
орре	6217
осил	6218
##жев	6219
ленн	6220
йском	6221
аке	6222
жает	6223
sport	6224
iii	6225
post	6226
58	6227
бвин	6228
жим	6229
зис	6230
иэ	6231
сур	6232
фк	6233
чка	6234
##енд	6235
инал	6236
етра	6237
асх	6238
серв	6239
##anc	6240
ибун	6241
ьбе	6242
пфр	6243
cit	6244
ty	6245
аул	6246
епо	6247
нного	6248
рне	6249
чным	6250
##tt	6251
коса	6252
скан	6253
менов	6254
иваю	6255
ванию	6256
мба	6257
хмет	6258
63	6259
дс	6260
иот	6261
пий	6262
сить	6263
вым	6264
евн	6265
спг	6266
голо	6267
есто	6268
ифик	6269
рба	6270
bi	6271
зрыв	6272
яви	6273
##шн	6274
забо	6275
изи	6276
таци	6277
сост	6278
трем	6279
лах	6280
ализ	6281
парт	6282
ентра	6283
лизо	6284
емонт	6285
елям	6286
##uts	6287
дельн	6288
вгуст	6289
benz	6290
явили	6291
fr	6292
tv	6293
чл	6294
##цы	6295
итвин	6296
сооб	6297
лице	6298
риров	6299
тико	6300
апе	6301
апу	6302
сиро	6303
ндс	6304
рене	6305
900	6306
ass	6307
aks	6308
ser	6309
дми	6310
еек	6311
лм	6312
рям	6313
##ba	6314
итыв	6315
боя	6316
упа	6317
строе	6318
нская	6319
ощн	6320
площ	6321
нюю	6322
вмс	6323
тства	6324
73	6325
car	6326
wall	6327
дя	6328
жный	6329
иум	6330
лой	6331
фз	6332
хв	6333
доч	6334
домо	6335
алек	6336
роса	6337
лас	6338
тые	6339
ывали	6340
иску	6341
еспч	6342
##ork	6343
ожде	6344
второ	6345
350	6346
евоз	6347
оспит	6348
итики	6349
ктик	6350
##хан	6351
раф	6352
ракт	6353
реал	6354
тает	6355
воп	6356
имс	6357
упе	6358
ожив	6359
ссы	6360
еща	6361
атич	6362
аива	6363
лмаз	6364
99	6365
fm	6366
york	6367
кси	6368
нну	6369
ансир	6370
твит	6371
полов	6372
енту	6373
вете	6374
онкур	6375
160	6376
cnn	6377
59	6378
88	6379
бри	6380
лка	6381
тущ	6382
шет	6383
##ty	6384
итир	6385
ресн	6386
огил	6387
стон	6388
раны	6389
учить	6390
нтв	6391
нижен	6392
ллион	6393
майер	6394
таты	6395
68	6396
pl	6397
зви	6398
кхл	6399
нном	6400
рного	6401
итал	6402
ерф	6403
ейл	6404
аник	6405
мышл	6406
айан	6407
игери	6408
овок	6409
##ill	6410
space	6411
тало	6412
опред	6413
66	6414
вци	6415
гко	6416
уар	6417
ыше	6418
енде	6419
##чак	6420
дини	6421
нду	6422
егэ	6423
варт	6424
ацион	6425
ожден	6426
##ing	6427
end	6428
отуар	6429
auto	6430
иумф	6431
audi	6432
ачн	6433
вки	6434
нто	6435
чный	6436
илер	6437
сок	6438
ейм	6439
##ейн	6440
ози	6441
дню	6442
шенк	6443
усско	6444
аруш	6445
вмф	6446
line	6447
вциом	6448
fa	6449
бще	6450
йо	6451
лина	6452
рной	6453
тэ	6454
ынешн	6455
##ll	6456
ношен	6457
одина	6458
ктер	6459
алай	6460
бах	6461
ветл	6462
ачк	6463
дата	6464
xix	6465
as	6466
wh	6467
зя	6468
кб	6469
мтс	6470
##ta	6471
коап	6472
зала	6473
тап	6474
мею	6475
ахи	6476
атит	6477
вим	6478
верно	6479
ечин	6480
абоч	6481
ортн	6482
180	6483
улин	6484
бсу	6485
##ypt	6486
axy	6487
61	6488
cor	6489
em	6490
аа	6491
абр	6492
благ	6493
гло	6494
нны	6495
оиз	6496
рил	6497
фнс	6498
шки	6499
##гон	6500
иты	6501
опри	6502
осм	6503
льф	6504
адми	6505
сией	6506
пион	6507
ариан	6508
пасе	6509
нфор	6510
мигр	6511
guard	6512
tesla	6513
84	6514
nor	6515
rol	6516
tra	6517
жник	6518
кта	6519
нали	6520
омме	6521
рева	6522
прио	6523
арик	6524
авле	6525
озду	6526
равля	6527
ителе	6528
ine	6529
ниров	6530
рудн	6531
нформ	6532
por	6533
port	6534
war	6535
xvi	6536
змен	6537
нни	6538
##нев	6539
каль	6540
онны	6541
ритор	6542
боч	6543
еские	6544
##ass	6545
all	6546
niss	6547
76	6548
ha	6549
her	6550
бий	6551
дите	6552
еше	6553
иар	6554
оис	6555
ппоз	6556
щения	6557
##af	6558
ерх	6559
орс	6560
одор	6561
осу	6562
саж	6563
льши	6564
склю	6565
уду	6566
ваю	6567
корр	6568
ечк	6569
ующий	6570
нском	6571
ружи	6572
вена	6573
ицию	6574
egypt	6575
".	6576
br	6577
сис	6578
чко	6579
чить	6580
##юк	6581
нала	6582
нако	6583
неб	6584
итв	6585
онц	6586
етск	6587
анил	6588
подоб	6589
емой	6590
огран	6591
курат	6592
ези	6593
ываем	6594
итуа	6595
##org	6596
амаз	6597
лавы	6598
рпц	6599
рмат	6600
ысок	6601
69	6602
71	6603
ive	6604
land	6605
вь	6606
ьет	6607
##ps	6608
ову	6609
арит	6610
имы	6611
сколь	6612
тере	6613
мали	6614
ковск	6615
фициа	6616
икаг	6617
кцио	6618
red	6619
арок	6620
бир	6621
змер	6622
мств	6623
уя	6624
фар	6625
##до	6626
##ys	6627
нот	6628
новил	6629
едующ	6630
ране	6631
пак	6632
абэ	6633
ичем	6634
манск	6635
днк	6636
логов	6637
рофе	6638
дпс	6639
afp	6640
ag	6641
eb	6642
per	6643
воро	6644
есят	6645
зни	6646
кно	6647
щно	6648
##ху	6649
##хин	6650
онча	6651
амят	6652
икет	6653
люче	6654
няти	6655
ичные	6656
еских	6657
airl	6658
bbc	6659
вл	6660
гп	6661
лал	6662
мг	6663
рса	6664
фу	6665
яю	6666
яна	6667
ристо	6668
рои	6669
аход	6670
всу	6671
окал	6672
сман	6673
рфпл	6674
рожде	6675
алкан	6676
92	6677
gi	6678
gold	6679
pi	6680
еор	6681
нм	6682
уна	6683
ута	6684
пери	6685
еды	6686
мым	6687
яте	6688
ятел	6689
долл	6690
ичен	6691
нды	6692
нейш	6693
ицын	6694
ефт	6695
фтс	6696
uber	6697
org	6698
ират	6699
кц	6700
лж	6701
мме	6702
##дь	6703
изме	6704
алю	6705
осов	6706
амс	6707
едел	6708
редп	6709
мерн	6710
ines	6711
##art	6712
печен	6713
ликов	6714
мпан	6715
ропор	6716
вский	6717
press	6718
hyund	6719
обави	6720
82	6721
hi	6722
ry	6723
ure	6724
аказ	6725
ебо	6726
##li	6727
кора	6728
омо	6729
ерро	6730
одил	6731
мим	6732
спч	6733
прави	6734
укр	6735
умент	6736
ртер	6737
##ust	6738
дзо	6739
ab	6740
ly	6741
астн	6742
нч	6743
чек	6744
##жк	6745
##бан	6746
нан	6747
неско	6748
цио	6749
ичего	6750
окер	6751
вают	6752
следу	6753
траф	6754
трас	6755
let	6756
ебен	6757
вался	6758
епа	6759
просы	6760
знь	6761
ацио	6762
еский	6763
омисс	6764
shi	6765
exp	6766
xxi	6767
getty	6768
78	6769
bes	6770
nanc	6771
qu	6772
rt	6773
ress	6774
ss	6775
sup	6776
ua	6777
аек	6778
еод	6779
нде	6780
олик	6781
цин	6782
шок	6783
ыла	6784
##аст	6785
##ug	6786
овел	6787
##рас	6788
разв	6789
тег	6790
телек	6791
ицк	6792
родо	6793
няк	6794
здор	6795
уации	6796
берт	6797
140	6798
афи	6799
deuts	6800
нца	6801
86	6802
kia	6803
mat	6804
тис	6805
шее	6806
коль	6807
рее	6808
орти	6809
мости	6810
алы	6811
роч	6812
аман	6813
стоим	6814
тым	6815
держи	6816
итают	6817
ley	6818
ежа	6819
астер	6820
фгуп	6821
glo	6822
ko	6823
lt	6824
ler	6825
сле	6826
фн	6827
юч	6828
##тен	6829
тая	6830
тации	6831
выми	6832
истер	6833
евин	6834
мыс	6835
апы	6836
ценк	6837
люби	6838
икам	6839
олин	6840
попыт	6841
##ind	6842
оргов	6843
capi	6844
тиру	6845
уфс	6846
mit	6847
sol	6848
гсу	6849
ояв	6850
рным	6851
сма	6852
чения	6853
яск	6854
##шек	6855
##ber	6856
поми	6857
пря	6858
раже	6859
##лит	6860
ерз	6861
амва	6862
вист	6863
тера	6864
утс	6865
удк	6866
удет	6867
айс	6868
лева	6869
альни	6870
егио	6871
твуе	6872
оаэ	6873
нную	6874
bil	6875
id	6876
ul	6877
нте	6878
рка	6879
тниц	6880
ько	6881
##ьер	6882
##жа	6883
##ns	6884
нал	6885
ната	6886
омик	6887
анер	6888
анси	6889
етит	6890
озя	6891
адиц	6892
реде	6893
айер	6894
резид	6895
унн	6896
чены	6897
вэб	6898
fox	6899
аган	6900
оящ	6901
рги	6902
шии	6903
шение	6904
##пк	6905
##fc	6906
инто	6907
менен	6908
елан	6909
ниям	6910
ртн	6911
вине	6912
##ast	6913
tech	6914
вгтрк	6915
сийск	6916
мекер	6917
79	6918
fer	6919
нв	6920
оян	6921
пво	6922
чил	6923
щит	6924
##юр	6925
##oc	6926
##чан	6927
##ka	6928
нон	6929
тать	6930
анел	6931
онч	6932
огол	6933
ожк	6934
колл	6935
105	6936
стич	6937
еска	6938
йству	6939
ржи	6940
pors	6941
ram	6942
лек	6943
мкс	6944
сэ	6945
##мат	6946
омму	6947
##сян	6948
рини	6949
торж	6950
ирмен	6951
ивали	6952
унг	6953
ажа	6954
рты	6955
узык	6956
110	6957
##ina	6958
атир	6959
brex	6960
мкад	6961
изнь	6962
ac	6963
ari	6964
pay	6965
луб	6966
фск	6967
чная	6968
ыд	6969
##фор	6970
ерик	6971
орч	6972
алер	6973
рика	6974
опей	6975
тили	6976
елье	6977
ровки	6978
анкци	6979
тях	6980
ишер	6981
шать	6982
ириж	6983
вф	6984
ече	6985
жин	6986
тная	6987
эд	6988
##ek	6989
##бек	6990
изда	6991
ории	6992
##лян	6993
лайн	6994
амал	6995
тич	6996
озд	6997
ирн	6998
оге	6999
утб	7000
упк	7001
упо	7002
вшэ	7003
пиона	7004
ухин	7005
тимул	7006
зовал	7007
фсин	7008
chev	7009
узыка	7010
истич	7011
91	7012
bla	7013
вре	7014
йде	7015
пинг	7016
сня	7017
яни	7018
##бин	7019
поло	7020
обин	7021
енции	7022
анш	7023
арно	7024
опк	7025
ату	7026
озы	7027
адал	7028
веде	7029
канди	7030
начин	7031
ором	7032
уплен	7033
ожн	7034
ечта	7035
ринц	7036
иками	7037
рке	7038
no1	7039
еаэс	7040
roy	7041
iaaf	7042
еллер	7043
nik	7044
хмед	7045
glob	7046
lu	7047
nas	7048
wti	7049
вщ	7050
гли	7051
йз	7052
лф	7053
нник	7054
пли	7055
ьют	7056
##ep	7057
##етт	7058
рикс	7059
##лок	7060
дино	7061
ошк	7062
ужбы	7063
les	7064
аких	7065
##ans	7066
айкал	7067
мфо	7068
нюдь	7069
mark	7070
bel	7071
pet	7072
res	7073
дки	7074
рси	7075
рные	7076
фм	7077
чс	7078
чки	7079
##жу	7080
мих	7081
бои	7082
очек	7083
дици	7084
ужб	7085
ичных	7086
ажны	7087
ицио	7088
serv	7089
ca	7090
cr	7091
cat	7092
cre	7093
ner	7094
ot	7095
рти	7096
рде	7097
шель	7098
язи	7099
стной	7100
омог	7101
енч	7102
приг	7103
ейх	7104
опу	7105
перт	7106
рое	7107
одер	7108
ахр	7109
еден	7110
скл	7111
ехно	7112
ацией	7113
имост	7114
салон	7115
еррор	7116
ктам	7117
mits	7118
94	7119
vo	7120
адач	7121
жите	7122
иет	7123
оит	7124
пиров	7125
тва	7126
тэк	7127
##xus	7128
овин	7129
ойл	7130
тают	7131
онстр	7132
лиф	7133
ерин	7134
тренн	7135
мою	7136
скал	7137
учи	7138
азмер	7139
сирий	7140
ссан	7141
ищи	7142
ney	7143
290	7144
банко	7145
айден	7146
иллиа	7147
super	7148
81	7149
dis	7150
han	7151
il	7152
блен	7153
дэ	7154
##чук	7155
##ma	7156
овной	7157
док	7158
ору	7159
ейер	7160
рием	7161
етан	7162
истр	7163
виль	7164
учше	7165
оха	7166
наза	7167
кты	7168
ингов	7169
ателе	7170
еаль	7171
мско	7172
ванн	7173
мсфо	7174
тстве	7175
пийск	7176
assoc	7177
ссанж	7178
ms	7179
mus	7180
wash	7181
вя	7182
зра	7183
зных	7184
лезн	7185
уще	7186
шат	7187
##фе	7188
итт	7189
итн	7190
прош	7191
рещ	7192
тата	7193
коман	7194
авы	7195
скв	7196
урк	7197
екан	7198
асск	7199
ожа	7200
егит	7201
лук	7202
ищу	7203
##ade	7204
sko	7205
fly	7206
93	7207
hu	7208
гтрк	7209
лых	7210
лить	7211
шал	7212
рать	7213
аре	7214
риан	7215
аяк	7216
ахт	7217
тира	7218
икел	7219
мерз	7220
водя	7221
онах	7222
безо	7223
анды	7224
ецб	7225
двар	7226
note	7227
аук	7228
жать	7229
айкер	7230
fifa	7231
аиш	7232
ржа	7233
98	7234
tri	7235
зир	7236
зник	7237
иноп	7238
м2	7239
нда	7240
уни	7241
усс	7242
##яр	7243
##зе	7244
стым	7245
ници	7246
##рон	7247
етв	7248
рока	7249
винин	7250
есел	7251
елек	7252
владе	7253
идж	7254
личк	7255
159	7256
еской	7257
170	7258
star	7259
оспод	7260
пирт	7261
##ull	7262
83	7263
she	7264
дли	7265
нент	7266
рном	7267
тмен	7268
щение	7269
ъед	7270
##ie	7271
##сон	7272
##нх	7273
##bo	7274
енгер	7275
иман	7276
ласс	7277
##утер	7278
амск	7279
спол	7280
едв	7281
ведо	7282
грани	7283
летк	7284
тнош	7285
икар	7286
ифер	7287
койл	7288
авляе	7289
ubi	7290
кгб	7291
gy	7292
sci	7293
жных	7294
зят	7295
пц	7296
##ii	7297
##фу	7298
##ща	7299
##ано	7300
##рот	7301
ейд	7302
арин	7303
стре	7304
авин	7305
вере	7306
еде	7307
азви	7308
ичто	7309
дало	7310
ероп	7311
ионер	7312
##ats	7313
ксе	7314
450	7315
tors	7316
week	7317
лтай	7318
ltd	7319
fre	7320
my	7321
вей	7322
лг	7323
мпи	7324
нел	7325
рре	7326
тыв	7327
##ne	7328
##fi	7329
нахо	7330
ноше	7331
воли	7332
быва	7333
орви	7334
виц	7335
твую	7336
оскол	7337
сион	7338
ужн	7339
вании	7340
венир	7341
comm	7342
вднх	7343
вэба	7344
gt	7345
je	7346
wel	7347
гэс	7348
дым	7349
йон	7350
хра	7351
хин	7352
юар	7353
##фл	7354
##пс	7355
##do	7356
зада	7357
заве	7358
тари	7359
анжев	7360
робн	7361
окси	7362
азм	7363
азве	7364
плыв	7365
валк	7366
ницк	7367
мощи	7368
ержал	7369
ксус	7370
нтам	7371
шинев	7372
рудов	7373
ica	7374
grap	7375
bler	7376
mart	7377
польз	7378
ment	7379
тируе	7380
нвес	7381
skoda	7382
htt	7383
ke	7384
sy	7385
wat	7386
way	7387
звол	7388
йр	7389
лент	7390
лят	7391
нян	7392
олаг	7393
оун	7394
##ws	7395
##ff	7396
ови	7397
нест	7398
олч	7399
ерес	7400
етве	7401
ахо	7402
теш	7403
полня	7404
акал	7405
убли	7406
иско	7407
егк	7408
икат	7409
ind	7410
inde	7411
лавн	7412
poke	7413
капит	7414
одкб	7415
del	7416
fe	7417
fon	7418
hon	7419
hold	7420
lla	7421
mc	7422
sc	7423
мр	7424
рэ	7425
уко	7426
усь	7427
хт	7428
чном	7429
##мар	7430
##бт	7431
коб	7432
изер	7433
тами	7434
ерсо	7435
роек	7436
ирь	7437
госп	7438
вай	7439
корин	7440
ниях	7441
ратит	7442
узн	7443
ариат	7444
лексе	7445
чья	7446
erfa	7447
ержи	7448
##ine	7449
сложн	7450
зинь	7451
чейк	7452
graph	7453
erfax	7454
by	7455
bar	7456
der	7457
gl	7458
ka	7459
аво	7460
рла	7461
юг	7462
##вен	7463
пой	7464
енген	7465
оти	7466
анха	7467
ыход	7468
амил	7469
ляп	7470
ектив	7471
казы	7472
абу	7473
равит	7474
порти	7475
ффан	7476
##ana	7477
оуи	7478
ste	7479
елями	7480
бота	7481
энд	7482
вижен	7483
trans	7484
open	7485
кпп	7486
ev	7487
sco	7488
итом	7489
луг	7490
нными	7491
рга	7492
сло	7493
уиз	7494
фре	7495
хх	7496
шот	7497
##мк	7498
стные	7499
обод	7500
инер	7501
арите	7502
одж	7503
одче	7504
одных	7505
дай	7506
люк	7507
веш	7508
седат	7509
ндфл	7510
lexus	7511
ренер	7512
улк	7513
качес	7514
епе	7515
антин	7516
попул	7517
зовы	7518
amer	7519
sony	7520
nord	7521
black	7522
are	7523
gen	7524
oo	7525
s7	7526
tch	7527
иод	7528
кле	7529
оот	7530
рст	7531
##хт	7532
##mp	7533
овр	7534
онни	7535
онья	7536
ерен	7537
огин	7538
ятк	7539
возд	7540
рядк	7541
тенк	7542
ентар	7543
армон	7544
ишин	7545
оук	7546
comp	7547
rov	7548
мокр	7549
sky	7550
усада	7551
бахче	7552
инопт	7553
http	7554
87	7555
bro	7556
ep	7557
ter	7558
аин	7559
лют	7560
лман	7561
мут	7562
мрот	7563
ольк	7564
тез	7565
тэс	7566
уин	7567
ьва	7568
##фср	7569
##ьян	7570
##зо	7571
##уз	7572
##sa	7573
лии	7574
арю	7575
опл	7576
озн	7577
едро	7578
гласн	7579
ведя	7580
айя	7581
охин	7582
чении	7583
логии	7584
ауз	7585
ержа	7586
реля	7587
рети	7588
онок	7589
ефть	7590
china	7591
рсфср	7592
вуз	7593
вфла	7594
scien	7595
89	7596
ct	7597
ie	7598
ve	7599
рр	7600
##ai	7601
##go	7602
отин	7603
анч	7604
орп	7605
аля	7606
разм	7607
опат	7608
предс	7609
подн	7610
вада	7611
менее	7612
айор	7613
виду	7614
корм	7615
умб	7616
ража	7617
давш	7618
ффе	7619
варен	7620
##ore	7621
уация	7622
трате	7623
ержат	7624
arch	7625
off	7626
фскн	7627
ness	7628
аус	7629
зри	7630
нси	7631
тед	7632
тую	7633
тени	7634
хам	7635
шения	7636
щил	7637
##рн	7638
##пы	7639
нома	7640
нико	7641
либр	7642
ейз	7643
ейдж	7644
одд	7645
авить	7646
едр	7647
ирова	7648
ложк	7649
ороп	7650
ипт	7651
##one	7652
ерево	7653
ават	7654
cont	7655
220	7656
sty	7657
нкер	7658
ургут	7659
аижк	7660
ыры	7661
art	7662
bent	7663
media	7664
йзен	7665
min	7666
mir	7667
евик	7668
зме	7669
рер	7670
цо	7671
шую	7672
ьная	7673
яже	7674
##вд	7675
##мы	7676
##зин	7677
овит	7678
оттен	7679
орос	7680
остал	7681
ристи	7682
имон	7683
льк	7684
амин	7685
спр	7686
маз	7687
сква	7688
пасн	7689
айзер	7690
апк	7691
родов	7692
трад	7693
тавл	7694
ирую	7695
унь	7696
ins	7697
125	7698
рецк	7699
инос	7700
live	7701
limi	7702
ural	7703
ci	7704
du	7705
kar	7706
morg	7707
ny	7708
sn	7709
ver	7710
вент	7711
женн	7712
мсп	7713
оутер	7714
тказ	7715
туп	7716
щиц	7717
##хов	7718
##бер	7719
##gi	7720
##эп	7721
иле	7722
олан	7723
ейф	7724
ейр	7725
аяв	7726
аве	7727
удн	7728
айон	7729
ровой	7730
оскв	7731
ису	7732
ютн	7733
танк	7734
андер	7735
аби	7736
ехим	7737
хаос	7738
мье	7739
ссо	7740
густ	7741
еским	7742
ешск	7743
ботн	7744
##ris	7745
вдв	7746
орода	7747
егап	7748
уберн	7749
отуш	7750
нтерф	7751
plus	7752
nasa	7753
.)	7754
ast	7755
vr	7756
ya	7757
абы	7758
ачин	7759
бб	7760
вного	7761
йф	7762
лга	7763
тц	7764
тител	7765
хит	7766
##фан	7767
##уш	7768
пои	7769
олни	7770
орр	7771
моч	7772
опил	7773
роко	7774
ламен	7775
аттер	7776
вагон	7777
ипк	7778
нули	7779
квар	7780
приня	7781
ini	7782
жении	7783
ауэр	7784
ержан	7785
етерб	7786
лежа	7787
занн	7788
итрин	7789
рчес	7790
sach	7791
нпз	7792
volvo	7793
##oody	7794
ferr	7795
вщи	7796
..	7797
act	7798
cle	7799
cro	7800
ele	7801
moody	7802
om	7803
кел	7804
кве	7805
пм	7806
тча	7807
ьг	7808
ьед	7809
##im	7810
##хе	7811
##йк	7812
##бк	7813
##20	7814
овд	7815
ове	7816
##ант	7817
моле	7818
ришл	7819
етев	7820
евы	7821
даль	7822
крик	7823
оген	7824
огов	7825
уман	7826
ссов	7827
узыр	7828
линк	7829
inve	7830
novo	7831
ибу	7832
maz	7833
ссион	7834
зинф	7835
time	7836
gem	7837
rio	7838
fran	7839
лмык	7840
учили	7841
ack	7842
eca	7843
ja	7844
jet	7845
ol	7846
жес	7847
рви	7848
сне	7849
шос	7850
ыто	7851
##фи	7852
##ды	7853
поэ	7854
посто	7855
енна	7856
алкон	7857
иху	7858
арва	7859
арны	7860
рир	7861
етар	7862
роят	7863
имк	7864
емно	7865
апо	7866
нимае	7867
езон	7868
оторо	7869
тков	7870
ежим	7871
190	7872
айдар	7873
ara	7874
sput	7875
ссию	7876
оцент	7877
хэм	7878
уфсб	7879
опуля	7880
sachs	7881
mazda	7882
dub	7883
eco	7884
met	7885
pre	7886
ron	7887
wind	7888
аком	7889
дител	7890
зго	7891
нпо	7892
рета	7893
уфа	7894
хни	7895
##ыш	7896
овно	7897
раин	7898
омар	7899
омир	7900
омой	7901
енил	7902
анат	7903
онце	7904
орьб	7905
алли	7906
##ейл	7907
рох	7908
роц	7909
одный	7910
посл	7911
озе	7912
новы	7913
удущ	7914
ошек	7915
офер	7916
ждан	7917
аемо	7918
умов	7919
ериф	7920
епар	7921
280	7922
eng	7923
вант	7924
char	7925
ологи	7926
mars	7927
фмс	7928
раине	7929
),	7930
).	7931
96	7932
ay	7933
bur	7934
mp	7935
ng	7936
os	7937
ore	7938
rad	7939
tar	7940
wer	7941
аче	7942
бв	7943
бтр	7944
гб	7945
гии	7946
иник	7947
кис	7948
сход	7949
ыбо	7950
ьки	7951
##жин	7952
##bs	7953
енка	7954
каин	7955
чтоб	7956
инц	7957
вооб	7958
##онд	7959
имер	7960
пасс	7961
айкон	7962
казат	7963
деля	7964
лови	7965
ледо	7966
наса	7967
егов	7968
альс	7969
ингв	7970
ьяху	7971
рков	7972
уаз	7973
улиан	7974
айдер	7975
круч	7976
sho	7977
petro	7978
cred	7979
indep	7980
urals	7981
97	7982
av	7983
out	7984
uar	7985
ze	7986
аут	7987
бп	7988
гд	7989
дг	7990
еул	7991
иша	7992
кну	7993
нью	7994
цю	7995
яй	7996
##ке	7997
##na	7998
##етк	7999
овник	8000
ноб	8001
кола	8002
кали	8003
анша	8004
олочк	8005
оран	8006
етти	8007
мех	8008
амон	8009
евет	8010
тье	8011
мыт	8012
алис	8013
уби	8014
убин	8015
игс	8016
сова	8017
ольно	8018
серг	8019
ышев	8020
ртс	8021
глон	8022
браз	8023
елит	8024
ионе	8025
рете	8026
230	8027
270	8028
ещер	8029
мэй	8030
улярн	8031
cent	8032
amaz	8033
ures	8034
busi	8035
ios	8036
...	8037
bu	8038
can	8039
gre	8040
gps	8041
lam	8042
nes	8043
tur	8044
гуп	8045
зли	8046
квы	8047
митр	8048
рная	8049
рение	8050
шни	8051
##юл	8052
##аш	8053
##шер	8054
##uge	8055
итм	8056
кай	8057
ните	8058
анно	8059
воль	8060
мость	8061
рие	8062
риво	8063
атс	8064
атт	8065
коме	8066
ирен	8067
скус	8068
айвер	8069
мера	8070
мерл	8071
сово	8072
rus	8073
ебаст	8074
тке	8075
авай	8076
чье	8077
240	8078
sti	8079
##use	8080
mod	8081
moss	8082
mac	8083
дении	8084
you	8085
имать	8086
gov	8087
poli	8088
bild	8089
ult	8090
лгбт	8091
aw	8092
cam	8093
pub	8094
sch	8095
uk	8096
va	8097
vers	8098
wa	8099
гбу	8100
икол	8101
оед	8102
урат	8103
##зы	8104
##day	8105
##эб	8106
овл	8107
зас	8108
обла	8109
нын	8110
##ром	8111
ану	8112
олуча	8113
вый	8114
листа	8115
##ейк	8116
атур	8117
мист	8118
спб	8119
спер	8120
теро	8121
терян	8122
горч	8123
урбан	8124
удан	8125
рамп	8126
inc	8127
no3	8128
венно	8129
ешн	8130
ефан	8131
chan	8132
ммент	8133
grand	8134
blue	8135
рчук	8136
link	8137
corp	8138
shell	8139
ейзаж	8140
ихуан	8141
уфас	8142
ble	8143
cra	8144
dr	8145
ey	8146
far	8147
gm	8148
g20	8149
ike	8150
jag	8151
pal	8152
ut	8153
сц	8154
тлич	8155
яние	8156
##дс	8157
##мон	8158
омич	8159
инст	8160
арб	8161
арник	8162
етни	8163
опла	8164
амет	8165
оган	8166
едп	8167
уты	8168
екер	8169
матич	8170
азс	8171
ктейл	8172
ипул	8173
ндер	8174
запа	8175
страц	8176
дана	8177
ртын	8178
апрет	8179
ушн	8180
анон	8181
еском	8182
111	8183
sto	8184
ali	8185
мфц	8186
fiat	8187
ссия	8188
ics	8189
тейш	8190
mana	8191
peuge	8192
ерант	8193
pho	8194
whats	8195
амвай	8196
fons	8197
honda	8198
ikea	8199
borg	8200
ral	8201
tte	8202
ue	8203
бик	8204
дед	8205
дим	8206
ещин	8207
жо	8208
кит	8209
ксим	8210
нур	8211
фом	8212
фсо	8213
эко	8214
##iz	8215
##джи	8216
##mo	8217
##qu	8218
рао	8219
анель	8220
сотр	8221
ейган	8222
ейман	8223
ейха	8224
никс	8225
мират	8226
окс	8227
окру	8228
мао	8229
кучн	8230
ивае	8231
##яза	8232
деть	8233
средн	8234
идо	8235
##ang	8236
мвт	8237
овски	8238
ener	8239
мпк	8240
today	8241
нении	8242
рпк	8243
егаис	8244
псж	8245
крыва	8246
cons	8247
rese	8248
6s	8249
bp	8250
ei	8251
ufc	8252
бмп	8253
зом	8254
иел	8255
квн	8256
мцк	8257
оезд	8258
сент	8259
уми	8260
штон	8261
##ij	8262
##to	8263
##фт	8264
##ван	8265
##вел	8266
##яж	8267
##зон	8268
##лы	8269
##пт	8270
##гк	8271
##бл	8272
тощ	8273
реи	8274
илк	8275
анал	8276
инейн	8277
алуб	8278
мев	8279
меял	8280
ленд	8281
лью	8282
слан	8283
сех	8284
окур	8285
адж	8286
ску	8287
краш	8288
убк	8289
агад	8290
ожь	8291
окож	8292
жду	8293
ехт	8294
итаю	8295
ебно	8296
нских	8297
бращ	8298
no2	8299
##ate	8300
зрен	8301
хмат	8302
360	8303
атыш	8304
lop	8305
750	8306
ешкин	8307
рдаш	8308
олыж	8309
черкн	8310
вищу	8311
вейер	8312
ant	8313
ga	8314
har	8315
ki	8316
ll	8317
non	8318
oil	8319
бэ	8320
дек	8321
еиз	8322
згл	8323
иам	8324
иним	8325
кын	8326
рсп	8327
тку	8328
хма	8329
юль	8330
юще	8331
##йт	8332
пола	8333
итва	8334
омос	8335
анж	8336
анун	8337
инат	8338
воем	8339
ейг	8340
рушен	8341
деб	8342
ирс	8343
окт	8344
огат	8345
роват	8346
ицце	8347
тана	8348
ечени	8349
ормил	8350
ажир	8351
ранит	8352
жижен	8353
ьявол	8354
115	8355
квт	8356
stand	8357
##ith	8358
мбер	8359
ораб	8360
эроп	8361
enter	8362
осик	8363
чало	8364
part	8365
sms	8366
ebit	8367
фнл	8368
дымл	8369
elect	8370
cal	8371
dri	8372
est	8373
mast	8374
rns	8375
бь	8376
ванс	8377
лжи	8378
рян	8379
рмен	8380
шм	8381
юэ	8382
##йл	8383
##kh	8384
##топ	8385
енин	8386
дож	8387
аннер	8388
##кар	8389
воля	8390
ерлин	8391
одан	8392
льман	8393
атан	8394
авно	8395
авит	8396
урил	8397
игов	8398
напо	8399
фак	8400
офз	8401
идд	8402
ичи	8403
осье	8404
##ero	8405
##ond	8406
##ong	8407
ченк	8408
астин	8409
иоск	8410
ухан	8411
рбент	8412
ампер	8413
мощь	8414
ргин	8415
stm	8416
238	8417
зиаст	8418
втун	8419
еркут	8420
аудер	8421
лема	8422
анско	8423
ipo	8424
одах	8425
уэн	8426
иксут	8427
крут	8428
sec	8429
пкр	8430
##ype	8431
айлд	8432
solar	8433
music	8434
mini	8435
етний	8436
ющего	8437
ah	8438
ain	8439
fal	8440
hd	8441
mal	8442
sse	8443
tre	8444
up	8445
wood	8446
вный	8447
гит	8448
ециа	8449
ишен	8450
пб	8451
пно	8452
сви	8453
сыр	8454
хта	8455
ысяч	8456
эш	8457
##юш	8458
стям	8459
код	8460
ког	8461
ниу	8462
анан	8463
орил	8464
алым	8465
аргин	8466
одско	8467
деят	8468
амя	8469
евно	8470
дах	8471
бою	8472
икенд	8473
скре	8474
урен	8475
акси	8476
удут	8477
азет	8478
идн	8479
валер	8480
жинир	8481
стиг	8482
иток	8483
чили	8484
афор	8485
ордон	8486
##ata	8487
225	8488
аузер	8489
оули	8490
бите	8491
##uth	8492
зино	8493
увз	8494
lix	8495
оэср	8496
арлам	8497
рюк	8498
house	8499
бова	8500
сател	8501
class	8502
тэц	8503
gener	8504
zeit	8505
model	8506
az	8507
oc	8508
ows	8509
swi	8510
um	8511
wba	8512
дка	8513
йва	8514
линг	8515
мра	8516
ппи	8517
пящ	8518
рени	8519
рения	8520
суп	8521
фсс	8522
ьем	8523
юга	8524
##ях	8525
##лет	8526
##чек	8527
##nc	8528
##wn	8529
нез	8530
рами	8531
омни	8532
анз	8533
анны	8534
анец	8535
онь	8536
вом	8537
лика	8538
арес	8539
##ари	8540
анит	8541
льта	8542
тиз	8543
даю	8544
урис	8545
акто	8546
акти	8547
очвы	8548
дию	8549
апин	8550
велоп	8551
устер	8552
иды	8553
ипенд	8554
ольер	8555
елоч	8556
ебл	8557
брати	8558
роны	8559
ангел	8560
##ink	8561
аска	8562
аскир	8563
оид	8564
max	8565
беди	8566
номич	8567
amne	8568
эйл	8569
ents	8570
exx	8571
netf	8572
ibu	8573
ейлор	8574
гпу	8575
енчур	8576
хмад	8577
свид	8578
bas	8579
ds	8580
gam	8581
gel	8582
lg	8583
ps	8584
sen	8585
uri	8586
ura	8587
wal	8588
wta	8589
бд	8590
дри	8591
еем	8592
ктр	8593
лрос	8594
муп	8595
фти	8596
фано	8597
##юс	8598
##хуа	8599
##вет	8600
##rys	8601
##cus	8602
##ni	8603
пото	8604
неде	8605
омы	8606
омов	8607
енни	8608
нили	8609
енить	8610
ойт	8611
тае	8612
анде	8613
ладе	8614
##нач	8615
слен	8616
перег	8617
##ечк	8618
ранх	8619
кук	8620
алик	8621
айда	8622
естер	8623
игер	8624
овыш	8625
усло	8626
турн	8627
укс	8628
ожни	8629
азнач	8630
имир	8631
егет	8632
йдар	8633
брас	8634
ina	8635
виней	8636
аща	8637
нгар	8638
антел	8639
руков	8640
ухон	8641
ъявл	8642
яжел	8643
175	8644
оуми	8645
stone	8646
##ute	8647
оркут	8648
дилер	8649
вател	8650
roen	8651
top	8652
def	8653
абота	8654
lock	8655
злов	8656
340	8657
махер	8658
650	8659
тсж	8660
бъяв	8661
онфе	8662
back	8663
city	8664
roll	8665
rolls	8666
royce	8667
шельк	8668
free	8669
watch	8670
анхай	8671
falc	8672
abc	8673
bn	8674
bal	8675
cy	8676
mh	8677
uki	8678
бяза	8679
епи	8680
зет	8681
йч	8682
ллин	8683
лэп	8684
мми	8685
мман	8686
нба	8687
усн	8688
шар	8689
ыц	8690
##тк	8691
##pi	8692
##pp	8693
##pe	8694
##шир	8695
##шев	8696
##цп	8697
##uis	8698
##пе	8699
##om	8700
##чик	8701
##ga	8702
сту	8703
##льц	8704
отник	8705
ойс	8706
тах	8707
анган	8708
вост	8709
аним	8710
##лом	8711
ичев	8712
евес	8713
ирджи	8714
сталь	8715
утч	8716
удин	8717
убе	8718
игал	8719
игул	8720
апан	8721
мура	8722
тавля	8723
ключи	8724
уллит	8725
ческу	8726
гуэб	8727
ишеч	8728
ert	8729
##rom	8730
аркер	8731
str	8732
any	8733
ima	8734
зря	8735
очев	8736
tel	8737
ванш	8738
дате	8739
chrys	8740
бром	8741
south	8742
иэл	8743
frank	8744
вопро	8745
ааг	8746
лроса	8747
(!	8748
--	8749
dan	8750
fut	8751
g7	8752
ht	8753
mag	8754
sat	8755
блик	8756
дже	8757
дыв	8758
мни	8759
рро	8760
уска	8761
фбк	8762
хк	8763
чих	8764
##ас	8765
##йв	8766
##цер	8767
##di	8768
нож	8769
зат	8770
лий	8771
ория	8772
арет	8773
етто	8774
опп	8775
ропо	8776
рошл	8777
одом	8778
сеан	8779
вержд	8780
урбин	8781
кун	8782
ализа	8783
значе	8784
идан	8785
елок	8786
малч	8787
inf	8788
бласт	8789
уани	8790
иши	8791
клин	8792
тайс	8793
ища	8794
nex	8795
stat	8796
ana	8797
##iti	8798
огаз	8799
lie	8800
атино	8801
вичус	8802
icij	8803
фирм	8804
focus	8805
smart	8806
ишкек	8807
club	8808
яске	8809
мрск	8810
рспп	8811
drive	8812
шмент	8813
(!)	8814
ea	8815
fash	8816
loo	8817
lli	8818
nbc	8819
ple	8820
pat	8821
ran	8822
ria	8823
sun	8824
бонд	8825
гут	8826
еко	8827
зел	8828
зыр	8829
нста	8830
оул	8831
оша	8832
укол	8833
ыра	8834
ыне	8835
ьор	8836
##фар	8837
##av	8838
##ьк	8839
итин	8840
обан	8841
омст	8842
оттер	8843
ойз	8844
илон	8845
анен	8846
олын	8847
иня	8848
ерца	8849
ейб	8850
алочк	8851
опч	8852
лье	8853
еман	8854
озво	8855
ирзи	8856
окб	8857
лям	8858
утнев	8859
урт	8860
алид	8861
алил	8862
ловн	8863
смс	8864
игл	8865
янн	8866
корп	8867
езе	8868
ндес	8869
вкп	8870
шелон	8871
coц	8872
ульс	8873
135	8874
боты	8875
alp	8876
ald	8877
##ili	8878
лтар	8879
spe	8880
box	8881
fort	8882
tail	8883
ipad	8884
еснок	8885
омас	8886
wei	8887
тство	8888
иньк	8889
citi	8890
trav	8891
xvii	8892
уфсин	8893
royal	8894
улкан	8895
оньяк	8896
borgh	8897
bb	8898
bull	8899
card	8900
ee	8901
ess	8902
gn	8903
iy	8904
sber	8905
tti	8906
vest	8907
will	8908
вель	8909
вные	8910
кмен	8911
лтон	8912
тни	8913
тдел	8914
цср	8915
чиц	8916
##tv	8917
##ux	8918
##чп	8919
##sh	8920
страт	8921
коны	8922
неяд	8923
обат	8924
кав	8925
воя	8926
воща	8927
ермен	8928
ордан	8929
ейма	8930
##рут	8931
##дак	8932
аян	8933
ахта	8934
стри	8935
ирт	8936
редь	8937
паде	8938
номы	8939
ельфе	8940
асан	8941
азур	8942
олжн	8943
сказы	8944
отора	8945
егис	8946
ниями	8947
ингер	8948
ьяк	8949
ентск	8950
варц	8951
ery	8952
ежец	8953
210	8954
##adi	8955
утик	8956
лавно	8957
ылды	8958
ican	8959
ity	8960
deve	8961
уэль	8962
amg	8963
ande	8964
beat	8965
sui	8966
фари	8967
лифат	8968
ньюс	8969
nono	8970
ak	8971
age	8972
aust	8973
bri	8974
dol	8975
eo	8976
flo	8977
nter	8978
ners	8979
oi	8980
pic	8981
rs	8982
аста	8983
зма	8984
лб	8985
мги	8986
ммер	8987
рвы	8988
сре	8989
фю	8990
ьхуа	8991
эс	8992
##hn	8993
##фер	8994
##лер	8995
##ly	8996
##жо	8997
##unt	8998
##ms	8999
##ko	9000
наг	9001
##лив	9002
итяз	9003
енг	9004
каян	9005
инья	9006
арф	9007
арил	9008
рун	9009
риум	9010
механ	9011
осы	9012
осин	9013
подт	9014
подо	9015
аввин	9016
ивных	9017
майд	9018
адон	9019
едш	9020
уран	9021
акк	9022
люм	9023
ельф	9024
елья	9025
ельц	9026
мети	9027
меть	9028
ловк	9029
дун	9030
гать	9031
азил	9032
офо	9033
офон	9034
алак	9035
ичны	9036
баш	9037
унз	9038
акир	9039
рту	9040
ссанс	9041
ветск	9042
угун	9043
ичнев	9044
асту	9045
ишнев	9046
145	9047
ибер	9048
ищет	9049
орист	9050
ятия	9051
рису	9052
нерц	9053
елег	9054
tou	9055
lic	9056
нке	9057
day	9058
эйн	9059
ыжи	9060
bear	9061
нспк	9062
рсбу	9063
вух	9064
web	9065
pari	9066
suz	9067
bile	9068
льфин	9069
янао	9070
фнб	9071
оксич	9072
фюмер	9073
3d	9074
hel	9075
ix	9076
ium	9077
mas	9078
nc	9079
vw	9080
бад	9081
вчин	9082
мд	9083
нщин	9084
сх	9085
уче	9086
шер	9087
юст	9088
юшк	9089
##per	9090
##лык	9091
##пу	9092
##zz	9093
набу	9094
прел	9095
овид	9096
стел	9097
обзон	9098
прок	9099
доз	9100
рече	9101
олоч	9102
выр	9103
воей	9104
ерш	9105
##тик	9106
арг	9107
риу	9108
етч	9109
опг	9110
роче	9111
##рус	9112
есчан	9113
икер	9114
ранц	9115
илин	9116
убн	9117
напа	9118
матр	9119
чех	9120
окой	9121
бун	9122
алач	9123
грэс	9124
егин	9125
теныш	9126
качк	9127
епет	9128
155	9129
узи	9130
##епт	9131
тпп	9132
nolo	9133
йнен	9134
222	9135
гарт	9136
рггу	9137
sta	9138
ердж	9139
рдер	9140
нья	9141
шкент	9142
лтын	9143
tom	9144
tour	9145
teka	9146
драйв	9147
тнт	9148
колот	9149
320	9150
bio	9151
xviii	9152
hua	9153
yah	9154
cross	9155
келет	9156
vesta	9157
>>	9158
gh	9159
gar	9160
ir	9161
kal	9162
pd	9163
que	9164
san	9165
tt	9166
tw	9167
val	9168
wbc	9169
west	9170
x5	9171
аос	9172
вейн	9173
вбек	9174
гэ	9175
динг	9176
ебр	9177
исим	9178
йся	9179
йвар	9180
кф	9181
нинг	9182
оек	9183
хром	9184
##ak	9185
##жан	9186
##ze	9187
##эл	9188
обчак	9189
отка	9190
олок	9191
инев	9192
ерц	9193
аллин	9194
опал	9195
##лев	9196
атла	9197
еван	9198
тиск	9199
вио	9200
крин	9201
лями	9202
огут	9203
едер	9204
сун	9205
икин	9206
куст	9207
игес	9208
елто	9209
упп	9210
укьян	9211
агин	9212
мус	9213
нтро	9214
ечт	9215
ечту	9216
буш	9217
еннос	9218
ываю	9219
ьюс	9220
енок	9221
ндпи	9222
ингл	9223
109	9224
108	9225
ински	9226
течен	9227
count	9228
еско	9229
шает	9230
мидов	9231
лечен	9232
stan	9233
store	9234
мпл	9235
ураб	9236
спид	9237
мэа	9238
мнени	9239
mob	9240
ирог	9241
ораз	9242
spie	9243
##ide	9244
log	9245
арон	9246
john	9247
sim	9248
fli	9249
pare	9250
head	9251
осова	9252
ways	9253
craft	9254
next	9255
люмж	9256
spieg	9257
cus	9258
cbs	9259
dy	9260
mor	9261
ov	9262
sub	9263
дит	9264
драв	9265
еган	9266
жного	9267
иит	9268
лс	9269
лже	9270
мна	9271
ося	9272
пь	9273
тгк	9274
хэт	9275
щал	9276
этр	9277
##мет	9278
##нет	9279
##ыз	9280
несс	9281
каф	9282
выда	9283
етт	9284
етхо	9285
опы	9286
опин	9287
##ейд	9288
одя	9289
##дай	9290
скони	9291
ахим	9292
ахман	9293
ивл	9294
мида	9295
ирка	9296
дак	9297
утил	9298
скер	9299
вах	9300
канер	9301
тык	9302
томо	9303
усел	9304
пун	9305
##ицк	9306
диум	9307
асе	9308
борь	9309
азд	9310
муш	9311
марин	9312
абин	9313
кеан	9314
ормов	9315
оказы	9316
ринью	9317
илош	9318
елин	9319
артн	9320
ушек	9321
ферт	9322
питан	9323
дьей	9324
reg	9325
лант	9326
ргун	9327
stud	9328
жали	9329
архат	9330
нкр	9331
оложе	9332
снбо	9333
ытк	9334
ряк	9335
intel	9336
танин	9337
ury	9338
usb	9339
ntal	9340
аулу	9341
track	9342
bell	9343
мгимо	9344
//	9345
bf	9346
bay	9347
dc	9348
ju	9349
lay	9350
num	9351
xr	9352
атон	9353
бру	9354
бкс	9355
гем	9356
иол	9357
кен	9358
нтом	9359
оус	9360
тво	9361
урав	9362
фцп	9363
шав	9364
щу	9365
ьон	9366
ьей	9367
##дин	9368
##мур	9369
##шан	9370
##ште	9371
##бар	9372
##wc	9373
##щев	9374
ену	9375
##лаш	9376
ниф	9377
ниел	9378
изтоп	9379
анна	9380
триц	9381
арфор	9382
етян	9383
анин	9384
имлян	9385
лай	9386
сян	9387
тила	9388
верс	9389
скфо	9390
удил	9391
кушер	9392
убов	9393
лест	9394
##еньк	9395
туры	9396
апри	9397
окот	9398
свр	9399
мум	9400
скадр	9401
ипрас	9402
трибу	9403
107	9404
106	9405
ртен	9406
нским	9407
днев	9408
еску	9409
женк	9410
ослу	9411
уха	9412
136	9413
афос	9414
луче	9415
260	9416
тюр	9417
есса	9418
лонг	9419
rock	9420
мпшир	9421
ллер	9422
мфи	9423
елюст	9424
ычк	9425
некдо	9426
tic	9427
chris	9428
энк	9429
gran	9430
rack	9431
нилс	9432
урист	9433
mics	9434
акуум	9435
ards	9436
lux	9437
luft	9438
scow	9439
йфон	9440
иамин	9441
xray	9442
шавин	9443
avi	9444
dre	9445
ier	9446
jp	9447
king	9448
nd	9449
ori	9450
ric	9451
v6	9452
wr	9453
аит	9454
аис	9455
бм	9456
гнес	9457
дше	9458
еер	9459
еша	9460
жжен	9461
лго	9462
нсн	9463
оак	9464
огие	9465
оизо	9466
тес	9467
фур	9468
фут	9469
хен	9470
ыге	9471
ьвин	9472
##хат	9473
##аф	9474
##шу	9475
##чив	9476
##gh	9477
##нит	9478
немен	9479
итч	9480
##нол	9481
нив	9482
ойште	9483
иллаш	9484
анго	9485
сочек	9486
онса	9487
орж	9488
ейми	9489
опс	9490
опит	9491
опон	9492
одв	9493
##лоч	9494
егор	9495
ахом	9496
амит	9497
евит	9498
миф	9499
едник	9500
удни	9501
айф	9502
айна	9503
возн	9504
мери	9505
рово	9506
онин	9507
веко	9508
тыре	9509
упл	9510
уппы	9511
ицил	9512
агил	9513
асмур	9514
ошмар	9515
джей	9516
##боу	9517
бак	9518
байт	9519
пиро	9520
лицк	9521
хаот	9522
хаус	9523
сенин	9524
158	9525
варк	9526
ежен	9527
мурт	9528
олице	9529
еракт	9530
дтер	9531
попр	9532
146	9533
мидт	9534
мойк	9535
ауза	9536
ощад	9537
орию	9538
оум	9539
286	9540
улис	9541
##ild	9542
зид	9543
зрк	9544
симо	9545
##apt	9546
аски	9547
нквд	9548
ырг	9549
рожа	9550
vii	9551
visa	9552
анье	9553
колол	9554
хмуд	9555
550	9556
trade	9557
usa	9558
xiv	9559
кпсс	9560
уски	9561
нному	9562
орчен	9563
ртии	9564
jeep	9565
анчж	9566
новые	9567
аджид	9568
ade	9569
call	9570
hyp	9571
sw	9572
tan	9573
ye	9574
боб	9575
дят	9576
лбан	9577
ольн	9578
оше	9579
пни	9580
шить	9581
щер	9582
югу	9583
яп	9584
##юм	9585
##юн	9586
##хр	9587
##ьи	9588
##je	9589
##be	9590
стно	9591
проте	9592
тои	9593
таш	9594
анб	9595
орчак	9596
ейник	9597
алан	9598
ихин	9599
арни	9600
арка	9601
опот	9602
опре	9603
опок	9604
одок	9605
подп	9606
имб	9607
евк	9608
миаш	9609
вии	9610
мади	9611
утер	9612
ургон	9613
уды	9614
убик	9615
метан	9616
укер	9617
уклин	9618
##няк	9619
иццы	9620
асин	9621
азен	9622
рфпи	9623
еньг	9624
rut	9625
ипо	9626
унья	9627
запр	9628
led	9629
ифф	9630
сср	9631
156	9632
ребл	9633
122	9634
ухи	9635
189	9636
165	9637
224	9638
инай	9639
ешил	9640
285	9641
рьян	9642
зрев	9643
увд	9644
мпа	9645
spi	9646
цех	9647
daim	9648
vie	9649
nis	9650
shar	9651
##ump	9652
skype	9653
gear	9654
found	9655
уцер	9656
work	9657
flash	9658
heb	9659
андаш	9660
ольфс	9661
оджер	9662
рство	9663
epa	9664
dubai	9665
uefa	9666
swift	9667
hyper	9668
ae	9669
ale	9670
eas	9671
gol	9672
hal	9673
hol	9674
hur	9675
hum	9676
iat	9677
ien	9678
pmi	9679
pana	9680
sor	9681
tm	9682
tage	9683
uro	9684
with	9685
вав	9686
дру	9687
еви	9688
ельк	9689
еян	9690
жки	9691
жев	9692
зс	9693
зев	9694
звы	9695
мбр	9696
моро	9697
оуч	9698
рче	9699
убр	9700
фрон	9701
чон	9702
чну	9703
эра	9704
ювет	9705
яшк	9706
##th	9707
##фал	9708
##кк	9709
##lar	9710
##em	9711
##ok	9712
##no	9713
##bi	9714
изон	9715
толь	9716
доел	9717
таю	9718
анном	9719
анад	9720
лифа	9721
ерил	9722
ерти	9723
ерне	9724
остер	9725
##елье	9726
еймер	9727
ейнол	9728
алдай	9729
ихов	9730
ияд	9731
роше	9732
имра	9733
имми	9734
амоч	9735
авк	9736
авер	9737
ивье	9738
ирги	9739
тью	9740
икк	9741
урин	9742
паш	9743
васт	9744
илик	9745
##быш	9746
ельг	9747
ельер	9748
расхо	9749
несот	9750
усев	9751
дич	9752
асска	9753
азут	9754
плек	9755
алал	9756
ипен	9757
ехман	9758
башк	9759
лати	9760
серт	9761
ренг	9762
авиат	9763
етыр	9764
ерар	9765
cola	9766
coca	9767
чишк	9768
ески	9769
илья	9770
ильяр	9771
112	9772
116	9773
аток	9774
reut	9775
удак	9776
афк	9777
инае	9778
ампа	9779
рагуа	9780
282	9781
ексе	9782
alt	9783
дероб	9784
лавл	9785
лавин	9786
ключа	9787
кспо	9788
аско	9789
иант	9790
tig	9791
щили	9792
энь	9793
сюк	9794
glenc	9795
авкат	9796
nike	9797
рмар	9798
orat	9799
rav	9800
##rai	9801
atla	9802
420	9803
380	9804
есян	9805
дюс	9806
еймар	9807
hunt	9808
арехо	9809
ндак	9810
олчок	9811
mclar	9812
ичиг	9813
нтрол	9814
dream	9815
hebdo	9816
ger	9817
gul	9818
gaz	9819
hil	9820
lle	9821
nan	9822
rp	9823
sal	9824
ssj	9825
tap	9826
xia	9827
бод	9828
бул	9829
гс	9830
дыр	9831
зих	9832
иок	9833
фри	9834
хет	9835
хдс	9836
цум	9837
чуг	9838
ьш	9839
юхин	9840
яжет	9841
якс	9842
##дк	9843
##дт	9844
##рик	9845
##иш	9846
##ьо	9847
##нь	9848
##uc	9849
##пп	9850
##пч	9851
##пов	9852
##бе	9853
пры	9854
овс	9855
овцы	9856
итрус	9857
отро	9858
отил	9859
проек	9860
доль	9861
оньер	9862
лио	9863
ерви	9864
алон	9865
ардан	9866
разл	9867
поди	9868
имин	9869
емени	9870
ивен	9871
ивел	9872
озла	9873
озре	9874
спо	9875
иран	9876
стов	9877
икка	9878
урд	9879
екен	9880
убже	9881
игин	9882
игур	9883
апит	9884
агит	9885
агмат	9886
борд	9887
азар	9888
чег	9889
абич	9890
иджи	9891
скад	9892
еху	9893
петян	9894
ышк	9895
102	9896
поры	9897
154	9898
угин	9899
цао	9900
not	9901
nok	9902
гуз	9903
coll	9904
тинкт	9905
ишек	9906
ионн	9907
аряг	9908
132	9909
133	9910
луи	9911
ощи	9912
172	9913
оух	9914
дова	9915
ймон	9916
втан	9917
урак	9918
стойн	9919
ттп	9920
moto	9921
aru	9922
вност	9923
ерлан	9924
ices	9925
ety	9926
poor	9927
уэл	9928
уэли	9929
love	9930
екист	9931
that	9932
die	9933
print	9934
prise	9935
prime	9936
ibf	9937
кбар	9938
barc	9939
анхае	9940
cib	9941
burg	9942
аутин	9943
бпп	9944
йваз	9945
усну	9946
ыргыз	9947
.:	9948
au	9949
bit	9950
bra	9951
data	9952
full	9953
iam	9954
jaz	9955
md	9956
pass	9957
rf	9958
sis	9959
was	9960
xv	9961
вуд	9962
дэн	9963
екол	9964
еэс	9965
зим	9966
ибр	9967
куч	9968
мрт	9969
мку	9970
нго	9971
нтор	9972
оан	9973
рыт	9974
сик	9975
сбр	9976
тент	9977
тить	9978
умер	9979
фхр	9980
хал	9981
ыно	9982
юш	9983
юфо	9984
##ha	9985
##фр	9986
##рб	9987
##po	9988
##pn	9989
##гал	9990
нае	9991
наро	9992
##ток	9993
##нис	9994
стс	9995
##лис	9996
илен	9997
илмы	9998
олб	9999
