<unk>	0
<s>	0
</s>	0
▁п	-0
ст	-1
▁в	-2
▁с	-3
ен	-4
ов	-5
ра	-6
▁н	-7
▁о	-8
то	-9
но	-10
ре	-11
ко	-12
▁и	-13
ро	-14
го	-15
ли	-16
▁по	-17
ан	-18
ет	-19
▁д	-20
ль	-21
ри	-22
▁на	-23
ны	-24
ка	-25
▁м	-26
те	-27
ла	-28
за	-29
ни	-30
ер	-31
▁б	-32
та	-33
ени	-34
ки	-35
ле	-36
на	-37
ть	-38
▁ч	-39
да	-40
ло	-41
ти	-42
▁у	-43
ва	-44
▁не	-45
ся	-46
ци	-47
▁ко	-48
▁за	-49
ми	-50
▁"	-51
ру	-52
ди	-53
во	-54
ви	-55
сс	-56
▁со	-57
▁про	-58
▁ра	-59
ем	-60
▁а	-61
ани	-62
▁В	-63
▁С	-64
▁э	-65
ля	-66
▁-	-67
▁П	-68
де	-69
ров	-70
▁к	-71
ско	-72
сти	-73
ста	-74
▁го	-75
▁от	-76
▁до	-77
▁об	-78
▁что	-79
не	-80
по	-81
мо	-82
▁г	-83
▁при	-84
▁Р	-85
▁пре	-86
ры	-87
▁К	-88
ей	-89
ду	-90
▁во	-91
ча	-92
че	-93
чи	-94
▁М	-95
сто	-96
бо	-97
ма	-98
ски	-99
же	-100
▁ре	-101
▁вы	-102
ения	-103
ной	-104
▁т	-105
▁е	-106
тель	-107
ве	-108
ных	-109
хо	-110
▁Н	-111
▁то	-112
сси	-113
▁из	-114
ку	-115
ово	-116
до	-117
сь	-118
ного	-119
▁2	-120
се	-121
лу	-122
▁бы	-123
▁ка	-124
жи	-125
ме	-126
ши	-127
ова	-128
▁О	-129
ги	-130
ств	-131
▁это	-132
щи	-133
▁А	-134
ну	-135
▁мо	-136
▁ф	-137
▁1	-138
зи	-139
об	-140
мен	-141
ют	-142
ере	-143
ение	-144
ции	-145
па	-146
ные	-147
▁те	-148
ный	-149
си	-150
▁Т	-151
сть	-152
му	-153
ту	-154
пи	-155
▁ст	-156
▁кото	-157
▁та	-158
▁Д	-159
ков	-160
▁По	-161
",	-162
га	-163
▁Ро	-164
ря	-165
▁под	-166
ты	-167
ше	-168
ще	-169
▁де	-170
▁бо	-171
ня	-172
ар	-173
▁И	-174
он	-175
ется	-176
▁з	-177
▁ме	-178
▁раз	-179
би	-180
лю	-181
са	-182
▁пред	-183
▁20	-184
▁Б	-185
пе	-186
▁(	-187
лов	-188
▁Г	-189
▁Росси	-190
лен	-191
ской	-192
тов	-193
ке	-194
▁ми	-195
ор	-196
жа	-197
▁ро	-198
це	-199
су	-200
ным	-201
ден	-202
ания	-203
▁пере	-204
ек	-205
вы	-206
ак	-207
▁ин	-208
ран	-209
ства	-210
▁бу	-211
лет	-212
сле	-213
".	-214
про	-215
пу	-216
ского	-217
спо	-218
ствен	-219
▁для	-220
ство	-221
▁ли	-222
бы	-223
ин	-224
▁ру	-225
▁ком	-226
▁ма	-227
каза	-228
▁ста	-229
▁все	-230
мы	-231
▁сво	-232
жно	-233
▁которы	-234
дет	-235
▁кон	-236
▁Е	-237
ды	-238
▁су	-239
▁са	-240
▁си	-241
ща	-242
▁На	-243
ез	-244
▁У	-245
▁я	-246
▁но	-247
▁201	-248
аль	-249
вер	-250
▁года	-251
ск	-252
▁пра	-253
ном	-254
▁так	-255
она	-256
▁как	-257
кра	-258
ться	-259
ур	-260
гра	-261
ная	-262
цен	-263
ана	-264
▁сооб	-265
ба	-266
лей	-267
▁ни	-268
▁России	-269
тив	-270
▁воз	-271
ное	-272
ности	-273
ска	-274
зы	-275
бе	-276
чен	-277
дер	-278
пра	-279
ских	-280
ении	-281
овы	-282
гу	-283
со	-284
▁Л	-285
тся	-286
лся	-287
▁его	-288
из	-289
сту	-290
жен	-291
фи	-292
▁ве	-293
▁се	-294
вля	-295
пре	-296
кс	-297
▁Ф	-298
ский	-299
рова	-300
▁хо	-301
нов	-302
▁сто	-303
ция	-304
дов	-305
дни	-306
ша	-307
▁он	-308
лько	-309
▁рабо	-310
рем	-311
▁дол	-312
▁стра	-313
ание	-314
ходи	-315
ющи	-316
ании	-317
стви	-318
▁З	-319
ети	-320
кой	-321
▁после	-322
ета	-323
мер	-324
лись	-325
рг	-326
▁Э	-327
яви	-328
▁жи	-329
ную	-330
ность	-331
зу	-332
ления	-333
стави	-334
▁этом	-335
ца	-336
ят	-337
▁Мо	-338
▁росси	-339
жд	-340
ром	-341
стан	-342
▁пер	-343
▁че	-344
▁комп	-345
▁да	-346
рии	-347
ев	-348
гда	-349
ха	-350
▁па	-351
тра	-352
▁полу	-353
▁3	-354
▁же	-355
лось	-356
жет	-357
▁пров	-358
ред	-359
стра	-360
▁будет	-361
▁ча	-362
гла	-363
вши	-364
при	-365
▁гла	-366
▁ви	-367
▁руб	-368
ком	-369
▁расс	-370
▁году	-371
зиден	-372
▁ос	-373
лы	-374
дин	-375
▁од	-376
том	-377
▁ш	-378
▁ав	-379
▁врем	-380
сли	-381
▁боль	-382
▁сов	-383
ению	-384
стоя	-385
рен	-386
▁поли	-387
▁также	-388
ву	-389
род	-390
ник	-391
дар	-392
ские	-393
руп	-394
пер	-395
вя	-396
тя	-397
▁Ч	-398
▁ди	-399
▁россий	-400
▁дру	-401
фор	-402
ству	-403
▁ак	-404
бли	-405
ень	-406
тер	-407
сов	-408
цию	-409
ений	-410
▁уже	-411
лее	-412
рой	-413
коно	-414
00	-415
▁мл	-416
▁лю	-417
лова	-418
тор	-419
лась	-420
вет	-421
▁слу	-422
ются	-423
▁орг	-424
▁был	-425
зна	-426
▁объ	-427
▁было	-428
бу	-429
▁уча	-430
▁челов	-431
став	-432
ласти	-433
три	-434
▁цен	-435
ес	-436
зыва	-437
▁Ко	-438
тиче	-439
ему	-440
ными	-441
▁время	-442
жду	-443
▁пар	-444
▁которые	-445
теля	-446
▁ты	-447
▁без	-448
▁Ка	-449
▁За	-450
прав	-451
гово	-452
▁обра	-453
сы	-454
▁президен	-455
пы	-456
кан	-457
лек	-458
▁их	-459
▁заяви	-460
ге	-461
ская	-462
ника	-463
телей	-464
рт	-465
▁произ	-466
▁нача	-467
стре	-468
вро	-469
▁дан	-470
цион	-471
▁том	-472
▁ва	-473
▁Во	-474
▁мы	-475
циаль	-476
▁гра	-477
кон	-478
ление	-479
▁Х	-480
чно	-481
▁чи	-482
▁гово	-483
ском	-484
ней	-485
▁авто	-486
ход	-487
▁4	-488
бря	-489
▁только	-490
ША	-491
▁тре	-492
▁Ми	-493
▁чем	-494
▁или	-495
рь	-496
▁5	-497
шен	-498
дом	-499
аз	-500
).	-501
▁само	-502
вать	-503
кры	-504
▁спо	-505
ене	-506
▁США	-507
▁еще	-508
год	-509
лан	-510
▁тер	-511
станов	-512
▁ус	-513
сте	-514
▁лет	-515
▁му	-516
▁того	-517
▁сообща	-518
▁Я	-519
тели	-520
ональ	-521
▁При	-522
▁может	-523
▁пу	-524
дут	-525
тре	-526
судар	-527
шения	-528
▁зна	-529
рта	-530
▁более	-531
ом	-532
нее	-533
▁слова	-534
цы	-535
▁фи	-536
тия	-537
казал	-538
шение	-539
▁чтобы	-540
зов	-541
▁пи	-542
▁Со	-543
▁сообщи	-544
▁Но	-545
▁были	-546
ников	-547
тро	-548
▁сле	-549
чита	-550
▁Моск	-551
▁рас	-552
▁который	-553
пол	-554
▁19	-555
▁органи	-556
▁Укра	-557
мети	-558
▁прави	-559
▁ле	-560
▁ее	-561
▁они	-562
▁Ма	-563
▁Как	-564
▁Ш	-565
▁ку	-566
),	-567
▁Са	-568
▁х	-569
реди	-570
лом	-571
нист	-572
▁говори	-573
кономи	-574
тельно	-575
▁РФ	-576
..	-577
лекс	-578
ково	-579
нима	-580
▁Ц	-581
ед	-582
ой	-583
тру	-584
▁испо	-585
логи	-586
стро	-587
▁Го	-588
▁вз	-589
▁государ	-590
▁отно	-591
▁Украи	-592
▁дей	-593
▁Си	-594
ску	-595
лож	-596
▁свя	-597
сла	-598
▁реги	-599
тин	-600
дера	-601
форма	-602
▁Об	-603
ением	-604
али	-605
ью	-606
льта	-607
стве	-608
▁помо	-609
ких	-610
стов	-611
▁эти	-612
анк	-613
▁между	-614
▁вопро	-615
▁им	-616
лли	-617
▁свои	-618
▁получи	-619
ним	-620
ступ	-621
ман	-622
ут	-623
жда	-624
▁заявил	-625
оне	-626
рд	-627
▁спе	-628
ники	-629
яв	-630
▁Ки	-631
▁представи	-632
держ	-633
▁Та	-634
▁исто	-635
ций	-636
пла	-637
емы	-638
▁есть	-639
▁6	-640
▁Это	-641
клю	-642
чет	-643
ане	-644
пас	-645
▁пол	-646
▁вер	-647
▁человек	-648
мери	-649
дей	-650
щен	-651
▁ры	-652
en	-653
▁этого	-654
яс	-655
годня	-656
час	-657
▁возмо	-658
er	-659
▁тех	-660
▁горо	-661
лади	-662
зд	-663
рован	-664
мента	-665
слу	-666
тора	-667
ейчас	-668
▁Ан	-669
трудни	-670
▁работа	-671
зульта	-672
льно	-673
▁Алекс	-674
▁счита	-675
▁ок	-676
▁результа	-677
цев	-678
ках	-679
▁словам	-680
пера	-681
▁Бо	-682
вест	-683
▁2016	-684
рий	-685
смо	-686
▁области	-687
шего	-688
▁отмети	-689
от	-690
овой	-691
▁други	-692
▁ки	-693
зова	-694
▁Влади	-695
чень	-696
публи	-697
▁экономи	-698
▁организа	-699
▁7	-700
▁экс	-701
ствия	-702
▁сторо	-703
едера	-704
нако	-705
▁соб	-706
тельства	-707
кла	-708
▁млн	-709
▁груп	-710
кие	-711
▁Пу	-712
▁2015	-713
дол	-714
тери	-715
ую	-716
аний	-717
▁кра	-718
вести	-719
▁чет	-720
▁ж	-721
ген	-722
▁мар	-723
цу	-724
▁дела	-725
▁обо	-726
вает	-727
вод	-728
▁сред	-729
▁она	-730
▁це	-731
гут	-732
лага	-733
▁проек	-734
ским	-735
мент	-736
чения	-737
▁если	-738
▁будут	-739
каз	-740
анд	-741
ставля	-742
▁переда	-743
▁была	-744
▁информа	-745
ложи	-746
▁Евро	-747
кого	-748
▁пе	-749
▁прош	-750
▁Се	-751
дела	-752
чение	-753
бор	-754
тому	-755
сты	-756
▁сотрудни	-757
▁приня	-758
хи	-759
туа	-760
дель	-761
▁когда	-762
▁Владими	-763
▁ту	-764
▁воен	-765
▁новы	-766
▁согла	-767
вой	-768
▁тем	-769
▁ба	-770
рия	-771
бира	-772
рабо	-773
рек	-774
▁рублей	-775
▁ад	-776
сно	-777
▁можно	-778
▁случа	-779
шей	-780
▁бе	-781
▁явля	-782
▁быть	-783
▁Не	-784
▁подо	-785
▁основ	-786
лови	-787
20	-788
нистра	-789
сков	-790
▁L	-791
бле	-792
▁Сер	-793
рав	-794
▁бан	-795
вали	-796
▁Ни	-797
▁очень	-798
▁Он	-799
▁неско	-800
▁где	-801
ит	-802
ряд	-803
рак	-804
▁которо	-805
▁день	-806
▁гражд	-807
вед	-808
▁дет	-809
▁страны	-810
▁разви	-811
▁стан	-812
рам	-813
чь	-814
▁млрд	-815
рти	-816
▁Так	-817
▁компании	-818
▁возможно	-819
ta	-820
казыва	-821
▁год	-822
рани	-823
▁Ва	-824
ремен	-825
▁8	-826
▁сист	-827
ровать	-828
▁ну	-829
меча	-830
нер	-831
мерикан	-832
фе	-833
▁суд	-834
ющих	-835
аны	-836
▁сообщает	-837
▁руково	-838
торы	-839
чер	-840
▁встре	-841
▁стро	-842
сса	-843
▁10	-844
твер	-845
рит	-846
▁Па	-847
ское	-848
▁рай	-849
▁S	-850
вал	-851
тере	-852
▁них	-853
народ	-854
▁ситуа	-855
▁долж	-856
▁пов	-857
ете	-858
нес	-859
пом	-860
▁коми	-861
ян	-862
рито	-863
инан	-864
ших	-865
щего	-866
▁оста	-867
ному	-868
▁вс	-869
вший	-870
грам	-871
▁тыся	-872
▁необ	-873
▁глав	-874
▁смо	-875
▁Ю	-876
ний	-877
▁жиз	-878
▁дву	-879
дели	-880
коло	-881
тии	-882
рук	-883
тай	-884
льного	-885
▁Ин	-886
щей	-887
▁уда	-888
стран	-889
ru	-890
жения	-891
води	-892
тельство	-893
▁два	-894
▁Ж	-895
▁прове	-896
ствова	-897
ять	-898
тен	-899
▁име	-900
▁Александ	-901
пута	-902
▁террито	-903
▁участ	-904
▁тыс	-905
▁милли	-906
▁сер	-907
моби	-908
▁нет	-909
▁против	-910
ового	-911
▁A	-912
чу	-913
▁пробле	-914
▁один	-915
on	-916
тября	-917
рово	-918
▁Ба	-919
▁даже	-920
бер	-921
▁продол	-922
▁исполь	-923
ях	-924
бя	-925
соб	-926
шь	-927
▁ю	-928
СС	-929
▁сказал	-930
▁право	-931
рая	-932
▁нас	-933
▁много	-934
прия	-935
▁данным	-936
луч	-937
нен	-938
▁неф	-939
ческой	-940
нии	-941
вели	-942
▁15	-943
▁Од	-944
▁могут	-945
жден	-946
▁Ку	-947
▁Ра	-948
ким	-949
лани	-950
него	-951
ступи	-952
▁9	-953
ками	-954
▁офи	-955
▁T	-956
емо	-957
▁больше	-958
▁необходи	-959
скую	-960
▁Про	-961
▁откры	-962
дова	-963
▁обще	-964
шел	-965
лин	-966
опас	-967
▁оче	-968
▁поз	-969
ясни	-970
▁пока	-971
▁всего	-972
▁коман	-973
гро	-974
нь	-975
▁сейчас	-976
▁I	-977
шин	-978
▁финан	-979
▁наз	-980
▁президента	-981
▁Украины	-982
▁поч	-983
▁рын	-984
▁выбо	-985
▁уров	-986
роме	-987
▁этот	-988
▁пло	-989
шении	-990
▁Россия	-991
анию	-992
▁пла	-993
министра	-994
мени	-995
▁Все	-996
▁состоя	-997
▁первы	-998
▁сен	-999
▁Из	-1000
лия	-1001
▁пресс	-1002
щения	-1003
▁автомоби	-1004
▁американ	-1005
рует	-1006
▁прода	-1007
▁которая	-1008
лем	-1009
▁сообщил	-1010
нем	-1011
▁ар	-1012
гент	-1013
ерез	-1014
▁вой	-1015
▁До	-1016
▁челове	-1017
▁несколько	-1018
▁доро	-1019
▁Мин	-1020
▁кор	-1021
▁опера	-1022
▁То	-1023
▁Да	-1024
циональ	-1025
▁около	-1026
ис	-1027
▁тран	-1028
in	-1029
▁сегодня	-1030
юд	-1031
льный	-1032
нению	-1033
▁N	-1034
▁оп	-1035
жение	-1036
▁вла	-1037
▁Ве	-1038
ющий	-1039
▁доку	-1040
▁извест	-1041
▁жен	-1042
анее	-1043
кова	-1044
▁Ранее	-1045
▁участи	-1046
анима	-1047
стей	-1048
ющие	-1049
▁бли	-1050
мет	-1051
цией	-1052
▁Ме	-1053
льной	-1054
имо	-1055
▁Ви	-1056
▁всех	-1057
кре	-1058
▁три	-1059
▁200	-1060
▁ито	-1061
ответ	-1062
▁програм	-1063
▁эк	-1064
лаго	-1065
▁самы	-1066
онов	-1067
▁сем	-1068
▁сни	-1069
▁минист	-1070
▁меся	-1071
▁побе	-1072
держа	-1073
,5	-1074
▁ско	-1075
од	-1076
▁отметил	-1077
бов	-1078
▁укра	-1079
▁сдела	-1080
раз	-1081
рори	-1082
▁фор	-1083
▁Мы	-1084
▁Ново	-1085
ческих	-1086
▁находи	-1087
an	-1088
виа	-1089
нения	-1090
ья	-1091
▁тра	-1092
бур	-1093
ледов	-1094
лич	-1095
▁президент	-1096
▁ан	-1097
▁B	-1098
лого	-1099
▁ис	-1100
вают	-1101
▁которых	-1102
▁вос	-1103
кий	-1104
▁ду	-1105
▁готов	-1106
▁полити	-1107
▁C	-1108
▁фак	-1109
▁является	-1110
льных	-1111
рон	-1112
туры	-1113
▁каж	-1114
▁города	-1115
рей	-1116
Ро	-1117
лены	-1118
▁место	-1119
ору	-1120
▁F	-1121
точ	-1122
прави	-1123
▁безопас	-1124
▁газ	-1125
▁ию	-1126
▁высо	-1127
▁этой	-1128
▁заяв	-1129
▁От	-1130
тр	-1131
▁строи	-1132
тки	-1133
▁решение	-1134
▁депута	-1135
ностью	-1136
▁обви	-1137
▁мест	-1138
зя	-1139
хов	-1140
дь	-1141
тий	-1142
▁круп	-1143
▁себя	-1144
▁отмеча	-1145
▁M	-1146
▁свое	-1147
ческого	-1148
▁вто	-1149
ждения	-1150
бра	-1151
урна	-1152
▁га	-1153
▁вне	-1154
нут	-1155
кам	-1156
▁кри	-1157
лении	-1158
ступа	-1159
▁граждан	-1160
▁нару	-1161
▁Владимир	-1162
вших	-1163
еры	-1164
щее	-1165
зан	-1166
рах	-1167
▁через	-1168
▁установ	-1169
▁чемпи	-1170
ссе	-1171
чина	-1172
вно	-1173
▁Сирии	-1174
▁кто	-1175
▁совер	-1176
▁Однако	-1177
бой	-1178
▁двух	-1179
зда	-1180
ье	-1181
▁произо	-1182
▁оказа	-1183
▁занима	-1184
▁матери	-1185
▁мен	-1186
▁числе	-1187
зе	-1188
▁над	-1189
▁управ	-1190
▁свою	-1191
▁агент	-1192
...	-1193
▁уго	-1194
▁призна	-1195
пад	-1196
▁позво	-1197
▁тысяч	-1198
▁пос	-1199
▁интер	-1200
▁Пре	-1201
чем	-1202
▁глава	-1203
ил	-1204
▁спи	-1205
▁передает	-1206
▁ква	-1207
ходя	-1208
▁кол	-1209
▁дирек	-1210
зо	-1211
смот	-1212
▁обя	-1213
чество	-1214
▁экспер	-1215
▁Тур	-1216
лим	-1217
▁Бе	-1218
▁международ	-1219
▁террори	-1220
ена	-1221
▁12	-1222
писа	-1223
нова	-1224
митри	-1225
готов	-1226
менно	-1227
ноги	-1228
▁запре	-1229
▁$	-1230
циа	-1231
вра	-1232
▁Кроме	-1233
мина	-1234
▁дви	-1235
▁законо	-1236
ям	-1237
▁евро	-1238
▁перед	-1239
дук	-1240
▁бюд	-1241
▁Россий	-1242
кая	-1243
▁проце	-1244
гли	-1245
там	-1246
▁тру	-1247
▁интере	-1248
▁Дмитри	-1249
▁власти	-1250
кну	-1251
овых	-1252
▁защи	-1253
спе	-1254
▁соответ	-1255
▁обла	-1256
▁R	-1257
лог	-1258
▁голо	-1259
▁услови	-1260
▁авиа	-1261
▁поль	-1262
чной	-1263
бре	-1264
▁перво	-1265
▁украин	-1266
щение	-1267
▁дека	-1268
▁журна	-1269
▁Если	-1270
ходит	-1271
▁госпо	-1272
▁Москве	-1273
ева	-1274
or	-1275
▁G	-1276
вается	-1277
▁следу	-1278
▁эта	-1279
гей	-1280
тета	-1281
▁дея	-1282
▁официаль	-1283
▁После	-1284
тельных	-1285
▁поги	-1286
тие	-1287
▁ян	-1288
▁стать	-1289
enta	-1290
тно	-1291
ун	-1292
▁режи	-1293
▁теле	-1294
▁ответ	-1295
ван	-1296
шли	-1297
▁луч	-1298
зации	-1299
▁дома	-1300
евра	-1301
йте	-1302
▁увели	-1303
▁своей	-1304
▁последни	-1305
кое	-1306
тить	-1307
▁разме	-1308
▁стал	-1309
▁бое	-1310
▁2014	-1311
▁апре	-1312
▁янва	-1313
ске	-1314
▁результате	-1315
▁вме	-1316
es	-1317
ьер	-1318
▁Гла	-1319
овые	-1320
ствие	-1321
▁част	-1322
▁Ли	-1323
▁заклю	-1324
▁виде	-1325
▁доба	-1326
201	-1327
вые	-1328
▁биз	-1329
▁Гос	-1330
▁Lenta	-1331
шо	-1332
йти	-1333
▁созд	-1334
ственной	-1335
▁P	-1336
вшего	-1337
▁работы	-1338
▁шко	-1339
ган	-1340
▁приз	-1341
фф	-1342
этому	-1343
МИ	-1344
лена	-1345
ссии	-1346
▁направ	-1347
▁федера	-1348
▁11	-1349
АСС	-1350
нет	-1351
▁должны	-1352
вая	-1353
▁плани	-1354
▁февра	-1355
▁меня	-1356
▁сы	-1357
ружи	-1358
▁моло	-1359
▁долла	-1360
вле	-1361
▁очеред	-1362
мой	-1363
▁Су	-1364
▁18	-1365
▁стран	-1366
▁которой	-1367
лимпи	-1368
▁должно	-1369
служ	-1370
▁него	-1371
▁администра	-1372
ото	-1373
▁Сергей	-1374
▁просто	-1375
▁прово	-1376
▁30	-1377
▁кан	-1378
▁стороны	-1379
пло	-1380
строй	-1381
седа	-1382
ема	-1383
▁безопасности	-1384
преде	-1385
ственного	-1386
▁сро	-1387
▁людей	-1388
▁ци	-1389
тон	-1390
шая	-1391
ar	-1392
ние	-1393
▁связи	-1394
▁креди	-1395
▁муж	-1396
▁производ	-1397
▁иск	-1398
▁ему	-1399
дить	-1400
▁актив	-1401
▁ноя	-1402
▁показа	-1403
▁мат	-1404
▁дело	-1405
▁необходимо	-1406
щих	-1407
чить	-1408
▁СМИ	-1409
грани	-1410
ых	-1411
▁других	-1412
помним	-1413
пусти	-1414
гре	-1415
▁Ру	-1416
▁поддерж	-1417
▁Сов	-1418
пей	-1419
▁элек	-1420
ИА	-1421
▁Вы	-1422
▁город	-1423
▁испол	-1424
▁конку	-1425
тали	-1426
▁реши	-1427
держи	-1428
▁обсу	-1429
▁уголов	-1430
еспе	-1431
▁Пер	-1432
▁Ар	-1433
сед	-1434
▁Ре	-1435
▁случае	-1436
▁потре	-1437
▁созда	-1438
▁би	-1439
▁служ	-1440
▁Путин	-1441
циали	-1442
▁ранее	-1443
фер	-1444
воз	-1445
▁ше	-1446
▁ино	-1447
▁помощ	-1448
▁продук	-1449
▁прод	-1450
▁деятель	-1451
▁Напомним	-1452
▁состави	-1453
етер	-1454
▁образ	-1455
▁догово	-1456
▁суще	-1457
▁настоя	-1458
▁благо	-1459
▁неза	-1460
▁часть	-1461
▁Ла	-1462
▁вопрос	-1463
▁территории	-1464
пример	-1465
храни	-1466
▁продолжа	-1467
▁мира	-1468
▁ули	-1469
анием	-1470
дида	-1471
▁сбор	-1472
утбо	-1473
▁уби	-1474
▁пози	-1475
▁Дж	-1476
▁филь	-1477
▁источ	-1478
▁проис	-1479
▁каче	-1480
▁прав	-1481
▁человека	-1482
шие	-1483
▁рассказал	-1484
▁контро	-1485
▁жизни	-1486
▁ново	-1487
льные	-1488
тически	-1489
ыре	-1490
▁Под	-1491
▁процен	-1492
кин	-1493
рази	-1494
▁успе	-1495
перь	-1496
▁подчер	-1497
▁Александр	-1498
кта	-1499
▁предпо	-1500
▁обеспе	-1501
▁зд	-1502
дитель	-1503
▁друго	-1504
▁сказа	-1505
▁Те	-1506
▁ана	-1507
▁предо	-1508
сут	-1509
▁гу	-1510
▁марта	-1511
▁ла	-1512
▁Федера	-1513
ственно	-1514
-1	-1515
тем	-1516
▁план	-1517
▁организации	-1518
▁женщи	-1519
▁пери	-1520
▁ведом	-1521
▁чу	-1522
▁неко	-1523
▁торг	-1524
▁распо	-1525
▁ходе	-1526
полни	-1527
▁которого	-1528
▁российских	-1529
▁лишь	-1530
▁мнению	-1531
▁называ	-1532
рави	-1533
лез	-1534
пыт	-1535
рования	-1536
струк	-1537
рию	-1538
▁материа	-1539
▁хоро	-1540
кти	-1541
той	-1542
▁считает	-1543
al	-1544
▁компания	-1545
тами	-1546
▁самолет	-1547
▁социаль	-1548
▁говорит	-1549
сом	-1550
ить	-1551
▁деся	-1552
дел	-1553
▁ша	-1554
ые	-1555
торов	-1556
▁площа	-1557
▁преступ	-1558
щем	-1559
ством	-1560
тельные	-1561
▁25	-1562
скому	-1563
мов	-1564
▁0	-1565
▁нужно	-1566
▁момент	-1567
▁14	-1568
▁Кры	-1569
рую	-1570
тельной	-1571
чки	-1572
▁Трам	-1573
▁своих	-1574
▁ц	-1575
▁13	-1576
▁заме	-1577
инов	-1578
тур	-1579
ственных	-1580
▁Кон	-1581
ток	-1582
▁Анд	-1583
щая	-1584
▁фон	-1585
▁кандида	-1586
сло	-1587
▁стало	-1588
▁16	-1589
чных	-1590
▁Москвы	-1591
▁Де	-1592
▁преду	-1593
▁осу	-1594
▁подтвер	-1595
▁Также	-1596
ститу	-1597
▁сокра	-1598
▁действи	-1599
▁многи	-1600
▁сум	-1601
роны	-1602
▁меди	-1603
▁Новости	-1604
енно	-1605
▁мене	-1606
▁Госду	-1607
лон	-1608
рту	-1609
▁ОО	-1610
▁17	-1611
▁пода	-1612
▁насе	-1613
▁транспо	-1614
ляр	-1615
▁кур	-1616
цей	-1617
щении	-1618
▁сек	-1619
ложен	-1620
▁журнали	-1621
енси	-1622
▁счет	-1623
▁политиче	-1624
тных	-1625
▁ожи	-1626
▁составля	-1627
le	-1628
▁там	-1629
спубли	-1630
тан	-1631
▁появи	-1632
▁получа	-1633
етербур	-1634
▁W	-1635
▁конце	-1636
▁уни	-1637
ствует	-1638
▁повы	-1639
▁отношении	-1640
▁четыре	-1641
▁почти	-1642
▁добави	-1643
ший	-1644
▁дости	-1645
▁четвер	-1646
▁ТАСС	-1647
▁коли	-1648
▁партии	-1649
щий	-1650
▁обна	-1651
над	-1652
▁Цен	-1653
ческие	-1654
▁рам	-1655
▁значи	-1656
десь	-1657
▁след	-1658
▁нау	-1659
шений	-1660
▁объек	-1661
▁ри	-1662
▁подготов	-1663
▁пы	-1664
ницу	-1665
▁поку	-1666
вания	-1667
▁парла	-1668
▁футбо	-1669
▁способ	-1670
дой	-1671
них	-1672
▁именно	-1673
дии	-1674
лено	-1675
правля	-1676
▁детей	-1677
▁республи	-1678
мп	-1679
▁послед	-1680
чный	-1681
▁стране	-1682
▁Сегодня	-1683
дина	-1684
един	-1685
вшие	-1686
▁задерж	-1687
▁Ле	-1688
тура	-1689
▁вра	-1690
it	-1691
бан	-1692
ровал	-1693
ровали	-1694
▁совет	-1695
еме	-1696
чные	-1697
▁люди	-1698
▁части	-1699
▁Фран	-1700
▁перегово	-1701
ропо	-1702
▁Для	-1703
▁Пред	-1704
▁буду	-1705
▁даль	-1706
▁апреля	-1707
тиво	-1708
вых	-1709
▁говорится	-1710
стана	-1711
▁ги	-1712
▁нор	-1713
▁сентября	-1714
▁ссы	-1715
рот	-1716
▁однако	-1717
%.	-1718
еха	-1719
пара	-1720
разу	-1721
▁кли	-1722
еров	-1723
енера	-1724
▁реали	-1725
▁зако	-1726
тар	-1727
▁прем	-1728
▁главы	-1729
▁Дмитрий	-1730
▁государства	-1731
▁клу	-1732
▁авгу	-1733
гам	-1734
явля	-1735
▁электро	-1736
▁Хо	-1737
сили	-1738
виси	-1739
ерт	-1740
▁ог	-1741
ния	-1742
руг	-1743
▁прекра	-1744
▁обы	-1745
▁провер	-1746
▁стали	-1747
▁зан	-1748
▁вклю	-1749
жу	-1750
ню	-1751
▁измен	-1752
бен	-1753
страда	-1754
▁закон	-1755
лья	-1756
пис	-1757
скими	-1758
чного	-1759
ьез	-1760
▁иг	-1761
▁исс	-1762
роб	-1763
стя	-1764
кт	-1765
▁рамках	-1766
▁утвер	-1767
нять	-1768
смен	-1769
▁сообщили	-1770
▁завер	-1771
ченко	-1772
▁правительства	-1773
▁страна	-1774
▁должен	-1775
▁руковод	-1776
▁чемпиона	-1777
нение	-1778
▁предприя	-1779
урман	-1780
нологи	-1781
▁Что	-1782
▁куль	-1783
▁нам	-1784
▁провед	-1785
▁спорт	-1786
▁докумен	-1787
0-	-1788
▁Миха	-1789
▁сам	-1790
стри	-1791
▁назна	-1792
ены	-1793
пози	-1794
▁суб	-1795
лению	-1796
▁уч	-1797
акси	-1798
▁рей	-1799
блю	-1800
шее	-1801
▁анти	-1802
▁отказа	-1803
▁исклю	-1804
▁причи	-1805
ваться	-1806
▁идет	-1807
▁иностран	-1808
дил	-1809
▁2017	-1810
▁санк	-1811
▁опреде	-1812
мыш	-1813
▁участие	-1814
▁одной	-1815
или	-1816
шим	-1817
▁финанс	-1818
▁февраля	-1819
oo	-1820
▁свобо	-1821
▁недо	-1822
вор	-1823
▁Они	-1824
▁пример	-1825
▁центра	-1826
▁подчеркну	-1827
▁особ	-1828
фа	-1829
кола	-1830
чего	-1831
▁образом	-1832
нечно	-1833
▁борь	-1834
▁специали	-1835
вид	-1836
▁председа	-1837
▁ло	-1838
читы	-1839
телем	-1840
▁менее	-1841
▁времени	-1842
▁пя	-1843
▁Га	-1844
▁попа	-1845
▁одного	-1846
чей	-1847
▁подоз	-1848
ter	-1849
зад	-1850
▁декабря	-1851
▁тя	-1852
жай	-1853
▁ноября	-1854
▁ограни	-1855
рев	-1856
рин	-1857
▁гру	-1858
рами	-1859
▁маши	-1860
▁мет	-1861
парта	-1862
▁октября	-1863
▁развития	-1864
▁обяза	-1865
▁принима	-1866
▁нем	-1867
▁проку	-1868
▁ника	-1869
he	-1870
▁такой	-1871
▁информации	-1872
▁рез	-1873
▁назад	-1874
нуть	-1875
матри	-1876
▁разрабо	-1877
▁некоторы	-1878
▁националь	-1879
▁возможность	-1880
ффек	-1881
ческий	-1882
▁региона	-1883
▁выпол	-1884
▁Мар	-1885
ствовать	-1886
▁засед	-1887
%,	-1888
▁января	-1889
гля	-1890
хода	-1891
▁представитель	-1892
▁сре	-1893
тет	-1894
▁Гер	-1895
▁инф	-1896
▁мая	-1897
ющего	-1898
▁другие	-1899
сова	-1900
▁опубли	-1901
ce	-1902
▁Че	-1903
вен	-1904
▁пыта	-1905
Газ	-1906
рец	-1907
▁роди	-1908
лют	-1909
жных	-1910
▁противо	-1911
▁ря	-1912
▁этих	-1913
гно	-1914
зидент	-1915
ВД	-1916
▁пострада	-1917
мышлен	-1918
тельного	-1919
оло	-1920
тельный	-1921
▁времен	-1922
▁региональ	-1923
лкой	-1924
▁бюджет	-1925
▁аре	-1926
▁себе	-1927
▁действия	-1928
-2	-1929
ель	-1930
▁управления	-1931
▁серьез	-1932
.,	-1933
▁22	-1934
▁аэ	-1935
▁средств	-1936
тина	-1937
▁окру	-1938
▁российского	-1939
▁игра	-1940
тах	-1941
▁угро	-1942
кет	-1943
▁собствен	-1944
рил	-1945
▁No	-1946
▁ЕС	-1947
▁Сейчас	-1948
▁зада	-1949
▁ради	-1950
графи	-1951
▁21	-1952
дили	-1953
▁прибы	-1954
▁конф	-1955
▁погиб	-1956
▁шта	-1957
▁работу	-1958
▁D	-1959
нок	-1960
ове	-1961
▁еди	-1962
телям	-1963
▁Турции	-1964
ови	-1965
ющей	-1966
дан	-1967
нил	-1968
жной	-1969
▁трех	-1970
доров	-1971
▁среди	-1972
вобо	-1973
▁первый	-1974
мон	-1975
▁долларов	-1976
мом	-1977
шем	-1978
шло	-1979
ницы	-1980
▁кар	-1981
▁надо	-1982
▁потому	-1983
пин	-1984
▁кла	-1985
▁тоже	-1986
▁Между	-1987
▁ти	-1988
▁наде	-1989
цени	-1990
▁тур	-1991
▁свой	-1992
▁предлага	-1993
берна	-1994
муще	-1995
неш	-1996
▁специаль	-1997
ющим	-1998
▁увер	-1999
▁намер	-2000
,2	-2001
▁Ри	-2002
▁24	-2003
хва	-2004
лега	-2005
▁Му	-2006
▁ге	-2007
▁пенси	-2008
▁частности	-2009
овый	-2010
▁поясни	-2011
at	-2012
дж	-2013
шла	-2014
▁вним	-2015
мии	-2016
ссия	-2017
▁РИА	-2018
▁удалось	-2019
вое	-2020
зии	-2021
▁100	-2022
рить	-2023
▁член	-2024
▁предлож	-2025
доб	-2026
▁столи	-2027
▁доста	-2028
▁работ	-2029
▁ссылкой	-2030
▁районе	-2031
жды	-2032
кто	-2033
Ин	-2034
дви	-2035
ro	-2036
▁мне	-2037
проек	-2038
▁регу	-2039
▁своего	-2040
▁тот	-2041
▁реко	-2042
▁ситуации	-2043
личи	-2044
част	-2045
вание	-2046
▁стоимо	-2047
йдет	-2048
▁инвести	-2049
пуска	-2050
▁ха	-2051
▁Минист	-2052
▁ближай	-2053
▁Бу	-2054
▁обе	-2055
▁которое	-2056
-201	-2057
▁места	-2058
лимпий	-2059
▁лидер	-2060
обе	-2061
ферен	-2062
▁взры	-2063
ат	-2064
▁Пет	-2065
▁сез	-2066
руют	-2067
▁Кра	-2068
▁тогда	-2069
▁течение	-2070
кси	-2071
▁50	-2072
▁публи	-2073
няя	-2074
▁Лу	-2075
▁дня	-2076
▁вот	-2077
▁иде	-2078
▁здесь	-2079
ссажи	-2080
ждение	-2081
▁энер	-2082
▁группы	-2083
▁очередь	-2084
▁требов	-2085
▁заня	-2086
▁срав	-2087
▁верси	-2088
принима	-2089
нача	-2090
нец	-2091
▁закры	-2092
рю	-2093
▁Мурман	-2094
шед	-2095
ТО	-2096
▁оцен	-2097
▁вместе	-2098
▁расследов	-2099
▁контра	-2100
▁гос	-2101
▁ны	-2102
чил	-2103
ница	-2104
▁законода	-2105
зования	-2106
▁известно	-2107
▁Ту	-2108
▁ребен	-2109
,6	-2110
ствии	-2111
▁мень	-2112
▁мину	-2113
▁зем	-2114
▁сло	-2115
▁замести	-2116
▁ожида	-2117
▁E	-2118
шки	-2119
▁собира	-2120
мя	-2121
▁ху	-2122
жении	-2123
▁деньги	-2124
ссий	-2125
▁лиц	-2126
▁полиции	-2127
▁199	-2128
▁треть	-2129
езд	-2130
▁дене	-2131
ленных	-2132
▁теперь	-2133
▁ини	-2134
▁спортсмен	-2135
еть	-2136
бро	-2137
▁лег	-2138
сколь	-2139
▁находится	-2140
рес	-2141
пита	-2142
фици	-2143
роприя	-2144
мости	-2145
▁смер	-2146
▁профе	-2147
▁стала	-2148
▁выступа	-2149
▁голосов	-2150
мест	-2151
чка	-2152
На	-2153
▁пор	-2154
▁привле	-2155
▁проект	-2156
▁системы	-2157
▁Вер	-2158
▁предложи	-2159
▁права	-2160
▁Ев	-2161
анов	-2162
видет	-2163
шой	-2164
▁сразу	-2165
телями	-2166
▁начала	-2167
кую	-2168
▁Ха	-2169
▁технологи	-2170
▁суда	-2171
чера	-2172
▁постав	-2173
льным	-2174
прово	-2175
▁европей	-2176
лев	-2177
▁това	-2178
руется	-2179
▁23	-2180
▁эту	-2181
ху	-2182
слав	-2183
лением	-2184
бова	-2185
лит	-2186
▁избира	-2187
▁рассказа	-2188
▁Ав	-2189
▁стре	-2190
ственный	-2191
щие	-2192
▁одно	-2193
▁суде	-2194
▁таких	-2195
▁всегда	-2196
▁фото	-2197
шенко	-2198
▁подоб	-2199
▁производи	-2200
лений	-2201
▁нового	-2202
им	-2203
,3	-2204
дит	-2205
▁пун	-2206
овая	-2207
емых	-2208
▁кино	-2209
▁дополни	-2210
ссо	-2211
▁реаль	-2212
▁бизнес	-2213
▁средства	-2214
рева	-2215
▁Герм	-2216
▁парт	-2217
▁котором	-2218
▁комитета	-2219
тать	-2220
▁новых	-2221
▁уточ	-2222
▁этим	-2223
▁услу	-2224
боль	-2225
▁Вели	-2226
▁эффек	-2227
▁русс	-2228
▁выпла	-2229
▁конфли	-2230
,7	-2231
фика	-2232
▁наблю	-2233
фак	-2234
цин	-2235
менти	-2236
▁премьер	-2237
▁банков	-2238
точно	-2239
▁мероприя	-2240
▁спа	-2241
рения	-2242
скольку	-2243
чества	-2244
▁российской	-2245
▁Бы	-2246
▁Сле	-2247
▁воору	-2248
▁Никола	-2249
▁месте	-2250
▁струк	-2251
стер	-2252
▁пря	-2253
▁кварти	-2254
▁дел	-2255
обра	-2256
▁убий	-2257
ИД	-2258
▁H	-2259
▁неде	-2260
▁исследов	-2261
▁качестве	-2262
верси	-2263
вала	-2264
▁сделать	-2265
▁Ду	-2266
▁поряд	-2267
▁решения	-2268
▁начале	-2269
шую	-2270
стой	-2271
льная	-2272
дним	-2273
▁сирий	-2274
▁пассажи	-2275
co	-2276
▁годы	-2277
▁Алексей	-2278
▁Она	-2279
▁внут	-2280
▁музы	-2281
▁тури	-2282
▁бес	-2283
▁генера	-2284
тера	-2285
▁две	-2286
▁посе	-2287
▁хозя	-2288
▁чего	-2289
▁последние	-2290
ществ	-2291
▁28	-2292
▁миллиар	-2293
▁количество	-2294
гов	-2295
▁сайте	-2296
▁мя	-2297
▁министр	-2298
▁бра	-2299
номо	-2300
▁тяже	-2301
▁стоит	-2302
▁прошлого	-2303
жде	-2304
▁отношения	-2305
вую	-2306
охрани	-2307
хра	-2308
▁изд	-2309
,4	-2310
▁став	-2311
▁рынке	-2312
▁августа	-2313
тарь	-2314
▁итогам	-2315
▁использова	-2316
хран	-2317
▁сти	-2318
▁например	-2319
пли	-2320
▁деятельности	-2321
сточ	-2322
ag	-2323
▁разре	-2324
▁директор	-2325
▁ответствен	-2326
лой	-2327
юз	-2328
сам	-2329
шта	-2330
гии	-2331
▁МВД	-2332
▁ней	-2333
▁соста	-2334
▁агентство	-2335
еди	-2336
чат	-2337
лити	-2338
▁хотя	-2339
▁правительство	-2340
▁спор	-2341
▁обрати	-2342
неф	-2343
▁опас	-2344
▁семь	-2345
▁получил	-2346
▁возбу	-2347
▁аэропо	-2348
ходов	-2349
стью	-2350
▁всем	-2351
▁возду	-2352
▁отра	-2353
▁возра	-2354
▁миров	-2355
жного	-2356
ено	-2357
пере	-2358
▁трен	-2359
▁период	-2360
нице	-2361
▁городе	-2362
дно	-2363
летний	-2364
▁рынка	-2365
▁внутрен	-2366
зин	-2367
▁фа	-2368
▁оцени	-2369
▁(1	-2370
▁МИД	-2371
▁поэтому	-2372
▁Его	-2373
▁видео	-2374
▁пять	-2375
тной	-2376
веден	-2377
▁пово	-2378
первые	-2379
▁нефти	-2380
▁распро	-2381
По	-2382
зма	-2383
▁прогно	-2384
,8	-2385
гру	-2386
лег	-2387
▁находя	-2388
▁Иго	-2389
▁ши	-2390
▁уче	-2391
ым	-2392
▁инициа	-2393
▁взя	-2394
▁второй	-2395
няет	-2396
ходят	-2397
▁Москов	-2398
▁новый	-2399
▁боеви	-2400
▁оружи	-2401
▁чинов	-2402
▁которую	-2403
вари	-2404
▁отмечает	-2405
▁попу	-2406
▁нынеш	-2407
▁масс	-2408
▁добавил	-2409
лета	-2410
▁подчеркнул	-2411
▁выз	-2412
▁руководи	-2413
жать	-2414
▁нео	-2415
▁сту	-2416
▁выро	-2417
шу	-2418
▁конкур	-2419
▁позволя	-2420
is	-2421
оны	-2422
ником	-2423
рование	-2424
казывает	-2425
нин	-2426
рят	-2427
▁26	-2428
▁27	-2429
▁аль	-2430
форми	-2431
▁пост	-2432
ант	-2433
кар	-2434
щую	-2435
ритан	-2436
чает	-2437
▁диа	-2438
ваются	-2439
▁совершен	-2440
▁должна	-2441
,1	-2442
стоян	-2443
▁бар	-2444
▁новые	-2445
▁москов	-2446
ствуют	-2447
▁такие	-2448
▁V	-2449
▁дума	-2450
ленные	-2451
▁компаний	-2452
▁настоящее	-2453
ус	-2454
▁июля	-2455
▁Россию	-2456
▁банк	-2457
▁Президент	-2458
роят	-2459
лекана	-2460
тельным	-2461
игра	-2462
▁бло	-2463
водит	-2464
чении	-2465
▁мире	-2466
▁рассмо	-2467
шет	-2468
▁каса	-2469
бин	-2470
▁Согла	-2471
▁примен	-2472
▁собы	-2473
юза	-2474
▁помощи	-2475
▁господин	-2476
сить	-2477
▁современ	-2478
обре	-2479
обще	-2480
▁полицей	-2481
ровки	-2482
▁непо	-2483
▁поскольку	-2484
▁Оба	-2485
▁пользова	-2486
il	-2487
конча	-2488
ква	-2489
▁отде	-2490
▁уровне	-2491
▁мир	-2492
▁процесс	-2493
▁миллионов	-2494
ходы	-2495
▁неу	-2496
пада	-2497
прос	-2498
шению	-2499
того	-2500
траф	-2501
▁состав	-2502
▁проекта	-2503
▁Федерации	-2504
ol	-2505
▁своем	-2506
▁написа	-2507
рина	-2508
▁вице	-2509
▁спец	-2510
▁внеш	-2511
▁имеет	-2512
▁Сто	-2513
ведения	-2514
▁Украине	-2515
дия	-2516
стров	-2517
▁нашей	-2518
▁совмест	-2519
▁получили	-2520
▁объяви	-2521
▁большин	-2522
рое	-2523
▁ООН	-2524
▁станет	-2525
▁работать	-2526
▁Глава	-2527
лети	-2528
тайте	-2529
▁прак	-2530
▁забо	-2531
▁проблемы	-2532
ента	-2533
▁ген	-2534
▁внимание	-2535
▁представля	-2536
▁зам	-2537
▁возвра	-2538
▁правоохрани	-2539
комп	-2540
вока	-2541
▁кризи	-2542
▁прин	-2543
терфак	-2544
▁верну	-2545
▁ничего	-2546
▁СК	-2547
▁дней	-2548
▁района	-2549
ion	-2550
мена	-2551
▁Андрей	-2552
▁29	-2553
▁неиз	-2554
▁кажды	-2555
▁потом	-2556
▁истории	-2557
us	-2558
рее	-2559
▁выс	-2560
▁род	-2561
льное	-2562
▁приве	-2563
▁рост	-2564
ктор	-2565
▁акти	-2566
▁ведомства	-2567
▁телекана	-2568
▁одна	-2569
ческая	-2570
цов	-2571
▁Ди	-2572
▁увеличи	-2573
ятся	-2574
▁различ	-2575
el	-2576
▁выда	-2577
▁губерна	-2578
тая	-2579
дется	-2580
▁писа	-2581
▁этому	-2582
тый	-2583
▁Европы	-2584
▁жизнь	-2585
▁предпринима	-2586
СК	-2587
овым	-2588
am	-2589
▁тон	-2590
▁считают	-2591
шать	-2592
▁экспо	-2593
▁данные	-2594
▁конечно	-2595
▁полностью	-2596
▁законопроек	-2597
▁тради	-2598
ственные	-2599
▁сборной	-2600
▁сф	-2601
лых	-2602
▁вза	-2603
▁Поэтому	-2604
док	-2605
▁норма	-2606
▁понима	-2607
▁информацию	-2608
тых	-2609
вый	-2610
мин	-2611
лана	-2612
▁требу	-2613
▁здоров	-2614
▁пят	-2615
▁Кар	-2616
▁терак	-2617
▁Серге	-2618
▁народ	-2619
били	-2620
тные	-2621
▁представ	-2622
нами	-2623
▁Иван	-2624
▁снизи	-2625
▁кру	-2626
▁техни	-2627
▁кана	-2628
тябре	-2629
ум	-2630
▁запрещен	-2631
чены	-2632
▁медицин	-2633
еты	-2634
▁ним	-2635
▁добы	-2636
▁иску	-2637
кро	-2638
▁ал	-2639
▁программы	-2640
▁жа	-2641
▁наи	-2642
▁администрации	-2643
▁другой	-2644
▁просмот	-2645
мар	-2646
▁сцен	-2647
▁связан	-2648
чая	-2649
жный	-2650
▁Евг	-2651
▁тому	-2652
рошенко	-2653
,9	-2654
сок	-2655
▁коллек	-2656
▁прошлом	-2657
▁поддержи	-2658
▁получить	-2659
доро	-2660
▁хи	-2661
▁мог	-2662
что	-2663
▁объем	-2664
▁самых	-2665
вшей	-2666
нить	-2667
щиков	-2668
собо	-2669
▁ситуация	-2670
▁оппози	-2671
▁составляет	-2672
дент	-2673
емон	-2674
▁мини	-2675
▁пожа	-2676
▁месяцев	-2677
▁постоян	-2678
▁Глав	-2679
▁фран	-2680
сил	-2681
▁НА	-2682
▁весь	-2683
емокра	-2684
▁бизне	-2685
▁возгла	-2686
▁40	-2687
▁юри	-2688
▁просмотров	-2689
они	-2690
тече	-2691
▁теку	-2692
▁выступи	-2693
можно	-2694
▁близ	-2695
ic	-2696
таль	-2697
▁мощ	-2698
никами	-2699
▁министер	-2700
▁ап	-2701
спек	-2702
▁сай	-2703
дения	-2704
седни	-2705
▁Ста	-2706
▁ракет	-2707
▁Лю	-2708
снов	-2709
▁Когда	-2710
▁гор	-2711
▁живо	-2712
жета	-2713
▁выра	-2714
▁связ	-2715
▁войны	-2716
▁осуществ	-2717
▁мужчи	-2718
▁прокура	-2719
▁населения	-2720
вок	-2721
▁меньше	-2722
▁вари	-2723
▁многие	-2724
▁команды	-2725
еспубли	-2726
▁("	-2727
лии	-2728
▁пам	-2729
▁неда	-2730
прочем	-2731
мир	-2732
чис	-2733
вестия	-2734
▁торгов	-2735
тором	-2736
▁банка	-2737
▁освобо	-2738
За	-2739
▁отве	-2740
▁жителей	-2741
АО	-2742
ок	-2743
ниц	-2744
рок	-2745
▁Восто	-2746
▁одном	-2747
Ба	-2748
▁фун	-2749
▁сами	-2750
▁Ша	-2751
вети	-2752
чать	-2753
▁восстанов	-2754
жем	-2755
▁харак	-2756
▁Госдумы	-2757
50	-2758
▁площад	-2759
льном	-2760
чески	-2761
рови	-2762
▁приводит	-2763
рко	-2764
пор	-2765
ести	-2766
▁процентов	-2767
▁влия	-2768
▁наблюда	-2769
▁экономики	-2770
et	-2771
лга	-2772
▁Клин	-2773
▁службы	-2774
▁впервые	-2775
▁2013	-2776
▁заво	-2777
▁россиян	-2778
их	-2779
сем	-2780
тию	-2781
▁игро	-2782
▁Ира	-2783
▁цены	-2784
▁утвержда	-2785
▁возможности	-2786
ставить	-2787
▁Международ	-2788
зм	-2789
▁нов	-2790
▁сложно	-2791
вым	-2792
▁Мед	-2793
▁превы	-2794
▁вопросы	-2795
кви	-2796
▁поме	-2797
▁начина	-2798
тивных	-2799
▁налог	-2800
▁выборов	-2801
▁группи	-2802
надле	-2803
▁попро	-2804
▁проте	-2805
▁участников	-2806
▁нее	-2807
лла	-2808
▁обвиня	-2809
▁срок	-2810
re	-2811
град	-2812
▁цель	-2813
▁турни	-2814
▁делать	-2815
даря	-2816
жные	-2817
▁Тем	-2818
▁Республи	-2819
зер	-2820
таки	-2821
чным	-2822
▁выборах	-2823
▁Германии	-2824
▁практически	-2825
тей	-2826
ится	-2827
▁полож	-2828
▁транспорт	-2829
вью	-2830
дем	-2831
здни	-2832
слам	-2833
▁Порошенко	-2834
▁бере	-2835
▁началь	-2836
весто	-2837
▁обсужда	-2838
▁приобре	-2839
▁правитель	-2840
баты	-2841
▁страте	-2842
▁Согласно	-2843
▁пяти	-2844
Петербур	-2845
мые	-2846
пора	-2847
▁одним	-2848
анных	-2849
▁покупа	-2850
▁заявила	-2851
жей	-2852
гран	-2853
▁пала	-2854
▁стол	-2855
▁област	-2856
пов	-2857
тирует	-2858
ционной	-2859
▁предполага	-2860
▁сотрудников	-2861
Ка	-2862
поли	-2863
▁отсут	-2864
▁наши	-2865
овом	-2866
▁кры	-2867
▁един	-2868
тили	-2869
▁Ана	-2870
▁сла	-2871
▁доступ	-2872
▁предвари	-2873
нев	-2874
треть	-2875
чета	-2876
▁гри	-2877
▁Санк	-2878
▁измени	-2879
чено	-2880
рованы	-2881
▁парламента	-2882
▁ряд	-2883
▁Россией	-2884
▁финанси	-2885
▁убе	-2886
▁рейтин	-2887
▁политики	-2888
▁принадле	-2889
треб	-2890
▁итоге	-2891
ологи	-2892
▁долго	-2893
▁таким	-2894
▁достаточно	-2895
леп	-2896
фон	-2897
▁число	-2898
лот	-2899
▁часов	-2900
▁кварта	-2901
шить	-2902
▁край	-2903
▁нико	-2904
▁турец	-2905
▁назвал	-2906
▁незакон	-2907
▁праздни	-2908
▁чер	-2909
▁сообщении	-2910
сен	-2911
▁искус	-2912
сур	-2913
кими	-2914
▁Еще	-2915
россий	-2916
▁отправи	-2917
▁Министер	-2918
:1	-2919
▁съ	-2920
▁встречи	-2921
коб	-2922
▁сил	-2923
▁прио	-2924
▁сня	-2925
▁несколь	-2926
▁источник	-2927
мых	-2928
клад	-2929
▁Трамп	-2930
▁полови	-2931
▁размере	-2932
▁террористи	-2933
▁кре	-2934
▁Центра	-2935
▁пригово	-2936
▁сообщила	-2937
▁агентства	-2938
сер	-2939
терфакс	-2940
лях	-2941
▁Чер	-2942
▁теа	-2943
▁представители	-2944
▁кни	-2945
▁меры	-2946
сро	-2947
вого	-2948
стам	-2949
ципа	-2950
▁упа	-2951
▁поня	-2952
▁военно	-2953
▁интервью	-2954
▁министра	-2955
▁Ъ	-2956
веро	-2957
▁бюджета	-2958
ила	-2959
▁всей	-2960
Из	-2961
▁поне	-2962
▁комплек	-2963
тивно	-2964
▁поте	-2965
▁собой	-2966
▁произошло	-2967
шает	-2968
матиче	-2969
▁Источ	-2970
▁Боль	-2971
▁нефть	-2972
▁штраф	-2973
▁отстав	-2974
▁обороны	-2975
▁использу	-2976
▁расши	-2977
▁популяр	-2978
▁продолжи	-2979
▁документа	-2980
пуск	-2981
ческим	-2982
▁истори	-2983
уне	-2984
служи	-2985
▁затем	-2986
▁которым	-2987
▁условиях	-2988
цам	-2989
пред	-2990
▁учи	-2991
▁вообще	-2992
▁свидет	-2993
лый	-2994
раб	-2995
▁ЦБ	-2996
чная	-2997
никам	-2998
▁попы	-2999
▁роста	-3000
ционных	-3001
▁Франции	-3002
▁уровень	-3003
▁движения	-3004
▁конкурен	-3005
ону	-3006
▁крупней	-3007
▁иностранных	-3008
▁лучше	-3009
▁британ	-3010
лер	-3011
минист	-3012
тельное	-3013
▁Клинтон	-3014
Ru	-3015
пар	-3016
чку	-3017
▁стар	-3018
▁исполни	-3019
ing	-3020
▁тор	-3021
▁постро	-3022
▁дальней	-3023
более	-3024
▁состо	-3025
▁ситуацию	-3026
шка	-3027
as	-3028
▁дово	-3029
▁неме	-3030
▁какие	-3031
стом	-3032
▁уголовное	-3033
▁улице	-3034
▁примерно	-3035
вли	-3036
▁целом	-3037
▁капита	-3038
▁российские	-3039
ями	-3040
▁помощью	-3041
гна	-3042
▁31	-3043
▁конца	-3044
▁каждый	-3045
▁центре	-3046
лки	-3047
▁францу	-3048
▁Ген	-3049
кобрит	-3050
▁Санкт	-3051
▁дав	-3052
▁постанов	-3053
▁скоро	-3054
Рос	-3055
диви	-3056
ствов	-3057
▁своим	-3058
ционного	-3059
▁пояснил	-3060
▁заявление	-3061
дев	-3062
▁претен	-3063
▁инвесто	-3064
хе	-3065
▁НАТО	-3066
▁ау	-3067
туру	-3068
▁относи	-3069
▁соответству	-3070
тный	-3071
▁клиен	-3072
▁действу	-3073
▁универси	-3074
дий	-3075
▁пишет	-3076
▁Владимира	-3077
▁вну	-3078
▁пара	-3079
▁адвока	-3080
▁встреча	-3081
пря	-3082
▁Ал	-3083
▁втор	-3084
вел	-3085
рпла	-3086
▁изу	-3087
▁раск	-3088
▁интерес	-3089
")	-3090
30	-3091
нему	-3092
секре	-3093
▁первую	-3094
▁УК	-3095
▁российский	-3096
▁Япо	-3097
тного	-3098
▁сети	-3099
▁зависи	-3100
▁проблем	-3101
▁тр	-3102
▁поки	-3103
▁депутат	-3104
▁погибли	-3105
▁сере	-3106
▁обнаружи	-3107
ющая	-3108
▁управля	-3109
▁рассматри	-3110
▁Великобрит	-3111
▁пси	-3112
▁Михаил	-3113
▁зарпла	-3114
▁организация	-3115
▁Воз	-3116
ri	-3117
рез	-3118
▁Пере	-3119
▁сообщалось	-3120
емый	-3121
▁кос	-3122
▁Медве	-3123
▁особенно	-3124
▁професси	-3125
дума	-3126
аксима	-3127
льзя	-3128
▁опро	-3129
▁ремон	-3130
▁подписа	-3131
▁проблема	-3132
▁государство	-3133
▁имуще	-3134
▁ей	-3135
▁пись	-3136
▁Трампа	-3137
▁материале	-3138
▁похо	-3139
▁поступи	-3140
▁приходи	-3141
▁следует	-3142
това	-3143
▁новой	-3144
▁действий	-3145
▁шо	-3146
▁какой	-3147
▁первом	-3148
лай	-3149
▁призн	-3150
▁газета	-3151
так	-3152
хани	-3153
▁Дон	-3154
▁клю	-3155
▁учре	-3156
▁пои	-3157
▁хорошо	-3158
▁понедель	-3159
▁ведь	-3160
▁часто	-3161
▁заявили	-3162
▁промышлен	-3163
▁жерт	-3164
▁Впрочем	-3165
ou	-3166
▁мало	-3167
▁пользу	-3168
▁производства	-3169
▁низ	-3170
▁люби	-3171
▁совета	-3172
ина	-3173
емой	-3174
▁комму	-3175
▁проводи	-3176
вета	-3177
вченко	-3178
▁Российской	-3179
":	-3180
ССР	-3181
▁ава	-3182
▁речь	-3183
сад	-3184
▁выше	-3185
зах	-3186
дово	-3187
▁судеб	-3188
▁присут	-3189
▁читайте	-3190
▁либо	-3191
▁помощь	-3192
▁подозрева	-3193
▁действительно	-3194
порт	-3195
сшта	-3196
▁язы	-3197
шествия	-3198
▁Путина	-3199
▁вырази	-3200
сной	-3201
▁партнер	-3202
сп	-3203
▁указ	-3204
▁физи	-3205
сит	-3206
дать	-3207
▁вас	-3208
▁слож	-3209
▁проведения	-3210
▁чув	-3211
▁данных	-3212
▁республики	-3213
вар	-3214
цами	-3215
▁сли	-3216
▁тысячи	-3217
▁использов	-3218
реги	-3219
▁собра	-3220
▁останов	-3221
тят	-3222
▁Мино	-3223
▁мэ	-3224
▁дер	-3225
клады	-3226
▁делу	-3227
БК	-3228
экономи	-3229
▁пятницу	-3230
вом	-3231
банка	-3232
▁худо	-3233
бороны	-3234
▁рынок	-3235
▁система	-3236
▁сказать	-3237
▁поддержа	-3238
НР	-3239
▁Ло	-3240
▁Эр	-3241
тива	-3242
няется	-3243
▁секре	-3244
▁работе	-3245
▁сторон	-3246
▁стоимость	-3247
▁деле	-3248
▁барре	-3249
▁начали	-3250
▁ответи	-3251
▁Источник	-3252
▁сотрудники	-3253
▁СССР	-3254
▁трав	-3255
▁хозяй	-3256
▁отдель	-3257
▁посети	-3258
тья	-3259
пром	-3260
▁мага	-3261
▁позд	-3262
▁Александра	-3263
стати	-3264
▁китай	-3265
▁среду	-3266
▁большой	-3267
куп	-3268
▁Север	-3269
тые	-3270
мимо	-3271
тря	-3272
▁нач	-3273
▁уси	-3274
▁раза	-3275
▁полага	-3276
▁рекомен	-3277
▁предприятия	-3278
Са	-3279
дя	-3280
гах	-3281
бора	-3282
▁бом	-3283
▁арен	-3284
▁доби	-3285
▁взаимо	-3286
▁выступ	-3287
▁группа	-3288
рудов	-3289
▁следова	-3290
Мы	-3291
щу	-3292
вшая	-3293
▁След	-3294
▁камп	-3295
▁Игорь	-3296
бло	-3297
▁Гу	-3298
▁фина	-3299
▁Крыма	-3300
▁Среди	-3301
▁возник	-3302
▁Крем	-3303
▁важно	-3304
▁голов	-3305
▁наших	-3306
▁никто	-3307
▁Дональ	-3308
емого	-3309
щается	-3310
▁версии	-3311
▁устрой	-3312
▁прожи	-3313
ел	-3314
▁сфере	-3315
▁форми	-3316
▁ИГ	-3317
▁ООО	-3318
▁еже	-3319
смотря	-3320
▁произошел	-3321
Во	-3322
лору	-3323
▁Москва	-3324
▁выстав	-3325
бар	-3326
вшим	-3327
▁Бер	-3328
▁говорят	-3329
Мо	-3330
вей	-3331
коми	-3332
▁сель	-3333
▁месяца	-3334
▁согласи	-3335
лимпиа	-3336
▁форма	-3337
▁потеря	-3338
▁институ	-3339
▁интернет	-3340
▁опубликова	-3341
▁самом	-3342
кса	-3343
▁In	-3344
▁Ну	-3345
след	-3346
чное	-3347
тивной	-3348
▁напад	-3349
катери	-3350
▁двига	-3351
▁миниму	-3352
▁ребенка	-3353
▁несмотря	-3354
▁Re	-3355
▁Бори	-3356
▁сдел	-3357
гом	-3358
▁баз	-3359
леппо	-3360
ностей	-3361
▁такое	-3362
▁четырех	-3363
▁вооружен	-3364
▁глу	-3365
▁огром	-3366
▁первого	-3367
▁работает	-3368
раво	-3369
▁конц	-3370
▁собе	-3371
▁Алеппо	-3372
ace	-3373
анные	-3374
▁Подроб	-3375
▁такого	-3376
▁порядка	-3377
бай	-3378
вез	-3379
▁Совета	-3380
▁закона	-3381
▁органов	-3382
под	-3383
▁обу	-3384
шлось	-3385
▁изменения	-3386
▁расположен	-3387
▁Ти	-3388
ew	-3389
age	-3390
шему	-3391
▁смогут	-3392
▁цитирует	-3393
▁образования	-3394
лах	-3395
▁сме	-3396
ниципа	-3397
▁неболь	-3398
▁пенсион	-3399
▁проходи	-3400
▁Савченко	-3401
▁понедельник	-3402
▁Аб	-3403
▁ВВ	-3404
ственным	-3405
щим	-3406
▁внес	-3407
▁имени	-3408
▁объяв	-3409
▁заявля	-3410
▁бро	-3411
льную	-3412
▁силы	-3413
▁дипло	-3414
:0	-3415
ir	-3416
ent	-3417
▁The	-3418
▁первой	-3419
▁перево	-3420
▁принци	-3421
▁X	-3422
шинг	-3423
▁денег	-3424
▁вели	-3425
▁нако	-3426
▁Красно	-3427
▁вероят	-3428
▁заместитель	-3429
▁ск	-3430
лять	-3431
▁золо	-3432
▁сыгра	-3433
▁аппара	-3434
▁неизвест	-3435
ый	-3436
▁выход	-3437
▁уверен	-3438
▁Украина	-3439
▁четверг	-3440
чном	-3441
▁газа	-3442
▁дом	-3443
▁Фото	-3444
▁узна	-3445
▁обнару	-3446
▁спу	-3447
▁роль	-3448
▁операции	-3449
▁сте	-3450
▁тен	-3451
▁арти	-3452
▁департа	-3453
▁потреби	-3454
▁провести	-3455
▁нескольких	-3456
дим	-3457
▁аб	-3458
спон	-3459
ющее	-3460
ческое	-3461
▁Новые	-3462
▁могли	-3463
▁вол	-3464
тех	-3465
бран	-3466
▁комиссии	-3467
▁вок	-3468
▁пора	-3469
ционный	-3470
▁сохрани	-3471
▁собеседни	-3472
▁Ге	-3473
скрес	-3474
▁Верхов	-3475
▁россия	-3476
анный	-3477
▁опубликов	-3478
▁ль	-3479
▁объяс	-3480
▁успеш	-3481
▁положи	-3482
▁культуры	-3483
бере	-3484
▁Алек	-3485
ческую	-3486
▁валют	-3487
▁выясни	-3488
▁задержа	-3489
▁касается	-3490
СБ	-3491
▁веду	-3492
▁стату	-3493
▁уровня	-3494
▁колле	-3495
вшись	-3496
▁нельзя	-3497
Еди	-3498
зор	-3499
▁никогда	-3500
▁комплекс	-3501
▁являются	-3502
▁нарушения	-3503
защи	-3504
шком	-3505
зация	-3506
▁2012	-3507
▁вторник	-3508
▁строительство	-3509
▁Im	-3510
ссоциа	-3511
▁самолета	-3512
риа	-3513
езда	-3514
▁наро	-3515
▁допин	-3516
▁Европе	-3517
▁электрон	-3518
ap	-3519
лле	-3520
сона	-3521
▁опла	-3522
▁спро	-3523
▁взрыв	-3524
▁карти	-3525
гры	-3526
иль	-3527
▁геро	-3528
гети	-3529
▁кате	-3530
шением	-3531
Интерфакс	-3532
ест	-3533
лоу	-3534
тел	-3535
нили	-3536
▁сорев	-3537
город	-3538
▁переговоры	-3539
АС	-3540
енко	-3541
▁пропа	-3542
▁Например	-3543
зит	-3544
дение	-3545
▁силу	-3546
▁невоз	-3547
▁помога	-3548
▁пройдет	-3549
▁преступления	-3550
▁(2	-3551
▁Пи	-3552
▁км	-3553
тивного	-3554
▁конкре	-3555
▁предупре	-3556
▁некоторые	-3557
▁важ	-3558
▁список	-3559
риф	-3560
▁ото	-3561
▁строительства	-3562
бир	-3563
.201	-3564
банк	-3565
станавли	-3566
▁муниципа	-3567
▁независи	-3568
▁руководитель	-3569
лые	-3570
▁води	-3571
▁выво	-3572
▁говорить	-3573
▁находятся	-3574
▁акции	-3575
тельную	-3576
▁стратеги	-3577
ЧС	-3578
каде	-3579
▁тут	-3580
стями	-3581
мая	-3582
одно	-3583
тром	-3584
чную	-3585
▁выде	-3586
▁выну	-3587
▁учен	-3588
▁зарабо	-3589
▁Известия	-3590
лда	-3591
▁Ча	-3592
▁Таким	-3593
▁Тогда	-3594
▁бежен	-3595
▁ресур	-3596
▁принято	-3597
▁француз	-3598
▁инци	-3599
▁отмен	-3600
▁Поль	-3601
▁сумму	-3602
сах	-3603
▁особо	-3604
▁требования	-3605
ждено	-3606
▁оборудов	-3607
помина	-3608
ченных	-3609
▁наказ	-3610
▁фонда	-3611
▁бизнеса	-3612
▁Чи	-3613
▁поко	-3614
▁посвя	-3615
▁бывший	-3616
▁препара	-3617
▁председатель	-3618
▁зри	-3619
▁дере	-3620
▁органа	-3621
зем	-3622
лок	-3623
▁Совет	-3624
▁членов	-3625
▁памят	-3626
▁мужчина	-3627
▁поддержку	-3628
жар	-3629
тил	-3630
▁ор	-3631
▁РБК	-3632
▁пору	-3633
тивные	-3634
▁Пес	-3635
ляции	-3636
▁многих	-3637
суль	-3638
▁Поли	-3639
ленный	-3640
служба	-3641
тельная	-3642
▁корруп	-3643
▁состоянии	-3644
▁O	-3645
мый	-3646
сят	-3647
юсь	-3648
▁пес	-3649
ломет	-3650
▁поводу	-3651
▁сим	-3652
▁деву	-3653
▁быстро	-3654
креп	-3655
▁оши	-3656
▁ниже	-3657
▁сравнению	-3658
гип	-3659
▁вов	-3660
▁дра	-3661
ледова	-3662
потреб	-3663
▁катего	-3664
▁сможет	-3665
▁Екатери	-3666
▁разработ	-3667
ТП	-3668
▁пунк	-3669
▁функ	-3670
естива	-3671
▁самого	-3672
▁оказыва	-3673
▁Националь	-3674
▁60	-3675
▁миллиона	-3676
еру	-3677
чай	-3678
▁сопер	-3679
▁данный	-3680
▁чемпионата	-3681
▁Пе	-3682
▁Фе	-3683
сток	-3684
полне	-3685
ровано	-3686
▁разных	-3687
▁спорта	-3688
роз	-3689
▁давно	-3690
▁случай	-3691
нюю	-3692
▁Гре	-3693
▁почему	-3694
▁остается	-3695
▁Минобороны	-3696
менты	-3697
▁цена	-3698
▁случи	-3699
▁главный	-3700
▁объясни	-3701
▁Жи	-3702
▁сих	-3703
▁направи	-3704
▁благодаря	-3705
▁коло	-3706
ровала	-3707
▁заверши	-3708
▁регионе	-3709
ПР	-3710
вати	-3711
▁вся	-3712
▁воскрес	-3713
▁полномо	-3714
▁составе	-3715
▁зап	-3716
чили	-3717
▁Image	-3718
▁станови	-3719
▁минут	-3720
▁перио	-3721
▁проведен	-3722
вался	-3723
рабаты	-3724
▁согласно	-3725
телю	-3726
правед	-3727
службе	-3728
▁Андре	-3729
ch	-3730
нию	-3731
▁суббо	-3732
▁Подробнее	-3733
▁соглашения	-3734
▁U	-3735
беж	-3736
▁МЧС	-3737
▁скры	-3738
▁рубля	-3739
▁выборы	-3740
▁столич	-3741
▁военных	-3742
леко	-3743
праведли	-3744
чик	-3745
▁улуч	-3746
▁организаций	-3747
ia	-3748
бом	-3749
лка	-3750
▁$1	-3751
вили	-3752
сколько	-3753
ференции	-3754
ed	-3755
рого	-3756
вались	-3757
▁самым	-3758
ственная	-3759
▁ат	-3760
удов	-3761
▁результаты	-3762
▁Экс	-3763
секретарь	-3764
▁сообщается	-3765
▁Кри	-3766
▁клуба	-3767
▁масшта	-3768
ственное	-3769
▁деятельность	-3770
лн	-3771
вто	-3772
кер	-3773
енти	-3774
▁скан	-3775
▁каждо	-3776
▁практи	-3777
▁принять	-3778
▁процеду	-3779
-3	-3780
форм	-3781
▁соц	-3782
летов	-3783
предели	-3784
▁представителей	-3785
дали	-3786
емые	-3787
▁ска	-3788
▁анали	-3789
▁Вашинг	-3790
▁депутатов	-3791
▁вам	-3792
чению	-3793
▁Прави	-3794
▁ключе	-3795
▁подпис	-3796
im	-3797
энер	-3798
тации	-3799
▁Киев	-3800
▁потен	-3801
▁продукции	-3802
жит	-3803
щать	-3804
стами	-3805
▁Донба	-3806
▁месяц	-3807
▁никаких	-3808
▁условия	-3809
▁отношений	-3810
ad	-3811
чит	-3812
ньше	-3813
▁запад	-3814
зирован	-3815
:2	-3816
вори	-3817
.2016	-3818
▁достиг	-3819
▁механи	-3820
▁рассчиты	-3821
▁автомобилей	-3822
▁шан	-3823
▁2011	-3824
▁уничто	-3825
▁аналоги	-3826
▁использовать	-3827
мень	-3828
▁най	-3829
пущен	-3830
▁выигра	-3831
▁готовы	-3832
▁пригла	-3833
▁президентом	-3834
новь	-3835
▁марш	-3836
▁арест	-3837
▁Песков	-3838
▁соревнов	-3839
дает	-3840
анной	-3841
чиков	-3842
▁девя	-3843
анитар	-3844
▁Сергея	-3845
▁Теперь	-3846
▁Коми	-3847
▁семей	-3848
смотрен	-3849
▁раньше	-3850
спекти	-3851
▁вчера	-3852
▁немец	-3853
▁километ	-3854
тник	-3855
▁демон	-3856
министр	-3857
▁бывшего	-3858
▁сегодняш	-3859
▁Представи	-3860
емся	-3861
▁инфра	-3862
▁Евросо	-3863
▁молоде	-3864
▁недели	-3865
нах	-3866
гули	-3867
▁свет	-3868
▁серви	-3869
▁Би	-3870
циях	-3871
▁Пар	-3872
▁гон	-3873
▁доказа	-3874
▁магази	-3875
▁совсем	-3876
▁позиции	-3877
▁придется	-3878
▁Лон	-3879
▁2018	-3880
▁июня	-3881
▁напом	-3882
▁владель	-3883
▁свободы	-3884
▁переговоров	-3885
pp	-3886
un	-3887
летнего	-3888
▁комитет	-3889
▁происходит	-3890
жает	-3891
▁всю	-3892
▁эксперты	-3893
▁полномочи	-3894
пить	-3895
▁труд	-3896
▁высоко	-3897
▁мигран	-3898
:00	-3899
кли	-3900
нефти	-3901
▁куда	-3902
▁судь	-3903
▁найти	-3904
▁непри	-3905
единен	-3906
▁властей	-3907
▁демокра	-3908
куль	-3909
туре	-3910
щему	-3911
интере	-3912
▁поста	-3913
эн	-3914
ланд	-3915
▁оно	-3916
▁Интер	-3917
▁санкции	-3918
▁корпора	-3919
▁воскресень	-3920
▁Раз	-3921
дирек	-3922
▁Олег	-3923
▁фоне	-3924
▁годов	-3925
▁матча	-3926
▁наиболее	-3927
ционные	-3928
▁борьбе	-3929
▁Олимпиа	-3930
▁коммента	-3931
▁тонн	-3932
▁оказался	-3933
▁35	-3934
леты	-3935
▁странах	-3936
ook	-3937
▁Вол	-3938
▁ката	-3939
▁снова	-3940
▁максима	-3941
▁слишком	-3942
▁тро	-3943
▁роли	-3944
▁вполне	-3945
▁очевид	-3946
▁декабре	-3947
▁фотографи	-3948
▁инфраструк	-3949
лоб	-3950
▁края	-3951
▁услуг	-3952
▁зрения	-3953
▁обстоя	-3954
Ру	-3955
бри	-3956
▁будем	-3957
▁вновь	-3958
▁покуп	-3959
▁Алексе	-3960
▁активно	-3961
▁господина	-3962
.0	-3963
ясь	-3964
гами	-3965
▁дове	-3966
▁ядер	-3967
гой	-3968
▁нуж	-3969
▁воздуш	-3970
▁написал	-3971
▁Кур	-3972
▁центр	-3973
тической	-3974
▁вопросам	-3975
РИА	-3976
дам	-3977
лина	-3978
▁меж	-3979
▁акций	-3980
▁скорее	-3981
▁директора	-3982
▁автомобиль	-3983
еви	-3984
▁обязан	-3985
▁прежде	-3986
дра	-3987
солют	-3988
циона	-3989
тивный	-3990
▁факту	-3991
▁фестива	-3992
▁объектов	-3993
▁свидетель	-3994
Со	-3995
▁тю	-3996
▁десяти	-3997
▁продажи	-3998
▁реализации	-3999
▁Лав	-4000
▁Болга	-4001
▁Лондо	-4002
гер	-4003
▁фигу	-4004
▁рекла	-4005
▁Великобритании	-4006
дро	-4007
мую	-4008
▁зи	-4009
анда	-4010
▁Кер	-4011
▁сом	-4012
▁охра	-4013
▁свер	-4014
▁имеют	-4015
▁маршру	-4016
▁рабочи	-4017
▁фильма	-4018
▁заседании	-4019
▁следствия	-4020
▁автомобиля	-4021
▁мероприятия	-4022
сон	-4023
▁500	-4024
▁прось	-4025
▁машины	-4026
▁Государ	-4027
▁Евгений	-4028
▁бой	-4029
▁вспо	-4030
▁широ	-4031
▁энергети	-4032
кологи	-4033
▁плате	-4034
▁алкого	-4035
регистри	-4036
рили	-4037
ющую	-4038
▁жел	-4039
▁ори	-4040
▁Российская	-4041
ww	-4042
ец	-4043
либо	-4044
▁смы	-4045
вшихся	-4046
тельств	-4047
▁Петербур	-4048
▁планирует	-4049
▁информация	-4050
Ислам	-4051
▁опыт	-4052
личие	-4053
▁окон	-4054
▁отече	-4055
▁национальной	-4056
мор	-4057
нул	-4058
рыв	-4059
ждении	-4060
▁большо	-4061
его	-4062
▁целью	-4063
▁санкций	-4064
зацию	-4065
честве	-4066
▁Амери	-4067
▁преды	-4068
▁пришлось	-4069
▁Аф	-4070
росс	-4071
▁архи	-4072
▁озна	-4073
сматри	-4074
▁парламент	-4075
▁район	-4076
▁семьи	-4077
▁приеха	-4078
▁январе	-4079
▁Джон	-4080
▁жест	-4081
▁шесть	-4082
▁разгово	-4083
▁предостав	-4084
фикси	-4085
▁хочет	-4086
▁юриди	-4087
▁задержан	-4088
▁документы	-4089
гор	-4090
кобы	-4091
щики	-4092
▁фир	-4093
служа	-4094
▁нарко	-4095
▁отчет	-4096
▁школы	-4097
▁команда	-4098
роде	-4099
-2016	-4100
рания	-4101
▁Обще	-4102
▁восто	-4103
▁точки	-4104
▁профессиональ	-4105
▁ДТП	-4106
▁Наде	-4107
▁попыт	-4108
▁дороги	-4109
▁сказала	-4110
▁обнаружен	-4111
▁воскресенье	-4112
стру	-4113
▁Оль	-4114
▁иска	-4115
.00	-4116
▁вид	-4117
▁сет	-4118
дентов	-4119
▁предыду	-4120
▁заявления	-4121
▁документов	-4122
оз	-4123
com	-4124
груз	-4125
▁Поч	-4126
начала	-4127
ционное	-4128
▁невозможно	-4129
▁председателя	-4130
▁K	-4131
джи	-4132
фина	-4133
▁мор	-4134
строи	-4135
▁реда	-4136
▁гаран	-4137
▁фильм	-4138
▁планируется	-4139
▁предусмотрен	-4140
тка	-4141
▁фонд	-4142
регули	-4143
▁здания	-4144
лами	-4145
▁Всего	-4146
▁крити	-4147
▁принял	-4148
▁свобод	-4149
▁процента	-4150
▁развитие	-4151
▁предложения	-4152
▁198	-4153
▁све	-4154
▁жела	-4155
москов	-4156
▁порта	-4157
▁смерти	-4158
чев	-4159
▁вече	-4160
▁рассказывает	-4161
▁экономического	-4162
сия	-4163
▁Май	-4164
ременно	-4165
▁систему	-4166
▁c	-4167
езде	-4168
йдут	-4169
▁Аль	-4170
▁дево	-4171
тран	-4172
▁запа	-4173
▁посо	-4174
▁Китай	-4175
▁самой	-4176
▁молоды	-4177
▁режима	-4178
▁состоится	-4179
ay	-4180
ИК	-4181
лам	-4182
рота	-4183
▁300	-4184
▁Рос	-4185
▁тан	-4186
▁дети	-4187
▁крае	-4188
▁оружия	-4189
дах	-4190
лад	-4191
▁Там	-4192
▁Крым	-4193
▁мето	-4194
▁одну	-4195
альной	-4196
▁транс	-4197
▁недоста	-4198
▁сю	-4199
енин	-4200
▁зару	-4201
▁желез	-4202
▁самый	-4203
▁приняли	-4204
поль	-4205
▁Комп	-4206
▁нефте	-4207
▁заболе	-4208
пан	-4209
▁фору	-4210
▁олимпий	-4211
▁станции	-4212
.1	-4213
вии	-4214
ющими	-4215
▁Юрий	-4216
▁запи	-4217
▁неделе	-4218
▁коро	-4219
▁внутри	-4220
▁столицы	-4221
▁70	-4222
чением	-4223
▁лидера	-4224
▁зафикси	-4225
▁страхов	-4226
▁эксперт	-4227
▁вынужден	-4228
▁некоторых	-4229
восто	-4230
▁Пари	-4231
▁доме	-4232
▁карь	-4233
▁моби	-4234
▁слов	-4235
▁степ	-4236
▁рядом	-4237
▁Европей	-4238
рос	-4239
прем	-4240
чается	-4241
ческом	-4242
▁захва	-4243
▁матче	-4244
▁Николай	-4245
▁предложил	-4246
▁большинство	-4247
обнов	-4248
▁армии	-4249
▁выгля	-4250
▁автобу	-4251
▁активи	-4252
▁партий	-4253
▁участия	-4254
▁футболи	-4255
▁зарегистри	-4256
▁соответствии	-4257
аги	-4258
лян	-4259
ъек	-4260
▁нес	-4261
▁линии	-4262
▁потреб	-4263
▁сканда	-4264
▁получила	-4265
СКА	-4266
▁одоб	-4267
▁годах	-4268
▁домаш	-4269
▁замети	-4270
▁включая	-4271
▁образов	-4272
gh	-4273
▁ву	-4274
▁жители	-4275
▁работают	-4276
бка	-4277
▁ночь	-4278
▁марте	-4279
комменти	-4280
▁женщина	-4281
▁площади	-4282
▁посвящен	-4283
▁отды	-4284
довлет	-4285
▁женщин	-4286
▁неодно	-4287
▁производство	-4288
os	-4289
▁л	-4290
▁распоря	-4291
▁составила	-4292
чика	-4293
▁Гри	-4294
▁ата	-4295
▁дво	-4296
▁оде	-4297
▁нало	-4298
▁поле	-4299
▁умер	-4300
▁Медведев	-4301
▁регионов	-4302
▁законопроект	-4303
щер	-4304
book	-4305
ющем	-4306
▁рассмотр	-4307
▁поддержки	-4308
ера	-4309
спи	-4310
нении	-4311
▁космо	-4312
▁нефтя	-4313
▁первые	-4314
▁прокуро	-4315
▁отмечается	-4316
ЭС	-4317
▁кого	-4318
▁лицен	-4319
▁вызыва	-4320
▁прокомменти	-4321
▁распростран	-4322
▁необходимости	-4323
ut	-4324
тек	-4325
цем	-4326
клон	-4327
▁кад	-4328
▁якобы	-4329
▁боевиков	-4330
▁возглавля	-4331
▁рассказала	-4332
▁Face	-4333
▁подраз	-4334
om	-4335
ters	-4336
сами	-4337
чена	-4338
▁Вот	-4339
▁СКР	-4340
▁реак	-4341
▁остан	-4342
▁психо	-4343
▁основе	-4344
роваться	-4345
▁результат	-4346
питали	-4347
▁Отмеча	-4348
▁сильно	-4349
▁минимум	-4350
▁выдви	-4351
▁плана	-4352
ствовали	-4353
▁позволит	-4354
▁конфликта	-4355
▁исследования	-4356
щал	-4357
лень	-4358
годно	-4359
▁лица	-4360
Россия	-4361
▁Макси	-4362
▁взгля	-4363
▁легко	-4364
▁отмечают	-4365
▁привлека	-4366
▁перспекти	-4367
кура	-4368
▁Брю	-4369
▁мед	-4370
▁мере	-4371
▁мета	-4372
▁ликви	-4373
▁начал	-4374
▁решили	-4375
▁довольно	-4376
ot	-4377
мым	-4378
▁80	-4379
▁друг	-4380
▁метров	-4381
▁рассказали	-4382
▁военнослужа	-4383
▁расследования	-4384
▁Рио	-4385
▁вокруг	-4386
40	-4387
дца	-4388
▁Бар	-4389
▁микро	-4390
▁награ	-4391
ствовал	-4392
▁ближайшее	-4393
▁транспорта	-4394
тни	-4395
тым	-4396
▁тай	-4397
▁уви	-4398
▁коле	-4399
▁знако	-4400
▁регуляр	-4401
▁социальной	-4402
:3	-4403
Ма	-4404
ьера	-4405
циями	-4406
▁Пока	-4407
▁значит	-4408
▁субботу	-4409
▁Facebook	-4410
▁ответственности	-4411
▁Эти	-4412
▁уво	-4413
▁хок	-4414
▁Арави	-4415
▁коммер	-4416
▁содерж	-4417
▁столице	-4418
▁составил	-4419
лить	-4420
▁доб	-4421
печат	-4422
▁игры	-4423
▁равно	-4424
▁стади	-4425
ставили	-4426
▁встрече	-4427
▁погибших	-4428
мия	-4429
▁тек	-4430
▁курс	-4431
ленной	-4432
сторон	-4433
▁предъ	-4434
▁взаимодей	-4435
▁пути	-4436
▁оказались	-4437
декс	-4438
ссер	-4439
страи	-4440
▁Более	-4441
▁защиты	-4442
▁неделю	-4443
▁возобнов	-4444
▁основном	-4445
▁эффектив	-4446
ur	-4447
▁Есть	-4448
ющихся	-4449
▁сцена	-4450
▁Констан	-4451
фо	-4452
").	-4453
кор	-4454
▁45	-4455
волю	-4456
▁циф	-4457
▁Этот	-4458
▁факт	-4459
▁лекар	-4460
▁общей	-4461
▁абсолют	-4462
▁соглашение	-4463
рост	-4464
▁связа	-4465
▁Саудов	-4466
▁ФСБ	-4467
▁Вале	-4468
▁Один	-4469
▁сайт	-4470
▁вступи	-4471
ич	-4472
дами	-4473
тным	-4474
▁эле	-4475
▁прямо	-4476
▁радио	-4477
▁соблю	-4478
▁Москву	-4479
▁Олимпий	-4480
▁знамени	-4481
▁создать	-4482
▁контроли	-4483
▁Мир	-4484
▁профи	-4485
▁разру	-4486
▁Именно	-4487
▁середи	-4488
▁феврале	-4489
щает	-4490
▁союз	-4491
▁любой	-4492
▁театра	-4493
▁допусти	-4494
▁Чу	-4495
тает	-4496
▁ЦСКА	-4497
▁клуб	-4498
ходить	-4499
▁гости	-4500
▁напря	-4501
▁пообе	-4502
▁сделал	-4503
▁мировой	-4504
▁обвинения	-4505
▁пассажиров	-4506
зей	-4507
деть	-4508
▁наш	-4509
битра	-4510
▁путе	-4511
▁самое	-4512
▁Информа	-4513
чью	-4514
мана	-4515
тная	-4516
▁сне	-4517
мость	-4518
респон	-4519
▁Чтобы	-4520
▁причаст	-4521
▁сократи	-4522
▁стандар	-4523
000	-4524
▁воды	-4525
службы	-4526
▁выбра	-4527
Извести	-4528
▁осуществля	-4529
дор	-4530
года	-4531
жений	-4532
▁обнов	-4533
▁говорил	-4534
▁инициати	-4535
кина	-4536
▁сожа	-4537
▁присо	-4538
▁департамента	-4539
вин	-4540
▁Мат	-4541
▁дли	-4542
движи	-4543
▁паци	-4544
ментов	-4545
строва	-4546
▁потер	-4547
▁соверши	-4548
мей	-4549
▁режим	-4550
▁обстре	-4551
▁авиакомп	-4552
▁возбуждено	-4553
жал	-4554
▁32	-4555
анта	-4556
лиги	-4557
▁Егип	-4558
ждений	-4559
▁размер	-4560
▁Y	-4561
жением	-4562
способ	-4563
▁топли	-4564
▁хотят	-4565
▁победи	-4566
▁учетом	-4567
▁публика	-4568
▁Отмечается	-4569
кипа	-4570
▁заве	-4571
▁спаса	-4572
▁усили	-4573
▁призвал	-4574
▁определи	-4575
▁снижение	-4576
чек	-4577
жнему	-4578
мотря	-4579
▁порт	-4580
▁заинтере	-4581
▁уголовного	-4582
▁Й	-4583
брь	-4584
▁Нес	-4585
ровер	-4586
▁которому	-4587
"),	-4588
пел	-4589
▁Фи	-4590
купа	-4591
мати	-4592
▁Соб	-4593
▁метро	-4594
▁прием	-4595
▁спортсменов	-4596
▁J	-4597
пон	-4598
скор	-4599
▁той	-4600
▁беспо	-4601
▁недвижи	-4602
▁конструк	-4603
▁международных	-4604
жали	-4605
▁мер	-4606
▁отли	-4607
▁сове	-4608
▁постоянно	-4609
▁участники	-4610
обо	-4611
нули	-4612
▁Без	-4613
▁эпи	-4614
▁испыт	-4615
▁протя	-4616
ленного	-4617
▁Японии	-4618
▁превра	-4619
▁своими	-4620
ФА	-4621
▁Гор	-4622
▁ними	-4623
▁такая	-4624
▁сконча	-4625
▁культур	-4626
▁сообщения	-4627
лота	-4628
нера	-4629
чков	-4630
▁Нью	-4631
▁гро	-4632
▁цер	-4633
рованных	-4634
▁сторону	-4635
▁журналистов	-4636
▁руководство	-4637
▁ответственность	-4638
ждать	-4639
▁чуть	-4640
ставил	-4641
▁Обама	-4642
▁темпера	-4643
▁напомина	-4644
▁кандидатов	-4645
КО	-4646
Ко	-4647
▁поло	-4648
▁Ростов	-4649
▁концер	-4650
тического	-4651
▁голосования	-4652
▁Ши	-4653
▁эфи	-4654
▁верто	-4655
▁смогли	-4656
▁область	-4657
▁проектов	-4658
енса	-4659
▁соцс	-4660
▁утра	-4661
альных	-4662
▁аналити	-4663
▁сентябре	-4664
▁федерального	-4665
луа	-4666
▁вместо	-4667
▁баррель	-4668
▁беженцев	-4669
▁совершенно	-4670
мат	-4671
илла	-4672
кнов	-4673
▁бума	-4674
ложения	-4675
▁экстре	-4676
▁техники	-4677
▁договорен	-4678
▁потребова	-4679
▁российским	-4680
ДД	-4681
дний	-4682
▁App	-4683
тальян	-4684
▁болез	-4685
▁друга	-4686
▁музыка	-4687
▁победу	-4688
▁перевоз	-4689
кло	-4690
тона	-4691
льской	-4692
▁поезд	-4693
фициаль	-4694
▁Виктор	-4695
▁ноябре	-4696
▁отметили	-4697
▁официальный	-4698
Ком	-4699
голо	-4700
▁Бан	-4701
▁гум	-4702
▁сде	-4703
кануне	-4704
▁каких	-4705
▁страх	-4706
▁Белору	-4707
спорт	-4708
▁агре	-4709
▁накануне	-4710
пит	-4711
овое	-4712
стям	-4713
▁Вто	-4714
нется	-4715
эй	-4716
сна	-4717
▁Ад	-4718
март	-4719
▁раскры	-4720
▁кредитов	-4721
▁приходится	-4722
▁органы	-4723
▁позволяет	-4724
пру	-4725
▁Тре	-4726
▁гол	-4727
▁Кали	-4728
▁точно	-4729
Ве	-4730
нд	-4731
▁Итали	-4732
вшегося	-4733
тельству	-4734
▁Госдуму	-4735
▁октябре	-4736
▁полиция	-4737
▁создание	-4738
▁распростра	-4739
мира	-4740
роне	-4741
▁ущер	-4742
▁винов	-4743
▁машин	-4744
▁подня	-4745
▁худож	-4746
▁встрети	-4747
▁комменти	-4748
▁различных	-4749
ub	-4750
up	-4751
зн	-4752
▁Их	-4753
паса	-4754
ходе	-4755
щаться	-4756
▁самые	-4757
▁водитель	-4758
▁депутаты	-4759
▁становится	-4760
стаи	-4761
▁пожар	-4762
▁Лавров	-4763
▁делега	-4764
▁издание	-4765
▁граждани	-4766
▁должность	-4767
НД	-4768
ешь	-4769
зву	-4770
лец	-4771
мур	-4772
циям	-4773
▁Бывший	-4774
▁достав	-4775
едь	-4776
имуще	-4777
▁Эрдо	-4778
▁борьбы	-4779
▁проходит	-4780
▁бю	-4781
сного	-4782
▁твор	-4783
▁оконча	-4784
прежнему	-4785
▁системе	-4786
▁Reu	-4787
стить	-4788
вшийся	-4789
▁страну	-4790
▁военные	-4791
▁приостанов	-4792
вов	-4793
▁зву	-4794
▁люд	-4795
▁акаде	-4796
▁плохо	-4797
▁провели	-4798
▁проверки	-4799
▁финансов	-4800
говой	-4801
▁море	-4802
▁фрак	-4803
▁решил	-4804
▁шести	-4805
▁Reuters	-4806
ac	-4807
кому	-4808
мули	-4809
▁бал	-4810
ровой	-4811
▁матч	-4812
▁отда	-4813
▁сложи	-4814
тельном	-4815
▁удовлет	-4816
▁простран	-4817
▁рекорд	-4818
хранения	-4819
▁крупных	-4820
▁персона	-4821
лий	-4822
▁Кор	-4823
▁Пути	-4824
▁брен	-4825
▁Помимо	-4826
▁апреле	-4827
▁заплани	-4828
▁сколько	-4829
ссоциации	-4830
▁продолжает	-4831
менте	-4832
▁Китая	-4833
▁выска	-4834
▁докла	-4835
▁Брюссе	-4836
▁подряд	-4837
▁женщины	-4838
▁урегули	-4839
▁представителя	-4840
▁Сам	-4841
споль	-4842
▁злоу	-4843
▁опти	-4844
▁сутки	-4845
▁Мак	-4846
щению	-4847
▁визи	-4848
▁история	-4849
хан	-4850
чин	-4851
▁Кие	-4852
образ	-4853
▁Даль	-4854
▁ауди	-4855
зовать	-4856
▁думаю	-4857
▁задол	-4858
▁Пав	-4859
▁Побе	-4860
▁могу	-4861
менить	-4862
ложение	-4863
▁дальше	-4864
▁военного	-4865
▁отметила	-4866
▁родствен	-4867
емь	-4868
нику	-4869
▁Дру	-4870
▁дни	-4871
▁види	-4872
▁нега	-4873
▁контроль	-4874
▁рассказыва	-4875
кри	-4876
силь	-4877
▁Сооб	-4878
▁последнее	-4879
▁официально	-4880
ews	-4881
щик	-4882
▁ОП	-4883
анам	-4884
▁Спе	-4885
▁пак	-4886
правки	-4887
▁домов	-4888
▁втором	-4889
▁вечером	-4890
▁события	-4891
▁договори	-4892
лод	-4893
▁197	-4894
анией	-4895
ствием	-4896
▁регули	-4897
▁Конечно	-4898
▁признал	-4899
▁Несмотря	-4900
of	-4901
Бо	-4902
няют	-4903
едини	-4904
▁телеф	-4905
▁сезона	-4906
▁яв	-4907
▁Ско	-4908
▁зай	-4909
▁века	-4910
вшиеся	-4911
▁показ	-4912
▁грузов	-4913
▁руководителя	-4914
▁36	-4915
лайн	-4916
лдин	-4917
стры	-4918
▁Кара	-4919
▁музе	-4920
кратно	-4921
▁недавно	-4922
▁обеспечи	-4923
▁Московской	-4924
▁вд	-4925
▁1,5	-4926
иллари	-4927
▁кораб	-4928
▁расходы	-4929
▁губернатора	-4930
▁i	-4931
▁Ря	-4932
гани	-4933
▁Прав	-4934
▁фрон	-4935
▁цвет	-4936
▁учиты	-4937
▁регионах	-4938
▁республикан	-4939
▁расследование	-4940
овер	-4941
▁реша	-4942
▁учеб	-4943
▁симво	-4944
▁Министр	-4945
▁главного	-4946
▁причиной	-4947
▁происшествия	-4948
зий	-4949
▁Apple	-4950
▁главе	-4951
▁нашли	-4952
▁беспла	-4953
▁пересе	-4954
▁кампании	-4955
▁общества	-4956
онец	-4957
▁Вме	-4958
▁уро	-4959
против	-4960
▁патри	-4961
ведение	-4962
▁причина	-4963
▁преимуще	-4964
▁самостоя	-4965
▁подтвердил	-4966
▁сда	-4967
жению	-4968
▁раст	-4969
зербай	-4970
ченные	-4971
▁всему	-4972
▁непро	-4973
▁устро	-4974
▁основа	-4975
▁содержа	-4976
▁террористов	-4977
Это	-4978
рье	-4979
ссы	-4980
▁боле	-4981
▁косми	-4982
▁кроме	-4983
▁нашего	-4984
▁референ	-4985
▁труда	-4986
▁Хиллари	-4987
▁поступа	-4988
▁политике	-4989
▁регистра	-4990
тории	-4991
▁Вчера	-4992
▁Госпо	-4993
▁Елена	-4994
▁банки	-4995
▁делам	-4996
▁момента	-4997
▁предусматри	-4998
▁Вя	-4999
декса	-5000
еремо	-5001
▁остров	-5002
▁другими	-5003
▁издания	-5004
▁команду	-5005
▁обслужи	-5006
ТБ	-5007
tion	-5008
ваем	-5009
▁бен	-5010
услов	-5011
▁Свет	-5012
▁дерев	-5013
▁иметь	-5014
▁резер	-5015
▁экипа	-5016
▁экспе	-5017
▁провел	-5018
▁военной	-5019
▁кризиса	-5020
▁существует	-5021
АН	-5022
яр	-5023
сред	-5024
▁шах	-5025
▁акци	-5026
рована	-5027
▁первым	-5028
▁программу	-5029
зай	-5030
рай	-5031
▁сена	-5032
чности	-5033
▁посмо	-5034
▁добычи	-5035
▁заседания	-5036
▁сотрудничества	-5037
Не	-5038
гина	-5039
▁мно	-5040
коном	-5041
▁Анка	-5042
▁первых	-5043
▁тренер	-5044
КС	-5045
▁90	-5046
плуа	-5047
▁ощу	-5048
▁тол	-5049
барди	-5050
▁отре	-5051
▁мошен	-5052
▁Экспер	-5053
▁помочь	-5054
▁исключи	-5055
▁экспертов	-5056
▁управление	-5057
▁предложение	-5058
DA	-5059
писы	-5060
▁вести	-5061
▁сохра	-5062
▁провин	-5063
▁местных	-5064
лл	-5065
ваку	-5066
сила	-5067
▁Куз	-5068
▁Мне	-5069
▁выру	-5070
доволь	-5071
рованию	-5072
▁партия	-5073
▁характер	-5074
▁комплекса	-5075
▁группировки	-5076
▁американских	-5077
▁регионального	-5078
тим	-5079
▁Смо	-5080
▁войск	-5081
▁Всемир	-5082
▁прошед	-5083
тических	-5084
▁задержали	-5085
▁государственной	-5086
ght	-5087
▁Гру	-5088
ждает	-5089
▁жало	-5090
▁коали	-5091
▁введен	-5092
▁провод	-5093
ственную	-5094
▁выразил	-5095
тельности	-5096
!"	-5097
ber	-5098
бил	-5099
нам	-5100
Зени	-5101
акан	-5102
▁Само	-5103
▁Сочи	-5104
▁бога	-5105
Спарта	-5106
▁летом	-5107
▁служба	-5108
▁гуманитар	-5109
▁предприятий	-5110
ссу	-5111
фин	-5112
ъем	-5113
▁яр	-5114
▁меч	-5115
ковой	-5116
чений	-5117
▁старт	-5118
▁здраво	-5119
▁попыта	-5120
новременно	-5121
▁уг	-5122
▁Сан	-5123
▁нан	-5124
▁избе	-5125
▁адрес	-5126
▁затра	-5127
▁модели	-5128
зировать	-5129
▁Американ	-5130
▁Болгарии	-5131
▁аэропорта	-5132
▁государств	-5133
лым	-5134
ритет	-5135
▁Кита	-5136
▁гибе	-5137
▁пото	-5138
▁сезон	-5139
▁изобра	-5140
▁подвер	-5141
▁катастро	-5142
▁должности	-5143
таря	-5144
▁гре	-5145
ложить	-5146
▁Первый	-5147
▁рождения	-5148
▁принимать	-5149
▁обнаружили	-5150
Ре	-5151
▁ГУ	-5152
овал	-5153
▁бир	-5154
ктора	-5155
▁Дени	-5156
▁круг	-5157
▁лично	-5158
▁новую	-5159
▁найден	-5160
▁сообще	-5161
Йор	-5162
поте	-5163
рение	-5164
▁огня	-5165
льными	-5166
рового	-5167
шенных	-5168
▁групп	-5169
▁ресто	-5170
фикации	-5171
ческими	-5172
зербайдж	-5173
▁создания	-5174
▁программа	-5175
рица	-5176
чики	-5177
▁196	-5178
▁мин	-5179
▁Сбер	-5180
▁взят	-5181
▁смарт	-5182
▁умень	-5183
▁Правда	-5184
▁структуры	-5185
люс	-5186
овать	-5187
▁япон	-5188
▁стаби	-5189
▁эксплуа	-5190
▁университета	-5191
Ми	-5192
жеб	-5193
▁Хотя	-5194
▁боро	-5195
▁чаще	-5196
▁настро	-5197
тельстве	-5198
▁министерства	-5199
нений	-5200
стане	-5201
▁десять	-5202
▁прошли	-5203
▁отставку	-5204
id	-5205
▁Казах	-5206
▁обмен	-5207
▁привы	-5208
Газпром	-5209
ального	-5210
▁Власти	-5211
▁понять	-5212
▁сообщал	-5213
▁ближайшие	-5214
тал	-5215
▁сх	-5216
▁Павел	-5217
▁утром	-5218
вами	-5219
дила	-5220
▁ред	-5221
▁выбор	-5222
▁снима	-5223
▁Максим	-5224
▁модель	-5225
▁товаров	-5226
▁гендирек	-5227
▁компенса	-5228
▁экстреми	-5229
▁принадлежа	-5230
▁сна	-5231
ногие	-5232
тисти	-5233
▁Ната	-5234
▁тариф	-5235
▁будущем	-5236
▁историю	-5237
▁кажется	-5238
▁состояние	-5239
:4	-5240
рас	-5241
син	-5242
▁Ос	-5243
мого	-5244
ссию	-5245
ально	-5246
▁дать	-5247
▁доход	-5248
▁Полити	-5249
▁мнение	-5250
▁журналистам	-5251
АР	-5252
выше	-5253
риев	-5254
▁марки	-5255
▁укреп	-5256
▁числа	-5257
▁Италии	-5258
▁общего	-5259
▁статье	-5260
▁масштаб	-5261
НДР	-5262
вало	-5263
▁194	-5264
▁Ведь	-5265
▁жили	-5266
▁замо	-5267
▁выпуска	-5268
▁сопрово	-5269
▁корреспон	-5270
▁мигрантов	-5271
▁оказалось	-5272
дон	-5273
▁Уже	-5274
стоит	-5275
▁июле	-5276
▁Донец	-5277
▁Крыму	-5278
▁Дмитрия	-5279
▁августе	-5280
▁осужден	-5281
Се	-5282
▁ВВП	-5283
▁сче	-5284
раздо	-5285
▁запро	-5286
▁здравоо	-5287
▁среднем	-5288
▁условий	-5289
▁территорию	-5290
май	-5291
екре	-5292
сибир	-5293
▁назв	-5294
тников	-5295
▁эваку	-5296
▁малень	-5297
▁подроб	-5298
▁субъек	-5299
▁энерго	-5300
▁экологи	-5301
▁последний	-5302
▁последних	-5303
НИ	-5304
▁33	-5305
тков	-5306
васто	-5307
▁Кана	-5308
Единой	-5309
▁Основ	-5310
▁войска	-5311
▁компью	-5312
▁прошел	-5313
▁Мурманск	-5314
▁отказался	-5315
▁Республики	-5316
▁Зем	-5317
▁Иль	-5318
▁зво	-5319
▁Вяче	-5320
▁Стра	-5321
▁борту	-5322
▁Генера	-5323
▁крайне	-5324
▁появля	-5325
▁вопросов	-5326
▁значительно	-5327
гать	-5328
▁Суд	-5329
▁повед	-5330
ровании	-5331
▁появилась	-5332
▁специалисты	-5333
тое	-5334
лыша	-5335
▁хва	-5336
жидан	-5337
▁2008	-5338
▁вось	-5339
▁Татья	-5340
▁причем	-5341
▁развед	-5342
▁движение	-5343
ail	-5344
▁розы	-5345
▁чрез	-5346
▁совещ	-5347
▁расходов	-5348
and	-5349
wit	-5350
Ново	-5351
▁Эта	-5352
▁Рабо	-5353
стойчи	-5354
▁отдела	-5355
▁отделения	-5356
лил	-5357
шкин	-5358
терна	-5359
▁доля	-5360
▁любо	-5361
чность	-5362
▁житель	-5363
▁прогре	-5364
▁ставки	-5365
▁вариант	-5366
▁объедин	-5367
▁программе	-5368
эт	-5369
▁Шу	-5370
стин	-5371
▁мае	-5372
нефть	-5373
циони	-5374
▁подс	-5375
▁повер	-5376
▁контроля	-5377
▁развитию	-5378
▁экономической	-5379
ul	-5380
▁t	-5381
▁Мер	-5382
▁изъ	-5383
▁базе	-5384
▁появ	-5385
▁восемь	-5386
ственном	-5387
▁произошед	-5388
лке	-5389
▁Ком	-5390
▁преми	-5391
▁намерен	-5392
гни	-5393
▁Роман	-5394
▁замет	-5395
▁повре	-5396
▁систем	-5397
тельными	-5398
▁активов	-5399
▁инциден	-5400
▁позицию	-5401
▁предлагает	-5402
▁неоднократно	-5403
СА	-5404
Си	-5405
гия	-5406
хар	-5407
▁ого	-5408
произ	-5409
▁поро	-5410
▁Почему	-5411
▁палаты	-5412
▁порядке	-5413
▁собеседник	-5414
ент	-5415
пок	-5416
▁кв	-5417
▁смог	-5418
▁трени	-5419
▁гораздо	-5420
▁доходов	-5421
▁направления	-5422
АЗ	-5423
змом	-5424
стях	-5425
▁цели	-5426
ционно	-5427
▁оконч	-5428
▁избран	-5429
▁объявил	-5430
▁торговли	-5431
При	-5432
зни	-5433
▁ул	-5434
бера	-5435
мини	-5436
▁полно	-5437
▁проголо	-5438
▁телефон	-5439
▁стоимости	-5440
▁автомобили	-5441
ляет	-5442
▁Шта	-5443
▁ими	-5444
ченный	-5445
▁двумя	-5446
▁отказ	-5447
▁серии	-5448
▁Витали	-5449
▁взрыва	-5450
▁инстру	-5451
▁возника	-5452
▁возглави	-5453
▁оказалась	-5454
▁/	-5455
бина	-5456
степ	-5457
▁имя	-5458
▁мой	-5459
щений	-5460
▁Кады	-5461
▁ряда	-5462
станции	-5463
▁победы	-5464
▁употреб	-5465
пят	-5466
▁маль	-5467
▁первое	-5468
▁учреждения	-5469
,0	-5470
эта	-5471
кали	-5472
▁Нов	-5473
▁КНДР	-5474
▁глоб	-5475
▁печа	-5476
льному	-5477
▁весьма	-5478
▁посоль	-5479
▁итальян	-5480
▁отрасли	-5481
▁чемпион	-5482
▁оппозиции	-5483
▁сожалению	-5484
one	-5485
тием	-5486
чают	-5487
▁пит	-5488
▁дает	-5489
следов	-5490
▁вариан	-5491
▁интерн	-5492
▁кризис	-5493
▁разные	-5494
▁арбитра	-5495
▁аэропорту	-5496
▁миллиардов	-5497
▁предоставля	-5498
фы	-5499
гий	-5500
дают	-5501
▁000	-5502
дации	-5503
▁зоне	-5504
▁стрель	-5505
▁квартале	-5506
▁середине	-5507
▁эксперти	-5508
▁исследова	-5509
▁внутренних	-5510
▁фактически	-5511
ам	-5512
▁Фон	-5513
▁множе	-5514
▁другим	-5515
▁спокой	-5516
▁закончи	-5517
▁обеспечить	-5518
дят	-5519
лово	-5520
▁ува	-5521
близи	-5522
▁водо	-5523
▁деше	-5524
▁полуо	-5525
▁свыше	-5526
▁сумма	-5527
▁немного	-5528
▁основной	-5529
▁подчерки	-5530
▁статисти	-5531
▁организов	-5532
▁устанавли	-5533
ань	-5534
▁37	-5535
лига	-5536
▁союза	-5537
▁пережи	-5538
▁каждого	-5539
▁правило	-5540
▁прибыли	-5541
▁источники	-5542
▁очередной	-5543
▁пострадали	-5544
▁собирается	-5545
▁Рез	-5546
▁вру	-5547
выбор	-5548
▁днем	-5549
▁наме	-5550
▁людям	-5551
▁подразде	-5552
▁прокуратуры	-5553
▁американского	-5554
щают	-5555
▁спекта	-5556
▁услуги	-5557
▁большая	-5558
▁здоровья	-5559
▁клиентов	-5560
▁отметить	-5561
одо	-5562
▁Ее	-5563
глий	-5564
▁Чеч	-5565
▁Изра	-5566
▁госс	-5567
▁земе	-5568
альные	-5569
▁набра	-5570
▁разде	-5571
премьер	-5572
▁отрица	-5573
▁церемо	-5574
▁напомнил	-5575
лье	-5576
щика	-5577
▁рав	-5578
▁жить	-5579
▁Киеве	-5580
▁супру	-5581
▁школь	-5582
▁выполни	-5583
▁разбира	-5584
тельность	-5585
▁документ	-5586
нау	-5587
шек	-5588
▁Ак	-5589
бург	-5590
теры	-5591
▁Газ	-5592
▁Заха	-5593
▁живу	-5594
▁новое	-5595
▁пресе	-5596
▁контрак	-5597
▁игру	-5598
▁оформ	-5599
▁сигна	-5600
▁начать	-5601
▁призыва	-5602
▁проекты	-5603
▁требова	-5604
▁контракт	-5605
▁протяжении	-5606
гин	-5607
худ	-5608
гова	-5609
жным	-5610
зора	-5611
ведом	-5612
▁Русс	-5613
▁Ольга	-5614
▁владе	-5615
▁вынес	-5616
▁члена	-5617
▁Андрея	-5618
▁боевых	-5619
▁задача	-5620
▁работал	-5621
▁степени	-5622
▁Сотрудни	-5623
▁задолжен	-5624
▁директоров	-5625
▁политической	-5626
кур	-5627
втра	-5628
▁Тай	-5629
witter	-5630
▁динами	-5631
▁допинг	-5632
▁пункта	-5633
конструк	-5634
▁местные	-5635
▁поддержке	-5636
▁чемпионате	-5637
▁использования	-5638
кут	-5639
жают	-5640
ремя	-5641
▁Кан	-5642
▁Петр	-5643
▁тюрь	-5644
▁Алексея	-5645
▁главное	-5646
▁политика	-5647
▁относительно	-5648
▁соответственно	-5649
мера	-5650
▁Коре	-5651
▁Мари	-5652
▁вете	-5653
▁диск	-5654
▁льго	-5655
▁руки	-5656
▁вышел	-5657
▁навер	-5658
▁нанес	-5659
▁путем	-5660
▁Севасто	-5661
▁прибыль	-5662
▁начальник	-5663
▁сложности	-5664
▁проведение	-5665
▁социальных	-5666
ай	-5667
-15	-5668
шев	-5669
жная	-5670
понен	-5671
▁режиме	-5672
▁называют	-5673
▁обеспечения	-5674
бок	-5675
пись	-5676
дания	-5677
▁Дональд	-5678
▁международной	-5679
ГУ	-5680
▁Ор	-5681
нина	-5682
▁Лит	-5683
▁сбо	-5684
▁Здесь	-5685
▁Новый	-5686
▁номер	-5687
▁ранен	-5688
▁Причем	-5689
▁обычно	-5690
▁второго	-5691
▁требует	-5692
▁программ	-5693
▁экономике	-5694
▁вет	-5695
▁оби	-5696
▁2010	-5697
▁выяв	-5698
▁похи	-5699
▁имущества	-5700
ИБ	-5701
бий	-5702
ровка	-5703
скоре	-5704
швили	-5705
▁удар	-5706
валась	-5707
летняя	-5708
▁Twitter	-5709
Исламское	-5710
▁заниматься	-5711
▁инвестиций	-5712
gle	-5713
Про	-5714
чке	-5715
▁Даже	-5716
нодоро	-5717
▁Многие	-5718
▁онлайн	-5719
▁адвокат	-5720
▁Донбассе	-5721
▁странами	-5722
▁телеканал	-5723
▁Министерство	-5724
▁промышленности	-5725
юн	-5726
хом	-5727
▁Ст	-5728
▁Гра	-5729
▁удоб	-5730
анного	-5731
▁эфире	-5732
▁продви	-5733
▁привати	-5734
▁сначала	-5735
▁странице	-5736
▁украинских	-5737
ОК	-5738
▁СП	-5739
бить	-5740
рядок	-5741
▁забы	-5742
▁смен	-5743
▁едино	-5744
▁далеко	-5745
▁напада	-5746
▁регуля	-5747
▁арестов	-5748
▁предмет	-5749
▁неожидан	-5750
▁составит	-5751
▁американской	-5752
ks	-5753
без	-5754
▁дал	-5755
▁двое	-5756
▁пожи	-5757
▁Анато	-5758
▁пришли	-5759
▁решить	-5760
▁сезоне	-5761
нос	-5762
эль	-5763
наче	-5764
▁Слу	-5765
ленно	-5766
мести	-5767
▁Вален	-5768
▁прошло	-5769
▁ученые	-5770
▁вопросу	-5771
▁событий	-5772
▁миллиарда	-5773
▁руководства	-5774
▁ФР	-5775
▁Воло	-5776
альный	-5777
которы	-5778
▁автор	-5779
▁прото	-5780
▁самми	-5781
▁хокке	-5782
▁отдыха	-5783
▁бомбарди	-5784
▁предстоя	-5785
▁заседание	-5786
▁получения	-5787
▁34	-5788
дует	-5789
▁знаю	-5790
▁позже	-5791
▁образова	-5792
▁сведения	-5793
▁участием	-5794
▁государственных	-5795
Ку	-5796
дки	-5797
тую	-5798
▁Goo	-5799
▁зер	-5800
ершен	-5801
▁виру	-5802
▁трлн	-5803
▁стара	-5804
▁минима	-5805
▁предстоит	-5806
▁Правительство	-5807
цеп	-5808
метим	-5809
стных	-5810
▁сама	-5811
▁редак	-5812
▁читать	-5813
▁Институ	-5814
▁городской	-5815
▁зависимости	-5816
▁топ	-5817
анная	-5818
сторо	-5819
▁каза	-5820
▁логи	-5821
▁стоя	-5822
▁Запад	-5823
▁Мария	-5824
▁траге	-5825
▁хозяйства	-5826
▁проголосова	-5827
▁специалистов	-5828
?"	-5829
ПК	-5830
нила	-5831
▁150	-5832
▁2009	-5833
▁июне	-5834
вающих	-5835
▁семья	-5836
▁Кстати	-5837
▁литера	-5838
▁студен	-5839
▁показыва	-5840
▁туристов	-5841
▁госпитали	-5842
▁территори	-5843
ос	-5844
▁St	-5845
ation	-5846
мериз	-5847
▁Вене	-5848
▁диви	-5849
валось	-5850
▁впере	-5851
▁инжен	-5852
▁выхода	-5853
▁правил	-5854
▁непосред	-5855
▁абсолютно	-5856
ADA	-5857
▁38	-5858
шены	-5859
▁Air	-5860
▁Ники	-5861
▁нара	-5862
▁пояс	-5863
дивиду	-5864
▁ведет	-5865
▁новым	-5866
▁класси	-5867
▁команд	-5868
▁прошла	-5869
▁команди	-5870
▁лишения	-5871
▁граждане	-5872
▁направлении	-5873
▁украинского	-5874
душ	-5875
ьев	-5876
стно	-5877
голов	-5878
▁прай	-5879
▁жилья	-5880
▁можем	-5881
▁правда	-5882
▁конкурс	-5883
▁мужчины	-5884
▁депутата	-5885
▁нарушение	-5886
▁подготовки	-5887
%).	-5888
мут	-5889
аней	-5890
носи	-5891
тики	-5892
тную	-5893
шено	-5894
вычай	-5895
▁Прем	-5896
▁могла	-5897
▁уника	-5898
▁ввести	-5899
▁ожидается	-5900
▁политических	-5901
▁вещи	-5902
▁хода	-5903
▁Ленин	-5904
▁Такое	-5905
▁краси	-5906
▁сериа	-5907
▁лидеров	-5908
▁ранения	-5909
▁предвыбор	-5910
▁федерации	-5911
▁губернатор	-5912
▁руководством	-5913
джа	-5914
игры	-5915
допин	-5916
овали	-5917
▁любы	-5918
▁невы	-5919
▁камер	-5920
▁Турция	-5921
▁впечат	-5922
▁больницу	-5923
ПРФ	-5924
ТАСС	-5925
▁бед	-5926
▁инте	-5927
▁ошиб	-5928
▁вовсе	-5929
▁Руково	-5930
▁Только	-5931
▁зарубе	-5932
▁опровер	-5933
▁состава	-5934
▁Компания	-5935
▁совместно	-5936
▁увеличить	-5937
▁заинтересов	-5938
▁Sp	-5939
▁Чем	-5940
ющиеся	-5941
▁дефици	-5942
▁стреми	-5943
▁усилия	-5944
▁временем	-5945
▁текущего	-5946
▁кандидата	-5947
▁технологий	-5948
▁общественного	-5949
oc	-5950
ЕК	-5951
газ	-5952
▁Исп	-5953
▁секу	-5954
▁Ирана	-5955
▁разно	-5956
▁трудно	-5957
▁границы	-5958
▁правила	-5959
▁турнира	-5960
▁экспорт	-5961
▁Политика	-5962
▁которыми	-5963
▁+	-5964
мяти	-5965
шими	-5966
▁ано	-5967
▁час	-5968
ордина	-5969
▁дизай	-5970
▁настаи	-5971
▁спустя	-5972
▁выросла	-5973
▁уточнил	-5974
▁отказыва	-5975
▁привести	-5976
▁располага	-5977
▁потенциаль	-5978
два	-5979
▁Нор	-5980
▁зара	-5981
▁Брази	-5982
▁Леони	-5983
▁хотел	-5984
▁ракеты	-5985
▁счетом	-5986
▁доллара	-5987
▁указыва	-5988
▁европейских	-5989
реза	-5990
шают	-5991
жется	-5992
▁горя	-5993
▁крым	-5994
▁плат	-5995
▁члены	-5996
▁здание	-5997
▁выплаты	-5998
▁конфлик	-5999
▁сторона	-6000
▁возрасте	-6001
▁изменений	-6002
▁произошла	-6003
▁установить	-6004
лаг	-6005
вшую	-6006
▁400	-6007
▁зве	-6008
▁Авто	-6009
▁Затем	-6010
▁статьи	-6011
▁Отметим	-6012
▁выпусти	-6013
▁получит	-6014
▁столько	-6015
▁добиться	-6016
▁назначен	-6017
▁проверку	-6018
▁продуктов	-6019
вич	-6020
▁Ch	-6021
куда	-6022
▁cap	-6023
▁Бли	-6024
▁Дей	-6025
▁Пол	-6026
▁пом	-6027
ровок	-6028
теров	-6029
▁испы	-6030
▁годом	-6031
▁сохран	-6032
▁Украину	-6033
▁конкурса	-6034
▁настоящий	-6035
▁последствия	-6036
▁участвовать	-6037
Лу	-6038
рат	-6039
эро	-6040
нике	-6041
▁вес	-6042
ствий	-6043
▁Фили	-6044
▁наша	-6045
торами	-6046
▁Google	-6047
▁Депута	-6048
▁нагруз	-6049
▁округа	-6050
▁отправ	-6051
▁Соединен	-6052
▁российском	-6053
▁обстоятельства	-6054
цах	-6055
енью	-6056
▁ОАО	-6057
▁ухуд	-6058
▁лучших	-6059
▁продаж	-6060
▁северо	-6061
Роснефти	-6062
▁главным	-6063
▁музыкан	-6064
▁примеру	-6065
▁появились	-6066
▁противостоя	-6067
лик	-6068
▁пове	-6069
▁часа	-6070
▁блоки	-6071
▁полез	-6072
▁caption	-6073
▁Виталий	-6074
▁вернуть	-6075
▁связано	-6076
▁мероприятий	-6077
▁международного	-6078
%),	-6079
▁II	-6080
▁Арм	-6081
▁хоть	-6082
руются	-6083
▁группе	-6084
Известиям	-6085
▁праймериз	-6086
▁показатель	-6087
▁технологии	-6088
збе	-6089
зен	-6090
дерни	-6091
▁Керри	-6092
▁рулем	-6093
▁сроки	-6094
▁газеты	-6095
▁зависит	-6096
▁снижения	-6097
▁Новосибир	-6098
-5	-6099
cop	-6100
зами	-6101
сант	-6102
▁эмо	-6103
аниях	-6104
▁Вести	-6105
▁Иванов	-6106
▁оружие	-6107
▁пройти	-6108
совершен	-6109
тировать	-6110
▁городов	-6111
▁индивиду	-6112
▁занимается	-6113
комо	-6114
тное	-6115
▁Нет	-6116
благо	-6117
▁изъя	-6118
ографи	-6119
эконом	-6120
▁Кубка	-6121
▁митин	-6122
▁пациен	-6123
ступления	-6124
▁процесса	-6125
▁Ги	-6126
▁ам	-6127
▁Кирил	-6128
▁актер	-6129
акануне	-6130
▁говоря	-6131
▁гривен	-6132
▁оптими	-6133
▁сформи	-6134
▁сделали	-6135
▁политику	-6136
▁положение	-6137
рги	-6138
вшем	-6139
ехал	-6140
сный	-6141
сных	-6142
суди	-6143
▁ман	-6144
енный	-6145
ложил	-6146
гового	-6147
▁север	-6148
▁субси	-6149
▁диплома	-6150
▁возраста	-6151
▁здравоохранения	-6152
-4	-6153
▁(3	-6154
лили	-6155
▁Сте	-6156
работ	-6157
▁суме	-6158
▁мигра	-6159
▁прока	-6160
▁честь	-6161
▁памяти	-6162
▁главных	-6163
▁выступил	-6164
▁пассажир	-6165
▁существу	-6166
Петербурге	-6167
▁наказание	-6168
▁Российский	-6169
60	-6170
сист	-6171
▁Яро	-6172
стрен	-6173
▁англий	-6174
▁грузови	-6175
▁ориенти	-6176
▁Интернет	-6177
▁качества	-6178
▁телеканала	-6179
▁обязательно	-6180
Ло	-6181
жо	-6182
лая	-6183
ИБДД	-6184
цкий	-6185
▁вряд	-6186
▁заказ	-6187
▁входит	-6188
▁делает	-6189
▁завода	-6190
▁Накануне	-6191
▁опубликован	-6192
эр	-6193
зыв	-6194
руя	-6195
шку	-6196
▁Ир	-6197
лист	-6198
люка	-6199
рачи	-6200
тиву	-6201
▁Оде	-6202
▁убы	-6203
▁глубо	-6204
▁покры	-6205
▁сосед	-6206
льского	-6207
▁Михаила	-6208
▁спектак	-6209
▁Официаль	-6210
▁конфликт	-6211
▁километров	-6212
▁президенту	-6213
▁утверждает	-6214
▁финансовых	-6215
▁Bl	-6216
енных	-6217
метров	-6218
▁ипоте	-6219
▁оборо	-6220
▁доходы	-6221
▁концеп	-6222
▁столкнов	-6223
▁провинции	-6224
▁чиновников	-6225
▁Министерства	-6226
Ар	-6227
▁·	-6228
ard	-6229
гло	-6230
пой	-6231
енные	-6232
чными	-6233
▁нема	-6234
▁цене	-6235
черний	-6236
▁взрос	-6237
▁рубеж	-6238
▁автома	-6239
▁выбира	-6240
▁попытки	-6241
▁пунктов	-6242
▁вернуться	-6243
▁пострадавших	-6244
25	-6245
▁Дэ	-6246
рели	-6247
▁Джо	-6248
лябин	-6249
праши	-6250
▁миру	-6251
стической	-6252
▁находился	-6253
▁проводить	-6254
Ан	-6255
дри	-6256
▁75	-6257
опера	-6258
▁КПРФ	-6259
▁лиши	-6260
▁целе	-6261
▁подклю	-6262
▁Наталья	-6263
▁порядок	-6264
▁президенты	-6265
▁предварительным	-6266
пова	-6267
ссор	-6268
тров	-6269
▁базы	-6270
▁взгляд	-6271
▁мужчин	-6272
▁налогов	-6273
▁ребенок	-6274
▁случаев	-6275
▁квартиры	-6276
▁насколько	-6277
▁инвесторов	-6278
▁крупнейших	-6279
▁находились	-6280
.)	-6281
▁Зна	-6282
▁ран	-6283
збеки	-6284
ковых	-6285
ранов	-6286
Газета	-6287
шается	-6288
▁болель	-6289
▁прогноз	-6290
▁согласов	-6291
▁бизнесмен	-6292
▁отсутствие	-6293
▁украинской	-6294
▁выступления	-6295
▁сегодняшний	-6296
gr	-6297
будь	-6298
жнем	-6299
▁мяч	-6300
щенко	-6301
▁День	-6302
▁кому	-6303
▁моря	-6304
▁оказ	-6305
оборот	-6306
▁замен	-6307
▁квали	-6308
▁концу	-6309
▁удиви	-6310
▁местах	-6311
▁радика	-6312
▁применя	-6313
▁конститу	-6314
▁Азербайдж	-6315
▁антидопин	-6316
▁ведомстве	-6317
выми	-6318
жном	-6319
можен	-6320
▁столь	-6321
▁переми	-6322
▁револю	-6323
▁сделки	-6324
▁ограничи	-6325
▁повышение	-6326
▁чрезвычай	-6327
▁исследований	-6328
▁финансирования	-6329
Ра	-6330
гон	-6331
▁уж	-6332
▁меда	-6333
▁нему	-6334
тивным	-6335
▁закуп	-6336
▁приез	-6337
▁правам	-6338
▁падения	-6339
▁интересы	-6340
▁проблему	-6341
ал	-6342
▁€	-6343
тябрь	-6344
формы	-6345
▁хочу	-6346
энерго	-6347
▁счета	-6348
▁модерни	-6349
▁мошенни	-6350
▁ограничения	-6351
▁пользователей	-6352
МС	-6353
▁лу	-6354
кель	-6355
сные	-6356
тете	-6357
щена	-6358
▁сег	-6359
контро	-6360
▁буква	-6361
▁корот	-6362
▁кросс	-6363
▁суммы	-6364
▁аварии	-6365
▁религи	-6366
седатель	-6367
▁Соответ	-6368
▁колонии	-6369
президент	-6370
▁последова	-6371
▁конференции	-6372
li	-6373
▁ВТБ	-6374
халин	-6375
▁чита	-6376
летней	-6377
▁земли	-6378
▁резко	-6379
▁Второй	-6380
▁поможет	-6381
▁прошлой	-6382
▁Северной	-6383
▁подписал	-6384
▁министров	-6385
▁продолжают	-6386
дино	-6387
рике	-6388
вшейся	-6389
▁этапе	-6390
▁встречу	-6391
▁сообщение	-6392
▁исключительно	-6393
лив	-6394
мос	-6395
Русс	-6396
лете	-6397
▁бри	-6398
блоки	-6399
креди	-6400
ляция	-6401
▁разо	-6402
▁супер	-6403
▁сделан	-6404
▁доброво	-6405
▁Екатерин	-6406
▁убийстве	-6407
▁Представитель	-6408
кол	-6409
ука	-6410
ссив	-6411
▁виз	-6412
▁опы	-6413
ловые	-6414
▁экра	-6415
▁расти	-6416
▁Вместе	-6417
▁Извест	-6418
▁договор	-6419
вяз	-6420
дне	-6421
▁55	-6422
▁Ше	-6423
roup	-6424
▁брон	-6425
▁идут	-6426
▁самоу	-6427
Новости	-6428
▁акцион	-6429
▁большое	-6430
▁запусти	-6431
▁многочис	-6432
▁сообщают	-6433
▁авиакомпании	-6434
▁инфраструктуры	-6435
ra	-6436
▁Фа	-6437
шина	-6438
▁195	-6439
▁Ман	-6440
▁ока	-6441
ргани	-6442
щихся	-6443
▁Банк	-6444
▁проз	-6445
▁вырос	-6446
▁жертв	-6447
▁огонь	-6448
▁мастер	-6449
▁назвать	-6450
▁основных	-6451
▁полагает	-6452
▁нарушений	-6453
▁следующий	-6454
▁дополнительные	-6455
ТС	-6456
бах	-6457
▁Зи	-6458
емая	-6459
▁Жен	-6460
right	-6461
▁акту	-6462
▁путь	-6463
▁спас	-6464
▁сути	-6465
ждению	-6466
стовер	-6467
▁Пресс	-6468
▁оправ	-6469
▁Узбеки	-6470
▁назвали	-6471
▁предела	-6472
▁обществен	-6473
▁Сообщается	-6474
▁выяснилось	-6475
▁количества	-6476
▁Информационное	-6477
od	-6478
▁ез	-6479
▁чис	-6480
торая	-6481
▁Бель	-6482
▁Полу	-6483
▁вклад	-6484
▁посту	-6485
которые	-6486
▁Кузнец	-6487
▁решений	-6488
▁столкну	-6489
▁название	-6490
До	-6491
ФО	-6492
рыва	-6493
▁моз	-6494
▁семи	-6495
имость	-6496
▁Южной	-6497
▁потра	-6498
▁главой	-6499
▁партне	-6500
▁причин	-6501
▁отличие	-6502
▁произой	-6503
▁пройдут	-6504
▁российская	-6505
▁избирателей	-6506
вит	-6507
▁42	-6508
▁люб	-6509
▁2000	-6510
▁Волго	-6511
▁Улюка	-6512
▁выйти	-6513
рованные	-6514
▁высказа	-6515
▁ответил	-6516
▁просьбой	-6517
▁противоре	-6518
▁родителей	-6519
▁заключения	-6520
Кон	-6521
ьми	-6522
copy	-6523
зить	-6524
пода	-6525
тору	-6526
▁Аса	-6527
▁Вар	-6528
▁вдо	-6529
▁Антон	-6530
▁ГИБДД	-6531
▁Через	-6532
▁насле	-6533
▁Кремля	-6534
▁аварий	-6535
▁начало	-6536
▁частью	-6537
▁Премьер	-6538
▁городах	-6539
▁животных	-6540
▁убийства	-6541
▁сирийской	-6542
▁сохранить	-6543
▁начальника	-6544
щены	-6545
дером	-6546
тацию	-6547
▁copy	-6548
▁Коро	-6549
▁захо	-6550
▁возле	-6551
▁держа	-6552
▁указа	-6553
▁другом	-6554
▁авиации	-6555
▁потерпе	-6556
▁договора	-6557
▁отказались	-6558
▁использование	-6559
все	-6560
еву	-6561
мед	-6562
ряс	-6563
слан	-6564
цова	-6565
▁бесе	-6566
▁каким	-6567
▁насто	-6568
▁предна	-6569
▁случаях	-6570
▁экспери	-6571
▁занимает	-6572
▁капитала	-6573
▁местного	-6574
▁copyright	-6575
▁чемпионов	-6576
:5	-6577
ИЛ	-6578
лку	-6579
дние	-6580
▁Кто	-6581
▁взы	-6582
▁Речь	-6583
▁долг	-6584
▁туда	-6585
анейро	-6586
▁Киева	-6587
▁граду	-6588
▁заслу	-6589
▁угроз	-6590
▁инвали	-6591
начально	-6592
▁игроков	-6593
▁подрост	-6594
▁определя	-6595
▁пропаган	-6596
▁работников	-6597
11	-6598
▁въ	-6599
▁кг	-6600
поля	-6601
чева	-6602
▁шоу	-6603
ехать	-6604
▁бюро	-6605
▁обой	-6606
▁плен	-6607
нибудь	-6608
▁всеми	-6609
▁ночью	-6610
▁выпуск	-6611
▁гибели	-6612
▁Экономи	-6613
▁большую	-6614
▁Возможно	-6615
дти	-6616
зон	-6617
сан	-6618
нито	-6619
▁Дже	-6620
▁син	-6621
влека	-6622
▁лета	-6623
▁осна	-6624
▁резо	-6625
Газпро	-6626
▁Спорт	-6627
▁взять	-6628
▁иначе	-6629
▁истре	-6630
▁тепло	-6631
▁списка	-6632
▁материалы	-6633
▁скончался	-6634
▁следствие	-6635
▁ассоциации	-6636
▁железнодоро	-6637
кров	-6638
снаб	-6639
твра	-6640
▁жду	-6641
питан	-6642
▁гром	-6643
▁ждет	-6644
▁Благо	-6645
▁улицы	-6646
полномо	-6647
▁генерал	-6648
▁другого	-6649
▁команде	-6650
▁полицию	-6651
спользова	-6652
▁инфляции	-6653
▁подготовке	-6654
сор	-6655
чув	-6656
▁39	-6657
нару	-6658
▁пле	-6659
видеть	-6660
центра	-6661
▁таком	-6662
▁Минфин	-6663
▁облада	-6664
градской	-6665
▁Эксперты	-6666
▁показали	-6667
▁прогнози	-6668
▁сотрудник	-6669
Моск	-6670
▁Поз	-6671
▁Сем	-6672
▁игр	-6673
▁оте	-6674
твори	-6675
▁дета	-6676
▁запла	-6677
▁общем	-6678
▁ремонт	-6679
▁Татьяна	-6680
▁перспек	-6681
▁экстрен	-6682
▁Евросоюза	-6683
▁напоминает	-6684
▁заболевания	-6685
зок	-6686
мах	-6687
рья	-6688
▁Ху	-6689
▁ды	-6690
Если	-6691
ницей	-6692
летряс	-6693
▁Ирина	-6694
▁нужда	-6695
▁планы	-6696
Жанейро	-6697
▁резолю	-6698
▁смартф	-6699
▁влияние	-6700
▁картины	-6701
▁коррупции	-6702
▁следующем	-6703
▁правительстве	-6704
iv	-6705
сци	-6706
▁чт	-6707
жены	-6708
лева	-6709
▁уме	-6710
разви	-6711
▁исче	-6712
▁хран	-6713
▁Петра	-6714
▁вошли	-6715
▁итоги	-6716
▁семье	-6717
▁форме	-6718
▁расчет	-6719
▁спроса	-6720
▁боевики	-6721
▁Господин	-6722
▁вспомина	-6723
▁подобные	-6724
▁устройства	-6725
te	-6726
стю	-6727
▁$3	-6728
▁Ры	-6729
вига	-6730
стал	-6731
нести	-6732
льский	-6733
▁актри	-6734
▁страш	-6735
ционали	-6736
▁пожара	-6737
▁отстран	-6738
▁означает	-6739
▁поставки	-6740
▁журналист	-6741
▁планируют	-6742
▁Саудовской	-6743
▁источников	-6744
▁подтвердили	-6745
▁региональных	-6746
▁обязательства	-6747
▁44	-6748
льдо	-6749
▁Джа	-6750
▁Фин	-6751
овыми	-6752
▁Дело	-6753
▁мона	-6754
▁запрет	-6755
▁появится	-6756
▁потребитель	-6757
зья	-6758
тит	-6759
▁типа	-6760
▁солда	-6761
▁готова	-6762
▁месторо	-6763
▁фракции	-6764
правления	-6765
▁проходят	-6766
▁пытаются	-6767
▁справедли	-6768
▁Белоруссии	-6769
Ме	-6770
От	-6771
ess	-6772
▁iP	-6773
▁адре	-6774
▁газо	-6775
▁рода	-6776
▁тему	-6777
▁Китае	-6778
▁брать	-6779
▁знает	-6780
▁новом	-6781
▁путеше	-6782
▁угрозы	-6783
хождения	-6784
▁Вечерний	-6785
▁выполнен	-6786
▁комиссия	-6787
▁направля	-6788
▁выступает	-6789
▁предотвра	-6790
Бе	-6791
вис	-6792
▁48	-6793
чали	-6794
▁ОПЕК	-6795
▁муль	-6796
▁разу	-6797
сульта	-6798
▁дорог	-6799
▁данном	-6800
▁народа	-6801
▁наруши	-6802
▁главной	-6803
▁Дональда	-6804
▁кандидат	-6805
▁пообещал	-6806
▁ведомство	-6807
▁положения	-6808
▁полицейские	-6809
▁существенно	-6810
▁самостоятельно	-6811
писи	-6812
енной	-6813
▁досто	-6814
▁такую	-6815
▁девять	-6816
▁объема	-6817
▁рабочих	-6818
▁объяснил	-6819
▁передачи	-6820
▁самолетов	-6821
▁социально	-6822
конференции	-6823
▁одновременно	-6824
▁международным	-6825
▁Им	-6826
стую	-6827
▁Шве	-6828
▁2020	-6829
▁веще	-6830
▁разы	-6831
▁сеть	-6832
▁диску	-6833
▁леген	-6834
▁посад	-6835
▁храни	-6836
льности	-6837
▁внешне	-6838
▁защите	-6839
▁остались	-6840
▁компанией	-6841
▁нападения	-6842
▁отношение	-6843
-7	-6844
www	-6845
вана	-6846
▁зака	-6847
послед	-6848
▁Григо	-6849
▁приро	-6850
▁Василь	-6851
▁Евгения	-6852
▁электри	-6853
▁качество	-6854
▁отправля	-6855
▁появился	-6856
▁американский	-6857
▁зе	-6858
емым	-6859
порта	-6860
▁завод	-6861
▁знают	-6862
▁корпу	-6863
▁недав	-6864
▁Предпо	-6865
▁власть	-6866
▁холдин	-6867
▁материалов	-6868
▁официальном	-6869
гал	-6870
дева	-6871
думы	-6872
щали	-6873
▁Tim	-6874
▁шаг	-6875
▁хоте	-6876
▁декла	-6877
▁любов	-6878
▁новая	-6879
▁Париже	-6880
▁природ	-6881
▁справи	-6882
рованный	-6883
▁Валерий	-6884
▁подозре	-6885
▁психологи	-6886
▁городского	-6887
▁производителей	-6888
БУ	-6889
гие	-6890
чук	-6891
даго	-6892
▁Геор	-6893
▁Иран	-6894
▁Татар	-6895
▁группу	-6896
▁нелега	-6897
тические	-6898
▁Лондоне	-6899
▁Полиция	-6900
Петербург	-6901
▁говорили	-6902
▁подобных	-6903
▁оборудования	-6904
▁сотрудничество	-6905
ik	-6906
Ки	-6907
Лен	-6908
▁ВВС	-6909
рание	-6910
ристи	-6911
▁Дума	-6912
▁риск	-6913
тивное	-6914
▁курса	-6915
▁школе	-6916
▁каждой	-6917
▁номина	-6918
▁статус	-6919
▁показал	-6920
▁успешно	-6921
▁полицейских	-6922
юк	-6923
ака	-6924
▁СН	-6925
куро	-6926
рена	-6927
▁Свя	-6928
▁май	-6929
▁2007	-6930
▁идти	-6931
▁спрос	-6932
▁задержаны	-6933
▁Константин	-6934
▁назначения	-6935
▁московского	-6936
РО	-6937
▁ум	-6938
Авто	-6939
днев	-6940
щими	-6941
▁зале	-6942
▁трое	-6943
ведений	-6944
▁Северо	-6945
▁завтра	-6946
▁добавля	-6947
▁компози	-6948
▁ходатай	-6949
▁бороться	-6950
▁внимания	-6951
▁приобрет	-6952
▁режиссер	-6953
▁терактов	-6954
▁источника	-6955
▁обратился	-6956
▁генеральный	-6957
▁недвижимости	-6958
Кра	-6959
▁ВС	-6960
▁уз	-6961
горе	-6962
тила	-6963
▁Али	-6964
главы	-6965
сятся	-6966
▁пило	-6967
▁тела	-6968
▁Group	-6969
▁Эрдоган	-6970
▁устойчи	-6971
▁поправки	-6972
▁поколения	-6973
▁Олимпийских	-6974
▁прекращения	-6975
жную	-6976
▁зим	-6977
▁Пара	-6978
▁внед	-6979
▁сына	-6980
Москва	-6981
▁отдел	-6982
▁роман	-6983
ченного	-6984
▁считается	-6985
▁полномочий	-6986
▁требований	-6987
▁заместителя	-6988
Па	-6989
дум	-6990
гает	-6991
▁Муж	-6992
▁аук	-6993
▁зоны	-6994
говари	-6995
▁купить	-6996
емонстри	-6997
▁банкрот	-6998
▁никакого	-6999
▁обстанов	-7000
▁предназна	-7001
▁реконструк	-7002
▁прокуратура	-7003
▁[	-7004
▁АО	-7005
жить	-7006
утко	-7007
▁ЦИК	-7008
тника	-7009
▁дали	-7010
▁блока	-7011
▁тенни	-7012
▁постеп	-7013
▁застрой	-7014
▁органах	-7015
▁отказаться	-7016
▁соревнований	-7017
▁47	-7018
▁гря	-7019
▁попал	-7020
▁Европу	-7021
▁играть	-7022
▁Меркель	-7023
▁молодых	-7024
▁намерены	-7025
▁категории	-7026
-8	-7027
ьи	-7028
hone	-7029
лога	-7030
лями	-7031
серва	-7032
▁обру	-7033
оружен	-7034
ющийся	-7035
▁Органи	-7036
▁издели	-7037
▁коррек	-7038
▁развер	-7039
▁вопроса	-7040
▁россияне	-7041
▁серьезно	-7042
▁продолжается	-7043
шко	-7044
▁вышли	-7045
▁отмет	-7046
▁очков	-7047
▁целях	-7048
▁поверх	-7049
▁большим	-7050
▁острова	-7051
▁избежать	-7052
▁вооруженных	-7053
▁военнослужащих	-7054
ХЛ	-7055
бек	-7056
зия	-7057
нял	-7058
рте	-7059
▁ЖК	-7060
берг	-7061
▁Рей	-7062
▁фар	-7063
баров	-7064
▁грип	-7065
▁Можно	-7066
▁Филип	-7067
▁другу	-7068
террори	-7069
▁комфор	-7070
▁тяжело	-7071
▁увидеть	-7072
▁принадлежит	-7073
▁представляет	-7074
рал	-7075
чан	-7076
вказ	-7077
имен	-7078
▁зад	-7079
▁ово	-7080
ратов	-7081
▁упла	-7082
▁бирже	-7083
▁повто	-7084
▁разве	-7085
▁Греции	-7086
▁помимо	-7087
действия	-7088
▁потенциа	-7089
▁документе	-7090
▁заявлении	-7091
▁повышения	-7092
последствии	-7093
▁территория	-7094
▁Екатеринбур	-7095
▁воспользова	-7096
%)	-7097
вшее	-7098
▁For	-7099
▁Доб	-7100
вобод	-7101
ждены	-7102
▁силь	-7103
▁уста	-7104
ладель	-7105
ленным	-7106
честву	-7107
▁Луган	-7108
▁Такие	-7109
▁делают	-7110
▁наличи	-7111
▁тенден	-7112
▁проигра	-7113
▁зарплаты	-7114
▁компанию	-7115
▁премьера	-7116
▁продукты	-7117
▁создании	-7118
▁искусства	-7119
▁Следственного	-7120
▁Br	-7121
тном	-7122
▁удо	-7123
▁эпо	-7124
вшему	-7125
стные	-7126
▁упал	-7127
▁Союза	-7128
▁разби	-7129
▁стары	-7130
▁второе	-7131
▁дохода	-7132
▁перено	-7133
▁письмо	-7134
▁преодо	-7135
▁уверены	-7136
▁альтерна	-7137
сл	-7138
▁46	-7139
▁Жу	-7140
кета	-7141
рила	-7142
▁Лат	-7143
▁Роб	-7144
▁фер	-7145
жнего	-7146
▁есте	-7147
▁пару	-7148
▁хими	-7149
▁Борис	-7150
▁Причи	-7151
▁неуда	-7152
▁плане	-7153
▁ущерб	-7154
ниторин	-7155
▁Украин	-7156
▁восьми	-7157
▁входят	-7158
▁иногда	-7159
▁смерть	-7160
▁академи	-7161
▁повышен	-7162
▁продажу	-7163
▁множество	-7164
▁останется	-7165
▁различные	-7166
▁проводится	-7167
ВФ	-7168
чал	-7169
Дина	-7170
лежа	-7171
полу	-7172
▁охо	-7173
вятся	-7174
ляцию	-7175
стрии	-7176
▁нашу	-7177
▁никак	-7178
▁прочи	-7179
▁торже	-7180
▁класса	-7181
▁объеди	-7182
▁третий	-7183
▁хотели	-7184
▁падение	-7185
▁продаже	-7186
▁Конститу	-7187
▁структур	-7188
▁Некоторые	-7189
▁продемонстри	-7190
▁подразделения	-7191
сю	-7192
нят	-7193
вить	-7194
тивы	-7195
▁мск	-7196
вшими	-7197
▁подъ	-7198
ментом	-7199
▁альян	-7200
▁строй	-7201
▁премии	-7202
▁станут	-7203
▁осталось	-7204
▁пытались	-7205
▁убийство	-7206
▁православ	-7207
▁существов	-7208
▁десятилети	-7209
▁специально	-7210
▁обязанности	-7211
ge	-7212
Баш	-7213
юри	-7214
▁Тру	-7215
▁юго	-7216
▁Оста	-7217
▁Сред	-7218
водить	-7219
нского	-7220
няются	-7221
тивная	-7222
▁Далее	-7223
▁нашим	-7224
▁розни	-7225
▁телеви	-7226
▁художе	-7227
▁оценкам	-7228
▁получат	-7229
▁координа	-7230
▁российско	-7231
▁Сотрудники	-7232
▁присоедини	-7233
БР	-7234
дию	-7235
▁49	-7236
ждан	-7237
кови	-7238
кома	-7239
сель	-7240
▁лен	-7241
▁мол	-7242
споко	-7243
техни	-7244
▁Люди	-7245
▁пога	-7246
вающие	-7247
совать	-7248
▁видно	-7249
ционная	-7250
▁задачи	-7251
▁иннова	-7252
▁одному	-7253
▁растет	-7254
▁содержи	-7255
▁началась	-7256
▁национали	-7257
4,	-7258
ЖД	-7259
Ман	-7260
жут	-7261
зию	-7262
▁$2	-7263
▁боя	-7264
▁лиш	-7265
слава	-7266
▁Лиги	-7267
▁Учен	-7268
▁долю	-7269
▁ждут	-7270
▁тело	-7271
Локомо	-7272
устрой	-7273
▁лагер	-7274
▁оценки	-7275
▁первая	-7276
▁истреби	-7277
▁давление	-7278
▁Подмосков	-7279
цо	-7280
пти	-7281
сив	-7282
хоз	-7283
▁of	-7284
няли	-7285
▁Нем	-7286
▁вин	-7287
▁хра	-7288
совет	-7289
▁News	-7290
▁нена	-7291
▁Обамы	-7292
▁досро	-7293
развития	-7294
▁Челябин	-7295
▁высокой	-7296
▁пытается	-7297
▁дорожного	-7298
▁представить	-7299
1,	-7300
if	-7301
СЕ	-7302
сии	-7303
кера	-7304
▁Джей	-7305
Динамо	-7306
продук	-7307
▁вмеша	-7308
▁домой	-7309
зидента	-7310
рованной	-7311
▁хватает	-7312
▁протеста	-7313
▁землетряс	-7314
▁известный	-7315
▁института	-7316
▁утверждают	-7317
▁результатам	-7318
Об	-7319
▁Зе	-7320
гана	-7321
тыми	-7322
▁Два	-7323
кварти	-7324
тифика	-7325
▁Участ	-7326
▁графи	-7327
▁Центро	-7328
▁Решение	-7329
▁сборная	-7330
▁больнице	-7331
▁больницы	-7332
▁родители	-7333
▁отношению	-7334
▁регулярно	-7335
▁предложили	-7336
▁действовать	-7337
кей	-7338
рет	-7339
▁Ах	-7340
мова	-7341
нопо	-7342
▁РАН	-7343
▁изо	-7344
жности	-7345
▁возро	-7346
▁детям	-7347
▁долга	-7348
▁друзья	-7349
▁ежегодно	-7350
▁Верховной	-7351
▁удовлетво	-7352
▁предлагают	-7353
▁преступлений	-7354
▁(4	-7355
▁65	-7356
дьми	-7357
рной	-7358
село	-7359
рению	-7360
▁Особ	-7361
▁Позже	-7362
▁ждать	-7363
условно	-7364
▁взятки	-7365
▁лабора	-7366
▁одержа	-7367
▁педаго	-7368
▁принес	-7369
▁служеб	-7370
▁считаю	-7371
▁уступи	-7372
▁решению	-7373
▁сказали	-7374
▁квартире	-7375
▁Представители	-7376
рика	-7377
вании	-7378
▁исла	-7379
▁отря	-7380
тологи	-7381
▁атмос	-7382
мерсант	-7383
прокура	-7384
▁окружа	-7385
▁память	-7386
▁наконец	-7387
▁режиссе	-7388
▁футболу	-7389
▁получать	-7390
▁основании	-7391
▁отношениях	-7392
▁последнего	-7393
▁публикации	-7394
▁максимально	-7395
ТР	-7396
оте	-7397
груп	-7398
рией	-7399
торе	-7400
▁Мен	-7401
▁Ред	-7402
▁вку	-7403
▁сча	-7404
класс	-7405
▁аген	-7406
▁пого	-7407
▁Израи	-7408
▁Мутко	-7409
▁годам	-7410
▁сотни	-7411
▁архитек	-7412
▁районах	-7413
▁остаются	-7414
▁приговор	-7415
▁фотографии	-7416
▁финансирование	-7417
СП	-7418
Аль	-7419
цар	-7420
спол	-7421
стся	-7422
стрее	-7423
▁Анна	-7424
▁звез	-7425
▁идеи	-7426
▁титу	-7427
▁фили	-7428
ленная	-7429
▁Перед	-7430
▁задей	-7431
▁реаги	-7432
▁самая	-7433
лизации	-7434
▁границу	-7435
▁заметил	-7436
▁коллеги	-7437
▁поднима	-7438
▁потребу	-7439
▁коммуника	-7440
▁названием	-7441
5,	-7442
мое	-7443
▁Te	-7444
жела	-7445
тика	-7446
филь	-7447
▁Нам	-7448
▁Хар	-7449
▁сын	-7450
ствию	-7451
тники	-7452
▁заем	-7453
▁куро	-7454
▁нужны	-7455
▁замеча	-7456
▁писали	-7457
▁повест	-7458
▁подели	-7459
▁полном	-7460
ствовала	-7461
ственными	-7462
▁изменить	-7463
▁коалиции	-7464
▁привлечь	-7465
▁настолько	-7466
ers	-7467
дру	-7468
рие	-7469
▁ТВ	-7470
оном	-7471
рных	-7472
▁Гон	-7473
▁ДНР	-7474
▁ФАС	-7475
▁юби	-7476
ронеж	-7477
▁кури	-7478
надзор	-7479
▁слово	-7480
льность	-7481
▁Австра	-7482
▁гостей	-7483
▁дважды	-7484
▁соцсет	-7485
▁крупные	-7486
▁причины	-7487
▁снизить	-7488
▁Захарова	-7489
▁будущего	-7490
▁долгосро	-7491
▁новостей	-7492
▁показать	-7493
▁процессе	-7494
▁религиоз	-7495
▁Мурманска	-7496
▁интернете	-7497
▁инцидента	-7498
▁благотвори	-7499
▁увеличение	-7500
ov	-7501
oy	-7502
эк	-7503
сво	-7504
▁осо	-7505
▁врач	-7506
▁выяс	-7507
▁ребя	-7508
▁Стоит	-7509
▁талан	-7510
▁iPhone	-7511
▁людьми	-7512
▁Калинин	-7513
▁границе	-7514
▁ликвиди	-7515
ступление	-7516
▁Института	-7517
▁действует	-7518
▁контракта	-7519
▁связанные	-7520
экономразвития	-7521
▁41	-7522
▁Хи	-7523
▁оф	-7524
дних	-7525
сена	-7526
▁ски	-7527
толог	-7528
▁ИГИЛ	-7529
▁вкла	-7530
▁пеше	-7531
▁Игоря	-7532
▁брига	-7533
ческому	-7534
▁визита	-7535
▁последу	-7536
тельством	-7537
▁Евросоюз	-7538
▁буквально	-7539
▁чиновники	-7540
la	-7541
Ни	-7542
дже	-7543
нав	-7544
уда	-7545
шке	-7546
▁43	-7547
▁гим	-7548
▁лай	-7549
▁теп	-7550
▁Груп	-7551
▁Сама	-7552
▁взно	-7553
▁груз	-7554
▁соли	-7555
диться	-7556
спорта	-7557
▁видов	-7558
▁Потому	-7559
▁достой	-7560
▁консуль	-7561
▁связаны	-7562
▁Краснояр	-7563
▁нынешнего	-7564
▁проведении	-7565
Та	-7566
▁2,5	-7567
▁оба	-7568
▁оке	-7569
анным	-7570
ровку	-7571
ходом	-7572
▁Гово	-7573
▁Даге	-7574
▁балан	-7575
▁жилищ	-7576
▁испан	-7577
▁науки	-7578
▁нужна	-7579
▁посла	-7580
▁руках	-7581
▁Ученые	-7582
▁остался	-7583
▁платить	-7584
рованного	-7585
▁Вячеслав	-7586
▁выглядит	-7587
▁Стоимость	-7588
▁электроэнер	-7589
▁Председатель	-7590
▁собственности	-7591
ank	-7592
ляют	-7593
▁Объ	-7594
▁Тер	-7595
прият	-7596
▁каби	-7597
енного	-7598
меется	-7599
мского	-7600
щением	-7601
▁конец	-7602
▁оскор	-7603
▁учени	-7604
▁грозит	-7605
▁запрос	-7606
▁фильме	-7607
американ	-7608
тический	-7609
▁питания	-7610
▁считать	-7611
▁предложен	-7612
▁связанных	-7613
▁фестиваля	-7614
▁дальнейшем	-7615
▁посмотреть	-7616
▁гражданской	-7617
▁опубликовал	-7618
▁предприятие	-7619
ob	-7620
Ви	-7621
▁р	-7622
жки	-7623
зам	-7624
зме	-7625
меня	-7626
▁нами	-7627
первых	-7628
▁Times	-7629
▁поток	-7630
▁психи	-7631
▁мнения	-7632
▁округе	-7633
▁стороне	-7634
▁операций	-7635
▁петербур	-7636
▁поставок	-7637
▁приступи	-7638
▁опрошенных	-7639
▁пресечения	-7640
▁безопасность	-7641
2,	-7642
7,	-7643
стая	-7644
▁пой	-7645
▁вину	-7646
▁доли	-7647
▁коль	-7648
альное	-7649
дерлан	-7650
▁исчез	-7651
▁связь	-7652
▁вперед	-7653
▁времена	-7654
▁проверя	-7655
▁свидете	-7656
▁фигуран	-7657
▁властями	-7658
▁наоборот	-7659
▁результатов	-7660
▁университет	-7661
ian	-7662
ума	-7663
вере	-7664
▁этап	-7665
ламент	-7666
▁пакет	-7667
▁Афгани	-7668
▁дороге	-7669
▁закону	-7670
▁службу	-7671
▁препода	-7672
▁действие	-7673
▁молодежи	-7674
▁проводит	-7675
▁окончания	-7676
▁чемпионат	-7677
▁регистрации	-7678
Ли	-7679
Те	-7680
ort	-7681
дио	-7682
▁Ай	-7683
анное	-7684
вейца	-7685
иться	-7686
ловых	-7687
товой	-7688
▁Бара	-7689
▁наук	-7690
Единая	-7691
кового	-7692
▁детьми	-7693
▁парков	-7694
Известия	-7695
▁Николая	-7696
▁большие	-7697
▁участок	-7698
▁получают	-7699
▁приоритет	-7700
▁Российские	-7701
▁дипломатиче	-7702
▁необходимые	-7703
▁предусматривает	-7704
all	-7705
жая	-7706
зму	-7707
лне	-7708
▁НП	-7709
гона	-7710
▁Бал	-7711
▁Син	-7712
▁бор	-7713
льник	-7714
право	-7715
▁Моло	-7716
▁заку	-7717
▁изви	-7718
▁обез	-7719
▁стек	-7720
ленном	-7721
пления	-7722
▁стрем	-7723
▁красно	-7724
▁оценке	-7725
▁изготов	-7726
▁удастся	-7727
▁экипажа	-7728
Петербурга	-7729
▁общественных	-7730
▁необходимость	-7731
жим	-7732
сре	-7733
▁аф	-7734
брать	-7735
части	-7736
▁Расс	-7737
▁изба	-7738
▁исте	-7739
сципли	-7740
▁Генна	-7741
▁врача	-7742
▁какое	-7743
▁книги	-7744
▁выросли	-7745
▁объекты	-7746
▁пересмо	-7747
▁попасть	-7748
▁пытался	-7749
▁операцию	-7750
▁интересов	-7751
▁объясняет	-7752
▁оперативно	-7753
▁предполагает	-7754
nd	-7755
ine	-7756
див	-7757
ьет	-7758
▁зн	-7759
▁Вен	-7760
▁буд	-7761
▁ниж	-7762
▁ход	-7763
менту	-7764
▁дочь	-7765
▁идею	-7766
▁моск	-7767
▁уйти	-7768
▁класс	-7769
▁могло	-7770
▁Аравии	-7771
▁Светлана	-7772
▁попросил	-7773
▁сообщило	-7774
▁правления	-7775
▁злоумышлен	-7776
▁несовершен	-7777
▁Международного	-7778
ow	-7779
▁Щ	-7780
est	-7781
ДПР	-7782
згла	-7783
отно	-7784
▁Три	-7785
Север	-7786
▁апел	-7787
довать	-7788
▁Право	-7789
▁занял	-7790
ционную	-7791
▁искать	-7792
▁полной	-7793
▁устраи	-7794
▁Востока	-7795
▁безрабо	-7796
▁будущее	-7797
▁воздуха	-7798
▁запуска	-7799
▁Вооружен	-7800
▁демонстри	-7801
10	-7802
de	-7803
МК	-7804
хин	-7805
ьян	-7806
дана	-7807
▁Пам	-7808
▁Пан	-7809
Зенит	-7810
▁обжа	-7811
▁Вадим	-7812
▁Чечни	-7813
▁суток	-7814
▁услов	-7815
ционным	-7816
▁врачей	-7817
▁Вашингтон	-7818
▁областной	-7819
▁российскими	-7820
▁американские	-7821
90	-7822
АД	-7823
дик	-7824
▁ада	-7825
вайте	-7826
говор	-7827
▁гран	-7828
▁осла	-7829
постав	-7830
ченной	-7831
▁Агент	-7832
▁Может	-7833
▁вышла	-7834
▁незна	-7835
▁вскоре	-7836
▁выдели	-7837
▁здании	-7838
▁повтор	-7839
▁своему	-7840
▁площадь	-7841
▁техника	-7842
▁очевидно	-7843
▁обращения	-7844
▁сократить	-7845
кл	-7846
▁p	-7847
.),	-7848
зяй	-7849
гоне	-7850
лера	-7851
▁Бай	-7852
▁поя	-7853
▁лицо	-7854
▁поля	-7855
▁крови	-7856
▁форму	-7857
▁Бориса	-7858
▁препят	-7859
▁ученых	-7860
▁церкви	-7861
▁мировых	-7862
▁предъяв	-7863
▁проекте	-7864
▁теракта	-7865
▁участков	-7866
▁Всероссий	-7867
▁серьезные	-7868
▁финансовой	-7869
▁представителями	-7870
иФ	-7871
ала	-7872
дал	-7873
▁Тю	-7874
дови	-7875
▁600	-7876
▁опол	-7877
▁соба	-7878
▁судом	-7879
▁Турцию	-7880
▁планах	-7881
▁повлия	-7882
▁приняла	-7883
▁рестора	-7884
▁Нидерлан	-7885
▁уполномо	-7886
▁Олимпиаде	-7887
▁консульта	-7888
▁мониторин	-7889
art	-7890
жан	-7891
▁You	-7892
▁Эль	-7893
▁тео	-7894
финан	-7895
▁Азии	-7896
▁запу	-7897
▁мора	-7898
▁разъ	-7899
▁пребы	-7900
▁Газета	-7901
▁попали	-7902
Роснефть	-7903
бернатор	-7904
▁десятки	-7905
▁лечение	-7906
▁топлива	-7907
▁совершил	-7908
▁обвинение	-7909
▁Генпрокура	-7910
▁состоялась	-7911
фу	-7912
▁Сы	-7913
евич	-7914
обла	-7915
▁120	-7916
▁вод	-7917
▁реа	-7918
ющему	-7919
▁Роди	-7920
▁вело	-7921
▁взор	-7922
▁коне	-7923
▁напа	-7924
▁съем	-7925
читься	-7926
▁Норве	-7927
▁вспом	-7928
▁гонки	-7929
▁пошли	-7930
▁немало	-7931
▁примет	-7932
▁Главный	-7933
▁Читайте	-7934
▁желание	-7935
▁заболев	-7936
▁Вашингто	-7937
▁Общество	-7938
▁отдельных	-7939
▁журналисты	-7940
6,	-7941
,5%	-7942
▁Ис	-7943
влек	-7944
ович	-7945
тесь	-7946
▁www	-7947
оволь	-7948
рации	-7949
ровке	-7950
тиков	-7951
▁мэра	-7952
▁озву	-7953
▁входя	-7954
▁выяви	-7955
▁подчи	-7956
▁холод	-7957
▁бензин	-7958
▁борьбу	-7959
▁другое	-7960
▁некото	-7961
▁полуго	-7962
▁пришел	-7963
▁властям	-7964
▁состоит	-7965
▁Бразилии	-7966
▁Екатерина	-7967
▁готовности	-7968
▁обсуждения	-7969
▁постепенно	-7970
▁федеральных	-7971
▁Международной	-7972
чкой	-7973
▁20-	-7974
▁Рай	-7975
▁опо	-7976
▁фра	-7977
чется	-7978
▁неве	-7979
▁война	-7980
▁налого	-7981
▁Кадыров	-7982
▁коммуна	-7983
▁профила	-7984
▁рейтинг	-7985
▁Брюсселе	-7986
▁населенных	-7987
▁Московского	-7988
▁предоставить	-7989
BC	-7990
ул	-7991
жин	-7992
сль	-7993
▁$4	-7994
лиза	-7995
план	-7996
▁Кам	-7997
▁нер	-7998
▁пти	-7999
▁сва	-8000
кович	-8001
▁зато	-8002
работа	-8003
тности	-8004
▁Проек	-8005
▁живет	-8006
▁обозна	-8007
▁поиска	-8008
▁быстрее	-8009
▁баррелей	-8010
▁общество	-8011
▁пояснили	-8012
▁среднего	-8013
▁Петербурге	-8014
▁содержание	-8015
▁сокращение	-8016
▁финансовые	-8017
▁энергетики	-8018
▁температура	-8019
▁официального	-8020
▁дополнительных	-8021
um	-8022
ПС	-8023
▁мм	-8024
рони	-8025
▁193	-8026
чиная	-8027
▁WADA	-8028
▁имен	-8029
▁паль	-8030
▁штаб	-8031
▁кабин	-8032
шинство	-8033
▁таможен	-8034
▁вероятно	-8035
▁объявили	-8036
▁украинские	-8037
▁Соответству	-8038
Но	-8039
кру	-8040
турой	-8041
▁Илья	-8042
▁Одна	-8043
▁вред	-8044
▁Brent	-8045
▁Индии	-8046
▁возму	-8047
▁Польши	-8048
▁машину	-8049
▁пласти	-8050
▁полгода	-8051
▁телевид	-8052
▁операция	-8053
▁распреде	-8054
▁компьютер	-8055
▁состоялся	-8056
AS	-8057
sc	-8058
рян	-8059
нула	-8060
▁сви	-8061
комму	-8062
▁Позд	-8063
блиоте	-8064
тивную	-8065
щаются	-8066
▁вечер	-8067
▁откло	-8068
▁контак	-8069
▁обыгра	-8070
▁законом	-8071
▁квартир	-8072
▁достигну	-8073
▁приведет	-8074
▁состоянию	-8075
▁экономика	-8076
▁Мурманской	-8077
▁воспринима	-8078
▁оборудование	-8079
▁законопроекта	-8080
2-	-8081
Ле	-8082
жена	-8083
шена	-8084
▁Гар	-8085
▁ужа	-8086
дорож	-8087
изнес	-8088
менед	-8089
надца	-8090
ренко	-8091
силия	-8092
▁виду	-8093
▁явно	-8094
▁вроде	-8095
▁главу	-8096
▁имена	-8097
▁счету	-8098
▁фикси	-8099
▁хвати	-8100
надзора	-8101
▁кадров	-8102
▁Виктора	-8103
▁военный	-8104
▁решением	-8105
▁ситуацией	-8106
▁поддерживает	-8107
II	-8108
луб	-8109
▁атом	-8110
▁копи	-8111
▁мать	-8112
▁этапа	-8113
▁выстре	-8114
▁пенсии	-8115
▁форума	-8116
▁заблоки	-8117
▁полтора	-8118
▁водителя	-8119
▁значение	-8120
▁начались	-8121
▁основные	-8122
▁рейтинге	-8123
▁Владимиру	-8124
▁городских	-8125
▁превышает	-8126
▁секретарь	-8127
▁собственной	-8128
▁сотрудниками	-8129
▁экономических	-8130
То	-8131
our	-8132
ксу	-8133
стые	-8134
щина	-8135
▁ЖКХ	-8136
▁СНГ	-8137
дении	-8138
стной	-8139
▁моде	-8140
▁Артем	-8141
▁Асада	-8142
▁Барак	-8143
▁отклю	-8144
▁позна	-8145
▁регла	-8146
▁флота	-8147
востоке	-8148
ловской	-8149
▁Финлян	-8150
▁авторы	-8151
▁каждом	-8152
▁травмы	-8153
▁переста	-8154
▁решении	-8155
▁зрителей	-8156
▁обсудили	-8157
▁наказания	-8158
▁небольшой	-8159
▁областного	-8160
▁российское	-8161
Го	-8162
▁ищ	-8163
▁мел	-8164
▁Кова	-8165
▁Свер	-8166
▁двор	-8167
▁древ	-8168
▁моей	-8169
▁рано	-8170
▁Банка	-8171
▁недель	-8172
▁подоро	-8173
▁поедин	-8174
▁числен	-8175
▁больших	-8176
▁провока	-8177
▁разобра	-8178
▁градусов	-8179
▁дисципли	-8180
▁начнется	-8181
▁обратиться	-8182
▁потребителей	-8183
▁предлагается	-8184
▁политического	-8185
99	-8186
▁Яцен	-8187
▁робо	-8188
▁стен	-8189
▁тема	-8190
бросов	-8191
ходили	-8192
▁атаки	-8193
▁вдруг	-8194
▁земле	-8195
▁уволь	-8196
▁штаба	-8197
▁Британ	-8198
▁минуты	-8199
▁Востоке	-8200
▁лидером	-8201
производи	-8202
▁получает	-8203
▁заключение	-8204
▁соглашений	-8205
▁медицинской	-8206
▁Национальной	-8207
▁приватизации	-8208
▁Z	-8209
доз	-8210
Тран	-8211
▁Mer	-8212
▁мяг	-8213
вости	-8214
▁Нача	-8215
▁выжи	-8216
▁кров	-8217
▁отец	-8218
▁певи	-8219
теллек	-8220
▁любом	-8221
▁опере	-8222
▁подал	-8223
▁Египта	-8224
▁Победы	-8225
▁коллег	-8226
▁машина	-8227
▁москви	-8228
▁регион	-8229
▁списке	-8230
▁стимули	-8231
▁вызывает	-8232
▁полагают	-8233
▁ресурсов	-8234
▁Владимиром	-8235
▁подтвержда	-8236
oom	-8237
гар	-8238
▁57	-8239
▁Кэ	-8240
пиона	-8241
▁бесс	-8242
▁воду	-8243
жается	-8244
▁Денис	-8245
▁Стани	-8246
▁далее	-8247
▁метал	-8248
▁нормы	-8249
▁нрави	-8250
▁поним	-8251
▁многом	-8252
▁поклон	-8253
▁потери	-8254
▁эвакуи	-8255
▁коллега	-8256
▁лицензии	-8257
▁открытия	-8258
▁Краснодар	-8259
▁правильно	-8260
▁продолжать	-8261
▁Федеральной	-8262
дю	-8263
лую	-8264
мыс	-8265
▁Ль	-8266
леку	-8267
цева	-8268
▁КНР	-8269
▁шай	-8270
▁Паль	-8271
▁огра	-8272
▁осмо	-8273
▁побы	-8274
▁сало	-8275
▁Думаю	-8276
▁Минзд	-8277
▁нашем	-8278
▁писал	-8279
▁Законо	-8280
▁менедж	-8281
▁решать	-8282
▁сравни	-8283
▁Испании	-8284
▁Путиным	-8285
▁проявля	-8286
▁третьем	-8287
▁госсекре	-8288
▁инцидент	-8289
▁испытания	-8290
▁экономику	-8291
Вы	-8292
дора	-8293
руем	-8294
▁верх	-8295
▁идея	-8296
▁теря	-8297
альным	-8298
лектро	-8299
▁Викто	-8300
▁Потом	-8301
▁ведут	-8302
▁необы	-8303
▁Свобод	-8304
▁белору	-8305
▁доллар	-8306
▁минуте	-8307
▁объеме	-8308
▁похоже	-8309
▁Специали	-8310
▁принятия	-8311
▁территорий	-8312
SJ	-8313
az	-8314
op	-8315
Ва	-8316
-20	-8317
ack	-8318
sta	-8319
кос	-8320
▁ОБ	-8321
Дону	-8322
скон	-8323
▁Наи	-8324
колов	-8325
логов	-8326
▁Запа	-8327
▁ЛДПР	-8328
▁серд	-8329
нением	-8330
цидент	-8331
▁беспи	-8332
▁войне	-8333
▁герои	-8334
▁одино	-8335
▁патру	-8336
▁позднее	-8337
▁стабили	-8338
▁Тульской	-8339
▁аппарата	-8340
▁объявила	-8341
▁покинуть	-8342
▁вынуждены	-8343
▁правонару	-8344
▁разрабаты	-8345
▁генерального	-8346
▁поддерживать	-8347
дец	-8348
▁De	-8349
дика	-8350
дной	-8351
ждый	-8352
жида	-8353
рики	-8354
рист	-8355
трен	-8356
▁2019	-8357
▁дают	-8358
▁иран	-8359
▁купи	-8360
▁поез	-8361
▁раун	-8362
▁тура	-8363
▁карты	-8364
▁комна	-8365
▁штата	-8366
сульман	-8367
▁мельдо	-8368
▁занимал	-8369
▁лечения	-8370
▁молодой	-8371
▁наличие	-8372
▁расстоя	-8373
▁родился	-8374
▁сектора	-8375
▁половине	-8376
▁Мурманске	-8377
▁имущество	-8378
▁партнеров	-8379
▁достижения	-8380
▁разработки	-8381
▁республике	-8382
▁сопровожда	-8383
▁организацию	-8384
Пер	-8385
▁53	-8386
анти	-8387
сман	-8388
чила	-8389
хозяй	-8390
▁Надо	-8391
▁фами	-8392
Красно	-8393
льянов	-8394
▁видим	-8395
▁песни	-8396
▁смени	-8397
▁работо	-8398
▁Америки	-8399
▁докладе	-8400
▁заявлял	-8401
▁понятно	-8402
▁введения	-8403
▁намерена	-8404
▁началось	-8405
▁признать	-8406
▁проведет	-8407
▁прокурор	-8408
▁характери	-8409
▁показывает	-8410
▁применения	-8411
▁бомбардиров	-8412
▁формирования	-8413
▁администрация	-8414
▁задолженности	-8415
Да	-8416
вян	-8417
мма	-8418
фек	-8419
цер	-8420
▁Фо	-8421
▁ЧП	-8422
евой	-8423
▁Мон	-8424
▁сор	-8425
анами	-8426
долго	-8427
стера	-8428
▁Брит	-8429
▁Двор	-8430
▁блок	-8431
▁Наука	-8432
▁Очень	-8433
▁Сирию	-8434
▁костю	-8435
▁судов	-8436
▁фирмы	-8437
▁Кремле	-8438
▁Уголов	-8439
▁переме	-8440
▁открыто	-8441
▁периода	-8442
▁реформы	-8443
▁площадью	-8444
▁половины	-8445
▁праздник	-8446
▁проводят	-8447
▁четверть	-8448
▁церемонии	-8449
▁направлены	-8450
▁подозреваемых	-8451
▁постановление	-8452
нг	-8453
▁Bo	-8454
тиви	-8455
▁Дол	-8456
▁сби	-8457
▁сей	-8458
▁Дама	-8459
▁сним	-8460
летних	-8461
▁Иркут	-8462
▁Пента	-8463
▁шансы	-8464
▁Путину	-8465
▁валюты	-8466
▁квадра	-8467
▁лидеры	-8468
▁осенью	-8469
▁товари	-8470
▁переход	-8471
▁районов	-8472
▁туристи	-8473
▁организова	-8474
▁устройство	-8475
ОС	-8476
▁Фор	-8477
▁куп	-8478
канчи	-8479
летел	-8480
ловой	-8481
черед	-8482
▁Юлия	-8483
ляется	-8484
▁Саака	-8485
▁конта	-8486
▁поиск	-8487
енности	-8488
▁Леонид	-8489
▁активы	-8490
▁кредит	-8491
▁письма	-8492
ковского	-8493
▁Армении	-8494
▁кримина	-8495
▁Инцидент	-8496
▁спокойно	-8497
▁остальные	-8498
▁появилось	-8499
▁собираются	-8500
▁заключается	-8501
▁замминистра	-8502
ai	-8503
ite	-8504
▁фо	-8505
зина	-8506
лине	-8507
мога	-8508
▁250	-8509
▁еха	-8510
▁очи	-8511
▁мемо	-8512
▁рыно	-8513
▁Кирилл	-8514
▁версия	-8515
▁оставля	-8516
▁патриар	-8517
▁Анатолий	-8518
▁мирового	-8519
▁проверка	-8520
▁правозащи	-8521
▁Саакашвили	-8522
▁внешнеполи	-8523
.).	-8524
део	-8525
хии	-8526
лове	-8527
мыми	-8528
рода	-8529
щины	-8530
▁Тра	-8531
▁пры	-8532
▁уде	-8533
вость	-8534
▁Амур	-8535
▁Каре	-8536
▁фаль	-8537
гистра	-8538
▁Встре	-8539
▁Госде	-8540
▁возме	-8541
▁табли	-8542
▁штате	-8543
▁знаком	-8544
▁инспек	-8545
▁печати	-8546
▁успеха	-8547
▁заранее	-8548
▁крайней	-8549
▁политик	-8550
▁рубежом	-8551
Справедли	-8552
▁смотреть	-8553
▁Олимпиады	-8554
▁пострадал	-8555
▁Ростовской	-8556
▁установлено	-8557
▁несовершенно	-8558
▁национального	-8559
21	-8560
ab	-8561
Ла	-8562
зом	-8563
ыми	-8564
gram	-8565
ссам	-8566
▁1,2	-8567
▁Луч	-8568
▁МОК	-8569
милли	-8570
тория	-8571
▁обещ	-8572
▁отоз	-8573
▁преж	-8574
▁прос	-8575
▁школ	-8576
альная	-8577
жность	-8578
▁живут	-8579
▁инфек	-8580
▁перен	-8581
▁Швейца	-8582
▁силами	-8583
▁смогла	-8584
▁угрозу	-8585
▁беремен	-8586
▁информи	-8587
▁отреаги	-8588
▁перечис	-8589
▁тренера	-8590
▁дисквали	-8591
▁трагедии	-8592
▁поступило	-8593
▁транспортных	-8594
80	-8595
Ев	-8596
НК	-8597
Бар	-8598
луй	-8599
юнх	-8600
Аэро	-8601
мета	-8602
▁ВКС	-8603
ковые	-8604
нулся	-8605
сской	-8606
стили	-8607
▁мото	-8608
лограм	-8609
ректор	-8610
▁Финан	-8611
▁армия	-8612
▁довер	-8613
▁духов	-8614
▁медиа	-8615
▁непре	-8616
▁сексу	-8617
▁трево	-8618
▁данной	-8619
▁испыты	-8620
▁молодо	-8621
▁полета	-8622
▁смысле	-8623
▁рубрике	-8624
▁требуют	-8625
▁гражданам	-8626
▁обращение	-8627
▁продукцию	-8628
▁Предполага	-8629
▁злоупотреб	-8630
▁корреспондент	-8631
▁руководителей	-8632
бии	-8633
гию	-8634
лав	-8635
шут	-8636
ката	-8637
▁800	-8638
▁Или	-8639
▁мон	-8640
▁тща	-8641
зента	-8642
никах	-8643
▁Зато	-8644
▁лега	-8645
▁шанс	-8646
▁судья	-8647
▁цвета	-8648
▁Ставро	-8649
▁бывает	-8650
▁голову	-8651
▁оборон	-8652
▁решила	-8653
▁третье	-8654
▁достоин	-8655
▁крупном	-8656
▁объекта	-8657
▁привело	-8658
▁соцсети	-8659
▁квартиру	-8660
▁торговых	-8661
▁бюджетных	-8662
▁двусторон	-8663
▁помещения	-8664
▁продоволь	-8665
▁Казахстана	-8666
▁поддержать	-8667
▁предположи	-8668
▁прекратить	-8669
▁препаратов	-8670
▁договорились	-8671
▁комментариев	-8672
▁министерство	-8673
Бу	-8674
ваю	-8675
ету	-8676
рик	-8677
фсо	-8678
ляли	-8679
▁Хан	-8680
▁осн	-8681
ссель	-8682
▁Юрия	-8683
▁нано	-8684
▁наше	-8685
стской	-8686
▁Патри	-8687
▁отвер	-8688
▁прият	-8689
▁сувер	-8690
▁ежегод	-8691
▁ведется	-8692
▁зампред	-8693
▁причине	-8694
▁разреши	-8695
▁символи	-8696
▁участии	-8697
▁начинает	-8698
▁помогает	-8699
▁Экономика	-8700
▁украинский	-8701
▁управлении	-8702
▁соответствует	-8703
▁предприниматель	-8704
"?	-8705
70	-8706
ne	-8707
ube	-8708
зани	-8709
твор	-8710
▁Vol	-8711
▁Чис	-8712
▁Доку	-8713
▁огне	-8714
▁ясно	-8715
нуться	-8716
▁взяли	-8717
▁гимна	-8718
▁празд	-8719
▁пусть	-8720
▁секун	-8721
▁хотим	-8722
канской	-8723
▁Бизнес	-8724
▁портфе	-8725
▁Депутат	-8726
▁начался	-8727
▁неправи	-8728
▁заключил	-8729
▁сообщали	-8730
▁экспорта	-8731
▁последним	-8732
▁установили	-8733
▁информацией	-8734
▁перспективе	-8735
-6	-8736
ЗО	-8737
ced	-8738
жие	-8739
зап	-8740
▁(5	-8741
▁Дар	-8742
▁Сво	-8743
▁лож	-8744
вейцар	-8745
▁Олега	-8746
▁врачи	-8747
▁колон	-8748
▁риска	-8749
▁Васили	-8750
▁девяти	-8751
▁защиту	-8752
▁отличи	-8753
▁патрио	-8754
▁рисков	-8755
▁строго	-8756
действие	-8757
▁заканчи	-8758
▁частично	-8759
▁петербург	-8760
▁поддержал	-8761
▁требуется	-8762
▁называется	-8763
▁показатели	-8764
▁произойдет	-8765
▁взаимодействия	-8766
бю	-8767
▁s	-8768
мяг	-8769
атра	-8770
вода	-8771
стых	-8772
торг	-8773
ванию	-8774
нятно	-8775
▁Твер	-8776
▁валю	-8777
▁кори	-8778
▁мани	-8779
частли	-8780
▁вызов	-8781
▁забро	-8782
▁опаса	-8783
▁стоят	-8784
▁подзем	-8785
▁прозра	-8786
▁ставку	-8787
▁Турцией	-8788
▁инженер	-8789
▁Еврокоми	-8790
▁недоволь	-8791
▁нынешнем	-8792
▁традиции	-8793
▁возможных	-8794
▁выполнять	-8795
▁поставить	-8796
▁совершении	-8797
▁большинства	-8798
▁Государственной	-8799
ВА	-8800
тку	-8801
тли	-8802
▁51	-8803
▁зо	-8804
боры	-8805
▁Бен	-8806
▁Пен	-8807
▁Тор	-8808
корей	-8809
транс	-8810
▁Тимо	-8811
▁двер	-8812
▁орби	-8813
▁пони	-8814
▁цену	-8815
ленную	-8816
▁войну	-8817
▁долги	-8818
▁играх	-8819
▁какая	-8820
▁немед	-8821
▁начнет	-8822
▁охраны	-8823
▁артилле	-8824
▁карьеру	-8825
▁продать	-8826
▁аэропорт	-8827
▁вернулся	-8828
▁десятков	-8829
▁интеллек	-8830
▁получении	-8831
▁выполнения	-8832
▁инициативы	-8833
▁исполнения	-8834
Пар	-8835
ану	-8836
жное	-8837
тури	-8838
▁30-	-8839
▁50%	-8840
▁мэр	-8841
ковым	-8842
▁Хоро	-8843
шенные	-8844
▁Михай	-8845
▁снять	-8846
нования	-8847
▁Грузии	-8848
▁газете	-8849
▁единиц	-8850
▁импорт	-8851
▁канала	-8852
▁мурман	-8853
▁ведущих	-8854
▁девушка	-8855
▁старший	-8856
▁фильмов	-8857
▁Известно	-8858
▁самолеты	-8859
Коммерсант	-8860
▁Сбербанка	-8861
▁Большинство	-8862
▁гендиректор	-8863
▁обязательств	-8864
3,	-8865
Ри	-8866
гр	-8867
ung	-8868
рои	-8869
уре	-8870
▁Le	-8871
▁Ол	-8872
▁Эн	-8873
дуют	-8874
ждая	-8875
▁ФРГ	-8876
чному	-8877
▁Рост	-8878
▁ушел	-8879
▁штур	-8880
▁Англи	-8881
▁Пенси	-8882
▁музей	-8883
▁непло	-8884
▁судей	-8885
▁школу	-8886
▁либера	-8887
▁товары	-8888
▁ужесто	-8889
▁оппонен	-8890
▁проекту	-8891
▁сборную	-8892
▁выставки	-8893
▁принципи	-8894
▁используют	-8895
▁собственных	-8896
▁единственный	-8897
▁политические	-8898
▁договоренности	-8899
▁b	-8900
tal	-8901
вай	-8902
вах	-8903
суэ	-8904
нием	-8905
▁Мор	-8906
▁каб	-8907
торых	-8908
ульта	-8909
шкина	-8910
▁осве	-8911
▁ряде	-8912
Газете	-8913
▁Самар	-8914
▁задач	-8915
▁карто	-8916
▁ссыла	-8917
▁такси	-8918
ционном	-8919
▁открыл	-8920
▁первен	-8921
▁допуска	-8922
▁концерт	-8923
▁никакой	-8924
▁поселке	-8925
опасности	-8926
▁признали	-8927
▁человеку	-8928
▁гражданин	-8929
▁основания	-8930
▁построить	-8931
▁признался	-8932
▁изначально	-8933
▁Узбекистана	-8934
ss	-8935
ud	-8936
деб	-8937
▁$5	-8938
▁Спи	-8939
эффек	-8940
▁2006	-8941
▁клад	-8942
▁плюс	-8943
▁Какие	-8944
▁Матви	-8945
▁Молда	-8946
▁замед	-8947
▁манда	-8948
▁опять	-8949
▁преде	-8950
▁продю	-8951
▁контин	-8952
▁силови	-8953
▁Великой	-8954
▁востоке	-8955
▁высказы	-8956
▁позволи	-8957
▁ремонта	-8958
▁участки	-8959
▁напрямую	-8960
▁разведки	-8961
▁Благодаря	-8962
▁полномочия	-8963
▁российскую	-8964
▁спортсмены	-8965
▁терроризмом	-8966
лат	-8967
▁85	-8968
▁Al	-8969
-200	-8970
berg	-8971
▁диз	-8972
▁зал	-8973
пресс	-8974
▁Джор	-8975
▁брат	-8976
▁игре	-8977
▁инду	-8978
▁села	-8979
чивать	-8980
▁Алтай	-8981
▁Кореи	-8982
▁Сверд	-8983
▁допро	-8984
▁жесто	-8985
▁каком	-8986
▁общий	-8987
▁прино	-8988
▁успех	-8989
▁Каждый	-8990
▁Примор	-8991
▁добычу	-8992
▁проник	-8993
▁детских	-8994
▁участка	-8995
▁добавила	-8996
▁скорости	-8997
▁третьего	-8998
▁получение	-8999
▁развивать	-9000
▁Российского	-9001
▁компенсации	-9002
▁традиционно	-9003
▁требованиям	-9004
▁финансового	-9005
▁избирательной	-9006
▁правительством	-9007
Ян	-9008
нью	-9009
▁64	-9010
голь	-9011
▁the	-9012
▁Зак	-9013
▁Кру	-9014
▁Мек	-9015
▁сно	-9016
▁хак	-9017
стого	-9018
товых	-9019
▁ОБСЕ	-9020
▁затя	-9021
▁коме	-9022
▁чере	-9023
▁вывод	-9024
▁срока	-9025
▁кстати	-9026
▁стадии	-9027
▁оригина	-9028
▁библиоте	-9029
▁благодар	-9030
▁Матвиенко	-9031
▁агентству	-9032
▁относятся	-9033
▁неизвестно	-9034
▁определить	-9035
▁полуостров	-9036
▁обеспечение	-9037
▁правительству	-9038
нки	-9039
лыми	-9040
града	-9041
▁Дани	-9042
▁клет	-9043
образи	-9044
▁Отече	-9045
▁взаим	-9046
▁моста	-9047
▁расту	-9048
▁накопи	-9049
▁станов	-9050
работать	-9051
ровались	-9052
тическая	-9053
▁ожидает	-9054
▁перекры	-9055
▁пограни	-9056
▁термина	-9057
▁участке	-9058
▁поздрави	-9059
▁демонстра	-9060
▁проверить	-9061
▁разрешения	-9062
▁голосование	-9063
▁госпитализи	-9064
▁рекомендова	-9065
▁федеральный	-9066
9,	-9067
▁f	-9068
цом	-9069
▁",	-9070
поле	-9071
▁Рас	-9072
▁Яну	-9073
ехали	-9074
тными	-9075
▁2005	-9076
▁Нико	-9077
▁смеш	-9078
▁Роспо	-9079
▁залож	-9080
▁пособ	-9081
▁сверх	-9082
▁голоса	-9083
▁привел	-9084
сследова	-9085
▁Силовые	-9086
▁автоном	-9087
▁госпожа	-9088
▁интегра	-9089
▁открыли	-9090
▁замглавы	-9091
▁запрещена	-9092
▁стратегии	-9093
▁человеком	-9094
▁находиться	-9095
▁образование	-9096
▁окончательно	-9097
▁строительстве	-9098
▁непосредственно	-9099
::	-9100
ie	-9101
ИЗО	-9102
жом	-9103
суа	-9104
шал	-9105
овок	-9106
▁Бор	-9107
cedes	-9108
ницах	-9109
▁Мосу	-9110
▁Шара	-9111
▁взял	-9112
▁изби	-9113
▁седь	-9114
емости	-9115
никова	-9116
▁грана	-9117
▁музея	-9118
▁важней	-9119
▁внести	-9120
▁матчей	-9121
▁прибли	-9122
▁выиграл	-9123
▁заметно	-9124
▁местной	-9125
▁поручил	-9126
▁сделано	-9127
▁Комитета	-9128
▁Украиной	-9129
▁напряжен	-9130
▁объявлен	-9131
▁площадке	-9132
▁полноцен	-9133
▁поставля	-9134
▁Валентина	-9135
▁выступили	-9136
▁профессор	-9137
▁характера	-9138
▁посольства	-9139
▁медицинских	-9140
▁современных	-9141
▁управлением	-9142
ash	-9143
анс	-9144
глу	-9145
ейс	-9146
жер	-9147
сий	-9148
хова	-9149
▁Бур	-9150
▁охва	-9151
ченным	-9152
▁голос	-9153
▁откро	-9154
▁сюжет	-9155
▁артист	-9156
▁весной	-9157
▁концов	-9158
▁объемы	-9159
▁отмени	-9160
▁победа	-9161
▁пойдет	-9162
▁привет	-9163
▁прояви	-9164
▁спасти	-9165
▁Бельгии	-9166
▁открыть	-9167
▁перенес	-9168
▁связана	-9169
▁сказано	-9170
▁килограм	-9171
▁развитии	-9172
▁поражение	-9173
▁Севастополя	-9174
▁рассмотрения	-9175
▁сотрудничестве	-9176
17	-9177
жат	-9178
инг	-9179
дото	-9180
спор	-9181
▁АТО	-9182
▁РЖД	-9183
▁Чет	-9184
▁изб	-9185
▁пон	-9186
ционе	-9187
▁Анге	-9188
▁Анто	-9189
▁Эсто	-9190
▁дожд	-9191
▁крат	-9192
▁отца	-9193
▁акция	-9194
▁визит	-9195
▁завое	-9196
▁прине	-9197
▁фанта	-9198
ленными	-9199
ристиан	-9200
▁облига	-9201
▁Госдуме	-9202
▁влияния	-9203
▁исправи	-9204
▁предпри	-9205
▁создана	-9206
▁угрозой	-9207
технологи	-9208
▁Результа	-9209
▁оставить	-9210
▁русского	-9211
▁Роспотреб	-9212
▁водителей	-9213
▁известных	-9214
▁студентов	-9215
▁инициативе	-9216
▁получается	-9217
▁специалист	-9218
▁представлены	-9219
▁президентских	-9220
ton	-9221
▁шу	-9222
мель	-9223
помя	-9224
шков	-9225
▁Nov	-9226
деква	-9227
енина	-9228
крепи	-9229
лиять	-9230
тамбу	-9231
чиком	-9232
▁базу	-9233
▁бокс	-9234
▁лиди	-9235
вающий	-9236
▁2015-	-9237
▁призы	-9238
▁снего	-9239
▁Проект	-9240
▁выйдет	-9241
▁реклам	-9242
▁высокий	-9243
▁выходит	-9244
▁гаранти	-9245
▁предъяви	-9246
▁происходя	-9247
▁зарубежных	-9248
▁инициативу	-9249
ec	-9250
ИН	-9251
гну	-9252
боро	-9253
ними	-9254
тари	-9255
трит	-9256
шали	-9257
▁каз	-9258
Йорке	-9259
ровая	-9260
ровых	-9261
щался	-9262
▁2004	-9263
▁вста	-9264
▁мама	-9265
▁холо	-9266
▁хуже	-9267
сональ	-9268
▁Нужно	-9269
▁писто	-9270
▁подви	-9271
▁трудо	-9272
ровался	-9273
▁бывших	-9274
▁дорогу	-9275
экономики	-9276
▁большого	-9277
▁отвечает	-9278
▁полуфина	-9279
▁составили	-9280
▁гражданина	-9281
▁занимаются	-9282
▁строительству	-9283
дко	-9284
▁52	-9285
agen	-9286
eing	-9287
лову	-9288
мать	-9289
▁WSJ	-9290
менко	-9291
▁спон	-9292
▁тебя	-9293
▁Народ	-9294
▁внима	-9295
▁глаза	-9296
▁ислам	-9297
▁округ	-9298
▁целей	-9299
▁играет	-9300
▁медали	-9301
▁Венесуэ	-9302
▁авторов	-9303
▁жителям	-9304
▁Mercedes	-9305
▁население	-9306
▁отделение	-9307
▁преследов	-9308
▁сирийского	-9309
▁спортсмена	-9310
▁причастности	-9311
ig	-9312
ПП	-9313
вки	-9314
▁BM	-9315
▁Жан	-9316
▁Люд	-9317
▁хле	-9318
лится	-9319
талия	-9320
▁Кари	-9321
▁Лука	-9322
▁биат	-9323
▁упра	-9324
дского	-9325
тивном	-9326
▁Bloom	-9327
▁будто	-9328
▁риски	-9329
▁шоссе	-9330
ниверси	-9331
▁Адвока	-9332
▁Латвии	-9333
▁выводу	-9334
▁налога	-9335
▁оценку	-9336
▁случаи	-9337
▁Сначала	-9338
▁журнала	-9339
▁позиция	-9340
▁передать	-9341
емократической	-9342
▁Международный	-9343
▁международный	-9344
-10	-9345
льф	-9346
"...	-9347
▁Куд	-9348
▁Том	-9349
▁блю	-9350
▁физ	-9351
такте	-9352
▁Рады	-9353
▁жена	-9354
▁изда	-9355
▁мете	-9356
▁осво	-9357
няться	-9358
рского	-9359
совета	-9360
чаются	-9361
читали	-9362
шенной	-9363
▁Такой	-9364
▁рассу	-9365
▁сосре	-9366
стребов	-9367
▁Стамбу	-9368
▁дистан	-9369
▁наращи	-9370
▁ребята	-9371
▁внешней	-9372
▁возраст	-9373
▁запущен	-9374
▁сенатор	-9375
▁здоровье	-9376
▁наверное	-9377
▁работали	-9378
▁готовится	-9379
▁интересно	-9380
▁сельского	-9381
▁продолжить	-9382
▁сокращения	-9383
▁вероятность	-9384
▁оказывается	-9385
▁высокопостав	-9386
▁произошедшего	-9387
жь	-9388
юр	-9389
жел	-9390
тке	-9391
няка	-9392
▁Бог	-9393
▁гек	-9394
▁база	-9395
▁вино	-9396
▁отме	-9397
▁упро	-9398
▁язык	-9399
вардии	-9400
ющейся	-9401
▁Центр	-9402
▁банке	-9403
▁жилье	-9404
▁театр	-9405
▁тормо	-9406
▁Первая	-9407
▁кладби	-9408
▁службе	-9409
▁создан	-9410
▁узнать	-9411
▁Максима	-9412
▁данного	-9413
▁регионы	-9414
▁связыва	-9415
▁органами	-9416
▁помощник	-9417
▁придержи	-9418
▁размещен	-9419
▁бесплатно	-9420
▁возглавил	-9421
▁инвесторы	-9422
▁мусульман	-9423
▁незаконно	-9424
▁одноманда	-9425
▁оказаться	-9426
▁случилось	-9427
▁обнаружены	-9428
4.	-9429
ran	-9430
бят	-9431
▁73	-9432
вело	-9433
зион	-9434
лков	-9435
ходу	-9436
граде	-9437
скать	-9438
▁Исто	-9439
▁Неда	-9440
▁буты	-9441
▁введ	-9442
▁одни	-9443
▁руку	-9444
вторых	-9445
▁вошел	-9446
▁звезд	-9447
▁платы	-9448
▁пойти	-9449
▁успел	-9450
енность	-9451
▁золото	-9452
▁многое	-9453
▁подвод	-9454
▁респон	-9455
▁церков	-9456
Башнефти	-9457
▁Америке	-9458
▁Позднее	-9459
▁приехал	-9460
▁Директор	-9461
▁преврати	-9462
▁Bloomberg	-9463
▁опасности	-9464
▁относится	-9465
▁пациентов	-9466
▁позволяют	-9467
▁преподава	-9468
▁режиссера	-9469
▁сообщества	-9470
▁референдума	-9471
▁Европейского	-9472
▁предвыборной	-9473
ke	-9474
нар	-9475
ноп	-9476
▁Же	-9477
льва	-9478
▁Мос	-9479
▁Сим	-9480
▁уте	-9481
▁Меня	-9482
▁несо	-9483
▁сухо	-9484
вшаяся	-9485
▁Коман	-9486
▁Число	-9487
▁выгод	-9488
▁красо	-9489
▁любви	-9490
▁рубль	-9491
▁сайта	-9492
▁целый	-9493
▁видимо	-9494
▁ислами	-9495
▁картин	-9496
▁конгре	-9497
▁любовь	-9498
▁побере	-9499
▁примут	-9500
▁эвакуа	-9501
Газпрома	-9502
▁начиная	-9503
▁удоволь	-9504
▁консерва	-9505
▁напротив	-9506
▁приблизи	-9507
▁стадиона	-9508
▁нападение	-9509
▁некоторым	-9510
▁показания	-9511
▁процедуры	-9512
▁состояния	-9513
▁перспективы	-9514
▁экономические	-9515
15	-9516
yp	-9517
вец	-9518
мся	-9519
тры	-9520
▁67	-9521
▁НД	-9522
▁МВФ	-9523
парти	-9524
торам	-9525
▁Арка	-9526
▁СИЗО	-9527
▁Журна	-9528
▁взыск	-9529
▁видит	-9530
▁волон	-9531
▁макси	-9532
▁соору	-9533
▁Boeing	-9534
▁диалог	-9535
▁лучшие	-9536
▁малого	-9537
▁Минфина	-9538
▁покупки	-9539
▁признан	-9540
▁давления	-9541
▁народной	-9542
▁нравится	-9543
▁созданию	-9544
▁чиновник	-9545
▁составить	-9546
▁разработан	-9547
▁следующего	-9548
▁европейской	-9549
▁заболеваний	-9550
▁объединения	-9551
▁исследование	-9552
эм	-9553
ult	-9554
ИФА	-9555
это	-9556
купи	-9557
надо	-9558
▁Ван	-9559
рамет	-9560
▁Лебе	-9561
▁длин	-9562
▁опер	-9563
▁селе	-9564
ведены	-9565
▁Откры	-9566
▁грамо	-9567
▁знать	-9568
▁пункт	-9569
▁сетях	-9570
▁среды	-9571
▁четко	-9572
работки	-9573
▁заняла	-9574
▁обвини	-9575
▁привод	-9576
▁спикер	-9577
▁трассе	-9578
▁доверия	-9579
▁оценить	-9580
▁текущем	-9581
▁временно	-9582
▁понимать	-9583
▁направлен	-9584
▁политиков	-9585
▁проходить	-9586
▁ликвидации	-9587
▁реализацию	-9588
▁полуострова	-9589
▁корреспонден	-9590
РУ	-9591
лум	-9592
мит	-9593
▁Вз	-9594
анин	-9595
граф	-9596
добы	-9597
▁(19	-9598
▁вни	-9599
▁лоб	-9600
▁едва	-9601
овокуп	-9602
▁интен	-9603
▁охран	-9604
благода	-9605
▁машине	-9606
▁предше	-9607
▁привез	-9608
▁эффект	-9609
▁индекса	-9610
▁обратно	-9611
▁очереди	-9612
▁швейцар	-9613
▁Причиной	-9614
▁конкурсе	-9615
▁написала	-9616
▁ожидания	-9617
▁поясняет	-9618
▁принципе	-9619
▁работода	-9620
▁Следствие	-9621
▁продолжит	-9622
▁Петербурга	-9623
▁переговорах	-9624
▁муниципальных	-9625
▁использованием	-9626
▁подозреваемого	-9627
гур	-9628
▁54	-9629
вела	-9630
дный	-9631
утся	-9632
▁BMW	-9633
▁Бра	-9634
▁Оно	-9635
▁Голо	-9636
▁Миню	-9637
▁Тара	-9638
▁радо	-9639
Россий	-9640
ологии	-9641
▁Новго	-9642
▁Памфи	-9643
▁Петро	-9644
▁гиган	-9645
▁месту	-9646
▁медици	-9647
▁поступ	-9648
▁прибыл	-9649
▁ставка	-9650
▁тюрьмы	-9651
▁Впервые	-9652
▁близких	-9653
▁женщину	-9654
▁замороз	-9655
▁расстре	-9656
▁туризма	-9657
▁хороший	-9658
▁интересу	-9659
▁запретить	-9660
▁подписали	-9661
▁прокурора	-9662
▁подчеркнула	-9663
-9	-9664
▁Q	-9665
жил	-9666
шом	-9667
▁58	-9668
Tube	-9669
етов	-9670
леть	-9671
шого	-9672
▁Спу	-9673
▁дип	-9674
брали	-9675
завод	-9676
ходил	-9677
▁Стро	-9678
▁воло	-9679
▁сказ	-9680
▁добра	-9681
▁отлич	-9682
▁подар	-9683
ложений	-9684
▁Смолен	-9685
▁исходя	-9686
▁подход	-9687
▁спраши	-9688
▁ущерба	-9689
▁YouTube	-9690
▁выросло	-9691
▁вещества	-9692
▁командой	-9693
▁механизм	-9694
▁создавать	-9695
▁фестиваль	-9696
▁Всемирного	-9697
▁рассмотрение	-9698
);	-9699
ИГ	-9700
Ведо	-9701
▁10%	-9702
▁Рам	-9703
▁сбы	-9704
ненно	-9705
редни	-9706
▁впло	-9707
▁имел	-9708
▁смяг	-9709
Ростов	-9710
проект	-9711
▁вокза	-9712
▁знаем	-9713
▁новин	-9714
▁скром	-9715
▁Анаста	-9716
▁месяцы	-9717
▁миссии	-9718
▁рынках	-9719
▁севере	-9720
▁наличии	-9721
▁острове	-9722
▁позиций	-9723
▁хорошие	-9724
▁	-9725
о	-9726
е	-9727
а	-9728
и	-9729
н	-9730
т	-9731
с	-9732
р	-9733
в	-9734
л	-9735
к	-9736
д	-9737
м	-9738
п	-9739
у	-9740
ы	-9741
я	-9742
г	-9743
з	-9744
б	-9745
,	-9746
ь	-9747
й	-9748
ч	-9749
.	-9750
х	-9751
ж	-9752
"	-9753
ц	-9754
ю	-9755
ш	-9756
-	-9757
щ	-9758
С	-9759
ф	-9760
э	-9761
В	-9762
П	-9763
1	-9764
0	-9765
К	-9766
Р	-9767
2	-9768
А	-9769
М	-9770
Н	-9771
О	-9772
И	-9773
Д	-9774
Т	-9775
Б	-9776
:	-9777
e	-9778
Г	-9779
5	-9780
a	-9781
3	-9782
Ф	-9783
(	-9784
)	-9785
o	-9786
6	-9787
4	-9788
У	-9789
r	-9790
Е	-9791
9	-9792
i	-9793
n	-9794
Л	-9795
t	-9796
7	-9797
8	-9798
З	-9799
Э	-9800
Ш	-9801
s	-9802
ъ	-9803
u	-9804
l	-9805
Ч	-9806
%	-9807
Х	-9808
Я	-9809
c	-9810
Ц	-9811
?	-9812
A	-9813
d	-9814
m	-9815
g	-9816
S	-9817
p	-9818
h	-9819
I	-9820
T	-9821
Ж	-9822
L	-9823
C	-9824
R	-9825
Ю	-9826
y	-9827
Ъ	-9828
N	-9829
B	-9830
M	-9831
P	-9832
F	-9833
k	-9834
b	-9835
!	-9836
w	-9837
G	-9838
D	-9839
$	-9840
W	-9841
E	-9842
/	-9843
v	-9844
f	-9845
;	-9846
V	-9847
H	-9848
O	-9849
X	-9850
x	-9851
Й	-9852
U	-9853
z	-9854
J	-9855
K	-9856
­	-9857
+	-9858
Y	-9859
·	-9860
€	-9861
'	-9862
&	-9863
Z	-9864
Щ	-9865
[	-9866
°	-9867
]	-9868
Q	-9869
j	-9870
‐	-9871
>	-9872
і	-9873
―	-9874
*	-9875
q	-9876
Ы	-9877
−	-9878
_	-9879
#	-9880
£	-9881
@	-9882
Ь	-9883
=	-9884
`	-9885
ü	-9886
ä	-9887
ї	-9888
•	-9889
é	-9890
õ	-9891
×	-9892
⁄	-9893
<	-9894
є	-9895
■	-9896
ó	-9897
′	-9898
©	-9899
ö	-9900
→	-9901
́	-9902
‒	-9903
è	-9904
І	-9905
þ	-9906
‬	-9907
\	-9908
~	-9909
É	-9910
ë	-9911
μ	-9912
ў	-9913
‍	-9914
😂	-9915
¦	-9916
¬	-9917
Ö	-9918
à	-9919
Ş	-9920
Ν	-9921
α	-9922
β	-9923
Ў	-9924
қ	-9925
‪	-9926
ç	-9927
ê	-9928
í	-9929
ð	-9930
ô	-9931
ī	-9932
ı	-9933
ŏ	-9934
ś	-9935
Š	-9936
ʀ	-9937
ʼ	-9938
Α	-9939
Η	-9940
ν	-9941
ο	-9942
џ	-9943
ғ	-9944
▲	-9945
⚽	-9946
️	-9947
¤	-9948
¥	-9949
§	-9950
Ë	-9951
ß	-9952
á	-9953
ø	-9954
ā	-9955
ę	-9956
İ	-9957
Ł	-9958
ń	-9959
ş	-9960
š	-9961
̊	-9962
Έ	-9963
Γ	-9964
Σ	-9965
έ	-9966
λ	-9967
ρ	-9968
τ	-9969
χ	-9970
ώ	-9971
Є	-9972
Ї	-9973
ё	-9974
Қ	-9975
ҳ	-9976
ӣ	-9977
∙	-9978
⋅	-9979
─	-9980
►	-9981
●	-9982
☃	-9983
☝	-9984
♫	-9985
❄	-9986
《	-9987
》	-9988
	-9989
🌞	-9990
🍺	-9991
🎂	-9992
🐅	-9993
🐗	-9994
🐺	-9995
💪	-9996
