<unk>	0
<s>	0
</s>	0
▁о	-0
▁и	-1
▁а	-2
▁с	-3
▁н	-4
▁п	-5
▁е	-6
▁в	-7
▁,	-8
▁т	-9
▁р	-10
▁к	-11
▁.	-12
▁д	-13
▁у	-14
▁м	-15
▁л	-16
ст	-17
го	-18
▁по	-19
▁ы	-20
▁на	-21
то	-22
▁пр	-23
ен	-24
▁б	-25
▁"	-26
ер	-27
▁з	-28
ет	-29
ни	-30
ов	-31
▁ч	-32
▁ов	-33
ан	-34
ел	-35
▁-	-36
▁ст	-37
▁но	-38
▁ко	-39
▁не	-40
▁я	-41
▁ра	-42
ед	-43
▁за	-44
ро	-45
▁го	-46
ра	-47
ли	-48
ск	-49
▁ит	-50
но	-51
ин	-52
▁то	-53
ль	-54
▁ом	-55
▁г	-56
▁об	-57
▁э	-58
▁ен	-59
▁В	-60
▁С	-61
▁про	-62
▁от	-63
ся	-64
▁ны	-65
▁П	-66
ла	-67
ем	-68
ак	-69
▁ени	-70
▁ни	-71
▁1	-72
ци	-73
сс	-74
ал	-75
▁ь	-76
▁из	-77
▁что	-78
▁ск	-79
од	-80
▁Р	-81
ит	-82
▁до	-83
▁К	-84
ат	-85
▁ф	-86
▁ой	-87
во	-88
▁ре	-89
▁М	-90
▁2	-91
ло	-92
▁ж	-93
▁х	-94
ил	-95
ва	-96
▁ро	-97
▁0	-98
▁Н	-99
▁ан	-100
▁со	-101
ле	-102
▁ат	-103
▁ил	-104
▁во	-105
▁й	-106
▁ин	-107
▁ш	-108
▁вы	-109
▁мо	-110
ав	-111
▁при	-112
▁ли	-113
тор	-114
▁ер	-115
▁ам	-116
▁А	-117
▁бы	-118
▁ор	-119
уд	-120
▁О	-121
▁год	-122
ар	-123
▁ост	-124
ель	-125
▁это	-126
▁ей	-127
▁он	-128
▁тр	-129
▁ого	-130
▁ю	-131
сси	-132
▁ет	-133
он	-134
▁ие	-135
сь	-136
▁их	-137
аз	-138
ент	-139
▁ру	-140
▁раз	-141
ир	-142
ля	-143
▁ар	-144
▁Т	-145
▁им	-146
▁ия	-147
▁оп	-148
▁ри	-149
▁Д	-150
ти	-151
▁котор	-152
ей	-153
▁пер	-154
▁ци	-155
ам	-156
▁ани	-157
ор	-158
▁:	-159
▁ц	-160
▁ме	-161
ны	-162
че	-163
▁од	-164
▁И	-165
▁ить	-166
же	-167
▁пред	-168
об	-169
ек	-170
ез	-171
▁ий	-172
▁ол	-173
от	-174
▁ок	-175
сти	-176
▁ые	-177
▁под	-178
▁Б	-179
ру	-180
▁Г	-181
▁ник	-182
да	-183
жд	-184
▁ает	-185
сп	-186
▁ая	-187
▁ла	-188
ств	-189
▁ых	-190
▁ии	-191
▁так	-192
▁ско	-193
▁ения	-194
▁ал	-195
ут	-196
ур	-197
ма	-198
▁ах	-199
▁лен	-200
▁де	-201
▁ка	-202
▁ль	-203
▁(	-204
▁его	-205
▁иче	-206
▁ическ	-207
▁ем	-208
ие	-209
ис	-210
им	-211
▁ав	-212
▁)	-213
▁ать	-214
▁ся	-215
ют	-216
▁Ро	-217
▁ый	-218
▁ных	-219
▁5	-220
▁ист	-221
ко	-222
ят	-223
▁кон	-224
▁ств	-225
ре	-226
▁сл	-227
▁ение	-228
льн	-229
на	-230
▁ив	-231
▁По	-232
▁ной	-233
ри	-234
▁ик	-235
▁ос	-236
▁ком	-237
▁тв	-238
▁ного	-239
▁3	-240
▁Е	-241
ес	-242
▁ое	-243
▁ак	-244
▁итель	-245
ча	-246
▁оз	-247
▁Росси	-248
ик	-249
▁ым	-250
▁как	-251
▁для	-252
▁У	-253
▁пос	-254
▁ую	-255
▁пре	-256
▁раб	-257
▁ами	-258
▁6	-259
их	-260
▁вс	-261
▁ть	-262
ия	-263
▁ло	-264
▁те	-265
▁сп	-266
ран	-267
▁буд	-268
▁4	-269
ров	-270
▁тел	-271
та	-272
общ	-273
сть	-274
▁Л	-275
ий	-276
▁пере	-277
▁йск	-278
▁ные	-279
▁бо	-280
▁ви	-281
▁тер	-282
▁ев	-283
▁ный	-284
уп	-285
▁9	-286
▁ог	-287
▁работ	-288
▁ек	-289
▁сообщ	-290
▁Ф	-291
вор	-292
▁щ	-293
▁На	-294
▁се	-295
▁ее	-296
▁ят	-297
▁вер	-298
ект	-299
▁ми	-300
▁ут	-301
род	-302
чн	-303
▁этом	-304
льк	-305
▁сто	-306
▁яв	-307
▁ным	-308
▁ад	-309
▁сво	-310
уж	-311
ать	-312
уч	-313
▁З	-314
лн	-315
ев	-316
▁ти	-317
▁все	-318
▁7	-319
▁говор	-320
ры	-321
▁ки	-322
▁ес	-323
▁да	-324
▁ля	-325
▁Э	-326
▁вед	-327
ую	-328
▁ед	-329
▁гра	-330
▁ча	-331
▁лет	-332
▁уд	-333
▁нов	-334
▁ход	-335
▁комп	-336
рав	-337
▁ред	-338
▁су	-339
▁мир	-340
▁прав	-341
▁сам	-342
▁мож	-343
▁8	-344
▁росси	-345
▁ию	-346
▁ания	-347
▁ма	-348
▁или	-349
▁мен	-350
▁мест	-351
де	-352
▁тор	-353
ход	-354
▁али	-355
▁гла	-356
ги	-357
▁ном	-358
▁ции	-359
▁ности	-360
▁руб	-361
▁став	-362
▁ай	-363
ул	-364
▁гос	-365
▁ства	-366
из	-367
вн	-368
▁ство	-369
лю	-370
▁воз	-371
▁мер	-372
▁дент	-373
бр	-374
льш	-375
▁ста	-376
▁ве	-377
▁оч	-378
▁ают	-379
▁кра	-380
▁ской	-381
▁тран	-382
▁каз	-383
дел	-384
▁ку	-385
▁будет	-386
▁вод	-387
ме	-388
ди	-389
лен	-390
бы	-391
▁кан	-392
ерж	-393
▁след	-394
▁уб	-395
тер	-396
▁дел	-397
▁же	-398
ад	-399
▁ель	-400
▁Ч	-401
▁лю	-402
▁году	-403
▁ров	-404
ыв	-405
▁хо	-406
▁реш	-407
▁мет	-408
▁рас	-409
ези	-410
▁оле	-411
▁мент	-412
ных	-413
▁ест	-414
кт	-415
▁оло	-416
▁иров	-417
▁дв	-418
тов	-419
▁лов	-420
▁расс	-421
ка	-422
ии	-423
мо	-424
▁нес	-425
ще	-426
▁также	-427
рем	-428
▁ости	-429
▁эк	-430
не	-431
ган	-432
▁ъ	-433
▁оск	-434
▁ва	-435
ной	-436
ном	-437
▁ении	-438
ита	-439
▁мы	-440
▁ран	-441
ол	-442
▁ты	-443
вы	-444
яв	-445
▁тель	-446
▁ность	-447
▁ится	-448
ой	-449
▁уже	-450
▁ное	-451
ющ	-452
▁тро	-453
▁поли	-454
▁ского	-455
▁был	-456
▁ле	-457
▁орган	-458
▁ков	-459
▁нач	-460
▁том	-461
▁ют	-462
▁лож	-463
сн	-464
яз	-465
▁уча	-466
▁дн	-467
▁прези	-468
гда	-469
▁чем	-470
▁дол	-471
▁было	-472
▁чер	-473
▁уч	-474
▁ду	-475
▁ур	-476
▁город	-477
▁без	-478
сл	-479
▁ная	-480
▁оро	-481
ть	-482
▁та	-483
▁остав	-484
▁чел	-485
ремя	-486
▁время	-487
▁Х	-488
ив	-489
▁вид	-490
▁ость	-491
▁стр	-492
▁см	-493
нов	-494
ник	-495
▁пар	-496
▁челов	-497
▁овы	-498
▁ласти	-499
ред	-500
▁чет	-501
▁они	-502
▁иг	-503
ень	-504
▁тольк	-505
лек	-506
▁начал	-507
руп	-508
▁пу	-509
▁может	-510
иц	-511
ом	-512
рос	-513
ве	-514
ее	-515
▁рез	-516
▁торо	-517
▁мог	-518
ян	-519
▁па	-520
▁ир	-521
▁рем	-522
▁уп	-523
▁ется	-524
▁Я	-525
▁ис	-526
▁она	-527
▁явил	-528
▁ян	-529
яд	-530
▁иза	-531
▁ила	-532
▁ании	-533
▁пол	-534
▁олее	-535
рат	-536
▁стран	-537
▁?	-538
▁участ	-539
жду	-540
▁СШ	-541
▁зна	-542
▁США	-543
каз	-544
люч	-545
те	-546
▁еств	-547
▁иц	-548
▁после	-549
▁ел	-550
▁еще	-551
сто	-552
▁аг	-553
▁мат	-554
▁ап	-555
▁годн	-556
тив	-557
▁цион	-558
▁того	-559
▁нт	-560
▁Ш	-561
▁ож	-562
▁ступ	-563
▁ления	-564
ше	-565
▁веден	-566
ябр	-567
нис	-568
▁авто	-569
▁олж	-570
▁сказ	-571
▁арств	-572
▁кольк	-573
лик	-574
ейс	-575
▁инф	-576
ного	-577
▁анк	-578
▁дет	-579
▁%	-580
▁зв	-581
ные	-582
▁луч	-583
руг	-584
▁чтобы	-585
▁ную	-586
▁Ц	-587
ентр	-588
▁озмо	-589
▁озмож	-590
▁коном	-591
▁ается	-592
▁i	-593
▁держ	-594
▁Как	-595
▁ива	-596
▁тре	-597
▁вз	-598
▁иа	-599
оч	-600
мен	-601
▁были	-602
▁огла	-603
▁уст	-604
роп	-605
▁роект	-606
▁Ев	-607
тат	-608
▁альн	-609
▁ован	-610
▁отр	-611
▁ский	-612
▁олуч	-613
▁ому	-614
▁ило	-615
▁ди	-616
бор	-617
▁вел	-618
▁аз	-619
▁готов	-620
▁Но	-621
ним	-622
▁тех	-623
▁При	-624
▁кор	-625
▁РФ	-626
▁лед	-627
▁больш	-628
▁госуд	-629
▁род	-630
▁исп	-631
▁тан	-632
▁интер	-633
ку	-634
▁полн	-635
мм	-636
▁св	-637
ая	-638
▁опрос	-639
рт	-640
▁ош	-641
▁отно	-642
▁Алек	-643
ац	-644
▁ры	-645
▁атель	-646
тр	-647
▁народ	-648
▁За	-649
▁сред	-650
▁над	-651
▁Это	-652
▁Алекс	-653
▁перв	-654
▁ублик	-655
дан	-656
▁цен	-657
▁са	-658
▁краин	-659
▁долж	-660
▁сч	-661
пи	-662
▁гол	-663
▁кры	-664
▁ует	-665
▁между	-666
▁ремен	-667
ус	-668
▁нет	-669
ина	-670
▁оф	-671
▁еч	-672
це	-673
▁ыми	-674
▁ледов	-675
ции	-676
▁ох	-677
ным	-678
▁есть	-679
▁че	-680
▁дейс	-681
▁эти	-682
▁орм	-683
▁ений	-684
стн	-685
▁пл	-686
▁Об	-687
анд	-688
му	-689
вес	-690
▁Не	-691
▁ец	-692
▁ерт	-693
стр	-694
▁ас	-695
▁ид	-696
▁перед	-697
▁пут	-698
▁ствен	-699
▁ание	-700
▁би	-701
▁орма	-702
мер	-703
▁пис	-704
др	-705
▁мар	-706
▁счита	-707
▁тав	-708
▁нима	-709
▁мол	-710
ос	-711
▁минис	-712
▁му	-713
▁ими	-714
циа	-715
▁ьтат	-716
▁этого	-717
▁сов	-718
ящ	-719
▁ению	-720
▁суд	-721
▁годня	-722
▁вш	-723
▁кур	-724
▁ился	-725
га	-726
▁ться	-727
▁наз	-728
▁эксп	-729
▁ающ	-730
час	-731
er	-732
▁ейчас	-733
уб	-734
▁явля	-735
▁r	-736
▁ными	-737
чин	-738
▁рав	-739
▁резул	-740
▁осси	-741
▁полит	-742
▁груп	-743
▁ольш	-744
▁групп	-745
▁Вла	-746
▁ряд	-747
▁тур	-748
ять	-749
▁асс	-750
▁нас	-751
▁опер	-752
▁отруд	-753
си	-754
зов	-755
▁ловам	-756
▁отнош	-757
▁ез	-758
▁жд	-759
▁бор	-760
▁Влади	-761
▁кт	-762
▁енно	-763
▁ление	-764
▁стал	-765
▁тся	-766
ясн	-767
▁кла	-768
▁орт	-769
бо	-770
▁сед	-771
▁иться	-772
▁ала	-773
вер	-774
en	-775
▁пра	-776
▁ень	-777
▁неф	-778
▁опа	-779
▁торон	-780
▁чис	-781
▁изаци	-782
▁овал	-783
▁нару	-784
▁ивн	-785
▁ыв	-786
▁наш	-787
ста	-788
▁Са	-789
▁гражд	-790
▁млн	-791
ущ	-792
▁ских	-793
▁стан	-794
▁пе	-795
▁теля	-796
▁рай	-797
▁если	-798
▁ова	-799
ако	-800
▁днако	-801
▁метил	-802
▁риз	-803
▁лиш	-804
вод	-805
▁будут	-806
▁руг	-807
▁центр	-808
ери	-809
▁аш	-810
▁знач	-811
▁телей	-812
▁служ	-813
▁охран	-814
едер	-815
▁ало	-816
▁Так	-817
▁ке	-818
▁олог	-819
▁ям	-820
▁ово	-821
▁была	-822
▁ников	-823
▁произ	-824
▁L	-825
▁Нов	-826
▁пи	-827
▁иск	-828
▁мил	-829
▁аем	-830
▁дви	-831
▁себ	-832
енн	-833
▁аб	-834
▁Ка	-835
▁ротив	-836
▁зак	-837
▁си	-838
▁ковод	-839
▁могут	-840
▁Ж	-841
▁сел	-842
▁бл	-843
▁мотр	-844
▁когда	-845
▁Ю	-846
▁S	-847
▁ьн	-848
▁кр	-849
▁ция	-850
▁мин	-851
▁уж	-852
▁истем	-853
▁нап	-854
▁следн	-855
▁тем	-856
▁иту	-857
00	-858
ени	-859
▁рубле	-860
акт	-861
▁где	-862
▁можно	-863
▁них	-864
▁очень	-865
▁ики	-866
▁один	-867
▁быть	-868
кол	-869
▁оказ	-870
▁связ	-871
▁ью	-872
ный	-873
▁Он	-874
▁заяв	-875
▁траны	-876
▁ич	-877
▁ус	-878
▁ип	-879
▁мл	-880
▁доро	-881
еж	-882
▁Из	-883
▁закон	-884
рд	-885
▁иру	-886
▁фи	-887
▁отв	-888
▁оманд	-889
▁ейск	-890
лиц	-891
▁ня	-892
▁оста	-893
▁млрд	-894
спе	-895
▁итуац	-896
▁яет	-897
▁ось	-898
▁ивш	-899
▁A	-900
▁лист	-901
▁ему	-902
▁ех	-903
иа	-904
се	-905
▁сего	-906
▁ыст	-907
▁люб	-908
▁ьзов	-909
▁газ	-910
▁овер	-911
▁овать	-912
▁наход	-913
ич	-914
▁кол	-915
▁фон	-916
▁спор	-917
анс	-918
▁енных	-919
сяч	-920
▁друг	-921
▁кл	-922
▁техн	-923
▁управ	-924
▁ием	-925
▁ились	-926
▁жиз	-927
▁ото	-928
▁тысяч	-929
▁ело	-930
▁ква	-931
▁твов	-932
▁лся	-933
▁район	-934
ител	-935
ta	-936
▁дир	-937
▁грамм	-938
▁R	-939
ец	-940
▁иальн	-941
▁два	-942
▁инанс	-943
▁милли	-944
▁Мин	-945
▁око	-946
▁дву	-947
▁оль	-948
лич	-949
▁оглас	-950
цен	-951
▁ыва	-952
▁лиц	-953
уча	-954
по	-955
▁бли	-956
кра	-957
▁T	-958
▁блем	-959
▁голов	-960
▁оссия	-961
ых	-962
▁андр	-963
▁ено	-964
▁ита	-965
▁усл	-966
▁утин	-967
са	-968
▁теле	-969
▁основ	-970
▁полиц	-971
▁опера	-972
▁ответ	-973
ить	-974
▁ун	-975
меч	-976
▁необ	-977
▁лат	-978
▁обра	-979
▁терри	-980
▁цел	-981
ки	-982
▁моб	-983
▁Дж	-984
▁доб	-985
▁I	-986
▁тыс	-987
▁пы	-988
▁много	-989
▁стре	-990
▁тели	-991
▁!	-992
▁ыш	-993
▁ество	-994
▁одим	-995
▁мобил	-996
▁пресс	-997
▁Ко	-998
▁даже	-999
▁хот	-1000
▁a	-1001
▁этому	-1002
ерг	-1003
▁ники	-1004
▁опас	-1005
▁стреч	-1006
▁N	-1007
▁транс	-1008
▁тори	-1009
▁гро	-1010
▁место	-1011
▁ключ	-1012
▁ольше	-1013
▁стоян	-1014
▁аж	-1015
▁ru	-1016
▁пла	-1017
▁реа	-1018
▁C	-1019
▁редел	-1020
▁летн	-1021
▁ыступ	-1022
ок	-1023
▁ервы	-1024
▁объ	-1025
▁ум	-1026
СС	-1027
ест	-1028
▁анным	-1029
▁стро	-1030
▁аль	-1031
▁уров	-1032
▁ующ	-1033
▁ская	-1034
▁главн	-1035
ета	-1036
▁рын	-1037
▁Сир	-1038
▁необх	-1039
▁цию	-1040
▁ген	-1041
▁ще	-1042
▁мор	-1043
▁раж	-1044
▁гор	-1045
анк	-1046
▁мед	-1047
▁амери	-1048
▁казал	-1049
▁защ	-1050
▁право	-1051
▁зн	-1052
▁зап	-1053
▁военн	-1054
▁B	-1055
▁тар	-1056
▁точ	-1057
▁твия	-1058
▁еги	-1059
краи	-1060
▁тя	-1061
▁около	-1062
▁дирек	-1063
▁илась	-1064
зу	-1065
▁путат	-1066
вин	-1067
▁лег	-1068
▁ния	-1069
▁омо	-1070
▁сен	-1071
▁ись	-1072
on	-1073
▁авш	-1074
▁Ран	-1075
▁Украи	-1076
нес	-1077
▁этот	-1078
▁един	-1079
▁ги	-1080
▁рин	-1081
▁сдел	-1082
олн	-1083
▁Европ	-1084
▁пуск	-1085
▁быв	-1086
▁рен	-1087
▁ался	-1088
▁канск	-1089
▁тра	-1090
▁M	-1091
▁чит	-1092
▁ивает	-1093
▁недел	-1094
▁ример	-1095
▁ением	-1096
ду	-1097
▁име	-1098
▁тно	-1099
▁оверш	-1100
▁оцен	-1101
▁клад	-1102
▁выс	-1103
▁аться	-1104
▁предп	-1105
▁являе	-1106
▁F	-1107
▁юд	-1108
▁щик	-1109
▁Нап	-1110
▁люд	-1111
▁ены	-1112
▁доку	-1113
▁тен	-1114
▁ним	-1115
▁нич	-1116
▁месте	-1117
▁выбор	-1118
▁ул	-1119
▁реж	-1120
щен	-1121
▁ние	-1122
▁рат	-1123
▁ери	-1124
▁танов	-1125
▁порт	-1126
▁омощ	-1127
▁стра	-1128
▁Ранее	-1129
▁лучил	-1130
▁истра	-1131
▁устан	-1132
атр	-1133
▁иал	-1134
▁спорт	-1135
▁всех	-1136
▁ека	-1137
▁еб	-1138
▁маш	-1139
▁тву	-1140
▁дал	-1141
▁лись	-1142
▁агент	-1143
▁бу	-1144
▁звал	-1145
▁стави	-1146
▁кин	-1147
▁це	-1148
▁план	-1149
▁ител	-1150
льт	-1151
▁сла	-1152
▁еть	-1153
▁ющ	-1154
▁ества	-1155
▁истор	-1156
▁снов	-1157
▁извод	-1158
▁стоящ	-1159
▁пока	-1160
▁частн	-1161
жет	-1162
▁отмеч	-1163
▁ейш	-1164
▁мон	-1165
▁кач	-1166
▁троит	-1167
▁ях	-1168
▁офиц	-1169
▁сни	-1170
▁енко	-1171
▁него	-1172
▁Рос	-1173
▁чик	-1174
▁ерг	-1175
▁илось	-1176
отв	-1177
▁рак	-1178
▁луж	-1179
ьер	-1180
▁ские	-1181
▁движ	-1182
▁три	-1183
аж	-1184
▁измен	-1185
▁наруш	-1186
▁сро	-1187
▁Мы	-1188
▁рист	-1189
▁омент	-1190
▁терро	-1191
▁спец	-1192
▁испол	-1193
един	-1194
том	-1195
ующ	-1196
▁бур	-1197
▁круп	-1198
▁нуж	-1199
▁вани	-1200
би	-1201
▁ег	-1202
▁курс	-1203
▁обвин	-1204
▁кар	-1205
▁ском	-1206
▁теп	-1207
▁инг	-1208
▁вой	-1209
▁вал	-1210
▁лич	-1211
▁показ	-1212
▁ятся	-1213
▁редит	-1214
▁s	-1215
▁нос	-1216
▁c	-1217
▁этой	-1218
▁мьер	-1219
▁пособ	-1220
▁Ес	-1221
▁лект	-1222
▁всем	-1223
▁крупн	-1224
▁Если	-1225
▁ляет	-1226
▁тк	-1227
▁аний	-1228
▁защит	-1229
▁ент	-1230
▁авиа	-1231
▁дан	-1232
сяц	-1233
▁коно	-1234
▁лид	-1235
▁Ин	-1236
▁себя	-1237
инг	-1238
▁голо	-1239
▁рани	-1240
▁рег	-1241
▁твующ	-1242
▁месяц	-1243
▁циона	-1244
ну	-1245
▁поб	-1246
▁юджет	-1247
▁$	-1248
▁чемпи	-1249
▁Тур	-1250
▁отре	-1251
вар	-1252
▁изнес	-1253
▁бира	-1254
▁само	-1255
▁через	-1256
▁жител	-1257
▁двух	-1258
▁сет	-1259
▁иф	-1260
▁льно	-1261
▁10	-1262
▁вести	-1263
▁P	-1264
▁Сирии	-1265
▁егион	-1266
юз	-1267
▁респ	-1268
мин	-1269
▁ведом	-1270
▁енные	-1271
▁шло	-1272
▁Новос	-1273
ком	-1274
▁бург	-1275
до	-1276
▁день	-1277
▁дела	-1278
▁вра	-1279
▁куп	-1280
▁ья	-1281
▁числе	-1282
▁жи	-1283
▁сы	-1284
▁Пос	-1285
▁свою	-1286
▁голос	-1287
▁ха	-1288
▁рт	-1289
▁пор	-1290
итр	-1291
▁отказ	-1292
▁сбор	-1293
▁t	-1294
▁лит	-1295
▁рам	-1296
▁G	-1297
▁жел	-1298
▁Кро	-1299
▁одно	-1300
▁филь	-1301
▁ьник	-1302
▁ять	-1303
лаг	-1304
▁нем	-1305
▁енной	-1306
▁ричин	-1307
▁ук	-1308
▁нск	-1309
▁совет	-1310
▁ному	-1311
▁еп	-1312
▁ались	-1313
▁глава	-1314
▁дав	-1315
▁кто	-1316
▁овой	-1317
▁апр	-1318
▁Кроме	-1319
▁Дм	-1320
▁кварт	-1321
▁Дмитр	-1322
▁йд	-1323
▁Все	-1324
▁соотв	-1325
лк	-1326
▁ецк	-1327
▁Пет	-1328
▁кци	-1329
нир	-1330
▁рия	-1331
▁велич	-1332
▁рован	-1333
▁овых	-1334
▁школ	-1335
▁Про	-1336
▁ара	-1337
▁ика	-1338
▁ются	-1339
▁лим	-1340
▁стве	-1341
▁матер	-1342
▁ман	-1343
▁лаг	-1344
вол	-1345
лож	-1346
▁Се	-1347
▁бра	-1348
▁сь	-1349
▁вис	-1350
▁град	-1351
▁ланир	-1352
▁олла	-1353
▁кат	-1354
▁алось	-1355
екс	-1356
▁хоро	-1357
лед	-1358
▁игра	-1359
▁конц	-1360
▁n	-1361
▁соб	-1362
ык	-1363
▁зем	-1364
▁нии	-1365
▁админ	-1366
▁езд	-1367
▁оскве	-1368
▁нее	-1369
▁обств	-1370
▁ческ	-1371
▁дд	-1372
▁нев	-1373
▁сир	-1374
▁менно	-1375
▁ранее	-1376
▁рус	-1377
▁сай	-1378
▁ъект	-1379
▁мит	-1380
or	-1381
щин	-1382
▁уш	-1383
▁Турци	-1384
▁своей	-1385
▁поз	-1386
▁етс	-1387
▁апрел	-1388
▁ктябр	-1389
▁член	-1390
▁лектр	-1391
▁ивать	-1392
▁стать	-1393
▁январ	-1394
▁добав	-1395
▁полаг	-1396
рыт	-1397
▁ткрыт	-1398
▁оев	-1399
▁селен	-1400
▁обы	-1401
▁тории	-1402
ый	-1403
▁отреб	-1404
▁там	-1405
▁местн	-1406
▁СМ	-1407
▁Len	-1408
▁озвол	-1409
▁оллар	-1410
▁Lenta	-1411
▁овые	-1412
отр	-1413
▁смотр	-1414
▁дач	-1415
зда	-1416
▁созда	-1417
▁казан	-1418
▁олжны	-1419
▁держк	-1420
▁b	-1421
▁овлен	-1422
▁вет	-1423
▁тивн	-1424
▁связи	-1425
▁Гла	-1426
▁дорог	-1427
▁15	-1428
▁ожи	-1429
▁вла	-1430
жн	-1431
▁реб	-1432
▁ергей	-1433
▁Ъ	-1434
▁лидер	-1435
▁ног	-1436
▁ией	-1437
▁особ	-1438
▁фф	-1439
▁факт	-1440
▁лиз	-1441
▁сущ	-1442
▁кре	-1443
▁ана	-1444
▁скор	-1445
▁труд	-1446
▁служб	-1447
▁росто	-1448
▁Кон	-1449
▁вар	-1450
▁арти	-1451
▁ну	-1452
▁блю	-1453
▁вит	-1454
▁уровн	-1455
▁вое	-1456
▁прин	-1457
▁уз	-1458
▁асп	-1459
▁оор	-1460
▁20	-1461
▁лимпи	-1462
бол	-1463
▁ТА	-1464
▁енщин	-1465
▁торг	-1466
▁оздан	-1467
▁цев	-1468
▁льной	-1469
гра	-1470
сят	-1471
▁федер	-1472
▁уг	-1473
▁поч	-1474
рам	-1475
▁гл	-1476
▁жен	-1477
▁мод	-1478
▁ТАСС	-1479
▁тов	-1480
▁йти	-1481
▁лучш	-1482
▁РИ	-1483
▁СМИ	-1484
▁омним	-1485
▁Бел	-1486
▁подин	-1487
▁фильм	-1488
▁жил	-1489
▁луча	-1490
▁людей	-1491
▁ноябр	-1492
▁Ме	-1493
▁оби	-1494
▁емь	-1495
▁лощ	-1496
▁стар	-1497
▁сдела	-1498
лог	-1499
▁мал	-1500
▁ругих	-1501
▁ддерж	-1502
▁обяз	-1503
▁час	-1504
▁матч	-1505
▁культ	-1506
▁исс	-1507
▁машин	-1508
▁ней	-1509
▁налог	-1510
▁Сов	-1511
▁дем	-1512
▁доста	-1513
▁уют	-1514
▁ели	-1515
▁вестн	-1516
▁разн	-1517
▁ятель	-1518
▁еспе	-1519
▁еспеч	-1520
▁акс	-1521
▁виде	-1522
▁шт	-1523
▁игр	-1524
▁нальн	-1525
мет	-1526
▁ини	-1527
▁тон	-1528
▁эта	-1529
▁W	-1530
▁побед	-1531
▁крыт	-1532
рым	-1533
▁укт	-1534
▁рк	-1535
▁страд	-1536
▁лин	-1537
▁Интер	-1538
▁лучае	-1539
▁очн	-1540
▁ожида	-1541
▁ье	-1542
▁енн	-1543
▁десят	-1544
▁лощад	-1545
▁уктур	-1546
▁сек	-1547
▁ровод	-1548
▁сновн	-1549
бод	-1550
▁вобод	-1551
▁зд	-1552
▁ризна	-1553
▁/	-1554
▁втор	-1555
an	-1556
езд	-1557
▁еты	-1558
▁шел	-1559
▁пуст	-1560
▁еж	-1561
▁источ	-1562
▁натор	-1563
▁ере	-1564
▁ходе	-1565
▁естве	-1566
дат	-1567
▁тяж	-1568
▁Федер	-1569
▁седа	-1570
▁Де	-1571
неш	-1572
▁гру	-1573
▁сс	-1574
▁эн	-1575
▁РИА	-1576
▁дидат	-1577
▁сер	-1578
тон	-1579
▁утбол	-1580
▁гр	-1581
▁нут	-1582
▁сил	-1583
▁тик	-1584
▁жизни	-1585
▁вин	-1586
▁ближ	-1587
▁шли	-1588
▁отдел	-1589
▁част	-1590
▁ранич	-1591
▁фор	-1592
▁ащ	-1593
▁марта	-1594
▁сти	-1595
▁пыта	-1596
▁канал	-1597
▁появ	-1598
▁рост	-1599
▁свои	-1600
▁хоз	-1601
▁арт	-1602
▁ял	-1603
▁хорош	-1604
▁u	-1605
▁артии	-1606
▁После	-1607
▁твор	-1608
▁главы	-1609
▁огда	-1610
▁оглаш	-1611
▁ству	-1612
▁яют	-1613
▁ществ	-1614
▁мно	-1615
ению	-1616
▁ервый	-1617
es	-1618
▁лишь	-1619
▁назыв	-1620
▁рынк	-1621
▁изм	-1622
▁нению	-1623
▁Крым	-1624
▁разов	-1625
▁чин	-1626
▁олож	-1627
▁вяз	-1628
▁оциа	-1629
▁ужчин	-1630
▁фер	-1631
▁жив	-1632
▁рос	-1633
▁ским	-1634
▁хв	-1635
▁Во	-1636
▁верну	-1637
▁ичн	-1638
шл	-1639
▁стат	-1640
▁улиц	-1641
▁ового	-1642
▁сут	-1643
▁прод	-1644
ми	-1645
▁фонд	-1646
▁своих	-1647
▁еле	-1648
▁ями	-1649
▁ена	-1650
▁рек	-1651
▁равил	-1652
▁стало	-1653
▁чен	-1654
▁лась	-1655
▁еро	-1656
рамп	-1657
▁чере	-1658
▁Трамп	-1659
▁крат	-1660
▁обяза	-1661
▁груз	-1662
▁цесс	-1663
▁Также	-1664
▁ОО	-1665
▁осквы	-1666
▁удал	-1667
▁фин	-1668
▁вн	-1669
▁нужно	-1670
ун	-1671
▁Ма	-1672
▁вли	-1673
▁D	-1674
▁ериод	-1675
▁ито	-1676
▁числ	-1677
▁пециа	-1678
нул	-1679
▁Пред	-1680
дум	-1681
▁мента	-1682
▁осдум	-1683
▁Сев	-1684
▁преду	-1685
▁услов	-1686
▁оли	-1687
▁кой	-1688
▁льн	-1689
▁вития	-1690
▁объем	-1691
▁гон	-1692
зи	-1693
▁ела	-1694
▁нор	-1695
▁нг	-1696
▁парла	-1697
▁цы	-1698
▁лении	-1699
▁нти	-1700
▁ател	-1701
▁Для	-1702
▁четве	-1703
▁анных	-1704
▁вк	-1705
▁пост	-1706
утр	-1707
▁олю	-1708
▁клуб	-1709
▁стали	-1710
▁есн	-1711
▁хват	-1712
▁бес	-1713
▁ард	-1714
▁внутр	-1715
ная	-1716
▁трет	-1717
▁ирует	-1718
▁почти	-1719
▁пит	-1720
le	-1721
▁молод	-1722
▁зыв	-1723
▁конце	-1724
▁колич	-1725
▁сутс	-1726
▁ниц	-1727
▁дать	-1728
▁рамк	-1729
▁нефти	-1730
▁общ	-1731
▁ерь	-1732
▁пад	-1733
▁остью	-1734
▁12	-1735
▁пом	-1736
▁До	-1737
▁тране	-1738
▁детей	-1739
▁руч	-1740
▁ратур	-1741
▁беж	-1742
▁дома	-1743
▁ользу	-1744
ял	-1745
▁полож	-1746
▁бла	-1747
▁практ	-1748
▁часть	-1749
▁маг	-1750
▁ром	-1751
▁бр	-1752
▁вещ	-1753
▁плат	-1754
▁люди	-1755
▁меня	-1756
▁срок	-1757
▁30	-1758
▁бин	-1759
▁части	-1760
раф	-1761
▁Ан	-1762
▁бло	-1763
▁стол	-1764
▁сумм	-1765
▁поясн	-1766
▁раст	-1767
▁Центр	-1768
▁ооруж	-1769
▁обе	-1770
▁нд	-1771
▁ложн	-1772
▁редн	-1773
▁отому	-1774
ября	-1775
▁гре	-1776
▁тября	-1777
▁;	-1778
▁одной	-1779
▁включ	-1780
▁позиц	-1781
▁лял	-1782
ar	-1783
▁фе	-1784
▁шн	-1785
▁пят	-1786
▁инск	-1787
▁уа	-1788
▁верш	-1789
▁омощь	-1790
▁актив	-1791
▁твует	-1792
▁уть	-1793
▁мещен	-1794
▁бер	-1795
▁одерж	-1796
▁олжен	-1797
▁прос	-1798
▁Извес	-1799
▁мерен	-1800
▁твие	-1801
▁ностр	-1802
уг	-1803
▁Ми	-1804
▁благо	-1805
▁нять	-1806
▁ант	-1807
▁режд	-1808
▁жур	-1809
▁сильн	-1810
▁сборн	-1811
▁успе	-1812
▁оступ	-1813
▁метр	-1814
▁онат	-1815
▁e	-1816
▁оюз	-1817
▁тоим	-1818
▁ца	-1819
▁тп	-1820
▁санк	-1821
▁рияти	-1822
▁санкц	-1823
▁анию	-1824
▁сключ	-1825
▁комме	-1826
▁точно	-1827
▁перс	-1828
▁верен	-1829
▁округ	-1830
▁др	-1831
▁ади	-1832
▁извес	-1833
▁наруж	-1834
▁режим	-1835
▁аэ	-1836
▁суб	-1837
рал	-1838
ви	-1839
▁Они	-1840
▁ообщ	-1841
▁сети	-1842
▁полу	-1843
▁Совет	-1844
▁ороны	-1845
▁трол	-1846
▁Ар	-1847
▁итог	-1848
▁парат	-1849
▁ругие	-1850
▁аци	-1851
▁ась	-1852
▁фев	-1853
▁зван	-1854
▁ерьез	-1855
▁Вы	-1856
▁уто	-1857
▁ъясн	-1858
▁тит	-1859
▁росл	-1860
▁авг	-1861
▁февра	-1862
▁тправ	-1863
ьб	-1864
▁утвер	-1865
▁доход	-1866
▁смен	-1867
▁авгус	-1868
▁иаль	-1869
▁дорож	-1870
▁МВ	-1871
▁кажд	-1872
▁тн	-1873
▁сниж	-1874
▁треб	-1875
▁аст	-1876
▁высок	-1877
▁айш	-1878
▁сад	-1879
▁шир	-1880
▁сих	-1881
▁жела	-1882
▁ту	-1883
▁прет	-1884
▁власт	-1885
▁гран	-1886
▁теч	-1887
▁жизн	-1888
▁нтон	-1889
ью	-1890
▁молет	-1891
▁E	-1892
▁глав	-1893
▁инств	-1894
▁аксим	-1895
▁Ни	-1896
ям	-1897
▁аются	-1898
▁оедин	-1899
ерт	-1900
▁йн	-1901
▁блок	-1902
▁уется	-1903
▁енее	-1904
▁ывает	-1905
▁ике	-1906
▁ио	-1907
▁дного	-1908
▁седан	-1909
▁миров	-1910
oo	-1911
▁пож	-1912
иев	-1913
▁чи	-1914
▁хи	-1915
▁исход	-1916
▁Да	-1917
▁борьб	-1918
▁энерг	-1919
▁ировк	-1920
▁разом	-1921
мог	-1922
▁шта	-1923
▁кабр	-1924
▁образ	-1925
▁хов	-1926
▁бывш	-1927
▁ивают	-1928
▁стоят	-1929
▁читыв	-1930
▁g	-1931
▁надо	-1932
▁вот	-1933
▁крыл	-1934
▁зде	-1935
▁кабря	-1936
▁никак	-1937
▁проце	-1938
▁ложил	-1939
▁фа	-1940
▁вес	-1941
▁такой	-1942
▁ано	-1943
▁еск	-1944
▁остан	-1945
▁Петер	-1946
▁ицу	-1947
▁Пр	-1948
▁Дон	-1949
▁ечно	-1950
▁лова	-1951
▁зав	-1952
▁сужд	-1953
▁сполн	-1954
▁сылк	-1955
▁угро	-1956
▁инвес	-1957
▁мас	-1958
ту	-1959
▁Ку	-1960
▁уль	-1961
▁гля	-1962
▁кос	-1963
▁русск	-1964
▁ЕС	-1965
▁иха	-1966
▁долг	-1967
▁назад	-1968
▁зон	-1969
▁ерб	-1970
▁онов	-1971
▁ское	-1972
▁штаб	-1973
▁вни	-1974
▁едь	-1975
▁топ	-1976
▁ффект	-1977
▁ивал	-1978
▁еньги	-1979
▁мести	-1980
▁вп	-1981
▁смерт	-1982
▁итай	-1983
▁алась	-1984
▁Киев	-1985
▁вок	-1986
▁арм	-1987
▁имо	-1988
▁казыв	-1989
▁ышлен	-1990
▁сматр	-1991
▁справ	-1992
▁рит	-1993
▁пен	-1994
▁ама	-1995
▁овый	-1996
▁шен	-1997
▁этих	-1998
▁бе	-1999
рыв	-2000
▁зж	-2001
▁иль	-2002
▁мая	-2003
▁трех	-2004
▁роди	-2005
▁обрат	-2006
▁питал	-2007
▁среди	-2008
▁No	-2009
▁ящ	-2010
▁ечер	-2011
▁арест	-2012
▁писал	-2013
▁гно	-2014
▁ации	-2015
▁себе	-2016
▁торой	-2017
гио	-2018
▁Евро	-2019
▁Между	-2020
▁итета	-2021
▁ополн	-2022
▁чу	-2023
▁губ	-2024
▁нам	-2025
▁регио	-2026
▁лять	-2027
▁оряд	-2028
▁тиц	-2029
▁внима	-2030
▁25	-2031
▁одоб	-2032
▁тоит	-2033
▁яя	-2034
▁здан	-2035
he	-2036
▁Гер	-2037
▁ите	-2038
▁ством	-2039
▁близ	-2040
▁удов	-2041
▁зам	-2042
▁худ	-2043
▁вания	-2044
▁одобн	-2045
▁дис	-2046
▁важн	-2047
▁рук	-2048
▁личн	-2049
▁акт	-2050
▁рият	-2051
▁ркнул	-2052
▁подче	-2053
▁боро	-2054
▁имущ	-2055
▁йский	-2056
▁класс	-2057
▁журна	-2058
▁земл	-2059
▁тоже	-2060
▁должн	-2061
▁тин	-2062
▁адр	-2063
▁граф	-2064
▁убий	-2065
▁хозя	-2066
▁парти	-2067
▁in	-2068
▁але	-2069
▁Север	-2070
▁дь	-2071
▁ителя	-2072
▁орядк	-2073
▁11	-2074
▁конод	-2075
▁сегда	-2076
▁фо	-2077
▁ступн	-2078
▁мног	-2079
за	-2080
шен	-2081
▁воего	-2082
▁дум	-2083
▁мере	-2084
▁пенси	-2085
▁прям	-2086
▁этим	-2087
▁делал	-2088
▁ажд	-2089
▁ьян	-2090
▁Минис	-2091
▁йские	-2092
▁добр	-2093
▁ассаж	-2094
▁шед	-2095
▁гноз	-2096
▁прещ	-2097
▁твер	-2098
▁нст	-2099
▁ше	-2100
▁сез	-2101
▁пять	-2102
▁Мур	-2103
▁ноч	-2104
▁верси	-2105
▁енник	-2106
▁сезон	-2107
▁чь	-2108
▁заб	-2109
▁тот	-2110
▁ихся	-2111
▁конч	-2112
▁минут	-2113
▁сущес	-2114
▁ущ	-2115
▁знан	-2116
▁обира	-2117
▁пон	-2118
▁анков	-2119
▁анием	-2120
▁тверд	-2121
▁влия	-2122
▁воим	-2123
▁слов	-2124
▁мне	-2125
▁годы	-2126
▁Никол	-2127
▁толиц	-2128
▁сра	-2129
▁банк	-2130
▁ребен	-2131
▁ринят	-2132
▁тогда	-2133
▁акие	-2134
▁йдет	-2135
▁H	-2136
▁дума	-2137
▁либо	-2138
▁дня	-2139
▁гром	-2140
▁нстру	-2141
▁удар	-2142
▁иш	-2143
▁ате	-2144
▁указ	-2145
▁фото	-2146
▁Ба	-2147
▁Бр	-2148
▁стала	-2149
▁вят	-2150
▁верк	-2151
▁кти	-2152
▁доров	-2153
▁тиво	-2154
▁взрыв	-2155
▁нди	-2156
▁парк	-2157
▁здесь	-2158
▁лета	-2159
▁айн	-2160
▁несен	-2161
▁ногие	-2162
▁руж	-2163
▁гляд	-2164
▁поги	-2165
▁кино	-2166
▁римен	-2167
▁тест	-2168
▁меро	-2169
▁устро	-2170
▁нен	-2171
▁блюда	-2172
▁ион	-2173
▁Фран	-2174
▁лекс	-2175
▁яется	-2176
▁Под	-2177
▁рий	-2178
▁шла	-2179
▁роз	-2180
▁крыв	-2181
▁шедш	-2182
▁погиб	-2183
▁Мурма	-2184
▁будущ	-2185
▁нег	-2186
▁срав	-2187
▁сравн	-2188
▁ставк	-2189
▁олев	-2190
▁могли	-2191
▁своем	-2192
▁рожд	-2193
▁Прези	-2194
▁льных	-2195
▁МВД	-2196
▁имею	-2197
▁бил	-2198
▁тия	-2199
▁фли	-2200
▁мел	-2201
▁ренд	-2202
▁станц	-2203
▁пам	-2204
▁риним	-2205
▁урн	-2206
▁больн	-2207
▁висим	-2208
▁юс	-2209
▁литик	-2210
▁дежд	-2211
▁троен	-2212
▁аря	-2213
▁ензи	-2214
▁росил	-2215
▁l	-2216
▁ыск	-2217
▁Франц	-2218
▁ух	-2219
ван	-2220
▁анс	-2221
▁тепер	-2222
▁уточн	-2223
▁илл	-2224
▁товар	-2225
▁фликт	-2226
▁дж	-2227
▁тог	-2228
▁лизац	-2229
▁руп	-2230
▁хож	-2231
▁чего	-2232
▁ику	-2233
▁памят	-2234
▁ревн	-2235
▁реаль	-2236
▁ладел	-2237
рев	-2238
▁муз	-2239
▁ьев	-2240
▁олот	-2241
▁случа	-2242
▁услуг	-2243
▁давно	-2244
▁m	-2245
▁автор	-2246
▁гу	-2247
▁слав	-2248
▁Газ	-2249
▁бесп	-2250
▁регул	-2251
▁ослед	-2252
▁решил	-2253
▁новых	-2254
пис	-2255
вест	-2256
▁влек	-2257
▁акц	-2258
▁алл	-2259
▁анные	-2260
▁креп	-2261
▁права	-2262
▁осто	-2263
▁вязан	-2264
▁исло	-2265
▁ходит	-2266
▁нефт	-2267
▁видео	-2268
▁дукт	-2269
▁жден	-2270
▁свой	-2271
▁ывш	-2272
▁18	-2273
▁ихаил	-2274
▁олн	-2275
▁данн	-2276
▁ункт	-2277
▁усил	-2278
▁сразу	-2279
▁тракт	-2280
▁От	-2281
▁лив	-2282
▁тнер	-2283
▁европ	-2284
▁мотря	-2285
▁медиц	-2286
▁эту	-2287
▁онал	-2288
▁кам	-2289
▁нтов	-2290
▁трен	-2291
▁музык	-2292
▁поп	-2293
▁родаж	-2294
▁таких	-2295
▁веду	-2296
▁омина	-2297
леч	-2298
▁меш	-2299
▁влеч	-2300
▁чита	-2301
▁косм	-2302
▁ьц	-2303
▁Иван	-2304
▁емон	-2305
▁аны	-2306
▁обещ	-2307
▁овск	-2308
al	-2309
▁води	-2310
▁ляци	-2311
▁выход	-2312
▁имп	-2313
▁кк	-2314
▁озрев	-2315
▁стрем	-2316
▁вен	-2317
▁издан	-2318
▁строи	-2319
▁онк	-2320
▁Сам	-2321
▁конф	-2322
▁ракет	-2323
▁ицы	-2324
▁зор	-2325
▁коп	-2326
▁ъяв	-2327
▁оруж	-2328
▁иб	-2329
▁сири	-2330
▁ндр	-2331
▁рск	-2332
▁дальн	-2333
▁14	-2334
▁яч	-2335
▁сит	-2336
▁оевик	-2337
▁окуп	-2338
ce	-2339
▁ласт	-2340
▁Кра	-2341
▁объяв	-2342
▁неж	-2343
▁нефть	-2344
ТО	-2345
▁ице	-2346
▁свое	-2347
▁чина	-2348
▁имеет	-2349
▁мероп	-2350
▁отлич	-2351
▁стрел	-2352
▁Она	-2353
▁вос	-2354
▁ьзова	-2355
дач	-2356
▁слам	-2357
▁быт	-2358
роб	-2359
▁стоит	-2360
▁юр	-2361
▁ехал	-2362
▁Герма	-2363
▁ризис	-2364
▁бар	-2365
▁етыре	-2366
▁рыв	-2367
▁выше	-2368
▁явлен	-2369
▁тай	-2370
▁проку	-2371
ИД	-2372
▁ний	-2373
▁тек	-2374
▁уда	-2375
▁як	-2376
▁тим	-2377
▁озник	-2378
▁ьб	-2379
▁иници	-2380
леж	-2381
▁разил	-2382
▁требо	-2383
ou	-2384
▁авл	-2385
▁Гос	-2386
▁атем	-2387
▁равн	-2388
▁ктивн	-2389
▁осков	-2390
▁нтир	-2391
▁хотя	-2392
▁губер	-2393
▁зар	-2394
▁евро	-2395
▁ляющ	-2396
▁здрав	-2397
▁вне	-2398
▁оценк	-2399
▁штраф	-2400
▁V	-2401
▁яж	-2402
▁суда	-2403
▁изац	-2404
▁скую	-2405
▁логи	-2406
▁искус	-2407
▁ици	-2408
▁Что	-2409
▁одимо	-2410
▁ава	-2411
▁мов	-2412
▁наком	-2413
▁март	-2414
▁рынке	-2415
▁чинов	-2416
▁ба	-2417
▁ывший	-2418
▁13	-2419
▁каж	-2420
▁сайте	-2421
▁ново	-2422
ыт	-2423
▁печ	-2424
▁учас	-2425
▁коноп	-2426
▁нивер	-2427
▁ейств	-2428
▁нял	-2429
▁туд	-2430
▁деп	-2431
▁лений	-2432
▁регис	-2433
▁ахов	-2434
▁восп	-2435
▁ност	-2436
▁новый	-2437
▁er	-2438
▁учен	-2439
▁вор	-2440
▁демо	-2441
▁рынка	-2442
▁взят	-2443
▁То	-2444
▁енц	-2445
▁мой	-2446
▁тогам	-2447
▁инс	-2448
▁театр	-2449
ман	-2450
▁дио	-2451
▁обед	-2452
▁вращ	-2453
▁нужд	-2454
▁пуля	-2455
▁лужб	-2456
▁ифик	-2457
▁лаго	-2458
▁еме	-2459
▁руш	-2460
▁50	-2461
▁ести	-2462
▁кции	-2463
лон	-2464
▁омн	-2465
▁ьск	-2466
▁олле	-2467
▁остоя	-2468
▁енный	-2469
гор	-2470
▁аф	-2471
▁пром	-2472
▁рибы	-2473
▁ошел	-2474
▁Его	-2475
▁зов	-2476
▁орд	-2477
▁жизнь	-2478
▁остиг	-2479
▁ощ	-2480
▁ша	-2481
▁16	-2482
▁аэроп	-2483
▁Кли	-2484
▁писан	-2485
▁урнал	-2486
ter	-2487
▁трат	-2488
▁ритан	-2489
▁арк	-2490
▁леч	-2491
▁ау	-2492
▁руго	-2493
▁СК	-2494
▁треть	-2495
▁асл	-2496
▁пиш	-2497
▁йт	-2498
▁цией	-2499
▁быстр	-2500
▁задач	-2501
▁МИД	-2502
▁газет	-2503
▁ожд	-2504
▁осущ	-2505
она	-2506
▁веч	-2507
▁адици	-2508
▁шлого	-2509
▁окон	-2510
▁Игор	-2511
▁модел	-2512
▁обычн	-2513
▁танет	-2514
▁Кор	-2515
▁пожар	-2516
▁угроз	-2517
▁еш	-2518
дин	-2519
▁айте	-2520
▁аспро	-2521
▁ервые	-2522
▁разви	-2523
▁лось	-2524
▁вол	-2525
▁овали	-2526
▁ази	-2527
▁лан	-2528
▁нынеш	-2529
▁пыт	-2530
▁оте	-2531
▁врач	-2532
▁строй	-2533
▁меч	-2534
▁равда	-2535
▁22	-2536
▁елей	-2537
▁лог	-2538
▁алат	-2539
▁тяжел	-2540
▁ищ	-2541
▁обор	-2542
▁ельно	-2543
▁рибыл	-2544
рор	-2545
▁шест	-2546
▁цов	-2547
▁атак	-2548
▁олжна	-2549
▁фесси	-2550
▁блемы	-2551
▁ъедин	-2552
▁17	-2553
▁ина	-2554
▁ругой	-2555
ему	-2556
▁енд	-2557
▁ведет	-2558
▁такие	-2559
со	-2560
▁одейс	-2561
▁тельн	-2562
▁шенко	-2563
▁оги	-2564
▁марк	-2565
▁титут	-2566
▁исси	-2567
мес	-2568
▁чера	-2569
▁оллег	-2570
▁годов	-2571
▁овмес	-2572
▁очему	-2573
выш	-2574
▁овым	-2575
▁повыш	-2576
▁риход	-2577
▁амп	-2578
дн	-2579
лиз	-2580
▁ках	-2581
▁атив	-2582
▁рабоч	-2583
ген	-2584
▁воду	-2585
▁оссию	-2586
▁Куб	-2587
▁дев	-2588
▁хара	-2589
▁июн	-2590
▁каса	-2591
▁ток	-2592
▁боев	-2593
▁июля	-2594
▁ниче	-2595
▁низ	-2596
▁финал	-2597
▁митет	-2598
▁опинг	-2599
▁гар	-2600
▁опыт	-2601
▁рубл	-2602
▁лик	-2603
▁фак	-2604
▁клон	-2605
▁мире	-2606
▁ероят	-2607
▁норма	-2608
▁шес	-2609
▁Вер	-2610
▁ствия	-2611
▁изов	-2612
▁омощи	-2613
▁уальн	-2614
▁дней	-2615
▁орту	-2616
,5	-2617
▁нят	-2618
зн	-2619
▁ляют	-2620
▁мощ	-2621
▁очк	-2622
▁Глава	-2623
▁ерж	-2624
▁прис	-2625
▁вольн	-2626
▁телем	-2627
▁пуляр	-2628
▁ач	-2629
бл	-2630
▁жал	-2631
▁аким	-2632
▁конс	-2633
▁нвест	-2634
▁иев	-2635
▁карт	-2636
▁цена	-2637
▁ыгра	-2638
▁орв	-2639
▁вице	-2640
▁онер	-2641
▁ринял	-2642
▁Ru	-2643
▁ып	-2644
▁яз	-2645
▁секре	-2646
▁ООН	-2647
▁пара	-2648
▁онд	-2649
▁Серг	-2650
▁мигра	-2651
▁кв	-2652
▁арш	-2653
▁ничег	-2654
▁осуд	-2655
▁сниз	-2656
▁нашей	-2657
▁лега	-2658
▁тарь	-2659
▁аждый	-2660
▁гиона	-2661
▁ланд	-2662
▁вели	-2663
▁помн	-2664
▁АТО	-2665
▁дук	-2666
▁обо	-2667
▁ифика	-2668
▁ндрей	-2669
▁дукци	-2670
▁иктор	-2671
▁Бу	-2672
▁экс	-2673
▁окра	-2674
▁потом	-2675
стан	-2676
▁еже	-2677
▁сстан	-2678
▁дух	-2679
▁Когда	-2680
▁олезн	-2681
▁отмен	-2682
▁треби	-2683
ека	-2684
▁конт	-2685
▁факс	-2686
▁есп	-2687
▁верх	-2688
▁сть	-2689
▁теря	-2690
▁бой	-2691
▁рел	-2692
▁одна	-2693
▁оен	-2694
▁пов	-2695
▁осква	-2696
▁Един	-2697
▁осточ	-2698
▁принц	-2699
▁пытк	-2700
▁опасн	-2701
▁твуют	-2702
▁омп	-2703
▁етом	-2704
цу	-2705
▁яг	-2706
▁олжно	-2707
▁бран	-2708
▁ровер	-2709
at	-2710
▁Кр	-2711
▁вч	-2712
▁дт	-2713
▁бол	-2714
▁слу	-2715
ag	-2716
▁лот	-2717
▁обращ	-2718
▁ократ	-2719
▁гресс	-2720
▁ертв	-2721
▁онима	-2722
▁хотел	-2723
▁этап	-2724
поз	-2725
▁войн	-2726
▁артин	-2727
▁вокат	-2728
▁курор	-2729
om	-2730
▁еньше	-2731
▁ций	-2732
▁След	-2733
▁оконч	-2734
▁стров	-2735
иров	-2736
▁Красн	-2737
▁Серге	-2738
▁бел	-2739
▁ори	-2740
▁терак	-2741
ыр	-2742
▁цип	-2743
▁харак	-2744
▁ерво	-2745
▁w	-2746
▁риск	-2747
▁сем	-2748
▁ообще	-2749
▁Ген	-2750
▁лужбы	-2751
▁мерно	-2752
▁оне	-2753
▁льные	-2754
▁грок	-2755
▁Евген	-2756
▁одроб	-2757
▁две	-2758
▁нок	-2759
▁ока	-2760
▁орот	-2761
▁детск	-2762
▁омет	-2763
▁досто	-2764
▁огибл	-2765
▁ситет	-2766
▁поко	-2767
▁руз	-2768
▁номоч	-2769
▁писк	-2770
▁Мо	-2771
▁ебн	-2772
бн	-2773
▁оу	-2774
▁рх	-2775
▁атег	-2776
▁заим	-2777
▁хозяй	-2778
▁везд	-2779
▁монт	-2780
▁проб	-2781
лав	-2782
▁арта	-2783
▁сайт	-2784
▁тому	-2785
▁Главн	-2786
▁оенно	-2787
▁бужд	-2788
▁физ	-2789
▁мало	-2790
▁шлом	-2791
▁лиент	-2792
▁ака	-2793
▁анг	-2794
▁рет	-2795
▁печат	-2796
▁поезд	-2797
▁19	-2798
▁яти	-2799
▁пятн	-2800
▁йтинг	-2801
▁евер	-2802
▁изир	-2803
▁21	-2804
▁штат	-2805
▁окращ	-2806
▁часов	-2807
▁раг	-2808
▁обой	-2809
▁ранцу	-2810
▁самых	-2811
▁ion	-2812
▁тив	-2813
▁варит	-2814
▁ходил	-2815
▁Тем	-2816
▁неза	-2817
▁фици	-2818
▁рубеж	-2819
▁твии	-2820
▁en	-2821
▁рик	-2822
▁сей	-2823
▁учн	-2824
▁окупа	-2825
▁сф	-2826
▁лини	-2827
▁выясн	-2828
▁елико	-2829
▁ловин	-2830
▁ьер	-2831
▁Й	-2832
▁инте	-2833
▁оммер	-2834
▁ерд	-2835
▁урс	-2836
▁акци	-2837
ol	-2838
▁видет	-2839
▁одним	-2840
▁знак	-2841
▁24	-2842
▁оман	-2843
▁тарт	-2844
▁елать	-2845
▁рад	-2846
▁декс	-2847
▁путе	-2848
▁отмет	-2849
▁анд	-2850
▁точк	-2851
▁войны	-2852
▁ясь	-2853
▁ариа	-2854
▁га	-2855
▁лиг	-2856
▁омб	-2857
▁Re	-2858
▁бам	-2859
▁ерн	-2860
▁ею	-2861
▁нир	-2862
▁завод	-2863
▁свобо	-2864
in	-2865
▁ствие	-2866
▁мощн	-2867
▁проче	-2868
▁йст	-2869
▁курен	-2870
▁едл	-2871
▁трел	-2872
▁хе	-2873
▁верг	-2874
▁едве	-2875
▁пект	-2876
▁пок	-2877
▁УК	-2878
▁яр	-2879
▁100	-2880
▁наи	-2881
▁ужд	-2882
▁долго	-2883
▁кил	-2884
▁ерты	-2885
▁Пер	-2886
▁осток	-2887
▁Тр	-2888
▁обран	-2889
▁еля	-2890
▁естр	-2891
▁етер	-2892
▁мысл	-2893
▁ерал	-2894
▁хода	-2895
▁еа	-2896
▁водит	-2897
▁валют	-2898
▁лагод	-2899
▁ожал	-2900
▁боров	-2901
▁бот	-2902
▁твий	-2903
▁цель	-2904
▁цены	-2905
▁конфе	-2906
▁ходящ	-2907
▁бал	-2908
▁ката	-2909
▁мень	-2910
▁стана	-2911
▁вив	-2912
▁обыч	-2913
▁нно	-2914
▁сор	-2915
▁Анд	-2916
▁баз	-2917
▁ассов	-2918
▁точн	-2919
▁льг	-2920
▁ошло	-2921
▁оппоз	-2922
▁28	-2923
▁Па	-2924
▁иям	-2925
▁брос	-2926
▁пуска	-2927
▁ИГ	-2928
▁цер	-2929
▁Перв	-2930
▁адлеж	-2931
▁става	-2932
▁дов	-2933
▁остр	-2934
▁дебн	-2935
▁запад	-2936
▁помог	-2937
▁бив	-2938
▁яем	-2939
▁унд	-2940
▁ойск	-2941
СК	-2942
▁Джо	-2943
▁Лен	-2944
▁нкт	-2945
▁новен	-2946
▁дар	-2947
▁ева	-2948
▁нему	-2949
▁нь	-2950
▁нис	-2951
▁узе	-2952
▁инов	-2953
▁исты	-2954
▁екс	-2955
▁фун	-2956
▁трав	-2957
▁черн	-2958
▁вью	-2959
▁места	-2960
▁рев	-2961
▁иссии	-2962
▁ын	-2963
▁яс	-2964
▁доп	-2965
▁кер	-2966
▁оля	-2967
▁рис	-2968
▁чник	-2969
▁щего	-2970
▁графи	-2971
▁23	-2972
▁пас	-2973
▁ывать	-2974
▁глу	-2975
▁ути	-2976
▁овая	-2977
▁ервом	-2978
▁таким	-2979
▁боле	-2980
▁огн	-2981
▁кс	-2982
▁овить	-2983
▁спект	-2984
▁черед	-2985
▁щен	-2986
▁елов	-2987
▁нято	-2988
▁ыб	-2989
▁колле	-2990
▁виз	-2991
▁ица	-2992
▁иях	-2993
▁иков	-2994
▁ренц	-2995
▁рг	-2996
▁неу	-2997
▁Ста	-2998
▁ипл	-2999
▁таж	-3000
▁тонн	-3001
▁остов	-3002
▁Исто	-3003
▁еком	-3004
▁дает	-3005
▁омат	-3006
▁бесед	-3007
▁нс	-3008
▁Еще	-3009
▁носит	-3010
▁чист	-3011
▁хоч	-3012
▁ранен	-3013
▁p	-3014
▁меры	-3015
▁Петр	-3016
▁нта	-3017
▁союз	-3018
▁лучше	-3019
АО	-3020
▁льз	-3021
йс	-3022
▁лу	-3023
▁лач	-3024
▁лер	-3025
▁ниг	-3026
▁пора	-3027
ас	-3028
▁йм	-3029
▁сон	-3030
▁менты	-3031
▁юри	-3032
▁тенд	-3033
▁ывают	-3034
нешн	-3035
▁аха	-3036
▁родн	-3037
▁йте	-3038
▁дл	-3039
▁ули	-3040
▁расп	-3041
▁актер	-3042
▁ометр	-3043
▁ЦБ	-3044
▁фик	-3045
▁X	-3046
▁лаб	-3047
▁являю	-3048
il	-3049
▁бит	-3050
▁бок	-3051
▁дер	-3052
▁етк	-3053
▁зал	-3054
▁прие	-3055
▁роста	-3056
▁еи	-3057
▁лам	-3058
▁вто	-3059
▁атыв	-3060
▁авр	-3061
▁нф	-3062
▁дин	-3063
▁ети	-3064
▁атри	-3065
▁илу	-3066
▁оволь	-3067
▁трудн	-3068
▁рес	-3069
▁меньш	-3070
▁раздн	-3071
▁40	-3072
▁уне	-3073
▁новой	-3074
▁ональ	-3075
▁тип	-3076
▁жеств	-3077
▁гер	-3078
▁ейн	-3079
▁ечн	-3080
▁крес	-3081
▁вящ	-3082
▁елу	-3083
▁оче	-3084
▁фр	-3085
▁In	-3086
▁тут	-3087
▁дава	-3088
▁генер	-3089
▁Ал	-3090
▁кал	-3091
▁озна	-3092
▁четыр	-3093
ra	-3094
▁брита	-3095
▁живо	-3096
▁акции	-3097
▁йской	-3098
▁27	-3099
▁пал	-3100
▁рби	-3101
▁Ана	-3102
▁нул	-3103
▁алин	-3104
ари	-3105
▁чн	-3106
▁яющ	-3107
▁орож	-3108
▁льный	-3109
▁ерм	-3110
▁спис	-3111
▁теку	-3112
▁ине	-3113
▁кращ	-3114
▁паса	-3115
▁d	-3116
▁Але	-3117
▁Кир	-3118
▁Пар	-3119
▁бус	-3120
▁гри	-3121
▁фил	-3122
▁нуть	-3123
▁26	-3124
▁ктор	-3125
re	-3126
▁оба	-3127
▁O	-3128
▁шь	-3129
▁свет	-3130
▁оци	-3131
▁блюд	-3132
▁ремл	-3133
▁авари	-3134
▁еву	-3135
▁Пре	-3136
▁егу	-3137
▁кро	-3138
▁on	-3139
▁Ник	-3140
▁кого	-3141
▁29	-3142
▁брать	-3143
▁рь	-3144
▁писа	-3145
▁спе	-3146
▁овик	-3147
▁чив	-3148
▁лены	-3149
▁яжен	-3150
▁ден	-3151
▁дом	-3152
▁аден	-3153
▁ходят	-3154
▁вас	-3155
▁более	-3156
▁Эр	-3157
▁рии	-3158
▁какой	-3159
▁миним	-3160
▁ормир	-3161
▁ео	-3162
▁хан	-3163
▁атар	-3164
▁ента	-3165
▁Ст	-3166
▁ико	-3167
▁гост	-3168
▁вез	-3169
▁елк	-3170
▁зер	-3171
▁ниж	-3172
▁нужн	-3173
ССР	-3174
▁рон	-3175
▁Прав	-3176
▁зык	-3177
▁игу	-3178
▁инк	-3179
▁лаз	-3180
▁ино	-3181
▁гори	-3182
▁илов	-3183
▁еха	-3184
▁фра	-3185
▁ших	-3186
енк	-3187
▁олга	-3188
▁апад	-3189
▁олет	-3190
▁тива	-3191
▁вам	-3192
▁истов	-3193
▁ители	-3194
▁порта	-3195
▁опол	-3196
▁роис	-3197
▁логич	-3198
▁ако	-3199
▁енс	-3200
▁цит	-3201
▁илет	-3202
▁мину	-3203
▁стит	-3204
лат	-3205
▁ойд	-3206
▁орк	-3207
▁реф	-3208
▁канц	-3209
▁пт	-3210
▁The	-3211
▁ари	-3212
▁реди	-3213
▁реду	-3214
▁усск	-3215
▁тд	-3216
▁кате	-3217
▁проц	-3218
▁сим	-3219
▁ондо	-3220
▁ращ	-3221
▁рец	-3222
▁наши	-3223
▁терин	-3224
▁ея	-3225
▁оя	-3226
▁легк	-3227
▁ровал	-3228
▁йц	-3229
▁ассе	-3230
▁ельн	-3231
▁СССР	-3232
▁дпис	-3233
▁няли	-3234
▁отеч	-3235
▁оружи	-3236
▁часто	-3237
▁хр	-3238
▁еф	-3239
▁понят	-3240
▁пп	-3241
▁асно	-3242
▁орис	-3243
▁хран	-3244
us	-3245
▁осп	-3246
▁ьше	-3247
▁прек	-3248
▁овета	-3249
▁одном	-3250
▁тдель	-3251
▁жа	-3252
ro	-3253
▁илы	-3254
▁ховн	-3255
▁шк	-3256
▁эр	-3257
▁ажи	-3258
▁дил	-3259
▁лез	-3260
▁омер	-3261
▁прошл	-3262
▁непо	-3263
▁мерик	-3264
НР	-3265
▁тол	-3266
▁паден	-3267
БК	-3268
▁мя	-3269
▁аге	-3270
▁тавки	-3271
▁овил	-3272
▁внешн	-3273
▁ыта	-3274
▁проп	-3275
▁уем	-3276
▁глаш	-3277
▁рд	-3278
▁тю	-3279
▁фере	-3280
▁собра	-3281
мун	-3282
▁ВВ	-3283
▁аев	-3284
▁щей	-3285
▁начн	-3286
▁гн	-3287
▁телям	-3288
скв	-3289
▁ппо	-3290
▁­	-3291
▁ге	-3292
▁ивно	-3293
▁пони	-3294
▁Москв	-3295
▁ыплат	-3296
▁U	-3297
▁знача	-3298
▁социа	-3299
▁кцион	-3300
▁пришл	-3301
▁режде	-3302
▁инам	-3303
▁крет	-3304
▁мина	-3305
▁имени	-3306
▁красн	-3307
▁встр	-3308
▁изит	-3309
▁бк	-3310
▁еев	-3311
▁оно	-3312
▁екабр	-3313
▁юк	-3314
▁иде	-3315
▁льян	-3316
▁мск	-3317
▁вченк	-3318
▁зи	-3319
▁ловия	-3320
▁рител	-3321
▁ды	-3322
▁ага	-3323
▁клю	-3324
▁лав	-3325
▁одо	-3326
▁меж	-3327
▁ООО	-3328
▁ляе	-3329
▁режи	-3330
▁ысо	-3331
▁ещ	-3332
▁атели	-3333
▁км	-3334
▁отста	-3335
▁орон	-3336
▁анный	-3337
▁скому	-3338
Мы	-3339
гл	-3340
▁отив	-3341
▁маю	-3342
▁троль	-3343
▁круг	-3344
▁дписа	-3345
▁ing	-3346
▁наю	-3347
▁опро	-3348
▁срочн	-3349
▁елен	-3350
▁муни	-3351
▁ником	-3352
it	-3353
▁тие	-3354
▁ститу	-3355
▁егуля	-3356
▁ъем	-3357
▁итар	-3358
▁случ	-3359
▁ениях	-3360
▁бан	-3361
▁есс	-3362
▁ога	-3363
▁дых	-3364
▁лени	-3365
▁рейс	-3366
ace	-3367
▁назв	-3368
▁дтвер	-3369
▁оши	-3370
▁олд	-3371
▁зло	-3372
▁овле	-3373
▁+	-3374
▁зр	-3375
▁ув	-3376
▁диа	-3377
▁неиз	-3378
▁ущен	-3379
▁Со	-3380
▁лон	-3381
▁фес	-3382
▁аги	-3383
▁Бело	-3384
▁Im	-3385
▁див	-3386
▁реч	-3387
▁ражен	-3388
▁айк	-3389
▁вку	-3390
▁ками	-3391
▁акет	-3392
▁льск	-3393
▁толк	-3394
▁траж	-3395
▁платы	-3396
▁вст	-3397
▁гиб	-3398
▁роли	-3399
▁ажно	-3400
▁лада	-3401
▁пада	-3402
▁мирн	-3403
▁тора	-3404
▁рн	-3405
▁оды	-3406
▁юн	-3407
▁кст	-3408
▁ошли	-3409
▁оправ	-3410
▁ФС	-3411
▁двиг	-3412
▁ереж	-3413
▁o	-3414
▁ксп	-3415
▁амер	-3416
▁относ	-3417
▁итор	-3418
▁авлен	-3419
▁анали	-3420
▁разде	-3421
▁абл	-3422
▁нац	-3423
▁роль	-3424
▁Че	-3425
▁инци	-3426
▁лт	-3427
▁тож	-3428
▁оме	-3429
▁ечен	-3430
▁ват	-3431
▁здн	-3432
▁ьма	-3433
▁встре	-3434
age	-3435
▁РБК	-3436
▁аск	-3437
▁чат	-3438
▁сель	-3439
ЧС	-3440
вс	-3441
▁цк	-3442
▁вып	-3443
▁трир	-3444
▁енную	-3445
▁сия	-3446
▁ниже	-3447
ew	-3448
▁ради	-3449
▁возду	-3450
▁выш	-3451
▁орн	-3452
▁роп	-3453
▁енск	-3454
▁1,	-3455
▁прост	-3456
▁чувс	-3457
▁Image	-3458
▁Андре	-3459
▁дог	-3460
▁ысоко	-3461
▁омис	-3462
▁инд	-3463
▁дале	-3464
▁рок	-3465
▁яде	-3466
▁недо	-3467
▁спас	-3468
▁айд	-3469
▁щий	-3470
▁кция	-3471
▁онец	-3472
▁мб	-3473
▁брал	-3474
▁вода	-3475
▁оа	-3476
▁льная	-3477
▁Аб	-3478
▁шо	-3479
▁ульт	-3480
▁кри	-3481
▁той	-3482
▁имен	-3483
▁сш	-3484
▁одн	-3485
▁пог	-3486
▁лению	-3487
рет	-3488
▁оюза	-3489
▁актор	-3490
▁полне	-3491
ir	-3492
▁сами	-3493
▁канд	-3494
▁стой	-3495
▁гры	-3496
▁ельс	-3497
▁реда	-3498
▁спеш	-3499
as	-3500
▁соц	-3501
▁ура	-3502
▁дали	-3503
▁ъявил	-3504
▁шу	-3505
▁ключе	-3506
▁асил	-3507
▁дости	-3508
▁арх	-3509
▁верн	-3510
ков	-3511
▁ta	-3512
▁Рус	-3513
▁обре	-3514
▁ерк	-3515
▁буде	-3516
▁МЧС	-3517
▁Мос	-3518
▁леж	-3519
ТП	-3520
▁йл	-3521
▁ьного	-3522
ерь	-3523
▁хл	-3524
▁лад	-3525
▁енная	-3526
▁йская	-3527
▁ровел	-3528
▁Ру	-3529
▁дат	-3530
▁еперь	-3531
▁бере	-3532
▁сии	-3533
▁екрет	-3534
▁неп	-3535
▁рая	-3536
▁тных	-3537
▁листы	-3538
▁анти	-3539
ПР	-3540
▁Гр	-3541
▁нав	-3542
▁31	-3543
▁имн	-3544
▁роиз	-3545
▁обеди	-3546
▁дц	-3547
▁мена	-3548
▁овую	-3549
▁лко	-3550
▁жива	-3551
▁олос	-3552
▁K	-3553
▁дущ	-3554
▁дется	-3555
▁жер	-3556
▁рал	-3557
▁наб	-3558
▁ска	-3559
▁сот	-3560
▁ера	-3561
▁стей	-3562
▁рут	-3563
▁овор	-3564
▁рест	-3565
▁никам	-3566
▁итет	-3567
▁крас	-3568
▁Ну	-3569
▁льше	-3570
▁ндар	-3571
▁цент	-3572
АС	-3573
▁Ге	-3574
▁еврал	-3575
▁Пол	-3576
▁шеств	-3577
pp	-3578
▁щих	-3579
▁обиль	-3580
▁лл	-3581
▁рко	-3582
▁воч	-3583
▁смог	-3584
▁дну	-3585
▁ука	-3586
быт	-3587
▁олит	-3588
▁елик	-3589
▁пило	-3590
▁дут	-3591
▁рае	-3592
▁ума	-3593
▁зрени	-3594
▁спи	-3595
▁тали	-3596
▁енное	-3597
▁событ	-3598
▁ауд	-3599
▁внов	-3600
ите	-3601
▁анов	-3602
▁аю	-3603
▁хар	-3604
▁обнов	-3605
▁Ха	-3606
▁дея	-3607
▁чев	-3608
▁всю	-3609
▁лено	-3610
▁дии	-3611
▁ший	-3612
▁ектор	-3613
▁чай	-3614
▁мост	-3615
▁сол	-3616
▁слож	-3617
▁снова	-3618
▁Га	-3619
▁завис	-3620
el	-3621
▁озит	-3622
▁рина	-3623
▁Ла	-3624
▁оток	-3625
▁возгл	-3626
ook	-3627
▁ваний	-3628
▁200	-3629
▁нит	-3630
▁гроз	-3631
▁ника	-3632
▁ене	-3633
▁хол	-3634
▁яко	-3635
▁одар	-3636
▁al	-3637
▁менит	-3638
▁шин	-3639
▁ерег	-3640
▁Су	-3641
▁очи	-3642
▁ельск	-3643
▁Ре	-3644
▁абс	-3645
▁муж	-3646
▁двига	-3647
▁прекр	-3648
▁уга	-3649
▁овое	-3650
▁СКР	-3651
▁аде	-3652
▁прес	-3653
▁йским	-3654
▁дон	-3655
▁шев	-3656
▁ласть	-3657
▁начит	-3658
▁читат	-3659
▁ык	-3660
▁иби	-3661
▁эле	-3662
▁енда	-3663
▁кост	-3664
▁масс	-3665
▁ивающ	-3666
▁танци	-3667
▁поряд	-3668
▁стати	-3669
▁J	-3670
▁an	-3671
▁ерто	-3672
зр	-3673
▁60	-3674
▁ои	-3675
▁ати	-3676
ap	-3677
▁тт	-3678
▁овано	-3679
et	-3680
▁жды	-3681
▁пет	-3682
▁f	-3683
▁чан	-3684
▁ресс	-3685
▁енном	-3686
▁рошен	-3687
▁НИ	-3688
▁ДТП	-3689
▁рот	-3690
▁весь	-3691
▁енит	-3692
▁одозр	-3693
▁ерии	-3694
▁норм	-3695
уст	-3696
ri	-3697
▁сно	-3698
▁азета	-3699
▁оронн	-3700
▁Сири	-3701
▁еред	-3702
▁ризм	-3703
▁мп	-3704
▁ета	-3705
▁пись	-3706
▁трана	-3707
▁рб	-3708
▁изо	-3709
▁ранс	-3710
▁язан	-3711
▁ван	-3712
▁ходов	-3713
▁дают	-3714
▁ович	-3715
▁таки	-3716
▁com	-3717
▁амб	-3718
▁ерно	-3719
▁ируют	-3720
▁епл	-3721
▁Кита	-3722
▁ург	-3723
▁моск	-3724
▁ктив	-3725
▁ирм	-3726
▁замет	-3727
▁иж	-3728
▁раи	-3729
▁цеп	-3730
▁нерг	-3731
▁тмеч	-3732
▁еализ	-3733
▁син	-3734
▁може	-3735
чер	-3736
▁юю	-3737
▁били	-3738
▁есов	-3739
▁иновн	-3740
▁морск	-3741
▁потер	-3742
▁елю	-3743
▁сан	-3744
▁изма	-3745
▁орск	-3746
▁ченко	-3747
▁ыч	-3748
▁Фед	-3749
▁Ново	-3750
▁орта	-3751
▁оммун	-3752
▁стк	-3753
▁лица	-3754
▁восто	-3755
▁раниц	-3756
▁бав	-3757
▁олк	-3758
▁дина	-3759
▁жить	-3760
▁иро	-3761
▁Y	-3762
▁арь	-3763
▁Face	-3764
▁юб	-3765
▁рач	-3766
▁роф	-3767
▁таб	-3768
am	-3769
▁тви	-3770
▁пали	-3771
▁сцен	-3772
▁скоро	-3773
▁видн	-3774
▁ентов	-3775
▁гин	-3776
▁шего	-3777
▁зации	-3778
▁плани	-3779
▁тян	-3780
▁book	-3781
▁ница	-3782
▁бильн	-3783
▁борон	-3784
▁еда	-3785
▁утк	-3786
▁ально	-3787
ic	-3788
СКА	-3789
▁ФСБ	-3790
▁легко	-3791
ht	-3792
▁App	-3793
▁лека	-3794
▁ерс	-3795
▁осн	-3796
▁тят	-3797
▁ывал	-3798
▁щиков	-3799
▁изб	-3800
▁ЦСКА	-3801
▁одств	-3802
▁жало	-3803
▁тобы	-3804
▁Бар	-3805
▁вали	-3806
▁проса	-3807
▁перат	-3808
▁нек	-3809
▁очт	-3810
▁идер	-3811
▁рави	-3812
▁зиров	-3813
▁лем	-3814
▁мещ	-3815
▁овар	-3816
▁рств	-3817
▁олнен	-3818
▁стрир	-3819
▁Кол	-3820
▁икл	-3821
▁олл	-3822
▁боту	-3823
▁эф	-3824
▁олод	-3825
▁ошла	-3826
▁устил	-3827
la	-3828
▁адо	-3829
▁удь	-3830
▁торов	-3831
▁вак	-3832
▁игн	-3833
▁обс	-3834
▁нализ	-3835
▁скими	-3836
▁арл	-3837
▁лох	-3838
▁щем	-3839
▁ацие	-3840
▁дчер	-3841
▁оэ	-3842
▁давн	-3843
▁етел	-3844
▁лена	-3845
▁тром	-3846
▁ада	-3847
▁ича	-3848
▁йно	-3849
▁едал	-3850
▁йств	-3851
▁льзов	-3852
ЭС	-3853
▁Ег	-3854
▁зах	-3855
▁иан	-3856
▁нение	-3857
▁ошенн	-3858
▁ферен	-3859
хо	-3860
▁500	-3861
▁есь	-3862
▁олько	-3863
▁Гор	-3864
▁гат	-3865
▁лле	-3866
▁итик	-3867
▁преп	-3868
▁дчерк	-3869
▁выд	-3870
▁ьми	-3871
▁асти	-3872
▁кцию	-3873
▁прив	-3874
▁рель	-3875
▁New	-3876
▁поле	-3877
▁ожник	-3878
▁ипа	-3879
▁ерез	-3880
▁ши	-3881
▁тил	-3882
▁крит	-3883
▁форм	-3884
▁ицион	-3885
▁эм	-3886
▁адк	-3887
▁лее	-3888
▁оказа	-3889
бли	-3890
▁руд	-3891
▁ртал	-3892
▁овест	-3893
▁публи	-3894
▁едж	-3895
▁елл	-3896
▁мур	-3897
▁ньк	-3898
▁рующ	-3899
▁овом	-3900
▁стин	-3901
▁енным	-3902
бре	-3903
▁рв	-3904
▁ху	-3905
▁Вот	-3906
▁квал	-3907
▁одпис	-3908
▁тябре	-3909
▁тки	-3910
▁зан	-3911
▁лом	-3912
▁суде	-3913
▁льным	-3914
▁ссе	-3915
▁метро	-3916
im	-3917
▁щи	-3918
▁кий	-3919
▁ходы	-3920
▁комму	-3921
гр	-3922
▁ща	-3923
▁лей	-3924
▁ужден	-3925
▁жан	-3926
▁алк	-3927
▁Ле	-3928
▁ушк	-3929
▁арак	-3930
▁века	-3931
йд	-3932
▁зб	-3933
▁бро	-3934
▁рели	-3935
ch	-3936
▁овре	-3937
▁разу	-3938
▁льном	-3939
▁плате	-3940
▁аще	-3941
▁ину	-3942
▁рази	-3943
▁тавил	-3944
КС	-3945
▁ире	-3946
▁озв	-3947
▁гент	-3948
▁сери	-3949
▁Стр	-3950
▁ежд	-3951
▁ыти	-3952
▁еству	-3953
▁пита	-3954
ut	-3955
▁ыр	-3956
▁мн	-3957
▁бед	-3958
▁икр	-3959
▁парта	-3960
АЗ	-3961
▁ОП	-3962
▁Фр	-3963
▁евр	-3964
▁уре	-3965
▁каких	-3966
▁ствов	-3967
ed	-3968
▁июл	-3969
▁преж	-3970
▁астро	-3971
▁ограф	-3972
▁торго	-3973
op	-3974
▁Пл	-3975
ДД	-3976
▁35	-3977
▁йства	-3978
▁спрос	-3979
ss	-3980
▁новл	-3981
▁расте	-3982
▁онн	-3983
▁пел	-3984
▁уме	-3985
▁асть	-3986
▁ежи	-3987
▁ады	-3988
▁иже	-3989
▁екци	-3990
▁70	-3991
▁циа	-3992
▁авать	-3993
▁иги	-3994
▁ерри	-3995
▁Аз	-3996
▁еру	-3997
▁ослав	-3998
▁зе	-3999
▁зии	-4000
▁ьги	-4001
▁олиц	-4002
▁торию	-4003
▁Му	-4004
▁гал	-4005
▁роме	-4006
▁семи	-4007
▁льное	-4008
▁прежд	-4009
▁Их	-4010
▁ево	-4011
▁неш	-4012
▁асто	-4013
▁олон	-4014
▁проч	-4015
▁стен	-4016
▁жн	-4017
▁нат	-4018
▁uter	-4019
▁араб	-4020
▁нает	-4021
▁етств	-4022
▁нимал	-4023
▁ia	-4024
▁uters	-4025
▁экстр	-4026
▁ечь	-4027
▁атом	-4028
▁иции	-4029
▁итали	-4030
▁пев	-4031
▁щие	-4032
▁акан	-4033
▁ретен	-4034
▁300	-4035
▁запис	-4036
▁ыстав	-4037
▁авля	-4038
▁икой	-4039
▁важ	-4040
▁ерв	-4041
▁тором	-4042
ИК	-4043
▁ыл	-4044
▁ище	-4045
▁орг	-4046
▁отн	-4047
▁чест	-4048
▁ытия	-4049
▁ривод	-4050
▁чре	-4051
▁айне	-4052
▁защи	-4053
▁дни	-4054
ent	-4055
▁анам	-4056
▁ойти	-4057
▁таль	-4058
▁ойдет	-4059
▁омоч	-4060
▁ложно	-4061
▁еду	-4062
▁ыша	-4063
▁ерев	-4064
▁стер	-4065
▁азе	-4066
▁кова	-4067
▁семь	-4068
▁ерл	-4069
▁сьм	-4070
▁акл	-4071
▁вно	-4072
▁ких	-4073
▁стью	-4074
▁авших	-4075
▁йских	-4076
▁Мих	-4077
▁иат	-4078
▁ойк	-4079
▁етал	-4080
▁Apple	-4081
▁оком	-4082
▁тист	-4083
▁h	-4084
▁аши	-4085
▁селе	-4086
▁ериал	-4087
▁айм	-4088
▁могу	-4089
▁стор	-4090
▁ениям	-4091
▁МО	-4092
▁мф	-4093
▁олго	-4094
▁чета	-4095
▁лд	-4096
▁емн	-4097
▁отя	-4098
▁одол	-4099
▁опуст	-4100
▁сид	-4101
▁иска	-4102
▁вд	-4103
▁нка	-4104
▁ород	-4105
▁аспор	-4106
▁идел	-4107
▁сфер	-4108
▁циаль	-4109
▁Вол	-4110
▁нию	-4111
▁хим	-4112
▁имет	-4113
▁зг	-4114
▁анц	-4115
▁тск	-4116
▁рте	-4117
▁тру	-4118
▁чать	-4119
▁Air	-4120
▁номи	-4121
ыл	-4122
▁Ком	-4123
▁итр	-4124
▁умы	-4125
▁аков	-4126
▁вший	-4127
▁идно	-4128
▁истам	-4129
ad	-4130
▁Эти	-4131
▁век	-4132
▁нед	-4133
▁ата	-4134
▁оин	-4135
▁шка	-4136
▁Там	-4137
▁енер	-4138
▁слови	-4139
ТБ	-4140
▁80	-4141
▁ГУ	-4142
▁тал	-4143
▁ария	-4144
▁льную	-4145
▁яд	-4146
▁икт	-4147
▁дост	-4148
▁Ту	-4149
▁арат	-4150
▁двер	-4151
ДР	-4152
▁кие	-4153
▁Мне	-4154
▁льс	-4155
▁ерни	-4156
▁лес	-4157
▁тир	-4158
▁авал	-4159
▁борот	-4160
АН	-4161
▁ару	-4162
▁КН	-4163
▁емп	-4164
▁наци	-4165
▁оско	-4166
▁страх	-4167
▁анск	-4168
▁юм	-4169
▁оке	-4170
▁алог	-4171
▁исан	-4172
▁едине	-4173
▁стане	-4174
▁ъя	-4175
▁сче	-4176
▁внес	-4177
▁емен	-4178
▁маль	-4179
▁ихо	-4180
▁рош	-4181
wi	-4182
▁сб	-4183
▁ете	-4184
▁охо	-4185
▁дной	-4186
▁мени	-4187
▁поте	-4188
▁ульта	-4189
▁чень	-4190
▁вышен	-4191
ха	-4192
мери	-4193
▁ВВП	-4194
▁дно	-4195
▁Амери	-4196
▁арн	-4197
▁дес	-4198
▁уки	-4199
▁уру	-4200
▁влад	-4201
▁аша	-4202
▁мае	-4203
▁отк	-4204
▁окол	-4205
▁яются	-4206
▁Те	-4207
▁здо	-4208
▁одав	-4209
▁ентир	-4210
▁днем	-4211
▁роизо	-4212
азд	-4213
▁зы	-4214
▁ины	-4215
▁кус	-4216
▁знал	-4217
▁нием	-4218
▁рана	-4219
▁зглав	-4220
▁празд	-4221
▁роход	-4222
▁трети	-4223
▁лы	-4224
▁дос	-4225
▁ооб	-4226
▁рган	-4227
▁ресто	-4228
▁тию	-4229
▁суль	-4230
▁увств	-4231
▁Кл	-4232
▁Уже	-4233
▁ильно	-4234
▁вание	-4235
▁особо	-4236
▁атл	-4237
▁туа	-4238
▁лива	-4239
▁йство	-4240
▁апа	-4241
▁реми	-4242
эр	-4243
▁риг	-4244
▁валь	-4245
▁одел	-4246
ck	-4247
▁збе	-4248
▁ске	-4249
▁инима	-4250
▁манда	-4251
▁сю	-4252
мощ	-4253
▁льд	-4254
▁КНДР	-4255
▁абот	-4256
▁мини	-4257
▁апита	-4258
▁бю	-4259
▁мс	-4260
▁енты	-4261
▁помощ	-4262
▁ВТБ	-4263
▁ейс	-4264
▁ален	-4265
▁Эта	-4266
▁ора	-4267
▁десь	-4268
▁Вел	-4269
▁уры	-4270
▁тория	-4271
ve	-4272
▁Mo	-4273
▁еет	-4274
▁купк	-4275
▁жения	-4276
▁етн	-4277
▁акое	-4278
▁ким	-4279
▁афик	-4280
▁вход	-4281
▁держа	-4282
▁торог	-4283
▁щая	-4284
▁дра	-4285
▁Ду	-4286
▁нл	-4287
▁уле	-4288
▁арла	-4289
▁отор	-4290
▁ыска	-4291
▁ьных	-4292
ail	-4293
▁St	-4294
▁оворя	-4295
▁эп	-4296
▁етр	-4297
▁фиц	-4298
▁опров	-4299
▁торое	-4300
▁2,	-4301
▁аи	-4302
▁чт	-4303
▁вич	-4304
▁нача	-4305
▁емл	-4306
▁льт	-4307
▁щин	-4308
▁лично	-4309
▁ФР	-4310
▁аже	-4311
▁Миха	-4312
▁45	-4313
▁ГИ	-4314
▁зин	-4315
▁Ее	-4316
▁Кар	-4317
▁кнул	-4318
▁мель	-4319
▁атери	-4320
▁Ас	-4321
▁ашн	-4322
▁уля	-4323
▁авил	-4324
▁нтари	-4325
▁Twi	-4326
▁дро	-4327
▁пин	-4328
▁риоб	-4329
▁нец	-4330
▁tter	-4331
▁евск	-4332
▁есед	-4333
▁азы	-4334
▁дор	-4335
▁жно	-4336
▁Велик	-4337
▁Ск	-4338
▁уго	-4339
▁буду	-4340
▁вили	-4341
▁орите	-4342
AD	-4343
▁Sp	-4344
▁леп	-4345
▁оих	-4346
▁рно	-4347
▁тих	-4348
▁езно	-4349
▁осла	-4350
nd	-4351
▁ысл	-4352
▁рект	-4353
apt	-4354
▁озг	-4355
▁уша	-4356
▁лков	-4357
▁раща	-4358
▁банка	-4359
▁Ки	-4360
мети	-4361
▁Goo	-4362
▁пло	-4363
▁тмети	-4364
цк	-4365
▁ган	-4366
▁ига	-4367
▁лите	-4368
▁скоре	-4369
▁Fi	-4370
▁оди	-4371
▁жной	-4372
▁наче	-4373
▁роде	-4374
чк	-4375
▁кад	-4376
▁шно	-4377
▁авка	-4378
▁брат	-4379
▁вать	-4380
▁gle	-4381
▁рож	-4382
▁аэро	-4383
▁наль	-4384
▁ателя	-4385
▁000	-4386
▁атр	-4387
▁взя	-4388
▁кому	-4389
▁терн	-4390
▁аба	-4391
▁тей	-4392
▁еров	-4393
▁яться	-4394
▁рж	-4395
▁режн	-4396
▁Кал	-4397
▁имат	-4398
▁риго	-4399
▁диров	-4400
▁90	-4401
▁Ch	-4402
▁вые	-4403
▁очь	-4404
▁амен	-4405
▁итан	-4406
▁столь	-4407
бу	-4408
▁Gr	-4409
▁АО	-4410
▁лн	-4411
▁сяч	-4412
▁ЦИК	-4413
▁лия	-4414
▁укра	-4415
▁пройд	-4416
ay	-4417
ниц	-4418
▁ири	-4419
▁ски	-4420
▁сты	-4421
▁атор	-4422
▁прим	-4423
СА	-4424
▁II	-4425
▁ню	-4426
▁эл	-4427
▁зко	-4428
▁оки	-4429
▁оку	-4430
▁тура	-4431
▁фт	-4432
▁ебе	-4433
▁нова	-4434
▁плен	-4435
▁улир	-4436
▁рл	-4437
▁Та	-4438
▁бора	-4439
▁счет	-4440
▁Си	-4441
▁ода	-4442
▁адим	-4443
▁екла	-4444
▁нист	-4445
▁елове	-4446
▁нз	-4447
▁нц	-4448
▁чк	-4449
▁ижн	-4450
▁пир	-4451
▁кров	-4452
▁Бо	-4453
▁оциал	-4454
is	-4455
ПРФ	-4456
▁СП	-4457
▁мм	-4458
▁есно	-4459
▁овсе	-4460
▁орожн	-4461
▁рошло	-4462
▁ig	-4463
▁ыт	-4464
▁Цен	-4465
▁News	-4466
▁алья	-4467
▁асса	-4468
▁ань	-4469
▁Ол	-4470
▁омен	-4471
▁ic	-4472
▁дск	-4473
▁КПРФ	-4474
ADA	-4475
▁Мари	-4476
▁нацио	-4477
▁утр	-4478
▁овен	-4479
▁прев	-4480
▁раш	-4481
▁сег	-4482
▁уте	-4483
▁capt	-4484
▁овки	-4485
▁ro	-4486
▁рм	-4487
▁ато	-4488
▁икс	-4489
▁янс	-4490
▁глас	-4491
▁овед	-4492
▁огод	-4493
▁озиц	-4494
БУ	-4495
ГУ	-4496
▁€	-4497
▁ОАО	-4498
▁оты	-4499
ЕК	-4500
▁et	-4501
▁Ос	-4502
▁оми	-4503
▁реко	-4504
▁довол	-4505
▁завер	-4506
▁·	-4507
▁ря	-4508
▁ьмо	-4509
▁отни	-4510
▁рочн	-4511
▁спек	-4512
▁овало	-4513
▁читаю	-4514
ПК	-4515
▁ира	-4516
▁рупп	-4517
▁ушен	-4518
▁коло	-4519
▁олов	-4520
▁пик	-4521
▁хва	-4522
▁етро	-4523
БДД	-4524
▁150	-4525
▁танц	-4526
▁вка	-4527
▁либ	-4528
▁нтар	-4529
▁онии	-4530
▁оже	-4531
▁онт	-4532
▁отел	-4533
▁поста	-4534
▁or	-4535
▁1,5	-4536
▁азу	-4537
▁ГИБДД	-4538
▁имя	-4539
▁обще	-4540
ФА	-4541
▁ВС	-4542
▁заг	-4543
▁кап	-4544
▁WADA	-4545
▁суди	-4546
▁толи	-4547
▁cop	-4548
▁дко	-4549
▁елем	-4550
▁оотв	-4551
▁рофес	-4552
▁'	-4553
лин	-4554
▁енз	-4555
▁изу	-4556
▁оем	-4557
▁цир	-4558
▁лома	-4559
▁сень	-4560
▁альне	-4561
▁кру	-4562
▁рым	-4563
▁ливо	-4564
▁угол	-4565
oup	-4566
▁ац	-4567
▁виж	-4568
▁ерп	-4569
▁лиж	-4570
▁овь	-4571
▁цам	-4572
▁естн	-4573
▁ируе	-4574
▁меет	-4575
▁ержив	-4576
шк	-4577
▁уэ	-4578
▁Суд	-4579
▁деж	-4580
▁бить	-4581
▁екл	-4582
▁торы	-4583
▁лев	-4584
▁вати	-4585
▁исто	-4586
▁трое	-4587
▁служи	-4588
yr	-4589
▁есо	-4590
▁очет	-4591
▁рода	-4592
▁лизир	-4593
▁ровск	-4594
▁нак	-4595
id	-4596
ье	-4597
▁ДНР	-4598
▁льц	-4599
▁пеш	-4600
▁трон	-4601
▁нешне	-4602
▁онных	-4603
ul	-4604
▁напр	-4605
▁оров	-4606
▁сточ	-4607
▁омпан	-4608
▁Li	-4609
▁уи	-4610
▁one	-4611
▁воен	-4612
▁рови	-4613
▁делен	-4614
▁400	-4615
▁еди	-4616
▁нна	-4617
▁рва	-4618
▁хор	-4619
▁щим	-4620
▁ятс	-4621
▁ипе	-4622
▁пус	-4623
▁ight	-4624
▁аниям	-4625
▁вырос	-4626
▁Le	-4627
▁вся	-4628
▁иву	-4629
▁оры	-4630
▁учил	-4631
▁тиков	-4632
ТС	-4633
▁гог	-4634
▁арод	-4635
▁правд	-4636
▁вт	-4637
▁дох	-4638
▁верд	-4639
▁эй	-4640
▁рже	-4641
▁сев	-4642
▁тям	-4643
▁арии	-4644
▁одит	-4645
РК	-4646
▁32	-4647
▁дк	-4648
▁ишь	-4649
▁стори	-4650
▁вших	-4651
▁иями	-4652
▁орош	-4653
▁стил	-4654
▁кальн	-4655
▁напад	-4656
▁жет	-4657
▁ома	-4658
▁рол	-4659
▁акой	-4660
ид	-4661
▁k	-4662
▁Хо	-4663
▁арен	-4664
▁еста	-4665
▁стоя	-4666
▁copyr	-4667
▁редне	-4668
▁нн	-4669
▁ега	-4670
▁дель	-4671
▁упал	-4672
▁аду	-4673
▁кви	-4674
▁мос	-4675
▁пан	-4676
▁ОПЕК	-4677
▁аров	-4678
▁есси	-4679
▁форма	-4680
▁СН	-4681
▁юди	-4682
▁вить	-4683
▁ицей	-4684
▁лово	-4685
▁отов	-4686
▁тики	-4687
▁урман	-4688
▁ави	-4689
▁емье	-4690
ks	-4691
os	-4692
▁ar	-4693
▁рой	-4694
▁добн	-4695
▁ивер	-4696
▁iP	-4697
▁of	-4698
▁Вп	-4699
▁дели	-4700
▁есте	-4701
▁ийск	-4702
▁лава	-4703
▁оспо	-4704
▁тече	-4705
▁Щ	-4706
▁Ис	-4707
▁обр	-4708
▁рид	-4709
▁ацию	-4710
▁коро	-4711
▁онно	-4712
▁сили	-4713
▁перес	-4714
ук	-4715
▁ожен	-4716
▁ствии	-4717
гов	-4718
▁le	-4719
▁Tim	-4720
▁убер	-4721
.,	-4722
▁3,	-4723
▁Te	-4724
▁st	-4725
▁жей	-4726
▁мик	-4727
▁упр	-4728
▁ыгр	-4729
▁итае	-4730
▁перев	-4731
▁ТВ	-4732
▁For	-4733
▁вых	-4734
▁мии	-4735
▁анта	-4736
▁олис	-4737
vi	-4738
▁аты	-4739
▁нин	-4740
▁сал	-4741
▁ожно	-4742
▁ежден	-4743
▁назна	-4744
▁тиров	-4745
▁каб	-4746
▁офе	-4747
▁вшей	-4748
▁пала	-4749
▁ww	-4750
▁тет	-4751
ФО	-4752
▁www	-4753
▁аки	-4754
▁рмо	-4755
▁ятн	-4756
▁арск	-4757
▁ибли	-4758
▁чива	-4759
ИЛ	-4760
▁Su	-4761
▁Ке	-4762
▁ВВС	-4763
▁ити	-4764
▁сыл	-4765
▁удо	-4766
▁анка	-4767
▁госп	-4768
▁устр	-4769
▁Group	-4770
▁[	-4771
▁гио	-4772
▁рку	-4773
▁нстр	-4774
▁проф	-4775
▁уста	-4776
▁получ	-4777
▁Би	-4778
▁ыж	-4779
▁зит	-4780
▁пат	-4781
▁допус	-4782
▁un	-4783
▁пох	-4784
▁сив	-4785
▁нные	-4786
▁орог	-4787
▁36	-4788
▁ЖК	-4789
▁нар	-4790
▁рант	-4791
▁ссыл	-4792
▁комис	-4793
▁НП	-4794
▁бщ	-4795
▁еса	-4796
▁иви	-4797
▁оту	-4798
▁нге	-4799
▁оре	-4800
▁пци	-4801
▁соп	-4802
▁тат	-4803
▁циал	-4804
▁НК	-4805
▁оц	-4806
▁рю	-4807
▁екц	-4808
▁эро	-4809
ово	-4810
▁Зе	-4811
▁gra	-4812
▁душ	-4813
▁ола	-4814
▁ухо	-4815
▁елич	-4816
▁узов	-4817
▁]	-4818
▁Br	-4819
▁ub	-4820
▁жит	-4821
▁мес	-4822
▁сос	-4823
▁алит	-4824
▁ктур	-4825
▁нами	-4826
▁°	-4827
▁уй	-4828
▁инн	-4829
▁опи	-4830
▁етров	-4831
ОС	-4832
▁аза	-4833
▁иво	-4834
▁през	-4835
▁совер	-4836
ХЛ	-4837
ум	-4838
ort	-4839
▁кг	-4840
▁фл	-4841
▁анн	-4842
▁рац	-4843
▁длеж	-4844
▁евой	-4845
▁торая	-4846
ess	-4847
▁вир	-4848
▁атов	-4849
▁водо	-4850
▁очка	-4851
▁ложен	-4852
▁покуп	-4853
эт	-4854
▁Bl	-4855
▁жем	-4856
▁верж	-4857
ке	-4858
▁зл	-4859
▁МОК	-4860
▁кул	-4861
▁вшие	-4862
▁ирск	-4863
▁учит	-4864
▁возбу	-4865
▁нения	-4866
▁прово	-4867
▁ставл	-4868
▁Лу	-4869
▁вну	-4870
▁изы	-4871
▁окк	-4872
▁ИГИЛ	-4873
▁ерна	-4874
▁еход	-4875
▁онда	-4876
БР	-4877
▁33	-4878
▁Bo	-4879
▁лис	-4880
▁лиции	-4881
▁оборо	-4882
▁аро	-4883
ik	-4884
▁РАН	-4885
▁ажу	-4886
▁вил	-4887
▁ясн	-4888
▁иден	-4889
▁иста	-4890
▁na	-4891
▁азо	-4892
▁мей	-4893
▁лана	-4894
▁седн	-4895
▁сток	-4896
▁тала	-4897
ЖД	-4898
▁Им	-4899
▁лк	-4900
▁ота	-4901
▁тле	-4902
▁юда	-4903
▁ярн	-4904
▁ходя	-4905
▁ислен	-4906
▁тивно	-4907
▁акр	-4908
▁инт	-4909
▁итов	-4910
▁тоян	-4911
▁перво	-4912
▁ражда	-4913
▁Ли	-4914
▁титу	-4915
▁контр	-4916
ia	-4917
РО	-4918
▁отс	-4919
▁биле	-4920
▁едом	-4921
▁потр	-4922
▁Эк	-4923
▁iPh	-4924
▁ВАЗ	-4925
▁олу	-4926
▁урм	-4927
▁арто	-4928
▁ером	-4929
▁ожет	-4930
▁ерман	-4931
▁ктора	-4932
▁ьк	-4933
▁Сан	-4934
▁еми	-4935
▁иду	-4936
▁ури	-4937
▁ащен	-4938
▁ероя	-4939
▁сроч	-4940
▁ьи	-4941
▁кив	-4942
▁етей	-4943
▁кать	-4944
▁нать	-4945
▁ничн	-4946
▁прият	-4947
ur	-4948
▁Ак	-4949
▁лли	-4950
▁оей	-4951
▁атил	-4952
▁дним	-4953
▁ницы	-4954
▁одня	-4955
▁ртов	-4956
▁ьниц	-4957
МС	-4958
▁МК	-4959
▁Фи	-4960
▁вая	-4961
▁мых	-4962
▁сию	-4963
▁шан	-4964
▁вает	-4965
▁думы	-4966
▁екре	-4967
▁итер	-4968
▁орва	-4969
▁ce	-4970
▁ою	-4971
▁изе	-4972
▁нци	-4973
▁оза	-4974
▁чно	-4975
▁ерва	-4976
▁ерск	-4977
▁&	-4978
▁75	-4979
▁Al	-4980
▁гани	-4981
▁стои	-4982
ank	-4983
▁ent	-4984
▁аив	-4985
▁вои	-4986
▁лак	-4987
▁лья	-4988
▁нечн	-4989
▁пута	-4990
▁тина	-4991
▁Бл	-4992
▁нау	-4993
▁Times	-4994
▁избир	-4995
▁ленно	-4996
▁To	-4997
▁ляр	-4998
▁шим	-4999
▁иниц	-5000
дна	-5001
▁to	-5002
▁Юр	-5003
▁рч	-5004
▁або	-5005
▁дам	-5006
▁еоб	-5007
▁убл	-5008
▁дающ	-5009
▁стик	-5010
▁тинг	-5011
▁овала	-5012
▁оо	-5013
▁едк	-5014
▁егат	-5015
▁ованы	-5016
▁дне	-5017
▁пец	-5018
▁Одна	-5019
▁кана	-5020
▁рано	-5021
▁обход	-5022
▁ЛД	-5023
▁You	-5024
▁мущ	-5025
▁тери	-5026
▁тные	-5027
На	-5028
▁АС	-5029
▁нты	-5030
▁дить	-5031
▁исте	-5032
▁ребов	-5033
ын	-5034
▁авт	-5035
▁еры	-5036
▁учш	-5037
▁росс	-5038
ct	-5039
▁it	-5040
▁Кэ	-5041
▁ачал	-5042
▁редпо	-5043
▁едн	-5044
▁иве	-5045
▁етье	-5046
▁жида	-5047
▁опор	-5048
▁орни	-5049
За	-5050
▁Z	-5051
▁z	-5052
▁55	-5053
▁ыс	-5054
▁ФАС	-5055
▁чес	-5056
▁грам	-5057
▁оллек	-5058
▁позво	-5059
АД	-5060
▁el	-5061
шего	-5062
▁Mar	-5063
▁ЛДПР	-5064
▁вшего	-5065
▁Одн	-5066
▁арс	-5067
▁бом	-5068
▁акон	-5069
▁вока	-5070
▁науч	-5071
▁обес	-5072
▁посту	-5073
▁34	-5074
▁Ro	-5075
▁гул	-5076
▁тии	-5077
▁шив	-5078
▁вета	-5079
▁года	-5080
▁мать	-5081
▁осет	-5082
▁пожа	-5083
▁жение	-5084
▁De	-5085
▁Нам	-5086
▁ивы	-5087
▁куд	-5088
▁рио	-5089
▁олен	-5090
▁разг	-5091
▁реть	-5092
▁ющих	-5093
da	-5094
ft	-5095
▁сн	-5096
▁ber	-5097
▁ашен	-5098
▁иция	-5099
▁нный	-5100
▁рова	-5101
▁олном	-5102
▁етил	-5103
▁нков	-5104
▁ожил	-5105
▁ВК	-5106
▁мах	-5107
▁роб	-5108
▁вроп	-5109
▁раво	-5110
▁тани	-5111
%.	-5112
ными	-5113
▁Mer	-5114
▁вон	-5115
▁выб	-5116
▁отом	-5117
▁нимаю	-5118
▁ФИ	-5119
▁ема	-5120
▁реле	-5121
▁онечн	-5122
BC	-5123
▁ОБ	-5124
▁ЖКХ	-5125
▁емо	-5126
▁шаг	-5127
▁прид	-5128
▁алого	-5129
▁ьм	-5130
▁РЖД	-5131
▁атч	-5132
▁лоб	-5133
▁нан	-5134
▁спл	-5135
▁поне	-5136
▁Brent	-5137
▁иФ	-5138
▁Ins	-5139
▁Два	-5140
▁СНГ	-5141
▁вери	-5142
▁ольши	-5143
ПП	-5144
▁вме	-5145
▁еят	-5146
▁сом	-5147
▁ian	-5148
▁ляю	-5149
▁щее	-5150
▁визи	-5151
▁анима	-5152
▁госпо	-5153
▁КНР	-5154
▁бог	-5155
▁рье	-5156
▁фир	-5157
▁емле	-5158
▁ловно	-5159
▁тф	-5160
▁астр	-5161
▁озда	-5162
▁тема	-5163
AS	-5164
our	-5165
▁ешк	-5166
▁овн	-5167
▁вого	-5168
▁оход	-5169
▁рали	-5170
▁нский	-5171
▁Ди	-5172
▁Кто	-5173
▁еки	-5174
▁жир	-5175
▁рри	-5176
▁сси	-5177
▁едет	-5178
▁елев	-5179
▁ллек	-5180
▁бс	-5181
▁рп	-5182
▁юл	-5183
▁дик	-5184
▁лок	-5185
▁алов	-5186
▁вора	-5187
▁иент	-5188
▁ропа	-5189
ге	-5190
oom	-5191
▁37	-5192
▁щую	-5193
▁ирек	-5194
▁оном	-5195
▁тным	-5196
▁авший	-5197
▁ающих	-5198
▁етвер	-5199
▁урецк	-5200
ция	-5201
▁Сл	-5202
▁дия	-5203
▁еня	-5204
▁ибо	-5205
▁лил	-5206
▁восс	-5207
▁кций	-5208
▁наде	-5209
▁атить	-5210
▁вмест	-5211
▁тайск	-5212
SJ	-5213
СЕ	-5214
▁ВКС	-5215
▁Гл	-5216
▁ЧП	-5217
▁600	-5218
▁сск	-5219
▁енси	-5220
▁чных	-5221
▁йк	-5222
▁нсо	-5223
▁онс	-5224
▁узы	-5225
▁ерси	-5226
▁илли	-5227
▁кома	-5228
▁очер	-5229
▁нител	-5230
▁трукт	-5231
ья	-5232
▁42	-5233
▁РС	-5234
▁Ри	-5235
▁носи	-5236
▁ныне	-5237
▁фина	-5238
▁звест	-5239
▁реали	-5240
▁нк	-5241
▁кир	-5242
▁нер	-5243
▁обл	-5244
▁олг	-5245
▁тыр	-5246
▁щат	-5247
▁чные	-5248
de	-5249
▁38	-5250
▁май	-5251
▁нео	-5252
▁возв	-5253
▁купа	-5254
▁ужно	-5255
жи	-5256
▁$1	-5257
▁ары	-5258
▁лор	-5259
▁яли	-5260
▁жили	-5261
▁лете	-5262
▁снос	-5263
▁увер	-5264
▁НД	-5265
▁Ше	-5266
▁дъ	-5267
▁gram	-5268
▁трени	-5269
▁честв	-5270
all	-5271
▁Мэ	-5272
▁che	-5273
▁the	-5274
▁нсп	-5275
▁сум	-5276
▁рыно	-5277
▁тоят	-5278
▁ародн	-5279
▁Vol	-5280
▁ише	-5281
▁сын	-5282
▁шей	-5283
▁дроб	-5284
▁орен	-5285
▁рата	-5286
▁уются	-5287
▁ву	-5288
▁лм	-5289
▁МВФ	-5290
▁иван	-5291
▁одро	-5292
▁тоял	-5293
▁ативн	-5294
ЗО	-5295
ЭБ	-5296
▁рш	-5297
▁250	-5298
▁des	-5299
▁еся	-5300
▁има	-5301
▁кет	-5302
▁осмо	-5303
▁ужен	-5304
▁ube	-5305
▁иму	-5306
▁нил	-5307
▁ОБСЕ	-5308
▁онта	-5309
▁ремя	-5310
▁руга	-5311
te	-5312
ard	-5313
▁ебя	-5314
▁мое	-5315
▁уба	-5316
▁ула	-5317
▁ыли	-5318
▁меча	-5319
▁собен	-5320
II	-5321
um	-5322
АР	-5323
▁Эт	-5324
▁цу	-5325
▁агр	-5326
▁v	-5327
▁ФРГ	-5328
▁азн	-5329
▁опе	-5330
▁аран	-5331
▁евых	-5332
▁иком	-5333
▁инга	-5334
▁итвы	-5335
▁ратно	-5336
▁ково	-5337
▁ранн	-5338
▁редо	-5339
▁ромн	-5340
▁стных	-5341
▁СИ	-5342
▁жк	-5343
▁азв	-5344
▁тка	-5345
▁вино	-5346
▁езул	-5347
▁поль	-5348
▁твет	-5349
▁руппа	-5350
▁65	-5351
▁осе	-5352
▁спон	-5353
▁Q	-5354
▁иси	-5355
▁ыло	-5356
▁berg	-5357
▁епро	-5358
▁ерем	-5359
▁убеж	-5360
▁Merce	-5361
▁тного	-5362
▁чески	-5363
По	-5364
▁МС	-5365
▁лла	-5366
▁ветс	-5367
▁иной	-5368
▁кте	-5369
▁одк	-5370
▁рив	-5371
▁уши	-5372
▁очки	-5373
▁поэт	-5374
▁еятел	-5375
▁онной	-5376
fe	-5377
▁",	-5378
▁WSJ	-5379
▁бек	-5380
▁оим	-5381
▁тств	-5382
НК	-5383
▁хм	-5384
▁800	-5385
▁айт	-5386
▁гим	-5387
▁вити	-5388
▁заня	-5389
▁рукт	-5390
▁айдан	-5391
az	-5392
▁2,5	-5393
▁ung	-5394
▁Над	-5395
▁ету	-5396
▁ерба	-5397
▁разд	-5398
▁еальн	-5399
▁(2	-5400
▁4,	-5401
▁ильн	-5402
▁подс	-5403
▁сени	-5404
▁слуг	-5405
ie	-5406
▁BM	-5407
▁Boe	-5408
▁вов	-5409
▁лод	-5410
▁мся	-5411
▁рию	-5412
▁авар	-5413
▁илан	-5414
▁пера	-5415
▁тное	-5416
▁нской	-5417
ud	-5418
and	-5419
▁мк	-5420
▁50%	-5421
▁аси	-5422
▁виа	-5423
▁вск	-5424
▁еря	-5425
▁обу	-5426
▁прода	-5427
ite	-5428
▁Ор	-5429
▁ьт	-5430
▁еют	-5431
▁ычн	-5432
▁вест	-5433
▁120	-5434
▁ЛНР	-5435
▁шоу	-5436
▁ажет	-5437
▁анди	-5438
▁вига	-5439
▁исхо	-5440
▁наше	-5441
▁рита	-5442
▁Bloom	-5443
▁дерац	-5444
▁Каз	-5445
▁бле	-5446
▁меди	-5447
▁нное	-5448
▁уков	-5449
ash	-5450
▁вою	-5451
▁най	-5452
▁екта	-5453
▁етен	-5454
▁тной	-5455
▁онные	-5456
ние	-5457
▁XX	-5458
▁ВИ	-5459
▁Мак	-5460
▁апи	-5461
▁сий	-5462
▁едва	-5463
▁ммун	-5464
▁Ве	-5465
▁Sta	-5466
▁мэр	-5467
▁СИЗО	-5468
▁екса	-5469
▁мерт	-5470
▁ровн	-5471
▁ападе	-5472
▁ередн	-5473
▁роком	-5474
▁wag	-5475
▁Сер	-5476
▁иго	-5477
▁сна	-5478
▁уше	-5479
▁чук	-5480
▁дачи	-5481
▁есту	-5482
▁нцев	-5483
▁оенн	-5484
▁дробн	-5485
ge	-5486
yp	-5487
▁5,	-5488
▁бъ	-5489
▁Евр	-5490
▁еал	-5491
▁мыш	-5492
▁офи	-5493
▁рше	-5494
▁исти	-5495
▁чему	-5496
▁остей	-5497
▁46	-5498
▁ra	-5499
▁BMW	-5500
▁ажн	-5501
▁ащит	-5502
▁моде	-5503
▁нная	-5504
▁ссии	-5505
▁ющие	-5506
▁ающий	-5507
▁48	-5508
▁Ра	-5509
▁бат	-5510
▁нса	-5511
▁ошл	-5512
▁тья	-5513
▁ФИФА	-5514
▁екущ	-5515
▁оват	-5516
▁прое	-5517
▁азвит	-5518
▁зован	-5519
▁мисси	-5520
co	-5521
▁44	-5522
▁Am	-5523
▁ГК	-5524
▁Уч	-5525
▁аше	-5526
▁опо	-5527
▁уск	-5528
▁YouT	-5529
▁ечат	-5530
▁попа	-5531
▁чной	-5532
▁Inter	-5533
▁ратор	-5534
АК	-5535
▁‐	-5536
ber	-5537
▁ФН	-5538
▁юз	-5539
▁есл	-5540
▁кот	-5541
▁мпе	-5542
▁заме	-5543
▁ницу	-5544
ба	-5545
▁47	-5546
▁zr	-5547
▁СУ	-5548
▁оса	-5549
▁чей	-5550
▁айск	-5551
▁зыва	-5552
▁ющей	-5553
хи	-5554
▁Sk	-5555
▁лта	-5556
▁тий	-5557
▁идео	-5558
▁куль	-5559
▁осту	-5560
oc	-5561
▁дз	-5562
▁ФБР	-5563
▁бое	-5564
▁мяч	-5565
▁хир	-5566
▁епри	-5567
▁соци	-5568
▁ернет	-5569
▁техно	-5570
▁ьными	-5571
ши	-5572
эн	-5573
▁Sam	-5574
▁осс	-5575
▁оща	-5576
▁риш	-5577
▁ься	-5578
▁ично	-5579
▁руют	-5580
▁тный	-5581
▁ыбор	-5582
▁полно	-5583
ПС	-5584
▁исе	-5585
▁лаш	-5586
▁рда	-5587
▁рма	-5588
▁сте	-5589
▁шие	-5590
▁яла	-5591
▁атал	-5592
▁аций	-5593
▁борн	-5594
▁елос	-5595
▁етов	-5596
▁умен	-5597
▁авлял	-5598
▁no	-5599
▁Сто	-5600
▁Tele	-5601
▁атер	-5602
▁еатр	-5603
▁емпи	-5604
▁лиза	-5605
▁року	-5606
▁идент	-5607
▁ствий	-5608
▁―	-5609
▁(1	-5610
▁43	-5611
▁ЕГ	-5612
▁дп	-5613
▁иен	-5614
▁няя	-5615
▁рих	-5616
▁сят	-5617
▁тве	-5618
▁ерст	-5619
▁зато	-5620
▁роду	-5621
▁естно	-5622
йн	-5623
▁20%	-5624
▁амо	-5625
▁едо	-5626
▁моя	-5627
▁ация	-5628
▁еран	-5629
ГО	-5630
old	-5631
▁Sa	-5632
▁ne	-5633
▁Ло	-5634
▁АЭС	-5635
▁ужа	-5636
▁дения	-5637
▁sh	-5638
▁ФА	-5639
▁тч	-5640
▁Или	-5641
▁Оно	-5642
▁иди	-5643
▁сли	-5644
▁едан	-5645
▁мате	-5646
▁непр	-5647
▁тору	-5648
▁иверс	-5649
▁FT	-5650
▁Дн	-5651
▁РП	-5652
▁ыг	-5653
▁кая	-5654
▁ойн	-5655
▁ртв	-5656
▁тых	-5657
▁шит	-5658
▁едиц	-5659
▁речи	-5660
ub	-5661
гер	-5662
▁Ex	-5663
▁дю	-5664
aily	-5665
▁ЗАО	-5666
▁ОСА	-5667
▁гур	-5668
▁кое	-5669
▁огд	-5670
▁оны	-5671
▁мани	-5672
▁омин	-5673
▁онен	-5674
▁воров	-5675
▁УФ	-5676
▁ае	-5677
▁10%	-5678
▁man	-5679
▁СБУ	-5680
▁стиж	-5681
▁Daily	-5682
▁ворит	-5683
▁85	-5684
▁re	-5685
▁щн	-5686
▁нгр	-5687
▁Mail	-5688
▁влен	-5689
▁енте	-5690
▁илос	-5691
▁нтер	-5692
▁овав	-5693
▁отер	-5694
▁ающие	-5695
ИН	-5696
ЭК	-5697
▁6,	-5698
▁АР	-5699
▁пс	-5700
▁Com	-5701
▁tal	-5702
▁Чем	-5703
▁зво	-5704
▁лир	-5705
▁спа	-5706
▁верт	-5707
▁икул	-5708
▁раке	-5709
▁Ил	-5710
▁уц	-5711
▁аку	-5712
▁вад	-5713
▁еве	-5714
▁тас	-5715
▁вающ	-5716
▁разб	-5717
▁деньг	-5718
▁нимат	-5719
FA	-5720
▁7,	-5721
▁зк	-5722
▁Без	-5723
▁Мед	-5724
▁мот	-5725
▁нной	-5726
▁оним	-5727
▁уточ	-5728
▁циям	-5729
▁торую	-5730
ine	-5731
▁ОН	-5732
▁and	-5733
▁tor	-5734
▁ето	-5735
▁Life	-5736
▁ешен	-5737
▁лето	-5738
▁ирово	-5739
▁реста	-5740
ult	-5741
или	-5742
▁39	-5743
▁Зап	-5744
▁жск	-5745
▁кас	-5746
▁огу	-5747
▁ылк	-5748
▁Рост	-5749
▁боль	-5750
▁оков	-5751
▁ыстр	-5752
▁Insta	-5753
%,	-5754
▁2-	-5755
▁АИ	-5756
▁зу	-5757
▁аса	-5758
▁мыв	-5759
▁рич	-5760
▁ажен	-5761
▁арко	-5762
▁рите	-5763
▁льтур	-5764
lo	-5765
▁41	-5766
▁49	-5767
▁Ва	-5768
▁700	-5769
▁ПАО	-5770
▁ваш	-5771
▁тна	-5772
▁шем	-5773
▁Sams	-5774
▁азан	-5775
▁икан	-5776
▁ющий	-5777
МК	-5778
зв	-5779
ТРК	-5780
▁КТ	-5781
▁ъе	-5782
▁дей	-5783
▁ейк	-5784
▁енк	-5785
▁обя	-5786
▁оят	-5787
▁спы	-5788
▁уди	-5789
▁чал	-5790
▁вето	-5791
▁вызв	-5792
▁икам	-5793
▁мира	-5794
▁нным	-5795
▁овке	-5796
Не	-5797
ца	-5798
ша	-5799
▁Po	-5800
▁айо	-5801
▁гда	-5802
▁едс	-5803
▁ляц	-5804
▁отп	-5805
▁ппа	-5806
▁рых	-5807
▁сков	-5808
▁ращен	-5809
нин	-5810
▁Го	-5811
▁Ему	-5812
▁язы	-5813
▁агер	-5814
▁внос	-5815
▁онск	-5816
▁рман	-5817
▁роне	-5818
▁туре	-5819
ni	-5820
РУ	-5821
▁57	-5822
▁FI	-5823
▁On	-5824
▁nal	-5825
▁nat	-5826
▁Мир	-5827
▁НКО	-5828
▁НХЛ	-5829
▁елы	-5830
▁рят	-5831
▁тый	-5832
▁вари	-5833
▁оего	-5834
▁пить	-5835
▁рези	-5836
▁тбол	-5837
ran	-5838
авш	-5839
▁La	-5840
▁Sh	-5841
▁зо	-5842
▁амм	-5843
▁анр	-5844
▁иля	-5845
▁адио	-5846
▁орол	-5847
▁рных	-5848
▁стиц	-5849
АП	-5850
▁ton	-5851
▁ВЭБ	-5852
▁аур	-5853
▁жид	-5854
▁нки	-5855
▁пти	-5856
▁рип	-5857
▁енци	-5858
▁лого	-5859
▁руко	-5860
▁зация	-5861
▁стоял	-5862
▁НПФ	-5863
▁ФРС	-5864
▁бас	-5865
▁мек	-5866
▁нош	-5867
▁отл	-5868
▁ерну	-5869
▁исал	-5870
▁раве	-5871
▁рево	-5872
▁Volks	-5873
▁очной	-5874
:1	-5875
▁52	-5876
▁Ni	-5877
▁ai	-5878
▁КС	-5879
▁Лю	-5880
▁еза	-5881
▁ехн	-5882
▁олы	-5883
▁рди	-5884
▁сме	-5885
▁учк	-5886
▁арди	-5887
▁ашей	-5888
▁дмин	-5889
▁фект	-5890
▁ниман	-5891
▁торым	-5892
ПЛ	-5893
▁иу	-5894
▁асн	-5895
▁льм	-5896
▁убо	-5897
▁ыть	-5898
▁войс	-5899
▁еньк	-5900
▁ждал	-5901
▁нсир	-5902
▁at	-5903
▁Же	-5904
▁ТО	-5905
▁еу	-5906
▁нб	-5907
▁эт	-5908
▁езо	-5909
▁мого	-5910
▁рада	-5911
▁намер	-5912
СР	-5913
яс	-5914
зер	-5915
▁рц	-5916
▁Pro	-5917
▁аме	-5918
▁джа	-5919
▁ида	-5920
▁ирк	-5921
▁иса	-5922
▁умм	-5923
▁арте	-5924
▁бъем	-5925
▁есен	-5926
▁овет	-5927
▁орат	-5928
▁темы	-5929
▁тика	-5930
▁ОСАГО	-5931
▁азани	-5932
▁есяце	-5933
ГБ	-5934
еч	-5935
як	-5936
▁$4	-5937
▁вв	-5938
▁хэ	-5939
▁чая	-5940
▁Stre	-5941
▁ломк	-5942
▁нанс	-5943
▁нных	-5944
▁овка	-5945
▁ожар	-5946
ld	-5947
▁ed	-5948
▁30%	-5949
▁Con	-5950
▁есе	-5951
▁мам	-5952
▁неи	-5953
▁нув	-5954
▁вшим	-5955
▁сист	-5956
▁дение	-5957
yo	-5958
▁*	-5959
▁>	-5960
▁$3	-5961
▁53	-5962
▁CN	-5963
▁bg	-5964
▁de	-5965
▁адн	-5966
▁ноп	-5967
▁ищев	-5968
▁орит	-5969
▁орой	-5970
▁рный	-5971
▁ровь	-5972
▁дание	-5973
▁нициа	-5974
▁62	-5975
▁исл	-5976
▁мят	-5977
▁ндо	-5978
▁нце	-5979
▁онг	-5980
▁уро	-5981
▁Novi	-5982
▁nite	-5983
▁ачен	-5984
▁дпол	-5985
▁емых	-5986
▁несе	-5987
▁обыт	-5988
▁овес	-5989
▁одов	-5990
▁тник	-5991
▁дател	-5992
▁ружен	-5993
un	-5994
▁te	-5995
▁ur	-5996
▁тст	-5997
▁воих	-5998
▁икал	-5999
▁обил	-6000
▁рупн	-6001
ТИ	-6002
▁ge	-6003
▁ЧМ	-6004
▁жу	-6005
▁Оба	-6006
▁аго	-6007
▁ачи	-6008
▁нах	-6009
▁эфф	-6010
▁юге	-6011
▁нить	-6012
▁олич	-6013
▁адавш	-6014
▁гласи	-6015
▁транн	-6016
uro	-6017
полн	-6018
▁ted	-6019
▁бет	-6020
▁нга	-6021
▁оял	-6022
▁роя	-6023
▁уан	-6024
▁уси	-6025
▁агра	-6026
▁одни	-6027
▁пода	-6028
▁приз	-6029
▁рати	-6030
▁ятно	-6031
▁кован	-6032
▁остро	-6033
▁татов	-6034
▁ыполн	-6035
ВО	-6036
ОМ	-6037
▁айл	-6038
▁нту	-6039
▁сул	-6040
▁уал	-6041
▁шко	-6042
▁ашин	-6043
▁види	-6044
▁почт	-6045
▁пояс	-6046
▁руже	-6047
▁рыва	-6048
пт	-6049
est	-6050
ost	-6051
▁En	-6052
▁40%	-6053
▁инв	-6054
▁мои	-6055
▁шум	-6056
▁анда	-6057
▁овод	-6058
▁изошл	-6059
▁лиров	-6060
чи	-6061
oll	-6062
чев	-6063
▁АСВ	-6064
▁РФС	-6065
▁еку	-6066
▁лек	-6067
▁мые	-6068
▁нне	-6069
▁оду	-6070
▁тос	-6071
▁ваем	-6072
▁вами	-6073
▁возм	-6074
▁миро	-6075
▁анкер	-6076
ee	-6077
▁3-	-6078
▁тс	-6079
▁шл	-6080
▁ыз	-6081
▁езу	-6082
▁огр	-6083
▁пул	-6084
▁рта	-6085
▁унк	-6086
▁шек	-6087
▁икак	-6088
▁силь	-6089
▁трал	-6090
▁щать	-6091
▁nault	-6092
ork	-6093
▁64	-6094
▁Co	-6095
▁1,2	-6096
▁КОС	-6097
▁аил	-6098
▁бов	-6099
▁дой	-6100
▁раю	-6101
▁акар	-6102
▁еобх	-6103
▁мите	-6104
▁нице	-6105
▁орно	-6106
▁раль	-6107
▁Pr	-6108
▁ПФ	-6109
▁3,5	-6110
▁Mic	-6111
▁МГУ	-6112
▁Меж	-6113
▁рго	-6114
▁рци	-6115
▁гуля	-6116
▁енат	-6117
▁ольф	-6118
▁тите	-6119
▁анной	-6120
▁ходим	-6121
se	-6122
уа	-6123
lay	-6124
▁мый	-6125
▁нко	-6126
▁джет	-6127
▁зова	-6128
▁кими	-6129
▁тайн	-6130
▁рикан	-6131
vo	-6132
КБ	-6133
art	-6134
▁$5	-6135
▁XI	-6136
▁ВИЧ	-6137
▁Нет	-6138
▁ишк	-6139
▁рто	-6140
▁тко	-6141
▁шил	-6142
▁Toyo	-6143
▁Глав	-6144
▁огер	-6145
▁черк	-6146
дж	-6147
кр	-6148
oft	-6149
▁Ar	-6150
▁IT	-6151
▁рс	-6152
▁And	-6153
▁ейт	-6154
▁цид	-6155
▁шая	-6156
▁наст	-6157
▁приб	-6158
фе	-6159
ett	-6160
жен	-6161
▁$2	-6162
▁51	-6163
▁Pe	-6164
▁th	-6165
▁бн	-6166
▁йс	-6167
▁алу	-6168
▁ону	-6169
▁рах	-6170
▁рех	-6171
▁рни	-6172
▁рыл	-6173
▁чьи	-6174
▁дово	-6175
▁леду	-6176
▁наме	-6177
▁рудо	-6178
▁оител	-6179
ke	-6180
ers	-6181
▁УЕ	-6182
▁вик	-6183
▁вую	-6184
▁жда	-6185
▁оде	-6186
▁рей	-6187
▁рки	-6188
▁добы	-6189
▁итат	-6190
▁онят	-6191
▁орам	-6192
▁раба	-6193
▁ренн	-6194
▁етить	-6195
▁ующих	-6196
va	-6197
ОВ	-6198
шин	-6199
▁IC	-6200
▁пк	-6201
▁Gal	-6202
▁ашк	-6203
▁жат	-6204
▁ичк	-6205
▁пей	-6206
▁УЕФА	-6207
▁етон	-6208
▁оник	-6209
▁тавк	-6210
▁ждает	-6211
▁конеч	-6212
▁нтябр	-6213
ПЧ	-6214
▁Fl	-6215
▁ers	-6216
▁вля	-6217
▁мул	-6218
▁пек	-6219
▁Bank	-6220
▁бычн	-6221
▁обав	-6222
▁очти	-6223
▁прем	-6224
▁четы	-6225
▁икова	-6226
▁74	-6227
▁Be	-6228
▁Vi	-6229
▁АЗ	-6230
▁амы	-6231
▁атк	-6232
▁ийн	-6233
▁лос	-6234
▁Jour	-6235
▁Russ	-6236
▁атин	-6237
▁введ	-6238
▁ектр	-6239
▁тавит	-6240
▁ующие	-6241
ТВ	-6242
▁67	-6243
▁ВД	-6244
▁ВМ	-6245
▁зь	-6246
▁тл	-6247
▁Wor	-6248
▁Тут	-6249
▁вищ	-6250
▁зад	-6251
▁лях	-6252
▁одр	-6253
▁отд	-6254
▁тике	-6255
▁ьный	-6256
▁вости	-6257
▁разве	-6258
iki	-6259
гин	-6260
▁гг	-6261
▁зм	-6262
▁Три	-6263
▁Эту	-6264
▁ане	-6265
▁арп	-6266
▁гей	-6267
▁инь	-6268
▁кую	-6269
▁оиз	-6270
▁осв	-6271
▁пле	-6272
▁рдо	-6273
▁рони	-6274
ue	-6275
▁56	-6276
▁130	-6277
▁аун	-6278
▁ефо	-6279
▁итк	-6280
▁рсе	-6281
▁тац	-6282
▁алют	-6283
▁едов	-6284
▁ильм	-6285
▁лага	-6286
▁рмац	-6287
▁руги	-6288
▁рской	-6289
ФЛ	-6290
per	-6291
und	-6292
▁Ma	-6293
▁хн	-6294
▁bus	-6295
▁ОНФ	-6296
▁алы	-6297
▁бре	-6298
▁есу	-6299
▁кем	-6300
▁рна	-6301
▁авод	-6302
▁ющим	-6303
▁j	-6304
▁li	-6305
▁Ben	-6306
▁Lad	-6307
▁ехо	-6308
▁льб	-6309
▁мом	-6310
▁реп	-6311
▁риб	-6312
▁Ford	-6313
▁ерам	-6314
▁жест	-6315
▁лать	-6316
▁мене	-6317
▁нутр	-6318
▁огич	-6319
ВД	-6320
ood	-6321
НАС	-6322
▁77	-6323
▁Ги	-6324
▁Tra	-6325
▁ard	-6326
▁ght	-6327
▁ial	-6328
▁Ким	-6329
▁Рио	-6330
▁Чер	-6331
▁пот	-6332
▁стн	-6333
▁уве	-6334
▁уде	-6335
▁отал	-6336
▁очно	-6337
▁АРНАС	-6338
▁антов	-6339
АМ	-6340
udi	-6341
▁0,	-6342
▁8,	-6343
▁ММ	-6344
▁пил	-6345
▁рим	-6346
▁сат	-6347
▁яза	-6348
▁Euro	-6349
▁воре	-6350
▁тога	-6351
▁трак	-6352
▁удит	-6353
▁ущес	-6354
▁чного	-6355
:0	-6356
▁Gu	-6357
▁Se	-6358
▁XV	-6359
▁ch	-6360
▁яб	-6361
▁ПДД	-6362
▁рме	-6363
▁ьес	-6364
▁roid	-6365
▁аген	-6366
▁азов	-6367
▁лизи	-6368
▁лярн	-6369
▁обна	-6370
▁печа	-6371
▁Micro	-6372
▁ообща	-6373
▁щении	-6374
ЦИ	-6375
▁72	-6376
▁ЦРУ	-6377
▁изн	-6378
▁кса	-6379
▁лян	-6380
▁ыка	-6381
▁асов	-6382
▁ксан	-6383
▁обща	-6384
▁ройс	-6385
▁тном	-6386
▁влены	-6387
ys	-6388
фа	-6389
чес	-6390
▁54	-6391
▁АН	-6392
▁оси	-6393
▁упи	-6394
▁мейк	-6395
▁ыясн	-6396
▁онный	-6397
▁вг	-6398
▁сд	-6399
▁III	-6400
▁аке	-6401
▁жар	-6402
▁мид	-6403
▁отч	-6404
▁жает	-6405
▁ленн	-6406
▁орре	-6407
▁осил	-6408
▁трой	-6409
▁йском	-6410
TI	-6411
ab	-6412
шн	-6413
anc	-6414
енд	-6415
жев	-6416
▁ma	-6417
▁ВГ	-6418
▁зю	-6419
▁for	-6420
▁ПФР	-6421
▁аня	-6422
▁арр	-6423
▁асх	-6424
▁вог	-6425
▁жим	-6426
▁рне	-6427
▁чка	-6428
▁ьбе	-6429
▁Lada	-6430
▁бвин	-6431
▁етра	-6432
▁ибун	-6433
▁инал	-6434
▁серв	-6435
▁1-	-6436
▁Da	-6437
▁ФК	-6438
▁ВМС	-6439
▁Наш	-6440
▁Тот	-6441
▁апу	-6442
▁аул	-6443
▁епо	-6444
▁нду	-6445
▁рог	-6446
▁КОСа	-6447
▁есто	-6448
▁иваю	-6449
▁скан	-6450
▁хмет	-6451
▁чным	-6452
▁ванию	-6453
▁менов	-6454
▁нного	-6455
ot	-6456
ox	-6457
▁58	-6458
▁95	-6459
▁US	-6460
▁СПГ	-6461
▁вым	-6462
▁евн	-6463
▁зис	-6464
▁сса	-6465
▁сить	-6466
▁World	-6467
▁ax	-6468
▁ОИ	-6469
▁Пе	-6470
▁изи	-6471
▁иот	-6472
▁кли	-6473
▁сур	-6474
▁ализ	-6475
▁елям	-6476
▁забо	-6477
▁зрыв	-6478
▁лизо	-6479
▁парт	-6480
▁сост	-6481
▁таци	-6482
▁трем	-6483
▁вгуст	-6484
▁дельн	-6485
▁емонт	-6486
▁ентра	-6487
▁явили	-6488
ОЙ	-6489
Об	-6490
▁РГ	-6491
▁ФЗ	-6492
▁чл	-6493
▁мба	-6494
▁рба	-6495
▁Benz	-6496
▁лице	-6497
▁рене	-6498
▁сиро	-6499
▁сооб	-6500
▁тико	-6501
▁итвин	-6502
▁риров	-6503
st	-6504
ill	-6505
▁ОР	-6506
▁900	-6507
▁Cit	-6508
▁aks	-6509
▁НДС	-6510
▁боя	-6511
▁нюю	-6512
▁ощн	-6513
▁рям	-6514
▁Post	-6515
▁soft	-6516
▁итыв	-6517
▁площ	-6518
▁нская	-6519
▁строе	-6520
▁тства	-6521
цы	-6522
ing	-6523
uts	-6524
▁AF	-6525
▁ty	-6526
▁дя	-6527
▁350	-6528
▁80%	-6529
▁Али	-6530
▁апе	-6531
▁воп	-6532
▁доч	-6533
▁лас	-6534
▁пий	-6535
▁тые	-6536
▁ЕСПЧ	-6537
▁домо	-6538
▁евоз	-6539
▁иску	-6540
▁ктик	-6541
▁ожде	-6542
▁второ	-6543
▁итики	-6544
▁оспит	-6545
▁ывали	-6546
хан	-6547
▁63	-6548
▁An	-6549
▁Hy	-6550
▁go	-6551
▁15%	-6552
▁Бор	-6553
▁Мэр	-6554
▁еща	-6555
▁имс	-6556
▁иум	-6557
▁лах	-6558
▁ссы	-6559
▁упе	-6560
▁ыше	-6561
▁Wiki	-6562
▁аива	-6563
▁атич	-6564
▁жный	-6565
▁лмаз	-6566
▁ожив	-6567
▁ракт	-6568
▁реал	-6569
▁роса	-6570
▁тает	-6571
▁НЕ	-6572
▁160	-6573
▁CAS	-6574
▁CNN	-6575
▁new	-6576
▁ерф	-6577
▁нну	-6578
▁York	-6579
▁енту	-6580
▁твит	-6581
▁ансир	-6582
▁онкур	-6583
▁полов	-6584
ig	-6585
па	-6586
▁59	-6587
▁73	-6588
▁Wi	-6589
▁вим	-6590
▁тущ	-6591
▁Wall	-6592
▁вете	-6593
▁итир	-6594
▁огил	-6595
▁раны	-6596
▁ресн	-6597
▁таты	-6598
▁ллион	-6599
▁майер	-6600
▁нижен	-6601
▁учить	-6602
КР	-6603
uto	-6604
▁9,	-6605
▁Cl	-6606
▁ER	-6607
▁Ша	-6608
▁КХЛ	-6609
▁НТВ	-6610
▁шет	-6611
▁айан	-6612
▁аник	-6613
▁итал	-6614
▁мышл	-6615
▁нном	-6616
▁овок	-6617
▁стон	-6618
▁тало	-6619
▁игери	-6620
▁опред	-6621
▁рного	-6622
▁−	-6623
ОЙЛ	-6624
▁99	-6625
▁ГС	-6626
▁РЕ	-6627
▁дс	-6628
▁Pri	-6629
▁Дня	-6630
▁ЕГЭ	-6631
▁бри	-6632
▁еек	-6633
▁зви	-6634
▁орч	-6635
▁раф	-6636
▁варт	-6637
▁дини	-6638
▁енде	-6639
▁иумф	-6640
▁УКОЙЛ	-6641
▁ацион	-6642
▁ожден	-6643
▁отуар	-6644
ci	-6645
▁_	-6646
ейн	-6647
▁1/	-6648
▁AP	-6649
▁Eg	-6650
▁FM	-6651
ЦИОМ	-6652
▁1,6	-6653
▁ВМФ	-6654
▁ПАС	-6655
▁ачн	-6656
▁вки	-6657
▁дми	-6658
▁ейм	-6659
▁ози	-6660
▁аруш	-6661
▁илер	-6662
▁чный	-6663
▁шенк	-6664
▁ВЦИОМ	-6665
▁усско	-6666
▁5%	-6667
▁88	-6668
▁Op	-6669
▁ex	-6670
▁ЕР	-6671
▁Ир	-6672
▁Мн	-6673
▁иэ	-6674
▁Che	-6675
▁XIX	-6676
▁ачк	-6677
▁бще	-6678
▁Audi	-6679
▁news	-6680
▁алай	-6681
▁ветл	-6682
▁дата	-6683
▁ктер	-6684
▁рной	-6685
▁Sport	-6686
▁ношен	-6687
▁ынешн	-6688
ypt	-6689
▁66	-6690
▁МГ	-6691
▁зя	-6692
▁уе	-6693
▁180	-6694
▁4,5	-6695
▁Tes	-6696
▁axy	-6697
▁МТС	-6698
▁бсу	-6699
▁иты	-6700
▁льф	-6701
▁мею	-6702
▁орс	-6703
▁сок	-6704
▁абоч	-6705
▁атит	-6706
▁ечин	-6707
▁зала	-6708
▁ортн	-6709
▁улин	-6710
▁верно	-6711
▁одина	-6712
ИС	-6713
гон	-6714
▁68	-6715
▁Ass	-6716
▁Bre	-6717
▁Med	-6718
▁mon	-6719
▁ФНС	-6720
▁гко	-6721
▁гло	-6722
▁нны	-6723
▁рил	-6724
▁уар	-6725
▁уса	-6726
▁КоАП	-6727
▁ПАСЕ	-6728
▁адми	-6729
▁благ	-6730
▁лина	-6731
▁мигр	-6732
▁опри	-6733
▁пион	-6734
▁сией	-6735
▁Tesla	-6736
▁ариан	-6737
ana	-6738
▁end	-6739
▁ine	-6740
▁СКА	-6741
▁ахи	-6742
▁еше	-6743
▁итв	-6744
▁мак	-6745
▁мун	-6746
▁нто	-6747
▁сар	-6748
▁шки	-6749
▁Gett	-6750
▁авле	-6751
▁арик	-6752
▁жник	-6753
▁нали	-6754
▁озду	-6755
▁омме	-6756
▁прио	-6757
▁рева	-6758
▁рудн	-6759
▁Guard	-6760
▁ителе	-6761
▁ниров	-6762
▁равля	-6763
орм	-6764
▁Фо	-6765
▁net	-6766
▁МиГ	-6767
▁нни	-6768
▁упа	-6769
▁Niss	-6770
▁змен	-6771
▁каль	-6772
▁онны	-6773
▁ражд	-6774
▁еские	-6775
▁нформ	-6776
▁ритор	-6777
юк	-6778
org	-6779
нев	-6780
чек	-6781
▁5-	-6782
▁61	-6783
▁IV	-6784
▁TV	-6785
▁Вз	-6786
▁ПС	-6787
▁25%	-6788
▁бий	-6789
▁ваю	-6790
▁ерх	-6791
▁ечк	-6792
▁иар	-6793
▁лка	-6794
▁осу	-6795
▁саж	-6796
▁уду	-6797
▁вена	-6798
▁воро	-6799
▁дите	-6800
▁ицию	-6801
▁корр	-6802
▁льши	-6803
▁одор	-6804
▁ппоз	-6805
▁ружи	-6806
▁склю	-6807
▁фран	-6808
▁Egypt	-6809
▁Space	-6810
▁нском	-6811
▁ующий	-6812
▁84	-6813
▁Cor	-6814
▁Por	-6815
▁РПЦ	-6816
▁ези	-6817
▁имы	-6818
▁кси	-6819
▁неб	-6820
▁ошк	-6821
▁сис	-6822
▁тап	-6823
▁чко	-6824
▁анил	-6825
▁емой	-6826
▁етск	-6827
▁итуа	-6828
▁лавы	-6829
▁нако	-6830
▁нала	-6831
▁рмат	-6832
▁чить	-6833
▁ысок	-6834
▁курат	-6835
▁огран	-6836
▁подоб	-6837
▁щения	-6838
▁ываем	-6839
AF	-6840
ТР	-6841
мы	-6842
▁He	-6843
▁2-3	-6844
▁Uni	-6845
▁ВСУ	-6846
▁абр	-6847
▁апл	-6848
▁ову	-6849
▁онц	-6850
▁ьет	-6851
▁арит	-6852
▁арок	-6853
▁икаг	-6854
▁кцио	-6855
▁мали	-6856
▁тере	-6857
▁ковск	-6858
▁сколь	-6859
▁фициа	-6860
▁IB	-6861
▁вь	-6862
▁AFP	-6863
▁Ser	-6864
▁Абэ	-6865
▁ДНК	-6866
▁ДПС	-6867
▁боч	-6868
▁сле	-6869
▁асск	-6870
▁змер	-6871
▁ичем	-6872
▁мств	-6873
▁ране	-6874
▁рофе	-6875
▁едующ	-6876
▁логов	-6877
▁манск	-6878
▁новил	-6879
ОН	-6880
СКО	-6881
▁71	-6882
▁am	-6883
▁io	-6884
▁ср	-6885
▁уя	-6886
▁зни	-6887
▁кно	-6888
▁осм	-6889
▁щно	-6890
▁Airl	-6891
▁амят	-6892
▁есят	-6893
▁икет	-6894
▁люче	-6895
▁няти	-6896
▁онча	-6897
▁еских	-6898
▁ичные	-6899
:2	-6900
ak	-6901
▁69	-6902
▁RU	-6903
▁is	-6904
▁МЭ	-6905
▁тм	-6906
▁фу	-6907
▁яю	-6908
▁BBC	-6909
▁Вам	-6910
▁лал	-6911
▁лой	-6912
▁нот	-6913
▁РФПЛ	-6914
▁аход	-6915
▁окал	-6916
▁сман	-6917
▁алкан	-6918
▁ристо	-6919
▁рожде	-6920
io	-6921
▁y	-6922
ell	-6923
ГУП	-6924
▁76	-6925
▁ПО	-6926
▁son	-6927
▁Где	-6928
▁Две	-6929
▁ТЭК	-6930
▁ФТС	-6931
▁еды	-6932
▁еор	-6933
▁ефт	-6934
▁мка	-6935
▁мым	-6936
▁ута	-6937
▁яте	-6938
▁долл	-6939
▁ицын	-6940
▁ичен	-6941
▁нейш	-6942
▁пери	-6943
▁ятел	-6944
дь	-6945
▁і	-6946
бан	-6947
▁4-	-6948
▁92	-6949
▁mo	-6950
▁se	-6951
▁ВО	-6952
▁ОА	-6953
▁ive	-6954
▁бир	-6955
▁мме	-6956
▁нды	-6957
▁рои	-6958
▁Uber	-6959
▁ines	-6960
▁едел	-6961
▁изме	-6962
▁ират	-6963
▁мерн	-6964
▁мпан	-6965
▁осов	-6966
▁редп	-6967
▁ртер	-6968
▁Hyund	-6969
▁ликов	-6970
▁обави	-6971
▁печен	-6972
▁ропор	-6973
OS	-6974
ow	-6975
гу	-6976
ху	-6977
▁DA	-6978
▁IA	-6979
▁bl	-6980
▁ОД	-6981
▁Сп	-6982
▁лж	-6983
▁70%	-6984
▁СПЧ	-6985
▁алю	-6986
▁ебо	-6987
▁мим	-6988
▁овк	-6989
▁Auto	-6990
▁line	-6991
▁аказ	-6992
▁ерро	-6993
▁кора	-6994
▁одил	-6995
▁вский	-6996
▁прави	-6997
▁умент	-6998
api	-6999
ind	-7000
АЭС	-7001
▁нч	-7002
▁дзо	-7003
▁знь	-7004
▁цио	-7005
▁чек	-7006
▁Gold	-7007
▁Play	-7008
▁астн	-7009
▁ацио	-7010
▁вают	-7011
▁ебен	-7012
▁окер	-7013
▁трас	-7014
▁траф	-7015
▁Getty	-7016
▁НЕСКО	-7017
▁вался	-7018
▁еский	-7019
▁ичего	-7020
▁омисс	-7021
▁просы	-7022
▁следу	-7023
ass	-7024
рас	-7025
▁1%	-7026
▁Lo	-7027
▁ГП	-7028
▁СБ	-7029
▁140	-7030
▁ice	-7031
▁ure	-7032
▁Был	-7033
▁ПРО	-7034
▁амс	-7035
▁афи	-7036
▁бен	-7037
▁еод	-7038
▁епа	-7039
▁ицк	-7040
▁нде	-7041
▁няк	-7042
▁оис	-7043
▁тег	-7044
▁шок	-7045
▁ыла	-7046
▁яск	-7047
▁nanc	-7048
▁ress	-7049
▁берт	-7050
▁здор	-7051
▁овел	-7052
▁олик	-7053
▁разв	-7054
▁родо	-7055
▁телек	-7056
▁уации	-7057
сян	-7058
хин	-7059
▁4%	-7060
▁Th	-7061
▁ll	-7062
▁Др	-7063
▁ЦК	-7064
▁bes	-7065
▁ley	-7066
▁айс	-7067
▁апы	-7068
▁ежа	-7069
▁нца	-7070
▁рее	-7071
▁тым	-7072
▁цин	-7073
▁шее	-7074
▁ФГУП	-7075
▁аман	-7076
▁коль	-7077
▁орти	-7078
▁Deuts	-7079
▁Press	-7080
▁астер	-7081
▁держи	-7082
▁итают	-7083
▁стоим	-7084
ff	-7085
out	-7086
тен	-7087
▁82	-7088
▁86	-7089
▁ry	-7090
▁ЕК	-7091
▁МФ	-7092
▁юч	-7093
▁бах	-7094
▁роч	-7095
▁утс	-7096
▁выми	-7097
▁евин	-7098
▁люби	-7099
▁олин	-7100
▁раже	-7101
▁тиру	-7102
▁ценк	-7103
▁истер	-7104
▁оргов	-7105
▁попыт	-7106
▁тации	-7107
NS	-7108
ЦБ	-7109
ast	-7110
ink	-7111
лит	-7112
шек	-7113
▁Ок	-7114
▁вл	-7115
▁One	-7116
▁Pol	-7117
▁ГСУ	-7118
▁НИИ	-7119
▁ОАЭ	-7120
▁УФС	-7121
▁ерз	-7122
▁мыс	-7123
▁ояв	-7124
▁тис	-7125
▁уна	-7126
▁Capi	-7127
▁амва	-7128
▁вист	-7129
▁егио	-7130
▁енти	-7131
▁лева	-7132
▁нную	-7133
▁поми	-7134
▁рным	-7135
▁твуе	-7136
▁тера	-7137
▁удет	-7138
▁альни	-7139
▁чения	-7140
ai	-7141
жа	-7142
ust	-7143
▁78	-7144
▁ler	-7145
▁let	-7146
▁Вся	-7147
▁аля	-7148
▁нте	-7149
▁озя	-7150
▁онч	-7151
▁пря	-7152
▁ртн	-7153
▁тая	-7154
▁ько	-7155
▁адиц	-7156
▁айер	-7157
▁анер	-7158
▁анси	-7159
▁етит	-7160
▁ната	-7161
▁омик	-7162
▁реде	-7163
▁тниц	-7164
▁чены	-7165
▁резид	-7166
FC	-7167
Но	-7168
ПИ	-7169
чук	-7170
▁ИА	-7171
▁XXI	-7172
▁Ван	-7173
▁нал	-7174
▁оящ	-7175
▁шии	-7176
▁аган	-7177
▁елан	-7178
▁инто	-7179
▁ниям	-7180
▁ВГТРК	-7181
▁мекер	-7182
▁менен	-7183
▁сийск	-7184
▁Go	-7185
▁Wh	-7186
▁lo	-7187
▁кц	-7188
▁105	-7189
▁60%	-7190
▁Год	-7191
▁ПВО	-7192
▁нон	-7193
▁оге	-7194
▁ожк	-7195
▁оян	-7196
▁рги	-7197
▁ржи	-7198
▁рка	-7199
▁рты	-7200
▁Pors	-7201
▁port	-7202
▁анел	-7203
▁вине	-7204
▁еска	-7205
▁колл	-7206
▁огол	-7207
▁стич	-7208
▁тать	-7209
▁йству	-7210
▁шение	-7211
",	-7212
BA	-7213
юр	-7214
its	-7215
лок	-7216
мат	-7217
▁Ad	-7218
▁IN	-7219
▁Ph	-7220
▁110	-7221
▁War	-7222
▁МКС	-7223
▁ажа	-7224
▁енч	-7225
▁ирн	-7226
▁кле	-7227
▁мма	-7228
▁унг	-7229
▁щит	-7230
▁Brex	-7231
▁МКАД	-7232
▁атир	-7233
▁изнь	-7234
▁омму	-7235
▁торж	-7236
▁узык	-7237
▁ивали	-7238
▁ирмен	-7239
ki	-7240
йк	-7241
lus	-7242
▁КП	-7243
▁НС	-7244
▁ыд	-7245
▁Red	-7246
▁Бол	-7247
▁САР	-7248
▁ФСК	-7249
▁ерр	-7250
▁луб	-7251
▁тях	-7252
▁чил	-7253
▁алер	-7254
▁елье	-7255
▁ерик	-7256
▁ириж	-7257
▁ишер	-7258
▁опей	-7259
▁поло	-7260
▁рика	-7261
▁рини	-7262
▁тили	-7263
▁чная	-7264
▁шать	-7265
▁анкци	-7266
▁ровки	-7267
ШЭ	-7268
бек	-7269
лян	-7270
▁Ne	-7271
▁АМ	-7272
▁ПА	-7273
▁ТС	-7274
▁Bla	-7275
▁Nat	-7276
▁ВШЭ	-7277
▁Игр	-7278
▁ече	-7279
▁жин	-7280
▁озд	-7281
▁сма	-7282
▁тич	-7283
▁унн	-7284
▁упо	-7285
▁утб	-7286
▁ФСИН	-7287
▁амал	-7288
▁изда	-7289
▁ории	-7290
▁тная	-7291
▁ухин	-7292
▁зовал	-7293
▁истич	-7294
▁пиона	-7295
▁тимул	-7296
▁узыка	-7297
lob	-7298
бин	-7299
▁79	-7300
▁Jo	-7301
▁90%	-7302
▁Car	-7303
▁org	-7304
▁анш	-7305
▁ату	-7306
▁вре	-7307
▁йде	-7308
▁ожн	-7309
▁озы	-7310
▁окр	-7311
▁рке	-7312
▁сня	-7313
▁яни	-7314
▁Chev	-7315
▁IAAF	-7316
▁ЕАЭС	-7317
▁КТАМ	-7318
▁РИКС	-7319
▁адал	-7320
▁арно	-7321
▁веде	-7322
▁ечта	-7323
▁лайн	-7324
▁обин	-7325
▁ором	-7326
▁пинг	-7327
▁ринц	-7328
▁хмед	-7329
▁еллер	-7330
▁енции	-7331
▁иками	-7332
▁канди	-7333
▁начин	-7334
▁уплен	-7335
▁#	-7336
▁£	-7337
етт	-7338
▁91	-7339
▁il	-7340
▁ua	-7341
▁вщ	-7342
▁1,3	-7343
▁Exp	-7344
▁Ram	-7345
▁WTI	-7346
▁МФО	-7347
▁Пан	-7348
▁гли	-7349
▁пли	-7350
▁ьют	-7351
▁аких	-7352
▁дино	-7353
▁нник	-7354
▁нюдь	-7355
▁ужбы	-7356
▁айкал	-7357
me	-7358
ti	-7359
жу	-7360
фор	-7361
▁2.	-7362
▁RT	-7363
▁МУ	-7364
▁Ты	-7365
▁йз	-7366
▁лф	-7367
▁Fox	-7368
▁Par	-7369
▁Son	-7370
▁аек	-7371
▁ахр	-7372
▁дки	-7373
▁рде	-7374
▁ужб	-7375
▁чки	-7376
▁ажны	-7377
▁ванн	-7378
▁дици	-7379
▁ицио	-7380
▁очек	-7381
▁рные	-7382
▁ичных	-7383
BS	-7384
ca	-7385
чан	-7386
▁GT	-7387
▁Pa	-7388
▁ot	-7389
▁СФ	-7390
▁йо	-7391
▁$50	-7392
▁Kia	-7393
▁NAS	-7394
▁Ант	-7395
▁Ряд	-7396
▁Укр	-7397
▁ейх	-7398
▁опу	-7399
▁рое	-7400
▁скл	-7401
▁язи	-7402
▁Mits	-7403
▁Roll	-7404
▁еден	-7405
▁ехно	-7406
▁одер	-7407
▁омог	-7408
▁перт	-7409
▁приг	-7410
▁шель	-7411
▁ацией	-7412
▁еррор	-7413
▁имост	-7414
▁салон	-7415
▁стной	-7416
ug	-7417
БА	-7418
ВИ	-7419
ГК	-7420
ДО	-7421
ild	-7422
oda	-7423
ord	-7424
xus	-7425
▁3%	-7426
▁IP	-7427
▁es	-7428
▁us	-7429
▁Фе	-7430
▁ЧС	-7431
▁1,7	-7432
▁290	-7433
▁ner	-7434
▁ney	-7435
▁shi	-7436
▁РСА	-7437
▁иет	-7438
▁ищи	-7439
▁мою	-7440
▁оит	-7441
▁ойл	-7442
▁тва	-7443
▁фед	-7444
▁Serv	-7445
▁адач	-7446
▁ерин	-7447
▁жите	-7448
▁овин	-7449
▁скал	-7450
▁ссан	-7451
▁азмер	-7452
▁айден	-7453
▁банко	-7454
▁иллиа	-7455
▁онстр	-7456
▁пиров	-7457
▁сирий	-7458
▁тренн	-7459
ph	-7460
ДА	-7461
Он	-7462
▁@	-7463
eek	-7464
▁94	-7465
▁1,4	-7466
▁Dis	-7467
▁Roy	-7468
▁ari	-7469
▁les	-7470
▁лиф	-7471
▁ору	-7472
▁оха	-7473
▁МСФО	-7474
▁блен	-7475
▁виль	-7476
▁еаль	-7477
▁ейер	-7478
▁етан	-7479
▁истр	-7480
▁мско	-7481
▁наза	-7482
▁рием	-7483
▁тают	-7484
▁учше	-7485
▁Assoc	-7486
▁ателе	-7487
▁ингов	-7488
▁овной	-7489
▁пийск	-7490
▁ссанж	-7491
▁тстве	-7492
qu	-7493
НХ	-7494
чак	-7495
▁VI	-7496
▁ht	-7497
▁ly	-7498
▁вя	-7499
▁вро	-7500
▁зра	-7501
▁итн	-7502
▁итт	-7503
▁ищу	-7504
▁рещ	-7505
▁урк	-7506
▁уще	-7507
▁шат	-7508
▁егит	-7509
▁екан	-7510
▁зных	-7511
▁лезн	-7512
▁прош	-7513
▁тата	-7514
▁коман	-7515
ГА	-7516
РА	-7517
ats	-7518
ull	-7519
сон	-7520
▁Di	-7521
▁Ho	-7522
▁pe	-7523
▁РК	-7524
▁аа	-7525
▁1,8	-7526
▁ЕЦБ	-7527
▁МАК	-7528
▁авы	-7529
▁ахт	-7530
▁лых	-7531
▁ожа	-7532
▁окс	-7533
▁ржа	-7534
▁шал	-7535
▁FIFA	-7536
▁Wash	-7537
▁ГТРК	-7538
▁Сред	-7539
▁анды	-7540
▁безо	-7541
▁водя	-7542
▁двар	-7543
▁жать	-7544
▁икел	-7545
▁лить	-7546
▁мерз	-7547
▁онах	-7548
▁рать	-7549
▁тира	-7550
▁айкер	-7551
БО	-7552
МО	-7553
рон	-7554
▁7%	-7555
▁93	-7556
▁El	-7557
▁Зю	-7558
▁КБ	-7559
▁МР	-7560
▁СЕ	-7561
▁159	-7562
▁170	-7563
▁Дню	-7564
▁РЕН	-7565
▁аяк	-7566
▁док	-7567
▁зир	-7568
▁скв	-7569
▁уни	-7570
▁Glob	-7571
▁елек	-7572
▁есел	-7573
▁зник	-7574
▁личк	-7575
▁ници	-7576
▁пирт	-7577
▁риан	-7578
▁рока	-7579
▁стым	-7580
▁Super	-7581
▁винин	-7582
▁владе	-7583
▁еской	-7584
▁оспод	-7585
TV	-7586
зе	-7587
мар	-7588
▁81	-7589
▁НА	-7590
▁Хр	-7591
утер	-7592
▁6,5	-7593
▁Her	-7594
▁Pay	-7595
▁КГБ	-7596
▁аре	-7597
▁гов	-7598
▁дли	-7599
▁идж	-7600
▁удк	-7601
▁ъед	-7602
▁Note	-7603
▁амск	-7604
▁икар	-7605
▁иман	-7606
▁ифер	-7607
▁койл	-7608
▁ласс	-7609
▁нент	-7610
▁рном	-7611
▁спол	-7612
▁тмен	-7613
▁тнош	-7614
▁авляе	-7615
▁енгер	-7616
▁щение	-7617
av	-7618
ka	-7619
ГС	-7620
ща	-7621
ina	-7622
▁1.	-7623
▁bo	-7624
▁oo	-7625
▁ИК	-7626
▁уф	-7627
▁450	-7628
▁5,5	-7629
▁Лев	-7630
▁Мой	-7631
▁ОКР	-7632
▁ейл	-7633
▁етв	-7634
▁зят	-7635
▁иле	-7636
▁ксе	-7637
▁омс	-7638
▁усс	-7639
▁tors	-7640
▁Влад	-7641
▁авин	-7642
▁азви	-7643
▁вере	-7644
▁дало	-7645
▁ероп	-7646
▁жных	-7647
▁ичто	-7648
▁летк	-7649
▁грани	-7650
▁ионер	-7651
iz	-7652
are	-7653
ьян	-7654
▁83	-7655
▁98	-7656
▁ti	-7657
▁вр	-7658
▁эд	-7659
▁1/8	-7660
▁Cre	-7661
▁Дом	-7662
▁аук	-7663
▁ахо	-7664
▁вей	-7665
▁виц	-7666
▁еде	-7667
▁ейд	-7668
▁ляп	-7669
▁мпи	-7670
▁нел	-7671
▁озн	-7672
▁рре	-7673
▁тыв	-7674
▁Land	-7675
▁ВДНХ	-7676
▁ВЭБа	-7677
▁ОРВИ	-7678
▁арин	-7679
▁быва	-7680
▁воли	-7681
▁лтай	-7682
▁нахо	-7683
▁ноше	-7684
▁сион	-7685
▁твую	-7686
▁вании	-7687
▁венир	-7688
▁оскол	-7689
20	-7690
IT	-7691
PS	-7692
td	-7693
ТК	-7694
ЭП	-7695
▁Ы	-7696
▁Lu	-7697
▁БМ	-7698
▁ВЕ	-7699
▁пц	-7700
▁хт	-7701
▁INT	-7702
▁Pet	-7703
▁ubi	-7704
▁АИШ	-7705
▁Вик	-7706
▁ГЭС	-7707
▁аво	-7708
▁азм	-7709
▁лят	-7710
▁ужн	-7711
▁хам	-7712
▁хин	-7713
▁XVII	-7714
▁bler	-7715
▁азве	-7716
▁валк	-7717
▁заве	-7718
▁зада	-7719
▁икат	-7720
▁ксус	-7721
▁мощи	-7722
▁ницк	-7723
▁нтам	-7724
▁плыв	-7725
▁робн	-7726
▁тари	-7727
▁Skoda	-7728
▁анжев	-7729
▁ержал	-7730
▁польз	-7731
▁рудов	-7732
▁тируе	-7733
▁шинев	-7734
TA	-7735
tp	-7736
ond	-7737
▁gy	-7738
▁дм	-7739
▁$40	-7740
▁mic	-7741
▁ММА	-7742
▁егк	-7743
▁нян	-7744
▁теш	-7745
▁Inde	-7746
▁Poke	-7747
▁bank	-7748
▁Андр	-7749
▁ОДКБ	-7750
▁акал	-7751
▁ерес	-7752
▁етве	-7753
▁звол	-7754
▁иско	-7755
▁лавн	-7756
▁нвес	-7757
▁нест	-7758
▁олаг	-7759
▁убли	-7760
▁капит	-7761
▁полня	-7762
IA	-7763
FAX	-7764
ОВА	-7765
▁RE	-7766
▁co	-7767
▁СВ	-7768
▁Ltd	-7769
▁Mus	-7770
▁Sol	-7771
▁lla	-7772
▁ЮАР	-7773
▁бои	-7774
▁едв	-7775
▁ирь	-7776
▁йон	-7777
▁рти	-7778
▁узн	-7779
▁уко	-7780
▁усь	-7781
▁хра	-7782
▁Hold	-7783
▁ержи	-7784
▁ерсо	-7785
▁зинь	-7786
▁изер	-7787
▁лент	-7788
▁ниях	-7789
▁роек	-7790
▁тами	-7791
▁чейк	-7792
▁чном	-7793
▁ERFAX	-7794
▁ариат	-7795
▁корин	-7796
▁лексе	-7797
▁ратит	-7798
▁сложн	-7799
".	-7800
to	-7801
эк	-7802
err	-7803
one	-7804
вен	-7805
рик	-7806
▁Mi	-7807
▁SA	-7808
▁ba	-7809
▁Хи	-7810
▁Fly	-7811
▁Net	-7812
▁КПП	-7813
▁коб	-7814
▁лук	-7815
▁оти	-7816
▁оуи	-7817
▁пой	-7818
▁Mark	-7819
▁Open	-7820
▁Tran	-7821
▁ment	-7822
▁амил	-7823
▁бота	-7824
▁казы	-7825
▁ффан	-7826
▁ыход	-7827
▁вижен	-7828
▁ектив	-7829
▁елями	-7830
▁енген	-7831
▁порти	-7832
▁равит	-7833
:3	-7834
EA	-7835
mi	-7836
ЖК	-7837
imi	-7838
int	-7839
ons	-7840
АДА	-7841
ФСР	-7842
бар	-7843
▁6-	-7844
▁Fr	-7845
▁Ge	-7846
▁sp	-7847
▁we	-7848
▁Ей	-7849
▁ХХ	-7850
▁All	-7851
▁han	-7852
▁УСА	-7853
▁веш	-7854
▁дым	-7855
▁епе	-7856
▁ови	-7857
▁одж	-7858
▁оук	-7859
▁рла	-7860
▁уиз	-7861
▁фре	-7862
▁шот	-7863
▁энд	-7864
▁Amer	-7865
▁Nord	-7866
▁Sony	-7867
▁Star	-7868
▁Крас	-7869
▁НДФЛ	-7870
▁анха	-7871
▁зовы	-7872
▁итом	-7873
▁обод	-7874
▁огиб	-7875
▁одче	-7876
▁Lexus	-7877
▁Trans	-7878
▁graph	-7879
▁антин	-7880
▁арите	-7881
▁качес	-7882
▁нными	-7883
▁одных	-7884
▁попул	-7885
▁ренер	-7886
▁седат	-7887
▁стные	-7888
Вы	-7889
ЦП	-7890
пы	-7891
эм	-7892
яр	-7893
▁x	-7894
РОТ	-7895
▁2%	-7896
▁sa	-7897
▁ОС	-7898
▁РА	-7899
▁75%	-7900
▁nik	-7901
▁tch	-7902
▁Абу	-7903
▁вай	-7904
▁иод	-7905
▁луг	-7906
▁овр	-7907
▁оот	-7908
▁ятк	-7909
▁Tech	-7910
▁http	-7911
▁возд	-7912
▁едро	-7913
▁ерен	-7914
▁ишин	-7915
▁мокр	-7916
▁огин	-7917
▁ольк	-7918
▁онни	-7919
▁онья	-7920
▁рядк	-7921
▁тенк	-7922
▁Black	-7923
▁УСАДА	-7924
▁армон	-7925
▁бахче	-7926
▁ентар	-7927
▁инопт	-7928
ne	-7929
ФЛА	-7930
▁$6	-7931
▁Mc	-7932
▁Qu	-7933
▁Ur	-7934
▁Ze	-7935
▁рф	-7936
cien	-7937
▁Bar	-7938
▁Ind	-7939
▁ica	-7940
▁sta	-7941
▁ТЭС	-7942
▁арю	-7943
▁ауз	-7944
▁лют	-7945
▁опл	-7946
▁осл	-7947
▁уин	-7948
▁улк	-7949
▁умб	-7950
▁чья	-7951
▁ьва	-7952
▁Week	-7953
▁ВФЛА	-7954
▁МРОТ	-7955
▁ведя	-7956
▁ержа	-7957
▁ефть	-7958
▁корм	-7959
▁лман	-7960
▁онок	-7961
▁охин	-7962
▁реля	-7963
▁рети	-7964
▁China	-7965
▁РСФСР	-7966
▁гласн	-7967
▁логии	-7968
▁чении	-7969
fi	-7970
up	-7971
НИ	-7972
оп	-7973
▁̆	-7974
ore	-7975
▁(3	-7976
▁AM	-7977
▁Me	-7978
▁Sm	-7979
▁be	-7980
▁Ви	-7981
▁КВ	-7982
▁1,1	-7983
▁Res	-7984
▁cat	-7985
▁АСС	-7986
▁Тра	-7987
▁аин	-7988
▁анч	-7989
▁маз	-7990
▁мут	-7991
▁олч	-7992
▁орп	-7993
▁рга	-7994
▁рси	-7995
▁тез	-7996
▁ффе	-7997
▁ыры	-7998
▁ВАДА	-7999
▁ФСКН	-8000
▁айор	-8001
▁виду	-8002
▁давш	-8003
▁одск	-8004
▁опат	-8005
▁отин	-8006
▁подн	-8007
▁ража	-8008
▁разм	-8009
▁варен	-8010
▁ержат	-8011
▁менее	-8012
▁предс	-8013
▁трате	-8014
▁уация	-8015
▁6%	-8016
▁We	-8017
▁ul	-8018
▁УВ	-8019
▁йф	-8020
▁220	-8021
▁7,5	-8022
▁Gen	-8023
▁Mat	-8024
▁She	-8025
▁way	-8026
▁Нас	-8027
▁Сын	-8028
▁Яна	-8029
▁айя	-8030
▁аус	-8031
▁ейз	-8032
▁зри	-8033
▁ипт	-8034
▁лии	-8035
▁одд	-8036
▁озр	-8037
▁тую	-8038
▁щил	-8039
▁Bent	-8040
▁ness	-8041
▁АИЖК	-8042
▁ават	-8043
▁амАЗ	-8044
▁ейдж	-8045
▁йзен	-8046
▁ложк	-8047
▁нкер	-8048
▁ороп	-8049
▁тени	-8050
▁авить	-8051
▁ерево	-8052
▁ирова	-8053
▁ургут	-8054
▁шения	-8055
do	-8056
ЦК	-8057
olo	-8058
зин	-8059
▁3.	-8060
▁me	-8061
▁АП	-8062
▁ПМ	-8063
▁Це	-8064
▁ЭК	-8065
▁125	-8066
▁2,7	-8067
▁Rov	-8068
▁ТОР	-8069
▁дна	-8070
▁ейр	-8071
▁зме	-8072
▁унь	-8073
▁яже	-8074
▁Comp	-8075
▁евик	-8076
▁ефан	-8077
▁имон	-8078
▁инос	-8079
▁ирую	-8080
▁либр	-8081
▁нома	-8082
▁овит	-8083
▁пасн	-8084
▁рецк	-8085
▁сква	-8086
▁тавл	-8087
▁трад	-8088
▁ьная	-8089
▁айзер	-8090
▁остал	-8091
▁оттен	-8092
▁ристи	-8093
▁родов	-8094
уш	-8095
als	-8096
бер	-8097
▁Sc	-8098
▁ss	-8099
▁йр	-8100
▁0,5	-8101
▁12%	-8102
▁per	-8103
▁ВДВ	-8104
▁МОС	-8105
▁МСП	-8106
▁аяв	-8107
▁мье	-8108
▁рер	-8109
▁ссо	-8110
▁туп	-8111
▁шую	-8112
▁щиц	-8113
▁ютн	-8114
▁Mart	-8115
▁Morg	-8116
▁NASA	-8117
▁айон	-8118
▁амин	-8119
▁ботн	-8120
▁густ	-8121
▁егап	-8122
▁ехим	-8123
▁ешск	-8124
▁женн	-8125
▁олан	-8126
▁оскв	-8127
▁отуш	-8128
▁танк	-8129
▁тказ	-8130
▁хаос	-8131
▁андер	-8132
▁еским	-8133
▁нтерф	-8134
▁орода	-8135
▁оутер	-8136
▁ровой	-8137
▁уберн	-8138
.)	-8139
уз	-8140
хт	-8141
фан	-8142
▁(5	-8143
▁7-	-8144
▁Gl	-8145
▁Tr	-8146
▁VR	-8147
▁im	-8148
▁nt	-8149
▁vi	-8150
▁ДП	-8151
▁МИ	-8152
oody	-8153
▁2,2	-8154
▁Sky	-8155
▁Вал	-8156
▁КТЫ	-8157
▁НПЗ	-8158
▁Чен	-8159
▁абы	-8160
▁аве	-8161
▁вщи	-8162
▁ейф	-8163
▁ису	-8164
▁лга	-8165
▁пои	-8166
▁рир	-8167
▁сло	-8168
▁спр	-8169
▁Limi	-8170
▁НОВА	-8171
▁ауэр	-8172
▁ачин	-8173
▁занн	-8174
▁квар	-8175
▁лежа	-8176
▁нули	-8177
▁олни	-8178
▁опил	-8179
▁роко	-8180
▁рчес	-8181
▁Volvo	-8182
▁аттер	-8183
▁вагон	-8184
▁вного	-8185
▁ержан	-8186
▁етерб	-8187
▁жении	-8188
▁итрин	-8189
▁ламен	-8190
▁приня	-8191
▁тител	-8192
..	-8193
IS	-8194
рн	-8195
хе	-8196
ыш	-8197
хов	-8198
▁89	-8199
▁by	-8200
▁fi	-8201
▁ГР	-8202
▁КИ	-8203
▁СР	-8204
▁ьг	-8205
▁ini	-8206
▁Бен	-8207
▁Вас	-8208
▁Тед	-8209
▁ибу	-8210
▁кел	-8211
▁льк	-8212
▁моч	-8213
▁нси	-8214
▁ове	-8215
▁опр	-8216
▁тча	-8217
▁ьед	-8218
▁Fran	-8219
▁Inve	-8220
▁Sach	-8221
▁ПАРК	-8222
▁алек	-8223
▁даль	-8224
▁етев	-8225
▁зинф	-8226
▁крик	-8227
▁линк	-8228
▁лмык	-8229
▁моле	-8230
▁оген	-8231
▁огов	-8232
▁орос	-8233
▁ришл	-8234
▁ссов	-8235
▁узыр	-8236
▁уман	-8237
▁Moody	-8238
▁ссион	-8239
▁учили	-8240
BO	-8241
MS	-8242
od	-8243
ФУ	-8244
ЭЦ	-8245
эй	-8246
▁87	-8247
▁Or	-8248
▁ow	-8249
▁МП	-8250
▁ФГ	-8251
▁бб	-8252
▁цо	-8253
▁€1	-8254
azda	-8255
▁$10	-8256
▁14%	-8257
▁190	-8258
▁2,6	-8259
▁Bus	-8260
▁Cro	-8261
▁ack	-8262
▁gem	-8263
▁ron	-8264
▁МЭР	-8265
▁НПО	-8266
▁ШОС	-8267
▁еба	-8268
▁ешн	-8269
▁жес	-8270
▁иху	-8271
▁кве	-8272
▁сне	-8273
▁фар	-8274
▁хит	-8275
▁ыто	-8276
▁Ferr	-8277
▁Plus	-8278
▁УФСБ	-8279
▁арва	-8280
▁арны	-8281
▁вент	-8282
▁ежим	-8283
▁езон	-8284
▁емно	-8285
▁енна	-8286
▁етар	-8287
▁роят	-8288
▁скад	-8289
▁ссию	-8290
▁тков	-8291
▁Mazda	-8292
▁Media	-8293
▁Sachs	-8294
▁айдар	-8295
▁алкон	-8296
▁нимае	-8297
▁опуля	-8298
▁оторо	-8299
▁оцент	-8300
▁посто	-8301
▁украи	-8302
ll	-8303
ейл	-8304
ине	-8305
▁EB	-8306
▁SE	-8307
▁Ta	-8308
▁Ав	-8309
▁ГА	-8310
▁РО	-8311
▁ТЦ	-8312
▁11%	-8313
▁280	-8314
▁Bro	-8315
▁Vis	-8316
▁Wat	-8317
▁eca	-8318
▁АПК	-8319
▁Бог	-8320
▁ОМС	-8321
▁ФМС	-8322
▁авк	-8323
▁евы	-8324
▁ект	-8325
▁зго	-8326
▁итм	-8327
▁люк	-8328
▁озе	-8329
▁рох	-8330
▁Sput	-8331
▁аемо	-8332
▁алли	-8333
▁анат	-8334
▁вант	-8335
▁енил	-8336
▁ериф	-8337
▁ждан	-8338
▁новы	-8339
▁овно	-8340
▁омир	-8341
▁омой	-8342
▁онце	-8343
▁оран	-8344
▁орьб	-8345
▁офер	-8346
▁ошек	-8347
▁посл	-8348
▁рета	-8349
▁удущ	-8350
▁умов	-8351
▁дител	-8352
▁одный	-8353
▁ологи	-8354
▁раине	-8355
),	-8356
).	-8357
зо	-8358
▁=	-8359
ЛОН	-8360
жин	-8361
онд	-8362
▁8%	-8363
▁96	-8364
▁Ac	-8365
▁At	-8366
▁FA	-8367
▁om	-8368
▁sk	-8369
▁АВ	-8370
▁ОФ	-8371
▁ФО	-8372
▁Хе	-8373
▁шм	-8374
▁Ele	-8375
▁ICE	-8376
▁wer	-8377
▁БТР	-8378
▁ВОЗ	-8379
▁Имя	-8380
▁аче	-8381
▁инц	-8382
▁кис	-8383
▁мок	-8384
▁оун	-8385
▁ыбо	-8386
▁ьки	-8387
▁ьяк	-8388
▁Char	-8389
▁ВЕДО	-8390
▁альс	-8391
▁вооб	-8392
▁деля	-8393
▁егов	-8394
▁епар	-8395
▁еско	-8396
▁имер	-8397
▁ингв	-8398
▁иник	-8399
▁каин	-8400
▁круч	-8401
▁ледо	-8402
▁лови	-8403
▁омар	-8404
▁пасс	-8405
▁рков	-8406
▁сход	-8407
▁чтоб	-8408
▁ьяху	-8409
▁Indep	-8410
▁Petro	-8411
▁Scien	-8412
▁Urals	-8413
▁МОСТИ	-8414
▁айдер	-8415
▁айкон	-8416
▁казат	-8417
▁улиан	-8418
Вт	-8419
ТУ	-8420
ды	-8421
ром	-8422
▁CO	-8423
▁PR	-8424
▁RA	-8425
▁Ri	-8426
▁ay	-8427
▁bi	-8428
▁ri	-8429
▁яй	-8430
ound	-8431
▁...	-8432
▁1-2	-8433
▁230	-8434
▁270	-8435
▁3-4	-8436
▁Chr	-8437
▁Del	-8438
▁Hon	-8439
▁Tri	-8440
▁УАЗ	-8441
▁аби	-8442
▁апо	-8443
▁едр	-8444
▁еул	-8445
▁имк	-8446
▁кну	-8447
▁мыт	-8448
▁пак	-8449
▁уби	-8450
▁хни	-8451
▁шни	-8452
▁Amaz	-8453
▁ures	-8454
▁ГЛОН	-8455
▁алис	-8456
▁амон	-8457
▁анша	-8458
▁браз	-8459
▁евет	-8460
▁елит	-8461
▁енка	-8462
▁етти	-8463
▁ещер	-8464
▁ионе	-8465
▁кали	-8466
▁кола	-8467
▁рете	-8468
▁сова	-8469
▁убин	-8470
▁ышев	-8471
▁овник	-8472
▁олочк	-8473
▁ольно	-8474
▁улярн	-8475
No	-8476
ip	-8477
ДС	-8478
ЛС	-8479
лы	-8480
ant	-8481
oun	-8482
uge	-8483
ГБТ	-8484
шер	-8485
▁Cr	-8486
▁Em	-8487
▁la	-8488
▁my	-8489
▁НГ	-8490
▁Ян	-8491
▁жо	-8492
▁18%	-8493
▁2,3	-8494
▁240	-8495
▁3,8	-8496
▁GPS	-8497
▁Wel	-8498
▁sty	-8499
▁Мэй	-8500
▁ОПК	-8501
▁атт	-8502
▁аут	-8503
▁гии	-8504
▁дай	-8505
▁зли	-8506
▁квы	-8507
▁мех	-8508
▁мис	-8509
▁ноб	-8510
▁рие	-8511
▁тке	-8512
▁тье	-8513
▁чье	-8514
▁Mars	-8515
▁arch	-8516
▁ЛГБТ	-8517
▁анно	-8518
▁воль	-8519
▁ирен	-8520
▁кмен	-8521
▁коме	-8522
▁мерл	-8523
▁митр	-8524
▁ните	-8525
▁рная	-8526
▁скус	-8527
▁сово	-8528
▁айвер	-8529
▁дении	-8530
▁ебаст	-8531
▁имать	-8532
▁мость	-8533
▁рение	-8534
ВК	-8535
day	-8536
ree	-8537
етк	-8538
▁$7	-8539
▁(4	-8540
▁97	-8541
▁Ed	-8542
▁Ha	-8543
▁Hu	-8544
▁ЗС	-8545
▁СО	-8546
▁СС	-8547
▁2,4	-8548
▁Eco	-8549
▁tic	-8550
▁ГБУ	-8551
▁КТО	-8552
▁МФЦ	-8553
▁вый	-8554
▁нын	-8555
▁овл	-8556
▁оед	-8557
▁орр	-8558
▁риа	-8559
▁роц	-8560
▁удн	-8561
▁упк	-8562
▁уты	-8563
▁ушн	-8564
▁Bild	-8565
▁Blue	-8566
▁Corp	-8567
▁Moss	-8568
▁Wind	-8569
▁УФАС	-8570
▁атур	-8571
▁горч	-8572
▁икол	-8573
▁инер	-8574
▁мист	-8575
▁обла	-8576
▁рамп	-8577
▁риво	-8578
▁рчук	-8579
▁спер	-8580
▁теро	-8581
▁удан	-8582
▁урат	-8583
▁венно	-8584
▁ейзаж	-8585
▁ихуан	-8586
▁листа	-8587
▁ммент	-8588
▁олуча	-8589
▁терян	-8590
▁урбан	-8591
АФ	-8592
ЕР	-8593
аш	-8594
зы	-8595
йл	-8596
▁`	-8597
мон	-8598
▁"1	-8599
▁4.	-8600
▁NE	-8601
▁gr	-8602
▁he	-8603
▁ГД	-8604
▁НЛ	-8605
▁бв	-8606
▁дэ	-8607
▁юг	-8608
▁111	-8609
▁5%.	-8610
▁ter	-8611
▁uar	-8612
▁АЗС	-8613
▁ГУП	-8614
▁Моя	-8615
▁Обе	-8616
▁СРО	-8617
▁Том	-8618
▁ФСО	-8619
▁едп	-8620
▁зас	-8621
▁нда	-8622
▁Cont	-8623
▁Cred	-8624
▁Fons	-8625
▁Link	-8626
▁Mana	-8627
▁авай	-8628
▁амет	-8629
▁анон	-8630
▁дана	-8631
▁екер	-8632
▁етни	-8633
▁запа	-8634
▁инст	-8635
▁иоск	-8636
▁ипул	-8637
▁мера	-8638
▁оган	-8639
▁омич	-8640
▁опла	-8641
▁ртын	-8642
▁тейш	-8643
▁тлич	-8644
▁яние	-8645
▁Honda	-8646
▁Peuge	-8647
▁Shell	-8648
▁Whats	-8649
▁амвай	-8650
▁апрет	-8651
▁арник	-8652
▁ерант	-8653
▁еском	-8654
▁ктейл	-8655
▁матич	-8656
▁страц	-8657
PA	-8658
ac	-8659
ah	-8660
ps	-8661
НТ	-8662
ФК	-8663
ini	-8664
ris	-8665
АИС	-8666
лор	-8667
яза	-8668
▁AR	-8669
▁As	-8670
▁ES	-8671
▁GL	-8672
▁IK	-8673
▁as	-8674
▁ct	-8675
▁ng	-8676
▁КР	-8677
▁Св	-8678
▁Цю	-8679
▁мч	-8680
▁1,9	-8681
▁Cam	-8682
▁Int	-8683
▁Mod	-8684
▁nes	-8685
▁nta	-8686
▁pro	-8687
▁tte	-8688
▁МПК	-8689
▁МЦК	-8690
▁ПСЖ	-8691
▁Пак	-8692
▁РПК	-8693
▁ану	-8694
▁вуз	-8695
▁зом	-8696
▁идо	-8697
▁иша	-8698
▁поэ	-8699
▁рст	-8700
▁Rese	-8701
▁play	-8702
▁Нико	-8703
▁аком	-8704
▁деть	-8705
▁ейха	-8706
▁ещин	-8707
▁ивае	-8708
▁кучн	-8709
▁окру	-8710
▁сотр	-8711
▁ссия	-8712
▁стри	-8713
▁Today	-8714
▁ЕГАИС	-8715
▁анель	-8716
▁ейган	-8717
▁ейман	-8718
▁крыва	-8719
▁мират	-8720
▁нении	-8721
▁овски	-8722
▁средн	-8723
:4	-8724
йт	-8725
ях	-8726
ero	-8727
вел	-8728
джи	-8729
▁(6	-8730
▁BP	-8731
▁GM	-8732
▁MS	-8733
▁Вс	-8734
▁10,	-8735
▁360	-8736
▁750	-8737
▁Nik	-8738
▁UFC	-8739
▁ble	-8740
▁der	-8741
▁gov	-8742
▁lic	-8743
▁БМП	-8744
▁КВН	-8745
▁Мун	-8746
▁Пок	-8747
▁СПб	-8748
▁адж	-8749
▁бик	-8750
▁дим	-8751
▁ехт	-8752
▁зиа	-8753
▁иам	-8754
▁иел	-8755
▁ирс	-8756
▁мев	-8757
▁ожь	-8758
▁реи	-8759
▁сех	-8760
▁тощ	-8761
▁убк	-8762
▁уэн	-8763
▁Chan	-8764
▁Ener	-8765
▁Fiat	-8766
▁IKEA	-8767
▁агад	-8768
▁алуб	-8769
▁анал	-8770
▁атыш	-8771
▁бращ	-8772
▁вищу	-8773
▁ебно	-8774
▁зрен	-8775
▁итаю	-8776
▁краш	-8777
▁ленд	-8778
▁меял	-8779
▁оезд	-8780
▁окож	-8781
▁окси	-8782
▁окур	-8783
▁олыж	-8784
▁рдаш	-8785
▁сент	-8786
▁слан	-8787
▁уран	-8788
▁хмат	-8789
▁штон	-8790
▁вейер	-8791
▁ешкин	-8792
▁инейн	-8793
▁нских	-8794
▁черкн	-8795
NA	-8796
ith	-8797
ome	-8798
ong	-8799
АНО	-8800
зон	-8801
▁2"	-8802
▁Hi	-8803
▁Sn	-8804
▁ni	-8805
▁ol	-8806
▁ИС	-8807
▁Нм	-8808
▁рр	-8809
▁115	-8810
▁16%	-8811
▁Jag	-8812
▁Kar	-8813
▁VII	-8814
▁ics	-8815
▁lop	-8816
▁sco	-8817
▁Всю	-8818
▁МВт	-8819
▁ФНЛ	-8820
▁анж	-8821
▁деб	-8822
▁еиз	-8823
▁ейг	-8824
▁згл	-8825
▁миг	-8826
▁нью	-8827
▁ску	-8828
▁хэм	-8829
▁юль	-8830
▁юще	-8831
▁Busi	-8832
▁Cent	-8833
▁EBIT	-8834
▁Time	-8835
▁ажир	-8836
▁анун	-8837
▁воем	-8838
▁дымл	-8839
▁инат	-8840
▁иним	-8841
▁ицце	-8842
▁мбер	-8843
▁огат	-8844
▁омос	-8845
▁ораб	-8846
▁осик	-8847
▁пола	-8848
▁тана	-8849
▁чало	-8850
▁эроп	-8851
▁Elect	-8852
▁Enter	-8853
▁ечени	-8854
▁жижен	-8855
▁ормил	-8856
▁ранит	-8857
▁роват	-8858
▁рушен	-8859
▁ьявол	-8860
TC	-8861
Ка	-8862
фт	-8863
эл	-8864
ang	-8865
ars	-8866
ype	-8867
топ	-8868
▁Ag	-8869
▁GO	-8870
▁Si	-8871
▁Vo	-8872
▁si	-8873
▁ОГ	-8874
▁СЭ	-8875
▁бь	-8876
▁22%	-8877
▁238	-8878
▁3,7	-8879
▁5-6	-8880
▁8,5	-8881
▁Ali	-8882
▁Ast	-8883
▁lin	-8884
▁ore	-8885
▁stm	-8886
▁tar	-8887
▁tel	-8888
▁Кын	-8889
▁ОФЗ	-8890
▁ОЭС	-8891
▁ПКР	-8892
▁вом	-8893
▁дож	-8894
▁иПК	-8895
▁илк	-8896
▁ичи	-8897
▁лжи	-8898
▁рян	-8899
▁хма	-8900
▁Cons	-8901
▁Live	-8902
▁vers	-8903
▁авит	-8904
▁авно	-8905
▁айлд	-8906
▁атан	-8907
▁воля	-8908
▁втун	-8909
▁енин	-8910
▁игов	-8911
▁крут	-8912
▁лема	-8913
▁мощь	-8914
▁напо	-8915
▁одан	-8916
▁одах	-8917
▁осье	-8918
▁ргин	-8919
▁рмен	-8920
▁урил	-8921
▁ухан	-8922
▁ченк	-8923
▁Solar	-8924
▁ампер	-8925
▁аннер	-8926
▁анско	-8927
▁астин	-8928
▁аудер	-8929
▁еркут	-8930
▁етний	-8931
▁зиаст	-8932
▁иксут	-8933
▁льман	-8934
▁рбент	-8935
▁ющего	-8936
ЕС	-8937
ПУ	-8938
юш	-8939
ант	-8940
▁9%	-8941
▁DS	-8942
▁Fe	-8943
▁HD	-8944
▁id	-8945
▁НО	-8946
▁РД	-8947
▁СД	-8948
ouse	-8949
▁17%	-8950
▁225	-8951
▁3,6	-8952
▁Ber	-8953
▁Dri	-8954
▁RNS	-8955
▁ain	-8956
▁iOS	-8957
▁sse	-8958
▁sti	-8959
▁Ког	-8960
▁НАС	-8961
▁НИУ	-8962
▁ОВД	-8963
▁РАО	-8964
▁ТЭЦ	-8965
▁УВЗ	-8966
▁амя	-8967
▁бою	-8968
▁дах	-8969
▁идн	-8970
▁кай	-8971
▁рюк	-8972
▁Zeit	-8973
▁ОЭСР	-8974
▁азет	-8975
▁акси	-8976
▁алым	-8977
▁анан	-8978
▁афор	-8979
▁бите	-8980
▁бова	-8981
▁вный	-8982
▁деят	-8983
▁евно	-8984
▁ециа	-8985
▁зино	-8986
▁иток	-8987
▁ишен	-8988
▁ндер	-8989
▁орил	-8990
▁оули	-8991
▁скре	-8992
▁стиг	-8993
▁стям	-8994
▁удут	-8995
▁урен	-8996
▁чили	-8997
▁ысяч	-8998
▁Gener	-8999
▁Model	-9000
▁Music	-9001
▁Stand	-9002
▁аргин	-9003
▁арлам	-9004
▁аузер	-9005
▁валер	-9006
▁жинир	-9007
▁икенд	-9008
▁одско	-9009
▁ордон	-9010
▁сател	-9011
kh	-9012
ux	-9013
пе	-9014
ьк	-9015
alt	-9016
▁+1	-9017
▁8-	-9018
▁Ba	-9019
▁CR	-9020
▁di	-9021
▁ie	-9022
▁um	-9023
▁2:1	-9024
▁Exx	-9025
▁IBU	-9026
▁Inc	-9027
▁WBA	-9028
▁lix	-9029
▁off	-9030
▁ows	-9031
▁pri	-9032
▁ral	-9033
▁ВТО	-9034
▁ГПУ	-9035
▁анз	-9036
▁дию	-9037
▁дка	-9038
▁ебл	-9039
▁идд	-9040
▁иды	-9041
▁йва	-9042
▁кВт	-9043
▁код	-9044
▁лма	-9045
▁лью	-9046
▁нез	-9047
▁оид	-9048
▁пно	-9049
▁ппи	-9050
▁пящ	-9051
▁рви	-9052
▁тку	-9053
▁ьем	-9054
▁эйл	-9055
▁Amne	-9056
▁Comm	-9057
▁Netf	-9058
▁ents	-9059
▁акти	-9060
▁акто	-9061
▁анец	-9062
▁анит	-9063
▁анны	-9064
▁апин	-9065
▁арес	-9066
▁аска	-9067
▁беди	-9068
▁ванс	-9069
▁елоч	-9070
▁лика	-9071
▁линг	-9072
▁льта	-9073
▁моро	-9074
▁омни	-9075
▁очвы	-9076
▁рени	-9077
▁роны	-9078
▁свид	-9079
▁урис	-9080
▁хмад	-9081
▁Grand	-9082
▁ангел	-9083
▁аскир	-9084
▁брати	-9085
▁велоп	-9086
▁ейлор	-9087
▁енчур	-9088
▁ерлин	-9089
▁ипенд	-9090
▁мости	-9091
▁номич	-9092
▁ольер	-9093
▁рения	-9094
▁устер	-9095
ОР	-9096
От	-9097
ХА	-9098
alc	-9099
ate	-9100
ССП	-9101
вет	-9102
лет	-9103
нач	-9104
хуа	-9105
▁".	-9106
▁$8	-9107
▁AT	-9108
▁CE	-9109
▁Pi	-9110
▁do	-9111
▁ph	-9112
▁ДК	-9113
▁ПК	-9114
▁ТК	-9115
▁сц	-9116
▁1%.	-9117
▁175	-9118
▁3,2	-9119
▁340	-9120
▁650	-9121
▁Pal	-9122
▁Per	-9123
▁Pre	-9124
▁WTA	-9125
▁all	-9126
▁uri	-9127
▁ТСЖ	-9128
▁айф	-9129
▁арф	-9130
▁аща	-9131
▁дже	-9132
▁еем	-9133
▁иГС	-9134
▁ойт	-9135
▁окт	-9136
▁омы	-9137
▁тае	-9138
▁укс	-9139
▁фти	-9140
▁хта	-9141
▁Falc	-9142
▁borg	-9143
▁roen	-9144
▁Инте	-9145
▁РАНХ	-9146
▁ФАНО	-9147
▁алик	-9148
▁анде	-9149
▁брас	-9150
▁бъяв	-9151
▁егет	-9152
▁енни	-9153
▁злов	-9154
▁игер	-9155
▁имир	-9156
▁итва	-9157
▁йдар	-9158
▁ладе	-9159
▁нгар	-9160
▁неде	-9161
▁нили	-9162
▁овыш	-9163
▁ожни	-9164
▁омов	-9165
▁онфе	-9166
▁пото	-9167
▁рами	-9168
▁слен	-9169
▁турн	-9170
▁усло	-9171
▁ухон	-9172
▁ъявл	-9173
▁яжел	-9174
▁Class	-9175
▁Rolls	-9176
▁Royce	-9177
▁Stone	-9178
▁Watch	-9179
▁абота	-9180
▁азнач	-9181
▁антел	-9182
▁вател	-9183
▁виней	-9184
▁дилер	-9185
▁енить	-9186
▁естер	-9187
▁махер	-9188
▁оркут	-9189
▁перег	-9190
▁руков	-9191
▁шельк	-9192
IM	-9193
ly	-9194
ЭФ	-9195
пк	-9196
ide	-9197
ili	-9198
ute	-9199
ОСТ	-9200
лом	-9201
льц	-9202
цер	-9203
чик	-9204
шев	-9205
шир	-9206
▁Ja	-9207
▁MA	-9208
▁MH	-9209
▁NY	-9210
▁eb	-9211
▁gn	-9212
▁Бе	-9213
▁УГ	-9214
▁йч	-9215
▁ыц	-9216
▁эш	-9217
outh	-9218
РОСА	-9219
▁(21	-9220
▁2,1	-9221
▁2,8	-9222
▁Bel	-9223
▁Lam	-9224
▁Tur	-9225
▁Ves	-9226
▁ЛЭП	-9227
▁НБА	-9228
▁Сил	-9229
▁ааг	-9230
▁даю	-9231
▁дню	-9232
▁дри	-9233
▁епи	-9234
▁жду	-9235
▁зет	-9236
▁иэл	-9237
▁нур	-9238
▁ойс	-9239
▁сту	-9240
▁тиз	-9241
▁убе	-9242
▁урт	-9243
▁утч	-9244
▁энк	-9245
▁ГУЭБ	-9246
▁НАСА	-9247
▁аним	-9248
▁бром	-9249
▁бяза	-9250
▁ванш	-9251
▁вост	-9252
▁дате	-9253
▁евес	-9254
▁игал	-9255
▁игул	-9256
▁ичев	-9257
▁ишеч	-9258
▁ллин	-9259
▁мман	-9260
▁мура	-9261
▁очев	-9262
▁удин	-9263
▁Chrys	-9264
▁South	-9265
▁ЛРОСА	-9266
▁анган	-9267
▁анхай	-9268
▁аркер	-9269
▁вопро	-9270
▁ирджи	-9271
▁ключи	-9272
▁отник	-9273
▁сталь	-9274
▁тавля	-9275
▁уллит	-9276
▁ческу	-9277
!)	-9278
IB	-9279
IJ	-9280
go	-9281
ИИ	-9282
юс	-9283
яч	-9284
iti	-9285
НАО	-9286
▁1"	-9287
▁Aw	-9288
▁Ev	-9289
▁Sy	-9290
▁ab	-9291
▁sm	-9292
▁АК	-9293
▁ГО	-9294
▁УС	-9295
ocus	-9296
ream	-9297
▁$30	-9298
▁(!)	-9299
▁19%	-9300
▁1:1	-9301
▁2:0	-9302
▁3-5	-9303
▁Gre	-9304
▁IPO	-9305
▁Ver	-9306
▁XVI	-9307
▁con	-9308
▁ina	-9309
▁lie	-9310
▁tan	-9311
▁ult	-9312
▁НАК	-9313
▁ФБК	-9314
▁арб	-9315
▁дек	-9316
▁дыв	-9317
▁енг	-9318
▁зат	-9319
▁зря	-9320
▁иши	-9321
▁ища	-9322
▁мни	-9323
▁мра	-9324
▁онь	-9325
▁суп	-9326
▁чих	-9327
▁шар	-9328
▁ICIJ	-9329
▁АМАЗ	-9330
▁МРСК	-9331
▁НИКС	-9332
▁РСПП	-9333
▁СЕАН	-9334
▁апан	-9335
▁арет	-9336
▁блик	-9337
▁елок	-9338
▁етто	-9339
▁идан	-9340
▁клин	-9341
▁малч	-9342
▁одом	-9343
▁ория	-9344
▁ропо	-9345
▁рошл	-9346
▁тайс	-9347
▁уани	-9348
▁уска	-9349
▁фирм	-9350
▁яске	-9351
▁Drive	-9352
▁Frank	-9353
▁ализа	-9354
▁атино	-9355
▁бласт	-9356
▁вержд	-9357
▁вичус	-9358
▁значе	-9359
▁ишкек	-9360
▁урбин	-9361
▁шмент	-9362
:6	-9363
IF	-9364
MI	-9365
di	-9366
ga	-9367
Да	-9368
РИ	-9369
Ты	-9370
▁q	-9371
ick	-9372
фар	-9373
▁--	-9374
▁AG	-9375
▁Fa	-9376
▁SU	-9377
▁So	-9378
▁ib	-9379
▁ГМ	-9380
▁ДВ	-9381
▁УЗ	-9382
▁(22	-9383
▁135	-9384
▁3,4	-9385
▁4%.	-9386
▁ABC	-9387
▁Art	-9388
▁Col	-9389
▁Dub	-9390
▁Gel	-9391
▁Har	-9392
▁Inf	-9393
▁NBC	-9394
▁Rad	-9395
▁SMS	-9396
▁Ste	-9397
▁Sun	-9398
▁bil	-9399
▁lli	-9400
▁ВКП	-9401
▁ОКБ	-9402
▁воя	-9403
▁езе	-9404
▁ейб	-9405
▁зел	-9406
▁игл	-9407
▁иня	-9408
▁кав	-9409
▁лий	-9410
▁лье	-9411
▁лям	-9412
▁ойз	-9413
▁опч	-9414
▁орж	-9415
▁рро	-9416
▁скр	-9417
▁сыр	-9418
▁ыне	-9419
▁ыра	-9420
▁ьор	-9421
▁янн	-9422
▁Book	-9423
▁Citi	-9424
▁City	-9425
▁tail	-9426
▁айда	-9427
▁алид	-9428
▁алил	-9429
▁анен	-9430
▁бонд	-9431
▁боты	-9432
▁еман	-9433
▁ерца	-9434
▁илон	-9435
▁иньк	-9436
▁ирзи	-9437
▁ирож	-9438
▁итин	-9439
▁корп	-9440
▁ловн	-9441
▁лтар	-9442
▁ндес	-9443
▁нста	-9444
▁обан	-9445
▁озво	-9446
▁олын	-9447
▁омас	-9448
▁омст	-9449
▁укол	-9450
▁ульс	-9451
▁Royal	-9452
▁borgh	-9453
▁УФСИН	-9454
▁алочк	-9455
▁еснок	-9456
▁оньяк	-9457
▁оттер	-9458
▁тство	-9459
▁улкан	-9460
▁утнев	-9461
▁шелон	-9462
2.	-9463
pt	-9464
До	-9465
ПО	-9466
УМ	-9467
ЧП	-9468
йв	-9469
ase	-9470
oop	-9471
qui	-9472
ица	-9473
рут	-9474
▁5.	-9475
▁LG	-9476
▁Oc	-9477
▁PS	-9478
▁RS	-9479
▁ee	-9480
▁ey	-9481
▁gi	-9482
▁iy	-9483
▁ГБ	-9484
▁РТ	-9485
▁Ци	-9486
▁Ын	-9487
▁дг	-9488
▁лб	-9489
▁лс	-9490
▁мь	-9491
▁210	-9492
▁35%	-9493
▁45%	-9494
▁Alp	-9495
▁Def	-9496
▁Fut	-9497
▁Sui	-9498
▁any	-9499
▁ery	-9500
▁ity	-9501
▁wei	-9502
▁Ива	-9503
▁МУП	-9504
▁ЦСР	-9505
▁ирт	-9506
▁кун	-9507
▁нож	-9508
▁опп	-9509
▁осы	-9510
▁оул	-9511
▁оум	-9512
▁тах	-9513
▁тни	-9514
▁убн	-9515
▁юга	-9516
▁Deve	-9517
▁NoNo	-9518
▁Part	-9519
▁ande	-9520
▁back	-9521
▁iPad	-9522
▁wood	-9523
▁АВТО	-9524
▁азур	-9525
▁асан	-9526
▁ахта	-9527
▁варц	-9528
▁вель	-9529
▁вные	-9530
▁воща	-9531
▁ежец	-9532
▁ейма	-9533
▁коны	-9534
▁лтон	-9535
▁неяд	-9536
▁номы	-9537
▁обат	-9538
▁олжн	-9539
▁паде	-9540
▁редь	-9541
▁тдел	-9542
▁утик	-9543
▁уэль	-9544
▁фари	-9545
▁ылды	-9546
▁Focus	-9547
▁ельфе	-9548
▁ентск	-9549
▁ермен	-9550
▁ингер	-9551
▁лавно	-9552
▁лифат	-9553
▁ниями	-9554
▁ордан	-9555
▁отора	-9556
▁сказы	-9557
▁страт	-9558
CC	-9559
IP	-9560
ade	-9561
лив	-9562
тик	-9563
▁Ca	-9564
▁Do	-9565
▁Dr	-9566
▁Es	-9567
▁It	-9568
▁Yo	-9569
▁em	-9570
▁mp	-9571
▁tt	-9572
▁ОТ	-9573
▁фю	-9574
▁юэ	-9575
ount	-9576
raft	-9577
▁13%	-9578
▁13,	-9579
▁145	-9580
▁2%.	-9581
▁23%	-9582
▁4,3	-9583
▁4-5	-9584
▁AMG	-9585
▁Ara	-9586
▁Pat	-9587
▁Pho	-9588
▁Suz	-9589
▁XII	-9590
▁ald	-9591
▁ert	-9592
▁Ими	-9593
▁Иск	-9594
▁МАО	-9595
▁ФНБ	-9596
▁атс	-9597
▁аян	-9598
▁бак	-9599
▁вух	-9600
▁гут	-9601
▁дак	-9602
▁зма	-9603
▁ктр	-9604
▁нке	-9605
▁офо	-9606
▁рвы	-9607
▁рту	-9608
▁рун	-9609
▁унз	-9610
▁ыжи	-9611
▁эйн	-9612
▁Aust	-9613
▁Bell	-9614
▁Club	-9615
▁Mast	-9616
▁Pari	-9617
▁Poli	-9618
▁Sber	-9619
▁Stat	-9620
▁ners	-9621
▁nter	-9622
▁НСПК	-9623
▁РСБУ	-9624
▁Росс	-9625
▁ЯНАО	-9626
▁адон	-9627
▁азил	-9628
▁акир	-9629
▁алак	-9630
▁арил	-9631
▁асту	-9632
▁гать	-9633
▁егис	-9634
▁елег	-9635
▁ельц	-9636
▁елья	-9637
▁инья	-9638
▁итяз	-9639
▁ичны	-9640
▁ищет	-9641
▁каян	-9642
▁ловк	-9643
▁майд	-9644
▁мети	-9645
▁меть	-9646
▁ммер	-9647
▁нерц	-9648
▁осин	-9649
▁офон	-9650
▁подо	-9651
▁подт	-9652
▁рису	-9653
▁риум	-9654
▁угун	-9655
▁ьхуа	-9656
▁ятия	-9657
▁аввин	-9658
▁ветск	-9659
▁ивных	-9660
▁ичнев	-9661
▁ишнев	-9662
▁льфин	-9663
▁механ	-9664
▁оксич	-9665
▁орист	-9666
▁ссанс	-9667
▁фюмер	-9668
cy	-9669
gi	-9670
hn	-9671
ДК	-9672
ЛЬ	-9673
НС	-9674
ФИ	-9675
ЮС	-9676
оу	-9677
▁•	-9678
ara	-9679
eep	-9680
ieg	-9681
ицк	-9682
лов	-9683
лык	-9684
рус	-9685
▁7.	-9686
▁Gi	-9687
▁IS	-9688
▁WW	-9689
▁du	-9690
▁ei	-9691
▁ha	-9692
▁ka	-9693
▁mi	-9694
▁va	-9695
▁УП	-9696
▁$20	-9697
▁(24	-9698
▁155	-9699
▁222	-9700
▁24"	-9701
▁320	-9702
▁Hua	-9703
▁Mir	-9704
▁Sch	-9705
▁Sec	-9706
▁Tou	-9707
▁cle	-9708
▁ium	-9709
▁ple	-9710
▁АПЛ	-9711
▁ГРУ	-9712
▁Мои	-9713
▁ОПГ	-9714
▁ТНТ	-9715
▁ТПП	-9716
▁УЗИ	-9717
▁УПК	-9718
▁выр	-9719
▁едш	-9720
▁ерш	-9721
▁етч	-9722
▁зыр	-9723
▁иКа	-9724
▁люм	-9725
▁нья	-9726
▁опк	-9727
▁риу	-9728
▁тво	-9729
▁упп	-9730
▁уче	-9731
▁юшк	-9732
▁Beat	-9733
▁Novo	-9734
▁Tour	-9735
▁land	-9736
▁nolo	-9737
▁teka	-9738
▁ГОСТ	-9739
▁ГРЭС	-9740
▁НАБУ	-9741
▁РГГУ	-9742
▁алач	-9743
▁ахим	-9744
▁воей	-9745
▁вчин	-9746
▁гарт	-9747
▁егин	-9748
▁ельф	-9749
▁епет	-9750
▁ердж	-9751
▁икер	-9752
▁йнен	-9753
▁качк	-9754
▁лтын	-9755
▁матр	-9756
▁напа	-9757
▁нщин	-9758
▁овид	-9759
▁окой	-9760
▁оуми	-9761
▁прел	-9762
▁прок	-9763
▁ранц	-9764
▁рдер	-9765
▁рече	-9766
▁роче	-9767
▁стел	-9768
▁Cross	-9769
▁Vesta	-9770
▁XVIII	-9771
▁драйв	-9772
▁есчан	-9773
▁келет	-9774
▁колот	-9775
▁обзон	-9776
▁теныш	-9777
▁шкент	-9778
2,	-9779
MA	-9780
RA	-9781
li	-9782
uz	-9783
Из	-9784
юл	-9785
ose	-9786
АДИ	-9787
лев	-9788
▁6.	-9789
▁>>	-9790
▁BB	-9791
▁Du	-9792
▁ID	-9793
▁Ke	-9794
▁Ko	-9795
▁VW	-9796
▁ms	-9797
▁ИТ	-9798
▁Йо	-9799
▁Пб	-9800
▁СА	-9801
▁108	-9802
▁109	-9803
▁1:0	-9804
▁26%	-9805
▁3%.	-9806
▁30,	-9807
▁44%	-9808
▁5,4	-9809
▁51%	-9810
▁Are	-9811
▁WBC	-9812
▁Yah	-9813
▁are	-9814
▁mar	-9815
▁pol	-9816
▁sen	-9817
▁МЭА	-9818
▁Раз	-9819
▁СМС	-9820
▁акк	-9821
▁аос	-9822
▁арг	-9823
▁дун	-9824
▁ечт	-9825
▁йся	-9826
▁лаж	-9827
▁мми	-9828
▁мпл	-9829
▁оек	-9830
▁чех	-9831
▁ьюс	-9832
▁Bull	-9833
▁Card	-9834
▁John	-9835
▁bile	-9836
▁ways	-9837
▁НДПИ	-9838
▁СПИД	-9839
▁агин	-9840
▁арон	-9841
▁атла	-9842
▁вбек	-9843
▁вейн	-9844
▁динг	-9845
▁еван	-9846
▁едер	-9847
▁елто	-9848
▁енок	-9849
▁ечту	-9850
▁ибер	-9851
▁игес	-9852
▁икин	-9853
▁илин	-9854
▁ингл	-9855
▁инев	-9856
▁ирог	-9857
▁исим	-9858
▁йвар	-9859
▁крин	-9860
▁куст	-9861
▁люмж	-9862
▁лями	-9863
▁нтро	-9864
▁ньюс	-9865
▁огут	-9866
▁окот	-9867
▁олок	-9868
▁опал	-9869
▁ораз	-9870
▁отка	-9871
▁плек	-9872
▁тиск	-9873
▁ураб	-9874
▁хром	-9875
▁шает	-9876
▁ываю	-9877
▁Spieg	-9878
▁Store	-9879
▁аллин	-9880
▁еннос	-9881
▁ински	-9882
▁лечен	-9883
▁мидов	-9884
▁мнени	-9885
▁обчак	-9886
▁осова	-9887
▁течен	-9888
▁укьян	-9889
CA	-9890
RC	-9891
na	-9892
СП	-9893
УК	-9894
ыз	-9895
enc	-9896
ИМО	-9897
дай	-9898
ейд	-9899
▁Is	-9900
▁TH	-9901
▁Ve	-9902
▁ГН	-9903
▁Ив	-9904
▁пь	-9905
▁21%	-9906
▁28%	-9907
▁49%	-9908
▁5%,	-9909
▁95%	-9910
▁CBS	-9911
▁Gam	-9912
▁Mac	-9913
▁USB	-9914
▁nor	-9915
▁ste	-9916
▁ury	-9917
▁Буш	-9918
▁КСИ	-9919
▁НКР	-9920
▁ОНК	-9921
▁ТГК	-9922
▁Фра	-9923
▁азд	-9924
▁баш	-9925
▁бун	-9926
▁вах	-9927
▁дит	-9928
▁доз	-9929
▁еко	-9930
▁ерц	-9931
▁етт	-9932
▁зим	-9933
▁ифф	-9934
▁лже	-9935
▁мна	-9936
▁муш	-9937
▁опы	-9938
▁ося	-9939
▁пун	-9940
▁ряк	-9941
▁тык	-9942
▁усн	-9943
▁чиц	-9944
▁щал	-9945
▁ытк	-9946
▁юст	-9947
▁ican	-9948
▁ntal	-9949
▁pare	-9950
▁СНБО	-9951
▁абин	-9952
▁артн	-9953
▁аулу	-9954
▁борь	-9955
▁выда	-9956
▁диум	-9957
▁драв	-9958
▁дьей	-9959
▁еган	-9960
▁елин	-9961
▁етхо	-9962
▁жали	-9963
▁илош	-9964
▁кеан	-9965
▁ксим	-9966
▁лант	-9967
▁несс	-9968
▁нинг	-9969
▁ргун	-9970
▁скер	-9971
▁томо	-9972
▁усел	-9973
▁утил	-9974
▁ушек	-9975
▁ферт	-9976
▁Intel	-9977
▁МГИМО	-9978
▁архат	-9979
▁ахман	-9980
▁жного	-9981
▁канер	-9982
▁марин	-9983
▁оказы	-9984
▁оложе	-9985
▁ормов	-9986
▁питан	-9987
▁ринью	-9988
▁скони	-9989
▁танин	-9990
PI	-9991
UT	-9992
xt	-9993
МЗ	-9994
ьи	-9995
imp	-9996
вис	-9997
ейк	-9998
лаш	-9999
мур	-10000
нет	-10001
пов	-10002
сец	-10003
фер	-10004
шан	-10005
ште	-10006
щев	-10007
▁"2	-10008
▁"5	-10009
▁//	-10010
▁AB	-10011
▁АТ	-10012
▁ИП	-10013
▁ОЭ	-10014
▁ПЗ	-10015
▁ХК	-10016
▁сх	-10017
▁чж	-10018
авин	-10019
еньк	-10020
▁106	-10021
▁107	-10022
▁136	-10023
▁260	-10024
▁3,3	-10025
▁85%	-10026
▁Act	-10027
▁Bay	-10028
▁Dan	-10029
▁Dow	-10030
▁Ess	-10031
▁Gra	-10032
▁Oil	-10033
▁Rob	-10034
▁Sub	-10035
▁Top	-10036
▁Tor	-10037
▁tes	-10038
▁uki	-10039
▁АГС	-10040
▁БКС	-10041
▁МУС	-10042
▁ОСК	-10043
▁СВР	-10044
▁ФЦП	-10045
▁бру	-10046
▁гем	-10047
▁ену	-10048
▁имф	-10049
▁иол	-10050
▁лай	-10051
▁мум	-10052
▁ниф	-10053
▁оус	-10054
▁тюр	-10055
▁уха	-10056
▁фри	-10057
▁ычк	-10058
▁ьей	-10059
▁ьон	-10060
▁Luft	-10061
▁Trav	-10062
▁ards	-10063
▁comm	-10064
▁mics	-10065
▁rack	-10066
▁scow	-10067
▁СКФО	-10068
▁амоч	-10069
▁анин	-10070
▁анна	-10071
▁атон	-10072
▁верс	-10073
▁днев	-10074
▁ейно	-10075
▁ельк	-10076
▁еску	-10077
▁есса	-10078
▁етян	-10079
▁женк	-10080
▁йфон	-10081
▁кита	-10082
▁лест	-10083
▁лонг	-10084
▁луче	-10085
▁мида	-10086
▁ниел	-10087
▁нтом	-10088
▁олоч	-10089
▁ослу	-10090
▁ртен	-10091
▁тила	-10092
▁туры	-10093
▁убов	-10094
▁удил	-10095
▁урав	-10096
▁Chris	-10097
▁Track	-10098
▁акуум	-10099
▁арфор	-10100
▁елюст	-10101
▁иамин	-10102
▁изтоп	-10103
▁имлян	-10104
▁ипрас	-10105
▁кушер	-10106
▁мпшир	-10107
▁некдо	-10108
▁нским	-10109
▁скадр	-10110
▁трибу	-10111
▁урист	-10112
▁шавин	-10113
1,	-10114
10	-10115
ep	-10116
je	-10117
ЛК	-10118
НА	-10119
ай	-10120
юн	-10121
ock	-10122
osh	-10123
rai	-10124
иха	-10125
лоч	-10126
нит	-10127
▁(8	-10128
▁Av	-10129
▁DC	-10130
▁NU	-10131
▁Pl	-10132
▁SW	-10133
▁Tw	-10134
▁ad	-10135
▁eg	-10136
▁fa	-10137
▁oi	-10138
▁po	-10139
▁tr	-10140
▁ut	-10141
▁БК	-10142
▁Зо	-10143
▁МД	-10144
▁СЗ	-10145
▁ТР	-10146
▁щу	-10147
▁10.	-10148
▁146	-10149
▁158	-10150
▁27%	-10151
▁286	-10152
▁4%,	-10153
▁550	-10154
▁Bri	-10155
▁Bur	-10156
▁Ran	-10157
▁Rio	-10158
▁Tom	-10159
▁air	-10160
▁ier	-10161
▁mer	-10162
▁ric	-10163
▁ЗРК	-10164
▁НСН	-10165
▁Пен	-10166
▁ФОМ	-10167
▁Хан	-10168
▁аит	-10169
▁дед	-10170
▁дше	-10171
▁жев	-10172
▁зид	-10173
▁иит	-10174
▁итч	-10175
▁каф	-10176
▁лго	-10177
▁нив	-10178
▁одв	-10179
▁орф	-10180
▁оша	-10181
▁ртс	-10182
▁тес	-10183
▁уды	-10184
▁фур	-10185
▁фут	-10186
▁ыге	-10187
▁ырг	-10188
▁ышн	-10189
▁Jeep	-10190
▁Lock	-10191
▁Visa	-10192
▁КПСС	-10193
▁НИЛС	-10194
▁НКВД	-10195
▁През	-10196
▁агил	-10197
▁айна	-10198
▁амит	-10199
▁анго	-10200
▁анчж	-10201
▁анье	-10202
▁апри	-10203
▁аски	-10204
▁ауза	-10205
▁байт	-10206
▁варк	-10207
▁веко	-10208
▁возн	-10209
▁джей	-10210
▁дтер	-10211
▁евит	-10212
▁егор	-10213
▁ежен	-10214
▁ейми	-10215
▁жжен	-10216
▁иран	-10217
▁ирка	-10218
▁ицил	-10219
▁лицк	-10220
▁мери	-10221
▁мидт	-10222
▁мойк	-10223
▁мурт	-10224
▁огие	-10225
▁оизо	-10226
▁онин	-10227
▁онса	-10228
▁опит	-10229
▁опон	-10230
▁орию	-10231
▁ощад	-10232
▁пиро	-10233
▁попр	-10234
▁рово	-10235
▁рожа	-10236
▁ртии	-10237
▁тыре	-10238
▁удни	-10239
▁улис	-10240
▁уппы	-10241
▁уски	-10242
▁хаот	-10243
▁хаус	-10244
▁хмуд	-10245
▁ьвин	-10246
▁group	-10247
▁аджид	-10248
▁асмур	-10249
▁едник	-10250
▁еракт	-10251
▁иллаш	-10252
▁колол	-10253
▁немен	-10254
▁нному	-10255
▁новые	-10256
▁ойште	-10257
▁олице	-10258
▁орчен	-10259
▁ошмар	-10260
▁сенин	-10261
▁сочек	-10262
.1	-10263
Во	-10264
РБ	-10265
ХК	-10266
ог	-10267
пл	-10268
юм	-10269
EFA	-10270
adi	-10271
ict	-10272
oca	-10273
ous	-10274
ump	-10275
лей	-10276
▁BF	-10277
▁OM	-10278
▁RP	-10279
▁UK	-10280
▁iv	-10281
▁ОЗ	-10282
▁Пи	-10283
▁ФМ	-10284
▁яп	-10285
yper	-10286
▁122	-10287
▁15,	-10288
▁156	-10289
▁165	-10290
▁189	-10291
▁224	-10292
▁285	-10293
▁33%	-10294
▁7,8	-10295
▁Bra	-10296
▁Can	-10297
▁Hun	-10298
▁Mag	-10299
▁Pub	-10300
▁RIA	-10301
▁San	-10302
▁USA	-10303
▁ade	-10304
▁out	-10305
▁АНБ	-10306
▁Боб	-10307
▁КИТ	-10308
▁НБК	-10309
▁ОПС	-10310
▁ПНИ	-10311
▁ССР	-10312
▁Тим	-10313
▁УВД	-10314
▁асе	-10315
▁вии	-10316
▁дят	-10317
▁икк	-10318
▁мфи	-10319
▁оше	-10320
▁сре	-10321
▁таш	-10322
▁тои	-10323
▁ухи	-10324
▁хэт	-10325
▁шер	-10326
▁щер	-10327
▁Daim	-10328
▁Fash	-10329
▁UEFA	-10330
▁Will	-10331
▁МАДИ	-10332
▁РФПИ	-10333
▁азен	-10334
▁алан	-10335
▁арни	-10336
▁асин	-10337
▁еньг	-10338
▁ешил	-10339
▁запр	-10340
▁зрев	-10341
▁инай	-10342
▁ихин	-10343
▁иццы	-10344
▁лбан	-10345
▁миаш	-10346
▁одок	-10347
▁ольн	-10348
▁опин	-10349
▁опок	-10350
▁опот	-10351
▁опре	-10352
▁подп	-10353
▁ребл	-10354
▁рьян	-10355
▁стно	-10356
▁убик	-10357
▁укер	-10358
▁унья	-10359
▁утер	-10360
▁уцер	-10361
▁шить	-10362
▁Dubai	-10363
▁Hyper	-10364
▁Skype	-10365
▁андаш	-10366
▁ейник	-10367
▁метан	-10368
▁оджер	-10369
▁ольфс	-10370
▁орчак	-10371
▁проте	-10372
▁рство	-10373
▁уклин	-10374
▁ургон	-10375
ED	-10376
TE	-10377
ko	-10378
kt	-10379
wn	-10380
Ак	-10381
Ну	-10382
РП	-10383
бе	-10384
пс	-10385
тк	-10386
шу	-10387
alk	-10388
ays	-10389
bdo	-10390
ect	-10391
uis	-10392
ure	-10393
быш	-10394
ияж	-10395
лер	-10396
фал	-10397
чив	-10398
▁(7	-10399
▁8.	-10400
▁BN	-10401
▁JP	-10402
▁UC	-10403
▁az	-10404
▁eo	-10405
▁vo	-10406
▁Эл	-10407
▁бэ	-10408
▁нм	-10409
елье	-10410
▁11,	-10411
▁112	-10412
▁116	-10413
▁282	-10414
▁380	-10415
▁4,2	-10416
▁420	-10417
▁7:6	-10418
▁Cas	-10419
▁EPA	-10420
▁ERS	-10421
▁Eng	-10422
▁Fli	-10423
▁Out	-10424
▁PMI	-10425
▁REG	-10426
▁Soc	-10427
▁Tig	-10428
▁age	-10429
▁ien	-10430
▁jet	-10431
▁mob	-10432
▁tra	-10433
▁uni	-10434
▁АФК	-10435
▁Аль	-10436
▁МОН	-10437
▁вав	-10438
▁дич	-10439
▁дру	-10440
▁евк	-10441
▁еер	-10442
▁еян	-10443
▁жки	-10444
▁звы	-10445
▁зев	-10446
▁ипо	-10447
▁ияд	-10448
▁оуч	-10449
▁паш	-10450
▁рче	-10451
▁сак	-10452
▁сюк	-10453
▁сян	-10454
▁таю	-10455
▁тью	-10456
▁упл	-10457
▁хет	-10458
▁цех	-10459
▁чну	-10460
▁энь	-10461
▁этр	-10462
▁югу	-10463
▁яшк	-10464
▁Atla	-10465
▁Coca	-10466
▁Gran	-10467
▁King	-10468
▁Nike	-10469
▁Pana	-10470
▁REUT	-10471
▁Rock	-10472
▁orat	-10473
▁ГНЕС	-10474
▁Укра	-10475
▁авер	-10476
▁азут	-10477
▁алал	-10478
▁ампа	-10479
▁анад	-10480
▁арка	-10481
▁аста	-10482
▁аток	-10483
▁башк	-10484
▁васт	-10485
▁доел	-10486
▁ексе	-10487
▁ельг	-10488
▁ерар	-10489
▁ерил	-10490
▁ерти	-10491
▁ески	-10492
▁есян	-10493
▁етыр	-10494
▁иант	-10495
▁ивье	-10496
▁изон	-10497
▁илик	-10498
▁илья	-10499
▁имми	-10500
▁имра	-10501
▁инае	-10502
▁ипен	-10503
▁ихов	-10504
▁ичиг	-10505
▁лавл	-10506
▁лати	-10507
▁лифа	-10508
▁ндак	-10509
▁ренг	-10510
▁рмар	-10511
▁роше	-10512
▁серт	-10513
▁симо	-10514
▁толь	-10515
▁удак	-10516
▁урин	-10517
▁усев	-10518
▁фрон	-10519
▁чишк	-10520
▁щили	-10521
▁ювет	-10522
▁Count	-10523
▁Dream	-10524
▁Found	-10525
▁Glenc	-10526
▁Smart	-10527
▁авиат	-10528
▁авкат	-10529
▁алдай	-10530
▁анном	-10531
▁арехо	-10532
▁асска	-10533
▁дероб	-10534
▁еймар	-10535
▁еймер	-10536
▁ейнол	-10537
▁ельер	-10538
▁ехман	-10539
▁ильяр	-10540
▁ключа	-10541
▁лавин	-10542
▁несот	-10543
▁нтрол	-10544
▁олчок	-10545
▁остер	-10546
▁рагуа	-10547
▁расхо	-10548
.2	-10549
60	-10550
90	-10551
EX	-10552
IN	-10553
ms	-10554
ВЛ	-10555
ЕВ	-10556
ОП	-10557
ТА	-10558
дт	-10559
ьо	-10560
юг	-10561
Lar	-10562
aze	-10563
uss	-10564
бал	-10565
▁Ra	-10566
▁SS	-10567
▁ah	-10568
▁fo	-10569
▁fr	-10570
▁pl	-10571
▁ЗР	-10572
▁МА	-10573
▁НМ	-10574
▁ОК	-10575
▁ФХ	-10576
▁ЭС	-10577
▁кф	-10578
▁нш	-10579
▁ьш	-10580
▁102	-10581
▁132	-10582
▁133	-10583
▁154	-10584
▁172	-10585
▁32%	-10586
▁36%	-10587
▁4,7	-10588
▁41%	-10589
▁43%	-10590
▁6,6	-10591
▁9,5	-10592
▁Ana	-10593
▁Bio	-10594
▁CIB	-10595
▁IBF	-10596
▁Jet	-10597
▁Mal	-10598
▁Mon	-10599
▁Pla	-10600
▁Rut	-10601
▁SIM	-10602
▁SSJ	-10603
▁Sat	-10604
▁Xia	-10605
▁act	-10606
▁aru	-10607
▁bra	-10608
▁ety	-10609
▁her	-10610
▁iat	-10611
▁ima	-10612
▁lle	-10613
▁log	-10614
▁mat	-10615
▁rus	-10616
▁uro	-10617
▁БПП	-10618
▁Луи	-10619
▁Мое	-10620
▁Оли	-10621
▁ТИК	-10622
▁ТТП	-10623
▁ХДС	-10624
▁ЦУМ	-10625
▁аис	-10626
▁бул	-10627
▁бум	-10628
▁вио	-10629
▁еху	-10630
▁зих	-10631
▁иок	-10632
▁лио	-10633
▁оух	-10634
▁ощи	-10635
▁пры	-10636
▁урд	-10637
▁чег	-10638
▁чуг	-10639
▁ышк	-10640
▁Barc	-10641
▁Cola	-10642
▁Gear	-10643
▁Hill	-10644
▁Hunt	-10645
▁Mini	-10646
▁Moto	-10647
▁Poor	-10648
▁Stud	-10649
▁West	-10650
▁ices	-10651
▁mail	-10652
▁tage	-10653
▁абич	-10654
▁агит	-10655
▁азар	-10656
▁алон	-10657
▁альк	-10658
▁анко	-10659
▁аряг	-10660
▁борд	-10661
▁втан	-10662
▁дова	-10663
▁доль	-10664
▁екен	-10665
▁ерви	-10666
▁ивел	-10667
▁ивен	-10668
▁игин	-10669
▁игур	-10670
▁иджи	-10671
▁икка	-10672
▁имин	-10673
▁ионн	-10674
▁ирги	-10675
▁ишек	-10676
▁йваз	-10677
▁ймон	-10678
▁кбар	-10679
▁овцы	-10680
▁озла	-10681
▁озре	-10682
▁отил	-10683
▁отро	-10684
▁поди	-10685
▁разл	-10686
▁стов	-10687
▁убже	-10688
▁угин	-10689
▁урак	-10690
▁усну	-10691
▁уэли	-10692
▁юхин	-10693
▁яжет	-10694
▁Flash	-10695
▁Hebdo	-10696
▁House	-10697
▁McLar	-10698
▁prise	-10699
▁агмат	-10700
▁анхае	-10701
▁ардан	-10702
▁аутин	-10703
▁вност	-10704
▁екист	-10705
▁емени	-10706
▁ерлан	-10707
▁итрус	-10708
▁оньер	-10709
▁петян	-10710
▁проек	-10711
▁стойн	-10712
▁тинкт	-10713
▁ыргыз	-10714
.:	-10715
5,	-10716
IC	-10717
PN	-10718
bi	-10719
fa	-10720
pe	-10721
uc	-10722
ВБ	-10723
ГИ	-10724
ЕБ	-10725
НП	-10726
УН	-10727
ich	-10728
ist	-10729
БОУ	-10730
ази	-10731
гал	-10732
исц	-10733
иху	-10734
муш	-10735
ток	-10736
хап	-10737
▁AS	-10738
▁CA	-10739
▁HS	-10740
▁MD	-10741
▁OS	-10742
▁PA	-10743
▁RC	-10744
▁SD	-10745
▁SP	-10746
▁Ul	-10747
▁da	-10748
▁Дэ	-10749
▁КК	-10750
▁Уж	-10751
▁€2	-10752
▁$25	-10753
▁(10	-10754
▁101	-10755
▁117	-10756
▁126	-10757
▁16,	-10758
▁199	-10759
▁2,9	-10760
▁213	-10761
▁42%	-10762
▁5,2	-10763
▁5,8	-10764
▁850	-10765
▁990	-10766
▁HTC	-10767
▁Mor	-10768
▁NUM	-10769
▁Nok	-10770
▁Web	-10771
▁ale	-10772
▁ura	-10773
▁wor	-10774
▁Бой	-10775
▁Ваш	-10776
▁Гол	-10777
▁ЕЭС	-10778
▁МКУ	-10779
▁Муж	-10780
▁ПМР	-10781
▁ПСВ	-10782
▁СБР	-10783
▁СТС	-10784
▁Уфе	-10785
▁ФХР	-10786
▁ЮФО	-10787
▁ацк	-10788
▁бод	-10789
▁иад	-10790
▁ивл	-10791
▁киф	-10792
▁кут	-10793
▁куч	-10794
▁мее	-10795
▁нае	-10796
▁нго	-10797
▁оан	-10798
▁олб	-10799
▁рыт	-10800
▁сик	-10801
▁уэл	-10802
▁хай	-10803
▁хал	-10804
▁ыно	-10805
▁янк	-10806
▁Coll	-10807
▁Data	-10808
▁Head	-10809
▁Next	-10810
▁Pass	-10811
▁lays	-10812
▁that	-10813
▁with	-10814
▁НБКИ	-10815
▁авуч	-10816
▁агал	-10817
▁апит	-10818
▁аско	-10819
▁атта	-10820
▁ахом	-10821
▁бюро	-10822
▁веря	-10823
▁вско	-10824
▁екол	-10825
▁елел	-10826
▁ерди	-10827
▁ерне	-10828
▁есар	-10829
▁етуч	-10830
▁ещан	-10831
▁идье	-10832
▁ието	-10833
▁илен	-10834
▁илмы	-10835
▁имов	-10836
▁имуз	-10837
▁ицца	-10838
▁лехт	-10839
▁ллиа	-10840
▁лфер	-10841
▁миды	-10842
▁мисс	-10843
▁наро	-10844
▁нера	-10845
▁нтор	-10846
▁озяй	-10847
▁оору	-10848
▁отке	-10849
▁пиан	-10850
▁скол	-10851
▁собо	-10852
▁тент	-10853
▁тиос	-10854
▁тить	-10855
▁тихо	-10856
▁това	-10857
▁триб	-10858
▁умер	-10859
▁утящ	-10860
▁ффен	-10861
▁ыжок	-10862
▁Cruis	-10863
▁Essar	-10864
▁Prime	-10865
▁Welle	-10866
▁аказа	-10867
▁аклав	-10868
▁анихи	-10869
▁ашлык	-10870
▁бальц	-10871
▁везет	-10872
▁дален	-10873
▁дятся	-10874
▁ебисц	-10875
▁игмар	-10876
▁игмат	-10877
▁межев	-10878
▁морок	-10879
▁носец	-10880
▁оксик	-10881
▁ргсян	-10882
▁решен	-10883
▁сиров	-10884
▁тороп	-10885
▁узырь	-10886
▁узыря	-10887
dy	-10888
ha	-10889
ВС	-10890
ТЭ	-10891
УЗ	-10892
нн	-10893
ня	-10894
пр	-10895
ым	-10896
▁ї	-10897
aba	-10898
ica	-10899
ity	-10900
olf	-10901
oot	-10902
rat	-10903
гат	-10904
лис	-10905
мом	-10906
очк	-10907
рун	-10908
этл	-10909
▁IX	-10910
▁NA	-10911
▁pr	-10912
▁wh	-10913
▁Гэ	-10914
▁ЕП	-10915
▁КУ	-10916
▁Рю	-10917
▁УР	-10918
▁бд	-10919
ancy	-10920
▁$35	-10921
▁0:1	-10922
▁104	-10923
▁114	-10924
▁118	-10925
▁137	-10926
▁185	-10927
▁20,	-10928
▁23,	-10929
▁24%	-10930
▁291	-10931
▁4,4	-10932
▁4,6	-10933
▁46%	-10934
▁480	-10935
▁62%	-10936
▁Avi	-10937
▁Cle	-10938
▁Day	-10939
▁Die	-10940
▁Flo	-10941
▁Fre	-10942
▁Hur	-10943
▁Jaz	-10944
▁Lin	-10945
▁Max	-10946
▁NYT	-10947
▁Val	-10948
▁Vir	-10949
▁XIV	-10950
▁bur	-10951
▁eed	-10952
▁ens	-10953
▁lls	-10954
▁ncy	-10955
▁omi	-10956
▁tri	-10957
▁АЕБ	-10958
▁БПЛ	-10959
▁ВАК	-10960
▁ЕГР	-10961
▁ММК	-10962
▁МРТ	-10963
▁ОНЭ	-10964
▁ПИК	-10965
▁РТС	-10966
▁Ред	-10967
▁СДП	-10968
▁ТРЦ	-10969
▁ЦАО	-10970
▁ЦФО	-10971
▁ацд	-10972
▁вуд	-10973
▁выг	-10974
▁вэн	-10975
▁дыр	-10976
▁зве	-10977
▁иас	-10978
▁ибл	-10979
▁ибы	-10980
▁ксо	-10981
▁одя	-10982
▁озл	-10983
▁озу	-10984
▁сод	-10985
▁спо	-10986
▁стя	-10987
▁тта	-10988
▁тэм	-10989
▁убы	-10990
▁умп	-10991
▁учи	-10992
▁ьен	-10993
▁эмм	-10994
▁якс	-10995
▁яще	-10996
▁Insi	-10997
▁Snap	-10998
▁Stan	-10999
▁Trip	-11000
▁baba	-11001
▁euts	-11002
▁fort	-11003
▁ghts	-11004
▁logy	-11005
▁ning	-11006
▁novo	-11007
▁tech	-11008
▁tico	-11009
▁tock	-11010
▁Банк	-11011
▁КСИМ	-11012
▁КТОВ	-11013
▁ММВБ	-11014
▁МФТИ	-11015
▁ФССП	-11016
▁абан	-11017
▁авен	-11018
▁айду	-11019
▁акер	-11020
▁акул	-11021
▁амбо	-11022
▁арай	-11023
▁ариф	-11024
▁брак	-11025
▁винз	-11026
▁винь	-11027
▁вчар	-11028
▁ганг	-11029
▁дорф	-11030
▁евра	-11031
▁ефир	-11032
▁ефти	-11033
▁зани	-11034
▁звод	-11035
▁ибра	-11036
▁ивар	-11037
▁игир	-11038
▁итеб	-11039
▁итта	-11040
▁иэтл	-11041
▁кона	-11042
▁лиан	-11043
▁ллег	-11044
▁манд	-11045
▁мзин	-11046
▁мушк	-11047
▁озни	-11048
▁ойны	-11049
▁ойот	-11050
▁омби	-11051
▁омбо	-11052
▁пенг	-11053
▁плик	-11054
▁поры	-11055
▁рейк	-11056
▁рьез	-11057
▁сочк	-11058
▁ужба	-11059
▁укан	-11060
▁уклы	-11061
▁уляк	-11062
▁унгл	-11063
▁урбу	-11064
▁ухар	-11065
▁уэтк	-11066
▁филд	-11067
▁хман	-11068
▁ьорн	-11069
▁юдей	-11070
▁Aston	-11071
▁Indus	-11072
▁Insti	-11073
▁Lockh	-11074
▁Nokia	-11075
▁Trade	-11076
▁board	-11077
▁алист	-11078
▁альто	-11079
▁андар	-11080
▁анции	-11081
▁арней	-11082
▁ахмон	-11083
▁дится	-11084
▁дольф	-11085
▁други	-11086
▁енера	-11087
▁ерлок	-11088
▁ессон	-11089
▁еюган	-11090
▁зихер	-11091
▁ивнев	-11092
▁идлав	-11093
▁иквел	-11094
▁икник	-11095
▁илсон	-11096
▁ильны	-11097
▁инчев	-11098
▁иршин	-11099
▁льник	-11100
▁насел	-11101
▁носца	-11102
▁нтерн	-11103
▁общен	-11104
▁окраз	-11105
▁опчен	-11106
▁ошкар	-11107
▁перац	-11108
▁площа	-11109
▁руппы	-11110
▁чуфар	-11111
30	-11112
DE	-11113
GO	-11114
iv	-11115
mo	-11116
wC	-11117
МА	-11118
МД	-11119
Ни	-11120
ву	-11121
фы	-11122
яш	-11123
Don	-11124
eng	-11125
uga	-11126
ИДЕ	-11127
ХАТ	-11128
ЮСШ	-11129
лан	-11130
мал	-11131
сье	-11132
▁+2	-11133
▁EX	-11134
▁Ju	-11135
▁Ki	-11136
▁LI	-11137
▁Sw	-11138
▁TM	-11139
▁Uk	-11140
▁ca	-11141
▁cy	-11142
▁gh	-11143
▁iT	-11144
▁nd	-11145
▁ov	-11146
▁ЖН	-11147
▁Жю	-11148
▁ОЛ	-11149
▁СТ	-11150
▁Ур	-11151
▁юш	-11152
лянд	-11153
▁(19	-11154
▁(20	-11155
▁0,3	-11156
▁0,6	-11157
▁1".	-11158
▁1/4	-11159
▁103	-11160
▁14.	-11161
▁149	-11162
▁1:2	-11163
▁2.0	-11164
▁208	-11165
▁29%	-11166
▁3:1	-11167
▁5-7	-11168
▁52%	-11169
▁53%	-11170
▁7,3	-11171
▁911	-11172
▁Cup	-11173
▁Dol	-11174
▁Hum	-11175
▁NFC	-11176
▁PwC	-11177
▁Rus	-11178
▁SUV	-11179
▁UBS	-11180
▁Van	-11181
▁art	-11182
▁can	-11183
▁eng	-11184
▁est	-11185
▁iam	-11186
▁met	-11187
▁pub	-11188
▁sis	-11189
▁uan	-11190
▁was	-11191
▁АГА	-11192
▁АНО	-11193
▁АТБ	-11194
▁Вос	-11195
▁ГМО	-11196
▁ДФО	-11197
▁ДЦП	-11198
▁ИРИ	-11199
▁Кук	-11200
▁ПСК	-11201
▁Сэм	-11202
▁Чон	-11203
▁апс	-11204
▁атх	-11205
▁бещ	-11206
▁вке	-11207
▁дье	-11208
▁еша	-11209
▁зуб	-11210
▁имб	-11211
▁имм	-11212
▁инз	-11213
▁кта	-11214
▁нчи	-11215
▁орш	-11216
▁пах	-11217
▁рбу	-11218
▁рум	-11219
▁сип	-11220
▁тын	-11221
▁уйн	-11222
▁улы	-11223
▁уря	-11224
▁шип	-11225
▁шюр	-11226
▁ынь	-11227
▁эйр	-11228
▁эшв	-11229
▁ятл	-11230
▁Dust	-11231
▁Free	-11232
▁Mirr	-11233
▁Opel	-11234
▁Oper	-11235
▁Paje	-11236
▁Vimp	-11237
▁ties	-11238
▁tone	-11239
▁work	-11240
▁БПЛА	-11241
▁ДЮСШ	-11242
▁МХАТ	-11243
▁ОГАЗ	-11244
▁УГМК	-11245
▁азин	-11246
▁акте	-11247
▁амос	-11248
▁аньк	-11249
▁апек	-11250
▁арма	-11251
▁асон	-11252
▁аспи	-11253
▁вела	-11254
▁венк	-11255
▁вляе	-11256
▁вных	-11257
▁глуш	-11258
▁госу	-11259
▁дран	-11260
▁езар	-11261
▁енец	-11262
▁епел	-11263
▁есин	-11264
▁есяц	-11265
▁етин	-11266
▁еток	-11267
▁змир	-11268
▁илва	-11269
▁иний	-11270
▁ирюк	-11271
▁ихан	-11272
▁комм	-11273
▁кспо	-11274
▁лавк	-11275
▁лбин	-11276
▁ллер	-11277
▁лочк	-11278
▁люст	-11279
▁мбет	-11280
▁мчуж	-11281
▁неск	-11282
▁нышк	-11283
▁обов	-11284
▁овны	-11285
▁озер	-11286
▁окет	-11287
▁олма	-11288
▁опес	-11289
▁орал	-11290
▁отен	-11291
▁ошен	-11292
▁пряг	-11293
▁рачн	-11294
▁реей	-11295
▁рито	-11296
▁рлык	-11297
▁ррит	-11298
▁рсон	-11299
▁рхан	-11300
▁стаг	-11301
▁стык	-11302
▁торе	-11303
▁трои	-11304
▁тышк	-11305
▁урба	-11306
▁утен	-11307
▁фери	-11308
▁цирк	-11309
▁Fancy	-11310
▁McDon	-11311
▁Print	-11312
▁Think	-11313
▁ОСААФ	-11314
▁айоне	-11315
▁армен	-11316
▁атрас	-11317
▁вадор	-11318
▁волок	-11319
▁душек	-11320
▁ейзер	-11321
▁елени	-11322
▁ентом	-11323
▁еттер	-11324
▁игурд	-11325
▁иджак	-11326
▁инист	-11327
▁котек	-11328
▁лицей	-11329
▁нитаз	-11330
▁орбер	-11331
▁ортон	-11332
▁оубор	-11333
▁приме	-11334
▁рлянд	-11335
▁скепт	-11336
▁стайл	-11337
▁сточн	-11338
▁стрин	-11339
▁ункер	-11340
▁ханян	-11341
11	-11342
DS	-11343
WS	-11344
ok	-11345
po	-11346
ya	-11347
БТ	-11348
ЕА	-11349
ЭО	-11350
ЮЛ	-11351
ап	-11352
гн	-11353
йр	-11354
мп	-11355
IFT	-11356
att	-11357
igh	-11358
БРР	-11359
ойл	-11360
пер	-11361
▁DB	-11362
▁Ti	-11363
▁ag	-11364
▁gu	-11365
▁ho	-11366
▁ko	-11367
▁pi	-11368
▁up	-11369
▁АБ	-11370
▁ДИ	-11371
▁РН	-11372
▁РЭ	-11373
▁УД	-11374
▁0,2	-11375
▁1%,	-11376
▁12,	-11377
▁121	-11378
▁128	-11379
▁148	-11380
▁2%,	-11381
▁204	-11382
▁226	-11383
▁294	-11384
▁3%,	-11385
▁3,9	-11386
▁370	-11387
▁5,6	-11388
▁50,	-11389
▁520	-11390
▁55%	-11391
▁6,3	-11392
▁ARD	-11393
▁Der	-11394
▁GLC	-11395
▁HBO	-11396
▁Lux	-11397
▁Off	-11398
▁Sea	-11399
▁Sot	-11400
▁Spi	-11401
▁ara	-11402
▁cal	-11403
▁fer	-11404
▁med	-11405
▁tti	-11406
▁ВОВ	-11407
▁ВПК	-11408
▁ВПП	-11409
▁ЗСТ	-11410
▁МКК	-11411
▁ОАК	-11412
▁ОЭЗ	-11413
▁ППС	-11414
▁РНК	-11415
▁РСН	-11416
▁ТПУ	-11417
▁Уфы	-11418
▁аад	-11419
▁ашу	-11420
▁виг	-11421
▁вяж	-11422
▁дст	-11423
▁дур	-11424
▁дус	-11425
▁еат	-11426
▁ехе	-11427
▁зол	-11428
▁ибе	-11429
▁изк	-11430
▁итс	-11431
▁ият	-11432
▁лун	-11433
▁льш	-11434
▁миф	-11435
▁обк	-11436
▁озо	-11437
▁олт	-11438
▁пес	-11439
▁хом	-11440
▁ынк	-11441
▁Bros	-11442
▁Cadi	-11443
▁Food	-11444
▁Hurr	-11445
▁Infi	-11446
▁Info	-11447
▁Kapt	-11448
▁Laun	-11449
▁Lett	-11450
▁Mash	-11451
▁Shar	-11452
▁Soci	-11453
▁Xper	-11454
▁ical	-11455
▁llac	-11456
▁loop	-11457
▁МГПС	-11458
▁ТЭКа	-11459
▁ФГБУ	-11460
▁ФОМС	-11461
▁абик	-11462
▁адам	-11463
▁адид	-11464
▁айнц	-11465
▁акел	-11466
▁анир	-11467
▁афос	-11468
▁бади	-11469
▁байн	-11470
▁блуд	-11471
▁бьет	-11472
▁вало	-11473
▁ведо	-11474
▁веро	-11475
▁вной	-11476
▁ганд	-11477
▁дене	-11478
▁дера	-11479
▁едсе	-11480
▁епин	-11481
▁етят	-11482
▁игел	-11483
▁иеты	-11484
▁илис	-11485
▁ифон	-11486
▁йбыш	-11487
▁ксел	-11488
▁кфол	-11489
▁летт	-11490
▁линн	-11491
▁лити	-11492
▁льма	-11493
▁льна	-11494
▁льну	-11495
▁мейс	-11496
▁нарк	-11497
▁нвар	-11498
▁ндин	-11499
▁нтин	-11500
▁объя	-11501
▁огал	-11502
▁опул	-11503
▁орги	-11504
▁орда	-11505
▁орте	-11506
▁плыл	-11507
▁рафи	-11508
▁риде	-11509
▁ринг	-11510
▁рлак	-11511
▁ройд	-11512
▁скак	-11513
▁спит	-11514
▁стыл	-11515
▁счур	-11516
▁така	-11517
▁тово	-11518
▁трач	-11519
▁тюар	-11520
▁улик	-11521
▁хорд	-11522
▁эмми	-11523
▁Force	-11524
▁SWIFT	-11525
▁Touch	-11526
▁ЕГРЮЛ	-11527
▁акияж	-11528
▁аклан	-11529
▁аркин	-11530
▁барон	-11531
▁велин	-11532
▁вельт	-11533
▁гумен	-11534
▁доело	-11535
▁ейкер	-11536
▁ейндж	-11537
▁ентил	-11538
▁еское	-11539
▁иссан	-11540
▁лагин	-11541
▁летит	-11542
▁логер	-11543
▁льмен	-11544
▁майда	-11545
▁матыв	-11546
▁мураз	-11547
▁начен	-11548
▁оксин	-11549
▁ондир	-11550
▁ордин	-11551
▁орман	-11552
▁осфор	-11553
▁отров	-11554
▁пейск	-11555
▁принт	-11556
▁точит	-11557
▁унгли	-11558
3,	-11559
7.	-11560
RE	-11561
be	-11562
ja	-11563
ma	-11564
oS	-11565
za	-11566
НН	-11567
ЦС	-11568
ты	-11569
уи	-11570
фи	-11571
чж	-11572
эш	-11573
▁<	-11574
ach	-11575
eed	-11576
ens	-11577
igi	-11578
ime	-11579
oud	-11580
utt	-11581
ТИС	-11582
виц	-11583
лой	-11584
нок	-11585
рак	-11586
ськ	-11587
цин	-11588
▁9.	-11589
▁DV	-11590
▁FO	-11591
▁Ly	-11592
▁PC	-11593
▁PD	-11594
▁ak	-11595
▁ek	-11596
▁ue	-11597
▁ЕЛ	-11598
▁Ен	-11599
▁КМ	-11600
▁Мя	-11601
▁ЦО	-11602
▁ао	-11603
▁пя	-11604
▁$60	-11605
▁(23	-11606
▁113	-11607
▁123	-11608
▁127	-11609
▁162	-11610
▁166	-11611
▁169	-11612
▁193	-11613
▁20.	-11614
▁211	-11615
▁212	-11616
▁24,	-11617
▁243	-11618
▁249	-11619
▁3,1	-11620
▁310	-11621
▁330	-11622
▁34%	-11623
▁3:0	-11624
▁4,8	-11625
▁48%	-11626
▁5,1	-11627
▁530	-11628
▁6%.	-11629
▁6,7	-11630
▁6,8	-11631
▁7,4	-11632
▁Big	-11633
▁Box	-11634
▁Cur	-11635
▁Hel	-11636
▁Hor	-11637
▁Kni	-11638
▁LTE	-11639
▁Lou	-11640
▁Man	-11641
▁NTV	-11642
▁Ori	-11643
▁Rev	-11644
▁VIP	-11645
▁WWF	-11646
▁ant	-11647
▁car	-11648
▁cus	-11649
▁dit	-11650
▁ect	-11651
▁ell	-11652
▁ere	-11653
▁gul	-11654
▁ies	-11655
▁llo	-11656
▁nan	-11657
▁ort	-11658
▁АТР	-11659
▁ГАЗ	-11660
▁Дэн	-11661
▁Инт	-11662
▁КРА	-11663
▁НБУ	-11664
▁РКК	-11665
▁ТСН	-11666
▁Эко	-11667
▁айи	-11668
▁амк	-11669
▁атн	-11670
▁баб	-11671
▁бад	-11672
▁бац	-11673
▁вож	-11674
▁гаш	-11675
▁гит	-11676
▁дду	-11677
▁дец	-11678
▁диг	-11679
▁еча	-11680
▁збу	-11681
▁здр	-11682
▁зур	-11683
▁йов	-11684
▁кид	-11685
▁люч	-11686
▁мич	-11687
▁овс	-11688
▁одг	-11689
▁онф	-11690
▁оуз	-11691
▁оэн	-11692
▁рап	-11693
▁смо	-11694
▁сох	-11695
▁сун	-11696
▁хен	-11697
▁хеш	-11698
▁чае	-11699
▁чаю	-11700
▁щад	-11701
▁ыпл	-11702
▁ючк	-11703
▁янь	-11704
▁Dior	-11705
▁FIDE	-11706
▁Full	-11707
▁HSBC	-11708
▁Hall	-11709
▁Love	-11710
▁NEWS	-11711
▁Niel	-11712
▁Poly	-11713
▁Port	-11714
▁Soft	-11715
▁Soll	-11716
▁Soth	-11717
▁able	-11718
▁free	-11719
▁sion	-11720
▁star	-11721
▁ВГИК	-11722
▁ГКЧП	-11723
▁ДВФУ	-11724
▁абал	-11725
▁амел	-11726
▁апош	-11727
▁ачер	-11728
▁вала	-11729
▁вана	-11730
▁вожу	-11731
▁гейт	-11732
▁гути	-11733
▁ебит	-11734
▁ейра	-11735
▁екма	-11736
▁енди	-11737
▁енос	-11738
▁етиц	-11739
▁етте	-11740
▁етуш	-11741
▁ешет	-11742
▁зейк	-11743
▁зошл	-11744
▁игар	-11745
▁инзы	-11746
▁ицак	-11747
▁кстр	-11748
▁лжен	-11749
▁лойд	-11750
▁льдо	-11751
▁ляль	-11752
▁лянк	-11753
▁лянц	-11754
▁ляск	-11755
▁манн	-11756
▁мним	-11757
▁несу	-11758
▁нрав	-11759
▁озор	-11760
▁омки	-11761
▁отан	-11762
▁отик	-11763
▁оуст	-11764
▁ошка	-11765
▁рбер	-11766
▁рдар	-11767
▁рдин	-11768
▁рсик	-11769
▁ртаз	-11770
▁сеян	-11771
▁собн	-11772
▁ссен	-11773
▁тнос	-11774
▁триц	-11775
▁убан	-11776
▁убен	-11777
▁ужье	-11778
▁узла	-11779
▁улит	-11780
▁умын	-11781
▁урад	-11782
▁учел	-11783
▁учре	-11784
▁хтар	-11785
▁южин	-11786
▁Bella	-11787
▁Liber	-11788
▁Trump	-11789
▁Ukrai	-11790
▁craft	-11791
▁АГАТЭ	-11792
▁ГИТИС	-11793
▁авьер	-11794
▁айдук	-11795
▁ардье	-11796
▁атеги	-11797
▁еварт	-11798
▁еггер	-11799
▁ельфа	-11800
▁енхап	-11801
▁ерган	-11802
▁ертон	-11803
▁етрян	-11804
▁зываю	-11805
▁ибсон	-11806
▁изант	-11807
▁имхан	-11808
▁имчив	-11809
▁калыв	-11810
▁клейк	-11811
▁крест	-11812
▁ладок	-11813
▁нихан	-11814
▁нские	-11815
▁оватт	-11816
▁озици	-11817
▁ойлов	-11818
▁онсин	-11819
▁преля	-11820
▁риума	-11821
▁этрин	-11822
-2	-11823
12	-11824
ec	-11825
ng	-11826
uk	-11827
ДТ	-11828
ЕН	-11829
РТ	-11830
цо	-11831
gue	-11832
uck	-11833
АДН	-11834
ВЛП	-11835
ЕРБ	-11836
ало	-11837
ейр	-11838
жан	-11839
зар	-11840
нот	-11841
рес	-11842
▁1)	-11843
▁1⁄	-11844
▁Ab	-11845
▁Af	-11846
▁CS	-11847
▁Dy	-11848
▁HR	-11849
▁Os	-11850
▁Wa	-11851
▁av	-11852
▁ea	-11853
▁ev	-11854
▁hy	-11855
▁iC	-11856
▁ke	-11857
▁lt	-11858
▁su	-11859
▁КО	-11860
▁ПИ	-11861
▁вэ	-11862
▁йх	-11863
юшон	-11864
▁12.	-11865
▁163	-11866
▁176	-11867
▁179	-11868
▁18,	-11869
▁184	-11870
▁188	-11871
▁207	-11872
▁216	-11873
▁237	-11874
▁25,	-11875
▁263	-11876
▁27,	-11877
▁293	-11878
▁315	-11879
▁4,9	-11880
▁57%	-11881
▁6,9	-11882
▁65%	-11883
▁7%.	-11884
▁7,6	-11885
▁76%	-11886
▁777	-11887
▁Bak	-11888
▁Boo	-11889
▁Cay	-11890
▁Dae	-11891
▁Don	-11892
▁Exc	-11893
▁Hil	-11894
▁Hug	-11895
▁MTV	-11896
▁OCC	-11897
▁Sab	-11898
▁Ski	-11899
▁Swi	-11900
▁TNS	-11901
▁Two	-11902
▁ate	-11903
▁das	-11904
▁eby	-11905
▁nce	-11906
▁nis	-11907
▁ool	-11908
▁que	-11909
▁res	-11910
▁rol	-11911
▁sor	-11912
▁tap	-11913
▁too	-11914
▁ver	-11915
▁woo	-11916
▁АЧС	-11917
▁ВЭФ	-11918
▁Дед	-11919
▁МБР	-11920
▁МГБ	-11921
▁Нил	-11922
▁ОУН	-11923
▁ПИД	-11924
▁ПСР	-11925
▁РФБ	-11926
▁Сон	-11927
▁ЭРА	-11928
▁акш	-11929
▁анф	-11930
▁аню	-11931
▁аят	-11932
▁гад	-11933
▁еви	-11934
▁емы	-11935
▁еус	-11936
▁ечи	-11937
▁жиж	-11938
▁ззи	-11939
▁ибн	-11940
▁инч	-11941
▁ирж	-11942
▁кип	-11943
▁кты	-11944
▁кук	-11945
▁леб	-11946
▁лмы	-11947
▁лту	-11948
▁лты	-11949
▁маж	-11950
▁мыл	-11951
▁нол	-11952
▁одс	-11953
▁ойе	-11954
▁очв	-11955
▁рыб	-11956
▁суф	-11957
▁сэр	-11958
▁уит	-11959
▁урь	-11960
▁утя	-11961
▁уэй	-11962
▁цил	-11963
▁чак	-11964
▁шеи	-11965
▁шею	-11966
▁Advi	-11967
▁Balt	-11968
▁Conc	-11969
▁Deep	-11970
▁Edit	-11971
▁FIBA	-11972
▁Gaze	-11973
▁Golf	-11974
▁High	-11975
▁Lego	-11976
▁Octa	-11977
▁Prem	-11978
▁Prio	-11979
▁RAEX	-11980
▁Sakh	-11981
▁Show	-11982
▁Sukh	-11983
▁Welt	-11984
▁Yout	-11985
▁bach	-11986
▁call	-11987
▁from	-11988
▁gies	-11989
▁tute	-11990
▁unes	-11991
▁ГЕРБ	-11992
▁ГМИИ	-11993
▁ГУВД	-11994
▁МБОУ	-11995
▁МККК	-11996
▁НЛМК	-11997
▁ПбГУ	-11998
▁абер	-11999
▁айно	-12000
▁аксо	-12001
▁алок	-12002
▁амид	-12003
▁амов	-12004
▁анек	-12005
▁арна	-12006
▁арук	-12007
▁ащик	-12008
▁вени	-12009
▁вным	-12010
▁вязи	-12011
▁глуб	-12012
▁грев	-12013
▁дани	-12014
▁ддув	-12015
▁дерг	-12016
▁дряш	-12017
▁евов	-12018
▁егал	-12019
▁егле	-12020
▁едла	-12021
▁езид	-12022
▁еньш	-12023
▁ерки	-12024
▁жные	-12025
▁зырь	-12026
▁ибал	-12027
▁идже	-12028
▁ижен	-12029
▁ижов	-12030
▁иств	-12031
▁исян	-12032
▁иход	-12033
▁ичер	-12034
▁иэлт	-12035
▁йман	-12036
▁касл	-12037
▁ксак	-12038
▁лдос	-12039
▁лейк	-12040
▁ловч	-12041
▁лтур	-12042
▁льва	-12043
▁машк	-12044
▁мото	-12045
▁мпле	-12046
▁муар	-12047
▁ндал	-12048
▁носц	-12049
▁нсов	-12050
▁овол	-12051
▁огба	-12052
▁олом	-12053
▁омра	-12054
▁онас	-12055
▁онку	-12056
▁онсо	-12057
▁орна	-12058
▁оски	-12059
▁отон	-12060
▁отти	-12061
▁отяг	-12062
▁пилб	-12063
▁равд	-12064
▁риче	-12065
▁слон	-12066
▁тейк	-12067
▁терб	-12068
▁терт	-12069
▁тюшк	-12070
▁убаш	-12071
▁ужин	-12072
▁унзе	-12073
▁уньл	-12074
▁урби	-12075
▁уриц	-12076
▁урор	-12077
▁утан	-12078
▁фель	-12079
▁фика	-12080
▁чейн	-12081
▁шкал	-12082
▁Asset	-12083
▁Bears	-12084
▁Dolce	-12085
▁Green	-12086
▁Strat	-12087
▁Turki	-12088
▁Vogue	-12089
▁gulat	-12090
▁ЖНВЛП	-12091
▁Олимп	-12092
▁айетт	-12093
▁акаро	-12094
▁акрас	-12095
▁амвая	-12096
▁амонт	-12097
▁везен	-12098
▁еванд	-12099
▁едова	-12100
▁етчин	-12101
▁ехник	-12102
▁иммер	-12103
▁летне	-12104
▁менел	-12105
▁мерат	-12106
▁мерзи	-12107
▁ммиак	-12108
▁налет	-12109
▁нклав	-12110
▁ньери	-12111
▁озетт	-12112
▁олтон	-12113
▁опорт	-12114
▁осьон	-12115
▁проду	-12116
▁прохо	-12117
▁пюшон	-12118
▁расно	-12119
▁течек	-12120
▁указа	-12121
▁цефал	-12122
▁чишек	-12123
▁шумев	-12124
.3	-12125
6,	-12126
:5	-12127
LP	-12128
NC	-12129
PC	-12130
PG	-12131
ls	-12132
tt	-12133
ВР	-12134
еп	-12135
кс	-12136
пу	-12137
фф	-12138
чо	-12139
▁×	-12140
ane	-12141
ear	-12142
ool	-12143
qua	-12144
rop	-12145
uzz	-12146
алк	-12147
ани	-12148
енс	-12149
ецк	-12150
зол	-12151
ихи	-12152
кер	-12153
лот	-12154
ляр	-12155
орд	-12156
ско	-12157
ури	-12158
▁$9	-12159
▁2)	-12160
▁3)	-12161
▁CC	-12162
▁GE	-12163
▁Ka	-12164
▁ME	-12165
▁OR	-12166
▁RF	-12167
▁RX	-12168
▁UA	-12169
▁ck	-12170
▁hi	-12171
▁ki	-12172
▁op	-12173
▁sc	-12174
▁ЕН	-12175
▁НЦ	-12176
▁ТБ	-12177
▁ЦД	-12178
▁Ши	-12179
▁юж	-12180
▁€5	-12181
▁$15	-12182
▁$70	-12183
▁(16	-12184
▁1/2	-12185
▁171	-12186
▁186	-12187
▁187	-12188
▁194	-12189
▁2",	-12190
▁201	-12191
▁209	-12192
▁218	-12193
▁22,	-12194
▁245	-12195
▁252	-12196
▁28,	-12197
▁367	-12198
▁38%	-12199
▁3:2	-12200
▁50.	-12201
▁54%	-12202
▁6%,	-12203
▁6:1	-12204
▁7%,	-12205
▁7,2	-12206
▁950	-12207
▁99%	-12208
▁ATP	-12209
▁BFM	-12210
▁Bos	-12211
▁Cal	-12212
▁Des	-12213
▁Far	-12214
▁Gab	-12215
▁Hom	-12216
▁Hub	-12217
▁Met	-12218
▁Peo	-12219
▁Pix	-12220
▁Pra	-12221
▁Rec	-12222
▁Sal	-12223
▁WBO	-12224
▁ays	-12225
▁bas	-12226
▁cov	-12227
▁dge	-12228
▁dub	-12229
▁els	-12230
▁fic	-12231
▁lms	-12232
▁lov	-12233
▁nte	-12234
▁ree	-12235
▁rid	-12236
▁ser	-12237
▁ual	-12238
▁Бах	-12239
▁ГКУ	-12240
▁КЕА	-12241
▁КПВ	-12242
▁Лео	-12243
▁МАЗ	-12244
▁Мар	-12245
▁НПК	-12246
▁ОГА	-12247
▁Оле	-12248
▁РАМ	-12249
▁РВК	-12250
▁РСТ	-12251
▁ТМК	-12252
▁ФСС	-12253
▁Хью	-12254
▁адт	-12255
▁айх	-12256
▁акС	-12257
▁алд	-12258
▁амн	-12259
▁аор	-12260
▁ауч	-12261
▁ври	-12262
▁гва	-12263
▁гир	-12264
▁гой	-12265
▁гот	-12266
▁джи	-12267
▁еби	-12268
▁зян	-12269
▁итл	-12270
▁итя	-12271
▁лар	-12272
▁лум	-12273
▁огл	-12274
▁одч	-12275
▁ожж	-12276
▁омж	-12277
▁онх	-12278
▁орб	-12279
▁орь	-12280
▁охи	-12281
▁оцк	-12282
▁оча	-12283
▁оюд	-12284
▁пиц	-12285
▁рми	-12286
▁сны	-12287
▁тея	-12288
▁тиш	-12289
▁убя	-12290
▁угр	-12291
▁удж	-12292
▁урц	-12293
▁шут	-12294
▁ыжк	-12295
▁эйв	-12296
▁яжк	-12297
▁Buzz	-12298
▁CNBC	-12299
▁Fore	-12300
▁Good	-12301
▁Marv	-12302
▁Mill	-12303
▁Nort	-12304
▁Nova	-12305
▁Polo	-12306
▁Turk	-12307
▁auto	-12308
▁ject	-12309
▁niti	-12310
▁wiki	-12311
▁ЕБРР	-12312
▁абол	-12313
▁авиш	-12314
▁адед	-12315
▁адин	-12316
▁айен	-12317
▁айка	-12318
▁акья	-12319
▁алич	-12320
▁алия	-12321
▁амир	-12322
▁анет	-12323
▁анке	-12324
▁анте	-12325
▁апез	-12326
▁апор	-12327
▁арят	-12328
▁аттл	-12329
▁атэк	-12330
▁ацан	-12331
▁ачек	-12332
▁баха	-12333
▁блус	-12334
▁валю	-12335
▁вате	-12336
▁ватт	-12337
▁ветр	-12338
▁вима	-12339
▁винт	-12340
▁вифт	-12341
▁вищн	-12342
▁войк	-12343
▁всян	-12344
▁едди	-12345
▁ежца	-12346
▁епал	-12347
▁зарм	-12348
▁зиан	-12349
▁иани	-12350
▁иано	-12351
▁иета	-12352
▁икси	-12353
▁ингс	-12354
▁инил	-12355
▁иона	-12356
▁ипег	-12357
▁ипто	-12358
▁итка	-12359
▁итма	-12360
▁ишка	-12361
▁йнар	-12362
▁кист	-12363
▁коне	-12364
▁копа	-12365
▁крад	-12366
▁леба	-12367
▁леон	-12368
▁лики	-12369
▁мунт	-12370
▁нагр	-12371
▁ндов	-12372
▁обен	-12373
▁обос	-12374
▁одст	-12375
▁онос	-12376
▁онтр	-12377
▁орде	-12378
▁осно	-12379
▁осок	-12380
▁оумн	-12381
▁оуна	-12382
▁очва	-12383
▁ошуа	-12384
▁подв	-12385
▁регу	-12386
▁рейт	-12387
▁ркин	-12388
▁ровы	-12389
▁ртеж	-12390
▁рфен	-12391
▁сайд	-12392
▁скат	-12393
▁снил	-12394
▁стюг	-12395
▁тейн	-12396
▁тепе	-12397
▁тров	-12398
▁тюша	-12399
▁удяк	-12400
▁ужев	-12401
▁улье	-12402
▁ураж	-12403
▁урал	-12404
▁урса	-12405
▁усин	-12406
▁ущин	-12407
▁хост	-12408
▁хэтт	-12409
▁чжоу	-12410
▁юхов	-12411
▁яшек	-12412
▁Hermi	-12413
▁Insid	-12414
▁Octav	-12415
▁Saudi	-12416
▁house	-12417
▁ажжен	-12418
▁айнен	-12419
▁апшин	-12420
▁аргет	-12421
▁атора	-12422
▁ахмал	-12423
▁варес	-12424
▁верал	-12425
▁винси	-12426
▁глубь	-12427
▁густа	-12428
▁ельеф	-12429
▁еская	-12430
▁есник	-12431
▁заявл	-12432
▁изова	-12433
▁иолет	-12434
▁иркул	-12435
▁ирожк	-12436
▁итани	-12437
▁лфетк	-12438
▁новит	-12439
▁номер	-12440
▁ншлаг	-12441
▁одног	-12442
▁ойлер	-12443
▁орщин	-12444
▁ошлом	-12445
▁оэнсе	-12446
▁ренин	-12447
▁ровед	-12448
▁сенич	-12449
▁тенок	-12450
▁тоиер	-12451
▁турва	-12452
▁туруп	-12453
▁тюхин	-12454
▁удфан	-12455
▁уксов	-12456
▁ьякон	-12457
GN	-12458
ID	-12459
LS	-12460
TO	-12461
hi	-12462
ze	-12463
ВА	-12464
ЕЙ	-12465
ЛА	-12466
ЛО	-12467
ТЗ	-12468
ЭР	-12469
ег	-12470
йя	-12471
оз	-12472
▁■	-12473
aps	-12474
ari	-12475
ely	-12476
end	-12477
gan	-12478
iri	-12479
ont	-12480
oul	-12481
uri	-12482
бок	-12483
вич	-12484
етс	-12485
лаж	-12486
мор	-12487
раш	-12488
хая	-12489
шик	-12490
▁02	-12491
▁08	-12492
▁CH	-12493
▁GS	-12494
▁HE	-12495
▁Je	-12496
▁Ky	-12497
▁MV	-12498
▁NH	-12499
▁Ob	-12500
▁TA	-12501
▁TE	-12502
▁ga	-12503
▁rt	-12504
▁ВП	-12505
▁ВФ	-12506
▁Вт	-12507
▁ДС	-12508
▁ИЛ	-12509
▁ИМ	-12510
▁НВ	-12511
▁лх	-12512
▁€3	-12513
фори	-12514
▁(12	-12515
▁(30	-12516
▁0:0	-12517
▁134	-12518
▁138	-12519
▁139	-12520
▁147	-12521
▁152	-12522
▁17,	-12523
▁183	-12524
▁195	-12525
▁206	-12526
▁214	-12527
▁234	-12528
▁24.	-12529
▁26,	-12530
▁264	-12531
▁31%	-12532
▁317	-12533
▁37%	-12534
▁375	-12535
▁39%	-12536
▁390	-12537
▁4,1	-12538
▁440	-12539
▁470	-12540
▁5,3	-12541
▁5,9	-12542
▁6-8	-12543
▁670	-12544
▁737	-12545
▁74%	-12546
▁8,2	-12547
▁8,3	-12548
▁8,4	-12549
▁8-9	-12550
▁9,8	-12551
▁Adi	-12552
▁Bal	-12553
▁Dod	-12554
▁Exo	-12555
▁Ham	-12556
▁IBM	-12557
▁IDC	-12558
▁Rac	-12559
▁Sum	-12560
▁TMZ	-12561
▁USM	-12562
▁ada	-12563
▁alt	-12564
▁aut	-12565
▁box	-12566
▁edy	-12567
▁ept	-12568
▁iew	-12569
▁ile	-12570
▁lus	-12571
▁not	-12572
▁sch	-12573
▁tie	-12574
▁АКБ	-12575
▁АТС	-12576
▁БКИ	-12577
▁БСП	-12578
▁ВВО	-12579
▁ВУЗ	-12580
▁ГЧП	-12581
▁ДПМ	-12582
▁ЖКУ	-12583
▁Зал	-12584
▁КБР	-12585
▁СММ	-12586
▁СНВ	-12587
▁Сег	-12588
▁ТРК	-12589
▁УДО	-12590
▁УПЦ	-12591
▁ФГК	-12592
▁ЦВО	-12593
▁ЦРБ	-12594
▁Энн	-12595
▁аху	-12596
▁бры	-12597
▁вих	-12598
▁вук	-12599
▁гав	-12600
▁гиг	-12601
▁гид	-12602
▁еан	-12603
▁ежц	-12604
▁ейп	-12605
▁етя	-12606
▁еут	-12607
▁жип	-12608
▁иря	-12609
▁ицо	-12610
▁кош	-12611
▁ляд	-12612
▁ляз	-12613
▁мри	-12614
▁ныв	-12615
▁омк	-12616
▁опт	-12617
▁орл	-12618
▁ояс	-12619
▁пих	-12620
▁ржу	-12621
▁сиж	-12622
▁слы	-12623
▁тащ	-12624
▁тук	-12625
▁тун	-12626
▁укр	-12627
▁фам	-12628
▁фаш	-12629
▁хаб	-12630
▁хте	-12631
▁хун	-12632
▁чуд	-12633
▁чью	-12634
▁шик	-12635
▁щеп	-12636
▁яиц	-12637
▁ято	-12638
▁Aero	-12639
▁Fund	-12640
▁Line	-12641
▁Lond	-12642
▁Matt	-12643
▁Pict	-12644
▁Sand	-12645
▁Team	-12646
▁VIII	-12647
▁ball	-12648
▁face	-12649
▁hers	-12650
▁poli	-12651
▁sort	-12652
▁stor	-12653
▁tics	-12654
▁ДИПЧ	-12655
▁НАФИ	-12656
▁ПИДа	-12657
▁абен	-12658
▁ажда	-12659
▁ажор	-12660
▁айем	-12661
▁акао	-12662
▁акри	-12663
▁анол	-12664
▁ающе	-12665
▁бицк	-12666
▁будо	-12667
▁веял	-12668
▁вища	-12669
▁ворд	-12670
▁воры	-12671
▁вояк	-12672
▁врал	-12673
▁греш	-12674
▁груж	-12675
▁дейц	-12676
▁джич	-12677
▁дышк	-12678
▁егли	-12679
▁егод	-12680
▁егул	-12681
▁ежцы	-12682
▁езен	-12683
▁ейсм	-12684
▁елят	-12685
▁емал	-12686
▁енов	-12687
▁енье	-12688
▁енья	-12689
▁ерзл	-12690
▁ерон	-12691
▁етны	-12692
▁жент	-12693
▁ивны	-12694
▁изой	-12695
▁имок	-12696
▁инод	-12697
▁иржу	-12698
▁ирюл	-12699
▁итон	-12700
▁ищей	-12701
▁ищук	-12702
▁ланг	-12703
▁ледн	-12704
▁леха	-12705
▁лино	-12706
▁лмер	-12707
▁мара	-12708
▁мбар	-12709
▁мута	-12710
▁нгур	-12711
▁ндро	-12712
▁нзор	-12713
▁нтос	-12714
▁овач	-12715
▁овят	-12716
▁огаб	-12717
▁огаз	-12718
▁одон	-12719
▁озгл	-12720
▁олил	-12721
▁олой	-12722
▁олья	-12723
▁омол	-12724
▁омон	-12725
▁орах	-12726
▁орин	-12727
▁паха	-12728
▁пциг	-12729
▁ранд	-12730
▁рбин	-12731
▁ргас	-12732
▁реме	-12733
▁рмаш	-12734
▁ровк	-12735
▁росо	-12736
▁рошк	-12737
▁рыск	-12738
▁саул	-12739
▁скар	-12740
▁спос	-12741
▁стры	-12742
▁стун	-12743
▁тона	-12744
▁трях	-12745
▁ттар	-12746
▁удью	-12747
▁ужда	-12748
▁улуз	-12749
▁умие	-12750
▁умил	-12751
▁ураш	-12752
▁усле	-12753
▁усто	-12754
▁учан	-12755
▁учич	-12756
▁ушин	-12757
▁хмел	-12758
▁хмур	-12759
▁шечк	-12760
▁ывае	-12761
▁яхов	-12762
▁Briti	-12763
▁Geely	-12764
▁Index	-12765
▁sport	-12766
▁УФССП	-12767
▁агмет	-12768
▁аксин	-12769
▁акьяо	-12770
▁арбон	-12771
▁ариху	-12772
▁аскал	-12773
▁витер	-12774
▁вольт	-12775
▁гузар	-12776
▁едель	-12777
▁езьер	-12778
▁ейвен	-12779
▁ентер	-12780
▁ерств	-12781
▁инчук	-12782
▁ирлик	-12783
▁итцер	-12784
▁ихтен	-12785
▁ишень	-12786
▁йфори	-12787
▁катил	-12788
▁керит	-12789
▁клеив	-12790
▁манил	-12791
▁морож	-12792
▁номик	-12793
▁ована	-12794
▁олмен	-12795
▁ондин	-12796
▁онтон	-12797
▁осста	-12798
▁остин	-12799
▁рация	-12800
▁слойк	-12801
▁туман	-12802
▁часье	-12803
▁ческо	-12804
-1	-12805
3.	-12806
4,	-12807
40	-12808
5.	-12809
FR	-12810
LA	-12811
LL	-12812
ME	-12813
NO	-12814
SE	-12815
dg	-12816
ür	-12817
МУ	-12818
ЭТ	-12819
шо	-12820
яж	-12821
AAD	-12822
ASA	-12823
Eco	-12824
RAY	-12825
TIP	-12826
ark	-12827
box	-12828
ene	-12829
gas	-12830
uit	-12831
АПИ	-12832
ТИП	-12833
баш	-12834
гар	-12835
дар	-12836
жек	-12837
иян	-12838
лил	-12839
рум	-12840
тун	-12841
хот	-12842
чел	-12843
▁"3	-12844
▁"8	-12845
▁(9	-12846
▁5)	-12847
▁AC	-12848
▁AI	-12849
▁DD	-12850
▁Er	-12851
▁Id	-12852
▁MQ	-12853
▁My	-12854
▁br	-12855
▁ez	-12856
▁ku	-12857
▁ny	-12858
▁os	-12859
▁ve	-12860
▁wa	-12861
▁ВР	-12862
▁Жа	-12863
▁ЛЕ	-12864
▁ЦИ	-12865
▁ЦТ	-12866
▁ЧФ	-12867
▁йя	-12868
▁лг	-12869
▁рз	-12870
▁сэ	-12871
olly	-12872
▁(18	-12873
▁(25	-12874
▁0,7	-12875
▁131	-12876
▁141	-12877
▁142	-12878
▁144	-12879
▁15.	-12880
▁153	-12881
▁157	-12882
▁192	-12883
▁197	-12884
▁202	-12885
▁215	-12886
▁223	-12887
▁228	-12888
▁232	-12889
▁25.	-12890
▁262	-12891
▁27.	-12892
▁276	-12893
▁2:2	-12894
▁2:3	-12895
▁303	-12896
▁306	-12897
▁308	-12898
▁318	-12899
▁331	-12900
▁40.	-12901
▁47%	-12902
▁4:1	-12903
▁5,7	-12904
▁6,1	-12905
▁6,4	-12906
▁6-7	-12907
▁63%	-12908
▁7,7	-12909
▁8%.	-12910
▁840	-12911
▁9%.	-12912
▁BNP	-12913
▁Dom	-12914
▁Kal	-12915
▁Kod	-12916
▁OMV	-12917
▁Pad	-12918
▁Pur	-12919
▁Rom	-12920
▁Sur	-12921
▁ace	-12922
▁aro	-12923
▁ban	-12924
▁boy	-12925
▁gar	-12926
▁ger	-12927
▁hab	-12928
▁hes	-12929
▁ign	-12930
▁kom	-12931
▁lig	-12932
▁lor	-12933
▁max	-12934
▁mir	-12935
▁mot	-12936
▁nos	-12937
▁nus	-12938
▁oil	-12939
▁oon	-12940
▁ord	-12941
▁ory	-12942
▁pav	-12943
▁qai	-12944
▁rad	-12945
▁red	-12946
▁tol	-12947
▁tom	-12948
▁АСТ	-12949
▁ВАО	-12950
▁ВПБ	-12951
▁ВТС	-12952
▁ГАИ	-12953
▁ГИС	-12954
▁ГПЗ	-12955
▁Жан	-12956
▁Ира	-12957
▁КГИ	-12958
▁МКБ	-12959
▁МКП	-12960
▁МФК	-12961
▁НДР	-12962
▁НИК	-12963
▁ННК	-12964
▁РАР	-12965
▁РЛС	-12966
▁СФИ	-12967
▁УВП	-12968
▁УСБ	-12969
▁Шоу	-12970
▁Эхо	-12971
▁адл	-12972
▁ажк	-12973
▁ауг	-12974
▁бао	-12975
▁бэк	-12976
▁ваз	-12977
▁гря	-12978
▁енщ	-12979
▁зац	-12980
▁ибк	-12981
▁ифа	-12982
▁ихи	-12983
▁кей	-12984
▁лип	-12985
▁мял	-12986
▁няж	-12987
▁оет	-12988
▁оср	-12989
▁сеч	-12990
▁ссу	-12991
▁тоб	-12992
▁тры	-12993
▁тул	-12994
▁уми	-12995
▁уны	-12996
▁урч	-12997
▁урш	-12998
▁фол	-12999
▁хат	-13000
▁хем	-13001
▁хоп	-13002
▁чус	-13003
▁щев	-13004
▁щел	-13005
▁щет	-13006
▁ырк	-13007
▁эйд	-13008
▁эко	-13009
▁эпп	-13010
▁эры	-13011
▁юев	-13012
▁яму	-13013
▁Alfa	-13014
▁Bear	-13015
▁Brot	-13016
▁Drag	-13017
▁FARC	-13018
▁FINA	-13019
▁Game	-13020
▁Mase	-13021
▁Nint	-13022
▁Park	-13023
▁Porn	-13024
▁Qash	-13025
▁Scan	-13026
▁Sent	-13027
▁Stri	-13028
▁Sund	-13029
▁TTIP	-13030
▁Toro	-13031
▁Trad	-13032
▁Type	-13033
▁Virg	-13034
▁Vive	-13035
▁XIII	-13036
▁XRAY	-13037
▁Xbox	-13038
▁bana	-13039
▁bras	-13040
▁duct	-13041
▁live	-13042
▁ster	-13043
▁tain	-13044
▁ware	-13045
▁НИАН	-13046
▁ТТИП	-13047
▁ФИДЕ	-13048
▁Цент	-13049
▁абир	-13050
▁аваг	-13051
▁айки	-13052
▁айко	-13053
▁акро	-13054
▁амар	-13055
▁ангс	-13056
▁арго	-13057
▁аржа	-13058
▁атун	-13059
▁ауля	-13060
▁ахан	-13061
▁ахин	-13062
▁берн	-13063
▁брук	-13064
▁вимы	-13065
▁вное	-13066
▁егол	-13067
▁егоч	-13068
▁екар	-13069
▁елип	-13070
▁енал	-13071
▁енки	-13072
▁ерим	-13073
▁ехан	-13074
▁ехоб	-13075
▁ехос	-13076
▁ешок	-13077
▁ещев	-13078
▁ибил	-13079
▁ибов	-13080
▁иету	-13081
▁илит	-13082
▁ильф	-13083
▁ирик	-13084
▁ирту	-13085
▁исел	-13086
▁итол	-13087
▁итян	-13088
▁каля	-13089
▁копи	-13090
▁лвин	-13091
▁ликв	-13092
▁лмат	-13093
▁лмуш	-13094
▁ловц	-13095
▁льби	-13096
▁льпа	-13097
▁майк	-13098
▁майл	-13099
▁мерк	-13100
▁милл	-13101
▁мрет	-13102
▁мчуг	-13103
▁мырд	-13104
▁нсар	-13105
▁обел	-13106
▁обер	-13107
▁омео	-13108
▁омид	-13109
▁омил	-13110
▁онет	-13111
▁онян	-13112
▁опов	-13113
▁опус	-13114
▁орга	-13115
▁орго	-13116
▁орев	-13117
▁осен	-13118
▁осян	-13119
▁отки	-13120
▁ощун	-13121
▁раха	-13122
▁рден	-13123
▁рлик	-13124
▁рмол	-13125
▁рнег	-13126
▁рохо	-13127
▁рсак	-13128
▁саак	-13129
▁скуч	-13130
▁стап	-13131
▁теял	-13132
▁уджи	-13133
▁удке	-13134
▁уряд	-13135
▁хана	-13136
▁хане	-13137
▁шатк	-13138
▁юрал	-13139
▁Dodge	-13140
▁Holly	-13141
▁Human	-13142
▁LeEco	-13143
▁Louis	-13144
▁Organ	-13145
▁Priva	-13146
▁Sharp	-13147
▁THAAD	-13148
▁авочк	-13149
▁аггер	-13150
▁агерю	-13151
▁азиат	-13152
▁айхут	-13153
▁амент	-13154
▁амлет	-13155
▁амнем	-13156
▁анкев	-13157
▁аржин	-13158
▁аршер	-13159
▁астар	-13160
▁астор	-13161
▁валок	-13162
▁вичюс	-13163
▁гутин	-13164
▁делов	-13165
▁ейсмо	-13166
▁елочи	-13167
▁ердак	-13168
▁естов	-13169
▁етчиц	-13170
▁ечнев	-13171
▁земье	-13172
▁иафан	-13173
▁инерг	-13174
▁инрик	-13175
▁иньон	-13176
▁ионно	-13177
▁кмени	-13178
▁ксони	-13179
▁льбин	-13180
▁марка	-13181
▁негин	-13182
▁низац	-13183
▁ннель	-13184
▁ованн	-13185
▁одвин	-13186
▁омест	-13187
▁омтик	-13188
▁оптер	-13189
▁ормит	-13190
▁орчев	-13191
▁оскут	-13192
▁остяк	-13193
▁пиано	-13194
▁пищев	-13195
▁призн	-13196
▁принг	-13197
▁рассл	-13198
▁ретто	-13199
▁родск	-13200
▁рохин	-13201
▁скопа	-13202
▁стион	-13203
▁ступа	-13204
▁тамон	-13205
▁удник	-13206
▁уннел	-13207
▁чихин	-13208
▁шокер	-13209
7,	-13210
8.	-13211
MM	-13212
OC	-13213
SA	-13214
dd	-13215
mp	-13216
oi	-13217
yg	-13218
ДВ	-13219
То	-13220
ФС	-13221
ХГ	-13222
ХО	-13223
гф	-13224
зк	-13225
кл	-13226
пп	-13227
ьт	-13228
aka	-13229
eld	-13230
ise	-13231
ИНА	-13232
бос	-13233
имч	-13234
лас	-13235
лос	-13236
мас	-13237
ног	-13238
точ	-13239
тье	-13240
уда	-13241
чиш	-13242
этч	-13243
юрт	-13244
▁"7	-13245
▁00	-13246
▁9-	-13247
▁AA	-13248
▁Az	-13249
▁ED	-13250
▁EF	-13251
▁EP	-13252
▁Gm	-13253
▁Ir	-13254
▁LC	-13255
▁MP	-13256
▁SO	-13257
▁Ss	-13258
▁Up	-13259
▁pa	-13260
▁so	-13261
▁sy	-13262
▁ya	-13263
▁Ад	-13264
▁ВБ	-13265
▁ИИ	-13266
▁КА	-13267
▁КЧ	-13268
▁МЕ	-13269
▁МТ	-13270
▁ОВ	-13271
▁РБ	-13272
▁ТУ	-13273
▁Ти	-13274
▁ЧЕ	-13275
▁ЧР	-13276
▁Юг	-13277
▁хс	-13278
yste	-13279
▁$55	-13280
▁(13	-13281
▁0,1	-13282
▁0,9	-13283
▁1",	-13284
▁1.6	-13285
▁119	-13286
▁151	-13287
▁167	-13288
▁178	-13289
▁18.	-13290
▁19.	-13291
▁1:3	-13292
▁2".	-13293
▁235	-13294
▁242	-13295
▁257	-13296
▁265	-13297
▁30.	-13298
▁314	-13299
▁329	-13300
▁356	-13301
▁460	-13302
▁490	-13303
▁4:2	-13304
▁540	-13305
▁56%	-13306
▁6,2	-13307
▁64%	-13308
▁6:3	-13309
▁7,1	-13310
▁7-8	-13311
▁71%	-13312
▁8,8	-13313
▁82%	-13314
▁84%	-13315
▁880	-13316
▁9,2	-13317
▁98%	-13318
▁Alt	-13319
▁Fed	-13320
▁Fri	-13321
▁Gar	-13322
▁Gir	-13323
▁Hal	-13324
▁ITF	-13325
▁Lab	-13326
▁Leg	-13327
▁Lyn	-13328
▁MAN	-13329
▁May	-13330
▁Que	-13331
▁SOS	-13332
▁Sil	-13333
▁chi	-13334
▁ete	-13335
▁fax	-13336
▁hat	-13337
▁iba	-13338
▁ivi	-13339
▁kee	-13340
▁lup	-13341
▁mac	-13342
▁min	-13343
▁odo	-13344
▁ony	-13345
▁pho	-13346
▁tta	-13347
▁wat	-13348
▁АЕК	-13349
▁БДТ	-13350
▁Бои	-13351
▁ВСМ	-13352
▁Вес	-13353
▁Вид	-13354
▁ГКБ	-13355
▁ГПБ	-13356
▁Гоа	-13357
▁Зоя	-13358
▁ККУ	-13359
▁Кит	-13360
▁Лех	-13361
▁Люк	-13362
▁ОЭК	-13363
▁ПФО	-13364
▁СНТ	-13365
▁ТОС	-13366
▁УИК	-13367
▁УПА	-13368
▁ФКП	-13369
▁Цой	-13370
▁Чан	-13371
▁азг	-13372
▁айг	-13373
▁атэ	-13374
▁ауи	-13375
▁ащи	-13376
▁вут	-13377
▁грн	-13378
▁дящ	-13379
▁евц	-13380
▁елч	-13381
▁епк	-13382
▁жиг	-13383
▁заи	-13384
▁зда	-13385
▁зен	-13386
▁зун	-13387
▁ибр	-13388
▁иер	-13389
▁иом	-13390
▁ирз	-13391
▁ирр	-13392
▁исн	-13393
▁ихр	-13394
▁иян	-13395
▁куш	-13396
▁лаф	-13397
▁лэк	-13398
▁нюк	-13399
▁нях	-13400
▁овд	-13401
▁овш	-13402
▁оня	-13403
▁оря	-13404
▁оуф	-13405
▁пса	-13406
▁рдк	-13407
▁рра	-13408
▁сав	-13409
▁сач	-13410
▁таз	-13411
▁туш	-13412
▁унт	-13413
▁уон	-13414
▁упы	-13415
▁хэш	-13416
▁цей	-13417
▁шам	-13418
▁шас	-13419
▁шеф	-13420
▁шуб	-13421
▁ысь	-13422
▁ьку	-13423
▁ьюз	-13424
▁эйт	-13425
▁эмп	-13426
▁юре	-13427
▁Arct	-13428
▁CNPC	-13429
▁Cher	-13430
▁Cour	-13431
▁Dats	-13432
▁ESPN	-13433
▁Fair	-13434
▁Fest	-13435
▁Fire	-13436
▁Foot	-13437
▁Fort	-13438
▁Gram	-13439
▁Home	-13440
▁Jazz	-13441
▁Pack	-13442
▁Rank	-13443
▁Rome	-13444
▁Siri	-13445
▁Tata	-13446
▁Vent	-13447
▁Well	-13448
▁ctor	-13449
▁form	-13450
▁ntic	-13451
▁ward	-13452
▁ГАБТ	-13453
▁ГБУЗ	-13454
▁ЗАПИ	-13455
▁МОНа	-13456
▁НИСЕ	-13457
▁ПЗРК	-13458
▁РСМД	-13459
▁УССР	-13460
▁ФАДН	-13461
▁ФМБА	-13462
▁абад	-13463
▁абар	-13464
▁авки	-13465
▁адой	-13466
▁айра	-13467
▁акСа	-13468
▁акур	-13469
▁алам	-13470
▁аллю	-13471
▁амка	-13472
▁амош	-13473
▁анто	-13474
▁анше	-13475
▁арис	-13476
▁асак	-13477
▁асел	-13478
▁атхи	-13479
▁атын	-13480
▁ахру	-13481
▁ахто	-13482
▁ацик	-13483
▁биен	-13484
▁брит	-13485
▁бурж	-13486
▁быст	-13487
▁бэтч	-13488
▁вавш	-13489
▁ваге	-13490
▁гвай	-13491
▁гиня	-13492
▁дишо	-13493
▁дове	-13494
▁едев	-13495
▁еист	-13496
▁еник	-13497
▁енны	-13498
▁епти	-13499
▁епча	-13500
▁ерид	-13501
▁етик	-13502
▁ефат	-13503
▁зыбл	-13504
▁ибин	-13505
▁ивни	-13506
▁идли	-13507
▁ийом	-13508
▁икон	-13509
▁илма	-13510
▁имфо	-13511
▁инар	-13512
▁ипят	-13513
▁ихим	-13514
▁ицин	-13515
▁ицюк	-13516
▁калы	-13517
▁клик	-13518
▁клип	-13519
▁коле	-13520
▁крич	-13521
▁лаги	-13522
▁лвис	-13523
▁менн	-13524
▁менц	-13525
▁мешк	-13526
▁морк	-13527
▁нагн	-13528
▁наса	-13529
▁ндра	-13530
▁нетк	-13531
▁нион	-13532
▁нлей	-13533
▁нтен	-13534
▁объе	-13535
▁омка	-13536
▁онро	-13537
▁онус	-13538
▁ордо	-13539
▁орча	-13540
▁оясн	-13541
▁полз	-13542
▁прыг	-13543
▁равл	-13544
▁рашк	-13545
▁реха	-13546
▁рлан	-13547
▁ршан	-13548
▁сихи	-13549
▁скин	-13550
▁скоч	-13551
▁смин	-13552
▁соби	-13553
▁ссит	-13554
▁стим	-13555
▁сухи	-13556
▁тезы	-13557
▁тупи	-13558
▁тюрк	-13559
▁укав	-13560
▁укат	-13561
▁улен	-13562
▁улио	-13563
▁умно	-13564
▁умпц	-13565
▁умэн	-13566
▁урма	-13567
▁урюм	-13568
▁утор	-13569
▁учин	-13570
▁учок	-13571
▁чища	-13572
▁чкок	-13573
▁чтен	-13574
▁шипн	-13575
▁штам	-13576
▁ыгеи	-13577
▁ыгея	-13578
▁ымян	-13579
▁эвис	-13580
▁эндж	-13581
▁ючей	-13582
▁Chero	-13583
▁Creta	-13584
▁India	-13585
▁Intes	-13586
▁Nexus	-13587
▁Smith	-13588
▁Ssang	-13589
▁Stock	-13590
▁Syste	-13591
▁Viber	-13592
▁world	-13593
▁УКойл	-13594
▁айлер	-13595
▁аймер	-13596
▁алалд	-13597
▁альти	-13598
▁ансер	-13599
▁анхая	-13600
▁ардак	-13601
▁арлев	-13602
▁артер	-13603
▁артир	-13604
▁ахнет	-13605
▁бакан	-13606
▁венос	-13607
▁волоч	-13608
▁вяжет	-13609
▁гемон	-13610
▁гистр	-13611
▁дания	-13612
▁еваст	-13613
▁едств	-13614
▁есбос	-13615
▁итьев	-13616
▁кайпу	-13617
▁катан	-13618
▁копал	-13619
▁короч	-13620
▁кочан	-13621
▁кулис	-13622
▁лагай	-13623
▁лимит	-13624
▁мекал	-13625
▁молви	-13626
▁молог	-13627
▁мпани	-13628
▁огнит	-13629
▁ойота	-13630
▁ордюр	-13631
▁орнер	-13632
▁парян	-13633
▁пехот	-13634
▁пункт	-13635
▁риимч	-13636
▁ркини	-13637
▁рокур	-13638
▁рышек	-13639
▁стите	-13640
▁тепов	-13641
▁тефан	-13642
▁тийяр	-13643
▁узыре	-13644
▁ункин	-13645
▁устыр	-13646
▁ферин	-13647
▁химов	-13648
▁щериц	-13649
▁этчер	-13650
-4	-13651
1.	-13652
Al	-13653
OL	-13654
gh	-13655
no	-13656
wk	-13657
ВМ	-13658
ИЙ	-13659
ея	-13660
жо	-13661
иС	-13662
фу	-13663
эг	-13664
ISA	-13665
eti	-13666
ino	-13667
olu	-13668
ppe	-13669
uct	-13670
urt	-13671
vid	-13672
БОС	-13673
гас	-13674
гиз	-13675
кум	-13676
лак	-13677
лоз	-13678
люс	-13679
ляк	-13680
фир	-13681
щиц	-13682
▁06	-13683
▁4)	-13684
▁CX	-13685
▁DP	-13686
▁Na	-13687
▁PE	-13688
▁RD	-13689
▁ST	-13690
▁TR	-13691
▁UF	-13692
▁ae	-13693
▁ao	-13694
▁bn	-13695
▁dy	-13696
▁mu	-13697
▁vk	-13698
▁АГ	-13699
▁АФ	-13700
▁ЛК	-13701
▁ПД	-13702
▁УБ	-13703
▁УМ	-13704
▁ЦЭ	-13705
▁Эд	-13706
▁чо	-13707
▁эб	-13708
▁€4	-13709
реди	-13710
ссон	-13711
▁$45	-13712
▁(15	-13713
▁(50	-13714
▁0,8	-13715
▁0:2	-13716
▁11.	-13717
▁168	-13718
▁173	-13719
▁174	-13720
▁191	-13721
▁198	-13722
▁21,	-13723
▁233	-13724
▁246	-13725
▁256	-13726
▁26.	-13727
▁271	-13728
▁272	-13729
▁275	-13730
▁278	-13731
▁295	-13732
▁304	-13733
▁305	-13734
▁325	-13735
▁337	-13736
▁343	-13737
▁580	-13738
▁59%	-13739
▁67%	-13740
▁68%	-13741
▁9%,	-13742
▁9,7	-13743
▁Bas	-13744
▁Cat	-13745
▁Cra	-13746
▁Cri	-13747
▁DAQ	-13748
▁Did	-13749
▁Geo	-13750
▁Gun	-13751
▁Hot	-13752
▁Jun	-13753
▁KIA	-13754
▁KPI	-13755
▁Led	-13756
▁NHK	-13757
▁Nav	-13758
▁Opp	-13759
▁POS	-13760
▁Rav	-13761
▁Ray	-13762
▁Rou	-13763
▁Tre	-13764
▁Win	-13765
▁Wom	-13766
▁ail	-13767
▁bit	-13768
▁ces	-13769
▁ckr	-13770
▁ges	-13771
▁get	-13772
▁hon	-13773
▁iaq	-13774
▁ili	-13775
▁ill	-13776
▁ite	-13777
▁kar	-13778
▁our	-13779
▁pay	-13780
▁pre	-13781
▁qui	-13782
▁ret	-13783
▁ВИА	-13784
▁ГАС	-13785
▁ЕАО	-13786
▁ЖСК	-13787
▁ЗВО	-13788
▁Зои	-13789
▁ИПП	-13790
▁КАС	-13791
▁КОР	-13792
▁Кен	-13793
▁МДМ	-13794
▁МСУ	-13795
▁Мао	-13796
▁Мог	-13797
▁НМГ	-13798
▁НОК	-13799
▁НРА	-13800
▁НЭП	-13801
▁ОТП	-13802
▁ПХГ	-13803
▁РАД	-13804
▁РТК	-13805
▁Рой	-13806
▁ТОП	-13807
▁УЭК	-13808
▁Уго	-13809
▁ЭКГ	-13810
▁ЭКО	-13811
▁Эми	-13812
▁айе	-13813
▁анл	-13814
▁ацу	-13815
▁бег	-13816
▁био	-13817
▁бож	-13818
▁бон	-13819
▁бош	-13820
▁гаф	-13821
▁гил	-13822
▁гуд	-13823
▁дош	-13824
▁ежн	-13825
▁ейв	-13826
▁ейц	-13827
▁еке	-13828
▁етх	-13829
▁ехи	-13830
▁ещи	-13831
▁зте	-13832
▁ижк	-13833
▁илю	-13834
▁инш	-13835
▁иоп	-13836
▁иор	-13837
▁исо	-13838
▁исы	-13839
▁ишу	-13840
▁иэй	-13841
▁кво	-13842
▁кен	-13843
▁кна	-13844
▁кыр	-13845
▁лап	-13846
▁лащ	-13847
▁ляж	-13848
▁ляк	-13849
▁лящ	-13850
▁мош	-13851
▁неч	-13852
▁овж	-13853
▁ойф	-13854
▁ошн	-13855
▁пиг	-13856
▁пух	-13857
▁сио	-13858
▁ссл	-13859
▁суж	-13860
▁тев	-13861
▁тны	-13862
▁тыл	-13863
▁ужк	-13864
▁усо	-13865
▁ушь	-13866
▁уян	-13867
▁чуж	-13868
▁шоп	-13869
▁щук	-13870
▁ыль	-13871
▁ямы	-13872
▁ячк	-13873
▁Bill	-13874
▁Buga	-13875
▁Burg	-13876
▁DDoS	-13877
▁Digi	-13878
▁EASA	-13879
▁Gene	-13880
▁Homo	-13881
▁Juke	-13882
▁Meta	-13883
▁Mich	-13884
▁Mons	-13885
▁Nikk	-13886
▁Pant	-13887
▁Pire	-13888
▁Rift	-13889
▁Rosh	-13890
▁Sele	-13891
▁Taka	-13892
▁Tosh	-13893
▁Yong	-13894
▁burg	-13895
▁conn	-13896
▁cont	-13897
▁dolu	-13898
▁erce	-13899
▁iers	-13900
▁mann	-13901
▁rent	-13902
▁ulus	-13903
▁АТОР	-13904
▁Вели	-13905
▁ИСиС	-13906
▁МГТУ	-13907
▁ОЗХО	-13908
▁ПМЭФ	-13909
▁РЕПО	-13910
▁ЦТАК	-13911
▁аван	-13912
▁азик	-13913
▁акли	-13914
▁анив	-13915
▁анюк	-13916
▁апра	-13917
▁апре	-13918
▁аред	-13919
▁аржу	-13920
▁атут	-13921
▁ахид	-13922
▁ахир	-13923
▁ацер	-13924
▁ачок	-13925
▁ашек	-13926
▁бдал	-13927
▁бери	-13928
▁вайд	-13929
▁вачк	-13930
▁веса	-13931
▁виан	-13932
▁вимо	-13933
▁воще	-13934
▁вьял	-13935
▁вэнь	-13936
▁вюрт	-13937
▁гата	-13938
▁гауз	-13939
▁гвар	-13940
▁грян	-13941
▁дков	-13942
▁евен	-13943
▁ейцы	-13944
▁ейше	-13945
▁емов	-13946
▁ендр	-13947
▁еней	-13948
▁енуа	-13949
▁епит	-13950
▁ерта	-13951
▁есил	-13952
▁есоч	-13953
▁етек	-13954
▁етлю	-13955
▁етой	-13956
▁еточ	-13957
▁еффт	-13958
▁зать	-13959
▁зрак	-13960
▁ибан	-13961
▁ибет	-13962
▁ивад	-13963
▁идло	-13964
▁икид	-13965
▁икст	-13966
▁инят	-13967
▁ипат	-13968
▁ипит	-13969
▁ирер	-13970
▁ирес	-13971
▁итум	-13972
▁ишар	-13973
▁ишущ	-13974
▁йбек	-13975
▁йваш	-13976
▁йлер	-13977
▁йова	-13978
▁коул	-13979
▁лаба	-13980
▁лайд	-13981
▁лезт	-13982
▁лосо	-13983
▁лтаб	-13984
▁лтуф	-13985
▁льфи	-13986
▁манс	-13987
▁мбик	-13988
▁мело	-13989
▁мехо	-13990
▁мчиш	-13991
▁найд	-13992
▁нани	-13993
▁ндуз	-13994
▁нево	-13995
▁нейл	-13996
▁нете	-13997
▁нику	-13998
▁ниск	-13999
▁номе	-14000
▁ноте	-14001
▁нсам	-14002
▁овос	-14003
▁одал	-14004
▁одуб	-14005
▁озен	-14006
▁окар	-14007
▁олье	-14008
▁омаш	-14009
▁онгл	-14010
▁орду	-14011
▁орле	-14012
▁осич	-14013
▁отос	-14014
▁охан	-14015
▁охим	-14016
▁ошач	-14017
▁пенс	-14018
▁печи	-14019
▁пичк	-14020
▁полк	-14021
▁пячк	-14022
▁раон	-14023
▁реби	-14024
▁рент	-14025
▁реск	-14026
▁риха	-14027
▁рома	-14028
▁ронн	-14029
▁рсун	-14030
▁рчин	-14031
▁рьят	-14032
▁сеть	-14033
▁слиг	-14034
▁слик	-14035
▁слим	-14036
▁ссош	-14037
▁стец	-14038
▁стуч	-14039
▁тежа	-14040
▁тище	-14041
▁трин	-14042
▁удзо	-14043
▁улия	-14044
▁улон	-14045
▁улян	-14046
▁ундр	-14047
▁уньи	-14048
▁урна	-14049
▁усти	-14050
▁утит	-14051
▁уток	-14052
▁утят	-14053
▁уэлл	-14054
▁фаль	-14055
▁фори	-14056
▁хайм	-14057
▁хнет	-14058
▁ходи	-14059
▁ходн	-14060
▁цика	-14061
▁шейн	-14062
▁шкев	-14063
▁шкин	-14064
▁шмир	-14065
▁штан	-14066
▁юстр	-14067
▁яжут	-14068
▁Chrom	-14069
▁Craft	-14070
▁Deloi	-14071
▁Marus	-14072
▁Pegas	-14073
▁Romeo	-14074
▁Siber	-14075
▁Snapc	-14076
▁Veriz	-14077
▁Zeppe	-14078
▁nance	-14079
▁НИСЕФ	-14080
▁ФОБОС	-14081
▁авзол	-14082
▁азать	-14083
▁амаат	-14084
▁анкин	-14085
▁анкор	-14086
▁анкос	-14087
▁ансов	-14088
▁аньол	-14089
▁арвин	-14090
▁ардер	-14091
▁астов	-14092
▁астыр	-14093
▁атриц	-14094
▁атчин	-14095
▁берто	-14096
▁билет	-14097
▁вестр	-14098
▁видан	-14099
▁визор	-14100
▁вовал	-14101
▁детел	-14102
▁дозер	-14103
▁дуван	-14104
▁дурас	-14105
▁елось	-14106
▁ендер	-14107
▁ереда	-14108
▁иберт	-14109
▁иджей	-14110
▁изиан	-14111
▁иккья	-14112
▁иллен	-14113
▁ипчан	-14114
▁иргал	-14115
▁иринг	-14116
▁калив	-14117
▁калил	-14118
▁креди	-14119
▁лажан	-14120
▁лгари	-14121
▁ложит	-14122
▁магин	-14123
▁нессе	-14124
▁оанат	-14125
▁огвар	-14126
▁озетк	-14127
▁оловн	-14128
▁олтер	-14129
▁онгад	-14130
▁орвет	-14131
▁очвен	-14132
▁ошнот	-14133
▁пагат	-14134
▁пылов	-14135
▁рдкор	-14136
▁ржуаз	-14137
▁риуме	-14138
▁рихин	-14139
▁рства	-14140
▁слойн	-14141
▁сюжет	-14142
▁тикут	-14143
▁тораж	-14144
▁убейр	-14145
▁урбаг	-14146
▁френд	-14147
▁хофер	-14148
▁шении	-14149
▁шилов	-14150
▁щелье	-14151
LC	-14152
LM	-14153
MP	-14154
ev	-14155
АТ	-14156
АХ	-14157
ФР	-14158
дэ	-14159
мн	-14160
нб	-14161
нк	-14162
оо	-14163
сб	-14164
cci	-14165
edd	-14166
eni	-14167
erg	-14168
iev	-14169
izz	-14170
umi	-14171
unk	-14172
АПФ	-14173
НИИ	-14174
ППС	-14175
ЦСИ	-14176
бур	-14177
вал	-14178
дон	-14179
еса	-14180
жер	-14181
зел	-14182
имо	-14183
ляс	-14184
лях	-14185
оми	-14186
роч	-14187
ски	-14188
тет	-14189
унг	-14190
уэр	-14191
хол	-14192
чат	-14193
ьен	-14194
ьол	-14195
▁"6	-14196
▁+7	-14197
▁04	-14198
▁05	-14199
▁1;	-14200
▁Ah	-14201
▁Ap	-14202
▁DF	-14203
▁DR	-14204
▁GD	-14205
▁Kh	-14206
▁MT	-14207
▁ND	-14208
▁Ox	-14209
▁QE	-14210
▁SR	-14211
▁TU	-14212
▁ZF	-14213
▁ac	-14214
▁kp	-14215
▁pd	-14216
▁rg	-14217
▁ui	-14218
▁АУ	-14219
▁Вд	-14220
▁ИН	-14221
▁Мю	-14222
▁НТ	-14223
▁ПЧ	-14224
▁ТД	-14225
▁УТ	-14226
▁ФП	-14227
▁Юн	-14228
▁бз	-14229
▁ві	-14230
▁иС	-14231
▁йб	-14232
▁йг	-14233
▁кх	-14234
▁кэ	-14235
▁тз	-14236
▁уо	-14237
▁цв	-14238
▁чм	-14239
▁эг	-14240
▁эц	-14241
▁юф	-14242
▁юх	-14243
▁€8	-14244
ould	-14245
oupe	-14246
rang	-14247
▁"50	-14248
▁$11	-14249
▁$14	-14250
▁(17	-14251
▁182	-14252
▁19,	-14253
▁196	-14254
▁2,0	-14255
▁205	-14256
▁219	-14257
▁221	-14258
▁239	-14259
▁248	-14260
▁251	-14261
▁292	-14262
▁297	-14263
▁301	-14264
▁328	-14265
▁374	-14266
▁40,	-14267
▁405	-14268
▁42,	-14269
▁430	-14270
▁435	-14271
▁45,	-14272
▁58%	-14273
▁620	-14274
▁625	-14275
▁6:2	-14276
▁6:4	-14277
▁718	-14278
▁8,6	-14279
▁9,3	-14280
▁9,6	-14281
▁92%	-14282
▁Acc	-14283
▁Ala	-14284
▁Ani	-14285
▁Bad	-14286
▁CEO	-14287
▁Cab	-14288
▁Cos	-14289
▁Cus	-14290
▁Gas	-14291
▁ICA	-14292
▁ING	-14293
▁Kat	-14294
▁LED	-14295
▁Moz	-14296
▁Nor	-14297
▁Opt	-14298
▁Ora	-14299
▁RAV	-14300
▁Rex	-14301
▁Roc	-14302
▁Sex	-14303
▁TAS	-14304
▁Ter	-14305
▁Ult	-14306
▁Wal	-14307
▁ary	-14308
▁ass	-14309
▁bnb	-14310
▁day	-14311
▁erc	-14312
▁ett	-14313
▁eus	-14314
▁exp	-14315
▁flo	-14316
▁gan	-14317
▁gat	-14318
▁gon	-14319
▁lik	-14320
▁mal	-14321
▁mco	-14322
▁nai	-14323
▁nel	-14324
▁nov	-14325
▁now	-14326
▁nti	-14327
▁rat	-14328
▁ren	-14329
▁row	-14330
▁rst	-14331
▁sat	-14332
▁zer	-14333
▁АПС	-14334
▁АСИ	-14335
▁АдГ	-14336
▁Ани	-14337
▁Аня	-14338
▁БАН	-14339
▁Бут	-14340
▁ВАС	-14341
▁ВОБ	-14342
▁ВОГ	-14343
▁ГТО	-14344
▁ГТС	-14345
▁ЕКА	-14346
▁ЕЭК	-14347
▁Жак	-14348
▁ЗСД	-14349
▁КПК	-14350
▁Кем	-14351
▁Кот	-14352
▁Лет	-14353
▁МПА	-14354
▁МПП	-14355
▁НДД	-14356
▁НЭК	-14357
▁ОДК	-14358
▁ОИС	-14359
▁ОСС	-14360
▁ПИФ	-14361
▁РСК	-14362
▁Рим	-14363
▁САП	-14364
▁САУ	-14365
▁ССА	-14366
▁Сун	-14367
▁ТМА	-14368
▁ФКУ	-14369
▁ФПК	-14370
▁Ход	-14371
▁ЧВК	-14372
▁Шон	-14373
▁Эро	-14374
▁айв	-14375
▁арч	-14376
▁ася	-14377
▁бяк	-14378
▁вае	-14379
▁веж	-14380
▁вна	-14381
▁гап	-14382
▁гас	-14383
▁диз	-14384
▁дыш	-14385
▁ежк	-14386
▁зду	-14387
▁зил	-14388
▁ивз	-14389
▁кеп	-14390
▁кум	-14391
▁лда	-14392
▁лих	-14393
▁лус	-14394
▁лын	-14395
▁мав	-14396
▁нсу	-14397
▁нук	-14398
▁обн	-14399
▁омм	-14400
▁пущ	-14401
▁рну	-14402
▁ртю	-14403
▁сну	-14404
▁сук	-14405
▁убб	-14406
▁угс	-14407
▁уиш	-14408
▁умн	-14409
▁унж	-14410
▁унц	-14411
▁урю	-14412
▁ущо	-14413
▁фел	-14414
▁чич	-14415
▁чуй	-14416
▁чут	-14417
▁ьющ	-14418
▁ьяч	-14419
▁эйк	-14420
▁юин	-14421
▁юша	-14422
▁€10	-14423
▁Adva	-14424
▁Arch	-14425
▁Asia	-14426
▁Azur	-14427
▁CRIS	-14428
▁Dire	-14429
▁Dong	-14430
▁Four	-14431
▁Hell	-14432
▁ICTV	-14433
▁LADA	-14434
▁Mach	-14435
▁Mate	-14436
▁Merr	-14437
▁Mess	-14438
▁Mond	-14439
▁Pace	-14440
▁Peps	-14441
▁Qual	-14442
▁RFID	-14443
▁Rich	-14444
▁Seas	-14445
▁Shan	-14446
▁Spot	-14447
▁Spri	-14448
▁Stad	-14449
▁This	-14450
▁Thun	-14451
▁Vari	-14452
▁View	-14453
▁Vuit	-14454
▁Walt	-14455
▁Yeti	-14456
▁Zara	-14457
▁Zero	-14458
▁cope	-14459
▁copt	-14460
▁fond	-14461
▁garo	-14462
▁iles	-14463
▁inel	-14464
▁life	-14465
▁lock	-14466
▁mart	-14467
▁nect	-14468
▁stem	-14469
▁year	-14470
▁АзЭС	-14471
▁ВЭБу	-14472
▁ГЦСИ	-14473
▁КПВВ	-14474
▁МАКП	-14475
▁МКЖД	-14476
▁МТСБ	-14477
▁НАПФ	-14478
▁НИПИ	-14479
▁Поли	-14480
▁РОАД	-14481
▁РППС	-14482
▁СДПГ	-14483
▁ФИБА	-14484
▁ЦОДД	-14485
▁абор	-14486
▁авад	-14487
▁авес	-14488
▁агир	-14489
▁агут	-14490
▁адул	-14491
▁азад	-14492
▁азус	-14493
▁айли	-14494
▁акши	-14495
▁алаг	-14496
▁аляр	-14497
▁амут	-14498
▁анич	-14499
▁аной	-14500
▁апид	-14501
▁апир	-14502
▁апко	-14503
▁арая	-14504
▁арнс	-14505
▁арню	-14506
▁арра	-14507
▁асси	-14508
▁аств	-14509
▁атик	-14510
▁атим	-14511
▁атып	-14512
▁ауна	-14513
▁аунд	-14514
▁афар	-14515
▁ахит	-14516
▁ахот	-14517
▁ацал	-14518
▁ачет	-14519
▁бахе	-14520
▁борт	-14521
▁вайс	-14522
▁верь	-14523
▁винс	-14524
▁виса	-14525
▁вник	-14526
▁вств	-14527
▁гази	-14528
▁гаро	-14529
▁гато	-14530
▁гене	-14531
▁дили	-14532
▁думч	-14533
▁ебер	-14534
▁ебта	-14535
▁евад	-14536
▁ежут	-14537
▁ейси	-14538
▁ейте	-14539
▁еков	-14540
▁екон	-14541
▁елад	-14542
▁елал	-14543
▁елян	-14544
▁емот	-14545
▁енду	-14546
▁епот	-14547
▁ерфи	-14548
▁етта	-14549
▁заст	-14550
▁зинк	-14551
▁зори	-14552
▁ибик	-14553
▁ивэн	-14554
▁идус	-14555
▁ижам	-14556
▁ижан	-14557
▁изни	-14558
▁икбо	-14559
▁икос	-14560
▁ильд	-14561
▁ильс	-14562
▁имби	-14563
▁имбл	-14564
▁инге	-14565
▁инит	-14566
▁иньо	-14567
▁ипил	-14568
▁ирчи	-14569
▁исла	-14570
▁итре	-14571
▁ифом	-14572
▁ишев	-14573
▁каже	-14574
▁каут	-14575
▁киад	-14576
▁клет	-14577
▁кман	-14578
▁колы	-14579
▁лани	-14580
▁лдан	-14581
▁личи	-14582
▁лото	-14583
▁лтик	-14584
▁льти	-14585
▁морт	-14586
▁морф	-14587
▁мусс	-14588
▁мчук	-14589
▁ндир	-14590
▁нешн	-14591
▁нико	-14592
▁нмут	-14593
▁нота	-14594
▁нтре	-14595
▁нтян	-14596
▁обыл	-14597
▁одяч	-14598
▁ожью	-14599
▁озел	-14600
▁олид	-14601
▁олио	-14602
▁олли	-14603
▁олча	-14604
▁омаи	-14605
▁омод	-14606
▁омок	-14607
▁омот	-14608
▁онна	-14609
▁онье	-14610
▁опен	-14611
▁орхе	-14612
▁орян	-14613
▁остя	-14614
▁отье	-14615
▁плет	-14616
▁подр	-14617
▁поче	-14618
▁птил	-14619
▁пчук	-14620
▁рамм	-14621
▁рахо	-14622
▁рвен	-14623
▁рекр	-14624
▁рена	-14625
▁рень	-14626
▁ресе	-14627
▁ржев	-14628
▁ризи	-14629
▁рити	-14630
▁ромк	-14631
▁росы	-14632
▁рпер	-14633
▁ртин	-14634
▁ртир	-14635
▁ртыш	-14636
▁сест	-14637
▁сеял	-14638
▁скас	-14639
▁слас	-14640
▁смер	-14641
▁сочи	-14642
▁спар	-14643
▁ссон	-14644
▁стес	-14645
▁стру	-14646
▁тейл	-14647
▁тинц	-14648
▁титр	-14649
▁ткин	-14650
▁токс	-14651
▁томл	-14652
▁топт	-14653
▁траш	-14654
▁трив	-14655
▁троп	-14656
▁тушк	-14657
▁убит	-14658
▁убян	-14659
▁укал	-14660
▁улов	-14661
▁ульг	-14662
▁унин	-14663
▁учев	-14664
▁уэцк	-14665
▁фарм	-14666
▁форд	-14667
▁фтар	-14668
▁хенд	-14669
▁холм	-14670
▁хтин	-14671
▁чанк	-14672
▁ыжов	-14673
▁ызыл	-14674
▁ыква	-14675
▁ынев	-14676
▁эмпб	-14677
▁юлен	-14678
▁юрер	-14679
▁юрнб	-14680
▁юсон	-14681
▁юшен	-14682
▁ягут	-14683
▁ярис	-14684
▁Bosco	-14685
▁Bridg	-14686
▁Chall	-14687
▁Clear	-14688
▁Delta	-14689
▁Games	-14690
▁Gucci	-14691
▁Horiz	-14692
▁Linux	-14693
▁Musta	-14694
▁Plaza	-14695
▁Shutt	-14696
▁Trust	-14697
▁Wells	-14698
▁White	-14699
▁Wrang	-14700
▁ports	-14701
▁smart	-14702
▁tream	-14703
▁НДРЕЙ	-14704
▁аблин	-14705
▁айгин	-14706
▁айкоп	-14707
▁айман	-14708
▁аклаж	-14709
▁аллон	-14710
▁амник	-14711
▁аншин	-14712
▁арбек	-14713
▁арбор	-14714
▁аскин	-14715
▁астей	-14716
▁ахруш	-14717
▁ашеск	-14718
▁билен	-14719
▁брини	-14720
▁валир	-14721
▁вешан	-14722
▁виреп	-14723
▁вищев	-14724
▁вриат	-14725
▁гссон	-14726
▁гузов	-14727
▁дакшн	-14728
▁дство	-14729
▁едает	-14730
▁едели	-14731
▁ейкья	-14732
▁ейрут	-14733
▁еккер	-14734
▁еолок	-14735
▁епест	-14736
▁еркли	-14737
▁ерохо	-14738
▁еруан	-14739
▁етрен	-14740
▁замас	-14741
▁зимут	-14742
▁иаско	-14743
▁иггин	-14744
▁илиан	-14745
▁илкул	-14746
▁ингем	-14747
▁иргин	-14748
▁искин	-14749
▁иэйте	-14750
▁кален	-14751
▁калип	-14752
▁колов	-14753
▁конен	-14754
▁ксинг	-14755
▁кумен	-14756
▁лакин	-14757
▁летев	-14758
▁лтыми	-14759
▁люлоз	-14760
▁мазов	-14761
▁модзи	-14762
▁няжич	-14763
▁общил	-14764
▁ожжен	-14765
▁олбик	-14766
▁омбат	-14767
▁омолз	-14768
▁орица	-14769
▁ортун	-14770
▁отсон	-14771
▁пилил	-14772
▁рабов	-14773
▁рафан	-14774
▁рдьол	-14775
▁ротти	-14776
▁савье	-14777
▁ситуа	-14778
▁сктоп	-14779
▁стерс	-14780
▁тафор	-14781
▁темир	-14782
▁тоног	-14783
▁тырин	-14784
▁ублер	-14785
▁уклет	-14786
▁ульев	-14787
▁унгля	-14788
▁храни	-14789
▁черен	-14790
▁шесин	-14791
▁щагин	-14792
▁эймон	-14793
18	-14794
AC	-14795
GI	-14796
HS	-14797
OK	-14798
PP	-14799
TF	-14800
WF	-14801
pi	-14802
xo	-14803
АЛ	-14804
ДП	-14805
МП	-14806
НБ	-14807
ПТ	-14808
РФ	-14809
ХБ	-14810
ЫЙ	-14811
дс	-14812
жж	-14813
лу	-14814
фр	-14815
щр	-14816
эд	-14817
▁©	-14818
▁→	-14819
ath	-14820
enz	-14821
iem	-14822
mex	-14823
olt	-14824
ura	-14825
use	-14826
АМИ	-14827
БУЗ	-14828
СКН	-14829
ами	-14830
ард	-14831
важ	-14832
люк	-14833
моч	-14834
нах	-14835
нер	-14836
рин	-14837
рич	-14838
узе	-14839
унд	-14840
хед	-14841
цил	-14842
элл	-14843
энс	-14844
▁"4	-14845
▁("	-14846
▁(-	-14847
▁+3	-14848
▁-1	-14849
▁01	-14850
▁3;	-14851
▁AD	-14852
▁CD	-14853
▁CT	-14854
▁DE	-14855
▁EV	-14856
▁Et	-14857
▁FC	-14858
▁FE	-14859
▁FZ	-14860
▁LA	-14861
▁LE	-14862
▁MI	-14863
▁MM	-14864
▁NG	-14865
▁NI	-14866
▁QR	-14867
▁Qa	-14868
▁RO	-14869
▁SC	-14870
▁SX	-14871
▁Sl	-14872
▁Un	-14873
▁Va	-14874
▁Za	-14875
▁Zo	-14876
▁au	-14877
▁iz	-14878
▁ja	-14879
▁kz	-14880
▁qu	-14881
▁tv	-14882
▁ВЭ	-14883
▁Ву	-14884
▁Гб	-14885
▁ИД	-14886
▁ПГ	-14887
▁ПП	-14888
▁Пу	-14889
▁РМ	-14890
▁ЦУ	-14891
▁дГ	-14892
▁шп	-14893
▁яц	-14894
▁яш	-14895
ucks	-14896
борд	-14897
винг	-14898
окер	-14899
убер	-14900
▁$28	-14901
▁$36	-14902
▁(11	-14903
▁(60	-14904
▁0,4	-14905
▁124	-14906
▁13.	-14907
▁16.	-14908
▁161	-14909
▁17.	-14910
▁217	-14911
▁227	-14912
▁241	-14913
▁259	-14914
▁261	-14915
▁273	-14916
▁277	-14917
▁283	-14918
▁284	-14919
▁289	-14920
▁302	-14921
▁316	-14922
▁319	-14923
▁323	-14924
▁326	-14925
▁33,	-14926
▁351	-14927
▁352	-14928
▁353	-14929
▁387	-14930
▁499	-14931
▁570	-14932
▁5:1	-14933
▁60.	-14934
▁66%	-14935
▁77%	-14936
▁8,7	-14937
▁86%	-14938
▁9,9	-14939
▁999	-14940
▁ADS	-14941
▁Ang	-14942
▁Ant	-14943
▁BBB	-14944
▁BLP	-14945
▁Baz	-14946
▁Bir	-14947
▁CES	-14948
▁Civ	-14949
▁Cyg	-14950
▁Dev	-14951
▁Evo	-14952
▁FCA	-14953
▁FIS	-14954
▁Fer	-14955
▁GTE	-14956
▁Hyb	-14957
▁ISU	-14958
▁Key	-14959
▁Lib	-14960
▁MSQ	-14961
▁Mas	-14962
▁Mos	-14963
▁Now	-14964
▁Oly	-14965
▁PRO	-14966
▁Pop	-14967
▁RBS	-14968
▁Rat	-14969
▁Sco	-14970
▁Sha	-14971
▁Sty	-14972
▁URA	-14973
▁VPN	-14974
▁Vel	-14975
▁WWD	-14976
▁aar	-14977
▁bla	-14978
▁bot	-14979
▁cht	-14980
▁dev	-14981
▁ene	-14982
▁ern	-14983
▁ero	-14984
▁ets	-14985
▁fly	-14986
▁gie	-14987
▁had	-14988
▁has	-14989
▁ime	-14990
▁int	-14991
▁kAl	-14992
▁lev	-14993
▁lts	-14994
▁mag	-14995
▁mes	-14996
▁mil	-14997
▁mos	-14998
▁nad	-14999
▁ont	-15000
▁ped	-15001
▁rew	-15002
▁str	-15003
▁tur	-15004
▁web	-15005
▁you	-15006
▁ААФ	-15007
▁БАД	-15008
▁БИН	-15009
▁БЭС	-15010
▁ВИП	-15011
▁ГДР	-15012
▁ГМК	-15013
▁ГУМ	-15014
▁Гай	-15015
▁Дни	-15016
▁Дух	-15017
▁Ева	-15018
▁ИИС	-15019
▁КИО	-15020
▁КРС	-15021
▁Лук	-15022
▁МАУ	-15023
▁МГц	-15024
▁МИА	-15025
▁МКД	-15026
▁МОМ	-15027
▁МПС	-15028
▁НЛО	-15029
▁ОТР	-15030
▁Оля	-15031
▁ПВР	-15032
▁ПЗЗ	-15033
▁ПТУ	-15034
▁РГС	-15035
▁РЭЦ	-15036
▁СМП	-15037
▁СТО	-15038
▁СФО	-15039
▁УЛЬ	-15040
▁ФИО	-15041
▁Фил	-15042
▁ЦДХ	-15043
▁ЦОС	-15044
▁ЧОП	-15045
▁аер	-15046
▁азл	-15047
▁аму	-15048
▁арв	-15049
▁ача	-15050
▁бля	-15051
▁бюр	-15052
▁вхо	-15053
▁дре	-15054
▁дул	-15055
▁ейч	-15056
▁емя	-15057
▁етл	-15058
▁жон	-15059
▁жун	-15060
▁жэн	-15061
▁зик	-15062
▁зла	-15063
▁зре	-15064
▁игм	-15065
▁ижи	-15066
▁ижу	-15067
▁имр	-15068
▁инж	-15069
▁инх	-15070
▁ипи	-15071
▁итц	-15072
▁йда	-15073
▁каш	-15074
▁кдэ	-15075
▁лба	-15076
▁лел	-15077
▁лоч	-15078
▁луп	-15079
▁мач	-15080
▁мип	-15081
▁мия	-15082
▁оуб	-15083
▁оуд	-15084
▁ошт	-15085
▁пив	-15086
▁пиф	-15087
▁пур	-15088
▁рны	-15089
▁ряп	-15090
▁стм	-15091
▁тад	-15092
▁тач	-15093
▁тош	-15094
▁убр	-15095
▁удр	-15096
▁ужи	-15097
▁уло	-15098
▁хад	-15099
▁хив	-15100
▁цки	-15101
▁ыбк	-15102
▁ыма	-15103
▁ыня	-15104
▁ырь	-15105
▁эйг	-15106
▁энт	-15107
▁эст	-15108
▁юрк	-15109
▁юсю	-15110
▁ятв	-15111
▁Call	-15112
▁Coff	-15113
▁East	-15114
▁Eure	-15115
▁Gart	-15116
▁Hilt	-15117
▁Huff	-15118
▁Inte	-15119
▁LIGO	-15120
▁Maps	-15121
▁Morn	-15122
▁Nest	-15123
▁Pers	-15124
▁Pose	-15125
▁Pres	-15126
▁Robo	-15127
▁Rott	-15128
▁Siem	-15129
▁Skys	-15130
▁Walk	-15131
▁Weal	-15132
▁ceed	-15133
▁ford	-15134
▁furt	-15135
▁hire	-15136
▁lear	-15137
▁leum	-15138
▁look	-15139
▁mist	-15140
▁site	-15141
▁sity	-15142
▁tant	-15143
▁tect	-15144
▁tian	-15145
▁time	-15146
▁tran	-15147
▁ГСЧС	-15148
▁НМТП	-15149
▁ПТРК	-15150
▁РАМН	-15151
▁СЗФО	-15152
▁ФСБР	-15153
▁абил	-15154
▁авир	-15155
▁азыв	-15156
▁азэл	-15157
▁айдо	-15158
▁алас	-15159
▁алих	-15160
▁аляп	-15161
▁амол	-15162
▁анга	-15163
▁анса	-15164
▁апоч	-15165
▁арид	-15166
▁арст	-15167
▁асек	-15168
▁ауни	-15169
▁аура	-15170
▁ахар	-15171
▁ахра	-15172
▁ашил	-15173
▁ашир	-15174
▁басс	-15175
▁бейн	-15176
▁бекк	-15177
▁бьют	-15178
▁вагу	-15179
▁вайр	-15180
▁вицк	-15181
▁вище	-15182
▁вожа	-15183
▁врам	-15184
▁глад	-15185
▁грен	-15186
▁грим	-15187
▁даун	-15188
▁джер	-15189
▁диен	-15190
▁дном	-15191
▁допо	-15192
▁дрис	-15193
▁дчук	-15194
▁егас	-15195
▁ежад	-15196
▁ежес	-15197
▁ейна	-15198
▁ейни	-15199
▁екал	-15200
▁елив	-15201
▁ельм	-15202
▁елью	-15203
▁енив	-15204
▁ениц	-15205
▁ереп	-15206
▁ерла	-15207
▁ерте	-15208
▁етаг	-15209
▁етхи	-15210
▁ехре	-15211
▁журн	-15212
▁заде	-15213
▁зали	-15214
▁зиев	-15215
▁зощр	-15216
▁ибис	-15217
▁ибул	-15218
▁иган	-15219
▁идал	-15220
▁изат	-15221
▁илал	-15222
▁илев	-15223
▁иллы	-15224
▁ингз	-15225
▁иняк	-15226
▁инян	-15227
▁ипов	-15228
▁ирзо	-15229
▁ирча	-15230
▁исин	-15231
▁исон	-15232
▁ития	-15233
▁итни	-15234
▁ифат	-15235
▁иццу	-15236
▁ишни	-15237
▁йрат	-15238
▁йрес	-15239
▁клас	-15240
▁клер	-15241
▁креш	-15242
▁лейн	-15243
▁ллан	-15244
▁ллио	-15245
▁лнах	-15246
▁лучи	-15247
▁лыва	-15248
▁льны	-15249
▁минг	-15250
▁мутр	-15251
▁мфет	-15252
▁нато	-15253
▁ндел	-15254
▁ндик	-15255
▁ниве	-15256
▁окса	-15257
▁олей	-15258
▁омом	-15259
▁онад	-15260
▁ортк	-15261
▁осби	-15262
▁осой	-15263
▁офьи	-15264
▁палл	-15265
▁паре	-15266
▁пачк	-15267
▁позв	-15268
▁пьев	-15269
▁рбон	-15270
▁рдан	-15271
▁рион	-15272
▁рить	-15273
▁рмал	-15274
▁ртег	-15275
▁ртюх	-15276
▁руха	-15277
▁ряпк	-15278
▁сева	-15279
▁скоп	-15280
▁скры	-15281
▁согл	-15282
▁соль	-15283
▁стом	-15284
▁стуж	-15285
▁стцы	-15286
▁суха	-15287
▁теже	-15288
▁терж	-15289
▁терз	-15290
▁тман	-15291
▁торк	-15292
▁тошн	-15293
▁трам	-15294
▁трян	-15295
▁увре	-15296
▁уган	-15297
▁укки	-15298
▁улев	-15299
▁улер	-15300
▁ульф	-15301
▁умбы	-15302
▁умпо	-15303
▁утях	-15304
▁ушер	-15305
▁фалк	-15306
▁ффон	-15307
▁хган	-15308
▁цени	-15309
▁чали	-15310
▁чжэн	-15311
▁чиев	-15312
▁чусь	-15313
▁щица	-15314
▁ывет	-15315
▁ыжик	-15316
▁ыкву	-15317
▁ышов	-15318
▁югге	-15319
▁юшни	-15320
▁Chemi	-15321
▁Child	-15322
▁Coupe	-15323
▁Delfi	-15324
▁Engie	-15325
▁Freed	-15326
▁Globe	-15327
▁Herme	-15328
▁Medic	-15329
▁Metro	-15330
▁Neuro	-15331
▁Pemex	-15332
▁Peris	-15333
▁Prada	-15334
▁Preda	-15335
▁Price	-15336
▁Prius	-15337
▁Quest	-15338
▁Speed	-15339
▁Suedd	-15340
▁Touar	-15341
▁bucks	-15342
▁lorer	-15343
▁micro	-15344
▁scien	-15345
▁trial	-15346
▁tries	-15347
▁УФСКН	-15348
▁авный	-15349
▁айгер	-15350
▁айрат	-15351
▁алага	-15352
▁альке	-15353
▁амбур	-15354
▁андит	-15355
▁аннис	-15356
▁апиро	-15357
▁армпр	-15358
▁артен	-15359
▁асенс	-15360
▁атсон	-15361
▁аулер	-15362
▁ахома	-15363
▁ацлав	-15364
▁аштет	-15365
▁волик	-15366
▁вчарк	-15367
▁гаван	-15368
▁гемпт	-15369
▁грева	-15370
▁еглин	-15371
▁ейден	-15372
▁ейсон	-15373
▁екман	-15374
▁еншик	-15375
▁еньев	-15376
▁еренк	-15377
▁ерифа	-15378
▁ертел	-15379
▁естри	-15380
▁еттел	-15381
▁жевен	-15382
▁зерог	-15383
▁зывал	-15384
▁ивней	-15385
▁игеса	-15386
▁икинг	-15387
▁икини	-15388
▁иминг	-15389
▁инген	-15390
▁индси	-15391
▁инкев	-15392
▁инчик	-15393
▁ирлан	-15394
▁исипи	-15395
▁ичвар	-15396
▁ишени	-15397
▁колон	-15398
▁котин	-15399
▁кулов	-15400
▁лабан	-15401
▁лборд	-15402
▁леток	-15403
▁льмар	-15404
▁мажор	-15405
▁маран	-15406
▁матор	-15407
▁мельц	-15408
▁мерга	-15409
▁ммерс	-15410
▁нимки	-15411
▁нипов	-15412
▁ницын	-15413
▁овчев	-15414
▁овшан	-15415
▁онсал	-15416
▁ордаш	-15417
▁ордеа	-15418
▁ортик	-15419
▁орфян	-15420
▁орчич	-15421
▁пилен	-15422
▁ранье	-15423
▁расев	-15424
▁ропри	-15425
▁серов	-15426
▁траги	-15427
▁триум	-15428
▁трица	-15429
▁укшин	-15430
▁урант	-15431
▁уфман	-15432
▁ффало	-15433
▁хэтте	-15434
▁чанин	-15435
▁чехра	-15436
▁шению	-15437
▁шеньк	-15438
▁эйлин	-15439
▁эйчел	-15440
▁эндон	-15441
.4	-15442
/3	-15443
:7	-15444
LT	-15445
SF	-15446
SI	-15447
UB	-15448
ws	-15449
yd	-15450
Ее	-15451
ЖС	-15452
ИЯ	-15453
Их	-15454
Ла	-15455
НО	-15456
ОУ	-15457
ХП	-15458
бк	-15459
иФ	-15460
иш	-15461
су	-15462
▁ü	-15463
▁́	-15464
▁‒	-15465
Bev	-15466
INI	-15467
ame	-15468
ary	-15469
ows	-15470
ray	-15471
uer	-15472
uth	-15473
yph	-15474
ИСО	-15475
НКИ	-15476
арс	-15477
атл	-15478
гом	-15479
зод	-15480
кас	-15481
лад	-15482
лье	-15483
оке	-15484
осн	-15485
оте	-15486
отт	-15487
рид	-15488
фен	-15489
хал	-15490
шеч	-15491
шов	-15492
щик	-15493
▁"9	-15494
▁-2	-15495
▁0%	-15496
▁0.	-15497
▁07	-15498
▁7)	-15499
▁BG	-15500
▁BV	-15501
▁CV	-15502
▁DI	-15503
▁DO	-15504
▁DT	-15505
▁GP	-15506
▁GQ	-15507
▁IM	-15508
▁Il	-15509
▁JB	-15510
▁MC	-15511
▁MG	-15512
▁MO	-15513
▁NO	-15514
▁NX	-15515
▁ON	-15516
▁Of	-15517
▁Ol	-15518
▁Ov	-15519
▁PL	-15520
▁QX	-15521
▁RB	-15522
▁UN	-15523
▁WO	-15524
▁cl	-15525
▁ec	-15526
▁fe	-15527
▁fy	-15528
▁iq	-15529
▁ix	-15530
▁ju	-15531
▁mk	-15532
▁pt	-15533
▁БР	-15534
▁ГВ	-15535
▁ДУ	-15536
▁ЕА	-15537
▁ИФ	-15538
▁КГ	-15539
▁КЦ	-15540
▁ЛЬ	-15541
▁МЗ	-15542
▁ОШ	-15543
▁ТИ	-15544
▁ФЕ	-15545
▁ЦА	-15546
▁Чо	-15547
▁ЮЗ	-15548
▁ръ	-15549
▁юп	-15550
▁яо	-15551
AFTA	-15552
edes	-15553
esti	-15554
isco	-15555
mira	-15556
orod	-15557
▁"28	-15558
▁$41	-15559
▁$43	-15560
▁(27	-15561
▁(45	-15562
▁0:4	-15563
▁1,0	-15564
▁1-3	-15565
▁14,	-15566
▁143	-15567
▁177	-15568
▁1:4	-15569
▁1⁄2	-15570
▁203	-15571
▁23.	-15572
▁231	-15573
▁244	-15574
▁254	-15575
▁266	-15576
▁279	-15577
▁288	-15578
▁296	-15579
▁3,0	-15580
▁312	-15581
▁313	-15582
▁322	-15583
▁335	-15584
▁338	-15585
▁342	-15586
▁344	-15587
▁345	-15588
▁35,	-15589
▁362	-15590
▁364	-15591
▁372	-15592
▁385	-15593
▁389	-15594
▁391	-15595
▁412	-15596
▁419	-15597
▁43,	-15598
▁45.	-15599
▁458	-15600
▁463	-15601
▁4:3	-15602
▁510	-15603
▁55,	-15604
▁551	-15605
▁560	-15606
▁5:0	-15607
▁680	-15608
▁6:7	-15609
▁72%	-15610
▁730	-15611
▁78%	-15612
▁8%,	-15613
▁8,9	-15614
▁860	-15615
▁93%	-15616
▁980	-15617
▁ABS	-15618
▁AFI	-15619
▁Aft	-15620
▁BND	-15621
▁Bit	-15622
▁Bom	-15623
▁Bow	-15624
▁Boy	-15625
▁Bud	-15626
▁CNG	-15627
▁Coo	-15628
▁Dac	-15629
▁Dut	-15630
▁Ech	-15631
▁Eni	-15632
▁Est	-15633
▁Ger	-15634
▁Gri	-15635
▁Hen	-15636
▁IMA	-15637
▁IPC	-15638
▁Imp	-15639
▁JLL	-15640
▁MDK	-15641
▁MIP	-15642
▁MQB	-15643
▁Not	-15644
▁Rai	-15645
▁Rap	-15646
▁SAP	-15647
▁Saf	-15648
▁THE	-15649
▁TVN	-15650
▁Tab	-15651
▁Tet	-15652
▁Tex	-15653
▁UCP	-15654
▁YPG	-15655
▁ala	-15656
▁als	-15657
▁ana	-15658
▁ast	-15659
▁bia	-15660
▁bro	-15661
▁but	-15662
▁ded	-15663
▁del	-15664
▁deo	-15665
▁doc	-15666
▁gre	-15667
▁ich	-15668
▁icy	-15669
▁ide	-15670
▁iva	-15671
▁lan	-15672
▁nds	-15673
▁nit	-15674
▁oli	-15675
▁put	-15676
▁rge	-15677
▁rio	-15678
▁rum	-15679
▁sit	-15680
▁sso	-15681
▁sts	-15682
▁tag	-15683
▁top	-15684
▁tro	-15685
▁une	-15686
▁ven	-15687
▁via	-15688
▁win	-15689
▁АКС	-15690
▁АНК	-15691
▁БАР	-15692
▁Бри	-15693
▁ВКБ	-15694
▁ВСС	-15695
▁ВФП	-15696
▁Дод	-15697
▁ЕТС	-15698
▁Ибо	-15699
▁КАД	-15700
▁КАО	-15701
▁КАР	-15702
▁КБМ	-15703
▁КФУ	-15704
▁Мик	-15705
▁НАО	-15706
▁НИС	-15707
▁НИЦ	-15708
▁ОВК	-15709
▁ОДН	-15710
▁ОКа	-15711
▁Обо	-15712
▁РКЦ	-15713
▁РЭУ	-15714
▁СКБ	-15715
▁ТКО	-15716
▁ТОФ	-15717
▁ТрВ	-15718
▁УДН	-15719
▁УЛА	-15720
▁ФГБ	-15721
▁ФОК	-15722
▁ХСС	-15723
▁Хен	-15724
▁Ына	-15725
▁ЭКа	-15726
▁ЮВО	-15727
▁Янг	-15728
▁Яны	-15729
▁аас	-15730
▁абк	-15731
▁авс	-15732
▁айр	-15733
▁арз	-15734
▁асо	-15735
▁бис	-15736
▁ваи	-15737
▁дуб	-15738
▁дюр	-15739
▁дян	-15740
▁еей	-15741
▁жав	-15742
▁жао	-15743
▁ижо	-15744
▁иин	-15745
▁ифм	-15746
▁ихе	-15747
▁йяф	-15748
▁кев	-15749
▁кок	-15750
▁лбр	-15751
▁лки	-15752
▁лоп	-15753
▁мад	-15754
▁мко	-15755
▁мук	-15756
▁муч	-15757
▁нун	-15758
▁нфо	-15759
▁нцу	-15760
▁оао	-15761
▁одз	-15762
▁одт	-15763
▁орз	-15764
▁орц	-15765
▁орщ	-15766
▁отт	-15767
▁оут	-15768
▁пук	-15769
▁риц	-15770
▁сои	-15771
▁твл	-15772
▁тпр	-15773
▁тюш	-15774
▁тяг	-15775
▁узя	-15776
▁умк	-15777
▁ухл	-15778
▁уху	-15779
▁фан	-15780
▁фен	-15781
▁чад	-15782
▁чни	-15783
▁чун	-15784
▁шае	-15785
▁шуч	-15786
▁ыме	-15787
▁ыря	-15788
▁ьел	-15789
▁юза	-15790
▁язн	-15791
▁яхт	-15792
▁€15	-15793
▁ABBA	-15794
▁Avia	-15795
▁Batt	-15796
▁Best	-15797
▁Brit	-15798
▁Cart	-15799
▁Cham	-15800
▁Cine	-15801
▁Conv	-15802
▁Desi	-15803
▁Down	-15804
▁Dyna	-15805
▁Edge	-15806
▁Elli	-15807
▁Esta	-15808
▁Feed	-15809
▁Fies	-15810
▁Gior	-15811
▁Glor	-15812
▁Happ	-15813
▁MINI	-15814
▁MVNO	-15815
▁Mira	-15816
▁Mode	-15817
▁Orig	-15818
▁Paci	-15819
▁Pepp	-15820
▁Prin	-15821
▁Pris	-15822
▁Riot	-15823
▁Road	-15824
▁Ross	-15825
▁Sher	-15826
▁Ship	-15827
▁Silv	-15828
▁Snow	-15829
▁Thom	-15830
▁Toma	-15831
▁Typh	-15832
▁UKIP	-15833
▁Vine	-15834
▁Wave	-15835
▁Wing	-15836
▁Xray	-15837
▁bard	-15838
▁blat	-15839
▁eine	-15840
▁fash	-15841
▁feng	-15842
▁glob	-15843
▁have	-15844
▁idon	-15845
▁jour	-15846
▁kiev	-15847
▁made	-15848
▁mast	-15849
▁mini	-15850
▁more	-15851
▁mous	-15852
▁mpia	-15853
▁part	-15854
▁rgus	-15855
▁room	-15856
▁stan	-15857
▁toes	-15858
▁ttle	-15859
▁week	-15860
▁wide	-15861
▁wing	-15862
▁АМАС	-15863
▁БЭСП	-15864
▁ЕНВД	-15865
▁КОРТ	-15866
▁ММРП	-15867
▁НАМИ	-15868
▁ПАОК	-15869
▁УЛЬТ	-15870
▁УрФУ	-15871
▁ЧАЭС	-15872
▁абаб	-15873
▁абах	-15874
▁абун	-15875
▁авис	-15876
▁авоч	-15877
▁агис	-15878
▁аджа	-15879
▁аджи	-15880
▁адюк	-15881
▁азир	-15882
▁айма	-15883
▁айом	-15884
▁алко	-15885
▁алун	-15886
▁амне	-15887
▁амра	-15888
▁анап	-15889
▁андо	-15890
▁анду	-15891
▁анни	-15892
▁анча	-15893
▁апро	-15894
▁армо	-15895
▁арне	-15896
▁арош	-15897
▁арян	-15898
▁асеч	-15899
▁асне	-15900
▁асок	-15901
▁атки	-15902
▁атхо	-15903
▁ауне	-15904
▁ауст	-15905
▁ахна	-15906
▁ахту	-15907
▁ацар	-15908
▁ачут	-15909
▁бацк	-15910
▁бдра	-15911
▁васк	-15912
▁вато	-15913
▁вень	-15914
▁веню	-15915
▁вилз	-15916
▁виты	-15917
▁гада	-15918
▁гери	-15919
▁горт	-15920
▁денн	-15921
▁дубн	-15922
▁дува	-15923
▁дъег	-15924
▁евак	-15925
▁евел	-15926
▁едос	-15927
▁едуе	-15928
▁ейду	-15929
▁ейко	-15930
▁ейнд	-15931
▁ейнс	-15932
▁ейфа	-15933
▁ейфе	-15934
▁ейца	-15935
▁елес	-15936
▁елчн	-15937
▁ельт	-15938
▁енев	-15939
▁енен	-15940
▁ентл	-15941
▁епан	-15942
▁ерат	-15943
▁ерей	-15944
▁ерже	-15945
▁ерзо	-15946
▁ерит	-15947
▁ерце	-15948
▁ерши	-15949
▁есун	-15950
▁етир	-15951
▁етка	-15952
▁ехди	-15953
▁ехол	-15954
▁збек	-15955
▁звен	-15956
▁звес	-15957
▁зден	-15958
▁зерт	-15959
▁зтех	-15960
▁ианн	-15961
▁ивин	-15962
▁игне	-15963
▁игор	-15964
▁игсб	-15965
▁идзо	-15966
▁иете	-15967
▁изун	-15968
▁икки	-15969
▁икюр	-15970
▁илем	-15971
▁имак	-15972
▁инас	-15973
▁ингр	-15974
▁иног	-15975
▁иноп	-15976
▁инфо	-15977
▁ипел	-15978
▁ирак	-15979
▁ирев	-15980
▁исер	-15981
▁исиц	-15982
▁исой	-15983
▁исть	-15984
▁итко	-15985
▁ичек	-15986
▁ишок	-15987
▁йфел	-15988
▁каял	-15989
▁киап	-15990
▁клан	-15991
▁клян	-15992
▁кмал	-15993
▁ковы	-15994
▁комк	-15995
▁копч	-15996
▁кошк	-15997
▁крап	-15998
▁крос	-15999
▁лита	-16000
▁лузк	-16001
▁лфин	-16002
▁лчак	-16003
▁льди	-16004
▁льпы	-16005
▁мари	-16006
▁маха	-16007
▁мевш	-16008
▁мейн	-16009
▁мека	-16010
▁месл	-16011
▁миев	-16012
▁минс	-16013
▁мири	-16014
▁могл	-16015
▁мунд	-16016
▁мьен	-16017
▁нбар	-16018
▁нгаз	-16019
▁ндау	-16020
▁неев	-16021
▁ненк	-16022
▁нетт	-16023
▁нехт	-16024
▁нешь	-16025
▁никс	-16026
▁нкул	-16027
▁нцел	-16028
▁няев	-16029
▁овец	-16030
▁огул	-16031
▁ожав	-16032
▁оксу	-16033
▁омах	-16034
▁онар	-16035
▁онга	-16036
▁оноп	-16037
▁онут	-16038
▁опод	-16039
▁опья	-16040
▁орге	-16041
▁ортл	-16042
▁орче	-16043
▁орчу	-16044
▁осте	-16045
▁отир	-16046
▁ощав	-16047
▁пайк	-16048
▁палк	-16049
▁пели	-16050
▁перм	-16051
▁пива	-16052
▁плес	-16053
▁ппер	-16054
▁рбен	-16055
▁рдас	-16056
▁рдон	-16057
▁ржан	-16058
▁ркун	-16059
▁рнос	-16060
▁рогн	-16061
▁руан	-16062
▁рьял	-16063
▁свер	-16064
▁сенк	-16065
▁септ	-16066
▁стын	-16067
▁стян	-16068
▁таил	-16069
▁теги	-16070
▁терв	-16071
▁топи	-16072
▁трац	-16073
▁триг	-16074
▁ттон	-16075
▁увин	-16076
▁угур	-16077
▁узер	-16078
▁узик	-16079
▁укин	-16080
▁улиа	-16081
▁улил	-16082
▁улом	-16083
▁ульк	-16084
▁улья	-16085
▁умел	-16086
▁унея	-16087
▁усан	-16088
▁усен	-16089
▁усты	-16090
▁учук	-16091
▁фали	-16092
▁ферн	-16093
▁фрин	-16094
▁фрут	-16095
▁хлед	-16096
▁хмут	-16097
▁хрон	-16098
▁церк	-16099
▁чело	-16100
▁шира	-16101
▁шчак	-16102
▁ычев	-16103
▁ьянк	-16104
▁эйдж	-16105
▁энкс	-16106
▁эрон	-16107
▁юнер	-16108
▁юшев	-16109
▁Aedes	-16110
▁Astro	-16111
▁Brown	-16112
▁Chase	-16113
▁Cisco	-16114
▁Cloud	-16115
▁David	-16116
▁Emerg	-16117
▁Emira	-16118
▁Front	-16119
▁InBev	-16120
▁Monde	-16121
▁Phili	-16122
▁Queen	-16123
▁Solut	-16124
▁Steel	-16125
▁Young	-16126
▁space	-16127
▁truct	-16128
▁УГИСО	-16129
▁аздел	-16130
▁азира	-16131
▁акаев	-16132
▁акуст	-16133
▁алайк	-16134
▁аллен	-16135
▁ангал	-16136
▁андат	-16137
▁анджи	-16138
▁анчак	-16139
▁апочк	-16140
▁апсан	-16141
▁аргон	-16142
▁арщев	-16143
▁афосн	-16144
▁балов	-16145
▁валин	-16146
▁варца	-16147
▁вилов	-16148
▁гафон	-16149
▁гилов	-16150
▁грави	-16151
▁депут	-16152
▁детон	-16153
▁дневк	-16154
▁дства	-16155
▁думыв	-16156
▁дюжин	-16157
▁ейтер	-16158
▁ексит	-16159
▁еннон	-16160
▁енчич	-16161
▁ептун	-16162
▁еранс	-16163
▁ернат	-16164
▁ерцов	-16165
▁ествл	-16166
▁ефано	-16167
▁земья	-16168
▁ианин	-16169
▁ивьер	-16170
▁иггер	-16171
▁иелит	-16172
▁икент	-16173
▁исхан	-16174
▁итрюш	-16175
▁ишлен	-16176
▁катыв	-16177
▁клеен	-16178
▁клетк	-16179
▁коран	-16180
▁кунев	-16181
▁лабуг	-16182
▁лазиз	-16183
▁лафит	-16184
▁летят	-16185
▁личек	-16186
▁ллига	-16187
▁львер	-16188
▁мавир	-16189
▁марат	-16190
▁муниц	-16191
▁нисхо	-16192
▁нисян	-16193
▁нован	-16194
▁номов	-16195
▁обеща	-16196
▁огмат	-16197
▁олдин	-16198
▁олкин	-16199
▁олман	-16200
▁олома	-16201
▁олтан	-16202
▁олчат	-16203
▁омбик	-16204
▁онтар	-16205
▁ормаж	-16206
▁оррис	-16207
▁ортеж	-16208
▁остот	-16209
▁отеск	-16210
▁пархи	-16211
▁пелле	-16212
▁перли	-16213
▁плант	-16214
▁поним	-16215
▁ппоро	-16216
▁рации	-16217
▁рберт	-16218
▁риген	-16219
▁сениц	-16220
▁скопи	-16221
▁сслед	-16222
▁стриц	-16223
▁терос	-16224
▁тираш	-16225
▁токов	-16226
▁точен	-16227
▁траци	-16228
▁трейд	-16229
▁тыгин	-16230
▁уббот	-16231
▁убров	-16232
▁увшин	-16233
▁улочк	-16234
▁ундер	-16235
▁унжут	-16236
▁ункан	-16237
▁урчак	-16238
▁фамил	-16239
▁ффетт	-16240
▁ффорд	-16241
▁холме	-16242
▁хэмом	-16243
▁ычвар	-16244
▁ьюзан	-16245
▁ьямин	-16246
▁эйвен	-16247
▁эньчж	-16248
6.	-16249
CO	-16250
GA	-16251
HF	-16252
RI	-16253
RK	-16254
WC	-16255
af	-16256
ef	-16257
hl	-16258
oT	-16259
zy	-16260
БВ	-16261
ИГ	-16262
Ив	-16263
ЛИ	-16264
НД	-16265
НЦ	-16266
ПГ	-16267
ТД	-16268
ТЕ	-16269
ЦР	-16270
ЭИ	-16271
ЮЗ	-16272
ач	-16273
гд	-16274
ио	-16275
йе	-16276
оя	-16277
пч	-16278
хл	-16279
чу	-16280
эс	-16281
юж	-16282
юй	-16283
▁è	-16284
EAT	-16285
aby	-16286
ans	-16287
asy	-16288
avy	-16289
car	-16290
els	-16291
esh	-16292
ewl	-16293
fan	-16294
idu	-16295
itt	-16296
orn	-16297
ouy	-16298
ria	-16299
uma	-16300
uze	-16301
ИЗО	-16302
НКО	-16303
ОВД	-16304
РГО	-16305
ФАП	-16306
аме	-16307
ань	-16308
ацк	-16309
бет	-16310
дун	-16311
еси	-16312
жио	-16313
иас	-16314
лач	-16315
лес	-16316
лоб	-16317
нил	-16318
оро	-16319
роз	-16320
рой	-16321
рот	-16322
сен	-16323
тол	-16324
фил	-16325
фин	-16326
чич	-16327
чов	-16328
энн	-16329
▁BA	-16330
▁BI	-16331
▁BR	-16332
▁BT	-16333
▁CB	-16334
▁CG	-16335
▁Ce	-16336
▁EA	-16337
▁Ea	-16338
▁Ey	-16339
▁HP	-16340
▁KA	-16341
▁MR	-16342
▁NL	-16343
▁NN	-16344
▁Oy	-16345
▁QS	-16346
▁RQ	-16347
▁SH	-16348
▁SV	-16349
▁TI	-16350
▁TS	-16351
▁Tu	-16352
▁Uz	-16353
▁VC	-16354
▁WE	-16355
▁Ya	-16356
▁ap	-16357
▁ci	-16358
▁gm	-16359
▁lm	-16360
▁ns	-16361
▁od	-16362
▁og	-16363
▁ps	-16364
▁tb	-16365
▁uk	-16366
▁wo	-16367
▁zy	-16368
▁АА	-16369
▁ВЦ	-16370
▁ГТ	-16371
▁ДО	-16372
▁Ею	-16373
▁МБ	-16374
▁МЮ	-16375
▁НФ	-16376
▁Ой	-16377
▁ТН	-16378
▁ФТ	-16379
▁ЦП	-16380
▁Цу	-16381
▁ЧК	-16382
▁ді	-16383
▁йе	-16384
▁ьо	-16385
▁эв	-16386
▁юв	-16387
▁€7	-16388
cean	-16389
ussy	-16390
utel	-16391
блум	-16392
дома	-16393
слер	-16394
▁"12	-16395
▁$65	-16396
▁10;	-16397
▁164	-16398
▁2).	-16399
▁253	-16400
▁255	-16401
▁307	-16402
▁321	-16403
▁324	-16404
▁327	-16405
▁339	-16406
▁354	-16407
▁355	-16408
▁368	-16409
▁38,	-16410
▁388	-16411
▁39,	-16412
▁393	-16413
▁396	-16414
▁402	-16415
▁408	-16416
▁410	-16417
▁413	-16418
▁414	-16419
▁418	-16420
▁454	-16421
▁469	-16422
▁47.	-16423
▁4:0	-16424
▁5-8	-16425
▁528	-16426
▁529	-16427
▁577	-16428
▁5:2	-16429
▁60,	-16430
▁61%	-16431
▁64.	-16432
▁65.	-16433
▁69%	-16434
▁6:0	-16435
▁73%	-16436
▁740	-16437
▁749	-16438
▁770	-16439
▁8,1	-16440
▁API	-16441
▁ARM	-16442
▁Adv	-16443
▁Ban	-16444
▁Bei	-16445
▁Blo	-16446
▁Cir	-16447
▁Cla	-16448
▁Dep	-16449
▁Dou	-16450
▁ESA	-16451
▁Eri	-16452
▁Ext	-16453
▁FIA	-16454
▁FOM	-16455
▁Fab	-16456
▁GMP	-16457
▁Hay	-16458
▁Hür	-16459
▁IBO	-16460
▁IWF	-16461
▁Ice	-16462
▁Ips	-16463
▁Job	-16464
▁Law	-16465
▁MMA	-16466
▁Mul	-16467
▁NME	-16468
▁PDV	-16469
▁PSA	-16470
▁Pen	-16471
▁Pfi	-16472
▁Phi	-16473
▁Pia	-16474
▁Pis	-16475
▁Rol	-16476
▁Ros	-16477
▁SPO	-16478
▁Sho	-16479
▁Sor	-16480
▁TGO	-16481
▁TVP	-16482
▁Ten	-16483
▁UCI	-16484
▁UTC	-16485
▁Via	-16486
▁Way	-16487
▁adi	-16488
▁aly	-16489
▁ane	-16490
▁app	-16491
▁arm	-16492
▁att	-16493
▁bor	-16494
▁cas	-16495
▁dan	-16496
▁dex	-16497
▁ead	-16498
▁erz	-16499
▁ext	-16500
▁gam	-16501
▁hal	-16502
▁het	-16503
▁him	-16504
▁hip	-16505
▁htm	-16506
▁iCo	-16507
▁inc	-16508
▁ino	-16509
▁kor	-16510
▁lab	-16511
▁lar	-16512
▁lip	-16513
▁low	-16514
▁lut	-16515
▁lux	-16516
▁mas	-16517
▁neo	-16518
▁nko	-16519
▁oid	-16520
▁ond	-16521
▁oni	-16522
▁ora	-16523
▁ori	-16524
▁ott	-16525
▁pan	-16526
▁ran	-16527
▁ros	-16528
▁sin	-16529
▁ska	-16530
▁sms	-16531
▁ssa	-16532
▁tas	-16533
▁tax	-16534
▁una	-16535
▁vie	-16536
▁АМТ	-16537
▁Арт	-16538
▁Аун	-16539
▁БАМ	-16540
▁ВИЭ	-16541
▁ВРП	-16542
▁ВСК	-16543
▁Вон	-16544
▁ГВП	-16545
▁ГВт	-16546
▁ГОК	-16547
▁ГСС	-16548
▁ГУР	-16549
▁ДМС	-16550
▁ДСК	-16551
▁ДУМ	-16552
▁Дай	-16553
▁Дан	-16554
▁Дин	-16555
▁Дне	-16556
▁ЕСВ	-16557
▁Ежи	-16558
▁КСП	-16559
▁КТК	-16560
▁Кай	-16561
▁Кей	-16562
▁Кох	-16563
▁Лиз	-16564
▁Лог	-16565
▁Май	-16566
▁Миф	-16567
▁Мят	-16568
▁НВФ	-16569
▁НИО	-16570
▁НЛУ	-16571
▁НОД	-16572
▁НФО	-16573
▁Нур	-16574
▁ОТК	-16575
▁РАС	-16576
▁РИИ	-16577
▁РИК	-16578
▁РИЦ	-16579
▁РПГ	-16580
▁РТР	-16581
▁Рак	-16582
▁Рид	-16583
▁Рон	-16584
▁Роя	-16585
▁СДС	-16586
▁СЛО	-16587
▁ТСК	-16588
▁ТСО	-16589
▁ТТК	-16590
▁УНА	-16591
▁УРа	-16592
▁ФИЦ	-16593
▁ФРБ	-16594
▁ФФУ	-16595
▁ЦЕР	-16596
▁Цай	-16597
▁Шаг	-16598
▁Эль	-16599
▁Юля	-16600
▁ЯМЗ	-16601
▁аат	-16602
▁агу	-16603
▁алт	-16604
▁апп	-16605
▁ауб	-16606
▁ауш	-16607
▁ахе	-16608
▁аэс	-16609
▁бей	-16610
▁бид	-16611
▁вея	-16612
▁вие	-16613
▁вык	-16614
▁деи	-16615
▁дпр	-16616
▁дяя	-16617
▁едч	-16618
▁еил	-16619
▁емс	-16620
▁епу	-16621
▁еяд	-16622
▁жез	-16623
▁жек	-16624
▁жье	-16625
▁идк	-16626
▁ижа	-16627
▁инб	-16628
▁ипк	-16629
▁ипс	-16630
▁иус	-16631
▁ихв	-16632
▁ицц	-16633
▁ишн	-16634
▁йнс	-16635
▁йса	-16636
▁йхэ	-16637
▁клу	-16638
▁кск	-16639
▁лец	-16640
▁луд	-16641
▁луш	-16642
▁лыв	-16643
▁лым	-16644
▁мем	-16645
▁мий	-16646
▁ммы	-16647
▁мру	-16648
▁нье	-16649
▁оак	-16650
▁оау	-16651
▁обь	-16652
▁оил	-16653
▁осю	-16654
▁офа	-16655
▁охр	-16656
▁пед	-16657
▁рул	-16658
▁ръа	-16659
▁сах	-16660
▁тоз	-16661
▁тто	-16662
▁уай	-16663
▁увс	-16664
▁уйт	-16665
▁улю	-16666
▁фаз	-16667
▁хти	-16668
▁цет	-16669
▁цик	-16670
▁чав	-16671
▁чур	-16672
▁шле	-16673
▁шур	-16674
▁ыню	-16675
▁ыро	-16676
▁ыха	-16677
▁ьвы	-16678
▁эль	-16679
▁эру	-16680
▁юмк	-16681
▁юнь	-16682
▁ючи	-16683
▁яма	-16684
▁Arab	-16685
▁Arte	-16686
▁Cars	-16687
▁Cold	-16688
▁Conf	-16689
▁Core	-16690
▁Dead	-16691
▁Didi	-16692
▁Domi	-16693
▁Educ	-16694
▁Evan	-16695
▁Fact	-16696
▁Gall	-16697
▁Gunv	-16698
▁Harm	-16699
▁Harp	-16700
▁Hawk	-16701
▁Heri	-16702
▁Hewl	-16703
▁IIHF	-16704
▁Iris	-16705
▁Jack	-16706
▁Kuga	-16707
▁Lafa	-16708
▁Lanc	-16709
▁Leva	-16710
▁Lion	-16711
▁Mari	-16712
▁Mozi	-16713
▁NATO	-16714
▁Niva	-16715
▁Noki	-16716
▁PISA	-16717
▁Pais	-16718
▁Para	-16719
▁Paul	-16720
▁Phil	-16721
▁Pink	-16722
▁Pizz	-16723
▁Ring	-16724
▁SEAT	-16725
▁Saip	-16726
▁Sana	-16727
▁Sera	-16728
▁Skyl	-16729
▁Stor	-16730
▁Stra	-16731
▁Surf	-16732
▁TASS	-16733
▁Tank	-16734
▁Tind	-16735
▁True	-16736
▁Want	-16737
▁Wond	-16738
▁clus	-16739
▁come	-16740
▁dash	-16741
▁feed	-16742
▁gnum	-16743
▁ious	-16744
▁nced	-16745
▁pion	-16746
▁reem	-16747
▁riot	-16748
▁some	-16749
▁sour	-16750
▁tary	-16751
▁tein	-16752
▁tels	-16753
▁tols	-16754
▁ular	-16755
▁will	-16756
▁МЕГА	-16757
▁НИОН	-16758
▁ОРИС	-16759
▁ОСЭР	-16760
▁ОТЛК	-16761
▁ПЧРБ	-16762
▁СОБР	-16763
▁СШОР	-16764
▁УЛАГ	-16765
▁УФМС	-16766
▁УрФО	-16767
▁ФНПР	-16768
▁ЦНИИ	-16769
▁ЭНКИ	-16770
▁аагу	-16771
▁авюр	-16772
▁агол	-16773
▁адан	-16774
▁адог	-16775
▁адте	-16776
▁азаз	-16777
▁азал	-16778
▁айло	-16779
▁айля	-16780
▁айми	-16781
▁акак	-16782
▁акос	-16783
▁алва	-16784
▁альз	-16785
▁амей	-16786
▁аммы	-16787
▁амор	-16788
▁анок	-16789
▁анцу	-16790
▁анью	-16791
▁аоке	-16792
▁аосе	-16793
▁апар	-16794
▁апун	-16795
▁апур	-16796
▁араг	-16797
▁арад	-16798
▁арел	-16799
▁арки	-16800
▁аспа	-16801
▁асты	-16802
▁атам	-16803
▁аули	-16804
▁аулю	-16805
▁аунт	-16806
▁ахат	-16807
▁ахно	-16808
▁аяль	-16809
▁байк	-16810
▁баск	-16811
▁бачк	-16812
▁бель	-16813
▁бнов	-16814
▁бров	-16815
▁веет	-16816
▁ветт	-16817
▁вижу	-16818
▁вилл	-16819
▁вини	-16820
▁витк	-16821
▁вито	-16822
▁вори	-16823
▁гель	-16824
▁гидь	-16825
▁гима	-16826
▁глот	-16827
▁грыз	-16828
▁гуар	-16829
▁гума	-16830
▁десс	-16831
▁джар	-16832
▁диев	-16833
▁дине	-16834
▁динк	-16835
▁дман	-16836
▁драм	-16837
▁дрок	-16838
▁дяев	-16839
▁еали	-16840
▁евоч	-16841
▁ежин	-16842
▁ейен	-16843
▁ейес	-16844
▁ейта	-16845
▁ейхе	-16846
▁екле	-16847
▁елял	-16848
▁емел	-16849
▁емер	-16850
▁енга	-16851
▁енца	-16852
▁енят	-16853
▁епат	-16854
▁епто	-16855
▁епту	-16856
▁ераа	-16857
▁ерпа	-16858
▁ерпе	-16859
▁еске	-16860
▁ессо	-16861
▁етче	-16862
▁ефер	-16863
▁ефил	-16864
▁ехин	-16865
▁ечте	-16866
▁зацк	-16867
▁зент	-16868
▁зень	-16869
▁зинт	-16870
▁ианж	-16871
▁ибар	-16872
▁ибок	-16873
▁иген	-16874
▁изак	-16875
▁илвы	-16876
▁илич	-16877
▁илоз	-16878
▁ильг	-16879
▁имма	-16880
▁инди	-16881
▁инел	-16882
▁инок	-16883
▁инуа	-16884
▁инье	-16885
▁иото	-16886
▁ипти	-16887
▁ирон	-16888
▁иски	-16889
▁исне	-16890
▁итес	-16891
▁итуд	-16892
▁ичин	-16893
▁йдан	-16894
▁йзек	-16895
▁калк	-16896
▁кари	-16897
▁кент	-16898
▁кобк	-16899
▁кори	-16900
▁корн	-16901
▁кроп	-16902
▁ксай	-16903
▁ксин	-16904
▁ктон	-16905
▁кура	-16906
▁лдаш	-16907
▁лемы	-16908
▁лепт	-16909
▁либи	-16910
▁лида	-16911
▁лимп	-16912
▁линд	-16913
▁ллен	-16914
▁лока	-16915
▁локи	-16916
▁лотк	-16917
▁лошн	-16918
▁лтГУ	-16919
▁лчев	-16920
▁льба	-16921
▁льви	-16922
▁льеф	-16923
▁льми	-16924
▁маза	-16925
▁мана	-16926
▁мант	-16927
▁мерч	-16928
▁мета	-16929
▁меты	-16930
▁меха	-16931
▁мехи	-16932
▁минк	-16933
▁мкоа	-16934
▁млет	-16935
▁молк	-16936
▁монд	-16937
▁море	-16938
▁мпут	-16939
▁муха	-16940
▁мшин	-16941
▁мьян	-16942
▁накс	-16943
▁нвер	-16944
▁ндай	-16945
▁ниан	-16946
▁ниат	-16947
▁нимк	-16948
▁нити	-16949
▁нитк	-16950
▁нойн	-16951
▁няшк	-16952
▁овяж	-16953
▁огам	-16954
▁оден	-16955
▁одяг	-16956
▁ожин	-16957
▁озин	-16958
▁озов	-16959
▁оиск	-16960
▁ойер	-16961
▁ойнт	-16962
▁ойст	-16963
▁окен	-16964
▁олоб	-16965
▁ольт	-16966
▁омне	-16967
▁омор	-16968
▁омын	-16969
▁онис	-16970
▁оняв	-16971
▁опки	-16972
▁орди	-16973
▁ориц	-16974
▁орри	-16975
▁осев	-16976
▁оска	-16977
▁осол	-16978
▁осяк	-16979
▁отта	-16980
▁отши	-16981
▁отык	-16982
▁охте	-16983
▁оцар	-16984
▁очив	-16985
▁ошер	-16986
▁пири	-16987
▁плыт	-16988
▁пляс	-16989
▁прич	-16990
▁пруд	-16991
▁прян	-16992
▁птер	-16993
▁раци	-16994
▁рбак	-16995
▁рдак	-16996
▁решк	-16997
▁решь	-16998
▁риал	-16999
▁рива	-17000
▁рима	-17001
▁риус	-17002
▁рица	-17003
▁рицк	-17004
▁рожн	-17005
▁рубе	-17006
▁рует	-17007
▁русь	-17008
▁ручк	-17009
▁рчев	-17010
▁рыча	-17011
▁рючк	-17012
▁сетс	-17013
▁сиби	-17014
▁скир	-17015
▁сорт	-17016
▁сраэ	-17017
▁стас	-17018
▁стма	-17019
▁сюду	-17020
▁тави	-17021
▁тайк	-17022
▁тайм	-17023
▁танг	-17024
▁твин	-17025
▁тень	-17026
▁теян	-17027
▁тирк	-17028
▁тишк	-17029
▁трах	-17030
▁тста	-17031
▁туле	-17032
▁тучн	-17033
▁тыни	-17034
▁тяза	-17035
▁уанд	-17036
▁убам	-17037
▁убар	-17038
▁убко	-17039
▁удер	-17040
▁удну	-17041
▁узян	-17042
▁улав	-17043
▁улат	-17044
▁улич	-17045
▁умия	-17046
▁упле	-17047
▁урой	-17048
▁урта	-17049
▁утче	-17050
▁уфан	-17051
▁ушев	-17052
▁фред	-17053
▁хари	-17054
▁хима	-17055
▁хнич	-17056
▁црун	-17057
▁чебо	-17058
▁черт	-17059
▁чихи	-17060
▁чицы	-17061
▁чмен	-17062
▁чьев	-17063
▁чьег	-17064
▁шкар	-17065
▁шник	-17066
▁шопа	-17067
▁ыквы	-17068
▁ымел	-17069
▁ьест	-17070
▁ьето	-17071
▁ьясс	-17072
▁эвел	-17073
▁эйли	-17074
▁эйпл	-17075
▁экон	-17076
▁элас	-17077
▁энгл	-17078
▁этра	-17079
▁эцян	-17080
▁юинз	-17081
▁ютер	-17082
▁ютин	-17083
▁якот	-17084
▁яньг	-17085
▁ясоч	-17086
▁Astra	-17087
[...]
