<unk>	0
<s>	0
</s>	0
▁о	-0
▁и	-1
▁а	-2
▁с	-3
▁н	-4
▁п	-5
▁е	-6
▁в	-7
▁,	-8
▁т	-9
▁р	-10
▁к	-11
▁.	-12
▁д	-13
▁у	-14
▁м	-15
▁л	-16
ст	-17
го	-18
▁по	-19
▁ы	-20
▁на	-21
то	-22
▁пр	-23
ен	-24
▁б	-25
▁"	-26
ер	-27
▁з	-28
ет	-29
ни	-30
ов	-31
▁ч	-32
▁ов	-33
ан	-34
ел	-35
▁-	-36
▁ст	-37
▁но	-38
▁ко	-39
▁не	-40
▁я	-41
▁ра	-42
ед	-43
▁за	-44
ро	-45
▁го	-46
ра	-47
ли	-48
ск	-49
▁ит	-50
но	-51
ин	-52
▁то	-53
ль	-54
▁ом	-55
▁г	-56
▁об	-57
▁э	-58
▁ен	-59
▁В	-60
▁С	-61
▁про	-62
▁от	-63
ся	-64
▁ны	-65
▁П	-66
ла	-67
ем	-68
ак	-69
▁ени	-70
▁ни	-71
▁1	-72
ци	-73
сс	-74
ал	-75
▁ь	-76
▁из	-77
▁что	-78
▁ск	-79
од	-80
▁Р	-81
ит	-82
▁до	-83
▁К	-84
ат	-85
▁ф	-86
▁ой	-87
во	-88
▁ре	-89
▁М	-90
▁2	-91
ло	-92
▁ж	-93
▁х	-94
ил	-95
ва	-96
▁ро	-97
▁0	-98
▁Н	-99
▁ан	-100
▁со	-101
ле	-102
▁ат	-103
▁ил	-104
▁во	-105
▁й	-106
▁ин	-107
▁ш	-108
▁вы	-109
▁мо	-110
ав	-111
▁при	-112
▁ли	-113
тор	-114
▁ер	-115
▁ам	-116
▁А	-117
▁бы	-118
▁ор	-119
уд	-120
▁О	-121
▁год	-122
ар	-123
▁ост	-124
ель	-125
▁это	-126
▁ей	-127
▁он	-128
▁тр	-129
▁ого	-130
▁ю	-131
сси	-132
▁ет	-133
он	-134
▁ие	-135
сь	-136
▁их	-137
аз	-138
ент	-139
▁ру	-140
▁раз	-141
ир	-142
ля	-143
▁ар	-144
▁Т	-145
▁им	-146
▁ия	-147
▁оп	-148
▁ри	-149
▁Д	-150
ти	-151
▁котор	-152
ей	-153
▁пер	-154
▁ци	-155
ам	-156
▁ани	-157
ор	-158
▁:	-159
▁ц	-160
▁ме	-161
ны	-162
че	-163
▁од	-164
▁И	-165
▁ить	-166
же	-167
▁пред	-168
об	-169
ек	-170
ез	-171
▁ий	-172
▁ол	-173
от	-174
▁ок	-175
сти	-176
▁ые	-177
▁под	-178
▁Б	-179
ру	-180
▁Г	-181
▁ник	-182
да	-183
жд	-184
▁ает	-185
сп	-186
▁ая	-187
▁ла	-188
ств	-189
▁ых	-190
▁ии	-191
▁так	-192
▁ско	-193
▁ения	-194
▁ал	-195
ут	-196
ур	-197
ма	-198
▁ах	-199
▁лен	-200
▁де	-201
▁ка	-202
▁ль	-203
▁(	-204
▁его	-205
▁иче	-206
▁ическ	-207
▁ем	-208
ие	-209
ис	-210
им	-211
▁ав	-212
▁)	-213
▁ать	-214
▁ся	-215
ют	-216
▁Ро	-217
▁ый	-218
▁ных	-219
▁5	-220
▁ист	-221
ко	-222
ят	-223
▁кон	-224
▁ств	-225
ре	-226
▁сл	-227
▁ение	-228
льн	-229
на	-230
▁ив	-231
▁По	-232
▁ной	-233
ри	-234
▁ик	-235
▁ос	-236
▁ком	-237
▁тв	-238
▁ного	-239
▁3	-240
▁Е	-241
ес	-242
▁ое	-243
▁ак	-244
▁итель	-245
ча	-246
▁оз	-247
▁Росси	-248
ик	-249
▁ым	-250
▁как	-251
▁для	-252
▁У	-253
▁пос	-254
▁ую	-255
▁пре	-256
▁раб	-257
▁ами	-258
▁6	-259
их	-260
▁вс	-261
▁ть	-262
ия	-263
▁ло	-264
▁те	-265
▁сп	-266
ран	-267
▁буд	-268
▁4	-269
ров	-270
▁тел	-271
та	-272
общ	-273
сть	-274
▁Л	-275
ий	-276
▁пере	-277
▁йск	-278
▁ные	-279
▁бо	-280
▁ви	-281
▁тер	-282
▁ев	-283
▁ный	-284
уп	-285
▁9	-286
▁ог	-287
▁работ	-288
▁ек	-289
▁сообщ	-290
▁Ф	-291
вор	-292
▁щ	-293
▁На	-294
▁се	-295
▁ее	-296
▁ят	-297
▁вер	-298
ект	-299
▁ми	-300
▁ут	-301
род	-302
чн	-303
▁этом	-304
льк	-305
▁сто	-306
▁яв	-307
▁ным	-308
▁ад	-309
▁сво	-310
уж	-311
ать	-312
уч	-313
▁З	-314
лн	-315
ев	-316
▁ти	-317
▁все	-318
▁7	-319
▁говор	-320
ры	-321
▁ки	-322
▁ес	-323
▁да	-324
▁ля	-325
▁Э	-326
▁вед	-327
ую	-328
▁ед	-329
▁гра	-330
▁ча	-331
▁лет	-332
▁уд	-333
▁нов	-334
▁ход	-335
▁комп	-336
рав	-337
▁ред	-338
▁су	-339
▁мир	-340
▁прав	-341
▁сам	-342
▁мож	-343
▁8	-344
▁росси	-345
▁ию	-346
▁ания	-347
▁ма	-348
▁или	-349
▁мен	-350
▁мест	-351
де	-352
▁тор	-353
ход	-354
▁али	-355
▁гла	-356
ги	-357
▁ном	-358
▁ции	-359
▁ности	-360
▁руб	-361
▁став	-362
▁ай	-363
ул	-364
▁гос	-365
▁ства	-366
из	-367
вн	-368
▁ство	-369
лю	-370
▁воз	-371
▁мер	-372
▁дент	-373
бр	-374
льш	-375
▁ста	-376
▁ве	-377
▁оч	-378
▁ают	-379
▁кра	-380
▁ской	-381
▁тран	-382
▁каз	-383
дел	-384
▁ку	-385
▁будет	-386
▁вод	-387
ме	-388
ди	-389
лен	-390
бы	-391
▁кан	-392
ерж	-393
▁след	-394
▁уб	-395
тер	-396
▁дел	-397
▁же	-398
ад	-399
▁ель	-400
▁Ч	-401
▁лю	-402
▁году	-403
▁ров	-404
ыв	-405
▁хо	-406
▁реш	-407
▁мет	-408
▁рас	-409
ези	-410
▁оле	-411
▁мент	-412
ных	-413
▁ест	-414
кт	-415
▁оло	-416
▁иров	-417
▁дв	-418
тов	-419
▁лов	-420
▁расс	-421
ка	-422
ии	-423
мо	-424
▁нес	-425
ще	-426
▁также	-427
рем	-428
▁ости	-429
▁эк	-430
не	-431
ган	-432
▁ъ	-433
▁оск	-434
▁ва	-435
ной	-436
ном	-437
▁ении	-438
ита	-439
▁мы	-440
▁ран	-441
ол	-442
▁ты	-443
вы	-444
яв	-445
▁тель	-446
▁ность	-447
▁ится	-448
ой	-449
▁уже	-450
▁ное	-451
ющ	-452
▁тро	-453
▁поли	-454
▁ского	-455
▁был	-456
▁ле	-457
▁орган	-458
▁ков	-459
▁нач	-460
▁том	-461
▁ют	-462
▁лож	-463
сн	-464
яз	-465
▁уча	-466
▁дн	-467
▁прези	-468
гда	-469
▁чем	-470
▁дол	-471
▁было	-472
▁чер	-473
▁уч	-474
▁ду	-475
▁ур	-476
▁город	-477
▁без	-478
сл	-479
▁ная	-480
▁оро	-481
ть	-482
▁та	-483
▁остав	-484
▁чел	-485
ремя	-486
▁время	-487
▁Х	-488
ив	-489
▁вид	-490
▁ость	-491
▁стр	-492
▁см	-493
нов	-494
ник	-495
▁пар	-496
▁челов	-497
▁овы	-498
▁ласти	-499
ред	-500
▁чет	-501
▁они	-502
▁иг	-503
ень	-504
▁тольк	-505
лек	-506
▁начал	-507
руп	-508
▁пу	-509
▁может	-510
иц	-511
ом	-512
рос	-513
ве	-514
ее	-515
▁рез	-516
▁торо	-517
▁мог	-518
ян	-519
▁па	-520
▁ир	-521
▁рем	-522
▁уп	-523
▁ется	-524
▁Я	-525
▁ис	-526
▁она	-527
▁явил	-528
▁ян	-529
яд	-530
▁иза	-531
▁ила	-532
▁ании	-533
▁пол	-534
▁олее	-535
рат	-536
▁стран	-537
▁?	-538
▁участ	-539
жду	-540
▁СШ	-541
▁зна	-542
▁США	-543
каз	-544
люч	-545
те	-546
▁еств	-547
▁иц	-548
▁после	-549
▁ел	-550
▁еще	-551
сто	-552
▁аг	-553
▁мат	-554
▁ап	-555
▁годн	-556
тив	-557
▁цион	-558
▁того	-559
▁нт	-560
▁Ш	-561
▁ож	-562
▁ступ	-563
▁ления	-564
ше	-565
▁веден	-566
ябр	-567
нис	-568
▁авто	-569
▁олж	-570
▁сказ	-571
▁арств	-572
▁кольк	-573
лик	-574
ейс	-575
▁инф	-576
ного	-577
▁анк	-578
▁дет	-579
▁%	-580
▁зв	-581
ные	-582
▁луч	-583
руг	-584
▁чтобы	-585
▁ную	-586
▁Ц	-587
ентр	-588
▁озмо	-589
▁озмож	-590
▁коном	-591
▁ается	-592
▁i	-593
▁держ	-594
▁Как	-595
▁ива	-596
▁тре	-597
▁вз	-598
▁иа	-599
оч	-600
мен	-601
▁были	-602
▁огла	-603
▁уст	-604
роп	-605
▁роект	-606
▁Ев	-607
тат	-608
▁альн	-609
▁ован	-610
▁отр	-611
▁ский	-612
▁олуч	-613
▁ому	-614
▁ило	-615
▁ди	-616
бор	-617
▁вел	-618
▁аз	-619
▁готов	-620
▁Но	-621
ним	-622
▁тех	-623
▁При	-624
▁кор	-625
▁РФ	-626
▁лед	-627
▁больш	-628
▁госуд	-629
▁род	-630
▁исп	-631
▁тан	-632
▁интер	-633
ку	-634
▁полн	-635
мм	-636
▁св	-637
ая	-638
▁опрос	-639
рт	-640
▁ош	-641
▁отно	-642
▁Алек	-643
ац	-644
▁ры	-645
▁атель	-646
тр	-647
▁народ	-648
▁За	-649
▁сред	-650
▁над	-651
▁Это	-652
▁Алекс	-653
▁перв	-654
▁ублик	-655
дан	-656
▁цен	-657
▁са	-658
▁краин	-659
▁долж	-660
▁сч	-661
пи	-662
▁гол	-663
▁кры	-664
▁ует	-665
▁между	-666
▁ремен	-667
ус	-668
▁нет	-669
ина	-670
▁оф	-671
▁еч	-672
це	-673
▁ыми	-674
▁ледов	-675
ции	-676
▁ох	-677
ным	-678
▁есть	-679
▁че	-680
▁дейс	-681
▁эти	-682
▁орм	-683
▁ений	-684
стн	-685
▁пл	-686
▁Об	-687
анд	-688
му	-689
вес	-690
▁Не	-691
▁ец	-692
▁ерт	-693
стр	-694
▁ас	-695
▁ид	-696
▁перед	-697
▁пут	-698
▁ствен	-699
▁ание	-700
▁би	-701
▁орма	-702
мер	-703
▁пис	-704
др	-705
▁мар	-706
▁счита	-707
▁тав	-708
▁нима	-709
▁мол	-710
ос	-711
▁минис	-712
▁му	-713
▁ими	-714
циа	-715
▁ьтат	-716
▁этого	-717
▁сов	-718
ящ	-719
▁ению	-720
▁суд	-721
▁годня	-722
▁вш	-723
▁кур	-724
▁ился	-725
га	-726
▁ться	-727
▁наз	-728
▁эксп	-729
▁ающ	-730
час	-731
er	-732
▁ейчас	-733
уб	-734
▁явля	-735
▁r	-736
▁ными	-737
чин	-738
▁рав	-739
▁резул	-740
▁осси	-741
▁полит	-742
▁груп	-743
▁ольш	-744
▁групп	-745
▁Вла	-746
▁ряд	-747
▁тур	-748
ять	-749
▁асс	-750
▁нас	-751
▁опер	-752
▁отруд	-753
си	-754
зов	-755
▁ловам	-756
▁отнош	-757
▁ез	-758
▁жд	-759
▁бор	-760
▁Влади	-761
▁кт	-762
▁енно	-763
▁ление	-764
▁стал	-765
▁тся	-766
ясн	-767
▁кла	-768
▁орт	-769
бо	-770
▁сед	-771
▁иться	-772
▁ала	-773
вер	-774
en	-775
▁пра	-776
▁ень	-777
▁неф	-778
▁опа	-779
▁торон	-780
▁чис	-781
▁изаци	-782
▁овал	-783
▁нару	-784
▁ивн	-785
▁ыв	-786
▁наш	-787
ста	-788
▁Са	-789
▁гражд	-790
▁млн	-791
ущ	-792
▁ских	-793
▁стан	-794
▁пе	-795
▁теля	-796
▁рай	-797
▁если	-798
▁ова	-799
ако	-800
▁днако	-801
▁метил	-802
▁риз	-803
▁лиш	-804
вод	-805
▁будут	-806
▁руг	-807
▁центр	-808
ери	-809
▁аш	-810
▁знач	-811
▁телей	-812
▁служ	-813
▁охран	-814
едер	-815
▁ало	-816
▁Так	-817
▁ке	-818
▁олог	-819
▁ям	-820
▁ово	-821
▁была	-822
▁ников	-823
▁произ	-824
▁L	-825
▁Нов	-826
▁пи	-827
▁иск	-828
▁мил	-829
▁аем	-830
▁дви	-831
▁себ	-832
енн	-833
▁аб	-834
▁Ка	-835
▁ротив	-836
▁зак	-837
▁си	-838
▁ковод	-839
▁могут	-840
▁Ж	-841
▁сел	-842
▁бл	-843
▁мотр	-844
▁когда	-845
▁Ю	-846
▁S	-847
▁ьн	-848
▁кр	-849
▁ция	-850
▁мин	-851
▁уж	-852
▁истем	-853
▁нап	-854
▁следн	-855
▁тем	-856
▁иту	-857
00	-858
ени	-859
▁рубле	-860
акт	-861
▁где	-862
▁можно	-863
▁них	-864
▁очень	-865
▁ики	-866
▁один	-867
▁быть	-868
кол	-869
▁оказ	-870
▁связ	-871
▁ью	-872
ный	-873
▁Он	-874
▁заяв	-875
▁траны	-876
▁ич	-877
▁ус	-878
▁ип	-879
▁мл	-880
▁доро	-881
еж	-882
▁Из	-883
▁закон	-884
рд	-885
▁иру	-886
▁фи	-887
▁отв	-888
▁оманд	-889
▁ейск	-890
лиц	-891
▁ня	-892
▁оста	-893
▁млрд	-894
спе	-895
▁итуац	-896
▁яет	-897
▁ось	-898
▁ивш	-899
▁A	-900
▁лист	-901
▁ему	-902
▁ех	-903
иа	-904
се	-905
▁сего	-906
▁ыст	-907
▁люб	-908
▁ьзов	-909
▁газ	-910
▁овер	-911
▁овать	-912
▁наход	-913
ич	-914
▁кол	-915
▁фон	-916
▁спор	-917
анс	-918
▁енных	-919
сяч	-920
▁друг	-921
▁кл	-922
▁техн	-923
▁управ	-924
▁ием	-925
▁ились	-926
▁жиз	-927
▁ото	-928
▁тысяч	-929
▁ело	-930
▁ква	-931
▁твов	-932
▁лся	-933
▁район	-934
ител	-935
ta	-936
▁дир	-937
▁грамм	-938
▁R	-939
ец	-940
▁иальн	-941
▁два	-942
▁инанс	-943
▁милли	-944
▁Мин	-945
▁око	-946
▁дву	-947
▁оль	-948
лич	-949
▁оглас	-950
цен	-951
▁ыва	-952
▁лиц	-953
уча	-954
по	-955
▁бли	-956
кра	-957
▁T	-958
▁блем	-959
▁голов	-960
▁оссия	-961
ых	-962
▁андр	-963
▁ено	-964
▁ита	-965
▁усл	-966
▁утин	-967
са	-968
▁теле	-969
▁основ	-970
▁полиц	-971
▁опера	-972
▁ответ	-973
ить	-974
▁ун	-975
меч	-976
▁необ	-977
▁лат	-978
▁обра	-979
▁терри	-980
▁цел	-981
ки	-982
▁моб	-983
▁Дж	-984
▁доб	-985
▁I	-986
▁тыс	-987
▁пы	-988
▁много	-989
▁стре	-990
▁тели	-991
▁!	-992
▁ыш	-993
▁ество	-994
▁одим	-995
▁мобил	-996
▁пресс	-997
▁Ко	-998
▁даже	-999
▁хот	-1000
▁a	-1001
▁этому	-1002
ерг	-1003
▁ники	-1004
▁опас	-1005
▁стреч	-1006
▁N	-1007
▁транс	-1008
▁тори	-1009
▁гро	-1010
▁место	-1011
▁ключ	-1012
▁ольше	-1013
▁стоян	-1014
▁аж	-1015
▁ru	-1016
▁пла	-1017
▁реа	-1018
▁C	-1019
▁редел	-1020
▁летн	-1021
▁ыступ	-1022
ок	-1023
▁ервы	-1024
▁объ	-1025
▁ум	-1026
СС	-1027
ест	-1028
▁анным	-1029
▁стро	-1030
▁аль	-1031
▁уров	-1032
▁ующ	-1033
▁ская	-1034
▁главн	-1035
ета	-1036
▁рын	-1037
▁Сир	-1038
▁необх	-1039
▁цию	-1040
▁ген	-1041
▁ще	-1042
▁мор	-1043
▁раж	-1044
▁гор	-1045
анк	-1046
▁мед	-1047
▁амери	-1048
▁казал	-1049
▁защ	-1050
▁право	-1051
▁зн	-1052
▁зап	-1053
▁военн	-1054
▁B	-1055
▁тар	-1056
▁точ	-1057
▁твия	-1058
▁еги	-1059
краи	-1060
▁тя	-1061
▁около	-1062
▁дирек	-1063
▁илась	-1064
зу	-1065
▁путат	-1066
вин	-1067
▁лег	-1068
▁ния	-1069
▁омо	-1070
▁сен	-1071
▁ись	-1072
on	-1073
▁авш	-1074
▁Ран	-1075
▁Украи	-1076
нес	-1077
▁этот	-1078
▁един	-1079
▁ги	-1080
▁рин	-1081
▁сдел	-1082
олн	-1083
▁Европ	-1084
▁пуск	-1085
▁быв	-1086
▁рен	-1087
▁ался	-1088
▁канск	-1089
▁тра	-1090
▁M	-1091
▁чит	-1092
▁ивает	-1093
▁недел	-1094
▁ример	-1095
▁ением	-1096
ду	-1097
▁име	-1098
▁тно	-1099
▁оверш	-1100
▁оцен	-1101
▁клад	-1102
▁выс	-1103
▁аться	-1104
▁предп	-1105
▁являе	-1106
▁F	-1107
▁юд	-1108
▁щик	-1109
▁Нап	-1110
▁люд	-1111
▁ены	-1112
▁доку	-1113
▁тен	-1114
▁ним	-1115
▁нич	-1116
▁месте	-1117
▁выбор	-1118
▁ул	-1119
▁реж	-1120
щен	-1121
▁ние	-1122
▁рат	-1123
▁ери	-1124
▁танов	-1125
▁порт	-1126
▁омощ	-1127
▁стра	-1128
▁Ранее	-1129
▁лучил	-1130
▁истра	-1131
▁устан	-1132
атр	-1133
▁иал	-1134
▁спорт	-1135
▁всех	-1136
▁ека	-1137
▁еб	-1138
▁маш	-1139
▁тву	-1140
▁дал	-1141
▁лись	-1142
▁агент	-1143
▁бу	-1144
▁звал	-1145
▁стави	-1146
▁кин	-1147
▁це	-1148
▁план	-1149
▁ител	-1150
льт	-1151
▁сла	-1152
▁еть	-1153
▁ющ	-1154
▁ества	-1155
▁истор	-1156
▁снов	-1157
▁извод	-1158
▁стоящ	-1159
▁пока	-1160
▁частн	-1161
жет	-1162
▁отмеч	-1163
▁ейш	-1164
▁мон	-1165
▁кач	-1166
▁троит	-1167
▁ях	-1168
▁офиц	-1169
▁сни	-1170
▁енко	-1171
▁него	-1172
▁Рос	-1173
▁чик	-1174
▁ерг	-1175
▁илось	-1176
отв	-1177
▁рак	-1178
▁луж	-1179
ьер	-1180
▁ские	-1181
▁движ	-1182
▁три	-1183
аж	-1184
▁измен	-1185
▁наруш	-1186
▁сро	-1187
▁Мы	-1188
▁рист	-1189
▁омент	-1190
▁терро	-1191
▁спец	-1192
▁испол	-1193
един	-1194
том	-1195
ующ	-1196
▁бур	-1197
▁круп	-1198
▁нуж	-1199
▁вани	-1200
би	-1201
▁ег	-1202
▁курс	-1203
▁обвин	-1204
▁кар	-1205
▁ском	-1206
▁теп	-1207
▁инг	-1208
▁вой	-1209
▁вал	-1210
▁лич	-1211
▁показ	-1212
▁ятся	-1213
▁редит	-1214
▁s	-1215
▁нос	-1216
▁c	-1217
▁этой	-1218
▁мьер	-1219
▁пособ	-1220
▁Ес	-1221
▁лект	-1222
▁всем	-1223
▁крупн	-1224
▁Если	-1225
▁ляет	-1226
▁тк	-1227
▁аний	-1228
▁защит	-1229
▁ент	-1230
▁авиа	-1231
▁дан	-1232
сяц	-1233
▁коно	-1234
▁лид	-1235
▁Ин	-1236
▁себя	-1237
инг	-1238
▁голо	-1239
▁рани	-1240
▁рег	-1241
▁твующ	-1242
▁месяц	-1243
▁циона	-1244
ну	-1245
▁поб	-1246
▁юджет	-1247
▁$	-1248
▁чемпи	-1249
▁Тур	-1250
▁отре	-1251
вар	-1252
▁изнес	-1253
▁бира	-1254
▁само	-1255
▁через	-1256
▁жител	-1257
▁двух	-1258
▁сет	-1259
▁иф	-1260
▁льно	-1261
▁10	-1262
▁вести	-1263
▁P	-1264
▁Сирии	-1265
▁егион	-1266
юз	-1267
▁респ	-1268
мин	-1269
▁ведом	-1270
▁енные	-1271
▁шло	-1272
▁Новос	-1273
ком	-1274
▁бург	-1275
до	-1276
▁день	-1277
▁дела	-1278
▁вра	-1279
▁куп	-1280
▁ья	-1281
▁числе	-1282
▁жи	-1283
▁сы	-1284
▁Пос	-1285
▁свою	-1286
▁голос	-1287
▁ха	-1288
▁рт	-1289
▁пор	-1290
итр	-1291
▁отказ	-1292
▁сбор	-1293
▁t	-1294
▁лит	-1295
▁рам	-1296
▁G	-1297
▁жел	-1298
▁Кро	-1299
▁одно	-1300
▁филь	-1301
▁ьник	-1302
▁ять	-1303
лаг	-1304
▁нем	-1305
▁енной	-1306
▁ричин	-1307
▁ук	-1308
▁нск	-1309
▁совет	-1310
▁ному	-1311
▁еп	-1312
▁ались	-1313
▁глава	-1314
▁дав	-1315
▁кто	-1316
▁овой	-1317
▁апр	-1318
▁Кроме	-1319
▁Дм	-1320
▁кварт	-1321
▁Дмитр	-1322
▁йд	-1323
▁Все	-1324
▁соотв	-1325
лк	-1326
▁ецк	-1327
▁Пет	-1328
▁кци	-1329
нир	-1330
▁рия	-1331
▁велич	-1332
▁рован	-1333
▁овых	-1334
▁школ	-1335
▁Про	-1336
▁ара	-1337
▁ика	-1338
▁ются	-1339
▁лим	-1340
▁стве	-1341
▁матер	-1342
▁ман	-1343
▁лаг	-1344
вол	-1345
лож	-1346
▁Се	-1347
▁бра	-1348
▁сь	-1349
▁вис	-1350
▁град	-1351
▁ланир	-1352
▁олла	-1353
▁кат	-1354
▁алось	-1355
екс	-1356
▁хоро	-1357
лед	-1358
▁игра	-1359
▁конц	-1360
▁n	-1361
▁соб	-1362
ык	-1363
▁зем	-1364
▁нии	-1365
▁админ	-1366
▁езд	-1367
▁оскве	-1368
▁нее	-1369
▁обств	-1370
▁ческ	-1371
▁дд	-1372
▁нев	-1373
▁сир	-1374
▁менно	-1375
▁ранее	-1376
▁рус	-1377
▁сай	-1378
▁ъект	-1379
▁мит	-1380
or	-1381
щин	-1382
▁уш	-1383
▁Турци	-1384
▁своей	-1385
▁поз	-1386
▁етс	-1387
▁апрел	-1388
▁ктябр	-1389
▁член	-1390
▁лектр	-1391
▁ивать	-1392
▁стать	-1393
▁январ	-1394
▁добав	-1395
▁полаг	-1396
рыт	-1397
▁ткрыт	-1398
▁оев	-1399
▁селен	-1400
▁обы	-1401
▁тории	-1402
ый	-1403
▁отреб	-1404
▁там	-1405
▁местн	-1406
▁СМ	-1407
▁Len	-1408
▁озвол	-1409
▁оллар	-1410
▁Lenta	-1411
▁овые	-1412
отр	-1413
▁смотр	-1414
▁дач	-1415
зда	-1416
▁созда	-1417
▁казан	-1418
▁олжны	-1419
▁держк	-1420
▁b	-1421
▁овлен	-1422
▁вет	-1423
▁тивн	-1424
▁связи	-1425
▁Гла	-1426
▁дорог	-1427
▁15	-1428
▁ожи	-1429
▁вла	-1430
жн	-1431
▁реб	-1432
▁ергей	-1433
▁Ъ	-1434
▁лидер	-1435
▁ног	-1436
▁ией	-1437
▁особ	-1438
▁фф	-1439
▁факт	-1440
▁лиз	-1441
▁сущ	-1442
▁кре	-1443
▁ана	-1444
▁скор	-1445
▁труд	-1446
▁служб	-1447
▁росто	-1448
▁Кон	-1449
▁вар	-1450
▁арти	-1451
▁ну	-1452
▁блю	-1453
▁вит	-1454
▁уровн	-1455
▁вое	-1456
▁прин	-1457
▁уз	-1458
▁асп	-1459
▁оор	-1460
▁20	-1461
▁лимпи	-1462
бол	-1463
▁ТА	-1464
▁енщин	-1465
▁торг	-1466
▁оздан	-1467
▁цев	-1468
▁льной	-1469
гра	-1470
сят	-1471
▁федер	-1472
▁уг	-1473
▁поч	-1474
рам	-1475
▁гл	-1476
▁жен	-1477
▁мод	-1478
▁ТАСС	-1479
▁тов	-1480
▁йти	-1481
▁лучш	-1482
▁РИ	-1483
▁СМИ	-1484
▁омним	-1485
▁Бел	-1486
▁подин	-1487
▁фильм	-1488
▁жил	-1489
▁луча	-1490
▁людей	-1491
▁ноябр	-1492
▁Ме	-1493
▁оби	-1494
▁емь	-1495
▁лощ	-1496
▁стар	-1497
▁сдела	-1498
лог	-1499
▁мал	-1500
▁ругих	-1501
▁ддерж	-1502
▁обяз	-1503
▁час	-1504
▁матч	-1505
▁культ	-1506
▁исс	-1507
▁машин	-1508
▁ней	-1509
▁налог	-1510
▁Сов	-1511
▁дем	-1512
▁доста	-1513
▁уют	-1514
▁ели	-1515
▁вестн	-1516
▁разн	-1517
▁ятель	-1518
▁еспе	-1519
▁еспеч	-1520
▁акс	-1521
▁виде	-1522
▁шт	-1523
▁игр	-1524
▁нальн	-1525
мет	-1526
▁ини	-1527
▁тон	-1528
▁эта	-1529
▁W	-1530
▁побед	-1531
▁крыт	-1532
рым	-1533
▁укт	-1534
▁рк	-1535
▁страд	-1536
▁лин	-1537
▁Интер	-1538
▁лучае	-1539
▁очн	-1540
▁ожида	-1541
▁ье	-1542
▁енн	-1543
▁десят	-1544
▁лощад	-1545
▁уктур	-1546
▁сек	-1547
▁ровод	-1548
▁сновн	-1549
бод	-1550
▁вобод	-1551
▁зд	-1552
▁ризна	-1553
▁/	-1554
▁втор	-1555
an	-1556
езд	-1557
▁еты	-1558
▁шел	-1559
▁пуст	-1560
▁еж	-1561
▁источ	-1562
▁натор	-1563
▁ере	-1564
▁ходе	-1565
▁естве	-1566
дат	-1567
▁тяж	-1568
▁Федер	-1569
▁седа	-1570
▁Де	-1571
неш	-1572
▁гру	-1573
▁сс	-1574
▁эн	-1575
▁РИА	-1576
▁дидат	-1577
▁сер	-1578
тон	-1579
▁утбол	-1580
▁гр	-1581
▁нут	-1582
▁сил	-1583
▁тик	-1584
▁жизни	-1585
▁вин	-1586
▁ближ	-1587
▁шли	-1588
▁отдел	-1589
▁част	-1590
▁ранич	-1591
▁фор	-1592
▁ащ	-1593
▁марта	-1594
▁сти	-1595
▁пыта	-1596
▁канал	-1597
▁появ	-1598
▁рост	-1599
▁свои	-1600
▁хоз	-1601
▁арт	-1602
▁ял	-1603
▁хорош	-1604
▁u	-1605
▁артии	-1606
▁После	-1607
▁твор	-1608
▁главы	-1609
▁огда	-1610
▁оглаш	-1611
▁ству	-1612
▁яют	-1613
▁ществ	-1614
▁мно	-1615
ению	-1616
▁ервый	-1617
es	-1618
▁лишь	-1619
▁назыв	-1620
▁рынк	-1621
▁изм	-1622
▁нению	-1623
▁Крым	-1624
▁разов	-1625
▁чин	-1626
▁олож	-1627
▁вяз	-1628
▁оциа	-1629
▁ужчин	-1630
▁фер	-1631
▁жив	-1632
▁рос	-1633
▁ским	-1634
▁хв	-1635
▁Во	-1636
▁верну	-1637
▁ичн	-1638
шл	-1639
▁стат	-1640
▁улиц	-1641
▁ового	-1642
▁сут	-1643
▁прод	-1644
ми	-1645
▁фонд	-1646
▁своих	-1647
▁еле	-1648
▁ями	-1649
▁ена	-1650
▁рек	-1651
▁равил	-1652
▁стало	-1653
▁чен	-1654
▁лась	-1655
▁еро	-1656
рамп	-1657
▁чере	-1658
▁Трамп	-1659
▁крат	-1660
▁обяза	-1661
▁груз	-1662
▁цесс	-1663
▁Также	-1664
▁ОО	-1665
▁осквы	-1666
▁удал	-1667
▁фин	-1668
▁вн	-1669
▁нужно	-1670
ун	-1671
▁Ма	-1672
▁вли	-1673
▁D	-1674
▁ериод	-1675
▁ито	-1676
▁числ	-1677
▁пециа	-1678
нул	-1679
▁Пред	-1680
дум	-1681
▁мента	-1682
▁осдум	-1683
▁Сев	-1684
▁преду	-1685
▁услов	-1686
▁оли	-1687
▁кой	-1688
▁льн	-1689
▁вития	-1690
▁объем	-1691
▁гон	-1692
зи	-1693
▁ела	-1694
▁нор	-1695
▁нг	-1696
▁парла	-1697
▁цы	-1698
▁лении	-1699
▁нти	-1700
▁ател	-1701
▁Для	-1702
▁четве	-1703
▁анных	-1704
▁вк	-1705
▁пост	-1706
утр	-1707
▁олю	-1708
▁клуб	-1709
▁стали	-1710
▁есн	-1711
▁хват	-1712
▁бес	-1713
▁ард	-1714
▁внутр	-1715
ная	-1716
▁трет	-1717
▁ирует	-1718
▁почти	-1719
▁пит	-1720
le	-1721
▁молод	-1722
▁зыв	-1723
▁конце	-1724
▁колич	-1725
▁сутс	-1726
▁ниц	-1727
▁дать	-1728
▁рамк	-1729
▁нефти	-1730
▁общ	-1731
▁ерь	-1732
▁пад	-1733
▁остью	-1734
▁12	-1735
▁пом	-1736
▁До	-1737
▁тране	-1738
▁детей	-1739
▁руч	-1740
▁ратур	-1741
▁беж	-1742
▁дома	-1743
▁ользу	-1744
ял	-1745
▁полож	-1746
▁бла	-1747
▁практ	-1748
▁часть	-1749
▁маг	-1750
▁ром	-1751
▁бр	-1752
▁вещ	-1753
▁плат	-1754
▁люди	-1755
▁меня	-1756
▁срок	-1757
▁30	-1758
▁бин	-1759
▁части	-1760
раф	-1761
▁Ан	-1762
▁бло	-1763
▁стол	-1764
▁сумм	-1765
▁поясн	-1766
▁раст	-1767
▁Центр	-1768
▁ооруж	-1769
▁обе	-1770
▁нд	-1771
▁ложн	-1772
▁редн	-1773
▁отому	-1774
ября	-1775
▁гре	-1776
▁тября	-1777
▁;	-1778
▁одной	-1779
▁включ	-1780
▁позиц	-1781
▁лял	-1782
ar	-1783
▁фе	-1784
▁шн	-1785
▁пят	-1786
▁инск	-1787
▁уа	-1788
▁верш	-1789
▁омощь	-1790
▁актив	-1791
▁твует	-1792
▁уть	-1793
▁мещен	-1794
▁бер	-1795
▁одерж	-1796
▁олжен	-1797
▁прос	-1798
▁Извес	-1799
▁мерен	-1800
▁твие	-1801
▁ностр	-1802
уг	-1803
▁Ми	-1804
▁благо	-1805
▁нять	-1806
▁ант	-1807
▁режд	-1808
▁жур	-1809
▁сильн	-1810
▁сборн	-1811
▁успе	-1812
▁оступ	-1813
▁метр	-1814
▁онат	-1815
▁e	-1816
▁оюз	-1817
▁тоим	-1818
▁ца	-1819
▁тп	-1820
▁санк	-1821
▁рияти	-1822
▁санкц	-1823
▁анию	-1824
▁сключ	-1825
▁комме	-1826
▁точно	-1827
▁перс	-1828
▁верен	-1829
▁округ	-1830
▁др	-1831
▁ади	-1832
▁извес	-1833
▁наруж	-1834
▁режим	-1835
▁аэ	-1836
▁суб	-1837
рал	-1838
ви	-1839
▁Они	-1840
▁ообщ	-1841
▁сети	-1842
▁полу	-1843
▁Совет	-1844
▁ороны	-1845
▁трол	-1846
▁Ар	-1847
▁итог	-1848
▁парат	-1849
▁ругие	-1850
▁аци	-1851
▁ась	-1852
▁фев	-1853
▁зван	-1854
▁ерьез	-1855
▁Вы	-1856
▁уто	-1857
▁ъясн	-1858
▁тит	-1859
▁росл	-1860
▁авг	-1861
▁февра	-1862
▁тправ	-1863
ьб	-1864
▁утвер	-1865
▁доход	-1866
▁смен	-1867
▁авгус	-1868
▁иаль	-1869
▁дорож	-1870
▁МВ	-1871
▁кажд	-1872
▁тн	-1873
▁сниж	-1874
▁треб	-1875
▁аст	-1876
▁высок	-1877
▁айш	-1878
▁сад	-1879
▁шир	-1880
▁сих	-1881
▁жела	-1882
▁ту	-1883
▁прет	-1884
▁власт	-1885
▁гран	-1886
▁теч	-1887
▁жизн	-1888
▁нтон	-1889
ью	-1890
▁молет	-1891
▁E	-1892
▁глав	-1893
▁инств	-1894
▁аксим	-1895
▁Ни	-1896
ям	-1897
▁аются	-1898
▁оедин	-1899
ерт	-1900
▁йн	-1901
▁блок	-1902
▁уется	-1903
▁енее	-1904
▁ывает	-1905
▁ике	-1906
▁ио	-1907
▁дного	-1908
▁седан	-1909
▁миров	-1910
oo	-1911
▁пож	-1912
иев	-1913
▁чи	-1914
▁хи	-1915
▁исход	-1916
▁Да	-1917
▁борьб	-1918
▁энерг	-1919
▁ировк	-1920
▁разом	-1921
мог	-1922
▁шта	-1923
▁кабр	-1924
▁образ	-1925
▁хов	-1926
▁бывш	-1927
▁ивают	-1928
▁стоят	-1929
▁читыв	-1930
▁g	-1931
▁надо	-1932
▁вот	-1933
▁крыл	-1934
▁зде	-1935
▁кабря	-1936
▁никак	-1937
▁проце	-1938
▁ложил	-1939
▁фа	-1940
▁вес	-1941
▁такой	-1942
▁ано	-1943
▁еск	-1944
▁остан	-1945
▁Петер	-1946
▁ицу	-1947
▁Пр	-1948
▁Дон	-1949
▁ечно	-1950
▁лова	-1951
▁зав	-1952
▁сужд	-1953
▁сполн	-1954
▁сылк	-1955
▁угро	-1956
▁инвес	-1957
▁мас	-1958
ту	-1959
▁Ку	-1960
▁уль	-1961
▁гля	-1962
▁кос	-1963
▁русск	-1964
▁ЕС	-1965
▁иха	-1966
▁долг	-1967
▁назад	-1968
▁зон	-1969
▁ерб	-1970
▁онов	-1971
▁ское	-1972
▁штаб	-1973
▁вни	-1974
▁едь	-1975
▁топ	-1976
▁ффект	-1977
▁ивал	-1978
▁еньги	-1979
▁мести	-1980
▁вп	-1981
▁смерт	-1982
▁итай	-1983
▁алась	-1984
▁Киев	-1985
▁вок	-1986
▁арм	-1987
▁имо	-1988
▁казыв	-1989
▁ышлен	-1990
▁сматр	-1991
▁справ	-1992
▁рит	-1993
▁пен	-1994
▁ама	-1995
▁овый	-1996
▁шен	-1997
▁этих	-1998
▁бе	-1999
рыв	-2000
▁зж	-2001
▁иль	-2002
▁мая	-2003
▁трех	-2004
▁роди	-2005
▁обрат	-2006
▁питал	-2007
▁среди	-2008
▁No	-2009
▁ящ	-2010
▁ечер	-2011
▁арест	-2012
▁писал	-2013
▁гно	-2014
▁ации	-2015
▁себе	-2016
▁торой	-2017
гио	-2018
▁Евро	-2019
▁Между	-2020
▁итета	-2021
▁ополн	-2022
▁чу	-2023
▁губ	-2024
▁нам	-2025
▁регио	-2026
▁лять	-2027
▁оряд	-2028
▁тиц	-2029
▁внима	-2030
▁25	-2031
▁одоб	-2032
▁тоит	-2033
▁яя	-2034
▁здан	-2035
he	-2036
▁Гер	-2037
▁ите	-2038
▁ством	-2039
▁близ	-2040
▁удов	-2041
▁зам	-2042
▁худ	-2043
▁вания	-2044
▁одобн	-2045
▁дис	-2046
▁важн	-2047
▁рук	-2048
▁личн	-2049
▁акт	-2050
▁рият	-2051
▁ркнул	-2052
▁подче	-2053
▁боро	-2054
▁имущ	-2055
▁йский	-2056
▁класс	-2057
▁журна	-2058
▁земл	-2059
▁тоже	-2060
▁должн	-2061
▁тин	-2062
▁адр	-2063
▁граф	-2064
▁убий	-2065
▁хозя	-2066
▁парти	-2067
▁in	-2068
▁але	-2069
▁Север	-2070
▁дь	-2071
▁ителя	-2072
▁орядк	-2073
▁11	-2074
▁конод	-2075
▁сегда	-2076
▁фо	-2077
▁ступн	-2078
▁мног	-2079
за	-2080
шен	-2081
▁воего	-2082
▁дум	-2083
▁мере	-2084
▁пенси	-2085
▁прям	-2086
▁этим	-2087
▁делал	-2088
▁ажд	-2089
▁ьян	-2090
▁Минис	-2091
▁йские	-2092
▁добр	-2093
▁ассаж	-2094
▁шед	-2095
▁гноз	-2096
▁прещ	-2097
▁твер	-2098
▁нст	-2099
▁ше	-2100
▁сез	-2101
▁пять	-2102
▁Мур	-2103
▁ноч	-2104
▁верси	-2105
▁енник	-2106
▁сезон	-2107
▁чь	-2108
▁заб	-2109
▁тот	-2110
▁ихся	-2111
▁конч	-2112
▁минут	-2113
▁сущес	-2114
▁ущ	-2115
▁знан	-2116
▁обира	-2117
▁пон	-2118
▁анков	-2119
▁анием	-2120
▁тверд	-2121
▁влия	-2122
▁воим	-2123
▁слов	-2124
▁мне	-2125
▁годы	-2126
▁Никол	-2127
▁толиц	-2128
▁сра	-2129
▁банк	-2130
▁ребен	-2131
▁ринят	-2132
▁тогда	-2133
▁акие	-2134
▁йдет	-2135
▁H	-2136
▁дума	-2137
▁либо	-2138
▁дня	-2139
▁гром	-2140
▁нстру	-2141
▁удар	-2142
▁иш	-2143
▁ате	-2144
▁указ	-2145
▁фото	-2146
▁Ба	-2147
▁Бр	-2148
▁стала	-2149
▁вят	-2150
▁верк	-2151
▁кти	-2152
▁доров	-2153
▁тиво	-2154
▁взрыв	-2155
▁нди	-2156
▁парк	-2157
▁здесь	-2158
▁лета	-2159
▁айн	-2160
▁несен	-2161
▁ногие	-2162
▁руж	-2163
▁гляд	-2164
▁поги	-2165
▁кино	-2166
▁римен	-2167
▁тест	-2168
▁меро	-2169
▁устро	-2170
▁нен	-2171
▁блюда	-2172
▁ион	-2173
▁Фран	-2174
▁лекс	-2175
▁яется	-2176
▁Под	-2177
▁рий	-2178
▁шла	-2179
▁роз	-2180
▁крыв	-2181
▁шедш	-2182
▁погиб	-2183
▁Мурма	-2184
▁будущ	-2185
▁нег	-2186
▁срав	-2187
▁сравн	-2188
▁ставк	-2189
▁олев	-2190
▁могли	-2191
▁своем	-2192
▁рожд	-2193
▁Прези	-2194
▁льных	-2195
▁МВД	-2196
▁имею	-2197
▁бил	-2198
▁тия	-2199
▁фли	-2200
▁мел	-2201
▁ренд	-2202
▁станц	-2203
▁пам	-2204
▁риним	-2205
▁урн	-2206
▁больн	-2207
▁висим	-2208
▁юс	-2209
▁литик	-2210
▁дежд	-2211
▁троен	-2212
▁аря	-2213
▁ензи	-2214
▁росил	-2215
▁l	-2216
▁ыск	-2217
▁Франц	-2218
▁ух	-2219
ван	-2220
▁анс	-2221
▁тепер	-2222
▁уточн	-2223
▁илл	-2224
▁товар	-2225
▁фликт	-2226
▁дж	-2227
▁тог	-2228
▁лизац	-2229
▁руп	-2230
▁хож	-2231
▁чего	-2232
▁ику	-2233
▁памят	-2234
▁ревн	-2235
▁реаль	-2236
▁ладел	-2237
рев	-2238
▁муз	-2239
▁ьев	-2240
▁олот	-2241
▁случа	-2242
▁услуг	-2243
▁давно	-2244
▁m	-2245
▁автор	-2246
▁гу	-2247
▁слав	-2248
▁Газ	-2249
▁бесп	-2250
▁регул	-2251
▁ослед	-2252
▁решил	-2253
▁новых	-2254
пис	-2255
вест	-2256
▁влек	-2257
▁акц	-2258
▁алл	-2259
▁анные	-2260
▁креп	-2261
▁права	-2262
▁осто	-2263
▁вязан	-2264
▁исло	-2265
▁ходит	-2266
▁нефт	-2267
▁видео	-2268
▁дукт	-2269
▁жден	-2270
▁свой	-2271
▁ывш	-2272
▁18	-2273
▁ихаил	-2274
▁олн	-2275
▁данн	-2276
▁ункт	-2277
▁усил	-2278
▁сразу	-2279
▁тракт	-2280
▁От	-2281
▁лив	-2282
▁тнер	-2283
▁европ	-2284
▁мотря	-2285
▁медиц	-2286
▁эту	-2287
▁онал	-2288
▁кам	-2289
▁нтов	-2290
▁трен	-2291
▁музык	-2292
▁поп	-2293
▁родаж	-2294
▁таких	-2295
▁веду	-2296
▁омина	-2297
леч	-2298
▁меш	-2299
▁влеч	-2300
▁чита	-2301
▁косм	-2302
▁ьц	-2303
▁Иван	-2304
▁емон	-2305
▁аны	-2306
▁обещ	-2307
▁овск	-2308
al	-2309
▁води	-2310
▁ляци	-2311
▁выход	-2312
▁имп	-2313
▁кк	-2314
▁озрев	-2315
▁стрем	-2316
▁вен	-2317
▁издан	-2318
▁строи	-2319
▁онк	-2320
▁Сам	-2321
▁конф	-2322
▁ракет	-2323
▁ицы	-2324
▁зор	-2325
▁коп	-2326
▁ъяв	-2327
▁оруж	-2328
▁иб	-2329
▁сири	-2330
▁ндр	-2331
▁рск	-2332
▁дальн	-2333
▁14	-2334
▁яч	-2335
▁сит	-2336
▁оевик	-2337
▁окуп	-2338
ce	-2339
▁ласт	-2340
▁Кра	-2341
▁объяв	-2342
▁неж	-2343
▁нефть	-2344
ТО	-2345
▁ице	-2346
▁свое	-2347
▁чина	-2348
▁имеет	-2349
▁мероп	-2350
▁отлич	-2351
▁стрел	-2352
▁Она	-2353
▁вос	-2354
▁ьзова	-2355
дач	-2356
▁слам	-2357
▁быт	-2358
роб	-2359
▁стоит	-2360
▁юр	-2361
▁ехал	-2362
▁Герма	-2363
▁ризис	-2364
▁бар	-2365
▁етыре	-2366
▁рыв	-2367
▁выше	-2368
▁явлен	-2369
▁тай	-2370
▁проку	-2371
ИД	-2372
▁ний	-2373
▁тек	-2374
▁уда	-2375
▁як	-2376
▁тим	-2377
▁озник	-2378
▁ьб	-2379
▁иници	-2380
леж	-2381
▁разил	-2382
▁требо	-2383
ou	-2384
▁авл	-2385
▁Гос	-2386
▁атем	-2387
▁равн	-2388
▁ктивн	-2389
▁осков	-2390
▁нтир	-2391
▁хотя	-2392
▁губер	-2393
▁зар	-2394
▁евро	-2395
▁ляющ	-2396
▁здрав	-2397
▁вне	-2398
▁оценк	-2399
▁штраф	-2400
▁V	-2401
▁яж	-2402
▁суда	-2403
▁изац	-2404
▁скую	-2405
▁логи	-2406
▁искус	-2407
▁ици	-2408
▁Что	-2409
▁одимо	-2410
▁ава	-2411
▁мов	-2412
▁наком	-2413
▁март	-2414
▁рынке	-2415
▁чинов	-2416
▁ба	-2417
▁ывший	-2418
▁13	-2419
▁каж	-2420
▁сайте	-2421
▁ново	-2422
ыт	-2423
▁печ	-2424
▁учас	-2425
▁коноп	-2426
▁нивер	-2427
▁ейств	-2428
▁нял	-2429
▁туд	-2430
▁деп	-2431
▁лений	-2432
▁регис	-2433
▁ахов	-2434
▁восп	-2435
▁ност	-2436
▁новый	-2437
▁er	-2438
▁учен	-2439
▁вор	-2440
▁демо	-2441
▁рынка	-2442
▁взят	-2443
▁То	-2444
▁енц	-2445
▁мой	-2446
▁тогам	-2447
▁инс	-2448
▁театр	-2449
ман	-2450
▁дио	-2451
▁обед	-2452
▁вращ	-2453
▁нужд	-2454
▁пуля	-2455
▁лужб	-2456
▁ифик	-2457
▁лаго	-2458
▁еме	-2459
▁руш	-2460
▁50	-2461
▁ести	-2462
▁кции	-2463
лон	-2464
▁омн	-2465
▁ьск	-2466
▁олле	-2467
▁остоя	-2468
▁енный	-2469
гор	-2470
▁аф	-2471
▁пром	-2472
▁рибы	-2473
▁ошел	-2474
▁Его	-2475
▁зов	-2476
▁орд	-2477
▁жизнь	-2478
▁остиг	-2479
▁ощ	-2480
▁ша	-2481
▁16	-2482
▁аэроп	-2483
▁Кли	-2484
▁писан	-2485
▁урнал	-2486
ter	-2487
▁трат	-2488
▁ритан	-2489
▁арк	-2490
▁леч	-2491
▁ау	-2492
▁руго	-2493
▁СК	-2494
▁треть	-2495
▁асл	-2496
▁пиш	-2497
▁йт	-2498
▁цией	-2499
▁быстр	-2500
▁задач	-2501
▁МИД	-2502
▁газет	-2503
▁ожд	-2504
▁осущ	-2505
она	-2506
▁веч	-2507
▁адици	-2508
▁шлого	-2509
▁окон	-2510
▁Игор	-2511
▁модел	-2512
▁обычн	-2513
▁танет	-2514
▁Кор	-2515
▁пожар	-2516
▁угроз	-2517
▁еш	-2518
дин	-2519
▁айте	-2520
▁аспро	-2521
▁ервые	-2522
▁разви	-2523
▁лось	-2524
▁вол	-2525
▁овали	-2526
▁ази	-2527
▁лан	-2528
▁нынеш	-2529
▁пыт	-2530
▁оте	-2531
▁врач	-2532
▁строй	-2533
▁меч	-2534
▁равда	-2535
▁22	-2536
▁елей	-2537
▁лог	-2538
▁алат	-2539
▁тяжел	-2540
▁ищ	-2541
▁обор	-2542
▁ельно	-2543
▁рибыл	-2544
рор	-2545
▁шест	-2546
▁цов	-2547
▁атак	-2548
▁олжна	-2549
▁фесси	-2550
▁блемы	-2551
▁ъедин	-2552
▁17	-2553
▁ина	-2554
▁ругой	-2555
ему	-2556
▁енд	-2557
▁ведет	-2558
▁такие	-2559
со	-2560
▁одейс	-2561
▁тельн	-2562
▁шенко	-2563
▁оги	-2564
▁марк	-2565
▁титут	-2566
▁исси	-2567
мес	-2568
▁чера	-2569
▁оллег	-2570
▁годов	-2571
▁овмес	-2572
▁очему	-2573
выш	-2574
▁овым	-2575
▁повыш	-2576
▁риход	-2577
▁амп	-2578
дн	-2579
лиз	-2580
▁ках	-2581
▁атив	-2582
▁рабоч	-2583
ген	-2584
▁воду	-2585
▁оссию	-2586
▁Куб	-2587
▁дев	-2588
▁хара	-2589
▁июн	-2590
▁каса	-2591
▁ток	-2592
▁боев	-2593
▁июля	-2594
▁ниче	-2595
▁низ	-2596
▁финал	-2597
▁митет	-2598
▁опинг	-2599
▁гар	-2600
▁опыт	-2601
▁рубл	-2602
▁лик	-2603
▁фак	-2604
▁клон	-2605
▁мире	-2606
▁ероят	-2607
▁норма	-2608
▁шес	-2609
▁Вер	-2610
▁ствия	-2611
▁изов	-2612
▁омощи	-2613
▁уальн	-2614
▁дней	-2615
▁орту	-2616
,5	-2617
▁нят	-2618
зн	-2619
▁ляют	-2620
▁мощ	-2621
▁очк	-2622
▁Глава	-2623
▁ерж	-2624
▁прис	-2625
▁вольн	-2626
▁телем	-2627
▁пуляр	-2628
▁ач	-2629
бл	-2630
▁жал	-2631
▁аким	-2632
▁конс	-2633
▁нвест	-2634
▁иев	-2635
▁карт	-2636
▁цена	-2637
▁ыгра	-2638
▁орв	-2639
▁вице	-2640
▁онер	-2641
▁ринял	-2642
▁Ru	-2643
▁ып	-2644
▁яз	-2645
▁секре	-2646
▁ООН	-2647
▁пара	-2648
▁онд	-2649
▁Серг	-2650
▁мигра	-2651
▁кв	-2652
▁арш	-2653
▁ничег	-2654
▁осуд	-2655
▁сниз	-2656
▁нашей	-2657
▁лега	-2658
▁тарь	-2659
▁аждый	-2660
▁гиона	-2661
▁ланд	-2662
▁вели	-2663
▁помн	-2664
▁АТО	-2665
▁дук	-2666
▁обо	-2667
▁ифика	-2668
▁ндрей	-2669
▁дукци	-2670
▁иктор	-2671
▁Бу	-2672
▁экс	-2673
▁окра	-2674
▁потом	-2675
стан	-2676
▁еже	-2677
▁сстан	-2678
▁дух	-2679
▁Когда	-2680
▁олезн	-2681
▁отмен	-2682
▁треби	-2683
ека	-2684
▁конт	-2685
▁факс	-2686
▁есп	-2687
▁верх	-2688
▁сть	-2689
▁теря	-2690
▁бой	-2691
▁рел	-2692
▁одна	-2693
▁оен	-2694
▁пов	-2695
▁осква	-2696
▁Един	-2697
▁осточ	-2698
▁принц	-2699
▁пытк	-2700
▁опасн	-2701
▁твуют	-2702
▁омп	-2703
▁етом	-2704
цу	-2705
▁яг	-2706
▁олжно	-2707
▁бран	-2708
▁ровер	-2709
at	-2710
▁Кр	-2711
▁вч	-2712
▁дт	-2713
▁бол	-2714
▁слу	-2715
ag	-2716
▁лот	-2717
▁обращ	-2718
▁ократ	-2719
▁гресс	-2720
▁ертв	-2721
▁онима	-2722
▁хотел	-2723
▁этап	-2724
поз	-2725
▁войн	-2726
▁артин	-2727
▁вокат	-2728
▁курор	-2729
om	-2730
▁еньше	-2731
▁ций	-2732
▁След	-2733
▁оконч	-2734
▁стров	-2735
иров	-2736
▁Красн	-2737
▁Серге	-2738
▁бел	-2739
▁ори	-2740
▁терак	-2741
ыр	-2742
▁цип	-2743
▁харак	-2744
▁ерво	-2745
▁w	-2746
▁риск	-2747
▁сем	-2748
▁ообще	-2749
▁Ген	-2750
▁лужбы	-2751
▁мерно	-2752
▁оне	-2753
▁льные	-2754
▁грок	-2755
▁Евген	-2756
▁одроб	-2757
▁две	-2758
▁нок	-2759
▁ока	-2760
▁орот	-2761
▁детск	-2762
▁омет	-2763
▁досто	-2764
▁огибл	-2765
▁ситет	-2766
▁поко	-2767
▁руз	-2768
▁номоч	-2769
▁писк	-2770
▁Мо	-2771
▁ебн	-2772
бн	-2773
▁оу	-2774
▁рх	-2775
▁атег	-2776
▁заим	-2777
▁хозяй	-2778
▁везд	-2779
▁монт	-2780
▁проб	-2781
лав	-2782
▁арта	-2783
▁сайт	-2784
▁тому	-2785
▁Главн	-2786
▁оенно	-2787
▁бужд	-2788
▁физ	-2789
▁мало	-2790
▁шлом	-2791
▁лиент	-2792
▁ака	-2793
▁анг	-2794
▁рет	-2795
▁печат	-2796
▁поезд	-2797
▁19	-2798
▁яти	-2799
▁пятн	-2800
▁йтинг	-2801
▁евер	-2802
▁изир	-2803
▁21	-2804
▁штат	-2805
▁окращ	-2806
▁часов	-2807
▁раг	-2808
▁обой	-2809
▁ранцу	-2810
▁самых	-2811
▁ion	-2812
▁тив	-2813
▁варит	-2814
▁ходил	-2815
▁Тем	-2816
▁неза	-2817
▁фици	-2818
▁рубеж	-2819
▁твии	-2820
▁en	-2821
▁рик	-2822
▁сей	-2823
▁учн	-2824
▁окупа	-2825
▁сф	-2826
▁лини	-2827
▁выясн	-2828
▁елико	-2829
▁ловин	-2830
▁ьер	-2831
▁Й	-2832
▁инте	-2833
▁оммер	-2834
▁ерд	-2835
▁урс	-2836
▁акци	-2837
ol	-2838
▁видет	-2839
▁одним	-2840
▁знак	-2841
▁24	-2842
▁оман	-2843
▁тарт	-2844
▁елать	-2845
▁рад	-2846
▁декс	-2847
▁путе	-2848
▁отмет	-2849
▁анд	-2850
▁точк	-2851
▁войны	-2852
▁ясь	-2853
▁ариа	-2854
▁га	-2855
▁лиг	-2856
▁омб	-2857
▁Re	-2858
▁бам	-2859
▁ерн	-2860
▁ею	-2861
▁нир	-2862
▁завод	-2863
▁свобо	-2864
in	-2865
▁ствие	-2866
▁мощн	-2867
▁проче	-2868
▁йст	-2869
▁курен	-2870
▁едл	-2871
▁трел	-2872
▁хе	-2873
▁верг	-2874
▁едве	-2875
▁пект	-2876
▁пок	-2877
▁УК	-2878
▁яр	-2879
▁100	-2880
▁наи	-2881
▁ужд	-2882
▁долго	-2883
▁кил	-2884
▁ерты	-2885
▁Пер	-2886
▁осток	-2887
▁Тр	-2888
▁обран	-2889
▁еля	-2890
▁естр	-2891
▁етер	-2892
▁мысл	-2893
▁ерал	-2894
▁хода	-2895
▁еа	-2896
▁водит	-2897
▁валют	-2898
▁лагод	-2899
▁ожал	-2900
▁боров	-2901
▁бот	-2902
▁твий	-2903
▁цель	-2904
▁цены	-2905
▁конфе	-2906
▁ходящ	-2907
▁бал	-2908
▁ката	-2909
▁мень	-2910
▁стана	-2911
▁вив	-2912
▁обыч	-2913
▁нно	-2914
▁сор	-2915
▁Анд	-2916
▁баз	-2917
▁ассов	-2918
▁точн	-2919
▁льг	-2920
▁ошло	-2921
▁оппоз	-2922
▁28	-2923
▁Па	-2924
▁иям	-2925
▁брос	-2926
▁пуска	-2927
▁ИГ	-2928
▁цер	-2929
▁Перв	-2930
▁адлеж	-2931
▁става	-2932
▁дов	-2933
▁остр	-2934
▁дебн	-2935
▁запад	-2936
▁помог	-2937
▁бив	-2938
▁яем	-2939
▁унд	-2940
▁ойск	-2941
СК	-2942
▁Джо	-2943
▁Лен	-2944
▁нкт	-2945
▁новен	-2946
▁дар	-2947
▁ева	-2948
▁нему	-2949
▁нь	-2950
▁нис	-2951
▁узе	-2952
▁инов	-2953
▁исты	-2954
▁екс	-2955
▁фун	-2956
▁трав	-2957
▁черн	-2958
▁вью	-2959
▁места	-2960
▁рев	-2961
▁иссии	-2962
▁ын	-2963
▁яс	-2964
▁доп	-2965
▁кер	-2966
▁оля	-2967
▁рис	-2968
▁чник	-2969
▁щего	-2970
▁графи	-2971
▁23	-2972
▁пас	-2973
▁ывать	-2974
▁глу	-2975
▁ути	-2976
▁овая	-2977
▁ервом	-2978
▁таким	-2979
▁боле	-2980
▁огн	-2981
▁кс	-2982
▁овить	-2983
▁спект	-2984
▁черед	-2985
▁щен	-2986
▁елов	-2987
▁нято	-2988
▁ыб	-2989
▁колле	-2990
▁виз	-2991
▁ица	-2992
▁иях	-2993
▁иков	-2994
▁ренц	-2995
▁рг	-2996
▁неу	-2997
▁Ста	-2998
▁ипл	-2999
▁таж	-3000
▁тонн	-3001
▁остов	-3002
▁Исто	-3003
▁еком	-3004
▁дает	-3005
▁омат	-3006
▁бесед	-3007
▁нс	-3008
▁Еще	-3009
▁носит	-3010
▁чист	-3011
▁хоч	-3012
▁ранен	-3013
▁p	-3014
▁меры	-3015
▁Петр	-3016
▁нта	-3017
▁союз	-3018
▁лучше	-3019
АО	-3020
▁льз	-3021
йс	-3022
▁лу	-3023
▁лач	-3024
▁лер	-3025
▁ниг	-3026
▁пора	-3027
ас	-3028
▁йм	-3029
▁сон	-3030
▁менты	-3031
▁юри	-3032
▁тенд	-3033
▁ывают	-3034
нешн	-3035
▁аха	-3036
▁родн	-3037
▁йте	-3038
▁дл	-3039
▁ули	-3040
▁расп	-3041
▁актер	-3042
▁ометр	-3043
▁ЦБ	-3044
▁фик	-3045
▁X	-3046
▁лаб	-3047
▁являю	-3048
il	-3049
▁бит	-3050
▁бок	-3051
▁дер	-3052
▁етк	-3053
▁зал	-3054
▁прие	-3055
▁роста	-3056
▁еи	-3057
▁лам	-3058
▁вто	-3059
▁атыв	-3060
▁авр	-3061
▁нф	-3062
▁дин	-3063
▁ети	-3064
▁атри	-3065
▁илу	-3066
▁оволь	-3067
▁трудн	-3068
▁рес	-3069
▁меньш	-3070
▁раздн	-3071
▁40	-3072
▁уне	-3073
▁новой	-3074
▁ональ	-3075
▁тип	-3076
▁жеств	-3077
▁гер	-3078
▁ейн	-3079
▁ечн	-3080
▁крес	-3081
▁вящ	-3082
▁елу	-3083
▁оче	-3084
▁фр	-3085
▁In	-3086
▁тут	-3087
▁дава	-3088
▁генер	-3089
▁Ал	-3090
▁кал	-3091
▁озна	-3092
▁четыр	-3093
ra	-3094
▁брита	-3095
▁живо	-3096
▁акции	-3097
▁йской	-3098
▁27	-3099
▁пал	-3100
▁рби	-3101
▁Ана	-3102
▁нул	-3103
▁алин	-3104
ари	-3105
▁чн	-3106
▁яющ	-3107
▁орож	-3108
▁льный	-3109
▁ерм	-3110
▁спис	-3111
▁теку	-3112
▁ине	-3113
▁кращ	-3114
▁паса	-3115
▁d	-3116
▁Але	-3117
▁Кир	-3118
▁Пар	-3119
▁бус	-3120
▁гри	-3121
▁фил	-3122
▁нуть	-3123
▁26	-3124
▁ктор	-3125
re	-3126
▁оба	-3127
▁O	-3128
▁шь	-3129
▁свет	-3130
▁оци	-3131
▁блюд	-3132
▁ремл	-3133
▁авари	-3134
▁еву	-3135
▁Пре	-3136
▁егу	-3137
▁кро	-3138
▁on	-3139
▁Ник	-3140
▁кого	-3141
▁29	-3142
▁брать	-3143
▁рь	-3144
▁писа	-3145
▁спе	-3146
▁овик	-3147
▁чив	-3148
▁лены	-3149
▁яжен	-3150
▁ден	-3151
▁дом	-3152
▁аден	-3153
▁ходят	-3154
▁вас	-3155
▁более	-3156
▁Эр	-3157
▁рии	-3158
▁какой	-3159
▁миним	-3160
▁ормир	-3161
▁ео	-3162
▁хан	-3163
▁атар	-3164
▁ента	-3165
▁Ст	-3166
▁ико	-3167
▁гост	-3168
▁вез	-3169
▁елк	-3170
▁зер	-3171
▁ниж	-3172
▁нужн	-3173
ССР	-3174
▁рон	-3175
▁Прав	-3176
▁зык	-3177
▁игу	-3178
▁инк	-3179
▁лаз	-3180
▁ино	-3181
▁гори	-3182
▁илов	-3183
▁еха	-3184
▁фра	-3185
▁ших	-3186
енк	-3187
▁олга	-3188
▁апад	-3189
▁олет	-3190
▁тива	-3191
▁вам	-3192
▁истов	-3193
▁ители	-3194
▁порта	-3195
▁опол	-3196
▁роис	-3197
▁логич	-3198
▁ако	-3199
▁енс	-3200
▁цит	-3201
▁илет	-3202
▁мину	-3203
▁стит	-3204
лат	-3205
▁ойд	-3206
▁орк	-3207
▁реф	-3208
▁канц	-3209
▁пт	-3210
▁The	-3211
▁ари	-3212
▁реди	-3213
▁реду	-3214
▁усск	-3215
▁тд	-3216
▁кате	-3217
▁проц	-3218
▁сим	-3219
▁ондо	-3220
▁ращ	-3221
▁рец	-3222
▁наши	-3223
▁терин	-3224
▁ея	-3225
▁оя	-3226
▁легк	-3227
▁ровал	-3228
▁йц	-3229
▁ассе	-3230
▁ельн	-3231
▁СССР	-3232
▁дпис	-3233
▁няли	-3234
▁отеч	-3235
▁оружи	-3236
▁часто	-3237
▁хр	-3238
▁еф	-3239
▁понят	-3240
▁пп	-3241
▁асно	-3242
▁орис	-3243
▁хран	-3244
us	-3245
▁осп	-3246
▁ьше	-3247
▁прек	-3248
▁овета	-3249
▁одном	-3250
▁тдель	-3251
▁жа	-3252
ro	-3253
▁илы	-3254
▁ховн	-3255
▁шк	-3256
▁эр	-3257
▁ажи	-3258
▁дил	-3259
▁лез	-3260
▁омер	-3261
▁прошл	-3262
▁непо	-3263
▁мерик	-3264
НР	-3265
▁тол	-3266
▁паден	-3267
БК	-3268
▁мя	-3269
▁аге	-3270
▁тавки	-3271
▁овил	-3272
▁внешн	-3273
▁ыта	-3274
▁проп	-3275
▁уем	-3276
▁глаш	-3277
▁рд	-3278
▁тю	-3279
▁фере	-3280
▁собра	-3281
мун	-3282
▁ВВ	-3283
▁аев	-3284
▁щей	-3285
▁начн	-3286
▁гн	-3287
▁телям	-3288
скв	-3289
▁ппо	-3290
▁­	-3291
▁ге	-3292
▁ивно	-3293
▁пони	-3294
▁Москв	-3295
▁ыплат	-3296
▁U	-3297
▁знача	-3298
▁социа	-3299
▁кцион	-3300
▁пришл	-3301
▁режде	-3302
▁инам	-3303
▁крет	-3304
▁мина	-3305
▁имени	-3306
▁красн	-3307
▁встр	-3308
▁изит	-3309
▁бк	-3310
▁еев	-3311
▁оно	-3312
▁екабр	-3313
▁юк	-3314
▁иде	-3315
▁льян	-3316
▁мск	-3317
▁вченк	-3318
▁зи	-3319
▁ловия	-3320
▁рител	-3321
▁ды	-3322
▁ага	-3323
▁клю	-3324
▁лав	-3325
▁одо	-3326
▁меж	-3327
▁ООО	-3328
▁ляе	-3329
▁режи	-3330
▁ысо	-3331
▁ещ	-3332
▁атели	-3333
▁км	-3334
▁отста	-3335
▁орон	-3336
▁анный	-3337
▁скому	-3338
Мы	-3339
гл	-3340
▁отив	-3341
▁маю	-3342
▁троль	-3343
▁круг	-3344
▁дписа	-3345
▁ing	-3346
▁наю	-3347
▁опро	-3348
▁срочн	-3349
▁елен	-3350
▁муни	-3351
▁ником	-3352
it	-3353
▁тие	-3354
▁ститу	-3355
▁егуля	-3356
▁ъем	-3357
▁итар	-3358
▁случ	-3359
▁ениях	-3360
▁бан	-3361
▁есс	-3362
▁ога	-3363
▁дых	-3364
▁лени	-3365
▁рейс	-3366
ace	-3367
▁назв	-3368
▁дтвер	-3369
▁оши	-3370
▁олд	-3371
▁зло	-3372
▁овле	-3373
▁+	-3374
▁зр	-3375
▁ув	-3376
▁диа	-3377
▁неиз	-3378
▁ущен	-3379
▁Со	-3380
▁лон	-3381
▁фес	-3382
▁аги	-3383
▁Бело	-3384
▁Im	-3385
▁див	-3386
▁реч	-3387
▁ражен	-3388
▁айк	-3389
▁вку	-3390
▁ками	-3391
▁акет	-3392
▁льск	-3393
▁толк	-3394
▁траж	-3395
▁платы	-3396
▁вст	-3397
▁гиб	-3398
▁роли	-3399
▁ажно	-3400
▁лада	-3401
▁пада	-3402
▁мирн	-3403
▁тора	-3404
▁рн	-3405
▁оды	-3406
▁юн	-3407
▁кст	-3408
▁ошли	-3409
▁оправ	-3410
▁ФС	-3411
▁двиг	-3412
▁ереж	-3413
▁o	-3414
▁ксп	-3415
▁амер	-3416
▁относ	-3417
▁итор	-3418
▁авлен	-3419
▁анали	-3420
▁разде	-3421
▁абл	-3422
▁нац	-3423
▁роль	-3424
▁Че	-3425
▁инци	-3426
▁лт	-3427
▁тож	-3428
▁оме	-3429
▁ечен	-3430
▁ват	-3431
▁здн	-3432
▁ьма	-3433
▁встре	-3434
age	-3435
▁РБК	-3436
▁аск	-3437
▁чат	-3438
▁сель	-3439
ЧС	-3440
вс	-3441
▁цк	-3442
▁вып	-3443
▁трир	-3444
▁енную	-3445
▁сия	-3446
▁ниже	-3447
ew	-3448
▁ради	-3449
▁возду	-3450
▁выш	-3451
▁орн	-3452
▁роп	-3453
▁енск	-3454
▁1,	-3455
▁прост	-3456
▁чувс	-3457
▁Image	-3458
▁Андре	-3459
▁дог	-3460
▁ысоко	-3461
▁омис	-3462
▁инд	-3463
▁дале	-3464
▁рок	-3465
▁яде	-3466
▁недо	-3467
▁спас	-3468
▁айд	-3469
▁щий	-3470
▁кция	-3471
▁онец	-3472
▁мб	-3473
▁брал	-3474
▁вода	-3475
▁оа	-3476
▁льная	-3477
▁Аб	-3478
▁шо	-3479
▁ульт	-3480
▁кри	-3481
▁той	-3482
▁имен	-3483
▁сш	-3484
▁одн	-3485
▁пог	-3486
▁лению	-3487
рет	-3488
▁оюза	-3489
▁актор	-3490
▁полне	-3491
ir	-3492
▁сами	-3493
▁канд	-3494
▁стой	-3495
▁гры	-3496
▁ельс	-3497
▁реда	-3498
▁спеш	-3499
as	-3500
▁соц	-3501
▁ура	-3502
▁дали	-3503
▁ъявил	-3504
▁шу	-3505
▁ключе	-3506
▁асил	-3507
▁дости	-3508
▁арх	-3509
▁верн	-3510
ков	-3511
▁ta	-3512
▁Рус	-3513
▁обре	-3514
▁ерк	-3515
▁буде	-3516
▁МЧС	-3517
▁Мос	-3518
▁леж	-3519
ТП	-3520
▁йл	-3521
▁ьного	-3522
ерь	-3523
▁хл	-3524
▁лад	-3525
▁енная	-3526
▁йская	-3527
▁ровел	-3528
▁Ру	-3529
▁дат	-3530
▁еперь	-3531
▁бере	-3532
▁сии	-3533
▁екрет	-3534
▁неп	-3535
▁рая	-3536
▁тных	-3537
▁листы	-3538
▁анти	-3539
ПР	-3540
▁Гр	-3541
▁нав	-3542
▁31	-3543
▁имн	-3544
▁роиз	-3545
▁обеди	-3546
▁дц	-3547
▁мена	-3548
▁овую	-3549
▁лко	-3550
▁жива	-3551
▁олос	-3552
▁K	-3553
▁дущ	-3554
▁дется	-3555
▁жер	-3556
▁рал	-3557
▁наб	-3558
▁ска	-3559
▁сот	-3560
▁ера	-3561
▁стей	-3562
▁рут	-3563
▁овор	-3564
▁рест	-3565
▁никам	-3566
▁итет	-3567
▁крас	-3568
▁Ну	-3569
▁льше	-3570
▁ндар	-3571
▁цент	-3572
АС	-3573
▁Ге	-3574
▁еврал	-3575
▁Пол	-3576
▁шеств	-3577
pp	-3578
▁щих	-3579
▁обиль	-3580
▁лл	-3581
▁рко	-3582
▁воч	-3583
▁смог	-3584
▁дну	-3585
▁ука	-3586
быт	-3587
▁олит	-3588
▁елик	-3589
▁пило	-3590
▁дут	-3591
▁рае	-3592
▁ума	-3593
▁зрени	-3594
▁спи	-3595
▁тали	-3596
▁енное	-3597
▁событ	-3598
▁ауд	-3599
▁внов	-3600
ите	-3601
▁анов	-3602
▁аю	-3603
▁хар	-3604
▁обнов	-3605
▁Ха	-3606
▁дея	-3607
▁чев	-3608
▁всю	-3609
▁лено	-3610
▁дии	-3611
▁ший	-3612
▁ектор	-3613
▁чай	-3614
▁мост	-3615
▁сол	-3616
▁слож	-3617
▁снова	-3618
▁Га	-3619
▁завис	-3620
el	-3621
▁озит	-3622
▁рина	-3623
▁Ла	-3624
▁оток	-3625
▁возгл	-3626
ook	-3627
▁ваний	-3628
▁200	-3629
▁нит	-3630
▁гроз	-3631
▁ника	-3632
▁ене	-3633
▁хол	-3634
▁яко	-3635
▁одар	-3636
▁al	-3637
▁менит	-3638
▁шин	-3639
▁ерег	-3640
▁Су	-3641
▁очи	-3642
▁ельск	-3643
▁Ре	-3644
▁абс	-3645
▁муж	-3646
▁двига	-3647
▁прекр	-3648
▁уга	-3649
▁овое	-3650
▁СКР	-3651
▁аде	-3652
▁прес	-3653
▁йским	-3654
▁дон	-3655
▁шев	-3656
▁ласть	-3657
▁начит	-3658
▁читат	-3659
▁ык	-3660
▁иби	-3661
▁эле	-3662
▁енда	-3663
▁кост	-3664
▁масс	-3665
▁ивающ	-3666
▁танци	-3667
▁поряд	-3668
▁стати	-3669
▁J	-3670
▁an	-3671
▁ерто	-3672
зр	-3673
▁60	-3674
▁ои	-3675
▁ати	-3676
ap	-3677
▁тт	-3678
▁овано	-3679
et	-3680
▁жды	-3681
▁пет	-3682
▁f	-3683
▁чан	-3684
▁ресс	-3685
▁енном	-3686
▁рошен	-3687
▁НИ	-3688
▁ДТП	-3689
▁рот	-3690
▁весь	-3691
▁енит	-3692
▁одозр	-3693
▁ерии	-3694
▁норм	-3695
уст	-3696
ri	-3697
▁сно	-3698
▁азета	-3699
▁оронн	-3700
▁Сири	-3701
▁еред	-3702
▁ризм	-3703
▁мп	-3704
▁ета	-3705
▁пись	-3706
▁трана	-3707
▁рб	-3708
▁изо	-3709
▁ранс	-3710
▁язан	-3711
▁ван	-3712
▁ходов	-3713
▁дают	-3714
▁ович	-3715
▁таки	-3716
▁com	-3717
▁амб	-3718
▁ерно	-3719
▁ируют	-3720
▁епл	-3721
▁Кита	-3722
▁ург	-3723
▁моск	-3724
▁ктив	-3725
▁ирм	-3726
▁замет	-3727
▁иж	-3728
▁раи	-3729
▁цеп	-3730
▁нерг	-3731
▁тмеч	-3732
▁еализ	-3733
▁син	-3734
▁може	-3735
чер	-3736
▁юю	-3737
▁били	-3738
▁есов	-3739
▁иновн	-3740
▁морск	-3741
▁потер	-3742
▁елю	-3743
▁сан	-3744
▁изма	-3745
▁орск	-3746
▁ченко	-3747
▁ыч	-3748
▁Фед	-3749
▁Ново	-3750
▁орта	-3751
▁оммун	-3752
▁стк	-3753
▁лица	-3754
▁восто	-3755
▁раниц	-3756
▁бав	-3757
▁олк	-3758
▁дина	-3759
▁жить	-3760
▁иро	-3761
▁Y	-3762
▁арь	-3763
▁Face	-3764
▁юб	-3765
▁рач	-3766
▁роф	-3767
▁таб	-3768
am	-3769
▁тви	-3770
▁пали	-3771
▁сцен	-3772
▁скоро	-3773
▁видн	-3774
▁ентов	-3775
▁гин	-3776
▁шего	-3777
▁зации	-3778
▁плани	-3779
▁тян	-3780
▁book	-3781
▁ница	-3782
▁бильн	-3783
▁борон	-3784
▁еда	-3785
▁утк	-3786
▁ально	-3787
ic	-3788
СКА	-3789
▁ФСБ	-3790
▁легко	-3791
ht	-3792
▁App	-3793
▁лека	-3794
▁ерс	-3795
▁осн	-3796
▁тят	-3797
▁ывал	-3798
▁щиков	-3799
▁изб	-3800
▁ЦСКА	-3801
▁одств	-3802
▁жало	-3803
▁тобы	-3804
▁Бар	-3805
▁вали	-3806
▁проса	-3807
▁перат	-3808
▁нек	-3809
▁очт	-3810
▁идер	-3811
▁рави	-3812
▁зиров	-3813
▁лем	-3814
▁мещ	-3815
▁овар	-3816
▁рств	-3817
▁олнен	-3818
▁стрир	-3819
▁Кол	-3820
▁икл	-3821
▁олл	-3822
▁боту	-3823
▁эф	-3824
▁олод	-3825
▁ошла	-3826
▁устил	-3827
la	-3828
▁адо	-3829
▁удь	-3830
▁торов	-3831
▁вак	-3832
▁игн	-3833
▁обс	-3834
▁нализ	-3835
▁скими	-3836
▁арл	-3837
▁лох	-3838
▁щем	-3839
▁ацие	-3840
▁дчер	-3841
▁оэ	-3842
▁давн	-3843
▁етел	-3844
▁лена	-3845
▁тром	-3846
▁ада	-3847
▁ича	-3848
▁йно	-3849
▁едал	-3850
▁йств	-3851
▁льзов	-3852
ЭС	-3853
▁Ег	-3854
▁зах	-3855
▁иан	-3856
▁нение	-3857
▁ошенн	-3858
▁ферен	-3859
хо	-3860
▁500	-3861
▁есь	-3862
▁олько	-3863
▁Гор	-3864
▁гат	-3865
▁лле	-3866
▁итик	-3867
▁преп	-3868
▁дчерк	-3869
▁выд	-3870
▁ьми	-3871
▁асти	-3872
▁кцию	-3873
▁прив	-3874
▁рель	-3875
▁New	-3876
▁поле	-3877
▁ожник	-3878
▁ипа	-3879
▁ерез	-3880
▁ши	-3881
▁тил	-3882
▁крит	-3883
▁форм	-3884
▁ицион	-3885
▁эм	-3886
▁адк	-3887
▁лее	-3888
▁оказа	-3889
бли	-3890
▁руд	-3891
▁ртал	-3892
▁овест	-3893
▁публи	-3894
▁едж	-3895
▁елл	-3896
▁мур	-3897
▁ньк	-3898
▁рующ	-3899
▁овом	-3900
▁стин	-3901
▁енным	-3902
бре	-3903
▁рв	-3904
▁ху	-3905
▁Вот	-3906
▁квал	-3907
▁одпис	-3908
▁тябре	-3909
▁тки	-3910
▁зан	-3911
▁лом	-3912
▁суде	-3913
▁льным	-3914
▁ссе	-3915
▁метро	-3916
im	-3917
▁щи	-3918
▁кий	-3919
▁ходы	-3920
▁комму	-3921
гр	-3922
▁ща	-3923
▁лей	-3924
▁ужден	-3925
▁жан	-3926
▁алк	-3927
▁Ле	-3928
▁ушк	-3929
▁арак	-3930
▁века	-3931
йд	-3932
▁зб	-3933
▁бро	-3934
▁рели	-3935
ch	-3936
▁овре	-3937
▁разу	-3938
▁льном	-3939
▁плате	-3940
▁аще	-3941
▁ину	-3942
▁рази	-3943
▁тавил	-3944
КС	-3945
▁ире	-3946
▁озв	-3947
▁гент	-3948
▁сери	-3949
▁Стр	-3950
▁ежд	-3951
▁ыти	-3952
▁еству	-3953
▁пита	-3954
ut	-3955
▁ыр	-3956
▁мн	-3957
▁бед	-3958
▁икр	-3959
▁парта	-3960
АЗ	-3961
▁ОП	-3962
▁Фр	-3963
▁евр	-3964
▁уре	-3965
▁каких	-3966
▁ствов	-3967
ed	-3968
▁июл	-3969
▁преж	-3970
▁астро	-3971
▁ограф	-3972
▁торго	-3973
op	-3974
▁Пл	-3975
ДД	-3976
▁35	-3977
▁йства	-3978
▁спрос	-3979
ss	-3980
▁новл	-3981
▁расте	-3982
▁онн	-3983
▁пел	-3984
▁уме	-3985
▁асть	-3986
▁ежи	-3987
▁ады	-3988
▁иже	-3989
▁екци	-3990
▁70	-3991
▁циа	-3992
▁авать	-3993
▁иги	-3994
▁ерри	-3995
▁Аз	-3996
▁еру	-3997
▁ослав	-3998
▁зе	-3999
▁зии	-4000
▁ьги	-4001
▁олиц	-4002
▁торию	-4003
▁Му	-4004
▁гал	-4005
▁роме	-4006
▁семи	-4007
▁льное	-4008
▁прежд	-4009
▁Их	-4010
▁ево	-4011
▁неш	-4012
▁асто	-4013
▁олон	-4014
▁проч	-4015
▁стен	-4016
▁жн	-4017
▁нат	-4018
▁uter	-4019
▁араб	-4020
▁нает	-4021
▁етств	-4022
▁нимал	-4023
▁ia	-4024
▁uters	-4025
▁экстр	-4026
▁ечь	-4027
▁атом	-4028
▁иции	-4029
▁итали	-4030
▁пев	-4031
▁щие	-4032
▁акан	-4033
▁ретен	-4034
▁300	-4035
▁запис	-4036
▁ыстав	-4037
▁авля	-4038
▁икой	-4039
▁важ	-4040
▁ерв	-4041
▁тором	-4042
ИК	-4043
▁ыл	-4044
▁ище	-4045
▁орг	-4046
▁отн	-4047
▁чест	-4048
▁ытия	-4049
▁ривод	-4050
▁чре	-4051
▁айне	-4052
▁защи	-4053
▁дни	-4054
ent	-4055
▁анам	-4056
▁ойти	-4057
▁таль	-4058
▁ойдет	-4059
▁омоч	-4060
▁ложно	-4061
▁еду	-4062
▁ыша	-4063
▁ерев	-4064
▁стер	-4065
▁азе	-4066
▁кова	-4067
▁семь	-4068
▁ерл	-4069
▁сьм	-4070
▁акл	-4071
▁вно	-4072
▁ких	-4073
▁стью	-4074
▁авших	-4075
▁йских	-4076
▁Мих	-4077
▁иат	-4078
▁ойк	-4079
▁етал	-4080
▁Apple	-4081
▁оком	-4082
▁тист	-4083
▁h	-4084
▁аши	-4085
▁селе	-4086
▁ериал	-4087
▁айм	-4088
▁могу	-4089
▁стор	-4090
▁ениям	-4091
▁МО	-4092
▁мф	-4093
▁олго	-4094
▁чета	-4095
▁лд	-4096
▁емн	-4097
▁отя	-4098
▁одол	-4099
▁опуст	-4100
▁сид	-4101
▁иска	-4102
▁вд	-4103
▁нка	-4104
▁ород	-4105
▁аспор	-4106
▁идел	-4107
▁сфер	-4108
▁циаль	-4109
▁Вол	-4110
▁нию	-4111
▁хим	-4112
▁имет	-4113
▁зг	-4114
▁анц	-4115
▁тск	-4116
▁рте	-4117
▁тру	-4118
▁чать	-4119
▁Air	-4120
▁номи	-4121
ыл	-4122
▁Ком	-4123
▁итр	-4124
▁умы	-4125
▁аков	-4126
▁вший	-4127
▁идно	-4128
▁истам	-4129
ad	-4130
▁Эти	-4131
▁век	-4132
▁нед	-4133
▁ата	-4134
▁оин	-4135
▁шка	-4136
▁Там	-4137
▁енер	-4138
▁слови	-4139
ТБ	-4140
▁80	-4141
▁ГУ	-4142
▁тал	-4143
▁ария	-4144
▁льную	-4145
▁яд	-4146
▁икт	-4147
▁дост	-4148
▁Ту	-4149
▁арат	-4150
▁двер	-4151
ДР	-4152
▁кие	-4153
▁Мне	-4154
▁льс	-4155
▁ерни	-4156
▁лес	-4157
▁тир	-4158
▁авал	-4159
▁борот	-4160
АН	-4161
▁ару	-4162
▁КН	-4163
▁емп	-4164
▁наци	-4165
▁оско	-4166
▁страх	-4167
▁анск	-4168
▁юм	-4169
▁оке	-4170
▁алог	-4171
▁исан	-4172
▁едине	-4173
▁стане	-4174
▁ъя	-4175
▁сче	-4176
▁внес	-4177
▁емен	-4178
▁маль	-4179
▁ихо	-4180
▁рош	-4181
wi	-4182
▁сб	-4183
▁ете	-4184
▁охо	-4185
▁дной	-4186
▁мени	-4187
▁поте	-4188
▁ульта	-4189
▁чень	-4190
▁вышен	-4191
ха	-4192
мери	-4193
▁ВВП	-4194
▁дно	-4195
▁Амери	-4196
▁арн	-4197
▁дес	-4198
▁уки	-4199
▁уру	-4200
▁влад	-4201
▁аша	-4202
▁мае	-4203
▁отк	-4204
▁окол	-4205
▁яются	-4206
▁Те	-4207
▁здо	-4208
▁одав	-4209
▁ентир	-4210
▁днем	-4211
▁роизо	-4212
азд	-4213
▁зы	-4214
▁ины	-4215
▁кус	-4216
▁знал	-4217
▁нием	-4218
▁рана	-4219
▁зглав	-4220
▁празд	-4221
▁роход	-4222
▁трети	-4223
▁лы	-4224
▁дос	-4225
▁ооб	-4226
▁рган	-4227
▁ресто	-4228
▁тию	-4229
▁суль	-4230
▁увств	-4231
▁Кл	-4232
▁Уже	-4233
▁ильно	-4234
▁вание	-4235
▁особо	-4236
▁атл	-4237
▁туа	-4238
▁лива	-4239
▁йство	-4240
▁апа	-4241
▁реми	-4242
эр	-4243
▁риг	-4244
▁валь	-4245
▁одел	-4246
ck	-4247
▁збе	-4248
▁ске	-4249
▁инима	-4250
▁манда	-4251
▁сю	-4252
мощ	-4253
▁льд	-4254
▁КНДР	-4255
▁абот	-4256
▁мини	-4257
▁апита	-4258
▁бю	-4259
▁мс	-4260
▁енты	-4261
▁помощ	-4262
▁ВТБ	-4263
▁ейс	-4264
▁ален	-4265
▁Эта	-4266
▁ора	-4267
▁десь	-4268
▁Вел	-4269
▁уры	-4270
▁тория	-4271
ve	-4272
▁Mo	-4273
▁еет	-4274
▁купк	-4275
▁жения	-4276
▁етн	-4277
▁акое	-4278
▁ким	-4279
▁афик	-4280
▁вход	-4281
▁держа	-4282
▁торог	-4283
▁щая	-4284
▁дра	-4285
▁Ду	-4286
▁нл	-4287
▁уле	-4288
▁арла	-4289
▁отор	-4290
▁ыска	-4291
▁ьных	-4292
ail	-4293
▁St	-4294
▁оворя	-4295
▁эп	-4296
▁етр	-4297
▁фиц	-4298
▁опров	-4299
▁торое	-4300
▁2,	-4301
▁аи	-4302
▁чт	-4303
▁вич	-4304
▁нача	-4305
▁емл	-4306
▁льт	-4307
▁щин	-4308
▁лично	-4309
▁ФР	-4310
▁аже	-4311
▁Миха	-4312
▁45	-4313
▁ГИ	-4314
▁зин	-4315
▁Ее	-4316
▁Кар	-4317
▁кнул	-4318
▁мель	-4319
▁атери	-4320
▁Ас	-4321
▁ашн	-4322
▁уля	-4323
▁авил	-4324
▁нтари	-4325
▁Twi	-4326
▁дро	-4327
▁пин	-4328
▁риоб	-4329
▁нец	-4330
▁tter	-4331
▁евск	-4332
▁есед	-4333
▁азы	-4334
▁дор	-4335
▁жно	-4336
▁Велик	-4337
▁Ск	-4338
▁уго	-4339
▁буду	-4340
▁вили	-4341
▁орите	-4342
AD	-4343
▁Sp	-4344
▁леп	-4345
▁оих	-4346
▁рно	-4347
▁тих	-4348
▁езно	-4349
▁осла	-4350
nd	-4351
▁ысл	-4352
▁рект	-4353
apt	-4354
▁озг	-4355
▁уша	-4356
▁лков	-4357
▁раща	-4358
▁банка	-4359
▁Ки	-4360
мети	-4361
▁Goo	-4362
▁пло	-4363
▁тмети	-4364
цк	-4365
▁ган	-4366
▁ига	-4367
▁лите	-4368
▁скоре	-4369
▁Fi	-4370
▁оди	-4371
▁жной	-4372
▁наче	-4373
▁роде	-4374
чк	-4375
▁кад	-4376
▁шно	-4377
▁авка	-4378
▁брат	-4379
▁вать	-4380
▁gle	-4381
▁рож	-4382
▁аэро	-4383
▁наль	-4384
▁ателя	-4385
▁000	-4386
▁атр	-4387
▁взя	-4388
▁кому	-4389
▁терн	-4390
▁аба	-4391
▁тей	-4392
▁еров	-4393
▁яться	-4394
▁рж	-4395
▁режн	-4396
▁Кал	-4397
▁имат	-4398
▁риго	-4399
▁диров	-4400
▁90	-4401
▁Ch	-4402
▁вые	-4403
▁очь	-4404
▁амен	-4405
▁итан	-4406
▁столь	-4407
бу	-4408
▁Gr	-4409
▁АО	-4410
▁лн	-4411
▁сяч	-4412
▁ЦИК	-4413
▁лия	-4414
▁укра	-4415
▁пройд	-4416
ay	-4417
ниц	-4418
▁ири	-4419
▁ски	-4420
▁сты	-4421
▁атор	-4422
▁прим	-4423
СА	-4424
▁II	-4425
▁ню	-4426
▁эл	-4427
▁зко	-4428
▁оки	-4429
▁оку	-4430
▁тура	-4431
▁фт	-4432
▁ебе	-4433
▁нова	-4434
▁плен	-4435
▁улир	-4436
▁рл	-4437
▁Та	-4438
▁бора	-4439
▁счет	-4440
▁Си	-4441
▁ода	-4442
▁адим	-4443
▁екла	-4444
▁нист	-4445
▁елове	-4446
▁нз	-4447
▁нц	-4448
▁чк	-4449
▁ижн	-4450
▁пир	-4451
▁кров	-4452
▁Бо	-4453
▁оциал	-4454
is	-4455
ПРФ	-4456
▁СП	-4457
▁мм	-4458
▁есно	-4459
▁овсе	-4460
▁орожн	-4461
▁рошло	-4462
▁ig	-4463
▁ыт	-4464
▁Цен	-4465
▁News	-4466
▁алья	-4467
▁асса	-4468
▁ань	-4469
▁Ол	-4470
▁омен	-4471
▁ic	-4472
▁дск	-4473
▁КПРФ	-4474
ADA	-4475
▁Мари	-4476
▁нацио	-4477
▁утр	-4478
▁овен	-4479
▁прев	-4480
▁раш	-4481
▁сег	-4482
▁уте	-4483
▁capt	-4484
▁овки	-4485
▁ro	-4486
▁рм	-4487
▁ато	-4488
▁икс	-4489
▁янс	-4490
▁глас	-4491
▁овед	-4492
▁огод	-4493
▁озиц	-4494
БУ	-4495
ГУ	-4496
▁€	-4497
▁ОАО	-4498
▁оты	-4499
ЕК	-4500
▁et	-4501
▁Ос	-4502
▁оми	-4503
▁реко	-4504
▁довол	-4505
▁завер	-4506
▁·	-4507
▁ря	-4508
▁ьмо	-4509
▁отни	-4510
▁рочн	-4511
▁спек	-4512
▁овало	-4513
▁читаю	-4514
ПК	-4515
▁ира	-4516
▁рупп	-4517
▁ушен	-4518
▁коло	-4519
▁олов	-4520
▁пик	-4521
▁хва	-4522
▁етро	-4523
БДД	-4524
▁150	-4525
▁танц	-4526
▁вка	-4527
▁либ	-4528
▁нтар	-4529
▁онии	-4530
▁оже	-4531
▁онт	-4532
▁отел	-4533
▁поста	-4534
▁or	-4535
▁1,5	-4536
▁азу	-4537
▁ГИБДД	-4538
▁имя	-4539
▁обще	-4540
ФА	-4541
▁ВС	-4542
▁заг	-4543
▁кап	-4544
▁WADA	-4545
▁суди	-4546
▁толи	-4547
▁cop	-4548
▁дко	-4549
▁елем	-4550
▁оотв	-4551
▁рофес	-4552
▁'	-4553
лин	-4554
▁енз	-4555
▁изу	-4556
▁оем	-4557
▁цир	-4558
▁лома	-4559
▁сень	-4560
▁альне	-4561
▁кру	-4562
▁рым	-4563
▁ливо	-4564
▁угол	-4565
oup	-4566
▁ац	-4567
▁виж	-4568
▁ерп	-4569
▁лиж	-4570
▁овь	-4571
▁цам	-4572
▁естн	-4573
▁ируе	-4574
▁меет	-4575
▁ержив	-4576
шк	-4577
▁уэ	-4578
▁Суд	-4579
▁деж	-4580
▁бить	-4581
▁екл	-4582
▁торы	-4583
▁лев	-4584
▁вати	-4585
▁исто	-4586
▁трое	-4587
▁служи	-4588
yr	-4589
▁есо	-4590
▁очет	-4591
▁рода	-4592
▁лизир	-4593
▁ровск	-4594
▁нак	-4595
id	-4596
ье	-4597
▁ДНР	-4598
▁льц	-4599
▁пеш	-4600
▁трон	-4601
▁нешне	-4602
▁онных	-4603
ul	-4604
▁напр	-4605
▁оров	-4606
▁сточ	-4607
▁омпан	-4608
▁Li	-4609
▁уи	-4610
▁one	-4611
▁воен	-4612
▁рови	-4613
▁делен	-4614
▁400	-4615
▁еди	-4616
▁нна	-4617
▁рва	-4618
▁хор	-4619
▁щим	-4620
▁ятс	-4621
▁ипе	-4622
▁пус	-4623
▁ight	-4624
▁аниям	-4625
▁вырос	-4626
▁Le	-4627
▁вся	-4628
▁иву	-4629
▁оры	-4630
▁учил	-4631
▁тиков	-4632
ТС	-4633
▁гог	-4634
▁арод	-4635
▁правд	-4636
▁вт	-4637
▁дох	-4638
▁верд	-4639
▁эй	-4640
▁рже	-4641
▁сев	-4642
▁тям	-4643
▁арии	-4644
▁одит	-4645
РК	-4646
▁32	-4647
▁дк	-4648
▁ишь	-4649
▁стори	-4650
▁вших	-4651
▁иями	-4652
▁орош	-4653
▁стил	-4654
▁кальн	-4655
▁напад	-4656
▁жет	-4657
▁ома	-4658
▁рол	-4659
▁акой	-4660
ид	-4661
▁k	-4662
▁Хо	-4663
▁арен	-4664
▁еста	-4665
▁стоя	-4666
▁copyr	-4667
▁редне	-4668
▁нн	-4669
▁ега	-4670
▁дель	-4671
▁упал	-4672
▁аду	-4673
▁кви	-4674
▁мос	-4675
▁пан	-4676
▁ОПЕК	-4677
▁аров	-4678
▁есси	-4679
▁форма	-4680
▁СН	-4681
▁юди	-4682
▁вить	-4683
▁ицей	-4684
▁лово	-4685
▁отов	-4686
▁тики	-4687
▁урман	-4688
▁ави	-4689
▁емье	-4690
ks	-4691
os	-4692
▁ar	-4693
▁рой	-4694
▁добн	-4695
▁ивер	-4696
▁iP	-4697
▁of	-4698
▁Вп	-4699
▁дели	-4700
▁есте	-4701
▁ийск	-4702
▁лава	-4703
▁оспо	-4704
▁тече	-4705
▁Щ	-4706
▁Ис	-4707
▁обр	-4708
▁рид	-4709
▁ацию	-4710
▁коро	-4711
▁онно	-4712
▁сили	-4713
▁перес	-4714
ук	-4715
▁ожен	-4716
▁ствии	-4717
гов	-4718
▁le	-4719
▁Tim	-4720
▁убер	-4721
.,	-4722
▁3,	-4723
▁	-4724
о	-4725
е	-4726
а	-4727
и	-4728
н	-4729
т	-4730
с	-4731
р	-4732
в	-4733
л	-4734
к	-4735
д	-4736
м	-4737
п	-4738
у	-4739
ы	-4740
я	-4741
г	-4742
з	-4743
б	-4744
,	-4745
ь	-4746
й	-4747
ч	-4748
.	-4749
х	-4750
ж	-4751
"	-4752
ц	-4753
ю	-4754
ш	-4755
-	-4756
щ	-4757
С	-4758
ф	-4759
э	-4760
В	-4761
П	-4762
1	-4763
0	-4764
К	-4765
Р	-4766
2	-4767
А	-4768
М	-4769
Н	-4770
О	-4771
И	-4772
Д	-4773
Т	-4774
Б	-4775
:	-4776
e	-4777
Г	-4778
5	-4779
a	-4780
3	-4781
Ф	-4782
(	-4783
)	-4784
o	-4785
6	-4786
4	-4787
У	-4788
r	-4789
Е	-4790
9	-4791
i	-4792
n	-4793
Л	-4794
t	-4795
7	-4796
8	-4797
З	-4798
Э	-4799
Ш	-4800
s	-4801
ъ	-4802
u	-4803
l	-4804
Ч	-4805
%	-4806
Х	-4807
Я	-4808
c	-4809
Ц	-4810
?	-4811
A	-4812
d	-4813
m	-4814
g	-4815
S	-4816
p	-4817
h	-4818
I	-4819
T	-4820
Ж	-4821
L	-4822
C	-4823
R	-4824
Ю	-4825
y	-4826
Ъ	-4827
N	-4828
B	-4829
M	-4830
P	-4831
F	-4832
k	-4833
b	-4834
!	-4835
w	-4836
G	-4837
D	-4838
$	-4839
W	-4840
E	-4841
/	-4842
v	-4843
f	-4844
;	-4845
V	-4846
H	-4847
O	-4848
X	-4849
x	-4850
Й	-4851
U	-4852
z	-4853
J	-4854
K	-4855
­	-4856
+	-4857
Y	-4858
·	-4859
€	-4860
'	-4861
&	-4862
Z	-4863
Щ	-4864
[	-4865
°	-4866
]	-4867
Q	-4868
j	-4869
‐	-4870
>	-4871
і	-4872
―	-4873
*	-4874
q	-4875
Ы	-4876
−	-4877
_	-4878
#	-4879
£	-4880
@	-4881
Ь	-4882
̆	-4883
=	-4884
`	-4885
ü	-4886
ä	-4887
ї	-4888
•	-4889
é	-4890
õ	-4891
×	-4892
⁄	-4893
<	-4894
є	-4895
■	-4896
ó	-4897
′	-4898
©	-4899
ö	-4900
→	-4901
́	-4902
‒	-4903
è	-4904
І	-4905
þ	-4906
‬	-4907
\	-4908
~	-4909
É	-4910
ë	-4911
μ	-4912
ў	-4913
‍	-4914
😂	-4915
¦	-4916
¬	-4917
Ö	-4918
à	-4919
Ş	-4920
Ν	-4921
α	-4922
β	-4923
Ў	-4924
қ	-4925
‪	-4926
ç	-4927
ê	-4928
í	-4929
ð	-4930
ô	-4931
ī	-4932
ı	-4933
ŏ	-4934
ś	-4935
Š	-4936
ʀ	-4937
ʼ	-4938
Α	-4939
Η	-4940
ν	-4941
ο	-4942
џ	-4943
ғ	-4944
▲	-4945
⚽	-4946
️	-4947
¤	-4948
¥	-4949
§	-4950
Ë	-4951
ß	-4952
á	-4953
ø	-4954
ā	-4955
ę	-4956
İ	-4957
Ł	-4958
ń	-4959
ş	-4960
š	-4961
̈	-4962
̊	-4963
Έ	-4964
Γ	-4965
Σ	-4966
έ	-4967
λ	-4968
ρ	-4969
τ	-4970
χ	-4971
ώ	-4972
Є	-4973
Ї	-4974
Қ	-4975
ҳ	-4976
ӣ	-4977
∙	-4978
⋅	-4979
─	-4980
►	-4981
●	-4982
☃	-4983
☝	-4984
♫	-4985
❄	-4986
《	-4987
》	-4988
	-4989
🌞	-4990
🍺	-4991
🎂	-4992
🐅	-4993
🐗	-4994
🐺	-4995
💪	-4996
