<unk>	0
<s>	0
</s>	0
,	-3.17095
.	-3.47653
▁в	-3.75702
а	-3.90786
▁	-4.25026
▁и	-4.2783
е	-4.30918
▁на	-4.49209
▁"	-4.66252
▁с	-4.69155
и	-4.71098
▁по	-4.93726
ы	-4.95308
▁-	-4.95312
у	-4.97226
▁не	-4.98519
м	-4.99428
-	-5.03432
▁что	-5.14908
о	-5.17248
"	-5.25451
ов	-5.29635
й	-5.31968
х	-5.40319
ом	-5.42835
▁В	-5.449
▁за	-5.522
▁о	-5.65736
:	-5.72311
▁к	-5.73415
ой	-5.7355
▁из	-5.73736
▁у	-5.81916
с	-5.82909
▁от	-5.83975
",	-5.8935
я	-5.94538
в	-6.07769
▁(	-6.09719
го	-6.10833
▁а	-6.14778
▁до	-6.19469
т	-6.21357
ся	-6.21674
▁для	-6.23377
▁при	-6.24607
ого	-6.29094
".	-6.2947
▁С	-6.30342
▁как	-6.3085
▁По	-6.35318
ли	-6.37131
▁года	-6.39217
ных	-6.39343
но	-6.41421
д	-6.44182
▁России	-6.44263
ка	-6.46329
ной	-6.47333
л	-6.50081
ки	-6.50326
ия	-6.50402
▁это	-6.51394
ами	-6.51766
ю	-6.52283
к	-6.52515
▁его	-6.53465
ам	-6.55129
▁под	-6.58193
ая	-6.58684
ми	-6.59494
ные	-6.61415
ет	-6.62906
ного	-6.64291
з	-6.64705
▁А	-6.64864
ых	-6.6544
ный	-6.66081
▁он	-6.66122
▁об	-6.66478
▁но	-6.67432
▁про	-6.6873
н	-6.70976
▁со	-6.71755
на	-6.72075
ах	-6.72808
ем	-6.74859
ие	-6.74884
ей	-6.75514
ый	-6.7704
ь	-6.77501
▁этом	-6.78475
▁вы	-6.79539
ла	-6.79623
▁На	-6.80048
)	-6.80302
▁раз	-6.81722
▁все	-6.81951
ий	-6.8297
р	-6.85324
▁будет	-6.85852
ть	-6.88012
ст	-6.89128
то	-6.89448
за	-6.89495
▁году	-6.89595
ку	-6.89862
п	-6.91071
ло	-6.93127
▁также	-6.93434
ии	-6.94786
ить	-6.96512
▁И	-6.96781
ую	-6.97866
▁то	-6.98415
ля	-6.99628
▁же	-6.99915
С	-7.00124
г	-7.01952
▁был	-7.03315
ые	-7.03364
▁уже	-7.0376
ч	-7.06775
▁было	-7.07986
им	-7.0905
▁пере	-7.11128
▁время	-7.11408
▁которые	-7.12192
▁К	-7.14533
ж	-7.14977
▁так	-7.17189
ит	-7.17364
▁том	-7.18044
ш	-7.18218
ная	-7.18832
ию	-7.19283
ным	-7.19324
ской	-7.20684
▁после	-7.21328
▁У	-7.21585
ва	-7.22981
▁во	-7.23218
▁только	-7.2407
▁их	-7.24926
ым	-7.25251
ра	-7.25374
б	-7.25498
▁мы	-7.25795
ни	-7.25875
▁США	-7.2618
▁еще	-7.26335
не	-7.2726
?	-7.27747
да	-7.28554
▁того	-7.2868
▁или	-7.29053
▁я	-7.29683
▁может	-7.30111
ке	-7.30735
та	-7.31101
▁более	-7.31576
▁Но	-7.31863
▁Как	-7.32138
▁лет	-7.33237
▁Д	-7.33741
▁О	-7.34032
ского	-7.34272
▁чтобы	-7.34646
вер	-7.3555
ок	-7.35629
ин	-7.37808
▁были	-7.38214
▁который	-7.3848
ко	-7.38596
▁г	-7.3971
▁ее	-7.40132
).	-7.40407
▁они	-7.42265
ную	-7.42356
К	-7.4275
ков	-7.43213
В	-7.43397
ется	-7.43633
ят	-7.43803
▁РФ	-7.43993
ать	-7.44001
▁человек	-7.44513
▁1	-7.45049
▁заявил	-7.45772
ль	-7.45927
▁бы	-7.46012
А	-7.46451
де	-7.46539
ен	-7.47139
ое	-7.47228
му	-7.47337
ал	-7.47346
▁19	-7.50267
▁Об	-7.50818
▁За	-7.50834
ри	-7.50873
М	-7.50934
тор	-7.5115
О	-7.51321
ев	-7.5133
ор	-7.52311
▁ли	-7.53058
▁При	-7.53085
мен	-7.53253
ют	-7.53358
▁есть	-7.54086
ное	-7.54289
ном	-7.5467
ча	-7.55905
ил	-7.571
▁этого	-7.57147
их	-7.57396
че	-7.57813
по	-7.57979
он	-7.5806
s	-7.58337
чи	-7.58993
▁словам	-7.59177
▁руб	-7.59461
Р	-7.60497
),	-7.61101
об	-7.62148
ер	-7.62522
▁2016	-7.62858
ти	-7.6295
▁области	-7.63041
ф	-7.63831
ви	-7.64755
лен	-7.65535
ру	-7.65646
▁Это	-7.65697
▁суд	-7.66532
или	-7.66554
▁Я	-7.66578
▁млн	-7.66662
▁2015	-7.67323
ский	-7.67669
▁чем	-7.69227
от	-7.69592
▁тем	-7.69616
▁если	-7.69866
▁будут	-7.6989
Д	-7.69986
▁без	-7.70538
▁ре	-7.71537
▁Он	-7.72123
Б	-7.72327
П	-7.73815
ле	-7.74089
▁когда	-7.74114
Т	-7.74352
те	-7.74525
из	-7.74921
▁была	-7.7504
▁М	-7.75957
▁рублей	-7.75975
▁можно	-7.762
▁она	-7.76556
▁быть	-7.76635
тель	-7.76791
ос	-7.77107
сти	-7.77787
▁Ф	-7.78117
пи	-7.78362
▁очень	-7.78548
▁где	-7.7902
ма	-7.80107
▁страны	-7.80354
▁млрд	-7.80618
▁компании	-7.80824
ских	-7.81248
ться	-7.81482
▁Не	-7.82046
лись	-7.82183
▁П	-7.82768
ными	-7.83067
▁сообщает	-7.83422
▁Г	-7.83881
ба	-7.83915
вод	-7.83959
ение	-7.84401
▁год	-7.84633
▁сказал	-7.84865
▁них	-7.85911
ны	-7.86429
▁рас	-7.865
▁ни	-7.86574
▁п	-7.88027
▁2	-7.88075
3	-7.88713
ро	-7.88813
▁против	-7.89297
▁один	-7.89389
a	-7.90292
ство	-7.91447
кой	-7.9147
ения	-7.91698
ци	-7.92018
ель	-7.92225
ru	-7.92247
o	-7.92415
И	-7.92793
дер	-7.92968
▁больше	-7.93046
во	-7.93079
▁тыс	-7.93284
али	-7.93393
тер	-7.93558
ты	-7.93671
же	-7.93714
▁сообщил	-7.93798
лась	-7.93801
ну	-7.93855
▁данным	-7.93888
▁нас	-7.94309
ар	-7.94327
▁даже	-7.95363
Ъ	-7.95391
▁Владимир	-7.95412
1	-7.95424
прав	-7.95645
▁5	-7.95701
▁10	-7.95826
▁Б	-7.96251
ня	-7.96436
ров	-7.96555
▁3	-7.96585
2	-7.96739
▁ко	-7.96875
i	-7.96887
лся	-7.97467
лов	-7.97599
до	-7.97603
ре	-7.9781
▁могут	-7.98331
ги	-7.98485
га	-7.99223
▁6	-7.99595
жен	-8.00323
▁граждан	-8.00354
e	-8.00578
ком	-8.00778
ются	-8.0102
▁пред	-8.01285
жи	-8.01428
▁Россия	-8.0149
▁пресс	-8.01559
▁сейчас	-8.01714
▁нет	-8.0177
▁всего	-8.02058
▁Украины	-8.02302
▁20	-8.02329
ская	-8.02861
▁4	-8.02958
кр	-8.02969
4	-8.03169
▁де	-8.03298
▁этот	-8.03799
▁президента	-8.0447
▁отметил	-8.04471
▁два	-8.04672
▁которая	-8.04865
7	-8.05172
ность	-8.05352
▁несколько	-8.05363
▁около	-8.05731
ний	-8.06074
ском	-8.06236
ан	-8.06386
сть	-8.06751
00	-8.072
▁решение	-8.07202
ди	-8.07361
▁Ранее	-8.07429
со	-8.07499
Н	-8.07936
▁Ш	-8.08236
Ф	-8.08444
▁президент	-8.08501
би	-8.08543
ыми	-8.08648
Г	-8.08923
ности	-8.09152
У	-8.09347
▁всех	-8.10073
!	-8.10137
ним	-8.10302
▁пока	-8.10511
▁вопрос	-8.10573
ова	-8.10869
▁м	-8.12217
▁тысяч	-8.12254
▁которых	-8.12468
▁Мы	-8.12557
ские	-8.12771
▁является	-8.13213
▁между	-8.13708
▁момент	-8.13826
▁цен	-8.13946
ту	-8.1416
ник	-8.14806
ше	-8.15083
▁много	-8.15233
ив	-8.15606
ц	-8.15744
5	-8.1603
ис	-8.16293
▁себя	-8.16579
ду	-8.17122
ве	-8.17134
бор	-8.17243
▁Александр	-8.17385
▁стран	-8.17452
ман	-8.17733
са	-8.17835
▁этой	-8.1797
ход	-8.18016
зна	-8.18045
через	-8.18049
цы	-8.182
жд	-8.18419
▁До	-8.187
▁7	-8.19159
▁Сирии	-8.19169
▁двух	-8.19333
▁Однако	-8.19504
▁Так	-8.19715
ировать	-8.20132
▁числе	-8.20304
8	-8.2036
▁кто	-8.20469
▁15	-8.2047
▁свою	-8.20908
вы	-8.21121
нов	-8.21237
▁три	-8.21368
про	-8.21369
ат	-8.22011
6	-8.22121
ел	-8.22152
▁передает	-8.22369
▁сегодня	-8.22378
пол	-8.22891
▁б	-8.22898
лет	-8.23521
ур	-8.23544
ина	-8.23565
мер	-8.23941
ому	-8.24013
▁глава	-8.24469
▁закон	-8.25072
ации	-8.25199
▁Кроме	-8.25303
ста	-8.25731
Л	-8.25925
...	-8.26064
▁место	-8.2622
ства	-8.2631
ция	-8.26344
▁день	-8.2648
▁пре	-8.26553
▁власти	-8.26665
▁перед	-8.27024
▁Ка	-8.27343
ща	-8.27463
овой	-8.27752
▁Путин	-8.28353
▁города	-8.28407
▁Москве	-8.28444
▁Если	-8.28543
си	-8.29025
ости	-8.29373
▁ф	-8.29766
▁Т	-8.29768
▁эти	-8.30083
ца	-8.30531
▁Р	-8.30593
▁своей	-8.30798
▁2014	-8.30955
раз	-8.31358
бы	-8.31412
ир	-8.31758
▁результате	-8.31968
▁над	-8.32005
▁должны	-8.32063
▁12	-8.32146
▁меня	-8.32321
▁дело	-8.32568
▁Lenta	-8.32578
▁стал	-8.32747
ает	-8.32874
▁Да	-8.32963
сп	-8.33081
▁S	-8.33109
▁работы	-8.33332
ож	-8.33557
t	-8.3427
▁8	-8.34513
бо	-8.34678
па	-8.34986
▁которой	-8.35239
▁Сергей	-8.3548
ние	-8.35649
цев	-8.35672
лю	-8.35765
оз	-8.35991
ирован	-8.36018
▁стороны	-8.36045
при	-8.36052
▁просто	-8.36224
▁проект	-8.36415
▁безопасности	-8.36548
ша	-8.37102
▁людей	-8.37282
▁счет	-8.3733
▁случае	-8.37356
стро	-8.37662
▁связи	-8.37688
0	-8.37694
дел	-8.37914
u	-8.37999
▁ему	-8.38173
ают	-8.38252
лог	-8.38425
▁СМИ	-8.38768
▁гос	-8.3885
▁других	-8.3894
зи	-8.39198
▁Ко	-8.39372
ист	-8.39492
ец	-8.39541
лось	-8.39698
ись	-8.40118
ян	-8.40262
▁9	-8.40788
▁Ре	-8.40841
▁ш	-8.41015
▁рассказал	-8.41116
▁ранее	-8.41453
▁18	-8.41547
вал	-8.41803
▁Напомним	-8.41807
цен	-8.42046
▁территории	-8.42581
▁им	-8.43233
э	-8.43502
▁После	-8.44063
▁дела	-8.44147
▁жизни	-8.44306
▁мира	-8.44722
▁Про	-8.4491
▁11	-8.45001
се	-8.4537
▁него	-8.45385
▁Э	-8.45389
ении	-8.45418
▁считает	-8.45647
▁э	-8.45786
▁марта	-8.45929
ряд	-8.45931
▁говорит	-8.46232
стр	-8.46271
▁организации	-8.46333
вин	-8.46398
▁нужно	-8.4687
▁30	-8.47221
лу	-8.47387
▁российских	-8.47521
▁которого	-8.47522
▁лишь	-8.47578
▁мнению	-8.47642
▁свои	-8.47792
цион	-8.47823
▁ходе	-8.47939
тов	-8.48407
▁Ма	-8.48493
▁компания	-8.48564
род	-8.48976
▁те	-8.49103
▁прав	-8.49438
▁Все	-8.49483
щ	-8.49535
▁человека	-8.4956
/	-8.49649
▁готов	-8.49846
гу	-8.49873
▁пол	-8.49886
ость	-8.50309
▁своих	-8.50411
▁там	-8.50506
ием	-8.5062
вед	-8.50821
▁Москвы	-8.51181
▁Со	-8.51357
бр	-8.51385
фи	-8.5152
ится	-8.51556
▁Также	-8.51741
▁стало	-8.51751
▁сам	-8.51985
▁дел	-8.52186
гра	-8.52227
ол	-8.52271
▁Новости	-8.523
ск	-8.52647
p	-8.52911
ут	-8.52997
ик	-8.53199
ния	-8.53211
▁C	-8.53266
кон	-8.53294
▁почти	-8.53412
▁господин	-8.53467
мет	-8.53529
y	-8.53768
зы	-8.53879
▁отношении	-8.54629
▁т	-8.5471
▁Ан	-8.55069
▁партии	-8.55099
▁Х	-8.55271
▁объем	-8.55274
▁ТАСС	-8.55328
▁д	-8.55457
▁средств	-8.55646
▁Во	-8.55801
▁З	-8.55833
▁ма	-8.56073
ась	-8.56105
оп	-8.56122
▁именно	-8.56185
9	-8.56266
g	-8.56327
I	-8.56708
▁тех	-8.56779
▁детей	-8.56818
▁дома	-8.57344
рат	-8.57473
▁Сегодня	-8.57552
n	-8.57563
▁кон	-8.57733
ней	-8.57856
ось	-8.57884
▁16	-8.58135
▁процесс	-8.58139
▁лиц	-8.58314
▁14	-8.58323
▁люди	-8.58443
ева	-8.58646
▁апреля	-8.58991
ши	-8.59199
▁стране	-8.59202
иль	-8.59218
▁конце	-8.59229
▁часть	-8.59251
▁период	-8.59423
▁сентября	-8.59664
▁говорится	-8.5971
▁однако	-8.59824
мин	-8.599
▁17	-8.60123
▁Дмитрий	-8.60232
овых	-8.60582
ному	-8.60606
▁премьер	-8.60693
▁главы	-8.60835
▁мир	-8.61011
ус	-8.61227
▁13	-8.61234
▁Из	-8.61466
▁От	-8.61627
er	-8.61648
ика	-8.61682
k	-8.61837
аль	-8.61851
S	-8.61927
ников	-8.61983
след	-8.6202
▁известно	-8.62057
▁стали	-8.62096
ры	-8.62189
ще	-8.62491
▁представитель	-8.62548
▁рамках	-8.62723
▁государства	-8.62737
тся	-8.62807
;	-8.63048
▁правительства	-8.63104
▁должен	-8.63233
▁То	-8.63678
лад	-8.63755
Э	-8.63797
рен	-8.64368
▁P	-8.64509
▁сообщили	-8.64814
▁совет	-8.65375
тели	-8.65492
▁воз	-8.65519
щи	-8.65653
▁сил	-8.65704
пе	-8.65834
▁участие	-8.66183
ице	-8.66648
▁кор	-8.66967
станов	-8.67007
стра	-8.67013
ски	-8.6709
пад	-8.67121
▁февраля	-8.6713
тра	-8.67185
▁одной	-8.67269
енко	-8.67479
▁банк	-8.67533
ды	-8.67611
ению	-8.67627
▁город	-8.6774
▁идет	-8.67833
d	-8.6789
др	-8.67903
▁ст	-8.68213
▁рост	-8.68218
▁право	-8.68376
▁срок	-8.68489
▁образом	-8.68698
▁бюджет	-8.68763
▁менее	-8.68801
▁Е	-8.68986
▁причин	-8.69006
▁Ми	-8.69045
▁Ж	-8.69092
▁одного	-8.69237
▁времени	-8.6924
ге	-8.69285
▁министр	-8.69444
▁декабря	-8.69543
▁Де	-8.69591
▁ноября	-8.69679
кс	-8.69818
ска	-8.69825
▁B	-8.69827
ид	-8.69928
▁Ку	-8.69929
итель	-8.7017
▁октября	-8.70293
жа	-8.70305
пас	-8.70354
нес	-8.70358
▁развития	-8.70361
▁Они	-8.70427
▁информации	-8.70841
▁стать	-8.70858
▁мо	-8.70858
воз	-8.70969
вид	-8.70982
▁назад	-8.71335
лич	-8.7135
рав	-8.71501
▁торгов	-8.71737
▁да	-8.71767
▁возможность	-8.71834
▁ответ	-8.71944
чен	-8.72038
ич	-8.72084
▁января	-8.72156
▁2017	-8.72168
оль	-8.72225
▁такой	-8.72393
▁глав	-8.72584
▁другие	-8.72648
▁пост	-8.72748
▁мая	-8.72873
рас	-8.72885
▁вид	-8.73248
C	-8.73414
вали	-8.73453
c	-8.73473
▁Ц	-8.73851
▁пор	-8.73897
▁этих	-8.74049
▁25	-8.7407
▁интерес	-8.74233
▁действия	-8.74339
▁себе	-8.74348
пл	-8.744
▁добавил	-8.74411
▁управления	-8.74411
од	-8.74446
дин	-8.74729
▁Вы	-8.74733
ью	-8.74761
▁A	-8.74859
▁российского	-8.74991
обра	-8.74999
вший	-8.75053
▁стар	-8.75265
▁мне	-8.75274
рак	-8.75458
▁тур	-8.75551
иться	-8.75586
тив	-8.75602
▁Па	-8.75718
▁Сейчас	-8.75765
▁народ	-8.75862
▁части	-8.75895
ции	-8.7606
лин	-8.76118
▁ЕС	-8.76177
дов	-8.7629
▁Ли	-8.76452
▁тот	-8.76458
▁подчеркнул	-8.76499
▁Турции	-8.76502
ики	-8.76633
ья	-8.76682
▁трех	-8.76691
▁работу	-8.7685
▁первый	-8.77009
▁долларов	-8.77109
▁среди	-8.77304
▁машин	-8.77311
ек	-8.77395
▁Ра	-8.77516
кор	-8.77526
▁россиян	-8.77587
▁тоже	-8.77672
▁потому	-8.77749
▁слова	-8.77938
тан	-8.77976
▁получил	-8.78001
▁дорог	-8.78279
аться	-8.78476
ками	-8.78621
ила	-8.78623
овать	-8.78639
скую	-8.78748
▁частности	-8.78802
▁экс	-8.78944
бер	-8.78956
сылкой	-8.79078
нию	-8.79089
▁удалось	-8.79228
▁директор	-8.79247
▁Мо	-8.79263
▁стро	-8.79567
ация	-8.79704
нд	-8.79762
нь	-8.79843
▁РИА	-8.7985
A	-8.79876
нее	-8.79909
▁мест	-8.79945
пер	-8.80196
▁фильм	-8.80295
▁течение	-8.80357
▁22	-8.80399
▁ситуации	-8.80658
f	-8.80733
▁рынка	-8.80734
▁F	-8.80738
b	-8.80738
▁Сам	-8.80742
▁своего	-8.80779
ским	-8.80917
лив	-8.8094
ился	-8.81057
▁районе	-8.81075
▁надо	-8.81259
▁лидер	-8.81259
▁которое	-8.81343
гла	-8.81502
▁ди	-8.81593
шен	-8.81689
▁этим	-8.81949
уд	-8.82017
▁кредит	-8.82053
▁ряд	-8.82102
▁тогда	-8.8211
его	-8.82171
инг	-8.82182
▁гор	-8.82219
▁дня	-8.82394
▁здесь	-8.82495
▁очередь	-8.82572
▁работа	-8.82577
ран	-8.82862
▁группы	-8.83204
▁Н	-8.83204
ировал	-8.83207
▁Ба	-8.83297
сад	-8.83377
▁задержан	-8.83425
▁эта	-8.83473
▁No	-8.83554
▁Ле	-8.83587
ган	-8.837
▁вместе	-8.83999
▁Ар	-8.8421
▁24	-8.84211
▁21	-8.8432
вар	-8.84469
чин	-8.84618
ван	-8.85006
ря	-8.85216
▁деньги	-8.85378
▁полиции	-8.85397
▁источник	-8.85431
дар	-8.85586
▁теперь	-8.85793
an	-8.85937
▁Бел	-8.8606
▁находится	-8.86202
▁Ла	-8.86295
▁па	-8.86612
тро	-8.86668
▁свой	-8.86791
су	-8.86835
ления	-8.86843
▁выход	-8.86953
нер	-8.87177
▁авто	-8.8725
▁направлен	-8.87412
▁минут	-8.87423
▁своем	-8.87462
▁тре	-8.87465
▁Ни	-8.87471
▁стоит	-8.87557
фор	-8.87649
▁системы	-8.87747
дет	-8.87817
▁сразу	-8.87903
пло	-8.87967
куп	-8.88291
▁Президент	-8.883
▁необходимо	-8.88789
▁документ	-8.88808
▁эту	-8.88848
▁уровне	-8.89042
or	-8.89073
▁состав	-8.89293
▁всегда	-8.89453
нос	-8.89462
сы	-8.89509
Х	-8.8953
шел	-8.89647
P	-8.89698
ун	-8.89726
▁таких	-8.89766
▁начала	-8.89817
▁вот	-8.89836
▁котором	-8.89928
▁качестве	-8.8999
ала	-8.90067
▁пояснил	-8.90118
ское	-8.90146
▁центр	-8.90256
▁стала	-8.90358
▁ч	-8.90379
m	-8.90386
▁план	-8.9045
▁возможно	-8.90605
бу	-8.90608
▁G	-8.9064
▁новых	-8.90712
▁проблем	-8.9078
лев	-8.90839
говор	-8.90958
бра	-8.91063
под	-8.91095
▁Ме	-8.91164
▁Ха	-8.91174
чет	-8.9119
▁прошлого	-8.91266
▁две	-8.91313
ирует	-8.9149
год	-8.91499
мы	-8.91583
тур	-8.91585
▁50	-8.91632
▁лучше	-8.91636
ющим	-8.91762
▁Бо	-8.91798
лей	-8.92286
▁комитета	-8.92293
цию	-8.92344
▁российской	-8.92431
▁установлен	-8.92603
лав	-8.92756
▁агентство	-8.92786
▁евро	-8.92998
▁T	-8.93102
▁сделать	-8.93337
стан	-8.93389
ющих	-8.93429
▁курс	-8.93463
▁решения	-8.93519
▁имеет	-8.93533
▁партнер	-8.93681
▁нового	-8.9384
▁месте	-8.94118
▁Алексей	-8.94139
ству	-8.94226
кар	-8.94261
ант	-8.94389
По	-8.9443
▁начале	-8.94553
▁мед	-8.94796
рыв	-8.94805
▁последние	-8.94811
▁чего	-8.94843
▁итогам	-8.95042
▁свое	-8.95059
▁побед	-8.95199
T	-8.95672
ели	-8.95708
ятся	-8.95794
кан	-8.9583
летний	-8.96012
смотр	-8.96049
▁способ	-8.96082
фе	-8.9611
▁годы	-8.9626
▁интернет	-8.96307
▁количество	-8.96382
вен	-8.9641
▁рынке	-8.96485
ar	-8.96513
▁сайте	-8.96617
▁конечно	-8.9662
▁августа	-8.96644
▁работ	-8.96673
лы	-8.96773
лек	-8.96827
▁деятельности	-8.96841
▁например	-8.96851
▁23	-8.96912
сь	-8.97121
▁Ч	-8.97263
▁хотя	-8.97448
▁МВД	-8.97557
▁з	-8.97601
▁актив	-8.97621
▁правительство	-8.97647
▁Петр	-8.9794
▁Га	-8.97941
вести	-8.98036
▁100	-8.98097
▁меньше	-8.98097
нул	-8.98129
кин	-8.98157
ент	-8.98203
овые	-8.98211
▁жизнь	-8.98278
луч	-8.98336
▁авиа	-8.98387
▁проекта	-8.98446
дель	-8.98567
▁Кр	-8.98579
З	-8.98599
тен	-8.98764
▁удар	-8.98854
▁игр	-8.99027
пре	-8.99191
▁Что	-8.99236
▁Под	-8.99287
работ	-8.99335
▁МИД	-8.99369
▁поэтому	-8.99369
▁нефти	-8.99645
▁пар	-8.99652
▁прогноз	-8.99813
▁доступ	-8.99828
▁пять	-8.99876
Я	-9.00165
▁иск	-9.00379
▁второй	-9.00414
▁банка	-9.00469
бира	-9.00473
▁кино	-9.00556
▁новый	-9.00574
▁отмечает	-9.00642
▁городе	-9.00688
▁Его	-9.00717
▁которую	-9.00751
лер	-9.00837
эт	-9.00928
рит	-9.01011
кова	-9.01109
▁суда	-9.01177
нут	-9.01403
▁всем	-9.01548
сси	-9.01747
стве	-9.01787
▁Она	-9.0187
▁28	-9.01894
on	-9.01932
Е	-9.02211
▁нам	-9.02219
▁член	-9.02227
▁средства	-9.02565
▁считают	-9.02673
ует	-9.02685
▁должна	-9.02717
▁депутат	-9.02738
ед	-9.02766
ники	-9.02841
▁Мар	-9.02899
20	-9.02962
ье	-9.02969
▁виде	-9.02975
l	-9.03102
▁новые	-9.03107
ается	-9.03127
▁внимание	-9.03191
▁настоящее	-9.03571
ально	-9.03607
гор	-9.03645
▁пожар	-9.037
▁Ро	-9.0377
▁июля	-9.03786
▁Су	-9.03796
▁компаний	-9.0382
▁Россию	-9.03858
пут	-9.03876
▁назвал	-9.04129
▁такие	-9.04218
▁I	-9.04465
▁результат	-9.04618
▁четыре	-9.04656
нич	-9.04726
ован	-9.04806
▁помощи	-9.04916
раж	-9.04927
уп	-9.04941
ень	-9.05073
▁поскольку	-9.05303
▁само	-9.05397
▁M	-9.05443
▁Трамп	-9.05444
ились	-9.05464
▁автор	-9.05515
рон	-9.05546
теля	-9.05615
ового	-9.05639
▁Л	-9.05671
клю	-9.05678
▁Рос	-9.05839
al	-9.0592
▁миллионов	-9.06027
▁Федерации	-9.0618
сон	-9.06226
▁бо	-9.06251
▁бизнес	-9.0648
▁мире	-9.06558
▁Украине	-9.06675
▁мор	-9.06717
чит	-9.0673
▁клуб	-9.06765
▁созда	-9.06841
ак	-9.06854
▁Ю	-9.0693
нц	-9.06969
▁станет	-9.06978
▁ООН	-9.07263
▁потом	-9.07268
▁риск	-9.07307
гре	-9.07377
▁Мурманск	-9.07402
уб	-9.07585
▁един	-9.07592
рос	-9.07601
мест	-9.0763
▁получили	-9.07652
▁одно	-9.07657
▁нашей	-9.07691
▁26	-9.07807
ания	-9.07823
▁таким	-9.07866
B	-9.0804
▁Киев	-9.08068
▁работать	-9.08073
in	-9.08151
Интерфакс	-9.08158
▁ничего	-9.08158
дут	-9.082
ника	-9.08274
M	-9.08351
▁дней	-9.08395
▁район	-9.08419
▁Андрей	-9.08458
▁проблемы	-9.08495
▁мало	-9.08541
▁истории	-9.08558
▁0	-9.08764
▁самолет	-9.08768
▁факт	-9.08786
▁Глава	-9.08814
▁H	-9.08851
ющие	-9.08882
це	-9.08889
▁ведомства	-9.08988
ул	-9.09043
▁контракт	-9.09062
▁должно	-9.091
▁жил	-9.09154
ходит	-9.0925
▁штраф	-9.09262
▁27	-9.0957
секретарь	-9.09581
▁финансов	-9.09633
▁пе	-9.09739
▁инициатив	-9.09768
▁Европы	-9.09772
стер	-9.09778
▁част	-9.09899
вать	-9.10093
▁Му	-9.10117
▁плат	-9.10142
ительно	-9.10179
▁законопроект	-9.10277
▁полностью	-9.10289
▁данные	-9.10318
ание	-9.10389
▁сборной	-9.10524
▁свет	-9.10539
фик	-9.1058
▁Поэтому	-9.10583
▁информацию	-9.10686
ями	-9.10716
бил	-9.10822
вяз	-9.10837
▁Дж	-9.10952
уш	-9.10963
ках	-9.10967
▁тер	-9.11016
▁региона	-9.1111
рок	-9.11175
▁прошлом	-9.11558
▁карт	-9.11723
▁видео	-9.11917
▁запрещен	-9.12111
▁сер	-9.12232
▁получить	-9.12335
вшего	-9.12487
ены	-9.12548
▁приводит	-9.12564
чита	-9.12798
анс	-9.12914
Ц	-9.12914
▁голов	-9.12987
рт	-9.13016
▁администрации	-9.13069
▁Виктор	-9.1307
тар	-9.1317
▁программы	-9.13263
быт	-9.13451
▁другой	-9.13454
зе	-9.13463
▁особенно	-9.13488
министр	-9.13501
▁составляет	-9.13527
▁практически	-9.13597
ген	-9.13613
▁Тем	-9.13762
▁заявление	-9.13808
ско	-9.14047
жал	-9.14129
▁газ	-9.1415
▁бес	-9.14159
чер	-9.14215
▁самых	-9.14275
▁достаточно	-9.14336
30	-9.14339
сс	-9.14407
▁ситуация	-9.14442
▁месяц	-9.14499
▁месяцев	-9.14712
ацию	-9.1481
▁Бр	-9.14944
▁взрыв	-9.15098
▁L	-9.15109
▁весь	-9.15116
▁просмотров	-9.1519
ясь	-9.15212
телей	-9.15468
▁стол	-9.15519
▁форм	-9.15519
нуть	-9.15562
дан	-9.1558
игр	-9.156
ред	-9.15627
ими	-9.15631
▁создан	-9.15642
▁эксперт	-9.1565
лон	-9.15681
▁баз	-9.16103
▁29	-9.16105
▁центра	-9.16197
иц	-9.16265
▁Когда	-9.16286
▁сайт	-9.16343
строй	-9.16398
▁войны	-9.16405
▁населения	-9.16484
▁та	-9.16505
▁транспорт	-9.16564
▁одним	-9.16688
▁принял	-9.16792
▁многие	-9.16809
▁Та	-9.17207
рев	-9.17269
фер	-9.17305
▁команды	-9.1742
вет	-9.17513
дум	-9.17577
сел	-9.17644
мир	-9.17657
▁жителей	-9.17685
▁этому	-9.17731
▁Ту	-9.17754
▁места	-9.17836
▁л	-9.1793
▁часов	-9.18038
v	-9.18095
▁Госдумы	-9.18234
▁запрет	-9.1826
▁ним	-9.18302
▁Те	-9.18369
▁связан	-9.18438
▁Михаил	-9.1845
▁мер	-9.18518
▁обо	-9.18569
▁D	-9.187
▁Ал	-9.18794
▁недо	-9.18867
▁выбор	-9.18915
бе	-9.18965
зу	-9.18981
▁женщин	-9.18993
▁тому	-9.18995
▁поезд	-9.19008
▁экономики	-9.19025
кий	-9.19082
▁процентов	-9.19125
▁автомобиль	-9.19196
▁2013	-9.19245
▁Кон	-9.19249
зер	-9.19307
▁реальн	-9.19316
лом	-9.19509
▁деле	-9.19516
жил	-9.19524
▁возможности	-9.19526
▁впервые	-9.19645
тин	-9.19668
▁налогов	-9.19703
▁службы	-9.19881
▁сбор	-9.19956
▁тренер	-9.2004
re	-9.20183
▁одна	-9.20185
▁валют	-9.20254
▁представлен	-9.20267
Ru	-9.20282
ович	-9.20473
▁государство	-9.20527
▁число	-9.20584
ите	-9.2067
▁Хо	-9.20722
▁делать	-9.20739
▁выборов	-9.20755
▁объявил	-9.20874
▁участников	-9.20934
аются	-9.21122
▁труд	-9.21237
▁отношения	-9.21264
▁выборах	-9.21279
▁Германии	-9.21295
зов	-9.21427
▁вне	-9.21486
▁цены	-9.21511
▁Порошенко	-9.21603
▁W	-9.21702
▁опыт	-9.21722
▁парламент	-9.21725
▁ста	-9.21812
▁Согласно	-9.21832
еж	-9.21843
▁вопросы	-9.22032
▁Российско	-9.22155
50	-9.22265
▁законодательств	-9.22406
▁E	-9.2245
▁социально	-9.22616
R	-9.22648
кла	-9.22734
вест	-9.22805
▁первом	-9.22903
▁сотрудников	-9.22933
▁назначен	-9.22947
D	-9.22961
нова	-9.22969
▁Ло	-9.23035
▁намерен	-9.23061
▁определен	-9.2323
▁пяти	-9.23233
уль	-9.23277
рис	-9.23283
мор	-9.23284
▁признал	-9.23291
▁Олег	-9.23394
Ч	-9.23419
твор	-9.23691
h	-9.23788
потреб	-9.23797
▁кур	-9.23814
▁Россией	-9.23915
▁вывод	-9.23942
▁рейтинг	-9.24031
▁вариант	-9.24268
▁итоге	-9.244
▁составил	-9.24476
лит	-9.24602
▁политики	-9.24615
▁парк	-9.24724
▁сообщении	-9.24749
ден	-9.24813
иков	-9.24857
▁телефон	-9.24863
▁Еще	-9.24996
▁получен	-9.25029
▁дом	-9.25165
▁Бу	-9.25255
ъ	-9.25411
▁встречи	-9.25417
ях	-9.25646
▁лично	-9.25648
цов	-9.25726
▁арест	-9.25784
ической	-9.258
▁Клинтон	-9.25802
▁договор	-9.2586
▁нем	-9.2593
▁представители	-9.26041
кам	-9.2622
▁агентства	-9.26246
▁интервью	-9.2628
овым	-9.26463
▁размере	-9.26627
▁оста	-9.26638
ест	-9.26659
▁которым	-9.26818
▁произошло	-9.2688
▁собой	-9.26964
▁меры	-9.26979
▁Источник	-9.27001
▁написал	-9.27061
эн	-9.27093
▁нефть	-9.27125
ывает	-9.27141
енные	-9.27217
▁рад	-9.27223
▁целом	-9.27265
▁Совет	-9.2737
поль	-9.27491
▁обороны	-9.27537
▁занима	-9.27584
▁московск	-9.27606
езд	-9.27613
▁сторон	-9.27631
▁комплекс	-9.2764
▁выше	-9.27645
мент	-9.27663
▁затем	-9.2775
▁права	-9.27828
▁вообще	-9.2797
изм	-9.28027
▁возник	-9.28055
▁друг	-9.2809
▁уровень	-9.28092
▁40	-9.28095
▁движения	-9.28104
▁Франции	-9.28127
▁услуг	-9.28163
▁условиях	-9.28165
▁ЦБ	-9.28168
▁класс	-9.28172
вшие	-9.28188
сов	-9.28308
▁собственно	-9.28415
илась	-9.28433
▁иностранных	-9.28481
▁Ин	-9.28507
коп	-9.2852
▁улице	-9.2852
▁тр	-9.28525
уют	-9.28585
▁примерно	-9.28586
▁теле	-9.28599
▁мог	-9.28609
▁тонн	-9.28621
▁N	-9.28813
▁комитет	-9.28847
рез	-9.28901
▁закрыт	-9.28936
▁начал	-9.28943
▁вес	-9.2895
▁Ис	-9.28966
рус	-9.28985
▁самом	-9.29017
ирования	-9.29034
▁важно	-9.29051
▁отказ	-9.29088
ведения	-9.29124
▁уголовно	-9.29138
ично	-9.29166
▁("	-9.29167
▁действительно	-9.29182
дать	-9.29218
▁перспектив	-9.29318
▁ситуацию	-9.29318
▁команд	-9.29319
E	-9.29388
▁норм	-9.2944
w	-9.29483
стей	-9.29659
ину	-9.29688
▁опубликован	-9.29697
▁банков	-9.29699
фон	-9.29764
en	-9.29815
▁фонд	-9.29898
▁Глав	-9.29924
аш	-9.30048
▁российские	-9.30061
▁расположен	-9.30062
▁пят	-9.30062
▁атак	-9.30077
ического	-9.30167
чат	-9.30196
▁помощью	-9.30324
ируют	-9.3037
▁конца	-9.30423
▁каждый	-9.3043
▁пишет	-9.30435
▁Санкт	-9.30659
▁Кар	-9.30795
▁бюджета	-9.3099
▁уголовное	-9.31052
▁врач	-9.31104
▁условия	-9.3111
▁встреча	-9.31146
▁признан	-9.31159
▁вод	-9.31171
▁рук	-9.3123
ню	-9.31238
▁треть	-9.31352
▁НАТО	-9.31438
нский	-9.31654
кол	-9.31705
▁Ъ	-9.31764
▁блок	-9.31766
▁роста	-9.31814
▁своим	-9.31845
▁адвокат	-9.31943
бли	-9.3205
ват	-9.32075
▁какие	-9.32116
▁выда	-9.32117
нии	-9.32149
енных	-9.32267
▁первую	-9.32324
ование	-9.32331
▁центре	-9.32365
▁министра	-9.32373
крыл	-9.32376
▁решил	-9.32401
▁российский	-9.32451
лага	-9.32463
▁открыт	-9.32517
ита	-9.32518
▁образ	-9.32566
ница	-9.32607
▁всей	-9.32655
▁речь	-9.32655
ять	-9.32753
мат	-9.32754
▁сети	-9.32783
▁погибли	-9.32873
лег	-9.32911
▁УК	-9.32939
▁организация	-9.33093
▁культур	-9.3323
")	-9.33319
▁анти	-9.33331
▁сообщалось	-9.33364
службе	-9.33408
ший	-9.33493
телем	-9.33543
▁сообщила	-9.33572
▁деятельность	-9.33603
▁бр	-9.33659
▁ремонт	-9.33749
ниж	-9.33931
▁ракет	-9.33934
▁сказать	-9.33978
▁следует	-9.34132
альный	-9.34146
▁Медведев	-9.34249
▁действий	-9.3425
▁спортсмен	-9.34397
▁Джон	-9.34472
▁газета	-9.34515
▁активно	-9.34545
▁новой	-9.34563
▁Кор	-9.34584
явлен	-9.34651
▁заявила	-9.34653
▁материале	-9.34863
▁ведь	-9.34908
рин	-9.34937
▁Впрочем	-9.3503
▁понедельник	-9.35161
Газпром	-9.35161
▁пользу	-9.35162
▁производства	-9.3517
▁предложил	-9.35171
чев	-9.3518
▁уверен	-9.35196
суд	-9.35221
▁хорошо	-9.35282
▁характер	-9.3529
▁жертв	-9.35388
пор	-9.35575
▁доход	-9.35603
▁структур	-9.35697
▁поиск	-9.35751
За	-9.35826
ющего	-9.35828
жу	-9.35904
▁помощь	-9.35934
▁читайте	-9.35954
▁наши	-9.35976
▁погиб	-9.36016
▁Новы	-9.36169
▁цел	-9.3621
мон	-9.36389
O	-9.3639
▁электро	-9.36434
▁часто	-9.36439
рь	-9.36496
лат	-9.36663
▁Трампа	-9.36685
ешь	-9.36694
▁лег	-9.36806
▁ту	-9.3685
▁R	-9.36868
▁данных	-9.36938
▁проведения	-9.37025
порт	-9.37112
▁школ	-9.37147
▁чувств	-9.37283
▁либо	-9.37357
▁сын	-9.37425
▁протест	-9.37448
▁правоохранитель	-9.37544
сла	-9.37554
▁рабоч	-9.37623
▁пятницу	-9.37681
at	-9.37696
▁республики	-9.37724
сен	-9.3776
▁вас	-9.37781
▁стоимость	-9.37799
-1	-9.37807
▁рынок	-9.37812
беж	-9.37867
▁мар	-9.37928
▁времен	-9.37992
вит	-9.38126
ланд	-9.38127
N	-9.38143
▁СССР	-9.38216
ера	-9.38352
ировали	-9.38558
▁четверг	-9.38561
▁наибол	-9.38586
▁большой	-9.38757
На	-9.38762
гер	-9.38823
▁сотрудники	-9.38949
▁кол	-9.39018
▁язык	-9.39039
▁начали	-9.39086
вол	-9.39105
▁эконом	-9.39124
▁чемпион	-9.39143
▁предприятия	-9.39164
▁экспорт	-9.39182
▁магазин	-9.39199
▁работает	-9.39225
шн	-9.39267
▁среду	-9.39275
▁делу	-9.39295
тон	-9.39315
▁сильно	-9.39347
▁одном	-9.39444
руч	-9.39523
чу	-9.39573
▁Игорь	-9.39574
вел	-9.39645
▁годов	-9.39687
▁государственн	-9.39771
▁ней	-9.3978
▁проведен	-9.39823
▁размер	-9.39826
▁мэр	-9.39871
▁Владимира	-9.3994
полит	-9.39946
▁месяца	-9.39974
▁налог	-9.39975
▁Дональд	-9.39984
▁никто	-9.3999
ическая	-9.4002
▁работе	-9.40024
▁версии	-9.40122
▁тысячи	-9.40346
­	-9.40397
▁сфере	-9.40413
▁канал	-9.40424
▁прямо	-9.40449
▁произошел	-9.40535
▁ООО	-9.40535
▁Европе	-9.40594
▁прием	-9.40613
▁голосов	-9.40681
▁матч	-9.40724
▁самым	-9.40728
▁матче	-9.40744
▁31	-9.40777
2%	-9.40884
▁говорят	-9.40902
▁Федеральн	-9.40916
▁хочет	-9.4095
три	-9.41033
▁имени	-9.41034
▁заявили	-9.41037
вшим	-9.4113
▁совета	-9.41144
ление	-9.41154
фа	-9.41163
Ш	-9.41186
▁Москва	-9.4122
ального	-9.41229
▁сами	-9.41238
ании	-9.41269
▁района	-9.41277
▁принято	-9.41337
вания	-9.41358
▁Крыма	-9.41411
▁какой	-9.41414
▁конкурс	-9.41423
▁круп	-9.41443
▁ребенка	-9.41506
▁минимум	-9.41506
▁несмотря	-9.41509
нг	-9.41522
овая	-9.41543
▁круг	-9.4157
▁четырех	-9.41603
▁наших	-9.41617
▁порядка	-9.41649
▁Мир	-9.41759
▁муж	-9.41864
10	-9.41914
▁пер	-9.41958
▁первого	-9.41976
▁Алеппо	-9.42065
ведение	-9.42066
том	-9.4216
▁Путина	-9.42261
▁призвал	-9.42328
▁The	-9.42351
▁огромн	-9.42363
▁такое	-9.42395
▁Борис	-9.4252
▁изменения	-9.42526
▁сообщал	-9.42553
▁сотрудник	-9.4262
▁иностран	-9.42744
▁органов	-9.4275
▁цитирует	-9.42768
Мы	-9.42791
▁давно	-9.42853
▁вторник	-9.42916
▁смогут	-9.42922
▁образования	-9.42926
ri	-9.42928
4%	-9.42964
сер	-9.43003
город	-9.43043
▁адрес	-9.43051
▁Савченко	-9.43052
▁государств	-9.4326
▁детск	-9.4328
▁цвет	-9.43287
▁председатель	-9.43335
▁остров	-9.43364
ались	-9.43514
▁первой	-9.43739
▁заместитель	-9.43761
▁денег	-9.43761
ена	-9.43795
▁след	-9.43813
▁такого	-9.43988
▁состоя	-9.44021
▁аппарат	-9.44046
нев	-9.44071
пов	-9.44084
▁Суд	-9.44113
изации	-9.44161
ске	-9.44171
▁V	-9.44231
ющий	-9.44263
нести	-9.4433
ходят	-9.44384
ших	-9.44391
▁роль	-9.44627
▁операции	-9.44632
▁актер	-9.44643
▁хорош	-9.44679
▁Кур	-9.4469
▁Украина	-9.44758
ино	-9.44764
▁нескольких	-9.44764
▁успех	-9.44764
▁Совета	-9.44802
▁старт	-9.44938
чные	-9.44966
▁провести	-9.44966
таки	-9.45051
чный	-9.45051
▁Пол	-9.45085
▁силы	-9.45096
▁могли	-9.45117
▁Запад	-9.45176
▁комиссии	-9.45197
пы	-9.45198
▁Ди	-9.45227
ченко	-9.45263
▁спас	-9.45278
▁Александра	-9.4542
▁коллег	-9.45428
альной	-9.45434
▁сред	-9.4553
▁обнаружен	-9.45632
▁быстро	-9.45639
▁группа	-9.45769
▁использовать	-9.45777
▁реформ	-9.45786
нцев	-9.45836
стат	-9.45844
▁сделал	-9.45899
▁Сер	-9.45925
▁касается	-9.46101
данный	-9.46179
ический	-9.46186
▁уровня	-9.46215
▁конфликт	-9.46381
▁номер	-9.46423
ву	-9.46469
нем	-9.46487
▁нельзя	-9.46507
охран	-9.46526
▁$	-9.46562
▁Фото	-9.46587
▁Песков	-9.46657
▁никогда	-9.46662
▁являются	-9.46675
▁нарушения	-9.46685
▁культуры	-9.46729
▁строительство	-9.468
▁2012	-9.4683
▁легко	-9.46843
оло	-9.46855
▁60	-9.46884
▁дорож	-9.46903
▁Ча	-9.47011
▁допинг	-9.47095
▁др	-9.47147
▁наш	-9.47178
пр	-9.47186
▁Верховн	-9.47243
3%	-9.47319
▁газа	-9.47401
▁знаком	-9.47499
▁ход	-9.47524
▁четверт	-9.47526
двига	-9.47555
▁объявлен	-9.4761
нные	-9.47647
рей	-9.47667
дор	-9.47833
▁переговоры	-9.47835
▁Например	-9.47983
▁взял	-9.48007
▁региональн	-9.48099
▁жив	-9.48126
▁пройдет	-9.48133
▁рубля	-9.48135
▁преступления	-9.48144
▁чемпионата	-9.48185
▁собира	-9.48244
▁некоторые	-9.48281
енд	-9.48312
▁национальн	-9.48337
▁Таким	-9.48372
▁полу	-9.48414
▁список	-9.4843
▁собеседник	-9.4843
▁ближайше	-9.48498
шин	-9.48537
▁строительства	-9.48579
▁свобод	-9.48611
нет	-9.48637
▁руководитель	-9.48729
▁подтвердил	-9.48821
▁находятся	-9.48889
лова	-9.48963
щик	-9.48999
она	-9.49009
▁говорить	-9.4905
1%	-9.49051
▁открыл	-9.49078
няя	-9.49095
ари	-9.4917
ток	-9.49171
▁акции	-9.49185
▁совместно	-9.49212
▁Ново	-9.49251
град	-9.49258
▁тут	-9.49332
▁га	-9.49393
▁200	-9.49428
дж	-9.4944
▁Тогда	-9.49481
▁праздник	-9.49484
гар	-9.49565
Ка	-9.4959
▁готовы	-9.49641
▁Банк	-9.49655
▁Известия	-9.49679
▁террорист	-9.49738
▁инцидент	-9.49783
дал	-9.49801
▁силу	-9.49838
▁телеканал	-9.49852
▁происходит	-9.49937
▁Ос	-9.50007
▁сумму	-9.5002
▁шаг	-9.50047
▁режим	-9.50251
▁контроль	-9.50286
▁постоянно	-9.50345
▁доклад	-9.50393
▁бывший	-9.50514
▁выступил	-9.50574
исты	-9.50583
▁сложно	-9.50658
гин	-9.50762
▁поддержку	-9.50849
▁Image	-9.51002
▁РБК	-9.51002
▁имеют	-9.51122
▁многих	-9.51155
▁бывше	-9.51163
▁позволит	-9.51182
▁состоянии	-9.51319
▁масс	-9.5134
▁поводу	-9.5149
▁полет	-9.51497
▁членов	-9.51515
бан	-9.51557
▁специально	-9.51572
ям	-9.51583
▁система	-9.5161
▁выразил	-9.51624
▁завод	-9.51637
вор	-9.5169
▁сравнению	-9.51771
пал	-9.5179
it	-9.51828
вели	-9.51922
▁сможет	-9.51926
▁ниже	-9.51991
▁Максим	-9.52029
▁благодаря	-9.52037
▁переход	-9.52213
▁Мин	-9.52236
▁крас	-9.52322
енный	-9.52423
ацией	-9.52424
us	-9.52451
мед	-9.52472
лан	-9.52477
нской	-9.52659
r	-9.52671
изма	-9.52723
▁закона	-9.52791
▁рек	-9.52846
шей	-9.52847
инов	-9.52941
▁официально	-9.5295
▁Че	-9.52966
▁самого	-9.52976
▁Минобороны	-9.53014
▁почему	-9.53018
▁остается	-9.53094
ra	-9.53163
es	-9.53163
мп	-9.53168
ющей	-9.53231
ic	-9.53257
▁бизнеса	-9.53268
▁крайне	-9.53307
▁главный	-9.53454
щих	-9.53459
ro	-9.53513
▁визит	-9.5353
вес	-9.53546
▁Иван	-9.53574
жн	-9.5365
▁избран	-9.53699
истов	-9.53752
екс	-9.5376
пан	-9.53825
▁отдел	-9.53945
▁миллиона	-9.53963
летнего	-9.53964
▁принцип	-9.54084
ана	-9.54084
▁согласно	-9.54115
банк	-9.54157
ирование	-9.54261
▁информационн	-9.54273
скому	-9.54293
ывают	-9.5433
▁автомобиля	-9.54432
пт	-9.54443
▁особо	-9.54453
▁спорта	-9.54457
▁значит	-9.54458
щей	-9.54481
▁Ру	-9.54523
щение	-9.54587
▁точно	-9.54618
▁прос	-9.54664
st	-9.54688
is	-9.54695
▁Подробнее	-9.54749
▁искусств	-9.54762
▁соглашения	-9.54764
▁попал	-9.54772
▁регионе	-9.54782
вших	-9.54868
▁кандидат	-9.54875
▁МЧС	-9.54909
рек	-9.54926
▁военных	-9.5502
▁вопросам	-9.55074
▁фонда	-9.55082
▁ей	-9.55187
▁организаций	-9.55228
▁развитие	-9.55229
▁улучш	-9.55239
▁разных	-9.55254
ch	-9.55326
▁режиссер	-9.55388
▁провел	-9.55446
▁указан	-9.55448
▁запрос	-9.55466
▁акт	-9.55519
▁ан	-9.55571
вшись	-9.55584
▁мужчина	-9.55625
▁проблема	-9.55641
▁скоро	-9.55647
▁бу	-9.55648
▁Бер	-9.55667
▁военно	-9.5573
▁самолета	-9.5574
ины	-9.55778
хан	-9.55843
▁выборы	-9.5593
▁семь	-9.55956
шли	-9.55961
▁расс	-9.55976
▁масштаб	-9.5603
▁участник	-9.56086
▁бел	-9.56106
▁заключен	-9.5616
НИ	-9.56208
▁края	-9.56221
▁составе	-9.56229
▁этап	-9.56241
▁необходимы	-9.56255
▁принять	-9.56277
▁процедур	-9.56353
▁представителей	-9.56357
▁работал	-9.56448
F	-9.56471
ющая	-9.56476
▁парламента	-9.56508
▁Вашингтон	-9.56646
▁управление	-9.56661
нт	-9.56747
бол	-9.56785
▁Крым	-9.5689
▁результаты	-9.56892
▁Российски	-9.56997
▁продукции	-9.57002
▁сообщается	-9.57013
чик	-9.57056
люб	-9.57057
▁мин	-9.57096
▁отношений	-9.57165
▁подобн	-9.57189
нец	-9.57194
▁никаких	-9.57198
▁групп	-9.5724
раб	-9.57345
▁депутатов	-9.57377
12	-9.57455
вание	-9.57516
ических	-9.57565
емых	-9.57578
▁регион	-9.57591
▁называем	-9.57655
▁2011	-9.57682
▁автомобилей	-9.57706
ol	-9.57952
▁мужчин	-9.58042
▁дал	-9.58112
▁Теперь	-9.58148
▁большинство	-9.58148
▁Сергея	-9.58148
▁раньше	-9.58313
▁семей	-9.58334
тал	-9.58439
▁квартир	-9.58566
▁вчера	-9.58593
щая	-9.586
":	-9.58605
бот	-9.58763
▁Ст	-9.58794
-20	-9.58807
▁товар	-9.58811
▁недели	-9.58845
▁обвиня	-9.5886
▁черн	-9.58875
▁говорил	-9.58885
зова	-9.58976
▁посту	-9.59016
▁позиции	-9.59141
▁совсем	-9.59141
▁придется	-9.59144
▁сосед	-9.59145
шую	-9.59165
▁практик	-9.59307
6%	-9.59311
▁Би	-9.59317
▁Раз	-9.5934
щен	-9.5941
▁переговоров	-9.59474
▁июня	-9.5949
▁2018	-9.59495
▁систем	-9.59622
▁совершен	-9.59634
нин	-9.59777
▁президентом	-9.59816
X	-9.59903
▁игрок	-9.59935
▁Рус	-9.59941
▁всю	-9.59957
▁фин	-9.60004
-2	-9.60104
щий	-9.60126
либо	-9.60136
▁декабре	-9.60143
▁фото	-9.60147
▁найти	-9.60185
▁куда	-9.60197
▁Среди	-9.6022
защит	-9.6025
▁свободы	-9.60262
▁республик	-9.60311
▁властей	-9.60315
дают	-9.60453
▁встрети	-9.60496
▁ближайши	-9.6053
▁равно	-9.60531
▁Пред	-9.60532
▁наруш	-9.60549
▁сих	-9.60594
▁санкции	-9.60651
▁фоне	-9.60681
▁общ	-9.60695
овый	-9.60698
et	-9.60728
▁чист	-9.60744
▁угроз	-9.60811
7%	-9.60872
▁сервис	-9.60895
▁эксперты	-9.60913
юр	-9.60943
▁двор	-9.61013
le	-9.61056
ion	-9.61123
▁роди	-9.61131
▁борьбе	-9.61156
z	-9.61249
пред	-9.6126
▁выплат	-9.61265
▁занял	-9.61342
▁оказался	-9.61358
мар	-9.61376
▁сократи	-9.61426
РИА	-9.61445
лик	-9.6145
строить	-9.61498
ложить	-9.61537
служба	-9.61616
▁слишком	-9.61666
▁$1	-9.61671
▁ген	-9.61702
рел	-9.61876
▁достиг	-9.61929
▁официальн	-9.62
▁зрения	-9.62008
луж	-9.62012
еш	-9.62036
центр	-9.62042
▁процента	-9.62087
рес	-9.62099
▁будем	-9.62181
▁ла	-9.62189
▁вновь	-9.6219
▁Гос	-9.62203
ur	-9.62213
вшихся	-9.62321
ницы	-9.62383
прос	-9.62431
печат	-9.62433
▁странах	-9.62436
▁Мари	-9.62447
▁лица	-9.62453
емся	-9.62463
▁предложение	-9.62505
▁планирует	-9.62521
альные	-9.62617
▁соверш	-9.6263
▁O	-9.62635
шим	-9.62639
▁клуба	-9.62645
▁январе	-9.62694
▁бол	-9.62711
▁ради	-9.62733
нского	-9.62749
▁кризис	-9.62812
▁акций	-9.62866
▁скорее	-9.62867
▁Антон	-9.62906
▁призыв	-9.62977
давать	-9.63014
▁привлек	-9.63039
▁прежде	-9.63042
▁снова	-9.63163
▁занят	-9.63182
▁факту	-9.63218
▁уточнил	-9.63385
▁производство	-9.63411
сет	-9.63454
лем	-9.63464
▁вполне	-9.63494
25	-9.63513
▁объектов	-9.63538
▁статус	-9.6356
▁реализации	-9.63604
рот	-9.63728
▁Великобритании	-9.63733
▁Минфин	-9.6374
бал	-9.63826
▁шесть	-9.63897
▁заседании	-9.63907
▁маршрут	-9.63907
▁мероприятия	-9.63907
▁следствия	-9.63907
енной	-9.63912
▁следующ	-9.63926
▁ваш	-9.63968
торы	-9.64032
▁Евгений	-9.64151
▁продажи	-9.64159
яр	-9.64187
▁значительно	-9.64268
вой	-9.64297
▁запис	-9.64638
место	-9.64649
▁Дан	-9.64686
лок	-9.64713
▁мод	-9.64735
▁Российская	-9.64739
▁информация	-9.64783
▁совершенно	-9.64803
▁орган	-9.64857
ата	-9.64905
▁Ша	-9.64936
Ж	-9.64955
▁невозможно	-9.64959
руд	-9.65062
ыш	-9.65089
реш	-9.65132
пом	-9.65137
▁долго	-9.65311
▁Гу	-9.65313
-2016	-9.65319
бег	-9.65355
9%	-9.65415
▁рассказывает	-9.65499
▁Ри	-9.65543
▁особ	-9.6555
▁согласи	-9.65638
▁санкций	-9.65666
▁национальной	-9.657
▁политик	-9.65713
▁машины	-9.65771
▁губернатор	-9.65774
▁целью	-9.65775
▁пришлось	-9.65847
▁обще	-9.65878
енным	-9.65913
▁картин	-9.65922
рад	-9.65982
40	-9.65996
▁отечественн	-9.662
▁Мак	-9.66258
▁вклад	-9.66439
альная	-9.66451
▁подпис	-9.66503
▁70	-9.66503
▁укреп	-9.66558
▁сделан	-9.6657
▁разговор	-9.66613
▁сел	-9.66638
овую	-9.66693
▁ар	-9.66702
▁показал	-9.66782
▁штаб	-9.66801
▁неделе	-9.66802
el	-9.66825
▁воскресенье	-9.66916
▁точки	-9.67006
овского	-9.67007
▁штат	-9.6706
▁обмен	-9.67078
дали	-9.67084
▁ДТП	-9.67096
▁председателя	-9.67098
▁оказа	-9.67147
▁семьи	-9.67186
▁рыб	-9.67243
евой	-9.67338
▁боль	-9.67344
нием	-9.67346
▁функци	-9.67401
8%	-9.67427
▁раздел	-9.6743
▁заявления	-9.67458
▁Пока	-9.67473
▁подход	-9.67485
▁француз	-9.675
▁35	-9.67527
аций	-9.67557
кая	-9.67563
мисс	-9.67582
▁тяжело	-9.67638
▁Ну	-9.6764
▁школы	-9.67683
ставить	-9.67713
!"	-9.67728
com	-9.67821
рог	-9.67864
рем	-9.67983
Газета	-9.68002
▁здания	-9.68006
▁планируется	-9.68043
▁документы	-9.68051
ывал	-9.68052
▁Рад	-9.68148
кер	-9.68158
Петербурге	-9.68266
▁предложения	-9.68288
▁встрече	-9.68366
▁смерти	-9.68366
▁K	-9.68404
▁владе	-9.68405
▁представителя	-9.68435
▁рейс	-9.68442
▁документов	-9.68529
▁театр	-9.68534
ьев	-9.68558
▁вызвал	-9.68565
альных	-9.68568
16	-9.68655
▁украин	-9.68696
▁500	-9.68705
▁снижение	-9.6873
бар	-9.68838
▁директора	-9.68842
5%	-9.68866
бле	-9.68896
▁рекорд	-9.68909
▁смысл	-9.68916
блюд	-9.68926
▁Всего	-9.68932
▁раза	-9.68972
ическим	-9.68982
▁экономического	-9.69035
60	-9.69038
▁программ	-9.691
▁правил	-9.69242
▁Китай	-9.69281
▁Ду	-9.69337
▁поток	-9.69366
▁состоится	-9.69366
▁пассажир	-9.69367
илось	-9.69436
▁оружия	-9.69465
▁пример	-9.69474
стран	-9.69511
▁X	-9.69543
▁упал	-9.69559
ваться	-9.69571
▁подписал	-9.69637
▁одну	-9.69654
▁систему	-9.69673
премьер	-9.69715
▁посвящен	-9.69775
▁дети	-9.69776
▁пилот	-9.69835
▁звезд	-9.69839
▁опубликовал	-9.69849
▁доме	-9.70002
▁внутри	-9.70024
▁гол	-9.7013
еле	-9.70171
▁форум	-9.70205
▁станции	-9.70205
▁самый	-9.70237
▁приняли	-9.70322
▁Юрий	-9.70463
▁столицы	-9.70577
▁финал	-9.70635
ственно	-9.70689
▁Центральн	-9.70748
▁некоторых	-9.70763
▁освобожден	-9.70763
чная	-9.70772
▁90	-9.70922
▁карьер	-9.7095
▁столице	-9.70981
▁указ	-9.71036
▁внесен	-9.71066
▁студент	-9.71137
▁участия	-9.71138
▁Николай	-9.71142
▁лес	-9.71163
жан	-9.71168
▁высоко	-9.71213
чать	-9.7125
▁памятник	-9.7129
▁соответствии	-9.71325
▁автобус	-9.71325
▁армии	-9.71327
▁самой	-9.71341
▁соглашение	-9.71344
граф	-9.71417
чным	-9.71486
▁Иванов	-9.71496
▁партий	-9.71497
▁Там	-9.71548
▁матча	-9.71577
▁линии	-9.71609
▁серьезно	-9.71625
ia	-9.71671
▁Мал	-9.71684
▁футболист	-9.71694
▁включая	-9.71701
▁основном	-9.71701
▁прост	-9.71735
▁марте	-9.71766
ъя	-9.71819
▁фактор	-9.71831
▁руководителя	-9.7189
▁Лавров	-9.7189
▁жители	-9.71891
▁ночь	-9.71934
▁незаконно	-9.71944
▁Лу	-9.71946
ывать	-9.72021
▁рядом	-9.72056
▁работают	-9.72073
▁площади	-9.72079
▁соперник	-9.72082
▁спорт	-9.72121
бит	-9.72167
▁бомб	-9.72193
ило	-9.72252
▁отмечают	-9.72268
▁Пу	-9.72273
▁команда	-9.72273
нный	-9.72314
торг	-9.72326
▁пункт	-9.72401
▁журналист	-9.72433
президент	-9.72565
Россия	-9.72567
▁север	-9.7264
▁думаю	-9.72641
кал	-9.72741
▁сообщ	-9.72781
▁поддержки	-9.72838
таль	-9.72889
▁режима	-9.7289
ода	-9.72992
▁создание	-9.73006
▁Пар	-9.7302
▁нефтян	-9.73029
▁прокурор	-9.73029
▁воздух	-9.7303
▁голос	-9.73136
▁распространен	-9.73221
нять	-9.7324
▁необходимости	-9.73338
дол	-9.73408
▁якобы	-9.73412
▁Чу	-9.73419
▁отмечается	-9.73444
▁первые	-9.73572
▁регионов	-9.73577
зор	-9.7361
буд	-9.73655
▁сезон	-9.73669
▁боевиков	-9.73678
▁резко	-9.7369
яют	-9.73702
чных	-9.73774
чка	-9.73784
▁основе	-9.73796
овский	-9.73817
▁СКР	-9.73842
▁став	-9.73864
te	-9.73872
Исламско	-9.73888
ce	-9.73991
пустить	-9.74037
▁пути	-9.7404
▁проб	-9.74083
били	-9.74148
ителей	-9.7419
▁исследования	-9.74197
▁довольно	-9.74236
▁транс	-9.74427
▁зарплат	-9.74444
ическом	-9.74483
казать	-9.74493
енная	-9.74518
▁первым	-9.74573
▁начальник	-9.74597
▁Вер	-9.74681
шев	-9.74746
▁Север	-9.74756
▁расследования	-9.74763
▁демократ	-9.74831
ард	-9.74841
▁получила	-9.74877
G	-9.74908
▁приз	-9.74909
▁решили	-9.74917
▁вокруг	-9.74958
нс	-9.75038
▁Бар	-9.75041
шие	-9.75045
▁Рио	-9.75074
▁предмет	-9.75077
17	-9.75121
▁300	-9.75127
▁руководство	-9.75253
▁войск	-9.75273
▁сектор	-9.75351
террористической	-9.75364
▁улиц	-9.75448
▁известны	-9.75457
принима	-9.7548
ing	-9.75505
▁Facebook	-9.75544
▁субботу	-9.75544
▁ответственности	-9.75544
▁камер	-9.75618
▁отчет	-9.7567
▁женщина	-9.75706
▁суде	-9.75754
▁повтор	-9.75759
▁составила	-9.75788
▁спор	-9.75871
▁страна	-9.75873
▁дороги	-9.75887
очка	-9.759
▁Один	-9.75926
▁обязательно	-9.75939
▁Эти	-9.75941
▁втором	-9.75946
▁погибших	-9.75949
▁попросил	-9.75956
▁метров	-9.75988
▁основан	-9.76
▁волн	-9.76014
▁обсужда	-9.76016
▁феврале	-9.76133
▁Более	-9.76135
▁область	-9.76144
Не	-9.76254
льц	-9.76268
▁турнир	-9.76303
▁вход	-9.76326
▁текст	-9.76339
▁боев	-9.76345
оф	-9.7636
▁оказались	-9.76374
▁тай	-9.76381
▁Роман	-9.76401
▁помог	-9.76404
орож	-9.76417
▁верну	-9.76464
тре	-9.7649
бин	-9.76523
▁благо	-9.76527
▁тариф	-9.76529
▁неделю	-9.76534
▁защиты	-9.7654
▁жалоб	-9.76728
▁проч	-9.76788
тек	-9.76791
▁Есть	-9.7682
▁цифр	-9.76925
▁оружие	-9.76935
▁Вот	-9.76949
▁мяч	-9.76949
▁мере	-9.77059
▁ответил	-9.77062
L	-9.7709
щу	-9.77125
▁ФСБ	-9.77323
нных	-9.77338
▁российско	-9.77417
▁игры	-9.77455
▁час	-9.77467
▁Москву	-9.77522
▁напомнил	-9.77522
15	-9.77545
▁подписан	-9.77584
▁создать	-9.77586
лез	-9.77619
льд	-9.77743
▁ограничен	-9.77756
▁мол	-9.77761
▁дат	-9.77766
▁Именн	-9.77784
▁ответственность	-9.77788
▁общей	-9.77794
▁Кол	-9.77812
▁дипломат	-9.77862
▁конфликта	-9.77895
гля	-9.77905
Ю	-9.77914
▁Саудовск	-9.77923
▁знаменит	-9.77923
▁Константин	-9.77923
▁Пе	-9.77929
▁фильма	-9.77975
▁ЦСКА	-9.78123
▁обвинения	-9.78124
чить	-9.78181
▁мировой	-9.78212
▁журнал	-9.78245
очно	-9.78263
▁материал	-9.78272
▁любой	-9.78275
▁рассказали	-9.78296
▁море	-9.78306
ающие	-9.78306
▁страхов	-9.78422
▁правила	-9.78432
устройств	-9.78502
▁стандарт	-9.78526
▁анализ	-9.78528
▁запуск	-9.78532
▁Этот	-9.78579
▁журналистам	-9.78665
▁пассажиров	-9.78671
ающих	-9.787
еров	-9.78737
▁концерт	-9.78773
▁Пре	-9.78799
▁транспорта	-9.78808
щения	-9.78843
▁метро	-9.78905
цу	-9.78926
шу	-9.78945
тик	-9.78956
▁предусмотрен	-9.78996
вала	-9.7901
ъезд	-9.79045
ируется	-9.79072
ическое	-9.79076
il	-9.7926
Интер	-9.7928
ража	-9.79343
V	-9.79413
чек	-9.79435
енного	-9.79461
боль	-9.79471
вает	-9.79475
▁(1	-9.79485
▁получит	-9.79495
▁Кан	-9.79629
▁обстрел	-9.79634
держать	-9.79637
▁приговор	-9.79679
▁продаж	-9.7975
▁возбуждено	-9.79794
▁Пере	-9.79849
цеп	-9.79882
ходить	-9.79884
▁коммун	-9.79931
▁Отмечается	-9.79949
▁учетом	-9.79953
11	-9.79978
▁управля	-9.79986
▁Государственн	-9.79997
▁департамента	-9.80097
▁сказала	-9.80099
▁взят	-9.80131
▁Нью	-9.80199
ования	-9.80206
▁воды	-9.80221
ставка	-9.80229
la	-9.80237
▁Бывши	-9.80291
▁оборон	-9.80299
▁усили	-9.80318
▁мост	-9.8032
▁столичн	-9.80331
▁артист	-9.80332
▁пациент	-9.80359
▁хотят	-9.80402
▁размещен	-9.80416
ические	-9.80465
▁британск	-9.80479
▁введен	-9.80491
▁U	-9.80553
пул	-9.80581
вшая	-9.80632
друг	-9.8072
ниц	-9.80763
▁расследование	-9.80771
парт	-9.80835
▁современно	-9.80922
▁куп	-9.80938
▁обычно	-9.80942
▁международных	-9.81038
▁рассказала	-9.81212
▁самое	-9.8124
эй	-9.8127
Рос	-9.81331
▁принят	-9.81358
▁Японии	-9.81392
▁взгляд	-9.81392
▁книг	-9.81409
▁топ	-9.81419
▁шест	-9.8148
▁спортсменов	-9.81571
▁сентябре	-9.816
▁имел	-9.81623
▁сообщения	-9.81641
пере	-9.81643
▁нарушение	-9.81654
▁травм	-9.81668
готов	-9.81698
юсь	-9.81731
▁Министр	-9.81809
стью	-9.81816
ивать	-9.81825
надзор	-9.81879
▁чуть	-9.82022
▁Обама	-9.82057
▁инвест	-9.82068
▁издание	-9.82074
совет	-9.82076
▁Гор	-9.82086
предел	-9.82101
▁оно	-9.82128
▁российским	-9.82158
нтер	-9.82172
▁инвестор	-9.8221
▁км	-9.8223
ировки	-9.82241
▁голосования	-9.82251
▁которому	-9.82286
нат	-9.82336
▁квартал	-9.82352
▁участники	-9.82356
▁журналистов	-9.8237
скими	-9.8241
▁вертолет	-9.82436
▁ноябре	-9.82436
▁продолжа	-9.82451
▁чиновник	-9.82498
▁Кир	-9.82528
▁полно	-9.82559
▁использование	-9.82579
▁смогли	-9.82588
▁новым	-9.82598
▁Марк	-9.82614
▁Иран	-9.82629
бл	-9.82629
▁аналитик	-9.82646
▁федерального	-9.82647
▁кандидатов	-9.82677
шая	-9.82703
тол	-9.82771
ался	-9.82782
▁баррель	-9.82857
▁беженцев	-9.82857
▁октябре	-9.82857
▁поддержал	-9.82857
▁сторону	-9.82968
▁спрос	-9.82978
чей	-9.83039
▁техники	-9.83119
▁отправил	-9.83147
▁бизнесмен	-9.83188
▁специальны	-9.83209
▁ул	-9.83274
прежнему	-9.83279
▁ты	-9.83281
Петербург	-9.83282
▁своими	-9.83452
гл	-9.83465
анд	-9.83468
Краснодар	-9.83472
▁мнение	-9.83544
▁специалист	-9.83555
▁официальный	-9.83637
▁такая	-9.83657
▁порт	-9.83662
▁Род	-9.83694
тав	-9.83704
▁позволяет	-9.83705
▁ИГ	-9.83719
▁утра	-9.83811
▁накануне	-9.83916
евич	-9.83936
▁снят	-9.83953
▁опрос	-9.83963
▁Го	-9.84053
▁близ	-9.84099
▁должность	-9.84109
▁Гол	-9.84137
ществ	-9.84264
▁Рас	-9.84303
▁Между	-9.84342
▁приходится	-9.84344
▁цена	-9.84348
▁плане	-9.84351
▁зон	-9.84421
▁ними	-9.84483
▁повышен	-9.84547
▁офис	-9.84574
▁сирийско	-9.8459
%.	-9.84592
▁мастер	-9.84603
▁задач	-9.84606
китайск	-9.84612
▁ран	-9.84616
▁проектов	-9.84623
▁проходит	-9.84701
ску	-9.84752
▁45	-9.84827
▁импорт	-9.84827
▁эк	-9.84883
▁победу	-9.84946
▁температур	-9.84987
▁Госдуму	-9.84987
▁полиция	-9.84994
▁Чтоб	-9.85116
▁кого	-9.85172
▁ущерб	-9.85202
▁различных	-9.85203
▁становится	-9.85419
▁органы	-9.85427
▁водитель	-9.8545
▁СК	-9.85459
▁вечер	-9.85486
▁мобильн	-9.8551
▁матери	-9.85562
▁каких	-9.85599
есс	-9.85609
▁завершен	-9.85658
ворот	-9.85679
▁расчет	-9.85746
пустил	-9.85798
▁самые	-9.85812
▁наград	-9.86024
очки	-9.86029
▁состояние	-9.86059
▁борьбы	-9.86069
вшийся	-9.86102
▁годах	-9.86124
▁областн	-9.86182
ирова	-9.86211
▁коп	-9.86229
▁стен	-9.8627
▁Эрдоган	-9.86287
▁элемент	-9.86287
▁Ши	-9.86313
▁80	-9.86423
▁трасс	-9.86509
тяж	-9.86551
фф	-9.86568
▁передач	-9.86592
▁военные	-9.86667
▁Мне	-9.86676
▁продолжает	-9.86679
остью	-9.86687
▁проверки	-9.86726
▁плохо	-9.86729
▁российском	-9.86774
сек	-9.86844
▁Reuters	-9.86943
▁движение	-9.86968
▁принимать	-9.86981
▁депутаты	-9.87041
дя	-9.87077
чения	-9.87095
▁Вол	-9.871
▁акционер	-9.87163
▁апреле	-9.87164
стал	-9.87223
▁спец	-9.87355
▁дли	-9.87431
дик	-9.87452
▁оперативно	-9.87453
▁генерал	-9.87477
▁препарат	-9.87543
▁хотел	-9.87564
▁организатор	-9.87604
▁сколько	-9.87605
▁боевы	-9.87642
▁крупных	-9.87649
становлен	-9.87692
▁пакет	-9.87737
▁Помимо	-9.87753
▁палат	-9.87758
▁века	-9.87781
щиков	-9.87803
▁Китая	-9.87828
нить	-9.87953
▁шести	-9.87982
▁объяснил	-9.88047
онов	-9.8805
▁сутки	-9.8806
▁системе	-9.88062
▁провели	-9.88153
▁Национально	-9.88205
лять	-9.88239
▁буду	-9.88247
дро	-9.88268
▁пообещал	-9.88269
▁история	-9.8827
▁бренд	-9.88288
").	-9.88457
держит	-9.88498
дон	-9.88524
фин	-9.88555
▁бед	-9.88643
▁отметили	-9.88692
▁случай	-9.887
▁дальше	-9.88715
▁жест	-9.88867
▁проводил	-9.88902
▁осужден	-9.88989
вшиеся	-9.89043
ностью	-9.89053
▁минувш	-9.89054
▁военного	-9.89125
▁Конечно	-9.89163
▁последнее	-9.89164
ter	-9.89187
изация	-9.89194
▁женщины	-9.89238
▁дни	-9.89246
▁представил	-9.89256
▁домов	-9.89303
▁события	-9.89388
▁делам	-9.89449
as	-9.89456
Это	-9.89479
шт	-9.89606
▁Несмотря	-9.89614
нсульт	-9.89623
▁ресурс	-9.89672
чал	-9.89741
▁вечером	-9.89851
зон	-9.8986
айте	-9.8987
коль	-9.89923
▁находи	-9.90081
▁гражданин	-9.90086
ивают	-9.90122
Единой	-9.90138
▁заверш	-9.9014
ющихся	-9.90254
▁недавно	-9.90292
▁запас	-9.90292
▁Московской	-9.90295
▁будущем	-9.90297
▁могу	-9.903
▁страну	-9.90319
▁пр	-9.90322
▁кров	-9.90494
19	-9.90689
▁Интернет	-9.90747
▁стадион	-9.90747
пар	-9.90777
▁расходы	-9.90899
▁происшествия	-9.90975
▁фронт	-9.90977
▁живот	-9.91116
▁документа	-9.91119
▁начать	-9.91148
информ	-9.9115
▁Apple	-9.91204
▁кампании	-9.91204
здрав	-9.91212
▁общества	-9.91244
▁той	-9.91276
x	-9.91288
▁тест	-9.91325
▁перевод	-9.9137
еры	-9.91384
▁главного	-9.91397
▁контакт	-9.91434
▁веществ	-9.91469
▁меж	-9.91499
▁вуз	-9.915
▁явля	-9.91504
▁бар	-9.91549
▁округа	-9.91755
работать	-9.91837
▁художник	-9.91894
▁кроме	-9.91895
▁регионах	-9.91937
▁выполнен	-9.9207
вались	-9.92078
▁причиной	-9.92086
▁Хиллари	-9.92125
▁Сан	-9.92128
▁электронн	-9.92142
▁произведен	-9.92153
▁уход	-9.92163
▁конкурент	-9.92209
▁украинско	-9.92349
овое	-9.92352
крест	-9.92355
▁Елена	-9.9236
▁Вчера	-9.9238
▁заметил	-9.92385
24	-9.92415
▁террористов	-9.92432
▁Сочи	-9.92456
▁нашли	-9.92462
▁содержа	-9.92561
ическую	-9.92577
▁сумма	-9.9264
▁собран	-9.92677
▁требования	-9.92734
▁издания	-9.92751
▁сезона	-9.92755
▁велик	-9.92766
▁поле	-9.92803
▁экипаж	-9.92821
▁резерв	-9.92823
▁иметь	-9.92842
▁оператор	-9.92852
тки	-9.92881
план	-9.92911
▁существует	-9.92947
топ	-9.93013
пресс	-9.93026
▁нашего	-9.93039
▁механизм	-9.93054
▁родственник	-9.93054
Зенит	-9.93055
▁бор	-9.93085
рост	-9.93098
▁установил	-9.93103
▁школьн	-9.93121
▁скандал	-9.93139
▁признак	-9.93196
тики	-9.93204
сан	-9.93251
▁сотрудничества	-9.93288
▁заседания	-9.93288
▁добычи	-9.93288
▁умер	-9.93291
▁зим	-9.93348
▁рассказ	-9.93409
▁другими	-9.93417
овали	-9.93451
▁заказ	-9.9355
▁фигур	-9.9357
▁япон	-9.93584
▁выделен	-9.93604
▁Их	-9.93653
▁военной	-9.93657
▁трудно	-9.93663
▁рез	-9.93703
am	-9.93724
▁помочь	-9.93756
▁задержали	-9.93757
мол	-9.93799
70	-9.93809
▁следствие	-9.93816
▁политике	-9.93843
▁наук	-9.93844
▁Ген	-9.93856
▁портал	-9.93865
"),	-9.93876
▁социальн	-9.93923
гран	-9.93924
▁Барак	-9.93931
▁программу	-9.93935
меня	-9.93987
Йорк	-9.93997
▁возможн	-9.94027
несли	-9.94063
▁фактически	-9.94067
иф	-9.94112
▁Был	-9.9417
▁группировки	-9.94235
▁партия	-9.94242
▁данном	-9.94259
▁обнаружили	-9.94279
▁американских	-9.94281
ta	-9.94284
,5%	-9.9429
пособ	-9.943
▁первых	-9.94347
▁комплекса	-9.94376
▁направил	-9.94401
▁футбол	-9.94413
▁референдум	-9.94464
▁Гер	-9.94485
▁местных	-9.94523
▁регионального	-9.94536
▁кризиса	-9.94539
СП	-9.94544
син	-9.94566
▁проходил	-9.94568
▁западн	-9.94568
▁долг	-9.94569
вок	-9.94571
▁сохраня	-9.94576
сказ	-9.94579
кции	-9.94624
▁бой	-9.94649
▁губернатора	-9.94663
▁запланирован	-9.94701
▁привлечен	-9.94701
▁Надежд	-9.94701
▁развива	-9.94754
▁всему	-9.94781
▁экспертов	-9.94862
▁предприятий	-9.94939
▁утвержден	-9.94939
Спартак	-9.94942
цами	-9.94965
▁труда	-9.94996
▁государственной	-9.95013
▁смог	-9.9503
▁главе	-9.95108
▁увеличил	-9.95158
▁внутренне	-9.95177
▁берег	-9.95179
министра	-9.95317
▁немец	-9.95343
▁выполня	-9.95361
шего	-9.95377
▁Стр	-9.95392
▁гуманитарн	-9.95415
▁Болгарии	-9.95416
▁надежд	-9.95424
ывая	-9.95468
полне	-9.95484
▁билет	-9.95665
▁определя	-9.95682
стями	-9.95703
▁должности	-9.95757
зелен	-9.95807
Рус	-9.95884
▁рождения	-9.95894
▁молод	-9.95921
▁Перв	-9.95946
▁привел	-9.95947
▁статье	-9.95969
▁начина	-9.95975
▁вооруженн	-9.96006
▁водо	-9.96043
▁метод	-9.9606
▁физическ	-9.96089
пот	-9.96092
▁супруг	-9.96135
▁завершил	-9.96136
▁новую	-9.96151
▁найден	-9.96155
▁Павел	-9.96164
пел	-9.96264
кур	-9.96267
▁Первый	-9.96331
▁огня	-9.9638
пет	-9.96416
▁захват	-9.96424
▁Красно	-9.96494
бой	-9.96593
▁Сбербанк	-9.96618
▁Правда	-9.96618
▁потребовал	-9.96621
▁прошли	-9.96624
▁высот	-9.9665
▁посла	-9.96663
▁теракт	-9.96687
▁технически	-9.96738
▁создания	-9.96767
восточн	-9.96791
смотреть	-9.96835
▁общественно	-9.96837
▁организован	-9.96859
▁абсолютно	-9.96896
▁роли	-9.97033
▁новом	-9.97075
▁крае	-9.97084
▁Хотя	-9.97104
▁чаще	-9.97106
чил	-9.97106
лина	-9.97108
гро	-9.97136
щем	-9.97139
джи	-9.97159
▁2010	-9.97159
▁проведение	-9.97181
▁положение	-9.97192
блок	-9.97208
▁лидера	-9.97208
кина	-9.97261
шир	-9.97312
▁вред	-9.97348
метр	-9.97365
▁отставку	-9.9741
▁Международн	-9.97472
изирован	-9.97473
Петербурга	-9.97473
▁десять	-9.9749
▁институт	-9.97516
▁внешне	-9.97581
▁Власти	-9.97594
▁знает	-9.97603
▁утром	-9.9784
чки	-9.97852
▁структуры	-9.97927
▁Игр	-9.97961
▁каб	-9.98023
▁гендиректор	-9.98082
ay	-9.98102
▁сохранен	-9.98162
▁модели	-9.98165
пали	-9.98165
▁модель	-9.98176
думал	-9.98187
Урал	-9.98197
▁нарко	-9.98202
▁Черн	-9.98222
▁дав	-9.98259
▁радио	-9.98273
▁прибыль	-9.98318
▁историю	-9.98325
▁кажется	-9.98327
▁Друг	-9.98331
▁изменил	-9.98339
емые	-9.98362
▁очередн	-9.98492
носит	-9.985
▁продолжают	-9.98535
▁понять	-9.98555
ающий	-9.98601
▁июле	-9.98606
бат	-9.98624
▁Мат	-9.9865
▁построен	-9.98746
▁заявлял	-9.98754
▁сад	-9.98776
99	-9.98795
▁Италии	-9.98819
▁товаров	-9.98825
регулиров	-9.98838
▁потеря	-9.9886
лиги	-9.98888
▁энерго	-9.98946
▁банки	-9.98955
тел	-9.98972
▁сан	-9.98976
ллер	-9.99036
▁Ведь	-9.99067
▁мигрантов	-9.99069
▁называют	-9.99072
▁процент	-9.99075
эр	-9.99085
▁экран	-9.99087
▁мал	-9.99093
▁оказалось	-9.99096
▁слаб	-9.99098
шки	-9.99125
▁занимал	-9.99126
▁1,5	-9.9913
▁вести	-9.99137
▁Гре	-9.99162
▁капитал	-9.99173
▁среднем	-9.99217
▁промышленн	-9.99222
ck	-9.99312
▁Дмитрия	-9.99381
▁прошел	-9.99443
▁назван	-9.9952
ьян	-9.99552
▁Казахстан	-9.99562
▁неоднократно	-9.99562
▁территорию	-9.99562
▁условий	-9.99562
▁ВВП	-9.99565
▁Донецк	-9.99566
нюю	-9.99587
▁августе	-9.99613
Един	-9.99776
▁американск	-9.99787
▁балл	-9.99799
▁коллектив	-9.99812
▁последних	-9.99812
▁субъект	-9.99812
▁маленьк	-9.99812
▁последний	-9.99813
▁спецслужб	-9.99842
▁расходов	-9.9987
▁Уже	-9.99907
▁лекарств	-9.99935
ed	-10.0001
чную	-10.0002
▁университета	-10.0005
▁Республики	-10.0006
▁компьютер	-10.0006
▁выиграл	-10.0007
▁отказался	-10.0007
▁далеко	-10.0008
▁числа	-10.0009
вшей	-10.0011
▁министерства	-10.0024
▁исключен	-10.0024
▁Вячеслав	-10.0031
▁пенсионер	-10.0031
▁смартфон	-10.0031
▁Денис	-10.0032
▁приехал	-10.0032
ne	-10.0033
▁пыта	-10.0033
▁защитник	-10.0033
▁Крыму	-10.0037
▁совершил	-10.0039
▁исследова	-10.0042
тепл	-10.0047
илл	-10.0051
0%	-10.0053
жит	-10.0056
▁появилась	-10.0056
▁восемь	-10.0056
▁предъяв	-10.0057
▁диск	-10.006
▁аэропорта	-10.006
цам	-10.0067
▁Министерство	-10.0067
▁успешно	-10.0073
▁борту	-10.0077
▁использовал	-10.0082
▁ребят	-10.0082
пат	-10.0082
▁депутата	-10.0082
▁флот	-10.0083
▁причем	-10.0083
читал	-10.0084
▁2008	-10.0088
▁корреспондент	-10.0093
▁ресторан	-10.0107
▁индекс	-10.0107
▁знал	-10.0112
▁предлагает	-10.0112
бед	-10.0116
▁фотограф	-10.0123
▁летом	-10.0124
цер	-10.0125
▁максимально	-10.0132
▁судебно	-10.0135
▁отделения	-10.0138
▁специалисты	-10.014
тали	-10.0141
вался	-10.0144
▁общего	-10.0146
95	-10.0146
▁Эта	-10.015
▁политика	-10.0152
▁диалог	-10.0158
пись	-10.0163
ируем	-10.0164
▁пал	-10.0178
▁ставки	-10.0178
катастроф	-10.0182
▁развитию	-10.0183
▁контроля	-10.0183
▁экономической	-10.0185
рик	-10.0185
▁психолог	-10.0187
нную	-10.0198
▁проводить	-10.02
▁микро	-10.0209
▁ГУ	-10.021
При	-10.0214
▁Евро	-10.0214
▁отметила	-10.0214
эконом	-10.0223
▁существенно	-10.0232
▁дать	-10.0232
менеджер	-10.0234
▁университет	-10.0235
работа	-10.0235
ПК	-10.0241
▁32	-10.0253
▁ряда	-10.0256
▁оборот	-10.0256
▁регулярно	-10.026
▁позицию	-10.026
жим	-10.0264
▁массово	-10.0273
енс	-10.0284
▁Почему	-10.0285
▁Ста	-10.0286
▁порядке	-10.0286
дание	-10.0291
▁Люб	-10.0291
пен	-10.0301
▁служба	-10.0304
▁гораздо	-10.0311
▁относительно	-10.0311
▁Аль	-10.0314
▁холод	-10.0317
▁доля	-10.0318
80	-10.0324
▁сенатор	-10.0338
▁высказал	-10.0338
▁богат	-10.0341
▁программе	-10.0346
▁добр	-10.0354
▁пит	-10.0362
▁аналог	-10.0362
▁направления	-10.0362
▁обеспечив	-10.0363
▁поврежден	-10.0363
▁стоимости	-10.0363
▁автомобили	-10.0367
▁палаты	-10.0368
▁символ	-10.0371
ительных	-10.0371
▁вопросов	-10.0372
ющую	-10.0375
▁Иль	-10.0384
росс	-10.0388
▁инструмент	-10.0389
▁отсутствие	-10.0392
▁оказалась	-10.0394
▁двумя	-10.04
мимо	-10.04
▁активов	-10.0401
▁торговли	-10.0401
жно	-10.0404
сков	-10.041
▁доходов	-10.0412
▁неизвестны	-10.0415
▁серии	-10.0416
сирийск	-10.0419
▁принес	-10.0424
▁снижа	-10.0424
▁Пер	-10.0425
▁данно	-10.043
+	-10.043
▁дает	-10.0439
лист	-10.044
▁нужны	-10.0441
▁учреждения	-10.0441
▁Ор	-10.0453
зд	-10.0454
▁другом	-10.0457
▁кандидата	-10.046
▁КНДР	-10.0467
▁зарегистрирован	-10.0467
▁оппозиции	-10.0467
▁сожалению	-10.0467
▁отрасли	-10.0467
▁другим	-10.0474
крыть	-10.0478
▁000	-10.0479
▁клиент	-10.0482
альное	-10.0486
▁Кадыров	-10.0493
▁показатель	-10.0494
▁миллиардов	-10.0494
35	-10.0497
▁первое	-10.0498
▁отдела	-10.0499
▁предоставля	-10.05
акт	-10.05
▁знак	-10.0506
▁марки	-10.0508
▁тепло	-10.0514
▁Зе	-10.0517
▁внутренних	-10.052
▁середине	-10.052
▁посольств	-10.052
▁сторона	-10.052
▁обычн	-10.053
леч	-10.053
▁принимал	-10.0531
▁базе	-10.0531
▁пан	-10.0536
▁кабинет	-10.0546
▁обеспечить	-10.0549
18	-10.0549
▁аэропорту	-10.0553
▁экспертиз	-10.0562
СК	-10.0565
▁Стар	-10.0569
21	-10.057
▁основной	-10.0573
▁устанавлива	-10.0573
▁свыше	-10.0573
▁пес	-10.0576
▁главным	-10.0578
▁помещен	-10.0586
▁каждом	-10.0589
▁брат	-10.0592
бен	-10.0594
шка	-10.0598
▁предварительно	-10.0599
▁отметить	-10.0599
▁успел	-10.06
зин	-10.0603
▁продукт	-10.0603
▁каждого	-10.0604
▁мотив	-10.0605
▁делает	-10.0606
▁собирается	-10.061
▁сохрани	-10.0616
▁имя	-10.0616
▁немного	-10.0616
кую	-10.0618
▁150	-10.0619
▁суб	-10.0622
▁доллара	-10.0624
жир	-10.0625
▁победы	-10.0626
▁людям	-10.0626
▁прокуратуры	-10.0626
▁замеча	-10.0626
▁днем	-10.063
▁пришли	-10.063
АЗ	-10.0631
▁программа	-10.0632
▁цели	-10.0634
▁очередной	-10.0634
▁десяти	-10.0635
▁объект	-10.0638
▁правило	-10.0643
▁американского	-10.0645
▁полуостров	-10.0652
▁здоровья	-10.0652
▁большая	-10.0653
▁обвинил	-10.0654
▁прибыли	-10.0663
▁груз	-10.0665
▁пострадали	-10.0666
▁собрал	-10.0674
▁Пан	-10.0675
▁увеличить	-10.0679
▁утверждает	-10.0679
▁стрельб	-10.0679
▁самостоятельно	-10.0679
▁подверг	-10.068
90	-10.0681
ложение	-10.0686
▁каса	-10.0687
▁зоне	-10.069
▁квартале	-10.0691
ложения	-10.0691
▁представ	-10.0695
▁мае	-10.0702
▁клиентов	-10.0704
▁международным	-10.0705
▁помощник	-10.0706
▁кодекс	-10.0706
▁бумаг	-10.0706
▁расширен	-10.0707
▁чемпионат	-10.0708
▁жить	-10.071
▁уваж	-10.071
?"	-10.0711
Восточн	-10.0711
▁конкретны	-10.0714
кажет	-10.0718
банка	-10.0728
ейн	-10.0734
▁включен	-10.0734
▁здание	-10.0734
▁турнира	-10.0737
▁семья	-10.0747
против	-10.0749
▁звон	-10.0751
▁активист	-10.0755
▁знаю	-10.0757
▁Андрея	-10.076
▁зафиксирован	-10.076
▁протяжении	-10.076
▁сигнал	-10.076
тика	-10.076
▁миллиарда	-10.0763
▁работник	-10.0771
▁существу	-10.0772
to	-10.078
▁платеж	-10.0781
летняя	-10.0784
труд	-10.0785
▁возвраща	-10.0787
▁степени	-10.0787
▁Ольга	-10.0787
▁политической	-10.0787
▁союза	-10.0788
▁формат	-10.0791
дент	-10.0792
ляет	-10.0793
чество	-10.0798
▁убит	-10.0801
▁показ	-10.0807
U	-10.0808
Авто	-10.0813
▁поддержке	-10.0814
▁ныне	-10.0815
▁Китае	-10.0815
▁использования	-10.0826
▁взрыва	-10.0838
▁новое	-10.084
▁разные	-10.0841
▁соответственно	-10.0841
▁Алексея	-10.0841
▁куб	-10.0844
части	-10.0845
▁услуги	-10.0852
▁главное	-10.0862
▁местные	-10.0863
формирован	-10.0864
▁льгот	-10.0868
▁начало	-10.0869
▁двое	-10.0869
▁путем	-10.0869
▁никак	-10.087
ющее	-10.0872
▁исполнитель	-10.0872
▁решить	-10.0874
▁сложности	-10.0876
▁подозрева	-10.0877
нок	-10.0877
▁настроен	-10.0879
орд	-10.0882
▁социальных	-10.0883
Ан	-10.0885
▁преступн	-10.0892
▁предполагает	-10.0896
▁заседание	-10.0896
▁изображен	-10.0897
▁возглавля	-10.0898
▁кос	-10.0898
▁снег	-10.09
▁мой	-10.0901
▁источники	-10.0903
▁обеспечения	-10.0908
▁проверя	-10.0912
тельная	-10.0926
Про	-10.0929
▁онлайн	-10.093
▁требует	-10.093
▁ключевы	-10.0933
▁сторонник	-10.0934
▁международной	-10.0943
▁вышел	-10.0944
▁Здесь	-10.0951
▁экономике	-10.0951
▁чемпионате	-10.0951
▁Причем	-10.0951
▁(2	-10.0951
▁обязан	-10.0951
▁второго	-10.0956
писать	-10.0957
▁Гри	-10.0962
▁флаг	-10.0962
▁директоров	-10.0971
вшегося	-10.0972
▁имущества	-10.0978
▁житель	-10.098
▁продуктов	-10.0981
▁пара	-10.0987
▁усилен	-10.0989
ставил	-10.0991
▁эффект	-10.1003
▁Twitter	-10.1006
▁доказательств	-10.1006
▁инвестиций	-10.1006
ождение	-10.1008
альным	-10.1008
фр	-10.1011
▁составит	-10.1011
рук	-10.1013
▁заниматься	-10.1015
вление	-10.102
стар	-10.1027
▁Чер	-10.1031
▁Многие	-10.1033
▁промышленности	-10.1036
Союз	-10.104
▁популярны	-10.1043
▁Новый	-10.1057
сматрива	-10.1058
▁Вмест	-10.106
▁власть	-10.106
▁эфире	-10.1061
▁взросл	-10.1061
▁влияние	-10.1061
▁арбитраж	-10.1061
▁научно	-10.1064
дается	-10.1067
▁украинских	-10.1067
▁Киеве	-10.107
▁руки	-10.1071
▁повышение	-10.1071
49	-10.1081
▁Воз	-10.1086
щики	-10.1087
▁каким	-10.1088
▁ед	-10.1089
▁/	-10.1098
▁часа	-10.1104
▁верх	-10.1112
li	-10.1112
▁ядерно	-10.1112
▁сначала	-10.1113
метров	-10.1119
▁проводят	-10.112
рет	-10.1124
▁американской	-10.1125
щего	-10.1129
▁Донбассе	-10.113
▁возраст	-10.1137
▁режиме	-10.1141
Больш	-10.1141
▁странице	-10.1141
▁руководства	-10.1145
▁событий	-10.1145
▁ученые	-10.1146
▁представляет	-10.1148
▁июне	-10.1152
▁любо	-10.1153
▁проекты	-10.1158
▁странами	-10.1159
▁каза	-10.1162
▁брон	-10.1168
ставлять	-10.1168
йте	-10.1175
▁саммит	-10.1177
▁полос	-10.1179
▁применя	-10.1185
дес	-10.1188
▁позже	-10.1202
инского	-10.1206
▁получения	-10.121
▁36	-10.1211
▁ежегодно	-10.1212
▁знач	-10.1214
бел	-10.1215
▁Зна	-10.122
▁Ее	-10.1222
▁округ	-10.1225
▁государственных	-10.1229
▁Правительство	-10.1229
▁предстоит	-10.1229
▁трлн	-10.123
▁аналогичны	-10.1231
▁вирус	-10.1235
▁поста	-10.1244
▁Ростов	-10.1246
▁ключ	-10.1256
▁Институт	-10.1258
▁зависимости	-10.1258
▁заинтересован	-10.1258
▁друж	-10.1261
ad	-10.127
▁городской	-10.129
▁семье	-10.1293
эль	-10.1298
▁читать	-10.13
un	-10.1302
Известиям	-10.1302
▁подозрени	-10.1315
▁сезоне	-10.1315
▁Кстати	-10.1315
▁2009	-10.1321
прокомментировал	-10.1329
казывать	-10.1335
▁подал	-10.1337
▁шанс	-10.1337
▁инженер	-10.1343
▁прошла	-10.1345
▁арестован	-10.1346
▁генеральн	-10.135
▁специалистов	-10.1354
стрел	-10.1354
▁лед	-10.1355
МК	-10.1355
▁туристов	-10.1356
▁пункта	-10.1362
▁ведет	-10.1365
▁спикер	-10.1366
▁возрасте	-10.1369
▁регулятор	-10.1372
H	-10.1374
ТАСС	-10.1374
and	-10.1378
▁сериал	-10.1381
▁правда	-10.1382
▁Мария	-10.1384
ологии	-10.1384
▁лишения	-10.1391
силь	-10.1392
▁подготовки	-10.1401
▁можем	-10.1401
▁In	-10.1403
▁жилья	-10.1405
▁душ	-10.1408
▁направлении	-10.1408
▁украинского	-10.1411
▁сведения	-10.1415
▁фирм	-10.1417
▁конкурса	-10.1419
▁доллар	-10.1421
▁лишен	-10.1425
менять	-10.1428
▁избирательно	-10.1429
▁политических	-10.143
службы	-10.1431
▁паспорт	-10.1431
▁пла	-10.1437
▁обл	-10.1437
▁ожидается	-10.1441
▁Ман	-10.1444
▁St	-10.1449
▁Премьер	-10.1458
▁федерации	-10.1458
▁обыск	-10.1459
▁Фонд	-10.146
▁могла	-10.1463
▁составлял	-10.1466
▁глаза	-10.1467
▁вещи	-10.1473
▁ранения	-10.1474
▁Кал	-10.1487
▁участка	-10.1487
▁дальне	-10.1488
▁Турция	-10.1489
альную	-10.1498
▁участием	-10.1498
▁следов	-10.1503
гром	-10.1505
МС	-10.1511
▁Юр	-10.1513
▁Компания	-10.1516
▁Только	-10.1516
▁больницу	-10.152
W	-10.152
ерн	-10.1522
▁мужчины	-10.1525
▁вовсе	-10.1531
давал	-10.1533
▁полном	-10.1535
▁дефицит	-10.1546
▁согласован	-10.1546
▁текущего	-10.1546
▁технологий	-10.1546
▁команду	-10.1549
▁ведомстве	-10.1551
▁Эр	-10.1551
дневн	-10.1553
▁Екатерин	-10.1557
▁руководством	-10.156
▁ног	-10.1562
проб	-10.1566
▁хозяйства	-10.1568
▁Ев	-10.1568
▁усилия	-10.157
▁временем	-10.1572
▁приоритет	-10.1575
▁Политика	-10.1575
▁честь	-10.1579
▁вызов	-10.1584
▁брать	-10.1588
▁общественного	-10.159
лес	-10.159
▁вынужден	-10.1592
реп	-10.1595
летней	-10.1598
▁Ти	-10.1602
▁вперед	-10.1603
▁располага	-10.1604
▁спустя	-10.1604
▁минимальн	-10.1607
▁выросла	-10.1615
эл	-10.1624
▁настаива	-10.1627
▁Леонид	-10.1634
▁административно	-10.1634
▁европейских	-10.1634
▁границы	-10.1635
▁образова	-10.1638
▁боя	-10.1639
▁лидеров	-10.1649
▁олимпийск	-10.1651
▁понимаю	-10.1655
шут	-10.1663
▁произошла	-10.1663
▁установить	-10.1663
▁правильно	-10.1666
▁привести	-10.1668
▁изменений	-10.1669
▁наказание	-10.167
▁вопросу	-10.1671
▁нашим	-10.1674
Прав	-10.1685
▁нефте	-10.169
▁Отметим	-10.1693
▁секунд	-10.1693
▁добиться	-10.1693
▁проверку	-10.1693
▁Затем	-10.1693
▁Чи	-10.1696
▁Наш	-10.1698
▁столько	-10.1699
▁400	-10.1699
▁сообщение	-10.1699
▁доста	-10.1701
▁исключительно	-10.171
▁Ху	-10.171
чист	-10.1712
85	-10.1713
▁спортивны	-10.1717
Роснефти	-10.1722
▁Азербайджан	-10.1722
▁настоящий	-10.1722
▁последствия	-10.1722
▁участвовать	-10.1722
▁заключил	-10.1722
▁темп	-10.1724
▁полагает	-10.1727
хин	-10.1736
дис	-10.1736
▁Бур	-10.174
▁Украину	-10.1751
▁Google	-10.1752
▁Депутат	-10.1752
▁цель	-10.1764
▁+	-10.1764
▁нужд	-10.1781
▁пуст	-10.1781
·	-10.1782
▁capt	-10.1782
▁появились	-10.1782
▁предприниматель	-10.1782
▁ухудш	-10.1782
▁лучших	-10.1782
▁ОАО	-10.1782
▁музыкант	-10.1782
▁выплаты	-10.1786
▁окруж	-10.1787
▁границе	-10.1788
▁ракеты	-10.1796
▁родн	-10.1796
▁которыми	-10.1798
▁уж	-10.1803
▁досто	-10.1804
▁объекта	-10.1804
стин	-10.1805
▁вернуть	-10.1808
▁контр	-10.181
▁средне	-10.1812
▁мероприятий	-10.1812
▁любим	-10.1812
▁денежны	-10.1813
яков	-10.1824
▁международного	-10.1824
▁четвер	-10.1828
▁слово	-10.1829
▁w	-10.1829
ступить	-10.183
▁Виталий	-10.183
нском	-10.1837
▁праймериз	-10.1842
▁бензин	-10.1842
▁хоть	-10.1842
▁технологии	-10.1842
▁Тре	-10.1846
▁зависит	-10.1848
▁II	-10.1848
▁33	-10.1851
▁поступил	-10.1851
▁союз	-10.1853
▁уникальн	-10.1853
▁J	-10.1854
▁Ирана	-10.1858
▁телеканала	-10.1858
▁существ	-10.1859
45	-10.1866
▁задача	-10.1866
▁Керри	-10.1872
▁снижения	-10.1872
▁рулем	-10.1872
▁газеты	-10.1872
платить	-10.1873
▁уничтожен	-10.1873
носить	-10.1873
нка	-10.1875
▁уменьш	-10.1877
▁общем	-10.1884
▁Дело	-10.1887
▁члены	-10.1887
ge	-10.1892
▁примеру	-10.1895
▁масл	-10.1897
▁Спорт	-10.1901
▁Федор	-10.1902
▁вероятно	-10.1903
▁пройти	-10.1903
▁позволил	-10.1903
▁счетом	-10.1905
▁давление	-10.1905
▁Mo	-10.1906
41	-10.1909
мобил	-10.1915
▁Вести	-10.1916
глав	-10.1917
▁аэропорт	-10.192
родного	-10.1921
▁участвовал	-10.1933
▁гривен	-10.1933
▁митинг	-10.1933
▁мальчик	-10.1933
льт	-10.1933
▁увидел	-10.1934
▁занимается	-10.1935
▁Самар	-10.1937
говарива	-10.1937
государственного	-10.1941
▁секрет	-10.1941
ящие	-10.1942
▁отдыха	-10.1943
▁подряд	-10.1955
▁Фр	-10.1962
▁дух	-10.1962
▁Кирилл	-10.1964
▁большим	-10.1964
▁связано	-10.1965
▁Пресс	-10.1966
платформ	-10.1972
сса	-10.1975
▁склад	-10.1975
щенко	-10.1977
▁временно	-10.198
ent	-10.1981
▁закончил	-10.1985
нар	-10.1987
▁Валентин	-10.1993
▁Новосибирск	-10.1993
▁здравоохранения	-10.1993
▁позиция	-10.1994
джа	-10.1999
▁Карл	-10.2002
▁Кубка	-10.2004
без	-10.2016
14	-10.2018
'	-10.2024
▁памяти	-10.2024
▁угрожа	-10.2024
▁увеличив	-10.2025
безопасн	-10.2027
96	-10.2031
▁правительственн	-10.2034
служив	-10.2039
неж	-10.2043
юк	-10.2043
43	-10.2045
▁форму	-10.2045
▁правам	-10.205
09	-10.205
▁английск	-10.2055
▁ЦИК	-10.2055
▁ведут	-10.2066
чан	-10.2066
ьер	-10.2066
▁говоря	-10.2078
▁политику	-10.2079
▁продолж	-10.2079
▁группе	-10.2081
берг	-10.2082
▁Накануне	-10.2085
▁статьи	-10.2088
od	-10.2094
▁турецко	-10.2094
▁главных	-10.2096
ti	-10.2097
▁завода	-10.21
▁километров	-10.2103
▁продав	-10.2104
дает	-10.2104
▁городов	-10.2116
▁опроверг	-10.2116
▁предварительным	-10.2124
▁Генеральн	-10.2124
▁Сред	-10.2125
ступления	-10.2127
▁сообщают	-10.2131
▁выхода	-10.2133
НК	-10.2134
кредит	-10.2134
▁Буд	-10.2134
что	-10.2136
22	-10.2136
▁следующем	-10.2141
▁провинции	-10.2147
леп	-10.2148
▁грузовик	-10.2149
▁агент	-10.2151
ительные	-10.2151
de	-10.2152
▁сделали	-10.2154
▁финансовых	-10.2157
ишь	-10.2169
ot	-10.2173
▁пострадавших	-10.2178
▁попытки	-10.2178
▁Комитет	-10.2178
▁падение	-10.2179
▁войска	-10.2179
▁дополнительн	-10.2186
▁годом	-10.2189
▁исход	-10.219
секретаря	-10.2191
th	-10.2191
▁Вар	-10.2192
▁терроризм	-10.22
авших	-10.2203
▁вернуться	-10.2206
▁открыва	-10.2207
▁дальнейше	-10.2208
прашива	-10.221
оруж	-10.2211
%)	-10.2214
▁находился	-10.2214
▁традиционно	-10.2216
руб	-10.2216
▁отзыв	-10.2219
▁чиновников	-10.2222
нимал	-10.2224
▁качества	-10.2226
▁Министерства	-10.2227
▁поставил	-10.223
▁съем	-10.223
▁договора	-10.2232
▁отдельно	-10.2234
▁стратегическ	-10.2236
курс	-10.2237
▁КПРФ	-10.2241
▁законодательн	-10.2241
▁Наталья	-10.2241
▁Вадим	-10.2241
▁порядок	-10.2241
▁земле	-10.2242
▁судебны	-10.2244
▁Представитель	-10.2253
близи	-10.2259
шиб	-10.2259
▁пунктов	-10.2261
▁насколько	-10.2272
▁полномочия	-10.2272
▁ребенок	-10.2272
ПС	-10.2274
▁находились	-10.2278
▁обновлен	-10.2278
co	-10.2279
▁необходим	-10.2279
nd	-10.228
▁сроки	-10.2291
▁отказыва	-10.2296
нимает	-10.2297
▁аудитор	-10.2304
▁сегодняшний	-10.2304
▁Бал	-10.2304
▁затрат	-10.2309
▁крупнейших	-10.2309
▁окончательно	-10.2315
▁выступления	-10.2317
▁доходы	-10.2317
▁танк	-10.2322
рош	-10.2329
▁супер	-10.2338
▁концу	-10.2338
кажут	-10.2339
▁интересов	-10.2339
▁ведомство	-10.2344
▁общественн	-10.2346
▁инвесторов	-10.2347
▁продлен	-10.235
▁сеть	-10.2354
▁Евросоюз	-10.2357
очных	-10.236
▁используют	-10.2367
▁финансирования	-10.2367
▁сделки	-10.2368
▁состава	-10.2369
▁исследований	-10.2371
▁коллеги	-10.2382
▁выпуска	-10.2382
▁потерял	-10.2391
▁Мор	-10.2394
▁падения	-10.2399
▁операция	-10.24
13	-10.2401
▁игру	-10.2403
▁столь	-10.2405
▁квартиры	-10.2406
лис	-10.241
▁независимо	-10.2415
%,	-10.2418
▁случаев	-10.2418
чук	-10.242
▁планировал	-10.2424
тия	-10.2427
▁приобретен	-10.2429
▁объясняет	-10.243
▁пользователей	-10.243
▁хочу	-10.243
▁Джа	-10.2433
▁эффективн	-10.2433
▁отличие	-10.2436
бить	-10.2452
▁ограничения	-10.2458
▁снизил	-10.2459
▁сегмент	-10.2462
▁колонии	-10.2462
▁итальянск	-10.2462
▁аварии	-10.2462
▁сохранить	-10.2466
▁выпуск	-10.2476
гат	-10.2476
▁базы	-10.248
жат	-10.248
▁получат	-10.2481
Новости	-10.2483
▁мощно	-10.2494
▁поможет	-10.2494
▁стабильно	-10.2494
▁норматив	-10.2494
▁земли	-10.2494
▁Второй	-10.2496
иан	-10.2498
пп	-10.2502
▁взять	-10.2513
▁суммы	-10.2514
кратн	-10.2515
▁Тако	-10.2517
▁Северной	-10.252
▁ката	-10.2521
▁местах	-10.2522
▁видел	-10.2523
&	-10.2526
▁стимул	-10.2527
▁Информационно	-10.2527
▁ВТБ	-10.253
▁убийстве	-10.253
▁прошлой	-10.254
▁Ус	-10.255
▁роман	-10.2558
▁миру	-10.2567
▁пик	-10.2574
▁преимуществ	-10.2584
▁бур	-10.2587
▁противник	-10.259
▁сыграл	-10.2591
▁одновременно	-10.2592
▁конференции	-10.2594
▁встречу	-10.2595
гарант	-10.2598
▁меш	-10.2601
▁начинает	-10.2602
▁вырос	-10.2603
▁возраста	-10.2604
▁Без	-10.2612
▁большое	-10.2624
▁авиакомпании	-10.2624
▁инфраструктуры	-10.2624
бросил	-10.2625
очку	-10.2628
▁моря	-10.2629
ивается	-10.2634
▁обеспечен	-10.2641
▁снял	-10.2652
▁золото	-10.2654
▁34	-10.2655
▁основных	-10.2656
▁отношение	-10.2656
▁нарушений	-10.2656
Лучш	-10.2657
▁проезд	-10.2657
▁огонь	-10.2658
▁проблему	-10.2662
▁назвать	-10.2663
поставщик	-10.2664
▁дополнительные	-10.2666
нки	-10.2667
▁действующе	-10.2668
▁Международно	-10.2668
▁название	-10.267
▁встреч	-10.2671
▁следующий	-10.2677
▁кому	-10.2681
▁президенту	-10.2681
▁увеличен	-10.2687
▁планируют	-10.2687
▁Сообщается	-10.2689
▁Узбекистан	-10.2689
right	-10.2689
▁путь	-10.269
▁выяснилось	-10.269
▁Михаила	-10.269
▁Через	-10.2691
▁Никит	-10.2692
лежа	-10.2695
▁добро	-10.2699
▁командир	-10.2701
▁слуша	-10.2701
▁сути	-10.2703
чке	-10.2714
▁обстоятельства	-10.2715
▁интересы	-10.2717
▁выступал	-10.2722
▁решений	-10.2722
▁исторически	-10.2722
▁храм	-10.2722
▁Артем	-10.2722
56	-10.2724
счет	-10.2729
▁Велик	-10.2729
▁министров	-10.2737
52	-10.2739
▁театра	-10.2741
▁Центр	-10.2746
жки	-10.2747
реза	-10.2752
▁Господин	-10.2754
▁российская	-10.2754
▁избирателей	-10.2754
▁пройдут	-10.2755
цем	-10.2757
▁считать	-10.2758
ЭС	-10.2761
▁объединен	-10.278
▁производит	-10.278
спект	-10.2781
▁Улюкаев	-10.2787
▁просьбой	-10.2787
▁мозг	-10.2789
▁родителей	-10.279
▁Всемирно	-10.279
▁выйти	-10.2792
▁колес	-10.2798
родной	-10.2799
▁единиц	-10.2802
коммерческ	-10.2803
▁убийство	-10.2804
▁этапе	-10.2807
▁исполня	-10.2808
▁человеческ	-10.2809
▁бег	-10.2809
▁правительстве	-10.281
▁Южной	-10.2812
транс	-10.2814
▁2000	-10.2814
▁опер	-10.2815
92	-10.2818
▁заключения	-10.2819
▁ГИБДД	-10.2821
▁Кремля	-10.2821
▁защища	-10.2821
▁госпож	-10.2821
▁рода	-10.2822
щихся	-10.2822
спор	-10.2825
▁Экс	-10.2827
▁Кли	-10.2829
▁37	-10.283
техническ	-10.2831
▁результатам	-10.284
▁животных	-10.2845
▁семи	-10.285
▁copy	-10.2854
тру	-10.2856
▁отказались	-10.2856
мут	-10.2858
▁президенты	-10.2859
вшем	-10.2859
▁авиации	-10.286
▁красно	-10.286
▁кредитов	-10.2861
▁открыто	-10.2862
▁сложи	-10.2866
восток	-10.2868
▁мил	-10.288
▁возле	-10.2885
▁эксперимент	-10.2887
▁прошлы	-10.2887
шина	-10.2887
▁массовы	-10.2891
бель	-10.2898
▁случаях	-10.2904
▁основа	-10.2905
▁частью	-10.2906
▁Джо	-10.2913
▁плен	-10.2916
▁Лондон	-10.292
▁Ярослав	-10.2921
▁соревнования	-10.2921
Жанейро	-10.2921
нибудь	-10.2921
▁Речь	-10.2921
▁занимает	-10.2925
▁прокат	-10.2932
▁туда	-10.294
Об	-10.2945
▁подключ	-10.2946
▁местного	-10.2946
▁наша	-10.2947
золот	-10.295
профессионал	-10.2954
▁Возможно	-10.2954
▁Кузнецов	-10.2954
▁комиссия	-10.2954
▁гибели	-10.2954
▁преврати	-10.2954
Волгоград	-10.2954
▁большую	-10.2955
▁бюро	-10.2956
▁шоу	-10.2957
▁инвалид	-10.2958
▁Автор	-10.296
Золот	-10.2962
ТО	-10.2962
верс	-10.297
▁ночью	-10.298
Если	-10.2982
▁ассоциации	-10.2988
▁скончался	-10.2988
▁напоминает	-10.2988
▁письмо	-10.2988
▁списка	-10.2988
▁количества	-10.2988
▁работников	-10.299
▁иначе	-10.2991
живает	-10.2993
▁назвали	-10.2998
▁чемпионов	-10.3011
▁начальника	-10.3017
▁убийства	-10.3019
▁инфляции	-10.3022
▁собственник	-10.3022
Щ	-10.3022
▁подготовке	-10.3022
▁игроков	-10.3022
▁полицию	-10.3022
05	-10.3022
▁ждет	-10.3024
▁капитала	-10.303
казал	-10.3038
Московск	-10.3043
▁открыты	-10.3046
▁многочисленны	-10.3056
▁Эксперты	-10.3056
▁автомат	-10.3057
▁провал	-10.306
▁предоставлен	-10.3069
▁другого	-10.3073
живать	-10.3074
▁идут	-10.3078
66	-10.308
Пер	-10.3082
▁использован	-10.3085
цкого	-10.3087
▁заболевания	-10.309
▁розыск	-10.309
98	-10.3096
57	-10.3107
▁материалы	-10.3107
▁прекращени	-10.3108
▁возвращен	-10.3109
▁организм	-10.3114
▁предложен	-10.3119
енное	-10.312
▁Co	-10.3122
▁коррупции	-10.3124
▁Ирина	-10.3124
▁выезд	-10.3126
▁аль	-10.3133
sh	-10.3134
▁выступает	-10.3134
▁общество	-10.3134
▁развивать	-10.3135
▁съезд	-10.3141
▁улицы	-10.3145
так	-10.3153
стри	-10.316
▁Татьяна	-10.3161
▁Кто	-10.3166
правление	-10.3176
▁вошли	-10.3177
▁подобные	-10.3179
ведомств	-10.3185
▁устройства	-10.3186
▁означает	-10.3192
▁финансирование	-10.3192
▁поставки	-10.3192
▁пояс	-10.3194
▁отстранен	-10.3199
▁показали	-10.3199
запад	-10.3203
льф	-10.3206
▁прошло	-10.3208
▁итоги	-10.3208
▁всеми	-10.3215
▁региональных	-10.3224
▁появится	-10.3227
▁Вечерни	-10.3227
▁Перед	-10.3227
▁городах	-10.3227
Кр	-10.3229
конференции	-10.323
▁трат	-10.3231
▁низко	-10.3232
ir	-10.3241
▁боевики	-10.3243
▁тела	-10.3247
▁успешн	-10.325
▁Белоруссии	-10.3261
▁справедлив	-10.3261
▁фракции	-10.3261
▁дополнительно	-10.3262
▁Кара	-10.3262
▁картины	-10.3263
▁изменить	-10.3267
32	-10.3271
▁кандидатур	-10.3274
▁осв	-10.3274
se	-10.3276
▁уточняет	-10.3283
Ин	-10.3285
нения	-10.3285
чиков	-10.3287
▁проходят	-10.329
▁предприятие	-10.3296
▁участков	-10.3296
▁солдат	-10.3296
Ленинград	-10.3296
▁желание	-10.3297
▁старше	-10.3299
▁спутник	-10.3299
▁уголовны	-10.3305
▁Герман	-10.3306
▁Евросоюза	-10.3307
шкин	-10.3311
▁вступил	-10.3316
▁увеличение	-10.3316
очные	-10.3317
▁закупк	-10.3319
▁необходимость	-10.3325
▁потенциал	-10.3326
▁множество	-10.3329
Y	-10.3331
▁ОПЕК	-10.3331
▁административны	-10.3331
▁полицейские	-10.3331
▁юридически	-10.3334
▁воспитан	-10.3335
▁посетит	-10.3338
▁подтвердили	-10.3344
▁поддержива	-10.3345
▁собак	-10.3346
▁границ	-10.3349
▁$3	-10.3354
▁узнал	-10.3357
▁видим	-10.3359
инфраструктур	-10.3365
▁хозяйств	-10.3365
▁подтвержден	-10.3366
▁преодоле	-10.3366
▁ветеран	-10.3366
▁безопасность	-10.3367
▁ВВС	-10.3367
59	-10.3369
▁Бор	-10.337
▁креп	-10.3373
▁девять	-10.3373
крытие	-10.3377
▁2020	-10.3378
▁Центра	-10.338
▁рабочих	-10.338
▁ново	-10.338
▁лож	-10.3386
▁команде	-10.3387
me	-10.3398
спорт	-10.3399
▁компанией	-10.3401
▁заместителя	-10.3401
▁Новгород	-10.3401
▁нападения	-10.3401
▁широк	-10.3403
ww	-10.3403
▁защите	-10.3405
▁главной	-10.3407
▁официальном	-10.3409
▁источников	-10.3411
▁остались	-10.3413
▁планы	-10.3425
77	-10.3427
▁северо	-10.3429
▁считаю	-10.3433
▁появился	-10.3436
▁положения	-10.3437
▁38	-10.3437
▁буквально	-10.3438
▁угрозы	-10.3441
▁Евгения	-10.3444
▁миллион	-10.3449
▁друга	-10.3451
▁американский	-10.3452
▁понят	-10.3455
▁тело	-10.3458
▁достигнут	-10.3464
▁действие	-10.3467
▁жителям	-10.3471
▁рассмотрен	-10.3471
▁совершени	-10.3473
▁Париже	-10.3473
▁Кам	-10.3474
атора	-10.3477
▁спроса	-10.3492
▁форме	-10.3493
▁знают	-10.3498
▁Франц	-10.3499
▁трое	-10.35
▁Валерий	-10.3507
▁корпус	-10.3507
▁акция	-10.3507
▁покинул	-10.3508
▁взнос	-10.3509
▁слав	-10.3509
▁вылет	-10.3511
шедше	-10.3511
▁новая	-10.3512
▁передачи	-10.3513
вард	-10.3514
▁холдинг	-10.3515
изировать	-10.3516
▁показать	-10.3519
▁водителя	-10.352
▁километр	-10.3522
▁центрально	-10.3522
▁непосредственно	-10.3529
▁теракта	-10.3532
▁Каз	-10.3538
▁кредитор	-10.3541
▁городского	-10.3542
▁самолетов	-10.3543
°	-10.3543
▁сотрудничество	-10.3543
▁динамик	-10.3543
Кавказ	-10.3543
▁Полиция	-10.3543
▁пришел	-10.3547
▁оборудования	-10.3548
▁производителей	-10.3549
▁типа	-10.3559
очной	-10.3564
▁подобных	-10.3572
гад	-10.3577
Национальн	-10.3578
▁неизвестно	-10.3578
▁полицейских	-10.3578
Воронеж	-10.3578
Москва	-10.358
▁каждой	-10.3594
▁такую	-10.3594
▁пострадал	-10.3595
▁писал	-10.3608
▁долга	-10.3609
▁уничтож	-10.3613
ладелец	-10.3614
]	-10.3614
▁предусматривает	-10.3614
▁идти	-10.3618
▁крыш	-10.3618
▁2007	-10.3625
ющиеся	-10.3627
▁материалов	-10.3627
▁крупнейш	-10.3635
реж	-10.3642
▁содержание	-10.3645
▁50%	-10.3646
▁Соединенны	-10.365
▁недвижимости	-10.365
▁профессор	-10.365
▁ходатайств	-10.365
▁бороться	-10.365
▁предлагают	-10.365
▁внимания	-10.365
▁завтра	-10.3651
▁55	-10.3657
▁Re	-10.3659
▁назначения	-10.3662
om	-10.3668
76	-10.3668
▁обратился	-10.3668
▁Представител	-10.3673
бас	-10.3673
▁оборудование	-10.3677
служил	-10.3686
▁Group	-10.3686
▁устойчив	-10.3686
▁поколения	-10.3686
▁Лондоне	-10.3687
▁поправки	-10.3687
▁группу	-10.3688
▁Олимпийских	-10.3691
▁юн	-10.3694
▁желез	-10.3695
▁передан	-10.3696
▁института	-10.3697
▁10%	-10.3698
гло	-10.3699
касс	-10.3712
▁прекращения	-10.3719
рица	-10.3721
▁полномочий	-10.3722
▁требований	-10.3722
▁пенсионн	-10.3724
▁сельско	-10.3725
▁терактов	-10.3725
▁обратно	-10.3729
▁постоянн	-10.3733
07	-10.3736
▁говорили	-10.3739
льский	-10.3754
монт	-10.3756
▁прокуратура	-10.3759
▁здоровье	-10.3759
▁Решение	-10.3759
▁предстоящ	-10.3759
▁продаже	-10.3768
▁получал	-10.3772
▁купить	-10.3776
▁никакого	-10.3784
▁Никол	-10.3787
Q	-10.3795
▁аукцион	-10.3795
▁соревнований	-10.3795
▁хозяев	-10.3795
▁население	-10.3796
▁рассматривает	-10.3796
учение	-10.3796
▁рассчитыва	-10.3797
▁дальнейшем	-10.3798
▁[	-10.3799
▁отказаться	-10.38
▁зло	-10.3802
▁футбольно	-10.3803
▁похож	-10.3803
техник	-10.3812
шему	-10.3817
▁делают	-10.3819
▁органах	-10.3822
▁персонал	-10.3823
▁играть	-10.3829
▁Меркель	-10.3832
▁принадлежит	-10.3832
▁очевидно	-10.3832
▁Европу	-10.3832
▁изучен	-10.3841
▁сверх	-10.3841
▁пласт	-10.3848
▁данн	-10.385
▁молодых	-10.3852
▁считается	-10.386
86	-10.386
▁очков	-10.3863
▁герои	-10.3868
▁разработан	-10.3869
▁грозит	-10.3872
▁ислам	-10.388
▁зоны	-10.3882
▁оставил	-10.3882
▁банд	-10.3883
▁Нет	-10.3885
ушки	-10.3887
ul	-10.3888
класс	-10.3898
▁Берлин	-10.3902
▁широко	-10.3904
▁военнослужащих	-10.3906
▁требование	-10.3906
▁экстремист	-10.3906
▁избежать	-10.3906
▁имущество	-10.3907
▁целях	-10.3909
▁количеств	-10.3911
▁изъят	-10.3913
▁продолжается	-10.3914
▁категории	-10.3916
▁вооруженных	-10.3926
▁попада	-10.3929
ступление	-10.3934
▁качество	-10.3935
▁движ	-10.3936
▁вышли	-10.3937
маркет	-10.3937
▁школе	-10.3941
▁грипп	-10.3943
▁комфорт	-10.3943
▁увидеть	-10.3943
▁задержаны	-10.3943
▁Можно	-10.3945
▁Бог	-10.3953
▁устроил	-10.3955
▁турист	-10.3955
Спец	-10.3958
▁приняты	-10.3968
ительный	-10.397
▁мошенничеств	-10.398
▁территория	-10.398
▁заявлении	-10.398
Звезд	-10.398
▁восьми	-10.3982
▁Греции	-10.3982
Динамо	-10.3982
69	-10.3987
01	-10.399
▁оценкам	-10.3991
▁служб	-10.3991
▁салон	-10.3993
▁овощ	-10.3995
all	-10.3996
▁грузов	-10.3999
начальн	-10.3999
▁юго	-10.4006
▁повышения	-10.4006
бук	-10.4008
▁поднял	-10.4014
▁обязательства	-10.4014
Z	-10.4017
▁компанию	-10.4017
▁акциз	-10.4017
▁юрист	-10.4019
▁снизить	-10.402
▁АО	-10.4026
▁Мас	-10.4027
▁населенны	-10.4044
ведении	-10.4046
▁террористически	-10.4047
▁Первы	-10.4047
▁Бен	-10.4052
▁Татарстан	-10.4055
▁убежден	-10.4055
▁совместны	-10.4055
▁регистр	-10.4055
▁намерены	-10.4056
Сахалин	-10.4056
▁второе	-10.4057
▁создании	-10.4057
he	-10.4058
▁Союза	-10.4058
шек	-10.4061
▁оценил	-10.4061
зия	-10.4062
▁шахт	-10.4063
▁ред	-10.4064
▁победил	-10.4065
▁Мон	-10.4066
▁генеральны	-10.4068
▁кадров	-10.4073
ющийся	-10.4078
▁видно	-10.408
курорт	-10.4082
▁зале	-10.4088
▁иногда	-10.4092
▁офицер	-10.4092
▁останется	-10.4092
▁различные	-10.4092
▁огранич	-10.4093
▁смерть	-10.4093
▁обязательств	-10.4095
▁Такие	-10.4096
▁сокращение	-10.4104
▁проводится	-10.4111
▁боевик	-10.4114
▁стрел	-10.4115
▁продукты	-10.4118
▁автомобиле	-10.4118
орган	-10.4122
▁советник	-10.4128
ac	-10.4128
▁Некоторые	-10.413
▁неожиданно	-10.413
▁подразделения	-10.413
▁поставлен	-10.413
▁третий	-10.413
▁высказыва	-10.4131
▁оформлен	-10.4135
▁гости	-10.4136
жин	-10.4144
▁долги	-10.4145
▁Лев	-10.4153
▁зарплаты	-10.4154
шения	-10.4166
Локомотив	-10.4168
▁альянс	-10.4168
▁Васильев	-10.4168
▁премии	-10.417
▁охот	-10.4171
▁обязанности	-10.4172
▁станут	-10.4173
чел	-10.4173
все	-10.4173
▁осталось	-10.4175
lo	-10.4179
▁видимо	-10.4186
ледственного	-10.4193
▁мск	-10.4194
долго	-10.4197
▁прибыл	-10.4197
▁представить	-10.4203
▁комплект	-10.4205
▁друзья	-10.4206
▁фестиваля	-10.4206
▁постепенно	-10.4206
▁Далее	-10.4206
▁Люди	-10.4208
▁любом	-10.4217
бежал	-10.4218
▁продажу	-10.4221
гуля	-10.4221
▁пытались	-10.423
▁Сотрудники	-10.4231
гиб	-10.424
▁утверждают	-10.4244
▁хватает	-10.4244
▁комментиру	-10.4244
▁растет	-10.4244
3,5	-10.4246
▁больнице	-10.4248
▁слух	-10.4251
сторон	-10.4253
носил	-10.4254
остях	-10.4256
▁началась	-10.4257
▁уверены	-10.4259
▁находя	-10.4265
ушка	-10.4266
▁кадр	-10.4269
▁создал	-10.4276
▁первая	-10.4282
▁оценки	-10.4283
▁ждут	-10.4283
▁атлет	-10.4283
▁препода	-10.4285
▁хотели	-10.4286
▁обстоятельств	-10.429
▁проспект	-10.4297
▁отдельны	-10.4298
▁Лиги	-10.4301
▁бирже	-10.4302
▁набрал	-10.431
▁исполнит	-10.4314
▁$2	-10.4315
▁20%	-10.4317
▁плюс	-10.4321
▁of	-10.4321
▁Обамы	-10.4323
▁Фор	-10.4328
▁пытается	-10.433
▁News	-10.433
▁среднего	-10.4336
▁мои	-10.4337
▁Гал	-10.4341
▁продолжать	-10.4359
▁мусор	-10.4359
▁штата	-10.4364
ухов	-10.4364
групп	-10.4365
▁решать	-10.4366
▁будущи	-10.4375
▁получать	-10.4375
▁коммерчески	-10.438
фан	-10.4383
▁Тур	-10.4384
▁идея	-10.4392
телю	-10.4394
▁действовать	-10.4398
▁отношению	-10.4398
Башнефт	-10.4398
▁профессионально	-10.4398
▁Кремле	-10.4399
▁получают	-10.4399
▁график	-10.44
▁нашем	-10.4402
▁родители	-10.4402
▁задачи	-10.4406
▁долгов	-10.4408
▁Сар	-10.4413
▁дали	-10.4415
ation	-10.4416
▁называл	-10.4418
стон	-10.4419
▁высокой	-10.4423
▁сборная	-10.4425
▁Мол	-10.4425
▁75	-10.4427
маш	-10.4434
▁преступлений	-10.4437
▁подготовлен	-10.4437
▁проголосовал	-10.4437
▁Центробанк	-10.4437
▁детям	-10.4437
▁постановление	-10.4438
▁недостаточно	-10.4438
▁бесплатно	-10.4439
▁РАН	-10.4439
▁автоматическ	-10.4441
▁больницы	-10.4444
Саратов	-10.4444
▁долю	-10.4448
бург	-10.445
водить	-10.4451
Север	-10.4456
▁Эн	-10.4456
%	-10.4456
▁Донбасс	-10.4459
▁техническо	-10.4461
▁одному	-10.4464
вании	-10.4464
▁министерств	-10.4466
▁известный	-10.4467
▁написан	-10.4467
▁соглаш	-10.4468
длежащ	-10.4475
▁педагог	-10.4476
▁решению	-10.4476
▁Позже	-10.4476
▁Луганск	-10.4477
▁ждать	-10.4477
▁связь	-10.4478
88	-10.448
▁сотни	-10.448
▁домой	-10.4483
бек	-10.4487
08	-10.449
▁вагон	-10.4498
мышлен	-10.4501
▁мотор	-10.4502
▁взятки	-10.4505
▁атмосфер	-10.4515
▁последнего	-10.4515
▁услыш	-10.4515
▁нужна	-10.4515
▁память	-10.4515
▁позитив	-10.4515
▁наконец	-10.4516
▁доктор	-10.4516
▁публикации	-10.4517
Олимп	-10.4522
▁отстав	-10.4529
▁поручени	-10.4533
▁основании	-10.4537
▁Два	-10.4539
▁нашу	-10.4552
▁сотруднича	-10.4555
▁публично	-10.4555
▁противоречи	-10.4555
▁Мутко	-10.4555
▁остаются	-10.4566
▁фотографии	-10.4571
Ростов	-10.4576
▁видит	-10.4581
▁42	-10.4581
▁кроссовер	-10.4594
▁ликвидаци	-10.4594
▁использует	-10.4594
тег	-10.4595
▁начнут	-10.4597
итайте	-10.4599
▁Анна	-10.46
▁Тер	-10.4601
▁передал	-10.4601
▁немало	-10.4605
▁Тру	-10.4606
▁благодар	-10.4609
ell	-10.4616
евым	-10.462
▁идеи	-10.462
▁категори	-10.4623
▁Хи	-10.4626
▁$4	-10.4627
▁футболу	-10.4631
▁Брюсселе	-10.4634
▁выглядит	-10.4634
▁действует	-10.4634
▁настолько	-10.4634
▁коалиции	-10.4634
▁спокойно	-10.4634
▁сюжет	-10.4634
▁титул	-10.4635
▁спортивн	-10.4643
▁привлечь	-10.4644
▁обратил	-10.4655
▁оказыва	-10.4661
▁союзник	-10.4661
НА	-10.4666
снаб	-10.4668
▁границу	-10.4673
▁отношениях	-10.4673
▁предложили	-10.4673
▁iPhone	-10.4674
▁Председатель	-10.4674
▁долгосрочн	-10.4674
▁религиозн	-10.4674
▁доставлен	-10.4674
▁ДНР	-10.4674
предпринимателей	-10.4674
▁дважды	-10.4674
▁версия	-10.4674
▁будущего	-10.4674
▁новостей	-10.4675
▁гостей	-10.4675
▁Захарова	-10.4676
▁Стоит	-10.4677
авто	-10.4679
▁названием	-10.4681
вольны	-10.4691
▁указал	-10.4691
ходили	-10.4693
▁самая	-10.4699
▁глаз	-10.4706
▁приказ	-10.471
пост	-10.4712
▁крупные	-10.4712
инэкономразвития	-10.4714
▁людьми	-10.4714
▁одобрил	-10.4714
▁художественн	-10.4714
▁возбудил	-10.4714
▁эпох	-10.4714
▁реестр	-10.4719
▁писали	-10.4722
▁ФАС	-10.4723
▁явно	-10.4726
ируются	-10.4727
▁ТВ	-10.4727
▁энергетическ	-10.4732
▁районах	-10.4736
ma	-10.475
▁война	-10.475
94	-10.4751
▁ИГИЛ	-10.4754
▁Стоимость	-10.4754
▁бригад	-10.4754
▁профессиональны	-10.4754
▁Бес	-10.4754
▁потерпев	-10.4754
▁Игоря	-10.4754
сил	-10.4755
▁неудач	-10.4757
технолог	-10.4759
▁преступник	-10.4759
▁лент	-10.476
▁технологическ	-10.4762
▁связанные	-10.4762
▁проводит	-10.4763
▁медицинско	-10.4765
▁Треть	-10.4768
28	-10.4769
первых	-10.4774
▁фар	-10.4775
ответственн	-10.4777
▁пару	-10.478
Основн	-10.478
▁примет	-10.478
▁итогов	-10.4794
▁нынешнего	-10.4794
▁пешеход	-10.4794
▁требуют	-10.4794
▁звуч	-10.4795
▁удобн	-10.4795
▁квартире	-10.4795
▁Мед	-10.4809
перед	-10.4811
▁сократить	-10.4811
опера	-10.4812
▁предоставлени	-10.4819
74	-10.4823
▁Коми	-10.4832
▁Дагестан	-10.4835
▁баланс	-10.4835
▁Ученые	-10.4835
▁океан	-10.4837
▁проведении	-10.4838
54	-10.4839
▁остался	-10.4847
▁собственности	-10.4849
▁Чем	-10.4856
▁Потому	-10.4856
▁кара	-10.486
▁Гар	-10.4865
▁ясно	-10.4872
▁претендент	-10.4875
▁прошедши	-10.4875
▁Сал	-10.4876
▁контроле	-10.4877
▁руках	-10.4877
▁питания	-10.4877
ницу	-10.4877
▁План	-10.4893
РА	-10.4896
▁образовательн	-10.4897
▁разрушен	-10.4897
▁моно	-10.4899
▁конец	-10.4901
▁указывает	-10.4906
▁Три	-10.4911
▁борт	-10.4912
▁Times	-10.4916
▁пресечения	-10.4916
Владивосток	-10.4916
▁операций	-10.4917
▁поставок	-10.4917
▁сумел	-10.4917
единственн	-10.4921
▁опрошенных	-10.4926
▁страниц	-10.4928
производителя	-10.4929
▁чиновники	-10.4929
▁мнения	-10.4933
id	-10.4935
▁окружающ	-10.495
68	-10.4954
▁ворота	-10.4954
▁обвинение	-10.4957
▁Красноярск	-10.4957
▁частично	-10.4963
▁нормально	-10.4964
▁гражданской	-10.4965
▁прямы	-10.4968
полковник	-10.4975
▁фигурант	-10.499
26	-10.4992
эк	-10.4993
▁посмотреть	-10.4996
▁Афганистан	-10.4998
▁окончания	-10.4998
▁молодежи	-10.4999
▁рассказывал	-10.5
▁регистрации	-10.5001
▁дешев	-10.5002
▁плав	-10.5003
наблюда	-10.5014
▁наоборот	-10.5016
нская	-10.5016
▁платить	-10.5033
▁образование	-10.5034
▁науки	-10.5035
▁эпизод	-10.504
▁участок	-10.504
▁обращение	-10.504
▁детьми	-10.504
▁лечение	-10.504
▁большие	-10.5041
▁проверка	-10.5043
23	-10.5043
ФС	-10.5044
▁скорость	-10.5044
▁властями	-10.5044
▁видов	-10.5045
▁остальн	-10.5048
стрем	-10.5048
▁объяв	-10.5051
▁числ	-10.5054
▁связаны	-10.5054
▁Николая	-10.5056
▁устройство	-10.5064
▁39	-10.5066
▁меч	-10.5068
нятие	-10.507
89	-10.5077
▁Париж	-10.508
▁розничн	-10.5081
▁удастся	-10.5081
▁прогресс	-10.5081
актив	-10.5081
▁оценке	-10.5081
▁определить	-10.5082
37	-10.5087
▁44	-10.5096
▁Николаев	-10.51
льянов	-10.5102
ie	-10.5107
▁округе	-10.5112
▁избирательны	-10.5123
▁отмечал	-10.5123
▁противодействи	-10.5123
▁операцию	-10.5124
▁попасть	-10.5125
▁туристическ	-10.5127
▁пытался	-10.5128
▁традиционны	-10.513
▁завис	-10.5131
▁общественных	-10.5134
▁брак	-10.5136
▁сокращен	-10.5136
▁Ro	-10.5138
▁службу	-10.514
29	-10.5142
▁выросли	-10.5145
изацию	-10.5159
▁свободно	-10.5162
▁Южно	-10.5163
▁Аравии	-10.5165
▁посеща	-10.5165
▁Светлана	-10.5165
▁дочь	-10.5165
▁цикл	-10.5167
▁уйти	-10.5167
▁Ma	-10.5169
▁идею	-10.5169
▁результатов	-10.5174
▁правления	-10.5176
штаб	-10.5197
▁заключение	-10.5198
▁могло	-10.52
пира	-10.5201
▁металл	-10.5205
▁сопровожда	-10.5207
▁будущее	-10.5207
▁требовал	-10.5207
парк	-10.5208
▁Востока	-10.5209
ительным	-10.5215
стям	-10.5218
▁элит	-10.5218
серьез	-10.5224
▁играл	-10.5228
▁разрешен	-10.5229
▁объекты	-10.5234
▁искать	-10.5235
▁свидетельств	-10.5247
▁москвич	-10.5249
▁Чечни	-10.5249
▁благотворительн	-10.5249
▁приглашен	-10.5249
▁миллиардер	-10.5249
▁повыша	-10.525
ber	-10.525
▁суток	-10.5251
▁Эль	-10.5255
▁Хан	-10.526
27	-10.5267
▁американские	-10.5271
▁министерство	-10.5272
шков	-10.5273
▁площадь	-10.5276
действующ	-10.5279
▁земель	-10.5288
▁врачей	-10.529
▁одобрен	-10.5291
▁презент	-10.5291
▁здании	-10.5291
▁обращения	-10.5291
▁оснащен	-10.5291
▁Может	-10.5291
▁вскоре	-10.5292
▁вышла	-10.5292
▁перенос	-10.5295
▁техника	-10.5304
независим	-10.5306
▁книги	-10.5307
ставляет	-10.531
▁областной	-10.5312
▁расход	-10.5319
ированию	-10.5323
▁65	-10.5327
антов	-10.5327
79	-10.5329
▁выяснил	-10.5332
▁интересно	-10.5334
Роснефть	-10.5334
▁предназначен	-10.5334
▁церкви	-10.5334
▁обеспечение	-10.5334
▁серьезные	-10.5334
▁ученых	-10.5335
▁определенны	-10.5335
▁Всероссийск	-10.5336
▁наличие	-10.5337
▁600	-10.5337
▁посетил	-10.5337
▁достижени	-10.5346
▁восстановлен	-10.5347
▁Пен	-10.5353
▁климат	-10.5354
▁получает	-10.5356
кинуть	-10.5361
правлять	-10.5365
▁120	-10.5367
▁представителями	-10.5368
▁вкус	-10.537
▁публика	-10.5375
вшейся	-10.5375
▁Олимпиаде	-10.5376
▁мониторинг	-10.5376
▁Общество	-10.5377
▁Шар	-10.5377
▁мировых	-10.5378
▁Турцию	-10.5378
▁подробн	-10.5383
▁экономика	-10.5383
▁Илья	-10.5384
78	-10.5384
▁свеж	-10.5387
▁принимают	-10.5394
ran	-10.5397
▁поддерживает	-10.54
▁похоже	-10.5414
▁мечта	-10.5414
▁властям	-10.5415
▁Геннади	-10.5419
▁топлива	-10.5419
▁условн	-10.542
▁протокол	-10.542
▁Азии	-10.5421
▁состоялась	-10.543
▁отправить	-10.5431
▁допрос	-10.5431
▁должностны	-10.5432
▁полной	-10.5433
▁российскими	-10.5433
▁десятки	-10.5434
▁труб	-10.5434
▁разруш	-10.5441
▁Алекс	-10.5442
▁состоит	-10.5442
▁планах	-10.5443
Дону	-10.5451
▁специальн	-10.5453
▁понятно	-10.5457
ступает	-10.5461
коррупционн	-10.5463
▁вызван	-10.5463
▁консерв	-10.5463
▁гонки	-10.5463
ировка	-10.5464
▁ослаб	-10.5465
▁46	-10.5468
▁значение	-10.5469
учить	-10.547
▁финансовой	-10.5472
линг	-10.5486
▁любит	-10.5492
▁живет	-10.5493
▁понял	-10.5494
Известия	-10.5495
▁расти	-10.5498
ьная	-10.5503
▁Бразилии	-10.5506
▁борьбу	-10.5506
▁озвуч	-10.5506
▁федеральных	-10.5506
▁некоторо	-10.5506
▁Главный	-10.5507
▁ранен	-10.5508
▁признать	-10.551
▁Al	-10.5511
▁отдельных	-10.5514
▁обсуждения	-10.5514
▁космическо	-10.5528
▁другое	-10.5529
▁крови	-10.5529
▁готовности	-10.553
▁занять	-10.5532
▁известн	-10.5536
pe	-10.5537
ПП	-10.5546
▁Агентств	-10.5549
▁уполномочен	-10.5549
▁предоставить	-10.5549
▁ранены	-10.555
▁Московского	-10.555
▁облада	-10.5551
▁предлагал	-10.5553
▁2,5	-10.5559
чков	-10.556
казывает	-10.556
▁требованиям	-10.5566
▁мини	-10.5572
падает	-10.5583
▁рубеж	-10.5585
▁пуск	-10.5587
▁обяза	-10.5587
▁электронны	-10.5589
▁отпуск	-10.5591
председател	-10.5593
▁баррелей	-10.5593
▁попытка	-10.5593
▁энергетики	-10.5593
▁быстрее	-10.5593
▁возглавил	-10.5593
▁девушка	-10.5593
▁последним	-10.5593
▁федеральном	-10.5594
▁полагают	-10.5595
▁третьем	-10.5595
▁пытают	-10.5597
▁гостиниц	-10.56
держав	-10.5601
▁дополнительных	-10.5611
▁московски	-10.5612
▁военным	-10.5618
▁негативн	-10.5619
71	-10.5621
▁журналисты	-10.5626
ard	-10.5627
▁250	-10.5627
K	-10.5627
▁четко	-10.5629
▁Минск	-10.563
▁финансовые	-10.5636
▁персонаж	-10.5637
▁злоумышленник	-10.5637
▁Проект	-10.5637
▁таможенн	-10.5638
▁текущи	-10.5638
▁украинские	-10.5644
▁сумм	-10.5667
▁Одна	-10.5675
▁Brent	-10.5681
▁соответствующе	-10.5681
▁вызывает	-10.5681
▁Польши	-10.5681
▁Индии	-10.5681
▁полгода	-10.5681
▁48	-10.5686
Й	-10.5687
▁состоялся	-10.5692
▁чуж	-10.5693
экономически	-10.5694
▁WADA	-10.5697
▁официального	-10.5705
ивая	-10.5707
▁продолжит	-10.5708
оформ	-10.572
▁храни	-10.5721
▁испытания	-10.5725
▁Вооруженны	-10.5725
▁зампред	-10.5725
▁приведет	-10.5725
▁любовь	-10.5726
▁состоянию	-10.573
▁россиянин	-10.573
▁$5	-10.5731
44	-10.5733
▁заверил	-10.5737
иловые	-10.574
черк	-10.5741
▁лист	-10.5747
очный	-10.5755
▁отдал	-10.5757
▁строго	-10.5759
▁Крис	-10.5768
▁предупрежда	-10.577
▁ситуацией	-10.577
▁чрезвычайно	-10.577
▁хакер	-10.577
▁письма	-10.577
▁Общественн	-10.577
ителю	-10.5775
▁худ	-10.5775
▁газов	-10.5779
▁Хар	-10.5781
▁военный	-10.5795
▁вроде	-10.5797
58	-10.5799
▁добива	-10.5801
▁30%	-10.5803
▁Ер	-10.5804
▁писа	-10.5806
закон	-10.5811
Справедлив	-10.5814
▁администрация	-10.5814
▁возобновлен	-10.5814
▁основные	-10.5814
▁превышает	-10.5814
нструктор	-10.5814
▁Ближне	-10.5814
▁пенсии	-10.5814
▁полтора	-10.5815
▁поручил	-10.5816
▁экономических	-10.5817
гли	-10.5818
▁ужас	-10.582
▁наказания	-10.5821
леб	-10.5824
▁начались	-10.5828
▁лишил	-10.583
▁выстрел	-10.5834
▁городских	-10.5842
▁цар	-10.5846
▁положен	-10.5848
▁Тра	-10.5849
чкой	-10.5851
▁десят	-10.5857
вмешательств	-10.5859
▁зрителей	-10.5859
▁небольшой	-10.5859
▁регламент	-10.5859
▁ЖКХ	-10.5859
▁обсудили	-10.5859
▁СНГ	-10.5859
▁решении	-10.5859
▁сотрудниками	-10.5862
▁крупнейши	-10.5871
▁Мурманской	-10.5872
писал	-10.5875
▁Соответствующ	-10.5896
ab	-10.5896
▁Олимпийск	-10.5899
▁градусов	-10.5904
▁некоторым	-10.5904
▁нынешнем	-10.5904
▁обратиться	-10.5904
▁потребителей	-10.5904
▁политического	-10.5904
▁подготовил	-10.5906
▁больших	-10.5906
36	-10.5916
▁заметно	-10.5917
▁рано	-10.5922
▁начнется	-10.5923
▁Вене	-10.5923
▁достигл	-10.5937
музыкальн	-10.5938
▁французско	-10.5938
▁предлагается	-10.594
▁удовлетворен	-10.5949
▁приватизации	-10.5949
▁соглашений	-10.5949
▁Востоке	-10.5951
▁международн	-10.5952
▁горд	-10.5956
▁Северо	-10.5965
▁фондов	-10.5966
АК	-10.5967
▁осуществлени	-10.5975
Хорош	-10.598
▁показывает	-10.5981
АН	-10.5981
▁опасно	-10.5982
▁моей	-10.5984
▁популярно	-10.5987
▁Йо	-10.5987
▁основания	-10.5987
марк	-10.5988
▁мать	-10.599
▁Благодар	-10.5995
▁Египта	-10.5995
▁списке	-10.5995
▁Победы	-10.5995
▁домашне	-10.5997
телями	-10.6005
▁медицинской	-10.6006
▁травмы	-10.6014
дзе	-10.6014
▁юридическо	-10.6018
ve	-10.602
81	-10.602
▁выпустил	-10.6021
um	-10.6023
▁зарубежн	-10.6027
учиться	-10.6031
▁применение	-10.6031
▁заключа	-10.6036
▁Калининград	-10.604
▁лицензии	-10.604
▁пап	-10.6041
▁обещан	-10.6041
▁Молод	-10.6043
▁поддерживать	-10.6046
▁далее	-10.6046
живают	-10.6046
▁Жан	-10.605
▁потери	-10.6051
▁соблюда	-10.6055
▁отправлен	-10.6056
▁Филипп	-10.606
▁воздействи	-10.6062
одно	-10.6064
▁устав	-10.6076
▁тип	-10.608
свет	-10.6081
Открыт	-10.6082
▁Потом	-10.6084
учрежден	-10.6085
na	-10.6086
▁вероятность	-10.6086
▁Испании	-10.6086
▁Думаю	-10.6086
▁КНР	-10.6086
▁экономику	-10.6087
▁Минздрав	-10.6088
▁открытия	-10.6091
▁голосование	-10.6093
офф	-10.6094
▁ресурсов	-10.6097
▁инвестиционно	-10.6108
ставят	-10.6108
щую	-10.6121
▁предполагаем	-10.6132
▁территорий	-10.6132
▁оппозиционн	-10.6132
▁перевозчик	-10.6132
очного	-10.6135
▁остановить	-10.6137
▁вынесен	-10.6139
▁намерени	-10.6141
di	-10.6142
▁поражение	-10.6143
компания	-10.6145
63	-10.6157
▁Путиным	-10.6164
▁принятия	-10.6166
пин	-10.6175
▁нанесен	-10.6178
▁ЛДПР	-10.6179
▁позднее	-10.6179
▁Тульской	-10.6179
▁МОК	-10.6179
▁(19	-10.618
▁крупном	-10.6192
▁конкретно	-10.6194
дорожного	-10.6194
▁следственны	-10.6195
спасательн	-10.6202
▁войне	-10.6202
▁жестко	-10.6204
▁Тро	-10.621
ub	-10.6218
гас	-10.6221
европейск	-10.6224
▁музея	-10.6225
▁мусульман	-10.6225
▁превысил	-10.6225
▁антидопингово	-10.6225
▁раунд	-10.6225
▁половине	-10.6225
▁разработки	-10.6225
▁лечения	-10.6225
▁Известно	-10.6226
▁организацию	-10.6226
▁комнат	-10.6226
▁2019	-10.6232
▁отлича	-10.6232
31	-10.6235
▁родился	-10.6235
КБ	-10.6244
op	-10.6256
шер	-10.6261
ow	-10.627
▁исчез	-10.6272
▁Инцидент	-10.6272
▁задолженности	-10.6272
▁прекратить	-10.6272
▁Америки	-10.6272
▁проведет	-10.6272
▁формирования	-10.6276
▁Тим	-10.6279
33	-10.628
▁началось	-10.6282
▁выполнять	-10.6283
▁песни	-10.6284
▁применения	-10.6285
▁День	-10.6288
▁молодой	-10.6289
▁вынуждены	-10.6291
▁медиа	-10.63
▁взлет	-10.6304
цки	-10.6305
▁достижения	-10.6306
чник	-10.6314
▁смертн	-10.6314
▁костюм	-10.6319
▁сокраща	-10.6319
▁церемонии	-10.6319
▁Яценюк	-10.6319
▁Очень	-10.6319
▁половины	-10.6319
▁Сирию	-10.6319
▁филиал	-10.6319
▁ополч	-10.632
▁подозреваемых	-10.632
▁Наука	-10.6324
▁патриот	-10.6326
▁площадью	-10.6335
▁британски	-10.6339
▁ЧП	-10.6342
▁Гру	-10.6345
▁прекрасно	-10.6348
▁обнаружил	-10.6356
j	-10.6366
▁Иркутск	-10.6366
▁корпоративн	-10.6366
▁осенью	-10.6366
▁обещал	-10.6366
▁шайб	-10.6366
▁спин	-10.6368
▁угол	-10.6376
▁край	-10.6377
▁ученик	-10.6381
▁эффективно	-10.6389
евский	-10.6395
▁страх	-10.6397
▁выкуп	-10.6397
ha	-10.6402
▁робот	-10.6409
▁Надо	-10.6413
▁положительно	-10.6413
▁появилось	-10.6413
▁похорон	-10.6413
▁Армении	-10.6414
▁Юлия	-10.6414
▁замминистра	-10.6414
▁изначально	-10.6415
▁криминал	-10.6418
▁заключается	-10.642
▁собираются	-10.6424
▁остальные	-10.6425
▁отделение	-10.6426
▁фирмы	-10.6435
▁уплат	-10.6439
▁сыр	-10.6445
▁Анатолий	-10.6461
▁Пентагон	-10.6461
▁Саакашвили	-10.6461
▁основным	-10.6461
▁рыночн	-10.6461
▁армия	-10.6462
национальн	-10.6469
дания	-10.6469
▁мирового	-10.6471
▁выбрал	-10.6476
▁Бас	-10.6483
▁шансы	-10.6484
▁враг	-10.6489
▁Арсен	-10.6492
здоров	-10.6501
▁стоят	-10.6501
▁опор	-10.6507
▁Олимпиады	-10.6509
▁Официальны	-10.6509
▁мягк	-10.6509
▁назначил	-10.6509
▁заранее	-10.6509
▁Дамаск	-10.651
▁печати	-10.6513
образован	-10.6515
▁Тар	-10.6517
▁Ростовской	-10.6522
02	-10.6523
работал	-10.6529
▁голод	-10.6538
▁признает	-10.6538
▁Яр	-10.6542
ho	-10.6545
▁трагедии	-10.6557
▁звук	-10.6557
▁рубежом	-10.6558
▁ВКС	-10.6558
55	-10.6559
продукт	-10.656
▁помогает	-10.6563
▁живут	-10.6564
▁жилье	-10.6565
▁арестовал	-10.6566
▁национального	-10.6569
Транс	-10.6574
▁смогла	-10.658
▁арт	-10.6585
Реал	-10.6602
▁произошедш	-10.6604
▁испытыва	-10.6605
▁продукцию	-10.6605
▁руководителей	-10.6605
▁рубрике	-10.6606
▁нападение	-10.6606
▁лайнер	-10.6606
▁политолог	-10.6607
▁Вопрос	-10.6612
▁инвестиционны	-10.6613
▁планов	-10.6615
▁департамент	-10.6619
▁товарищ	-10.6623
▁Лидер	-10.663
▁транспортных	-10.6632
▁выходит	-10.6632
▁судья	-10.6639
знание	-10.6639
вшее	-10.664
▁удален	-10.6642
▁перестал	-10.6642
▁800	-10.6643
крут	-10.6644
▁поступило	-10.6648
▁приговорил	-10.6651
▁дистанци	-10.6653
▁комментариев	-10.6654
▁соцсети	-10.6654
▁транзит	-10.6654
▁подчеркивает	-10.6654
port	-10.6654
▁приобрет	-10.6656
▁договорились	-10.6659
▁отличи	-10.6668
▁силами	-10.6674
берут	-10.6679
▁бывает	-10.6679
▁помещения	-10.6683
▁поддержать	-10.6687
ющейся	-10.6687
бул	-10.669
FA	-10.669
▁Мур	-10.6697
лайн	-10.6702
▁Экономика	-10.6703
▁соответствует	-10.6703
▁управлении	-10.6703
причастности	-10.6703
▁Бизнес	-10.6703
▁Британск	-10.6703
▁участии	-10.6703
▁владельца	-10.6703
▁Закон	-10.6705
▁сахар	-10.6706
▁стреми	-10.6706
▁украинский	-10.6715
ственная	-10.6716
дачу	-10.6721
▁продолжил	-10.6725
▁Юрия	-10.6728
▁начнет	-10.6732
▁ведется	-10.6739
миллиард	-10.6745
▁обход	-10.6747
Свободн	-10.6752
▁хотим	-10.6752
▁ведущих	-10.6752
▁информацией	-10.6752
Яндекс	-10.6752
▁событие	-10.6752
▁the	-10.6753
▁госпитализирова	-10.6754
проект	-10.6758
производитель	-10.6764
art	-10.6765
▁препаратов	-10.6765
▁привело	-10.677
▁пусть	-10.6771
▁глобально	-10.6771
чувст	-10.6784
▁атомн	-10.6789
Тр	-10.6791
начала	-10.6798
▁перерыв	-10.6799
▁петербургск	-10.6801
▁взаимодействия	-10.6801
▁заканчива	-10.6801
▁произойдет	-10.6801
▁отрицательн	-10.6801
▁показатели	-10.6801
▁защиту	-10.6804
▁отправля	-10.6805
▁виновным	-10.681
▁называется	-10.6815
ine	-10.6818
▁продан	-10.6824
▁демон	-10.6826
▁начался	-10.6834
▁требуется	-10.6837
▁большинства	-10.685
▁декларац	-10.685
▁текущем	-10.685
▁традиции	-10.685
▁Турцией	-10.685
▁горожан	-10.685
▁одержал	-10.685
▁упомина	-10.685
▁альбом	-10.6851
▁Роберт	-10.6851
▁развед	-10.6853
▁продать	-10.6855
▁девяти	-10.6858
42	-10.6864
▁ставку	-10.6878
▁возможных	-10.6879
▁заказчик	-10.6883
Амур	-10.6886
);	-10.6894
▁воздушно	-10.6899
▁Гран	-10.69
▁офшор	-10.69
▁счастлив	-10.69
▁Королев	-10.69
Газете	-10.69
▁рассматривать	-10.6901
▁охраны	-10.6904
▁Жител	-10.6906
▁десятков	-10.6907
▁исполнения	-10.6908
▁вернулся	-10.6909
▁войну	-10.6913
первые	-10.6925
стол	-10.693
▁выполнения	-10.6933
▁шок	-10.6939
подрядчик	-10.6943
шку	-10.6944
ite	-10.6945
▁такси	-10.6947
▁Большинство	-10.695
▁миграционн	-10.695
▁патриарх	-10.695
ысокопоставленн	-10.695
▁поклонник	-10.695
▁Грузии	-10.695
▁поясняет	-10.695
▁беспоко	-10.6951
▁био	-10.6951
▁газете	-10.6951
▁показателя	-10.6952
▁птиц	-10.6954
тест	-10.6955
▁старший	-10.6957
▁рож	-10.6958
▁займет	-10.6958
▁2006	-10.6962
87	-10.6971
▁играх	-10.6975
лиц	-10.6979
▁Год	-10.6986
ступив	-10.6993
▁американским	-10.6998
▁заработал	-10.6999
ыступая	-10.7
▁выставки	-10.7
▁собственных	-10.7
▁договоренности	-10.7
▁музей	-10.7
▁оппонент	-10.7
▁редактор	-10.7
▁Следственны	-10.7
▁ФРГ	-10.7
▁политические	-10.7
▁завоевал	-10.7
▁единственный	-10.7001
▁принимает	-10.7002
красив	-10.7004
▁парад	-10.7004
▁футбольны	-10.7007
ЭК	-10.7009
34	-10.7011
83	-10.7011
месячн	-10.7012
▁предпоч	-10.7022
▁обсуждать	-10.7027
▁сборную	-10.7028
▁ожидает	-10.7031
▁довери	-10.7038
вшаяся	-10.7045
▁поселке	-10.7051
▁замглав	-10.7051
▁ссыла	-10.7052
▁принципиальн	-10.7061
▁редко	-10.7065
▁показания	-10.7067
бывать	-10.7069
▁Вас	-10.7072
▁Хол	-10.7083
▁отдых	-10.7089
▁открыть	-10.7098
▁направля	-10.7101
▁Особенно	-10.7102
▁космодром	-10.7102
▁напрямую	-10.7102
▁российскую	-10.7102
▁участки	-10.7102
фабрик	-10.7102
▁опять	-10.7102
▁Григори	-10.7102
▁испанск	-10.7103
▁востоке	-10.7105
вторых	-10.7105
биты	-10.7106
▁разверну	-10.7109
▁никакой	-10.7112
▁заемщик	-10.7113
▁Лит	-10.7114
▁2005	-10.7116
▁разведки	-10.7117
06	-10.7118
SA	-10.7127
▁нерв	-10.7134
Русская	-10.7137
▁признался	-10.7139
▁40%	-10.714
скорб	-10.7142
▁Великой	-10.7152
▁Матвиенко	-10.7153
▁Следствие	-10.7153
▁компенсации	-10.7153
▁восстановить	-10.7153
▁добычу	-10.7153
▁Каждый	-10.7153
▁Степан	-10.7153
▁сердце	-10.7153
▁вдвое	-10.7153
▁русского	-10.7153
▁кажды	-10.7156
▁международном	-10.7156
▁потенциальны	-10.7157
▁Кореи	-10.7158
▁Приморск	-10.7159
▁третьего	-10.716
▁скорости	-10.7167
▁огне	-10.7167
▁детских	-10.7173
▁терроризмом	-10.7174
ельского	-10.7193
▁Директор	-10.7204
▁ОБСЕ	-10.7204
▁библиотек	-10.7204
▁правительству	-10.7204
▁фестиваль	-10.7204
▁коллектор	-10.7204
▁относятся	-10.7204
▁приобрел	-10.7204
▁стадии	-10.7204
▁проверить	-10.7204
▁кстати	-10.7205
соедини	-10.7212
▁Семен	-10.7216
ложили	-10.7219
▁общий	-10.7225
▁1,2	-10.7228
▁шар	-10.7232
▁финансового	-10.7247
▁агентству	-10.725
▁Российского	-10.7254
▁участке	-10.7256
▁федеральный	-10.7256
▁технология	-10.7256
▁взаимо	-10.7256
▁изготовлен	-10.7259
75	-10.7261
руководит	-10.7262
▁играет	-10.7265
▁боксер	-10.7273
▁выступление	-10.7273
▁разрешения	-10.7274
▁пришла	-10.728
▁стоя	-10.7283
везли	-10.7285
ex	-10.7286
мигрант	-10.7294
▁стратег	-10.7295
▁остановил	-10.7297
▁исполнил	-10.7307
▁капитан	-10.7307
▁националист	-10.7307
▁седьм	-10.7307
▁строительстве	-10.7307
▁шоссе	-10.7307
▁высоким	-10.7307
▁случайно	-10.7311
▁концов	-10.7316
▁находиться	-10.7317
▁стратегии	-10.7318
▁автономн	-10.7332
звать	-10.7342
▁вступ	-10.7353
▁Руководител	-10.7359
▁осуществлять	-10.7359
▁отвечает	-10.7359
▁площадке	-10.7359
▁дежур	-10.736
▁пограничн	-10.736
▁современных	-10.736
▁Мосул	-10.736
▁гранат	-10.736
▁появление	-10.7361
▁Руслан	-10.7363
▁уступил	-10.7375
▁исследование	-10.7376
мея	-10.7378
▁бытов	-10.7381
▁Украиной	-10.7383
▁баб	-10.7387
важны	-10.7395
▁продавать	-10.7397
▁медицинских	-10.7403
ver	-10.7408
праздн	-10.7409
▁Бельгии	-10.7412
▁Севастополя	-10.7412
▁сотрудничестве	-10.7412
▁килограмм	-10.7412
▁Дэвид	-10.7412
▁сказано	-10.7412
▁влияния	-10.7412
▁развитии	-10.7412
▁лучшим	-10.7412
▁разбирательств	-10.7412
▁Самолет	-10.7412
▁пойдет	-10.7414
$	-10.7419
▁просит	-10.7419
▁2004	-10.7426
▁рассмотрения	-10.7434
▁Кост	-10.7438
▁ядерны	-10.7442
▁пир	-10.7442
▁спасти	-10.7443
гель	-10.7444
▁Лю	-10.7448
▁сухо	-10.7451
▁значительны	-10.7454
▁получив	-10.7463
▁РЖД	-10.7464
▁Результат	-10.7464
▁безусловно	-10.7464
▁Документ	-10.7464
▁немедленно	-10.7464
▁площадка	-10.7464
▁Госдуме	-10.7464
▁водителей	-10.7467
▁пристав	-10.7468
▁местной	-10.7469
▁малыш	-10.747
▁выбрать	-10.747
▁Ангел	-10.7473
▁Мэр	-10.7475
Мар	-10.7479
▁изменение	-10.7479
▁весной	-10.748
▁АТО	-10.7485
▁получается	-10.7489
per	-10.7505
▁Гро	-10.7515
цвет	-10.7516
▁Роспотребнадзор	-10.7517
▁высокий	-10.7517
▁выясня	-10.7517
▁Башар	-10.7518
▁Работа	-10.7518
▁Нужно	-10.7519
▁южно	-10.7519
▁выйдет	-10.752
▁президентских	-10.7523
ly	-10.7523
▁минус	-10.7525
▁шла	-10.7527
▁одни	-10.7527
▁воздушны	-10.7532
▁зарубежных	-10.7533
▁Mar	-10.7537
▁черт	-10.7539
▁негативно	-10.754
4,5	-10.754
Пар	-10.7556
▁Одно	-10.7559
▁стоял	-10.756
алкоголь	-10.7564
▁угрозой	-10.7566
▁оставить	-10.7569
▁предупредил	-10.7571
▁продюсер	-10.7571
▁строительству	-10.7571
▁большого	-10.7571
▁хуже	-10.7571
▁группировка	-10.7571
шан	-10.7573
печен	-10.7576
▁бог	-10.758
▁пря	-10.7581
▁применен	-10.7582
▁лишни	-10.7582
▁полуфинал	-10.7582
▁занимаются	-10.7585
▁бывших	-10.759
▁полезны	-10.762
▁продолжить	-10.7621
▁WSJ	-10.7624
▁Mercedes	-10.7624
▁многим	-10.7624
▁земля	-10.7624
▁праздничн	-10.7624
▁тебя	-10.7624
▁мама	-10.7657
конференц	-10.7667
▁медали	-10.767
▁Дуб	-10.7672
▁целей	-10.7674
▁гроз	-10.7677
▁биатлон	-10.7678
▁Адвокат	-10.7678
▁Латвии	-10.7678
▁пистолет	-10.7678
▁корабля	-10.7678
▁архив	-10.7678
▁случаи	-10.7678
▁оценку	-10.7678
▁будто	-10.7678
▁глубин	-10.7678
▁сирийского	-10.7681
▁международный	-10.7692
хозяйственн	-10.7692
директор	-10.7698
Евро	-10.7699
▁отметив	-10.7702
▁Следственно	-10.7704
▁Теле	-10.7708
Оскар	-10.7719
▁допуск	-10.7727
▁бомбардировщик	-10.7732
▁задействован	-10.7732
▁Нескольк	-10.7732
▁Стамбул	-10.7732
▁наращива	-10.7732
▁рекламн	-10.7732
▁штурм	-10.7733
▁просил	-10.7733
▁наверное	-10.7734
▁произошедшего	-10.7734
▁отвечаю	-10.7734
▁преступление	-10.7736
медицинск	-10.7738
▁критическ	-10.7739
▁оказывается	-10.774
▁запущен	-10.7741
компаний	-10.7743
▁раскрыв	-10.7751
ящим	-10.7751
▁слыш	-10.7752
▁готовится	-10.7752
▁сокращения	-10.7752
▁создавать	-10.7752
▁медицински	-10.7761
Деньги	-10.7762
04	-10.7766
▁высше	-10.7771
▁пропуск	-10.7782
▁случилось	-10.7786
▁заложник	-10.7786
Ведомост	-10.7786
▁Женщин	-10.7786
▁аренду	-10.7786
▁придержива	-10.7786
▁узнать	-10.7787
▁Христ	-10.7787
▁проиграл	-10.7787
▁склон	-10.7787
▁похищен	-10.7788
▁передать	-10.7789
▁состояния	-10.7794
▁окна	-10.7796
▁оказаться	-10.7798
▁Меня	-10.7799
▁Первая	-10.7819
▁примут	-10.7821
▁органами	-10.7833
▁Bloomberg	-10.7841
▁Америке	-10.7841
▁позволяют	-10.7841
▁Позднее	-10.7841
▁Уголовно	-10.7841
▁сообщества	-10.7841
▁Число	-10.7841
▁относится	-10.7841
ca	-10.7841
▁величин	-10.7841
▁обязательны	-10.7842
▁опасности	-10.7846
▁пойти	-10.785
▁стихи	-10.785
▁Европейского	-10.7857
▁плот	-10.7867
mo	-10.7868
▁предвыборной	-10.787
▁рассмотрение	-10.7875
▁начинают	-10.7881
производители	-10.7882
‐	-10.7896
▁ожидаем	-10.7896
▁удовольстви	-10.7896
▁любви	-10.7896
▁Соколов	-10.7896
▁необычн	-10.7896
▁вошел	-10.7898
▁экономические	-10.79
▁спортивно	-10.7902
▁Пекин	-10.7914
▁глубоко	-10.7917
уголь	-10.7921
▁Дмитр	-10.7922
▁Наибол	-10.7923
▁собрания	-10.7932
ошло	-10.7941
▁целый	-10.7945
Аэрофлот	-10.7951
▁Boeing	-10.7951
▁СИЗО	-10.7951
▁заболеваний	-10.7951
▁нравится	-10.7951
▁утвердил	-10.7951
▁гектар	-10.7951
▁конгресс	-10.7951
▁МВФ	-10.7951
▁возврат	-10.7951
▁предоставил	-10.7951
▁лучшие	-10.7951
▁дебют	-10.7951
▁действовал	-10.7951
▁волонтер	-10.7951
▁единственным	-10.7951
▁европейской	-10.7952
▁покупки	-10.7952
▁давления	-10.7954
▁концерн	-10.7955
способности	-10.7956
▁следующего	-10.7957
▁доставк	-10.7959
▁разбира	-10.7962
▁Американски	-10.7963
▁объединения	-10.7977
йтесь	-10.7977
▁начиная	-10.7996
падают	-10.8006
▁Информаци	-10.8006
▁Свердловск	-10.8007
▁Станислав	-10.8007
▁Янукович	-10.8007
▁грамот	-10.8007
▁ежедневно	-10.8007
▁героя	-10.8007
▁оценить	-10.8007
▁понимать	-10.8007
▁сетях	-10.8007
▁знать	-10.8009
мог	-10.8015
▁реализацию	-10.8018
Бел	-10.8018
▁показан	-10.8025
риканск	-10.8027
ill	-10.8029
▁доверия	-10.8037
▁общественны	-10.804
▁иранск	-10.8049
грузки	-10.8062
▁Губернатор	-10.8062
▁Михайлов	-10.8062
▁очереди	-10.8062
▁досрочно	-10.8062
▁ожидания	-10.8062
▁жилищно	-10.8062
▁подозреваемого	-10.8062
▁переговорах	-10.8062
▁Причиной	-10.8063
▁способны	-10.8063
▁хлеб	-10.8063
▁Команд	-10.8063
▁привык	-10.8065
▁проходить	-10.8072
▁составить	-10.8077
▁золота	-10.8078
▁прекрасн	-10.8086
▁муниципальных	-10.8088
энерго	-10.8089
ИГ	-10.8099
▁исполнение	-10.81
▁стартовал	-10.8105
▁BMW	-10.8119
▁тюрьмы	-10.8119
▁христиан	-10.8119
▁обыграл	-10.8119
▁космос	-10.8119
▁музее	-10.8119
▁учебно	-10.8119
▁близких	-10.8119
▁Минюст	-10.8119
▁неприят	-10.812
▁внедрен	-10.8121
▁исходя	-10.8125
▁расстрел	-10.8127
Спорт	-10.8128
▁следственно	-10.8133
▁Тверск	-10.8137
▁Жен	-10.8138
крывает	-10.8149
▁хороший	-10.8163
03	-10.8165
▁запретить	-10.8167
▁музыкально	-10.8172
▁бесплатн	-10.8172
▁YouTube	-10.8175
▁Встреча	-10.8175
▁заморозк	-10.8175
▁продвижени	-10.8175
▁Джордж	-10.8175
▁рассчитан	-10.8175
тормоз	-10.8176
▁ярки	-10.818
▁Международны	-10.8181
▁Европейски	-10.819
▁изменен	-10.8191
▁выросло	-10.8192
▁заработн	-10.8205
ive	-10.8206
▁Лен	-10.8207
способность	-10.8214
ГА	-10.8219
шняя	-10.8223
▁инновационн	-10.8232
▁позиций	-10.8232
Манчестер	-10.8232
▁смягч	-10.8232
▁подготовку	-10.8232
▁миссии	-10.8232
Коммерсантъ	-10.8233
▁наличии	-10.8233
▁знаем	-10.8235
▁вокзал	-10.8236
▁поднять	-10.8237
▁скромн	-10.8238
звонил	-10.8249
▁новинк	-10.825
▁думск	-10.8256
zr	-10.8257
▁добавляет	-10.8258
▁банковской	-10.8267
коммун	-10.8278
▁хорошие	-10.8283
▁рассчитывает	-10.8284
▁Москвой	-10.8289
▁злоупотреблени	-10.8289
▁максимум	-10.8289
▁оплаты	-10.8289
▁организацией	-10.8289
▁пользоваться	-10.8289
▁столкновения	-10.8289
▁утверждал	-10.8289
▁энергии	-10.8289
▁реализу	-10.8289
▁взыскани	-10.8289
▁зданий	-10.8289
▁сердца	-10.8289
▁форвард	-10.8289
▁мандат	-10.8289
▁фанат	-10.829
▁стоимостью	-10.8295
Ленты	-10.8295
va	-10.8302
ографии	-10.8316
производств	-10.8318
сервис	-10.832
ологически	-10.8328
▁заложен	-10.8339
▁летчик	-10.834
▁коррект	-10.8345
▁крушения	-10.8347
▁Аравия	-10.8347
▁Футбол	-10.8347
▁позволяющ	-10.8348
-154	-10.8348
▁катастрофы	-10.8349
▁звание	-10.8352
▁разрешение	-10.8355
▁составляют	-10.8356
▁посещени	-10.8356
one	-10.8359
▁сцене	-10.8361
▁получилось	-10.8361
▁восстановление	-10.8365
▁ролик	-10.8368
▁хим	-10.8374
губернатор	-10.8378
▁западных	-10.838
Германия	-10.8381
▁улицах	-10.8384
▁ограничива	-10.8397
рск	-10.8403
хирург	-10.8404
>	-10.8404
і	-10.8404
▁впоследствии	-10.8404
▁газопровод	-10.8404
▁недвижимость	-10.8404
▁осуществляет	-10.8404
▁урегулирования	-10.8404
▁выполнить	-10.8404
▁следователи	-10.8404
▁авиаудар	-10.8404
▁фрукт	-10.8405
▁акцию	-10.8405
Болгар	-10.8405
▁денежно	-10.8406
▁обратились	-10.8408
НБ	-10.8408
дорожн	-10.8418
▁разрабатыва	-10.842
▁остальных	-10.8423
▁собрать	-10.8427
▁обоснован	-10.8437
▁драм	-10.8453
▁другая	-10.8459
▁Минэкономики	-10.8462
▁Участники	-10.8462
▁добавив	-10.8462
▁комментировать	-10.8462
▁попытке	-10.8462
▁тщательно	-10.8462
▁Швеции	-10.8462
▁пространства	-10.8462
▁девочка	-10.8462
▁наблюдения	-10.8463
▁приостановлен	-10.8463
▁полк	-10.8463
▁пересмотр	-10.8465
▁поселка	-10.8465
▁мысли	-10.8466
▁содержания	-10.8467
▁След	-10.8467
▁Sh	-10.8468
монтаж	-10.8477
▁определил	-10.8481
▁обсуждение	-10.8486
▁воздушного	-10.8489
go	-10.8491
mp	-10.8492
коротк	-10.8494
ry	-10.8503
▁дизайнер	-10.8503
▁обвиняют	-10.8505
бесед	-10.851
читать	-10.8511
Эксперт	-10.8521
▁большинстве	-10.8521
▁муниципалитет	-10.8521
▁соответствующие	-10.8521
▁зрителя	-10.8521
▁партию	-10.8521
ладельцы	-10.8521
▁сомнева	-10.8522
▁откуда	-10.8522
▁портрет	-10.8523
▁хотелось	-10.8526
▁возможностей	-10.8527
▁напитк	-10.8528
ходящего	-10.8534
▁дейст	-10.8535
▁космически	-10.854
▁подводн	-10.8541
современн	-10.855
▁жар	-10.8553
J	-10.8557
промышленн	-10.8559
▁размещения	-10.8564
▁равны	-10.8567
▁десятка	-10.8569
▁призван	-10.857
▁исламист	-10.857
0,5	-10.8574
▁допустил	-10.8576
ражение	-10.8576
▁торжественн	-10.8577
▁алкоголя	-10.858
▁распространи	-10.858
▁собственные	-10.858
▁Англии	-10.858
▁Василий	-10.858
▁учебны	-10.858
▁последней	-10.858
▁наследия	-10.8581
▁ожидал	-10.8582
▁чьи	-10.8583
▁страхования	-10.8584
▁значения	-10.8588
▁детали	-10.8598
▁дизайн	-10.8598
▁остаться	-10.86
летних	-10.8601
▁активность	-10.8612
▁выставка	-10.8616
▁сырье	-10.8622
служит	-10.8625
▁правящ	-10.8635
АвтоВАЗ	-10.8639
―	-10.8639
▁болезни	-10.8639
▁жизненн	-10.8639
▁девушки	-10.8639
▁гео	-10.8652
▁погашен	-10.8652
▁квадратны	-10.8655
▁обладател	-10.866
▁популярность	-10.8661
компании	-10.8665
▁платежей	-10.8666
▁700	-10.8666
ступать	-10.8668
▁прокомментирова	-10.8668
▁Баб	-10.8672
Екатеринбург	-10.8674
ифицирован	-10.8684
ителям	-10.8695
▁возбуждени	-10.8697
Республика	-10.8698
▁Австралии	-10.8698
▁академии	-10.8698
▁аргумент	-10.8698
▁друзей	-10.8698
▁интенсивн	-10.8698
▁конкуренции	-10.8698
▁одежды	-10.8698
▁Смоленск	-10.8698
▁повысить	-10.8698
▁инвестиции	-10.8698
▁спирт	-10.8699
▁топливо	-10.8699
▁нужен	-10.8699
▁финальн	-10.8701
▁надеется	-10.8702
факт	-10.8702
▁отставке	-10.8709
▁планеты	-10.8709
▁плеч	-10.8709
▁Южн	-10.8714
▁банковских	-10.8718
▁отменен	-10.872
▁полученных	-10.8723
▁увеличения	-10.8726
▁Фил	-10.8752
▁Le	-10.8753
▁Специалисты	-10.8758
▁руководству	-10.8758
▁недалеко	-10.8758
▁разобраться	-10.8758
▁антироссийск	-10.8759
▁взлом	-10.8761
▁Air	-10.8761
▁обсуждал	-10.8762
▁жителя	-10.8763
▁кафе	-10.8763
▁стратегических	-10.877
▁клиник	-10.8772
▁Член	-10.8792
▁медаль	-10.8809
▁родителям	-10.8812
▁краево	-10.8817
▁Мужчина	-10.8819
▁борьба	-10.8819
▁девочки	-10.8819
▁Павла	-10.8819
▁выявил	-10.8819
▁мясо	-10.8819
▁покупку	-10.8819
▁оставаться	-10.8822
ницей	-10.8826
▁дисциплин	-10.8826
▁тренд	-10.8836
▁шум	-10.8837
▁олимпийски	-10.8844
федеральн	-10.8879
▁батальон	-10.8879
▁инспектор	-10.8879
▁комментарии	-10.8879
▁соцсетях	-10.8879
▁рынки	-10.8879
▁актриса	-10.8879
▁учреждений	-10.8879
▁версию	-10.8879
▁Московский	-10.8879
▁сессии	-10.888
▁установки	-10.888
▁расширя	-10.888
▁военную	-10.888
Извести	-10.888
▁покупать	-10.888
▁Новак	-10.8886
▁здорово	-10.8887
▁сетей	-10.8888
▁отменил	-10.8896
▁личности	-10.8902
▁идеальн	-10.8928
ложении	-10.893
▁Людмил	-10.894
▁востребован	-10.894
▁индивидуальны	-10.894
▁площадки	-10.894
▁рекомендовал	-10.894
▁реконструкции	-10.894
▁перемирия	-10.894
▁разработчик	-10.894
▁Майкл	-10.8941
▁отменить	-10.8941
▁свидетельствуют	-10.8942
▁двигателя	-10.8942
▁Пушкин	-10.8942
▁распределен	-10.8942
▁учителя	-10.8943
▁Заместител	-10.8945
▁терминал	-10.8947
▁15%	-10.8949
▁эффективности	-10.8951
едва	-10.8961
▁ставок	-10.8964
▁АЭС	-10.8965
▁предвыборн	-10.8969
эффективн	-10.8982
▁легкоатлет	-10.9002
грузка	-10.9002
▁Швейцарии	-10.9002
▁корпорации	-10.9002
▁областях	-10.9002
▁организовать	-10.9002
▁последствий	-10.9002
▁прекратил	-10.9002
▁экзамен	-10.9002
▁аварийно	-10.9002
▁известен	-10.9002
▁ипотечн	-10.9002
▁фермер	-10.9002
▁Свято	-10.9002
▁Около	-10.9003
▁защитить	-10.9006
▁объединя	-10.9007
Нуср	-10.9009
Восток	-10.901
▁позво	-10.9015
▁больниц	-10.9016
итесь	-10.9024
▁центральны	-10.9025
▁молодые	-10.9027
▁Элл	-10.9033
▁Орлов	-10.9035
▁составлен	-10.9037
▁выполнение	-10.9041
▁купил	-10.9052
▁Подмосковье	-10.9063
▁Республике	-10.9063
▁заксобрани	-10.9063
▁поддержка	-10.9063
▁ЗАО	-10.9063
▁должник	-10.9063
▁организовал	-10.9063
▁коридор	-10.9063
▁происходил	-10.9063
▁демонстраци	-10.9063
▁ближе	-10.9064
▁застройщик	-10.9064
▁важных	-10.9064
▁выбран	-10.9068
▁рассчитывать	-10.9068
▁алкогольно	-10.9071
▁вторая	-10.9073
▁выступать	-10.9077
▁честно	-10.9085
▁уверенность	-10.909
▁наблюдал	-10.9099
▁ограничений	-10.9099
▁Американск	-10.9121
▁Реджеп	-10.9125
▁воспользоваться	-10.9125
▁выполнил	-10.9125
▁делегации	-10.9125
▁лучший	-10.9125
▁наблюдается	-10.9126
▁намечен	-10.9126
▁Mail	-10.9126
▁представляют	-10.9128
▁рассмотреть	-10.9135
▁FT	-10.9136
▁социальные	-10.9151
▁местным	-10.9153
▁Цель	-10.9159
модерн	-10.9163
▁активности	-10.9168
контроль	-10.9168
экс	-10.9174
-200	-10.9176
ВКонтакте	-10.9188
настоящему	-10.9188
▁достичь	-10.9188
▁профсоюз	-10.9188
▁историк	-10.9188
▁серьезных	-10.9188
▁маневр	-10.9188
▁тверд	-10.9189
▁снизилась	-10.9192
▁экономический	-10.9192
▁сюда	-10.9193
▁важным	-10.9194
▁Больше	-10.9195
▁мировы	-10.9211
▁возвращения	-10.9216
▁биолог	-10.9216
▁перво	-10.9219
▁фраз	-10.9225
▁экономист	-10.9235
систем	-10.924
альтернатив	-10.9242
▁велосипед	-10.9251
▁Отечественной	-10.9251
▁заместителем	-10.9251
▁невероятн	-10.9251
▁приобрести	-10.9251
▁беспоряд	-10.9251
▁потребительски	-10.9251
▁Рамзан	-10.9251
▁страшно	-10.9251
▁пожалова	-10.9256
▁младш	-10.9259
▁имею	-10.9262
ступил	-10.9263
▁сделка	-10.9267
Групп	-10.9269
▁разработал	-10.927
▁покида	-10.927
▁пережив	-10.9289
▁завершить	-10.9299
Голос	-10.93
▁итог	-10.9308
▁жительниц	-10.9313
▁Мюнхен	-10.9314
▁Тайип	-10.9314
▁магнит	-10.9314
▁подростков	-10.9314
▁лагеря	-10.9314
▁турецких	-10.9314
▁ожидают	-10.9314
Оренбург	-10.9314
▁магистр	-10.9314
▁русских	-10.9314
▁Земли	-10.9315
▁авиабаз	-10.9315
вязан	-10.9316
Организаци	-10.9317
▁просят	-10.9319
▁берем	-10.9321
▁согласился	-10.9327
около	-10.9337
▁удачн	-10.9348
TV	-10.9358
▁коротко	-10.9358
программ	-10.9364
▁Америка	-10.9369
▁лауреат	-10.9378
▁подтверждает	-10.9378
▁пользователи	-10.9378
▁респондентов	-10.9378
▁совещании	-10.9378
▁отказалась	-10.9378
▁крымски	-10.9378
▁Екатеринбурге	-10.938
▁колонн	-10.9381
▁имеющих	-10.9382
▁двойн	-10.9385
классник	-10.9386
▁татар	-10.9386
▁международные	-10.9392
▁возникает	-10.9392
▁Город	-10.9393
▁Алтайск	-10.9397
▁дипломатически	-10.9404
▁Сталин	-10.9418
российско	-10.9427
▁возглавлял	-10.9437
▁Лук	-10.9439
*	-10.9442
▁ФИФА	-10.9442
▁отреагировал	-10.9442
▁эксплуатации	-10.9442
▁наркотиков	-10.9442
▁пожалуй	-10.9442
▁Сирийск	-10.9442
▁радиостанци	-10.9442
▁сообщество	-10.9442
▁пишут	-10.9442
▁председателем	-10.9442
▁переворота	-10.9442
▁пределами	-10.9443
▁сооружен	-10.9445
откровенн	-10.9448
▁направить	-10.945
▁реальности	-10.9456
▁постановк	-10.9456
▁осталась	-10.9461
▁двум	-10.948
▁вспомина	-10.948
▁государственные	-10.9491
Вести	-10.9497
▁оригинальн	-10.9506
▁основного	-10.9506
▁шахмат	-10.9506
▁единоросс	-10.9506
▁Лебедев	-10.9506
▁ПАО	-10.9506
▁Видео	-10.9507
▁выехал	-10.9508
▁возглавит	-10.9508
▁сферы	-10.951
▁Европа	-10.9513
▁выражении	-10.9514
▁срочно	-10.9514
▁физических	-10.9521
▁естественно	-10.9522
▁письме	-10.9529
▁приступил	-10.9553
▁Омск	-10.9559
демократ	-10.956
красн	-10.9565
▁отмене	-10.957
▁хоккей	-10.9571
▁договоренностей	-10.9571
▁обеспокоен	-10.9571
▁сценарий	-10.9571
▁ЛНР	-10.9571
▁недавне	-10.9571
▁посетителей	-10.9571
▁железнодорожно	-10.9571
▁поражения	-10.9571
▁авторитет	-10.9571
▁непросто	-10.9572
▁сделок	-10.9572
▁возбужд	-10.9573
▁штук	-10.9574
▁нарушении	-10.9579
▁дверь	-10.958
▁заявив	-10.958
▁Новая	-10.9581
▁зачем	-10.9582
▁восстановления	-10.9594
▁1,6	-10.9599
▁высши	-10.9601
▁Израиля	-10.9637
▁болельщиков	-10.9637
▁кинематограф	-10.9637
▁появятся	-10.9637
▁революции	-10.9637
▁предполагал	-10.9637
▁землю	-10.9637
▁отмечен	-10.9637
▁1990-	-10.9637
участниц	-10.9637
▁производству	-10.9638
▁Польше	-10.9639
▁подземн	-10.9639
▁Миронов	-10.964
▁Спуст	-10.9641
▁договориться	-10.9646
▁обладает	-10.9657
▁устранен	-10.966
▁столичны	-10.9671
несут	-10.9674
▁Стран	-10.9678
Так	-10.9682
▁готовность	-10.9686
недопустим	-10.9702
▁Daily	-10.9702
▁Собянин	-10.9702
▁Финляндии	-10.9702
▁пользователя	-10.9702
▁серебрян	-10.9702
▁пространство	-10.9702
▁стражей	-10.9702
▁ФБР	-10.9702
▁показателей	-10.9703
▁Госдума	-10.9703
▁перечень	-10.9703
▁подопечн	-10.9703
▁понрави	-10.9703
▁возгорани	-10.9703
▁думать	-10.9703
аналитическ	-10.9704
▁судьи	-10.9705
▁предложений	-10.9724
▁спросил	-10.9726
▁уточня	-10.9727
▁закрыв	-10.973
▁решит	-10.975
Челябинск	-10.9768
▁мероприятие	-10.9769
▁реализовать	-10.9769
▁учитывая	-10.9769
▁заявку	-10.9769
▁1991	-10.9769
▁Олланд	-10.9769
▁Одним	-10.9769
▁становятся	-10.9769
Академ	-10.977
▁Группа	-10.9772
▁трансфер	-10.9772
▁близко	-10.9776
▁агит	-10.9777
▁называть	-10.9781
▁труп	-10.9781
космическ	-10.9784
▁Мартин	-10.9784
▁украинским	-10.9785
▁покушени	-10.9786
▁бирж	-10.9802
▁литр	-10.983
2,5	-10.9832
▁Instagram	-10.9835
▁распоряжении	-10.9835
▁полузащитник	-10.9835
▁покупателя	-10.9835
▁пригласил	-10.9835
▁чтении	-10.9835
▁обсудить	-10.9835
▁размеща	-10.9835
▁Версия	-10.9836
▁возмещен	-10.9836
▁новейш	-10.9836
▁Минтранс	-10.9837
▁убедить	-10.9838
▁погибшего	-10.9838
▁кибер	-10.9839
▁выступают	-10.9847
▁возможным	-10.9858
рабатывать	-10.9861
▁почв	-10.9864
ируя	-10.9874
ставив	-10.9884
▁New	-10.9886
регистр	-10.9896
продаж	-10.9898
▁Предполагается	-10.9902
▁напряженно	-10.9902
▁отвечать	-10.9902
▁ошибки	-10.9903
▁европейские	-10.9903
▁одинаков	-10.9908
▁Светл	-10.9912
▁выступит	-10.9915
террористическ	-10.9923
▁трав	-10.9927
аемый	-10.9944
▁Vi	-10.9946
▁производстве	-10.9947
Наш	-10.9953
▁ориентир	-10.9955
▁Samsung	-10.997
▁Египет	-10.997
▁исключил	-10.997
▁канцлер	-10.997
▁обслуживания	-10.997
▁телевизор	-10.997
▁убийц	-10.997
▁подъем	-10.997
▁спасатели	-10.997
▁мелки	-10.997
▁считаем	-10.9971
▁насилия	-10.9971
▁Жуков	-10.9971
▁дочери	-10.9972
▁русском	-10.9973
▁дач	-10.9976
▁думы	-10.9977
▁теннисист	-10.9985
▁средний	-10.9985
▁человеч	-10.9993
man	-10.9999
временно	-11.0017
кладывать	-11.0026
▁бокс	-11.003
джер	-11.0036
▁De	-11.0037
q	-11.0038
▁Volkswagen	-11.0038
▁Норвегии	-11.0038
▁героев	-11.0038
▁контролировать	-11.0038
▁метрополитен	-11.0038
▁покупателей	-11.0038
▁эксплуатацию	-11.0038
▁предположил	-11.0038
▁сирийских	-11.0038
▁Единственн	-11.0039
▁показывают	-11.004
▁Ряд	-11.004
▁новогодни	-11.004
▁различным	-11.0041
▁прийти	-11.0041
▁серьезным	-11.0042
▁состоялось	-11.0049
▁Сав	-11.005
▁80%	-11.0055
▁Демократическо	-11.0057
▁вспоминает	-11.0066
▁называет	-11.0087
▁новость	-11.01
▁пенсионны	-11.0103
▁Республиканской	-11.0107
▁высокие	-11.0107
▁здоровью	-11.0107
▁заслуг	-11.0107
▁разработке	-11.0107
▁ожидать	-11.0107
▁русский	-11.0107
▁поправок	-11.0108
▁мощностью	-11.0108
▁освободил	-11.0108
▁Франк	-11.0108
▁балет	-11.0109
▁увеличилось	-11.0112
ЕР	-11.0128
▁тракт	-11.0135
помнить	-11.015
Ar	-11.0151
хватил	-11.0157
▁кофе	-11.0157
Чер	-11.016
когда	-11.0169
пускать	-11.0172
Центр	-11.0172
ГТРК	-11.0175
Ы	-11.0175
▁американцев	-11.0175
▁задолженность	-11.0175
▁землетрясения	-11.0175
▁коррупцией	-11.0175
▁отсутствия	-11.0175
▁претензии	-11.0175
▁присутствовал	-11.0175
▁диагност	-11.0175
▁аэродром	-11.0176
▁учитывать	-11.0176
▁Гагарин	-11.0176
▁дизель	-11.0176
▁наставник	-11.0176
▁постановления	-11.0176
▁Казани	-11.0176
▁Восточной	-11.0177
▁разместил	-11.0181
▁мощности	-11.0185
▁распространя	-11.019
▁монет	-11.0192
▁арабск	-11.0219
▁выпускник	-11.0219
стоять	-11.0229
▁волос	-11.0232
▁метра	-11.0234
▁пропавш	-11.0237
▁2001	-11.0244
звезд	-11.0244
▁Молдавии	-11.0245
▁Франсуа	-11.0245
▁Эдуард	-11.0245
▁антимонопольн	-11.0245
▁действуют	-11.0245
▁депозит	-11.0245
▁резолюции	-11.0245
▁хранения	-11.0245
▁юстиции	-11.0245
▁руководители	-11.0245
▁экстренно	-11.0245
▁Женеве	-11.0245
▁СБУ	-11.0245
▁добровольно	-11.0245
▁покупке	-11.0245
▁толк	-11.0246
▁годовщин	-11.0246
▁исполнении	-11.0252
▁помогут	-11.0253
▁отличается	-11.0254
▁композици	-11.0255
lin	-11.0258
▁ярко	-11.026
▁отверг	-11.0265
▁Против	-11.0267
Ново	-11.0278
▁аэро	-11.0292
государств	-11.0315
▁Владислав	-11.0315
▁электроэнергии	-11.0315
▁эмоциональн	-11.0315
▁половиной	-11.0315
▁причастны	-11.0315
▁украшен	-11.0315
▁сильнее	-11.0315
▁любые	-11.0315
▁большом	-11.0316
▁перейти	-11.0316
▁технику	-11.0317
▁обратилась	-11.0318
▁близкий	-11.0318
▁Абд	-11.032
▁Думы	-11.0322
▁глобальны	-11.0324
▁посол	-11.0335
▁блокад	-11.0348
ысшего	-11.0358
▁пьян	-11.0367
▁слышал	-11.0375
▁Нижегородск	-11.0385
▁Сибири	-11.0385
▁Таджикистан	-11.0385
▁болезнь	-11.0385
▁космонавт	-11.0385
▁рекомендации	-11.0385
▁фаворит	-11.0385
Роскосмос	-11.0385
▁Вообще	-11.0385
▁Львов	-11.0385
▁жюри	-11.0385
▁компонент	-11.0385
▁Уильям	-11.0385
▁совокупн	-11.0385
▁республиканцев	-11.0385
▁моделей	-11.0385
▁Володин	-11.0385
▁обруши	-11.0385
▁Павлов	-11.0386
▁продлил	-11.0386
▁недостатк	-11.0386
▁половина	-11.0386
▁Токио	-11.0386
▁характеристик	-11.0386
▁выпущен	-11.0392
▁существенны	-11.0393
▁отмены	-11.0394
шпион	-11.0399
▁опасность	-11.0402
Fi	-11.0408
▁личность	-11.0408
▁обществе	-11.0414
▁100%	-11.0417
▁клиентам	-11.0423
▁зуб	-11.0425
▁лук	-11.043
▁окончательн	-11.0431
▁подозревают	-11.0433
▁покрыт	-11.0433
▁приговорен	-11.0434
средств	-11.0443
▁американцы	-11.0456
▁нескольким	-11.0456
▁участвуют	-11.0456
▁впрочем	-11.0456
▁награжден	-11.0456
▁Карабах	-11.0456
▁заявлений	-11.0456
▁Говоря	-11.0457
▁Захарченко	-11.0457
▁трибун	-11.0457
▁спецназ	-11.0458
▁свидетельствует	-11.0458
▁допущен	-11.0461
▁рецепт	-11.0466
▁ждал	-11.0472
bg	-11.0474
Граждан	-11.0488
огн	-11.0501
▁Захар	-11.0525
▁патруль	-11.0528
▁ОСАГО	-11.0528
▁индивидуально	-11.0528
▁соотечественник	-11.0528
▁предпринимателя	-11.0528
▁Объем	-11.0528
▁подозреваемый	-11.0528
▁окажется	-11.0528
▁нередко	-11.0528
▁стражу	-11.0528
▁неплохо	-11.0528
▁поздно	-11.0528
▁русской	-11.0528
полицейск	-11.0529
▁попытался	-11.0531
▁высказывания	-11.0532
▁подробности	-11.0532
▁прежни	-11.0533
▁отчетности	-11.0539
▁клиническ	-11.0545
▁везде	-11.0547
следственн	-11.0554
цкая	-11.0559
▁реализаци	-11.0569
летнюю	-11.0574
▁выброс	-11.0585
Объединенн	-11.06
▁Шеремет	-11.06
▁месторождения	-11.06
▁вооружения	-11.06
▁Novin	-11.06
Магнит	-11.06
▁Карелии	-11.06
▁агрегат	-11.06
▁действующих	-11.06
▁полицейского	-11.06
▁обучения	-11.06
санкционн	-11.06
▁обращал	-11.06
▁связей	-11.06
▁мертв	-11.0602
▁многоквартирн	-11.0602
▁отозвал	-11.0603
▁Цена	-11.0611
▁оказывают	-11.0611
▁сталкива	-11.0611
▁тебе	-11.0615
рабатывает	-11.0619
▁Катар	-11.0621
▁2003	-11.0622
ure	-11.0626
глуб	-11.063
tra	-11.0631
▁Украин	-11.0645
Октябрь	-11.0672
▁Программ	-11.0672
▁присутствие	-11.0672
▁Кудрин	-11.0672
▁доставили	-11.0673
▁Минэнерго	-11.0673
-2018	-11.0674
▁легенд	-11.0676
▁цех	-11.0677
▁точку	-11.0677
▁земельны	-11.0678
▁смеш	-11.0706
процентн	-11.0708
7,5	-11.0711
▁помогал	-11.0718
▁стиле	-11.0723
Ростех	-11.0726
▁предварительны	-11.0728
ФЗ	-11.0732
▁Парламент	-11.0738
▁поддерживают	-11.074
ходящий	-11.0741
ложив	-11.0743
▁почетн	-11.0745
▁баскетбол	-11.0745
▁удостовер	-11.0745
▁НХЛ	-11.0745
▁высоких	-11.0745
▁зачастую	-11.0745
▁нынешней	-11.0745
▁объяснить	-11.0745
▁прокуратуру	-11.0745
▁хоккеист	-11.0745
▁экстремизм	-11.0745
▁Британии	-11.0745
▁багаж	-11.0745
▁сыграть	-11.0745
▁тюрем	-11.0745
▁Штатов	-11.0745
▁выдвинут	-11.0745
▁потерпел	-11.0745
▁ФРС	-11.0745
▁появляется	-11.0745
▁Совбез	-11.0745
▁Анкаре	-11.0745
▁отметки	-11.0746
▁появления	-11.0746
▁никому	-11.0747
▁возникновени	-11.0747
▁разрешил	-11.0747
▁школьников	-11.0748
▁употребля	-11.0749
▁Литвы	-11.0749
▁казалось	-11.0751
▁побывал	-11.0752
▁кредитования	-11.0753
▁говорилось	-11.0754
▁независимости	-11.0755
▁подачи	-11.0756
▁жестоко	-11.0757
▁жанр	-11.0761
▁2002	-11.0767
▁взорвал	-11.0769
▁стоил	-11.0771
▁решает	-11.0775
ступят	-11.0781
▁зимни	-11.0782
▁оценивает	-11.0799
вольно	-11.0803
ставлял	-11.0806
▁25%	-11.0811
▁Журналист	-11.0819
▁Университет	-11.0819
▁случившегося	-11.0819
▁фундамент	-11.0819
▁двусторонни	-11.0819
▁НКО	-11.0819
▁Партии	-11.0819
▁произвел	-11.0819
▁подготовить	-11.082
▁громко	-11.0822
зываю	-11.0823
▁никого	-11.0825
▁основатель	-11.0828
▁тяжк	-11.0829
▁качественно	-11.0837
▁регулиру	-11.084
популярн	-11.0852
Газ	-11.0857
▁Созда	-11.0874
естественн	-11.0876
ity	-11.0884
продовольственн	-11.0893
электрическ	-11.0893
▁Дворкович	-11.0893
▁Джеймс	-11.0893
▁Нарышкин	-11.0893
▁выставке	-11.0893
▁павильон	-11.0893
▁преддвери	-11.0893
▁столицу	-11.0893
▁желающих	-11.0893
▁оценивал	-11.0893
▁Актив	-11.0893
▁подорожал	-11.0894
▁громки	-11.0894
▁вылетел	-11.0895
▁Ленина	-11.0897
▁рассматривал	-11.0899
▁писатель	-11.09
▁дешевле	-11.0901
▁альтернативн	-11.0903
▁новости	-11.0903
▁вещей	-11.0908
▁ориентирован	-11.0909
▁перешл	-11.0946
▁проезж	-11.096
▁Австрии	-11.0967
▁Недавно	-11.0967
▁Прокуратура	-11.0967
▁Эстонии	-11.0967
▁кампанию	-11.0967
▁распоряжение	-11.0967
▁фрагмент	-11.0967
▁хоккею	-11.0967
▁НПФ	-11.0967
▁сыграет	-11.0967
▁включает	-11.0967
▁Майдан	-11.0968
▁заменить	-11.0969
▁думает	-11.097
бюджет	-11.0976
▁седан	-11.0981
▁Кипр	-11.0983
▁достойно	-11.0985
штат	-11.0991
▁классическ	-11.0998
▁забрал	-11.0998
объедин	-11.1014
▁Военно	-11.1042
▁боеприпас	-11.1042
▁повлиять	-11.1042
▁претензий	-11.1042
▁скажем	-11.1042
▁судьба	-11.1043
▁урожен	-11.1043
▁европейского	-11.1043
Человек	-11.1043
▁изделий	-11.1043
Астрахан	-11.1043
▁талантлив	-11.1044
▁орден	-11.1044
▁актуальны	-11.1045
▁Просто	-11.1047
▁исключением	-11.1049
▁представлял	-11.105
▁вторую	-11.105
▁продолжение	-11.1053
▁опусти	-11.1067
▁общин	-11.1086
▁молодежно	-11.1087
местному	-11.1088
▁глубок	-11.1089
▁позволят	-11.1091
действие	-11.1092
▁охват	-11.1092
▁вторым	-11.1092
▁населенн	-11.1094
ключение	-11.1095
▁параллель	-11.1104
предположительно	-11.1118
▁Законопроект	-11.1118
▁ликвидирован	-11.1118
▁оппозиционер	-11.1118
▁раскритиковал	-11.1118
▁рынков	-11.1118
▁Ожидается	-11.1118
▁Средиземно	-11.1118
▁сможем	-11.1118
▁Кремль	-11.1118
▁Украински	-11.1118
▁потребления	-11.1118
▁станция	-11.1119
▁поздравил	-11.112
▁федеральным	-11.112
▁Одесско	-11.1121
▁истек	-11.1123
ступают	-11.1125
▁попыта	-11.1133
▁имеющие	-11.1137
удивительн	-11.1162
▁коммунальны	-11.1163
профиль	-11.1168
▁эффективность	-11.1169
везти	-11.1187
▁реставр	-11.1191
индустрии	-11.1195
▁Renault	-11.1195
▁вооружений	-11.1195
▁компромисс	-11.1195
▁наверняка	-11.1195
▁произошли	-11.1195
▁Минпромторг	-11.1195
▁Сергеем	-11.1195
▁зафиксировал	-11.1195
▁прозрачно	-11.1195
▁реализован	-11.1195
▁спонсор	-11.1195
▁Абэ	-11.1195
▁хватит	-11.1195
▁индийск	-11.1195
▁важнейши	-11.1195
▁Служб	-11.1197
▁численность	-11.1197
▁бойцов	-11.1198
▁хол	-11.12
▁оправдан	-11.1202
▁короле	-11.1203
свобод	-11.1204
▁освещен	-11.1204
ton	-11.1223
▁реабилитаци	-11.1231
▁Пермск	-11.1247
▁получивши	-11.1253
хождения	-11.1258
▁дыр	-11.1271
▁аккаунт	-11.1271
▁музыки	-11.1271
▁экземпляр	-11.1271
▁юбилей	-11.1271
▁заявки	-11.1271
▁вакцин	-11.1272
▁жидко	-11.1272
▁операционн	-11.1272
▁Шойгу	-11.1272
▁контент	-11.1272
▁федеральной	-11.1272
▁авиационно	-11.1278
▁Европейско	-11.1279
▁нефтегазов	-11.128
▁описан	-11.1285
▁вручен	-11.1286
▁гимн	-11.1289
▁умеренн	-11.1291
▁консоли	-11.1293
▁гараж	-11.1295
▁качеств	-11.1304
турецк	-11.1314
▁диагноз	-11.1349
▁Происшествия	-11.1349
▁УМВД	-11.1349
▁кораблей	-11.1349
▁принадлежат	-11.1349
▁резонанс	-11.1349
▁непонятн	-11.1349
▁редакции	-11.1349
▁безвизов	-11.1349
▁снижению	-11.1349
▁Амурской	-11.1349
▁Канады	-11.1349
▁половину	-11.1349
▁проводим	-11.1349
▁справиться	-11.1349
▁заявляет	-11.1349
▁Ливии	-11.135
▁сильный	-11.1351
▁беспилотник	-11.1354
▁пределы	-11.1354
смертник	-11.1361
миллион	-11.1363
▁познакоми	-11.1374
▁обуча	-11.1415
▁внимательно	-11.1427
▁диапазон	-11.1427
▁континент	-11.1427
▁основная	-11.1427
▁предотвращени	-11.1427
▁акцент	-11.1427
▁нынешний	-11.1427
▁вовремя	-11.1427
▁оркестр	-11.1427
▁рекламы	-11.1427
▁МГУ	-11.1427
▁последнем	-11.1427
▁сравнив	-11.1427
▁Морозов	-11.1427
▁стремительно	-11.1428
▁Министерств	-11.1429
-2015	-11.143
▁уволен	-11.1431
▁Pro	-11.1436
секретар	-11.1439
▁надежно	-11.144
страивать	-11.1444
▁Долг	-11.1464
▁желт	-11.1466
писывает	-11.1489
2,6	-11.149
ect	-11.1496
оборот	-11.15
Домодедово	-11.1506
▁Памфилова	-11.1506
▁академик	-11.1506
▁самоубийств	-11.1506
▁внедорожник	-11.1506
▁неправильно	-11.1506
▁впечатление	-11.1506
▁подготовка	-11.1506
▁реакции	-11.1506
▁включил	-11.1506
▁кинотеатр	-11.1507
▁учитель	-11.1507
▁премию	-11.1507
▁Каримов	-11.1507
▁уехал	-11.1507
▁подмосковно	-11.1509
▁потенциально	-11.1511
▁длительно	-11.1513
▁помогают	-11.1516
▁преимущественно	-11.1522
спикер	-11.1523
учив	-11.1542
▁Ислам	-11.1551
Альфа	-11.1559
влечь	-11.1567
▁теннис	-11.1568
▁Основно	-11.1582
▁привез	-11.1585
▁Toyota	-11.1585
▁Вьетнам	-11.1585
▁Дальнего	-11.1585
▁Елизавет	-11.1585
▁Ситуация	-11.1585
▁инфляция	-11.1585
▁кладбище	-11.1585
▁коллекции	-11.1585
▁спектакль	-11.1585
▁Ричард	-11.1585
▁наблюдателей	-11.1585
▁творчески	-11.1585
▁домашний	-11.1585
▁поколение	-11.1586
▁карман	-11.1586
▁четк	-11.1586
▁посчитал	-11.1586
▁любых	-11.1586
▁важный	-11.1587
истик	-11.1587
заслуженн	-11.1587
▁молодежь	-11.1587
▁научных	-11.1589
▁удивлен	-11.1593
▁охранник	-11.1594
▁тонк	-11.1597
▁продолжительно	-11.1597
квартир	-11.1598
▁признают	-11.1605
оценивается	-11.1608
▁отключен	-11.1617
▁обсужден	-11.1618
▁снимать	-11.1619
▁страховщик	-11.1629
▁искусственно	-11.164
▁задне	-11.165
▁Анастасия	-11.1665
▁Поскольку	-11.1665
▁бельгийск	-11.1665
▁каникул	-11.1665
▁отсутствии	-11.1665
▁экспедици	-11.1665
▁вооружение	-11.1665
▁кубометров	-11.1665
▁полицией	-11.1665
▁православно	-11.1665
▁степень	-11.1665
▁отвечал	-11.1665
▁Наконец	-11.1665
▁ВИЧ	-11.1665
▁экстренны	-11.1665
▁Плюс	-11.1665
ашвили	-11.1666
▁Почти	-11.1666
▁пределах	-11.1666
▁древне	-11.1666
▁краю	-11.1668
▁кафедр	-11.1668
▁планируем	-11.167
▁методик	-11.1691
▁выявлени	-11.1697
этажно	-11.1699
▁оценка	-11.1723
ставляют	-11.1727
▁агентств	-11.1729
▁International	-11.1746
▁Роскомнадзор	-11.1746
▁благоприятн	-11.1746
▁выяснить	-11.1746
▁группировок	-11.1746
▁обязанностей	-11.1746
▁поблагодарил	-11.1746
▁сертификат	-11.1746
▁совещания	-11.1746
▁урегулированию	-11.1746
▁хозяин	-11.1746
▁Пенсионн	-11.1746
▁десятилетия	-11.1746
▁Скорее	-11.1746
▁категорически	-11.1746
▁серьезный	-11.1746
▁Стивен	-11.1747
▁гидро	-11.175
▁осудил	-11.1751
▁Важно	-11.1751
▁снизились	-11.1752
▁берет	-11.1761
США	-11.1767
Благо	-11.1782
▁страховы	-11.1782
▁грани	-11.1818
архитект	-11.1827
▁мурманчан	-11.1827
▁понадоби	-11.1827
▁специализирован	-11.1827
▁перечислен	-11.1827
▁станций	-11.1827
▁Сандерс	-11.1827
▁Последний	-11.1827
▁пищев	-11.1827
▁турецкие	-11.1827
▁знания	-11.1828
▁Сергеев	-11.1828
▁генсек	-11.183
▁Корея	-11.183
▁беседе	-11.1831
▁Титов	-11.1837
жертв	-11.185
▁материально	-11.1853
▁Кировск	-11.1864
▁приятно	-11.1871
▁сменил	-11.1889
Рубин	-11.1892
мешать	-11.1899
▁превраща	-11.1909
нструкция	-11.1909
▁американца	-11.1909
▁генпрокурор	-11.1909
▁допустим	-11.1909
▁обойдется	-11.1909
▁подразделений	-11.1909
▁публику	-11.1909
▁способствовать	-11.1909
ритейлер	-11.1909
▁сигарет	-11.1909
▁служебно	-11.1909
▁аренды	-11.1909
▁песню	-11.1912
▁Ex	-11.1913
▁Тимур	-11.1916
ечение	-11.1924
▁пошлин	-11.1932
▁1,3	-11.1951
Матч	-11.1951
▁уступ	-11.1952
▁швейцарск	-11.1956
▁эпидеми	-11.1986
▁психо	-11.1989
ight	-11.1991
▁Руководство	-11.1992
▁используем	-11.1992
▁корпорация	-11.1992
▁факультет	-11.1992
▁пенсию	-11.1992
▁беженца	-11.1992
▁посредник	-11.1992
▁перевозок	-11.1992
▁превышени	-11.1992
▁перевозки	-11.1992
▁Прежде	-11.1992
▁понимание	-11.1992
▁учений	-11.1993
▁радикальны	-11.1993
▁пребывания	-11.1994
▁оскорблен	-11.1995
нешнеполитическо	-11.1995
строител	-11.1996
▁случаю	-11.2005
однозначн	-11.2007
▁вручил	-11.2029
▁Витали	-11.2031
▁либерал	-11.2047
▁Силуанов	-11.2075
▁заявляют	-11.2075
▁кампания	-11.2075
▁руководителем	-11.2075
▁традиция	-11.2075
▁Конгресс	-11.2075
▁корабль	-11.2075
▁сердечно	-11.2075
▁Таиланд	-11.2075
▁уровню	-11.2075
▁Вскоре	-11.2075
▁Георгий	-11.2075
▁Смирнов	-11.2075
▁китайских	-11.2075
▁двигатель	-11.2075
▁гибель	-11.2076
▁надеюсь	-11.2076
▁тендер	-11.2076
▁сомнения	-11.2076
▁Большой	-11.2076
▁перемещен	-11.2077
▁возмущен	-11.2077
▁чудо	-11.2079
▁вдоль	-11.2084
▁выгодно	-11.2089
кладчик	-11.2102
общую	-11.2128
▁нарушител	-11.2128
Джебхат	-11.2159
▁обещают	-11.2159
▁критику	-11.2159
▁ребенком	-11.2159
▁Израиль	-11.2159
▁император	-11.2159
▁пенсий	-11.2159
▁соблюдение	-11.2159
▁Одновременно	-11.2159
▁Европарламент	-11.2159
▁представляющи	-11.216
▁лагере	-11.216
▁баллистическ	-11.216
▁полигон	-11.216
▁действующим	-11.216
▁пересечени	-11.216
▁Пожар	-11.2161
▁соратник	-11.2162
▁гриб	-11.2162
Ельцин	-11.2163
лететь	-11.217
▁оперативны	-11.2176
вляется	-11.2176
▁исследовательск	-11.2185
электро	-11.2187
▁производственны	-11.2203
Com	-11.2206
▁красиво	-11.2236
▁Bank	-11.2244
▁Киргизии	-11.2244
▁бассейн	-11.2244
▁композитор	-11.2244
▁поддержкой	-11.2244
▁правоохранители	-11.2244
▁собственный	-11.2244
▁повлиял	-11.2244
▁Пострадавш	-11.2244
▁основу	-11.2244
▁стабилизаци	-11.2244
▁мяса	-11.2244
▁закупок	-11.2244
▁освободить	-11.2244
▁заявок	-11.2244
▁праздновани	-11.2246
▁сырья	-11.2247
▁герой	-11.2248
▁гимнаст	-11.2248
▁Свои	-11.2266
▁приступ	-11.2271
▁ночно	-11.2295
▁конституционно	-11.23
знакомиться	-11.2303
▁Кубк	-11.2311
▁талант	-11.2329
Чемпионат	-11.2329
▁Патриарх	-11.2329
▁автосалон	-11.2329
▁контрабанд	-11.2329
▁коэффициент	-11.2329
▁нынешних	-11.2329
▁разумеется	-11.2329
▁соответствующих	-11.2329
▁Конституционн	-11.2329
▁задержала	-11.2329
▁каждая	-11.2329
▁прописан	-11.2329
▁колледж	-11.2329
▁ужесточен	-11.2329
▁разработку	-11.2329
Газеты	-11.233
▁несчаст	-11.233
▁проверок	-11.233
▁угодно	-11.233
▁Челябинской	-11.233
▁Финансы	-11.233
▁следователя	-11.2331
▁китайской	-11.2331
▁накопительн	-11.2331
▁управляющий	-11.2333
▁подарок	-11.2333
▁идеолог	-11.2337
▁тяг	-11.2351
▁группово	-11.236
▁качественны	-11.2377
▁1,4	-11.2392
▁соединен	-11.24
▁молочн	-11.2414
▁заболевание	-11.2416
▁зоопарк	-11.2416
▁обнародован	-11.2416
▁Раньше	-11.2416
▁координат	-11.2416
▁согласен	-11.2416
▁двоих	-11.2416
▁оценивают	-11.2416
▁расширить	-11.2416
▁обвиняемого	-11.2416
▁взаимодействие	-11.2416
Георг	-11.2416
Платон	-11.2419
▁нуждается	-11.2419
▁нелегальны	-11.2421
▁персональны	-11.2423
▁любил	-11.2431
▁правозащитник	-11.2431
▁освоен	-11.2449
▁Турецк	-11.246
▁здоровы	-11.246
клуб	-11.2469
▁философ	-11.2503
▁Ford	-11.2503
▁Аркадий	-11.2503
▁Нидерландов	-11.2503
▁банкротства	-11.2503
▁интеграции	-11.2503
▁неофициальн	-11.2503
▁обусловлен	-11.2503
▁сложнее	-11.2503
▁Пакистан	-11.2503
▁Рогозин	-11.2503
▁сексуально	-11.2503
▁отрасль	-11.2503
▁любят	-11.2503
▁оттуда	-11.2503
▁стресс	-11.2503
▁Француз	-11.2503
▁полутора	-11.2503
▁полицейским	-11.2504
▁Питер	-11.2504
▁Богдан	-11.2506
▁Причина	-11.2506
▁смотрел	-11.2516
культур	-11.2537
голос	-11.254
Банк	-11.2547
▁девят	-11.2558
▁смотрит	-11.2561
тянуть	-11.2563
степ	-11.2578
Коммерсант	-11.2589
Нафтогаз	-11.259
▁Аксенов	-11.259
▁Африки	-11.259
▁музыку	-11.259
▁мультфильм	-11.259
▁происхождения	-11.259
▁удовлетворил	-11.259
▁хищении	-11.259
▁реакция	-11.259
▁останутся	-11.259
▁выручки	-11.259
▁недавни	-11.259
▁блогер	-11.259
▁нехватк	-11.2591
▁Анкара	-11.2591
▁крымско	-11.2591
▁выделить	-11.2591
▁изделия	-11.2591
▁молоко	-11.2599
▁посыл	-11.2604
▁Нагорно	-11.261
▁грант	-11.2614
▁погодны	-11.2619
республиканц	-11.2621
экономического	-11.2629
Гражданск	-11.2639
▁свойств	-11.2646
▁Android	-11.2679
▁Кэмерон	-11.2679
▁выдвинул	-11.2679
▁неподалеку	-11.2679
▁служебны	-11.2679
▁суверенитет	-11.2679
▁Тегеран	-11.2679
▁полугодии	-11.2679
▁обещает	-11.2679
▁защищен	-11.2679
▁архитектор	-11.2679
▁Кубок	-11.2679
▁Никто	-11.2679
▁счастью	-11.2679
▁пространстве	-11.2679
▁Томас	-11.2679
▁ищут	-11.268
▁зерна	-11.268
▁незаконным	-11.2685
ография	-11.2686
аждую	-11.2692
▁переселен	-11.2692
хранилищ	-11.2698
совершеннолетних	-11.2705
речь	-11.2706
владел	-11.2741
3,6	-11.2754
▁Кандидат	-11.2768
▁УЕФА	-11.2768
▁Центризбирком	-11.2768
▁апелляционн	-11.2768
▁очевидцев	-11.2768
▁спектакля	-11.2768
▁мотоцикл	-11.2768
▁сложных	-11.2768
▁сведений	-11.2768
▁приостановил	-11.2768
▁Сколько	-11.2768
▁Полицейские	-11.2768
бактери	-11.2768
▁современные	-11.2768
▁Госдеп	-11.2768
Финанс	-11.2769
▁рассматривают	-11.2769
▁мега	-11.2771
▁указывают	-11.2771
▁близким	-11.2772
▁последовал	-11.2773
▁смешанн	-11.2774
▁зеркал	-11.278
▁нулев	-11.2781
майор	-11.2783
▁ровно	-11.2806
службу	-11.2807
пакет	-11.2811
▁случая	-11.2814
▁пассажирски	-11.2841
▁узнав	-11.2847
свято	-11.2855
грузку	-11.2858
▁Касьянов	-11.2858
▁Культура	-11.2858
▁внешних	-11.2858
▁предыдущих	-11.2858
Огонек	-11.2858
▁просьбе	-11.2858
▁условие	-11.2858
▁История	-11.2858
▁престижн	-11.2859
▁горячи	-11.2859
▁похитил	-11.2859
▁посадку	-11.2859
▁повысил	-11.2859
-2014	-11.286
▁выведен	-11.2865
▁ехал	-11.2871
▁врезал	-11.2879
▁пребыва	-11.2888
▁психиатр	-11.2933
▁Гройсман	-11.2949
▁Режиссер	-11.2949
▁бухгалтер	-11.2949
лейтенант	-11.2949
▁Journal	-11.2949
▁Безопасности	-11.2949
▁мероприятии	-11.2949
▁расследованию	-11.2949
▁симптом	-11.2949
▁тенденция	-11.2949
▁Шевченко	-11.2949
▁комиссию	-11.2949
▁эксплуа	-11.2949
▁Япония	-11.2949
▁продлить	-11.2949
▁предъявлено	-11.2949
▁влиятельн	-11.2949
▁выставлен	-11.2949
▁Козлов	-11.2949
▁вырасти	-11.295
▁экологически	-11.295
▁ездить	-11.295
▁траур	-11.295
▁говорю	-11.2951
▁виноват	-11.2952
▁путев	-11.2953
молодеж	-11.2955
▁спектр	-11.2962
▁наблюдать	-11.2965
2,7	-11.297
▁перекрыт	-11.2971
▁Томск	-11.2981
кроют	-11.2996
▁выражен	-11.3005
ология	-11.3019
гнать	-11.3026
ирующих	-11.3033
▁скульптур	-11.3041
▁Йемен	-11.3041
▁ансамбл	-11.3041
▁компенсацию	-11.3041
▁лицензию	-11.3041
▁отклонил	-11.3041
▁ощущение	-11.3041
▁четвертьфинал	-11.3041
▁разрешить	-11.3041
▁Сербии	-11.3041
▁десант	-11.3041
▁цирк	-11.3041
▁нападении	-11.3041
▁Euro	-11.3041
▁любую	-11.3042
▁потребителя	-11.3042
▁сделает	-11.3042
▁одноименн	-11.3043
▁Победител	-11.3044
▁последующе	-11.3044
▁оборудован	-11.3048
пускают	-11.3056
▁ищет	-11.3058
▁1,1	-11.3062
ирующие	-11.3079
▁скандальн	-11.31
▁Итог	-11.3125
▁пришло	-11.3133
восстанавлива	-11.3133
Анджелес	-11.3133
▁Башкирии	-11.3133
▁Брюсселя	-11.3133
▁Следователи	-11.3133
контролируем	-11.3133
▁проживающи	-11.3133
▁распоряди	-11.3133
▁кардинальн	-11.3133
▁своеобразн	-11.3133
▁ОНФ	-11.3133
▁ПДД	-11.3133
▁потратил	-11.3134
▁русские	-11.3134
▁казни	-11.3134
▁пьес	-11.3134
▁клетки	-11.3134
▁священник	-11.3134
▁предпринят	-11.3135
▁интеллектуальн	-11.3136
▁горяче	-11.3136
▁Остальны	-11.3137
▁певц	-11.3139
▁дубл	-11.3142
▁Абдул	-11.315
▁убийств	-11.3178
▁гигантск	-11.3179
▁ежегодн	-11.319
▁Lada	-11.3227
▁исключает	-11.3227
▁капремонт	-11.3227
▁лозунг	-11.3227
▁предыдущего	-11.3227
▁президиум	-11.3227
▁свидетелей	-11.3227
▁тяжести	-11.3227
▁хотите	-11.3227
Benz	-11.3227
▁Собеседник	-11.3227
▁бульвар	-11.3227
▁голкипер	-11.3227
▁правонарушения	-11.3227
▁принадлежащи	-11.3227
▁прогремел	-11.3227
▁Нижнем	-11.3227
▁судьбу	-11.3227
▁нападающий	-11.3227
▁осторожно	-11.3227
▁вызывают	-11.3227
▁выручка	-11.3227
▁областей	-11.3227
▁люблю	-11.3227
▁мошенник	-11.3227
▁зритель	-11.3227
▁Сборная	-11.3227
▁предлагаем	-11.3227
▁картофел	-11.3228
▁европейским	-11.3228
▁перенесен	-11.3229
▁Сумма	-11.3236
▁яйца	-11.3246
жнейш	-11.3249
интересов	-11.3268
ресурс	-11.3274
стоящих	-11.3276
▁прекраща	-11.3321
Россельхознадзор	-11.3321
▁Арбитражн	-11.3321
▁Еврокомиссии	-11.3321
▁Организатор	-11.3321
▁недовольство	-11.3321
▁певица	-11.3321
▁попытку	-11.3321
▁сотрудничеству	-11.3321
▁сюрприз	-11.3321
▁Задержан	-11.3321
▁выращива	-11.3321
▁имущественн	-11.3321
▁номинации	-11.3321
▁ошибок	-11.3321
▁зависеть	-11.3322
▁версий	-11.3322
▁удивил	-11.3322
▁существования	-11.3323
▁ошибка	-11.3323
▁разработка	-11.3324
▁превосход	-11.3324
▁пляж	-11.3324
майдан	-11.3324
▁капитально	-11.3341
▁Круз	-11.3341
▁сильным	-11.3345
▁облачн	-11.3357
пытались	-11.3374
▁тесно	-11.3378
спешно	-11.339
тянул	-11.34
▁управляюще	-11.34
ущество	-11.3402
▁диплом	-11.3406
▁Татьян	-11.3408
езжать	-11.3414
▁состяза	-11.3416
ступенчат	-11.3416
−	-11.3416
▁Russia	-11.3416
▁Пользовател	-11.3416
▁автодорог	-11.3416
▁внутренние	-11.3416
▁разочарован	-11.3416
▁фьючерс	-11.3416
разведывательн	-11.3416
▁Управления	-11.3416
▁снегопад	-11.3416
▁ценностей	-11.3416
▁прыжк	-11.3417
▁учредител	-11.3417
▁аптек	-11.3417
▁детства	-11.3417
▁хватило	-11.3418
▁гипер	-11.3418
▁барьер	-11.3418
бросить	-11.3419
▁выбирать	-11.3419
▁Местны	-11.3437
Арктик	-11.3441
етесь	-11.3443
функциональн	-11.3446
муниципального	-11.3457
▁духовно	-11.3467
граждан	-11.3467
структур	-11.3467
гигант	-11.3468
писывать	-11.3474
писание	-11.3477
▁Акци	-11.348
▁пыл	-11.3484
▁заражен	-11.3493
▁трудово	-11.3499
моему	-11.3501
▁попав	-11.3511
▁оппозиция	-11.3513
▁пользователь	-11.3513
▁профессии	-11.3513
▁редакцию	-11.3513
▁самоуправления	-11.3513
▁собственным	-11.3513
▁соответствующий	-11.3513
▁специализиру	-11.3513
▁субсидий	-11.3513
▁Обычно	-11.3513
▁ребенку	-11.3513
▁ЦРУ	-11.3513
▁неизбежно	-11.3513
▁проживания	-11.3513
▁ПФР	-11.3513
▁поставку	-11.3513
▁Чиновник	-11.3513
▁армян	-11.3513
▁череп	-11.3513
▁АСВ	-11.3513
Электро	-11.3513
▁Второе	-11.3514
▁макро	-11.3514
▁лыжн	-11.3514
▁сделку	-11.3514
▁беседы	-11.3515
▁семинар	-11.3515
Капитал	-11.3515
▁намерева	-11.3515
▁Андерс	-11.3516
▁исполнен	-11.3519
▁плакат	-11.352
▁Ряб	-11.352
слушать	-11.3523
рабатывают	-11.354
Говорит	-11.3567
фильм	-11.3568
▁приведен	-11.3571
Южный	-11.358
▁Рыб	-11.3582
▁несовершенно	-11.3582
▁социал	-11.3582
▁Ленинск	-11.3585
▁поднят	-11.3586
москов	-11.3589
Арсенал	-11.3589
▁периодически	-11.3603
▁сосредоточи	-11.361
▁York	-11.361
▁Венесуэлы	-11.361
▁ПАРНАС	-11.361
▁инстанции	-11.361
▁коммуникаций	-11.361
▁набережной	-11.361
▁навсегда	-11.361
▁подразделение	-11.361
▁собственную	-11.361
▁условии	-11.361
▁Макларен	-11.361
▁контекст	-11.361
▁мульти	-11.361
▁регулирования	-11.361
▁политическую	-11.361
▁обращают	-11.361
▁приближа	-11.361
▁однажды	-11.361
▁гонке	-11.361
▁присвоен	-11.361
▁желании	-11.361
▁солидар	-11.361
▁растут	-11.361
▁деньгами	-11.361
▁вовлечен	-11.361
▁сомнительн	-11.3611
▁тревог	-11.3611
позицион	-11.3611
▁снаряд	-11.3612
CAS	-11.3612
▁мински	-11.3614
▁схема	-11.3614
▁лифт	-11.3616
пытаться	-11.3618
Радио	-11.3624
стоящая	-11.3625
▁памятн	-11.3628
▁завыш	-11.3633
▁новостн	-11.3636
▁Правил	-11.3638
▁построил	-11.3657
▁добавля	-11.3662
▁Действительно	-11.3708
▁ЮКОСа	-11.3708
▁девушек	-11.3708
▁дискуссии	-11.3708
▁исключить	-11.3708
▁лаборатории	-11.3708
▁обращении	-11.3708
▁появляются	-11.3708
▁принадлежал	-11.3708
▁противоположн	-11.3708
▁таблице	-11.3708
▁ведущий	-11.3708
▁зрители	-11.3708
▁реакцию	-11.3708
▁модернизации	-11.3708
▁Чечне	-11.3708
▁вошла	-11.3708
▁будь	-11.3709
▁учреждение	-11.3709
пускает	-11.3709
▁тираж	-11.3711
Народный	-11.3716
▁ученым	-11.3741
обоснованн	-11.375
▁удивительно	-11.3753
▁профильны	-11.3753
▁важна	-11.3754
▁лекарственны	-11.3758
▁муниципальны	-11.3761
везен	-11.3762
▁лестн	-11.3798
удовлетворительн	-11.3807
▁CNN	-11.3807
▁Горбачев	-11.3807
▁Понятно	-11.3807
▁брифинг	-11.3807
▁контейнер	-11.3807
▁мельдоний	-11.3807
▁обеспечил	-11.3807
▁прозвучал	-11.3807
▁регулярны	-11.3807
▁соответствуют	-11.3807
▁столкнулись	-11.3807
▁телевизионн	-11.3807
▁церемония	-11.3807
▁бразильск	-11.3807
▁поликлиник	-11.3807
▁церковь	-11.3807
▁резидент	-11.3807
▁способствует	-11.3807
▁грунт	-11.3807
▁отклонен	-11.3807
▁Штаты	-11.3807
▁Фильм	-11.3808
Ключ	-11.3808
▁радикально	-11.3808
▁витамин	-11.3809
▁металлическ	-11.381
▁объединить	-11.3812
▁2-3	-11.3812
▁лобби	-11.3813
▁букв	-11.3815
▁безработн	-11.3864
▁прохождени	-11.3873
_	-11.3906
▁асфальт	-11.3907
▁Airbus	-11.3907
▁Post	-11.3907
▁Компании	-11.3907
▁Опубликован	-11.3907
▁Шарапова	-11.3907
▁обслуживание	-11.3907
▁олигарх	-11.3907
▁происходят	-11.3907
▁заблокирован	-11.3907
▁НДС	-11.3907
▁победителем	-11.3907
Челси	-11.3907
▁учителей	-11.3907
▁Отвеч	-11.3907
▁аудио	-11.3907
▁немецкого	-11.3907
▁вспомнить	-11.3908
▁стекло	-11.3908
▁переведен	-11.3909
▁объективно	-11.391
огрев	-11.3914
Строй	-11.3953
▁кузов	-11.3959
носителя	-11.3962
▁муниципально	-11.3965
▁археолог	-11.3994
американски	-11.3997
воспита	-11.3998
грязн	-11.4004
ВЦИОМ	-11.4008
▁Microsoft	-11.4008
▁World	-11.4008
▁Румынии	-11.4008
▁антикризисн	-11.4008
▁господдержк	-11.4008
▁железнодорожны	-11.4008
▁захвачен	-11.4008
▁низких	-11.4008
▁ситуаций	-11.4008
▁Пхеньян	-11.4008
▁закреплен	-11.4008
▁комбинат	-11.4008
▁оптимизм	-11.4008
▁стационар	-11.4008
▁потребительско	-11.4008
▁сильнейш	-11.4008
▁контролирует	-11.4008
▁последнюю	-11.4008
▁двигателей	-11.4008
▁полицейский	-11.4008
▁сообщений	-11.4008
механик	-11.4008
▁Сахалинской	-11.4008
▁СПГ	-11.4008
▁вернется	-11.4008
▁симпати	-11.4008
▁опасных	-11.4009
▁обвинительн	-11.4011
▁гарантирован	-11.4012
▁взаимно	-11.4015
▁нелегально	-11.4016
Черномор	-11.4016
▁курдски	-11.4016
▁медикам	-11.4024
Прям	-11.404
▁разгон	-11.4089
социалист	-11.4106
▁сложившей	-11.4108
менеджмент	-11.411
▁Audi	-11.411
▁Аналогичн	-11.411
▁Иногда	-11.411
▁вырастет	-11.411
▁ежемесячно	-11.411
▁конструкции	-11.411
▁крушение	-11.411
▁окончании	-11.411
▁сентябрь	-11.411
▁хранение	-11.411
▁январь	-11.411
Адмирал	-11.411
▁ЕГЭ	-11.411
▁недобросовестн	-11.411
▁Магомед	-11.411
▁Путешествия	-11.411
▁покупатель	-11.411
▁приостановк	-11.411
▁Дарья	-11.411
▁поделился	-11.411
Система	-11.411
▁Взрыв	-11.411
▁королевств	-11.411
▁кибератак	-11.4111
▁проявил	-11.4111
Кубань	-11.4111
Испания	-11.4112
▁живущи	-11.4114
▁печаль	-11.4115
▁дополнен	-11.4123
▁полезно	-11.4124
▁уволил	-11.4135
кладывают	-11.4179
▁предписан	-11.4182
нефтегаз	-11.4201
▁Galaxy	-11.4213
▁Госдепартамент	-11.4213
▁Лукашенко	-11.4213
▁Насколько	-11.4213
▁абонент	-11.4213
▁максимальны	-11.4213
▁одежду	-11.4213
▁пострадавшим	-11.4213
▁причастность	-11.4213
▁рассуждает	-11.4213
▁сегодняшнего	-11.4213
▁тротуар	-11.4213
▁участвует	-11.4213
▁фантастическ	-11.4213
Независим	-11.4213
▁Распечатать	-11.4213
▁Шувалов	-11.4213
▁деревянн	-11.4213
▁Сергею	-11.4213
▁небольшие	-11.4213
▁делегация	-11.4213
▁Количество	-11.4213
▁следователей	-11.4213
▁Последние	-11.4213
▁Карякин	-11.4213
▁Чехии	-11.4213
сосудист	-11.4213
▁волейбол	-11.4213
▁ВМФ	-11.4213
▁прожиточн	-11.4214
▁обострени	-11.4214
▁рацион	-11.4215
▁русским	-11.4215
▁утечк	-11.4218
▁предпочитаю	-11.4225
Милан	-11.4236
воздушн	-11.4245
▁перехват	-11.4274
WADA	-11.428
▁связал	-11.4288
▁Street	-11.4317
▁Tesla	-11.4317
▁Конашенков	-11.4317
▁осуществлял	-11.4317
▁предотвратить	-11.4317
▁середины	-11.4317
▁сопротивление	-11.4317
▁триллион	-11.4317
▁Анкары	-11.4317
▁извинения	-11.4317
▁удивля	-11.4317
▁дождь	-11.4318
механическ	-11.4318
▁Дмитриев	-11.4323
▁гонка	-11.4324
езжают	-11.4326
▁однозначно	-11.4327
▁отстаива	-11.4343
▁победителя	-11.4358
Рияд	-11.436
священ	-11.4378
▁транспортировк	-11.4392
Техно	-11.4394
Кредит	-11.4405
▁XIX	-11.4422
▁Бастрыкин	-11.4422
▁владельцем	-11.4422
▁математик	-11.4422
▁произойти	-11.4422
▁рынку	-11.4422
▁скончалась	-11.4422
▁соболезнования	-11.4422
▁физлиц	-11.4422
▁эвакуирован	-11.4422
абсурд	-11.4422
▁Жертв	-11.4422
▁вспомнил	-11.4422
▁диабет	-11.4422
▁несправедлив	-11.4422
▁федерация	-11.4422
▁Четыре	-11.4422
▁выглядел	-11.4422
▁рекомендует	-11.4422
▁фунтов	-11.4422
▁Дальнем	-11.4422
тренировочн	-11.4422
▁требовать	-11.4422
▁констатировал	-11.4422
▁силовиков	-11.4422
▁окончил	-11.4422
заповедник	-11.4422
▁копеек	-11.4422
адмирал	-11.4422
▁относиться	-11.4423
▁парламентарий	-11.4423
▁двигаться	-11.4423
▁незаконных	-11.4423
▁Большого	-11.4423
▁мысль	-11.4423
▁Девушк	-11.4424
▁молока	-11.4424
▁торжеств	-11.4427
▁отправк	-11.4432
▁замедлен	-11.4436
запрещена	-11.4442
▁отражает	-11.4442
▁расписан	-11.4445
▁наказан	-11.4493
▁целево	-11.4519
▁Выяснилось	-11.4529
▁Конституции	-11.4529
▁Курдистан	-11.4529
▁выглядят	-11.4529
▁выдвижени	-11.4529
▁захоронен	-11.4529
▁мельдония	-11.4529
▁облигаций	-11.4529
▁одномандатны	-11.4529
▁резюмировал	-11.4529
▁теоретическ	-11.4529
▁адаптирова	-11.4529
▁заведомо	-11.4529
▁влияет	-11.4529
▁лежит	-11.4529
▁транш	-11.453
▁добавлен	-11.453
▁троих	-11.453
▁опережа	-11.4532
▁Торг	-11.4534
▁Подобны	-11.4538
нормандско	-11.4538
▁достойны	-11.4565
▁существовал	-11.4571
▁осуществлен	-11.4575
своевременн	-11.4607
▁абсолют	-11.462
▁интеллект	-11.4634
▁Впоследствии	-11.4636
▁Мосгорсуд	-11.4636
▁литературы	-11.4636
▁мессенджер	-11.4636
▁пожизненно	-11.4636
▁пулемет	-11.4636
▁воспитыва	-11.4636
▁гаджет	-11.4636
▁Гитлер	-11.4636
▁рассмотрит	-11.4636
▁приехать	-11.4636
▁потребление	-11.4636
▁зарегистрировал	-11.4636
▁поединка	-11.4636
▁включить	-11.4636
▁заявлению	-11.4636
▁изменится	-11.4637
▁грамм	-11.4637
▁патент	-11.4637
▁лизинг	-11.4637
Боевики	-11.4637
Ценности	-11.4638
▁обрушени	-11.464
▁авиационны	-11.4643
▁производственно	-11.4645
▁выделил	-11.4645
▁онколог	-11.4648
▁стрелково	-11.4649
▁выработк	-11.4654
▁республиканско	-11.4669
▁социолог	-11.4687
езжает	-11.4704
госпитализирован	-11.4741
▁Guardian	-11.4745
▁Необходимо	-11.4745
▁Правительства	-11.4745
▁агрессии	-11.4745
▁инициатор	-11.4745
▁предприятии	-11.4745
▁присутствия	-11.4745
▁реагировать	-11.4745
▁руководил	-11.4745
▁тяжелые	-11.4745
▁Израиле	-11.4745
▁белорусско	-11.4745
норвежск	-11.4745
Калашников	-11.4745
▁Харьков	-11.4745
▁водители	-11.4745
▁подсчитал	-11.4745
▁перемирие	-11.4745
▁осадков	-11.4745
▁ликвидн	-11.4745
▁Толст	-11.4745
▁переехал	-11.4745
▁гарантий	-11.4745
▁формирований	-11.4746
▁Утром	-11.4746
▁захотел	-11.4746
▁Новиков	-11.4746
▁почтов	-11.4749
▁множеств	-11.475
▁правозащитн	-11.4755
▁Счетн	-11.4759
▁спуск	-11.4762
Аэро	-11.4772
▁держат	-11.4776
▁Алексеев	-11.4776
конкрет	-11.4793
▁прекращен	-11.4804
▁скрыт	-11.4811
пущенн	-11.4819
Монако	-11.4835
литровы	-11.4841
▁ЛУКОЙЛ	-11.4855
▁Роналду	-11.4855
▁комментарий	-11.4855
▁консультации	-11.4855
▁почувствовал	-11.4855
▁предприниматели	-11.4855
▁прокуратуре	-11.4855
▁совещание	-11.4855
▁тюрьме	-11.4855
▁снайпер	-11.4855
▁подавляющ	-11.4855
▁опасаются	-11.4855
▁выиграть	-11.4855
▁армию	-11.4855
▁авария	-11.4855
▁бонус	-11.4855
оплот	-11.4856
▁голландск	-11.4856
▁избирателя	-11.4858
▁современным	-11.4858
▁кольца	-11.4862
набжение	-11.4871
▁решают	-11.4883
▁Uni	-11.4884
тветственность	-11.4888
▁химическо	-11.4894
Камчатск	-11.4895
Сегодня	-11.4936
Гарри	-11.4949
▁арбитр	-11.4965
▁диспетчер	-11.4966
▁AFP	-11.4966
▁Голодец	-11.4966
▁Минобрнауки	-11.4966
▁Примечательно	-11.4966
▁Расследование	-11.4966
▁гибрид	-11.4966
▁капуст	-11.4966
▁микрорайон	-11.4966
▁отвечая	-11.4966
▁руководстве	-11.4966
▁демонстрирует	-11.4966
▁домашних	-11.4966
▁парламентариев	-11.4966
▁НТВ	-11.4966
▁сравнения	-11.4966
▁интриг	-11.4966
▁обозначен	-11.4966
▁последовательно	-11.4966
▁турецкий	-11.4966
▁разбился	-11.4966
▁август	-11.4966
▁природных	-11.4967
▁растущ	-11.4974
Днепр	-11.4996
▁мигрантам	-11.4997
следствие	-11.505
магазин	-11.505
▁каждо	-11.505
▁Пальмиры	-11.5078
▁Тимошенко	-11.5078
▁возобновил	-11.5078
▁краткосрочн	-11.5078
▁медицины	-11.5078
▁отсутствует	-11.5078
▁повлияет	-11.5078
▁рухнул	-11.5078
▁соответствие	-11.5078
▁соответствующим	-11.5078
▁сравнении	-11.5078
▁колоссальн	-11.5078
▁лондонско	-11.5078
▁Надеюсь	-11.5078
▁певец	-11.5078
▁наблюдатель	-11.5078
▁медалей	-11.5079
сознательно	-11.5079
▁турецким	-11.5079
▁Следующи	-11.5081
Смотр	-11.5093
▁сербск	-11.5105
▁музыка	-11.5112
▁письменн	-11.5152
стоящей	-11.5152
посадочн	-11.5164
ФАС	-11.5165
бизнес	-11.5165
▁химически	-11.5189
▁воскрес	-11.5192
▁Автомобиль	-11.5192
▁Ерофеев	-11.5192
▁Минсельхоз	-11.5192
▁Официально	-11.5192
▁землетрясение	-11.5192
▁избавиться	-11.5192
▁субсидии	-11.5192
▁эстафет	-11.5192
▁повседневн	-11.5192
▁ювелир	-11.5192
▁оплату	-11.5192
▁КХЛ	-11.5192
ысокотехнологичн	-11.5192
▁небольшим	-11.5192
▁солнце	-11.5192
▁Вероятно	-11.5192
▁КоАП	-11.5192
▁контролю	-11.5192
▁чудес	-11.5192
Сибирск	-11.5192
▁Осетии	-11.5192
▁гарантии	-11.5192
▁надеемся	-11.5193
▁имеющим	-11.5193
Атлант	-11.5193
▁пуга	-11.5193
распространяется	-11.5208
▁съемочн	-11.5232
▁дисквалифицир	-11.525
холдинг	-11.5281
▁осужд	-11.5281
▁беспилотн	-11.53
развлекательн	-11.5307
революционн	-11.5307
▁BBC	-11.5307
▁Оказалось	-11.5307
▁ПАСЕ	-11.5307
▁Штайнмайер	-11.5307
▁выставку	-11.5307
▁конституции	-11.5307
▁объясняют	-11.5307
▁оккупированн	-11.5307
▁опьянения	-11.5307
▁площадку	-11.5307
▁подчеркивают	-11.5307
▁предупреждение	-11.5307
▁расследовании	-11.5307
▁уязвим	-11.5307
▁эмбарго	-11.5307
▁Приморье	-11.5307
▁РПЦ	-11.5307
▁мгновен	-11.5307
▁миграции	-11.5307
▁низкие	-11.5307
▁оптимальн	-11.5307
▁обжаловать	-11.5307
▁интерьер	-11.5307
▁попробовать	-11.5307
правоохранителей	-11.5307
▁любителей	-11.5307
▁добыча	-11.5307
▁Тарасов	-11.5307
материал	-11.5307
бумажн	-11.5309
Балтийск	-11.531
▁актуально	-11.531
▁предпочтени	-11.531
▁прибывши	-11.5315
Примерно	-11.5323
основател	-11.5396
Украина	-11.5398
▁девальваци	-11.5423
▁Брюссель	-11.5423
▁Севастополе	-11.5423
▁Соловьев	-11.5423
▁нестабильн	-11.5423
▁обнародовал	-11.5423
▁осуществить	-11.5423
▁положительный	-11.5423
▁сомнений	-11.5423
▁спектакле	-11.5423
▁телеведущ	-11.5423
▁фальшив	-11.5423
▁псевдо	-11.5423
▁сложные	-11.5423
Евровидение	-11.5423
▁Видимо	-11.5423
▁хищения	-11.5423
▁шоколад	-11.5423
▁очевидны	-11.5423
▁впечатления	-11.5423
▁обязыва	-11.5423
▁Ефим	-11.5423
▁немецких	-11.5423
▁европейский	-11.5423
▁корабли	-11.5424
▁схемы	-11.5424
лечебн	-11.5425
мощный	-11.5426
▁постановил	-11.5428
▁застрелил	-11.543
▁заинтересовал	-11.5431
▁значимо	-11.5444
Победа	-11.5483
пустив	-11.5485
▁Space	-11.5541
▁Подмосковья	-11.5541
▁аккумулятор	-11.5541
▁банкротстве	-11.5541
▁внутренний	-11.5541
▁повезло	-11.5541
▁расшифров	-11.5541
▁творчества	-11.5541
▁чрезвычайны	-11.5541
▁деревья	-11.5541
▁озабочен	-11.5541
▁сложная	-11.5541
▁Лазарев	-11.5541
▁перечисля	-11.5541
▁продвину	-11.5541
коммуникационн	-11.5541
▁отраслей	-11.5541
▁фильтр	-11.5541
▁ФНС	-11.5541
▁Грозном	-11.5541
Солнечн	-11.5541
▁Ковалев	-11.5541
▁потребности	-11.5541
▁астроном	-11.5541
▁посоветовал	-11.5541
▁бронзовы	-11.5542
нешнеполитически	-11.5543
▁позволял	-11.5543
Шахтер	-11.5543
летнему	-11.5543
▁1:0	-11.5544
▁успев	-11.5547
▁искусственны	-11.5569
конституционн	-11.5582
направлен	-11.5599
производителей	-11.5638
Когда	-11.5638
▁обеспечит	-11.5648
Атлетико	-11.566
▁Hyundai	-11.566
▁администрацию	-11.566
▁антидопинговы	-11.566
▁горизонт	-11.566
▁декабрь	-11.566
▁деревьев	-11.566
▁дивизион	-11.566
▁квалификации	-11.566
▁оптимист	-11.566
▁откроется	-11.566
▁побережье	-11.566
▁подразумевает	-11.566
▁преследования	-11.566
▁приезжал	-11.566
▁прототип	-11.566
▁разногласия	-11.566
▁разнообразн	-11.566
▁розыгрыш	-11.566
▁сформировать	-11.566
▁тяжелым	-11.566
Тихоокеанск	-11.566
▁Луценко	-11.566
▁Одессе	-11.566
▁видеоролик	-11.566
▁запрещает	-11.566
▁предположить	-11.566
▁Керченск	-11.566
▁противостоять	-11.566
▁1993	-11.566
академическ	-11.566
▁Техас	-11.566
▁обвиняемый	-11.566
▁греческо	-11.566
▁критики	-11.566
▁серьезную	-11.566
трансляцию	-11.566
▁способствовал	-11.566
▁подвижн	-11.566
▁исполнительны	-11.5662
практическ	-11.5663
▁10-15	-11.5671
омысл	-11.5674
▁насыщен	-11.5674
▁Книг	-11.5675
▁премиальн	-11.5678
читываю	-11.5711
▁неопределенн	-11.5724
▁Филип	-11.5732
Алтай	-11.5756
опровозглашенной	-11.5763
дисциплинарн	-11.5765
Красно	-11.5771
▁Генпрокуратура	-11.578
▁Очевидно	-11.578
▁Синдз	-11.578
▁ЮНЕСКО	-11.578
▁агрессивно	-11.578
▁администрацией	-11.578
▁ведущие	-11.578
▁выступлений	-11.578
▁изнасилован	-11.578
▁налогообложения	-11.578
▁пенальти	-11.578
▁противостояния	-11.578
▁увольнения	-11.578
▁универсальн	-11.578
▁эвакуации	-11.578
▁Оксана	-11.578
▁великолеп	-11.578
▁заключить	-11.578
▁передвижени	-11.578
▁вероятны	-11.578
▁стремление	-11.578
▁комиссар	-11.578
▁стремятся	-11.578
▁численности	-11.578
▁неожиданны	-11.578
▁МТС	-11.578
▁желанию	-11.578
▁заведующ	-11.5781
логистическ	-11.5784
▁избыточн	-11.5785
▁ультра	-11.5786
▁затрудни	-11.5787
амопровозглашенн	-11.5797
▁задержива	-11.5804
суточн	-11.5806
▁растительн	-11.5809
▁киевски	-11.5852
Ставрополь	-11.5862
▁уменьшени	-11.5881
эксперт	-11.5883
▁Airlines	-11.5902
▁Getty	-11.5902
▁Sky	-11.5902
▁Гончар	-11.5902
▁Нижнего	-11.5902
▁комментария	-11.5902
▁побережья	-11.5902
▁статистики	-11.5902
▁урожай	-11.5902
▁фармацевтическ	-11.5902
▁лагерь	-11.5902
▁эмоции	-11.5902
▁Мадуро	-11.5902
▁присоединиться	-11.5902
▁Спикер	-11.5902
▁смесь	-11.5902
▁подсчетам	-11.5903
▁церковн	-11.5903
▁1980-	-11.5903
▁страшны	-11.5903
Экономическ	-11.5903
▁молитв	-11.5904
▁легендарно	-11.5905
▁приготовлен	-11.5908
▁дальни	-11.591
▁поехал	-11.5913
▁оформил	-11.5918
▁запомни	-11.592
▁Ставропольск	-11.5943
правляется	-11.5986
▁очищ	-11.5987
Медиа	-11.6001
мобильных	-11.6016
Космо	-11.6024
▁Life	-11.6026
▁Венгрии	-11.6026
▁Воробьев	-11.6026
▁Ковальчук	-11.6026
▁Столтенберг	-11.6026
▁используя	-11.6026
▁обращений	-11.6026
▁первенства	-11.6026
▁предшественник	-11.6026
▁приурочен	-11.6026
▁продукция	-11.6026
▁профилактическ	-11.6026
▁рождественск	-11.6026
▁согласовал	-11.6026
▁трагедия	-11.6026
▁экспозиции	-11.6026
▁девочек	-11.6026
▁неблагоприятн	-11.6026
▁согласны	-11.6026
▁затрагива	-11.6026
▁Вечером	-11.6026
▁Изначально	-11.6026
▁низкий	-11.6026
▁низким	-11.6026
▁важнее	-11.6026
▁судьбе	-11.6026
▁лидирует	-11.6026
▁диаметр	-11.6026
▁Водитель	-11.6026
▁устраивает	-11.6026
▁драматическ	-11.6026
▁планшет	-11.6027
▁вызывал	-11.6028
▁привычны	-11.6032
Доктор	-11.6048
Тамбов	-11.6063
▁Евгени	-11.6078
▁Государств	-11.6121
инвалид	-11.6137
сепаратист	-11.6151
▁Nissan	-11.6151
▁Исследовател	-11.6151
▁безработицы	-11.6151
▁избирком	-11.6151
▁иммунитет	-11.6151
▁импичмент	-11.6151
▁конкуренцию	-11.6151
▁меньшинств	-11.6151
▁подтверждают	-11.6151
▁происходящее	-11.6151
▁санкциями	-11.6151
▁чрезмерн	-11.6151
▁экологическо	-11.6151
▁беспрецедентн	-11.6151
▁пригрозил	-11.6151
▁успоко	-11.6151
▁употребление	-11.6151
▁Нобелевск	-11.6151
▁Соответственно	-11.6151
▁мятеж	-11.6151
▁студии	-11.6151
▁пояснительн	-11.6151
▁сексуальны	-11.6151
▁отравления	-11.6151
одействовать	-11.6151
▁ПРО	-11.6151
Патриот	-11.6151
▁деревне	-11.6151
▁Бобров	-11.6152
▁Назван	-11.6198
влечет	-11.6221
конкурентоспособ	-11.6231
▁опублик	-11.6258
например	-11.6263
Бессмертн	-11.6277
Коммунист	-11.6277
▁2017-2019	-11.6277
▁Capital	-11.6277
▁Forbes	-11.6277
▁Петрозаводск	-11.6277
▁ФГУП	-11.6277
▁неосторожности	-11.6277
▁пользования	-11.6277
▁пострадавшие	-11.6277
▁присутствии	-11.6277
▁противостояние	-11.6277
▁соприкосновения	-11.6277
▁болезненн	-11.6277
▁воспоминания	-11.6277
▁вымогательств	-11.6277
▁девелопер	-11.6277
▁поединке	-11.6277
▁райсуд	-11.6277
▁гвардии	-11.6277
▁коалиция	-11.6277
▁Auto	-11.6277
▁испуга	-11.6277
арктическ	-11.6279
▁соперниц	-11.6279
▁заявител	-11.6279
▁оперативник	-11.6279
▁длительны	-11.6285
▁посмотрел	-11.6287
▁капитальны	-11.6293
Власть	-11.6308
▁выявленны	-11.6312
разведчик	-11.6313
▁либеральн	-11.6324
партийн	-11.6349
ставляем	-11.635
▁корейск	-11.6374
▁демократически	-11.6383
ВТБ	-11.6393
▁ветеринар	-11.6405
.10.2016	-11.6405
Транснефт	-11.6405
▁Deutsch	-11.6405
▁Добавим	-11.6405
▁Естественно	-11.6405
▁Неизвестны	-11.6405
▁Паралимпийск	-11.6405
▁Подозреваем	-11.6405
▁Стокгольм	-11.6405
▁белорусски	-11.6405
▁исторического	-11.6405
▁коллекцию	-11.6405
▁мексикан	-11.6405
▁предполагают	-11.6405
▁предыдущие	-11.6405
▁резолюцию	-11.6405
▁экспонат	-11.6405
▁Проблема	-11.6405
▁Прокурор	-11.6405
▁модернизацию	-11.6405
▁монумент	-11.6405
▁Липецк	-11.6405
▁деревни	-11.6405
Анатолия	-11.6405
▁металлург	-11.6405
▁замечен	-11.6406
▁окраин	-11.6406
▁рекламу	-11.6406
▁ГСУ	-11.6406
▁вещь	-11.6406
▁исчезновени	-11.6406
▁патрон	-11.6407
▁подростка	-11.6407
▁преемник	-11.6408
сторонних	-11.6412
▁киевско	-11.6413
▁Японск	-11.6414
демонстрировали	-11.6417
▁мышц	-11.6419
действительности	-11.6419
общался	-11.6456
▁особенн	-11.6489
▁Франциск	-11.6498
участник	-11.6525
▁азербайджанск	-11.6535
Ростелеком	-11.6535
▁Financial	-11.6535
▁Генпрокуратуры	-11.6535
▁Нельзя	-11.6535
▁арендатор	-11.6535
▁госкорпорации	-11.6535
▁двукратн	-11.6535
▁настоящим	-11.6535
▁расстоянии	-11.6535
▁соответствовать	-11.6535
▁сценария	-11.6535
▁тенденции	-11.6535
▁тяжелых	-11.6535
press	-11.6535
Мансийск	-11.6535
▁заплатил	-11.6535
▁телевидение	-11.6535
▁учебник	-11.6535
▁кислот	-11.6535
▁удавалось	-11.6535
▁девочку	-11.6535
▁концепции	-11.6535
▁первоначально	-11.6536
▁страдает	-11.6536
▁Tele	-11.6536
▁Каролин	-11.6537
▁Земле	-11.6539
▁южны	-11.6541
ook	-11.6542
ходящем	-11.6549
католическ	-11.6551
▁мемориальн	-11.6563
демонстрировать	-11.6644
▁честн	-11.6651
▁назвав	-11.6653
правляются	-11.666
грузить	-11.6666
▁Михалков	-11.6667
▁Porsche	-11.6667
▁WikiLeaks	-11.6667
▁Благовещенск	-11.6667
▁Ингушетии	-11.6667
▁МКАД	-11.6667
▁Начальник	-11.6667
▁бюллетене	-11.6667
▁историей	-11.6667
▁исторической	-11.6667
▁новорожденн	-11.6667
▁предыдущим	-11.6667
▁присоединения	-11.6667
▁статистика	-11.6667
▁употреблении	-11.6667
▁Прохоров	-11.6667
▁десятилетий	-11.6667
▁счастья	-11.6667
▁мурманск	-11.6667
▁потратить	-11.6667
реструктуризации	-11.6667
▁соблюдения	-11.6667
▁геополитическ	-11.6667
▁реактор	-11.6667
▁привлекательны	-11.6667
▁ПВО	-11.6667
▁восстановил	-11.6667
▁превышаю	-11.6667
Жизнь	-11.6667
▁расстройств	-11.6668
▁выстраива	-11.6668
▁толчк	-11.6678
незаконны	-11.6759
▁выданны	-11.6778
▁знакомств	-11.6794
#	-11.68
▁Набиуллина	-11.68
▁Поклонская	-11.68
▁Севастополь	-11.68
▁аксессуар	-11.68
▁гололед	-11.68
▁градостроитель	-11.68
▁кадастров	-11.68
▁критике	-11.68
▁орбиту	-11.68
▁площадок	-11.68
▁проголосовать	-11.68
▁сценарист	-11.68
▁управлению	-11.68
▁фамилии	-11.68
▁надеяться	-11.68
▁Иосиф	-11.68
писывают	-11.68
▁обсудят	-11.68
▁переименован	-11.68
▁связывают	-11.68
▁сложным	-11.68
▁деятелей	-11.68
▁армейск	-11.68
▁концентраци	-11.6801
▁начислен	-11.6801
▁противоправн	-11.6801
▁формиру	-11.6808
Чикаго	-11.681
▁достоверно	-11.6818
железной	-11.6835
▁выезжа	-11.6856
▁раскрыти	-11.6911
▁резиденци	-11.6935
дюймовы	-11.6935
терапевт	-11.6935
▁Play	-11.6935
▁Press	-11.6935
▁Еврокомиссия	-11.6935
▁Юнайтед	-11.6935
▁взаимоотношения	-11.6935
▁вложений	-11.6935
▁выглядеть	-11.6935
▁дисквалификации	-11.6935
▁заведений	-11.6935
▁путешествие	-11.6935
▁расстояние	-11.6935
▁рекомендация	-11.6935
▁русскоязычн	-11.6935
▁требованию	-11.6935
▁фракция	-11.6935
▁молекул	-11.6935
▁статистическ	-11.6935
▁досрочны	-11.6935
▁Василия	-11.6935
▁гречески	-11.6935
▁империи	-11.6935
▁РФПЛ	-11.6935
▁специфик	-11.6935
▁нежелани	-11.6936
▁нормализаци	-11.6936
▁возрожден	-11.6938
▁дистанционно	-11.6939
▁выявля	-11.6942
Первого	-11.6943
▁подконтрольны	-11.6943
▁тематическ	-11.6948
▁аллерги	-11.6951
концентрирова	-11.6962
театр	-11.6985
ставляя	-11.7007
▁Генерал	-11.704
парламент	-11.7069
▁разворачива	-11.7072
IAAF	-11.7072
ФАКТАМ	-11.7072
бщеобразовательн	-11.7072
▁EgyptAir	-11.7072
▁БРИКС	-11.7072
▁Колумбии	-11.7072
▁Строительство	-11.7072
▁компактн	-11.7072
▁напоминают	-11.7072
▁пропаганды	-11.7072
▁путешествия	-11.7072
▁соцсетей	-11.7072
▁статистике	-11.7072
▁поединок	-11.7072
▁просьбу	-11.7072
Гонконг	-11.7072
▁Японию	-11.7072
▁попыток	-11.7072
▁ОАЭ	-11.7072
▁гривн	-11.7072
▁партией	-11.7072
▁пожелал	-11.7073
ФАКТ	-11.7073
Общероссийск	-11.7073
▁доказан	-11.7073
▁замысл	-11.7073
▁чеченск	-11.7073
Левада	-11.7082
Предварительн	-11.7087
▁Сотрудник	-11.712
транспортно	-11.7161
▁террор	-11.7165
▁конечн	-11.717
▁снизит	-11.7201
▁WTI	-11.7211
▁Леонардо	-11.7211
▁Черногории	-11.7211
▁девушку	-11.7211
▁дивидендов	-11.7211
▁обнаружить	-11.7211
▁трубопровод	-11.7211
▁усугуб	-11.7211
▁изолятор	-11.7211
▁парашют	-11.7211
▁поступало	-11.7211
▁Яковлев	-11.7211
▁внешним	-11.7211
▁Новомосковск	-11.7211
▁свидетеля	-11.7211
▁исправить	-11.7211
▁наземны	-11.7219
▁загрязнен	-11.7222
соединение	-11.7233
▁театральны	-11.7294
.11.2016	-11.7352
Барселона	-11.7352
▁Brexit	-11.7352
▁Fox	-11.7352
▁Америку	-11.7352
▁Голливуд	-11.7352
▁Ленобласти	-11.7352
▁Махачкал	-11.7352
▁Хмеймим	-11.7352
▁беременности	-11.7352
▁выступающи	-11.7352
▁компенсировать	-11.7352
▁настоящего	-11.7352
▁организационн	-11.7352
▁претендовать	-11.7352
▁сопоставим	-11.7352
▁сосредоточен	-11.7352
▁утилизации	-11.7352
▁незначительны	-11.7352
▁вердикт	-11.7352
▁жильцов	-11.7352
▁уточнен	-11.7352
▁монарх	-11.7352
▁небольших	-11.7352
▁прогулк	-11.7352
▁обращает	-11.7352
▁заблокировал	-11.7353
▁главнокомандующ	-11.7357
зыскать	-11.7372
▁опуска	-11.7376
▁швейцар	-11.7413
оперативн	-11.7426
▁затяну	-11.7435
▁Ибрагим	-11.7495
▁паралимпийск	-11.7495
▁Администрация	-11.7495
▁Безусловно	-11.7495
▁Жириновский	-11.7495
▁Калифорнии	-11.7495
▁Литвиненко	-11.7495
▁коллекция	-11.7495
▁предупреждения	-11.7495
▁расследований	-11.7495
▁руководящи	-11.7495
▁троллейбус	-11.7495
рентабельн	-11.7495
▁ноутбук	-11.7495
▁производят	-11.7495
▁параметры	-11.7495
Media	-11.7495
▁Ростуризм	-11.7495
▁юрлиц	-11.7495
▁Чуркин	-11.7495
▁Очеред	-11.7495
▁помешал	-11.7495
▁автовладельц	-11.7495
▁гонщик	-11.7496
▁истечени	-11.7498
▁пленарно	-11.7498
▁многодетн	-11.7549
Родина	-11.7593
▁мемориал	-11.7609
▁недостаточн	-11.7637
фальсификаци	-11.764
▁Сноуден	-11.764
▁ФСИН	-11.764
▁алгоритм	-11.764
▁апелляцию	-11.764
▁бесконечно	-11.764
▁контингент	-11.764
▁координации	-11.764
▁месторождений	-11.764
▁ненависти	-11.764
▁позицией	-11.764
▁потрясающ	-11.764
▁профилактики	-11.764
▁согласовыва	-11.764
▁Воздушно	-11.764
▁Дальневосточн	-11.764
▁Приморья	-11.764
▁Roll	-11.764
▁портфель	-11.764
▁присоединились	-11.764
▁возросло	-11.764
▁захочет	-11.764
▁Совфед	-11.764
▁Тюменск	-11.764
▁лодки	-11.764
▁договоренность	-11.764
▁заявить	-11.764
▁фланг	-11.764
▁саудовск	-11.764
▁хвост	-11.764
▁квалифицированн	-11.7641
Баварии	-11.7641
чудовищ	-11.7642
комплект	-11.7644
Российски	-11.7645
▁Известны	-11.7645
рабатывал	-11.7756
▁Пассажир	-11.7779
@	-11.7787
▁Ассанж	-11.7787
▁благополучно	-11.7787
▁олимпиад	-11.7787
▁приостановить	-11.7787
▁присутствовать	-11.7787
▁публике	-11.7787
▁разъяснен	-11.7787
▁спецоперации	-11.7787
▁физкультур	-11.7787
▁стабильны	-11.7787
▁оплате	-11.7787
Евровидения	-11.7787
▁крейсер	-11.7787
▁Кристиан	-11.7787
▁верующих	-11.7787
▁Железн	-11.7787
▁фокус	-11.7787
ступлению	-11.7787
▁Мустаф	-11.7787
▁соединя	-11.7787
▁рассмотрел	-11.7787
▁ошибоч	-11.779
Лукойл	-11.7794
третьих	-11.7912
.02.2016	-11.7936
▁Овечкин	-11.7936
▁Правоохранители	-11.7936
▁Сингапур	-11.7936
▁ассоциация	-11.7936
▁возможен	-11.7936
▁консорциум	-11.7936
▁консульств	-11.7936
▁облигации	-11.7936
▁оштрафовал	-11.7936
▁прозвищ	-11.7936
▁проповедник	-11.7936
▁огнестрельно	-11.7936
▁осуществляют	-11.7936
▁телевидения	-11.7936
▁водоснабжени	-11.7936
▁воспринимают	-11.7936
▁Астахов	-11.7936
▁сомнение	-11.7936
▁производил	-11.7936
▁претендую	-11.7936
▁сближени	-11.7936
▁продлева	-11.7936
нравственн	-11.7936
▁сотрудниц	-11.7937
▁поджог	-11.7937
▁Сообщени	-11.7937
▁убедительн	-11.7938
сейчас	-11.7945
▁продемонстрир	-11.7948
ставьте	-11.7957
стоятельно	-11.7973
▁существующе	-11.7976
корректировать	-11.8031
▁метеор	-11.8087
▁Инфантино	-11.8088
▁Разумеется	-11.8088
▁взаимодействию	-11.8088
▁выплачивать	-11.8088
▁минометов	-11.8088
▁навстречу	-11.8088
▁непредсказуем	-11.8088
▁площадей	-11.8088
▁префектур	-11.8088
▁рекомендован	-11.8088
▁убежища	-11.8088
▁электроэнергию	-11.8088
▁Багдад	-11.8088
▁Минкультуры	-11.8088
▁Пономарев	-11.8088
▁аккредитаци	-11.8088
▁истребителей	-11.8088
▁портфеля	-11.8088
▁февраль	-11.8088
▁арсенал	-11.8088
▁конвенции	-11.8088
▁предусматривающ	-11.8088
▁трагически	-11.8088
▁Маргарит	-11.8088
▁увлечен	-11.8088
▁этническ	-11.8088
▁вмешива	-11.8088
▁Троицк	-11.8089
▁гармони	-11.8096
▁непосредственн	-11.8145
стоящую	-11.8149
.04.2016	-11.8242
▁LifeNews	-11.8242
▁Service	-11.8242
▁Барнауле	-11.8242
▁ЕАЭС	-11.8242
▁Законодательно	-11.8242
▁Москвич	-11.8242
▁Скворцов	-11.8242
▁Шараповой	-11.8242
▁акватори	-11.8242
▁грандиозн	-11.8242
▁декоративн	-11.8242
▁заподозрил	-11.8242
▁конструктивны	-11.8242
▁микроавтобус	-11.8242
▁небольшое	-11.8242
▁оргкомитет	-11.8242
▁основное	-11.8242
▁присутствует	-11.8242
▁содействия	-11.8242
▁эквивалент	-11.8242
железнодорожник	-11.8242
▁Процесс	-11.8242
▁голливудск	-11.8242
▁обозначил	-11.8242
▁Нигерии	-11.8242
▁закрепить	-11.8242
▁основыва	-11.8242
▁сдерживани	-11.8242
▁заморожен	-11.8242
Алтапресс	-11.8242
Ь	-11.9744
=	-12.1514
`	-12.2413
ü	-12.3935
ä	-12.5096
ї	-12.5096
•	-12.6409
é	-12.9227
×	-13.0729
⁄	-13.1285
є	-13.3165
■	-13.3879
ó	-13.6391
ö	-13.8502
©	-13.8502
[	-13.961
‒	-13.9752
́	-13.9752
І	-14.118
þ	-14.2847
‬	-14.2847
ў	-14.7347
~	-14.7347
\	-14.7347
É	-14.7347
‍	-14.7347
μ	-14.7347
à	-15.068
Ö	-15.068
¦	-15.068
Ş	-15.068
Ν	-15.068
α	-15.068
қ	-15.068
¬	-15.068
β	-15.068
️	-15.568
ī	-15.568
ç	-15.568
í	-15.568
ʼ	-15.568
ı	-15.568
ś	-15.568
Š	-15.568
ʀ	-15.568
Α	-15.568
Η	-15.568
ν	-15.568
ο	-15.568
⚽	-15.568
ô	-15.568
ð	-15.5681
▲	-16.5665
ғ	-16.5666
џ	-16.5667
ŏ	-16.5668
ê	-16.5669
‪	-16.567
Ў	-16.5671
😂	-16.5672
ë	-16.5673
è	-16.5674
→	-16.5675
′	-16.5676
<	-16.5677
õ	-16.5678
£	-16.5679
🍺	-16.568
🎂	-16.568
🐅	-16.568
🐗	-16.568
€	-16.568
š	-16.568
λ	-16.568
¤	-16.568
¥	-16.568
§	-16.568
Ë	-16.568
ß	-16.568
á	-16.568
ā	-16.568
ę	-16.568
İ	-16.568
Ł	-16.568
ń	-16.568
ş	-16.568
̊	-16.568
Έ	-16.568
Γ	-16.568
Σ	-16.568
έ	-16.568
τ	-16.568
Є	-16.568
ё	-16.568
Қ	-16.568
ҳ	-16.568
ӣ	-16.568
∙	-16.568
⋅	-16.568
─	-16.568
►	-16.568
●	-16.568
☃	-16.568
☝	-16.568
♫	-16.568
❄	-16.568
《	-16.568
》	-16.568
	-16.568
🐺	-16.568
Ї	-16.5681
ρ	-16.5681
χ	-16.5681
ώ	-16.5681
🌞	-16.5681
ø	-16.5681
(	-16.5681
💪	-16.5681
