<unk>	0
<s>	0
</s>	0
▁п	-0
▁с	-1
▁в	-2
ст	-3
▁н	-4
ен	-5
ов	-6
ра	-7
▁о	-8
▁и	-9
то	-10
ре	-11
ко	-12
но	-13
ро	-14
го	-15
▁по	-16
ли	-17
ан	-18
ет	-19
▁д	-20
▁на	-21
ль	-22
ри	-23
▁м	-24
ка	-25
те	-26
ны	-27
▁,	-28
ла	-29
та	-30
за	-31
▁"	-32
▁б	-33
ер	-34
ни	-35
▁.	-36
ени	-37
▁у	-38
ки	-39
ле	-40
▁ч	-41
ть	-42
на	-43
да	-44
ти	-45
▁а	-46
ло	-47
▁не	-48
ва	-49
▁ко	-50
ци	-51
▁за	-52
ся	-53
ру	-54
ди	-55
во	-56
ви	-57
▁-	-58
ми	-59
▁про	-60
▁со	-61
▁ра	-62
сс	-63
▁В	-64
ем	-65
▁к	-66
ани	-67
▁С	-68
▁э	-69
▁П	-70
ля	-71
де	-72
▁го	-73
ров	-74
▁до	-75
▁об	-76
▁от	-77
ест	-78
▁что	-79
ей	-80
ско	-81
▁г	-82
мо	-83
по	-84
▁при	-85
▁Р	-86
▁пре	-87
▁К	-88
ры	-89
▁во	-90
ду	-91
▁М	-92
▁е	-93
сти	-94
не	-95
ча	-96
чи	-97
▁ре	-98
бо	-99
▁т	-100
ма	-101
▁вы	-102
ения	-103
же	-104
▁Н	-105
ски	-106
▁то	-107
хо	-108
▁2	-109
▁из	-110
тель	-111
ной	-112
сси	-113
ных	-114
▁ка	-115
ста	-116
че	-117
ово	-118
▁бы	-119
ку	-120
сь	-121
▁1	-122
лу	-123
до	-124
▁О	-125
жи	-126
се	-127
ши	-128
ного	-129
▁А	-130
▁ф	-131
▁это	-132
▁мо	-133
ги	-134
ова	-135
щи	-136
ере	-137
зи	-138
ение	-139
мен	-140
ют	-141
об	-142
▁те	-143
ции	-144
ве	-145
ну	-146
па	-147
▁ст	-148
▁Т	-149
ме	-150
▁та	-151
▁Д	-152
ные	-153
▁кото	-154
сто	-155
▁По	-156
ту	-157
си	-158
пи	-159
▁но	-160
▁Ро	-161
ков	-162
ар	-163
▁под	-164
ный	-165
▁де	-166
ств	-167
▁бо	-168
ря	-169
▁з	-170
му	-171
▁И	-172
он	-173
га	-174
ты	-175
ня	-176
▁раз	-177
▁ми	-178
▁20	-179
ется	-180
▁Б	-181
лю	-182
▁пред	-183
би	-184
▁Г	-185
ше	-186
▁(	-187
пе	-188
▁Росси	-189
лов	-190
сть	-191
са	-192
ент	-193
▁ро	-194
ным	-195
лен	-196
▁ин	-197
ской	-198
це	-199
▁пере	-200
▁ли	-201
ек	-202
уд	-203
жа	-204
ания	-205
▁ма	-206
▁я	-207
ке	-208
ран	-209
ор	-210
су	-211
лет	-212
▁",	-213
▁ста	-214
▁ком	-215
вы	-216
сле	-217
ак	-218
▁для	-219
▁ру	-220
тов	-221
пу	-222
ин	-223
спо	-224
▁все	-225
▁кон	-226
▁ни	-227
каза	-228
▁сво	-229
▁которы	-230
ще	-231
▁ме	-232
▁201	-233
▁Е	-234
бы	-235
▁си	-236
▁са	-237
жно	-238
▁У	-239
ского	-240
▁пра	-241
ск	-242
▁На	-243
мы	-244
ез	-245
про	-246
▁года	-247
жд	-248
ща	-249
ур	-250
вер	-251
▁так	-252
аль	-253
ства	-254
▁как	-255
она	-256
ном	-257
кра	-258
▁воз	-259
▁сооб	-260
▁ш	-261
▁:	-262
▁России	-263
лей	-264
тив	-265
гра	-266
▁Л	-267
ба	-268
зы	-269
овы	-270
ться	-271
дер	-272
ении	-273
ности	-274
чен	-275
ды	-276
ана	-277
бе	-278
▁его	-279
ство	-280
вля	-281
▁ве	-282
гу	-283
▁хо	-284
ских	-285
пра	-286
тся	-287
▁Ф	-288
▁се	-289
кс	-290
▁су	-291
жен	-292
ная	-293
▁сто	-294
ска	-295
из	-296
лся	-297
сту	-298
ное	-299
▁он	-300
фи	-301
ция	-302
рем	-303
▁рабо	-304
ствен	-305
▁3	-306
нов	-307
со	-308
рова	-309
ание	-310
▁стра	-311
дни	-312
▁дол	-313
лько	-314
▁З	-315
кой	-316
пре	-317
▁жи	-318
▁да	-319
ании	-320
▁Э	-321
▁ц	-322
▁".	-323
рг	-324
ходи	-325
▁после	-326
дов	-327
ети	-328
мер	-329
ета	-330
ский	-331
▁)	-332
яви	-333
ющи	-334
▁буд	-335
▁х	-336
▁па	-337
▁ны	-338
ву	-339
▁росси	-340
ления	-341
ести	-342
▁этом	-343
▁Мо	-344
лись	-345
▁комп	-346
зу	-347
стави	-348
ят	-349
ник	-350
▁пер	-351
▁ав	-352
▁полу	-353
▁ча	-354
ев	-355
гда	-356
рии	-357
▁че	-358
анов	-359
▁пров	-360
жет	-361
ред	-362
стви	-363
ден	-364
▁ви	-365
ца	-366
ность	-367
▁будет	-368
▁од	-369
▁гла	-370
▁ос	-371
▁руб	-372
▁же	-373
ша	-374
нист	-375
ром	-376
▁году	-377
▁расс	-378
лось	-379
дин	-380
гла	-381
ную	-382
▁поли	-383
▁сов	-384
▁боль	-385
▁врем	-386
лы	-387
тор	-388
▁также	-389
дар	-390
▁ди	-391
сли	-392
щест	-393
ком	-394
род	-395
▁Ч	-396
▁россий	-397
ению	-398
руп	-399
кт	-400
стоя	-401
▁дру	-402
пер	-403
при	-404
▁4	-405
тер	-406
вя	-407
ень	-408
том	-409
▁5	-410
▁слу	-411
цию	-412
▁ак	-413
▁лю	-414
фор	-415
ха	-416
▁мест	-417
бли	-418
рен	-419
▁бу	-420
лее	-421
ений	-422
коно	-423
▁мл	-424
рой	-425
вет	-426
▁уже	-427
ские	-428
▁орг	-429
сов	-430
▁был	-431
▁объ	-432
▁уча	-433
став	-434
чест	-435
▁было	-436
▁Ко	-437
00	-438
▁челов	-439
лова	-440
▁пар	-441
ес	-442
ласти	-443
▁ва	-444
▁ты	-445
▁чи	-446
▁За	-447
▁обра	-448
▁без	-449
▁время	-450
▁Ка	-451
вши	-452
лась	-453
жду	-454
▁их	-455
рт	-456
▁которые	-457
▁лет	-458
▁прези	-459
зыва	-460
▁дан	-461
зна	-462
▁мы	-463
▁произ	-464
ему	-465
теля	-466
▁том	-467
ются	-468
▁гра	-469
▁нача	-470
▁заяви	-471
прав	-472
▁Во	-473
пы	-474
цион	-475
вро	-476
телей	-477
▁Х	-478
вен	-479
чно	-480
тиче	-481
▁или	-482
гово	-483
кан	-484
▁гово	-485
сы	-486
ление	-487
тра	-488
яб	-489
ене	-490
бу	-491
▁авто	-492
▁му	-493
▁тре	-494
циаль	-495
▁спо	-496
ход	-497
▁пу	-498
▁чем	-499
▁Ми	-500
стре	-501
▁ле	-502
▁тер	-503
▁только	-504
ству	-505
▁само	-506
дет	-507
ША	-508
аз	-509
▁ку	-510
ге	-511
вать	-512
▁зна	-513
три	-514
▁еще	-515
▁США	-516
рь	-517
▁пи	-518
▁ус	-519
кры	-520
▁того	-521
▁Я	-522
ней	-523
▁При	-524
▁фи	-525
ника	-526
год	-527
станов	-528
▁сообща	-529
шен	-530
▁6	-531
есть	-532
ском	-533
▁может	-534
дут	-535
▁сле	-536
лан	-537
▁Але	-538
тели	-539
▁19	-540
судар	-541
кон	-542
▁?	-543
ональ	-544
▁Со	-545
▁более	-546
шения	-547
▁ы	-548
дом	-549
казал	-550
▁слова	-551
рта	-552
ская	-553
▁рас	-554
шение	-555
тия	-556
▁чтобы	-557
▁Но	-558
▁были	-559
▁прави	-560
▁сообщи	-561
зов	-562
нее	-563
ом	-564
▁Моск	-565
▁Ма	-566
▁Ш	-567
тельно	-568
▁который	-569
▁Укра	-570
▁ее	-571
дент	-572
▁органи	-573
▁они	-574
▁Са	-575
мот	-576
ких	-577
▁ну	-578
рит	-579
чита	-580
▁Как	-581
цы	-582
▁7	-583
▁Ц	-584
мети	-585
▁ж	-586
▁дей	-587
▁им	-588
▁ки	-589
раль	-590
▁государ	-591
пол	-592
▁испо	-593
▁РФ	-594
реди	-595
вест	-596
кого	-597
▁ом	-598
ников	-599
▁Го	-600
кономи	-601
▁вз	-602
▁отно	-603
ед	-604
▁Об	-605
▁Украи	-606
▁реги	-607
▁свя	-608
▁бан	-609
▁Си	-610
нима	-611
лом	-612
лож	-613
",	-614
▁ов	-615
▁вер	-616
тин	-617
тру	-618
ой	-619
сла	-620
▁тех	-621
ним	-622
льта	-623
▁эти	-624
▁спе	-625
▁между	-626
стра	-627
▁помо	-628
ью	-629
▁получи	-630
ут	-631
▁вопро	-632
▁свои	-633
форма	-634
ково	-635
ступ	-636
рд	-637
▁заявил	-638
рои	-639
али	-640
▁исто	-641
ане	-642
▁пол	-643
▁Та	-644
▁есть	-645
▁Ки	-646
▁представи	-647
лли	-648
▁ры	-649
яв	-650
держ	-651
стов	-652
▁2016	-653
▁8	-654
кие	-655
ций	-656
пас	-657
▁Это	-658
▁работа	-659
▁человек	-660
рован	-661
▁возмо	-662
логи	-663
клю	-664
оне	-665
▁горо	-666
ября	-667
ена	-668
▁этого	-669
вал	-670
годня	-671
мери	-672
чет	-673
яс	-674
▁Вла	-675
зд	-676
en	-677
▁Ан	-678
▁счита	-679
ман	-680
час	-681
еде	-682
пла	-683
▁Алекс	-684
▁ю	-685
▁це	-686
er	-687
▁кра	-688
▁Бо	-689
ейчас	-690
ску	-691
дей	-692
зульта	-693
трудни	-694
мент	-695
▁экономи	-696
мента	-697
▁словам	-698
▁результа	-699
рон	-700
дает	-701
▁экс	-702
емы	-703
ением	-704
▁Влади	-705
▁президен	-706
▁груп	-707
▁области	-708
▁отмети	-709
▁други	-710
пера	-711
льно	-712
овать	-713
▁организа	-714
цев	-715
шего	-716
от	-717
рий	-718
чень	-719
▁дела	-720
ники	-721
▁соб	-722
▁2015	-723
▁чет	-724
слу	-725
публи	-726
▁проек	-727
▁обо	-728
ены	-729
▁ба	-730
▁мар	-731
▁Пу	-732
каз	-733
овой	-734
▁млн	-735
▁ту	-736
▁ся	-737
▁она	-738
нако	-739
вает	-740
тери	-741
▁9	-742
▁пе	-743
кла	-744
тельства	-745
▁сред	-746
аний	-747
▁если	-748
▁бе	-749
▁будут	-750
тора	-751
вод	-752
гут	-753
вести	-754
".	-755
▁была	-756
ским	-757
▁информа	-758
дол	-759
чения	-760
▁Евро	-761
анд	-762
лага	-763
▁Се	-764
▁новы	-765
кий	-766
▁когда	-767
▁суд	-768
▁приня	-769
ставля	-770
ую	-771
ложи	-772
▁прош	-773
чение	-774
▁воен	-775
▁сотрудни	-776
ших	-777
бор	-778
▁Владими	-779
▁согла	-780
▁сде	-781
ках	-782
цу	-783
ит	-784
▁Не	-785
▁L	-786
туа	-787
▁ад	-788
▁тем	-789
роны	-790
▁явля	-791
тому	-792
▁тра	-793
▁основ	-794
▁быть	-795
▁10	-796
▁случа	-797
▁Ни	-798
▁можно	-799
сно	-800
▁рублей	-801
▁S	-802
▁Сер	-803
ными	-804
рия	-805
ряд	-806
▁дет	-807
▁где	-808
▁гражд	-809
нистра	-810
рек	-811
▁подо	-812
▁ар	-813
▁год	-814
▁которо	-815
▁очень	-816
бира	-817
▁Он	-818
бле	-819
дель	-820
▁день	-821
сков	-822
лек	-823
▁неско	-824
▁разви	-825
▁компании	-826
▁возможно	-827
цен	-828
лови	-829
▁сист	-830
▁Так	-831
▁страны	-832
сты	-833
▁цент	-834
▁млрд	-835
▁ско	-836
ровать	-837
вой	-838
стро	-839
▁говори	-840
чь	-841
льз	-842
вед	-843
▁руково	-844
ремен	-845
рам	-846
▁пока	-847
нер	-848
▁Па	-849
▁ан	-850
мерикан	-851
меча	-852
▁сообщает	-853
▁встре	-854
рани	-855
▁них	-856
▁рай	-857
ян	-858
ким	-859
ta	-860
шей	-861
▁Ва	-862
▁коми	-863
▁Ин	-864
▁действи	-865
щен	-866
▁долж	-867
▁Ю	-868
твер	-869
▁ситуа	-870
тере	-871
хи	-872
чер	-873
мест	-874
▁тыся	-875
▁A	-876
▁).	-877
рабо	-878
▁сер	-879
жда	-880
▁глав	-881
инан	-882
▁Ж	-883
народ	-884
▁аг	-885
рито	-886
тии	-887
тре	-888
▁вс	-889
коло	-890
▁жиз	-891
нес	-892
сса	-893
▁дву	-894
грам	-895
ющих	-896
щего	-897
▁15	-898
рак	-899
▁против	-900
ний	-901
рук	-902
▁два	-903
▁участ	-904
▁пов	-905
▁милли	-906
тай	-907
пом	-908
▁уда	-909
▁необ	-910
фе	-911
▁Александ	-912
торы	-913
ru	-914
▁нет	-915
аны	-916
▁оста	-917
▁име	-918
щей	-919
▁Ба	-920
ового	-921
▁террито	-922
жения	-923
▁один	-924
▁T	-925
ять	-926
кая	-927
стран	-928
вали	-929
▁тыс	-930
▁право	-931
дели	-932
▁пробле	-933
тельство	-934
пута	-935
▁Ра	-936
▁I	-937
▁даже	-938
ях	-939
▁пла	-940
▁офи	-941
▁много	-942
▁),	-943
▁продол	-944
моби	-945
▁неф	-946
▁сказал	-947
води	-948
луч	-949
рая	-950
бя	-951
▁данным	-952
▁Од	-953
анк	-954
ете	-955
▁кор	-956
шь	-957
смот	-958
on	-959
▁нас	-960
тро	-961
▁поч	-962
▁могут	-963
СС	-964
▁больше	-965
▁ию	-966
прия	-967
▁пло	-968
▁оче	-969
▁откры	-970
▁финан	-971
▁американ	-972
ческой	-973
▁необходи	-974
нии	-975
▁зам	-976
▁тран	-977
бер	-978
тя	-979
▁коман	-980
него	-981
шел	-982
▁доро	-983
лани	-984
▁вла	-985
▁До	-986
▁Про	-987
казыва	-988
шин	-989
соб	-990
▁наз	-991
▁рын	-992
рует	-993
▁N	-994
лин	-995
ское	-996
▁200	-997
▁стан	-998
▁всего	-999
▁сейчас	-1000
▁поз	-1001
вели	-1002
стве	-1003
▁фор	-1004
▁президента	-1005
▁выбо	-1006
▁0	-1007
▁уров	-1008
▁Россия	-1009
▁строи	-1010
▁ду	-1011
▁Из	-1012
ступи	-1013
▁Украины	-1014
▁этот	-1015
ясни	-1016
▁опера	-1017
овал	-1018
рав	-1019
▁Мин	-1020
лог	-1021
▁Все	-1022
▁извест	-1023
▁C	-1024
▁состоя	-1025
роме	-1026
шении	-1027
▁первы	-1028
▁пресс	-1029
▁Ку	-1030
опас	-1031
стан	-1032
▁смо	-1033
▁прода	-1034
нь	-1035
▁автомоби	-1036
▁которая	-1037
министра	-1038
▁бю	-1039
▁Да	-1040
▁вой	-1041
жение	-1042
ерез	-1043
▁оп	-1044
рово	-1045
▁То	-1046
▁сообщил	-1047
▁!	-1048
▁несколько	-1049
лия	-1050
вший	-1051
щения	-1052
▁около	-1053
▁жен	-1054
▁сегодня	-1055
▁12	-1056
▁челове	-1057
▁бли	-1058
▁меся	-1059
анию	-1060
▁три	-1061
▁доку	-1062
▁эк	-1063
▁B	-1064
гро	-1065
▁мен	-1066
емо	-1067
ель	-1068
▁M	-1069
лем	-1070
▁укра	-1071
▁програм	-1072
▁участи	-1073
▁га	-1074
циональ	-1075
..	-1076
анее	-1077
▁Ранее	-1078
нению	-1079
▁сем	-1080
▁всех	-1081
▁готов	-1082
in	-1083
▁вос	-1084
▁самы	-1085
нем	-1086
цией	-1087
тен	-1088
вают	-1089
имо	-1090
▁минист	-1091
▁F	-1092
▁президент	-1093
ям	-1094
▁ито	-1095
▁сни	-1096
▁Ново	-1097
анима	-1098
кре	-1099
лаго	-1100
▁сдела	-1101
▁отметил	-1102
▁след	-1103
▁побе	-1104
▁Ви	-1105
виа	-1106
онов	-1107
▁Мы	-1108
стей	-1109
рори	-1110
ющий	-1111
▁полити	-1112
чу	-1113
рти	-1114
ледов	-1115
▁находи	-1116
▁фак	-1117
▁От	-1118
▁ис	-1119
▁газ	-1120
▁высо	-1121
ответ	-1122
▁которых	-1123
бов	-1124
▁является	-1125
ющие	-1126
ческих	-1127
бур	-1128
ществен	-1129
▁безопас	-1130
▁кри	-1131
од	-1132
▁города	-1133
an	-1134
нения	-1135
ис	-1136
держа	-1137
нут	-1138
▁депута	-1139
щее	-1140
лого	-1141
▁решение	-1142
▁заяв	-1143
хов	-1144
▁вто	-1145
тий	-1146
туры	-1147
▁обви	-1148
▁этой	-1149
▁круп	-1150
,5	-1151
▁эле	-1152
▁свое	-1153
▁над	-1154
▁установ	-1155
▁совер	-1156
мени	-1157
вно	-1158
ья	-1159
сте	-1160
лич	-1161
▁Владимир	-1162
▁отмеча	-1163
▁себя	-1164
▁граждан	-1165
ору	-1166
▁дви	-1167
▁образ	-1168
▁прове	-1169
▁нару	-1170
▁матери	-1171
ческого	-1172
▁агент	-1173
урна	-1174
ждения	-1175
▁управ	-1176
▁кто	-1177
ровал	-1178
▁чемпи	-1179
лены	-1180
▁двух	-1181
▁через	-1182
▁Однако	-1183
▁R	-1184
▁Ме	-1185
ил	-1186
▁Сирии	-1187
▁занима	-1188
лении	-1189
ному	-1190
▁произо	-1191
▁уго	-1192
▁оказа	-1193
▁числе	-1194
▁защи	-1195
▁интер	-1196
▁тысяч	-1197
▁место	-1198
пад	-1199
▁кол	-1200
▁Пре	-1201
▁свою	-1202
скую	-1203
▁ква	-1204
зан	-1205
тки	-1206
ступа	-1207
чина	-1208
▁евро	-1209
▁террори	-1210
▁G	-1211
кам	-1212
неш	-1213
▁глава	-1214
▁эта	-1215
▁экспер	-1216
▁призна	-1217
рей	-1218
▁позво	-1219
▁спи	-1220
▁би	-1221
▁дирек	-1222
▁$	-1223
▁Россий	-1224
▁Тур	-1225
шие	-1226
бой	-1227
▁бюд	-1228
▁обя	-1229
▁меня	-1230
▁передает	-1231
кру	-1232
▁ен	-1233
ье	-1234
рах	-1235
▁обла	-1236
▁перед	-1237
▁интере	-1238
▁тру	-1239
▁ла	-1240
▁украин	-1241
▁...	-1242
едераль	-1243
циа	-1244
▁международ	-1245
▁пос	-1246
Ро	-1247
▁Кроме	-1248
жды	-1249
ьер	-1250
менно	-1251
▁Ве	-1252
▁P	-1253
▁проце	-1254
20	-1255
▁Дми	-1256
▁11	-1257
овых	-1258
▁следу	-1259
▁голо	-1260
▁запре	-1261
▁стал	-1262
точ	-1263
▁законо	-1264
▁официаль	-1265
чество	-1266
▁ян	-1267
щение	-1268
▁авиа	-1269
лим	-1270
▁Дмитри	-1271
▁30	-1272
прави	-1273
ноги	-1274
▁луч	-1275
▁теле	-1276
▁журна	-1277
▁власти	-1278
▁соответ	-1279
▁бое	-1280
▁стать	-1281
ходя	-1282
▁ответ	-1283
▁18	-1284
▁перво	-1285
▁услови	-1286
дать	-1287
▁дека	-1288
жден	-1289
▁соз	-1290
▁приз	-1291
тие	-1292
▁2014	-1293
ун	-1294
ший	-1295
▁дея	-1296
вра	-1297
фер	-1298
▁режи	-1299
ходит	-1300
▁сент	-1301
гли	-1302
▁ный	-1303
▁виде	-1304
▁сы	-1305
▁Если	-1306
▁Гос	-1307
▁Москве	-1308
бра	-1309
▁Гла	-1310
овые	-1311
кну	-1312
▁После	-1313
▁дома	-1314
▁госпо	-1315
▁шко	-1316
▁увели	-1317
▁последни	-1318
▁част	-1319
▁поги	-1320
▁декаб	-1321
гей	-1322
▁ные	-1323
мет	-1324
▁биз	-1325
тета	-1326
enta	-1327
чем	-1328
▁Ли	-1329
готов	-1330
▁ци	-1331
▁апре	-1332
▁своей	-1333
тить	-1334
писа	-1335
ностью	-1336
▁созд	-1337
▁янва	-1338
там	-1339
шли	-1340
▁прав	-1341
▁результате	-1342
▁направ	-1343
▁заклю	-1344
▁ша	-1345
дить	-1346
or	-1347
раз	-1348
▁цен	-1349
▁просто	-1350
зации	-1351
▁доба	-1352
▁город	-1353
▁моло	-1354
▁работы	-1355
▁креди	-1356
щих	-1357
▁Lenta	-1358
▁плани	-1359
чной	-1360
▁стран	-1361
▁муж	-1362
▁очеред	-1363
йте	-1364
йти	-1365
▁должны	-1366
ото	-1367
▁актив	-1368
▁производ	-1369
мина	-1370
▁прово	-1371
▁фев	-1372
▁собствен	-1373
тно	-1374
этому	-1375
▁кан	-1376
▁долла	-1377
▁администра	-1378
тон	-1379
▁СМ	-1380
цент	-1381
▁государствен	-1382
кое	-1383
▁проду	-1384
АСС	-1385
спе	-1386
▁которой	-1387
льных	-1388
ссе	-1389
вые	-1390
▁сро	-1391
▁Сергей	-1392
▁должно	-1393
▁опре	-1394
▁мат	-1395
▁иск	-1396
▁стороны	-1397
▁ему	-1398
▁безопасности	-1399
▁Ре	-1400
▁необходимо	-1401
ссии	-1402
ружи	-1403
▁испол	-1404
▁служ	-1405
ат	-1406
▁Вы	-1407
лимпи	-1408
▁связи	-1409
▁25	-1410
▁благо	-1411
шо	-1412
▁него	-1413
).	-1414
▁СМИ	-1415
▁людей	-1416
▁контро	-1417
зе	-1418
▁февра	-1419
фф	-1420
лон	-1421
▁дело	-1422
▁ри	-1423
седа	-1424
▁Ар	-1425
▁Пер	-1426
ние	-1427
▁реши	-1428
кта	-1429
▁Сов	-1430
▁конку	-1431
▁поддерж	-1432
▁показа	-1433
дь	-1434
▁окт	-1435
▁гу	-1436
служ	-1437
▁элект	-1438
сед	-1439
еры	-1440
кси	-1441
▁потре	-1442
▁других	-1443
вая	-1444
помним	-1445
▁качест	-1446
тельных	-1447
зо	-1448
▁Ру	-1449
▁политиче	-1450
вле	-1451
▁исполь	-1452
▁уголов	-1453
нет	-1454
▁Путин	-1455
ИА	-1456
▁уби	-1457
▁16	-1458
▁ной	-1459
▁Александр	-1460
▁ино	-1461
▁мира	-1462
▁Бе	-1463
еспе	-1464
▁ных	-1465
▁случае	-1466
рации	-1467
▁13	-1468
нен	-1469
пей	-1470
▁чу	-1471
▁деятель	-1472
ar	-1473
es	-1474
▁помощ	-1475
▁прод	-1476
▁филь	-1477
ками	-1478
▁Пет	-1479
▁ранее	-1480
льного	-1481
▁часть	-1482
▁пози	-1483
▁сбор	-1484
▁настоя	-1485
ске	-1486
▁14	-1487
▁вопрос	-1488
▁догово	-1489
▁Напомним	-1490
ган	-1491
▁послед	-1492
▁Дж	-1493
чить	-1494
▁зд	-1495
▁ново	-1496
▁состави	-1497
▁источ	-1498
▁продолжа	-1499
▁ходе	-1500
циали	-1501
▁обеспе	-1502
лена	-1503
▁территории	-1504
пусти	-1505
кин	-1506
▁Де	-1507
льной	-1508
▁Под	-1509
держи	-1510
мой	-1511
роб	-1512
▁ули	-1513
дида	-1514
▁ана	-1515
вается	-1516
грани	-1517
▁торг	-1518
льзова	-1519
утбо	-1520
▁успе	-1521
▁обсу	-1522
пло	-1523
▁друго	-1524
ема	-1525
пример	-1526
▁проис	-1527
▁человека	-1528
▁рассказал	-1529
вших	-1530
▁жизни	-1531
▁ведом	-1532
▁выпол	-1533
▁руководи	-1534
▁сказа	-1535
▁российских	-1536
ыре	-1537
перь	-1538
▁подчер	-1539
▁17	-1540
▁организации	-1541
▁площа	-1542
▁компания	-1543
▁хоро	-1544
▁материа	-1545
▁социаль	-1546
строй	-1547
▁женщи	-1548
ствия	-1549
▁деся	-1550
▁марта	-1551
▁Те	-1552
тали	-1553
храни	-1554
▁которого	-1555
▁пери	-1556
▁преступ	-1557
сут	-1558
▁фон	-1559
льный	-1560
▁меди	-1561
инов	-1562
▁предо	-1563
▁Кон	-1564
▁кур	-1565
▁распо	-1566
▁иг	-1567
▁предпо	-1568
▁самолет	-1569
рази	-1570
▁способ	-1571
▁лишь	-1572
тически	-1573
▁сек	-1574
▁называ	-1575
тем	-1576
▁мнению	-1577
▁транспо	-1578
▁считает	-1579
щем	-1580
тур	-1581
▁ная	-1582
▁говорит	-1583
пыт	-1584
рую	-1585
▁W	-1586
рования	-1587
рави	-1588
▁Кры	-1589
▁нужно	-1590
▁значи	-1591
▁стало	-1592
▁неза	-1593
▁ного	-1594
шим	-1595
▁Трам	-1596
лез	-1597
шая	-1598
▁Анд	-1599
▁там	-1600
▁момент	-1601
щий	-1602
нова	-1603
▁своих	-1604
▁кандида	-1605
▁многи	-1606
▁подтвер	-1607
▁план	-1608
▁счет	-1609
▁мене	-1610
чены	-1611
▁тя	-1612
вшего	-1613
▁ло	-1614
рию	-1615
▁ги	-1616
▁Также	-1617
▁Москвы	-1618
▁вмест	-1619
▁сокра	-1620
▁сум	-1621
льные	-1622
струк	-1623
▁Новости	-1624
ляр	-1625
▁осу	-1626
▁журнали	-1627
▁совет	-1628
ститу	-1629
▁ОО	-1630
al	-1631
▁рес	-1632
▁уни	-1633
▁насе	-1634
енно	-1635
▁Госду	-1636
кти	-1637
чных	-1638
▁пы	-1639
воз	-1640
▁преду	-1641
▁зем	-1642
▁парла	-1643
▁четвер	-1644
▁объек	-1645
щая	-1646
▁четыре	-1647
ложен	-1648
чки	-1649
ствие	-1650
▁получа	-1651
лед	-1652
▁нам	-1653
которы	-1654
▁вра	-1655
▁отношении	-1656
▁конце	-1657
▁продук	-1658
▁подготов	-1659
кую	-1660
ток	-1661
▁дости	-1662
▁ожи	-1663
▁Пред	-1664
мов	-1665
▁рам	-1666
▁повы	-1667
▁почти	-1668
сло	-1669
▁Ла	-1670
▁партии	-1671
енси	-1672
▁составля	-1673
▁республи	-1674
ербур	-1675
щении	-1676
▁появи	-1677
рот	-1678
▁обна	-1679
▁коли	-1680
▁ТАСС	-1681
▁добави	-1682
le	-1683
рту	-1684
тар	-1685
▁именно	-1686
▁футбо	-1687
мп	-1688
рев	-1689
▁мет	-1690
▁й	-1691
▁50	-1692
▁стали	-1693
▁Ле	-1694
десь	-1695
▁отде	-1696
▁нор	-1697
▁обы	-1698
▁поку	-1699
▁нау	-1700
▁части	-1701
ерт	-1702
▁детей	-1703
шений	-1704
▁даль	-1705
▁клу	-1706
▁куль	-1707
анием	-1708
▁Фран	-1709
ческие	-1710
▁Сегодня	-1711
▁стране	-1712
овали	-1713
▁прем	-1714
▁задерж	-1715
торов	-1716
▁кли	-1717
▁реали	-1718
дии	-1719
ван	-1720
▁люди	-1721
▁закон	-1722
работ	-1723
дил	-1724
цей	-1725
них	-1726
▁буду	-1727
▁ти	-1728
▁ог	-1729
един	-1730
▁Для	-1731
▁кла	-1732
▁апреля	-1733
▁перегово	-1734
гам	-1735
▁уч	-1736
▁исс	-1737
▁говорится	-1738
▁ссы	-1739
▁Дмитрий	-1740
▁провер	-1741
▁однако	-1742
лев	-1743
▁сентября	-1744
▁авгу	-1745
правля	-1746
▁главы	-1747
▁рей	-1748
▁зако	-1749
▁предприя	-1750
▁государства	-1751
дой	-1752
дали	-1753
нил	-1754
чный	-1755
▁прекра	-1756
той	-1757
▁лег	-1758
дал	-1759
виси	-1760
ню	-1761
it	-1762
▁вклю	-1763
▁окру	-1764
тельной	-1765
▁зан	-1766
пара	-1767
пис	-1768
эро	-1769
зя	-1770
▁спорт	-1771
нение	-1772
▁руковод	-1773
▁каж	-1774
тельные	-1775
чные	-1776
▁должен	-1777
ьез	-1778
▁ника	-1779
▁анти	-1780
ния	-1781
над	-1782
рил	-1783
тиво	-1784
▁рамках	-1785
▁правительства	-1786
▁страна	-1787
▁утвер	-1788
▁чемпиона	-1789
▁сообщили	-1790
ницу	-1791
▁2017	-1792
▁опреде	-1793
▁Миха	-1794
вых	-1795
нять	-1796
▁провед	-1797
▁националь	-1798
разу	-1799
лья	-1800
▁Что	-1801
урман	-1802
▁роди	-1803
ева	-1804
▁завер	-1805
▁финанс	-1806
▁D	-1807
▁федераль	-1808
смен	-1809
▁суб	-1810
▁ря	-1811
▁гру	-1812
▁сам	-1813
▁измен	-1814
лено	-1815
▁Цент	-1816
▁иностран	-1817
▁назна	-1818
▁докумен	-1819
▁сти	-1820
▁одной	-1821
▁председа	-1822
еха	-1823
▁прог	-1824
▁пя	-1825
▁гос	-1826
▁исклю	-1827
шее	-1828
▁свобо	-1829
▁санк	-1830
нечно	-1831
▁причи	-1832
▁времен	-1833
▁ограни	-1834
▁участие	-1835
сили	-1836
▁одного	-1837
▁пример	-1838
вор	-1839
▁идет	-1840
явля	-1841
бен	-1842
кет	-1843
блю	-1844
▁рез	-1845
▁специали	-1846
▁февраля	-1847
лению	-1848
▁22	-1849
▁особ	-1850
▁кру	-1851
▁отказа	-1852
тет	-1853
чил	-1854
▁21	-1855
дина	-1856
шест	-1857
▁Они	-1858
тура	-1859
▁обществен	-1860
пози	-1861
▁подчеркну	-1862
▁образом	-1863
▁принима	-1864
▁мая	-1865
чного	-1866
▁маши	-1867
▁менее	-1868
▁ского	-1869
▁борь	-1870
▁верну	-1871
▁ши	-1872
▁времени	-1873
▁проку	-1874
ых	-1875
ющим	-1876
мыш	-1877
еров	-1878
▁игра	-1879
▁Га	-1880
вид	-1881
▁нем	-1882
зидент	-1883
▁подоз	-1884
▁инф	-1885
стана	-1886
▁возможность	-1887
▁такой	-1888
▁Су	-1889
▁Мар	-1890
▁обяза	-1891
oo	-1892
▁ль	-1893
▁ноября	-1894
▁декабря	-1895
▁развития	-1896
▁бюджет	-1897
читы	-1898
рин	-1899
нологи	-1900
жест	-1901
▁пост	-1902
зад	-1903
▁октября	-1904
жай	-1905
he	-1906
▁24	-1907
парта	-1908
▁попа	-1909
▁c	-1910
▁региональ	-1911
▁информации	-1912
▁представитель	-1913
чего	-1914
),	-1915
ябре	-1916
▁Гер	-1917
ченко	-1918
▁сре	-1919
▁назад	-1920
▁российского	-1921
▁региона	-1922
▁некоторы	-1923
▁ге	-1924
кола	-1925
▁тур	-1926
ффек	-1927
▁ради	-1928
▁кар	-1929
▁пыта	-1930
▁управления	-1931
▁засед	-1932
матри	-1933
▁января	-1934
▁другие	-1935
жу	-1936
▁серьез	-1937
телям	-1938
▁регу	-1939
▁сущест	-1940
телем	-1941
▁еди	-1942
ter	-1943
▁шта	-1944
▁ский	-1945
▁ссыл	-1946
▁угро	-1947
▁опубли	-1948
рыв	-1949
▁аре	-1950
стя	-1951
▁этих	-1952
чей	-1953
▁ную	-1954
▁противо	-1955
▁энер	-1956
▁работ	-1957
ce	-1958
Газ	-1959
доб	-1960
▁постра	-1961
▁средств	-1962
▁кос	-1963
▁зо	-1964
стри	-1965
▁100	-1966
▁E	-1967
▁Че	-1968
овая	-1969
▁1,	-1970
ВД	-1971
полни	-1972
дж	-1973
▁увер	-1974
ант	-1975
▁Между	-1976
▁среди	-1977
едерации	-1978
ить	-1979
▁No	-1980
ческий	-1981
▁конф	-1982
лют	-1983
▁ЕС	-1984
▁наде	-1985
мон	-1986
▁ха	-1987
тами	-1988
овый	-1989
хода	-1990
▁трех	-1991
▁Сейчас	-1992
▁работу	-1993
▁долларов	-1994
лений	-1995
гля	-1996
▁Ри	-1997
жных	-1998
▁погиб	-1999
чески	-2000
▁реко	-2001
мышлен	-2002
▁потому	-2003
щества	-2004
▁доста	-2005
▁Турции	-2006
▁первый	-2007
рец	-2008
▁Лу	-2009
▁надо	-2010
▁специаль	-2011
доров	-2012
▁свой	-2013
▁199	-2014
▁намер	-2015
▁тоже	-2016
▁конкур	-2017
▁Му	-2018
▁предлага	-2019
шло	-2020
руют	-2021
▁пенси	-2022
▁Кра	-2023
рения	-2024
▁член	-2025
ждение	-2026
тных	-2027
пин	-2028
берна	-2029
▁сторо	-2030
▁РИА	-2031
ствовать	-2032
▁Минист	-2033
▁сез	-2034
ством	-2035
▁предлож	-2036
▁публи	-2037
▁частности	-2038
▁вним	-2039
▁себе	-2040
ro	-2041
ферен	-2042
▁удалось	-2043
езд	-2044
▁процент	-2045
▁столи	-2046
▁поясни	-2047
▁тот	-2048
▁пор	-2049
гов	-2050
▁23	-2051
▁группы	-2052
вобо	-2053
▁верси	-2054
шла	-2055
▁мне	-2056
▁ней	-2057
▁прибы	-2058
▁ссылкой	-2059
сом	-2060
▁стоимо	-2061
▁;	-2062
▁лидер	-2063
▁проект	-2064
мии	-2065
▁районе	-2066
зии	-2067
▁образов	-2068
▁своего	-2069
цени	-2070
▁ситуации	-2071
лит	-2072
ссия	-2073
▁инвести	-2074
рю	-2075
▁профе	-2076
рес	-2077
щие	-2078
жной	-2079
йдет	-2080
ровали	-2081
▁которое	-2082
▁иде	-2083
▁места	-2084
дили	-2085
ится	-2086
▁Мурман	-2087
▁ближай	-2088
нок	-2089
▁поль	-2090
▁мень	-2091
▁дня	-2092
▁оцен	-2093
▁течение	-2094
▁s	-2095
▁закры	-2096
▁требов	-2097
▁эффек	-2098
▁здесь	-2099
▁стала	-2100
▁тогда	-2101
▁стре	-2102
вое	-2103
▁бра	-2104
▁одно	-2105
▁контра	-2106
щество	-2107
рить	-2108
▁вот	-2109
▁дел	-2110
▁производи	-2111
тина	-2112
▁став	-2113
лимпий	-2114
▁ответствен	-2115
▁европей	-2116
▁лиц	-2117
▁обе	-2118
▁смер	-2119
▁очередь	-2120
вую	-2121
шед	-2122
▁Сан	-2123
еть	-2124
лега	-2125
▁аль	-2126
▁вместе	-2127
▁Ту	-2128
▁сло	-2129
▁заня	-2130
шем	-2131
слав	-2132
▁известно	-2133
▁Ха	-2134
дит	-2135
ссажи	-2136
▁технологи	-2137
▁расследов	-2138
▁права	-2139
▁треть	-2140
▁замести	-2141
▁i	-2142
▁русс	-2143
at	-2144
▁голосов	-2145
201	-2146
вания	-2147
▁законода	-2148
▁срав	-2149
▁ребен	-2150
▁премьер	-2151
▁привле	-2152
▁28	-2153
▁пря	-2154
няя	-2155
▁суде	-2156
▁полиции	-2157
▁ным	-2158
ТО	-2159
фа	-2160
▁бес	-2161
▁дене	-2162
▁действу	-2163
▁ини	-2164
▁деньги	-2165
▁пам	-2166
обе	-2167
▁мину	-2168
▁фото	-2169
▁спортсмен	-2170
▁Ев	-2171
▁кино	-2172
▁ами	-2173
▁това	-2174
▁собира	-2175
▁теперь	-2176
▁Ав	-2177
личи	-2178
▁находится	-2179
▁Хо	-2180
▁спа	-2181
▁суда	-2182
кова	-2183
принима	-2184
роприя	-2185
▁парт	-2186
▁подоб	-2187
▁системы	-2188
хва	-2189
▁нового	-2190
чка	-2191
пита	-2192
▁зада	-2193
тельного	-2194
▁H	-2195
цов	-2196
кто	-2197
▁Вер	-2198
▁аэро	-2199
жении	-2200
▁бизнес	-2201
рал	-2202
▁нов	-2203
▁постав	-2204
▁предложи	-2205
▁реаль	-2206
▁эту	-2207
▁сразу	-2208
▁семь	-2209
▁выступа	-2210
▁начала	-2211
шой	-2212
▁пун	-2213
▁услу	-2214
▁российской	-2215
мости	-2216
▁Вели	-2217
▁новых	-2218
ницы	-2219
видет	-2220
▁всегда	-2221
чера	-2222
▁выпла	-2223
▁банков	-2224
▁таких	-2225
▁избира	-2226
▁убий	-2227
сколь	-2228
▁гене	-2229
▁комитета	-2230
▁средства	-2231
▁наблю	-2232
▁котором	-2233
▁начале	-2234
▁рассказа	-2235
▁ген	-2236
▁музы	-2237
▁40	-2238
▁Герм	-2239
▁хозя	-2240
рами	-2241
тах	-2242
▁конфли	-2243
или	-2244
▁струк	-2245
▁дополни	-2246
▁воору	-2247
вшие	-2248
ентов	-2249
▁сирий	-2250
▁этим	-2251
▁Никола	-2252
▁Бы	-2253
▁ху	-2254
тельный	-2255
▁опас	-2256
▁уточ	-2257
▁кварти	-2258
вание	-2259
шенко	-2260
▁Мак	-2261
▁води	-2262
▁медици	-2263
част	-2264
▁техни	-2265
ваться	-2266
ющей	-2267
точно	-2268
▁мероприя	-2269
▁27	-2270
▁тури	-2271
ствии	-2272
ющего	-2273
▁поряд	-2274
▁чего	-2275
▁объем	-2276
▁миллиар	-2277
скольку	-2278
▁качестве	-2279
▁спор	-2280
дним	-2281
▁Алексей	-2282
▁исследов	-2283
▁месте	-2284
▁сделать	-2285
▁решения	-2286
▁ал	-2287
▁мя	-2288
ИД	-2289
тать	-2290
тан	-2291
▁26	-2292
▁дума	-2293
проек	-2294
▁ей	-2295
▁ой	-2296
фика	-2297
▁действия	-2298
дви	-2299
▁фа	-2300
▁Лю	-2301
пуска	-2302
▁анали	-2303
▁пассажи	-2304
▁неде	-2305
тил	-2306
▁годы	-2307
▁Ду	-2308
▁последние	-2309
им	-2310
нача	-2311
▁Она	-2312
графи	-2313
▁внут	-2314
▁министр	-2315
▁сайте	-2316
▁переда	-2317
▁V	-2318
▁отношения	-2319
фак	-2320
▁прошлого	-2321
▁использов	-2322
мин	-2323
▁возду	-2324
▁стоит	-2325
Ин	-2326
▁ь	-2327
▁итогам	-2328
▁количество	-2329
▁выз	-2330
зм	-2331
юз	-2332
▁совершен	-2333
жде	-2334
▁попу	-2335
▁видео	-2336
▁директор	-2337
реть	-2338
▁рынке	-2339
чества	-2340
▁род	-2341
▁трен	-2342
лением	-2343
▁деятельности	-2344
▁период	-2345
ктор	-2346
▁изд	-2347
▁разм	-2348
ленных	-2349
▁августа	-2350
▁прогно	-2351
▁миров	-2352
▁мир	-2353
▁масс	-2354
▁писа	-2355
охрани	-2356
чат	-2357
▁жа	-2358
тарь	-2359
▁две	-2360
▁оцени	-2361
.,	-2362
хран	-2363
руется	-2364
▁агентство	-2365
▁городе	-2366
нить	-2367
▁МВД	-2368
▁хотя	-2369
▁например	-2370
▁посе	-2371
▁возбу	-2372
▁пять	-2373
▁правительство	-2374
▁новый	-2375
▁рынка	-2376
▁соответству	-2377
емых	-2378
▁банк	-2379
▁получил	-2380
зин	-2381
▁возра	-2382
мом	-2383
ента	-2384
▁Его	-2385
▁отра	-2386
▁соста	-2387
хра	-2388
▁бло	-2389
▁всем	-2390
тельным	-2391
▁аэропо	-2392
▁29	-2393
▁Кар	-2394
▁чинов	-2395
етербур	-2396
ич	-2397
▁t	-2398
менти	-2399
прово	-2400
▁прин	-2401
няет	-2402
▁разре	-2403
вез	-2404
▁Бу	-2405
▁ное	-2406
▁Москов	-2407
верси	-2408
▁распро	-2409
▁которую	-2410
▁бар	-2411
▁внутрен	-2412
▁МИД	-2413
▁второй	-2414
▁поэтому	-2415
▁нефти	-2416
номо	-2417
▁находя	-2418
▁осущест	-2419
▁Иго	-2420
▁диа	-2421
▁пода	-2422
рование	-2423
лег	-2424
▁оружи	-2425
▁инициа	-2426
▁взя	-2427
-1	-2428
▁процесс	-2429
гии	-2430
▁новые	-2431
дно	-2432
первые	-2433
▁боеви	-2434
▁добавил	-2435
▁нее	-2436
ag	-2437
лой	-2438
▁нынеш	-2439
нин	-2440
шки	-2441
▁спец	-2442
▁отмечает	-2443
рева	-2444
роят	-2445
▁компаний	-2446
лки	-2447
▁подчеркнул	-2448
ница	-2449
фици	-2450
сточ	-2451
бин	-2452
▁говоря	-2453
▁позволя	-2454
ходов	-2455
▁москов	-2456
жного	-2457
скому	-2458
веден	-2459
▁Поли	-2460
▁сте	-2461
пли	-2462
льным	-2463
▁выро	-2464
▁работать	-2465
▁такие	-2466
шет	-2467
▁пово	-2468
▁должна	-2469
▁Президент	-2470
ходят	-2471
▁Согла	-2472
ссо	-2473
▁тон	-2474
ритан	-2475
▁помощи	-2476
▁полицей	-2477
жать	-2478
пов	-2479
▁созда	-2480
▁пользова	-2481
шта	-2482
чает	-2483
▁Россию	-2484
▁настоящее	-2485
кар	-2486
▁хи	-2487
▁разме	-2488
▁примен	-2489
рое	-2490
▁СК	-2491
▁ской	-2492
летний	-2493
сам	-2494
▁ним	-2495
▁систем	-2496
▁современ	-2497
▁каса	-2498
щую	-2499
▁июля	-2500
▁народ	-2501
▁проекта	-2502
сил	-2503
нице	-2504
▁уровне	-2505
▁мире	-2506
ус	-2507
вари	-2508
▁Сто	-2509
▁тяже	-2510
ые	-2511
вел	-2512
▁собы	-2513
лекана	-2514
▁данные	-2515
еди	-2516
▁возвра	-2517
чении	-2518
▁внеш	-2519
▁потреб	-2520
▁господин	-2521
▁недо	-2522
▁поскольку	-2523
дан	-2524
сить	-2525
жем	-2526
стоян	-2527
▁станет	-2528
▁Ди	-2529
▁инвест	-2530
▁гор	-2531
▁забо	-2532
▁прак	-2533
▁связ	-2534
шестви	-2535
▁Оба	-2536
▁уче	-2537
▁Глава	-2538
▁норма	-2539
▁экспо	-2540
▁совмест	-2541
юза	-2542
траф	-2543
водит	-2544
▁окон	-2545
▁кризи	-2546
неф	-2547
▁рост	-2548
▁имеет	-2549
▁миллионов	-2550
▁Федерации	-2551
боль	-2552
тайте	-2553
▁вице	-2554
▁своем	-2555
▁ничего	-2556
▁ООН	-2557
▁Украине	-2558
om	-2559
нец	-2560
тера	-2561
▁банка	-2562
прос	-2563
стой	-2564
▁тради	-2565
▁большин	-2566
ждый	-2567
▁получили	-2568
шую	-2569
▁дней	-2570
▁нашей	-2571
▁объяви	-2572
▁здоров	-2573
ум	-2574
бан	-2575
▁губерна	-2576
▁внимание	-2577
▁проблемы	-2578
%.	-2579
писал	-2580
шению	-2581
▁представля	-2582
нуть	-2583
▁выс	-2584
▁Андрей	-2585
▁состав	-2586
дия	-2587
▁правоохрани	-2588
▁одна	-2589
▁истории	-2590
▁кана	-2591
▁просмот	-2592
▁обрати	-2593
ровки	-2594
терфак	-2595
0-	-2596
кро	-2597
▁акти	-2598
▁района	-2599
▁медицин	-2600
чным	-2601
ведения	-2602
▁увеличи	-2603
▁считают	-2604
▁телекана	-2605
вока	-2606
ческая	-2607
▁ведомства	-2608
обре	-2609
▁рассказыва	-2610
▁стро	-2611
▁электро	-2612
▁полностью	-2613
На	-2614
▁жизнь	-2615
▁этому	-2616
▁кры	-2617
ходы	-2618
▁дер	-2619
▁различ	-2620
▁пят	-2621
▁добы	-2622
гру	-2623
шать	-2624
▁Европы	-2625
▁конечно	-2626
▁законопроек	-2627
▁предпринима	-2628
лана	-2629
▁мог	-2630
ниц	-2631
▁информацию	-2632
▁/	-2633
▁вза	-2634
телями	-2635
▁требу	-2636
▁понима	-2637
▁Поэтому	-2638
▁сборной	-2639
▁Глав	-2640
▁другой	-2641
дется	-2642
▁правитель	-2643
▁иску	-2644
лых	-2645
▁представ	-2646
лот	-2647
▁получить	-2648
▁транспорт	-2649
▁тому	-2650
▁связан	-2651
обще	-2652
▁бере	-2653
▁Серге	-2654
▁мощ	-2655
▁фран	-2656
▁Евг	-2657
▁коллек	-2658
▁интерес	-2659
▁программы	-2660
us	-2661
▁снизи	-2662
▁торгов	-2663
▁администрации	-2664
бро	-2665
овым	-2666
▁ская	-2667
ква	-2668
лер	-2669
▁ап	-2670
шу	-2671
▁сай	-2672
▁юри	-2673
▁НА	-2674
▁учи	-2675
▁близ	-2676
▁потом	-2677
▁ракет	-2678
форми	-2679
ol	-2680
▁постоян	-2681
ri	-2682
▁мини	-2683
▁поддержи	-2684
▁сла	-2685
▁важ	-2686
дения	-2687
▁площад	-2688
▁бизне	-2689
▁самых	-2690
еты	-2691
рошенко	-2692
▁центра	-2693
▁прошлом	-2694
▁ситуация	-2695
▁составляет	-2696
емон	-2697
▁Ста	-2698
re	-2699
▁многие	-2700
рее	-2701
▁возгла	-2702
стью	-2703
▁фун	-2704
▁весь	-2705
▁2,	-2706
▁прокура	-2707
▁неиз	-2708
▁оппози	-2709
▁0,	-2710
▁кре	-2711
▁теку	-2712
▁доступ	-2713
▁меньше	-2714
▁эффектив	-2715
собо	-2716
▁одном	-2717
▁месяцев	-2718
▁живо	-2719
ственно	-2720
▁рассмот	-2721
ion	-2722
пуск	-2723
▁бро	-2724
▁вари	-2725
▁2013	-2726
▁сами	-2727
ческим	-2728
ятся	-2729
▁министер	-2730
мар	-2731
чествен	-2732
емокра	-2733
▁началь	-2734
▁просмотров	-2735
вый	-2736
енко	-2737
обра	-2738
▁Восто	-2739
am	-2740
док	-2741
ено	-2742
▁ам	-2743
▁выра	-2744
▁мужчи	-2745
▁л	-2746
сок	-2747
▁Когда	-2748
▁войны	-2749
▁выступи	-2750
▁р	-2751
il	-2752
▁освобо	-2753
седни	-2754
▁сложно	-2755
▁службы	-2756
▁команды	-2757
▁населения	-2758
▁Международ	-2759
ленные	-2760
▁чер	-2761
мена	-2762
спек	-2763
▁восстанов	-2764
СК	-2765
тый	-2766
били	-2767
игра	-2768
тых	-2769
чая	-2770
▁ым	-2771
▁пожа	-2772
▁Мед	-2773
▁харак	-2774
▁жителей	-2775
еспубли	-2776
вестия	-2777
▁Ша	-2778
▁отв	-2779
▁налог	-2780
▁делать	-2781
щиков	-2782
▁экономики	-2783
того	-2784
▁игро	-2785
прочем	-2786
тая	-2787
el	-2788
▁неда	-2789
▁финанси	-2790
▁Тем	-2791
▁Клин	-2792
▁влия	-2793
▁цель	-2794
▁Госдумы	-2795
▁стар	-2796
▁31	-2797
▁ряд	-2798
▁След	-2799
▁участников	-2800
йн	-2801
▁цены	-2802
▁проте	-2803
▁приводит	-2804
вок	-2805
▁вне	-2806
▁един	-2807
▁группи	-2808
▁полож	-2809
▁впервые	-2810
▁россиян	-2811
▁процентов	-2812
▁практически	-2813
течествен	-2814
лети	-2815
таль	-2816
▁превы	-2817
чать	-2818
▁Ира	-2819
▁страте	-2820
▁вопросы	-2821
▁выборов	-2822
мат	-2823
▁Ал	-2824
▁возможности	-2825
▁Республи	-2826
▁пала	-2827
▁Согласно	-2828
▁професси	-2829
жета	-2830
▁заво	-2831
▁стол	-2832
град	-2833
▁ост	-2834
кими	-2835
АО	-2836
гран	-2837
▁турни	-2838
▁рейтин	-2839
▁станов	-2840
мя	-2841
лии	-2842
слам	-2843
▁ном	-2844
▁пяти	-2845
▁сторон	-2846
клад	-2847
▁поня	-2848
▁долго	-2849
▁област	-2850
▁Чер	-2851
▁начина	-2852
▁популяр	-2853
▁террористи	-2854
овом	-2855
▁гри	-2856
▁тор	-2857
▁срок	-2858
▁выборах	-2859
-2	-2860
даря	-2861
жит	-2862
▁сня	-2863
▁турец	-2864
▁ата	-2865
▁одним	-2866
▁Порошенко	-2867
раб	-2868
▁съ	-2869
лета	-2870
▁Боль	-2871
▁обвиня	-2872
▁Германии	-2873
▁наи	-2874
▁комму	-2875
зер	-2876
▁наши	-2877
▁истори	-2878
зма	-2879
рок	-2880
▁сил	-2881
ок	-2882
▁убе	-2883
▁достаточно	-2884
вью	-2885
▁край	-2886
▁отсут	-2887
сем	-2888
чис	-2889
щим	-2890
▁политики	-2891
тию	-2892
вала	-2893
▁приобре	-2894
▁предполага	-2895
здни	-2896
рина	-2897
▁заявила	-2898
кви	-2899
▁Ос	-2900
▁сотрудников	-2901
нев	-2902
ставить	-2903
▁покупа	-2904
стер	-2905
баты	-2906
тирует	-2907
▁парламента	-2908
надле	-2909
▁часов	-2910
▁меры	-2911
▁Еще	-2912
▁кни	-2913
▁источник	-2914
▁предвари	-2915
▁нико	-2916
▁кварта	-2917
▁принадле	-2918
▁таким	-2919
▁телеф	-2920
▁измени	-2921
▁ирован	-2922
▁праздни	-2923
▁промышлен	-2924
▁нефть	-2925
▁число	-2926
бир	-2927
ником	-2928
▁назвал	-2929
▁Министер	-2930
▁Россией	-2931
▁Ана	-2932
▁искус	-2933
▁незакон	-2934
▁Трамп	-2935
▁итоге	-2936
▁попро	-2937
можно	-2938
▁новой	-2939
терфакс	-2940
▁полови	-2941
▁сообщении	-2942
мир	-2943
▁дав	-2944
▁агентства	-2945
▁штраф	-2946
▁Клинтон	-2947
пор	-2948
▁интервью	-2949
шает	-2950
▁встречи	-2951
▁отправи	-2952
веро	-2953
▁принци	-2954
et	-2955
▁скоро	-2956
шить	-2957
ционной	-2958
▁несколь	-2959
▁размере	-2960
▁представители	-2961
сур	-2962
▁военно	-2963
▁пригово	-2964
▁разработ	-2965
▁Ъ	-2966
▁ЦБ	-2967
▁упа	-2968
▁люби	-2969
▁использу	-2970
▁сообщила	-2971
жей	-2972
▁Воз	-2973
▁отве	-2974
▁свидет	-2975
▁лучше	-2976
▁бюджета	-2977
▁управля	-2978
▁министра	-2979
▁35	-2980
чета	-2981
▁пси	-2982
▁собой	-2983
▁чув	-2984
▁отстав	-2985
Петербур	-2986
▁обороны	-2987
▁расши	-2988
▁центре	-2989
▁исполни	-2990
порт	-2991
▁всей	-2992
▁поте	-2993
▁Источ	-2994
Рос	-2995
лах	-2996
лекс	-2997
▁дово	-2998
▁движения	-2999
▁произошло	-3000
▁зависи	-3001
▁британ	-3002
▁капита	-3003
▁документа	-3004
▁сети	-3005
▁иностранных	-3006
▁крупней	-3007
▁российский	-3008
коб	-3009
мые	-3010
чик	-3011
▁роста	-3012
▁условиях	-3013
▁которым	-3014
▁вообще	-3015
▁уровень	-3016
ел	-3017
▁иму	-3018
▁затем	-3019
▁примерно	-3020
дев	-3021
▁Ген	-3022
▁жест	-3023
▁францу	-3024
▁российские	-3025
▁Франции	-3026
треб	-3027
▁постанов	-3028
▁обсужда	-3029
▁поне	-3030
мых	-3031
▁ском	-3032
▁Санкт	-3033
▁состо	-3034
▁данных	-3035
▁универси	-3036
лый	-3037
▁дальней	-3038
▁шо	-3039
▁неме	-3040
▁какие	-3041
▁УК	-3042
▁сф	-3043
▁прио	-3044
▁пишет	-3045
уне	-3046
доро	-3047
▁Пере	-3048
▁относи	-3049
▁спортив	-3050
▁тр	-3051
▁судеб	-3052
▁ситуацию	-3053
▁существу	-3054
Ru	-3055
▁вну	-3056
▁ожида	-3057
▁терак	-3058
▁уголовное	-3059
▁ау	-3060
▁дов	-3061
▁улице	-3062
▁каждый	-3063
вым	-3064
▁Михаил	-3065
▁помощью	-3066
▁сц	-3067
ссий	-3068
▁попы	-3069
▁призн	-3070
▁целом	-3071
раво	-3072
▁клю	-3073
▁конца	-3074
Ба	-3075
▁НАТО	-3076
▁сере	-3077
▁ремон	-3078
мб	-3079
лях	-3080
▁зар	-3081
вов	-3082
кобрит	-3083
▁своим	-3084
сро	-3085
▁физи	-3086
минист	-3087
▁двига	-3088
ционных	-3089
▁претен	-3090
▁проблем	-3091
Из	-3092
▁китай	-3093
ing	-3094
▁учре	-3095
▁часто	-3096
▁устрой	-3097
▁депутат	-3098
▁пояснил	-3099
▁заявление	-3100
▁втор	-3101
▁задержан	-3102
ic	-3103
▁дом	-3104
▁секре	-3105
▁хозяй	-3106
▁изу	-3107
▁мало	-3108
▁адвока	-3109
▁пострада	-3110
▁действительно	-3111
шка	-3112
▁Япо	-3113
▁Владимира	-3114
тили	-3115
▁встреча	-3116
▁организация	-3117
стам	-3118
▁язы	-3119
▁поме	-3120
▁первую	-3121
▁указ	-3122
▁учены	-3123
▁Великобрит	-3124
▁Российской	-3125
зор	-3126
▁3,	-3127
льная	-3128
▁худо	-3129
▁форми	-3130
▁зарпла	-3131
▁особенно	-3132
▁производства	-3133
нул	-3134
▁пись	-3135
▁рассматри	-3136
2016	-3137
▁Дон	-3138
ждает	-3139
▁либо	-3140
▁погибли	-3141
▁следует	-3142
▁государство	-3143
▁ными	-3144
▁рекомен	-3145
ктов	-3146
▁ава	-3147
▁пользу	-3148
▁обнаружи	-3149
▁поки	-3150
диви	-3151
нами	-3152
▁макси	-3153
▁совета	-3154
▁действий	-3155
сит	-3156
▁низ	-3157
▁хорошо	-3158
▁проблема	-3159
▁X	-3160
льзя	-3161
▁ведь	-3162
▁группа	-3163
▁читайте	-3164
▁сообщалось	-3165
▁Медве	-3166
▁Север	-3167
ппо	-3168
▁партнер	-3169
▁Трампа	-3170
▁первом	-3171
ционного	-3172
вли	-3173
лка	-3174
▁выда	-3175
▁голов	-3176
дим	-3177
пада	-3178
▁слож	-3179
▁фина	-3180
▁газета	-3181
▁материале	-3182
сад	-3183
▁выше	-3184
▁речь	-3185
▁система	-3186
цам	-3187
более	-3188
▁жерт	-3189
▁сель	-3190
▁какой	-3191
они	-3192
чку	-3193
щик	-3194
куп	-3195
▁лиде	-3196
▁опро	-3197
▁раск	-3198
▁комплек	-3199
▁понедель	-3200
▁мэ	-3201
▁мага	-3202
▁обору	-3203
▁поступи	-3204
клон	-3205
удов	-3206
хани	-3207
▁заявили	-3208
чено	-3209
▁помощь	-3210
ССР	-3211
зит	-3212
▁ого	-3213
▁останов	-3214
▁Впрочем	-3215
их	-3216
▁Ло	-3217
чная	-3218
▁вас	-3219
▁сли	-3220
▁O	-3221
беж	-3222
▁Re	-3223
▁тысячи	-3224
▁приходи	-3225
▁Эр	-3226
▁мас	-3227
▁рынок	-3228
▁вырази	-3229
▁ор	-3230
▁пои	-3231
▁похо	-3232
▁Путина	-3233
▁выступ	-3234
▁глу	-3235
вченко	-3236
▁вероят	-3237
▁присут	-3238
▁вели	-3239
▁отдель	-3240
▁предприятия	-3241
вар	-3242
▁сказать	-3243
скими	-3244
рыва	-3245
▁арен	-3246
▁делу	-3247
▁трав	-3248
▁проведения	-3249
пере	-3250
▁важно	-3251
ственного	-3252
▁республики	-3253
дий	-3254
тят	-3255
▁позд	-3256
тором	-3257
▁деле	-3258
▁выстав	-3259
▁стоимость	-3260
ера	-3261
▁In	-3262
▁взаимо	-3263
as	-3264
туру	-3265
▁Среди	-3266
▁Красно	-3267
▁начали	-3268
▁оказыва	-3269
▁комплекс	-3270
▁СССР	-3271
▁Источник	-3272
ксе	-3273
строи	-3274
▁Москва	-3275
▁работе	-3276
▁пятницу	-3277
▁работает	-3278
что	-3279
комп	-3280
▁барре	-3281
▁версии	-3282
▁возник	-3283
▁Федераль	-3284
▁сотрудники	-3285
ым	-3286
▁месяца	-3287
▁уверен	-3288
▁Александра	-3289
БК	-3290
оны	-3291
тник	-3292
секре	-3293
служи	-3294
▁доби	-3295
▁среду	-3296
▁посети	-3297
▁поддержа	-3298
▁подозрева	-3299
▁большой	-3300
▁камп	-3301
гна	-3302
ила	-3303
▁Ти	-3304
НР	-3305
▁ИГ	-3306
▁баз	-3307
▁ответи	-3308
▁нео	-3309
▁Крем	-3310
▁конц	-3311
▁раза	-3312
▁Игорь	-3313
тик	-3314
бороны	-3315
ou	-3316
нему	-3317
▁непо	-3318
естива	-3319
▁образования	-3320
мимо	-3321
▁Бер	-3322
▁никто	-3323
шествия	-3324
▁Дональ	-3325
%,	-3326
тей	-3327
▁уси	-3328
▁Мино	-3329
По	-3330
▁сфере	-3331
▁говорят	-3332
тел	-3333
▁Крыма	-3334
рез	-3335
▁мер	-3336
▁2012	-3337
▁наших	-3338
▁четырех	-3339
▁нач	-3340
ческое	-3341
▁серви	-3342
▁Бори	-3343
▁следова	-3344
▁интернет	-3345
▁Ну	-3346
▁опла	-3347
▁напад	-3348
▁полага	-3349
▁институ	-3350
▁наблюда	-3351
▁ООО	-3352
▁вес	-3353
▁выход	-3354
▁потеря	-3355
▁порядка	-3356
is	-3357
дение	-3358
смотря	-3359
▁закона	-3360
▁Украина	-3361
▁пенсион	-3362
▁60	-3363
▁еже	-3364
▁произошел	-3365
хе	-3366
▁миниму	-3367
▁вооружен	-3368
▁несмотря	-3369
зах	-3370
жный	-3371
▁веду	-3372
▁такое	-3373
матиче	-3374
▁имени	-3375
▁органов	-3376
▁первого	-3377
▁расположен	-3378
Мы	-3379
сп	-3380
▁огром	-3381
▁прожи	-3382
▁инвесто	-3383
▁дипло	-3384
▁самом	-3385
▁аппара	-3386
▁ребенка	-3387
роз	-3388
ници	-3389
тика	-3390
катери	-3391
лимпиа	-3392
▁согласи	-3393
рко	-3394
▁аб	-3395
лору	-3396
▁хва	-3397
зывает	-3398
▁Алеппо	-3399
▁заместитель	-3400
age	-3401
▁силы	-3402
ваются	-3403
ствует	-3404
▁такого	-3405
бора	-3406
никам	-3407
▁проводи	-3408
▁тен	-3409
▁Подроб	-3410
▁Совета	-3411
▁неболь	-3412
▁оборудов	-3413
▁изменения	-3414
вич	-3415
▁Аб	-3416
никами	-3417
▁Макси	-3418
▁Савченко	-3419
след	-3420
▁первой	-3421
▁положи	-3422
▁понедельник	-3423
вом	-3424
вого	-3425
▁собе	-3426
▁объяв	-3427
▁пропа	-3428
▁потреби	-3429
▁запрещен	-3430
▁45	-3431
ологи	-3432
шлось	-3433
▁смогут	-3434
▁вторник	-3435
▁цитирует	-3436
ace	-3437
▁The	-3438
▁сме	-3439
тивно	-3440
▁внес	-3441
▁роль	-3442
▁спу	-3443
стати	-3444
▁газа	-3445
ниципа	-3446
▁(1	-3447
▁денег	-3448
ственной	-3449
Газпро	-3450
▁допин	-3451
▁говорить	-3452
▁культуры	-3453
лок	-3454
риа	-3455
▁ВВ	-3456
▁использ	-3457
вей	-3458
▁вол	-3459
▁успеш	-3460
▁департа	-3461
▁четверг	-3462
▁электрон	-3463
▁Фото	-3464
▁ресур	-3465
▁могли	-3466
тные	-3467
▁взрыв	-3468
▁провести	-3469
ew	-3470
щу	-3471
пря	-3472
▁золо	-3473
▁обнару	-3474
▁комиссии	-3475
▁операции	-3476
кер	-3477
шинг	-3478
▁сыгра	-3479
▁форма	-3480
няется	-3481
▁валют	-3482
▁нельзя	-3483
▁стату	-3484
тельств	-3485
▁заявля	-3486
▁сохрани	-3487
▁Националь	-3488
▁нескольких	-3489
▁Новые	-3490
▁минут	-3491
пар	-3492
ями	-3493
▁обу	-3494
▁проходи	-3495
▁опубликов	-3496
ent	-3497
▁россия	-3498
▁касается	-3499
▁объяс	-3500
▁никогда	-3501
▁собеседни	-3502
▁U	-3503
▁Ча	-3504
▁ска	-3505
скрес	-3506
щается	-3507
▁данный	-3508
▁нако	-3509
▁узна	-3510
▁Таким	-3511
▁карти	-3512
▁сорев	-3513
▁Верхов	-3514
▁уровня	-3515
кса	-3516
лист	-3517
▁кате	-3518
▁являются	-3519
▁скры	-3520
▁Европе	-3521
▁строительство	-3522
бран	-3523
▁француз	-3524
▁нарушения	-3525
лга	-3526
лос	-3527
тики	-3528
▁масшта	-3529
▁некоторые	-3530
▁председатель	-3531
▁ат	-3532
▁выде	-3533
спон	-3534
▁дра	-3535
▁самолета	-3536
▁руководитель	-3537
▁Im	-3538
вшей	-3539
тива	-3540
▁выясни	-3541
▁владель	-3542
ремьер	-3543
▁конкре	-3544
▁стратеги	-3545
бай	-3546
▁предупре	-3547
▁l	-3548
риф	-3549
ссоциа	-3550
▁акции	-3551
▁преступления	-3552
▁Пи	-3553
▁пора	-3554
▁корруп	-3555
▁переговоры	-3556
тной	-3557
▁тут	-3558
▁силу	-3559
▁препара	-3560
гах	-3561
▁ран	-3562
Интерфакс	-3563
▁Известия	-3564
▁Например	-3565
▁муниципа	-3566
▁строительства	-3567
ец	-3568
▁мор	-3569
льное	-3570
Еди	-3571
▁Чи	-3572
дово	-3573
ностей	-3574
▁фонда	-3575
▁случай	-3576
▁бизнеса	-3577
▁пройдет	-3578
▁независи	-3579
емый	-3580
▁Тогда	-3581
▁задержа	-3582
▁зри	-3583
▁теа	-3584
ционный	-3585
▁список	-3586
СБ	-3587
▁км	-3588
▁ман	-3589
▁бежен	-3590
▁памят	-3591
▁находятся	-3592
▁m	-3593
▁Жи	-3594
▁функ	-3595
ческую	-3596
▁быстро	-3597
▁требования	-3598
тые	-3599
▁наро	-3600
шком	-3601
▁пес	-3602
▁особо	-3603
▁принято	-3604
АС	-3605
езда	-3606
▁инци	-3607
▁Совет	-3608
▁демокра	-3609
▁оши	-3610
▁сим	-3611
▁собра	-3612
▁перево	-3613
▁Би	-3614
▁выну	-3615
▁перс	-3616
▁органа	-3617
▁неизвест	-3618
жал	-3619
форм	-3620
▁РБК	-3621
емого	-3622
▁бывший	-3623
станавли	-3624
чит	-3625
▁ок	-3626
▁выво	-3627
▁дере	-3628
▁сумму	-3629
▁центр	-3630
▁механи	-3631
▁процен	-3632
За	-3633
▁оч	-3634
нили	-3635
▁Пес	-3636
▁сту	-3637
тельное	-3638
▁катего	-3639
▁поддержку	-3640
ЧС	-3641
анных	-3642
▁членов	-3643
сят	-3644
вров	-3645
▁пара	-3646
▁наказ	-3647
жар	-3648
рение	-3649
▁транс	-3650
▁зло	-3651
клады	-3652
▁разных	-3653
овала	-3654
▁ниже	-3655
▁Прави	-3656
▁помога	-3657
ra	-3658
пон	-3659
▁давно	-3660
▁запад	-3661
▁многих	-3662
▁мужчина	-3663
▁состоянии	-3664
гар	-3665
▁сь	-3666
▁Суд	-3667
▁кого	-3668
▁посвя	-3669
▁сопер	-3670
лда	-3671
щал	-3672
▁скан	-3673
▁Екатери	-3674
▁продолжи	-3675
лые	-3676
▁зи	-3677
зация	-3678
▁спро	-3679
▁благодаря	-3680
▁Пе	-3681
коми	-3682
▁поводу	-3683
▁самого	-3684
▁Экс	-3685
ломет	-3686
▁деву	-3687
▁цена	-3688
▁спорта	-3689
рат	-3690
▁сравнению	-3691
▁чемпионата	-3692
лл	-3693
▁d	-3694
дума	-3695
суль	-3696
▁вид	-3697
▁ото	-3698
▁2011	-3699
▁метро	-3700
▁сможет	-3701
▁согласно	-3702
сер	-3703
▁Гре	-3704
▁Пар	-3705
▁миллиона	-3706
гип	-3707
гети	-3708
▁оно	-3709
▁Андре	-3710
▁главный	-3711
▁остается	-3712
▁Гу	-3713
▁гон	-3714
▁ката	-3715
▁почему	-3716
▁направи	-3717
▁вов	-3718
▁соц	-3719
▁труд	-3720
▁готовы	-3721
дел	-3722
▁$1	-3723
полне	-3724
▁ские	-3725
▁Фи	-3726
таки	-3727
▁вся	-3728
▁воскрес	-3729
▁n	-3730
▁сих	-3731
▁коло	-3732
▁поко	-3733
▁случи	-3734
▁Минобороны	-3735
▁клуба	-3736
▁заверши	-3737
▁регионе	-3738
▁военных	-3739
▁объясни	-3740
лла	-3741
енти	-3742
▁Кри	-3743
рованы	-3744
▁полномо	-3745
реги	-3746
чном	-3747
▁иру	-3748
▁упо	-3749
▁самым	-3750
▁составе	-3751
ir	-3752
▁ори	-3753
▁свет	-3754
▁выборы	-3755
▁административ	-3756
▁Раз	-3757
▁ядер	-3758
▁Image	-3759
▁проведен	-3760
▁организаций	-3761
ющая	-3762
▁тан	-3763
▁километ	-3764
▁соглашения	-3765
лн	-3766
нюю	-3767
каде	-3768
▁МЧС	-3769
ждено	-3770
▁лица	-3771
министр	-3772
▁продукции	-3773
ляции	-3774
▁пору	-3775
▁суббо	-3776
▁практи	-3777
▁столич	-3778
▁принять	-3779
▁Подробнее	-3780
ТП	-3781
ланд	-3782
сток	-3783
▁бой	-3784
▁вам	-3785
▁2018	-3786
служба	-3787
ху	-3788
гре	-3789
▁спра	-3790
▁рубля	-3791
▁семей	-3792
▁достиг	-3793
▁эксперт	-3794
▁деятельность	-3795
ньше	-3796
▁сама	-3797
▁Теперь	-3798
▁результаты	-3799
▁жел	-3800
▁нуж	-3801
ведли	-3802
▁девя	-3803
▁ключе	-3804
▁высоко	-3805
▁мигран	-3806
▁Кур	-3807
▁потен	-3808
▁процеду	-3809
▁депутатов	-3810
▁500	-3811
▁студ	-3812
ческом	-3813
▁отмен	-3814
▁воздуш	-3815
▁подпис	-3816
▁уничто	-3817
ственный	-3818
▁бывшего	-3819
▁сообщается	-3820
▁70	-3821
▁ах	-3822
креп	-3823
▁наш	-3824
▁марш	-3825
▁Донба	-3826
ральный	-3827
▁Вашинг	-3828
тья	-3829
▁каждо	-3830
▁магази	-3831
ференции	-3832
▁Рос	-3833
▁шан	-3834
▁судь	-3835
службе	-3836
▁победи	-3837
▁раньше	-3838
▁представителей	-3839
ia	-3840
▁Коми	-3841
▁улуч	-3842
▁месяц	-3843
▁молоде	-3844
▁никаких	-3845
▁использовать	-3846
леко	-3847
▁любо	-3848
чев	-3849
щать	-3850
анитар	-3851
▁корпо	-3852
▁условия	-3853
секретарь	-3854
▁президентом	-3855
▁демон	-3856
▁метров	-3857
▁отношений	-3858
▁автомобилей	-3859
сон	-3860
менты	-3861
▁ских	-3862
▁немец	-3863
▁заболев	-3864
ону	-3865
▁вчера	-3866
▁комитет	-3867
▁соревнов	-3868
▁K	-3869
новь	-3870
▁Лон	-3871
▁охра	-3872
шением	-3873
▁перио	-3874
▁доказа	-3875
▁осуществля	-3876
▁инфра	-3877
▁позиции	-3878
▁разрабо	-3879
▁рассчиты	-3880
▁парламент	-3881
▁пригла	-3882
▁аналоги	-3883
▁Представи	-3884
ствуют	-3885
▁арест	-3886
▁рекла	-3887
▁услуг	-3888
сколько	-3889
▁Песков	-3890
▁алкого	-3891
ed	-3892
чное	-3893
▁кой	-3894
▁най	-3895
▁Сергея	-3896
ПР	-3897
▁Вол	-3898
▁Интер	-3899
▁приве	-3900
▁скорее	-3901
▁слишком	-3902
▁энергети	-3903
pp	-3904
▁куда	-3905
▁тонн	-3906
▁плате	-3907
▁Евросо	-3908
▁недели	-3909
▁сегодняш	-3910
нию	-3911
▁той	-3912
тации	-3913
▁жела	-3914
▁совсем	-3915
▁наиболее	-3916
▁придется	-3917
юсь	-3918
▁ск	-3919
лять	-3920
▁одоб	-3921
▁свободы	-3922
▁Петербур	-3923
▁автомобиль	-3924
▁4,	-3925
▁роли	-3926
▁всю	-3927
▁невоз	-3928
▁выигра	-3929
▁Фе	-3930
емся	-3931
поли	-3932
телю	-3933
▁опыт	-3934
▁властей	-3935
▁эксперты	-3936
▁переговоров	-3937
▁Ге	-3938
вшим	-3939
одно	-3940
▁мед	-3941
▁июня	-3942
▁годов	-3943
смотрен	-3944
▁санкции	-3945
▁полномочи	-3946
▁происходит	-3947
росс	-3948
циона	-3949
▁очевид	-3950
ИК	-3951
единен	-3952
▁напо	-3953
рабаты	-3954
▁зрения	-3955
▁максима	-3956
▁существен	-3957
мый	-3958
▁тю	-3959
▁найти	-3960
▁поста	-3961
▁партий	-3962
▁фестива	-3963
летов	-3964
▁Олег	-3965
▁десяти	-3966
▁Государ	-3967
жает	-3968
чению	-3969
▁иска	-3970
▁фоне	-3971
▁вполне	-3972
▁инфраструк	-3973
un	-3974
декс	-3975
▁меж	-3976
▁Амери	-3977
▁нефте	-3978
ременно	-3979
рального	-3980
▁свидетель	-3981
эн	-3982
пить	-3983
▁198	-3984
▁покуп	-3985
▁прежде	-3986
▁декабре	-3987
▁фотографи	-3988
▁профессиональ	-3989
:00	-3990
▁Лондо	-3991
▁матча	-3992
▁воскресень	-3993
бере	-3994
▁борьбе	-3995
▁Олимпиа	-3996
▁странах	-3997
▁коммента	-3998
оз	-3999
▁80	-4000
дента	-4001
Роснеф	-4002
▁активно	-4003
▁страхов	-4004
▁оказался	-4005
▁сет	-4006
мотря	-4007
▁снова	-4008
▁команда	-4009
▁объектов	-4010
ясь	-4011
▁300	-4012
▁края	-4013
спекти	-4014
▁обязан	-4015
ook	-4016
рого	-4017
чную	-4018
▁восто	-4019
▁будем	-4020
▁вновь	-4021
▁Алексе	-4022
▁рабочи	-4023
▁продажи	-4024
▁Аф	-4025
▁факту	-4026
▁шесть	-4027
▁дороги	-4028
▁написал	-4029
▁господина	-4030
вета	-4031
вили	-4032
▁Джон	-4033
▁акций	-4034
▁напом	-4035
▁большо	-4036
▁фильма	-4037
▁конкурен	-4038
▁директора	-4039
▁Аль	-4040
▁Иван	-4041
▁o	-4042
гры	-4043
▁Ст	-4044
▁сом	-4045
▁фир	-4046
солют	-4047
▁шест	-4048
▁Евгений	-4049
▁вопросам	-4050
▁национальной	-4051
зем	-4052
▁фонд	-4053
▁машины	-4054
▁автомобиля	-4055
Мо	-4056
▁Кер	-4057
разде	-4058
▁слов	-4059
▁коммер	-4060
▁маршру	-4061
▁архи	-4062
▁фору	-4063
▁реализации	-4064
▁район	-4065
▁мероприятия	-4066
▁моби	-4067
▁имеют	-4068
▁обстоя	-4069
▁заседании	-4070
▁Российская	-4071
▁информация	-4072
▁Великобритании	-4073
банк	-4074
▁широ	-4075
▁колле	-4076
▁прием	-4077
▁точки	-4078
▁следствия	-4079
лами	-4080
▁вспо	-4081
▁прось	-4082
▁радио	-4083
ствовал	-4084
▁здания	-4085
вии	-4086
▁гаран	-4087
▁председателя	-4088
ина	-4089
стом	-4090
▁свобод	-4091
▁предостав	-4092
▁школы	-4093
ww	-4094
РИА	-4095
ехал	-4096
▁Киев	-4097
▁крае	-4098
честве	-4099
▁фильм	-4100
▁планирует	-4101
▁экономического	-4102
леты	-4103
ющее	-4104
личие	-4105
▁отчет	-4106
▁санкций	-4107
▁утвержда	-4108
30	-4109
дирек	-4110
ченных	-4111
▁Китай	-4112
гер	-4113
чай	-4114
▁Наде	-4115
▁желез	-4116
▁целью	-4117
▁юриди	-4118
▁попыт	-4119
▁хочет	-4120
ционные	-4121
бло	-4122
сах	-4123
енса	-4124
мень	-4125
▁семьи	-4126
▁пришлось	-4127
▁Ив	-4128
щена	-4129
▁тек	-4130
▁январе	-4131
▁разгово	-4132
▁документы	-4133
▁отечествен	-4134
▁мета	-4135
▁Всего	-4136
жествен	-4137
▁сю	-4138
▁Поль	-4139
▁фигу	-4140
▁преды	-4141
▁сказала	-4142
лоб	-4143
▁Поч	-4144
▁смы	-4145
▁Крым	-4146
▁порта	-4147
▁b	-4148
груз	-4149
Ислам	-4150
▁мето	-4151
пред	-4152
▁ДТП	-4153
▁Оль	-4154
▁озна	-4155
▁обнаружен	-4156
кобы	-4157
круг	-4158
строен	-4159
▁Болга	-4160
▁конструк	-4161
▁процента	-4162
▁воскресенье	-4163
▁предложения	-4164
ap	-4165
▁Май	-4166
▁Комп	-4167
▁нарко	-4168
▁самый	-4169
▁олимпий	-4170
▁предыду	-4171
▁заявления	-4172
▁документов	-4173
дя	-4174
жные	-4175
▁сть	-4176
стями	-4177
▁Лени	-4178
▁Минэ	-4179
▁коро	-4180
▁реда	-4181
▁самой	-4182
▁режима	-4183
▁развитие	-4184
▁p	-4185
▁00	-4186
ждении	-4187
▁знако	-4188
тельную	-4189
▁планируется	-4190
▁производство	-4191
туре	-4192
рания	-4193
начала	-4194
▁сильно	-4195
▁культур	-4196
▁работают	-4197
▁32	-4198
▁Бар	-4199
▁рядом	-4200
▁предусмотрен	-4201
рос	-4202
ссер	-4203
▁доб	-4204
▁смерти	-4205
▁систему	-4206
▁стандар	-4207
▁станции	-4208
▁распростран	-4209
▁дли	-4210
▁кад	-4211
▁доме	-4212
▁скую	-4213
▁принял	-4214
▁рассказывает	-4215
пан	-4216
конча	-4217
▁друг	-4218
▁курс	-4219
▁молоды	-4220
▁Европей	-4221
йдут	-4222
▁вече	-4223
▁дети	-4224
▁нало	-4225
▁профи	-4226
▁женщина	-4227
▁дево	-4228
▁коле	-4229
▁одну	-4230
▁организ	-4231
дор	-4232
▁ут	-4233
▁дво	-4234
зацию	-4235
служа	-4236
▁спаса	-4237
раи	-4238
езде	-4239
▁Там	-4240
▁психо	-4241
▁внутри	-4242
▁зареги	-4243
▁Николай	-4244
▁перевоз	-4245
▁зарегистри	-4246
▁неу	-4247
▁тай	-4248
фикси	-4249
▁Юрий	-4250
▁оружия	-4251
▁состоится	-4252
город	-4253
▁степ	-4254
▁домаш	-4255
▁матче	-4256
ый	-4257
вин	-4258
либо	-4259
▁зап	-4260
▁приняли	-4261
мую	-4262
▁автобу	-4263
▁участия	-4264
его	-4265
▁воды	-4266
▁умер	-4267
▁захва	-4268
▁контроли	-4269
▁большинство	-4270
тым	-4271
▁ке	-4272
▁све	-4273
▁карь	-4274
▁армии	-4275
▁прокуро	-4276
▁столицы	-4277
▁некоторых	-4278
▁неделе	-4279
щер	-4280
▁ву	-4281
▁выгля	-4282
▁линии	-4283
защи	-4284
вшись	-4285
▁Пари	-4286
▁ночь	-4287
▁годах	-4288
▁плана	-4289
▁равно	-4290
▁говорил	-4291
▁площади	-4292
▁довольно	-4293
▁получила	-4294
▁("	-4295
рота	-4296
тный	-4297
▁космо	-4298
▁жители	-4299
ch	-4300
лье	-4301
вори	-4302
▁оде	-4303
▁запи	-4304
▁твор	-4305
▁активи	-4306
▁предложил	-4307
▁результат	-4308
▁соответствии	-4309
гом	-4310
▁порт	-4311
▁свер	-4312
ленный	-4313
сматри	-4314
▁поддержки	-4315
▁Мир	-4316
чиков	-4317
▁отды	-4318
▁марте	-4319
летнего	-4320
▁значит	-4321
▁минимум	-4322
пру	-4323
фина	-4324
▁игры	-4325
москов	-4326
▁регули	-4327
▁включая	-4328
Ка	-4329
▁J	-4330
ваем	-4331
льную	-4332
▁зару	-4333
ровано	-4334
▁замети	-4335
▁первые	-4336
▁законопроект	-4337
gh	-4338
im	-4339
щает	-4340
▁Гри	-4341
льном	-4342
мести	-4343
▁нефтя	-4344
▁Медведев	-4345
▁агре	-4346
▁посо	-4347
▁лицен	-4348
▁якобы	-4349
▁женщин	-4350
▁защиты	-4351
▁конфликта	-4352
Са	-4353
тим	-4354
▁мере	-4355
▁награ	-4356
▁соблю	-4357
▁зафикси	-4358
▁составила	-4359
енты	-4360
▁вет	-4361
▁реак	-4362
▁встрече	-4363
▁регионов	-4364
бка	-4365
лян	-4366
емые	-4367
роде	-4368
▁Брю	-4369
▁Гор	-4370
▁зву	-4371
▁возглавля	-4372
▁отмечается	-4373
дро	-4374
шил	-4375
тного	-4376
▁Face	-4377
▁союз	-4378
▁абсолют	-4379
▁регуляр	-4380
▁боевиков	-4381
▁невозможно	-4382
▁необходимости	-4383
СКА	-4384
мым	-4385
тек	-4386
стру	-4387
анные	-4388
▁поле	-4389
▁микро	-4390
▁остан	-4391
▁позволит	-4392
▁транспорта	-4393
.00	-4394
▁Вот	-4395
годно	-4396
россий	-4397
▁допусти	-4398
▁рассказала	-4399
▁5,	-4400
▁Рио	-4401
▁СКР	-4402
▁факт	-4403
▁начал	-4404
▁основе	-4405
▁подразде	-4406
▁перспекти	-4407
▁эко	-4408
▁корре	-4409
▁ликви	-4410
▁военнослужа	-4411
▁исследования	-4412
ьера	-4413
обнов	-4414
▁запа	-4415
▁клуб	-4416
▁пути	-4417
интере	-4418
▁Более	-4419
▁социальной	-4420
▁Y	-4421
тал	-4422
▁хок	-4423
▁выдви	-4424
▁легко	-4425
▁проком	-4426
▁решили	-4427
▁Информа	-4428
▁прокомменти	-4429
book	-4430
щему	-4431
▁отмечают	-4432
▁расследования	-4433
▁взгля	-4434
ционное	-4435
▁причаст	-4436
▁ответственности	-4437
ay	-4438
лод	-4439
сия	-4440
▁36	-4441
▁Кие	-4442
▁заме	-4443
▁Отмеча	-4444
▁вокруг	-4445
▁распоря	-4446
▁рассказали	-4447
ледова	-4448
▁преде	-4449
▁содерж	-4450
▁ближайшее	-4451
лам	-4452
лил	-4453
▁тро	-4454
печат	-4455
▁Один	-4456
▁прямо	-4457
▁размер	-4458
▁театра	-4459
дам	-4460
▁циф	-4461
▁Саудов	-4462
▁создать	-4463
▁субботу	-4464
▁Facebook	-4465
▁сайт	-4466
▁стоя	-4467
▁середи	-4468
▁привлека	-4469
:1	-4470
так	-4471
лень	-4472
чили	-4473
▁ось	-4474
анной	-4475
чается	-4476
▁предъ	-4477
▁стади	-4478
▁сцена	-4479
▁неодно	-4480
▁Констан	-4481
▁столице	-4482
▁составил	-4483
Ру	-4484
мур	-4485
▁реа	-4486
▁ЦСКА	-4487
▁Арави	-4488
▁гости	-4489
▁лекар	-4490
▁общей	-4491
▁погибших	-4492
▁Пока	-4493
▁соглашение	-4494
ЭС	-4495
▁90	-4496
▁ФСБ	-4497
▁обнов	-4498
▁топли	-4499
▁Именно	-4500
▁неделю	-4501
▁оказались	-4502
▁участники	-4503
пит	-4504
▁Мат	-4505
▁путе	-4506
▁Виктор	-4507
▁основном	-4508
▁Без	-4509
▁Есть	-4510
▁винов	-4511
▁напря	-4512
тической	-4513
▁возобнов	-4514
▁кредитов	-4515
бри	-4516
▁уво	-4517
▁Вале	-4518
▁Этот	-4519
▁любой	-4520
▁режим	-4521
▁Москву	-4522
▁Ростов	-4523
▁мировой	-4524
▁указыва	-4525
:0	-4526
мия	-4527
сной	-4528
стям	-4529
питали	-4530
▁Олимпий	-4531
▁определи	-4532
мор	-4533
ально	-4534
▁ними	-4535
▁связа	-4536
▁знамени	-4537
тит	-4538
нении	-4539
▁арти	-4540
▁подряд	-4541
ственных	-4542
▁призвал	-4543
▁обвинения	-4544
▁Й	-4545
▁Чу	-4546
▁уви	-4547
▁феврале	-4548
▁контроль	-4549
▁проектов	-4550
▁взаимодей	-4551
пел	-4552
▁эпи	-4553
▁цвет	-4554
▁самое	-4555
▁сделал	-4556
▁пассажиров	-4557
▁a	-4558
волю	-4559
овое	-4560
▁уре	-4561
▁ское	-4562
▁удов	-4563
▁экстре	-4564
гой	-4565
▁Бан	-4566
битра	-4567
▁снижение	-4568
▁департамента	-4569
com	-4570
▁Чтобы	-4571
▁усили	-4572
▁33	-4573
▁пак	-4574
ждены	-4575
Извести	-4576
▁удовлет	-4577
▁инициати	-4578
▁совершенно	-4579
")	-4580
нял	-4581
▁яв	-4582
ters	-4583
емой	-4584
▁логи	-4585
▁паци	-4586
ставили	-4587
▁вступи	-4588
▁авиакомп	-4589
буд	-4590
▁(2	-4591
▁мин	-4592
▁геро	-4593
▁разру	-4594
▁музыка	-4595
▁обстре	-4596
▁техники	-4597
▁которому	-4598
▁российским	-4599
бил	-4600
▁1,5	-4601
▁Соб	-4602
▁цер	-4603
▁Егип	-4604
Россия	-4605
тивных	-4606
▁косми	-4607
▁пообе	-4608
джи	-4609
тает	-4610
▁бума	-4611
ставил	-4612
▁поезд	-4613
▁такая	-4614
▁хотят	-4615
▁возбуждено	-4616
▁руководство	-4617
op	-4618
▁Нов	-4619
мость	-4620
▁сожа	-4621
▁публика	-4622
▁постоянно	-4623
▁сообщения	-4624
▁Отмечается	-4625
зей	-4626
вался	-4627
▁учетом	-4628
▁недоста	-4629
▁сентябре	-4630
▁7,	-4631
▁нан	-4632
▁эфи	-4633
▁чуть	-4634
альной	-4635
тельная	-4636
▁уголовного	-4637
▁ответственность	-4638
ut	-4639
сен	-4640
ствов	-4641
▁дове	-4642
▁патри	-4643
▁точно	-4644
▁журналистов	-4645
▁спортсменов	-4646
ъек	-4647
кипа	-4648
▁гре	-4649
▁масштаб	-4650
▁голосования	-4651
лота	-4652
▁гол	-4653
▁выбра	-4654
▁худож	-4655
▁превра	-4656
▁международных	-4657
▁+	-4658
дца	-4659
кли	-4660
▁Ад	-4661
гули	-4662
лить	-4663
рост	-4664
▁гум	-4665
движи	-4666
жнему	-4667
чением	-4668
▁пожар	-4669
▁вместо	-4670
▁своими	-4671
▁энерго	-4672
▁недвижи	-4673
чью	-4674
▁Ско	-4675
рация	-4676
ходить	-4677
▁беспо	-4678
▁верто	-4679
▁потер	-4680
▁страх	-4681
гор	-4682
лиги	-4683
▁Нью	-4684
анный	-4685
▁испыт	-4686
▁Японии	-4687
▁область	-4688
▁тол	-4689
ждений	-4690
▁Обама	-4691
▁сторону	-4692
▁беженцев	-4693
▁кандидатов	-4694
▁становится	-4695
▁официальный	-4696
▁Дру	-4697
▁дать	-4698
▁болез	-4699
▁военные	-4700
▁темпера	-4701
▁197	-4702
страи	-4703
▁брен	-4704
▁друга	-4705
▁ноябре	-4706
▁смогли	-4707
▁водитель	-4708
▁федерального	-4709
лад	-4710
▁37	-4711
▁ше	-4712
▁App	-4713
▁концер	-4714
▁баррель	-4715
смо	-4716
восто	-4717
▁соцс	-4718
▁зво	-4719
жений	-4720
▁создание	-4721
▁види	-4722
службы	-4723
▁каких	-4724
▁машин	-4725
▁Белору	-4726
▁Их	-4727
кнов	-4728
куль	-4729
▁Вто	-4730
▁сма	-4731
▁ряда	-4732
▁победу	-4733
▁договорен	-4734
ФА	-4735
▁Кор	-4736
▁Кали	-4737
▁утра	-4738
ментов	-4739
есмотря	-4740
спондент	-4741
▁отметили	-4742
▁позволяет	-4743
▁Сам	-4744
стами	-4745
▁кров	-4746
кануне	-4747
▁показ	-4748
▁сконча	-4749
▁Министр	-4750
▁полиция	-4751
▁накануне	-4752
ur	-4753
ДД	-4754
чика	-4755
▁системе	-4756
▁заинтере	-4757
▁простран	-4758
50	-4759
циях	-4760
▁люд	-4761
▁рекорд	-4762
▁октябре	-4763
▁граждани	-4764
▁депутаты	-4765
up	-4766
▁6,	-4767
▁Ши	-4768
арди	-4769
▁Хил	-4770
▁мой	-4771
▁заве	-4772
▁ущер	-4773
▁плохо	-4774
▁присо	-4775
▁протя	-4776
▁самые	-4777
▁органы	-4778
▁комменти	-4779
▁проходит	-4780
▁приходится	-4781
КО	-4782
нах	-4783
щены	-4784
▁отли	-4785
▁проз	-4786
▁акаде	-4787
▁достав	-4788
▁Конечно	-4789
▁распростра	-4790
мей	-4791
▁Спе	-4792
▁стаби	-4793
▁Лавров	-4794
▁издание	-4795
▁должность	-4796
▁комплекса	-4797
▁различных	-4798
▁e	-4799
тни	-4800
▁Эрдо	-4801
▁Итали	-4802
▁Госдуму	-4803
▁сократи	-4804
ющем	-4805
▁Даль	-4806
▁море	-4807
тальян	-4808
▁десят	-4809
▁оконча	-4810
вшая	-4811
тным	-4812
▁реша	-4813
▁делега	-4814
▁матч	-4815
▁фрак	-4816
▁фрон	-4817
минает	-4818
▁Бывший	-4819
▁борьбы	-4820
▁характер	-4821
▁официально	-4822
▁представителя	-4823
▁дни	-4824
▁адрес	-4825
▁вариан	-4826
▁страну	-4827
▁ОП	-4828
▁вд	-4829
деть	-4830
▁бал	-4831
▁думаю	-4832
▁решил	-4833
▁шести	-4834
▁сохран	-4835
▁персона	-4836
▁проверки	-4837
▁республикан	-4838
ot	-4839
вто	-4840
емь	-4841
лым	-4842
рел	-4843
▁ГУ	-4844
няют	-4845
рили	-4846
стаи	-4847
▁Побе	-4848
▁могу	-4849
▁Помимо	-4850
прежнему	-4851
▁продолжает	-4852
дний	-4853
▁сена	-4854
▁развед	-4855
▁сколько	-4856
▁финансов	-4857
иму	-4858
чив	-4859
чин	-4860
▁Reu	-4861
▁апреле	-4862
▁Reuters	-4863
▁провели	-4864
▁Пав	-4865
▁гро	-4866
▁докла	-4867
▁военного	-4868
-201	-4869
роне	-4870
▁нега	-4871
▁вести	-4872
▁женщины	-4873
▁подтвердил	-4874
нд	-4875
анам	-4876
▁история	-4877
▁крупных	-4878
▁яр	-4879
▁зай	-4880
ровер	-4881
▁Прав	-4882
▁злоу	-4883
▁смот	-4884
▁провод	-4885
▁тренер	-4886
ссоциации	-4887
▁регистра	-4888
▁последнее	-4889
лив	-4890
поль	-4891
▁меч	-4892
▁сне	-4893
▁час	-4894
▁Сооб	-4895
▁раст	-4896
ционно	-4897
▁Китая	-4898
▁главе	-4899
▁групп	-4900
ad	-4901
os	-4902
рье	-4903
банка	-4904
▁ауди	-4905
▁бога	-4906
▁боле	-4907
кратно	-4908
▁сложи	-4909
▁сутки	-4910
▁остров	-4911
лари	-4912
▁музе	-4913
▁сове	-4914
ложения	-4915
▁дальше	-4916
▁сезона	-4917
▁заплани	-4918
▁обслужи	-4919
▁руководителя	-4920
кура	-4921
лайн	-4922
вались	-4923
▁задол	-4924
▁летом	-4925
▁сезон	-4926
▁втором	-4927
новременно	-4928
щики	-4929
альных	-4930
▁труда	-4931
▁события	-4932
▁содержа	-4933
▁отметила	-4934
▁Московской	-4935
▁американских	-4936
вит	-4937
едь	-4938
шев	-4939
▁уро	-4940
▁Кара	-4941
▁учиты	-4942
▁военной	-4943
ub	-4944
▁супру	-4945
▁экспе	-4946
▁вечером	-4947
▁недавно	-4948
▁приостанов	-4949
оло	-4950
цем	-4951
преде	-4952
▁Сочи	-4953
▁Стра	-4954
▁века	-4955
ющихся	-4956
▁Вмест	-4957
▁мошен	-4958
▁команду	-4959
▁признал	-4960
▁расходы	-4961
▁Несмотря	-4962
▁катастро	-4963
▁управление	-4964
▁визи	-4965
▁симво	-4966
▁беспла	-4967
▁здраво	-4968
▁служба	-4969
▁подписа	-4970
▁родствен	-4971
▁самостоя	-4972
ews	-4973
▁бен	-4974
▁вод	-4975
▁рав	-4976
▁Пути	-4977
▁опти	-4978
▁преиму	-4979
▁выразил	-4980
▁урегули	-4981
▁главного	-4982
▁кампании	-4983
▁назначен	-4984
▁политике	-4985
▁посвящен	-4986
▁Гру	-4987
▁ков	-4988
▁учеб	-4989
▁причиной	-4990
▁губернатора	-4991
2%	-4992
луа	-4993
вить	-4994
▁ась	-4995
анией	-4996
▁япон	-4997
правки	-4998
▁Apple	-4999
▁банки	-5000
▁домов	-5001
▁доход	-5002
ложение	-5003
▁Максим	-5004
▁модели	-5005
▁причина	-5006
▁террористов	-5007
▁происшествия	-5008
лий	-5009
▁войск	-5010
▁Хиллари	-5011
▁местных	-5012
▁договори	-5013
▁общества	-5014
▁расследование	-5015
▁ем	-5016
рели	-5017
▁Зем	-5018
▁бир	-5019
▁шах	-5020
зербай	-5021
▁Вчера	-5022
▁выска	-5023
▁нашли	-5024
▁регионах	-5025
Во	-5026
НД	-5027
▁34	-5028
▁38	-5029
▁Свет	-5030
▁акци	-5031
▁бомб	-5032
зывают	-5033
▁грузов	-5034
чек	-5035
▁Куз	-5036
▁ова	-5037
▁делам	-5038
▁держа	-5039
▁резер	-5040
▁добычи	-5041
▁кризиса	-5042
▁программу	-5043
▁предприятий	-5044
▁поло	-5045
▁Елена	-5046
▁всему	-5047
▁кораб	-5048
▁партия	-5049
▁государств	-5050
▁существует	-5051
шал	-5052
▁196	-5053
ритет	-5054
▁Само	-5055
▁новую	-5056
▁трени	-5057
▁нашего	-5058
▁устрои	-5059
тельству	-5060
▁встрети	-5061
онец	-5062
▁194	-5063
▁кроме	-5064
▁программа	-5065
▁государственной	-5066
дают	-5067
лдин	-5068
скор	-5069
шему	-5070
ющую	-5071
▁гот	-5072
щаться	-5073
▁первым	-5074
▁другими	-5075
люс	-5076
рай	-5077
▁Эти	-5078
▁Госпо	-5079
▁Основ	-5080
▁иметь	-5081
▁коали	-5082
▁экипа	-5083
чительно	-5084
▁гуманитар	-5085
▁определен	-5086
▁экспертов	-5087
▁предусматри	-5088
Это	-5089
▁Вя	-5090
бург	-5091
гами	-5092
▁ному	-5093
▁выбор	-5094
▁дерев	-5095
▁провел	-5096
▁использова	-5097
▁группировки	-5098
зий	-5099
▁уг	-5100
▁2008	-5101
▁Экспер	-5102
▁первых	-5103
▁поступа	-5104
▁референ	-5105
▁экстреми	-5106
▁регионального	-5107
нется	-5108
▁лично	-5109
▁подня	-5110
▁пересе	-5111
▁момента	-5112
▁предложение	-5113
▁сотрудничества	-5114
лец	-5115
ртф	-5116
▁ощу	-5117
ктора	-5118
нести	-5119
▁Анка	-5120
▁ским	-5121
▁модель	-5122
▁помочь	-5123
▁издания	-5124
▁заседания	-5125
▁принадлежа	-5126
ген	-5127
купа	-5128
циям	-5129
▁Мне	-5130
говой	-5131
стров	-5132
▁жало	-5133
зирован	-5134
ствовали	-5135
гин	-5136
▁затра	-5137
▁рождения	-5138
ТБ	-5139
око	-5140
охран	-5141
▁дает	-5142
▁тариф	-5143
▁провин	-5144
▁университета	-5145
▁мно	-5146
▁ред	-5147
еремо	-5148
▁жили	-5149
▁непри	-5150
▁привы	-5151
▁введен	-5152
▁прошед	-5153
▁задержали	-5154
под	-5155
▁ул	-5156
▁000	-5157
▁старт	-5158
▁Всемир	-5159
▁изобра	-5160
▁раскры	-5161
▁Мурманск	-5162
гал	-5163
спи	-5164
ваку	-5165
▁Хот	-5166
ложил	-5167
▁Дени	-5168
▁боро	-5169
▁чаще	-5170
▁Власти	-5171
ght	-5172
Зени	-5173
снов	-5174
шкин	-5175
щению	-5176
▁десять	-5177
▁основа	-5178
▁пит	-5179
тории	-5180
▁выру	-5181
▁гибе	-5182
▁эксп	-5183
▁сохра	-5184
▁строй	-5185
▁Первый	-5186
▁написа	-5187
▁должности	-5188
▁принимать	-5189
▁сх	-5190
▁роз	-5191
▁взят	-5192
▁жить	-5193
льской	-5194
▁Павел	-5195
▁ресто	-5196
▁найден	-5197
▁Болгарии	-5198
▁аэропорта	-5199
▁ев	-5200
▁Ком	-5201
образ	-5202
▁Кита	-5203
▁Рабо	-5204
▁Хотя	-5205
▁Казах	-5206
▁владе	-5207
▁структуры	-5208
▁обнаружили	-5209
▁Кан	-5210
декса	-5211
ловно	-5212
▁удоб	-5213
Спарта	-5214
▁воспо	-5215
▁прошли	-5216
ственные	-5217
▁создания	-5218
эт	-5219
жеб	-5220
▁ая	-5221
▁Сбер	-5222
▁Правда	-5223
▁крайне	-5224
▁партне	-5225
фин	-5226
менте	-5227
▁Петр	-5228
▁круг	-5229
▁огня	-5230
▁Донец	-5231
▁укреп	-5232
▁умень	-5233
▁подвер	-5234
▁товаров	-5235
ряс	-5236
риев	-5237
▁обще	-5238
▁малень	-5239
▁министерства	-5240
▁экономической	-5241
АЗ	-5242
Йор	-5243
хан	-5244
хар	-5245
▁лу	-5246
▁Васи	-5247
▁отре	-5248
ральной	-5249
▁ставки	-5250
▁сообщал	-5251
▁контроля	-5252
DA	-5253
таря	-5254
▁замет	-5255
▁стати	-5256
фикации	-5257
▁житель	-5258
▁кризис	-5259
▁Американ	-5260
▁мигрантов	-5261
яр	-5262
Ком	-5263
лке	-5264
зыск	-5265
ляет	-5266
едини	-5267
▁Гене	-5268
▁Многи	-5269
▁обмен	-5270
Газпром	-5271
▁гендирек	-5272
▁отставку	-5273
▁состояние	-5274
наб	-5275
рица	-5276
▁компью	-5277
▁понять	-5278
▁ближайшие	-5279
▁последний	-5280
ьев	-5281
▁лен	-5282
▁2010	-5283
▁каза	-5284
▁чрез	-5285
ложить	-5286
ровала	-5287
▁марки	-5288
▁разде	-5289
▁утром	-5290
▁избран	-5291
ственным	-5292
▁историю	-5293
▁кажется	-5294
▁значительно	-5295
-3	-5296
КС	-5297
кло	-5298
нос	-5299
мули	-5300
васто	-5301
▁Ведь	-5302
▁вось	-5303
▁числа	-5304
рованию	-5305
▁мнение	-5306
▁попыта	-5307
▁смартф	-5308
▁журналистам	-5309
▁июле	-5310
▁подроб	-5311
роваться	-5312
смотреть	-5313
▁августе	-5314
▁будущем	-5315
▁оператив	-5316
▁расходов	-5317
тр	-5318
вил	-5319
▁ВВП	-5320
▁ува	-5321
▁Ната	-5322
▁повед	-5323
▁Иванов	-5324
▁общего	-5325
▁сче	-5326
▁Кана	-5327
▁Италии	-5328
▁статье	-5329
▁работал	-5330
▁телефон	-5331
▁футболи	-5332
▁специалисты	-5333
▁американского	-5334
НДР	-5335
▁пом	-5336
жению	-5337
жением	-5338
▁Татья	-5339
▁эваку	-5340
▁прошел	-5341
▁Дмитрия	-5342
▁условий	-5343
тического	-5344
▁движение	-5345
▁компенса	-5346
▁программ	-5347
▁оказалось	-5348
▁программе	-5349
АН	-5350
ъем	-5351
▁Вяче	-5352
▁Крыму	-5353
▁намерен	-5354
▁территорию	-5355
▁ий	-5356
акан	-5357
▁Мер	-5358
раздо	-5359
▁избе	-5360
▁отказ	-5361
▁снима	-5362
▁войска	-5363
▁восемь	-5364
▁субъек	-5365
▁вопросов	-5366
▁документ	-5367
▁Республики	-5368
▁мае	-5369
▁плат	-5370
▁цели	-5371
▁последних	-5372
▁здравоохран	-5373
выше	-5374
гент	-5375
поте	-5376
чений	-5377
Единой	-5378
ведение	-5379
▁зарабо	-5380
зербайдж	-5381
▁отказался	-5382
▁политической	-5383
▁f	-5384
▁оз	-5385
▁Уже	-5386
▁дал	-5387
▁ими	-5388
▁назв	-5389
▁борту	-5390
▁ведет	-5391
▁спокой	-5392
▁обеспечи	-5393
▁эксперти	-5394
▁отделения	-5395
▁неоднократно	-5396
ешь	-5397
▁ез	-5398
▁Эта	-5399
льник	-5400
▁совещ	-5401
▁причем	-5402
▁появилась	-5403
3%	-5404
паса	-5405
▁базе	-5406
▁водо	-5407
▁доля	-5408
чности	-5409
▁торговли	-5410
нам	-5411
спорт	-5412
стоит	-5413
▁запу	-5414
▁треб	-5415
▁полно	-5416
▁собеседник	-5417
▁относительно	-5418
эй	-5419
вати	-5420
гать	-5421
▁маль	-5422
▁целе	-5423
▁инстру	-5424
▁активов	-5425
▁вариант	-5426
▁объедин	-5427
▁позицию	-5428
▁прибыль	-5429
▁развитию	-5430
▁предлагает	-5431
АР	-5432
атр	-5433
тона	-5434
▁400	-5435
▁изъ	-5436
▁печа	-5437
▁смог	-5438
ствием	-5439
▁повре	-5440
▁автома	-5441
▁итальян	-5442
▁конкурс	-5443
▁направления	-5444
▁государственных	-5445
дах	-5446
екре	-5447
▁Смо	-5448
▁зоне	-5449
▁Почему	-5450
▁правил	-5451
▁спекта	-5452
▁отрасли	-5453
▁контракт	-5454
▁произошед	-5455
▁учреждения	-5456
▁Ор	-5457
жным	-5458
жидан	-5459
доволь	-5460
▁серии	-5461
▁динами	-5462
▁земель	-5463
▁разные	-5464
▁употреб	-5465
▁экспорт	-5466
▁Рез	-5467
▁Фон	-5468
▁акт	-5469
▁виру	-5470
▁глоб	-5471
▁живу	-5472
▁звез	-5473
▁появ	-5474
▁взрыва	-5475
▁сканда	-5476
▁доходов	-5477
▁среднем	-5478
▁чемпион	-5479
▁эксплуа	-5480
▁середине	-5481
дра	-5482
▁Ги	-5483
▁Газ	-5484
▁топ	-5485
▁удар	-5486
ествен	-5487
▁палаты	-5488
▁гораздо	-5489
▁объявил	-5490
▁порядке	-5491
▁устанавли	-5492
▁фактически	-5493
▁Гра	-5494
▁Офи	-5495
▁КНДР	-5496
▁едино	-5497
▁лидера	-5498
фо	-5499
яти	-5500
ссию	-5501
▁Шта	-5502
▁ать	-5503
▁имя	-5504
шенных	-5505
▁преми	-5506
▁начальник	-5507
▁показатель	-5508
wit	-5509
ссы	-5510
ранс	-5511
▁Кады	-5512
▁оконч	-5513
▁первое	-5514
▁сопрово	-5515
▁основной	-5516
▁качествен	-5517
▁оказалась	-5518
▁стоимости	-5519
▁американской	-5520
▁!"	-5521
▁СП	-5522
▁кв	-5523
▁нес	-5524
▁горя	-5525
▁двумя	-5526
▁весьма	-5527
▁интерн	-5528
▁политика	-5529
▁организов	-5530
one	-5531
пят	-5532
▁Шу	-5533
лина	-5534
сила	-5535
▁днем	-5536
▁Запад	-5537
▁сигна	-5538
▁члена	-5539
▁победы	-5540
▁большая	-5541
▁проекты	-5542
▁оппозиции	-5543
▁обеспечить	-5544
▁прокуратуры	-5545
рас	-5546
худ	-5547
tion	-5548
рового	-5549
▁оформ	-5550
▁прогре	-5551
▁услуги	-5552
Не	-5553
ехать	-5554
▁прого	-5555
▁свыше	-5556
▁отдела	-5557
▁очередной	-5558
кты	-5559
▁Ее	-5560
сибир	-5561
▁Авто	-5562
▁лета	-5563
▁тера	-5564
▁посоль	-5565
▁стрель	-5566
▁арбитра	-5567
▁клиентов	-5568
▁сожалению	-5569
Ве	-5570
СА	-5571
кут	-5572
▁зе	-5573
сант	-5574
ябрь	-5575
▁деше	-5576
▁отрица	-5577
▁правило	-5578
▁экологи	-5579
▁образова	-5580
▁подчерки	-5581
▁аэропорту	-5582
▁миллиардов	-5583
▁предоставля	-5584
ail	-5585
еру	-5586
зыв	-5587
▁8,	-5588
▁замо	-5589
▁пото	-5590
▁союза	-5591
тельном	-5592
▁другим	-5593
▁вернуть	-5594
▁квартале	-5595
▁источники	-5596
▁внутренних	-5597
▁Правительство	-5598
ам	-5599
and	-5600
▁55	-5601
анта	-5602
сред	-5603
▁зер	-5604
▁игру	-5605
▁поря	-5606
▁новое	-5607
▁подпи	-5608
▁допинг	-5609
▁обычно	-5610
▁опублик	-5611
▁прибыли	-5612
▁пострадали	-5613
▁обеспечения	-5614
ul	-5615
нг	-5616
▁ум	-5617
щают	-5618
▁Иль	-5619
▁ход	-5620
▁ность	-5621
▁сумма	-5622
ровании	-5623
▁Витали	-5624
▁боевых	-5625
▁прибли	-5626
▁Сотрудни	-5627
▁здоровья	-5628
▁напомнил	-5629
▁поддержке	-5630
степ	-5631
▁людям	-5632
▁остав	-5633
▁правда	-5634
▁радика	-5635
▁каждого	-5636
▁отметить	-5637
▁статисти	-5638
▁миллиарда	-5639
▁собирается	-5640
НИ	-5641
▁Лит	-5642
▁Чеч	-5643
▁Ленин	-5644
экономи	-5645
▁начать	-5646
▁Севасто	-5647
▁возника	-5648
▁местные	-5649
▁оби	-5650
▁руки	-5651
чность	-5652
▁автор	-5653
▁полуо	-5654
▁Многие	-5655
▁появля	-5656
гия	-5657
обо	-5658
▁48	-5659
дила	-5660
▁Тай	-5661
▁бед	-5662
▁вете	-5663
▁Израи	-5664
▁голос	-5665
▁квали	-5666
▁новым	-5667
тельстве	-5668
▁украинских	-5669
ber	-5670
▁75	-5671
глий	-5672
▁150	-5673
дации	-5674
▁Киеве	-5675
▁Ольга	-5676
▁номер	-5677
▁пресе	-5678
▁путем	-5679
▁предмет	-5680
▁имущества	-5681
▁соответственно	-5682
ленно	-5683
▁Русс	-5684
▁двое	-5685
▁диск	-5686
станции	-5687
▁задача	-5688
▁пережи	-5689
▁главное	-5690
▁директоров	-5691
▁использования	-5692
▁St	-5693
▁Слу	-5694
▁вме	-5695
▁Коре	-5696
▁льго	-5697
▁тюрь	-5698
▁Андрея	-5699
▁пункта	-5700
▁Дональд	-5701
тельности	-5702
▁задолжен	-5703
▁протяжении	-5704
▁Министерство	-5705
граф	-5706
чают	-5707
▁вынес	-5708
▁набра	-5709
▁степени	-5710
▁бомбарди	-5711
▁социальных	-5712
▁чемпионате	-5713
▁политических	-5714
▁международной	-5715
4%	-5716
▁Вене	-5717
▁выяв	-5718
▁знаю	-5719
▁инжен	-5720
▁нанес	-5721
▁Причем	-5722
▁Алексея	-5723
▁Институ	-5724
▁адвокат	-5725
▁выпуска	-5726
▁исследова	-5727
▁проведение	-5728
пок	-5729
▁Ря	-5730
▁слы	-5731
терна	-5732
▁ошиб	-5733
▁вышел	-5734
▁краси	-5735
▁команд	-5736
▁режиме	-5737
▁церемо	-5738
▁осужден	-5739
▁разбира	-5740
▁сложности	-5741
▁заниматься	-5742
втра	-5743
коном	-5744
скоре	-5745
▁2009	-5746
▁онлайн	-5747
▁соглас	-5748
▁второго	-5749
▁экономике	-5750
ровка	-5751
щений	-5752
witter	-5753
▁камер	-5754
▁сериа	-5755
▁Брюссе	-5756
▁арестов	-5757
▁ориенти	-5758
▁называют	-5759
▁автомобили	-5760
▁технологий	-5761
▁украинского	-5762
Се	-5763
ходе	-5764
дания	-5765
▁Воло	-5766
▁позже	-5767
▁стара	-5768
тических	-5769
▁немного	-5770
▁требует	-5771
▁странице	-5772
▁абсолютно	-5773
ck	-5774
гни	-5775
чал	-5776
▁39	-5777
тиков	-5778
толог	-5779
▁Здесь	-5780
▁Мария	-5781
▁Новый	-5782
▁эфире	-5783
ального	-5784
▁продаж	-5785
▁Twitter	-5786
▁губернатор	-5787
▁установлен	-5788
▁промышленности	-5789
гий	-5790
▁вру	-5791
▁кому	-5792
стойчи	-5793
тивные	-5794
▁честь	-5795
▁регуля	-5796
▁трудно	-5797
▁читать	-5798
▁инвестиций	-5799
▁зависимости	-5800
1%	-5801
ИБ	-5802
▁Sp	-5803
жают	-5804
наче	-5805
цами	-5806
▁Goo	-5807
▁Мари	-5808
▁часа	-5809
▁Анато	-5810
▁Вален	-5811
▁решить	-5812
▁команди	-5813
▁сначала	-5814
Исламское	-5815
▁неожидан	-5816
▁составит	-5817
▁телеканал	-5818
▁территори	-5819
кому	-5820
мого	-5821
выбор	-5822
▁Даже	-5823
россов	-5824
▁класси	-5825
▁револю	-5826
▁сезоне	-5827
▁закончи	-5828
▁Донбассе	-5829
▁странами	-5830
▁городской	-5831
мут	-5832
▁жд	-5833
▁пояс	-5834
▁можем	-5835
▁хокке	-5836
▁ученые	-5837
▁музыкан	-5838
▁продуктов	-5839
▁специалистов	-5840
▁Фа	-5841
стях	-5842
чена	-5843
▁испы	-5844
▁Антон	-5845
▁Турция	-5846
▁далеко	-5847
▁привати	-5848
▁получения	-5849
эр	-5850
цеп	-5851
▁ФР	-5852
▁сл	-5853
▁Пол	-5854
нений	-5855
▁Заха	-5856
▁секу	-5857
▁запро	-5858
премьер	-5859
▁пришли	-5860
▁множест	-5861
▁опубликован	-5862
ОК	-5863
▁блоки	-5864
▁самми	-5865
▁вопроса	-5866
▁вопросу	-5867
▁событий	-5868
▁туристов	-5869
▁нарушение	-5870
▁руководства	-5871
дон	-5872
▁июне	-5873
▁дефици	-5874
▁сведения	-5875
▁участием	-5876
▁заседание	-5877
▁g	-5878
gle	-5879
нила	-5880
ремя	-5881
щика	-5882
▁Чем	-5883
▁Ники	-5884
▁крым	-5885
▁похи	-5886
▁отмени	-5887
зировать	-5888
▁столько	-5889
▁граждане	-5890
▁конфликт	-5891
▁предстоит	-5892
▁подготовки	-5893
▁заинтересов	-5894
▁Дей	-5895
▁госс	-5896
▁диза	-5897
▁инте	-5898
▁трлн	-5899
▁ности	-5900
▁траге	-5901
▁Кстати	-5902
▁выхода	-5903
▁минима	-5904
▁отдыха	-5905
▁правила	-5906
▁хозяйства	-5907
лик	-5908
кров	-5909
ссор	-5910
▁диви	-5911
▁хода	-5912
▁мигра	-5913
▁навер	-5914
▁уника	-5915
▁литера	-5916
▁стреми	-5917
▁мужчины	-5918
▁депутата	-5919
▁километров	-5920
▁":	-5921
дует	-5922
▁Air	-5923
метим	-5924
▁смен	-5925
следов	-5926
▁лидеров	-5927
тое	-5928
мана	-5929
▁Зна	-5930
▁Роман	-5931
▁Такое	-5932
▁впере	-5933
▁выпуск	-5934
▁прошла	-5935
▁ранения	-5936
▁состава	-5937
▁проголос	-5938
▁госпитали	-5939
▁российском	-5940
везд	-5941
гани	-5942
▁Нем	-5943
мериз	-5944
▁больницу	-5945
▁непосред	-5946
▁инициатив	-5947
▁совместно	-5948
▁европейских	-5949
юн	-5950
кор	-5951
энер	-5952
ровой	-5953
▁любы	-5954
▁завода	-5955
▁прошло	-5956
▁лишения	-5957
▁прогноз	-5958
▁предстоя	-5959
▁справедли	-5960
▁потенциаль	-5961
▁технологии	-5962
▁направлении	-5963
лку	-5964
зора	-5965
дивиду	-5966
▁жилья	-5967
▁могла	-5968
▁прото	-5969
▁ввести	-5970
▁группе	-5971
▁опровер	-5972
▁турнира	-5973
▁ожидается	-5974
▁Ch	-5975
▁син	-5976
овари	-5977
▁Бель	-5978
▁вещи	-5979
▁прай	-5980
▁модер	-5981
▁редак	-5982
▁счетом	-5983
▁налогов	-5984
▁уточнил	-5985
▁кандидата	-5986
▁предвыбор	-5987
▁руководством	-5988
кол	-5989
▁II	-5990
нули	-5991
ation	-5992
▁Брази	-5993
▁заказ	-5994
▁Руково	-5995
▁федерации	-5996
мая	-5997
Ново	-5998
шают	-5999
▁ано	-6000
▁май	-6001
▁чита	-6002
▁север	-6003
вшегося	-6004
▁впечат	-6005
▁ракеты	-6006
▁выплаты	-6007
▁Компания	-6008
▁Новосибир	-6009
Ма	-6010
ADA	-6011
швили	-6012
▁Леони	-6013
▁вовсе	-6014
▁члены	-6015
▁Только	-6016
▁здание	-6017
▁продви	-6018
▁границы	-6019
▁конкурса	-6020
▁согласов	-6021
▁увеличить	-6022
бок	-6023
одо	-6024
рет	-6025
шек	-6026
аней	-6027
▁ОАО	-6028
▁сбо	-6029
вычай	-6030
▁подс	-6031
против	-6032
▁класс	-6033
▁хотел	-6034
▁школь	-6035
▁Google	-6036
▁причин	-6037
▁усилия	-6038
▁сторона	-6039
▁Соединен	-6040
▁временем	-6041
▁которыми	-6042
▁привести	-6043
▁текущего	-6044
▁общественного	-6045
▁ды	-6046
▁эмо	-6047
сторо	-6048
▁Ирана	-6049
▁годом	-6050
▁разно	-6051
▁спустя	-6052
▁Политика	-6053
▁конститу	-6054
▁проверку	-6055
▁установить	-6056
,5%	-6057
кур	-6058
▁Ак	-6059
▁Ир	-6060
▁Исп	-6061
▁Ман	-6062
щихся	-6063
▁нара	-6064
▁наша	-6065
▁северо	-6066
▁выросла	-6067
▁доллара	-6068
▁пассажир	-6069
▁опубликова	-6070
ПРФ	-6071
эль	-6072
▁Bl	-6073
ТАСС	-6074
дами	-6075
▁бом	-6076
▁хоть	-6077
нодоро	-6078
▁Затем	-6079
▁Депута	-6080
▁лучших	-6081
▁нагруз	-6082
▁Отметим	-6083
▁Украину	-6084
▁главным	-6085
▁получит	-6086
▁спектак	-6087
▁добиться	-6088
▁изменений	-6089
▁произошла	-6090
▁располага	-6091
▁участвовать	-6092
ПК	-6093
▁cap	-6094
▁чест	-6095
▁Кирил	-6096
▁полез	-6097
▁настаи	-6098
▁статьи	-6099
▁выпусти	-6100
▁возрасте	-6101
▁наказание	-6102
▁настоящий	-6103
▁положение	-6104
▁обстоятельства	-6105
ваю	-6106
кат	-6107
▁Нор	-6108
▁люб	-6109
▁ски	-6110
▁чис	-6111
▁Банк	-6112
▁городов	-6113
▁порядок	-6114
▁отказыва	-6115
▁занимается	-6116
▁мероприятий	-6117
ЕК	-6118
фы	-6119
▁Фили	-6120
▁коор	-6121
▁овой	-6122
▁ухуд	-6123
▁глубо	-6124
▁повер	-6125
▁газеты	-6126
▁округа	-6127
▁оружие	-6128
▁связано	-6129
▁появились	-6130
.)	-6131
Со	-6132
▁гео	-6133
жется	-6134
▁актер	-6135
▁расти	-6136
▁субси	-6137
▁оптими	-6138
▁ировать	-6139
▁индивиду	-6140
▁r	-6141
енью	-6142
сторон	-6143
▁Кубка	-6144
▁храни	-6145
▁ремонт	-6146
Роснефти	-6147
▁примеру	-6148
▁44	-6149
тием	-6150
▁сда	-6151
▁День	-6152
▁Керри	-6153
▁защит	-6154
▁рубеж	-6155
▁религи	-6156
▁caption	-6157
▁Виталий	-6158
▁зависит	-6159
▁сделали	-6160
▁качества	-6161
▁вернуться	-6162
▁международного	-6163
▁финансирования	-6164
нау	-6165
▁Нет	-6166
рению	-6167
▁зара	-6168
▁Вести	-6169
▁сосед	-6170
▁сроки	-6171
Известиям	-6172
▁политику	-6173
▁праймериз	-6174
▁уж	-6175
▁2000	-6176
▁базы	-6177
▁газо	-6178
▁рулем	-6179
▁концеп	-6180
▁кредит	-6181
▁построи	-6182
▁процесса	-6183
▁снижения	-6184
6%	-6185
9%	-6186
гон	-6187
▁Бли	-6188
▁Джо	-6189
▁Оде	-6190
▁Яро	-6191
стане	-6192
▁оказ	-6193
тивный	-6194
ционер	-6195
▁митин	-6196
▁гривен	-6197
▁пройти	-6198
▁телеканала	-6199
Ре	-6200
▁in	-6201
▁Арм	-6202
▁Сте	-6203
▁мяч	-6204
▁ово	-6205
▁ший	-6206
▁Коро	-6207
▁изъя	-6208
▁завод	-6209
▁столь	-6210
▁англий	-6211
▁доходы	-6212
▁напада	-6213
▁памяти	-6214
▁Официаль	-6215
▁столкнов	-6216
▁Российский	-6217
▁украинской	-6218
▁финансовых	-6219
▁обязательно	-6220
▁противостоя	-6221
▁исключительно	-6222
газ	-6223
шно	-6224
▁Накан	-6225
▁отправ	-6226
▁главных	-6227
▁грузови	-6228
▁Накануне	-6229
ve	-6230
▁­	-6231
чке	-6232
▁47	-6233
зить	-6234
ляют	-6235
▁бри	-6236
▁сег	-6237
▁вряд	-6238
▁закуп	-6239
▁ипоте	-6240
▁корот	-6241
▁мастер	-6242
▁Интернет	-6243
▁российская	-6244
▁здравоохранения	-6245
бом	-6246
▁?"	-6247
куда	-6248
▁ЦИК	-6249
сного	-6250
▁вклад	-6251
▁удиви	-6252
▁делает	-6253
▁выступил	-6254
▁подписал	-6255
Петербурге	-6256
▁чиновников	-6257
▁Уз	-6258
берг	-6259
▁акту	-6260
▁меда	-6261
▁цене	-6262
способ	-6263
▁взрос	-6264
▁входит	-6265
▁доброво	-6266
▁проводить	-6267
▁президенту	-6268
кри	-6269
ИБДД	-6270
шены	-6271
шили	-6272
▁ест	-6273
циони	-6274
▁миру	-6275
▁холдин	-6276
▁попытки	-6277
▁возраста	-6278
▁многочис	-6279
▁Азербайдж	-6280
▁предварительным	-6281
▁ид	-6282
▁чт	-6283
ровок	-6284
циями	-6285
▁брон	-6286
▁бюро	-6287
▁суме	-6288
альные	-6289
▁выбира	-6290
▁подклю	-6291
▁сформи	-6292
▁Михаила	-6293
▁пунктов	-6294
▁ребенок	-6295
▁утверждает	-6296
▁·	-6297
▁цы	-6298
▁шоу	-6299
летняя	-6300
▁счета	-6301
▁падения	-6302
ступления	-6303
▁провинции	-6304
▁инвесторов	-6305
▁Министерства	-6306
▁Представитель	-6307
риз	-6308
теры	-6309
▁Дже	-6310
ведом	-6311
лябин	-6312
▁плен	-6313
черний	-6314
▁супер	-6315
▁мужчин	-6316
▁Наталья	-6317
▁корпора	-6318
▁убийстве	-6319
▁ведомстве	-6320
▁находился	-6321
▁повышение	-6322
▁чрезвычай	-6323
▁отсутствие	-6324
▁пострадавших	-6325
люка	-6326
▁Сем	-6327
▁КПРФ	-6328
оборот	-6329
▁брать	-6330
▁взгляд	-6331
▁диплома	-6332
▁бизнесмен	-6333
▁насколько	-6334
▁президенты	-6335
▁конференции	-6336
ал	-6337
нат	-6338
стин	-6339
▁Джа	-6340
▁дис	-6341
▁жертв	-6342
▁рекон	-6343
▁модерни	-6344
▁случаев	-6345
▁устойчи	-6346
президент	-6347
▁находились	-6348
ks	-6349
▁€	-6350
▁Дэ	-6351
вами	-6352
поля	-6353
▁фар	-6354
▁моря	-6355
▁силь	-6356
▁спас	-6357
▁хочу	-6358
ственная	-6359
тельность	-6360
▁квартиры	-6361
▁крупнейших	-6362
▁выступления	-6363
▁исследований	-6364
▁пользователей	-6365
допин	-6366
▁гром	-6367
▁нему	-6368
▁Волго	-6369
▁графи	-6370
ционным	-6371
▁сделки	-6372
▁договор	-6373
▁Екатерин	-6374
▁осуществ	-6375
▁сегодняшний	-6376
Бо	-6377
май	-6378
суди	-6379
шено	-6380
▁убы	-6381
▁шей	-6382
▁дали	-6383
▁буква	-6384
▁земли	-6385
▁концу	-6386
▁Вместе	-6387
▁местах	-6388
▁переми	-6389
▁Соответ	-6390
▁проблему	-6391
▁режиссер	-6392
ГУ	-6393
сл	-6394
слан	-6395
▁Орг	-6396
▁Свя	-6397
▁моз	-6398
▁мол	-6399
халин	-6400
щенко	-6401
▁рефор	-6402
▁Второй	-6403
▁аварии	-6404
▁правам	-6405
▁генерал	-6406
▁Возможно	-6407
▁интересы	-6408
▁сообщение	-6409
▁ограничения	-6410
жо	-6411
▁Ниж	-6412
▁пожи	-6413
▁поро	-6414
▁семи	-6415
▁хими	-6416
▁аварий	-6417
▁инвали	-6418
▁большое	-6419
▁следующий	-6420
-15	-6421
ань	-6422
дум	-6423
змом	-6424
▁ВТБ	-6425
▁вин	-6426
▁игр	-6427
▁кам	-6428
▁опы	-6429
▁пле	-6430
можен	-6431
▁рода	-6432
ченные	-6433
▁Пресс	-6434
▁новая	-6435
▁резко	-6436
▁болель	-6437
▁главой	-6438
▁запрет	-6439
▁сделан	-6440
▁встречу	-6441
▁мошенни	-6442
▁прошлой	-6443
▁сообщают	-6444
▁антидопин	-6445
▁министров	-6446
▁продолжают	-6447
:2	-6448
мос	-6449
син	-6450
фон	-6451
▁5-	-6452
▁Зи	-6453
▁уз	-6454
вере	-6455
гина	-6456
кель	-6457
▁оте	-6458
Газета	-6459
▁Благо	-6460
▁суммы	-6461
▁частью	-6462
начально	-6463
▁колонии	-6464
▁поможет	-6465
▁применя	-6466
▁Северной	-6467
▁пропаган	-6468
▁коммуника	-6469
▁инфраструктуры	-6470
гно	-6471
рги	-6472
▁er	-6473
▁ых	-6474
беки	-6475
▁идут	-6476
▁Через	-6477
▁оправ	-6478
▁приез	-6479
▁материалы	-6480
жали	-6481
рист	-6482
▁путь	-6483
▁этапе	-6484
▁Извест	-6485
▁реализ	-6486
▁Премьер	-6487
▁Экономи	-6488
▁полагает	-6489
▁одновременно	-6490
сор	-6491
бить	-6492
жном	-6493
лект	-6494
▁195	-6495
стрен	-6496
▁назвать	-6497
▁экспери	-6498
▁журналист	-6499
▁начальника	-6500
▁использование	-6501
кома	-6502
▁каз	-6503
▁ока	-6504
▁экра	-6505
▁крити	-6506
▁покры	-6507
▁Узбеки	-6508
▁Центра	-6509
▁авиации	-6510
▁договора	-6511
▁название	-6512
▁нарушений	-6513
▁устройства	-6514
▁Информационное	-6515
▁дополнительные	-6516
id	-6517
гр	-6518
roup	-6519
▁Кто	-6520
теров	-6521
▁хран	-6522
стовер	-6523
▁ГИБДД	-6524
▁вырос	-6525
▁оборо	-6526
▁огонь	-6527
▁начало	-6528
▁следующем	-6529
▁авиакомпании	-6530
ard	-6531
▁65	-6532
будь	-6533
рике	-6534
ляция	-6535
питан	-6536
▁сути	-6537
▁Борис	-6538
▁Южной	-6539
▁граду	-6540
▁посту	-6541
▁тепло	-6542
лизации	-6543
▁списка	-6544
▁назвали	-6545
▁решений	-6546
▁Господин	-6547
▁основных	-6548
▁оборудования	-6549
Ко	-6550
дми	-6551
▁42	-6552
▁осна	-6553
▁разо	-6554
▁Спорт	-6555
▁выйти	-6556
▁угроз	-6557
▁статус	-6558
▁подрост	-6559
▁капитала	-6560
▁комиссия	-6561
▁местного	-6562
▁родителей	-6563
▁сотрудник	-6564
▁Сообщается	-6565
▁выяснилось	-6566
▁заключения	-6567
▁количества	-6568
▁Ры	-6569
▁Жен	-6570
▁Улюка	-6571
▁произой	-6572
▁пройдут	-6573
▁сирийской	-6574
▁сохранить	-6575
▁существенно	-6576
7%	-6577
юк	-6578
yri	-6579
мед	-6580
▁кг	-6581
▁вдо	-6582
▁тяж	-6583
▁запусти	-6584
▁отличие	-6585
▁столкну	-6586
▁электри	-6587
▁занимает	-6588
▁кандидат	-6589
▁убийства	-6590
▁следствие	-6591
▁избирателей	-6592
тую	-6593
▁сеть	-6594
ющиеся	-6595
▁посад	-6596
▁расчет	-6597
▁справи	-6598
▁большую	-6599
▁ответил	-6600
▁животных	-6601
▁просьбой	-6602
▁ассоциации	-6603
два	-6604
лат	-6605
руг	-6606
ссу	-6607
▁$4	-6608
ехали	-6609
стных	-6610
▁иначе	-6611
▁каким	-6612
▁конта	-6613
▁Кремля	-6614
▁Минфин	-6615
▁данном	-6616
▁другом	-6617
▁городах	-6618
▁работников	-6619
▁железнодоро	-6620
▁правительстве	-6621
тех	-6622
▁Аса	-6623
▁преж	-6624
▁тела	-6625
▁всеми	-6626
▁замен	-6627
Новости	-6628
▁перспек	-6629
▁отказались	-6630
▁подготовке	-6631
▁официальном	-6632
кус	-6633
▁въ	-6634
▁ую	-6635
жная	-6636
писы	-6637
тете	-6638
▁cop	-6639
▁жду	-6640
▁фер	-6641
▁туда	-6642
yright	-6643
дитель	-6644
шается	-6645
▁Татар	-6646
▁возле	-6647
▁ночью	-6648
▁потра	-6649
▁облада	-6650
▁создан	-6651
▁Татьяна	-6652
▁высказа	-6653
▁игроков	-6654
▁картины	-6655
▁случаях	-6656
▁инфляции	-6657
▁направля	-6658
▁copyright	-6659
▁компанией	-6660
▁удовлетво	-6661
▁чемпионов	-6662
лая	-6663
чук	-6664
▁46	-6665
▁Нау	-6666
▁лиш	-6667
▁Речь	-6668
▁обой	-6669
▁резо	-6670
▁типа	-6671
анейро	-6672
▁Киева	-6673
▁ались	-6674
▁взять	-6675
▁заслу	-6676
▁знает	-6677
▁новом	-6678
▁купить	-6679
рованных	-6680
▁потребитель	-6681
▁соревнования	-6682
Ми	-6683
кл	-6684
ьи	-6685
лаг	-6686
мини	-6687
▁Фин	-6688
▁ист	-6689
ществ	-6690
▁2007	-6691
▁шего	-6692
▁глаза	-6693
▁форме	-6694
▁гибели	-6695
▁другого	-6696
▁полицию	-6697
▁пообещал	-6698
▁скончался	-6699
▁напоминает	-6700
▁заболевания	-6701
▁подтвердили	-6702
▁полицейские	-6703
▁Li	-6704
▁Рас	-6705
▁гря	-6706
▁шаг	-6707
ранов	-6708
▁дета	-6709
▁долг	-6710
имость	-6711
нибудь	-6712
▁актри	-6713
▁любов	-6714
▁препо	-6715
▁Органи	-6716
▁Эксперты	-6717
▁подобные	-6718
▁положения	-6719
кал	-6720
▁9,	-6721
▁зн	-6722
года	-6723
-2016	-6724
говор	-6725
▁Дело	-6726
▁ждет	-6727
▁общем	-6728
▁улицы	-6729
▁девять	-6730
тировать	-6731
▁влияние	-6732
▁команде	-6733
▁потерпе	-6734
▁экстрен	-6735
▁говорили	-6736
▁показали	-6737
▁американский	-6738
емым	-6739
ловые	-6740
гового	-6741
▁Ирина	-6742
▁Петра	-6743
▁насле	-6744
▁планы	-6745
▁таком	-6746
полномо	-6747
▁настро	-6748
▁предна	-6749
▁резолю	-6750
ственное	-6751
▁национа	-6752
▁выступает	-6753
▁материалов	-6754
▁региональных	-6755
▁$3	-6756
Русс	-6757
кина	-6758
▁Муж	-6759
▁Полу	-6760
▁захо	-6761
▁иной	-6762
▁мель	-6763
▁курса	-6764
▁очков	-6765
▁солда	-6766
▁Украин	-6767
▁пожара	-6768
▁банкрот	-6769
▁поставки	-6770
▁Евросоюза	-6771
▁коррупции	-6772
▁психологи	-6773
▁источников	-6774
▁h	-6775
▁k	-6776
бек	-6777
жин	-6778
▁$2	-6779
▁АО	-6780
лева	-6781
▁исче	-6782
▁блока	-6783
▁семье	-6784
▁спроса	-6785
▁угрозы	-6786
▁боевики	-6787
▁передачи	-6788
▁социально	-6789
ИЛ	-6790
▁Им	-6791
▁Tim	-6792
▁био	-6793
▁Геор	-6794
▁зоны	-6795
▁трое	-6796
надзор	-6797
▁Свобо	-6798
▁вошли	-6799
▁знают	-6800
▁итоги	-6801
▁школе	-6802
▁готова	-6803
седатель	-6804
▁общество	-6805
▁означает	-6806
▁планируют	-6807
▁обязательства	-6808
▁самостоятельно	-6809
ФО	-6810
бий	-6811
гло	-6812
▁3-	-6813
▁iP	-6814
нито	-6815
▁Али	-6816
▁внед	-6817
▁номе	-6818
▁разы	-6819
▁леген	-6820
▁насто	-6821
Жанейро	-6822
▁внешне	-6823
▁группу	-6824
▁отстран	-6825
▁пытаются	-6826
▁Саудовской	-6827
▁городского	-6828
▁производителей	-6829
8%	-6830
ТС	-6831
шку	-6832
▁ер	-6833
твра	-6834
▁бор	-6835
тацию	-6836
▁2020	-6837
▁ОПЕК	-6838
▁муль	-6839
альный	-6840
▁Китае	-6841
▁указа	-6842
▁народа	-6843
▁главной	-6844
▁кроссов	-6845
▁подозре	-6846
▁фракции	-6847
▁Дональда	-6848
▁качество	-6849
▁появится	-6850
▁проходят	-6851
▁направлен	-6852
▁отношение	-6853
▁сотрудничество	-6854
рья	-6855
хоз	-6856
▁ВС	-6857
Если	-6858
▁Рей	-6859
голов	-6860
▁мона	-6861
▁овая	-6862
▁отда	-6863
▁тему	-6864
летряс	-6865
▁дорог	-6866
▁защите	-6867
▁писали	-6868
▁Евгения	-6869
▁нападения	-6870
▁Белоруссии	-6871
ci	-6872
пой	-6873
ьми	-6874
йнер	-6875
▁ВВС	-6876
▁хоте	-6877
вшихся	-6878
▁декла	-6879
▁нужда	-6880
▁перен	-6881
▁улица	-6882
▁Париже	-6883
▁повест	-6884
▁переста	-6885
стической	-6886
▁Вечерний	-6887
▁объяснил	-6888
▁ведомство	-6889
▁противоре	-6890
▁Константин	-6891
стю	-6892
гест	-6893
нест	-6894
чики	-6895
▁боя	-6896
▁ель	-6897
▁зад	-6898
▁охо	-6899
▁тема	-6900
▁диску	-6901
▁истре	-6902
▁такую	-6903
▁Северо	-6904
▁объема	-6905
▁рабочих	-6906
▁предотвра	-6907
▁международным	-6908
вказ	-6909
сных	-6910
▁Шве	-6911
ссель	-6912
▁забы	-6913
▁риск	-6914
видеть	-6915
ждению	-6916
▁власть	-6917
▁Валерий	-6918
▁приобрет	-6919
▁самолетов	-6920
▁заместителя	-6921
▁представляет	-6922
зок	-6923
таж	-6924
хом	-6925
▁Te	-6926
утко	-6927
▁Поз	-6928
▁зим	-6929
▁Иран	-6930
▁идти	-6931
▁педа	-6932
▁корпу	-6933
▁завтра	-6934
▁класса	-6935
▁Полиция	-6936
▁Эрдоган	-6937
▁остались	-6938
▁отправля	-6939
▁подобных	-6940
▁принадлежит	-6941
www	-6942
▁Ху	-6943
▁Вар	-6944
▁вре	-6945
▁еха	-6946
▁Дума	-6947
▁ающий	-6948
▁недав	-6949
▁застрой	-6950
▁компози	-6951
▁месторо	-6952
▁альтерна	-6953
▁появился	-6954
▁убийство	-6955
▁естествен	-6956
▁генеральный	-6957
БУ	-6958
▁СН	-6959
▁щи	-6960
стую	-6961
▁For	-6962
▁аук	-6963
▁лож	-6964
▁ниж	-6965
▁Group	-6966
▁Луган	-6967
▁Филип	-6968
▁досто	-6969
▁смени	-6970
▁спрос	-6971
хождения	-6972
▁источника	-6973
жесто	-6974
ковой	-6975
рание	-6976
▁нема	-6977
▁консу	-6978
▁объеди	-6979
▁показал	-6980
▁Некоторы	-6981
▁бороться	-6982
▁полицейских	-6983
▁ЖК	-6984
▁Зе	-6985
▁упла	-6986
▁играть	-6987
▁Лондоне	-6988
▁успешно	-6989
▁считается	-6990
▁назначения	-6991
▁московского	-6992
рик	-6993
Локо	-6994
игры	-6995
▁Доб	-6996
▁уме	-6997
▁ших	-6998
ершен	-6999
▁Сред	-7000
▁груз	-7001
▁каждой	-7002
▁продукты	-7003
▁структур	-7004
▁регулярно	-7005
▁57	-7006
▁20-	-7007
▁Сле	-7008
▁ают	-7009
▁крат	-7010
▁сына	-7011
▁балан	-7012
▁вмеша	-7013
тивного	-7014
▁нелега	-7015
▁номина	-7016
▁считаю	-7017
▁ходатай	-7018
▁обстанов	-7019
▁задержаны	-7020
▁прокуратура	-7021
▁[	-7022
дние	-7023
▁Лат	-7024
твори	-7025
▁News	-7026
▁Перед	-7027
▁приро	-7028
▁издели	-7029
▁природ	-7030
градской	-7031
▁консуль	-7032
▁органах	-7033
▁внимания	-7034
▁поправки	-7035
▁терактов	-7036
▁обратился	-7037
▁существов	-7038
конференции	-7039
▁недвижимости	-7040
ай	-7041
▁ТВ	-7042
рачи	-7043
▁обли	-7044
тивным	-7045
▁другу	-7046
▁запла	-7047
▁одному	-7048
▁постеп	-7049
▁большим	-7050
▁добавля	-7051
▁никакого	-7052
▁премьера	-7053
▁поколения	-7054
▁православ	-7055
▁требований	-7056
▁Олимпийских	-7057
▁прекращения	-7058
лял	-7059
▁2,5	-7060
торая	-7061
альным	-7062
▁попал	-7063
ведений	-7064
▁Европу	-7065
▁комфор	-7066
праведли	-7067
▁имущество	-7068
▁полномочий	-7069
▁соревнований	-7070
▁v	-7071
бах	-7072
вяз	-7073
зия	-7074
рор	-7075
снаб	-7076
стить	-7077
▁разу	-7078
▁сфер	-7079
▁тенни	-7080
енности	-7081
▁помимо	-7082
▁тяжело	-7083
▁молодых	-7084
▁острова	-7085
▁падение	-7086
▁инцидент	-7087
▁компанию	-7088
▁прогнози	-7089
▁категории	-7090
▁отказаться	-7091
жим	-7092
▁600	-7093
▁Роб	-7094
▁Тру	-7095
▁бур	-7096
▁эпо	-7097
естра	-7098
▁овых	-7099
▁бирже	-7100
▁растет	-7101
▁позволи	-7102
▁россияне	-7103
▁дорожного	-7104
da	-7105
див	-7106
▁Жу	-7107
▁ив	-7108
▁Особ	-7109
▁грип	-7110
▁наме	-7111
▁грани	-7112
▁разве	-7113
▁поверх	-7114
▁смерть	-7115
▁Меркель	-7116
▁получат	-7117
▁избежать	-7118
▁намерены	-7119
▁серьезно	-7120
▁продолжается	-7121
ака	-7122
вис	-7123
тка	-7124
чан	-7125
▁Br	-7126
▁of	-7127
дино	-7128
▁Бал	-7129
▁Объ	-7130
▁мск	-7131
главы	-7132
пущен	-7133
▁нами	-7134
▁наси	-7135
▁пару	-7136
▁упал	-7137
делить	-7138
ствова	-7139
▁Учены	-7140
▁стары	-7141
▁стрем	-7142
▁ущерб	-7143
▁целях	-7144
▁Предпо	-7145
▁второе	-7146
▁создании	-7147
▁Некоторые	-7148
▁искусства	-7149
▁повышения	-7150
▁вооруженных	-7151
▁военнослужащих	-7152
ича	-7153
▁43	-7154
▁Тер	-7155
рована	-7156
▁Можно	-7157
▁вышли	-7158
▁никак	-7159
ниторин	-7160
▁делают	-7161
▁иногда	-7162
▁наличи	-7163
▁письмо	-7164
▁премии	-7165
▁считать	-7166
▁увидеть	-7167
▁потенциа	-7168
▁действует	-7169
▁специально	-7170
▁территория	-7171
▁воспользова	-7172
.0	-7173
МС	-7174
ХЛ	-7175
▁лы	-7176
▁оф	-7177
▁Хар	-7178
блоки	-7179
▁вред	-7180
▁Григо	-7181
▁Причи	-7182
▁Греции	-7183
▁восьми	-7184
▁преодо	-7185
▁станут	-7186
▁третий	-7187
▁Челябин	-7188
▁оценкам	-7189
▁повышен	-7190
Петербург	-7191
▁религиоз	-7192
▁заявлении	-7193
▁известный	-7194
анс	-7195
hone	-7196
дева	-7197
екси	-7198
▁век	-7199
вития	-7200
▁Джей	-7201
▁Лиги	-7202
послед	-7203
▁Такие	-7204
▁альян	-7205
▁ждать	-7206
▁отмет	-7207
▁плане	-7208
ленного	-7209
▁ранены	-7210
▁тенден	-7211
▁продажу	-7212
▁давление	-7213
▁зарплаты	-7214
▁ограничи	-7215
▁документе	-7216
▁различные	-7217
последствии	-7218
▁Сотрудники	-7219
Си	-7220
юр	-7221
ess	-7222
Ман	-7223
▁аф	-7224
▁бесе	-7225
▁друз	-7226
честву	-7227
▁Союза	-7228
▁долги	-7229
▁входят	-7230
▁дохода	-7231
▁педаго	-7232
▁академи	-7233
▁продаже	-7234
▁Конститу	-7235
▁больнице	-7236
▁реконструк	-7237
▁художествен	-7238
▁Следственного	-7239
▁подразделения	-7240
▁Ах	-7241
ссив	-7242
▁РАН	-7243
▁сос	-7244
▁зале	-7245
▁съем	-7246
▁розни	-7247
▁лабора	-7248
▁перено	-7249
▁высокой	-7250
▁уверены	-7251
▁осталось	-7252
▁петербур	-7253
▁множество	-7254
li	-7255
ект	-7256
кза	-7257
▁49	-7258
лант	-7259
▁Люди	-7260
метров	-7261
▁Участ	-7262
▁видно	-7263
▁самоу	-7264
▁задачи	-7265
▁одержа	-7266
▁первая	-7267
▁хотели	-7268
▁пытались	-7269
▁останется	-7270
▁десятилети	-7271
▁проводится	-7272
▁представить	-7273
▁преступлений	-7274
Ар	-7275
СЕ	-7276
дри	-7277
жить	-7278
▁юго	-7279
стрии	-7280
▁долю	-7281
▁уста	-7282
тивной	-7283
▁Далее	-7284
▁служеб	-7285
▁поднима	-7286
▁координа	-7287
▁приговор	-7288
▁отношению	-7289
▁последствия	-7290
РО	-7291
нику	-7292
ратов	-7293
▁вело	-7294
▁нашу	-7295
оружен	-7296
▁лагер	-7297
▁пакет	-7298
▁поним	-7299
▁учени	-7300
условно	-7301
▁оценки	-7302
▁полном	-7303
▁ической	-7304
▁хватает	-7305
▁протеста	-7306
▁российско	-7307
▁обязанности	-7308
нят	-7309
▁Ред	-7310
▁отря	-7311
▁пога	-7312
водить	-7313
▁нашим	-7314
▁психи	-7315
▁иннова	-7316
емонстри	-7317
▁истреби	-7318
▁больницы	-7319
▁началась	-7320
▁Подмосков	-7321
▁Екатеринбур	-7322
▁продемонстри	-7323
:3	-7324
Ку	-7325
Лу	-7326
пись	-7327
▁Два	-7328
▁Пан	-7329
▁гим	-7330
▁сча	-7331
▁хра	-7332
▁ждут	-7333
▁телеви	-7334
▁содержи	-7335
▁техника	-7336
▁пытается	-7337
▁утверждают	-7338
▁Представители	-7339
▁финансирование	-7340
ge	-7341
ВФ	-7342
жил	-7343
▁НП	-7344
▁ля	-7345
шими	-7346
▁теп	-7347
ковых	-7348
▁доли	-7349
▁исла	-7350
▁Обамы	-7351
▁домой	-7352
▁относя	-7353
▁парков	-7354
▁ические	-7355
▁платить	-7356
▁фестиваля	-7357
▁присоедини	-7358
▁действовать	-7359
▁максимально	-7360
БР	-7361
сив	-7362
стр	-7363
цар	-7364
▁Bo	-7365
блио	-7366
▁Мен	-7367
▁сна	-7368
ющими	-7369
▁Анна	-7370
▁Груп	-7371
▁адре	-7372
▁заем	-7373
▁каби	-7374
▁коль	-7375
▁фили	-7376
Локомо	-7377
▁вылет	-7378
▁посла	-7379
▁достой	-7380
▁полной	-7381
▁Центроб	-7382
▁проигра	-7383
▁сказали	-7384
▁коалиции	-7385
▁остаются	-7386
▁института	-7387
▁увеличение	-7388
зию	-7389
Дина	-7390
гает	-7391
нера	-7392
▁").	-7393
▁ада	-7394
▁оке	-7395
▁сын	-7396
серва	-7397
▁поля	-7398
вшийся	-7399
▁детям	-7400
▁ников	-7401
▁сотни	-7402
мерсант	-7403
действия	-7404
▁границу	-7405
▁лечение	-7406
▁режиссе	-7407
▁сборная	-7408
▁ежегодно	-7409
▁получать	-7410
▁основании	-7411
▁результатам	-7412
пил	-7413
Моск	-7414
вало	-7415
▁Гон	-7416
▁Нам	-7417
.2016	-7418
иться	-7419
▁ИГИЛ	-7420
▁Моло	-7421
Динамо	-7422
▁повтор	-7423
▁развер	-7424
▁Решение	-7425
▁размести	-7426
▁родители	-7427
▁приоритет	-7428
▁предложили	-7429
▁гражданской	-7430
Баш	-7431
бит	-7432
▁85	-7433
сные	-7434
▁www	-7435
▁оба	-7436
▁осо	-7437
▁врач	-7438
▁клад	-7439
▁обру	-7440
▁през	-7441
▁этап	-7442
▁долга	-7443
▁енный	-7444
▁поток	-7445
▁устраи	-7446
▁архитек	-7447
▁коллеги	-7448
▁квартире	-7449
▁Верховной	-7450
▁предлагают	-7451
▁предприятие	-7452
▁американские	-7453
ik	-7454
жат	-7455
мит	-7456
▁осн	-7457
▁идеи	-7458
Башнеф	-7459
▁Денис	-7460
▁Позже	-7461
▁атмос	-7462
▁самая	-7463
▁слово	-7464
▁iPhone	-7465
▁Австра	-7466
▁взятки	-7467
▁дважды	-7468
▁память	-7469
▁примет	-7470
▁принес	-7471
▁уступи	-7472
▁Калинин	-7473
▁решению	-7474
▁Краснояр	-7475
▁выглядит	-7476
▁землетряс	-7477
▁инцидента	-7478
▁предназна	-7479
▁последнего	-7480
▁собственности	-7481
Ан	-7482
жут	-7483
анда	-7484
дьми	-7485
пова	-7486
пром	-7487
сный	-7488
шали	-7489
▁ДНР	-7490
▁изо	-7491
▁удо	-7492
▁выяс	-7493
▁гран	-7494
▁тело	-7495
▁Мутко	-7496
▁прочи	-7497
▁связь	-7498
▁Генпро	-7499
▁запрос	-7500
▁форума	-7501
▁наконец	-7502
▁футболу	-7503
▁новостей	-7504
▁рекоменд	-7505
▁буквально	-7506
▁чиновники	-7507
▁отношениях	-7508
▁публикации	-7509
▁фотографии	-7510
▁безопасность	-7511
te	-7512
ЖД	-7513
дию	-7514
лай	-7515
тивы	-7516
▁ФАС	-7517
▁юби	-7518
ронеж	-7519
▁вину	-7520
Москва	-7521
▁брига	-7522
▁ведут	-7523
▁видов	-7524
▁годам	-7525
▁непро	-7526
▁повто	-7527
▁замени	-7528
▁границе	-7529
▁заметил	-7530
▁районах	-7531
▁изменить	-7532
▁процессе	-7533
▁университет	-7534
шит	-7535
▁ись	-7536
▁ить	-7537
▁пры	-7538
баров	-7539
▁лока	-7540
▁моде	-7541
▁пило	-7542
▁Треть	-7543
▁нужны	-7544
▁реаги	-7545
▁Потому	-7546
▁грозит	-7547
▁желание	-7548
▁квартир	-7549
▁связаны	-7550
▁снизить	-7551
▁будущего	-7552
▁Мурманска	-7553
▁названием	-7554
▁связанные	-7555
▁благотвори	-7556
▁регистрации	-7557
▁Председатель	-7558
раж	-7559
стся	-7560
▁куп	-7561
опера	-7562
стрее	-7563
▁Гово	-7564
▁Сама	-7565
▁титу	-7566
▁Стоит	-7567
▁енные	-7568
▁гостей	-7569
▁людьми	-7570
▁мнения	-7571
▁крупные	-7572
▁питания	-7573
▁потребу	-7574
▁причины	-7575
▁вынужден	-7576
▁показать	-7577
▁привлечь	-7578
▁проводит	-7579
▁распреде	-7580
▁Института	-7581
▁настолько	-7582
▁дипломатиче	-7583
ТР	-7584
▁Щ	-7585
вшем	-7586
имен	-7587
руем	-7588
▁Кам	-7589
дении	-7590
оволь	-7591
▁пеше	-7592
▁ребя	-7593
▁Может	-7594
▁досро	-7595
▁испан	-7596
▁писал	-7597
▁форму	-7598
▁визита	-7599
▁окружа	-7600
▁постро	-7601
▁Вячеслав	-7602
▁Евросоюз	-7603
▁Захарова	-7604
▁Стоимость	-7605
▁интересов	-7606
▁интернете	-7607
▁связанных	-7608
При	-7609
ьет	-7610
естр	-7611
▁Син	-7612
▁взно	-7613
▁подъ	-7614
тифика	-7615
▁Игоря	-7616
▁Нидер	-7617
▁Право	-7618
▁возро	-7619
▁исчез	-7620
льности	-7621
▁фильме	-7622
▁большие	-7623
▁возраст	-7624
▁действие	-7625
▁посмотреть	-7626
рие	-7627
рика	-7628
село	-7629
▁Три	-7630
порта	-7631
валось	-7632
вающих	-7633
▁Times	-7634
▁жилищ	-7635
▁науки	-7636
▁нужна	-7637
▁семья	-7638
▁холод	-7639
зидента	-7640
▁красно	-7641
▁соцсет	-7642
кономраз	-7643
▁коммуна	-7644
▁остался	-7645
▁долгосро	-7646
кономразвития	-7647
▁шу	-7648
▁днев	-7649
▁моск	-7650
ленной	-7651
▁конец	-7652
▁оскор	-7653
▁руках	-7654
ционная	-7655
▁замеча	-7656
▁препят	-7657
бернатор	-7658
совершен	-7659
▁ликвиди	-7660
▁препода	-7661
▁рейтинг	-7662
ступление	-7663
▁очевидно	-7664
▁уполномо	-7665
▁нынешнего	-7666
▁правления	-7667
▁проведении	-7668
ос	-7669
сии	-7670
▁To	-7671
▁Тю	-7672
▁мм	-7673
дних	-7674
стры	-7675
кович	-7676
▁наук	-7677
▁услы	-7678
▁Банка	-7679
▁дисци	-7680
▁Дагест	-7681
▁Ученые	-7682
▁закону	-7683
▁знаком	-7684
▁искать	-7685
▁немало	-7686
▁службу	-7687
▁объекты	-7688
▁пытался	-7689
▁свидете	-7690
▁поставок	-7691
▁контракта	-7692
▁Эль	-7693
вятся	-7694
споко	-7695
▁Ближ	-7696
▁лицо	-7697
▁неуда	-7698
▁фигуран	-7699
▁наоборот	-7700
▁операций	-7701
▁операцию	-7702
▁предложен	-7703
▁дальнейшем	-7704
▁опрошенных	-7705
▁пресечения	-7706
▁опубликовал	-7707
▁российскими	-7708
▁w	-7709
ort	-7710
▁Ай	-7711
▁Ис	-7712
Авто	-7713
лями	-7714
нина	-7715
▁виз	-7716
▁двор	-7717
▁розы	-7718
▁соли	-7719
▁Агент	-7720
▁зарубе	-7721
▁округе	-7722
▁оценке	-7723
▁проверя	-7724
▁стороне	-7725
▁участок	-7726
▁молодежи	-7727
▁попросил	-7728
▁компьютер	-7729
▁оперативно	-7730
▁финансовой	-7731
▁результатов	-7732
▁необходимость	-7733
дем	-7734
кей	-7735
луб	-7736
руя	-7737
сист	-7738
▁мон	-7739
▁ров	-7740
▁тео	-7741
▁Одна	-7742
▁Пара	-7743
▁дают	-7744
летней	-7745
▁Вадим	-7746
▁врача	-7747
▁книги	-7748
▁Афгани	-7749
▁Свобод	-7750
▁вперед	-7751
▁дороге	-7752
▁импорт	-7753
▁времена	-7754
▁Светлана	-7755
▁вероятно	-7756
▁властями	-7757
▁получают	-7758
▁Российские	-7759
▁необходимые	-7760
ул	-7761
▁°	-7762
аги	-7763
без	-7764
дио	-7765
гоне	-7766
▁202	-7767
▁800	-7768
▁You	-7769
ристи	-7770
▁Оста	-7771
▁паль	-7772
ществе	-7773
▁занял	-7774
▁пошли	-7775
▁детьми	-7776
▁кадров	-7777
▁Главный	-7778
▁Николая	-7779
▁окончания	-7780
▁чемпионат	-7781
▁бомбардиров	-7782
▁Международного	-7783
нав	-7784
шив	-7785
▁Бай	-7786
▁мел	-7787
Зенит	-7788
ляцию	-7789
▁Илья	-7790
▁Роди	-7791
▁зака	-7792
▁осла	-7793
ляется	-7794
первых	-7795
▁какое	-7796
▁бензин	-7797
▁заработ	-7798
▁Нидерлан	-7799
▁Общество	-7800
▁ограничен	-7801
▁злоумышлен	-7802
▁общественных	-7803
▁политического	-7804
▁предусматривает	-7805
джа	-7806
вига	-7807
▁193	-7808
▁нер	-7809
вейца	-7810
▁дочь	-7811
▁коне	-7812
▁стен	-7813
Единая	-7814
пления	-7815
тников	-7816
▁крови	-7817
▁могло	-7818
▁прият	-7819
▁страш	-7820
▁Востока	-7821
▁десятки	-7822
▁попасть	-7823
▁профила	-7824
▁удастся	-7825
▁экипажа	-7826
▁участков	-7827
▁областной	-7828
▁объясняет	-7829
▁экономика	-7830
▁постепенно	-7831
▁российское	-7832
▁температура	-7833
▁предполагает	-7834
▁Z	-7835
all	-7836
ank	-7837
ram	-7838
▁De	-7839
▁ца	-7840
кета	-7841
оном	-7842
▁вкла	-7843
▁инду	-7844
▁ступ	-7845
▁тура	-7846
▁уйти	-7847
▁Артем	-7848
▁живет	-7849
▁пуска	-7850
▁инспек	-7851
▁коррек	-7852
▁ученых	-7853
▁будущее	-7854
▁выросли	-7855
▁площадь	-7856
▁проекте	-7857
▁приступи	-7858
▁обращения	-7859
▁журналисты	-7860
▁экономических	-7861
думы	-7862
есто	-7863
жную	-7864
слава	-7865
▁апел	-7866
▁идею	-7867
▁изба	-7868
▁изви	-7869
▁мать	-7870
меется	-7871
▁война	-7872
▁Аравии	-7873
▁врачей	-7874
▁поклон	-7875
▁Читайте	-7876
▁мировых	-7877
▁переход	-7878
▁сообщило	-7879
▁Вашингтон	-7880
▁консульта	-7881
▁серьезные	-7882
▁готовности	-7883
▁подтвержда	-7884
ДПР	-7885
Про	-7886
▁41	-7887
влек	-7888
▁опо	-7889
благо	-7890
ствий	-7891
▁блок	-7892
▁взор	-7893
▁теря	-7894
▁Чечни	-7895
▁гонки	-7896
▁Газета	-7897
▁воздуха	-7898
▁предъяв	-7899
правления	-7900
▁Вооружен	-7901
Петербурга	-7902
▁правильно	-7903
▁сократить	-7904
цо	-7905
дки	-7906
нит	-7907
▁ец	-7908
▁"),	-7909
▁Пам	-7910
▁Рай	-7911
▁Фор	-7912
▁пти	-7913
▁верх	-7914
▁виду	-7915
▁мэра	-7916
▁соба	-7917
говари	-7918
▁вышла	-7919
▁судом	-7920
▁суток	-7921
▁менедж	-7922
▁недель	-7923
▁своему	-7924
▁оставля	-7925
▁топлива	-7926
▁ического	-7927
▁совершил	-7928
▁мониторин	-7929
▁обвинение	-7930
▁сокращение	-7931
▁энергетики	-7932
▁электроэнер	-7933
▁Национальной	-7934
▁оборудование	-7935
зн	-7936
жер	-7937
гона	-7938
шиеся	-7939
▁овые	-7940
▁опол	-7941
▁рано	-7942
кварти	-7943
▁аются	-7944
▁метал	-7945
ческими	-7946
▁Бориса	-7947
▁вскоре	-7948
▁здании	-7949
▁планах	-7950
▁ическая	-7951
▁отдельных	-7952
▁устройство	-7953
▁официального	-7954
▁250	-7955
▁Турцию	-7956
▁пришел	-7957
▁церкви	-7958
▁быстрее	-7959
▁ический	-7960
▁теракта	-7961
▁населенных	-7962
▁финансовые	-7963
▁корреспондент	-7964
▁представителями	-7965
иФ	-7966
ик	-7967
сю	-7968
▁копи	-7969
▁проф	-7970
▁явно	-7971
жности	-7972
▁Генна	-7973
▁вроде	-7974
▁вспом	-7975
▁другое	-7976
▁Кадыров	-7977
▁приняла	-7978
▁Вашингто	-7979
▁централь	-7980
▁Екатерина	-7981
▁Олимпиаде	-7982
▁украинские	-7983
▁Московского	-7984
▁предоставить	-7985
▁Международной	-7986
Кон	-7987
лне	-7988
▁Гар	-7989
▁ужа	-7990
▁Азии	-7991
▁ками	-7992
▁обжа	-7993
▁проб	-7994
▁робо	-7995
▁рыно	-7996
▁Норве	-7997
▁регла	-7998
▁борьбу	-7999
▁письма	-8000
▁попали	-8001
▁числен	-8002
Известия	-8003
▁запуска	-8004
▁платфор	-8005
▁рестора	-8006
▁состоит	-8007
▁операция	-8008
▁Генпрокура	-8009
▁содержание	-8010
▁состоялась	-8011
АД	-8012
ine	-8013
▁An	-8014
▁Сы	-8015
дора	-8016
емая	-8017
сами	-8018
▁мяг	-8019
▁поя	-8020
▁фра	-8021
▁ежед	-8022
▁имен	-8023
анного	-8024
▁-2016	-8025
▁земле	-8026
▁нского	-8027
▁повлия	-8028
▁властям	-8029
▁полтора	-8030
▁телевид	-8031
▁Бразилии	-8032
▁водителя	-8033
▁объявили	-8034
▁Краснодар	-8035
▁городских	-8036
▁демонстри	-8037
▁федеральных	-8038
жан	-8039
▁Кэ	-8040
▁ищ	-8041
нару	-8042
рена	-8043
тила	-8044
▁пой	-8045
едера	-8046
▁WADA	-8047
▁Нача	-8048
▁Свер	-8049
▁пове	-8050
льянов	-8051
▁главу	-8052
▁имена	-8053
▁флота	-8054
▁мусуль	-8055
▁подели	-8056
▁прозра	-8057
Роснефть	-8058
▁военный	-8059
▁законом	-8060
▁лечения	-8061
▁таможен	-8062
▁смотреть	-8063
▁обсуждения	-8064
згла	-8065
кера	-8066
▁Луч	-8067
▁Мор	-8068
ходом	-8069
▁обез	-8070
▁штаб	-8071
▁звезд	-8072
▁кабин	-8073
▁разби	-8074
тировал	-8075
▁доллар	-8076
▁провока	-8077
▁Брюсселе	-8078
▁Соответству	-8079
▁администрация	-8080
BC	-8081
От	-8082
сль	-8083
жены	-8084
цова	-8085
▁Дол	-8086
▁бер	-8087
ствию	-8088
▁Позд	-8089
▁воду	-8090
▁исте	-8091
валась	-8092
▁Барак	-8093
▁вечер	-8094
▁выяви	-8095
▁колон	-8096
▁медиа	-8097
▁пребы	-8098
▁сексу	-8099
▁машину	-8100
▁регион	-8101
▁турнир	-8102
▁больших	-8103
▁зарубеж	-8104
▁кримина	-8105
▁миллион	-8106
▁баррелей	-8107
▁вызывает	-8108
▁пояснили	-8109
▁продоволь	-8110
▁секретарь	-8111
▁Петербурге	-8112
▁Федеральной	-8113
▁дополнительных	-8114
Но	-8115
СП	-8116
▁ЖКХ	-8117
▁Тор	-8118
▁Тре	-8119
▁ает	-8120
▁очи	-8121
▁шай	-8122
изнес	-8123
чиная	-8124
▁адап	-8125
▁зато	-8126
▁Индии	-8127
▁инфек	-8128
▁роман	-8129
▁библио	-8130
▁друзья	-8131
▁налого	-8132
▁пласти	-8133
▁рейтинге	-8134
▁ресурсов	-8135
▁состоянию	-8136
ала	-8137
▁Мон	-8138
▁Амур	-8139
▁брат	-8140
▁длин	-8141
▁звон	-8142
▁моно	-8143
▁Brent	-8144
▁видим	-8145
▁входя	-8146
▁счету	-8147
▁Британ	-8148
▁Польши	-8149
▁белору	-8150
▁бывает	-8151
▁данной	-8152
▁обыгра	-8153
▁сервис	-8154
▁информи	-8155
▁лидером	-8156
▁полгода	-8157
▁стабили	-8158
▁госсекре	-8159
▁приведет	-8160
▁спокойно	-8161
▁среднего	-8162
▁национали	-8163
▁небольшой	-8164
▁состоялся	-8165
▁медицинской	-8166
▁поддерживает	-8167
▁сотрудниками	-8168
▁законопроекта	-8169
▁национального	-8170
,6	-8171
▁Ль	-8172
лога	-8173
сель	-8174
▁СНГ	-8175
брать	-8176
▁озву	-8177
▁отец	-8178
▁Победы	-8179
▁ужесто	-8180
▁разобра	-8181
▁получает	-8182
▁решением	-8183
▁испытания	-8184
▁партнеров	-8185
▁ситуацией	-8186
▁Мурманской	-8187
.1	-8188
дела	-8189
▁Тра	-8190
▁сей	-8191
▁двер	-8192
▁плюс	-8193
▁серд	-8194
няются	-8195
▁живут	-8196
▁нрави	-8197
льность	-8198
▁Законо	-8199
▁машина	-8200
▁обраща	-8201
▁списке	-8202
▁Виктора	-8203
▁Востоке	-8204
▁открыто	-8205
▁обсудили	-8206
▁основные	-8207
▁Владимиру	-8208
▁Обществен	-8209
▁показывает	-8210
▁потребителей	-8211
▁120	-8212
▁Вен	-8213
▁Или	-8214
▁рад	-8215
▁Расс	-8216
▁атом	-8217
▁взры	-8218
▁иран	-8219
▁певи	-8220
▁сказ	-8221
▁Асада	-8222
▁Иркут	-8223
▁атаки	-8224
▁штаба	-8225
▁этапа	-8226
▁Кремле	-8227
▁авторы	-8228
▁выстре	-8229
▁пенсии	-8230
▁травмы	-8231
▁эффект	-8232
▁решении	-8233
▁родился	-8234
▁достигну	-8235
▁значение	-8236
▁начались	-8237
▁наказания	-8238
▁петербург	-8239
▁превышает	-8240
▁областного	-8241
▁собственной	-8242
la	-8243
МК	-8244
art	-8245
инг	-8246
▁(3	-8247
поле	-8248
сена	-8249
▁30-	-8250
такте	-8251
▁база	-8252
▁древ	-8253
▁моей	-8254
▁сало	-8255
потреб	-8256
▁вдруг	-8257
▁отклю	-8258
▁Кирилл	-8259
▁Леонид	-8260
▁Финлян	-8261
▁версия	-8262
▁каждом	-8263
▁поедин	-8264
▁поиска	-8265
▁Депутат	-8266
▁инженер	-8267
▁концерт	-8268
▁Специали	-8269
▁зрителей	-8270
▁полагают	-8271
▁основания	-8272
▁заключение	-8273
▁применения	-8274
▁предлагается	-8275
▁приватизации	-8276
ft	-8277
мма	-8278
хин	-8279
чали	-8280
▁50%	-8281
▁Буд	-8282
▁али	-8283
чется	-8284
▁Бара	-8285
▁Хоро	-8286
▁малы	-8287
ченный	-8288
▁герои	-8289
▁задей	-8290
▁патру	-8291
▁подал	-8292
востоке	-8293
шествен	-8294
шинство	-8295
▁многом	-8296
▁обозна	-8297
▁подоро	-8298
▁потери	-8299
▁решать	-8300
▁аппарата	-8301
▁градусов	-8302
▁начнется	-8303
▁открытия	-8304
▁обратиться	-8305
▁ске	-8306
▁сор	-8307
ждена	-8308
прият	-8309
ровку	-8310
▁2019	-8311
▁Кова	-8312
▁Яцен	-8313
▁либе	-8314
▁фаль	-8315
▁Стани	-8316
▁Финан	-8317
▁любом	-8318
▁товар	-8319
▁уволь	-8320
▁минуты	-8321
▁полуго	-8322
▁изготов	-8323
▁принятия	-8324
▁воспринима	-8325
▁соглашений	-8326
бю	-8327
дят	-8328
жая	-8329
сво	-8330
дуют	-8331
рией	-8332
▁МОК	-8333
▁Нико	-8334
▁Паль	-8335
▁раун	-8336
▁возму	-8337
▁нормы	-8338
▁Египта	-8339
▁коллег	-8340
▁москви	-8341
▁патрио	-8342
▁похоже	-8343
▁сравни	-8344
▁позднее	-8345
▁сектора	-8346
▁благодар	-8347
▁прокурор	-8348
▁экономику	-8349
▁Владимиром	-8350
▁достижения	-8351
▁продолжать	-8352
▁поддерживать	-8353
▁транспортных	-8354
▁формирования	-8355
ьян	-8356
▁ОБ	-8357
▁ил	-8358
▁Mer	-8359
анным	-8360
пресс	-8361
▁2004	-8362
▁2006	-8363
▁Двор	-8364
▁ЛДПР	-8365
▁идея	-8366
▁кури	-8367
▁лега	-8368
▁разъ	-8369
ректор	-8370
▁Минзд	-8371
▁войне	-8372
▁далее	-8373
▁карты	-8374
▁ового	-8375
▁лидеры	-8376
▁товари	-8377
▁эвакуи	-8378
▁заблоки	-8379
▁занимал	-8380
▁коллега	-8381
▁молодой	-8382
▁перечис	-8383
▁понятно	-8384
▁расстоя	-8385
▁лицензии	-8386
▁построен	-8387
▁территорий	-8388
Бе	-8389
ия	-8390
рте	-8391
шко	-8392
▁67	-8393
▁15-	-8394
▁КНР	-8395
▁Запа	-8396
▁кило	-8397
▁Думаю	-8398
▁беспи	-8399
▁гимна	-8400
▁нашем	-8401
▁трево	-8402
▁фирмы	-8403
▁единиц	-8404
▁минуте	-8405
▁Испании	-8406
▁Путиным	-8407
▁наличие	-8408
▁третьем	-8409
▁введения	-8410
▁мирового	-8411
Аль	-8412
леку	-8413
стая	-8414
цкий	-8415
▁гер	-8416
▁Инци	-8417
▁Реги	-8418
▁духов	-8419
▁задач	-8420
▁опере	-8421
▁отлич	-8422
▁судов	-8423
▁фикси	-8424
▁штата	-8425
▁мельдо	-8426
▁оборон	-8427
▁объеме	-8428
▁привет	-8429
ционеров	-8430
▁Инцидент	-8431
▁достаточ	-8432
▁началось	-8433
▁покинуть	-8434
▁вынуждены	-8435
▁направлены	-8436
▁прекратить	-8437
▁разработки	-8438
▁генерального	-8439
ПС	-8440
вян	-8441
суа	-8442
▁52	-8443
▁Бур	-8444
▁кле	-8445
▁сви	-8446
▁кова	-8447
▁коме	-8448
▁поез	-8449
▁сним	-8450
▁фами	-8451
▁Встре	-8452
▁комна	-8453
▁расту	-8454
▁докладе	-8455
▁заявлял	-8456
▁ическое	-8457
▁реформы	-8458
▁старший	-8459
▁Тульской	-8460
▁объявила	-8461
▁объявлен	-8462
▁признать	-8463
▁выполнения	-8464
▁исполнения	-8465
▁организацию	-8466
▁постановление	-8467
SJ	-8468
см	-8469
est	-8470
сан	-8471
▁56	-8472
▁Фо	-8473
Дону	-8474
ллер	-8475
▁Бен	-8476
▁Дар	-8477
ловых	-8478
▁Брит	-8479
▁школ	-8480
▁клиен	-8481
▁костю	-8482
▁продю	-8483
▁активы	-8484
▁контин	-8485
▁печати	-8486
▁проник	-8487
▁Америки	-8488
▁периода	-8489
▁намерена	-8490
▁половине	-8491
▁праздник	-8492
▁русского	-8493
▁Мурманске	-8494
▁республике	-8495
▁гендиректор	-8496
▁справедливо	-8497
▁задолженности	-8498
oom	-8499
рят	-8500
▁Al	-8501
▁Хи	-8502
▁ЧП	-8503
лера	-8504
шина	-8505
▁1,2	-8506
▁Оче	-8507
▁сва	-8508
▁точ	-8509
▁Дама	-8510
▁Надо	-8511
▁атак	-8512
▁мемо	-8513
▁живот	-8514
▁песни	-8515
ционном	-8516
ционную	-8517
▁проявля	-8518
▁туристи	-8519
▁половины	-8520
▁проведет	-8521
▁проводят	-8522
▁Экономика	-8523
▁разрабаты	-8524
▁препаратов	-8525
▁российскую	-8526
▁замминистра	-8527
дик	-8528
длов	-8529
дник	-8530
моно	-8531
▁лов	-8532
дорож	-8533
▁Юлия	-8534
вшейся	-8535
▁Наука	-8536
▁Очень	-8537
▁Сирию	-8538
▁Центр	-8539
▁стоят	-8540
▁Василь	-8541
▁Путину	-8542
▁Швейца	-8543
▁валюты	-8544
▁внесен	-8545
▁канала	-8546
▁осенью	-8547
▁Анатолий	-8548
▁дисципли	-8549
▁площадью	-8550
▁проверка	-8551
▁четверть	-8552
▁Всероссий	-8553
▁обращение	-8554
▁остальные	-8555
▁поставить	-8556
▁церемонии	-8557
▁украинский	-8558
▁профессиона	-8559
▁подозреваемых	-8560
um	-8561
Кра	-8562
зил	-8563
стые	-8564
▁the	-8565
▁Пен	-8566
▁бол	-8567
▁хле	-8568
▁Соко	-8569
▁кори	-8570
▁огра	-8571
▁шанс	-8572
▁Госде	-8573
▁Пента	-8574
▁Самар	-8575
▁армия	-8576
▁добро	-8577
▁празд	-8578
▁шансы	-8579
▁Ставро	-8580
▁наруши	-8581
▁рисков	-8582
▁районов	-8583
▁гражданам	-8584
▁продукцию	-8585
▁управлении	-8586
▁экстремист	-8587
▁Российского	-8588
▁заключается	-8589
бря	-8590
▁53	-8591
▁ый	-8592
дана	-8593
хват	-8594
▁Ins	-8595
▁Бор	-8596
▁Мос	-8597
▁зал	-8598
▁кро	-8599
▁мэр	-8600
▁сан	-8601
▁шая	-8602
▁ясно	-8603
ламент	-8604
▁Саака	-8605
▁ающих	-8606
▁банке	-8607
▁довер	-8608
▁поиск	-8609
▁счаст	-8610
▁успеха	-8611
▁Армении	-8612
▁зампред	-8613
▁патриар	-8614
▁поручил	-8615
▁стимули	-8616
▁экспорта	-8617
▁появилось	-8618
▁собираются	-8619
▁обязательств	-8620
ob	-8621
душ	-8622
ноп	-8623
▁66	-8624
▁Эн	-8625
гант	-8626
рила	-8627
щали	-8628
▁фин	-8629
влека	-8630
овыми	-8631
▁Доку	-8632
▁Зато	-8633
▁заку	-8634
▁лиши	-8635
▁штур	-8636
диться	-8637
▁Патри	-8638
▁выгод	-8639
▁пусть	-8640
▁защиту	-8641
▁охраны	-8642
▁ставку	-8643
▁заранее	-8644
▁крайней	-8645
▁тренера	-8646
▁аэропорт	-8647
▁помощник	-8648
▁бюджетных	-8649
▁Ростовской	-8650
▁Саакашвили	-8651
▁злоупотреб	-8652
▁политические	-8653
▁руководителей	-8654
▁непосредственно	-8655
▁предприниматель	-8656
,7	-8657
fe	-8658
ow	-8659
our	-8660
гур	-8661
▁тща	-8662
зиден	-8663
канчи	-8664
▁мото	-8665
мского	-8666
▁скому	-8667
▁табли	-8668
▁чисто	-8669
▁штате	-8670
▁Бизнес	-8671
▁силами	-8672
▁третье	-8673
▁ведущих	-8674
▁политик	-8675
▁привело	-8676
▁рубежом	-8677
▁участии	-8678
Справедли	-8679
▁помогает	-8680
▁трагедии	-8681
▁Олимпиады	-8682
▁последним	-8683
▁пострадал	-8684
▁требуется	-8685
▁полномочия	-8686
▁Большинство	-8687
▁установлено	-8688
sc	-8689
▁54	-8690
▁фо	-8691
ждан	-8692
▁ВКС	-8693
▁Хан	-8694
▁диз	-8695
креди	-8696
тилле	-8697
▁бокс	-8698
▁обещ	-8699
▁отоз	-8700
▁офиц	-8701
▁ряде	-8702
постав	-8703
▁ающие	-8704
▁интел	-8705
▁музей	-8706
▁сверх	-8707
▁снижа	-8708
▁цвета	-8709
▁смогла	-8710
▁угрозу	-8711
▁артилле	-8712
▁беремен	-8713
▁ведется	-8714
▁данного	-8715
▁требуют	-8716
▁вернулся	-8717
▁начинает	-8718
▁случайно	-8719
▁Благодаря	-8720
▁поступило	-8721
вия	-8722
мах	-8723
ьте	-8724
юнх	-8725
юри	-8726
гана	-8727
джет	-8728
▁Сим	-8729
▁Чис	-8730
▁Рост	-8731
▁Твер	-8732
▁креп	-8733
▁маги	-8734
▁наше	-8735
▁пунк	-8736
▁штат	-8737
▁Пенси	-8738
▁риска	-8739
▁сюжет	-8740
▁фанта	-8741
▁Каждый	-8742
▁артист	-8743
▁голову	-8744
▁испыты	-8745
▁полета	-8746
▁работо	-8747
▁смысле	-8748
▁отреаги	-8749
▁продать	-8750
▁рубрике	-8751
▁фильмов	-8752
▁частично	-8753
▁показания	-8754
▁поддержать	-8755
▁информацией	-8756
Ки	-8757
пал	-8758
мира	-8759
▁3,5	-8760
Север	-8761
▁2005	-8762
▁бесс	-8763
▁мани	-8764
▁швей	-8765
▁Какие	-8766
▁Потом	-8767
▁общий	-8768
▁подар	-8769
▁хотим	-8770
▁диалог	-8771
▁ежегод	-8772
▁решила	-8773
▁товары	-8774
▁девушка	-8775
▁достоин	-8776
▁капитал	-8777
▁крупном	-8778
▁начался	-8779
▁объекта	-8780
▁соцсети	-8781
▁квартиру	-8782
▁торговых	-8783
совершенно	-8784
▁помещения	-8785
▁профессор	-8786
▁характери	-8787
▁Казахстана	-8788
▁показатели	-8789
▁образование	-8790
▁перспективе	-8791
▁договорились	-8792
▁комментариев	-8793
▁министерство	-8794
▁несовершенно	-8795
▁соответствует	-8796
луй	-8797
нал	-8798
▁Le	-8799
годы	-8800
носи	-8801
▁Ели	-8802
менед	-8803
▁Юрия	-8804
▁села	-8805
вшиеся	-8806
спорта	-8807
строва	-8808
▁Алтай	-8809
▁Викто	-8810
▁Михай	-8811
▁вывод	-8812
▁играх	-8813
▁музея	-8814
▁нском	-8815
▁снять	-8816
▁школу	-8817
▁девяти	-8818
▁заканчи	-8819
▁примени	-8820
▁причине	-8821
▁термина	-8822
▁Известно	-8823
▁причастности	-8824
ite	-8825
бии	-8826
гие	-8827
▁59	-8828
gram	-8829
ката	-8830
нике	-8831
тору	-8832
▁Куд	-8833
▁шим	-8834
торое	-8835
▁опер	-8836
▁осве	-8837
▁взяли	-8838
▁войну	-8839
▁врачи	-8840
▁ислам	-8841
▁индекс	-8842
▁молодо	-8843
▁начнет	-8844
▁портфе	-8845
▁выставки	-8846
▁заключил	-8847
▁килограм	-8848
▁сообщали	-8849
▁возможных	-8850
▁гражданин	-8851
▁поддержал	-8852
▁внешнеполи	-8853
▁изначально	-8854
▁называется	-8855
▁установили	-8856
▁обеспечение	-8857
ели	-8858
▁4-	-8859
▁НД	-8860
Аэро	-8861
жида	-8862
зани	-8863
редо	-8864
▁Сво	-8865
▁уде	-8866
класс	-8867
▁валю	-8868
▁мама	-8869
▁ство	-8870
▁ушел	-8871
▁Олега	-8872
▁взыск	-8873
▁пособ	-8874
▁Проект	-8875
▁интегра	-8876
▁карьеру	-8877
▁разведки	-8878
▁традиции	-8879
▁двусторон	-8880
▁интересно	-8881
▁получении	-8882
▁фестиваль	-8883
▁произойдет	-8884
▁взаимодействия	-8885
ЗО	-8886
ube	-8887
лиз	-8888
льф	-8889
эта	-8890
писи	-8891
▁Vol	-8892
▁Наи	-8893
▁нав	-8894
долго	-8895
нятно	-8896
▁орби	-8897
▁визит	-8898
▁вызов	-8899
▁какая	-8900
▁Васили	-8901
▁газете	-8902
▁играет	-8903
▁реклам	-8904
▁строго	-8905
▁Турцией	-8906
▁высказы	-8907
▁заметно	-8908
▁ремонта	-8909
▁строить	-8910
▁библиоте	-8911
▁десятков	-8912
▁дисквали	-8913
▁недоволь	-8914
▁нынешнем	-8915
▁принципи	-8916
▁выполнять	-8917
▁инициативы	-8918
▁совершении	-8919
▁большинства	-8920
▁голосование	-8921
▁единственный	-8922
▁Государственной	-8923
tal	-8924
жки	-8925
зам	-8926
лую	-8927
сал	-8928
▁Ma	-8929
анин	-8930
▁Том	-8931
турой	-8932
▁дожд	-8933
▁неко	-8934
▁цену	-8935
▁Молда	-8936
▁внима	-8937
▁моста	-8938
льского	-8939
▁открыл	-8940
▁первен	-8941
действие	-8942
▁никакой	-8943
▁проекту	-8944
▁полноцен	-8945
▁поставля	-8946
▁работали	-8947
▁самолеты	-8948
▁третьего	-8949
▁Сбербанка	-8950
▁относятся	-8951
▁преподава	-8952
▁определить	-8953
▁сопровожда	-8954
▁собственных	-8955
▁традиционно	-8956
AS	-8957
II	-8958
лков	-8959
▁ФРГ	-8960
▁Чет	-8961
гресс	-8962
нецов	-8963
ровке	-8964
тория	-8965
▁Дани	-8966
▁клет	-8967
▁уско	-8968
▁язык	-8969
зывать	-8970
ментом	-8971
▁Англи	-8972
▁Женщи	-8973
▁судей	-8974
▁Грузии	-8975
▁мурман	-8976
▁подзем	-8977
▁силови	-8978
▁выиграл	-8979
▁оригина	-8980
▁Еврокоми	-8981
▁площадке	-8982
▁медицинских	-8983
▁Международный	-8984
▁экономические	-8985
НК	-8986
ОС	-8987
ced	-8988
доз	-8989
льм	-8990
мое	-8991
дера	-8992
лине	-8993
мова	-8994
▁РЖД	-8995
▁лоб	-8996
▁Джор	-8997
▁Тимо	-8998
▁овый	-8999
▁чере	-9000
читься	-9001
▁ирова	-9002
▁немед	-9003
▁нской	-9004
▁опять	-9005
нования	-9006
тирован	-9007
▁Уголов	-9008
▁весной	-9009
▁голоса	-9010
▁накопи	-9011
▁автоном	-9012
▁благопо	-9013
▁высокий	-9014
▁ожидает	-9015
▁сборную	-9016
▁напрямую	-9017
▁признали	-9018
▁бесплатно	-9019
▁получение	-9020
▁проверить	-9021
▁человеком	-9022
▁используют	-9023
▁спортсмены	-9024
▁терроризмом	-9025
▁договоренности	-9026
so	-9027
мас	-9028
суд	-9029
▁64	-9030
▁77	-9031
▁Ше	-9032
▁Жан	-9033
▁уте	-9034
мотри	-9035
торых	-9036
ульта	-9037
Газете	-9038
контро	-9039
▁акция	-9040
▁манда	-9041
▁одино	-9042
▁опаса	-9043
▁охран	-9044
▁позна	-9045
▁секун	-9046
▁успех	-9047
▁добычу	-9048
▁востоке	-9049
▁выходит	-9050
▁детских	-9051
▁допуска	-9052
▁подверг	-9053
▁поселке	-9054
▁существ	-9055
▁Директор	-9056
▁Результа	-9057
▁оставить	-9058
▁человеку	-9059
ложительно	-9060
▁построить	-9061
▁признался	-9062
▁неизвестно	-9063
▁сирийского	-9064
▁Узбекистана	-9065
▁компенсации	-9066
▁финансового	-9067
бр	-9068
эм	-9069
▁&	-9070
мал	-9071
фан	-9072
хии	-9073
бина	-9074
зать	-9075
▁Бел	-9076
▁Пла	-9077
▁хак	-9078
пиона	-9079
▁ОБСЕ	-9080
▁мете	-9081
▁овым	-9082
▁отца	-9083
носить	-9084
устрой	-9085
▁Коман	-9086
▁Матви	-9087
▁Народ	-9088
▁карто	-9089
▁орган	-9090
▁внести	-9091
▁спраши	-9092
▁Великой	-9093
▁открыть	-9094
▁сделано	-9095
▁создана	-9096
▁участка	-9097
▁участки	-9098
▁добавила	-9099
▁заключен	-9100
▁замглавы	-9101
▁скорости	-9102
▁возглавил	-9103
▁правозащи	-9104
▁развивать	-9105
▁стратегии	-9106
ейс	-9107
жие	-9108
уре	-9109
шут	-9110
▁Ол	-9111
ралле	-9112
▁жена	-9113
▁игре	-9114
▁носи	-9115
▁смеш	-9116
▁Кореи	-9117
▁каком	-9118
террори	-9119
▁важней	-9120
▁генера	-9121
▁кстати	-9122
▁налога	-9123
▁облига	-9124
▁осторо	-9125
▁оценку	-9126
▁привез	-9127
▁средне	-9128
тические	-9129
▁дефицит	-9130
▁большого	-9131
▁Матвиенко	-9132
▁правонару	-9133
▁требованиям	-9134
▁избирательной	-9135
▁правительством	-9136
ian	-9137
део	-9138
дец	-9139
суэ	-9140
▁")	-9141
▁Же	-9142
▁каб	-9143
вайте	-9144
овало	-9145
графии	-9146
торами	-9147
▁вокза	-9148
▁кажды	-9149
▁срока	-9150
▁такси	-9151
▁переме	-9152
▁спасти	-9153
▁ставка	-9154
▁стадии	-9155
▁церков	-9156
▁Силовые	-9157
▁местной	-9158
▁открыли	-9159
▁участке	-9160
тельством	-9161
▁консерва	-9162
▁поздрави	-9163
▁Валентина	-9164
▁агентству	-9165
▁характера	-9166
▁полуостров	-9167
▁разрешения	-9168
▁правительству	-9169
бар	-9170
нью	-9171
▁$5	-9172
▁09	-9173
▁ия	-9174
вард	-9175
▁Яну	-9176
▁"...	-9177
▁Анге	-9178
▁Исто	-9179
▁взял	-9180
▁откро	-9181
▁парка	-9182
▁жизнен	-9183
▁запуск	-9184
▁победа	-9185
▁спикер	-9186
▁христи	-9187
▁перекры	-9188
▁признан	-9189
▁угрозой	-9190
рованного	-9191
▁временно	-9192
Коммерсант	-9193
▁демонстра	-9194
▁сообщества	-9195
▁европейской	-9196
▁следователи	-9197
▁современных	-9198
▁управлением	-9199
▁федеральный	-9200
Па	-9201
ован	-9202
▁блю	-9203
▁изб	-9204
▁седь	-9205
▁спон	-9206
ходили	-9207
▁театр	-9208
▁тормо	-9209
канской	-9210
▁концов	-9211
▁матчей	-9212
▁привел	-9213
▁привод	-9214
▁фронта	-9215
▁госпожа	-9216
▁Украиной	-9217
▁Централь	-9218
▁напряжен	-9219
▁отвечает	-9220
▁запрещена	-9221
▁известных	-9222
▁относится	-9223
▁продолжит	-9224
▁сельского	-9225
▁находиться	-9226
▁специалист	-9227
▁строительстве	-9228
▁строительству	-9229
▁сотрудничестве	-9230
▁95	-9231
▁ет	-9232
тная	-9233
▁10%	-9234
▁50-	-9235
▁АТО	-9236
▁кин	-9237
понен	-9238
▁Мосу	-9239
▁Эсто	-9240
▁дисп	-9241
▁залож	-9242
▁ились	-9243
▁призы	-9244
▁пункт	-9245
▁шоссе	-9246
▁объемы	-9247
▁пойдет	-9248
▁связана	-9249
▁сказано	-9250
▁Комитета	-9251
▁развитии	-9252
▁водителей	-9253
▁выступили	-9254
▁население	-9255
▁одноманда	-9256
▁подготовку	-9257
▁посольства	-9258
▁Севастополя	-9259
▁госпитализи	-9260
▁рассмотрения	-9261
ИЗО	-9262
зал	-9263
люб	-9264
▁(4	-9265
▁ФИ	-9266
▁ые	-9267
▁700	-9268
cedes	-9269
ходил	-9270
▁Каре	-9271
▁хуже	-9272
ковник	-9273
▁знать	-9274
▁платы	-9275
▁подчи	-9276
▁ссыла	-9277
▁сувер	-9278
▁судья	-9279
спотреб	-9280
▁бывших	-9281
▁Бельгии	-9282
▁Сначала	-9283
▁влияния	-9284
▁последу	-9285
▁Mercedes	-9286
▁отделение	-9287
▁поражение	-9288
▁студентов	-9289
▁получается	-9290
▁продолжить	-9291
▁исследователь	-9292
яз	-9293
▁Q	-9294
ung	-9295
нив	-9296
уда	-9297
▁62	-9298
няли	-9299
пове	-9300
шков	-9301
▁дат	-9302
▁Лука	-9303
▁Шара	-9304
▁селе	-9305
кового	-9306
▁Журна	-9307
▁Нужно	-9308
▁армей	-9309
▁замед	-9310
▁непло	-9311
▁полет	-9312
надзора	-9313
▁дорогу	-9314
▁ислами	-9315
▁картин	-9316
▁Госдуме	-9317
▁Улюкаев	-9318
▁авторов	-9319
▁жителям	-9320
▁перенес	-9321
▁призыва	-9322
▁удоволь	-9323
▁предъяви	-9324
▁инвесторы	-9325
▁преследов	-9326
▁прокурора	-9327
▁гражданина	-9328
▁инициативе	-9329
▁инициативу	-9330
▁представлены	-9331
▁президентских	-9332
До	-9333
фт	-9334
жив	-9335
мяг	-9336
фиц	-9337
▁69	-9338
berg	-9339
ляли	-9340
пали	-9341
рики	-9342
тран	-9343
▁20%	-9344
▁Бог	-9345
▁Рам	-9346
▁ник	-9347
▁физ	-9348
деква	-9349
зован	-9350
лиять	-9351
тамбу	-9352
▁базу	-9353
▁бель	-9354
▁кора	-9355
▁лиди	-9356
▁прим	-9357
тельны	-9358
▁2016,	-9359
▁Откры	-9360
▁добра	-9361
▁нский	-9362
стребов	-9363
▁видимо	-9364
▁выйдет	-9365
▁выполн	-9366
▁золото	-9367
▁лучшие	-9368
▁многое	-9369
▁просит	-9370
▁службе	-9371
▁Венесуэ	-9372
▁механизм	-9373
▁Роспотреб	-9374
▁корреспон	-9375
▁режиссера	-9376
▁составили	-9377
▁Предполага	-9378
▁занимаются	-9379
▁зарубежных	-9380
▁спортсмена	-9381
ct	-9382
Ра	-9383
пно	-9384
▁58	-9385
жела	-9386
помя	-9387
▁191	-9388
▁Шар	-9389
▁гар	-9390
Йорке	-9391
части	-9392
▁вино	-9393
▁побы	-9394
▁пони	-9395
▁сухо	-9396
▁твер	-9397
▁завое	-9398
▁писто	-9399
▁подви	-9400
▁риски	-9401
▁Интере	-9402
▁дорого	-9403
▁наращи	-9404
▁подвод	-9405
▁прояви	-9406
▁ребята	-9407
▁трассе	-9408
▁журнала	-9409
▁позиция	-9410
▁сенатор	-9411
▁белорусс	-9412
▁здоровье	-9413
▁наверное	-9414
▁опасности	-9415
▁Отечествен	-9416
▁вероятность	-9417
Го	-9418
лят	-9419
мыс	-9420
▁73	-9421
▁BM	-9422
мога	-9423
▁WSJ	-9424
▁Лев	-9425
▁дип	-9426
▁ева	-9427
▁нож	-9428
▁Кари	-9429
▁биат	-9430
▁дели	-9431
▁нала	-9432
▁одни	-9433
▁тебя	-9434
емости	-9435
▁взаим	-9436
▁допро	-9437
▁отвер	-9438
▁пойти	-9439
▁сайта	-9440
▁сетях	-9441
▁скром	-9442
▁трудо	-9443
▁целей	-9444
▁Адвока	-9445
▁Примор	-9446
▁любовь	-9447
▁подход	-9448
▁Максима	-9449
▁Хабаров	-9450
▁регионы	-9451
▁передать	-9452
▁размещен	-9453
▁незаконно	-9454
▁окончательно	-9455
▁международный	-9456
▁07	-9457
енов	-9458
▁Ван	-9459
▁гек	-9460
▁шла	-9461
▁мера	-9462
▁Число	-9463
▁будто	-9464
▁любви	-9465
▁прине	-9466
▁сырье	-9467
▁Латвии	-9468
▁Стамбу	-9469
▁выводу	-9470
▁кладби	-9471
▁случаи	-9472
▁узнать	-9473
ственном	-9474
▁Ярослав	-9475
▁внешней	-9476
▁начиная	-9477
▁сосредо	-9478
▁Свердлов	-9479
▁народной	-9480
▁Следствие	-9481
▁происходя	-9482
Да	-9483
Ян	-9484
гию	-9485
хат	-9486
▁Вз	-9487
боры	-9488
мать	-9489
чева	-9490
▁Nov	-9491
▁Кру	-9492
▁Спи	-9493
▁Уни	-9494
▁шут	-9495
шихся	-9496
▁Арка	-9497
▁Лебе	-9498
▁Ника	-9499
▁Рады	-9500
▁отме	-9501
▁радо	-9502
▁Bloom	-9503
▁Такой	-9504
▁ируют	-9505
▁магни	-9506
▁Смолен	-9507
▁дистан	-9508
▁зданий	-9509
▁медали	-9510
▁эвакуа	-9511
▁Впервые	-9512
▁Встреча	-9513
▁отметив	-9514
▁оценить	-9515
▁готовится	-9516
▁случилось	-9517
▁состояния	-9518
▁банковской	-9519
▁безусловно	-9520
▁неожиданно	-9521
▁сокращения	-9522
▁оказывается	-9523
▁Европейского	-9524
▁рассмотрение	-9525
▁произошедшего	-9526
Бар	-9527
жур	-9528
eing	-9529
вшую	-9530
скоп	-9531
▁вез	-9532
▁лей	-9533
логов	-9534
▁Жене	-9535
▁буты	-9536
▁упра	-9537
▁чему	-9538
▁2015-	-9539
▁астро	-9540
▁видит	-9541
▁возме	-9542
▁жилье	-9543
▁красо	-9544
▁серде	-9545
▁четко	-9546
ческому	-9547
▁Boeing	-9548
▁Первая	-9549
▁машине	-9550
▁надзор	-9551
▁оформи	-9552
▁поезда	-9553
▁примут	-9554
▁анализа	-9555
▁пограни	-9556
▁приехал	-9557
▁туризма	-9558
▁нравится	-9559
▁органами	-9560
▁разговор	-9561
▁чиновник	-9562
▁нападение	-9563
▁оказаться	-9564
▁позволяют	-9565
▁обнаружены	-9566
▁референдума	-9567
▁высокопостав	-9568
▁исследование	-9569
st	-9570
зяй	-9571
нар	-9572
▁МК	-9573
ждая	-9574
стых	-9575
▁вен	-9576
рении	-9577
талия	-9578
▁Испо	-9579
▁введ	-9580
▁едва	-9581
▁руку	-9582
альное	-9583
вардии	-9584
руются	-9585
▁Петро	-9586
▁волон	-9587
▁вошел	-9588
▁соору	-9589
▁среды	-9590
▁упомя	-9591
▁успел	-9592
▁малого	-9593
Башнефти	-9594
ственную	-9595
▁Америке	-9596
▁Позднее	-9597
▁покупки	-9598
▁хороший	-9599
▁аналитик	-9600
▁меняется	-9601
▁созданию	-9602
▁стадиона	-9603
▁Bloomberg	-9604
▁некоторым	-9605
▁пациентов	-9606
▁процедуры	-9607
▁составить	-9608
▁следующего	-9609
▁заболеваний	-9610
▁объединения	-9611
▁перспективы	-9612
▁предвыборной	-9613
60	-9614
Ме	-9615
ял	-9616
ult	-9617
вав	-9618
дко	-9619
цин	-9620
▁Ке	-9621
agen	-9622
выми	-9623
стно	-9624
▁Гол	-9625
▁Кол	-9626
▁МВФ	-9627
града	-9628
енных	-9629
невно	-9630
▁Коло	-9631
▁Меня	-9632
▁Прои	-9633
▁зону	-9634
▁осво	-9635
▁слуш	-9636
вторых	-9637
жность	-9638
▁Ответ	-9639
▁рассу	-9640
▁рубль	-9641
▁целый	-9642
▁исходя	-9643
▁священ	-9644
▁Саратов	-9645
▁текущем	-9646
▁швейцар	-9647
▁давления	-9648
▁конкурсе	-9649
▁Петербурга	-9650
▁ликвидации	-9651
ВА	-9652
▁68	-9653
▁an	-9654
▁Род	-9655
▁пон	-9656
ланов	-9657
надца	-9658
▁Бело	-9659
▁Гроз	-9660
▁Миню	-9661
▁СИЗО	-9662
▁даст	-9663
▁интен	-9664
▁мысли	-9665
▁парам	-9666
▁текст	-9667
▁миссии	-9668
▁отличи	-9669
▁указал	-9670
Газпрома	-9671
▁Минфина	-9672
▁аппарат	-9673
▁доверия	-9674
▁символи	-9675
▁Причиной	-9676
▁придержи	-9677
▁работода	-9678
▁политиков	-9679
▁проходить	-9680
▁реализацию	-9681
▁страхования	-9682
▁единственным	-9683
▁недостаточно	-9684
▁муниципальных	-9685
ud	-9686
пр	-9687
.),	-9688
ash	-9689
вай	-9690
сел	-9691
▁РП	-9692
лежа	-9693
береж	-9694
▁имел	-9695
▁киев	-9696
▁рейс	-9697
▁угле	-9698
▁флаг	-9699
овокуп	-9700
▁делом	-9701
▁знаем	-9702
▁побед	-9703
▁заняла	-9704
▁прибыл	-9705
▁солдат	-9706
▁доклада	-9707
▁женщину	-9708
▁расстре	-9709
▁беспилот	-9710
▁понимать	-9711
▁преврати	-9712
▁принципе	-9713
▁запретить	-9714
▁народного	-9715
▁стоимостью	-9716
▁полуострова	-9717
-4	-9718
yp	-9719
ИН	-9720
ейн	-9721
лав	-9722
▁XX	-9723
▁ГК	-9724
▁аэ	-9725
▁1,6	-9726
▁BMW	-9727
▁Бра	-9728
▁Оно	-9729
▁вни	-9730
▁коп	-9731
▁щие	-9732
менту	-9733
ронов	-9734
▁енко	-9735
▁знал	-9736
▁фана	-9737
▁холо	-9738
▁Произ	-9739
▁Футбо	-9740
▁ается	-9741
▁выезд	-9742
▁канад	-9743
▁новин	-9744
▁снего	-9745
▁видели	-9746
▁научно	-9747
▁тюрьмы	-9748
▁учения	-9749
▁большей	-9750
▁максиму	-9751
▁обоснов	-9752
▁обратно	-9753
▁овского	-9754
▁очереди	-9755
▁побереж	-9756
▁хорошие	-9757
▁командой	-9758
▁написала	-9759
▁ожидания	-9760
▁памятник	-9761
▁поясняет	-9762
▁создавать	-9763
▁сотрудника	-9764
▁переговорах	-9765
▁Национального	-9766
▁использованием	-9767
▁подозреваемого	-9768
de	-9769
ксу	-9770
▁51	-9771
▁НИ	-9772
▁Куб	-9773
▁бит	-9774
▁быт	-9775
▁моя	-9776
▁сел	-9777
▁щий	-9778
анная	-9779
носит	-9780
▁Неда	-9781
▁Южно	-9782
▁млад	-9783
▁смяг	-9784
Красно	-9785
щением	-9786
▁Опера	-9787
▁Памфи	-9788
▁линей	-9789
▁месту	-9790
▁непре	-9791
▁серий	-9792
▁сомне	-9793
▁Первые	-9794
▁ареста	-9795
▁версию	-9796
▁лучшим	-9797
▁менять	-9798
▁откров	-9799
▁проезд	-9800
▁ущерба	-9801
▁близких	-9802
▁квартал	-9803
▁предпри	-9804
▁продукт	-9805
▁реализу	-9806
▁владелец	-9807
▁западных	-9808
▁значения	-9809
▁выполнить	-9810
▁лекарства	-9811
▁некоторое	-9812
▁подписали	-9813
▁последней	-9814
▁соперника	-9815
▁катастрофы	-9816
▁подчеркнула	-9817
▁восстановить	-9818
,2	-9819
ne	-9820
Ла	-9821
вах	-9822
▁on	-9823
▁Зу	-9824
Tube	-9825
▁Спу	-9826
▁жан	-9827
ницах	-9828
▁впло	-9829
▁парк	-9830
▁Inter	-9831
▁Захар	-9832
▁акцию	-9833
▁откло	-9834
▁Анаста	-9835
▁анализ	-9836
▁откуда	-9837
▁сердца	-9838
▁ставок	-9839
▁YouTube	-9840
▁Демокра	-9841
▁Королев	-9842
▁выросло	-9843
▁заложен	-9844
▁замороз	-9845
▁индекса	-9846
▁наличии	-9847
▁острове	-9848
▁позиций	-9849
▁энергии	-9850
▁вещества	-9851
▁платежей	-9852
▁собрания	-9853
▁Интерфакс	-9854
▁Всемирного	-9855
▁организацией	-9856
▁государственные	-9857
%)	-9858
ov	-9859
Ли	-9860
бус	-9861
шке	-9862
▁72	-9863
▁ще	-9864
отно	-9865
рены	-9866
рони	-9867
▁Боб	-9868
▁Ким	-9869
▁лай	-9870
близи	-9871
▁Сиби	-9872
▁араб	-9873
▁ница	-9874
▁трой	-9875
▁канал	-9876
▁сцене	-9877
▁выплат	-9878
▁доклад	-9879
▁месяцы	-9880
▁оплаты	-9881
▁рынках	-9882
▁севере	-9883
▁кодекса	-9884
▁оружием	-9885
▁частных	-9886
▁крушения	-9887
▁площадки	-9888
▁скорость	-9889
▁Участники	-9890
▁компаниями	-9891
▁поддержали	-9892
▁произведен	-9893
▁впоследствии	-9894
▁общественной	-9895
▁пользоваться	-9896
▁преимущество	-9897
▁пространства	-9898
▁столкновения	-9899
zr	-9900
То	-9901
бол	-9902
еся	-9903
шир	-9904
шом	-9905
Ведо	-9906
торе	-9907
▁ван	-9908
▁кем	-9909
▁рок	-9910
▁шту	-9911
нерго	-9912
▁кара	-9913
▁кафе	-9914
образи	-9915
▁Лидер	-9916
▁вдвое	-9917
▁пилот	-9918
▁судна	-9919
▁Белого	-9920
▁Росста	-9921
▁видеть	-9922
▁звание	-9923
▁присво	-9924
ствовала	-9925
▁Москвой	-9926
▁Самолет	-9927
▁парамет	-9928
▁перемен	-9929
▁поездки	-9930
▁понимаю	-9931
▁третьей	-9932
▁центров	-9933
опасности	-9934
▁интересу	-9935
▁личности	-9936
▁пояснила	-9937
▁хотелось	-9938
▁сосредото	-9939
▁остановить	-9940
▁предпочита	-9941
▁социального	-9942
-8	-9943
РУ	-9944
сий	-9945
шат	-9946
sche	-9947
горе	-9948
овок	-9949
сман	-9950
▁цев	-9951
▁Гали	-9952
▁Ниже	-9953
▁двой	-9954
▁лиги	-9955
▁упро	-9956
ющийся	-9957
▁алась	-9958
▁грана	-9959
▁обеих	-9960
▁ослаб	-9961
ложений	-9962
▁Аравия	-9963
▁другая	-9964
▁поступ	-9965
▁пришла	-9966
▁улицах	-9967
кономики	-9968
▁Василий	-9969
▁Мужчина	-9970
▁исправи	-9971
▁попытке	-9972
▁реабили	-9973
▁сервиса	-9974
▁функции	-9975
▁Донецкой	-9976
▁адвоката	-9977
▁наследия	-9978
▁сопротив	-9979
▁Несколько	-9980
▁востребов	-9981
▁персональ	-9982
▁Губернатор	-9983
▁Саудовская	-9984
▁банковских	-9985
▁обратились	-9986
▁получилось	-9987
▁составляют	-9988
▁Минэкономики	-9989
▁государством	-9990
▁эффективности	-9991
▁соответствующие	-9992
ОМ	-9993
лт	-9994
цом	-9995
▁74	-9996
▁99	-9997
леть	-9998
льва	-9999
план	-10000
Росте	-10001
полит	-10002
▁ался	-10003
▁аргу	-10004
▁бази	-10005
▁днях	-10006
▁прос	-10007
▁соци	-10008
▁Мекси	-10009
▁выбро	-10010
▁напис	-10011
▁смысл	-10012
▁строя	-10013
новения	-10014
▁грамот	-10015
▁друзей	-10016
▁думать	-10017
▁партию	-10018
▁такими	-10019
▁талант	-10020
▁Черного	-10021
▁доступа	-10022
▁надежду	-10023
▁интеллек	-10024
▁пропусти	-10025
▁газопрово	-10026
▁остальных	-10027
▁указывает	-10028
▁воздушного	-10029
▁наблюдения	-10030
▁спортивных	-10031
▁официальной	-10032
▁электронной	-10033
▁урегулирования	-10034
хот	-10035
▁СУ	-10036
бель	-10037
виль	-10038
етов	-10039
тесь	-10040
тило	-10041
тную	-10042
▁Sam	-10043
▁Кли	-10044
▁Гран	-10045
▁запо	-10046
▁рыба	-10047
▁экза	-10048
▁Новго	-10049
▁Сирий	-10050
▁видел	-10051
Спартак	-10052
благода	-10053
работки	-10054
▁Швеции	-10055
▁заводе	-10056
▁просят	-10057
едерация	-10058
▁добавив	-10059
▁ических	-10060
▁академии	-10061
▁ведомств	-10062
▁ключевых	-10063
▁ответить	-10064
▁полуфина	-10065
▁поблагода	-10066
▁поведение	-10067
▁подозрению	-10068
▁полученных	-10069
▁содержания	-10070
▁возможностей	-10071
▁доказательства	-10072
▁комментировать	-10073
▁государственный	-10074
:4	-10075
ПП	-10076
зен	-10077
лаш	-10078
рым	-10079
▁зу	-10080
-154	-10081
кнул	-10082
тема	-10083
▁ing	-10084
енные	-10085
менко	-10086
произ	-10087
ренко	-10088
совет	-10089
▁ания	-10090
▁имму	-10091
▁кали	-10092
▁нова	-10093
▁авший	-10094
▁назем	-10095
ступает	-10096
▁компет	-10097
▁компро	-10098
▁оскорб	-10099
▁принят	-10100
▁смотри	-10101
▁сроком	-10102
▁Главное	-10103
▁вкладов	-10104
▁данному	-10105
▁дорогах	-10106
▁зарплат	-10107
▁намного	-10108
▁страной	-10109
▁Документ	-10110
▁коллектив	-10111
▁компаниям	-10112
▁присоедин	-10113
▁активность	-10114
▁размещения	-10115
▁респондент	-10116
▁учреждений	-10117
▁большинстве	-10118
▁разобраться	-10119
▁собственные	-10120
▁родственников	-10121
Об	-10122
ler	-10123
вец	-10124
еста	-10125
онер	-10126
сипе	-10127
утся	-10128
▁Шев	-10129
▁пау	-10130
брали	-10131
▁Марк	-10132
▁Нава	-10133
▁Румы	-10134
▁очки	-10135
жемеся	-10136
льский	-10137
▁взяла	-10138
▁вторы	-10139
▁полит	-10140
▁росту	-10141
▁сетей	-10142
▁съемо	-10143
▁языка	-10144
▁Англии	-10145
▁Запада	-10146
▁ворота	-10147
▁давать	-10148
▁долгов	-10149
▁лучший	-10150
▁мирных	-10151
▁одежды	-10152
▁продав	-10153
▁группой	-10154
▁дивиден	-10155
городской	-10156
▁алкоголя	-10157
▁введение	-10158
▁остаться	-10159
▁презента	-10160
▁рейтинга	-10161
▁уточняет	-10162
▁интересах	-10163
▁принимают	-10164
▁активности	-10165
▁владельцев	-10166
▁инвестиции	-10167
▁корпорации	-10168
▁сообщество	-10169
▁социальные	-10170
▁спецслужбы	-10171
▁торжествен	-10172
▁руководству	-10173
▁Азербайджана	-10174
▁организовать	-10175
▁производители	-10176
▁рассматривает	-10177
▁экономический	-10178
др	-10179
▁―	-10180
зон	-10181
▁);	-10182
▁Ом	-10183
▁эн	-10184
Урал	-10185
скет	-10186
▁АЭС	-10187
▁ЗАО	-10188
▁реб	-10189
▁сот	-10190
▁сты	-10191
Аэроф	-10192
Ленты	-10193
товых	-10194
▁ваго	-10195
▁вида	-10196
▁глаз	-10197
▁дала	-10198
▁жиль	-10199
▁речи	-10200
▁туре	-10201
летних	-10202
чивать	-10203
▁Ирака	-10204
▁Людми	-10205
▁Около	-10206
▁нужен	-10207
▁правя	-10208
ational	-10209
▁агрега	-10210
▁баталь	-10211
▁оборот	-10212
▁портал	-10213
▁рестав	-10214
▁Воронеж	-10215
▁Замести	-10216
▁Сахалин	-10217
▁актриса	-10218
▁болезни	-10219
▁военную	-10220
▁девушки	-10221
▁началом	-10222
▁попытка	-10223
▁Особенно	-10224
▁известен	-10225
▁надеется	-10226
▁препараты	-10227
▁Специалисты	-10228
▁специальные	-10229
жь	-10230
мил	-10231
▁88	-10232
▁al	-10233
▁гг	-10234
▁ош	-10235
зион	-10236
кает	-10237
▁192	-10238
▁вак	-10239
вшему	-10240
ждать	-10241
▁офис	-10242
▁фрук	-10243
▁цело	-10244
▁Больше	-10245
▁борьба	-10246
▁личной	-10247
▁сигнал	-10248
▁угроза	-10249
▁удержи	-10250
▁планеты	-10251
▁вертолет	-10252
▁отставке	-10253
▁практике	-10254
▁приблизи	-10255
▁Австралии	-10256
▁Медведева	-10257
▁Петербург	-10258
▁добавляет	-10259
▁планирова	-10260
▁подмосков	-10261
▁принимает	-10262
▁сертифика	-10263
▁увеличения	-10264
▁конкуренции	-10265
▁стратегических	-10266
ват	-10267
▁08	-10268
▁63	-10269
▁Am	-10270
евич	-10271
етии	-10272
мбле	-10273
шого	-10274
▁улы	-10275
нулся	-10276
транс	-10277
читан	-10278
▁Было	-10279
▁вдох	-10280
▁коти	-10281
▁куро	-10282
▁общи	-10283
▁обяз	-10284
▁сест	-10285
▁брази	-10286
▁гекта	-10287
▁какую	-10288
▁прогу	-10289
▁рынки	-10290
▁аренду	-10291
▁диагно	-10292
▁экстра	-10293
▁веществ	-10294
▁кредиты	-10295
▁покупку	-10296
▁получен	-10297
▁турнире	-10298
▁Кузнецов	-10299
▁выступал	-10300
▁выходные	-10301
▁командов	-10302
▁судебных	-10303
▁продавать	-10304
▁установки	-10305
▁автомобиле	-10306
▁оставаться	-10307
▁потребовал	-10308
▁представил	-10309
▁официальным	-10310
▁федеральном	-10311
▁председателем	-10312
ke	-10313
ГО	-10314
зю	-10315
виз	-10316
▁FT	-10317
вело	-10318
скон	-10319
▁40%	-10320
▁кня	-10321
▁лон	-10322
▁Нова	-10323
▁выжи	-10324
▁иден	-10325
▁мост	-10326
честер	-10327
▁Город	-10328
▁Ожида	-10329
▁Павла	-10330
▁манев	-10331
▁проез	-10332
▁эпизо	-10333
▁Кристи	-10334
▁важных	-10335
▁вторая	-10336
▁можете	-10337
▁сессии	-10338
▁старта	-10339
▁студен	-10340
▁Надежда	-10341
▁девочки	-10342
▁молодые	-10343
▁социали	-10344
▁покупать	-10345
▁субъектов	-10346
▁устройств	-10347
▁Московский	-10348
▁внутренней	-10349
▁предложила	-10350
▁выступление	-10351
▁направлений	-10352
▁необходимых	-10353
old	-10354
енс	-10355
aily	-10356
мета	-10357
няка	-10358
тите	-10359
▁Mar	-10360
▁Зак	-10361
▁Кем	-10362
▁бабу	-10363
▁бата	-10364
▁борт	-10365
совета	-10366
ществу	-10367
▁Проис	-10368
▁Фонда	-10369
▁енных	-10370
▁забро	-10371
▁импор	-10372
▁сферы	-10373
▁формы	-10374
▁Вопрос	-10375
▁Лондон	-10376
▁приема	-10377
▁теракт	-10378
▁кабинет	-10379
▁русских	-10380
▁средней	-10381
▁денежных	-10382
▁отменить	-10383
▁соцсетях	-10384
▁магазинов	-10385
▁перемирия	-10386
▁благоприят	-10387
▁комментарии	-10388
▁рассмотреть	-10389
▁участниками	-10390
▁определенные	-10391
▁реконструкции	-10392
ost	-10393
ran	-10394
офф	-10395
тари	-10396
▁90-	-10397
▁Яку	-10398
▁жив	-10399
▁лед	-10400
▁пот	-10401
дство	-10402
▁Ката	-10403
▁Мюнх	-10404
▁доче	-10405
▁ирак	-10406
▁карт	-10407
▁сцен	-10408
енного	-10409
частую	-10410
▁Джона	-10411
▁Киров	-10412
▁ближе	-10413
▁мозга	-10414
▁ослож	-10415
▁пишут	-10416
▁слабо	-10417
▁Мосгор	-10418
▁вклады	-10419
▁выигры	-10420
▁другую	-10421
▁записи	-10422
▁остави	-10423
▁склады	-10424
▁старше	-10425
▁форуме	-10426
▁закрыть	-10427
▁объемов	-10428
▁провела	-10429
▁хочется	-10430
провозгла	-10431
▁Сбербанк	-10432
▁виновным	-10433
▁Швейцарии	-10434
▁поддержка	-10435
▁появление	-10436
▁террористы	-10437
▁Подмосковье	-10438
▁ограничений	-10439
▁сторонников	-10440
▁свидетельствуют	-10441
Пар	-10442
Пер	-10443
▁ЕГ	-10444
▁Уи	-10445
вода	-10446
гают	-10447
надо	-10448
пети	-10449
▁Тех	-10450
▁чай	-10451
граде	-10452
корей	-10453
проду	-10454
редни	-10455
рович	-10456
▁1991	-10457
▁Цель	-10458
▁доль	-10459
▁побо	-10460
ложили	-10461
▁аться	-10462
▁енной	-10463
▁конфи	-10464
▁норве	-10465
▁тести	-10466
▁Пробле	-10467
▁городу	-10468
▁золота	-10469
▁овский	-10470
▁резерв	-10471
▁реформ	-10472
▁созыва	-10473
▁финала	-10474
▁заверил	-10475
▁легкоат	-10476
▁предпоч	-10477
▁расчета	-10478
▁русский	-10479
▁скандал	-10480
▁велосипе	-10481
▁областях	-10482
▁аналитики	-10483
▁выступать	-10484
▁мусульман	-10485
▁потенциал	-10486
▁революции	-10487
▁Республике	-10488
▁задержания	-10489
▁экспертизы	-10490
▁последствий	-10491
▁проголосовали	-10492
▁самопровозгла	-10493
ie	-10494
Вы	-10495
▁]	-10496
дже	-10497
ету	-10498
оке	-10499
рис	-10500
ште	-10501
▁Эк	-10502
▁ич	-10503
▁АиФ	-10504
хозяй	-10505
▁Mail	-10506
▁Гага	-10507
▁Един	-10508
▁невы	-10509
▁очка	-10510
▁Дании	-10511
▁Примо	-10512
▁знали	-10513
▁приме	-10514
▁самих	-10515
▁финал	-10516
зования	-10517
▁Пальми	-10518
▁величи	-10519
▁иниции	-10520
▁легкой	-10521
▁мотива	-10522
▁репута	-10523
▁уведом	-10524
▁главная	-10525
▁футбола	-10526
▁вопросом	-10527
▁легендар	-10528
▁обследов	-10529
▁понимают	-10530
▁процессу	-10531
▁турецких	-10532
▁действуют	-10533
▁делегации	-10534
▁обсуждение	-10535
▁возвращения	-10536
▁обслуживания	-10537
▁международные	-10538
▁транспортного	-10539
se	-10540
АМ	-10541
▁y	-10542
льд	-10543
шан	-10544
▁ня	-10545
мель	-10546
рных	-10547
чила	-10548
ьков	-10549
▁зоо	-10550
▁сно	-10551
▁цар	-10552
ровых	-10553
▁Tele	-10554
▁Стар	-10555
▁неве	-10556
▁ович	-10557
▁опис	-10558
нуться	-10559
шенные	-10560
▁Daily	-10561
▁Новая	-10562
▁Редже	-10563
▁вслед	-10564
▁вузов	-10565
▁дежур	-10566
▁имели	-10567
▁редко	-10568
шествие	-10569
▁баланс	-10570
▁продли	-10571
▁профсо	-10572
▁сердце	-10573
▁Ульянов	-10574
▁Франция	-10575
▁потерял	-10576
▁сильный	-10577
▁выставка	-10578
▁институт	-10579
▁лекарств	-10580
▁подписан	-10581
▁серьезных	-10582
▁бизнесмена	-10583
▁муниципали	-10584
▁британского	-10585
▁наблюдается	-10586
▁подчеркивает	-10587
▁пользователи	-10588
▁производству	-10589
▁воспользоваться	-10590
end	-10591
бон	-10592
жны	-10593
лиц	-10594
ума	-10595
▁2-	-10596
▁Pl	-10597
▁Ты	-10598
▁фу	-10599
мали	-10600
▁Кре	-10601
Евров	-10602
енный	-10603
ковые	-10604
служб	-10605
▁Голо	-10606
▁Игра	-10607
▁Сена	-10608
▁сана	-10609
▁созн	-10610
▁сюда	-10611
Еврови	-10612
вающие	-10613
совест	-10614
▁Видео	-10615
▁Земли	-10616
▁Ираке	-10617
▁взлет	-10618
▁возго	-10619
енность	-10620
▁застре	-10621
▁отлича	-10622
▁розыск	-10623
Контакте	-10624
хождение	-10625
▁достичь	-10626
▁меньшей	-10627
▁местный	-10628
▁неправи	-10629
▁протест	-10630
▁Германия	-10631
▁атмосфер	-10632
▁выполнен	-10633
▁заставля	-10634
▁обжалова	-10635
▁допустить	-10636
▁контролем	-10637
▁прекрасно	-10638
▁рекоменда	-10639
▁снизилась	-10640
▁спецслужб	-10641
▁демократов	-10642
▁претендент	-10643
▁реальности	-10644
▁запрещенной	-10645
▁электронных	-10646
▁гендиректора	-10647
▁заместителем	-10648
▁Отечественной	-10649
АК	-10650
ИГ	-10651
МВД	-10652
ато	-10653
лес	-10654
нор	-10655
рян	-10656
тье	-10657
юзе	-10658
▁Sa	-10659
▁Sk	-10660
зиат	-10661
каун	-10662
ксоб	-10663
стья	-10664
феро	-10665
шена	-10666
▁Sta	-10667
▁Ему	-10668
▁Исс	-10669
▁ПАО	-10670
▁озе	-10671
Интер	-10672
рании	-10673
центр	-10674
▁Каза	-10675
▁ирую	-10676
▁огла	-10677
роятно	-10678
▁вирту	-10679
▁внеза	-10680
▁дизай	-10681
▁енная	-10682
▁зачем	-10683
▁земля	-10684
▁лауре	-10685
▁минус	-10686
▁общую	-10687
▁отдел	-10688
▁улицу	-10689
▁беспре	-10690
▁биатло	-10691
▁детали	-10692
▁заксоб	-10693
▁зелены	-10694
▁опроса	-10695
▁скорой	-10696
▁старту	-10697
▁оказать	-10698
▁расширя	-10699
▁саммита	-10700
▁Универси	-10701
▁Верховный	-10702
▁известного	-10703
▁приобрести	-10704
▁Официальный	-10705
▁направление	-10706
▁технических	-10707
▁предложением	-10708
▁рассчитывает	-10709
FA	-10710
▁78	-10711
▁Ио	-10712
ress	-10713
дром	-10714
нием	-10715
рода	-10716
тинг	-10717
▁10-	-10718
▁рук	-10719
вании	-10720
лятор	-10721
овано	-10722
рожен	-10723
ртуга	-10724
▁Тайи	-10725
▁лице	-10726
▁нена	-10727
▁ходу	-10728
▁штра	-10729
▁Такая	-10730
▁необы	-10731
▁общая	-10732
▁пробе	-10733
▁учета	-10734
▁цифры	-10735
▁жителя	-10736
▁набира	-10737
▁начнут	-10738
▁письме	-10739
▁хоккей	-10740
Известий	-10741
▁ежемеся	-10742
▁каждому	-10743
▁мужчину	-10744
▁обвинил	-10745
▁проспек	-10746
▁средний	-10747
▁формате	-10748
▁напомина	-10749
▁обладает	-10750
▁основным	-10751
▁повысить	-10752
▁возникает	-10753
▁действиях	-10754
▁антироссий	-10755
▁отказалась	-10756
▁согласился	-10757
▁составляла	-10758
▁использовали	-10759
▁собственного	-10760
▁представление	-10761
вол	-10762
▁4,5	-10763
▁Кир	-10764
▁бук	-10765
▁жил	-10766
▁здо	-10767
▁лит	-10768
▁пан	-10769
кульп	-10770
▁Высо	-10771
▁Сити	-10772
▁ФИФА	-10773
▁анон	-10774
▁моду	-10775
▁судя	-10776
tagram	-10777
ведены	-10778
▁Ситуа	-10779
▁этими	-10780
▁Европа	-10781
▁звезды	-10782
▁обрабо	-10783
▁ответа	-10784
▁штрафа	-10785
▁готовит	-10786
▁королев	-10787
▁отрасле	-10788
▁поселка	-10789
▁рабочей	-10790
▁русской	-10791
▁четверо	-10792
▁детского	-10793
▁массовой	-10794
▁передаче	-10795
▁учитывая	-10796
▁арестован	-10797
▁кредитных	-10798
▁обсуждать	-10799
▁политолог	-10800
▁совещании	-10801
▁чиновника	-10802
▁разрешение	-10803
▁официальных	-10804
▁запланирован	-10805
▁респондентов	-10806
▁эксплуатации	-10807
▁Екатеринбурге	-10808
▁деятельностью	-10809
▁восстановления	-10810
▁информационной	-10811
Ва	-10812
Та	-10813
.).	-10814
ack	-10815
дес	-10816
мию	-10817
ряз	-10818
▁Зо	-10819
▁УФ	-10820
дика	-10821
ером	-10822
фера	-10823
▁30%	-10824
▁Com	-10825
▁New	-10826
▁Мол	-10827
▁аги	-10828
▁ваш	-10829
▁лес	-10830
▁тво	-10831
▁юно	-10832
▁Стив	-10833
▁вкус	-10834
▁воин	-10835
▁двум	-10836
▁думы	-10837
Ростов	-10838
ландии	-10839
▁ирует	-10840
▁кинем	-10841
▁прину	-10842
▁языке	-10843
▁медаль	-10844
▁настав	-10845
▁секунд	-10846
▁устран	-10847
▁чтении	-10848
▁Госдума	-10849
▁ическую	-10850
▁паралле	-10851
▁пожалуй	-10852
▁полетов	-10853
▁серебря	-10854
▁направил	-10855
▁начинают	-10856
▁обеспоко	-10857
▁осталась	-10858
▁изменение	-10859
▁министром	-10860
▁направить	-10861
▁нарушении	-10862
▁основного	-10863
▁познакоми	-10864
▁пределами	-10865
▁советских	-10866
▁наркотиков	-10867
▁переворота	-10868
▁становятся	-10869
▁сотрудникам	-10870
▁Следственный	-10871
▁преступление	-10872
ЭК	-10873
ota	-10874
ТРК	-10875
бая	-10876
дка	-10877
фек	-10878
▁Йо	-10879
атра	-10880
чете	-10881
▁ЛНР	-10882
▁зон	-10883
▁худ	-10884
енной	-10885
родов	-10886
стера	-10887
▁Life	-10888
▁Sams	-10889
▁Куль	-10890
▁вода	-10891
▁выпу	-10892
▁щего	-10893
ющейся	-10894
▁израи	-10895
▁короб	-10896
▁учили	-10897
▁фронт	-10898
▁Барака	-10899
▁авиаба	-10900
▁воспит	-10901
▁выводы	-10902
▁лондон	-10903
▁любого	-10904
▁объект	-10905
▁ходить	-10906
▁членом	-10907
Спартака	-10908
рировать	-10909
▁технику	-10910
▁ирование	-10911
▁кинемато	-10912
▁недалеко	-10913
▁нефтегаз	-10914
▁посредни	-10915
▁сценарий	-10916
▁выражении	-10917
▁попросили	-10918
▁физических	-10919
▁Соединенных	-10920
▁показателей	-10921
▁представлен	-10922
▁специальных	-10923
▁участвовали	-10924
▁Федерального	-10925
▁политический	-10926
▁договоренностей	-10927
ig	-10928
ВО	-10929
ena	-10930
▁Ex	-10931
яков	-10932
▁Бес	-10933
▁Рак	-10934
▁ску	-10935
анику	-10936
▁Круп	-10937
▁курд	-10938
▁улиц	-10939
▁мотор	-10940
▁проще	-10941
▁ребят	-10942
▁удары	-10943
▁Спустя	-10944
▁героев	-10945
▁подать	-10946
▁сделок	-10947
▁широко	-10948
▁Полицей	-10949
▁Следова	-10950
▁допинга	-10951
▁корабля	-10952
▁личного	-10953
▁мальчик	-10954
▁назвала	-10955
▁однозна	-10956
▁топливо	-10957
▁ядерной	-10958
▁граждана	-10959
▁открытие	-10960
▁христиан	-10961
▁ежедневно	-10962
▁оснований	-10963
▁поражения	-10964
▁составило	-10965
▁приговорил	-10966
▁европейские	-10967
▁посетителей	-10968
▁предложений	-10969
▁современной	-10970
▁кредитования	-10971
▁обстоятельств	-10972
ид	-10973
эк	-10974
%),	-10975
ksw	-10976
дие	-10977
зму	-10978
шер	-10979
▁6-	-10980
▁др	-10981
Золо	-10982
скар	-10983
сова	-10984
тино	-10985
шель	-10986
▁ФБР	-10987
▁шка	-10988
дится	-10989
ющему	-10990
▁2003	-10991
▁Вице	-10992
▁зона	-10993
▁канц	-10994
▁мужа	-10995
дением	-10996
▁Автор	-10997
▁Одним	-10998
▁Подоб	-10999
▁землю	-11000
▁индий	-11001
▁резон	-11002
▁судьи	-11003
ремьера	-11004
▁гриппа	-11005
▁номера	-11006
▁прямой	-11007
▁Израиля	-11008
▁выбрать	-11009
▁занятия	-11010
▁оставил	-11011
▁понрави	-11012
▁создали	-11013
▁стражей	-11014
▁полузащи	-11015
▁появятся	-11016
▁телефону	-11017
▁подростков	-11018
▁спортивной	-11019
▁эмоциональ	-11020
▁болельщиков	-11021
▁футбольного	-11022
▁договориться	-11023
▁современного	-11024
СР	-11025
фед	-11026
юми	-11027
▁01	-11028
▁02	-11029
жное	-11030
▁Джу	-11031
▁Зам	-11032
▁НКО	-11033
▁Тот	-11034
▁ией	-11035
▁пен	-11036
▁чьи	-11037
Вести	-11038
ехала	-11039
йтесь	-11040
ловой	-11041
тники	-11042
торам	-11043
▁Карл	-11044
▁Наши	-11045
▁Собя	-11046
▁затя	-11047
▁ныне	-11048
▁зимой	-11049
▁кибер	-11050
▁контр	-11051
▁Версия	-11052
▁Группа	-11053
▁желани	-11054
▁занято	-11055
▁заявку	-11056
▁опусти	-11057
▁оштраф	-11058
▁полный	-11059
▁Samsung	-11060
▁девочка	-11061
▁запрета	-11062
▁контакт	-11063
▁конфлик	-11064
▁придума	-11065
▁сильнее	-11066
▁экспози	-11067
ВКонтакте	-11068
Манчестер	-11069
▁антимоно	-11070
▁выяснили	-11071
▁идеологи	-11072
▁мощности	-11073
▁перечень	-11074
▁Instagram	-11075
▁Финляндии	-11076
▁вертолета	-11077
▁намерении	-11078
▁отправить	-11079
▁подконтро	-11080
▁следующей	-11081
▁задействов	-11082
▁исполнении	-11083
▁дальнейшего	-11084
▁рассчитывать	-11085
▁многочисленные	-11086
сян	-11087
▁04	-11088
▁7-	-11089
▁9-	-11090
▁Co	-11091
▁Шо	-11092
вела	-11093
ливо	-11094
тала	-11095
чков	-11096
▁0,5	-11097
▁12-	-11098
тация	-11099
▁100%	-11100
▁2001	-11101
▁Сбор	-11102
▁мерт	-11103
▁мясо	-11104
▁фило	-11105
▁часы	-11106
▁ворот	-11107
▁отрав	-11108
▁света	-11109
▁слову	-11110
▁фабри	-11111
▁Послед	-11112
▁дизель	-11113
▁учреди	-11114
▁высокие	-11115
▁высоким	-11116
▁победил	-11117
▁предска	-11118
▁создает	-11119
▁Геннадий	-11120
▁Кадырова	-11121
▁беспоряд	-11122
▁защитить	-11123
▁космонав	-11124
▁показала	-11125
▁уточнили	-11126
▁Восточной	-11127
▁выступают	-11128
▁коллегами	-11129
▁советской	-11130
▁готовность	-11131
▁заявлением	-11132
▁исполнение	-11133
▁немедленно	-11134
▁парламенте	-11135
▁партнерами	-11136
▁профилакти	-11137
▁Заместитель	-11138
▁антитеррори	-11139
▁гражданских	-11140
▁культурного	-11141
▁мероприятие	-11142
▁прекращении	-11143
▁реализовать	-11144
▁медицинского	-11145
▁представляют	-11146
▁следственного	-11147
▁Предполагается	-11148
эл	-11149
рож	-11150
▁1-	-11151
▁190	-11152
▁СБУ	-11153
▁вар	-11154
▁мои	-11155
▁щих	-11156
завод	-11157
ровая	-11158
тника	-11159
▁весе	-11160
▁изда	-11161
▁мусо	-11162
▁ноги	-11163
▁окна	-11164
▁охва	-11165
▁посы	-11166
▁тест	-11167
▁Кирги	-11168
▁волну	-11169
▁клини	-11170
▁метео	-11171
▁нашел	-11172
▁одина	-11173
▁остро	-11174
▁свето	-11175
сообраз	-11176
▁Египет	-11177
▁атлети	-11178
▁гастро	-11179
▁границ	-11180
▁двадца	-11181
▁экскур	-11182
Интерфак	-11183
▁акционе	-11184
▁альянса	-11185
▁голланд	-11186
▁моделей	-11187
▁монасты	-11188
▁паспорт	-11189
▁подсуди	-11190
▁считаем	-11191
▁удается	-11192
▁местному	-11193
▁обвиняют	-11194
▁обсудить	-11195
▁пожалова	-11196
▁хранения	-11197
▁ядерного	-11198
▁квалифици	-11199
▁погибшего	-11200
▁спасатели	-11201
▁Ассоциации	-11202
▁обнаружено	-11203
▁терроризма	-11204
▁распоряжении	-11205
▁руководители	-11206
▁доказательств	-11207
▁рассматривать	-11208
▁Демократической	-11209
co	-11210
лел	-11211
лум	-11212
хам	-11213
▁Дю	-11214
▁яй	-11215
ился	-11216
ните	-11217
обла	-11218
▁Бой	-11219
▁Оте	-11220
▁Фло	-11221
▁шед	-11222
стики	-11223
▁2002	-11224
▁Маль	-11225
▁веру	-11226
▁егип	-11227
▁знак	-11228
▁крас	-11229
▁плей	-11230
▁рады	-11231
▁хиру	-11232
здание	-11233
▁лицом	-11234
▁новей	-11235
▁семью	-11236
▁точку	-11237
Барсело	-11238
▁Никита	-11239
▁дочери	-11240
▁мульти	-11241
▁ошибки	-11242
▁ударов	-11243
▁финале	-11244
▁ассоциа	-11245
▁ведения	-11246
▁затраты	-11247
▁ическом	-11248
▁картина	-11249
▁совокуп	-11250
▁тарифов	-11251
▁учитель	-11252
▁закрытия	-11253
▁массовых	-11254
▁отвечать	-11255
▁проходили	-11256
▁Вашингтона	-11257
▁инициатива	-11258
▁столичного	-11259
▁требование	-11260
▁действующих	-11261
▁международном	-11262
▁восстановление	-11263
АП	-11264
Ни	-11265
Те	-11266
ers	-11267
нус	-11268
Союз	-11269
джер	-11270
ссен	-11271
туда	-11272
▁Баш	-11273
▁Дет	-11274
▁кат	-11275
дрома	-11276
скать	-11277
▁виды	-11278
▁осад	-11279
▁собо	-11280
правок	-11281
▁Таджи	-11282
▁обман	-11283
▁рецеп	-11284
▁стихи	-11285
▁школа	-11286
kswagen	-11287
будсмен	-11288
▁Кузнец	-11289
▁квадра	-11290
▁кратко	-11291
▁назван	-11292
▁увидел	-11293
▁фондов	-11294
▁школах	-11295
▁авиауда	-11296
▁биологи	-11297
▁впрочем	-11298
▁вызвали	-11299
▁детский	-11300
▁наиболь	-11301
▁насилия	-11302
▁следить	-11303
▁интенсив	-11304
▁кабинета	-11305
▁нефтяных	-11306
▁партнеры	-11307
▁продукта	-11308
▁реальных	-11309
▁системой	-11310
▁устроили	-11311
▁холдинга	-11312
отечествен	-11313
▁нормально	-11314
▁сирийских	-11315
▁структура	-11316
▁Volkswagen	-11317
▁вспоминает	-11318
▁состоялось	-11319
▁американцев	-11320
▁покупателей	-11321
▁установлены	-11322
▁Руководитель	-11323
▁американским	-11324
11	-11325
АИ	-11326
-24	-11327
Нус	-11328
дру	-11329
жбы	-11330
▁05	-11331
САГО	-11332
риал	-11333
тиви	-11334
▁Тут	-11335
▁опе	-11336
▁хло	-11337
ились	-11338
ленко	-11339
▁Мель	-11340
▁купи	-11341
работи	-11342
центра	-11343
▁1990-	-11344
▁Париж	-11345
▁запас	-11346
▁кисло	-11347
▁любые	-11348
▁облег	-11349
▁помен	-11350
рически	-11351
▁боевой	-11352
▁болгар	-11353
▁вблизи	-11354
▁головы	-11355
▁доктор	-11356
▁игрока	-11357
▁импера	-11358
▁подопе	-11359
▁прийти	-11360
тический	-11361
▁Прокура	-11362
▁Соколов	-11363
▁посчита	-11364
▁реально	-11365
▁Норвегии	-11366
▁выступая	-11367
▁казалось	-11368
▁мощностью	-11369
▁памятника	-11370
▁подобного	-11371
▁процедуру	-11372
▁автоматиче	-11373
▁показывают	-11374
▁гражданского	-11375
▁эксперимента	-11376
▁эксплуатацию	-11377
▁контролировать	-11378
▁республиканцев	-11379
▁‐	-11380
%).	-11381
ФАК	-11382
пля	-11383
чеб	-11384
▁76	-11385
▁La	-11386
▁ВЭ	-11387
стый	-11388
ходу	-11389
▁Гай	-11390
▁Обы	-11391
▁Эду	-11392
ратор	-11393
▁Фонд	-11394
▁иных	-11395
▁поса	-11396
▁темы	-11397
▁укре	-11398
▁юсти	-11399
▁атаку	-11400
▁везде	-11401
▁водой	-11402
▁допол	-11403
▁дочер	-11404
▁неред	-11405
▁приви	-11406
▁ритей	-11407
▁сбора	-11408
▁Руслан	-11409
▁вплоть	-11410
▁дороже	-11411
▁заказа	-11412
▁занять	-11413
▁знания	-11414
▁какого	-11415
▁камеры	-11416
▁матчах	-11417
▁театре	-11418
▁Франсуа	-11419
▁ожидать	-11420
▁приняты	-11421
▁здоровью	-11422
▁констати	-11423
▁называет	-11424
▁нефтяной	-11425
▁открытии	-11426
▁половина	-11427
▁поправок	-11428
▁налоговых	-11429
▁опасность	-11430
▁претензии	-11431
▁противопо	-11432
▁Вашингтоне	-11433
▁американцы	-11434
▁возглавлял	-11435
▁направлено	-11436
▁отсутствия	-11437
▁перспектив	-11438
▁разработке	-11439
▁благоустрой	-11440
▁увеличилось	-11441
▁полицейского	-11442
▁соотечествен	-11443
▁Республиканской	-11444
ир	-11445
бре	-11446
лию	-11447
▁(5	-11448
▁En	-11449
▁Sh	-11450
▁ВИ	-11451
▁ФН	-11452
стым	-11453
труд	-11454
▁25-	-11455
▁Джи	-11456
▁Сла	-11457
▁дум	-11458
▁заг	-11459
▁сад	-11460
▁эми	-11461
▁небе	-11462
альная	-11463
ленным	-11464
няться	-11465
▁Эдуар	-11466
▁аэрод	-11467
▁глуби	-11468
▁добав	-11469
▁обоих	-11470
▁служб	-11471
▁упали	-11472
▁услов	-11473
▁устав	-11474
▁Вообще	-11475
▁Казани	-11476
▁Постра	-11477
▁боевые	-11478
▁встреч	-11479
▁набере	-11480
▁прокат	-11481
▁разоча	-11482
▁скульп	-11483
▁соедин	-11484
▁спецна	-11485
▁сыграл	-11486
работать	-11487
▁Адвокат	-11488
▁Надежды	-11489
▁Таджики	-11490
▁контрак	-11491
▁морской	-11492
▁перевод	-11493
▁передал	-11494
▁рекламы	-11495
▁убежден	-11496
▁зарабаты	-11497
▁личность	-11498
▁Агентство	-11499
▁Луганской	-11500
▁исключено	-11501
▁принимали	-11502
▁проблемой	-11503
▁вооружения	-11504
▁конкретных	-11505
▁коррупцией	-11506
▁отличается	-11507
▁популярных	-11508
▁проводятся	-11509
▁оценивается	-11510
▁пространство	-11511
▁землетрясения	-11512
▁постановления	-11513
ly	-11514
СВ	-11515
ФР	-11516
org	-11517
гая	-11518
дея	-11519
кос	-11520
пен	-11521
вера	-11522
йдер	-11523
слов	-11524
соли	-11525
торг	-11526
▁Выс	-11527
▁Лен	-11528
▁Фер	-11529
▁бак	-11530
▁юге	-11531
летом	-11532
ринов	-11533
услов	-11534
▁Stre	-11535
▁Роса	-11536
▁заби	-11537
▁отка	-11538
▁ства	-11539
держки	-11540
разуме	-11541
▁ОСАГО	-11542
▁ающая	-11543
▁татар	-11544
▁устра	-11545
▁фунда	-11546
▁Женеве	-11547
▁Марина	-11548
▁вызвал	-11549
▁депози	-11550
▁затрат	-11551
▁игроки	-11552
▁отвеча	-11553
▁раскри	-11554
▁близкий	-11555
▁годовщи	-11556
▁магазин	-11557
▁перейти	-11558
▁покупке	-11559
▁помогут	-11560
▁сельхоз	-11561
▁собрать	-11562
▁юстиции	-11563
▁Донбасса	-11564
▁Молдавии	-11565
▁Средизем	-11566
▁взрослых	-11567
▁вспомина	-11568
▁изучения	-11569
▁опроверг	-11570
▁приехали	-11571
▁факторов	-11572
▁элемента	-11573
▁резолюции	-11574
▁Администра	-11575
▁кандидатом	-11576
▁потребуется	-11577
▁юридических	-11578
▁региональной	-11579
,8	-11580
мс	-11581
сек	-11582
ьем	-11583
▁Оп	-11584
брал	-11585
дара	-11586
▁Con	-11587
▁Rus	-11588
▁вел	-11589
▁кво	-11590
▁Внеш	-11591
▁Думы	-11592
▁Музы	-11593
дующий	-11594
коснов	-11595
▁Ивана	-11596
▁прися	-11597
▁серию	-11598
▁стрел	-11599
вижение	-11600
▁аккаун	-11601
▁важным	-11602
▁воздух	-11603
▁обвини	-11604
▁обмена	-11605
▁отмене	-11606
▁отмены	-11607
▁приказ	-11608
▁терапи	-11609
▁фильмы	-11610
▁ировали	-11611
▁достовер	-11612
▁известны	-11613
▁обучение	-11614
▁причинам	-11615
▁пропуска	-11616
партамента	-11617
▁выплатить	-11618
▁половиной	-11619
▁участвуют	-11620
▁Захарченко	-11621
▁Центробанк	-11622
▁обратилась	-11623
▁подробности	-11624
▁российскому	-11625
▁электроэнергии	-11626
▁свидетельствует	-11627
ТИ	-11628
вий	-11629
кио	-11630
мел	-11631
▁Ат	-11632
сомо	-11633
▁Ава	-11634
▁Кла	-11635
▁Коз	-11636
▁НПФ	-11637
▁сби	-11638
▁сбы	-11639
▁шли	-11640
чикам	-11641
щикам	-11642
▁Мака	-11643
▁жюри	-11644
▁пище	-11645
▁рада	-11646
▁тебе	-11647
▁теми	-11648
▁труп	-11649
нского	-11650
скосмо	-11651
▁Токио	-11652
▁Турец	-11653
▁вопло	-11654
▁домах	-11655
▁клубе	-11656
▁осмот	-11657
▁парке	-11658
▁расто	-11659
▁трибу	-11660
▁Ленина	-11661
▁Сибири	-11662
▁кодекс	-11663
▁отрази	-11664
▁перепи	-11665
▁понадо	-11666
▁прести	-11667
▁прозву	-11668
▁травма	-11669
▁универ	-11670
▁уплаты	-11671
▁Калифор	-11672
▁Програм	-11673
▁военным	-11674
▁высоких	-11675
▁данными	-11676
▁инструк	-11677
▁маршрут	-11678
▁неприят	-11679
▁покинул	-11680
▁сделала	-11681
▁хозяева	-11682
щественно	-11683
▁обществе	-11684
▁Станислав	-11685
▁заведения	-11686
▁функциони	-11687
▁акционеров	-11688
▁начинается	-11689
▁отчетности	-11690
▁прокуратуру	-11691
▁уверенность	-11692
▁европейского	-11693
▁рекомендации	-11694
▁предусмотрено	-11695
▁производитель	-11696
▁эффективность	-11697
Ша	-11698
деб	-11699
шор	-11700
Йорк	-11701
анец	-11702
склю	-11703
щими	-11704
▁Сар	-11705
▁бух	-11706
▁вещ	-11707
▁лек	-11708
Спорт	-11709
ссией	-11710
ффици	-11711
▁Нары	-11712
▁Стол	-11713
▁бага	-11714
▁допу	-11715
▁стью	-11716
▁швед	-11717
ктябрь	-11718
▁ветер	-11719
▁линию	-11720
▁почет	-11721
▁факты	-11722
▁пакета	-11723
▁фактор	-11724
▁Ростове	-11725
▁автобус	-11726
▁реформа	-11727
▁статуса	-11728
▁высказал	-11729
▁зачастую	-11730
▁знакомый	-11731
▁народных	-11732
▁перехода	-11733
▁правилам	-11734
▁выступить	-11735
▁заявлений	-11736
▁налоговой	-11737
▁подразуме	-11738
▁страховых	-11739
▁референдум	-11740
▁справиться	-11741
▁группировка	-11742
▁иностранные	-11743
▁национальных	-11744
▁организаторы	-11745
▁подозреваемый	-11746
еви	-11747
жах	-11748
дило	-11749
зина	-11750
тном	-11751
▁Вин	-11752
▁обл	-11753
▁шие	-11754
▁эли	-11755
манов	-11756
▁1999	-11757
▁Абду	-11758
▁Защи	-11759
▁Мест	-11760
▁Судя	-11761
▁Тихо	-11762
▁Шере	-11763
▁наря	-11764
▁суды	-11765
▁Одесс	-11766
▁въезд	-11767
▁корей	-11768
▁линия	-11769
▁вызван	-11770
▁госком	-11771
▁играют	-11772
▁никому	-11773
▁обыски	-11774
▁поздно	-11775
▁правом	-11776
▁ракета	-11777
▁реестр	-11778
▁связей	-11779
▁стражу	-11780
▁хоккеи	-11781
▁честно	-11782
▁бельгий	-11783
▁дешевле	-11784
▁механиз	-11785
▁нередко	-11786
▁общения	-11787
▁свободу	-11788
▁средняя	-11789
▁странам	-11790
▁защитник	-11791
▁обучения	-11792
▁окажется	-11793
▁практика	-11794
▁снизился	-11795
▁благополу	-11796
▁владельцы	-11797
▁коммунист	-11798
▁попытался	-11799
▁утвержден	-11800
▁школьников	-11801
▁официальные	-11802
▁высказывания	-11803
▁поддерживают	-11804
▁заинтересован	-11805
-9	-11806
ив	-11807
жел	-11808
рог	-11809
▁1/	-11810
▁CN	-11811
▁Ян	-11812
голь	-11813
ковы	-11814
нуты	-11815
▁Дом	-11816
▁Окс	-11817
▁аем	-11818
нутся	-11819
океан	-11820
▁Кась	-11821
▁Саха	-11822
▁Союз	-11823
▁Цена	-11824
▁боли	-11825
▁вспы	-11826
▁зави	-11827
▁пети	-11828
▁ющих	-11829
▁ающим	-11830
▁бренд	-11831
▁двери	-11832
▁дверь	-11833
▁жилых	-11834
▁траги	-11835
рировал	-11836
▁адеква	-11837
▁трассы	-11838
▁Карелии	-11839
▁Россель	-11840
▁Симферо	-11841
▁детской	-11842
▁наступи	-11843
▁полного	-11844
▁положен	-11845
▁работой	-11846
▁выставке	-11847
▁доказать	-11848
▁жертвами	-11849
▁самоубий	-11850
Исламского	-11851
▁Минэнерго	-11852
▁безработи	-11853
▁двигателя	-11854
▁космодрома	-11855
▁потребления	-11856
▁противоречи	-11857
▁используется	-11858
▁недвижимость	-11859
▁месторождения	-11860
▁опубликованном	-11861
,9	-11862
ld	-11863
пат	-11864
▁71	-11865
▁de	-11866
филь	-11867
цист	-11868
▁and	-11869
▁Шой	-11870
inite	-11871
▁1998	-11872
▁Анто	-11873
▁Венг	-11874
▁взло	-11875
▁заба	-11876
▁мной	-11877
▁удив	-11878
графия	-11879
зацией	-11880
нением	-11881
эффици	-11882
▁2016-	-11883
▁градо	-11884
▁накоп	-11885
▁ченко	-11886
▁баскет	-11887
▁бренда	-11888
▁вызыва	-11889
▁гигант	-11890
▁клубов	-11891
▁поправ	-11892
▁потока	-11893
▁призем	-11894
▁скажем	-11895
▁фермер	-11896
▁Валерия	-11897
▁беспоко	-11898
▁госкомп	-11899
ледование	-11900
▁Novinite	-11901
▁воспитан	-11902
▁комитете	-11903
▁поставил	-11904
▁поступил	-11905
▁препарат	-11906
▁признаки	-11907
▁принимал	-11908
▁доставили	-11909
▁запрещено	-11910
▁объяснить	-11911
▁появления	-11912
▁говорилось	-11913
▁московских	-11914
▁следствием	-11915
▁советского	-11916
▁средствами	-11917
▁Законопроек	-11918
▁Свердловской	-11919
▁зафиксировано	-11920
▁независимости	-11921
ea	-11922
ГБ	-11923
ТВ	-11924
ило	-11925
пет	-11926
▁ЧМ	-11927
гель	-11928
ллет	-11929
моде	-11930
▁Игр	-11931
▁НХЛ	-11932
▁ФРС	-11933
▁уль	-11934
анное	-11935
менов	-11936
мерно	-11937
шкина	-11938
▁Заяв	-11939
▁акку	-11940
▁ники	-11941
▁поми	-11942
▁фини	-11943
цедент	-11944
▁Закон	-11945
▁Литвы	-11946
▁Много	-11947
▁Нагор	-11948
▁Счита	-11949
▁вещей	-11950
▁посол	-11951
▁раско	-11952
▁травм	-11953
▁тюрем	-11954
▁Анкаре	-11955
▁Очевид	-11956
▁Штатов	-11957
▁важный	-11958
▁делали	-11959
▁никого	-11960
▁подачи	-11961
▁сталки	-11962
тельными	-11963
▁годовых	-11964
▁неплохо	-11965
▁новости	-11966
▁отметки	-11967
▁сыграть	-11968
▁Британии	-11969
▁Главного	-11970
▁желающих	-11971
▁компенси	-11972
▁компроми	-11973
▁нынешней	-11974
▁ответили	-11975
▁писатель	-11976
▁трансфер	-11977
мечательно	-11978
▁Объединен	-11979
▁Поскольку	-11980
▁объявлено	-11981
▁совершить	-11982
▁уголовных	-11983
▁гражданами	-11984
▁конкретные	-11985
▁появляется	-11986
▁уточняется	-11987
▁футболиста	-11988
▁Центральной	-11989
▁внимательно	-11990
▁многокварти	-11991
▁способность	-11992
▁Центрального	-11993
▁зарегистрирован	-11994
ax	-11995
bg	-11996
Бу	-11997
ПЛ	-11998
ув	-11999
sia	-12000
бль	-12001
жих	-12002
сев	-12003
ваны	-12004
гром	-12005
▁350	-12006
▁900	-12007
▁Арг	-12008
▁Ино	-12009
▁куб	-12010
▁деко	-12011
▁каме	-12012
тологи	-12013
щаются	-12014
▁лицам	-12015
▁убежи	-12016
провоци	-12017
▁Партии	-12018
▁Работа	-12019
▁анонси	-12020
▁бойцов	-12021
▁вторым	-12022
▁жалобу	-12023
▁нижней	-12024
▁осозна	-12025
▁отдать	-12026
▁писать	-12027
▁подума	-12028
▁разным	-12029
▁счетов	-12030
▁Недавно	-12031
▁бюджете	-12032
▁изделий	-12033
▁станций	-12034
▁столицу	-12035
▁экспеди	-12036
▁кампанию	-12037
▁квартала	-12038
▁культуре	-12039
▁переимен	-12040
▁приготов	-12041
▁спровоци	-12042
▁Северного	-12043
▁недопусти	-12044
▁переработ	-12045
▁поведения	-12046
▁процедура	-12047
▁спектакль	-12048
▁художника	-12049
▁выполнение	-12050
▁завершения	-12051
▁регулятора	-12052
▁специализи	-12053
▁естественно	-12054
▁случившегося	-12055
▁технического	-12056
▁избирательных	-12057
▁мошенничестве	-12058
az	-12059
СУ	-12060
две	-12061
▁79	-12062
▁re	-12063
Ябло	-12064
гере	-12065
жена	-12066
тное	-12067
▁Дер	-12068
▁шую	-12069
▁щая	-12070
▁Баша	-12071
▁Нако	-12072
▁Наша	-12073
▁апте	-12074
▁фраг	-12075
смотра	-12076
▁Елиза	-12077
▁вирус	-12078
▁масса	-12079
▁орден	-12080
▁пошел	-12081
▁разум	-12082
▁судно	-12083
▁упала	-12084
ренбург	-12085
▁Intern	-12086
▁вторую	-12087
▁павиль	-12088
▁урожен	-12089
▁успели	-12090
▁хоккею	-12091
▁вдохнов	-12092
▁научных	-12093
▁пешеход	-12094
▁преддве	-12095
▁привели	-12096
▁провали	-12097
▁ресурсы	-12098
▁повлиять	-12099
▁стороной	-12100
▁уверенно	-12101
▁Ожидается	-12102
▁завершить	-12103
▁перевозки	-12104
▁получится	-12105
▁учитывать	-12106
▁журналиста	-12107
▁квадратных	-12108
▁нарушением	-12109
▁смартфонов	-12110
▁Прокуратура	-12111
▁возглавляет	-12112
▁должностных	-12113
▁целесообраз	-12114
▁министерстве	-12115
▁опубликовала	-12116
▁освобождения	-12117
▁производстве	-12118
▁парламентских	-12119
od	-12120
ity	-12121
nal	-12122
Фор	-12123
бют	-12124
▁ФС	-12125
ment	-12126
ллин	-12127
льям	-12128
нула	-12129
▁16:	-12130
▁80%	-12131
▁Хри	-12132
▁пля	-12133
лился	-12134
носят	-12135
около	-12136
проку	-12137
▁Золо	-12138
▁Путе	-12139
▁кубо	-12140
▁нерв	-12141
▁посл	-12142
▁убор	-12143
▁Дэвид	-12144
▁фонды	-12145
▁форум	-12146
▁эпиде	-12147
▁Кремль	-12148
▁Степан	-12149
▁актера	-12150
▁боепри	-12151
▁бюллет	-12152
▁жалобы	-12153
▁музыки	-12154
▁новыми	-12155
▁норвеж	-12156
▁планов	-12157
▁собран	-12158
▁Австрии	-12159
▁Эстонии	-12160
▁вступил	-12161
▁инциден	-12162
▁награды	-12163
▁отпусти	-12164
▁рабочие	-12165
▁сыграет	-12166
Локомотив	-12167
▁заменить	-12168
▁инфляция	-12169
▁конферен	-12170
▁названия	-12171
▁назначил	-12172
▁половину	-12173
▁проходил	-12174
▁советник	-12175
▁способны	-12176
▁эксперта	-12177
▁возможным	-12178
Коммерсантъ	-12179
▁завершился	-12180
▁сократился	-12181
▁удовлетвор	-12182
▁московскому	-12183
▁специальной	-12184
▁федеральной	-12185
▁произведения	-12186
▁транспортной	-12187
▁задолженность	-12188
io	-12189
зив	-12190
▁IT	-12191
▁ай	-12192
▁ас	-12193
дист	-12194
овод	-12195
сибо	-12196
▁1,1	-12197
▁Pro	-12198
▁Бах	-12199
▁Ель	-12200
▁гиб	-12201
▁ору	-12202
▁уве	-12203
собом	-12204
числи	-12205
▁лоша	-12206
▁окре	-12207
▁солн	-12208
▁южно	-12209
enault	-12210
емость	-12211
жиссер	-12212
провод	-12213
скорпо	-12214
▁видят	-12215
▁жилой	-12216
▁крест	-12217
▁мульт	-12218
▁мэрии	-12219
▁скими	-12220
▁удара	-12221
▁маркет	-12222
▁насили	-12223
▁Собянин	-12224
▁единого	-12225
▁счастли	-12226
▁членами	-12227
▁Амурской	-12228
▁агрессив	-12229
▁должност	-12230
▁способом	-12231
президента	-12232
▁возможной	-12233
▁наверняка	-12234
▁претензий	-12235
▁футболист	-12236
▁Результаты	-12237
▁миллиардер	-12238
▁паралимпий	-12239
▁преддверии	-12240
▁существуют	-12241
▁эффективно	-12242
▁внутреннего	-12243
▁заключенных	-12244
▁исключением	-12245
▁конкурентов	-12246
▁результатом	-12247
▁гуманитарной	-12248
▁корреспонден	-12249
▁преимущественно	-12250
ork	-12251
бую	-12252
жий	-12253
тип	-12254
чны	-12255
тури	-12256
▁1,4	-12257
▁130	-12258
▁160	-12259
▁Арс	-12260
▁Бон	-12261
▁пож	-12262
▁щей	-12263
▁иллю	-12264
▁рыбо	-12265
обходи	-12266
▁Перво	-12267
▁видом	-12268
▁диапа	-12269
▁отсле	-12270
▁парти	-12271
▁пусти	-12272
▁снега	-12273
▁спирт	-12274
▁Скорее	-12275
▁вечера	-12276
▁данное	-12277
▁ельные	-12278
▁заявки	-12279
▁резюми	-12280
▁рынков	-12281
▁сможем	-12282
▁федера	-12283
▁хозяев	-12284
▁Renault	-12285
▁Пенсион	-12286
▁санитар	-12287
▁западные	-12288
▁нынешний	-12289
▁опасения	-12290
▁признает	-12291
▁экологии	-12292
▁позволить	-12293
▁поздравил	-12294
▁поставили	-12295
▁судебного	-12296
▁тщательно	-12297
▁действующего	-12298
▁организаторов	-12299
Ви	-12300
зь	-12301
вети	-12302
жели	-12303
овет	-12304
чкой	-12305
▁1,3	-12306
▁Абэ	-12307
▁Вес	-12308
▁МГУ	-12309
▁Тол	-12310
▁кух	-12311
▁орк	-12312
▁цир	-12313
Транс	-12314
▁леги	-12315
▁овое	-12316
▁отзы	-12317
▁сосе	-12318
▁Астра	-12319
▁Шойгу	-12320
▁запол	-12321
▁колеб	-12322
▁сумме	-12323
▁Кастро	-12324
▁знаете	-12325
▁манипу	-12326
▁попала	-12327
▁расска	-12328
▁статью	-12329
▁юбилей	-12330
▁Минпром	-12331
▁Сергеем	-12332
▁вызвало	-12333
▁исполня	-12334
▁консоли	-12335
▁крупный	-12336
▁привлек	-12337
▁Эрдогана	-12338
▁минимума	-12339
▁основная	-12340
▁владельца	-12341
▁заплатить	-12342
▁интернета	-12343
▁произошли	-12344
▁уголовной	-12345
▁устойчиво	-12346
▁вооружений	-12347
▁московском	-12348
▁приложение	-12349
▁приходилось	-12350
▁американском	-12351
язы	-12352
▁61	-12353
▁РС	-12354
анка	-12355
енин	-12356
тизм	-12357
тков	-12358
▁Еди	-12359
анали	-12360
естер	-12361
шееся	-12362
▁Днем	-12363
▁Счет	-12364
▁моди	-12365
▁ожид	-12366
далеку	-12367
шенной	-12368
▁Башки	-12369
▁Казан	-12370
▁актов	-12371
▁забил	-12372
▁клима	-12373
▁кубин	-12374
▁носит	-12375
▁общее	-12376
▁прояв	-12377
▁слабы	-12378
▁экзем	-12379
оваться	-12380
▁Барнау	-12381
▁Другие	-12382
▁Кавказ	-12383
▁билеты	-12384
▁новому	-12385
▁сдержи	-12386
▁Берлине	-12387
▁Патриар	-12388
▁пределы	-12389
▁публику	-12390
▁резиден	-12391
▁крупного	-12392
▁снижению	-12393
▁возможное	-12394
▁занимался	-12395
▁проспекте	-12396
▁серьезный	-12397
▁директором	-12398
▁победитель	-12399
▁подготовка	-12400
▁применение	-12401
▁участвовал	-12402
▁аналогичным	-12403
▁International	-12404
▁дополнительно	-12405
▁организациями	-12406
▁отечественных	-12407
▁предполагается	-12408
▁способствовать	-12409
,3	-12410
ear	-12411
пич	-12412
яют	-12413
▁82	-12414
▁ОН	-12415
▁сп	-12416
yota	-12417
гиев	-12418
стон	-12419
▁11-	-12420
▁ВИЧ	-12421
▁Рус	-12422
▁Ска	-12423
▁Таи	-12424
▁Хор	-12425
▁вор	-12426
▁зая	-12427
▁яви	-12428
▁Анти	-12429
▁Плюс	-12430
▁Спор	-12431
▁УМВД	-12432
▁нуле	-12433
▁паро	-12434
▁хули	-12435
▁ющие	-12436
ропера	-12437
▁Ливии	-12438
▁кален	-12439
▁мином	-12440
▁надея	-12441
▁почув	-12442
▁фарма	-12443
▁Toyota	-12444
▁Канады	-12445
▁ающего	-12446
▁велико	-12447
▁доволь	-12448
▁иденти	-12449
▁налоги	-12450
▁ростом	-12451
тическом	-12452
▁бригады	-12453
▁найдены	-12454
▁народов	-12455
▁новость	-12456
▁событие	-12457
снабжения	-12458
▁Автомоби	-12459
▁домашний	-12460
▁зарплату	-12461
▁кораблей	-12462
▁магазина	-12463
▁публично	-12464
▁редакции	-12465
▁известные	-12466
▁омбудсмен	-12467
▁сведениям	-12468
▁Верховного	-12469
▁вступления	-12470
▁неизвестные	-12471
▁предупрежда	-12472
▁присутствие	-12473
▁ходатайство	-12474
▁наблюдателей	-12475
▁региональном	-12476
▁Великобритания	-12477
▁исполнительной	-12478
КР	-12479
ОН	-12480
вос	-12481
мок	-12482
мся	-12483
хим	-12484
хла	-12485
▁пр	-12486
тыми	-12487
▁180	-12488
▁60-	-12489
▁Клю	-12490
▁Тар	-12491
▁Чай	-12492
▁фло	-12493
ненно	-12494
нился	-12495
▁24".	-12496
▁Рича	-12497
▁ближ	-12498
▁вижу	-12499
▁лежа	-12500
▁судо	-12501
▁схем	-12502
ставит	-12503
▁Слова	-12504
▁вовле	-12505
▁возна	-12506
▁играл	-12507
▁конди	-12508
▁матчи	-12509
▁разво	-12510
▁солне	-12511
▁темпы	-12512
ченного	-12513
▁Вместо	-12514
▁Прежде	-12515
▁баллов	-12516
▁господ	-12517
▁медики	-12518
▁многим	-12519
▁пилота	-12520
▁самому	-12521
▁судьба	-12522
▁цивили	-12523
▁вовремя	-12524
▁мирного	-12525
▁обязаны	-12526
▁поисков	-12527
▁выходить	-12528
▁заявляет	-12529
▁кладбище	-12530
▁помогают	-12531
▁принципа	-12532
▁турецкой	-12533
▁турецкого	-12534
▁Генеральный	-12535
▁пенсионеров	-12536
▁повреждения	-12537
▁Происшествия	-12538
▁распространения	-12539
,4	-12540
san	-12541
жек	-12542
лоу	-12543
нан	-12544
▁Ar	-12545
▁XI	-12546
манд	-12547
наси	-12548
теро	-12549
▁And	-12550
летел	-12551
листы	-12552
▁Вьет	-12553
▁Наза	-12554
▁План	-12555
▁воло	-12556
▁импе	-12557
▁ницы	-12558
▁окра	-12559
ournal	-12560
ладель	-12561
▁Корея	-12562
▁Строи	-12563
▁госза	-12564
▁кафед	-12565
▁отдых	-12566
▁прока	-12567
рований	-12568
ссамбле	-12569
▁Петров	-12570
▁займет	-12571
▁киноте	-12572
▁премию	-12573
▁призыв	-12574
▁совету	-12575
▁создал	-12576
▁учений	-12577
модедово	-12578
▁Красной	-12579
▁Наконец	-12580
▁имеется	-12581
▁мировом	-12582
▁поднять	-12583
▁реакции	-12584
▁варианты	-12585
▁внедорож	-12586
▁кредитам	-12587
▁понимает	-12588
▁пределах	-12589
▁разногла	-12590
▁студенты	-12591
▁телефона	-12592
▁турецкие	-12593
▁Анастасия	-12594
▁Памфилова	-12595
▁останавли	-12596
▁разговари	-12597
▁регулятор	-12598
▁четвертый	-12599
▁контрактов	-12600
▁противодей	-12601
▁транспорте	-12602
▁участникам	-12603
▁Европейский	-12604
▁Константина	-12605
▁Руководство	-12606
▁группировок	-12607
▁кандидатуру	-12608
▁подтвердила	-12609
▁представила	-12610
▁разработать	-12611
TE	-12612
og	-12613
Ат	-12614
био	-12615
нис	-12616
рио	-12617
▁84	-12618
icro	-12619
ФАКТ	-12620
бами	-12621
иков	-12622
рава	-12623
рога	-12624
▁Меж	-12625
▁лин	-12626
▁опу	-12627
▁ура	-12628
▁уют	-12629
ванию	-12630
ейсбу	-12631
▁Рого	-12632
▁аген	-12633
▁обре	-12634
▁скор	-12635
▁снег	-12636
альном	-12637
▁Сразу	-12638
▁герой	-12639
▁делал	-12640
▁любых	-12641
держать	-12642
▁Просто	-12643
▁Роском	-12644
▁бумаги	-12645
▁канику	-12646
▁подъем	-12647
▁рейсов	-12648
▁хватит	-12649
▁законов	-12650
▁перешел	-12651
▁силовых	-12652
▁спикера	-12653
▁Дальнего	-12654
▁Ситуация	-12655
▁вознагра	-12656
▁огромное	-12657
▁отдельно	-12658
▁способен	-12659
▁участник	-12660
▁активисты	-12661
▁коллекции	-12662
▁конкурент	-12663
▁совещания	-12664
▁британской	-12665
▁пользуются	-12666
▁Азербайджан	-12667
▁французской	-12668
▁политическую	-12669
▁категорически	-12670
▁президентской	-12671
ca	-12672
hi	-12673
фу	-12674
ЕФА	-12675
вки	-12676
▁Pe	-12677
дите	-12678
пион	-12679
тьев	-12680
▁Лав	-12681
▁рух	-12682
▁сюр	-12683
ликов	-12684
ровое	-12685
ценко	-12686
щался	-12687
▁Силу	-12688
▁Спец	-12689
▁амби	-12690
▁вина	-12691
▁зали	-12692
▁краю	-12693
▁норм	-12694
▁овую	-12695
▁ряду	-12696
▁сига	-12697
▁снаб	-12698
▁четы	-12699
Зенита	-12700
▁Жуков	-12701
▁Почти	-12702
▁Федор	-12703
▁иться	-12704
▁погод	-12705
▁стиму	-12706
▁трети	-12707
биркома	-12708
читывая	-12709
▁Польше	-12710
▁безвиз	-12711
▁задачу	-12712
▁запись	-12713
▁льного	-12714
▁набрал	-12715
▁подали	-12716
▁смысла	-12717
▁военное	-12718
▁десятка	-12719
▁пристав	-12720
▁учителя	-12721
▁учиться	-12722
▁форвард	-12723
Ведомости	-12724
производи	-12725
▁включает	-12726
▁выяснить	-12727
▁госкорпо	-12728
▁дизайнер	-12729
▁заслужен	-12730
▁мощность	-12731
▁нагрузки	-12732
▁обвинили	-12733
▁полицией	-12734
▁помогать	-12735
▁посетить	-12736
▁протесту	-12737
▁китайских	-12738
▁китайской	-12739
▁материала	-12740
▁отдельные	-12741
▁пенсионер	-12742
▁перевозок	-12743
▁секретаря	-12744
▁корпорация	-12745
▁кубометров	-12746
▁основатель	-12747
▁отсутствии	-12748
▁развиваться	-12749
▁специальный	-12750
▁популярность	-12751
▁соревнованиях	-12752
▁отечественного	-12753
▁предварительно	-12754
-5	-12755
Все	-12756
лис	-12757
лям	-12758
▁IC	-12759
▁Ам	-12760
▁Ци	-12761
овую	-12762
тике	-12763
▁Акс	-12764
▁Сту	-12765
▁Эту	-12766
▁мыш	-12767
ловек	-12768
ровав	-12769
▁Bank	-12770
▁Бере	-12771
▁Пово	-12772
▁Яков	-12773
▁агра	-12774
▁выез	-12775
▁жены	-12776
▁изби	-12777
гресса	-12778
довать	-12779
ленном	-12780
▁Новак	-12781
▁завис	-12782
▁замеч	-12783
▁крово	-12784
▁льных	-12785
▁несет	-12786
▁слуша	-12787
▁титул	-12788
▁аноним	-12789
▁боксер	-12790
▁искрен	-12791
▁клиент	-12792
▁лагеря	-12793
▁обойти	-12794
▁отстра	-12795
▁формат	-12796
▁Георгий	-12797
▁Комитет	-12798
▁кардина	-12799
▁ожидают	-12800
▁супруга	-12801
▁усилить	-12802
▁Григорий	-12803
▁Наиболее	-12804
▁огромный	-12805
▁подробно	-12806
▁работала	-12807
▁скандала	-12808
▁последова	-12809
▁приговора	-12810
▁снизились	-12811
▁удостовер	-12812
▁работающих	-12813
▁рассказать	-12814
▁запрещенных	-12815
▁требованием	-12816
▁Американский	-12817
▁Законопроект	-12818
▁американская	-12819
▁обязанностей	-12820
▁подтверждает	-12821
▁университете	-12822
▁автоматически	-12823
▁урегулированию	-12824
-10	-12825
вам	-12826
вуд	-12827
глу	-12828
льт	-12829
тес	-12830
▁As	-12831
▁пь	-12832
гера	-12833
▁70-	-12834
▁Fin	-12835
▁Оле	-12836
▁шел	-12837
аньше	-12838
лагов	-12839
▁Авиа	-12840
▁Курс	-12841
▁Сере	-12842
▁Смир	-12843
▁Теле	-12844
▁избы	-12845
▁ится	-12846
▁шаги	-12847
жается	-12848
▁Львов	-12849
▁альбо	-12850
▁жесто	-12851
▁карту	-12852
▁песню	-12853
▁погру	-12854
▁склон	-12855
▁точек	-12856
▁Раньше	-12857
▁Сандер	-12858
▁беседе	-12859
▁египет	-12860
▁жилого	-12861
▁законы	-12862
▁избави	-12863
▁палата	-12864
▁прочих	-12865
▁пункты	-12866
▁сектор	-12867
▁уходит	-12868
▁Большой	-12869
▁взносов	-12870
▁госпита	-12871
▁карьеры	-12872
▁кредита	-12873
▁критику	-12874
▁оппонен	-12875
▁чувству	-12876
▁дипломат	-12877
▁заметили	-12878
▁понадоби	-12879
▁правовой	-12880
▁районный	-12881
▁редактор	-12882
▁Последний	-12883
▁массового	-12884
▁украинцев	-12885
▁активистов	-12886
▁задержании	-12887
▁контролиру	-12888
▁поверхности	-12889
▁центральной	-12890
▁подразделений	-12891
▁руководителем	-12892
ab	-12893
lin	-12894
вим	-12895
▁"?	-12896
▁is	-12897
▁Гю	-12898
▁Мэ	-12899
мыми	-12900
нями	-12901
симу	-12902
▁Mot	-12903
▁Дне	-12904
▁ЮКО	-12905
▁сра	-12906
ладен	-12907
ненко	-12908
терии	-12909
чиком	-12910
▁Меди	-12911
▁Неза	-12912
▁Тран	-12913
▁кофе	-12914
▁насы	-12915
Яндекс	-12916
гности	-12917
тивная	-12918
тивное	-12919
▁Акаде	-12920
▁Объем	-12921
▁книгу	-12922
▁нским	-12923
▁сырья	-12924
▁Вскоре	-12925
▁аренды	-12926
▁банком	-12927
▁гибель	-12928
▁горячи	-12929
▁заявок	-12930
▁коллед	-12931
▁нашими	-12932
▁просро	-12933
▁районы	-12934
▁такому	-12935
▁узнали	-12936
катастро	-12937
▁Женщина	-12938
▁Лондона	-12939
▁выбрали	-12940
▁запущен	-12941
▁металли	-12942
▁надеюсь	-12943
▁планета	-12944
▁привела	-12945
▁тяжелой	-12946
▁холдинг	-12947
▁генпроку	-12948
▁кампания	-12949
▁отправил	-12950
▁позволят	-12951
▁показыва	-12952
▁прогресс	-12953
▁Интересно	-12954
▁запретили	-12955
▁ированный	-12956
▁обойдется	-12957
▁праздника	-12958
▁чемпионом	-12959
▁особенности	-12960
▁пространстве	-12961
▁специализирован	-12962
дю	-12963
пле	-12964
соф	-12965
▁to	-12966
▁Пх	-12967
orld	-12968
лыми	-12969
рите	-12970
▁Нац	-12971
▁бай	-12972
редит	-12973
▁1992	-12974
▁Руси	-12975
▁гале	-12976
▁отбы	-12977
▁пары	-12978
▁сете	-12979
▁храм	-12980
▁шись	-12981
альную	-12982
ходило	-12983
▁вреза	-12984
▁енным	-12985
▁жидко	-12986
▁игрок	-12987
▁льный	-12988
▁повод	-12989
▁прису	-12990
▁рекор	-12991
▁сахар	-12992
▁сотен	-12993
▁ухода	-12994
▁числу	-12995
водится	-12996
▁Деньги	-12997
▁Поклон	-12998
▁Уильям	-12999
▁автора	-13000
▁выдели	-13001
▁жизнью	-13002
▁заявив	-13003
▁лагере	-13004
▁машино	-13005
▁нейтра	-13006
▁пенсию	-13007
▁полеты	-13008
▁решено	-13009
▁тарифы	-13010
▁факуль	-13011
▁центры	-13012
ждествен	-13013
▁изданию	-13014
▁корабль	-13015
▁акционер	-13016
▁определя	-13017
▁подсчета	-13018
▁проверок	-13019
▁Самарской	-13020
▁вариантов	-13021
▁двигатель	-13022
▁заработал	-13023
▁категория	-13024
▁работники	-13025
▁раскритик	-13026
▁совершили	-13027
▁трудности	-13028
▁управлять	-13029
▁комплексов	-13030
▁пребывания	-13031
▁встретиться	-13032
▁опубликовано	-13033
▁региональные	-13034
▁общественности	-13035
ue	-13036
ada	-13037
▁.0	-13038
▁FI	-13039
мане	-13040
рины	-13041
ртом	-13042
стал	-13043
тоза	-13044
шала	-13045
▁Зай	-13046
▁Наш	-13047
▁Сен	-13048
▁шин	-13049
запре	-13050
колог	-13051
тером	-13052
▁Коли	-13053
▁Похо	-13054
▁басс	-13055
▁дале	-13056
▁ился	-13057
▁итог	-13058
жников	-13059
ровкой	-13060
▁Майкл	-13061
▁Орлов	-13062
▁балла	-13063
▁вдоль	-13064
▁вреда	-13065
▁гидро	-13066
▁незна	-13067
▁сумел	-13068
▁сцены	-13069
▁утили	-13070
дически	-13071
▁Жители	-13072
▁защита	-13073
▁мотиви	-13074
▁пенсий	-13075
▁угодно	-13076
▁уровню	-13077
▁фавори	-13078
▁фальси	-13079
▁Израиль	-13080
▁Людмила	-13081
▁воздухе	-13082
▁закупок	-13083
▁обуслов	-13084
▁сельско	-13085
▁сложнее	-13086
▁соседни	-13087
▁увидели	-13088
▁Николаев	-13089
▁дефицита	-13090
▁заявляют	-13091
▁напротив	-13092
▁ребенком	-13093
▁стадионе	-13094
▁Казахстан	-13095
▁ближайших	-13096
▁торгового	-13097
▁поддержкой	-13098
▁предложить	-13099
▁приложения	-13100
▁разумеется	-13101
▁содержится	-13102
▁сохранения	-13103
▁физической	-13104
▁Вооруженных	-13105
▁гражданство	-13106
▁путешествен	-13107
▁собственный	-13108
▁Одновременно	-13109
▁олимпийского	-13110
▁стремительно	-13111
▁собственность	-13112
ai	-13113
КБ	-13114
enz	-13115
НАС	-13116
рач	-13117
реи	-13118
сун	-13119
цер	-13120
юка	-13121
▁Gu	-13122
▁Ны	-13123
▁Эй	-13124
лосу	-13125
тайн	-13126
▁13:	-13127
▁15%	-13128
▁16-	-13129
▁Иса	-13130
▁Кей	-13131
▁заб	-13132
▁пев	-13133
валов	-13134
дущий	-13135
нисти	-13136
спект	-13137
▁мега	-13138
▁мяса	-13139
▁Рязан	-13140
▁балли	-13141
▁беско	-13142
▁бомбы	-13143
▁войти	-13144
▁масло	-13145
▁нести	-13146
овывать	-13147
стройки	-13148
▁Япония	-13149
▁выходе	-13150
▁законе	-13151
▁основу	-13152
▁оценка	-13153
▁подала	-13154
▁Европар	-13155
▁Сколько	-13156
▁аккреди	-13157
▁владеет	-13158
▁выполня	-13159
▁журнале	-13160
▁обещают	-13161
▁реанима	-13162
▁реструк	-13163
▁филиала	-13164
▁Необходи	-13165
▁Тверской	-13166
▁коэффици	-13167
▁мальчика	-13168
▁приходит	-13169
▁сомнения	-13170
▁высказыва	-13171
▁диагности	-13172
▁доброволь	-13173
▁инвалидов	-13174
▁оценивает	-13175
▁Александру	-13176
▁освободить	-13177
▁разработку	-13178
▁впечатление	-13179
▁задержанных	-13180
▁подчеркнули	-13181
▁способности	-13182
▁Общественной	-13183
▁зафиксирован	-13184
▁используются	-13185
▁политическим	-13186
▁французского	-13187
ee	-13188
НЕ	-13189
дох	-13190
чел	-13191
яет	-13192
▁+1	-13193
▁ed	-13194
▁st	-13195
▁дю	-13196
▁ню	-13197
▁ое	-13198
Джеб	-13199
бера	-13200
димо	-13201
жник	-13202
▁1,8	-13203
▁13-	-13204
▁Год	-13205
▁инг	-13206
▁опи	-13207
▁пут	-13208
▁чей	-13209
Откры	-13210
дению	-13211
дился	-13212
товые	-13213
▁Ford	-13214
▁Доба	-13215
▁Лари	-13216
▁Паки	-13217
▁замы	-13218
▁обоз	-13219
▁опор	-13220
▁убит	-13221
▁упор	-13222
бирком	-13223
восток	-13224
▁Варша	-13225
▁Пожар	-13226
▁героя	-13227
▁затро	-13228
▁крыла	-13229
▁любит	-13230
▁моего	-13231
▁подор	-13232
▁серия	-13233
▁стены	-13234
▁фигур	-13235
▁эпохи	-13236
Джебхат	-13237
▁Роберт	-13238
▁каждая	-13239
▁личных	-13240
▁следов	-13241
тическая	-13242
тическое	-13243
▁Journal	-13244
▁Аркадий	-13245
▁Немцова	-13246
▁держать	-13247
▁диалога	-13248
▁задачей	-13249
▁отрасль	-13250
▁победой	-13251
▁получив	-13252
▁прошлый	-13253
▁секунды	-13254
▁сериала	-13255
▁уровнем	-13256
▁чувства	-13257
▁Киргизии	-13258
▁заявляли	-13259
▁материал	-13260
▁полутора	-13261
▁стациона	-13262
▁проводили	-13263
▁интеграции	-13264
▁использует	-13265
▁количеству	-13266
▁материалах	-13267
▁метрополит	-13268
▁противника	-13269
▁Федеральная	-13270
▁Челябинской	-13271
▁собеседника	-13272
▁технические	-13273
▁представления	-13274
▁производителя	-13275
▁взаимодействие	-13276
▁правоохранители	-13277
th	-13278
зис	-13279
хие	-13280
▁5%	-13281
▁ею	-13282
roid	-13283
стет	-13284
фаль	-13285
▁бег	-13286
▁вку	-13287
▁оты	-13288
▁пат	-13289
▁чар	-13290
АРНАС	-13291
байка	-13292
▁ание	-13293
▁иков	-13294
▁навы	-13295
▁теме	-13296
ковича	-13297
нестре	-13298
нулись	-13299
▁2014-	-13300
▁Плани	-13301
▁ающей	-13302
▁бронз	-13303
▁дворе	-13304
▁закре	-13305
▁легче	-13306
▁любят	-13307
▁темпа	-13308
▁упраж	-13309
▁Францу	-13310
▁автоса	-13311
▁быстры	-13312
▁важные	-13313
▁закреп	-13314
▁изнаси	-13315
▁округу	-13316
▁основы	-13317
▁охране	-13318
▁полную	-13319
▁попроб	-13320
▁Причина	-13321
▁вызвала	-13322
▁диверси	-13323
▁закупки	-13324
▁объемом	-13325
▁одержал	-13326
▁подарок	-13327
▁развива	-13328
▁раненых	-13329
▁сложных	-13330
▁структу	-13331
▁Депутаты	-13332
▁Пострада	-13333
▁защищать	-13334
▁комиссию	-13335
▁нынешних	-13336
▁педагоги	-13337
▁принятие	-13338
▁согласен	-13339
▁талантли	-13340
▁торговле	-13341
▁ветеранов	-13342
▁обнародов	-13343
▁расширить	-13344
▁антимонопо	-13345
▁километрах	-13346
▁обращаться	-13347
▁президенте	-13348
▁совместной	-13349
▁банкротства	-13350
▁управляющий	-13351
▁представлять	-13352
▁сотрудничать	-13353
▁регулирования	-13354
▁соответствующих	-13355
ry	-13356
Би	-13357
лк	-13358
man	-13359
льс	-13360
▁Op	-13361
▁Po	-13362
День	-13363
вана	-13364
вова	-13365
едет	-13366
квид	-13367
мене	-13368
▁Где	-13369
▁Еро	-13370
▁Мэр	-13371
▁джи	-13372
▁ики	-13373
▁лом	-13374
стает	-13375
финан	-13376
▁Были	-13377
▁Моро	-13378
▁Стре	-13379
▁вами	-13380
▁ения	-13381
▁книг	-13382
▁меру	-13383
▁мили	-13384
▁небо	-13385
венции	-13386
обелев	-13387
щегося	-13388
▁Micro	-13389
▁Багда	-13390
▁Общая	-13391
▁Прода	-13392
▁Часть	-13393
▁двоих	-13394
▁заряд	-13395
▁любое	-13396
▁метод	-13397
▁мусор	-13398
▁слухи	-13399
▁соеди	-13400
▁специ	-13401
▁ствен	-13402
▁техно	-13403
▁Анкара	-13404
▁Нового	-13405
▁банках	-13406
▁ельный	-13407
▁зоопар	-13408
▁какими	-13409
▁мешает	-13410
▁музыку	-13411
▁наград	-13412
▁обещал	-13413
▁повлек	-13414
▁руками	-13415
▁Кандида	-13416
▁Финансы	-13417
▁ведутся	-13418
▁вопросе	-13419
▁вывести	-13420
▁оценили	-13421
▁условно	-13422
▁капитали	-13423
▁оказания	-13424
▁пациента	-13425
▁получали	-13426
▁резонанс	-13427
▁сегменте	-13428
▁стрельбы	-13429
▁аудитории	-13430
▁вернулись	-13431
▁готовятся	-13432
▁нуждается	-13433
▁обращении	-13434
▁оказывать	-13435
▁прогнозам	-13436
▁следующие	-13437
▁элементов	-13438
▁Татарстана	-13439
▁действиями	-13440
▁сохранение	-13441
▁возвращение	-13442
▁обвиняемого	-13443
▁ограничение	-13444
▁представили	-13445
▁современные	-13446
▁продолжаются	-13447
▁существования	-13448
▁предоставления	-13449
▁антидопингового	-13450
ua	-13451
пс	-13452
udi	-13453
ВАЗ	-13454
маз	-13455
▁ФК	-13456
мара	-13457
стят	-13458
▁Пло	-13459
▁Тро	-13460
▁Юго	-13461
говое	-13462
леров	-13463
летию	-13464
лигар	-13465
хозна	-13466
ционе	-13467
чатки	-13468
▁1996	-13469
▁Федо	-13470
▁лись	-13471
▁моих	-13472
▁спад	-13473
дмирал	-13474
ллиона	-13475
читать	-13476
▁Важно	-13477
▁загру	-13478
▁преем	-13479
▁рейсы	-13480
▁спект	-13481
невосто	-13482
ставила	-13483
▁Камчат	-13484
▁апелля	-13485
▁генети	-13486
▁глазах	-13487
▁задума	-13488
▁каждым	-13489
▁личный	-13490
▁навига	-13491
▁образу	-13492
▁оттуда	-13493
▁родину	-13494
▁экипаж	-13495
▁Android	-13496
▁Забайка	-13497
▁Русская	-13498
▁болезнь	-13499
▁высшего	-13500
▁городом	-13501
▁диагноз	-13502
▁оснащен	-13503
▁особого	-13504
▁повторя	-13505
▁пунктах	-13506
▁сложной	-13507
▁хищении	-13508
▁хорошая	-13509
▁штрафов	-13510
▁Организа	-13511
▁денежные	-13512
▁достигла	-13513
▁огнестре	-13514
▁оператор	-13515
▁отставки	-13516
▁практику	-13517
▁призвали	-13518
▁туропера	-13519
▁Дагестана	-13520
▁задержала	-13521
▁ированные	-13522
▁останутся	-13523
▁заработной	-13524
▁количестве	-13525
▁называемой	-13526
▁неподалеку	-13527
▁обвиняется	-13528
▁полученные	-13529
▁результата	-13530
▁собственно	-13531
▁украинская	-13532
▁Нидерландов	-13533
▁территориях	-13534
▁происхождения	-13535
▁исполнительный	-13536
TI	-13537
ph	-13538
vi	-13539
:1.	-13540
ану	-13541
бля	-13542
дзе	-13543
жна	-13544
маш	-13545
▁$7	-13546
▁Da	-13547
▁Fo	-13548
▁ят	-13549
▁12.	-13550
▁мод	-13551
▁пас	-13552
енным	-13553
торию	-13554
▁1000	-13555
▁1995	-13556
▁Алта	-13557
▁Зика	-13558
▁Маке	-13559
▁Собе	-13560
▁идей	-13561
▁ищут	-13562
▁лест	-13563
▁пада	-13564
▁приу	-13565
▁рубе	-13566
релизе	-13567
▁Навер	-13568
▁волей	-13569
▁драма	-13570
▁зерна	-13571
▁исход	-13572
▁мечта	-13573
▁облом	-13574
▁округ	-13575
▁офшор	-13576
▁очные	-13577
▁прохо	-13578
▁стиле	-13579
ровался	-13580
▁Африки	-13581
▁Другой	-13582
▁Задерж	-13583
▁Первое	-13584
▁австра	-13585
▁адресу	-13586
▁долгое	-13587
▁клетки	-13588
▁летних	-13589
▁литров	-13590
▁нашему	-13591
▁хотите	-13592
▁Арбитра	-13593
▁видеоза	-13594
▁выручки	-13595
▁моменту	-13596
▁обещает	-13597
▁обыграл	-13598
▁пообеща	-13599
▁послужи	-13600
▁постара	-13601
▁реакция	-13602
▁статьям	-13603
▁хватило	-13604
▁Васильев	-13605
▁Культура	-13606
▁выделить	-13607
▁выиграла	-13608
▁добавить	-13609
▁лидерами	-13610
▁паспорта	-13611
▁практики	-13612
▁проанали	-13613
▁сегмента	-13614
▁Собеседни	-13615
▁вернулась	-13616
▁позволило	-13617
▁социологи	-13618
▁Советского	-13619
▁заключении	-13620
▁кредиторов	-13621
▁телеканалу	-13622
▁Полицейские	-13623
▁Правоохрани	-13624
▁вооруженные	-13625
▁обеспечению	-13626
▁пользователь	-13627
▁претендентов	-13628
▁удовлетворил	-13629
▁потенциальных	-13630
ood	-13631
Наф	-13632
еро	-13633
рус	-13634
▁(+	-13635
▁ВД	-13636
▁ит	-13637
деев	-13638
емую	-13639
ждую	-13640
твор	-13641
▁Gal	-13642
▁Лоб	-13643
▁Неф	-13644
▁жар	-13645
▁сбе	-13646
Нафто	-13647
летия	-13648
тятся	-13649
ьючер	-13650
▁Евра	-13651
▁Кэме	-13652
▁Обра	-13653
▁Перм	-13654
▁аква	-13655
▁горе	-13656
▁деба	-13657
▁Горба	-13658
▁Кубок	-13659
▁Никто	-13660
▁балло	-13661
▁броса	-13662
▁дебют	-13663
▁попад	-13664
▁разор	-13665
▁счете	-13666
▁фирма	-13667
▁Интерн	-13668
▁ПАРНАС	-13669
▁говорю	-13670
▁ездить	-13671
▁мотоци	-13672
▁расход	-13673
▁ресурс	-13674
▁сделка	-13675
▁Ближнем	-13676
▁Борисов	-13677
▁Центриз	-13678
▁аукцион	-13679
▁высокая	-13680
▁головой	-13681
▁имеющих	-13682
▁логисти	-13683
▁посетил	-13684
▁размера	-13685
▁русские	-13686
▁введении	-13687
▁выборами	-13688
▁выразили	-13689
▁нагрузка	-13690
▁налогооб	-13691
▁ощущение	-13692
▁проведут	-13693
▁реальные	-13694
▁суверени	-13695
ствительно	-13696
▁негативно	-13697
▁персонала	-13698
▁полугодии	-13699
▁собрались	-13700
▁находилась	-13701
▁совершения	-13702
▁телевизион	-13703
▁государству	-13704
▁исполнитель	-13705
▁наступление	-13706
▁установлена	-13707
▁коммуникаций	-13708
▁осуществлять	-13709
▁приобретение	-13710
▁распоряжение	-13711
▁следователей	-13712
Ал	-13713
ЦИ	-13714
bus	-13715
uro	-13716
Как	-13717
шов	-13718
▁03	-13719
▁Ro	-13720
▁XV	-13721
▁МС	-13722
Евро	-13723
нией	-13724
нори	-13725
шины	-13726
▁III	-13727
▁Шан	-13728
▁бле	-13729
▁оза	-13730
▁рен	-13731
▁сжи	-13732
стной	-13733
▁Грой	-13734
▁УЕФА	-13735
▁ложи	-13736
▁нату	-13737
▁симп	-13738
▁трои	-13739
▁Медин	-13740
▁Флори	-13741
▁метра	-13742
▁подле	-13743
▁подру	-13744
▁приба	-13745
▁разда	-13746
▁свадь	-13747
▁спеку	-13748
фикация	-13749
▁Караба	-13750
▁бухгал	-13751
▁ликвид	-13752
▁пожела	-13753
▁символ	-13754
премьера	-13755
▁Иванова	-13756
▁ведущий	-13757
▁визитом	-13758
▁внешних	-13759
▁выпущен	-13760
▁горожан	-13761
▁ическим	-13762
▁обратил	-13763
▁подходя	-13764
▁портале	-13765
▁посадку	-13766
▁зарплата	-13767
▁молодежь	-13768
▁народный	-13769
▁реальной	-13770
▁сведений	-13771
▁согласия	-13772
▁старшего	-13773
▁условиям	-13774
▁участках	-13775
▁экземпля	-13776
▁нападении	-13777
▁очевидцев	-13778
▁понимание	-13779
▁разговора	-13780
▁участника	-13781
▁финансово	-13782
▁формально	-13783
▁вооружение	-13784
▁голосовать	-13785
▁нападающий	-13786
▁победителей	-13787
▁согласились	-13788
▁пересмотреть	-13789
▁полномочиями	-13790
▁террористами	-13791
луж	-13792
няк	-13793
фии	-13794
чам	-13795
▁Su	-13796
▁Хе	-13797
▁Эл	-13798
домо	-13799
рора	-13800
▁10.	-13801
▁12:	-13802
▁80-	-13803
▁Наз	-13804
▁Фак	-13805
▁Фри	-13806
▁ала	-13807
▁нар	-13808
-2018	-13809
гонек	-13810
преки	-13811
чному	-13812
▁Lada	-13813
▁Ирак	-13814
▁блог	-13815
▁элит	-13816
Газеты	-13817
тивную	-13818
▁долей	-13819
▁карта	-13820
▁сорат	-13821
▁цветы	-13822
зировал	-13823
минания	-13824
▁Башара	-13825
▁версий	-13826
▁единой	-13827
▁енного	-13828
▁отпуск	-13829
▁приста	-13830
▁разрыв	-13831
▁секрет	-13832
▁усилий	-13833
▁История	-13834
▁высокую	-13835
▁заключи	-13836
▁критери	-13837
▁моменты	-13838
▁оздоров	-13839
▁просьбе	-13840
▁Росстата	-13841
▁говорила	-13842
▁достигли	-13843
▁корректи	-13844
▁магазины	-13845
▁максимум	-13846
▁миллиард	-13847
▁молодого	-13848
▁музыкант	-13849
▁художник	-13850
Интерфаксу	-13851
▁боевиками	-13852
▁мобильных	-13853
▁отправили	-13854
▁поколение	-13855
▁помещение	-13856
▁добиваться	-13857
▁освобожден	-13858
▁предыдущих	-13859
▁укрепление	-13860
▁завершилась	-13861
▁мероприятии	-13862
▁полуострове	-13863
▁предупредил	-13864
▁принадлежат	-13865
▁развивается	-13866
▁Безопасности	-13867
▁заинтересованы	-13868
ty	-13869
ton	-13870
ure	-13871
биу	-13872
вка	-13873
мян	-13874
нув	-13875
добы	-13876
купи	-13877
рант	-13878
сона	-13879
▁15:	-13880
▁25%	-13881
▁5,5	-13882
▁Каб	-13883
▁ПДД	-13884
▁РФС	-13885
▁еду	-13886
▁щим	-13887
стрий	-13888
▁1994	-13889
▁ввер	-13890
▁эста	-13891
живать	-13892
тозаме	-13893
▁Анали	-13894
▁Колум	-13895
▁Перми	-13896
▁Стали	-13897
▁ансам	-13898
▁банку	-13899
▁сенса	-13900
▁смены	-13901
▁смерт	-13902
▁Авторы	-13903
▁Обычно	-13904
▁бывшей	-13905
▁винова	-13906
▁высоте	-13907
▁изобре	-13908
▁канале	-13909
▁матема	-13910
▁океана	-13911
▁пожерт	-13912
▁распис	-13913
▁самыми	-13914
▁съемки	-13915
▁частей	-13916
▁выручка	-13917
▁научный	-13918
▁обнарод	-13919
▁одобрил	-13920
▁продажа	-13921
▁справля	-13922
▁упомина	-13923
▁формули	-13924
▁являлся	-13925
▁жителями	-13926
▁занимают	-13927
▁называть	-13928
▁огромные	-13929
▁передачу	-13930
▁Вячеслава	-13931
▁Кузнецова	-13932
▁партнером	-13933
▁положении	-13934
▁рассмотри	-13935
▁соблюдать	-13936
▁настаивает	-13937
▁департамент	-13938
▁компенсацию	-13939
▁космической	-13940
▁подозревают	-13941
▁предъявлено	-13942
▁космического	-13943
▁расследованию	-13944
тт	-13945
Анд	-13946
ИКС	-13947
Рус	-13948
гуш	-13949
жка	-13950
оби	-13951
пец	-13952
▁86	-13953
▁92	-13954
▁Gl	-13955
▁Vi	-13956
▁le	-13957
дыва	-13958
кала	-13959
олог	-13960
рови	-13961
сило	-13962
▁1,7	-13963
▁18:	-13964
▁2,2	-13965
▁2-3	-13966
▁Йем	-13967
▁Спа	-13968
▁вал	-13969
▁гля	-13970
Андже	-13971
ганов	-13972
динов	-13973
комму	-13974
шлись	-13975
▁Асад	-13976
▁Кири	-13977
▁ация	-13978
▁воде	-13979
▁иные	-13980
▁пить	-13981
▁пром	-13982
титься	-13983
▁World	-13984
▁Макла	-13985
▁Прохо	-13986
▁Самый	-13987
▁Чинов	-13988
▁берет	-13989
▁весен	-13990
▁курсе	-13991
▁любую	-13992
▁начис	-13993
▁повез	-13994
▁понял	-13995
▁порой	-13996
▁проин	-13997
▁риску	-13998
▁своев	-13999
▁шесто	-14000
▁Житель	-14001
▁Сербии	-14002
▁ветера	-14003
▁восточ	-14004
▁выбран	-14005
▁грузин	-14006
▁ировал	-14007
▁опытом	-14008
▁палате	-14009
▁певица	-14010
▁сюрпри	-14011
▁Америка	-14012
▁билетов	-14013
▁господи	-14014
▁дорогой	-14015
▁защищен	-14016
▁концент	-14017
▁обороне	-14018
▁субсиди	-14019
▁счастью	-14020
▁баскетбо	-14021
▁выступит	-14022
▁добавили	-14023
▁ключевой	-14024
▁лицензию	-14025
▁победить	-14026
▁правящей	-14027
▁авторитет	-14028
▁депутатом	-14029
▁запустить	-14030
▁контракты	-14031
▁обнаружил	-14032
▁оператора	-14033
▁отделении	-14034
▁разрешить	-14035
▁свободной	-14036
▁теннисист	-14037
▁утверждал	-14038
▁Республика	-14039
▁грузовиков	-14040
▁обвиняемых	-14041
▁попытались	-14042
▁расширение	-14043
▁сторонники	-14044
▁увеличился	-14045
▁Следователи	-14046
▁продолжение	-14047
▁футболистов	-14048
▁коммерческих	-14049
▁политическая	-14050
▁сельскохозяй	-14051
▁возможностями	-14052
бег	-14053
зме	-14054
▁-2	-14055
▁Un	-14056
▁ВМ	-14057
▁Эд	-14058
▁уд	-14059
Бава	-14060
инга	-14061
стря	-14062
▁110	-14063
▁ОНФ	-14064
▁Рен	-14065
▁Сай	-14066
▁Хер	-14067
праве	-14068
▁1997	-14069
▁Гера	-14070
▁Соло	-14071
▁веке	-14072
▁визу	-14073
▁вуза	-14074
▁гроз	-14075
▁крем	-14076
▁наце	-14077
▁снял	-14078
лливуд	-14079
шенков	-14080
▁Андер	-14081
▁енную	-14082
▁льные	-14083
▁люблю	-14084
▁опрос	-14085
▁опыта	-14086
▁попол	-14087
▁посты	-14088
▁созна	-14089
▁сомни	-14090
▁ярмар	-14091
ейсбуке	-14092
ламента	-14093
поведни	-14094
▁Наталь	-14095
▁выращи	-14096
▁десант	-14097
▁звезда	-14098
▁контак	-14099
▁отчете	-14100
▁полное	-14101
▁пришло	-14102
▁судить	-14103
▁судьбу	-14104
▁Миронов	-14105
▁Сборная	-14106
▁вызвать	-14107
▁президи	-14108
▁русском	-14109
▁сильным	-14110
▁Башкирии	-14111
▁Брюсселя	-14112
▁Гагарина	-14113
▁вызывают	-14114
▁гектаров	-14115
▁границей	-14116
▁ирования	-14117
▁искусств	-14118
▁магистра	-14119
▁пенсионе	-14120
▁процессы	-14121
▁сильного	-14122
▁слушания	-14123
▁угрожает	-14124
▁фармацев	-14125
▁ценности	-14126
ственность	-14127
▁Владислав	-14128
▁возможном	-14129
▁коллектор	-14130
▁магазинах	-14131
▁объяснили	-14132
▁республик	-14133
▁составлял	-14134
▁структуре	-14135
▁московский	-14136
▁отправился	-14137
▁посольство	-14138
▁проблемами	-14139
▁свидетелей	-14140
▁учреждение	-14141
▁финансовый	-14142
▁восстанавли	-14143
▁неизвестный	-14144
▁пенсионного	-14145
▁рассказывал	-14146
▁увеличилась	-14147
▁рассчитывают	-14148
▁специального	-14149
▁формирование	-14150
▁Действительно	-14151
▁муниципального	-14152
▁рассматривается	-14153
пт	-14154
iki	-14155
вес	-14156
сар	-14157
▁ЛУ	-14158
▁Ут	-14159
ital	-14160
монт	-14161
тало	-14162
теле	-14163
▁ПФР	-14164
▁Рим	-14165
▁бун	-14166
▁лоя	-14167
бежно	-14168
тарем	-14169
щиеся	-14170
▁бриф	-14171
▁веща	-14172
▁кожи	-14173
▁лозу	-14174
▁ночи	-14175
▁пого	-14176
▁танк	-14177
Огонек	-14178
вержен	-14179
нулась	-14180
чатать	-14181
▁Литви	-14182
▁Управ	-14183
▁вашей	-14184
▁гипер	-14185
▁голки	-14186
▁капре	-14187
▁рубле	-14188
▁сбере	-14189
▁теоре	-14190
▁тренд	-14191
▁ходом	-14192
▁ывать	-14193
Сахалин	-14194
▁Военно	-14195
▁Второе	-14196
▁Нижнем	-14197
▁Совете	-14198
▁банкам	-14199
▁будучи	-14200
▁вылета	-14201
▁график	-14202
▁жалова	-14203
▁льготы	-14204
▁носить	-14205
▁ошибок	-14206
▁растут	-14207
▁семина	-14208
▁ставит	-14209
▁фактов	-14210
▁футбол	-14211
▁фьючер	-14212
▁бюджету	-14213
▁картофе	-14214
▁лайнера	-14215
▁местным	-14216
▁подавля	-14217
▁соболез	-14218
▁тяжести	-14219
▁Чемпиона	-14220
▁вернется	-14221
▁крымских	-14222
▁областей	-14223
▁передали	-14224
▁позициям	-14225
▁Парламент	-14226
▁Пентагона	-14227
▁возникают	-14228
▁выступила	-14229
▁испытаний	-14230
▁номинации	-14231
▁продолжил	-14232
▁разговоры	-14233
▁своеобраз	-14234
▁Президента	-14235
▁взаимоотно	-14236
▁назначение	-14237
▁называемый	-14238
▁транспорти	-14239
▁действующий	-14240
▁количеством	-14241
▁олимпийский	-14242
▁предыдущего	-14243
▁недовольство	-14244
▁способствует	-14245
▁правонарушения	-14246
Ле	-14247
▁'	-14248
бал	-14249
▁Лы	-14250
▁Ск	-14251
▁ть	-14252
баев	-14253
мить	-14254
▁6,5	-14255
▁ВМС	-14256
▁Вой	-14257
▁НДС	-14258
▁мое	-14259
▁тел	-14260
монов	-14261
сегда	-14262
ьером	-14263
▁Маго	-14264
▁Прин	-14265
▁вход	-14266
▁зала	-14267
▁ищет	-14268
▁серб	-14269
▁труб	-14270
▁ужас	-14271
▁ющий	-14272
кологи	-14273
хознад	-14274
▁Испол	-14275
▁бумаг	-14276
▁гонке	-14277
▁лизин	-14278
▁плата	-14279
▁помню	-14280
▁помог	-14281
▁самую	-14282
▁состя	-14283
▁схема	-14284
▁сцену	-14285
нестров	-14286
ральных	-14287
▁младен	-14288
▁ненави	-14289
▁обруши	-14290
▁олигар	-14291
▁открыт	-14292
▁сделку	-14293
▁Француз	-14294
▁готовят	-14295
▁захорон	-14296
▁капитан	-14297
▁карьере	-14298
▁корпуса	-14299
▁поездок	-14300
▁попытку	-14301
▁портала	-14302
▁проходя	-14303
▁сделает	-14304
▁станция	-14305
▁убедить	-14306
▁центром	-14307
▁Пользова	-14308
▁Улюкаева	-14309
▁возникли	-14310
▁зависеть	-14311
▁подписей	-14312
▁прогнозы	-14313
▁сообщить	-14314
▁экстради	-14315
▁Последние	-14316
▁наблюдать	-14317
▁последнем	-14318
▁сообщений	-14319
▁ценностей	-14320
▁Количество	-14321
▁внутренние	-14322
▁демократии	-14323
▁нефтепроду	-14324
▁ограничить	-14325
▁размещение	-14326
▁состояться	-14327
▁знаменитого	-14328
▁комментируя	-14329
▁находящихся	-14330
▁Еврокомиссии	-14331
▁журналистами	-14332
▁направлениям	-14333
▁центрального	-14334
▁Россельхознад	-14335
▁сотрудничеству	-14336
▁государственным	-14337
▁соответствующий	-14338
ell	-14339
Лен	-14340
дая	-14341
▁4%	-14342
▁98	-14343
▁Бю	-14344
боро	-14345
енча	-14346
пакт	-14347
шени	-14348
шкой	-14349
▁Кни	-14350
▁ены	-14351
▁пик	-14352
▁рыб	-14353
▁эмб	-14354
стьян	-14355
▁Post	-14356
▁Госс	-14357
▁Отве	-14358
▁Посо	-14359
▁безу	-14360
▁мяча	-14361
▁неис	-14362
▁сила	-14363
Россий	-14364
льника	-14365
▁билет	-14366
▁залог	-14367
▁макро	-14368
▁масла	-14369
▁приго	-14370
▁проме	-14371
▁ранен	-14372
▁силой	-14373
▁Джордж	-14374
▁дорога	-14375
▁запасы	-14376
▁карточ	-14377
▁курдов	-14378
▁курорт	-14379
▁летней	-14380
▁погово	-14381
▁сепара	-14382
понентов	-14383
▁Федоров	-14384
▁больных	-14385
▁глазами	-14386
▁глубоко	-14387
▁детства	-14388
▁картину	-14389
▁клиента	-14390
▁опасных	-14391
▁помогли	-14392
▁созданы	-14393
▁транзит	-14394
▁указано	-14395
▁Западной	-14396
▁Силуанов	-14397
▁автодоро	-14398
▁делается	-14399
▁железной	-14400
▁одноимен	-14401
▁периодом	-14402
▁поставку	-14403
▁продюсер	-14404
▁содержит	-14405
▁субсидий	-14406
▁элементы	-14407
▁Дворкович	-14408
▁занятости	-14409
▁налоговые	-14410
▁оппозиция	-14411
▁разведыва	-14412
▁состоятся	-14413
▁спектакля	-14414
▁установил	-14415
▁Информация	-14416
▁Управления	-14417
▁доставлены	-14418
▁операторов	-14419
▁приговорен	-14420
▁проживания	-14421
▁россиянина	-14422
▁лаборатории	-14423
▁привлечения	-14424
▁исторических	-14425
▁периодически	-14426
▁положительно	-14427
▁планировалось	-14428
▁многочисленных	-14429
ФЗ	-14430
ами	-14431
▁AF	-14432
▁US	-14433
▁ri	-14434
▁Жо	-14435
▁ОИ	-14436
вано	-14437
лили	-14438
циал	-14439
▁40-	-14440
▁АСВ	-14441
▁Гит	-14442
▁Дня	-14443
▁Кен	-14444
▁Лос	-14445
▁Пра	-14446
▁Ура	-14447
▁ЦРУ	-14448
▁ели	-14449
бинат	-14450
номор	-14451
питал	-14452
рацию	-14453
цкого	-14454
▁архе	-14455
▁боев	-14456
▁завы	-14457
▁ству	-14458
▁учет	-14459
▁Калаш	-14460
▁весны	-14461
▁выдан	-14462
▁Вторая	-14463
▁Иногда	-14464
▁беседы	-14465
▁единый	-14466
▁контей	-14467
▁крупно	-14468
▁месяце	-14469
▁намере	-14470
▁низких	-14471
▁низкой	-14472
▁сроков	-14473
▁транзи	-14474
ничество	-14475
рованием	-14476
▁Издание	-14477
▁Пассажи	-14478
▁бывшему	-14479
▁впереди	-14480
▁главные	-14481
▁желании	-14482
▁запечат	-14483
▁заслужи	-14484
▁ребенку	-14485
▁ставить	-14486
▁клиентам	-14487
▁островов	-14488
▁редакцию	-14489
▁Насколько	-14490
▁доставлен	-14491
▁мельдоний	-14492
▁профессии	-14493
▁столичных	-14494
▁требовать	-14495
▁указывают	-14496
▁улучшения	-14497
▁Домодедово	-14498
▁артиллерий	-14499
▁китайского	-14500
▁московской	-14501
▁нарушениях	-14502
▁объявления	-14503
▁аналогичный	-14504
▁изображения	-14505
▁поступления	-14506
▁собственную	-14507
▁чрезвычайно	-14508
▁Александрова	-14509
▁возможностью	-14510
▁осуществляется	-14511
▁самоуправления	-14512
▁справедливости	-14513
▁распространение	-14514
Ту	-14515
бет	-14516
бия	-14517
пев	-14518
чее	-14519
▁8-	-14520
▁КС	-14521
▁ир	-14522
гнов	-14523
етро	-14524
рыве	-14525
сеев	-14526
▁70%	-14527
▁Гав	-14528
▁Сло	-14529
▁оча	-14530
везли	-14531
данов	-14532
рного	-14533
▁York	-14534
▁Бела	-14535
▁Неиз	-14536
▁Широ	-14537
▁дата	-14538
▁дева	-14539
▁желе	-14540
▁зага	-14541
▁като	-14542
▁мимо	-14543
▁моги	-14544
▁пуск	-14545
▁спло	-14546
настоя	-14547
▁Боеви	-14548
▁Немец	-14549
▁Самое	-14550
▁Чечне	-14551
▁ветра	-14552
▁иного	-14553
▁налич	-14554
▁описы	-14555
▁отдал	-14556
▁отнес	-14557
▁подве	-14558
▁ровно	-14559
▁свете	-14560
▁смену	-14561
▁сочет	-14562
местить	-14563
стояние	-14564
▁Реджеп	-14565
▁годами	-14566
▁журнал	-14567
▁контек	-14568
▁оккупа	-14569
▁пойдут	-14570
▁придет	-14571
▁январь	-14572
днестров	-14573
▁зрители	-14574
▁космети	-14575
▁однажды	-14576
▁снимать	-14577
▁текущей	-14578
▁уменьши	-14579
▁условии	-14580
министром	-14581
▁Нарышкин	-14582
▁деньгами	-14583
▁знакомых	-14584
▁навсегда	-14585
▁объедини	-14586
▁открытым	-14587
▁признала	-14588
▁Венесуэлы	-14589
▁инстанции	-14590
▁исключить	-14591
▁кроссовер	-14592
▁немецкого	-14593
▁появиться	-14594
▁следующим	-14595
▁структуру	-14596
▁Ставрополь	-14597
▁британский	-14598
▁назначении	-14599
▁появляются	-14600
Справедливая	-14601
▁десятилетия	-14602
▁инициативой	-14603
▁подготовить	-14604
▁юридической	-14605
▁радиостанции	-14606
▁организованной	-14607
Мар	-14608
зод	-14609
оче	-14610
фим	-14611
▁06	-14612
▁2.	-14613
▁Hy	-14614
▁ar	-14615
Benz	-14616
ence	-14617
soft	-14618
паде	-14619
прио	-14620
цева	-14621
штаб	-14622
▁140	-14623
▁CNN	-14624
▁Коб	-14625
▁кот	-14626
▁пья	-14627
▁соч	-14628
▁схо	-14629
▁щую	-14630
делец	-14631
коман	-14632
▁Баку	-14633
▁Геро	-14634
▁Деву	-14635
▁Джан	-14636
▁Обще	-14637
▁возь	-14638
▁копе	-14639
▁льда	-14640
очеред	-14641
▁Тайип	-14642
▁Тарас	-14643
▁Штаты	-14644
▁ЮКОСа	-14645
▁вошла	-14646
▁второ	-14647
▁набор	-14648
▁пожиз	-14649
▁послу	-14650
▁пробы	-14651
▁пусты	-14652
▁радиа	-14653
▁юрист	-14654
▁Рамзан	-14655
▁аресте	-14656
▁будете	-14657
▁жестко	-14658
▁итогов	-14659
▁каждую	-14660
▁климат	-14661
▁прямых	-14662
▁развле	-14663
▁семьям	-14664
▁срочно	-14665
тическим	-14666
▁Жиринов	-14667
▁Эксперт	-14668
▁девушек	-14669
▁доверие	-14670
▁изделия	-14671
▁инского	-14672
▁летнего	-14673
▁наступа	-14674
▁новогод	-14675
▁оборота	-14676
▁передач	-14677
▁простой	-14678
▁реакцию	-14679
▁словами	-14680
▁таблице	-14681
▁теракты	-14682
▁явление	-14683
▁Компании	-14684
▁Стамбуле	-14685
▁Учитывая	-14686
▁высокого	-14687
▁маршруту	-14688
▁общаться	-14689
▁переданы	-14690
▁перерыва	-14691
▁предметы	-14692
▁улучшить	-14693
казывается	-14694
настоящему	-14695
▁Microsoft	-14696
▁вспомнить	-14697
▁дискуссии	-14698
▁продлении	-14699
▁россиянин	-14700
▁совершено	-14701
▁спецопера	-14702
▁существую	-14703
▁тенденция	-14704
▁участвует	-14705
▁возможного	-14706
▁встретился	-14707
▁двигателей	-14708
▁заработать	-14709
▁набережной	-14710
▁настроения	-14711
▁окружающей	-14712
▁Александром	-14713
▁полицейский	-14714
▁презентации	-14715
▁сложившейся	-14716
▁авиакатастро	-14717
▁модернизации	-14718
▁принципиально	-14719
▁соответствуют	-14720
ФЛ	-14721
ypt	-14722
ько	-14723
▁1%	-14724
▁94	-14725
▁Ля	-14726
▁ях	-14727
зоне	-14728
мати	-14729
рием	-14730
спор	-14731
феев	-14732
хина	-14733
цина	-14734
чник	-14735
▁11.	-14736
▁2,7	-14737
▁Вну	-14738
▁СПГ	-14739
▁Сад	-14740
андер	-14741
летие	-14742
хачка	-14743
читал	-14744
▁воро	-14745
▁вший	-14746
▁грун	-14747
▁обер	-14748
▁пари	-14749
▁руко	-14750
▁стой	-14751
Атлети	-14752
пление	-14753
▁Набиу	-14754
▁Подоз	-14755
▁Пхень	-14756
▁исчер	-14757
▁книга	-14758
▁лобби	-14759
▁напит	-14760
▁нашла	-14761
▁склад	-14762
▁тепла	-14763
▁тремя	-14764
гвардии	-14765
▁Airbus	-14766
▁Опубли	-14767
▁асфаль	-14768
▁вируса	-14769
▁воспри	-14770
▁захват	-14771
▁местом	-14772
▁особое	-14773
▁особый	-14774
▁полным	-14775
▁целост	-14776
▁Главная	-14777
▁Граждан	-14778
▁Понятно	-14779
▁Установ	-14780
▁детские	-14781
▁крупной	-14782
▁отходов	-14783
▁поликли	-14784
▁причину	-14785
▁региону	-14786
▁саммите	-14787
▁секторе	-14788
▁студент	-14789
ствования	-14790
▁Неизвест	-14791
▁Одесской	-14792
▁автобуса	-14793
▁выделено	-14794
▁партнера	-14795
[...]
