<unk>	0
<s>	0
</s>	0
,	-3.00372
.	-3.29266
▁в	-3.63633
▁и	-4.12732
▁на	-4.37248
а	-4.3962
▁"	-4.47889
е	-4.49896
▁с	-4.75934
▁-	-4.76473
▁	-4.81339
▁не	-4.89719
▁что	-4.96712
-	-4.98221
▁по	-5.02113
и	-5.06212
"	-5.0748
й	-5.09184
м	-5.15842
х	-5.31498
▁В	-5.36842
у	-5.40473
ы	-5.44792
:	-5.62633
▁из	-5.63747
▁за	-5.65371
о	-5.69441
ом	-5.70543
▁о	-5.72853
",	-5.73049
▁к	-5.77943
го	-5.88246
ов	-5.9034
▁от	-5.92188
ой	-5.95178
▁(	-6.00643
▁а	-6.03314
▁для	-6.05172
▁у	-6.11122
я	-6.14549
".	-6.14997
▁как	-6.18394
▁до	-6.21154
▁года	-6.21833
▁России	-6.26062
ого	-6.27513
▁По	-6.32059
▁это	-6.33239
ся	-6.3338
ая	-6.34738
▁его	-6.35139
ми	-6.35443
▁он	-6.48546
▁при	-6.58086
▁но	-6.59377
▁этом	-6.60376
)	-6.64127
▁все	-6.66386
▁будет	-6.67656
▁году	-6.7129
ую	-6.73616
▁также	-6.75217
ю	-6.75587
▁С	-6.75703
с	-6.77108
в	-6.84724
▁На	-6.85182
ных	-6.85304
▁со	-6.85308
▁под	-6.8538
▁был	-6.86398
▁А	-6.86495
▁уже	-6.86508
▁то	-6.88208
▁было	-6.89487
▁время	-6.93205
▁которые	-6.93995
▁же	-6.9539
ами	-6.96977
ых	-6.97683
ной	-6.98084
▁том	-6.99699
▁об	-7.02613
▁так	-7.0575
▁только	-7.05877
▁после	-7.06427
▁их	-7.06577
ый	-7.06614
ка	-7.06662
за	-7.06895
т	-7.0722
ного	-7.07327
то	-7.07511
▁мы	-7.07794
▁США	-7.07965
▁или	-7.08122
▁еще	-7.08128
ки	-7.08413
ные	-7.09067
▁того	-7.10497
▁И	-7.10661
▁может	-7.11915
ный	-7.12075
▁более	-7.13404
?	-7.13477
на	-7.14842
▁во	-7.15694
▁Но	-7.16293
▁чтобы	-7.16314
▁Как	-7.17141
ли	-7.17639
▁раз	-7.18993
▁лет	-7.19183
▁были	-7.19506
▁который	-7.20284
▁ее	-7.21648
▁они	-7.23181
ий	-7.23427
▁я	-7.24828
ые	-7.27392
).	-7.27872
▁РФ	-7.28242
ем	-7.28452
▁заявил	-7.28663
▁вы	-7.29307
ь	-7.32237
▁человек	-7.34391
▁бы	-7.3583
▁есть	-7.35911
▁этого	-7.39108
но	-7.39274
ах	-7.43026
д	-7.4324
▁У	-7.43719
▁словам	-7.43788
▁области	-7.44839
л	-7.45491
ная	-7.46095
ам	-7.4627
ть	-7.46425
ет	-7.46848
▁руб	-7.46921
з	-7.47291
▁Это	-7.47506
▁1	-7.47804
▁2016	-7.47944
ей	-7.48148
▁При	-7.48386
▁млн	-7.4846
),	-7.48701
ым	-7.49492
▁про	-7.50056
▁Об	-7.51145
▁будут	-7.51678
▁если	-7.51683
ку	-7.52732
▁2015	-7.53167
▁была	-7.55135
▁она	-7.55293
▁К	-7.55861
▁когда	-7.55868
ие	-7.56227
▁чем	-7.56533
▁рублей	-7.57762
▁можно	-7.57996
▁быть	-7.58377
▁Он	-7.58743
▁очень	-7.60364
▁где	-7.60768
▁страны	-7.61906
▁млрд	-7.62415
▁компании	-7.62574
н	-7.64247
▁сообщает	-7.65236
▁без	-7.65393
▁Я	-7.66283
ла	-7.67439
▁них	-7.6769
С	-7.68546
ое	-7.69284
ным	-7.6963
▁год	-7.70445
▁За	-7.70491
▁г	-7.71693
им	-7.72524
▁ли	-7.72857
к	-7.73619
ную	-7.73748
▁тем	-7.7405
▁один	-7.74394
▁сказал	-7.74682
▁тыс	-7.75051
▁больше	-7.75051
ru	-7.76111
▁даже	-7.77147
му	-7.7732
Ъ	-7.778
▁ни	-7.78898
▁данным	-7.78971
ии	-7.79111
ия	-7.79725
▁могут	-7.80109
▁против	-7.82357
▁пресс	-7.83178
▁сейчас	-7.83498
▁нас	-7.83608
▁нет	-7.83921
▁всего	-7.84016
▁Украины	-7.84075
▁сообщил	-7.84461
▁О	-7.84503
р	-7.84545
▁этот	-7.85072
▁президента	-7.85332
В	-7.8634
▁два	-7.86448
▁которая	-7.8667
▁несколько	-7.87173
п	-7.87266
▁отметил	-7.87373
▁около	-7.87489
▁Россия	-7.8853
▁Ранее	-7.8922
▁пере	-7.89324
ля	-7.89974
ского	-7.90116
▁10	-7.90797
ло	-7.91586
г	-7.91825
ок	-7.91959
▁всех	-7.9198
ст	-7.92222
их	-7.92265
▁пока	-7.9264
не	-7.93394
ке	-7.93878
▁Мы	-7.93926
▁которых	-7.94266
▁Не	-7.94935
▁является	-7.95001
ит	-7.95296
▁между	-7.95515
▁решение	-7.96967
ное	-7.96975
▁тысяч	-7.97631
▁Владимир	-7.98243
▁себя	-7.98376
▁суд	-7.98584
▁президент	-7.98745
ию	-7.99496
ном	-7.99704
через	-7.9983
ва	-7.99885
▁этой	-8.00457
▁Сирии	-8.00967
▁Однако	-8.01304
▁числе	-8.01571
ч	-8.01747
▁кто	-8.0185
▁двух	-8.02223
!	-8.02533
▁свою	-8.02736
▁20	-8.03367
ской	-8.03946
▁передает	-8.04084
▁глава	-8.04919
▁2	-8.0606
ский	-8.06172
▁3	-8.06872
▁Кроме	-8.07109
▁власти	-8.08459
▁города	-8.08882
ят	-8.08965
▁день	-8.10005
s	-8.10068
▁Москве	-8.10242
▁Если	-8.10259
▁три	-8.10295
ж	-8.1054
▁сегодня	-8.11423
▁эти	-8.12162
та	-8.12218
▁своей	-8.12646
ко	-8.12981
б	-8.13233
по	-8.13292
▁результате	-8.13408
ить	-8.13596
▁должны	-8.13861
А	-8.14005
▁Lenta	-8.14376
▁работы	-8.14899
да	-8.15122
ют	-8.15128
▁стал	-8.15294
▁Александр	-8.15602
▁место	-8.16048
▁5	-8.16972
▁которой	-8.17037
▁Сергей	-8.17285
▁стороны	-8.17643
▁безопасности	-8.18347
...	-8.18669
▁стран	-8.18829
▁людей	-8.19081
▁дело	-8.19245
▁случае	-8.1927
▁19	-8.194
▁связи	-8.19562
▁2014	-8.19733
▁ему	-8.19893
▁вопрос	-8.20092
ни	-8.20219
▁СМИ	-8.20585
▁других	-8.20726
▁Путин	-8.20751
▁15	-8.21099
▁Так	-8.21304
▁4	-8.2176
▁момент	-8.22032
ев	-8.22178
ков	-8.22629
▁над	-8.22798
▁ранее	-8.23262
▁просто	-8.23592
▁Напомним	-8.23605
ин	-8.23655
▁рассказал	-8.23978
сти	-8.24176
де	-8.24235
▁территории	-8.24379
▁перед	-8.24776
▁мира	-8.25278
▁много	-8.25759
▁жизни	-8.26104
ра	-8.26321
от	-8.26726
▁считает	-8.27465
▁марта	-8.2777
ру	-8.2795
▁говорит	-8.28097
▁организации	-8.28129
ными	-8.28556
▁него	-8.2856
▁нужно	-8.28709
ется	-8.28722
▁человека	-8.28885
лись	-8.29203
▁меня	-8.29302
▁которого	-8.29319
▁российских	-8.29336
▁лишь	-8.29378
▁ходе	-8.29396
▁мнению	-8.29432
М	-8.29577
▁свои	-8.29621
▁После	-8.29896
О	-8.30066
вер	-8.30322
▁12	-8.30846
▁своих	-8.32253
ому	-8.32833
▁Москвы	-8.32979
▁стало	-8.33216
▁Также	-8.33511
▁там	-8.33955
▁Новости	-8.33979
▁6	-8.34918
ма	-8.3506
▁почти	-8.35219
▁господин	-8.35284
кой	-8.36062
▁отношении	-8.36427
▁партии	-8.36896
▁ТАСС	-8.37001
▁граждан	-8.37176
ться	-8.3719
лась	-8.37322
ская	-8.37863
▁именно	-8.37975
▁7	-8.38021
▁Да	-8.38086
ыми	-8.38168
▁детей	-8.38614
▁им	-8.38689
ти	-8.38994
▁Сегодня	-8.39555
▁30	-8.39665
▁люди	-8.4025
ль	-8.40342
▁стране	-8.40344
▁8	-8.40785
▁апреля	-8.40788
▁часть	-8.4103
или	-8.41081
▁тех	-8.41159
▁сентября	-8.41462
▁говорится	-8.41484
▁18	-8.41497
▁однако	-8.41603
ш	-8.41656
ен	-8.41824
▁Дмитрий	-8.42027
▁главы	-8.42222
2	-8.42256
Д	-8.42322
▁М	-8.43073
;	-8.44086
Т	-8.44117
▁стали	-8.44194
до	-8.44515
▁рамках	-8.44521
▁Все	-8.44814
▁правительства	-8.44948
▁должен	-8.4505
▁представитель	-8.45125
ал	-8.45136
▁дела	-8.45721
▁сообщили	-8.45935
▁До	-8.46262
▁государства	-8.46442
об	-8.47763
▁участие	-8.48182
▁дома	-8.48625
▁идет	-8.48807
▁февраля	-8.48927
▁одной	-8.49049
▁компания	-8.49263
ф	-8.49289
▁9	-8.49422
ских	-8.49426
Р	-8.49662
▁средств	-8.50341
▁образом	-8.50352
▁менее	-8.50631
▁Дл	-8.5068
▁времени	-8.50737
▁одного	-8.51023
▁декабря	-8.51341
чи	-8.51471
▁ноября	-8.51477
лся	-8.51711
▁октября	-8.52092
▁развития	-8.52159
▁информации	-8.52639
он	-8.5282
▁цен	-8.53062
▁назад	-8.53125
▁11	-8.53461
▁такой	-8.53788
▁января	-8.53954
ются	-8.54122
▁мая	-8.54171
▁другие	-8.54395
▁Они	-8.5462
ны	-8.54649
сть	-8.54806
▁2017	-8.54893
1	-8.5493
▁проект	-8.55109
же	-8.55133
У	-8.55285
▁Во	-8.55404
▁этих	-8.55913
/	-8.56172
▁управления	-8.5622
▁известно	-8.56252
▁части	-8.56567
ле	-8.56663
▁российского	-8.56763
ри	-8.56982
га	-8.57286
▁Сейчас	-8.57535
▁сам	-8.5795
▁Турции	-8.58297
▁работу	-8.58317
И	-8.58551
▁среди	-8.5865
из	-8.58696
ос	-8.58756
▁Из	-8.588
▁долларов	-8.58813
▁первый	-8.58818
▁14	-8.58862
би	-8.59213
▁конце	-8.59282
▁тоже	-8.59358
▁потому	-8.59362
ись	-8.59379
П	-8.59427
ице	-8.59677
▁мне	-8.60081
▁слова	-8.60175
▁возможность	-8.60247
ба	-8.60494
▁тот	-8.60523
▁частности	-8.60579
e	-8.60739
▁себе	-8.60878
сылкой	-8.60893
▁трех	-8.61015
▁удалось	-8.61025
▁дел	-8.6117
▁РИА	-8.61377
▁надо	-8.61539
▁период	-8.61603
▁течение	-8.62211
▁районе	-8.62365
▁ситуации	-8.62456
▁своего	-8.62614
ил	-8.62742
▁16	-8.6281
мен	-8.6304
▁которое	-8.63141
▁П	-8.63243
▁ЕС	-8.63272
ова	-8.63509
▁те	-8.63613
ском	-8.63792
▁здесь	-8.64293
▁очередь	-8.6437
▁премьер	-8.64545
▁группы	-8.64846
▁этим	-8.64975
▁вместе	-8.65781
5	-8.66112
▁счет	-8.66188
▁пор	-8.66305
▁17	-8.66318
▁Д	-8.66353
вы	-8.6645
▁вот	-8.67025
ты	-8.67091
те	-8.67116
▁деньги	-8.67142
▁полиции	-8.67193
▁25	-8.67563
▁теперь	-8.67591
▁находится	-8.67993
ви	-8.68027
ив	-8.68272
▁13	-8.68336
▁министр	-8.68478
▁свой	-8.68602
ро	-8.68605
▁тогда	-8.68649
▁м	-8.68727
▁системы	-8.69345
са	-8.69436
▁21	-8.69809
▁сразу	-8.69844
▁необходимо	-8.70074
тор	-8.70415
▁прав	-8.70429
▁начала	-8.70596
▁эту	-8.70597
▁стала	-8.70678
00	-8.70889
▁всегда	-8.7125
си	-8.7127
▁качестве	-8.71359
▁таких	-8.71457
ось	-8.71806
▁директор	-8.71871
▁котором	-8.71967
▁новых	-8.72502
лов	-8.72961
ение	-8.72969
▁комитета	-8.7311
ер	-8.73535
3	-8.7356
ги	-8.73667
Б	-8.73894
▁российской	-8.74164
▁агентство	-8.74514
▁пост	-8.74552
ц	-8.74615
▁месте	-8.74937
ать	-8.74943
ина	-8.74969
▁сделать	-8.75195
▁22	-8.75205
▁суда	-8.75247
▁решения	-8.75312
али	-8.75583
▁рас	-8.75614
▁получил	-8.75622
ник	-8.75827
▁Алексей	-8.75933
▁начале	-8.75938
лен	-8.7635
▁рынка	-8.76396
▁последние	-8.76609
▁чего	-8.76617
▁итогам	-8.7681
кр	-8.76825
▁годы	-8.77141
▁стоит	-8.77189
▁сайте	-8.77661
▁дня	-8.77789
▁Президент	-8.77893
ча	-8.78249
▁рынке	-8.78283
▁августа	-8.78378
летний	-8.78452
▁например	-8.78606
▁No	-8.78617
▁деятельности	-8.78639
4	-8.78951
▁добавил	-8.79024
▁прошлого	-8.79074
ец	-8.79086
▁S	-8.79304
▁МВД	-8.79354
▁хотя	-8.79395
▁ряд	-8.79467
Ф	-8.79847
▁24	-8.80126
▁нового	-8.8016
▁Она	-8.80217
▁уровне	-8.80498
▁проекта	-8.8051
ну	-8.80543
сь	-8.80611
▁подчеркнул	-8.80776
▁стать	-8.81024
▁МИД	-8.81167
▁поэтому	-8.8117
ские	-8.81393
▁нефти	-8.81442
Г	-8.81467
▁городе	-8.81528
▁свое	-8.81668
▁второй	-8.82186
▁Что	-8.82283
ости	-8.82356
▁новый	-8.82365
ди	-8.82391
▁То	-8.82403
▁отмечает	-8.82463
▁которую	-8.82565
К	-8.82782
7	-8.82794
ком	-8.82796
▁Г	-8.83069
▁право	-8.83097
ство	-8.83099
ировать	-8.833
▁пять	-8.83387
6	-8.83518
при	-8.83758
▁всем	-8.83762
▁должна	-8.84514
▁новые	-8.84897
▁внимание	-8.84988
▁п	-8.85152
▁действия	-8.8526
ту	-8.85275
▁настоящее	-8.85369
▁компаний	-8.854
▁такие	-8.85537
▁рост	-8.85562
▁июля	-8.85566
▁Россию	-8.85657
o	-8.85786
▁ст	-8.85938
▁количество	-8.86083
▁Про	-8.8618
▁лучше	-8.86227
▁50	-8.86341
▁конечно	-8.86403
▁четыре	-8.8646
▁имеет	-8.86534
▁помощи	-8.86713
▁средства	-8.86893
▁мире	-8.87014
▁поскольку	-8.87101
овой	-8.87343
▁От	-8.87364
▁т	-8.87406
ась	-8.8752
▁миллионов	-8.87727
ности	-8.87926
▁Федерации	-8.87978
▁Б	-8.88001
мер	-8.88176
▁своем	-8.8824
▁Украине	-8.88352
▁де	-8.88675
че	-8.88693
▁получили	-8.888
▁станет	-8.88801
▁потом	-8.88969
▁две	-8.89047
▁ООН	-8.89064
▁Глава	-8.89172
▁нашей	-8.89187
▁работать	-8.89226
пол	-8.89246
цы	-8.89257
ре	-8.89294
▁региона	-8.89417
▁эта	-8.89537
▁проблемы	-8.8978
▁100	-8.89929
▁ничего	-8.89955
▁дней	-8.902
▁Андрей	-8.90318
▁истории	-8.90355
ость	-8.90885
ения	-8.90929
ду	-8.91133
▁ведомства	-8.91506
▁жизнь	-8.9155
▁Европы	-8.91567
ар	-8.91627
▁считают	-8.91816
ель	-8.919
▁полностью	-8.92101
▁данные	-8.92133
▁сборной	-8.92217
▁Т	-8.92347
▁срок	-8.92402
▁Поэтому	-8.9241
▁информацию	-8.92483
t	-8.92669
▁лиц	-8.92695
▁закон	-8.9293
▁прошлом	-8.93272
▁получить	-8.94096
▁меньше	-8.94389
▁приводит	-8.9444
Н	-8.94452
▁26	-8.94506
▁программы	-8.9481
▁администрации	-8.94867
ность	-8.94954
ства	-8.95099
▁другой	-8.95119
▁Вы	-8.95262
▁составляет	-8.95299
y	-8.95368
▁практически	-8.95393
дер	-8.95445
ца	-8.95484
ние	-8.95484
про	-8.95625
▁Его	-8.9565
ному	-8.95747
▁самых	-8.95958
▁достаточно	-8.96161
ор	-8.96181
▁ним	-8.96216
▁центра	-8.96436
▁месяцев	-8.96485
▁этому	-8.96704
▁состав	-8.96779
▁весь	-8.96829
▁просмотров	-8.97022
▁23	-8.97371
▁нам	-8.97901
▁Когда	-8.98028
▁войны	-8.9822
▁правительство	-8.98263
▁населения	-8.98281
ша	-8.98359
▁одним	-8.98477
лось	-8.9851
ат	-8.9859
▁многие	-8.98607
▁28	-8.98654
▁команды	-8.9879
▁тому	-8.98798
▁ответ	-8.98871
па	-8.98926
er	-8.98981
▁Тем	-8.99037
▁сил	-8.99099
ман	-8.9914
▁банка	-8.99208
▁жителей	-8.99482
▁часов	-8.99587
▁ре	-8.9964
i	-8.99854
▁Госдумы	-9.00032
▁экс	-9.00137
▁работа	-9.00166
▁места	-9.00219
ве	-9.00529
▁процентов	-9.00766
▁экономики	-9.00835
▁источник	-9.00931
▁Михаил	-9.01056
▁назвал	-9.01163
▁службы	-9.0127
▁город	-9.01302
▁возможности	-9.01305
▁впервые	-9.01507
▁кино	-9.01548
▁число	-9.01604
▁должно	-9.01691
ня	-9.01702
▁цены	-9.01945
▁евро	-9.01964
n	-9.02003
▁одна	-9.02008
тер	-9.02163
▁россиян	-9.02169
▁выборов	-9.02182
▁делать	-9.02231
▁участников	-9.02449
▁вопросы	-9.02668
со	-9.02831
▁отношения	-9.0303
▁выборах	-9.03032
▁Германии	-9.03066
▁Порошенко	-9.03401
▁Трамп	-9.03473
▁2013	-9.03492
▁Согласно	-9.03652
▁ситуация	-9.03702
▁бюджет	-9.04042
▁законодательств	-9.0429
▁сотрудников	-9.04435
Я	-9.04436
нов	-9.04489
▁Н	-9.04603
▁социально	-9.04659
ут	-9.05072
▁пяти	-9.05225
ян	-9.0551
▁Э	-9.05523
▁Россией	-9.05712
▁ко	-9.05771
▁таким	-9.05785
▁политики	-9.06026
прав	-9.06064
▁итоге	-9.06079
жи	-9.06104
▁27	-9.0611
▁Российско	-9.06346
▁сообщении	-9.06534
тель	-9.06726
▁Еще	-9.06771
вод	-9.0683
жен	-9.07085
▁встречи	-9.07094
пи	-9.07341
лет	-9.07418
▁размере	-9.07597
▁Клинтон	-9.076
▁представители	-9.0784
▁агентства	-9.0785
цев	-9.0806
▁интервью	-9.08078
ис	-9.08208
▁меры	-9.08229
▁бизнес	-9.08534
Л	-9.08544
ают	-9.08594
Ru	-9.08603
▁произошло	-9.08678
▁собой	-9.08721
▁целом	-9.08753
▁C	-9.08865
▁которым	-9.08891
▁нефть	-9.08951
▁обороны	-9.08981
ик	-9.09286
▁улице	-9.09429
▁затем	-9.09574
▁вообще	-9.09768
▁Франции	-9.09892
▁условиях	-9.099
▁движения	-9.09904
▁уровень	-9.0991
▁бюджета	-9.09928
▁ЦБ	-9.09945
▁иностранных	-9.10152
▁процесс	-9.10202
▁примерно	-9.10251
▁депутат	-9.1026
C	-9.10332
▁виде	-9.10438
раз	-9.1067
▁действительно	-9.10769
ист	-9.10984
▁ситуацию	-9.11116
▁пояснил	-9.11117
▁Ъ	-9.11206
▁автомобиль	-9.11259
▁министра	-9.11344
▁заявила	-9.11364
▁роста	-9.11461
ры	-9.11726
ками	-9.11807
▁сообщила	-9.11859
▁российские	-9.11874
ает	-9.12067
▁помощью	-9.12094
▁конца	-9.12123
▁("	-9.12166
▁каждый	-9.1217
▁пишет	-9.12273
▁уголовное	-9.12301
▁заявление	-9.12414
▁Санкт	-9.12416
▁какие	-9.12465
лы	-9.12477
▁права	-9.12594
лин	-9.12728
ников	-9.12904
▁центре	-9.13207
▁НАТО	-9.13257
зи	-9.13439
▁своим	-9.13674
8	-9.13852
▁Ш	-9.14027
▁первую	-9.14121
▁A	-9.14138
▁российский	-9.14295
▁речь	-9.14338
▁УК	-9.1439
▁сети	-9.14502
▁погибли	-9.14551
ста	-9.14689
")	-9.14856
▁сообщалось	-9.15155
▁государство	-9.15161
▁объем	-9.15309
▁сказать	-9.15347
▁всей	-9.15772
▁первом	-9.1579
▁следует	-9.15918
▁видео	-9.15989
▁материале	-9.16001
▁одно	-9.16033
▁действий	-9.16047
▁29	-9.16183
▁мало	-9.16233
▁новой	-9.16301
▁пред	-9.1638
▁газета	-9.16481
▁хорошо	-9.16593
▁интернет	-9.16664
▁ведь	-9.16699
▁ч	-9.16706
▁Впрочем	-9.16828
▁понедельник	-9.16959
▁Новы	-9.16959
P	-9.16962
▁производства	-9.17095
▁Трампа	-9.17178
▁Р	-9.17246
▁проблем	-9.17372
▁Владимира	-9.17551
▁Источник	-9.1764
▁авто	-9.17648
▁читайте	-9.17749
▁помощь	-9.17761
▁B	-9.18135
ход	-9.1817
во	-9.18235
▁дом	-9.18332
▁либо	-9.18534
▁проведения	-9.1856
▁данных	-9.18777
▁активно	-9.18872
лю	-9.18875
▁совета	-9.18883
▁республики	-9.18959
▁месяца	-9.19158
▁правоохранитель	-9.19341
▁вас	-9.19375
ева	-9.19406
▁пятницу	-9.19476
гу	-9.19485
ши	-9.19514
▁рынок	-9.1961
▁стоимость	-9.19645
▁услуг	-9.1972
ци	-9.19853
▁СССР	-9.20013
скую	-9.20049
▁делу	-9.20157
▁сотрудники	-9.20195
▁четверг	-9.20295
▁начали	-9.20346
▁наши	-9.20461
▁среду	-9.20529
▁района	-9.20541
▁40	-9.20559
ров	-9.20562
▁большой	-9.20619
▁ей	-9.2063
▁работе	-9.2085
▁заявили	-9.2087
▁работает	-9.20884
▁гос	-9.20932
▁Под	-9.20987
ща	-9.21039
▁тысячи	-9.21086
лу	-9.21096
▁одном	-9.21102
▁да	-9.21286
▁Путина	-9.21287
▁принято	-9.21324
▁работ	-9.21353
▁Игорь	-9.21376
▁минут	-9.21441
▁какой	-9.21441
Мы	-9.21622
▁мир	-9.21636
▁деле	-9.21704
▁никто	-9.21783
кор	-9.21794
▁Дональд	-9.2181
▁версии	-9.2192
чен	-9.21936
енко	-9.21964
под	-9.21971
Интерфакс	-9.22054
вал	-9.22139
­	-9.22195
▁сфере	-9.222
▁самым	-9.22241
▁произошел	-9.22333
▁ООО	-9.22358
▁имени	-9.22427
▁Крыма	-9.22528
S	-9.22557
▁говорят	-9.22647
кин	-9.22698
▁центр	-9.22728
▁Москва	-9.22783
▁тонн	-9.22916
ел	-9.22956
▁наших	-9.22989
ряд	-9.23037
▁мог	-9.23123
бо	-9.23151
▁ребенка	-9.23303
▁несмотря	-9.23304
▁готов	-9.23316
вести	-9.2332
▁группа	-9.23344
ний	-9.23357
9	-9.23392
▁порядка	-9.23444
▁четырех	-9.23466
овых	-9.23491
▁эксперт	-9.23586
▁самом	-9.23721
▁первого	-9.23757
▁Со	-9.23773
▁Александра	-9.23815
▁Алеппо	-9.23862
▁особенно	-9.23874
▁лидер	-9.23919
▁призвал	-9.23925
▁такое	-9.24021
▁31	-9.24046
▁Европе	-9.24149
▁возможно	-9.24206
▁органов	-9.24231
▁The	-9.24234
овые	-9.24317
▁изменения	-9.24325
▁цитирует	-9.24571
аль	-9.24636
▁G	-9.24641
▁вторник	-9.24708
▁образования	-9.24713
▁смогут	-9.24714
сп	-9.24756
▁Савченко	-9.24849
▁Совета	-9.24859
▁закона	-9.24871
ния	-9.24915
▁законопроект	-9.25031
З	-9.25067
▁выше	-9.25273
▁часто	-9.25389
▁первой	-9.25496
▁денег	-9.25559
▁заместитель	-9.25574
▁такого	-9.25695
▁силы	-9.25842
министр	-9.25918
al	-9.26016
ир	-9.26097
▁Украина	-9.26196
▁готовы	-9.26366
▁гор	-9.26417
▁операции	-9.2642
▁роль	-9.2642
▁нескольких	-9.26562
▁провести	-9.26619
ясь	-9.26738
▁могли	-9.26785
▁комиссии	-9.26994
▁само	-9.27136
▁газа	-9.27191
▁план	-9.27206
▁Ф	-9.27529
▁совет	-9.27629
▁культуры	-9.27841
▁касается	-9.27872
▁уровня	-9.28012
ше	-9.28045
ится	-9.28237
▁нельзя	-9.28319
▁никогда	-9.28454
▁являются	-9.28458
▁Песков	-9.28466
▁строительство	-9.28598
▁факт	-9.2866
g	-9.28744
▁Е	-9.28779
стр	-9.28789
▁Сам	-9.28789
секретарь	-9.28824
жд	-9.28886
▁чемпионата	-9.28928
c	-9.29169
Х	-9.29377
▁опыт	-9.29442
ус	-9.29511
▁рубля	-9.29563
▁переговоры	-9.29679
▁Например	-9.2978
▁пройдет	-9.2993
данный	-9.2997
ск	-9.29975
▁Таким	-9.29981
▁некоторые	-9.30123
▁ближайше	-9.3013
▁список	-9.30272
ским	-9.30317
▁строительства	-9.30377
▁предприятия	-9.30499
▁раза	-9.30503
0	-9.30509
▁руководитель	-9.30528
бер	-9.30603
▁силу	-9.30641
▁находятся	-9.30679
▁P	-9.3072
▁говорить	-9.30769
▁Олег	-9.30827
стро	-9.3086
▁акции	-9.30863
▁тут	-9.30983
вин	-9.31045
▁200	-9.31085
▁Фото	-9.31147
▁I	-9.31232
▁Известия	-9.31235
▁Тогда	-9.31279
▁совместно	-9.31344
бы	-9.3148
▁сумму	-9.31609
По	-9.31822
▁2012	-9.31852
▁бывший	-9.32236
ан	-9.32329
▁самолета	-9.32436
▁F	-9.32501
▁система	-9.32625
▁поддержку	-9.32646
▁членов	-9.32758
▁задержан	-9.32792
▁Image	-9.328
▁РБК	-9.328
▁многих	-9.32953
▁Виктор	-9.32957
се	-9.33057
▁состоянии	-9.33107
▁поводу	-9.33383
▁бизнеса	-9.33451
▁председатель	-9.33467
▁режим	-9.33508
▁сравнению	-9.33569
▁благодаря	-9.33645
▁сможет	-9.33784
▁давно	-9.3386
ще	-9.33935
▁выход	-9.34088
ич	-9.34124
▁фонда	-9.34285
▁Ко	-9.34547
лог	-9.34585
▁самого	-9.346
▁миллиона	-9.34612
службе	-9.3462
кова	-9.34652
су	-9.34744
▁крайне	-9.34756
▁сильно	-9.34788
▁Ли	-9.34811
▁Минобороны	-9.34812
▁почему	-9.34813
▁остается	-9.34823
▁мужчина	-9.34824
▁спорта	-9.34889
▁банк	-9.34952
▁главный	-9.35045
мет	-9.35081
На	-9.35083
ска	-9.35126
▁разных	-9.354
▁Ка	-9.35462
▁Ле	-9.35572
▁специально	-9.35607
▁фильм	-9.35651
ды	-9.3567
▁регионе	-9.35761
▁согласно	-9.3593
ски	-9.3596
летнего	-9.3607
▁автомобиля	-9.36229
▁Ч	-9.36479
▁Ку	-9.36507
▁Подробнее	-9.36548
▁соглашения	-9.36548
▁месяц	-9.36651
ское	-9.36657
▁МЧС	-9.36706
▁военных	-9.36739
u	-9.36896
▁выборы	-9.37023
▁организаций	-9.37026
Э	-9.37057
▁составе	-9.37089
▁Ре	-9.37208
кон	-9.37351
ним	-9.37438
▁провел	-9.37582
▁условия	-9.37703
пер	-9.37737
▁деятельность	-9.37742
▁самолет	-9.37786
▁результаты	-9.37892
▁принять	-9.37901
k	-9.37905
▁края	-9.37997
▁важно	-9.38015
▁представителей	-9.38152
▁л	-9.38229
▁машин	-9.38287
▁Су	-9.38505
▁депутатов	-9.3867
▁сообщается	-9.38683
▁глав	-9.38754
▁продукции	-9.388
▁встреча	-9.3889
▁отношений	-9.38963
▁комплекс	-9.38965
▁никаких	-9.38983
r	-9.3899
▁сих	-9.39054
▁Мир	-9.39095
▁использовать	-9.39274
▁постоянно	-9.39374
▁Медведев	-9.39386
▁автомобилей	-9.39458
▁Российски	-9.3956
▁Крым	-9.39747
▁преступления	-9.39773
▁собственно	-9.398
▁Сергея	-9.39946
▁Теперь	-9.39969
▁Борис	-9.39973
▁быстро	-9.39987
бор	-9.40078
▁раньше	-9.4011
ках	-9.40117
дел	-9.4022
▁клуба	-9.40299
▁женщин	-9.40301
пе	-9.40455
▁предложил	-9.40577
ран	-9.40595
▁д	-9.40716
▁Ту	-9.40725
зна	-9.40726
▁недели	-9.40767
▁позиции	-9.40938
▁придется	-9.40969
▁президентом	-9.40988
▁совсем	-9.41
таки	-9.4117
▁район	-9.41252
ника	-9.4126
▁июня	-9.41274
▁мест	-9.41295
кс	-9.41299
▁переговоров	-9.41304
▁Среди	-9.41356
R	-9.41366
▁происходит	-9.41371
▁свободы	-9.41442
▁2011	-9.4151
▁фонд	-9.4162
ники	-9.41714
▁процента	-9.41721
▁ближайши	-9.41913
▁декабре	-9.41941
▁нем	-9.41955
▁найти	-9.41963
▁куда	-9.42027
ели	-9.42071
▁властей	-9.42109
▁эксперты	-9.42115
▁написал	-9.4227
▁минимум	-9.42293
▁санкции	-9.42468
зы	-9.42598
B	-9.42604
▁фоне	-9.42796
▁точно	-9.42806
место	-9.42807
ика	-9.42813
оп	-9.42865
▁борьбе	-9.42953
▁всю	-9.43029
▁уголовно	-9.43053
▁принял	-9.43124
▁оказался	-9.43142
оз	-9.43155
нее	-9.43264
▁та	-9.43339
▁слишком	-9.43523
a	-9.43626
ож	-9.43642
лив	-9.43699
рен	-9.43781
▁зрения	-9.43805
РИА	-9.43864
▁странах	-9.43909
":	-9.43976
▁будем	-9.43977
▁вновь	-9.43979
▁вполне	-9.44137
▁ней	-9.4415
▁снова	-9.44172
▁факту	-9.44275
иться	-9.44283
▁планирует	-9.44319
▁вопросам	-9.44323
▁совершенно	-9.44327
ря	-9.44391
▁январе	-9.44492
▁сами	-9.4454
▁акций	-9.44664
▁2018	-9.44675
▁скорее	-9.44701
▁стар	-9.44721
вид	-9.4482
служба	-9.45041
▁объектов	-9.45106
▁матче	-9.4513
чин	-9.45234
▁реализации	-9.45288
ировал	-9.45356
▁воз	-9.45389
▁шесть	-9.45399
▁Ар	-9.45448
▁Великобритании	-9.45531
▁имеют	-9.45537
либо	-9.45577
▁ниже	-9.4565
жа	-9.4567
▁продажи	-9.45677
▁клуб	-9.45701
▁заседании	-9.45705
▁следствия	-9.45705
▁производство	-9.45748
▁э	-9.4575
▁Евгений	-9.45967
ек	-9.46046
▁значительно	-9.46091
▁машины	-9.46336
▁Ц	-9.46369
ового	-9.46416
▁Российская	-9.46497
▁контроль	-9.46515
▁сайт	-9.46561
▁информация	-9.46581
I	-9.4663
ими	-9.46708
э	-9.46951
сы	-9.47009
▁национальной	-9.4721
▁З	-9.47233
▁рассказывает	-9.47291
ья	-9.47333
▁результат	-9.47457
▁команда	-9.47472
▁санкций	-9.47487
▁целью	-9.47538
▁б	-9.47545
ция	-9.47571
▁начал	-9.47583
▁пришлось	-9.47645
▁пользу	-9.47775
▁Петр	-9.47892
▁ремонт	-9.47981
Ц	-9.47996
▁директора	-9.48152
▁значит	-9.48153
▁хочет	-9.48175
ган	-9.48283
од	-9.4842
▁семьи	-9.48492
▁неделе	-9.48548
За	-9.48639
▁документы	-9.48709
▁воскресенье	-9.48714
▁школы	-9.48719
▁точки	-9.48768
▁интерес	-9.48795
▁комитет	-9.48807
30	-9.4882
▁ДТП	-9.48897
▁председателя	-9.48923
M	-9.48924
фи	-9.48936
чер	-9.4917
стра	-9.49199
▁заявления	-9.49264
▁свет	-9.49308
▁встрече	-9.49349
▁развитие	-9.49401
▁банков	-9.49428
▁документов	-9.49481
com	-9.49563
▁здания	-9.49799
▁сделал	-9.49808
▁планируется	-9.4981
▁Мурманск	-9.49967
▁предложения	-9.50001
ье	-9.50138
▁смерти	-9.50162
▁Мо	-9.50267
▁создан	-9.50276
▁курс	-9.50279
ур	-9.50424
!"	-9.50506
▁доме	-9.506
▁снижение	-9.50669
▁экономического	-9.50683
▁Ма	-9.50757
▁500	-9.50762
▁Всего	-9.50796
ился	-9.50885
вар	-9.50952
▁систему	-9.51054
re	-9.51083
▁состоится	-9.51155
▁приняли	-9.51191
▁оружия	-9.51262
ул	-9.51273
▁дети	-9.51321
ге	-9.51403
▁одну	-9.51447
▁прогноз	-9.51465
▁км	-9.51467
v	-9.51529
▁оно	-9.51555
▁Ди	-9.51565
▁официально	-9.51773
ала	-9.51797
▁самый	-9.5186
▁станции	-9.52057
нд	-9.5207
▁друг	-9.52211
▁Юрий	-9.52217
▁большинство	-9.52355
▁столицы	-9.52376
▁Ан	-9.52439
Газпром	-9.52467
▁некоторых	-9.52561
▁самой	-9.52564
мы	-9.52692
▁столице	-9.52757
in	-9.52797
ация	-9.52931
▁участия	-9.52988
ент	-9.53003
▁Николай	-9.53024
▁соответствии	-9.53122
▁армии	-9.53123
▁соглашение	-9.53124
Е	-9.53182
▁режима	-9.53214
▁линии	-9.53345
▁60	-9.53401
▁H	-9.53416
▁рядом	-9.53446
▁основном	-9.53511
▁вчера	-9.53533
▁включая	-9.53533
ешь	-9.53562
▁жители	-9.53687
▁марте	-9.53724
▁руководителя	-9.53754
▁ночь	-9.53759
▁Пока	-9.53805
▁работают	-9.53817
▁пар	-9.53868
▁площади	-9.53876
▁взрыв	-9.539
▁создание	-9.53917
ики	-9.53924
D	-9.53995
ила	-9.54058
▁отмечают	-9.54086
▁внутри	-9.54131
▁море	-9.542
вшего	-9.54339
овать	-9.54419
щи	-9.54446
▁Де	-9.54483
▁Ни	-9.54489
▁поддержки	-9.54636
▁получила	-9.54872
▁регионов	-9.54893
▁адрес	-9.54926
▁резко	-9.54927
Россия	-9.54979
▁необходимости	-9.55085
▁первые	-9.55135
▁M	-9.55137
▁отмечается	-9.55201
▁якобы	-9.5521
▁парламента	-9.55234
▁боевиков	-9.55262
▁ма	-9.55268
▁решили	-9.55284
Исламско	-9.55311
▁составил	-9.55375
▁составила	-9.55484
▁позволит	-9.55533
▁решил	-9.55619
▁основе	-9.55676
▁СКР	-9.55692
▁сказала	-9.55857
▁Кар	-9.55893
▁газ	-9.55897
▁вариант	-9.55906
▁пути	-9.55916
▁исследования	-9.55981
▁довольно	-9.56015
▁сообщал	-9.56237
▁Рио	-9.56433
▁Вот	-9.56555
▁расследования	-9.56561
▁боевы	-9.5658
▁голосов	-9.56582
▁бывше	-9.56626
▁автор	-9.56652
▁годов	-9.56655
▁торгов	-9.56732
▁сезон	-9.56798
▁Ла	-9.56814
▁вокруг	-9.5696
▁метров	-9.56988
ед	-9.56997
▁300	-9.57016
▁народ	-9.57043
▁равно	-9.57151
▁руководство	-9.57157
▁конфликта	-9.57171
m	-9.57191
▁нарушения	-9.57256
▁Facebook	-9.57342
▁субботу	-9.57342
▁ответственности	-9.57346
▁матч	-9.57395
вали	-9.57432
▁говорил	-9.57434
▁Би	-9.57463
▁сложно	-9.57481
фор	-9.57487
▁мере	-9.57492
▁наш	-9.5752
▁мер	-9.57621
▁транспорта	-9.57641
▁погибших	-9.57739
▁область	-9.57933
▁Более	-9.57935
▁феврале	-9.57956
▁невозможно	-9.58109
▁оказались	-9.58137
▁игры	-9.58261
род	-9.58298
▁защиты	-9.58327
▁неделю	-9.58327
▁прежде	-9.58611
▁Есть	-9.58613
▁лица	-9.58685
▁конкурс	-9.5883
▁прием	-9.58832
▁конфликт	-9.58842
▁общей	-9.58967
▁рассказали	-9.58983
▁E	-9.59026
кар	-9.59079
▁Китай	-9.59099
▁ФСБ	-9.59122
▁создать	-9.59144
▁вам	-9.59257
▁Москву	-9.59321
иль	-9.59324
▁Именн	-9.59365
▁обязательно	-9.59385
ились	-9.59414
иков	-9.59453
▁Этот	-9.59479
d	-9.59522
▁ответственность	-9.596
▁Один	-9.59625
▁Ро	-9.59627
▁признал	-9.59631
▁ты	-9.59663
▁кур	-9.59692
▁Саудовск	-9.59721
▁рассказала	-9.59844
▁любой	-9.59907
▁обвинения	-9.59926
▁ЦСКА	-9.59953
▁пассажиров	-9.60012
▁мировой	-9.60019
▁кризис	-9.60065
▁штраф	-9.60328
нос	-9.60448
▁Там	-9.60449
▁фото	-9.60586
▁метро	-9.60588
щ	-9.60665
▁экспорт	-9.60782
▁Ми	-9.60791
его	-9.60798
▁воды	-9.60865
▁T	-9.60879
Ч	-9.60884
тра	-9.60963
▁Х	-9.61017
▁Киев	-9.61114
ием	-9.61128
вший	-9.61141
▁департамента	-9.61327
▁погиб	-9.61329
ью	-9.61391
▁D	-9.61436
▁характер	-9.6145
ший	-9.61459
▁N	-9.6149
▁фильма	-9.61526
▁самое	-9.6165
▁мероприятия	-9.61656
▁возбуждено	-9.61665
тся	-9.61738
▁Отмечается	-9.61747
w	-9.61813
▁учетом	-9.61852
▁хотят	-9.61937
▁уверен	-9.61955
вен	-9.61972
рат	-9.62072
▁государств	-9.62096
банк	-9.62166
▁доступ	-9.62268
ion	-9.62287
b	-9.6254
▁расследование	-9.62569
▁спортсменов	-9.62681
▁международных	-9.62802
▁дороги	-9.6283
▁Нью	-9.62888
▁Максим	-9.62935
▁Лавров	-9.62957
▁Бывши	-9.62998
▁Японии	-9.6319
ции	-9.63265
▁подтвердил	-9.63282
▁участники	-9.63284
▁сентябре	-9.63417
▁которому	-9.63475
▁иск	-9.63544
▁ф	-9.63564
50	-9.63606
▁Министр	-9.63606
▁издание	-9.63667
зе	-9.63689
▁журналистов	-9.6381
▁Обама	-9.63824
▁организация	-9.63884
ите	-9.63887
▁кого	-9.63895
▁чуть	-9.6392
▁сторону	-9.63946
рос	-9.6399
лон	-9.64011
▁кандидатов	-9.64018
▁голосования	-9.64031
▁Чтоб	-9.64076
▁$1	-9.64084
▁женщина	-9.64123
▁российским	-9.64231
▁ноябре	-9.64234
E	-9.64259
▁смогли	-9.64301
▁удар	-9.64335
▁ш	-9.64373
▁федерального	-9.64462
сон	-9.64492
▁баррель	-9.64655
▁беженцев	-9.64655
▁октябре	-9.64679
▁техники	-9.64896
▁ИГ	-9.64896
▁своими	-9.64928
▁Ю	-9.64939
цен	-9.64942
▁проектов	-9.65042
l	-9.65076
▁семей	-9.65099
▁па	-9.65161
▁назначен	-9.65238
▁телеканал	-9.65268
прежнему	-9.65283
▁победу	-9.6532
▁официальный	-9.65469
▁позволяет	-9.65501
овым	-9.65618
▁накануне	-9.65715
▁такая	-9.65784
▁ними	-9.65821
▁должность	-9.65842
▁труд	-9.65926
▁Между	-9.66141
▁приходится	-9.6619
▁Иван	-9.66191
ями	-9.66249
▁документ	-9.66305
нова	-9.66305
▁проходит	-9.66327
▁тренер	-9.66388
L	-9.66404
инг	-9.66415
▁цена	-9.66419
▁обычно	-9.66445
▁выбор	-9.66492
▁кредит	-9.6651
▁органы	-9.66567
шен	-9.66642
▁Мне	-9.66747
▁каких	-9.66766
▁Госдуму	-9.66785
▁полиция	-9.66785
▁игр	-9.6684
▁страна	-9.66936
▁пре	-9.6701
▁различных	-9.6702
▁поле	-9.67038
▁становится	-9.67216
ница	-9.67245
рон	-9.6737
▁Ну	-9.67376
воз	-9.67393
ден	-9.67394
▁самые	-9.67445
▁договор	-9.67658
▁состояние	-9.67696
▁проблема	-9.67797
▁борьбы	-9.67867
ген	-9.67872
▁выразил	-9.67908
▁депутаты	-9.67968
террористической	-9.68078
▁анти	-9.68088
▁налогов	-9.68113
▁данно	-9.68126
▁член	-9.68315
▁века	-9.68334
▁продолжает	-9.68365
▁военные	-9.6837
▁ул	-9.68503
▁проверки	-9.68522
▁плохо	-9.68522
▁отметили	-9.6858
▁тур	-9.68682
▁годах	-9.68727
▁Reuters	-9.68741
▁принимать	-9.68761
▁движение	-9.68778
▁кор	-9.68815
▁шести	-9.68883
▁представителя	-9.68885
▁апреле	-9.68961
ирует	-9.68989
▁системе	-9.69106
ско	-9.69163
▁крупных	-9.69207
▁провели	-9.69412
▁сколько	-9.69483
▁Помимо	-9.69516
▁Китая	-9.69624
▁думаю	-9.69666
▁запрет	-9.69749
ации	-9.69759
▁R	-9.69771
стер	-9.69843
▁сутки	-9.69849
уд	-9.70027
▁история	-9.70068
▁объявил	-9.7012
▁женщины	-9.70193
ун	-9.70284
▁страну	-9.70318
▁войск	-9.70437
▁суде	-9.70473
▁дальше	-9.70513
▁военного	-9.70755
▁втором	-9.70759
▁дни	-9.70776
▁расположен	-9.70869
▁последнее	-9.70961
▁ди	-9.70969
рас	-9.70972
▁Конечно	-9.70998
ней	-9.71163
▁Ж	-9.71201
▁начальник	-9.71233
▁вечером	-9.71374
бу	-9.71414
год	-9.71459
▁Несмотря	-9.71461
▁ракет	-9.71497
▁случай	-9.71506
▁особо	-9.71585
вшихся	-9.71706
ван	-9.7181
▁кон	-9.71854
▁V	-9.71895
лев	-9.71993
▁Московской	-9.72131
▁недавно	-9.72142
▁нашли	-9.72228
▁прямо	-9.72246
▁будущем	-9.72272
Единой	-9.72475
▁расходы	-9.72517
▁комплекса	-9.7255
▁напомнил	-9.72598
A	-9.72642
▁Эти	-9.72661
▁Суд	-9.72664
an	-9.72675
▁семь	-9.72719
▁происшествия	-9.72773
▁статье	-9.7278
ra	-9.72787
f	-9.72787
▁пол	-9.72877
▁главного	-9.72891
тан	-9.72936
ar	-9.72973
").	-9.72986
▁кампании	-9.73002
▁причиной	-9.73002
▁Apple	-9.73002
▁общества	-9.73007
19	-9.73032
▁матча	-9.7309
гор	-9.73196
▁требования	-9.73202
▁успешно	-9.73322
▁сезона	-9.73355
▁Па	-9.73381
▁труда	-9.73424
F	-9.73451
НИ	-9.73476
▁мужчин	-9.73502
ченко	-9.73507
▁террористов	-9.73525
нг	-9.73578
оль	-9.73651
▁избран	-9.73665
▁Их	-9.73689
▁кроме	-9.73693
▁регионах	-9.73732
▁Сочи	-9.73735
▁той	-9.7376
тели	-9.73825
▁главе	-9.73882
нет	-9.7389
▁Хиллари	-9.73922
гла	-9.73984
вед	-9.74011
le	-9.74115
▁губернатор	-9.74145
▁Елена	-9.74155
▁Вчера	-9.74162
▁первым	-9.74216
▁ту	-9.74311
▁могу	-9.74324
▁Верховн	-9.74374
ест	-9.74379
▁губернатора	-9.74397
▁издания	-9.74463
▁бес	-9.74544
▁домов	-9.74562
шин	-9.74566
ол	-9.74583
▁политике	-9.74609
▁контракт	-9.74617
▁иметь	-9.74626
▁адвокат	-9.74657
▁долго	-9.74679
▁существует	-9.74722
▁нашего	-9.74758
▁кризиса	-9.74763
сад	-9.74826
ющих	-9.74838
▁теле	-9.7484
▁парламент	-9.749
▁другими	-9.74958
▁предложение	-9.75011
-2016	-9.7502
▁управление	-9.75024
▁обнаружили	-9.75068
▁заседания	-9.75085
▁сотрудничества	-9.75085
▁добычи	-9.75085
▁водитель	-9.75104
▁военной	-9.75149
▁сбор	-9.75189
▁программу	-9.75209
▁Бар	-9.75319
▁вид	-9.7538
вшийся	-9.75393
▁наибол	-9.75546
▁помочь	-9.75554
▁всему	-9.75562
▁взгляд	-9.75596
▁фактически	-9.7563
▁намерен	-9.75691
еж	-9.75746
▁первых	-9.75787
▁делам	-9.75801
▁местных	-9.75937
▁задержали	-9.75965
ирован	-9.75974
▁экспертов	-9.76009
тро	-9.76018
▁группировки	-9.76026
▁партия	-9.76028
▁американских	-9.7603
чет	-9.76053
премьер	-9.7608
▁регионального	-9.76083
▁70	-9.76114
p	-9.76445
нев	-9.7645
мин	-9.76467
ак	-9.76477
фер	-9.76519
дин	-9.76537
▁данном	-9.76552
▁государственной	-9.76557
це	-9.76658
▁Международно	-9.76661
тур	-9.76736
▁предприятий	-9.76736
▁Ново	-9.76763
уш	-9.76834
▁Ра	-9.76884
▁допинг	-9.76915
▁смог	-9.76928
T	-9.77001
en	-9.77107
▁Болгарии	-9.77213
▁систем	-9.77274
рев	-9.77333
рав	-9.77348
▁должности	-9.7751
▁ряда	-9.77657
▁рождения	-9.77739
ируют	-9.77866
▁Джон	-9.77894
мат	-9.77912
20	-9.77917
▁новую	-9.77938
▁Павел	-9.77938
нер	-9.78014
▁абсолютно	-9.78098
▁топ	-9.78103
▁Первый	-9.78105
▁огня	-9.78174
изм	-9.78188
▁проведение	-9.78188
▁создания	-9.7823
▁прошли	-9.78256
▁запрос	-9.78324
▁отметила	-9.78396
▁Правда	-9.78419
"),	-9.78436
ющим	-9.78439
▁политика	-9.78473
цион	-9.78516
строй	-9.78551
▁кандидата	-9.78673
ид	-9.78679
вшиеся	-9.7873
▁структуры	-9.78759
▁Хотя	-9.789
▁чаще	-9.789
▁размер	-9.78913
▁2010	-9.78925
овая	-9.79056
▁лидера	-9.79134
▁отставку	-9.79154
мор	-9.79167
▁десять	-9.79186
▁отдел	-9.79233
▁лично	-9.79273
▁работал	-9.79389
▁Власти	-9.79453
няя	-9.79478
▁модели	-9.79542
▁министерства	-9.79605
ing	-9.79626
▁университета	-9.79706
лад	-9.79711
▁понять	-9.79712
▁утром	-9.79724
▁роли	-9.79761
бра	-9.7978
▁признан	-9.79818
▁мнение	-9.79833
▁сообщения	-9.79845
аться	-9.79943
O	-9.79957
▁поток	-9.7997
▁журналистам	-9.79971
▁товаров	-9.80013
▁прибыль	-9.80041
▁числа	-9.80054
▁историю	-9.80122
▁кажется	-9.80123
зу	-9.80142
▁Пу	-9.80229
▁электро	-9.80248
▁июле	-9.80377
▁собеседник	-9.80455
▁образ	-9.80562
теля	-9.80596
▁Италии	-9.80616
эн	-9.80745
▁мигрантов	-9.80863
▁Ведь	-9.80864
▁оказалось	-9.80868
▁называют	-9.8087
▁дать	-9.80875
▁прошел	-9.80893
езд	-9.80997
▁финансов	-9.81048
Это	-9.811
▁Дмитрия	-9.81115
▁завод	-9.8118
▁летом	-9.81221
ания	-9.81271
▁августе	-9.81356
▁неоднократно	-9.8136
▁территорию	-9.8136
▁условий	-9.8136
▁ВВП	-9.81361
▁Уже	-9.81465
ям	-9.816
▁последних	-9.8162
▁последний	-9.81645
▁команд	-9.81668
▁Сер	-9.81784
▁Крыму	-9.8179
▁среднем	-9.81826
▁жертв	-9.81827
▁Республики	-9.81859
куп	-9.81882
▁отказался	-9.81913
ятся	-9.81924
▁открыл	-9.81936
▁программа	-9.8201
▁Совет	-9.82039
пл	-9.82051
▁кв	-9.82061
гра	-9.82063
▁Вячеслав	-9.8211
▁Минфин	-9.82147
▁переход	-9.82181
▁Министерство	-9.8221
▁доля	-9.82212
▁дает	-9.8228
▁далеко	-9.82299
мест	-9.82309
▁восемь	-9.82368
▁борту	-9.82372
▁общего	-9.82378
▁появилась	-9.82413
гер	-9.82415
▁рекорд	-9.82546
Не	-9.82613
▁специалисты	-9.82631
▁круг	-9.82662
▁причем	-9.82664
зов	-9.82847
▁Антон	-9.82907
▁предлагает	-9.82946
пр	-9.82977
▁Эта	-9.83073
▁отделения	-9.83133
▁максимально	-9.83143
▁партий	-9.83183
▁концерт	-9.83289
йте	-9.83305
▁мае	-9.83376
▁округа	-9.8338
ющий	-9.83383
on	-9.83403
▁вопросов	-9.83485
▁ставки	-9.83541
ющие	-9.83548
▁Ша	-9.83625
▁развитию	-9.83627
▁мед	-9.83645
▁контроля	-9.83705
▁экономической	-9.83741
▁отдела	-9.8376
▁35	-9.83788
▁существенно	-9.83903
▁взрыва	-9.84013
▁L	-9.84034
es	-9.84094
▁турнира	-9.84194
ены	-9.84196
Ш	-9.84222
▁правила	-9.84235
▁актер	-9.84324
▁программе	-9.84344
▁регулярно	-9.84394
▁позицию	-9.84394
▁сумма	-9.84431
▁мин	-9.84529
▁активов	-9.84532
▁Бо	-9.84542
▁Те	-9.84586
▁базе	-9.84617
▁подал	-9.84629
▁порядке	-9.84653
▁правил	-9.84673
▁Почему	-9.84709
▁палаты	-9.84795
чу	-9.84847
▁гораздо	-9.84909
▁относительно	-9.8491
дов	-9.84918
тар	-9.84995
нь	-9.84996
лан	-9.85097
ировали	-9.8512
▁доходов	-9.85144
▁1,5	-9.85172
▁торговли	-9.85266
▁доллара	-9.8529
▁Кор	-9.85296
ении	-9.85421
▁стоимости	-9.85427
сел	-9.85659
лом	-9.85685
▁оказалась	-9.85694
▁Сан	-9.8571
чат	-9.85712
▁серии	-9.85713
▁двумя	-9.85773
▁телефон	-9.85813
ших	-9.85864
▁Иванов	-9.85886
▁причин	-9.85891
▁блок	-9.85979
ера	-9.85982
▁долг	-9.86025
▁вывод	-9.86114
илась	-9.86156
нии	-9.86201
▁знаю	-9.86225
▁победы	-9.86232
▁главным	-9.86294
▁первое	-9.86467
▁КНДР	-9.8647
▁оппозиции	-9.8647
▁сожалению	-9.8647
▁отрасли	-9.8647
▁000	-9.86486
▁зарегистрирован	-9.86492
стве	-9.86508
▁риск	-9.86533
▁нужны	-9.86556
▁режиссер	-9.86565
дан	-9.86692
▁другим	-9.86693
▁миллиардов	-9.86798
▁показатель	-9.86836
президент	-9.86853
исты	-9.86864
▁продаж	-9.86952
▁внутренних	-9.86995
▁середине	-9.86995
▁аэропорту	-9.87033
▁Пол	-9.87114
ву	-9.87136
цов	-9.87173
▁арест	-9.87231
▁карт	-9.87241
▁обеспечить	-9.87271
▁матери	-9.87275
▁га	-9.8729
▁2008	-9.87294
▁имя	-9.87306
др	-9.8734
▁зоне	-9.8735
▁Вер	-9.87365
▁пришли	-9.87383
▁модель	-9.87446
▁мой	-9.87448
▁сторона	-9.87458
чев	-9.87474
▁основной	-9.87533
▁Мар	-9.87538
▁проб	-9.87639
▁правило	-9.87644
министра	-9.8765
кам	-9.87686
▁свыше	-9.877
▁отметить	-9.87789
лич	-9.87795
фе	-9.878
▁собирается	-9.87836
▁квартале	-9.87849
▁каждого	-9.87853
▁очередной	-9.8787
▁генерал	-9.87906
▁разные	-9.87944
▁вести	-9.87973
▁прокуратуры	-9.88055
▁людям	-9.88055
цию	-9.88114
▁часа	-9.88121
▁американского	-9.88132
N	-9.88135
▁днем	-9.8816
▁прибыли	-9.88229
▁пострадали	-9.88257
▁здоровья	-9.88323
▁большая	-9.88324
▁Банк	-9.88355
▁подписал	-9.88422
▁клиентов	-9.88448
▁W	-9.88508
▁самостоятельно	-9.8859
стан	-9.8859
▁увеличить	-9.88595
▁сотрудник	-9.88708
лав	-9.88754
гин	-9.88856
▁союза	-9.88904
▁/	-9.88944
▁жить	-9.89056
▁здание	-9.89127
▁марки	-9.89222
▁источники	-9.89302
▁шаг	-9.89314
▁протяжении	-9.89395
▁сигнал	-9.89396
аются	-9.89444
▁Андрея	-9.8945
▁150	-9.89568
▁услуги	-9.89594
▁новое	-9.89628
▁масштаб	-9.89629
летняя	-9.89638
рь	-9.89639
▁Ольга	-9.89666
▁степени	-9.89666
▁Ха	-9.89681
▁политической	-9.89731
▁начать	-9.89788
▁дорог	-9.89793
▁дал	-9.89889
▁поддержке	-9.89937
▁миллиарда	-9.89945
▁использования	-9.89953
▁местные	-9.90072
▁соответственно	-9.90208
▁Алексея	-9.90209
▁з	-9.90242
▁главное	-9.90267
▁Киеве	-9.90331
▁ежегодно	-9.90337
?"	-9.90373
▁обе	-9.90388
▁продуктов	-9.90394
▁путем	-9.90481
▁социальных	-9.90497
▁двое	-9.90499
▁решить	-9.90507
▁сложности	-9.90518
▁директоров	-9.90549
бе	-9.90577
▁Ее	-9.90622
▁вышел	-9.9064
▁Интернет	-9.90728
▁заседание	-9.90754
▁обеспечения	-9.9077
▁чемпионате	-9.90878
▁руки	-9.90937
▁проекты	-9.91035
▁оперативно	-9.9104
тен	-9.9106
▁онлайн	-9.91067
емся	-9.91086
▁требует	-9.91122
▁Ру	-9.91157
тов	-9.91189
▁международной	-9.91268
▁Л	-9.91318
▁второго	-9.91319
нут	-9.91323
▁Причем	-9.91325
▁компьютер	-9.91351
▁Здесь	-9.91355
▁выступил	-9.91411
▁экономике	-9.91416
▁крас	-9.91496
▁отказ	-9.91532
▁СК	-9.91537
▁составит	-9.9158
▁сторон	-9.91589
скому	-9.91611
▁имущества	-9.91624
▁связан	-9.91806
▁Twitter	-9.91854
▁инвестиций	-9.91854
▁заниматься	-9.91906
▁повышение	-9.91919
▁эффект	-9.9193
▁Кон	-9.92058
▁Многие	-9.92132
▁промышленности	-9.92142
▁немного	-9.92177
тон	-9.92319
ается	-9.92365
▁журналист	-9.92385
▁украинских	-9.92412
▁Донбассе	-9.92482
▁ген	-9.92483
▁странице	-9.92605
▁авиа	-9.9264
▁Новый	-9.92643
лей	-9.92661
▁режиме	-9.92749
▁эфире	-9.92754
G	-9.9276
▁американской	-9.9277
▁этап	-9.92817
▁номер	-9.92821
▁пример	-9.92856
▁Константин	-9.92862
▁сначала	-9.92887
▁кандидат	-9.92965
▁конкурса	-9.92984
▁приговор	-9.93034
▁странами	-9.93145
кан	-9.93235
▁руководства	-9.93247
▁событий	-9.93247
▁ученые	-9.93248
▁июне	-9.93267
бира	-9.93302
▁получит	-9.93303
4%	-9.93342
▁хотел	-9.93342
▁крае	-9.93363
нию	-9.93363
вес	-9.93454
▁задача	-9.93488
след	-9.93581
▁получения	-9.9368
жу	-9.93719
▁Пере	-9.93794
▁позже	-9.93811
▁Гор	-9.93816
▁80	-9.93851
▁Ло	-9.93854
▁Марк	-9.93863
▁государственных	-9.93936
▁Га	-9.94012
▁трлн	-9.94092
▁предстоит	-9.94093
▁Бу	-9.94094
чка	-9.94115
лер	-9.94135
▁Правительство	-9.94151
ино	-9.94195
▁наук	-9.94257
▁расходов	-9.94307
▁зависимости	-9.94376
прокомментировал	-9.94379
▁читать	-9.9441
▁Институт	-9.94411
▁городской	-9.94457
▁уточнил	-9.94508
▁момента	-9.94558
▁сезоне	-9.94582
▁капитал	-9.94726
▁специалистов	-9.94854
▁Мария	-9.9486
▁новым	-9.94888
▁Кстати	-9.94945
она	-9.94964
▁2009	-9.94975
▁туристов	-9.95041
▁возрасте	-9.95156
Известиям	-9.95179
▁способ	-9.95209
▁нарушение	-9.95244
▁прошла	-9.95245
▁сирийско	-9.95311
▁инцидент	-9.95321
три	-9.95407
▁хозяйства	-9.95409
▁правда	-9.95432
▁статус	-9.95471
▁ведет	-9.95539
▁направлении	-9.9556
▁лишения	-9.95581
▁вопросу	-9.95804
▁можем	-9.95804
▁подготовки	-9.95804
▁украинского	-9.95808
▁жилья	-9.95811
тив	-9.95838
кол	-9.95881
is	-9.95933
▁служба	-9.95952
ред	-9.96081
▁договора	-9.96128
ТАСС	-9.96154
▁попал	-9.96163
▁основан	-9.96181
▁могла	-9.96194
▁ожидается	-9.96195
▁политических	-9.96196
порт	-9.96198
нес	-9.96221
ад	-9.96223
▁аэропорта	-9.96283
▁телеканала	-9.96296
it	-9.9633
▁мужчины	-9.96335
▁участием	-9.96336
▁возраст	-9.96363
▁федерации	-9.96381
▁ранения	-9.96404
▁Премьер	-9.9642
▁вещи	-9.96427
▁Национально	-9.96468
▁ради	-9.96495
енные	-9.96521
▁Гос	-9.96527
▁объяснил	-9.9662
▁Турция	-9.96745
лез	-9.96759
▁программ	-9.96784
ины	-9.96803
▁больницу	-9.96819
▁лидеров	-9.9694
▁Компания	-9.96962
дар	-9.96965
▁Только	-9.97008
▁указ	-9.97026
▁вовсе	-9.97033
▁штаб	-9.97036
▁построен	-9.97044
вол	-9.97055
рез	-9.97082
▁расс	-9.97204
▁депутата	-9.97218
▁руководством	-9.97237
▁технологий	-9.97254
▁текущего	-9.97255
▁Вмест	-9.97294
▁временем	-9.97319
6%	-9.97354
▁делает	-9.97382
▁общественного	-9.97407
▁Раз	-9.97536
▁Бр	-9.97558
▁честь	-9.9756
▁цел	-9.97564
Ж	-9.97587
пов	-9.97613
▁сама	-9.9762
уют	-9.97671
овый	-9.97687
итель	-9.9772
шая	-9.97768
▁Политика	-9.97776
бин	-9.97783
us	-9.97802
▁границы	-9.97814
▁выхода	-9.97823
▁спустя	-9.97839
▁выросла	-9.97882
суд	-9.97968
▁московск	-9.97982
ющая	-9.98071
▁обмен	-9.98083
▁мастер	-9.98101
▁умер	-9.98132
▁привести	-9.98135
▁европейских	-9.98141
▁Роман	-9.98253
▁направлен	-9.9826
▁ста	-9.98355
▁произошла	-9.98428
▁установить	-9.98435
▁серьезно	-9.98484
▁прокурор	-9.98507
▁правильно	-9.98515
V	-9.98527
▁изменений	-9.98543
▁наказание	-9.98551
▁ракеты	-9.98676
▁Ирана	-9.98685
▁др	-9.98687
▁исключительно	-9.98693
▁Отметим	-9.98724
▁проверку	-9.98724
▁добиться	-9.98725
▁сообщение	-9.98728
▁завода	-9.98732
вать	-9.98737
▁Затем	-9.9874
▁выплаты	-9.98757
▁объявлен	-9.98854
▁подход	-9.98868
▁пакет	-9.98894
▁пожар	-9.98906
▁столько	-9.98941
▁перспектив	-9.9898
ацию	-9.99003
▁члены	-9.99006
Роснефти	-9.99021
▁настоящий	-9.99021
▁участвовать	-9.99021
▁полагает	-9.99028
▁400	-9.99053
▁спрос	-9.99059
▁которыми	-9.99091
▁Украину	-9.99105
ович	-9.99128
▁полу	-9.99134
ri	-9.99144
▁K	-9.99253
▁Та	-9.9931
том	-9.99311
▁российском	-9.9933
▁Google	-9.99334
▁счетом	-9.99394
▁цель	-9.99407
▁ГУ	-9.99413
▁доход	-9.99492
·	-9.99617
▁предприниматель	-9.99617
▁capt	-9.99617
▁лучших	-9.99618
▁ОАО	-9.99631
▁час	-9.99708
▁появились	-9.99726
обра	-9.99727
работ	-9.99771
▁структур	-9.99772
бр	-9.99824
фа	-9.99839
▁посвящен	-9.99887
▁вернуть	-9.99904
▁мероприятий	-9.99916
▁международного	-10.0006
▁команду	-10.0008
▁примеру	-10.001
▁события	-10.0013
▁Виталий	-10.0014
▁технологии	-10.0022
▁хоть	-10.0022
▁праймериз	-10.0022
▁зависит	-10.0023
▁оружие	-10.0024
▁связано	-10.0027
▁состава	-10.0029
▁45	-10.0031
▁Мал	-10.0035
▁окончательно	-10.0044
▁легко	-10.0046
государственного	-10.005
▁Эрдоган	-10.0051
▁Керри	-10.0052
▁снижения	-10.0053
▁рулем	-10.0057
▁Рас	-10.0059
▁цели	-10.006
▁газеты	-10.0062
▁Вести	-10.0064
▁статьи	-10.008
▁пройти	-10.0082
Ю	-10.0098
летней	-10.0098
▁банки	-10.0099
▁занимается	-10.01
▁муж	-10.0103
ес	-10.0103
▁положение	-10.0106
▁граждане	-10.0108
▁гривен	-10.0112
▁правам	-10.0113
Ка	-10.0121
X	-10.0124
h	-10.0124
▁группе	-10.0126
▁городов	-10.0131
▁Пресс	-10.0144
▁общем	-10.0145
▁говоря	-10.0152
▁Кубка	-10.0155
▁Федерально	-10.0159
▁Ал	-10.0167
▁мэр	-10.0172
▁здравоохранения	-10.0173
▁анализ	-10.0174
граф	-10.018
▁политику	-10.0181
▁находи	-10.0184
▁посту	-10.0186
ложить	-10.0196
▁британск	-10.0197
or	-10.0203
нич	-10.0203
▁чемпион	-10.0203
'	-10.0204
▁памяти	-10.0204
▁w	-10.0222
▁главных	-10.0223
пре	-10.0228
Петербурге	-10.0229
▁годом	-10.0235
▁союз	-10.0238
▁сроки	-10.024
▁ЦИК	-10.0242
▁километров	-10.0249
▁сделали	-10.0249
ас	-10.0257
▁качества	-10.0261
▁Кур	-10.0263
▁Накануне	-10.0265
▁денежны	-10.0268
▁сообщают	-10.0269
сов	-10.0269
ез	-10.0271
пад	-10.0273
▁утверждает	-10.0279
▁установлен	-10.0287
поль	-10.0291
мар	-10.0291
▁следующем	-10.0298
▁правительственн	-10.0303
юсь	-10.0305
▁предварительным	-10.0305
▁никак	-10.0306
▁финансовых	-10.0308
▁ведомстве	-10.0315
▁военно	-10.0321
▁провинции	-10.0327
твор	-10.0329
▁Ри	-10.0343
▁чиновников	-10.0345
▁уж	-10.0355
▁попытки	-10.0358
▁пострадавших	-10.0358
▁входит	-10.0368
▁Министерства	-10.0375
▁вернуться	-10.0377
▁доходы	-10.0378
▁проводить	-10.038
▁пунктов	-10.0381
▁находился	-10.0391
▁традиционно	-10.0392
вшись	-10.0397
▁игра	-10.0401
▁отдельно	-10.0402
▁спор	-10.041
▁Хо	-10.0416
▁спец	-10.0416
Газета	-10.0416
сен	-10.0419
▁Наталья	-10.0421
▁Вадим	-10.0421
▁порядок	-10.0425
▁Мин	-10.0425
▁КПРФ	-10.0425
▁судебны	-10.0427
▁отсутствие	-10.0429
▁вне	-10.043
▁Представитель	-10.043
▁90	-10.0435
оло	-10.0438
▁ответил	-10.0438
▁корреспондент	-10.0446
ницы	-10.0451
▁ребенок	-10.0452
▁находились	-10.0454
▁дальнейше	-10.0456
▁инвесторов	-10.0462
▁Пан	-10.0464
▁Си	-10.0464
▁насколько	-10.047
▁крупнейших	-10.0476
ству	-10.048
ину	-10.0481
▁сеть	-10.0482
▁выступления	-10.0484
▁базы	-10.0486
▁Кол	-10.0489
▁квартиры	-10.049
▁импорт	-10.0491
▁миру	-10.0492
▁сегодняшний	-10.0497
▁наша	-10.05
▁запуск	-10.0506
▁концу	-10.0515
▁отличие	-10.0518
▁случаев	-10.052
шего	-10.0521
▁Иран	-10.0525
чита	-10.0526
10	-10.0529
дет	-10.053
▁пилот	-10.0544
▁сделки	-10.0547
▁исследований	-10.0547
▁подряд	-10.0548
овский	-10.0552
▁финансирования	-10.0556
▁сохранить	-10.0562
чит	-10.0572
ват	-10.0573
▁столь	-10.0574
зор	-10.0575
▁падения	-10.0578
▁операция	-10.0579
изации	-10.0595
▁моря	-10.0605
▁олимпийск	-10.061
▁хочу	-10.061
службы	-10.061
▁пользователей	-10.0615
▁президенту	-10.0615
ro	-10.0617
Петербург	-10.0617
▁ограничения	-10.0623
▁генеральн	-10.0623
▁пр	-10.063
Един	-10.0634
x	-10.0638
▁аппарат	-10.0639
▁Михаила	-10.064
▁аварии	-10.0642
жал	-10.0644
▁колонии	-10.0644
▁размещен	-10.0644
▁убийстве	-10.0645
▁суммы	-10.0648
▁отдыха	-10.0652
▁интересы	-10.0652
пере	-10.0655
▁продолжают	-10.0658
▁местах	-10.067
▁земли	-10.0674
▁Второй	-10.0675
▁Северной	-10.0677
▁взять	-10.0679
▁поможет	-10.0684
▁проблему	-10.0687
▁административно	-10.069
ению	-10.0693
▁ВТБ	-10.0701
▁Информационно	-10.0707
▁заметил	-10.0712
▁конференции	-10.0715
▁кому	-10.0716
▁групп	-10.0716
▁прошлой	-10.0717
Новости	-10.0723
▁Дело	-10.0729
▁встречу	-10.0746
▁президенты	-10.0757
▁информационно	-10.0758
▁вырос	-10.0759
лага	-10.0763
▁одновременно	-10.0771
▁секрет	-10.0773
▁мол	-10.0776
нуть	-10.0777
▁министров	-10.0783
шу	-10.0784
▁O	-10.0793
гар	-10.0796
▁большое	-10.0803
▁инфраструктуры	-10.0803
▁авиакомпании	-10.0803
▁чемпионат	-10.0806
▁боев	-10.081
▁ведомство	-10.0817
▁пе	-10.0825
нский	-10.0833
аг	-10.0835
▁огонь	-10.0836
▁дополнительные	-10.0837
дум	-10.0837
▁основных	-10.0837
▁следующий	-10.0837
▁нарушений	-10.0838
▁этапе	-10.0839
▁отношение	-10.084
▁назвать	-10.0841
▁норм	-10.0847
▁название	-10.0849
▁сельско	-10.0851
быт	-10.0851
▁планируют	-10.0852
пал	-10.0853
▁цене	-10.0861
▁идут	-10.0867
▁Сообщается	-10.0869
▁путь	-10.0869
right	-10.0869
▁выяснилось	-10.0869
▁Через	-10.0869
▁сути	-10.0872
▁Стар	-10.0873
Зенит	-10.0877
▁процесса	-10.0881
▁театра	-10.0881
▁пожара	-10.0893
▁скандал	-10.0898
вшегося	-10.0903
▁решений	-10.0904
▁времен	-10.0906
ur	-10.0912
▁выступал	-10.0913
шн	-10.0915
▁убийство	-10.0928
▁текст	-10.0931
▁Господин	-10.0934
▁избирателей	-10.0934
▁пройдут	-10.0934
▁российская	-10.0934
▁пообещал	-10.0946
раж	-10.0948
▁учреждения	-10.0951
▁количества	-10.0953
изма	-10.0964
ток	-10.0965
▁просьбой	-10.0967
▁родителей	-10.0967
▁выйти	-10.0969
▁рода	-10.097
▁жил	-10.0971
▁занимает	-10.0973
фин	-10.0974
▁радио	-10.0976
▁Южной	-10.0976
▁заключения	-10.0979
ях	-10.098
▁использование	-10.0981
рт	-10.0984
▁семи	-10.0989
▁начальника	-10.0997
▁33	-10.1
▁ГИБДД	-10.1
▁Кремля	-10.1
▁госпож	-10.1
▁начало	-10.1004
▁животных	-10.1004
▁упал	-10.1004
▁перевод	-10.1012
▁показал	-10.1016
▁Тако	-10.1019
ража	-10.1022
▁войска	-10.1025
▁copy	-10.1034
▁авиации	-10.1034
▁ход	-10.1034
▁отказались	-10.1036
-1	-10.1041
▁возле	-10.1041
аш	-10.1043
▁правительстве	-10.1044
▁транспорт	-10.1048
▁назвали	-10.1048
▁другом	-10.1048
▁36	-10.1051
▁генеральны	-10.1053
ук	-10.1053
▁теракта	-10.1058
▁народа	-10.1059
▁капитала	-10.1061
▁частью	-10.1065
ует	-10.1066
▁местного	-10.1084
▁случаях	-10.1085
инов	-10.1088
коп	-10.109
лег	-10.1091
▁убийства	-10.1093
▁памятник	-10.1094
▁чемпионов	-10.1096
Жанейро	-10.11
нибудь	-10.11
▁Речь	-10.1105
▁туда	-10.1105
▁цвет	-10.1107
шей	-10.1108
▁работников	-10.1109
▁игроков	-10.1114
лек	-10.1117
la	-10.1117
вит	-10.1131
▁следствие	-10.1134
▁гибели	-10.1134
▁большую	-10.1134
▁комиссия	-10.1134
▁старше	-10.1138
▁Возможно	-10.1139
раб	-10.1154
▁ночью	-10.1155
▁X	-10.1155
ъ	-10.1157
▁усилия	-10.1158
▁театр	-10.1158
▁плат	-10.116
▁шоу	-10.1162
ющихся	-10.1167
▁ассоциации	-10.1168
▁напоминает	-10.1168
▁письмо	-10.1168
▁иначе	-10.1168
at	-10.117
▁скончался	-10.1172
При	-10.1172
сан	-10.1172
шие	-10.1178
▁списка	-10.1185
▁материалы	-10.1189
▁занимал	-10.1193
▁коллег	-10.1194
▁форме	-10.1194
▁инфляции	-10.1201
▁подготовке	-10.1201
▁полицию	-10.1201
▁ждет	-10.1202
пас	-10.1209
▁Кто	-10.1211
▁закрыт	-10.1215
▁массовы	-10.1222
Если	-10.1223
▁улицы	-10.1225
▁показали	-10.1227
тин	-10.1232
▁другого	-10.1236
тре	-10.124
▁оборот	-10.1242
овского	-10.1243
▁десяти	-10.1243
▁Китае	-10.1246
▁каким	-10.1246
▁Эксперты	-10.1254
▁осужден	-10.1256
▁влияние	-10.1261
▁бар	-10.1262
▁Пре	-10.1269
▁теракт	-10.1278
▁Му	-10.1281
▁трудно	-10.1291
▁украинско	-10.1293
▁Татьяна	-10.1294
▁любим	-10.1294
ске	-10.1294
▁друга	-10.1301
▁многочисленны	-10.1303
▁коррупции	-10.1303
▁выступает	-10.1307
дал	-10.1311
▁квартал	-10.1313
рин	-10.1318
▁института	-10.1318
▁Ирина	-10.1323
рус	-10.1326
мент	-10.1326
ic	-10.1331
▁долга	-10.1332
▁картины	-10.1335
▁Киева	-10.1336
▁документа	-10.1337
▁подобные	-10.1342
▁Центра	-10.1342
▁вошли	-10.1344
▁считаю	-10.1346
мол	-10.1348
▁новом	-10.1351
▁команде	-10.1351
ирования	-10.1351
▁раздел	-10.1357
▁боевики	-10.1359
▁итоги	-10.136
▁получат	-10.1362
▁знает	-10.1363
вание	-10.1364
▁множество	-10.1368
▁финансирование	-10.1372
▁означает	-10.1372
▁региональных	-10.1374
▁Евросоюза	-10.1375
▁груз	-10.1376
▁приняты	-10.1377
▁непосредственно	-10.1379
▁подтвердили	-10.1381
▁совершил	-10.1381
▁аль	-10.1384
▁бр	-10.1386
▁поставки	-10.1386
▁ущерб	-10.1388
▁городах	-10.1399
▁планы	-10.1405
▁появится	-10.1407
▁Вечерни	-10.1413
▁сервис	-10.1413
▁кг	-10.1414
бой	-10.1415
▁скоро	-10.143
бить	-10.1434
▁бед	-10.1434
еш	-10.144
▁официальном	-10.144
▁Белоруссии	-10.1441
▁фракции	-10.1441
▁семье	-10.1443
▁проходят	-10.1444
▁источников	-10.1456
▁Петра	-10.1456
▁изменить	-10.1459
▁тела	-10.1471
▁солдат	-10.1476
▁участков	-10.1476
▁предприятие	-10.1476
▁индекс	-10.148
▁спроса	-10.148
рак	-10.1482
кина	-10.1482
▁международным	-10.1485
▁курса	-10.1487
▁увеличение	-10.1491
▁высказал	-10.1493
▁угрозы	-10.1493
лова	-10.1501
ed	-10.1502
бли	-10.1503
▁поиск	-10.1505
▁показать	-10.1506
▁камер	-10.151
▁ОПЕК	-10.1511
▁полицейские	-10.1511
15	-10.1522
▁офис	-10.1525
▁главной	-10.153
▁утра	-10.1532
более	-10.1536
▁положения	-10.1537
▁ан	-10.1544
▁рабочих	-10.1546
▁девять	-10.1549
▁2020	-10.155
▁помощник	-10.1554
мимо	-10.1556
▁ВВС	-10.1558
▁Аль	-10.1559
▁Париже	-10.1563
▁типа	-10.1567
▁передачи	-10.1569
▁связанны	-10.1575
7%	-10.1577
▁заместителя	-10.1581
▁компанией	-10.1581
▁нападения	-10.1581
▁защите	-10.1581
ww	-10.1582
▁остались	-10.1583
пут	-10.1584
нин	-10.1586
▁пункта	-10.1588
бил	-10.1588
гре	-10.1589
▁действие	-10.1594
лик	-10.1595
▁писал	-10.16
▁самолетов	-10.1605
▁занял	-10.1605
el	-10.1606
▁32	-10.1609
Про	-10.1614
▁буквально	-10.1616
▁появился	-10.1617
▁американский	-10.1617
▁Евгения	-10.1622
▁ж	-10.1624
▁Федеральн	-10.1624
▁избирательно	-10.1627
▁пришел	-10.1632
▁представляет	-10.1634
▁нему	-10.1639
▁принят	-10.164
▁власть	-10.164
Ма	-10.165
▁трое	-10.1657
▁населенны	-10.166
▁знают	-10.1663
ia	-10.1664
вших	-10.1672
близи	-10.1675
ались	-10.1675
▁полном	-10.1676
▁готова	-10.1678
▁коллеги	-10.168
ание	-10.1685
конференции	-10.1687
▁новая	-10.1688
▁водителя	-10.1689
,5%	-10.1694
▁городского	-10.1698
▁Валерий	-10.1703
▁последствия	-10.1704
ата	-10.1708
▁производителей	-10.1709
▁продаже	-10.1711
▁заявлял	-10.1714
▁устройства	-10.1714
▁Полиция	-10.1722
▁материалов	-10.1724
▁подобных	-10.1728
▁сотрудничество	-10.173
▁оборудования	-10.1731
▁коп	-10.1733
▁введен	-10.1735
▁сын	-10.1735
▁неизвестно	-10.1758
▁полицейских	-10.1758
▁возраста	-10.1762
иц	-10.1768
▁группу	-10.1772
▁ла	-10.1773
▁каждой	-10.1777
бол	-10.1777
▁Лондоне	-10.1778
▁символ	-10.179
▁мяч	-10.179
▁выпуск	-10.1793
]	-10.1794
▁предусматривает	-10.1794
▁идти	-10.1794
▁2007	-10.1799
▁назначения	-10.1801
▁содержание	-10.1802
▁пострадал	-10.1803
▁встреч	-10.1807
бле	-10.181
▁такую	-10.1816
▁50%	-10.1817
%.	-10.182
Москва	-10.1821
шим	-10.1826
▁фигур	-10.1826
▁Соединенны	-10.183
▁профессор	-10.183
▁бороться	-10.183
▁внимания	-10.183
▁недвижимости	-10.183
▁диалог	-10.1832
▁10%	-10.1835
▁квартир	-10.1835
▁обязательства	-10.1835
▁говорили	-10.1838
▁обратился	-10.1842
▁оборудование	-10.1845
▁предлагают	-10.1847
▁плен	-10.1847
▁боя	-10.185
▁грозит	-10.1853
▁всеми	-10.1853
▁административны	-10.1853
▁школе	-10.1855
▁Представител	-10.1855
пы	-10.1855
люб	-10.1857
▁терактов	-10.1858
▁делают	-10.1859
ита	-10.1865
▁Group	-10.1866
▁поколения	-10.1866
▁поправки	-10.1866
▁тело	-10.1871
▁Нет	-10.1879
▁прекращения	-10.1879
▁язык	-10.188
ять	-10.1886
▁Олимпийских	-10.1889
вой	-10.189
▁задержаны	-10.1894
мир	-10.1895
ch	-10.1895
▁стол	-10.1895
▁источника	-10.1896
луч	-10.1901
▁полномочий	-10.1902
▁требований	-10.1902
▁благо	-10.1905
руд	-10.1907
кий	-10.1909
▁долги	-10.1916
▁визит	-10.1917
▁автомобили	-10.192
вяз	-10.1924
▁средне	-10.1926
станов	-10.1926
▁Евро	-10.1929
▁Барак	-10.1929
▁таком	-10.1931
▁Перед	-10.1935
мон	-10.1937
▁прокуратура	-10.1939
▁зале	-10.1939
дон	-10.1943
▁Решение	-10.1949
▁ключевы	-10.1952
▁зоны	-10.1957
▁видно	-10.1958
▁купить	-10.1959
▁никакого	-10.1961
▁механизм	-10.1969
▁двор	-10.1969
▁вес	-10.1973
▁праздник	-10.1973
▁соревнований	-10.1975
ce	-10.1975
▁[	-10.1977
▁отказаться	-10.1977
▁дальнейшем	-10.1981
▁регион	-10.1983
▁недо	-10.1986
нцев	-10.1987
ление	-10.1989
▁играть	-10.1991
дали	-10.1994
▁футбольно	-10.1996
et	-10.2
▁органах	-10.2001
▁сына	-10.2002
▁посла	-10.2003
▁тему	-10.2007
▁Меркель	-10.2012
▁очевидно	-10.2012
▁Европу	-10.2012
▁принадлежит	-10.2013
▁молодых	-10.2017
▁большим	-10.2022
▁считается	-10.2025
▁очков	-10.2029
▁пункт	-10.2032
▁категории	-10.2033
st	-10.2039
▁класс	-10.2044
▁протеста	-10.2045
ирование	-10.2052
зер	-10.2054
▁тест	-10.2059
чные	-10.2065
шка	-10.2068
▁намерены	-10.2079
▁кредитов	-10.2079
▁Им	-10.2081
▁продолжается	-10.2081
▁рейтинг	-10.2085
▁военнослужащих	-10.2085
▁целях	-10.2086
енной	-10.2091
▁вышли	-10.2091
▁АО	-10.2095
▁вооруженных	-10.2096
▁избежать	-10.2097
цеп	-10.21
▁Ти	-10.2105
эй	-10.2112
▁увидеть	-10.2122
▁Можно	-10.2123
анс	-10.2128
▁семья	-10.2134
Об	-10.2135
илл	-10.2137
▁российско	-10.214
▁подписан	-10.2142
▁сенатор	-10.2145
▁Ги	-10.2147
стей	-10.2148
▁Леонид	-10.2149
▁дали	-10.2149
▁вклад	-10.215
▁Греции	-10.216
▁повышения	-10.2161
▁заявлении	-10.2161
▁восьми	-10.2162
зин	-10.2169
Динамо	-10.2175
▁опрос	-10.2177
ической	-10.2178
▁оценкам	-10.2179
60	-10.2181
банка	-10.2183
▁определенны	-10.2184
▁компанию	-10.2197
▁советник	-10.22
▁Такие	-10.2204
пор	-10.2206
▁создании	-10.2206
▁бесплатно	-10.2206
▁снизить	-10.2207
цу	-10.2207
▁юго	-10.2219
ta	-10.2223
▁пытают	-10.2224
Спартак	-10.2225
▁налог	-10.2225
▁продукты	-10.2228
▁зарплаты	-10.2228
▁вероятно	-10.2232
▁второе	-10.2235
вест	-10.2237
вания	-10.224
▁сокращение	-10.2243
дор	-10.2244
▁недостаточно	-10.2245
▁врач	-10.2245
▁Вашингтон	-10.2247
▁любом	-10.2249
▁падение	-10.2252
▁центрально	-10.2252
щен	-10.2254
▁политик	-10.2255
▁штат	-10.2258
▁баз	-10.227
▁иногда	-10.2272
▁останется	-10.2272
▁различные	-10.2275
▁назван	-10.2277
▁Ме	-10.228
▁бо	-10.2281
▁55	-10.2291
▁Ис	-10.2291
▁проводится	-10.2292
ведении	-10.2295
▁обратно	-10.2299
▁инженер	-10.2308
луж	-10.2308
▁оста	-10.2308
▁подразделения	-10.231
▁уверены	-10.2312
▁Чер	-10.2318
▁Некоторые	-10.2318
▁искусства	-10.2318
▁Союза	-10.2319
▁взял	-10.2322
ена	-10.2329
▁попросил	-10.2331
чик	-10.2333
▁Следственно	-10.2334
▁продажу	-10.2337
▁машина	-10.2339
▁третий	-10.2339
чки	-10.234
▁премии	-10.2348
▁обязанности	-10.2349
▁осталось	-10.2349
▁станут	-10.2349
▁представить	-10.2353
▁мск	-10.2353
▁документе	-10.2353
▁ваш	-10.2356
▁убежден	-10.2359
▁Денис	-10.236
енный	-10.2367
кал	-10.2367
▁больнице	-10.2368
ень	-10.2368
▁арестован	-10.2378
▁входят	-10.238
▁пытались	-10.2383
▁Далее	-10.2386
▁фестиваля	-10.2388
▁хотели	-10.2395
▁Ин	-10.2397
▁Люди	-10.2397
▁Сотрудники	-10.2403
▁давление	-10.2405
▁постепенно	-10.2406
▁выплат	-10.2413
▁бензин	-10.2416
▁высоко	-10.2416
▁видит	-10.2418
▁россияне	-10.2418
▁прибыл	-10.2421
пан	-10.2423
▁утверждают	-10.2424
▁хватает	-10.2424
▁Пар	-10.2425
▁растет	-10.2426
17	-10.2433
▁началась	-10.2434
▁коллектив	-10.2437
емых	-10.2439
очка	-10.2443
▁рук	-10.2444
говор	-10.2453
▁Кирилл	-10.2455
▁20%	-10.2457
▁пара	-10.2459
▁оценки	-10.2462
▁первая	-10.2462
▁ждут	-10.2463
▁Лиги	-10.2466
▁шанс	-10.247
▁контракта	-10.2475
▁интересно	-10.2476
▁задачи	-10.2478
-2	-10.2483
▁исход	-10.2486
,9%	-10.2487
▁игру	-10.2492
▁интересов	-10.2495
▁Обамы	-10.2501
▁пытается	-10.2503
▁News	-10.2508
▁результатам	-10.2513
ющего	-10.2514
▁пер	-10.2515
▁плюс	-10.2516
▁предмет	-10.2516
▁доллар	-10.2519
▁долю	-10.252
▁форму	-10.2523
▁р	-10.2527
нул	-10.2527
▁инцидента	-10.2529
долго	-10.2532
▁временно	-10.2532
▁приоритет	-10.2533
40	-10.2536
▁(1	-10.2536
▁решать	-10.254
▁идея	-10.2547
совет	-10.2548
▁получать	-10.2549
▁рад	-10.2556
▁одному	-10.2564
▁высокой	-10.2574
▁известный	-10.2576
▁отношению	-10.2578
▁действовать	-10.2578
▁родители	-10.2578
▁$2	-10.2579
▁куб	-10.2579
▁старт	-10.258
▁экран	-10.2581
▁получают	-10.2585
вет	-10.2586
▁сборная	-10.2587
▁график	-10.2588
▁террористически	-10.2588
▁заключил	-10.2592
▁больницы	-10.2597
▁плане	-10.261
▁побед	-10.2613
▁вызов	-10.2613
▁преступлений	-10.2617
▁детям	-10.2617
▁постановление	-10.2617
▁РАН	-10.2618
▁Запад	-10.2618
ирова	-10.2622
▁домой	-10.2624
▁класса	-10.2626
▁нашим	-10.2632
эр	-10.2636
▁38	-10.2643
▁аэропорт	-10.265
▁обязательств	-10.265
▁автобус	-10.2652
▁Позже	-10.2656
▁решению	-10.2657
▁сотни	-10.2658
▁взятки	-10.2663
▁связь	-10.2669
▁ждать	-10.2671
▁Без	-10.2674
▁буду	-10.2677
▁доклад	-10.268
▁промышленн	-10.2681
▁of	-10.2684
▁премьера	-10.2685
▁U	-10.2687
80	-10.2689
стью	-10.2691
▁последнего	-10.2695
▁память	-10.2695
▁наконец	-10.2695
▁публикации	-10.2695
H	-10.2695
▁основании	-10.2701
▁Анна	-10.2712
▁Рос	-10.2719
am	-10.2725
▁предложили	-10.2728
▁футболу	-10.2732
▁пенсионн	-10.2733
рыв	-10.2734
ющую	-10.2734
нского	-10.2734
▁Мутко	-10.2734
▁фотографии	-10.2736
▁остаются	-10.2737
▁указал	-10.2737
кат	-10.2738
▁нужна	-10.2738
▁вечер	-10.274
▁гендиректор	-10.2746
▁сократить	-10.2754
истов	-10.2756
клю	-10.2761
ацией	-10.2765
▁организован	-10.2772
▁торговы	-10.2775
▁Евросоюз	-10.2777
▁стандарт	-10.2777
ьев	-10.2779
▁квартире	-10.2779
▁мор	-10.2779
▁идеи	-10.2782
▁арбитраж	-10.2787
▁обвинил	-10.279
ари	-10.279
вел	-10.2791
▁(2	-10.2794
▁фин	-10.2794
▁Че	-10.2799
▁Международн	-10.2801
▁долгов	-10.2803
▁границу	-10.2812
альный	-10.2812
сла	-10.2814
▁Брюсселе	-10.2814
▁выглядит	-10.2814
▁коалиции	-10.2814
▁сюжет	-10.2814
▁настолько	-10.2815
Ростов	-10.2815
▁единиц	-10.2816
▁спокойно	-10.2819
▁действует	-10.282
▁привлечь	-10.2821
▁Всемирно	-10.2825
▁специалист	-10.2825
▁писали	-10.2827
▁итогов	-10.2828
▁объема	-10.2829
▁опубликовал	-10.2833
▁времена	-10.2837
дель	-10.2843
▁названием	-10.2845
тки	-10.2847
▁вопроса	-10.2852
предпринимателей	-10.2853
▁iPhone	-10.2853
▁версия	-10.2854
▁дважды	-10.2854
▁новостей	-10.2854
▁Председатель	-10.2854
▁гостей	-10.2855
▁меж	-10.2856
▁крупные	-10.2857
▁будущего	-10.2861
▁Стоит	-10.2864
фик	-10.2864
▁артист	-10.2865
24	-10.2867
▁ФАС	-10.2868
▁отношениях	-10.2868
▁имел	-10.2869
орож	-10.2871
▁сто	-10.2871
▁ДНР	-10.2874
▁мои	-10.2876
центр	-10.2878
▁Кр	-10.2879
▁примет	-10.2881
▁нашем	-10.2882
▁визита	-10.2889
▁отчет	-10.2889
ируем	-10.289
▁Захарова	-10.2891
▁поста	-10.2892
▁запас	-10.2893
инэкономразвития	-10.2893
▁людьми	-10.2893
▁одобрил	-10.2893
▁районах	-10.2896
▁явно	-10.2896
▁ТВ	-10.2905
▁самая	-10.2905
▁слов	-10.291
▁причины	-10.2919
z	-10.2922
▁границе	-10.2925
▁обо	-10.2929
▁тепло	-10.2931
▁Мурманска	-10.2931
▁Стоимость	-10.2934
▁маршрут	-10.2936
▁Игоря	-10.2938
▁ИГИЛ	-10.2939
▁подверг	-10.2951
▁бумаг	-10.2951
▁проводит	-10.2952
▁нормально	-10.2952
▁видов	-10.2954
▁вред	-10.2958
гля	-10.2959
▁нынешнего	-10.2974
▁требуют	-10.2974
аж	-10.2975
▁проведении	-10.2983
енд	-10.2986
▁чиновники	-10.2989
▁плана	-10.2989
▁ясно	-10.2991
см	-10.2994
▁платить	-10.2995
▁стро	-10.2996
▁война	-10.2999
▁Бер	-10.3009
▁Потому	-10.3014
первых	-10.3015
▁остался	-10.3017
▁42	-10.3019
▁Донецк	-10.3021
▁собственности	-10.3021
▁Ученые	-10.3026
▁голос	-10.3026
▁баланс	-10.303
▁связаны	-10.3035
▁связанные	-10.3036
▁руках	-10.3037
25	-10.3047
▁бу	-10.3047
▁сосед	-10.3051
U	-10.3053
▁Артем	-10.3055
▁питания	-10.3055
▁публично	-10.3056
▁конец	-10.3059
▁посмотреть	-10.307
▁срока	-10.3072
вшая	-10.3073
▁налога	-10.3081
▁брат	-10.3084
▁безопасность	-10.3085
▁конкурент	-10.3085
▁считать	-10.3086
▁институт	-10.3091
▁поезд	-10.3093
▁операций	-10.3096
▁поставок	-10.3096
▁Times	-10.3096
▁пресечения	-10.3098
▁звезд	-10.3102
▁мнения	-10.3102
▁гражданской	-10.3104
▁опрошенных	-10.3107
лина	-10.3109
▁науки	-10.312
▁успех	-10.3126
ическая	-10.3132
▁частично	-10.3138
▁обвинение	-10.3139
▁свобод	-10.3141
▁протест	-10.3147
▁Гу	-10.3155
уп	-10.3155
▁успел	-10.3156
▁округе	-10.3157
li	-10.3162
овую	-10.3164
▁наоборот	-10.3167
ического	-10.3177
▁окончания	-10.3178
▁молодежи	-10.3178
▁регистрации	-10.3178
▁жив	-10.3181
12	-10.3181
шев	-10.3181
бар	-10.3189
▁образование	-10.3191
рей	-10.3192
▁властями	-10.3197
▁результатов	-10.32
▁интернете	-10.3201
▁обнаружен	-10.3205
▁знаком	-10.3206
▁вперед	-10.3208
70	-10.3208
90	-10.3209
кер	-10.3215
▁обстоятельства	-10.3215
▁эпизод	-10.3219
▁детьми	-10.3219
▁проверка	-10.322
▁большие	-10.322
W	-10.3221
▁процессе	-10.3222
▁участок	-10.3222
▁представлен	-10.3222
▁обращение	-10.3223
▁предложен	-10.3224
ъя	-10.3228
▁Николая	-10.3228
▁лечение	-10.323
▁мо	-10.3232
▁службу	-10.3242
еры	-10.3246
▁школ	-10.3247
▁необходимость	-10.326
чная	-10.326
▁удастся	-10.3261
▁оценке	-10.3261
▁стороне	-10.3263
иф	-10.3271
пред	-10.3277
▁автомат	-10.3279
▁вынужден	-10.328
▁позволил	-10.3281
▁доставлен	-10.3282
▁общественных	-10.3284
▁объясняет	-10.3284
▁предполагает	-10.3284
▁паспорт	-10.3287
▁заключение	-10.3288
▁необходимые	-10.3292
16	-10.3298
▁операцию	-10.3303
▁пытался	-10.3304
▁красно	-10.3308
▁прошедши	-10.331
▁выросли	-10.3312
▁контакт	-10.3317
▁форума	-10.3318
▁похоже	-10.3319
джи	-10.3324
,2%	-10.3326
▁кадров	-10.3327
печат	-10.3328
▁попасть	-10.3329
нт	-10.333
▁немало	-10.3333
бл	-10.3334
▁Государственн	-10.3336
Петербурга	-10.3338
ался	-10.3338
▁объекты	-10.3339
▁книги	-10.3342
▁Аравии	-10.3344
▁дочь	-10.3345
▁Светлана	-10.3345
▁уйти	-10.3345
▁идею	-10.3346
▁фильме	-10.3347
▁роман	-10.3349
▁дороге	-10.3349
▁могло	-10.3355
▁закону	-10.3359
▁лес	-10.3359
+	-10.3364
▁треть	-10.3368
▁Мак	-10.3368
▁правления	-10.3371
стар	-10.3373
бот	-10.3376
▁сад	-10.3383
▁житель	-10.339
11	-10.3391
▁искать	-10.3394
lo	-10.3396
▁разработан	-10.3396
▁пал	-10.3399
▁пару	-10.3402
ово	-10.3403
рет	-10.3408
Интер	-10.341
▁акция	-10.341
▁будущее	-10.3415
ана	-10.3417
ант	-10.342
▁Спорт	-10.3421
▁температура	-10.3421
▁жалоб	-10.3426
▁Чечни	-10.3429
▁благотворительн	-10.3429
▁суток	-10.3429
▁американские	-10.343
▁полной	-10.343
▁врачей	-10.3436
ован	-10.3445
▁экипажа	-10.3445
▁сказали	-10.3446
▁обеспечение	-10.3448
▁поддерживает	-10.3449
▁Востока	-10.345
кла	-10.3451
▁площадь	-10.3459
▁канал	-10.3461
▁страхов	-10.3461
▁воздуха	-10.3467
▁0	-10.3469
▁здании	-10.3471
▁Может	-10.3471
▁вскоре	-10.3471
▁обращения	-10.3472
кая	-10.3472
▁канала	-10.3473
▁вышла	-10.3474
▁техника	-10.3478
▁Ба	-10.3479
▁нашу	-10.348
▁$3	-10.3481
так	-10.3482
льд	-10.3482
▁600	-10.3487
▁северо	-10.3488
▁областной	-10.349
▁профессиональны	-10.349
▁слово	-10.3496
шки	-10.3497
▁собак	-10.3497
▁вкус	-10.3503
▁участка	-10.3506
град	-10.3507
▁достиг	-10.3508
▁понятно	-10.3508
▁вину	-10.351
▁серьезные	-10.3514
Роснефть	-10.3514
▁ученых	-10.3514
▁наличие	-10.3514
▁церкви	-10.3518
▁вод	-10.3525
▁Илья	-10.3526
▁видим	-10.3528
▁мировых	-10.3536
▁получает	-10.3539
▁посетил	-10.3545
ило	-10.3546
▁живет	-10.3552
▁парк	-10.3556
▁Турцию	-10.3557
▁российскими	-10.3557
▁стен	-10.3557
▁Общество	-10.3557
▁Кадыров	-10.3562
▁Олимпиаде	-10.3565
леп	-10.3566
▁120	-10.3566
▁крови	-10.3569
▁партнер	-10.3572
▁представителями	-10.3574
▁флаг	-10.3577
▁Ст	-10.3577
▁четко	-10.3583
▁поддержал	-10.3585
▁Гал	-10.3589
чук	-10.3592
нием	-10.3592
▁финансовой	-10.3593
▁лицо	-10.3594
▁желание	-10.3595
▁попали	-10.3598
▁топлива	-10.3599
▁Бен	-10.3599
▁Азии	-10.3599
▁спас	-10.36
▁состоялась	-10.3601
▁мод	-10.3602
▁опер	-10.3602
кинуть	-10.3603
▁аппарата	-10.3603
▁десятки	-10.3603
▁протокол	-10.3605
▁явля	-10.3605
▁процент	-10.3607
▁экономика	-10.3611
аков	-10.3615
▁+	-10.3618
▁какое	-10.362
▁властям	-10.3622
▁Ча	-10.3625
▁состоит	-10.3626
▁планах	-10.3628
▁опубликован	-10.3632
инского	-10.3632
▁Бур	-10.3633
лит	-10.3635
эт	-10.3638
ску	-10.364
жил	-10.3642
▁гонки	-10.3642
▁значение	-10.3643
▁утвержден	-10.3652
▁Гол	-10.3652
▁Го	-10.3653
▁космическо	-10.3659
▁фронт	-10.3659
▁Главный	-10.3661
▁орган	-10.3662
28	-10.3668
▁голов	-10.3668
ывать	-10.3668
▁2,5	-10.3679
▁отдельных	-10.368
Известия	-10.3683
▁Бразилии	-10.3686
▁борьбу	-10.3686
▁федеральных	-10.3686
▁некоторо	-10.3686
▁признать	-10.3686
▁обсуждения	-10.3686
▁гол	-10.3688
▁Эр	-10.3689
▁готовности	-10.369
▁устройство	-10.3692
▁другое	-10.3697
▁своему	-10.3697
рис	-10.37
▁Мор	-10.3701
ично	-10.3702
Дону	-10.3705
▁сведения	-10.3706
▁фондов	-10.3706
скими	-10.3708
▁журналисты	-10.3709
▁сделан	-10.371
▁Газета	-10.3711
ланд	-10.3712
▁общество	-10.3716
▁Екатерина	-10.372
▁мэра	-10.3721
▁конкретны	-10.3724
▁Кремле	-10.3724
▁избирательны	-10.3725
▁предоставить	-10.373
▁Национальн	-10.373
аты	-10.3731
▁спикер	-10.3732
▁Московского	-10.3733
▁взят	-10.3733
▁бомб	-10.3733
▁участник	-10.374
тел	-10.374
сер	-10.3744
▁сообщило	-10.3751
▁реформ	-10.3754
▁приказ	-10.3762
▁качество	-10.3763
▁Центр	-10.3764
ведение	-10.3769
▁внесен	-10.3772
▁баррелей	-10.3773
▁возглавил	-10.3773
▁девушка	-10.3773
▁попытка	-10.3773
▁последним	-10.3773
▁полагают	-10.3773
▁быстрее	-10.3773
▁доли	-10.3773
▁дополнительных	-10.3774
▁бирже	-10.3776
▁энергетики	-10.3776
▁финансовые	-10.3786
ишь	-10.3793
ющей	-10.3801
▁борт	-10.3802
вшие	-10.3803
▁пыта	-10.3808
▁строго	-10.3814
▁приняла	-10.3814
▁федеральном	-10.3815
▁Два	-10.3817
▁украинские	-10.3817
35	-10.382
▁250	-10.382
▁тр	-10.3825
▁Проект	-10.3826
▁третьем	-10.3832
▁дефицит	-10.3833
▁способны	-10.3837
нской	-10.3838
зон	-10.384
▁официального	-10.3843
▁гражданин	-10.3845
▁позиция	-10.3847
▁WADA	-10.385
▁столичн	-10.3851
▁Люб	-10.3853
▁Brent	-10.3861
▁Индии	-10.3861
▁Польши	-10.3861
▁полгода	-10.3861
▁электронн	-10.3862
▁вызывает	-10.3864
проб	-10.3865
▁состоялся	-10.3868
▁ребята	-10.3872
▁37	-10.3872
▁среднего	-10.3901
▁объявили	-10.3903
▁зампред	-10.3905
▁неожиданно	-10.3905
▁испытания	-10.3906
▁состоянию	-10.3906
▁заверил	-10.3907
эл	-10.3909
▁приведет	-10.391
лат	-10.3914
▁судом	-10.392
▁рано	-10.392
Ба	-10.3928
▁заключен	-10.3929
▁заболевания	-10.3931
остью	-10.3935
▁мост	-10.3938
енных	-10.3938
▁30%	-10.3944
▁II	-10.3946
▁Петербурге	-10.3948
▁ситуацией	-10.3949
▁письма	-10.3949
Со	-10.3956
▁военный	-10.396
▁флота	-10.3964
▁выпуска	-10.3968
▁Мурманской	-10.3968
сс	-10.3979
▁Вооруженны	-10.3979
▁прекрасно	-10.3989
ющийся	-10.3989
▁75	-10.399
▁машину	-10.3991
▁Чу	-10.3992
енная	-10.3994
▁администрация	-10.3994
▁пенсии	-10.3994
▁превышает	-10.3994
▁поручил	-10.3994
▁полтора	-10.3994
▁наказания	-10.3995
▁льгот	-10.3995
▁основные	-10.3995
▁пояснили	-10.3999
▁требованиям	-10.4
▁городских	-10.4002
▁начались	-10.4004
▁задач	-10.4007
ad	-10.4015
▁каждом	-10.4016
▁мать	-10.4019
▁Фа	-10.4026
▁экономических	-10.4031
▁въезд	-10.4036
▁зрителей	-10.4039
▁СНГ	-10.4039
▁ЖКХ	-10.4039
▁решении	-10.4041
▁запланирован	-10.4042
сси	-10.4043
▁искусств	-10.4044
▁виду	-10.4045
▁сайта	-10.4046
▁текущи	-10.4047
▁чрезвычайно	-10.4049
щей	-10.4052
▁вроде	-10.4055
▁обсудили	-10.4058
▁небольшой	-10.4059
пом	-10.406
▁сотрудниками	-10.4068
▁главу	-10.4073
▁травмы	-10.4073
▁65	-10.4079
▁некоторым	-10.4084
▁нынешнем	-10.4084
▁потребителей	-10.4084
▁больших	-10.4084
▁(19	-10.4085
альные	-10.4085
▁поля	-10.4087
▁золото	-10.4087
▁грузов	-10.4091
бит	-10.4091
▁обратиться	-10.4092
▁градусов	-10.4093
▁политического	-10.4096
▁начнется	-10.41
▁национальн	-10.4101
нц	-10.4101
▁показывает	-10.4105
▁моей	-10.4116
▁предлагается	-10.4117
▁Шар	-10.4119
▁мм	-10.4123
▁недель	-10.4123
▁представил	-10.4125
▁Асада	-10.4127
▁приватизации	-10.4129
▁соглашений	-10.4129
▁рейтинге	-10.4129
▁Депутат	-10.4132
▁продолжил	-10.4132
овое	-10.4133
альных	-10.4134
▁основания	-10.4136
▁сер	-10.4141
▁48	-10.4142
коль	-10.4146
▁заметно	-10.4147
▁гости	-10.4153
▁террористическ	-10.4156
руч	-10.4158
▁титул	-10.4159
▁прокат	-10.4159
te	-10.4164
▁Египта	-10.4175
▁списке	-10.4175
▁Победы	-10.4175
▁Благодар	-10.4175
▁российское	-10.4175
▁Банка	-10.4177
▁юридическо	-10.4179
▁аналитик	-10.4182
▁получени	-10.4182
▁поддерживать	-10.4183
▁уменьш	-10.4186
▁Международны	-10.4188
▁Востоке	-10.4191
▁ресурсов	-10.4196
▁медицинской	-10.4199
▁митинг	-10.4202
▁прост	-10.4204
▁счету	-10.4207
▁проекте	-10.4208
▁продолжать	-10.421
▁расти	-10.4214
шел	-10.4217
▁лицензии	-10.422
▁потери	-10.4222
▁Шу	-10.4222
▁далее	-10.4222
▁мальчик	-10.4223
есть	-10.4224
▁открытия	-10.4224
▁зло	-10.423
▁Нам	-10.4233
▁вероятность	-10.4233
▁ведомств	-10.4236
▁лидером	-10.4237
телем	-10.4237
▁студент	-10.4242
▁бур	-10.4242
▁атаки	-10.4247
ающие	-10.4249
23	-10.425
транс	-10.4251
▁каза	-10.4251
▁секретарь	-10.4252
парк	-10.4253
▁Потом	-10.4254
▁опроверг	-10.4254
ходит	-10.4257
▁законопроекта	-10.4257
▁тренера	-10.4261
▁открыто	-10.4261
▁выполнять	-10.4263
▁Испании	-10.4266
▁КНР	-10.4266
▁профессионально	-10.4267
▁голосование	-10.4268
▁минуты	-10.4271
▁экономику	-10.4274
▁инвестиционно	-10.4275
▁Думаю	-10.4276
▁бюро	-10.4277
инский	-10.4278
▁нормы	-10.4279
ителей	-10.4293
▁проезд	-10.4295
▁дорож	-10.4299
▁поражение	-10.43
▁вдруг	-10.4303
еров	-10.4303
▁34	-10.4305
▁чиновник	-10.4306
▁портал	-10.4306
родной	-10.4307
▁провал	-10.4307
▁Виктора	-10.4309
▁территорий	-10.4312
▁воду	-10.4313
▁Гар	-10.4314
▁отец	-10.4315
▁принятия	-10.4319
все	-10.432
▁Путиным	-10.432
▁штаба	-10.4322
▁Ос	-10.4322
▁снег	-10.4322
▁картин	-10.4324
il	-10.4327
▁современно	-10.4332
▁дают	-10.4336
ально	-10.4336
▁ведут	-10.4338
вает	-10.4341
▁Сбербанк	-10.4344
▁многом	-10.4347
▁имущество	-10.4348
▁смысл	-10.4349
▁столичны	-10.4353
хин	-10.4356
▁крупном	-10.4361
▁дополнительно	-10.4362
▁следственны	-10.4363
▁Тульской	-10.4364
разу	-10.4366
▁ЛДПР	-10.4366
▁япон	-10.437
K	-10.437
▁видел	-10.4372
щихся	-10.4373
se	-10.438
▁позднее	-10.4381
▁МОК	-10.4383
▁сыр	-10.4384
▁прошло	-10.4392
▁ставка	-10.4392
иловые	-10.4397
пар	-10.4399
▁футбол	-10.4403
▁половине	-10.4405
▁разработки	-10.4405
▁лечения	-10.4405
▁музея	-10.4405
▁организацию	-10.4405
▁вынуждены	-10.4406
▁родился	-10.4407
▁войне	-10.4408
▁намерени	-10.441
▁2019	-10.4412
▁мусульман	-10.4417
▁бой	-10.4418
▁достижения	-10.442
▁превысил	-10.4421
▁молодой	-10.4425
,8%	-10.4426
▁Чи	-10.4431
▁46	-10.4432
▁турнир	-10.4434
▁партнеров	-10.4435
▁штата	-10.4435
▁земле	-10.4436
▁устройств	-10.4436
▁Само	-10.4436
вор	-10.4437
▁московски	-10.4439
рел	-10.4441
▁перенос	-10.4444
▁Известно	-10.4447
ПК	-10.4451
▁Америки	-10.4452
▁Инцидент	-10.4452
▁задолженности	-10.4452
▁формирования	-10.4452
▁применения	-10.4453
▁песни	-10.4454
▁проведет	-10.4455
▁прекратить	-10.4457
▁началось	-10.4458
▁научно	-10.4459
ie	-10.4464
▁желез	-10.4469
as	-10.4471
альная	-10.4473
▁карты	-10.448
▁проводят	-10.4485
Справедлив	-10.4489
цам	-10.4493
▁Сирию	-10.4499
▁половины	-10.4499
▁костюм	-10.4499
▁подозреваемых	-10.4499
▁церемонии	-10.4499
▁республике	-10.45
▁бюджетны	-10.4501
▁ЧП	-10.4504
▁тура	-10.4505
▁ныне	-10.4506
▁села	-10.4507
▁Владимиру	-10.4508
▁получение	-10.4509
▁Очень	-10.451
▁площадью	-10.4512
▁Наука	-10.4513
ниц	-10.4514
▁смотреть	-10.4519
▁Фи	-10.4522
гуля	-10.4527
▁метод	-10.4532
▁Хар	-10.4533
▁фирмы	-10.4536
▁Надо	-10.4538
▁университет	-10.4544
▁реформы	-10.4544
▁осенью	-10.4548
▁тяжело	-10.4549
СК	-10.455
▁собран	-10.4551
▁Лев	-10.4553
▁товар	-10.4556
▁границ	-10.4558
ma	-10.4561
▁Владимиром	-10.4563
▁направлены	-10.4567
▁негативно	-10.4568
▁этапа	-10.4569
▁ар	-10.4578
▁соперника	-10.4579
▁авторы	-10.4581
▁причине	-10.4581
▁смерть	-10.4582
▁валюты	-10.4582
▁докладе	-10.4586
ter	-10.4588
бежал	-10.4589
▁введения	-10.459
▁положительно	-10.4593
▁Армении	-10.4593
▁изначально	-10.4593
▁замминистра	-10.4594
▁Мон	-10.4595
▁отделение	-10.4596
▁остальные	-10.4597
▁шансы	-10.4598
▁объявила	-10.4599
▁Юлия	-10.46
▁собираются	-10.4602
▁появилось	-10.4603
▁заключается	-10.4603
рош	-10.4605
пло	-10.4612
▁развива	-10.4614
руб	-10.4618
▁решением	-10.4621
▁районов	-10.4623
▁аукцион	-10.4624
син	-10.4628
▁регламент	-10.4633
▁активы	-10.4633
▁подозрени	-10.4634
ара	-10.4636
▁Саакашвили	-10.4641
▁армия	-10.4641
▁база	-10.465
▁мирового	-10.4652
▁начина	-10.4653
▁Анатолий	-10.4653
▁сектора	-10.4657
щая	-10.466
▁основным	-10.466
предел	-10.4661
▁Бе	-10.4665
▁третье	-10.4667
▁голоса	-10.4672
план	-10.4676
▁снять	-10.468
▁предварительно	-10.4681
▁победа	-10.4681
▁День	-10.4685
ицы	-10.4687
▁добр	-10.4688
▁Официальны	-10.4689
▁печати	-10.4689
▁лидеры	-10.469
▁доказательств	-10.4691
▁Олимпиады	-10.4692
▁боль	-10.4693
▁Мурманске	-10.4693
▁технологическ	-10.4694
▁Ростовской	-10.4694
▁заранее	-10.4695
▁минуте	-10.4696
нные	-10.4697
▁храм	-10.4698
▁намерена	-10.4699
город	-10.4706
▁национального	-10.4709
▁Государственно	-10.4709
▁Бел	-10.4712
бед	-10.4712
мп	-10.4713
▁рубежом	-10.4714
▁объеме	-10.4717
▁полномочия	-10.4719
▁начинает	-10.4724
▁Или	-10.4736
▁трагедии	-10.4737
▁помогает	-10.4738
▁жилье	-10.4738
▁установлено	-10.474
ниж	-10.474
▁лекарств	-10.4742
родного	-10.4743
▁достигнут	-10.4743
▁земель	-10.4743
▁судов	-10.4743
уль	-10.4746
▁фактор	-10.4746
▁смогла	-10.4746
▁живут	-10.4747
▁транспортных	-10.4751
▁ВКС	-10.4754
26	-10.4755
▁поступило	-10.4759
▁сектор	-10.4761
▁угрозу	-10.4762
мена	-10.4763
▁$4	-10.4767
▁гражданам	-10.4773
▁богат	-10.4777
▁39	-10.4779
хан	-10.4781
▁ран	-10.4783
▁продукцию	-10.4785
▁нападение	-10.4785
▁руководителей	-10.4785
▁рубрике	-10.4785
▁инвестиционны	-10.4788
▁министерство	-10.479
▁информационн	-10.4791
▁политолог	-10.4792
▁Ху	-10.4793
▁судья	-10.4795
▁Вопрос	-10.4795
пел	-10.4795
▁800	-10.4801
▁Лидер	-10.4803
▁силами	-10.4804
▁Три	-10.4807
ура	-10.4812
▁Игр	-10.4813
▁Мат	-10.4813
▁регулятор	-10.4818
ические	-10.4822
дела	-10.4823
тек	-10.4825
▁объекта	-10.4828
▁штате	-10.4832
стран	-10.4833
▁комментариев	-10.4834
▁транзит	-10.4834
▁договорились	-10.4835
▁помещения	-10.4836
▁соцсети	-10.4836
▁поддержать	-10.4841
▁Джа	-10.4843
▁бизнесмен	-10.4846
иан	-10.4849
▁объект	-10.485
ительно	-10.4853
▁Зато	-10.4853
▁Год	-10.4854
▁препаратов	-10.4855
гран	-10.4855
▁госпитализирова	-10.4857
▁47	-10.4864
ющее	-10.4864
▁привело	-10.4866
▁бывает	-10.4866
▁Перв	-10.4874
смотр	-10.4875
▁Али	-10.4878
ностью	-10.4882
▁Экономика	-10.4882
▁соответствует	-10.4882
▁управлении	-10.4882
причастности	-10.4883
▁украинский	-10.4883
▁голову	-10.4883
▁Юрия	-10.4887
▁квартиру	-10.4895
▁решила	-10.4896
кредит	-10.4897
▁смысле	-10.4902
Мо	-10.4905
▁Казахстана	-10.4911
▁Рад	-10.4913
▁начнет	-10.4913
▁ведется	-10.4913
▁ядерно	-10.4922
▁участии	-10.4923
▁подготовлен	-10.4924
▁обл	-10.493
▁тема	-10.4931
▁информацией	-10.4931
▁хотим	-10.4931
Яндекс	-10.4931
▁ведущих	-10.4931
▁the	-10.4932
me	-10.4933
▁пусть	-10.4937
▁Юр	-10.4938
▁глобально	-10.494
▁Co	-10.4941
нец	-10.4941
▁выиграл	-10.4942
▁$	-10.4944
▁установили	-10.4948
игр	-10.4959
▁пояс	-10.4962
▁Ван	-10.4962
▁спутник	-10.4966
▁счета	-10.4968
▁став	-10.497
чную	-10.4971
▁массово	-10.4972
▁рок	-10.4972
▁Путину	-10.4978
▁взаимодействия	-10.4981
▁произойдет	-10.4981
▁показатели	-10.4981
▁расход	-10.4981
▁защиту	-10.4981
▁начался	-10.4982
▁продать	-10.4986
▁судебно	-10.4992
▁называется	-10.4994
▁ислам	-10.4994
▁эффективно	-10.4995
▁признали	-10.5004
▁взяли	-10.5012
▁требуется	-10.5013
▁девяти	-10.5016
▁спортивно	-10.5017
▁контр	-10.5018
ических	-10.5022
▁мотор	-10.5023
▁Турцией	-10.503
▁большинства	-10.503
▁горожан	-10.503
▁традиции	-10.503
▁одержал	-10.503
▁альбом	-10.503
▁Роберт	-10.503
▁пик	-10.5032
▁стоят	-10.5032
▁текущем	-10.5033
ite	-10.5034
▁ставку	-10.5036
Русская	-10.5037
▁склад	-10.5039
▁направление	-10.5044
вшейся	-10.5045
▁поставить	-10.5051
▁вирус	-10.5055
▁возможных	-10.5061
▁оснащен	-10.5067
▁сообщали	-10.5068
▁врачи	-10.5069
лис	-10.507
▁наград	-10.5075
ард	-10.5075
▁охраны	-10.508
▁десятков	-10.5081
стрел	-10.5087
▁исполнения	-10.5087
▁вернулся	-10.5087
▁перспективе	-10.5087
▁особ	-10.5088
18	-10.5089
▁выполнения	-10.5089
ьян	-10.509
▁карьеру	-10.5092
итайте	-10.5092
парт	-10.5094
пт	-10.5095
▁кодекс	-10.5097
Газете	-10.5101
▁войну	-10.5102
▁виновным	-10.5104
чал	-10.5106
▁предназначен	-10.511
▁спортсмен	-10.5113
▁инициативы	-10.5116
▁потребовал	-10.5117
шему	-10.5117
юр	-10.512
▁художник	-10.512
▁незаконно	-10.5121
▁языка	-10.5123
айте	-10.5124
▁организм	-10.5126
ню	-10.5126
▁полета	-10.5126
офф	-10.5127
начала	-10.5128
▁Большинство	-10.513
▁Грузии	-10.513
▁поясняет	-10.513
▁старший	-10.5132
дорожного	-10.5132
▁принимает	-10.5135
первые	-10.5137
▁периода	-10.5137
▁2006	-10.5138
▁Экс	-10.5147
▁завтра	-10.515
▁Мари	-10.5154
▁акционер	-10.5156
▁заработал	-10.5157
▁Ши	-10.5157
▁Улюкаев	-10.5158
▁J	-10.516
▁2000	-10.5161
▁используют	-10.5162
▁холод	-10.5166
▁газете	-10.5175
вели	-10.5177
▁играх	-10.5178
цами	-10.5178
▁договоренности	-10.518
▁редактор	-10.518
▁собственных	-10.518
▁единственный	-10.518
▁завоевал	-10.518
▁ФРГ	-10.5181
▁музей	-10.5181
▁приз	-10.5182
▁выставки	-10.5183
▁Следственны	-10.5184
▁сборную	-10.519
▁водо	-10.5191
▁Ман	-10.5191
▁брон	-10.5194
▁комфорт	-10.5195
дж	-10.5195
▁зарплат	-10.5196
,3%	-10.5196
▁политические	-10.5197
▁ушел	-10.5205
▁открыли	-10.5208
▁Зна	-10.5211
▁ожидает	-10.5213
▁фильмов	-10.5216
▁(3	-10.5217
▁открыть	-10.5221
▁товары	-10.5224
▁кол	-10.5224
▁культур	-10.523
▁оставил	-10.523
▁лож	-10.523
▁экспорта	-10.5231
▁привел	-10.5232
▁показания	-10.5233
▁коммун	-10.5233
▁школу	-10.5235
Да	-10.5239
оф	-10.5241
▁проведен	-10.5242
реш	-10.5244
▁выезд	-10.5247
▁ссыла	-10.5249
▁антидопингово	-10.525
▁замглав	-10.5251
ol	-10.5251
вторых	-10.5255
▁поселке	-10.5259
МК	-10.5262
▁самолеты	-10.5263
▁Сбербанка	-10.5263
▁построить	-10.5266
▁направления	-10.5267
▁острова	-10.5267
тав	-10.5269
▁случайно	-10.5271
шли	-10.5273
▁никакой	-10.5274
▁признался	-10.5276
зо	-10.5279
▁напрямую	-10.5281
▁российскую	-10.5281
▁участки	-10.5281
дает	-10.5282
▁разведки	-10.5285
▁Особенно	-10.5285
▁пят	-10.5287
▁2005	-10.529
▁Великой	-10.5291
▁опять	-10.5292
▁вызван	-10.5294
▁успеха	-10.5294
▁Узбекистана	-10.5298
▁приехал	-10.5299
▁40%	-10.53
▁терроризмом	-10.5302
▁пришла	-10.5307
▁планов	-10.5307
▁развивать	-10.5321
▁спортсмены	-10.5325
бан	-10.5326
юк	-10.5329
▁роди	-10.533
чан	-10.533
▁Матвиенко	-10.5332
▁добычу	-10.5332
▁компенсации	-10.5332
▁сердце	-10.5332
▁вдвое	-10.5333
▁восстановить	-10.5334
▁Кореи	-10.5334
▁детских	-10.5334
▁Следствие	-10.5336
▁скорости	-10.5336
▁Каждый	-10.5337
рок	-10.534
▁широко	-10.5341
▁продукт	-10.5341
om	-10.5344
▁общий	-10.5344
▁поставил	-10.5345
▁зал	-10.5349
▁Род	-10.5352
готов	-10.5357
чным	-10.5358
▁журнала	-10.536
щий	-10.5361
▁Закон	-10.5361
▁Кузнецов	-10.5364
▁третьего	-10.5364
▁определить	-10.5368
евой	-10.5368
▁востоке	-10.5373
▁совершени	-10.5375
▁Директор	-10.5384
▁ОБСЕ	-10.5384
▁приобрел	-10.5384
▁стадии	-10.5384
▁кстати	-10.5384
▁жена	-10.5385
▁проверить	-10.5386
▁Олега	-10.539
▁финансового	-10.539
▁относятся	-10.5391
нять	-10.5391
▁фестиваль	-10.5393
14	-10.5393
▁Гран	-10.5393
▁правительству	-10.5394
▁Дом	-10.5396
▁русского	-10.5398
▁судей	-10.5403
▁цену	-10.5408
▁мера	-10.5409
▁агентству	-10.5412
▁международном	-10.5413
▁рейтинга	-10.5413
▁Коми	-10.5414
▁включен	-10.5415
онов	-10.542
th	-10.5423
▁набор	-10.5427
пин	-10.5428
▁минувше	-10.543
▁поставлен	-10.5432
нар	-10.5432
▁играет	-10.5433
▁участке	-10.5435
▁федеральный	-10.5435
▁технология	-10.5435
▁потенциал	-10.5436
▁разрешения	-10.5438
рек	-10.5439
▁выступление	-10.5441
▁спецслужб	-10.5442
чный	-10.5443
фон	-10.545
▁Какие	-10.5451
▁выходит	-10.5454
▁Красноярск	-10.5455
°	-10.5458
▁разговор	-10.5458
▁актив	-10.5461
▁усилен	-10.5461
▁Российского	-10.5462
▁экипаж	-10.5467
▁Воз	-10.5477
▁Хе	-10.5482
шина	-10.5484
льц	-10.5484
▁страх	-10.5484
▁Гер	-10.5486
▁исполнил	-10.5487
▁строительстве	-10.5487
▁шоссе	-10.5487
▁продавать	-10.5487
▁стратегии	-10.5488
ления	-10.5489
▁находиться	-10.5491
нная	-10.5491
▁ремонта	-10.5497
▁покинул	-10.5499
▁проекту	-10.5505
дра	-10.5507
вшаяся	-10.5507
▁высоким	-10.5508
▁уступил	-10.5508
ица	-10.5515
▁спорт	-10.5522
фф	-10.5524
▁реальн	-10.5534
37	-10.5538
▁отвечает	-10.5539
▁площадке	-10.5539
▁современных	-10.5539
▁Руслан	-10.554
▁исследование	-10.5541
▁моста	-10.5542
▁потенциальны	-10.5543
это	-10.5545
▁Украиной	-10.5548
▁француз	-10.555
▁веществ	-10.5558
ерн	-10.5558
▁глаза	-10.5564
▁посольства	-10.5564
▁дешев	-10.5568
▁местной	-10.5568
▁медицинских	-10.5575
31	-10.5577
▁сделано	-10.5578
▁футболист	-10.5581
▁доктор	-10.5584
▁Главно	-10.5591
▁Бельгии	-10.5592
▁Севастополя	-10.5592
▁сотрудничестве	-10.5592
▁развитии	-10.5592
▁лучшим	-10.5592
▁Дэвид	-10.5592
▁пойдет	-10.5592
▁Пред	-10.5593
▁Самолет	-10.5593
▁рассмотрения	-10.5594
▁влияния	-10.5596
▁медицинско	-10.5598
▁2004	-10.5599
▁олимпийски	-10.5599
▁появление	-10.56
▁запрещена	-10.5601
▁открыт	-10.5603
маш	-10.5604
▁весной	-10.5605
▁нефтян	-10.5605
▁поведение	-10.5605
▁составлял	-10.561
▁сказано	-10.5611
▁прос	-10.5612
▁правительством	-10.5615
▁селе	-10.5617
▁Комитета	-10.5623
нта	-10.5626
анд	-10.5627
▁Валентина	-10.5627
▁обстрел	-10.5632
▁Кир	-10.5633
нюю	-10.5637
еле	-10.5638
▁Руководител	-10.5643
▁Документ	-10.5644
▁немедленно	-10.5644
▁Госдуме	-10.5644
▁водителей	-10.5645
▁Пер	-10.5645
▁отца	-10.5651
нс	-10.5651
▁АТО	-10.5654
▁оставить	-10.5656
▁угрозой	-10.566
▁выступили	-10.566
▁РЖД	-10.566
▁получается	-10.5667
▁управлением	-10.5669
▁режиссера	-10.5669
▁президентских	-10.5671
▁финал	-10.5672
▁чист	-10.5672
▁студентов	-10.5675
щик	-10.5677
▁характера	-10.5684
▁известных	-10.5685
▁полет	-10.5685
тик	-10.5688
▁опроса	-10.5689
▁банке	-10.5689
рик	-10.5689
);	-10.5691
▁вход	-10.5694
▁Роспотребнадзор	-10.5697
▁начинают	-10.5697
▁выйдет	-10.5698
▁представлены	-10.5698
▁изменение	-10.5699
▁безусловно	-10.57
▁зарубежных	-10.5701
▁черт	-10.5703
▁Работа	-10.5705
▁Нужно	-10.5707
реп	-10.5716
яр	-10.5716
носить	-10.5717
,1%	-10.5721
▁минус	-10.5722
буд	-10.5726
▁Хи	-10.573
▁высокий	-10.5733
Йорке	-10.5734
▁инициативу	-10.5737
Реал	-10.5739
шек	-10.5741
▁инициативе	-10.5743
▁матчей	-10.5747
▁большого	-10.575
▁предупредил	-10.575
▁строительству	-10.575
▁хуже	-10.5751
▁продюсер	-10.5758
▁базу	-10.5759
▁продолжить	-10.576
▁бывших	-10.576
▁занимаются	-10.5763
▁мама	-10.5763
цем	-10.5764
▁объемы	-10.5765
▁обязан	-10.5773
▁передал	-10.5775
▁цвета	-10.5777
▁стратегическ	-10.5784
▁уникальн	-10.5787
▁жителям	-10.5789
▁Пе	-10.579
▁внести	-10.5793
нных	-10.5796
▁Первы	-10.5798
прашива	-10.5798
▁продолжа	-10.5798
▁население	-10.5801
▁совместны	-10.5801
▁парка	-10.5804
▁Mercedes	-10.5804
▁WSJ	-10.5804
▁тебя	-10.5804
▁многим	-10.5804
▁областн	-10.5805
▁увеличен	-10.5811
▁медали	-10.5811
▁земля	-10.5813
▁атмосфер	-10.5813
▁целей	-10.5815
▁кот	-10.5818
▁связана	-10.5822
▁журнал	-10.5822
ический	-10.5824
метр	-10.5825
%,	-10.583
Оскар	-10.5833
▁1,2	-10.5834
▁цар	-10.5836
▁игре	-10.5839
▁отдых	-10.5841
нском	-10.5843
▁номера	-10.5844
▁должностны	-10.5848
▁горд	-10.5853
▁здоровье	-10.5854
▁глаз	-10.5855
жан	-10.5855
▁сирийского	-10.5857
▁Адвокат	-10.5858
▁Латвии	-10.5858
▁корабля	-10.5858
▁случаи	-10.5858
▁оценку	-10.5858
▁будто	-10.5858
▁международный	-10.5864
▁финальн	-10.5865
▁создавать	-10.5869
▁элит	-10.587
▁передать	-10.5878
▁авторов	-10.5883
▁видимо	-10.5885
▁Автор	-10.5887
▁Кара	-10.5893
▁Кал	-10.5896
Локомотив	-10.5897
▁фирм	-10.5897
ируется	-10.5899
казать	-10.5903
▁адвоката	-10.5903
▁диск	-10.5904
▁слав	-10.5905
▁Фонд	-10.5907
▁республик	-10.5907
крыл	-10.5908
▁прокурора	-10.5909
▁произошедшего	-10.5912
▁наверное	-10.5912
▁преступление	-10.5912
▁сокращения	-10.5914
▁гражданина	-10.5914
▁запущен	-10.5915
▁порт	-10.5918
▁оказывается	-10.592
как	-10.592
дик	-10.5927
▁бомбардировщик	-10.5928
▁создал	-10.5929
▁выда	-10.593
▁готовится	-10.593
▁реестр	-10.593
▁Вол	-10.5936
▁составили	-10.5939
▁выводу	-10.5949
▁отметив	-10.595
▁мар	-10.5952
▁c	-10.5955
нская	-10.5955
▁внешней	-10.5962
пали	-10.5963
▁ядерны	-10.5964
тол	-10.5964
▁Рады	-10.5964
▁аренду	-10.5966
▁узнать	-10.5966
▁случилось	-10.5966
▁состояния	-10.5966
▁пан	-10.5967
▁окна	-10.5967
▁резерв	-10.5971
ывают	-10.5976
▁лист	-10.5976
Башнефт	-10.598
▁примут	-10.5981
▁оказаться	-10.5983
▁Ду	-10.5983
▁Первая	-10.5986
енного	-10.5988
▁риски	-10.5993
▁инвесторы	-10.5995
▁выбрать	-10.5997
▁создана	-10.5997
▁Бор	-10.5999
▁добавила	-10.6007
▁вертолет	-10.6008
▁органами	-10.6018
мед	-10.602
▁Bloomberg	-10.6021
▁Америке	-10.6021
▁Позднее	-10.6021
▁позволяют	-10.6021
▁Уголовно	-10.6021
▁Число	-10.6021
▁относится	-10.6021
▁обнаружены	-10.6021
▁величин	-10.6022
▁опасности	-10.6023
▁пойти	-10.6024
▁направил	-10.6025
▁шла	-10.6027
▁Союз	-10.6027
▁рассмотрение	-10.6028
▁понимаю	-10.6029
▁регионы	-10.6029
▁страховы	-10.6031
▁вошел	-10.6031
▁предвыборной	-10.6035
▁рассчитывает	-10.6036
▁реально	-10.6037
полит	-10.6038
евич	-10.6039
na	-10.6039
щего	-10.604
▁Европейского	-10.6041
▁пациентов	-10.6042
нок	-10.605
били	-10.6052
▁ворота	-10.6054
▁любовь	-10.6064
зова	-10.6064
▁обвиняют	-10.6067
▁запуска	-10.6072
▁мечта	-10.6072
‐	-10.6075
▁ожидаем	-10.6076
▁любви	-10.6076
▁Соколов	-10.6076
▁собрания	-10.608
▁газов	-10.608
▁похищен	-10.6085
▁руку	-10.6086
нки	-10.6089
▁электронны	-10.6091
▁платы	-10.6091
▁целый	-10.6092
росс	-10.6092
▁работали	-10.6098
иш	-10.6099
▁рыб	-10.6099
▁акт	-10.6101
▁Южно	-10.6105
▁Гри	-10.6106
дя	-10.6106
Та	-10.6108
▁процедуры	-10.611
▁друзья	-10.6113
ti	-10.6114
▁чисто	-10.6121
▁участвовал	-10.6123
▁начиная	-10.6123
▁сообщества	-10.6125
▁рубль	-10.6127
▁экономические	-10.6128
▁Boeing	-10.6131
▁СИЗО	-10.6131
▁заболеваний	-10.6131
▁утвердил	-10.6131
▁единственным	-10.6131
▁покупки	-10.6131
▁лучшие	-10.6131
▁давления	-10.6131
▁следующего	-10.6131
▁супер	-10.6131
▁нравится	-10.6131
▁объединения	-10.6133
▁европейской	-10.6141
▁МВФ	-10.6142
дол	-10.6143
13	-10.6144
▁напротив	-10.6145
нный	-10.6146
▁референдум	-10.6147
▁Ma	-10.6149
рам	-10.6154
▁находя	-10.6154
▁Нескольк	-10.6154
▁перспективы	-10.6154
▁игрока	-10.6159
▁медиа	-10.6159
▁продолжит	-10.6161
▁Тер	-10.6162
▁собрал	-10.6163
▁составить	-10.6163
мут	-10.6167
▁референдума	-10.6169
Рос	-10.6172
▁43	-10.6176
▁проиграл	-10.6179
▁Глав	-10.618
▁доклада	-10.6182
▁Станислав	-10.6186
▁ежедневно	-10.6186
▁оценить	-10.6186
▁сетях	-10.6186
▁знать	-10.6186
▁просит	-10.6189
22	-10.6191
▁дорогу	-10.6193
▁реализацию	-10.6193
▁доверия	-10.6194
▁героя	-10.6197
▁ликвидации	-10.62
▁понимать	-10.6208
▁согласован	-10.621
▁проходить	-10.6211
▁бег	-10.6216
без	-10.6218
▁чуж	-10.6222
▁близ	-10.6224
▁политиков	-10.6227
mo	-10.6229
▁среды	-10.623
стат	-10.623
45	-10.6231
▁Май	-10.6233
▁трассе	-10.6234
▁введение	-10.6236
▁стадиона	-10.6239
вис	-10.6239
▁причина	-10.6241
▁ожидания	-10.6242
▁очереди	-10.6242
▁подозреваемого	-10.6242
▁жилищно	-10.6242
▁Причиной	-10.6242
▁досрочно	-10.6244
▁золота	-10.6245
▁переговорах	-10.6245
ром	-10.6246
▁Губернатор	-10.6247
▁полуострова	-10.6248
▁сред	-10.6249
▁определен	-10.6252
▁исполнение	-10.6252
▁Кам	-10.6254
▁подписали	-10.6254
▁бел	-10.6258
▁отдельны	-10.6267
▁малого	-10.6268
▁заработн	-10.627
▁ужас	-10.627
▁муниципальных	-10.627
▁Тур	-10.6271
▁передаче	-10.6274
▁риска	-10.6274
▁заняла	-10.6274
▁валют	-10.6281
▁знал	-10.6282
-24	-10.6293
лес	-10.6297
▁BMW	-10.6298
▁тюрьмы	-10.6298
▁космос	-10.6298
▁обыграл	-10.6298
▁49	-10.6298
▁хороший	-10.6301
-8	-10.6303
08	-10.6303
▁запретить	-10.6306
▁Такой	-10.6306
▁стартовал	-10.6309
зд	-10.631
▁близких	-10.6312
ледственного	-10.632
▁ролик	-10.6325
Газпрома	-10.6326
дзе	-10.6333
▁ареста	-10.6336
сков	-10.634
▁использованием	-10.6341
▁туризма	-10.6341
▁службе	-10.6342
▁принципе	-10.6343
▁20-	-10.6343
▁человеком	-10.6343
Спорт	-10.6343
яков	-10.6345
▁Северо	-10.6349
▁строить	-10.635
▁YouTube	-10.6355
▁Джордж	-10.6355
▁рассчитан	-10.6355
▁ограничен	-10.6358
▁выросло	-10.6361
шняя	-10.6362
▁человеку	-10.6364
▁Европейски	-10.6366
надзор	-10.6368
▁убит	-10.6372
▁передан	-10.6374
рем	-10.6378
▁Встреча	-10.6379
▁наше	-10.6382
▁добавляет	-10.6383
▁транспортно	-10.6388
▁вступил	-10.6388
акт	-10.6392
▁брать	-10.6393
едва	-10.6398
тика	-10.6398
нести	-10.64
▁Минфина	-10.6404
рова	-10.6411
▁позиций	-10.6412
Манчестер	-10.6412
▁подготовку	-10.6412
▁наличии	-10.6412
▁знаем	-10.6412
Коммерсантъ	-10.6412
▁командой	-10.6413
▁хорошие	-10.6414
▁Чем	-10.642
счет	-10.6422
▁банковской	-10.6422
▁миссии	-10.6427
▁клиент	-10.643
ивший	-10.6433
▁Петербурга	-10.6434
▁имена	-10.6439
▁шок	-10.6442
▁транс	-10.6447
▁женщину	-10.6452
▁месту	-10.6452
▁вида	-10.6453
▁уход	-10.6455
▁Лу	-10.6455
36	-10.6457
щение	-10.6458
дать	-10.646
▁спасти	-10.6461
▁пес	-10.6461
▁стоимостью	-10.6462
▁исходя	-10.6466
▁взяла	-10.6469
▁зданий	-10.6469
▁максимум	-10.6469
▁оплаты	-10.6469
▁организацией	-10.6469
▁пользоваться	-10.6469
▁сердца	-10.6469
▁столкновения	-10.6469
▁утверждал	-10.6469
▁форвард	-10.6469
▁энергии	-10.6469
▁Москвой	-10.6469
zr	-10.647
▁соревнования	-10.6476
▁частных	-10.6477
▁восстановление	-10.6477
▁рисков	-10.6481
▁разрешение	-10.6484
ическое	-10.6487
▁жир	-10.6489
енным	-10.6489
Больш	-10.6489
▁годам	-10.6493
Ленты	-10.6493
щих	-10.6494
▁понимает	-10.6494
▁ката	-10.6495
▁сотрудника	-10.6498
был	-10.6499
▁лег	-10.6499
▁моя	-10.65
От	-10.65
▁проводил	-10.6502
▁обратил	-10.6503
арт	-10.6506
▁севере	-10.6512
▁травм	-10.6514
▁острове	-10.6516
▁уничтожен	-10.6516
▁сумел	-10.652
▁валютны	-10.6524
▁отказа	-10.6525
▁крушения	-10.6526
▁Аравия	-10.6526
ора	-10.6526
▁катастрофы	-10.6527
▁общественной	-10.6527
▁звание	-10.6527
▁сцене	-10.6529
-154	-10.6531
▁западных	-10.6532
▁Треть	-10.6532
▁составляют	-10.6534
▁сервиса	-10.6537
▁получилось	-10.6538
▁какая	-10.6539
▁снос	-10.6539
▁затрат	-10.6542
▁фронта	-10.6543
ющиеся	-10.6544
ca	-10.6545
▁ресурс	-10.6547
▁разрушен	-10.6547
▁поддержали	-10.6554
нен	-10.6554
33	-10.6558
▁ущерба	-10.6558
▁конкурсе	-10.6558
тина	-10.6561
сервис	-10.6562
▁улицах	-10.6564
▁месяцы	-10.6565
▁край	-10.6566
ваться	-10.6568
▁Тре	-10.6571
▁указывает	-10.6575
і	-10.6584
▁впоследствии	-10.6584
▁следователи	-10.6584
▁акцию	-10.6584
▁урегулирования	-10.6585
▁выполнить	-10.6585
▁обратились	-10.6587
▁остальных	-10.6589
▁&	-10.6591
▁функции	-10.6593
▁поездки	-10.6596
▁десятка	-10.6599
▁стимул	-10.6603
ne	-10.6604
▁рейс	-10.6608
▁Урал	-10.6608
▁субъект	-10.6609
▁корпус	-10.6614
нем	-10.6615
▁другая	-10.6619
ковой	-10.662
▁демократ	-10.662
▁5%	-10.6622
▁кодекса	-10.6623
▁Тро	-10.6629
▁машине	-10.6631
▁картина	-10.6634
▁скорость	-10.6634
▁Минэкономики	-10.6642
▁Участники	-10.6642
▁Швеции	-10.6642
▁девочка	-10.6642
▁добавив	-10.6642
▁комментировать	-10.6642
▁попытке	-10.6642
▁наблюдения	-10.6642
▁содержания	-10.6643
пле	-10.6645
▁обсуждение	-10.6646
лок	-10.6646
▁активность	-10.6648
▁мысли	-10.6648
▁принес	-10.6649
▁сериал	-10.6654
▁пространства	-10.6658
▁написала	-10.6658
ял	-10.6659
▁произведен	-10.6665
▁надежду	-10.6665
▁вынес	-10.6666
▁воздушного	-10.6668
потреб	-10.6668
▁освобожден	-10.667
▁детали	-10.6672
▁един	-10.6672
▁зону	-10.6674
▁найден	-10.6674
вшей	-10.6677
▁дизайнер	-10.6685
ейн	-10.6686
▁расчет	-10.6692
бек	-10.6694
▁преимущество	-10.6695
▁оружием	-10.6696
▁судна	-10.67
▁большинстве	-10.6701
▁соответствующие	-10.6701
▁партию	-10.6701
▁откуда	-10.6701
▁портрет	-10.6701
▁возможностей	-10.6702
▁хотелось	-10.6704
▁куп	-10.6705
▁повод	-10.6707
▁размещения	-10.6708
▁Хабаровск	-10.6713
▁Пи	-10.6715
бри	-10.6715
▁законом	-10.6715
▁допустил	-10.6716
шив	-10.6716
▁призван	-10.672
сте	-10.6721
ляет	-10.6722
%)	-10.6724
проект	-10.6725
▁(4	-10.6725
▁пуст	-10.6726
▁космически	-10.6732
▁Джо	-10.6733
▁разве	-10.6733
▁тариф	-10.6737
▁остановить	-10.6742
▁пенсионер	-10.6743
▁снят	-10.6743
▁рынках	-10.6743
▁уточняет	-10.6743
▁атак	-10.6744
▁ребят	-10.6745
▁принимают	-10.6745
кур	-10.6747
лем	-10.6747
▁поселка	-10.6748
чать	-10.6753
▁дорогах	-10.6754
▁обстоятельств	-10.6755
▁центров	-10.6759
▁вода	-10.6759
▁Англии	-10.676
▁алкоголя	-10.676
▁собственные	-10.676
▁последней	-10.676
▁наследия	-10.676
▁значения	-10.676
▁страхования	-10.676
▁сложи	-10.6762
▁выставка	-10.6763
▁остаться	-10.6763
▁пассажир	-10.6765
▁даст	-10.6768
▁каса	-10.677
▁Василий	-10.6772
кую	-10.6772
вала	-10.6773
▁медаль	-10.6775
▁ответить	-10.6775
ly	-10.6779
▁производитель	-10.6779
▁57	-10.6779
▁Эль	-10.678
▁знаменит	-10.678
▁дизайн	-10.6786
▁чьи	-10.679
тка	-10.679
▁занима	-10.6796
Союз	-10.6797
звать	-10.6801
▁вкладов	-10.6803
мана	-10.6804
▁учебно	-10.6806
▁интересах	-10.6807
▁Дн	-10.6809
мея	-10.6812
рим	-10.6812
▁Жан	-10.6815
▁мусор	-10.6815
―	-10.6819
▁болезни	-10.6819
▁девушки	-10.6819
▁Азербайджан	-10.6819
вшим	-10.682
▁Ким	-10.6821
▁платежей	-10.6823
▁фон	-10.6825
06	-10.6831
▁потеря	-10.6832
▁полученных	-10.6832
▁разрыв	-10.6833
▁огромн	-10.6841
метров	-10.6843
ходить	-10.6844
овали	-10.6844
▁третьей	-10.6846
▁официальной	-10.6848
▁открытие	-10.6852
▁электронной	-10.6853
▁инициатив	-10.6857
▁Сал	-10.686
жн	-10.686
▁700	-10.686
▁потерял	-10.6865
▁возник	-10.6866
щенко	-10.6869
▁Белого	-10.6872
Ре	-10.6876
▁академии	-10.6878
▁друзей	-10.6878
▁инвестиции	-10.6878
▁конкуренции	-10.6878
▁одежды	-10.6878
▁спирт	-10.6879
▁топливо	-10.6879
▁надеется	-10.6879
▁спецслужбы	-10.6879
▁нужен	-10.6879
▁отставке	-10.688
▁повысить	-10.688
▁удален	-10.688
▁пенсионны	-10.688
Бел	-10.6881
▁Азербайджана	-10.6882
▁юн	-10.6882
▁банковских	-10.6885
▁Австралии	-10.6886
▁ВС	-10.6887
▁родственников	-10.6887
▁собрать	-10.6887
▁увеличения	-10.6888
▁анализа	-10.6889
▁форм	-10.6895
▁планеты	-10.6896
▁тщательно	-10.6898
▁кабинет	-10.6901
Бо	-10.6903
▁дипломат	-10.6906
▁специальные	-10.6907
▁Николаев	-10.6908
▁молод	-10.6908
жат	-10.6909
▁видели	-10.6916
ическую	-10.6917
охран	-10.6919
▁Ирака	-10.692
▁рассматривает	-10.692
▁группой	-10.6927
▁3,5	-10.6931
изация	-10.6932
▁кафе	-10.6936
▁руководству	-10.6938
▁недалеко	-10.6938
▁разобраться	-10.6938
лева	-10.6943
▁клиник	-10.6943
▁созыва	-10.6944
енную	-10.6944
▁Член	-10.6945
▁Специалисты	-10.6946
de	-10.6947
бель	-10.6948
ап	-10.6952
▁Зам	-10.6956
▁Было	-10.6959
▁спортивных	-10.6964
▁выходные	-10.697
▁социального	-10.6973
чей	-10.6979
ысокопоставленны	-10.6984
▁стратегических	-10.6985
▁практике	-10.6987
▁эксперимент	-10.6988
▁земельны	-10.6991
▁сыграл	-10.6993
АН	-10.6995
енс	-10.6995
щем	-10.6996
▁робот	-10.6996
▁такими	-10.6997
▁прокомментирова	-10.6998
▁борьба	-10.6998
▁девочки	-10.6998
▁Мужчина	-10.6998
▁покупку	-10.6998
▁мясо	-10.6999
▁автомобиле	-10.6999
▁оставаться	-10.7
▁тренд	-10.7
▁Павла	-10.7
▁кроссовер	-10.7001
беж	-10.7002
▁государством	-10.7005
▁Бизнес	-10.7005
чист	-10.7006
ent	-10.7006
▁врача	-10.7008
▁вынесен	-10.7009
▁сроком	-10.7015
▁труб	-10.7019
▁Ор	-10.7024
▁маленьк	-10.7024
▁субъектов	-10.7027
▁рассчитывать	-10.7029
▁защитник	-10.703
▁началом	-10.7036
▁днях	-10.7037
27	-10.7042
"?	-10.7045
▁подозрева	-10.7046
▁53	-10.705
▁необходимых	-10.7051
▁пояснила	-10.7051
▁доступа	-10.7052
ow	-10.7055
49	-10.7055
▁актриса	-10.7059
▁комментарии	-10.7059
▁соцсетях	-10.7059
▁установки	-10.7059
▁сессии	-10.7059
▁версию	-10.7059
▁покупать	-10.7059
▁рынки	-10.7059
▁сетей	-10.706
▁Новак	-10.7061
▁выполнение	-10.7062
▁учреждений	-10.7062
ающих	-10.7063
▁инспектор	-10.7065
▁личности	-10.7066
▁Запада	-10.7067
▁военную	-10.7068
▁вещества	-10.707
чил	-10.707
▁15%	-10.7071
Извести	-10.7072
▁намного	-10.7073
▁опасно	-10.7074
▁учения	-10.7075
▁ходатайство	-10.7077
▁Московский	-10.7079
▁страной	-10.7079
▁подчеркнула	-10.7081
топ	-10.7084
▁глубоко	-10.7085
▁розничн	-10.7086
95	-10.709
▁квадратны	-10.7093
▁видеть	-10.7098
▁отзыв	-10.7103
атов	-10.7106
▁Надежда	-10.7107
▁зато	-10.7107
▁Одна	-10.7109
▁север	-10.7114
▁ут	-10.7115
ведению	-10.7119
▁любит	-10.712
▁индивидуальны	-10.712
▁площадки	-10.712
▁рекомендовал	-10.712
▁реконструкции	-10.712
▁перемирия	-10.712
▁отменить	-10.712
▁свидетельствуют	-10.712
▁учителя	-10.712
▁Заместител	-10.7121
ившись	-10.7123
▁эффективности	-10.7124
▁ставок	-10.7125
▁Интерфакс	-10.7126
▁подобн	-10.7127
торы	-10.7128
▁АЭС	-10.7129
▁двигателя	-10.7129
▁сторонников	-10.7132
▁направлений	-10.7136
▁лекарства	-10.7142
▁причинам	-10.7152
ума	-10.7156
▁формы	-10.7161
Краснодар	-10.7162
▁имели	-10.7163
▁Оно	-10.7163
▁Майкл	-10.7165
восточн	-10.7166
▁шт	-10.7166
▁мирных	-10.7166
▁поезда	-10.7167
▁центральны	-10.717
▁дисциплин	-10.717
ическим	-10.7172
▁вагон	-10.7172
▁принимал	-10.7177
▁62	-10.7178
▁Швейцарии	-10.7181
▁корпорации	-10.7181
▁областях	-10.7181
▁организовать	-10.7181
▁последствий	-10.7181
▁экзамен	-10.7181
▁известен	-10.7181
▁защитить	-10.7182
▁честно	-10.7182
▁Около	-10.7182
сек	-10.7188
▁молодые	-10.7189
▁СУ	-10.7191
▁остро	-10.7194
▁препарат	-10.7198
▁задержания	-10.7198
▁Главное	-10.72
▁отстранен	-10.7202
очки	-10.7202
▁турнире	-10.7203
▁речи	-10.7211
▁секунд	-10.7217
▁экономист	-10.7222
▁гг	-10.7223
▁компаниями	-10.7224
▁препараты	-10.7224
▁росту	-10.7225
▁члена	-10.7227
▁завершить	-10.7228
▁правов	-10.723
▁2015-	-10.7231
ании	-10.7233
▁кров	-10.7235
▁энерго	-10.7239
евский	-10.7239
▁мозга	-10.7241
▁Подмосковье	-10.7243
▁Республике	-10.7243
▁поддержка	-10.7243
▁коридор	-10.7243
▁организовал	-10.7243
▁ЗАО	-10.7244
▁хочется	-10.7244
▁Центробанк	-10.7244
▁вторая	-10.7247
▁выступать	-10.7247
▁сбора	-10.7249
▁Наши	-10.7249
▁многое	-10.7253
ТО	-10.7253
уб	-10.7254
▁след	-10.7256
лист	-10.7263
стать	-10.7263
▁призер	-10.7263
▁боксер	-10.7264
▁важных	-10.7264
▁главная	-10.7265
▁доступны	-10.7266
▁внутренней	-10.7267
казывать	-10.727
▁ближе	-10.727
▁террористы	-10.727
жно	-10.7272
▁курорт	-10.7274
▁комплект	-10.7276
▁заряд	-10.7278
▁мил	-10.7278
▁квартала	-10.7278
▁проголосовали	-10.728
▁миллион	-10.7281
▁ограничений	-10.7281
▁редко	-10.7281
▁остров	-10.7282
дом	-10.7285
▁дипломатически	-10.7286
▁вылет	-10.7289
▁выбран	-10.729
писал	-10.7293
▁64	-10.7293
▁нашел	-10.7294
▁делегации	-10.7305
▁Реджеп	-10.7305
▁наблюдается	-10.7305
▁содержа	-10.7305
▁лучший	-10.7305
▁намечен	-10.7305
▁Mail	-10.7306
▁рассмотреть	-10.7306
▁футболиста	-10.7308
▁социальные	-10.7308
▁объемов	-10.7311
▁представляют	-10.7312
▁Цель	-10.7313
▁отпуск	-10.7313
va	-10.7317
▁принцип	-10.7318
▁активности	-10.7319
▁Фонда	-10.7321
▁воспользоваться	-10.7323
ивают	-10.7325
▁играл	-10.7326
▁FT	-10.7328
▁улиц	-10.733
▁гроз	-10.7332
шиб	-10.7333
▁Медведева	-10.7334
▁закрыты	-10.7334
техническ	-10.7337
рит	-10.7337
▁Асад	-10.7337
▁получал	-10.7338
нным	-10.7338
▁менеджер	-10.734
носит	-10.734
▁АиФ	-10.7341
Ку	-10.7344
▁записи	-10.7345
рук	-10.7345
▁заводе	-10.7348
▁лиги	-10.7349
▁бор	-10.7354
▁возглавлял	-10.7356
▁юрист	-10.736
▁велик	-10.7364
плоть	-10.7365
▁берегов	-10.7368
▁достичь	-10.7368
▁серьезных	-10.7368
▁историк	-10.7368
ВКонтакте	-10.7368
▁снизилась	-10.7369
▁сюда	-10.7369
▁Больше	-10.7369
2)	-10.7371
▁исторически	-10.7372
▁виз	-10.7376
▁официальным	-10.7381
▁возвращения	-10.7382
▁линия	-10.7389
▁шар	-10.7392
▁менять	-10.7393
▁понимают	-10.7399
▁экономический	-10.7401
▁футбола	-10.7405
гад	-10.7406
▁закрыть	-10.7407
▁другую	-10.7416
um	-10.7419
▁зафиксирован	-10.7421
▁72	-10.7422
"...	-10.7426
▁Рим	-10.7429
▁Отечественной	-10.7431
▁заместителем	-10.7431
▁страшно	-10.7431
▁приобрести	-10.7432
▁сделка	-10.7433
▁Королев	-10.7434
Урал	-10.7436
▁розыск	-10.7437
▁разработал	-10.7438
▁просят	-10.7442
▁допустить	-10.7443
зелен	-10.7445
работа	-10.7448
▁финала	-10.7451
▁вызвал	-10.7451
▁запрещенной	-10.7456
▁магазинов	-10.7457
▁строй	-10.746
ывает	-10.7462
Рус	-10.7464
▁итальянск	-10.7465
▁Ираке	-10.7465
▁сопровожда	-10.7467
▁Оста	-10.7468
▁допрос	-10.7468
▁подчеркивает	-10.7476
▁начнут	-10.7477
щиков	-10.7479
▁самих	-10.748
мог	-10.748
▁жителя	-10.7482
▁Одно	-10.7483
▁дух	-10.7484
▁снял	-10.749
неж	-10.7491
▁концов	-10.7492
▁лагеря	-10.7494
▁подростков	-10.7494
▁Земли	-10.7494
▁чему	-10.7494
▁Тайип	-10.7494
▁русских	-10.7494
▁согласился	-10.7495
▁турецких	-10.7497
▁приход	-10.7498
▁жили	-10.7506
▁потребительски	-10.751
▁ожидают	-10.751
пет	-10.7514
▁предложила	-10.7517
▁аналитики	-10.7519
чку	-10.7519
▁Жител	-10.752
дают	-10.7535
▁улицу	-10.754
▁обсуждать	-10.754
▁важным	-10.7542
29	-10.7549
▁использовали	-10.7554
▁школа	-10.7557
▁городу	-10.7557
▁лауреат	-10.7557
▁совещании	-10.7557
▁крымски	-10.7558
▁подтверждает	-10.7558
▁двойн	-10.7559
▁каждому	-10.756
▁отказалась	-10.7561
▁респондентов	-10.7562
▁международные	-10.7564
▁пользователи	-10.7565
▁обще	-10.7565
▁скорой	-10.7566
▁направля	-10.7567
▁бренд	-10.7568
▁звук	-10.7569
ve	-10.757
▁знак	-10.7571
▁рассказывал	-10.7571
анов	-10.7574
альную	-10.7574
ir	-10.7577
▁оказать	-10.7582
▁цифры	-10.7583
▁установленны	-10.7583
▁запустил	-10.7586
▁44	-10.7588
▁предложением	-10.7588
▁саммита	-10.7591
▁Екатеринбурге	-10.7592
чных	-10.7595
▁возникает	-10.7596
защит	-10.7598
ьер	-10.7601
▁Ярослав	-10.7611
▁30-	-10.7613
Ан	-10.7617
▁рубеж	-10.762
рия	-10.7622
▁пределами	-10.7622
очно	-10.7622
▁рабочей	-10.7623
▁дохода	-10.7624
▁председателем	-10.7625
▁добро	-10.7625
▁осталась	-10.7626
▁реальности	-10.7627
▁счастлив	-10.7627
▁наркотиков	-10.7628
▁государственные	-10.7629
▁знали	-10.763
▁Сирийск	-10.763
▁фар	-10.7632
▁ФИФА	-10.7633
▁эксплуатации	-10.7634
▁данн	-10.7637
▁сотрудникам	-10.7638
пат	-10.7639
есс	-10.764
▁Ему	-10.7641
▁90-	-10.7643
▁комнат	-10.7645
▁пишут	-10.7646
▁востребован	-10.7649
▁образовательн	-10.7649
▁демократов	-10.7652
-20	-10.7653
▁контролем	-10.7655
▁воздух	-10.7657
▁микро	-10.7657
▁полетов	-10.7657
▁конкретно	-10.7659
▁выполнен	-10.7659
▁преступн	-10.766
ИГ	-10.7666
▁письме	-10.7667
▁вопросом	-10.7667
▁переворота	-10.7668
▁деятельностью	-10.7669
▁приема	-10.7669
▁брак	-10.7673
▁воздушно	-10.7673
▁составляла	-10.7675
иста	-10.768
▁малыш	-10.7681
▁мужчину	-10.7682
▁магазин	-10.7684
▁выехал	-10.7687
▁сферы	-10.7687
▁выражении	-10.7688
▁ПАО	-10.7688
▁оценил	-10.7688
▁естественно	-10.7688
▁основного	-10.7688
▁направить	-10.7688
▁Европа	-10.7688
▁Зе	-10.769
▁правилам	-10.7691
▁перес	-10.7691
нтер	-10.7692
▁подъезд	-10.7694
▁двум	-10.7694
▁приговорил	-10.7694
▁государственный	-10.7694
▁подрядчик	-10.7695
▁Донецко	-10.7696
▁срочно	-10.7696
▁готовность	-10.7697
▁оригинальн	-10.7698
▁участниками	-10.7699
▁территория	-10.7701
▁угроза	-10.7704
Все	-10.7704
▁регистр	-10.7709
щики	-10.7709
ируются	-10.7713
▁любого	-10.7714
ПС	-10.7714
чество	-10.7715
емой	-10.7717
▁вузов	-10.7718
▁ред	-10.7719
▁физических	-10.7722
ot	-10.7722
▁сохранил	-10.7722
сил	-10.7726
▁выделен	-10.7727
▁формате	-10.773
▁инвест	-10.7731
▁гендиректора	-10.7732
емые	-10.7739
▁флот	-10.7739
ушка	-10.7742
▁персонаж	-10.7745
▁суб	-10.7745
▁гостиниц	-10.7745
▁кредиты	-10.7746
верс	-10.7749
▁офшор	-10.7751
▁договоренностей	-10.7751
▁сценарий	-10.7751
▁недавне	-10.7751
▁железнодорожно	-10.7751
▁сделок	-10.7751
▁посетителей	-10.7751
▁поражения	-10.7752
▁восстановления	-10.7753
▁нарушении	-10.7754
▁заявив	-10.7754
▁дверь	-10.7755
▁учета	-10.7756
▁дер	-10.7757
▁близко	-10.7757
▁производители	-10.7759
Вести	-10.7768
▁ЛНР	-10.7768
▁победил	-10.7768
Спартака	-10.7768
▁экспертизы	-10.7773
▁непросто	-10.7775
▁учет	-10.7775
▁ед	-10.7777
▁каком	-10.7783
▁зачем	-10.7784
дова	-10.7789
▁Новая	-10.7789
▁шум	-10.779
▁расп	-10.7792
▁компаниям	-10.7793
▁25-	-10.7797
op	-10.7798
Ни	-10.7799
▁исчез	-10.7801
Ле	-10.7803
инга	-10.7807
▁Американск	-10.7812
▁Израиля	-10.7816
▁землю	-10.7816
▁появятся	-10.7816
▁Польше	-10.7817
▁доказательства	-10.7818
▁Миронов	-10.7818
маркет	-10.7818
▁возбудил	-10.7819
дис	-10.7819
▁договориться	-10.7819
▁обладает	-10.7819
говарива	-10.782
▁болельщиков	-10.7821
▁революции	-10.7821
▁легкой	-10.7824
▁Хан	-10.7825
▁советских	-10.7826
▁действиях	-10.7832
ществ	-10.7832
▁производству	-10.7836
▁иска	-10.784
▁Кост	-10.7842
уха	-10.7842
▁залог	-10.7843
▁Тот	-10.7848
▁привлек	-10.7849
▁1990-	-10.785
завод	-10.7851
Кр	-10.7854
▁друж	-10.7856
▁выводы	-10.7857
▁форуме	-10.7858
▁специальных	-10.7864
ex	-10.7868
▁бросил	-10.7868
▁Спуст	-10.7871
▁настроен	-10.7877
▁отправить	-10.788
▁владелец	-10.7881
▁Daily	-10.7882
▁Госдума	-10.7882
▁Собянин	-10.7882
▁Финляндии	-10.7882
▁перечень	-10.7882
▁стражей	-10.7882
▁показателей	-10.7882
▁судьи	-10.7883
▁ФБР	-10.7883
▁языке	-10.7884
▁думать	-10.7885
▁масло	-10.7888
▁холдинг	-10.7889
▁лишил	-10.789
▁занятия	-10.789
-2"	-10.7891
▁перелом	-10.7893
▁Самар	-10.7894
▁предложений	-10.7894
▁детского	-10.7895
▁попросили	-10.7898
▁четверо	-10.7898
бал	-10.7899
▁судя	-10.79
▁создали	-10.7901
▁тер	-10.7902
▁современной	-10.7906
▁отмене	-10.7906
рог	-10.7909
▁крупнейши	-10.7909
▁мировом	-10.7909
▁штурм	-10.7911
▁Ки	-10.7911
менеджер	-10.7915
фр	-10.7916
▁членом	-10.7917
ством	-10.7917
▁гриппа	-10.792
▁враг	-10.7921
▁массовой	-10.7923
▁сей	-10.7923
▁41	-10.7923
▁телефону	-10.7929
▁книг	-10.7933
▁составило	-10.7933
энерго	-10.7933
▁пространство	-10.7936
▁выяснили	-10.7943
очные	-10.7944
▁устав	-10.7946
▁оценивает	-10.7947
▁мероприятие	-10.7948
▁реализовать	-10.7948
▁учитывая	-10.7948
▁становятся	-10.7949
▁Олланд	-10.7949
▁1991	-10.795
▁следующей	-10.7951
▁назначил	-10.7951
▁кем	-10.7952
▁Одним	-10.7952
▁заявку	-10.7955
▁похожи	-10.7956
▁осуществлени	-10.7959
▁увидел	-10.7962
48	-10.7972
▁Барака	-10.7973
бен	-10.7975
пп	-10.7977
▁сформирован	-10.7978
▁Геннадий	-10.7983
оваться	-10.7983
▁прекращени	-10.7985
id	-10.7988
▁совершен	-10.7989
▁понял	-10.7992
▁поворот	-10.7993
▁нефте	-10.7994
▁оператор	-10.7995
▁рассматривать	-10.7997
▁Группа	-10.8002
▁показала	-10.8002
▁50-	-10.8003
вия	-10.8005
▁коллегами	-10.8008
ьте	-10.8011
Ро	-10.8013
▁ново	-10.8015
▁полузащитник	-10.8015
▁распоряжении	-10.8015
▁чтении	-10.8015
▁Instagram	-10.8015
▁Версия	-10.8016
▁Минтранс	-10.8016
рио	-10.8017
▁погибшего	-10.8017
▁кредитных	-10.8017
▁обсудить	-10.8017
▁подать	-10.8018
▁выступают	-10.802
боль	-10.8023
▁Йо	-10.8023
друг	-10.8023
▁автоматически	-10.8025
техник	-10.8026
▁удается	-10.8033
▁условно	-10.8037
▁соответствующе	-10.8037
▁Франция	-10.8037
▁лице	-10.8038
▁Германия	-10.8043
▁отправил	-10.8044
Но	-10.8045
▁Мартин	-10.8047
Наш	-10.805
ухов	-10.8051
Во	-10.8052
▁личной	-10.8054
▁Агентство	-10.8058
▁праздника	-10.8059
свет	-10.8068
▁New	-10.8069
ающий	-10.8075
▁министром	-10.8082
▁Предполагается	-10.8082
▁отвечать	-10.8082
▁ошибки	-10.8082
▁меньшей	-10.8083
▁европейские	-10.8085
▁известного	-10.8085
▁пит	-10.8086
▁делом	-10.8092
▁участвовали	-10.8092
▁Ассоциации	-10.8092
▁слову	-10.8093
▁Федор	-10.8095
▁15-	-10.8096
▁активны	-10.8097
▁уточнили	-10.8097
Тр	-10.81
▁представление	-10.8102
▁принимали	-10.8107
месячн	-10.8108
▁ориентир	-10.8109
▁Джи	-10.8111
▁рис	-10.8117
▁семью	-10.8117
▁дальнейши	-10.8126
▁официальных	-10.8129
▁прямой	-10.8133
▁грузовик	-10.8135
▁формат	-10.8135
▁обнаружено	-10.8135
екс	-10.8144
38	-10.8146
▁готовит	-10.8146
▁проходили	-10.8147
▁телевизор	-10.815
▁Samsung	-10.815
▁Египет	-10.815
▁исключил	-10.815
▁обслуживания	-10.815
▁спасатели	-10.815
▁подъем	-10.815
▁считаем	-10.815
▁насилия	-10.815
▁дочери	-10.815
▁думы	-10.8151
▁средний	-10.8151
▁мужа	-10.8151
▁удары	-10.8152
▁Re	-10.8154
▁закрытия	-10.8158
▁канцлер	-10.816
▁требование	-10.816
▁чемпиона	-10.8161
▁любо	-10.8162
▁процедур	-10.8163
-10	-10.8163
5%	-10.8167
▁ударов	-10.817
▁зимой	-10.817
▁вспоминает	-10.8172
▁эксперта	-10.8172
▁какую	-10.8173
▁гражданских	-10.8173
▁85	-10.8174
▁роз	-10.8175
55	-10.8176
▁жестко	-10.8182
▁блока	-10.8182
▁Вал	-10.8182
▁партнерами	-10.8182
ющейся	-10.8183
чек	-10.8183
Вы	-10.8183
▁терроризма	-10.8183
▁внешне	-10.8184
▁такси	-10.8186
▁Z	-10.8186
▁Такая	-10.8189
▁актера	-10.8192
ухи	-10.8194
▁владельцев	-10.8196
89	-10.8198
▁Al	-10.8199
▁новость	-10.82
▁вуза	-10.8205
сом	-10.8206
▁био	-10.8207
▁Вас	-10.8207
▁Кадырова	-10.8208
▁возможным	-10.8211
▁областно	-10.8212
▁стартов	-10.8212
▁Жуков	-10.8214
▁чиновника	-10.8214
▁вертолета	-10.8215
▁известны	-10.8215
▁Volkswagen	-10.8218
▁Норвегии	-10.8218
▁контролировать	-10.8218
▁покупателей	-10.8218
▁сирийских	-10.8218
▁прийти	-10.8219
▁состоялось	-10.8219
▁эксплуатацию	-10.822
▁свин	-10.8221
▁Демократическо	-10.8225
▁80%	-10.8225
рес	-10.8226
▁героев	-10.8228
ального	-10.8229
-3	-10.8229
▁нефтяных	-10.823
▁Дамаск	-10.8232
▁Дуб	-10.8233
таль	-10.8236
▁показывают	-10.8241
nd	-10.8241
▁форум	-10.8245
▁альянса	-10.8247
▁игрок	-10.8249
Золот	-10.825
▁размера	-10.8251
▁ранены	-10.8251
▁новогодни	-10.8253
▁заявлением	-10.826
бел	-10.826
овича	-10.8261
▁противодействи	-10.8265
▁парад	-10.8267
▁называет	-10.8268
▁группировка	-10.8268
кли	-10.8269
▁предположил	-10.8276
Кар	-10.8281
▁инструмент	-10.8281
▁бог	-10.8281
общую	-10.8283
▁ожидать	-10.8286
▁разработке	-10.8286
▁поправок	-10.8286
▁русский	-10.8287
▁здоровью	-10.8287
▁увеличилось	-10.8287
▁бокс	-10.8287
чика	-10.8288
▁материал	-10.8289
▁необходимы	-10.8289
глав	-10.8289
▁зимни	-10.8289
▁звезды	-10.8289
▁май	-10.829
▁высокие	-10.829
▁Республиканской	-10.829
▁хор	-10.8292
▁балет	-10.8292
▁вызвали	-10.8294
▁допинга	-10.8295
▁парламенте	-10.8296
▁мощностью	-10.8296
щу	-10.8298
▁Вашингтона	-10.8304
▁оснований	-10.8305
▁привлечен	-10.8307
эль	-10.8312
▁52	-10.8312
▁маневр	-10.8314
стов	-10.8315
▁отправлен	-10.8317
▁существенны	-10.8317
▁пациент	-10.8319
▁выступая	-10.8319
имся	-10.8319
▁56	-10.832
▁использовал	-10.8328
▁мал	-10.8329
▁процедуру	-10.8331
лиги	-10.8333
▁Петров	-10.8336
ac	-10.8339
▁тип	-10.8339
▁набрал	-10.834
работал	-10.8348
▁показ	-10.8351
Аль	-10.8352
▁различным	-10.8353
▁виды	-10.8355
▁американцев	-10.8355
▁аэродром	-10.8355
▁землетрясения	-10.8355
▁коррупцией	-10.8355
▁отсутствия	-10.8355
▁претензии	-10.8355
АвтоВАЗ	-10.8355
▁задолженность	-10.8355
▁постановления	-10.8355
▁Казани	-10.8355
▁южно	-10.8356
▁разместил	-10.8356
▁мощности	-10.8357
▁служб	-10.8357
▁обоих	-10.8363
▁финале	-10.8363
▁Кат	-10.8366
▁удара	-10.8367
очной	-10.837
ань	-10.837
▁Сил	-10.8373
▁татар	-10.8377
▁бренда	-10.8377
авто	-10.8378
▁установлены	-10.838
▁исключено	-10.838
рост	-10.8383
▁проводятся	-10.8385
▁Восточной	-10.8385
▁часы	-10.8385
▁Эл	-10.8386
▁занять	-10.8388
▁1,6	-10.8391
▁процедура	-10.8392
▁региональном	-10.8394
▁Мур	-10.8397
▁прим	-10.8398
▁Сто	-10.8398
▁Никита	-10.8398
▁собор	-10.8404
▁ша	-10.8405
▁би	-10.8406
вшимся	-10.8406
▁ног	-10.8406
▁затраты	-10.8407
▁сообщество	-10.8408
▁здорово	-10.8413
пил	-10.8415
▁верх	-10.8416
▁водой	-10.8419
▁заложен	-10.842
▁тай	-10.8422
▁Молдавии	-10.8425
▁Эдуард	-10.8425
▁антимонопольн	-10.8425
▁резолюции	-10.8425
▁хранения	-10.8425
▁юстиции	-10.8425
▁Женеве	-10.8425
▁покупке	-10.8425
▁добровольно	-10.8425
▁Франсуа	-10.8425
▁руководители	-10.8425
▁СБУ	-10.8426
▁Ок	-10.8426
▁помогут	-10.8426
▁изучения	-10.8426
▁исполнении	-10.8427
▁отличается	-10.8427
▁2001	-10.8428
▁миллиардер	-10.843
▁открытии	-10.8431
▁взрослых	-10.8432
▁потребуется	-10.8433
▁направлено	-10.8434
▁ветер	-10.8435
кратн	-10.8437
▁Васильев	-10.8441
▁распространен	-10.8441
▁Надежды	-10.8444
3%	-10.8445
▁действуют	-10.8445
▁юридически	-10.8445
что	-10.8448
▁общая	-10.8449
▁учитывать	-10.8449
кле	-10.8452
▁назвала	-10.8453
▁дежур	-10.8453
ственно	-10.8455
чики	-10.8455
▁матчах	-10.846
▁торгово	-10.8463
около	-10.8463
▁трав	-10.8464
▁факторов	-10.8465
▁дар	-10.8467
пот	-10.8468
опо	-10.8472
▁юридических	-10.8475
ation	-10.8475
▁ну	-10.8477
Мир	-10.8478
▁устроили	-10.8478
ьный	-10.8478
▁Тра	-10.848
▁физическ	-10.8481
96	-10.8483
▁созда	-10.8483
звезд	-10.8484
▁полк	-10.8485
▁иностран	-10.8486
уда	-10.8489
▁ярко	-10.8491
▁проблемой	-10.8494
▁партнеры	-10.8494
▁личность	-10.8495
▁Владислав	-10.8495
▁половиной	-10.8495
▁электроэнергии	-10.8495
▁сильнее	-10.8495
▁большом	-10.8495
▁любые	-10.8495
▁перейти	-10.8495
▁технику	-10.8495
▁Думы	-10.8496
65	-10.8497
▁Наш	-10.8497
лиц	-10.8497
▁обратилась	-10.8497
▁использован	-10.8498
▁пьян	-10.85
▁системой	-10.8501
▁выплатить	-10.8502
▁магазина	-10.8502
▁конкретных	-10.8505
Как	-10.8506
ование	-10.851
▁приговорен	-10.8511
шат	-10.8511
▁67	-10.8512
▁приехали	-10.8512
▁юге	-10.8515
▁близкий	-10.8517
▁регулятора	-10.8517
▁производстве	-10.8518
▁распространя	-10.8518
ard	-10.8519
президента	-10.8521
ывал	-10.8523
▁коммерчески	-10.8525
▁хозяев	-10.8527
▁атомн	-10.8527
▁бизнесмена	-10.8528
▁памятника	-10.853
▁носит	-10.853
нина	-10.8531
сса	-10.8531
▁Бес	-10.8534
▁посол	-10.8543
▁ГК	-10.8544
▁колон	-10.8544
ПП	-10.8548
льский	-10.8549
▁боевой	-10.8551
▁кабинета	-10.8552
спорт	-10.8553
▁запрета	-10.8555
▁элемент	-10.8556
▁установил	-10.8556
to	-10.856
▁обществе	-10.8561
▁Рост	-10.8562
▁помог	-10.8564
▁Вообще	-10.8565
▁болезнь	-10.8565
▁жюри	-10.8565
▁рекомендации	-10.8565
▁фаворит	-10.8565
▁половина	-10.8565
▁Токио	-10.8565
▁республиканцев	-10.8565
▁моделей	-10.8565
▁определил	-10.8567
▁отмены	-10.8567
ящих	-10.8568
▁Львов	-10.8569
▁Бол	-10.857
▁серию	-10.857
▁зуб	-10.8571
▁рады	-10.8572
▁Павлов	-10.8574
▁опасность	-10.8574
▁Сибири	-10.8575
▁Володин	-10.8578
жим	-10.8579
▁100%	-10.858
НК	-10.8581
ницу	-10.8582
▁метра	-10.8584
▁предусмотрено	-10.8588
▁Ге	-10.8588
▁заведения	-10.8592
гл	-10.8593
▁петербургск	-10.8594
▁начинается	-10.8595
▁обеспечен	-10.8596
▁пропал	-10.8598
биты	-10.8598
▁департамент	-10.8598
▁стадион	-10.8599
▁подобного	-10.8599
шков	-10.8605
Авто	-10.8606
▁Марина	-10.8606
живать	-10.8608
▁подрыв	-10.8609
▁Лондон	-10.8616
▁света	-10.8619
центра	-10.862
im	-10.862
манов	-10.862
▁создает	-10.8624
тера	-10.8626
▁независимо	-10.8627
▁исполнительны	-10.8628
▁партнера	-10.8629
курс	-10.8629
▁част	-10.8634
▁Le	-10.8634
▁Вашингтоне	-10.8634
▁американцы	-10.8636
▁нескольким	-10.8636
▁впрочем	-10.8636
▁свидетельствует	-10.8636
▁Захарченко	-10.8636
▁рецепт	-10.8636
▁участвуют	-10.8637
bg	-10.8639
▁заявлений	-10.8642
▁убиты	-10.8642
▁американским	-10.8645
▁потока	-10.8648
нную	-10.8649
▁структура	-10.8652
стями	-10.8652
вил	-10.8653
льт	-10.8654
▁слабо	-10.8659
▁упали	-10.8659
▁стратегически	-10.866
▁делал	-10.8662
давал	-10.8663
▁Донбасса	-10.8663
▁туре	-10.8664
▁ввоз	-10.8666
▁тарифов	-10.8669
▁нефтяной	-10.8671
▁тво	-10.8672
▁организаторы	-10.8677
▁лицом	-10.8678
лежа	-10.8678
аций	-10.8678
▁1%	-10.8678
джа	-10.8682
блюд	-10.8683
▁лов	-10.8685
▁крест	-10.8687
▁План	-10.8687
2,5	-10.869
▁охот	-10.8694
▁дала	-10.8695
Центр	-10.8698
▁Кли	-10.8699
▁школах	-10.8703
▁проще	-10.8705
▁давать	-10.8707
▁предпринимателя	-10.8707
▁ОСАГО	-10.8707
▁Объем	-10.8707
▁подозреваемый	-10.8707
▁индивидуально	-10.8707
▁неплохо	-10.8707
▁нередко	-10.8707
▁стражу	-10.8707
▁поздно	-10.8707
▁прежни	-10.8708
▁высказывания	-10.8708
▁попытался	-10.8708
▁отчетности	-10.871
▁подробности	-10.8711
▁волн	-10.8713
▁окажется	-10.8714
▁государственно	-10.8715
▁везде	-10.8716
▁снизился	-10.8721
▁русской	-10.8725
▁забил	-10.8726
▁продал	-10.8726
▁необходим	-10.8727
▁театре	-10.8728
▁применя	-10.8732
тру	-10.8735
▁плей	-10.8741
▁ходить	-10.8743
летнюю	-10.8743
▁полный	-10.8747
▁Марс	-10.8747
ng	-10.8748
▁поступил	-10.8754
▁69	-10.8758
▁формально	-10.8761
▁склон	-10.8765
Ла	-10.8767
44	-10.8771
▁игроки	-10.8774
катастроф	-10.8775
▁головы	-10.8777
▁парке	-10.8778
▁Novin	-10.8779
▁Карелии	-10.8779
▁полицейского	-10.8779
▁отозвал	-10.878
▁месторождения	-10.878
▁вооружения	-10.878
▁Ирак	-10.878
▁обучения	-10.8781
▁штук	-10.8782
аны	-10.8784
▁связей	-10.8784
▁тебе	-10.8784
кладывать	-10.8786
▁иностранные	-10.8788
▁обещал	-10.8788
▁Цена	-10.8788
цкого	-10.8789
▁выступить	-10.8789
%	-10.8789
▁2003	-10.8789
▁мониторинг	-10.8791
▁личного	-10.8791
▁ответа	-10.8796
▁обновлен	-10.8797
▁получив	-10.8798
▁оба	-10.8799
▁Ростове	-10.88
чева	-10.8801
▁действующих	-10.8802
▁поддерживают	-10.8805
▁доказать	-10.8806
▁дороже	-10.8808
▁сверх	-10.8808
читать	-10.8809
▁культурного	-10.8812
▁региональной	-10.8814
▁66	-10.8816
▁продлил	-10.8817
ыш	-10.8818
▁акционеров	-10.8819
▁законодательно	-10.8819
▁чувств	-10.8822
▁инициатива	-10.8822
▁дат	-10.8824
▁неза	-10.8826
▁судно	-10.8827
▁ядерного	-10.8828
▁космодрома	-10.8831
▁урок	-10.8831
▁неудач	-10.8834
изирован	-10.8837
▁дли	-10.8837
▁стабильно	-10.884
&	-10.8844
нной	-10.8846
альной	-10.8847
кос	-10.8849
▁Молод	-10.8851
▁ЧМ	-10.8851
▁присутствие	-10.8852
▁Кудрин	-10.8852
▁легенд	-10.8852
▁Минэнерго	-10.8852
ge	-10.8856
▁коротко	-10.8857
▁детский	-10.8857
▁свободу	-10.8857
▁следить	-10.8858
▁Свердловской	-10.886
▁массов	-10.886
▁Валерия	-10.8863
▁точку	-10.8865
▁двери	-10.8866
▁кандидатом	-10.8866
ори	-10.8866
21	-10.8866
овском	-10.8867
▁доставили	-10.8869
▁Луганской	-10.8874
▁Валентин	-10.8875
запад	-10.8878
▁опубликованном	-10.8879
▁изменил	-10.888
▁турецко	-10.8881
▁налоговых	-10.8886
▁местный	-10.8887
▁супруг	-10.8887
▁прибор	-10.8888
▁58	-10.8889
▁пересмотр	-10.8889
▁пассажирски	-10.8891
▁зафиксировано	-10.8891
▁запрещено	-10.8891
востоке	-10.8892
▁провод	-10.8893
05	-10.8893
▁кредитно	-10.8895
▁стиле	-10.8895
▁4%	-10.8896
▁жертвами	-10.8898
▁аварийно	-10.8898
▁необычн	-10.89
▁алкогольно	-10.89
альным	-10.8901
▁шахте	-10.8902
▁составлен	-10.8908
▁иностранным	-10.8909
▁штрафа	-10.891
▁факты	-10.8917
ступление	-10.8917
реза	-10.8919
▁обыски	-10.8919
▁предоставлен	-10.8924
▁хоккеист	-10.8925
▁экстремизм	-10.8925
▁Британии	-10.8925
▁нынешней	-10.8925
▁прокуратуру	-10.8925
▁сыграть	-10.8925
▁потерпел	-10.8925
▁Анкаре	-10.8925
▁Штатов	-10.8925
▁ФРС	-10.8925
▁объяснить	-10.8925
▁появляется	-10.8926
▁никому	-10.8926
▁Литвы	-10.8926
▁побывал	-10.8926
▁совершить	-10.8926
▁жестоко	-10.8926
▁подачи	-10.8926
▁кредитования	-10.8926
▁проходил	-10.8927
▁казалось	-10.8927
▁жанр	-10.8927
дина	-10.8927
▁независимости	-10.8928
▁высоких	-10.8928
▁говорилось	-10.8931
▁появления	-10.8931
▁зачастую	-10.8932
▁НХЛ	-10.8933
▁школьников	-10.8935
▁отметки	-10.8935
▁мозг	-10.8936
▁Центральной	-10.8936
▁2002	-10.8939
▁публичны	-10.8941
уса	-10.8944
▁статуса	-10.8944
▁военным	-10.8946
дро	-10.8947
▁Ян	-10.8948
▁уточняется	-10.8948
▁трассы	-10.8949
▁Дем	-10.895
ником	-10.8952
▁толк	-10.8956
▁25%	-10.8957
▁рейсов	-10.8962
▁религиозн	-10.8963
илось	-10.8965
▁Кан	-10.8965
▁количеств	-10.8969
▁рыба	-10.8969
▁ресторан	-10.8971
▁фильмы	-10.8976
▁Сад	-10.8977
▁организатор	-10.8977
▁офицер	-10.8977
▁Тут	-10.8979
▁ходу	-10.8983
▁художника	-10.8986
нте	-10.8988
▁ярки	-10.899
▁международн	-10.8992
везли	-10.8992
ставлял	-10.8996
▁Партии	-10.8998
▁произвел	-10.8998
▁случившегося	-10.8998
-200	-10.9
▁НКО	-10.9001
▁основатель	-10.9002
▁никого	-10.9003
▁странам	-10.9005
▁подготовить	-10.9006
▁Северного	-10.9006
▁Центрального	-10.9007
▁общения	-10.9007
ловно	-10.9009
▁проведенно	-10.901
▁подготовил	-10.901
▁линию	-10.9011
▁ноги	-10.9011
мисс	-10.9012
▁политический	-10.9013
▁используется	-10.9014
▁налоговой	-10.9016
▁детской	-10.9018
▁позитив	-10.9019
99	-10.9021
▁указанны	-10.9028
▁проезж	-10.9028
▁скромн	-10.9029
▁практика	-10.9034
▁отдать	-10.9034
торов	-10.9035
игра	-10.9039
нно	-10.9049
чем	-10.905
▁Судя	-10.905
летие	-10.905
▁Бы	-10.9053
везти	-10.9055
▁ограничение	-10.9057
▁домашне	-10.906
▁недвижимость	-10.9061
▁работой	-10.9066
▁Лю	-10.907
Кон	-10.907
▁способность	-10.9072
▁Нарышкин	-10.9072
▁выставке	-10.9072
▁павильон	-10.9072
▁преддвери	-10.9072
▁Дворкович	-10.9072
▁желающих	-10.9073
▁громки	-10.9073
▁Джеймс	-10.9073
▁столицу	-10.9073
▁рассматривал	-10.9073
▁завершения	-10.9075
▁коммунальны	-10.9075
▁Ленина	-10.9075
▁дешевле	-10.9075
▁медицинск	-10.9075
▁новости	-10.9076
вое	-10.9076
▁жалобу	-10.9077
▁вещей	-10.9077
▁обучение	-10.908
прос	-10.9081
дача	-10.9082
▁объявлено	-10.9082
класс	-10.9084
▁заинтересован	-10.9086
▁планировал	-10.9089
▁ответили	-10.9089
ханов	-10.909
▁качественно	-10.9095
▁дорожно	-10.9096
▁владельца	-10.9097
▁гре	-10.9098
▁бело	-10.9103
▁уголовных	-10.9106
▁вечера	-10.9109
популярн	-10.911
▁распространение	-10.9111
▁сел	-10.9111
▁одни	-10.9112
оне	-10.9112
▁смартфон	-10.9112
ысшего	-10.9114
▁спортсмена	-10.9114
▁стан	-10.9116
▁вылетел	-10.9119
▁претендент	-10.912
▁знакомый	-10.9121
▁получится	-10.9121
▁популярных	-10.9121
9%	-10.9125
▁поведения	-10.9125
шут	-10.9126
▁Ивана	-10.9126
▁приглашен	-10.9129
▁уверенно	-10.913
▁низко	-10.9132
рн	-10.9137
▁постоянн	-10.9138
▁стороной	-10.9143
▁Австрии	-10.9147
▁Эстонии	-10.9147
▁кампанию	-10.9147
▁распоряжение	-10.9147
▁сыграет	-10.9147
▁хоккею	-10.9147
▁очка	-10.9147
▁Прокуратура	-10.9147
▁строя	-10.9147
▁НПФ	-10.9148
▁Недавно	-10.9148
▁Air	-10.9148
▁заменить	-10.9149
▁седан	-10.9151
▁достойно	-10.9153
▁Зи	-10.9155
▁домах	-10.9156
дес	-10.9157
▁Майдан	-10.9158
▁популярны	-10.916
▁сократился	-10.9162
▁художественн	-10.9164
▁таможенн	-10.9165
▁Филипп	-10.9165
▁завершился	-10.9165
▁советского	-10.9166
▁наряд	-10.9167
▁средствами	-10.9169
▁Кипр	-10.9169
▁нижней	-10.9171
-7	-10.9173
▁Воронеж	-10.9174
▁сахар	-10.9175
▁$5	-10.9176
▁экстренно	-10.918
▁возвраща	-10.9182
▁думает	-10.9183
Йорк	-10.9184
▁сделала	-10.9184
ЭС	-10.9187
▁привели	-10.9187
▁успели	-10.9187
▁продав	-10.9192
До	-10.9193
▁признаки	-10.9193
▁Рус	-10.9193
▁российскому	-10.9194
▁торговле	-10.9197
▁московскому	-10.9197
▁полного	-10.9197
ено	-10.9198
▁Просто	-10.9199
▁рассмотрен	-10.92
8%	-10.9201
▁дорога	-10.9203
▁59	-10.9204
▁автора	-10.9205
ировка	-10.9205
▁обход	-10.9206
▁гл	-10.9211
▁Син	-10.9213
▁турецк	-10.9216
▁округ	-10.9218
ul	-10.9219
▁повлиять	-10.9222
▁претензий	-10.9222
▁скажем	-10.9222
▁судьба	-10.9222
▁урожен	-10.9222
▁актуальны	-10.9222
▁министерстве	-10.9223
▁изделий	-10.9223
▁жалобы	-10.9223
▁продолжение	-10.9223
▁талантлив	-10.9223
▁представлял	-10.9224
тора	-10.9224
▁рабочие	-10.9224
▁возглавляет	-10.9225
▁вторую	-10.9225
di	-10.9226
▁освобождения	-10.9228
▁произведения	-10.9228
закон	-10.923
очный	-10.9231
▁названия	-10.9231
▁авторитет	-10.9231
▁европейского	-10.9232
реж	-10.9233
▁приложение	-10.9233
▁мэрии	-10.9233
▁ректор	-10.9233
▁внутреннего	-10.9235
▁позволят	-10.9237
▁прирост	-10.9238
▁советской	-10.9239
▁порог	-10.924
▁вторым	-10.924
▁Ше	-10.9242
▁упомина	-10.9243
▁долгосрочн	-10.9243
▁жилых	-10.9244
▁предварительны	-10.9245
Ведомости	-10.9247
фан	-10.9247
▁Джона	-10.9249
чиков	-10.9249
▁хозяйств	-10.925
▁исключением	-10.9253
сок	-10.9255
▁пошел	-10.9256
▁предстоящи	-10.9258
леч	-10.9258
▁трудово	-10.926
чить	-10.9263
жать	-10.9264
▁Сити	-10.927
ine	-10.9272
▁одобрен	-10.9276
▁эффективность	-10.9277
▁130	-10.9278
▁актов	-10.9279
▁признает	-10.928
▁лицам	-10.928
▁поэт	-10.9282
лять	-10.9282
▁годовых	-10.9284
▁лед	-10.9289
час	-10.9291
▁гражданами	-10.9292
▁Бал	-10.9295
▁заканчива	-10.9296
▁63	-10.9297
▁Законопроект	-10.9298
▁Кремль	-10.9298
▁ликвидирован	-10.9298
▁оппозиционер	-10.9298
▁потребления	-10.9298
▁рынков	-10.9298
▁сможем	-10.9298
▁Ожидается	-10.9298
▁федеральным	-10.9298
▁поздравил	-10.9298
ильных	-10.9299
▁Одесско	-10.9299
▁Вене	-10.9301
предположительно	-10.9302
▁опубликовала	-10.9303
▁пусты	-10.9304
▁Ус	-10.9308
▁видят	-10.9308
47	-10.931
▁способом	-10.931
▁Фр	-10.9311
▁мошенничестве	-10.9312
▁комитете	-10.9314
▁камеры	-10.9315
▁культуре	-10.9315
тест	-10.9315
▁лишен	-10.9315
▁книга	-10.9318
▁заключенных	-10.9323
▁станция	-10.9324
▁уплаты	-10.9324
▁позволить	-10.9325
▁обмена	-10.9326
09	-10.9326
▁обоснован	-10.9327
стри	-10.9327
ером	-10.9334
▁мной	-10.9334
▁россиянин	-10.9338
▁Дне	-10.9339
▁хозяева	-10.934
▁поиска	-10.9342
▁участи	-10.9343
▁Комитет	-10.9345
▁пошли	-10.9348
ительные	-10.9349
▁разным	-10.9349
▁группово	-10.935
▁туристическ	-10.935
▁раскритиковал	-10.9351
аева	-10.9351
рад	-10.9353
▁бесплатн	-10.9355
▁Эксперт	-10.9356
▁жар	-10.9357
ивая	-10.9359
▁Вар	-10.936
▁атака	-10.9361
▁гражданство	-10.9368
▁алкоголь	-10.9371
▁реал	-10.9374
▁Минпромторг	-10.9374
▁Сергеем	-10.9374
▁компромисс	-10.9374
▁наверняка	-10.9374
▁произошли	-10.9374
▁Renault	-10.9374
▁вооружений	-10.9374
▁реализован	-10.9374
▁Абэ	-10.9375
▁Наша	-10.9375
▁бойцов	-10.9375
▁нарушением	-10.9376
▁опасения	-10.9377
▁палат	-10.9377
▁оправдан	-10.9378
кас	-10.9382
▁климат	-10.9383
АЗ	-10.9384
▁(5	-10.9384
▁приходилось	-10.9384
▁Ста	-10.9384
▁Сен	-10.9386
▁заплатить	-10.9388
▁Гре	-10.9389
тяж	-10.939
▁холдинга	-10.94
▁действующего	-10.94
▁смартфонов	-10.9402
▁Казахстан	-10.9404
▁Мол	-10.9407
▁51	-10.9407
98	-10.9408
▁сумме	-10.9409
co	-10.941
▁сохранение	-10.9411
▁мински	-10.9414
▁народных	-10.9415
▁конкурентов	-10.9425
▁кредитам	-10.9428
▁муниципально	-10.9438
▁крупным	-10.9438
▁цифров	-10.9439
▁искусственно	-10.944
йтесь	-10.944
▁результатом	-10.9442
▁Каз	-10.9443
▁Европейско	-10.9446
чкой	-10.9447
сторон	-10.9449
▁заявки	-10.9451
▁юбилей	-10.9451
▁Шойгу	-10.9451
▁держать	-10.9453
ладить	-10.9454
▁уверенность	-10.9454
▁Другие	-10.9455
▁пристав	-10.9455
▁Кастро	-10.9456
▁государственном	-10.9456
нка	-10.9457
▁крупный	-10.9459
▁форма	-10.9461
▁обнаружил	-10.9462
▁гараж	-10.9462
▁музыки	-10.9462
▁темп	-10.9463
▁Видео	-10.9463
man	-10.9463
▁аккаунт	-10.9466
▁федеральной	-10.9466
▁плеч	-10.9467
ушки	-10.947
▁пилота	-10.947
▁официальны	-10.9471
▁Результаты	-10.9471
▁существуют	-10.9472
▁беспилотник	-10.9474
▁супруга	-10.9475
▁крупного	-10.9476
тр	-10.9481
▁сбил	-10.9481
▁новому	-10.9481
▁этаже	-10.9481
ившего	-10.9483
▁собственность	-10.9486
▁видом	-10.949
елен	-10.9492
▁запрещен	-10.9494
▁журналиста	-10.9494
несла	-10.9495
шт	-10.9498
▁температур	-10.9499
▁взыскани	-10.9501
▁прошедше	-10.9502
▁словами	-10.9504
▁фигурант	-10.9511
▁проспекте	-10.9519
газ	-10.9519
▁Иль	-10.9519
▁клубе	-10.952
▁Берлине	-10.9522
▁упала	-10.9524
▁Герман	-10.9526
▁играют	-10.9527
▁Происшествия	-10.9529
▁УМВД	-10.9529
▁диагноз	-10.9529
▁кораблей	-10.9529
▁принадлежат	-10.9529
▁редакции	-10.9529
▁резонанс	-10.9529
▁половину	-10.9529
▁Ливии	-10.9529
▁справиться	-10.9529
▁Канады	-10.9529
▁пределы	-10.9529
▁снижению	-10.9531
▁сильный	-10.9531
▁1999	-10.9532
▁заявляет	-10.9533
▁отечественных	-10.9535
▁вызвало	-10.9536
▁вывел	-10.9537
▁Амурской	-10.9538
сона	-10.9539
▁позвонил	-10.9539
▁Бог	-10.954
▁устойчив	-10.9541
▁финансово	-10.9542
▁членами	-10.9543
bo	-10.9546
▁аспект	-10.9546
ложили	-10.9548
▁разрешен	-10.955
▁статью	-10.9551
хватил	-10.9555
▁Дж	-10.9555
чел	-10.9556
▁Много	-10.9557
▁обуча	-10.9558
▁перемен	-10.9558
▁командир	-10.9559
▁организациями	-10.9559
мель	-10.956
▁(20	-10.9561
▁неизвестные	-10.9563
▁билеты	-10.9565
▁отдал	-10.9566
орд	-10.957
▁клубов	-10.9572
▁американском	-10.9573
▁московском	-10.9573
▁занимался	-10.9573
▁глубок	-10.9573
▁ворот	-10.9574
нис	-10.9575
▁темы	-10.9576
АК	-10.9577
▁перехода	-10.9582
▁следствием	-10.9585
▁найдены	-10.9585
зданию	-10.9587
тепл	-10.9587
релизе	-10.9591
▁принятие	-10.9591
▁награды	-10.9597
01	-10.9597
щие	-10.9599
сет	-10.9599
▁попала	-10.9599
▁Верховного	-10.9602
▁капитан	-10.9602
работать	-10.9606
▁акцент	-10.9607
▁вовремя	-10.9607
▁оркестр	-10.9607
▁нынешний	-10.9607
▁последнем	-10.9607
▁стремительно	-10.9607
водится	-10.9608
▁уволен	-10.9608
▁основная	-10.9609
▁МГУ	-10.9609
▁повреждения	-10.961
▁психолог	-10.961
▁Мэр	-10.9612
ходили	-10.9612
▁западные	-10.9613
▁просил	-10.9616
▁рекламы	-10.9617
чник	-10.9619
42	-10.962
▁отрицательн	-10.962
▁Курс	-10.962
▁баллов	-10.9622
▁исполнительной	-10.9626
▁событие	-10.9628
▁убор	-10.9629
▁медицински	-10.9629
▁54	-10.963
▁оказывать	-10.963
льф	-10.9632
▁отлично	-10.9635
перед	-10.9635
▁77	-10.9635
вари	-10.9635
▁организаторов	-10.9636
▁снега	-10.9638
Ко	-10.9638
▁прогресс	-10.9641
▁24"	-10.9642
▁экологии	-10.9645
▁палата	-10.9646
▁внимательно	-10.9647
▁приостановлен	-10.9652
▁темпы	-10.966
писать	-10.9662
▁вступления	-10.9662
▁противник	-10.9663
▁призыв	-10.9666
▁мирного	-10.9669
▁Ro	-10.967
силь	-10.9671
▁обязаны	-10.9671
▁следственно	-10.9673
▁рак	-10.9674
зия	-10.9677
▁зарплату	-10.9677
▁Морозов	-10.9678
Транс	-10.9678
▁зона	-10.9679
профессионал	-10.9685
▁Памфилова	-10.9686
▁внедорожник	-10.9686
▁академик	-10.9686
▁подготовка	-10.9686
▁реакции	-10.9686
▁требовал	-10.9686
▁премию	-10.9686
▁уехал	-10.9686
▁преимущественно	-10.9687
▁делали	-10.9687
▁помогают	-10.9687
▁медики	-10.9688
▁Эрдогана	-10.9688
▁впечатление	-10.9688
▁материально	-10.9689
▁кредитор	-10.9689
▁четвертый	-10.9691
go	-10.9693
▁разработать	-10.9693
яют	-10.9694
гиб	-10.9696
▁приобретение	-10.9698
▁неправильно	-10.9698
all	-10.9702
▁кинотеатр	-10.9703
аров	-10.9704
▁поставили	-10.9705
▁учитель	-10.9706
▁подробно	-10.9707
▁методик	-10.9708
▁Фе	-10.9712
un	-10.9716
▁народов	-10.9716
ающей	-10.9717
▁выходить	-10.9722
▁Том	-10.9724
▁Лун	-10.9726
пустил	-10.973
▁мини	-10.973
▁судебного	-10.9731
▁защищать	-10.9734
▁спад	-10.9734
▁подтвердила	-10.9734
▁единого	-10.9736
▁музыкант	-10.9737
пресс	-10.9738
нке	-10.9738
▁теннис	-10.9738
▁трети	-10.9741
▁Кра	-10.9742
▁наступление	-10.9744
гас	-10.9744
сия	-10.9744
▁ресурсы	-10.9744
▁препарата	-10.9746
▁Дер	-10.9748
▁займет	-10.9748
това	-10.9749
сот	-10.9749
вок	-10.9751
влечь	-10.9751
оруж	-10.9755
▁газо	-10.9757
▁студенты	-10.9759
спикер	-10.9764
▁Toyota	-10.9765
▁Вьетнам	-10.9765
▁Дальнего	-10.9765
▁инфляция	-10.9765
▁коллекции	-10.9765
▁наблюдателей	-10.9765
▁домашний	-10.9765
▁поколение	-10.9765
▁молодежь	-10.9765
▁любых	-10.9765
▁карман	-10.9766
▁научных	-10.9766
▁высше	-10.9767
▁признают	-10.9767
▁погода	-10.9771
▁перешел	-10.9771
▁огромное	-10.9772
▁Кот	-10.9772
▁возвращение	-10.9773
тики	-10.9776
▁Ситуация	-10.9776
▁Министерств	-10.9777
▁кладбище	-10.9779
▁спектакль	-10.9779
▁атаку	-10.9781
▁новыми	-10.9783
▁государственным	-10.9784
▁оборон	-10.9785
▁ударил	-10.9785
ступает	-10.9787
▁автобуса	-10.9792
▁дав	-10.9796
▁кандидатуру	-10.9797
▁важный	-10.9799
▁предполагается	-10.98
▁специальны	-10.9801
водить	-10.9803
▁аналогичным	-10.9804
▁охранник	-10.9804
32	-10.9804
▁бригады	-10.9807
▁снимать	-10.9808
чков	-10.9811
▁завершил	-10.9811
▁цикл	-10.9815
▁штрафов	-10.9815
ill	-10.9818
шан	-10.9821
шем	-10.9822
▁стихи	-10.9825
▁общее	-10.9827
▁оператора	-10.9828
▁кинематограф	-10.984
Ин	-10.9841
▁шли	-10.9842
квартир	-10.9844
▁Анастасия	-10.9845
▁кубометров	-10.9845
▁отсутствии	-10.9845
▁полицией	-10.9845
▁православно	-10.9845
▁степень	-10.9845
▁Плюс	-10.9845
▁отвечал	-10.9845
▁Наконец	-10.9845
▁ВИЧ	-10.9845
▁пределах	-10.9845
▁Почти	-10.9845
▁краю	-10.9846
▁вооружение	-10.9846
▁1998	-10.9848
▁пистолет	-10.985
▁посетить	-10.9851
жит	-10.9852
▁Поскольку	-10.9853
-1"	-10.9853
▁включает	-10.9854
▁расширение	-10.9856
берг	-10.9857
▁продан	-10.9857
опа	-10.9858
▁отечественного	-10.9858
▁силовых	-10.9859
▁возбуждени	-10.986
ющегося	-10.9863
▁материала	-10.9865
▁перестал	-10.9866
▁архив	-10.9869
02	-10.9876
FA	-10.9876
▁идее	-10.9876
▁развиваться	-10.9877
▁располагает	-10.9881
▁цифра	-10.9881
праве	-10.9882
▁пенсионеров	-10.9882
▁Мер	-10.9882
▁Минздрав	-10.9884
▁оценка	-10.9884
▁бумаги	-10.9891
▁планируем	-10.9891
▁христиан	-10.9893
▁Меня	-10.9895
▁тонк	-10.9897
▁уголовной	-10.99
▁скандала	-10.9904
шую	-10.9906
▁называем	-10.9906
▁пас	-10.9907
▁ставит	-10.9907
нное	-10.9911
▁инвалид	-10.9912
▁существу	-10.9912
▁Сама	-10.9913
▁St	-10.9913
▁британской	-10.9914
▁отрыв	-10.9915
▁соревнованиях	-10.9915
▁имеется	-10.9916
▁вел	-10.9916
▁самому	-10.9917
чили	-10.9917
▁минимума	-10.9918
▁Зо	-10.992
▁74	-10.9922
▁мягк	-10.9922
▁участникам	-10.9923
▁военном	-10.9923
▁угол	-10.9924
рот	-10.9925
▁Ак	-10.9925
▁International	-10.9926
▁Роскомнадзор	-10.9926
▁выяснить	-10.9926
▁совещания	-10.9926
▁Скорее	-10.9926
▁серьезный	-10.9926
▁поблагодарил	-10.9926
▁группировок	-10.9926
▁обязанностей	-10.9926
▁десятилетия	-10.9926
▁урегулированию	-10.9926
пром	-10.9926
▁смен	-10.9927
▁снизились	-10.9927
▁помогать	-10.9928
▁съезд	-10.9928
▁категорически	-10.9928
▁Важно	-10.993
▁рассказать	-10.9931
▁Генеральны	-10.9932
▁сертификат	-10.9933
▁парламентских	-10.9933
os	-10.9933
▁пользуются	-10.9934
тал	-10.9935
▁Стивен	-10.9938
▁контрактов	-10.9939
▁ресурса	-10.994
▁варианты	-10.9942
▁национальных	-10.9942
▁предоставил	-10.9943
▁устроил	-10.9945
▁активисты	-10.9951
▁предполагаем	-10.9956
▁усилить	-10.9957
▁Маркин	-10.996
▁противника	-10.9961
▁тел	-10.9961
▁задачу	-10.9961
▁сведениям	-10.9961
▁бригад	-10.9964
СП	-10.9966
вз	-10.9966
▁бюджете	-10.9966
▁ростом	-10.9966
▁кос	-10.9968
▁держав	-10.9968
▁запрещенных	-10.997
▁фонды	-10.9971
ода	-10.9974
▁представила	-10.9975
▁законов	-10.9977
▁Ер	-10.9982
▁инвестор	-10.9983
Зенита	-10.9985
▁рот	-10.9985
▁яр	-10.9985
▁бывшим	-10.9987
0%	-10.999
▁Бут	-10.999
▁требованием	-10.9995
шь	-10.9995
▁правом	-10.9996
елей	-10.9996
▁школьн	-10.9998
емая	-11.0004
▁пожалуй	-11.0006
▁называл	-11.0007
▁мурманчан	-11.0007
▁станций	-11.0007
▁Сандерс	-11.0007
▁заказ	-11.0007
дут	-11.0008
▁In	-11.0008
▁беседе	-11.0008
▁Корея	-11.0008
США	-11.0008
ha	-11.0009
гром	-11.001
▁возврат	-11.0011
▁прочих	-11.0011
держать	-11.0012
▁работающих	-11.0013
▁турецкие	-11.0013
▁приятно	-11.0014
итесь	-11.0015
▁Последний	-11.0015
▁Титов	-11.0017
СС	-11.0018
▁огромный	-11.0019
Кор	-11.0022
▁матчи	-11.0025
▁карьеры	-11.0025
▁68	-11.0027
▁поверхности	-11.0027
бург	-11.0029
▁качественны	-11.003
▁задержании	-11.0031
лаб	-11.0031
-2018	-11.0034
▁применение	-11.0034
вшуюся	-11.0035
▁обязательны	-11.0037
▁квот	-11.0037
▁Константина	-11.0038
▁снимал	-11.0038
ельского	-11.0041
▁знания	-11.0043
крыть	-11.0044
▁счетов	-11.0045
▁350	-11.0045
▁Восток	-11.0047
ИК	-11.0048
актив	-11.0048
▁сек	-11.0048
▁уходит	-11.0048
85	-11.0049
▁Генеральн	-11.005
▁обвинили	-11.0056
▁нагрузки	-11.0056
▁Ислам	-11.0059
▁терроризм	-11.0059
▁командиров	-11.0062
ga	-11.0063
нными	-11.0065
▁налоги	-11.0069
▁специализирован	-11.0069
▁агентств	-11.007
▁жилой	-11.0071
▁технических	-11.0075
ставляют	-11.0077
▁популярность	-11.0078
Й	-11.0078
этажно	-11.0081
▁Крис	-11.0082
▁туристически	-11.0083
▁Олимпийски	-11.0084
уже	-11.0085
▁решит	-11.0089
▁допустим	-11.0089
▁обойдется	-11.0089
▁подразделений	-11.0089
▁сигарет	-11.0089
▁аренды	-11.0089
▁способствовать	-11.0089
▁песню	-11.0089
▁украинцев	-11.0089
▁директором	-11.009
щую	-11.0091
▁поднять	-11.0093
даль	-11.0093
▁назначение	-11.0096
▁Тимур	-11.0097
▁сериала	-11.0098
▁взносов	-11.0098
▁служебно	-11.0099
▁государственн	-11.0099
▁Эту	-11.0099
дели	-11.0099
▁Великобритания	-11.01
дачу	-11.0102
ритейлер	-11.0106
▁транспорте	-11.0107
для	-11.0111
▁ограничить	-11.0113
▁обвал	-11.0113
тия	-11.0118
▁соседни	-11.0122
▁творчески	-11.0123
▁фур	-11.0124
сказ	-11.0125
▁смысла	-11.0126
▁собира	-11.0129
▁призыва	-11.0131
▁эконом	-11.0132
▁морской	-11.0141
▁разговора	-11.0141
▁привод	-11.0142
▁огне	-11.0143
Голос	-11.0145
▁ящик	-11.0146
▁запись	-11.0147
he	-11.0147
▁просмотр	-11.0147
▁запретили	-11.0149
▁футбольны	-11.0149
ашей	-11.0152
▁местном	-11.0163
одно	-11.0163
▁фа	-11.0164
▁подтвержден	-11.0164
▁73	-11.0164
▁заметили	-11.0168
ight	-11.0171
▁Руководство	-11.0172
▁корпорация	-11.0172
▁пенсию	-11.0172
▁перевозки	-11.0172
▁перевозок	-11.0172
▁понимание	-11.0172
▁Прежде	-11.0172
▁учений	-11.0172
▁пребывания	-11.0172
▁громко	-11.0172
▁радикальны	-11.0175
▁общественности	-11.0175
▁похорон	-11.0178
▁потенциально	-11.0178
▁встретиться	-11.0179
▁трудности	-11.0183
ставлять	-11.0184
▁пункты	-11.0185
▁вручил	-11.0185
гли	-11.0185
▁числу	-11.0185
▁прорыв	-11.0186
▁сидел	-11.0187
▁Советск	-11.0191
▁Ближнем	-11.0195
▁Витали	-11.0195
▁Ты	-11.0195
▁Лар	-11.0196
▁вывоз	-11.0196
▁звон	-11.0196
▁внезапно	-11.0198
▁техническо	-11.02
АО	-11.0201
▁шаги	-11.0203
▁сотен	-11.0206
▁транспортной	-11.0207
▁антироссийски	-11.021
▁Григорий	-11.0211
▁сухо	-11.0212
▁сменил	-11.0212
54	-11.0216
▁кровь	-11.022
▁ночно	-11.022
▁узнали	-11.0223
▁удовлетворен	-11.0224
▁начальн	-11.0227
▁располага	-11.0228
нда	-11.0231
▁Лондона	-11.0231
▁дач	-11.0232
▁опубликовано	-11.0235
спор	-11.0239
▁шел	-11.024
▁Город	-11.0243
энд	-11.0246
▁Минск	-11.0246
▁Иркутск	-11.025
▁спикера	-11.025
▁сирийском	-11.0252
▁плав	-11.0254
▁Силуанов	-11.0255
▁кампания	-11.0255
▁корабль	-11.0255
▁традиция	-11.0255
▁Таиланд	-11.0255
▁уровню	-11.0255
▁китайских	-11.0255
▁Вскоре	-11.0255
▁Смирнов	-11.0255
▁руководителем	-11.0255
▁гибель	-11.0255
▁тендер	-11.0255
▁надеюсь	-11.0255
▁сомнения	-11.0255
▁Большой	-11.0255
▁чудо	-11.0255
▁заявляют	-11.0256
▁вдоль	-11.0256
▁выгодно	-11.0257
▁велосипед	-11.0257
34	-11.0259
▁вижу	-11.026
▁явление	-11.026
▁предложить	-11.026
▁способен	-11.0262
▁чемпионом	-11.0262
Так	-11.0262
▁теми	-11.0264
▁турист	-11.0267
▁Самарской	-11.0267
▁финансовым	-11.0267
▁71	-11.0267
▁знамениты	-11.0268
▁жизнью	-11.0268
▁Георгий	-11.027
▁содержится	-11.0271
▁двигатель	-11.0271
ированы	-11.0271
▁особенности	-11.0272
▁креп	-11.0276
▁омбудсмен	-11.0276
-2016"	-11.0279
тил	-11.0281
▁дилер	-11.0283
▁решено	-11.0288
ивших	-11.0291
ателей	-11.0291
▁IT	-11.0295
▁аргумент	-11.0296
▁160	-11.0296
▁соседне	-11.0301
▁удобн	-11.0303
j	-11.0304
уров	-11.0304
як	-11.0307
▁хватит	-11.0308
▁действующе	-11.031
▁забот	-11.031
▁книгу	-11.0312
▁шин	-11.0314
▁месяце	-11.0318
▁зарплата	-11.0318
▁оценивал	-11.0319
▁секретаря	-11.0321
▁президентской	-11.0322
▁Бри	-11.0324
▁повторя	-11.0327
▁такому	-11.0328
▁мощность	-11.0329
▁коммерческ	-11.0329
▁Лин	-11.0331
▁Пен	-11.0333
▁Яр	-11.0334
▁увидели	-11.0335
Джебхат	-11.0339
▁Израиль	-11.0339
▁император	-11.0339
▁ребенком	-11.0339
▁пенсий	-11.0339
▁лагере	-11.0339
▁Одновременно	-11.0339
▁полигон	-11.0339
▁обещают	-11.0339
▁гриб	-11.0339
▁производственны	-11.0339
▁соратник	-11.034
▁пересечени	-11.034
очек	-11.0342
▁педагог	-11.0343
инском	-11.0343
▁лишение	-11.0343
▁оперативны	-11.0345
▁Труд	-11.0347
▁страниц	-11.0347
▁приходит	-11.0348
▁Руси	-11.0348
▁Пожар	-11.0349
▁законы	-11.0349
▁красиво	-11.035
▁вывода	-11.035
▁Це	-11.0355
енное	-11.0355
▁активистов	-11.0356
▁турецкой	-11.0356
▁экстренны	-11.0358
▁Верховны	-11.036
▁знаете	-11.036
▁Кавказ	-11.0361
▁ухода	-11.0365
нат	-11.0365
авших	-11.0365
▁пациента	-11.0367
▁преступник	-11.0372
▁вариантов	-11.0373
▁выбрали	-11.0376
▁мандат	-11.0381
фу	-11.0381
▁работники	-11.0381
гул	-11.0382
▁пир	-11.0382
лян	-11.0384
▁районы	-11.0384
очного	-11.0385
Аэрофлот	-11.0386
лас	-11.0386
▁привела	-11.0387
▁стадионе	-11.0388
-5	-11.0393
▁платеж	-11.0393
Ра	-11.0395
▁посвященны	-11.0395
▁известные	-11.0396
▁купил	-11.0396
▁задержанных	-11.0396
док	-11.0397
▁интернета	-11.0399
▁стр	-11.0399
▁Красной	-11.04
▁общественно	-11.04
▁воздухе	-11.0401
▁прогнозирует	-11.0402
чес	-11.0407
▁несет	-11.0409
▁Луганск	-11.0412
▁отверг	-11.0413
▁соперник	-11.0413
▁возможны	-11.0415
▁Авто	-11.0416
▁полеты	-11.0417
▁заявлен	-11.0417
▁открытым	-11.0417
▁гуманитарно	-11.0418
лично	-11.0418
▁мотив	-11.0419
▁La	-11.0419
▁аналогично	-11.0422
▁мобильн	-11.0423
▁бассейн	-11.0424
▁повлиял	-11.0424
▁поддержкой	-11.0424
▁правоохранители	-11.0424
▁Bank	-11.0424
▁Киргизии	-11.0424
▁собственный	-11.0424
▁композитор	-11.0424
▁закупок	-11.0424
▁мяса	-11.0424
▁заявок	-11.0424
▁освободить	-11.0424
▁Пострадавш	-11.0424
▁герой	-11.0424
▁сырья	-11.0425
▁Свои	-11.0426
▁нашими	-11.0428
▁балла	-11.0428
▁десят	-11.0431
пост	-11.0431
▁меняется	-11.0432
▁Интересно	-11.0433
▁будущи	-11.0433
▁войти	-11.0434
▁задачей	-11.0436
▁Рак	-11.0436
▁критику	-11.0436
▁спин	-11.0437
▁Тверской	-11.0437
▁сердечно	-11.0438
▁Против	-11.0439
▁владеет	-11.044
Ха	-11.0443
▁планета	-11.0447
дается	-11.0452
▁университете	-11.0455
ni	-11.0457
▁основу	-11.046
вос	-11.0461
▁очередн	-11.0462
▁Фо	-11.0463
▁эпохи	-11.0464
▁Семен	-11.0465
▁Петербург	-11.0467
▁Яценюк	-11.0472
▁альянс	-11.0472
SA	-11.0475
▁Немцова	-11.0475
▁боли	-11.0477
▁размещение	-11.048
▁минувши	-11.048
яет	-11.048
ющимся	-11.0482
▁тарифы	-11.0485
орган	-11.0488
▁использует	-11.0491
▁лент	-11.0493
▁какого	-11.0494
▁отбор	-11.0495
▁совершили	-11.0496
▁Дон	-11.0497
▁населенн	-11.0498
▁приговора	-11.05
04	-11.0503
▁возможное	-11.0506
▁талант	-11.0508
очных	-11.0508
▁Патриарх	-11.0509
▁каждая	-11.0509
▁коэффициент	-11.0509
▁нынешних	-11.0509
▁соответствующих	-11.0509
▁разработку	-11.0509
▁разумеется	-11.0509
▁проверок	-11.0509
▁угодно	-11.0509
▁Финансы	-11.0509
▁китайской	-11.0509
▁отмечал	-11.0509
▁подарок	-11.0509
▁управляющий	-11.0509
▁Федоров	-11.051
▁представлять	-11.051
▁сцены	-11.0511
▁Pro	-11.0512
▁стены	-11.0515
овской	-11.0517
▁представления	-11.0518
Ст	-11.0518
▁Дан	-11.0518
▁3%	-11.052
▁исполнитель	-11.052
▁вреда	-11.0521
Газеты	-11.0523
▁60%	-11.0524
▁прошлый	-11.0527
▁зон	-11.0528
жин	-11.053
▁Челябинской	-11.053
▁моего	-11.0533
▁пары	-11.0534
▁изданию	-11.0537
▁километрах	-11.0538
▁используются	-11.054
▁решен	-11.0542
ивать	-11.0542
хоз	-11.0545
▁поп	-11.0546
летию	-11.0547
▁смотр	-11.0548
▁черн	-11.0551
▁французского	-11.0553
▁колеса	-11.0554
▁похож	-11.0556
▁жилого	-11.0558
▁возможной	-11.0558
▁(+	-11.056
▁Кубк	-11.056
▁округу	-11.0561
▁Сав	-11.0562
▁прекрасн	-11.0565
▁комплексов	-11.0566
▁секс	-11.0567
▁секунды	-11.0569
▁доверие	-11.0571
▁тре	-11.0575
▁пропуска	-11.0577
▁заявляли	-11.0578
РК	-11.0578
Ал	-11.0578
▁производителя	-11.0579
▁территориальн	-11.0581
▁Всероссийск	-11.0587
▁ракетны	-11.0588
▁угроз	-11.0589
▁норматив	-11.059
▁диалога	-11.0591
▁Алекс	-11.0593
Ак	-11.0594
▁почетн	-11.0594
▁Раньше	-11.0595
▁двоих	-11.0595
▁заболевание	-11.0595
▁согласен	-11.0595
▁обвиняемого	-11.0595
▁взаимодействие	-11.0595
▁Франк	-11.0596
▁оказания	-11.0596
▁нелегальны	-11.0596
▁расширить	-11.0596
▁сотрудничать	-11.0597
43	-11.0598
▁любил	-11.0598
▁нуждается	-11.0598
▁преодоле	-11.0599
▁распространения	-11.06
▁обращаться	-11.0602
▁Нико	-11.0602
▁ман	-11.0603
▁4,5	-11.0604
▁чай	-11.0606
▁представляющи	-11.0608
▁управлять	-11.061
▁ветеранов	-11.0615
▁посольство	-11.0615
▁5-	-11.0616
▁квартира	-11.0617
▁персональны	-11.0618
▁Где	-11.0621
▁Новгород	-11.0621
▁пакета	-11.0623
▁сдать	-11.0626
▁физической	-11.0628
▁руками	-11.063
▁владельцы	-11.0631
▁оценивают	-11.0631
▁встретил	-11.0633
▁соблюдать	-11.0633
▁националист	-11.0634
▁стрельбы	-11.0635
▁соблюдение	-11.0635
320	-11.0637
▁погодны	-11.0637
Рубин	-11.0638
▁зим	-11.0645
▁продолжаются	-11.0648
информ	-11.0649
▁нож	-11.065
▁Были	-11.0652
▁победой	-11.0654
▁уступ	-11.0654
▁карту	-11.0654
ования	-11.0656
▁адресу	-11.0659
Из	-11.0661
▁правяще	-11.0661
▁дефицита	-11.0663
нимая	-11.0666
▁Америка	-11.0667
53	-11.0673
шир	-11.0676
▁мощно	-11.0677
▁Депутаты	-11.0677
▁злоумышленник	-11.0679
▁действующим	-11.068
▁бомбы	-11.068
▁Нидерландов	-11.0682
▁интеграции	-11.0682
▁обусловлен	-11.0682
▁сложнее	-11.0682
▁Пакистан	-11.0682
▁Рогозин	-11.0682
▁отрасль	-11.0682
▁любят	-11.0682
▁оттуда	-11.0682
▁сексуально	-11.0683
▁организованно	-11.0683
▁полутора	-11.0683
▁Ford	-11.0683
▁стресс	-11.0684
▁Гра	-11.0686
▁охране	-11.0686
▁Причина	-11.0687
▁Питер	-11.0689
▁журнале	-11.0689
▁Баб	-11.069
клуб	-11.069
▁Татарстана	-11.0691
▁подан	-11.0692
▁обвиняется	-11.0693
▁сняты	-11.0695
ell	-11.0695
▁приложения	-11.0696
▁Жен	-11.0697
▁Аркадий	-11.0697
вка	-11.0697
авшие	-11.0698
▁выпущен	-11.0701
▁готовятся	-11.0702
▁отставки	-11.0703
▁рассказ	-11.0704
▁агент	-11.0704
▁библиотек	-11.0707
▁закупки	-11.0709
▁проч	-11.0709
ходят	-11.071
▁называемой	-11.0711
тека	-11.0712
дам	-11.0713
▁арестовал	-11.0714
▁слухи	-11.0714
▁Всероссийско	-11.0717
▁эк	-11.0717
премьера	-11.0721
▁создают	-11.0721
▁героин	-11.0723
▁филиала	-11.0723
▁вызвала	-11.0724
▁преврати	-11.0726
▁банкротства	-11.0728
▁Тай	-11.073
▁возможном	-11.0732
▁тигр	-11.0733
ry	-11.0733
льной	-11.0734
▁Минюст	-11.0735
▁хлеб	-11.0735
▁каждым	-11.0737
▁нарко	-11.0738
▁1,4	-11.0739
рск	-11.0742
▁застройщик	-11.0743
явлен	-11.0744
▁задержала	-11.0745
▁Дагестана	-11.0747
▁территориях	-11.075
▁180	-11.0753
▁единоросс	-11.0756
▁смотрел	-11.0756
▁показателя	-11.0757
▁ведения	-11.0758
▁кофе	-11.0761
▁комментиру	-11.0761
оенная	-11.0765
▁прописан	-11.0766
вались	-11.0767
Коммерсант	-11.077
Нафтогаз	-11.077
▁Аксенов	-11.077
▁Африки	-11.077
▁останутся	-11.077
▁происхождения	-11.077
▁реакция	-11.077
▁хищении	-11.077
▁музыку	-11.077
▁недавни	-11.077
▁выручки	-11.077
▁мультфильм	-11.077
▁Анкара	-11.077
▁нехватк	-11.077
▁изделия	-11.077
▁Женщина	-11.077
▁мешает	-11.0771
▁молоко	-11.0772
▁родину	-11.0773
▁разу	-11.0774
▁грант	-11.0775
▁Хам	-11.0775
▁персонал	-11.0776
▁глазах	-11.0776
▁американская	-11.0777
▁выделить	-11.0777
▁Мел	-11.0781
▁добавить	-11.0781
▁чувствует	-11.0783
ывая	-11.0784
рский	-11.0784
tra	-11.0784
▁Зика	-11.0784
▁сохранения	-11.0788
▁полную	-11.0788
▁Ген	-11.0794
▁ранен	-11.0795
▁предоставления	-11.0795
▁блогер	-11.0795
▁обзор	-11.0795
Банк	-11.0797
▁p	-11.0798
▁тяжелой	-11.0799
▁кредита	-11.08
▁фраз	-11.0801
▁органа	-11.0804
▁хит	-11.0805
▁действиями	-11.0811
▁удовлетворил	-11.0811
▁Донбасс	-11.0815
▁Кос	-11.0816
▁предлагал	-11.0819
▁оформлен	-11.0819
▁объемом	-11.0821
▁вывести	-11.0821
▁врезал	-11.0821
▁осв	-11.0822
▁пунктах	-11.0823
▁поход	-11.0823
▁Людмила	-11.0824
▁Коро	-11.0825
▁обсуждают	-11.0826
▁Общественн	-11.0826
рно	-11.0828
▁странно	-11.0828
МС	-11.083
▁телефона	-11.0832
▁материалах	-11.0833
▁больниц	-11.0834
▁рейсы	-11.0835
▁военное	-11.0836
▁Крас	-11.0839
▁дворе	-11.084
▁фестивале	-11.0841
▁Ана	-11.0842
▁признакам	-11.0843
▁доста	-11.0845
Ли	-11.0846
▁ключ	-11.0847
▁практику	-11.0851
▁количестве	-11.0851
▁обнародован	-11.0852
▁Ростов	-11.0852
▁музыка	-11.0853
Чер	-11.0854
▁понрави	-11.0857
▁рейтингов	-11.0858
▁Android	-11.0859
▁Кэмерон	-11.0859
▁Тегеран	-11.0859
▁полугодии	-11.0859
▁неподалеку	-11.0859
▁архитектор	-11.0859
▁счастью	-11.0859
▁зерна	-11.0859
▁ищут	-11.0859
▁обещает	-11.0859
▁Кубок	-11.0859
▁Томас	-11.0861
▁легче	-11.0861
▁служебны	-11.0862
▁выдвинул	-11.0862
▁незаконным	-11.0862
жели	-11.0863
▁собрались	-11.0863
▁региональные	-11.0863
совершеннолетних	-11.0865
▁проведут	-11.0865
▁Никто	-11.0865
ложения	-11.0868
▁защищен	-11.0868
ведут	-11.0868
▁серия	-11.0869
▁писать	-11.0869
▁проводили	-11.0869
▁Общая	-11.0869
▁отменен	-11.0875
▁заключении	-11.088
▁разруш	-11.0887
шкин	-11.0887
вард	-11.0889
hi	-11.0889
атора	-11.089
ставят	-11.0891
▁элементов	-11.0893
лла	-11.0895
▁пробы	-11.0895
▁двига	-11.0896
▁Гл	-11.0898
▁дым	-11.0899
▁повторно	-11.0899
▁практики	-11.09
▁совершения	-11.0903
▁разно	-11.0904
▁птиц	-11.0906
▁покажет	-11.0908
БР	-11.0909
▁суды	-11.091
▁Мус	-11.0912
▁головой	-11.0914
▁желт	-11.0918
рва	-11.092
▁продлен	-11.0924
▁пережив	-11.0924
▁Vi	-11.0927
гло	-11.0928
▁осуществлять	-11.093
▁имеющих	-11.093
▁здрав	-11.0931
▁12-	-11.0932
▁раненых	-11.0933
▁принципиально	-11.0934
▁повтор	-11.0936
гро	-11.0937
▁подчеркнули	-11.0941
▁Лен	-11.0943
▁нерв	-11.0945
▁крупнейше	-11.0946
▁оценили	-11.0946
▁собеседника	-11.0946
▁весом	-11.0947
▁апелляционн	-11.0948
▁очевидцев	-11.0948
▁сведений	-11.0948
▁сложных	-11.0948
▁спектакля	-11.0948
▁Полицейские	-11.0948
▁Сколько	-11.0948
▁современные	-11.0948
▁пищев	-11.0948
ъезд	-11.0948
▁гранат	-11.0948
▁зеркал	-11.0949
▁украинская	-11.0949
41	-11.0949
▁согласились	-11.095
▁приостановил	-11.095
▁Bo	-11.0951
▁обеспечению	-11.0952
РА	-11.0953
2%	-11.0953
▁французско	-11.0956
▁Кандидат	-11.0956
▁крут	-11.0957
▁УЕФА	-11.0957
▁Первое	-11.0957
▁взяты	-11.0957
▁телеканалу	-11.0958
▁получен	-11.0959
▁бал	-11.096
77	-11.0961
▁смотрит	-11.0961
▁Часть	-11.0961
▁указан	-11.0962
гат	-11.0963
морского	-11.0963
▁полученные	-11.0964
▁отлича	-11.0964
▁продовольственн	-11.0964
▁сложной	-11.0965
▁Сар	-11.0966
ьная	-11.0966
▁выборами	-11.0968
▁поддержани	-11.0968
▁рез	-11.0968
▁захват	-11.097
▁900	-11.0974
▁отменил	-11.0975
▁худ	-11.0975
▁ровно	-11.0976
▁автономн	-11.0977
▁уровнем	-11.0978
▁кредиторов	-11.0979
▁претендентов	-11.098
▁жест	-11.0982
▁персонала	-11.0984
per	-11.0986
▁едино	-11.0987
▁случая	-11.0988
▁Общественно	-11.0992
▁автоматическ	-11.0992
То	-11.0993
▁встал	-11.0994
▁пространстве	-11.0994
▁Михайлов	-11.0995
рина	-11.0995
резать	-11.0997
▁вооруженные	-11.0997
Под	-11.1
полне	-11.1
▁61	-11.1002
▁пограничн	-11.1003
лак	-11.1004
▁особого	-11.1005
даст	-11.1006
▁Реш	-11.1012
▁Ол	-11.1013
чения	-11.1015
эк	-11.1015
▁эфир	-11.1017
▁ею	-11.1018
ковский	-11.1019
▁Авторы	-11.102
▁музыкально	-11.1028
▁нулев	-11.1028
хал	-11.103
▁Нового	-11.1031
▁визитом	-11.1031
Интерфаксу	-11.1031
▁мальчика	-11.1032
▁привык	-11.1035
▁Американски	-11.1036
Огонек	-11.1038
▁Касьянов	-11.1038
▁внешних	-11.1038
▁предыдущих	-11.1038
▁просьбе	-11.1038
▁горячи	-11.1038
▁посадку	-11.1038
▁повысил	-11.1038
▁похитил	-11.1038
▁Культура	-11.1038
▁победителей	-11.1039
▁Лос	-11.1039
▁защита	-11.104
▁завершилась	-11.1041
▁аудитории	-11.1041
▁развивается	-11.1043
▁сегменте	-11.1045
75	-11.1045
▁1,3	-11.1048
службу	-11.1048
▁Рай	-11.1048
▁подозревает	-11.1048
▁Давид	-11.105
▁Орлов	-11.1051
пакет	-11.1052
▁История	-11.1052
▁неприят	-11.1052
▁государству	-11.1054
▁служил	-11.106
▁какими	-11.106
▁песен	-11.1061
▁быстр	-11.1061
▁сан	-11.1062
▁британски	-11.1065
▁Лес	-11.1066
▁меру	-11.1067
▁инвалидов	-11.1068
оценивается	-11.1069
▁давал	-11.1071
▁полномочиями	-11.1072
нули	-11.1073
63	-11.1075
▁Тим	-11.1077
▁боевиками	-11.1079
▁законодательн	-11.108
▁выиграла	-11.1082
▁усилий	-11.1085
▁указывают	-11.1086
▁заинтересованы	-11.1087
▁нагрузка	-11.1087
Платон	-11.1088
сам	-11.1089
▁60-	-11.1089
тянуть	-11.1091
▁запрещенн	-11.1094
▁банком	-11.1097
пытались	-11.1098
▁Военно	-11.1102
Би	-11.1104
▁представили	-11.1105
▁Смоленск	-11.1109
▁Росстата	-11.1109
▁Турецк	-11.111
▁называть	-11.1111
▁умеренн	-11.1112
▁подозревают	-11.1115
▁ряду	-11.1118
вей	-11.1119
▁a	-11.112
шку	-11.1122
▁статьям	-11.1122
▁отправили	-11.1124
▁полуострове	-11.1125
▁повышен	-11.1126
▁Гройсман	-11.1129
▁Режиссер	-11.1129
▁комиссию	-11.1129
▁мероприятии	-11.1129
▁предъявлено	-11.1129
▁продлить	-11.1129
▁тенденция	-11.1129
▁расследованию	-11.1129
▁Безопасности	-11.1129
▁ездить	-11.1129
▁вырасти	-11.1129
▁говорю	-11.1129
▁76	-11.1129
▁занимают	-11.113
▁пересмотреть	-11.1131
▁спектр	-11.1131
▁наблюдать	-11.1131
▁экологически	-11.1132
▁виноват	-11.1132
▁Степан	-11.1133
РТ	-11.1134
▁проник	-11.1134
▁Journal	-11.1134
▁Козлов	-11.1135
▁центры	-11.1135
▁пла	-11.1135
▁улица	-11.1136
▁частей	-11.1137
▁маршрута	-11.1137
бул	-11.1137
нице	-11.1138
▁голосовать	-11.1138
▁помещение	-11.114
▁Япония	-11.1141
летним	-11.1141
▁технически	-11.1142
▁Пра	-11.1143
▁участках	-11.1145
▁реальные	-11.1145
▁обеспечивает	-11.1145
▁фермер	-11.1151
▁Срок	-11.1152
▁билет	-11.1153
▁длительно	-11.1155
▁нарушает	-11.1157
▁Перми	-11.116
▁Эй	-11.1162
▁масс	-11.1164
▁результата	-11.1166
▁лидерами	-11.1168
▁портале	-11.117
летия	-11.1174
▁корпуса	-11.1174
▁патриарх	-11.1178
▁объединен	-11.1179
▁получали	-11.1179
▁колес	-11.1181
▁завис	-11.1184
▁and	-11.1184
▁фотограф	-11.1185
▁чувства	-11.1187
▁Узбекистан	-11.119
▁высот	-11.1191
▁снизил	-11.1198
▁преду	-11.12
▁Над	-11.1201
▁праздничн	-11.1204
▁прогнозам	-11.1206
▁весел	-11.1207
▁установлена	-11.1207
▁достигли	-11.1208
Мар	-11.1208
▁условиям	-11.1209
▁стрельб	-11.1209
▁классик	-11.1215
▁выступит	-11.1215
▁необходимым	-11.1216
▁лайнера	-11.1218
▁Башара	-11.1218
▁городом	-11.1219
▁компенсацию	-11.1221
▁лицензию	-11.1221
▁отклонил	-11.1221
▁ощущение	-11.1221
▁скульптур	-11.1221
▁нападении	-11.1221
▁Сербии	-11.1221
▁цирк	-11.1221
▁любую	-11.1221
▁обвиняемых	-11.1221
▁сделает	-11.1221
▁одноименн	-11.1222
▁разряд	-11.1222
▁разрешить	-11.1222
▁добиваться	-11.1222
▁Победител	-11.1223
▁являлся	-11.1225
▁защитника	-11.1226
▁Мас	-11.1227
▁проход	-11.1229
▁70%	-11.123
▁хорошая	-11.1231
▁огромные	-11.1232
▁упор	-11.1233
сматрива	-11.1234
▁увеличился	-11.1237
▁настаивает	-11.1239
▁высоте	-11.1239
▁Фар	-11.1245
ряду	-11.1248
▁обид	-11.1248
▁депозит	-11.1248
▁ван	-11.1249
▁10-	-11.1249
▁молодого	-11.125
▁достижение	-11.1252
▁РФС	-11.1252
▁запустить	-11.1253
▁клиента	-11.1254
▁экономическом	-11.1255
▁сторонники	-11.1256
▁выразили	-11.1256
▁ведутся	-11.1257
▁продолжал	-11.1258
▁грузовиков	-11.1259
▁украинском	-11.1259
▁взросл	-11.1259
▁Первым	-11.1261
ОВ	-11.1262
▁вылета	-11.1269
▁Другой	-11.1272
▁хим	-11.1273
ичный	-11.1273
▁Буш	-11.1274
ницей	-11.1278
▁оборудован	-11.128
od	-11.1281
▁магазины	-11.1282
▁Соответствующи	-11.1284
▁Мосул	-11.1284
▁Итог	-11.1284
эконом	-11.1284
▁сельхоз	-11.1285
▁исключен	-11.1288
▁88	-11.1289
▁законе	-11.1291
чке	-11.1293
▁глубин	-11.1294
стям	-11.1297
▁собирать	-11.1298
инвест	-11.1298
▁свободной	-11.1299
ho	-11.1301
▁Париж	-11.1305
▁коллектор	-11.1305
▁Мун	-11.1308
▁пришло	-11.1312
▁Башкирии	-11.1313
▁Брюсселя	-11.1313
▁Следователи	-11.1313
▁ОНФ	-11.1313
▁ПДД	-11.1313
▁казни	-11.1313
▁пьес	-11.1313
▁клетки	-11.1313
▁священник	-11.1313
скорб	-11.1314
▁горяче	-11.1314
▁русские	-11.1314
▁возможностями	-11.1314
▁увеличилась	-11.1314
▁долгое	-11.1315
иком	-11.1316
телями	-11.1316
▁угрожает	-11.1317
▁думск	-11.1317
▁полученн	-11.1317
свобод	-11.1318
▁гектаров	-11.1318
▁своеобразн	-11.1321
▁осмотр	-11.1322
▁победить	-11.1322
▁ищет	-11.1324
▁пересек	-11.1326
бег	-11.1326
▁спросил	-11.1328
▁последующе	-11.1331
ышев	-11.1332
▁согласия	-11.1334
губернатор	-11.1335
▁сократил	-11.1335
▁рассчитывают	-11.1336
▁неизвестный	-11.1336
up	-11.1338
мобильных	-11.134
▁другу	-11.134
▁билетов	-11.1341
Большая	-11.1342
ГА	-11.1343
бросить	-11.1344
▁конструктор	-11.1345
правится	-11.1345
▁финансовый	-11.1346
бывать	-11.1351
▁сход	-11.1352
▁Александру	-11.1353
▁палате	-11.1354
▁82	-11.1355
▁Гагарина	-11.1355
▁пуск	-11.1357
майор	-11.1357
▁политическим	-11.1359
▁злоупотреблени	-11.136
▁ВМС	-11.136
▁футболистов	-11.1362
▁мертв	-11.1362
политическая	-11.1364
▁морск	-11.1367
▁перерыв	-11.1372
▁владе	-11.1373
▁правовой	-11.1375
▁террористами	-11.1375
▁арбитражны	-11.1377
ллер	-11.1379
▁терминал	-11.1381
▁прекратил	-11.1381
▁норма	-11.1384
▁семьям	-11.1387
▁корм	-11.1388
▁кадр	-11.1389
▁контракты	-11.1391
ck	-11.1393
бивать	-11.1393
▁близким	-11.1395
▁внес	-11.1398
▁носил	-11.1403
▁берет	-11.1405
роб	-11.1405
▁банках	-11.1406
Benz	-11.1407
▁бульвар	-11.1407
▁голкипер	-11.1407
▁капремонт	-11.1407
▁предыдущего	-11.1407
▁прогремел	-11.1407
▁свидетелей	-11.1407
▁тяжести	-11.1407
▁хотите	-11.1407
▁Собеседник	-11.1407
▁лозунг	-11.1407
▁судьбу	-11.1407
▁выручка	-11.1407
▁люблю	-11.1407
▁нападающий	-11.1407
▁областей	-11.1407
▁мошенник	-11.1407
▁зритель	-11.1407
▁Lada	-11.1407
▁приступ	-11.1407
▁формирование	-11.1407
▁коммерческих	-11.1408
▁кредитны	-11.1408
▁возникают	-11.1408
▁отделении	-11.1409
▁III	-11.1409
▁Сборная	-11.1409
▁испытаний	-11.141
▁исключает	-11.141
▁следующие	-11.141
▁вернулись	-11.1411
▁выставлен	-11.1411
▁вызывают	-11.1413
▁укрепление	-11.1414
▁яйца	-11.1416
▁называемый	-11.1417
▁единой	-11.1418
▁веке	-11.1419
▁Нижнем	-11.1419
настоящему	-11.1419
▁лекарственны	-11.142
▁пря	-11.1421
▁Сумма	-11.1425
▁ключевой	-11.1427
▁Деньги	-11.1427
one	-11.1428
▁идей	-11.1429
нга	-11.1434
▁рассматривается	-11.1435
▁моно	-11.1437
▁2016-	-11.1438
▁Британски	-11.1439
▁дизель	-11.144
▁судить	-11.1441
▁меш	-11.1442
▁Аб	-11.1442
▁искусство	-11.1443
▁паспорта	-11.1443
ните	-11.1444
▁европейским	-11.1446
ивается	-11.1446
▁жены	-11.1448
Ростех	-11.1449
▁код	-11.145
ФС	-11.1451
йдя	-11.1452
тет	-11.1454
Прав	-11.1455
▁достигл	-11.1457
сня	-11.1458
ers	-11.1462
▁младш	-11.1462
▁предлагаем	-11.1464
▁Стр	-11.1465
▁изъят	-11.1466
никова	-11.1468
▁Средне	-11.1468
▁нос	-11.1471
бла	-11.1472
▁трибун	-11.1474
фир	-11.1474
▁депутатом	-11.1475
▁Иванова	-11.1477
sh	-11.1478
▁небо	-11.1479
▁важные	-11.1481
▁2014-	-11.1481
▁18-	-11.1487
▁денежно	-11.1488
▁сбит	-11.149
▁Остальны	-11.1492
авиа	-11.1496
▁льготы	-11.1496
вании	-11.1497
ступил	-11.1498
Россельхознадзор	-11.1501
▁Еврокомиссии	-11.1501
▁недовольство	-11.1501
▁номинации	-11.1501
▁певица	-11.1501
▁попытку	-11.1501
▁сотрудничеству	-11.1501
▁сюрприз	-11.1501
▁прекраща	-11.1501
▁ошибок	-11.1501
▁зависеть	-11.1501
▁удивил	-11.1501
▁существования	-11.1501
▁версий	-11.1501
▁пляж	-11.1501
▁разработка	-11.1501
▁ошибка	-11.1501
▁научный	-11.1502
▁устранен	-11.1502
:20	-11.1503
▁сцену	-11.1503
▁сообщить	-11.1503
▁1992	-11.1504
Южный	-11.1505
▁подписей	-11.1505
▁Круз	-11.1505
▁будучи	-11.1506
▁поставщика	-11.1506
▁Организатор	-11.1508
▁демократии	-11.1508
▁здоровы	-11.1509
учить	-11.151
▁тесно	-11.151
▁Пал	-11.151
▁состояться	-11.1511
▁возникли	-11.1513
▁участника	-11.1514
-4	-11.1517
▁объяснили	-11.1518
мира	-11.1518
▁Приморск	-11.1524
▁Марин	-11.1524
▁вернулась	-11.1525
▁Пентагона	-11.1527
▁Волков	-11.1527
▁отправился	-11.1527
56	-11.1528
▁s	-11.153
▁знаменитого	-11.153
▁сильным	-11.1532
▁отказыва	-11.1532
org	-11.1533
эм	-11.1533
аждую	-11.1536
▁подводн	-11.1537
ище	-11.1538
майдан	-11.154
▁арт	-11.154
министром	-11.1546
▁положении	-11.1547
▁нарушил	-11.1548
▁передачу	-11.1549
▁прямы	-11.1554
▁in	-11.1555
▁учиться	-11.1555
▁дорогой	-11.1555
▁карьере	-11.1557
▁сообществ	-11.1559
▁передали	-11.156
▁Бат	-11.1561
▁Миш	-11.1561
▁третьим	-11.1564
▁перелет	-11.1564
Он	-11.1567
экономического	-11.157
▁долей	-11.157
няк	-11.157
стает	-11.157
▁высок	-11.1571
бат	-11.1574
▁поднял	-11.1574
▁знаков	-11.1576
дневн	-11.1577
▁моменту	-11.1578
лить	-11.1579
▁разговоры	-11.1579
▁фактов	-11.1581
▁парков	-11.1581
▁обыск	-11.1583
▁убийц	-11.1583
▁f	-11.1587
ФЗ	-11.1591
▁2%	-11.1592
несло	-11.1592
▁диплом	-11.1593
▁Бала	-11.1594
▁столичном	-11.1595
ступенчат	-11.1596
−	-11.1596
▁внутренние	-11.1596
▁снегопад	-11.1596
▁прыжк	-11.1596
▁детства	-11.1596
▁аптек	-11.1596
▁хватило	-11.1596
▁барьер	-11.1597
▁ценностей	-11.1598
▁Мик	-11.1598
▁планировалось	-11.1598
76	-11.1599
▁курдов	-11.1599
▁Pri	-11.16
▁дата	-11.1601
▁называли	-11.1602
▁лишить	-11.1604
▁монет	-11.1604
▁Управления	-11.1604
строить	-11.1604
нскую	-11.1605
вшую	-11.1605
▁Russia	-11.1606
ория	-11.1607
▁высокую	-11.1608
евского	-11.1608
▁проблемами	-11.1608
спасательн	-11.1611
▁точек	-11.1613
▁капитально	-11.1616
▁сегмента	-11.1617
ящим	-11.1617
▁11-	-11.1619
ящий	-11.1619
▁привлечения	-11.162
▁Наибол	-11.162
▁опытом	-11.162
▁Po	-11.1621
▁стоя	-11.1622
ВО	-11.1622
▁цветы	-11.1622
▁автодорог	-11.1624
▁гидро	-11.1624
нном	-11.1625
▁Ред	-11.1627
▁культурно	-11.1628
щиеся	-11.1629
▁i	-11.1629
нешнеполитическо	-11.1629
▁улучш	-11.163
▁Щ	-11.1631
▁исследовательск	-11.1632
▁участниц	-11.1633
▁обороне	-11.1634
▁крыш	-11.1635
▁согласи	-11.1636
▁порой	-11.1636
лип	-11.1637
▁указано	-11.1639
▁нужда	-11.1639
▁постановк	-11.1641
▁жителями	-11.1641
▁Лучши	-11.1642
▁глазами	-11.1646
▁крупнейшим	-11.1649
▁принадлежащи	-11.165
части	-11.1651
Что	-11.1652
▁площадка	-11.1653
меня	-11.1654
▁Республика	-11.1655
▁март	-11.1656
ведения	-11.1657
писывать	-11.1659
пала	-11.1661
▁физически	-11.1662
▁границей	-11.1663
▁периодически	-11.1663
▁ипотечн	-11.1664
▁приходят	-11.1665
▁структуре	-11.1666
▁Пентагон	-11.1666
▁полуфинал	-11.1667
нулся	-11.1668
▁Гро	-11.167
▁судим	-11.1673
▁отправля	-11.1673
крут	-11.1675
лени	-11.1679
▁содержит	-11.1679
ква	-11.1681
▁музее	-11.1682
▁корпоративн	-11.1685
▁Сред	-11.1689
▁зала	-11.1689
тем	-11.169
Роскосмос	-11.1691
▁ЦРУ	-11.1692
▁оппозиция	-11.1692
▁пользователь	-11.1692
▁профессии	-11.1692
▁ребенку	-11.1692
▁редакцию	-11.1692
▁собственным	-11.1692
▁соответствующий	-11.1692
▁субсидий	-11.1692
▁Обычно	-11.1692
▁ПФР	-11.1692
▁неизбежно	-11.1692
▁самоуправления	-11.1692
▁специализиру	-11.1692
▁поставку	-11.1692
▁проживания	-11.1693
▁сделку	-11.1693
▁Второе	-11.1693
▁беседы	-11.1693
▁намерева	-11.1693
▁семинар	-11.1694
▁Издание	-11.1694
▁уважение	-11.1694
▁плакат	-11.1694
▁улучшения	-11.1696
▁фотография	-11.1698
▁состоятся	-11.1699
▁Ил	-11.17
▁клиентам	-11.17
07	-11.17
▁подключ	-11.1701
▁Главным	-11.1702
▁запис	-11.1702
телю	-11.1703
▁развод	-11.1703
▁помогли	-11.1703
▁обязал	-11.1704
▁кожи	-11.1706
▁объявления	-11.1706
▁предоставлени	-11.1707
▁изображения	-11.1708
▁80-	-11.1708
▁испытание	-11.1709
▁поступления	-11.1709
▁четверть	-11.171
▁Егор	-11.1711
ологии	-11.1712
▁ценности	-11.1712
шения	-11.1714
▁Гру	-11.1714
вела	-11.1714
ающего	-11.1714
▁перенесен	-11.1715
▁АСВ	-11.1716
▁зл	-11.1717
▁связ	-11.1717
Па	-11.1721
▁Каир	-11.1721
▁Основн	-11.1722
▁нанес	-11.1726
▁налоговые	-11.1728
▁больных	-11.1728
▁свод	-11.173
овская	-11.1731
▁вуз	-11.1731
▁привлекать	-11.1731
▁операторов	-11.1732
▁Улюкаева	-11.1735
▁островов	-11.1735
▁78	-11.1736
▁Александрова	-11.1737
▁Тор	-11.1737
тинг	-11.1737
длежащ	-11.1738
Арсенал	-11.1739
▁ресторана	-11.174
▁кабин	-11.174
▁работала	-11.1742
▁профессиональн	-11.1743
▁колен	-11.1744
▁смены	-11.1749
▁сохраня	-11.175
▁передач	-11.1757
иев	-11.1758
▁реальной	-11.1759
▁действовал	-11.176
▁экономическим	-11.1761
бур	-11.1761
▁2000-	-11.1762
ицу	-11.1765
КБ	-11.1765
▁россиянина	-11.1765
чность	-11.1765
▁русском	-11.1766
▁общественн	-11.1767
▁Ленинск	-11.1767
▁партнером	-11.1768
▁отчете	-11.177
▁бюджету	-11.1773
▁низкой	-11.1773
tor	-11.1774
▁Борисов	-11.1778
ительный	-11.1781
▁молодежно	-11.1781
▁добавили	-11.1783
▁картину	-11.1787
▁ослаб	-11.1788
▁York	-11.1789
▁Венесуэлы	-11.1789
▁набережной	-11.1789
▁навсегда	-11.1789
▁подразделение	-11.1789
▁регулирования	-11.1789
▁собственную	-11.1789
▁условии	-11.1789
▁инстанции	-11.1789
▁однажды	-11.1789
▁желании	-11.1789
▁деньгами	-11.179
▁сомнительн	-11.179
▁политическую	-11.179
▁гонке	-11.179
▁пойдут	-11.179
▁растут	-11.179
▁занятости	-11.1791
▁появиться	-11.1792
▁распространил	-11.1793
▁текущей	-11.1793
▁1996	-11.1793
▁полковник	-11.1796
▁хол	-11.1797
ворот	-11.1797
▁Пекин	-11.1799
▁ПАРНАС	-11.18
▁осуществляется	-11.1802
▁Местны	-11.1802
▁коммуникаций	-11.1804
▁журналистами	-11.1805
▁ветра	-11.1808
шоу	-11.1809
58	-11.1811
▁новостн	-11.1811
▁вируса	-11.1812
▁Западной	-11.1813
жные	-11.1813
▁утрат	-11.1814
▁предусмотрен	-11.1814
▁придет	-11.1815
▁годовом	-11.1816
▁устроить	-11.1816
▁общим	-11.1816
▁гуманитарн	-11.1816
▁прогнозы	-11.1818
▁прекращение	-11.1818
▁рож	-11.1819
1%	-11.1821
▁моменты	-11.1823
▁выполнил	-11.1824
люк	-11.1824
ложение	-11.1824
51	-11.1825
▁чувство	-11.1826
шить	-11.1827
▁Кузнецова	-11.1827
▁направлениям	-11.1827
-18	-11.1828
▁Совете	-11.1828
▁биолог	-11.1829
▁народный	-11.1829
▁Q	-11.183
▁инициативой	-11.1832
▁выступила	-11.1833
▁выбирать	-11.1834
роз	-11.1834
ира	-11.1835
▁полит	-11.1836
▁Театр	-11.1841
труд	-11.1841
▁иску	-11.1842
▁московский	-11.1846
▁пап	-11.1847
группы	-11.1849
▁канале	-11.1852
▁Тан	-11.1853
▁лифт	-11.1857
▁раскол	-11.1864
▁Ближне	-11.1864
46	-11.1866
▁террорист	-11.1873
▁70-	-11.1873
цин	-11.1876
▁мороз	-11.188
▁выходил	-11.1881
▁ФК	-11.1882
▁стрел	-11.1884
▁обруши	-11.1886
▁хозяйство	-11.1887
▁Действительно	-11.1887
▁Чечне	-11.1887
▁ведущий	-11.1887
▁девушек	-11.1887
▁дискуссии	-11.1887
▁зрители	-11.1887
▁исключить	-11.1887
▁лаборатории	-11.1887
▁модернизации	-11.1887
▁принадлежал	-11.1887
▁противоположн	-11.1887
▁реакцию	-11.1887
▁таблице	-11.1887
▁ЮКОСа	-11.1888
▁появляются	-11.1888
▁тираж	-11.1888
▁банкам	-11.1888
▁слушания	-11.1888
Сахалинск	-11.1889
▁обращении	-11.1889
▁Ев	-11.1891
▁думал	-11.1891
▁удивительно	-11.1892
▁1995	-11.1892
▁ночи	-11.1892
▁продлении	-11.1892
▁убил	-11.1892
Говорит	-11.1893
▁весны	-11.1893
▁окружающей	-11.1893
▁настроения	-11.1894
▁ученым	-11.1894
▁посты	-11.1894
▁вошла	-11.1895
▁делается	-11.1896
▁поездок	-11.1896
▁учреждение	-11.1897
▁данными	-11.1898
▁союзник	-11.1899
▁Корее	-11.1899
▁космонавт	-11.19
▁вниз	-11.1901
▁писатель	-11.1902
▁профильны	-11.1903
Мос	-11.1903
▁улучшить	-11.1903
▁Учитывая	-11.1906
▁След	-11.1906
▁разделен	-11.1908
▁встретился	-11.1909
касс	-11.191
▁масла	-11.1911
▁Джонсон	-11.1916
▁опубликованны	-11.1916
▁молодым	-11.1918
ЭК	-11.1918
монт	-11.1919
ГУ	-11.192
be	-11.192
▁радиостанции	-11.192
▁следующим	-11.192
▁подписать	-11.1923
▁девят	-11.1925
▁выполнял	-11.1926
▁действующий	-11.1927
▁Север	-11.1928
▁Y	-11.1928
▁банкир	-11.1929
▁понятие	-11.193
▁полка	-11.1932
▁процессы	-11.1933
ber	-11.1934
▁муниципальны	-11.1937
▁совершено	-11.1937
групп	-11.1937
▁главные	-11.1938
▁Анти	-11.1938
вался	-11.1939
▁Джу	-11.1941
▁нарушениях	-11.1942
▁впереди	-11.1943
▁годовщин	-11.1944
▁итог	-11.1944
▁смену	-11.1946
инской	-11.1947
▁элементы	-11.1947
▁уваж	-11.1949
▁Аг	-11.1949
▁рыночн	-11.1951
ИС	-11.1951
▁сроков	-11.1952
▁порта	-11.1954
▁продажа	-11.1959
▁рек	-11.1961
маз	-11.1964
▁отзыва	-11.1965
▁исторических	-11.1965
▁переданы	-11.1966
▁Всемирн	-11.1968
82	-11.1968
меняют	-11.1969
▁закрыл	-11.1969
▁важна	-11.1971
92	-11.1972
▁дебют	-11.1979
▁Стамбуле	-11.1979
▁ры	-11.198
▁высокого	-11.1981
▁бразильск	-11.1986
▁CNN	-11.1986
▁Горбачев	-11.1986
▁Понятно	-11.1986
▁контейнер	-11.1986
▁обеспечил	-11.1986
▁поликлиник	-11.1986
▁прозвучал	-11.1986
▁регулярны	-11.1986
▁соответствуют	-11.1986
▁церковь	-11.1986
▁€1	-11.1986
▁столкнулись	-11.1986
▁проведенны	-11.1987
▁Фильм	-11.1987
▁грунт	-11.1987
▁соглашению	-11.1987
▁Штаты	-11.1987
▁мельдоний	-11.1987
▁общаться	-11.1987
▁способствует	-11.1987
▁витамин	-11.1987
▁Wall	-11.1987
полицейск	-11.1987
▁церемония	-11.1987
▁обвинению	-11.1988
▁1994	-11.1988
▁объединить	-11.1989
▁готовят	-11.199
▁букв	-11.1991
▁аналогичны	-11.1993
▁радикально	-11.1996
телей	-11.1996
▁гражданско	-11.1996
▁маршруту	-11.1998
▁схема	-11.1999
▁Wi	-11.2001
ОК	-11.2004
здрав	-11.2005
▁заняты	-11.2007
▁назначении	-11.2007
линг	-11.2009
▁победитель	-11.201
рд	-11.2013
▁способности	-11.2013
▁создавал	-11.2014
Саратов	-11.2015
▁созданы	-11.2015
▁Бас	-11.2015
▁позициям	-11.2018
57	-11.2024
▁1000	-11.2026
бесед	-11.2026
▁2-	-11.2027
▁удобно	-11.2028
РГ	-11.2028
▁концерн	-11.2028
▁детск	-11.2029
▁точка	-11.203
Пар	-11.2031
▁количеством	-11.2031
интер	-11.2033
▁выделено	-11.2034
▁единый	-11.2035
▁17-	-11.2037
▁нашла	-11.2038
▁убийств	-11.2039
▁Порт	-11.2039
▁крупной	-11.2044
▁Екатеринбурга	-11.2045
mp	-11.2045
леб	-11.2047
руга	-11.2049
▁местным	-11.205
евым	-11.205
▁концерта	-11.2052
▁подбор	-11.2062
▁магазинах	-11.2068
жки	-11.2069
они	-11.2069
ительных	-11.207
украинской	-11.2072
тег	-11.2072
▁интересам	-11.2072
▁Самым	-11.2073
▁обед	-11.2078
▁самим	-11.2083
▁вовлечен	-11.2085
▁Airbus	-11.2086
▁Шарапова	-11.2086
▁обслуживание	-11.2086
▁олигарх	-11.2086
▁происходят	-11.2086
▁учителей	-11.2086
▁НДС	-11.2086
▁победителем	-11.2087
▁немецкого	-11.2087
▁заблокирован	-11.2087
▁антикоррупционн	-11.2087
▁Компании	-11.2087
▁стекло	-11.2087
▁презентации	-11.2087
▁отходов	-11.2087
▁Вторая	-11.2088
▁вспомнить	-11.2088
-11	-11.2088
▁стабильности	-11.209
▁слыш	-11.2092
Челси	-11.2092
▁преодолеть	-11.2093
▁цветов	-11.2093
▁Зуб	-11.2094
щения	-11.2095
▁воздействия	-11.2095
▁предметы	-11.2097
▁саммите	-11.2097
против	-11.2098
▁кузов	-11.2099
▁грани	-11.21
фар	-11.2101
▁90%	-11.2102
▁курсе	-11.2104
▁особый	-11.2104
▁тепла	-11.2104
▁Post	-11.2104
▁высокая	-11.2105
▁собственников	-11.2108
▁хирург	-11.2109
▁региону	-11.2109
▁теракты	-11.2109
▁теннисист	-11.2111
▁выстрел	-11.2113
▁союзников	-11.2118
▁соперников	-11.2118
▁мимо	-11.2118
стон	-11.212
▁саммит	-11.2125
▁ввел	-11.2127
▁бывшей	-11.2127
▁поверхность	-11.2128
▁центром	-11.2128
▁периодом	-11.2131
▁сложившей	-11.2137
▁герои	-11.2138
▁высказался	-11.2139
▁кандидаты	-11.2139
▁Един	-11.2141
▁поднят	-11.2142
ражение	-11.2142
▁Омск	-11.2143
нить	-11.2144
▁Красно	-11.2144
носителя	-11.2145
▁1,1	-11.2145
97	-11.2145
▁открыты	-11.2147
▁переведен	-11.2147
▁воде	-11.2148
▁2-3	-11.215
▁институтов	-11.2153
▁запретил	-11.2156
▁зимне	-11.2157
▁применением	-11.2158
▁офиса	-11.2158
▁причину	-11.2159
▁праздники	-11.216
чиво	-11.2161
▁признаны	-11.2161
▁фирма	-11.2163
дент	-11.2164
етесь	-11.2165
▁посыл	-11.2165
фонд	-11.2166
▁Лебедев	-11.2166
▁Рамзан	-11.2166
▁смертн	-11.2168
дур	-11.2169
▁опусти	-11.2171
▁пешеход	-11.2172
▁поступили	-11.2176
▁банд	-11.2176
альное	-11.2177
▁московской	-11.2177
▁портала	-11.2179
▁Буд	-11.2179
▁целево	-11.218
▁марш	-11.2181
Народный	-11.2182
▁признание	-11.2182
▁автомобилем	-11.2183
▁выполня	-11.2184
▁(8	-11.2186
Пол	-11.2186
▁классическ	-11.2186
▁Макаров	-11.2187
*	-11.2187
▁Microsoft	-11.2187
▁Пхеньян	-11.2187
▁Румынии	-11.2187
▁железнодорожны	-11.2187
▁низких	-11.2187
▁оптимизм	-11.2187
▁ситуаций	-11.2187
▁сообщений	-11.2187
▁полицейский	-11.2188
▁вернется	-11.2188
▁Сахалинской	-11.2188
▁нелегально	-11.2188
▁сквер	-11.2188
▁курдски	-11.2188
▁определенн	-11.2189
▁СПГ	-11.2189
▁поручени	-11.2189
▁взаимно	-11.2189
▁привлечение	-11.2189
▁салоне	-11.2191
▁полно	-11.2192
▁ранне	-11.2192
▁последнюю	-11.2194
▁запасы	-11.2194
▁укрепления	-11.2195
▁личных	-11.2195
▁двигателей	-11.2197
▁опасных	-11.2198
▁сохраняется	-11.2199
▁комбинат	-11.2199
▁оппозиционны	-11.22
▁Две	-11.2201
цки	-11.2202
логов	-11.2202
плод	-11.2205
▁западн	-11.2205
▁свободно	-11.2207
ьного	-11.2209
-21	-11.221
▁проигра	-11.221
▁Нас	-11.2212
ическом	-11.2214
ay	-11.2214
▁удержать	-11.2216
▁бывшему	-11.2216
▁проведена	-11.2217
▁Новгороде	-11.2217
Крым	-11.2217
▁отряда	-11.2219
▁фаз	-11.222
▁аварий	-11.2221
▁позволяющи	-11.2222
▁могил	-11.2225
-35	-11.2226
▁(6	-11.2227
рского	-11.2229
▁реки	-11.223
▁полезно	-11.223
▁силой	-11.2231
▁ушли	-11.2233
▁энергетическ	-11.2237
▁структуру	-11.2238
▁филиал	-11.2242
▁Томск	-11.2242
▁температуры	-11.2243
▁достоинства	-11.2248
▁аналитиков	-11.2248
▁Матч	-11.2253
▁успехов	-11.2255
▁Британск	-11.2255
▁брал	-11.2257
хозяйственн	-11.226
▁запланировано	-11.2263
▁Соло	-11.2264
левой	-11.2265
▁подобное	-11.2267
▁продукта	-11.2267
▁получ	-11.2267
ИН	-11.2268
Евро	-11.2269
▁убедить	-11.2271
▁стоить	-11.2274
pe	-11.2275
▁танк	-11.2275
▁колонн	-11.2277
▁методы	-11.2279
Блок	-11.2281
▁обстрела	-11.2282
▁выдвинут	-11.2283
▁реформа	-11.2285
▁шест	-11.2286
▁увеличив	-11.2286
▁дальне	-11.2288
▁случаю	-11.2289
▁контакты	-11.2289
менеджмент	-11.229
▁Audi	-11.229
▁ЕГЭ	-11.229
▁Иногда	-11.229
▁вырастет	-11.229
▁ежемесячно	-11.229
▁конструкции	-11.229
▁крушение	-11.229
▁окончании	-11.229
▁хранение	-11.229
▁январь	-11.229
▁Магомед	-11.229
▁покупатель	-11.229
▁приостановк	-11.229
▁сентябрь	-11.229
▁Путешествия	-11.229
▁Взрыв	-11.229
▁поделился	-11.229
▁кибератак	-11.229
▁стартует	-11.2291
▁лайнер	-11.2293
▁приведен	-11.2294
▁Воронежской	-11.2294
▁предоставля	-11.2295
▁уволил	-11.2295
ствует	-11.2295
▁плит	-11.2296
▁валютно	-11.2297
▁съемки	-11.2297
▁возникла	-11.2298
Кубань	-11.2298
▁лимит	-11.2299
▁заложников	-11.2301
шит	-11.2302
▁смеш	-11.2304
▁вели	-11.2308
▁металл	-11.2309
ka	-11.2309
▁узнал	-11.231
▁Дарья	-11.2311
▁счете	-11.2311
▁Чемпионат	-11.2311
▁обвиня	-11.2312
▁аресте	-11.2312
▁110	-11.2313
▁выкуп	-11.2314
бре	-11.2315
ity	-11.2315
▁конфликтов	-11.2318
▁живущи	-11.232
секретаря	-11.2321
террористическ	-11.2323
▁Чист	-11.2328
▁оказа	-11.233
▁Ас	-11.2331
знание	-11.2335
▁усиление	-11.2335
▁Эн	-11.2336
▁доходность	-11.2337
▁бытов	-11.2338
удовлетворительн	-11.2342
кали	-11.2344
▁художников	-11.2345
▁выдвига	-11.2345
▁старых	-11.2346
▁Бах	-11.2348
▁берегу	-11.2349
▁Регион	-11.2353
▁остальн	-11.2354
▁лот	-11.2354
▁документах	-11.2368
▁соотечественник	-11.2368
▁направили	-11.2368
▁дорого	-11.2373
▁сегмент	-11.2375
▁реальность	-11.2376
▁воспитанник	-11.2379
елли	-11.238
▁товара	-11.2388
▁предоставлять	-11.2388
▁возбудили	-11.2389
▁дам	-11.239
▁территориальны	-11.2391
▁$50	-11.2393
▁Galaxy	-11.2393
▁Распечатать	-11.2393
▁Сергею	-11.2393
▁абонент	-11.2393
▁делегация	-11.2393
▁максимальны	-11.2393
▁небольшие	-11.2393
▁одежду	-11.2393
▁пострадавшим	-11.2393
▁причастность	-11.2393
▁рассуждает	-11.2393
▁сегодняшнего	-11.2393
▁тротуар	-11.2393
▁Количество	-11.2393
▁Последние	-11.2393
▁Шувалов	-11.2393
▁Чехии	-11.2393
▁прожиточн	-11.2393
▁следователей	-11.2393
▁участвует	-11.2393
▁Карякин	-11.2393
▁ВМФ	-11.2393
▁Лукашенко	-11.2393
▁предпочитаю	-11.2393
▁надеются	-11.2394
▁питание	-11.2394
▁кибер	-11.2394
▁мяча	-11.2395
▁утечк	-11.2395
▁достигает	-11.2395
▁нечего	-11.2395
▁Sh	-11.2396
▁признала	-11.2398
▁Насколько	-11.2398
▁русским	-11.2399
io	-11.2401
▁видимости	-11.2401
значить	-11.2403
▁черный	-11.2404
▁подземны	-11.2405
▁улучшение	-11.2405
▁продолжат	-11.2406
▁Оп	-11.2408
▁Ленинградской	-11.2409
▁рекламны	-11.2409
▁увеличил	-11.241
▁послужил	-11.2411
▁тяг	-11.2412
▁заказчик	-11.2412
▁забор	-11.2413
право	-11.2417
▁Домодедово	-11.2418
▁сговор	-11.2419
▁согласие	-11.242
▁оборота	-11.2421
▁незаконном	-11.2422
▁юг	-11.2422
▁народу	-11.2423
сю	-11.2424
66	-11.2424
пасть	-11.2426
▁снижа	-11.2427
▁Остров	-11.2427
▁признак	-11.2433
▁серьезным	-11.2433
▁украинским	-11.2434
▁ориентирован	-11.2434
▁вводить	-11.244
▁почв	-11.2441
▁перерыва	-11.2441
▁настаивал	-11.2442
бросил	-11.2444
▁трем	-11.2447
▁Ган	-11.245
▁танков	-11.2452
▁опубликовали	-11.2454
▁возможностью	-11.2456
▁Вес	-11.2456
СЕ	-11.2457
▁прошлым	-11.2457
▁дополнительного	-11.2462
ОР	-11.2463
▁намерения	-11.2471
нного	-11.2474
живают	-11.2475
если	-11.2476
▁храма	-11.2477
▁термин	-11.2478
очку	-11.2484
анти	-11.2488
▁Лет	-11.2488
▁россиянам	-11.2491
▁пролет	-11.2495
▁свеж	-11.2496
▁нанесен	-11.2496
▁Street	-11.2497
▁Tesla	-11.2497
▁Конашенков	-11.2497
▁осуществлял	-11.2497
▁предотвратить	-11.2497
▁середины	-11.2497
▁сопротивление	-11.2497
▁Анкары	-11.2497
▁извинения	-11.2497
▁дождь	-11.2497
▁инфраструктуру	-11.2497
▁гонка	-11.2498
▁однозначно	-11.2498
▁особое	-11.2499
▁1997	-11.2499
▁16-	-11.25
▁раскрыл	-11.25
▁Германию	-11.2501
▁писателя	-11.2502
▁победителя	-11.2503
▁литр	-11.2503
▁детские	-11.2503
▁Дмитриев	-11.2503
Рияд	-11.2506
▁призывает	-11.2506
ТП	-11.2508
полис	-11.251
▁Информация	-11.2514
▁адвокатов	-11.2514
▁свете	-11.2517
▁выборам	-11.2521
WADA	-11.2521
левого	-11.2521
▁Стал	-11.2521
▁заставить	-11.2522
▁средство	-11.2522
▁признания	-11.2523
▁e	-11.2523
▁(0	-11.2524
▁уменьшени	-11.2527
▁снятия	-11.2527
▁черно	-11.2527
▁потребительско	-11.2534
▁возможные	-11.2534
39	-11.2535
▁4-	-11.2536
▁надежды	-11.2536
▁задействованы	-11.2537
▁обсуждали	-11.2538
▁проголосовал	-11.2538
тный	-11.2539
▁Челябинск	-11.2542
▁Яценюка	-11.2542
нения	-11.2542
▁краево	-11.2543
▁заработать	-11.2544
▁массы	-11.2546
▁проводим	-11.2546
кевич	-11.2547
▁1,8	-11.2547
▁началу	-11.2553
бс	-11.2554
дит	-11.2554
▁разрабатыва	-11.2559
68	-11.2562
net	-11.2566
▁Хай	-11.2568
▁высоком	-11.2568
▁региональным	-11.2569
льской	-11.257
▁Фил	-11.257
▁дату	-11.2572
▁предвыборн	-11.2573
▁пожаре	-11.2574
▁живот	-11.2575
▁арестовали	-11.2575
▁Ск	-11.2575
▁больно	-11.2576
▁Баку	-11.2577
▁отклонен	-11.258
▁сильного	-11.2585
▁мониторинга	-11.2585
▁Янукович	-11.2585
▁оказывают	-11.2585
▁пилотов	-11.2586
▁спортивные	-11.2587
▁классов	-11.2587
▁независимой	-11.259
▁обратить	-11.259
▁братья	-11.259
▁жизненно	-11.259
штат	-11.2592
▁банку	-11.2595
▁серебряны	-11.2596
▁7%	-11.2598
ходы	-11.2599
▁Центробанка	-11.26
▁XIX	-11.2602
▁Дальнем	-11.2602
▁произойти	-11.2602
▁рынку	-11.2602
▁федерация	-11.2602
▁Бастрыкин	-11.2602
▁констатировал	-11.2602
▁математик	-11.2602
▁требовать	-11.2602
▁диабет	-11.2602
▁копеек	-11.2602
▁выглядел	-11.2602
▁относиться	-11.2602
▁парламентарий	-11.2602
▁физлиц	-11.2602
▁фунтов	-11.2602
▁мысль	-11.2602
▁молока	-11.2602
▁Большого	-11.2602
▁незаконных	-11.2602
▁силовиков	-11.2603
нув	-11.2603
▁скончалась	-11.2603
▁окончил	-11.2604
▁именем	-11.2604
▁ходом	-11.2605
▁двигаться	-11.2605
ируя	-11.2605
▁москвичей	-11.2606
▁Александром	-11.2606
▁опыта	-11.2606
▁отражает	-11.2606
▁торжеств	-11.2608
▁соболезнования	-11.2608
RU	-11.2608
ba	-11.2609
▁противоречит	-11.261
▁Четыре	-11.2612
▁внук	-11.2613
СТ	-11.2613
▁французский	-11.2613
▁боевик	-11.2614
▁частные	-11.2614
▁Нижегородской	-11.2615
▁приют	-11.2616
ft	-11.2617
плав	-11.2617
▁разговоре	-11.2619
▁Свое	-11.2622
▁безопасно	-11.2623
▁тяжелом	-11.2625
▁арестом	-11.263
▁уголовному	-11.263
▁главную	-11.263
▁покупателя	-11.2631
▁душ	-11.2631
▁килограммов	-11.2632
▁начнутся	-11.2632
тельная	-11.2633
▁шайбу	-11.2634
▁дистанции	-11.2634
▁подходит	-11.2634
▁оппонент	-11.2635
▁осужденных	-11.2635
▁секторе	-11.2635
▁105	-11.2637
▁губ	-11.2638
▁хотела	-11.264
▁13-	-11.264
▁понимаем	-11.2641
▁ресторанов	-11.2641
▁владельцем	-11.2641
▁пласт	-11.2642
▁реализаци	-11.2643
-16	-11.2646
▁выбора	-11.2649
классник	-11.2652
▁перешли	-11.2654
▁вертолетов	-11.2655
▁носить	-11.2657
▁Программа	-11.2658
▁повышенно	-11.266
▁знакомых	-11.2663
▁бол	-11.2665
▁инструменты	-11.2667
▁Алтайск	-11.2667
▁зрителям	-11.2668
▁республика	-11.2671
▁грамот	-11.2671
ant	-11.2672
▁заставил	-11.2672
▁Кино	-11.2672
▁сокращен	-11.2673
ПО	-11.2674
▁отмечен	-11.2675
▁Ряд	-11.2676
▁фактором	-11.2676
▁выполняет	-11.2676
▁берега	-11.2677
▁пассажиры	-11.2678
космическ	-11.2678
▁финансовом	-11.2678
▁силов	-11.2678
▁проектом	-11.2679
▁атлет	-11.268
▁духовно	-11.2684
▁приобрет	-11.2685
▁95	-11.2687
тянул	-11.2688
▁технического	-11.2688
▁раунд	-11.269
щика	-11.2691
▁Сп	-11.2693
▁Андре	-11.2694
▁бан	-11.2698
▁появи	-11.2699
▁души	-11.27
▁химическо	-11.27
▁Чита	-11.2701
▁ОИ	-11.2702
▁140	-11.2703
▁возвращени	-11.2704
▁коррект	-11.2708
▁Конституции	-11.2708
▁выглядят	-11.2708
▁мельдония	-11.2708
▁облигаций	-11.2708
▁резюмировал	-11.2708
▁Выяснилось	-11.2708
▁лежит	-11.2708
▁транш	-11.2709
▁троих	-11.2709
▁влияет	-11.2709
▁добавлен	-11.2709
становлен	-11.2709
▁исков	-11.2709
▁Минтруд	-11.2709
▁исследовании	-11.2709
Укр	-11.2709
китайск	-11.271
пускать	-11.271
▁представителям	-11.271
предусмотренного	-11.2711
▁Черного	-11.2711
нормандско	-11.2711
▁Сечин	-11.2712
▁рабочий	-11.2712
▁региональный	-11.2715
▁существовал	-11.2715
▁представит	-11.2715
▁3-	-11.2715
▁достойны	-11.2717
▁заведомо	-11.2717
▁обсуждается	-11.2718
▁Попов	-11.2719
лайн	-11.2719
▁возможного	-11.2719
▁организма	-11.272
▁частной	-11.2722
▁заксобрания	-11.2724
▁порту	-11.2724
▁Вит	-11.2725
тельный	-11.2727
▁отказал	-11.2728
▁тремя	-11.2731
▁происходило	-11.2733
▁торговой	-11.2733
▁понят	-11.2733
▁статья	-11.2734
государств	-11.2734
Y	-11.2735
▁принесли	-11.2736
▁полное	-11.2736
▁противодействия	-11.2742
пускают	-11.2743
Национальный	-11.2744
▁тексте	-11.2746
▁вопросе	-11.2747
▁купе	-11.2748
часов	-11.2749
▁ножом	-11.2751
ированный	-11.2751
▁ваши	-11.2751
служив	-11.2752
▁92	-11.2756
▁переходе	-11.2757
шов	-11.2757
▁кадры	-11.2757
▁внесли	-11.2758
▁салон	-11.2761
▁покушени	-11.2761
▁Минздрава	-11.2764
стремится	-11.2765
сирот	-11.2766
▁Лиге	-11.2767
▁тренером	-11.2768
ack	-11.2769
▁глобальны	-11.277
▁доставк	-11.2775
▁предполагаемы	-11.2775
▁смертник	-11.2776
опи	-11.2777
▁инвесторам	-11.278
▁западе	-11.2782
▁конгресс	-11.2782
тали	-11.2784
▁Ваш	-11.2784
остей	-11.2784
▁поступила	-11.2785
▁континент	-11.2785
изацию	-11.2786
▁категори	-11.2787
▁даты	-11.2787
▁выполнены	-11.2795
Звезда	-11.2795
▁супруги	-11.2801
▁взрыве	-11.2801
льные	-11.2804
боев	-11.2804
▁Ca	-11.2807
▁Максима	-11.2812
Ы	-11.2814
ковым	-11.2814
▁соль	-11.2815
▁выходе	-11.2816
▁Новосибирске	-11.2816
▁Впоследствии	-11.2816
▁Гитлер	-11.2816
▁Мосгорсуд	-11.2816
▁воспитыва	-11.2816
▁литературы	-11.2816
▁потребление	-11.2816
▁рассмотрит	-11.2816
▁гаджет	-11.2816
▁поединка	-11.2816
▁приехать	-11.2816
▁пулемет	-11.2816
▁зарегистрировал	-11.2816
▁патент	-11.2816
▁скрылся	-11.2816
Ценности	-11.2816
▁встретится	-11.2816
▁уйдет	-11.2816
▁шеф	-11.2817
▁закончилась	-11.2817
▁иностранцев	-11.2818
▁выделил	-11.2818
кнул	-11.2818
▁ввели	-11.2818
▁продлится	-11.2819
▁выработк	-11.2819
▁изменилась	-11.2819
▁песня	-11.2819
▁выдачи	-11.282
▁документации	-11.2821
▁выявил	-11.2821
▁Сети	-11.2822
▁Краснодар	-11.2822
▁рассмотрении	-11.2822
▁мессенджер	-11.2823
▁отправ	-11.2824
▁изменится	-11.2824
▁определения	-11.2824
▁советские	-11.2827
▁Ворон	-11.2829
▁лизинг	-11.2833
▁Романа	-11.2833
▁заявлению	-11.2834
▁Счетн	-11.2834
▁Движение	-11.2836
▁миллиардера	-11.2836
▁попадают	-11.2836
qu	-11.2841
агент	-11.2841
▁договоров	-11.2843
▁популярным	-11.2844
▁заняли	-11.2844
▁окно	-11.285
▁Человек	-11.2851
Боевики	-11.2851
▁родственники	-11.2854
▁удовольствием	-11.2856
кции	-11.2859
▁широк	-11.2859
цвет	-11.286
▁Черн	-11.2862
ear	-11.2863
▁вагонов	-11.2864
▁композици	-11.2865
▁высоты	-11.2866
▁цифр	-11.2866
▁миллиард	-11.2866
▁замеча	-11.287
78	-11.2872
▁Сел	-11.2873
▁связал	-11.2876
▁шахмат	-11.2876
ящего	-11.2881
карт	-11.2883
вало	-11.2885
▁Кажд	-11.2885
▁попросила	-11.2887
▁Хал	-11.2887
▁Команда	-11.2887
▁запасов	-11.289
▁окруж	-11.2891
▁изготовлен	-11.2893
▁проходила	-11.2893
▁Марии	-11.2894
▁Мюнхене	-11.2895
▁различ	-11.2895
▁резервы	-11.2896
ate	-11.2898
хор	-11.2898
▁равны	-11.2899
▁инновационн	-11.2899
▁бизнесом	-11.29
▁кабмина	-11.29
▁варианта	-11.29
▁памятников	-11.2904
▁Жив	-11.2904
▁физик	-11.2906
▁производственно	-11.2906
▁кост	-11.2907
▁миф	-11.291
▁республиканско	-11.291
▁военными	-11.291
▁окружающ	-11.2911
▁Пушкин	-11.2914
▁численность	-11.2915
▁готово	-11.2915
▁79	-11.2916
стал	-11.2918
▁Sa	-11.2919
анты	-11.292
▁Шевченко	-11.2922
▁пул	-11.2924
ДП	-11.2924
▁Guardian	-11.2925
▁Израиле	-11.2925
▁Правительства	-11.2925
▁агрессии	-11.2925
▁инициатор	-11.2925
▁предприятии	-11.2925
▁присутствия	-11.2925
▁реагировать	-11.2925
▁руководил	-11.2925
▁тяжелые	-11.2925
▁перемирие	-11.2925
▁водители	-11.2925
▁формирований	-11.2925
▁осадков	-11.2925
▁гарантий	-11.2925
▁крымско	-11.2925
▁переехал	-11.2925
▁захотел	-11.2925
▁Утром	-11.2925
▁вмешательства	-11.2925
▁Новиков	-11.2925
▁свеже	-11.2925
69	-11.2926
ицкий	-11.2927
▁подтвердить	-11.2927
▁применять	-11.2927
▁сгорел	-11.2927
▁следующих	-11.2927
▁погоды	-11.2927
▁откровенно	-11.2928
▁естественны	-11.2929
▁помещении	-11.2929
стоп	-11.2929
▁повышении	-11.293
▁бандит	-11.2931
▁помещений	-11.2931
▁пассажира	-11.2932
▁документу	-11.2933
▁конечном	-11.2934
▁семьей	-11.2934
▁Главная	-11.2935
▁установления	-11.2939
ида	-11.2942
▁техническим	-11.2942
боя	-11.2943
▁Тар	-11.2945
хождения	-11.2947
пул	-11.2947
▁КС	-11.2951
Аэро	-11.2952
щев	-11.2952
▁незаконной	-11.2953
▁аналитическо	-11.2953
ресурс	-11.2953
▁стрелково	-11.2954
фильм	-11.2954
▁Масс	-11.2954
▁актива	-11.2955
▁написано	-11.2955
▁камеру	-11.2957
зываю	-11.2958
▁выдан	-11.2958
▁пить	-11.2958
▁Иркутской	-11.2959
двига	-11.2959
▁звезда	-11.296
правление	-11.2962
▁процентны	-11.2968
▁штрафной	-11.2974
▁разбира	-11.2977
▁правозащитн	-11.2979
nt	-11.2981
▁собрание	-11.2981
исто	-11.2981
▁масса	-11.2986
-25	-11.2986
▁столичной	-11.2989
▁уголовны	-11.299
▁перечислен	-11.299
▁кандидатур	-11.2991
▁авиабаз	-11.2992
▁торжественно	-11.2992
никами	-11.2993
▁объективно	-11.2994
дания	-11.2995
▁27-	-11.2997
ография	-11.3
▁Кен	-11.3
▁Президента	-11.3004
правляется	-11.3005
▁спонсор	-11.3007
▁интереса	-11.3011
▁разбирательства	-11.3015
▁изображен	-11.3016
демократ	-11.3019
▁импорта	-11.3022
▁уме	-11.3023
▁метрополитена	-11.3025
▁Шир	-11.3029
ПА	-11.303
▁патруль	-11.303
ированию	-11.3031
▁Спец	-11.3032
▁Роналду	-11.3035
▁комментарий	-11.3035
▁консультации	-11.3035
▁предприниматели	-11.3035
▁прокуратуре	-11.3035
▁снайпер	-11.3035
▁тюрьме	-11.3035
▁выиграть	-11.3035
▁опасаются	-11.3035
▁армию	-11.3035
▁почувствовал	-11.3035
▁бонус	-11.3035
▁голландск	-11.3035
▁авария	-11.3035
▁современным	-11.3035
▁рабочего	-11.3035
▁кольца	-11.3035
▁сильные	-11.3036
▁декларации	-11.3036
▁вокзал	-11.3036
▁решают	-11.3037
▁IV	-11.3038
▁запрете	-11.3039
▁Карл	-11.3039
▁совещание	-11.3039
▁FM	-11.304
▁искусственны	-11.3041
▁Наверно	-11.3041
▁анонсировал	-11.3041
▁белорусско	-11.3042
▁комментирует	-11.3042
▁специалиста	-11.3042
▁ЛУКОЙЛ	-11.3042
▁чек	-11.3043
▁штрафы	-11.3044
▁Волгоградской	-11.3045
Рабоч	-11.3045
▁миграционно	-11.3046
▁невероятно	-11.3046
▁проявил	-11.3048
▁городские	-11.3049
▁контрабанд	-11.3051
▁Юго	-11.3055
▁наращива	-11.3055
▁давности	-11.3056
▁ушла	-11.3056
▁минимальн	-11.3059
▁говорила	-11.306
▁состоя	-11.306
▁вверх	-11.3061
▁преимущества	-11.3062
▁спорте	-11.3062
европейск	-11.3064
ческого	-11.3065
Кавказ	-11.3065
03	-11.3067
▁Татарстан	-11.3067
▁стиль	-11.3072
СМ	-11.3072
марк	-11.3076
▁темой	-11.3077
▁организациях	-11.3078
▁съезде	-11.3078
два	-11.3079
▁XX	-11.308
▁1,7	-11.308
▁выбрал	-11.3081
▁сняли	-11.3081
▁мировы	-11.3082
▁принц	-11.3083
▁женой	-11.3084
▁надежд	-11.3085
▁Арсен	-11.3085
▁патриарха	-11.3086
ровать	-11.3086
▁разбор	-11.3087
▁стрельбу	-11.3088
▁способы	-11.3088
▁родителями	-11.3088
▁контроле	-11.3088
▁полным	-11.309
▁министерств	-11.3091
госпитализирован	-11.3092
▁позволили	-11.3092
▁$7	-11.3094
▁проблемам	-11.3095
елем	-11.3095
▁угля	-11.3097
▁овощи	-11.3097
▁образа	-11.3098
▁проезда	-11.31
▁слаб	-11.3107
▁подвел	-11.3111
▁потеряли	-11.3111
▁Теле	-11.3112
▁тверд	-11.3112
▁Папа	-11.3112
▁Be	-11.3115
несли	-11.3117
▁ключевым	-11.3122
▁специальн	-11.3132
▁Христ	-11.3133
▁социолог	-11.3134
▁статусе	-11.3134
▁газопровода	-11.3136
▁моим	-11.3139
▁выпускник	-11.314
▁батальона	-11.3142
▁Калининград	-11.3143
▁арбитр	-11.3145
▁другому	-11.3146
Адмирал	-11.3146
▁AFP	-11.3146
▁Голодец	-11.3146
▁Минобрнауки	-11.3146
▁Примечательно	-11.3146
▁Расследование	-11.3146
▁домашних	-11.3146
▁капуст	-11.3146
▁микрорайон	-11.3146
▁отвечая	-11.3146
▁парламентариев	-11.3146
▁руководстве	-11.3146
▁обозначен	-11.3146
▁сравнения	-11.3146
▁интриг	-11.3146
▁природных	-11.3146
▁популярности	-11.3146
▁НТВ	-11.3146
▁надежно	-11.3147
▁ДПС	-11.3149
▁спуск	-11.3149
▁насилие	-11.315
▁состоялись	-11.315
▁использовании	-11.3153
▁мусора	-11.3153
▁госсекретарь	-11.3153
▁перво	-11.3153
▁льда	-11.3154
▁круж	-11.3156
▁диспетчер	-11.3156
▁разбился	-11.3156
▁турецкий	-11.3158
▁контрольно	-11.3158
▁выдаче	-11.3158
вольно	-11.316
TV	-11.316
▁84	-11.3161
ующие	-11.3164
▁подписания	-11.3167
▁нормативны	-11.3168
▁предоставление	-11.3168
наблюда	-11.3169
Му	-11.3169
▁6,5	-11.3169
▁Свет	-11.317
▁растущ	-11.317
▁технические	-11.3171
▁общение	-11.3171
▁играли	-11.3172
контроль	-11.3173
▁демонстрирует	-11.3174
J	-11.3176
рвать	-11.3178
▁узк	-11.318
▁редки	-11.3182
▁образовательных	-11.3183
бок	-11.3185
дия	-11.3186
▁перекрыт	-11.3186
вич	-11.3188
распространяется	-11.3189
▁овощ	-11.3189
▁предварительной	-11.3193
▁химически	-11.3196
▁Кер	-11.3196
▁динамика	-11.3196
▁плата	-11.3199
▁траур	-11.3201
▁нарушен	-11.3202
▁аэро	-11.3204
▁выброс	-11.3205
▁Эд	-11.3206
▁одинаков	-11.3206
▁Бело	-11.321
▁крем	-11.3213
▁будущих	-11.3214
▁Необходимо	-11.3214
▁задействован	-11.3215
▁Новосибирск	-11.3216
▁мое	-11.3217
▁съемочн	-11.3221
▁открытых	-11.3222
ини	-11.3224
▁доставки	-11.3225
▁Подобны	-11.3225
игры	-11.3226
▁Футбол	-11.3228
▁Вай	-11.323
▁компонент	-11.3231
▁лицами	-11.3232
▁выпустил	-11.3232
▁дубл	-11.3232
▁простой	-11.3235
ошлись	-11.3236
▁Антона	-11.3239
▁Афганистана	-11.3239
▁травму	-11.3241
инка	-11.3243
▁возведени	-11.3243
▁посетит	-11.3243
▁производить	-11.3245
▁корпоративны	-11.3248
▁резидент	-11.3252
▁07	-11.3253
▁магистр	-11.3256
▁возобновил	-11.3258
▁Пальмиры	-11.3258
▁Тимошенко	-11.3258
▁колоссальн	-11.3258
▁лондонско	-11.3258
▁медицины	-11.3258
▁отсутствует	-11.3258
▁певец	-11.3258
▁повлияет	-11.3258
▁рухнул	-11.3258
▁соответствие	-11.3258
▁соответствующим	-11.3258
▁сравнении	-11.3258
▁медалей	-11.3258
▁китайского	-11.3258
▁существование	-11.3258
▁краткосрочн	-11.3258
▁вышло	-11.3258
▁купюр	-11.3259
▁ценам	-11.3259
▁льду	-11.3259
▁Следующи	-11.326
▁сократилось	-11.3261
следственн	-11.3261
▁оперативного	-11.3262
▁Договор	-11.3264
▁овощей	-11.3264
▁Актер	-11.3266
▁здоровьем	-11.3266
▁ферм	-11.3268
▁август	-11.3268
ющему	-11.3268
▁звонки	-11.3269
▁собеседников	-11.3269
▁окон	-11.327
▁артиста	-11.3272
▁справедливости	-11.3273
▁Надеюсь	-11.3273
▁направлена	-11.3275
▁скором	-11.3276
▁лук	-11.3278
▁съем	-11.3282
▁покинули	-11.3283
▁известным	-11.3283
▁полях	-11.3283
▁Данил	-11.3284
▁Дании	-11.3286
глава	-11.3286
▁заняться	-11.3288
магазин	-11.329
следствие	-11.3291
Амур	-11.3292
▁электронные	-11.3292
▁Ответ	-11.3294
ster	-11.3295
8,5	-11.3296
▁труп	-11.3299
цер	-11.33
▁Муж	-11.3302
ходясь	-11.3302
▁закончил	-11.3304
▁отреагировал	-11.3308
▁четк	-11.3309
▁действиям	-11.331
ведено	-11.3312
▁Играх	-11.3315
носил	-11.3317
тайн	-11.3319
▁поступать	-11.3319
▁волны	-11.3324
▁списки	-11.3327
▁посвященно	-11.3328
▁вакцин	-11.3329
▁агента	-11.3329
▁чистой	-11.3331
▁турецким	-11.3334
▁политикой	-11.3337
один	-11.3338
▁шансов	-11.3338
-2014	-11.3342
▁Ци	-11.3343
▁повышать	-11.3346
▁проблемах	-11.3347
▁успехом	-11.335
▁рекламн	-11.3353
▁автомобильных	-11.3355
▁банками	-11.3363
ФИ	-11.3365
▁Пет	-11.3368
▁поисково	-11.337
▁КХЛ	-11.3372
▁Официально	-11.3372
▁землетрясение	-11.3372
▁оплату	-11.3372
▁повседневн	-11.3372
▁солнце	-11.3372
▁субсидии	-11.3372
▁эстафет	-11.3372
▁контролю	-11.3372
▁небольшим	-11.3372
▁чудес	-11.3372
ысокотехнологичн	-11.3372
▁Осетии	-11.3372
▁гарантии	-11.3372
▁поставщиков	-11.3372
▁Автомобиль	-11.3372
▁недовольны	-11.3372
▁Минсельхоз	-11.3372
▁надеемся	-11.3372
▁КоАП	-11.3372
▁потребовала	-11.3373
▁избавиться	-11.3373
▁(10	-11.3373
▁согласилась	-11.3374
▁расширения	-11.3375
▁массив	-11.3375
▁наставник	-11.3375
▁сыном	-11.3375
Сибирск	-11.3376
▁Артур	-11.3376
браться	-11.3376
▁сестра	-11.3378
▁ничем	-11.3379
▁широкий	-11.338
▁2025	-11.3381
▁$6	-11.3388
▁четвертого	-11.3388
▁бывшие	-11.3389
▁составлять	-11.3389
▁14-	-11.3389
▁прямые	-11.3392
▁объединение	-11.3394
▁хорошим	-11.3396
пира	-11.3399
▁воздушных	-11.34
Яблоко	-11.3401
бизнес	-11.3405
пустить	-11.3407
нские	-11.3407
▁Пенсионн	-11.3408
▁отправк	-11.341
▁исследова	-11.341
спект	-11.3411
▁мобильно	-11.3413
▁изъяты	-11.3413
крест	-11.3416
▁Ha	-11.3416
▁забывать	-11.3416
▁возглавляем	-11.3418
▁Восточный	-11.3421
tic	-11.3423
▁отеля	-11.3426
▁озвучил	-11.3426
▁награжден	-11.3428
▁общественны	-11.3429
▁23-	-11.3432
Строй	-11.3432
▁Эрик	-11.3433
▁дисквалифицир	-11.3433
▁близкие	-11.3434
-2015	-11.3436
▁стандартам	-11.3436
шер	-11.3436
▁°	-11.3436
▁причастны	-11.3436
жир	-11.3436
сли	-11.3438
ющаяся	-11.3439
▁идеальн	-11.344
▁либерал	-11.3441
тветственность	-11.3446
▁сырье	-11.3446
онный	-11.3446
▁чемпионка	-11.3446
da	-11.3448
-6	-11.3448
▁Цар	-11.3451
▁ногу	-11.3452
▁0,5	-11.3453
ющем	-11.3454
▁принципу	-11.3454
▁праздников	-11.3457
▁аналогичн	-11.3457
▁помощника	-11.3457
▁взаимо	-11.3459
опровозглашенной	-11.3461
стин	-11.3465
▁De	-11.3467
▁обяза	-11.3468
▁стоил	-11.3469
▁международными	-11.347
▁залива	-11.347
▁атаке	-11.3475
ливо	-11.3476
▁Основно	-11.3478
▁представлена	-11.3478
стрем	-11.3479
дно	-11.3479
▁лучшего	-11.348
ub	-11.3482
▁кроссовера	-11.3482
▁Абу	-11.3482
▁опубликованы	-11.3483
▁имею	-11.3483
▁Поводо	-11.3485
▁направлениях	-11.3485
родные	-11.3486
▁оптимальн	-11.3487
▁BBC	-11.3487
▁Оказалось	-11.3487
▁ПАСЕ	-11.3487
▁Приморье	-11.3487
▁Штайнмайер	-11.3487
▁асфальт	-11.3487
▁выставку	-11.3487
▁конституции	-11.3487
▁низкие	-11.3487
▁обжаловать	-11.3487
▁объясняют	-11.3487
▁опьянения	-11.3487
▁площадку	-11.3487
▁предупреждение	-11.3487
▁уязвим	-11.3487
▁эмбарго	-11.3487
▁интерьер	-11.3487
▁попробовать	-11.3487
▁расследовании	-11.3487
правоохранителей	-11.3487
▁добыча	-11.3487
▁миграции	-11.3487
▁актуально	-11.3487
▁предпочтени	-11.3487
▁авиакомпания	-11.3487
▁любителей	-11.3487
▁входящих	-11.3487
▁управляющих	-11.3487
▁РПЦ	-11.3487
▁гимнаст	-11.3487
▁подчеркивают	-11.3488
▁Sport	-11.3488
водят	-11.3489
▁ДНК	-11.3489
▁Шер	-11.349
▁Краснодарского	-11.3491
ходилось	-11.3491
Примерно	-11.3491
▁пожизненно	-11.3492
▁договору	-11.3494
▁Центральный	-11.3494
▁верить	-11.3494
▁переговорам	-11.3494
баев	-11.3495
▁World	-11.3496
▁своевременно	-11.3496
▁поклонников	-11.3498
▁личный	-11.3498
▁Эк	-11.3498
▁опор	-11.35
▁собрали	-11.3501
вою	-11.3501
▁определенный	-11.3501
▁делово	-11.3501
▁нужд	-11.3503
▁поправка	-11.3503
▁Мос	-11.3504
промышленн	-11.3504
▁госсекретаря	-11.3504
кого	-11.3505
▁Был	-11.3508
кажут	-11.3508
88	-11.3511
▁нанесли	-11.3512
Раз	-11.3513
тельной	-11.3515
▁прибывши	-11.3517
▁записал	-11.3519
Сегодня	-11.3522
Ar	-11.3523
▁обстоятельствах	-11.3523
▁86	-11.3524
▁нести	-11.3527
▁расчета	-11.3528
▁6%	-11.3528
▁трат	-11.353
▁выдал	-11.3531
▁помню	-11.3531
▁преступной	-11.3533
цкая	-11.3534
▁намерено	-11.3536
▁Коз	-11.3537
▁непонятно	-11.3541
▁мобильного	-11.3541
очень	-11.3542
▁определять	-11.3549
▁голове	-11.3549
▁(7	-11.3551
▁Тарасов	-11.3551
▁тайм	-11.3555
▁Ав	-11.3556
▁Ник	-11.356
▁берут	-11.3563
хватить	-11.3563
▁автобусов	-11.3566
der	-11.3566
▁авиационны	-11.3567
▁каждо	-11.3567
1,5	-11.3567
▁приток	-11.3567
▁Сол	-11.3567
▁следы	-11.3569
вшееся	-11.357
▁Ангела	-11.3571
▁отражен	-11.3573
▁Белом	-11.3579
age	-11.3582
▁подготовили	-11.3584
ходящий	-11.3585
▁Западе	-11.3586
▁жительница	-11.3587
▁защитн	-11.3587
▁реального	-11.3593
▁клубом	-11.3594
главы	-11.3594
▁Шах	-11.3595
3,5	-11.3596
▁ракета	-11.3596
▁полуостров	-11.3597
▁приняло	-11.3599
▁Баз	-11.36
▁Степанов	-11.3601
▁рассказывали	-11.3602
▁доходах	-11.3603
▁очевидны	-11.3603
Евровидение	-11.3603
▁Брюссель	-11.3603
▁Севастополе	-11.3603
▁Соловьев	-11.3603
▁положительный	-11.3603
▁сомнений	-11.3603
▁спектакле	-11.3603
▁телеведущ	-11.3603
▁хищения	-11.3603
▁Шеремет	-11.3603
▁корабли	-11.3603
▁немецких	-11.3603
▁сложные	-11.3603
▁Видимо	-11.3603
▁посадки	-11.3603
▁нацелен	-11.3603
▁постановил	-11.3603
▁осени	-11.3604
▁голосовании	-11.3604
▁валюте	-11.3604
▁шлем	-11.3604
▁впечатления	-11.3604
▁занимаем	-11.3604
▁застрелил	-11.3605
▁замену	-11.3605
▁завершении	-11.3606
компании	-11.3608
▁истек	-11.3608
▁подтверждения	-11.3609
▁европейский	-11.3609
▁разместить	-11.3609
▁Ираном	-11.361
фиш	-11.3611
▁осуществить	-11.3611
лететь	-11.3611
центре	-11.3612
▁населением	-11.3613
▁Вероятно	-11.3613
▁Пят	-11.3614
▁Анны	-11.3615
▁СКА	-11.3615
бежать	-11.3616
▁имидж	-11.3617
▁арестованы	-11.3618
▁Дети	-11.3619
▁Кристин	-11.3619
▁показателям	-11.3621
нимал	-11.3622
▁принципиальн	-11.3624
▁Пермск	-11.3626
▁значимо	-11.3628
▁гражданства	-11.3629
▁словом	-11.3629
▁схемы	-11.363
▁признаков	-11.3634
▁направленные	-11.3636
▁выиграли	-11.3637
Победа	-11.3637
систем	-11.3637
▁остры	-11.3637
▁Филиппин	-11.3638
▁современном	-11.3638
▁полосы	-11.3639
Глав	-11.3639
Украина	-11.364
▁Зелен	-11.3641
▁Дадин	-11.3641
▁открыва	-11.3645
▁пробег	-11.3646
▁фу	-11.3647
▁5,5	-11.3648
▁пуга	-11.3655
▁резервов	-11.3658
▁знакомств	-11.3658
Радио	-11.366
▁сила	-11.366
▁Фер	-11.3661
дешев	-11.3663
▁площадках	-11.3664
учив	-11.367
▁28-	-11.3671
▁учредител	-11.3671
▁совершал	-11.3671
▁Пес	-11.3671
▁считал	-11.3672
▁эксперимента	-11.3673
оров	-11.3675
Йорка	-11.3676
двор	-11.3677
▁фрагмент	-11.3677
▁перехват	-11.3683
▁Актив	-11.3685
оры	-11.3687
ографии	-11.3687
▁En	-11.369
▁масштаба	-11.369
Днепр	-11.3692
▁Афганистане	-11.3692
▁философ	-11.3695
▁Владивостоке	-11.3696
шла	-11.3697
▁этажа	-11.3698
▁Жу	-11.3699
▁командира	-11.37
▁поисках	-11.3703
▁общин	-11.3703
▁выпал	-11.3704
▁победе	-11.3704
▁расположенных	-11.3705
▁факторы	-11.3708
▁положением	-11.371
▁самоубийств	-11.371
пир	-11.3713
вили	-11.3714
▁визы	-11.3714
▁договоры	-11.3715
сирийские	-11.3716
▁войсками	-11.3717
▁вокзала	-11.3719
▁трансфер	-11.3719
▁Лазарев	-11.3721
▁Подмосковья	-11.3721
▁аккумулятор	-11.3721
▁внутренний	-11.3721
▁деревья	-11.3721
▁творчества	-11.3721
▁отраслей	-11.3721
▁повезло	-11.3721
▁потребности	-11.3721
▁проверке	-11.3721
▁легких	-11.3721
мощный	-11.3721
▁Грозном	-11.3721
▁платформы	-11.3721
▁посоветовал	-11.3721
▁Ковалев	-11.3721
▁позволял	-11.3721
▁Uber	-11.3721
няли	-11.3721
▁успев	-11.3721
▁стиля	-11.3723
▁арене	-11.3723
▁возобновить	-11.3723
▁1:0	-11.3723
▁дополнительный	-11.3723
читывал	-11.3724
▁применении	-11.3724
▁применил	-11.3725
▁ручн	-11.3725
▁хорошее	-11.3725
▁хорошей	-11.3725
▁Фор	-11.3726
▁подарил	-11.3726
▁Галина	-11.3727
▁сервер	-11.3728
▁пропустил	-11.3729
▁Тру	-11.3729
▁слышал	-11.373
▁основа	-11.373
▁бойца	-11.3733
Лент	-11.3734
▁фильтр	-11.3735
▁куратор	-11.3735
летнему	-11.3735
▁личные	-11.3735
▁волос	-11.3736
▁сложная	-11.3737
▁ФНС	-11.3737
▁болельщики	-11.374
▁мягко	-11.374
▁Януковича	-11.374
Шахтер	-11.374
▁домашнем	-11.3741
мобил	-11.3741
▁суть	-11.3743
▁акцизов	-11.3743
▁продолжительно	-11.3744
▁головно	-11.3745
▁стабилизации	-11.3745
▁продвину	-11.3746
▁консультант	-11.3747
▁Новосибирской	-11.3748
факт	-11.3749
▁шагом	-11.375
▁написан	-11.3751
▁Дар	-11.3752
▁перевести	-11.3753
▁Виктория	-11.3753
еву	-11.3756
▁потерять	-11.3756
▁банкротстве	-11.3757
▁Парижа	-11.3757
▁торговые	-11.3758
ившие	-11.3758
▁объяв	-11.3759
▁старта	-11.3759
▁увеличении	-11.376
▁Март	-11.3761
пита	-11.3762
Нусра	-11.3766
▁инструментов	-11.3766
▁Соглашение	-11.3768
▁разгон	-11.3768
▁Пак	-11.3769
литровы	-11.3769
ua	-11.377
▁определенной	-11.3771
▁выдавать	-11.3771
▁учебных	-11.3772
▁морских	-11.3773
▁мероприятиях	-11.3773
▁присутствовал	-11.3776
▁подорожал	-11.3776
рабатывать	-11.3776
▁спутников	-11.3778
▁индийск	-11.3779
▁проблеме	-11.378
▁слуша	-11.378
▁$40	-11.3781
▁всяки	-11.3783
▁Вид	-11.3787
▁начинал	-11.3787
подобный	-11.379
будет	-11.379
▁давали	-11.3792
▁успешн	-11.3793
▁критически	-11.3798
▁долгосрочно	-11.3799
▁поездов	-11.3799
▁работаем	-11.3802
▁скот	-11.3804
▁бизнесу	-11.3806
▁планете	-11.3807
▁экономически	-11.3808
▁первыми	-11.3808
▁отечественн	-11.3808
▁багаж	-11.3809
▁Боб	-11.3813
▁обнародовал	-11.3814
КО	-11.3814
ленные	-11.3814
▁поиски	-11.3816
▁четвертьфинал	-11.3816
▁депутатами	-11.3817
▁Бак	-11.3819
ителям	-11.3824
▁всерьез	-11.3828
давать	-11.3828
91	-11.3829
▁смягч	-11.3833
▁аудитор	-11.3836
▁Обще	-11.3837
▁Алла	-11.3837
▁оптимист	-11.384
▁Hyundai	-11.384
▁Одессе	-11.384
▁администрацию	-11.384
▁видеоролик	-11.384
▁деревьев	-11.384
▁дивизион	-11.384
▁запрещает	-11.384
▁квалификации	-11.384
▁побережье	-11.384
▁подразумевает	-11.384
▁приезжал	-11.384
▁прототип	-11.384
▁розыгрыш	-11.384
▁сформировать	-11.384
▁тяжелым	-11.384
▁обвиняемый	-11.384
▁Техас	-11.384
▁серьезную	-11.384
▁разногласия	-11.384
▁подумать	-11.384
▁преследования	-11.384
▁остановки	-11.384
▁трижды	-11.384
▁Луценко	-11.384
▁Керченск	-11.384
▁подвижн	-11.384
▁Планируется	-11.384
▁ответственно	-11.384
▁противостоять	-11.3841
▁Лучше	-11.3841
▁немецкой	-11.3841
▁предположить	-11.3841
▁способствовал	-11.3842
▁1993	-11.3842
▁премиальн	-11.3842
▁имеем	-11.3842
▁образованию	-11.3843
▁партнерства	-11.3843
▁съемок	-11.3843
▁обвинений	-11.3844
▁разгром	-11.3846
▁пыталась	-11.3846
▁усили	-11.3846
▁насыщен	-11.3846
▁спасения	-11.3846
▁Мэй	-11.3847
▁океан	-11.3847
▁взрывно	-11.3848
▁выяснил	-11.3848
▁местом	-11.3849
пен	-11.3849
▁Стамбул	-11.3849
▁откроется	-11.3849
▁перенести	-11.385
▁Саратовской	-11.385
▁взлома	-11.385
▁Жил	-11.385
▁способна	-11.3851
рман	-11.3852
▁Архангельск	-11.3853
▁критики	-11.3854
▁собирался	-11.3854
▁Весь	-11.3855
▁параллельно	-11.3856
Атлетико	-11.3859
res	-11.3859
▁Книг	-11.3859
▁Элла	-11.386
тис	-11.3863
▁нефтегазов	-11.3863
▁понятия	-11.3865
▁инновационны	-11.3868
▁граб	-11.387
▁двусторонних	-11.3871
▁чрезвычайны	-11.3871
▁тысячу	-11.3873
▁29-	-11.3876
▁визов	-11.3876
▁традиционных	-11.3877
▁40-	-11.3878
▁Мосула	-11.3878
▁полосу	-11.3878
Когда	-11.3879
НД	-11.3879
▁научной	-11.388
▁митинга	-11.3881
▁Врачи	-11.3881
продукт	-11.3881
▁четвертом	-11.3883
льная	-11.3885
▁собственник	-11.389
▁греческо	-11.3891
▁нанесени	-11.3891
▁многоквартирны	-11.3892
кину	-11.3895
▁заморозке	-11.3898
▁имела	-11.3898
▁пригород	-11.3898
500	-11.3899
▁Северная	-11.39
железной	-11.3901
▁закреплен	-11.3902
▁туристы	-11.3904
ставляет	-11.3905
▁международно	-11.3907
▁раст	-11.3908
▁покажут	-11.3909
▁отбора	-11.3911
тюр	-11.3911
Открыт	-11.3913
▁держал	-11.3918
▁сырьев	-11.392
▁условн	-11.3922
▁осуществление	-11.3923
▁росте	-11.3923
ключение	-11.3924
рег	-11.3924
помнить	-11.3925
▁здоров	-11.3927
▁помогал	-11.3928
▁Рыб	-11.393
▁плотно	-11.3931
оставят	-11.3933
▁местными	-11.3934
▁рака	-11.3938
▁накопи	-11.3938
▁морально	-11.3938
▁учебны	-11.3945
▁подсчет	-11.3945
▁намек	-11.3948
▁скач	-11.3949
▁стоял	-11.3952
▁оказывает	-11.3952
дже	-11.3953
▁радость	-11.3954
▁заказа	-11.3955
▁требовали	-11.3957
▁Генпрокуратура	-11.396
▁ЮНЕСКО	-11.396
▁администрацией	-11.396
▁вероятны	-11.396
▁выступлений	-11.396
▁заключить	-11.396
▁налогообложения	-11.396
▁пенальти	-11.396
▁противостояния	-11.396
▁стремление	-11.396
▁увольнения	-11.396
▁эвакуации	-11.396
▁Оксана	-11.396
▁комиссар	-11.396
▁численности	-11.396
▁ведущие	-11.396
▁желанию	-11.396
▁Синдз	-11.396
▁способно	-11.396
▁МТС	-11.396
▁заведующ	-11.396
▁Mo	-11.396
▁универсальн	-11.396
▁стремятся	-11.396
▁Идея	-11.396
▁снимки	-11.3961
▁избыточн	-11.3961
▁прочего	-11.3962
▁неожиданны	-11.3962
▁магнитуд	-11.3962
▁препода	-11.3962
▁коррупционны	-11.3963
▁отказывается	-11.3964
▁помещен	-11.3964
▁пункте	-11.3965
▁Никаки	-11.3966
▁остальное	-11.3966
▁содействие	-11.3966
▁гимн	-11.3967
▁Цены	-11.3967
▁освобождению	-11.3967
▁Зачем	-11.3968
▁МиГ	-11.3969
▁фотографий	-11.397
▁Очевидно	-11.397
▁газопровод	-11.3971
здоров	-11.3971
64	-11.3971
ьков	-11.3973
▁среда	-11.3973
▁возникновения	-11.3974
▁иностранного	-11.3975
art	-11.3975
▁задержание	-11.3976
ТК	-11.3976
▁малых	-11.3977
▁занимать	-11.3979
▁мета	-11.398
▁крик	-11.398
▁выплату	-11.3981
▁Лан	-11.3981
▁киевски	-11.3984
▁зарубежн	-11.3984
кажет	-11.3984
кров	-11.3984
▁Амур	-11.3986
▁Билл	-11.3986
▁сетев	-11.3987
▁организациям	-11.3987
▁взлом	-11.3988
▁леса	-11.3989
▁de	-11.3991
ившая	-11.3991
▁расположенном	-11.3992
гнать	-11.3993
▁Выборы	-11.3993
▁Пять	-11.3994
▁органам	-11.3994
▁включить	-11.3998
▁100-	-11.3999
▁освобождение	-11.3999
▁торги	-11.4001
запрещена	-11.4001
берут	-11.4002
Деньги	-11.4002
▁Рам	-11.4003
нера	-11.4003
▁удачно	-11.4003
делить	-11.4003
▁ветеран	-11.4003
мост	-11.4005
▁клип	-11.4012
▁авиаудар	-11.4012
▁украшен	-11.4012
Медиа	-11.4013
▁МО	-11.4013
▁равных	-11.4016
▁Филип	-11.4017
▁Геннади	-11.4019
▁шагов	-11.4021
▁курсу	-11.4022
Сам	-11.4023
▁вопросах	-11.4025
▁смартфона	-11.4025
▁противоречи	-11.4026
▁мульти	-11.4027
▁Лук	-11.4027
▁ракетно	-11.4031
▁различно	-11.4034
59	-11.4036
столь	-11.4037
делать	-11.404
▁британских	-11.4042
61	-11.4042
▁миллионы	-11.4044
▁предметов	-11.4046
▁валюта	-11.4046
▁значительны	-11.4046
▁воздействие	-11.4051
работает	-11.4052
▁демократически	-11.4052
▁позитивно	-11.4052
▁обещан	-11.4052
▁верну	-11.4053
▁Мало	-11.4055
андер	-11.4057
▁гола	-11.4057
гель	-11.4058
езжать	-11.4059
▁перестали	-11.4059
▁парламентско	-11.4059
▁счетах	-11.4061
▁устанавливать	-11.4062
▁экране	-11.4063
▁решает	-11.4064
▁попадает	-11.4065
▁будь	-11.4065
▁Джан	-11.4068
▁клиническ	-11.4069
ВК	-11.4073
▁Трампу	-11.4073
▁Кана	-11.4075
ist	-11.4075
▁потеряла	-11.4077
ke	-11.4077
▁верно	-11.4078
▁эмоции	-11.4082
▁Airlines	-11.4082
▁Getty	-11.4082
▁Мадуро	-11.4082
▁лагерь	-11.4082
▁побережья	-11.4082
▁статистики	-11.4082
▁урожай	-11.4082
▁Спикер	-11.4082
▁церковн	-11.4082
▁ехать	-11.4082
▁Гончар	-11.4082
▁страшны	-11.4082
▁смесь	-11.4082
▁скрыться	-11.4082
▁поставках	-11.4082
▁молитв	-11.4082
▁строительных	-11.4082
▁ученый	-11.4082
▁экономическая	-11.4082
▁легендарно	-11.4083
▁исследователи	-11.4083
дневны	-11.4083
▁фасад	-11.4083
▁меню	-11.4084
▁присоединиться	-11.4084
▁дальни	-11.4084
▁оформил	-11.4084
▁авиация	-11.4085
▁Симон	-11.4086
▁снижении	-11.4086
▁жительства	-11.4086
▁Ставропольск	-11.4086
▁поехал	-11.4088
▁гигант	-11.4089
▁входа	-11.4089
▁пен	-11.4089
▁Абдул	-11.4089
▁Нижнего	-11.409
▁рамки	-11.409
▁еду	-11.4091
▁лесу	-11.4091
▁отдельным	-11.4092
▁парковки	-11.4092
▁отказе	-11.4093
▁получился	-11.4094
▁отдали	-11.4095
▁личным	-11.4097
FI	-11.4101
Новой	-11.4101
▁пятый	-11.4103
цова	-11.4104
▁Белый	-11.4104
▁общих	-11.4104
АП	-11.4107
▁Берлин	-11.4108
▁штатах	-11.4112
ностей	-11.4113
Вол	-11.4114
кот	-11.4117
▁выходят	-11.4117
▁оставляет	-11.4117
арвар	-11.4119
▁подсчетам	-11.4121
▁друзьями	-11.4122
▁привлекал	-11.4127
ушкин	-11.4127
▁Вод	-11.4128
▁поврежден	-11.4129
рабатывает	-11.4132
ЕР	-11.4133
▁волонтер	-11.4135
▁изучение	-11.4136
огрев	-11.4139
▁задержива	-11.4139
▁бок	-11.4141
▁игроком	-11.4142
ичной	-11.4143
▁плод	-11.4143
▁Самые	-11.4145
▁аналог	-11.4145
▁предусмотренны	-11.4145
:32	-11.4146
▁подвиг	-11.4147
▁съезда	-11.4148
▁поняли	-11.4148
▁1980-	-11.4149
▁тон	-11.415
▁незаконного	-11.4152
читался	-11.4153
ГК	-11.4155
▁прекращен	-11.4155
▁считали	-11.4156
[...]
