<unk>	0
<s>	0
</s>	0
▁,	-3.54105
▁а	-3.73378
▁и	-3.73562
▁в	-3.76355
▁с	-3.76496
▁.	-3.82737
▁о	-4.26566
▁"	-4.35825
н	-4.46192
▁на	-4.47172
▁п	-4.52603
▁у	-4.56448
▁е	-4.64141
▁-	-4.69525
▁к	-4.72362
и	-4.7262
▁по	-4.753
▁д	-4.84875
▁ы	-4.98042
▁ов	-5.00358
а	-5.00525
т	-5.05967
▁не	-5.07856
▁за	-5.08268
▁м	-5.26017
о	-5.30333
е	-5.30631
л	-5.3233
▁про	-5.37557
▁т	-5.39971
▁В	-5.42711
▁что	-5.45827
▁б	-5.45885
п	-5.45934
▁об	-5.51324
к	-5.56162
▁ом	-5.5656
▁от	-5.56738
▁ой	-5.57646
р	-5.64342
▁1	-5.65859
▁я	-5.68045
▁0	-5.71974
▁С	-5.80053
▁при	-5.82068
▁из	-5.837
▁2	-5.84492
в	-5.85833
с	-5.87339
м	-5.93084
▁ого	-5.93362
▁П	-5.93614
▁вы	-5.9752
▁но	-5.99675
▁л	-6.00725
▁ил	-6.00831
▁М	-6.01436
▁ен	-6.101
▁их	-6.10111
▁ие	-6.10285
отор	-6.12523
▁:	-6.14538
▁н	-6.1546
▁ия	-6.15941
▁ь	-6.20436
▁К	-6.21559
▁р	-6.2167
▁раз	-6.21945
▁пред	-6.22489
▁ий	-6.27333
▁до	-6.27619
▁Р	-6.28327
▁ые	-6.28372
д	-6.29048
▁А	-6.29346
▁ей	-6.31339
▁ф	-6.3405
▁ить	-6.34407
▁ая	-6.3518
▁ых	-6.36329
й	-6.36619
▁под	-6.41221
▁ения	-6.41494
▁его	-6.42961
▁(	-6.43181
▁ическ	-6.43599
▁И	-6.44492
▁ах	-6.44646
▁)	-6.45865
▁О	-6.46472
ля	-6.4665
▁ии	-6.49351
▁ый	-6.50017
▁ных	-6.50307
▁ся	-6.50358
▁год	-6.5088
у	-6.53776
▁Д	-6.54955
▁ение	-6.55409
▁ной	-6.57494
▁Б	-6.57887
▁ного	-6.59483
▁ре	-6.59633
▁ает	-6.59918
▁со	-6.62043
▁ать	-6.62086
▁Т	-6.63002
▁итель	-6.63688
▁Росси	-6.63851
▁был	-6.64752
▁з	-6.64794
▁как	-6.65073
▁5	-6.65967
▁ит	-6.67038
▁Г	-6.67426
▁По	-6.67827
▁им	-6.69073
▁ами	-6.69811
▁ал	-6.69904
ж	-6.70942
▁ком	-6.7152
ен	-6.72158
▁й	-6.73828
▁это	-6.7386
▁пере	-6.75323
▁он	-6.78324
▁ое	-6.7876
▁ные	-6.7899
▁то	-6.79049
▁ю	-6.79064
▁ник	-6.79573
▁6	-6.81153
▁ный	-6.81708
ов	-6.8293
▁де	-6.83048
▁э	-6.83679
▁г	-6.83972
▁ет	-6.84226
▁ам	-6.84443
▁работ	-6.84627
ообщ	-6.85351
▁На	-6.85888
▁ую	-6.87218
з	-6.89187
▁9	-6.8969
▁кон	-6.8996
▁пре	-6.90055
▁3	-6.91946
▁4	-6.92254
▁У	-6.93227
▁Л	-6.93935
ольк	-6.94722
▁ч	-6.95377
▁этом	-6.95982
▁ее	-6.96255
▁ым	-6.97996
▁йск	-6.98224
▁так	-6.99054
▁ан	-6.99583
▁говор	-7.01272
▁ка	-7.03305
▁ть	-7.04243
▁Н	-7.07557
щ	-7.09055
▁тр	-7.10705
▁прав	-7.10865
▁росс	-7.11566
▁ем	-7.12094
▁7	-7.13115
.	-7.13407
,	-7.14129
▁ок	-7.15761
▁ания	-7.17569
▁ции	-7.17697
▁ности	-7.17782
▁став	-7.18221
▁ства	-7.20145
▁ки	-7.20655
ер	-7.21779
▁дент	-7.22638
▁8	-7.22795
▁воз	-7.23949
▁Ка	-7.24858
▁все	-7.25291
▁ской	-7.25657
▁же	-7.25674
▁будет	-7.26804
▁мир	-7.27086
ш	-7.27107
▁след	-7.28092
▁рас	-7.29928
ч	-7.29998
▁году	-7.30996
▁ж	-7.31236
▁реш	-7.31304
ил	-7.31416
▁ств	-7.32203
ю	-7.32296
▁ство	-7.32767
▁ин	-7.32892
▁глав	-7.3362
ду	-7.33998
▁ш	-7.34211
▁иров	-7.34521
▁расс	-7.34655
▁ным	-7.34672
▁также	-7.35102
▁ко	-7.35706
▁ости	-7.35866
▁тор	-7.35916
▁Е	-7.36171
▁во	-7.36377
▁ев	-7.37006
▁Ф	-7.37598
▁пос	-7.38283
▁ении	-7.38825
дел	-7.39351
▁уже	-7.41
▁тель	-7.41149
▁ность	-7.41984
▁ится	-7.42057
▁Пр	-7.42365
▁ают	-7.42405
▁ию	-7.4268
▁Ч	-7.43749
▁х	-7.44388
▁	-7.44509
▁сам	-7.44617
▁ского	-7.44837
▁ное	-7.45367
▁орган	-7.45525
▁стоя	-7.46924
ы	-7.47232
б	-7.47636
▁ли	-7.49304
▁город	-7.4965
▁без	-7.4973
▁лен	-7.4997
▁было	-7.50188
▁оп	-7.50409
▁чем	-7.50628
▁ная	-7.51003
▁остав	-7.5118
▁время	-7.51292
▁З	-7.52162
▁она	-7.52292
▁том	-7.52675
рези	-7.52687
▁авто	-7.52895
▁ек	-7.5304
▁ос	-7.53151
▁нов	-7.54208
▁нес	-7.54399
прав	-7.54648
▁лет	-7.54771
▁ласти	-7.54898
▁ель	-7.55307
нтер	-7.55448
▁чело	-7.55502
осле	-7.55672
чал	-7.56383
▁может	-7.56397
▁ста	-7.56991
▁или	-7.59726
▁явил	-7.60305
▁мы	-7.60308
▁али	-7.60432
альн	-7.60435
▁ется	-7.60997
ход	-7.61815
▁ном	-7.62075
▁Я	-7.62134
▁стр	-7.62272
▁вид	-7.623
бы	-7.62361
ейс	-7.62654
вод	-7.63714
▁ании	-7.63831
лее	-7.64107
ств	-7.64251
▁Х	-7.65059
▁?	-7.65163
▁стран	-7.65235
сли	-7.65751
▁Он	-7.6585
ого	-7.65995
▁США	-7.66031
▁стве	-7.66357
▁еще	-7.66744
▁мент	-7.66823
из	-7.67739
▁ход	-7.68677
ой	-7.68744
▁ист	-7.6881
их	-7.69545
▁цион	-7.6982
г	-7.69982
▁Эт	-7.70292
▁тер	-7.70796
▁ступ	-7.71115
▁ления	-7.71133
▁уд	-7.72378
▁арств	-7.725
▁экс	-7.72579
▁инф	-7.72791
▁веде	-7.72881
я	-7.73012
▁сказ	-7.73019
▁уч	-7.73234
▁ят	-7.73552
▁%	-7.73643
▁ру	-7.74263
▁альн	-7.74359
▁ян	-7.74767
▁лова	-7.75047
▁терр	-7.75223
▁ную	-7.75879
▁Ш	-7.75943
▁лож	-7.76202
▁озмо	-7.76632
▁меж	-7.76833
▁ается	-7.77523
▁ль	-7.77759
▁держ	-7.77775
▁ку	-7.77826
▁ми	-7.78321
▁Ко	-7.7846
ц	-7.79013
▁роект	-7.79053
▁ость	-7.79192
▁олуч	-7.79513
▁овал	-7.80061
▁ский	-7.80078
▁они	-7.80234
▁ован	-7.80736
▁ер	-7.82041
▁готов	-7.8246
▁ому	-7.82503
▁ют	-7.82515
▁част	-7.82603
▁нима	-7.8261
▁полн	-7.83162
▁Но	-7.83252
инис	-7.83253
▁Са	-7.83295
▁перв	-7.83407
▁вод	-7.83552
▁кор	-7.83814
тель	-7.84276
ят	-7.84904
▁бы	-7.85157
▁опрос	-7.85901
▁Алек	-7.86757
▁народ	-7.87329
▁РФ	-7.87419
ольш	-7.87438
▁чере	-7.87679
▁сред	-7.87864
▁За	-7.88064
▁ублик	-7.88198
▁госу	-7.88921
▁краи	-7.88946
▁долж	-7.89052
▁енно	-7.89838
▁гос	-7.8997
▁ремен	-7.9072
▁мест	-7.91336
▁стал	-7.91754
▁дел	-7.91801
▁есть	-7.93011
▁Э	-7.93096
▁рубл	-7.93484
од	-7.93642
▁ив	-7.93845
▁ивн	-7.93904
▁Не	-7.94062
▁ений	-7.94124
▁знач	-7.94281
▁ыми	-7.94428
▁Об	-7.94926
ет	-7.95668
▁ледо	-7.96241
▁ание	-7.96254
▁перед	-7.96879
▁орма	-7.96899
ступ	-7.97167
чита	-7.97261
▁ьтат	-7.98179
▁этого	-7.98342
▁кур	-7.98524
▁льно	-7.98606
▁годня	-7.98801
зул	-7.98839
▁ению	-7.98942
▁ился	-7.99599
▁ться	-7.99792
▁ими	-8.00249
▁од	-8.00947
▁одно	-8.01242
▁ейчас	-8.01561
▁руб	-8.01908
▁явля	-8.02064
▁анк	-8.02238
▁нет	-8.02285
ерш	-8.0252
▁груп	-8.02862
оном	-8.02865
▁Влад	-8.02999
▁ряд	-8.03023
част	-8.03445
▁хо	-8.03821
▁оста	-8.03894
олиц	-8.0397
труд	-8.0401
▁могу	-8.04037
▁ными	-8.04083
▁су	-8.0421
▁ление	-8.0484
ем	-8.04865
ять	-8.05011
▁тся	-8.05126
▁тур	-8.05236
▁Евро	-8.05293
▁иться	-8.05845
▁зна	-8.06203
нош	-8.06503
▁ес	-8.06724
▁ир	-8.06919
▁торон	-8.06974
ий	-8.07016
▁жд	-8.07346
▁ны	-8.07566
▁чет	-8.07711
▁орм	-8.08125
▁ающ	-8.0845
▁млн	-8.08492
▁ских	-8.08554
ясн	-8.08703
▁опас	-8.09328
кон	-8.09544
▁днако	-8.09569
▁метил	-8.09667
▁зва	-8.09668
стан	-8.10279
▁ик	-8.10537
кие	-8.10587
▁центр	-8.10776
▁будут	-8.10849
▁риме	-8.11179
▁пол	-8.11248
▁олог	-8.11282
хран	-8.11579
▁телей	-8.11695
▁нас	-8.11798
▁ников	-8.13142
ражд	-8.13868
▁конц	-8.14232
▁ротив	-8.14549
▁мен	-8.14574
▁еств	-8.14797
▁мотр	-8.15387
▁когда	-8.15556
e	-8.15826
▁аем	-8.16448
▁истем	-8.16574
▁те	-8.16673
▁ьн	-8.16705
▁обра	-8.16739
▁вш	-8.17123
▁ме	-8.17149
▁где	-8.17588
▁можно	-8.17607
▁тем	-8.179
чень	-8.18018
▁них	-8.18166
▁быть	-8.18318
▁тав	-8.18528
▁ики	-8.18546
▁ключ	-8.18634
▁ью	-8.18833
▁один	-8.19003
▁дела	-8.19108
▁свое	-8.19232
▁треб	-8.19249
дин	-8.19315
им	-8.19349
мен	-8.19444
▁рост	-8.19525
▁ни	-8.19545
▁оказ	-8.19902
▁ция	-8.20044
▁траны	-8.20061
▁заяв	-8.20125
▁ц	-8.2064
ращ	-8.20852
▁эти	-8.21029
держ	-8.21272
▁ран	-8.21409
▁оманд	-8.21805
▁нт	-8.22126
▁руг	-8.22244
▁млрд	-8.22257
▁техн	-8.22299
▁Ж	-8.22674
▁го	-8.23155
▁ур	-8.23162
▁ъ	-8.23289
уац	-8.23324
▁ивш	-8.23376
▁ось	-8.23509
▁ор	-8.23817
▁сего	-8.24084
▁люб	-8.24211
▁ков	-8.24213
▁ему	-8.24227
ужд	-8.24298
▁ке	-8.24387
▁ьзов	-8.24772
▁газ	-8.24866
▁дост	-8.24901
▁Ю	-8.24965
▁овать	-8.25415
заци	-8.25501
▁седа	-8.25545
▁твую	-8.2568
▁друг	-8.2574
▁енных	-8.26273
▁ились	-8.26921
ых	-8.27009
▁тысяч	-8.27251
▁лся	-8.27585
▁район	-8.27634
▁теля	-8.28089
▁ген	-8.28235
▁рес	-8.2826
▁Мин	-8.28311
▁грамм	-8.28358
йск	-8.28366
▁ует	-8.28502
▁милл	-8.28613
▁инанс	-8.28756
▁теле	-8.28843
▁ля	-8.29034
тр	-8.29046
▁над	-8.29171
▁ила	-8.2923
едер	-8.29561
енно	-8.29729
▁два	-8.29827
▁андр	-8.30424
▁оссия	-8.30522
▁орт	-8.31731
▁утин	-8.31867
▁писа	-8.32219
▁рос	-8.32389
▁ием	-8.32464
▁ри	-8.33075
▁ответ	-8.33107
ключ	-8.33472
▁план	-8.33521
звес	-8.3396
▁ти	-8.34031
▁лат	-8.34228
▁цел	-8.34433
▁олжн	-8.34471
вин	-8.34892
▁тыс	-8.35095
▁ело	-8.35198
▁Дж	-8.35421
снов	-8.35455
▁учас	-8.35464
▁!	-8.35704
▁тели	-8.35715
▁цен	-8.35779
▁много	-8.3581
▁ено	-8.35841
бор	-8.36095
▁пресс	-8.3633
▁одим	-8.36353
обил	-8.36437
обх	-8.36467
▁ество	-8.36485
▁три	-8.36892
▁даж	-8.3732
▁стреч	-8.37422
▁транс	-8.37543
▁ел	-8.37881
▁ляе	-8.38185
▁ольше	-8.38231
▁наш	-8.38241
мери	-8.38475
▁ро	-8.38613
▁место	-8.38752
нным	-8.38815
▁нич	-8.38897
здан	-8.39159
▁ru	-8.39201
ним	-8.39508
▁До	-8.39531
меч	-8.39763
▁ская	-8.40021
▁гор	-8.40039
▁ат	-8.40145
▁чин	-8.4031
лич	-8.40312
▁уров	-8.4067
се	-8.40733
▁цию	-8.40764
▁ут	-8.40812
▁каза	-8.41036
▁лист	-8.41094
▁летн	-8.41123
▁пока	-8.41173
▁ники	-8.41362
▁каз	-8.41561
▁защи	-8.41609
▁кр	-8.41614
▁ск	-8.4166
▁рият	-8.41667
▁пыт	-8.41683
нима	-8.41722
▁се	-8.41921
▁ци	-8.4204
▁твия	-8.4225
▁Ново	-8.42294
▁бес	-8.42351
сточ	-8.42703
▁тно	-8.42791
▁путат	-8.42952
▁дире	-8.42996
▁суд	-8.43234
▁Укра	-8.43256
ник	-8.43319
▁право	-8.43452
▁илась	-8.44206
▁кан	-8.44528
▁ись	-8.44746
▁оцен	-8.4502
▁ующ	-8.45049
анск	-8.4531
▁един	-8.45638
▁ался	-8.45718
▁нап	-8.45812
▁ивает	-8.46131
ск	-8.46186
▁порт	-8.4619
▁лиц	-8.46249
▁ерт	-8.46258
ом	-8.46665
▁ич	-8.46692
▁клад	-8.46785
▁аться	-8.46884
глас	-8.46885
▁ния	-8.47212
▁этот	-8.4771
ив	-8.47763
▁ст	-8.47882
▁ог	-8.47998
▁ние	-8.48024
▁гол	-8.48132
▁ением	-8.48252
▁му	-8.48283
▁мер	-8.4833
▁ены	-8.48347
▁коно	-8.48698
▁месте	-8.48828
▁лучил	-8.49223
анее	-8.49274
▁тив	-8.49358
▁ар	-8.49738
▁кол	-8.4974
▁рист	-8.49778
▁спорт	-8.49793
▁всех	-8.49806
олит	-8.49927
▁нти	-8.50041
руш	-8.50058
стра	-8.5015
аль	-8.50152
▁лись	-8.50347
коло	-8.50527
▁агент	-8.50718
▁кач	-8.50793
▁мет	-8.50846
▁иал	-8.51084
▁исп	-8.51827
ить	-8.5183
▁еть	-8.52307
▁Рос	-8.52401
▁огла	-8.52566
▁ейш	-8.52605
▁ества	-8.52645
▁трои	-8.52953
▁сво	-8.5296
фиц	-8.53028
▁ях	-8.53156
▁енко	-8.53241
t	-8.53367
ный	-8.53393
▁чик	-8.53432
отв	-8.53436
▁вз	-8.53543
▁него	-8.53722
оенн	-8.53883
виж	-8.54013
▁инг	-8.54031
▁лаг	-8.5404
зыв	-8.5406
полн	-8.54111
стор	-8.54153
ущ	-8.54343
ать	-8.54519
▁эт	-8.54675
▁дет	-8.549
пец	-8.54965
спол	-8.55005
▁омент	-8.55371
▁кин	-8.55406
▁круп	-8.55459
▁Мы	-8.5546
▁илось	-8.55542
▁пара	-8.55985
об	-8.56514
▁эк	-8.56605
▁ятся	-8.56914
▁реги	-8.56969
▁редит	-8.5714
▁авиа	-8.57252
▁мьер	-8.57312
пи	-8.57651
▁торг	-8.5805
▁аний	-8.58297
▁себя	-8.58372
▁ском	-8.58432
▁всем	-8.5847
▁рав	-8.58851
ира	-8.58912
▁сен	-8.58915
▁месяц	-8.58933
▁ла	-8.59011
▁ност	-8.59107
▁лект	-8.59189
▁мор	-8.59233
▁юджет	-8.59296
анов	-8.59415
вар	-8.59465
каз	-8.59572
▁изнес	-8.59692
▁ика	-8.59921
▁Во	-8.59943
вых	-8.59993
▁двух	-8.60069
▁авш	-8.60303
▁точн	-8.60542
▁верн	-8.60779
▁вести	-8.60929
▁егион	-8.61001
▁Сирии	-8.61166
▁ад	-8.61309
▁само	-8.61384
▁мере	-8.61547
▁ило	-8.61617
▁оро	-8.61657
твер	-8.6168
▁бург	-8.61751
▁тв	-8.618
▁жите	-8.61834
▁шта	-8.6189
▁день	-8.61977
ад	-8.62078
ком	-8.62434
▁числе	-8.62774
особ	-8.6287
▁ова	-8.6317
▁голос	-8.63262
▁нем	-8.63633
▁отказ	-8.63737
ta	-8.63821
▁ьник	-8.64425
▁ричин	-8.64555
то	-8.64561
s	-8.64586
оку	-8.64599
▁ец	-8.64631
▁евро	-8.64742
▁квар	-8.64865
▁ались	-8.65092
нные	-8.65191
▁ья	-8.65291
▁дес	-8.65303
митр	-8.65444
▁доб	-8.6552
роме	-8.65585
▁ному	-8.65656
▁рек	-8.65658
▁жел	-8.65697
овет	-8.65883
▁адми	-8.66017
▁чит	-8.66446
▁сбор	-8.6646
▁Так	-8.6648
ного	-8.66591
▁рев	-8.66664
лаг	-8.6669
▁ецк	-8.6674
▁голо	-8.66872
лось	-8.66961
▁ид	-8.66991
▁пис	-8.67013
▁тви	-8.67087
▁льн	-8.67107
▁бли	-8.67402
▁школ	-8.67469
▁рез	-8.67624
▁ются	-8.67755
▁рован	-8.67892
▁щик	-8.6795
▁ведо	-8.6805
▁Пет	-8.68066
▁тен	-8.68112
▁лиш	-8.68217
тор	-8.6833
▁яет	-8.68386
▁овой	-8.68437
▁раж	-8.68522
▁тво	-8.686
тябр	-8.68807
▁ечн	-8.69137
▁вер	-8.6925
▁град	-8.69377
▁та	-8.69397
▁дук	-8.69438
елич	-8.69449
▁жил	-8.69545
▁блем	-8.69629
нц	-8.69654
▁ляю	-8.69687
▁оскве	-8.70202
▁езд	-8.70248
▁вис	-8.70303
▁хоро	-8.70368
▁лани	-8.70767
▁етс	-8.70801
естн	-8.7081
▁игра	-8.70931
▁зем	-8.71058
▁ул	-8.71386
▁сти	-8.71399
▁ъект	-8.71605
ыв	-8.71662
▁нии	-8.71731
▁ранее	-8.71732
▁куп	-8.71961
▁ис	-8.72035
"	-8.72055
▁Турц	-8.72072
▁лич	-8.72097
обав	-8.721
▁куль	-8.72205
иров	-8.72304
▁ческ	-8.72319
пера	-8.72395
▁мат	-8.72534
▁ивать	-8.72607
▁стать	-8.72685
▁озво	-8.7271
▁пар	-8.72722
▁ткрыт	-8.7283
▁оциа	-8.72918
прел	-8.72934
ак	-8.73091
▁оск	-8.73299
▁иск	-8.73327
▁тории	-8.73603
▁чле	-8.73644
▁бу	-8.73726
▁оллар	-8.73961
▁опер	-8.73974
треб	-8.74285
мотр	-8.74444
▁ющ	-8.74467
▁Len	-8.74557
озда	-8.74576
▁хот	-8.74666
▁Глав	-8.7531
▁дорог	-8.75453
▁гр	-8.7547
▁лидер	-8.75713
▁Ъ	-8.75746
▁связи	-8.75795
▁скор	-8.75963
▁факт	-8.75983
▁особ	-8.76022
ит	-8.76102
▁тивн	-8.76124
▁там	-8.76138
▁ерге	-8.76342
▁казан	-8.76386
▁служб	-8.76405
▁труд	-8.7655
▁блюд	-8.76689
ябр	-8.76694
▁овлен	-8.76714
▁ум	-8.77048
▁Се	-8.77077
▁ям	-8.77088
▁лимп	-8.77128
▁енщин	-8.77324
▁аль	-8.7762
▁сер	-8.77793
▁цев	-8.77867
▁вел	-8.77897
▁кто	-8.77979
▁лучш	-8.78135
▁дал	-8.78256
▁ТАСС	-8.7848
▁йти	-8.78572
вые	-8.78618
ильн	-8.78626
▁СМИ	-8.78676
един	-8.78796
▁Бел	-8.78798
▁фильм	-8.78914
▁хва	-8.79021
▁людей	-8.7907
▁луча	-8.79113
▁проц	-8.79226
▁ией	-8.79526
новн	-8.7954
▁лощ	-8.79597
▁стре	-8.79685
▁ним	-8.79833
▁исс	-8.80107
▁прос	-8.80225
▁Из	-8.80256
яв	-8.80298
ому	-8.80347
▁матч	-8.80427
▁игр	-8.80462
▁ека	-8.80568
▁машин	-8.80606
▁таки	-8.8065
▁води	-8.80676
ной	-8.80844
▁налог	-8.80853
▁мате	-8.8088
▁втор	-8.80931
▁ять	-8.81086
ров	-8.81131
▁ложн	-8.81249
▁10	-8.81443
▁обыч	-8.81538
▁аш	-8.81676
сил	-8.81766
обед	-8.81888
▁пуск	-8.81903
▁нев	-8.81921
▁сил	-8.81921
▁ятель	-8.82008
▁вин	-8.82014
▁мас	-8.82172
▁ожид	-8.82279
▁крыт	-8.82284
▁$	-8.82558
▁изм	-8.8257
▁ируе	-8.82584
▁дач	-8.82635
▁мещ	-8.82697
▁еспе	-8.82862
▁очн	-8.83142
▁ервы	-8.83167
елен	-8.83204
▁ала	-8.83204
▁/	-8.83337
▁вну	-8.83487
▁укту	-8.83606
ерен	-8.83824
ре	-8.83913
▁пуст	-8.83983
▁парт	-8.84144
▁лин	-8.84257
ку	-8.84478
▁дида	-8.85041
▁РИА	-8.85042
▁редн	-8.85111
▁стро	-8.85201
▁естве	-8.85276
▁утбол	-8.85355
▁натор	-8.85442
нию	-8.85528
▁шел	-8.85567
▁ризн	-8.85647
▁ье	-8.85711
▁служ	-8.85832
▁нск	-8.85931
▁гру	-8.85946
▁тож	-8.86047
▁асс	-8.86214
▁жизни	-8.86231
трад	-8.86271
▁шли	-8.86421
▁иаль	-8.86549
▁йски	-8.86609
▁шн	-8.8692
ных	-8.87172
▁канал	-8.87278
▁прод	-8.87281
▁марта	-8.87401
дал	-8.87727
ед	-8.88192
▁вет	-8.88205
▁изац	-8.88233
▁артии	-8.88336
▁свои	-8.88566
▁твор	-8.88587
▁огда	-8.88695
▁ществ	-8.88731
▁Де	-8.88802
▁комм	-8.88831
ир	-8.89016
▁ял	-8.89046
▁ходи	-8.89225
▁ству	-8.89348
▁почт	-8.89374
▁жив	-8.89454
▁Ку	-8.89504
влен	-8.89582
▁Крым	-8.89629
▁олож	-8.89842
▁през	-8.89861
▁ай	-8.90055
▁ужчин	-8.90287
▁ман	-8.90701
▁нее	-8.90985
▁ере	-8.90999
▁улиц	-8.91443
▁своих	-8.91524
▁20	-8.91608
▁фонд	-8.91623
ци	-8.92054
▁равил	-8.92084
▁ичн	-8.9209
▁сь	-8.92224
▁рк	-8.9232
▁Трамп	-8.9234
Ъ	-8.92493
ишь	-8.92608
▁ями	-8.92616
▁цесс	-8.92621
▁осквы	-8.92738
анич	-8.92909
▁крат	-8.93002
▁ней	-8.93109
▁стало	-8.93205
▁нужно	-8.93292
▁числ	-8.93409
▁ериод	-8.93535
▁ового	-8.93544
▁пеци	-8.93832
▁стат	-8.9384
нул	-8.93959
ан	-8.94002
▁объе	-8.94331
▁вития	-8.945
▁тех	-8.94567
▁ас	-8.94726
▁емь	-8.94834
▁пост	-8.94836
▁ди	-8.95066
▁ху	-8.95121
дум	-8.95235
▁чита	-8.95307
▁цы	-8.95442
▁ард	-8.95533
▁лении	-8.95583
▁уда	-8.95601
арла	-8.95608
лож	-8.95639
▁бор	-8.95731
▁мин	-8.95915
▁ена	-8.96017
▁ра	-8.96194
▁олж	-8.9635
▁анных	-8.96369
▁мента	-8.96419
▁клуб	-8.96587
▁мон	-8.96653
▁олю	-8.96678
ракт	-8.9669
слов	-8.96694
▁обяз	-8.96824
▁уют	-8.96881
▁ктив	-8.96975
▁зыв	-8.96976
▁ров	-8.97062
вой	-8.97115
▁гон	-8.97196
▁име	-8.97484
▁быв	-8.9753
▁нос	-8.97561
▁благ	-8.9759
▁рамк	-8.97671
▁вос	-8.97677
▁оф	-8.97742
дела	-8.98126
утс	-8.98173
▁фон	-8.982
▁бра	-8.98206
▁остью	-8.98272
▁тране	-8.98307
▁Ба	-8.98388
▁детей	-8.98424
▁кой	-8.98466
▁полу	-8.98466
▁нефти	-8.98534
▁маг	-8.98574
▁дать	-8.98733
акже	-8.9874
▁лег	-8.98752
▁руч	-8.98779
▁ольз	-8.98993
▁ром	-8.99045
▁есн	-8.99126
▁дома	-8.99265
▁часть	-8.99279
▁шест	-8.99419
▁ара	-8.99528
▁Ма	-8.99547
▁либ	-8.99703
ктив	-8.99715
▁вещ	-8.99777
▁общ	-8.99847
▁Ст	-8.9987
▁одн	-8.99907
▁Ц	-8.9997
▁рату	-9.00009
▁люди	-9.0008
▁меня	-9.00094
▁срок	-9.00097
▁кры	-9.00136
▁стол	-9.00362
▁Центр	-9.00708
рав	-9.00815
▁ике	-9.01059
▁да	-9.01079
▁бин	-9.01223
оруж	-9.01241
▁хи	-9.01283
▁тября	-9.01376
руж	-9.01385
▁;	-9.01502
озиц	-9.01557
▁лял	-9.01872
умм	-9.02061
▁омощь	-9.02116
▁инск	-9.02304
▁твует	-9.02333
▁связ	-9.02655
▁разд	-9.02859
олод	-9.03015
▁режд	-9.03124
▁уть	-9.03128
▁части	-9.03145
▁успе	-9.03237
▁норм	-9.03255
▁оз	-9.03269
▁твие	-9.0345
▁метр	-9.03483
▁ащ	-9.03504
▁Пре	-9.0357
лек	-9.0382
▁тоим	-9.03903
анкц	-9.03914
▁гран	-9.04014
▁перс	-9.04015
му	-9.04111
▁округ	-9.04305
▁ца	-9.04376
▁ень	-9.04405
онч	-9.04522
▁ол	-9.04733
▁режим	-9.04747
▁мед	-9.05045
ласт	-9.05048
▁ороны	-9.05093
▁пят	-9.0515
▁ост	-9.05297
▁трол	-9.05371
▁сети	-9.05375
▁буду	-9.05447
▁Совет	-9.05462
▁ук	-9.05481
▁ругие	-9.05505
▁ерьез	-9.05705
▁вед	-9.05832
▁изме	-9.05966
▁суб	-9.06037
орож	-9.06054
тог	-9.06223
▁февр	-9.06349
▁теп	-9.06355
▁рук	-9.06408
▁выше	-9.06607
вгус	-9.06801
▁анию	-9.07089
ниж	-9.07241
▁шир	-9.07339
▁уп	-9.07421
▁Меж	-9.07438
лась	-9.07487
▁доход	-9.07502
▁айш	-9.0756
етве	-9.07573
ысок	-9.07656
ящ	-9.07748
▁ась	-9.07764
▁Ег	-9.07926
▁Вы	-9.07996
▁рода	-9.08002
▁нтон	-9.08063
▁молет	-9.08167
ть	-9.08191
▁щ	-9.08205
▁борь	-9.08246
r	-9.08355
ажд	-9.08366
▁елик	-9.08547
▁ры	-9.08559
▁трое	-9.087
▁акси	-9.08797
▁блок	-9.08874
▁ывает	-9.08996
лиз	-9.09022
▁аются	-9.09038
▁теч	-9.09055
▁уется	-9.09308
▁бил	-9.09345
лон	-9.09384
ко	-9.09466
▁стан	-9.09492
▁мол	-9.09507
шл	-9.09762
▁кар	-9.09824
▁бер	-9.09924
льно	-9.10067
сь	-9.1007
▁энер	-9.10146
▁ивал	-9.10168
▁Ар	-9.10177
▁пут	-9.10321
▁сов	-9.10326
беж	-9.10399
▁виде	-9.10625
▁разом	-9.10742
▁ивают	-9.10889
▁ника	-9.10975
▁реа	-9.10979
▁зв	-9.11178
▁соб	-9.11329
▁дин	-9.11374
▁сад	-9.11435
▁кабря	-9.11445
▁раб	-9.11477
▁рем	-9.11478
▁аэро	-9.11752
▁трен	-9.11821
▁15	-9.11833
▁хов	-9.12159
▁ицу	-9.12232
▁вес	-9.12332
▁ант	-9.12391
нвес	-9.12496
▁долг	-9.12666
▁вал	-9.12705
▁надо	-9.12737
▁арм	-9.12827
▁угро	-9.12856
▁назад	-9.13168
▁зон	-9.13324
▁яют	-9.13409
▁ффект	-9.13437
нной	-9.13496
▁едь	-9.13523
▁прет	-9.13566
▁ент	-9.13726
▁еньги	-9.13935
▁ское	-9.14051
лия	-9.14064
▁бир	-9.14315
▁Киев	-9.14345
▁итай	-9.14394
матр	-9.14466
мерт	-9.14635
▁гля	-9.14686
чер	-9.14779
нер	-9.14873
▁акт	-9.14911
▁овый	-9.14939
шей	-9.14953
o	-9.15185
▁вот	-9.1535
▁трех	-9.15475
▁вяз	-9.15652
▁30	-9.1566
▁мая	-9.15677
▁арест	-9.15692
▁роди	-9.15868
▁русс	-9.16041
▁онов	-9.16082
▁себе	-9.16103
▁ации	-9.16219
ылк	-9.1626
▁банк	-9.16305
▁торой	-9.1646
▁заб	-9.16536
▁итета	-9.16609
▁ышл	-9.16696
▁тиц	-9.16718
▁губ	-9.16748
▁зж	-9.1681
ания	-9.16946
▁одоб	-9.17037
▁оряд	-9.1705
▁алась	-9.17101
▁сих	-9.17123
▁здан	-9.17199
▁пл	-9.17234
▁тоит	-9.17255
▁топ	-9.17384
▁каж	-9.17491
▁щи	-9.17743
▁уб	-9.17755
▁годн	-9.17904
▁рт	-9.17953
▁ящ	-9.17977
▁дис	-9.18244
▁Да	-9.18289
▁журн	-9.18425
▁рове	-9.18455
▁яя	-9.18518
▁класс	-9.18554
▁тин	-9.18667
▁адр	-9.18889
▁хозя	-9.19006
▁граф	-9.19023
▁пенс	-9.191
▁аб	-9.19126
▁Нико	-9.19134
▁мног	-9.19173
▁пом	-9.19254
▁ите	-9.1929
▁личн	-9.19294
▁ством	-9.19309
▁Север	-9.19319
▁тол	-9.19376
▁сегда	-9.1943
▁ителя	-9.19565
▁ама	-9.19681
▁рак	-9.19741
▁мне	-9.19766
▁воего	-9.1981
▁ана	-9.1984
аса	-9.1991
▁лекс	-9.19947
▁ано	-9.19963
▁взя	-9.20106
▁дь	-9.20156
ую	-9.20258
▁ассаж	-9.20571
▁йн	-9.20598
▁гноз	-9.20618
▁шед	-9.20729
▁тре	-9.20845
▁жен	-9.20913
▁сезон	-9.20913
чн	-9.20959
▁ихся	-9.21089
▁нди	-9.21378
рям	-9.21394
▁наль	-9.21446
▁минут	-9.21648
ольн	-9.21669
▁крас	-9.21722
верд	-9.2182
▁анков	-9.21828
▁воим	-9.21921
▁крыв	-9.21981
▁слов	-9.22036
▁ЕС	-9.22151
ент	-9.22174
▁льз	-9.22187
d	-9.22192
▁йдет	-9.22265
▁титу	-9.22325
▁ьян	-9.22398
ерси	-9.22447
▁лад	-9.22457
▁тогда	-9.22462
▁гром	-9.22508
▁анием	-9.22544
▁имо	-9.22549
▁ринят	-9.22637
▁ноч	-9.22641
▁дня	-9.22702
▁годы	-9.22742
▁фото	-9.22798
▁фа	-9.22829
▁дума	-9.2283
ющ	-9.22942
▁ляц	-9.22994
▁боль	-9.23037
▁ково	-9.23064
▁отме	-9.23172
бий	-9.23224
▁але	-9.23241
▁взрыв	-9.23432
▁удар	-9.23457
▁здесь	-9.23565
▁ыв	-9.23665
▁верк	-9.23746
▁тик	-9.23812
х	-9.23822
▁тест	-9.23961
▁рыв	-9.2408
▁парк	-9.24118
▁сел	-9.24366
нов	-9.24407
▁ител	-9.24442
▁ново	-9.24456
урма	-9.24503
▁несен	-9.24519
▁ским	-9.24541
▁айн	-9.24564
▁яется	-9.24565
▁роз	-9.24596
▁обор	-9.24678
▁погиб	-9.24716
▁шла	-9.24732
▁указ	-9.24775
▁рита	-9.2497
▁кино	-9.24975
▁олев	-9.25103
▁ероя	-9.25115
▁ноги	-9.25185
▁ха	-9.25307
▁рожд	-9.25312
▁зап	-9.25517
за	-9.25543
▁МВД	-9.25661
▁ниц	-9.2572
▁рий	-9.25755
▁тия	-9.25821
мер	-9.25929
▁меч	-9.25997
сле	-9.26031
▁вне	-9.26045
▁могл	-9.26051
▁пам	-9.26242
▁дежд	-9.26484
▁аря	-9.26568
i	-9.26605
▁кл	-9.26612
▁ензи	-9.26662
дче	-9.26783
▁мог	-9.26859
▁ерб	-9.26915
ает	-9.26924
▁онд	-9.26977
▁атив	-9.27011
▁фликт	-9.27149
▁меро	-9.2719
▁Бр	-9.27259
▁лета	-9.2735
▁товар	-9.27384
тар	-9.27387
▁чего	-9.27417
▁лити	-9.27657
▁услуг	-9.27789
▁срав	-9.27871
▁регу	-9.27891
▁двиг	-9.27949
▁ьев	-9.27969
▁акц	-9.27979
▁пас	-9.28004
▁сири	-9.28007
▁12	-9.28012
▁ква	-9.28023
▁олот	-9.28054
▁давно	-9.28155
▁слав	-9.28365
▁ыск	-9.28377
▁нефт	-9.28383
▁мини	-9.28457
▁тот	-9.28539
▁нег	-9.28566
ста	-9.28577
▁мел	-9.2859
▁нг	-9.28638
лит	-9.28651
▁юс	-9.28769
изац	-9.288
пис	-9.28917
▁креп	-9.28925
▁ребе	-9.28958
▁ег	-9.29088
▁No	-9.29104
▁тога	-9.29138
▁др	-9.29219
▁исло	-9.2924
▁ихаил	-9.29492
▁дан	-9.29507
▁ывш	-9.29557
▁Фран	-9.2961
▁сразу	-9.29727
▁лог	-9.29765
▁видео	-9.29846
▁ус	-9.2989
▁ина	-9.30101
▁моде	-9.30102
леч	-9.30129
▁озре	-9.30145
стро	-9.30158
▁ункт	-9.30182
▁ику	-9.30214
узык	-9.30392
▁тракт	-9.30416
рск	-9.30634
▁нтов	-9.30747
▁данн	-9.30922
▁ион	-9.30987
▁лив	-9.31063
▁Иван	-9.31151
▁руж	-9.31161
▁обещ	-9.31222
▁меш	-9.31374
след	-9.31511
енд	-9.31658
ев	-9.3169
▁разв	-9.31776
▁зам	-9.31854
▁иску	-9.31856
▁алл	-9.31909
▁зор	-9.31953
ывш	-9.31956
▁ьц	-9.32039
▁ракет	-9.32076
▁аны	-9.32209
▁иф	-9.32267
▁ласт	-9.32267
щес	-9.32274
▁конф	-9.32282
▁уточ	-9.3251
▁ъяв	-9.32563
▁ущ	-9.32565
мет	-9.32639
▁бар	-9.32749
▁авл	-9.32753
▁вят	-9.32788
▁оевик	-9.32791
▁онал	-9.32852
танц	-9.32853
▁выход	-9.3287
▁овск	-9.33038
▁чь	-9.33162
▁ыш	-9.33198
▁нефть	-9.33218
▁ице	-9.33385
▁имеет	-9.33436
▁анные	-9.33488
▁выс	-9.33515
лам	-9.33523
▁чер	-9.33709
ерма	-9.33889
▁спек	-9.33893
▁ризис	-9.34059
▁ехал	-9.34301
▁етыр	-9.34368
▁оруж	-9.34406
▁То	-9.3447
▁Кл	-9.34671
▁коп	-9.34934
▁ьм	-9.34959
▁права	-9.35055
▁юр	-9.35389
▁кт	-9.35427
по	-9.35509
▁анс	-9.35535
▁штраф	-9.35602
▁ед	-9.35621
пад	-9.35638
▁яч	-9.35713
▁скую	-9.36075
▁руш	-9.36078
▁ний	-9.36096
суд	-9.3612
▁адиц	-9.36127
▁март	-9.36144
▁еж	-9.36239
▁Фед	-9.36303
том	-9.36331
▁гл	-9.36402
▁быт	-9.3661
▁s	-9.3664
жно	-9.36921
▁рынке	-9.36948
▁нял	-9.36968
▁тог	-9.37402
▁сайте	-9.37412
▁суда	-9.37413
▁орож	-9.37458
▁ази	-9.37499
▁имп	-9.37701
▁рск	-9.37778
▁лений	-9.37827
цион	-9.37861
▁туд	-9.37913
▁тим	-9.37925
▁новый	-9.37967
▁Га	-9.38085
▁демо	-9.3826
▁здра	-9.38278
вер	-9.38402
▁театр	-9.38408
▁илл	-9.38468
▁рынка	-9.38559
▁раст	-9.38644
▁лужб	-9.38645
▁ицы	-9.38646
▁ифик	-9.38768
▁мите	-9.38823
рач	-9.38899
▁кции	-9.39065
▁опол	-9.3919
гор	-9.39196
▁ести	-9.39249
▁обед	-9.39335
▁енн	-9.394
▁урна	-9.39437
▁ошел	-9.39495
▁аг	-9.39496
стоя	-9.39505
▁рибы	-9.39562
▁ьск	-9.39595
▁жизнь	-9.39663
▁дум	-9.4009
▁снов	-9.40105
▁фере	-9.40179
▁емон	-9.4022
▁нут	-9.40261
▁ез	-9.40422
▁енц	-9.40497
▁треть	-9.40762
▁леч	-9.40884
▁трат	-9.40949
▁цией	-9.40951
▁задач	-9.4097
▁олн	-9.40994
▁МИД	-9.4102
▁инс	-9.41037
зна	-9.41041
▁осущ	-9.41166
выш	-9.41192
▁оско	-9.41193
▁мой	-9.41209
▁шлого	-9.41212
▁бр	-9.41212
▁арк	-9.41229
▁пиш	-9.41255
▁фор	-9.41261
▁От	-9.41348
▁час	-9.41374
▁айте	-9.41411
▁ло	-9.41412
▁две	-9.41561
▁кри	-9.41691
▁пожар	-9.41739
▁еме	-9.41769
▁мигр	-9.41829
▁асл	-9.41868
▁ольш	-9.42149
▁чен	-9.42157
▁неж	-9.4216
▁лось	-9.42193
спро	-9.42207
▁озни	-9.42336
▁веч	-9.42365
▁ех	-9.4246
▁Ев	-9.42471
▁равда	-9.4268
▁орд	-9.42716
▁ани	-9.42857
▁елей	-9.42911
▁ервые	-9.42916
▁марк	-9.42936
▁ене	-9.42941
▁мал	-9.42959
еду	-9.42983
▁строй	-9.42992
осто	-9.43052
▁блемы	-9.43354
▁атак	-9.43401
▁ариа	-9.43402
▁деп	-9.43494
▁цов	-9.43539
▁рат	-9.43603
▁мов	-9.43734
▁шенко	-9.43938
есси	-9.44
▁тяже	-9.44048
вобо	-9.44054
▁печа	-9.44082
ген	-9.44096
▁оллег	-9.44183
▁рест	-9.44275
▁Ан	-9.44297
▁иру	-9.44332
вмес	-9.44369
▁овым	-9.44443
▁конт	-9.44475
▁чера	-9.44648
▁пер	-9.44652
▁вол	-9.44668
тем	-9.44735
▁оссию	-9.44835
тоит	-9.44836
▁чив	-9.44877
▁ках	-9.44901
чему	-9.44923
тер	-9.44957
мина	-9.45082
▁екс	-9.45106
▁ниве	-9.45155
▁быст	-9.45171
▁инте	-9.45246
▁вели	-9.45456
▁орту	-9.45481
лед	-9.45529
▁мит	-9.45537
ли	-9.45578
▁шес	-9.45638
▁боев	-9.45652
▁ори	-9.45706
▁финал	-9.45796
▁опинг	-9.45812
▁нят	-9.45854
▁теря	-9.45937
▁опыт	-9.46007
▁очк	-9.46026
▁тане	-9.4608
ким	-9.46114
▁ьб	-9.46154
▁оль	-9.46194
▁воду	-9.4621
▁пад	-9.46441
▁годов	-9.46457
▁Го	-9.46469
▁ствия	-9.46479
▁енд	-9.46536
▁омощи	-9.46641
▁дней	-9.46722
▁гар	-9.46757
▁июля	-9.46837
▁онк	-9.46854
▁Крас	-9.46893
▁нам	-9.47029
▁ельс	-9.47068
▁риня	-9.47215
▁фици	-9.47275
тали	-9.47299
▁ще	-9.47344
▁ведет	-9.474
▁точ	-9.47435
▁вице	-9.47466
▁ред	-9.47526
▁пр	-9.47527
▁логи	-9.47575
огда	-9.48099
▁телем	-9.48106
▁ООН	-9.48115
▁орв	-9.48157
ект	-9.4816
▁огиб	-9.48217
▁Серг	-9.48238
▁11	-9.48239
▁есп	-9.48375
▁гу	-9.48572
▁карт	-9.4858
екре	-9.48589
▁низ	-9.48591
арь	-9.48664
▁уж	-9.48693
▁аждый	-9.48702
▁гиона	-9.48706
▁арш	-9.4877
▁еже	-9.48884
▁ланд	-9.48951
ници	-9.48959
▁хара	-9.49014
▁АТО	-9.49039
▁25	-9.49175
▁иктор	-9.49187
▁слу	-9.49206
ичег	-9.49255
▁ака	-9.49369
▁ндре	-9.49399
▁носи	-9.49494
▁олез	-9.49523
▁дух	-9.49563
▁рабо	-9.49642
вест	-9.49643
▁факс	-9.49703
▁цена	-9.49711
▁лега	-9.49816
ус	-9.49818
▁верх	-9.4982
▁дев	-9.49999
итал	-9.50031
▁уль	-9.50067
ные	-9.50152
▁осква	-9.50228
▁тон	-9.50325
▁бол	-9.50394
▁исхо	-9.50429
▁мире	-9.50634
но	-9.50699
▁ток	-9.50772
▁меди	-9.50872
▁сдел	-9.50933
В	-9.50938
▁онер	-9.51152
▁дж	-9.51195
▁эта	-9.512
▁лот	-9.51251
▁изов	-9.51299
ще	-9.51526
▁грес	-9.51591
луча	-9.51748
▁ели	-9.51801
▁курор	-9.51933
▁вокат	-9.5206
▁лик	-9.52067
▁Ру	-9.52067
▁еньше	-9.52113
▁ела	-9.52114
епер	-9.52133
▁етом	-9.52195
▁артин	-9.522
▁этап	-9.52243
▁мощ	-9.52264
▁бел	-9.52392
▁олжно	-9.52433
уляр	-9.52482
ынеш	-9.52503
▁ертв	-9.52535
▁войн	-9.52611
▁бой	-9.52768
▁Нов	-9.528
▁мерн	-9.52867
▁ций	-9.52868
▁ты	-9.52893
▁случ	-9.52923
▁ыгр	-9.52943
▁атег	-9.52948
▁бран	-9.52987
,5	-9.53024
▁плат	-9.53094
▁ранц	-9.53114
рат	-9.53115
▁Тр	-9.53128
▁Бу	-9.53197
▁сть	-9.5324
▁тар	-9.53256
мог	-9.5329
▁як	-9.53299
▁лужбы	-9.53538
▁льные	-9.53592
▁ало	-9.53668
▁риск	-9.53672
▁яг	-9.53722
на	-9.53799
▁рова	-9.53805
▁стров	-9.53834
▁грок	-9.53907
▁ситет	-9.53966
▁лови	-9.5401
▁ари	-9.54014
▁отр	-9.54041
▁вор	-9.54106
ерв	-9.54268
осм	-9.54341
▁оюз	-9.54451
▁сайт	-9.54461
▁амп	-9.54552
▁опро	-9.54628
дроб	-9.54648
▁июн	-9.54677
иним	-9.54759
▁рен	-9.5481
▁тай	-9.54813
▁сроч	-9.54914
▁боро	-9.5492
▁арта	-9.55022
▁ебн	-9.55042
▁везд	-9.55042
▁18	-9.55043
▁амер	-9.55065
▁сущ	-9.55266
▁шлом	-9.55327
▁еб	-9.55341
▁поезд	-9.55359
▁йд	-9.55424
▁йтинг	-9.5543
▁орот	-9.55461
ную	-9.55688
▁мало	-9.55782
▁ладе	-9.55783
▁часов	-9.55877
▁монт	-9.55941
▁ion	-9.5596
▁тери	-9.56034
низ	-9.56051
▁er	-9.56057
▁ъе	-9.56083
▁изир	-9.56172
▁урс	-9.56221
▁рубеж	-9.56247
▁род	-9.56359
▁ельн	-9.56728
ей	-9.56785
▁рх	-9.56793
▁рад	-9.56807
вал	-9.56905
ная	-9.5696
y	-9.57031
дов	-9.57145
a	-9.57215
▁едл	-9.57223
▁би	-9.57254
▁акци	-9.57333
▁евер	-9.57341
▁лю	-9.5747
▁иц	-9.5766
▁сек	-9.57727
▁декс	-9.57793
оль	-9.57817
▁ерво	-9.57931
▁войны	-9.57944
▁еск	-9.57952
▁ша	-9.57952
▁50	-9.57956
▁четы	-9.58142
ажн	-9.58183
▁тарт	-9.58233
▁раг	-9.58406
▁лини	-9.58458
чен	-9.58499
▁лиг	-9.5858
▁обой	-9.58625
▁колл	-9.58691
▁бам	-9.58861
▁оман	-9.58872
▁анг	-9.58889
▁деб	-9.5892
▁хоте	-9.58952
▁нир	-9.58986
▁ьер	-9.59101
▁ствие	-9.59145
▁ока	-9.59172
▁апад	-9.59349
▁преж	-9.59459
▁едве	-9.59552
▁верг	-9.59625
▁иев	-9.59638
▁Й	-9.59724
▁пита	-9.59729
▁руп	-9.59803
▁сей	-9.59811
▁ката	-9.59896
▁ожд	-9.59911
▁100	-9.59916
▁оев	-9.59987
▁важ	-9.59997
▁Кр	-9.60015
▁осток	-9.60017
▁ерты	-9.60028
▁нно	-9.60082
▁ерд	-9.60128
▁хе	-9.60132
▁естр	-9.60149
▁мысл	-9.60221
▁ерал	-9.60457
▁омб	-9.60466
▁долго	-9.60533
▁проч	-9.60555
▁встр	-9.60555
▁остр	-9.60622
▁валют	-9.60632
▁Ru	-9.60658
нее	-9.60867
▁цель	-9.60872
▁цены	-9.61043
▁льг	-9.61203
▁боров	-9.61272
▁мени	-9.61391
го	-9.61431
▁дву	-9.61552
▁сир	-9.61614
▁унд	-9.61659
▁бал	-9.61677
▁лав	-9.61719
▁яти	-9.6178
▁ну	-9.61829
▁баз	-9.61967
▁ошло	-9.62108
▁14	-9.62122
▁узе	-9.62204
▁реде	-9.6224
▁стана	-9.62326
▁брос	-9.62397
ал	-9.6243
▁ращ	-9.62591
▁танц	-9.62645
▁ита	-9.62657
▁нис	-9.62669
▁цер	-9.6277
▁етер	-9.62812
арит	-9.62824
▁иза	-9.62992
▁аты	-9.63297
▁завод	-9.63503
▁пуска	-9.63587
ъяв	-9.6363
▁ща	-9.63749
▁фун	-9.64152
▁исты	-9.64182
▁реб	-9.64274
▁рис	-9.64278
▁ыва	-9.64305
щен	-9.64402
▁вью	-9.64464
зв	-9.64499
▁дар	-9.64536
▁арт	-9.64553
▁иссии	-9.64556
▁тяж	-9.64783
есь	-9.64889
▁хода	-9.6489
▁оче	-9.64891
▁щего	-9.64946
▁ица	-9.64995
▁учн	-9.6504
▁ывать	-9.65096
▁глу	-9.65371
▁ерн	-9.65372
▁Ге	-9.65655
▁овая	-9.65895
▁вар	-9.6593
▁аст	-9.66301
▁нято	-9.66499
▁отно	-9.66507
▁ипл	-9.66651
ф	-9.66687
▁остов	-9.66829
▁таж	-9.6695
▁детс	-9.66975
▁ываю	-9.66992
▁иях	-9.67064
▁омат	-9.67258
▁зар	-9.67349
▁нул	-9.67551
▁16	-9.67573
▁нок	-9.67622
▁огн	-9.67622
▁меры	-9.67829
▁ути	-9.67847
▁лач	-9.67856
▁союз	-9.67877
▁ею	-9.67881
▁Re	-9.68042
▁места	-9.68152
▁ранен	-9.68169
▁тонн	-9.68182
▁ниг	-9.68282
ь	-9.68299
▁аде	-9.68551
▁крес	-9.6863
нешн	-9.68828
▁пора	-9.6883
воем	-9.6884
▁менты	-9.69024
▁лучше	-9.69099
▁йте	-9.69136
▁ометр	-9.69277
▁актер	-9.69341
▁фик	-9.69415
▁22	-9.69554
▁адле	-9.69561
▁ги	-9.69637
▁нта	-9.6964
▁17	-9.69676
▁сор	-9.69748
▁авр	-9.69773
▁ЦБ	-9.69792
▁иям	-9.69897
▁родн	-9.6994
▁ойск	-9.70003
▁юри	-9.7002
крат	-9.70124
осп	-9.70195
▁нстр	-9.70208
▁ерм	-9.70285
▁става	-9.70348
▁бок	-9.70402
▁иде	-9.70545
не	-9.70547
ич	-9.70727
▁Ле	-9.70804
▁атри	-9.7082
▁лер	-9.70895
▁брит	-9.70996
▁13	-9.7104
▁рби	-9.71166
аз	-9.71261
жал	-9.71287
▁рик	-9.71328
▁иль	-9.7148
▁гер	-9.71595
еньш	-9.71828
▁УК	-9.71849
▁ева	-9.71888
▁бит	-9.71992
▁лаб	-9.72254
▁ыб	-9.72312
▁дава	-9.72356
▁селе	-9.72395
▁елу	-9.72644
▁уне	-9.72648
▁оне	-9.72684
▁тут	-9.72688
▁ног	-9.7281
раз	-9.72865
▁дем	-9.72975
че	-9.73007
▁роста	-9.73045
▁пал	-9.73058
▁льный	-9.73156
▁тип	-9.73269
▁теку	-9.73292
▁вас	-9.73323
▁Ист	-9.73452
▁нуть	-9.73547
▁кос	-9.73562
▁акции	-9.73572
▁живо	-9.73662
▁Але	-9.73701
▁гри	-9.73866
▁лан	-9.73919
▁ага	-9.73943
▁ента	-9.7395
▁шь	-9.73967
▁расп	-9.73972
уб	-9.74066
▁Ник	-9.74093
▁Пар	-9.74098
▁свет	-9.74123
▁ети	-9.74138
▁лам	-9.74223
▁рг	-9.74224
▁рус	-9.74601
стру	-9.74704
нят	-9.74783
▁ажи	-9.74941
▁кил	-9.74998
▁шт	-9.75081
▁оли	-9.75162
▁ши	-9.75205
▁лаго	-9.75245
▁етк	-9.75406
▁фр	-9.75448
▁овик	-9.75702
▁игу	-9.75752
▁еву	-9.75833
▁Ал	-9.75921
▁чн	-9.75977
▁лены	-9.75994
▁еха	-9.76167
▁чис	-9.76222
▁йм	-9.76244
▁кро	-9.7637
▁боле	-9.76384
▁ообщ	-9.76438
▁рон	-9.76451
▁нужн	-9.76456
▁ктор	-9.76472
▁рои	-9.76478
▁орис	-9.76478
▁ходят	-9.7653
▁Эр	-9.76543
до	-9.76694
▁Че	-9.76746
▁яс	-9.7683
аю	-9.76847
▁илу	-9.76869
▁мод	-9.76951
▁кк	-9.77017
▁оя	-9.77084
▁вез	-9.77256
▁фил	-9.77287
▁еты	-9.77302
▁зык	-9.77368
▁кер	-9.77383
яза	-9.77429
▁фра	-9.77436
▁ле	-9.77445
▁зер	-9.77475
дель	-9.7755
ред	-9.77576
▁еда	-9.77833
▁ога	-9.7786
▁лаз	-9.77879
▁ших	-9.78061
▁мину	-9.78065
▁олга	-9.78084
▁люд	-9.78179
▁аге	-9.78286
▁тан	-9.78303
▁The	-9.78446
▁21	-9.78521
▁ине	-9.78572
▁елк	-9.78648
▁реф	-9.78671
▁усск	-9.78684
▁нвес	-9.7869
▁вам	-9.78776
▁рии	-9.78908
▁хран	-9.78911
▁ня	-9.78934
▁олет	-9.78941
▁орн	-9.78946
▁тро	-9.79041
▁кате	-9.79091
▁истов	-9.79115
▁реди	-9.79207
▁ух	-9.7925
▁спор	-9.79271
▁ниже	-9.79306
▁СССР	-9.79385
▁ондо	-9.79389
▁легк	-9.79462
▁яже	-9.79549
▁сет	-9.7956
▁ьше	-9.79661
▁оч	-9.79731
▁аги	-9.79798
▁ысок	-9.79867
▁асно	-9.79914
▁ож	-9.79932
▁бо	-9.79946
▁ассе	-9.79999
ну	-9.80016
▁овета	-9.80043
▁уста	-9.80122
▁19	-9.80142
▁оппо	-9.80235
▁атар	-9.80329
▁лез	-9.80372
же	-9.80386
▁порта	-9.80594
▁реду	-9.80678
▁анд	-9.80721
▁дпис	-9.80741
▁няли	-9.8077
▁хан	-9.80794
▁гост	-9.80853
ител	-9.81001
▁гори	-9.81015
▁гла	-9.81062
▁рец	-9.81156
▁омис	-9.81209
▁хр	-9.81223
▁тавки	-9.81287
▁рово	-9.81529
▁неу	-9.81539
▁риг	-9.81557
▁фин	-9.81747
▁ппо	-9.81827
▁рок	-9.82005
▁ыта	-9.82081
▁ощ	-9.82324
обра	-9.82415
▁зд	-9.82435
▁илы	-9.82439
▁иков	-9.82488
▁­	-9.82646
▁кал	-9.82711
ают	-9.8276
▁ыплат	-9.82786
▁Па	-9.82872
▁инк	-9.8292
▁нф	-9.82937
▁Моск	-9.82983
кабр	-9.82992
▁зло	-9.83214
▁ея	-9.83299
▁маш	-9.83474
▁алин	-9.83478
▁льян	-9.83566
▁24	-9.83604
▁телям	-9.83612
▁S	-9.83652
▁илов	-9.83656
▁пони	-9.83723
▁аха	-9.83839
▁еле	-9.83896
▁сед	-9.83942
▁имени	-9.84147
ерик	-9.84163
▁пера	-9.84183
▁ловия	-9.84239
▁орк	-9.8431
▁лу	-9.84313
ченк	-9.84462
▁ООО	-9.84747
▁Андр	-9.84796
▁канд	-9.84835
▁ге	-9.84873
▁эр	-9.85018
▁режи	-9.85049
▁мина	-9.85071
▁виз	-9.85139
▁рия	-9.85198
▁вое	-9.85355
Мы	-9.85388
▁атели	-9.85791
▁троль	-9.85865
ая	-9.85879
▁круг	-9.85896
▁скому	-9.85934
▁ing	-9.86031
▁рынк	-9.86115
▁28	-9.86259
▁муни	-9.86376
▁мск	-9.86384
▁нтар	-9.86543
▁оши	-9.86631
купа	-9.86658
▁ечен	-9.86718
▁тера	-9.86731
▁фес	-9.86766
титу	-9.86793
▁ником	-9.86805
быт	-9.86811
▁аев	-9.86898
▁овле	-9.86913
▁лит	-9.8692
▁дом	-9.8694
▁ениях	-9.86955
ист	-9.87088
▁олд	-9.87247
▁нд	-9.87256
▁прек	-9.87331
▁уз	-9.87577
▁рай	-9.87761
▁ест	-9.87908
▁гиб	-9.87981
обще	-9.88475
▁елен	-9.88504
▁омер	-9.88535
▁платы	-9.88717
▁траж	-9.8874
▁тие	-9.88773
нец	-9.888
▁акет	-9.88822
▁диа	-9.88843
▁абл	-9.88877
▁зав	-9.88892
гуля	-9.88906
▁льск	-9.89051
▁енс	-9.89144
▁ками	-9.89195
▁роли	-9.89225
▁орон	-9.89408
▁чат	-9.89552
ес	-9.89577
▁оды	-9.89833
▁кст	-9.90052
вари	-9.90106
▁пада	-9.90143
▁инци	-9.90144
▁ниж	-9.90229
▁нача	-9.90262
▁дил	-9.90272
▁екц	-9.90377
▁лон	-9.9046
▁ксп	-9.90465
▁роль	-9.90549
▁+	-9.90607
▁прин	-9.90801
▁еев	-9.90918
m	-9.90933
▁итар	-9.9106
▁дых	-9.91131
▁рам	-9.9119
▁зов	-9.91265
▁РБК	-9.9133
Я	-9.91373
▁цк	-9.91606
▁сель	-9.91652
▁поли	-9.91728
▁Су	-9.91855
теч	-9.92005
▁Imag	-9.92072
▁тов	-9.92139
▁яза	-9.92171
▁дале	-9.923
▁гро	-9.92303
▁чувс	-9.92378
▁сия	-9.92404
▁див	-9.92473
уд	-9.92562
▁23	-9.92645
▁26	-9.92676
▁шк	-9.92753
тал	-9.92927
▁выш	-9.92985
▁вто	-9.93053
▁паде	-9.93099
▁40	-9.93192
▁яде	-9.93286
оциа	-9.93299
▁ска	-9.93386
▁ради	-9.93396
▁кция	-9.93461
▁Та	-9.93582
▁ту	-9.93587
▁овер	-9.93678
▁енск	-9.93739
▁нс	-9.93839
▁льная	-9.93841
▁ото	-9.93871
▁юк	-9.93926
▁мост	-9.94001
▁есс	-9.94172
пас	-9.94192
▁ука	-9.9422
▁ходя	-9.9426
▁дог	-9.94372
▁ульт	-9.94376
▁лению	-9.94408
нали	-9.94454
ерь	-9.94467
▁актор	-9.94596
▁27	-9.94981
▁екл	-9.94987
▁сим	-9.95028
▁зрен	-9.95178
▁че	-9.95187
▁гры	-9.952
▁стой	-9.95326
▁оюза	-9.95547
▁en	-9.95622
▁соц	-9.95663
пеш	-9.95688
▁вку	-9.95802
▁очт	-9.9603
▁буде	-9.96081
▁лек	-9.96088
ден	-9.96099
▁реда	-9.96296
▁Мос	-9.96353
ел	-9.96392
▁МЧС	-9.9643
▁леж	-9.96484
▁инд	-9.96638
▁орми	-9.9675
▁еш	-9.96846
▁хар	-9.96858
▁воен	-9.9691
▁олг	-9.96913
▁торо	-9.97021
▁окол	-9.97076
ающ	-9.9713
вис	-9.97214
▁чест	-9.97276
АО	-9.97343
▁прие	-9.97372
▁ума	-9.97527
▁екрет	-9.97641
▁листы	-9.97975
▁рая	-9.98073
▁лов	-9.98092
▁анти	-9.98396
▁дали	-9.98452
▁олос	-9.98467
▁ИГ	-9.98517
▁i	-9.98533
▁роиз	-9.98725
чит	-9.99002
▁тных	-9.99084
▁нац	-9.99093
▁ода	-9.99182
▁лко	-9.99211
▁ывал	-9.994
▁вода	-9.99403
▁стей	-9.99434
▁гре	-9.99743
▁рал	-9.99773
▁иби	-9.99824
▁омн	-10.0007
▁евра	-10.0014
▁ндар	-10.0018
▁льше	-10.0024
▁ета	-10.0039
▁иг	-10.0047
▁никам	-10.0048
▁дея	-10.0065
лат	-10.007
▁жива	-10.0071
▁щих	-10.0078
▁ган	-10.0091
▁пило	-10.0093
▁хл	-10.0105
▁оно	-10.0111
▁уш	-10.0118
▁яв	-10.013
▁пог	-10.0135
▁сии	-10.0139
омоч	-10.0159
▁арх	-10.016
▁Ну	-10.0171
▁спи	-10.0181
▁итет	-10.0195
он	-10.0211
▁сон	-10.0216
▁одни	-10.0231
▁рко	-10.0243
▁тали	-10.0245
▁ерк	-10.0251
▁айк	-10.0254
▁дут	-10.0258
▁лле	-10.0259
нам	-10.026
▁мена	-10.0265
▁всю	-10.0292
▁той	-10.0293
2	-10.0297
ется	-10.0305
▁поп	-10.0307
▁рае	-10.0313
▁29	-10.0317
▁цент	-10.0317
ения	-10.0319
▁рите	-10.032
▁чай	-10.0321
▁воч	-10.0325
▁зи	-10.0325
▁уга	-10.0328
▁айд	-10.033
▁чев	-10.0333
▁аз	-10.0346
ряд	-10.036
▁озит	-10.0364
▁ули	-10.0366
▁ател	-10.0366
▁фер	-10.0405
▁ваний	-10.0422
▁чу	-10.0425
▁рина	-10.0445
▁200	-10.0459
▁очи	-10.0469
▁смог	-10.0478
▁оток	-10.0479
▁оля	-10.0483
▁яко	-10.0485
рг	-10.0509
▁рд	-10.0509
диц	-10.0524
▁ауд	-10.0529
▁щен	-10.054
▁олит	-10.0544
▁ды	-10.0551
▁ацие	-10.0553
▁рут	-10.0563
▁раи	-10.0567
▁дц	-10.0571
▁СКР	-10.0577
▁гн	-10.0584
▁овое	-10.0596
▁абс	-10.0598
▁жер	-10.061
▁ласть	-10.0611
▁сами	-10.0617
▁Ха	-10.062
▁роше	-10.062
▁енное	-10.0621
▁шев	-10.0626
▁тю	-10.0626
▁казы	-10.0677
▁ура	-10.0691
▁эле	-10.0707
▁дии	-10.0713
▁шин	-10.0718
▁ерто	-10.0719
▁йским	-10.0728
▁жа	-10.0732
▁чан	-10.0734
▁A	-10.0762
▁енда	-10.0794
биль	-10.0805
▁ино	-10.0807
▁буд	-10.0807
озр	-10.0817
▁Гр	-10.084
▁Сири	-10.0841
▁ДТП	-10.0858
ис	-10.0867
▁епл	-10.0878
▁ирм	-10.0885
ализ	-10.0892
▁азета	-10.0915
▁ризм	-10.0947
▁ете	-10.095
▁пись	-10.0952
▁ерии	-10.0958
▁йл	-10.0969
▁рави	-10.0998
▁трана	-10.1002
▁Кит	-10.1004
▁енит	-10.101
▁кова	-10.1012
▁ресс	-10.1015
наль	-10.1015
ос	-10.1019
▁com	-10.1021
▁ера	-10.1027
▁ерс	-10.1033
▁слож	-10.1039
▁ируют	-10.1044
▁W	-10.1049
▁рач	-10.1056
▁мя	-10.107
▁моск	-10.108
▁нед	-10.109
▁ерно	-10.1104
▁може	-10.1108
▁хол	-10.1111
▁ович	-10.1116
▁ходов	-10.1118
гл	-10.1128
▁дав	-10.113
▁еред	-10.1144
▁асп	-10.1144
▁рот	-10.1148
▁ейн	-10.115
▁раже	-10.116
▁цеп	-10.1179
p	-10.1197
▁анов	-10.1205
▁ерг	-10.121
▁морск	-10.1215
▁ыч	-10.1218
▁еля	-10.1233
▁прес	-10.1235
▁тил	-10.124
▁ченко	-10.1247
▁луж	-10.1248
▁рств	-10.1276
▁Те	-10.1285
тур	-10.1285
▁елю	-10.1287
▁Fac	-10.1291
▁жал	-10.1292
▁раниц	-10.1316
▁еги	-10.1317
▁орг	-10.1325
▁аф	-10.1336
▁асти	-10.1348
▁юю	-10.1353
▁al	-10.1354
▁омму	-10.1363
▁Пол	-10.1364
▁наб	-10.1366
▁бав	-10.1374
▁w	-10.1378
ание	-10.1388
▁жить	-10.1388
▁сцен	-10.1434
▁шу	-10.1443
▁таб	-10.1459
▁арь	-10.1465
▁изма	-10.1486
▁га	-10.1487
▁глас	-10.1489
▁зации	-10.1491
▁шего	-10.1491
▁амб	-10.1494
▁ада	-10.1498
▁ентов	-10.1503
▁book	-10.1505
▁кра	-10.1515
▁удь	-10.1546
▁ФСБ	-10.1548
▁олл	-10.1561
▁тян	-10.157
▁имен	-10.1574
О	-10.1574
▁ошен	-10.1577
▁пали	-10.1578
▁Аб	-10.1583
▁арл	-10.1601
▁ЦСКА	-10.1602
▁стк	-10.1609
▁легко	-10.1619
▁реч	-10.1622
▁щиков	-10.1633
▁ище	-10.1637
▁обо	-10.1646
▁орта	-10.1647
▁скоро	-10.1648
▁олк	-10.1653
▁тра	-10.1656
▁жало	-10.1658
стр	-10.1665
▁юб	-10.1667
дар	-10.1674
▁лица	-10.168
▁ург	-10.1682
раб	-10.1684
▁E	-10.1697
▁оло	-10.1702
▁син	-10.1704
▁игн	-10.1715
▁боту	-10.1727
l	-10.174
▁Ту	-10.1752
▁гат	-10.1776
▁аще	-10.1778
▁ерв	-10.1794
▁утк	-10.1797
▁олод	-10.1798
▁ошла	-10.1807
▁ипа	-10.1807
▁кам	-10.1816
▁лох	-10.1819
▁сол	-10.1831
▁пет	-10.1836
▁аши	-10.1839
▁ега	-10.1847
▁оба	-10.1855
▁Ме	-10.1867
▁гин	-10.1879
▁нение	-10.188
▁щем	-10.188
▁бк	-10.188
▁сот	-10.1884
▁мур	-10.1886
▁Со	-10.1887
▁акс	-10.189
▁Ки	-10.19
фер	-10.1906
▁500	-10.1908
▁давн	-10.1912
▁ежи	-10.1914
▁хоз	-10.1919
▁Ла	-10.1922
▁фф	-10.1924
▁проса	-10.1928
7	-10.193
▁тром	-10.1931
▁кцию	-10.1938
▁пов	-10.1947
▁вали	-10.1956
рег	-10.196
▁рель	-10.1963
▁тоя	-10.1969
▁иги	-10.1971
▁ьг	-10.1979
▁ожник	-10.1983
тел	-10.1984
▁тки	-10.1986
▁сф	-10.1999
▁Гор	-10.2007
▁форм	-10.2008
▁арн	-10.2008
▁елов	-10.2009
▁Пос	-10.2017
черк	-10.2017
▁итик	-10.2017
▁кат	-10.2022
▁икл	-10.2027
▁йно	-10.203
▁скими	-10.2031
▁торов	-10.2032
убли	-10.206
▁ейс	-10.2061
▁Фр	-10.208
▁ньк	-10.2082
▁зах	-10.2086
▁елл	-10.2094
▁31	-10.2095
▁жан	-10.2099
▁лом	-10.2107
▁лее	-10.2107
▁едж	-10.2113
▁тябре	-10.2118
▁ia	-10.2128
▁рь	-10.2129
▁ьми	-10.2138
▁юн	-10.2141
▁лед	-10.2148
лько	-10.2154
▁жно	-10.2158
▁льным	-10.2159
▁ошл	-10.2161
▁окуп	-10.2162
▁поте	-10.2168
анц	-10.2173
▁устр	-10.2176
▁есь	-10.2184
▁адо	-10.2192
)	-10.2214
▁адк	-10.2215
▁вой	-10.2226
▁ича	-10.2233
▁ищ	-10.2241
▁осн	-10.2241
▁доп	-10.2242
▁60	-10.225
▁ива	-10.226
ор	-10.2261
▁ходы	-10.2271
▁емп	-10.2277
▁ире	-10.2281
▁оэ	-10.229
стил	-10.2315
▁мно	-10.2336
▁века	-10.2337
▁ужден	-10.2339
4	-10.2341
▁метро	-10.2343
▁ушк	-10.2359
▁здо	-10.2367
▁рели	-10.2377
▁Одн	-10.2378
▁ади	-10.2381
▁олиц	-10.2396
▁ород	-10.2405
▁омп	-10.2406
▁яр	-10.2415
▁сан	-10.2442
▁плате	-10.2445
▁поле	-10.2445
▁рете	-10.2456
▁суде	-10.2461
k	-10.2461
▁бро	-10.2491
реж	-10.2494
▁естн	-10.2496
▁C	-10.2511
▁уме	-10.2514
▁мил	-10.2517
▁еству	-10.2526
▁on	-10.2529
лаш	-10.2532
граф	-10.2535
▁лей	-10.2547
▁азе	-10.2554
▁спрос	-10.2555
▁ерж	-10.2578
▁влад	-10.2586
▁ери	-10.2612
▁йства	-10.2616
▁асть	-10.2625
стре	-10.2632
▁мар	-10.2634
▁бед	-10.2646
▁сче	-10.2654
▁дер	-10.2681
▁авать	-10.2687
чет	-10.2688
▁овар	-10.2689
▁выд	-10.2691
▁ады	-10.2693
▁озв	-10.2701
▁фе	-10.2704
▁Ре	-10.2712
▁расте	-10.2722
▁икр	-10.2724
▁ерри	-10.2728
▁енным	-10.2741
00	-10.2749
дпис	-10.279
▁осла	-10.2793
▁асто	-10.2797
▁ват	-10.2803
▁евр	-10.2806
▁стен	-10.2806
▁айне	-10.2815
▁лем	-10.2815
▁еру	-10.2822
▁ечь	-10.2835
▁айм	-10.2841
▁торы	-10.2843
жет	-10.2848
став	-10.2853
▁uters	-10.2856
▁гал	-10.2858
▁Их	-10.2865
▁зии	-10.2891
тир	-10.2895
▁есл	-10.2903
▁ата	-10.2905
▁иции	-10.2929
▁300	-10.2932
▁рини	-10.2936
▁дор	-10.2938
▁иан	-10.2942
▁эм	-10.2964
▁уг	-10.297
▁ытия	-10.2988
▁роме	-10.2989
▁аже	-10.2996
▁дни	-10.3
▁авля	-10.3007
лет	-10.3015
▁пел	-10.3017
▁пок	-10.3022
▁иже	-10.3028
▁щие	-10.3051
▁аск	-10.3052
▁ойдет	-10.3071
▁лес	-10.3085
еми	-10.3089
▁ину	-10.3091
емь	-10.3117
▁шка	-10.3119
▁ойти	-10.3119
▁вак	-10.3136
▁F	-10.3139
дер	-10.3143
▁оу	-10.3157
▁акан	-10.3166
▁рин	-10.3169
▁Му	-10.317
▁астро	-10.317
▁ссе	-10.3183
▁стью	-10.3183
▁сьм	-10.3185
▁ерл	-10.3187
▁разу	-10.3187
▁ерев	-10.3188
▁авших	-10.3192
▁дат	-10.3203
▁омоч	-10.3209
▁Apple	-10.3213
▁икой	-10.3218
▁озда	-10.3226
очк	-10.3249
▁нка	-10.3253
▁стои	-10.3259
▁ериал	-10.3259
▁рно	-10.327
рию	-10.3271
▁тран	-10.3276
▁брат	-10.3283
▁акл	-10.3285
▁рте	-10.3285
▁ыша	-10.3291
▁зал	-10.3291
▁G	-10.3295
▁таль	-10.331
▁I	-10.3322
▁ду	-10.3358
n	-10.3366
спор	-10.3378
▁июл	-10.3379
▁лл	-10.3384
▁дл	-10.339
▁иат	-10.3409
▁ужд	-10.3423
▁реж	-10.3435
▁ъя	-10.3436
▁сид	-10.3439
▁хим	-10.3446
▁рта	-10.3451
▁анам	-10.3465
▁дово	-10.3498
▁Аз	-10.3507
▁атом	-10.352
▁оме	-10.3524
▁X	-10.353
▁нию	-10.3535
▁Мих	-10.3554
▁Air	-10.3559
▁сто	-10.356
▁йств	-10.356
▁иро	-10.3564
g	-10.3565
ующ	-10.3581
пуст	-10.3592
▁идно	-10.3592
▁стер	-10.3595
▁сш	-10.3596
бу	-10.3596
▁истам	-10.3599
▁умы	-10.3623
▁уст	-10.3661
▁лизи	-10.3676
▁иска	-10.3679
▁имн	-10.368
▁аков	-10.3686
▁ария	-10.3688
жден	-10.3691
▁оци	-10.3701
▁жизн	-10.3732
▁ещ	-10.3741
c	-10.3745
▁охо	-10.3746
▁дно	-10.3754
▁мб	-10.376
▁рази	-10.3788
▁поб	-10.3814
▁тск	-10.3816
▁отя	-10.3827
трах	-10.3849
ост	-10.386
▁алог	-10.3865
ня	-10.3871
▁вок	-10.3898
▁ерни	-10.3905
▁етро	-10.3914
▁зе	-10.393
▁борот	-10.3944
▁манд	-10.3952
▁оин	-10.3954
▁рв	-10.3954
▁исан	-10.3955
▁рофе	-10.3956
▁шо	-10.3971
гра	-10.3973
ния	-10.3974
▁чета	-10.3976
▁рой	-10.4035
▁ВВП	-10.4043
▁еду	-10.4047
▁льс	-10.4059
▁оор	-10.4061
▁чень	-10.4085
▁жн	-10.4085
▁стане	-10.4097
▁Ком	-10.4099
▁ульта	-10.4099
▁яются	-10.4108
▁оком	-10.4121
▁одо	-10.4134
▁мае	-10.4147
▁збе	-10.4162
▁укра	-10.4166
▁суль	-10.417
глав	-10.4174
▁анск	-10.4179
▁вли	-10.418
▁льд	-10.419
разд	-10.4196
▁уру	-10.4202
▁рган	-10.4208
▁трети	-10.421
▁кус	-10.4212
▁увств	-10.4219
▁ига	-10.4244
▁маль	-10.4245
▁иваю	-10.4254
▁мф	-10.4258
инг	-10.426
▁век	-10.426
▁тию	-10.4277
▁нает	-10.4282
▁номи	-10.4282
▁аша	-10.429
▁иниц	-10.4296
▁лид	-10.4311
У	-10.4324
▁уки	-10.434
▁ски	-10.4341
▁туа	-10.4343
▁йство	-10.4345
кое	-10.4359
▁нием	-10.4383
А	-10.4404
▁КНДР	-10.4417
▁ины	-10.442
▁роч	-10.442
йд	-10.4428
▁икт	-10.4438
▁эф	-10.4446
▁олне	-10.4449
омощ	-10.4453
▁ких	-10.4458
▁енты	-10.4469
▁анц	-10.4472
▁ВТБ	-10.4472
▁абот	-10.4475
▁прив	-10.4477
▁км	-10.4504
▁лива	-10.4508
▁жид	-10.4508
▁иден	-10.452
▁тория	-10.4523
▁авка	-10.4576
▁уры	-10.458
▁оже	-10.4581
▁афик	-10.4607
▁юм	-10.4611
▁N	-10.4617
кой	-10.4625
пита	-10.4625
▁СК	-10.4627
▁еф	-10.4641
▁лы	-10.4646
v	-10.4661
ст	-10.4678
▁in	-10.4688
▁ениям	-10.4692
▁фиц	-10.4692
▁енер	-10.4693
▁Сов	-10.4694
▁оке	-10.4697
▁Сев	-10.4698
T	-10.4699
▁70	-10.47
▁ати	-10.472
▁аба	-10.4747
▁шло	-10.4748
роп	-10.4752
▁авил	-10.4754
▁рана	-10.4801
▁лт	-10.4801
x	-10.4803
▁Twi	-10.481
▁Бо	-10.4829
▁ске	-10.4829
▁атл	-10.4829
▁Fi	-10.4842
▁есо	-10.4844
▁сты	-10.4861
▁уле	-10.4864
▁мель	-10.4886
▁атери	-10.4903
▁аю	-10.4909
▁аки	-10.4923
слав	-10.4934
▁озг	-10.4941
▁пла	-10.4941
▁зова	-10.4942
▁tter	-10.4943
▁ате	-10.4949
▁ооб	-10.4967
▁лично	-10.4972
▁азы	-10.4997
▁евск	-10.4998
▁вили	-10.5007
▁P	-10.501
▁лд	-10.5037
▁це	-10.5038
▁леп	-10.5053
▁арла	-10.5063
▁пин	-10.5065
▁кс	-10.5076
▁уша	-10.508
оря	-10.5083
С	-10.5093
▁ебе	-10.5118
▁объя	-10.5139
▁Goo	-10.514
▁ван	-10.5156
▁око	-10.5157
▁gle	-10.5161
▁лков	-10.5171
▁стра	-10.5177
▁щин	-10.5186
орог	-10.5188
ян	-10.5189
▁ГУ	-10.52
рите	-10.5204
▁кие	-10.5208
▁ава	-10.5218
▁лите	-10.5235
дств	-10.526
▁ателя	-10.5269
▁риз	-10.5279
▁яться	-10.5301
▁000	-10.5315
вы	-10.5322
▁роде	-10.5322
▁тек	-10.5322
▁яз	-10.5326
▁наче	-10.5334
рак	-10.5368
▁банка	-10.5369
▁дра	-10.5375
▁обс	-10.538
▁an	-10.5382
▁очь	-10.5386
▁ашн	-10.54
▁дро	-10.5402
▁итан	-10.541
▁емен	-10.5412
уч	-10.5416
мети	-10.542
▁ален	-10.5435
▁ЦИК	-10.5441
▁имат	-10.5446
▁Цен	-10.5452
▁АО	-10.5478
▁учил	-10.5479
▁исто	-10.549
▁B	-10.5498
▁озиц	-10.5505
▁дне	-10.5508
▁азу	-10.5518
▁енны	-10.5522
▁Ду	-10.5531
ар	-10.5559
▁тора	-10.556
▁ta	-10.5561
▁бл	-10.5571
▁нит	-10.5572
▁ажд	-10.5578
шли	-10.5631
▁кас	-10.5634
▁Мар	-10.5634
▁НИ	-10.565
▁оспо	-10.5652
▁алья	-10.5672
▁адим	-10.5676
▁елове	-10.5689
▁тей	-10.5694
▁плен	-10.5698
▁рошло	-10.5705
h	-10.5724
▁News	-10.573
▁ражд	-10.5731
▁оку	-10.5774
▁нист	-10.578
▁асса	-10.5784
▁cap	-10.5791
▁емн	-10.5793
▁КПРФ	-10.5817
рос	-10.5827
▁сяч	-10.5836
▁ержи	-10.5872
▁вест	-10.5891
▁роп	-10.5893
леж	-10.591
▁иб	-10.5919
▁тат	-10.5931
▁бора	-10.5931
▁сег	-10.5946
толь	-10.5948
▁оди	-10.595
·	-10.5965
▁сыл	-10.5966
рез	-10.5968
▁есно	-10.5973
▁овки	-10.5973
▁удо	-10.6006
▁раш	-10.6008
▁et	-10.6033
▁еров	-10.6053
▁Ее	-10.6061
▁яд	-10.6081
▁уте	-10.6087
▁вич	-10.6105
▁1,	-10.6111
▁отни	-10.6114
▁инов	-10.6117
▁филь	-10.613
▁нце	-10.6144
▁рож	-10.6147
▁отре	-10.6149
▁дос	-10.6189
▁150	-10.6195
▁чно	-10.6201
▁кад	-10.6218
жен	-10.6237
▁ушен	-10.6247
▁олов	-10.6249
▁ню	-10.6262
▁пик	-10.6268
▁ГИБДД	-10.6269
b	-10.6307
▁емл	-10.6312
▁ким	-10.6319
▁WADA	-10.6331
▁кров	-10.6337
▁тура	-10.6351
▁коло	-10.6353
▁лома	-10.6376
▁нз	-10.6384
▁'	-10.6393
▁сень	-10.6399
▁тих	-10.6402
▁етр	-10.6404
▁осп	-10.6419
▁рио	-10.6426
▁янс	-10.6439
▁вка	-10.6443
▁обще	-10.6448
▁мос	-10.6453
▁елем	-10.6459
▁ныне	-10.6472
▁ожа	-10.6477
▁нешн	-10.6478
▁толи	-10.6486
▁бю	-10.6487
▁омин	-10.6488
моч	-10.6497
▁нна	-10.6499
▁ипе	-10.6501
▁кому	-10.653
▁80	-10.6535
▁тир	-10.6538
▁имя	-10.6538
▁сла	-10.6548
▁яж	-10.6563
▁сточ	-10.6575
▁цам	-10.6589
▁отел	-10.6591
▁ровск	-10.6595
▁ира	-10.6621
▁ливо	-10.6622
▁нь	-10.6626
▁ару	-10.6634
▁ДНР	-10.6646
▁пеш	-10.6651
▁дко	-10.6663
▁овь	-10.6664
гол	-10.6685
▁еди	-10.6695
▁атор	-10.6699
▁цир	-10.6722
▁льц	-10.6729
▁one	-10.6747
▁рва	-10.6764
▁нова	-10.6772
▁igh	-10.6775
▁Ас	-10.6786
▁400	-10.6789
▁ухо	-10.6794
▁редп	-10.6806
▁оты	-10.6808
▁усл	-10.6809
нкт	-10.6816
цио	-10.6836
▁рид	-10.6872
ская	-10.6874
▁эп	-10.689
▁тиков	-10.6899
▁учш	-10.6911
▁ора	-10.6915
▁оры	-10.6917
▁реал	-10.6925
▁виж	-10.6933
▁чел	-10.6937
▁Bo	-10.6938
▁лев	-10.6942
▁тям	-10.6951
▁рже	-10.6954
▁дох	-10.6967
▁ря	-10.6975
▁рб	-10.6984
▁тече	-10.6991
▁тал	-10.6996
▁ско	-10.6996
▁есте	-10.6997
▁copy	-10.7004
▁орош	-10.7007
▁вать	-10.7019
▁верд	-10.7023
▁сно	-10.7035
▁ишь	-10.7035
▁одит	-10.7041
▁деж	-10.7051
▁эро	-10.7058
мпан	-10.7063
▁пус	-10.7069
▁чт	-10.7077
▁кви	-10.7097
▁иву	-10.7097
▁упал	-10.7125
▁вся	-10.7126
▁лово	-10.713
дол	-10.7137
▁верж	-10.7137
▁ОПЕК	-10.7138
▁чк	-10.7142
▁хор	-10.7146
▁циал	-10.7162
▁дель	-10.7164
хов	-10.7192
▁онн	-10.7205
▁еч	-10.7217
▁арен	-10.7218
9	-10.7234
▁юди	-10.7234
▁ицей	-10.7243
▁форма	-10.7251
▁бот	-10.7254
▁рови	-10.7256
▁урман	-10.7259
дав	-10.7267
ве	-10.7268
▁терн	-10.727
▁иями	-10.7273
▁ерп	-10.7285
▁утр	-10.7294
при	-10.7316
▁онно	-10.7332
▁D	-10.7332
▁Щ	-10.7341
▁ацию	-10.7345
▁ятс	-10.735
▁ико	-10.7351
▁алк	-10.7356
▁есси	-10.7362
▁убер	-10.7372
▁упр	-10.7381
▁ВВС	-10.7382
▁Тур	-10.739
▁юд	-10.7392
▁of	-10.7419
▁рац	-10.742
▁отом	-10.743
▁икс	-10.7438
▁енз	-10.747
▁рол	-10.7486
сед	-10.7491
▁эл	-10.7493
тори	-10.7495
▁рмо	-10.7498
▁каб	-10.7502
▁Mo	-10.7512
▁ени	-10.7521
▁емье	-10.754
▁оих	-10.7561
▁олис	-10.7564
▁тики	-10.7574
▁еста	-10.7582
ww	-10.7585
▁итае	-10.762
бли	-10.7624
▁анта	-10.7627
▁стил	-10.763
:	-10.763
▁заг	-10.7648
▁ожен	-10.7652
▁Group	-10.7655
▁e	-10.7656
▁акр	-10.7665
▁азо	-10.7679
▁роб	-10.768
▁пала	-10.7707
И	-10.7724
▁аниям	-10.7725
▁ань	-10.7747
▁90	-10.7749
▁[	-10.7762
▁рку	-10.7769
▁офе	-10.7783
▁жит	-10.7785
▁нге	-10.7801
▁ТВ	-10.7809
▁пан	-10.7854
▁гио	-10.7857
▁онии	-10.7872
▁€	-10.7895
▁зин	-10.7909
▁Хо	-10.7914
опус	-10.793
▁a	-10.793
▁Ос	-10.7973
▁зит	-10.799
▁For	-10.7992
▁Le	-10.8004
▁35	-10.801
▁]	-10.8015
▁мес	-10.8022
▁сев	-10.8032
▁атр	-10.8033
ро	-10.8037
▁оров	-10.8042
▁тве	-10.8047
▁узов	-10.8051
▁жей	-10.8051
▁°	-10.8052
▁изу	-10.8056
▁иш	-10.8067
▁пат	-10.8106
▁торая	-10.815
ly	-10.8162
▁заме	-10.8177
▁совер	-10.8203
▁пояс	-10.8213
▁тле	-10.8224
▁ерна	-10.8228
▁T	-10.8228
▁МОК	-10.8241
▁пох	-10.8247
▁прим	-10.8249
▁ИГИЛ	-10.8276
▁лиции	-10.8322
нес	-10.8328
ог	-10.8335
еч	-10.8344
▁мик	-10.8351
▁биле	-10.8363
бир	-10.8404
▁пир	-10.8406
▁ажу	-10.8411
▁атов	-10.8413
▁очка	-10.843
▁Ол	-10.8433
▁ихо	-10.8459
це	-10.8468
▁учит	-10.847
▁Мэ	-10.8475
▁изб	-10.8477
шие	-10.8481
▁коро	-10.8487
▁нами	-10.8498
▁тала	-10.8502
▁ce	-10.851
▁сток	-10.8522
Ph	-10.8541
мун	-10.8559
▁Лу	-10.8561
▁оки	-10.8578
▁юда	-10.8587
▁думы	-10.859
▁олу	-10.86
▁ош	-10.8603
▁анка	-10.8606
▁бщ	-10.8611
▁пци	-10.8614
▁або	-10.8626
▁ави	-10.8628
▁изо	-10.8629
▁лана	-10.8649
▁еет	-10.8655
▁ером	-10.866
▁сы	-10.8665
▁етн	-10.8665
▁Ис	-10.8667
▁еса	-10.8677
▁c	-10.8684
▁ВАЗ	-10.8691
▁одня	-10.8696
куп	-10.8704
лиц	-10.8737
▁душ	-10.8744
▁ярн	-10.8753
▁амен	-10.8755
елик	-10.8755
▁отв	-10.8759
▁обр	-10.8762
нем	-10.8771
▁ьниц	-10.8788
▁ясн	-10.8794
▁ницы	-10.8809
▁урм	-10.8815
▁етей	-10.8823
▁кцио	-10.8827
▁екре	-10.8832
▁Ин	-10.8843
▁лис	-10.8848
сыл	-10.8854
▁ола	-10.8861
,6	-10.8861
▁ртов	-10.8862
▁ктора	-10.8871
8	-10.8883
▁бан	-10.8888
▁сию	-10.889
▁енти	-10.889
▁&	-10.8899
▁арто	-10.8899
▁гра	-10.8912
▁тивно	-10.893
▁апа	-10.8931
жн	-10.8936
▁ent	-10.8938
▁пло	-10.8956
▁итр	-10.8962
▁ерва	-10.8963
▁авар	-10.897
▁Times	-10.8978
▁кул	-10.8997
▁дели	-10.9003
▁ойк	-10.9006
▁Юр	-10.9023
чин	-10.9041
▁M	-10.9054
▁орва	-10.9059
▁лья	-10.9096
сту	-10.9098
▁оре	-10.9104
ецк	-10.911
▁стви	-10.9116
▁Эк	-10.9139
точн	-10.915
▁арс	-10.9152
▁шим	-10.9168
▁изы	-10.9178
▁Анд	-10.9185
▁45	-10.9187
▁пец	-10.919
▁нин	-10.9195
▁You	-10.9195
▁водо	-10.9198
nd	-10.9203
▁елич	-10.9205
▁R	-10.921
▁омме	-10.9219
▁вая	-10.9226
про	-10.9233
▁овор	-10.9246
▁убл	-10.9258
▁зк	-10.9259
▁мыш	-10.9261
▁рье	-10.928
▁пута	-10.9284
▁азви	-10.9291
▁дам	-10.9316
▁едк	-10.9322
▁рю	-10.9326
us	-10.9327
▁тина	-10.934
▁едв	-10.9342
хин	-10.9343
▁нты	-10.9346
шин	-10.9354
▁тет	-10.9356
▁Кэ	-10.9357
▁ири	-10.9359
▁исл	-10.9368
▁жет	-10.937
рман	-10.9384
▁to	-10.9388
▁Зе	-10.939
▁ФАС	-10.9393
▁грам	-10.9393
▁жем	-10.9394
▁окон	-10.9395
▁опор	-10.9407
За	-10.9409
▁кса	-10.941
во	-10.9412
▁арти	-10.9414
▁еры	-10.9417
,8	-10.9417
▁итов	-10.9429
▁ЛДПР	-10.9432
▁шан	-10.9436
▁авт	-10.9437
▁чес	-10.9438
▁вно	-10.9443
▁иво	-10.9446
30	-10.9473
шего	-10.95
▁гул	-10.9514
▁соци	-10.9515
▁рж	-10.9521
▁пожа	-10.9521
▁отов	-10.9525
▁ляр	-10.9526
▁жение	-10.9531
▁ато	-10.9532
▁вока	-10.954
▁Им	-10.9545
сов	-10.9549
▁пек	-10.9551
▁ловн	-10.9551
▁олле	-10.9556
озво	-10.957
▁стик	-10.9596
▁z	-10.9596
▁мии	-10.9606
▁ющих	-10.9607
▁иция	-10.9608
▁орни	-10.9628
A	-10.9648
▁аше	-10.9664
▁идел	-10.9665
▁нков	-10.9678
▁иви	-10.9684
▁пит	-10.9689
▁II	-10.9692
оя	-10.97
▁ожил	-10.9711
▁уре	-10.9722
▁окк	-10.9731
мест	-10.9744
▁тыр	-10.9784
▁реле	-10.9786
▁РАН	-10.9791
▁аив	-10.9791
▁сб	-10.9795
▁лак	-10.9803
▁иве	-10.9815
▁ЖКХ	-10.982
▁овы	-10.9831
f	-10.9836
▁кана	-10.9843
▁шаг	-10.9846
z	-10.9857
▁ох	-10.9859
▁едн	-10.9861
▁РЖД	-10.9867
чк	-10.9877
▁сум	-10.9877
▁Bren	-10.9878
▁атч	-10.9889
▁оза	-10.989
▁исте	-10.9902
▁кру	-10.9902
▁V	-10.9904
▁СНГ	-10.9909
▁олен	-10.9913
▁рано	-10.9918
▁жур	-10.9918
▁тани	-10.9928
▁лиз	-10.9932
▁визи	-10.9947
поз	-10.9957
На	-10.9958
▁лок	-10.9969
▁кте	-10.9984
▁O	-10.9996
▁бле	-11.0002
оч	-11.0003
▁мах	-11.0004
▁щн	-11.0011
▁ian	-11.0014
▁иФ	-11.0017
▁осе	-11.0021
▁te	-11.0031
▁отк	-11.0042
▁КНР	-11.0043
▁La	-11.0048
▁ибо	-11.0059
▁емле	-11.0062
▁овен	-11.0065
▁Inte	-11.0075
▁онт	-11.0082
▁нсо	-11.0099
▁вета	-11.0102
▁мать	-11.011
▁бог	-11.0116
▁лоб	-11.0149
ях	-11.015
▁омен	-11.0159
▁сос	-11.0161
▁нский	-11.0168
▁ятн	-11.0178
▁бом	-11.0186
▁щее	-11.019
▁фир	-11.022
▁окра	-11.0244
▁ющи	-11.0268
▁алого	-11.0286
▁тным	-11.0287
▁жир	-11.0289
▁el	-11.0292
▁оем	-11.0292
▁едо	-11.0294
,3	-11.0296
Т	-11.0297
▁обход	-11.03
▁тф	-11.03
▁куд	-11.0315
▁ешк	-11.0319
er	-11.0328
▁ропа	-11.0333
▁ВКС	-11.0338
▁ольши	-11.0347
▁выб	-11.0349
▁L	-11.038
▁аси	-11.0383
дом	-11.0391
▁рри	-11.0392
▁рали	-11.0394
▁дия	-11.0401
▁руд	-11.0403
▁руже	-11.0427
▁600	-11.0433
▁кг	-11.0435
▁дми	-11.0439
▁тис	-11.0446
▁трук	-11.0447
▁ЧП	-11.0449
▁H	-11.045
▁одро	-11.046
▁кап	-11.0471
▁the	-11.0485
▁зы	-11.0508
▁жест	-11.052
▁вора	-11.0539
▁вир	-11.0561
▁щат	-11.0579
▁ерси	-11.0601
ются	-11.0603
▁ици	-11.0604
▁che	-11.0608
▁еро	-11.0628
▁ары	-11.0636
▁уба	-11.0667
▁опе	-11.0678
▁иму	-11.0683
▁фина	-11.0688
▁оном	-11.0691
▁gram	-11.0692
▁ВС	-11.0692
▁ветс	-11.0698
▁дик	-11.0703
▁вери	-11.0706
▁ндр	-11.0717
▁рези	-11.073
▁енси	-11.0732
▁силь	-11.0737
▁астр	-11.0749
▁ийск	-11.0762
▁енци	-11.0776
▁Vol	-11.079
тин	-11.0812
▁МВФ	-11.0837
▁дъ	-11.0838
▁дроб	-11.0845
▁вари	-11.0849
▁необ	-11.0865
Р	-11.0872
▁ube	-11.0887
▁снос	-11.089
▁дов	-11.089
▁шей	-11.0895
▁жи	-11.0897
ПК	-11.0898
▁рих	-11.0905
▁it	-11.0909
▁Merc	-11.092
▁оле	-11.0921
▁зво	-11.0925
▁лор	-11.093
▁ежд	-11.0936
▁des	-11.0937
шен	-11.0938
▁рив	-11.0947
▁250	-11.0959
▁онта	-11.0964
▁ойд	-11.0974
▁лиза	-11.0984
▁ОБСЕ	-11.0984
нос	-11.0986
▁нсп	-11.0987
▁тии	-11.1006
▁ремя	-11.1017
▁мое	-11.1019
▁сын	-11.1033
пы	-11.1035
▁тел	-11.1054
▁ебя	-11.1057
Л	-11.1059
▁тру	-11.107
▁агр	-11.109
▁ic	-11.1092
▁риш	-11.1102
▁лла	-11.1116
▁емо	-11.1124
▁иван	-11.1125
ской	-11.1126
▁ФРГ	-11.1134
▁Гер	-11.1138
▁ехн	-11.1139
▁еня	-11.114
▁ратно	-11.1141
▁рын	-11.1157
▁льт	-11.1159
▁итвы	-11.1161
рац	-11.1162
▁мисс	-11.1187
▁илли	-11.1195
▁иси	-11.1203
▁нным	-11.121
▁орен	-11.1211
▁кив	-11.1221
▁тка	-11.1226
▁вых	-11.1237
▁госп	-11.1244
▁тств	-11.1251
▁наде	-11.1265
▁ержа	-11.127
▁руппа	-11.1279
▁алит	-11.1283
▁спон	-11.1308
▁ra	-11.1324
▁опи	-11.1334
▁berg	-11.1336
▁нил	-11.1345
▁цу	-11.1346
▁купа	-11.1356
▁ажн	-11.136
▁алов	-11.1362
▁b	-11.1362
▁уше	-11.1364
▁орит	-11.1371
▁соп	-11.1411
▁ильн	-11.1415
▁вити	-11.1417
▁оенн	-11.1433
По	-11.1446
▁ыло	-11.1449
▁поэт	-11.1457
▁инга	-11.1483
▁рика	-11.1486
▁WSJ	-11.1491
▁иста	-11.1493
▁бек	-11.1497
▁ници	-11.1501
▁поз	-11.1513
▁гим	-11.1531
▁вра	-11.1537
▁фт	-11.1537
▁уши	-11.1547
ятел	-11.156
▁чи	-11.1562
▁наше	-11.1562
▁айдан	-11.1568
▁оща	-11.1572
▁уси	-11.1577
▁анди	-11.1577
▁ыли	-11.158
▁трет	-11.1584
▁ung	-11.1595
ций	-11.1611
▁инт	-11.164
▁очер	-11.1658
▁азн	-11.1674
▁ерем	-11.1686
▁Bloo	-11.1689
▁Dai	-11.1711
▁ури	-11.1714
▁яли	-11.1719
ул	-11.1721
▁осту	-11.1736
▁мся	-11.1745
▁and	-11.1746
▁2,	-11.1754
▁50%	-11.1759
▁кая	-11.1776
▁нса	-11.1777
▁уков	-11.1791
тик	-11.1796
▁еря	-11.1822
▁рию	-11.1838
▁ЛНР	-11.1862
ag	-11.1867
▁вига	-11.1867
1	-11.1882
▁120	-11.1891
▁шоу	-11.1897
▁зл	-11.1902
▁огу	-11.1906
▁тного	-11.1924
▁очки	-11.1934
▁онс	-11.1941
▁спа	-11.1947
▁рч	-11.195
ld	-11.1952
▁мене	-11.1959
▁екта	-11.196
▁ула	-11.1964
▁луч	-11.2035
▁рше	-11.2056
▁ro	-11.2059
▁ерба	-11.2067
▁уди	-11.2068
▁айт	-11.2072
ател	-11.2072
‐	-11.2079
▁СИЗО	-11.2079
▁мэр	-11.2092
▁ише	-11.211
НК	-11.2112
▁еют	-11.2127
▁руга	-11.213
бол	-11.2147
▁Фи	-11.2147
▁еал	-11.2155
АЗ	-11.2159
▁арод	-11.2175
▁аран	-11.2179
▁лете	-11.2191
▁остей	-11.2197
▁Ше	-11.2235
▁BMW	-11.2246
▁чук	-11.2267
▁рати	-11.228
▁исси	-11.2292
▁ФИФА	-11.2302
▁дей	-11.2314
▁ающий	-11.2323
ch	-11.2331
▁ссии	-11.2335
▁езо	-11.2343
▁уще	-11.235
▁Евр	-11.2363
▁Инте	-11.2368
▁олы	-11.2369
чат	-11.2393
al	-11.2409
▁року	-11.244
F	-11.244
▁мяч	-11.2449
▁фл	-11.2463
▁ВК	-11.2469
авш	-11.247
ман	-11.2473
▁бат	-11.2492
▁аса	-11.2502
э	-11.2517
▁лим	-11.2521
▁ницу	-11.2522
ечн	-11.2527
▁Tel	-11.2539
▁K	-11.2543
▁ne	-11.2551
▁тч	-11.256
▁ерст	-11.2566
▁рц	-11.2571
▁виа	-11.2579
▁ФБР	-11.259
ными	-11.2591
вед	-11.2599
▁55	-11.2603
луг	-11.2605
all	-11.2606
▁тья	-11.2609
ks	-11.2611
▁офи	-11.2618
▁опо	-11.2641
▁Sam	-11.2646
смо	-11.2648
▁руют	-11.2648
▁сси	-11.2662
▁ься	-11.2669
▁лод	-11.2696
▁or	-11.2704
тных	-11.275
▁зде	-11.2755
▁сме	-11.2759
▁чей	-11.2772
▁ФА	-11.2777
▁еатр	-11.2777
▁нси	-11.2806
▁пион	-11.2812
▁ема	-11.2819
▁32	-11.2821
―	-11.2822
50	-11.2828
S	-11.2834
▁чему	-11.2856
▁бое	-11.2858
▁еран	-11.2865
▁СУ	-11.2869
▁ожи	-11.2879
▁ация	-11.2887
▁20%	-11.2895
▁таци	-11.2906
▁шие	-11.2916
хо	-11.2924
ати	-11.2924
▁овес	-11.2933
▁внос	-11.2939
▁АЭС	-11.2947
▁умен	-11.2958
▁рш	-11.296
рек	-11.2965
▁nit	-11.2969
ash	-11.2995
▁аций	-11.2998
▁лаш	-11.2999
ез	-11.3012
▁жк	-11.3071
▁непр	-11.3079
▁мерт	-11.3098
▁ужа	-11.3116
▁елям	-11.3122
тил	-11.3127
▁FT	-11.3132
▁de	-11.3139
нных	-11.3144
вно	-11.3148
▁дачи	-11.3156
▁зыва	-11.3168
лен	-11.3176
▁сени	-11.3176
▁СБУ	-11.3191
▁есяц	-11.3198
▁10%	-11.3201
▁Бл	-11.3204
▁tal	-11.3206
▁man	-11.3213
▁ично	-11.3213
▁Ак	-11.3218
▁елос	-11.3223
▁юз	-11.3236
▁оват	-11.3239
▁Mail	-11.3247
▁едс	-11.3247
▁мот	-11.3269
▁еми	-11.3278
▁сте	-11.328
▁воров	-11.33
тич	-11.3303
▁вои	-11.3304
▁нгр	-11.3308
D	-11.3325
▁at	-11.3326
▁речи	-11.3331
▁ртв	-11.3337
▁стиж	-11.3353
▁гур	-11.3356
▁шит	-11.3362
▁аур	-11.3366
▁огд	-11.3385
▁етен	-11.3393
at	-11.3396
▁бас	-11.341
%.	-11.3414
und	-11.3423
К	-11.3423
ng	-11.3424
▁иса	-11.3429
▁осс	-11.3438
80	-11.3443
олуч	-11.3452
▁лас	-11.3459
▁лил	-11.3464
ne	-11.3488
▁Co	-11.3497
▁Life	-11.3498
▁33	-11.3512
▁рда	-11.3512
▁енте	-11.3543
▁чал	-11.3562
▁рман	-11.3578
▁Al	-11.3589
▁ьк	-11.3595
чев	-11.3614
▁ылк	-11.3614
▁роя	-11.3623
▁New	-11.3624
▁3,	-11.3625
▁nal	-11.3657
дет	-11.366
▁кир	-11.3666
▁раке	-11.3673
▁гда	-11.3684
5	-11.3684
▁ида	-11.3692
20	-11.3697
орит	-11.3711
▁ету	-11.3723
▁азан	-11.3733
▁ваш	-11.3738
▁рич	-11.3739
▁ерро	-11.3752
▁ешен	-11.3757
▁икул	-11.3764
▁йк	-11.3772
▁етов	-11.3783
▁илос	-11.3785
стер	-11.3795
▁спе	-11.3801
▁тас	-11.3803
▁ПАО	-11.3812
▁ачи	-11.3816
▁епа	-11.3836
▁язы	-11.3841
▁оны	-11.3862
ах	-11.3886
▁лого	-11.3894
▁нной	-11.3898
▁нки	-11.3906
▁nat	-11.3913
▁айо	-11.3914
▁Wi	-11.3923
▁еде	-11.3933
▁нны	-11.3935
Не	-11.3935
▁Str	-11.3937
▁борн	-11.3946
▁НХЛ	-11.3953
▁Ли	-11.3955
▁рма	-11.3959
иль	-11.3976
▁Ins	-11.4002
верс	-11.4004
▁36	-11.4005
▁арко	-11.4021
▁рудо	-11.4026
▁ппа	-11.4029
ck	-11.4035
знь	-11.4043
▁еньк	-11.4049
▁арте	-11.405
▁циям	-11.4065
▁зация	-11.4086
▁тых	-11.4089
▁анси	-11.4094
▁юл	-11.4094
▁елы	-11.4099
▁ВЭБ	-11.4102
фф	-11.4105
▁узык	-11.4109
Н	-11.4113
▁re	-11.4115
▁Ран	-11.4118
▁НКО	-11.4132
▁оц	-11.4134
▁роне	-11.4143
▁НПФ	-11.4154
▁ФРС	-11.4155
сон	-11.4183
▁ai	-11.4183
▁ton	-11.4191
▁руко	-11.4196
▁чая	-11.4207
▁агер	-11.4222
▁U	-11.4222
▁пуля	-11.4225
C	-11.4227
ут	-11.4229
▁рит	-11.4234
▁очной	-11.4238
▁Кра	-11.4242
an	-11.427
▁On	-11.4271
▁Yo	-11.4276
▁рел	-11.4282
▁убо	-11.4301
▁джа	-11.4309
▁рых	-11.431
▁Мир	-11.4319
▁тна	-11.432
3	-11.4331
▁ерне	-11.4336
▁верт	-11.434
▁бъ	-11.4344
▁пти	-11.4354
▁атин	-11.4357
ющих	-11.4364
ся	-11.4373
▁АР	-11.4395
пол	-11.4405
▁ше	-11.4425
▁Pro	-11.4428
▁ОСАГО	-11.4429
▁ехо	-11.4434
▁акар	-11.4441
▁илан	-11.4446
▁бур	-11.4491
▁иди	-11.4491
▁ндо	-11.4492
▁еве	-11.45
2%	-11.4522
▁азани	-11.4526
▁юге	-11.4538
▁Сер	-11.4545
шек	-11.4553
,1	-11.4558
▁езу	-11.4565
▁30%	-11.4574
▁оков	-11.4603
▁поль	-11.4605
▁дение	-11.4608
▁атер	-11.4612
▁шем	-11.4626
▁bg	-11.464
▁ровь	-11.4648
▁умм	-11.4648
▁J	-11.4658
▁овка	-11.4662
▁рада	-11.4682
▁рди	-11.4683
▁мам	-11.4685
▁ed	-11.4725
▁5%	-11.4727
▁na	-11.4736
▁рят	-11.4738
P	-11.4739
▁42	-11.4748
▁Рост	-11.4753
▁Con	-11.4779
▁рах	-11.4805
▁Лю	-11.4827
▁арди	-11.4834
▁тите	-11.4845
▁есен	-11.485
▁ЧМ	-11.4852
уар	-11.4853
▁ma	-11.4878
ошл	-11.4888
▁лк	-11.4889
▁нга	-11.4918
▁ац	-11.4918
▁нне	-11.4922
▁емых	-11.4925
роз	-11.4926
▁тий	-11.4943
▁кци	-11.4943
▁75	-11.4954
▁Ил	-11.4964
▁оим	-11.4979
сал	-11.4993
▁*	-11.5002
его	-11.5009
▁мани	-11.5044
▁уэ	-11.5057
▁рим	-11.5068
рик	-11.5068
▁игер	-11.5069
тиц	-11.5072
▁инст	-11.5072
▁ятно	-11.5075
рин	-11.5079
▁40%	-11.5081
▁лир	-11.5107
▁воих	-11.5113
▁еки	-11.5117
ье	-11.5122
▁ссы	-11.5124
▁An	-11.5127
▁рип	-11.513
ack	-11.5145
▁аун	-11.5147
▁РФС	-11.5157
▁АСВ	-11.5165
▁тко	-11.5171
▁Eur	-11.5183
▁Гл	-11.5194
▁nault	-11.5226
▁пул	-11.5238
▁no	-11.5251
▁мей	-11.5262
▁лос	-11.5263
ФО	-11.5273
лик	-11.5282
▁шко	-11.5282
▁аза	-11.5313
▁нц	-11.5315
▁обя	-11.5315
▁for	-11.5321
▁шек	-11.5326
▁поч	-11.5336
▁рдо	-11.5337
▁нту	-11.534
5%	-11.5349
8%	-11.5361
▁Toy	-11.538
▁туре	-11.5383
▁оса	-11.5395
▁65	-11.5415
Г	-11.5426
▁аци	-11.5428
▁нош	-11.5435
▁урн	-11.5438
▁анкер	-11.5438
▁онг	-11.5457
▁МГУ	-11.5474
▁рме	-11.548
▁раю	-11.5517
мы	-11.5517
▁бло	-11.5528
en	-11.5529
▁ВИЧ	-11.5532
▁трал	-11.5538
▁гуля	-11.5556
▁аке	-11.5565
▁мек	-11.5568
▁итуа	-11.5573
▁есе	-11.5589
▁нице	-11.5594
▁ольф	-11.5598
▁Gal	-11.56
▁инн	-11.5601
▁еза	-11.5607
▁льм	-11.5607
▁Hy	-11.5614
ял	-11.5627
G	-11.5634
▁оход	-11.5635
щев	-11.5638
3%	-11.5647
▁нко	-11.5653
ce	-11.5661
▁ноше	-11.5664
▁мыв	-11.5668
▁Вели	-11.5669
ПЦ	-11.5688
▁34	-11.5705
▁тник	-11.5708
▁рупп	-11.5714
дь	-11.5717
▁37	-11.5721
▁оним	-11.5723
▁En	-11.5724
▁икан	-11.5727
▁рех	-11.5733
хан	-11.5739
▁огер	-11.5753
▁ГК	-11.5758
▁кет	-11.5774
▁IT	-11.5791
АР	-11.5796
▁зу	-11.5824
▁агра	-11.5826
▁шил	-11.5835
▁орам	-11.5839
▁рни	-11.5844
▁УЕФА	-11.5849
▁жу	-11.5849
▁шум	-11.5851
O	-11.5859
ard	-11.5859
▁цид	-11.5863
▁ers	-11.5878
родн	-11.5891
▁анда	-11.591
▁рго	-11.5913
▁огр	-11.5915
▁еща	-11.5918
▁наме	-11.5919
▁черк	-11.5921
▁нб	-11.5924
▁Bank	-11.5929
▁еку	-11.5972
▁нах	-11.5973
▁ующих	-11.5997
▁леду	-11.6008
чук	-11.6014
ПП	-11.6019
▁лето	-11.604
▁апи	-11.605
▁узы	-11.6057
▁гг	-11.6077
▁апу	-11.6082
ою	-11.6086
▁етон	-11.6088
▁пить	-11.609
▁рмац	-11.6098
ении	-11.6098
АП	-11.6118
▁МС	-11.6118
▁вости	-11.6121
▁зь	-11.6134
▁жат	-11.6145
▁38	-11.615
se	-11.6152
9%	-11.6158
▁ече	-11.6164
10	-11.6169
▁ni	-11.6185
▁st	-11.6191
ниц	-11.6194
▁осто	-11.6201
il	-11.6209
▁риб	-11.622
▁тя	-11.624
СП	-11.6242
КА	-11.6257
▁тац	-11.626
▁Jou	-11.6271
rk	-11.6279
▁алют	-11.6304
▁итат	-11.6308
▁рыл	-11.6309
▁есу	-11.6321
▁рто	-11.6323
тон	-11.6328
▁Wor	-11.6329
▁икова	-11.6338
▁4%	-11.6342
▁ОНФ	-11.6344
▁уве	-11.6351
▁bus	-11.6351
згл	-11.6354
▁рет	-11.6355
▁ильм	-11.6355
уз	-11.6357
▁ефо	-11.6383
▁руги	-11.6389
▁мый	-11.6392
НАС	-11.6393
▁рсе	-11.6397
▁рба	-11.6415
▁миро	-11.6419
▁уал	-11.6419
Б	-11.6423
▁Micr	-11.6427
▁ющим	-11.6446
▁бет	-11.6459
аст	-11.6466
▁чьи	-11.6477
▁Gu	-11.648
▁ght	-11.6513
▁ard	-11.6527
▁ial	-11.6532
▁рей	-11.6533
ков	-11.6551
▁роф	-11.656
▁ерам	-11.656
▁ивер	-11.6561
мин	-11.6563
▁асн	-11.6564
МК	-11.6584
▁рна	-11.6589
▁атк	-11.6599
▁Рио	-11.6608
▁Rus	-11.6612
ТС	-11.6626
▁48	-11.6634
▁ыше	-11.6639
ийск	-11.665
▁апр	-11.6657
▁нде	-11.6659
▁антов	-11.6668
▁унк	-11.6671
▁roid	-11.6686
▁ПДД	-11.669
▁щении	-11.6691
▁ерь	-11.6694
▁ыка	-11.6703
▁одр	-11.6706
▁рони	-11.6711
▁ашк	-11.6712
▁ожде	-11.6732
▁уро	-11.6737
▁ропо	-11.6748
▁мейк	-11.6749
▁ЦРУ	-11.6774
▁ьес	-11.6776
де	-11.6777
▁$1	-11.6779
лены	-11.6784
асс	-11.6792
▁мира	-11.6792
боч	-11.6803
▁ефт	-11.6829
ль	-11.6846
iki	-11.6858
▁Mar	-11.6859
▁To	-11.6862
▁>	-11.6862
▁рты	-11.6868
▁Su	-11.6873
BC	-11.6885
мат	-11.6886
▁ренн	-11.6892
▁ичк	-11.6897
▁le	-11.6904
▁пы	-11.6916
▁ыж	-11.6922
▁орре	-11.6924
су	-11.6937
▁рене	-11.6942
▁шен	-11.6947
▁уча	-11.6947
▁III	-11.6953
▁тавк	-11.696
-	-11.6969
▁алы	-11.6974
▁През	-11.6976
▁ыг	-11.6982
▁трак	-11.6982
▁амы	-11.7012
▁алу	-11.7012
ны	-11.7013
▁Lada	-11.7042
▁ПФР	-11.7043
▁жает	-11.7049
▁асх	-11.7051
▁осм	-11.7055
is	-11.7069
▁авле	-11.7069
СУ	-11.7088
▁воре	-11.7108
ации	-11.7108
▁чным	-11.7139
▁КОСа	-11.7146
аем	-11.7148
▁приз	-11.7156
▁ВМС	-11.7158
▁ванию	-11.7163
▁ообща	-11.7163
▁чка	-11.7167
▁мба	-11.7173
da	-11.7188
▁мят	-11.72
АК	-11.7206
▁io	-11.7211
▁едов	-11.7214
▁анш	-11.7217
▁сул	-11.7221
6	-11.7225
▁есто	-11.7232
▁СПГ	-11.7236
▁амм	-11.7238
▁кома	-11.7248
▁ону	-11.7261
бин	-11.7262
▁сса	-11.7263
▁егу	-11.7265
▁оде	-11.7269
▁жар	-11.7269
▁44	-11.7285
▁етра	-11.7286
▁кот	-11.7289
▁адн	-11.729
▁льш	-11.7313
▁ax	-11.7317
▁вгуст	-11.7317
▁рог	-11.732
▁жин	-11.7335
▁рне	-11.7353
▁сооб	-11.7356
▁жим	-11.7366
▁46	-11.7371
▁очно	-11.7383
▁лах	-11.7394
▁лта	-11.7406
▁Benz	-11.741
▁ирк	-11.7411
▁ФЗ	-11.7418
Об	-11.7431
▁овет	-11.7437
▁отер	-11.7444
▁епо	-11.7448
▁зис	-11.7451
▁мул	-11.7455
▁арп	-11.7462
vi	-11.7477
▁йс	-11.7479
▁МК	-11.748
▁soft	-11.7505
▁Post	-11.7505
▁ty	-11.7505
▁aks	-11.7505
▁НДС	-11.7508
▁ьбе	-11.7529
▁асов	-11.7533
▁площ	-11.7538
▁лага	-11.7542
▁1%	-11.7548
▁трой	-11.7552
▁КС	-11.7557
▁епе	-11.7557
/	-11.7557
▁th	-11.7576
▁рям	-11.758
ха	-11.76
▁ЕСПЧ	-11.7601
▁менов	-11.7602
▁80%	-11.7605
▁льб	-11.7609
▁350	-11.7616
Ф	-11.7628
▁шет	-11.7636
▁боя	-11.7641
▁тства	-11.7651
▁апе	-11.7681
гин	-11.7683
▁рги	-11.7686
▁ine	-11.7711
▁нну	-11.7737
▁15%	-11.774
▁бре	-11.7744
▁тало	-11.7745
▁o	-11.7756
IX	-11.7759
▁47	-11.7783
▁Nov	-11.7788
шк	-11.7791
▁Li	-11.7794
▁CAS	-11.7795
▁CNN	-11.7795
▁онку	-11.7799
▁ерф	-11.7803
B	-11.7808
▁Vi	-11.7808
▁онны	-11.782
▁160	-11.7824
▁кси	-11.7846
▁US	-11.7847
▁зя	-11.7869
▁85	-11.7871
▁лице	-11.7874
▁Par	-11.7875
▁СП	-11.788
пул	-11.7883
▁d	-11.7893
▁сиро	-11.7898
▁ллион	-11.7902
▁скан	-11.7906
▁лка	-11.7913
ft	-11.7919
▁арр	-11.792
▁вла	-11.7926
▁отал	-11.7927
▁ниям	-11.7931
▁ези	-11.7935
КОЙ	-11.7937
▁рки	-11.7948
▁мок	-11.7951
▁домо	-11.7953
I	-11.7953
▁пле	-11.7956
айер	-11.7971
▁ble	-11.7989
▁НТВ	-11.7992
▁Ло	-11.7993
▁КХЛ	-11.7994
▁емонт	-11.7994
M	-11.7995
сто	-11.7995
▁вог	-11.8001
▁шл	-11.8007
▁май	-11.8016
мент	-11.8025
▁печ	-11.803
▁люч	-11.8032
▁тико	-11.8033
▁айан	-11.8042
▁зю	-11.8043
▁орс	-11.8047
▁тые	-11.8047
воз	-11.8061
▁инв	-11.8062
бэ	-11.8066
_	-11.809
▁иумф	-11.809
▁ЕГЭ	-11.809
▁−	-11.809
▁раны	-11.8099
▁вую	-11.8104
зов	-11.8105
уш	-11.8113
▁h	-11.8114
▁упе	-11.812
ГУ	-11.8123
▁оги	-11.814
▁шки	-11.8141
гер	-11.8145
▁наци	-11.8157
вол	-11.8164
▁осв	-11.8182
▁шенк	-11.819
▁ВЦИОМ	-11.8191
▁ВМФ	-11.8192
▁FM	-11.8193
▁ner	-11.8193
▁4,	-11.8207
▁Q	-11.8224
▁вад	-11.8232
▁обил	-11.8244
▁омощ	-11.8253
▁еше	-11.828
?	-11.8286
▁Sport	-11.8293
▁Audi	-11.8293
▁news	-11.8293
w	-11.8296
▁ерх	-11.8301
▁мпан	-11.8322
▁раф	-11.8325
ави	-11.8336
▁полов	-11.8338
▁ссан	-11.834
el	-11.8349
▁омет	-11.8351
am	-11.8355
▁коль	-11.836
Е	-11.8363
▁исе	-11.837
▁Bre	-11.8373
▁ch	-11.8393
раф	-11.8395
иГ	-11.8409
▁итал	-11.8416
зрыв	-11.8423
СИН	-11.8426
▁мень	-11.8441
▁чный	-11.8445
▁5,	-11.8455
▁фед	-11.8487
▁лай	-11.8488
▁енде	-11.8491
▁3%	-11.8491
▁tor	-11.8495
▁дите	-11.8495
АСЕ	-11.8497
▁Tesla	-11.85
▁ФНС	-11.8502
▁лли	-11.8502
ar	-11.8512
▁вена	-11.8513
▁пей	-11.8517
▁сией	-11.8524
▁XX	-11.8525
▁43	-11.8536
▁мма	-11.8553
▁уса	-11.8563
▁mon	-11.858
▁гей	-11.8581
▁net	-11.8593
▁аня	-11.8596
pace	-11.8615
▁ge	-11.8616
▁атит	-11.8616
▁нни	-11.8626
маз	-11.8635
▁Nis	-11.8636
▁хэ	-11.8647
бун	-11.865
it	-11.865
▁иты	-11.8659
▁варт	-11.8661
▁нду	-11.8662
▁енни	-11.8664
▁аэ	-11.8665
▁ечин	-11.8666
▁уби	-11.8667
▁рудн	-11.8673
▁склю	-11.8677
▁изда	-11.8692
▁РГ	-11.8692
ИС	-11.8704
▁Uni	-11.8714
▁nanc	-11.8715
▁алай	-11.8729
форм	-11.8735
▁вете	-11.8756
▁абр	-11.8757
4%	-11.8758
▁57	-11.877
u	-11.8773
gyp	-11.8774
▁жник	-11.8817
▁ive	-11.8826
▁аку	-11.8827
▁осу	-11.8829
СК	-11.8831
▁ицию	-11.8838
▁IV	-11.8843
▁щу	-11.885
▁ачк	-11.8857
▁зни	-11.8858
▁25%	-11.8861
▁AP	-11.8874
ель	-11.8874
7%	-11.8886
▁олла	-11.8886
▁рег	-11.8889
▁сра	-11.8901
▁еоб	-11.8907
З	-11.8909
▁Ho	-11.8917
▁Ex	-11.8929
▁TV	-11.8939
▁is	-11.8939
▁Aut	-11.8943
▁апл	-11.8946
Х	-11.8949
th	-11.8951
▁ur	-11.8958
1%	-11.8966
▁стон	-11.897
st	-11.8981
▁64	-11.9002
▁зала	-11.9009
РК	-11.9012
▁2-3	-11.9042
▁арок	-11.9049
▁сут	-11.9052
тра	-11.9057
ПЧ	-11.9065
15	-11.9068
▁Go	-11.9069
▁ЕР	-11.9073
▁тайс	-11.9076
▁саж	-11.9096
▁онча	-11.9098
▁тег	-11.9102
▁ужб	-11.9108
▁гло	-11.9109
▁вере	-11.9144
▁AFP	-11.9149
▁In	-11.9151
щин	-11.9156
▁ДПС	-11.9163
▁икаг	-11.9164
▁Ser	-11.9166
▁ФК	-11.9189
▁ОИ	-11.9212
▁ВСУ	-11.9212
60	-11.9218
КБ	-11.923
жны	-11.9231
▁улин	-11.9242
▁ичны	-11.9245
▁уар	-11.9251
▁сур	-11.9259
▁вки	-11.9269
▁ичем	-11.9271
▁ча	-11.9275
СА	-11.9281
▁чко	-11.9282
▁mo	-11.9294
фор	-11.9301
▁ауз	-11.9305
▁яб	-11.9309
▁am	-11.9309
▁боч	-11.9334
per	-11.9354
▁go	-11.9355
▁мме	-11.9357
▁мка	-11.9362
▁ишк	-11.9363
▁роко	-11.9372
▁BBC	-11.9376
▁РФПЛ	-11.9377
in	-11.9385
бек	-11.9391
▁line	-11.9398
▁лева	-11.9399
▁Cap	-11.9402
ГУП	-11.941
▁айл	-11.9417
▁воро	-11.9423
лкан	-11.9425
▁RU	-11.9463
▁зви	-11.9476
і	-11.9483
▁нды	-11.9483
▁ex	-11.9491
▁son	-11.9492
▁ФТС	-11.9499
▁ТЭК	-11.9501
▁сман	-11.9501
▁несе	-11.9504
▁АИ	-11.9526
бар	-11.9528
▁нейш	-11.9531
▁долл	-11.956
▁арит	-11.957
▁неф	-11.9573
▁хв	-11.958
цы	-11.958
▁еды	-11.9584
▁49	-11.9586
▁доч	-11.9587
▁роса	-11.9597
22	-11.9599
▁лж	-11.9599
▁li	-11.9604
▁Uber	-11.9607
Д	-11.9607
▁ines	-11.9609
▁трас	-11.9635
▁39	-11.9649
▁мид	-11.9676
▁МТС	-11.9681
ыл	-11.9683
▁Am	-11.97
▁лой	-11.9709
▁юч	-11.9712
▁70%	-11.9731
▁уто	-11.9749
▁ликов	-11.9751
▁сле	-11.9757
гран	-11.9757
ПС	-11.9759
▁нном	-11.9766
▁1/	-11.9772
▁дю	-11.9793
▁ятел	-11.9798
▁дзо	-11.9799
▁дир	-11.98
▁DA	-11.9816
▁sh	-11.9817
▁фран	-11.984
▁НЕСКО	-11.9843
▁Getty	-11.9843
▁Gold	-11.9844
▁Play	-11.9845
▁тап	-11.9855
▁bes	-11.9863
М	-11.9865
▁se	-11.9873
▁ure	-11.9879
▁уц	-11.988
ью	-11.9904
▁окал	-11.9913
▁Te	-11.9922
▁вский	-11.9928
ался	-11.993
ия	-11.9934
▁XXI	-11.9936
▁шее	-11.9955
▁Deut	-11.9964
▁ress	-11.9964
▁онц	-11.9965
▁ПРО	-11.9968
▁ice	-11.997
▁рде	-11.9971
▁спол	-11.9974
▁140	-11.9982
▁афи	-11.9995
▁прош	-12.0002
▁нако	-12.002
чего	-12.0021
▁быч	-12.0028
▁пря	-12.0031
▁шок	-12.0055
▁зме	-12.0057
▁тая	-12.0058
як	-12.0066
▁асск	-12.0068
▁Fran	-12.0086
▁Press	-12.0086
▁ley	-12.0087
▁НИИ	-12.0109
vo	-12.0114
▁лина	-12.0121
▁упа	-12.0137
▁ебен	-12.0147
СЖ	-12.0164
▁мали	-12.0181
▁сай	-12.0187
▁мак	-12.0188
▁ртер	-12.0193
▁нца	-12.0203
▁ry	-12.0212
▁чек	-12.0216
▁ua	-12.023
ber	-12.023
▁ежа	-12.0235
▁ебо	-12.0244
▁ицк	-12.0248
▁nt	-12.0255
▁айс	-12.0258
▁пери	-12.026
▁Mi	-12.0262
▁тиру	-12.0271
пыт	-12.0275
▁няти	-12.0275
▁72	-12.0281
▁твуе	-12.0286
▁ицио	-12.0288
▁озд	-12.0294
X	-12.0308
▁АЗ	-12.0312
▁Ra	-12.0318
▁аме	-12.0323
▁тым	-12.0329
▁ОАЭ	-12.0334
▁7%	-12.0334
▁берт	-12.0336
▁имы	-12.0336
▁let	-12.0342
▁одил	-12.0346
▁аген	-12.0347
▁7,	-12.0347
▁ищу	-12.035
▁СБ	-12.0352
▁ПО	-12.0368
сел	-12.0369
▁6,	-12.0387
▁упле	-12.0399
▁даю	-12.0403
эн	-12.0408
▁53	-12.0408
▁чения	-12.0409
▁Pol	-12.0412
▁объ	-12.0419
▁ацио	-12.0419
кин	-12.0421
;	-12.0422
▁родо	-12.0427
▁озя	-12.044
▁мерз	-12.0445
▁і	-12.045
▁Por	-12.0459
▁App	-12.0461
▁56	-12.0461
▁ler	-12.0462
▁упи	-12.0501
▁Na	-12.0507
коль	-12.0538
▁осил	-12.0541
▁апы	-12.0543
▁егио	-12.056
пит	-12.0562
▁айер	-12.0577
▁ните	-12.0605
ган	-12.0612
▁ВГТРК	-12.0613
▁ica	-12.0617
▁co	-12.0637
▁IN	-12.0649
▁De	-12.0653
▁ваю	-12.0654
▁2%	-12.0661
▁види	-12.0667
Но	-12.0676
▁ar	-12.0679
▁зир	-12.0684
мон	-12.0701
▁port	-12.0719
▁105	-12.0722
▁60%	-12.0729
▁ажа	-12.0732
▁ПВО	-12.0741
АН	-12.0755
11	-12.0767
▁f	-12.0769
▁ржа	-12.078
▁анны	-12.0782
▁War	-12.0784
▁йству	-12.0802
▁воль	-12.0809
▁вищ	-12.0825
ечен	-12.0844
V	-12.0846
▁МКАД	-12.0852
▁ишер	-12.0854
▁МКС	-12.0862
FC	-12.0866
▁ЦК	-12.0876
▁Red	-12.0876
▁ечта	-12.0879
▁ейма	-12.0883
ива	-12.0888
▁азм	-12.0896
▁ИА	-12.0898
▁110	-12.0907
▁ату	-12.0909
▁астн	-12.091
▁анил	-12.0923
▁икам	-12.0968
▁корр	-12.0978
▁ровки	-12.0992
▁каль	-12.0992
▁74	-12.1001
аш	-12.1006
ro	-12.1009
▁оят	-12.101
▁ерз	-12.1011
▁ько	-12.102
0	-12.1022
dy	-12.1036
ss	-12.1043
▁риво	-12.1045
▁лал	-12.1061
▁инто	-12.1063
▁отч	-12.1067
▁скв	-12.1091
▁ализ	-12.1091
▁фу	-12.1093
▁62	-12.1103
▁осов	-12.1115
▁ицын	-12.1116
▁ВШЭ	-12.1119
▁IAA	-12.1119
▁Игр	-12.1123
0%	-12.1124
▁лавн	-12.1125
▁иту	-12.1151
▁айка	-12.1162
▁ране	-12.1162
6%	-12.1173
▁алю	-12.1182
▁нте	-12.1186
▁чки	-12.1187
▁неш	-12.1189
▁wa	-12.1218
▁РП	-12.1229
▁яю	-12.1234
▁Chev	-12.1256
▁org	-12.1257
▁ЕАЭС	-12.1257
▁КТАМ	-12.1258
▁Mit	-12.1261
▁67	-12.1263
▁РИКС	-12.1266
▁хмед	-12.1269
▁ъед	-12.1273
25	-12.1283
▁les	-12.1294
▁озы	-12.1309
▁луб	-12.1312
▁бри	-12.132
▁рси	-12.135
▁аул	-12.1351
ox	-12.1353
▁иками	-12.1357
сян	-12.1367
▁pe	-12.137
▁6%	-12.1374
▁WTI	-12.1395
▁#	-12.1395
▁Exp	-12.1395
▁утб	-12.1424
▁es	-12.1429
▁77	-12.143
▁МФО	-12.144
▁олин	-12.1442
",	-12.1459
▁ФСК	-12.146
▁одина	-12.1462
▁еска	-12.1473
▁анел	-12.1473
▁bo	-12.1478
▁ужбы	-12.1484
▁52	-12.1485
▁ерик	-12.151
▁шии	-12.1515
жив	-12.1522
ток	-12.1533
▁p	-12.1545
▁етит	-12.1549
▁t	-12.1552
мар	-12.1564
ух	-12.1565
▁shi	-12.1567
▁рче	-12.1576
▁41	-12.159
K	-12.1592
▁утс	-12.1594
▁ошк	-12.1599
лин	-12.1612
МО	-12.1615
▁цио	-12.1617
▁Hol	-12.163
▁Укр	-12.1637
ум	-12.1646
шев	-12.1651
ский	-12.1657
▁RT	-12.1662
▁us	-12.1666
▁Com	-12.1677
▁Kia	-12.1679
▁$50	-12.1682
▁ози	-12.1682
▁дки	-12.1688
▁ьет	-12.1692
▁Ряд	-12.1694
▁Roll	-12.1695
▁Ri	-12.1698
▁ot	-12.171
ение	-12.1716
▁тная	-12.1725
▁Lo	-12.173
▁63	-12.1748
-5	-12.1755
▁йде	-12.1757
▁АС	-12.1769
▁оха	-12.1777
▁шель	-12.179
est	-12.1791
РА	-12.1799
▁ЕК	-12.1801
▁Asso	-12.1823
▁59	-12.1848
▁290	-12.1849
▁тит	-12.1854
eek	-12.1865
▁88	-12.1884
▁вине	-12.19
▁ибу	-12.1905
▁тич	-12.1916
▁онстр	-12.1932
▁Z	-12.1937
▁лма	-12.1944
▁m	-12.195
чур	-12.1964
@	-12.197
▁Dis	-12.1978
▁ЧС	-12.1994
▁ari	-12.1994
▁ly	-12.2
▁рош	-12.2004
▁NAS	-12.2005
чан	-12.2018
▁чил	-12.2022
▁Ba	-12.2025
▁Da	-12.2032
▁рке	-12.2034
AX	-12.204
▁ейх	-12.2081
▁озн	-12.2083
▁етве	-12.2084
▁риан	-12.2084
▁яск	-12.2086
re	-12.2104
▁ванн	-12.2114
▁sa	-12.2115
▁очек	-12.2124
тан	-12.2127
▁онах	-12.2134
▁оге	-12.215
▁ОП	-12.2153
ur	-12.2154
N	-12.2173
▁анды	-12.2186
▁Car	-12.2196
▁амал	-12.2199
дач	-12.2201
▁Po	-12.2205
▁ору	-12.2215
▁66	-12.2224
▁сма	-12.2227
ным	-12.2252
▁Fo	-12.2256
E	-12.2271
▁FIFA	-12.2271
▁ЕЦБ	-12.2272
▁обин	-12.2274
▁di	-12.2279
▁we	-12.2306
▁зра	-12.231
▁поми	-12.2313
▁ожн	-12.2331
▁ором	-12.2334
▁8,	-12.2339
пред	-12.2339
▁орь	-12.2349
▁лга	-12.236
▁me	-12.2377
▁скал	-12.2391
▁нахо	-12.2397
▁ателе	-12.2424
▁Glob	-12.2425
▁ффе	-12.2427
▁КГБ	-12.2428
▁РЕН	-12.243
▁Cre	-12.2432
▁159	-12.2435
▁заве	-12.245
▁170	-12.2452
▁рка	-12.2452
▁аук	-12.2455
ыми	-12.2457
▁урба	-12.2474
▁k	-12.2474
TV	-12.2475
ВО	-12.2475
нев	-12.2479
▁лмы	-12.2482
um	-12.2491
▁щил	-12.2495
ai	-12.2496
▁ТО	-12.25
▁Ta	-12.2546
▁ищи	-12.255
▁Pay	-12.2581
ff	-12.2586
▁щение	-12.2587
▁oo	-12.2602
45	-12.2621
▁толь	-12.263
эй	-12.263
ских	-12.2643
▁теш	-12.2648
▁gy	-12.2648
▁вени	-12.2673
▁ban	-12.2684
▁bil	-12.2686
▁есел	-12.2698
аты	-12.2698
▁пирт	-12.2713
▁олоч	-12.2713
▁густ	-12.2722
▁58	-12.2733
▁Sko	-12.274
▁tors	-12.2743
▁оник	-12.2745
▁ОКР	-12.2751
▁ерин	-12.2766
▁виц	-12.2767
▁450	-12.2767
▁лтай	-12.2771
▁поло	-12.2796
риж	-12.2819
▁шал	-12.2821
ион	-12.2822
чик	-12.283
▁одер	-12.2832
▁ичто	-12.2843
▁чл	-12.2849
BA	-12.2852
▁аман	-12.2853
▁Chr	-12.2856
▁иноп	-12.2863
RF	-12.2873
▁оян	-12.2883
Он	-12.2892
▁Not	-12.2895
▁эй	-12.2901
▁коман	-12.2901
▁ВДНХ	-12.2901
▁ОРВИ	-12.2901
▁ubi	-12.2901
▁РС	-12.291
▁аби	-12.2912
ls	-12.2923
▁сня	-12.2926
R	-12.2935
▁All	-12.2941
▁5,5	-12.2943
ких	-12.2948
▁усс	-12.2952
▁очв	-12.2954
▁вании	-12.2969
▁Ша	-12.2981
-4	-12.2986
ья	-12.299
▁унг	-12.3002
▁Pok	-12.3008
▁истр	-12.3032
▁мыс	-12.3033
▁han	-12.3034
&	-12.3058
▁АИШ	-12.3065
зин	-12.3075
▁ГЭС	-12.3075
▁итаю	-12.3083
▁Ты	-12.3086
ЭК	-12.3089
▁ИК	-12.311
▁рре	-12.3117
▁69	-12.3118
ve	-12.3125
▁ММА	-12.3132
▁$3	-12.3137
▁зинь	-12.3137
-2	-12.3145
19	-12.3146
▁апре	-12.3154
▁амск	-12.3155
НТ	-12.3162
▁ртн	-12.3165
▁ирь	-12.3187
ub	-12.319
▁54	-12.3201
▁гли	-12.3203
▁НК	-12.3224
КУ	-12.3226
гал	-12.3227
▁ОДКБ	-12.3232
▁$40	-12.3233
▁анно	-12.3235
▁зада	-12.3236
▁GT	-12.3242
▁етан	-12.3243
ФК	-12.3248
▁Ze	-12.3278
▁lo	-12.3279
▁Be	-12.3286
▁уго	-12.3306
▁Ac	-12.3317
▁We	-12.3325
90	-12.3335
▁mic	-12.3335
▁ески	-12.334
▁Mor	-12.3361
▁роек	-12.3383
▁68	-12.3401
▁Ltd	-12.3401
▁Sky	-12.3401
▁Вик	-12.3402
▁Lex	-12.3403
▁ЮАР	-12.3407
▁шат	-12.3409
▁g	-12.3414
▁73	-12.3418
▁Ben	-12.3419
▁Chin	-12.343
▁нтам	-12.3445
12	-12.3478
▁Man	-12.3479
▁Sp	-12.3494
▁мье	-12.3498
сим	-12.3501
▁Jo	-12.3505
КП	-12.3506
▁51	-12.3513
▁ерр	-12.3528
бик	-12.3533
J	-12.3555
▁бай	-12.3556
▁тира	-12.356
▁Tran	-12.3574
▁ment	-12.3574
▁Open	-12.3574
▁Net	-12.3574
▁Mark	-12.3578
▁ha	-12.3578
▁la	-12.3581
▁воли	-12.3589
▁омни	-12.3591
▁ффан	-12.3606
▁риум	-12.3607
Ц	-12.3622
▁ериф	-12.3626
▁Y	-12.3635
▁XVII	-12.3635
▁онч	-12.3637
Э	-12.3639
▁8%	-12.3644
▁аски	-12.365
вет	-12.3651
СР	-12.3667
ТИ	-12.3675
▁валк	-12.3702
▁дым	-12.3711
▁МО	-12.3713
▁сало	-12.3713
▁айя	-12.3714
П	-12.3718
▁баш	-12.3736
ЖК	-12.3742
▁RE	-12.3743
▁graph	-12.3749
▁НДФЛ	-12.3749
▁Nord	-12.3749
▁Sony	-12.3749
ТЫ	-12.3751
la	-12.3754
▁ХХ	-12.3757
▁Star	-12.3758
▁СФ	-12.3766
▁льф	-12.377
▁6-	-12.3771
▁КПП	-12.3775
▁иман	-12.3783
ДО	-12.3784
пер	-12.3789
▁2-	-12.3793
▁ерсо	-12.3797
▁анал	-12.38
▁3-	-12.3809
18	-12.3809
▁яте	-12.3816
▁зовы	-12.3819
▁нто	-12.3823
▁икар	-12.3829
▁Gran	-12.3832
▁едро	-12.3836
ГК	-12.3841
▁El	-12.3844
Вт	-12.3848
▁урк	-12.3874
▁нуж	-12.3906
вен	-12.3917
тун	-12.392
зон	-12.3922
▁зри	-12.3924
▁http	-12.3928
▁УСАДА	-12.3928
▁tch	-12.3928
▁бота	-12.3934
СФС	-12.3947
▁92	-12.3953
L	-12.3965
▁лман	-12.3971
ter	-12.3973
▁АН	-12.3975
▁x	-12.3976
▁МАК	-12.3976
▁иша	-12.4015
ахче	-12.4022
зве	-12.4023
Вы	-12.4023
▁энд	-12.4025
▁луг	-12.4025
ra	-12.4029
Z	-12.4031
▁r	-12.4038
le	-12.4047
▁Mas	-12.4048
утер	-12.4049
ВД	-12.4053
▁онья	-12.4056
▁мун	-12.4063
▁76	-12.407
▁енген	-12.4079
▁5-	-12.4082
▁ерес	-12.4085
▁шот	-12.4088
▁лук	-12.4093
▁гно	-12.4095
▁Stan	-12.4108
▁ВФЛА	-12.411
▁МРОТ	-12.411
▁Ar	-12.411
IA	-12.4112
▁ТЭС	-12.4122
▁lla	-12.4131
PS	-12.4136
йзер	-12.4147
ИК	-12.4168
▁оук	-12.4186
БК	-12.4193
▁убли	-12.4198
ill	-12.4199
▁ьва	-12.4206
▁олан	-12.4207
▁рое	-12.4215
БР	-12.4221
▁1-	-12.4244
▁удк	-12.4252
▁ейф	-12.4262
ЭБ	-12.4269
▁рох	-12.4279
▁be	-12.4285
̆	-12.4295
▁ВАДА	-12.4295
▁уация	-12.4295
▁cat	-12.4297
▁ver	-12.43
▁Sa	-12.4319
▁ыры	-12.433
▁Sto	-12.434
▁ВЕ	-12.4374
▁лых	-12.4381
▁унь	-12.4393
▁ейдж	-12.4404
▁фре	-12.4405
▁трад	-12.4407
▁Mat	-12.4407
▁Lim	-12.4434
▁АСС	-12.4436
ПУ	-12.4446
▁огин	-12.4449
▁84	-12.4451
ТК	-12.4452
▁ay	-12.4462
▁КБ	-12.4463
▁айор	-12.4466
tt	-12.4466
▁VI	-12.4468
▁ысо	-12.4484
▁ness	-12.4485
▁Rov	-12.449
▁Pe	-12.4495
▁зб	-12.4505
▁мож	-12.4508
▁иско	-12.4509
▁йзен	-12.451
▁нкер	-12.4522
▁опат	-12.4537
▁НОВ	-12.4538
▁приг	-12.454
on	-12.4546
рал	-12.4551
▁одск	-12.4551
ьян	-12.4554
▁220	-12.4571
▁ехим	-12.4572
▁рны	-12.4589
▁арю	-12.459
▁окси	-12.4616
".	-12.4621
СН	-12.4622
▁мощи	-12.4634
▁наза	-12.4641
▁дви	-12.4649
▁дате	-12.4665
▁рещ	-12.4665
ПИ	-12.4667
ОЗ	-12.4675
▁Comp	-12.4676
▁Ura	-12.4695
АФ	-12.4706
▁wer	-12.4727
▁лифа	-12.4727
▁125	-12.4728
▁Moo	-12.4745
▁ургу	-12.4748
ТРК	-12.4752
▁оуи	-12.4754
▁онни	-12.4755
▁Bus	-12.4759
▁ефан	-12.4772
▁ТОР	-12.4786
ll	-12.4786
▁ляп	-12.4797
ГА	-12.4812
H	-12.4817
▁Cor	-12.4824
ЗС	-12.4841
▁Фо	-12.4854
▁95	-12.4856
▁ирую	-12.4858
▁ипт	-12.4861
▁Ja	-12.4868
▁Char	-12.4873
▁Ferr	-12.4873
▁Mc	-12.4873
▁va	-12.4874
▁ифер	-12.4877
▁ВДВ	-12.4885
▁Spu	-12.4886
▁per	-12.4889
▁хаос	-12.4892
17	-12.4899
▁Wal	-12.4916
▁ерево	-12.4925
▁ават	-12.4935
вид	-12.4948
▁вист	-12.4957
▁веш	-12.4965
▁9%	-12.497
▁родов	-12.4981
▁урис	-12.4987
▁Inv	-12.4991
▁9,	-12.5003
▁жиж	-12.5026
▁pa	-12.5049
▁ужн	-12.5058
цк	-12.5062
▁ini	-12.5069
▁скл	-12.5069
▁82	-12.5072
▁вагон	-12.5072
▁VR	-12.5073
▁ауэр	-12.5074
▁НПЗ	-12.5076
▁умб	-12.5079
▁7-	-12.509
▁Blu	-12.5091
▁льма	-12.5103
21	-12.5109
ейн	-12.5119
▁андер	-12.5119
▁цин	-12.512
рон	-12.5124
▁тари	-12.5124
ЛОН	-12.5129
▁нян	-12.5137
▁егап	-12.5144
▁61	-12.5151
.)	-12.5151
▁Мур	-12.5153
▁Fl	-12.5169
▁антин	-12.5181
СС	-12.5183
▁78	-12.5185
▁ti	-12.5191
ТП	-12.5193
▁рла	-12.5203
▁4-	-12.5227
▁евин	-12.5234
▁анже	-12.5243
13	-12.5245
▁щиц	-12.5247
раш	-12.5247
▁хме	-12.5263
▁уэл	-12.5268
▁Sach	-12.5276
▁Дом	-12.5277
▁ПАРК	-12.5278
чок	-12.5278
▁gem	-12.5283
яд	-12.5293
льз	-12.5296
▁by	-12.5311
▁fi	-12.5314
▁ter	-12.5316
▁аска	-12.5321
va	-12.533
▁арин	-12.5339
▁орти	-12.5356
▁ровой	-12.5359
▁$2	-12.5359
▁круч	-12.5364
ri	-12.5367
▁So	-12.5385
▁хэм	-12.539
ИТ	-12.5395
▁еся	-12.5404
▁Gene	-12.5417
▁ожь	-12.5418
▁ьях	-12.542
▁ьют	-12.5425
▁АМ	-12.543
▁айон	-12.5435
▁ионе	-12.5445
ed	-12.5462
▁РА	-12.5469
70	-12.5471
КК	-12.5472
!	-12.5477
▁игма	-12.5481
▁возд	-12.5482
▁Mazda	-12.5484
▁Plus	-12.5484
▁What	-12.5484
▁Media	-12.5484
▁ШОС	-12.5487
▁ссио	-12.5489
ЭЦ	-12.5489
▁либр	-12.5491
ЭС	-12.5492
▁озр	-12.5499
▁арва	-12.55
▁НПО	-12.55
▁ОМС	-12.5502
▁мим	-12.5509
▁тюш	-12.5513
▁Ame	-12.5519
▁мех	-12.5524
▁МЭР	-12.5525
▁190	-12.5529
▁айдар	-12.5533
14	-12.5542
ФСБ	-12.5545
▁едр	-12.5553
▁14%	-12.5554
▁майд	-12.5556
▁Bell	-12.5561
▁лют	-12.5562
24	-12.5575
▁Pi	-12.5597
BO	-12.5599
▁моч	-12.5601
кал	-12.5615
▁2,6	-12.564
▁Hi	-12.5647
▁ису	-12.5648
▁усло	-12.5649
ct	-12.5651
▁урби	-12.5659
▁ba	-12.5662
▁иэ	-12.5677
уха	-12.5681
es	-12.5687
ВК	-12.5688
▁ТЦ	-12.5693
▁Тра	-12.5697
▁тке	-12.5697
▁eca	-12.5697
▁Sci	-12.5697
▁Vis	-12.5701
▁sti	-12.5702
▁ФМС	-12.5704
▁my	-12.5704
таб	-12.5707
▁МОСТ	-12.5718
▁Do	-12.5735
▁uar	-12.5746
▁стит	-12.5747
▁инь	-12.5753
▁Ya	-12.576
as	-12.5761
▁11%	-12.5766
▁АП	-12.579
▁280	-12.5798
▁уляр	-12.5804
чек	-12.5807
16	-12.5815
▁моб	-12.5828
НБ	-12.5833
de	-12.5835
▁71	-12.5843
un	-12.5855
▁ихуа	-12.5869
ys	-12.5874
цер	-12.5877
▁АПК	-12.5879
пуля	-12.5884
▁Petr	-12.5889
▁ron	-12.5891
▁Fon	-12.5891
▁=	-12.5914
▁ICE	-12.5914
▁Mode	-12.5916
▁скад	-12.5921
▁БТР	-12.5922
▁ow	-12.5926
РБ	-12.5928
▁корм	-12.593
эр	-12.5938
КР	-12.5956
▁етти	-12.5958
▁даль	-12.5981
▁логии	-12.5983
▁йст	-12.5993
▁спр	-12.5994
end	-12.5999
▁узыр	-12.6
▁ka	-12.6002
апит	-12.6003
ря	-12.6025
▁ельф	-12.6027
▁дже	-12.6041
▁Lin	-12.6042
▁унн	-12.6045
▁рета	-12.6045
▁СЕ	-12.6048
ицк	-12.6074
▁уты	-12.6091
▁оскв	-12.6101
▁альс	-12.6118
▁79	-12.6132
▁икат	-12.6137
▁ицце	-12.6139
▁ures	-12.614
▁туп	-12.6161
▁270	-12.6169
35	-12.6175
▁...	-12.6179
ДН	-12.6191
▁люк	-12.6202
▁Si	-12.6205
-6	-12.6209
▁Sou	-12.6219
▁опр	-12.6224
▁Inde	-12.6233
▁SE	-12.6238
▁Kar	-12.6243
▁Це	-12.6244
▁ьки	-12.6257
▁ейза	-12.6259
▁Win	-12.6263
▁унз	-12.6276
▁om	-12.6283
arch	-12.6285
▁230	-12.6294
ньк	-12.6296
▁усь	-12.6298
▁Ko	-12.6305
▁еаль	-12.6309
▁Sup	-12.6309
▁енка	-12.6321
▁жени	-12.6335
Q	-12.6341
▁do	-12.6345
▁клю	-12.6347
▁екан	-12.6348
No	-12.6358
лав	-12.6363
▁хам	-12.6364
▁ЛГБТ	-12.6364
▁pro	-12.6368
▁хин	-12.6376
▁кла	-12.6376
туш	-12.6379
▁хта	-12.6381
▁Art	-12.6386
id	-12.6391
▁240	-12.6394
▁ордо	-12.6408
бер	-12.641
ni	-12.6418
▁ФС	-12.6434
▁fo	-12.6435
▁рение	-12.6438
▁ОПК	-12.6438
▁лех	-12.6461
28	-12.6482
▁акла	-12.6499
▁Мэй	-12.6505
▁хра	-12.6513
▁Mars	-12.6522
▁кве	-12.6524
▁Cit	-12.6526
▁агад	-12.6532
вел	-12.6533
МС	-12.6547
▁par	-12.6548
▁woo	-12.655
▁НС	-12.6553
▁Фра	-12.657
▁омар	-12.6571
▁хни	-12.6574
40	-12.6575
▁НГ	-12.6576
▁ОО	-12.6577
мир	-12.6579
▁ыбо	-12.6579
▁улиа	-12.6582
▁неде	-12.6587
ПГ	-12.6593
`	-12.6596
▁МФЦ	-12.6596
▁Bild	-12.6596
▁Corp	-12.6597
▁Hond	-12.6597
▁Eco	-12.6599
▁der	-12.6601
ФАС	-12.6608
▁ri	-12.6612
▁Shel	-12.6614
▁вани	-12.6615
BIT	-12.662
ОП	-12.6621
▁моле	-12.6626
▁Ama	-12.6629
▁иней	-12.663
▁CO	-12.6635
▁tar	-12.6642
▁81	-12.6645
▁ng	-12.666
Ч	-12.6675
рев	-12.6678
Ш	-12.6678
▁запа	-12.6692
▁ГУП	-12.6692
▁Chan	-12.6693
вай	-12.6695
▁nes	-12.6696
23	-12.6697
кол	-12.6697
▁Inst	-12.6705
co	-12.6716
▁u	-12.6719
▁сни	-12.6731
ПА	-12.6736
▁Ki	-12.6739
▁еско	-12.6746
▁Tr	-12.6751
▁86	-12.6753
▁tic	-12.6755
▁Bla	-12.6759
▁оран	-12.676
▁Ей	-12.6767
▁одд	-12.6771
нья	-12.6776
▁Mos	-12.6777
Ю	-12.6783
▁кучн	-12.6789
▁Lu	-12.6789
▁еул	-12.6799
▁ешн	-12.6802
▁ирз	-12.6809
▁кну	-12.6816
▁мбер	-12.6824
▁тез	-12.6836
▁верс	-12.684
▁озе	-12.6846
▁СРО	-12.685
27	-12.6852
▁амвай	-12.6861
ut	-12.6862
▁ФСО	-12.6867
▁рков	-12.6869
▁арги	-12.6869
▁tte	-12.687
2,	-12.6883
▁юг	-12.6894
▁чье	-12.6894
▁Ag	-12.6897
▁111	-12.6903
▁v	-12.6906
▁At	-12.691
▁ейха	-12.691
▁тами	-12.6911
▁роц	-12.6921
BS	-12.6929
▁иоск	-12.6938
▁сту	-12.6939
▁дай	-12.6942
▁Ph	-12.6945
▁рбен	-12.6953
▁амон	-12.6959
49	-12.6963
фан	-12.6973
rg	-12.6973
▁ьед	-12.6984
▁il	-12.6989
▁енна	-12.6992
▁нью	-12.7004
▁sk	-12.7051
▁Inc	-12.7052
▁Today	-12.7078
▁play	-12.7081
▁МЦК	-12.7082
▁дэ	-12.7085
▁окру	-12.7088
TC	-12.7089
▁ссия	-12.7099
▁анель	-12.7107
▁вуз	-12.7107
яж	-12.7109
▁ейган	-12.7116
▁gov	-12.7117
▁льфи	-12.7123
▁упк	-12.7126
▁оид	-12.7127
тыш	-12.7136
▁мист	-12.7141
▁Cam	-12.7141
▁Bro	-12.7151
хман	-12.7178
▁AR	-12.7188
eug	-12.7196
Y	-12.72
▁Vo	-12.7201
▁елоч	-12.7203
▁83	-12.7215
U	-12.7225
▁сех	-12.7232
ули	-12.7238
АС	-12.7243
lect	-12.7244
▁муш	-12.7264
ka	-12.7267
▁ксе	-12.7275
▁lin	-12.7281
do	-12.7284
гу	-12.7288
ГС	-12.7289
▁n	-12.729
УМ	-12.7298
▁Sol	-12.7298
▁Pal	-12.7299
▁евет	-12.7303
▁орча	-12.7325
▁IKEA	-12.7328
▁КВН	-12.7328
▁BP	-12.7329
▁БМП	-12.7341
▁иксу	-12.7343
▁лема	-12.7349
▁лты	-12.7349
▁360	-12.7351
▁авит	-12.7358
▁миг	-12.7361
фат	-12.7363
▁юль	-12.7364
▁PR	-12.7367
▁уха	-12.7385
▁поэ	-12.7397
▁ванш	-12.7405
▁Кро	-12.7413
фар	-12.7413
сок	-12.7435
▁Pan	-12.7444
▁евы	-12.7455
ke	-12.7465
▁Ca	-12.7469
▁pri	-12.747
▁РПК	-12.7471
li	-12.749
▁вай	-12.7502
▁ГД	-12.7505
▁ороп	-12.751
▁айлд	-12.7512
ent	-12.753
▁94	-12.7535
▁йва	-12.7536
уль	-12.7544
▁иши	-12.7549
РУ	-12.7558
езд	-12.7568
▁Dev	-12.7571
zz	-12.758
▁Time	-12.7583
▁Cent	-12.7585
▁Ni	-12.7587
▁ho	-12.7592
▁ics	-12.7594
▁lop	-12.7597
▁nte	-12.7597
▁Comm	-12.7608
рджи	-12.7617
te	-12.762
▁ore	-12.762
▁унгл	-12.7627
НЛ	-12.763
кул	-12.7633
▁mi	-12.7642
▁16%	-12.7652
сяч	-12.7654
▁Ын	-12.7665
ты	-12.7667
▁Ma	-12.767
▁bi	-12.7672
▁ивае	-12.7681
▁tel	-12.7684
▁згл	-12.7685
▁ежц	-12.7698
▁Med	-12.7707
▁lu	-12.7711
▁Lan	-12.7721
▁итва	-12.7731
1,	-12.7733
▁10,	-12.7741
ДС	-12.7741
▁oi	-12.7748
▁$4	-12.7754
▁нгар	-12.7765
▁убк	-12.7767
▁Musi	-12.7772
▁Sea	-12.7776
▁утч	-12.7787
▁ie	-12.7793
▁хит	-12.7793
▁San	-12.7805
77	-12.7816
▁ишен	-12.7816
кур	-12.7817
▁орос	-12.7821
▁ехт	-12.7829
▁кти	-12.7832
ИН	-12.7835
ФЗ	-12.7841
▁Live	-12.7848
▁po	-12.7848
▁stm	-12.785
▁ыжи	-12.7858
ing	-12.7859
▁ндер	-12.7865
ПЛ	-12.7867
▁238	-12.787
▁sse	-12.788
▁ste	-12.7906
очек	-12.7907
▁оун	-12.7915
эм	-12.7925
▁um	-12.7928
▁Sola	-12.7937
ыш	-12.7946
OS	-12.7947
▁нда	-12.7949
sh	-12.795
▁еван	-12.7954
кус	-12.7958
▁22%	-12.796
▁офер	-12.7971
▁анат	-12.7979
▁анха	-12.7998
рян	-12.8004
▁идд	-12.8024
▁ыст	-12.8032
▁as	-12.8038
▁чили	-12.8044
▁атх	-12.8045
тнев	-12.8046
лок	-12.8046
▁FI	-12.8058
нгел	-12.8073
▁91	-12.8076
▁ампер	-12.808
ep	-12.8087
▁летк	-12.8089
ква	-12.8099
51	-12.8117
▁RNS	-12.8118
▁iOS	-12.8119
▁хмад	-12.8119
▁стям	-12.812
▁ain	-12.812
▁УВЗ	-12.812
▁Stat	-12.8128
▁эш	-12.8132
▁2"	-12.8135
▁ber	-12.8137
▁ОВД	-12.8143
▁арфо	-12.8146
▁плы	-12.815
▁pol	-12.8161
▁имон	-12.8165
уф	-12.8172
▁225	-12.8179
▁Har	-12.8187
▁убе	-12.8193
▁17%	-12.8208
▁Res	-12.8209
ОУ	-12.8212
▁Mir	-12.8221
▁ллин	-12.8225
▁99	-12.8226
▁бова	-12.8243
IM	-12.8247
▁93	-12.8253
аха	-12.8257
▁ивье	-12.8263
▁Ro	-12.8275
3,	-12.8278
▁ушн	-12.8282
▁ишке	-12.8289
РП	-12.8306
▁Or	-12.8309
КО	-12.8319
▁lic	-12.8321
▁lan	-12.833
инф	-12.8335
▁крут	-12.8339
▁нья	-12.8341
▁ошка	-12.8352
▁ванс	-12.8367
▁МЭ	-12.8369
▁Ran	-12.8382
▁2:1	-12.8396
▁IBU	-12.8396
▁ейлор	-12.8398
▁ГБ	-12.8399
▁her	-12.84
СИ	-12.8401
▁ерку	-12.8406
▁ier	-12.8411
▁8-	-12.8419
TE	-12.842
▁уэн	-12.8422
▁эйл	-12.8422
▁МОН	-12.8426
ad	-12.8427
▁РК	-12.8427
▁ВТО	-12.8433
▁СЭ	-12.8437
▁гов	-12.844
▁IC	-12.844
▁ирен	-12.8452
▁бою	-12.8454
▁арес	-12.8454
ba	-12.8465
▁дах	-12.8488
▁Clas	-12.8489
SA	-12.8489
▁амва	-12.8496
▁лиф	-12.8506
▁GO	-12.851
▁ирю	-12.8515
▁con	-12.8516
▁ral	-12.8524
▁апин	-12.8532
▁зино	-12.8534
▁иэл	-12.8535
▁егет	-12.8541
гур	-12.8559
▁аджи	-12.8576
▁3.	-12.8577
▁ирож	-12.8579
▁иды	-12.8584
▁орп	-12.8587
alc	-12.8593
▁ебно	-12.8607
▁id	-12.8614
▁дию	-12.8626
▁еча	-12.8644
ищу	-12.8658
▁Sun	-12.8658
АНО	-12.8665
▁(1	-12.8673
РСК	-12.8677
▁Watch	-12.8682
▁Royce	-12.8682
▁WTA	-12.8682
▁roen	-12.8682
▁НАСА	-12.8682
▁uri	-12.8684
▁Bl	-12.8687
▁мут	-12.8688
▁НДП	-12.869
▁340	-12.8694
▁ерца	-12.8695
2.	-12.8697
▁175	-12.8702
АНХ	-12.8708
▁HD	-12.8716
▁borg	-12.8722
▁ишеч	-12.8729
▁сово	-12.8733
АТ	-12.8739
29	-12.874
MH	-12.8742
MG	-12.8743
▁ссо	-12.8749
▁МУП	-12.8755
▁оуми	-12.8761
▁виней	-12.8764
▁Her	-12.8785
СМ	-12.8786
уст	-12.8805
Й	-12.8814
▁алли	-12.8814
КС	-12.8817
ect	-12.8837
▁Дэ	-12.8837
▁аус	-12.8845
▁рга	-12.8853
▁ожни	-12.8854
▁льта	-12.8857
▁Cha	-12.8863
nt	-12.8866
▁Мун	-12.8878
ОСТ	-12.888
ЕР	-12.8886
▁XVI	-12.8909
знач	-12.8911
▁Ci	-12.8917
▁Per	-12.8917
▁ee	-12.8919
▁рито	-12.892
▁Del	-12.8922
▁Stor	-12.8923
▁урил	-12.8928
пенд	-12.8938
▁Mac	-12.8938
▁линг	-12.8949
ЖД	-12.8952
▁Ког	-12.8955
MI	-12.8961
▁муз	-12.8962
▁$5	-12.8963
▁тавл	-12.8964
▁ЛРОСА	-12.8976
гут	-12.8976
▁NY	-12.8976
▁eb	-12.8978
▁ЛЭП	-12.898
▁lli	-12.898
▁НБА	-12.8981
▁амя	-12.8985
▁арха	-12.8989
жев	-12.8999
▁Well	-12.9003
▁ирги	-12.901
▁эйн	-12.9013
▁азет	-12.9014
▁УФС	-12.9037
▁ina	-12.9039
▁ol	-12.904
▁уска	-12.9051
ity	-12.9052
▁SA	-12.9054
▁Ti	-12.9057
▁уани	-12.9058
▁Bu	-12.906
▁Ind	-12.9061
▁lie	-12.9065
▁анган	-12.9066
▁бах	-12.9071
фал	-12.9072
▁Bar	-12.9083
▁ааг	-12.9103
IB	-12.9104
▁ицц	-12.9111
▁MS	-12.9117
▁Adv	-12.9129
▁Fu	-12.9129
ТУ	-12.9135
▁Bal	-12.9137
▁eg	-12.9138
26	-12.9146
▁РО	-12.9147
▁рту	-12.916
▁ченк	-12.9167
ОК	-12.9177
▁меха	-12.9185
▁бик	-12.9192
81	-12.9194
▁tie	-12.9197
▁DS	-12.9202
▁тах	-12.9231
▁дана	-12.9233
▁аркер	-12.9236
▁рян	-12.9243
▁Insi	-12.9253
▁идже	-12.9256
СТ	-12.9257
+	-12.9272
ейк	-12.9273
ДК	-12.9274
▁воя	-12.9276
▁(!)	-12.9279
▁1:1	-12.9279
▁2:0	-12.9279
▁IPO	-12.9279
▁Drive	-12.9279
▁Roy	-12.928
▁Aw	-12.928
▁воем	-12.928
▁орку	-12.9281
▁Rio	-12.9281
▁ult	-12.9283
▁ДП	-12.9284
om	-12.9294
СБУ	-12.9298
▁ибер	-12.9299
▁ЖК	-12.9312
▁RA	-12.9319
▁мерл	-12.9323
ICI	-12.9373
41	-12.9374
▁ey	-12.9375
▁етхо	-12.9375
ПО	-12.9382
▁y	-12.9382
юш	-12.9394
дай	-12.9396
▁Pat	-12.9399
ki	-12.9416
▁ОС	-12.942
▁анде	-12.9433
▁оган	-12.9449
▁сова	-12.9451
34	-12.9462
ВС	-12.9466
ИКС	-12.9492
▁рви	-12.9505
▁онь	-12.9506
▁уран	-12.9512
кья	-12.9527
▁рошл	-12.9539
▁ухи	-12.9541
▁арет	-12.9546
▁ебл	-12.9563
▁ei	-12.9567
ВТО	-12.9585
▁SMS	-12.9592
▁Dub	-12.9592
▁Citi	-12.9593
▁City	-12.9593
▁tt	-12.96
▁РД	-12.9608
:6	-12.961
нхай	-12.961
Ты	-12.9624
▁фти	-12.9625
клин	-12.9628
Ка	-12.9633
▁135	-12.9644
▁eo	-12.9652
▁Sec	-12.9652
▁Book	-12.9655
▁боты	-12.9658
▁шелон	-12.9666
рут	-12.9666
▁инат	-12.9668
▁Ev	-12.9668
NS	-12.9682
▁are	-12.9684
оща	-12.9685
От	-12.9686
МТ	-12.9688
жут	-12.9689
▁ОКБ	-12.9695
▁инья	-12.9701
39	-12.9707
▁етто	-12.9709
▁КР	-12.9713
68	-12.972
5,	-12.9736
▁аца	-12.9749
▁нур	-12.9755
▁Em	-12.9757
▁юга	-12.9763
▁Gra	-12.9765
▁укол	-12.9777
▁tan	-12.9798
▁клин	-12.9799
РЦ	-12.9808
▁мари	-12.9814
▁Rad	-12.9818
АД	-12.9826
▁ибл	-12.9843
утин	-12.9844
шан	-12.987
▁ульс	-12.9874
▁улкан	-12.9888
▁ГБУ	-12.989
▁айда	-12.9898
▁ейг	-12.9906
Pad	-12.9907
тек	-12.9909
ТБ	-12.9914
▁Focus	-12.9914
▁ылды	-12.9914
▁Beat	-12.9914
▁Cru	-12.9914
▁back	-12.9915
▁йфо	-12.9916
▁ишне	-12.9925
▁--	-12.9925
▁РТ	-12.9927
▁Turk	-12.993
▁Sy	-12.9931
PA	-12.9932
▁Col	-12.9933
▁Ива	-12.9933
▁Tour	-12.9936
СО	-12.9939
▁уэль	-12.9944
▁iy	-12.9946
▁епи	-12.9954
▁45%	-12.9957
▁варц	-12.996
ЗИ	-12.9964
FA	-12.9982
▁сыр	-12.9983
W	-12.9988
▁СС	-12.9989
33	-12.9989
▁ельфе	-12.999
▁ордан	-12.9994
▁ческу	-12.9995
▁Cas	-13.0001
▁чиш	-13.0006
▁фари	-13.0016
МЗ	-13.0018
Ж	-13.0019
▁ирог	-13.0019
▁ut	-13.0031
▁210	-13.0032
▁отора	-13.0044
ОС	-13.0045
▁цо	-13.0046
До	-13.0046
жок	-13.0055
▁акти	-13.0056
▁азме	-13.0058
99	-13.0084
▁ОЭС	-13.0086
me	-13.0111
▁Av	-13.0116
▁ахта	-13.0125
▁нке	-13.0126
▁em	-13.0139
чиг	-13.0148
iz	-13.0153
▁зма	-13.0153
▁SU	-13.0155
ium	-13.0173
▁офон	-13.0189
нфе	-13.0191
▁осин	-13.0193
▁GM	-13.0203
▁Pri	-13.0207
▁VII	-13.0209
ФИ	-13.0227
ith	-13.0237
▁НАБ	-13.0241
▁vi	-13.0242
▁CN	-13.0242
▁AG	-13.0244
▁Club	-13.0247
▁Hua	-13.0247
▁ЯНАО	-13.0247
▁Aust	-13.0248
▁ьхуа	-13.0248
▁итяз	-13.025
▁угун	-13.0252
▁ФНБ	-13.0257
▁LG	-13.0263
▁ердж	-13.0269
▁юэ	-13.0269
▁It	-13.0277
▁Foo	-13.0278
гул	-13.0288
баш	-13.0297
▁упп	-13.0306
▁Leg	-13.0309
льф	-13.031
ште	-13.0311
▁ert	-13.0311
▁Ope	-13.0312
▁хром	-13.0313
▁рами	-13.0315
▁Bra	-13.0316
▁4,3	-13.0322
▁олма	-13.0322
ПР	-13.0342
▁азур	-13.0343
ИА	-13.0346
▁si	-13.0346
▁uni	-13.0352
ank	-13.0371
ieg	-13.0375
▁Ara	-13.0392
63	-13.0401
▁13%	-13.0401
СВ	-13.0404
▁ПК	-13.0407
▁чиц	-13.0411
▁ph	-13.0414
▁иньо	-13.0415
иум	-13.0415
▁шар	-13.0418
▁игул	-13.0449
▁Di	-13.0454
▁вало	-13.0461
▁фар	-13.0465
43	-13.0467
амин	-13.0471
фон	-13.0478
Да	-13.0481
яч	-13.0492
▁Fe	-13.0494
▁ацк	-13.051
▁азд	-13.0518
▁онса	-13.0525
шок	-13.0526
ЕГА	-13.0529
UT	-13.0529
▁ргу	-13.053
▁1"	-13.0548
▁ga	-13.055
▁nov	-13.0562
▁озет	-13.0581
•	-13.0592
▁ГРЭС	-13.0592
▁Cross	-13.0592
▁Vesta	-13.0593
▁cle	-13.0593
▁ple	-13.0593
▁рвы	-13.0596
ohn	-13.0605
▁люм	-13.0609
▁акир	-13.0611
▁шкент	-13.0618
cy	-13.0622
▁ms	-13.0623
▁155	-13.0632
▁24"	-13.0634
▁Bear	-13.0635
▁As	-13.0637
райв	-13.0637
▁je	-13.0638
▁Qua	-13.0641
▁320	-13.0647
▁ad	-13.0649
▁ТПП	-13.065
▁tag	-13.0657
▁ak	-13.0659
олок	-13.0663
▁УПК	-13.0664
▁Dre	-13.0667
▁нтро	-13.0674
▁акто	-13.0675
▁роче	-13.0693
ггер	-13.0693
▁222	-13.0694
▁Free	-13.0694
▁ОЭ	-13.0695
ачк	-13.0703
▁айф	-13.0706
▁МВ	-13.072
95	-13.0734
▁ейми	-13.0735
▁лже	-13.0746
▁аща	-13.0756
▁тея	-13.0758
▁МГИ	-13.076
УК	-13.0763
▁елья	-13.0769
фир	-13.0775
дье	-13.0776
чив	-13.0782
▁97	-13.0786
▁МАО	-13.0788
▁Bur	-13.0807
ust	-13.0808
▁куше	-13.0809
▁Ha	-13.0812
▁одж	-13.0824
▁4.	-13.0829
▁оше	-13.0837
топ	-13.0852
чту	-13.0859
▁гути	-13.086
▁фак	-13.0904
▁Nik	-13.0907
▁алис	-13.0911
▁иджи	-13.0921
▁урен	-13.093
▁nol	-13.094
op	-13.0941
q	-13.0941
ржу	-13.0943
▁Tou	-13.0948
▁Bri	-13.0949
▁1:0	-13.0949
▁СПИД	-13.0949
▁>>	-13.0949
▁Bull	-13.0949
▁VW	-13.0949
▁WBC	-13.0951
▁ways	-13.0951
▁Card	-13.0953
▁Are	-13.0956
▁108	-13.0963
▁109	-13.0966
▁игес	-13.097
шь	-13.0973
ушк	-13.0984
▁Ad	-13.0993
▁реля	-13.101
▁Ka	-13.1017
▁скоп	-13.1018
PI	-13.1018
▁St	-13.1022
47	-13.1023
▁алач	-13.1024
▁26%	-13.1028
ech	-13.1029
▁еман	-13.1033
▁тку	-13.1039
Из	-13.1046
▁Prim	-13.1048
▁лями	-13.1054
ЦП	-13.1054
риф	-13.106
▁онье	-13.107
ЛК	-13.108
▁оттер	-13.109
МП	-13.1104
▁Is	-13.1106
▁ирс	-13.112
▁BB	-13.1122
▁илья	-13.1123
62	-13.1129
▁bu	-13.1132
ak	-13.1133
▁da	-13.1134
▁паш	-13.1146
▁tes	-13.1155
ксич	-13.1163
▁Th	-13.1164
▁езе	-13.1169
онд	-13.1175
▁аллин	-13.1178
ушек	-13.1183
▁вичу	-13.1186
▁du	-13.1198
55	-13.12
▁елто	-13.1205
▁стно	-13.1218
▁клеи	-13.1228
щик	-13.1243
ИЦ	-13.1249
▁шни	-13.1253
эк	-13.1254
▁sta	-13.1264
ГТРК	-13.1299
▁опал	-13.13
куум	-13.1317
▁СНБО	-13.132
▁Trav	-13.132
▁Noki	-13.1321
▁ue	-13.1322
▁ринью	-13.1324
▁олом	-13.1332
89	-13.1333
▁НКР	-13.1335
▁анье	-13.1343
▁tra	-13.1346
ga	-13.1347
▁аулу	-13.1363
бур	-13.1367
▁nu	-13.1371
▁95%	-13.1371
▁30,	-13.1372
▁ГА	-13.1373
▁номы	-13.1381
▁авиш	-13.1391
хар	-13.1398
▁ДК	-13.1401
▁иджа	-13.1411
▁21%	-13.1422
▁апит	-13.1432
▁Pla	-13.1433
▁лят	-13.1446
▁СР	-13.1447
69	-13.1447
▁ечт	-13.1452
ИО	-13.1461
▁укл	-13.147
▁льну	-13.1473
▁осы	-13.1486
▁триб	-13.1491
▁зг	-13.1495
▁DC	-13.1497
▁nor	-13.1524
айд	-13.1532
▁ct	-13.1536
▁Coun	-13.1544
жан	-13.1563
▁un	-13.1565
▁елит	-13.1565
▁СО	-13.1568
tock	-13.1576
▁sen	-13.1581
ion	-13.1584
▁87	-13.1592
▁кита	-13.1621
гар	-13.1624
▁96	-13.1629
▁каф	-13.1631
UE	-13.1642
гие	-13.1644
▁Буш	-13.1648
▁ирка	-13.1655
▁рени	-13.1662
▁скони	-13.1663
▁l	-13.167
▁hi	-13.1674
ДМ	-13.1678
▁fa	-13.168
▁ФОМ	-13.1694
▁Me	-13.1704
▁МУС	-13.1704
▁мпшир	-13.1704
▁scow	-13.1704
WF	-13.1705
▁uki	-13.1705
▁Rob	-13.1705
▁ипрас	-13.1705
▁СКФО	-13.1706
▁бла	-13.1707
▁Sub	-13.1707
▁ЭС	-13.1708
▁106	-13.1711
▁ФЦП	-13.1711
▁ОСК	-13.1713
МУ	-13.1714
▁опре	-13.1714
▁афос	-13.1717
▁БКС	-13.1723
▁СВР	-13.1724
▁Fli	-13.1726
▁мпл	-13.1727
▁МП	-13.173
аги	-13.1731
▁нинг	-13.1733
бал	-13.1733
▁АГС	-13.1735
▁136	-13.174
▁ленд	-13.1744
▁107	-13.1746
▁Йо	-13.1764
▁ИП	-13.177
▁аузе	-13.1795
ЛО	-13.1807
▁рече	-13.1808
▁Jee	-13.1808
▁260	-13.1809
▁Gar	-13.1811
▁work	-13.1817
ХК	-13.1824
▁gie	-13.1831
ux	-13.1834
▁асму	-13.1837
джи	-13.1846
▁PS	-13.1853
▁Herm	-13.1867
ab	-13.1868
▁рагу	-13.1869
IV	-13.1871
зы	-13.1878
▁атэ	-13.1909
▁олок	-13.1922
ace	-13.1925
▁остя	-13.193
▁кали	-13.193
▁ul	-13.1935
рас	-13.194
▁Ga	-13.1941
улин	-13.1957
48	-13.1959
▁нским	-13.196
▁бру	-13.1961
▁мида	-13.1968
▁nti	-13.1976
6,	-13.1995
▁атла	-13.1998
▁ima	-13.2
▁фери	-13.2007
▁мара	-13.2011
оф	-13.2016
44	-13.2017
▁удни	-13.2018
ФУ	-13.2019
▁льби	-13.2025
▁Tor	-13.2026
ОР	-13.2027
▁Mot	-13.2029
▁vo	-13.203
▁орш	-13.2031
▁ric	-13.2033
▁окот	-13.2037
CC	-13.2052
▁зел	-13.2054
▁отка	-13.2058
РТ	-13.2062
▁ИС	-13.2079
ТА	-13.2088
ul	-13.2089
фин	-13.2092
▁Ver	-13.2102
roup	-13.2104
▁Glen	-13.2104
▁КПСС	-13.2104
▁НКВД	-13.2104
▁НИЛС	-13.2104
▁Lock	-13.2105
▁way	-13.2105
ef	-13.2106
▁mer	-13.2108
▁out	-13.2109
▁Mag	-13.2109
▁air	-13.2111
▁хмуд	-13.2122
▁bra	-13.2123
▁Jet	-13.2125
нчж	-13.2125
▁286	-13.2127
▁Can	-13.2136
▁158	-13.2137
▁Ju	-13.2138
▁146	-13.2142
kh	-13.2147
▁Die	-13.2152
▁ьяк	-13.2158
НЭ	-13.2158
▁ade	-13.2167
bi	-13.2169
▁гуз	-13.2175
LC	-13.2183
▁€1	-13.2185
эл	-13.2191
БУ	-13.2192
▁ниф	-13.2195
az	-13.2197
▁od	-13.2205
▁Mal	-13.2206
lo	-13.2214
▁жжен	-13.2222
▁грев	-13.2223
▁таш	-13.2224
▁ушек	-13.2226
▁енге	-13.2237
7.	-13.2239
▁МХ	-13.2248
▁УФ	-13.2261
ВА	-13.2264
▁АК	-13.2264
▁фур	-13.2266
▁Sha	-13.2267
98	-13.2267
▁блик	-13.2268
ТР	-13.2268
▁акер	-13.2275
87	-13.228
▁рбу	-13.2309
▁веко	-13.2309
▁RS	-13.2309
▁арф	-13.2325
рбер	-13.2342
мор	-13.2355
МА	-13.2355
mo	-13.237
▁Tom	-13.2372
ool	-13.2387
36	-13.239
▁днев	-13.2391
рош	-13.2398
▁Ste	-13.2398
▁орче	-13.24
▁aru	-13.2404
▁слой	-13.241
ндж	-13.2421
ail	-13.2428
46	-13.2429
▁Val	-13.2436
▁tek	-13.2438
▁ахма	-13.2446
ерг	-13.2448
▁98	-13.2448
▁МГ	-13.2458
38	-13.246
унд	-13.2461
няк	-13.2489
агу	-13.2492
▁оум	-13.2493
ay	-13.2494
AD	-13.2494
▁(5	-13.2499
▁ura	-13.2506
▁СМ	-13.252
ü	-13.2521
▁Skype	-13.2521
▁Gear	-13.2521
▁Pub	-13.2522
▁хэтт	-13.2523
▁МАДИ	-13.2525
▁ЕГР	-13.2527
▁ЭК	-13.2531
▁ПНИ	-13.2537
▁цех	-13.254
▁ьон	-13.2541
▁156	-13.2543
чуг	-13.2545
▁Gi	-13.2547
▁log	-13.2549
▁285	-13.2552
▁165	-13.2554
▁Hous	-13.2556
▁189	-13.257
▁рохо	-13.2573
▁андаш	-13.2573
▁убов	-13.2577
▁уды	-13.258
▁mat	-13.2581
▁224	-13.2593
▁онф	-13.2599
▁дыш	-13.2601
▁ССР	-13.2602
ТО	-13.2604
▁триц	-13.2608
▁ПЗ	-13.261
▁nd	-13.2618
эш	-13.2619
▁Oc	-13.2632
▁адон	-13.2636
▁пиро	-13.2638
▁рожа	-13.2641
▁лант	-13.2647
▁ИТ	-13.2649
▁Shar	-13.2649
КИ	-13.2652
▁КТО	-13.2653
uz	-13.2656
▁Cher	-13.2658
▁лбан	-13.2659
▁ile	-13.267
▁лаж	-13.2678
▁Hun	-13.2683
▁Ana	-13.2692
▁2)	-13.2711
IP	-13.2714
64	-13.2718
▁имра	-13.2719
▁Pas	-13.2721
▁рбер	-13.2721
.2	-13.2728
▁анж	-13.2742
▁ешил	-13.2744
▁ынь	-13.2748
▁ерла	-13.2756
32	-13.2759
▁ренг	-13.2759
▁ОТ	-13.2772
▁еньг	-13.2785
▁10.	-13.2789
▁гейт	-13.2791
▁im	-13.2794
▁НЛ	-13.2799
▁рьян	-13.2804
жжен	-13.2812
▁орж	-13.2818
▁агма	-13.2824
▁ифф	-13.2827
▁екма	-13.283
▁ижа	-13.284
▁канер	-13.2843
ink	-13.2845
▁cal	-13.2854
▁вчин	-13.2868
ьев	-13.2874
▁ишу	-13.2887
▁убя	-13.289
▁лям	-13.2891
▁ora	-13.2894
▁XV	-13.29
▁айет	-13.2927
СД	-13.2938
pp	-13.2939
▁евит	-13.2939
▁min	-13.2941
Ы	-13.2945
▁егли	-13.295
НЕС	-13.2955
▁Heb	-13.2956
▁Essa	-13.2956
▁ERS	-13.2956
▁Out	-13.2956
▁Smart	-13.2956
▁Tig	-13.2956
▁Que	-13.2956
▁JP	-13.2956
▁ыргы	-13.2957
▁age	-13.2959
▁ah	-13.2959
рехо	-13.2963
▁ашлы	-13.2968
▁Game	-13.297
айк	-13.2975
▁Barc	-13.2977
▁282	-13.2981
SJ	-13.2984
ЕБ	-13.2991
▁IP	-13.2992
▁so	-13.2993
▁есса	-13.2993
▁ФМ	-13.2993
▁rus	-13.2996
▁can	-13.2996
рис	-13.2998
▁оух	-13.2998
▁дероб	-13.3003
▁Rock	-13.3003
▁gi	-13.3012
IC	-13.302
▁380	-13.3027
▁116	-13.3033
57	-13.3041
Ну	-13.3045
▁зид	-13.3045
▁сенин	-13.3052
▁чег	-13.306
▁112	-13.3069
▁усев	-13.3073
▁сюк	-13.3078
▁Аль	-13.3078
▁МФ	-13.3086
▁арни	-13.3114
▁Indi	-13.3123
▁дова	-13.3126
▁89	-13.3143
▁Росс	-13.3154
▁дува	-13.3157
▁айг	-13.3161
▁опот	-13.3166
▁ймон	-13.317
▁aut	-13.3171
▁яшк	-13.3176
▁Bio	-13.3177
ОН	-13.3177
▁винь	-13.318
▁тни	-13.3203
▁аряг	-13.3218
▁арге	-13.3219
Lar	-13.3224
85	-13.3242
▁опус	-13.3245
▁укер	-13.3246
▁дера	-13.3255
▁гарт	-13.3263
▁оору	-13.3271
EX	-13.3275
▁Ы	-13.3276
▁чуг	-13.3277
▁олча	-13.329
▁Za	-13.3301
▁car	-13.3302
ТОВ	-13.3307
▁имфо	-13.3318
ВП	-13.3327
бот	-13.3333
даш	-13.3338
▁ВГ	-13.3349
▁ахим	-13.336
▁таю	-13.3363
▁ja	-13.3363
74	-13.3364
▁loo	-13.3369
слу	-13.3369
▁КОС	-13.3371
▁жки	-13.3386
▁деля	-13.339
▁nc	-13.3407
▁Info	-13.341
▁Xia	-13.341
▁Stud	-13.341
▁IBF	-13.341
▁Mini	-13.3411
▁eut	-13.3411
AP	-13.3411
▁act	-13.3412
▁Brit	-13.3413
▁uro	-13.3415
▁ммер	-13.3417
▁ices	-13.3417
▁дорф	-13.3427
IF	-13.3434
79	-13.3437
▁ФХ	-13.3437
▁ТИК	-13.3444
▁36%	-13.3445
ha	-13.3447
▁172	-13.3452
▁Hill	-13.3454
▁154	-13.3458
▁Sat	-13.3463
▁132	-13.3464
▁133	-13.3465
▁tut	-13.3479
БА	-13.3486
▁MI	-13.3495
▁CR	-13.3502
▁рья	-13.3502
▁Kap	-13.3505
▁КП	-13.3509
▁ki	-13.3522
▁pi	-13.3532
▁ыти	-13.3533
ИИ	-13.3536
▁NA	-13.3567
▁воля	-13.3571
бел	-13.3576
зел	-13.358
▁оюд	-13.3581
▁звы	-13.3581
▁fe	-13.3594
▁az	-13.3607
▁юст	-13.3611
LS	-13.3612
▁ьем	-13.362
▁имуз	-13.363
▁Mus	-13.3631
▁3)	-13.3642
▁МБ	-13.3643
Ак	-13.365
ES	-13.3658
▁офо	-13.3659
▁Dan	-13.3667
▁hou	-13.3669
▁ниче	-13.3671
▁lle	-13.3685
▁рф	-13.3688
НП	-13.3692
пор	-13.3702
▁Coc	-13.3718
▁Don	-13.3733
▁ГП	-13.3735
▁1)	-13.3761
▁оуз	-13.3771
▁ПА	-13.3772
▁ллиа	-13.3772
or	-13.3775
▁еху	-13.378
▁$6	-13.3794
j	-13.3814
КЦ	-13.3816
▁mp	-13.3836
NA	-13.3839
▁уэй	-13.3844
▁есян	-13.3845
▁ощу	-13.3852
▁ХК	-13.3853
▁этри	-13.3854
▁ag	-13.3859
▁Tw	-13.3865
▁хму	-13.3866
БКИ	-13.388
▁Sch	-13.3881
▁NUM	-13.3886
▁Head	-13.3886
▁lays	-13.3887
▁Trip	-13.3887
▁Hur	-13.3887
▁Asto	-13.3887
▁Next	-13.3888
▁Уфе	-13.3889
▁носец	-13.389
▁ММВ	-13.3896
▁101	-13.39
ir	-13.3902
быш	-13.3902
▁ПМР	-13.3903
3.	-13.3903
▁ЮФО	-13.3904
▁Fan	-13.3904
▁шюр	-13.3905
▁пряг	-13.3905
чиц	-13.3907
▁Coll	-13.3908
▁морок	-13.391
▁тву	-13.391
ятся	-13.3911
исц	-13.3912
▁охи	-13.3912
▁Typ	-13.3917
▁МРТ	-13.392
▁атта	-13.3923
▁бюро	-13.3926
▁pu	-13.393
▁СДП	-13.3931
▁бум	-13.3944
III	-13.3945
▁199	-13.3946
▁126	-13.3949
▁якс	-13.3949
ГАЗ	-13.395
бет	-13.3951
▁ОК	-13.3951
▁угин	-13.3954
▁42%	-13.3957
▁МКУ	-13.3961
▁213	-13.3961
▁ale	-13.3963
▁льва	-13.3963
▁тэм	-13.3975
▁ev	-13.3984
▁ek	-13.3992
.:	-13.4
▁аско	-13.4003
▁ельг	-13.4003
ci	-13.4007
▁нчи	-13.4008
йлер	-13.4009
трус	-13.4019
▁уэт	-13.4024
▁тощ	-13.4035
зырь	-13.4035
▁Cra	-13.4039
▁5,8	-13.404
▁Гэ	-13.4041
▁асту	-13.4042
бра	-13.405
mi	-13.4053
▁ell	-13.406
▁есар	-13.4069
▁ig	-13.4072
▁ицца	-13.4076
▁пиан	-13.4076
76	-13.4084
ze	-13.4087
42	-13.4091
▁зол	-13.4095
▁вско	-13.4102
виц	-13.4102
31	-13.4102
ТЗ	-13.4112
▁лф	-13.4116
▁Van	-13.4119
▁RP	-13.4123
▁акк	-13.4132
▁ибе	-13.4139
▁Du	-13.414
▁аказа	-13.4141
▁ибра	-13.4142
▁еша	-13.4144
▁елок	-13.4162
▁агил	-13.4174
▁опин	-13.4187
PC	-13.4187
▁етуч	-13.4188
▁утя	-13.4212
▁акш	-13.4224
▁киф	-13.424
ТВ	-13.4243
▁AT	-13.4247
▁скеп	-13.4247
▁Poo	-13.4257
ns	-13.4257
WI	-13.4267
▁етте	-13.4285
▁RC	-13.4294
▁Юг	-13.4315
▁ke	-13.4326
ЭФ	-13.4335
▁ФГ	-13.434
ЕК	-13.4346
▁Es	-13.4354
нихи	-13.4358
▁UF	-13.4362
▁he	-13.4373
▁дун	-13.4374
▁эйв	-13.4375
ä	-13.4378
▁Snap	-13.4386
▁0:1	-13.4386
▁Paj	-13.4386
ЮСШ	-13.4386
▁КСИМ	-13.4387
▁board	-13.4387
▁lls	-13.4387
▁Cle	-13.4388
▁tech	-13.4388
▁que	-13.4388
▁Trade	-13.4388
▁fer	-13.4388
▁Day	-13.4389
▁Avi	-13.439
чуж	-13.4391
▁вчар	-13.4393
▁зырь	-13.4394
▁ЦФО	-13.4395
ится	-13.4407
za	-13.4407
▁дря	-13.441
▁291	-13.4412
▁art	-13.4414
▁БПЛ	-13.4415
▁ГИТ	-13.4419
▁Ski	-13.4425
▁IX	-13.4426
▁СВ	-13.443
.0	-13.443
▁137	-13.4431
▁185	-13.4432
▁УГМ	-13.4437
ТЭ	-13.4443
▁веря	-13.4444
DS	-13.4444
▁носца	-13.4447
этл	-13.4448
▁хман	-13.4459
▁ОСА	-13.446
▁ПИК	-13.4462
▁cra	-13.4469
▁480	-13.4469
EO	-13.4477
бул	-13.4479
▁eed	-13.448
▁ПМ	-13.4486
▁ейра	-13.4494
РМ	-13.4494
▁fic	-13.4497
▁ve	-13.4498
▁Je	-13.4498
▁118	-13.45
▁lov	-13.4505
▁Edi	-13.4507
▁ессон	-13.4508
▁еган	-13.451
▁усты	-13.4519
ПЗ	-13.4523
▁опы	-13.4526
▁жип	-13.4535
TI	-13.4539
▁ov	-13.4547
▁эйр	-13.455
▁озу	-13.4558
УН	-13.4559
▁Far	-13.4565
▁чихи	-13.4573
mp	-13.4576
▁bas	-13.4576
nta	-13.458
nk	-13.4584
AM	-13.4586
▁ланг	-13.4599
ЛП	-13.46
▁тихо	-13.4603
ахи	-13.4608
▁ea	-13.4624
▁РИ	-13.4624
▁Gaz	-13.463
73	-13.4631
▁UK	-13.4637
▁HS	-13.4641
▁икер	-13.4647
▁ГО	-13.4654
▁уря	-13.4664
▁Se	-13.4665
▁филд	-13.4674
ЕА	-13.4682
93	-13.4686
▁винс	-13.47
▁ММК	-13.4709
65	-13.4712
▁симо	-13.4712
▁акул	-13.4714
▁зев	-13.4715
▁Stra	-13.4735
▁ien	-13.4742
▁шип	-13.4763
▁орри	-13.4778
▁энк	-13.4779
▁XII	-13.4784
▁уриц	-13.4787
ap	-13.4788
▁тюр	-13.479
фол	-13.479
ЕН	-13.4812
▁ипен	-13.482
▁итта	-13.4821
▁анец	-13.4825
▁холм	-13.4831
▁GL	-13.4834
НВ	-13.4858
ПБ	-13.4859
88	-13.4869
uan	-13.4872
▁бэ	-13.4885
▁was	-13.4886
энь	-13.4891
▁Tre	-13.4893
▁est	-13.4896
▁ррит	-13.4902
ЛС	-13.4902
Во	-13.4902
▁Rac	-13.4904
Don	-13.4906
▁хет	-13.4909
▁Ber	-13.4911
DE	-13.4911
ИДЕ	-13.4913
▁3:1	-13.4913
▁Ukr	-13.4913
▁Infi	-13.4913
▁dge	-13.4913
▁UBS	-13.4913
▁Cup	-13.4913
▁Soci	-13.4913
▁llo	-13.4913
▁Print	-13.4914
▁Dol	-13.4914
▁met	-13.492
▁up	-13.492
▁sis	-13.4921
▁EX	-13.4923
▁Dae	-13.4924
ММ	-13.4924
▁103	-13.4925
▁ИРИ	-13.4925
МГ	-13.4926
▁ханян	-13.4927
ОМС	-13.4928
▁iam	-13.4929
жье	-13.4929
▁(2	-13.4933
▁cy	-13.4934
▁1:2	-13.4937
▁gh	-13.4937
ОТ	-13.4941
▁2.0	-13.4944
▁sit	-13.495
▁ant	-13.4955
мас	-13.4967
▁СЗ	-13.4978
▁ДВФ	-13.4979
▁lt	-13.498
ЕВ	-13.4982
▁ОР	-13.4987
▁149	-13.5003
▁клей	-13.5004
▁ртен	-13.5004
▁аньк	-13.5008
▁авк	-13.5013
▁тыш	-13.5015
▁щер	-13.5017
ИМ	-13.5025
▁орго	-13.5044
▁аржи	-13.5052
▁ab	-13.5063
Ни	-13.5078
▁анча	-13.5085
▁борд	-13.509
льяр	-13.5104
▁йман	-13.5131
▁арго	-13.5137
▁av	-13.5157
▁ахид	-13.5169
▁TM	-13.5175
92	-13.5179
▁Ye	-13.5185
▁bur	-13.5185
▁анго	-13.5211
ьер	-13.5218
▁одст	-13.5219
▁ейзер	-13.522
▁зур	-13.522
our	-13.5222
61	-13.5236
▁апир	-13.5245
▁Mer	-13.525
▁езь	-13.5251
▁Tru	-13.5252
▁ФСС	-13.5255
71	-13.5262
▁мазо	-13.5266
▁риче	-13.5271
▁Cy	-13.5276
▁OS	-13.5277
▁апек	-13.5285
▁шеи	-13.5302
▁скол	-13.5305
▁14.	-13.5315
▁игур	-13.5315
ГПС	-13.5318
▁TH	-13.533
ИП	-13.5331
▁Eng	-13.5336
▁вост	-13.5339
▁анад	-13.535
уэ	-13.5353
▁емени	-13.5354
▁апши	-13.5358
▁орф	-13.5362
ma	-13.5362
▁икве	-13.537
▁res	-13.5374
▁ER	-13.5386
▁фю	-13.5388
ge	-13.5393
▁Rev	-13.5398
pt	-13.5398
акан	-13.5398
▁ллер	-13.5405
▁МИ	-13.5408
▁ММ	-13.5417
AT	-13.5437
трас	-13.5443
▁Arc	-13.545
▁Dow	-13.5457
ХЛ	-13.546
▁Thin	-13.5462
▁ззи	-13.5462
▁NEW	-13.5468
▁Big	-13.5468
▁free	-13.5468
▁Уфы	-13.5469
▁fro	-13.5469
▁Lux	-13.5469
▁llac	-13.5469
▁XR	-13.5469
▁tti	-13.547
▁бьет	-13.5471
▁ara	-13.5472
▁Boo	-13.5474
▁доело	-13.5474
▁Vu	-13.5476
▁Der	-13.5476
▁Prem	-13.5476
▁sco	-13.5477
▁ЗСТ	-13.5479
▁mis	-13.5481
mart	-13.5487
▁тюар	-13.5488
▁АГА	-13.5492
▁лфет	-13.5493
▁370	-13.5496
▁игел	-13.5504
▁mar	-13.5505
▁204	-13.5506
CA	-13.5507
▁294	-13.5507
▁Mash	-13.5509
▁ТПУ	-13.5509
▁ВОВ	-13.5512
тюг	-13.5513
▁новы	-13.5513
▁Ant	-13.5524
▁РСН	-13.5526
▁148	-13.5528
▁226	-13.5529
▁Pur	-13.5529
▁Cur	-13.5531
▁ожж	-13.5537
▁Cad	-13.5538
ССР	-13.5546
ca	-13.5548
▁южи	-13.5563
▁ФГБУ	-13.5564
▁55%	-13.5567
PG	-13.5569
▁128	-13.5571
MM	-13.5577
▁121	-13.558
▁520	-13.5586
▁сло	-13.5589
▁рлак	-13.5594
▁эйд	-13.5594
▁туш	-13.5596
4,	-13.5599
▁too	-13.5606
ADA	-13.5608
▁Mond	-13.5609
▁6,3	-13.561
▁ордю	-13.561
▁Gol	-13.5612
▁das	-13.5625
▁одже	-13.5627
▁ньер	-13.5634
▁лагин	-13.5638
▁Ae	-13.5638
▁Pu	-13.5647
ОВ	-13.5649
▁DB	-13.5649
▁омки	-13.5655
▁хте	-13.5665
▁авье	-13.5674
▁j	-13.5675
▁нст	-13.568
▁шоп	-13.5682
▁ПС	-13.5689
▁ko	-13.5694
▁миф	-13.5701
▁мехо	-13.5706
▁идла	-13.5707
▁енха	-13.573
НС	-13.5739
▁КО	-13.575
▁айду	-13.5751
up	-13.5762
86	-13.5763
▁ord	-13.5767
▁асты	-13.5769
75	-13.5773
НН	-13.5774
qui	-13.5781
▁баб	-13.5786
▁энг	-13.5794
▁озер	-13.5802
▁ряп	-13.5817
▁Gre	-13.582
ug	-13.5821
▁Trum	-13.5844
hi	-13.5849
FT	-13.5852
▁рфе	-13.5857
▁ммиа	-13.5857
▁улы	-13.5863
ev	-13.5864
▁амбо	-13.5865
▁айра	-13.5867
MS	-13.5873
▁Nin	-13.5877
TP	-13.5878
▁Ke	-13.588
▁нсар	-13.5895
ИАН	-13.5896
▁ca	-13.5897
▁ганд	-13.59
▁эмм	-13.5914
ифт	-13.5918
▁утил	-13.5924
▁ere	-13.5943
igh	-13.5944
ИБ	-13.5945
чич	-13.5967
ухи	-13.5972
7,	-13.5973
▁онга	-13.5975
67	-13.5982
▁ишка	-13.5985
▁Pet	-13.5993
▁bla	-13.5993
▁стыл	-13.5999
san	-13.6004
udi	-13.6005
▁Kn	-13.6006
▁op	-13.6012
▁Ци	-13.602
▁Met	-13.6023
ВР	-13.6025
▁арай	-13.603
▁Dio	-13.6032
▁sm	-13.6032
gi	-13.6041
▁XI	-13.6053
▁Nex	-13.6055
рбон	-13.6056
<	-13.6057
×	-13.6057
▁3:0	-13.6057
▁gula	-13.6057
▁ГКЧП	-13.6057
▁Full	-13.6057
▁Asse	-13.6057
▁Niel	-13.6057
▁Soft	-13.6057
gue	-13.6058
▁star	-13.6059
▁дыр	-13.6059
▁Ori	-13.6059
▁cus	-13.6059
▁ЖНВ	-13.606
▁ибсон	-13.606
▁хайм	-13.606
▁уйн	-13.606
▁ies	-13.6062
ИЛ	-13.6063
▁Ky	-13.6064
▁вяж	-13.6066
▁Hall	-13.6066
▁Port	-13.6066
▁ГМИ	-13.6069
▁Prio	-13.6073
▁инзы	-13.6076
пут	-13.608
▁вляе	-13.6082
▁чехр	-13.6082
▁Lov	-13.6083
▁щель	-13.6084
▁АТР	-13.6085
▁166	-13.6096
▁Coo	-13.6097
▁193	-13.6103
▁опул	-13.6109
▁rg	-13.6111
▁243	-13.6114
▁34%	-13.6114
▁you	-13.6117
▁НЕ	-13.612
▁gn	-13.612
▁озор	-13.612
▁169	-13.6125
▁hy	-13.6129
ймон	-13.6132
▁310	-13.6133
▁сэр	-13.6134
▁амоч	-13.6135
▁аксо	-13.6138
▁МБР	-13.614
▁249	-13.6141
TO	-13.6157
▁123	-13.6157
▁Va	-13.6158
▁носц	-13.6164
▁абан	-13.6165
▁5,1	-13.6172
▁леба	-13.6176
▁ддув	-13.6179
▁егле	-13.6183
▁212	-13.6183
▁авоч	-13.6189
ya	-13.6196
ОМ	-13.6198
▁211	-13.6202
▁330	-13.6204
▁това	-13.6209
▁Sum	-13.6209
▁Priv	-13.6211
CI	-13.6216
▁эйт	-13.6224
▁ГАЗ	-13.6225
5.	-13.6226
циа	-13.6226
66	-13.6242
фел	-13.6244
LP	-13.6256
FM	-13.6264
▁бац	-13.6267
▁Ab	-13.6267
▁nce	-13.6279
53	-13.629
▁мпле	-13.6298
▁виг	-13.6304
▁ксон	-13.6306
▁нтос	-13.6309
▁Pic	-13.6316
мбур	-13.6321
▁ефф	-13.6327
▁орч	-13.6329
AY	-13.635
ИНА	-13.6352
муш	-13.6358
рюм	-13.6371
▁Fa	-13.6371
КН	-13.6396
▁DV	-13.64
ань	-13.6419
adi	-13.6441
▁рдар	-13.645
▁шеч	-13.6453
ДД	-13.6455
▁ПбГУ	-13.6463
▁Cal	-13.647
нсин	-13.647
oS	-13.6472
na	-13.6472
▁ипто	-13.6483
▁tha	-13.6486
▁HR	-13.6489
люс	-13.6489
тайл	-13.6496
▁Max	-13.6499
ИР	-13.6501
▁упл	-13.6503
▁Bel	-13.6506
нкер	-13.6507
▁тума	-13.6526
▁мфи	-13.6531
▁ыге	-13.6531
▁баль	-13.6537
▁кыр	-13.6546
▁ориц	-13.6547
▁НА	-13.6559
джа	-13.6567
▁ID	-13.6568
▁чае	-13.6569
NP	-13.6581
94	-13.6588
SE	-13.6589
83	-13.6589
▁Инт	-13.6589
▁au	-13.6591
олоч	-13.6594
▁Sta	-13.6595
▁He	-13.6603
▁урад	-13.661
▁Cro	-13.662
▁мото	-13.6626
▁АНО	-13.6627
ЧС	-13.6631
▁q	-13.6636
▁ешет	-13.6651
▁юшн	-13.6656
/2	-13.6661
é	-13.6674
▁Sakh	-13.6682
▁Green	-13.6682
▁Show	-13.6682
▁Hug	-13.6682
▁айху	-13.6682
▁bach	-13.6682
▁Welt	-13.6682
▁unes	-13.6683
▁Sab	-13.6683
▁Bak	-13.6684
▁Dep	-13.6684
▁Octa	-13.6684
▁авзо	-13.6685
▁rol	-13.6686
▁ЦОД	-13.6687
▁дигм	-13.6694
37	-13.6694
▁nis	-13.6696
▁Hil	-13.6699
▁олтон	-13.67
▁МГБ	-13.67
▁АЧС	-13.6701
БТ	-13.6704
▁зарм	-13.6709
СХ	-13.6709
ew	-13.6711
▁энкс	-13.6718
▁293	-13.6722
▁мека	-13.6723
мэн	-13.6725
▁237	-13.6728
▁калы	-13.6728
▁FA	-13.673
▁sor	-13.6732
▁176	-13.6733
▁188	-13.6737
▁184	-13.6737
▁ашу	-13.6737
▁ВЭФ	-13.6739
ick	-13.6739
▁263	-13.6742
▁207	-13.6743
▁179	-13.6744
▁315	-13.6745
▁Line	-13.6757
шень	-13.676
▁Lou	-13.6761
▁ual	-13.6761
ньол	-13.6772
▁216	-13.6775
▁Blo	-13.6777
ko	-13.6782
ide	-13.6783
▁аттл	-13.6785
▁war	-13.6788
▁Stad	-13.679
▁фель	-13.6792
▁зиан	-13.6794
▁lus	-13.6801
▁орчи	-13.6802
▁not	-13.6802
▁чише	-13.6807
▁7%.	-13.6809
▁ui	-13.6819
▁тыл	-13.6823
▁Marv	-13.6858
жоу	-13.6869
wi	-13.6879
бан	-13.6882
лимп	-13.6885
крас	-13.6891
РО	-13.6898
▁ингл	-13.6905
▁леб	-13.6906
эд	-13.6909
▁айна	-13.691
▁эйли	-13.6914
▁ОЗ	-13.6917
▁Phil	-13.6919
▁ПСР	-13.6927
▁wh	-13.6931
▁su	-13.6937
▁ргас	-13.6939
▁Sel	-13.6942
AC	-13.6944
▁$7	-13.6971
GN	-13.6973
дра	-13.6976
▁gar	-13.698
▁вана	-13.7011
ФС	-13.7018
▁ажк	-13.7019
▁Jaz	-13.7049
▁зуб	-13.705
льны	-13.7054
▁Adi	-13.7061
▁глуб	-13.7062
ic	-13.7064
▁NE	-13.7065
sco	-13.707
▁ree	-13.7077
▁ЗР	-13.7079
▁Viv	-13.708
▁Mil	-13.7082
▁ыпл	-13.7084
▁Flo	-13.7105
▁мум	-13.7113
▁ибал	-13.7116
72	-13.7122
▁UR	-13.7131
▁(3	-13.714
ннел	-13.7141
▁здр	-13.7143
▁iC	-13.7147
▁sso	-13.7153
УР	-13.7155
▁слы	-13.7157
▁клет	-13.7166
ste	-13.717
▁осно	-13.7176
▁mor	-13.718
▁EP	-13.7189
Ь	-13.7196
▁енки	-13.72
▁Id	-13.7219
▁ju	-13.7227
▁олья	-13.7238
▁гид	-13.7246
▁Zo	-13.7246
▁Ros	-13.7276
СБ	-13.7278
▁Эко	-13.7283
ISA	-13.7284
▁Rec	-13.7292
МТП	-13.7295
▁ейсм	-13.7296
58	-13.7296
▁AB	-13.7299
▁wor	-13.7307
go	-13.7309
▁урц	-13.7324
▁Nav	-13.7342
є	-13.7348
▁6:1	-13.7348
▁ЕБРР	-13.7348
▁ject	-13.7348
▁scie	-13.7348
▁Astr	-13.7349
▁lms	-13.7349
▁RX	-13.7349
▁КПВ	-13.7349
▁Pix	-13.7349
▁Nort	-13.735
▁Vir	-13.7351
▁rio	-13.7351
▁face	-13.7352
▁Chil	-13.7352
▁анф	-13.7352
▁гауз	-13.7354
▁тюхин	-13.7356
▁3:2	-13.7357
▁$15	-13.7359
▁етхи	-13.7359
ЭТ	-13.7363
▁рды	-13.7363
▁367	-13.7364
▁CC	-13.7364
▁едди	-13.7365
:5	-13.7366
▁201	-13.7366
▁Vim	-13.7367
▁орщин	-13.7368
▁Alt	-13.737
▁акС	-13.7372
▁209	-13.7377
-1	-13.7377
▁УДО	-13.7388
▁РСТ	-13.7392
▁186	-13.7396
78	-13.7399
▁252	-13.7401
▁171	-13.7401
▁194	-13.7406
руд	-13.742
▁gat	-13.7421
8.	-13.7422
ЭР	-13.7427
▁епту	-13.7427
▁ser	-13.7431
▁187	-13.7432
▁38%	-13.7441
▁mot	-13.7441
энсе	-13.7446
шик	-13.7456
▁12.	-13.7457
▁ирту	-13.7462
▁lor	-13.7462
▁эмп	-13.7462
ДП	-13.7469
▁суф	-13.747
▁218	-13.7475
нью	-13.7481
▁chi	-13.7484
▁245	-13.7486
▁ТК	-13.7486
▁езен	-13.7494
▁AS	-13.7497
льеф	-13.7506
ФП	-13.751
LL	-13.7511
▁Des	-13.7516
▁sy	-13.7521
96	-13.753
ble	-13.7539
ach	-13.7543
▁орги	-13.7545
▁Home	-13.7552
ЭП	-13.7555
▁FAR	-13.7564
▁омбо	-13.7571
▁Han	-13.7577
ond	-13.7593
▁Rap	-13.7616
▁епти	-13.7618
▁My	-13.7618
▁os	-13.7619
dg	-13.763
▁Fre	-13.7635
iv	-13.7635
▁ренин	-13.765
РИ	-13.765
▁ВО	-13.7652
▁идж	-13.7652
▁ощи	-13.7652
НА	-13.7668
DR	-13.767
HK	-13.7671
▁кты	-13.7673
ME	-13.7678
ржа	-13.7685
▁тны	-13.7687
ХА	-13.7691
▁nos	-13.7699
ТД	-13.77
▁апез	-13.7723
▁андж	-13.7724
▁ESP	-13.7727
▁ib	-13.7728
льц	-13.7734
▁лец	-13.7746
▁ерцо	-13.775
▁эйк	-13.7759
84	-13.7762
91	-13.7773
▁оуна	-13.7781
▁оцк	-13.7794
54	-13.78
▁5)	-13.7803
▁пяч	-13.781
ЕЙ	-13.7815
▁ГАИ	-13.7825
SU	-13.7829
SM	-13.7832
▁вище	-13.7842
▁виан	-13.7844
▁иммер	-13.7859
▁ваге	-13.7867
▁ыкв	-13.7881
▁Ol	-13.7881
▁акья	-13.7906
NO	-13.7919
▁ДИП	-13.7923
▁ечи	-13.7924
▁Rai	-13.793
▁КУ	-13.7931
орд	-13.7944
▁угр	-13.7951
:3	-13.7956
▁rad	-13.7968
▁rid	-13.7976
РН	-13.7978
▁Aer	-13.798
fi	-13.7986
АПИ	-13.8004
:4	-13.8005
▁валю	-13.8006
eed	-13.8012
НИ	-13.8016
▁pp	-13.8018
БО	-13.8027
▁ci	-13.8027
▁pt	-13.803
тюр	-13.8031
ДА	-13.8032
▁ирес	-13.8038
фет	-13.8047
ood	-13.805
FB	-13.8053
ЧП	-13.8055
ЦБ	-13.8056
хим	-13.806
▁0:0	-13.8063
▁Geely	-13.8063
▁sport	-13.8063
▁ПИДа	-13.8063
■	-13.8063
▁НАФИ	-13.8063
▁Dodg	-13.8063
▁time	-13.8063
▁ept	-13.8063
▁tru	-13.8063
▁Geo	-13.8063
▁iew	-13.8063
▁stor	-13.8063
▁Index	-13.8063
▁Org	-13.8064
▁sort	-13.8065
▁Wra	-13.8065
▁Fro	-13.8066
RE	-13.8066
▁ada	-13.8066
▁MV	-13.8068
▁льеф	-13.8072
▁ДПМ	-13.8073
▁737	-13.8074
▁206	-13.8074
▁sch	-13.8074
▁375	-13.8077
▁ВУЗ	-13.808
▁БКИ	-13.8099
▁ny	-13.8101
рган	-13.8103
▁670	-13.8103
▁апса	-13.8103
▁Hell	-13.8106
▁ошно	-13.8106
▁390	-13.8108
ud	-13.8111
▁183	-13.8112
▁317	-13.8115
▁итцер	-13.8118
▁74%	-13.812
ОБ	-13.8124
▁гиг	-13.8126
▁mark	-13.8127
▁138	-13.8138
▁152	-13.8139
▁alt	-13.8143
▁195	-13.8144
▁Ne	-13.8146
▁ровы	-13.8147
▁инчук	-13.8151
ьют	-13.8152
▁234	-13.8152
▁39%	-13.8155
▁Chem	-13.8158
▁зыб	-13.816
▁147	-13.816
ast	-13.816
▁вайс	-13.8168
▁tom	-13.8168
▁mir	-13.8171
▁4,1	-13.8171
▁lig	-13.8176
ДИ	-13.8176
▁ФР	-13.8177
▁Ham	-13.8187
▁214	-13.8189
▁яиц	-13.8191
can	-13.8194
▁OM	-13.8195
▁ap	-13.8197
АЛ	-13.8198
▁ЛК	-13.8201
лиг	-13.8221
rst	-13.8221
▁зян	-13.8223
▁erc	-13.8224
SF	-13.8241
▁Heu	-13.8243
▁егул	-13.8248
▁бюр	-13.8251
▁UA	-13.8254
im	-13.8259
▁узя	-13.8262
▁ill	-13.8263
▁win	-13.8266
КМ	-13.8266
ND	-13.8272
ГД	-13.8282
NI	-13.8282
▁ya	-13.8296
▁бэк	-13.8303
▁IB	-13.8336
▁Bas	-13.8336
рлы	-13.8337
▁ЦТ	-13.8341
▁CA	-13.8342
▁Dir	-13.8357
▁Dro	-13.836
▁ркин	-13.8365
НД	-13.8366
ОО	-13.837
ED	-13.8371
▁Dat	-13.8372
ЗО	-13.8378
▁гиня	-13.8387
▁шуме	-13.8402
▁греш	-13.8403
DC	-13.8403
▁ТС	-13.8416
▁Tri	-13.8424
▁ac	-13.8424
люк	-13.8448
▁Smi	-13.8453
▁mas	-13.8454
▁Chu	-13.8462
▁mes	-13.8472
▁hat	-13.8505
▁пун	-13.8509
▁воры	-13.851
▁24.	-13.8512
▁ФГК	-13.8515
▁Alf	-13.8516
▁OR	-13.8517
▁вате	-13.8538
▁ЦД	-13.854
▁ффет	-13.8554
▁акши	-13.859
1.	-13.859
▁fl	-13.8591
ire	-13.8593
▁Sur	-13.8598
бье	-13.86
чиш	-13.8623
▁ein	-13.8624
▁энь	-13.8637
▁НЦ	-13.8648
▁дран	-13.8658
uga	-13.8663
▁рдин	-13.8697
ВМ	-13.87
:2	-13.8705
▁плес	-13.8706
▁МГТ	-13.8715
▁исне	-13.8721
▁жиг	-13.8732
РС	-13.8732
▁арих	-13.8732
OC	-13.8741
▁CH	-13.8745
▁смо	-13.8745
▁апоч	-13.8745
▁Cat	-13.8748
▁AI	-13.8758
97	-13.8759
анг	-13.8766
БМ	-13.8771
▁Sal	-13.8774
OM	-13.878
шни	-13.8784
монд	-13.8785
DF	-13.8795
▁ME	-13.8795
▁ерих	-13.88
BM	-13.8806
ite	-13.881
▁Pac	-13.881
▁УСБ	-13.8816
▁Tak	-13.8819
ї	-13.8824
Eco	-13.8825
▁Trad	-13.8829
FR	-13.8831
▁4:1	-13.8832
▁TTIP	-13.8832
▁ТТИП	-13.8832
▁duct	-13.8832
▁MQ	-13.8832
▁Porn	-13.8834
▁Kal	-13.8834
▁DD	-13.8835
▁kom	-13.8835
▁hes	-13.8835
▁bana	-13.8835
▁орхе	-13.8836
▁Drag	-13.8836
▁иафан	-13.8837
wl	-13.8838
▁бры	-13.8839
▁НДР	-13.884
▁306	-13.8841
▁шеф	-13.8842
▁Stri	-13.8844
▁303	-13.8844
▁331	-13.885
▁КГИ	-13.8852
▁Wat	-13.8852
▁ГПЗ	-13.8852
▁земье	-13.8853
▁ivi	-13.8854
▁Whit	-13.8854
▁308	-13.8854
▁ссош	-13.8854
▁840	-13.8858
▁2:2	-13.8862
▁2:3	-13.8865
▁онхи	-13.8865
▁Pad	-13.8866
▁Saf	-13.8869
▁ЕП	-13.887
▁икси	-13.887
КГ	-13.8879
ехот	-13.888
▁хенд	-13.8881
▁адед	-13.8883
▁Hal	-13.8884
▁ЧФ	-13.8884
▁276	-13.8885
EC	-13.8885
▁318	-13.8886
IS	-13.8888
▁197	-13.8892
▁153	-13.8892
▁Et	-13.8892
▁202	-13.8898
▁131	-13.89
▁епча	-13.8902
▁їн	-13.8902
олет	-13.8904
▁УР	-13.8907
▁232	-13.891
▁192	-13.8912
▁Key	-13.8915
▁262	-13.8921
ПД	-13.8922
▁Peg	-13.8923
▁142	-13.8923
▁mac	-13.8924
▁Pres	-13.8926
▁ГПБ	-13.8927
▁144	-13.893
▁МКП	-13.8934
▁141	-13.8934
▁ae	-13.8934
▁ger	-13.8934
▁айен	-13.8937
PN	-13.8939
▁223	-13.8941
▁ГИС	-13.8944
▁енья	-13.8946
▁228	-13.8949
▁Hot	-13.896
▁Hel	-13.8991
dd	-13.9015
▁SW	-13.9016
▁авки	-13.9019
▁Fort	-13.9024
▁апра	-13.9028
▁няж	-13.9032
▁red	-13.9048
▁LE	-13.9049
▁Dia	-13.905
▁Meg	-13.9054
▁Chro	-13.9058
▁215	-13.9058
▁АТ	-13.9058
▁liv	-13.9059
ГО	-13.9071
PP	-13.9089
▁tv	-13.909
▁индс	-13.9092
ok	-13.9096
▁ИЛ	-13.9096
▁Ora	-13.9096
▁уджи	-13.9099
▁Shan	-13.9108
AW	-13.911
▁вожа	-13.9114
▁ss	-13.9127
▁оря	-13.9127
▁урча	-13.9127
▁ЗС	-13.913
ДВ	-13.9134
▁Son	-13.9139
▁елочи	-13.9149
▁игги	-13.9154
▁Dom	-13.9162
▁Pa	-13.9163
вич	-13.9169
▁Acc	-13.917
▁рожж	-13.917
PO	-13.9171
▁Che	-13.9174
▁Mon	-13.9177
▁Yu	-13.9184
▁удзо	-13.9186
▁фали	-13.9187
▁cto	-13.9191
▁Spee	-13.9192
▁эры	-13.9194
▁Swi	-13.9199
▁SS	-13.9228
МР	-13.9236
▁энс	-13.9258
▁ges	-13.926
▁ехе	-13.9266
uff	-13.9268
olu	-13.9293
ОГ	-13.9314
LM	-13.9335
лук	-13.9336
▁эпп	-13.9344
▁PC	-13.935
▁стун	-13.9351
▁итян	-13.9358
▁рыб	-13.9379
КТ	-13.9399
▁аггер	-13.942
▁Mad	-13.9427
▁ицю	-13.9434
▁tri	-13.9435
▁Sc	-13.9436
▁гря	-13.9444
ольф	-13.945
▁Os	-13.9462
ьял	-13.9471
▁сухи	-13.9472
иньо	-13.949
рах	-13.9499
▁сеть	-13.95
TA	-13.9507
берт	-13.9508
▁sp	-13.951
▁ez	-13.951
пур	-13.9524
▁Vibe	-13.9537
ГИ	-13.9545
▁бош	-13.9555
af	-13.9561
ийяр	-13.9567
▁Spi	-13.9569
▁НП	-13.9593
▁ОГА	-13.9598
▁ндро	-13.9599
ица	-13.9602
▁ula	-13.9607
▁SP	-13.9609
▁езар	-13.9612
▁маха	-13.9617
▁ацу	-13.9624
▁окса	-13.9643
▁Op	-13.9648
▁овач	-13.9665
▁Fair	-13.9665
▁кайпу	-13.9665
▁Siri	-13.9665
▁tro	-13.9666
▁Vent	-13.9666
▁чища	-13.9667
▁Ult	-13.9667
▁пага	-13.9668
▁НИСЕ	-13.9668
▁May	-13.9668
▁kee	-13.967
▁Up	-13.967
▁ward	-13.9671
▁афар	-13.9671
▁ыгея	-13.9672
▁kar	-13.9673
▁РСМД	-13.9674
▁нлей	-13.9675
▁qui	-13.9676
▁356	-13.9677
▁РЕП	-13.9678
▁our	-13.9678
▁Az	-13.9678
▁БДТ	-13.9678
▁икбо	-13.9678
▁6:3	-13.9679
НЦ	-13.9681
AS	-13.9685
▁ФИБ	-13.9685
▁Gm	-13.9686
этч	-13.9686
urt	-13.9687
▁Nikk	-13.9688
▁Lyn	-13.9691
▁НОК	-13.9692
▁329	-13.9699
▁чех	-13.9701
▁ТОС	-13.9703
айл	-13.9705
▁1:3	-13.9708
▁даун	-13.9711
▁540	-13.9715
▁Trai	-13.9717
▁490	-13.9718
▁265	-13.9722
▁314	-13.9724
▁178	-13.9725
▁"5	-13.973
▁MAN	-13.973
ИФ	-13.9734
▁ллиг	-13.9737
▁Pen	-13.9737
▁Un	-13.9737
щиц	-13.9738
▁tta	-13.9739
▁азг	-13.9741
▁167	-13.9747
▁242	-13.9747
▁ОБ	-13.9747
▁фарм	-13.9747
▁рань	-13.975
56	-13.975
▁КМ	-13.9752
▁эндж	-13.9753
▁ЧР	-13.9754
лач	-13.9757
▁257	-13.9759
арес	-13.9759
SL	-13.976
▁мми	-13.9761
▁Ob	-13.9765
▁9-	-13.9768
▁7,1	-13.9769
КД	-13.9772
рохо	-13.9772
▁ркини	-13.9784
▁235	-13.9789
НО	-13.979
▁ili	-13.9797
▁кошк	-13.9798
▁gna	-13.9799
▁eur	-13.9801
▁ибри	-13.9804
▁get	-13.9806
▁тошн	-13.9821
▁Ray	-13.9823
▁бурж	-13.9831
▁iva	-13.9831
▁МД	-13.9841
▁AC	-13.9844
ссон	-13.9859
▁мош	-13.9863
▁Bosc	-13.9865
▁Jun	-13.9868
lt	-13.9872
▁ret	-13.9872
▁pl	-13.9877
шач	-13.9878
▁Rav	-13.9884
▁киад	-13.9895
▁ворд	-13.9896
▁She	-13.9898
НР	-13.9904
▁эйс	-13.9909
▁куч	-13.991
▁row	-13.9911
▁ГБУЗ	-13.9917
▁этчер	-13.9917
▁юша	-13.992
▁ГС	-13.9923
van	-13.9925
▁бег	-13.993
▁DP	-13.9933
▁уджа	-13.9943
▁одч	-13.9951
▁ite	-13.9956
▁скоч	-13.9961
DI	-13.9964
▁лайд	-13.9964
kt	-13.9967
▁Cour	-13.9976
▁анше	-13.9987
▁mil	-13.9997
▁лтым	-14.0008
▁ушь	-14.0014
▁гада	-14.0023
ОБО	-14.0024
▁идли	-14.0025
▁Gas	-14.0055
▁янь	-14.0059
▁ояс	-14.0068
▁Log	-14.007
▁южен	-14.0079
▁нях	-14.0081
▁ye	-14.0081
unt	-14.0093
SN	-14.0097
▁акур	-14.01
ec	-14.0102
AA	-14.0103
▁Sie	-14.0103
▁UN	-14.0107
▁РАД	-14.0111
▁зун	-14.0115
▁Huma	-14.0123
▁mu	-14.0124
▁ces	-14.0128
ГБ	-14.0133
IN	-14.0143
▁ТА	-14.0146
▁gan	-14.0147
▁ерши	-14.0147
хир	-14.0149
eti	-14.0152
▁Stea	-14.0167
▁чуд	-14.0167
▁ильд	-14.0178
▁ku	-14.0181
▁Ell	-14.0181
6.	-14.019
эя	-14.0205
▁ТУ	-14.0205
▁атут	-14.0205
▁Wa	-14.0212
▁пиг	-14.0221
▁омаш	-14.0223
▁омах	-14.0224
▁трац	-14.0229
▁учок	-14.0233
▁ide	-14.0248
▁SD	-14.025
▁МТСБ	-14.0251
▁mos	-14.0285
▁акке	-14.03
ГР	-14.0308
▁Thi	-14.0317
▁ояж	-14.0327
ункт	-14.0331
uy	-14.0334
▁вяже	-14.0336
ТМ	-14.0341
ГИС	-14.0343
▁стец	-14.0349
▁BF	-14.035
▁Il	-14.0359
▁БМ	-14.0361
▁КТ	-14.0364
MA	-14.0375
БД	-14.0376
▁ипча	-14.0389
▁tec	-14.0394
▁ерид	-14.0397
▁FIN	-14.0398
ute	-14.0403
бас	-14.0415
бай	-14.0415
▁Est	-14.0419
▁тище	-14.0424
▁Хэ	-14.0435
▁эндо	-14.0438
▁Sm	-14.0441
▁шуб	-14.0443
▁авад	-14.0458
фен	-14.0458
RC	-14.0466
▁Bat	-14.0474
▁pre	-14.048
LA	-14.0493
эт	-14.0496
ДТ	-14.0504
▁ЧЕ	-14.0508
ult	-14.0514
анат	-14.0519
▁Rot	-14.0528
ВТ	-14.0529
MC	-14.0533
▁GE	-14.0534
ФА	-14.0537
▁еточ	-14.0547
▁Ve	-14.0552
▁диш	-14.0554
MP	-14.0569
ПФ	-14.057
oi	-14.0572
ppe	-14.0573
õ	-14.0574
ó	-14.0574
▁Romeo	-14.0574
▁ckr	-14.0574
▁Girl	-14.0574
▁Vari	-14.0574
▁Gett	-14.0574
▁зтех	-14.0574
▁Shu	-14.0575
▁НИОН	-14.0575
▁clu	-14.0575
Al	-14.0576
▁Opt	-14.0577
▁rent	-14.0577
▁kp	-14.0577
▁Asi	-14.0577
ХО	-14.0577
▁exp	-14.0578
АЭС	-14.0578
▁Wom	-14.0578
жуаз	-14.0581
▁Wh	-14.0584
▁Pra	-14.0584
▁$45	-14.0584
▁ТБ	-14.0584
▁мфиб	-14.0585
▁юлен	-14.0588
▁жуаз	-14.0591
ДР	-14.0592
▁337	-14.0595
эг	-14.0601
▁Dea	-14.0602
▁гава	-14.0604
▁343	-14.0604
▁лейф	-14.0604
▁САУ	-14.0605
▁тежа	-14.0607
▁реха	-14.0608
▁256	-14.0615
▁0:2	-14.0616
▁IS	-14.0616
▁етлю	-14.0623
▁304	-14.0625
▁278	-14.0628
▁йзе	-14.0628
▁печи	-14.0629
▁ГЦ	-14.063
▁275	-14.0631
▁191	-14.0633
▁dy	-14.0634
▁271	-14.0635
▁рсун	-14.0635
▁Baz	-14.0637
СЭ	-14.0645
▁272	-14.0645
▁325	-14.0648
▁246	-14.0649
▁173	-14.065
▁дозер	-14.0654
-3	-14.0656
▁Gun	-14.0661
▁295	-14.0662
▁ЕЛ	-14.0667
▁233	-14.0669
▁арра	-14.067
▁198	-14.0671
▁Sin	-14.0672
▁маза	-14.0673
▁орле	-14.0675
АМИ	-14.0677
То	-14.0677
▁ren	-14.0679
▁НЭП	-14.0682
▁зиму	-14.0683
▁EAS	-14.0686
хэ	-14.0687
РФ	-14.0688
еньк	-14.0689
дюк	-14.0689
▁жье	-14.0697
СЗ	-14.0699
▁ary	-14.0699
▁СШ	-14.0702
▁Traf	-14.0718
▁Hom	-14.0728
igi	-14.0731
ome	-14.0731
▁Neur	-14.0733
▁фами	-14.0738
▁Shop	-14.0749
▁bl	-14.075
di	-14.0753
▁уэц	-14.0756
ij	-14.0767
▁ипно	-14.0772
▁имби	-14.0775
▁РН	-14.0777
52	-14.0783
▁лха	-14.0786
▁Pir	-14.0789
шут	-14.0792
▁now	-14.0799
▁лащ	-14.08
ix	-14.0807
▁пух	-14.0821
▁nel	-14.0821
СГ	-14.0824
▁PA	-14.0848
NC	-14.0854
▁€2	-14.086
▁грян	-14.0865
▁лабу	-14.0871
▁goo	-14.0876
▁Ch	-14.0881
▁акос	-14.09
▁GS	-14.0902
▁CS	-14.0906
▁Did	-14.091
▁ызы	-14.0916
gh	-14.0918
▁Chi	-14.0923
▁инье	-14.0929
ццо	-14.0942
▁теже	-14.0949
ЭУ	-14.0957
уме	-14.0964
▁САП	-14.0964
БС	-14.0966
▁рень	-14.1012
fa	-14.1014
▁bia	-14.1024
ph	-14.1036
▁CRI	-14.1039
▁ибан	-14.106
▁Boy	-14.1069
▁4)	-14.1071
▁tol	-14.1081
▁йлер	-14.1082
▁mal	-14.1086
▁ВБ	-14.1094
▁ug	-14.1096
▁Pos	-14.1111
▁айги	-14.1119
▁Den	-14.1121
▁GP	-14.1127
▁урье	-14.1128
ven	-14.1128
wn	-14.1135
▁Of	-14.1136
▁апко	-14.1137
▁Pai	-14.1143
EV	-14.1159
FL	-14.1168
▁ссит	-14.1196
▁Ir	-14.1217
▁$8	-14.1245
▁Cli	-14.1266
▁FIB	-14.1269
▁Ala	-14.1269
▁Brow	-14.1277
ord	-14.1286
шель	-14.1286
ньг	-14.1286
pri	-14.1298
▁lif	-14.1302
▁Sav	-14.1304
▁луз	-14.131
▁чуж	-14.134
ЕС	-14.135
▁ec	-14.1362
▁FO	-14.1367
▁trea	-14.1371
РГ	-14.1384
▁Sim	-14.139
▁шеми	-14.1391
▁олб	-14.1402
▁ao	-14.1422
▁рюч	-14.1424
ess	-14.1433
▁рдь	-14.1435
▁Au	-14.1448
EN	-14.1451
▁MP	-14.147
▁(6	-14.1474
▁рдас	-14.1487
КФ	-14.1494
эйте	-14.1494
дэ	-14.1496
ucc	-14.1498
▁LC	-14.1506
SI	-14.1508
▁сочи	-14.151
ахом	-14.1515
▁ВР	-14.1516
▁CT	-14.1517
ФЛ	-14.155
рьян	-14.1562
FID	-14.1563
вор	-14.1568
GO	-14.1569
авье	-14.157
▁rac	-14.1572
▁Sco	-14.1573
′	-14.1574
▁Spot	-14.1574
▁bnb	-14.1574
▁£1	-14.1574
▁LIG	-14.1574
▁МАКП	-14.1574
▁Trib	-14.1575
▁tur	-14.1575
▁QE	-14.1575
▁Sex	-14.1575
▁Davi	-14.1575
▁Sued	-14.1575
▁ZF	-14.1575
ЮС	-14.1575
МИ	-14.1576
▁Peps	-14.1576
▁Emer	-14.1576
▁flo	-14.1576
▁АзЭС	-14.1576
▁Mess	-14.1577
▁Tex	-14.1577
▁олчу	-14.1577
▁cope	-14.1577
ауэр	-14.1578
▁Ear	-14.1579
▁Pace	-14.1579
▁Moz	-14.1579
▁eus	-14.1581
▁Ox	-14.1581
▁чжэ	-14.1582
▁Kat	-14.1582
▁vie	-14.1583
▁мажо	-14.1583
▁Cus	-14.1584
▁эньч	-14.1584
ON	-14.1587
▁6:2	-14.159
▁6:4	-14.1591
▁301	-14.1596
▁205	-14.1597
итуа	-14.1598
RO	-14.1601
▁374	-14.1603
▁ФИО	-14.1608
▁ПИФ	-14.1608
▁gran	-14.1613
▁рица	-14.1618
▁328	-14.1625
▁ОДК	-14.163
▁ime	-14.1631
▁БАНО	-14.1631
▁Tho	-14.1632
▁цикл	-14.1635
▁196	-14.1636
НИИ	-14.1639
▁297	-14.1639
▁тяг	-14.1648
▁Cab	-14.1653
▁182	-14.1653
▁астей	-14.1653
riz	-14.1656
▁292	-14.1661
▁ВИП	-14.1661
▁248	-14.1668
▁ЦЭ	-14.1672
укли	-14.1673
▁лдан	-14.1679
▁239	-14.1691
▁ульев	-14.1695
▁Ter	-14.1696
▁ass	-14.1699
▁УБ	-14.1707
▁251	-14.1708
▁Zi	-14.1714
▁кетч	-14.1723
▁ишня	-14.1728
ИЯ	-14.173
▁BA	-14.1733
▁ОИС	-14.174
▁вайр	-14.1743
бах	-14.1745
▁221	-14.1747
▁щетн	-14.1749
▁егг	-14.175
фри	-14.1769
day	-14.1779
▁219	-14.1787
CE	-14.1789
▁RI	-14.1797
энс	-14.1799
▁ПЧ	-14.1801
▁дошв	-14.1809
▁rt	-14.181
▁(8	-14.182
▁рахо	-14.1827
▁rit	-14.1844
▁веша	-14.1849
▁Tal	-14.1851
▁Zar	-14.1854
▁дство	-14.1855
▁Gio	-14.1855
▁trie	-14.186
US	-14.1861
▁ейте	-14.1868
▁ССА	-14.1877
▁1;	-14.1882
▁ейфе	-14.1883
ook	-14.1884
▁дрис	-14.189
▁Clin	-14.1894
▁Roma	-14.1894
▁nk	-14.193
РЗ	-14.1937
▁Hul	-14.1946
▁щур	-14.1947
унг	-14.1949
▁mus	-14.1959
▁ыква	-14.1968
IT	-14.1981
▁ильг	-14.1988
▁эйп	-14.1989
▁офь	-14.1995
TR	-14.2005
▁пиф	-14.2007
▁Ur	-14.2015
▁7)	-14.2018
дыш	-14.2027
▁арга	-14.2029
гей	-14.2033
▁Ban	-14.2038
▁pla	-14.2047
aja	-14.2052
ПМ	-14.2054
ПТ	-14.2054
▁MD	-14.2056
▁мач	-14.2071
▁Arm	-14.2077
▁Roo	-14.2081
▁гаф	-14.2087
▁Delf	-14.2087
▁рвен	-14.2096
▁Ap	-14.2101
AV	-14.2103
▁sto	-14.2104
▁aar	-14.2108
▁Eu	-14.2113
▁Cla	-14.2115
▁лтик	-14.2115
▁Dr	-14.2122
▁ижу	-14.2127
▁mk	-14.2132
▁mul	-14.2136
▁cop	-14.2139
▁une	-14.2148
▁Medi	-14.2153
ИРО	-14.2157
▁айли	-14.216
59	-14.2166
▁нха	-14.2169
▁Pin	-14.2176
▁орчу	-14.218
▁чус	-14.2192
▁ирзо	-14.2226
▁iz	-14.223
uma	-14.2246
▁Ul	-14.2248
▁mag	-14.2257
▁ST	-14.2263
▁Wil	-14.2268
▁озел	-14.2283
1)	-14.229
▁отье	-14.2298
MV	-14.23
▁Zoo	-14.2312
▁mod	-14.2314
▁ail	-14.2324
uss	-14.2331
man	-14.2343
▁АСИ	-14.2347
▁Af	-14.2355
▁вору	-14.2357
ЭМ	-14.2358
DA	-14.2395
▁Qa	-14.2399
▁stan	-14.24
▁Nu	-14.2415
▁kie	-14.2417
▁Imp	-14.2423
▁ICA	-14.2428
▁апш	-14.243
▁КОР	-14.2436
ji	-14.245
▁Pred	-14.2454
▁pec	-14.246
▁lik	-14.2487
▁луш	-14.2515
▁RO	-14.2537
▁Rol	-14.2554
07	-14.2555
▁урь	-14.2568
▁яще	-14.2574
▁льба	-14.2575
LT	-14.2582
FF	-14.2589
▁НЭ	-14.259
джо	-14.2602
рчев	-14.2614
▁ES	-14.2615
унь	-14.2626
▁ушин	-14.263
ефан	-14.2631
▁КСП	-14.2636
ржи	-14.265
▁зень	-14.2652
▁ГАС	-14.2657
▁cht	-14.2668
MD	-14.2671
▁cas	-14.2671
▁wo	-14.2673
▁тюг	-14.2675
БУЗ	-14.2676
HS	-14.2679
МБ	-14.2684
ö	-14.2685
©	-14.2685
▁Coupe	-14.2685
▁Maps	-14.2685
▁РАМН	-14.2685
▁5:1	-14.2685
▁Prada	-14.2685
▁glo	-14.2685
▁Hear	-14.2685
▁югге	-14.2685
▁уфман	-14.2685
▁WWD	-14.2686
▁Prius	-14.2686
▁look	-14.2686
▁FAT	-14.2687
▁rew	-14.2687
▁East	-14.2687
▁Bir	-14.2687
УП	-14.2688
▁Bru	-14.2688
▁1⁄2	-14.2689
▁ОССИ	-14.2689
▁Pop	-14.269
▁lip	-14.269
▁0%	-14.269
▁$36	-14.269
▁ФН	-14.269
▁дюжи	-14.2691
▁лафи	-14.2692
▁CD	-14.2692
▁ухум	-14.2694
▁Ger	-14.2694
▁NN	-14.2695
▁УЛЬ	-14.2695
▁SX	-14.2695
▁йрес	-14.2701
▁МАУ	-14.2702
ЭИ	-14.2703
▁Er	-14.2704
▁ВМ	-14.2706
тюх	-14.2708
▁353	-14.2709
▁икке	-14.2713
▁352	-14.2713
▁улья	-14.2713
▁ip	-14.2716
▁387	-14.272
▁Silv	-14.2721
▁499	-14.2724
▁чиев	-14.2725
▁Schi	-14.2725
ИГ	-14.2726
▁326	-14.2728
▁Call	-14.2728
▁Ship	-14.2728
▁Haw	-14.2734
▁351	-14.2735
▁БИН	-14.2736
▁323	-14.2739
▁Mont	-14.274
▁рбон	-14.2743
▁put	-14.2743
▁юнь	-14.2744
▁Dut	-14.2745
▁259	-14.2745
▁316	-14.2747
gie	-14.2748
▁аргу	-14.2749
▁Lit	-14.275
▁283	-14.2751
▁эйг	-14.2757
▁чанин	-14.2758
▁ндау	-14.276
orn	-14.2761
▁261	-14.2761
▁570	-14.2762
▁273	-14.2763
▁284	-14.2767
▁лбр	-14.2769
▁МИА	-14.2773
▁Sain	-14.2773
▁161	-14.2778
▁mpi	-14.2782
▁3;	-14.2784
▁ТЭ	-14.2787
ost	-14.2791
▁289	-14.28
▁аулю	-14.2803
▁НЗ	-14.2805
▁кейт	-14.2809
▁ene	-14.2809
▁UC	-14.2812
▁241	-14.2812
▁КЦ	-14.282
▁Hat	-14.2822
▁тень	-14.2824
▁ерце	-14.2825
ild	-14.2832
ОД	-14.2836
▁pic	-14.2837
▁ЕН	-14.284
▁клас	-14.2843
▁Dyn	-14.2846
▁277	-14.2852
ET	-14.2862
▁bro	-14.2865
зиан	-14.2869
▁Wav	-14.287
▁ИИС	-14.2872
важ	-14.2872
▁227	-14.2873
БИ	-14.2874
IR	-14.2879
▁ssa	-14.2883
aul	-14.2883
▁pres	-14.2883
OL	-14.2885
4)	-14.2891
▁fin	-14.2893
▁217	-14.2905
2)	-14.291
▁лабан	-14.2911
▁MC	-14.2922
▁агна	-14.2934
▁айса	-14.2935
ars	-14.2943
▁Lum	-14.2953
▁льмар	-14.2953
▁РБ	-14.2968
82	-14.2974
▁Mis	-14.2977
▁рвих	-14.2978
▁og	-14.2982
РИС	-14.2984
▁gra	-14.2985
▁Kin	-14.2989
айя	-14.2996
▁парх	-14.2997
rge	-14.3
▁БК	-14.3006
▁Mak	-14.3006
дзо	-14.3011
▁lat	-14.3016
▁гума	-14.302
▁МЦ	-14.3041
ФР	-14.3044
▁УрФ	-14.3046
▁lar	-14.3054
▁Spic	-14.3055
▁Pers	-14.306
FE	-14.3065
▁лба	-14.3083
val	-14.3088
lc	-14.3089
уэл	-14.3094
▁марш	-14.3105
oul	-14.312
▁Kha	-14.3141
кры	-14.3142
▁DE	-14.316
duc	-14.3169
вэн	-14.3173
▁Kir	-14.3186
▁ивней	-14.3189
▁юкве	-14.3189
▁Hen	-14.3191
▁Jum	-14.3191
▁имба	-14.3197
▁асеч	-14.3206
▁str	-14.321
▁iv	-14.3216
▁ллио	-14.3217
▁НАП	-14.3217
des	-14.3218
рым	-14.3218
RI	-14.3219
ЛЬ	-14.3231
▁bot	-14.3236
rm	-14.3236
▁РСК	-14.3239
BR	-14.3242
▁Ten	-14.3251
▁MT	-14.3263
▁Emi	-14.3266
lon	-14.3298
▁MA	-14.33
▁оджи	-14.3303
WC	-14.3315
▁DO	-14.332
▁nie	-14.3325
▁Bug	-14.3325
▁Via	-14.3325
▁ON	-14.3326
jo	-14.3336
▁унея	-14.3338
▁Tin	-14.3358
▁Sho	-14.3359
▁via	-14.3374
▁DR	-14.3382
▁хами	-14.339
▁Prin	-14.3391
яшк	-14.3404
сман	-14.3421
▁Ele	-14.345
▁EA	-14.3451
CO	-14.3458
▁Ed	-14.3462
▁ВД	-14.3467
лбан	-14.3487
БВ	-14.3488
uv	-14.3502
АИ	-14.3524
оты	-14.3546
йхе	-14.3563
▁Gla	-14.3564
▁айба	-14.3572
▁gr	-14.3583
rod	-14.3596
▁SC	-14.3633
▁ska	-14.3638
▁Cos	-14.3654
had	-14.366
RB	-14.3664
son	-14.3665
озер	-14.3667
КОМ	-14.37
▁енга	-14.3702
▁льви	-14.3714
▁ФГБ	-14.3727
ЛА	-14.3734
▁NO	-14.3735
ЕМ	-14.3746
▁амбу	-14.3747
▁Shi	-14.3754
▁ЦИ	-14.3781
AFT	-14.3782
▁PL	-14.3787
▁ПП	-14.38
▁шень	-14.3801
▁Zer	-14.3813
рюш	-14.3832
ЗК	-14.3845
▁олби	-14.3852
ЦР	-14.3855
RS	-14.3856
ja	-14.3856
▁CB	-14.3856
шью	-14.3859
▁SAN	-14.3877
ИХ	-14.3881
▁уцк	-14.3899
UB	-14.3908
▁€5	-14.391
AN	-14.3919
▁арба	-14.3923
uk	-14.3928
▁ГТО	-14.3928
́	-14.3935
‒	-14.3935
▁5:0	-14.3935
▁AFI	-14.3935
▁Echo	-14.3935
▁Xray	-14.3935
▁£4	-14.3935
▁БЭСП	-14.3935
▁Edge	-14.3935
▁Styl	-14.3935
▁Snow	-14.3935
▁Happ	-14.3935
▁jour	-14.3935
▁Infr	-14.3935
▁Road	-14.3935
▁THE	-14.3935
▁UCP	-14.3935
▁MDK	-14.3935
▁Cloud	-14.3936
▁spar	-14.3936
▁CNG	-14.3936
▁MMA	-14.3936
▁low	-14.3936
▁ТОФ	-14.3936
▁Glor	-14.3936
▁bow	-14.3936
▁MIP	-14.3936
ЖС	-14.3936
▁AMO	-14.3937
ant	-14.3937
▁doc	-14.3937
▁GQ	-14.3937
▁НИКО	-14.3937
▁NX	-14.3939
▁ob	-14.3939
▁Vine	-14.3939
▁Ross	-14.3939
БЗ	-14.3942
▁АМАС	-14.3944
▁НОД	-14.3946
▁€3	-14.3946
▁space	-14.3947
▁ръ	-14.3948
▁ОЛЕ	-14.3949
ТЭК	-14.3951
▁391	-14.3957
▁Tet	-14.3958
▁Aft	-14.3959
▁IMA	-14.3961
▁Down	-14.3962
▁458	-14.3962
▁ЛЕК	-14.3962
▁203	-14.3963
▁Pep	-14.3963
▁jo	-14.3964
▁372	-14.3964
▁385	-14.3968
▁br	-14.3969
▁стриц	-14.397
▁342	-14.3971
▁338	-14.3973
Их	-14.3973
▁ABS	-14.3975
▁364	-14.3975
▁gam	-14.3976
▁389	-14.3976
▁344	-14.3977
▁ead	-14.3977
▁463	-14.3978
▁gur	-14.398
▁ТКО	-14.3981
▁362	-14.3983
▁тюрь	-14.3989
▁hen	-14.3995
▁0:4	-14.3998
▁335	-14.4
▁296	-14.4001
▁1:4	-14.4002
II	-14.4004
▁Scot	-14.4004
▁Meta	-14.4006
▁266	-14.401
RT	-14.4011
▁313	-14.4011
▁уфт	-14.4015
▁Zen	-14.4017
▁uk	-14.402
▁412	-14.4021
▁419	-14.4022
▁АКС	-14.4026
▁345	-14.4027
▁КАД	-14.4027
▁Pre	-14.4028
▁288	-14.4031
▁231	-14.4031
▁ОШ	-14.4033
ОЙ	-14.4034
ov	-14.4038
▁254	-14.4044
▁cou	-14.4046
ez	-14.4048
▁312	-14.4048
▁кмал	-14.405
▁мкоа	-14.4051
▁Mun	-14.4058
▁NI	-14.406
▁322	-14.4066
▁ОН	-14.4068
▁244	-14.4074
▁УМ	-14.4083
▁урдж	-14.4094
▁kor	-14.4095
ВЗ	-14.4098
▁Sana	-14.4102
▁7:	-14.4107
▁ear	-14.4107
▁Ola	-14.4119
▁Dell	-14.412
▁туже	-14.4134
▁lea	-14.4149
▁510	-14.4158
▁hea	-14.4159
▁лиха	-14.4165
▁РМ	-14.4167
▁КАР	-14.417
▁(-	-14.4181
pi	-14.4186
▁епто	-14.4199
▁Pod	-14.4201
▁Peac	-14.4202
▁нбар	-14.4204
риг	-14.4207
▁СТО	-14.4208
▁смея	-14.4209
una	-14.4214
▁ED	-14.4216
йфу	-14.4224
▁Sher	-14.4229
▁миха	-14.4229
▁лофа	-14.4232
▁варца	-14.4233
▁ПФ	-14.4272
уху	-14.4275
сюк	-14.4281
▁Fri	-14.4293
VA	-14.4301
GI	-14.4304
tel	-14.4306
▁игье	-14.4309
▁азух	-14.4328
ВЦ	-14.4334
▁ануа	-14.4335
▁оржо	-14.4336
▁Work	-14.4338
oli	-14.4347
▁МЗ	-14.4351
▁Kor	-14.4359
▁Whe	-14.4363
▁ринь	-14.4376
▁Hai	-14.4398
▁Jan	-14.441
▁nn	-14.4429
▁Oy	-14.4433
gu	-14.4443
▁set	-14.4472
▁мкин	-14.4476
МВ	-14.4496
▁Sai	-14.45
▁gio	-14.4501
ФТ	-14.4508
▁Mul	-14.4511
ренг	-14.4514
▁Kan	-14.4518
▁угле	-14.4523
GM	-14.4542
▁Equ	-14.4551
SIS	-14.4559
MX	-14.4562
▁эйве	-14.457
pan	-14.4572
▁nin	-14.4573
▁рюш	-14.4578
▁оджа	-14.4582
умб	-14.4586
▁ran	-14.4589
▁Hum	-14.4604
ЦИ	-14.4614
rem	-14.4616
▁Fab	-14.4617
емон	-14.4623
▁ros	-14.4624
▁top	-14.4632
▁Sud	-14.4669
▁ибут	-14.4671
▁Phi	-14.4671
ицын	-14.4681
▁Swis	-14.4696
▁Bud	-14.4705
▁Fede	-14.4713
▁DI	-14.4754
▁EV	-14.4756
▁Ken	-14.4767
▁Carl	-14.4775
▁ast	-14.4778
raz	-14.4798
▁whi	-14.482
▁Gri	-14.4828
▁орлу	-14.4846
МД	-14.4847
дага	-14.4851
▁енги	-14.4853
▁РГС	-14.4862
▁kin	-14.4865
РВ	-14.4872
▁tas	-14.491
▁бзе	-14.4912
▁орха	-14.4917
▁тоща	-14.4925
▁Io	-14.4928
▁Tha	-14.4947
▁ll	-14.495
▁FIA	-14.497
▁Frie	-14.4971
▁fie	-14.4976
▁MR	-14.4978
▁ЕД	-14.4993
ПЭ	-14.5003
▁cc	-14.5004
▁уэля	-14.5012
▁Jav	-14.5013
▁plu	-14.5051
▁TR	-14.5058
▁Sca	-14.5059
ИЭ	-14.5088
▁BG	-14.5088
ВЕ	-14.511
НГ	-14.5111
▁айро	-14.5117
▁nad	-14.513
▁Ib	-14.5136
ndi	-14.5144
▁hal	-14.5151
ОБР	-14.5177
Tu	-14.519
▁Dy	-14.5191
▁Roc	-14.5203
▁ABB	-14.5229
▁Thr	-14.5236
▁ї	-14.5244
ЕХ	-14.5249
▁bon	-14.5272
8)	-14.5278
ффер	-14.5282
▁АПС	-14.5286
yl	-14.53
ЕРН	-14.5302
▁ГАУ	-14.5309
▁КРС	-14.5312
фян	-14.5332
ДЦ	-14.5337
TM	-14.5344
АРА	-14.5346
▁Kon	-14.5346
lica	-14.5356
▁wid	-14.5358
qua	-14.5363
▁4:0	-14.5364
▁6:0	-14.5364
▁Baidu	-14.5364
▁Hürr	-14.5364
▁IIHF	-14.5364
▁Point	-14.5364
▁БАМ	-14.5364
▁НВФ	-14.5364
▁Crim	-14.5364
▁TASS	-14.5364
▁Verge	-14.5364
▁Assi	-14.5364
▁Symp	-14.5364
▁нибок	-14.5364
▁gnum	-14.5364
▁HER	-14.5364
▁Roust	-14.5364
▁Sno	-14.5364
▁Niva	-14.5364
▁Lif	-14.5364
▁lm	-14.5364
▁Aqua	-14.5364
▁Iris	-14.5364
▁Want	-14.5364
▁GMP	-14.5365
▁Ips	-14.5365
▁Eye	-14.5365
▁hip	-14.5366
▁hro	-14.5366
▁lux	-14.5366
▁tus	-14.5366
▁NL	-14.5366
▁IBO	-14.5367
▁HP	-14.5367
▁1⁄	-14.5368
▁Bab	-14.5368
▁УЛАГ	-14.5368
▁SH	-14.5368
▁нюха	-14.5369
▁gm	-14.5369
'	-14.7023
þ	-14.7031
°	-14.8398
ъ	-14.8839
−	-14.9023
*	-14.9023
>	-15.1523
]	-15.1523
\	-15.1531
μ	-15.1531
ў	-15.1531
‍	-15.1531
😂	-15.1531
#	-15.4857
­	-15.4857
¦	-15.4864
¬	-15.4864
à	-15.4864
Ş	-15.4864
Ν	-15.4864
α	-15.4864
β	-15.4864
Ў	-15.4864
қ	-15.4864
‪	-15.4864
Ö	-15.4864
⁄	-15.9827
І	-15.9856
ŏ	-15.9864
í	-15.9864
ð	-15.9864
ç	-15.9864
ī	-15.9864
ś	-15.9864
Š	-15.9864
ʀ	-15.9864
Α	-15.9864
Η	-15.9864
ν	-15.9864
ο	-15.9864
▲	-15.9864
⚽	-15.9864
️	-15.9864
ʼ	-15.9864
ғ	-16.9848
џ	-16.9849
ı	-16.985
ô	-16.9851
ê	-16.9852
ë	-16.9853
É	-16.9854
~	-16.9855
‬	-16.9856
è	-16.9857
Щ	-16.9857
=	-16.9857
→	-16.9858
£	-16.9859
[	-16.986
€	-16.9861
$	-16.9862
%	-16.9863
¤	-16.9864
¥	-16.9864
§	-16.9864
Ë	-16.9864
ß	-16.9864
á	-16.9864
ø	-16.9864
ā	-16.9864
İ	-16.9864
Ł	-16.9864
ń	-16.9864
ş	-16.9864
š	-16.9864
̈	-16.9864
̊	-16.9864
Έ	-16.9864
Γ	-16.9864
Σ	-16.9864
έ	-16.9864
λ	-16.9864
ρ	-16.9864
τ	-16.9864
χ	-16.9864
ώ	-16.9864
Є	-16.9864
Ї	-16.9864
Қ	-16.9864
ҳ	-16.9864
ӣ	-16.9864
∙	-16.9864
⋅	-16.9864
─	-16.9864
►	-16.9864
●	-16.9864
☃	-16.9864
☝	-16.9864
♫	-16.9864
❄	-16.9864
《	-16.9864
》	-16.9864
	-16.9864
🌞	-16.9864
🍺	-16.9864
🎂	-16.9864
🐅	-16.9864
🐗	-16.9864
🐺	-16.9864
💪	-16.9864
(	-16.9864
ę	-16.9864
