<unk>	0
<s>	0
</s>	0
,	-3.6676
е	-3.70002
▁	-3.74175
а	-3.75493
▁в	-3.78561
и	-3.91373
.	-4.03793
▁и	-4.17348
й	-4.22038
▁,	-4.27075
▁.	-4.43323
м	-4.47164
▁на	-4.51684
▁"	-4.52335
х	-4.54298
▁с	-4.69929
ы	-4.7553
я	-4.83775
▁-	-4.86797
▁не	-4.89774
у	-4.9578
▁по	-5.01966
▁что	-5.10559
о	-5.17559
ов	-5.20369
го	-5.27728
-	-5.27895
т	-5.35457
▁а	-5.46763
▁В	-5.48185
"	-5.50224
ь	-5.57784
ю	-5.62135
▁за	-5.64445
▁о	-5.6511
▁у	-5.6518
ся	-5.67895
ом	-5.70446
л	-5.71129
▁к	-5.72924
▁из	-5.79469
ой	-5.8355
в	-5.95645
▁от	-5.98821
с	-5.99548
ть	-6.06741
ет	-6.13199
▁(	-6.14134
ая	-6.23434
ли	-6.2729
▁до	-6.27884
для	-6.29944
▁был	-6.30856
▁С	-6.3482
▁По	-6.3567
▁это	-6.3834
▁как	-6.38775
н	-6.40712
▁которы	-6.41054
▁при	-6.4112
▁года	-6.41334
▁",	-6.43542
:	-6.45226
д	-6.4819
▁России	-6.5063
▁:	-6.52999
ую	-6.53975
▁но	-6.5685
▁его	-6.59241
ого	-6.59265
ми	-6.60264
ем	-6.60457
з	-6.62663
▁он	-6.67291
ей	-6.68554
ки	-6.68996
ка	-6.72197
но	-6.72626
ных	-6.72912
▁На	-6.76533
▁все	-6.77107
▁со	-6.79683
▁этом	-6.80295
▁А	-6.80904
▁про	-6.81698
▁под	-6.82047
к	-6.82369
ам	-6.86931
▁И	-6.87267
▁об	-6.87945
ной	-6.89714
ит	-6.89775
▁будет	-6.91583
ами	-6.92552
▁м	-6.9338
▁раз	-6.94689
п	-6.95339
▁году	-6.95469
ен	-6.96399
ного	-6.97423
р	-6.98257
бы	-6.98337
▁".	-6.99128
▁также	-6.99774
ла	-7.0102
то	-7.01895
▁то	-7.01914
на	-7.02095
ш	-7.0467
▁так	-7.07267
ч	-7.07837
ст	-7.09016
▁уже	-7.11008
ж	-7.11294
▁же	-7.11327
б	-7.11685
)	-7.12602
▁было	-7.14601
ные	-7.14985
▁вы	-7.1679
▁время	-7.17765
ни	-7.20084
ют	-7.20347
▁том	-7.20907
▁У	-7.23334
▁К	-7.23414
▁я	-7.23906
ку	-7.23947
за	-7.24006
еще	-7.24718
С	-7.25969
г	-7.26087
ный	-7.26822
▁во	-7.26931
▁мы	-7.27533
ок	-7.2922
▁или	-7.29952
▁только	-7.30214
▁после	-7.30289
▁О	-7.32104
▁США	-7.32238
▁лет	-7.32551
ить	-7.32785
ев	-7.32805
лись	-7.33187
ал	-7.3378
▁того	-7.34387
▁Но	-7.35249
▁пере	-7.35362
ых	-7.35668
▁может	-7.35962
▁более	-7.3747
ков	-7.38184
он	-7.40359
▁Как	-7.41553
му	-7.41993
ться	-7.4276
▁их	-7.43748
ная	-7.43878
▁?	-7.44285
ным	-7.44363
ется	-7.45586
▁ее	-7.46698
ил	-7.4768
лась	-7.4815
ин	-7.48661
▁РФ	-7.48698
▁они	-7.49684
▁человек	-7.50256
▁заявил	-7.5081
ф	-7.51795
0	-7.52599
ра	-7.52652
▁Он	-7.53617
▁г	-7.54331
▁бы	-7.54412
▁котор	-7.55646
лся	-7.56064
ло	-7.57118
ются	-7.57738
ную	-7.57765
▁есть	-7.57793
▁За	-7.58325
же	-7.58877
▁1	-7.59051
▁При	-7.59305
▁2016	-7.59986
ый	-7.60238
▁ли	-7.60715
▁Это	-7.60884
те	-7.60905
К	-7.60985
▁которо	-7.61696
щ	-7.62882
▁Об	-7.64142
не	-7.64222
ко	-7.64755
▁этого	-7.64816
ва	-7.65167
ан	-7.65685
▁словам	-7.65763
да	-7.66419
ать	-7.68303
▁руб	-7.68692
А	-7.69273
▁области	-7.6957
сти	-7.70093
ым	-7.7035
▁Так	-7.71617
▁2015	-7.71841
▁Я	-7.72025
ор	-7.72569
▁млн	-7.73118
если	-7.73197
▁чем	-7.73346
ник	-7.73884
▁ом	-7.73972
▁П	-7.74074
ской	-7.74469
▁Не	-7.74707
",	-7.75056
▁будут	-7.75478
▁тем	-7.75564
▁суд	-7.75608
%	-7.75716
ль	-7.76886
ер	-7.77612
▁без	-7.77736
e	-7.77921
▁когда	-7.78231
▁ни	-7.78356
ля	-7.7885
o	-7.79012
В	-7.79026
▁М	-7.79579
▁ов	-7.80124
1	-7.8065
▁она	-7.81287
ят	-7.81489
▁быть	-7.81959
▁можно	-7.823
▁рублей	-7.82472
▁глав	-7.83078
▁)	-7.83338
▁где	-7.84229
▁очень	-7.84826
▁эти	-7.84883
Р	-7.85261
▁компании	-7.85456
ны	-7.85953
▁российски	-7.85961
▁Ф	-7.86381
3	-7.86426
▁стал	-7.86569
▁страны	-7.86778
▁млрд	-7.86975
че	-7.87447
▁год	-7.87538
О	-7.88017
ение	-7.88528
М	-7.89061
вер	-7.89312
ского	-7.89516
сколько	-7.89599
▁сообщает	-7.89799
▁результат	-7.90856
▁10	-7.91255
от	-7.91267
▁сказал	-7.9131
ке	-7.91447
ру	-7.91732
2	-7.91864
▁могу	-7.91896
▁них	-7.92083
▁Г	-7.9255
▁тысяч	-7.92677
▁2	-7.93217
s	-7.93402
▁один	-7.9414
▁свое	-7.94206
де	-7.94681
▁ми	-7.9515
".	-7.95802
ти	-7.95861
▁).	-7.96355
П	-7.96428
▁8	-7.96883
▁больше	-7.96902
▁Д	-7.97891
▁Александр	-7.97968
▁сообщил	-7.98814
▁данным	-7.98947
ru	-7.99363
ский	-7.99757
▁тыс	-7.9981
▁Владимир	-7.99961
Б	-8.00633
▁нас	-8.00685
Ъ	-8.01207
▁Т	-8.01488
▁два	-8.01584
даже	-8.0197
4	-8.02882
▁Серге	-8.0307
ри	-8.0401
Д	-8.04413
5	-8.05317
▁),	-8.05543
Т	-8.05913
ном	-8.06461
около	-8.0695
ар	-8.06987
▁против	-8.06996
ив	-8.07096
▁Россия	-8.07265
▁пресс	-8.07388
али	-8.0754
▁сейчас	-8.07856
▁Б	-8.08231
ре	-8.08639
▁Украины	-8.08793
▁20	-8.092
тор	-8.09394
ает	-8.09421
га	-8.0947
▁отметил	-8.0956
▁всего	-8.09646
об	-8.0984
▁президента	-8.10654
▁3	-8.10806
ец	-8.10885
9	-8.1111
▁4	-8.11159
▁6	-8.11377
▁этот	-8.11516
ще	-8.11626
вал	-8.11661
кр	-8.12219
▁нет	-8.12339
▁пол	-8.12571
8	-8.12678
▁решение	-8.1286
▁Ране	-8.12965
▁Ес	-8.13313
ут	-8.13592
ши	-8.1416
И	-8.15093
▁15	-8.15105
▁ре	-8.15147
ду	-8.15474
▁5	-8.15845
▁ся	-8.15986
ба	-8.16304
ения	-8.16337
▁вопрос	-8.17194
▁пока	-8.17396
по	-8.17456
▁рас	-8.17555
до	-8.17853
ают	-8.17949
▁9	-8.17985
ск	-8.18012
▁н	-8.18549
ча	-8.18591
▁всех	-8.1873
6	-8.18754
стр	-8.18934
i	-8.18988
▁Мы	-8.19151
▁ш	-8.1929
▁между	-8.19372
▁п	-8.19969
▁момент	-8.2026
лен	-8.20639
▁само	-8.2128
▁стран	-8.21301
вою	-8.21318
a	-8.21418
▁президент	-8.21513
▁города	-8.21615
сть	-8.21948
ель	-8.22087
▁много	-8.22174
▁12	-8.22251
▁Р	-8.22312
жи	-8.22679
▁7	-8.22845
▁себя	-8.23091
би	-8.23878
▁цен	-8.24396
ци	-8.24441
▁Ш	-8.24501
ему	-8.24603
через	-8.24628
ди	-8.24655
щи	-8.25122
▁двух	-8.25149
▁Однако	-8.25276
▁числе	-8.25499
▁кто	-8.25574
ное	-8.25633
Н	-8.2567
▁ы	-8.25687
ств	-8.25752
▁Сирии	-8.25805
ние	-8.25856
тер	-8.26129
▁Да	-8.26178
▁перед	-8.26409
▁лиш	-8.26517
У	-8.2699
Ф	-8.2753
▁те	-8.27708
▁начал	-8.27799
ро	-8.27802
▁являет	-8.2793
▁три	-8.28139
▁новы	-8.28787
ских	-8.28834
▁передает	-8.2889
Г	-8.29206
ос	-8.29228
или	-8.29307
си	-8.29363
▁отношени	-8.29451
▁меня	-8.2968
лось	-8.29873
▁Кром	-8.30585
вод	-8.30742
ги	-8.31029
▁...	-8.31807
▁день	-8.32005
▁Дмитри	-8.32201
▁пред	-8.32265
ская	-8.32501
▁власти	-8.32732
▁ко	-8.32751
▁!	-8.32758
▁глава	-8.33249
▁11	-8.33286
▁Все	-8.33306
▁18	-8.33675
чи	-8.33698
▁Путин	-8.33715
▁российско	-8.33847
▁2014	-8.34279
мен	-8.34669
▁Москве	-8.34862
из	-8.34881
ния	-8.3497
▁ч	-8.35039
▁де	-8.35226
ров	-8.35486
▁сегодня	-8.35537
ик	-8.35801
ед	-8.3592
▁последни	-8.36049
▁состав	-8.36391
▁дело	-8.36407
▁над	-8.36432
▁место	-8.36545
ол	-8.36715
ступ	-8.37464
▁первы	-8.37479
▁S	-8.37558
▁просто	-8.38001
▁таки	-8.38064
▁граждан	-8.3831
▁должны	-8.38597
u	-8.3902
▁Lenta	-8.3913
▁работы	-8.3945
ись	-8.39933
ое	-8.39936
оз	-8.40024
ист	-8.401
▁счет	-8.40131
вести	-8.40226
▁проект	-8.40369
нов	-8.40888
▁д	-8.41006
ц	-8.41255
▁ный	-8.42059
гр	-8.42148
▁безопасности	-8.42301
▁стороны	-8.42556
▁л	-8.42651
▁30	-8.43141
▁связи	-8.43254
▁До	-8.43299
7	-8.43552
ца	-8.43553
▁СМИ	-8.43737
▁людей	-8.43737
▁случае	-8.43826
t	-8.43988
тель	-8.4467
▁З	-8.44687
▁ные	-8.45151
▁других	-8.45387
▁рассказал	-8.4608
▁16	-8.46593
Л	-8.46594
ир	-8.46883
▁пре	-8.47083
▁ф	-8.47612
▁ранее	-8.477
ний	-8.47787
▁Напомним	-8.48262
▁мира	-8.48303
▁14	-8.48337
ек	-8.48469
тро	-8.4849
▁13	-8.48668
са	-8.48968
▁причин	-8.4914
ском	-8.49179
ну	-8.49517
РИА	-8.49758
▁территории	-8.49802
▁ходе	-8.50224
▁После	-8.50461
▁свои	-8.50552
▁жизни	-8.50753
▁считает	-8.5155
▁говорит	-8.51562
▁закон	-8.51772
).	-8.51786
▁компания	-8.51919
▁нужно	-8.52081
▁17	-8.52088
ход	-8.52173
▁организации	-8.52193
▁марта	-8.52457
▁A	-8.52574
ство	-8.52914
▁тех	-8.53326
э	-8.53432
▁участие	-8.53675
▁Ма	-8.53897
зи	-8.54014
▁мнению	-8.54141
▁дел	-8.54579
▁банк	-8.54581
▁дела	-8.54732
ства	-8.55247
▁срок	-8.55291
лов	-8.55753
ирован	-8.55861
▁Со	-8.56028
▁да	-8.5621
▁там	-8.56473
▁Про	-8.56532
▁многи	-8.56555
▁стало	-8.56593
аль	-8.56805
ман	-8.56967
▁человека	-8.56995
▁Э	-8.57076
▁своих	-8.57299
ские	-8.57413
▁Москвы	-8.57452
y	-8.57876
бор	-8.58033
уд	-8.58178
раж	-8.58462
▁прав	-8.58492
▁Новости	-8.58614
лад	-8.58655
ня	-8.58881
▁Алексе	-8.58985
▁пост	-8.59258
▁период	-8.5927
сп	-8.59297
▁Е	-8.5942
er	-8.59859
▁почти	-8.59863
▁господин	-8.59903
ности	-8.5992
ировать	-8.60113
бр	-8.60276
ур	-8.60354
цы	-8.60492
▁Ре	-8.60534
d	-8.60745
▁объем	-8.60889
▁сам	-8.61098
▁р	-8.61107
▁ных	-8.61114
▁партии	-8.61212
ста	-8.61311
▁Во	-8.6137
мер	-8.61582
▁него	-8.61643
▁ТАСС	-8.61833
нд	-8.61857
▁именно	-8.6194
▁гор	-8.62146
ось	-8.62417
вы	-8.62576
▁средств	-8.62884
▁детей	-8.62953
должен	-8.62962
▁Андре	-8.63607
ту	-8.63664
▁Сегодня	-8.63724
▁воз	-8.64179
▁люди	-8.64395
▁Ле	-8.64445
ян	-8.64673
▁известно	-8.64718
▁B	-8.64732
▁ка	-8.64776
▁Х	-8.65018
ран	-8.6525
▁часть	-8.65288
▁дома	-8.65355
дел	-8.65439
▁премьер	-8.65479
▁апреля	-8.65482
▁25	-8.6569
▁однако	-8.66062
▁говорится	-8.66128
енко	-8.66145
▁стали	-8.66154
▁сентября	-8.66155
па	-8.6644
ась	-8.66674
▁з	-8.66943
▁т	-8.67092
ина	-8.67217
ность	-8.67335
▁друг	-8.67486
▁стране	-8.67523
▁уголовно	-8.67664
кин	-8.67958
p	-8.68073
атор	-8.68106
▁рамка	-8.68246
▁процесс	-8.6827
нию	-8.68471
▁Ц	-8.68579
ус	-8.68599
▁государства	-8.68956
оч	-8.69007
▁представитель	-8.69116
▁б	-8.69269
▁C	-8.6944
▁Ко	-8.69465
лин	-8.69473
▁правительства	-8.69711
n	-8.69714
▁P	-8.69822
овой	-8.70022
тся	-8.70078
▁Ка	-8.70173
овых	-8.70184
ально	-8.70211
пис	-8.70267
▁19	-8.70283
▁ной	-8.70523
▁То	-8.7074
▁стать	-8.71023
▁Ба	-8.7103
▁22	-8.71377
▁мо	-8.71765
пол	-8.71891
▁котором	-8.71967
▁рост	-8.72094
▁ного	-8.72139
▁одной	-8.72519
ест	-8.72545
сь	-8.72647
▁идет	-8.72946
▁пор	-8.72953
▁одного	-8.73051
лив	-8.73061
вар	-8.73075
▁Дл	-8.73161
▁февраля	-8.73417
▁Из	-8.73514
▁сообщили	-8.73587
род	-8.73668
шел	-8.73875
ями	-8.74285
▁та	-8.74292
▁Де	-8.74361
ряд	-8.74594
▁менее	-8.74685
▁образом	-8.74696
k	-8.74969
▁министр	-8.75042
▁21	-8.75209
▁времени	-8.75259
▁наши	-8.75345
▁2017	-8.75354
Э	-8.75401
▁F	-8.75431
▁город	-8.75581
▁возможность	-8.75663
▁мая	-8.75802
▁Ми	-8.76024
▁декабря	-8.76096
▁ноября	-8.76096
▁развития	-8.761
▁самы	-8.76196
▁октября	-8.76572
▁Ар	-8.76636
▁обще	-8.76701
ид	-8.76996
▁э	-8.77031
▁информации	-8.77119
▁24	-8.77226
▁От	-8.77229
фи	-8.77356
рас	-8.77402
ается	-8.77563
оп	-8.77769
▁назад	-8.77816
▁пыта	-8.77866
▁такой	-8.78294
▁некоторы	-8.78403
▁управления	-8.78506
ания	-8.78512
▁право	-8.78539
ент	-8.78603
▁января	-8.78639
▁явля	-8.78759
▁эта	-8.78829
▁другие	-8.78903
дин	-8.78927
раз	-8.78967
▁лиц	-8.79012
m	-8.79222
▁ст	-8.79267
▁части	-8.79403
ша	-8.79548
▁Ж	-8.79675
кой	-8.79841
вин	-8.79983
▁перв	-8.80062
▁Ли	-8.80107
▁ссылк	-8.80111
этому	-8.80151
ак	-8.80158
▁действия	-8.80186
▁ского	-8.8027
▁кон	-8.80421
еж	-8.80716
▁военно	-8.80758
▁конце	-8.80903
▁Совет	-8.81093
▁добавил	-8.81257
▁50	-8.81288
ице	-8.81289
лет	-8.81315
▁Они	-8.81459
ание	-8.81467
овые	-8.81609
w	-8.81677
▁мне	-8.81797
▁гос	-8.81863
▁среди	-8.81925
держ	-8.82088
▁трех	-8.82131
▁Сейчас	-8.82212
овать	-8.82444
▁долларов	-8.82794
ант	-8.82887
▁получил	-8.82909
▁Турции	-8.8298
▁работу	-8.82992
▁тот	-8.83111
▁составил	-8.83161
▁подчеркнул	-8.83199
▁свой	-8.83391
▁потому	-8.83404
▁бо	-8.83404
цев	-8.83584
од	-8.83684
▁ряд	-8.83872
▁директор	-8.83928
ников	-8.83951
кс	-8.84049
▁россиян	-8.84093
▁слова	-8.84097
▁материал	-8.84146
ком	-8.84307
пер	-8.84618
ировал	-8.84664
▁авто	-8.84692
▁ский	-8.84902
▁сотрудник	-8.8499
▁частности	-8.85346
▁себе	-8.85429
▁удалось	-8.85556
ул	-8.85564
ится	-8.85611
▁рынка	-8.85854
▁течение	-8.86004
▁ши	-8.86052
либо	-8.86081
▁готов	-8.86265
▁надо	-8.86407
▁группы	-8.86424
▁назвал	-8.86622
аться	-8.86672
бо	-8.8668
ностью	-8.86743
▁фильм	-8.86755
▁;	-8.86951
ад	-8.87014
▁23	-8.87031
▁качестве	-8.87053
▁ситуации	-8.87059
смотря	-8.87525
▁районе	-8.87585
▁ЕС	-8.87603
оль	-8.87765
пр	-8.87859
S	-8.87938
▁дня	-8.88009
▁своего	-8.88141
▁здесь	-8.88278
▁тогда	-8.8829
▁ную	-8.88532
▁Н	-8.88616
▁мир	-8.88704
цен	-8.88837
▁сил	-8.88875
▁очередь	-8.89262
▁источник	-8.89334
ич	-8.89364
▁вид	-8.89433
▁вместе	-8.89513
▁минут	-8.89531
уш	-8.89607
ры	-8.89657
▁этим	-8.89735
нес	-8.90064
жа	-8.90146
I	-8.90853
ева	-8.90875
▁бюджет	-8.90969
▁должн	-8.91002
▁полиции	-8.91157
▁28	-8.91157
овал	-8.91206
▁экс	-8.91235
ющих	-8.91269
▁ответ	-8.91374
▁деньги	-8.91439
▁Ла	-8.91488
▁Мурманск	-8.91551
сегда	-8.91561
▁заместител	-8.9163
уз	-8.91683
▁тепер	-8.91819
▁ди	-8.91839
тив	-8.91881
▁член	-8.91883
▁находит	-8.91884
▁большо	-8.91912
▁официально	-8.92463
бер	-8.92522
▁Мо	-8.92727
пи	-8.92732
▁форм	-8.9277
▁всем	-8.92901
▁перво	-8.92943
▁0	-8.93354
▁системы	-8.93431
▁кор	-8.93443
▁банка	-8.93479
▁стоит	-8.93635
вший	-8.93651
an	-8.93731
ическо	-8.93821
▁No	-8.93823
ше	-8.93945
▁необходимо	-8.94052
▁центр	-8.94117
▁одно	-8.9412
▁Михаил	-8.94199
▁G	-8.94228
▁Президент	-8.9428
▁сразу	-8.94451
▁эту	-8.9448
▁уровне	-8.94571
▁D	-8.94592
▁связан	-8.9466
ирует	-8.95038
ar	-8.95295
▁своим	-8.95308
▁100	-8.95397
▁лучше	-8.95833
▁газ	-8.95939
▁вот	-8.96199
/	-8.96346
▁пояснил	-8.96587
▁курс	-8.96605
),	-8.96896
▁итога	-8.97091
ун	-8.97146
бе	-8.97188
▁Что	-8.97262
▁комитета	-8.97284
про	-8.97343
l	-8.97347
▁возможно	-8.97527
олог	-8.97538
▁дорог	-8.97587
▁прошлого	-8.97756
тоже	-8.97803
▁сбор	-8.9796
▁200	-8.98034
▁27	-8.9816
▁созда	-8.98325
▁M	-8.98419
▁чего	-8.98582
▁мест	-8.98724
▁состоя	-8.988
▁агентство	-8.98882
сс	-8.98889
▁сделать	-8.99032
ари	-8.99053
▁решения	-8.99125
▁проекта	-8.9934
▁тур	-8.99346
ически	-8.9942
▁26	-8.99541
▁экономическо	-8.99684
▁Вы	-8.99908
ван	-8.99938
▁ным	-9.00065
ика	-9.00162
▁имеет	-9.00295
▁начала	-9.00397
▁наше	-9.00628
g	-9.00744
лей	-9.0101
▁проблем	-9.01172
летни	-9.01299
▁месте	-9.01427
▁конечно	-9.01815
чен	-9.01913
▁Петр	-9.01931
▁появи	-9.02051
▁интернет	-9.02064
▁бес	-9.02117
▁рынке	-9.02152
▁количество	-9.02202
▁деятельности	-9.02505
кон	-9.02517
▁отношения	-9.02566
▁Под	-9.02577
▁меньше	-9.02641
бл	-9.0271
▁суда	-9.02718
▁иностранны	-9.0288
▁сайте	-9.02938
▁августа	-9.02961
▁Л	-9.03064
▁годы	-9.03087
инг	-9.03132
▁хотя	-9.03191
▁ин	-9.03245
▁Га	-9.03403
▁удар	-9.03517
▁Кр	-9.0358
▁E	-9.0386
▁МВД	-9.04
▁задержан	-9.04027
▁машин	-9.04092
▁пять	-9.04103
▁работа	-9.04175
▁пар	-9.0425
ско	-9.04253
▁жизнь	-9.04379
▁например	-9.0446
▁29	-9.04742
▁T	-9.04794
▁Па	-9.05026
▁средства	-9.05062
нос	-9.0512
▁правительство	-9.05349
▁МИД	-9.05374
▁тр	-9.054
▁нефти	-9.05474
▁местны	-9.05718
▁вод	-9.0577
станет	-9.05801
▁H	-9.06057
тельны	-9.06121
вор	-9.06146
▁нового	-9.06266
ющие	-9.06323
▁второй	-9.06329
▁Игор	-9.06359
рен	-9.06682
▁городе	-9.06888
▁отмечает	-9.06896
b	-9.07008
▁Ю	-9.07132
▁мер	-9.0716
ющий	-9.07169
▁новый	-9.07249
▁лидер	-9.07264
пад	-9.07292
▁компаний	-9.07303
ость	-9.07577
▁две	-9.07595
▁па	-9.07649
▁ним	-9.07684
▁плат	-9.07855
▁позволя	-9.0786
▁политическ	-9.07919
▁показател	-9.07968
▁считают	-9.08083
▁провел	-9.08458
▁Ку	-9.0847
бу	-9.08511
▁Ха	-9.08869
ден	-9.08933
▁N	-9.0894
▁четыре	-9.09051
▁помощи	-9.0908
▁признал	-9.09091
00	-9.09106
▁факт	-9.09126
▁внимание	-9.09269
гу	-9.09314
▁автор	-9.0934
▁государственно	-9.09364
▁клуб	-9.09491
оставляет	-9.09528
▁Россию	-9.09553
▁работать	-9.09558
▁настоящее	-9.09568
чин	-9.09585
▁мало	-9.09625
▁бизнес	-9.09662
кор	-9.09746
▁ло	-9.09799
▁депутат	-9.09825
фер	-9.0998
▁социально	-9.10088
пуск	-9.10123
ложен	-9.10187
▁кино	-9.10298
▁июля	-9.10337
▁Трамп	-9.10371
A	-9.1052
▁проведени	-9.10894
▁бывши	-9.11235
ости	-9.11288
▁способ	-9.11319
пе	-9.11761
▁выход	-9.1182
▁посколь	-9.11867
▁Бо	-9.11981
▁региона	-9.12064
▁работ	-9.1217
▁Глава	-9.12401
стра	-9.125
▁данные	-9.12514
▁подготовк	-9.12537
▁s	-9.12602
▁миллионов	-9.12613
▁мог	-9.12704
▁ничего	-9.12734
мат	-9.1274
▁Федерации	-9.12779
каз	-9.12789
▁контракт	-9.1283
▁ООН	-9.12831
пл	-9.12916
▁центра	-9.13081
▁предложил	-9.13138
ении	-9.13164
▁Украине	-9.13169
▁дней	-9.13225
рат	-9.13318
▁сделал	-9.13333
▁стар	-9.13488
ации	-9.13531
or	-9.13599
P	-9.13637
▁мире	-9.13671
рон	-9.13762
▁последне	-9.13958
▁зам	-9.14199
▁одна	-9.1437
▁штраф	-9.14411
▁истории	-9.14411
▁евро	-9.14435
▁40	-9.14531
мин	-9.14601
Интерфакс	-9.1471
▁проблемы	-9.14792
стан	-9.14817
▁Ра	-9.1489
▁часов	-9.14921
▁Су	-9.14987
▁Та	-9.14999
дал	-9.15206
▁самолет	-9.15244
▁получили	-9.15359
▁Никола	-9.15454
воз	-9.15474
C	-9.15482
▁инициатив	-9.15512
дер	-9.15593
al	-9.15596
нского	-9.15598
▁одном	-9.15627
▁Хо	-9.15718
▁голов	-9.15737
▁I	-9.15782
▁своем	-9.15823
▁договор	-9.15891
▁представител	-9.15925
▁ход	-9.1593
▁рук	-9.16083
▁Европы	-9.16321
▁законопроект	-9.16422
▁Че	-9.16483
▁ведомства	-9.16543
▁таким	-9.1655
▁получить	-9.16622
▁информацию	-9.16727
▁Мар	-9.16823
▁должно	-9.16855
ган	-9.16915
▁документ	-9.16949
бил	-9.17038
f	-9.17054
▁сборной	-9.17056
АО	-9.17149
тр	-9.1717
▁Поэтому	-9.17182
h	-9.17204
при	-9.17243
▁выше	-9.17291
▁украински	-9.17422
рыв	-9.17527
▁другой	-9.17528
▁ами	-9.17538
▁Ро	-9.17657
ции	-9.1776
ъ	-9.1785
▁достаточно	-9.17856
▁ку	-9.17922
▁потом	-9.17939
чь	-9.17975
иль	-9.1802
▁Российско	-9.18089
c	-9.18245
▁национально	-9.18252
▁ском	-9.18306
▁приводит	-9.18393
▁прогноз	-9.18459
▁крупны	-9.18586
жен	-9.18653
▁программы	-9.18765
▁администрации	-9.18793
▁Его	-9.18875
▁прошлом	-9.18892
▁доступ	-9.18965
▁W	-9.18966
стер	-9.19016
▁практически	-9.19044
тан	-9.19081
▁сайт	-9.19148
главы	-9.19264
▁эксперт	-9.19419
▁R	-9.19537
▁/	-9.19714
▁L	-9.19808
сон	-9.19923
▁Евгени	-9.19937
▁международно	-9.1998
▁ситуация	-9.20042
полне	-9.20145
▁заявление	-9.20255
on	-9.20512
▁видео	-9.20516
▁ской	-9.20539
▁месяц	-9.20657
▁кредит	-9.20703
▁взрыв	-9.20821
▁места	-9.21021
▁весь	-9.21023
▁месяцев	-9.21067
изм	-9.21136
▁официальны	-9.21142
зы	-9.21395
▁2013	-9.2142
▁тако	-9.21447
▁просмотров	-9.21742
▁сторон	-9.21788
▁Ло	-9.21871
▁Ту	-9.21915
чно	-9.21963
▁этап	-9.22054
▁войны	-9.22202
▁Когда	-9.22213
▁стоимость	-9.22213
▁одним	-9.2227
▁принял	-9.2236
▁американски	-9.22659
▁ра	-9.22676
▁Таки	-9.22681
▁населения	-9.2271
еля	-9.22878
▁военны	-9.22881
ция	-9.22918
ился	-9.22926
Х	-9.23049
▁команды	-9.23123
Е	-9.23129
скую	-9.2322
прочем	-9.23282
▁Кон	-9.23341
▁делать	-9.23404
ниц	-9.23455
▁жителей	-9.23472
чик	-9.23479
З	-9.2348
пас	-9.23502
▁государство	-9.23509
вали	-9.23715
▁тому	-9.23758
▁службы	-9.23781
▁опыт	-9.23802
рез	-9.23825
вид	-9.23839
▁лично	-9.23939
▁ком	-9.23942
▁экономики	-9.24018
▁точк	-9.24088
▁ская	-9.24246
v	-9.24329
фор	-9.24441
▁ная	-9.24448
▁представлен	-9.24456
▁му	-9.24469
▁Ан	-9.24548
▁совет	-9.24555
▁план	-9.24601
▁обо	-9.24602
▁участи	-9.24603
▁свет	-9.24632
▁Тем	-9.24636
▁выступа	-9.24739
российского	-9.24799
▁прошл	-9.24836
▁зон	-9.24895
▁права	-9.24971
кан	-9.25033
▁Госдумы	-9.25042
▁тренер	-9.25341
▁Согласн	-9.25342
дж	-9.25406
Петербург	-9.25433
▁участников	-9.25435
▁рад	-9.2546
▁процентов	-9.25661
▁реализаци	-9.25674
енно	-9.25732
▁31	-9.25847
ович	-9.25906
▁находи	-9.2594
▁впервые	-9.26056
▁число	-9.26107
▁выборов	-9.26234
шим	-9.26323
▁хотел	-9.26331
▁возможности	-9.26379
▁виде	-9.26383
▁карт	-9.26515
▁женщин	-9.26516
▁попытк	-9.26569
▁Виктор	-9.26652
▁объявил	-9.26682
▁рейтинг	-9.26682
нг	-9.26899
гра	-9.26921
▁оказа	-9.26978
▁выборах	-9.27267
ятся	-9.27268
▁цены	-9.27525
▁участник	-9.27646
▁Порошенко	-9.277
▁государственны	-9.27788
ук	-9.27798
▁Германии	-9.27833
▁пяти	-9.2792
есс	-9.2798
йти	-9.27995
чит	-9.28032
▁включа	-9.28043
▁защит	-9.28231
▁запрет	-9.28248
иться	-9.28264
r	-9.28319
▁вопросы	-9.28345
▁различны	-9.28382
▁главны	-9.28404
▁дом	-9.28419
▁вес	-9.28536
▁общественно	-9.28544
▁больш	-9.28556
министр	-9.28624
T	-9.2879
дать	-9.28828
▁повод	-9.28987
▁законодательств	-9.29074
Ru	-9.29172
нул	-9.29194
служ	-9.29289
енные	-9.29309
жу	-9.29419
ясь	-9.29469
ились	-9.29529
▁вывод	-9.29588
re	-9.29598
гер	-9.29609
енных	-9.29644
▁половин	-9.29664
▁интерес	-9.29683
▁Олег	-9.29706
▁Еще	-9.29707
▁политики	-9.29782
▁сотрудников	-9.29818
▁телефон	-9.29889
итель	-9.29928
пал	-9.29961
ируют	-9.29977
▁назначен	-9.30012
▁нефть	-9.30129
чат	-9.30173
Я	-9.30233
▁актив	-9.30281
ra	-9.30282
▁Россией	-9.3035
▁сравнени	-9.3035
▁60	-9.30428
▁вариант	-9.30467
▁меры	-9.30644
▁итоге	-9.30702
вших	-9.30735
▁долго	-9.30744
▁услуг	-9.30817
▁побед	-9.30855
тур	-9.30869
рок	-9.30905
▁федерально	-9.31085
▁комплекс	-9.31116
▁Клинтон	-9.31406
▁га	-9.3144
▁международны	-9.315
▁государств	-9.31513
▁сообщении	-9.31515
▁интервью	-9.31524
▁кур	-9.31595
▁агентства	-9.32188
▁ЦБ	-9.32299
▁встречи	-9.32321
▁арест	-9.32353
▁новой	-9.32444
▁ым	-9.32467
▁тонн	-9.3251
▁первом	-9.3252
▁Бу	-9.32594
вен	-9.32681
▁занима	-9.32696
▁фонд	-9.32728
вая	-9.32842
▁собой	-9.32848
мимо	-9.32855
▁Ди	-9.32951
▁Источник	-9.33192
,5	-9.33287
▁Кор	-9.33416
▁целом	-9.33425
дар	-9.33466
▁обороны	-9.33466
▁движения	-9.33472
▁норм	-9.33559
▁комитет	-9.33632
▁произошло	-9.33634
▁активно	-9.33678
Един	-9.33715
ивать	-9.33751
щик	-9.3376
▁начальник	-9.3385
▁украинско	-9.3385
▁известны	-9.33887
20	-9.3394
▁встреча	-9.34022
твор	-9.34037
▁риск	-9.34066
▁Бел	-9.34106
in	-9.34147
▁фон	-9.34151
▁сети	-9.34242
▁уровень	-9.34279
▁вообще	-9.3428
▁размере	-9.34283
▁Сам	-9.34351
чев	-9.34395
▁V	-9.34419
▁затем	-9.34454
▁руководство	-9.34503
▁перспектив	-9.34522
▁пишет	-9.34644
ток	-9.34649
▁Франции	-9.3465
ление	-9.34753
ска	-9.34789
▁ей	-9.3479
▁улице	-9.34852
▁важно	-9.34892
▁экономически	-9.34997
▁Санкт	-9.35011
▁написал	-9.35016
▁условиях	-9.35081
▁игра	-9.35247
чер	-9.35258
▁принят	-9.35311
дан	-9.35318
▁сами	-9.35489
нский	-9.35515
пример	-9.35619
тар	-9.35624
сов	-9.35649
нер	-9.35752
▁теле	-9.35755
выше	-9.35757
▁которым	-9.35776
▁анти	-9.35782
нин	-9.35846
▁ситуацию	-9.3587
▁атак	-9.35933
▁УК	-9.3604
▁ново	-9.36041
▁врач	-9.36049
▁бюджета	-9.36058
▁данных	-9.3609
▁действительно	-9.36104
ват	-9.36246
▁Му	-9.36299
▁би	-9.36402
▁уверен	-9.36433
▁какие	-9.36476
▁Бр	-9.36497
рос	-9.36552
▁каждый	-9.36609
▁условия	-9.36665
▁помощью	-9.3671
▁центре	-9.36826
▁решил	-9.36902
▁конца	-9.36902
▁получени	-9.36948
▁НАТО	-9.36987
▁ремонт	-9.36994
уют	-9.37122
▁ба	-9.37155
ведения	-9.37228
▁бывше	-9.37282
▁Кар	-9.3733
▁речь	-9.37399
▁создан	-9.37491
▁учет	-9.37634
след	-9.37854
▁ту	-9.37915
кар	-9.37998
▁школ	-9.38063
▁адвокат	-9.38116
▁часто	-9.38251
▁Джон	-9.38338
▁запрещен	-9.38418
▁роста	-9.3849
▁сильно	-9.38536
▁структур	-9.38651
▁сказать	-9.38712
▁обеспечени	-9.38715
▁экспорт	-9.38761
дут	-9.38763
▁никак	-9.38845
▁направлен	-9.38854
ющим	-9.38944
вшие	-9.38953
эт	-9.38977
▁возбужден	-9.39131
▁следует	-9.39132
▁читай	-9.39141
▁самом	-9.39187
йте	-9.39255
▁деятельность	-9.39258
▁организация	-9.39307
▁погибли	-9.39318
▁пользу	-9.39386
▁ла	-9.3949
▁199	-9.39601
▁сел	-9.39623
▁действий	-9.39649
▁третье	-9.39686
▁регионально	-9.39706
▁Новы	-9.3983
▁финансовы	-9.39834
су	-9.39888
▁труд	-9.39912
▁сообщалось	-9.39918
▁ведь	-9.39927
нее	-9.39936
▁министра	-9.39939
▁производства	-9.39957
▁состоит	-9.40156
▁хорошо	-9.40159
шен	-9.40211
▁характер	-9.40284
нс	-9.40458
▁автомобиль	-9.40501
▁Российск	-9.40519
▁Медведев	-9.40543
▁газета	-9.40551
Ц	-9.40668
ично	-9.40698
ала	-9.40758
▁ру	-9.40804
службе	-9.40812
вяз	-9.41007
,6	-9.41017
▁намерен	-9.41084
▁ц	-9.41157
▁Ъ	-9.41248
▁размер	-9.41285
▁помощь	-9.41304
смотр	-9.41482
тельно	-9.41486
▁сообщила	-9.41492
иров	-9.41527
▁понедельник	-9.41582
лог	-9.4164
▁круг	-9.41668
▁канал	-9.41683
▁поиск	-9.41686
▁работает	-9.41703
Газпром	-9.41713
▁Ал	-9.41818
рин	-9.41851
M	-9.41874
▁оказал	-9.41887
летне	-9.41891
▁магазин	-9.41896
йдет	-9.42052
▁парк	-9.42077
цию	-9.42113
▁иск	-9.42119
▁рынок	-9.42238
нова	-9.42263
под	-9.42279
тра	-9.42425
us	-9.42449
ред	-9.42557
▁язык	-9.42638
ставить	-9.42638
▁предприятия	-9.42854
,7	-9.42859
▁цвет	-9.42898
▁пе	-9.42931
▁Ру	-9.43079
▁народ	-9.43106
▁пр	-9.43211
ству	-9.43214
▁подобны	-9.43294
▁наибол	-9.43318
▁погиб	-9.4334
▁вас	-9.43346
▁игр	-9.43432
▁Трампа	-9.43483
▁матче	-9.43495
сен	-9.43505
▁совета	-9.43559
▁заявила	-9.43683
▁чемпион	-9.43713
▁группа	-9.43769
ге	-9.438
▁правоохранитель	-9.4392
▁легко	-9.43932
ООО	-9.43967
et	-9.43993
▁70	-9.44003
▁годов	-9.44018
▁расс	-9.44029
▁СССР	-9.44096
▁пятницу	-9.4423
▁Мир	-9.4425
▁территори	-9.44307
▁версии	-9.44364
▁основны	-9.44633
няя	-9.44747
▁делу	-9.44787
▁ными	-9.4491
▁принято	-9.44949
▁четверг	-9.45038
▁прямо	-9.45039
▁Москва	-9.45045
▁республики	-9.45063
пут	-9.45157
шин	-9.45163
▁среду	-9.45176
▁района	-9.45224
▁установлен	-9.45344
раб	-9.45347
▁месяца	-9.45376
▁особенно	-9.45407
▁Кур	-9.45501
эн	-9.4559
▁образования	-9.45595
▁Европе	-9.4562
▁Ме	-9.45709
▁Дональд	-9.45716
зер	-9.4578
▁никто	-9.45807
лер	-9.45928
▁сфере	-9.46022
▁выросл	-9.46093
▁говорят	-9.46209
шей	-9.4621
▁2012	-9.46274
▁общ	-9.46331
▁давно	-9.46333
▁имени	-9.46342
▁наруш	-9.46431
вел	-9.46487
▁хочет	-9.46543
ски	-9.46634
▁запис	-9.46644
лон	-9.46652
▁работал	-9.46674
▁любо	-9.4671
▁Суд	-9.46783
дор	-9.46791
▁мирово	-9.46877
▁сервис	-9.46953
▁Первы	-9.46962
▁выбор	-9.46967
▁председатель	-9.46994
▁книг	-9.47025
▁старт	-9.47095
▁конкурс	-9.47106
▁Борис	-9.47106
▁порядка	-9.47114
▁какой	-9.47198
▁остров	-9.4722
▁минимум	-9.47225
▁Банк	-9.47242
▁произоше	-9.47293
▁Украина	-9.47398
▁жив	-9.47408
тин	-9.47471
▁цитируе	-9.47507
▁специально	-9.47513
очно	-9.47614
▁ически	-9.47636
▁адрес	-9.47641
▁работе	-9.4769
▁Ни	-9.47702
▁принцип	-9.47779
▁четырех	-9.47823
▁республик	-9.47892
▁аппарат	-9.47919
▁ребенка	-9.47919
▁ное	-9.4793
▁Владимира	-9.47987
могли	-9.47992
▁органов	-9.48035
▁Крыма	-9.48176
▁площадк	-9.48197
▁контроль	-9.48206
▁Кол	-9.48243
▁Ново	-9.48277
▁Алеппо	-9.48337
▁сообщал	-9.48383
▁ты	-9.48392
▁европейски	-9.48403
▁вторник	-9.48481
▁дал	-9.48503
▁самым	-9.48518
▁The	-9.48617
▁призвал	-9.48682
▁изменения	-9.48777
▁особо	-9.48816
▁постоянно	-9.48898
▁Савченко	-9.48899
▁ль	-9.48907
▁высоки	-9.49056
▁актер	-9.4909
▁наблюда	-9.49161
▁данны	-9.49172
▁Ин	-9.49172
-2	-9.49187
нц	-9.49193
гар	-9.49199
▁начали	-9.49247
▁смогу	-9.49277
▁ан	-9.49321
▁Рос	-9.49341
▁быстро	-9.49398
▁Путина	-9.49529
▁роль	-9.49541
Мы	-9.49579
en	-9.49629
шла	-9.49664
▁авиа	-9.49699
▁денег	-9.49745
шлось	-9.4976
▁попал	-9.49795
енный	-9.49807
▁местно	-9.49811
▁допинг	-9.49938
▁придет	-9.49971
▁деле	-9.50028
▁хо	-9.50032
ными	-9.50061
▁наш	-9.50081
ата	-9.50105
▁силы	-9.50119
▁департамент	-9.50171
▁находят	-9.50211
▁люб	-9.50233
▁готовы	-9.50307
▁успех	-9.50313
▁переход	-9.50368
▁отлич	-9.5048
▁номер	-9.50481
▁завод	-9.50522
▁десятк	-9.5066
▁культуры	-9.50717
▁операции	-9.50893
крат	-9.50895
▁говорить	-9.50906
x	-9.51138
▁использовать	-9.51172
▁нельзя	-9.51172
нескольких	-9.51174
иц	-9.51304
▁Те	-9.51388
▁комиссии	-9.51436
нести	-9.51466
▁45	-9.51507
▁второ	-9.51613
▁городско	-9.51634
ница	-9.51781
▁35	-9.51819
▁обнаружен	-9.51894
▁никогда	-9.519
овый	-9.51976
нской	-9.52153
▁конфликт	-9.52173
▁Пол	-9.52174
▁оп	-9.52202
▁первой	-9.52291
ченко	-9.52307
▁кол	-9.52316
лав	-9.52316
лег	-9.52318
▁точно	-9.52334
бол	-9.52361
▁уровня	-9.52368
▁проблема	-9.52379
▁охран	-9.52496
енной	-9.52507
▁согласн	-9.52631
▁нарушения	-9.52651
нев	-9.52769
рк	-9.52973
▁вернуть	-9.5306
пло	-9.53075
▁серьезны	-9.53157
йдут	-9.5317
секретар	-9.53184
▁Песков	-9.53206
▁закона	-9.53255
▁мед	-9.53279
ведение	-9.53334
▁руководитель	-9.5338
▁никаки	-9.5346
нная	-9.53528
▁O	-9.53573
лан	-9.53581
▁подпис	-9.53689
▁газа	-9.53715
▁акции	-9.53796
▁строительство	-9.53814
снова	-9.53863
▁режим	-9.53865
▁чемпионата	-9.53914
▁открыл	-9.53947
банк	-9.54101
▁матч	-9.54121
▁переговоры	-9.54175
дробнее	-9.54203
порт	-9.54225
▁квартир	-9.54251
▁преступления	-9.54315
▁взял	-9.54327
▁рубля	-9.54365
▁пример	-9.54384
▁90	-9.54534
ходят	-9.54567
▁согласи	-9.54568
овсем	-9.54583
▁Фото	-9.54613
жив	-9.54618
ывает	-9.54628
▁пройдет	-9.5466
▁Тогда	-9.54711
таки	-9.54734
▁доход	-9.54739
▁сложно	-9.54759
▁тут	-9.54803
▁собеседник	-9.54833
▁список	-9.54834
▁ближайше	-9.54957
▁Сер	-9.54981
▁текуще	-9.54982
▁Известия	-9.55017
▁сер	-9.55067
вшего	-9.55086
▁ен	-9.55118
▁X	-9.55144
▁полно	-9.55237
▁российск	-9.55274
менно	-9.5528
▁отчет	-9.553
▁шаг	-9.55342
▁заседани	-9.5535
ri	-9.55394
at	-9.55463
▁социальны	-9.55491
▁силу	-9.55506
▁пожар	-9.55632
▁дополнительны	-9.55637
▁строительства	-9.55644
▁спортсмен	-9.55658
▁совместно	-9.55712
▁праздник	-9.55732
▁пассажир	-9.55783
рус	-9.55821
▁заявили	-9.55827
▁необходимы	-9.55939
▁собственно	-9.55974
▁Ч	-9.56032
▁РБК	-9.56033
▁соответстви	-9.56033
▁система	-9.56035
▁наук	-9.56051
▁ном	-9.56198
▁инцидент	-9.56268
▁вос	-9.56322
▁происходит	-9.56336
▁подтвердил	-9.56362
le	-9.56378
▁сумму	-9.56413
▁говорил	-9.56443
ским	-9.56566
▁собира	-9.56615
z	-9.56629
▁ошиб	-9.56641
▁поддержку	-9.56653
▁сирийско	-9.56676
▁лица	-9.56725
▁скоро	-9.56866
▁выступил	-9.56945
▁финансов	-9.57078
E	-9.57214
▁образ	-9.57228
▁позволит	-9.57248
▁крайне	-9.57267
▁Киев	-9.57282
▁телеканал	-9.5733
▁доклад	-9.57384
▁Image	-9.57401
R	-9.57497
▁членов	-9.57545
▁ник	-9.57602
нич	-9.57694
рь	-9.57723
▁прием	-9.5784
ешь	-9.57948
▁выразил	-9.58009
▁Максим	-9.58022
▁привел	-9.58069
▁нынешне	-9.58169
рис	-9.58198
▁благодаря	-9.58231
▁бизнеса	-9.58259
▁фонда	-9.58281
▁имеют	-9.58297
▁вопросам	-9.58299
▁име	-9.58482
▁полу	-9.58487
▁2011	-9.58488
▁состоянии	-9.58496
▁налогов	-9.5853
▁сможет	-9.58605
▁масс	-9.58627
рев	-9.58686
екс	-9.58715
▁функци	-9.58785
▁Иван	-9.58809
▁остается	-9.5884
▁Ша	-9.58914
лишко	-9.58923
▁почему	-9.58948
▁визит	-9.58954
▁систем	-9.58958
▁мин	-9.59013
▁Среди	-9.59123
ических	-9.59166
▁$1	-9.59261
вол	-9.59396
▁важны	-9.59408
▁став	-9.5941
тели	-9.59433
чки	-9.59433
▁режиссер	-9.59567
▁Минобороны	-9.5957
is	-9.59618
▁Гор	-9.59655
кл	-9.59694
▁финал	-9.59708
▁управление	-9.59724
▁партнер	-9.59791
По	-9.59797
▁приходит	-9.59868
▁равно	-9.59874
▁миллиона	-9.59948
▁самолета	-9.5997
▁автомобиля	-9.60037
ющей	-9.60131
▁Раз	-9.60151
▁Крым	-9.60243
▁спорта	-9.60275
гин	-9.60376
▁Тр	-9.60414
пит	-9.60469
▁семь	-9.60478
министра	-9.6065
▁блок	-9.60692
▁Иль	-9.6073
▁двига	-9.6078
▁МЧС	-9.60825
▁продукции	-9.60825
D	-9.60826
▁соглашения	-9.60859
▁развитие	-9.60876
▁российским	-9.60968
▁метров	-9.61096
асается	-9.61156
▁организаций	-9.61226
▁кандидат	-9.61257
▁2018	-9.61302
▁мужчина	-9.61333
▁выборы	-9.61341
▁пуст	-9.61353
▁заключен	-9.61376
▁поставк	-9.61463
▁военных	-9.61574
▁ракет	-9.61602
новь	-9.61663
▁следующи	-9.61727
▁разработк	-9.6178
▁Теперь	-9.6178
▁регион	-9.61878
▁выставк	-9.6194
▁федеральны	-9.61943
O	-9.62021
▁тер	-9.62051
▁регионе	-9.62092
▁процедур	-9.621
▁девят	-9.62264
▁призыв	-9.62277
ожд	-9.62287
▁ическ	-9.62389
▁внутренни	-9.62422
▁края	-9.62475
▁жил	-9.62558
▁Вашингтон	-9.62624
▁(1	-9.62624
▁Ри	-9.62666
el	-9.62694
▁раньше	-9.62748
цк	-9.62792
▁звезд	-9.62824
▁основно	-9.62846
▁i	-9.62975
▁подход	-9.63007
▁депутатов	-9.63033
▁Би	-9.63057
▁чувств	-9.63138
▁оценк	-9.63142
▁выплат	-9.632
▁жертв	-9.63226
▁кар	-9.63293
▁голосов	-9.63353
▁банков	-9.6344
чные	-9.6347
▁игрок	-9.63613
НИ	-9.63723
▁бр	-9.63791
▁вчера	-9.63796
▁лес	-9.63807
три	-9.63915
")	-9.63969
▁примерн	-9.64006
▁автомобилей	-9.64044
▁региональны	-9.64079
▁Российски	-9.64111
▁ниже	-9.64134
▁позиции	-9.64208
▁500	-9.64243
▁сообщается	-9.64246
▁сто	-9.6429
▁проходит	-9.64292
▁американско	-9.64337
▁обратил	-9.64355
▁практик	-9.64371
евич	-9.6439
давать	-9.64448
▁совершенно	-9.64453
Ч	-9.64464
▁мужчин	-9.64476
▁K	-9.6452
▁реклам	-9.64538
жды	-9.64579
▁президентом	-9.6464
▁ро	-9.64661
эр	-9.64666
▁обмен	-9.64692
ro	-9.64736
ic	-9.64738
ланд	-9.64748
▁след	-9.64853
читыв	-9.64882
▁скорее	-9.64911
▁мэр	-9.64958
▁сосед	-9.65032
▁фото	-9.65032
▁недели	-9.65079
▁бу	-9.65104
▁куда	-9.65165
▁Чу	-9.65206
▁кризис	-9.65345
це	-9.65363
▁смен	-9.65401
▁клуба	-9.65471
ному	-9.65499
▁ар	-9.65516
▁Представител	-9.6554
▁Там	-9.6557
▁запрос	-9.65643
▁декабре	-9.65693
▁Ча	-9.65855
▁властей	-9.65859
▁предлагает	-9.65867
креп	-9.65914
▁ближайши	-9.66002
▁всю	-9.6601
▁переговоров	-9.66026
▁Ду	-9.66029
▁свободы	-9.66041
▁выс	-9.66041
▁июня	-9.66043
▁террористическ	-9.66136
▁большинство	-9.66165
▁помог	-9.66177
▁кого	-9.66201
▁процента	-9.66235
▁ведет	-9.66242
▁значительно	-9.6627
гла	-9.66298
▁прода	-9.66341
▁стол	-9.66407
▁зрения	-9.66527
ur	-9.66615
▁результаты	-9.66629
▁санкции	-9.66672
иков	-9.66782
▁производство	-9.66836
▁Южно	-9.66881
чив	-9.66884
ch	-9.67037
▁эксперты	-9.67235
▁сти	-9.67351
N	-9.67404
рак	-9.67506
B	-9.67547
▁занял	-9.67555
▁собственны	-9.67659
▁рекорд	-9.67708
▁исполнени	-9.67768
▁мор	-9.67769
▁дум	-9.67878
▁ев	-9.67883
▁раздел	-9.67933
▁занимает	-9.67938
▁слов	-9.68038
▁предложение	-9.6811
it	-9.68167
▁Ос	-9.68205
▁покупк	-9.68218
▁Антон	-9.68235
▁факту	-9.68309
▁прекращени	-9.68313
▁объектов	-9.68392
▁статус	-9.68404
▁найти	-9.68442
▁объявлен	-9.68572
ирования	-9.68648
▁будем	-9.68664
▁странах	-9.688
▁шесть	-9.68895
▁акций	-9.68902
▁январе	-9.68902
▁округ	-9.68904
▁планирует	-9.68917
▁рабочи	-9.68954
▁отказа	-9.68961
▁крупнейши	-9.69056
▁применени	-9.69087
доб	-9.69091
▁оста	-9.69149
вшись	-9.69151
коп	-9.69166
▁отношений	-9.69221
▁начина	-9.69297
шего	-9.69317
▁губернатор	-9.69322
▁Минфин	-9.69424
▁представителе	-9.69458
▁картин	-9.69488
емся	-9.69558
▁ж	-9.69568
▁Запад	-9.69581
▁сред	-9.69589
▁борьбе	-9.69642
▁упал	-9.69688
▁маршрут	-9.69765
▁электро	-9.69767
жал	-9.69871
▁значит	-9.6991
▁форум	-9.69938
▁политик	-9.69967
?	-9.70037
рит	-9.70044
▁Великобритании	-9.70285
▁информация	-9.70285
▁рейс	-9.70342
▁уточнил	-9.70357
▁Мин	-9.70366
▁продажи	-9.70406
▁следствия	-9.70459
▁Ник	-9.70462
▁мероприятия	-9.70491
ыш	-9.70502
▁Гу	-9.70506
мент	-9.70556
нуть	-9.70577
▁здания	-9.70634
▁просьб	-9.70638
▁общи	-9.70664
пов	-9.70744
▁цел	-9.70872
30	-9.70928
клю	-9.70931
▁задержал	-9.70997
▁матча	-9.71051
▁машины	-9.7107
▁300	-9.71088
▁открыт	-9.711
▁куп	-9.71174
альный	-9.71191
▁возможны	-9.71247
▁спорт	-9.71301
▁баз	-9.71308
ывают	-9.71324
служба	-9.71329
▁увеличил	-9.71335
бин	-9.71405
чная	-9.71425
▁Лу	-9.71444
ован	-9.71446
▁аренд	-9.7153
▁Рад	-9.71535
начала	-9.71546
▁обычно	-9.71548
▁близки	-9.71584
▁высоко	-9.71625
▁снижени	-9.71635
te	-9.71647
▁пер	-9.71673
▁a	-9.71748
За	-9.71789
▁штаб	-9.71865
ложил	-9.72007
▁санкций	-9.72016
st	-9.7205
▁довольн	-9.72108
ген	-9.72113
место	-9.72144
▁дат	-9.72193
могла	-9.72242
▁команда	-9.72243
▁рассказывает	-9.72277
▁финансово	-9.72286
▁боевы	-9.72304
ol	-9.72315
▁школы	-9.72346
▁данно	-9.72365
▁разговор	-9.72397
:00	-9.72549
▁32	-9.72556
льных	-9.72562
чески	-9.72613
пустя	-9.72659
▁название	-9.72678
▁дороги	-9.72726
▁программ	-9.72746
▁сезон	-9.72777
▁Елен	-9.7284
▁лучши	-9.72878
▁отмен	-9.729
▁ген	-9.72908
▁очередно	-9.72926
▁избран	-9.72929
▁вынужден	-9.72931
▁шанс	-9.72948
▁Китай	-9.73029
▁ских	-9.73042
▁признан	-9.73087
ющая	-9.73244
▁ДТП	-9.73289
▁поезд	-9.73291
▁Пре	-9.73341
▁неделе	-9.73353
▁воскресенье	-9.73468
▁предложения	-9.73485
▁заявления	-9.73652
▁парламент	-9.73716
▁документы	-9.73866
▁политически	-9.7387
▁штат	-9.73921
▁тяжело	-9.73951
▁проб	-9.73964
▁скандал	-9.74027
льную	-9.74092
▁произ	-9.74243
лага	-9.74268
▁предусмотрен	-9.74371
▁планируется	-9.74377
▁работают	-9.74399
держать	-9.74438
▁встрече	-9.74458
чка	-9.74471
▁семьи	-9.74485
ивают	-9.745
▁следовател	-9.74552
▁стандарт	-9.74553
Газета	-9.74554
вес	-9.74556
▁документов	-9.74603
одну	-9.74683
▁топ	-9.74695
▁правил	-9.74699
▁мет	-9.74782
нный	-9.7483
▁подписал	-9.7496
▁поток	-9.75169
▁документа	-9.7519
▁рядом	-9.75236
лат	-9.75258
▁девушк	-9.75282
▁дети	-9.7531
▁уход	-9.75345
com	-9.75375
▁систему	-9.75375
▁директора	-9.75384
▁достиг	-9.75505
▁смерти	-9.75608
тон	-9.75761
▁ста	-9.7577
ании	-9.7581
▁транспорт	-9.75832
▁оружия	-9.75832
▁выполнени	-9.75865
▁Мал	-9.75872
▁русски	-9.75886
▁памятник	-9.75919
▁голос	-9.7592
кер	-9.75933
▁запуск	-9.75973
▁80	-9.76064
▁внутри	-9.76067
▁станции	-9.76101
▁хороши	-9.76145
▁ским	-9.76161
▁смысл	-9.76184
▁двум	-9.76201
▁камер	-9.76383
▁обраща	-9.76386
▁автобус	-9.76386
▁поступил	-9.764
▁муж	-9.7644
▁север	-9.76473
▁опубликовал	-9.76499
шь	-9.76521
▁рыб	-9.76568
▁спор	-9.76573
▁Юрий	-9.76703
▁режима	-9.76719
▁прокурор	-9.76756
▁армии	-9.76761
▁Иванов	-9.7679
▁вызвал	-9.7681
▁суде	-9.76837
▁фильма	-9.76945
▁соперник	-9.7713
▁столицы	-9.77134
▁линии	-9.77146
▁футболист	-9.77147
▁хорош	-9.77201
▁яко	-9.77201
▁ночь	-9.77222
▁Ну	-9.77279
▁правила	-9.77302
▁площади	-9.77315
прежнем	-9.77315
▁страна	-9.77318
▁коп	-9.77327
▁снижение	-9.7739
▁фактор	-9.7742
▁жители	-9.77503
чень	-9.77588
▁групп	-9.77673
▁Лавров	-9.7769
ления	-9.77786
▁журналист	-9.77804
▁внесен	-9.77865
▁руководителя	-9.77876
▁думаю	-9.7789
▁получат	-9.77895
Петербурге	-9.77908
▁доме	-9.77913
▁выгляд	-9.77927
▁соглашение	-9.78018
▁женщина	-9.78035
▁район	-9.78099
▁марте	-9.78126
▁незаконно	-9.78253
▁террорист	-9.78323
▁продолжа	-9.78347
▁раза	-9.78414
▁приняли	-9.78416
▁столице	-9.78421
▁формировани	-9.78438
▁критик	-9.78443
▁воды	-9.78459
▁пути	-9.78512
▁показал	-9.78561
арт	-9.78599
▁прежде	-9.78641
▁закрыт	-9.78646
▁!"	-9.78646
вшая	-9.78646
ывать	-9.78683
▁скую	-9.78721
▁продаж	-9.7873
▁резко	-9.78784
▁связанны	-9.7889
▁вызыва	-9.78895
огда	-9.78934
▁отмечают	-9.78937
▁поддержки	-9.79003
▁Московско	-9.7901
▁текст	-9.79016
▁Пока	-9.79025
▁называ	-9.79046
▁час	-9.79062
▁цена	-9.79078
▁волн	-9.79099
▁Международно	-9.79188
ниж	-9.79194
Исламско	-9.7928
читать	-9.79284
▁мост	-9.79508
▁игры	-9.7953
нт	-9.79574
▁едино	-9.79579
▁невозможно	-9.79582
▁воздух	-9.79583
▁предмет	-9.79593
▁ну	-9.796
▁настоящи	-9.7961
ация	-9.79656
рес	-9.79675
▁зарплат	-9.79678
▁необходимости	-9.79698
▁прошло	-9.79753
▁тариф	-9.79774
град	-9.79781
▁валют	-9.79807
▁торгов	-9.79822
ia	-9.79824
▁регионов	-9.7984
▁боевиков	-9.79871
▁создание	-9.79955
▁основном	-9.80035
▁привлек	-9.80106
▁сектор	-9.80129
▁отмечается	-9.80132
X	-9.8014
▁основе	-9.80156
▁СКР	-9.80196
▁защиты	-9.80244
▁море	-9.80322
▁серьезно	-9.80446
ря	-9.8045
▁род	-9.80458
▁Рио	-9.80518
▁Один	-9.80538
▁Рас	-9.80564
▁Более	-9.80575
▁Роман	-9.80583
▁ответил	-9.80636
▁анализ	-9.80665
▁кам	-9.80684
▁рассмотрени	-9.80693
▁областно	-9.80745
▁опер	-9.80767
▁орган	-9.80906
▁похож	-9.80938
▁доби	-9.81018
▁исследования	-9.81083
▁ответственности	-9.8113
▁специальны	-9.81136
▁получила	-9.81187
▁класс	-9.81194
▁управля	-9.81206
▁парламента	-9.81257
▁вокруг	-9.81316
▁концерт	-9.81317
▁Вер	-9.81325
▁проводит	-9.81344
▁расследования	-9.81362
олько	-9.8147
▁36	-9.81474
емых	-9.81484
▁гол	-9.81503
▁середин	-9.81511
▁снят	-9.8162
кажет	-9.81663
▁журнал	-9.81666
▁мол	-9.81689
▁обсуждени	-9.81705
▁оружие	-9.81705
премьер	-9.81715
▁умер	-9.81728
▁обеща	-9.81761
▁оно	-9.81763
На	-9.81765
▁СК	-9.8179
▁Эти	-9.81865
▁Facebook	-9.81901
▁субботу	-9.81901
▁цифр	-9.81901
▁область	-9.81901
▁конфликта	-9.81915
▁обязательно	-9.81935
▁33	-9.82004
▁попросил	-9.82099
▁Ольг	-9.82104
▁Рус	-9.82124
▁транспорта	-9.822
цов	-9.82305
▁ответственность	-9.82357
целью	-9.82391
▁ЦСКА	-9.82489
▁феврале	-9.82489
▁погибших	-9.82489
▁жалоб	-9.8249
▁реально	-9.82622
▁решили	-9.82652
▁журналистам	-9.8269
вели	-9.82697
председателя	-9.82702
мор	-9.82729
лик	-9.8274
▁семей	-9.82782
▁Вол	-9.8284
▁дипломат	-9.82842
▁ФСБ	-9.82883
▁неделю	-9.82892
чный	-9.82893
▁мяч	-9.82948
ing	-9.8301
▁пункт	-9.83019
▁стен	-9.83025
фон	-9.83047
▁гонк	-9.83268
движ	-9.83282
▁Кир	-9.83288
▁театр	-9.83427
.00	-9.83467
▁Москву	-9.83477
▁пал	-9.83481
Россия	-9.8353
▁Гос	-9.8354
▁коллег	-9.83574
▁Константин	-9.83676
▁U	-9.83706
мар	-9.8371
▁турнир	-9.83733
▁жен	-9.83883
рог	-9.83891
▁исход	-9.83904
▁Марк	-9.83906
▁опубликован	-9.83912
▁метро	-9.84005
▁Вот	-9.84008
▁Саудовск	-9.84074
▁напомнил	-9.84074
▁Пу	-9.84085
▁войск	-9.84094
▁взят	-9.84201
▁оборон	-9.84249
▁пилот	-9.84276
▁втором	-9.8429
▁мере	-9.84296
чных	-9.84322
▁инвестор	-9.84354
шло	-9.84394
▁отдельны	-9.84508
фт	-9.84509
▁пят	-9.84523
▁Го	-9.84587
▁технически	-9.84597
▁мар	-9.84645
▁обвинения	-9.84654
▁отказ	-9.84674
▁пакет	-9.84677
-2016	-9.84732
ion	-9.84901
▁ское	-9.85019
▁Валери	-9.8508
▁поле	-9.85116
▁Национально	-9.85206
▁пассажиров	-9.85212
▁двор	-9.8523
▁больши	-9.85257
▁получит	-9.85328
▁культур	-9.85351
Ш	-9.85368
▁ед	-9.85437
▁квартал	-9.85439
▁авиакомпани	-9.85483
▁артист	-9.8549
тав	-9.85558
▁замен	-9.85573
▁измен	-9.8564
▁указ	-9.85647
▁обстрел	-9.85687
▁победител	-9.85693
▁Гол	-9.85704
▁техники	-9.85709
предел	-9.85783
▁мастер	-9.85895
▁Нью	-9.85896
▁нарушение	-9.85946
пуст	-9.8605
центр	-9.86073
рик	-9.86133
бот	-9.86149
▁реформ	-9.86215
▁плана	-9.86268
▁размещен	-9.86285
▁Отмечается	-9.86297
▁передач	-9.86353
▁конкурент	-9.86396
▁сентябре	-9.86501
▁Министр	-9.86502
▁вклад	-9.86503
▁наличи	-9.86512
▁Бывши	-9.86546
▁использование	-9.86586
▁проектов	-9.86619
▁аналитик	-9.86706
▁пациент	-9.86706
▁чуть	-9.86715
▁детски	-9.86768
▁сама	-9.8677
становится	-9.86772
F	-9.86812
▁сообщения	-9.86865
▁соответствующи	-9.87093
ложить	-9.87097
▁сильны	-9.87145
▁приговор	-9.87167
▁хотят	-9.87179
нюю	-9.87194
▁задач	-9.87425
президент	-9.87462
▁журналистов	-9.87522
▁офис	-9.87536
▁спортсменов	-9.87656
зор	-9.87666
▁владе	-9.87682
▁голосования	-9.87696
▁взгляд	-9.87739
енного	-9.87771
▁представителя	-9.87848
▁вооруженны	-9.87899
▁Японии	-9.87945
кал	-9.87983
▁специалист	-9.87988
альная	-9.87998
▁бизнесмен	-9.88001
▁основани	-9.88021
▁сад	-9.8809
▁вертолет	-9.88153
▁сказала	-9.8816
▁участк	-9.88251
▁знаком	-9.88267
▁Иран	-9.88273
▁беженцев	-9.88361
▁сократил	-9.88376
▁Обама	-9.88389
▁бой	-9.88429
▁лишени	-9.8844
▁трудно	-9.88485
▁свобод	-9.88622
▁закончи	-9.88736
прос	-9.88744
▁решен	-9.88775
▁октябре	-9.88779
▁отправил	-9.88779
▁Между	-9.88779
▁ноябре	-9.88779
▁трасс	-9.88781
▁бренд	-9.88781
▁водитель	-9.88803
ехать	-9.8882
▁очеред	-9.88832
▁197	-9.8885
луч	-9.88865
▁мнение	-9.88867
▁принадлеж	-9.88951
жно	-9.88959
▁баррель	-9.88988
▁элемент	-9.88988
▁поддержал	-9.88991
▁указан	-9.89064
▁Кал	-9.89079
▁кандидатов	-9.89086
▁37	-9.89122
▁расследование	-9.89184
▁расчет	-9.89207
▁рассказала	-9.89275
плат	-9.89299
▁рассказали	-9.89343
нет	-9.89359
▁Мне	-9.8936
шка	-9.89371
▁наград	-9.89374
▁ресурс	-9.89395
▁акт	-9.89424
▁импорт	-9.89435
▁издание	-9.89442
▁ИГ	-9.89459
▁Северн	-9.89459
▁первым	-9.89556
▁опрос	-9.89582
исты	-9.89639
глас	-9.89676
▁сторону	-9.89699
▁должность	-9.89709
▁Ор	-9.89717
▁произошл	-9.89766
▁ради	-9.89782
▁ними	-9.89805
▁медицинско	-9.90024
▁обсужда	-9.90102
рек	-9.90185
▁Компани	-9.90256
▁полиция	-9.90259
▁турецки	-9.90266
▁каких	-9.90342
▁смогли	-9.90346
▁сын	-9.90354
ницы	-9.90425
▁оператор	-9.90488
▁b	-9.90528
▁бал	-9.90668
▁бор	-9.90678
скоре	-9.9069
▁той	-9.90749
▁повышени	-9.90759
торг	-9.90805
бан	-9.90852
▁ведущи	-9.90856
▁утра	-9.90862
▁ущерб	-9.90895
▁организатор	-9.90895
▁плохо	-9.90898
пар	-9.91009
▁накануне	-9.91033
▁Ирак	-9.91061
▁бар	-9.91077
▁ваш	-9.91082
▁победу	-9.91105
▁Конечно	-9.9111
▁температур	-9.91171
es	-9.91296
▁Павл	-9.91348
▁Ста	-9.91402
▁отдел	-9.91536
▁акционер	-9.91539
▁девочк	-9.9154
льного	-9.91583
▁препарат	-9.91636
▁др	-9.9172
▁Эрдоган	-9.91755
▁обязанност	-9.91759
льным	-9.91766
▁Бело	-9.91803
▁Бар	-9.91818
▁ось	-9.91839
▁органы	-9.91844
▁оперативно	-9.92005
▁общественны	-9.92019
▁кв	-9.92102
▁генерал	-9.92105
▁Госдуму	-9.92123
▁палат	-9.92148
▁предварительны	-9.92187
▁продолжит	-9.92207
▁спрос	-9.92207
кур	-9.92234
атов	-9.9237
▁Пере	-9.92398
▁сообществ	-9.92404
▁фронт	-9.92404
▁эффективно	-9.92431
▁ман	-9.92462
▁делам	-9.92502
▁гражданин	-9.92516
▁депутаты	-9.92625
гран	-9.92638
ce	-9.92672
▁продолжает	-9.92749
▁меж	-9.92793
▁дни	-9.92822
▁сценари	-9.9284
▁современно	-9.9285
▁борьбы	-9.93041
вание	-9.9305
фф	-9.93072
▁расположен	-9.93087
▁Потом	-9.93089
▁современны	-9.93136
▁вред	-9.93149
▁проверки	-9.93163
▁борьб	-9.93235
вшихся	-9.93249
▁Reuters	-9.93276
▁апреле	-9.93276
▁1,5	-9.93363
числ	-9.93398
▁движение	-9.934
▁представил	-9.93496
▁рез	-9.93609
▁шести	-9.937
▁художник	-9.93715
▁принимать	-9.93732
▁l	-9.93755
дро	-9.93784
▁оплат	-9.93827
▁системе	-9.93911
▁история	-9.93936
▁Хилл	-9.93938
▁века	-9.93999
▁успешно	-9.94017
▁пользовател	-9.94059
▁площадь	-9.94156
V	-9.9419
овского	-9.9421
▁Федерально	-9.94245
слав	-9.94263
▁публикаци	-9.94281
▁("	-9.94308
▁случай	-9.94342
▁контакт	-9.94378
▁Китая	-9.94381
▁пан	-9.94406
▁заказ	-9.94431
▁ассоциаци	-9.94441
▁сутки	-9.94607
▁действующи	-9.94613
влек	-9.9472
▁дать	-9.94732
льц	-9.94746
▁кой	-9.94798
ьев	-9.94799
онер	-9.94815
▁пообещал	-9.94822
▁дальше	-9.94822
▁проводил	-9.9485
▁данном	-9.94922
▁лидера	-9.94936
▁начать	-9.94944
▁состояние	-9.9495
▁буду	-9.9514
▁остальны	-9.95165
▁пит	-9.95227
▁события	-9.95268
▁подписан	-9.95307
▁запас	-9.95337
▁приняти	-9.95403
▁женщины	-9.95409
▁Мак	-9.95421
▁Второ	-9.95485
▁Витали	-9.95495
▁перевод	-9.95574
▁новым	-9.95581
▁команд	-9.95604
▁рек	-9.95611
ьян	-9.95622
▁обеспечит	-9.95678
▁198	-9.95706
▁недавно	-9.95716
▁треть	-9.95724
ed	-9.95728
▁t	-9.95771
▁минувш	-9.95915
▁объяснил	-9.95923
▁имел	-9.95935
▁предсто	-9.95943
▁p	-9.95946
▁московско	-9.95949
нцев	-9.95951
▁вечером	-9.96013
новую	-9.96036
▁восстановлени	-9.96038
▁Сочи	-9.96062
▁Аль	-9.96134
▁округа	-9.96163
▁пес	-9.96216
▁энерго	-9.9624
▁страну	-9.96367
▁кампании	-9.96391
▁преимуществ	-9.96391
▁2010	-9.96391
▁расходы	-9.96396
▁c	-9.96521
Власти	-9.96555
▁ельны	-9.96665
▁травм	-9.9682
▁Apple	-9.96844
▁будущем	-9.96845
юсь	-9.96877
▁стадион	-9.96894
▁создани	-9.96969
▁следствие	-9.97011
▁происшествия	-9.97083
Это	-9.97103
▁нашли	-9.97103
▁общества	-9.9714
▁ограничен	-9.97154
▁Интернет	-9.97299
▁захват	-9.97307
▁Вчера	-9.9732
▁ряда	-9.97326
▁веществ	-9.97346
▁зим	-9.97405
▁Джа	-9.97452
▁домов	-9.97469
▁портал	-9.97484
джи	-9.97496
▁террористов	-9.97511
▁комплекса	-9.97634
бег	-9.97706
▁38	-9.97726
▁34	-9.97745
▁резерв	-9.97757
▁добычи	-9.97757
эк	-9.97772
▁сезона	-9.97775
▁транс	-9.97796
▁Куб	-9.97869
▁ист	-9.97906
▁запланирован	-9.97986
▁механизм	-9.97986
▁существует	-9.97987
▁составит	-9.9805
▁дает	-9.98053
Урал	-9.9808
▁каса	-9.98131
▁Был	-9.98158
▁предприятий	-9.9821
▁196	-9.98316
▁назва	-9.9834
▁золот	-9.98402
▁берег	-9.98448
▁признак	-9.98451
ческая	-9.98459
▁кроме	-9.98469
▁брос	-9.98473
▁фактически	-9.98542
▁введен	-9.98556
▁средне	-9.98598
▁аль	-9.98643
▁требования	-9.98657
▁программу	-9.98659
▁фигур	-9.98662
строен	-9.98721
▁вернул	-9.98764
▁ша	-9.98847
последстви	-9.9885
▁Кубк	-9.98912
▁заметил	-9.98912
▁метод	-9.98914
▁спец	-9.98925
▁списк	-9.98941
▁Барак	-9.99022
▁футбол	-9.99038
▁самые	-9.99114
il	-9.99138
▁партия	-9.9916
▁Красно	-9.99236
▁Больш	-9.99277
▁выделен	-9.99311
▁труда	-9.99369
▁Эксперт	-9.99373
▁предупрежд	-9.99373
▁знает	-9.99374
станут	-9.99401
▁гарант	-9.99452
▁2008	-9.99455
▁соглас	-9.99492
▁посла	-9.99534
▁политике	-9.9954
▁пользова	-9.99541
▁Черн	-9.99571
▁проходил	-9.99576
Зенит	-9.99607
li	-9.99685
мысл	-9.99709
▁абсолютно	-9.99715
▁временно	-9.99774
▁груз	-9.99785
▁помочь	-9.9984
▁Анкар	-9.99863
▁летом	-9.99875
▁регионах	-9.99891
▁модели	-9.99977
▁модель	-10.0003
▁подал	-10.0004
ight	-10.0007
▁губернатора	-10.0009
ошли	-10.0011
▁масштаб	-10.0013
▁экспертов	-10.0014
▁совершени	-10.0017
фин	-10.0018
▁традици	-10.002
▁издания	-10.0024
▁утвержден	-10.0031
▁Надежд	-10.0031
▁рождения	-10.0032
▁билет	-10.0036
становить	-10.0036
▁дорож	-10.0045
▁стат	-10.0048
▁другими	-10.0049
ss	-10.0052
▁мое	-10.0054
▁референдум	-10.0054
▁провинци	-10.0055
Йорк	-10.0055
вис	-10.0061
▁команду	-10.0067
▁Герман	-10.007
▁станци	-10.0075
▁группировки	-10.0078
▁внутренне	-10.0078
ta	-10.0085
▁бег	-10.0091
▁обнаружили	-10.0094
▁ул	-10.0098
леч	-10.0099
▁судебно	-10.0103
▁превыша	-10.0103
▁кризиса	-10.0104
▁000	-10.0106
▁заседания	-10.0108
▁расходов	-10.0109
▁продукт	-10.0114
▁супруг	-10.0125
▁чаще	-10.0126
▁определя	-10.0127
▁российском	-10.0127
▁сотрудничества	-10.013
льд	-10.0131
▁массово	-10.0131
▁депутата	-10.0133
шев	-10.014
▁выполня	-10.0144
▁установил	-10.0145
▁поселк	-10.0149
Спартак	-10.0149
▁десять	-10.015
▁надежд	-10.0153
▁ГУ	-10.0154
▁всему	-10.0172
▁ер	-10.0172
▁сохраня	-10.0173
▁порт	-10.0174
▁большинств	-10.0177
▁участвова	-10.0177
!	-10.0178
▁судьб	-10.0183
▁должности	-10.0187
▁Болгарии	-10.0197
▁Гре	-10.0197
зан	-10.0198
▁найден	-10.0203
▁Люб	-10.0203
▁высот	-10.0203
▁жить	-10.0213
Павел	-10.0219
▁корреспондент	-10.0221
▁Хотя	-10.0222
▁крае	-10.0222
▁защитник	-10.0231
▁служба	-10.0238
▁направил	-10.0241
▁положение	-10.0245
▁отметили	-10.0246
▁бед	-10.0251
▁верну	-10.0261
▁прибыль	-10.0268
▁Правда	-10.0269
▁Сбербанк	-10.0269
▁университета	-10.0277
▁Эр	-10.0278
▁противо	-10.0284
▁нападени	-10.0288
▁новом	-10.029
▁нарко	-10.0293
▁смог	-10.0314
▁Пар	-10.0317
▁создания	-10.0339
▁контроля	-10.0341
▁товаров	-10.0342
▁ды	-10.0343
▁огня	-10.0352
to	-10.0352
▁ставки	-10.036
▁чист	-10.0366
▁применя	-10.0367
▁знал	-10.0368
▁Игр	-10.0371
▁продолжают	-10.0373
▁Министерство	-10.0373
▁аэропорта	-10.0375
Ведь	-10.0383
▁расп	-10.0384
▁структуры	-10.0384
▁ти	-10.0387
▁неоднократно	-10.039
▁Многи	-10.039
▁флот	-10.039
▁гендиректор	-10.0391
▁убит	-10.0392
▁роди	-10.0393
▁мигрантов	-10.0394
▁отставку	-10.0395
▁мой	-10.0398
▁Сил	-10.0399
▁развива	-10.0408
▁институт	-10.0409
▁статье	-10.0409
▁Олимпийски	-10.041
ошел	-10.0412
▁може	-10.0414
ne	-10.0414
▁компьютер	-10.0414
▁совершил	-10.0414
▁потребовал	-10.0414
ходить	-10.0417
▁J	-10.0417
▁цель	-10.0423
изации	-10.043
▁75	-10.0432
▁Казахстан	-10.0439
▁историю	-10.0439
▁коллектив	-10.0439
▁оборот	-10.0439
▁кажется	-10.044
▁утром	-10.0441
▁Бер	-10.0446
▁каким	-10.045
таж	-10.0455
вания	-10.0455
▁западны	-10.0459
▁Сто	-10.0463
▁пенсионер	-10.0463
▁смартфон	-10.0463
▁попыта	-10.0463
▁восемь	-10.0463
раздо	-10.0463
▁европейско	-10.0463
▁Лиг	-10.0468
▁Стар	-10.0469
▁программа	-10.0475
­	-10.0476
▁освобожден	-10.0486
▁богат	-10.0488
▁влия	-10.0488
▁июле	-10.0489
▁политика	-10.049
прокомментировал	-10.0493
▁роли	-10.0496
▁налог	-10.0501
▁следующе	-10.0503
▁остав	-10.0503
ош	-10.0511
нные	-10.0511
бежать	-10.0512
▁ВВП	-10.0512
▁занимал	-10.0513
▁понять	-10.0513
будь	-10.0516
▁производств	-10.0517
▁Генерал	-10.0518
▁чер	-10.0518
▁посвящен	-10.0522
▁водо	-10.0526
Ж	-10.0526
нять	-10.0529
▁Италии	-10.0537
▁далеко	-10.0538
▁лекарств	-10.0538
эй	-10.0539
▁августе	-10.0544
▁формат	-10.0546
▁открыто	-10.0547
▁министерства	-10.0549
▁мировы	-10.0556
меть	-10.0556
▁автомат	-10.0557
▁компенсаци	-10.0562
▁условий	-10.0562
▁Татьян	-10.0562
▁строительств	-10.0565
▁природ	-10.0567
▁Мат	-10.0569
▁реальны	-10.0574
▁част	-10.0574
▁личны	-10.0575
▁Пред	-10.0579
▁торговы	-10.0585
▁Вячеслав	-10.0587
▁Денис	-10.0588
▁существенно	-10.0594
▁ному	-10.0594
▁оказалось	-10.0599
▁теракт	-10.0605
▁спецслужб	-10.0605
ками	-10.0609
▁страхов	-10.0611
▁субъект	-10.0611
▁числа	-10.0624
льный	-10.0626
▁университет	-10.0627
▁дорожно	-10.0628
▁знак	-10.0629
▁знаю	-10.063
▁55	-10.0631
▁состояни	-10.0636
▁психолог	-10.0636
▁специалисты	-10.064
▁возвращени	-10.0644
▁высказыва	-10.0652
▁угроз	-10.0653
▁национальны	-10.0653
▁Причин	-10.0655
▁ресторан	-10.0661
▁заявлял	-10.0662
▁внешне	-10.0662
▁приехал	-10.0662
▁Пер	-10.0665
▁среднем	-10.0668
▁приче	-10.0669
▁отказался	-10.0669
▁доля	-10.0676
▁150	-10.0677
▁спортивны	-10.0678
▁гражданско	-10.068
▁Центр	-10.0684
▁катастроф	-10.0686
▁использовал	-10.0686
▁вести	-10.0689
▁мае	-10.0691
▁экспертиз	-10.0698
▁Крыму	-10.0698
МС	-10.0702
▁долг	-10.0711
▁совещани	-10.0712
▁диалог	-10.0712
▁Главны	-10.0713
▁делает	-10.0716
▁Эта	-10.0717
▁называют	-10.0717
▁Пан	-10.0718
▁радио	-10.0723
▁понят	-10.0725
▁кандидата	-10.0726
▁брат	-10.0727
la	-10.0736
▁борту	-10.0736
▁относительн	-10.0738
▁Центрально	-10.0745
▁соответству	-10.0753
▁проведен	-10.0754
▁реша	-10.0757
▁знакомы	-10.0757
▁регулярно	-10.0762
▁отделения	-10.0768
▁ированны	-10.0769
ющихся	-10.077
крытие	-10.0772
▁развит	-10.0773
▁Республики	-10.0777
▁Уже	-10.0778
тил	-10.0779
▁потеря	-10.0782
▁инструмент	-10.0787
▁позицию	-10.0787
▁развитию	-10.0788
▁трети	-10.0789
▁оценива	-10.0799
▁проводить	-10.0805
тесь	-10.081
лез	-10.0813
потреб	-10.0813
▁выиграл	-10.0814
ительно	-10.0815
▁десяти	-10.0816
▁отделени	-10.0817
▁максимально	-10.0818
▁ась	-10.0819
▁душ	-10.082
▁медицински	-10.0828
▁отрасли	-10.0838
▁Почему	-10.0838
▁одежд	-10.0839
▁учреждения	-10.084
олод	-10.084
▁урегулировани	-10.0849
ограф	-10.0853
фил	-10.0854
am	-10.0855
▁строй	-10.0856
▁нужны	-10.0864
▁сенатор	-10.0864
▁серии	-10.0871
▁ел	-10.0876
▁каза	-10.088
пор	-10.0882
▁Сар	-10.0889
менеджер	-10.0889
▁протест	-10.089
▁появлени	-10.089
▁зарегистрирован	-10.0894
▁марки	-10.0896
▁воздушно	-10.0897
▁вирус	-10.0897
▁направления	-10.0899
▁торговли	-10.0899
вшей	-10.0905
▁активов	-10.0905
▁программе	-10.0911
▁распоряжени	-10.0915
▁порядке	-10.0915
▁вечер	-10.0919
▁ног	-10.0928
▁пункта	-10.0928
▁единственны	-10.093
▁свидетельств	-10.0931
▁КНДР	-10.0941
сек	-10.0941
ПК	-10.0945
▁Тако	-10.0948
▁активист	-10.0958
▁приз	-10.0961
▁сторона	-10.0964
▁автомобили	-10.0966
▁Асад	-10.0968
▁снизи	-10.0968
▁работник	-10.0976
▁вопросов	-10.098
▁другим	-10.0983
▁детско	-10.0984
▁доходов	-10.0985
Не	-10.099
▁окончани	-10.0992
▁стоимости	-10.0992
▁сегодняшни	-10.0993
пресс	-10.0994
▁400	-10.0999
▁n	-10.1002
▁доллара	-10.1011
▁турнира	-10.1011
цеп	-10.1013
▁категор	-10.1014
▁стратеги	-10.1017
▁палаты	-10.1017
▁Госдум	-10.1018
▁Вечер	-10.102
▁гре	-10.1028
▁представля	-10.1032
▁цели	-10.1044
▁Кадыров	-10.1044
▁кабинет	-10.1044
▁сигнал	-10.1044
▁реакци	-10.1044
▁днем	-10.1045
▁разные	-10.1049
▁Евро	-10.1051
▁194	-10.1052
▁Зна	-10.1054
▁Мари	-10.1056
▁правительственн	-10.1057
▁требовани	-10.1062
▁верх	-10.1067
менить	-10.1069
▁символ	-10.1071
▁Ман	-10.1074
▁русско	-10.1079
▁базе	-10.1079
▁лев	-10.1082
▁молодо	-10.1088
▁бомб	-10.1093
▁снижа	-10.1095
начально	-10.1098
работать	-10.1098
▁Главно	-10.11
▁дер	-10.1104
▁(2	-10.1105
пат	-10.1108
▁прокуратуры	-10.1109
▁Гер	-10.1114
▁длин	-10.1114
▁сожалению	-10.1122
▁посольств	-10.1123
▁определенны	-10.1138
▁отметила	-10.1139
▁боя	-10.1141
СП	-10.1159
▁городски	-10.116
▁оппозиции	-10.1161
▁печат	-10.1167
▁продуктов	-10.1171
▁Центра	-10.1172
▁миллиардов	-10.1175
▁помощник	-10.1175
▁Ирин	-10.1176
▁клиентов	-10.1177
▁ядерно	-10.1177
▁открыты	-10.1178
▁проведение	-10.1182
▁глаза	-10.1199
▁co	-10.12
▁аэропорту	-10.1207
ево	-10.1209
▁секретар	-10.1222
нтер	-10.1226
▁конкретны	-10.1228
▁предварительно	-10.1228
▁двое	-10.1228
▁здоровья	-10.1228
▁правило	-10.1231
▁победы	-10.1236
▁Вмест	-10.1239
дик	-10.1241
▁изменил	-10.1242
▁американской	-10.1246
ma	-10.1252
▁людям	-10.1254
▁отметить	-10.1254
▁успел	-10.1255
▁сколько	-10.1257
▁отсутствие	-10.1264
▁объединени	-10.1264
▁собирается	-10.1264
▁пришли	-10.1268
▁Правительство	-10.127
▁полос	-10.127
▁Мор	-10.1272
▁самостоятельно	-10.1272
▁f	-10.1275
▁правда	-10.1278
▁житель	-10.1278
▁неизвестны	-10.1281
▁кодекс	-10.1281
▁протяжени	-10.1281
▁Анн	-10.1283
▁вел	-10.1286
▁клиент	-10.1289
▁бл	-10.1294
АЗ	-10.1294
▁чемпионат	-10.1298
▁Наш	-10.1304
инов	-10.1304
▁эффект	-10.1306
▁полуостров	-10.1308
▁появля	-10.1308
▁эконом	-10.1309
▁каждого	-10.1312
▁?"	-10.1318
▁имя	-10.1322
▁популярны	-10.1331
▁брать	-10.1332
▁прибыли	-10.1332
▁бумаг	-10.1334
▁возвраща	-10.1335
▁стрельб	-10.1336
▁научно	-10.1337
▁дожд	-10.1342
▁увеличить	-10.1346
▁Чтоб	-10.1349
▁Сан	-10.1351
▁пострадали	-10.1351
пил	-10.1353
истов	-10.1353
▁сумма	-10.1355
▁подверг	-10.1356
▁48	-10.1357
▁облада	-10.1359
▁сделан	-10.1361
▁аналог	-10.1361
▁имущества	-10.1361
▁соответственно	-10.1361
▁путем	-10.1362
▁миллиарда	-10.1367
▁здание	-10.1371
▁частны	-10.1375
▁взрыва	-10.1379
▁балл	-10.1381
▁замеча	-10.1389
▁отдела	-10.1389
▁использования	-10.1389
▁утверждает	-10.1391
казались	-10.1392
▁Основн	-10.1393
▁союза	-10.1398
▁танк	-10.1406
▁решить	-10.1407
▁езд	-10.1412
▁семья	-10.1413
▁построен	-10.1413
▁доказательств	-10.1415
▁предполагает	-10.1415
▁льгот	-10.1416
▁главное	-10.1417
▁красно	-10.1419
▁возраст	-10.142
▁сторонник	-10.1422
▁экран	-10.1423
▁поддержке	-10.1426
▁Джо	-10.143
▁собран	-10.1431
▁главным	-10.1434
▁партий	-10.144
▁часа	-10.1441
▁степени	-10.1442
▁корпораци	-10.1442
▁проверя	-10.1444
▁желез	-10.1451
▁готовит	-10.1453
▁ны	-10.1453
▁установк	-10.1454
▁высказал	-10.146
ард	-10.1461
двиг	-10.1463
▁Институт	-10.1469
▁зафиксирован	-10.1469
▁инженер	-10.1469
▁Китае	-10.1469
▁Причем	-10.147
▁лед	-10.1471
▁обл	-10.1471
▁тест	-10.1482
▁платеж	-10.1489
▁согласован	-10.1489
▁ежегодно	-10.1489
▁Ростов	-10.1493
▁сирийски	-10.1496
▁церемони	-10.1496
▁квартале	-10.1502
▁дав	-10.1505
▁сложности	-10.1505
▁зависи	-10.1506
▁объект	-10.1514
▁Зде	-10.1518
▁взросл	-10.1524
▁исполня	-10.1524
▁проекты	-10.1524
▁повлия	-10.1524
▁экономике	-10.1524
▁услуги	-10.1524
▁объекта	-10.1528
▁товар	-10.1529
▁обвинил	-10.1529
▁онлайн	-10.153
▁2009	-10.1533
пущен	-10.1533
▁видел	-10.1538
конец	-10.1539
▁флаг	-10.1545
▁сохранени	-10.1549
▁технологий	-10.1551
▁сериал	-10.1552
▁столично	-10.1552
▁требует	-10.1553
▁театра	-10.1558
▁Верховно	-10.1571
▁искусств	-10.1571
▁информационно	-10.1575
▁ведут	-10.1575
▁44	-10.1577
▁власть	-10.158
▁выявлен	-10.1586
▁хозяйств	-10.1592
▁директоров	-10.1592
▁каждом	-10.1595
▁советско	-10.1598
▁немного	-10.1599
▁Twitter	-10.1606
▁нынешни	-10.1606
▁промышленности	-10.1609
▁политических	-10.161
▁агент	-10.1615
редко	-10.1626
▁позже	-10.1626
▁39	-10.163
▁инвестиций	-10.1633
▁зависимости	-10.1633
ТС	-10.1634
▁честь	-10.1634
▁дополнительно	-10.1636
▁влияние	-10.1637
▁правильно	-10.1637
▁июне	-10.1641
▁четверт	-10.1644
▁ор	-10.1645
▁обрати	-10.1647
▁пле	-10.1649
▁советски	-10.1654
ut	-10.1654
▁матери	-10.1654
▁основан	-10.1658
▁фирм	-10.1658
▁возглавля	-10.1668
▁бел	-10.1669
евой	-10.1676
▁конкурса	-10.1685
сер	-10.1686
▁эфире	-10.1688
▁революци	-10.1689
цу	-10.1695
▁Мария	-10.1695
▁чемпионате	-10.1697
Союз	-10.1716
▁музыкант	-10.1717
▁ученые	-10.1717
▁семье	-10.1721
▁+	-10.1732
G	-10.1734
Роснефт	-10.1734
▁Дол	-10.1738
▁Восток	-10.1742
▁реализова	-10.1744
▁делегаци	-10.1744
▁Турция	-10.1745
▁коллеги	-10.1745
▁странице	-10.176
▁публик	-10.1764
лист	-10.1766
▁снег	-10.1766
▁союз	-10.1772
▁обеспечива	-10.1774
▁ключевы	-10.1779
▁начало	-10.1783
▁включен	-10.1785
пан	-10.1785
▁странами	-10.1786
▁стара	-10.1787
▁таком	-10.1788
писать	-10.1788
▁In	-10.1789
▁бесед	-10.1789
▁специалистов	-10.1791
пустить	-10.1793
▁рабоче	-10.1797
▁привлеч	-10.1799
▁коллекци	-10.18
▁событий	-10.18
▁саммит	-10.1802
▁Ев	-10.1804
▁Киеве	-10.1804
▁высок	-10.1807
▁42	-10.1811
▁проводят	-10.1817
дем	-10.1822
▁сделк	-10.1823
▁дефицит	-10.1828
▁завершил	-10.1833
▁принимал	-10.1837
▁председател	-10.1841
▁Стр	-10.1843
▁туристов	-10.1845
фр	-10.1846
▁капитал	-10.1848
▁нова	-10.1854
теп	-10.1854
▁низки	-10.1861
▁источники	-10.1863
▁столько	-10.1864
▁предоставля	-10.1872
▁Донбассе	-10.1874
▁спикер	-10.188
▁руки	-10.1881
▁международным	-10.1885
▁Кстати	-10.1885
▁трагеди	-10.1885
▁секунд	-10.1885
▁трлн	-10.1885
▁кому	-10.1885
▁мощно	-10.1886
▁съем	-10.1886
▁остава	-10.1895
▁плане	-10.1901
▁буд	-10.1902
▁приложени	-10.1904
Авто	-10.1908
▁писал	-10.1909
очного	-10.191
▁сло	-10.1912
▁регулятор	-10.1913
▁паспорт	-10.1913
▁аналогичны	-10.1914
▁Буд	-10.1916
▁Новый	-10.1932
L	-10.1937
▁Карл	-10.194
▁подозрени	-10.1941
▁Премьер	-10.1941
▁заинтересован	-10.1943
▁Канад	-10.1946
суд	-10.1953
▁темп	-10.1956
▁километров	-10.1957
▁режиме	-10.1962
▁повышение	-10.1964
▁небольшо	-10.1965
знани	-10.1969
▁улица	-10.197
▁московски	-10.197
▁группировк	-10.197
▁Фонд	-10.1971
▁микро	-10.1972
▁арестован	-10.1972
▁ранения	-10.1972
▁избирательно	-10.1972
спор	-10.1973
▁процент	-10.1977
▁руководства	-10.1983
Известиям	-10.1984
стран	-10.1987
▁Фр	-10.2007
▁занимать	-10.2018
▁Мен	-10.2025
▁технологии	-10.2027
▁усилия	-10.2027
первых	-10.2029
▁подобно	-10.203
▁голосовани	-10.2031
▁больницу	-10.2031
▁тепло	-10.2034
▁сведения	-10.2036
▁направлении	-10.2036
▁Эл	-10.2046
▁комментари	-10.2049
▁границе	-10.2051
ТАСС	-10.2053
▁приоритет	-10.2056
▁жилья	-10.2056
▁исключительно	-10.2057
▁представляет	-10.2062
▁мужчины	-10.2062
▁оказыва	-10.2063
▁заседание	-10.2064
чан	-10.2072
▁научны	-10.2073
общ	-10.2075
▁ожидается	-10.2076
гал	-10.2079
▁сезоне	-10.2081
▁административно	-10.2085
▁широко	-10.2085
ьер	-10.2086
▁вызов	-10.2087
▁студент	-10.2087
▁мисси	-10.2087
▁возрасте	-10.2092
▁выступлени	-10.2092
▁Чер	-10.2102
▁обыск	-10.2102
▁Екатерин	-10.2104
▁доллар	-10.2108
▁лидеров	-10.211
▁зарубежны	-10.2114
▁посту	-10.2118
▁составлял	-10.2118
▁войска	-10.2119
▁Гри	-10.2121
▁вещи	-10.2127
▁хозяйства	-10.2128
and	-10.213
друг	-10.2138
▁Азербайджан	-10.2143
▁понимаю	-10.2143
▁Кан	-10.2147
▁покупател	-10.2156
▁каждо	-10.2157
▁командир	-10.2163
▁бур	-10.2166
Ю	-10.2167
слов	-10.2168
▁Леонид	-10.2172
щиков	-10.2173
▁вовсе	-10.2174
зин	-10.2174
▁дл	-10.2175
▁ведомстве	-10.2176
▁сотрудникам	-10.2176
▁турецко	-10.2186
▁Чи	-10.2188
▁другом	-10.2188
Рос	-10.2191
ФО	-10.2195
▁британско	-10.2197
рач	-10.2199
▁Google	-10.2201
▁Mo	-10.2202
▁телеканала	-10.2215
▁временем	-10.2217
несли	-10.2218
▁федерации	-10.2223
▁задача	-10.2223
▁выпуск	-10.2224
▁транспортны	-10.223
▁уж	-10.2231
▁давление	-10.2231
▁судебны	-10.2231
▁любим	-10.2235
▁отдыха	-10.2241
▁говоря	-10.2242
▁границы	-10.2244
▁дух	-10.2245
th	-10.2247
▁проверку	-10.2256
▁Новосибирск	-10.2259
▁денежны	-10.2259
▁минимальн	-10.2259
▁Светлан	-10.226
▁друж	-10.2261
▁сложны	-10.2273
▁Политика	-10.2277
▁ность	-10.2279
▁страховани	-10.2289
▁Депутат	-10.2289
▁Отметим	-10.2289
▁нагрузк	-10.2289
▁располага	-10.2289
▁изменений	-10.2289
▁счетом	-10.2294
▁выплаты	-10.2297
▁ракеты	-10.2299
▁окончательно	-10.2309
эл	-10.2311
▁Воз	-10.2311
▁Украину	-10.2318
▁крушени	-10.2318
▁наказание	-10.232
▁полагает	-10.232
▁рассматрива	-10.232
▁возник	-10.2321
ляр	-10.2329
очных	-10.233
ойти	-10.233
▁пик	-10.233
гад	-10.233
▁образова	-10.2331
▁настаива	-10.2331
▁вопросу	-10.2331
▁техническо	-10.2333
сков	-10.2334
▁карьер	-10.2338
▁мотив	-10.2342
▁порядок	-10.2348
шем	-10.2348
▁вероятно	-10.2355
▁последствия	-10.2355
▁парламентари	-10.2357
▁завода	-10.2365
▁огромны	-10.2367
▁сообщение	-10.2367
▁улиц	-10.2374
▁St	-10.2374
▁capt	-10.2378
▁бензин	-10.2378
▁заключил	-10.2378
▁редакци	-10.2378
▁исключа	-10.2378
▁мальчик	-10.2378
▁увеличени	-10.2378
▁правам	-10.2378
▁газеты	-10.2378
▁традиционно	-10.2378
▁масл	-10.2379
▁предприниматель	-10.2383
▁Зате	-10.2395
▁Род	-10.2405
▁ировал	-10.2407
▁человеческ	-10.2407
▁увеличив	-10.2407
▁$3	-10.241
▁Пресс	-10.241
▁планировал	-10.2411
▁зелен	-10.2412
пасть	-10.2415
▁уничтож	-10.2415
▁генеральны	-10.2422
▁доста	-10.2425
▁зрител	-10.2428
бар	-10.2429
▁времен	-10.2433
·	-10.2437
▁Федор	-10.2441
▁группе	-10.2444
▁следующем	-10.2446
вшийся	-10.2449
▁Информационн	-10.2451
▁брон	-10.2453
елл	-10.2458
▁лучших	-10.2465
▁норматив	-10.2467
▁Керри	-10.2469
▁роман	-10.2469
▁мероприятий	-10.247
▁Re	-10.2478
▁заявк	-10.249
▁финансирования	-10.2491
▁интересов	-10.2495
▁вырос	-10.2497
▁праймериз	-10.2497
▁Кирилл	-10.2497
▁расти	-10.2498
▁Штат	-10.2499
▁колес	-10.2502
▁эксплуатаци	-10.2505
▁находил	-10.2506
кануне	-10.2508
▁сеть	-10.2519
▁занят	-10.2526
▁позволил	-10.2527
▁рулем	-10.2527
▁затрат	-10.2528
▁исследовани	-10.253
▁договора	-10.2536
▁65	-10.2537
▁потерял	-10.2543
▁обстоятельства	-10.2545
купить	-10.2547
▁2000	-10.2557
▁Валентин	-10.2557
▁гривен	-10.2557
▁митинг	-10.2558
▁противник	-10.2558
▁Ch	-10.2558
▁народно	-10.2559
▁поездк	-10.2559
▁Бор	-10.2564
▁Ирана	-10.2565
,5%	-10.257
▁входит	-10.2572
▁транспортно	-10.2573
▁нашим	-10.2578
▁примеру	-10.2582
▁аудитор	-10.2588
▁памяти	-10.2588
▁столкновени	-10.2588
▁позиция	-10.2588
▁поставил	-10.2588
▁увидел	-10.2588
▁выхода	-10.2588
▁благо	-10.2589
▁пройти	-10.259
▁годом	-10.2591
▁Республик	-10.2592
▁городов	-10.2592
востоке	-10.2594
▁распространени	-10.26
▁секрет	-10.2608
▁падение	-10.2608
▁Экс	-10.2609
▁политику	-10.2616
▁исторически	-10.2618
▁писател	-10.2619
Север	-10.2621
▁Вести	-10.2624
чук	-10.2626
▁предоставлени	-10.2633
▁провал	-10.2639
▁выпуска	-10.2641
▁качества	-10.2642
▁сегмент	-10.2649
▁Юли	-10.2652
▁убийство	-10.2658
берг	-10.2665
▁прост	-10.2665
▁стрел	-10.2665
▁здравоохранения	-10.2666
▁195	-10.2667
▁47	-10.2668
▁грузовик	-10.267
▁столь	-10.267
▁базы	-10.2672
'	-10.2679
▁литератур	-10.2679
▁опроверг	-10.2679
▁парти	-10.268
▁ЦИК	-10.268
▁Работ	-10.2681
ay	-10.2683
▁це	-10.2685
Ес	-10.2693
▁интереса	-10.2697
▁сообщают	-10.2697
▁намерени	-10.2698
▁массовы	-10.2704
щенко	-10.2708
▁пропаганд	-10.271
▁участка	-10.2713
▁разведк	-10.2714
▁отдельно	-10.2714
▁$2	-10.2715
▁чиновников	-10.2722
▁любы	-10.2724
▁46	-10.2735
▁терроризм	-10.2738
▁итальянск	-10.2741
▁холдинг	-10.2741
▁основател	-10.2741
▁стратегически	-10.2741
▁дальнейше	-10.2747
▁большим	-10.2757
▁отзыв	-10.2761
▁доходы	-10.2765
▁Гар	-10.2771
▁ребенок	-10.2772
▁близ	-10.2775
▁приведе	-10.2775
▁куб	-10.2785
▁подряд	-10.2791
▁совершен	-10.2792
▁Ma	-10.2792
▁агентств	-10.2799
дон	-10.28
плач	-10.2801
▁Комитет	-10.2803
▁физически	-10.2805
▁шоу	-10.2806
▁участвовал	-10.281
вил	-10.2823
▁электронны	-10.2825
▁миллион	-10.2827
▁падения	-10.2828
запад	-10.2831
▁претензи	-10.2834
▁исключен	-10.2834
▁операция	-10.2834
онно	-10.2837
▁свободно	-10.2838
▁обновлен	-10.2841
▁Чере	-10.2848
▁медицин	-10.2849
▁полученны	-10.2854
▁пунктов	-10.2858
▁Наталья	-10.286
▁КПРФ	-10.2865
▁полномочия	-10.2865
▁Следственно	-10.2865
▁следственно	-10.2865
▁платформ	-10.2865
▁Вадим	-10.2865
▁плен	-10.2868
▁сельско	-10.2874
озле	-10.2881
▁Американск	-10.2882
▁получив	-10.2883
службы	-10.2884
▁инвесторов	-10.2888
▁слав	-10.289
▁снял	-10.2891
▁Министерства	-10.2893
▁Каз	-10.2894
ражения	-10.2896
▁энерги	-10.2896
▁Кам	-10.29
▁чтени	-10.29
▁убийстве	-10.2908
▁Евросоюз	-10.2913
▁пострадавших	-10.2914
носить	-10.2914
ПС	-10.2918
▁Анатоли	-10.2927
▁сохранить	-10.2927
▁хочу	-10.2928
▁ировать	-10.2932
▁мои	-10.2934
дается	-10.2937
▁считать	-10.2938
▁€	-10.2938
шко	-10.294
▁­	-10.2943
▁договоренност	-10.2944
▁китайски	-10.2946
▁пользователей	-10.295
▁Лондон	-10.2963
▁исключи	-10.2967
▁отличие	-10.2972
▁ката	-10.298
КС	-10.298
▁суб	-10.2988
▁перемири	-10.299
▁земли	-10.299
▁концу	-10.2992
брать	-10.2996
▁завершени	-10.2996
▁аэропорт	-10.3003
ter	-10.3015
▁начинает	-10.3019
▁выступления	-10.3022
▁Возможно	-10.3022
▁аварии	-10.3022
▁школьник	-10.3024
▁ограничения	-10.3026
▁рода	-10.3026
▁почт	-10.3032
as	-10.3034
▁продлен	-10.3036
казалось	-10.3043
▁летне	-10.3049
▁обслуживани	-10.3054
▁инвалид	-10.3054
ллер	-10.3056
кажут	-10.3059
▁случаев	-10.3061
▁миру	-10.3063
▁труб	-10.3063
▁кро	-10.307
зон	-10.307
▁конференции	-10.3074
▁моря	-10.3074
▁исследований	-10.3083
▁Юри	-10.3084
▁болельщик	-10.3086
▁Господи	-10.3086
▁мозг	-10.3087
▁прокат	-10.309
▁руководител	-10.309
▁Верховн	-10.3095
цер	-10.3098
▁Европейско	-10.3104
▁старше	-10.3107
▁квартиры	-10.3109
▁танц	-10.3111
▁взять	-10.3115
▁собра	-10.3115
▁народны	-10.3116
▁поможет	-10.3117
▁колонии	-10.3117
▁сыграл	-10.3118
▁действующе	-10.312
ектор	-10.3125
▁налоговы	-10.3125
▁Дн	-10.3125
▁рос	-10.314
▁ВТБ	-10.3143
▁снизил	-10.3144
▁иска	-10.3147
▁полном	-10.3156
▁надзор	-10.3156
▁гражданам	-10.3157
▁возника	-10.3158
▁опасны	-10.3158
▁пережи	-10.3166
▁суммы	-10.3177
▁Никит	-10.3179
&	-10.3182
▁угрожа	-10.3182
▁многочисленны	-10.3182
▁ведомство	-10.3183
▁Тре	-10.3184
▁путь	-10.3185
▁сделки	-10.3186
▁инфраструктуры	-10.3196
▁одновременно	-10.3196
▁общем	-10.3198
▁тела	-10.32
▁встречу	-10.32
▁Гал	-10.3201
рад	-10.3206
▁спортивно	-10.3214
▁присутстви	-10.3214
▁эксперимент	-10.3214
▁выручк	-10.3214
▁Бал	-10.3218
▁43	-10.3239
▁отряд	-10.324
▁предпринимател	-10.3241
U	-10.3241
▁семи	-10.3242
▁выполнен	-10.3243
▁ший	-10.3243
▁вперед	-10.3246
▁Узбекистан	-10.3246
▁проезд	-10.3246
▁нарушений	-10.3246
▁храм	-10.3247
▁проблему	-10.3247
▁сотрудничеств	-10.3248
▁авиации	-10.3249
▁Бра	-10.3253
▁интересы	-10.3255
ad	-10.3266
летня	-10.3268
▁ности	-10.3268
▁президенту	-10.3273
▁49	-10.3275
Новости	-10.3275
близи	-10.3276
▁статьи	-10.3277
▁военн	-10.3279
▁ГИБДД	-10.3279
▁крупно	-10.3279
▁огонь	-10.3279
▁спутник	-10.328
▁планируют	-10.3281
строй	-10.3294
▁Нет	-10.3296
▁использован	-10.3296
▁французско	-10.3305
▁желание	-10.3308
▁Кра	-10.3308
▁частью	-10.331
▁Ярослав	-10.3311
▁поставщик	-10.3311
могло	-10.3312
▁оборудования	-10.3312
▁торгово	-10.3314
▁слово	-10.3314
▁решений	-10.3316
▁вылет	-10.3319
▁местах	-10.3323
▁организаци	-10.3328
▁возраста	-10.3331
▁использу	-10.3332
▁правительстве	-10.3333
▁пищ	-10.3333
▁исполнител	-10.3335
▁американц	-10.3337
▁сути	-10.3337
лес	-10.3342
казать	-10.3343
▁контр	-10.3343
▁Сообщается	-10.3344
▁причастност	-10.3344
▁подростк	-10.3344
▁родителей	-10.3344
▁единиц	-10.3345
▁Артем	-10.3345
▁выяснилось	-10.3345
▁объясняет	-10.3347
МК	-10.3347
na	-10.3355
▁министров	-10.3355
эль	-10.3363
▁руководств	-10.3367
▁заключения	-10.3373
▁Кузнецов	-10.3377
▁Улюкаев	-10.3377
▁выезд	-10.3377
▁Перво	-10.338
▁старши	-10.3395
▁комиссия	-10.3407
▁подтвержден	-10.341
▁предела	-10.3414
▁населенны	-10.3415
▁избирателей	-10.3422
▁Дело	-10.3434
▁промышленн	-10.3435
▁столкну	-10.3439
▁льно	-10.3449
▁используют	-10.3456
▁57	-10.3463
▁тело	-10.3465
бек	-10.3466
▁дальне	-10.3475
▁Кремля	-10.3476
▁защища	-10.3476
▁$4	-10.3476
▁госпож	-10.3476
▁ждет	-10.3476
▁иначе	-10.3478
▁убийства	-10.3484
▁поля	-10.3487
крытия	-10.3488
платить	-10.3488
▁необходимость	-10.3488
▁Кто	-10.3488
▁мотор	-10.3492
▁Полици	-10.3495
▁лицо	-10.3495
▁центрально	-10.3496
▁съезд	-10.3503
▁животных	-10.3507
pyr	-10.3509
▁опрошенны	-10.3509
▁письмо	-10.3509
▁Без	-10.3512
водить	-10.3513
▁материалы	-10.3527
▁обязан	-10.3542
▁инфляции	-10.3542
▁компанией	-10.3542
▁соверша	-10.3542
▁безопасность	-10.3543
▁китайско	-10.3544
▁Автор	-10.3545
▁приняты	-10.3545
▁количества	-10.3547
▁работников	-10.3552
▁отказались	-10.3553
▁произведен	-10.3557
▁туда	-10.3557
▁отечественн	-10.3557
▁50%	-10.3563
▁поддержк	-10.3563
▁представителям	-10.3564
▁признани	-10.3567
▁президенты	-10.357
▁видимо	-10.3575
Жанейро	-10.3576
▁розыск	-10.3576
▁укреплени	-10.3577
▁соревнования	-10.3577
▁5-	-10.3578
▁собственник	-10.3578
▁случаях	-10.3582
экономическ	-10.3585
▁важн	-10.3593
▁развивать	-10.3597
▁результатам	-10.3598
▁дали	-10.3606
▁жела	-10.3607
▁ночью	-10.3608
▁заболевания	-10.3609
▁полицейские	-10.3609
▁гибели	-10.3609
▁динамик	-10.3609
▁земле	-10.361
▁домашни	-10.361
▁полицию	-10.361
▁заяв	-10.3612
▁напоминает	-10.3612
▁скончался	-10.3612
▁2007	-10.3618
▁правительств	-10.3619
▁капитала	-10.3619
▁общество	-10.362
▁помещени	-10.3623
план	-10.3624
▁вступил	-10.3634
▁справи	-10.3636
▁уточняет	-10.3637
Золот	-10.3643
▁актрис	-10.3644
▁зло	-10.3653
▁игроков	-10.3656
▁тяжелы	-10.366
▁устройства	-10.366
▁называемы	-10.3671
▁финансирование	-10.3672
▁Бур	-10.3676
Щ	-10.3677
▁преврати	-10.3677
▁непосредственно	-10.3677
▁климат	-10.3677
▁встретил	-10.3677
▁теракта	-10.3679
▁шей	-10.3681
▁чемпионов	-10.3681
▁живот	-10.3686
люб	-10.3689
▁Перв	-10.3689
▁предлага	-10.3689
пп	-10.3692
езж	-10.3694
▁предприятие	-10.3694
▁картины	-10.3711
▁акция	-10.3711
правления	-10.3712
▁туризм	-10.3715
▁положения	-10.372
▁Пр	-10.3723
▁10%	-10.3727
▁вышл	-10.3728
▁Мон	-10.3728
▁Шу	-10.3738
▁металл	-10.3739
▁жителям	-10.374
▁солдат	-10.3745
▁очков	-10.3746
▁организм	-10.3747
▁довер	-10.3754
▁Перед	-10.3755
▁звани	-10.3757
▁улицы	-10.3772
скать	-10.3781
▁оборудование	-10.3783
▁действие	-10.3784
▁Кара	-10.3799
▁Федеральн	-10.38
▁предложен	-10.3805
▁означает	-10.3813
▁обсудил	-10.3813
пред	-10.3813
▁итоги	-10.3814
▁прочи	-10.3819
▁типа	-10.3821
▁пожара	-10.3837
▁долга	-10.3839
▁привлечени	-10.3839
▁коррупции	-10.3841
▁смерт	-10.3845
▁открыв	-10.3845
▁долги	-10.3845
▁Председател	-10.3847
▁водителя	-10.3847
▁резолюци	-10.3847
▁хищени	-10.3848
▁20-	-10.3849
▁действова	-10.3851
▁банковски	-10.3853
▁Кос	-10.3855
▁юридически	-10.3858
▁отстранен	-10.3859
▁достигнут	-10.3861
▁кредитор	-10.3865
▁трое	-10.3866
▁списка	-10.3867
▁банковск	-10.3869
▁множество	-10.3871
▁пара	-10.3874
чел	-10.3876
▁знают	-10.3878
▁стади	-10.3881
▁ОПЕК	-10.3882
▁административны	-10.3882
▁ветеран	-10.3882
▁изучени	-10.3882
▁крыш	-10.3884
▁появится	-10.3889
▁игру	-10.389
▁2020	-10.3891
▁кандидатур	-10.3891
▁лист	-10.3892
▁коммерчески	-10.3893
▁угрозы	-10.3895
▁Дом	-10.3897
▁Ху	-10.3901
▁мобильны	-10.3902
▁разби	-10.3903
▁прокуратур	-10.3909
Краснодар	-10.391
▁проходят	-10.3911
▁потенциал	-10.3912
▁производителей	-10.3916
▁Белоруссии	-10.3917
▁бесплатно	-10.3917
▁узнал	-10.3917
▁желани	-10.3921
▁собак	-10.3922
▁g	-10.3924
▁сотрудничество	-10.3942
▁организован	-10.3947
▁встреч	-10.3949
▁офицер	-10.3951
▁незаконны	-10.3951
▁ВВС	-10.3952
▁буквально	-10.3952
▁сомнени	-10.3952
▁Литв	-10.3956
▁следов	-10.3959
дти	-10.3961
▁писали	-10.3963
▁изменить	-10.3964
▁боевики	-10.3966
▁осуществля	-10.3966
▁материалов	-10.3966
▁уголовны	-10.3972
гур	-10.3973
▁скрыв	-10.3973
явлен	-10.3974
▁уничтожен	-10.3977
▁группу	-10.3977
▁счита	-10.3979
▁планы	-10.398
▁высше	-10.3985
▁штата	-10.3986
▁Новгород	-10.3986
▁юрист	-10.3986
▁источников	-10.3988
▁целы	-10.399
▁овой	-10.3995
▁границ	-10.3995
▁фракции	-10.3998
▁показать	-10.3999
▁управляющи	-10.4002
▁Евросоюза	-10.4002
▁электронно	-10.4008
▁Али	-10.4012
se	-10.402
ающего	-10.4021
▁наблюдени	-10.4021
▁преодоле	-10.4021
▁появил	-10.4024
▁нападения	-10.4031
▁Аб	-10.4035
▁Дале	-10.4038
▁народа	-10.404
▁британски	-10.404
▁создал	-10.4042
▁показали	-10.4044
▁давал	-10.4052
▁увеличение	-10.4055
▁ислам	-10.4055
▁команде	-10.4056
▁муниципальны	-10.4056
▁завтра	-10.4057
▁покинул	-10.4057
▁взнос	-10.4057
▁определен	-10.4059
▁охот	-10.4061
пон	-10.4068
▁остались	-10.4071
▁Глав	-10.4072
▁подтвердили	-10.4074
▁шего	-10.4076
▁зоны	-10.4086
▁постановлени	-10.4087
▁бюро	-10.4091
▁альтернатив	-10.4091
▁месторождени	-10.4091
▁корпус	-10.4091
▁посадк	-10.4092
▁Лев	-10.4097
▁Дальн	-10.4099
▁института	-10.4099
▁Киева	-10.41
▁Дума	-10.4101
▁видим	-10.4104
▁индекс	-10.4109
▁инфраструктур	-10.4111
▁Друг	-10.4113
▁отсутстви	-10.4114
Транс	-10.4119
▁передачи	-10.4119
▁генеральн	-10.4123
▁3-	-10.4125
▁свидетел	-10.4126
▁Group	-10.4127
▁Соединенны	-10.4127
▁говорили	-10.4133
▁кг	-10.4133
;	-10.4137
▁пострадал	-10.414
▁пришел	-10.4146
ТО	-10.4149
▁американский	-10.4155
▁спроса	-10.4158
▁получен	-10.4159
▁Некоторы	-10.4162
▁полицейских	-10.4162
▁профессор	-10.4162
▁бороться	-10.4162
▁аукцион	-10.4162
▁Париже	-10.4164
▁особы	-10.4169
▁гон	-10.4173
▁расследовани	-10.4174
шиеся	-10.4178
▁километр	-10.4178
▁грозит	-10.418
▁Бол	-10.4183
конференции	-10.4188
▁очевидно	-10.4198
▁субсиди	-10.4198
▁банд	-10.4198
Кавказ	-10.4198
▁турист	-10.4198
▁коммуникаци	-10.4204
▁назначения	-10.4204
▁считаю	-10.4206
▁средни	-10.4213
▁победил	-10.4214
класс	-10.4214
▁герои	-10.4215
▁самолетов	-10.4215
▁террористически	-10.4219
▁действуе	-10.4221
▁качество	-10.4222
▁содержание	-10.4226
▁2,5	-10.4231
▁кадр	-10.4232
▁расширени	-10.4232
▁отстав	-10.4236
▁подключ	-10.4237
сан	-10.424
жин	-10.4242
▁космическ	-10.4244
▁Восточно	-10.4244
▁оказать	-10.4248
вращ	-10.4258
▁обратить	-10.4261
▁назван	-10.4262
▁диск	-10.4266
]	-10.4269
▁Георги	-10.4269
▁ходатайств	-10.4269
▁обстановк	-10.4269
▁баланс	-10.4269
▁население	-10.427
▁обратно	-10.427
▁здоровье	-10.4271
▁работающи	-10.4271
▁Чита	-10.4272
▁Берлин	-10.4273
▁бирже	-10.4275
▁ающий	-10.4276
▁футбольно	-10.4277
▁интересно	-10.4277
▁сверх	-10.4282
▁видно	-10.4285
▁чисто	-10.4286
H	-10.4288
$	-10.4295
▁делают	-10.4299
▁мошенничеств	-10.4305
▁недвижимости	-10.4305
▁рекомендаци	-10.4305
▁внимания	-10.4305
▁Решение	-10.4305
▁предусматривает	-10.4305
▁существовани	-10.4306
▁News	-10.4307
▁[	-10.4308
▁Бог	-10.4309
▁органах	-10.431
бежал	-10.4314
▁золото	-10.4323
▁очка	-10.4324
▁нашем	-10.4326
▁гуманитарн	-10.433
▁зале	-10.4331
▁выступал	-10.4333
гляд	-10.4334
▁Фор	-10.4335
▁низко	-10.4337
▁летни	-10.4341
▁грипп	-10.4341
▁разрушен	-10.4342
▁актуальн	-10.4343
▁выраст	-10.4344
▁кредитов	-10.435
▁пояс	-10.435
▁салон	-10.435
50	-10.4363
▁продукты	-10.4364
▁мероприяти	-10.4368
гиб	-10.4369
▁имущество	-10.4378
▁полномочий	-10.4378
▁Европу	-10.4378
▁соревнований	-10.4378
▁плюс	-10.438
▁обязательства	-10.438
▁персонал	-10.4381
▁передал	-10.4383
▁Хи	-10.4383
▁Всемирно	-10.4385
▁терактов	-10.4385
гул	-10.4386
▁служб	-10.4388
▁ТВ	-10.439
▁in	-10.439
▁Самы	-10.4394
▁черно	-10.4397
▁приобретени	-10.4399
▁Арави	-10.4401
▁поколения	-10.4404
онных	-10.4406
▁поправки	-10.4407
казывать	-10.4407
▁желающи	-10.4408
▁Общ	-10.4408
▁советник	-10.4408
▁компанию	-10.4414
▁соблюдени	-10.4414
▁теннис	-10.4414
%)	-10.4415
▁предлагают	-10.4416
▁Бен	-10.4416
▁разработан	-10.442
▁категории	-10.442
▁сокращение	-10.4421
▁20%	-10.4423
▁участков	-10.4429
▁овая	-10.443
▁выдач	-10.4432
▁Васили	-10.4434
сотни	-10.4436
ступить	-10.4436
▁считается	-10.4441
▁r	-10.4442
▁внешни	-10.4445
▁овым	-10.4447
Q	-10.4451
▁убежден	-10.4451
▁хозяев	-10.4451
▁оформлен	-10.4451
▁растет	-10.4452
▁поднял	-10.4459
▁преступлени	-10.4469
▁закупк	-10.4473
▁41	-10.4477
▁дальнейшем	-10.448
▁Лондоне	-10.4482
▁оставил	-10.4483
очные	-10.4485
печат	-10.4486
▁Меркель	-10.4487
▁поставлен	-10.4487
▁акциз	-10.4487
▁комфорт	-10.4487
▁продаже	-10.4488
▁Тур	-10.4489
▁профессиональны	-10.449
▁школе	-10.449
▁фотографи	-10.4493
▁способност	-10.4495
шир	-10.4496
тек	-10.4499
▁стабильн	-10.4505
24	-10.4507
▁кин	-10.4512
▁прокуратура	-10.4515
▁владел	-10.4516
▁Татарстан	-10.4524
▁молоды	-10.4524
▁изъят	-10.4524
▁of	-10.4524
▁Луганск	-10.4524
▁целях	-10.4526
▁военнослужащих	-10.4526
▁молодых	-10.4527
▁Учены	-10.4528
▁мощность	-10.4528
▁смерть	-10.4529
▁предоставит	-10.4533
▁боевик	-10.4544
▁класса	-10.4545
▁инвест	-10.4547
▁приказ	-10.4555
▁продолжается	-10.4557
▁воспользова	-10.4561
▁автомобиле	-10.4561
▁увидеть	-10.4561
▁Спорт	-10.4561
▁связь	-10.4562
▁премии	-10.4563
▁Можно	-10.4563
▁гости	-10.4564
▁фар	-10.4577
▁бюджетны	-10.4585
пел	-10.4597
▁заявлении	-10.4598
▁оценил	-10.4599
▁Греции	-10.46
▁восьми	-10.46
крыть	-10.4604
17	-10.4605
▁график	-10.4614
▁задержаны	-10.4617
▁шахт	-10.4618
▁оценкам	-10.4627
▁совместны	-10.4628
▁85	-10.4635
▁лечение	-10.4635
▁неизвестно	-10.4635
▁тенденци	-10.4635
Звезд	-10.4635
▁альянс	-10.4635
▁немецко	-10.4635
▁сюжет	-10.4635
▁цикл	-10.4636
▁ждать	-10.4638
▁профессионально	-10.4638
▁кажд	-10.4639
▁школьн	-10.4641
12	-10.4641
▁600	-10.4643
▁мск	-10.4647
учил	-10.4654
▁торговл	-10.4664
Южн	-10.467
транс	-10.4671
▁Челябинск	-10.4672
▁педагог	-10.4672
▁подготовлен	-10.4672
▁публично	-10.4672
▁реконструкци	-10.4672
▁фестиваля	-10.4672
▁устроил	-10.4672
очный	-10.4676
▁извест	-10.4678
▁Союза	-10.468
▁финанс	-10.4681
▁меч	-10.4682
▁Донбасс	-10.4687
▁необходим	-10.4689
▁Сотрудники	-10.4692
▁участникам	-10.4695
▁сына	-10.4699
▁протеста	-10.4709
▁дискусси	-10.471
▁неожиданно	-10.471
ступления	-10.471
Динамо	-10.4711
▁РАН	-10.4712
▁отправля	-10.4716
▁осталось	-10.4717
▁кадров	-10.4717
▁Реч	-10.4718
▁удач	-10.472
▁намерены	-10.4733
Интер	-10.4742
При	-10.4742
▁друзья	-10.4747
▁постепенно	-10.4747
▁останется	-10.4748
▁атлет	-10.4749
▁Люди	-10.475
бить	-10.4751
▁Мед	-10.4752
▁вагон	-10.4753
▁снизить	-10.4753
▁настроен	-10.4755
▁принима	-10.4755
▁северо	-10.4758
▁выгод	-10.4761
▁выбира	-10.4767
▁представить	-10.4768
▁борт	-10.4774
▁продажу	-10.4776
▁подозреваем	-10.4777
▁вышли	-10.4784
▁кроссовер	-10.4785
▁мусор	-10.4785
▁поднима	-10.4786
▁Васильев	-10.4786
▁прошлы	-10.479
▁будущи	-10.479
▁Жител	-10.4791
▁отдал	-10.4792
▁долю	-10.4793
тяж	-10.4797
▁зарплаты	-10.4804
▁лент	-10.4806
▁улучшени	-10.4809
▁подразделения	-10.4813
▁числ	-10.4814
жан	-10.4815
Локомотив	-10.4823
▁хватает	-10.4823
▁версия	-10.4823
▁комментиру	-10.4823
▁понимани	-10.4823
▁больнице	-10.4825
учить	-10.4828
▁Бес	-10.4828
▁видит	-10.4835
▁регулировани	-10.4839
▁искусства	-10.4843
▁отечественны	-10.4844
▁количеств	-10.4848
▁продолжать	-10.485
▁истребител	-10.4861
▁проспект	-10.4861
▁недостаточно	-10.4862
▁профессионал	-10.4863
иректор	-10.4864
▁написан	-10.487
▁рассмотре	-10.4871
▁Государственно	-10.4873
▁родственник	-10.4882
▁устройство	-10.4884
▁благодар	-10.4885
▁началась	-10.4886
мол	-10.4894
нис	-10.4895
▁поврежден	-10.4898
летел	-10.4898
▁прямы	-10.4899
▁преступник	-10.4899
ступает	-10.49
▁перевозк	-10.4901
▁преступлений	-10.4901
▁ждут	-10.4902
▁утверждают	-10.4902
▁храни	-10.4903
▁техника	-10.4904
Кр	-10.4907
▁образование	-10.4911
▁юго	-10.4914
▁больницы	-10.4915
чал	-10.492
▁президентски	-10.4926
▁пошли	-10.4927
тоимость	-10.4927
шек	-10.4931
▁исправ	-10.4932
▁5%	-10.4932
гло	-10.4933
демократ	-10.4935
▁обязательств	-10.4935
ухов	-10.4936
▁заверши	-10.4937
▁знаменито	-10.4939
▁Обамы	-10.4939
▁дают	-10.4941
▁идея	-10.4943
▁особ	-10.4946
▁ающие	-10.4947
Северной	-10.4952
Ан	-10.4952
▁примет	-10.4953
▁Пен	-10.4955
▁Два	-10.4967
▁Само	-10.497
▁уверены	-10.4971
Москва	-10.4974
▁ранены	-10.4975
▁Центробанк	-10.4976
▁справедливо	-10.4976
▁Кремле	-10.4976
СК	-10.4981
▁набрал	-10.4981
▁нормально	-10.4982
▁преступно	-10.4984
▁способны	-10.4984
▁ясно	-10.4986
▁Международны	-10.4987
▁остаются	-10.4987
▁собрал	-10.4996
▁принес	-10.5
▁спокойно	-10.5004
▁рассматривает	-10.5011
▁территория	-10.5011
▁Сал	-10.5013
▁просит	-10.5013
▁присутствова	-10.5015
▁детям	-10.5015
▁осужден	-10.5016
▁изуча	-10.5027
▁достигл	-10.5032
▁направля	-10.5036
▁настоящ	-10.5036
▁нашу	-10.5038
мерно	-10.504
▁Ген	-10.5041
▁обычны	-10.5049
▁ИГИЛ	-10.5053
▁немецки	-10.5053
▁размести	-10.5054
▁ww	-10.5054
▁доктор	-10.5054
▁брак	-10.5054
▁родители	-10.5055
ведении	-10.5059
da	-10.506
▁получают	-10.5062
▁домой	-10.5063
▁сложи	-10.5064
▁высокой	-10.5071
▁обвиняемы	-10.5073
▁нужда	-10.5076
▁поручени	-10.508
25	-10.5081
▁выходит	-10.5082
ul	-10.5083
▁морско	-10.5084
▁аварий	-10.5088
▁следственны	-10.5092
▁нужна	-10.5092
▁границу	-10.5093
так	-10.5093
доль	-10.5093
▁дешев	-10.5096
▁явно	-10.5098
▁поверхност	-10.5099
▁подразделени	-10.5103
▁коалиции	-10.5105
▁Тел	-10.5107
▁поздне	-10.5116
▁задачи	-10.5118
▁решать	-10.5119
▁союзник	-10.512
▁вкус	-10.5124
Башнефт	-10.5131
▁iPhone	-10.5131
▁Австрали	-10.5131
▁атмосфер	-10.5131
▁землетрясени	-10.5131
▁сотруднича	-10.5131
▁память	-10.5131
▁сократить	-10.5131
▁Англи	-10.5131
▁контроле	-10.5132
▁решению	-10.5133
▁реестр	-10.5136
▁черны	-10.5136
▁получа	-10.5137
▁англ	-10.5139
▁сним	-10.514
зже	-10.5143
▁собственности	-10.5144
вшегося	-10.5147
▁традиционны	-10.5148
▁новогодн	-10.5153
▁52	-10.5156
▁взятки	-10.5156
носят	-10.5161
▁ДНР	-10.5171
▁новостей	-10.5171
▁курорт	-10.5171
▁Мутко	-10.5171
▁итогов	-10.5171
▁небольши	-10.5175
▁идеи	-10.5177
▁Хар	-10.5185
счет	-10.5187
ставят	-10.5189
▁пару	-10.5193
▁кап	-10.5202
▁путешеств	-10.521
▁доставлен	-10.521
▁оправда	-10.521
▁Красноярск	-10.521
▁бригад	-10.521
▁Швеци	-10.521
▁грузов	-10.521
▁океан	-10.5211
▁продолжени	-10.5211
▁чиновник	-10.5213
▁указал	-10.5213
без	-10.5215
▁считал	-10.5215
▁стоял	-10.522
▁органам	-10.5237
▁тон	-10.5238
▁платить	-10.5243
емые	-10.5249
▁начнут	-10.5249
▁будущего	-10.5249
▁комнат	-10.525
▁250	-10.5251
▁Последни	-10.5251
▁крест	-10.5252
▁скорость	-10.5257
▁среднего	-10.5259
▁проведе	-10.5268
▁особенност	-10.5269
▁отпуск	-10.5276
▁Треть	-10.5281
▁боль	-10.5286
▁вину	-10.5288
▁ФАС	-10.5289
▁людьми	-10.5289
▁повестк	-10.5289
▁эпох	-10.5289
▁настолько	-10.5289
▁оценки	-10.529
▁гостей	-10.529
▁футболу	-10.529
▁питания	-10.5292
▁титул	-10.5295
▁видов	-10.5296
▁налога	-10.5299
▁мнения	-10.5304
▁определени	-10.5316
▁война	-10.5316
▁любом	-10.5327
▁наконец	-10.5327
▁одобрил	-10.5329
▁пешеход	-10.5329
▁Может	-10.5329
▁Захарова	-10.533
▁Co	-10.533
▁отметк	-10.5331
co	-10.5333
▁приезжа	-10.5333
▁Юр	-10.5336
▁проголосовал	-10.5342
нья	-10.5352
▁страниц	-10.5353
▁передан	-10.5354
▁положительны	-10.5355
▁регистрации	-10.536
▁возбудил	-10.5369
▁посмотреть	-10.5369
▁талант	-10.5369
▁употреблени	-10.5369
▁присоедини	-10.537
▁чиновники	-10.5371
▁4%	-10.5384
▁ликвидаци	-10.5386
▁фотографии	-10.5389
▁Тим	-10.5392
инэкономразвития	-10.5409
продемонстрирова	-10.5409
▁Times	-10.5409
▁конструкци	-10.5409
▁претендент	-10.5409
▁отказыва	-10.5414
▁окружающ	-10.5422
▁осуществлени	-10.5423
▁Шар	-10.5446
▁военнослужащ	-10.5447
прямую	-10.5449
▁противоречи	-10.5449
▁звук	-10.5449
▁столичны	-10.5452
▁постановление	-10.5454
сып	-10.5456
▁Участник	-10.5458
▁руках	-10.546
▁маленьки	-10.5462
▁ведомств	-10.5463
▁отбор	-10.547
▁министерство	-10.5472
▁получал	-10.5475
▁трат	-10.5476
▁культурно	-10.548
ck	-10.5487
▁Дагестан	-10.549
▁поставок	-10.549
▁прогресс	-10.549
▁пласт	-10.549
▁определить	-10.549
▁немало	-10.549
▁времена	-10.549
▁кредитны	-10.5491
▁прекратит	-10.5491
▁розничн	-10.5491
▁элит	-10.5491
▁производит	-10.5492
▁Парти	-10.5498
▁шест	-10.5499
▁французски	-10.5503
анные	-10.5516
▁наоборот	-10.5531
▁операций	-10.5531
▁эпизод	-10.5531
▁Нижне	-10.5531
▁королев	-10.5531
▁операцию	-10.5531
▁четко	-10.5531
▁пресечения	-10.5531
▁районах	-10.5532
▁фигурант	-10.5533
▁супер	-10.5534
▁крупнейш	-10.5536
▁меша	-10.554
▁прибыл	-10.5546
▁родил	-10.5555
▁юг	-10.5557
▁53	-10.556
▁требуют	-10.556
▁туристическ	-10.5566
▁объясня	-10.5568
▁службу	-10.5569
▁Париж	-10.557
▁Нидерланд	-10.5571
▁участок	-10.5571
▁молодежи	-10.5571
▁живет	-10.5572
▁сумел	-10.5572
▁нефте	-10.5575
▁звон	-10.5577
▁частично	-10.5579
▁Хр	-10.558
▁понятно	-10.558
▁требование	-10.5581
▁Брюсселе	-10.5583
▁независимо	-10.5584
руб	-10.5591
МА	-10.5596
▁прошедши	-10.5602
▁разрешен	-10.5603
▁сопровожд	-10.5605
▁Одна	-10.5608
▁193	-10.5609
▁министерств	-10.561
▁Афганистан	-10.5612
▁перевозчик	-10.5612
▁ставка	-10.5617
▁долгов	-10.5618
▁объекты	-10.5618
полковник	-10.5619
▁мечта	-10.562
▁Тар	-10.5621
ex	-10.5622
W	-10.5623
▁Эн	-10.5637
▁письме	-10.5647
долго	-10.5652
▁историческо	-10.5654
▁оснащен	-10.5654
▁одобрен	-10.5654
▁детьми	-10.5654
▁проход	-10.5654
▁избирательны	-10.5656
▁миллиардер	-10.5659
▁комисси	-10.5664
▁заключение	-10.5671
▁Марин	-10.5678
▁800	-10.5681
▁молод	-10.5687
Рус	-10.5688
▁француз	-10.569
▁°	-10.5691
▁обвинение	-10.5693
▁московском	-10.5694
▁Владивосток	-10.5695
▁москвич	-10.5695
▁Общество	-10.5695
проб	-10.5698
чалось	-10.5699
▁созыв	-10.5703
▁120	-10.5703
▁тяну	-10.5703
маш	-10.5709
▁обращение	-10.571
▁Тер	-10.5711
слыш	-10.5724
▁улучш	-10.5732
▁газов	-10.5733
▁удастся	-10.5736
▁протокол	-10.5736
▁выделя	-10.5737
▁крови	-10.5743
ключить	-10.5748
▁To	-10.5751
▁четверто	-10.5752
+	-10.5753
▁арбитраж	-10.5755
▁чиновника	-10.5756
,1%	-10.5759
▁частно	-10.5769
▁Хан	-10.577
▁Su	-10.5772
▁Др	-10.5773
▁ранен	-10.5777
▁противодействи	-10.5778
▁приглашен	-10.5778
▁будущее	-10.5778
▁ученых	-10.5779
ve	-10.5786
▁цар	-10.5788
идеть	-10.5789
первые	-10.579
▁делал	-10.5804
▁экономика	-10.5806
▁существ	-10.5807
▁властями	-10.5808
▁получает	-10.581
per	-10.5814
▁дочь	-10.5815
▁играл	-10.5818
▁полицейско	-10.582
▁поддерживает	-10.582
▁Тор	-10.582
▁достижени	-10.582
▁Al	-10.5821
▁огромно	-10.5823
▁готовности	-10.583
▁вруч	-10.5836
▁водителе	-10.5836
▁Z	-10.5837
▁пострадавши	-10.5838
угл	-10.5843
▁ающе	-10.5844
десят	-10.5851
▁сокращен	-10.5852
▁учи	-10.5856
▁устройств	-10.5857
▁благотворительн	-10.5862
▁Чечни	-10.5862
▁врачей	-10.5875
▁обстоятельств	-10.588
▁проверка	-10.588
▁нском	-10.5888
▁обращения	-10.5902
▁мониторинг	-10.5904
▁топлива	-10.5904
rent	-10.5904
▁испытани	-10.5905
▁суток	-10.5907
▁дневн	-10.5912
▁недель	-10.5913
▁властям	-10.5916
▁столиц	-10.5917
▁ворота	-10.592
▁рано	-10.592
▁уйти	-10.5924
▁граждански	-10.5931
▁занимают	-10.5933
▁56	-10.5937
▁какое	-10.5939
ационн	-10.5944
▁Агентств	-10.5946
▁здании	-10.5946
▁вынес	-10.5955
▁производител	-10.5966
▁Велико	-10.5966
Ростов	-10.5968
▁значительны	-10.597
▁журналисты	-10.5972
▁перенос	-10.5975
Дону	-10.5976
▁гостиниц	-10.5978
снаб	-10.5982
править	-10.5986
▁расход	-10.5986
▁выяснил	-10.5987
▁предыдуще	-10.5989
▁удовлетворен	-10.5989
▁церкви	-10.5989
▁быстрее	-10.5989
▁посетил	-10.5989
▁юбиле	-10.5989
▁способствова	-10.599
▁Турцию	-10.599
▁энергетики	-10.5991
▁должностны	-10.5992
▁кредитовани	-10.5994
▁строго	-10.5998
▁экипажа	-10.6017
▁определенно	-10.6019
▁понял	-10.6028
▁Геннади	-10.6032
▁Олимпиаде	-10.6032
▁строить	-10.6035
▁II	-10.6036
▁ученик	-10.6039
▁стоят	-10.6039
▁заключает	-10.6042
▁Аравии	-10.6047
▁Крис	-10.6055
▁другое	-10.6057
▁67	-10.6059
Почт	-10.606
▁оценивает	-10.606
▁Минск	-10.6067
▁пир	-10.6068
▁30%	-10.607
▁Генпрокуратур	-10.6075
▁Мужчин	-10.6075
▁регламент	-10.6075
▁письма	-10.6075
▁Проект	-10.6075
▁признать	-10.6075
▁чуж	-10.6075
▁жестко	-10.6076
▁Азии	-10.6077
▁прекрасно	-10.6078
▁мать	-10.6078
▁Востока	-10.6079
▁ужас	-10.6082
кинуть	-10.6082
▁называемо	-10.6082
BC	-10.6083
▁рубеж	-10.6091
ti	-10.6092
▁Государственн	-10.6092
▁соответствующе	-10.6095
лияния	-10.6097
▁рассказывал	-10.6101
▁требованиям	-10.6105
▁усилени	-10.6106
бург	-10.6112
▁54	-10.6113
Ар	-10.6114
▁использует	-10.6116
▁текущи	-10.6118
▁телевидени	-10.6118
▁отправить	-10.6118
▁любовь	-10.6119
▁полагают	-10.6119
▁полтора	-10.6119
▁занять	-10.612
▁значение	-10.6121
казывал	-10.6125
▁крупном	-10.6132
ine	-10.6137
▁россиянин	-10.615
шер	-10.6151
▁пап	-10.6157
▁Московского	-10.6159
▁Благодар	-10.6161
▁злоумышленник	-10.6161
▁мусульман	-10.6161
▁персонаж	-10.6161
▁предъявлен	-10.6161
▁чрезвычайно	-10.6161
▁смотреть	-10.6161
бросил	-10.6161
▁таможенн	-10.6161
▁жило	-10.6161
идею	-10.6163
▁въезд	-10.6164
▁непрост	-10.6169
▁ваше	-10.617
▁боев	-10.6187
▁опасно	-10.6191
▁возникл	-10.6191
▁планов	-10.6192
▁ающим	-10.6194
▁лечения	-10.6195
▁малы	-10.6196
▁професси	-10.6196
▁Бразилии	-10.6197
▁ключев	-10.6201
▁Соответствующ	-10.6204
▁деревн	-10.6205
▁зампред	-10.6206
предпринимателей	-10.621
▁Мур	-10.622
Роснефть	-10.622
▁учрежден	-10.6243
▁агресси	-10.6247
▁баррелей	-10.6248
▁возглавил	-10.6248
▁предназначен	-10.6248
▁прозрачн	-10.6248
▁хакер	-10.6248
▁неудач	-10.6251
ir	-10.6254
▁WADA	-10.6256
▁провод	-10.6261
▁миграци	-10.6263
▁поддержи	-10.6265
▁администрация	-10.6275
▁огн	-10.6276
▁обращени	-10.6278
▁66	-10.6283
▁ЖКХ	-10.6292
▁Индии	-10.6292
▁рыночн	-10.6292
▁заверил	-10.6294
▁Йо	-10.6297
▁своему	-10.6302
▁взаимодействи	-10.6319
▁существую	-10.6325
▁допрос	-10.6332
ent	-10.6334
▁Вооруженны	-10.6336
▁Польши	-10.6336
▁полгода	-10.6336
▁концепци	-10.6337
▁Яр	-10.6342
▁бывает	-10.6342
▁правово	-10.6349
▁виду	-10.635
▁отказать	-10.635
▁просил	-10.635
▁добро	-10.6351
▁хранени	-10.6356
▁1,2	-10.6357
▁состоялся	-10.6363
ифиц	-10.6375
▁Ассоциаци	-10.638
▁негативно	-10.638
▁ситуацией	-10.638
▁электроэнерги	-10.638
▁СНГ	-10.638
▁читател	-10.6381
▁заметно	-10.6381
▁ребята	-10.6386
▁глаз	-10.6387
,2%	-10.6392
▁госсекретар	-10.6398
▁бело	-10.6402
▁избирател	-10.6402
▁предоставлен	-10.6403
▁добива	-10.6406
▁ресурсов	-10.6408
▁принимают	-10.6411
▁олимпийски	-10.6416
▁образц	-10.6416
▁противостояни	-10.6424
▁домашне	-10.6425
▁владельца	-10.6425
▁показывает	-10.6425
,9%	-10.6426
▁американск	-10.6426
▁стреми	-10.6426
▁содержит	-10.6426
▁Победы	-10.6427
▁имена	-10.643
ho	-10.6438
▁потребителей	-10.644
тивны	-10.6442
▁исследовател	-10.6461
▁испытания	-10.6466
▁Ближне	-10.6469
▁пенсии	-10.6469
▁продолжил	-10.6469
▁певиц	-10.647
▁наказания	-10.647
▁оппозици	-10.6474
▁поручил	-10.6475
▁услыша	-10.6477
▁3%	-10.6482
грать	-10.6485
di	-10.6485
▁печ	-10.649
▁лидером	-10.6497
Известия	-10.6498
▁украинск	-10.6498
▁вызван	-10.6499
АН	-10.6507
ation	-10.6508
▁дисциплин	-10.6508
▁Жан	-10.6509
▁вмешательств	-10.6514
▁модернизаци	-10.6514
▁поединк	-10.6515
▁тип	-10.6519
▁вероятность	-10.6519
▁Фед	-10.6524
pe	-10.6529
▁Филипп	-10.6529
,7%	-10.653
▁партнеров	-10.6538
▁зрителей	-10.6538
росс	-10.654
▁Сред	-10.654
▁парламентски	-10.6543
тайн	-10.6544
▁горд	-10.6548
▁Калининград	-10.6559
Справедлив	-10.6559
▁обознач	-10.6559
▁переворот	-10.6559
▁подорожа	-10.6559
▁музея	-10.6559
▁Хорош	-10.656
▁запреща	-10.656
▁робот	-10.6561
▁мощны	-10.6561
▁строительны	-10.6562
▁строител	-10.6563
стон	-10.6564
▁свят	-10.6565
▁the	-10.6566
▁ныне	-10.6571
▁рубрик	-10.6571
▁потери	-10.6574
▁градусов	-10.6581
ничеств	-10.6584
▁распространен	-10.6586
▁приватизации	-10.659
▁начнется	-10.6592
изация	-10.6592
▁машину	-10.6592
▁серьезн	-10.6597
▁59	-10.6597
▁открытия	-10.6597
,4%	-10.6597
▁напомин	-10.6601
▁Донецк	-10.6602
▁2019	-10.6605
▁полугоди	-10.6605
▁выпустил	-10.6605
▁1%	-10.6605
▁случайно	-10.6612
ie	-10.662
▁граф	-10.662
нцидент	-10.6625
▁3,5	-10.6626
▁сестр	-10.663
▁остановить	-10.6631
▁знач	-10.6631
КБ	-10.6632
чались	-10.6632
щут	-10.664
▁травмы	-10.6642
строения	-10.6643
анных	-10.6643
21	-10.6644
становят	-10.6645
Y	-10.6648
▁Австри	-10.665
▁Египта	-10.665
▁объедини	-10.665
▁подготовил	-10.665
▁Королев	-10.665
▁МОК	-10.665
▁поддерживать	-10.665
▁филиал	-10.665
▁раунд	-10.665
▁экономику	-10.665
▁приходил	-10.666
▁шок	-10.6663
▁демократическ	-10.6665
▁сыр	-10.6669
▁едины	-10.6679
▁осв	-10.6684
▁основания	-10.669
▁марк	-10.669
▁глу	-10.6692
▁ЛДПР	-10.6696
▁инфекци	-10.6696
▁лицензии	-10.6696
▁соблюда	-10.6696
▁Минздрав	-10.6696
▁заказчик	-10.6698
▁товарищ	-10.67
▁край	-10.6703
▁соглашений	-10.6708
▁2006	-10.6711
▁спин	-10.6712
▁расстояни	-10.6713
▁войне	-10.6713
▁2004	-10.6713
▁далее	-10.6717
▁относят	-10.6729
mi	-10.6736
▁предполагаем	-10.6742
▁Испании	-10.6742
▁КНР	-10.6742
Тульской	-10.6742
▁патрул	-10.6743
▁враг	-10.6745
▁эффективны	-10.675
▁случи	-10.6756
ord	-10.6757
▁поколени	-10.6757
▁обладател	-10.6758
▁касс	-10.6759
▁Нужн	-10.676
▁фондов	-10.6761
ивно	-10.6762
▁летчик	-10.6774
ПП	-10.6777
▁иностранн	-10.6777
▁хор	-10.6782
▁64	-10.6785
▁русского	-10.6787
▁достижения	-10.6787
▁конкретно	-10.6788
▁превысил	-10.6788
▁участвую	-10.6788
офф	-10.6795
▁поражение	-10.6797
▁Путиным	-10.6799
армия	-10.6805
свет	-10.6806
▁законом	-10.6807
▁производителя	-10.6822
▁62	-10.6825
▁исчез	-10.6834
▁Известно	-10.6834
▁альбом	-10.6834
▁студи	-10.6835
▁ядерны	-10.6837
▁запретил	-10.6843
оставлять	-10.6843
стар	-10.6848
▁показ	-10.6849
живут	-10.6851
Реал	-10.6851
▁нанесен	-10.6855
ключения	-10.6855
▁выступит	-10.6856
нским	-10.6857
▁потребител	-10.6864
▁сумм	-10.6865
▁требовал	-10.6867
▁ическое	-10.6878
▁находя	-10.6879
▁Америки	-10.688
▁антидопингово	-10.688
▁костюм	-10.688
▁задолженности	-10.688
▁лайнер	-10.6881
парк	-10.6884
▁фирмы	-10.6886
▁День	-10.6904
груж	-10.6916
▁мирового	-10.6917
лизов	-10.6917
▁мигрант	-10.6919
▁Экономика	-10.6927
▁индустри	-10.6927
▁уплат	-10.6927
▁Большинств	-10.6928
Про	-10.6933
▁51	-10.6933
ell	-10.6934
против	-10.6936
▁выполнять	-10.6937
▁силам	-10.6938
▁ЧП	-10.6938
▁шайб	-10.694
▁обнаружил	-10.6941
▁песни	-10.6943
вержен	-10.6952
▁77	-10.6953
▁издани	-10.6958
▁здоров	-10.6961
▁Брюссел	-10.6961
▁взлет	-10.6973
▁лаборатори	-10.6974
▁осенью	-10.6974
▁Яценюк	-10.6974
▁фамили	-10.6974
▁обход	-10.6978
▁Вопрос	-10.6979
▁Наука	-10.698
▁Кат	-10.6985
▁Кост	-10.6985
оставляют	-10.6996
▁Сирию	-10.7
▁виновным	-10.7007
▁космическо	-10.7009
▁продукцию	-10.7021
▁сокраща	-10.7021
▁управлении	-10.7021
j	-10.7021
▁контролирова	-10.7021
▁остановк	-10.7022
▁подозреваемы	-10.7027
▁реформы	-10.703
▁ового	-10.7031
▁роз	-10.7039
▁плод	-10.7039
▁холод	-10.7042
▁препаратов	-10.7047
▁строя	-10.7052
▁информационны	-10.7055
ard	-10.7055
▁положительно	-10.7055
▁активны	-10.7058
▁Надо	-10.7059
▁инвестиционно	-10.7064
▁ориентир	-10.7065
▁глобально	-10.7069
▁офшор	-10.7069
▁похорон	-10.7069
▁Армении	-10.7069
▁выбрал	-10.707
▁Гро	-10.7073
Турецк	-10.7074
▁приговорил	-10.7076
▁судья	-10.708
едет	-10.7082
11	-10.7083
▁подозреваемых	-10.7091
▁относи	-10.7093
▁нефтяны	-10.7096
▁снять	-10.7097
Открыт	-10.7105
▁выжи	-10.7105
▁завершен	-10.7107
резал	-10.7112
▁подтвержда	-10.7114
▁нерв	-10.7116
▁Пентагон	-10.7116
▁Саакашвили	-10.7116
▁содействи	-10.7116
▁счастлив	-10.7116
▁заранее	-10.7117
▁Дамаск	-10.7117
▁потребует	-10.7117
▁строительно	-10.712
▁продлит	-10.7123
▁соц	-10.7124
▁арестовал	-10.7124
▁Кажды	-10.7127
▁физическо	-10.713
шан	-10.7131
▁ставку	-10.7138
▁парад	-10.7139
▁руководителей	-10.714
▁Джи	-10.7145
▁Ростовско	-10.7148
▁выигра	-10.715
▁районов	-10.7159
техник	-10.7164
▁Олимпиады	-10.7164
▁успешны	-10.7164
▁Бизнес	-10.7164
▁политолог	-10.7164
▁сахар	-10.7165
▁признает	-10.7166
▁Северо	-10.7168
▁указывает	-10.7172
▁помогает	-10.7174
▁различ	-10.7174
▁голод	-10.7181
▁валюты	-10.7184
очку	-10.719
▁юридическо	-10.7191
▁назначил	-10.7193
▁плав	-10.7199
▁рубежом	-10.7202
▁Самар	-10.7202
▁осмотр	-10.7203
▁хим	-10.7204
▁относит	-10.7207
▁отрицательн	-10.7212
▁транзит	-10.7212
▁Африк	-10.7212
▁музей	-10.7212
▁жилье	-10.7217
бирать	-10.7222
ельной	-10.7227
▁требуется	-10.723
▁удален	-10.7231
▁1,6	-10.7233
▁склад	-10.7246
▁рисков	-10.7251
▁распространя	-10.7253
▁боево	-10.7253
▁обвини	-10.7256
▁прибор	-10.7258
▁информацией	-10.7261
▁Следственны	-10.7261
▁испытыва	-10.7261
▁провокаци	-10.7261
▁Числ	-10.7264
▁перестал	-10.7266
▁показания	-10.7267
▁Лидер	-10.7268
▁отмечал	-10.7277
▁Тро	-10.7281
казывается	-10.7281
люк	-10.7284
▁инвестиционны	-10.7285
▁интересны	-10.7292
▁Официальны	-10.7299
▁направление	-10.73
▁мирны	-10.7302
▁Большо	-10.7302
▁опор	-10.7304
▁Ro	-10.7307
▁потребност	-10.7309
▁Следствие	-10.7309
▁соцсети	-10.7309
▁событие	-10.7309
▁привез	-10.7309
▁сохранил	-10.7309
▁хотим	-10.7309
▁птиц	-10.731
▁одержал	-10.731
▁полета	-10.7311
падает	-10.7316
▁комментариев	-10.7321
▁парковк	-10.7322
▁2005	-10.7327
▁40%	-10.733
▁организова	-10.7335
▁угрозу	-10.7346
▁Особенно	-10.7349
▁58	-10.7349
▁забил	-10.7353
▁ухудш	-10.7354
▁Pa	-10.7355
▁единственно	-10.7356
▁установлено	-10.7357
▁заканчива	-10.7358
▁устав	-10.736
▁объясни	-10.7362
▁олимпийско	-10.7368
ыграть	-10.7368
▁начнет	-10.7372
▁администраци	-10.7373
▁установ	-10.7375
▁допуска	-10.7377
▁готовят	-10.7378
▁ируем	-10.738
▁глубоко	-10.7387
▁перерыв	-10.7389
кончил	-10.739
▁разрабатыва	-10.7393
2016	-10.7395
Мос	-10.7402
▁килограмм	-10.7407
▁пенсионны	-10.7407
▁продюсер	-10.7407
Яндекс	-10.7407
▁выполнит	-10.7407
▁орбит	-10.7407
▁Британск	-10.7407
▁комментирова	-10.7407
▁портфел	-10.7407
▁Руслан	-10.7409
▁войну	-10.7415
▁велико	-10.7416
▁опубликованно	-10.7418
▁73	-10.742
man	-10.7421
▁популярно	-10.7421
▁называется	-10.7421
▁родно	-10.7425
▁отправлен	-10.7428
нял	-10.7431
▁бир	-10.7431
▁мобильно	-10.7437
▁дач	-10.7439
▁Какие	-10.7449
бывать	-10.7451
▁технология	-10.7456
▁фестиваль	-10.7456
▁произойдет	-10.7456
▁Роберт	-10.7456
▁драк	-10.7463
▁товары	-10.7464
▁помещения	-10.747
▁95	-10.7477
▁подчеркивает	-10.7477
▁мама	-10.7477
▁национальн	-10.7479
▁любител	-10.7481
▁Год	-10.7482
▁численност	-10.7493
▁открыть	-10.7499
▁трем	-10.7502
▁обсуждать	-10.7502
▁Специалист	-10.7506
▁Турцией	-10.7506
▁библиотек	-10.7506
▁заработал	-10.7506
▁ощущени	-10.7506
▁поклонник	-10.7506
▁редактор	-10.7506
▁горожан	-10.7506
▁Степан	-10.7506
▁жестки	-10.7506
нские	-10.7507
▁Самолет	-10.7508
▁разным	-10.7509
▁возмож	-10.7512
▁атомн	-10.7513
▁обвинени	-10.7514
▁земель	-10.7519
▁собирают	-10.7523
▁займет	-10.7523
▁страховы	-10.7524
ig	-10.753
ходящих	-10.7534
▁Николаев	-10.7535
▁исключение	-10.7538
▁квартиру	-10.7539
▁Лю	-10.754
▁подробност	-10.7541
▁взаимодействия	-10.7546
люд	-10.7546
ng	-10.7551
вольно	-10.7552
▁дистанц	-10.7554
▁оппонент	-10.7555
▁патриарх	-10.7555
▁уменьши	-10.7555
▁коллектор	-10.7555
▁капитан	-10.7555
port	-10.7556
Газете	-10.7556
▁воздушны	-10.7559
няк	-10.7559
▁нужд	-10.7563
▁заемщик	-10.7563
праве	-10.7568
▁доступны	-10.7573
▁карьеру	-10.7574
▁Америка	-10.7577
ha	-10.7581
▁страх	-10.7583
логическ	-10.7593
▁экологическ	-10.76
▁de	-10.7604
▁Еврокомисси	-10.7605
▁Норвеги	-10.7605
▁ФРГ	-10.7605
▁поясняет	-10.7605
▁Женщин	-10.7605
релиз	-10.7606
▁обжалова	-10.7606
▁Грузии	-10.7608
▁силовик	-10.7608
▁футбольны	-10.7611
▁детств	-10.7613
▁Мэр	-10.7619
▁ожидает	-10.7621
▁деклараци	-10.7621
▁полис	-10.7625
▁плот	-10.7625
▁поздн	-10.7626
леб	-10.7634
монт	-10.7637
▁ционн	-10.7642
▁обещал	-10.7644
▁шар	-10.7647
▁овски	-10.7648
▁69	-10.7649
▁РЖД	-10.7656
▁квалификаци	-10.7656
▁возврат	-10.7656
▁проверить	-10.7656
▁опять	-10.7656
▁восстановить	-10.7657
▁Yo	-10.7657
▁боксер	-10.7661
▁Семен	-10.7664
▁Mar	-10.7667
▁нефтяно	-10.7667
зел	-10.768
▁сборную	-10.7687
▁72	-10.7687
ac	-10.7697
▁родны	-10.7698
▁координ	-10.7699
▁жар	-10.7702
▁весной	-10.7702
▁Конституци	-10.7706
▁Результат	-10.7706
▁добычу	-10.7706
▁построить	-10.7706
▁уважени	-10.7706
▁земля	-10.7706
▁Поздн	-10.7706
▁уступил	-10.7708
▁обсудит	-10.7709
▁потенциальны	-10.7711
▁терроризмом	-10.7711
вторых	-10.7715
▁экипаж	-10.7723
▁установленны	-10.7727
▁подозрева	-10.7728
▁действовал	-10.7733
▁сообщени	-10.7739
▁Пят	-10.7741
▁жир	-10.7744
ителей	-10.7744
▁99	-10.7747
рвать	-10.7749
▁68	-10.775
▁учеб	-10.775
▁обвиня	-10.7752
rt	-10.7754
▁Документ	-10.7757
▁ОБСЕ	-10.7757
▁космодром	-10.7757
▁постоянны	-10.7757
▁бомбардировщик	-10.7757
▁остановил	-10.7757
▁легки	-10.7758
▁груд	-10.7758
▁хлеб	-10.776
▁просты	-10.7761
▁стимул	-10.7763
▁скорости	-10.7773
▁допусти	-10.7778
ндер	-10.7782
▁проще	-10.7786
▁сухо	-10.779
▁коммунист	-10.7794
▁заключа	-10.7796
▁жилы	-10.7796
▁руч	-10.7803
▁посеща	-10.7808
Барселон	-10.7808
▁Матвиенко	-10.7808
▁гигант	-10.7808
▁немедленно	-10.7808
▁правонарушени	-10.7808
▁праздничн	-10.7808
▁сердце	-10.7808
▁вдвое	-10.7808
▁кстати	-10.7808
▁штурм	-10.7808
▁слабо	-10.7809
▁важнейш	-10.781
▁продавать	-10.7811
длительно	-10.7824
▁медиа	-10.7824
▁Кореи	-10.783
ton	-10.7833
▁Коми	-10.7844
▁образован	-10.7846
▁принимает	-10.7846
стях	-10.7851
▁лишни	-10.7852
▁Le	-10.7853
▁добра	-10.7854
um	-10.7856
▁производитель	-10.7857
▁экстремист	-10.7857
▁Пальмир	-10.7859
▁консультаци	-10.7859
▁Григори	-10.7859
▁вокзал	-10.7859
▁архив	-10.7859
▁спасти	-10.786
▁ролик	-10.7861
▁разрешения	-10.7861
▁сделано	-10.7865
▁завоевал	-10.7867
▁изменение	-10.7869
▁поздрави	-10.7873
▁Гран	-10.7877
▁ником	-10.7882
▁Одно	-10.7884
▁Волгоград	-10.7895
здрав	-10.7896
культ	-10.7899
▁разниц	-10.7904
▁сырье	-10.7906
▁швейцар	-10.7911
▁эвакуирова	-10.7911
▁христиан	-10.7911
▁шоссе	-10.7911
▁изготовлен	-10.7911
▁английско	-10.7911
▁Ангел	-10.7911
Об	-10.7913
▁Донецко	-10.7914
▁южно	-10.7914
▁собрания	-10.7917
▁минус	-10.7918
▁санкци	-10.7919
▁остал	-10.7921
▁смеш	-10.7935
▁остро	-10.794
▁содержат	-10.7946
▁Дуб	-10.7951
▁Кер	-10.7958
спасательн	-10.7959
пинг	-10.7959
▁преподавател	-10.7961
▁Венесуэл	-10.7963
▁отвечает	-10.7963
▁пенсионно	-10.7963
▁дежур	-10.7963
▁сегодняшне	-10.7963
▁Дэвид	-10.7963
▁первенств	-10.7964
▁склон	-10.7964
▁концов	-10.7967
лайн	-10.7967
▁одни	-10.797
▁действ	-10.7971
▁угрозой	-10.7972
▁промышленно	-10.7974
▁Украиной	-10.7984
▁белы	-10.8003
▁обсуждал	-10.8004
▁Севастополя	-10.8015
▁обязательны	-10.8015
▁ограничив	-10.8015
▁сказано	-10.8015
▁Мосул	-10.8015
▁Башар	-10.8015
▁отрица	-10.8015
▁безусловно	-10.8015
ряж	-10.8019
▁рекомендовал	-10.802
▁ическом	-10.8023
▁развед	-10.8027
▁АТО	-10.8031
▁Вене	-10.8032
▁пришла	-10.8036
▁урок	-10.804
▁черт	-10.8043
▁удовлетвори	-10.8047
▁драм	-10.8047
ly	-10.805
▁испан	-10.8054
▁купил	-10.8057
▁Sa	-10.8061
▁думал	-10.8066
▁Mercedes	-10.8067
▁Бельгии	-10.8067
▁Молдави	-10.8067
▁разбирательств	-10.8067
▁подготовит	-10.8067
▁ссыла	-10.8067
▁знать	-10.8067
▁хуже	-10.8067
Лучш	-10.8068
▁выборам	-10.8075
▁"...	-10.8082
▁действую	-10.8087
ооружения	-10.8096
▁малыш	-10.8098
▁земельны	-10.8105
▁Дер	-10.8113
▁получается	-10.8119
▁Губернатор	-10.812
▁Руководител	-10.812
▁преследовани	-10.812
▁увольнени	-10.812
▁Одни	-10.812
▁Франс	-10.812
▁гимн	-10.8123
▁лыж	-10.8124
СПЧ	-10.8125
,3%	-10.8125
▁приобрел	-10.8126
оценить	-10.8127
▁обвиняем	-10.8133
▁выбрать	-10.8137
▁запрещенно	-10.8145
террористическ	-10.8151
▁отдых	-10.8153
▁кажды	-10.8164
▁студентов	-10.8168
▁отража	-10.8169
сматрива	-10.8169
лузащитник	-10.8173
▁Роспотребнадзор	-10.8173
▁выясня	-10.8173
▁осозна	-10.8173
▁посетит	-10.8173
▁творчеств	-10.8173
▁нижне	-10.8173
▁обоснован	-10.8173
▁разверну	-10.8174
ышел	-10.8177
▁рассматривать	-10.8178
▁ельн	-10.8179
▁полезны	-10.8184
▁федераци	-10.8185
ифика	-10.8193
фан	-10.8197
Деньги	-10.82
▁обман	-10.8203
▁рассказыва	-10.8207
ведут	-10.8208
здание	-10.8213
▁положени	-10.8218
▁западно	-10.8222
▁областн	-10.8224
▁Отечественн	-10.8226
▁предупредил	-10.8226
▁критери	-10.8226
▁наращива	-10.8226
▁героя	-10.8226
▁создавать	-10.8227
▁наверное	-10.8229
▁опасности	-10.8232
▁решит	-10.8234
▁прояви	-10.8235
▁окна	-10.8236
▁обеспеч	-10.8242
▁Управлени	-10.8245
кредит	-10.8248
▁предлагал	-10.8262
тебя	-10.8263
▁74	-10.827
▁Адвокат	-10.8279
▁пистолет	-10.8279
▁биатлон	-10.8279
▁WSJ	-10.8279
▁отметив	-10.8279
▁Команд	-10.828
▁номинаци	-10.828
владельцев	-10.828
▁сетях	-10.828
▁глубин	-10.828
▁Приморск	-10.8284
▁пристав	-10.8284
одно	-10.8287
▁Европейски	-10.829
ИК	-10.8292
▁клетк	-10.8294
▁700	-10.8299
ive	-10.8299
▁честно	-10.8303
▁популяр	-10.8307
▁7%	-10.8312
▁возможност	-10.8321
▁6%	-10.8323
▁тяжел	-10.8323
▁целей	-10.833
▁Стамбул	-10.8333
▁Латвии	-10.8333
▁задействован	-10.8333
▁узнать	-10.8333
▁Свердловск	-10.8333
▁корабля	-10.8333
▁Уголовно	-10.8333
▁упомина	-10.8333
▁проиграл	-10.8333
▁приближ	-10.8333
▁корабле	-10.8333
▁случаи	-10.8333
▁любви	-10.8335
▁показан	-10.8344
▁07	-10.8349
▁Гра	-10.8353
▁Жен	-10.836
▁опаса	-10.8363
Оскар	-10.8368
▁базу	-10.8377
▁забот	-10.8377
▁равны	-10.8378
▁биолог	-10.8379
▁шесто	-10.8382
ЭК	-10.8382
▁перемен	-10.8385
▁Встреча	-10.8387
▁зданий	-10.8387
▁злоупотреблени	-10.8387
▁конгресс	-10.8387
▁заложник	-10.8387
▁магнит	-10.8387
▁величин	-10.8387
▁знамениты	-10.8387
▁отвечаю	-10.8387
▁Пекин	-10.8388
▁концерн	-10.8389
▁Соколов	-10.8389
▁сокращения	-10.8389
▁Краснодарск	-10.839
▁случилось	-10.839
▁скромн	-10.8392
▁63	-10.8393
▁выкуп	-10.8405
ходили	-10.8408
▁некотор	-10.8409
▁медали	-10.8409
▁окруж	-10.8417
▁приобре	-10.8423
▁произошедшего	-10.8425
▁активность	-10.8429
▁оказывается	-10.8439
▁Boeing	-10.8441
▁Михайлов	-10.8441
▁архитектур	-10.8441
▁форвард	-10.8441
▁Джордж	-10.8441
▁рассчитывает	-10.8441
▁инстанци	-10.8441
▁дебют	-10.8441
▁оформи	-10.8442
▁Наибол	-10.8442
Олимп	-10.8443
▁нравится	-10.8443
▁доставк	-10.8444
чальник	-10.8449
▁предвыборно	-10.8449
▁стихи	-10.845
▁временны	-10.8457
▁Алта	-10.8458
▁интеграци	-10.8462
▁музыкальны	-10.8465
▁стабильност	-10.8469
▁банкрот	-10.8494
▁рожден	-10.8496
▁Bloomberg	-10.8496
▁Америке	-10.8496
▁заболеваний	-10.8496
▁космос	-10.8496
Ведомост	-10.8496
▁гектар	-10.8496
▁волонтер	-10.8496
нность	-10.8496
SA	-10.8502
▁связыва	-10.8513
ub	-10.8519
▁правоохранител	-10.854
Й	-10.8544
▁восточн	-10.8549
‐	-10.8551
▁ожидаем	-10.8551
▁упомяну	-10.8551
▁МВФ	-10.8551
▁Регион	-10.8551
▁пограничн	-10.8551
▁портрет	-10.8551
▁давления	-10.8552
▁существующи	-10.8555
▁лодк	-10.8558
▁исполнительно	-10.8558
▁называл	-10.857
▁Одесс	-10.8571
▁меняется	-10.8571
▁партнерств	-10.8572
▁переговор	-10.8573
▁снимк	-10.8575
▁начинают	-10.8579
▁поделил	-10.8581
▁миллиард	-10.8586
▁вероятн	-10.8587
▁требова	-10.8591
▁возобновлени	-10.8592
rk	-10.8599
▁трав	-10.8601
▁поднять	-10.8604
мисс	-10.8604
Аэрофлот	-10.8606
▁СИЗО	-10.8606
▁Станислав	-10.8606
▁дивизи	-10.8606
▁работодател	-10.8606
▁утвердил	-10.8606
▁предоставил	-10.8606
▁жилищно	-10.8606
▁придержива	-10.8606
▁трансляци	-10.8606
▁швед	-10.8606
▁Минюст	-10.8607
▁музее	-10.8607
▁привык	-10.8607
▁ярки	-10.8607
▁ирование	-10.8609
▁доверия	-10.8609
люс	-10.8609
▁алкоголь	-10.8612
▁сложн	-10.8613
исследовательск	-10.8613
▁Тверск	-10.8616
▁слуша	-10.8616
▁устойчиво	-10.8621
▁Закон	-10.864
жесточ	-10.8641
▁чьи	-10.8642
▁мысли	-10.8643
▁рубль	-10.8653
▁рассказ	-10.8654
▁Янукович	-10.8662
▁присутству	-10.8662
▁Хабаровск	-10.8662
▁понимать	-10.8662
▁Аркади	-10.8662
▁знаем	-10.8662
▁похищен	-10.8662
▁расстрел	-10.8662
▁усилит	-10.8664
▁исламист	-10.8664
▁вынесен	-10.8667
▁Эль	-10.8688
▁9%	-10.869
▁гроз	-10.8691
▁носит	-10.8697
▁качественно	-10.8702
версию	-10.8704
▁обвиняют	-10.8707
▁ребят	-10.871
▁Nov	-10.8713
Амур	-10.8713
▁расположенны	-10.8714
▁уникальны	-10.8717
▁BMW	-10.8718
▁максимум	-10.8718
▁побережь	-10.8718
▁тюрьмы	-10.8718
▁спирт	-10.8718
▁Футбол	-10.8718
▁госпитал	-10.8718
▁заработн	-10.8718
▁реагирова	-10.8718
▁продвижени	-10.8718
▁учения	-10.8718
▁фанат	-10.8719
▁законодательно	-10.8719
▁переговорах	-10.872
▁доброволь	-10.8721
▁стартовал	-10.8725
▁новинк	-10.8725
▁разрешение	-10.8728
▁ежедневно	-10.8729
▁запущен	-10.8735
▁независимы	-10.8736
▁музыкально	-10.8744
▁маск	-10.8744
▁подчеркива	-10.875
▁шум	-10.8758
▁76	-10.8758
▁дизайн	-10.8766
▁отменен	-10.8768
▁расположенно	-10.8771
▁Памфилов	-10.8774
▁инспектор	-10.8774
▁рассчитан	-10.8774
▁фрукт	-10.8774
▁обыграл	-10.8774
▁сомнева	-10.8774
▁откровен	-10.8774
▁создает	-10.8775
▁ожидания	-10.8776
▁значения	-10.8777
▁Оста	-10.8781
▁заверша	-10.8786
bo	-10.8788
режде	-10.8792
▁командой	-10.8793
▁патриот	-10.88
▁щие	-10.8801
ry	-10.8803
Красн	-10.8805
▁закрыты	-10.8819
▁задани	-10.8823
▁щий	-10.8824
▁Дэ	-10.8825
▁разрыв	-10.8828
▁YouTube	-10.883
▁заморозк	-10.883
▁недвижимость	-10.883
▁позиций	-10.883
▁Смоленск	-10.883
▁сердца	-10.883
▁мандат	-10.883
▁акцию	-10.8831
▁пребывани	-10.8831
▁откуда	-10.8831
▁Inter	-10.8831
▁скидк	-10.8831
▁боле	-10.8832
Русск	-10.8832
▁японско	-10.8832
▁осад	-10.8834
▁Баб	-10.8839
▁15%	-10.884
равл	-10.8848
▁ставок	-10.8855
▁организацией	-10.8858
▁платежей	-10.8864
▁пул	-10.887
▁закрыв	-10.8873
▁международн	-10.8875
▁качеств	-10.8883
▁Анастаси	-10.8887
▁переработк	-10.8887
Манчестер	-10.8887
▁досрочно	-10.8887
▁пространства	-10.8887
▁происхождени	-10.8887
▁понимает	-10.8887
▁добавляет	-10.8887
Коммерсантъ	-10.8888
▁доставил	-10.8888
▁подрядчик	-10.8889
▁клиник	-10.8889
падающий	-10.8891
▁дизайнер	-10.8895
▁сцене	-10.8904
▁осуществлять	-10.8926
НБ	-10.8933
▁Москвой	-10.8944
▁тщательно	-10.8944
▁параметр	-10.8944
▁денежно	-10.8944
▁Росстат	-10.8944
▁посещени	-10.8944
▁кафе	-10.8946
▁предпочита	-10.8946
zr	-10.8948
▁максимальн	-10.8948
▁спаса	-10.8951
▁очн	-10.896
секретаря	-10.8961
▁личности	-10.8969
▁ГК	-10.8971
▁взыскани	-10.8973
▁Ким	-10.8978
▁подарк	-10.898
горск	-10.8985
▁2%	-10.8992
op	-10.8994
▁уверенность	-10.8996
скольк	-10.9
▁Минэкономики	-10.9002
▁востребован	-10.9002
▁наследия	-10.9002
квалифицирова	-10.9003
▁определил	-10.9011
▁получилось	-10.9017
▁терминал	-10.9018
ища	-10.9019
влечь	-10.9019
ca	-10.9025
▁4,5	-10.903
▁центральны	-10.9031
▁подробн	-10.9032
авит	-10.9033
▁Граждан	-10.9033
▁бомбардир	-10.9059
>	-10.906
і	-10.906
▁аргумент	-10.906
▁друзей	-10.906
▁разработчик	-10.906
закупок	-10.906
▁авиаудар	-10.906
▁Мексик	-10.906
▁застройщик	-10.906
▁топливо	-10.906
▁единоросс	-10.906
▁газопровод	-10.9061
▁сконча	-10.9061
▁закрыл	-10.9062
▁блюд	-10.9064
▁разве	-10.9067
▁гостя	-10.9069
▁Член	-10.907
▁думать	-10.9077
▁лиги	-10.9079
▁станови	-10.9083
▁звонк	-10.9089
▁енным	-10.9091
▁полк	-10.9103
▁Истори	-10.9112
▁88	-10.9117
▁поблагодари	-10.9118
▁приостановлен	-10.9118
▁ожидал	-10.9118
▁мясо	-10.9118
▁тверд	-10.9119
▁полуфинал	-10.912
▁популярность	-10.912
Около	-10.9122
▁академии	-10.9122
▁вызва	-10.9122
▁детали	-10.9123
▁татар	-10.9126
едва	-10.9131
▁академ	-10.9134
▁задержанны	-10.9136
▁добавив	-10.9138
▁пересмотр	-10.9146
▁содержания	-10.9146
▁Сирийск	-10.9156
падают	-10.9161
▁ответить	-10.9169
▁моде	-10.9172
-154	-10.9176
▁муниципалитет	-10.9176
▁разобраться	-10.9176
▁распространи	-10.9176
▁нефтегаз	-10.9176
покупать	-10.9176
▁взлом	-10.9176
▁тренд	-10.9177
РА	-10.9177
▁учреждений	-10.918
▁размещения	-10.9181
▁формально	-10.919
▁либерал	-10.9194
▁прогул	-10.9196
▁дипломатически	-10.92
▁Шир	-10.9204
▁классическ	-10.9207
▁членам	-10.9208
▁78	-10.9221
формировать	-10.9224
▁полны	-10.9225
▁Сад	-10.9228
▁больны	-10.9229
▁медаль	-10.9229
▁алкоголя	-10.9235
▁дивиденд	-10.9235
▁пишут	-10.9235
▁экзамен	-10.9235
▁инвестиции	-10.9235
▁учителя	-10.9235
▁0,5	-10.9237
▁признав	-10.9238
брошен	-10.9238
▁содержащ	-10.9239
▁способству	-10.9241
▁сетей	-10.9255
▁презентаци	-10.9256
▁инвестирова	-10.9257
ражение	-10.9258
▁родственников	-10.9261
▁активности	-10.9267
hi	-10.9282
▁вплот	-10.9285
▁плеч	-10.9288
АвтоВАЗ	-10.9294
―	-10.9294
▁Людмил	-10.9294
▁агрегат	-10.9294
▁батальон	-10.9294
▁естественно	-10.9294
▁Заместител	-10.9294
▁болезни	-10.9294
▁негативны	-10.9294
▁АЭС	-10.9294
правлению	-10.9294
▁Свято	-10.9294
▁подъем	-10.9294
▁условно	-10.9297
▁надеется	-10.9297
▁нужен	-10.9298
право	-10.93
▁);	-10.9301
do	-10.9307
Екатеринбург	-10.9308
ысокопоставленны	-10.9309
▁краево	-10.931
▁линия	-10.9311
▁Пушкин	-10.9316
ологии	-10.9318
▁Vi	-10.9318
▁Фил	-10.9319
▁нарушител	-10.9329
▁Мер	-10.9331
конференци	-10.9332
▁фракци	-10.9333
▁отмеча	-10.9335
ke	-10.9336
▁речи	-10.9337
va	-10.9339
▁индивидуальны	-10.9354
▁конкуренции	-10.9354
▁интенсивн	-10.9354
▁повысить	-10.9354
▁Немцов	-10.9354
▁фермер	-10.9354
▁Московск	-10.9354
▁планеты	-10.9356
▁националист	-10.9357
▁удержива	-10.9358
▁собственн	-10.9359
K	-10.9359
▁щим	-10.936
▁отставке	-10.936
▁Орлов	-10.936
▁движени	-10.9363
восток	-10.9364
▁правящ	-10.9365
▁жительниц	-10.9366
▁свидетельствую	-10.9377
▁Информаци	-10.9385
▁валютны	-10.9388
▁Попов	-10.9389
▁коалици	-10.9394
▁Част	-10.9398
est	-10.94
▁разбира	-10.941
▁морски	-10.9413
▁родителям	-10.9414
▁рассчитывать	-10.9414
▁рынки	-10.9414
▁седьмо	-10.9414
▁командовани	-10.9416
▁заведени	-10.9425
▁ьны	-10.9429
▁данн	-10.9431
▁утверждал	-10.9439
▁призер	-10.9445
▁маленьк	-10.9455
▁выходные	-10.9463
▁пятер	-10.9465
▁арабск	-10.9468
▁двигателя	-10.9474
▁расширя	-10.9474
▁убийц	-10.9474
▁крымски	-10.9474
▁Майкл	-10.9474
▁выявил	-10.9474
▁стратегическо	-10.9474
▁маневр	-10.9474
▁Новак	-10.9477
▁Московский	-10.9477
▁экономист	-10.9478
▁призван	-10.9479
▁FT	-10.9482
▁вторая	-10.9483
тягив	-10.9484
▁допустил	-10.9484
Извести	-10.9485
▁направлений	-10.9488
▁подводн	-10.9493
чество	-10.9496
ill	-10.9497
▁встретить	-10.9499
▁крут	-10.9503
▁Велик	-10.9514
▁Стои	-10.9531
▁объединя	-10.9534
▁соцсетях	-10.9534
▁разрешит	-10.9534
▁коридор	-10.9535
▁физик	-10.9535
▁создател	-10.9542
▁Лук	-10.9542
▁192	-10.9543
▁Верси	-10.9544
▁подтверди	-10.9554
▁фраз	-10.9555
▁торжественн	-10.9556
▁восточно	-10.956
Спорт	-10.9573
▁высши	-10.9574
▁ворот	-10.9576
▁учебно	-10.9581
▁грани	-10.9582
▁больниц	-10.9584
▁ключ	-10.9592
нфляция	-10.9595
▁Подмосковье	-10.9595
▁Швейцарии	-10.9595
▁выполнил	-10.9595
▁демонстриру	-10.9595
▁осложн	-10.9595
▁приглаша	-10.9595
▁недалеко	-10.9595
▁ближе	-10.9596
▁колонн	-10.9597
▁описан	-10.9603
▁ограничений	-10.9603
▁жителя	-10.9604
ec	-10.9608
▁La	-10.9625
Право	-10.9632
щихся	-10.9632
▁защитить	-10.9637
▁возглавлял	-10.964
▁предвыборн	-10.9648
ВКС	-10.9651
▁конструктив	-10.9657
▁легкоатлет	-10.9657
▁норвеж	-10.9657
Daily	-10.9657
▁Мюнхен	-10.9657
▁велосипед	-10.9657
▁самопровозглаш	-10.9657
▁Проблем	-10.9657
▁областях	-10.9657
▁Рамзан	-10.9657
▁авторитет	-10.9657
▁ипотек	-10.9657
ИГ	-10.9657
▁прекратил	-10.9657
▁испыта	-10.9661
▁подъезд	-10.9663
▁срочно	-10.9665
▁комплект	-10.9669
МВД	-10.967
кош	-10.9672
▁Республиканск	-10.9675
вшую	-10.9676
▁1991	-10.9676
▁Джу	-10.968
▁Финанс	-10.9682
▁Правительств	-10.9683
▁Цель	-10.9684
ционный	-10.969
▁силовы	-10.9696
▁требу	-10.9707
▁отменил	-10.9717
▁происходил	-10.9718
▁лагеря	-10.9719
▁совершит	-10.9719
▁болгар	-10.9719
▁историк	-10.9719
▁намечен	-10.9719
▁выбран	-10.9719
▁улыб	-10.9719
▁Mail	-10.9719
▁госпитализирова	-10.9719
Карабах	-10.9721
▁нежел	-10.9723
ment	-10.9731
▁Дании	-10.974
▁спросил	-10.9741
Голос	-10.9744
начал	-10.9744
▁берет	-10.9753
▁готовность	-10.9753
▁Ер	-10.9755
▁ированно	-10.9763
▁чай	-10.9764
▁Стран	-10.9768
▁прекрасн	-10.9776
▁покида	-10.9779
▁Реджеп	-10.9781
▁благоприятн	-10.9781
▁осуществи	-10.9781
▁профсоюз	-10.9781
▁реабилитаци	-10.9781
▁ожидают	-10.9781
▁Демократическ	-10.9781
▁магистрал	-10.9781
▁Тюмен	-10.9781
▁вооруженно	-10.9781
▁японски	-10.9781
▁потребительски	-10.9781
▁Франция	-10.9782
che	-10.9784
ерию	-10.9785
▁строчк	-10.9789
▁вузов	-10.9791
переди	-10.9796
▁уровн	-10.9796
▁отобра	-10.9797
▁общественн	-10.9799
ометр	-10.9802
▁лидиру	-10.9807
▁польско	-10.9817
▁$5	-10.9836
ВКонтакте	-10.9843
▁сформирован	-10.9843
▁удовольствие	-10.9843
▁Единственн	-10.9843
▁Видео	-10.9843
▁коротко	-10.9843
▁Земли	-10.9843
▁хватит	-10.9844
▁запустил	-10.9844
▁вратар	-10.9845
▁демократов	-10.9845
Нуср	-10.9851
▁сюда	-10.9853
▁бокс	-10.9854
▁реальности	-10.9859
▁присоединени	-10.9865
▁представляют	-10.987
▁квадратны	-10.9877
▁лук	-10.9901
▁гип	-10.9901
▁исполнил	-10.9902
▁заксобрани	-10.9906
▁лауреат	-10.9906
▁публичны	-10.9906
▁разработал	-10.9906
▁постановк	-10.9906
▁гряз	-10.9906
▁репутаци	-10.9906
▁Air	-10.9908
▁образовательны	-10.9909
▁исполнительны	-10.9911
▁допустить	-10.9915
настоящему	-10.9915
▁эффективность	-10.9915
▁Мог	-10.9916
▁толк	-10.9917
▁зачем	-10.9918
▁принесл	-10.9921
▁собрать	-10.9924
Газ	-10.9928
▁ПАО	-10.9934
▁Мель	-10.9936
▁остально	-10.9943
▁метео	-10.9943
▁учебны	-10.9948
работан	-10.996
Групп	-10.9964
▁енная	-10.9965
▁антироссийск	-10.9969
▁демонстраци	-10.9969
▁обследовани	-10.9969
▁пространство	-10.9969
▁убедить	-10.9969
▁Тайип	-10.9969
Оренбург	-10.9969
▁приступил	-10.9971
▁Сталин	-10.9979
нское	-10.9986
▁личность	-10.9987
▁устанавлив	-10.9998
▁районны	-10.9998
▁удиви	-11
▁190	-11.0013
▁направленны	-11.0014
▁страд	-11.002
▁завершить	-11.0023
▁возглавит	-11.0033
▁респондентов	-11.0033
▁четверо	-11.0033
▁шахмат	-11.0033
▁учитывая	-11.0033
совершеннолетни	-11.0034
▁уважа	-11.0034
▁двойн	-11.0034
▁накоплени	-11.0034
▁велики	-11.0036
▁Европа	-11.0038
▁дверь	-11.0038
▁Екатеринбурге	-11.0039
▁Украински	-11.0042
▁социальн	-11.0044
▁План	-11.0057
▁имеющих	-11.0058
▁продан	-11.0061
▁Сити	-11.0064
▁ированн	-11.0077
▁щих	-11.008
УП	-11.0089
Ленинград	-11.009
▁коммун	-11.009
-10	-11.009
▁алкогольно	-11.0091
▁Алтайск	-11.0091
▁страшно	-11.0092
▁New	-11.0093
▁Bo	-11.0095
*	-11.0097
▁серебрян	-11.0097
▁Лебедев	-11.0097
▁диагност	-11.0097
▁обеспокоен	-11.0097
▁отреагировал	-11.0097
▁познакоми	-11.0097
▁эвакуаци	-11.0097
▁возгорани	-11.0097
▁наркотиков	-11.0097
▁кабмин	-11.0097
▁пожалуй	-11.0097
▁ответственны	-11.0097
▁юнош	-11.0098
▁Com	-11.01
▁трансфер	-11.01
init	-11.0102
▁полетов	-11.0104
▁страшн	-11.0104
▁существенны	-11.0104
▁80%	-11.0112
▁красны	-11.0114
TV	-11.0115
▁автоматически	-11.012
Вести	-11.0125
▁любит	-11.0129
▁близко	-11.0146
▁фур	-11.0153
▁кинематограф	-11.0162
▁недавне	-11.0162
▁ЛНР	-11.0162
▁выражении	-11.0162
▁воспитани	-11.0162
▁авиабаз	-11.0162
▁батаре	-11.0162
▁выехал	-11.0163
▁штук	-11.0163
▁инициирова	-11.0163
▁жертвам	-11.0163
▁выплачив	-11.0163
▁технику	-11.0164
▁ориентирован	-11.0166
▁ждал	-11.0169
Воронеж	-11.0172
▁монет	-11.0172
граф	-11.0173
▁организовал	-11.0176
▁гуманитарно	-11.0181
▁фотограф	-11.0184
▁щего	-11.0184
▁договоренностей	-11.0194
▁процентны	-11.0201
▁устойчив	-11.0209
▁соглашени	-11.0211
▁зарегистрирова	-11.0214
▁Омск	-11.0218
▁героев	-11.0227
▁железнодорожно	-11.0227
▁предполагал	-11.0227
▁Ситуаци	-11.0227
▁отмечен	-11.0227
▁предусматрив	-11.0227
▁сделок	-11.0227
▁пожалова	-11.0228
▁71	-11.0229
▁волос	-11.0231
▁обеспечен	-11.0231
▁предложений	-11.0232
▁тракт	-11.0234
▁уникальн	-11.0237
▁посетителей	-11.024
▁вуза	-11.0241
▁здорово	-11.0242
▁клиентам	-11.0269
▁ельно	-11.0277
Наш	-11.0279
▁пято	-11.0279
▁коррект	-11.0285
▁Сири	-11.0289
▁Израиля	-11.0292
▁землю	-11.0292
▁красивы	-11.0292
▁эмоциональн	-11.0292
▁ФБР	-11.0292
▁стражей	-11.0292
▁покушени	-11.0292
▁поворот	-11.0292
▁Миронов	-11.0292
▁Польше	-11.0293
▁Франк	-11.0293
▁готовил	-11.0293
▁выстрел	-11.0293
▁проживани	-11.0294
▁подтверждает	-11.0295
▁слышал	-11.0295
▁занятия	-11.0295
▁перелом	-11.0299
▁Амурско	-11.0302
▁Мартин	-11.0303
▁новость	-11.0308
▁судьи	-11.0312
▁Западно	-11.0333
▁вспомина	-11.0335
▁энергетическо	-11.0336
▁лишил	-11.0343
▁тайм	-11.0348
▁Instagram	-11.0358
▁Samsung	-11.0358
▁Собянин	-11.0358
▁Финляндии	-11.0358
▁аналитическ	-11.0358
▁антимонополь	-11.0358
▁компонент	-11.0358
▁НКО	-11.0358
▁радиостанци	-11.0358
▁пригласил	-11.0358
▁сильнее	-11.0363
▁Группа	-11.0363
▁труп	-11.0364
▁кибер	-11.0365
▁экспозици	-11.0368
▁НА	-11.038
▁аемы	-11.0383
▁носил	-11.0385
губернатор	-11.0389
▁02	-11.039
▁почв	-11.0392
▁01	-11.0394
▁перешл	-11.0394
Свобод	-11.04
▁конституци	-11.0413
авайте	-11.0415
▁криминал	-11.0421
▁пострадавш	-11.0423
▁Предполагается	-11.0424
▁Чемпион	-11.0424
▁канцлер	-11.0424
▁космонавт	-11.0424
▁профилактик	-11.0424
▁Организаци	-11.0424
▁мелки	-11.0424
▁Олланд	-11.0424
▁мертв	-11.0426
▁кофе	-11.0428
▁держав	-11.043
ворачив	-11.0433
▁зуб	-11.0452
▁04	-11.0453
бирает	-11.0457
договориться	-11.0458
▁100%	-11.0459
▁коллегами	-11.0459
▁партнерами	-11.0468
▁25%	-11.0471
статься	-11.0471
живать	-11.0472
ложение	-11.0474
▁осуществляет	-11.0484
▁единств	-11.0487
▁Египет	-11.0491
▁монастыр	-11.0491
▁подсудим	-11.0491
▁двадцат	-11.0491
▁заставил	-11.0491
▁спасатели	-11.0491
▁Минтранс	-11.0492
▁моделей	-11.0492
▁подземн	-11.0493
▁погибшего	-11.0494
▁коммерческо	-11.0494
▁191	-11.0496
▁следит	-11.0496
ледовательно	-11.05
▁Русско	-11.0506
▁помнит	-11.0509
▁считаем	-11.0522
▁Никак	-11.0546
▁документаци	-11.0547
ga	-11.055
▁отвечать	-11.0558
▁телевизор	-11.0558
▁хирург	-11.0558
▁контент	-11.0558
▁новейш	-11.0558
▁увеличен	-11.056
▁дочери	-11.056
▁учитель	-11.0561
▁Ряд	-11.0563
IB	-11.0566
▁территориально	-11.057
▁блокад	-11.058
▁обвиняет	-11.0595
ЕР	-11.0615
▁нрав	-11.0623
▁Volkswagen	-11.0625
▁награжден	-11.0625
▁наставник	-11.0625
▁Недавн	-11.0625
▁красот	-11.0625
▁насилия	-11.0626
▁рецепт	-11.0626
▁Жуков	-11.0626
▁шестви	-11.0626
▁Театр	-11.0627
▁зимни	-11.0632
▁думает	-11.0636
▁подозревают	-11.0638
▁американцев	-11.064
▁масштабны	-11.0646
▁вспоминает	-11.0649
▁природны	-11.065
▁значительн	-11.0656
информ	-11.0662
▁покупателей	-11.0663
▁Груз	-11.067
▁Сав	-11.0675
▁Всемирн	-11.068
▁ческ	-11.0688
▁добровольно	-11.069
▁воздейств	-11.0692
q	-11.0693
▁Владислав	-11.0693
▁Прокуратур	-11.0693
▁заслуг	-11.0693
▁метрополитен	-11.0693
▁предположил	-11.0693
▁1990-	-11.0693
▁освободил	-11.0693
▁консул	-11.0693
▁показывают	-11.0694
▁Клим	-11.0698
▁республиканцев	-11.0699
▁животны	-11.07
org	-11.0703
▁незаме	-11.0703
▁составляющ	-11.0706
▁клиническ	-11.071
сторонне	-11.0715
тратить	-11.0718
▁05	-11.0723
▁выпускник	-11.0726
▁Украин	-11.0732
Порт	-11.0739
▁Уильям	-11.0762
▁Университет	-11.0762
▁благоустройств	-11.0762
▁причастны	-11.0762
▁тормоз	-11.0762
▁ожидать	-11.0762
▁поправок	-11.0762
▁юстици	-11.0762
▁везде	-11.0762
▁здоровью	-11.0762
▁посол	-11.0764
▁опасность	-11.0767
▁обществе	-11.0769
▁1,3	-11.0771
▁заявив	-11.0772
▁дорожны	-11.0772
иваем	-11.0774
▁Парламент	-11.0774
▁знания	-11.0775
▁седан	-11.0778
▁дорого	-11.078
▁проезж	-11.0786
поселени	-11.0805
▁приговорен	-11.0805
▁уголь	-11.0817
ГТРК	-11.0831
▁Таджикистан	-11.0831
▁Эдуард	-11.0831
▁аэродром	-11.0831
▁болезнь	-11.0831
▁глобальны	-11.0831
▁сельхоз	-11.0831
▁фабрик	-11.0831
Ы	-11.0831
▁возмещени	-11.0831
▁экстренно	-11.0831
▁Львов	-11.0831
▁Вообще	-11.0831
▁спецназ	-11.0831
▁учитывать	-11.0831
▁зачаст	-11.0831
▁Казани	-11.0831
▁задолженность	-11.0832
▁оплачива	-11.0833
▁1,8	-11.0833
▁освободит	-11.0834
▁происходяще	-11.0834
▁ярко	-11.0838
▁фикс	-11.0843
▁пьян	-11.0844
несут	-11.0846
▁коррупцией	-11.0846
андр	-11.0849
▁грамот	-11.0852
▁адапт	-11.0853
▁Катар	-11.0853
▁украшен	-11.0858
▁350	-11.0868
▁тво	-11.0875
думан	-11.0881
▁жизне	-11.0885
▁осужденны	-11.0893
▁артиллери	-11.0898
▁ОСАГО	-11.09
▁Полицейски	-11.09
▁депозит	-11.09
▁Объем	-11.09
▁психо	-11.09
▁Женеве	-11.09
▁прежни	-11.0901
▁годовщин	-11.0901
▁коробк	-11.0902
смертник	-11.0908
▁окружени	-11.091
консерв	-11.0911
▁корпоратив	-11.0913
▁ционно	-11.0918
▁композици	-11.0928
кладывать	-11.0932
▁Stre	-11.0935
▁поступлени	-11.0936
▁Высш	-11.0941
▁внешн	-11.0943
краш	-11.0944
Евро	-11.0948
▁1,4	-11.0955
Fi	-11.0965
▁легенд	-11.097
▁аккаунт	-11.097
▁обучение	-11.097
▁оштрафова	-11.097
▁рассужда	-11.097
▁фаворит	-11.097
▁предстояще	-11.097
▁достоверн	-11.097
▁Захарченко	-11.0971
▁толп	-11.0976
▁коммунальны	-11.0981
летия	-11.0997
▁опусти	-11.1
▁брал	-11.1006
▁Инвест	-11.101
зависимость	-11.1012
▁гарантирова	-11.1017
▁всяко	-11.1021
▁отверг	-11.103
▁Берн	-11.1032
▁Программ	-11.1041
▁Происшестви	-11.1041
▁Сибири	-11.1041
▁конструктор	-11.1041
▁обработк	-11.1041
Роскосмос	-11.1041
▁НПФ	-11.1041
▁характеристик	-11.1041
▁жюри	-11.1041
Яблок	-11.1041
▁престиж	-11.1041
▁трибун	-11.1041
▁Володин	-11.1041
▁Токио	-11.1041
правлять	-11.1041
▁шутк	-11.1045
▁переписк	-11.1046
▁Свет	-11.1047
▁приятно	-11.1049
▁приобрета	-11.1053
▁Егор	-11.1055
FA	-11.1058
▁помогал	-11.1061
▁огромн	-11.1062
▁1,1	-11.1065
▁выпущен	-11.1066
▁точны	-11.1067
▁Con	-11.107
▁модул	-11.1077
джер	-11.1089
▁коррупци	-11.1095
следовать	-11.1096
▁предложит	-11.1101
мышленно	-11.1102
▁Служб	-11.1111
▁индивидуально	-11.1111
▁подразумев	-11.1111
▁соотечественник	-11.1111
внимательно	-11.1111
▁бабушк	-11.1111
▁предположени	-11.1111
▁заявлений	-11.1111
▁таблиц	-11.1111
Восточный	-11.1112
▁жестоко	-11.1112
▁нескольким	-11.1112
▁Говоря	-11.1112
▁линейк	-11.1112
▁продлил	-11.1112
Джеб	-11.1112
▁отравлени	-11.1112
▁истин	-11.1113
▁облегч	-11.1113
▁охват	-11.1114
▁Захар	-11.1117
ФЗ	-11.1123
▁поправк	-11.1125
all	-11.1126
bg	-11.1127
▁пальц	-11.1131
▁отрази	-11.1132
▁Масс	-11.1132
▁происходя	-11.1137
▁Друго	-11.1141
▁стиле	-11.116
▁Шеремет	-11.1183
▁недостатк	-11.1183
▁обучения	-11.1183
▁хоккеист	-11.1183
▁шпион	-11.1183
▁громко	-11.1183
▁поддерживают	-11.1183
▁владельцы	-11.1183
▁багаж	-11.1183
▁религиозны	-11.1183
▁Совбез	-11.1183
▁Джеймс	-11.1183
▁связей	-11.1184
▁дешевле	-11.1184
▁жильц	-11.1185
▁жанр	-11.1192
▁Журналист	-11.1193
▁собственность	-11.1198
▁ЧМ	-11.1199
▁1999	-11.12
▁ограничение	-11.1211
кладывает	-11.1212
▁трудово	-11.1224
▁общения	-11.1224
▁информирова	-11.123
▁регистраци	-11.1235
▁Общественно	-11.1237
▁Международн	-11.1239
▁стимулирова	-11.1247
посредств	-11.1255
▁безработиц	-11.1255
▁громки	-11.1255
▁потребления	-11.1255
▁коротки	-11.1255
▁Карелии	-11.1255
▁обруши	-11.1255
▁урожа	-11.1255
▁петици	-11.1255
▁Минэнерго	-11.1255
▁разгром	-11.1255
▁взорвал	-11.1256
▁повтори	-11.1256
ходящий	-11.1257
▁координаци	-11.1265
▁ведущ	-11.1269
▁изображение	-11.1269
▁ректор	-11.127
▁истек	-11.1273
ставив	-11.1275
▁крем	-11.1278
▁двери	-11.1282
▁Особ	-11.1285
▁оказывают	-11.1288
▁Военно	-11.1313
▁Ставропол	-11.1315
▁Законопроект	-11.1327
▁баскетбол	-11.1327
▁бутылк	-11.1327
▁выдвинут	-11.1327
▁госкомпани	-11.1327
▁экстремизм	-11.1327
▁защищен	-11.1327
▁уведомлен	-11.1327
▁Кудрин	-11.1327
▁имуществе	-11.1327
▁стремлени	-11.1327
▁скажем	-11.1327
▁достойно	-11.1327
▁возникновени	-11.1327
▁приземл	-11.133
▁независимости	-11.1336
▁говорилось	-11.1336
▁медленн	-11.1342
▁1998	-11.1344
надлежаще	-11.1351
▁произвел	-11.1361
▁Абд	-11.1361
▁крупн	-11.1368
Вол	-11.1372
▁прошедш	-11.1376
▁тяг	-11.1391
▁радикал	-11.1394
▁начальн	-11.1398
national	-11.14
▁Британии	-11.14
▁Калифорни	-11.14
▁НХЛ	-11.14
▁Нарышкин	-11.14
▁Объединенн	-11.14
▁двусторонни	-11.14
▁спонсор	-11.14
▁тюрем	-11.14
▁потерпел	-11.14
▁употребля	-11.14
▁финиш	-11.14
▁предстоящи	-11.14
▁ФРС	-11.14
▁пособи	-11.14
Магнит	-11.14
▁неплохо	-11.14
▁многоквартирн	-11.1403
Ростех	-11.1405
▁подачи	-11.1405
▁группово	-11.1406
▁побывал	-11.1408
▁дилер	-11.1408
▁наверн	-11.1413
▁уточня	-11.1414
▁кредитно	-11.1416
тебе	-11.142
▁произошедше	-11.1422
▁сложивш	-11.1425
▁новости	-11.1429
▁вылетел	-11.1434
▁ехал	-11.1435
▁известна	-11.1436
▁выброс	-11.1444
▁посвященны	-11.1445
▁холодно	-11.1449
брав	-11.1452
▁сильн	-11.1453
▁раскрыт	-11.1454
▁ракетны	-11.1463
▁занятост	-11.1464
ционные	-11.1473
▁Дворкович	-11.1474
▁Руководств	-11.1474
▁кампанию	-11.1474
▁компромисс	-11.1474
▁спектакль	-11.1474
▁спровоцирова	-11.1474
▁погашени	-11.1474
▁сопротивлени	-11.1474
▁изделий	-11.1474
▁приготов	-11.1474
▁молодежно	-11.1474
▁случившегося	-11.1474
▁бойцов	-11.1476
▁Скоре	-11.1478
ложив	-11.148
▁добави	-11.1485
▁выделит	-11.1492
▁отличает	-11.1504
▁гражданство	-11.1507
▁стоил	-11.1508
ография	-11.1529
▁шедш	-11.1543
▁Следовател	-11.1545
довольство	-11.1548
▁Ожидается	-11.1548
▁авиационно	-11.1548
▁павильон	-11.1548
▁преддвери	-11.1548
▁продовольственн	-11.1548
▁фрагмент	-11.1548
▁хоккею	-11.1548
▁урожен	-11.1548
▁наступление	-11.1548
▁Майдан	-11.1548
▁освобождения	-11.1553
▁орден	-11.1553
▁имеющие	-11.1554
▁смотрел	-11.1561
▁щая	-11.1565
▁усилен	-11.1572
сыграет	-11.1577
▁искусственно	-11.1577
▁распределен	-11.158
▁марш	-11.158
Матч	-11.159
▁академик	-11.1596
▁Самарско	-11.1609
▁предприяти	-11.161
▁специальн	-11.1618
▁Эстонии	-11.1622
▁боеприпас	-11.1622
▁тренировк	-11.1622
▁эпидеми	-11.1622
▁бюллетен	-11.1622
▁музыки	-11.1622
▁Кремль	-11.1623
▁Кипр	-11.1624
▁теори	-11.1625
▁произведения	-11.163
▁перечислен	-11.163
▁Труд	-11.1632
опровод	-11.1632
▁карман	-11.1633
▁гараж	-11.1638
▁находить	-11.1638
▁названия	-11.1639
▁Свободно	-11.1649
▁Советско	-11.1652
▁индексаци	-11.166
▁назнач	-11.1666
нализ	-11.1671
▁доходност	-11.1675
вшее	-11.1679
▁регистр	-11.1692
▁происшестви	-11.1694
▁мински	-11.1695
госпитализирован	-11.1696
▁Безопасност	-11.1698
▁адекватн	-11.1698
▁петербургско	-11.1698
▁раскритиковал	-11.1698
▁сертификат	-11.1698
▁разрешил	-11.1698
Человек	-11.1698
▁Данны	-11.1698
▁солнц	-11.1698
▁оппозиционер	-11.1699
▁зависе	-11.1701
▁потенциально	-11.1702
udi	-11.1702
▁IT	-11.1705
▁исполни	-11.1706
далеку	-11.1708
ity	-11.1708
ернется	-11.1709
▁сможе	-11.1711
▁Просто	-11.1711
▁Следующ	-11.1713
▁мэрии	-11.1716
one	-11.1716
▁Pro	-11.1717
▁Данил	-11.1717
▁бок	-11.1718
▁явк	-11.1725
▁Франц	-11.1726
ash	-11.1727
Народн	-11.1749
▁900	-11.1757
▁губ	-11.1765
надзор	-11.1767
предположительно	-11.1773
▁Renault	-11.1773
▁беспилотник	-11.1773
▁диапазон	-11.1773
▁резонанс	-11.1773
▁рынков	-11.1773
▁технологически	-11.1773
▁вакцин	-11.1773
▁опасения	-11.1774
▁православно	-11.1774
▁гидро	-11.1774
▁экологии	-11.1776
▁автономно	-11.1777
▁ухудшени	-11.1779
▁Ленинградско	-11.1782
стоять	-11.1789
▁проведенно	-11.1789
▁свободны	-11.1792
▁держит	-11.1793
остав	-11.1797
▁Пермск	-11.1806
▁польски	-11.182
▁ожидани	-11.1847
▁демо	-11.1848
▁Минпромторг	-11.185
▁основная	-11.185
▁МГУ	-11.185
▁оркестр	-11.185
▁Шойгу	-11.185
▁десант	-11.185
▁Музыка	-11.185
пасибо	-11.185
▁Кастро	-11.185
▁профильны	-11.185
▁откроет	-11.185
▁продавц	-11.1851
▁прирост	-11.1851
▁вооружений	-11.1853
▁проводим	-11.1854
▁Абэ	-11.1854
▁музыка	-11.1857
▁гуля	-11.1857
▁вооружение	-11.1858
▁выдав	-11.1863
▁пыт	-11.1865
▁автомобильны	-11.1874
▁сидел	-11.1877
▁дворц	-11.1891
▁потерпев	-11.1905
▁диагноз	-11.1927
▁экземпляр	-11.1927
▁Барнаул	-11.1927
▁молодежь	-11.1927
▁блогер	-11.1927
▁Морозов	-11.1927
▁аспект	-11.1927
▁радикальны	-11.193
▁приводят	-11.1931
▁вкладчик	-11.1931
▁обойдет	-11.1934
▁сопровождени	-11.194
ставляет	-11.1944
▁задержк	-11.1949
▁материально	-11.1956
▁лучш	-11.1964
▁Ислам	-11.1972
▁электрическ	-11.1974
▁Одесско	-11.1977
▁Всероссийско	-11.2002
▁Toyota	-11.2004
▁Великобритания	-11.2004
▁наблюдателей	-11.2004
▁омбудсмен	-11.2004
▁позвонил	-11.2004
▁почувствова	-11.2004
▁предотвращени	-11.2004
▁календар	-11.2004
▁комбинат	-11.2004
▁ВИЧ	-11.2004
▁Ливии	-11.2004
▁миномет	-11.2005
▁Джей	-11.2006
▁Плюс	-11.2011
▁бронзов	-11.2012
▁$50	-11.2013
▁чувствует	-11.2016
дачу	-11.2022
▁выгодно	-11.2027
▁кухн	-11.2029
энергетическ	-11.203
ающую	-11.2031
Ново	-11.2054
▁молча	-11.2054
ГА	-11.2056
▁культурны	-11.206
▁изображен	-11.2065
▁украинц	-11.2075
▁Аргентин	-11.2082
▁Ричард	-11.2082
▁акцент	-11.2082
▁вовремя	-11.2082
▁кладбище	-11.2082
▁подмосковно	-11.2082
▁заявляет	-11.2082
▁набережн	-11.2082
▁включил	-11.2082
▁ВЭБ	-11.2083
▁фунт	-11.2083
▁блокировк	-11.2083
▁явление	-11.2083
ходящего	-11.2083
▁стремительно	-11.2084
▁медики	-11.2084
▁уволен	-11.2085
▁повреждения	-11.2086
▁удобно	-11.2088
Альфа	-11.2094
▁терпе	-11.2133
▁ликвидирован	-11.2137
▁указанны	-11.2138
▁реальн	-11.2148
▁знамен	-11.2158
▁снимал	-11.2159
Домодедово	-11.2161
▁Вьетнам	-11.2161
▁Елизавет	-11.2161
▁Пенсионн	-11.2161
▁внедорожник	-11.2161
▁группировок	-11.2161
▁кинотеатр	-11.2161
▁останавлив	-11.2161
▁предотврати	-11.2161
▁технологическо	-11.2161
▁хозяин	-11.2161
▁разговарива	-11.2161
▁анонсирова	-11.2161
▁впечатление	-11.2161
▁хватил	-11.2161
▁соединени	-11.2161
▁Каримов	-11.2161
▁переименова	-11.2161
▁учений	-11.2161
▁удивлен	-11.2161
▁кафедр	-11.2162
▁премию	-11.2162
▁пригород	-11.2162
▁конституционно	-11.2162
▁Зелен	-11.2162
▁кровь	-11.2164
▁уехал	-11.2165
▁методик	-11.2167
▁Корея	-11.2174
ack	-11.2176
▁Кировск	-11.2176
▁четвертый	-11.2179
▁снимать	-11.2181
Все	-11.2184
▁устанавливают	-11.2185
удивительно	-11.2209
▁посетител	-11.2228
вязать	-11.2232
▁последн	-11.2237
▁рассмотрен	-11.2238
▁Администраци	-11.224
▁Роскомнадзор	-11.224
▁объяснени	-11.224
▁каникул	-11.224
▁отвечал	-11.224
▁планируем	-11.224
▁посредник	-11.224
▁резидент	-11.224
▁посчитал	-11.224
араллельно	-11.2241
▁княз	-11.2241
▁признают	-11.2242
▁устранени	-11.2242
▁Алекс	-11.2244
▁стремя	-11.2245
▁Тимур	-11.2246
▁сталкива	-11.2247
▁забрал	-11.2248
▁санкционн	-11.225
▁квот	-11.2258
Национальн	-11.226
▁социалист	-11.226
совета	-11.2261
совершенствован	-11.2262
труд	-11.2273
▁Водител	-11.2283
▁дополнительн	-11.2284
▁Средне	-11.2292
▁фиксирова	-11.2293
▁Воронежск	-11.2308
▁подчеркну	-11.2318
▁оригинал	-11.2319
▁вознаграждени	-11.232
▁выяснить	-11.232
▁госкорпораци	-11.232
▁кубометров	-11.232
▁сердечно	-11.232
▁степень	-11.232
▁учредител	-11.232
▁полицией	-11.232
▁четверк	-11.232
▁древне	-11.232
▁перевозок	-11.232
▁значимы	-11.2321
▁принципиально	-11.2321
▁Стивен	-11.2321
▁десятилетия	-11.2321
▁Пожар	-11.2322
▁генсек	-11.2322
▁задне	-11.2324
▁тендер	-11.2325
▁чудо	-11.2325
▁Важно	-11.2326
▁краю	-11.2326
бук	-11.233
ang	-11.233
ведению	-11.2332
▁учиться	-11.2334
Бел	-11.2335
▁нефтян	-11.2337
правят	-11.2345
▁окончательн	-11.2345
▁проверк	-11.2346
ОП	-11.2349
гонщик	-11.2352
▁2,2	-11.2354
▁открывает	-11.2357
▁вооружен	-11.2362
▁Федераци	-11.2363
▁современн	-11.2368
▁уполномоченны	-11.2377
▁Министерств	-11.2385
▁апелляци	-11.2394
▁охранник	-11.2396
▁Bank	-11.2401
▁инспекци	-11.2401
▁оскорблен	-11.2401
▁препятстви	-11.2401
▁ощуща	-11.2401
▁осудил	-11.2402
оглу	-11.2402
▁рассказать	-11.241
▁Официальн	-11.2417
▁доверие	-11.2423
▁ослаб	-11.2441
▁принадлежат	-11.2443
▁строил	-11.2445
▁прохождени	-11.2452
▁0,3	-11.2457
▁поддержат	-11.2461
▁продолжительно	-11.2475
аньше	-11.2481
▁Конгресс	-11.2482
▁мурманчан	-11.2482
▁неправильно	-11.2482
▁служебно	-11.2482
▁Сандерс	-11.2482
▁примирени	-11.2483
▁$6	-11.2483
▁песню	-11.2483
▁плохи	-11.2483
▁лекци	-11.2483
▁точек	-11.2483
▁училищ	-11.2483
▁Титов	-11.2484
▁миграционно	-11.2484
▁случаю	-11.2487
▁служил	-11.2489
▁украинцев	-11.2491
запрещен	-11.2492
▁извинени	-11.2493
▁смотрит	-11.2496
▁нулев	-11.2508
нацист	-11.251
▁организованно	-11.2514
▁возможностям	-11.2518
▁Обычн	-11.2519
Рубин	-11.2527
▁восстановлен	-11.2529
▁маг	-11.253
▁оборудован	-11.2553
▁Академи	-11.2564
▁генпрокурор	-11.2564
▁колледж	-11.2564
▁ограничить	-11.2564
▁предъявил	-11.2564
▁пространстве	-11.2564
▁самоубийств	-11.2564
▁сексуально	-11.2564
▁художественно	-11.2564
▁экскурси	-11.2564
▁сигарет	-11.2564
▁гибель	-11.2565
▁повторно	-11.2565
▁монополи	-11.2565
▁надеюсь	-11.2565
▁сырья	-11.2565
▁соратник	-11.2565
▁09:	-11.2569
▁Побед	-11.257
▁Интересно	-11.2571
▁гриб	-11.2572
▁обуча	-11.2573
спикер	-11.2578
▁планета	-11.2581
▁пыл	-11.2599
▁решающ	-11.2601
▁поддерживал	-11.2607
▁делово	-11.2612
▁ровно	-11.2638
▁религи	-11.2647
▁беженца	-11.2647
▁император	-11.2647
▁пенсию	-11.2647
▁соответствова	-11.2647
▁факультет	-11.2647
▁корабль	-11.2647
▁стабилизаци	-11.2647
▁возмущен	-11.2647
ашвили	-11.2647
▁проверок	-11.2647
▁лагере	-11.2647
▁канадск	-11.2647
▁цирк	-11.2648
▁эфир	-11.2649
▁задума	-11.2652
▁Акци	-11.2654
▁целево	-11.2655
▁финально	-11.2665
бирал	-11.2677
▁глубок	-11.268
▁плавани	-11.2691
▁производственны	-11.2693
▁арбитражны	-11.2693
дновременно	-11.2694
▁вручил	-11.2702
▁семейны	-11.2708
▁зерно	-11.2717
нешнеполитическо	-11.273
▁Силуанов	-11.273
▁пенсий	-11.273
▁пересечени	-11.273
▁ребенком	-11.273
▁философ	-11.273
▁Израиль	-11.273
▁Смирнов	-11.273
▁заявляют	-11.273
▁угодно	-11.273
▁Таиланд	-11.273
▁нелегальны	-11.2731
▁посыл	-11.2731
▁прописан	-11.2731
▁разумеется	-11.2732
▁полигон	-11.2732
▁Питер	-11.2732
▁оперативны	-11.2736
▁сцены	-11.2739
▁сложнее	-11.274
▁прогнозирует	-11.2741
▁мороз	-11.2744
▁зарабатыва	-11.2751
ведомо	-11.2753
▁уполномочен	-11.2755
▁ировав	-11.277
мешать	-11.2778
▁подобн	-11.2793
ходящие	-11.2811
диспетчер	-11.2814
муниципального	-11.2814
▁Европарламент	-11.2814
▁Касьянов	-11.2814
▁Необходим	-11.2814
▁бассейн	-11.2814
▁служебны	-11.2814
▁справк	-11.2814
▁экспедици	-11.2814
▁основу	-11.2814
▁Япония	-11.2814
▁позитивны	-11.2814
▁крымско	-11.2815
▁баллистическ	-11.2815
Ельцин	-11.2816
▁мяса	-11.2816
▁+1	-11.2817
▁снежн	-11.282
▁выдвига	-11.282
▁неизменн	-11.2832
▁потерпевши	-11.2839
tion	-11.2843
▁единственн	-11.2858
▁объединен	-11.2869
▁тигр	-11.2874
▁продава	-11.2874
▁президентско	-11.2874
▁игрово	-11.2875
сотен	-11.2889
▁Journal	-11.2899
▁Russia	-11.2899
▁Варшав	-11.2899
▁Киргизии	-11.2899
▁композитор	-11.2899
▁контрабанд	-11.2899
▁полицейским	-11.2899
▁праздновани	-11.2899
▁стационар	-11.2899
▁Пакистан	-11.2899
▁отрасль	-11.2899
▁стресс	-11.29
▁континент	-11.29
▁грамм	-11.2901
▁крыла	-11.2902
▁связя	-11.2904
▁персональны	-11.2906
▁серия	-11.2909
▁Дальнего	-11.2912
▁поруч	-11.2916
▁зачет	-11.2924
▁верно	-11.2925
▁сумк	-11.2939
▁издател	-11.2948
▁термин	-11.297
▁противостоя	-11.2975
▁Патриарх	-11.2985
▁автосалон	-11.2985
▁изнасилова	-11.2985
▁обнародован	-11.2985
▁расширить	-11.2985
▁Тегеран	-11.2985
▁Ульяновск	-11.2985
▁Пострадавш	-11.2985
▁тревож	-11.2985
▁свежи	-11.2985
Газеты	-11.2985
▁религиозно	-11.2985
▁Томас	-11.2985
▁православны	-11.2985
▁легче	-11.2985
▁усилив	-11.2985
▁Француз	-11.2986
▁2,8	-11.2987
▁подарок	-11.2987
▁молоко	-11.2988
▁банкротства	-11.2988
▁погодны	-11.2988
▁основы	-11.2988
▁быстры	-11.299
▁попробова	-11.2992
▁ставши	-11.2994
▁грант	-11.2997
▁заправ	-11.3002
ведомств	-11.3008
бирают	-11.3021
▁территориальны	-11.3026
▁правозащитник	-11.3028
▁рабоч	-11.3054
Авиа	-11.3061
▁Кандидат	-11.3071
▁двоих	-11.3071
▁заболевание	-11.3071
▁зоопарк	-11.3071
▁музыку	-11.3071
▁художественны	-11.3071
▁человечеств	-11.3071
▁слухи	-11.3071
▁ющего	-11.3071
▁разруши	-11.3071
Платон	-11.3072
▁женско	-11.3072
▁зеркал	-11.3072
▁понрави	-11.3074
▁Лучши	-11.3079
младши	-11.3082
▁представляющи	-11.3085
▁угле	-11.3087
▁навык	-11.3096
коммунальн	-11.3112
▁беспр	-11.3127
▁осторожно	-11.3157
▁претенду	-11.3158
▁Android	-11.3158
▁Аксенов	-11.3158
▁Организатор	-11.3158
▁обусловлен	-11.3158
▁сравнива	-11.3158
▁туроператор	-11.3158
▁упражнени	-11.3158
▁Рогозин	-11.3158
▁повторя	-11.3158
▁избавить	-11.3158
▁Госдеп	-11.3158
▁изделия	-11.3158
▁нехватк	-11.3158
▁законодательны	-11.316
▁Богдан	-11.3161
▁родину	-11.3166
▁Национальны	-11.3168
▁совершенны	-11.317
▁бытово	-11.3174
глуб	-11.3187
▁Сборн	-11.3234
▁спортсменк	-11.3235
страивает	-11.3243
Коммерсант	-11.3244
Комсомольск	-11.3245
▁Культура	-11.3245
▁Правоохранител	-11.3245
▁архитектор	-11.3245
▁видеозапис	-11.3245
▁дисквалификаци	-11.3245
▁мультфильм	-11.3245
▁ритейлер	-11.3245
▁спектакля	-11.3245
▁хотите	-11.3245
▁недавни	-11.3246
счастью	-11.3246
▁$7	-11.3246
▁живопис	-11.3246
▁зерна	-11.3247
▁химическо	-11.3248
▁Задержан	-11.3249
▁базовы	-11.3252
▁классик	-11.3252
▁Тихо	-11.3255
▁обломк	-11.3256
авиация	-11.3258
▁постара	-11.3267
Русский	-11.3273
▁улучшит	-11.329
▁ослаблени	-11.329
▁увеличит	-11.3296
▁поднят	-11.33
греб	-11.331
▁внутр	-11.3312
▁больно	-11.3331
Нафтогаз	-11.3334
▁Кэмерон	-11.3334
▁ПАРНАС	-11.3334
▁Режиссер	-11.3334
▁Центризбирком	-11.3334
▁выдвинул	-11.3334
▁мотоцикл	-11.3334
▁суверенитет	-11.3334
▁проповед	-11.3334
▁говорю	-11.3334
▁повышенно	-11.3334
▁разреша	-11.3334
▁мошенник	-11.3334
▁Договор	-11.3334
▁узнав	-11.3334
▁освещени	-11.3334
▁прибыти	-11.3335
▁дубл	-11.3335
▁иранско	-11.3337
оказания	-11.3363
▁выдающ	-11.3386
▁Итог	-11.3389
играют	-11.3389
▁случая	-11.3407
▁След	-11.3409
▁Победител	-11.3419
▁Гройсман	-11.3423
▁Департамент	-11.3423
▁Собеседник	-11.3423
▁очевидцев	-11.3423
▁претендова	-11.3423
▁сведений	-11.3423
▁бухгалтер	-11.3423
▁маркетинг	-11.3423
▁свадьб	-11.3423
▁гварди	-11.3423
▁Правил	-11.3423
▁британц	-11.3423
▁условие	-11.3423
▁Нагорно	-11.3424
▁повысил	-11.3424
▁последовал	-11.3424
▁пересмотреть	-11.3424
▁спектр	-11.3426
▁указывают	-11.3426
▁III	-11.3426
▁равн	-11.3426
майор	-11.3427
▁обычн	-11.3441
▁Участ	-11.3445
▁задни	-11.3446
ящая	-11.3465
▁сказк	-11.3475
▁беременн	-11.3479
дорожн	-11.3486
▁прокомментирова	-11.3495
▁партийно	-11.3507
▁законодател	-11.3508
▁симптом	-11.3513
Огонек	-11.3513
▁Шевченко	-11.3513
▁проанализирова	-11.3513
▁ополчени	-11.3513
▁выставлен	-11.3513
▁версий	-11.3513
▁усилий	-11.3513
▁Существ	-11.3514
▁аптек	-11.3514
▁Lada	-11.3514
▁похитил	-11.3514
▁траур	-11.3514
▁Airb	-11.3515
▁Факт	-11.3517
▁складыв	-11.3518
▁застройк	-11.3523
▁замедл	-11.3547
end	-11.3552
▁вырази	-11.3552
▁масштабно	-11.3554
Перв	-11.3555
▁интеллект	-11.3604
лейтенант	-11.3604
▁Иркутско	-11.3604
▁ансамбл	-11.3604
▁пожертвов	-11.3604
▁священник	-11.3604
▁плакат	-11.3604
▁ПДД	-11.3604
▁потратил	-11.3604
▁Козлов	-11.3604
▁Оксан	-11.3604
▁виноват	-11.3605
▁казни	-11.3606
▁предпоч	-11.3608
▁партийны	-11.3608
▁рассмотри	-11.3608
ital	-11.361
▁сенсаци	-11.3611
▁укрепл	-11.3611
▁Сумма	-11.3616
▁постройк	-11.3619
DA	-11.362
112	-11.3623
▁химически	-11.3663
▁предпринима	-11.3683
льскохозяйственн	-11.3696
▁World	-11.3696
▁Йемен	-11.3696
▁Соглашени	-11.3696
▁Флорид	-11.3696
▁Чиновник	-11.3696
▁лицензию	-11.3696
▁налогообложени	-11.3696
▁отклонил	-11.3696
▁скульптур	-11.3696
▁сюрприз	-11.3696
▁рацион	-11.3696
▁выигрыва	-11.3696
▁пьес	-11.3696
комиссар	-11.3696
▁хлоп	-11.3696
▁Сербии	-11.3696
▁2-3	-11.3697
▁последующи	-11.3697
сугуб	-11.3699
▁низк	-11.3699
▁реставраци	-11.3701
▁Абдул	-11.3701
▁Остальны	-11.3707
▁Наталь	-11.371
люблю	-11.3728
▁отеле	-11.3729
▁отправит	-11.3751
▁встретит	-11.3751
▁Получи	-11.3765
▁весенн	-11.3766
▁республиканц	-11.3782
процессуальн	-11.3786
▁воспоминани	-11.3789
Анджелес	-11.3789
▁Башкирии	-11.3789
▁Гагарина	-11.3789
▁Действительно	-11.3789
▁восстанавлива	-11.3789
▁выращива	-11.3789
▁контролируем	-11.3789
▁модификаци	-11.3789
▁однозначно	-11.3789
▁президиум	-11.3789
▁рассчитывают	-11.3789
▁проживающи	-11.3789
▁прыжк	-11.3789
▁ОНФ	-11.3789
▁медвед	-11.3789
▁взаимо	-11.3789
▁сомнительн	-11.3789
▁перехват	-11.3789
▁берут	-11.379
другому	-11.379
▁Молодо	-11.3792
▁радикально	-11.3792
▁певц	-11.3792
▁слушания	-11.3793
Арсенал	-11.3801
▁капитально	-11.3806
▁оппозиционны	-11.3814
▁вступлени	-11.3823
Российск	-11.3834
штат	-11.3836
▁спасл	-11.3854
▁завоева	-11.3868
пект	-11.3875
▁Сахалинско	-11.3882
▁брифинг	-11.3882
▁бульвар	-11.3882
▁взаимоотношени	-11.3882
▁капремонт	-11.3882
▁областей	-11.3882
▁объявит	-11.3882
▁прогремел	-11.3882
Benz	-11.3882
▁голкипер	-11.3882
▁лозунг	-11.3882
▁картофел	-11.3882
▁подавля	-11.3882
▁своеобразн	-11.3882
▁тяжести	-11.3882
▁ПФР	-11.3882
▁накопительн	-11.3882
▁семинар	-11.3883
▁растут	-11.3883
▁жалова	-11.3884
▁разочарован	-11.3885
▁перенесен	-11.3885
▁яйца	-11.3885
▁духовно	-11.3898
▁тестировани	-11.3911
Джер	-11.3928
▁небольш	-11.3931
работок	-11.3934
▁ликвидирова	-11.3939
ime	-11.3946
▁Две	-11.3965
▁выведен	-11.3971
▁парламентско	-11.3974
ФСИН	-11.3976
▁нефтепродукт	-11.3976
▁олигарх	-11.3976
▁фьючерс	-11.3976
▁ценностей	-11.3976
▁Макларен	-11.3976
▁присвоен	-11.3976
▁сообщить	-11.3976
▁НДС	-11.3976
▁Комисси	-11.3976
▁демократии	-11.3977
▁стекло	-11.3977
▁помню	-11.3977
▁армян	-11.3977
▁жизненно	-11.3977
▁лизинг	-11.3977
▁пляж	-11.3977
▁Фильм	-11.3978
Россельхознадзор	-11.3978
▁барьер	-11.3978
▁раскол	-11.398
▁схема	-11.3981
▁Местны	-11.3981
▁Сторон	-11.3981
оличество	-11.3983
▁лимит	-11.3986
▁справля	-11.3992
▁металлическ	-11.3993
▁устанавливает	-11.4
квартир	-11.402
▁торжеств	-11.4037
▁диплом	-11.4053
▁населенн	-11.4058
ключительно	-11.4071
−	-11.4072
▁Post	-11.4072
▁автодорог	-11.4072
▁жидкост	-11.4072
▁компенсирова	-11.4072
▁консультант	-11.4072
▁контролирует	-11.4072
▁оформля	-11.4072
▁мягко	-11.4072
▁предполагаю	-11.4072
▁снегопад	-11.4072
▁макро	-11.4072
▁курдов	-11.4072
▁ужесточени	-11.4073
▁Андерс	-11.4073
▁концепт	-11.4073
▁объективно	-11.4074
▁пуга	-11.4075
▁сговор	-11.4077
▁попадани	-11.408
▁Капитал	-11.4084
▁Ряб	-11.4096
▁фаз	-11.4113
грает	-11.4114
Радио	-11.4116
купают	-11.4127
▁уточни	-11.4128
▁падени	-11.4131
левого	-11.4148
▁корейск	-11.4152
▁безопасно	-11.416
▁Пассажир	-11.4168
▁мельдоний	-11.4168
▁ребенку	-11.4168
▁регулярны	-11.4168
▁Понятно	-11.4168
▁контейнер	-11.4168
▁неизбежно	-11.4168
▁ЦРУ	-11.4168
▁Gala	-11.4168
▁самоуправления	-11.4168
▁археолог	-11.4168
Арктик	-11.4168
▁агитаци	-11.4168
▁делегат	-11.4168
▁косну	-11.4168
▁свеже	-11.4168
▁Ответ	-11.4169
осторожност	-11.4169
майдан	-11.4169
▁снаряд	-11.4169
▁вовлечен	-11.4169
▁изображения	-11.417
▁существовал	-11.4172
▁апелляционн	-11.4176
▁пожарны	-11.4177
▁официальн	-11.4181
Говорит	-11.4181
▁лояльн	-11.4182
гнут	-11.4194
▁Нижегородско	-11.4217
турецк	-11.4223
▁социолог	-11.4229
шедшего	-11.4236
▁энергетик	-11.426
▁производственно	-11.4261
▁контекст	-11.4265
▁соболезновани	-11.4265
▁фантастическ	-11.4265
▁январь	-11.4265
ступенчат	-11.4265
▁условии	-11.4265
CAS	-11.4265
Электро	-11.4265
▁тревог	-11.4265
▁Боевик	-11.4265
▁предпринят	-11.4265
▁деньгами	-11.4265
▁построил	-11.4265
und	-11.4266
▁витамин	-11.4266
Милан	-11.4266
▁навсегда	-11.4268
▁Зуб	-11.427
▁сквер	-11.4271
▁приемлем	-11.4271
▁Волгоградско	-11.4295
▁спортивн	-11.4311
▁описыв	-11.4324
одители	-11.4325
▁корпоративны	-11.4345
▁карточк	-11.4349
▁блокирова	-11.4351
▁рекомендова	-11.4353
▁удивительн	-11.4356
▁мужско	-11.4357
▁лекарственны	-11.4358
▁сосредоточи	-11.4363
▁CNN	-11.4363
▁Microsoft	-11.4363
▁Жириновск	-11.4363
▁авиакатастроф	-11.4363
▁ассамбле	-11.4363
▁вспомнить	-11.4363
▁девушек	-11.4363
▁железнодорожны	-11.4363
▁полицейский	-11.4363
▁спецопераци	-11.4363
▁телевизионн	-11.4363
▁участвует	-11.4363
▁церковь	-11.4363
▁конвенци	-11.4363
▁достойны	-11.4363
▁гранат	-11.4364
▁Wall	-11.4364
▁курдски	-11.4365
Формул	-11.4365
▁надежны	-11.4366
▁ранне	-11.4366
▁кузов	-11.4366
▁ученым	-11.4366
▁букв	-11.4367
▁плит	-11.4374
▁тройк	-11.4376
кроют	-11.4388
▁полезно	-11.4399
слушать	-11.4404
▁памятн	-11.4416
▁загоре	-11.443
▁опубликованны	-11.4433
▁возникнут	-11.4437
объявления	-11.4455
▁проведенны	-11.4456
-2018	-11.4457
▁добавля	-11.4462
▁Горбачев	-11.4462
▁Магомед	-11.4462
▁Опубликован	-11.4462
▁Пхеньян	-11.4462
▁асфальт	-11.4462
▁захвачен	-11.4462
▁поликлиник	-11.4462
▁прозвучал	-11.4462
▁сентябрь	-11.4462
▁грунт	-11.4462
▁учителей	-11.4462
▁перемещени	-11.4462
▁привлекательно	-11.4462
▁отклонен	-11.4462
ъехал	-11.4462
▁Взрыв	-11.4462
▁Макаров	-11.4462
▁проявлени	-11.4463
▁круж	-11.4463
▁3,8	-11.4464
▁освоени	-11.4464
▁протестующи	-11.4464
▁отходов	-11.4465
▁потребительско	-11.4466
ирующие	-11.4472
▁закреплен	-11.4475
▁напряженност	-11.4478
ческу	-11.4517
▁установленно	-11.4521
▁смягч	-11.4522
спешно	-11.4525
энерго	-11.4528
▁проголосова	-11.453
▁специализиру	-11.4532
▁сирийск	-11.4539
_	-11.4562
▁гибрид	-11.4562
▁ЛУКОЙЛ	-11.4562
▁Пользовател	-11.4562
▁Шарапова	-11.4562
▁заблокирован	-11.4562
▁иностранцев	-11.4562
▁мессенджер	-11.4562
▁переведен	-11.4562
▁противоположн	-11.4562
▁своевременно	-11.4562
▁триллион	-11.4562
▁ЕГЭ	-11.4562
▁волейбол	-11.4562
▁соглаша	-11.4562
▁вывез	-11.4562
▁аудио	-11.4562
▁принадлежащи	-11.4562
▁Высок	-11.4562
▁кибератак	-11.4562
▁взаимно	-11.4562
Челси	-11.4562
▁соображени	-11.4562
▁твит	-11.4563
▁воздействия	-11.4564
▁верующи	-11.4565
▁утечк	-11.4566
▁случивше	-11.457
Выборы	-11.4572
ирующих	-11.4576
▁районно	-11.4579
▁лечени	-11.4588
носителя	-11.4597
хождения	-11.46
добав	-11.4637
▁зрителям	-11.4645
Блок	-11.4646
▁Рыб	-11.4647
▁Кажд	-11.4654
▁волк	-11.4661
ВЦИОМ	-11.4663
▁Путешествия	-11.4663
▁бактери	-11.4663
▁воспитанник	-11.4663
▁достоинства	-11.4663
▁оптимизм	-11.4663
▁ситуаций	-11.4663
▁ярмарк	-11.4663
▁Рождеств	-11.4663
▁абонент	-11.4663
▁рынку	-11.4663
▁Девушк	-11.4663
▁Жертв	-11.4663
▁ненавист	-11.4663
▁живущи	-11.4663
▁добыча	-11.4663
▁пехот	-11.4663
▁расширен	-11.4666
▁выстраива	-11.4667
▁шеф	-11.4668
▁онколог	-11.4672
▁виновны	-11.4673
▁удобны	-11.4674
очаров	-11.4678
Добро	-11.4683
▁внук	-11.4694
▁подлеж	-11.47
▁финансировани	-11.4702
говорим	-11.4704
мощь	-11.4704
▁имеюще	-11.4705
▁0,2	-11.4721
▁учащи	-11.4736
▁читал	-11.4764
▁прекраща	-11.4765
Адмирал	-11.4765
▁XIX	-11.4765
▁Аналогичн	-11.4765
▁Лукашенко	-11.4765
▁Средиземном	-11.4765
▁ежемесячно	-11.4765
▁естественны	-11.4765
▁ознакоми	-11.4765
▁оптимизаци	-11.4765
▁отправк	-11.4765
▁Роналд	-11.4765
▁фильтр	-11.4765
▁европейц	-11.4765
▁безработн	-11.4765
▁Шувалов	-11.4765
▁Карякин	-11.4765
▁интеллектуальн	-11.4765
▁транспортировк	-11.4765
Система	-11.4765
Испания	-11.4766
Кубань	-11.4766
▁приезд	-11.4766
▁пояснит	-11.4771
▁эколог	-11.4772
▁уголовн	-11.4772
▁уволил	-11.4773
▁меньш	-11.4816
▁патриотическ	-11.482
▁дополнен	-11.4839
▁опасн	-11.4855
▁избранны	-11.4859
▁соревнова	-11.4863
▁Госдепартамент	-11.4868
▁Четыре	-11.4868
▁тротуар	-11.4868
▁удостоверени	-11.4868
▁четвертьфинал	-11.4868
▁инновационны	-11.4868
▁снайпер	-11.4868
▁Гитлер	-11.4868
▁колебани	-11.4868
▁авария	-11.4868
▁насыщен	-11.4868
▁ВМФ	-11.4868
▁Чехии	-11.4868
КоАП	-11.4869
▁послужил	-11.4871
▁экстремистско	-11.4872
▁убийств	-11.4872
▁надеются	-11.4873
▁запечатле	-11.4874
▁схож	-11.4874
▁превосх	-11.4884
▁заметны	-11.4885
▁ежегодн	-11.4894
▁возобновл	-11.4894
▁беременност	-11.4907
▁иракско	-11.4908
▁ближне	-11.4972
▁удивля	-11.4972
▁Tesla	-11.4972
▁Автомобиль	-11.4972
▁Архангельск	-11.4972
▁Конашенков	-11.4972
▁Отвеча	-11.4972
▁математик	-11.4972
▁механик	-11.4972
▁облигаций	-11.4972
▁уязвим	-11.4972
▁диабет	-11.4972
▁деревянн	-11.4972
▁раскрыл	-11.4972
▁прожиточн	-11.4972
▁пулемет	-11.4972
▁патент	-11.4972
▁бонус	-11.4973
▁кнопк	-11.4973
▁кольца	-11.4973
▁обострени	-11.4973
▁греческо	-11.4973
▁полноценно	-11.4973
▁Минтруд	-11.4973
▁транш	-11.4973
▁троих	-11.4973
▁молока	-11.4974
▁Ценност	-11.4975
▁голуб	-11.4977
звучит	-11.4977
▁стрелково	-11.4977
Рияд	-11.4977
▁лежи	-11.4986
▁коррупционны	-11.4992
▁воздержа	-11.5003
▁совместн	-11.5006
▁испанско	-11.5008
▁представит	-11.5013
▁планировани	-11.5016
▁наказан	-11.5021
▁ответственно	-11.507
▁Аналитик	-11.5077
▁Бастрыкин	-11.5077
▁Выяснилось	-11.5077
▁астроном	-11.5077
▁вспомнил	-11.5077
▁констатировал	-11.5077
▁понимаем	-11.5077
▁приостановк	-11.5077
адмирал	-11.5077
▁изобрет	-11.5077
▁физлиц	-11.5077
▁Воздуш	-11.5078
▁гаджет	-11.5078
▁Поклонск	-11.5078
▁белорусско	-11.5078
▁Харьков	-11.5078
▁Немецк	-11.5078
▁Ереван	-11.5078
▁копеек	-11.5078
▁Толст	-11.5078
▁идеально	-11.5079
▁экономическая	-11.5079
▁страдаю	-11.508
Каприо	-11.5081
▁пиво	-11.5084
брасыва	-11.5086
▁нарасти	-11.5088
▁уборк	-11.5118
▁сельски	-11.5129
▁эффективн	-11.5142
WADA	-11.5164
порядка	-11.5164
▁стойк	-11.5167
▁Курдистан	-11.5184
▁Мосгорсуд	-11.5184
▁Очевидно	-11.5184
▁выработк	-11.5184
▁господдержк	-11.5184
▁декабрь	-11.5184
▁мельдония	-11.5184
▁механическ	-11.5184
▁одномандатны	-11.5184
▁резюмировал	-11.5184
▁реструктуризаци	-11.5184
▁заявлению	-11.5184
▁инициатор	-11.5184
▁Добави	-11.5184
▁нелегально	-11.5184
нормандско	-11.5184
▁Заявлени	-11.5184
▁намерева	-11.5184
▁воспитыв	-11.5185
▁растрат	-11.5185
▁шлем	-11.5186
▁редки	-11.5187
▁выезжа	-11.519
▁логик	-11.5191
▁добавлен	-11.5191
ложат	-11.5191
селению	-11.5197
сирот	-11.5208
Виктория	-11.5212
▁авиационны	-11.5213
▁поражен	-11.5216
звонить	-11.5223
▁донор	-11.5228
▁хулиган	-11.5229
▁Народно	-11.5262
▁Рын	-11.5264
США	-11.5274
помним	-11.5288
▁сантиметр	-11.5291
▁Guardian	-11.5291
▁Space	-11.5291
▁Исинбаев	-11.5291
▁Нынешн	-11.5291
▁абсурд	-11.5291
▁антикоррупционн	-11.5291
▁микрорайон	-11.5291
▁обрушени	-11.5291
▁Вероятно	-11.5291
▁избирком	-11.5291
▁критическо	-11.5291
▁Euro	-11.5291
▁Саратовско	-11.5291
▁Четвер	-11.5292
сосудист	-11.5292
▁армию	-11.5292
▁аллерг	-11.5293
▁выделил	-11.5293
ДНК	-11.5293
▁оппозиционно	-11.5294
▁милици	-11.5299
▁Олимпийск	-11.5308
▁me	-11.5317
▁работавши	-11.5323
Строй	-11.5344
▁август	-11.5354
▁потряс	-11.5357
▁взыска	-11.5364
аспечата	-11.5376
▁напряженн	-11.5382
кладывал	-11.5385
▁юны	-11.5389
Калашников	-11.54
продукция	-11.54
▁Financ	-11.54
▁Израиле	-11.54
▁компакт	-11.54
▁подсчитал	-11.54
▁позицион	-11.54
▁продовольстви	-11.54
▁развлечени	-11.54
▁тюрьме	-11.54
▁юрисдикци	-11.54
▁оспарива	-11.54
▁монтаж	-11.54
▁необычны	-11.54
▁Новиков	-11.54
▁утилизаци	-11.54
▁захотел	-11.54
▁сгорел	-11.5401
▁переехал	-11.5401
▁голландск	-11.5402
▁Счетн	-11.5402
▁опира	-11.5403
▁страст	-11.5405
пульс	-11.5405
▁совпада	-11.5412
Монако	-11.5413
Аэро	-11.5414
▁Бразили	-11.5419
▁Государств	-11.5429
▁тактик	-11.5434
▁множеств	-11.5434
▁укрепит	-11.5438
▁искусственны	-11.5438
▁утвержда	-11.5442
ставлял	-11.5443
▁0,4	-11.5449
▁сообща	-11.5481
▁Стрел	-11.5495
Центр	-11.5496
групп	-11.5497
J	-11.5497
▁фундамент	-11.5504
ендиректор	-11.5508
▁арбитр	-11.5509
▁олимпийск	-11.551
▁Расследование	-11.551
▁отслежива	-11.551
▁пожизненно	-11.551
▁Видимо	-11.551
▁Голодец	-11.551
чевидцы	-11.551
▁НТВ	-11.551
▁Надеюсь	-11.551
▁овощей	-11.551
▁ополченц	-11.551
▁контролю	-11.551
▁побежда	-11.551
▁гранатомет	-11.551
▁Рабоч	-11.551
▁упрощен	-11.551
▁интриг	-11.551
ъезд	-11.551
▁изъял	-11.551
▁критически	-11.551
▁овощи	-11.5511
▁стоянк	-11.5511
▁агрессивно	-11.5514
▁срочн	-11.5518
Жизн	-11.5519
Мисс	-11.5523
▁регулирую	-11.5524
▁крепост	-11.5529
▁управ	-11.5532
▁рамк	-11.5542
▁перекрыт	-11.5559
стояние	-11.5562
строят	-11.5601
▁AFP	-11.5621
▁Life	-11.5621
▁Минобрнауки	-11.5621
▁Примечательно	-11.5621
▁компетенци	-11.5621
▁отсутствует	-11.5621
▁приветствова	-11.5621
▁псевдо	-11.5621
▁спектакле	-11.5621
▁колоссаль	-11.5621
▁лондонско	-11.5621
▁очевидны	-11.5621
▁повышать	-11.5621
▁певец	-11.5621
▁Гюлен	-11.5621
▁осново	-11.5622
▁пропавши	-11.5622
▁Книг	-11.5629
▁котиров	-11.5641
▁Октябрьск	-11.5661
▁виновно	-11.5686
▁оккупаци	-11.5692
▁комплектаци	-11.571
▁Минсельхоз	-11.5733
▁Тимошенко	-11.5733
▁возобновил	-11.5733
▁исполком	-11.5733
▁невероятно	-11.5733
▁сексуальны	-11.5733
▁эстафет	-11.5733
▁ювелир	-11.5733
▁чудес	-11.5733
▁инвестиция	-11.5734
▁консерватор	-11.5734
▁рухнул	-11.5734
▁нацелен	-11.5734
▁медалей	-11.5734
▁0,8	-11.5735
▁значимо	-11.5735
▁схемы	-11.5735
страдает	-11.5735
▁2017-201	-11.5739
Польша	-11.5741
▁прибывши	-11.5743
Смотр	-11.5747
▁полотн	-11.5747
распространяется	-11.575
специализированн	-11.5766
оспособност	-11.5788
▁Ерофеев	-11.5847
▁Приморье	-11.5847
▁Соловьев	-11.5847
▁Штайнмайер	-11.5847
▁аккурат	-11.5847
▁напряжени	-11.5847
▁озвучил	-11.5847
▁окрестност	-11.5847
▁Cap	-11.5847
▁КХЛ	-11.5847
▁интерьер	-11.5847
Атлант	-11.5847
▁афган	-11.5848
▁надеемся	-11.5848
▁предпочтени	-11.5848
▁предсказа	-11.585
Днепр	-11.5854
▁остатк	-11.5869
▁Ксени	-11.5902
▁абсолютн	-11.5908
▁Киевско	-11.5909
▁электронн	-11.5918
▁прерва	-11.5918
кладывают	-11.5921
▁капитализаци	-11.5932
▁ликвид	-11.5942
прикосновени	-11.5962
▁10-15	-11.5962
▁Леонард	-11.5962
▁ПАСЕ	-11.5962
▁Планируется	-11.5962
▁горизонт	-11.5962
▁опьянения	-11.5962
▁прототип	-11.5962
▁розыгрыш	-11.5962
▁эмбарго	-11.5962
▁РПЦ	-11.5962
▁безопасны	-11.5962
Багдад	-11.5962
▁корабли	-11.5962
▁отраслей	-11.5962
▁Балтийск	-11.5962
▁Техас	-11.5962
▁ультра	-11.5962
▁эмигр	-11.5962
▁2:0	-11.5962
▁1:0	-11.5963
▁проинформирова	-11.5964
▁vi	-11.5965
посадочн	-11.5968
действительности	-11.5975
▁проверен	-11.5978
▁номинал	-11.5982
▁эксплуат	-11.6047
Евровидение	-11.6078
▁Uber	-11.6078
▁Лазарев	-11.6078
▁Площад	-11.6078
▁виртуально	-11.6078
▁всерьез	-11.6078
▁застрелил	-11.6078
▁менеджмент	-11.6078
▁посвяти	-11.6078
▁постановил	-11.6078
▁развлекательн	-11.6078
▁реализует	-11.6078
▁уменьша	-11.6078
▁сибирск	-11.6078
▁шоколад	-11.6078
▁впечатления	-11.6078
▁корректировк	-11.6078
▁изоляци	-11.6078
▁электричеств	-11.6079
▁достаточны	-11.6079
▁калибр	-11.6079
ФАС	-11.6079
▁Ковалев	-11.6079
▁тяжки	-11.6079
▁отпустил	-11.608
доволен	-11.6082
▁дальни	-11.6083
▁подарил	-11.6089
▁Билл	-11.609
▁наблюдает	-11.6093
▁Общественн	-11.6107
▁раздраж	-11.6109
▁градус	-11.6141
▁Филип	-11.6157
▁mo	-11.6185
▁Луценко	-11.6196
▁Подмосковья	-11.6196
▁аккумулятор	-11.6196
▁деревья	-11.6196
▁незначительн	-11.6196
▁повезло	-11.6196
▁предшественник	-11.6196
▁расшифров	-11.6196
▁рождественск	-11.6196
▁фальшив	-11.6196
▁чрезвычайны	-11.6196
▁совокупно	-11.6196
▁трафик	-11.6196
▁беспокоит	-11.6196
▁Грозном	-11.6196
▁лагерь	-11.6196
▁сознательн	-11.6196
▁подумать	-11.6196
▁ФНС	-11.6196
▁престол	-11.6196
▁банкротстве	-11.6196
▁перечисля	-11.6196
▁пропустил	-11.6196
▁подчиненны	-11.6197
▁преемник	-11.6197
Шахтер	-11.6197
▁киевско	-11.6199
▁применил	-11.6199
▁генетическ	-11.6201
▁попавши	-11.6204
▁слеп	-11.6209
▁анимац	-11.621
▁Налогов	-11.621
▁отстаива	-11.6211
▁заинтересова	-11.6219
▁квалифицированн	-11.622
збир	-11.6221
▁приватизаци	-11.6234
▁помещен	-11.6235
▁чувствительн	-11.6246
▁Христо	-11.6259
▁деклар	-11.6277
свеч	-11.629
Независим	-11.6308
нешнеполитически	-11.6315
ысокотехнологичн	-11.6315
▁Getty	-11.6315
▁Hyundai	-11.6315
▁Генштаб	-11.6315
▁Законодатель	-11.6315
▁Липецк	-11.6315
▁ЮНЕСКО	-11.6315
▁видеоролик	-11.6315
▁деревьев	-11.6315
▁неожиданны	-11.6315
▁предположить	-11.6315
▁разногласия	-11.6315
▁электромобил	-11.6315
▁Gold	-11.6315
▁воскрес	-11.6315
▁решетк	-11.6315
▁Каролин	-11.6315
▁спасения	-11.6315
ood	-11.6315
▁армейск	-11.6316
▁лежал	-11.6316
▁киевски	-11.6316
▁депресси	-11.6321
Сегодня	-11.6321
▁майски	-11.6323
▁украин	-11.6325
▁восьмо	-11.6326
▁тренировочн	-11.6348
▁спокойн	-11.6348
Камчатск	-11.6375
▁адаптаци	-11.6398
тветственность	-11.6399
▁съемочн	-11.6431
налогоплательщик	-11.6435
▁Воробьев	-11.6435
▁Росимуществ	-11.6435
▁Севастополь	-11.6435
▁Соответственно	-11.6435
▁благополучно	-11.6435
▁болезнен	-11.6435
▁диаметр	-11.6435
▁осужда	-11.6435
▁пенальти	-11.6435
▁статистики	-11.6435
▁формулировк	-11.6435
▁хоккейно	-11.6435
▁Sky	-11.6435
▁Гончар	-11.6435
▁счастья	-11.6435
▁фасад	-11.6435
Болгария	-11.6435
▁Синдз	-11.6435
▁Спикер	-11.6435
▁продвину	-11.6435
▁Спасател	-11.6436
▁бедстви	-11.6436
▁планшет	-11.6436
▁Ахмет	-11.6436
▁Уверен	-11.6436
▁Серебр	-11.6436
▁добыче	-11.6436
▁четки	-11.6436
▁премиальн	-11.6442
▁игрушк	-11.645
▁патолог	-11.6459
▁мужеств	-11.647
▁Школ	-11.6489
▁следующ	-11.6498
▁Весн	-11.6513
▁социал	-11.6513
хранения	-11.6514
▁Airlines	-11.6557
▁Auto	-11.6557
▁Deutsch	-11.6557
▁Венгрии	-11.6557
▁Ковальчук	-11.6557
▁Прокурор	-11.6557
▁Сибирск	-11.6557
▁девальваци	-11.6557
▁девочек	-11.6557
▁перестрелк	-11.6557
▁петербургски	-11.6557
▁предъявля	-11.6557
▁приурочен	-11.6557
▁эксклюзив	-11.6557
▁эмоции	-11.6557
▁Мадуро	-11.6557
▁заведующ	-11.6557
▁белорусски	-11.6557
▁меньшинств	-11.6557
▁подсчетам	-11.6557
▁Бондар	-11.6557
▁затрудни	-11.6558
▁ПРО	-11.6558
▁потрачен	-11.6558
▁апрель	-11.6558
▁нападавши	-11.6558
▁повстанц	-11.6558
▁стекла	-11.6558
▁последующе	-11.6558
▁Абрам	-11.6558
▁легендарно	-11.6558
▁скелет	-11.6558
▁короля	-11.6558
▁молитв	-11.6558
▁амнисти	-11.656
▁Керченск	-11.656
▁Продаж	-11.6574
▁приятны	-11.6602
разведчик	-11.6615
▁направи	-11.6626
▁Родител	-11.663
третьих	-11.6643
▁федеральн	-11.6645
▁техническ	-11.6672
Фейсбуке	-11.6681
▁Forbes	-11.6681
▁Естественно	-11.6681
▁Неизвестны	-11.6681
▁Нобелевск	-11.6681
▁Специальн	-11.6681
▁Столтенберг	-11.6681
▁ветеринар	-11.6681
▁иммунитет	-11.6681
▁обыкновенн	-11.6681
▁площадок	-11.6681
▁симпати	-11.6681
▁сопоставим	-11.6681
▁спасателей	-11.6681
▁гололед	-11.6681
▁несчастн	-11.6681
▁бумажн	-11.6681
▁упаковк	-11.6681
серебро	-11.6681
▁переезд	-11.6681
Терек	-11.6682
▁доказан	-11.6682
▁почетны	-11.6683
ГСУ	-11.6684
Доктор	-11.6686
▁Смольн	-11.6689
▁Ракк	-11.6694
ступивше	-11.6703
▁дальност	-11.6718
▁диверси	-11.6719
▁Арабск	-11.6723
▁китайск	-11.6724
▁информационн	-11.6735
▁правозащитн	-11.6742
суточн	-11.6786
▁кабел	-11.6786
▁Благовещенск	-11.6806
▁Петрозаводск	-11.6806
▁великолеп	-11.6806
▁девелопер	-11.6806
▁импичмент	-11.6806
▁конкуренцию	-11.6806
▁пригрозил	-11.6806
▁сепаратист	-11.6806
▁навигаци	-11.6806
▁предсказуем	-11.6806
▁процвета	-11.6806
▁деятеле	-11.6806
Патриот	-11.6806
▁райсуд	-11.6806
▁кресло	-11.6806
▁мятеж	-11.6806
▁Кредит	-11.6806
▁древни	-11.6806
▁соперниц	-11.6806
▁присяжны	-11.6806
▁туалет	-11.6806
▁трамва	-11.6807
▁театральны	-11.6808
▁перечн	-11.682
▁Японск	-11.6829
▁базиру	-11.6841
▁принадлежност	-11.6847
▁приобретен	-11.6861
▁мудр	-11.6929
▁Исследовани	-11.6932
▁Стокгольм	-11.6932
▁вымогательств	-11.6932
▁непонятно	-11.6932
▁охлажд	-11.6932
▁повседневн	-11.6932
▁экстрадици	-11.6932
▁синхрон	-11.6932
▁империи	-11.6932
▁реактор	-11.6932
▁чрезмерн	-11.6933
▁окраин	-11.6933
▁привлекательны	-11.6933
▁Земле	-11.6933
▁Исход	-11.6933
▁оперативник	-11.6933
▁посмотрел	-11.6933
▁патрон	-11.6934
▁оберну	-11.6934
▁капитальны	-11.6943
Власть	-11.6947
Нижни	-11.6961
купает	-11.698
▁путешественник	-11.6988
▁прекращен	-11.6989
▁завышен	-11.6994
тройку	-11.6999
▁британск	-11.7007
▁Представ	-11.7037
▁Play	-11.7061
▁Юнайтед	-11.7061
▁кислот	-11.7061
▁монумент	-11.7061
▁резиденци	-11.7061
▁эволюци	-11.7061
▁легитим	-11.7061
▁риторик	-11.7061
▁терапии	-11.7061
▁экспонат	-11.7061
▁Черноморск	-11.7061
▁убытки	-11.7061
▁Белгород	-11.7061
▁ПВО	-11.7061
▁цензур	-11.7061
▁Железн	-11.7061
▁пшениц	-11.7061
▁Индия	-11.7061
ракетно	-11.7061
▁дольше	-11.7061
▁2:1	-11.7061
▁Ренци	-11.7061
▁насчитывает	-11.7061
▁прибави	-11.7063
▁криминальны	-11.7066
▁ложны	-11.7068
▁мышц	-11.707
▁замедлени	-11.7073
▁поменял	-11.7078
отношение	-11.7085
▁бытовы	-11.7094
▁Франциск	-11.7102
▁смягчени	-11.7112
▁Сотрудник	-11.712
▁Васил	-11.712
▁предельно	-11.7121
▁интегр	-11.7142
езусловно	-11.7189
▁падающ	-11.7189
Мансийск	-11.7191
▁Иосиф	-11.7191
▁Новомосковск	-11.7191
▁аксессуар	-11.7191
▁историей	-11.7191
▁сохранится	-11.7191
▁вничью	-11.7191
▁португал	-11.7191
▁расстройств	-11.7191
▁исчезновени	-11.7191
▁яблок	-11.7191
▁отклик	-11.7191
▁лестниц	-11.7191
▁заплатил	-11.7192
▁расположи	-11.7192
▁вечеринк	-11.7192
▁башн	-11.7193
▁подвеск	-11.7198
ВТБ	-11.7219
▁универсальн	-11.722
▁мемориальн	-11.7224
▁заставля	-11.7273
Тихоокеанско	-11.7322
▁супермаркет	-11.7322
Ростелеком	-11.7322
▁WikiLeaks	-11.7322
▁Ингушетии	-11.7322
▁МКАД	-11.7322
▁аккредитаци	-11.7322
▁восстановил	-11.7322
▁десятилетий	-11.7322
▁затрагива	-11.7322
▁неисправност	-11.7322
▁неприемлем	-11.7322
▁подконтрольны	-11.7322
▁телеведущ	-11.7322
▁цивилизаци	-11.7322
▁Прохоров	-11.7322
▁остановлен	-11.7322
▁хвост	-11.7322
▁повышает	-11.7322
▁Мистур	-11.7322
▁правосуди	-11.7322
▁джаз	-11.7323
▁молекул	-11.7324
▁емкост	-11.7325
▁серийно	-11.7325
▁систематическ	-11.7325
▁толчк	-11.733
▁информируе	-11.7334
Боинг	-11.7349
троительство	-11.7363
▁ирующе	-11.7379
грузить	-11.7399
over	-11.7439
▁заявител	-11.7447
#	-11.7455
▁Голливуд	-11.7455
▁Забайкальск	-11.7455
▁Press	-11.7455
▁Индонези	-11.7455
▁Набиуллина	-11.7455
▁Паралимпийск	-11.7455
▁двукратн	-11.7455
▁звучал	-11.7455
▁кардинально	-11.7455
▁конъюнктур	-11.7455
▁Малайзи	-11.7455
▁досрочны	-11.7455
▁прохожи	-11.7455
▁скепт	-11.7455
▁общежити	-11.7455
▁выставил	-11.7456
▁дистанционно	-11.7456
▁фокус	-11.7456
▁виноград	-11.7456
▁вытащи	-11.7456
▁надеяться	-11.7456
▁устранить	-11.7456
▁драматическ	-11.7456
▁$8	-11.7456
▁оригинальны	-11.7459
▁нападающе	-11.7464
Чикаго	-11.7465
▁мешк	-11.7476
следствие	-11.7491
представитель	-11.7492
▁конечн	-11.7515
правоохранителей	-11.7523
▁европейск	-11.7525
▁подобра	-11.7546
▁террор	-11.7568
остаточно	-11.7588
▁пресеч	-11.7588
▁Исследовател	-11.7591
▁Македони	-11.7591
▁Молдов	-11.7591
▁Португали	-11.7591
▁Экономическ	-11.7591
▁изолятор	-11.7591
▁Установлен	-11.7591
▁ипотечны	-11.7591
дюймовы	-11.7591
▁Навального	-11.7591
▁Троицк	-11.7591
▁утвердит	-11.7591
▁реагиру	-11.7591
▁ускорит	-11.7591
▁передвижени	-11.7592
▁оккупированн	-11.7592
▁поддельны	-11.7593
тсюда	-11.7594
▁ложк	-11.7599
кажите	-11.7601
▁Ставропольск	-11.7614
свобод	-11.7623
▁суммарн	-11.7631
▁здравоохранени	-11.7648
страховщиков	-11.7652
▁обрабатыв	-11.7658
▁практическ	-11.7665
▁психиатрическ	-11.7674
▁презент	-11.7679
▁мемориал	-11.7692
котировки	-11.7704
IAAF	-11.7728
Белоруссия	-11.7728
ФАКТАМ	-11.7728
▁Brexit	-11.7728
▁EgyptAir	-11.7728
▁БРИКС	-11.7728
▁загрязнен	-11.7728
▁наименовани	-11.7728
▁неопределенност	-11.7728
▁соцсетей	-11.7728
▁статистике	-11.7728
▁углеводород	-11.7728
ФАКТ	-11.7728
▁попыток	-11.7728
▁Ефимов	-11.7728
▁Японию	-11.7728
▁воспитател	-11.7728
▁служащи	-11.7728
▁парашют	-11.7728
▁Яковлев	-11.7728
▁ОАЭ	-11.7728
▁вспышк	-11.7728
▁гривн	-11.7728
▁Интерпол	-11.7728
▁нормализаци	-11.7728
▁пропорци	-11.7728
▁учтен	-11.7728
▁хранилищ	-11.7728
▁консульств	-11.7729
▁доказал	-11.773
▁горсовет	-11.7816
▁Пушк	-11.7837
ставляют	-11.7852
▁типичн	-11.7853
выстрелил	-11.7864
▁преобразова	-11.7866
▁WTI	-11.7866
▁Гонконг	-11.7866
▁Черногории	-11.7866
▁благополучи	-11.7866
▁инсульт	-11.7866
▁кинофестивал	-11.7866
▁легализаци	-11.7866
▁миллиметр	-11.7866
▁озвучен	-11.7866
▁юрлиц	-11.7866
▁Предварительн	-11.7867
▁поджог	-11.7867
▁Мединский	-11.7867
▁путевк	-11.7867
▁явления	-11.7867
Нарушени	-11.7867
▁аннулирова	-11.7867
▁поздравлени	-11.7867
▁Операци	-11.7868
▁нововведени	-11.7869
Левада	-11.7873
▁тематическ	-11.7877
роцесс	-11.788
▁Предложени	-11.7891
▁модны	-11.7902
1989	-11.7923
▁взаимодейств	-11.7948
▁Америку	-11.8007
▁Кличко	-11.8007
▁Ленобласти	-11.8007
▁Литвиненко	-11.8007
▁Махачкал	-11.8007
▁Ростуризм	-11.8007
▁Террорист	-11.8007
▁алюмини	-11.8007
▁бесконечно	-11.8007
▁вердикт	-11.8007
▁геополитическ	-11.8007
▁контингент	-11.8007
▁разъясни	-11.8007
▁сосредоточен	-11.8007
▁теоретически	-11.8007
▁троллейбус	-11.8007
▁февраль	-11.8007
▁хозяйк	-11.8007
▁Fox	-11.8007
▁монарх	-11.8007
▁Кристиан	-11.8007
▁Спортсмен	-11.8007
▁констатиру	-11.8007
▁Очеред	-11.8007
▁логистическ	-11.8007
▁ВШЭ	-11.8007
▁шельф	-11.8007
▁поздравля	-11.8007
▁колбас	-11.8007
▁морожен	-11.8008
▁Сообщени	-11.8008
▁Дюмин	-11.8008
▁Алжир	-11.8008
▁гимнази	-11.8008
▁распределя	-11.8008
▁мелко	-11.8008
▁косвенн	-11.8008
Росатом	-11.8008
▁этническ	-11.8008
▁кольцо	-11.8008
▁приблизительн	-11.8008
Родина	-11.8009
▁обновил	-11.801
Делово	-11.8023
талкив	-11.8028
Кубани	-11.8059
культуры	-11.8059
позицией	-11.8088
▁смертност	-11.8134
▁павши	-11.8138
▁инновационно	-11.815
▁новорожденн	-11.815
-2015	-11.815
Транснефт	-11.815
опримечательност	-11.815
▁Chevro	-11.815
▁Ибрагим	-11.815
▁Известны	-11.815
▁Приморья	-11.815
▁Сноуден	-11.815
▁Собственно	-11.815
▁Фестивал	-11.815
▁благосостояни	-11.815
▁звучат	-11.815
▁интернат	-11.815
▁кадастров	-11.815
▁паралимпийск	-11.815
▁противоправн	-11.815
▁ноутбук	-11.815
▁кондитер	-11.815
▁помешал	-11.815
▁концентраци	-11.815
▁восхищ	-11.815
▁сирийц	-11.815
▁сидень	-11.8151
▁отраслев	-11.8151
▁сообщник	-11.8151
▁пленарно	-11.8151
▁профильно	-11.8151
▁опозна	-11.8151
▁усилил	-11.8152
▁заслуженны	-11.8152
▁исследова	-11.8191
экономика	-11.8206
рабатывают	-11.8208
▁Минстро	-11.821
производителей	-11.8212
распределения	-11.8239
▁формальны	-11.8247
азумеется	-11.8293
▁События	-11.8295
▁Совфед	-11.8295
▁алгоритм	-11.8295
▁ипотечно	-11.8295
▁медикамент	-11.8295
▁олимпиад	-11.8295
▁фальсификаци	-11.8295
▁чудовищ	-11.8295
▁эквивалент	-11.8295
▁возросло	-11.8295
▁рентабель	-11.8295
▁Современн	-11.8295
▁уклонени	-11.8295
▁покемон	-11.8295
▁Ахмед	-11.8295
▁точнее	-11.8295
▁фланг	-11.8295
▁захочет	-11.8295
фашист	-11.8296
▁одинаковы	-11.8296
▁цепочк	-11.8296
▁затяну	-11.8296
▁производил	-11.8297
▁надежност	-11.8297
▁грубо	-11.8297
▁многодетн	-11.8298
▁летчиц	-11.8299
▁удобств	-11.8299
▁согласовыва	-11.8302
▁условны	-11.8306
▁обширн	-11.8343
▁Политик	-11.8355
▁исполнен	-11.839
назначить	-11.8418
▁подошл	-11.8419
▁Всероссийск	-11.8428
@	-11.8442
▁азербайджанск	-11.8442
▁отремонтирова	-11.8442
Евровидения	-11.8442
▁Ассанж	-11.8442
▁Крупнейш	-11.8442
▁Москвич	-11.8442
▁Сингапур	-11.8442
▁главнокомандующ	-11.8442
▁демонстрирова	-11.8442
▁заморожен	-11.8442
▁крейсер	-11.8442
▁облигации	-11.8442
▁принудительно	-11.8442
▁руководящи	-11.8442
▁сближени	-11.8442
▁солидарност	-11.8442
▁неприятны	-11.8442
▁счастье	-11.8442
▁светофор	-11.8442
▁географическ	-11.8442
▁отдохну	-11.8442
▁совмещ	-11.8442
▁убедил	-11.8443
▁одинаково	-11.8443
▁Страхов	-11.8444
▁целесообразн	-11.8447
▁специфик	-11.8462
▁Госсовет	-11.8477
▁самостоятельн	-11.849
встречу	-11.8507
ресурс	-11.8507
▁коммерческ	-11.8534
▁осуществлен	-11.8541
▁целесообразност	-11.8587
▁огнестрельно	-11.8591
▁Roll	-11.8591
▁Овечкин	-11.8591
▁Олимпиаду	-11.8591
▁Пономарев	-11.8591
▁безвизово	-11.8591
▁водоснабжени	-11.8591
▁дорогостоящ	-11.8591
▁достоинство	-11.8591
▁консорциум	-11.8591
▁кооператив	-11.8591
▁площадей	-11.8591
▁префектур	-11.8591
▁рекомендую	-11.8591
▁Выставк	-11.8591
▁ноябрь	-11.8591
▁убедительн	-11.8591
▁Астахов	-11.8591
▁Мустаф	-11.8591
▁гармон	-11.8591
▁сотрудниц	-11.8591
▁Мариупол	-11.8591
▁идеологическ	-11.8591
▁индийско	-11.8591
▁хватал	-11.8592
▁сдерживани	-11.8592
▁вторжени	-11.8592
▁операционно	-11.8592
▁Изменени	-11.8593
▁положительн	-11.8688
▁возвращен	-11.8695
▁Интерес	-11.8731
прашивают	-11.8743
▁Инфантино	-11.8743
▁Эдвард	-11.8743
▁голливудск	-11.8743
▁консалтинг	-11.8743
▁ограничил	-11.8743
▁прозвищ	-11.8743
▁убежища	-11.8743
▁убежище	-11.8743
▁букмекер	-11.8743
▁рецесси	-11.8743
▁сработал	-11.8743
▁стабилизирова	-11.8743
▁арсенал	-11.8743
▁выявля	-11.8743
▁госслужащ	-11.8743
▁обойтись	-11.8743
▁превысит	-11.8743
▁трагически	-11.8743
▁рисунк	-11.8743
▁скамейк	-11.8743
▁Стефан	-11.8743
▁баллотирова	-11.8743
▁наркотики	-11.8743
▁Эльвир	-11.8743
▁истечени	-11.8743
▁Похоже	-11.8743
▁очистк	-11.8743
▁легендарны	-11.8743
Лукойл	-11.8743
▁произошедши	-11.8743
▁решительно	-11.8744
▁объективны	-11.8744
▁активизирова	-11.8744
▁Социальн	-11.8745
▁серийны	-11.8745
▁честны	-11.8748
▁Городск	-11.8749
▁расследова	-11.8752
▁японц	-11.8754
▁переправ	-11.8763
▁юридическ	-11.8765
▁жизненны	-11.8775
драйв	-11.8776
▁опубликова	-11.8784
▁оккуп	-11.8798
▁психиатр	-11.8803
ome	-11.8803
безопасности	-11.8817
воздушн	-11.8842
рактически	-11.8894
▁LifeNews	-11.8897
▁Service	-11.8897
▁ЕАЭС	-11.8897
▁Нигерии	-11.8897
▁Скворцов	-11.8897
▁Шараповой	-11.8897
▁акватори	-11.8897
▁беспокойств	-11.8897
▁заболеваемост	-11.8897
▁инструктор	-11.8897
▁манипуляци	-11.8897
▁микроавтобус	-11.8897
▁недобросовестны	-11.8897
▁оргкомитет	-11.8897
▁размещать	-11.8897
▁феномен	-11.8897
▁Зеланди	-11.8897
▁Маргарит	-11.8897
▁просрочен	-11.8897
▁пузыр	-11.8897
▁Рафаэл	-11.8897
▁Считаю	-11.8897
▁деталей	-11.8897
▁Конкурс	-11.8897
▁Совместн	-11.8897
▁лежащ	-11.8897
▁комедии	-11.8897
Бавария	-11.8897
▁растений	-11.8897
▁депортаци	-11.8897
▁увлечен	-11.8897
▁ожог	-11.8898
▁привычк	-11.8898
▁Конституционны	-11.8898
▁бланк	-11.89
▁Донско	-11.8935
▁слушател	-11.8944
звезд	-11.8976
▁выставля	-11.8978
▁регулирова	-11.899
желательно	-11.8999
▁специализиров	-11.9008
мбициоз	-11.9021
▁многолетн	-11.905
▁недостато	-11.9051
▁подзащитн	-11.9053
железнодорожник	-11.9053
▁Бюджет	-11.9053
▁Днепропетровск	-11.9053
▁Минкомсвяз	-11.9053
▁Якутии	-11.9053
▁беспорядков	-11.9053
▁болезней	-11.9053
▁заимствовани	-11.9053
▁меморандум	-11.9053
▁подконтрольно	-11.9053
▁разъяснени	-11.9053
▁синдром	-11.9053
▁хоккея	-11.9053
▁РЕН	-11.9053
▁задумыв	-11.9053
▁нюанс	-11.9053
▁продлева	-11.9053
Убийство	-11.9053
▁Отношени	-11.9053
▁триумф	-11.9053
▁дизельны	-11.9053
▁испуга	-11.9053
▁сильнейши	-11.9053
▁Басманн	-11.9053
▁опухол	-11.9053
▁пластиковы	-11.9053
Вертолет	-11.9053
▁нейтральн	-11.9054
прогнозировал	-11.9057
▁артиллерийски	-11.9059
▁амбици	-11.9086
▁налажива	-11.9086
▁фармацевтическ	-11.9099
После	-11.9104
▁потрясающ	-11.9115
равнять	-11.9182
Коммунист	-11.9196
▁Первоначальн	-11.9209
▁паралимпийц	-11.9212
▁провоциру	-11.9212
▁Любопытно	-11.9212
▁Уточняется	-11.9212
▁Ярошенко	-11.9212
▁видеонаблюдения	-11.9212
▁крымчан	-11.9212
▁непрерывно	-11.9212
▁ограждени	-11.9212
▁отсутствуют	-11.9212
▁предъявит	-11.9212
▁преждевременн	-11.9212
▁препятствова	-11.9212
▁сооружений	-11.9212
▁сравнить	-11.9212
Z	-11.9637
Ь	-12.04
`	-12.3068
°	-12.4083
ü	-12.459
ä	-12.5751
ї	-12.5751
•	-12.7064
õ	-12.9882
é	-12.9882
×	-13.1385
⁄	-13.194
€	-13.3581
є	-13.382
■	-13.4534
ó	-13.7046
′	-13.8046
ö	-13.9157
©	-13.9157
̆	-13.9157
́	-14.0407
‒	-14.0407
І	-14.1836
è	-14.1836
þ	-14.3502
‬	-14.3502
[	-14.7767
μ	-14.8002
\	-14.8002
~	-14.8002
ë	-14.8002
ў	-14.8002
‍	-14.8002
😂	-14.8002
É	-14.8002
à	-15.1336
¦	-15.1336
¬	-15.1336
Ö	-15.1336
α	-15.1336
β	-15.1336
қ	-15.1336
Ş	-15.1336
Ν	-15.1336
ś	-15.6336
ī	-15.6336
️	-15.6336
ç	-15.6336
í	-15.6336
ð	-15.6336
ô	-15.6336
ı	-15.6336
ʀ	-15.6336
ν	-15.6336
џ	-15.6336
▲	-15.6336
ʼ	-15.6336
Š	-15.6336
ο	-15.6336
Η	-15.6336
⚽	-15.6336
Α	-15.6336
ғ	-16.6327
ŏ	-16.6328
ê	-16.6329
‪	-16.633
Ў	-16.6331
→	-16.6332
<	-16.6333
=	-16.6334
£	-16.6335
ρ	-16.6336
χ	-16.6336
ώ	-16.6336
¤	-16.6336
¥	-16.6336
§	-16.6336
Ë	-16.6336
ß	-16.6336
á	-16.6336
ø	-16.6336
ā	-16.6336
ę	-16.6336
İ	-16.6336
Ł	-16.6336
ń	-16.6336
ş	-16.6336
š	-16.6336
̈	-16.6336
̊	-16.6336
Σ	-16.6336
λ	-16.6336
Ї	-16.6336
ҳ	-16.6336
ӣ	-16.6336
∙	-16.6336
⋅	-16.6336
─	-16.6336
►	-16.6336
●	-16.6336
☃	-16.6336
☝	-16.6336
♫	-16.6336
❄	-16.6336
《	-16.6336
》	-16.6336
	-16.6336
🎂	-16.6336
🐅	-16.6336
🐺	-16.6336
💪	-16.6336
Є	-16.6336
🌞	-16.6336
έ	-16.6336
τ	-16.6336
Қ	-16.6336
(	-16.6336
Έ	-16.6336
Γ	-16.6336
🍺	-16.6336
🐗	-16.6336
