<unk>	0
<s>	0
</s>	0
▁о	-0
▁и	-1
▁а	-2
▁с	-3
▁н	-4
▁п	-5
▁е	-6
▁в	-7
▁,	-8
▁т	-9
▁р	-10
▁к	-11
▁.	-12
▁д	-13
▁у	-14
▁м	-15
▁л	-16
ст	-17
го	-18
▁по	-19
▁ы	-20
▁на	-21
то	-22
▁пр	-23
ен	-24
▁б	-25
▁"	-26
ер	-27
▁з	-28
ет	-29
ни	-30
ов	-31
▁ч	-32
▁ов	-33
ан	-34
ел	-35
▁-	-36
▁ст	-37
▁но	-38
▁ко	-39
▁не	-40
▁я	-41
▁ра	-42
ед	-43
▁за	-44
ро	-45
▁го	-46
ра	-47
ли	-48
ск	-49
▁ит	-50
но	-51
ин	-52
▁то	-53
ль	-54
▁ом	-55
▁г	-56
▁об	-57
▁э	-58
▁ен	-59
▁В	-60
▁С	-61
▁про	-62
▁от	-63
ся	-64
▁ны	-65
▁П	-66
ла	-67
ем	-68
ак	-69
▁ени	-70
▁ни	-71
▁1	-72
ци	-73
сс	-74
ал	-75
▁ь	-76
▁из	-77
▁что	-78
▁ск	-79
од	-80
▁Р	-81
ит	-82
▁до	-83
▁К	-84
ат	-85
▁ф	-86
▁ой	-87
во	-88
▁ре	-89
▁М	-90
▁2	-91
ло	-92
▁ж	-93
▁х	-94
ил	-95
ва	-96
▁ро	-97
▁0	-98
▁Н	-99
▁ан	-100
▁со	-101
ле	-102
▁ат	-103
▁ил	-104
▁во	-105
▁й	-106
▁ин	-107
▁ш	-108
▁вы	-109
▁мо	-110
ав	-111
▁при	-112
▁ли	-113
тор	-114
▁ер	-115
▁ам	-116
▁А	-117
▁бы	-118
▁ор	-119
уд	-120
▁О	-121
▁год	-122
ар	-123
▁ост	-124
ель	-125
▁это	-126
▁ей	-127
▁он	-128
▁тр	-129
▁ого	-130
▁ю	-131
сси	-132
▁ет	-133
он	-134
▁ие	-135
сь	-136
▁их	-137
аз	-138
ент	-139
▁ру	-140
▁раз	-141
ир	-142
ля	-143
▁ар	-144
▁Т	-145
▁им	-146
▁ия	-147
▁оп	-148
▁ри	-149
▁Д	-150
ти	-151
▁котор	-152
ей	-153
▁пер	-154
▁ци	-155
ам	-156
▁ани	-157
ор	-158
▁:	-159
▁ц	-160
▁ме	-161
ны	-162
че	-163
▁од	-164
▁И	-165
▁ить	-166
же	-167
▁пред	-168
об	-169
ек	-170
ез	-171
▁ий	-172
▁ол	-173
от	-174
▁ок	-175
сти	-176
▁ые	-177
▁под	-178
▁Б	-179
ру	-180
▁Г	-181
▁ник	-182
да	-183
жд	-184
▁ает	-185
сп	-186
▁ая	-187
▁ла	-188
ств	-189
▁ых	-190
▁ии	-191
▁так	-192
▁ско	-193
▁ения	-194
▁ал	-195
ут	-196
ур	-197
ма	-198
▁ах	-199
▁лен	-200
▁де	-201
▁ка	-202
▁ль	-203
▁(	-204
▁его	-205
▁иче	-206
▁ическ	-207
▁ем	-208
ие	-209
ис	-210
им	-211
▁ав	-212
▁)	-213
▁ать	-214
▁ся	-215
ют	-216
▁Ро	-217
▁ый	-218
▁ных	-219
▁5	-220
▁ист	-221
ко	-222
ят	-223
▁кон	-224
▁ств	-225
ре	-226
▁сл	-227
▁ение	-228
льн	-229
на	-230
▁ив	-231
▁По	-232
▁ной	-233
ри	-234
▁ик	-235
▁ос	-236
▁ком	-237
▁тв	-238
▁ного	-239
▁3	-240
▁Е	-241
ес	-242
▁ое	-243
▁ак	-244
▁итель	-245
ча	-246
▁оз	-247
▁Росси	-248
ик	-249
▁ым	-250
▁как	-251
▁для	-252
▁У	-253
▁пос	-254
▁ую	-255
▁пре	-256
▁раб	-257
▁ами	-258
▁6	-259
их	-260
▁вс	-261
▁ть	-262
ия	-263
▁ло	-264
▁те	-265
▁сп	-266
ран	-267
▁буд	-268
▁4	-269
ров	-270
▁тел	-271
та	-272
общ	-273
сть	-274
▁Л	-275
ий	-276
▁пере	-277
▁йск	-278
▁ные	-279
▁бо	-280
▁ви	-281
▁тер	-282
▁ев	-283
▁ный	-284
уп	-285
▁9	-286
▁ог	-287
▁работ	-288
▁ек	-289
▁сообщ	-290
▁Ф	-291
вор	-292
▁щ	-293
▁На	-294
▁се	-295
▁ее	-296
▁ят	-297
▁вер	-298
ект	-299
▁ми	-300
▁ут	-301
род	-302
чн	-303
▁этом	-304
льк	-305
▁сто	-306
▁яв	-307
▁ным	-308
▁ад	-309
▁сво	-310
уж	-311
ать	-312
уч	-313
▁З	-314
лн	-315
ев	-316
▁ти	-317
▁все	-318
▁7	-319
▁говор	-320
ры	-321
▁ки	-322
▁ес	-323
▁да	-324
▁ля	-325
▁Э	-326
▁вед	-327
ую	-328
▁ед	-329
▁гра	-330
▁ча	-331
▁лет	-332
▁уд	-333
▁нов	-334
▁ход	-335
▁комп	-336
рав	-337
▁ред	-338
▁су	-339
▁мир	-340
▁прав	-341
▁сам	-342
▁мож	-343
▁8	-344
▁росси	-345
▁ию	-346
▁ания	-347
▁ма	-348
▁или	-349
▁мен	-350
▁мест	-351
де	-352
▁тор	-353
ход	-354
▁али	-355
▁гла	-356
ги	-357
▁ном	-358
▁ции	-359
▁ности	-360
▁руб	-361
▁став	-362
▁ай	-363
ул	-364
▁гос	-365
▁ства	-366
из	-367
вн	-368
▁ство	-369
лю	-370
▁воз	-371
▁мер	-372
▁дент	-373
бр	-374
льш	-375
▁ста	-376
▁ве	-377
▁оч	-378
▁ают	-379
▁кра	-380
▁ской	-381
▁тран	-382
▁каз	-383
дел	-384
▁ку	-385
▁будет	-386
▁вод	-387
ме	-388
ди	-389
лен	-390
бы	-391
▁кан	-392
ерж	-393
▁след	-394
▁уб	-395
тер	-396
▁дел	-397
▁же	-398
ад	-399
▁ель	-400
▁Ч	-401
▁лю	-402
▁году	-403
▁ров	-404
ыв	-405
▁хо	-406
▁реш	-407
▁мет	-408
▁рас	-409
ези	-410
▁оле	-411
▁мент	-412
ных	-413
▁ест	-414
кт	-415
▁оло	-416
▁иров	-417
▁дв	-418
тов	-419
▁лов	-420
▁расс	-421
ка	-422
ии	-423
мо	-424
▁нес	-425
ще	-426
▁также	-427
рем	-428
▁ости	-429
▁эк	-430
не	-431
ган	-432
▁ъ	-433
▁оск	-434
▁ва	-435
ной	-436
ном	-437
▁ении	-438
ита	-439
▁мы	-440
▁ран	-441
ол	-442
▁ты	-443
вы	-444
яв	-445
▁тель	-446
▁ность	-447
▁ится	-448
ой	-449
▁уже	-450
▁ное	-451
ющ	-452
▁тро	-453
▁поли	-454
▁ского	-455
▁был	-456
▁ле	-457
▁орган	-458
▁ков	-459
▁нач	-460
▁том	-461
▁ют	-462
▁лож	-463
сн	-464
яз	-465
▁уча	-466
▁дн	-467
▁прези	-468
гда	-469
▁чем	-470
▁дол	-471
▁было	-472
▁чер	-473
▁уч	-474
▁ду	-475
▁ур	-476
▁город	-477
▁без	-478
сл	-479
▁ная	-480
▁оро	-481
ть	-482
▁та	-483
▁остав	-484
▁чел	-485
ремя	-486
▁время	-487
▁Х	-488
ив	-489
▁вид	-490
▁ость	-491
▁стр	-492
▁см	-493
нов	-494
ник	-495
▁пар	-496
▁челов	-497
▁овы	-498
▁ласти	-499
ред	-500
▁чет	-501
▁они	-502
▁иг	-503
ень	-504
▁тольк	-505
лек	-506
▁начал	-507
руп	-508
▁пу	-509
▁может	-510
иц	-511
ом	-512
рос	-513
ве	-514
ее	-515
▁рез	-516
▁торо	-517
▁мог	-518
ян	-519
▁па	-520
▁ир	-521
▁рем	-522
▁уп	-523
▁ется	-524
▁Я	-525
▁ис	-526
▁она	-527
▁явил	-528
▁ян	-529
яд	-530
▁иза	-531
▁ила	-532
▁ании	-533
▁пол	-534
▁олее	-535
рат	-536
▁стран	-537
▁?	-538
▁участ	-539
жду	-540
▁СШ	-541
▁зна	-542
▁США	-543
каз	-544
люч	-545
те	-546
▁еств	-547
▁иц	-548
▁после	-549
▁ел	-550
▁еще	-551
сто	-552
▁аг	-553
▁мат	-554
▁ап	-555
▁годн	-556
тив	-557
▁цион	-558
▁того	-559
▁нт	-560
▁Ш	-561
▁ож	-562
▁ступ	-563
▁ления	-564
ше	-565
▁веден	-566
ябр	-567
нис	-568
▁авто	-569
▁олж	-570
▁сказ	-571
▁арств	-572
▁кольк	-573
лик	-574
ейс	-575
▁инф	-576
ного	-577
▁анк	-578
▁дет	-579
▁%	-580
▁зв	-581
ные	-582
▁луч	-583
руг	-584
▁чтобы	-585
▁ную	-586
▁Ц	-587
ентр	-588
▁озмо	-589
▁озмож	-590
▁коном	-591
▁ается	-592
▁i	-593
▁держ	-594
▁Как	-595
▁ива	-596
▁тре	-597
▁вз	-598
▁иа	-599
оч	-600
мен	-601
▁были	-602
▁огла	-603
▁уст	-604
роп	-605
▁роект	-606
▁Ев	-607
тат	-608
▁альн	-609
▁ован	-610
▁отр	-611
▁ский	-612
▁олуч	-613
▁ому	-614
▁ило	-615
▁ди	-616
бор	-617
▁вел	-618
▁аз	-619
▁готов	-620
▁Но	-621
ним	-622
▁тех	-623
▁При	-624
▁кор	-625
▁РФ	-626
▁лед	-627
▁больш	-628
▁госуд	-629
▁род	-630
▁исп	-631
▁тан	-632
▁интер	-633
ку	-634
▁полн	-635
мм	-636
▁св	-637
ая	-638
▁опрос	-639
рт	-640
▁ош	-641
▁отно	-642
▁Алек	-643
ац	-644
▁ры	-645
▁атель	-646
тр	-647
▁народ	-648
▁За	-649
▁сред	-650
▁над	-651
▁Это	-652
▁Алекс	-653
▁перв	-654
▁ублик	-655
дан	-656
▁цен	-657
▁са	-658
▁краин	-659
▁долж	-660
▁сч	-661
пи	-662
▁гол	-663
▁кры	-664
▁ует	-665
▁между	-666
▁ремен	-667
ус	-668
▁нет	-669
ина	-670
▁оф	-671
▁еч	-672
це	-673
▁ыми	-674
▁ледов	-675
ции	-676
▁ох	-677
ным	-678
▁есть	-679
▁че	-680
▁дейс	-681
▁эти	-682
▁орм	-683
▁ений	-684
стн	-685
▁пл	-686
▁Об	-687
анд	-688
му	-689
вес	-690
▁Не	-691
▁ец	-692
▁ерт	-693
стр	-694
▁ас	-695
▁ид	-696
▁перед	-697
▁пут	-698
▁ствен	-699
▁ание	-700
▁би	-701
▁орма	-702
мер	-703
▁пис	-704
др	-705
▁мар	-706
▁счита	-707
▁тав	-708
▁нима	-709
▁мол	-710
ос	-711
▁минис	-712
▁му	-713
▁ими	-714
циа	-715
▁ьтат	-716
▁этого	-717
▁сов	-718
ящ	-719
▁ению	-720
▁суд	-721
▁годня	-722
▁вш	-723
▁кур	-724
▁ился	-725
га	-726
▁ться	-727
▁наз	-728
▁эксп	-729
▁ающ	-730
час	-731
er	-732
▁ейчас	-733
уб	-734
▁явля	-735
▁r	-736
▁ными	-737
чин	-738
▁рав	-739
▁резул	-740
▁осси	-741
▁полит	-742
▁груп	-743
▁ольш	-744
▁групп	-745
▁Вла	-746
▁ряд	-747
▁тур	-748
ять	-749
▁асс	-750
▁нас	-751
▁опер	-752
▁отруд	-753
си	-754
зов	-755
▁ловам	-756
▁отнош	-757
▁ез	-758
▁жд	-759
▁бор	-760
▁Влади	-761
▁кт	-762
▁енно	-763
▁ление	-764
▁стал	-765
▁тся	-766
ясн	-767
▁кла	-768
▁орт	-769
бо	-770
▁сед	-771
▁иться	-772
▁ала	-773
вер	-774
en	-775
▁пра	-776
▁ень	-777
▁неф	-778
▁опа	-779
▁торон	-780
▁чис	-781
▁изаци	-782
▁овал	-783
▁нару	-784
▁ивн	-785
▁ыв	-786
▁наш	-787
ста	-788
▁Са	-789
▁гражд	-790
▁млн	-791
ущ	-792
▁ских	-793
▁стан	-794
▁пе	-795
▁теля	-796
▁рай	-797
▁если	-798
▁ова	-799
ако	-800
▁днако	-801
▁метил	-802
▁риз	-803
▁лиш	-804
вод	-805
▁будут	-806
▁руг	-807
▁центр	-808
ери	-809
▁аш	-810
▁знач	-811
▁телей	-812
▁служ	-813
▁охран	-814
едер	-815
▁ало	-816
▁Так	-817
▁ке	-818
▁олог	-819
▁ям	-820
▁ово	-821
▁была	-822
▁ников	-823
▁произ	-824
▁L	-825
▁Нов	-826
▁пи	-827
▁иск	-828
▁мил	-829
▁аем	-830
▁дви	-831
▁себ	-832
енн	-833
▁аб	-834
▁Ка	-835
▁ротив	-836
▁зак	-837
▁си	-838
▁ковод	-839
▁могут	-840
▁Ж	-841
▁сел	-842
▁бл	-843
▁мотр	-844
▁когда	-845
▁Ю	-846
▁S	-847
▁ьн	-848
▁кр	-849
▁ция	-850
▁мин	-851
▁уж	-852
▁истем	-853
▁нап	-854
▁следн	-855
▁тем	-856
▁иту	-857
00	-858
ени	-859
▁рубле	-860
акт	-861
▁где	-862
▁можно	-863
▁них	-864
▁очень	-865
▁ики	-866
▁один	-867
▁быть	-868
кол	-869
▁оказ	-870
▁связ	-871
▁ью	-872
ный	-873
▁Он	-874
▁заяв	-875
▁траны	-876
▁ич	-877
▁ус	-878
▁ип	-879
▁мл	-880
▁доро	-881
еж	-882
▁Из	-883
▁закон	-884
рд	-885
▁иру	-886
▁фи	-887
▁отв	-888
▁оманд	-889
▁ейск	-890
лиц	-891
▁ня	-892
▁оста	-893
▁млрд	-894
спе	-895
▁итуац	-896
▁яет	-897
▁ось	-898
▁ивш	-899
▁A	-900
▁лист	-901
▁ему	-902
▁ех	-903
иа	-904
се	-905
▁сего	-906
▁ыст	-907
▁люб	-908
▁ьзов	-909
▁газ	-910
▁овер	-911
▁овать	-912
▁наход	-913
ич	-914
▁кол	-915
▁фон	-916
▁спор	-917
анс	-918
▁енных	-919
сяч	-920
▁друг	-921
▁кл	-922
▁техн	-923
▁управ	-924
▁ием	-925
▁ились	-926
▁жиз	-927
▁ото	-928
▁тысяч	-929
▁ело	-930
▁ква	-931
▁твов	-932
▁лся	-933
▁район	-934
ител	-935
ta	-936
▁дир	-937
▁грамм	-938
▁R	-939
ец	-940
▁иальн	-941
▁два	-942
▁инанс	-943
▁милли	-944
▁Мин	-945
▁око	-946
▁дву	-947
▁оль	-948
лич	-949
▁оглас	-950
цен	-951
▁ыва	-952
▁лиц	-953
уча	-954
по	-955
▁бли	-956
кра	-957
▁T	-958
▁блем	-959
▁голов	-960
▁оссия	-961
ых	-962
▁андр	-963
▁ено	-964
▁ита	-965
▁усл	-966
▁утин	-967
са	-968
▁теле	-969
▁основ	-970
▁полиц	-971
▁опера	-972
▁ответ	-973
ить	-974
▁ун	-975
меч	-976
▁необ	-977
▁лат	-978
▁обра	-979
▁терри	-980
▁цел	-981
ки	-982
▁моб	-983
▁Дж	-984
▁доб	-985
▁I	-986
▁тыс	-987
▁пы	-988
▁много	-989
▁стре	-990
▁тели	-991
▁!	-992
▁ыш	-993
▁ество	-994
▁одим	-995
▁мобил	-996
▁пресс	-997
▁Ко	-998
▁даже	-999
▁хот	-1000
▁a	-1001
▁этому	-1002
ерг	-1003
▁ники	-1004
▁опас	-1005
▁стреч	-1006
▁N	-1007
▁транс	-1008
▁тори	-1009
▁гро	-1010
▁место	-1011
▁ключ	-1012
▁ольше	-1013
▁стоян	-1014
▁аж	-1015
▁ru	-1016
▁пла	-1017
▁реа	-1018
▁C	-1019
▁редел	-1020
▁летн	-1021
▁ыступ	-1022
ок	-1023
▁ервы	-1024
▁объ	-1025
▁ум	-1026
СС	-1027
ест	-1028
▁анным	-1029
▁стро	-1030
▁аль	-1031
▁уров	-1032
▁ующ	-1033
▁ская	-1034
▁главн	-1035
ета	-1036
▁рын	-1037
▁Сир	-1038
▁необх	-1039
▁цию	-1040
▁ген	-1041
▁ще	-1042
▁мор	-1043
▁раж	-1044
▁гор	-1045
анк	-1046
▁мед	-1047
▁амери	-1048
▁казал	-1049
▁защ	-1050
▁право	-1051
▁зн	-1052
▁зап	-1053
▁военн	-1054
▁B	-1055
▁тар	-1056
▁точ	-1057
▁твия	-1058
▁еги	-1059
краи	-1060
▁тя	-1061
▁около	-1062
▁дирек	-1063
▁илась	-1064
зу	-1065
▁путат	-1066
вин	-1067
▁лег	-1068
▁ния	-1069
▁омо	-1070
▁сен	-1071
▁ись	-1072
on	-1073
▁авш	-1074
▁Ран	-1075
▁Украи	-1076
нес	-1077
▁этот	-1078
▁един	-1079
▁ги	-1080
▁рин	-1081
▁сдел	-1082
олн	-1083
▁Европ	-1084
▁пуск	-1085
▁быв	-1086
▁рен	-1087
▁ался	-1088
▁канск	-1089
▁тра	-1090
▁M	-1091
▁чит	-1092
▁ивает	-1093
▁недел	-1094
▁ример	-1095
▁ением	-1096
ду	-1097
▁име	-1098
▁тно	-1099
▁оверш	-1100
▁оцен	-1101
▁клад	-1102
▁выс	-1103
▁аться	-1104
▁предп	-1105
▁являе	-1106
▁F	-1107
▁юд	-1108
▁щик	-1109
▁Нап	-1110
▁люд	-1111
▁ены	-1112
▁доку	-1113
▁тен	-1114
▁ним	-1115
▁нич	-1116
▁месте	-1117
▁выбор	-1118
▁ул	-1119
▁реж	-1120
щен	-1121
▁ние	-1122
▁рат	-1123
▁ери	-1124
▁танов	-1125
▁порт	-1126
▁омощ	-1127
▁стра	-1128
▁Ранее	-1129
▁лучил	-1130
▁истра	-1131
▁устан	-1132
атр	-1133
▁иал	-1134
▁спорт	-1135
▁всех	-1136
▁ека	-1137
▁еб	-1138
▁маш	-1139
▁тву	-1140
▁дал	-1141
▁лись	-1142
▁агент	-1143
▁бу	-1144
▁звал	-1145
▁стави	-1146
▁кин	-1147
▁це	-1148
▁план	-1149
▁ител	-1150
льт	-1151
▁сла	-1152
▁еть	-1153
▁ющ	-1154
▁ества	-1155
▁истор	-1156
▁снов	-1157
▁извод	-1158
▁стоящ	-1159
▁пока	-1160
▁частн	-1161
жет	-1162
▁отмеч	-1163
▁ейш	-1164
▁мон	-1165
▁кач	-1166
▁троит	-1167
▁ях	-1168
▁офиц	-1169
▁сни	-1170
▁енко	-1171
▁него	-1172
▁Рос	-1173
▁чик	-1174
▁ерг	-1175
▁илось	-1176
отв	-1177
▁рак	-1178
▁луж	-1179
ьер	-1180
▁ские	-1181
▁движ	-1182
▁три	-1183
аж	-1184
▁измен	-1185
▁наруш	-1186
▁сро	-1187
▁Мы	-1188
▁рист	-1189
▁омент	-1190
▁терро	-1191
▁спец	-1192
▁испол	-1193
един	-1194
том	-1195
ующ	-1196
▁бур	-1197
▁круп	-1198
▁нуж	-1199
▁вани	-1200
би	-1201
▁ег	-1202
▁курс	-1203
▁обвин	-1204
▁кар	-1205
▁ском	-1206
▁теп	-1207
▁инг	-1208
▁вой	-1209
▁вал	-1210
▁лич	-1211
▁показ	-1212
▁ятся	-1213
▁редит	-1214
▁s	-1215
▁нос	-1216
▁c	-1217
▁этой	-1218
▁мьер	-1219
▁пособ	-1220
▁Ес	-1221
▁лект	-1222
▁всем	-1223
▁крупн	-1224
▁Если	-1225
▁ляет	-1226
▁тк	-1227
▁аний	-1228
▁защит	-1229
▁ент	-1230
▁авиа	-1231
▁дан	-1232
сяц	-1233
▁коно	-1234
▁лид	-1235
▁Ин	-1236
▁себя	-1237
инг	-1238
▁голо	-1239
▁рани	-1240
▁рег	-1241
▁твующ	-1242
▁месяц	-1243
▁циона	-1244
ну	-1245
▁поб	-1246
▁юджет	-1247
▁$	-1248
▁чемпи	-1249
▁Тур	-1250
▁отре	-1251
вар	-1252
▁изнес	-1253
▁бира	-1254
▁само	-1255
▁через	-1256
▁жител	-1257
▁двух	-1258
▁сет	-1259
▁иф	-1260
▁льно	-1261
▁10	-1262
▁вести	-1263
▁P	-1264
▁Сирии	-1265
▁егион	-1266
юз	-1267
▁респ	-1268
мин	-1269
▁ведом	-1270
▁енные	-1271
▁шло	-1272
▁Новос	-1273
ком	-1274
▁бург	-1275
до	-1276
▁день	-1277
▁дела	-1278
▁вра	-1279
▁куп	-1280
▁ья	-1281
▁числе	-1282
▁жи	-1283
▁сы	-1284
▁Пос	-1285
▁свою	-1286
▁голос	-1287
▁ха	-1288
▁рт	-1289
▁пор	-1290
итр	-1291
▁отказ	-1292
▁сбор	-1293
▁t	-1294
▁лит	-1295
▁рам	-1296
▁G	-1297
▁жел	-1298
▁Кро	-1299
▁одно	-1300
▁филь	-1301
▁ьник	-1302
▁ять	-1303
лаг	-1304
▁нем	-1305
▁енной	-1306
▁ричин	-1307
▁ук	-1308
▁нск	-1309
▁совет	-1310
▁ному	-1311
▁еп	-1312
▁ались	-1313
▁глава	-1314
▁дав	-1315
▁кто	-1316
▁овой	-1317
▁апр	-1318
▁Кроме	-1319
▁Дм	-1320
▁кварт	-1321
▁Дмитр	-1322
▁йд	-1323
▁Все	-1324
▁соотв	-1325
лк	-1326
▁ецк	-1327
▁Пет	-1328
▁кци	-1329
нир	-1330
▁рия	-1331
▁велич	-1332
▁рован	-1333
▁овых	-1334
▁школ	-1335
▁Про	-1336
▁ара	-1337
▁ика	-1338
▁ются	-1339
▁лим	-1340
▁стве	-1341
▁матер	-1342
▁ман	-1343
▁лаг	-1344
вол	-1345
лож	-1346
▁Се	-1347
▁бра	-1348
▁сь	-1349
▁вис	-1350
▁град	-1351
▁ланир	-1352
▁олла	-1353
▁кат	-1354
▁алось	-1355
екс	-1356
▁хоро	-1357
лед	-1358
▁игра	-1359
▁конц	-1360
▁n	-1361
▁соб	-1362
ык	-1363
▁зем	-1364
▁нии	-1365
▁админ	-1366
▁езд	-1367
▁оскве	-1368
▁нее	-1369
▁обств	-1370
▁ческ	-1371
▁дд	-1372
▁нев	-1373
▁сир	-1374
▁менно	-1375
▁ранее	-1376
▁рус	-1377
▁сай	-1378
▁ъект	-1379
▁мит	-1380
or	-1381
щин	-1382
▁уш	-1383
▁Турци	-1384
▁своей	-1385
▁поз	-1386
▁етс	-1387
▁апрел	-1388
▁ктябр	-1389
▁член	-1390
▁лектр	-1391
▁ивать	-1392
▁стать	-1393
▁январ	-1394
▁добав	-1395
▁полаг	-1396
рыт	-1397
▁ткрыт	-1398
▁оев	-1399
▁селен	-1400
▁обы	-1401
▁тории	-1402
ый	-1403
▁отреб	-1404
▁там	-1405
▁местн	-1406
▁СМ	-1407
▁Len	-1408
▁озвол	-1409
▁оллар	-1410
▁Lenta	-1411
▁овые	-1412
отр	-1413
▁смотр	-1414
▁дач	-1415
зда	-1416
▁созда	-1417
▁казан	-1418
▁олжны	-1419
▁держк	-1420
▁b	-1421
▁овлен	-1422
▁вет	-1423
▁тивн	-1424
▁связи	-1425
▁Гла	-1426
▁дорог	-1427
▁15	-1428
▁ожи	-1429
▁вла	-1430
жн	-1431
▁реб	-1432
▁ергей	-1433
▁Ъ	-1434
▁лидер	-1435
▁ног	-1436
▁ией	-1437
▁особ	-1438
▁фф	-1439
▁факт	-1440
▁лиз	-1441
▁сущ	-1442
▁кре	-1443
▁ана	-1444
▁скор	-1445
▁труд	-1446
▁служб	-1447
▁росто	-1448
▁Кон	-1449
▁вар	-1450
▁арти	-1451
▁ну	-1452
▁блю	-1453
▁вит	-1454
▁уровн	-1455
▁вое	-1456
▁прин	-1457
▁уз	-1458
▁асп	-1459
▁оор	-1460
▁20	-1461
▁лимпи	-1462
бол	-1463
▁ТА	-1464
▁енщин	-1465
▁торг	-1466
▁оздан	-1467
▁цев	-1468
▁льной	-1469
гра	-1470
сят	-1471
▁федер	-1472
▁уг	-1473
▁поч	-1474
рам	-1475
▁гл	-1476
▁жен	-1477
▁мод	-1478
▁ТАСС	-1479
▁тов	-1480
▁йти	-1481
▁лучш	-1482
▁РИ	-1483
▁СМИ	-1484
▁омним	-1485
▁Бел	-1486
▁подин	-1487
▁фильм	-1488
▁жил	-1489
▁луча	-1490
▁людей	-1491
▁ноябр	-1492
▁Ме	-1493
▁оби	-1494
▁емь	-1495
▁лощ	-1496
▁стар	-1497
▁сдела	-1498
лог	-1499
▁мал	-1500
▁ругих	-1501
▁ддерж	-1502
▁обяз	-1503
▁час	-1504
▁матч	-1505
▁культ	-1506
▁исс	-1507
▁машин	-1508
▁ней	-1509
▁налог	-1510
▁Сов	-1511
▁дем	-1512
▁доста	-1513
▁уют	-1514
▁ели	-1515
▁вестн	-1516
▁разн	-1517
▁ятель	-1518
▁еспе	-1519
▁еспеч	-1520
▁акс	-1521
▁виде	-1522
▁шт	-1523
▁игр	-1524
▁нальн	-1525
мет	-1526
▁ини	-1527
▁тон	-1528
▁эта	-1529
▁W	-1530
▁побед	-1531
▁крыт	-1532
рым	-1533
▁укт	-1534
▁рк	-1535
▁страд	-1536
▁лин	-1537
▁Интер	-1538
▁лучае	-1539
▁очн	-1540
▁ожида	-1541
▁ье	-1542
▁енн	-1543
▁десят	-1544
▁лощад	-1545
▁уктур	-1546
▁сек	-1547
▁ровод	-1548
▁сновн	-1549
бод	-1550
▁вобод	-1551
▁зд	-1552
▁ризна	-1553
▁/	-1554
▁втор	-1555
an	-1556
езд	-1557
▁еты	-1558
▁шел	-1559
▁пуст	-1560
▁еж	-1561
▁источ	-1562
▁натор	-1563
▁ере	-1564
▁ходе	-1565
▁естве	-1566
дат	-1567
▁тяж	-1568
▁Федер	-1569
▁седа	-1570
▁Де	-1571
неш	-1572
▁гру	-1573
▁сс	-1574
▁эн	-1575
▁РИА	-1576
▁дидат	-1577
▁сер	-1578
тон	-1579
▁утбол	-1580
▁гр	-1581
▁нут	-1582
▁сил	-1583
▁тик	-1584
▁жизни	-1585
▁вин	-1586
▁ближ	-1587
▁шли	-1588
▁отдел	-1589
▁част	-1590
▁ранич	-1591
▁фор	-1592
▁ащ	-1593
▁марта	-1594
▁сти	-1595
▁пыта	-1596
▁канал	-1597
▁появ	-1598
▁рост	-1599
▁свои	-1600
▁хоз	-1601
▁арт	-1602
▁ял	-1603
▁хорош	-1604
▁u	-1605
▁артии	-1606
▁После	-1607
▁твор	-1608
▁главы	-1609
▁огда	-1610
▁оглаш	-1611
▁ству	-1612
▁яют	-1613
▁ществ	-1614
▁мно	-1615
ению	-1616
▁ервый	-1617
es	-1618
▁лишь	-1619
▁назыв	-1620
▁рынк	-1621
▁изм	-1622
▁нению	-1623
▁Крым	-1624
▁разов	-1625
▁чин	-1626
▁олож	-1627
▁вяз	-1628
▁оциа	-1629
▁ужчин	-1630
▁фер	-1631
▁жив	-1632
▁рос	-1633
▁ским	-1634
▁хв	-1635
▁Во	-1636
▁верну	-1637
▁ичн	-1638
шл	-1639
▁стат	-1640
▁улиц	-1641
▁ового	-1642
▁сут	-1643
▁прод	-1644
ми	-1645
▁фонд	-1646
▁своих	-1647
▁еле	-1648
▁ями	-1649
▁ена	-1650
▁рек	-1651
▁равил	-1652
▁стало	-1653
▁чен	-1654
▁лась	-1655
▁еро	-1656
рамп	-1657
▁чере	-1658
▁Трамп	-1659
▁крат	-1660
▁обяза	-1661
▁груз	-1662
▁цесс	-1663
▁Также	-1664
▁ОО	-1665
▁осквы	-1666
▁удал	-1667
▁фин	-1668
▁вн	-1669
▁нужно	-1670
ун	-1671
▁Ма	-1672
▁вли	-1673
▁D	-1674
▁ериод	-1675
▁ито	-1676
▁числ	-1677
▁пециа	-1678
нул	-1679
▁Пред	-1680
дум	-1681
▁мента	-1682
▁осдум	-1683
▁Сев	-1684
▁преду	-1685
▁услов	-1686
▁оли	-1687
▁кой	-1688
▁льн	-1689
▁вития	-1690
▁объем	-1691
▁гон	-1692
зи	-1693
▁ела	-1694
▁нор	-1695
▁нг	-1696
▁парла	-1697
▁цы	-1698
▁лении	-1699
▁нти	-1700
▁ател	-1701
▁Для	-1702
▁четве	-1703
▁анных	-1704
▁вк	-1705
▁пост	-1706
утр	-1707
▁олю	-1708
▁клуб	-1709
▁стали	-1710
▁есн	-1711
▁хват	-1712
▁бес	-1713
▁ард	-1714
▁внутр	-1715
ная	-1716
▁трет	-1717
▁ирует	-1718
▁почти	-1719
▁пит	-1720
le	-1721
▁молод	-1722
▁зыв	-1723
▁конце	-1724
▁колич	-1725
▁сутс	-1726
▁ниц	-1727
▁дать	-1728
▁рамк	-1729
▁нефти	-1730
▁общ	-1731
▁ерь	-1732
▁пад	-1733
▁остью	-1734
▁12	-1735
▁пом	-1736
▁До	-1737
▁тране	-1738
▁детей	-1739
▁руч	-1740
▁ратур	-1741
▁беж	-1742
▁дома	-1743
▁ользу	-1744
ял	-1745
▁полож	-1746
▁бла	-1747
▁практ	-1748
▁часть	-1749
▁маг	-1750
▁ром	-1751
▁бр	-1752
▁вещ	-1753
▁плат	-1754
▁люди	-1755
▁меня	-1756
▁срок	-1757
▁30	-1758
▁бин	-1759
▁части	-1760
раф	-1761
▁Ан	-1762
▁бло	-1763
▁стол	-1764
▁сумм	-1765
▁поясн	-1766
▁раст	-1767
▁Центр	-1768
▁ооруж	-1769
▁обе	-1770
▁нд	-1771
▁ложн	-1772
▁редн	-1773
▁отому	-1774
ября	-1775
▁гре	-1776
▁тября	-1777
▁;	-1778
▁одной	-1779
▁включ	-1780
▁позиц	-1781
▁лял	-1782
ar	-1783
▁фе	-1784
▁шн	-1785
▁пят	-1786
▁инск	-1787
▁уа	-1788
▁верш	-1789
▁омощь	-1790
▁актив	-1791
▁твует	-1792
▁уть	-1793
▁мещен	-1794
▁бер	-1795
▁одерж	-1796
▁олжен	-1797
▁прос	-1798
▁Извес	-1799
▁мерен	-1800
▁твие	-1801
▁ностр	-1802
уг	-1803
▁Ми	-1804
▁благо	-1805
▁нять	-1806
▁ант	-1807
▁режд	-1808
▁жур	-1809
▁сильн	-1810
▁сборн	-1811
▁успе	-1812
▁оступ	-1813
▁метр	-1814
▁онат	-1815
▁e	-1816
▁оюз	-1817
▁тоим	-1818
▁ца	-1819
▁тп	-1820
▁санк	-1821
▁рияти	-1822
▁санкц	-1823
▁анию	-1824
▁сключ	-1825
▁комме	-1826
▁точно	-1827
▁перс	-1828
▁верен	-1829
▁округ	-1830
▁др	-1831
▁ади	-1832
▁извес	-1833
▁наруж	-1834
▁режим	-1835
▁аэ	-1836
▁суб	-1837
рал	-1838
ви	-1839
▁Они	-1840
▁ообщ	-1841
▁сети	-1842
▁полу	-1843
▁Совет	-1844
▁ороны	-1845
▁трол	-1846
▁Ар	-1847
▁итог	-1848
▁парат	-1849
▁ругие	-1850
▁аци	-1851
▁ась	-1852
▁фев	-1853
▁зван	-1854
▁ерьез	-1855
▁Вы	-1856
▁уто	-1857
▁ъясн	-1858
▁тит	-1859
▁росл	-1860
▁авг	-1861
▁февра	-1862
▁тправ	-1863
ьб	-1864
▁утвер	-1865
▁доход	-1866
▁смен	-1867
▁авгус	-1868
▁иаль	-1869
▁дорож	-1870
▁МВ	-1871
▁кажд	-1872
▁тн	-1873
▁сниж	-1874
▁треб	-1875
▁аст	-1876
▁высок	-1877
▁айш	-1878
▁сад	-1879
▁шир	-1880
▁сих	-1881
▁жела	-1882
▁ту	-1883
▁прет	-1884
▁власт	-1885
▁гран	-1886
▁теч	-1887
▁жизн	-1888
▁нтон	-1889
ью	-1890
▁молет	-1891
▁E	-1892
▁глав	-1893
▁инств	-1894
▁аксим	-1895
▁Ни	-1896
ям	-1897
▁аются	-1898
▁оедин	-1899
ерт	-1900
▁йн	-1901
▁блок	-1902
▁уется	-1903
▁енее	-1904
▁ывает	-1905
▁ике	-1906
▁ио	-1907
▁дного	-1908
▁седан	-1909
▁миров	-1910
oo	-1911
▁пож	-1912
иев	-1913
▁чи	-1914
▁хи	-1915
▁исход	-1916
▁Да	-1917
▁борьб	-1918
▁энерг	-1919
▁ировк	-1920
▁разом	-1921
мог	-1922
▁шта	-1923
▁кабр	-1924
▁образ	-1925
▁хов	-1926
▁бывш	-1927
▁ивают	-1928
▁стоят	-1929
▁читыв	-1930
▁g	-1931
▁надо	-1932
▁вот	-1933
▁крыл	-1934
▁зде	-1935
▁кабря	-1936
▁никак	-1937
▁проце	-1938
▁ложил	-1939
▁фа	-1940
▁вес	-1941
▁такой	-1942
▁ано	-1943
▁еск	-1944
▁остан	-1945
▁Петер	-1946
▁ицу	-1947
▁Пр	-1948
▁Дон	-1949
▁ечно	-1950
▁лова	-1951
▁зав	-1952
▁сужд	-1953
▁сполн	-1954
▁сылк	-1955
▁угро	-1956
▁инвес	-1957
▁мас	-1958
ту	-1959
▁Ку	-1960
▁уль	-1961
▁гля	-1962
▁кос	-1963
▁русск	-1964
▁ЕС	-1965
▁иха	-1966
▁долг	-1967
▁назад	-1968
▁зон	-1969
▁ерб	-1970
▁онов	-1971
▁ское	-1972
▁штаб	-1973
▁вни	-1974
▁едь	-1975
▁топ	-1976
▁ффект	-1977
▁ивал	-1978
▁еньги	-1979
▁мести	-1980
▁вп	-1981
▁смерт	-1982
▁итай	-1983
▁алась	-1984
▁Киев	-1985
▁вок	-1986
▁арм	-1987
▁имо	-1988
▁казыв	-1989
▁ышлен	-1990
▁сматр	-1991
▁справ	-1992
▁рит	-1993
▁пен	-1994
▁ама	-1995
▁овый	-1996
▁шен	-1997
▁этих	-1998
▁бе	-1999
рыв	-2000
▁зж	-2001
▁иль	-2002
▁мая	-2003
▁трех	-2004
▁роди	-2005
▁обрат	-2006
▁питал	-2007
▁среди	-2008
▁No	-2009
▁ящ	-2010
▁ечер	-2011
▁арест	-2012
▁писал	-2013
▁гно	-2014
▁ации	-2015
▁себе	-2016
▁торой	-2017
гио	-2018
▁Евро	-2019
▁Между	-2020
▁итета	-2021
▁ополн	-2022
▁чу	-2023
▁губ	-2024
▁нам	-2025
▁регио	-2026
▁лять	-2027
▁оряд	-2028
▁тиц	-2029
▁внима	-2030
▁25	-2031
▁одоб	-2032
▁тоит	-2033
▁яя	-2034
▁здан	-2035
he	-2036
▁Гер	-2037
▁ите	-2038
▁ством	-2039
▁близ	-2040
▁удов	-2041
▁зам	-2042
▁худ	-2043
▁вания	-2044
▁одобн	-2045
▁дис	-2046
▁важн	-2047
▁рук	-2048
▁личн	-2049
▁акт	-2050
▁рият	-2051
▁ркнул	-2052
▁подче	-2053
▁боро	-2054
▁имущ	-2055
▁йский	-2056
▁класс	-2057
▁журна	-2058
▁земл	-2059
▁тоже	-2060
▁должн	-2061
▁тин	-2062
▁адр	-2063
▁граф	-2064
▁убий	-2065
▁хозя	-2066
▁парти	-2067
▁in	-2068
▁але	-2069
▁Север	-2070
▁дь	-2071
▁ителя	-2072
▁орядк	-2073
▁11	-2074
▁конод	-2075
▁сегда	-2076
▁фо	-2077
▁ступн	-2078
▁мног	-2079
за	-2080
шен	-2081
▁воего	-2082
▁дум	-2083
▁мере	-2084
▁пенси	-2085
▁прям	-2086
▁этим	-2087
▁делал	-2088
▁ажд	-2089
▁ьян	-2090
▁Минис	-2091
▁йские	-2092
▁добр	-2093
▁ассаж	-2094
▁шед	-2095
▁гноз	-2096
▁прещ	-2097
▁твер	-2098
▁нст	-2099
▁ше	-2100
▁сез	-2101
▁пять	-2102
▁Мур	-2103
▁ноч	-2104
▁верси	-2105
▁енник	-2106
▁сезон	-2107
▁чь	-2108
▁заб	-2109
▁тот	-2110
▁ихся	-2111
▁конч	-2112
▁минут	-2113
▁сущес	-2114
▁ущ	-2115
▁знан	-2116
▁обира	-2117
▁пон	-2118
▁анков	-2119
▁анием	-2120
▁тверд	-2121
▁влия	-2122
▁воим	-2123
▁слов	-2124
▁мне	-2125
▁годы	-2126
▁Никол	-2127
▁толиц	-2128
▁сра	-2129
▁банк	-2130
▁ребен	-2131
▁ринят	-2132
▁тогда	-2133
▁акие	-2134
▁йдет	-2135
▁H	-2136
▁дума	-2137
▁либо	-2138
▁дня	-2139
▁гром	-2140
▁нстру	-2141
▁удар	-2142
▁иш	-2143
▁ате	-2144
▁указ	-2145
▁фото	-2146
▁Ба	-2147
▁Бр	-2148
▁стала	-2149
▁вят	-2150
▁верк	-2151
▁кти	-2152
▁доров	-2153
▁тиво	-2154
▁взрыв	-2155
▁нди	-2156
▁парк	-2157
▁здесь	-2158
▁лета	-2159
▁айн	-2160
▁несен	-2161
▁ногие	-2162
▁руж	-2163
▁гляд	-2164
▁поги	-2165
▁кино	-2166
▁римен	-2167
▁тест	-2168
▁меро	-2169
▁устро	-2170
▁нен	-2171
▁блюда	-2172
▁ион	-2173
▁Фран	-2174
▁лекс	-2175
▁яется	-2176
▁Под	-2177
▁рий	-2178
▁шла	-2179
▁роз	-2180
▁крыв	-2181
▁шедш	-2182
▁погиб	-2183
▁Мурма	-2184
▁будущ	-2185
▁нег	-2186
▁срав	-2187
▁сравн	-2188
▁ставк	-2189
▁олев	-2190
▁могли	-2191
▁своем	-2192
▁рожд	-2193
▁Прези	-2194
▁льных	-2195
▁МВД	-2196
▁имею	-2197
▁бил	-2198
▁тия	-2199
▁фли	-2200
▁мел	-2201
▁ренд	-2202
▁станц	-2203
▁пам	-2204
▁риним	-2205
▁урн	-2206
▁больн	-2207
▁висим	-2208
▁юс	-2209
▁литик	-2210
▁дежд	-2211
▁троен	-2212
▁аря	-2213
▁ензи	-2214
▁росил	-2215
▁l	-2216
▁ыск	-2217
▁Франц	-2218
▁ух	-2219
ван	-2220
▁анс	-2221
▁тепер	-2222
▁уточн	-2223
▁илл	-2224
▁товар	-2225
▁фликт	-2226
▁дж	-2227
▁тог	-2228
▁лизац	-2229
▁руп	-2230
▁хож	-2231
▁чего	-2232
▁ику	-2233
▁памят	-2234
▁ревн	-2235
▁реаль	-2236
▁ладел	-2237
рев	-2238
▁муз	-2239
▁ьев	-2240
▁олот	-2241
▁случа	-2242
▁услуг	-2243
▁давно	-2244
▁m	-2245
▁автор	-2246
▁гу	-2247
▁слав	-2248
▁Газ	-2249
▁бесп	-2250
▁регул	-2251
▁ослед	-2252
▁решил	-2253
▁новых	-2254
пис	-2255
вест	-2256
▁влек	-2257
▁акц	-2258
▁алл	-2259
▁анные	-2260
▁креп	-2261
▁права	-2262
▁осто	-2263
▁вязан	-2264
▁исло	-2265
▁ходит	-2266
▁нефт	-2267
▁видео	-2268
▁дукт	-2269
▁жден	-2270
▁свой	-2271
▁ывш	-2272
▁18	-2273
▁ихаил	-2274
▁олн	-2275
▁данн	-2276
▁ункт	-2277
▁усил	-2278
▁сразу	-2279
▁тракт	-2280
▁От	-2281
▁лив	-2282
▁тнер	-2283
▁европ	-2284
▁мотря	-2285
▁медиц	-2286
▁эту	-2287
▁онал	-2288
▁кам	-2289
▁нтов	-2290
▁трен	-2291
▁музык	-2292
▁поп	-2293
▁родаж	-2294
▁таких	-2295
▁веду	-2296
▁омина	-2297
леч	-2298
▁меш	-2299
▁влеч	-2300
▁чита	-2301
▁косм	-2302
▁ьц	-2303
▁Иван	-2304
▁емон	-2305
▁аны	-2306
▁обещ	-2307
▁овск	-2308
al	-2309
▁води	-2310
▁ляци	-2311
▁выход	-2312
▁имп	-2313
▁кк	-2314
▁озрев	-2315
▁стрем	-2316
▁вен	-2317
▁издан	-2318
▁строи	-2319
▁онк	-2320
▁Сам	-2321
▁конф	-2322
▁ракет	-2323
▁ицы	-2324
▁зор	-2325
▁коп	-2326
▁ъяв	-2327
▁оруж	-2328
▁иб	-2329
▁сири	-2330
▁ндр	-2331
▁рск	-2332
▁дальн	-2333
▁14	-2334
▁яч	-2335
▁сит	-2336
▁оевик	-2337
▁окуп	-2338
ce	-2339
▁ласт	-2340
▁Кра	-2341
▁объяв	-2342
▁неж	-2343
▁нефть	-2344
ТО	-2345
▁ице	-2346
▁свое	-2347
▁чина	-2348
▁имеет	-2349
▁мероп	-2350
▁отлич	-2351
▁стрел	-2352
▁Она	-2353
▁вос	-2354
▁ьзова	-2355
дач	-2356
▁слам	-2357
▁быт	-2358
роб	-2359
▁стоит	-2360
▁юр	-2361
▁ехал	-2362
▁Герма	-2363
▁ризис	-2364
▁бар	-2365
▁етыре	-2366
▁рыв	-2367
▁выше	-2368
▁явлен	-2369
▁тай	-2370
▁проку	-2371
ИД	-2372
▁ний	-2373
▁тек	-2374
▁уда	-2375
▁як	-2376
▁тим	-2377
▁озник	-2378
▁ьб	-2379
▁иници	-2380
леж	-2381
▁разил	-2382
▁требо	-2383
ou	-2384
▁авл	-2385
▁Гос	-2386
▁атем	-2387
▁равн	-2388
▁ктивн	-2389
▁осков	-2390
▁нтир	-2391
▁хотя	-2392
▁губер	-2393
▁зар	-2394
▁евро	-2395
▁ляющ	-2396
▁здрав	-2397
▁вне	-2398
▁оценк	-2399
▁штраф	-2400
▁V	-2401
▁яж	-2402
▁суда	-2403
▁изац	-2404
▁скую	-2405
▁логи	-2406
▁искус	-2407
▁ици	-2408
▁Что	-2409
▁одимо	-2410
▁ава	-2411
▁мов	-2412
▁наком	-2413
▁март	-2414
▁рынке	-2415
▁чинов	-2416
▁ба	-2417
▁ывший	-2418
▁13	-2419
▁каж	-2420
▁сайте	-2421
▁ново	-2422
ыт	-2423
▁печ	-2424
▁учас	-2425
▁коноп	-2426
▁нивер	-2427
▁ейств	-2428
▁нял	-2429
▁туд	-2430
▁деп	-2431
▁лений	-2432
▁регис	-2433
▁ахов	-2434
▁восп	-2435
▁ност	-2436
▁новый	-2437
▁er	-2438
▁учен	-2439
▁вор	-2440
▁демо	-2441
▁рынка	-2442
▁взят	-2443
▁То	-2444
▁енц	-2445
▁мой	-2446
▁тогам	-2447
▁инс	-2448
▁театр	-2449
ман	-2450
▁дио	-2451
▁обед	-2452
▁вращ	-2453
▁нужд	-2454
▁пуля	-2455
▁лужб	-2456
▁ифик	-2457
▁лаго	-2458
▁еме	-2459
▁руш	-2460
▁50	-2461
▁ести	-2462
▁кции	-2463
лон	-2464
▁омн	-2465
▁ьск	-2466
▁олле	-2467
▁остоя	-2468
▁енный	-2469
гор	-2470
▁аф	-2471
▁пром	-2472
▁рибы	-2473
▁ошел	-2474
▁Его	-2475
▁зов	-2476
▁орд	-2477
▁жизнь	-2478
▁остиг	-2479
▁ощ	-2480
▁ша	-2481
▁16	-2482
▁аэроп	-2483
▁Кли	-2484
▁писан	-2485
▁урнал	-2486
ter	-2487
▁трат	-2488
▁ритан	-2489
▁арк	-2490
▁леч	-2491
▁ау	-2492
▁руго	-2493
▁СК	-2494
▁треть	-2495
▁асл	-2496
▁пиш	-2497
▁йт	-2498
▁цией	-2499
▁быстр	-2500
▁задач	-2501
▁МИД	-2502
▁газет	-2503
▁ожд	-2504
▁осущ	-2505
она	-2506
▁веч	-2507
▁адици	-2508
▁шлого	-2509
▁окон	-2510
▁Игор	-2511
▁модел	-2512
▁обычн	-2513
▁танет	-2514
▁Кор	-2515
▁пожар	-2516
▁угроз	-2517
▁еш	-2518
дин	-2519
▁айте	-2520
▁аспро	-2521
▁ервые	-2522
▁разви	-2523
▁лось	-2524
▁вол	-2525
▁овали	-2526
▁ази	-2527
▁лан	-2528
▁нынеш	-2529
▁пыт	-2530
▁оте	-2531
▁врач	-2532
▁строй	-2533
▁меч	-2534
▁равда	-2535
▁22	-2536
▁елей	-2537
▁лог	-2538
▁алат	-2539
▁тяжел	-2540
▁ищ	-2541
▁обор	-2542
▁ельно	-2543
▁рибыл	-2544
рор	-2545
▁шест	-2546
▁цов	-2547
▁атак	-2548
▁олжна	-2549
▁фесси	-2550
▁блемы	-2551
▁ъедин	-2552
▁17	-2553
▁ина	-2554
▁ругой	-2555
ему	-2556
▁енд	-2557
▁ведет	-2558
▁такие	-2559
со	-2560
▁одейс	-2561
▁тельн	-2562
▁шенко	-2563
▁оги	-2564
▁марк	-2565
▁титут	-2566
▁исси	-2567
мес	-2568
▁чера	-2569
▁оллег	-2570
▁годов	-2571
▁овмес	-2572
▁очему	-2573
выш	-2574
▁овым	-2575
▁повыш	-2576
▁риход	-2577
▁амп	-2578
дн	-2579
лиз	-2580
▁ках	-2581
▁атив	-2582
▁рабоч	-2583
ген	-2584
▁воду	-2585
▁оссию	-2586
▁Куб	-2587
▁дев	-2588
▁хара	-2589
▁июн	-2590
▁каса	-2591
▁ток	-2592
▁боев	-2593
▁июля	-2594
▁ниче	-2595
▁низ	-2596
▁финал	-2597
▁митет	-2598
▁опинг	-2599
▁гар	-2600
▁опыт	-2601
▁рубл	-2602
▁лик	-2603
▁фак	-2604
▁клон	-2605
▁мире	-2606
▁ероят	-2607
▁норма	-2608
▁шес	-2609
▁Вер	-2610
▁ствия	-2611
▁изов	-2612
▁омощи	-2613
▁уальн	-2614
▁дней	-2615
▁орту	-2616
,5	-2617
▁нят	-2618
зн	-2619
▁ляют	-2620
▁мощ	-2621
▁очк	-2622
▁Глава	-2623
▁ерж	-2624
▁прис	-2625
▁вольн	-2626
▁телем	-2627
▁пуляр	-2628
▁ач	-2629
бл	-2630
▁жал	-2631
▁аким	-2632
▁конс	-2633
▁нвест	-2634
▁иев	-2635
▁карт	-2636
▁цена	-2637
▁ыгра	-2638
▁орв	-2639
▁вице	-2640
▁онер	-2641
▁ринял	-2642
▁Ru	-2643
▁ып	-2644
▁яз	-2645
▁секре	-2646
▁ООН	-2647
▁пара	-2648
▁онд	-2649
▁Серг	-2650
▁мигра	-2651
▁кв	-2652
▁арш	-2653
▁ничег	-2654
▁осуд	-2655
▁сниз	-2656
▁нашей	-2657
▁лега	-2658
▁тарь	-2659
▁аждый	-2660
▁гиона	-2661
▁ланд	-2662
▁вели	-2663
▁помн	-2664
▁АТО	-2665
▁дук	-2666
▁обо	-2667
▁ифика	-2668
▁ндрей	-2669
▁дукци	-2670
▁иктор	-2671
▁Бу	-2672
▁экс	-2673
▁окра	-2674
▁потом	-2675
стан	-2676
▁еже	-2677
▁сстан	-2678
▁дух	-2679
▁Когда	-2680
▁олезн	-2681
▁отмен	-2682
▁треби	-2683
ека	-2684
▁конт	-2685
▁факс	-2686
▁есп	-2687
▁верх	-2688
▁сть	-2689
▁теря	-2690
▁бой	-2691
▁рел	-2692
▁одна	-2693
▁оен	-2694
▁пов	-2695
▁осква	-2696
▁Един	-2697
▁осточ	-2698
▁принц	-2699
▁пытк	-2700
▁опасн	-2701
▁твуют	-2702
▁омп	-2703
▁етом	-2704
цу	-2705
▁яг	-2706
▁олжно	-2707
▁бран	-2708
▁ровер	-2709
at	-2710
▁Кр	-2711
▁вч	-2712
▁дт	-2713
▁бол	-2714
▁слу	-2715
ag	-2716
▁лот	-2717
▁обращ	-2718
▁ократ	-2719
▁гресс	-2720
▁ертв	-2721
▁онима	-2722
▁хотел	-2723
▁этап	-2724
поз	-2725
▁войн	-2726
▁артин	-2727
▁вокат	-2728
▁курор	-2729
om	-2730
▁еньше	-2731
▁ций	-2732
▁След	-2733
▁оконч	-2734
▁стров	-2735
иров	-2736
▁Красн	-2737
▁Серге	-2738
▁бел	-2739
▁ори	-2740
▁терак	-2741
ыр	-2742
▁цип	-2743
▁харак	-2744
▁ерво	-2745
▁w	-2746
▁риск	-2747
▁сем	-2748
▁ообще	-2749
▁Ген	-2750
▁лужбы	-2751
▁мерно	-2752
▁оне	-2753
▁льные	-2754
▁грок	-2755
▁Евген	-2756
▁одроб	-2757
▁две	-2758
▁нок	-2759
▁ока	-2760
▁орот	-2761
▁детск	-2762
▁омет	-2763
▁досто	-2764
▁огибл	-2765
▁ситет	-2766
▁поко	-2767
▁руз	-2768
▁номоч	-2769
▁писк	-2770
▁Мо	-2771
▁ебн	-2772
бн	-2773
▁оу	-2774
▁рх	-2775
▁атег	-2776
▁заим	-2777
▁хозяй	-2778
▁везд	-2779
▁монт	-2780
▁проб	-2781
лав	-2782
▁арта	-2783
▁сайт	-2784
▁тому	-2785
▁Главн	-2786
▁оенно	-2787
▁бужд	-2788
▁физ	-2789
▁мало	-2790
▁шлом	-2791
▁лиент	-2792
▁ака	-2793
▁анг	-2794
▁рет	-2795
▁печат	-2796
▁поезд	-2797
▁19	-2798
▁яти	-2799
▁пятн	-2800
▁йтинг	-2801
▁евер	-2802
▁изир	-2803
▁21	-2804
▁штат	-2805
▁окращ	-2806
▁часов	-2807
▁раг	-2808
▁обой	-2809
▁ранцу	-2810
▁самых	-2811
▁ion	-2812
▁тив	-2813
▁варит	-2814
▁ходил	-2815
▁Тем	-2816
▁неза	-2817
▁фици	-2818
▁рубеж	-2819
▁твии	-2820
▁en	-2821
▁рик	-2822
▁сей	-2823
▁учн	-2824
▁окупа	-2825
▁сф	-2826
▁лини	-2827
▁выясн	-2828
▁елико	-2829
▁ловин	-2830
▁ьер	-2831
▁Й	-2832
▁инте	-2833
▁оммер	-2834
▁ерд	-2835
▁урс	-2836
▁акци	-2837
ol	-2838
▁видет	-2839
▁одним	-2840
▁знак	-2841
▁24	-2842
▁оман	-2843
▁тарт	-2844
▁елать	-2845
▁рад	-2846
▁декс	-2847
▁путе	-2848
▁отмет	-2849
▁анд	-2850
▁точк	-2851
▁войны	-2852
▁ясь	-2853
▁ариа	-2854
▁га	-2855
▁лиг	-2856
▁омб	-2857
▁Re	-2858
▁бам	-2859
▁ерн	-2860
▁ею	-2861
▁нир	-2862
▁завод	-2863
▁свобо	-2864
in	-2865
▁ствие	-2866
▁мощн	-2867
▁проче	-2868
▁йст	-2869
▁курен	-2870
▁едл	-2871
▁трел	-2872
▁хе	-2873
▁верг	-2874
▁едве	-2875
▁пект	-2876
▁пок	-2877
▁УК	-2878
▁яр	-2879
▁100	-2880
▁наи	-2881
▁ужд	-2882
▁долго	-2883
▁кил	-2884
▁ерты	-2885
▁Пер	-2886
▁осток	-2887
▁Тр	-2888
▁обран	-2889
▁еля	-2890
▁естр	-2891
▁етер	-2892
▁мысл	-2893
▁ерал	-2894
▁хода	-2895
▁еа	-2896
▁водит	-2897
▁валют	-2898
▁лагод	-2899
▁ожал	-2900
▁боров	-2901
▁бот	-2902
▁твий	-2903
▁цель	-2904
▁цены	-2905
▁конфе	-2906
▁ходящ	-2907
▁бал	-2908
▁ката	-2909
▁мень	-2910
▁стана	-2911
▁вив	-2912
▁обыч	-2913
▁нно	-2914
▁сор	-2915
▁Анд	-2916
▁баз	-2917
▁ассов	-2918
▁точн	-2919
▁льг	-2920
▁ошло	-2921
▁оппоз	-2922
▁28	-2923
▁Па	-2924
▁иям	-2925
▁брос	-2926
▁пуска	-2927
▁ИГ	-2928
▁цер	-2929
▁Перв	-2930
▁адлеж	-2931
▁става	-2932
▁дов	-2933
▁остр	-2934
▁дебн	-2935
▁запад	-2936
▁помог	-2937
▁бив	-2938
▁яем	-2939
▁унд	-2940
▁ойск	-2941
СК	-2942
▁Джо	-2943
▁Лен	-2944
▁нкт	-2945
▁новен	-2946
▁дар	-2947
▁ева	-2948
▁нему	-2949
▁нь	-2950
▁нис	-2951
▁узе	-2952
▁инов	-2953
▁исты	-2954
▁екс	-2955
▁фун	-2956
▁трав	-2957
▁черн	-2958
▁вью	-2959
▁места	-2960
▁рев	-2961
▁иссии	-2962
▁ын	-2963
▁яс	-2964
▁доп	-2965
▁кер	-2966
▁оля	-2967
▁рис	-2968
▁чник	-2969
▁щего	-2970
▁графи	-2971
▁23	-2972
▁пас	-2973
▁ывать	-2974
▁глу	-2975
▁ути	-2976
▁овая	-2977
▁ервом	-2978
▁таким	-2979
▁боле	-2980
▁огн	-2981
▁кс	-2982
▁овить	-2983
▁спект	-2984
▁черед	-2985
▁щен	-2986
▁елов	-2987
▁нято	-2988
▁ыб	-2989
▁колле	-2990
▁виз	-2991
▁ица	-2992
▁иях	-2993
▁иков	-2994
▁ренц	-2995
▁рг	-2996
▁неу	-2997
▁Ста	-2998
▁ипл	-2999
▁таж	-3000
▁тонн	-3001
▁остов	-3002
▁Исто	-3003
▁еком	-3004
▁дает	-3005
▁омат	-3006
▁бесед	-3007
▁нс	-3008
▁Еще	-3009
▁носит	-3010
▁чист	-3011
▁хоч	-3012
▁ранен	-3013
▁p	-3014
▁меры	-3015
▁Петр	-3016
▁нта	-3017
▁союз	-3018
▁лучше	-3019
АО	-3020
▁льз	-3021
йс	-3022
▁лу	-3023
▁лач	-3024
▁лер	-3025
▁ниг	-3026
▁пора	-3027
ас	-3028
▁йм	-3029
▁сон	-3030
▁менты	-3031
▁юри	-3032
▁тенд	-3033
▁ывают	-3034
нешн	-3035
▁аха	-3036
▁родн	-3037
▁йте	-3038
▁дл	-3039
▁ули	-3040
▁расп	-3041
▁актер	-3042
▁ометр	-3043
▁ЦБ	-3044
▁фик	-3045
▁X	-3046
▁лаб	-3047
▁являю	-3048
il	-3049
▁бит	-3050
▁бок	-3051
▁дер	-3052
▁етк	-3053
▁зал	-3054
▁прие	-3055
▁роста	-3056
▁еи	-3057
▁лам	-3058
▁вто	-3059
▁атыв	-3060
▁авр	-3061
▁нф	-3062
▁дин	-3063
▁ети	-3064
▁атри	-3065
▁илу	-3066
▁оволь	-3067
▁трудн	-3068
▁рес	-3069
▁меньш	-3070
▁раздн	-3071
▁40	-3072
▁уне	-3073
▁новой	-3074
▁ональ	-3075
▁тип	-3076
▁жеств	-3077
▁гер	-3078
▁ейн	-3079
▁ечн	-3080
▁крес	-3081
▁вящ	-3082
▁елу	-3083
▁оче	-3084
▁фр	-3085
▁In	-3086
▁тут	-3087
▁дава	-3088
▁генер	-3089
▁Ал	-3090
▁кал	-3091
▁озна	-3092
▁четыр	-3093
ra	-3094
▁брита	-3095
▁живо	-3096
▁акции	-3097
▁йской	-3098
▁27	-3099
▁пал	-3100
▁рби	-3101
▁Ана	-3102
▁нул	-3103
▁алин	-3104
ари	-3105
▁чн	-3106
▁яющ	-3107
▁орож	-3108
▁льный	-3109
▁ерм	-3110
▁спис	-3111
▁теку	-3112
▁ине	-3113
▁кращ	-3114
▁паса	-3115
▁d	-3116
▁Але	-3117
▁Кир	-3118
▁Пар	-3119
▁бус	-3120
▁гри	-3121
▁фил	-3122
▁нуть	-3123
▁26	-3124
▁ктор	-3125
re	-3126
▁оба	-3127
▁O	-3128
▁шь	-3129
▁свет	-3130
▁оци	-3131
▁блюд	-3132
▁ремл	-3133
▁авари	-3134
▁еву	-3135
▁Пре	-3136
▁егу	-3137
▁кро	-3138
▁on	-3139
▁Ник	-3140
▁кого	-3141
▁29	-3142
▁брать	-3143
▁рь	-3144
▁писа	-3145
▁спе	-3146
▁овик	-3147
▁чив	-3148
▁лены	-3149
▁яжен	-3150
▁ден	-3151
▁дом	-3152
▁аден	-3153
▁ходят	-3154
▁вас	-3155
▁более	-3156
▁Эр	-3157
▁рии	-3158
▁какой	-3159
▁миним	-3160
▁ормир	-3161
▁ео	-3162
▁хан	-3163
▁атар	-3164
▁ента	-3165
▁Ст	-3166
▁ико	-3167
▁гост	-3168
▁вез	-3169
▁елк	-3170
▁зер	-3171
▁ниж	-3172
▁нужн	-3173
ССР	-3174
▁рон	-3175
▁Прав	-3176
▁зык	-3177
▁игу	-3178
▁инк	-3179
▁лаз	-3180
▁ино	-3181
▁гори	-3182
▁илов	-3183
▁еха	-3184
▁фра	-3185
▁ших	-3186
енк	-3187
▁олга	-3188
▁апад	-3189
▁олет	-3190
▁тива	-3191
▁вам	-3192
▁истов	-3193
▁ители	-3194
▁порта	-3195
▁опол	-3196
▁роис	-3197
▁логич	-3198
▁ако	-3199
▁енс	-3200
▁цит	-3201
▁илет	-3202
▁мину	-3203
▁стит	-3204
лат	-3205
▁ойд	-3206
▁орк	-3207
▁реф	-3208
▁канц	-3209
▁пт	-3210
▁The	-3211
▁ари	-3212
▁реди	-3213
▁реду	-3214
▁усск	-3215
▁тд	-3216
▁кате	-3217
▁проц	-3218
▁сим	-3219
▁ондо	-3220
▁ращ	-3221
▁рец	-3222
▁наши	-3223
▁терин	-3224
▁ея	-3225
▁оя	-3226
▁легк	-3227
▁ровал	-3228
▁йц	-3229
▁ассе	-3230
▁ельн	-3231
▁СССР	-3232
▁дпис	-3233
▁няли	-3234
▁отеч	-3235
▁оружи	-3236
▁часто	-3237
▁хр	-3238
▁еф	-3239
▁понят	-3240
▁пп	-3241
▁асно	-3242
▁орис	-3243
▁хран	-3244
us	-3245
▁осп	-3246
▁ьше	-3247
▁прек	-3248
▁овета	-3249
▁одном	-3250
▁тдель	-3251
▁жа	-3252
ro	-3253
▁илы	-3254
▁ховн	-3255
▁шк	-3256
▁эр	-3257
▁ажи	-3258
▁дил	-3259
▁лез	-3260
▁омер	-3261
▁прошл	-3262
▁непо	-3263
▁мерик	-3264
НР	-3265
▁тол	-3266
▁паден	-3267
БК	-3268
▁мя	-3269
▁аге	-3270
▁тавки	-3271
▁овил	-3272
▁внешн	-3273
▁ыта	-3274
▁проп	-3275
▁уем	-3276
▁глаш	-3277
▁рд	-3278
▁тю	-3279
▁фере	-3280
▁собра	-3281
мун	-3282
▁ВВ	-3283
▁аев	-3284
▁щей	-3285
▁начн	-3286
▁гн	-3287
▁телям	-3288
скв	-3289
▁ппо	-3290
▁­	-3291
▁ге	-3292
▁ивно	-3293
▁пони	-3294
▁Москв	-3295
▁ыплат	-3296
▁U	-3297
▁знача	-3298
▁социа	-3299
▁кцион	-3300
▁пришл	-3301
▁режде	-3302
▁инам	-3303
▁крет	-3304
▁мина	-3305
▁имени	-3306
▁красн	-3307
▁встр	-3308
▁изит	-3309
▁бк	-3310
▁еев	-3311
▁оно	-3312
▁екабр	-3313
▁юк	-3314
▁иде	-3315
▁льян	-3316
▁мск	-3317
▁вченк	-3318
▁зи	-3319
▁ловия	-3320
▁рител	-3321
▁ды	-3322
▁ага	-3323
▁клю	-3324
▁лав	-3325
▁одо	-3326
▁меж	-3327
▁ООО	-3328
▁ляе	-3329
▁режи	-3330
▁ысо	-3331
▁ещ	-3332
▁атели	-3333
▁км	-3334
▁отста	-3335
▁орон	-3336
▁анный	-3337
▁скому	-3338
Мы	-3339
гл	-3340
▁отив	-3341
▁маю	-3342
▁троль	-3343
▁круг	-3344
▁дписа	-3345
▁ing	-3346
▁наю	-3347
▁опро	-3348
▁срочн	-3349
▁елен	-3350
▁муни	-3351
▁ником	-3352
it	-3353
▁тие	-3354
▁ститу	-3355
▁егуля	-3356
▁ъем	-3357
▁итар	-3358
▁случ	-3359
▁ениях	-3360
▁бан	-3361
▁есс	-3362
▁ога	-3363
▁дых	-3364
▁лени	-3365
▁рейс	-3366
ace	-3367
▁назв	-3368
▁дтвер	-3369
▁оши	-3370
▁олд	-3371
▁зло	-3372
▁овле	-3373
▁+	-3374
▁зр	-3375
▁ув	-3376
▁диа	-3377
▁неиз	-3378
▁ущен	-3379
▁Со	-3380
▁лон	-3381
▁фес	-3382
▁аги	-3383
▁Бело	-3384
▁Im	-3385
▁див	-3386
▁реч	-3387
▁ражен	-3388
▁айк	-3389
▁вку	-3390
▁ками	-3391
▁акет	-3392
▁льск	-3393
▁толк	-3394
▁траж	-3395
▁платы	-3396
▁вст	-3397
▁гиб	-3398
▁роли	-3399
▁ажно	-3400
▁лада	-3401
▁пада	-3402
▁мирн	-3403
▁тора	-3404
▁рн	-3405
▁оды	-3406
▁юн	-3407
▁кст	-3408
▁ошли	-3409
▁оправ	-3410
▁ФС	-3411
▁двиг	-3412
▁ереж	-3413
▁o	-3414
▁ксп	-3415
▁амер	-3416
▁относ	-3417
▁итор	-3418
▁авлен	-3419
▁анали	-3420
▁разде	-3421
▁абл	-3422
▁нац	-3423
▁роль	-3424
▁Че	-3425
▁инци	-3426
▁лт	-3427
▁тож	-3428
▁оме	-3429
▁ечен	-3430
▁ват	-3431
▁здн	-3432
▁ьма	-3433
▁встре	-3434
age	-3435
▁РБК	-3436
▁аск	-3437
▁чат	-3438
▁сель	-3439
ЧС	-3440
вс	-3441
▁цк	-3442
▁вып	-3443
▁трир	-3444
▁енную	-3445
▁сия	-3446
▁ниже	-3447
ew	-3448
▁ради	-3449
▁возду	-3450
▁выш	-3451
▁орн	-3452
▁роп	-3453
▁енск	-3454
▁1,	-3455
▁прост	-3456
▁чувс	-3457
▁Image	-3458
▁Андре	-3459
▁дог	-3460
▁ысоко	-3461
▁омис	-3462
▁инд	-3463
▁дале	-3464
▁рок	-3465
▁яде	-3466
▁недо	-3467
▁спас	-3468
▁айд	-3469
▁щий	-3470
▁кция	-3471
▁онец	-3472
▁мб	-3473
▁брал	-3474
▁вода	-3475
▁оа	-3476
▁льная	-3477
▁Аб	-3478
▁шо	-3479
▁ульт	-3480
▁кри	-3481
▁той	-3482
▁имен	-3483
▁сш	-3484
▁одн	-3485
▁пог	-3486
▁лению	-3487
рет	-3488
▁оюза	-3489
▁актор	-3490
▁полне	-3491
ir	-3492
▁сами	-3493
▁канд	-3494
▁стой	-3495
▁гры	-3496
▁ельс	-3497
▁реда	-3498
▁спеш	-3499
as	-3500
▁соц	-3501
▁ура	-3502
▁дали	-3503
▁ъявил	-3504
▁шу	-3505
▁ключе	-3506
▁асил	-3507
▁дости	-3508
▁арх	-3509
▁верн	-3510
ков	-3511
▁ta	-3512
▁Рус	-3513
▁обре	-3514
▁ерк	-3515
▁буде	-3516
▁МЧС	-3517
▁Мос	-3518
▁леж	-3519
ТП	-3520
▁йл	-3521
▁ьного	-3522
ерь	-3523
▁хл	-3524
▁лад	-3525
▁енная	-3526
▁йская	-3527
▁ровел	-3528
▁Ру	-3529
▁дат	-3530
▁еперь	-3531
▁бере	-3532
▁сии	-3533
▁екрет	-3534
▁неп	-3535
▁рая	-3536
▁тных	-3537
▁листы	-3538
▁анти	-3539
ПР	-3540
▁Гр	-3541
▁нав	-3542
▁31	-3543
▁имн	-3544
▁роиз	-3545
▁обеди	-3546
▁дц	-3547
▁мена	-3548
▁овую	-3549
▁лко	-3550
▁жива	-3551
▁олос	-3552
▁K	-3553
▁дущ	-3554
▁дется	-3555
▁жер	-3556
▁рал	-3557
▁наб	-3558
▁ска	-3559
▁сот	-3560
▁ера	-3561
▁стей	-3562
▁рут	-3563
▁овор	-3564
▁рест	-3565
▁никам	-3566
▁итет	-3567
▁крас	-3568
▁Ну	-3569
▁льше	-3570
▁ндар	-3571
▁цент	-3572
АС	-3573
▁Ге	-3574
▁еврал	-3575
▁Пол	-3576
▁шеств	-3577
pp	-3578
▁щих	-3579
▁обиль	-3580
▁лл	-3581
▁рко	-3582
▁воч	-3583
▁смог	-3584
▁дну	-3585
▁ука	-3586
быт	-3587
▁олит	-3588
▁елик	-3589
▁пило	-3590
▁дут	-3591
▁рае	-3592
▁ума	-3593
▁зрени	-3594
▁спи	-3595
▁тали	-3596
▁енное	-3597
▁событ	-3598
▁ауд	-3599
▁внов	-3600
ите	-3601
▁анов	-3602
▁аю	-3603
▁хар	-3604
▁обнов	-3605
▁Ха	-3606
▁дея	-3607
▁чев	-3608
▁всю	-3609
▁лено	-3610
▁дии	-3611
▁ший	-3612
▁ектор	-3613
▁чай	-3614
▁мост	-3615
▁сол	-3616
▁слож	-3617
▁снова	-3618
▁Га	-3619
▁завис	-3620
el	-3621
▁озит	-3622
▁рина	-3623
▁Ла	-3624
▁оток	-3625
▁возгл	-3626
ook	-3627
▁ваний	-3628
▁200	-3629
▁нит	-3630
▁гроз	-3631
▁ника	-3632
▁ене	-3633
▁хол	-3634
▁яко	-3635
▁одар	-3636
▁al	-3637
▁менит	-3638
▁шин	-3639
▁ерег	-3640
▁Су	-3641
▁очи	-3642
▁ельск	-3643
▁Ре	-3644
▁абс	-3645
▁муж	-3646
▁двига	-3647
▁прекр	-3648
▁уга	-3649
▁овое	-3650
▁СКР	-3651
▁аде	-3652
▁прес	-3653
▁йским	-3654
▁дон	-3655
▁шев	-3656
▁ласть	-3657
▁начит	-3658
▁читат	-3659
▁ык	-3660
▁иби	-3661
▁эле	-3662
▁енда	-3663
▁кост	-3664
▁масс	-3665
▁ивающ	-3666
▁танци	-3667
▁поряд	-3668
▁стати	-3669
▁J	-3670
▁an	-3671
▁ерто	-3672
зр	-3673
▁60	-3674
▁ои	-3675
▁ати	-3676
ap	-3677
▁тт	-3678
▁овано	-3679
et	-3680
▁жды	-3681
▁пет	-3682
▁f	-3683
▁чан	-3684
▁ресс	-3685
▁енном	-3686
▁рошен	-3687
▁НИ	-3688
▁ДТП	-3689
▁рот	-3690
▁весь	-3691
▁енит	-3692
▁одозр	-3693
▁ерии	-3694
▁норм	-3695
уст	-3696
ri	-3697
▁сно	-3698
▁азета	-3699
▁оронн	-3700
▁Сири	-3701
▁еред	-3702
▁ризм	-3703
▁мп	-3704
▁ета	-3705
▁пись	-3706
▁трана	-3707
▁рб	-3708
▁изо	-3709
▁ранс	-3710
▁язан	-3711
▁ван	-3712
▁ходов	-3713
▁дают	-3714
▁ович	-3715
▁таки	-3716
▁com	-3717
▁амб	-3718
▁ерно	-3719
▁ируют	-3720
▁епл	-3721
▁Кита	-3722
▁ург	-3723
▁моск	-3724
▁ктив	-3725
▁ирм	-3726
▁замет	-3727
▁иж	-3728
▁раи	-3729
▁цеп	-3730
▁нерг	-3731
▁тмеч	-3732
▁еализ	-3733
▁син	-3734
▁може	-3735
чер	-3736
▁юю	-3737
▁били	-3738
▁есов	-3739
▁иновн	-3740
▁морск	-3741
▁потер	-3742
▁елю	-3743
▁сан	-3744
▁изма	-3745
▁орск	-3746
▁ченко	-3747
▁ыч	-3748
▁Фед	-3749
▁Ново	-3750
▁орта	-3751
▁оммун	-3752
▁стк	-3753
▁лица	-3754
▁восто	-3755
▁раниц	-3756
▁бав	-3757
▁олк	-3758
▁дина	-3759
▁жить	-3760
▁иро	-3761
▁Y	-3762
▁арь	-3763
▁Face	-3764
▁юб	-3765
▁рач	-3766
▁роф	-3767
▁таб	-3768
am	-3769
▁тви	-3770
▁пали	-3771
▁сцен	-3772
▁скоро	-3773
▁видн	-3774
▁ентов	-3775
▁гин	-3776
▁шего	-3777
▁зации	-3778
▁плани	-3779
▁тян	-3780
▁book	-3781
▁ница	-3782
▁бильн	-3783
▁борон	-3784
▁еда	-3785
▁утк	-3786
▁ально	-3787
ic	-3788
СКА	-3789
▁ФСБ	-3790
▁легко	-3791
ht	-3792
▁App	-3793
▁лека	-3794
▁ерс	-3795
▁осн	-3796
▁тят	-3797
▁ывал	-3798
▁щиков	-3799
▁изб	-3800
▁ЦСКА	-3801
▁одств	-3802
▁жало	-3803
▁тобы	-3804
▁Бар	-3805
▁вали	-3806
▁проса	-3807
▁перат	-3808
▁нек	-3809
▁очт	-3810
▁идер	-3811
▁рави	-3812
▁зиров	-3813
▁лем	-3814
▁мещ	-3815
▁овар	-3816
▁рств	-3817
▁олнен	-3818
▁стрир	-3819
▁Кол	-3820
▁икл	-3821
▁олл	-3822
▁боту	-3823
▁эф	-3824
▁олод	-3825
▁ошла	-3826
▁устил	-3827
la	-3828
▁адо	-3829
▁удь	-3830
▁торов	-3831
▁вак	-3832
▁игн	-3833
▁обс	-3834
▁нализ	-3835
▁скими	-3836
▁арл	-3837
▁лох	-3838
▁щем	-3839
▁ацие	-3840
▁дчер	-3841
▁оэ	-3842
▁давн	-3843
▁етел	-3844
▁лена	-3845
▁тром	-3846
▁ада	-3847
▁ича	-3848
▁йно	-3849
▁едал	-3850
▁йств	-3851
▁льзов	-3852
ЭС	-3853
▁Ег	-3854
▁зах	-3855
▁иан	-3856
▁нение	-3857
▁ошенн	-3858
▁ферен	-3859
хо	-3860
▁500	-3861
▁есь	-3862
▁олько	-3863
▁Гор	-3864
▁гат	-3865
▁лле	-3866
▁итик	-3867
▁преп	-3868
▁дчерк	-3869
▁выд	-3870
▁ьми	-3871
▁асти	-3872
▁кцию	-3873
▁прив	-3874
▁рель	-3875
▁New	-3876
▁поле	-3877
▁ожник	-3878
▁ипа	-3879
▁ерез	-3880
▁ши	-3881
▁тил	-3882
▁крит	-3883
▁форм	-3884
▁ицион	-3885
▁эм	-3886
▁адк	-3887
▁лее	-3888
▁оказа	-3889
бли	-3890
▁руд	-3891
▁ртал	-3892
▁овест	-3893
▁публи	-3894
▁едж	-3895
▁елл	-3896
▁мур	-3897
▁ньк	-3898
▁рующ	-3899
▁овом	-3900
▁стин	-3901
▁енным	-3902
бре	-3903
▁рв	-3904
▁ху	-3905
▁Вот	-3906
▁квал	-3907
▁одпис	-3908
▁тябре	-3909
▁тки	-3910
▁зан	-3911
▁лом	-3912
▁суде	-3913
▁льным	-3914
▁ссе	-3915
▁метро	-3916
im	-3917
▁щи	-3918
▁кий	-3919
▁ходы	-3920
▁комму	-3921
гр	-3922
▁ща	-3923
▁лей	-3924
▁ужден	-3925
▁жан	-3926
▁алк	-3927
▁Ле	-3928
▁ушк	-3929
▁арак	-3930
▁века	-3931
йд	-3932
▁зб	-3933
▁бро	-3934
▁рели	-3935
ch	-3936
▁овре	-3937
▁разу	-3938
▁льном	-3939
▁плате	-3940
▁аще	-3941
▁ину	-3942
▁рази	-3943
▁тавил	-3944
КС	-3945
▁ире	-3946
▁озв	-3947
▁гент	-3948
▁сери	-3949
▁Стр	-3950
▁ежд	-3951
▁ыти	-3952
▁еству	-3953
▁пита	-3954
ut	-3955
▁ыр	-3956
▁мн	-3957
▁бед	-3958
▁икр	-3959
▁парта	-3960
АЗ	-3961
▁ОП	-3962
▁Фр	-3963
▁евр	-3964
▁уре	-3965
▁каких	-3966
▁ствов	-3967
ed	-3968
▁июл	-3969
▁преж	-3970
▁астро	-3971
▁ограф	-3972
▁торго	-3973
op	-3974
▁Пл	-3975
ДД	-3976
▁35	-3977
▁йства	-3978
▁спрос	-3979
ss	-3980
▁новл	-3981
▁расте	-3982
▁онн	-3983
▁пел	-3984
▁уме	-3985
▁асть	-3986
▁ежи	-3987
▁ады	-3988
▁иже	-3989
▁екци	-3990
▁70	-3991
▁циа	-3992
▁авать	-3993
▁иги	-3994
▁ерри	-3995
▁Аз	-3996
▁еру	-3997
▁ослав	-3998
▁зе	-3999
▁зии	-4000
▁ьги	-4001
▁олиц	-4002
▁торию	-4003
▁Му	-4004
▁гал	-4005
▁роме	-4006
▁семи	-4007
▁льное	-4008
▁прежд	-4009
▁Их	-4010
▁ево	-4011
▁неш	-4012
▁асто	-4013
▁олон	-4014
▁проч	-4015
▁стен	-4016
▁жн	-4017
▁нат	-4018
▁uter	-4019
▁араб	-4020
▁нает	-4021
▁етств	-4022
▁нимал	-4023
▁ia	-4024
▁uters	-4025
▁экстр	-4026
▁ечь	-4027
▁атом	-4028
▁иции	-4029
▁итали	-4030
▁пев	-4031
▁щие	-4032
▁акан	-4033
▁ретен	-4034
▁300	-4035
▁запис	-4036
▁ыстав	-4037
▁авля	-4038
▁икой	-4039
▁важ	-4040
▁ерв	-4041
▁тором	-4042
ИК	-4043
▁ыл	-4044
▁ище	-4045
▁орг	-4046
▁отн	-4047
▁чест	-4048
▁ытия	-4049
▁ривод	-4050
▁чре	-4051
▁айне	-4052
▁защи	-4053
▁дни	-4054
ent	-4055
▁анам	-4056
▁ойти	-4057
▁таль	-4058
▁ойдет	-4059
▁омоч	-4060
▁ложно	-4061
▁еду	-4062
▁ыша	-4063
▁ерев	-4064
▁стер	-4065
▁азе	-4066
▁кова	-4067
▁семь	-4068
▁ерл	-4069
▁сьм	-4070
▁акл	-4071
▁вно	-4072
▁ких	-4073
▁стью	-4074
▁авших	-4075
▁йских	-4076
▁Мих	-4077
▁иат	-4078
▁ойк	-4079
▁етал	-4080
▁Apple	-4081
▁оком	-4082
▁тист	-4083
▁h	-4084
▁аши	-4085
▁селе	-4086
▁ериал	-4087
▁айм	-4088
▁могу	-4089
▁стор	-4090
▁ениям	-4091
▁МО	-4092
▁мф	-4093
▁олго	-4094
▁чета	-4095
▁лд	-4096
▁емн	-4097
▁отя	-4098
▁одол	-4099
▁опуст	-4100
▁сид	-4101
▁иска	-4102
▁вд	-4103
▁нка	-4104
▁ород	-4105
▁аспор	-4106
▁идел	-4107
▁сфер	-4108
▁циаль	-4109
▁Вол	-4110
▁нию	-4111
▁хим	-4112
▁имет	-4113
▁зг	-4114
▁анц	-4115
▁тск	-4116
▁рте	-4117
▁тру	-4118
▁чать	-4119
▁Air	-4120
▁номи	-4121
ыл	-4122
▁Ком	-4123
▁итр	-4124
▁умы	-4125
▁аков	-4126
▁вший	-4127
▁идно	-4128
▁истам	-4129
ad	-4130
▁Эти	-4131
▁век	-4132
▁нед	-4133
▁ата	-4134
▁оин	-4135
▁шка	-4136
▁Там	-4137
▁енер	-4138
▁слови	-4139
ТБ	-4140
▁80	-4141
▁ГУ	-4142
▁тал	-4143
▁ария	-4144
▁льную	-4145
▁яд	-4146
▁икт	-4147
▁дост	-4148
▁Ту	-4149
▁арат	-4150
▁двер	-4151
ДР	-4152
▁кие	-4153
▁Мне	-4154
▁льс	-4155
▁ерни	-4156
▁лес	-4157
▁тир	-4158
▁авал	-4159
▁борот	-4160
АН	-4161
▁ару	-4162
▁КН	-4163
▁емп	-4164
▁наци	-4165
▁оско	-4166
▁страх	-4167
▁анск	-4168
▁юм	-4169
▁оке	-4170
▁алог	-4171
▁исан	-4172
▁едине	-4173
▁стане	-4174
▁ъя	-4175
▁сче	-4176
▁внес	-4177
▁емен	-4178
▁маль	-4179
▁ихо	-4180
▁рош	-4181
wi	-4182
▁сб	-4183
▁ете	-4184
▁охо	-4185
▁дной	-4186
▁мени	-4187
▁поте	-4188
▁ульта	-4189
▁чень	-4190
▁вышен	-4191
ха	-4192
мери	-4193
▁ВВП	-4194
▁дно	-4195
▁Амери	-4196
▁арн	-4197
▁дес	-4198
▁уки	-4199
▁уру	-4200
▁влад	-4201
▁аша	-4202
▁мае	-4203
▁отк	-4204
▁окол	-4205
▁яются	-4206
▁Те	-4207
▁здо	-4208
▁одав	-4209
▁ентир	-4210
▁днем	-4211
▁роизо	-4212
азд	-4213
▁зы	-4214
▁ины	-4215
▁кус	-4216
▁знал	-4217
▁нием	-4218
▁рана	-4219
▁зглав	-4220
▁празд	-4221
▁роход	-4222
▁трети	-4223
▁лы	-4224
▁дос	-4225
▁ооб	-4226
▁рган	-4227
▁ресто	-4228
▁тию	-4229
▁суль	-4230
▁увств	-4231
▁Кл	-4232
▁Уже	-4233
▁ильно	-4234
▁вание	-4235
▁особо	-4236
▁атл	-4237
▁туа	-4238
▁лива	-4239
▁йство	-4240
▁апа	-4241
▁реми	-4242
эр	-4243
▁риг	-4244
▁валь	-4245
▁одел	-4246
ck	-4247
▁збе	-4248
▁ске	-4249
▁инима	-4250
▁манда	-4251
▁сю	-4252
мощ	-4253
▁льд	-4254
▁КНДР	-4255
▁абот	-4256
▁мини	-4257
▁апита	-4258
▁бю	-4259
▁мс	-4260
▁енты	-4261
▁помощ	-4262
▁ВТБ	-4263
▁ейс	-4264
▁ален	-4265
▁Эта	-4266
▁ора	-4267
▁десь	-4268
▁Вел	-4269
▁уры	-4270
▁тория	-4271
ve	-4272
▁Mo	-4273
▁еет	-4274
▁купк	-4275
▁жения	-4276
▁етн	-4277
▁акое	-4278
▁ким	-4279
▁афик	-4280
▁вход	-4281
▁держа	-4282
▁торог	-4283
▁щая	-4284
▁дра	-4285
▁Ду	-4286
▁нл	-4287
▁уле	-4288
▁арла	-4289
▁отор	-4290
▁ыска	-4291
▁ьных	-4292
ail	-4293
▁St	-4294
▁оворя	-4295
▁эп	-4296
▁етр	-4297
▁фиц	-4298
▁опров	-4299
▁торое	-4300
▁2,	-4301
▁аи	-4302
▁чт	-4303
▁вич	-4304
▁нача	-4305
▁емл	-4306
▁льт	-4307
▁щин	-4308
▁лично	-4309
▁ФР	-4310
▁аже	-4311
▁Миха	-4312
▁45	-4313
▁ГИ	-4314
▁зин	-4315
▁Ее	-4316
▁Кар	-4317
▁кнул	-4318
▁мель	-4319
▁атери	-4320
▁Ас	-4321
▁ашн	-4322
▁уля	-4323
▁авил	-4324
▁нтари	-4325
▁Twi	-4326
▁дро	-4327
▁пин	-4328
▁риоб	-4329
▁нец	-4330
▁tter	-4331
▁евск	-4332
▁есед	-4333
▁азы	-4334
▁дор	-4335
▁жно	-4336
▁Велик	-4337
▁Ск	-4338
▁уго	-4339
▁буду	-4340
▁вили	-4341
▁орите	-4342
AD	-4343
▁Sp	-4344
▁леп	-4345
▁оих	-4346
▁рно	-4347
▁тих	-4348
▁езно	-4349
▁осла	-4350
nd	-4351
▁ысл	-4352
▁рект	-4353
apt	-4354
▁озг	-4355
▁уша	-4356
▁лков	-4357
▁раща	-4358
▁банка	-4359
▁Ки	-4360
мети	-4361
▁Goo	-4362
▁пло	-4363
▁тмети	-4364
цк	-4365
▁ган	-4366
▁ига	-4367
▁лите	-4368
▁скоре	-4369
▁Fi	-4370
▁оди	-4371
▁жной	-4372
▁наче	-4373
▁роде	-4374
чк	-4375
▁кад	-4376
▁шно	-4377
▁авка	-4378
▁брат	-4379
▁вать	-4380
▁gle	-4381
▁рож	-4382
▁аэро	-4383
▁наль	-4384
▁ателя	-4385
▁000	-4386
▁атр	-4387
▁взя	-4388
▁кому	-4389
▁терн	-4390
▁аба	-4391
▁тей	-4392
▁еров	-4393
▁яться	-4394
▁рж	-4395
▁режн	-4396
▁Кал	-4397
▁имат	-4398
▁риго	-4399
▁диров	-4400
▁90	-4401
▁Ch	-4402
▁вые	-4403
▁очь	-4404
▁амен	-4405
▁итан	-4406
▁столь	-4407
бу	-4408
▁Gr	-4409
▁АО	-4410
▁лн	-4411
▁сяч	-4412
▁ЦИК	-4413
▁лия	-4414
▁укра	-4415
▁пройд	-4416
ay	-4417
ниц	-4418
▁ири	-4419
▁ски	-4420
▁сты	-4421
▁атор	-4422
▁прим	-4423
СА	-4424
▁II	-4425
▁ню	-4426
▁эл	-4427
▁зко	-4428
▁оки	-4429
▁оку	-4430
▁тура	-4431
▁фт	-4432
▁ебе	-4433
▁нова	-4434
▁плен	-4435
▁улир	-4436
▁рл	-4437
▁Та	-4438
▁бора	-4439
▁счет	-4440
▁Си	-4441
▁ода	-4442
▁адим	-4443
▁екла	-4444
▁нист	-4445
▁елове	-4446
▁нз	-4447
▁нц	-4448
▁чк	-4449
▁ижн	-4450
▁пир	-4451
▁кров	-4452
▁Бо	-4453
▁оциал	-4454
is	-4455
ПРФ	-4456
▁СП	-4457
▁мм	-4458
▁есно	-4459
▁овсе	-4460
▁орожн	-4461
▁рошло	-4462
▁ig	-4463
▁ыт	-4464
▁Цен	-4465
▁News	-4466
▁алья	-4467
▁асса	-4468
▁ань	-4469
▁Ол	-4470
▁омен	-4471
▁ic	-4472
▁дск	-4473
▁КПРФ	-4474
ADA	-4475
▁Мари	-4476
▁нацио	-4477
▁утр	-4478
▁овен	-4479
▁прев	-4480
▁раш	-4481
▁сег	-4482
▁уте	-4483
▁capt	-4484
▁овки	-4485
▁ro	-4486
▁рм	-4487
▁ато	-4488
▁икс	-4489
▁янс	-4490
▁глас	-4491
▁овед	-4492
▁огод	-4493
▁озиц	-4494
БУ	-4495
ГУ	-4496
▁€	-4497
▁ОАО	-4498
▁оты	-4499
ЕК	-4500
▁et	-4501
▁Ос	-4502
▁оми	-4503
▁реко	-4504
▁довол	-4505
▁завер	-4506
▁·	-4507
▁ря	-4508
▁ьмо	-4509
▁отни	-4510
▁рочн	-4511
▁спек	-4512
▁овало	-4513
▁читаю	-4514
ПК	-4515
▁ира	-4516
▁рупп	-4517
▁ушен	-4518
▁коло	-4519
▁олов	-4520
▁пик	-4521
▁хва	-4522
▁етро	-4523
БДД	-4524
▁150	-4525
▁танц	-4526
▁вка	-4527
▁либ	-4528
▁нтар	-4529
▁онии	-4530
▁оже	-4531
▁онт	-4532
▁отел	-4533
▁поста	-4534
▁or	-4535
▁1,5	-4536
▁азу	-4537
▁ГИБДД	-4538
▁имя	-4539
▁обще	-4540
ФА	-4541
▁ВС	-4542
▁заг	-4543
▁кап	-4544
▁WADA	-4545
▁суди	-4546
▁толи	-4547
▁cop	-4548
▁дко	-4549
▁елем	-4550
▁оотв	-4551
▁рофес	-4552
▁'	-4553
лин	-4554
▁енз	-4555
▁изу	-4556
▁оем	-4557
▁цир	-4558
▁лома	-4559
▁сень	-4560
▁альне	-4561
▁кру	-4562
▁рым	-4563
▁ливо	-4564
▁угол	-4565
oup	-4566
▁ац	-4567
▁виж	-4568
▁ерп	-4569
▁лиж	-4570
▁овь	-4571
▁цам	-4572
▁естн	-4573
▁ируе	-4574
▁меет	-4575
▁ержив	-4576
шк	-4577
▁уэ	-4578
▁Суд	-4579
▁деж	-4580
▁бить	-4581
▁екл	-4582
▁торы	-4583
▁лев	-4584
▁вати	-4585
▁исто	-4586
▁трое	-4587
▁служи	-4588
yr	-4589
▁есо	-4590
▁очет	-4591
▁рода	-4592
▁лизир	-4593
▁ровск	-4594
▁нак	-4595
id	-4596
ье	-4597
▁ДНР	-4598
▁льц	-4599
▁пеш	-4600
▁трон	-4601
▁нешне	-4602
▁онных	-4603
ul	-4604
▁напр	-4605
▁оров	-4606
▁сточ	-4607
▁омпан	-4608
▁Li	-4609
▁уи	-4610
▁one	-4611
▁воен	-4612
▁рови	-4613
▁делен	-4614
▁400	-4615
▁еди	-4616
▁нна	-4617
▁рва	-4618
▁хор	-4619
▁щим	-4620
▁ятс	-4621
▁ипе	-4622
▁пус	-4623
▁ight	-4624
▁аниям	-4625
▁вырос	-4626
▁Le	-4627
▁вся	-4628
▁иву	-4629
▁оры	-4630
▁учил	-4631
▁тиков	-4632
ТС	-4633
▁гог	-4634
▁арод	-4635
▁правд	-4636
▁вт	-4637
▁дох	-4638
▁верд	-4639
▁эй	-4640
▁рже	-4641
▁сев	-4642
▁тям	-4643
▁арии	-4644
▁одит	-4645
РК	-4646
▁32	-4647
▁дк	-4648
▁ишь	-4649
▁стори	-4650
▁вших	-4651
▁иями	-4652
▁орош	-4653
▁стил	-4654
▁кальн	-4655
▁напад	-4656
▁жет	-4657
▁ома	-4658
▁рол	-4659
▁акой	-4660
ид	-4661
▁k	-4662
▁Хо	-4663
▁арен	-4664
▁еста	-4665
▁стоя	-4666
▁copyr	-4667
▁редне	-4668
▁нн	-4669
▁ега	-4670
▁дель	-4671
▁упал	-4672
▁аду	-4673
▁кви	-4674
▁мос	-4675
▁пан	-4676
▁ОПЕК	-4677
▁аров	-4678
▁есси	-4679
▁форма	-4680
▁СН	-4681
▁юди	-4682
▁вить	-4683
▁ицей	-4684
▁лово	-4685
▁отов	-4686
▁тики	-4687
▁урман	-4688
▁ави	-4689
▁емье	-4690
ks	-4691
os	-4692
▁ar	-4693
▁рой	-4694
▁добн	-4695
▁ивер	-4696
▁iP	-4697
▁of	-4698
▁Вп	-4699
▁дели	-4700
▁есте	-4701
▁ийск	-4702
▁лава	-4703
▁оспо	-4704
▁тече	-4705
▁Щ	-4706
▁Ис	-4707
▁обр	-4708
▁рид	-4709
▁ацию	-4710
▁коро	-4711
▁онно	-4712
▁сили	-4713
▁перес	-4714
ук	-4715
▁ожен	-4716
▁ствии	-4717
гов	-4718
▁le	-4719
▁Tim	-4720
▁убер	-4721
.,	-4722
▁3,	-4723
▁Te	-4724
▁st	-4725
▁жей	-4726
▁мик	-4727
▁упр	-4728
▁ыгр	-4729
▁итае	-4730
▁перев	-4731
▁ТВ	-4732
▁For	-4733
▁вых	-4734
▁мии	-4735
▁анта	-4736
▁олис	-4737
vi	-4738
▁аты	-4739
▁нин	-4740
▁сал	-4741
▁ожно	-4742
▁ежден	-4743
▁назна	-4744
▁тиров	-4745
▁каб	-4746
▁офе	-4747
▁вшей	-4748
▁пала	-4749
▁ww	-4750
▁тет	-4751
ФО	-4752
▁www	-4753
▁аки	-4754
▁рмо	-4755
▁ятн	-4756
▁арск	-4757
▁ибли	-4758
▁чива	-4759
ИЛ	-4760
▁Su	-4761
▁Ке	-4762
▁ВВС	-4763
▁ити	-4764
▁сыл	-4765
▁удо	-4766
▁анка	-4767
▁госп	-4768
▁устр	-4769
▁Group	-4770
▁[	-4771
▁гио	-4772
▁рку	-4773
▁нстр	-4774
▁проф	-4775
▁уста	-4776
▁получ	-4777
▁Би	-4778
▁ыж	-4779
▁зит	-4780
▁пат	-4781
▁допус	-4782
▁un	-4783
▁пох	-4784
▁сив	-4785
▁нные	-4786
▁орог	-4787
▁36	-4788
▁ЖК	-4789
▁нар	-4790
▁рант	-4791
▁ссыл	-4792
▁комис	-4793
▁НП	-4794
▁бщ	-4795
▁еса	-4796
▁иви	-4797
▁оту	-4798
▁нге	-4799
▁оре	-4800
▁пци	-4801
▁соп	-4802
▁тат	-4803
▁циал	-4804
▁НК	-4805
▁оц	-4806
▁рю	-4807
▁екц	-4808
▁эро	-4809
ово	-4810
▁Зе	-4811
▁gra	-4812
▁душ	-4813
▁ола	-4814
▁ухо	-4815
▁елич	-4816
▁узов	-4817
▁]	-4818
▁Br	-4819
▁ub	-4820
▁жит	-4821
▁мес	-4822
▁сос	-4823
▁алит	-4824
▁ктур	-4825
▁нами	-4826
▁°	-4827
▁уй	-4828
▁инн	-4829
▁опи	-4830
▁етров	-4831
ОС	-4832
▁аза	-4833
▁иво	-4834
▁през	-4835
▁совер	-4836
ХЛ	-4837
ум	-4838
ort	-4839
▁кг	-4840
▁фл	-4841
▁анн	-4842
▁рац	-4843
▁длеж	-4844
▁евой	-4845
▁торая	-4846
ess	-4847
▁вир	-4848
▁атов	-4849
▁водо	-4850
▁очка	-4851
▁ложен	-4852
▁покуп	-4853
эт	-4854
▁Bl	-4855
▁жем	-4856
▁верж	-4857
ке	-4858
▁зл	-4859
▁МОК	-4860
▁кул	-4861
▁вшие	-4862
▁ирск	-4863
▁учит	-4864
▁возбу	-4865
▁нения	-4866
▁прово	-4867
▁ставл	-4868
▁Лу	-4869
▁вну	-4870
▁изы	-4871
▁окк	-4872
▁ИГИЛ	-4873
▁ерна	-4874
▁еход	-4875
▁онда	-4876
БР	-4877
▁33	-4878
▁Bo	-4879
▁лис	-4880
▁лиции	-4881
▁оборо	-4882
▁аро	-4883
ik	-4884
▁РАН	-4885
▁ажу	-4886
▁вил	-4887
▁ясн	-4888
▁иден	-4889
▁иста	-4890
▁na	-4891
▁азо	-4892
▁мей	-4893
▁лана	-4894
▁седн	-4895
▁сток	-4896
▁тала	-4897
ЖД	-4898
▁Им	-4899
▁лк	-4900
▁ота	-4901
▁тле	-4902
▁юда	-4903
▁ярн	-4904
▁ходя	-4905
▁ислен	-4906
▁тивно	-4907
▁акр	-4908
▁инт	-4909
▁итов	-4910
▁тоян	-4911
▁перво	-4912
▁ражда	-4913
▁Ли	-4914
▁титу	-4915
▁контр	-4916
ia	-4917
РО	-4918
▁отс	-4919
▁биле	-4920
▁едом	-4921
▁потр	-4922
▁Эк	-4923
▁iPh	-4924
▁ВАЗ	-4925
▁олу	-4926
▁урм	-4927
▁арто	-4928
▁ером	-4929
▁ожет	-4930
▁ерман	-4931
▁ктора	-4932
▁ьк	-4933
▁Сан	-4934
▁еми	-4935
▁иду	-4936
▁ури	-4937
▁ащен	-4938
▁ероя	-4939
▁сроч	-4940
▁ьи	-4941
▁кив	-4942
▁етей	-4943
▁кать	-4944
▁нать	-4945
▁ничн	-4946
▁прият	-4947
ur	-4948
▁Ак	-4949
▁лли	-4950
▁оей	-4951
▁атил	-4952
▁дним	-4953
▁ницы	-4954
▁одня	-4955
▁ртов	-4956
▁ьниц	-4957
МС	-4958
▁МК	-4959
▁Фи	-4960
▁вая	-4961
▁мых	-4962
▁сию	-4963
▁шан	-4964
▁вает	-4965
▁думы	-4966
▁екре	-4967
▁итер	-4968
▁орва	-4969
▁ce	-4970
▁ою	-4971
▁изе	-4972
▁нци	-4973
▁оза	-4974
▁чно	-4975
▁ерва	-4976
▁ерск	-4977
▁&	-4978
▁75	-4979
▁Al	-4980
▁гани	-4981
▁стои	-4982
ank	-4983
▁ent	-4984
▁аив	-4985
▁вои	-4986
▁лак	-4987
▁лья	-4988
▁нечн	-4989
▁пута	-4990
▁тина	-4991
▁Бл	-4992
▁нау	-4993
▁Times	-4994
▁избир	-4995
▁ленно	-4996
▁To	-4997
▁ляр	-4998
▁шим	-4999
▁иниц	-5000
дна	-5001
▁to	-5002
▁Юр	-5003
▁рч	-5004
▁або	-5005
▁дам	-5006
▁еоб	-5007
▁убл	-5008
▁дающ	-5009
▁стик	-5010
▁тинг	-5011
▁овала	-5012
▁оо	-5013
▁едк	-5014
▁егат	-5015
▁ованы	-5016
▁дне	-5017
▁пец	-5018
▁Одна	-5019
▁кана	-5020
▁рано	-5021
▁обход	-5022
▁ЛД	-5023
▁You	-5024
▁мущ	-5025
▁тери	-5026
▁тные	-5027
На	-5028
▁АС	-5029
▁нты	-5030
▁дить	-5031
▁исте	-5032
▁ребов	-5033
ын	-5034
▁авт	-5035
▁еры	-5036
▁учш	-5037
▁росс	-5038
ct	-5039
▁it	-5040
▁Кэ	-5041
▁ачал	-5042
▁редпо	-5043
▁едн	-5044
▁иве	-5045
▁етье	-5046
▁жида	-5047
▁опор	-5048
▁орни	-5049
За	-5050
▁Z	-5051
▁z	-5052
▁55	-5053
▁ыс	-5054
▁ФАС	-5055
▁чес	-5056
▁грам	-5057
▁оллек	-5058
▁позво	-5059
АД	-5060
▁el	-5061
шего	-5062
▁Mar	-5063
▁ЛДПР	-5064
▁вшего	-5065
▁Одн	-5066
▁арс	-5067
▁бом	-5068
▁акон	-5069
▁вока	-5070
▁науч	-5071
▁обес	-5072
▁посту	-5073
▁34	-5074
▁Ro	-5075
▁гул	-5076
▁тии	-5077
▁шив	-5078
▁вета	-5079
▁года	-5080
▁мать	-5081
▁осет	-5082
▁пожа	-5083
▁жение	-5084
▁De	-5085
▁Нам	-5086
▁ивы	-5087
▁куд	-5088
▁рио	-5089
▁олен	-5090
▁разг	-5091
▁реть	-5092
▁ющих	-5093
da	-5094
ft	-5095
▁сн	-5096
▁ber	-5097
▁ашен	-5098
▁иция	-5099
▁нный	-5100
▁рова	-5101
▁олном	-5102
▁етил	-5103
▁нков	-5104
▁ожил	-5105
▁ВК	-5106
▁мах	-5107
▁роб	-5108
▁вроп	-5109
▁раво	-5110
▁тани	-5111
%.	-5112
ными	-5113
▁Mer	-5114
▁вон	-5115
▁выб	-5116
▁отом	-5117
▁нимаю	-5118
▁ФИ	-5119
▁ема	-5120
▁реле	-5121
▁онечн	-5122
BC	-5123
▁ОБ	-5124
▁ЖКХ	-5125
▁емо	-5126
▁шаг	-5127
▁прид	-5128
▁алого	-5129
▁ьм	-5130
▁РЖД	-5131
▁атч	-5132
▁лоб	-5133
▁нан	-5134
▁спл	-5135
▁поне	-5136
▁Brent	-5137
▁иФ	-5138
▁Ins	-5139
▁Два	-5140
▁СНГ	-5141
▁вери	-5142
▁ольши	-5143
ПП	-5144
▁вме	-5145
▁еят	-5146
▁сом	-5147
▁ian	-5148
▁ляю	-5149
▁щее	-5150
▁визи	-5151
▁анима	-5152
▁госпо	-5153
▁КНР	-5154
▁бог	-5155
▁рье	-5156
▁фир	-5157
▁емле	-5158
▁ловно	-5159
▁тф	-5160
▁астр	-5161
▁озда	-5162
▁тема	-5163
AS	-5164
our	-5165
▁ешк	-5166
▁овн	-5167
▁вого	-5168
▁оход	-5169
▁рали	-5170
▁нский	-5171
▁Ди	-5172
▁Кто	-5173
▁еки	-5174
▁жир	-5175
▁рри	-5176
▁сси	-5177
▁едет	-5178
▁елев	-5179
▁ллек	-5180
▁бс	-5181
▁рп	-5182
▁юл	-5183
▁дик	-5184
▁лок	-5185
▁алов	-5186
▁вора	-5187
▁иент	-5188
▁ропа	-5189
ге	-5190
oom	-5191
▁37	-5192
▁щую	-5193
▁ирек	-5194
▁оном	-5195
▁тным	-5196
▁авший	-5197
▁ающих	-5198
▁етвер	-5199
▁урецк	-5200
ция	-5201
▁Сл	-5202
▁дия	-5203
▁еня	-5204
▁ибо	-5205
▁лил	-5206
▁восс	-5207
▁кций	-5208
▁наде	-5209
▁атить	-5210
▁вмест	-5211
▁тайск	-5212
SJ	-5213
СЕ	-5214
▁ВКС	-5215
▁Гл	-5216
▁ЧП	-5217
▁600	-5218
▁сск	-5219
▁енси	-5220
▁чных	-5221
▁йк	-5222
▁нсо	-5223
▁онс	-5224
▁узы	-5225
▁ерси	-5226
▁илли	-5227
▁кома	-5228
▁очер	-5229
▁нител	-5230
▁трукт	-5231
ья	-5232
▁42	-5233
▁РС	-5234
▁Ри	-5235
▁носи	-5236
▁ныне	-5237
▁фина	-5238
▁звест	-5239
▁реали	-5240
▁нк	-5241
▁кир	-5242
▁нер	-5243
▁обл	-5244
▁олг	-5245
▁тыр	-5246
▁щат	-5247
▁чные	-5248
de	-5249
▁38	-5250
▁май	-5251
▁нео	-5252
▁возв	-5253
▁купа	-5254
▁ужно	-5255
жи	-5256
▁$1	-5257
▁ары	-5258
▁лор	-5259
▁яли	-5260
▁жили	-5261
▁лете	-5262
▁снос	-5263
▁увер	-5264
▁НД	-5265
▁Ше	-5266
▁дъ	-5267
▁gram	-5268
▁трени	-5269
▁честв	-5270
all	-5271
▁Мэ	-5272
▁che	-5273
▁the	-5274
▁нсп	-5275
▁сум	-5276
▁рыно	-5277
▁тоят	-5278
▁ародн	-5279
▁Vol	-5280
▁ише	-5281
▁сын	-5282
▁шей	-5283
▁дроб	-5284
▁орен	-5285
▁рата	-5286
▁уются	-5287
▁ву	-5288
▁лм	-5289
▁МВФ	-5290
▁иван	-5291
▁одро	-5292
▁тоял	-5293
▁ативн	-5294
ЗО	-5295
ЭБ	-5296
▁рш	-5297
▁250	-5298
▁des	-5299
▁еся	-5300
▁има	-5301
▁кет	-5302
▁осмо	-5303
▁ужен	-5304
▁ube	-5305
▁иму	-5306
▁нил	-5307
▁ОБСЕ	-5308
▁онта	-5309
▁ремя	-5310
▁руга	-5311
te	-5312
ard	-5313
▁ебя	-5314
▁мое	-5315
▁уба	-5316
▁ула	-5317
▁ыли	-5318
▁меча	-5319
▁собен	-5320
II	-5321
um	-5322
АР	-5323
▁Эт	-5324
▁цу	-5325
▁агр	-5326
▁v	-5327
▁ФРГ	-5328
▁азн	-5329
▁опе	-5330
▁аран	-5331
▁евых	-5332
▁иком	-5333
▁инга	-5334
▁итвы	-5335
▁ратно	-5336
▁ково	-5337
▁ранн	-5338
▁редо	-5339
▁ромн	-5340
▁стных	-5341
▁СИ	-5342
▁жк	-5343
▁азв	-5344
▁тка	-5345
▁вино	-5346
▁езул	-5347
▁поль	-5348
▁твет	-5349
▁руппа	-5350
▁65	-5351
▁осе	-5352
▁спон	-5353
▁Q	-5354
▁иси	-5355
▁ыло	-5356
▁berg	-5357
▁епро	-5358
▁ерем	-5359
▁убеж	-5360
▁Merce	-5361
▁тного	-5362
▁чески	-5363
По	-5364
▁МС	-5365
▁лла	-5366
▁ветс	-5367
▁иной	-5368
▁кте	-5369
▁одк	-5370
▁рив	-5371
▁уши	-5372
▁очки	-5373
▁поэт	-5374
▁еятел	-5375
▁онной	-5376
fe	-5377
▁",	-5378
▁WSJ	-5379
▁бек	-5380
▁оим	-5381
▁тств	-5382
НК	-5383
▁хм	-5384
▁800	-5385
▁айт	-5386
▁гим	-5387
▁вити	-5388
▁заня	-5389
▁рукт	-5390
▁айдан	-5391
az	-5392
▁2,5	-5393
▁ung	-5394
▁Над	-5395
▁ету	-5396
▁ерба	-5397
▁разд	-5398
▁еальн	-5399
▁(2	-5400
▁4,	-5401
▁ильн	-5402
▁подс	-5403
▁сени	-5404
▁слуг	-5405
ie	-5406
▁BM	-5407
▁Boe	-5408
▁вов	-5409
▁лод	-5410
▁мся	-5411
▁рию	-5412
▁авар	-5413
▁илан	-5414
▁пера	-5415
▁тное	-5416
▁нской	-5417
ud	-5418
and	-5419
▁мк	-5420
▁50%	-5421
▁аси	-5422
▁виа	-5423
▁вск	-5424
▁еря	-5425
▁обу	-5426
▁прода	-5427
ite	-5428
▁Ор	-5429
▁ьт	-5430
▁еют	-5431
▁ычн	-5432
▁вест	-5433
▁120	-5434
▁ЛНР	-5435
▁шоу	-5436
▁ажет	-5437
▁анди	-5438
▁вига	-5439
▁исхо	-5440
▁наше	-5441
▁рита	-5442
▁Bloom	-5443
▁дерац	-5444
▁Каз	-5445
▁бле	-5446
▁меди	-5447
▁нное	-5448
▁уков	-5449
ash	-5450
▁вою	-5451
▁най	-5452
▁екта	-5453
▁етен	-5454
▁тной	-5455
▁онные	-5456
ние	-5457
▁XX	-5458
▁ВИ	-5459
▁Мак	-5460
▁апи	-5461
▁сий	-5462
▁едва	-5463
▁ммун	-5464
▁Ве	-5465
▁Sta	-5466
▁мэр	-5467
▁СИЗО	-5468
▁екса	-5469
▁мерт	-5470
▁ровн	-5471
▁ападе	-5472
▁ередн	-5473
▁роком	-5474
▁wag	-5475
▁Сер	-5476
▁иго	-5477
▁сна	-5478
▁уше	-5479
▁чук	-5480
▁дачи	-5481
▁есту	-5482
▁нцев	-5483
▁оенн	-5484
▁дробн	-5485
ge	-5486
yp	-5487
▁5,	-5488
▁бъ	-5489
▁Евр	-5490
▁еал	-5491
▁мыш	-5492
▁офи	-5493
▁рше	-5494
▁исти	-5495
▁чему	-5496
▁остей	-5497
▁46	-5498
▁ra	-5499
▁BMW	-5500
▁ажн	-5501
▁ащит	-5502
▁моде	-5503
▁нная	-5504
▁ссии	-5505
▁ющие	-5506
▁ающий	-5507
▁48	-5508
▁Ра	-5509
▁бат	-5510
▁нса	-5511
▁ошл	-5512
▁тья	-5513
▁ФИФА	-5514
▁екущ	-5515
▁оват	-5516
▁прое	-5517
▁азвит	-5518
▁зован	-5519
▁мисси	-5520
co	-5521
▁44	-5522
▁Am	-5523
▁ГК	-5524
▁Уч	-5525
▁аше	-5526
▁опо	-5527
▁уск	-5528
▁YouT	-5529
▁ечат	-5530
▁попа	-5531
▁чной	-5532
▁Inter	-5533
▁ратор	-5534
АК	-5535
▁‐	-5536
ber	-5537
▁ФН	-5538
▁юз	-5539
▁есл	-5540
▁кот	-5541
▁мпе	-5542
▁заме	-5543
▁ницу	-5544
ба	-5545
▁47	-5546
▁zr	-5547
▁СУ	-5548
▁оса	-5549
▁чей	-5550
▁айск	-5551
▁зыва	-5552
▁ющей	-5553
хи	-5554
▁Sk	-5555
▁лта	-5556
▁тий	-5557
▁идео	-5558
▁куль	-5559
▁осту	-5560
oc	-5561
▁дз	-5562
▁ФБР	-5563
▁бое	-5564
▁мяч	-5565
▁хир	-5566
▁епри	-5567
▁соци	-5568
▁ернет	-5569
▁техно	-5570
▁ьными	-5571
ши	-5572
эн	-5573
▁Sam	-5574
▁осс	-5575
▁оща	-5576
▁риш	-5577
▁ься	-5578
▁ично	-5579
▁руют	-5580
▁тный	-5581
▁ыбор	-5582
▁полно	-5583
ПС	-5584
▁исе	-5585
▁лаш	-5586
▁рда	-5587
▁рма	-5588
▁сте	-5589
▁шие	-5590
▁яла	-5591
▁атал	-5592
▁аций	-5593
▁борн	-5594
▁елос	-5595
▁етов	-5596
▁умен	-5597
▁авлял	-5598
▁no	-5599
▁Сто	-5600
▁Tele	-5601
▁атер	-5602
▁еатр	-5603
▁емпи	-5604
▁лиза	-5605
▁року	-5606
▁идент	-5607
▁ствий	-5608
▁―	-5609
▁(1	-5610
▁43	-5611
▁ЕГ	-5612
▁дп	-5613
▁иен	-5614
▁няя	-5615
▁рих	-5616
▁сят	-5617
▁тве	-5618
▁ерст	-5619
▁зато	-5620
▁роду	-5621
▁естно	-5622
йн	-5623
▁20%	-5624
▁амо	-5625
▁едо	-5626
▁моя	-5627
▁ация	-5628
▁еран	-5629
ГО	-5630
old	-5631
▁Sa	-5632
▁ne	-5633
▁Ло	-5634
▁АЭС	-5635
▁ужа	-5636
▁дения	-5637
▁sh	-5638
▁ФА	-5639
▁тч	-5640
▁Или	-5641
▁Оно	-5642
▁иди	-5643
▁сли	-5644
▁едан	-5645
▁мате	-5646
▁непр	-5647
▁тору	-5648
▁иверс	-5649
▁FT	-5650
▁Дн	-5651
▁РП	-5652
▁ыг	-5653
▁кая	-5654
▁ойн	-5655
▁ртв	-5656
▁тых	-5657
▁шит	-5658
▁едиц	-5659
▁речи	-5660
ub	-5661
гер	-5662
▁Ex	-5663
▁дю	-5664
aily	-5665
▁ЗАО	-5666
▁ОСА	-5667
▁гур	-5668
▁кое	-5669
▁огд	-5670
▁оны	-5671
▁мани	-5672
▁омин	-5673
▁онен	-5674
▁воров	-5675
▁УФ	-5676
▁ае	-5677
▁10%	-5678
▁man	-5679
▁СБУ	-5680
▁стиж	-5681
▁Daily	-5682
▁ворит	-5683
▁85	-5684
▁re	-5685
▁щн	-5686
▁нгр	-5687
▁Mail	-5688
▁влен	-5689
▁енте	-5690
▁илос	-5691
▁нтер	-5692
▁овав	-5693
▁отер	-5694
▁ающие	-5695
ИН	-5696
ЭК	-5697
▁6,	-5698
▁АР	-5699
▁пс	-5700
▁Com	-5701
▁tal	-5702
▁Чем	-5703
▁зво	-5704
▁лир	-5705
▁спа	-5706
▁верт	-5707
▁икул	-5708
▁раке	-5709
▁Ил	-5710
▁уц	-5711
▁аку	-5712
▁вад	-5713
▁еве	-5714
▁тас	-5715
▁вающ	-5716
▁разб	-5717
▁деньг	-5718
▁нимат	-5719
FA	-5720
▁7,	-5721
▁зк	-5722
▁Без	-5723
▁Мед	-5724
▁мот	-5725
▁нной	-5726
▁оним	-5727
▁уточ	-5728
▁циям	-5729
▁торую	-5730
ine	-5731
▁ОН	-5732
▁and	-5733
▁tor	-5734
▁ето	-5735
▁Life	-5736
▁ешен	-5737
▁лето	-5738
▁ирово	-5739
▁реста	-5740
ult	-5741
или	-5742
▁39	-5743
▁Зап	-5744
▁жск	-5745
▁кас	-5746
▁огу	-5747
▁ылк	-5748
▁Рост	-5749
▁боль	-5750
▁оков	-5751
▁ыстр	-5752
▁Insta	-5753
%,	-5754
▁2-	-5755
▁АИ	-5756
▁зу	-5757
▁аса	-5758
▁мыв	-5759
▁рич	-5760
▁ажен	-5761
▁арко	-5762
▁рите	-5763
▁льтур	-5764
lo	-5765
▁41	-5766
▁49	-5767
▁Ва	-5768
▁700	-5769
▁ПАО	-5770
▁ваш	-5771
▁тна	-5772
▁шем	-5773
▁Sams	-5774
▁азан	-5775
▁икан	-5776
▁ющий	-5777
МК	-5778
зв	-5779
ТРК	-5780
▁КТ	-5781
▁ъе	-5782
▁дей	-5783
▁ейк	-5784
▁енк	-5785
▁обя	-5786
▁оят	-5787
▁спы	-5788
▁уди	-5789
▁чал	-5790
▁вето	-5791
▁вызв	-5792
▁икам	-5793
▁мира	-5794
▁нным	-5795
▁овке	-5796
Не	-5797
ца	-5798
ша	-5799
▁Po	-5800
▁айо	-5801
▁гда	-5802
▁едс	-5803
▁ляц	-5804
▁отп	-5805
▁ппа	-5806
▁рых	-5807
▁сков	-5808
▁ращен	-5809
нин	-5810
▁Го	-5811
▁Ему	-5812
▁язы	-5813
▁агер	-5814
▁внос	-5815
▁онск	-5816
▁рман	-5817
▁роне	-5818
▁туре	-5819
ni	-5820
РУ	-5821
▁57	-5822
▁FI	-5823
▁On	-5824
▁nal	-5825
▁nat	-5826
▁Мир	-5827
▁НКО	-5828
▁НХЛ	-5829
▁елы	-5830
▁рят	-5831
▁тый	-5832
▁вари	-5833
▁оего	-5834
▁пить	-5835
▁рези	-5836
▁тбол	-5837
ran	-5838
авш	-5839
▁La	-5840
▁Sh	-5841
▁зо	-5842
▁амм	-5843
▁анр	-5844
▁иля	-5845
▁адио	-5846
▁орол	-5847
▁рных	-5848
▁стиц	-5849
АП	-5850
▁ton	-5851
▁ВЭБ	-5852
▁аур	-5853
▁жид	-5854
▁нки	-5855
▁пти	-5856
▁рип	-5857
▁енци	-5858
▁лого	-5859
▁руко	-5860
▁зация	-5861
▁стоял	-5862
▁НПФ	-5863
▁ФРС	-5864
▁бас	-5865
▁мек	-5866
▁нош	-5867
▁отл	-5868
▁ерну	-5869
▁исал	-5870
▁раве	-5871
▁рево	-5872
▁Volks	-5873
▁очной	-5874
:1	-5875
▁52	-5876
▁Ni	-5877
▁ai	-5878
▁КС	-5879
▁Лю	-5880
▁еза	-5881
▁ехн	-5882
▁олы	-5883
▁рди	-5884
▁сме	-5885
▁учк	-5886
▁арди	-5887
▁ашей	-5888
▁дмин	-5889
▁фект	-5890
▁ниман	-5891
▁торым	-5892
ПЛ	-5893
▁иу	-5894
▁асн	-5895
▁льм	-5896
▁убо	-5897
▁ыть	-5898
▁войс	-5899
▁еньк	-5900
▁ждал	-5901
▁нсир	-5902
▁at	-5903
▁Же	-5904
▁ТО	-5905
▁еу	-5906
▁нб	-5907
▁эт	-5908
▁езо	-5909
▁мого	-5910
▁рада	-5911
▁намер	-5912
СР	-5913
яс	-5914
зер	-5915
▁рц	-5916
▁Pro	-5917
▁аме	-5918
▁джа	-5919
▁ида	-5920
▁ирк	-5921
▁иса	-5922
▁умм	-5923
▁арте	-5924
▁бъем	-5925
▁есен	-5926
▁овет	-5927
▁орат	-5928
▁темы	-5929
▁тика	-5930
▁ОСАГО	-5931
▁азани	-5932
▁есяце	-5933
ГБ	-5934
еч	-5935
як	-5936
▁$4	-5937
▁вв	-5938
▁хэ	-5939
▁чая	-5940
▁Stre	-5941
▁ломк	-5942
▁нанс	-5943
▁нных	-5944
▁овка	-5945
▁ожар	-5946
ld	-5947
▁ed	-5948
▁30%	-5949
▁Con	-5950
▁есе	-5951
▁мам	-5952
▁неи	-5953
▁нув	-5954
▁вшим	-5955
▁сист	-5956
▁дение	-5957
yo	-5958
▁*	-5959
▁>	-5960
▁$3	-5961
▁53	-5962
▁CN	-5963
▁bg	-5964
▁de	-5965
▁адн	-5966
▁ноп	-5967
▁ищев	-5968
▁орит	-5969
▁орой	-5970
▁рный	-5971
▁ровь	-5972
▁дание	-5973
▁нициа	-5974
▁62	-5975
▁исл	-5976
▁мят	-5977
▁ндо	-5978
▁нце	-5979
▁онг	-5980
▁уро	-5981
▁Novi	-5982
▁nite	-5983
▁ачен	-5984
▁дпол	-5985
▁емых	-5986
▁несе	-5987
▁обыт	-5988
▁овес	-5989
▁одов	-5990
▁тник	-5991
▁дател	-5992
▁ружен	-5993
un	-5994
▁te	-5995
▁ur	-5996
▁тст	-5997
▁воих	-5998
▁икал	-5999
▁обил	-6000
▁рупн	-6001
ТИ	-6002
▁ge	-6003
▁ЧМ	-6004
▁жу	-6005
▁Оба	-6006
▁аго	-6007
▁ачи	-6008
▁нах	-6009
▁эфф	-6010
▁юге	-6011
▁нить	-6012
▁олич	-6013
▁адавш	-6014
▁гласи	-6015
▁транн	-6016
uro	-6017
полн	-6018
▁ted	-6019
▁бет	-6020
▁нга	-6021
▁оял	-6022
▁роя	-6023
▁уан	-6024
▁уси	-6025
▁агра	-6026
▁одни	-6027
▁пода	-6028
▁приз	-6029
▁рати	-6030
▁ятно	-6031
▁кован	-6032
▁остро	-6033
▁татов	-6034
▁ыполн	-6035
ВО	-6036
ОМ	-6037
▁айл	-6038
▁нту	-6039
▁сул	-6040
▁уал	-6041
▁шко	-6042
▁ашин	-6043
▁види	-6044
▁почт	-6045
▁пояс	-6046
▁руже	-6047
▁рыва	-6048
пт	-6049
est	-6050
ost	-6051
▁En	-6052
▁40%	-6053
▁инв	-6054
▁мои	-6055
▁шум	-6056
▁анда	-6057
▁овод	-6058
▁изошл	-6059
▁лиров	-6060
чи	-6061
oll	-6062
чев	-6063
▁АСВ	-6064
▁РФС	-6065
▁еку	-6066
▁лек	-6067
▁мые	-6068
▁нне	-6069
▁оду	-6070
▁тос	-6071
▁ваем	-6072
▁вами	-6073
▁возм	-6074
▁миро	-6075
▁анкер	-6076
ee	-6077
▁3-	-6078
▁тс	-6079
▁шл	-6080
▁ыз	-6081
▁езу	-6082
▁огр	-6083
▁пул	-6084
▁рта	-6085
▁унк	-6086
▁шек	-6087
▁икак	-6088
▁силь	-6089
▁трал	-6090
▁щать	-6091
▁nault	-6092
ork	-6093
▁64	-6094
▁Co	-6095
▁1,2	-6096
▁КОС	-6097
▁аил	-6098
▁бов	-6099
▁дой	-6100
▁раю	-6101
▁акар	-6102
▁еобх	-6103
▁мите	-6104
▁нице	-6105
▁орно	-6106
▁раль	-6107
▁Pr	-6108
▁ПФ	-6109
▁3,5	-6110
▁Mic	-6111
▁МГУ	-6112
▁Меж	-6113
▁рго	-6114
▁рци	-6115
▁гуля	-6116
▁енат	-6117
▁ольф	-6118
▁тите	-6119
▁анной	-6120
▁ходим	-6121
se	-6122
уа	-6123
lay	-6124
▁мый	-6125
▁нко	-6126
▁джет	-6127
▁зова	-6128
▁кими	-6129
▁тайн	-6130
▁рикан	-6131
vo	-6132
КБ	-6133
art	-6134
▁$5	-6135
▁XI	-6136
▁ВИЧ	-6137
▁Нет	-6138
▁ишк	-6139
▁рто	-6140
▁тко	-6141
▁шил	-6142
▁Toyo	-6143
▁Глав	-6144
▁огер	-6145
▁черк	-6146
дж	-6147
кр	-6148
oft	-6149
▁Ar	-6150
▁IT	-6151
▁рс	-6152
▁And	-6153
▁ейт	-6154
▁цид	-6155
▁шая	-6156
▁наст	-6157
▁приб	-6158
фе	-6159
ett	-6160
жен	-6161
▁$2	-6162
▁51	-6163
▁Pe	-6164
▁th	-6165
▁бн	-6166
▁йс	-6167
▁алу	-6168
▁ону	-6169
▁рах	-6170
▁рех	-6171
▁рни	-6172
▁рыл	-6173
▁чьи	-6174
▁дово	-6175
▁леду	-6176
▁наме	-6177
▁рудо	-6178
▁оител	-6179
ke	-6180
ers	-6181
▁УЕ	-6182
▁вик	-6183
▁вую	-6184
▁жда	-6185
▁оде	-6186
▁рей	-6187
▁рки	-6188
▁добы	-6189
▁итат	-6190
▁онят	-6191
▁орам	-6192
▁раба	-6193
▁ренн	-6194
▁етить	-6195
▁ующих	-6196
va	-6197
ОВ	-6198
шин	-6199
▁IC	-6200
▁пк	-6201
▁Gal	-6202
▁ашк	-6203
▁жат	-6204
▁ичк	-6205
▁пей	-6206
▁УЕФА	-6207
▁етон	-6208
▁оник	-6209
▁тавк	-6210
▁ждает	-6211
▁конеч	-6212
▁нтябр	-6213
ПЧ	-6214
▁Fl	-6215
▁ers	-6216
▁вля	-6217
▁мул	-6218
▁пек	-6219
▁Bank	-6220
▁бычн	-6221
▁обав	-6222
▁очти	-6223
▁прем	-6224
▁четы	-6225
▁икова	-6226
▁74	-6227
▁Be	-6228
▁Vi	-6229
▁АЗ	-6230
▁амы	-6231
▁атк	-6232
▁ийн	-6233
▁лос	-6234
▁Jour	-6235
▁Russ	-6236
▁атин	-6237
▁введ	-6238
▁ектр	-6239
▁тавит	-6240
▁ующие	-6241
ТВ	-6242
▁67	-6243
▁ВД	-6244
▁ВМ	-6245
▁зь	-6246
▁тл	-6247
▁Wor	-6248
▁Тут	-6249
▁вищ	-6250
▁зад	-6251
▁лях	-6252
▁одр	-6253
▁отд	-6254
▁тике	-6255
▁ьный	-6256
▁вости	-6257
▁разве	-6258
iki	-6259
гин	-6260
▁гг	-6261
▁зм	-6262
▁Три	-6263
▁Эту	-6264
▁ане	-6265
▁арп	-6266
▁гей	-6267
▁инь	-6268
▁кую	-6269
▁оиз	-6270
▁осв	-6271
▁пле	-6272
▁рдо	-6273
▁рони	-6274
ue	-6275
▁56	-6276
▁130	-6277
▁аун	-6278
▁ефо	-6279
▁итк	-6280
▁рсе	-6281
▁тац	-6282
▁алют	-6283
▁едов	-6284
▁ильм	-6285
▁лага	-6286
▁рмац	-6287
▁руги	-6288
▁рской	-6289
ФЛ	-6290
per	-6291
und	-6292
▁Ma	-6293
▁хн	-6294
▁bus	-6295
▁ОНФ	-6296
▁алы	-6297
▁бре	-6298
▁есу	-6299
▁кем	-6300
▁рна	-6301
▁авод	-6302
▁ющим	-6303
▁j	-6304
▁li	-6305
▁Ben	-6306
▁Lad	-6307
▁ехо	-6308
▁льб	-6309
▁мом	-6310
▁реп	-6311
▁риб	-6312
▁Ford	-6313
▁ерам	-6314
▁жест	-6315
▁лать	-6316
▁мене	-6317
▁нутр	-6318
▁огич	-6319
ВД	-6320
ood	-6321
НАС	-6322
▁77	-6323
▁Ги	-6324
▁Tra	-6325
▁ard	-6326
▁ght	-6327
▁ial	-6328
▁Ким	-6329
▁Рио	-6330
▁Чер	-6331
▁пот	-6332
▁стн	-6333
▁уве	-6334
▁уде	-6335
▁отал	-6336
▁очно	-6337
▁АРНАС	-6338
▁антов	-6339
АМ	-6340
udi	-6341
▁0,	-6342
▁8,	-6343
▁ММ	-6344
▁пил	-6345
▁рим	-6346
▁сат	-6347
▁яза	-6348
▁Euro	-6349
▁воре	-6350
▁тога	-6351
▁трак	-6352
▁удит	-6353
▁ущес	-6354
▁чного	-6355
:0	-6356
▁Gu	-6357
▁Se	-6358
▁XV	-6359
▁ch	-6360
▁яб	-6361
▁ПДД	-6362
▁рме	-6363
▁ьес	-6364
▁roid	-6365
▁аген	-6366
▁азов	-6367
▁лизи	-6368
▁лярн	-6369
▁обна	-6370
▁печа	-6371
▁Micro	-6372
▁ообща	-6373
▁щении	-6374
ЦИ	-6375
▁72	-6376
▁ЦРУ	-6377
▁изн	-6378
▁кса	-6379
▁лян	-6380
▁ыка	-6381
▁асов	-6382
▁ксан	-6383
▁обща	-6384
▁ройс	-6385
▁тном	-6386
▁влены	-6387
ys	-6388
фа	-6389
чес	-6390
▁54	-6391
▁АН	-6392
▁оси	-6393
▁упи	-6394
▁мейк	-6395
▁ыясн	-6396
▁онный	-6397
▁вг	-6398
▁сд	-6399
▁III	-6400
▁аке	-6401
▁жар	-6402
▁мид	-6403
▁отч	-6404
▁жает	-6405
▁ленн	-6406
▁орре	-6407
▁осил	-6408
▁трой	-6409
▁йском	-6410
TI	-6411
ab	-6412
шн	-6413
anc	-6414
енд	-6415
жев	-6416
▁ma	-6417
▁ВГ	-6418
▁зю	-6419
▁for	-6420
▁ПФР	-6421
▁аня	-6422
▁арр	-6423
▁асх	-6424
▁вог	-6425
▁жим	-6426
▁рне	-6427
▁чка	-6428
▁ьбе	-6429
▁Lada	-6430
▁бвин	-6431
▁етра	-6432
▁ибун	-6433
▁инал	-6434
▁серв	-6435
▁1-	-6436
▁Da	-6437
▁ФК	-6438
▁ВМС	-6439
▁Наш	-6440
▁Тот	-6441
▁апу	-6442
▁аул	-6443
▁епо	-6444
▁нду	-6445
▁рог	-6446
▁КОСа	-6447
▁есто	-6448
▁иваю	-6449
▁скан	-6450
▁хмет	-6451
▁чным	-6452
▁ванию	-6453
▁менов	-6454
▁нного	-6455
ot	-6456
ox	-6457
▁58	-6458
▁95	-6459
▁US	-6460
▁СПГ	-6461
▁вым	-6462
▁евн	-6463
▁зис	-6464
▁сса	-6465
▁сить	-6466
▁World	-6467
▁ax	-6468
▁ОИ	-6469
▁Пе	-6470
▁изи	-6471
▁иот	-6472
▁кли	-6473
▁сур	-6474
▁ализ	-6475
▁елям	-6476
▁забо	-6477
▁зрыв	-6478
▁лизо	-6479
▁парт	-6480
▁сост	-6481
▁таци	-6482
▁трем	-6483
▁вгуст	-6484
▁дельн	-6485
▁емонт	-6486
▁ентра	-6487
▁явили	-6488
ОЙ	-6489
Об	-6490
▁РГ	-6491
▁ФЗ	-6492
▁чл	-6493
▁мба	-6494
▁рба	-6495
▁Benz	-6496
▁лице	-6497
▁рене	-6498
▁сиро	-6499
▁сооб	-6500
▁тико	-6501
▁итвин	-6502
▁риров	-6503
st	-6504
ill	-6505
▁ОР	-6506
▁900	-6507
▁Cit	-6508
▁aks	-6509
▁НДС	-6510
▁боя	-6511
▁нюю	-6512
▁ощн	-6513
▁рям	-6514
▁Post	-6515
▁soft	-6516
▁итыв	-6517
▁площ	-6518
▁нская	-6519
▁строе	-6520
▁тства	-6521
цы	-6522
ing	-6523
uts	-6524
▁AF	-6525
▁ty	-6526
▁дя	-6527
▁350	-6528
▁80%	-6529
▁Али	-6530
▁апе	-6531
▁воп	-6532
▁доч	-6533
▁лас	-6534
▁пий	-6535
▁тые	-6536
▁ЕСПЧ	-6537
▁домо	-6538
▁евоз	-6539
▁иску	-6540
▁ктик	-6541
▁ожде	-6542
▁второ	-6543
▁итики	-6544
▁оспит	-6545
▁ывали	-6546
хан	-6547
▁63	-6548
▁An	-6549
▁Hy	-6550
▁go	-6551
▁15%	-6552
▁Бор	-6553
▁Мэр	-6554
▁еща	-6555
▁имс	-6556
▁иум	-6557
▁лах	-6558
▁ссы	-6559
▁упе	-6560
▁ыше	-6561
▁Wiki	-6562
▁аива	-6563
▁атич	-6564
▁жный	-6565
▁лмаз	-6566
▁ожив	-6567
▁ракт	-6568
▁реал	-6569
▁роса	-6570
▁тает	-6571
▁НЕ	-6572
▁160	-6573
▁CAS	-6574
▁CNN	-6575
▁new	-6576
▁ерф	-6577
▁нну	-6578
▁York	-6579
▁енту	-6580
▁твит	-6581
▁ансир	-6582
▁онкур	-6583
▁полов	-6584
ig	-6585
па	-6586
▁59	-6587
▁73	-6588
▁Wi	-6589
▁вим	-6590
▁тущ	-6591
▁Wall	-6592
▁вете	-6593
▁итир	-6594
▁огил	-6595
▁раны	-6596
▁ресн	-6597
▁таты	-6598
▁ллион	-6599
▁майер	-6600
▁нижен	-6601
▁учить	-6602
КР	-6603
uto	-6604
▁9,	-6605
▁Cl	-6606
▁ER	-6607
▁Ша	-6608
▁КХЛ	-6609
▁НТВ	-6610
▁шет	-6611
▁айан	-6612
▁аник	-6613
▁итал	-6614
▁мышл	-6615
▁нном	-6616
▁овок	-6617
▁стон	-6618
▁тало	-6619
▁игери	-6620
▁опред	-6621
▁рного	-6622
▁−	-6623
ОЙЛ	-6624
▁99	-6625
▁ГС	-6626
▁РЕ	-6627
▁дс	-6628
▁Pri	-6629
▁Дня	-6630
▁ЕГЭ	-6631
▁бри	-6632
▁еек	-6633
▁зви	-6634
▁орч	-6635
▁раф	-6636
▁варт	-6637
▁дини	-6638
▁енде	-6639
▁иумф	-6640
▁УКОЙЛ	-6641
▁ацион	-6642
▁ожден	-6643
▁отуар	-6644
ci	-6645
▁_	-6646
ейн	-6647
▁1/	-6648
▁AP	-6649
▁Eg	-6650
▁FM	-6651
ЦИОМ	-6652
▁1,6	-6653
▁ВМФ	-6654
▁ПАС	-6655
▁ачн	-6656
▁вки	-6657
▁дми	-6658
▁ейм	-6659
▁ози	-6660
▁аруш	-6661
▁илер	-6662
▁чный	-6663
▁шенк	-6664
▁ВЦИОМ	-6665
▁усско	-6666
▁5%	-6667
▁88	-6668
▁Op	-6669
▁ex	-6670
▁ЕР	-6671
▁Ир	-6672
▁Мн	-6673
▁иэ	-6674
▁Che	-6675
▁XIX	-6676
▁ачк	-6677
▁бще	-6678
▁Audi	-6679
▁news	-6680
▁алай	-6681
▁ветл	-6682
▁дата	-6683
▁ктер	-6684
▁рной	-6685
▁Sport	-6686
▁ношен	-6687
▁ынешн	-6688
ypt	-6689
▁66	-6690
▁МГ	-6691
▁зя	-6692
▁уе	-6693
▁180	-6694
▁4,5	-6695
▁Tes	-6696
▁axy	-6697
▁МТС	-6698
▁бсу	-6699
▁иты	-6700
▁льф	-6701
▁мею	-6702
▁орс	-6703
▁сок	-6704
▁абоч	-6705
▁атит	-6706
▁ечин	-6707
▁зала	-6708
▁ортн	-6709
▁улин	-6710
▁верно	-6711
▁одина	-6712
ИС	-6713
гон	-6714
▁68	-6715
▁Ass	-6716
▁Bre	-6717
▁Med	-6718
▁mon	-6719
▁ФНС	-6720
▁гко	-6721
▁гло	-6722
▁нны	-6723
▁рил	-6724
▁уар	-6725
▁уса	-6726
▁КоАП	-6727
▁ПАСЕ	-6728
▁адми	-6729
▁благ	-6730
▁лина	-6731
▁мигр	-6732
▁опри	-6733
▁пион	-6734
▁сией	-6735
▁Tesla	-6736
▁ариан	-6737
ana	-6738
▁end	-6739
▁ine	-6740
▁СКА	-6741
▁ахи	-6742
▁еше	-6743
▁итв	-6744
▁мак	-6745
▁мун	-6746
▁нто	-6747
▁сар	-6748
▁шки	-6749
▁Gett	-6750
▁авле	-6751
▁арик	-6752
▁жник	-6753
▁нали	-6754
▁озду	-6755
▁омме	-6756
▁прио	-6757
▁рева	-6758
▁рудн	-6759
▁Guard	-6760
▁ителе	-6761
▁ниров	-6762
▁равля	-6763
орм	-6764
▁Фо	-6765
▁net	-6766
▁МиГ	-6767
▁нни	-6768
▁упа	-6769
▁Niss	-6770
▁змен	-6771
▁каль	-6772
▁онны	-6773
▁ражд	-6774
▁еские	-6775
▁нформ	-6776
▁ритор	-6777
юк	-6778
org	-6779
нев	-6780
чек	-6781
▁5-	-6782
▁61	-6783
▁IV	-6784
▁TV	-6785
▁Вз	-6786
▁ПС	-6787
▁25%	-6788
▁бий	-6789
▁ваю	-6790
▁ерх	-6791
▁ечк	-6792
▁иар	-6793
▁лка	-6794
▁осу	-6795
▁саж	-6796
▁уду	-6797
▁вена	-6798
▁воро	-6799
▁дите	-6800
▁ицию	-6801
▁корр	-6802
▁льши	-6803
▁одор	-6804
▁ппоз	-6805
▁ружи	-6806
▁склю	-6807
▁фран	-6808
▁Egypt	-6809
▁Space	-6810
▁нском	-6811
▁ующий	-6812
▁84	-6813
▁Cor	-6814
▁Por	-6815
▁РПЦ	-6816
▁ези	-6817
▁имы	-6818
▁кси	-6819
▁неб	-6820
▁ошк	-6821
▁сис	-6822
▁тап	-6823
▁чко	-6824
▁анил	-6825
▁емой	-6826
▁етск	-6827
▁итуа	-6828
▁лавы	-6829
▁нако	-6830
▁нала	-6831
▁рмат	-6832
▁чить	-6833
▁ысок	-6834
▁курат	-6835
▁огран	-6836
▁подоб	-6837
▁щения	-6838
▁ываем	-6839
AF	-6840
ТР	-6841
мы	-6842
▁He	-6843
▁2-3	-6844
▁Uni	-6845
▁ВСУ	-6846
▁абр	-6847
▁апл	-6848
▁ову	-6849
▁онц	-6850
▁ьет	-6851
▁арит	-6852
▁арок	-6853
▁икаг	-6854
▁кцио	-6855
▁мали	-6856
▁тере	-6857
▁ковск	-6858
▁сколь	-6859
▁фициа	-6860
▁IB	-6861
▁вь	-6862
▁AFP	-6863
▁Ser	-6864
▁Абэ	-6865
▁ДНК	-6866
▁ДПС	-6867
▁боч	-6868
▁сле	-6869
▁асск	-6870
▁змер	-6871
▁ичем	-6872
▁мств	-6873
▁ране	-6874
▁рофе	-6875
▁едующ	-6876
▁логов	-6877
▁манск	-6878
▁новил	-6879
ОН	-6880
СКО	-6881
▁71	-6882
▁am	-6883
▁io	-6884
▁ср	-6885
▁уя	-6886
▁зни	-6887
▁кно	-6888
▁осм	-6889
▁щно	-6890
▁Airl	-6891
▁амят	-6892
▁есят	-6893
▁икет	-6894
▁люче	-6895
▁няти	-6896
▁онча	-6897
▁еских	-6898
▁ичные	-6899
:2	-6900
ak	-6901
▁69	-6902
▁RU	-6903
▁is	-6904
▁МЭ	-6905
▁тм	-6906
▁фу	-6907
▁яю	-6908
▁BBC	-6909
▁Вам	-6910
▁лал	-6911
▁лой	-6912
▁нот	-6913
▁РФПЛ	-6914
▁аход	-6915
▁окал	-6916
▁сман	-6917
▁алкан	-6918
▁ристо	-6919
▁рожде	-6920
io	-6921
▁y	-6922
ell	-6923
ГУП	-6924
▁76	-6925
▁ПО	-6926
▁son	-6927
▁Где	-6928
▁Две	-6929
▁ТЭК	-6930
▁ФТС	-6931
▁еды	-6932
▁еор	-6933
▁ефт	-6934
▁мка	-6935
▁мым	-6936
▁ута	-6937
▁яте	-6938
▁долл	-6939
▁ицын	-6940
▁ичен	-6941
▁нейш	-6942
▁пери	-6943
▁ятел	-6944
дь	-6945
▁і	-6946
бан	-6947
▁4-	-6948
▁92	-6949
▁mo	-6950
▁se	-6951
▁ВО	-6952
▁ОА	-6953
▁ive	-6954
▁бир	-6955
▁мме	-6956
▁нды	-6957
▁рои	-6958
▁Uber	-6959
▁ines	-6960
▁едел	-6961
▁изме	-6962
▁ират	-6963
▁мерн	-6964
▁мпан	-6965
▁осов	-6966
▁редп	-6967
▁ртер	-6968
▁Hyund	-6969
▁ликов	-6970
▁обави	-6971
▁печен	-6972
▁ропор	-6973
OS	-6974
ow	-6975
гу	-6976
ху	-6977
▁DA	-6978
▁IA	-6979
▁bl	-6980
▁ОД	-6981
▁Сп	-6982
▁лж	-6983
▁70%	-6984
▁СПЧ	-6985
▁алю	-6986
▁ебо	-6987
▁мим	-6988
▁овк	-6989
▁Auto	-6990
▁line	-6991
▁аказ	-6992
▁ерро	-6993
▁кора	-6994
▁одил	-6995
▁вский	-6996
▁прави	-6997
▁умент	-6998
api	-6999
ind	-7000
АЭС	-7001
▁нч	-7002
▁дзо	-7003
▁знь	-7004
▁цио	-7005
▁чек	-7006
▁Gold	-7007
▁Play	-7008
▁астн	-7009
▁ацио	-7010
▁вают	-7011
▁ебен	-7012
▁окер	-7013
▁трас	-7014
▁траф	-7015
▁Getty	-7016
▁НЕСКО	-7017
▁вался	-7018
▁еский	-7019
▁ичего	-7020
▁омисс	-7021
▁просы	-7022
▁следу	-7023
ass	-7024
рас	-7025
▁1%	-7026
▁Lo	-7027
▁ГП	-7028
▁СБ	-7029
▁140	-7030
▁ice	-7031
▁ure	-7032
▁Был	-7033
▁ПРО	-7034
▁амс	-7035
▁афи	-7036
▁бен	-7037
▁еод	-7038
▁епа	-7039
▁ицк	-7040
▁нде	-7041
▁няк	-7042
▁оис	-7043
▁тег	-7044
▁шок	-7045
▁ыла	-7046
▁яск	-7047
▁nanc	-7048
▁ress	-7049
▁берт	-7050
▁здор	-7051
▁овел	-7052
▁олик	-7053
▁разв	-7054
▁родо	-7055
▁телек	-7056
▁уации	-7057
сян	-7058
хин	-7059
▁4%	-7060
▁Th	-7061
▁ll	-7062
▁Др	-7063
▁ЦК	-7064
▁bes	-7065
▁ley	-7066
▁айс	-7067
▁апы	-7068
▁ежа	-7069
▁нца	-7070
▁рее	-7071
▁тым	-7072
▁цин	-7073
▁шее	-7074
▁ФГУП	-7075
▁аман	-7076
▁коль	-7077
▁орти	-7078
▁Deuts	-7079
▁Press	-7080
▁астер	-7081
▁держи	-7082
▁итают	-7083
▁стоим	-7084
ff	-7085
out	-7086
тен	-7087
▁82	-7088
▁86	-7089
▁ry	-7090
▁ЕК	-7091
▁МФ	-7092
▁юч	-7093
▁бах	-7094
▁роч	-7095
▁утс	-7096
▁выми	-7097
▁евин	-7098
▁люби	-7099
▁олин	-7100
▁раже	-7101
▁тиру	-7102
▁ценк	-7103
▁истер	-7104
▁оргов	-7105
▁попыт	-7106
▁тации	-7107
NS	-7108
ЦБ	-7109
ast	-7110
ink	-7111
лит	-7112
шек	-7113
▁Ок	-7114
▁вл	-7115
▁One	-7116
▁Pol	-7117
▁ГСУ	-7118
▁НИИ	-7119
▁ОАЭ	-7120
▁УФС	-7121
▁ерз	-7122
▁мыс	-7123
▁ояв	-7124
▁тис	-7125
▁уна	-7126
▁Capi	-7127
▁амва	-7128
▁вист	-7129
▁егио	-7130
▁енти	-7131
▁лева	-7132
▁нную	-7133
▁поми	-7134
▁рным	-7135
▁твуе	-7136
▁тера	-7137
▁удет	-7138
▁альни	-7139
▁чения	-7140
ai	-7141
жа	-7142
ust	-7143
▁78	-7144
▁ler	-7145
▁let	-7146
▁Вся	-7147
▁аля	-7148
▁нте	-7149
▁озя	-7150
▁онч	-7151
▁пря	-7152
▁ртн	-7153
▁тая	-7154
▁ько	-7155
▁адиц	-7156
▁айер	-7157
▁анер	-7158
▁анси	-7159
▁етит	-7160
▁ната	-7161
▁омик	-7162
▁реде	-7163
▁тниц	-7164
▁чены	-7165
▁резид	-7166
FC	-7167
Но	-7168
ПИ	-7169
чук	-7170
▁ИА	-7171
▁XXI	-7172
▁Ван	-7173
▁нал	-7174
▁оящ	-7175
▁шии	-7176
▁аган	-7177
▁елан	-7178
▁инто	-7179
▁ниям	-7180
▁ВГТРК	-7181
▁мекер	-7182
▁менен	-7183
▁сийск	-7184
▁Go	-7185
▁Wh	-7186
▁lo	-7187
▁кц	-7188
▁105	-7189
▁60%	-7190
▁Год	-7191
▁ПВО	-7192
▁нон	-7193
▁оге	-7194
▁ожк	-7195
▁оян	-7196
▁рги	-7197
▁ржи	-7198
▁рка	-7199
▁рты	-7200
▁Pors	-7201
▁port	-7202
▁анел	-7203
▁вине	-7204
▁еска	-7205
▁колл	-7206
▁огол	-7207
▁стич	-7208
▁тать	-7209
▁йству	-7210
▁шение	-7211
",	-7212
BA	-7213
юр	-7214
its	-7215
лок	-7216
мат	-7217
▁Ad	-7218
▁IN	-7219
▁Ph	-7220
▁110	-7221
▁War	-7222
▁МКС	-7223
▁ажа	-7224
▁енч	-7225
▁ирн	-7226
▁кле	-7227
▁мма	-7228
▁унг	-7229
▁щит	-7230
▁Brex	-7231
▁МКАД	-7232
▁атир	-7233
▁изнь	-7234
▁омму	-7235
▁торж	-7236
▁узык	-7237
▁ивали	-7238
▁ирмен	-7239
ki	-7240
йк	-7241
lus	-7242
▁КП	-7243
▁НС	-7244
▁ыд	-7245
▁Red	-7246
▁Бол	-7247
▁САР	-7248
▁ФСК	-7249
▁ерр	-7250
▁луб	-7251
▁тях	-7252
▁чил	-7253
▁алер	-7254
▁елье	-7255
▁ерик	-7256
▁ириж	-7257
▁ишер	-7258
▁опей	-7259
▁поло	-7260
▁рика	-7261
▁рини	-7262
▁тили	-7263
▁чная	-7264
▁шать	-7265
▁анкци	-7266
▁ровки	-7267
ШЭ	-7268
бек	-7269
лян	-7270
▁Ne	-7271
▁АМ	-7272
▁ПА	-7273
▁ТС	-7274
▁Bla	-7275
▁Nat	-7276
▁ВШЭ	-7277
▁Игр	-7278
▁ече	-7279
▁жин	-7280
▁озд	-7281
▁сма	-7282
▁тич	-7283
▁унн	-7284
▁упо	-7285
▁утб	-7286
▁ФСИН	-7287
▁амал	-7288
▁изда	-7289
▁ории	-7290
▁тная	-7291
▁ухин	-7292
▁зовал	-7293
▁истич	-7294
▁пиона	-7295
▁тимул	-7296
▁узыка	-7297
lob	-7298
бин	-7299
▁79	-7300
▁Jo	-7301
▁90%	-7302
▁Car	-7303
▁org	-7304
▁анш	-7305
▁ату	-7306
▁вре	-7307
▁йде	-7308
▁ожн	-7309
▁озы	-7310
▁окр	-7311
▁рке	-7312
▁сня	-7313
▁яни	-7314
▁Chev	-7315
▁IAAF	-7316
▁ЕАЭС	-7317
▁КТАМ	-7318
▁РИКС	-7319
▁адал	-7320
▁арно	-7321
▁веде	-7322
▁ечта	-7323
▁лайн	-7324
▁обин	-7325
▁ором	-7326
▁пинг	-7327
▁ринц	-7328
▁хмед	-7329
▁еллер	-7330
▁енции	-7331
▁иками	-7332
▁канди	-7333
▁начин	-7334
▁уплен	-7335
▁#	-7336
▁£	-7337
етт	-7338
▁91	-7339
▁il	-7340
▁ua	-7341
▁вщ	-7342
▁1,3	-7343
▁Exp	-7344
▁Ram	-7345
▁WTI	-7346
▁МФО	-7347
▁Пан	-7348
▁гли	-7349
▁пли	-7350
▁ьют	-7351
▁аких	-7352
▁дино	-7353
▁нник	-7354
▁нюдь	-7355
▁ужбы	-7356
▁айкал	-7357
me	-7358
ti	-7359
жу	-7360
фор	-7361
▁2.	-7362
▁RT	-7363
▁МУ	-7364
▁Ты	-7365
▁йз	-7366
▁лф	-7367
▁Fox	-7368
▁Par	-7369
▁Son	-7370
▁аек	-7371
▁ахр	-7372
▁дки	-7373
▁рде	-7374
▁ужб	-7375
▁чки	-7376
▁ажны	-7377
▁ванн	-7378
▁дици	-7379
▁ицио	-7380
▁очек	-7381
▁рные	-7382
▁ичных	-7383
BS	-7384
ca	-7385
чан	-7386
▁GT	-7387
▁Pa	-7388
▁ot	-7389
▁СФ	-7390
▁йо	-7391
▁$50	-7392
▁Kia	-7393
▁NAS	-7394
▁Ант	-7395
▁Ряд	-7396
▁Укр	-7397
▁ейх	-7398
▁опу	-7399
▁рое	-7400
▁скл	-7401
▁язи	-7402
▁Mits	-7403
▁Roll	-7404
▁еден	-7405
▁ехно	-7406
▁одер	-7407
▁омог	-7408
▁перт	-7409
▁приг	-7410
▁шель	-7411
▁ацией	-7412
▁еррор	-7413
▁имост	-7414
▁салон	-7415
▁стной	-7416
ug	-7417
БА	-7418
ВИ	-7419
ГК	-7420
ДО	-7421
ild	-7422
oda	-7423
ord	-7424
xus	-7425
▁3%	-7426
▁IP	-7427
▁es	-7428
▁us	-7429
▁Фе	-7430
▁ЧС	-7431
▁1,7	-7432
▁290	-7433
▁ner	-7434
▁ney	-7435
▁shi	-7436
▁РСА	-7437
▁иет	-7438
▁ищи	-7439
▁мою	-7440
▁оит	-7441
▁ойл	-7442
▁тва	-7443
▁фед	-7444
▁Serv	-7445
▁адач	-7446
▁ерин	-7447
▁жите	-7448
▁овин	-7449
▁скал	-7450
▁ссан	-7451
▁азмер	-7452
▁айден	-7453
▁банко	-7454
▁иллиа	-7455
▁онстр	-7456
▁пиров	-7457
▁сирий	-7458
▁тренн	-7459
ph	-7460
ДА	-7461
Он	-7462
▁@	-7463
eek	-7464
▁94	-7465
▁1,4	-7466
▁Dis	-7467
▁Roy	-7468
▁ari	-7469
▁les	-7470
▁лиф	-7471
▁ору	-7472
▁оха	-7473
▁МСФО	-7474
▁блен	-7475
▁виль	-7476
▁еаль	-7477
▁ейер	-7478
▁етан	-7479
▁истр	-7480
▁мско	-7481
▁наза	-7482
▁рием	-7483
▁тают	-7484
▁учше	-7485
▁Assoc	-7486
▁ателе	-7487
▁ингов	-7488
▁овной	-7489
▁пийск	-7490
▁ссанж	-7491
▁тстве	-7492
qu	-7493
НХ	-7494
чак	-7495
▁VI	-7496
▁ht	-7497
▁ly	-7498
▁вя	-7499
▁вро	-7500
▁зра	-7501
▁итн	-7502
▁итт	-7503
▁ищу	-7504
▁рещ	-7505
▁урк	-7506
▁уще	-7507
▁шат	-7508
▁егит	-7509
▁екан	-7510
▁зных	-7511
▁лезн	-7512
▁прош	-7513
▁тата	-7514
▁коман	-7515
ГА	-7516
РА	-7517
ats	-7518
ull	-7519
сон	-7520
▁Di	-7521
▁Ho	-7522
▁pe	-7523
▁РК	-7524
▁аа	-7525
▁1,8	-7526
▁ЕЦБ	-7527
▁МАК	-7528
▁авы	-7529
▁ахт	-7530
▁лых	-7531
▁ожа	-7532
▁окс	-7533
▁ржа	-7534
▁шал	-7535
▁FIFA	-7536
▁Wash	-7537
▁ГТРК	-7538
▁Сред	-7539
▁анды	-7540
▁безо	-7541
▁водя	-7542
▁двар	-7543
▁жать	-7544
▁икел	-7545
▁лить	-7546
▁мерз	-7547
▁онах	-7548
▁рать	-7549
▁тира	-7550
▁айкер	-7551
БО	-7552
МО	-7553
рон	-7554
▁7%	-7555
▁93	-7556
▁El	-7557
▁Зю	-7558
▁КБ	-7559
▁МР	-7560
▁СЕ	-7561
▁159	-7562
▁170	-7563
▁Дню	-7564
▁РЕН	-7565
▁аяк	-7566
▁док	-7567
▁зир	-7568
▁скв	-7569
▁уни	-7570
▁Glob	-7571
▁елек	-7572
▁есел	-7573
▁зник	-7574
▁личк	-7575
▁ници	-7576
▁пирт	-7577
▁риан	-7578
▁рока	-7579
▁стым	-7580
▁Super	-7581
▁винин	-7582
▁владе	-7583
▁еской	-7584
▁оспод	-7585
TV	-7586
зе	-7587
мар	-7588
▁81	-7589
▁НА	-7590
▁Хр	-7591
утер	-7592
▁6,5	-7593
▁Her	-7594
▁Pay	-7595
▁КГБ	-7596
▁аре	-7597
▁гов	-7598
▁дли	-7599
▁идж	-7600
▁удк	-7601
▁ъед	-7602
▁Note	-7603
▁амск	-7604
▁икар	-7605
▁иман	-7606
▁ифер	-7607
▁койл	-7608
▁ласс	-7609
▁нент	-7610
▁рном	-7611
▁спол	-7612
▁тмен	-7613
▁тнош	-7614
▁авляе	-7615
▁енгер	-7616
▁щение	-7617
av	-7618
ka	-7619
ГС	-7620
ща	-7621
ina	-7622
▁1.	-7623
▁bo	-7624
▁oo	-7625
▁ИК	-7626
▁уф	-7627
▁450	-7628
▁5,5	-7629
▁Лев	-7630
▁Мой	-7631
▁ОКР	-7632
▁ейл	-7633
▁етв	-7634
▁зят	-7635
▁иле	-7636
▁ксе	-7637
▁омс	-7638
▁усс	-7639
▁tors	-7640
▁Влад	-7641
▁авин	-7642
▁азви	-7643
▁вере	-7644
▁дало	-7645
▁ероп	-7646
▁жных	-7647
▁ичто	-7648
▁летк	-7649
▁грани	-7650
▁ионер	-7651
iz	-7652
are	-7653
ьян	-7654
▁83	-7655
▁98	-7656
▁ti	-7657
▁вр	-7658
▁эд	-7659
▁1/8	-7660
▁Cre	-7661
▁Дом	-7662
▁аук	-7663
▁ахо	-7664
▁вей	-7665
▁виц	-7666
▁еде	-7667
▁ейд	-7668
▁ляп	-7669
▁мпи	-7670
▁нел	-7671
▁озн	-7672
▁рре	-7673
▁тыв	-7674
▁Land	-7675
▁ВДНХ	-7676
▁ВЭБа	-7677
▁ОРВИ	-7678
▁арин	-7679
▁быва	-7680
▁воли	-7681
▁лтай	-7682
▁нахо	-7683
▁ноше	-7684
▁сион	-7685
▁твую	-7686
▁вании	-7687
▁венир	-7688
▁оскол	-7689
20	-7690
IT	-7691
PS	-7692
td	-7693
ТК	-7694
ЭП	-7695
▁Ы	-7696
▁Lu	-7697
▁БМ	-7698
▁ВЕ	-7699
▁пц	-7700
▁хт	-7701
▁INT	-7702
▁Pet	-7703
▁ubi	-7704
▁АИШ	-7705
▁Вик	-7706
▁ГЭС	-7707
▁аво	-7708
▁азм	-7709
▁лят	-7710
▁ужн	-7711
▁хам	-7712
▁хин	-7713
▁XVII	-7714
▁bler	-7715
▁азве	-7716
▁валк	-7717
▁заве	-7718
▁зада	-7719
▁икат	-7720
▁ксус	-7721
▁мощи	-7722
▁ницк	-7723
▁нтам	-7724
▁плыв	-7725
▁робн	-7726
▁тари	-7727
▁Skoda	-7728
▁анжев	-7729
▁ержал	-7730
▁польз	-7731
▁рудов	-7732
▁тируе	-7733
▁шинев	-7734
TA	-7735
tp	-7736
ond	-7737
▁gy	-7738
▁дм	-7739
▁$40	-7740
▁mic	-7741
▁ММА	-7742
▁егк	-7743
▁нян	-7744
▁теш	-7745
▁Inde	-7746
▁Poke	-7747
▁bank	-7748
▁Андр	-7749
▁ОДКБ	-7750
▁акал	-7751
▁ерес	-7752
▁етве	-7753
▁звол	-7754
▁иско	-7755
▁лавн	-7756
▁нвес	-7757
▁нест	-7758
▁олаг	-7759
▁убли	-7760
▁капит	-7761
▁полня	-7762
IA	-7763
FAX	-7764
ОВА	-7765
▁RE	-7766
▁co	-7767
▁СВ	-7768
▁Ltd	-7769
▁Mus	-7770
▁Sol	-7771
▁lla	-7772
▁ЮАР	-7773
▁бои	-7774
▁едв	-7775
▁ирь	-7776
▁йон	-7777
▁рти	-7778
▁узн	-7779
▁уко	-7780
▁усь	-7781
▁хра	-7782
▁Hold	-7783
▁ержи	-7784
▁ерсо	-7785
▁зинь	-7786
▁изер	-7787
▁лент	-7788
▁ниях	-7789
▁роек	-7790
▁тами	-7791
▁чейк	-7792
▁чном	-7793
▁ERFAX	-7794
▁ариат	-7795
▁корин	-7796
▁лексе	-7797
▁ратит	-7798
▁сложн	-7799
".	-7800
to	-7801
эк	-7802
err	-7803
one	-7804
вен	-7805
рик	-7806
▁Mi	-7807
▁SA	-7808
▁ba	-7809
▁Хи	-7810
▁Fly	-7811
▁Net	-7812
▁КПП	-7813
▁коб	-7814
▁лук	-7815
▁оти	-7816
▁оуи	-7817
▁пой	-7818
▁Mark	-7819
▁Open	-7820
▁Tran	-7821
▁ment	-7822
▁амил	-7823
▁бота	-7824
▁казы	-7825
▁ффан	-7826
▁ыход	-7827
▁вижен	-7828
▁ектив	-7829
▁елями	-7830
▁енген	-7831
▁порти	-7832
▁равит	-7833
:3	-7834
EA	-7835
mi	-7836
ЖК	-7837
imi	-7838
int	-7839
ons	-7840
АДА	-7841
ФСР	-7842
бар	-7843
▁6-	-7844
▁Fr	-7845
▁Ge	-7846
▁sp	-7847
▁we	-7848
▁Ей	-7849
▁ХХ	-7850
▁All	-7851
▁han	-7852
▁УСА	-7853
▁веш	-7854
▁дым	-7855
▁епе	-7856
▁ови	-7857
▁одж	-7858
▁оук	-7859
▁рла	-7860
▁уиз	-7861
▁фре	-7862
▁шот	-7863
▁энд	-7864
▁Amer	-7865
▁Nord	-7866
▁Sony	-7867
▁Star	-7868
▁Крас	-7869
▁НДФЛ	-7870
▁анха	-7871
▁зовы	-7872
▁итом	-7873
▁обод	-7874
▁огиб	-7875
▁одче	-7876
▁Lexus	-7877
▁Trans	-7878
▁graph	-7879
▁антин	-7880
▁арите	-7881
▁качес	-7882
▁нными	-7883
▁одных	-7884
▁попул	-7885
▁ренер	-7886
▁седат	-7887
▁стные	-7888
Вы	-7889
ЦП	-7890
пы	-7891
эм	-7892
яр	-7893
▁x	-7894
РОТ	-7895
▁2%	-7896
▁sa	-7897
▁ОС	-7898
▁РА	-7899
▁75%	-7900
▁nik	-7901
▁tch	-7902
▁Абу	-7903
▁вай	-7904
▁иод	-7905
▁луг	-7906
▁овр	-7907
▁оот	-7908
▁ятк	-7909
▁Tech	-7910
▁http	-7911
▁возд	-7912
▁едро	-7913
▁ерен	-7914
▁ишин	-7915
▁мокр	-7916
▁огин	-7917
▁ольк	-7918
▁онни	-7919
▁онья	-7920
▁рядк	-7921
▁тенк	-7922
▁Black	-7923
▁УСАДА	-7924
▁армон	-7925
▁бахче	-7926
▁ентар	-7927
▁инопт	-7928
ne	-7929
ФЛА	-7930
▁$6	-7931
▁Mc	-7932
▁Qu	-7933
▁Ur	-7934
▁Ze	-7935
▁рф	-7936
cien	-7937
▁Bar	-7938
▁Ind	-7939
▁ica	-7940
▁sta	-7941
▁ТЭС	-7942
▁арю	-7943
▁ауз	-7944
▁лют	-7945
▁опл	-7946
▁осл	-7947
▁уин	-7948
▁улк	-7949
▁умб	-7950
▁чья	-7951
▁ьва	-7952
▁Week	-7953
▁ВФЛА	-7954
▁МРОТ	-7955
▁ведя	-7956
▁ержа	-7957
▁ефть	-7958
▁корм	-7959
▁лман	-7960
▁онок	-7961
▁охин	-7962
▁реля	-7963
▁рети	-7964
▁China	-7965
▁РСФСР	-7966
▁гласн	-7967
▁логии	-7968
▁чении	-7969
fi	-7970
up	-7971
НИ	-7972
оп	-7973
▁̆	-7974
ore	-7975
▁(3	-7976
▁AM	-7977
▁Me	-7978
▁Sm	-7979
▁be	-7980
▁Ви	-7981
▁КВ	-7982
▁1,1	-7983
▁Res	-7984
▁cat	-7985
▁АСС	-7986
▁Тра	-7987
▁аин	-7988
▁анч	-7989
▁маз	-7990
▁мут	-7991
▁олч	-7992
▁орп	-7993
▁рга	-7994
▁рси	-7995
▁тез	-7996
▁ффе	-7997
▁ыры	-7998
▁ВАДА	-7999
▁ФСКН	-8000
▁айор	-8001
▁виду	-8002
▁давш	-8003
▁одск	-8004
▁опат	-8005
▁отин	-8006
▁подн	-8007
▁ража	-8008
▁разм	-8009
▁варен	-8010
▁ержат	-8011
▁менее	-8012
▁предс	-8013
▁трате	-8014
▁уация	-8015
▁6%	-8016
▁We	-8017
▁ul	-8018
▁УВ	-8019
▁йф	-8020
▁220	-8021
▁7,5	-8022
▁Gen	-8023
▁Mat	-8024
▁She	-8025
▁way	-8026
▁Нас	-8027
▁Сын	-8028
▁Яна	-8029
▁айя	-8030
▁аус	-8031
▁ейз	-8032
▁зри	-8033
▁ипт	-8034
▁лии	-8035
▁одд	-8036
▁озр	-8037
▁тую	-8038
▁щил	-8039
▁Bent	-8040
▁ness	-8041
▁АИЖК	-8042
▁ават	-8043
▁амАЗ	-8044
▁ейдж	-8045
▁йзен	-8046
▁ложк	-8047
▁нкер	-8048
▁ороп	-8049
▁тени	-8050
▁авить	-8051
▁ерево	-8052
▁ирова	-8053
▁ургут	-8054
▁шения	-8055
do	-8056
ЦК	-8057
olo	-8058
зин	-8059
▁3.	-8060
▁me	-8061
▁АП	-8062
▁ПМ	-8063
▁Це	-8064
▁ЭК	-8065
▁125	-8066
▁2,7	-8067
▁Rov	-8068
▁ТОР	-8069
▁дна	-8070
▁ейр	-8071
▁зме	-8072
▁унь	-8073
▁яже	-8074
▁Comp	-8075
▁евик	-8076
▁ефан	-8077
▁имон	-8078
▁инос	-8079
▁ирую	-8080
▁либр	-8081
▁нома	-8082
▁овит	-8083
▁пасн	-8084
▁рецк	-8085
▁сква	-8086
▁тавл	-8087
▁трад	-8088
▁ьная	-8089
▁айзер	-8090
▁остал	-8091
▁оттен	-8092
▁ристи	-8093
▁родов	-8094
уш	-8095
als	-8096
бер	-8097
▁Sc	-8098
▁ss	-8099
▁йр	-8100
▁0,5	-8101
▁12%	-8102
▁per	-8103
▁ВДВ	-8104
▁МОС	-8105
▁МСП	-8106
▁аяв	-8107
▁мье	-8108
▁рер	-8109
▁ссо	-8110
▁туп	-8111
▁шую	-8112
▁щиц	-8113
▁ютн	-8114
▁Mart	-8115
▁Morg	-8116
▁NASA	-8117
▁айон	-8118
▁амин	-8119
▁ботн	-8120
▁густ	-8121
▁егап	-8122
▁ехим	-8123
▁ешск	-8124
▁женн	-8125
▁олан	-8126
▁оскв	-8127
▁отуш	-8128
▁танк	-8129
▁тказ	-8130
▁хаос	-8131
▁андер	-8132
▁еским	-8133
▁нтерф	-8134
▁орода	-8135
▁оутер	-8136
▁ровой	-8137
▁уберн	-8138
.)	-8139
уз	-8140
хт	-8141
фан	-8142
▁(5	-8143
▁7-	-8144
▁Gl	-8145
▁Tr	-8146
▁VR	-8147
▁im	-8148
▁nt	-8149
▁vi	-8150
▁ДП	-8151
▁МИ	-8152
oody	-8153
▁2,2	-8154
▁Sky	-8155
▁Вал	-8156
▁КТЫ	-8157
▁НПЗ	-8158
▁Чен	-8159
▁абы	-8160
▁аве	-8161
▁вщи	-8162
▁ейф	-8163
▁ису	-8164
▁лга	-8165
▁пои	-8166
▁рир	-8167
▁сло	-8168
▁спр	-8169
▁Limi	-8170
▁НОВА	-8171
▁ауэр	-8172
▁ачин	-8173
▁занн	-8174
▁квар	-8175
▁лежа	-8176
▁нули	-8177
▁олни	-8178
▁опил	-8179
▁роко	-8180
▁рчес	-8181
▁Volvo	-8182
▁аттер	-8183
▁вагон	-8184
▁вного	-8185
▁ержан	-8186
▁етерб	-8187
▁жении	-8188
▁итрин	-8189
▁ламен	-8190
▁приня	-8191
▁тител	-8192
..	-8193
IS	-8194
рн	-8195
хе	-8196
ыш	-8197
хов	-8198
▁89	-8199
▁by	-8200
▁fi	-8201
▁ГР	-8202
▁КИ	-8203
▁СР	-8204
▁ьг	-8205
▁ini	-8206
▁Бен	-8207
▁Вас	-8208
▁Тед	-8209
▁ибу	-8210
▁кел	-8211
▁льк	-8212
▁моч	-8213
▁нси	-8214
▁ове	-8215
▁опр	-8216
▁тча	-8217
▁ьед	-8218
▁Fran	-8219
▁Inve	-8220
▁Sach	-8221
▁ПАРК	-8222
▁алек	-8223
▁даль	-8224
▁етев	-8225
▁зинф	-8226
▁крик	-8227
▁линк	-8228
▁лмык	-8229
▁моле	-8230
▁оген	-8231
▁огов	-8232
▁орос	-8233
▁ришл	-8234
▁ссов	-8235
▁узыр	-8236
▁уман	-8237
▁Moody	-8238
▁ссион	-8239
▁учили	-8240
BO	-8241
MS	-8242
od	-8243
ФУ	-8244
ЭЦ	-8245
эй	-8246
▁87	-8247
▁Or	-8248
▁ow	-8249
▁МП	-8250
▁ФГ	-8251
▁бб	-8252
▁цо	-8253
▁€1	-8254
azda	-8255
▁$10	-8256
▁14%	-8257
▁190	-8258
▁2,6	-8259
▁Bus	-8260
▁Cro	-8261
▁ack	-8262
▁gem	-8263
▁ron	-8264
▁МЭР	-8265
▁НПО	-8266
▁ШОС	-8267
▁еба	-8268
▁ешн	-8269
▁жес	-8270
▁иху	-8271
▁кве	-8272
▁сне	-8273
▁фар	-8274
▁хит	-8275
▁ыто	-8276
▁Ferr	-8277
▁Plus	-8278
▁УФСБ	-8279
▁арва	-8280
▁арны	-8281
▁вент	-8282
▁ежим	-8283
▁езон	-8284
▁емно	-8285
▁енна	-8286
▁етар	-8287
▁роят	-8288
▁скад	-8289
▁ссию	-8290
▁тков	-8291
▁Mazda	-8292
▁Media	-8293
▁Sachs	-8294
▁айдар	-8295
▁алкон	-8296
▁нимае	-8297
▁опуля	-8298
▁оторо	-8299
▁оцент	-8300
▁посто	-8301
▁украи	-8302
ll	-8303
ейл	-8304
ине	-8305
▁EB	-8306
▁SE	-8307
▁Ta	-8308
▁Ав	-8309
▁ГА	-8310
▁РО	-8311
▁ТЦ	-8312
▁11%	-8313
▁280	-8314
▁Bro	-8315
▁Vis	-8316
▁Wat	-8317
▁eca	-8318
▁АПК	-8319
▁Бог	-8320
▁ОМС	-8321
▁ФМС	-8322
▁авк	-8323
▁евы	-8324
▁ект	-8325
▁зго	-8326
▁итм	-8327
▁люк	-8328
▁озе	-8329
▁рох	-8330
▁Sput	-8331
▁аемо	-8332
▁алли	-8333
▁анат	-8334
▁вант	-8335
▁енил	-8336
▁ериф	-8337
▁ждан	-8338
▁новы	-8339
▁овно	-8340
▁омир	-8341
▁омой	-8342
▁онце	-8343
▁оран	-8344
▁орьб	-8345
▁офер	-8346
▁ошек	-8347
▁посл	-8348
▁рета	-8349
▁удущ	-8350
▁умов	-8351
▁дител	-8352
▁одный	-8353
▁ологи	-8354
▁раине	-8355
),	-8356
).	-8357
зо	-8358
▁=	-8359
ЛОН	-8360
жин	-8361
онд	-8362
▁8%	-8363
▁96	-8364
▁Ac	-8365
▁At	-8366
▁FA	-8367
▁om	-8368
▁sk	-8369
▁АВ	-8370
▁ОФ	-8371
▁ФО	-8372
▁Хе	-8373
▁шм	-8374
▁Ele	-8375
▁ICE	-8376
▁wer	-8377
▁БТР	-8378
▁ВОЗ	-8379
▁Имя	-8380
▁аче	-8381
▁инц	-8382
▁кис	-8383
▁мок	-8384
▁оун	-8385
▁ыбо	-8386
▁ьки	-8387
▁ьяк	-8388
▁Char	-8389
▁ВЕДО	-8390
▁альс	-8391
▁вооб	-8392
▁деля	-8393
▁егов	-8394
▁епар	-8395
▁еско	-8396
▁имер	-8397
▁ингв	-8398
▁иник	-8399
▁каин	-8400
▁круч	-8401
▁ледо	-8402
▁лови	-8403
▁омар	-8404
▁пасс	-8405
▁рков	-8406
▁сход	-8407
▁чтоб	-8408
▁ьяху	-8409
▁Indep	-8410
▁Petro	-8411
▁Scien	-8412
▁Urals	-8413
▁МОСТИ	-8414
▁айдер	-8415
▁айкон	-8416
▁казат	-8417
▁улиан	-8418
Вт	-8419
ТУ	-8420
ды	-8421
ром	-8422
▁CO	-8423
▁PR	-8424
▁RA	-8425
▁Ri	-8426
▁ay	-8427
▁bi	-8428
▁ri	-8429
▁яй	-8430
ound	-8431
▁...	-8432
▁1-2	-8433
▁230	-8434
▁270	-8435
▁3-4	-8436
▁Chr	-8437
▁Del	-8438
▁Hon	-8439
▁Tri	-8440
▁УАЗ	-8441
▁аби	-8442
▁апо	-8443
▁едр	-8444
▁еул	-8445
▁имк	-8446
▁кну	-8447
▁мыт	-8448
▁пак	-8449
▁уби	-8450
▁хни	-8451
▁шни	-8452
▁Amaz	-8453
▁ures	-8454
▁ГЛОН	-8455
▁алис	-8456
▁амон	-8457
▁анша	-8458
▁браз	-8459
▁евет	-8460
▁елит	-8461
▁енка	-8462
▁етти	-8463
▁ещер	-8464
▁ионе	-8465
▁кали	-8466
▁кола	-8467
▁рете	-8468
▁сова	-8469
▁убин	-8470
▁ышев	-8471
▁овник	-8472
▁олочк	-8473
▁ольно	-8474
▁улярн	-8475
No	-8476
ip	-8477
ДС	-8478
ЛС	-8479
лы	-8480
ant	-8481
oun	-8482
uge	-8483
ГБТ	-8484
шер	-8485
▁Cr	-8486
▁Em	-8487
▁la	-8488
▁my	-8489
▁НГ	-8490
▁Ян	-8491
▁жо	-8492
▁18%	-8493
▁2,3	-8494
▁240	-8495
▁3,8	-8496
▁GPS	-8497
▁Wel	-8498
▁sty	-8499
▁Мэй	-8500
▁ОПК	-8501
▁атт	-8502
▁аут	-8503
▁гии	-8504
▁дай	-8505
▁зли	-8506
▁квы	-8507
▁мех	-8508
▁мис	-8509
▁ноб	-8510
▁рие	-8511
▁тке	-8512
▁тье	-8513
▁чье	-8514
▁Mars	-8515
▁arch	-8516
▁ЛГБТ	-8517
▁анно	-8518
▁воль	-8519
▁ирен	-8520
▁кмен	-8521
▁коме	-8522
▁мерл	-8523
▁митр	-8524
▁ните	-8525
▁рная	-8526
▁скус	-8527
▁сово	-8528
▁айвер	-8529
▁дении	-8530
▁ебаст	-8531
▁имать	-8532
▁мость	-8533
▁рение	-8534
ВК	-8535
day	-8536
ree	-8537
етк	-8538
▁$7	-8539
▁(4	-8540
▁97	-8541
▁Ed	-8542
▁Ha	-8543
▁Hu	-8544
▁ЗС	-8545
▁СО	-8546
▁СС	-8547
▁2,4	-8548
▁Eco	-8549
▁tic	-8550
▁ГБУ	-8551
▁КТО	-8552
▁МФЦ	-8553
▁вый	-8554
▁нын	-8555
▁овл	-8556
▁оед	-8557
▁орр	-8558
▁риа	-8559
▁роц	-8560
▁удн	-8561
▁упк	-8562
▁уты	-8563
▁ушн	-8564
▁Bild	-8565
▁Blue	-8566
▁Corp	-8567
▁Moss	-8568
▁Wind	-8569
▁УФАС	-8570
▁атур	-8571
▁горч	-8572
▁икол	-8573
▁инер	-8574
▁мист	-8575
▁обла	-8576
▁рамп	-8577
▁риво	-8578
▁рчук	-8579
▁спер	-8580
▁теро	-8581
▁удан	-8582
▁урат	-8583
▁венно	-8584
▁ейзаж	-8585
▁ихуан	-8586
▁листа	-8587
▁ммент	-8588
▁олуча	-8589
▁терян	-8590
▁урбан	-8591
АФ	-8592
ЕР	-8593
аш	-8594
зы	-8595
йл	-8596
▁`	-8597
мон	-8598
▁"1	-8599
▁4.	-8600
▁NE	-8601
▁gr	-8602
▁he	-8603
▁ГД	-8604
▁НЛ	-8605
▁бв	-8606
▁дэ	-8607
▁юг	-8608
▁111	-8609
▁5%.	-8610
▁ter	-8611
▁uar	-8612
▁АЗС	-8613
▁ГУП	-8614
▁Моя	-8615
▁Обе	-8616
▁СРО	-8617
▁Том	-8618
▁ФСО	-8619
▁едп	-8620
▁зас	-8621
▁нда	-8622
▁Cont	-8623
▁Cred	-8624
▁Fons	-8625
▁Link	-8626
▁Mana	-8627
▁авай	-8628
▁амет	-8629
▁анон	-8630
▁дана	-8631
▁екер	-8632
▁етни	-8633
▁запа	-8634
▁инст	-8635
▁иоск	-8636
▁ипул	-8637
▁мера	-8638
▁оган	-8639
▁омич	-8640
▁опла	-8641
▁ртын	-8642
▁тейш	-8643
▁тлич	-8644
▁яние	-8645
▁Honda	-8646
▁Peuge	-8647
▁Shell	-8648
▁Whats	-8649
▁амвай	-8650
▁апрет	-8651
▁арник	-8652
▁ерант	-8653
▁еском	-8654
▁ктейл	-8655
▁матич	-8656
▁страц	-8657
PA	-8658
ac	-8659
ah	-8660
ps	-8661
НТ	-8662
ФК	-8663
ini	-8664
ris	-8665
АИС	-8666
лор	-8667
яза	-8668
▁AR	-8669
▁As	-8670
▁ES	-8671
▁GL	-8672
▁IK	-8673
▁as	-8674
▁ct	-8675
▁ng	-8676
▁КР	-8677
▁Св	-8678
▁Цю	-8679
▁мч	-8680
▁1,9	-8681
▁Cam	-8682
▁Int	-8683
▁Mod	-8684
▁nes	-8685
▁nta	-8686
▁pro	-8687
▁tte	-8688
▁МПК	-8689
▁МЦК	-8690
▁ПСЖ	-8691
▁Пак	-8692
▁РПК	-8693
▁ану	-8694
▁вуз	-8695
▁зом	-8696
▁идо	-8697
▁иша	-8698
▁поэ	-8699
▁рст	-8700
▁Rese	-8701
▁play	-8702
▁Нико	-8703
▁аком	-8704
▁деть	-8705
▁ейха	-8706
▁ещин	-8707
▁ивае	-8708
▁кучн	-8709
▁окру	-8710
▁сотр	-8711
▁ссия	-8712
▁стри	-8713
▁Today	-8714
▁ЕГАИС	-8715
▁анель	-8716
▁ейган	-8717
▁ейман	-8718
▁крыва	-8719
▁мират	-8720
▁нении	-8721
▁овски	-8722
▁средн	-8723
:4	-8724
йт	-8725
ях	-8726
ero	-8727
вел	-8728
джи	-8729
▁(6	-8730
▁BP	-8731
▁GM	-8732
▁MS	-8733
▁Вс	-8734
▁10,	-8735
▁360	-8736
▁750	-8737
▁Nik	-8738
▁UFC	-8739
▁ble	-8740
▁der	-8741
▁gov	-8742
▁lic	-8743
▁БМП	-8744
▁КВН	-8745
▁Мун	-8746
▁Пок	-8747
▁СПб	-8748
▁адж	-8749
▁бик	-8750
▁дим	-8751
▁ехт	-8752
▁зиа	-8753
▁иам	-8754
▁иел	-8755
▁ирс	-8756
▁мев	-8757
▁ожь	-8758
▁реи	-8759
▁сех	-8760
▁тощ	-8761
▁убк	-8762
▁уэн	-8763
▁Chan	-8764
▁Ener	-8765
▁Fiat	-8766
▁IKEA	-8767
▁агад	-8768
▁алуб	-8769
▁анал	-8770
▁атыш	-8771
▁бращ	-8772
▁вищу	-8773
▁ебно	-8774
▁зрен	-8775
▁итаю	-8776
▁краш	-8777
▁ленд	-8778
▁меял	-8779
▁оезд	-8780
▁окож	-8781
▁окси	-8782
▁окур	-8783
▁олыж	-8784
▁рдаш	-8785
▁сент	-8786
▁слан	-8787
▁уран	-8788
▁хмат	-8789
▁штон	-8790
▁вейер	-8791
▁ешкин	-8792
▁инейн	-8793
▁нских	-8794
▁черкн	-8795
NA	-8796
ith	-8797
ome	-8798
ong	-8799
АНО	-8800
зон	-8801
▁2"	-8802
▁Hi	-8803
▁Sn	-8804
▁ni	-8805
▁ol	-8806
▁ИС	-8807
▁Нм	-8808
▁рр	-8809
▁115	-8810
▁16%	-8811
▁Jag	-8812
▁Kar	-8813
▁VII	-8814
▁ics	-8815
▁lop	-8816
▁sco	-8817
▁Всю	-8818
▁МВт	-8819
▁ФНЛ	-8820
▁анж	-8821
▁деб	-8822
▁еиз	-8823
▁ейг	-8824
▁згл	-8825
▁миг	-8826
▁нью	-8827
▁ску	-8828
▁хэм	-8829
▁юль	-8830
▁юще	-8831
▁Busi	-8832
▁Cent	-8833
▁EBIT	-8834
▁Time	-8835
▁ажир	-8836
▁анун	-8837
▁воем	-8838
▁дымл	-8839
▁инат	-8840
▁иним	-8841
▁ицце	-8842
▁мбер	-8843
▁огат	-8844
▁омос	-8845
▁ораб	-8846
▁осик	-8847
▁пола	-8848
▁тана	-8849
▁чало	-8850
▁эроп	-8851
▁Elect	-8852
▁Enter	-8853
▁ечени	-8854
▁жижен	-8855
▁ормил	-8856
▁ранит	-8857
▁роват	-8858
▁рушен	-8859
▁ьявол	-8860
TC	-8861
Ка	-8862
фт	-8863
эл	-8864
ang	-8865
ars	-8866
ype	-8867
топ	-8868
▁Ag	-8869
▁GO	-8870
▁Si	-8871
▁Vo	-8872
▁si	-8873
▁ОГ	-8874
▁СЭ	-8875
▁бь	-8876
▁22%	-8877
▁238	-8878
▁3,7	-8879
▁5-6	-8880
▁8,5	-8881
▁Ali	-8882
▁Ast	-8883
▁lin	-8884
▁ore	-8885
▁stm	-8886
▁tar	-8887
▁tel	-8888
▁Кын	-8889
▁ОФЗ	-8890
▁ОЭС	-8891
▁ПКР	-8892
▁вом	-8893
▁дож	-8894
▁иПК	-8895
▁илк	-8896
▁ичи	-8897
▁лжи	-8898
▁рян	-8899
▁хма	-8900
▁Cons	-8901
▁Live	-8902
▁vers	-8903
▁авит	-8904
▁авно	-8905
▁айлд	-8906
▁атан	-8907
▁воля	-8908
▁втун	-8909
▁енин	-8910
▁игов	-8911
▁крут	-8912
▁лема	-8913
▁мощь	-8914
▁напо	-8915
▁одан	-8916
▁одах	-8917
▁осье	-8918
▁ргин	-8919
▁рмен	-8920
▁урил	-8921
▁ухан	-8922
▁ченк	-8923
▁Solar	-8924
▁ампер	-8925
▁аннер	-8926
▁анско	-8927
▁астин	-8928
▁аудер	-8929
▁еркут	-8930
▁етний	-8931
▁зиаст	-8932
▁иксут	-8933
▁льман	-8934
▁рбент	-8935
▁ющего	-8936
ЕС	-8937
ПУ	-8938
юш	-8939
ант	-8940
▁9%	-8941
▁DS	-8942
▁Fe	-8943
▁HD	-8944
▁id	-8945
▁НО	-8946
▁РД	-8947
▁СД	-8948
ouse	-8949
▁17%	-8950
▁225	-8951
▁3,6	-8952
▁Ber	-8953
▁Dri	-8954
▁RNS	-8955
▁ain	-8956
▁iOS	-8957
▁sse	-8958
▁sti	-8959
▁Ког	-8960
▁НАС	-8961
▁НИУ	-8962
▁ОВД	-8963
▁РАО	-8964
▁ТЭЦ	-8965
▁УВЗ	-8966
▁амя	-8967
▁бою	-8968
▁дах	-8969
▁идн	-8970
▁кай	-8971
▁рюк	-8972
▁Zeit	-8973
▁ОЭСР	-8974
▁азет	-8975
▁акси	-8976
▁алым	-8977
▁анан	-8978
▁афор	-8979
▁бите	-8980
▁бова	-8981
▁вный	-8982
▁деят	-8983
▁евно	-8984
▁ециа	-8985
▁зино	-8986
▁иток	-8987
▁ишен	-8988
▁ндер	-8989
▁орил	-8990
▁оули	-8991
▁скре	-8992
▁стиг	-8993
▁стям	-8994
▁удут	-8995
▁урен	-8996
▁чили	-8997
▁ысяч	-8998
▁Gener	-8999
▁Model	-9000
▁Music	-9001
▁Stand	-9002
▁аргин	-9003
▁арлам	-9004
▁аузер	-9005
▁валер	-9006
▁жинир	-9007
▁икенд	-9008
▁одско	-9009
▁ордон	-9010
▁сател	-9011
kh	-9012
ux	-9013
пе	-9014
ьк	-9015
alt	-9016
▁+1	-9017
▁8-	-9018
▁Ba	-9019
▁CR	-9020
▁di	-9021
▁ie	-9022
▁um	-9023
▁2:1	-9024
▁Exx	-9025
▁IBU	-9026
▁Inc	-9027
▁WBA	-9028
▁lix	-9029
▁off	-9030
▁ows	-9031
▁pri	-9032
▁ral	-9033
▁ВТО	-9034
▁ГПУ	-9035
▁анз	-9036
▁дию	-9037
▁дка	-9038
▁ебл	-9039
▁идд	-9040
▁иды	-9041
▁йва	-9042
▁кВт	-9043
▁код	-9044
▁лма	-9045
▁лью	-9046
▁нез	-9047
▁оид	-9048
▁пно	-9049
▁ппи	-9050
▁пящ	-9051
▁рви	-9052
▁тку	-9053
▁ьем	-9054
▁эйл	-9055
▁Amne	-9056
▁Comm	-9057
▁Netf	-9058
▁ents	-9059
▁акти	-9060
▁акто	-9061
▁анец	-9062
▁анит	-9063
▁анны	-9064
▁апин	-9065
▁арес	-9066
▁аска	-9067
▁беди	-9068
▁ванс	-9069
▁елоч	-9070
▁лика	-9071
▁линг	-9072
▁льта	-9073
▁моро	-9074
▁омни	-9075
▁очвы	-9076
▁рени	-9077
▁роны	-9078
▁свид	-9079
▁урис	-9080
▁хмад	-9081
▁Grand	-9082
▁ангел	-9083
▁аскир	-9084
▁брати	-9085
▁велоп	-9086
▁ейлор	-9087
▁енчур	-9088
▁ерлин	-9089
▁ипенд	-9090
▁мости	-9091
▁номич	-9092
▁ольер	-9093
▁рения	-9094
▁устер	-9095
ОР	-9096
От	-9097
ХА	-9098
alc	-9099
ate	-9100
ССП	-9101
вет	-9102
лет	-9103
нач	-9104
хуа	-9105
▁".	-9106
▁$8	-9107
▁AT	-9108
▁CE	-9109
▁Pi	-9110
▁do	-9111
▁ph	-9112
▁ДК	-9113
▁ПК	-9114
▁ТК	-9115
▁сц	-9116
▁1%.	-9117
▁175	-9118
▁3,2	-9119
▁340	-9120
▁650	-9121
▁Pal	-9122
▁Per	-9123
▁Pre	-9124
▁WTA	-9125
▁all	-9126
▁uri	-9127
▁ТСЖ	-9128
▁айф	-9129
▁арф	-9130
▁аща	-9131
▁дже	-9132
▁еем	-9133
▁иГС	-9134
▁ойт	-9135
▁окт	-9136
▁омы	-9137
▁тае	-9138
▁укс	-9139
▁фти	-9140
▁хта	-9141
▁Falc	-9142
▁borg	-9143
▁roen	-9144
▁Инте	-9145
▁РАНХ	-9146
▁ФАНО	-9147
▁алик	-9148
▁анде	-9149
▁брас	-9150
▁бъяв	-9151
▁егет	-9152
▁енни	-9153
▁злов	-9154
▁игер	-9155
▁имир	-9156
▁итва	-9157
▁йдар	-9158
▁ладе	-9159
▁нгар	-9160
▁неде	-9161
▁нили	-9162
▁овыш	-9163
▁ожни	-9164
▁омов	-9165
▁онфе	-9166
▁пото	-9167
▁рами	-9168
▁слен	-9169
▁турн	-9170
▁усло	-9171
▁ухон	-9172
▁ъявл	-9173
▁яжел	-9174
▁Class	-9175
▁Rolls	-9176
▁Royce	-9177
▁Stone	-9178
▁Watch	-9179
▁абота	-9180
▁азнач	-9181
▁антел	-9182
▁вател	-9183
▁виней	-9184
▁дилер	-9185
▁енить	-9186
▁естер	-9187
▁махер	-9188
▁оркут	-9189
▁перег	-9190
▁руков	-9191
▁шельк	-9192
IM	-9193
ly	-9194
ЭФ	-9195
пк	-9196
ide	-9197
ili	-9198
ute	-9199
ОСТ	-9200
лом	-9201
льц	-9202
цер	-9203
чик	-9204
шев	-9205
шир	-9206
▁Ja	-9207
▁MA	-9208
▁MH	-9209
▁NY	-9210
▁eb	-9211
▁gn	-9212
▁Бе	-9213
▁УГ	-9214
▁йч	-9215
▁ыц	-9216
▁эш	-9217
outh	-9218
РОСА	-9219
▁(21	-9220
▁2,1	-9221
▁2,8	-9222
▁Bel	-9223
▁Lam	-9224
▁Tur	-9225
▁Ves	-9226
▁ЛЭП	-9227
▁НБА	-9228
▁Сил	-9229
▁ааг	-9230
▁даю	-9231
▁дню	-9232
▁дри	-9233
▁епи	-9234
▁жду	-9235
▁зет	-9236
▁иэл	-9237
▁нур	-9238
▁ойс	-9239
▁сту	-9240
▁тиз	-9241
▁убе	-9242
▁урт	-9243
▁утч	-9244
▁энк	-9245
▁ГУЭБ	-9246
▁НАСА	-9247
▁аним	-9248
▁бром	-9249
▁бяза	-9250
▁ванш	-9251
▁вост	-9252
▁дате	-9253
▁евес	-9254
▁игал	-9255
▁игул	-9256
▁ичев	-9257
▁ишеч	-9258
▁ллин	-9259
▁мман	-9260
▁мура	-9261
▁очев	-9262
▁удин	-9263
▁Chrys	-9264
▁South	-9265
▁ЛРОСА	-9266
▁анган	-9267
▁анхай	-9268
▁аркер	-9269
▁вопро	-9270
▁ирджи	-9271
▁ключи	-9272
▁отник	-9273
▁сталь	-9274
▁тавля	-9275
▁уллит	-9276
▁ческу	-9277
!)	-9278
IB	-9279
IJ	-9280
go	-9281
ИИ	-9282
юс	-9283
яч	-9284
iti	-9285
НАО	-9286
▁1"	-9287
▁Aw	-9288
▁Ev	-9289
▁Sy	-9290
▁ab	-9291
▁sm	-9292
▁АК	-9293
▁ГО	-9294
▁УС	-9295
ocus	-9296
ream	-9297
▁$30	-9298
▁(!)	-9299
▁19%	-9300
▁1:1	-9301
▁2:0	-9302
▁3-5	-9303
▁Gre	-9304
▁IPO	-9305
▁Ver	-9306
▁XVI	-9307
▁con	-9308
▁ina	-9309
▁lie	-9310
▁tan	-9311
▁ult	-9312
▁НАК	-9313
▁ФБК	-9314
▁арб	-9315
▁дек	-9316
▁дыв	-9317
▁енг	-9318
▁зат	-9319
▁зря	-9320
▁иши	-9321
▁ища	-9322
▁мни	-9323
▁мра	-9324
▁онь	-9325
▁суп	-9326
▁чих	-9327
▁шар	-9328
▁ICIJ	-9329
▁АМАЗ	-9330
▁МРСК	-9331
▁НИКС	-9332
▁РСПП	-9333
▁СЕАН	-9334
▁апан	-9335
▁арет	-9336
▁блик	-9337
▁елок	-9338
▁етто	-9339
▁идан	-9340
▁клин	-9341
▁малч	-9342
▁одом	-9343
▁ория	-9344
▁ропо	-9345
▁рошл	-9346
▁тайс	-9347
▁уани	-9348
▁уска	-9349
▁фирм	-9350
▁яске	-9351
▁Drive	-9352
▁Frank	-9353
▁ализа	-9354
▁атино	-9355
▁бласт	-9356
▁вержд	-9357
▁вичус	-9358
▁значе	-9359
▁ишкек	-9360
▁урбин	-9361
▁шмент	-9362
:6	-9363
IF	-9364
MI	-9365
di	-9366
ga	-9367
Да	-9368
РИ	-9369
Ты	-9370
▁q	-9371
ick	-9372
фар	-9373
▁--	-9374
▁AG	-9375
▁Fa	-9376
▁SU	-9377
▁So	-9378
▁ib	-9379
▁ГМ	-9380
▁ДВ	-9381
▁УЗ	-9382
▁(22	-9383
▁135	-9384
▁3,4	-9385
▁4%.	-9386
▁ABC	-9387
▁Art	-9388
▁Col	-9389
▁Dub	-9390
▁Gel	-9391
▁Har	-9392
▁Inf	-9393
▁NBC	-9394
▁Rad	-9395
▁SMS	-9396
▁Ste	-9397
▁Sun	-9398
▁bil	-9399
▁lli	-9400
▁ВКП	-9401
▁ОКБ	-9402
▁воя	-9403
▁езе	-9404
▁ейб	-9405
▁зел	-9406
▁игл	-9407
▁иня	-9408
▁кав	-9409
▁лий	-9410
▁лье	-9411
▁лям	-9412
▁ойз	-9413
▁опч	-9414
▁орж	-9415
▁рро	-9416
▁скр	-9417
▁сыр	-9418
▁ыне	-9419
▁ыра	-9420
▁ьор	-9421
▁янн	-9422
▁Book	-9423
▁Citi	-9424
▁City	-9425
▁tail	-9426
▁айда	-9427
▁алид	-9428
▁алил	-9429
▁анен	-9430
▁бонд	-9431
▁боты	-9432
▁еман	-9433
▁ерца	-9434
▁илон	-9435
▁иньк	-9436
▁ирзи	-9437
▁ирож	-9438
▁итин	-9439
▁корп	-9440
▁ловн	-9441
▁лтар	-9442
▁ндес	-9443
▁нста	-9444
▁обан	-9445
▁озво	-9446
▁олын	-9447
▁омас	-9448
▁омст	-9449
▁укол	-9450
▁ульс	-9451
▁Royal	-9452
▁borgh	-9453
▁УФСИН	-9454
▁алочк	-9455
▁еснок	-9456
▁оньяк	-9457
▁оттер	-9458
▁тство	-9459
▁улкан	-9460
▁утнев	-9461
▁шелон	-9462
2.	-9463
pt	-9464
До	-9465
ПО	-9466
УМ	-9467
ЧП	-9468
йв	-9469
ase	-9470
oop	-9471
qui	-9472
ица	-9473
рут	-9474
▁5.	-9475
▁LG	-9476
▁Oc	-9477
▁PS	-9478
▁RS	-9479
▁ee	-9480
▁ey	-9481
▁gi	-9482
▁iy	-9483
▁ГБ	-9484
▁РТ	-9485
▁Ци	-9486
▁Ын	-9487
▁дг	-9488
▁лб	-9489
▁лс	-9490
▁мь	-9491
▁210	-9492
▁35%	-9493
▁45%	-9494
▁Alp	-9495
▁Def	-9496
▁Fut	-9497
▁Sui	-9498
▁any	-9499
▁ery	-9500
▁ity	-9501
▁wei	-9502
▁Ива	-9503
▁МУП	-9504
▁ЦСР	-9505
▁ирт	-9506
▁кун	-9507
▁нож	-9508
▁опп	-9509
▁осы	-9510
▁оул	-9511
▁оум	-9512
▁тах	-9513
▁тни	-9514
▁убн	-9515
▁юга	-9516
▁Deve	-9517
▁NoNo	-9518
▁Part	-9519
▁ande	-9520
▁back	-9521
▁iPad	-9522
▁wood	-9523
▁АВТО	-9524
▁азур	-9525
▁асан	-9526
▁ахта	-9527
▁варц	-9528
▁вель	-9529
▁вные	-9530
▁воща	-9531
▁ежец	-9532
▁ейма	-9533
▁коны	-9534
▁лтон	-9535
▁неяд	-9536
▁номы	-9537
▁обат	-9538
▁олжн	-9539
▁паде	-9540
▁редь	-9541
▁тдел	-9542
▁утик	-9543
▁уэль	-9544
▁фари	-9545
▁ылды	-9546
▁Focus	-9547
▁ельфе	-9548
▁ентск	-9549
▁ермен	-9550
▁ингер	-9551
▁лавно	-9552
▁лифат	-9553
▁ниями	-9554
▁ордан	-9555
▁отора	-9556
▁сказы	-9557
▁страт	-9558
CC	-9559
IP	-9560
ade	-9561
лив	-9562
тик	-9563
▁Ca	-9564
▁Do	-9565
▁Dr	-9566
▁Es	-9567
▁It	-9568
▁Yo	-9569
▁em	-9570
▁mp	-9571
▁tt	-9572
▁ОТ	-9573
▁фю	-9574
▁юэ	-9575
ount	-9576
raft	-9577
▁13%	-9578
▁13,	-9579
▁145	-9580
▁2%.	-9581
▁23%	-9582
▁4,3	-9583
▁4-5	-9584
▁AMG	-9585
▁Ara	-9586
▁Pat	-9587
▁Pho	-9588
▁Suz	-9589
▁XII	-9590
▁ald	-9591
▁ert	-9592
▁Ими	-9593
▁Иск	-9594
▁МАО	-9595
▁ФНБ	-9596
▁атс	-9597
▁аян	-9598
▁бак	-9599
▁вух	-9600
▁гут	-9601
▁дак	-9602
▁зма	-9603
▁ктр	-9604
▁нке	-9605
▁офо	-9606
▁рвы	-9607
▁рту	-9608
▁рун	-9609
▁унз	-9610
▁ыжи	-9611
▁эйн	-9612
▁Aust	-9613
▁Bell	-9614
▁Club	-9615
▁Mast	-9616
▁Pari	-9617
▁Poli	-9618
▁Sber	-9619
▁Stat	-9620
▁ners	-9621
▁nter	-9622
▁НСПК	-9623
▁РСБУ	-9624
▁Росс	-9625
▁ЯНАО	-9626
▁адон	-9627
▁азил	-9628
▁акир	-9629
▁алак	-9630
▁арил	-9631
▁асту	-9632
▁гать	-9633
▁егис	-9634
▁елег	-9635
▁ельц	-9636
▁елья	-9637
▁инья	-9638
▁итяз	-9639
▁ичны	-9640
▁ищет	-9641
▁каян	-9642
▁ловк	-9643
▁майд	-9644
▁мети	-9645
▁меть	-9646
▁ммер	-9647
▁нерц	-9648
▁осин	-9649
▁офон	-9650
▁подо	-9651
▁подт	-9652
▁рису	-9653
▁риум	-9654
▁угун	-9655
▁ьхуа	-9656
▁ятия	-9657
▁аввин	-9658
▁ветск	-9659
▁ивных	-9660
▁ичнев	-9661
▁ишнев	-9662
▁льфин	-9663
▁механ	-9664
▁оксич	-9665
▁орист	-9666
▁ссанс	-9667
▁фюмер	-9668
cy	-9669
gi	-9670
hn	-9671
ДК	-9672
ЛЬ	-9673
НС	-9674
ФИ	-9675
ЮС	-9676
оу	-9677
▁•	-9678
ara	-9679
eep	-9680
ieg	-9681
ицк	-9682
лов	-9683
лык	-9684
рус	-9685
▁7.	-9686
▁Gi	-9687
▁IS	-9688
▁WW	-9689
▁du	-9690
▁ei	-9691
▁ha	-9692
▁ka	-9693
▁mi	-9694
▁va	-9695
▁УП	-9696
▁$20	-9697
▁(24	-9698
▁155	-9699
▁222	-9700
▁24"	-9701
▁320	-9702
▁Hua	-9703
▁Mir	-9704
▁Sch	-9705
▁Sec	-9706
▁Tou	-9707
▁cle	-9708
▁ium	-9709
▁ple	-9710
▁АПЛ	-9711
▁ГРУ	-9712
▁Мои	-9713
▁ОПГ	-9714
▁ТНТ	-9715
▁ТПП	-9716
▁УЗИ	-9717
▁УПК	-9718
▁выр	-9719
▁едш	-9720
▁ерш	-9721
▁етч	-9722
▁зыр	-9723
▁	-9724
о	-9725
е	-9726
а	-9727
и	-9728
н	-9729
т	-9730
с	-9731
р	-9732
в	-9733
л	-9734
к	-9735
д	-9736
м	-9737
п	-9738
у	-9739
ы	-9740
я	-9741
г	-9742
з	-9743
б	-9744
,	-9745
ь	-9746
й	-9747
ч	-9748
.	-9749
х	-9750
ж	-9751
"	-9752
ц	-9753
ю	-9754
ш	-9755
-	-9756
щ	-9757
С	-9758
ф	-9759
э	-9760
В	-9761
П	-9762
1	-9763
0	-9764
К	-9765
Р	-9766
2	-9767
А	-9768
М	-9769
Н	-9770
О	-9771
И	-9772
Д	-9773
Т	-9774
Б	-9775
:	-9776
e	-9777
Г	-9778
5	-9779
a	-9780
3	-9781
Ф	-9782
(	-9783
)	-9784
o	-9785
6	-9786
4	-9787
У	-9788
r	-9789
Е	-9790
9	-9791
i	-9792
n	-9793
Л	-9794
t	-9795
7	-9796
8	-9797
З	-9798
Э	-9799
Ш	-9800
s	-9801
ъ	-9802
u	-9803
l	-9804
Ч	-9805
%	-9806
Х	-9807
Я	-9808
c	-9809
Ц	-9810
?	-9811
A	-9812
d	-9813
m	-9814
g	-9815
S	-9816
p	-9817
h	-9818
I	-9819
T	-9820
Ж	-9821
L	-9822
C	-9823
R	-9824
Ю	-9825
y	-9826
Ъ	-9827
N	-9828
B	-9829
M	-9830
P	-9831
F	-9832
k	-9833
b	-9834
!	-9835
w	-9836
G	-9837
D	-9838
$	-9839
W	-9840
E	-9841
/	-9842
v	-9843
f	-9844
;	-9845
V	-9846
H	-9847
O	-9848
X	-9849
x	-9850
Й	-9851
U	-9852
z	-9853
J	-9854
K	-9855
­	-9856
+	-9857
Y	-9858
·	-9859
€	-9860
'	-9861
&	-9862
Z	-9863
Щ	-9864
[	-9865
°	-9866
]	-9867
Q	-9868
j	-9869
‐	-9870
>	-9871
і	-9872
―	-9873
*	-9874
q	-9875
Ы	-9876
−	-9877
_	-9878
#	-9879
£	-9880
@	-9881
Ь	-9882
̆	-9883
=	-9884
`	-9885
ü	-9886
ä	-9887
ї	-9888
•	-9889
é	-9890
õ	-9891
×	-9892
⁄	-9893
<	-9894
є	-9895
■	-9896
ó	-9897
′	-9898
©	-9899
ö	-9900
→	-9901
́	-9902
‒	-9903
è	-9904
І	-9905
þ	-9906
‬	-9907
\	-9908
~	-9909
É	-9910
ë	-9911
μ	-9912
ў	-9913
‍	-9914
😂	-9915
¦	-9916
¬	-9917
Ö	-9918
à	-9919
Ş	-9920
Ν	-9921
α	-9922
β	-9923
Ў	-9924
қ	-9925
‪	-9926
ç	-9927
ê	-9928
í	-9929
ð	-9930
ô	-9931
ī	-9932
ı	-9933
ŏ	-9934
ś	-9935
Š	-9936
ʀ	-9937
ʼ	-9938
Α	-9939
Η	-9940
ν	-9941
ο	-9942
џ	-9943
ғ	-9944
▲	-9945
⚽	-9946
️	-9947
¤	-9948
¥	-9949
§	-9950
Ë	-9951
ß	-9952
á	-9953
ø	-9954
ā	-9955
ę	-9956
İ	-9957
Ł	-9958
ń	-9959
ş	-9960
š	-9961
̈	-9962
̊	-9963
Έ	-9964
Γ	-9965
Σ	-9966
έ	-9967
λ	-9968
ρ	-9969
τ	-9970
χ	-9971
ώ	-9972
Є	-9973
Ї	-9974
Қ	-9975
ҳ	-9976
ӣ	-9977
∙	-9978
⋅	-9979
─	-9980
►	-9981
●	-9982
☃	-9983
☝	-9984
♫	-9985
❄	-9986
《	-9987
》	-9988
	-9989
🌞	-9990
🍺	-9991
🎂	-9992
🐅	-9993
🐗	-9994
🐺	-9995
💪	-9996
