<unk>	0
<s>	0
</s>	0
,	-3.30742
.	-3.61477
а	-3.72662
▁в	-3.84539
▁	-3.95081
е	-4.18072
▁и	-4.39354
▁на	-4.55578
и	-4.56939
▁с	-4.60212
у	-4.74752
▁"	-4.8089
ы	-4.85251
м	-4.87359
▁по	-4.87929
о	-4.95093
▁не	-5.04804
ов	-5.09223
▁-	-5.10092
-	-5.17129
▁что	-5.29217
с	-5.3453
"	-5.35551
х	-5.35919
й	-5.43322
▁за	-5.45273
ом	-5.46753
▁В	-5.48078
▁о	-5.53804
я	-5.5702
в	-5.57185
▁у	-5.6319
ой	-5.69218
▁к	-5.69323
т	-5.8077
▁из	-5.81997
▁от	-5.82424
:	-5.84262
д	-5.91395
к	-5.91709
но	-5.98291
▁при	-6.01166
з	-6.02607
",	-6.02836
л	-6.06417
ли	-6.08547
▁С	-6.10209
ка	-6.10958
ки	-6.11005
ия	-6.11119
▁(	-6.14954
н	-6.15085
ш	-6.17412
▁а	-6.19752
ся	-6.20446
▁до	-6.22144
го	-6.22152
ных	-6.2334
ла	-6.24374
ет	-6.25295
на	-6.26567
▁про	-6.2764
ого	-6.28668
ст	-6.29323
▁вы	-6.32453
▁По	-6.32953
ной	-6.35385
▁как	-6.36004
▁для	-6.37712
ч	-6.38258
ю	-6.38402
ем	-6.38835
п	-6.42054
".	-6.42895
ло	-6.444
то	-6.4512
ами	-6.45352
р	-6.47343
▁под	-6.48418
ей	-6.49205
ж	-6.49587
▁года	-6.50884
ам	-6.51063
ь	-6.51321
▁об	-6.52098
▁А	-6.52308
▁раз	-6.53845
ного	-6.54224
ные	-6.55284
ии	-6.55591
ых	-6.56116
ный	-6.56411
ах	-6.57548
ку	-6.5842
▁России	-6.58583
ие	-6.59077
▁со	-6.60042
г	-6.62173
ить	-6.62393
ий	-6.63726
▁это	-6.65613
▁его	-6.67929
ть	-6.68548
б	-6.69186
С	-6.70117
ая	-6.72779
ля	-6.74099
да	-6.75393
▁но	-6.75678
▁На	-6.76672
ый	-6.77803
▁он	-6.78405
ра	-6.78783
им	-6.78925
▁пере	-6.79383
за	-6.79706
ит	-6.80231
ми	-6.82907
ль	-6.84551
не	-6.87529
та	-6.88003
ти	-6.88834
ни	-6.90178
▁И	-6.91111
ва	-6.92274
)	-6.92299
ок	-6.9251
ен	-6.92613
▁этом	-6.92734
▁все	-6.93275
ар	-6.94386
▁К	-6.96391
ые	-6.96579
ской	-6.97072
ил	-6.98377
ри	-6.98665
К	-6.99259
▁то	-6.99718
▁будет	-7.00174
ле	-7.0069
ал	-7.02943
▁году	-7.04027
вер	-7.04378
А	-7.04401
ать	-7.04961
▁же	-7.05223
ую	-7.0538
ф	-7.06221
де	-7.07318
ков	-7.07483
тор	-7.07573
ным	-7.07615
▁также	-7.07771
▁во	-7.07856
ер	-7.08495
ке	-7.08509
ко	-7.09089
ру	-7.0917
ского	-7.09494
их	-7.10065
▁г	-7.11632
▁п	-7.13444
он	-7.13541
ная	-7.13592
▁Д	-7.13711
ча	-7.13976
че	-7.14931
П	-7.14985
ор	-7.15987
ется	-7.16123
2	-7.16181
ную	-7.16188
▁уже	-7.16639
ию	-7.16972
▁был	-7.17019
▁П	-7.17185
ение	-7.17408
▁так	-7.1758
3	-7.19299
▁У	-7.19486
▁О	-7.19605
по	-7.19809
e	-7.20016
ят	-7.20377
5	-7.20386
мен	-7.20969
ро	-7.22108
▁было	-7.22516
ют	-7.22562
му	-7.22671
ин	-7.23089
чи	-7.23791
ан	-7.24667
ви	-7.25644
▁время	-7.25729
сти	-7.25951
пи	-7.26185
▁которые	-7.26513
▁Г	-7.29372
ое	-7.30283
▁после	-7.3043
ым	-7.31078
ения	-7.32011
М	-7.32033
▁том	-7.32819
те	-7.32912
или	-7.3359
▁ли	-7.33975
О	-7.34134
0	-7.34323
▁заявил	-7.34369
7	-7.34736
Р	-7.35265
▁мы	-7.35363
ев	-7.35699
?	-7.36119
ное	-7.36156
▁лет	-7.36617
В	-7.36702
4	-7.37095
ский	-7.37262
▁только	-7.38391
жи	-7.38488
га	-7.3877
ги	-7.39267
ос	-7.39355
ном	-7.39594
▁ре	-7.39611
▁США	-7.40472
▁Но	-7.40561
▁еще	-7.4066
6	-7.4066
▁3	-7.40902
▁их	-7.41333
тель	-7.41693
лен	-7.42035
▁рас	-7.42818
▁того	-7.43066
▁я	-7.43291
▁может	-7.44432
▁1	-7.44473
Н	-7.45157
▁Ф	-7.45398
▁или	-7.45803
▁более	-7.45895
o	-7.4615
8	-7.46296
▁Как	-7.46726
об	-7.46882
лов	-7.47675
9	-7.47776
ба	-7.48491
али	-7.48527
от	-7.48574
▁чтобы	-7.4902
).	-7.49266
1	-7.49526
▁За	-7.50573
▁бы	-7.51155
a	-7.51672
▁пре	-7.51776
s	-7.52262
▁были	-7.5279
▁который	-7.52801
ний	-7.52981
Б	-7.53104
лся	-7.53609
▁суд	-7.54196
ты	-7.54463
ство	-7.54575
из	-7.547
▁ее	-7.5487
ци	-7.54997
ход	-7.55821
▁При	-7.56115
▁19	-7.56482
▁РФ	-7.56883
▁они	-7.57315
ться	-7.57464
во	-7.5751
ста	-7.5793
▁м	-7.58336
▁человек	-7.58429
▁пред	-7.58479
▁ко	-7.59198
прав	-7.59677
▁Б	-7.60005
до	-7.60025
же	-7.60514
▁Об	-7.60556
ма	-7.60681
ол	-7.61055
ских	-7.61185
▁де	-7.61301
вод	-7.62043
ров	-7.62295
ре	-7.63672
Т	-7.63906
ат	-7.63952
ц	-7.64271
дер	-7.64377
▁М	-7.64947
ду	-7.65636
ут	-7.658
i	-7.65819
▁Ш	-7.65923
▁Я	-7.6602
ник	-7.66763
ком	-7.66866
ня	-7.66899
кр	-7.67153
▁есть	-7.68419
Д	-7.6849
▁Т	-7.68519
▁Это	-7.68901
лись	-7.69429
),	-7.69447
жд	-7.69879
▁этого	-7.714
ности	-7.71638
ель	-7.71649
ны	-7.71833
вы	-7.7185
▁4	-7.72244
ными	-7.72413
▁прав	-7.72874
ди	-7.7304
▁словам	-7.73482
▁руб	-7.73641
▁стран	-7.74367
тер	-7.74445
лет	-7.74722
э	-7.75109
▁тем	-7.7516
ну	-7.75179
би	-7.75356
▁без	-7.75694
▁2016	-7.77183
ше	-7.77228
ются	-7.77283
▁области	-7.77362
нов	-7.7785
И	-7.7834
зна	-7.79136
▁5	-7.79552
▁ф	-7.8015
▁млн	-7.80983
вал	-7.81027
Ф	-7.81511
▁2015	-7.81647
кой	-7.81815
Г	-7.82387
ении	-7.82476
▁кон	-7.82661
ел	-7.83006
ность	-7.8304
▁Не	-7.8353
лась	-7.83595
▁чем	-7.83632
▁если	-7.84187
▁будут	-7.84262
▁Ка	-7.84404
▁против	-7.84879
ур	-7.84965
ает	-7.85035
▁7	-7.85096
стр	-7.85226
t	-7.85458
ним	-7.85462
цен	-7.85761
▁сообщил	-7.85807
жен	-7.85895
▁сказал	-7.85974
ца	-7.86321
▁Р	-7.86492
▁Он	-7.86639
ща	-7.86653
ту	-7.87497
▁мо	-7.87555
со	-7.88018
ская	-7.88081
▁ш	-7.88184
▁когда	-7.88381
▁Владимир	-7.88537
▁год	-7.88587
оз	-7.88706
00	-7.88753
мер	-7.88778
итель	-7.8896
ском	-7.8928
▁ни	-7.8968
ве	-7.89966
▁6	-7.90131
ив	-7.90167
▁нас	-7.90236
▁рублей	-7.90304
▁была	-7.90333
▁можно	-7.9052
▁глав	-7.9071
▁быть	-7.91002
сть	-7.91061
си	-7.91412
па	-7.91429
▁отметил	-7.92762
▁очень	-7.92869
▁она	-7.93131
▁где	-7.93457
▁2	-7.93979
ис	-7.93999
са	-7.94032
ировать	-7.94838
вед	-7.94901
▁млрд	-7.94938
▁страны	-7.95153
▁компании	-7.95186
▁Э	-7.95191
▁20	-7.95364
ры	-7.95404
ции	-7.95633
▁президент	-7.96135
щ	-7.96138
▁Е	-7.96787
У	-7.97244
▁Ч	-7.97279
ские	-7.97587
▁сообщает	-7.97749
ации	-7.97889
▁один	-7.98096
▁б	-7.98115
сп	-7.98468
иль	-7.987
ние	-7.99533
лось	-7.99611
лю	-7.99857
▁них	-8.00336
▁вопрос	-8.0043
раж	-8.00594
▁ма	-8.00882
▁10	-8.01076
уб	-8.01078
след	-8.01482
▁план	-8.01555
ист	-8.01669
ция	-8.01738
ния	-8.02395
▁те	-8.02462
вать	-8.0262
ина	-8.02749
ства	-8.03062
▁пол	-8.03154
дел	-8.03191
u	-8.03389
род	-8.03844
зи	-8.0416
ск	-8.04236
тра	-8.04266
бор	-8.04317
ус	-8.04393
се	-8.04641
▁мест	-8.05147
тов	-8.05159
ают	-8.05178
чен	-8.05601
цион	-8.05616
▁больше	-8.05756
про	-8.0596
p	-8.06172
ru	-8.06467
▁граждан	-8.06586
▁Ма	-8.06625
ож	-8.06764
ова	-8.06932
сс	-8.07133
▁Александр	-8.07144
▁тыс	-8.07573
▁д	-8.07619
жа	-8.07747
▁Путин	-8.07778
ша	-8.07876
▁данным	-8.08194
Ъ	-8.09226
▁цен	-8.094
Л	-8.09451
ирован	-8.09566
▁даже	-8.09716
▁Ко	-8.09935
d	-8.10311
тели	-8.10314
▁т	-8.10447
ман	-8.1087
нес	-8.12586
бер	-8.12631
▁могут	-8.12643
▁друг	-8.12649
ши	-8.12816
▁Так	-8.12963
▁э	-8.13192
ред	-8.13446
▁состав	-8.1348
порт	-8.13744
бы	-8.1409
▁два	-8.14393
при	-8.14638
дин	-8.14817
▁Х	-8.14837
▁закон	-8.14845
▁рассказал	-8.15152
ян	-8.15178
▁проект	-8.15441
аль	-8.15561
▁8	-8.15581
ней	-8.15769
▁Россия	-8.15899
▁сейчас	-8.16002
▁пресс	-8.16047
пер	-8.16074
▁всего	-8.16325
▁игр	-8.16741
ир	-8.16787
▁Украины	-8.16815
станов	-8.16922
оп	-8.17109
кон	-8.17633
бо	-8.1786
▁воз	-8.18173
мет	-8.18383
▁им	-8.18385
лу	-8.18464
▁этот	-8.18594
▁нет	-8.18708
▁город	-8.19044
ости	-8.19097
▁которая	-8.19185
▁дела	-8.19233
гла	-8.19437
теля	-8.19564
▁несколько	-8.19684
▁президента	-8.19973
▁около	-8.19975
пол	-8.19979
▁вид	-8.20283
овой	-8.20554
▁перед	-8.2086
▁документ	-8.21413
ому	-8.21436
▁решение	-8.21523
▁да	-8.21686
▁Ранее	-8.21753
▁S	-8.21756
▁много	-8.21827
шен	-8.22399
▁Во	-8.2261
бр	-8.2381
g	-8.23861
рат	-8.23976
вали	-8.241
ыми	-8.24204
▁оста	-8.24217
гу	-8.24259
▁всех	-8.24521
!	-8.24536
тив	-8.24861
l	-8.25181
ием	-8.25464
рав	-8.25488
m	-8.25723
кс	-8.2576
▁три	-8.25879
er	-8.25907
цы	-8.26161
ец	-8.26183
▁9	-8.26303
▁тысяч	-8.26448
бу	-8.26654
щи	-8.26783
▁которых	-8.26789
▁До	-8.26846
▁Мы	-8.26904
y	-8.26931
▁числе	-8.27194
▁Про	-8.27327
▁пока	-8.27532
▁является	-8.27534
пад	-8.27579
оль	-8.27608
▁между	-8.28035
▁мир	-8.28043
▁момент	-8.28168
ления	-8.28324
раз	-8.28472
зы	-8.28909
стра	-8.28977
ика	-8.29638
вид	-8.30097
▁Со	-8.30229
▁совет	-8.30389
▁З	-8.30583
куп	-8.30681
▁себя	-8.30899
ания	-8.31076
▁Ж	-8.31077
лог	-8.31151
шли	-8.31216
▁гос	-8.31251
работ	-8.31391
дан	-8.31584
ила	-8.31972
▁этой	-8.32014
▁з	-8.32078
ников	-8.32147
стро	-8.32419
через	-8.32433
b	-8.32469
год	-8.32542
▁Ан	-8.32651
▁сегодня	-8.32673
▁15	-8.32874
▁200	-8.32955
ится	-8.33165
ряд	-8.33468
▁Сирии	-8.3349
▁побед	-8.33562
▁двух	-8.33654
▁Однако	-8.33818
▁Ли	-8.33891
▁C	-8.33977
▁Н	-8.34355
ран	-8.34672
▁групп	-8.3469
▁свою	-8.35231
▁города	-8.35258
луч	-8.35423
▁тр	-8.35565
▁Ба	-8.35605
обра	-8.35637
▁кто	-8.35892
ству	-8.35943
▁день	-8.36355
ось	-8.36363
▁ди	-8.36372
су	-8.36481
▁команд	-8.36598
▁готов	-8.366
лад	-8.36617
▁передает	-8.36697
вин	-8.36811
▁счет	-8.36817
▁ст	-8.36892
гра	-8.37062
фе	-8.37173
▁случае	-8.37312
...	-8.37419
ись	-8.3761
ид	-8.37622
тен	-8.37758
ья	-8.37764
▁лиц	-8.38064
ды	-8.38241
k	-8.3828
од	-8.38503
фи	-8.38691
▁12	-8.38882
▁систем	-8.39022
ющих	-8.39472
▁цел	-8.396
▁A	-8.396
▁Кроме	-8.39624
▁пар	-8.39744
c	-8.39894
h	-8.40195
тур	-8.40228
▁стал	-8.40256
цев	-8.40815
▁власти	-8.40994
шел	-8.41014
▁над	-8.41167
ге	-8.415
▁директор	-8.41714
▁глава	-8.42044
▁сам	-8.4235
иться	-8.42745
цию	-8.42747
▁Москве	-8.42765
▁место	-8.42795
▁Если	-8.4293
▁дом	-8.43133
уш	-8.43198
ющие	-8.43388
▁стать	-8.44127
▁Да	-8.44196
▁интерес	-8.44236
пе	-8.44448
лин	-8.44695
▁эти	-8.44818
пл	-8.45095
▁своей	-8.45115
▁2014	-8.45278
бли	-8.45565
лич	-8.45763
/	-8.45779
рез	-8.45833
рен	-8.45957
▁бо	-8.46018
ация	-8.46234
ление	-8.46337
▁должны	-8.46384
A	-8.46404
▁считает	-8.46423
уп	-8.46582
▁меня	-8.4667
▁результате	-8.46767
▁банк	-8.46827
▁Lenta	-8.46898
▁проблем	-8.47015
пас	-8.47116
ально	-8.47286
пор	-8.47352
▁ар	-8.4747
Э	-8.47571
▁дело	-8.47677
▁работы	-8.47707
уд	-8.4824
иц	-8.48408
лей	-8.48644
рус	-8.4916
овых	-8.49223
ению	-8.49257
w	-8.49271
▁Па	-8.49288
ировал	-8.49367
▁просто	-8.4955
▁которой	-8.4956
▁направлен	-8.49595
сел	-8.49628
▁Сергей	-8.49801
ева	-8.49889
I	-8.50117
ала	-8.50128
▁лидер	-8.50362
▁кор	-8.50664
▁стороны	-8.5074
▁получил	-8.50775
0%	-8.50791
▁безопасности	-8.50868
▁газ	-8.51089
▁Ц	-8.51181
нию	-8.51457
щен	-8.51526
▁людей	-8.51603
▁Ле	-8.51633
ик	-8.51895
ря	-8.52004
▁связи	-8.52013
▁P	-8.5203
20	-8.52237
ще	-8.52316
▁кредит	-8.52503
an	-8.52542
ость	-8.5258
▁ему	-8.52643
▁авиа	-8.52786
ек	-8.52788
▁па	-8.52791
▁Из	-8.52812
ника	-8.52937
тро	-8.53029
▁тур	-8.53059
нд	-8.53059
▁СМИ	-8.53089
▁Де	-8.53124
v	-8.53188
▁продолж	-8.53302
▁других	-8.53366
▁После	-8.53393
▁Ку	-8.54018
ному	-8.54236
ант	-8.54379
▁мед	-8.54591
▁Мо	-8.54714
▁18	-8.54847
еж	-8.54903
ики	-8.54989
▁финансов	-8.55155
ски	-8.55308
▁начал	-8.55349
▁Ре	-8.55396
ar	-8.55597
ган	-8.55656
ими	-8.55697
▁ранее	-8.55788
лек	-8.55819
чет	-8.56067
ющий	-8.56078
▁Напомним	-8.56127
▁F	-8.56161
рас	-8.56266
▁территории	-8.56902
▁Ме	-8.5691
мы	-8.57227
▁депутат	-8.57591
▁авто	-8.57648
▁обо	-8.57748
чу	-8.57812
▁причин	-8.57864
▁часть	-8.5792
лон	-8.57939
ью	-8.57995
▁источник	-8.58048
▁свои	-8.58107
▁стар	-8.58202
▁дорог	-8.58228
▁11	-8.58434
▁дел	-8.58455
▁самолет	-8.5851
▁семь	-8.58535
▁жизни	-8.58627
воз	-8.58653
аться	-8.58805
ась	-8.5887
S	-8.59006
▁вод	-8.59019
ент	-8.59281
лы	-8.59384
▁То	-8.59449
▁труд	-8.59891
езд	-8.59988
▁участие	-8.60114
▁конце	-8.60163
▁него	-8.60237
▁марта	-8.60297
▁говорит	-8.60513
▁30	-8.60653
▁организации	-8.60663
дов	-8.60674
▁мира	-8.60697
▁гор	-8.60839
▁женщин	-8.60866
▁американск	-8.60889
▁нужно	-8.61191
▁ч	-8.61282
рит	-8.61495
кор	-8.61545
▁орган	-8.6158
▁дома	-8.61671
▁ходе	-8.61817
▁пост	-8.61824
▁российских	-8.61842
▁которого	-8.61842
▁лишь	-8.61898
▁От	-8.61943
енко	-8.61947
▁мнению	-8.61967
вет	-8.62085
▁ново	-8.62096
дет	-8.62239
▁тех	-8.6234
бе	-8.62391
▁торгов	-8.62413
n	-8.62471
▁фильм	-8.62554
▁Мин	-8.62632
▁B	-8.62632
ице	-8.62789
др	-8.62815
▁Сам	-8.6292
▁компания	-8.62955
ился	-8.6302
сы	-8.63236
▁M	-8.63369
вести	-8.63419
кин	-8.63426
мин	-8.63525
▁актив	-8.63723
▁срок	-8.63827
сад	-8.6389
▁сил	-8.63982
дум	-8.64202
тар	-8.64453
▁долг	-8.64462
▁экс	-8.64618
▁Все	-8.64639
▁своих	-8.64781
▁Ар	-8.64973
ники	-8.65033
▁человека	-8.65047
▁форм	-8.6509
▁Кар	-8.65099
▁министр	-8.65142
▁эконом	-8.65212
▁кандидат	-8.65276
;	-8.65332
▁там	-8.65418
клю	-8.65419
смотр	-8.65444
ска	-8.65481
▁Москвы	-8.65502
рев	-8.6566
▁открыт	-8.65865
▁Также	-8.66097
▁стало	-8.66424
▁состоя	-8.66443
ывает	-8.66448
▁Новости	-8.66722
дар	-8.6674
▁программ	-8.67178
ским	-8.67268
раб	-8.67375
▁период	-8.67614
▁Л	-8.67642
▁почти	-8.6774
▁господин	-8.67787
▁транспорт	-8.67973
▁связан	-8.68137
▁та	-8.68137
нее	-8.68155
▁сторон	-8.68284
его	-8.68323
▁политик	-8.68337
▁мог	-8.68413
телей	-8.68585
▁мор	-8.6875
пло	-8.68878
▁отношении	-8.68949
or	-8.68966
суд	-8.69087
▁Дж	-8.6919
явлен	-8.6923
▁Ни	-8.69331
▁средств	-8.69343
▁партии	-8.69421
нова	-8.69451
on	-8.69477
▁объем	-8.69595
▁ТАСС	-8.69749
рак	-8.6986
ании	-8.69943
▁14	-8.70012
ается	-8.70031
прос	-8.70337
▁13	-8.70384
▁именно	-8.70532
▁государственн	-8.70633
зов	-8.70705
▁котором	-8.70782
дать	-8.70887
нос	-8.71062
▁само	-8.71079
вар	-8.71138
▁детей	-8.71142
ями	-8.71154
▁17	-8.71224
▁мин	-8.71271
▁ряд	-8.71304
▁0	-8.71327
▁16	-8.71339
енных	-8.71374
▁ста	-8.71389
це	-8.71439
потреб	-8.71513
министр	-8.71589
▁сер	-8.7162
▁выход	-8.71671
лав	-8.71679
мент	-8.71734
▁Сегодня	-8.71796
мир	-8.71805
in	-8.71863
▁бизнес	-8.72019
стат	-8.72041
фор	-8.72106
ительно	-8.72154
▁Че	-8.7228
▁фонд	-8.72372
▁процесс	-8.7246
вший	-8.72527
вен	-8.72756
▁люди	-8.72764
очно	-8.72848
▁иск	-8.72881
ание	-8.72994
стве	-8.73089
▁рук	-8.73124
сь	-8.73224
овать	-8.73285
▁апреля	-8.73311
нут	-8.73557
▁пер	-8.7356
▁Ра	-8.7382
▁сентября	-8.73985
ены	-8.74
ками	-8.74014
▁способ	-8.74032
▁говорится	-8.74037
рт	-8.74042
▁однако	-8.74163
▁право	-8.74292
▁известно	-8.74327
▁Дмитрий	-8.74563
ового	-8.74586
▁баз	-8.74672
дж	-8.7492
ул	-8.74963
стан	-8.74999
гре	-8.75083
оло	-8.75101
лев	-8.75172
▁премьер	-8.75178
▁един	-8.75229
T	-8.75319
▁25	-8.75495
▁стране	-8.75646
▁клуб	-8.75732
бра	-8.75748
овые	-8.75977
ье	-8.75982
▁результат	-8.76062
▁народ	-8.76066
жал	-8.76332
▁главы	-8.76334
▁договор	-8.76478
▁россиян	-8.76538
▁показ	-8.76887
▁представитель	-8.7689
▁стали	-8.76988
▁рамках	-8.77044
C	-8.77053
▁мужчин	-8.7718
▁правительства	-8.77425
нер	-8.77508
▁должен	-8.77554
▁государства	-8.77657
инг	-8.77665
▁Ми	-8.77695
люб	-8.77728
стей	-8.77809
нь	-8.77844
енд	-8.77857
изм	-8.77957
▁задержан	-8.78641
▁L	-8.78679
▁создан	-8.78729
лан	-8.78795
▁Те	-8.78912
▁занима	-8.78922
▁тре	-8.79242
▁режим	-8.79487
чит	-8.79679
мат	-8.79749
вшего	-8.79851
мест	-8.79859
▁сообщили	-8.79942
сси	-8.80267
ели	-8.80284
f	-8.8046
▁Га	-8.80513
вяз	-8.8062
▁созда	-8.80654
ун	-8.80671
ован	-8.80984
▁стро	-8.81053
говор	-8.81122
▁2017	-8.81133
лив	-8.81207
▁всем	-8.81404
▁февраля	-8.8145
▁Мар	-8.81515
▁стол	-8.81561
▁одной	-8.81607
▁мер	-8.81622
▁T	-8.81878
▁Ха	-8.81998
Х	-8.82067
пре	-8.82221
кар	-8.82231
чер	-8.82253
ились	-8.82467
скую	-8.82555
▁идет	-8.82633
▁рост	-8.8267
рыв	-8.82696
▁бюджет	-8.82697
▁общественн	-8.82719
ван	-8.82724
кий	-8.82991
ывают	-8.8308
▁образом	-8.83102
▁менее	-8.83124
мон	-8.83189
▁мне	-8.83195
ование	-8.83237
▁необходимо	-8.83483
ден	-8.83532
▁одного	-8.83571
▁недо	-8.83613
▁центр	-8.83641
▁R	-8.83699
▁декабря	-8.83864
▁доход	-8.83908
▁времени	-8.83997
▁ноября	-8.84
ируют	-8.84015
▁Вы	-8.84189
▁международн	-8.84363
фер	-8.84552
▁октября	-8.84613
al	-8.84619
▁развития	-8.84682
ъ	-8.84909
▁принял	-8.85076
лез	-8.85078
▁информации	-8.85162
ющим	-8.85267
▁Они	-8.85338
бира	-8.85409
▁назад	-8.85668
▁Бо	-8.85731
▁ран	-8.85761
▁обще	-8.85912
щих	-8.85939
том	-8.85991
5%	-8.86203
ирует	-8.86281
▁возможность	-8.86316
▁ответ	-8.8633
фик	-8.86343
ень	-8.86459
▁января	-8.86476
град	-8.86584
ятся	-8.86598
Петербург	-8.86686
ест	-8.86887
▁такой	-8.87044
▁другие	-8.8722
▁работа	-8.87281
ич	-8.87336
▁No	-8.87576
▁части	-8.87616
▁мая	-8.88087
▁этих	-8.88399
▁G	-8.88461
▁чемпионат	-8.88475
▁украин	-8.88526
▁действия	-8.8866
анс	-8.88671
▁себе	-8.88683
▁добавил	-8.88731
▁управления	-8.88731
▁член	-8.89221
▁российского	-8.89233
чин	-8.8948
рь	-8.89628
ват	-8.89703
▁Бел	-8.89768
▁Сейчас	-8.90022
▁следующ	-8.90101
▁ЕС	-8.90118
тин	-8.90198
▁Кр	-8.90476
иков	-8.90652
")	-8.90686
нять	-8.90701
ывать	-8.90773
▁подчеркнул	-8.90819
▁Турции	-8.90819
ское	-8.90837
▁наш	-8.91068
▁став	-8.91069
▁две	-8.91152
▁трех	-8.9118
▁первый	-8.9133
▁работу	-8.91339
▁Рос	-8.91406
▁машин	-8.91538
▁долларов	-8.91677
▁22	-8.9171
▁получен	-8.91727
▁Киев	-8.91737
ско	-8.91741
охран	-8.91804
▁среди	-8.91845
тан	-8.91903
▁прос	-8.9193
▁слова	-8.91973
▁тот	-8.91995
▁свой	-8.92029
▁тоже	-8.92131
▁эксперт	-8.92169
▁потому	-8.92209
▁верну	-8.92307
ической	-8.92359
гро	-8.92405
вших	-8.9249
вест	-8.92876
▁региона	-8.92925
▁намерен	-8.93027
сылкой	-8.931
рон	-8.93128
▁частности	-8.9314
гор	-8.9348
▁боль	-8.93496
шего	-8.93517
▁назвал	-8.93525
▁удалось	-8.93549
▁составил	-8.93602
▁Ис	-8.93662
▁сбор	-8.93669
▁пе	-8.9374
гер	-8.93988
енный	-8.94021
▁Бу	-8.94031
▁возможно	-8.94324
руд	-8.94386
▁РИА	-8.94387
r	-8.94519
▁сообщ	-8.94642
▁течение	-8.94676
кова	-8.94808
беж	-8.94827
▁Под	-8.94862
en	-8.94896
▁ситуации	-8.94978
лом	-8.95003
▁рынка	-8.95054
▁своего	-8.95096
луж	-8.95149
кам	-8.95352
нц	-8.95606
зер	-8.95623
▁которое	-8.95664
лит	-8.95681
▁районе	-8.95685
▁24	-8.9571
▁этим	-8.958
▁матч	-8.9592
нул	-8.95939
ите	-8.95969
▁пор	-8.961
▁взрыв	-8.96206
P	-8.96225
▁сезон	-8.96276
▁надо	-8.96341
ках	-8.96427
▁тогда	-8.96431
ацию	-8.96486
▁решил	-8.96495
бит	-8.9659
▁дня	-8.96792
▁Ла	-8.96799
леч	-8.96802
▁здесь	-8.96815
жн	-8.96817
▁очередь	-8.96893
цов	-8.97015
it	-8.97253
▁эта	-8.97347
ниц	-8.97495
аций	-8.97698
Ч	-8.97757
▁21	-8.97766
▁времен	-8.98123
Е	-8.9814
акт	-8.98268
▁вместе	-8.98334
нуть	-8.98396
▁нового	-8.98423
эт	-8.98585
▁жил	-8.98651
▁группы	-8.98666
бед	-8.98746
ставил	-8.98916
▁мар	-8.9895
сен	-8.99031
блюд	-8.99052
▁свое	-8.99544
▁Кон	-8.99624
▁качестве	-8.99668
▁круп	-8.9968
▁полиции	-8.99721
▁деньги	-8.99752
▁встреч	-8.99774
▁Та	-8.99833
ший	-8.99857
▁треть	-8.99971
▁начала	-9.00022
▁теперь	-9.00114
пт	-9.00138
▁спортсмен	-9.00194
принима	-9.00247
З	-9.00279
▁кино	-9.00296
стью	-9.00371
▁комплекс	-9.00434
уль	-9.0045
▁находится	-9.00527
под	-9.00686
▁отказ	-9.00687
▁Ю	-9.00699
чита	-9.0073
▁виде	-9.00771
ших	-9.00853
▁журналист	-9.00856
B	-9.012
пы	-9.01298
чных	-9.01339
ланд	-9.01476
щик	-9.01515
▁кол	-9.01615
защит	-9.01623
дут	-9.01666
▁Мурманск	-9.01723
▁минут	-9.01825
▁Петр	-9.01843
▁своем	-9.02042
аются	-9.02052
альной	-9.02082
▁сразу	-9.0223
стрел	-9.023
at	-9.0232
▁стоит	-9.02376
чения	-9.02447
▁роди	-9.02492
▁Му	-9.02536
▁Президент	-9.0262
руч	-9.0284
▁част	-9.02888
ществ	-9.03067
▁специалист	-9.03112
▁системы	-9.03181
▁отдел	-9.03212
▁эту	-9.03234
ования	-9.03236
предел	-9.0336
▁уровне	-9.03369
▁границ	-9.03376
истов	-9.03491
ического	-9.03596
▁Михаил	-9.03607
изации	-9.03666
орож	-9.03719
▁всегда	-9.03774
▁ним	-9.04019
▁жив	-9.04078
нг	-9.04095
тся	-9.04211
▁таких	-9.04328
▁пояснил	-9.0444
▁пункт	-9.04771
▁пыта	-9.04793
Ц	-9.04809
▁новых	-9.05048
щего	-9.052
▁50	-9.05311
▁своим	-9.05418
▁услуг	-9.05443
▁уверен	-9.05471
чик	-9.05485
строй	-9.05522
чные	-9.05836
▁прошлого	-9.05842
▁конфликт	-9.05865
▁стала	-9.05938
▁лучше	-9.05974
▁подобн	-9.0613
рем	-9.06147
▁военно	-9.06168
-2	-9.06217
рис	-9.06543
▁российской	-9.06548
рос	-9.06607
гар	-9.06766
ходит	-9.06778
▁структур	-9.06885
пут	-9.06902
▁комитета	-9.06937
▁установлен	-9.07038
▁Сер	-9.07062
енные	-9.07082
▁E	-9.07106
es	-9.07263
▁которым	-9.07316
▁евро	-9.07326
▁квартир	-9.07399
▁видео	-9.07407
▁банков	-9.0742
▁вот	-9.07553
щий	-9.07563
▁агентство	-9.07609
▁социальн	-9.07624
ировали	-9.07625
▁сделать	-9.07659
ведения	-9.07731
▁заключен	-9.07752
▁одно	-9.07759
▁курс	-9.07823
▁решения	-9.07831
▁имеет	-9.07966
▁23	-9.07997
▁партнер	-9.08002
▁I	-9.08035
ических	-9.08113
двига	-9.08369
▁Алексей	-9.08479
ходят	-9.08487
коп	-9.0862
дель	-9.08712
кан	-9.08984
▁дополнительн	-9.09044
▁последние	-9.09132
быт	-9.09164
▁чего	-9.09199
▁итогам	-9.09306
▁назначен	-9.09446
лер	-9.09479
▁общ	-9.09489
▁автор	-9.09676
поль	-9.09865
ваться	-9.10037
▁конечно	-9.10097
▁лично	-9.10207
ирования	-9.10339
ует	-9.10377
▁100	-9.10419
▁отношения	-9.1045
кер	-9.10474
уют	-9.10494
▁D	-9.10502
ять	-9.10528
боль	-9.10537
▁начале	-9.10544
стер	-9.10578
летний	-9.1061
▁интернет	-9.10628
▁норм	-9.10658
дал	-9.10679
el	-9.1071
ню	-9.10725
▁августа	-9.10805
▁рынке	-9.10805
мисс	-9.10925
▁помог	-9.10987
▁например	-9.11073
▁месте	-9.11088
▁существ	-9.11095
▁годы	-9.11118
вшие	-9.11155
▁деятельности	-9.11161
▁Кор	-9.11254
чный	-9.11325
▁работ	-9.11397
16	-9.11463
-20	-9.11499
▁объект	-9.11528
▁зон	-9.1157
▁сайте	-9.11621
▁хотя	-9.11665
▁количество	-9.11797
▁МВД	-9.11877
печат	-9.11891
нич	-9.11892
▁правительство	-9.11967
▁материал	-9.11987
нского	-9.1206
▁Север	-9.12177
▁ракет	-9.12335
▁бу	-9.12336
▁Су	-9.12343
По	-9.12387
▁меньше	-9.12418
▁Новы	-9.1244
▁террорист	-9.12482
▁аэропорт	-9.12508
▁жизнь	-9.12598
банк	-9.12726
нем	-9.12729
▁участник	-9.12891
овым	-9.12925
re	-9.12964
N	-9.12977
▁рек	-9.13098
▁Что	-9.13428
▁определен	-9.13465
▁Ту	-9.13475
▁удар	-9.13513
▁деле	-9.13519
▁повышен	-9.13601
▁молод	-9.1362
▁МИД	-9.1369
▁поэтому	-9.1369
▁образ	-9.13773
▁теле	-9.13783
ального	-9.13856
нения	-9.13956
▁нефти	-9.1397
Я	-9.13997
▁прогноз	-9.14056
игр	-9.14072
▁доступ	-9.14149
▁тер	-9.14192
▁взят	-9.14214
енным	-9.14228
▁пять	-9.14297
инов	-9.14312
шим	-9.14387
три	-9.14556
шин	-9.14605
рок	-9.14648
▁начина	-9.14686
▁запрет	-9.14716
▁второй	-9.14759
полне	-9.14778
нской	-9.14831
▁задач	-9.14853
▁28	-9.14889
▁новый	-9.14902
▁отмечает	-9.14957
▁ради	-9.15052
▁которую	-9.15071
▁гол	-9.15371
щей	-9.15373
▁бр	-9.15475
▁H	-9.15501
▁район	-9.1568
M	-9.15695
▁Ро	-9.15704
▁Его	-9.1601
ично	-9.16176
▁Российско	-9.16284
▁конкурс	-9.16284
ген	-9.163
▁собственно	-9.16378
▁вырос	-9.16399
бил	-9.16429
▁угроз	-9.16479
вание	-9.16537
▁карт	-9.16556
▁бес	-9.16733
▁мало	-9.16912
▁считают	-9.16981
▁должна	-9.17037
▁проекта	-9.17074
▁скоро	-9.17152
▁городе	-9.17157
▁признал	-9.17218
щения	-9.17404
▁московск	-9.17417
▁новые	-9.17443
▁средне	-9.17462
▁W	-9.17511
▁внимание	-9.17512
▁близ	-9.17525
▁факт	-9.17631
▁хорош	-9.17659
▁настоящее	-9.17892
▁лег	-9.17974
▁пожар	-9.18083
ителей	-9.18103
▁июля	-9.18125
▁Россию	-9.18179
реш	-9.18198
▁Глав	-9.18232
▁компаний	-9.18232
пен	-9.1827
нев	-9.18299
▁Она	-9.18344
▁средства	-9.1848
▁чиновник	-9.18562
ющего	-9.18648
▁подозрева	-9.18754
▁принят	-9.18841
▁такие	-9.18874
▁четыре	-9.18956
F	-9.1898
▁опер	-9.19084
▁Ал	-9.19128
▁продаж	-9.19195
▁помощи	-9.19236
▁одном	-9.19283
граф	-9.19291
▁банка	-9.19298
▁Трамп	-9.19357
ивают	-9.19391
▁чемпион	-9.19488
чат	-9.1949
▁рабоч	-9.19526
x	-9.19623
▁поскольку	-9.19623
▁врач	-9.19724
▁27	-9.19729
▁округ	-9.19818
щение	-9.19904
▁исследова	-9.19979
▁Крым	-9.20102
мед	-9.20148
ственно	-9.20182
▁миллионов	-9.20212
устройств	-9.20269
▁Ин	-9.20377
▁больниц	-9.20431
▁школ	-9.20451
▁Федерации	-9.20501
▁Бр	-9.20742
▁спас	-9.20978
▁убийств	-9.20993
▁предложил	-9.2109
▁говорил	-9.21152
ющей	-9.21165
▁возраст	-9.21193
▁суда	-9.21214
бар	-9.21263
▁станет	-9.21311
▁26	-9.21349
готов	-9.21518
▁ООН	-9.21584
▁места	-9.2162
▁товар	-9.21696
рес	-9.21748
▁сделал	-9.21761
шир	-9.21777
▁риск	-9.21824
ске	-9.21893
мор	-9.21922
твор	-9.21946
▁вес	-9.22033
▁потом	-9.22093
▁коллег	-9.22094
▁Украине	-9.22115
▁провел	-9.22143
Ш	-9.22176
▁продукт	-9.22273
илась	-9.22329
тяж	-9.22346
▁нашей	-9.22375
▁кризис	-9.22378
ясь	-9.2239
Интерфакс	-9.22478
▁ничего	-9.22479
▁работать	-9.22684
▁мире	-9.22687
▁Андрей	-9.22778
▁дней	-9.22778
▁истории	-9.22878
▁получили	-9.2293
айте	-9.23274
▁должно	-9.23319
▁ведомства	-9.23335
▁таким	-9.2334
▁процент	-9.23369
▁телеканал	-9.23381
▁контракт	-9.23392
▁реальн	-9.23452
▁одна	-9.23521
▁штраф	-9.23582
▁проблемы	-9.23638
ra	-9.23714
z	-9.23785
▁улиц	-9.23798
нт	-9.23818
секретарь	-9.23953
чев	-9.23964
ьев	-9.23997
сан	-9.24015
▁Глава	-9.24058
▁инициатив	-9.24088
▁Европы	-9.24089
▁губернатор	-9.2422
E	-9.24232
▁кур	-9.24318
▁особенно	-9.24368
▁ту	-9.24459
юр	-9.24503
▁законопроект	-9.24597
▁данные	-9.24631
▁полностью	-9.24632
лик	-9.24711
▁проведен	-9.24713
рин	-9.24774
▁плат	-9.24829
▁Поэтому	-9.24904
▁сборной	-9.24946
ический	-9.24982
▁информацию	-9.25006
▁находи	-9.25046
▁сумм	-9.25086
▁запрещен	-9.25109
▁основан	-9.25109
▁возник	-9.25167
▁шест	-9.25171
▁обвиня	-9.25217
реп	-9.25229
спект	-9.25235
лага	-9.25294
▁теракт	-9.2564
вели	-9.25663
▁Перв	-9.25725
▁свет	-9.25734
▁завод	-9.2574
▁приводит	-9.25772
▁пла	-9.25855
телем	-9.2588
тик	-9.25916
сон	-9.26
▁официально	-9.26041
▁прошлом	-9.26208
▁29	-9.26389
альный	-9.26451
бол	-9.26522
стран	-9.26582
▁буду	-9.26631
▁получить	-9.26693
▁Хо	-9.26705
ину	-9.26736
R	-9.27116
лег	-9.27247
вания	-9.27262
метр	-9.2734
▁региональн	-9.27362
▁администрации	-9.27389
▁подтвердил	-9.27389
▁Виктор	-9.2739
екс	-9.27396
▁союз	-9.27446
▁составляет	-9.27851
▁практически	-9.27919
▁благо	-9.27924
тон	-9.27929
енной	-9.27955
пред	-9.28012
▁др	-9.28126
▁заявление	-9.28132
кции	-9.28132
▁выше	-9.28238
st	-9.28279
▁голов	-9.28284
▁месяц	-9.28303
▁страхов	-9.28454
пустил	-9.285
▁другой	-9.28567
зова	-9.28599
▁программы	-9.2861
▁достаточно	-9.28656
et	-9.28668
▁самых	-9.28709
▁ситуация	-9.28762
▁спец	-9.28916
▁сотрудник	-9.29034
▁месяцев	-9.29047
19	-9.29305
кол	-9.29372
кур	-9.29411
▁просмотров	-9.29511
▁весь	-9.29519
▁центра	-9.29561
50	-9.29652
80	-9.29719
▁данно	-9.29776
D	-9.29983
▁Тем	-9.29985
вает	-9.30052
ович	-9.30122
▁блок	-9.3013
▁эк	-9.3021
ченко	-9.30431
▁40	-9.30435
▁Когда	-9.30478
▁сайт	-9.30492
▁театр	-9.30527
▁содержа	-9.30645
▁Гос	-9.30682
▁одним	-9.30701
▁войны	-9.30734
▁населения	-9.30807
чить	-9.30855
▁N	-9.30925
емых	-9.30998
▁права	-9.31011
▁выплат	-9.31013
▁стоимость	-9.3102
ol	-9.31062
▁многие	-9.31129
▁ограничен	-9.31182
▁этап	-9.31268
▁контр	-9.31305
исты	-9.31367
▁крас	-9.3151
ница	-9.318
▁качеств	-9.31852
альные	-9.31974
▁погиб	-9.31992
▁жителей	-9.32009
льц	-9.32095
▁обеспечен	-9.32334
▁Ста	-9.32499
▁Госдумы	-9.32555
▁вечер	-9.32618
▁свобод	-9.32704
15	-9.32761
▁часов	-9.32901
▁команды	-9.33155
▁района	-9.33239
▁полу	-9.33303
лат	-9.33345
▁экономики	-9.33374
▁выбор	-9.33386
тек	-9.33434
▁автомобиль	-9.33442
▁впервые	-9.33442
▁2013	-9.33554
▁спрос	-9.33562
▁клиент	-9.33667
альных	-9.33679
il	-9.33705
▁Международн	-9.33889
▁процентов	-9.33897
▁возможности	-9.33911
▁министерств	-9.34113
овая	-9.34126
▁Рус	-9.3414
▁этому	-9.34198
▁парламент	-9.34253
▁поезд	-9.34262
▁Бер	-9.34334
▁куп	-9.34341
▁тренер	-9.34372
▁V	-9.34389
енного	-9.34391
▁валют	-9.34593
▁игрок	-9.34601
▁государство	-9.34636
Ru	-9.3468
▁детск	-9.3471
пр	-9.34802
▁службы	-9.34873
▁хотел	-9.34908
▁тому	-9.34951
▁дорож	-9.3496
▁налогов	-9.35012
▁капитал	-9.3502
ические	-9.35028
▁наши	-9.35034
▁выборов	-9.35194
▁собира	-9.3529
▁объявил	-9.35307
▁знач	-9.35423
▁делать	-9.35444
ическая	-9.35471
▁Германии	-9.35582
▁турнир	-9.3559
рей	-9.35609
▁выборах	-9.35623
▁участников	-9.35669
▁национальн	-9.35759
вшим	-9.35779
пом	-9.35826
▁Порошенко	-9.35924
▁поддержива	-9.35928
▁число	-9.35934
▁опыт	-9.3605
▁Согласно	-9.36152
▁обсужда	-9.36153
▁голосов	-9.36329
▁пример	-9.36445
▁представлен	-9.36455
европейск	-9.36501
ion	-9.36612
▁цены	-9.36615
нтер	-9.36649
▁законодательств	-9.36727
▁годов	-9.36775
▁активно	-9.36804
30	-9.36938
▁первом	-9.36964
сер	-9.36981
▁наруш	-9.36981
пал	-9.36997
▁час	-9.37042
Рос	-9.37067
шей	-9.37194
▁вопросы	-9.37253
скому	-9.37274
вел	-9.37334
▁Лу	-9.37419
▁расс	-9.37423
▁Ло	-9.37448
▁сотрудников	-9.37511
ставить	-9.37519
▁Олег	-9.37744
вшей	-9.37762
▁пяти	-9.38067
▁вывод	-9.38109
▁акт	-9.3813
▁север	-9.38184
▁Россией	-9.38235
▁рейтинг	-9.38352
▁руководство	-9.38352
ниж	-9.38404
яр	-9.38406
дали	-9.38415
▁итоге	-9.38474
бег	-9.38578
▁вариант	-9.38586
рад	-9.38622
жил	-9.3869
бин	-9.38696
▁квартал	-9.38824
ложение	-9.38915
▁Еще	-9.38922
федеральн	-9.38946
мар	-9.38961
ины	-9.3899
нский	-9.39011
▁картин	-9.3902
▁сообщении	-9.39117
ворот	-9.39168
▁телефон	-9.39185
няя	-9.39202
▁выда	-9.3933
▁Министерств	-9.3941
очка	-9.39581
▁обратил	-9.39666
▁пят	-9.3978
▁Го	-9.39855
гран	-9.39869
дор	-9.39962
▁Мир	-9.40083
▁анти	-9.40093
▁Клинтон	-9.40123
is	-9.4015
▁совершен	-9.40237
щу	-9.40277
▁десят	-9.40303
▁палат	-9.40314
▁представители	-9.40361
▁искусств	-9.40364
▁арест	-9.404
▁политики	-9.40448
▁никак	-9.40475
гл	-9.40519
▁налог	-9.40538
▁приговор	-9.40568
▁интервью	-9.406
▁сократи	-9.40604
2%	-9.40675
▁Украин	-9.40738
лем	-9.40792
вор	-9.40868
▁встречи	-9.40882
▁Пар	-9.40939
вит	-9.40987
▁войск	-9.41017
▁размере	-9.41169
▁усили	-9.41171
▁произошло	-9.41201
▁собой	-9.41234
▁добр	-9.41254
▁Источник	-9.41321
здрав	-9.41327
▁Совет	-9.41339
▁агентства	-9.41439
▁нефть	-9.4145
▁класс	-9.41587
▁старт	-9.41619
эн	-9.417
▁ночь	-9.41786
▁обороны	-9.41903
▁сред	-9.41932
▁меры	-9.41956
▁высоко	-9.41968
▁написал	-9.42065
▁затем	-9.42102
▁рад	-9.42104
▁электро	-9.42259
▁вообще	-9.4229
▁признан	-9.42412
▁уровень	-9.42412
▁движения	-9.42434
▁Франции	-9.42501
▁условиях	-9.42505
ic	-9.42513
▁целом	-9.42514
▁ЦБ	-9.42548
▁эффективн	-9.4258
10	-9.42622
▁крупнейш	-9.42662
полит	-9.42692
▁комитет	-9.42704
▁действительно	-9.42762
смотреть	-9.42797
наблюда	-9.42806
▁иностранных	-9.42827
▁полно	-9.42896
▁штат	-9.42919
▁возможн	-9.42994
▁тонн	-9.42995
▁Ос	-9.42999
K	-9.43023
тали	-9.43139
▁закрыт	-9.4314
▁примерно	-9.43166
▁уголовно	-9.43217
альная	-9.43458
▁важно	-9.43476
▁начальник	-9.43527
▁показал	-9.43547
нец	-9.43558
▁перспектив	-9.43638
▁ситуацию	-9.43638
4%	-9.43794
ступил	-9.43815
▁достиг	-9.43981
▁опубликован	-9.44009
фф	-9.44065
▁служб	-9.44066
▁атак	-9.44107
▁дал	-9.44131
▁Иран	-9.44148
▁улице	-9.44258
фон	-9.44272
ард	-9.44291
Евро	-9.44381
▁российские	-9.44381
▁расположен	-9.44383
▁бел	-9.44545
ъя	-9.44629
▁помощью	-9.44665
▁каждый	-9.44738
▁пишет	-9.44755
нцев	-9.44831
▁конца	-9.44841
▁известны	-9.44875
▁Санкт	-9.4488
▁самом	-9.45095
▁условия	-9.45411
Ростов	-9.45466
▁выполнен	-9.45548
▁уголовное	-9.45562
вол	-9.45666
нные	-9.45703
▁инвестор	-9.4573
▁НАТО	-9.45758
телями	-9.45952
▁жест	-9.46074
▁бюджета	-9.46116
▁университет	-9.46137
▁Пере	-9.46253
▁выпуск	-9.4626
▁адвокат	-9.46263
▁парламента	-9.46486
▁всей	-9.46604
▁первую	-9.46645
рот	-9.46646
▁российский	-9.46771
▁речь	-9.46778
ъезд	-9.46806
▁следов	-9.46891
ro	-9.469
-1	-9.46916
▁роста	-9.46927
▁Вер	-9.47094
3%	-9.47095
▁представителя	-9.47172
▁Ду	-9.47176
▁Кур	-9.47196
▁очередн	-9.47283
▁какие	-9.47289
▁погибли	-9.47291
▁управля	-9.47306
▁сети	-9.47374
▁зарплат	-9.4741
▁организация	-9.47421
евой	-9.47477
▁центре	-9.47486
▁указ	-9.47538
▁УК	-9.4767
▁сообщалось	-9.4769
1%	-9.47722
▁культур	-9.47878
▁министра	-9.47919
▁деятельность	-9.47924
ацией	-9.4796
▁Ъ	-9.48002
▁Джон	-9.48008
▁ремонт	-9.48055
▁круг	-9.48126
▁француз	-9.48182
le	-9.4838
▁следует	-9.48441
стрем	-9.48461
▁Медведев	-9.4857
▁действий	-9.4857
нин	-9.4857
▁сказать	-9.48661
▁официальн	-9.48834
▁газета	-9.48852
писал	-9.48872
▁начали	-9.48926
крыл	-9.48949
ur	-9.48971
▁ведь	-9.49235
▁Пред	-9.49241
▁знаком	-9.49308
центр	-9.49326
▁Впрочем	-9.4935
Газпром	-9.49481
▁понедельник	-9.49481
▁пользу	-9.49481
▁жертв	-9.49484
▁производства	-9.49538
▁мол	-9.49596
▁характер	-9.49611
▁новой	-9.49674
пан	-9.49739
эр	-9.49761
▁увеличен	-9.50012
▁хорошо	-9.50064
▁обязан	-9.50137
оборот	-9.50141
O	-9.50221
▁помощь	-9.50232
▁читайте	-9.50269
▁поиск	-9.50379
начальн	-9.50384
▁материале	-9.50535
лять	-9.50586
серьез	-9.50827
бан	-9.51125
▁данных	-9.51211
гля	-9.51249
ешь	-9.51252
▁ныне	-9.51342
▁часто	-9.51355
▁порт	-9.51385
▁Трампа	-9.51562
▁чувств	-9.51597
▁проведения	-9.51653
▁Ну	-9.51687
▁протест	-9.51748
▁парк	-9.51827
За	-9.51852
▁правоохранитель	-9.51865
▁пятницу	-9.51998
▁ген	-9.52038
▁рынок	-9.52132
данный	-9.52161
▁либо	-9.52172
▁республики	-9.52357
вшая	-9.52359
дол	-9.52472
шиб	-9.52474
▁передач	-9.52491
рост	-9.52523
▁СССР	-9.52536
▁республик	-9.52551
us	-9.52611
ложения	-9.5264
кая	-9.52674
▁посту	-9.52703
оруж	-9.52868
бот	-9.52875
службе	-9.52902
▁четверг	-9.52918
▁живот	-9.53042
шую	-9.53077
▁большой	-9.53078
▁давно	-9.53211
▁государств	-9.53226
▁оказа	-9.5329
▁магазин	-9.53348
▁язык	-9.53367
▁предприятия	-9.53484
▁экспорт	-9.53557
буд	-9.5368
хан	-9.5369
▁сотрудники	-9.53711
▁работает	-9.53728
▁вас	-9.53779
▁Игорь	-9.53894
▁пес	-9.53932
▁наибол	-9.53933
Больш	-9.53952
ch	-9.53955
▁среду	-9.53961
▁сильно	-9.54038
лок	-9.54138
▁мэр	-9.54248
▁размер	-9.54299
▁Дональд	-9.54305
ющая	-9.54305
▁никто	-9.54327
очки	-9.54349
▁сын	-9.54351
▁делу	-9.54429
▁версии	-9.54442
жан	-9.54565
▁специально	-9.54597
▁доллар	-9.54615
▁работе	-9.54706
­	-9.54717
▁прямо	-9.54718
▁сфере	-9.54751
▁канал	-9.54767
▁Европе	-9.54813
▁произошел	-9.54855
▁ООО	-9.54856
▁месяца	-9.54947
▁Ново	-9.55024
▁самым	-9.55092
▁тысячи	-9.55123
▁Федеральн	-9.55132
▁говорят	-9.5527
▁хочет	-9.5527
▁согласи	-9.55272
ическим	-9.55307
служба	-9.55381
бле	-9.55407
энерго	-9.55419
▁потеря	-9.55514
▁вклад	-9.55568
казать	-9.55651
+	-9.55687
▁Москва	-9.55731
▁имени	-9.55759
▁минимум	-9.55826
▁ребенка	-9.55826
▁несмотря	-9.55832
ri	-9.55887
▁четырех	-9.55951
▁порядка	-9.55972
▁книг	-9.56
▁первого	-9.56247
▁муж	-9.56328
▁Мари	-9.56347
▁Алеппо	-9.56385
▁призвал	-9.56423
чным	-9.56449
▁встреча	-9.5652
▁огромн	-9.56531
▁развива	-9.5655
нет	-9.56601
▁The	-9.56666
V	-9.56742
▁российским	-9.56806
▁Борис	-9.56833
▁31	-9.5691
▁наших	-9.5692
▁такое	-9.56957
▁травм	-9.56958
ведение	-9.56978
▁транс	-9.56991
▁иностран	-9.57038
▁изменения	-9.5704
▁цитирует	-9.57088
▁Ру	-9.57177
▁цвет	-9.57232
▁вторник	-9.57248
вшись	-9.5725
▁образования	-9.57251
▁смогут	-9.57272
▁Савченко	-9.57371
▁адрес	-9.57372
▁рассказ	-9.57384
▁Крыма	-9.57456
зин	-9.57458
таки	-9.57495
▁изменен	-9.57639
▁председатель	-9.57656
▁остров	-9.57714
китайск	-9.57816
▁первой	-9.57942
▁заместитель	-9.58082
▁денег	-9.58082
становлен	-9.58163
▁прием	-9.58183
▁органов	-9.58261
12	-9.58356
▁аппарат	-9.58367
▁британск	-9.5851
▁Фото	-9.58524
▁попал	-9.58577
▁такого	-9.58578
нести	-9.58634
▁Максим	-9.58654
X	-9.5877
▁принято	-9.5877
▁60	-9.5879
▁актер	-9.58812
▁представ	-9.58956
▁роль	-9.58972
▁операции	-9.58993
▁департамент	-9.59084
▁нескольких	-9.59084
▁успех	-9.59084
▁областн	-9.59089
6%	-9.59094
▁сообщал	-9.59102
▁Суд	-9.59115
щем	-9.59158
ницы	-9.59231
ирование	-9.59301
давать	-9.59461
держать	-9.5947
▁комиссии	-9.59517
▁провести	-9.59584
▁Запад	-9.59591
▁Совета	-9.59616
юсь	-9.59687
город	-9.59701
▁Раз	-9.59766
▁могли	-9.59773
▁сокращен	-9.59808
▁привлек	-9.5981
▁обнаружен	-9.59952
▁X	-9.59979
▁силы	-9.6
▁диск	-9.60042
производств	-9.60096
▁использовать	-9.60097
▁быстро	-9.60185
▁институт	-9.60243
коль	-9.60244
▁вооруженн	-9.60252
▁касается	-9.60431
▁уровня	-9.60536
▁регион	-9.60678
▁нельзя	-9.60827
здоров	-9.60892
▁номер	-9.60965
казывает	-9.6097
▁никогда	-9.60974
▁Песков	-9.60974
▁Гор	-9.60991
▁инвест	-9.60994
▁являются	-9.61003
▁Ти	-9.61045
▁нарушения	-9.61057
▁запис	-9.61064
▁сохрани	-9.61105
ностью	-9.61112
▁строительство	-9.61121
▁культуры	-9.61138
▁2012	-9.61158
▁Украина	-9.61411
▁допинг	-9.61416
▁числ	-9.61489
▁Верховн	-9.61565
▁футбол	-9.61598
вался	-9.61639
рог	-9.61657
▁доклад	-9.61713
ce	-9.62018
▁четверт	-9.62021
ложить	-9.62024
▁переговоры	-9.62156
вались	-9.62159
▁объявлен	-9.62205
ed	-9.62225
▁Гол	-9.62288
сматрива	-9.62292
▁Например	-9.62303
▁взял	-9.62379
▁реформ	-9.62404
▁ближайше	-9.62452
▁пройдет	-9.62454
▁преступления	-9.62505
первых	-9.62516
▁матче	-9.62529
▁продолжает	-9.62552
▁некоторые	-9.62601
▁рубля	-9.6265
▁список	-9.6275
▁фигур	-9.6275
ступление	-9.62751
▁собеседник	-9.62751
▁Гре	-9.62821
▁строительства	-9.629
пул	-9.62957
▁использован	-9.62958
▁Таким	-9.62964
▁руководитель	-9.6305
▁находятся	-9.63204
щиков	-9.63381
▁открыл	-9.63407
▁говорить	-9.63471
▁совместно	-9.63503
▁Известия	-9.63525
▁Банк	-9.63586
▁акции	-9.63716
▁ресурс	-9.63801
▁Тогда	-9.63802
▁праздник	-9.63809
▁заверш	-9.63823
▁электронн	-9.6384
скими	-9.63889
▁любо	-9.63895
▁кров	-9.63978
▁тут	-9.64098
▁инцидент	-9.64104
▁Рас	-9.64131
рек	-9.64141
▁легко	-9.642
▁требования	-9.64255
▁происходит	-9.6426
7%	-9.64286
la	-9.64402
Прав	-9.64411
вард	-9.64577
▁масс	-9.64582
Ж	-9.64641
▁шаг	-9.64647
парт	-9.64673
▁социально	-9.64684
▁препарат	-9.64711
▁размещен	-9.64717
▁бывший	-9.64851
▁пассажир	-9.64856
▁рассмотрен	-9.64909
▁контроль	-9.64972
▁сложно	-9.64986
▁силу	-9.65056
▁выступил	-9.65103
▁поддержку	-9.65169
▁пострадал	-9.65188
ьян	-9.65232
▁постоянно	-9.65293
▁Image	-9.65322
▁РБК	-9.65322
▁владе	-9.65334
▁сумму	-9.6539
▁многих	-9.65476
▁полет	-9.65513
▁Черн	-9.65518
▁позволит	-9.65567
▁состоянии	-9.65633
▁имеют	-9.65691
▁Там	-9.65821
▁поводу	-9.65837
▁работник	-9.65936
▁фотограф	-9.65946
▁выразил	-9.65952
▁сирийско	-9.65983
ступления	-9.66038
▁сравнению	-9.66091
▁благодаря	-9.66092
▁отчет	-9.6616
▁готовы	-9.66183
▁категори	-9.66246
▁сможет	-9.66246
▁членов	-9.66343
▁ниже	-9.6645
▁Мак	-9.66476
▁миллиона	-9.66618
▁фин	-9.66634
▁Пре	-9.66697
транс	-9.66742
▁знаю	-9.66814
▁переход	-9.66861
▁груз	-9.66886
▁случай	-9.67179
▁крайне	-9.67179
российско	-9.67247
единственн	-9.67258
нимает	-9.6731
▁Минобороны	-9.67335
▁почему	-9.67343
нюю	-9.67352
зор	-9.67424
ходить	-9.67463
▁столичн	-9.67495
▁хозяйств	-9.67515
ставка	-9.6755
▁прибыл	-9.67598
▁самого	-9.67626
ическую	-9.67635
▁остается	-9.67662
▁подпис	-9.6776
▁визит	-9.67844
8%	-9.67942
чная	-9.67943
▁обнаружил	-9.67962
▁O	-9.68019
▁соверш	-9.68025
▁избран	-9.68035
9%	-9.68086
▁Иван	-9.68224
Ю	-9.68277
летнего	-9.68287
▁главный	-9.68313
▁принцип	-9.68394
фин	-9.68397
▁согласно	-9.68435
▁выполня	-9.68467
▁занят	-9.6847
▁информационн	-9.68594
регулиров	-9.686
▁автомобиля	-9.68752
▁смог	-9.68841
▁заказ	-9.68852
тре	-9.6894
▁точно	-9.69031
▁призыв	-9.69039
▁Подробнее	-9.6907
▁соглашения	-9.69096
▁МЧС	-9.69229
ительные	-9.69333
цеп	-9.69338
▁Стр	-9.69368
▁понят	-9.69375
▁исполнен	-9.6939
▁регионе	-9.69483
▁военных	-9.69495
▁организаций	-9.69548
▁развитие	-9.6955
▁улучш	-9.69563
▁режиссер	-9.69708
ивается	-9.69752
▁$1	-9.69794
росс	-9.69828
носит	-9.69905
▁дли	-9.69959
место	-9.70051
Союз	-9.70065
▁Кол	-9.70108
▁особ	-9.70147
as	-9.70169
▁вопросам	-9.70275
Восток	-9.70288
шкин	-9.70294
▁лес	-9.70339
▁масштаб	-9.70351
▁выборы	-9.70364
▁нарко	-9.70474
▁U	-9.70491
▁необходимы	-9.70512
▁остальн	-9.70565
▁запрос	-9.70565
▁края	-9.7057
▁процедур	-9.70674
▁представителей	-9.70686
▁Вашингтон	-9.70835
▁управление	-9.70836
▁указан	-9.70857
▁особо	-9.70961
▁применен	-9.70963
▁предлагает	-9.71009
▁генеральн	-9.71114
▁Российски	-9.7116
▁принять	-9.71162
▁привел	-9.71169
НИ	-9.71189
▁продукции	-9.71323
▁преступн	-9.71324
▁сообщается	-9.71393
▁Донбасс	-9.71485
▁отношений	-9.71485
ia	-9.71529
▁никаких	-9.71601
перед	-9.71656
ическом	-9.7173
▁рассчитыва	-9.71814
▁называем	-9.71976
▁автомобилей	-9.72003
▁2011	-9.7201
▁результаты	-9.72035
▁собран	-9.72118
▁брат	-9.72151
ллер	-9.72175
бен	-9.72359
▁большинство	-9.72468
▁Теперь	-9.72468
▁Сергея	-9.72468
таль	-9.72601
▁прошло	-9.72602
▁раньше	-9.72633
▁семей	-9.7268
▁депутатов	-9.72757
▁километр	-9.72798
▁наук	-9.72805
▁Центр	-9.72902
надзор	-9.72951
▁вчера	-9.7296
▁разрешен	-9.73027
пел	-9.73105
▁Евросоюз	-9.73129
am	-9.73151
▁недели	-9.73199
ывая	-9.7339
▁мощно	-9.73438
▁совсем	-9.73462
▁позиции	-9.73462
▁сосед	-9.7347
▁придется	-9.73471
▁девят	-9.73594
▁практик	-9.73627
турецк	-9.73638
▁переговоров	-9.73795
▁Среди	-9.73812
$	-9.73819
▁июня	-9.73822
▁2018	-9.73827
▁немец	-9.7383
▁ближайши	-9.73961
конференции	-9.74008
цер	-9.74288
▁Представител	-9.74295
▁снизил	-9.74321
труд	-9.74321
▁Бар	-9.74391
▁всю	-9.74418
▁чист	-9.74463
▁декабре	-9.74463
▁микро	-9.74466
▁фото	-9.7448
▁найти	-9.74547
евич	-9.7457
▁Кир	-9.74588
▁куда	-9.74608
▁дальнейше	-9.74636
▁властей	-9.74642
▁введен	-9.74644
ическое	-9.74668
▁президентом	-9.74679
▁голос	-9.74795
▁сервис	-9.74803
▁оказыва	-9.74808
▁встрети	-9.74821
ируется	-9.74899
▁равно	-9.74958
▁санкции	-9.7497
▁западн	-9.74983
▁свободы	-9.74995
▁фоне	-9.75026
▁функци	-9.7507
▁досто	-9.75094
либо	-9.75102
▁осв	-9.75103
▁демократ	-9.75125
стал	-9.75176
РИА	-9.75276
▁двор	-9.75362
▁черн	-9.75461
▁борьбе	-9.75476
▁значит	-9.7548
▁бол	-9.75595
▁меж	-9.75668
▁оказался	-9.75714
гарант	-9.75879
вес	-9.75897
▁эксперты	-9.75905
▁слишком	-9.75986
▁занял	-9.75993
блок	-9.76002
▁работал	-9.76018
вшихся	-9.76161
▁Рад	-9.76226
▁Велик	-9.76255
▁роли	-9.76323
Й	-9.76324
▁зрения	-9.76328
енная	-9.76469
▁будем	-9.76506
▁вновь	-9.76523
▁Южно	-9.76618
11	-9.7664
▁помещен	-9.76718
▁Тре	-9.76807
ne	-9.76836
молодеж	-9.76846
▁планирует	-9.7689
▁ваш	-9.76926
▁странах	-9.76961
▁подход	-9.77006
▁январе	-9.77014
▁рекорд	-9.77017
▁количеств	-9.7717
▁акций	-9.77187
▁скорее	-9.77188
▁предложение	-9.77267
▁Антон	-9.77269
▁прежде	-9.77371
работал	-9.7764
строить	-9.77666
▁уточнил	-9.77706
▁производство	-9.77828
▁Лондон	-9.77879
▁статус	-9.77884
▁факту	-9.7793
▁Великобритании	-9.78053
▁Минфин	-9.78078
om	-9.78119
▁заседании	-9.78228
▁маршрут	-9.78228
▁мероприятия	-9.78228
▁следствия	-9.78228
сказ	-9.7826
служив	-9.78267
▁реализации	-9.78281
▁Евгений	-9.78402
изацию	-9.78543
▁значительно	-9.78613
▁шесть	-9.78614
били	-9.78692
▁объектов	-9.78734
▁физическ	-9.78782
современн	-9.78795
▁Российская	-9.78927
начала	-9.78945
▁информация	-9.79103
рел	-9.79266
▁невозможно	-9.79279
совет	-9.79289
ing	-9.7936
эконом	-9.79411
ируем	-9.79426
li	-9.79451
катастроф	-9.79456
▁требует	-9.79466
ительных	-9.79505
▁упал	-9.79557
▁продажи	-9.79575
▁обстоятельств	-9.79632
▁увеличил	-9.79633
-2016	-9.79654
▁десяти	-9.79671
▁школьн	-9.79748
▁рассказывает	-9.79841
▁санкций	-9.79987
опера	-9.80056
▁целью	-9.80063
▁обмен	-9.80147
▁национальной	-9.80163
▁пришлось	-9.80167
▁бывше	-9.80226
ad	-9.80239
▁машины	-9.80286
важны	-9.80337
▁восстановлен	-9.80345
▁крае	-9.80355
25	-9.80447
▁получат	-9.80475
▁зим	-9.80481
красн	-9.80485
▁отечественн	-9.8052
коммерческ	-9.80521
▁взаимо	-9.80523
▁совершенно	-9.80526
шев	-9.80639
17	-9.80664
▁бой	-9.80751
▁шанс	-9.80815
▁укреп	-9.8088
дент	-9.80882
▁сделан	-9.8091
ирова	-9.80944
▁фирм	-9.81068
▁мод	-9.81082
▁разговор	-9.81093
гин	-9.81112
▁тип	-9.81169
▁неделе	-9.81191
▁воскресенье	-9.81237
60	-9.81242
▁точки	-9.8129
▁ДТП	-9.81417
▁председателя	-9.81422
▁штаб	-9.81442
▁вынужден	-9.81597
18	-9.81613
бал	-9.81635
!"	-9.81672
▁заявления	-9.8178
▁рыб	-9.81786
▁раздел	-9.81826
ent	-9.81851
▁матери	-9.81936
космическ	-9.81956
▁тяжело	-9.81959
com	-9.82035
▁огранич	-9.82052
▁облада	-9.82139
▁боевик	-9.82145
▁Сан	-9.82168
▁500	-9.82295
платить	-9.82296
▁здания	-9.82321
Газета	-9.82322
▁название	-9.82368
▁Дан	-9.8238
▁планируется	-9.82393
▁школы	-9.82503
чек	-9.82582
▁вероятно	-9.82685
▁смерти	-9.82692
▁предложения	-9.82766
▁рейс	-9.82791
99	-9.82855
▁вызвал	-9.82944
▁снижение	-9.83051
▁экономического	-9.83088
▁Юр	-9.83093
▁Всего	-9.83176
▁смысл	-9.83234
▁ожидает	-9.83419
премьер	-9.83546
промышленн	-9.83574
▁Китай	-9.83601
▁поток	-9.83657
казал	-9.83679
▁состоится	-9.83688
читал	-9.83743
▁звезд	-9.83785
▁оружия	-9.8379
▁ведет	-9.83795
ot	-9.83886
J	-9.83969
▁посвящен	-9.83969
▁предоставлен	-9.83969
▁свидетельств	-9.83969
▁одну	-9.83982
ТО	-9.84106
▁опубликовал	-9.84154
▁пилот	-9.84157
▁метод	-9.8416
▁опасно	-9.84186
Исламско	-9.84342
▁внутри	-9.84348
▁подписал	-9.84462
ЭС	-9.84484
▁форум	-9.84526
▁станции	-9.84528
▁платеж	-9.84596
G	-9.84671
▁самый	-9.8468
▁Юрий	-9.8485
▁дети	-9.84869
очку	-9.84875
▁столицы	-9.84898
▁Ген	-9.84963
ировки	-9.85016
▁проходит	-9.85036
▁скандал	-9.85036
▁некоторых	-9.85083
▁освобожден	-9.85083
▁Ор	-9.85158
▁финал	-9.85216
▁карьер	-9.85271
нсульт	-9.85284
▁столице	-9.85324
сирийск	-9.85362
▁обязательств	-9.85457
▁памятник	-9.85457
▁участия	-9.85457
▁студент	-9.85458
▁мобильн	-9.85461
▁Николай	-9.85468
▁поступил	-9.85506
действие	-9.85528
▁Иванов	-9.85546
▁соответствии	-9.85645
▁исключен	-9.85646
▁автобус	-9.85646
▁партий	-9.85652
▁армии	-9.85655
▁соглашение	-9.85682
формирован	-9.85693
▁линии	-9.85863
▁пуст	-9.85921
▁включая	-9.86021
▁основном	-9.86021
▁марте	-9.86194
▁руководителя	-9.8621
▁Лавров	-9.8621
▁незаконно	-9.86211
▁жители	-9.86217
▁фактор	-9.86224
▁внесен	-9.86248
▁серьезно	-9.86366
▁футболист	-9.86384
президент	-9.86395
▁площади	-9.86399
Россия	-9.86399
▁соперник	-9.86409
▁работают	-9.86481
▁самой	-9.86495
▁отмечают	-9.86588
▁обсужден	-9.86589
ступает	-9.86592
▁бомб	-9.86644
▁кадр	-9.86658
▁рядом	-9.86667
▁Кан	-9.86729
пат	-9.86851
▁думаю	-9.86914
▁поддержки	-9.87159
восточн	-9.87176
▁нефтян	-9.8735
▁прокурор	-9.8735
▁воздух	-9.87351
▁Париж	-9.87392
пустить	-9.87442
▁резко	-9.87457
▁распространен	-9.87541
▁Центральн	-9.87616
чество	-9.87673
▁запуск	-9.87713
▁возглавля	-9.87732
▁якобы	-9.87733
▁отличи	-9.87755
ологически	-9.87761
▁необходимости	-9.87766
▁отмечается	-9.87776
▁Род	-9.87932
▁житель	-9.87959
▁создание	-9.87966
▁основе	-9.88117
▁СКР	-9.88119
▁регионов	-9.88149
▁ед	-9.88219
следственн	-9.88357
Восточн	-9.88374
▁пути	-9.88396
▁боевиков	-9.88402
▁довольно	-9.88502
▁Никол	-9.88547
▁исследования	-9.88572
лист	-9.88636
▁терроризм	-9.88696
▁специальны	-9.8872
▁Рио	-9.88758
40	-9.88812
▁первым	-9.889
▁импорт	-9.8893
▁300	-9.88972
дик	-9.8906
▁расследования	-9.89084
▁проводит	-9.89242
▁вокруг	-9.89278
▁метров	-9.89485
▁предмет	-9.89574
▁сектор	-9.89675
▁боев	-9.89766
▁Facebook	-9.89864
▁субботу	-9.89864
▁ответственности	-9.89865
▁велик	-9.89944
▁камер	-9.89982
▁похож	-9.90094
▁повтор	-9.90119
террористической	-9.90191
▁обязательно	-9.90257
▁погибших	-9.90279
регистр	-9.90326
▁попросил	-9.90326
▁втором	-9.90368
▁феврале	-9.90454
▁Более	-9.90458
проб	-9.90466
▁предъяв	-9.90466
▁область	-9.90481
▁Один	-9.90508
Рус	-9.90628
▁текст	-9.90688
▁оказались	-9.90716
▁Роман	-9.90734
▁тариф	-9.9085
▁неделю	-9.9086
▁Эти	-9.90872
▁защиты	-9.90886
кажет	-9.90921
L	-9.90929
альным	-9.90961
▁олимпийск	-9.91047
▁жалоб	-9.91051
ющихся	-9.91108
▁цифр	-9.91245
▁подписан	-9.91266
▁украинско	-9.91279
▁оружие	-9.91284
▁мяч	-9.91298
▁Есть	-9.9131
▁St	-9.91523
ологии	-9.91587
▁лекарств	-9.91643
▁ФСБ	-9.91644
▁журнал	-9.91647
▁Зе	-9.91681
▁дипломат	-9.91694
▁исход	-9.91711
▁Москву	-9.91843
▁напомнил	-9.91843
▁волн	-9.91983
телю	-9.92001
▁ответственность	-9.92043
▁создать	-9.92113
бесед	-9.9221
▁Константин	-9.92243
▁знаменит	-9.92243
▁Саудовск	-9.92243
▁Олимпийск	-9.92244
сек	-9.92269
▁ответил	-9.92328
▁Именн	-9.92397
▁ЦСКА	-9.92444
▁обвинения	-9.92445
ьер	-9.92573
▁мировой	-9.926
восток	-9.92719
пресс	-9.92722
▁снят	-9.9278
▁стандарт	-9.92847
▁анализ	-9.92848
▁любой	-9.92853
▁сыр	-9.92916
действующ	-9.92975
▁концерт	-9.93128
▁общей	-9.93202
▁метро	-9.93223
▁пассажиров	-9.93261
полицейск	-9.93464
техник	-9.93591
изация	-9.93641
▁Государственн	-9.93861
▁возбуждено	-9.93861
▁получит	-9.93878
ющую	-9.93883
▁отдельны	-9.93971
▁каза	-9.941
▁обстрел	-9.94243
▁Отмечается	-9.94269
▁публика	-9.9427
▁учетом	-9.94277
▁артист	-9.94488
▁Нью	-9.94572
▁оборон	-9.9459
▁пациент	-9.9468
▁Бывши	-9.94771
▁предусмотрен	-9.94771
▁хотят	-9.9496
ставлял	-9.95073
учрежден	-9.95087
▁расследование	-9.95092
крест	-9.95171
▁объединен	-9.95643
▁Японии	-9.95713
▁взгляд	-9.95713
▁международных	-9.95739
друг	-9.95854
образован	-9.95858
▁обычно	-9.95883
▁сентябре	-9.95921
Интер	-9.96023
▁нарушение	-9.96061
▁журналистам	-9.96069
▁сообщения	-9.96098
▁Министр	-9.96133
▁чуть	-9.96352
информ	-9.96382
▁Обама	-9.96394
▁издание	-9.96427
▁современно	-9.96513
▁голосования	-9.96607
золот	-9.9664
▁ноябре	-9.96757
▁вертолет	-9.96757
торг	-9.96887
▁45	-9.96909
▁аналитик	-9.96967
▁федерального	-9.96973
▁новым	-9.97021
▁Франц	-9.97054
▁смогли	-9.97057
▁баррель	-9.97177
▁беженцев	-9.97177
▁октябре	-9.97177
▁поддержал	-9.97178
▁властям	-9.97178
ir	-9.97315
▁меч	-9.97354
▁техники	-9.9748
▁мнение	-9.97515
прежнему	-9.976
▁бизнесмен	-9.97661
▁отправил	-9.97736
Краснодар	-9.9775
▁ИГ	-9.97835
без	-9.97895
▁официальный	-9.98004
против	-9.98014
▁позволяет	-9.98024
▁российском	-9.98105
▁использование	-9.98154
▁накануне	-9.98236
▁имел	-9.98369
▁брон	-9.98378
вшем	-9.9845
▁должность	-9.98539
▁демон	-9.98619
▁приходится	-9.98665
▁Между	-9.98665
▁медицинско	-9.98758
▁явля	-9.98764
▁офис	-9.98908
▁мастер	-9.98968
▁стратегическ	-9.99207
пособ	-9.99239
▁температур	-9.99307
▁Госдуму	-9.99308
▁полиция	-9.99323
14	-9.99402
▁ущерб	-9.99523
▁различных	-9.99525
▁снег	-9.99719
▁становится	-9.99742
вшийся	-9.99746
▁водитель	-9.99903
крыть	-10.0004
▁предварительны	-10.0017
Московск	-10.0021
▁расчет	-10.0025
▁самые	-10.003
▁состояние	-10.0032
▁борьбы	-10.0039
руководит	-10.0042
▁посетит	-10.0044
▁Эрдоган	-10.0061
▁окончательн	-10.0061
▁элемент	-10.0061
▁Чтоб	-10.007
секретар	-10.0076
▁трасс	-10.0084
▁мост	-10.0084
временно	-10.0098
▁проверки	-10.0105
▁плохо	-10.0106
▁военные	-10.0109
▁Reuters	-10.0126
▁Люб	-10.0128
▁основа	-10.0128
▁движение	-10.0131
▁принимать	-10.014
▁дат	-10.0141
▁акционер	-10.0148
▁апреле	-10.0148
Авто	-10.0163
▁оперативно	-10.017
▁пакет	-10.0172
un	-10.0178
▁генерал	-10.0178
▁организатор	-10.0192
▁возвращен	-10.0192
▁сколько	-10.0193
▁Помимо	-10.0208
дание	-10.021
▁Китая	-10.0215
ставляют	-10.0217
▁крупных	-10.0225
▁объяснил	-10.0237
▁осужден	-10.0237
▁нужд	-10.0238
▁независимо	-10.0239
▁сутки	-10.0239
▁исполнитель	-10.0239
▁Мал	-10.024
ay	-10.0243
▁Мне	-10.025
вшиеся	-10.0251
▁предложен	-10.0257
▁пообещал	-10.0259
▁история	-10.0259
▁бренд	-10.0264
держит	-10.0269
▁площадь	-10.0281
▁Национально	-10.0284
▁дальше	-10.0304
▁достижени	-10.0304
Y	-10.0326
▁балл	-10.0338
▁проводил	-10.0343
▁Конечно	-10.0348
▁последнее	-10.0349
▁боевы	-10.036
▁Марк	-10.0363
▁события	-10.0371
Это	-10.0373
▁военного	-10.0376
▁In	-10.0384
▁Несмотря	-10.0393
ter	-10.0398
технолог	-10.0404
▁дни	-10.0407
▁ислам	-10.0439
Единой	-10.0447
▁недавно	-10.0461
▁Московской	-10.0462
▁будущем	-10.0463
▁расходы	-10.0485
▁позво	-10.0497
▁гражданин	-10.0502
▁Интернет	-10.0507
▁стадион	-10.0507
ировка	-10.0527
▁происшествия	-10.053
▁символ	-10.053
▁фронт	-10.053
▁Apple	-10.0552
▁кампании	-10.0552
▁рубеж	-10.0558
Урал	-10.0558
▁общества	-10.0565
▁дух	-10.0566
▁преимуществ	-10.0575
▁контакт	-10.0575
▁веществ	-10.0585
работать	-10.0597
ющее	-10.0605
▁представил	-10.0609
and	-10.0614
▁бесплатн	-10.0621
▁художник	-10.0621
▁кроме	-10.0622
▁проходил	-10.0627
класс	-10.0644
▁Хиллари	-10.0645
▁произведен	-10.0649
▁Мор	-10.0665
▁Елена	-10.0669
▁Вчера	-10.0672
▁заметил	-10.0674
▁издания	-10.0692
▁конкурент	-10.0696
▁Сочи	-10.0703
▁экипаж	-10.0714
▁заключа	-10.0714
▁резерв	-10.0715
▁оператор	-10.0715
▁существует	-10.0718
▁иметь	-10.0718
▁механизм	-10.0737
▁родственник	-10.0737
Зенит	-10.0738
тельная	-10.0746
▁установил	-10.0751
▁заседания	-10.0761
▁сотрудничества	-10.0761
▁добычи	-10.0761
▁признак	-10.0771
▁сложи	-10.0777
ck	-10.0783
▁следствие	-10.0784
▁япон	-10.0794
НК	-10.0797
дневн	-10.0798
▁отстав	-10.08
▁помочь	-10.0808
▁задержали	-10.0808
▁начнет	-10.081
▁выделен	-10.0814
od	-10.082
Йорк	-10.0832
▁Барак	-10.0838
АЗ	-10.0841
95	-10.0845
бел	-10.0847
▁фактически	-10.0853
▁партия	-10.0857
▁группировки	-10.0858
▁портал	-10.0863
▁получает	-10.0877
▁референдум	-10.0878
▁американских	-10.0892
▁регионального	-10.0899
план	-10.09
▁пенсионн	-10.0902
▁запланирован	-10.0902
▁привлечен	-10.0902
▁Надежд	-10.0902
▁вуз	-10.0903
▁направил	-10.0904
▁сохраня	-10.0906
▁предприятий	-10.0926
▁утвержден	-10.0926
Спартак	-10.0926
▁Был	-10.0936
▁внутренне	-10.095
▁берег	-10.095
▁гуманитарн	-10.0974
▁Болгарии	-10.0974
▁надежд	-10.0976
зелен	-10.0978
▁билет	-10.1
ледственного	-10.1005
▁определя	-10.1005
▁завершен	-10.1009
▁должности	-10.1015
▁рождения	-10.1021
▁негативн	-10.1022
44	-10.1044
▁абсолютно	-10.1046
▁супруг	-10.1046
жир	-10.1048
▁новую	-10.1048
U	-10.1049
▁найден	-10.1049
▁Первый	-10.1049
▁Павел	-10.105
▁Красно	-10.1064
▁огня	-10.107
давал	-10.1083
▁потенциал	-10.1093
▁Сбербанк	-10.1094
▁уменьш	-10.1094
▁потребовал	-10.1094
▁Правда	-10.1094
▁высот	-10.1103
▁ГУ	-10.1103
изирован	-10.1106
▁технически	-10.1116
▁организован	-10.1118
▁Хотя	-10.1143
▁чаще	-10.1143
▁2010	-10.115
ящие	-10.1154
▁захват	-10.1157
▁бирж	-10.1167
▁расходов	-10.1171
▁родн	-10.1179
▁отставку	-10.1181
мобил	-10.1188
▁внешне	-10.1189
▁Власти	-10.1192
▁знает	-10.1196
▁проведение	-10.1209
▁New	-10.1215
▁утром	-10.1217
▁десять	-10.1224
▁нефте	-10.1239
▁зарубежн	-10.124
▁гендиректор	-10.124
▁съем	-10.1241
▁назван	-10.1244
▁стратег	-10.1251
▁модель	-10.1259
▁историю	-10.1265
▁кажется	-10.1265
▁Друг	-10.1266
▁каб	-10.1272
▁модели	-10.1288
▁заявлял	-10.1289
снаб	-10.129
▁изменил	-10.1298
▁июле	-10.1298
▁прибыль	-10.13
носить	-10.1309
▁сохранен	-10.1314
▁Италии	-10.1314
▁высказыва	-10.1318
▁построен	-10.132
▁включен	-10.1321
▁сельско	-10.1326
▁1,5	-10.1333
▁Ведь	-10.1339
▁мигрантов	-10.1339
▁называют	-10.134
▁попада	-10.1342
▁оказалось	-10.1345
▁экран	-10.1346
▁августе	-10.1363
▁Эр	-10.1364
▁слаб	-10.1374
▁Дмитрия	-10.1379
▁Казахстан	-10.1388
▁неоднократно	-10.1388
▁территорию	-10.1388
▁условий	-10.1388
музыкальн	-10.1388
▁ВВП	-10.1389
▁Донецк	-10.1389
▁Игр	-10.1399
▁коллектив	-10.1413
▁субъект	-10.1413
▁маленьк	-10.1413
▁последних	-10.1413
▁последний	-10.1414
▁подробн	-10.1414
свобод	-10.1426
миллион	-10.1427
▁спецслужб	-10.1434
▁Республики	-10.1438
▁компьютер	-10.1438
черк	-10.1438
▁отказался	-10.1439
▁выиграл	-10.1439
▁продолжают	-10.144
▁далеко	-10.1442
▁Вячеслав	-10.1463
▁пенсионер	-10.1463
▁смартфон	-10.1463
▁Денис	-10.1464
▁борту	-10.1464
▁приехал	-10.1464
▁защитник	-10.147
объедин	-10.1472
▁появилась	-10.1488
▁восемь	-10.1488
▁завершил	-10.1503
▁использовал	-10.1514
▁корреспондент	-10.1514
▁Татьян	-10.1514
▁ребят	-10.1514
▁причем	-10.1519
▁флот	-10.152
▁успешно	-10.1526
▁ресторан	-10.1539
▁индекс	-10.1539
▁2008	-10.1549
▁совершил	-10.1557
▁максимально	-10.1564
▁судебно	-10.1565
▁отделения	-10.1585
▁диалог	-10.159
▁развитию	-10.1615
▁контроля	-10.1615
думал	-10.1619
▁экономической	-10.1621
МК	-10.1639
▁проводить	-10.164
▁произошедш	-10.164
менеджер	-10.1666
▁семи	-10.1672
▁Бог	-10.1675
▁знал	-10.1688
Извести	-10.1692
▁регулярно	-10.1692
▁позицию	-10.1692
▁Почему	-10.1718
▁порядке	-10.1718
▁популярно	-10.1725
ождение	-10.1733
▁гораздо	-10.1743
▁относительно	-10.1743
▁холод	-10.1743
▁персонал	-10.176
▁существенно	-10.1762
▁сенатор	-10.1769
▁богат	-10.177
▁высказал	-10.177
Един	-10.1773
▁аналог	-10.1793
▁обеспечив	-10.1795
▁поврежден	-10.1795
▁стоимости	-10.1795
▁спортивны	-10.1795
▁автомобили	-10.1799
ступить	-10.1809
сторон	-10.1816
председател	-10.182
▁инструмент	-10.1821
▁отсутствие	-10.1821
▁оказалась	-10.1829
▁неизвестны	-10.1847
бург	-10.1856
мимо	-10.1861
▁нужны	-10.1873
▁первое	-10.1874
▁учреждения	-10.1874
▁снижа	-10.1874
▁психолог	-10.1879
▁КНДР	-10.1899
▁оппозиции	-10.1899
▁сожалению	-10.1899
▁зарегистрирован	-10.1899
▁отрасли	-10.19
▁массово	-10.1913
▁Кадыров	-10.1925
▁каждом	-10.1926
▁миллиардов	-10.1926
▁показатель	-10.1926
▁предпоч	-10.1931
тепл	-10.194
▁предоставля	-10.194
▁000	-10.1947
▁внутренних	-10.1952
▁середине	-10.1952
▁посольств	-10.1952
кратн	-10.1954
▁150	-10.197
▁обеспечить	-10.1978
▁множеств	-10.1978
▁кабинет	-10.1978
▁довери	-10.1991
▁обычн	-10.1996
▁устанавлива	-10.2005
▁основной	-10.2005
▁свыше	-10.2005
▁экспертиз	-10.2006
▁дешев	-10.2014
▁Без	-10.2017
▁тепло	-10.2024
▁немного	-10.2025
▁предварительно	-10.2031
▁каждого	-10.2031
▁отметить	-10.2032
▁успел	-10.2034
▁собирается	-10.2049
кредит	-10.2056
▁знак	-10.2056
▁продав	-10.2056
▁людям	-10.2058
▁прокуратуры	-10.2058
▁замеча	-10.2058
▁мотив	-10.2062
▁днем	-10.2069
▁медицински	-10.2075
▁полуостров	-10.2084
▁здоровья	-10.2084
▁большая	-10.2085
▁обвинил	-10.2087
▁самостоятельно	-10.2111
▁утверждает	-10.2111
▁увеличить	-10.2111
▁стрельб	-10.2111
▁земель	-10.2111
▁подверг	-10.2114
▁помощник	-10.2138
▁конкретны	-10.2138
▁воздушно	-10.2138
▁кодекс	-10.2138
▁бумаг	-10.2139
▁каса	-10.2141
▁расширен	-10.2142
▁уваж	-10.2147
▁жить	-10.2152
▁звон	-10.2168
▁здание	-10.2169
▁Андрея	-10.2192
▁зафиксирован	-10.2192
▁протяжении	-10.2192
▁сигнал	-10.2192
▁миллиарда	-10.2197
W	-10.2219
▁возвраща	-10.2219
▁степени	-10.2219
▁политической	-10.2219
▁Ольга	-10.2219
летняя	-10.2221
▁пояс	-10.2222
▁поддержке	-10.2246
▁Китае	-10.2247
▁формат	-10.2253
Основн	-10.2259
▁соответственно	-10.2273
▁Алексея	-10.2274
▁льгот	-10.2301
▁путем	-10.2302
▁двое	-10.2302
▁решить	-10.2304
2,5	-10.2308
▁сложности	-10.2313
▁предполагает	-10.2328
▁заседание	-10.2328
▁изображен	-10.2328
Сахалин	-10.233
▁международным	-10.2342
▁собрал	-10.2346
▁проверя	-10.2354
▁онлайн	-10.2355
производителей	-10.2356
▁ключевы	-10.2357
▁настроен	-10.2367
▁Здесь	-10.2383
длежащ	-10.2383
▁экономике	-10.2383
▁Причем	-10.2384
▁второго	-10.2392
средств	-10.24
▁имущества	-10.241
▁исполня	-10.241
▁флаг	-10.2424
▁активист	-10.2425
▁эффект	-10.243
▁усилен	-10.2437
▁Twitter	-10.2438
▁доказательств	-10.2438
▁инвестиций	-10.2438
▁заниматься	-10.2459
▁Многие	-10.2465
▁промышленности	-10.2466
бук	-10.2476
▁популярны	-10.2479
▁арбитраж	-10.2493
▁эфире	-10.2493
▁взросл	-10.2493
▁влияние	-10.2493
▁слуша	-10.2496
▁научно	-10.2503
▁украинских	-10.2513
менять	-10.2522
▁роман	-10.2523
▁отлича	-10.2538
▁проводят	-10.2556
▁ядерно	-10.2563
экономически	-10.2564
▁верх	-10.2568
▁руководства	-10.2577
▁событий	-10.2577
▁ученые	-10.2579
▁представляет	-10.2583
писать	-10.2587
▁июне	-10.259
▁открыва	-10.2597
▁саммит	-10.261
▁власть	-10.2613
▁позже	-10.2636
Известиям	-10.2639
▁Правительство	-10.2661
▁предстоит	-10.2661
▁трлн	-10.2662
▁аналогичны	-10.2664
▁читать	-10.2664
▁применя	-10.2666
▁вирус	-10.2677
▁Институт	-10.269
▁зависимости	-10.269
▁заинтересован	-10.269
▁друж	-10.2694
Транс	-10.2711
▁склад	-10.2721
▁ключ	-10.2739
ведомств	-10.274
▁подозрени	-10.2747
▁Кстати	-10.2747
пытались	-10.2756
ТАСС	-10.2757
H	-10.2757
алкоголь	-10.2775
▁инженер	-10.2775
▁арестован	-10.2779
▁прошла	-10.2783
службы	-10.2795
прокомментировал	-10.2797
▁регулятор	-10.2804
▁сериал	-10.281
месячн	-10.2814
▁подготовки	-10.2833
▁можем	-10.2834
▁лед	-10.2838
▁жилья	-10.2842
▁избирательно	-10.2862
▁политических	-10.2862
▁паспорт	-10.2862
▁Американск	-10.289
▁Премьер	-10.289
▁федерации	-10.289
▁предвыборн	-10.289
соедини	-10.2894
▁Фонд	-10.2894
▁обыск	-10.2903
▁душ	-10.2907
▁вещи	-10.2916
▁участка	-10.2919
▁Турция	-10.2919
▁дальне	-10.2925
▁сторонник	-10.2937
▁Компания	-10.2948
▁Только	-10.2949
▁вовсе	-10.2965
▁дефицит	-10.2978
▁согласован	-10.2978
▁текущего	-10.2978
▁технологий	-10.2978
▁Екатерин	-10.2988
▁необходим	-10.2991
▁приоритет	-10.3007
▁Политика	-10.3007
▁занимал	-10.3021
модерн	-10.3021
▁честь	-10.3025
▁спустя	-10.3036
▁располага	-10.3036
▁дизайн	-10.3036
▁минимальн	-10.3039
▁понимаю	-10.3046
мышлен	-10.3048
▁административно	-10.3066
▁исключительно	-10.3066
▁Леонид	-10.3066
▁европейских	-10.3066
▁$3	-10.3073
▁ведомстве	-10.3084
▁настаива	-10.3091
▁наказание	-10.3095
▁произошла	-10.3095
▁установить	-10.3096
▁правильно	-10.31
ответственн	-10.3113
▁Отметим	-10.3125
▁секунд	-10.3125
▁столько	-10.3125
▁добиться	-10.3125
▁проверку	-10.3125
▁Затем	-10.3126
Роснефти	-10.3154
▁Азербайджан	-10.3154
▁настоящий	-10.3154
▁последствия	-10.3154
▁участвовать	-10.3154
▁заключил	-10.3154
▁полагает	-10.3162
▁Google	-10.3184
▁Депутат	-10.3184
▁capt	-10.3214
·	-10.3214
▁музыкант	-10.3214
▁появились	-10.3214
▁предприниматель	-10.3214
▁ухудш	-10.3214
▁ОАО	-10.3214
▁лучших	-10.3214
▁четвер	-10.3217
▁Виталий	-10.3244
▁мероприятий	-10.3244
▁денежны	-10.3244
▁любим	-10.3245
ступать	-10.3256
▁праймериз	-10.3274
▁зависит	-10.3274
▁бензин	-10.3274
▁хоть	-10.3274
▁технологии	-10.3274
▁II	-10.3281
▁уникальн	-10.3302
комплект	-10.3304
▁снижения	-10.3304
▁Керри	-10.3304
▁рулем	-10.3305
▁газеты	-10.3305
th	-10.3314
▁масл	-10.3314
▁правительственн	-10.3329
▁давление	-10.3334
▁Федор	-10.3335
▁пройти	-10.3337
▁позволил	-10.334
▁меш	-10.3346
▁участвовал	-10.3365
▁мальчик	-10.3365
▁гривен	-10.3365
▁митинг	-10.3365
▁увидел	-10.3367
говарива	-10.337
▁слово	-10.3382
▁Кирилл	-10.3395
Амур	-10.3398
▁большим	-10.34
▁Пресс	-10.3402
платформ	-10.3403
▁Mo	-10.3409
▁здравоохранения	-10.3425
▁Валентин	-10.3425
▁Новосибирск	-10.3425
▁позиция	-10.3426
▁агент	-10.3438
'	-10.3456
▁памяти	-10.3456
▁окруж	-10.3456
▁ориентир	-10.3456
ставлять	-10.3457
▁угрожа	-10.3457
▁увеличив	-10.3457
безопасн	-10.3461
▁слыш	-10.3464
▁агентств	-10.3466
▁закончил	-10.3469
коротк	-10.3477
красив	-10.3479
▁английск	-10.3487
▁ЦИК	-10.3487
▁грузовик	-10.3488
▁ведут	-10.3502
Екатеринбург	-10.3506
▁говоря	-10.3516
▁Накануне	-10.3517
▁$2	-10.3523
▁Алекс	-10.3538
▁опроверг	-10.3548
▁Генеральн	-10.3549
WADA	-10.3579
▁провинции	-10.3579
бросил	-10.3583
▁попыта	-10.3598
▁попытки	-10.361
▁пострадавших	-10.361
▁Комитет	-10.361
▁падение	-10.3612
▁металл	-10.3613
▁уничтожен	-10.3617
▁секрет	-10.363
▁реализаци	-10.3636
▁сообщают	-10.3638
▁традиционно	-10.3642
прашива	-10.3642
цкого	-10.3672
▁КПРФ	-10.3673
▁законодательн	-10.3673
▁Наталья	-10.3673
▁Вадим	-10.3673
▁порядок	-10.3673
▁судебны	-10.3674
▁земле	-10.3676
▁подключ	-10.3678
▁отдельно	-10.3681
▁насколько	-10.3704
▁полномочия	-10.3704
▁ребенок	-10.3704
▁отзыв	-10.3711
▁обновлен	-10.3714
▁находились	-10.3718
▁аудитор	-10.3736
▁сегодняшний	-10.3736
▁турецко	-10.3741
ящим	-10.3749
▁получив	-10.3751
▁затрат	-10.3752
скорб	-10.3753
▁концу	-10.3768
кажут	-10.377
▁супер	-10.3776
▁ведомство	-10.378
▁танк	-10.3789
▁используют	-10.3799
▁финансирования	-10.3799
▁сделки	-10.3801
живает	-10.382
▁отказыва	-10.3821
▁падения	-10.3832
▁продлен	-10.3834
▁операция	-10.3838
▁огне	-10.3852
Республика	-10.3862
▁глубок	-10.3862
▁объясняет	-10.3862
▁пользователей	-10.3862
▁хочу	-10.3862
Новости	-10.3865
казывать	-10.3888
▁сегмент	-10.3894
▁итальянск	-10.3894
▁колонии	-10.3894
▁аварии	-10.3895
▁Европейско	-10.3925
▁поможет	-10.3926
▁стабильно	-10.3926
▁норматив	-10.3927
▁ВТБ	-10.3927
▁земли	-10.3927
▁Второй	-10.393
оформ	-10.3939
%	-10.395
&	-10.3958
▁Информационно	-10.3959
▁стимул	-10.3959
Групп	-10.3991
▁спортивно	-10.3991
праздн	-10.4022
▁сыграл	-10.4024
▁одновременно	-10.4025
▁назвать	-10.4029
ишь	-10.4045
▁большое	-10.4056
▁авиакомпании	-10.4057
▁инфраструктуры	-10.4057
▁$4	-10.4065
▁отношение	-10.4088
▁основных	-10.4088
▁нарушений	-10.4088
поставщик	-10.409
▁огонь	-10.409
▁Одно	-10.412
▁Сообщается	-10.4121
▁Узбекистан	-10.4121
right	-10.4121
▁выяснилось	-10.4123
▁путь	-10.4125
▁золото	-10.4126
▁Никит	-10.413
▁действующе	-10.4134
Лучш	-10.4141
▁считать	-10.4151
▁выступал	-10.4154
▁решений	-10.4154
▁исторически	-10.4154
▁храм	-10.4154
▁Артем	-10.4155
▁российская	-10.4187
▁Господин	-10.4187
▁избирателей	-10.4187
▁пройдут	-10.4187
▁Улюкаев	-10.422
▁просьбой	-10.422
▁производит	-10.4223
▁Всемирно	-10.4225
▁родителей	-10.4227
▁мозг	-10.4228
▁выйти	-10.4231
▁колес	-10.4234
техническ	-10.4238
▁человеческ	-10.4246
▁ГИБДД	-10.4253
▁вспомина	-10.4253
▁Кремля	-10.4253
▁защища	-10.4253
▁госпож	-10.4254
▁copy	-10.4286
▁отказались	-10.4286
остях	-10.4304
▁эксперимент	-10.4319
▁случаях	-10.4319
▁прошлы	-10.432
▁снял	-10.4325
▁Абд	-10.4338
▁массовы	-10.4346
Жанейро	-10.4353
▁Ярослав	-10.4353
▁соревнования	-10.4353
Z	-10.4353
архитект	-10.4353
нибудь	-10.4353
▁инвалид	-10.4353
▁Речь	-10.4353
▁приобретен	-10.4363
Если	-10.4365
профессионал	-10.4386
▁Возможно	-10.4386
▁Кузнецов	-10.4386
▁гибели	-10.4386
Волгоград	-10.4386
▁комиссия	-10.4386
▁преврати	-10.4386
Георг	-10.4388
▁бюро	-10.4389
▁большую	-10.439
▁прокат	-10.4391
▁правительстве	-10.4392
▁Автор	-10.4394
▁шоу	-10.4395
Золот	-10.4406
▁ассоциации	-10.442
▁скончался	-10.442
▁напоминает	-10.442
▁письмо	-10.442
▁списка	-10.4421
▁иначе	-10.4428
Щ	-10.4454
▁инфляции	-10.4454
▁собственник	-10.4454
▁подготовке	-10.4454
▁полицию	-10.4455
▁ждет	-10.4461
незаконны	-10.4464
▁многочисленны	-10.4488
▁Эксперты	-10.4488
риканск	-10.4506
альтернатив	-10.4522
▁заболевания	-10.4522
▁розыск	-10.4522
вшее	-10.453
▁организм	-10.4532
▁коррупции	-10.4556
▁Ирина	-10.4557
▁исчез	-10.459
▁кафе	-10.4601
▁означает	-10.4624
▁финансирование	-10.4624
▁предстоящ	-10.4624
▁поставки	-10.4624
▁успешн	-10.4641
▁отстранен	-10.4642
Коммерсант	-10.4659
▁появится	-10.4659
▁Вечерни	-10.4659
▁низко	-10.4673
▁уничтож	-10.4685
▁Белоруссии	-10.4693
▁справедлив	-10.4693
▁фракции	-10.4693
▁изменить	-10.4706
▁$5	-10.4714
▁считаю	-10.4725
▁предприятие	-10.4728
▁участков	-10.4728
Ленинград	-10.4728
▁солдат	-10.4728
▁уголовны	-10.4729
▁желание	-10.4729
▁спутник	-10.4733
▁ОПЕК	-10.4763
▁административны	-10.4763
▁юридически	-10.4763
▁воспитан	-10.4763
шедше	-10.4763
▁полицейские	-10.4763
Спец	-10.4767
▁закупк	-10.4788
инфраструктур	-10.4796
▁собак	-10.4797
▁подтвержден	-10.4798
▁безопасность	-10.4798
▁ветеран	-10.4798
▁преодоле	-10.4798
▁ВВС	-10.4799
▁имею	-10.4826
▁узнал	-10.4829
▁компанией	-10.4833
▁заместителя	-10.4833
▁Новгород	-10.4833
▁нападения	-10.4834
ступают	-10.4834
▁храни	-10.4838
▁Евгения	-10.4868
▁буквально	-10.4868
▁появился	-10.4868
▁отправля	-10.4874
хватил	-10.489
государственного	-10.4892
мигрант	-10.4904
[	-10.4939
энергетическ	-10.4939
▁Валерий	-10.4939
▁корпус	-10.4939
▁акция	-10.494
▁покинул	-10.4941
▁взнос	-10.4943
▁водителя	-10.4943
▁новая	-10.4952
▁достигнут	-10.496
Москва	-10.4963
°	-10.4975
▁сотрудничество	-10.4975
▁Полиция	-10.4975
▁динамик	-10.4975
Кавказ	-10.4976
крытие	-10.4993
▁муниципальны	-10.501
▁неизвестно	-10.501
▁каждой	-10.501
Воронеж	-10.5011
▁полицейских	-10.5011
ладелец	-10.5011
▁дистанци	-10.5013
▁постоянн	-10.5017
ифицирован	-10.5045
]	-10.5046
▁предусматривает	-10.5046
▁крыш	-10.5055
Национальн	-10.5071
▁добавля	-10.5082
▁недвижимости	-10.5082
▁профессор	-10.5082
▁ходатайств	-10.5082
▁Соединенны	-10.5082
▁бороться	-10.5082
▁предлагают	-10.5082
▁климат	-10.5083
▁внимания	-10.5083
▁Дмитр	-10.5083
▁завтра	-10.5084
▁Group	-10.5118
▁устойчив	-10.5118
▁поколения	-10.5119
▁поправки	-10.5121
▁полномочий	-10.5154
▁требований	-10.5154
▁обратно	-10.517
▁прокуратура	-10.5191
▁здоровье	-10.5191
▁Решение	-10.5191
служил	-10.52
▁получал	-10.522
Q	-10.5227
▁соревнований	-10.5227
▁хозяев	-10.5227
▁аукцион	-10.5227
▁теннис	-10.5227
▁Европа	-10.5228
▁население	-10.5229
▁рассматривает	-10.5229
▁футбольно	-10.5247
▁Меркель	-10.5264
▁принадлежит	-10.5264
▁Европу	-10.5264
▁очевидно	-10.5264
▁очков	-10.5266
▁разработан	-10.5301
▁банд	-10.5325
▁военнослужащих	-10.5338
▁требование	-10.5338
▁экстремист	-10.5338
▁имущество	-10.5338
▁избежать	-10.5338
▁изъят	-10.5348
▁движ	-10.5362
▁грипп	-10.5375
▁комфорт	-10.5375
▁увидеть	-10.5375
▁Можно	-10.5375
▁смертн	-10.5382
▁устроил	-10.5397
▁мошенничеств	-10.5412
▁территория	-10.5412
▁заявлении	-10.5412
Звезд	-10.5413
Динамо	-10.5414
▁восьми	-10.5414
штаб	-10.5417
▁овощ	-10.5449
квартир	-10.5449
▁компанию	-10.5449
▁акциз	-10.5449
Челябинск	-10.5449
▁снизить	-10.5449
▁юрист	-10.5454
▁герои	-10.5454
▁Татарстан	-10.5487
▁убежден	-10.5487
▁совместны	-10.5488
▁оценил	-10.5505
▁шахт	-10.5517
▁иногда	-10.5524
▁офицер	-10.5524
▁различные	-10.5524
▁автоматическ	-10.5525
▁останется	-10.5525
▁смерть	-10.5526
курорт	-10.5534
интересов	-10.5545
▁поднял	-10.5548
▁автомобиле	-10.5556
▁Некоторые	-10.5562
▁неожиданно	-10.5562
▁подразделения	-10.5562
▁поставлен	-10.5562
▁третий	-10.5563
▁оформлен	-10.5576
Локомотив	-10.56
▁Васильев	-10.56
▁альянс	-10.56
▁премии	-10.5605
▁пуск	-10.5631
▁Сотрудники	-10.5638
▁друзья	-10.5638
▁фестиваля	-10.5638
▁постепенно	-10.5638
▁Люди	-10.5638
▁Далее	-10.5639
▁утверждают	-10.5676
▁хватает	-10.5676
▁комментиру	-10.5676
▁написан	-10.5677
▁растет	-10.5678
▁первая	-10.5715
▁оценки	-10.5716
▁ждут	-10.5717
▁атлет	-10.5717
▁препода	-10.5718
▁любит	-10.5736
▁исполнит	-10.5749
▁of	-10.5753
▁плюс	-10.5754
групп	-10.5754
▁Обамы	-10.5756
▁набрал	-10.5777
▁мусор	-10.5792
▁решать	-10.5815
▁террористически	-10.5818
Башнефт	-10.583
▁действовать	-10.583
▁отношению	-10.583
▁профессионально	-10.583
▁Кремле	-10.5831
▁получают	-10.5834
▁график	-10.5835
▁называл	-10.5867
▁преступлений	-10.5869
▁проголосовал	-10.5869
▁Центробанк	-10.5869
▁подготовлен	-10.5869
▁детям	-10.5869
▁РАН	-10.5869
▁постановление	-10.5871
Саратов	-10.5872
▁соглаш	-10.5894
▁педагог	-10.5908
▁решению	-10.5908
▁Позже	-10.5909
▁Луганск	-10.591
▁туристическ	-10.591
▁связь	-10.5912
▁ждать	-10.5913
▁сотни	-10.5916
▁вагон	-10.5939
▁техническо	-10.5942
▁атмосфер	-10.5947
▁последнего	-10.5947
Свободн	-10.5947
▁услыш	-10.5947
▁нужна	-10.5947
▁память	-10.5947
▁позитив	-10.5948
▁наконец	-10.5948
▁доктор	-10.5949
Олимп	-10.596
▁поручени	-10.5966
▁публично	-10.5987
▁сотруднича	-10.5987
▁противоречи	-10.5987
▁Мутко	-10.5987
ставляет	-10.6003
▁использует	-10.6026
▁кроссовер	-10.6026
▁ликвидаци	-10.6026
▁немало	-10.6031
▁начнут	-10.6031
▁Брюсселе	-10.6066
▁выглядит	-10.6066
▁действует	-10.6066
▁настолько	-10.6066
▁коалиции	-10.6066
▁спокойно	-10.6066
▁окружающ	-10.6066
▁сюжет	-10.6066
▁титул	-10.6068
культур	-10.6076
▁iPhone	-10.6106
▁Захарова	-10.6106
▁Председатель	-10.6106
▁долгосрочн	-10.6106
▁доставлен	-10.6106
▁религиозн	-10.6106
▁версия	-10.6106
предпринимателей	-10.6106
▁дважды	-10.6106
▁гостей	-10.6109
▁Стоит	-10.6112
инэкономразвития	-10.6146
▁людьми	-10.6146
▁художественн	-10.6146
▁одобрил	-10.6146
▁возбудил	-10.6146
▁талант	-10.6146
▁эпох	-10.6146
▁реестр	-10.6159
▁явно	-10.6173
▁ИГИЛ	-10.6186
▁Стоимость	-10.6186
▁бригад	-10.6186
▁профессиональны	-10.6186
▁Игоря	-10.6186
▁потерпев	-10.6187
▁неудач	-10.6187
помнить	-10.6188
▁технологическ	-10.6207
▁нынешнего	-10.6226
▁пешеход	-10.6226
▁звуч	-10.6227
▁требуют	-10.6227
▁удобн	-10.6229
▁Дагестан	-10.6267
▁баланс	-10.6267
▁Ученые	-10.6267
▁океан	-10.6271
▁претендент	-10.6307
▁прошедши	-10.6307
▁образовательн	-10.6307
▁отпуск	-10.6311
▁контроле	-10.6313
▁Times	-10.6348
▁опрошенных	-10.6348
▁пресечения	-10.6348
▁поставок	-10.6348
Владивосток	-10.6348
▁сумел	-10.635
▁объяв	-10.6352
производителя	-10.6364
▁прямы	-10.6389
▁обвинение	-10.6389
▁Красноярск	-10.6389
▁допуск	-10.6395
полковник	-10.6415
▁Афганистан	-10.643
▁окончания	-10.643
▁регистрации	-10.643
▁письме	-10.6444
▁участок	-10.6472
▁эпизод	-10.6472
▁обращение	-10.6472
▁детьми	-10.6472
▁лечение	-10.6472
▁четко	-10.6481
▁проверка	-10.6481
▁розничн	-10.6513
▁удастся	-10.6513
▁прогресс	-10.6513
▁оценке	-10.6514
▁определить	-10.6518
льянов	-10.655
▁традиционны	-10.6555
▁избирательны	-10.6555
▁отмечал	-10.6555
▁противодействи	-10.6555
▁попасть	-10.6558
▁Николаев	-10.656
стоять	-10.658
▁Светлана	-10.6597
▁Аравии	-10.6597
▁посеща	-10.6597
▁дочь	-10.6599
▁сопровожда	-10.6639
▁будущее	-10.6639
▁требовал	-10.6639
▁москвич	-10.6681
▁благотворительн	-10.6681
▁Чечни	-10.6681
▁миллиардер	-10.6681
▁приглашен	-10.6681
▁повыша	-10.6683
контроль	-10.6703
независим	-10.6719
▁одобрен	-10.6723
▁здании	-10.6723
▁презент	-10.6723
▁обращения	-10.6724
▁оснащен	-10.6724
▁Может	-10.6724
▁вскоре	-10.6724
▁выяснил	-10.6763
Роснефть	-10.6766
▁предназначен	-10.6766
▁церкви	-10.6766
▁серьезные	-10.6767
▁посетил	-10.6767
▁Всероссийск	-10.6772
▁Олимпиаде	-10.6809
▁мониторинг	-10.6809
▁Турцию	-10.6809
▁Общество	-10.6809
▁топлива	-10.6851
▁Геннади	-10.6851
▁протокол	-10.6854
удивительн	-10.6854
профиль	-10.6871
▁принимают	-10.6872
▁пребыва	-10.6872
▁состоит	-10.6874
▁отправить	-10.6877
▁должностны	-10.6878
Дону	-10.6884
коррупционн	-10.6895
▁ослаб	-10.6895
▁вызван	-10.6895
▁гонки	-10.6895
▁консерв	-10.6895
▁Бразилии	-10.6938
▁борьбу	-10.6938
▁озвуч	-10.6938
▁некоторо	-10.6938
▁федеральных	-10.6939
▁признать	-10.6947
▁уполномочен	-10.6981
▁Агентств	-10.6981
▁предоставить	-10.6981
▁Московского	-10.6982
▁гостиниц	-10.6982
▁предлагал	-10.699
компания	-10.701
▁баррелей	-10.7025
▁возглавил	-10.7025
▁девушка	-10.7025
▁энергетики	-10.7025
▁попытка	-10.7025
▁быстрее	-10.7025
▁последним	-10.7026
Финанс	-10.7027
▁полагают	-10.7028
▁персонаж	-10.7069
▁Соответствующ	-10.7069
▁злоумышленник	-10.7069
▁Проект	-10.7069
▁таможенн	-10.707
▁текущи	-10.7073
▁Brent	-10.7113
▁соответствующе	-10.7113
▁Польши	-10.7113
▁вызывает	-10.7113
▁Индии	-10.7113
▁полгода	-10.7114
нефтегаз	-10.7116
▁южно	-10.7117
держав	-10.7138
▁испытания	-10.7157
▁Вооруженны	-10.7157
▁приведет	-10.7158
▁любовь	-10.716
▁предупрежда	-10.7202
▁чрезвычайно	-10.7202
▁ситуацией	-10.7202
▁письма	-10.7202
▁хакер	-10.7202
▁Общественн	-10.7203
Справедлив	-10.7246
нструктор	-10.7246
▁администрация	-10.7246
▁превышает	-10.7246
▁возобновлен	-10.7246
▁основные	-10.7246
▁патриот	-10.7246
▁Ближне	-10.7246
▁пенсии	-10.7246
▁поручил	-10.725
▁добива	-10.7273
вмешательств	-10.7291
▁регламент	-10.7291
▁ЖКХ	-10.7291
▁зрителей	-10.7291
▁СНГ	-10.7291
▁решении	-10.7292
▁некоторым	-10.7336
▁нынешнем	-10.7336
▁обратиться	-10.7336
▁потребителей	-10.7336
▁политического	-10.7336
Хорош	-10.7337
везли	-10.734
▁подготовил	-10.7341
▁приобрет	-10.7367
▁удовлетворен	-10.7381
▁приватизации	-10.7381
▁соглашений	-10.7381
▁отправлен	-10.7388
▁лишил	-10.7405
Открыт	-10.7417
▁Благодар	-10.7427
▁Египта	-10.7427
▁Филипп	-10.7427
▁юридическо	-10.7427
▁списке	-10.7427
▁Победы	-10.7428
▁домашне	-10.7431
▁Калининград	-10.7472
▁лицензии	-10.7472
▁обещан	-10.7473
▁Молод	-10.7474
▁Испании	-10.7518
▁инвестиционно	-10.7518
▁Думаю	-10.7518
▁КНР	-10.7519
▁оппозиционн	-10.7564
▁предполагаем	-10.7564
▁территорий	-10.7564
▁перевозчик	-10.7564
однозначн	-10.7577
▁вынесен	-10.7592
▁воздействи	-10.7593
▁ЛДПР	-10.7611
▁беспилотн	-10.7611
▁позднее	-10.7611
▁разрабатыва	-10.7611
▁конкретно	-10.7611
▁Тульской	-10.7611
▁МОК	-10.7611
подрядчик	-10.7612
▁антидопингово	-10.7657
▁музея	-10.7657
▁мусульман	-10.7657
▁превысил	-10.7657
▁раунд	-10.7657
▁половине	-10.7657
▁разработки	-10.7658
▁коррект	-10.7658
▁Известно	-10.7658
▁комнат	-10.7658
спасательн	-10.7668
вольны	-10.769
▁Инцидент	-10.7704
▁задолженности	-10.7704
▁прекратить	-10.7704
▁Америки	-10.7704
▁проведет	-10.7705
▁церемонии	-10.7751
▁Яценюк	-10.7751
▁сокраща	-10.7751
▁костюм	-10.7751
▁Сирию	-10.7751
▁Очень	-10.7751
▁половины	-10.7751
▁филиал	-10.7752
j	-10.7798
▁корпоративн	-10.7798
▁осенью	-10.7798
▁обещал	-10.7799
▁шайб	-10.7799
▁появилось	-10.7845
▁положительно	-10.7845
▁похорон	-10.7845
▁замминистра	-10.7846
▁Армении	-10.7846
▁Юлия	-10.7846
▁робот	-10.7851
▁криминал	-10.7853
национальн	-10.7867
▁Анатолий	-10.7893
▁Пентагон	-10.7893
▁Саакашвили	-10.7893
▁основным	-10.7893
▁рыночн	-10.7893
▁уплат	-10.7904
▁арестовал	-10.7905
▁распространя	-10.7914
учиться	-10.7927
▁выбрал	-10.7929
▁Олимпиады	-10.7941
▁Официальны	-10.7941
▁мягк	-10.7941
▁назначил	-10.7941
▁заранее	-10.7942
▁Дамаск	-10.7942
продукт	-10.7943
▁трагедии	-10.7989
▁звук	-10.7989
▁правозащитн	-10.8006
▁продукцию	-10.8037
▁руководителей	-10.8037
▁испытыва	-10.8037
▁лайнер	-10.8037
▁инвестиционны	-10.8037
▁рубрике	-10.8038
▁политолог	-10.8039
▁комментариев	-10.8086
▁соцсети	-10.8086
▁транзит	-10.8086
▁подчеркивает	-10.8086
port	-10.8086
ственная	-10.8089
▁раскрыв	-10.8113
▁Экономика	-10.8135
▁соответствует	-10.8135
▁управлении	-10.8135
▁Бизнес	-10.8135
причастности	-10.8135
▁Британск	-10.8135
▁владельца	-10.8136
компании	-10.8139
проект	-10.814
▁товарищ	-10.815
миллиард	-10.8173
производитель	-10.8182
▁ведущих	-10.8184
▁хотим	-10.8184
▁информацией	-10.8184
Яндекс	-10.8184
▁глобально	-10.8184
▁событие	-10.8185
▁the	-10.8188
республиканц	-10.8194
▁пропуск	-10.8225
▁произойдет	-10.8233
▁взаимодействия	-10.8233
▁отрицательн	-10.8233
▁петербургск	-10.8233
▁заканчива	-10.8233
ступив	-10.8273
конституционн	-10.8282
▁Турцией	-10.8282
▁большинства	-10.8282
▁декларац	-10.8282
▁традиции	-10.8282
▁текущем	-10.8282
▁альбом	-10.8282
▁горожан	-10.8283
▁одержал	-10.8283
▁упомина	-10.8283
▁Роберт	-10.8283
▁интеллект	-10.8332
▁офшор	-10.8332
▁счастлив	-10.8332
Газете	-10.8332
▁Королев	-10.8332
▁рассматривать	-10.8333
▁атомн	-10.8337
ысокопоставленн	-10.8382
▁Большинство	-10.8382
▁Грузии	-10.8382
▁миграционн	-10.8382
▁патриарх	-10.8382
▁поклонник	-10.8382
▁поясняет	-10.8383
▁беспоко	-10.8384
▁птиц	-10.8394
▁Следственны	-10.8432
▁выставки	-10.8432
▁оппонент	-10.8432
▁редактор	-10.8432
▁собственных	-10.8432
ыступая	-10.8432
▁договоренности	-10.8432
▁музей	-10.8432
▁ФРГ	-10.8433
▁политические	-10.8433
▁завоевал	-10.8433
▁футбольны	-10.8448
▁замглав	-10.8483
▁госпитализирова	-10.849
▁принципиальн	-10.8496
▁космодром	-10.8534
▁напрямую	-10.8534
▁российскую	-10.8534
▁Особенно	-10.8534
▁участки	-10.8534
▁Григори	-10.8534
фабрик	-10.8534
▁испанск	-10.8537
▁разверну	-10.8548
▁Матвиенко	-10.8585
▁Следствие	-10.8585
▁компенсации	-10.8585
Германия	-10.8585
▁восстановить	-10.8585
▁сердце	-10.8585
▁добычу	-10.8585
▁Степан	-10.8585
▁Каждый	-10.8585
▁вдвое	-10.8585
▁Приморск	-10.8594
▁кажды	-10.8594
▁потенциальны	-10.8595
▁Директор	-10.8636
▁ОБСЕ	-10.8636
▁библиотек	-10.8636
▁фестиваль	-10.8636
▁коллектор	-10.8636
▁относятся	-10.8636
▁приобрел	-10.8636
▁участке	-10.8688
▁боксер	-10.8688
▁изготовлен	-10.8697
▁исполнил	-10.8739
▁капитан	-10.8739
▁националист	-10.8739
▁седьм	-10.8739
▁строительстве	-10.8739
▁высоким	-10.8739
▁шоссе	-10.8739
▁автономн	-10.879
▁Руководител	-10.8791
▁осуществлять	-10.8791
▁отвечает	-10.8791
▁площадке	-10.8791
▁дежур	-10.8792
▁пограничн	-10.8792
▁Мосул	-10.8793
▁Бельгии	-10.8844
▁Севастополя	-10.8844
▁сотрудничестве	-10.8844
▁килограмм	-10.8844
▁разбирательств	-10.8844
▁Дэвид	-10.8844
▁влияния	-10.8844
▁сказано	-10.8844
▁развитии	-10.8844
▁ядерны	-10.8893
▁Результат	-10.8896
▁безусловно	-10.8896
▁площадка	-10.8896
▁РЖД	-10.8896
▁немедленно	-10.8896
▁Документ	-10.8896
▁Госдуме	-10.8897
▁Ангел	-10.8899
Деньги	-10.89
▁значительны	-10.8919
▁Роспотребнадзор	-10.8949
▁воздушны	-10.8949
▁высокий	-10.8949
▁выясня	-10.895
компаний	-10.8973
▁продюсер	-10.9003
▁предупредил	-10.9003
▁строительству	-10.9003
▁хуже	-10.9003
▁полуфинал	-10.9019
▁WSJ	-10.9056
▁Mercedes	-10.9056
▁многим	-10.9056
▁праздничн	-10.9056
директор	-10.9081
конференц	-10.9095
медицинск	-10.9106
▁Адвокат	-10.911
▁Латвии	-10.911
▁биатлон	-10.911
▁пистолет	-10.911
▁глубин	-10.911
▁корабля	-10.911
▁бомбардировщик	-10.9164
▁задействован	-10.9164
▁Нескольк	-10.9164
▁Стамбул	-10.9164
▁запущен	-10.9164
▁наращива	-10.9164
ладельцы	-10.9165
▁рекламн	-10.9165
▁отвечаю	-10.9169
▁критическ	-10.9178
▁Женщин	-10.9218
▁случилось	-10.9218
Ведомост	-10.9218
▁придержива	-10.9218
▁заложник	-10.9218
▁проиграл	-10.922
▁похищен	-10.9221
▁Bloomberg	-10.9273
▁Америке	-10.9273
▁Позднее	-10.9273
▁обязательны	-10.9273
▁позволяют	-10.9273
▁Уголовно	-10.9273
▁Число	-10.9273
производители	-10.9302
‐	-10.9328
▁удовольстви	-10.9328
▁ожидаем	-10.9328
▁необычн	-10.9329
Аэрофлот	-10.9383
▁Boeing	-10.9383
▁СИЗО	-10.9383
▁заболеваний	-10.9383
▁нравится	-10.9383
▁утвердил	-10.9383
▁действовал	-10.9383
▁конгресс	-10.9383
▁гектар	-10.9383
▁МВФ	-10.9383
▁доставк	-10.941
▁Информаци	-10.9438
▁Станислав	-10.9439
▁Янукович	-10.9439
▁ежедневно	-10.9439
▁грамот	-10.9439
▁героя	-10.9439
грузки	-10.9494
▁Губернатор	-10.9494
▁Михайлов	-10.9494
▁досрочно	-10.9494
▁ожидания	-10.9494
▁очереди	-10.9494
▁жилищно	-10.9494
▁хлеб	-10.9495
способности	-10.95
▁BMW	-10.9551
▁тюрьмы	-10.9551
▁христиан	-10.9551
▁космос	-10.9551
▁музее	-10.9551
▁обыграл	-10.9551
▁учебно	-10.9551
▁внедрен	-10.9551
▁продвижени	-10.9607
▁YouTube	-10.9607
▁Встреча	-10.9607
▁Джордж	-10.9607
▁заморозк	-10.9607
▁рассчитан	-10.9608
▁Тверск	-10.9614
▁Европейски	-10.9627
Манчестер	-10.9664
▁позиций	-10.9664
▁инновационн	-10.9664
▁смягч	-10.9664
▁вокзал	-10.9673
▁скромн	-10.9684
хозяйственн	-10.9712
▁Москвой	-10.9721
▁злоупотреблени	-10.9721
▁максимум	-10.9721
▁организацией	-10.9721
▁пользоваться	-10.9721
▁столкновения	-10.9721
▁энергии	-10.9721
▁утверждал	-10.9721
▁оплаты	-10.9721
▁реализу	-10.9721
▁взыскани	-10.9721
▁мандат	-10.9721
▁либерал	-10.9747
губернатор	-10.9762
▁крушения	-10.9779
▁Футбол	-10.9781
▁позволяющ	-10.9783
▁посещени	-10.9805
і	-10.9836
>	-10.9836
хирург	-10.9836
▁впоследствии	-10.9836
▁выполнить	-10.9836
▁газопровод	-10.9836
▁недвижимость	-10.9836
▁осуществляет	-10.9836
▁торжественн	-10.9836
▁урегулирования	-10.9836
▁фрукт	-10.9836
▁денежно	-10.9837
Болгар	-10.9838
способность	-10.9844
▁обоснован	-10.9885
▁Минэкономики	-10.9894
▁Участники	-10.9894
▁добавив	-10.9894
▁комментировать	-10.9894
▁попытке	-10.9894
▁тщательно	-10.9894
▁Швеции	-10.9895
▁пространства	-10.9895
▁познакоми	-10.9895
звонил	-10.9913
Эксперт	-10.9951
▁большинстве	-10.9953
▁муниципалитет	-10.9953
▁соответствующие	-10.9953
▁зрителя	-10.9955
▁напитк	-10.9957
грязн	-10.9957
▁Василий	-11.0012
▁алкоголя	-11.0012
▁распространи	-11.0012
▁собственные	-11.0012
▁Англии	-11.0012
▁учебны	-11.0012
▁прокомментирова	-11.0026
АвтоВАЗ	-11.0071
―	-11.0071
▁девушки	-11.0071
▁жизненн	-11.0071
▁квадратны	-11.0071
▁болезни	-11.0071
▁дисциплин	-11.0073
▁Австралии	-11.013
▁академии	-11.013
▁друзей	-11.013
▁конкуренции	-11.013
▁Смоленск	-11.013
▁аргумент	-11.013
▁интенсивн	-11.013
▁одежды	-11.013
▁Специалисты	-11.019
▁руководству	-11.019
▁недалеко	-11.019
▁антироссийск	-11.0191
▁Мужчина	-11.0251
▁борьба	-11.0251
▁выявил	-11.0252
▁финальн	-11.0297
▁батальон	-11.0311
▁инспектор	-11.0311
▁комментарии	-11.0311
▁соцсетях	-11.0311
▁рынки	-11.0311
эффективн	-11.0366
Ставрополь	-11.0372
▁Людмил	-11.0372
▁востребован	-11.0372
▁индивидуальны	-11.0372
▁площадки	-11.0372
▁рекомендовал	-11.0372
▁реконструкции	-11.0372
▁Майкл	-11.0372
▁терминал	-11.0379
*	-11.0874
q	-11.147
Ы	-11.1608
−	-11.4848
_	-11.5339
#	-11.8232
@	-11.9219
Ь	-12.1176
=	-12.2946
`	-12.3845
ü	-12.5367
ї	-12.6528
ä	-12.6528
•	-12.7841
é	-13.0659
×	-13.2161
⁄	-13.2717
є	-13.4597
■	-13.5311
ó	-13.7823
ö	-13.9934
©	-13.9934
‒	-14.1184
́	-14.1184
І	-14.2612
þ	-14.4279
‬	-14.4279
μ	-14.8779
\	-14.8779
~	-14.8779
É	-14.8779
‍	-14.8779
ў	-14.8779
Ν	-15.2112
à	-15.2112
β	-15.2112
¦	-15.2112
Ş	-15.2112
α	-15.2112
¬	-15.2113
Ö	-15.2113
қ	-15.2113
Α	-15.7112
Η	-15.7112
ν	-15.7112
ο	-15.7112
ô	-15.7112
ç	-15.7112
ð	-15.7112
ī	-15.7112
ı	-15.7112
Š	-15.7112
ʀ	-15.7112
ʼ	-15.7112
⚽	-15.7112
í	-15.7113
️	-15.7113
ś	-15.7113
▲	-16.7097
ғ	-16.7098
џ	-16.7099
ŏ	-16.71
ê	-16.7101
‪	-16.7102
Ў	-16.7103
😂	-16.7104
ë	-16.7105
è	-16.7106
→	-16.7107
′	-16.7108
<	-16.7109
õ	-16.711
£	-16.7111
€	-16.7112
Έ	-16.7112
Γ	-16.7112
ø	-16.7112
έ	-16.7112
τ	-16.7112
☃	-16.7112
❄	-16.7112
∙	-16.7112
¤	-16.7112
§	-16.7112
Ë	-16.7112
ß	-16.7112
á	-16.7112
ā	-16.7112
ę	-16.7112
İ	-16.7112
ş	-16.7112
š	-16.7112
Σ	-16.7112
λ	-16.7112
ρ	-16.7112
ώ	-16.7112
Є	-16.7112
Ї	-16.7112
ё	-16.7112
ӣ	-16.7112
⋅	-16.7112
─	-16.7112
►	-16.7112
●	-16.7112
♫	-16.7112
《	-16.7112
》	-16.7112
	-16.7112
🍺	-16.7112
🎂	-16.7112
🐅	-16.7112
🐗	-16.7112
🐺	-16.7112
💪	-16.7112
̊	-16.7113
¥	-16.7113
☝	-16.7113
(	-16.7113
Ł	-16.7113
ń	-16.7113
χ	-16.7113
Қ	-16.7113
ҳ	-16.7113
🌞	-16.7113
