<unk>	0
<s>	0
</s>	0
▁п	-0
▁с	-1
▁в	-2
ст	-3
▁н	-4
ен	-5
ов	-6
ра	-7
▁о	-8
▁и	-9
то	-10
ре	-11
ко	-12
но	-13
ро	-14
го	-15
▁по	-16
ли	-17
ан	-18
ет	-19
▁д	-20
▁на	-21
ль	-22
ри	-23
▁м	-24
ка	-25
те	-26
ны	-27
▁,	-28
ла	-29
та	-30
за	-31
▁"	-32
▁б	-33
ер	-34
ни	-35
▁.	-36
ени	-37
▁у	-38
ки	-39
ле	-40
▁ч	-41
ть	-42
на	-43
да	-44
ти	-45
▁а	-46
ло	-47
▁не	-48
ва	-49
▁ко	-50
ци	-51
▁за	-52
ся	-53
ру	-54
ди	-55
во	-56
ви	-57
▁-	-58
ми	-59
▁про	-60
▁со	-61
▁ра	-62
сс	-63
▁В	-64
ем	-65
▁к	-66
ани	-67
▁С	-68
▁э	-69
▁П	-70
ля	-71
де	-72
▁го	-73
ров	-74
▁до	-75
▁об	-76
▁от	-77
ест	-78
▁что	-79
ей	-80
ско	-81
▁г	-82
мо	-83
по	-84
▁при	-85
▁Р	-86
▁пре	-87
▁К	-88
ры	-89
▁во	-90
ду	-91
▁М	-92
▁е	-93
сти	-94
не	-95
ча	-96
чи	-97
▁ре	-98
бо	-99
▁т	-100
ма	-101
▁вы	-102
ения	-103
же	-104
▁Н	-105
ски	-106
▁то	-107
хо	-108
▁2	-109
▁из	-110
тель	-111
ной	-112
сси	-113
ных	-114
▁ка	-115
ста	-116
че	-117
ово	-118
▁бы	-119
ку	-120
сь	-121
▁1	-122
лу	-123
до	-124
▁О	-125
жи	-126
се	-127
ши	-128
ного	-129
▁А	-130
▁ф	-131
▁это	-132
▁мо	-133
ги	-134
ова	-135
щи	-136
ере	-137
зи	-138
ение	-139
мен	-140
ют	-141
об	-142
▁те	-143
ции	-144
ве	-145
ну	-146
па	-147
▁ст	-148
▁Т	-149
ме	-150
▁та	-151
▁Д	-152
ные	-153
▁кото	-154
сто	-155
▁По	-156
ту	-157
си	-158
пи	-159
▁но	-160
▁Ро	-161
ков	-162
ар	-163
▁под	-164
ный	-165
▁де	-166
ств	-167
▁бо	-168
ря	-169
▁з	-170
му	-171
▁И	-172
он	-173
га	-174
ты	-175
ня	-176
▁раз	-177
▁ми	-178
▁20	-179
ется	-180
▁Б	-181
лю	-182
▁пред	-183
би	-184
▁Г	-185
ше	-186
▁(	-187
пе	-188
▁Росси	-189
лов	-190
сть	-191
са	-192
ент	-193
▁ро	-194
ным	-195
лен	-196
▁ин	-197
ской	-198
це	-199
▁пере	-200
▁ли	-201
ек	-202
уд	-203
жа	-204
ания	-205
▁ма	-206
▁я	-207
ке	-208
ран	-209
ор	-210
су	-211
лет	-212
▁",	-213
▁ста	-214
▁ком	-215
вы	-216
сле	-217
ак	-218
▁для	-219
▁ру	-220
тов	-221
пу	-222
ин	-223
спо	-224
▁все	-225
▁кон	-226
▁ни	-227
каза	-228
▁сво	-229
▁которы	-230
ще	-231
▁ме	-232
▁201	-233
▁Е	-234
бы	-235
▁си	-236
▁са	-237
жно	-238
▁У	-239
ского	-240
▁пра	-241
ск	-242
▁На	-243
мы	-244
ез	-245
про	-246
▁года	-247
жд	-248
ща	-249
ур	-250
вер	-251
▁так	-252
аль	-253
ства	-254
▁как	-255
она	-256
ном	-257
кра	-258
▁воз	-259
▁сооб	-260
▁ш	-261
▁:	-262
▁России	-263
лей	-264
тив	-265
гра	-266
▁Л	-267
ба	-268
зы	-269
овы	-270
ться	-271
дер	-272
ении	-273
ности	-274
чен	-275
ды	-276
ана	-277
бе	-278
▁его	-279
ство	-280
вля	-281
▁ве	-282
гу	-283
▁хо	-284
ских	-285
пра	-286
тся	-287
▁Ф	-288
▁се	-289
кс	-290
▁су	-291
жен	-292
ная	-293
▁сто	-294
ска	-295
из	-296
лся	-297
сту	-298
ное	-299
▁он	-300
фи	-301
ция	-302
рем	-303
▁рабо	-304
ствен	-305
▁3	-306
нов	-307
со	-308
рова	-309
ание	-310
▁стра	-311
дни	-312
▁дол	-313
лько	-314
▁З	-315
кой	-316
пре	-317
▁жи	-318
▁да	-319
ании	-320
▁Э	-321
▁ц	-322
▁".	-323
рг	-324
ходи	-325
▁после	-326
дов	-327
ети	-328
мер	-329
ета	-330
ский	-331
▁)	-332
яви	-333
ющи	-334
▁буд	-335
▁х	-336
▁па	-337
▁ны	-338
ву	-339
▁росси	-340
ления	-341
ести	-342
▁этом	-343
▁Мо	-344
лись	-345
▁комп	-346
зу	-347
стави	-348
ят	-349
ник	-350
▁пер	-351
▁ав	-352
▁полу	-353
▁ча	-354
ев	-355
гда	-356
рии	-357
▁че	-358
анов	-359
▁пров	-360
жет	-361
ред	-362
стви	-363
ден	-364
▁ви	-365
ца	-366
ность	-367
▁будет	-368
▁од	-369
▁гла	-370
▁ос	-371
▁руб	-372
▁же	-373
ша	-374
нист	-375
ром	-376
▁году	-377
▁расс	-378
лось	-379
дин	-380
гла	-381
ную	-382
▁поли	-383
▁сов	-384
▁боль	-385
▁врем	-386
лы	-387
тор	-388
▁также	-389
дар	-390
▁ди	-391
сли	-392
щест	-393
ком	-394
род	-395
▁Ч	-396
▁россий	-397
ению	-398
руп	-399
кт	-400
стоя	-401
▁дру	-402
пер	-403
при	-404
▁4	-405
тер	-406
вя	-407
ень	-408
том	-409
▁5	-410
▁слу	-411
цию	-412
▁ак	-413
▁лю	-414
фор	-415
ха	-416
▁мест	-417
бли	-418
рен	-419
▁бу	-420
лее	-421
ений	-422
коно	-423
▁мл	-424
рой	-425
вет	-426
▁уже	-427
ские	-428
▁орг	-429
сов	-430
▁был	-431
▁объ	-432
▁уча	-433
став	-434
чест	-435
▁было	-436
▁Ко	-437
00	-438
▁челов	-439
лова	-440
▁пар	-441
ес	-442
ласти	-443
▁ва	-444
▁ты	-445
▁чи	-446
▁За	-447
▁обра	-448
▁без	-449
▁время	-450
▁Ка	-451
вши	-452
лась	-453
жду	-454
▁их	-455
рт	-456
▁которые	-457
▁лет	-458
▁прези	-459
зыва	-460
▁дан	-461
зна	-462
▁мы	-463
▁произ	-464
ему	-465
теля	-466
▁том	-467
ются	-468
▁гра	-469
▁нача	-470
▁заяви	-471
прав	-472
▁Во	-473
пы	-474
цион	-475
вро	-476
телей	-477
▁Х	-478
вен	-479
чно	-480
тиче	-481
▁или	-482
гово	-483
кан	-484
▁гово	-485
сы	-486
ление	-487
тра	-488
яб	-489
ене	-490
бу	-491
▁авто	-492
▁му	-493
▁тре	-494
циаль	-495
▁спо	-496
ход	-497
▁пу	-498
▁чем	-499
▁Ми	-500
стре	-501
▁ле	-502
▁тер	-503
▁только	-504
ству	-505
▁само	-506
дет	-507
ША	-508
аз	-509
▁ку	-510
ге	-511
вать	-512
▁зна	-513
три	-514
▁еще	-515
▁США	-516
рь	-517
▁пи	-518
▁ус	-519
кры	-520
▁того	-521
▁Я	-522
ней	-523
▁При	-524
▁фи	-525
ника	-526
год	-527
станов	-528
▁сообща	-529
шен	-530
▁6	-531
есть	-532
ском	-533
▁может	-534
дут	-535
▁сле	-536
лан	-537
▁Але	-538
тели	-539
▁19	-540
судар	-541
кон	-542
▁?	-543
ональ	-544
▁Со	-545
▁более	-546
шения	-547
▁ы	-548
дом	-549
казал	-550
▁слова	-551
рта	-552
ская	-553
▁рас	-554
шение	-555
тия	-556
▁чтобы	-557
▁Но	-558
▁были	-559
▁прави	-560
▁сообщи	-561
зов	-562
нее	-563
ом	-564
▁Моск	-565
▁Ма	-566
▁Ш	-567
тельно	-568
▁который	-569
▁Укра	-570
▁ее	-571
дент	-572
▁органи	-573
▁они	-574
▁Са	-575
мот	-576
ких	-577
▁ну	-578
рит	-579
чита	-580
▁Как	-581
цы	-582
▁7	-583
▁Ц	-584
мети	-585
▁ж	-586
▁дей	-587
▁им	-588
▁ки	-589
раль	-590
▁государ	-591
пол	-592
▁испо	-593
▁РФ	-594
реди	-595
вест	-596
кого	-597
▁ом	-598
ников	-599
▁Го	-600
кономи	-601
▁вз	-602
▁отно	-603
ед	-604
▁Об	-605
▁Украи	-606
▁реги	-607
▁свя	-608
▁бан	-609
▁Си	-610
нима	-611
лом	-612
лож	-613
",	-614
▁ов	-615
▁вер	-616
тин	-617
тру	-618
ой	-619
сла	-620
▁тех	-621
ним	-622
льта	-623
▁эти	-624
▁спе	-625
▁между	-626
стра	-627
▁помо	-628
ью	-629
▁получи	-630
ут	-631
▁вопро	-632
▁свои	-633
форма	-634
ково	-635
ступ	-636
рд	-637
▁заявил	-638
рои	-639
али	-640
▁исто	-641
ане	-642
▁пол	-643
▁Та	-644
▁есть	-645
▁Ки	-646
▁представи	-647
лли	-648
▁ры	-649
яв	-650
держ	-651
стов	-652
▁2016	-653
▁8	-654
кие	-655
ций	-656
пас	-657
▁Это	-658
▁работа	-659
▁человек	-660
рован	-661
▁возмо	-662
логи	-663
клю	-664
оне	-665
▁горо	-666
ября	-667
ена	-668
▁этого	-669
вал	-670
годня	-671
мери	-672
чет	-673
яс	-674
▁Вла	-675
зд	-676
en	-677
▁Ан	-678
▁счита	-679
ман	-680
час	-681
еде	-682
пла	-683
▁Алекс	-684
▁ю	-685
▁це	-686
er	-687
▁кра	-688
▁Бо	-689
ейчас	-690
ску	-691
дей	-692
зульта	-693
трудни	-694
мент	-695
▁экономи	-696
мента	-697
▁словам	-698
▁результа	-699
рон	-700
дает	-701
▁экс	-702
емы	-703
ением	-704
▁Влади	-705
▁президен	-706
▁груп	-707
▁области	-708
▁отмети	-709
▁други	-710
пера	-711
льно	-712
овать	-713
▁организа	-714
цев	-715
шего	-716
от	-717
рий	-718
чень	-719
▁дела	-720
ники	-721
▁соб	-722
▁2015	-723
▁чет	-724
слу	-725
публи	-726
▁проек	-727
▁обо	-728
ены	-729
▁ба	-730
▁мар	-731
▁Пу	-732
каз	-733
овой	-734
▁млн	-735
▁ту	-736
▁ся	-737
▁она	-738
нако	-739
вает	-740
тери	-741
▁9	-742
▁пе	-743
кла	-744
тельства	-745
▁сред	-746
аний	-747
▁если	-748
▁бе	-749
▁будут	-750
тора	-751
вод	-752
гут	-753
вести	-754
".	-755
▁была	-756
ским	-757
▁информа	-758
дол	-759
чения	-760
▁Евро	-761
анд	-762
лага	-763
▁Се	-764
▁новы	-765
кий	-766
▁когда	-767
▁суд	-768
▁приня	-769
ставля	-770
ую	-771
ложи	-772
▁прош	-773
чение	-774
▁воен	-775
▁сотрудни	-776
ших	-777
бор	-778
▁Владими	-779
▁согла	-780
▁сде	-781
ках	-782
цу	-783
ит	-784
▁Не	-785
▁L	-786
туа	-787
▁ад	-788
▁тем	-789
роны	-790
▁явля	-791
тому	-792
▁тра	-793
▁основ	-794
▁быть	-795
▁10	-796
▁случа	-797
▁Ни	-798
▁можно	-799
сно	-800
▁рублей	-801
▁S	-802
▁Сер	-803
ными	-804
рия	-805
ряд	-806
▁дет	-807
▁где	-808
▁гражд	-809
нистра	-810
рек	-811
▁подо	-812
▁ар	-813
▁год	-814
▁которо	-815
▁очень	-816
бира	-817
▁Он	-818
бле	-819
дель	-820
▁день	-821
сков	-822
лек	-823
▁неско	-824
▁разви	-825
▁компании	-826
▁возможно	-827
цен	-828
лови	-829
▁сист	-830
▁Так	-831
▁страны	-832
сты	-833
▁цент	-834
▁млрд	-835
▁ско	-836
ровать	-837
вой	-838
стро	-839
▁говори	-840
чь	-841
льз	-842
вед	-843
▁руково	-844
ремен	-845
рам	-846
▁пока	-847
нер	-848
▁Па	-849
▁ан	-850
мерикан	-851
меча	-852
▁сообщает	-853
▁встре	-854
рани	-855
▁них	-856
▁рай	-857
ян	-858
ким	-859
ta	-860
шей	-861
▁Ва	-862
▁коми	-863
▁Ин	-864
▁действи	-865
щен	-866
▁долж	-867
▁Ю	-868
твер	-869
▁ситуа	-870
тере	-871
хи	-872
чер	-873
мест	-874
▁тыся	-875
▁A	-876
▁).	-877
рабо	-878
▁сер	-879
жда	-880
▁глав	-881
инан	-882
▁Ж	-883
народ	-884
▁аг	-885
рито	-886
тии	-887
тре	-888
▁вс	-889
коло	-890
▁жиз	-891
нес	-892
сса	-893
▁дву	-894
грам	-895
ющих	-896
щего	-897
▁15	-898
рак	-899
▁против	-900
ний	-901
рук	-902
▁два	-903
▁участ	-904
▁пов	-905
▁милли	-906
тай	-907
пом	-908
▁уда	-909
▁необ	-910
фе	-911
▁Александ	-912
торы	-913
ru	-914
▁нет	-915
аны	-916
▁оста	-917
▁име	-918
щей	-919
▁Ба	-920
ового	-921
▁террито	-922
жения	-923
▁один	-924
▁T	-925
ять	-926
кая	-927
стран	-928
вали	-929
▁тыс	-930
▁право	-931
дели	-932
▁пробле	-933
тельство	-934
пута	-935
▁Ра	-936
▁I	-937
▁даже	-938
ях	-939
▁пла	-940
▁офи	-941
▁много	-942
▁),	-943
▁продол	-944
моби	-945
▁неф	-946
▁сказал	-947
води	-948
луч	-949
рая	-950
бя	-951
▁данным	-952
▁Од	-953
анк	-954
ете	-955
▁кор	-956
шь	-957
смот	-958
on	-959
▁нас	-960
тро	-961
▁поч	-962
▁могут	-963
СС	-964
▁больше	-965
▁ию	-966
прия	-967
▁пло	-968
▁оче	-969
▁откры	-970
▁финан	-971
▁американ	-972
ческой	-973
▁необходи	-974
нии	-975
▁зам	-976
▁тран	-977
бер	-978
тя	-979
▁коман	-980
него	-981
шел	-982
▁доро	-983
лани	-984
▁вла	-985
▁До	-986
▁Про	-987
казыва	-988
шин	-989
соб	-990
▁наз	-991
▁рын	-992
рует	-993
▁N	-994
лин	-995
ское	-996
▁200	-997
▁стан	-998
▁всего	-999
▁сейчас	-1000
▁поз	-1001
вели	-1002
стве	-1003
▁фор	-1004
▁президента	-1005
▁выбо	-1006
▁0	-1007
▁уров	-1008
▁Россия	-1009
▁строи	-1010
▁ду	-1011
▁Из	-1012
ступи	-1013
▁Украины	-1014
▁этот	-1015
ясни	-1016
▁опера	-1017
овал	-1018
рав	-1019
▁Мин	-1020
лог	-1021
▁Все	-1022
▁извест	-1023
▁C	-1024
▁состоя	-1025
роме	-1026
шении	-1027
▁первы	-1028
▁пресс	-1029
▁Ку	-1030
опас	-1031
стан	-1032
▁смо	-1033
▁прода	-1034
нь	-1035
▁автомоби	-1036
▁которая	-1037
министра	-1038
▁бю	-1039
▁Да	-1040
▁вой	-1041
жение	-1042
ерез	-1043
▁оп	-1044
рово	-1045
▁То	-1046
▁сообщил	-1047
▁!	-1048
▁несколько	-1049
лия	-1050
вший	-1051
щения	-1052
▁около	-1053
▁жен	-1054
▁сегодня	-1055
▁12	-1056
▁челове	-1057
▁бли	-1058
▁меся	-1059
анию	-1060
▁три	-1061
▁доку	-1062
▁эк	-1063
▁B	-1064
гро	-1065
▁мен	-1066
емо	-1067
ель	-1068
▁M	-1069
лем	-1070
▁укра	-1071
▁програм	-1072
▁участи	-1073
▁га	-1074
циональ	-1075
..	-1076
анее	-1077
▁Ранее	-1078
нению	-1079
▁сем	-1080
▁всех	-1081
▁готов	-1082
in	-1083
▁вос	-1084
▁самы	-1085
нем	-1086
цией	-1087
тен	-1088
вают	-1089
имо	-1090
▁минист	-1091
▁F	-1092
▁президент	-1093
ям	-1094
▁ито	-1095
▁сни	-1096
▁Ново	-1097
анима	-1098
кре	-1099
лаго	-1100
▁сдела	-1101
▁отметил	-1102
▁след	-1103
▁побе	-1104
▁Ви	-1105
виа	-1106
онов	-1107
▁Мы	-1108
стей	-1109
рори	-1110
ющий	-1111
▁полити	-1112
чу	-1113
рти	-1114
ледов	-1115
▁находи	-1116
▁фак	-1117
▁От	-1118
▁ис	-1119
▁газ	-1120
▁высо	-1121
ответ	-1122
▁которых	-1123
бов	-1124
▁является	-1125
ющие	-1126
ческих	-1127
бур	-1128
ществен	-1129
▁безопас	-1130
▁кри	-1131
од	-1132
▁города	-1133
an	-1134
нения	-1135
ис	-1136
держа	-1137
нут	-1138
▁депута	-1139
щее	-1140
лого	-1141
▁решение	-1142
▁заяв	-1143
хов	-1144
▁вто	-1145
тий	-1146
туры	-1147
▁обви	-1148
▁этой	-1149
▁круп	-1150
,5	-1151
▁эле	-1152
▁свое	-1153
▁над	-1154
▁установ	-1155
▁совер	-1156
мени	-1157
вно	-1158
ья	-1159
сте	-1160
лич	-1161
▁Владимир	-1162
▁отмеча	-1163
▁себя	-1164
▁граждан	-1165
ору	-1166
▁дви	-1167
▁образ	-1168
▁прове	-1169
▁нару	-1170
▁матери	-1171
ческого	-1172
▁агент	-1173
урна	-1174
ждения	-1175
▁управ	-1176
▁кто	-1177
ровал	-1178
▁чемпи	-1179
лены	-1180
▁двух	-1181
▁через	-1182
▁Однако	-1183
▁R	-1184
▁Ме	-1185
ил	-1186
▁Сирии	-1187
▁занима	-1188
лении	-1189
ному	-1190
▁произо	-1191
▁уго	-1192
▁оказа	-1193
▁числе	-1194
▁защи	-1195
▁интер	-1196
▁тысяч	-1197
▁место	-1198
пад	-1199
▁кол	-1200
▁Пре	-1201
▁свою	-1202
скую	-1203
▁ква	-1204
зан	-1205
тки	-1206
ступа	-1207
чина	-1208
▁евро	-1209
▁террори	-1210
▁G	-1211
кам	-1212
неш	-1213
▁глава	-1214
▁эта	-1215
▁экспер	-1216
▁призна	-1217
рей	-1218
▁позво	-1219
▁спи	-1220
▁би	-1221
▁дирек	-1222
▁$	-1223
▁Россий	-1224
▁Тур	-1225
шие	-1226
бой	-1227
▁бюд	-1228
▁обя	-1229
▁меня	-1230
▁передает	-1231
кру	-1232
▁ен	-1233
ье	-1234
рах	-1235
▁обла	-1236
▁перед	-1237
▁интере	-1238
▁тру	-1239
▁ла	-1240
▁украин	-1241
▁...	-1242
едераль	-1243
циа	-1244
▁международ	-1245
▁пос	-1246
Ро	-1247
▁Кроме	-1248
жды	-1249
ьер	-1250
менно	-1251
▁Ве	-1252
▁P	-1253
▁проце	-1254
20	-1255
▁Дми	-1256
▁11	-1257
овых	-1258
▁следу	-1259
▁голо	-1260
▁запре	-1261
▁стал	-1262
точ	-1263
▁законо	-1264
▁официаль	-1265
чество	-1266
▁ян	-1267
щение	-1268
▁авиа	-1269
лим	-1270
▁Дмитри	-1271
▁30	-1272
прави	-1273
ноги	-1274
▁луч	-1275
▁теле	-1276
▁журна	-1277
▁власти	-1278
▁соответ	-1279
▁бое	-1280
▁стать	-1281
ходя	-1282
▁ответ	-1283
▁18	-1284
▁перво	-1285
▁услови	-1286
дать	-1287
▁дека	-1288
жден	-1289
▁соз	-1290
▁приз	-1291
тие	-1292
▁2014	-1293
ун	-1294
ший	-1295
▁дея	-1296
вра	-1297
фер	-1298
▁режи	-1299
ходит	-1300
▁сент	-1301
гли	-1302
▁ный	-1303
▁виде	-1304
▁сы	-1305
▁Если	-1306
▁Гос	-1307
▁Москве	-1308
бра	-1309
▁Гла	-1310
овые	-1311
кну	-1312
▁После	-1313
▁дома	-1314
▁госпо	-1315
▁шко	-1316
▁увели	-1317
▁последни	-1318
▁част	-1319
▁поги	-1320
▁декаб	-1321
гей	-1322
▁ные	-1323
мет	-1324
▁биз	-1325
тета	-1326
enta	-1327
чем	-1328
▁Ли	-1329
готов	-1330
▁ци	-1331
▁апре	-1332
▁своей	-1333
тить	-1334
писа	-1335
ностью	-1336
▁созд	-1337
▁янва	-1338
там	-1339
шли	-1340
▁прав	-1341
▁результате	-1342
▁направ	-1343
▁заклю	-1344
▁ша	-1345
дить	-1346
or	-1347
раз	-1348
▁цен	-1349
▁просто	-1350
зации	-1351
▁доба	-1352
▁город	-1353
▁моло	-1354
▁работы	-1355
▁креди	-1356
щих	-1357
▁Lenta	-1358
▁плани	-1359
чной	-1360
▁стран	-1361
▁муж	-1362
▁очеред	-1363
йте	-1364
йти	-1365
▁должны	-1366
ото	-1367
▁актив	-1368
▁производ	-1369
мина	-1370
▁прово	-1371
▁фев	-1372
▁собствен	-1373
тно	-1374
этому	-1375
▁кан	-1376
▁долла	-1377
▁администра	-1378
тон	-1379
▁СМ	-1380
цент	-1381
▁государствен	-1382
кое	-1383
▁проду	-1384
АСС	-1385
спе	-1386
▁которой	-1387
льных	-1388
ссе	-1389
вые	-1390
▁сро	-1391
▁Сергей	-1392
▁должно	-1393
▁опре	-1394
▁мат	-1395
▁иск	-1396
▁стороны	-1397
▁ему	-1398
▁безопасности	-1399
▁Ре	-1400
▁необходимо	-1401
ссии	-1402
ружи	-1403
▁испол	-1404
▁служ	-1405
ат	-1406
▁Вы	-1407
лимпи	-1408
▁связи	-1409
▁25	-1410
▁благо	-1411
шо	-1412
▁него	-1413
).	-1414
▁СМИ	-1415
▁людей	-1416
▁контро	-1417
зе	-1418
▁февра	-1419
фф	-1420
лон	-1421
▁дело	-1422
▁ри	-1423
седа	-1424
▁Ар	-1425
▁Пер	-1426
ние	-1427
▁реши	-1428
кта	-1429
▁Сов	-1430
▁конку	-1431
▁поддерж	-1432
▁показа	-1433
дь	-1434
▁окт	-1435
▁гу	-1436
служ	-1437
▁элект	-1438
сед	-1439
еры	-1440
кси	-1441
▁потре	-1442
▁других	-1443
вая	-1444
помним	-1445
▁качест	-1446
тельных	-1447
зо	-1448
▁Ру	-1449
▁политиче	-1450
вле	-1451
▁исполь	-1452
▁уголов	-1453
нет	-1454
▁Путин	-1455
ИА	-1456
▁уби	-1457
▁16	-1458
▁ной	-1459
▁Александр	-1460
▁ино	-1461
▁мира	-1462
▁Бе	-1463
еспе	-1464
▁ных	-1465
▁случае	-1466
рации	-1467
▁13	-1468
нен	-1469
пей	-1470
▁чу	-1471
▁деятель	-1472
ar	-1473
es	-1474
▁помощ	-1475
▁прод	-1476
▁филь	-1477
ками	-1478
▁Пет	-1479
▁ранее	-1480
льного	-1481
▁часть	-1482
▁пози	-1483
▁сбор	-1484
▁настоя	-1485
ске	-1486
▁14	-1487
▁вопрос	-1488
▁догово	-1489
▁Напомним	-1490
ган	-1491
▁послед	-1492
▁Дж	-1493
чить	-1494
▁зд	-1495
▁ново	-1496
▁состави	-1497
▁источ	-1498
▁продолжа	-1499
▁ходе	-1500
циали	-1501
▁обеспе	-1502
лена	-1503
▁территории	-1504
пусти	-1505
кин	-1506
▁Де	-1507
льной	-1508
▁Под	-1509
держи	-1510
мой	-1511
роб	-1512
▁ули	-1513
дида	-1514
▁ана	-1515
вается	-1516
грани	-1517
▁торг	-1518
льзова	-1519
утбо	-1520
▁успе	-1521
▁обсу	-1522
пло	-1523
▁друго	-1524
ема	-1525
пример	-1526
▁проис	-1527
▁человека	-1528
▁рассказал	-1529
вших	-1530
▁жизни	-1531
▁ведом	-1532
▁выпол	-1533
▁руководи	-1534
▁сказа	-1535
▁российских	-1536
ыре	-1537
перь	-1538
▁подчер	-1539
▁17	-1540
▁организации	-1541
▁площа	-1542
▁компания	-1543
▁хоро	-1544
▁материа	-1545
▁социаль	-1546
строй	-1547
▁женщи	-1548
ствия	-1549
▁деся	-1550
▁марта	-1551
▁Те	-1552
тали	-1553
храни	-1554
▁которого	-1555
▁пери	-1556
▁преступ	-1557
сут	-1558
▁фон	-1559
льный	-1560
▁меди	-1561
инов	-1562
▁предо	-1563
▁Кон	-1564
▁кур	-1565
▁распо	-1566
▁иг	-1567
▁предпо	-1568
▁самолет	-1569
рази	-1570
▁способ	-1571
▁лишь	-1572
тически	-1573
▁сек	-1574
▁называ	-1575
тем	-1576
▁мнению	-1577
▁транспо	-1578
▁считает	-1579
щем	-1580
тур	-1581
▁ная	-1582
▁говорит	-1583
пыт	-1584
рую	-1585
▁W	-1586
рования	-1587
рави	-1588
▁Кры	-1589
▁нужно	-1590
▁значи	-1591
▁стало	-1592
▁неза	-1593
▁ного	-1594
шим	-1595
▁Трам	-1596
лез	-1597
шая	-1598
▁Анд	-1599
▁там	-1600
▁момент	-1601
щий	-1602
нова	-1603
▁своих	-1604
▁кандида	-1605
▁многи	-1606
▁подтвер	-1607
▁план	-1608
▁счет	-1609
▁мене	-1610
чены	-1611
▁тя	-1612
вшего	-1613
▁ло	-1614
рию	-1615
▁ги	-1616
▁Также	-1617
▁Москвы	-1618
▁вмест	-1619
▁сокра	-1620
▁сум	-1621
льные	-1622
струк	-1623
▁Новости	-1624
ляр	-1625
▁осу	-1626
▁журнали	-1627
▁совет	-1628
ститу	-1629
▁ОО	-1630
al	-1631
▁рес	-1632
▁уни	-1633
▁насе	-1634
енно	-1635
▁Госду	-1636
кти	-1637
чных	-1638
▁пы	-1639
воз	-1640
▁преду	-1641
▁зем	-1642
▁парла	-1643
▁четвер	-1644
▁объек	-1645
щая	-1646
▁четыре	-1647
ложен	-1648
чки	-1649
ствие	-1650
▁получа	-1651
лед	-1652
▁нам	-1653
которы	-1654
▁вра	-1655
▁отношении	-1656
▁конце	-1657
▁продук	-1658
▁подготов	-1659
кую	-1660
ток	-1661
▁дости	-1662
▁ожи	-1663
▁Пред	-1664
мов	-1665
▁рам	-1666
▁повы	-1667
▁почти	-1668
сло	-1669
▁Ла	-1670
▁партии	-1671
енси	-1672
▁составля	-1673
▁республи	-1674
ербур	-1675
щении	-1676
▁появи	-1677
рот	-1678
▁обна	-1679
▁коли	-1680
▁ТАСС	-1681
▁добави	-1682
le	-1683
рту	-1684
тар	-1685
▁именно	-1686
▁футбо	-1687
мп	-1688
рев	-1689
▁мет	-1690
▁й	-1691
▁50	-1692
▁стали	-1693
▁Ле	-1694
десь	-1695
▁отде	-1696
▁нор	-1697
▁обы	-1698
▁поку	-1699
▁нау	-1700
▁части	-1701
ерт	-1702
▁детей	-1703
шений	-1704
▁даль	-1705
▁клу	-1706
▁куль	-1707
анием	-1708
▁Фран	-1709
ческие	-1710
▁Сегодня	-1711
▁стране	-1712
овали	-1713
▁прем	-1714
▁задерж	-1715
торов	-1716
▁кли	-1717
▁реали	-1718
дии	-1719
ван	-1720
▁люди	-1721
▁закон	-1722
работ	-1723
дил	-1724
цей	-1725
них	-1726
▁буду	-1727
▁ти	-1728
▁ог	-1729
един	-1730
▁Для	-1731
▁кла	-1732
▁апреля	-1733
▁перегово	-1734
гам	-1735
▁уч	-1736
▁исс	-1737
▁говорится	-1738
▁ссы	-1739
▁Дмитрий	-1740
▁провер	-1741
▁однако	-1742
лев	-1743
▁сентября	-1744
▁авгу	-1745
правля	-1746
▁главы	-1747
▁рей	-1748
▁зако	-1749
▁предприя	-1750
▁государства	-1751
дой	-1752
дали	-1753
нил	-1754
чный	-1755
▁прекра	-1756
той	-1757
▁лег	-1758
дал	-1759
виси	-1760
ню	-1761
it	-1762
▁вклю	-1763
▁окру	-1764
тельной	-1765
▁зан	-1766
пара	-1767
пис	-1768
эро	-1769
зя	-1770
▁спорт	-1771
нение	-1772
▁руковод	-1773
▁каж	-1774
тельные	-1775
чные	-1776
▁должен	-1777
ьез	-1778
▁ника	-1779
▁анти	-1780
ния	-1781
над	-1782
рил	-1783
тиво	-1784
▁рамках	-1785
▁правительства	-1786
▁страна	-1787
▁утвер	-1788
▁чемпиона	-1789
▁сообщили	-1790
ницу	-1791
▁2017	-1792
▁опреде	-1793
▁Миха	-1794
вых	-1795
нять	-1796
▁провед	-1797
▁националь	-1798
разу	-1799
лья	-1800
▁Что	-1801
урман	-1802
▁роди	-1803
ева	-1804
▁завер	-1805
▁финанс	-1806
▁D	-1807
▁федераль	-1808
смен	-1809
▁суб	-1810
▁ря	-1811
▁гру	-1812
▁сам	-1813
▁измен	-1814
лено	-1815
▁Цент	-1816
▁иностран	-1817
▁назна	-1818
▁докумен	-1819
▁сти	-1820
▁одной	-1821
▁председа	-1822
еха	-1823
▁прог	-1824
▁пя	-1825
▁гос	-1826
▁исклю	-1827
шее	-1828
▁свобо	-1829
▁санк	-1830
нечно	-1831
▁причи	-1832
▁времен	-1833
▁ограни	-1834
▁участие	-1835
сили	-1836
▁одного	-1837
▁пример	-1838
вор	-1839
▁идет	-1840
явля	-1841
бен	-1842
кет	-1843
блю	-1844
▁рез	-1845
▁специали	-1846
▁февраля	-1847
лению	-1848
▁22	-1849
▁особ	-1850
▁кру	-1851
▁отказа	-1852
тет	-1853
чил	-1854
▁21	-1855
дина	-1856
шест	-1857
▁Они	-1858
тура	-1859
▁обществен	-1860
пози	-1861
▁подчеркну	-1862
▁образом	-1863
▁принима	-1864
▁мая	-1865
чного	-1866
▁маши	-1867
▁менее	-1868
▁ского	-1869
▁борь	-1870
▁верну	-1871
▁ши	-1872
▁времени	-1873
▁проку	-1874
ых	-1875
ющим	-1876
мыш	-1877
еров	-1878
▁игра	-1879
▁Га	-1880
вид	-1881
▁нем	-1882
зидент	-1883
▁подоз	-1884
▁инф	-1885
стана	-1886
▁возможность	-1887
▁такой	-1888
▁Су	-1889
▁Мар	-1890
▁обяза	-1891
oo	-1892
▁ль	-1893
▁ноября	-1894
▁декабря	-1895
▁развития	-1896
▁бюджет	-1897
читы	-1898
рин	-1899
нологи	-1900
жест	-1901
▁пост	-1902
зад	-1903
▁октября	-1904
жай	-1905
he	-1906
▁24	-1907
парта	-1908
▁попа	-1909
▁c	-1910
▁региональ	-1911
▁информации	-1912
▁представитель	-1913
чего	-1914
),	-1915
ябре	-1916
▁Гер	-1917
ченко	-1918
▁сре	-1919
▁назад	-1920
▁российского	-1921
▁региона	-1922
▁некоторы	-1923
▁ге	-1924
кола	-1925
▁тур	-1926
ффек	-1927
▁ради	-1928
▁кар	-1929
▁пыта	-1930
▁управления	-1931
▁засед	-1932
матри	-1933
▁января	-1934
▁другие	-1935
жу	-1936
▁серьез	-1937
телям	-1938
▁регу	-1939
▁сущест	-1940
телем	-1941
▁еди	-1942
ter	-1943
▁шта	-1944
▁ский	-1945
▁ссыл	-1946
▁угро	-1947
▁опубли	-1948
рыв	-1949
▁аре	-1950
стя	-1951
▁этих	-1952
чей	-1953
▁ную	-1954
▁противо	-1955
▁энер	-1956
▁работ	-1957
ce	-1958
Газ	-1959
доб	-1960
▁постра	-1961
▁средств	-1962
▁кос	-1963
▁зо	-1964
стри	-1965
▁100	-1966
▁E	-1967
▁Че	-1968
овая	-1969
▁1,	-1970
ВД	-1971
полни	-1972
дж	-1973
▁увер	-1974
ант	-1975
▁Между	-1976
▁среди	-1977
едерации	-1978
ить	-1979
▁No	-1980
ческий	-1981
▁конф	-1982
лют	-1983
▁ЕС	-1984
▁наде	-1985
мон	-1986
▁ха	-1987
тами	-1988
овый	-1989
хода	-1990
▁трех	-1991
▁Сейчас	-1992
▁работу	-1993
▁долларов	-1994
лений	-1995
гля	-1996
▁Ри	-1997
жных	-1998
▁погиб	-1999
чески	-2000
▁реко	-2001
мышлен	-2002
▁потому	-2003
щества	-2004
▁доста	-2005
▁Турции	-2006
▁первый	-2007
рец	-2008
▁Лу	-2009
▁надо	-2010
▁специаль	-2011
доров	-2012
▁свой	-2013
▁199	-2014
▁намер	-2015
▁тоже	-2016
▁конкур	-2017
▁Му	-2018
▁предлага	-2019
шло	-2020
руют	-2021
▁пенси	-2022
▁Кра	-2023
рения	-2024
▁член	-2025
ждение	-2026
тных	-2027
пин	-2028
берна	-2029
▁сторо	-2030
▁РИА	-2031
ствовать	-2032
▁Минист	-2033
▁сез	-2034
ством	-2035
▁предлож	-2036
▁публи	-2037
▁частности	-2038
▁вним	-2039
▁себе	-2040
ro	-2041
ферен	-2042
▁удалось	-2043
езд	-2044
▁процент	-2045
▁столи	-2046
▁поясни	-2047
▁тот	-2048
▁пор	-2049
гов	-2050
▁23	-2051
▁группы	-2052
вобо	-2053
▁верси	-2054
шла	-2055
▁мне	-2056
▁ней	-2057
▁прибы	-2058
▁ссылкой	-2059
сом	-2060
▁стоимо	-2061
▁;	-2062
▁лидер	-2063
▁проект	-2064
мии	-2065
▁районе	-2066
зии	-2067
▁образов	-2068
▁своего	-2069
цени	-2070
▁ситуации	-2071
лит	-2072
ссия	-2073
▁инвести	-2074
рю	-2075
▁профе	-2076
рес	-2077
щие	-2078
жной	-2079
йдет	-2080
ровали	-2081
▁которое	-2082
▁иде	-2083
▁места	-2084
дили	-2085
ится	-2086
▁Мурман	-2087
▁ближай	-2088
нок	-2089
▁поль	-2090
▁мень	-2091
▁дня	-2092
▁оцен	-2093
▁течение	-2094
▁s	-2095
▁закры	-2096
▁требов	-2097
▁эффек	-2098
▁здесь	-2099
▁стала	-2100
▁тогда	-2101
▁стре	-2102
вое	-2103
▁бра	-2104
▁одно	-2105
▁контра	-2106
щество	-2107
рить	-2108
▁вот	-2109
▁дел	-2110
▁производи	-2111
тина	-2112
▁став	-2113
лимпий	-2114
▁ответствен	-2115
▁европей	-2116
▁лиц	-2117
▁обе	-2118
▁смер	-2119
▁очередь	-2120
вую	-2121
шед	-2122
▁Сан	-2123
еть	-2124
лега	-2125
▁аль	-2126
▁вместе	-2127
▁Ту	-2128
▁сло	-2129
▁заня	-2130
шем	-2131
слав	-2132
▁известно	-2133
▁Ха	-2134
дит	-2135
ссажи	-2136
▁технологи	-2137
▁расследов	-2138
▁права	-2139
▁треть	-2140
▁замести	-2141
▁i	-2142
▁русс	-2143
at	-2144
▁голосов	-2145
201	-2146
вания	-2147
▁законода	-2148
▁срав	-2149
▁ребен	-2150
▁премьер	-2151
▁привле	-2152
▁28	-2153
▁пря	-2154
няя	-2155
▁суде	-2156
▁полиции	-2157
▁ным	-2158
ТО	-2159
фа	-2160
▁бес	-2161
▁дене	-2162
▁действу	-2163
▁ини	-2164
▁деньги	-2165
▁пам	-2166
обе	-2167
▁мину	-2168
▁фото	-2169
▁спортсмен	-2170
▁Ев	-2171
▁кино	-2172
▁ами	-2173
▁това	-2174
▁собира	-2175
▁теперь	-2176
▁Ав	-2177
личи	-2178
▁находится	-2179
▁Хо	-2180
▁спа	-2181
▁суда	-2182
кова	-2183
принима	-2184
роприя	-2185
▁парт	-2186
▁подоб	-2187
▁системы	-2188
хва	-2189
▁нового	-2190
чка	-2191
пита	-2192
▁зада	-2193
тельного	-2194
▁H	-2195
цов	-2196
кто	-2197
▁Вер	-2198
▁аэро	-2199
жении	-2200
▁бизнес	-2201
рал	-2202
▁нов	-2203
▁постав	-2204
▁предложи	-2205
▁реаль	-2206
▁эту	-2207
▁сразу	-2208
▁семь	-2209
▁выступа	-2210
▁начала	-2211
шой	-2212
▁пун	-2213
▁услу	-2214
▁российской	-2215
мости	-2216
▁Вели	-2217
▁новых	-2218
ницы	-2219
видет	-2220
▁всегда	-2221
чера	-2222
▁выпла	-2223
▁банков	-2224
▁таких	-2225
▁избира	-2226
▁убий	-2227
сколь	-2228
▁гене	-2229
▁комитета	-2230
▁средства	-2231
▁наблю	-2232
▁котором	-2233
▁начале	-2234
▁рассказа	-2235
▁ген	-2236
▁музы	-2237
▁40	-2238
▁Герм	-2239
▁хозя	-2240
рами	-2241
тах	-2242
▁конфли	-2243
или	-2244
▁струк	-2245
▁дополни	-2246
▁воору	-2247
вшие	-2248
ентов	-2249
▁сирий	-2250
▁этим	-2251
▁Никола	-2252
▁Бы	-2253
▁ху	-2254
тельный	-2255
▁опас	-2256
▁уточ	-2257
▁кварти	-2258
вание	-2259
шенко	-2260
▁Мак	-2261
▁води	-2262
▁медици	-2263
част	-2264
▁техни	-2265
ваться	-2266
ющей	-2267
точно	-2268
▁мероприя	-2269
▁27	-2270
▁тури	-2271
ствии	-2272
ющего	-2273
▁поряд	-2274
▁чего	-2275
▁объем	-2276
▁миллиар	-2277
скольку	-2278
▁качестве	-2279
▁спор	-2280
дним	-2281
▁Алексей	-2282
▁исследов	-2283
▁месте	-2284
▁сделать	-2285
▁решения	-2286
▁ал	-2287
▁мя	-2288
ИД	-2289
тать	-2290
тан	-2291
▁26	-2292
▁дума	-2293
проек	-2294
▁ей	-2295
▁ой	-2296
фика	-2297
▁действия	-2298
дви	-2299
▁фа	-2300
▁Лю	-2301
пуска	-2302
▁анали	-2303
▁пассажи	-2304
▁неде	-2305
тил	-2306
▁годы	-2307
▁Ду	-2308
▁последние	-2309
им	-2310
нача	-2311
▁Она	-2312
графи	-2313
▁внут	-2314
▁министр	-2315
▁сайте	-2316
▁переда	-2317
▁V	-2318
▁отношения	-2319
фак	-2320
▁прошлого	-2321
▁использов	-2322
мин	-2323
▁возду	-2324
▁стоит	-2325
Ин	-2326
▁ь	-2327
▁итогам	-2328
▁количество	-2329
▁выз	-2330
зм	-2331
юз	-2332
▁совершен	-2333
жде	-2334
▁попу	-2335
▁видео	-2336
▁директор	-2337
реть	-2338
▁рынке	-2339
чества	-2340
▁род	-2341
▁трен	-2342
лением	-2343
▁деятельности	-2344
▁период	-2345
ктор	-2346
▁изд	-2347
▁разм	-2348
ленных	-2349
▁августа	-2350
▁прогно	-2351
▁миров	-2352
▁мир	-2353
▁масс	-2354
▁писа	-2355
охрани	-2356
чат	-2357
▁жа	-2358
тарь	-2359
▁две	-2360
▁оцени	-2361
.,	-2362
хран	-2363
руется	-2364
▁агентство	-2365
▁городе	-2366
нить	-2367
▁МВД	-2368
▁хотя	-2369
▁например	-2370
▁посе	-2371
▁возбу	-2372
▁пять	-2373
▁правительство	-2374
▁новый	-2375
▁рынка	-2376
▁соответству	-2377
емых	-2378
▁банк	-2379
▁получил	-2380
зин	-2381
▁возра	-2382
мом	-2383
ента	-2384
▁Его	-2385
▁отра	-2386
▁соста	-2387
хра	-2388
▁бло	-2389
▁всем	-2390
тельным	-2391
▁аэропо	-2392
▁29	-2393
▁Кар	-2394
▁чинов	-2395
етербур	-2396
ич	-2397
▁t	-2398
менти	-2399
прово	-2400
▁прин	-2401
няет	-2402
▁разре	-2403
вез	-2404
▁Бу	-2405
▁ное	-2406
▁Москов	-2407
верси	-2408
▁распро	-2409
▁которую	-2410
▁бар	-2411
▁внутрен	-2412
▁МИД	-2413
▁второй	-2414
▁поэтому	-2415
▁нефти	-2416
номо	-2417
▁находя	-2418
▁осущест	-2419
▁Иго	-2420
▁диа	-2421
▁пода	-2422
рование	-2423
лег	-2424
▁оружи	-2425
▁инициа	-2426
▁взя	-2427
-1	-2428
▁процесс	-2429
гии	-2430
▁новые	-2431
дно	-2432
первые	-2433
▁боеви	-2434
▁добавил	-2435
▁нее	-2436
ag	-2437
лой	-2438
▁нынеш	-2439
нин	-2440
шки	-2441
▁спец	-2442
▁отмечает	-2443
рева	-2444
роят	-2445
▁компаний	-2446
лки	-2447
▁подчеркнул	-2448
ница	-2449
фици	-2450
сточ	-2451
бин	-2452
▁говоря	-2453
▁позволя	-2454
ходов	-2455
▁москов	-2456
жного	-2457
скому	-2458
веден	-2459
▁Поли	-2460
▁сте	-2461
пли	-2462
льным	-2463
▁выро	-2464
▁работать	-2465
▁такие	-2466
шет	-2467
▁пово	-2468
▁должна	-2469
▁Президент	-2470
ходят	-2471
▁Согла	-2472
ссо	-2473
▁тон	-2474
ритан	-2475
▁помощи	-2476
▁полицей	-2477
жать	-2478
пов	-2479
▁созда	-2480
▁пользова	-2481
шта	-2482
чает	-2483
▁Россию	-2484
▁настоящее	-2485
кар	-2486
▁хи	-2487
▁разме	-2488
▁примен	-2489
рое	-2490
▁СК	-2491
▁ской	-2492
летний	-2493
сам	-2494
▁ним	-2495
▁систем	-2496
▁современ	-2497
▁каса	-2498
щую	-2499
▁июля	-2500
▁народ	-2501
▁проекта	-2502
сил	-2503
нице	-2504
▁уровне	-2505
▁мире	-2506
ус	-2507
вари	-2508
▁Сто	-2509
▁тяже	-2510
ые	-2511
вел	-2512
▁собы	-2513
лекана	-2514
▁данные	-2515
еди	-2516
▁возвра	-2517
чении	-2518
▁внеш	-2519
▁потреб	-2520
▁господин	-2521
▁недо	-2522
▁поскольку	-2523
дан	-2524
сить	-2525
жем	-2526
стоян	-2527
▁станет	-2528
▁Ди	-2529
▁инвест	-2530
▁гор	-2531
▁забо	-2532
▁прак	-2533
▁связ	-2534
шестви	-2535
▁Оба	-2536
▁уче	-2537
▁Глава	-2538
▁норма	-2539
▁экспо	-2540
▁совмест	-2541
юза	-2542
траф	-2543
водит	-2544
▁окон	-2545
▁кризи	-2546
неф	-2547
▁рост	-2548
▁имеет	-2549
▁миллионов	-2550
▁Федерации	-2551
боль	-2552
тайте	-2553
▁вице	-2554
▁своем	-2555
▁ничего	-2556
▁ООН	-2557
▁Украине	-2558
om	-2559
нец	-2560
тера	-2561
▁банка	-2562
прос	-2563
стой	-2564
▁тради	-2565
▁большин	-2566
ждый	-2567
▁получили	-2568
шую	-2569
▁дней	-2570
▁нашей	-2571
▁объяви	-2572
▁здоров	-2573
ум	-2574
бан	-2575
▁губерна	-2576
▁внимание	-2577
▁проблемы	-2578
%.	-2579
писал	-2580
шению	-2581
▁представля	-2582
нуть	-2583
▁выс	-2584
▁Андрей	-2585
▁состав	-2586
дия	-2587
▁правоохрани	-2588
▁одна	-2589
▁истории	-2590
▁кана	-2591
▁просмот	-2592
▁обрати	-2593
ровки	-2594
терфак	-2595
0-	-2596
кро	-2597
▁акти	-2598
▁района	-2599
▁медицин	-2600
чным	-2601
ведения	-2602
▁увеличи	-2603
▁считают	-2604
▁телекана	-2605
вока	-2606
ческая	-2607
▁ведомства	-2608
обре	-2609
▁рассказыва	-2610
▁стро	-2611
▁электро	-2612
▁полностью	-2613
На	-2614
▁жизнь	-2615
▁этому	-2616
▁кры	-2617
ходы	-2618
▁дер	-2619
▁различ	-2620
▁пят	-2621
▁добы	-2622
гру	-2623
шать	-2624
▁Европы	-2625
▁конечно	-2626
▁законопроек	-2627
▁предпринима	-2628
лана	-2629
▁мог	-2630
ниц	-2631
▁информацию	-2632
▁/	-2633
▁вза	-2634
телями	-2635
▁требу	-2636
▁понима	-2637
▁Поэтому	-2638
▁сборной	-2639
▁Глав	-2640
▁другой	-2641
дется	-2642
▁правитель	-2643
▁иску	-2644
лых	-2645
▁представ	-2646
лот	-2647
▁получить	-2648
▁транспорт	-2649
▁тому	-2650
▁связан	-2651
обще	-2652
▁бере	-2653
▁Серге	-2654
▁мощ	-2655
▁фран	-2656
▁Евг	-2657
▁коллек	-2658
▁интерес	-2659
▁программы	-2660
us	-2661
▁снизи	-2662
▁торгов	-2663
▁администрации	-2664
бро	-2665
овым	-2666
▁ская	-2667
ква	-2668
лер	-2669
▁ап	-2670
шу	-2671
▁сай	-2672
▁юри	-2673
▁НА	-2674
▁учи	-2675
▁близ	-2676
▁потом	-2677
▁ракет	-2678
форми	-2679
ol	-2680
▁постоян	-2681
ri	-2682
▁мини	-2683
▁поддержи	-2684
▁сла	-2685
▁важ	-2686
дения	-2687
▁площад	-2688
▁бизне	-2689
▁самых	-2690
еты	-2691
рошенко	-2692
▁центра	-2693
▁прошлом	-2694
▁ситуация	-2695
▁составляет	-2696
емон	-2697
▁Ста	-2698
re	-2699
▁многие	-2700
рее	-2701
▁возгла	-2702
стью	-2703
▁фун	-2704
▁весь	-2705
▁2,	-2706
▁прокура	-2707
▁неиз	-2708
▁оппози	-2709
▁0,	-2710
▁кре	-2711
▁теку	-2712
▁доступ	-2713
▁меньше	-2714
▁эффектив	-2715
собо	-2716
▁одном	-2717
▁месяцев	-2718
▁живо	-2719
ственно	-2720
▁рассмот	-2721
ion	-2722
пуск	-2723
▁бро	-2724
▁вари	-2725
▁2013	-2726
▁сами	-2727
ческим	-2728
ятся	-2729
▁министер	-2730
мар	-2731
чествен	-2732
емокра	-2733
▁началь	-2734
▁просмотров	-2735
вый	-2736
енко	-2737
обра	-2738
▁Восто	-2739
am	-2740
док	-2741
ено	-2742
▁ам	-2743
▁выра	-2744
▁мужчи	-2745
▁л	-2746
сок	-2747
▁Когда	-2748
▁войны	-2749
▁выступи	-2750
▁р	-2751
il	-2752
▁освобо	-2753
седни	-2754
▁сложно	-2755
▁службы	-2756
▁команды	-2757
▁населения	-2758
▁Международ	-2759
ленные	-2760
▁чер	-2761
мена	-2762
спек	-2763
▁восстанов	-2764
СК	-2765
тый	-2766
били	-2767
игра	-2768
тых	-2769
чая	-2770
▁ым	-2771
▁пожа	-2772
▁Мед	-2773
▁харак	-2774
▁жителей	-2775
еспубли	-2776
вестия	-2777
▁Ша	-2778
▁отв	-2779
▁налог	-2780
▁делать	-2781
щиков	-2782
▁экономики	-2783
того	-2784
▁игро	-2785
прочем	-2786
тая	-2787
el	-2788
▁неда	-2789
▁финанси	-2790
▁Тем	-2791
▁Клин	-2792
▁влия	-2793
▁цель	-2794
▁Госдумы	-2795
▁стар	-2796
▁31	-2797
▁ряд	-2798
▁След	-2799
▁участников	-2800
йн	-2801
▁цены	-2802
▁проте	-2803
▁приводит	-2804
вок	-2805
▁вне	-2806
▁един	-2807
▁группи	-2808
▁полож	-2809
▁впервые	-2810
▁россиян	-2811
▁процентов	-2812
▁практически	-2813
течествен	-2814
лети	-2815
таль	-2816
▁превы	-2817
чать	-2818
▁Ира	-2819
▁страте	-2820
▁вопросы	-2821
▁выборов	-2822
мат	-2823
▁Ал	-2824
▁возможности	-2825
▁Республи	-2826
▁пала	-2827
▁Согласно	-2828
▁професси	-2829
жета	-2830
▁заво	-2831
▁стол	-2832
град	-2833
▁ост	-2834
кими	-2835
АО	-2836
гран	-2837
▁турни	-2838
▁рейтин	-2839
▁станов	-2840
мя	-2841
лии	-2842
слам	-2843
▁ном	-2844
▁пяти	-2845
▁сторон	-2846
клад	-2847
▁поня	-2848
▁долго	-2849
▁област	-2850
▁Чер	-2851
▁начина	-2852
▁популяр	-2853
▁террористи	-2854
овом	-2855
▁гри	-2856
▁тор	-2857
▁срок	-2858
▁выборах	-2859
-2	-2860
даря	-2861
жит	-2862
▁сня	-2863
▁турец	-2864
▁ата	-2865
▁одним	-2866
▁Порошенко	-2867
раб	-2868
▁съ	-2869
лета	-2870
▁Боль	-2871
▁обвиня	-2872
▁Германии	-2873
▁наи	-2874
▁комму	-2875
зер	-2876
▁наши	-2877
▁истори	-2878
зма	-2879
рок	-2880
▁сил	-2881
ок	-2882
▁убе	-2883
▁достаточно	-2884
вью	-2885
▁край	-2886
▁отсут	-2887
сем	-2888
чис	-2889
щим	-2890
▁политики	-2891
тию	-2892
вала	-2893
▁приобре	-2894
▁предполага	-2895
здни	-2896
рина	-2897
▁заявила	-2898
кви	-2899
▁Ос	-2900
▁сотрудников	-2901
нев	-2902
ставить	-2903
▁покупа	-2904
стер	-2905
баты	-2906
тирует	-2907
▁парламента	-2908
надле	-2909
▁часов	-2910
▁меры	-2911
▁Еще	-2912
▁кни	-2913
▁источник	-2914
▁предвари	-2915
▁нико	-2916
▁кварта	-2917
▁принадле	-2918
▁таким	-2919
▁телеф	-2920
▁измени	-2921
▁ирован	-2922
▁праздни	-2923
▁промышлен	-2924
▁нефть	-2925
▁число	-2926
бир	-2927
ником	-2928
▁назвал	-2929
▁Министер	-2930
▁Россией	-2931
▁Ана	-2932
▁искус	-2933
▁незакон	-2934
▁Трамп	-2935
▁итоге	-2936
▁попро	-2937
можно	-2938
▁новой	-2939
терфакс	-2940
▁полови	-2941
▁сообщении	-2942
мир	-2943
▁дав	-2944
▁агентства	-2945
▁штраф	-2946
▁Клинтон	-2947
пор	-2948
▁интервью	-2949
шает	-2950
▁встречи	-2951
▁отправи	-2952
веро	-2953
▁принци	-2954
et	-2955
▁скоро	-2956
шить	-2957
ционной	-2958
▁несколь	-2959
▁размере	-2960
▁представители	-2961
сур	-2962
▁военно	-2963
▁пригово	-2964
▁разработ	-2965
▁Ъ	-2966
▁ЦБ	-2967
▁упа	-2968
▁люби	-2969
▁использу	-2970
▁сообщила	-2971
жей	-2972
▁Воз	-2973
▁отве	-2974
▁свидет	-2975
▁лучше	-2976
▁бюджета	-2977
▁управля	-2978
▁министра	-2979
▁35	-2980
чета	-2981
▁пси	-2982
▁собой	-2983
▁чув	-2984
▁отстав	-2985
Петербур	-2986
▁обороны	-2987
▁расши	-2988
▁центре	-2989
▁исполни	-2990
порт	-2991
▁всей	-2992
▁поте	-2993
▁Источ	-2994
Рос	-2995
лах	-2996
лекс	-2997
▁дово	-2998
▁движения	-2999
▁произошло	-3000
▁зависи	-3001
▁британ	-3002
▁капита	-3003
▁документа	-3004
▁сети	-3005
▁иностранных	-3006
▁крупней	-3007
▁российский	-3008
коб	-3009
мые	-3010
чик	-3011
▁роста	-3012
▁условиях	-3013
▁которым	-3014
▁вообще	-3015
▁уровень	-3016
ел	-3017
▁иму	-3018
▁затем	-3019
▁примерно	-3020
дев	-3021
▁Ген	-3022
▁жест	-3023
▁францу	-3024
▁российские	-3025
▁Франции	-3026
треб	-3027
▁постанов	-3028
▁обсужда	-3029
▁поне	-3030
мых	-3031
▁ском	-3032
▁Санкт	-3033
▁состо	-3034
▁данных	-3035
▁универси	-3036
лый	-3037
▁дальней	-3038
▁шо	-3039
▁неме	-3040
▁какие	-3041
▁УК	-3042
▁сф	-3043
▁прио	-3044
▁пишет	-3045
уне	-3046
доро	-3047
▁Пере	-3048
▁относи	-3049
▁спортив	-3050
▁тр	-3051
▁судеб	-3052
▁ситуацию	-3053
▁существу	-3054
Ru	-3055
▁вну	-3056
▁ожида	-3057
▁терак	-3058
▁уголовное	-3059
▁ау	-3060
▁дов	-3061
▁улице	-3062
▁каждый	-3063
вым	-3064
▁Михаил	-3065
▁помощью	-3066
▁сц	-3067
ссий	-3068
▁попы	-3069
▁призн	-3070
▁целом	-3071
раво	-3072
▁клю	-3073
▁конца	-3074
Ба	-3075
▁НАТО	-3076
▁сере	-3077
▁ремон	-3078
мб	-3079
лях	-3080
▁зар	-3081
вов	-3082
кобрит	-3083
▁своим	-3084
сро	-3085
▁физи	-3086
минист	-3087
▁двига	-3088
ционных	-3089
▁претен	-3090
▁проблем	-3091
Из	-3092
▁китай	-3093
ing	-3094
▁учре	-3095
▁часто	-3096
▁устрой	-3097
▁депутат	-3098
▁пояснил	-3099
▁заявление	-3100
▁втор	-3101
▁задержан	-3102
ic	-3103
▁дом	-3104
▁секре	-3105
▁хозяй	-3106
▁изу	-3107
▁мало	-3108
▁адвока	-3109
▁пострада	-3110
▁действительно	-3111
шка	-3112
▁Япо	-3113
▁Владимира	-3114
тили	-3115
▁встреча	-3116
▁организация	-3117
стам	-3118
▁язы	-3119
▁поме	-3120
▁первую	-3121
▁указ	-3122
▁учены	-3123
▁Великобрит	-3124
▁Российской	-3125
зор	-3126
▁3,	-3127
льная	-3128
▁худо	-3129
▁форми	-3130
▁зарпла	-3131
▁особенно	-3132
▁производства	-3133
нул	-3134
▁пись	-3135
▁рассматри	-3136
2016	-3137
▁Дон	-3138
ждает	-3139
▁либо	-3140
▁погибли	-3141
▁следует	-3142
▁государство	-3143
▁ными	-3144
▁рекомен	-3145
ктов	-3146
▁ава	-3147
▁пользу	-3148
▁обнаружи	-3149
▁поки	-3150
диви	-3151
нами	-3152
▁макси	-3153
▁совета	-3154
▁действий	-3155
сит	-3156
▁низ	-3157
▁хорошо	-3158
▁проблема	-3159
▁X	-3160
льзя	-3161
▁ведь	-3162
▁группа	-3163
▁читайте	-3164
▁сообщалось	-3165
▁Медве	-3166
▁Север	-3167
ппо	-3168
▁партнер	-3169
▁Трампа	-3170
▁первом	-3171
ционного	-3172
вли	-3173
лка	-3174
▁выда	-3175
▁голов	-3176
дим	-3177
пада	-3178
▁слож	-3179
▁фина	-3180
▁газета	-3181
▁материале	-3182
сад	-3183
▁выше	-3184
▁речь	-3185
▁система	-3186
цам	-3187
более	-3188
▁жерт	-3189
▁сель	-3190
▁какой	-3191
они	-3192
чку	-3193
щик	-3194
куп	-3195
▁лиде	-3196
▁опро	-3197
▁раск	-3198
▁комплек	-3199
▁понедель	-3200
▁мэ	-3201
▁мага	-3202
▁обору	-3203
▁поступи	-3204
клон	-3205
удов	-3206
хани	-3207
▁заявили	-3208
чено	-3209
▁помощь	-3210
ССР	-3211
зит	-3212
▁ого	-3213
▁останов	-3214
▁Впрочем	-3215
их	-3216
▁Ло	-3217
чная	-3218
▁вас	-3219
▁сли	-3220
▁O	-3221
беж	-3222
▁Re	-3223
▁тысячи	-3224
▁приходи	-3225
▁Эр	-3226
▁мас	-3227
▁рынок	-3228
▁вырази	-3229
▁ор	-3230
▁пои	-3231
▁похо	-3232
▁Путина	-3233
▁выступ	-3234
▁глу	-3235
вченко	-3236
▁вероят	-3237
▁присут	-3238
▁вели	-3239
▁отдель	-3240
▁предприятия	-3241
вар	-3242
▁сказать	-3243
скими	-3244
рыва	-3245
▁арен	-3246
▁делу	-3247
▁трав	-3248
▁проведения	-3249
пере	-3250
▁важно	-3251
ственного	-3252
▁республики	-3253
дий	-3254
тят	-3255
▁позд	-3256
тором	-3257
▁деле	-3258
▁выстав	-3259
▁стоимость	-3260
ера	-3261
▁In	-3262
▁взаимо	-3263
as	-3264
туру	-3265
▁Среди	-3266
▁Красно	-3267
▁начали	-3268
▁оказыва	-3269
▁комплекс	-3270
▁СССР	-3271
▁Источник	-3272
ксе	-3273
строи	-3274
▁Москва	-3275
▁работе	-3276
▁пятницу	-3277
▁работает	-3278
что	-3279
комп	-3280
▁барре	-3281
▁версии	-3282
▁возник	-3283
▁Федераль	-3284
▁сотрудники	-3285
ым	-3286
▁месяца	-3287
▁уверен	-3288
▁Александра	-3289
БК	-3290
оны	-3291
тник	-3292
секре	-3293
служи	-3294
▁доби	-3295
▁среду	-3296
▁посети	-3297
▁поддержа	-3298
▁подозрева	-3299
▁большой	-3300
▁камп	-3301
гна	-3302
ила	-3303
▁Ти	-3304
НР	-3305
▁ИГ	-3306
▁баз	-3307
▁ответи	-3308
▁нео	-3309
▁Крем	-3310
▁конц	-3311
▁раза	-3312
▁Игорь	-3313
тик	-3314
бороны	-3315
ou	-3316
нему	-3317
▁непо	-3318
естива	-3319
▁образования	-3320
мимо	-3321
▁Бер	-3322
▁никто	-3323
шествия	-3324
▁Дональ	-3325
%,	-3326
тей	-3327
▁уси	-3328
▁Мино	-3329
По	-3330
▁сфере	-3331
▁говорят	-3332
тел	-3333
▁Крыма	-3334
рез	-3335
▁мер	-3336
▁2012	-3337
▁наших	-3338
▁четырех	-3339
▁нач	-3340
ческое	-3341
▁серви	-3342
▁Бори	-3343
▁следова	-3344
▁интернет	-3345
▁Ну	-3346
▁опла	-3347
▁напад	-3348
▁полага	-3349
▁институ	-3350
▁наблюда	-3351
▁ООО	-3352
▁вес	-3353
▁выход	-3354
▁потеря	-3355
▁порядка	-3356
is	-3357
дение	-3358
смотря	-3359
▁закона	-3360
▁Украина	-3361
▁пенсион	-3362
▁60	-3363
▁еже	-3364
▁произошел	-3365
хе	-3366
▁миниму	-3367
▁вооружен	-3368
▁несмотря	-3369
зах	-3370
жный	-3371
▁веду	-3372
▁такое	-3373
матиче	-3374
▁имени	-3375
▁органов	-3376
▁первого	-3377
▁расположен	-3378
Мы	-3379
сп	-3380
▁огром	-3381
▁прожи	-3382
▁инвесто	-3383
▁дипло	-3384
▁самом	-3385
▁аппара	-3386
▁ребенка	-3387
роз	-3388
ници	-3389
тика	-3390
катери	-3391
лимпиа	-3392
▁согласи	-3393
рко	-3394
▁аб	-3395
лору	-3396
▁хва	-3397
зывает	-3398
▁Алеппо	-3399
▁заместитель	-3400
age	-3401
▁силы	-3402
ваются	-3403
ствует	-3404
▁такого	-3405
бора	-3406
никам	-3407
▁проводи	-3408
▁тен	-3409
▁Подроб	-3410
▁Совета	-3411
▁неболь	-3412
▁оборудов	-3413
▁изменения	-3414
вич	-3415
▁Аб	-3416
никами	-3417
▁Макси	-3418
▁Савченко	-3419
след	-3420
▁первой	-3421
▁положи	-3422
▁понедельник	-3423
вом	-3424
вого	-3425
▁собе	-3426
▁объяв	-3427
▁пропа	-3428
▁потреби	-3429
▁запрещен	-3430
▁45	-3431
ологи	-3432
шлось	-3433
▁смогут	-3434
▁вторник	-3435
▁цитирует	-3436
ace	-3437
▁The	-3438
▁сме	-3439
тивно	-3440
▁внес	-3441
▁роль	-3442
▁спу	-3443
стати	-3444
▁газа	-3445
ниципа	-3446
▁(1	-3447
▁денег	-3448
ственной	-3449
Газпро	-3450
▁допин	-3451
▁говорить	-3452
▁культуры	-3453
лок	-3454
риа	-3455
▁ВВ	-3456
▁использ	-3457
вей	-3458
▁вол	-3459
▁успеш	-3460
▁департа	-3461
▁четверг	-3462
▁электрон	-3463
▁Фото	-3464
▁ресур	-3465
▁могли	-3466
тные	-3467
▁взрыв	-3468
▁провести	-3469
ew	-3470
щу	-3471
пря	-3472
▁золо	-3473
▁обнару	-3474
▁комиссии	-3475
▁операции	-3476
кер	-3477
шинг	-3478
▁сыгра	-3479
▁форма	-3480
няется	-3481
▁валют	-3482
▁нельзя	-3483
▁стату	-3484
тельств	-3485
▁заявля	-3486
▁сохрани	-3487
▁Националь	-3488
▁нескольких	-3489
▁Новые	-3490
▁минут	-3491
пар	-3492
ями	-3493
▁обу	-3494
▁проходи	-3495
▁опубликов	-3496
ent	-3497
▁россия	-3498
▁касается	-3499
▁объяс	-3500
▁никогда	-3501
▁собеседни	-3502
▁U	-3503
▁Ча	-3504
▁ска	-3505
скрес	-3506
щается	-3507
▁данный	-3508
▁нако	-3509
▁узна	-3510
▁Таким	-3511
▁карти	-3512
▁сорев	-3513
▁Верхов	-3514
▁уровня	-3515
кса	-3516
лист	-3517
▁кате	-3518
▁являются	-3519
▁скры	-3520
▁Европе	-3521
▁строительство	-3522
бран	-3523
▁француз	-3524
▁нарушения	-3525
лга	-3526
лос	-3527
тики	-3528
▁масшта	-3529
▁некоторые	-3530
▁председатель	-3531
▁ат	-3532
▁выде	-3533
спон	-3534
▁дра	-3535
▁самолета	-3536
▁руководитель	-3537
▁Im	-3538
вшей	-3539
тива	-3540
▁выясни	-3541
▁владель	-3542
ремьер	-3543
▁конкре	-3544
▁стратеги	-3545
бай	-3546
▁предупре	-3547
▁l	-3548
риф	-3549
ссоциа	-3550
▁акции	-3551
▁преступления	-3552
▁Пи	-3553
▁пора	-3554
▁корруп	-3555
▁переговоры	-3556
тной	-3557
▁тут	-3558
▁силу	-3559
▁препара	-3560
гах	-3561
▁ран	-3562
Интерфакс	-3563
▁Известия	-3564
▁Например	-3565
▁муниципа	-3566
▁строительства	-3567
ец	-3568
▁мор	-3569
льное	-3570
Еди	-3571
▁Чи	-3572
дово	-3573
ностей	-3574
▁фонда	-3575
▁случай	-3576
▁бизнеса	-3577
▁пройдет	-3578
▁независи	-3579
емый	-3580
▁Тогда	-3581
▁задержа	-3582
▁зри	-3583
▁теа	-3584
ционный	-3585
▁список	-3586
СБ	-3587
▁км	-3588
▁ман	-3589
▁бежен	-3590
▁памят	-3591
▁находятся	-3592
▁m	-3593
▁Жи	-3594
▁функ	-3595
ческую	-3596
▁быстро	-3597
▁требования	-3598
тые	-3599
▁наро	-3600
шком	-3601
▁пес	-3602
▁особо	-3603
▁принято	-3604
АС	-3605
езда	-3606
▁инци	-3607
▁Совет	-3608
▁демокра	-3609
▁оши	-3610
▁сим	-3611
▁собра	-3612
▁перево	-3613
▁Би	-3614
▁выну	-3615
▁перс	-3616
▁органа	-3617
▁неизвест	-3618
жал	-3619
форм	-3620
▁РБК	-3621
емого	-3622
▁бывший	-3623
станавли	-3624
чит	-3625
▁ок	-3626
▁выво	-3627
▁дере	-3628
▁сумму	-3629
▁центр	-3630
▁механи	-3631
▁процен	-3632
За	-3633
▁оч	-3634
нили	-3635
▁Пес	-3636
▁сту	-3637
тельное	-3638
▁катего	-3639
▁поддержку	-3640
ЧС	-3641
анных	-3642
▁членов	-3643
сят	-3644
вров	-3645
▁пара	-3646
▁наказ	-3647
жар	-3648
рение	-3649
▁транс	-3650
▁зло	-3651
клады	-3652
▁разных	-3653
овала	-3654
▁ниже	-3655
▁Прави	-3656
▁помога	-3657
ra	-3658
пон	-3659
▁давно	-3660
▁запад	-3661
▁многих	-3662
▁мужчина	-3663
▁состоянии	-3664
гар	-3665
▁сь	-3666
▁Суд	-3667
▁кого	-3668
▁посвя	-3669
▁сопер	-3670
лда	-3671
щал	-3672
▁скан	-3673
▁Екатери	-3674
▁продолжи	-3675
лые	-3676
▁зи	-3677
зация	-3678
▁спро	-3679
▁благодаря	-3680
▁Пе	-3681
коми	-3682
▁поводу	-3683
▁самого	-3684
▁Экс	-3685
ломет	-3686
▁деву	-3687
▁цена	-3688
▁спорта	-3689
рат	-3690
▁сравнению	-3691
▁чемпионата	-3692
лл	-3693
▁d	-3694
дума	-3695
суль	-3696
▁вид	-3697
▁ото	-3698
▁2011	-3699
▁метро	-3700
▁сможет	-3701
▁согласно	-3702
сер	-3703
▁Гре	-3704
▁Пар	-3705
▁миллиона	-3706
гип	-3707
гети	-3708
▁оно	-3709
▁Андре	-3710
▁главный	-3711
▁остается	-3712
▁Гу	-3713
▁гон	-3714
▁ката	-3715
▁почему	-3716
▁направи	-3717
▁вов	-3718
▁соц	-3719
▁труд	-3720
▁готовы	-3721
дел	-3722
▁$1	-3723
полне	-3724
▁ские	-3725
▁Фи	-3726
таки	-3727
▁вся	-3728
▁воскрес	-3729
▁n	-3730
▁сих	-3731
▁коло	-3732
▁поко	-3733
▁случи	-3734
▁Минобороны	-3735
▁клуба	-3736
▁заверши	-3737
▁регионе	-3738
▁военных	-3739
▁объясни	-3740
лла	-3741
енти	-3742
▁Кри	-3743
рованы	-3744
▁полномо	-3745
реги	-3746
чном	-3747
▁иру	-3748
▁упо	-3749
▁самым	-3750
▁составе	-3751
ir	-3752
▁ори	-3753
▁свет	-3754
▁выборы	-3755
▁административ	-3756
▁Раз	-3757
▁ядер	-3758
▁Image	-3759
▁проведен	-3760
▁организаций	-3761
ющая	-3762
▁тан	-3763
▁километ	-3764
▁соглашения	-3765
лн	-3766
нюю	-3767
каде	-3768
▁МЧС	-3769
ждено	-3770
▁лица	-3771
министр	-3772
▁продукции	-3773
ляции	-3774
▁пору	-3775
▁суббо	-3776
▁практи	-3777
▁столич	-3778
▁принять	-3779
▁Подробнее	-3780
ТП	-3781
ланд	-3782
сток	-3783
▁бой	-3784
▁вам	-3785
▁2018	-3786
служба	-3787
ху	-3788
гре	-3789
▁спра	-3790
▁рубля	-3791
▁семей	-3792
▁достиг	-3793
▁эксперт	-3794
▁деятельность	-3795
ньше	-3796
▁сама	-3797
▁Теперь	-3798
▁результаты	-3799
▁жел	-3800
▁нуж	-3801
ведли	-3802
▁девя	-3803
▁ключе	-3804
▁высоко	-3805
▁мигран	-3806
▁Кур	-3807
▁потен	-3808
▁процеду	-3809
▁депутатов	-3810
▁500	-3811
▁студ	-3812
ческом	-3813
▁отмен	-3814
▁воздуш	-3815
▁подпис	-3816
▁уничто	-3817
ственный	-3818
▁бывшего	-3819
▁сообщается	-3820
▁70	-3821
▁ах	-3822
креп	-3823
▁наш	-3824
▁марш	-3825
▁Донба	-3826
ральный	-3827
▁Вашинг	-3828
тья	-3829
▁каждо	-3830
▁магази	-3831
ференции	-3832
▁Рос	-3833
▁шан	-3834
▁судь	-3835
службе	-3836
▁победи	-3837
▁раньше	-3838
▁представителей	-3839
ia	-3840
▁Коми	-3841
▁улуч	-3842
▁месяц	-3843
▁молоде	-3844
▁никаких	-3845
▁использовать	-3846
леко	-3847
▁любо	-3848
чев	-3849
щать	-3850
анитар	-3851
▁корпо	-3852
▁условия	-3853
секретарь	-3854
▁президентом	-3855
▁демон	-3856
▁метров	-3857
▁отношений	-3858
▁автомобилей	-3859
сон	-3860
менты	-3861
▁ских	-3862
▁немец	-3863
▁заболев	-3864
ону	-3865
▁вчера	-3866
▁комитет	-3867
▁соревнов	-3868
▁K	-3869
новь	-3870
▁Лон	-3871
▁охра	-3872
шением	-3873
▁перио	-3874
▁доказа	-3875
▁осуществля	-3876
▁инфра	-3877
▁позиции	-3878
▁разрабо	-3879
▁рассчиты	-3880
▁парламент	-3881
▁пригла	-3882
▁аналоги	-3883
▁Представи	-3884
ствуют	-3885
▁арест	-3886
▁рекла	-3887
▁услуг	-3888
сколько	-3889
▁Песков	-3890
▁алкого	-3891
ed	-3892
чное	-3893
▁кой	-3894
▁най	-3895
▁Сергея	-3896
ПР	-3897
▁Вол	-3898
▁Интер	-3899
▁приве	-3900
▁скорее	-3901
▁слишком	-3902
▁энергети	-3903
pp	-3904
▁куда	-3905
▁тонн	-3906
▁плате	-3907
▁Евросо	-3908
▁недели	-3909
▁сегодняш	-3910
нию	-3911
▁той	-3912
тации	-3913
▁жела	-3914
▁совсем	-3915
▁наиболее	-3916
▁придется	-3917
юсь	-3918
▁ск	-3919
лять	-3920
▁одоб	-3921
▁свободы	-3922
▁Петербур	-3923
▁автомобиль	-3924
▁4,	-3925
▁роли	-3926
▁всю	-3927
▁невоз	-3928
▁выигра	-3929
▁Фе	-3930
емся	-3931
поли	-3932
телю	-3933
▁опыт	-3934
▁властей	-3935
▁эксперты	-3936
▁переговоров	-3937
▁Ге	-3938
вшим	-3939
одно	-3940
▁мед	-3941
▁июня	-3942
▁годов	-3943
смотрен	-3944
▁санкции	-3945
▁полномочи	-3946
▁происходит	-3947
росс	-3948
циона	-3949
▁очевид	-3950
ИК	-3951
единен	-3952
▁напо	-3953
рабаты	-3954
▁зрения	-3955
▁максима	-3956
▁существен	-3957
мый	-3958
▁тю	-3959
▁найти	-3960
▁поста	-3961
▁партий	-3962
▁фестива	-3963
летов	-3964
▁Олег	-3965
▁десяти	-3966
▁Государ	-3967
жает	-3968
чению	-3969
▁иска	-3970
▁фоне	-3971
▁вполне	-3972
▁инфраструк	-3973
un	-3974
декс	-3975
▁меж	-3976
▁Амери	-3977
▁нефте	-3978
ременно	-3979
рального	-3980
▁свидетель	-3981
эн	-3982
пить	-3983
▁198	-3984
▁покуп	-3985
▁прежде	-3986
▁декабре	-3987
▁фотографи	-3988
▁профессиональ	-3989
:00	-3990
▁Лондо	-3991
▁матча	-3992
▁воскресень	-3993
бере	-3994
▁борьбе	-3995
▁Олимпиа	-3996
▁странах	-3997
▁коммента	-3998
оз	-3999
▁80	-4000
дента	-4001
Роснеф	-4002
▁активно	-4003
▁страхов	-4004
▁оказался	-4005
▁сет	-4006
мотря	-4007
▁снова	-4008
▁команда	-4009
▁объектов	-4010
ясь	-4011
▁300	-4012
▁края	-4013
спекти	-4014
▁обязан	-4015
ook	-4016
рого	-4017
чную	-4018
▁восто	-4019
▁будем	-4020
▁вновь	-4021
▁Алексе	-4022
▁рабочи	-4023
▁продажи	-4024
▁Аф	-4025
▁факту	-4026
▁шесть	-4027
▁дороги	-4028
▁написал	-4029
▁господина	-4030
вета	-4031
вили	-4032
▁Джон	-4033
▁акций	-4034
▁напом	-4035
▁большо	-4036
▁фильма	-4037
▁конкурен	-4038
▁директора	-4039
▁Аль	-4040
▁Иван	-4041
▁o	-4042
гры	-4043
▁Ст	-4044
▁сом	-4045
▁фир	-4046
солют	-4047
▁шест	-4048
▁Евгений	-4049
▁вопросам	-4050
▁национальной	-4051
зем	-4052
▁фонд	-4053
▁машины	-4054
▁автомобиля	-4055
Мо	-4056
▁Кер	-4057
разде	-4058
▁слов	-4059
▁коммер	-4060
▁маршру	-4061
▁архи	-4062
▁фору	-4063
▁реализации	-4064
▁район	-4065
▁мероприятия	-4066
▁моби	-4067
▁имеют	-4068
▁обстоя	-4069
▁заседании	-4070
▁Российская	-4071
▁информация	-4072
▁Великобритании	-4073
банк	-4074
▁широ	-4075
▁колле	-4076
▁прием	-4077
▁точки	-4078
▁следствия	-4079
лами	-4080
▁вспо	-4081
▁прось	-4082
▁радио	-4083
ствовал	-4084
▁здания	-4085
вии	-4086
▁гаран	-4087
▁председателя	-4088
ина	-4089
стом	-4090
▁свобод	-4091
▁предостав	-4092
▁школы	-4093
ww	-4094
РИА	-4095
ехал	-4096
▁Киев	-4097
▁крае	-4098
честве	-4099
▁фильм	-4100
▁планирует	-4101
▁экономического	-4102
леты	-4103
ющее	-4104
личие	-4105
▁отчет	-4106
▁санкций	-4107
▁утвержда	-4108
30	-4109
дирек	-4110
ченных	-4111
▁Китай	-4112
гер	-4113
чай	-4114
▁Наде	-4115
▁желез	-4116
▁целью	-4117
▁юриди	-4118
▁попыт	-4119
▁хочет	-4120
ционные	-4121
бло	-4122
сах	-4123
енса	-4124
мень	-4125
▁семьи	-4126
▁пришлось	-4127
▁Ив	-4128
щена	-4129
▁тек	-4130
▁январе	-4131
▁разгово	-4132
▁документы	-4133
▁отечествен	-4134
▁мета	-4135
▁Всего	-4136
жествен	-4137
▁сю	-4138
▁Поль	-4139
▁фигу	-4140
▁преды	-4141
▁сказала	-4142
лоб	-4143
▁Поч	-4144
▁смы	-4145
▁Крым	-4146
▁порта	-4147
▁b	-4148
груз	-4149
Ислам	-4150
▁мето	-4151
пред	-4152
▁ДТП	-4153
▁Оль	-4154
▁озна	-4155
▁обнаружен	-4156
кобы	-4157
круг	-4158
строен	-4159
▁Болга	-4160
▁конструк	-4161
▁процента	-4162
▁воскресенье	-4163
▁предложения	-4164
ap	-4165
▁Май	-4166
▁Комп	-4167
▁нарко	-4168
▁самый	-4169
▁олимпий	-4170
▁предыду	-4171
▁заявления	-4172
▁документов	-4173
дя	-4174
жные	-4175
▁сть	-4176
стями	-4177
▁Лени	-4178
▁Минэ	-4179
▁коро	-4180
▁реда	-4181
▁самой	-4182
▁режима	-4183
▁развитие	-4184
▁p	-4185
▁00	-4186
ждении	-4187
▁знако	-4188
тельную	-4189
▁планируется	-4190
▁производство	-4191
туре	-4192
рания	-4193
начала	-4194
▁сильно	-4195
▁культур	-4196
▁работают	-4197
▁32	-4198
▁Бар	-4199
▁рядом	-4200
▁предусмотрен	-4201
рос	-4202
ссер	-4203
▁доб	-4204
▁смерти	-4205
▁систему	-4206
▁стандар	-4207
▁станции	-4208
▁распростран	-4209
▁дли	-4210
▁кад	-4211
▁доме	-4212
▁скую	-4213
▁принял	-4214
▁рассказывает	-4215
пан	-4216
конча	-4217
▁друг	-4218
▁курс	-4219
▁молоды	-4220
▁Европей	-4221
йдут	-4222
▁вече	-4223
▁дети	-4224
▁нало	-4225
▁профи	-4226
▁женщина	-4227
▁дево	-4228
▁коле	-4229
▁одну	-4230
▁организ	-4231
дор	-4232
▁ут	-4233
▁дво	-4234
зацию	-4235
служа	-4236
▁спаса	-4237
раи	-4238
езде	-4239
▁Там	-4240
▁психо	-4241
▁внутри	-4242
▁зареги	-4243
▁Николай	-4244
▁перевоз	-4245
▁зарегистри	-4246
▁неу	-4247
▁тай	-4248
фикси	-4249
▁Юрий	-4250
▁оружия	-4251
▁состоится	-4252
город	-4253
▁степ	-4254
▁домаш	-4255
▁матче	-4256
ый	-4257
вин	-4258
либо	-4259
▁зап	-4260
▁приняли	-4261
мую	-4262
▁автобу	-4263
▁участия	-4264
его	-4265
▁воды	-4266
▁умер	-4267
▁захва	-4268
▁контроли	-4269
▁большинство	-4270
тым	-4271
▁ке	-4272
▁све	-4273
▁карь	-4274
▁армии	-4275
▁прокуро	-4276
▁столицы	-4277
▁некоторых	-4278
▁неделе	-4279
щер	-4280
▁ву	-4281
▁выгля	-4282
▁линии	-4283
защи	-4284
вшись	-4285
▁Пари	-4286
▁ночь	-4287
▁годах	-4288
▁плана	-4289
▁равно	-4290
▁говорил	-4291
▁площади	-4292
▁довольно	-4293
▁получила	-4294
▁("	-4295
рота	-4296
тный	-4297
▁космо	-4298
▁жители	-4299
ch	-4300
лье	-4301
вори	-4302
▁оде	-4303
▁запи	-4304
▁твор	-4305
▁активи	-4306
▁предложил	-4307
▁результат	-4308
▁соответствии	-4309
гом	-4310
▁порт	-4311
▁свер	-4312
ленный	-4313
сматри	-4314
▁поддержки	-4315
▁Мир	-4316
чиков	-4317
▁отды	-4318
▁марте	-4319
летнего	-4320
▁значит	-4321
▁минимум	-4322
пру	-4323
фина	-4324
▁игры	-4325
москов	-4326
▁регули	-4327
▁включая	-4328
Ка	-4329
▁J	-4330
ваем	-4331
льную	-4332
▁зару	-4333
ровано	-4334
▁замети	-4335
▁первые	-4336
▁законопроект	-4337
gh	-4338
im	-4339
щает	-4340
▁Гри	-4341
льном	-4342
мести	-4343
▁нефтя	-4344
▁Медведев	-4345
▁агре	-4346
▁посо	-4347
▁лицен	-4348
▁якобы	-4349
▁женщин	-4350
▁защиты	-4351
▁конфликта	-4352
Са	-4353
тим	-4354
▁мере	-4355
▁награ	-4356
▁соблю	-4357
▁зафикси	-4358
▁составила	-4359
енты	-4360
▁вет	-4361
▁реак	-4362
▁встрече	-4363
▁регионов	-4364
бка	-4365
лян	-4366
емые	-4367
роде	-4368
▁Брю	-4369
▁Гор	-4370
▁зву	-4371
▁возглавля	-4372
▁отмечается	-4373
дро	-4374
шил	-4375
тного	-4376
▁Face	-4377
▁союз	-4378
▁абсолют	-4379
▁регуляр	-4380
▁боевиков	-4381
▁невозможно	-4382
▁необходимости	-4383
СКА	-4384
мым	-4385
тек	-4386
стру	-4387
анные	-4388
▁поле	-4389
▁микро	-4390
▁остан	-4391
▁позволит	-4392
▁транспорта	-4393
.00	-4394
▁Вот	-4395
годно	-4396
россий	-4397
▁допусти	-4398
▁рассказала	-4399
▁5,	-4400
▁Рио	-4401
▁СКР	-4402
▁факт	-4403
▁начал	-4404
▁основе	-4405
▁подразде	-4406
▁перспекти	-4407
▁эко	-4408
▁корре	-4409
▁ликви	-4410
▁военнослужа	-4411
▁исследования	-4412
ьера	-4413
обнов	-4414
▁запа	-4415
▁клуб	-4416
▁пути	-4417
интере	-4418
▁Более	-4419
▁социальной	-4420
▁Y	-4421
тал	-4422
▁хок	-4423
▁выдви	-4424
▁легко	-4425
▁проком	-4426
▁решили	-4427
▁Информа	-4428
▁прокомменти	-4429
book	-4430
щему	-4431
▁отмечают	-4432
▁расследования	-4433
▁взгля	-4434
ционное	-4435
▁причаст	-4436
▁ответственности	-4437
ay	-4438
лод	-4439
сия	-4440
▁36	-4441
▁Кие	-4442
▁заме	-4443
▁Отмеча	-4444
▁вокруг	-4445
▁распоря	-4446
▁рассказали	-4447
ледова	-4448
▁преде	-4449
▁содерж	-4450
▁ближайшее	-4451
лам	-4452
лил	-4453
▁тро	-4454
печат	-4455
▁Один	-4456
▁прямо	-4457
▁размер	-4458
▁театра	-4459
дам	-4460
▁циф	-4461
▁Саудов	-4462
▁создать	-4463
▁субботу	-4464
▁Facebook	-4465
▁сайт	-4466
▁стоя	-4467
▁середи	-4468
▁привлека	-4469
:1	-4470
так	-4471
лень	-4472
чили	-4473
▁ось	-4474
анной	-4475
чается	-4476
▁предъ	-4477
▁стади	-4478
▁сцена	-4479
▁неодно	-4480
▁Констан	-4481
▁столице	-4482
▁составил	-4483
Ру	-4484
мур	-4485
▁реа	-4486
▁ЦСКА	-4487
▁Арави	-4488
▁гости	-4489
▁лекар	-4490
▁общей	-4491
▁погибших	-4492
▁Пока	-4493
▁соглашение	-4494
ЭС	-4495
▁90	-4496
▁ФСБ	-4497
▁обнов	-4498
▁топли	-4499
▁Именно	-4500
▁неделю	-4501
▁оказались	-4502
▁участники	-4503
пит	-4504
▁Мат	-4505
▁путе	-4506
▁Виктор	-4507
▁основном	-4508
▁Без	-4509
▁Есть	-4510
▁винов	-4511
▁напря	-4512
тической	-4513
▁возобнов	-4514
▁кредитов	-4515
бри	-4516
▁уво	-4517
▁Вале	-4518
▁Этот	-4519
▁любой	-4520
▁режим	-4521
▁Москву	-4522
▁Ростов	-4523
▁мировой	-4524
▁указыва	-4525
:0	-4526
мия	-4527
сной	-4528
стям	-4529
питали	-4530
▁Олимпий	-4531
▁определи	-4532
мор	-4533
ально	-4534
▁ними	-4535
▁связа	-4536
▁знамени	-4537
тит	-4538
нении	-4539
▁арти	-4540
▁подряд	-4541
ственных	-4542
▁призвал	-4543
▁обвинения	-4544
▁Й	-4545
▁Чу	-4546
▁уви	-4547
▁феврале	-4548
▁контроль	-4549
▁проектов	-4550
▁взаимодей	-4551
пел	-4552
▁эпи	-4553
▁цвет	-4554
▁самое	-4555
▁сделал	-4556
▁пассажиров	-4557
▁a	-4558
волю	-4559
овое	-4560
▁уре	-4561
▁ское	-4562
▁удов	-4563
▁экстре	-4564
гой	-4565
▁Бан	-4566
битра	-4567
▁снижение	-4568
▁департамента	-4569
com	-4570
▁Чтобы	-4571
▁усили	-4572
▁33	-4573
▁пак	-4574
ждены	-4575
Извести	-4576
▁удовлет	-4577
▁инициати	-4578
▁совершенно	-4579
")	-4580
нял	-4581
▁яв	-4582
ters	-4583
емой	-4584
▁логи	-4585
▁паци	-4586
ставили	-4587
▁вступи	-4588
▁авиакомп	-4589
буд	-4590
▁(2	-4591
▁мин	-4592
▁геро	-4593
▁разру	-4594
▁музыка	-4595
▁обстре	-4596
▁техники	-4597
▁которому	-4598
▁российским	-4599
бил	-4600
▁1,5	-4601
▁Соб	-4602
▁цер	-4603
▁Егип	-4604
Россия	-4605
тивных	-4606
▁косми	-4607
▁пообе	-4608
джи	-4609
тает	-4610
▁бума	-4611
ставил	-4612
▁поезд	-4613
▁такая	-4614
▁хотят	-4615
▁возбуждено	-4616
▁руководство	-4617
op	-4618
▁Нов	-4619
мость	-4620
▁сожа	-4621
▁публика	-4622
▁постоянно	-4623
▁сообщения	-4624
▁Отмечается	-4625
зей	-4626
вался	-4627
▁учетом	-4628
▁недоста	-4629
▁сентябре	-4630
▁7,	-4631
▁нан	-4632
▁эфи	-4633
▁чуть	-4634
альной	-4635
тельная	-4636
▁уголовного	-4637
▁ответственность	-4638
ut	-4639
сен	-4640
ствов	-4641
▁дове	-4642
▁патри	-4643
▁точно	-4644
▁журналистов	-4645
▁спортсменов	-4646
ъек	-4647
кипа	-4648
▁гре	-4649
▁масштаб	-4650
▁голосования	-4651
лота	-4652
▁гол	-4653
▁выбра	-4654
▁худож	-4655
▁превра	-4656
▁международных	-4657
▁+	-4658
дца	-4659
кли	-4660
▁Ад	-4661
гули	-4662
лить	-4663
рост	-4664
▁гум	-4665
движи	-4666
жнему	-4667
чением	-4668
▁пожар	-4669
▁вместо	-4670
▁своими	-4671
▁энерго	-4672
▁недвижи	-4673
чью	-4674
▁Ско	-4675
рация	-4676
ходить	-4677
▁беспо	-4678
▁верто	-4679
▁потер	-4680
▁страх	-4681
гор	-4682
лиги	-4683
▁Нью	-4684
анный	-4685
▁испыт	-4686
▁Японии	-4687
▁область	-4688
▁тол	-4689
ждений	-4690
▁Обама	-4691
▁сторону	-4692
▁беженцев	-4693
▁кандидатов	-4694
▁становится	-4695
▁официальный	-4696
▁Дру	-4697
▁дать	-4698
▁болез	-4699
▁военные	-4700
▁темпера	-4701
▁197	-4702
страи	-4703
▁брен	-4704
▁друга	-4705
▁ноябре	-4706
▁смогли	-4707
▁водитель	-4708
▁федерального	-4709
лад	-4710
▁37	-4711
▁ше	-4712
▁App	-4713
▁концер	-4714
▁баррель	-4715
смо	-4716
восто	-4717
▁соцс	-4718
▁зво	-4719
жений	-4720
▁создание	-4721
▁види	-4722
службы	-4723
▁	-4724
о	-4725
е	-4726
а	-4727
и	-4728
н	-4729
т	-4730
с	-4731
р	-4732
в	-4733
л	-4734
к	-4735
д	-4736
м	-4737
п	-4738
у	-4739
ы	-4740
я	-4741
г	-4742
з	-4743
б	-4744
,	-4745
ь	-4746
й	-4747
ч	-4748
.	-4749
х	-4750
ж	-4751
"	-4752
ц	-4753
ю	-4754
ш	-4755
-	-4756
щ	-4757
С	-4758
ф	-4759
э	-4760
В	-4761
П	-4762
1	-4763
0	-4764
К	-4765
Р	-4766
2	-4767
А	-4768
М	-4769
Н	-4770
О	-4771
И	-4772
Д	-4773
Т	-4774
Б	-4775
:	-4776
e	-4777
Г	-4778
5	-4779
a	-4780
3	-4781
Ф	-4782
(	-4783
)	-4784
o	-4785
6	-4786
4	-4787
У	-4788
r	-4789
Е	-4790
9	-4791
i	-4792
n	-4793
Л	-4794
t	-4795
7	-4796
8	-4797
З	-4798
Э	-4799
Ш	-4800
s	-4801
ъ	-4802
u	-4803
l	-4804
Ч	-4805
%	-4806
Х	-4807
Я	-4808
c	-4809
Ц	-4810
?	-4811
A	-4812
d	-4813
m	-4814
g	-4815
S	-4816
p	-4817
h	-4818
I	-4819
T	-4820
Ж	-4821
L	-4822
C	-4823
R	-4824
Ю	-4825
y	-4826
Ъ	-4827
N	-4828
B	-4829
M	-4830
P	-4831
F	-4832
k	-4833
b	-4834
!	-4835
w	-4836
G	-4837
D	-4838
$	-4839
W	-4840
E	-4841
/	-4842
v	-4843
f	-4844
;	-4845
V	-4846
H	-4847
O	-4848
X	-4849
x	-4850
Й	-4851
U	-4852
z	-4853
J	-4854
K	-4855
­	-4856
+	-4857
Y	-4858
·	-4859
€	-4860
'	-4861
&	-4862
Z	-4863
Щ	-4864
[	-4865
°	-4866
]	-4867
Q	-4868
j	-4869
‐	-4870
>	-4871
і	-4872
―	-4873
*	-4874
q	-4875
Ы	-4876
−	-4877
_	-4878
#	-4879
£	-4880
@	-4881
Ь	-4882
=	-4883
`	-4884
ü	-4885
ä	-4886
ї	-4887
•	-4888
é	-4889
õ	-4890
×	-4891
⁄	-4892
<	-4893
є	-4894
■	-4895
ó	-4896
′	-4897
©	-4898
ö	-4899
̆	-4900
→	-4901
́	-4902
‒	-4903
è	-4904
І	-4905
þ	-4906
‬	-4907
\	-4908
~	-4909
É	-4910
ë	-4911
μ	-4912
ў	-4913
‍	-4914
😂	-4915
¦	-4916
¬	-4917
Ö	-4918
à	-4919
Ş	-4920
Ν	-4921
α	-4922
β	-4923
Ў	-4924
қ	-4925
‪	-4926
ç	-4927
ê	-4928
í	-4929
ð	-4930
ô	-4931
ī	-4932
ı	-4933
ŏ	-4934
ś	-4935
Š	-4936
ʀ	-4937
ʼ	-4938
Α	-4939
Η	-4940
ν	-4941
ο	-4942
џ	-4943
ғ	-4944
▲	-4945
⚽	-4946
️	-4947
¤	-4948
¥	-4949
§	-4950
Ë	-4951
ß	-4952
á	-4953
ø	-4954
ā	-4955
ę	-4956
İ	-4957
Ł	-4958
ń	-4959
ş	-4960
š	-4961
̈	-4962
̊	-4963
Έ	-4964
Γ	-4965
Σ	-4966
έ	-4967
λ	-4968
ρ	-4969
τ	-4970
χ	-4971
ώ	-4972
Є	-4973
Ї	-4974
Қ	-4975
ҳ	-4976
ӣ	-4977
∙	-4978
⋅	-4979
─	-4980
►	-4981
●	-4982
☃	-4983
☝	-4984
♫	-4985
❄	-4986
《	-4987
》	-4988
	-4989
🌞	-4990
🍺	-4991
🎂	-4992
🐅	-4993
🐗	-4994
🐺	-4995
💪	-4996
