[UNK]	0
[CLS]	1
[SEP]	2
[PAD]	3
[MASK]	4
!	5
"	6
#	7
$	8
%	9
&	10
'	11
(	12
)	13
*	14
+	15
,	16
-	17
.	18
/	19
0	20
1	21
2	22
3	23
4	24
5	25
6	26
7	27
8	28
9	29
:	30
;	31
<	32
=	33
>	34
?	35
@	36
[	37
\	38
]	39
_	40
`	41
a	42
b	43
c	44
d	45
e	46
f	47
g	48
h	49
i	50
j	51
k	52
l	53
m	54
n	55
o	56
p	57
q	58
r	59
s	60
t	61
u	62
v	63
w	64
x	65
y	66
z	67
~	68
	69
£	70
¤	71
¥	72
¦	73
§	74
©	75
¬	76
­	77
°	78
·	79
×	80
ß	81
à	82
á	83
ä	84
ç	85
è	86
é	87
ê	88
ë	89
í	90
ð	91
ó	92
ô	93
õ	94
ö	95
ø	96
ü	97
þ	98
ā	99
ę	100
ī	101
ı	102
ł	103
ń	104
ŏ	105
ś	106
ş	107
š	108
ʀ	109
ʼ	110
́	111
̇	112
̊	113
έ	114
α	115
β	116
γ	117
η	118
λ	119
μ	120
ν	121
ο	122
ρ	123
σ	124
τ	125
χ	126
ώ	127
а	128
б	129
в	130
г	131
д	132
е	133
ж	134
з	135
и	136
й	137
к	138
л	139
м	140
н	141
о	142
п	143
р	144
с	145
т	146
у	147
ф	148
х	149
ц	150
ч	151
ш	152
щ	153
ъ	154
ы	155
ь	156
э	157
ю	158
я	159
ё	160
є	161
і	162
ї	163
ў	164
џ	165
ғ	166
қ	167
ҳ	168
ӣ	169
‍	170
‎	171
‐	172
‒	173
―	174
•	175
‪	176
‬	177
′	178
⁄	179
€	180
→	181
−	182
∙	183
⋅	184
─	185
■	186
▲	187
►	188
●	189
☃	190
☝	191
♫	192
⚽	193
❄	194
《	195
》	196
	197
️	198
🌞	199
🍺	200
🎂	201
🐅	202
🐗	203
🐺	204
💪	205
😂	206
🙈	207
##о	208
##д	209
##п	210
##л	211
##ь	212
##е	213
##ф	214
##и	215
##б	216
##р	217
##я	218
##т	219
##ы	220
##н	221
##й	222
##а	223
##ю	224
##х	225
##з	226
##к	227
##м	228
##у	229
##с	230
##ц	231
##г	232
##в	233
##ш	234
##r	235
##i	236
##d	237
##g	238
##e	239
##ч	240
##ж	241
##a	242
##t	243
##c	244
##h	245
##w	246
##f	247
##щ	248
##l	249
##o	250
##m	251
##b	252
##v	253
##s	254
##n	255
##ї	256
##p	257
##э	258
##"	259
##ъ	260
##k	261
##0	262
##3	263
##u	264
##4	265
##5	266
##8	267
##9	268
##6	269
##7	270
##y	271
##q	272
##1	273
##j	274
##і	275
##*	276
##z	277
##2	278
##x	279
##)	280
##.	281
##-	282
##?	283
##,	284
##є	285
##_	286
##ş	287
##!	288
##́	289
##ä	290
##ν	291
##α	292
##γ	293
##έ	294
##η	295
##σ	296
##/	297
##€	298
##ü	299
##;	300
##õ	301
##ø	302
##<	303
##>	304
##è	305
##‬	306
##[	307
##é	308
##:	309
##þ	310
##ʀ	311
##😂	312
##]	313
##ê	314
##@	315
##=	316
##­	317
##ð	318
##+	319
###	320
##‎	321
##ё	322
##~	323
##ó	324
##ë	325
##$	326
##í	327
##'	328
##τ	329
##ο	330
##μ	331
##%	332
##ö	333
##à	334
##🐺	335
##🐅	336
##🎂	337
##🍺	338
##⚽	339
##▲	340
##ī	341
##ā	342
##−	343
##ʼ	344
##ı	345
##💪	346
##ń	347
##ś	348
##š	349
##ў	350
##á	351
##‍	352
##′	353
##☃	354
##❄	355
##қ	356
##ρ	357
##ώ	358
##	359
##ô	360
##ę	361
##ҳ	362
##ç	363
##̇	364
##―	365
##ŏ	366
##ß	367
##ғ	368
##&	369
##ст	370
##ен	371
##ов	372
##но	373
##ра	374
по	375
##то	376
##ро	377
##ре	378
##ан	379
##ли	380
##ет	381
на	382
##ль	383
##ри	384
##ко	385
##го	386
##ны	387
##ер	388
##ла	389
##ит	390
##ни	391
##ат	392
##ени	393
##ки	394
##ка	395
##на	396
##ле	397
ко	398
##од	399
не	400
за	401
##ло	402
##ся	403
##ци	404
##ств	405
##ти	406
##ми	407
со	408
про	409
##сс	410
##ем	411
##да	412
ра	413
##та	414
##ру	415
##ани	416
##ва	417
об	418
до	419
##ля	420
от	421
##ей	422
##ров	423
##ско	424
что	425
при	426
пре	427
##сти	428
##ель	429
во	430
##мо	431
##во	432
##ак	433
##ин	434
##по	435
то	436
##де	437
##че	438
ре	439
ро	440
вы	441
##ры	442
##ви	443
##ски	444
##ать	445
##не	446
из	447
мо	448
##ения	449
##бо	450
##ной	451
##ча	452
##ных	453
##ста	454
это	455
##сси	456
##ди	457
##за	458
бы	459
##ку	460
##ду	461
##сь	462
##ного	463
##ве	464
##ма	465
##се	466
##ме	467
го	468
##ков	469
##ги	470
##ере	471
##же	472
##до	473
##лу	474
ст	475
##сто	476
##ар	477
##мен	478
##ть	479
росси	480
##ют	481
##ово	482
бо	483
##ение	484
##ции	485
год	486
##ные	487
##об	488
##щи	489
##му	490
##лов	491
##ши	492
##ить	493
##чи	494
##ный	495
под	496
ме	497
##сть	498
де	499
##ну	500
кото	501
##зи	502
",	503
ми	504
##па	505
20	506
##ще	507
раз	508
##ам	509
пред	510
##он	511
но	512
##ек	513
##сп	514
##ется	515
ин	516
##ент	517
##итель	518
##ня	519
ка	520
##си	521
##ше	522
##те	523
##ря	524
##ход	525
##уб	526
##жи	527
##рав	528
ком	529
##га	530
как	531
##ской	532
##ран	533
##пи	534
##лен	535
бу	536
пере	537
все	538
те	539
##са	540
ли	541
так	542
##су	543
##ным	544
для	545
##ке	546
ни	547
##ания	548
кон	549
##став	550
си	551
##ства	552
##вы	553
##ту	554
##сле	555
се	556
##ского	557
201	558
".	559
од	560
ма	561
##ствен	562
су	563
##ство	564
сво	565
##би	566
са	567
ве	568
##бы	569
##из	570
##ят	571
которы	572
##ова	573
##жно	574
та	575
##дет	576
##жд	577
##ск	578
##аль	579
##ор	580
##ном	581
бе	582
##ты	583
он	584
##вер	585
##про	586
##ите	587
##це	588
##жа	589
года	590
##спо	591
воз	592
##ут	593
ста	594
##овы	595
##лю	596
##ате	597
сооб	598
##кра	599
##ур	600
##пе	601
##ная	602
##ща	603
##ша	604
##ска	605
россии	606
##гра	607
его	608
##лей	609
##ное	610
##ности	611
##чен	612
##зы	613
##со	614
##ских	615
##ении	616
сто	617
##бе	618
после	619
##ита	620
##тов	621
##лся	622
##мы	623
##каза	624
##сту	625
##лек	626
##фи	627
пер	628
##ета	629
##тив	630
##ский	631
рабо	632
##ция	633
стра	634
##нов	635
да	636
##ред	637
дол	638
##ана	639
гла	640
##дер	641
##дов	642
че	643
##она	644
##ба	645
##рг	646
##лько	647
##ание	648
##рем	649
па	650
сов	651
##кой	652
##ющи	653
##ании	654
##атель	655
##зу	656
россий	657
хо	658
ав	659
##лись	660
ви	661
комп	662
##ети	663
зая	664
также	665
пра	666
ос	667
ру	668
##ную	669
##мер	670
##ность	671
вла	672
##ления	673
мы	674
ча	675
пров	676
этом	677
поли	678
полу	679
ди	680
же	681
руб	682
##жен	683
##ром	684
ва	685
##пу	686
боль	687
##стан	688
##дни	689
##рии	690
слу	691
##ев	692
##гда	693
##стви	694
##жет	695
##лось	696
##том	697
##вод	698
будет	699
расс	700
##прав	701
##лн	702
##ком	703
##стра	704
ак	705
оп	706
лю	707
##гла	708
##зид	709
году	710
##зо	711
##рит	712
##ды	713
##гу	714
дру	715
врем	716
##лы	717
##вил	718
презид	719
##вши	720
##зов	721
##ению	722
##сли	723
##род	724
га	725
##дар	726
##ву	727
##сов	728
##ские	729
##руп	730
##ник	731
уже	732
укра	733
пу	734
##ень	735
##вать	736
ев	737
лет	738
пар	739
##тер	740
##ца	741
##ати	742
##фор	743
##ству	744
эк	745
##при	746
##ним	747
объ	748
##вет	749
##рен	750
##цию	751
орг	752
ба	753
##ений	754
му	755
##лее	756
уча	757
##рой	758
ан	759
##вя	760
##лась	761
было	762
##ане	763
##коно	764
##тор	765
был	766
челов	767
##ются	768
ку	769
##рова	770
ле	771
##бу	772
##каз	773
их	774
##стоя	775
мини	776
фи	777
##ене	778
ты	779
ново	780
время	781
##рт	782
обра	783
##ными	784
##ха	785
##сы	786
которые	787
дан	788
еще	789
произ	790
сер	791
тре	792
меж	793
прав	794
##кан	795
они	796
##лет	797
представ	798
##гово	799
том	800
спо	801
гра	802
чем	803
##ата	804
ки	805
сле	806
##ника	807
##ская	808
##ится	809
сч	810
##зна	811
##пре	812
гово	813
тер	814
само	815
только	816
##стре	817
##зд	818
##цион	819
обла	820
или	821
##вля	822
если	823
##ге	824
##яб	825
слов	826
##циаль	827
нача	828
##лож	829
авто	830
##ление	831
##зыва	832
##чно	833
более	834
##ском	835
евро	836
##дут	837
##хо	838
между	839
сообща	840
реш	841
сша	842
##год	843
чтобы	844
##кры	845
может	846
##ента	847
##мот	848
пе	849
##тиче	850
##станов	851
##ней	852
зна	853
##иту	854
того	855
##кон	856
моск	857
##сте	858
19	859
##лом	860
вер	861
##шен	862
бан	863
кра	864
##ед	865
##ников	866
##рий	867
##судар	868
##ступ	869
исто	870
##ходи	871
органи	872
ее	873
##рь	874
пи	875
тем	876
государ	877
##лан	878
##00	879
##цы	880
были	881
чи	882
мар	883
##ена	884
##убли	885
##раль	886
##казал	887
##ой	888
сообщи	889
дей	890
мин	891
который	892
2016	893
фе	894
ар	895
эти	896
испо	897
##пас	898
вз	899
ту	900
им	901
свя	902
цент	903
рф	904
одна	905
реги	906
##ску	907
##аться	908
##льт	909
пол	910
есть	911
##ых	912
отно	913
она	914
##кт	915
сам	916
алек	917
вопро	918
##стов	919
).	920
##кономи	921
##ити	922
##стро	923
##сла	924
помо	925
отм	926
##рд	927
новы	928
##дом	929
##ональ	930
россия	931
##ему	932
свои	933
сот	934
##али	935
ри	936
тра	937
##ением	938
тех	939
##ман	940
ры	941
возмо	942
##стве	943
##ких	944
президент	945
##пер	946
согла	947
##форма	948
##пы	949
##лли	950
когда	951
сред	952
спе	953
заявил	954
##держ	955
##спе	956
##сан	957
##ую	958
##ники	959
жи	960
##логи	961
минист	962
человек	963
##яти	964
##вед	965
##ены	966
экономи	967
ране	968
##сков	969
ранее	970
сей	971
##шения	972
мог	973
##ций	974
##er	975
##клю	976
##en	977
пов	978
горо	979
этого	980
соб	981
##ября	982
поя	983
##мери	984
изве	985
##годня	986
основ	987
резу	988
груп	989
сегодня	990
##ью	991
ну	992
суд	993
организа	994
##час	995
ад	996
##тин	997
##рован	998
##мента	999
информа	1000
##тро	1001
други	1002
сейчас	1003
результ	1004
ус	1005
чет	1006
глав	1007
##рудни	1008
##тора	1009
##дает	1010
##цев	1011
##ках	1012
##ье	1013
проек	1014
лу	1015
влади	1016
словам	1017
##рия	1018
##пера	1019
сотрудни	1020
сторо	1021
области	1022
##шего	1023
2015	1024
##рта	1025
),	1026
##аты	1027
отмети	1028
счита	1029
кар	1030
обо	1031
##чень	1032
интер	1033
##ствия	1034
##лич	1035
без	1036
подо	1037
дела	1038
млн	1039
воен	1040
##кие	1041
феде	1042
ru	1043
правитель	1044
день	1045
##тра	1046
##аний	1047
однако	1048
##ителя	1049
##иться	1050
10	1051
пока	1052
поч	1053
можно	1054
##сед	1055
будут	1056
##ом	1057
##вает	1058
была	1059
##ителей	1060
сде	1061
прош	1062
##кла	1063
украин	1064
##ским	1065
##мент	1066
обще	1067
##цу	1068
очень	1069
##дол	1070
приня	1071
##ковод	1072
газ	1073
амери	1074
##ному	1075
возможно	1076
##кого	1077
гражд	1078
аг	1079
первы	1080
служ	1081
владими	1082
##оде	1083
украи	1084
руковод	1085
##смот	1086
##оне	1087
##бор	1088
##тому	1089
неско	1090
дет	1091
##нее	1092
##сты	1093
##чения	1094
где	1095
##ять	1096
тур	1097
случа	1098
##ете	1099
явля	1100
##сно	1101
рас	1102
быть	1103
##бира	1104
##лага	1105
рублей	1106
##шей	1107
##лем	1108
иг	1109
##вой	1110
стро	1111
##рабо	1112
компании	1113
стан	1114
##вин	1115
15	1116
##от	1117
рай	1118
встре	1119
деп	1120
сист	1121
##рек	1122
род	1123
один	1124
##ta	1125
страны	1126
##вали	1127
проб	1128
##итуа	1129
которо	1130
сп	1131
мл	1132
фин	1133
##нали	1134
обе	1135
##льно	1136
##ый	1137
##чение	1138
ситуа	1139
работа	1140
млрд	1141
нет	1142
два	1143
##ний	1144
против	1145
##ремен	1146
необ	1147
говорит	1148
##ровать	1149
участ	1150
всего	1151
управ	1152
##нер	1153
поз	1154
получи	1155
ду	1156
##ших	1157
кро	1158
коман	1159
даже	1160
##ющих	1161
сообщает	1162
##чь	1163
##вал	1164
долж	1165
пла	1166
глава	1167
вто	1168
вс	1169
офи	1170
##ители	1171
##шин	1172
напо	1173
производ	1174
##ское	1175
##твер	1176
этот	1177
вне	1178
дву	1179
них	1180
жиз	1181
эксп	1182
состав	1183
##ые	1184
право	1185
кор	1186
тыся	1187
##фе	1188
##ях	1189
##щен	1190
оста	1191
##стран	1192
##ятель	1193
##народ	1194
ла	1195
##пла	1196
уда	1197
##льзов	1198
##грам	1199
ско	1200
##атери	1201
тран	1202
сан	1203
откры	1204
це	1205
##тя	1206
милли	1207
американ	1208
вод	1209
##рито	1210
##коло	1211
##рук	1212
##цен	1213
##чер	1214
име	1215
##лови	1216
пресс	1217
пет	1218
международ	1219
##хи	1220
##аны	1221
##вший	1222
парти	1223
алексан	1224
отме	1225
##дель	1226
побе	1227
##тере	1228
##щей	1229
террито	1230
##чит	1231
александ	1232
пл	1233
объя	1234
##ледов	1235
кри	1236
##жения	1237
##ться	1238
##нии	1239
много	1240
неф	1241
##овой	1242
продол	1243
##йте	1244
тыс	1245
три	1246
разв	1247
оче	1248
бли	1249
##сса	1250
нас	1251
больше	1252
сре	1253
сем	1254
президента	1255
финан	1256
##моби	1257
систем	1258
##on	1259
##рак	1260
##ческой	1261
необходи	1262
фо	1263
сни	1264
##ительно	1265
около	1266
доро	1267
извест	1268
##жда	1269
фак	1270
фор	1271
смо	1272
чере	1273
сказал	1274
опера	1275
##рая	1276
##мини	1277
##шь	1278
могут	1279
##бя	1280
би	1281
200	1282
полити	1283
12	1284
данным	1285
наз	1286
выбо	1287
##вила	1288
пот	1289
##ким	1290
##дей	1291
мат	1292
доку	1293
несколько	1294
автомоби	1295
вой	1296
##него	1297
отмеча	1298
##вили	1299
госп	1300
##ками	1301
##скую	1302
##емо	1303
##анию	1304
созд	1305
отнош	1306
##ья	1307
##мест	1308
##лин	1309
##щего	1310
пло	1311
уров	1312
рын	1313
##прияти	1314
##торы	1315
украины	1316
пос	1317
##бов	1318
бю	1319
гос	1320
безо	1321
##чу	1322
##дь	1323
кры	1324
граждан	1325
##ено	1326
наход	1327
##лия	1328
програм	1329
##ряд	1330
след	1331
##сни	1332
заяв	1333
которая	1334
##ческих	1335
ло	1336
кто	1337
##щения	1338
решение	1339
##дин	1340
##..	1341
челове	1342
##рует	1343
жен	1344
##шел	1345
ито	1346
сообщил	1347
экспер	1348
участи	1349
депут	1350
##зе	1351
##циональ	1352
агент	1353
прода	1354
кроме	1355
##реб	1356
перед	1357
через	1358
всех	1359
сдела	1360
состоя	1361
##рон	1362
##ющий	1363
источ	1364
##жение	1365
развити	1366
##яз	1367
фран	1368
##стей	1369
##ющие	1370
##цией	1371
соот	1372
##ерб	1373
высо	1374
меся	1375
имен	1376
##онов	1377
##in	1378
власти	1379
вопрос	1380
мн	1381
эта	1382
##хран	1383
безопас	1384
##полн	1385
##дели	1386
ок	1387
##нес	1388
круп	1389
мест	1390
респ	1391
отметил	1392
##ческого	1393
##вно	1394
##рори	1395
##мит	1396
мен	1397
уго	1398
##еры	1399
перво	1400
кол	1401
место	1402
чемпи	1403
##лаго	1404
спи	1405
напом	1406
мол	1407
ша	1408
республи	1409
##бра	1410
мно	1411
сек	1412
является	1413
вме	1414
нару	1415
уве	1416
направ	1417
##лим	1418
11	1419
прове	1420
##точ	1421
которых	1422
##вают	1423
##нем	1424
##соб	1425
##кий	1426
30	1427
ответ	1428
тру	1429
##рах	1430
ави	1431
##нут	1432
ква	1433
свое	1434
соответ	1435
##вести	1436
дирек	1437
ию	1438
кан	1439
##шение	1440
##ством	1441
##слу	1442
прои	1443
##казыва	1444
##an	1445
города	1446
##хов	1447
над	1448
ян	1449
этой	1450
установ	1451
##чить	1452
луч	1453
официаль	1454
##мет	1455
##раз	1456
##нима	1457
##министра	1458
##лого	1459
##ентов	1460
##работ	1461
##пол	1462
##рей	1463
##ляет	1464
зани	1465
законо	1466
##ностью	1467
##зн	1468
##овых	1469
##рово	1470
прем	1471
себя	1472
владимир	1473
##ям	1474
совер	1475
государствен	1476
матери	1477
##ждения	1478
##ез	1479
ха	1480
##дж	1481
двух	1482
запре	1483
##лении	1484
последни	1485
соста	1486
интере	1487
произо	1488
свою	1489
##кам	1490
уч	1491
дви	1492
жур	1493
ря	1494
террори	1495
пробле	1496
сирии	1497
##туры	1498
##зя	1499
##атов	1500
##ателя	1501
ше	1502
проце	1503
иск	1504
чу	1505
биз	1506
##пад	1507
поэ	1508
##бой	1509
позво	1510
мак	1511
числе	1512
##щее	1513
работ	1514
##чин	1515
совет	1516
##ьер	1517
следу	1518
##ил	1519
виде	1520
18	1521
режи	1522
бое	1523
тысяч	1524
теле	1525
кур	1526
сы	1527
##имо	1528
там	1529
ги	1530
...	1531
передает	1532
##ложи	1533
##лог	1534
##атри	1535
поддерж	1536
муж	1537
дело	1538
член	1539
##чина	1540
##ятся	1541
##вших	1542
федераль	1543
дмит	1544
кита	1545
##ствов	1546
сент	1547
##гиб	1548
##лья	1549
##чем	1550
##ние	1551
нико	1552
2014	1553
##готов	1554
господ	1555
дома	1556
##кая	1557
##бод	1558
дж	1559
комит	1560
авиа	1561
услови	1562
цен	1563
##ым	1564
дека	1565
##ступи	1566
погиб	1567
доба	1568
неко	1569
голо	1570
стать	1571
шко	1572
##ске	1573
##чной	1574
благо	1575
##кну	1576
провед	1577
меня	1578
фон	1579
просто	1580
##един	1581
администра	1582
ран	1583
прод	1584
плани	1585
##инов	1586
##щение	1587
каче	1588
москве	1589
##ходит	1590
зат	1591
##кова	1592
##вается	1593
сро	1594
ге	1595
стал	1596
25	1597
город	1598
##гей	1599
обвин	1600
част	1601
националь	1602
москов	1603
уголов	1604
новости	1605
апре	1606
декаб	1607
сми	1608
##чет	1609
собствен	1610
именно	1611
компания	1612
строитель	1613
##enta	1614
работы	1615
очеред	1616
своей	1617
ему	1618
министр	1619
##es	1620
окт	1621
оказа	1622
предпо	1623
многи	1624
янва	1625
заклю	1626
##зом	1627
##шли	1628
##or	1629
больш	1630
##вая	1631
неза	1632
необходимо	1633
фев	1634
ино	1635
безопасности	1636
результате	1637
конф	1638
элек	1639
##лит	1640
##пра	1641
##ствие	1642
##йти	1643
даль	1644
##фф	1645
##ния	1646
##куп	1647
lenta	1648
среди	1649
друго	1650
16	1651
призна	1652
##ван	1653
долла	1654
стороны	1655
уг	1656
##кое	1657
нор	1658
должны	1659
стран	1660
зем	1661
обяз	1662
##вшего	1663
##мина	1664
##ссе	1665
должно	1666
поэтому	1667
##нк	1668
связ	1669
настоя	1670
измен	1671
конку	1672
##зации	1673
##ган	1674
еди	1675
##личи	1676
актив	1677
проц	1678
##ar	1679
него	1680
сергей	1681
ск	1682
##ссии	1683
опре	1684
сбор	1685
##ступа	1686
хоро	1687
##строй	1688
часть	1689
бра	1690
##дук	1691
разме	1692
проис	1693
которой	1694
13	1695
суще	1696
нау	1697
##лимпи	1698
провод	1699
мене	1700
##сит	1701
##вра	1702
14	1703
догово	1704
##тон	1705
февра	1706
восто	1707
торг	1708
##им	1709
людей	1710
##ателей	1711
##шие	1712
тасс	1713
связи	1714
обсу	1715
17	1716
ал	1717
исп	1718
чер	1719
##шая	1720
##нич	1721
спорт	1722
помощ	1723
нужно	1724
других	1725
##кин	1726
##льных	1727
##рить	1728
##ева	1729
четы	1730
наде	1731
##щих	1732
##анием	1733
мира	1734
напомним	1735
меди	1736
контро	1737
политиче	1738
тогда	1739
путин	1740
деятель	1741
##рации	1742
занима	1743
российской	1744
гру	1745
##пей	1746
послед	1747
##сло	1748
##ружи	1749
коне	1750
случае	1751
вели	1752
русс	1753
защ	1754
зд	1755
##писа	1756
##циали	1757
преступ	1758
ули	1759
пен	1760
расп	1761
люди	1762
##роб	1763
филь	1764
чемпион	1765
сум	1766
зо	1767
успе	1768
##рти	1769
##личе	1770
готов	1771
организации	1772
##ропо	1773
##вые	1774
##кре	1775
фото	1776
деся	1777
территории	1778
риа	1779
фут	1780
ожи	1781
социаль	1782
канди	1783
вра	1784
##ници	1785
площа	1786
##тно	1787
трам	1788
##рию	1789
обеспе	1790
нам	1791
подчер	1792
ведом	1793
человека	1794
рам	1795
##овал	1796
представитель	1797
жизни	1798
футбо	1799
рассказал	1800
александр	1801
марта	1802
анд	1803
предо	1804
лишь	1805
парла	1806
пери	1807
вот	1808
##рил	1809
распо	1810
##воз	1811
журнали	1812
напри	1813
тепер	1814
четыре	1815
например	1816
теперь	1817
##овали	1818
материа	1819
прив	1820
##сут	1821
##вок	1822
кред	1823
транспо	1824
##ату	1825
##атели	1826
ти	1827
задерж	1828
российских	1829
рей	1830
##раб	1831
премьер	1832
использов	1833
партии	1834
исс	1835
##le	1836
показ	1837
почти	1838
ген	1839
##нь	1840
первый	1841
аэ	1842
которого	1843
##тить	1844
ходе	1845
##енно	1846
##лены	1847
мнению	1848
##нет	1849
мне	1850
##рования	1851
считает	1852
##льной	1853
преду	1854
##мов	1855
##ческие	1856
сокра	1857
##сом	1858
стало	1859
председ	1860
своих	1861
##торов	1862
##ший	1863
бар	1864
особ	1865
осу	1866
##струк	1867
##той	1868
количе	1869
продук	1870
50	1871
план	1872
##щем	1873
момент	1874
##скому	1875
европей	1876
##них	1877
##лон	1878
гу	1879
олимпи	1880
##рую	1881
подтвер	1882
##чат	1883
свобод	1884
объем	1885
министер	1886
четвер	1887
##вид	1888
новые	1889
ог	1890
повы	1891
счет	1892
обы	1893
##льного	1894
кла	1895
клу	1896
москвы	1897
внут	1898
насе	1899
##спек	1900
##щая	1901
конце	1902
ху	1903
исследов	1904
нов	1905
кандид	1906
")	1907
поль	1908
закон	1909
вос	1910
##чки	1911
лег	1912
##ового	1913
прак	1914
зам	1915
объек	1916
некоторы	1917
госду	1918
огра	1919
каж	1920
пы	1921
дости	1922
фа	1923
обществен	1924
##еров	1925
подготов	1926
обна	1927
##рот	1928
буду	1929
электро	1930
рез	1931
выя	1932
куль	1933
##ляр	1934
##цей	1935
##щении	1936
##al	1937
специали	1938
##ору	1939
##ложен	1940
пути	1941
##фа	1942
##тен	1943
##кс	1944
##емон	1945
нем	1946
22	1947
коми	1948
##ербур	1949
постав	1950
петербур	1951
##скими	1952
##лена	1953
способ	1954
##ствует	1955
отношении	1956
##ерт	1957
потреб	1958
уби	1959
##рами	1960
пози	1961
перегово	1962
##роны	1963
проку	1964
стали	1965
ци	1966
##ями	1967
зако	1968
зде	1969
главы	1970
детей	1971
##it	1972
##дали	1973
##щий	1974
называ	1975
##ерна	1976
здесь	1977
##джет	1978
##мой	1979
период	1980
##ницу	1981
реали	1982
21	1983
мет	1984
##ток	1985
24	1986
ника	1987
стране	1988
##вания	1989
##рета	1990
##руг	1991
##льный	1992
кредит	1993
##датель	1994
##одер	1995
##ритель	1996
##нд	1997
##лено	1998
части	1999
завер	2000
прог	2001
такой	2002
провер	2003
##над	2004
##рев	2005
пример	2006
##дии	2007
правительства	2008
став	2009
апреля	2010
##чных	2011
авгу	2012
прекра	2013
вклю	2014
страна	2015
гер	2016
ссы	2017
мир	2018
##ню	2019
мур	2020
кос	2021
кам	2022
говорится	2023
дмитрий	2024
##льные	2025
2017	2026
потому	2027
гене	2028
##стана	2029
ради	2030
сентября	2031
инф	2032
финанс	2033
наб	2034
предлож	2035
%.	2036
российского	2037
надо	2038
##рту	2039
##овые	2040
зан	2041
выход	2042
тя	2043
утвер	2044
государства	2045
##разу	2046
отде	2047
слова	2048
предприяти	2049
вместе	2050
##рам	2051
продолжа	2052
игра	2053
суб	2054
должен	2055
одной	2056
##ственно	2057
наза	2058
назна	2059
подоз	2060
докумен	2061
источник	2062
##пара	2063
##тур	2064
реб	2065
миха	2066
иностран	2067
сою	2068
недо	2069
исклю	2070
##тель	2071
выра	2072
##ровал	2073
смог	2074
##держи	2075
##чный	2076
стоимо	2077
рамках	2078
##ченко	2079
хотя	2080
сообщили	2081
ши	2082
##чные	2083
комплек	2084
санк	2085
участие	2086
##смен	2087
кли	2088
вним	2089
##стри	2090
##лению	2091
постра	2092
##шим	2093
треть	2094
##тически	2095
опреде	2096
анти	2097
полож	2098
другие	2099
##охран	2100
##нологи	2101
пенси	2102
##ьез	2103
##сили	2104
##жден	2105
аль	2106
ана	2107
идет	2108
##ter	2109
##лез	2110
образов	2111
менее	2112
губ	2113
доста	2114
борь	2115
мурман	2116
вол	2117
таким	2118
согласно	2119
##тия	2120
оцен	2121
лидер	2122
##нова	2123
##чать	2124
опубли	2125
февраля	2126
100	2127
##шее	2128
пам	2129
##лии	2130
##ческий	2131
тот	2132
##арта	2133
доход	2134
преж	2135
макси	2136
подчеркну	2137
##oo	2138
банк	2139
управления	2140
аб	2141
попа	2142
одного	2143
##вшие	2144
##ваться	2145
засед	2146
времени	2147
новый	2148
##вор	2149
мая	2150
##ровали	2151
##сей	2152
инст	2153
гри	2154
##ден	2155
##нять	2156
региональ	2157
бюджет	2158
##лова	2159
##ерен	2160
##анов	2161
образом	2162
проект	2163
##чего	2164
##чного	2165
кап	2166
октября	2167
пода	2168
верси	2169
##нил	2170
##чей	2171
ноября	2172
информации	2173
возможность	2174
декабря	2175
времен	2176
##мыш	2177
##жай	2178
известно	2179
##ce	2180
прибы	2181
аре	2182
ход	2183
совета	2184
энер	2185
развития	2186
угро	2187
##лета	2188
##хра	2189
##читы	2190
назад	2191
##лют	2192
конкур	2193
иде	2194
трех	2195
##тки	2196
специаль	2197
извести	2198
попы	2199
региона	2200
##гам	2201
деньги	2202
конечно	2203
замест	2204
##he	2205
серьез	2206
##матри	2207
##еты	2208
соз	2209
увер	2210
исполн	2211
##ффек	2212
действия	2213
бизнес	2214
##лкой	2215
##ябре	2216
##ствовать	2217
наш	2218
##жных	2219
##ваем	2220
января	2221
##сен	2222
%,	2223
требов	2224
##ti	2225
##ющего	2226
мед	2227
расследов	2228
этих	2229
средств	2230
##жу	2231
no	2232
ис	2233
##рец	2234
ны	2235
себе	2236
свой	2237
##лять	2238
пыта	2239
приз	2240
второй	2241
оте	2242
лиц	2243
китай	2244
воору	2245
##кси	2246
##вд	2247
голосов	2248
реши	2249
взры	2250
кана	2251
дня	2252
##рин	2253
шт	2254
.,	2255
смер	2256
работу	2257
комитета	2258
##лений	2259
##тура	2260
##жной	2261
##нец	2262
##лик	2263
появи	2264
##ницы	2265
23	2266
стоит	2267
##мышлен	2268
господин	2269
рос	2270
##пин	2271
инвести	2272
одно	2273
выпу	2274
реко	2275
199	2276
кре	2277
##нуть	2278
##бит	2279
тоже	2280
регу	2281
турции	2282
кино	2283
##рения	2284
##ющей	2285
окру	2286
долларов	2287
подоб	2288
публи	2289
##графи	2290
федерации	2291
музы	2292
группы	2293
##жать	2294
самолет	2295
зада	2296
##атив	2297
ес	2298
намер	2299
##доров	2300
удалось	2301
##мом	2302
предлага	2303
мину	2304
##мии	2305
##муще	2306
столи	2307
##тиво	2308
переда	2309
сирий	2310
такие	2311
##ющим	2312
ныне	2313
сразу	2314
ап	2315
##гов	2316
##пози	2317
##зии	2318
контра	2319
##держа	2320
28	2321
профе	2322
##бин	2323
##нок	2324
сло	2325
эту	2326
либо	2327
##рю	2328
##казать	2329
мэ	2330
частности	2331
пря	2332
закры	2333
изд	2334
##чает	2335
губерна	2336
40	2337
##ro	2338
нового	2339
##лай	2340
дополн	2341
места	2342
##вых	2343
своего	2344
##йдет	2345
пят	2346
спортсмен	2347
##лев	2348
ближай	2349
##гля	2350
##шо	2351
ссылкой	2352
поро	2353
районе	2354
ответствен	2355
рост	2356
мень	2357
##казала	2358
##нача	2359
газета	2360
которое	2361
ситуации	2362
директор	2363
север	2364
технологи	2365
куб	2366
рак	2367
дене	2368
мя	2369
пара	2370
брит	2371
исполь	2372
анали	2373
срав	2374
гор	2375
##шло	2376
кварти	2377
покуп	2378
центра	2379
##овая	2380
##руют	2381
течение	2382
очередь	2383
многие	2384
##рес	2385
убий	2386
обязатель	2387
пасса	2388
##или	2389
народ	2390
сту	2391
##ждение	2392
законодатель	2393
привод	2394
потер	2395
##дил	2396
##дать	2397
00	2398
##кто	2399
##мости	2400
реаль	2401
спор	2402
пор	2403
дел	2404
##шед	2405
##ствии	2406
агентство	2407
co	2408
27	2409
##слав	2410
##виси	2411
полиции	2412
парт	2413
правительство	2414
##бли	2415
банка	2416
видео	2417
пассажи	2418
уни	2419
уточ	2420
япо	2421
##лением	2422
этим	2423
защит	2424
герм	2425
ост	2426
##езд	2427
доб	2428
таких	2429
возду	2430
##ян	2431
наблю	2432
сти	2433
##шки	2434
собира	2435
##жении	2436
избира	2437
##няя	2438
последние	2439
находится	2440
##фо	2441
эффек	2442
суда	2443
две	2444
##мени	2445
всегда	2446
стала	2447
##ленных	2448
суде	2449
##проек	2450
действ	2451
деле	2452
содер	2453
##анных	2454
##казали	2455
системы	2456
поясни	2457
##роприяти	2458
женщи	2459
##еть	2460
молод	2461
права	2462
мероприяти	2463
разработ	2464
службы	2465
противо	2466
сама	2467
средства	2468
##ыт	2469
##ществ	2470
предпри	2471
большин	2472
предостав	2473
26	2474
проекта	2475
##шла	2476
хозя	2477
##зин	2478
##сколь	2479
начала	2480
##вен	2481
фу	2482
услу	2483
##вание	2484
потом	2485
##видет	2486
чита	2487
##доб	2488
пользов	2489
неде	2490
кажд	2491
медици	2492
##еха	2493
##чка	2494
##чера	2495
##руется	2496
##обра	2497
хи	2498
##сня	2499
наи	2500
един	2501
опас	2502
пять	2503
вид	2504
тури	2505
##ница	2506
новых	2507
банков	2508
струк	2509
##щие	2510
секрета	2511
чинов	2512
полицей	2513
##шенко	2514
выпла	2515
##дой	2516
##чил	2517
##смотря	2518
дума	2519
сделать	2520
поряд	2521
##лий	2522
говоря	2523
внеш	2524
иници	2525
чего	2526
##ину	2527
миллиар	2528
трен	2529
несмотря	2530
котором	2531
боеви	2532
выступ	2533
посе	2534
гот	2535
ведь	2536
тяже	2537
##вест	2538
возбу	2539
решения	2540
вице	2541
колле	2542
миров	2543
отношения	2544
посколь	2545
нынеш	2546
кру	2547
ней	2548
##менти	2549
##ительных	2550
стоимость	2551
бло	2552
##ове	2553
поскольку	2554
##стоятель	2555
месте	2556
алексей	2557
пост	2558
запад	2559
масс	2560
осво	2561
семь	2562
##точно	2563
запу	2564
красно	2565
спец	2566
всем	2567
тро	2568
техни	2569
исла	2570
маши	2571
##вала	2572
отра	2573
29	2574
##ху	2575
труд	2576
##лод	2577
качестве	2578
##ссо	2579
российский	2580
увелич	2581
затем	2582
прогно	2583
##стер	2584
##тий	2585
начале	2586
годы	2587
разре	2588
##лой	2589
приве	2590
примен	2591
выступа	2592
республики	2593
министра	2594
нео	2595
выз	2596
подпи	2597
сайте	2598
иго	2599
ман	2600
##стой	2601
аэропо	2602
##дили	2603
возра	2604
конц	2605
количество	2606
ограни	2607
##лки	2608
отказа	2609
бывший	2610
##шем	2611
прошлого	2612
современ	2613
совмест	2614
соответству	2615
подроб	2616
внутрен	2617
##номо	2618
прин	2619
процесс	2620
оружи	2621
рынке	2622
##цени	2623
турец	2624
августа	2625
пострада	2626
##там	2627
подозре	2628
ита	2629
собра	2630
итогам	2631
окон	2632
акти	2633
попу	2634
расход	2635
учен	2636
##фак	2637
находи	2638
собы	2639
законопроек	2640
деятельности	2641
##ag	2642
получил	2643
мвд	2644
правоохран	2645
##наль	2646
неиз	2647
городе	2648
ук	2649
##гии	2650
экспо	2651
шо	2652
##ваются	2653
уче	2654
##рет	2655
неу	2656
совершен	2657
##жного	2658
неда	2659
##вую	2660
сте	2661
##ствий	2662
теат	2663
распро	2664
универ	2665
представители	2666
рынка	2667
##нице	2668
призн	2669
ничего	2670
стол	2671
##жды	2672
##неф	2673
##пли	2674
нефти	2675
##циа	2676
##дан	2677
речь	2678
ситуация	2679
##ходя	2680
##хв	2681
свет	2682
##под	2683
стре	2684
впер	2685
российские	2686
централь	2687
которую	2688
##тил	2689
депутат	2690
##боль	2691
впервые	2692
сла	2693
##так	2694
знач	2695
выро	2696
отмечает	2697
золо	2698
рассмот	2699
другой	2700
олимпий	2701
##ником	2702
сай	2703
следствен	2704
цель	2705
предложи	2706
добавил	2707
такое	2708
мод	2709
данные	2710
интернет	2711
подчеркнул	2712
должна	2713
возвра	2714
##овый	2715
компаний	2716
отправ	2717
проблемы	2718
прокура	2719
##жем	2720
##ина	2721
##is	2722
завод	2723
##рование	2724
сф	2725
##вое	2726
жизнь	2727
ат	2728
тради	2729
настоящее	2730
наши	2731
предполага	2732
##сн	2733
##щую	2734
просмот	2735
жа	2736
постоя	2737
бесп	2738
##одей	2739
##ляют	2740
британ	2741
почему	2742
запа	2743
##чески	2744
россию	2745
това	2746
оба	2747
бере	2748
вчера	2749
мер	2750
диа	2751
забо	2752
##ленные	2753
##da	2754
##нин	2755
июля	2756
кризи	2757
##ине	2758
мире	2759
штра	2760
##бер	2761
принима	2762
##роят	2763
##лекана	2764
число	2765
украине	2766
телекана	2767
##овым	2768
имеет	2769
медицин	2770
нашей	2771
##зма	2772
помощи	2773
внимание	2774
весь	2775
оппози	2776
ор	2777
бело	2778
введ	2779
демо	2780
осуществ	2781
##гру	2782
какие	2783
юри	2784
##мин	2785
##ровки	2786
##ительные	2787
##фика	2788
сотрудниче	2789
одним	2790
спас	2791
полностью	2792
уровне	2793
работать	2794
созда	2795
налог	2796
##рина	2797
отве	2798
этому	2799
##прос	2800
началь	2801
миллионов	2802
информацию	2803
вза	2804
получили	2805
ожида	2806
своем	2807
оон	2808
##пло	2809
##мя	2810
пунк	2811
андрей	2812
##бан	2813
##ческая	2814
коллек	2815
##дент	2816
служба	2817
##il	2818
действу	2819
станет	2820
здоров	2821
различ	2822
##чествен	2823
выполн	2824
отмечается	2825
каждый	2826
иску	2827
иван	2828
сотрудники	2829
постоян	2830
осо	2831
##рите	2832
истории	2833
дней	2834
##дется	2835
виз	2836
причи	2837
тон	2838
##рее	2839
верну	2840
транспорт	2841
восп	2842
повод	2843
##am	2844
пожа	2845
москва	2846
каса	2847
пиш	2848
##кар	2849
ним	2850
дом	2851
сим	2852
интерфак	2853
интерес	2854
района	2855
сами	2856
торгов	2857
##as	2858
читайте	2859
комму	2860
получа	2861
in	2862
##ниц	2863
обвиня	2864
сравн	2865
##риан	2866
летний	2867
информацион	2868
администрации	2869
35	2870
##того	2871
мид	2872
спра	2873
гре	2874
##el	2875
поста	2876
добы	2877
близ	2878
##тных	2879
##писал	2880
мощ	2881
##били	2882
##нами	2883
##дия	2884
получить	2885
требу	2886
сборной	2887
европы	2888
считают	2889
цены	2890
позд	2891
крым	2892
май	2893
возгла	2894
##шта	2895
стар	2896
живо	2897
##лых	2898
бал	2899
##ol	2900
##анные	2901
срок	2902
##ъя	2903
программы	2904
председатель	2905
отдель	2906
##обще	2907
появ	2908
##ссий	2909
серге	2910
поня	2911
ведомства	2912
вообще	2913
теку	2914
игро	2915
кни	2916
евг	2917
побед	2918
остав	2919
допу	2920
страте	2921
особенно	2922
бизне	2923
прави	2924
ребен	2925
2013	2926
##ательно	2927
объедин	2928
тому	2929
хоте	2930
##форми	2931
##роз	2932
##тами	2933
##жный	2934
рассказыва	2935
генераль	2936
31	2937
нед	2938
адвок	2939
некоторые	2940
вооружен	2941
встреча	2942
тор	2943
велико	2944
зве	2945
##нили	2946
##ема	2947
самых	2948
военно	2949
the	2950
##бро	2951
новой	2952
россиян	2953
предва	2954
тай	2955
прошлом	2956
предприним	2957
##at	2958
##щиков	2959
привле	2960
восстанов	2961
практически	2962
##сок	2963
##тах	2964
большой	2965
приоб	2966
пала	2967
меньше	2968
%)	2969
францу	2970
сере	2971
войны	2972
сложно	2973
команды	2974
ау	2975
##рез	2976
неме	2977
##никами	2978
группа	2979
составляет	2980
ряд	2981
буд	2982
центре	2983
месяцев	2984
содерж	2985
упо	2986
выстав	2987
##част	2988
вопросы	2989
предваритель	2990
оле	2991
##чая	2992
севе	2993
истори	2994
площад	2995
##шении	2996
российская	2997
просмотров	2998
сил	2999
край	3000
##ктор	3001
##вшей	3002
пои	3003
##седни	3004
##ходят	3005
экс	3006
сообщается	3007
демокра	3008
##комп	3009
примерно	3010
##кро	3011
##тие	3012
##сил	3013
жителей	3014
отмен	3015
одном	3016
долго	3017
достаточно	3018
обу	3019
незакон	3020
университ	3021
впро	3022
пяти	3023
##стью	3024
сез	3025
населения	3026
ль	3027
превы	3028
оцени	3029
состо	3030
рейтин	3031
оконч	3032
ава	3033
##сят	3034
взя	3035
группи	3036
клин	3037
участников	3038
("	3039
съ	3040
##рко	3041
клю	3042
##енко	3043
поддержи	3044
впрочем	3045
вести	3046
##град	3047
ира	3048
##здни	3049
сохран	3050
##чис	3051
турни	3052
агентства	3053
увеличи	3054
харак	3055
отсут	3056
возможности	3057
парламента	3058
тр	3059
##us	3060
коро	3061
##ич	3062
мор	3063
праздни	3064
област	3065
госдумы	3066
аф	3067
##дения	3068
дон	3069
выска	3070
центр	3071
доступ	3072
приводит	3073
ска	3074
##сной	3075
##тором	3076
проте	3077
##дев	3078
экономики	3079
##жные	3080
нач	3081
промышлен	3082
киев	3083
##бур	3084
поме	3085
##тики	3086
дип	3087
##зм	3088
делать	3089
благода	3090
процентов	3091
спортив	3092
искус	3093
##чении	3094
##et	3095
крупней	3096
террористи	3097
поми	3098
эксперты	3099
лучше	3100
известия	3101
##ic	3102
вывод	3103
убе	3104
бол	3105
уголовное	3106
популяр	3107
похо	3108
каза	3109
##лах	3110
выборов	3111
инициати	3112
сети	3113
машин	3114
финанси	3115
##пов	3116
прио	3117
пригово	3118
гон	3119
главный	3120
мага	3121
скоро	3122
арен	3123
нее	3124
принад	3125
организация	3126
уровень	3127
принадле	3128
постанов	3129
##работа	3130
##рили	3131
нефть	3132
##лот	3133
бер	3134
инци	3135
германии	3136
попро	3137
сотрудников	3138
кварта	3139
##джета	3140
выборах	3141
пенсион	3142
порошенко	3143
60	3144
##вью	3145
##реть	3146
отстав	3147
второ	3148
оде	3149
##ur	3150
санкт	3151
политики	3152
##они	3153
##лях	3154
принци	3155
##весто	3156
важно	3157
жерт	3158
пси	3159
##тии	3160
вариан	3161
професси	3162
эффектив	3163
##ческим	3164
##клад	3165
проблем	3166
конфлик	3167
действительно	3168
штраф	3169
заявила	3170
использу	3171
секретарь	3172
непо	3173
перспек	3174
заявление	3175
геро	3176
свидет	3177
дав	3178
заместитель	3179
дер	3180
сня	3181
##гран	3182
мино	3183
единствен	3184
##кви	3185
часов	3186
##чным	3187
хорошо	3188
##сить	3189
выда	3190
интервью	3191
несколь	3192
трамп	3193
никто	3194
расши	3195
дальней	3196
произошло	3197
благодаря	3198
##нал	3199
инвесто	3200
##рованы	3201
##ппо	3202
россией	3203
re	3204
##овом	3205
итоге	3206
нако	3207
встречи	3208
##емых	3209
изу	3210
трав	3211
##кими	3212
назвал	3213
меры	3214
тю	3215
сообщении	3216
поне	3217
##сур	3218
##док	3219
##треб	3220
ей	3221
опубликов	3222
сц	3223
какой	3224
государство	3225
объяв	3226
худо	3227
##ого	3228
документа	3229
##нев	3230
вас	3231
сообщила	3232
размере	3233
##три	3234
мало	3235
##сою	3236
сли	3237
##енных	3238
понима	3239
следов	3240
ситуацию	3241
интерфакс	3242
##шить	3243
движения	3244
слож	3245
постро	3246
претен	3247
первую	3248
станов	3249
медве	3250
цб	3251
##ентом	3252
выпол	3253
##стам	3254
ислам	3255
роста	3256
коммер	3257
##рал	3258
##овала	3259
##мых	3260
всей	3261
собе	3262
##сад	3263
пись	3264
заня	3265
раск	3266
##фици	3267
обороны	3268
##ологи	3269
нап	3270
собой	3271
нато	3272
ниже	3273
##шает	3274
сообщалось	3275
руководитель	3276
##никам	3277
мужчина	3278
иностранных	3279
##креп	3280
бюджета	3281
погибли	3282
фонда	3283
капита	3284
##ила	3285
##сро	3286
которым	3287
условиях	3288
ата	3289
##шую	3290
##дек	3291
женщ	3292
##уне	3293
начина	3294
крем	3295
франции	3296
первого	3297
##льян	3298
клинтон	3299
зар	3300
##лый	3301
бро	3302
##сем	3303
##чная	3304
##льным	3305
причин	3306
вероят	3307
##чены	3308
мас	3309
следует	3310
свер	3311
##лер	3312
##их	3313
##зер	3314
##ительной	3315
результат	3316
глу	3317
еже	3318
##фон	3319
лиде	3320
всеми	3321
рассматри	3322
своим	3323
департа	3324
##ing	3325
тут	3326
терак	3327
часто	3328
##шка	3329
выи	3330
##нимать	3331
службе	3332
неизвест	3333
рынок	3334
##tion	3335
##мн	3336
##жей	3337
але	3338
##чено	3339
заме	3340
национальной	3341
улице	3342
зарпла	3343
собеседни	3344
ремон	3345
отв	3346
силу	3347
целом	3348
##брит	3349
##стом	3350
помощью	3351
михаил	3352
влия	3353
##пере	3354
##ir	3355
конца	3356
##ведения	3357
обнару	3358
уси	3359
##пред	3360
конст	3361
##форм	3362
##ствуют	3363
первом	3364
учре	3365
судеб	3366
накан	3367
голов	3368
партнер	3369
накануне	3370
низ	3371
великобрит	3372
втор	3373
транс	3374
эксперт	3375
проблема	3376
спа	3377
##дина	3378
##ителям	3379
пояснил	3380
##хе	3381
##цов	3382
##вли	3383
физи	3384
##ждает	3385
коло	3386
бом	3387
говорят	3388
нель	3389
валют	3390
пора	3391
жел	3392
владимира	3393
##жит	3394
пишет	3395
45	3396
ек	3397
##льная	3398
##ителем	3399
помощь	3400
##стя	3401
достиг	3402
максима	3403
опро	3404
разви	3405
сторон	3406
эр	3407
ката	3408
##пар	3409
##нему	3410
##чку	3411
##вии	3412
##вел	3413
##гляд	3414
лон	3415
тан	3416
присут	3417
##ителями	3418
тысячи	3419
цити	3420
##ющая	3421
правда	3422
хозяй	3423
имуще	3424
оно	3425
верхов	3426
украина	3427
##ступил	3428
устрой	3429
##дий	3430
независи	3431
останов	3432
##ьше	3433
##бом	3434
чув	3435
язы	3436
##ссия	3437
##мые	3438
конферен	3439
причем	3440
понедель	3441
лит	3442
##вым	3443
2012	3444
трампа	3445
француз	3446
нельзя	3447
указ	3448
##сона	3449
первой	3450
тен	3451
##след	3452
сав	3453
такого	3454
материале	3455
##стить	3456
##пром	3457
действий	3458
диплом	3459
анг	3460
пользу	3461
шан	3462
выше	3463
делу	3464
##оо	3465
##хани	3466
##шений	3467
возник	3468
заявили	3469
оператив	3470
##оволь	3471
деву	3472
производства	3473
огром	3474
взрыв	3475
сель	3476
##ностей	3477
##сср	3478
##чита	3479
напад	3480
камп	3481
уверен	3482
.)	3483
##лад	3484
данных	3485
рекомен	3486
##клады	3487
путина	3488
гол	3489
результаты	3490
очевид	3491
обрати	3492
запрещен	3493
сме	3494
##шать	3495
##шествия	3496
институ	3497
люб	3498
степ	3499
сказать	3500
поки	3501
##рудов	3502
дональ	3503
барре	3504
":	3505
каз	3506
проведения	3507
неболь	3508
начали	3509
изменения	3510
отечествен	3511
патри	3512
зап	3513
##цами	3514
##чили	3515
полиция	3516
список	3517
четырех	3518
система	3519
форми	3520
большинство	3521
лондо	3522
##ri	3523
##луч	3524
ассо	3525
ссср	3526
##тина	3527
закона	3528
пятницу	3529
порядка	3530
ооо	3531
##ap	3532
##ut	3533
##суль	3534
работе	3535
стратеги	3536
##пр	3537
александра	3538
среду	3539
союз	3540
версии	3541
пропа	3542
##бороны	3543
вся	3544
##ew	3545
бори	3546
##енты	3547
##ум	3548
ростов	3549
##россий	3550
роль	3551
2018	3552
##рабаты	3553
денег	3554
70	3555
наших	3556
бой	3557
раньше	3558
игорь	3559
зе	3560
раза	3561
##стива	3562
##гах	3563
вам	3564
шта	3565
##нр	3566
работает	3567
##возмо	3568
электрон	3569
##реги	3570
вок	3571
сб	3572
##тят	3573
##чном	3574
##доро	3575
##гами	3576
##ционного	3577
помимо	3578
смот	3579
##зова	3580
ресур	3581
##ительный	3582
воск	3583
миниму	3584
относ	3585
выборы	3586
крыма	3587
министерства	3588
переговоры	3589
упа	3590
##20	3591
серви	3592
никогда	3593
комиссии	3594
##гом	3595
##более	3596
силы	3597
парламент	3598
пож	3599
##лина	3600
##ционных	3601
произошел	3602
наиболее	3603
сфере	3604
ребенка	3605
##фин	3606
запи	3607
##ческое	3608
политика	3609
##емого	3610
приход	3611
расположен	3612
##сер	3613
##анный	3614
аппара	3615
прожи	3616
скорее	3617
месяца	3618
взаим	3619
вов	3620
##рок	3621
фонд	3622
##лка	3623
най	3624
немец	3625
##вей	3626
боле	3627
im	3628
##бк	3629
##ственных	3630
самым	3631
##ясь	3632
самом	3633
вв	3634
##лами	3635
екатери	3636
сохра	3637
газа	3638
органов	3639
членов	3640
##чное	3641
##льное	3642
алеппо	3643
##бора	3644
конкре	3645
строительство	3646
памят	3647
белору	3648
скан	3649
успеш	3650
аналоги	3651
понедельник	3652
воздуш	3653
савченко	3654
комитет	3655
образования	3656
ключе	3657
эко	3658
##вшая	3659
##щу	3660
смогут	3661
кате	3662
##ace	3663
полага	3664
пари	3665
дере	3666
ут	3667
сорев	3668
допин	3669
заявля	3670
важ	3671
##ционной	3672
обнаружи	3673
##бло	3674
опла	3675
первые	3676
цитирует	3677
бен	3678
##вом	3679
провести	3680
чемпионата	3681
##ниципа	3682
зло	3683
нарушения	3684
##age	3685
##анной	3686
80	3687
ву	3688
##щим	3689
данный	3690
могли	3691
##шинг	3692
моде	3693
наро	3694
види	3695
##зывает	3696
операции	3697
сау	3698
четверг	3699
##оз	3700
##етил	3701
испол	3702
никаких	3703
ред	3704
нескольких	3705
цена	3706
##ниче	3707
выс	3708
акции	3709
культуры	3710
пит	3711
км	3712
##рат	3713
говорить	3714
возбужд	3715
##ia	3716
##нию	3717
избиратель	3718
спу	3719
##ющее	3720
норма	3721
пок	3722
вашинг	3723
арм	3724
##рови	3725
стату	3726
напа	3727
муниципа	3728
молоде	3729
##ed	3730
думаю	3731
особо	3732
##бар	3733
выде	3734
оши	3735
##цам	3736
столич	3737
давно	3738
имени	3739
уровня	3740
касается	3741
минобороны	3742
сопер	3743
##зил	3744
##un	3745
##обе	3746
европе	3747
90	3748
песков	3749
оборудов	3750
принято	3751
команда	3752
остается	3753
вторник	3754
##гети	3755
являются	3756
широ	3757
##спонд	3758
32	3759
ото	3760
##ун	3761
##шком	3762
административ	3763
требования	3764
соревнов	3765
пройдет	3766
преступления	3767
500	3768
син	3769
минут	3770
##езда	3771
##вар	3772
бежен	3773
бизнеса	3774
информация	3775
воскрес	3776
##вого	3777
первых	3778
самый	3779
##ent	3780
поко	3781
выну	3782
##сах	3783
##вшим	3784
находятся	3785
ассоциа	3786
препара	3787
реа	3788
владель	3789
автомобиль	3790
союза	3791
подробнее	3792
##гре	3793
пору	3794
кораб	3795
корруп	3796
сыгра	3797
олимпиа	3798
непри	3799
невозмо	3800
приш	3801
корпо	3802
строительства	3803
функ	3804
##каде	3805
##бир	3806
продажи	3807
##станавли	3808
женщина	3809
##зор	3810
воро	3811
##лые	3812
участники	3813
поддержку	3814
сумму	3815
катего	3816
наказ	3817
выд	3818
желез	3819
отмет	3820
многих	3821
быстро	3822
##хода	3823
самого	3824
гиб	3825
опубликова	3826
##чс	3827
##щать	3828
самолета	3829
полномо	3830
деятельность	3831
законопроект	3832
300	3833
рбк	3834
##тили	3835
согласи	3836
лени	3837
##город	3838
жан	3839
##кую	3840
случай	3841
масшта	3842
##вался	3843
отказ	3844
кали	3845
сможет	3846
##рение	3847
##бран	3848
##сб	3849
посо	3850
##итар	3851
механи	3852
2011	3853
##ченных	3854
куда	3855
крас	3856
фестива	3857
семей	3858
каждо	3859
##стями	3860
двиг	3861
никола	3862
ракет	3863
дети	3864
##риа	3865
##ческую	3866
президентом	3867
процеду	3868
com	3869
потен	3870
суббо	3871
##ляется	3872
роман	3873
люд	3874
##вались	3875
##ляции	3876
веду	3877
путе	3878
посвя	3879
попыт	3880
##ленный	3881
соглашения	3882
состоянии	3883
жители	3884
##юсь	3885
##чную	3886
##щена	3887
##итать	3888
##бай	3889
##ломет	3890
поводу	3891
##шу	3892
##щит	3893
такая	3894
экономического	3895
принять	3896
скры	3897
предупре	3898
сравнению	3899
ори	3900
улуч	3901
##ест	3902
соц	3903
##гип	3904
##ционный	3905
марш	3906
впол	3907
сю	3908
рассчиты	3909
фильм	3910
фотографи	3911
будем	3912
совсем	3913
судь	3914
миллиона	3915
##os	3916
раст	3917
достав	3918
##тера	3919
спорта	3920
клуба	3921
пригла	3922
##ничто	3923
петербург	3924
оказыва	3925
разных	3926
##ровано	3927
управля	3928
вполне	3929
уничто	3930
кара	3931
планируется	3932
выясни	3933
егип	3934
##мар	3935
кад	3936
##вшись	3937
прежде	3938
донба	3939
##нюю	3940
санкции	3941
##слов	3942
##поли	3943
сих	3944
##зывать	3945
всю	3946
условия	3947
36	3948
ам	3949
пан	3950
уз	3951
##тери	3952
ниж	3953
регионе	3954
северо	3955
image	3956
демон	3957
##енти	3958
девя	3959
составе	3960
бывшего	3961
лав	3962
месяц	3963
андре	3964
энергети	3965
вече	3966
##ателем	3967
километ	3968
сегодняш	3969
военных	3970
официальный	3971
бри	3972
порт	3973
обсужда	3974
свободы	3975
активи	3976
спро	3977
мигран	3978
представителей	3979
организаций	3980
высоко	3981
федерального	3982
##прави	3983
##дал	3984
вечер	3985
радио	3986
освобо	3987
житель	3988
мчс	3989
##дение	3990
##гать	3991
готовы	3992
##защит	3993
##мена	3994
депутатов	3995
государственной	3996
предусмот	3997
##одно	3998
рубля	3999
слишком	4000
опыт	4001
##ведли	4002
использовать	4003
контрак	4004
##держали	4005
##зем	4006
##чик	4007
##туру	4008
##служи	4009
##груз	4010
вспо	4011
дово	4012
преды	4013
ого	4014
самой	4015
198	4016
нуж	4017
брю	4018
инфра	4019
##оны	4020
##чай	4021
коммента	4022
##ch	4023
недели	4024
зави	4025
жела	4026
##енье	4027
мета	4028
##леко	4029
##летов	4030
шесть	4031
причиной	4032
проя	4033
фигу	4034
позже	4035
продукции	4036
прокуро	4037
ядер	4038
##анах	4039
фору	4040
развитие	4041
придется	4042
##жал	4043
целью	4044
предыду	4045
умер	4046
правила	4047
автомобилей	4048
отношений	4049
нью	4050
##пор	4051
##зирован	4052
све	4053
хв	4054
##im	4055
рекла	4056
продолж	4057
акаде	4058
дра	4059
##тп	4060
##кер	4061
бог	4062
победы	4063
вместо	4064
позиции	4065
сол	4066
##менты	4067
самое	4068
джон	4069
полномочи	4070
фир	4071
сергея	4072
##лок	4073
##чиков	4074
##новь	4075
руководство	4076
инте	4077
фили	4078
евросою	4079
происходит	4080
ученые	4081
тонн	4082
снова	4083
порта	4084
республикан	4085
вновь	4086
гло	4087
найти	4088
дево	4089
разгово	4090
международной	4091
процента	4092
вд	4093
одоб	4094
##re	4095
рабочи	4096
##циях	4097
страхов	4098
курс	4099
переговоров	4100
охра	4101
директора	4102
пришлось	4103
винов	4104
##вич	4105
##стами	4106
июня	4107
свидетель	4108
саудов	4109
инфраструк	4110
##енные	4111
обстоятель	4112
прием	4113
испыт	4114
роснеф	4115
ap	4116
отк	4117
матча	4118
активно	4119
машины	4120
коле	4121
дороги	4122
##разде	4123
властей	4124
##гули	4125
игры	4126
задержан	4127
услуг	4128
вет	4129
смы	4130
поле	4131
бук	4132
сове	4133
профессиональ	4134
вита	4135
пак	4136
яко	4137
##щему	4138
##ственной	4139
господина	4140
маршру	4141
плате	4142
нефте	4143
декабре	4144
алкого	4145
музыка	4146
распростран	4147
фоне	4148
годов	4149
хок	4150
борьбе	4151
!"	4152
мето	4153
соглашение	4154
шах	4155
рядом	4156
олег	4157
уди	4158
реда	4159
##жает	4160
жест	4161
##ровала	4162
алексе	4163
оказался	4164
гран	4165
рели	4166
края	4167
странах	4168
документы	4169
##ook	4170
потеря	4171
конститу	4172
конференции	4173
пут	4174
обязан	4175
клуб	4176
зрения	4177
кв	4178
кер	4179
зару	4180
матч	4181
посет	4182
##гар	4183
##вета	4184
написал	4185
зай	4186
прось	4187
интерн	4188
футболи	4189
арест	4190
болга	4191
ара	4192
зрите	4193
##интере	4194
тол	4195
история	4196
минэ	4197
издание	4198
##сон	4199
##гры	4200
##стати	4201
депутаты	4202
предприятия	4203
озна	4204
цер	4205
акций	4206
снизи	4207
недавно	4208
пожар	4209
33	4210
бель	4211
дво	4212
##лани	4213
соедин	4214
вопросам	4215
абсо	4216
евгений	4217
гаран	4218
главного	4219
объектов	4220
мит	4221
район	4222
реализации	4223
косми	4224
##циона	4225
армии	4226
имеют	4227
факту	4228
заявления	4229
чуть	4230
школы	4231
внутри	4232
юриди	4233
абсолют	4234
##енса	4235
актер	4236
плат	4237
международного	4238
фильма	4239
председателя	4240
министерство	4241
предложения	4242
губернатор	4243
невозможно	4244
учиты	4245
доме	4246
моби	4247
##зация	4248
скон	4249
тек	4250
производство	4251
сколько	4252
автомобиля	4253
следствия	4254
скр	4255
великобритании	4256
##мую	4257
специалисты	4258
заседании	4259
сет	4260
сне	4261
##лла	4262
роди	4263
обнаружен	4264
нарко	4265
профи	4266
автобу	4267
арбит	4268
помога	4269
##шему	4270
##риф	4271
изра	4272
одну	4273
значит	4274
крае	4275
планирует	4276
семьи	4277
##регистри	4278
##ющую	4279
##купа	4280
ночь	4281
реак	4282
##личие	4283
метров	4284
дове	4285
##нах	4286
##дума	4287
происшествия	4288
ната	4289
таки	4290
санкций	4291
оль	4292
##еру	4293
точки	4294
циф	4295
предусмотрен	4296
##la	4297
мужчин	4298
уголовного	4299
ответственность	4300
психо	4301
хочет	4302
##ьера	4303
нефтя	4304
яв	4305
гости	4306
случи	4307
январе	4308
выигра	4309
размер	4310
марте	4311
домаш	4312
остров	4313
воскресенье	4314
##пров	4315
неодно	4316
заве	4317
##леты	4318
кстати	4319
нане	4320
##сматри	4321
##сток	4322
##пис	4323
##альной	4324
перспекти	4325
кого	4326
##мон	4327
##мень	4328
маль	4329
востоке	4330
дтп	4331
остан	4332
стрем	4333
заверши	4334
включая	4335
исключ	4336
сказала	4337
##ыми	4338
##щики	4339
##ительного	4340
##няется	4341
##туре	4342
##печат	4343
писа	4344
здания	4345
документов	4346
##прово	4347
##йдут	4348
##фикси	4349
корре	4350
режима	4351
петербурге	4352
якобы	4353
##дить	4354
причина	4355
саха	4356
куп	4357
взят	4358
самые	4359
главное	4360
водитель	4361
звез	4362
устро	4363
##рос	4364
##дирек	4365
##зацию	4366
организов	4367
смерти	4368
снача	4369
##роде	4370
единой	4371
департамента	4372
сначала	4373
принял	4374
##гер	4375
##лян	4376
систему	4377
рассказывает	4378
##регули	4379
зафикси	4380
##аков	4381
знако	4382
московской	4383
отды	4384
##емся	4385
предста	4386
персона	4387
##ланд	4388
работают	4389
партий	4390
##служа	4391
конкурен	4392
некоторых	4393
военнослужа	4394
вокруг	4395
довольно	4396
##вов	4397
##ческом	4398
арти	4399
снижение	4400
режим	4401
подозреваем	4402
возглавля	4403
##атар	4404
подразде	4405
верто	4406
приняли	4407
последний	4408
николай	4409
столицы	4410
##лат	4411
##москов	4412
любой	4413
культур	4414
неделе	4415
оружия	4416
состоится	4417
сцена	4418
цвет	4419
юрий	4420
зарегистри	4421
##тической	4422
станции	4423
матче	4424
##служ	4425
узна	4426
поло	4427
##ters	4428
возбуждено	4429
яр	4430
награ	4431
перевоз	4432
авиакомп	4433
##book	4434
исследования	4435
прямо	4436
мировой	4437
конструк	4438
злоу	4439
лицен	4440
линии	4441
стади	4442
площади	4443
инцидент	4444
микро	4445
##жали	4446
##довлет	4447
##ющими	4448
практи	4449
япон	4450
сайт	4451
##ами	4452
##хать	4453
##одо	4454
##емый	4455
госс	4456
легко	4457
регуляр	4458
предложил	4459
женщин	4460
израи	4461
эле	4462
##ходить	4463
автом	4464
музе	4465
получила	4466
жало	4467
нег	4468
лица	4469
ум	4470
возоб	4471
стандар	4472
утвержда	4473
34	4474
##вить	4475
поступи	4476
участия	4477
соответствии	4478
минимум	4479
брен	4480
ликви	4481
начал	4482
шу	4483
##gh	4484
годах	4485
##ционные	4486
эки	4487
эпи	4488
регионов	4489
проходи	4490
разру	4491
суп	4492
##тый	4493
##комменти	4494
друг	4495
решили	4496
медведев	4497
##емой	4498
обнов	4499
темпера	4500
агре	4501
документ	4502
составила	4503
face	4504
поступ	4505
прокомменти	4506
роли	4507
сильно	4508
##пусти	4509
банки	4510
рио	4511
##ременно	4512
боевиков	4513
вечером	4514
##ьют	4515
##чика	4516
неделю	4517
ежегод	4518
##ющем	4519
полови	4520
поддержки	4521
необходимости	4522
уво	4523
##дают	4524
комменти	4525
военные	4526
справедли	4527
худож	4528
гроз	4529
мере	4530
##снов	4531
рассказала	4532
управление	4533
позволит	4534
обвинения	4535
старт	4536
друга	4537
фина	4538
спек	4539
возобнов	4540
фсб	4541
равно	4542
##нул	4543
лекар	4544
основе	4545
первым	4546
напря	4547
зен	4548
##кина	4549
инди	4550
карти	4551
составля	4552
факт	4553
распоря	4554
метро	4555
расследование	4556
адвокат	4557
цска	4558
##цент	4559
##шев	4560
##сами	4561
##чена	4562
программа	4563
социальной	4564
совершенно	4565
сма	4566
ущ	4567
лиги	4568
люби	4569
взаимодей	4570
##цем	4571
##ra	4572
##вив	4573
предъя	4574
##щал	4575
адрес	4576
отмечают	4577
создать	4578
создание	4579
контроли	4580
расследования	4581
facebook	4582
##ферен	4583
##роваться	4584
##мый	4585
определи	4586
оказ	4587
нало	4588
той	4589
паци	4590
вале	4591
рассказали	4592
феврале	4593
губернатора	4594
укреп	4595
наша	4596
безу	4597
сообщения	4598
движение	4599
погибших	4600
ближайшее	4601
иран	4602
##джи	4603
поправ	4604
посмот	4605
##вижи	4606
констан	4607
московского	4608
транспорта	4609
сена	4610
##чению	4611
##лить	4612
обстре	4613
##ального	4614
брази	4615
публика	4616
субботу	4617
поезд	4618
соблю	4619
ответственности	4620
##ехал	4621
всемир	4622
института	4623
фло	4624
##ково	4625
##циями	4626
российским	4627
составил	4628
столице	4629
пассажиров	4630
защиты	4631
##шению	4632
точно	4633
могу	4634
хол	4635
встрече	4636
недвижи	4637
##щены	4638
##мия	4639
общей	4640
##лень	4641
##ленной	4642
беспо	4643
##лете	4644
оказались	4645
днем	4646
новая	4647
эфи	4648
##ера	4649
победу	4650
##лана	4651
##сет	4652
выру	4653
##сторон	4654
##страи	4655
экстре	4656
основном	4657
бума	4658
##ющихся	4659
37	4660
замен	4661
##ссер	4662
образ	4663
москву	4664
постоянно	4665
зарубе	4666
##волю	4667
топли	4668
мошен	4669
летом	4670
объясня	4671
утром	4672
присо	4673
мой	4674
пис	4675
сделал	4676
##емые	4677
причаст	4678
воды	4679
первое	4680
женщины	4681
##енной	4682
##льную	4683
##вели	4684
##альных	4685
говорил	4686
своими	4687
").	4688
конфликта	4689
фрон	4690
пообе	4691
##образ	4692
автор	4693
сконча	4694
##нос	4695
##мос	4696
##тых	4697
куз	4698
пат	4699
сожа	4700
выбра	4701
##щает	4702
родствен	4703
официально	4704
дальше	4705
резер	4706
университета	4707
плю	4708
заинтере	4709
##чев	4710
договорен	4711
протя	4712
доля	4713
далее	4714
последнее	4715
спустя	4716
корпора	4717
арбитра	4718
##зей	4719
##ot	4720
##лье	4721
##года	4722
каких	4723
граждани	4724
гуман	4725
кредитов	4726
комплекс	4727
##етов	4728
превра	4729
объясни	4730
круг	4731
##тные	4732
##жений	4733
##чек	4734
хотят	4735
владе	4736
летнего	4737
сумма	4738
фан	4739
##мс	4740
оказалось	4741
контроль	4742
гендирек	4743
спортсменов	4744
твор	4745
##тиков	4746
конт	4747
рекорд	4748
раскры	4749
смен	4750
навер	4751
##ментов	4752
##ждений	4753
##пел	4754
любо	4755
групп	4756
учетом	4757
кабин	4758
большая	4759
опти	4760
которому	4761
международных	4762
сентябре	4763
призвал	4764
йор	4765
фрак	4766
мари	4767
##ственные	4768
##зоне	4769
проектов	4770
журналистов	4771
##дат	4772
##ada	4773
##деть	4774
##ствием	4775
основной	4776
##лайн	4777
казах	4778
app	4779
зав	4780
голосования	4781
экипа	4782
дни	4783
указыва	4784
##ub	4785
развед	4786
следствие	4787
##ждены	4788
область	4789
197	4790
оборо	4791
баррель	4792
корреспонд	4793
утра	4794
##мать	4795
##рост	4796
избе	4797
##ленного	4798
ними	4799
виктор	4800
сторону	4801
обычно	4802
японии	4803
расходы	4804
ожидается	4805
приходится	4806
##хан	4807
отчет	4808
преде	4809
мон	4810
кандидатов	4811
reu	4812
уро	4813
##дд	4814
##енного	4815
ноябре	4816
##способ	4817
##рованных	4818
"),	4819
смогли	4820
мероприятия	4821
тренер	4822
обама	4823
зву	4824
оз	4825
reuters	4826
проз	4827
должность	4828
воспит	4829
беженцев	4830
##up	4831
замет	4832
##мость	4833
##няет	4834
страх	4835
органы	4836
##гой	4837
море	4838
отметили	4839
плохо	4840
предложение	4841
вар	4842
уви	4843
##тона	4844
перевод	4845
земли	4846
третье	4847
правоохранительных	4848
ошиб	4849
дов	4850
##кнов	4851
##стям	4852
замо	4853
подряд	4854
чаще	4855
техники	4856
соверши	4857
швей	4858
##титься	4859
##чается	4860
194	4861
бир	4862
прежнему	4863
итальян	4864
заплани	4865
##лке	4866
##чков	4867
##енный	4868
подня	4869
баш	4870
октябре	4871
существует	4872
избирате	4873
лавров	4874
общество	4875
паль	4876
задол	4877
пав	4878
цик	4879
становится	4880
собеседник	4881
гар	4882
##нг	4883
позволяет	4884
хил	4885
##ссы	4886
##емь	4887
##ждении	4888
55	4889
оформ	4890
##тации	4891
выбор	4892
##дим	4893
меч	4894
##анами	4895
модель	4896
характер	4897
38	4898
##сна	4899
##ъек	4900
простран	4901
прилож	4902
страну	4903
газпром	4904
##вшихся	4905
проверки	4906
эрдо	4907
##овое	4908
госдуму	4909
различных	4910
##лари	4911
##нила	4912
проходит	4913
экспе	4914
военного	4915
десят	4916
заболе	4917
##ews	4918
##щаться	4919
донец	4920
##мор	4921
финансов	4922
системе	4923
апреле	4924
грузов	4925
здра	4926
привлек	4927
борьбы	4928
учеб	4929
трени	4930
приостанов	4931
ир	4932
удовлет	4933
моло	4934
##стаи	4935
первая	4936
регистра	4937
жили	4938
шести	4939
продолжает	4940
решил	4941
симво	4942
вя	4943
##жением	4944
##гор	4945
захв	4946
сочи	4947
##вами	4948
преи	4949
водо	4950
гуманитар	4951
##ешь	4952
##нику	4953
защи	4954
##тех	4955
тариф	4956
##циям	4957
новое	4958
спарта	4959
##ербан	4960
##вшегося	4961
75	4962
зво	4963
##льном	4964
зависи	4965
##дам	4966
разде	4967
##фина	4968
провели	4969
пя	4970
изобра	4971
сообще	4972
крупных	4973
договори	4974
повре	4975
напомина	4976
форму	4977
2008	4978
состояние	4979
десять	4980
прогре	4981
зи	4982
докла	4983
боро	4984
лично	4985
холод	4986
серд	4987
труда	4988
соответственно	4989
сбербан	4990
хран	4991
пересе	4992
акци	4993
##рье	4994
общества	4995
китая	4996
новую	4997
ауди	4998
неоднокра	4999
