<unk>	0
<s>	0
</s>	0
▁,	-3.5544
▁и	-3.77058
▁а	-3.77578
▁в	-3.80782
▁с	-3.82308
▁.	-3.8412
▁	-4.28538
▁о	-4.34622
▁"	-4.37121
▁на	-4.52728
▁п	-4.58077
н	-4.60087
▁у	-4.63228
▁е	-4.69588
▁-	-4.70713
и	-4.7931
▁по	-4.80165
▁к	-4.95065
▁ы	-4.99973
▁ов	-5.01602
▁д	-5.08955
▁за	-5.10592
а	-5.111
▁не	-5.14236
е	-5.18496
т	-5.19171
р	-5.36801
▁м	-5.37393
о	-5.39334
▁про	-5.40957
▁В	-5.44826
▁что	-5.48561
л	-5.52302
▁б	-5.52486
▁об	-5.56602
▁ой	-5.59948
▁ом	-5.60872
▁т	-5.6108
к	-5.66959
▁1	-5.67526
▁от	-5.68082
▁я	-5.70956
▁0	-5.73414
в	-5.74239
с	-5.74716
п	-5.75843
▁С	-5.78681
▁при	-5.84492
▁из	-5.85646
▁2	-5.86057
▁П	-5.92113
▁р	-5.92767
▁ого	-5.95752
▁н	-5.95832
м	-5.98043
▁ил	-6.01501
▁вы	-6.01676
▁но	-6.02376
▁л	-6.03213
▁М	-6.04292
▁ен	-6.09159
▁их	-6.12829
▁К	-6.13022
▁ие	-6.15146
▁:	-6.1578
д	-6.18022
▁ия	-6.18952
▁раз	-6.20329
▁ь	-6.24035
▁пред	-6.24272
▁до	-6.28378
▁А	-6.28465
▁ий	-6.2945
▁ые	-6.30801
▁Р	-6.31509
▁ей	-6.33854
▁ить	-6.36711
▁под	-6.36977
▁ая	-6.38046
▁ых	-6.38902
ен	-6.42628
▁ения	-6.43038
▁(	-6.44528
▁его	-6.44699
▁ическ	-6.44964
▁ф	-6.45469
▁О	-6.45707
▁ах	-6.46775
у	-6.47138
▁)	-6.47181
▁ый	-6.51642
▁ных	-6.52216
▁ии	-6.52393
▁год	-6.53058
▁И	-6.53114
▁ся	-6.5382
й	-6.54423
▁Д	-6.54523
ов	-6.55973
▁ение	-6.56974
▁Б	-6.58159
▁ной	-6.60001
▁з	-6.6011
▁ного	-6.61555
▁ает	-6.62134
▁ать	-6.6474
▁итель	-6.64971
▁Росси	-6.65183
▁Т	-6.65242
▁ре	-6.65691
▁Г	-6.6675
▁ал	-6.66978
▁как	-6.67189
▁со	-6.67874
▁По	-6.68079
▁был	-6.68108
▁5	-6.6814
для	-6.69415
▁кото	-6.7003
▁ами	-6.71662
▁им	-6.72163
▁кон	-6.72373
▁ит	-6.73144
▁он	-6.73538
▁то	-6.75231
▁пере	-6.76701
▁это	-6.77171
▁г	-6.77455
▁ник	-6.7935
▁де	-6.80513
▁ные	-6.80916
▁ю	-6.83095
▁6	-6.83168
▁э	-6.83503
▁ный	-6.837
ообщ	-6.8427
▁работ	-6.85911
▁ое	-6.86442
▁й	-6.87075
▁ам	-6.87344
▁ет	-6.8739
▁На	-6.8771
▁ую	-6.8853
▁ан	-6.89412
▁пре	-6.90905
▁ко	-6.9106
▁9	-6.91602
ж	-6.9248
▁Л	-6.94052
▁3	-6.94333
▁4	-6.94987
▁У	-6.95657
▁ка	-6.96339
▁ч	-6.96919
▁этом	-6.97567
▁йск	-6.97632
ер	-6.98975
▁ым	-7.00026
▁так	-7.00523
▁говор	-7.02557
▁ее	-7.02874
з	-7.03104
▁ком	-7.04158
,	-7.05783
.	-7.05845
▁тр	-7.06026
ч	-7.06027
ш	-7.06488
▁Н	-7.09416
▁ть	-7.09444
▁прав	-7.14714
▁7	-7.15841
▁ем	-7.17255
▁ин	-7.18333
▁ности	-7.19128
▁ции	-7.19229
щ	-7.19618
▁ания	-7.19706
▁ств	-7.20424
▁ки	-7.2102
▁ства	-7.21839
ольк	-7.23581
▁дент	-7.24047
▁ок	-7.24148
▁став	-7.24392
▁8	-7.25576
▁все	-7.26393
▁мир	-7.26541
отор	-7.26646
▁воз	-7.27124
▁ской	-7.27496
▁будет	-7.28093
▁же	-7.28692
▁во	-7.28832
я	-7.28995
▁след	-7.30026
▁рас	-7.31675
▁пос	-7.32179
▁году	-7.32397
▁ж	-7.32994
ы	-7.34142
▁тор	-7.34194
▁ство	-7.35085
▁расс	-7.36083
▁глав	-7.36214
▁также	-7.36371
▁ным	-7.36658
▁реш	-7.37076
▁х	-7.37449
▁ш	-7.37558
ю	-7.3775
ду	-7.38319
▁ости	-7.38438
▁Ка	-7.40283
▁ении	-7.40594
▁иров	-7.40632
ом	-7.40671
▁ев	-7.41049
б	-7.41793
ил	-7.42423
▁росс	-7.42671
▁уже	-7.42955
▁ность	-7.4335
▁ится	-7.4386
ой	-7.44111
▁ают	-7.44397
▁Ч	-7.4447
▁ию	-7.45342
▁ос	-7.46085
▁ского	-7.46238
▁тель	-7.46806
▁орган	-7.46858
▁ста	-7.47006
▁сам	-7.47441
▁ное	-7.48071
ет	-7.48805
▁ли	-7.49584
▁оп	-7.50139
▁стоя	-7.50881
▁город	-7.50947
▁без	-7.51048
▁Ф	-7.51124
▁было	-7.51604
▁время	-7.52612
▁остав	-7.52666
▁стр	-7.53115
▁З	-7.53378
▁ная	-7.54568
прав	-7.55035
▁ель	-7.55297
▁лен	-7.5539
▁том	-7.55804
▁ласти	-7.56201
▁лет	-7.5645
▁тер	-7.56524
ли	-7.56848
▁нов	-7.57649
▁может	-7.57692
▁нес	-7.5802
▁Е	-7.58048
▁авто	-7.58412
▁ек	-7.58544
▁она	-7.61029
▁вид	-7.61046
▁ист	-7.61479
▁явил	-7.6175
▁ется	-7.63238
▁мы	-7.63316
▁ном	-7.63981
▁Я	-7.64176
альн	-7.64535
▁или	-7.64769
▁ании	-7.65536
ход	-7.65601
▁Пр	-7.66026
▁ер	-7.66209
▁?	-7.66437
ал	-7.66452
▁али	-7.66456
▁Х	-7.6668
▁стран	-7.66824
▁США	-7.6729
▁ход	-7.6741
вод	-7.67641
ь	-7.67779
▁мент	-7.68405
▁еще	-7.68427
▁чем	-7.69557
г	-7.69874
▁уд	-7.70293
▁бы	-7.71635
▁ления	-7.72527
▁цион	-7.72787
▁уч	-7.72988
▁ми	-7.73597
▁арств	-7.73865
▁сказ	-7.74084
▁инф	-7.74196
ств	-7.74956
▁%	-7.75147
▁ступ	-7.76084
▁Ш	-7.77128
▁ят	-7.77323
▁Он	-7.77365
од	-7.77778
▁ную	-7.77847
▁ру	-7.77895
ц	-7.78094
ем	-7.78401
▁меж	-7.78457
ск	-7.78495
▁Эт	-7.785
▁ается	-7.79033
на	-7.79173
бы	-7.79305
дел	-7.79678
▁роект	-7.80342
▁альн	-7.80385
тор	-7.80477
▁ку	-7.80637
▁олуч	-7.80905
из	-7.81024
▁экс	-7.81064
▁гос	-7.81076
▁ость	-7.81078
▁лова	-7.81314
тель	-7.81484
▁ский	-7.8199
▁держ	-7.82244
▁чело	-7.82357
▁они	-7.82963
▁ст	-7.83424
▁ль	-7.8359
▁готов	-7.83749
ин	-7.83857
▁ес	-7.8387
▁Но	-7.84599
▁ют	-7.84648
▁перв	-7.84873
но	-7.84962
▁ован	-7.85775
ан	-7.8616
▁част	-7.86272
▁Э	-7.86285
▁ому	-7.86535
▁опрос	-7.87266
▁нима	-7.87478
▁од	-7.87775
▁кор	-7.88127
▁вод	-7.88433
▁полн	-7.88645
▁народ	-7.88698
▁РФ	-7.88718
ит	-7.89449
▁ублик	-7.8949
▁овал	-7.89514
▁За	-7.89687
▁дел	-7.9008
▁пол	-7.90185
▁мест	-7.90321
▁терр	-7.9082
▁лож	-7.91313
▁долж	-7.9192
▁ремен	-7.92021
того	-7.92137
х	-7.92218
▁стве	-7.92281
▁Алек	-7.92443
чита	-7.93046
ор	-7.93375
ступ	-7.93873
▁есть	-7.94497
им	-7.94534
▁чет	-7.94974
▁сред	-7.95243
▁ений	-7.95692
▁учас	-7.95847
▁знач	-7.95876
▁стал	-7.9598
нтер	-7.96245
▁ыми	-7.96262
▁озмо	-7.96444
▁Об	-7.96523
▁Не	-7.96571
▁през	-7.96876
▁мен	-7.97625
ольш	-7.97969
▁перед	-7.98443
▁хо	-7.98452
▁веде	-7.98509
▁ание	-7.9868
▁ро	-7.98854
▁ив	-7.98856
ят	-7.98957
▁руб	-7.99059
▁орма	-7.99108
▁ьтат	-7.9947
▁ля	-7.99615
▁этого	-7.99831
▁годня	-8.00123
▁чере	-8.00146
▁Са	-8.00236
ых	-8.0036
▁ивн	-8.00602
▁ился	-8.01313
ий	-8.01434
▁енно	-8.01613
▁ться	-8.01632
▁ению	-8.01714
ейс	-8.026
▁ейчас	-8.0285
▁вед	-8.02982
▁ме	-8.03268
▁ими	-8.03336
▁нет	-8.03694
▁ян	-8.03922
▁ик	-8.04154
▁рубл	-8.04466
▁ни	-8.04517
▁те	-8.04793
▁ряд	-8.0485
ак	-8.05108
▁оста	-8.05208
▁Ко	-8.05238
▁анк	-8.05407
▁ор	-8.05466
▁ными	-8.05511
▁ат	-8.06106
▁могу	-8.06236
▁орм	-8.06276
▁ление	-8.06317
▁Влад	-8.06686
▁явля	-8.07148
▁Евро	-8.07426
▁иться	-8.07584
кон	-8.07789
их	-8.08153
▁тур	-8.08283
▁торон	-8.08368
▁госу	-8.08473
▁ир	-8.08972
▁тся	-8.09149
▁го	-8.09281
▁млн	-8.09751
хран	-8.09834
ерш	-8.10114
труд	-8.1027
▁ских	-8.10387
▁опас	-8.10676
▁днако	-8.10856
зул	-8.10946
▁метил	-8.10975
то	-8.11193
▁ны	-8.11347
омп	-8.11776
▁зна	-8.11874
▁будут	-8.12072
▁центр	-8.12087
▁мини	-8.12141
▁ающ	-8.12413
▁олог	-8.12711
▁телей	-8.12983
▁мер	-8.13636
▁краи	-8.14606
▁ников	-8.14723
ять	-8.15774
▁ротив	-8.15878
▁еств	-8.15909
▁одно	-8.16363
▁когда	-8.16789
ел	-8.16876
▁конц	-8.17101
чень	-8.17164
▁ьн	-8.17218
▁льно	-8.17434
▁истем	-8.17923
держ	-8.18063
тр	-8.18201
▁кур	-8.18789
он	-8.188
▁можно	-8.18929
▁ри	-8.18929
▁где	-8.18965
▁Мин	-8.19035
▁аем	-8.19495
мен	-8.1954
▁мотр	-8.19564
▁быть	-8.19715
осле	-8.19728
▁них	-8.19876
▁нас	-8.20397
▁груп	-8.20457
▁один	-8.20592
▁ью	-8.2068
▁заяв	-8.21276
▁траны	-8.21369
▁тем	-8.21551
▁ция	-8.21567
▁эти	-8.2203
▁ур	-8.22034
▁ики	-8.22059
▁се	-8.22235
▁ти	-8.22489
▁оманд	-8.23158
рези	-8.2345
▁млрд	-8.2353
▁риме	-8.23591
▁техн	-8.23679
▁ц	-8.23934
▁ключ	-8.24198
▁Ж	-8.24266
▁треб	-8.24375
ращ	-8.24524
▁оказ	-8.24902
▁ков	-8.25143
▁ивш	-8.25403
▁люб	-8.25492
▁огла	-8.25776
▁Ю	-8.25958
▁ар	-8.25976
▁каз	-8.26216
▁сего	-8.26317
▁кан	-8.26409
▁сво	-8.26498
ей	-8.26526
▁ему	-8.2659
ной	-8.26604
▁ось	-8.26648
▁ьзов	-8.2669
▁тв	-8.26752
▁овать	-8.26912
▁су	-8.26938
▁друг	-8.2705
e	-8.2739
▁енных	-8.2775
▁рост	-8.27943
▁оле	-8.28432
▁седа	-8.28501
▁ились	-8.28505
▁тысяч	-8.28538
▁ск	-8.2868
▁район	-8.28927
ражд	-8.28957
▁теля	-8.29449
▁свое	-8.29627
▁грамм	-8.29642
▁ут	-8.29699
▁лся	-8.29777
ключ	-8.29809
стан	-8.29905
▁инанс	-8.30124
▁тав	-8.30247
▁та	-8.3026
▁теле	-8.30457
▁дела	-8.30476
▁газ	-8.30687
▁ран	-8.30883
▁ра	-8.30948
▁че	-8.31127
▁два	-8.31163
▁лиш	-8.31545
▁ует	-8.31651
▁нт	-8.3181
▁андр	-8.31817
▁оссия	-8.31836
▁вш	-8.31948
▁над	-8.32151
▁ледо	-8.32368
▁ке	-8.32565
ужд	-8.3272
▁утин	-8.33298
лее	-8.33761
▁орт	-8.34071
▁ила	-8.34178
вин	-8.34181
▁ответ	-8.34507
ля	-8.35141
▁ис	-8.35568
▁цел	-8.35743
▁план	-8.36288
▁тыс	-8.3641
▁Дж	-8.36544
▁ием	-8.36602
▁лат	-8.36936
▁!	-8.36977
▁ол	-8.37074
ник	-8.37076
▁много	-8.37185
▁цен	-8.37546
▁ело	-8.37554
▁тели	-8.37645
▁пресс	-8.37844
▁изац	-8.37917
▁одим	-8.37943
▁ество	-8.38131
▁ел	-8.38611
▁стреч	-8.38721
▁зва	-8.38785
▁транс	-8.38924
нош	-8.39021
▁вер	-8.39361
▁ольше	-8.39686
ть	-8.39801
нима	-8.39936
▁ог	-8.39947
▁наш	-8.40066
лич	-8.40108
▁место	-8.4021
▁нич	-8.40453
▁ru	-8.40783
олиц	-8.40928
▁коно	-8.40955
ам	-8.41184
▁летн	-8.41774
▁ская	-8.4187
звес	-8.4189
йск	-8.42037
ар	-8.42067
▁цию	-8.42171
▁уров	-8.42307
▁кол	-8.42409
▁пр	-8.42471
▁три	-8.42627
▁ники	-8.42633
▁лист	-8.42634
▁защи	-8.43036
▁гор	-8.43368
обил	-8.43671
▁твия	-8.43723
▁рият	-8.43762
▁Так	-8.43987
▁путат	-8.44249
▁милл	-8.44645
▁нап	-8.44736
▁оз	-8.44885
▁пока	-8.44942
▁право	-8.45169
▁твую	-8.45189
▁илась	-8.45399
▁рос	-8.4542
▁Укра	-8.45812
▁писа	-8.45848
▁дет	-8.45925
▁опер	-8.46332
▁дире	-8.46361
▁ено	-8.46468
▁оцен	-8.46574
сточ	-8.46658
▁эт	-8.46752
▁обра	-8.46775
▁Ново	-8.47479
▁ивает	-8.47589
▁ался	-8.47646
▁нача	-8.47751
▁ись	-8.47801
▁клад	-8.48125
▁порт	-8.48316
▁этот	-8.48657
▁ерт	-8.48671
▁аться	-8.48773
ясн	-8.49016
▁эк	-8.49027
обх	-8.49208
▁льн	-8.4939
▁един	-8.49423
▁ением	-8.49776
здан	-8.49815
▁ич	-8.50089
▁тно	-8.50269
▁суд	-8.50314
▁месте	-8.5045
▁лучил	-8.50521
▁лиц	-8.50606
▁ген	-8.50615
▁олжн	-8.50823
▁кр	-8.50862
▁спорт	-8.51227
▁рез	-8.51246
▁всех	-8.51277
▁гол	-8.51279
полн	-8.51447
сли	-8.51488
част	-8.5157
▁рист	-8.51629
фиц	-8.51675
▁ены	-8.5171
ущ	-8.51721
▁ла	-8.51922
▁гр	-8.51955
▁лаг	-8.52244
▁агент	-8.52275
▁лись	-8.52321
ст	-8.52555
ри	-8.5257
▁исп	-8.52751
▁кач	-8.52956
▁пар	-8.53018
▁ующ	-8.53147
руш	-8.53222
ре	-8.5336
▁Рос	-8.5373
об	-8.5384
▁ейш	-8.5422
▁ества	-8.54292
▁вз	-8.54466
пец	-8.54839
▁енко	-8.55031
ить	-8.5515
▁чик	-8.55167
ат	-8.55522
▁ях	-8.55664
▁ния	-8.56012
кие	-8.56014
▁ци	-8.56057
▁ние	-8.56127
▁мет	-8.5618
▁него	-8.56392
▁илось	-8.56433
▁еть	-8.56645
▁круп	-8.56787
▁ова	-8.5679
▁инг	-8.56843
▁До	-8.56896
▁омент	-8.56955
осси	-8.57022
▁нти	-8.575
▁кин	-8.57607
снов	-8.579
"	-8.58162
▁дост	-8.58195
▁редит	-8.58452
▁ятся	-8.58496
▁авиа	-8.58604
▁мьер	-8.58622
анее	-8.58644
уац	-8.58669
▁ад	-8.58745
▁Мы	-8.58762
▁отме	-8.59051
▁иал	-8.593
ним	-8.59343
▁жд	-8.59561
ачал	-8.59668
▁себя	-8.59706
▁всем	-8.59897
бор	-8.59943
▁ском	-8.60089
▁аний	-8.60145
▁месяц	-8.60225
ного	-8.60276
▁пыт	-8.60541
▁юджет	-8.6058
▁изнес	-8.61024
▁двух	-8.61366
нным	-8.6167
▁ров	-8.61725
▁раж	-8.61749
▁да	-8.62104
▁егион	-8.623
▁лект	-8.62393
▁Сирии	-8.62445
нов	-8.62656
▁вести	-8.62856
▁торг	-8.62857
▁само	-8.62992
▁бург	-8.63037
зыв	-8.6327
▁мор	-8.63333
▁тив	-8.63406
же	-8.63499
виж	-8.63642
не	-8.64082
▁числе	-8.64219
▁авш	-8.64408
▁голос	-8.64582
▁день	-8.64623
▁отказ	-8.6488
▁реги	-8.65273
▁пара	-8.6568
митр	-8.65715
▁ьник	-8.65757
▁ричин	-8.65844
твер	-8.66114
ком	-8.66116
▁чит	-8.6617
ыв	-8.66178
▁ул	-8.66364
лось	-8.66389
▁ило	-8.66676
▁ались	-8.66779
▁хот	-8.66977
▁ному	-8.67435
спол	-8.67508
ир	-8.67884
▁бес	-8.6796
▁нем	-8.68113
▁ья	-8.68121
▁адми	-8.68175
▁сен	-8.68427
лен	-8.68463
ад	-8.68505
▁ецк	-8.68595
▁мере	-8.68662
▁школ	-8.68758
▁мат	-8.68975
▁бли	-8.69006
▁ец	-8.69036
▁рован	-8.69045
▁щик	-8.69135
▁даж	-8.69247
▁трои	-8.69514
▁ются	-8.69669
стра	-8.69703
тябр	-8.70206
мери	-8.70251
▁ляе	-8.70528
▁изм	-8.70541
▁верн	-8.70632
мотр	-8.70776
▁град	-8.70858
▁блем	-8.70898
▁евро	-8.70959
▁поли	-8.71029
сле	-8.71183
▁ъ	-8.7151
▁оскве	-8.71541
▁овой	-8.71592
▁му	-8.71721
▁яет	-8.7176
▁езд	-8.71873
▁шта	-8.71954
▁каза	-8.72048
▁тен	-8.72118
▁жил	-8.72204
▁Фед	-8.72471
▁етс	-8.72493
▁чин	-8.72658
▁ика	-8.72726
▁ди	-8.72838
▁ъект	-8.72875
инис	-8.72902
ис	-8.73084
▁ранее	-8.73102
ко	-8.73119
▁руг	-8.73174
▁оск	-8.73202
озда	-8.73481
▁Турц	-8.7356
▁игра	-8.73606
▁дес	-8.73731
▁ткрыт	-8.74141
▁ивать	-8.742
▁куп	-8.74252
▁стать	-8.74324
▁точн	-8.74498
▁Из	-8.74825
ать	-8.74834
▁тории	-8.75094
▁лани	-8.75142
▁доб	-8.75203
▁оллар	-8.75264
вобо	-8.75768
треб	-8.75795
дин	-8.75809
заци	-8.76037
ра	-8.76091
▁ност	-8.76461
▁ческ	-8.76482
▁боль	-8.76572
ный	-8.76609
▁пис	-8.76686
▁дорог	-8.767
▁рек	-8.76742
▁бу	-8.76853
меч	-8.7702
▁казан	-8.77048
▁лидер	-8.77052
▁связи	-8.77073
го	-8.77243
▁факт	-8.77333
▁Глав	-8.77416
ку	-8.77505
ябр	-8.77508
▁ас	-8.77686
▁служб	-8.7781
енно	-8.77847
анск	-8.77918
▁блюд	-8.78
▁овлен	-8.78047
▁тивн	-8.78124
▁зем	-8.78313
▁енщин	-8.78625
▁скор	-8.78844
▁нии	-8.78906
▁оциа	-8.78961
▁лучш	-8.79226
ед	-8.79232
▁там	-8.79255
елич	-8.79445
▁цев	-8.79664
▁ТАСС	-8.79752
▁тви	-8.79795
▁отно	-8.79961
▁ай	-8.80005
▁СМИ	-8.801
▁йти	-8.80157
▁фильм	-8.80201
▁людей	-8.80367
▁озво	-8.80392
▁жел	-8.80402
по	-8.80478
ого	-8.80578
▁лич	-8.80594
▁ум	-8.80648
▁особ	-8.80859
▁оро	-8.81111
ющ	-8.81147
▁ям	-8.81213
▁Ъ	-8.81236
▁кто	-8.81449
▁ид	-8.8148
▁иаль	-8.81565
▁иск	-8.81663
▁матч	-8.81755
▁Бел	-8.81887
▁машин	-8.81935
чал	-8.81999
▁Се	-8.82123
▁луча	-8.82177
▁нос	-8.82287
▁налог	-8.82296
ро	-8.82297
▁игр	-8.82386
▁обыч	-8.8288
иров	-8.83021
▁10	-8.83132
▁пуск	-8.83195
▁енн	-8.83241
▁ятель	-8.83276
t	-8.83312
▁крыт	-8.83668
едел	-8.83889
▁хва	-8.83916
▁дал	-8.83919
▁ека	-8.84022
▁ожид	-8.84099
▁рав	-8.8416
▁исс	-8.84232
▁дач	-8.84423
че	-8.84675
▁аш	-8.84773
▁/	-8.8479
▁рев	-8.84791
▁лимп	-8.84907
▁вел	-8.84946
глас	-8.84988
▁олж	-8.84993
▁ющ	-8.85167
s	-8.85421
▁ним	-8.85451
▁таки	-8.8564
▁тан	-8.85695
▁очн	-8.85917
ла	-8.86073
▁пуст	-8.86215
роме	-8.86252
▁РИА	-8.86303
аль	-8.86425
▁ложн	-8.86458
▁шел	-8.86684
▁утбол	-8.86691
▁укту	-8.867
▁ией	-8.86734
▁посл	-8.86892
▁голо	-8.87046
ому	-8.87142
▁служ	-8.87182
тер	-8.87211
▁труд	-8.8724
▁естве	-8.87299
▁аль	-8.87404
▁жизни	-8.87517
▁дида	-8.87563
▁инте	-8.87943
▁лин	-8.87957
▁редн	-8.88286
▁быв	-8.88325
за	-8.88326
Ъ	-8.88571
ных	-8.88695
▁канал	-8.88731
▁мин	-8.88751
▁марта	-8.88767
▁би	-8.88849
▁шли	-8.88888
▁бир	-8.88961
▁рес	-8.88989
▁мещ	-8.89258
▁зв	-8.89298
▁вис	-8.89604
▁натор	-8.89683
▁артии	-8.8969
▁обяз	-8.89716
вер	-8.89755
▁ье	-8.89957
▁твор	-8.89974
▁ществ	-8.90008
▁нев	-8.90051
▁втор	-8.90171
▁свои	-8.90503
обав	-8.90576
▁окол	-8.90604
▁Ку	-8.90614
прел	-8.90832
та	-8.90876
▁Крым	-8.90929
▁ять	-8.90954
▁мед	-8.90997
лась	-8.91271
▁жив	-8.91315
▁жите	-8.91322
▁мас	-8.91328
▁уда	-8.91441
▁ству	-8.91445
▁ужчин	-8.91568
▁есл	-8.91591
▁сил	-8.91593
▁почт	-8.91638
дум	-8.92175
▁олож	-8.92546
▁Де	-8.92647
▁гру	-8.92667
▁вну	-8.92696
▁ичн	-8.92744
▁дей	-8.92777
▁своих	-8.9294
▁фонд	-8.9296
льн	-8.93002
▁ируе	-8.93067
▁$	-8.93272
оку	-8.93296
▁огда	-8.93341
▁равил	-8.9336
▁улиц	-8.93441
▁уп	-8.9348
▁Трамп	-8.93622
▁20	-8.93716
▁амер	-8.93728
▁проц	-8.93844
▁цесс	-8.93904
▁мол	-8.94002
▁осквы	-8.94053
ос	-8.94144
▁Во	-8.94166
един	-8.94265
▁числ	-8.94349
▁ями	-8.94388
ие	-8.94417
▁ового	-8.9452
▁ман	-8.94628
▁стало	-8.94636
▁нужно	-8.94671
▁ериод	-8.9483
▁ней	-8.94978
▁ял	-8.95234
ол	-8.95401
нул	-8.95444
нц	-8.95582
▁вяз	-8.95587
▁сущ	-8.95775
▁вития	-8.9581
▁пеци	-8.9589
▁тех	-8.95891
▁сбор	-8.95925
▁крат	-8.96085
вал	-8.96364
▁прод	-8.96477
▁толь	-8.96559
овет	-8.96673
ящ	-8.96707
▁ук	-8.97176
▁лении	-8.97206
сил	-8.97346
▁цы	-8.97368
▁емь	-8.97421
▁уют	-8.97484
▁Ма	-8.97715
▁шн	-8.97848
ес	-8.97859
▁клуб	-8.97883
▁мента	-8.97906
▁ард	-8.97912
▁бор	-8.98023
▁анных	-8.98055
▁ост	-8.98174
оруж	-8.98218
▁олю	-8.98388
ив	-8.98395
вых	-8.98416
▁оф	-8.98704
▁стол	-8.98796
▁сер	-8.98853
▁рамк	-8.9891
▁нск	-8.99218
▁ляю	-8.99313
▁ризн	-8.99413
▁остью	-8.99617
▁тране	-8.99776
▁детей	-8.99792
▁квар	-8.99806
▁нефти	-8.99817
▁дать	-9.00064
▁дук	-9.00099
▁маг	-9.0014
▁фон	-9.0015
▁кл	-9.0029
▁руч	-9.00368
▁лег	-9.00395
▁одн	-9.0043
▁ве	-9.00657
▁сти	-9.00781
се	-9.00842
▁часть	-9.00852
▁дома	-9.00905
беж	-9.00998
отв	-9.01036
▁стат	-9.01281
▁люди	-9.01365
▁есн	-9.0137
▁сп	-9.01373
▁гон	-9.01505
▁срок	-9.01571
▁лощ	-9.01606
му	-9.01722
▁меня	-9.01725
ци	-9.01995
▁Центр	-9.01997
▁вещ	-9.02007
▁Пет	-9.02234
▁воен	-9.02385
▁мон	-9.0251
▁ала	-9.02589
▁объе	-9.02647
▁тября	-9.02667
▁теп	-9.02717
суд	-9.02738
ста	-9.02814
▁реа	-9.02876
▁;	-9.02886
▁енны	-9.03027
▁ечн	-9.03194
▁Ес	-9.03247
▁омощь	-9.0344
ласт	-9.0356
▁твует	-9.03645
▁полу	-9.03714
▁лял	-9.03972
каз	-9.0398
▁части	-9.04179
▁связ	-9.04181
анкц	-9.04419
▁зыв	-9.04428
ич	-9.04481
▁успе	-9.04575
▁вет	-9.04584
лиц	-9.04647
▁са	-9.04743
▁рк	-9.04834
▁твие	-9.05129
арла	-9.05155
▁метр	-9.05161
▁хоро	-9.05272
▁вос	-9.05275
▁води	-9.05332
▁ольз	-9.05335
▁нее	-9.05468
▁тоим	-9.05558
▁пл	-9.05616
▁округ	-9.05672
▁бин	-9.05701
ысок	-9.0593
▁перс	-9.05931
▁ащ	-9.05933
ракт	-9.05993
▁шест	-9.06018
▁режим	-9.06058
▁инск	-9.06191
лек	-9.06353
▁Ц	-9.0636
▁уб	-9.06423
▁ороны	-9.0643
▁анию	-9.06451
▁Совет	-9.06489
▁асс	-9.06519
ктив	-9.06577
ую	-9.06783
▁гран	-9.06788
▁вин	-9.06977
▁сети	-9.06989
▁ерьез	-9.07
▁ике	-9.07051
▁трол	-9.07128
▁ус	-9.0726
от	-9.07279
▁ругие	-9.07364
ниж	-9.07403
▁ца	-9.07484
▁ром	-9.07538
▁суб	-9.07617
▁режд	-9.07749
▁хи	-9.07827
▁уть	-9.07985
▁еспе	-9.08005
оенн	-9.08136
▁раб	-9.08209
руж	-9.08609
▁доход	-9.08635
▁ерге	-9.08665
▁щ	-9.088
▁пят	-9.08853
▁шир	-9.08868
▁айш	-9.0896
▁сов	-9.09024
▁Меж	-9.09116
▁общ	-9.09202
▁ервы	-9.09402
коло	-9.09529
▁нтон	-9.09532
▁молет	-9.09546
▁благ	-9.09577
▁пост	-9.09808
▁ень	-9.09997
▁блок	-9.10167
▁кой	-9.10227
яв	-9.10235
▁ывает	-9.10417
жд	-9.10424
жден	-9.10461
▁аются	-9.10567
▁выше	-9.1063
обед	-9.10678
пера	-9.10731
▁сдел	-9.10768
▁февр	-9.10774
▁уется	-9.10853
▁рук	-9.11078
ые	-9.11382
▁бра	-9.11467
▁теч	-9.11534
ител	-9.11548
▁борь	-9.11559
▁Вы	-9.1165
▁куль	-9.1171
▁мог	-9.11776
▁ась	-9.11903
новн	-9.11991
▁каж	-9.12283
▁ивают	-9.12591
▁кабря	-9.12731
▁буду	-9.12739
▁15	-9.12779
▁зап	-9.12815
стр	-9.12894
▁энер	-9.12936
мпи	-9.12984
▁разом	-9.13225
умм	-9.13358
ик	-9.13392
▁сад	-9.13396
▁прос	-9.13453
▁Ба	-9.13508
▁аэро	-9.13615
▁Ар	-9.13694
▁ере	-9.13774
▁долг	-9.13858
▁ицу	-9.13894
▁йски	-9.14338
▁годн	-9.14353
▁вес	-9.1438
▁назад	-9.14482
▁стан	-9.14593
▁ффект	-9.1473
ле	-9.14786
▁едь	-9.14945
уд	-9.15155
▁угро	-9.15238
▁еньги	-9.15298
▁ивал	-9.15309
▁надо	-9.15335
▁ское	-9.15495
▁кт	-9.1558
▁Киев	-9.15643
▁яют	-9.15767
▁итай	-9.15848
▁зон	-9.15861
▁кар	-9.1607
▁гля	-9.16108
▁трен	-9.16113
ания	-9.16173
ент	-9.16211
ta	-9.16458
▁прет	-9.16728
▁трех	-9.16809
▁арм	-9.16877
▁снов	-9.16892
▁сих	-9.16957
▁янв	-9.1711
▁арест	-9.17114
есп	-9.17199
▁роди	-9.17391
▁себе	-9.17524
▁банк	-9.17702
▁чита	-9.17717
▁30	-9.1775
ев	-9.17816
▁мая	-9.17875
▁либ	-9.1794
▁итета	-9.17951
▁алась	-9.18027
▁торой	-9.18035
▁овый	-9.18107
▁зж	-9.18166
▁пас	-9.18228
▁ант	-9.18346
▁соб	-9.18588
▁тиц	-9.18712
сп	-9.18975
тв	-9.19029
▁топ	-9.19197
ильн	-9.19234
▁ыш	-9.19335
▁ации	-9.19381
▁одоб	-9.19459
▁акси	-9.19665
▁класс	-9.19856
▁сел	-9.19949
▁ег	-9.19972
▁рату	-9.2003
аз	-9.20039
▁личн	-9.20095
лия	-9.20298
▁хозя	-9.20339
▁мног	-9.20406
▁пут	-9.20504
▁тоит	-9.20568
▁Север	-9.20645
▁взя	-9.20707
▁онов	-9.20718
▁сегда	-9.20733
▁Да	-9.20899
▁йн	-9.20914
▁хов	-9.211
▁оряд	-9.21132
дела	-9.21137
▁стро	-9.21162
ению	-9.21177
▁ителя	-9.21248
▁воего	-9.21274
▁ством	-9.21281
▁лад	-9.21365
▁тро	-9.21398
▁адр	-9.214
▁мате	-9.21426
ажд	-9.215
сь	-9.21597
▁елик	-9.21798
▁ассаж	-9.21858
▁гноз	-9.21893
▁Пре	-9.22001
▁дис	-9.22023
особ	-9.22222
тог	-9.22225
▁граф	-9.22243
▁сезон	-9.22261
▁жен	-9.22298
▁ски	-9.22321
▁тол	-9.22855
▁минут	-9.2291
ая	-9.22918
▁шед	-9.22933
▁яя	-9.22935
▁ихся	-9.22952
▁ходи	-9.23001
▁лекс	-9.23261
естн	-9.23281
▁ЕС	-9.2334
▁фа	-9.23424
▁анков	-9.23485
▁крыв	-9.23506
▁ите	-9.23535
▁воим	-9.23567
▁ьян	-9.23682
▁нди	-9.23691
▁ара	-9.23692
▁йдет	-9.23709
▁тар	-9.23715
▁тогда	-9.23764
▁акт	-9.23778
озиц	-9.23807
▁ринят	-9.23836
▁кры	-9.23974
▁гром	-9.2399
▁мне	-9.24032
▁име	-9.24044
▁фото	-9.24114
дал	-9.24168
▁анием	-9.24204
▁дума	-9.24211
▁заб	-9.24222
▁сь	-9.24295
▁бил	-9.24508
▁взрыв	-9.24698
ме	-9.24813
▁здесь	-9.24877
▁годы	-9.24912
▁дня	-9.24913
▁удар	-9.24973
▁тож	-9.24983
▁ена	-9.25079
▁лог	-9.25147
худ	-9.25155
▁Инте	-9.25264
▁ред	-9.2545
▁ктив	-9.25466
▁ково	-9.25482
лаг	-9.25575
▁ящ	-9.25719
▁ноч	-9.25729
▁указ	-9.25745
▁титу	-9.25797
ном	-9.2582
▁верк	-9.25827
▁ским	-9.25849
▁тест	-9.25857
▁ент	-9.2587
▁парк	-9.25939
▁яется	-9.25982
▁погиб	-9.2613
▁несен	-9.26179
▁уста	-9.26227
▁здан	-9.26436
вест	-9.26483
▁шла	-9.26484
▁ле	-9.26602
▁журн	-9.26707
▁айн	-9.26798
▁рожд	-9.26859
▁МВД	-9.26917
▁кино	-9.26962
▁пер	-9.27047
▁рыв	-9.27181
раз	-9.27264
▁роз	-9.27536
узык	-9.27546
▁виде	-9.27549
▁аб	-9.27751
▁олев	-9.2795
▁онал	-9.27955
вой	-9.28104
ные	-9.28132
нвес	-9.28142
▁ензи	-9.28148
▁вот	-9.28157
утс	-9.28207
▁дежд	-9.28304
вгус	-9.28352
▁рий	-9.28429
▁фликт	-9.28434
пи	-9.28434
рав	-9.28496
▁товар	-9.28564
▁ерб	-9.28618
▁12	-9.28702
▁ама	-9.28711
▁тин	-9.28906
▁Нико	-9.28957
▁лета	-9.28995
▁Ег	-9.28996
▁ероя	-9.29
ни	-9.29021
▁чего	-9.29122
▁услуг	-9.29168
▁авл	-9.29239
▁аря	-9.29289
▁дь	-9.29396
▁акц	-9.29514
▁давно	-9.29517
▁нефт	-9.29642
▁зам	-9.29647
▁др	-9.29704
▁тия	-9.29717
▁ьев	-9.29753
▁олот	-9.29781
▁сири	-9.29842
r	-9.29902
лов	-9.30049
▁имо	-9.30121
▁срав	-9.30194
▁креп	-9.30267
▁нег	-9.30302
след	-9.30341
▁гл	-9.3052
шей	-9.30534
▁ед	-9.30586
▁исло	-9.30605
▁Бр	-9.30605
▁ры	-9.30636
▁ихаил	-9.30796
▁ляц	-9.30884
▁сразу	-9.31108
▁ло	-9.31108
▁видео	-9.31332
▁ункт	-9.31346
▁тракт	-9.31369
▁ха	-9.31381
▁слав	-9.3147
тел	-9.31526
▁тик	-9.31553
ылк	-9.31571
▁вят	-9.31594
ред	-9.31613
▁No	-9.3163
▁селе	-9.31692
▁юс	-9.31791
мер	-9.3191
▁данн	-9.31918
▁вал	-9.31953
▁случ	-9.32259
▁двиг	-9.32273
▁пад	-9.32347
▁анные	-9.32477
▁Иван	-9.32504
▁нтов	-9.32551
изац	-9.32676
▁обещ	-9.32713
▁ику	-9.3275
▁ново	-9.32811
▁бер	-9.32964
ров	-9.32995
▁крас	-9.33
▁меш	-9.33075
олит	-9.33114
роиз	-9.33214
леч	-9.33231
цион	-9.33276
▁Len	-9.33319
▁ракет	-9.33405
▁иску	-9.33501
▁ьц	-9.33622
▁рак	-9.33753
▁озре	-9.33755
▁выход	-9.33788
▁чле	-9.33875
▁ниц	-9.33919
▁Le	-9.33924
▁тво	-9.3397
▁ывш	-9.34108
▁оевик	-9.34141
▁лив	-9.3418
▁ышл	-9.34239
льно	-9.34266
ка	-9.34366
▁мел	-9.34432
пис	-9.34494
▁нефть	-9.34615
▁важ	-9.34667
▁рт	-9.34778
▁чел	-9.34836
▁лов	-9.34879
▁чер	-9.34919
▁алл	-9.34967
анов	-9.35003
▁имеет	-9.35042
▁зор	-9.35144
▁иру	-9.35211
▁обор	-9.35221
▁меч	-9.35285
▁ризис	-9.35367
▁выс	-9.35402
▁ехал	-9.35576
▁фед	-9.35578
чер	-9.35705
ль	-9.35857
▁стра	-9.35911
o	-9.35938
▁нг	-9.36237
▁чь	-9.36289
▁бар	-9.36335
▁ква	-9.36356
▁руж	-9.36432
▁тот	-9.36496
▁вели	-9.36696
▁штраф	-9.36885
▁права	-9.36889
▁ыв	-9.36945
▁ице	-9.37026
▁ущ	-9.37251
▁иф	-9.37266
▁скую	-9.37497
▁март	-9.37509
▁изме	-9.37629
урма	-9.37645
▁руги	-9.37688
▁дан	-9.37846
▁овск	-9.37935
▁рынке	-9.38377
▁конф	-9.38492
▁итуа	-9.38617
▁адиц	-9.38661
▁ласт	-9.38739
▁нял	-9.38887
▁нят	-9.38947
▁суда	-9.3902
▁сайте	-9.39033
оном	-9.39102
выш	-9.39128
▁лений	-9.39276
▁юр	-9.3929
▁комм	-9.39441
▁еж	-9.3951
▁новый	-9.39518
▁спек	-9.3955
▁рем	-9.39655
стоя	-9.39661
▁театр	-9.39707
▁демо	-9.39742
▁онд	-9.3978
▁рынка	-9.39886
▁здра	-9.39892
▁яч	-9.39893
▁фере	-9.39947
▁инс	-9.40037
▁илл	-9.40038
орож	-9.40062
▁атив	-9.40076
▁вне	-9.40132
▁туд	-9.40162
▁лужб	-9.40175
▁стре	-9.40244
▁исто	-9.40336
▁слов	-9.40477
▁раст	-9.40559
▁ицы	-9.40659
▁але	-9.40792
▁ифик	-9.40857
▁жизнь	-9.40981
▁ошел	-9.4099
▁s	-9.41032
▁норм	-9.41032
▁быт	-9.41142
ген	-9.41162
▁кции	-9.41255
▁ыск	-9.41436
едер	-9.41445
▁неж	-9.41547
чн	-9.41567
▁тим	-9.41607
▁етыр	-9.4173
▁парт	-9.41736
елен	-9.41737
шл	-9.41752
▁час	-9.41787
▁аны	-9.41958
▁коп	-9.41961
▁ьск	-9.4198
▁емон	-9.42082
▁ази	-9.42083
▁трое	-9.42094
▁оруж	-9.42114
▁треть	-9.4215
стор	-9.42155
▁От	-9.42225
▁задач	-9.42293
▁МИД	-9.42297
▁имп	-9.424
до	-9.42485
▁шлого	-9.42509
▁цией	-9.42577
▁разд	-9.42603
▁осущ	-9.42633
матр	-9.42633
▁пиш	-9.42689
В	-9.42689
▁Ев	-9.42727
▁ний	-9.42764
▁льз	-9.4278
▁точ	-9.42887
▁орож	-9.42922
▁енц	-9.43143
▁пожар	-9.43189
рач	-9.4319
▁трат	-9.43252
ает	-9.43306
▁айте	-9.43324
ующ	-9.43379
чему	-9.43504
▁уж	-9.43546
▁аг	-9.43746
лед	-9.43838
де	-9.43875
▁равда	-9.43996
▁ервые	-9.44037
▁мит	-9.44088
▁ъяв	-9.44102
▁То	-9.44142
▁орд	-9.4422
▁деп	-9.44253
танц	-9.44299
▁марк	-9.44308
▁пита	-9.44326
▁фор	-9.44339
▁строй	-9.44509
ти	-9.44553
▁ести	-9.44577
▁Нов	-9.44644
▁блемы	-9.44752
влен	-9.44856
ма	-9.44874
▁шес	-9.45063
▁нут	-9.45162
▁шенко	-9.45246
▁елей	-9.45348
▁цов	-9.45375
том	-9.45413
▁анс	-9.45441
▁ех	-9.45473
▁оллег	-9.45496
▁ариа	-9.45639
▁ани	-9.45662
▁Вс	-9.4567
▁рода	-9.45689
ф	-9.45748
ог	-9.45835
▁мой	-9.45857
▁асл	-9.45921
ве	-9.46014
▁веч	-9.46056
▁бол	-9.46113
▁атак	-9.46141
▁оссию	-9.46193
▁ана	-9.46302
i	-9.46369
▁руш	-9.46485
мерт	-9.465
▁арк	-9.46504
▁чера	-9.46604
ул	-9.46648
▁леч	-9.46687
▁вест	-9.46851
▁орту	-9.46949
▁боев	-9.46991
▁есп	-9.47026
▁овым	-9.47053
▁финал	-9.47106
▁опинг	-9.4716
лиз	-9.47161
▁июля	-9.47194
▁рита	-9.47246
▁Ст	-9.47404
▁опыт	-9.47606
▁опол	-9.47611
акже	-9.47636
▁ведет	-9.47663
▁рск	-9.47685
▁ках	-9.47802
▁печа	-9.47828
▁омощи	-9.47992
▁ерв	-9.48061
▁теря	-9.48071
трад	-9.481
▁дней	-9.48117
бий	-9.48132
▁онк	-9.48212
▁воду	-9.48274
▁ноги	-9.48368
▁ствия	-9.48502
анич	-9.48565
▁мал	-9.4863
огда	-9.48652
▁ьб	-9.48708
▁две	-9.48714
▁фици	-9.48741
▁фе	-9.48954
▁мо	-9.49015
▁вице	-9.49044
▁ез	-9.49064
▁11	-9.49084
▁годов	-9.49128
▁дум	-9.49213
▁гар	-9.49307
▁ООН	-9.49391
▁телем	-9.49518
▁тяж	-9.49631
▁очк	-9.49839
▁карт	-9.49976
▁аждый	-9.49998
ще	-9.49999
▁гиона	-9.50025
▁реб	-9.50197
екре	-9.50278
▁АТО	-9.50336
▁конт	-9.50443
▁ланд	-9.50443
▁25	-9.50573
ож	-9.50723
▁нам	-9.50747
▁ника	-9.50771
▁чив	-9.50796
нер	-9.50812
▁ано	-9.5083
▁дух	-9.50939
▁факс	-9.5101
▁огиб	-9.51023
ее	-9.51048
▁риня	-9.5107
▁лега	-9.51131
▁дж	-9.51245
▁еме	-9.51255
▁цена	-9.51269
▁отр	-9.51345
▁арш	-9.51419
▁верх	-9.51421
▁иктор	-9.51653
▁осква	-9.51679
▁слу	-9.51688
▁Ру	-9.5171
▁ак	-9.51901
жен	-9.52299
▁ельн	-9.52399
▁орв	-9.52528
ект	-9.52566
▁екс	-9.52606
▁онер	-9.52633
▁лед	-9.52904
▁гу	-9.53036
рат	-9.5305
▁як	-9.53204
▁18	-9.5325
▁вокат	-9.53352
▁этап	-9.53359
оказ	-9.53384
щен	-9.53408
ынеш	-9.53412
▁июн	-9.53419
▁курор	-9.53469
▁еньше	-9.53479
▁артин	-9.53579
▁олжно	-9.53616
▁род	-9.53631
▁лось	-9.5377
▁олн	-9.53785
нные	-9.53848
▁войн	-9.53884
ден	-9.5403
зна	-9.54059
олаг	-9.5407
▁Крас	-9.54083
▁мов	-9.54091
▁ног	-9.54131
▁мире	-9.54242
▁бр	-9.54249
▁пом	-9.54325
▁плат	-9.54353
▁атег	-9.5437
▁олез	-9.54391
▁ертв	-9.54486
nta	-9.54507
▁оль	-9.54525
▁ций	-9.54703
▁урна	-9.54735
▁лужбы	-9.54872
▁ип	-9.54996
▁бран	-9.55102
▁етом	-9.55133
▁грок	-9.55144
▁вол	-9.5515
▁льные	-9.55245
ерен	-9.55303
▁обир	-9.55354
▁встр	-9.55365
▁эта	-9.55382
▁риск	-9.55427
▁сайт	-9.55652
льк	-9.55698
▁еже	-9.55714
▁Бу	-9.55751
▁могл	-9.55865
▁Кр	-9.55875
▁низ	-9.5589
▁оюз	-9.55949
,5	-9.55964
▁стров	-9.56118
▁ситет	-9.56137
дроб	-9.56137
▁лот	-9.56151
▁сл	-9.56206
▁яг	-9.5632
осто	-9.56487
▁лю	-9.56555
▁везд	-9.56661
▁шлом	-9.56678
▁йтинг	-9.56733
▁объя	-9.56772
▁поезд	-9.56779
▁бой	-9.56859
▁орот	-9.56878
▁ток	-9.56897
▁дев	-9.56923
▁изов	-9.56945
▁сроч	-9.57006
тдел	-9.57123
▁монт	-9.57139
▁уль	-9.57139
вар	-9.57161
▁часов	-9.57278
▁мало	-9.57284
▁ебн	-9.57344
лож	-9.57389
▁ion	-9.57393
▁бел	-9.5741
раин	-9.57467
▁рубеж	-9.57616
▁логи	-9.57681
▁тон	-9.57706
▁тай	-9.57844
▁хара	-9.58022
▁ольш	-9.58104
оп	-9.58157
▁енд	-9.58198
▁ранц	-9.58325
▁Серг	-9.58355
▁ела	-9.58407
▁мощ	-9.58425
▁арта	-9.58468
▁Ru	-9.58619
▁изир	-9.58773
▁устр	-9.58791
▁йд	-9.58947
▁едл	-9.59117
▁коль	-9.59143
▁Фран	-9.59161
▁войны	-9.59323
▁декс	-9.5935
▁обед	-9.59385
▁анг	-9.5962
▁тарт	-9.59817
мог	-9.59891
▁лини	-9.60016
спро	-9.60202
▁акци	-9.60253
▁ион	-9.60258
▁сек	-9.60335
▁чен	-9.60361
▁амп	-9.604
▁омн	-9.60414
▁лиг	-9.60419
▁раг	-9.60428
▁рат	-9.60465
▁опро	-9.60547
▁50	-9.6064
▁Й	-9.60831
рям	-9.60878
▁едве	-9.6088
▁па	-9.60976
▁er	-9.61009
▁губ	-9.61051
▁100	-9.61134
▁бо	-9.61143
▁тяже	-9.61188
▁ствие	-9.61197
▁евер	-9.61318
▁Тр	-9.61502
▁ерты	-9.6152
рез	-9.61525
▁осток	-9.61537
▁мысл	-9.61607
ва	-9.61758
▁фес	-9.61857
▁уточ	-9.61885
▁обой	-9.61946
▁Ге	-9.61964
▁валют	-9.62
▁долго	-9.62092
▁ката	-9.6212
ав	-9.62149
▁шт	-9.62218
▁верг	-9.62287
▁ерал	-9.62332
▁прин	-9.62364
▁ина	-9.62366
▁рх	-9.62389
▁лик	-9.62431
▁14	-9.62447
▁тога	-9.62478
▁цены	-9.62537
▁цель	-9.62559
▁Ник	-9.6271
ия	-9.62757
▁льг	-9.628
▁боров	-9.62881
▁ало	-9.62891
▁соо	-9.62949
▁бам	-9.62949
▁урс	-9.62982
▁дву	-9.6299
▁ребе	-9.63036
тур	-9.63053
▁руп	-9.63131
▁ьер	-9.63177
▁завод	-9.63199
▁казы	-9.63694
лам	-9.63735
▁рад	-9.63741
мп	-9.6376
▁оман	-9.63846
▁брос	-9.63848
▁рус	-9.63853
▁узе	-9.64
▁баз	-9.64036
▁ошло	-9.641
▁омб	-9.64131
▁иц	-9.64155
▁ели	-9.64259
▁иза	-9.64334
▁гла	-9.64361
▁рест	-9.64439
▁оев	-9.64482
ист	-9.64709
▁унд	-9.64739
▁естр	-9.64745
низ	-9.64748
стру	-9.64773
▁ител	-9.64853
▁учн	-9.64884
ичег	-9.64896
▁стана	-9.64942
▁пуска	-9.64947
▁цер	-9.65105
▁ака	-9.65264
мет	-9.65365
ны	-9.65388
▁фун	-9.65451
▁апад	-9.65474
нешн	-9.65773
▁ока	-9.65982
▁иссии	-9.66
▁сир	-9.66065
▁ерд	-9.66113
гор	-9.6612
▁рабо	-9.6625
▁щего	-9.66325
▁исты	-9.66375
▁доро	-9.66458
▁вью	-9.6649
слов	-9.6661
▁ывать	-9.66631
▁ша	-9.66639
сси	-9.66742
▁хода	-9.66768
ким	-9.66881
▁дин	-9.66887
▁ведо	-9.66935
▁глу	-9.66948
енд	-9.66966
a	-9.67036
▁остр	-9.67122
▁16	-9.67146
▁бал	-9.67189
▁ожд	-9.67227
▁ож	-9.67259
▁ерг	-9.67268
▁оско	-9.67304
▁еб	-9.67471
▁ори	-9.67554
▁яти	-9.67718
▁рибы	-9.67768
▁выб	-9.67874
▁мод	-9.68058
ну	-9.6806
роп	-9.68063
▁нято	-9.68138
тем	-9.68238
▁ндре	-9.68238
▁оче	-9.68487
▁хе	-9.68608
▁таж	-9.6889
▁ица	-9.6892
▁ерм	-9.68956
▁остов	-9.68975
▁нир	-9.68975
▁тонн	-9.69051
▁рен	-9.69051
▁ипл	-9.69081
▁пенс	-9.69137
▁овер	-9.69184
▁овая	-9.69299
▁союз	-9.69304
▁тре	-9.69345
▁четы	-9.69435
▁меры	-9.69523
▁арт	-9.69592
▁лач	-9.697
▁ранен	-9.69708
▁рис	-9.69725
▁ъе	-9.69775
ся	-9.698
▁оч	-9.69916
нят	-9.69952
▁Re	-9.69968
▁места	-9.69998
▁ниг	-9.70101
▁боро	-9.70197
▁етер	-9.70253
▁ест	-9.70309
▁13	-9.70465
▁иях	-9.70499
▁17	-9.70575
дов	-9.70591
▁ыва	-9.70603
▁крес	-9.70628
▁анны	-9.70714
▁ЦБ	-9.70723
▁менты	-9.7077
▁ометр	-9.70845
▁иев	-9.70851
▁актер	-9.70872
▁лучше	-9.70903
▁ну	-9.70905
▁исхо	-9.70999
▁ты	-9.71041
едов	-9.71131
да	-9.71186
▁става	-9.71307
гра	-9.71308
▁моде	-9.71565
▁йте	-9.71583
▁омат	-9.71672
▁ап	-9.71704
▁22	-9.7172
▁овы	-9.71818
▁юри	-9.71955
▁родн	-9.72049
▁огн	-9.72137
▁фик	-9.7237
▁ерн	-9.72602
▁лан	-9.72632
▁УК	-9.72683
жно	-9.72705
ная	-9.72746
▁ита	-9.72789
▁ею	-9.72851
▁яс	-9.72899
верд	-9.72912
▁рик	-9.72964
▁нта	-9.72985
ывш	-9.73109
ми	-9.73217
▁атри	-9.73244
▁бок	-9.73253
▁авр	-9.73279
▁ельс	-9.73372
лит	-9.73437
▁рби	-9.73472
▁ойск	-9.7351
▁пояс	-9.73527
ную	-9.73592
▁еты	-9.73696
▁лаб	-9.73868
▁иям	-9.73931
▁дава	-9.73958
▁Га	-9.7414
▁расп	-9.74154
▁кк	-9.74173
▁дар	-9.74299
▁кил	-9.74299
▁сей	-9.74312
▁ути	-9.7436
сто	-9.74371
▁роста	-9.74492
▁тип	-9.74518
▁бл	-9.74525
▁танц	-9.74544
▁льный	-9.74588
▁нок	-9.74642
▁теку	-9.74654
тал	-9.74859
▁кот	-9.74989
▁Але	-9.75005
▁нуть	-9.7503
▁акции	-9.75095
▁пам	-9.75121
▁елу	-9.75128
▁живо	-9.75218
▁чи	-9.75228
▁ши	-9.7533
▁тут	-9.75392
▁кос	-9.7541
▁нач	-9.75563
▁нис	-9.75829
d	-9.76097
▁гер	-9.76117
во	-9.76132
▁дем	-9.7648
▁чтоб	-9.7653
али	-9.76628
пад	-9.76668
олод	-9.76772
▁оля	-9.76804
▁Пар	-9.77004
▁свет	-9.77009
итал	-9.77117
▁Ал	-9.77158
▁игу	-9.77191
уб	-9.77238
▁ента	-9.7731
тоит	-9.7743
▁етк	-9.77617
▁бит	-9.77659
луча	-9.77719
2	-9.77735
▁ене	-9.77805
▁ходят	-9.77833
ус	-9.77843
▁еву	-9.77852
▁дл	-9.779
▁окон	-9.78035
▁нужн	-9.78086
▁еха	-9.78134
▁йм	-9.7817
▁шь	-9.784
▁лены	-9.7841
▁фил	-9.78444
▁ща	-9.78453
▁зар	-9.78507
▁ыб	-9.78879
▁пора	-9.79071
▁олга	-9.79096
▁ажи	-9.79156
▁зык	-9.79413
нной	-9.79503
▁люд	-9.79689
▁The	-9.79705
▁мину	-9.79782
▁Эр	-9.79787
▁боле	-9.79791
▁ших	-9.79848
▁атар	-9.79873
▁орис	-9.79903
▁овик	-9.79945
▁аты	-9.80046
▁зав	-9.80153
▁реф	-9.80214
▁лаз	-9.80273
▁гри	-9.80274
▁21	-9.80331
▁нул	-9.80351
▁фра	-9.80366
▁ева	-9.80381
▁иниц	-9.80441
▁легк	-9.80567
▁СССР	-9.80658
▁елк	-9.8081
▁озни	-9.80836
▁адле	-9.80946
▁ъя	-9.81004
▁ондо	-9.81011
Мы	-9.81015
оч	-9.81017
▁сть	-9.8103
▁кате	-9.81058
▁фр	-9.81165
▁аге	-9.81308
▁вар	-9.81363
▁19	-9.81515
▁лер	-9.8153
▁ассе	-9.81566
▁овета	-9.816
▁вез	-9.81907
▁асно	-9.81928
▁ага	-9.81985
▁няли	-9.82085
▁порта	-9.82108
▁зер	-9.82288
▁меро	-9.82292
▁кра	-9.8232
▁истов	-9.8237
▁ьше	-9.82418
▁уне	-9.82552
▁тавки	-9.82638
▁гори	-9.83105
▁ниже	-9.83177
ченк	-9.83199
жал	-9.83222
▁ги	-9.83259
▁лам	-9.83271
варт	-9.8328
соб	-9.83382
▁вор	-9.83411
▁Че	-9.83473
▁кри	-9.83532
▁лити	-9.83556
▁спор	-9.83558
олож	-9.83561
▁лез	-9.83692
▁уст	-9.83737
▁илу	-9.83766
▁­	-9.83859
▁реду	-9.83922
▁ыплат	-9.84115
▁гост	-9.84132
▁мигр	-9.84207
ульт	-9.84255
▁нстр	-9.84263
▁рг	-9.84264
▁еск	-9.84282
▁лит	-9.84308
▁сто	-9.84363
▁анд	-9.84608
▁алин	-9.84613
▁окуп	-9.84683
оль	-9.84756
▁льян	-9.84824
▁рец	-9.84866
▁реди	-9.84877
▁аки	-9.84919
▁24	-9.84975
▁телям	-9.84988
▁хан	-9.85026
кабр	-9.85187
▁усск	-9.85346
▁кер	-9.85625
▁ловия	-9.85655
▁фин	-9.85684
▁маш	-9.85708
▁виз	-9.85719
▁имени	-9.85783
▁вас	-9.85969
▁ООО	-9.86012
▁ктор	-9.86042
иц	-9.86079
усск	-9.86176
▁ощ	-9.86226
▁аги	-9.8623
▁чн	-9.86266
▁олет	-9.86294
▁режи	-9.86503
обра	-9.86546
▁ух	-9.86594
ира	-9.8665
ают	-9.86658
▁хр	-9.86805
чно	-9.86827
▁евр	-9.86933
ишь	-9.87063
▁рынк	-9.87075
▁илы	-9.87214
▁омис	-9.87245
▁орк	-9.87336
▁рия	-9.87397
▁зло	-9.87446
▁троль	-9.87459
Я	-9.87484
▁кро	-9.87494
▁гра	-9.87567
▁скому	-9.87567
▁През	-9.8762
▁муни	-9.87808
▁28	-9.8781
▁неу	-9.87862
▁ing	-9.87906
▁круг	-9.87956
▁чат	-9.88005
мож	-9.88043
диц	-9.88144
▁канд	-9.88204
ерма	-9.88359
ерси	-9.88387
нее	-9.88504
вы	-9.88537
▁нф	-9.88575
y	-9.88579
▁атели	-9.88683
▁пал	-9.88836
▁S	-9.88924
▁ечен	-9.88952
▁лови	-9.89151
▁аха	-9.89177
▁Па	-9.89217
иним	-9.89254
еч	-9.89271
▁оши	-9.89606
▁ником	-9.89675
дель	-9.89687
▁вп	-9.89695
▁Ан	-9.8982
▁грес	-9.89952
▁ениях	-9.89957
▁хар	-9.89997
нец	-9.90072
▁платы	-9.9008
▁инк	-9.90106
▁гиб	-9.90136
▁траж	-9.90314
омоч	-9.90385
▁быст	-9.90389
ализ	-9.90436
рупп	-9.90441
еньш	-9.90454
▁иков	-9.905
▁ообщ	-9.90534
ии	-9.90653
аю	-9.90871
титу	-9.90879
▁акет	-9.91097
▁ыгр	-9.91106
▁мите	-9.91147
▁олд	-9.91163
▁рок	-9.91222
▁рай	-9.91344
▁абл	-9.91359
▁ъед	-9.91368
▁итар	-9.91391
▁роли	-9.91439
▁оне	-9.91491
▁Андр	-9.91523
▁аст	-9.91543
▁лу	-9.91558
▁нно	-9.91758
▁яв	-9.91834
▁льск	-9.91871
▁пада	-9.91917
ници	-9.91926
▁ками	-9.91932
▁ети	-9.91934
▁инци	-9.91995
ающ	-9.92106
гуля	-9.92165
▁ращ	-9.92197
▁ладе	-9.92202
▁реде	-9.92216
▁овле	-9.92255
▁диа	-9.92428
▁регу	-9.92448
▁ыта	-9.92544
▁РБК	-9.9258
▁пони	-9.92718
анц	-9.9272
▁эр	-9.92728
▁роль	-9.92777
▁мина	-9.93
стро	-9.9306
▁рии	-9.93086
▁еля	-9.93088
▁разв	-9.93093
▁ма	-9.93244
▁проч	-9.93277
▁ога	-9.93288
▁иль	-9.93372
▁оды	-9.9344
▁дил	-9.93458
▁ще	-9.93484
▁чувс	-9.93651
▁дых	-9.93652
▁Imag	-9.93666
▁шк	-9.93857
йс	-9.93921
▁+	-9.93977
чен	-9.94063
▁уз	-9.94063
▁тра	-9.94072
▁26	-9.94167
▁ари	-9.94302
▁див	-9.94312
▁орон	-9.94509
кой	-9.94567
▁щи	-9.94603
▁ради	-9.94718
▁аев	-9.9472
▁23	-9.94788
▁омер	-9.94827
ения	-9.9484
▁брит	-9.94945
▁лав	-9.94998
▁нтар	-9.95009
▁Ле	-9.95057
▁кция	-9.9506
▁буд	-9.95201
▁тог	-9.95204
▁льная	-9.95218
▁дале	-9.9537
▁спи	-9.95377
ок	-9.95379
аже	-9.95387
епер	-9.95409
▁юк	-9.95427
▁ня	-9.9548
▁40	-9.95609
▁мск	-9.95619
▁27	-9.95742
▁носи	-9.95903
▁ходя	-9.9594
▁дом	-9.96054
▁вое	-9.96148
ажн	-9.96196
▁деб	-9.96262
борн	-9.9637
▁яде	-9.96384
▁лению	-9.96543
▁озда	-9.96689
▁брат	-9.96702
▁зов	-9.96721
▁еев	-9.96779
▁поп	-9.96841
▁оюза	-9.96867
▁оппо	-9.96869
▁ппо	-9.96894
быт	-9.96966
АО	-9.97147
ый	-9.97229
▁выш	-9.9737
▁сет	-9.97498
ъяс	-9.97559
▁соц	-9.97603
▁рон	-9.97663
▁актор	-9.9768
▁вку	-9.97683
▁МЧС	-9.97707
▁цк	-9.97808
пас	-9.97895
▁Ки	-9.97944
▁буде	-9.97947
▁ге	-9.97996
▁гры	-9.98112
кт	-9.98405
▁тие	-9.9869
си	-9.98721
▁Мос	-9.98751
▁кас	-9.98879
нию	-9.98924
▁енск	-9.99015
▁кал	-9.99122
▁A	-9.99124
▁илов	-9.99187
щий	-9.99246
▁стой	-9.99297
▁екрет	-9.99434
▁листы	-9.9953
▁ту	-9.99599
О	-9.9961
▁ысок	-9.99613
▁ниж	-9.99756
▁реда	-9.99761
ольн	-9.99882
▁ИГ	-9.99891
▁дог	-10.0009
▁ател	-10.0011
▁осн	-10.0015
▁сед	-10.002
▁айк	-10.0039
▁ду	-10.0039
ви	-10.0041
▁окра	-10.0048
▁арх	-10.0048
▁рове	-10.006
▁русс	-10.0064
▁оло	-10.0067
ек	-10.0071
▁пор	-10.0074
▁верс	-10.0082
▁ульт	-10.0098
крат	-10.0099
▁зрен	-10.0102
▁ав	-10.0105
▁орн	-10.0119
▁анти	-10.0129
▁ксп	-10.0135
▁сель	-10.0138
▁тных	-10.0139
бед	-10.0156
▁пок	-10.0162
▁ндар	-10.0171
зв	-10.0174
тали	-10.0187
▁фер	-10.0187
лон	-10.019
▁олос	-10.0191
▁леж	-10.02
▁ейн	-10.0201
▁дали	-10.0202
▁стей	-10.0214
▁еда	-10.0219
▁силь	-10.0221
▁жива	-10.0221
аса	-10.0224
оста	-10.023
▁лко	-10.0235
▁гре	-10.0237
▁щих	-10.0239
▁вода	-10.0242
▁никам	-10.026
▁пило	-10.0269
▁лон	-10.0269
▁очт	-10.0275
кци	-10.0277
▁льше	-10.029
▁мост	-10.0295
бо	-10.0314
▁нац	-10.0315
▁меди	-10.0328
▁менн	-10.0346
▁иг	-10.0357
тир	-10.0361
▁усло	-10.0364
▁аз	-10.037
▁уш	-10.0382
▁ейс	-10.0383
▁рая	-10.0385
▁цент	-10.0399
рск	-10.0412
▁елен	-10.0416
▁кст	-10.0431
▁хл	-10.0443
▁всю	-10.0446
▁хран	-10.0463
▁чай	-10.0475
▁енс	-10.0476
▁29	-10.0478
▁смог	-10.0487
▁ука	-10.0491
▁Ну	-10.0513
▁иби	-10.0536
▁дея	-10.0556
▁озит	-10.0561
▁i	-10.0562
мина	-10.0566
арь	-10.0577
уляр	-10.0579
▁200	-10.058
про	-10.059
▁рам	-10.0591
▁мил	-10.0598
▁ви	-10.0601
▁ваний	-10.0608
▁уга	-10.0621
нд	-10.0623
▁мени	-10.0632
пеш	-10.0633
еду	-10.0641
▁нд	-10.0648
▁СКР	-10.0702
▁оток	-10.072
▁есс	-10.0723
▁рко	-10.0743
▁ото	-10.0758
▁Гер	-10.0763
▁ласть	-10.0769
ки	-10.077
▁ывал	-10.0771
▁абс	-10.0774
▁рина	-10.0781
арти	-10.0784
▁ума	-10.0799
▁дут	-10.0819
це	-10.0827
▁инд	-10.0831
▁ерк	-10.0835
▁дц	-10.0836
▁Пос	-10.0844
▁Моск	-10.0865
▁шев	-10.0879
▁енное	-10.0894
▁йским	-10.0895
7	-10.0898
▁акс	-10.0903
▁Аб	-10.0906
▁итет	-10.0908
▁пуля	-10.0911
▁ска	-10.0921
▁яко	-10.0921
▁Ха	-10.0924
▁эле	-10.0932
▁асп	-10.0936
▁тю	-10.0943
оциа	-10.0943
▁риг	-10.0944
▁очи	-10.0946
▁айд	-10.0946
ния	-10.0957
▁ищ	-10.0976
▁Сири	-10.0977
▁стои	-10.0977
▁ДТП	-10.0984
▁мена	-10.0984
▁рут	-10.0992
▁Су	-10.1019
▁озв	-10.1023
▁еш	-10.1027
▁тали	-10.1031
▁йл	-10.1037
▁гн	-10.1039
▁енда	-10.1046
▁азета	-10.1049
▁чу	-10.1061
▁оли	-10.1063
лат	-10.1076
▁епл	-10.1078
крет	-10.1079
▁зд	-10.108
▁сор	-10.1084
▁чев	-10.109
▁воч	-10.1091
▁жер	-10.1091
▁ерто	-10.1104
С	-10.1107
точн	-10.1109
▁ризм	-10.111
▁необ	-10.1113
нкт	-10.1118
▁овое	-10.1124
озр	-10.1127
▁жа	-10.1139
▁сыл	-10.1144
▁прие	-10.1145
▁пе	-10.1145
▁сами	-10.1147
▁рави	-10.1149
▁com	-10.1149
енси	-10.1152
йц	-10.1156
▁ируют	-10.1186
▁ерии	-10.1196
▁трана	-10.12
▁Кл	-10.1202
▁вто	-10.1209
▁пись	-10.1211
▁слож	-10.1217
▁щен	-10.1226
4	-10.1234
▁иде	-10.1235
дер	-10.1239
▁ище	-10.1247
▁моск	-10.1259
▁en	-10.1263
▁хол	-10.1294
▁Гр	-10.1296
▁аде	-10.1302
▁ирм	-10.1307
▁може	-10.131
▁чан	-10.1316
вис	-10.1319
▁усл	-10.1321
▁цеп	-10.1324
▁преж	-10.1327
▁ходов	-10.133
вмес	-10.1333
▁сим	-10.1337
▁пог	-10.1348
▁вс	-10.1361
▁моло	-10.1367
▁морск	-10.1375
▁шин	-10.1375
▁роиз	-10.1382
▁ея	-10.1384
▁ченко	-10.1387
ян	-10.1401
мес	-10.1439
▁еле	-10.1456
▁раниц	-10.1457
▁ович	-10.1464
▁дии	-10.1473
▁луж	-10.1474
▁той	-10.1496
▁елю	-10.1526
▁Пол	-10.1527
▁жить	-10.1548
)	-10.1558
▁ерно	-10.1558
▁ени	-10.1559
▁тане	-10.157
▁тов	-10.1574
▁юю	-10.1577
▁га	-10.158
▁ива	-10.1586
▁сия	-10.1592
▁омму	-10.1603
убер	-10.1605
▁лле	-10.1612
▁олит	-10.1613
▁ды	-10.1615
урс	-10.1616
▁book	-10.1632
▁ложи	-10.1634
▁ацие	-10.1643
арит	-10.1646
▁сут	-10.1662
▁риз	-10.1663
▁амб	-10.1673
тве	-10.1673
став	-10.1675
▁ентов	-10.1684
▁сцен	-10.1686
▁орг	-10.1692
▁ху	-10.1695
тар	-10.1707
▁ФСБ	-10.171
▁нед	-10.172
▁чест	-10.1723
▁ЦСКА	-10.1729
▁зации	-10.1729
▁прес	-10.1752
вари	-10.1755
▁имен	-10.1756
▁ерс	-10.1757
▁ба	-10.1759
▁легко	-10.1768
уж	-10.178
▁шего	-10.1785
▁щиков	-10.1791
▁олл	-10.1797
▁жало	-10.18
▁ресс	-10.1812
▁лек	-10.1812
▁скоро	-10.1818
▁явл	-10.1819
▁Фр	-10.1822
▁лица	-10.1826
▁тян	-10.1831
▁юн	-10.1838
▁изма	-10.1842
▁ауд	-10.1842
▁удь	-10.185
▁боту	-10.1855
▁al	-10.1857
▁рал	-10.1862
▁ург	-10.1863
раб	-10.1871
рак	-10.1882
▁дав	-10.1885
фер	-10.1895
▁осла	-10.1899
те	-10.1907
чит	-10.1913
▁доп	-10.1921
▁игн	-10.193
егул	-10.1941
▁вари	-10.1943
▁орта	-10.1955
▁обо	-10.1958
убли	-10.1968
трои	-10.1973
▁ошла	-10.1974
етер	-10.1976
▁лох	-10.1977
▁ули	-10.198
▁сии	-10.1981
▁детс	-10.1984
▁еч	-10.1988
▁аж	-10.1996
▁таб	-10.1998
▁тери	-10.201
▁омин	-10.2011
▁юб	-10.2014
▁щем	-10.2018
▁шу	-10.2021
чет	-10.2024
▁фф	-10.2026
▁500	-10.2031
▁утк	-10.2033
▁давн	-10.2051
ерв	-10.2055
▁ерво	-10.2062
жды	-10.2065
▁проса	-10.2067
▁хоз	-10.2078
▁жал	-10.209
▁кцию	-10.2092
▁Fac	-10.2095
▁наль	-10.2101
▁рот	-10.2102
▁пали	-10.2104
осп	-10.211
▁ожник	-10.2119
▁колл	-10.2135
граф	-10.2135
▁арл	-10.2138
тивн	-10.2138
▁реч	-10.2151
реж	-10.2152
▁зал	-10.2155
▁енит	-10.2157
▁рази	-10.2174
▁рач	-10.2175
▁скими	-10.2181
▁Ла	-10.2185
▁аф	-10.2185
▁ине	-10.2194
▁Ист	-10.2219
ию	-10.2223
▁31	-10.2224
▁ьми	-10.2231
▁форм	-10.2234
гл	-10.2239
▁бк	-10.2242
▁сон	-10.2249
▁тябре	-10.2265
▁гат	-10.2266
▁едж	-10.2282
▁ошл	-10.2287
▁ньк	-10.2287
▁ываю	-10.2288
▁арь	-10.2295
▁ода	-10.2298
▁ошен	-10.2322
▁льным	-10.2326
▁нение	-10.2328
▁аще	-10.233
▁Со	-10.2341
▁Гор	-10.2346
ется	-10.2347
▁отом	-10.2351
▁вам	-10.2354
▁жи	-10.2357
▁бав	-10.2358
0	-10.2364
▁рств	-10.237
▁гин	-10.2374
▁тром	-10.2374
ыта	-10.2375
▁йно	-10.2377
▁Те	-10.2382
▁Ме	-10.2388
▁лаго	-10.2388
▁C	-10.2392
▁торов	-10.2402
▁мур	-10.2413
ас	-10.2416
▁твер	-10.2417
▁ва	-10.242
▁сф	-10.2422
▁рель	-10.2425
▁икл	-10.2426
▁тки	-10.2426
▁еги	-10.2429
▁ia	-10.2448
▁одни	-10.2466
купа	-10.2474
▁ходы	-10.2477
▁адк	-10.2478
l	-10.2482
▁рово	-10.2483
мят	-10.2484
▁олк	-10.2487
▁жан	-10.2491
▁60	-10.2498
▁зи	-10.2506
▁дер	-10.2521
▁метро	-10.2528
▁ипа	-10.2532
▁дор	-10.2554
▁ушк	-10.2555
▁века	-10.2566
▁ово	-10.2568
▁нс	-10.2573
ут	-10.2582
▁ате	-10.2587
▁ужден	-10.2606
m	-10.2606
дче	-10.2614
▁плате	-10.2618
▁ыч	-10.2623
▁иги	-10.2623
▁яза	-10.2629
▁рае	-10.2638
▁мерн	-10.264
▁енным	-10.2645
▁рова	-10.2648
▁олод	-10.265
▁торо	-10.265
пер	-10.265
▁омни	-10.2652
дпис	-10.2658
▁Ту	-10.2685
▁рин	-10.2686
вес	-10.269
▁ерж	-10.2712
ым	-10.2732
▁еству	-10.2741
▁Го	-10.2757
▁мар	-10.2762
▁йства	-10.2764
▁кат	-10.2782
▁поя	-10.2782
▁спрос	-10.28
лаш	-10.28
лет	-10.281
▁оэ	-10.2819
▁суде	-10.2819
▁Пер	-10.2823
▁наб	-10.2828
▁рели	-10.2835
очк	-10.2841
▁ежи	-10.2852
▁астро	-10.2902
▁расте	-10.2914
▁F	-10.292
▁оба	-10.2921
▁рд	-10.2952
▁авать	-10.2962
ост	-10.2981
▁uters	-10.2983
▁ады	-10.2992
▁стк	-10.3002
▁ечь	-10.3003
▁Му	-10.3014
▁имн	-10.3022
▁азе	-10.3025
▁вен	-10.3029
▁ада	-10.3037
▁асти	-10.3054
▁300	-10.3058
вов	-10.3075
▁айне	-10.3084
▁уг	-10.3091
▁ган	-10.3114
▁здо	-10.3115
▁ещ	-10.3118
нск	-10.3124
теч	-10.3126
▁ытия	-10.3139
▁зии	-10.3141
▁кам	-10.3144
▁кло	-10.3149
ков	-10.3158
▁елл	-10.3172
▁омп	-10.3186
емь	-10.3189
▁ура	-10.3196
▁зах	-10.32
▁Их	-10.3205
биль	-10.3209
▁есь	-10.3225
▁кова	-10.3227
▁щие	-10.3227
▁влад	-10.3232
▁ича	-10.3238
▁мно	-10.3255
▁Одн	-10.3256
▁ойдет	-10.3259
▁авар	-10.326
▁пов	-10.3265
▁июл	-10.3271
У	-10.3287
▁вали	-10.3288
дн	-10.3316
▁сьм	-10.3323
▁асть	-10.3326
▁обр	-10.3335
▁Apple	-10.334
▁Кро	-10.3341
▁айм	-10.3348
▁лом	-10.3362
▁эм	-10.3366
▁гал	-10.3388
▁ериал	-10.3399
наль	-10.3405
▁таль	-10.3421
онч	-10.3426
▁стью	-10.3427
елов	-10.3432
▁ерев	-10.3433
▁авших	-10.3436
глав	-10.3439
▁ади	-10.344
са	-10.344
▁шка	-10.3458
ьма	-10.3464
воем	-10.3469
жн	-10.3477
есси	-10.3487
ьги	-10.3489
▁мя	-10.349
▁ыша	-10.3505
А	-10.3506
уз	-10.3516
▁овар	-10.3516
▁итик	-10.3527
▁акл	-10.3529
▁акан	-10.353
▁ойти	-10.3561
▁яже	-10.3562
даж	-10.357
▁тран	-10.3572
▁бро	-10.3579
▁иции	-10.3582
▁екл	-10.3584
▁ссе	-10.359
▁on	-10.3596
▁I	-10.3596
▁анам	-10.3603
▁уме	-10.3615
▁выд	-10.3632
▁тн	-10.3658
▁глас	-10.3675
▁аши	-10.3682
▁сове	-10.3692
▁хим	-10.37
▁оя	-10.3701
▁Аз	-10.3717
▁циал	-10.372
ина	-10.372
▁ерри	-10.3724
▁яр	-10.3724
▁оци	-10.3726
▁поте	-10.3726
▁сум	-10.3733
▁Air	-10.3748
▁лей	-10.3757
укт	-10.3767
отив	-10.3792
▁еру	-10.38
▁B	-10.38
▁ета	-10.38
▁истам	-10.38
▁прек	-10.3802
▁аю	-10.3802
етве	-10.3823
▁тил	-10.3823
▁ород	-10.3829
▁идно	-10.3837
осм	-10.3842
▁анов	-10.3846
▁жизн	-10.3848
▁стен	-10.3853
▁E	-10.386
▁разу	-10.3862
▁ера	-10.3873
ание	-10.3881
▁ария	-10.3933
ской	-10.3935
▁асто	-10.3938
один	-10.3954
▁N	-10.3957
▁икр	-10.396
▁йств	-10.3962
итик	-10.3965
орош	-10.3971
сим	-10.3972
▁лл	-10.3978
▁еред	-10.399
▁ерл	-10.3993
▁вли	-10.4007
пуст	-10.4019
▁поб	-10.4032
▁оно	-10.4036
▁борот	-10.4047
1	-10.4055
▁70	-10.406
▁рте	-10.4069
▁омоч	-10.4071
▁икой	-10.4073
▁оме	-10.4078
▁гро	-10.4083
▁сид	-10.4106
спор	-10.4111
есь	-10.4116
▁дни	-10.4126
▁иска	-10.4147
▁ерни	-10.4154
▁ВВП	-10.4168
▁эф	-10.4174
▁смер	-10.4193
▁атом	-10.4204
▁Та	-10.4207
▁умы	-10.4217
▁ульта	-10.4238
▁яются	-10.4251
▁елов	-10.4252
илли	-10.4267
▁Мих	-10.4267
▁сче	-10.4282
▁нка	-10.4295
▁лем	-10.4301
▁збе	-10.4302
▁чис	-10.4306
▁рь	-10.4313
▁маль	-10.4314
▁сш	-10.4315
▁сла	-10.4319
▁чета	-10.4319
▁адо	-10.4326
ах	-10.4331
▁ину	-10.4338
ель	-10.434
▁алог	-10.4346
▁паде	-10.4347
▁увств	-10.4349
▁роме	-10.4353
▁трети	-10.4354
▁чт	-10.4359
▁охо	-10.4367
▁етро	-10.4384
▁авля	-10.4387
▁мф	-10.439
бу	-10.4395
▁суль	-10.4399
леж	-10.44
разд	-10.4406
▁рини	-10.4406
▁W	-10.4411
▁Ре	-10.4413
ман	-10.4416
▁екц	-10.4426
▁бед	-10.4437
▁P	-10.4459
▁льс	-10.4466
вые	-10.4486
h	-10.449
лоща	-10.4491
вш	-10.4493
▁йство	-10.4502
▁стане	-10.4504
▁ьм	-10.4505
уч	-10.4511
▁ау	-10.4538
▁реж	-10.4539
дар	-10.4542
▁КНДР	-10.4544
▁G	-10.4555
▁аков	-10.4571
▁тию	-10.4573
▁льд	-10.4575
▁раи	-10.4577
▁аша	-10.4594
▁ВТБ	-10.4596
▁Ин	-10.4614
обы	-10.4617
▁яж	-10.4621
▁исан	-10.4626
▁Ком	-10.4655
стре	-10.4659
▁рофе	-10.4676
▁жит	-10.4682
▁енты	-10.4708
▁лива	-10.4736
▁тория	-10.4742
▁авка	-10.4747
▁оком	-10.4755
▁поле	-10.4756
писа	-10.4763
▁сол	-10.477
▁удо	-10.477
p	-10.4776
ряд	-10.4779
▁ери	-10.4781
▁кс	-10.4788
▁афик	-10.4792
▁обс	-10.4806
▁лид	-10.4816
▁мб	-10.482
▁ниве	-10.4832
▁емп	-10.4835
▁км	-10.4835
▁туа	-10.4842
▁уру	-10.4849
▁орми	-10.4873
▁уры	-10.4896
зи	-10.4899
вают	-10.4914
▁шо	-10.4916
▁отн	-10.4927
▁ско	-10.4935
▁Twi	-10.4936
ран	-10.4937
▁рган	-10.494
атер	-10.4942
вн	-10.4949
▁мае	-10.495
▁дно	-10.4953
▁ениям	-10.4962
▁сс	-10.4963
▁шло	-10.4963
▁нием	-10.4966
▁св	-10.4975
▁дат	-10.4988
▁Сев	-10.4993
▁укра	-10.4995
▁чино	-10.5
при	-10.5004
▁лес	-10.5017
▁номи	-10.5019
▁рим	-10.5036
рма	-10.5039
зиц	-10.5039
▁апре	-10.5053
иск	-10.5067
▁tter	-10.507
▁атери	-10.5075
орма	-10.5083
▁тепе	-10.5087
▁вок	-10.5105
▁юм	-10.5109
▁тск	-10.5112
итет	-10.5113
▁СК	-10.5117
рг	-10.5124
▁жн	-10.5141
g	-10.515
▁Fi	-10.5151
▁дпис	-10.5154
▁док	-10.5171
▁1,	-10.5175
▁лично	-10.5187
тся	-10.519
▁дос	-10.5194
▁евск	-10.5215
▁вак	-10.5219
▁озг	-10.522
00	-10.5243
▁торы	-10.5257
▁Goo	-10.5287
▁gle	-10.5288
▁роше	-10.5291
▁уша	-10.5298
рег	-10.53
▁ндр	-10.5304
▁нию	-10.5331
▁атл	-10.5341
▁уки	-10.5349
▁Сов	-10.5358
▁кус	-10.5378
▁неп	-10.5381
▁пет	-10.5383
▁сот	-10.5384
пита	-10.5385
▁ете	-10.5386
▁щин	-10.5398
▁жно	-10.5399
▁лков	-10.5402
▁000	-10.5423
▁ига	-10.543
рос	-10.5467
▁азы	-10.5479
▁вой	-10.5486
▁око	-10.5487
▁яться	-10.5496
▁банка	-10.5508
▁in	-10.5526
ло	-10.5541
▁мель	-10.5544
▁отя	-10.5556
▁рана	-10.5567
▁ашн	-10.5567
▁ЦИК	-10.5568
▁лите	-10.557
▁аба	-10.5574
9	-10.5581
▁онн	-10.5583
▁очь	-10.5583
▁ателя	-10.5585
оз	-10.5586
▁иже	-10.5591
▁80	-10.5609
ня	-10.5629
▁стер	-10.5648
▁еду	-10.565
▁це	-10.5657
▁наз	-10.5672
▁леп	-10.5674
▁роде	-10.5675
▁си	-10.5681
ту	-10.5683
▁иро	-10.5688
э	-10.5691
ез	-10.5696
▁евра	-10.5707
▁арн	-10.5738
ным	-10.5744
▁вили	-10.5746
ял	-10.5755
одит	-10.5766
▁пла	-10.5777
▁икт	-10.5784
▁X	-10.5784
▁абот	-10.5789
▁емн	-10.5791
▁осно	-10.5797
▁ебе	-10.5811
▁зе	-10.5815
▁елове	-10.584
▁рошло	-10.5841
▁отре	-10.5851
▁News	-10.5856
▁адим	-10.5881
5	-10.5885
▁оди	-10.5886
▁вши	-10.5888
▁алья	-10.59
▁смат	-10.591
▁Цен	-10.592
▁ких	-10.592
▁енер	-10.5923
▁асса	-10.5924
▁КПРФ	-10.5944
-	-10.5953
▁w	-10.5962
▁авил	-10.5962
ивер	-10.5962
▁Ду	-10.5974
▁имат	-10.5979
▁cap	-10.5982
▁олиц	-10.6004
▁век	-10.6009
▁Ран	-10.6021
▁прив	-10.6026
орог	-10.6027
мети	-10.6027
▁ино	-10.6041
▁НИ	-10.6043
▁азу	-10.6049
▁пера	-10.6049
был	-10.6057
▁учил	-10.6059
·	-10.6072
▁яз	-10.6096
▁аск	-10.6124
▁оке	-10.6143
▁ати	-10.6165
▁тек	-10.6175
поз	-10.6177
▁дне	-10.6185
▁жид	-10.6197
▁an	-10.621
c	-10.6218
▁бора	-10.6231
▁инст	-10.6243
▁инов	-10.6255
нич	-10.6269
емл	-10.6274
▁ега	-10.6279
▁кв	-10.6282
▁дви	-10.6282
К	-10.6285
▁филь	-10.6285
▁сан	-10.6309
▁идел	-10.6319
▁нист	-10.6319
▁150	-10.6328
▁соци	-10.6344
печ	-10.6345
▁АО	-10.6354
шли	-10.6375
еж	-10.6382
▁естн	-10.6389
▁ГИБДД	-10.6396
▁хоте	-10.6398
или	-10.6399
▁ушен	-10.6437
▁ГУ	-10.6452
нес	-10.6456
▁WADA	-10.6457
▁анц	-10.6458
▁сег	-10.6476
ерг	-10.6489
▁толи	-10.6495
▁лизи	-10.65
▁пел	-10.6501
▁истр	-10.651
▁'	-10.6521
T	-10.6525
▁лома	-10.6526
йд	-10.6528
▁тура	-10.6532
▁еф	-10.6542
▁Ее	-10.6549
кр	-10.6561
его	-10.6567
▁кров	-10.6567
▁бю	-10.6568
▁Mo	-10.6572
▁овки	-10.6586
8	-10.6592
▁есно	-10.6606
▁раш	-10.661
▁ош	-10.6612
▁емен	-10.6613
▁наче	-10.6614
▁рн	-10.6648
▁сяч	-10.6652
▁нает	-10.6664
▁тора	-10.6668
▁жест	-10.6693
▁янс	-10.6718
▁рани	-10.6728
▁ужд	-10.6729
▁хор	-10.6752
▁елем	-10.6762
▁ата	-10.6768
▁ровск	-10.6768
▁цам	-10.6775
▁ДНР	-10.6776
▁арла	-10.68
аш	-10.6819
брат	-10.682
▁син	-10.6843
▁емл	-10.6859
▁еров	-10.6861
▁кому	-10.6865
▁ливо	-10.687
▁ержи	-10.6877
▁иш	-10.6881
▁сень	-10.6885
▁тих	-10.6893
▁400	-10.6912
гол	-10.6926
▁льц	-10.6935
▁one	-10.6939
ранс	-10.6941
▁пря	-10.695
▁рно	-10.6951
игра	-10.6954
▁рож	-10.6972
иж	-10.6977
▁оспо	-10.6985
x	-10.6995
ям	-10.7014
ровк	-10.7022
ктор	-10.7023
реди	-10.7029
яет	-10.7039
▁иму	-10.7054
k	-10.7076
бли	-10.7077
▁уле	-10.7081
▁отни	-10.7086
▁тиков	-10.7088
▁эп	-10.7092
енц	-10.7108
▁90	-10.7124
▁copy	-10.7139
▁R	-10.7142
слав	-10.7146
▁жур	-10.7148
▁et	-10.7161
▁ооб	-10.7163
сти	-10.7168
▁лы	-10.7186
▁раже	-10.7204
:	-10.7206
▁плен	-10.7215
er	-10.7226
▁тям	-10.7246
ъяв	-10.7256
▁аже	-10.7259
▁ОПЕК	-10.7264
рыл	-10.729
▁деж	-10.7293
▁ече	-10.7294
▁обще	-10.7302
▁инт	-10.7309
▁рете	-10.7311
▁упал	-10.7313
▁ныне	-10.7317
обще	-10.7321
▁дон	-10.7323
▁цир	-10.7336
шен	-10.734
жет	-10.7355
▁урман	-10.7359
сед	-10.7359
▁озм	-10.7362
▁оу	-10.7363
чк	-10.7365
▁ухо	-10.737
▁лт	-10.7372
▁анск	-10.7391
ресс	-10.7392
▁ицей	-10.7393
▁Тур	-10.7396
ур	-10.7425
ly	-10.7426
▁форма	-10.7428
▁дро	-10.7443
▁имя	-10.7447
орск	-10.7452
▁пус	-10.7458
▁Щ	-10.7483
▁лее	-10.7484
▁реал	-10.7488
тан	-10.749
▁манд	-10.7491
▁оор	-10.751
▁ава	-10.7515
▁ВВС	-10.752
▁дох	-10.7536
▁терн	-10.754
▁гене	-10.7549
▁рва	-10.756
▁итан	-10.7561
▁тече	-10.7562
▁юди	-10.7568
▁алк	-10.758
ею	-10.7582
ере	-10.7586
▁D	-10.7597
▁еди	-10.7597
▁ске	-10.7609
▁ацию	-10.7615
▁нару	-10.7616
▁иб	-10.7628
▁кад	-10.7628
▁ины	-10.7634
▁енз	-10.7635
▁Ис	-10.7644
▁пеш	-10.7645
▁упр	-10.766
▁иями	-10.7666
▁авгу	-10.7679
▁фиц	-10.7681
▁озиц	-10.769
▁иву	-10.7691
Р	-10.7692
▁отк	-10.77
▁оры	-10.7704
▁ятс	-10.7715
▁ват	-10.7716
▁рже	-10.7723
▁рб	-10.7726
▁бе	-10.773
олго	-10.7734
▁of	-10.7735
десь	-10.7743
нам	-10.7756
ита	-10.7758
ое	-10.7766
▁тики	-10.7767
дан	-10.7779
▁эл	-10.778
▁етр	-10.7782
▁Group	-10.7782
ранц	-10.7782
▁яд	-10.7792
nd	-10.7805
▁вич	-10.7808
▁емье	-10.7811
рек	-10.7821
▁рови	-10.784
▁есо	-10.7858
▁см	-10.7874
сл	-10.7879
▁[	-10.788
И	-10.7891
▁лово	-10.7893
▁олис	-10.7899
ери	-10.7904
ммер	-10.7911
▁итае	-10.7917
▁дко	-10.7923
бир	-10.7938
▁L	-10.7939
▁ойк	-10.7948
год	-10.795
▁заме	-10.7955
▁ТВ	-10.7958
▁дн	-10.7962
▁аниям	-10.7963
▁дра	-10.7968
▁иж	-10.797
▁пала	-10.7986
▁роси	-10.7986
▁тир	-10.7992
▁воль	-10.8
▁ta	-10.8009
▁35	-10.8014
▁роп	-10.8025
▁кви	-10.8053
▁нвес	-10.8054
рош	-10.8062
▁иваю	-10.8067
▁ерп	-10.8074
▁еп	-10.8079
▁сты	-10.8089
▁рмо	-10.8093
n	-10.81
черк	-10.8106
v	-10.8117
▁M	-10.8119
оря	-10.8122
как	-10.8135
▁]	-10.8142
▁нге	-10.8159
▁Bo	-10.8167
▁учит	-10.817
▁рид	-10.8175
▁рку	-10.8176
▁°	-10.8182
▁онно	-10.8188
нных	-10.8213
▁ипе	-10.8215
ости	-10.8217
П	-10.822
▁ше	-10.8221
▁есте	-10.8223
овал	-10.8223
асс	-10.8231
щес	-10.8243
▁гио	-10.827
▁рой	-10.8271
▁жей	-10.8271
▁одит	-10.8274
▁эро	-10.8275
▁оку	-10.8277
дом	-10.8278
▁обе	-10.8283
▁анта	-10.8306
▁ожен	-10.8312
▁верж	-10.8318
▁нова	-10.8322
▁Ас	-10.8325
тели	-10.8326
▁пик	-10.8332
▁стил	-10.8333
▁торая	-10.834
▁рихо	-10.8344
▁узов	-10.8359
▁мос	-10.8359
▁МОК	-10.8365
▁юд	-10.8372
▁офе	-10.8374
нали	-10.8376
йств	-10.8385
▁одо	-10.8391
▁каб	-10.8398
▁ИГИЛ	-10.8402
▁оих	-10.8403
нт	-10.8407
▁чень	-10.8431
A	-10.8432
▁арен	-10.8434
мо	-10.844
▁орош	-10.8443
▁Хо	-10.8447
▁орит	-10.8475
▁рац	-10.8486
▁лиции	-10.8495
ецк	-10.8499
кого	-10.8534
▁пи	-10.854
▁Ол	-10.8553
▁оты	-10.8553
▁уля	-10.8557
▁иат	-10.8559
▁руго	-10.8569
На	-10.8579
▁вере	-10.8583
▁уси	-10.8583
▁очка	-10.8589
вый	-10.8606
▁ален	-10.8632
▁фи	-10.8635
▁лев	-10.8639
▁осп	-10.8644
▁ажу	-10.8649
▁ишь	-10.865
▁ире	-10.8653
▁ассо	-10.867
тик	-10.8677
▁Анд	-10.8687
▁онии	-10.8687
▁a	-10.8689
▁уте	-10.8694
▁олг	-10.8697
За	-10.8709
гент	-10.8714
▁ван	-10.8722
▁Кит	-10.8722
▁думы	-10.8742
▁пп	-10.8748
тин	-10.8756
▁Иг	-10.876
▁биле	-10.8764
▁лд	-10.8764
бус	-10.8766
▁убер	-10.8769
▁изб	-10.877
▁икс	-10.8776
втор	-10.8783
▁рол	-10.8788
▁заг	-10.879
ют	-10.8797
ег	-10.8803
▁уби	-10.8806
мин	-10.8808
▁ВАЗ	-10.8817
ди	-10.8827
▁верд	-10.8833
▁ио	-10.8835
▁ык	-10.8842
▁есси	-10.886
яза	-10.8861
▁душ	-10.8862
▁нит	-10.8864
▁олне	-10.8869
▁тей	-10.8897
вил	-10.8906
▁ань	-10.8918
▁мес	-10.8918
▁ярн	-10.8922
▁спе	-10.8924
▁совер	-10.8924
▁T	-10.893
сыл	-10.8932
▁ьниц	-10.8938
▁наше	-10.8967
общ	-10.8968
▁ерна	-10.897
▁чк	-10.8978
▁ницы	-10.8979
▁c	-10.8985
▁юда	-10.8992
оряд	-10.9005
убле	-10.9033
▁ктора	-10.9033
▁For	-10.9055
хов	-10.9075
оже	-10.9078
▁ртов	-10.908
▁Мэ	-10.9083
▁Лу	-10.9088
▁отру	-10.9091
▁азо	-10.9103
▁учш	-10.9104
▁Times	-10.9105
▁изо	-10.9108
▁зит	-10.9114
▁ын	-10.9114
пол	-10.9139
▁&	-10.9142
▁тала	-10.9155
▁уча	-10.9162
▁лана	-10.9168
▁вать	-10.9178
▁уще	-10.918
еаль	-10.9207
▁зин	-10.9212
▁авт	-10.9221
▁тивно	-10.9235
ебн	-10.9237
▁ря	-10.9244
▁сток	-10.9248
▁пит	-10.9253
чин	-10.9277
воль	-10.928
▁орва	-10.9282
▁упра	-10.9285
▁реши	-10.929
сов	-10.9295
гей	-10.93
▁тера	-10.9318
▁арс	-10.9321
▁пута	-10.9331
вших	-10.9332
▁олу	-10.9334
▁ером	-10.9348
▁дчер	-10.9356
▁ce	-10.9359
цио	-10.9361
сн	-10.9367
омн	-10.9367
▁анка	-10.9379
3	-10.9385
мест	-10.9393
лекс	-10.9398
▁арто	-10.9399
вен	-10.9405
▁етей	-10.942
▁зова	-10.9426
▁45	-10.9427
▁пци	-10.9436
▁кцио	-10.9457
▁оже	-10.9459
▁нек	-10.9459
▁рои	-10.947
▁Эк	-10.9477
▁кул	-10.9479
▁оин	-10.9482
▁отел	-10.9494
▁ару	-10.9512
▁лья	-10.9513
▁Юр	-10.9524
▁ерва	-10.9527
▁шим	-10.9533
▁Ос	-10.9535
вол	-10.9537
▁Кэ	-10.9544
обр	-10.955
▁You	-10.9551
▁ЛДПР	-10.9558
▁одро	-10.9559
▁b	-10.9562
рите	-10.9566
▁урм	-10.9568
▁одня	-10.9571
▁омен	-10.958
▁изу	-10.958
ечн	-10.9581
▁ден	-10.9584
очн	-10.9585
омме	-10.9599
пр	-10.9599
▁ФАС	-10.9605
▁прим	-10.9633
▁дово	-10.9637
▁едк	-10.9639
,6	-10.9639
▁опе	-10.9654
▁атов	-10.9686
толь	-10.9688
▁бот	-10.9694
▁to	-10.9695
▁амен	-10.9723
ский	-10.9733
▁пожа	-10.9734
тил	-10.9738
▁щат	-10.9744
▁утр	-10.9744
▁грам	-10.9749
▁жение	-10.976
ьзов	-10.9761
▁зн	-10.9774
▁РАН	-10.9777
▁жем	-10.9784
▁шан	-10.9786
По	-10.9789
мпан	-10.9792
ких	-10.9792
▁етн	-10.98
▁ent	-10.9801
▁тле	-10.9812
▁убл	-10.9814
▁еста	-10.9839
▁тина	-10.9839
▁пин	-10.9853
▁нты	-10.9854
▁урн	-10.9855
▁II	-10.9862
▁орни	-10.9866
▁лис	-10.9872
▁ажд	-10.9872
▁поз	-10.9873
см	-10.9874
▁сно	-10.9896
▁олов	-10.9896
▁пир	-10.9898
ива	-10.9904
▁отв	-10.9908
▁овор	-10.9908
▁сб	-10.9911
▁вока	-10.9929
▁€	-10.9931
ру	-10.9936
▁ЖКХ	-10.9945
нат	-10.9987
▁иден	-10.9987
▁РЖД	-10.9991
▁шаг	-10.9992
▁моб	-10.9999
▁мыш	-11.0016
▁стик	-11.0025
▁обход	-11.0025
▁ющих	-11.003
▁иция	-11.0031
▁СНГ	-11.0035
омощ	-11.0036
▁овь	-11.0065
▁окк	-11.0078
,8	-11.0085
▁Бо	-11.0086
ами	-11.0109
▁igh	-11.0109
ест	-11.0112
ец	-11.0114
▁мик	-11.0114
b	-11.0115
бав	-11.0123
▁водо	-11.0128
▁дели	-11.0168
▁КНР	-11.0168
▁тал	-11.0179
▁ажн	-11.018
▁кие	-11.019
▁вка	-11.0192
▁куре	-11.0203
акт	-11.0206
▁ятн	-11.0206
зов	-11.0207
апад	-11.0208
▁ian	-11.0216
▁визи	-11.0244
▁неде	-11.0268
▁нков	-11.0278
▁Зе	-11.0284
▁рих	-11.0295
▁ун	-11.0302
▁кру	-11.0313
▁азви	-11.032
▁гул	-11.0324
мир	-11.0326
▁нами	-11.0337
▁екре	-11.0353
▁оенн	-11.0357
инг	-11.0358
ыл	-11.0362
▁атр	-11.037
▁зак	-11.0373
▁реле	-11.0381
шин	-11.0381
▁рье	-11.0383
▁оров	-11.0385
▁емле	-11.0385
▁сы	-11.0389
▁акр	-11.0403
▁щее	-11.0417
▁нский	-11.0434
▁ох	-11.0435
▁ВКС	-11.0451
шего	-11.0459
▁ешк	-11.0468
▁лиза	-11.0468
▁енти	-11.0477
ке	-11.0479
▁сию	-11.0483
▁ропа	-11.0485
▁арти	-11.0494
▁e	-11.0499
▁алого	-11.0508
▁z	-11.0514
тив	-11.0521
иль	-11.0525
року	-11.053
▁еры	-11.053
▁бан	-11.0539
ксп	-11.0543
рещ	-11.0546
▁ави	-11.0551
▁600	-11.0551
Т	-11.0559
▁иФ	-11.0567
▁исте	-11.0581
▁атч	-11.0601
▁коро	-11.0601
C	-11.0613
▁ольши	-11.0616
сс	-11.0624
▁нахо	-11.0625
▁ЧП	-11.0631
▁the	-11.0639
▁мать	-11.0641
▁кап	-11.0645
ван	-11.0659
▁вета	-11.0672
▁опор	-11.0672
▁опи	-11.0676
▁чно	-11.0682
▁тным	-11.0687
дол	-11.0689
▁сточ	-11.069
30	-11.0691
▁фл	-11.0719
Г	-11.0732
вет	-11.074
▁изы	-11.074
▁V	-11.0746
▁che	-11.0759
at	-11.0776
▁рите	-11.0784
роз	-11.0795
▁пло	-11.0811
мат	-11.0817
▁gram	-11.0818
▁мери	-11.0826
вед	-11.0827
▁омме	-11.0827
ожил	-11.0853
6	-11.0867
▁тыр	-11.0867
▁анн	-11.0869
хо	-11.0873
▁чес	-11.0875
ПК	-11.0877
us	-11.0881
▁жир	-11.0898
▁фина	-11.0902
▁кана	-11.0912
▁тф	-11.0914
аст	-11.0928
▁ожил	-11.094
▁фир	-11.0943
тави	-11.095
▁МВФ	-11.0962
▁Vol	-11.0964
▁дъ	-11.0965
ская	-11.0966
▁объ	-11.0973
ези	-11.0983
рошл	-11.0988
▁ихо	-11.0991
▁вся	-11.0994
▁бог	-11.1004
▁ube	-11.1022
ши	-11.1031
▁обст	-11.1034
ерри	-11.1049
▁мах	-11.1061
мы	-11.1061
▁ожа	-11.1067
▁des	-11.1088
▁250	-11.1093
ид	-11.1094
▁Ед	-11.1101
дина	-11.1102
▁апа	-11.1102
,3	-11.1103
▁ОБСЕ	-11.111
ошл	-11.1111
▁сев	-11.1136
▁рв	-11.1137
▁Merc	-11.1146
▁нна	-11.1146
▁оки	-11.1147
w	-11.1148
▁алит	-11.1153
▁коло	-11.1156
олле	-11.1166
▁лиз	-11.1166
▁пон	-11.117
▁вра	-11.117
▁нсо	-11.1178
Б	-11.1183
ld	-11.1195
▁вора	-11.1199
▁рио	-11.1209
▁кци	-11.124
▁роб	-11.1257
▁ФРГ	-11.1259
▁ийск	-11.1263
мун	-11.1264
бр	-11.1276
▁рано	-11.1278
▁тру	-11.1286
тинг	-11.1291
▁ратно	-11.1303
▁пох	-11.131
▁нь	-11.1324
щим	-11.1336
▁рали	-11.1351
▁рит	-11.1357
дав	-11.1376
▁нз	-11.1379
▁мн	-11.138
▁виж	-11.1384
ние	-11.1389
▁Евр	-11.1391
Ph	-11.1414
▁руппа	-11.1416
▁фт	-11.146
▁berg	-11.1462
▁итвы	-11.1465
▁сын	-11.1481
▁2,	-11.1484
▁ойд	-11.1486
▁чл	-11.1489
▁Им	-11.1499
▁лоб	-11.1507
▁зы	-11.1515
па	-11.153
мн	-11.1536
▁ебя	-11.1537
ожно	-11.1538
▁або	-11.1557
▁ици	-11.1561
▁ВС	-11.1569
▁итов	-11.1572
▁онта	-11.1573
▁аив	-11.1578
▁нце	-11.1588
▁WSJ	-11.1615
▁ic	-11.1636
▁снос	-11.1648
▁тоя	-11.1648
нем	-11.1655
лик	-11.1698
елик	-11.1704
▁тел	-11.1704
▁спон	-11.1704
▁поэт	-11.1712
▁Фи	-11.1718
▁ветс	-11.172
▁айдан	-11.172
▁лок	-11.1723
▁нешн	-11.1725
▁испо	-11.1727
▁el	-11.1742
▁ung	-11.1743
▁Co	-11.1744
▁вити	-11.1746
▁Вели	-11.1746
▁офи	-11.1749
▁рю	-11.175
▁ляр	-11.1769
ятел	-11.1796
▁ерси	-11.1804
▁запа	-11.1807
S	-11.1811
М	-11.1824
▁руга	-11.1834
▁миро	-11.1839
▁Wi	-11.1845
▁сме	-11.1846
▁трет	-11.185
▁La	-11.1855
рит	-11.1864
▁Dai	-11.1868
кое	-11.1871
▁50%	-11.1885
▁елич	-11.1926
▁осту	-11.1937
▁инга	-11.195
▁Inte	-11.1953
▁ары	-11.1958
▁лак	-11.1963
▁эн	-11.1965
▁рив	-11.1966
▁иан	-11.198
Л	-11.198
▁ЛНР	-11.1986
▁куд	-11.1988
рым	-11.1993
мент	-11.1995
▁пек	-11.202
▁шоу	-11.2025
▁H	-11.2026
стил	-11.2026
▁дам	-11.2027
▁120	-11.2032
f	-11.2036
▁уше	-11.204
▁уши	-11.2049
▁нсп	-11.2052
▁еса	-11.2056
▁очки	-11.206
▁очер	-11.2064
ты	-11.2072
▁льт	-11.2077
▁O	-11.2081
▁кив	-11.21
▁Мар	-11.2103
чат	-11.2105
ными	-11.2135
▁агр	-11.214
▁тани	-11.2144
▁оним	-11.2161
мощ	-11.2184
дет	-11.2187
▁ремя	-11.2192
▁поди	-11.2196
▁вая	-11.2197
дна	-11.2204
▁СИЗО	-11.2221
▁гим	-11.2225
▁аше	-11.2228
▁рше	-11.2232
▁мэр	-11.2235
▁ерба	-11.2238
▁ико	-11.2242
▁екта	-11.227
▁it	-11.2271
▁онт	-11.2279
▁and	-11.2281
‐	-11.2292
рен	-11.2296
▁ражд	-11.2304
▁вига	-11.2311
▁55	-11.2312
НК	-11.2314
▁дов	-11.233
▁тного	-11.2353
осил	-11.2361
▁BMW	-11.237
▁Бл	-11.2373
▁спа	-11.2377
▁анди	-11.2382
▁ча	-11.2388
▁сю	-11.2389
▁айт	-11.24
ции	-11.2407
▁оща	-11.2413
рем	-11.242
▁жет	-11.2423
▁ФИФА	-11.2428
▁остей	-11.2443
▁бщ	-11.2462
ющий	-11.2468
овер	-11.2468
▁3,	-11.2476
вую	-11.2476
▁ерем	-11.2491
рел	-11.2501
▁акти	-11.2505
дент	-11.252
енн	-11.2521
▁риш	-11.2521
▁емо	-11.2527
▁мии	-11.2533
су	-11.2543
▁еет	-11.255
ks	-11.2562
▁луч	-11.2563
ошен	-11.2564
лаго	-11.2568
▁астр	-11.2588
▁руже	-11.2613
▁мяч	-11.2623
еств	-11.2625
▁рию	-11.263
▁уба	-11.2659
аж	-11.2669
▁купа	-11.2671
рь	-11.2672
▁ающий	-11.2682
▁ницу	-11.2691
▁дия	-11.2694
▁ссии	-11.2699
▁мс	-11.2701
▁дик	-11.2709
▁чук	-11.2711
▁ФБР	-11.2713
▁пец	-11.2718
▁атор	-11.2721
нос	-11.2724
▁енси	-11.2728
кий	-11.2736
▁уков	-11.2737
ему	-11.2748
▁сем	-11.275
▁бек	-11.2759
▁ожи	-11.2786
оров	-11.2786
▁нуж	-11.2814
аб	-11.2818
меет	-11.2822
z	-11.2834
▁орен	-11.2839
▁Sam	-11.285
▁Мур	-11.2865
▁ВК	-11.2867
▁ише	-11.2878
▁цу	-11.2881
▁ац	-11.2886
опус	-11.2919
―	-11.2929
▁отов	-11.2934
▁руют	-11.2934
уш	-11.295
рии	-11.2965
тавк	-11.297
▁уре	-11.297
ях	-11.2983
▁поч	-11.2997
▁Гл	-11.3001
идер	-11.3008
▁32	-11.3008
▁Ак	-11.301
овой	-11.3018
▁20%	-11.3022
ивно	-11.3026
▁аций	-11.3027
▁руд	-11.3027
кан	-11.3041
рож	-11.3044
▁аду	-11.3055
▁Bloo	-11.3058
▁бом	-11.3058
▁еют	-11.3061
ng	-11.308
ысл	-11.3081
▁Ше	-11.3083
▁озн	-11.3099
▁Си	-11.3108
▁дроб	-11.3109
▁нса	-11.3109
▁АЭС	-11.3115
▁пат	-11.3141
▁еатр	-11.3141
▁Tel	-11.3146
▁иван	-11.315
▁Ли	-11.3163
Не	-11.3166
Н	-11.3178
▁едн	-11.3204
▁СУ	-11.3209
ww	-11.3224
▁дачи	-11.3229
▁ким	-11.3236
▁мся	-11.3262
▁ro	-11.3276
▁FT	-11.3282
▁кг	-11.3294
▁рри	-11.3295
▁оте	-11.3317
▁соп	-11.3327
▁10%	-11.3328
куп	-11.3329
▁оц	-11.3332
▁ФА	-11.3349
что	-11.3363
▁тка	-11.3363
▁тья	-11.3364
▁Mail	-11.3373
▁бле	-11.338
рик	-11.338
▁лим	-11.338
▁tal	-11.3396
▁man	-11.3406
АЗ	-11.341
F	-11.3411
▁лла	-11.3411
азет	-11.3414
am	-11.3417
згл	-11.3418
зан	-11.342
▁СБУ	-11.3421
50	-11.3431
▁речи	-11.3434
▁стиж	-11.345
▁ация	-11.3452
▁нав	-11.3453
▁ерст	-11.3457
▁азн	-11.3464
▁еря	-11.3465
▁оми	-11.3466
расн	-11.3474
слуг	-11.3474
сту	-11.3476
und	-11.3477
▁аси	-11.3495
▁ехн	-11.3509
▁нен	-11.3512
▁шей	-11.3512
▁вери	-11.3514
▁зде	-11.3516
боч	-11.3528
▁овен	-11.3536
▁осто	-11.3537
пе	-11.3543
рита	-11.3545
▁рта	-11.3571
▁Сл	-11.3572
▁Bren	-11.3587
оскв	-11.3588
▁nit	-11.3596
▁33	-11.3597
▁ню	-11.3619
▁Life	-11.3623
рт	-11.3625
▁дель	-11.3627
▁щн	-11.3636
рин	-11.3638
▁анал	-11.3643
ack	-11.3672
▁ержа	-11.369
▁олы	-11.37
▁иста	-11.3708
ебен	-11.3717
▁биль	-11.3718
редп	-11.3721
▁року	-11.3723
▁авле	-11.3729
▁есяц	-11.373
▁тя	-11.373
ош	-11.3747
▁New	-11.3749
▁шие	-11.3768
▁гур	-11.3783
▁зл	-11.3795
пред	-11.3803
▁воров	-11.3808
▁яли	-11.381
▁вои	-11.3811
▁nal	-11.3817
▁апи	-11.3818
▁зыва	-11.382
▁раке	-11.3837
рал	-11.3843
ум	-11.385
▁нгр	-11.3861
al	-11.3862
▁ясн	-11.3863
▁изв	-11.3877
▁лете	-11.3879
▁кте	-11.3879
▁редп	-11.3881
ац	-11.3887
ати	-11.3887
▁75	-11.3894
▁ПАО	-11.3899
▁едс	-11.39
▁елос	-11.3901
▁олле	-11.3919
ган	-11.393
▁бое	-11.3932
родн	-11.3933
со	-11.3936
▁икул	-11.3943
▁юл	-11.3945
▁Ми	-11.3949
ожет	-11.3951
авил	-11.3959
▁енци	-11.3966
отом	-11.397
▁сооб	-11.3973
▁5%	-11.3976
▁шит	-11.399
▁ыло	-11.4
▁ужа	-11.4002
▁вых	-11.4008
▁рет	-11.4011
▁елям	-11.4019
▁рын	-11.4029
▁язы	-11.4039
▁ешен	-11.4039
▁$1	-11.4039
▁nat	-11.4039
▁Ра	-11.4043
ча	-11.4044
▁огд	-11.4059
анет	-11.406
ение	-11.4061
ьмо	-11.4067
шк	-11.4069
▁НХЛ	-11.4077
▁непр	-11.4079
▁36	-11.4079
▁рати	-11.409
▁юз	-11.411
лав	-11.4116
▁НКО	-11.4135
20	-11.4136
▁Би	-11.415
▁оем	-11.4153
ch	-11.416
▁вир	-11.4171
▁Пе	-11.418
▁еро	-11.4182
▁рудо	-11.4184
руд	-11.4194
ских	-11.4213
ющих	-11.4215
▁ВЭБ	-11.4216
▁ако	-11.4217
▁иви	-11.4229
X	-11.4247
▁циям	-11.4254
нет	-11.4278
▁рман	-11.4278
▁ФРС	-11.4279
▁НПФ	-11.4285
▁тт	-11.4291
▁t	-11.4294
▁рел	-11.4297
▁исл	-11.4302
▁роч	-11.4311
▁зация	-11.432
ed	-11.4325
нии	-11.4329
олуч	-11.4358
▁Al	-11.4396
▁ne	-11.4399
▁рич	-11.4399
▁еньк	-11.4403
▁ton	-11.4404
тен	-11.4437
▁вани	-11.4443
▁te	-11.445
▁On	-11.4464
▁K	-11.4464
ью	-11.4476
▁прош	-11.448
▁вле	-11.4482
▁очной	-11.4485
▁дир	-11.4492
▁исси	-11.4506
таб	-11.4528
▁тву	-11.4529
оя	-11.454
▁ибо	-11.4543
▁ОСАГО	-11.4555
▁тии	-11.4562
▁ai	-11.4574
▁Pro	-11.4574
▁спол	-11.4576
▁арко	-11.4582
▁ыл	-11.4598
▁42	-11.4608
авш	-11.4609
▁агер	-11.4614
▁наде	-11.4618
трах	-11.4618
ce	-11.4635
▁азан	-11.4635
▁илос	-11.4638
▁азани	-11.4639
ска	-11.4644
арта	-11.4646
▁елы	-11.466
▁руко	-11.4663
▁роне	-11.4666
▁умен	-11.4668
▁Str	-11.4669
▁чая	-11.4679
ются	-11.4682
▁изда	-11.4684
▁юге	-11.4688
ag	-11.4689
ою	-11.4691
верс	-11.4691
▁30%	-11.4701
все	-11.471
утр	-11.4759
▁bg	-11.4762
▁ыж	-11.4763
▁рж	-11.478
ерик	-11.4787
▁тк	-11.48
▁иве	-11.4801
▁таци	-11.4817
едн	-11.4818
итан	-11.4852
▁ra	-11.4853
2%	-11.4856
тбол	-11.4866
▁внос	-11.4866
▁епе	-11.4873
ешил	-11.4875
▁оде	-11.4877
▁аци	-11.4897
▁обя	-11.4898
▁n	-11.4899
▁наци	-11.4912
▁сни	-11.4913
▁жк	-11.4923
▁аран	-11.4928
▁ично	-11.4936
▁Мир	-11.4937
▁Сер	-11.4951
▁пы	-11.4954
▁ровь	-11.4956
▁ЧМ	-11.4966
дств	-11.4967
▁езо	-11.4986
▁етен	-11.4991
▁нар	-11.4994
▁йк	-11.501
▁арте	-11.5014
▁мое	-11.5016
▁шем	-11.5019
▁кса	-11.5022
▁лк	-11.5035
▁ппа	-11.5042
▁ежд	-11.5059
сир	-11.506
еми	-11.5069
▁or	-11.5082
▁65	-11.5087
▁енте	-11.5094
▁джа	-11.5101
▁Лю	-11.5107
жны	-11.5108
▁Кра	-11.5109
an	-11.511
▁рада	-11.5119
▁чей	-11.5151
▁ильн	-11.5155
▁арди	-11.516
аг	-11.5169
▁бат	-11.5184
егио	-11.5186
▁лор	-11.5201
З	-11.5201
▁*	-11.5203
▁мот	-11.5206
▁40%	-11.5207
фф	-11.5207
▁Nov	-11.5231
тов	-11.5234
▁акар	-11.5251
▁бур	-11.5256
▁еня	-11.5258
▁оват	-11.5259
▁емых	-11.527
▁стри	-11.5271
D	-11.5277
ash	-11.5278
▁J	-11.5279
осл	-11.5279
▁АСВ	-11.5279
▁ссы	-11.5282
▁РФС	-11.5299
▁даль	-11.5308
лико	-11.5313
▁nault	-11.5352
▁айо	-11.5361
▁тори	-11.5369
льск	-11.5371
▁de	-11.5383
▁ач	-11.5386
▁АР	-11.539
▁отс	-11.5393
лови	-11.5395
ха	-11.5399
▁нах	-11.5402
ател	-11.5408
▁оход	-11.5408
▁re	-11.5418
▁ою	-11.542
▁бас	-11.5424
▁иа	-11.5425
▁wa	-11.5427
▁рди	-11.5447
ье	-11.5451
▁итр	-11.5462
▁тых	-11.5465
▁рика	-11.5467
ук	-11.5473
▁етов	-11.548
▁ома	-11.5486
▁огу	-11.5517
▁езу	-11.5521
▁мень	-11.5524
▁пт	-11.5524
жив	-11.5527
▁рда	-11.5543
рман	-11.5552
▁ртв	-11.5553
▁уче	-11.5563
тори	-11.5563
▁ваш	-11.5566
▁вно	-11.5569
режд	-11.5578
▁инве	-11.5579
▁МГУ	-11.5586
▁Toy	-11.5595
▁дение	-11.5596
5%	-11.5604
▁шко	-11.5615
▁рч	-11.5618
▁нат	-11.5621
▁ятно	-11.5626
цев	-11.5627
▁рей	-11.5635
▁ыг	-11.5635
▁ься	-11.5639
ss	-11.5649
бил	-11.5651
га	-11.5654
▁Gal	-11.5654
▁for	-11.5654
ги	-11.5655
▁ВИЧ	-11.5657
80	-11.5661
кер	-11.5666
all	-11.5677
▁анкер	-11.5691
▁возд	-11.5692
▁no	-11.5695
озво	-11.5697
▁4%	-11.5699
▁иду	-11.5702
▁льны	-11.5704
▁ато	-11.5727
▁Hy	-11.5738
жи	-11.5738
▁ольф	-11.5744
ио	-11.5747
▁кома	-11.5761
8%	-11.5765
▁лого	-11.5774
3%	-11.579
▁тите	-11.5794
▁ГК	-11.5795
▁37	-11.5806
▁ора	-11.5812
▁34	-11.5814
▁ыс	-11.5841
еди	-11.5849
▁ету	-11.585
▁уэ	-11.5852
уп	-11.5855
▁at	-11.5856
▁рят	-11.5861
ани	-11.5865
▁кир	-11.587
ций	-11.5878
ПЦ	-11.5883
ай	-11.5887
▁ed	-11.5889
▁нки	-11.5889
▁рег	-11.5896
▁мани	-11.5898
▁виа	-11.5901
▁йс	-11.5905
▁Рост	-11.5909
▁ачи	-11.5919
ован	-11.5924
▁арод	-11.5925
▁нга	-11.5944
▁воих	-11.5944
▁едо	-11.5947
▁тств	-11.5961
ерно	-11.5964
▁УЕФА	-11.5974
▁пу	-11.5991
▁игер	-11.6014
▁зво	-11.6014
оян	-11.6021
чук	-11.6023
▁IT	-11.6035
▁Bank	-11.6055
обо	-11.6065
▁чему	-11.6065
▁рых	-11.6067
▁онс	-11.6076
▁нице	-11.6089
▁ующих	-11.609
▁ула	-11.6094
▁узы	-11.6096
▁48	-11.6109
▁печ	-11.6114
гул	-11.6115
▁лил	-11.6115
▁нин	-11.616
▁тет	-11.617
▁овес	-11.6173
▁роя	-11.6187
▁апр	-11.6196
▁Con	-11.62
олов	-11.6203
▁роф	-11.6205
моч	-11.6209
▁еал	-11.6215
▁рмац	-11.6223
▁тий	-11.6227
▁шек	-11.6243
▁Уж	-11.6246
▁шум	-11.6261
▁38	-11.6265
ятн	-11.6274
▁рип	-11.6283
▁ww	-11.6291
▁Inst	-11.6316
▁ури	-11.632
▁туре	-11.6322
▁Eur	-11.6333
▁ьк	-11.6344
st	-11.6348
▁еран	-11.6353
Об	-11.6355
▁борн	-11.6369
▁тник	-11.6374
инц	-11.6376
▁ers	-11.6381
▁одр	-11.6388
два	-11.6392
▁ема	-11.6397
▁ольк	-11.6401
▁ехо	-11.6404
9%	-11.6406
шек	-11.641
▁ници	-11.6415
▁na	-11.6426
▁Ил	-11.6441
▁ып	-11.6443
▁леду	-11.6455
▁ОНФ	-11.6467
▁тве	-11.6468
▁чьи	-11.647
nt	-11.6477
▁мерт	-11.6477
▁нту	-11.648
▁огер	-11.6483
▁жат	-11.649
▁икова	-11.6491
пл	-11.6495
▁льм	-11.6496
НАС	-11.6498
▁bus	-11.6501
нал	-11.6503
P	-11.6504
▁алов	-11.6506
▁мм	-11.6546
▁орам	-11.6551
▁ефо	-11.6551
en	-11.6571
▁верт	-11.6573
▁усти	-11.6574
▁раю	-11.6575
нс	-11.6577
зво	-11.6581
ьн	-11.6582
хан	-11.6589
▁ющим	-11.6594
▁МС	-11.6609
▁риб	-11.6611
оит	-11.6621
▁лаш	-11.663
▁пан	-11.6639
▁атин	-11.6639
нно	-11.664
▁илли	-11.6644
Д	-11.6648
ром	-11.6662
▁бло	-11.6668
оро	-11.6668
▁анси	-11.669
▁ial	-11.6696
ФО	-11.6697
▁цид	-11.6704
кур	-11.6713
окуп	-11.6721
АП	-11.6729
▁тац	-11.673
фект	-11.6732
ещ	-11.6741
▁уди	-11.6743
▁U	-11.6746
▁Jou	-11.6756
ении	-11.6756
▁мыв	-11.6757
ent	-11.6764
▁Wor	-11.6766
цк	-11.6775
МК	-11.6779
гин	-11.6787
▁Am	-11.6798
▁илан	-11.6801
▁ылк	-11.6802
▁еку	-11.6814
▁Рио	-11.6815
▁ПДД	-11.6817
▁есен	-11.6823
авн	-11.6824
▁roid	-11.6824
▁алют	-11.6825
чев	-11.6838
▁икан	-11.6843
▁щении	-11.6847
▁лод	-11.6861
▁лас	-11.6868
▁олен	-11.6869
▁сени	-11.6874
▁46	-11.6882
▁мейк	-11.6885
▁1%	-11.6889
▁Micr	-11.6893
▁ЦРУ	-11.6898
▁ео	-11.6904
▁еми	-11.6912
▁ыр	-11.6914
ации	-11.6919
▁апу	-11.6932
▁Yo	-11.6942
▁онны	-11.6945
▁цио	-11.6946
▁44	-11.7
▁>	-11.7001
▁опо	-11.7002
▁кая	-11.7004
▁аур	-11.7014
▁май	-11.7032
воз	-11.7049
▁ard	-11.7049
реб	-11.7052
▁унк	-11.7054
▁пион	-11.7054
▁рба	-11.7056
▁ma	-11.7056
▁стви	-11.7063
каза	-11.7065
▁47	-11.7093
▁убо	-11.7093
циа	-11.71
▁трук	-11.7105
▁рш	-11.7105
▁трал	-11.7111
▁антов	-11.7125
рац	-11.7131
▁ильм	-11.7131
▁жу	-11.7131
?	-11.7131
▁ити	-11.7143
пус	-11.7147
▁III	-11.715
▁пул	-11.7153
▁Lada	-11.7167
ско	-11.7168
▁етон	-11.7168
▁ПФР	-11.7171
ун	-11.718
иг	-11.7184
▁аме	-11.7199
ТС	-11.721
вляе	-11.7216
is	-11.7217
шь	-11.7223
▁хв	-11.7233
▁85	-11.7236
рну	-11.7239
▁To	-11.7246
▁жает	-11.7247
▁овка	-11.725
▁Ке	-11.725
▁осс	-11.7267
ион	-11.7268
▁КОСа	-11.7272
ужно	-11.7273
▁ВМС	-11.7275
яют	-11.7297
▁еки	-11.7301
▁ght	-11.731
фе	-11.733
▁ерам	-11.7335
СУ	-11.7342
▁ашк	-11.7348
▁еве	-11.7353
ерро	-11.7354
▁СПГ	-11.7355
▁рах	-11.7355
▁пить	-11.7381
твет	-11.7406
▁рони	-11.741
▁чным	-11.7434
вали	-11.7436
▁ванию	-11.7443
АР	-11.7449
▁гуля	-11.7453
тра	-11.7455
▁асх	-11.7457
▁ерро	-11.7467
▁вгуст	-11.747
нев	-11.7473
ыми	-11.7474
уте	-11.7479
зн	-11.7497
▁тавк	-11.7502
▁ола	-11.7502
▁оков	-11.751
▁орре	-11.751
идео	-11.752
аем	-11.7532
▁инн	-11.7535
▁Benz	-11.7535
▁онг	-11.7539
ne	-11.7541
▁еща	-11.7545
би	-11.7546
ьк	-11.7553
▁рдо	-11.7556
▁трак	-11.7556
АК	-11.7567
ное	-11.757
▁черк	-11.7587
▁рц	-11.7593
ерь	-11.7605
▁агра	-11.7608
▁ax	-11.7611
тмет	-11.7613
исан	-11.762
▁ндо	-11.7626
ица	-11.7628
▁soft	-11.763
▁НДС	-11.763
▁Post	-11.763
▁aks	-11.7637
ач	-11.7642
нн	-11.7664
▁гда	-11.7667
зал	-11.7671
▁оза	-11.7682
▁рсе	-11.7684
зрыв	-11.7689
лин	-11.7696
▁ренн	-11.7705
▁Vi	-11.7706
нг	-11.7711
▁ФЗ	-11.7724
▁ЕСПЧ	-11.7729
▁80%	-11.7729
гер	-11.7743
▁350	-11.7744
▁th	-11.7747
тала	-11.7749
▁шл	-11.775
and	-11.7758
▁Bre	-11.777
▁иха	-11.7773
кол	-11.7781
▁иту	-11.7789
▁In	-11.7789
▁Mar	-11.7799
▁рл	-11.7803
▁мый	-11.7808
▁енни	-11.7808
▁ьт	-11.7813
▁инв	-11.7815
▁io	-11.7827
G	-11.7831
огли	-11.7831
▁мба	-11.7832
▁3%	-11.7834
лади	-11.7835
▁ообща	-11.7839
/	-11.7855
▁43	-11.7858
▁едв	-11.7862
▁15%	-11.7863
▁йт	-11.7873
th	-11.7882
▁аун	-11.7885
▁ьбе	-11.7896
кла	-11.7907
▁CNN	-11.7917
▁CAS	-11.7919
▁льб	-11.7921
▁шил	-11.7936
лены	-11.7945
▁зк	-11.7946
▁оре	-11.7958
▁160	-11.7958
▁рош	-11.7967
▁ty	-11.7969
▁рты	-11.797
рев	-11.7996
▁итал	-11.7998
it	-11.8006
▁огр	-11.8006
▁ожде	-11.8019
▁лос	-11.8021
BC	-11.8029
▁ллион	-11.8031
▁тства	-11.8043
тят	-11.8043
▁нным	-11.8046
Ф	-11.805
▁Ho	-11.8063
очно	-11.8069
▁дми	-11.8093
ниц	-11.8094
▁чка	-11.8103
end	-11.8108
▁емонт	-11.8109
▁НТВ	-11.8117
▁КХЛ	-11.8117
рад	-11.8121
▁несе	-11.8122
ожар	-11.8123
▁st	-11.8124
ерак	-11.8125
▁есе	-11.8145
▁ine	-11.815
%	-11.8159
▁рех	-11.8162
сан	-11.8175
▁ющи	-11.8179
нь	-11.8185
ft	-11.8186
▁рыл	-11.8191
▁анда	-11.8193
_	-11.8197
▁ЕГЭ	-11.8214
▁иумф	-11.8216
ры	-11.822
▁боя	-11.8229
▁Li	-11.8236
▁нак	-11.8242
▁оном	-11.8243
▁дк	-11.8243
I	-11.8244
▁US	-11.8254
▁4,	-11.8263
вел	-11.8274
вляю	-11.8277
▁озд	-11.8283
▁даю	-11.8293
▁тат	-11.8297
▁57	-11.8309
▁ВМФ	-11.8316
▁ВЦИОМ	-11.8317
▁Ни	-11.8318
гие	-11.8323
▁тико	-11.8338
▁шенк	-11.8338
▁коли	-11.8353
▁мул	-11.8357
▁le	-11.836
олжн	-11.8364
оят	-11.8392
▁FM	-11.84
▁En	-11.8402
хин	-11.841
▁лага	-11.8414
▁айан	-11.8414
▁news	-11.8418
▁Audi	-11.8418
▁Sport	-11.8419
▁склю	-11.843
▁воре	-11.8431
лан	-11.8435
форм	-11.844
se	-11.8446
▁риво	-11.845
▁иво	-11.8454
▁сит	-11.8458
▁ьес	-11.8472
нис	-11.8476
▁лир	-11.8477
▁−	-11.8494
▁ерь	-11.8506
▁жар	-11.8506
КОЙ	-11.8512
▁гг	-11.8518
10	-11.8527
▁ыше	-11.853
▁лах	-11.853
▁ичк	-11.8531
▁пож	-11.8532
ерге	-11.8539
▁мене	-11.854
▁Ро	-11.8553
ter	-11.8564
▁уве	-11.8583
цы	-11.8586
СКА	-11.8595
осс	-11.86
АСЕ	-11.8602
нк	-11.8613
▁атит	-11.8615
етил	-11.8617
ck	-11.8617
▁осе	-11.8618
ари	-11.8621
▁Tesla	-11.8626
лу	-11.8626
▁рене	-11.8627
ГУ	-11.8631
▁ачал	-11.8631
▁XX	-11.8633
пы	-11.8641
▁ири	-11.8641
▁Ве	-11.8652
▁Y	-11.8656
▁ФНС	-11.8658
ря	-11.8665
▁года	-11.8668
▁чный	-11.8673
▁ыли	-11.8699
▁домо	-11.871
▁$3	-11.8713
▁КС	-11.8718
▁net	-11.8719
СП	-11.8735
▁тави	-11.8737
▁рме	-11.8737
ова	-11.8741
▁64	-11.8752
iki	-11.8754
гих	-11.876
▁менов	-11.8765
▁сос	-11.8768
▁мей	-11.8791
▁уро	-11.8794
пит	-11.8796
▁омет	-11.8805
луч	-11.8806
▁РГ	-11.8813
юю	-11.8823
▁mon	-11.8828
ght	-11.8832
▁Uni	-11.8841
▁nanc	-11.8843
▁вч	-11.8846
▁тдел	-11.8852
бин	-11.8861
▁нну	-11.887
▁ыт	-11.8879
▁сиро	-11.8884
▁AP	-11.8886
СИН	-11.8891
ro	-11.8893
айн	-11.8894
▁асн	-11.8907
▁Po	-11.8913
▁вла	-11.8914
te	-11.8919
4%	-11.8937
зит	-11.8943
вно	-11.8947
▁ФК	-11.8952
ват	-11.8965
▁Ди	-11.897
рон	-11.8971
▁мам	-11.8972
омму	-11.8979
▁25%	-11.8983
om	-11.9002
▁алай	-11.9007
▁узык	-11.901
▁мира	-11.901
▁атер	-11.9018
▁оби	-11.9019
▁осу	-11.9023
▁аген	-11.9025
▁ner	-11.903
▁есу	-11.9032
▁жим	-11.904
▁IV	-11.9041
смо	-11.9041
▁ni	-11.9054
▁тало	-11.906
il	-11.9066
▁Ор	-11.9071
▁ечин	-11.9086
ьш	-11.9094
gyp	-11.9095
▁умм	-11.91
кин	-11.91
изир	-11.9118
▁еи	-11.9118
ace	-11.9123
▁егу	-11.913
лько	-11.913
▁Ex	-11.9137
▁сией	-11.9141
▁Инт	-11.9144
▁арп	-11.9152
▁нил	-11.9153
▁отд	-11.9162
▁иди	-11.9164
▁2-3	-11.9165
1%	-11.9169
▁1/	-11.9173
▁хэ	-11.9177
▁An	-11.9187
ard	-11.9213
▁вости	-11.9216
яд	-11.9222
сть	-11.9222
▁ВСУ	-11.9226
▁жник	-11.9232
▁СП	-11.9232
▁шки	-11.9233
▁5,	-11.9237
7%	-11.9239
Но	-11.9249
▁ерф	-11.9249
▁олла	-11.927
▁AFP	-11.9273
▁еше	-11.9274
▁ble	-11.928
▁ДПС	-11.9287
▁лето	-11.9295
▁рки	-11.9295
▁МК	-11.9306
▁нной	-11.9313
▁ЕР	-11.9315
▁ОИ	-11.9319
▁зис	-11.9336
▁икаг	-11.9343
▁онча	-11.9345
▁ишк	-11.9347
джет	-11.9349
▁тас	-11.9351
▁нако	-11.9355
▁иса	-11.9358
M	-11.9363
▁трой	-11.9367
▁p	-11.9367
▁ирк	-11.9368
▁дите	-11.9386
▁отл	-11.9387
▁Мо	-11.9421
чи	-11.9421
▁Q	-11.9423
▁обил	-11.9424
▁ира	-11.9445
▁ive	-11.9445
▁m	-11.9447
лев	-11.9449
▁49	-11.945
▁мпан	-11.9462
▁d	-11.9469
ыш	-11.9487
▁Su	-11.9488
▁TV	-11.9489
▁шен	-11.9489
▁BBC	-11.9499
▁РФПЛ	-11.9501
рас	-11.9506
▁ицию	-11.9513
▁tor	-11.9517
▁Par	-11.9524
▁39	-11.9532
▁De	-11.9532
,1	-11.9532
▁мят	-11.9537
зу	-11.9538
▁аке	-11.9538
el	-11.9542
як	-11.9543
▁асов	-11.9554
▁ивер	-11.9557
▁Fo	-11.9559
▁омощ	-11.9561
еш	-11.9562
гда	-11.9563
▁яю	-11.9564
▁line	-11.9569
▁ачк	-11.9574
▁итат	-11.9582
▁лице	-11.9582
▁наме	-11.959
▁площ	-11.9613
▁вил	-11.9614
▁сул	-11.9617
▁ФТС	-11.9618
▁етра	-11.9618
фор	-11.9633
▁RU	-11.964
▁АИ	-11.9642
▁son	-11.9653
реду	-11.9656
▁неш	-11.9657
▁ТЭК	-11.967
убеж	-11.9674
гу	-11.9681
rk	-11.9685
re	-11.969
▁уа	-11.97
ийск	-11.9712
▁Uber	-11.9731
▁рудн	-11.9736
▁ines	-11.9739
анс	-11.9739
пул	-11.9753
▁очно	-11.9769
▁Go	-11.9769
▁ибу	-11.9781
▁рги	-11.9783
▁ниче	-11.9809
▁Ло	-11.9816
▁ссан	-11.9817
▁МТС	-11.9827
орит	-11.9829
on	-11.9834
▁нейш	-11.9835
▁o	-11.9846
▁арок	-11.9848
▁70%	-11.9855
▁iP	-11.9856
▁уй	-11.9856
под	-11.987
СПЧ	-11.9893
реть	-11.9896
▁енк	-11.9897
тя	-11.9898
▁ниям	-11.9902
бран	-11.9905
▁долл	-11.9911
▁улин	-11.9917
нир	-11.992
▁шет	-11.9924
▁ge	-11.9927
▁Ser	-11.994
▁нды	-11.994
▁рм	-11.9941
раво	-11.9945
▁каль	-11.9952
▁приз	-11.9952
▁Gold	-11.9968
▁НЕСКО	-11.9969
▁Getty	-11.9969
ын	-11.997
▁Play	-11.9972
▁бъ	-11.9972
▁зь	-11.9973
▁тко	-11.9978
▁bes	-11.9999
мон	-11.9999
СК	-12.0006
ап	-12.0011
▁аэ	-12.0012
гут	-12.0014
тон	-12.0014
ось	-12.0022
▁нны	-12.0031
▁2%	-12.0041
айер	-12.0041
B	-12.0044
▁анш	-12.0046
▁53	-12.0054
▁ch	-12.0055
▁нау	-12.0058
▁фран	-12.0059
vo	-12.0068
▁6,	-12.0068
▁mo	-12.0071
едет	-12.0079
▁ликов	-12.0088
▁ure	-12.0092
▁госп	-12.0094
кс	-12.0108
▁Deut	-12.0112
▁ПРО	-12.0113
▁дзо	-12.0123
▁56	-12.0124
▁DA	-12.0127
▁140	-12.0129
▁зю	-12.0131
▁ress	-12.0132
▁лта	-12.0155
▁ицио	-12.016
▁ефт	-12.0161
dy	-12.0164
бер	-12.0168
▁7,	-12.0169
▁ice	-12.0174
▁XXI	-12.0179
▁ужб	-12.018
гат	-12.0182
▁вете	-12.0184
▁неф	-12.0197
▁is	-12.02
ья	-12.0202
▁ur	-12.0206
краи	-12.0208
▁ley	-12.0209
▁дю	-12.021
▁f	-12.0211
▁Press	-12.0211
▁лева	-12.0213
▁оту	-12.0218
60	-12.0221
▁аку	-12.0237
нци	-12.024
ался	-12.0245
▁айл	-12.0247
▁72	-12.0261
СЖ	-12.0278
бек	-12.0283
▁нко	-12.0285
15	-12.0296
▁види	-12.0316
ьб	-12.0337
O	-12.0355
▁АЗ	-12.0361
▁еды	-12.0363
▁Sp	-12.0367
оход	-12.0374
▁НИИ	-12.0374
▁l	-12.0383
ици	-12.0385
▁пти	-12.0389
овол	-12.0397
кал	-12.0399
▁ерх	-12.0428
етыр	-12.0429
ше	-12.0431
▁ОАЭ	-12.0458
КБ	-12.047
▁обу	-12.0475
▁St	-12.0476
V	-12.0479
▁h	-12.0479
▁тч	-12.0485
▁раны	-12.0486
▁амы	-12.0487
▁let	-12.0488
ави	-12.0501
▁Fran	-12.0506
ите	-12.0515
▁шок	-12.0529
▁берт	-12.053
▁нца	-12.0537
▁нк	-12.0538
▁Nis	-12.0539
▁СБ	-12.0542
▁Mi	-12.0546
▁упи	-12.0549
▁74	-12.0549
знь	-12.0561
▁зир	-12.0567
▁ыка	-12.059
▁стор	-12.062
▁ноше	-12.0624
▁77	-12.0632
da	-12.0643
▁Wal	-12.0647
▁ler	-12.0677
Он	-12.0683
ний	-12.0697
▁App	-12.07
ща	-12.0702
ll	-12.0707
▁ry	-12.0714
▁go	-12.0741
▁поль	-12.0743
▁ВГТРК	-12.075
ство	-12.075
▁Rus	-12.0761
▁уал	-12.0774
▁sh	-12.0777
▁рям	-12.0779
▁вищ	-12.0784
▁ране	-12.0784
▁62	-12.0786
тиц	-12.0791
▁твуе	-12.0794
▁рупп	-12.08
▁енде	-12.0825
▁сте	-12.0829
▁Cap	-12.0831
бл	-12.0837
▁осм	-12.084
▁ицын	-12.0844
ды	-12.0849
▁60%	-12.0853
редн	-12.0855
▁кет	-12.0856
▁ПВО	-12.0863
▁105	-12.0865
▁ищу	-12.0873
гр	-12.0873
▁епа	-12.0874
▁ьи	-12.0876
▁вад	-12.0881
▁port	-12.0883
▁am	-12.0886
▁афи	-12.0888
▁апы	-12.089
дь	-12.0907
▁6%	-12.091
ИС	-12.0911
▁атк	-12.0925
▁War	-12.093
юк	-12.0936
▁ленн	-12.094
▁ua	-12.0949
▁рто	-12.0954
▁7%	-12.0959
▁МКАД	-12.0976
▁йству	-12.0983
▁МКС	-12.0985
▁Red	-12.1003
▁67	-12.1003
▁эй	-12.1007
▁аса	-12.101
нова	-12.1036
▁чения	-12.1039
ing	-12.1042
СА	-12.1056
ff	-12.1064
▁110	-12.1065
▁чко	-12.1069
▁Br	-12.1083
ба	-12.1085
▁окр	-12.1091
▁ацио	-12.1093
ьян	-12.1094
▁ечта	-12.1094
▁ишер	-12.1113
▁ОП	-12.1136
ишл	-12.1142
▁упе	-12.1164
щев	-12.1165
▁88	-12.117
▁ЦК	-12.1178
▁има	-12.1178
рн	-12.118
точ	-12.1193
▁апл	-12.1195
▁няти	-12.1203
рк	-12.1203
тат	-12.1212
▁ровки	-12.1212
азви	-12.1229
▁ВШЭ	-12.1242
▁Aut	-12.1258
ант	-12.1259
▁ex	-12.1273
6%	-12.1277
▁ica	-12.128
едо	-12.1288
РК	-12.1306
нное	-12.1311
ческ	-12.1317
ПС	-12.132
▁бри	-12.1321
▁ФСК	-12.1333
ежд	-12.136
▁тые	-12.1371
▁Chev	-12.138
▁уц	-12.138
▁КТАМ	-12.1381
▁ЕАЭС	-12.1381
▁РИКС	-12.1385
▁IAA	-12.1392
▁Gu	-12.1394
vi	-12.1398
есс	-12.1403
▁лка	-12.1407
бар	-12.1407
▁хмед	-12.1408
суще	-12.1414
▁ежа	-12.1426
▁XI	-12.1436
▁иси	-12.1444
ьер	-12.1448
мар	-12.1449
остр	-12.1454
▁тит	-12.1477
бун	-12.1481
▁тис	-12.1482
▁упа	-12.1488
▁окал	-12.149
ени	-12.1493
▁сай	-12.1499
▁ичем	-12.1504
иво	-12.1513
▁айер	-12.1517
▁WTI	-12.1517
▁дд	-12.1518
▁раф	-12.1527
▁Exp	-12.1527
▁#	-12.1533
▁амм	-12.1534
▁63	-12.1536
▁ятел	-12.1539
▁les	-12.1549
ar	-12.155
▁МФО	-12.1551
льши	-12.1552
▁$2	-12.1556
▁59	-12.1564
▁нл	-12.1577
▁52	-12.1578
циал	-12.158
▁дт	-12.159
▁org	-12.1607
▁родо	-12.1611
ank	-12.1614
тс	-12.1621
Х	-12.1628
явил	-12.1633
▁опр	-12.1635
▁Игр	-12.1639
▁g	-12.1643
▁li	-12.1643
▁лят	-12.1646
ПП	-12.1653
▁вский	-12.1654
коль	-12.1658
▁алу	-12.1669
йн	-12.1682
▁мерз	-12.1688
▁оим	-12.1694
▁иками	-12.1696
▁Ma	-12.171
▁bo	-12.1718
▁ицк	-12.1719
▁икам	-12.1719
▁лма	-12.1732
in	-12.1737
▁ржа	-12.174
▁Укр	-12.1745
▁фу	-12.1746
▁опа	-12.1752
▁3-	-12.1765
▁41	-12.1772
▁утб	-12.1773
▁корр	-12.1782
траф	-12.1795
▁Kia	-12.1801
МО	-12.1803
▁сман	-12.1805
▁$50	-12.1805
зац	-12.1809
▁ЕК	-12.1814
▁вл	-12.1828
▁скан	-12.1836
▁Фе	-12.1838
▁ауз	-12.1838
ber	-12.1839
▁ваю	-12.1851
▁Roll	-12.1851
▁шее	-12.1853
▁Pe	-12.186
▁RT	-12.1862
▁Ряд	-12.19
▁рго	-12.1916
▁ужбы	-12.1921
▁ону	-12.1928
▁вена	-12.1929
▁орс	-12.1929
▁азм	-12.1932
ском	-12.1964
▁рни	-12.1972
▁290	-12.1982
▁тная	-12.1988
▁етит	-12.1998
▁66	-12.2003
ащ	-12.2008
▁Com	-12.201
▁изи	-12.2028
▁боч	-12.2029
ГУП	-12.2033
▁8,	-12.2039
▁Mit	-12.2043
▁ошк	-12.2072
▁одил	-12.2075
@	-12.2077
▁РП	-12.2079
▁Asso	-12.2086
▁NAS	-12.2087
▁зо	-12.2125
▁Dis	-12.2125
▁адн	-12.2128
▁shi	-12.2131
0%	-12.214
TV	-12.214
▁буж	-12.215
▁осил	-12.2156
25	-12.2156
▁изе	-12.2159
ve	-12.2215
▁апе	-12.2217
▁ari	-12.2229
▁отор	-12.224
чес	-12.2241
▁арит	-12.2246
▁уто	-12.2247
▁егио	-12.2252
▁ейст	-12.2258
ГТРК	-12.2263
▁одина	-12.2266
11	-12.2283
мых	-12.2289
ut	-12.2314
▁ot	-12.2326
чик	-12.233
ox	-12.2332
▁ртер	-12.2343
▁нео	-12.235
▁Pol	-12.2363
бра	-12.2364
▁чки	-12.2365
▁co	-12.2383
▁йде	-12.2385
▁FIFA	-12.2395
▁ЕЦБ	-12.2397
▁бет	-12.2403
сон	-12.2411
орон	-12.2435
▁овет	-12.2436
▁сса	-12.2446
▁рези	-12.2452
pace	-12.2468
ость	-12.2483
eek	-12.249
▁трас	-12.2492
▁анды	-12.2492
▁чни	-12.2496
▁58	-12.2497
sh	-12.2498
цу	-12.2499
per	-12.2507
▁Пра	-12.2508
▁воро	-12.251
▁мали	-12.2521
▁ЧС	-12.2525
▁тым	-12.2529
ало	-12.2535
▁ИА	-12.2536
▁ПО	-12.2545
▁новы	-12.2546
▁РЕН	-12.2549
▁Glob	-12.2549
сел	-12.2556
пыт	-12.2557
зон	-12.2561
▁159	-12.2565
▁онстр	-12.258
▁стит	-12.2581
▁поло	-12.2589
▁нне	-12.2591
▁170	-12.2593
▁оны	-12.2599
▁обл	-12.2608
&	-12.2621
ибо	-12.2627
▁отал	-12.2628
▁елат	-12.2632
уар	-12.2641
▁КГБ	-12.2648
%.	-12.2664
гам	-12.2666
вид	-12.2668
▁тна	-12.268
▁Te	-12.2681
бщ	-12.2692
▁Car	-12.2695
▁нош	-12.2697
▁тег	-12.2697
▁асск	-12.2702
▁Pay	-12.2704
22	-12.2725
▁se	-12.273
▁очек	-12.2733
ls	-12.276
▁еза	-12.276
▁ловн	-12.2784
▁пирт	-12.2785
▁сал	-12.2787
▁Por	-12.279
▁озя	-12.28
▁ески	-12.2803
▁щение	-12.2806
шно	-12.2832
▁еска	-12.2835
▁ММА	-12.284
▁оят	-12.2847
▁роса	-12.2847
▁ито	-12.2872
▁ОКР	-12.2873
rd	-12.2874
кус	-12.2875
▁tors	-12.2878
▁шии	-12.2882
▁GT	-12.2883
▁пола	-12.2884
▁зви	-12.2894
▁450	-12.2896
▁Chr	-12.2901
▁Sup	-12.2902
▁Da	-12.2907
▁доч	-12.2924
▁лтай	-12.2928
▁bil	-12.2931
▁озы	-12.2932
IX	-12.2934
ток	-12.2939
▁отч	-12.294
▁Ins	-12.2942
▁лмы	-12.2944
щи	-12.2953
▁69	-12.296
▁арр	-12.2961
▁саж	-12.2967
▁ебен	-12.2968
▁зала	-12.2974
урен	-12.2978
▁68	-12.2983
▁очен	-12.2984
▁гло	-12.2995
ЭК	-12.2999
▁сма	-12.3004
▁5,5	-12.3004
▁ько	-12.3022
▁ВДНХ	-12.3025
▁ОРВИ	-12.3025
ьзу	-12.303
▁ubi	-12.3032
▁54	-12.3033
▁лина	-12.3034
▁ажа	-12.3049
▁ффе	-12.306
ца	-12.3077
▁ТО	-12.3079
▁73	-12.308
ai	-12.309
▁отер	-12.3101
▁All	-12.3109
▁луб	-12.311
▁кси	-12.3113
▁одер	-12.3114
▁АС	-12.3115
бн	-12.313
нут	-12.3131
чур	-12.3134
▁мун	-12.3144
▁отм	-12.3147
ьный	-12.3149
▁ar	-12.3165
▁нду	-12.3167
▁АИШ	-12.3188
▁Z	-12.3204
▁ГЭС	-12.3204
▁вине	-12.3208
▁gy	-12.3255
стве	-12.3259
▁оги	-12.3259
▁мыс	-12.3259
▁полов	-12.3268
▁ализ	-12.3271
▁иты	-12.3275
яя	-12.3295
▁pe	-12.3309
▁зинь	-12.3328
РА	-12.3334
▁Фра	-12.3337
гран	-12.3341
лле	-12.3354
▁ОДКБ	-12.3356
▁$40	-12.3357
Вы	-12.3362
тав	-12.3362
▁Pok	-12.3365
▁олин	-12.3367
ФК	-12.3371
▁Jo	-12.3372
▁es	-12.3379
анда	-12.3388
▁рке	-12.3395
чной	-12.3397
чего	-12.3411
ада	-12.342
▁алю	-12.3425
ойд	-12.3427
▁урба	-12.3432
▁han	-12.3438
▁ейк	-12.3442
▁анел	-12.3462
▁онах	-12.347
жк	-12.3478
ЖК	-12.3488
оме	-12.351
▁рог	-12.3511
▁ртн	-12.3516
ести	-12.3516
ВО	-12.3519
▁Ltd	-12.3523
▁ЮАР	-12.3527
▁Lex	-12.3528
инф	-12.3528
лас	-12.3545
▁8%	-12.3548
K	-12.3551
▁лли	-12.3553
▁Sky	-12.356
▁апит	-12.3584
▁гей	-12.3585
▁ающи	-12.3589
▁$4	-12.3593
▁мму	-12.3596
▁Ша	-12.3603
▁роек	-12.3628
аци	-12.363
▁5-	-12.3638
▁мисс	-12.3644
ться	-12.3645
▁нном	-12.3646
▁sa	-12.3646
тск	-12.3648
ень	-12.3662
пар	-12.3677
▁76	-12.3678
▁51	-12.3681
эр	-12.3683
▁Net	-12.3697
▁Open	-12.3697
▁Mark	-12.3702
щин	-12.3704
▁кц	-12.3721
▁кну	-12.3723
▁ment	-12.3725
N	-12.3726
▁риан	-12.3733
▁Ar	-12.3737
▁жин	-12.374
19	-12.3746
▁густ	-12.3751
ело	-12.3757
▁разо	-12.3757
▁МО	-12.3766
▁ериф	-12.3774
▁КПП	-12.3775
▁ванн	-12.3787
▁ффан	-12.3796
▁аня	-12.3804
▁начи	-12.3806
▁mic	-12.3808
рет	-12.3818
оиз	-12.3829
-2	-12.383
▁Chin	-12.383
▁мма	-12.3838
вает	-12.3839
▁ерик	-12.385
оло	-12.3858
ТЫ	-12.3859
сок	-12.3859
лю	-12.3867
▁НДФЛ	-12.3872
▁Sony	-12.3873
▁graph	-12.3873
▁Nord	-12.3875
▁пле	-12.3875
ух	-12.3876
▁ER	-12.3879
▁мка	-12.3879
;	-12.3908
анк	-12.3914
▁рох	-12.3917
бъе	-12.3925
эн	-12.3932
▁бре	-12.3932
▁Tran	-12.3946
▁есел	-12.3951
рис	-12.3961
маз	-12.397
▁зни	-12.3972
тных	-12.3977
FA	-12.398
▁исе	-12.3986
▁тап	-12.399
▁нтам	-12.3993
▁ув	-12.3998
▁иноп	-12.4
J	-12.4007
▁заве	-12.4017
▁Star	-12.4031
-5	-12.4047
рно	-12.4049
▁http	-12.4051
ства	-12.4051
▁УСАДА	-12.4052
▁ичны	-12.4055
▁зовы	-12.4058
▁СФ	-12.4062
ail	-12.407
▁МАК	-12.4072
Ка	-12.4079
▁Lo	-12.4089
▁ХХ	-12.409
аты	-12.4096
▁зу	-12.41
▁92	-12.4107
▁оха	-12.4113
op	-12.4118
бен	-12.4122
ерат	-12.413
СФС	-12.413
la	-12.4134
▁tch	-12.4134
▁алы	-12.4146
▁we	-12.4147
▁шат	-12.4153
▁сск	-12.417
▁lo	-12.4179
шев	-12.4185
ub	-12.4188
▁роко	-12.4199
▁зя	-12.4199
▁ожн	-12.421
зко	-12.4217
▁XVII	-12.4219
▁лга	-12.4222
▁El	-12.4223
▁Ba	-12.423
▁ВФЛА	-12.4233
▁МРОТ	-12.4234
est	-12.4253
▁яте	-12.4254
▁ТЭС	-12.4268
▁Ri	-12.4271
▁валк	-12.4274
▁бота	-12.4276
шн	-12.4278
▁VI	-12.4284
45	-12.4292
▁зме	-12.43
иона	-12.4303
▁едро	-12.4303
▁енген	-12.431
▁риум	-12.4313
▁Ze	-12.4318
▁95	-12.4338
▁ерсо	-12.435
▁анил	-12.4351
лавн	-12.4351
▁одст	-12.4354
R	-12.4358
дит	-12.4373
▁us	-12.4374
▁вд	-12.4391
ашин	-12.4393
▁84	-12.4394
ечен	-12.4398
̆	-12.4401
▁ИК	-12.441
▁la	-12.4411
li	-12.4412
▁стон	-12.4412
ra	-12.4418
-4	-12.4419
▁lla	-12.442
▁ВАДА	-12.4421
▁4-	-12.4424
▁лман	-12.4442
▁НК	-12.4444
уст	-12.4445
ешне	-12.4448
▁ейх	-12.4451
ела	-12.4456
▁cat	-12.4456
!	-12.4458
▁Bl	-12.4458
▁уация	-12.4459
цией	-12.446
ует	-12.4469
▁ерне	-12.4475
▁сра	-12.4479
▁абр	-12.448
▁уса	-12.4481
▁тира	-12.4483
тих	-12.4493
▁щил	-12.4515
▁шал	-12.4521
▁6-	-12.4526
пор	-12.453
ша	-12.4534
кими	-12.4575
▁Rov	-12.4616
tt	-12.4616
▁ness	-12.4618
▁ысо	-12.462
▁йзен	-12.4631
ОЗ	-12.4632
чан	-12.4638
аны	-12.4639
▁КБ	-12.4658
▁ерр	-12.4662
▁ейдж	-12.4664
ерт	-12.4664
▁сня	-12.4671
етр	-12.4701
▁НОВ	-12.4702
хи	-12.4702
▁Be	-12.4705
енер	-12.4711
90	-12.4719
ава	-12.4725
▁АН	-12.4726
▁220	-12.4736
▁мме	-12.4739
▁вую	-12.4747
ВД	-12.4747
▁айя	-12.4747
ахче	-12.475
рият	-12.4761
зы	-12.4763
▁онья	-12.4766
▁ищи	-12.477
▁амал	-12.4779
ki	-12.4805
▁егул	-12.4815
▁ехим	-12.4817
▁ТОР	-12.4821
▁льф	-12.4822
▁Comp	-12.4824
▁9%	-12.4828
▁Ura	-12.4833
КУ	-12.4834
",	-12.4839
▁коман	-12.4848
льш	-12.485
ДО	-12.4853
▁ифер	-12.4854
▁скал	-12.4855
▁ly	-12.4855
▁охр	-12.4876
▁нн	-12.4877
▁имы	-12.4877
▁лифа	-12.488
▁125	-12.4881
▁Hol	-12.4887
сал	-12.4887
▁мье	-12.489
18	-12.4892
▁di	-12.4899
▁амск	-12.49
ГК	-12.4909
ay	-12.4909
▁онц	-12.4909
ируе	-12.4926
рд	-12.4928
ефть	-12.4939
▁ида	-12.4953
▁£	-12.4961
ски	-12.4961
or	-12.4969
дж	-12.4975
▁1-	-12.4978
ЛОН	-12.4978
▁оуи	-12.4986
▁чал	-12.4986
▁егап	-12.4995
▁Ferr	-12.4998
▁ВДВ	-12.5002
▁евин	-12.5017
▁78	-12.5018
▁",	-12.5024
▁лук	-12.5028
соко	-12.503
▁ефан	-12.5032
▁ьет	-12.5042
нанс	-12.5046
▁нкер	-12.5051
▁Char	-12.5054
▁me	-12.5055
ПУ	-12.5069
▁ВЕ	-12.5075
▁We	-12.5086
▁хаос	-12.5089
▁пил	-12.5098
▁АСС	-12.5102
▁Moo	-12.5105
пре	-12.5109
▁айор	-12.5111
▁тайс	-12.5115
▁82	-12.5132
лся	-12.5142
▁мп	-12.5148
12	-12.5148
▁ерз	-12.5148
▁вит	-12.5159
17	-12.5159
▁оса	-12.5167
▁wer	-12.5176
▁антин	-12.518
▁ирую	-12.5183
▁ози	-12.5186
▁Gran	-12.5189
мя	-12.5192
▁ыры	-12.5199
▁ver	-12.5205
▁вагон	-12.5208
▁ерево	-12.5225
FC	-12.5225
▁9,	-12.5227
▁НПЗ	-12.5228
▁нто	-12.5232
▁і	-12.5233
▁оник	-12.5233
▁узыр	-12.5236
▁VR	-12.5238
ect	-12.524
НТ	-12.5243
лани	-12.5253
фон	-12.5256
le	-12.526
ink	-12.5274
▁61	-12.528
ct	-12.5281
инов	-12.5284
▁вании	-12.5316
▁ауэр	-12.5318
стер	-12.5346
▁вог	-12.5348
▁аук	-12.5361
▁ini	-12.5361
▁теш	-12.5372
▁миг	-12.5376
▁2-	-12.5377
▁исх	-12.5383
тн	-12.539
▁зада	-12.5397
▁Sach	-12.5399
▁лн	-12.5399
▁ПАРК	-12.5401
дач	-12.5401
▁тая	-12.5407
▁gem	-12.5414
▁сле	-12.5418
▁унг	-12.5422
ФСБ	-12.5427
▁астн	-12.5432
▁умб	-12.5454
▁79	-12.5469
▁дки	-12.5474
▁Lim	-12.5475
▁варт	-12.548
▁Blu	-12.5483
▁инто	-12.5485
▁Hi	-12.5486
яч	-12.5495
▁арю	-12.5497
24	-12.5498
иаль	-12.5498
▁мек	-12.5499
No	-12.5505
ad	-12.5508
▁хэм	-12.5517
▁ахо	-12.5518
▁аза	-12.5526
хир	-12.5528
▁ыст	-12.5533
ика	-12.5534
.)	-12.5534
▁луг	-12.5535
▁86	-12.5543
рш	-12.5546
▁ропо	-12.5552
▁u	-12.5553
▁Ni	-12.5567
▁мощи	-12.5579
▁лени	-12.5587
rg	-12.5588
ейн	-12.5597
ово	-12.5603
▁шот	-12.5603
▁ьг	-12.5603
▁Plus	-12.5607
▁ШОС	-12.5607
▁родов	-12.5607
▁Mazda	-12.5608
▁Media	-12.5608
▁НПО	-12.5612
▁рне	-12.5618
▁МЭР	-12.5618
▁Ta	-12.5621
▁ьют	-12.5622
▁$5	-12.563
▁андер	-12.5631
▁Ког	-12.5633
упп	-12.5637
еред	-12.5639
▁per	-12.5641
ЭЦ	-12.5641
▁k	-12.5644
Ш	-12.5656
▁енна	-12.5658
▁What	-12.566
▁ейф	-12.5662
▁190	-12.567
▁14%	-12.5671
▁by	-12.5678
▁Mc	-12.5683
▁2,6	-12.5689
▁Ты	-12.569
▁Mat	-12.5694
нда	-12.5697
▁ОМС	-12.57
▁етве	-12.5702
▁удк	-12.5709
▁амо	-12.5716
▁7-	-12.5726
▁логии	-12.5726
Z	-12.5728
ктр	-12.5729
ВК	-12.573
олк	-12.5737
▁ору	-12.574
▁скл	-12.5747
ur	-12.5749
▁ателе	-12.5754
▁Bell	-12.5754
▁круч	-12.577
тро	-12.5773
▁oo	-12.5776
▁икар	-12.5781
▁Ro	-12.5792
▁ащи	-12.5792
▁айдар	-12.5799
▁мид	-12.5803
обн	-12.5805
вом	-12.5812
um	-12.5815
▁либр	-12.5816
▁нор	-12.582
▁eca	-12.5821
утин	-12.5849
▁ьва	-12.585
еск	-12.586
зве	-12.587
етен	-12.5873
▁нде	-12.5881
▁11%	-12.5884
▁ующи	-12.5888
▁Inv	-12.5895
▁ФМС	-12.5896
▁71	-12.5898
▁r	-12.59
лер	-12.5906
▁АПК	-12.5906
▁280	-12.5907
БК	-12.5914
▁нали	-12.593
рм	-12.5934
▁оскв	-12.594
▁нез	-12.595
КП	-12.5952
▁Ac	-12.5954
ИК	-12.5962
▁be	-12.5967
знач	-12.597
▁нси	-12.5974
▁огл	-12.5981
▁МОСТ	-12.5997
▁сур	-12.6006
▁ТЦ	-12.6024
▁Th	-12.603
▁БТР	-12.6039
▁=	-12.604
учше	-12.6048
▁Sci	-12.6051
id	-12.6053
тров	-12.6056
▁ICE	-12.6062
ys	-12.6071
ическ	-12.6072
▁Pa	-12.6073
йзер	-12.609
▁Ей	-12.6091
▁огин	-12.61
▁ейма	-12.6101
рган	-12.6104
род	-12.6105
▁усс	-12.611
▁энд	-12.6112
эк	-12.6125
▁еоб	-12.6127
▁гно	-12.6127
▁итаю	-12.6133
▁юч	-12.6136
▁айс	-12.6143
▁Vis	-12.6143
ФАС	-12.6149
▁зиро	-12.6153
▁my	-12.6156
нце	-12.6157
▁SE	-12.616
ыли	-12.616
▁тич	-12.6164
ni	-12.6166
▁ron	-12.6181
пуля	-12.6181
14	-12.6189
▁озр	-12.619
▁анже	-12.6193
цер	-12.6202
▁Di	-12.6204
▁рде	-12.621
ity	-12.622
▁анр	-12.6227
▁яб	-12.6232
раж	-12.6232
21	-12.6241
▁uar	-12.6248
13	-12.6248
▁RE	-12.6251
▁сн	-12.6255
так	-12.6256
arch	-12.6257
ТП	-12.6259
▁есто	-12.6263
тыр	-12.6267
▁ures	-12.6271
▁Мн	-12.6271
▁ляп	-12.6278
ke	-12.6296
▁опат	-12.6302
▁270	-12.6312
▁реля	-12.6315
▁уан	-12.6315
▁ровой	-12.6318
▁еаль	-12.6325
▁клю	-12.6337
боро	-12.6337
▁мех	-12.6344
▁арва	-12.6346
гал	-12.6351
▁осв	-12.6365
▁...	-12.6375
▁Cre	-12.6376
▁ицце	-12.6384
▁унь	-12.6386
▁Mas	-12.6389
▁чек	-12.6395
▁fi	-12.6395
зин	-12.641
cy	-12.6416
СН	-12.6418
ыт	-12.6419
▁Sa	-12.6421
▁230	-12.6423
▁Ja	-12.6424
▁Mode	-12.6428
овен	-12.6432
▁99	-12.6444
▁щиц	-12.6472
▁нив	-12.6478
▁Man	-12.6483
▁ЛГБТ	-12.6486
▁най	-12.6487
▁Sou	-12.6487
28	-12.6494
Ц	-12.6508
do	-12.6508
▁Gene	-12.6523
▁Kar	-12.6527
▁лой	-12.6528
▁Це	-12.6533
▁sti	-12.6542
▁ОПК	-12.6548
▁240	-12.6551
▁оук	-12.6571
▁ебо	-12.6576
▁Мэй	-12.6583
сит	-12.6584
▁онку	-12.659
▁дв	-12.6591
ала	-12.6599
▁окси	-12.66
▁майд	-12.6615
▁Cit	-12.6615
▁рп	-12.6618
PS	-12.6643
▁Art	-12.6651
▁Sko	-12.6653
БР	-12.6654
льз	-12.6664
▁pro	-12.6668
▁уар	-12.6673
az	-12.668
▁реп	-12.6693
IA	-12.6693
▁опус	-12.6695
▁уаль	-12.6696
бэ	-12.67
`	-12.6703
рес	-12.6704
▁CO	-12.6704
ЕГА	-12.6707
▁Mars	-12.6708
23	-12.6709
АФ	-12.6714
▁лых	-12.6715
▁МФЦ	-12.6717
▁Bild	-12.6719
▁Corp	-12.6719
тк	-12.6727
неш	-12.6728
▁Фо	-12.6731
▁щу	-12.6732
▁вост	-12.6737
▁Petr	-12.6738
рог	-12.6744
▁едов	-12.6751
она	-12.6764
ино	-12.6767
▁ужн	-12.6775
▁убли	-12.6794
▁зб	-12.6795
рию	-12.6797
екс	-12.6807
ЭС	-12.6816
туп	-12.682
▁ават	-12.684
▁пот	-12.6841
дор	-12.6841
▁Inde	-12.6845
ерн	-12.6852
▁кти	-12.6858
Е	-12.6863
▁Gua	-12.6864
▁Тра	-12.6869
▁итк	-12.6875
▁Hond	-12.6875
▁тюш	-12.688
▁Eco	-12.6881
роче	-12.6898
▁унз	-12.6899
▁der	-12.6911
▁унгл	-12.6921
▁81	-12.6922
овн	-12.6941
▁ba	-12.6945
▁виц	-12.695
бще	-12.6963
▁ожь	-12.6964
▁СРО	-12.6965
▁nes	-12.6965
▁амвай	-12.697
ТК	-12.6972
▁ини	-12.6974
▁Chan	-12.698
▁ГУП	-12.6983
▁ором	-12.6983
имен	-12.6985
▁Вик	-12.6993
онер	-12.7005
▁ФСО	-12.7013
▁кучн	-12.702
▁зан	-12.7022
эт	-12.7024
▁ипт	-12.7028
теле	-12.7028
▁дол	-12.7031
пан	-12.7031
иха	-12.7039
▁tte	-12.704
бот	-12.7051
▁Do	-12.7059
L	-12.7059
▁111	-12.706
аши	-12.7067
▁мак	-12.7067
КР	-12.7081
▁ельф	-12.7083
▁ывае	-12.7083
роб	-12.7085
яж	-12.7086
отя	-12.7108
▁олоч	-12.7109
лк	-12.7116
ека	-12.7121
▁унн	-12.7121
▁агад	-12.7126
▁Med	-12.7142
лок	-12.7158
азв	-12.7158
уг	-12.7161
▁IN	-12.7161
▁икат	-12.717
▁94	-12.7171
▁mi	-12.7172
▁аман	-12.7179
▁ейха	-12.7184
▁фре	-12.7187
стн	-12.7191
отр	-12.7197
▁урк	-12.7199
▁Today	-12.7201
▁МЦК	-12.7202
▁чил	-12.7206
▁прои	-12.7209
▁Ca	-12.7212
▁play	-12.7217
▁gov	-12.7222
паде	-12.7225
es	-12.7237
▁ha	-12.724
▁дой	-12.7243
ись	-12.7247
▁Inc	-12.7256
▁Ra	-12.7258
▁ухи	-12.7262
ab	-12.7268
▁мбер	-12.727
гов	-12.7279
16	-12.7282
▁лян	-12.7286
▁Ko	-12.7293
кор	-12.7295
▁ГД	-12.7306
▁par	-12.7306
▁So	-12.7307
▁83	-12.7319
▁Bus	-12.7319
кул	-12.7321
▁ните	-12.7325
▁Cor	-12.7332
27	-12.7334
изнь	-12.7334
▁ейган	-12.7337
▁ои	-12.7338
▁va	-12.7339
лог	-12.7341
▁тавл	-12.7343
тно	-12.7348
BIT	-12.7351
AX	-12.7352
ык	-12.7359
ЗС	-12.736
▁жда	-12.7362
▁зм	-12.7379
▁ОЭС	-12.7386
няк	-12.7386
40	-12.7387
▁ирь	-12.7398
▁овк	-12.7411
▁Cam	-12.742
▁РПК	-12.7428
ТИ	-12.7433
▁етти	-12.7444
ill	-12.7445
ty	-12.7447
▁КВН	-12.7449
▁IKEA	-12.745
ПИ	-12.7452
▁БМП	-12.7453
▁МВ	-12.7454
ием	-12.7461
оща	-12.7462
BO	-12.7463
ась	-12.7468
евн	-12.7469
▁ионе	-12.747
ФЗ	-12.7471
бол	-12.7472
▁ерин	-12.7473
▁BP	-12.7474
▁360	-12.7476
▁оше	-12.7477
▁ьях	-12.748
▁ето	-12.7482
кл	-12.7505
раф	-12.7519
ейш	-12.752
▁лавн	-12.7527
▁зад	-12.7541
▁УФС	-12.7545
МС	-12.7547
▁моле	-12.7559
▁яск	-12.756
▁окру	-12.7568
▁ота	-12.7575
▁ay	-12.7576
лись	-12.7586
▁приг	-12.7589
▁ерес	-12.7591
ели	-12.7608
▁Ya	-12.7611
▁вон	-12.7612
▁айлд	-12.7615
ших	-12.7622
еб	-12.7629
вига	-12.7643
▁игма	-12.7656
▁НГ	-12.7661
▁НС	-12.7662
▁ьки	-12.7675
▁sk	-12.7693
▁Дом	-12.7693
u	-12.7698
▁nt	-12.7699
рист	-12.7703
▁Time	-12.7705
▁Cent	-12.7708
▁lop	-12.7716
▁поми	-12.7716
▁люк	-12.7718
▁Fon	-12.7718
▁ае	-12.7719
▁ванш	-12.7745
СР	-12.7753
тоим	-12.7768
▁16%	-12.7771
рост	-12.7771
▁Comm	-12.7774
▁At	-12.7776
кну	-12.7781
▁Pal	-12.7791
▁уэл	-12.7792
ba	-12.7793
▁x	-12.7793
as	-12.7812
лл	-12.7814
▁бла	-12.7816
▁do	-12.782
▁Ind	-12.782
сен	-12.7822
ПГ	-12.783
▁€1	-12.7835
ано	-12.7845
мме	-12.785
▁lin	-12.7852
ium	-12.7852
▁пей	-12.7858
ork	-12.7861
▁анха	-12.7881
▁ОО	-12.7888
езд	-12.7902
BA	-12.7902
лы	-12.7906
▁Spu	-12.7915
▁tic	-12.7919
▁ics	-12.7919
▁AR	-12.792
▁Ын	-12.7924
▁ore	-12.7925
▁Бе	-12.7946
НБ	-12.7949
▁рое	-12.7953
▁РА	-12.7956
▁ЖК	-12.7961
ГС	-12.7961
▁(1	-12.7962
▁дате	-12.7968
▁урби	-12.798
▁Live	-12.7984
▁Shel	-12.7989
▁stm	-12.7993
▁238	-12.7994
ельн	-12.8013
▁рси	-12.8018
шие	-12.8034
ейк	-12.8042
▁Dev	-12.805
70	-12.8056
рир	-12.8059
▁22%	-12.8059
▁нян	-12.8061
▁PR	-12.8063
ера	-12.8089
▁екан	-12.8093
▁Si	-12.8093
итель	-12.8098
▁летк	-12.81
это	-12.8109
▁ti	-12.8111
Росси	-12.812
▁ыз	-12.812
▁нью	-12.8121
▁93	-12.8124
▁XVI	-12.8131
ts	-12.8132
▁ивае	-12.8136
▁пери	-12.8137
-6	-12.8141
▁йст	-12.8141
фа	-12.8152
▁вки	-12.8155
▁sse	-12.8157
▁эйл	-12.8157
▁онни	-12.8158
▁орти	-12.8169
▁2"	-12.818
Q	-12.8182
▁Mor	-12.8184
co	-12.8193
арт	-12.8195
▁tel	-12.8199
ньк	-12.8201
▁91	-12.8203
▁ихуа	-12.8219
▁аби	-12.822
▁уск	-12.8233
▁наза	-12.8237
▁RNS	-12.8238
▁iOS	-12.8239
▁УВЗ	-12.824
va	-12.824
орой	-12.8244
▁згл	-12.8248
▁Fl	-12.8249
▁елоч	-12.8249
▁хмад	-12.8251
▁fo	-12.8257
▁10,	-12.8261
▁ату	-12.8267
▁нгар	-12.8268
▁РСП	-12.8279
▁имс	-12.8281
ДН	-12.8294
▁тке	-12.8297
▁Stan	-12.8303
има	-12.8309
▁17%	-12.8314
▁ект	-12.8319
вать	-12.8325
▁225	-12.8331
▁ксе	-12.8335
РУ	-12.8338
▁евн	-12.8343
▁ОВД	-12.8351
▁тс	-12.8352
Ч	-12.8353
▁Stat	-12.8363
▁ain	-12.8368
аха	-12.8372
ушк	-12.8383
▁ежц	-12.8383
ПЛ	-12.8396
лад	-12.8398
de	-12.8401
▁АП	-12.8406
▁UF	-12.8411
▁офер	-12.842
▁аро	-12.842
▁woo	-12.8428
▁$6	-12.8431
▁рна	-12.8434
▁Ag	-12.844
Ю	-12.8451
▁Blo	-12.8454
ху	-12.8454
▁анель	-12.8456
оф	-12.8472
E	-12.848
1,	-12.8487
▁прок	-12.8488
иш	-12.8493
▁еек	-12.8495
one	-12.8497
АН	-12.8497
▁Sola	-12.8498
▁IBU	-12.8516
▁2:1	-12.8517
2,	-12.852
▁лема	-12.8523
▁уэн	-12.8523
До	-12.8529
▁корм	-12.8532
ех	-12.8536
ns	-12.8547
▁ейлор	-12.8549
фан	-12.855
▁Her	-12.8551
▁Ki	-12.8557
▁хин	-12.8557
▁етан	-12.8568
▁Or	-12.8571
▁МОН	-12.8583
ion	-12.8596
▁рещ	-12.8601
той	-12.8603
▁lic	-12.8604
нен	-12.8605
▁уго	-12.8611
▁GO	-12.8611
очек	-12.8621
▁Lu	-12.8622
mi	-12.8625
изо	-12.8626
▁стям	-12.8627
ниях	-12.8629
▁МЭ	-12.8637
▁хта	-12.8642
▁ове	-12.865
to	-12.865
▁нб	-12.8652
▁Ир	-12.8653
ими	-12.8659
▁арин	-12.8668
рци	-12.8669
▁шель	-12.8677
▁pa	-12.8678
▁зри	-12.8679
▁онч	-12.8687
▁ow	-12.8693
SA	-12.8694
▁кре	-12.8711
OS	-12.8722
▁ral	-12.8723
РСК	-12.8726
▁HD	-12.8727
▁ka	-12.8727
ep	-12.8731
ИТ	-12.8735
ция	-12.8738
▁Vo	-12.875
ерж	-12.8763
▁дым	-12.8764
▁вист	-12.8767
eug	-12.8771
ским	-12.878
▁сом	-12.8784
▁ампер	-12.8788
СБУ	-12.8789
▁иша	-12.8792
MH	-12.8792
▁нни	-12.8801
▁WTA	-12.8802
▁roen	-12.8803
▁Watch	-12.8804
▁Royce	-12.8804
▁НАСА	-12.8807
▁Mir	-12.8813
▁МУП	-12.8817
▁340	-12.8824
▁Musi	-12.8836
▁175	-12.8838
ида	-12.8843
етс	-12.8854
От	-12.8871
▁НДП	-12.8874
▁Har	-12.8888
▁ыбо	-12.8893
▁ишеч	-12.8895
▁Clas	-12.8914
▁uri	-12.8919
▁льфи	-12.8928
▁лиф	-12.8931
▁ФОМ	-12.8937
▁ВТО	-12.8939
▁borg	-12.8944
жа	-12.8945
ex	-12.8952
▁жес	-12.8952
нфе	-12.8955
гар	-12.896
▁иля	-12.8968
люч	-12.8983
ссию	-12.8986
▁ГБ	-12.899
▁хра	-12.8996
▁СЕ	-12.9
▁Na	-12.9003
▁ерца	-12.9005
чег	-12.9011
▁крут	-12.9014
▁зра	-12.9026
кото	-12.9026
орт	-12.9031
▁авши	-12.9033
▁тиру	-12.9035
zz	-12.9038
▁рбен	-12.904
▁орча	-12.9041
▁оуми	-12.9043
▁дера	-12.9044
▁суж	-12.9046
▁3.	-12.9048
▁Res	-12.9051
▁люч	-12.9054
▁ейт	-12.9055
▁аски	-12.9056
СС	-12.9062
ge	-12.9069
око	-12.907
▁пото	-12.907
▁Sea	-12.9071
▁зино	-12.9071
▁ллин	-12.9074
▁лай	-12.908
др	-12.9085
▁нтер	-12.9086
▁виней	-12.9091
▁рков	-12.9095
▁ЛЭП	-12.9097
▁ЛРОСА	-12.9098
тств	-12.9108
▁ожни	-12.911
▁НБА	-12.9115
▁Adv	-12.9124
▁Del	-12.9128
▁Ha	-12.9131
НЛ	-12.9135
49	-12.9137
рс	-12.914
▁урис	-12.9141
▁Sol	-12.9148
ржи	-12.9161
▁Ch	-12.9165
▁сий	-12.9174
▁аул	-12.9176
▁муз	-12.9181
▁Sun	-12.9181
lect	-12.9182
▁po	-12.9184
▁поэ	-12.9185
рени	-12.919
▁pol	-12.9193
▁lli	-12.9195
▁воли	-12.9199
▁8-	-12.92
▁лж	-12.9201
ото	-12.9204
▁бою	-12.9204
юр	-12.9205
рджи	-12.9206
▁хме	-12.9215
ышл	-12.9221
▁овит	-12.9225
▁ушн	-12.9232
▁хам	-12.9236
▁чили	-12.9239
ится	-12.924
▁РК	-12.9256
▁вн	-12.9269
лей	-12.9282
▁lie	-12.9282
вам	-12.9286
▁юль	-12.9293
▁урил	-12.9294
▁Well	-12.9297
▁обин	-12.9306
ерин	-12.9311
ольз	-12.9312
нч	-12.9329
▁ina	-12.9333
BS	-12.9337
▁уду	-12.9339
▁лют	-12.934
▁ьед	-12.9346
евра	-12.9362
▁анер	-12.9363
▁сси	-12.9365
▁рка	-12.9381
ICI	-12.9386
▁оун	-12.939
▁ебно	-12.9392
▁чье	-12.9396
▁илья	-12.9396
▁(!)	-12.9398
▁Insi	-12.9399
▁2:0	-12.9399
▁1:1	-12.9399
▁Drive	-12.9401
▁IPO	-12.9401
утер	-12.9412
▁ивье	-12.9414
▁ФСС	-12.9419
Э	-12.9421
▁ешн	-12.9423
вор	-12.9424
▁Мун	-12.9431
▁егет	-12.9433
▁гов	-12.9461
Y	-12.9463
▁аркер	-12.9463
▁фак	-12.9469
иф	-12.9469
▁Rio	-12.9479
▁альс	-12.9484
▁линг	-12.9486
ВТО	-12.9487
▁her	-12.9492
▁Aw	-12.9497
уль	-12.9498
▁анган	-12.9502
Из	-12.9503
▁авит	-12.9505
РБ	-12.9511
▁СМ	-12.9511
▁бах	-12.9512
▁цин	-12.9514
уля	-12.9516
эй	-12.9521
ики	-12.9544
мм	-12.9545
фар	-12.9549
▁вым	-12.955
▁um	-12.9556
▁иго	-12.9563
▁tar	-12.9573
▁оге	-12.9576
Ты	-12.9578
тич	-12.9587
▁RA	-12.9589
ИА	-12.9594
ord	-12.9594
сет	-12.9604
▁тари	-12.9625
▁уде	-12.963
▁Pi	-12.9635
бе	-12.9636
▁DS	-12.9638
▁веш	-12.9646
▁эйн	-12.9648
▁номо	-12.9665
опыт	-12.9669
▁тами	-12.967
▁ошка	-12.9676
▁опп	-12.9683
▁олан	-12.9683
▁упк	-12.969
▁юг	-12.9691
анд	-12.9702
▁Bu	-12.9703
пере	-12.9704
▁баш	-12.9707
ОП	-12.9708
пинг	-12.971
▁SMS	-12.9711
▁Roy	-12.9711
▁Citi	-12.9713
▁City	-12.9713
АНХ	-12.9717
омис	-12.9719
▁ult	-12.9729
▁ирги	-12.973
зда	-12.9741
рук	-12.9741
▁Bar	-12.9742
Да	-12.9746
атов	-12.9746
ДК	-12.9748
МЗ	-12.9749
35	-12.9751
▁IC	-12.9756
▁GM	-12.9769
▁135	-12.9774
▁оору	-12.9775
▁ОКБ	-12.9776
нф	-12.9777
жан	-12.9779
NT	-12.9786
▁улкан	-12.9788
▁Book	-12.9796
реш	-12.9805
абот	-12.9808
еть	-12.9821
▁хит	-12.9833
рудн	-12.9838
▁боты	-12.9842
мл	-12.9856
▁Sec	-12.9862
▁il	-12.9879
▁апин	-12.9887
MG	-12.9905
▁ишке	-12.9906
▁Mac	-12.9913
▁инья	-12.9919
▁Dub	-12.9919
▁ехт	-12.9928
Й	-12.993
▁усь	-12.9933
▁Ev	-12.9936
мал	-12.9938
▁скад	-12.9938
▁Дэ	-12.9943
▁лты	-12.9944
▁Stor	-12.9951
IB	-12.998
олн	-12.9982
ОСТ	-12.9983
енит	-12.9986
▁иоск	-12.9997
TE	-13.0007
▁чны	-13.0028
▁SA	-13.0029
▁муш	-13.0029
▁Focus	-13.0035
▁back	-13.0035
▁Per	-13.0035
▁ылды	-13.0038
▁убк	-13.004
▁Beat	-13.0042
▁льну	-13.0044
▁ицц	-13.0045
овин	-13.0048
▁шелон	-13.0056
▁етхо	-13.0057
▁Em	-13.0064
▁исти	-13.0069
тим	-13.0069
▁Turk	-13.0071
▁45%	-13.0073
▁ейм	-13.0074
онод	-13.0075
▁ГБУ	-13.0086
▁уэль	-13.0094
▁арес	-13.0095
▁ердж	-13.0096
26	-13.0097
▁Tour	-13.0104
РП	-13.0109
▁Bro	-13.0117
▁ter	-13.0119
29	-13.0119
▁are	-13.0121
▁варц	-13.0138
▁рение	-13.0143
▁вик	-13.0145
▁1"	-13.0146
▁ei	-13.0146
енк	-13.015
▁рета	-13.0154
▁Rad	-13.0155
▁as	-13.0161
▁v	-13.0161
▁ишен	-13.0167
▁ельфе	-13.018
ьев	-13.0184
ищу	-13.0194
лли	-13.0196
▁con	-13.0197
▁РТ	-13.02
▁iy	-13.0201
щик	-13.0207
ата	-13.0214
▁Pat	-13.0215
чем	-13.0216
▁210	-13.0221
работ	-13.0225
ri	-13.0227
▁айка	-13.0227
▁ческу	-13.023
▁хни	-13.023
айт	-13.0236
▁вуз	-13.0243
▁Av	-13.0246
еньг	-13.0248
▁осов	-13.0249
тет	-13.0256
▁юга	-13.026
ТБ	-13.0262
▁Ги	-13.0263
▁97	-13.0289
▁дэ	-13.0297
гио	-13.0298
▁СЭ	-13.0301
▁бова	-13.0305
▁ban	-13.0306
pt	-13.0308
▁VII	-13.0308
▁ber	-13.0308
▁Bal	-13.0321
▁спр	-13.0322
▁РД	-13.0323
na	-13.0344
есто	-13.0347
▁Hu	-13.0353
зо	-13.0359
▁НАБ	-13.0361
▁ie	-13.0363
бес	-13.0366
▁Fa	-13.0367
▁Club	-13.0367
▁Aust	-13.0368
▁ЯНАО	-13.0369
▁ФНБ	-13.0372
фин	-13.0372
▁фев	-13.0373
▁It	-13.0382
йк	-13.0383
УК	-13.0384
ули	-13.0387
газ	-13.0391
чив	-13.0398
▁Cru	-13.0402
▁4,3	-13.0404
H	-13.0409
▁Hua	-13.0411
2.	-13.0419
▁льма	-13.043
▁угун	-13.0435
▁ьхуа	-13.0438
▁нц	-13.0443
▁итяз	-13.0445
▁оян	-13.0452
▁екто	-13.0459
тун	-13.0461
ПА	-13.0462
тян	-13.0463
▁AG	-13.0466
адач	-13.0467
▁ыжи	-13.0469
▁Росс	-13.0471
▁кли	-13.0481
IM	-13.0481
▁ордан	-13.0482
▁нья	-13.0483
ak	-13.0495
▁13%	-13.0496
▁айф	-13.0499
▁ee	-13.0503
oda	-13.0504
шил	-13.0505
▁айда	-13.0511
▁едр	-13.0512
▁фари	-13.0515
ге	-13.0516
▁ey	-13.0525
▁ho	-13.0534
34	-13.0535
▁иэл	-13.0536
ицк	-13.054
айк	-13.054
▁Wa	-13.0548
▁Se	-13.0549
дес	-13.0549
▁SU	-13.0552
ИН	-13.0555
▁хн	-13.0558
▁рга	-13.056
▁FI	-13.0568
осту	-13.0571
оли	-13.0572
▁LG	-13.0578
ИКС	-13.0581
▁айон	-13.0586
▁oi	-13.0587
▁утв	-13.0587
иев	-13.059
цен	-13.0595
▁nov	-13.06
▁льта	-13.0602
tock	-13.0605
▁нте	-13.0608
▁иман	-13.0627
ry	-13.0632
мощь	-13.0635
▁uni	-13.0647
оду	-13.0654
рам	-13.0655
▁воля	-13.0659
▁Ran	-13.0669
▁арги	-13.067
▁кла	-13.0673
рои	-13.068
▁РС	-13.0681
▁АМА	-13.0681
▁азур	-13.0683
▁ng	-13.0691
•	-13.0699
ers	-13.0702
▁еде	-13.0708
▁Cross	-13.0713
▁Vesta	-13.0713
▁уха	-13.0715
un	-13.0716
▁хром	-13.0718
▁уты	-13.0723
ood	-13.0728
77	-13.0729
чек	-13.0732
▁МАО	-13.0739
ЗИ	-13.0739
▁ier	-13.074
▁cle	-13.0748
▁MS	-13.0749
▁ГРЭС	-13.0749
▁ТПП	-13.075
▁МГИ	-13.0753
▁шкент	-13.0755
нхай	-13.0755
▁bi	-13.0757
3,	-13.0758
▁tek	-13.076
▁УПК	-13.0766
▁155	-13.0777
эм	-13.0779
▁ДП	-13.0785
▁320	-13.0786
они	-13.0793
▁оа	-13.0802
ысяч	-13.0804
пос	-13.0806
▁дай	-13.082
▁222	-13.0828
▁24"	-13.0837
▁нер	-13.0839
▁вичу	-13.084
▁имон	-13.0841
порт	-13.085
▁яни	-13.0855
айд	-13.0858
льф	-13.0864
▁NY	-13.0866
бан	-13.0873
РЦ	-13.0877
ядк	-13.0884
СМ	-13.0887
бал	-13.0907
ивн	-13.0913
▁Bear	-13.0913
ix	-13.0917
▁$7	-13.0931
▁pri	-13.095
рри	-13.0952
MI	-13.0962
юс	-13.0972
nk	-13.0973
шим	-13.0973
АНО	-13.0981
едп	-13.0984
▁амс	-13.0992
▁Sy	-13.0992
▁деля	-13.1003
▁Ива	-13.1005
▁утч	-13.1007
▁id	-13.1029
▁мк	-13.1036
торо	-13.1038
▁87	-13.1043
▁Sto	-13.1044
рода	-13.1048
ФИ	-13.1054
хар	-13.1065
▁>>	-13.1066
▁VW	-13.1066
▁ert	-13.1067
▁WBC	-13.1069
▁1:0	-13.1069
▁СПИД	-13.1069
щн	-13.107
▁ways	-13.107
▁Card	-13.1071
▁ургу	-13.1081
▁Are	-13.1083
ВС	-13.1087
▁Bull	-13.1087
▁109	-13.1109
▁108	-13.111
ЛК	-13.1113
▁КТО	-13.1116
".	-13.1118
▁eo	-13.1135
▁ульс	-13.1138
▁ГУЭ	-13.1138
▁ноп	-13.1139
▁Ph	-13.1143
▁26%	-13.1144
▁юэ	-13.116
▁ороп	-13.1166
куум	-13.117
▁Not	-13.1181
топ	-13.1187
АТ	-13.1196
ори	-13.1201
жу	-13.1202
NS	-13.1212
(	-13.1213
▁Free	-13.122
лег	-13.1222
тари	-13.1223
▁одж	-13.1225
тоя	-13.1229
▁GL	-13.1246
иту	-13.1265
▁алис	-13.1268
▁мок	-13.1269
▁иньо	-13.1276
▁роц	-13.1293
лод	-13.1297
▁игес	-13.1299
▁ишне	-13.1299
▁tie	-13.13
оис	-13.1315
▁Ara	-13.1316
ev	-13.1319
rs	-13.1325
▁Prim	-13.1339
▁Ama	-13.136
▁Ope	-13.1364
▁здр	-13.141
этом	-13.1427
▁сало	-13.1429
▁ФС	-13.1434
▁СНБО	-13.1439
▁San	-13.1441
▁0,	-13.1442
авля	-13.1447
бур	-13.1447
ньш	-13.1451
UE	-13.1453
▁ринью	-13.1454
▁НКР	-13.1454
▁tes	-13.1456
▁ево	-13.1457
▁Trav	-13.1457
UT	-13.1466
▁em	-13.1467
аком	-13.1481
сам	-13.1481
▁Noki	-13.1482
▁95%	-13.1483
ДС	-13.1491
▁ct	-13.1505
фи	-13.1508
▁аулу	-13.1523
ech	-13.1524
▁98	-13.1524
▁ову	-13.1528
▁арфо	-13.1531
▁Cas	-13.1532
▁21%	-13.1534
▁Pla	-13.1539
кре	-13.1561
▁96	-13.1573
ятся	-13.1573
▁Nik	-13.1577
рж	-13.1603
▁иксу	-13.1608
▁иджи	-13.1611
▁офон	-13.1614
фир	-13.1616
▁je	-13.1621
зер	-13.1635
иГ	-13.1641
▁цо	-13.1643
▁ms	-13.1644
pp	-13.1651
▁ple	-13.1656
▁рохо	-13.1664
▁оед	-13.1666
▁Bur	-13.1682
▁Tr	-13.1685
▁аллин	-13.1688
▁акто	-13.169
юхин	-13.1693
39	-13.1699
▁Is	-13.1702
▁рма	-13.1708
▁мим	-13.1724
▁om	-13.1741
фт	-13.175
ежим	-13.175
▁vi	-13.1751
онд	-13.1767
▁наст	-13.1772
▁Win	-13.1784
▁nor	-13.1784
▁ОСК	-13.179
od	-13.1791
дей	-13.1798
▁елье	-13.18
▁Sk	-13.1803
▁быч	-13.1804
шан	-13.1808
▁угр	-13.1814
▁ste	-13.1818
▁инь	-13.1819
▁uki	-13.1823
▁scow	-13.1823
▁мпшир	-13.1825
▁ФЦП	-13.1826
▁Sub	-13.1826
▁СКФО	-13.1827
5,	-13.1834
▁СС	-13.1839
еля	-13.1839
▁БКС	-13.184
▁ндер	-13.1841
урна	-13.1842
▁МУС	-13.1843
▁Lin	-13.185
ква	-13.1851
▁СВР	-13.1853
жил	-13.1856
▁ипрас	-13.1861
▁мож	-13.1862
▁136	-13.1863
▁анец	-13.1864
▁106	-13.1867
▁АГС	-13.1871
▁107	-13.1876
▁eg	-13.1877
▁4.	-13.188
▁авиш	-13.1884
▁30,	-13.1888
▁Fli	-13.1911
▁Ок	-13.1918
говор	-13.1921
ust	-13.1924
▁афос	-13.1925
ггер	-13.1926
ади	-13.1935
▁Cha	-13.1938
▁люм	-13.1942
▁клин	-13.1943
uz	-13.1944
ню	-13.1956
▁eb	-13.1958
ндре	-13.1959
▁260	-13.1961
▁Rob	-13.1964
▁ейза	-13.197
+	-13.1972
▁аджи	-13.1976
КС	-13.1977
▁work	-13.198
МТ	-13.1981
▁идд	-13.1982
ойс	-13.1984
▁сыр	-13.2
art	-13.2003
▁пра	-13.2003
▁Буш	-13.2009
▁сис	-13.2027
▁кора	-13.2029
▁ric	-13.2032
▁ak	-13.2036
▁МП	-13.2037
ПР	-13.2048
▁ибер	-13.2052
▁лями	-13.2053
▁(2	-13.2054
льт	-13.2057
▁евет	-13.2074
зд	-13.2074
ься	-13.2078
▁мерл	-13.2089
▁Me	-13.2093
▁азв	-13.2102
нак	-13.2112
▁оси	-13.2113
зе	-13.2118
▁sen	-13.2119
▁ови	-13.2119
ОК	-13.2125
▁Tou	-13.2125
▁одд	-13.2133
▁игул	-13.2135
▁епо	-13.2141
▁Dre	-13.2142
збу	-13.2145
▁Mos	-13.2153
▁Ad	-13.2161
евик	-13.2164
ЭБ	-13.2168
▁триб	-13.2183
▁Du	-13.2187
▁утс	-13.2191
▁Pri	-13.2193
ерд	-13.2196
▁ези	-13.2196
▁tan	-13.2199
ik	-13.2203
▁DC	-13.2203
▁убе	-13.2206
▁иче	-13.2207
▁ссия	-13.2216
▁КПСС	-13.2223
▁НКВД	-13.2223
▁НИЛС	-13.2223
▁way	-13.2224
ои	-13.2226
▁Lock	-13.2233
▁стн	-13.2234
трол	-13.2236
▁ейг	-13.2244
▁оо	-13.2248
ond	-13.2248
▁286	-13.2248
▁яе	-13.2248
▁хмуд	-13.2249
▁НЛ	-13.2251
кар	-13.2253
▁рошл	-13.2261
рой	-13.2262
▁146	-13.2266
▁Jee	-13.2268
▁158	-13.2269
▁вре	-13.2273
хман	-13.2278
▁оду	-13.2281
▁Herm	-13.2289
арк	-13.2291
вре	-13.2328
итр	-13.2332
▁Glen	-13.2333
НЭ	-13.2339
▁иды	-13.2342
ЦП	-13.2344
АС	-13.2345
ОУ	-13.2346
пенд	-13.2348
ьная	-13.2349
ляр	-13.2355
▁89	-13.2359
▁Jet	-13.2363
▁аказ	-13.2363
ЖД	-13.2365
ложн	-13.2365
▁ушек	-13.2381
▁Can	-13.2384
▁Mag	-13.2386
▁адл	-13.2388
▁Pan	-13.2389
▁алач	-13.239
ксич	-13.2392
Ну	-13.2401
рц	-13.2406
▁Ва	-13.2412
▁тере	-13.2417
▁out	-13.2426
▁орч	-13.2436
▁аска	-13.2437
▁анье	-13.2442
▁жени	-13.2449
жар	-13.2457
▁азет	-13.2471
луб	-13.2474
КЦ	-13.248
тей	-13.2483
▁Eng	-13.2489
рок	-13.2507
пп	-13.2508
▁онса	-13.2508
▁МХ	-13.2512
опа	-13.2513
▁sta	-13.2513
Во	-13.2514
ней	-13.2519
▁сту	-13.2524
мпе	-13.2524
екр	-13.2532
▁нским	-13.2545
▁йфо	-13.256
▁mer	-13.2561
▁Val	-13.2569
▁ДК	-13.2579
▁As	-13.2581
унд	-13.2582
uto	-13.2598
▁елит	-13.2602
roup	-13.2606
▁nte	-13.2611
нок	-13.2613
теля	-13.2617
ens	-13.2625
▁Die	-13.2632
▁IP	-13.2633
▁Pub	-13.2639
▁Skype	-13.264
анци	-13.2641
▁МАДИ	-13.2643
▁хэтт	-13.2643
▁Gear	-13.2648
▁нын	-13.2649
▁ri	-13.2652
▁нал	-13.2657
▁укол	-13.266
▁ЕГР	-13.2661
нял	-13.2667
▁(5	-13.2668
ТО	-13.268
U	-13.2681
▁285	-13.2684
▁aru	-13.2685
▁189	-13.2686
▁156	-13.2688
TC	-13.2689
▁gie	-13.2693
▁165	-13.2694
▁RS	-13.2697
▁ечт	-13.27
▁шни	-13.2704
▁скони	-13.271
ребо	-13.271
▁андаш	-13.2711
▁аник	-13.2713
▁мпл	-13.2718
▁ПНИ	-13.2718
▁ga	-13.2722
▁ЭК	-13.2723
▁посо	-13.2728
эл	-13.2732
▁224	-13.2743
ощ	-13.2746
▁вя	-13.2766
▁Int	-13.2771
три	-13.2771
▁аузе	-13.2775
ИЦ	-13.2776
▁ade	-13.2777
▁Coun	-13.2786
▁air	-13.2795
▁уе	-13.2797
go	-13.2799
▁Bri	-13.281
▁Bla	-13.2814
▁тны	-13.2822
▁амва	-13.2833
mo	-13.2835
▁ьяк	-13.2841
▁mat	-13.2843
68	-13.2846
сск	-13.2852
вл	-13.2853
ieg	-13.2858
▁Ana	-13.2863
▁жжен	-13.287
IP	-13.2876
▁Йо	-13.2881
▁ph	-13.2881
▁одск	-13.2889
юд	-13.2898
▁Hous	-13.2898
▁лбан	-13.2904
▁нинг	-13.2906
▁ипен	-13.291
ana	-13.2912
ca	-13.2914
iz	-13.2917
удет	-13.2934
ыр	-13.2935
▁тос	-13.2936
▁отора	-13.294
▁дию	-13.2945
▁ura	-13.2947
▁ирог	-13.2947
▁иэ	-13.2954
езон	-13.2954
льц	-13.2977
99	-13.2984
▁cal	-13.2986
имо	-13.2988
оче	-13.299
▁идж	-13.2994
▁позв	-13.2998
язи	-13.3008
дш	-13.3008
ic	-13.3015
КО	-13.3016
mp	-13.3018
▁Tom	-13.3025
▁Col	-13.3029
▁Shar	-13.3038
▁Mal	-13.3039
прос	-13.304
ind	-13.3043
▁СР	-13.3045
СВ	-13.3045
пров	-13.3048
▁мист	-13.306
ine	-13.3068
НЕС	-13.3069
▁Heb	-13.3073
▁Tig	-13.3073
▁ERS	-13.3073
▁Out	-13.3074
▁Smart	-13.3075
▁ыргы	-13.3077
▁лал	-13.3082
ool	-13.3086
ТУ	-13.3086
пин	-13.3091
Lar	-13.3096
нщин	-13.3097
▁енка	-13.31
▁зре	-13.31
итаю	-13.3103
▁ерку	-13.3107
▁цех	-13.3111
▁рян	-13.3113
▁Barc	-13.3114
хот	-13.3119
▁ашлы	-13.3123
▁282	-13.3125
▁380	-13.3127
і	-13.3127
et	-13.313
▁рьян	-13.3145
▁тме	-13.3146
▁ОТ	-13.3146
▁ima	-13.3146
▁уляр	-13.3148
▁Rock	-13.3154
63	-13.3159
SJ	-13.3169
▁омо	-13.3173
▁Game	-13.3174
чуг	-13.3176
▁PS	-13.3189
ate	-13.3194
овск	-13.3195
▁жиж	-13.3195
▁ol	-13.3198
▁116	-13.3199
▁еско	-13.3205
▁ддер	-13.3213
▁рагу	-13.3215
ia	-13.3225
ТРК	-13.3227
uro	-13.3231
▁bra	-13.3242
▁иней	-13.326
кот	-13.3265
▁112	-13.327
▁Gi	-13.3274
СО	-13.3279
▁гейт	-13.3294
▁XV	-13.3297
рств	-13.3318
▁евы	-13.3322
▁опл	-13.333
▁мида	-13.3333
▁Mus	-13.3337
езн	-13.334
▁un	-13.3346
▁Essa	-13.3352
КК	-13.336
▁ирс	-13.3362
▁GP	-13.3362
фес	-13.3368
uan	-13.337
▁ФМ	-13.3372
▁КР	-13.3373
чт	-13.3374
▁ФГУ	-13.3377
▁Ame	-13.3378
ежде	-13.3379
ляе	-13.338
▁МФ	-13.3382
▁ифф	-13.3383
▁дероб	-13.3391
▁ОС	-13.3393
▁BB	-13.3396
▁10.	-13.3396
ka	-13.3402
рус	-13.3404
▁wi	-13.3406
▁дана	-13.341
анг	-13.3411
еще	-13.3428
▁нени	-13.3429
ick	-13.344
йдар	-13.3441
ИО	-13.345
▁Bio	-13.3452
▁bu	-13.3458
▁Qua	-13.3467
вос	-13.3471
▁ренг	-13.3482
▁усев	-13.3485
AP	-13.3492
▁ниф	-13.3492
▁КОС	-13.3493
▁ПЗ	-13.3505
▁акир	-13.3509
PA	-13.3513
▁EP	-13.3515
▁ОЭ	-13.3516
Pad	-13.3519
▁аряг	-13.3522
▁иско	-13.3527
▁IBF	-13.3527
▁Xia	-13.3528
▁Mini	-13.3528
▁ирю	-13.3532
▁ices	-13.3533
kh	-13.3538
▁Ju	-13.3541
▁Stud	-13.3541
▁Sch	-13.3545
▁уска	-13.3553
▁ирка	-13.3554
▁da	-13.3556
▁36%	-13.3559
▁сенин	-13.3559
▁Хи	-13.3561
ohn	-13.3568
▁2)	-13.3581
▁133	-13.3584
▁bl	-13.3586
▁154	-13.359
▁Дв	-13.3593
▁tt	-13.3595
▁172	-13.3597
▁ФГ	-13.3598
▁AT	-13.3606
▁132	-13.3607
▁Hill	-13.3608
▁ФХ	-13.3609
ности	-13.3616
▁ad	-13.3621
▁еньг	-13.3621
ному	-13.3631
чок	-13.3633
▁Info	-13.3635
▁ймон	-13.3642
▁оттер	-13.3649
ВП	-13.3658
нья	-13.3658
пут	-13.3663
▁ТИК	-13.367
▁Cher	-13.3671
▁алли	-13.3681
▁ah	-13.3682
ызв	-13.3685
▁ванс	-13.3694
ока	-13.3695
оце	-13.3704
rt	-13.3705
▁вля	-13.3707
астн	-13.3709
▁напа	-13.3713
ини	-13.3721
▁act	-13.3721
EX	-13.3727
▁ебл	-13.3727
ef	-13.3728
▁йва	-13.3729
ТВ	-13.373
▁анж	-13.3732
▁ску	-13.3734
ании	-13.3747
▁адон	-13.375
нчж	-13.3753
тиг	-13.3755
▁eut	-13.3764
▁осл	-13.3765
▁яшк	-13.3766
▁иши	-13.3768
▁Ti	-13.3784
уже	-13.3793
риж	-13.3793
▁удни	-13.3793
▁Dan	-13.3794
тре	-13.3795
▁дорф	-13.3808
AD	-13.3812
▁меха	-13.3814
мор	-13.3814
▁уани	-13.3819
гур	-13.3819
▁Ы	-13.3819
▁идже	-13.383
азд	-13.383
▁гарт	-13.3831
мит	-13.3838
▁nti	-13.384
PI	-13.3847
лис	-13.3851
луг	-13.3856
▁циа	-13.386
▁гли	-13.3864
▁рожа	-13.3866
▁Fe	-13.3876
▁шар	-13.3881
▁du	-13.3881
▁ca	-13.3882
лем	-13.3887
▁ахта	-13.3887
ЛО	-13.3889
▁ийн	-13.3898
апит	-13.3905
еле	-13.3907
▁Ste	-13.391
▁пиро	-13.3911
ана	-13.392
ГАЗ	-13.3924
ллер	-13.3927
расс	-13.393
▁нда	-13.3934
▁дах	-13.3941
ацио	-13.3948
▁Ga	-13.3955
▁Tra	-13.3961
▁эйв	-13.3963
▁fe	-13.3968
ласс	-13.3978
БКИ	-13.3983
ичн	-13.3993
▁нст	-13.3995
ыва	-13.3995
38	-13.3999
▁JP	-13.4001
▁NUM	-13.4003
▁Head	-13.4004
▁Next	-13.4005
▁Trip	-13.4006
▁1.	-13.4008
▁нке	-13.4009
▁ПМР	-13.4009
▁lays	-13.4015
▁ЮФО	-13.4016
▁дз	-13.4017
▁днев	-13.4022
▁ММВ	-13.4024
▁3)	-13.4026
▁МРТ	-13.4028
▁can	-13.403
▁Brit	-13.403
кья	-13.4035
▁аус	-13.4036
▁ЦУ	-13.4037
▁МКУ	-13.4041
▁еул	-13.4046
▁вт	-13.4054
▁199	-13.4056
▁Coll	-13.4056
▁42%	-13.4057
▁агил	-13.4061
▁шюр	-13.4069
▁rus	-13.4073
▁носец	-13.4081
▁5,8	-13.4089
доб	-13.4097
▁тэм	-13.4101
ност	-13.4102
▁опы	-13.4103
цел	-13.4109
ССР	-13.4113
▁lle	-13.4116
▁213	-13.4118
▁ССР	-13.4121
▁126	-13.4121
▁RP	-13.4127
▁101	-13.4128
▁бюро	-13.413
▁ХК	-13.4132
89	-13.4133
▁ale	-13.4136
▁асму	-13.4138
▁ирож	-13.4143
▁car	-13.4147
▁Tru	-13.4148
▁$8	-13.4151
▁рс	-13.4152
WF	-13.4154
шне	-13.4158
ux	-13.416
▁ицца	-13.416
ЕБ	-13.4161
▁фур	-13.4164
gi	-13.4171
ачк	-13.4173
▁Уфе	-13.4173
еф	-13.4174
▁Ka	-13.4174
зар	-13.4177
лир	-13.4178
▁Др	-13.4183
:6	-13.4184
▁ki	-13.4186
▁анде	-13.4187
47	-13.4191
шок	-13.4192
▁есян	-13.42
▁упле	-13.4203
▁морок	-13.4208
▁WB	-13.4218
▁чуг	-13.422
▁есса	-13.4225
ax	-13.4226
▁nol	-13.4227
▁Tw	-13.4233
▁АК	-13.4238
▁Kap	-13.4241
ПО	-13.4244
▁иджа	-13.4253
▁Typ	-13.4257
6,	-13.4258
▁vo	-13.4269
our	-13.4271
▁трад	-13.4273
▁УФ	-13.4274
▁гути	-13.4275
▁пряг	-13.4287
ены	-13.4306
▁lu	-13.4308
син	-13.4311
▁Gr	-13.4314
ети	-13.432
МП	-13.4321
БУ	-13.4328
▁оган	-13.4329
▁эш	-13.4344
▁Hur	-13.4347
RF	-13.435
нача	-13.4373
▁uro	-13.4377
▁Fan	-13.4381
33	-13.4394
одн	-13.4396
ТЗ	-13.4397
▁имфо	-13.4398
▁угин	-13.4399
▁оот	-13.4399
ржу	-13.4399
▁ллиа	-13.4425
▁тку	-13.4427
кет	-13.4428
фал	-13.4431
red	-13.4433
▁скеп	-13.4434
▁min	-13.4434
▁обав	-13.4435
▁клеи	-13.4437
Don	-13.4441
▁анно	-13.4441
лимп	-13.4442
▁ИТ	-13.4447
ушек	-13.4456
▁Gar	-13.4461
▁льби	-13.4463
7.	-13.4465
▁ПК	-13.447
▁СДП	-13.4478
Ак	-13.448
▁lan	-13.4481
▁езе	-13.4483
▁ile	-13.4485
бел	-13.4486
▁Ci	-13.4489
ЮСШ	-13.4493
adi	-13.4495
▁0:1	-13.4504
▁Snap	-13.4504
▁board	-13.4505
▁Trade	-13.4506
▁tech	-13.4517
▁Day	-13.4517
рово	-13.4523
▁еся	-13.4528
ЕК	-13.4529
▁канер	-13.453
▁ig	-13.4533
будет	-13.4535
▁ГИТ	-13.4538
▁Sha	-13.4539
▁БПЛ	-13.4542
▁убов	-13.4545
▁291	-13.4545
▁137	-13.4555
▁имуз	-13.4555
▁айет	-13.4556
▁ЦФО	-13.4561
ir	-13.4563
▁оух	-13.4565
▁480	-13.4566
▁ченк	-13.4566
▁дыш	-13.4567
▁ОСА	-13.457
▁носца	-13.4572
▁185	-13.4576
▁Paj	-13.4582
даш	-13.4584
▁XII	-13.459
▁Leg	-13.4593
▁дае	-13.4596
▁ПИК	-13.4603
чел	-13.4606
ЭФ	-13.4607
▁рбер	-13.4611
▁орп	-13.4612
PC	-13.4617
▁олма	-13.4619
▁моч	-13.462
▁ейми	-13.4622
▁Que	-13.4629
▁fer	-13.4632
mart	-13.4633
org	-13.4635
▁ММК	-13.4643
▁fa	-13.4646
лян	-13.465
▁КП	-13.4663
УН	-13.4665
▁атх	-13.4667
▁118	-13.4675
▁тощ	-13.4694
▁CN	-13.4695
исс	-13.4696
▁ессон	-13.4704
▁уэй	-13.4706
▁Sat	-13.4707
q	-13.4709
▁елья	-13.4711
ремя	-13.4719
▁Indi	-13.4719
▁атла	-13.472
ПЗ	-13.472
▁lls	-13.4721
▁lov	-13.4723
▁Ben	-13.4724
рв	-13.4728
▁UK	-13.4729
▁винь	-13.473
▁Spi	-13.4742
▁зырь	-13.4748
ci	-13.4749
уда	-13.4753
ву	-13.4753
▁елок	-13.4754
▁каф	-13.4755
▁изер	-13.4756
ДМ	-13.4756
▁етуч	-13.4757
▁CR	-13.4758
▁cra	-13.4758
▁УГМ	-13.476
▁fic	-13.4761
ite	-13.4763
▁фо	-13.4765
▁номы	-13.477
РФ	-13.4774
▁im	-13.4792
вля	-13.4795
ЛП	-13.4803
▁жки	-13.4808
дут	-13.4816
цию	-13.482
▁рту	-13.4827
МГ	-13.4831
олет	-13.4835
lo	-13.4843
▁авин	-13.4847
ооб	-13.4848
▁1)	-13.4861
▁Tor	-13.4863
▁вчин	-13.4866
▁que	-13.487
Са	-13.4871
МУ	-13.4875
DS	-13.4882
▁отка	-13.4896
57	-13.4897
исси	-13.4902
▁Za	-13.4909
▁тм	-13.4916
▁Edi	-13.4917
▁ut	-13.4917
мост	-13.4918
▁hi	-13.4919
оле	-13.4922
▁льш	-13.4922
up	-13.4926
▁кое	-13.4934
ладе	-13.4939
▁озе	-13.4949
▁mp	-13.4957
▁was	-13.4958
▁ГП	-13.4972
▁сюк	-13.4974
ХК	-13.4976
▁эйр	-13.498
▁куше	-13.4981
ип	-13.4984
▁РИ	-13.4986
▁Don	-13.4987
▁Ski	-13.4987
лял	-13.5007
жев	-13.5009
▁пц	-13.5011
II	-13.5014
УМ	-13.5015
туа	-13.5015
▁Oc	-13.5018
▁Ukr	-13.5028
▁UBS	-13.5028
▁3:1	-13.5029
▁Dol	-13.5029
▁Print	-13.5031
▁Soci	-13.5032
▁Cup	-13.5032
▁лех	-13.5032
me	-13.5032
▁Dae	-13.5036
▁1:2	-13.5039
▁2.0	-13.5039
▁log	-13.5043
▁Infi	-13.5043
▁помо	-13.5044
▁Pet	-13.5045
рут	-13.5047
▁вчар	-13.5048
rent	-13.505
вай	-13.505
▁еча	-13.5053
▁sis	-13.5057
ga	-13.5063
▁2.	-13.5064
▁ИРИ	-13.5067
▁ханян	-13.5068
▁бов	-13.5069
ug	-13.5073
▁омар	-13.5076
▁Je	-13.508
▁103	-13.5088
▁орку	-13.509
раш	-13.5094
▁HS	-13.5097
асти	-13.511
▁Avi	-13.511
▁149	-13.5111
▁RC	-13.5111
бит	-13.5112
шир	-13.5117
жид	-13.5129
мов	-13.5138
ort	-13.5138
▁ДВФ	-13.5138
▁dge	-13.5139
43	-13.514
▁ГО	-13.5145
bi	-13.5148
▁met	-13.5157
ртии	-13.5158
▁eed	-13.5168
▁ue	-13.5182
▁МИ	-13.5186
ap	-13.5191
69	-13.5195
дня	-13.5207
▁дже	-13.5207
▁ell	-13.521
FT	-13.5222
▁ибл	-13.5223
.:	-13.5238
▁озет	-13.524
▁ейзер	-13.524
йте	-13.5241
онеч	-13.5252
▁ИП	-13.5268
▁упл	-13.527
▁зид	-13.528
▁уриц	-13.5284
тыш	-13.5285
DE	-13.5286
ИДЕ	-13.5296
▁рече	-13.53
энь	-13.5301
дк	-13.5304
плен	-13.5305
▁ещер	-13.5312
аф	-13.5313
вит	-13.5314
еп	-13.5317
слу	-13.5326
нас	-13.5328
▁етто	-13.533
ear	-13.533
ТА	-13.5331
ВА	-13.5336
йон	-13.5345
▁ынь	-13.5353
также	-13.5386
▁Cle	-13.5393
году	-13.5397
▁итв	-13.5404
.2	-13.5406
яг	-13.5407
ПБ	-13.541
▁смо	-13.5412
▁тихо	-13.5413
тики	-13.5413
di	-13.5431
▁хман	-13.5438
▁ek	-13.5438
▁драй	-13.5447
▁зг	-13.5448
▁ахи	-13.5455
ov	-13.5455
▁Гэ	-13.5457
FM	-13.5462
▁ааг	-13.5468
бик	-13.5472
▁укер	-13.5487
▁уко	-13.5487
▁отин	-13.5491
ЕА	-13.5497
▁анат	-13.5502
▁Gaz	-13.5515
▁зма	-13.5516
64	-13.5522
▁az	-13.5528
▁неи	-13.5529
▁Dow	-13.5533
▁das	-13.5537
▁DB	-13.5546
▁ID	-13.5548
ыло	-13.5553
▁енге	-13.5566
▁gh	-13.5573
▁si	-13.5575
▁llac	-13.5585
▁Уфы	-13.5585
▁Lux	-13.5586
▁ЗСТ	-13.5586
els	-13.5589
▁Der	-13.5594
▁Big	-13.5599
ms	-13.5601
▁ФГБУ	-13.5604
▁фти	-13.5607
▁ТПУ	-13.5608
▁Mash	-13.5611
▁ВОВ	-13.5611
▁Prem	-13.5612
ХЛ	-13.5612
▁free	-13.5617
▁tti	-13.5619
▁РСН	-13.562
▁лфет	-13.5621
▁370	-13.5622
▁294	-13.5624
▁Ye	-13.5628
клин	-13.5635
▁148	-13.5637
▁EX	-13.5639
▁6,3	-13.5655
▁еху	-13.5656
орм	-13.5658
▁204	-13.5658
▁арф	-13.566
йл	-13.5663
хим	-13.5665
▁ant	-13.5666
▁киф	-13.5667
▁bas	-13.5669
▁55%	-13.5672
▁бьет	-13.5674
▁Rev	-13.5678
уха	-13.5679
стал	-13.5685
▁екма	-13.5687
▁She	-13.5689
▁226	-13.5692
▁ien	-13.5694
бре	-13.5694
▁Ber	-13.5713
▁14.	-13.5723
WI	-13.5725
qui	-13.5729
▁осье	-13.5729
▁age	-13.5729
▁520	-13.5733
▁елто	-13.5734
ИИ	-13.5737
▁128	-13.5748
▁филд	-13.5752
▁NEW	-13.5759
▁опин	-13.5769
▁llo	-13.577
▁очв	-13.5772
▁ишу	-13.5782
▁121	-13.5794
rv	-13.5799
▁TM	-13.5803
асн	-13.5807
▁рбу	-13.581
▁итва	-13.5811
рол	-13.5814
▁ПА	-13.5819
▁аче	-13.5819
▁дид	-13.5821
▁ингл	-13.5826
▁Cur	-13.5838
▁вяж	-13.5845
▁ЗР	-13.5869
▁кно	-13.5872
ног	-13.5872
росс	-13.5874
СИ	-13.5897
▁Foo	-13.5901
▁СО	-13.5911
КА	-13.5916
44	-13.5922
▁дна	-13.5929
ADA	-13.5931
лив	-13.5932
▁скв	-13.5933
▁IX	-13.5936
ГЕР	-13.5939
гис	-13.594
ОС	-13.5941
▁ara	-13.5941
уют	-13.5945
▁MI	-13.595
рьез	-13.595
iv	-13.5952
упк	-13.596
IC	-13.596
ена	-13.5961
БА	-13.5971
▁Fal	-13.5977
▁Mond	-13.5994
▁амоч	-13.6011
ГПС	-13.6011
▁ахим	-13.6013
▁ov	-13.6022
тия	-13.6022
▁tut	-13.6033
▁роче	-13.604
рта	-13.6042
▁тюар	-13.6044
▁he	-13.6045
монт	-13.6051
▁рья	-13.6053
▁чихи	-13.6054
▁Sta	-13.6064
РТ	-13.6071
тва	-13.6073
▁ora	-13.6076
шел	-13.6077
кую	-13.6086
fi	-13.6088
▁вни	-13.609
ьц	-13.6091
ith	-13.6093
роны	-13.6094
гос	-13.6095
▁Ae	-13.6104
еся	-13.6104
ность	-13.6105
▁энк	-13.6114
гон	-13.6116
▁Far	-13.6121
▁МКК	-13.6122
▁ррит	-13.6125
▁чег	-13.6127
▁ГА	-13.6129
удут	-13.6131
мас	-13.6136
▁аньк	-13.6136
▁доело	-13.6141
▁Van	-13.6142
ma	-13.6153
ЛС	-13.6154
маш	-13.6154
▁Ян	-13.6155
▁сна	-13.6156
▁иним	-13.6157
▁art	-13.6158
<	-13.6163
×	-13.6163
76	-13.6168
▁Nex	-13.6171
▁ЖНВ	-13.6172
▁3:0	-13.6172
▁ГКЧП	-13.6172
▁Soft	-13.6173
31	-13.6176
▁Full	-13.6176
▁ибсон	-13.6176
▁рви	-13.6176
▁игел	-13.6177
▁АТР	-13.6186
LC	-13.6187
▁Hall	-13.6187
alc	-13.6191
ЕР	-13.6196
ele	-13.6196
амя	-13.6199
▁5,1	-13.6204
▁ПбГУ	-13.6204
▁ere	-13.6211
▁Rac	-13.6215
▁193	-13.6218
▁34%	-13.6222
▁243	-13.6225
▁ордю	-13.6226
▁166	-13.6227
▁фар	-13.6228
тво	-13.623
▁169	-13.6234
▁Niel	-13.6241
▁Prio	-13.6242
▁249	-13.6247
▁рре	-13.6248
мил	-13.6261
Ни	-13.6266
87	-13.6268
▁ev	-13.6268
▁хайм	-13.6274
▁ельг	-13.6278
▁ГМИ	-13.628
▁cy	-13.6286
▁res	-13.6291
▁star	-13.6293
▁Priv	-13.6302
▁инзы	-13.6304
▁мл	-13.6306
▁He	-13.6309
ИАН	-13.631
▁калы	-13.6311
▁азме	-13.6312
▁hy	-13.6312
▁310	-13.6313
▁сех	-13.6316
крас	-13.6316
▁aut	-13.6316
▁330	-13.6318
анн	-13.6318
кая	-13.632
▁леба	-13.633
▁ртен	-13.6332
▁123	-13.6338
▁too	-13.6343
▁ддув	-13.6346
▁NA	-13.6348
▁NE	-13.635
AY	-13.6353
▁акул	-13.6355
▁gula	-13.6363
нта	-13.6366
▁прое	-13.6366
зя	-13.6373
▁ke	-13.6376
▁you	-13.6376
▁Max	-13.638
▁cus	-13.6381
▁Trum	-13.6387
▁АНО	-13.6389
▁212	-13.6389
▁Ky	-13.639
▁211	-13.639
▁плы	-13.6397
НН	-13.6397
ского	-13.6403
дье	-13.6403
▁Mer	-13.6404
▁ja	-13.641
gue	-13.6411
▁ср	-13.6414
берт	-13.6416
▁Lov	-13.6416
бле	-13.6434
▁ьем	-13.6449
ТОВ	-13.6451
▁Port	-13.6454
▁апек	-13.6455
сяч	-13.6457
▁ахр	-13.6459
▁€2	-13.6463
▁епи	-13.6463
орган	-13.6467
igh	-13.6474
пят	-13.6475
▁iam	-13.648
сква	-13.6486
▁инц	-13.6488
▁Ри	-13.6498
▁Gra	-13.65
▁Fu	-13.6507
иа	-13.6511
▁аща	-13.6513
▁Ци	-13.6516
uss	-13.6517
▁bur	-13.6519
za	-13.6524
ot	-13.6529
▁up	-13.6538
▁мпле	-13.6539
ибл	-13.654
▁вори	-13.654
▁ПМ	-13.6543
ul	-13.6547
▁ланг	-13.6567
дай	-13.6569
▁OM	-13.657
▁олок	-13.6573
фол	-13.6577
▁арет	-13.6583
▁чиш	-13.6602
▁HR	-13.6613
ьше	-13.6615
▁лант	-13.6622
▁раще	-13.6622
тут	-13.6622
баш	-13.6632
age	-13.6633
нти	-13.6639
eed	-13.6642
ko	-13.6644
ES	-13.6645
▁Boo	-13.6659
нием	-13.6659
oS	-13.6682
▁est	-13.669
▁арни	-13.6696
▁амя	-13.6699
▁йман	-13.67
дат	-13.6719
▁олаг	-13.6724
▁мети	-13.6728
▁Asse	-13.6731
▁ряп	-13.6738
▁вай	-13.6742
ета	-13.6742
яс	-13.6743
гой	-13.6746
нгер	-13.6748
▁МБР	-13.6749
▁sco	-13.675
▁Bel	-13.6753
▁tag	-13.6757
▁лагин	-13.6761
sco	-13.6767
▁OS	-13.6775
ays	-13.6779
дон	-13.6781
TP	-13.6784
▁ганд	-13.679
рехо	-13.6791
▁ленд	-13.6791
▁ies	-13.6792
▁Sakh	-13.6797
▁Show	-13.6797
▁bach	-13.6797
▁Welt	-13.6797
▁unes	-13.6797
▁Green	-13.6798
▁Cro	-13.6807
▁олча	-13.6813
▁МГБ	-13.6816
▁ЦОД	-13.6819
em	-13.6823
▁рами	-13.6829
▁АЧС	-13.6831
ляю	-13.6836
▁293	-13.6837
▁nis	-13.6837
▁ВЭФ	-13.6839
IF	-13.6844
▁237	-13.6849
4,	-13.6851
▁Bak	-13.6852
ble	-13.6853
▁263	-13.6853
▁евит	-13.6853
▁Сп	-13.6854
▁179	-13.6854
ya	-13.6857
▁188	-13.6858
▁176	-13.6859
жел	-13.6859
▁184	-13.6864
▁ПСР	-13.6865
▁Sab	-13.6869
▁rol	-13.6876
▁207	-13.6876
▁айг	-13.6877
ris	-13.6878
3.	-13.6878
▁Tre	-13.6881
▁7%.	-13.6885
атор	-13.6885
тай	-13.6886
ОР	-13.6886
▁юще	-13.6889
город	-13.6889
▁Ve	-13.6891
▁айху	-13.6894
▁Cra	-13.6894
ste	-13.6894
▁315	-13.6901
▁Hug	-13.6901
ерс	-13.6902
▁офо	-13.6913
95	-13.6914
▁Marv	-13.6922
илл	-13.6931
▁Хе	-13.6937
by	-13.6943
▁рлак	-13.6945
▁216	-13.6946
▁Es	-13.6958
▁опул	-13.6959
▁олтон	-13.696
ВР	-13.6962
▁вр	-13.6965
AT	-13.697
▁энкс	-13.6977
руб	-13.698
▁Ene	-13.6983
▁айде	-13.6984
реп	-13.699
▁ual	-13.6996
эш	-13.7003
▁Line	-13.7004
нтон	-13.701
мел	-13.7011
НП	-13.7013
udi	-13.7024
III	-13.7025
▁охи	-13.7025
▁Arc	-13.703
сия	-13.7032
▁Lou	-13.7034
▁осин	-13.7034
▁gn	-13.7034
МТП	-13.7037
CC	-13.7049
▁асту	-13.7051
▁МГ	-13.7053
время	-13.7061
▁звес	-13.7061
остав	-13.7067
обща	-13.7068
фат	-13.7077
▁XR	-13.7077
SU	-13.7078
▁аттл	-13.7078
▁Ne	-13.7083
ast	-13.7088
EO	-13.7089
man	-13.7089
быш	-13.7104
▁таю	-13.711
▁дя	-13.7117
55	-13.7119
▁AB	-13.7129
▁емени	-13.7129
lus	-13.7133
руг	-13.7135
▁nce	-13.7138
▁ГАЗ	-13.7145
▁Pur	-13.7149
▁Nav	-13.7155
▁ешет	-13.7157
▁Stra	-13.7157
▁грев	-13.7158
орд	-13.716
▁Sc	-13.717
ФС	-13.7172
▁Qu	-13.7197
ское	-13.7197
▁Dep	-13.721
▁ису	-13.7213
46	-13.7214
окр	-13.7218
▁това	-13.7225
▁Stad	-13.7228
▁FIB	-13.7231
▁Adi	-13.7239
▁Phil	-13.724
ach	-13.7243
▁МГТ	-13.7246
▁егли	-13.7246
нег	-13.7247
▁опу	-13.7251
рамп	-13.7252
▁оиз	-13.7254
ade	-13.7264
▁стыл	-13.7266
тол	-13.7266
ород	-13.7272
▁опал	-13.7275
ЦБ	-13.7276
ода	-13.7276
ЕЙ	-13.7277
▁авзо	-13.7278
▁ирн	-13.7279
руп	-13.728
▁Op	-13.7282
▁Octa	-13.7284
▁not	-13.7285
▁амон	-13.729
▁аржи	-13.7299
▁Ver	-13.7304
▁ИС	-13.7309
▁ESP	-13.7316
ГА	-13.732
СД	-13.7323
нном	-13.7323
▁аил	-13.7324
юш	-13.7326
▁ПС	-13.7334
▁(3	-13.7338
отел	-13.7342
энсе	-13.7343
шу	-13.7346
бок	-13.7348
▁дигм	-13.7352
тюг	-13.7353
85	-13.7356
▁тени	-13.7358
▁ацк	-13.7367
▁орче	-13.737
ED	-13.7371
ицы	-13.7379
было	-13.738
LS	-13.7382
▁ожж	-13.7383
▁льва	-13.7387
ud	-13.7389
кач	-13.7389
НВ	-13.7389
▁Ori	-13.7393
ЧП	-13.7395
▁шип	-13.7395
CI	-13.74
ook	-13.7401
зви	-13.7405
▁Rec	-13.7407
▁j	-13.7414
▁мут	-13.7417
▁триц	-13.7417
▁ощу	-13.7422
▁оид	-13.7425
▁FAR	-13.7427
ласти	-13.7433
▁Zo	-13.7435
▁Ge	-13.7436
▁миф	-13.7438
▁овн	-13.7439
7,	-13.7441
▁ФН	-13.7452
▁энг	-13.7456
▁рдар	-13.7461
▁lms	-13.7463
▁6:1	-13.7463
▁Pix	-13.7463
ran	-13.7463
▁ЕБРР	-13.7464
▁ject	-13.7466
▁3:2	-13.7466
▁face	-13.7473
▁РСТ	-13.7473
▁367	-13.7479
▁$15	-13.7482
юдей	-13.7487
▁ВГ	-13.7494
pe	-13.7511
▁фю	-13.7515
▁Sum	-13.7516
▁RX	-13.7518
▁КПВ	-13.7518
▁нсар	-13.7519
▁ргас	-13.752
▁194	-13.7522
▁186	-13.7523
ian	-13.7526
▁ордо	-13.7527
▁38%	-13.7528
жоу	-13.7528
▁атэ	-13.7529
▁орщин	-13.7532
▁209	-13.7534
▁УДО	-13.7536
▁тюхин	-13.7538
▁187	-13.7541
▁епту	-13.7543
▁ойн	-13.7545
▁НА	-13.7547
▁слой	-13.7549
▁Nort	-13.7555
▁ДИП	-13.7557
▁171	-13.7557
▁ишка	-13.7558
▁Smi	-13.7564
мур	-13.757
▁252	-13.7571
ази	-13.7575
▁носц	-13.7575
▁веко	-13.758
может	-13.7587
▁щель	-13.7589
▁омби	-13.759
ett	-13.76
▁245	-13.7608
41	-13.7622
▁201	-13.7623
ункт	-13.7625
мол	-13.764
АПИ	-13.7652
▁218	-13.7654
уа	-13.7662
▁еван	-13.7662
▁зиан	-13.7663
▁едди	-13.7672
▁уи	-13.7674
▁укл	-13.7677
▁SS	-13.7679
▁гауз	-13.768
▁борд	-13.7697
рай	-13.77
юн	-13.7708
▁q	-13.7716
ИБ	-13.7717
im	-13.7717
▁ллер	-13.7719
▁уды	-13.7724
▁акья	-13.7725
▁wor	-13.7726
▁AM	-13.7727
мму	-13.7728
▁ve	-13.7732
гн	-13.7734
▁глуб	-13.7735
▁убя	-13.7738
SE	-13.774
▁mis	-13.7749
▁Юг	-13.7759
▁rio	-13.7761
кса	-13.7761
гун	-13.7764
▁суф	-13.7768
реби	-13.7772
▁атта	-13.778
▁DV	-13.7783
riz	-13.7784
▁so	-13.7787
iss	-13.7791
▁su	-13.7791
ok	-13.7796
ors	-13.7798
сут	-13.7798
лос	-13.7802
зир	-13.7821
▁av	-13.7825
▁егле	-13.783
▁TH	-13.7835
иков	-13.7837
лот	-13.7849
int	-13.7855
ММ	-13.7865
▁mot	-13.7866
▁ыпл	-13.7871
▁етхи	-13.7873
can	-13.7876
АД	-13.7876
ыре	-13.7877
▁рф	-13.7888
▁sor	-13.7889
67	-13.7891
рыв	-13.7893
▁бс	-13.7894
▁есар	-13.7907
▁симо	-13.791
▁абан	-13.7911
▁Vu	-13.7915
▁ински	-13.7915
уф	-13.7915
▁Che	-13.7916
вяз	-13.7931
▁орос	-13.7934
одов	-13.7938
ide	-13.7942
W	-13.7953
▁Tec	-13.7956
▁хму	-13.7956
old	-13.7958
▁lus	-13.7959
жжен	-13.7965
▁pl	-13.7969
▁тах	-13.7971
▁rid	-13.7972
ock	-13.7979
▁сэр	-13.7985
нси	-13.7986
▁омм	-13.799
без	-13.7991
av	-13.7991
пал	-13.7991
раи	-13.7993
▁nos	-13.8
▁ахт	-13.8
▁ута	-13.8005
▁Ab	-13.8005
▁апши	-13.8011
ТР	-13.8013
ha	-13.8019
▁sit	-13.802
▁12.	-13.8022
оезд	-13.8039
олог	-13.8042
▁валю	-13.8046
▁ипто	-13.805
ае	-13.805
▁Pu	-13.805
▁ззи	-13.8053
▁Home	-13.8057
▁gat	-13.8066
sa	-13.8068
▁юшн	-13.807
авто	-13.8086
зор	-13.8088
▁иле	-13.8088
▁рито	-13.8088
онн	-13.809
ИП	-13.8092
gh	-13.8094
▁еали	-13.8098
▁КСИМ	-13.81
▁АМ	-13.8111
охо	-13.8128
NA	-13.8142
▁етте	-13.8144
АСТ	-13.8144
ТД	-13.8145
■	-13.8169
Ж	-13.8173
▁НАФИ	-13.8177
▁Geely	-13.8177
▁0:0	-13.8177
▁sport	-13.8178
▁Index	-13.8178
TI	-13.8179
▁уран	-13.818
айл	-13.818
▁ДПМ	-13.8182
▁ПИДа	-13.8184
над	-13.8185
▁737	-13.8187
▁ВУЗ	-13.8193
▁375	-13.8196
▁бэ	-13.8197
▁CC	-13.82
▁Дн	-13.821
▁4,1	-13.8211
▁Dodg	-13.8216
▁mark	-13.8217
▁упо	-13.8218
ржа	-13.8218
▁арай	-13.8221
▁онье	-13.8222
▁ргу	-13.8223
оск	-13.8224
▁670	-13.8225
▁тл	-13.8226
▁74%	-13.8226
▁390	-13.8227
ума	-13.8231
▁183	-13.8231
ЭР	-13.824
▁еган	-13.8241
▁ept	-13.8241
▁39%	-13.8243
▁Pic	-13.8245
▁317	-13.8253
▁206	-13.8253
▁Hell	-13.8256
NO	-13.8258
▁195	-13.8259
▁онь	-13.826
▁эйли	-13.8263
▁ГАИ	-13.8264
▁итцер	-13.8267
▁138	-13.8267
▁234	-13.827
дил	-13.827
ЭТ	-13.8272
▁147	-13.8274
▁lig	-13.8275
GN	-13.8278
ony	-13.8279
5.	-13.8288
▁инчук	-13.8291
▁онга	-13.8292
▁Alt	-13.8294
ФП	-13.8296
ОБО	-13.8302
▁вище	-13.8305
еты	-13.8309
лиг	-13.8315
▁Flo	-13.8328
зырь	-13.8333
▁крин	-13.8336
▁ФГК	-13.8343
▁ммиа	-13.8344
▁152	-13.8345
▁Spa	-13.8346
▁My	-13.8348
хе	-13.8348
▁Gol	-13.8351
оен	-13.8353
Eco	-13.8357
▁лф	-13.836
▁еша	-13.8361
▁AI	-13.8363
▁sort	-13.8366
▁214	-13.8372
▁куш	-13.8376
▁оум	-13.8377
▁sch	-13.8384
▁амбо	-13.8386
лыв	-13.8387
ллег	-13.8388
ME	-13.8395
▁Alf	-13.8395
▁идн	-13.8404
▁оюд	-13.8404
▁ord	-13.8407
▁зуб	-13.8407
▁5.	-13.8407
лго	-13.8412
▁iew	-13.842
▁y	-13.8423
▁кита	-13.8425
▁ЦТ	-13.8427
▁5)	-13.8427
▁Wra	-13.8432
▁ренин	-13.8432
сы	-13.8435
▁льеф	-13.8437
▁mir	-13.8447
▁Org	-13.8454
фил	-13.8469
HK	-13.847
ольф	-13.8472
▁Cad	-13.8476
▁Rap	-13.8479
▁ser	-13.848
▁якс	-13.8481
DR	-13.8481
olo	-13.8481
▁сло	-13.8487
▁умын	-13.8488
▁гуз	-13.8496
NI	-13.8504
-1	-13.8507
улин	-13.851
▁бай	-13.8513
вич	-13.8513
лач	-13.8514
65	-13.8521
▁ЦС	-13.8525
гла	-13.8531
▁ЭС	-13.8532
стран	-13.8535
j	-13.8537
▁оуна	-13.8553
▁ФР	-13.8557
▁апез	-13.8558
▁оис	-13.8558
▁Jaz	-13.8559
▁Was	-13.8559
▁rad	-13.8563
дук	-13.8566
▁ada	-13.8568
зм	-13.8568
▁еман	-13.8569
▁мис	-13.857
▁scie	-13.857
▁упп	-13.8578
▁щеп	-13.8581
▁Asto	-13.8582
льг	-13.8583
ноп	-13.8588
▁инат	-13.8594
▁lor	-13.8604
лова	-13.8606
▁вим	-13.8614
▁tom	-13.8616
▁time	-13.8617
сян	-13.8623
▁равд	-13.8626
79	-13.8634
этл	-13.8636
▁воп	-13.8637
▁ибал	-13.8639
▁епти	-13.8641
▁холм	-13.8646
▁Geo	-13.8655
▁ОН	-13.8658
ЧС	-13.8662
▁МКП	-13.8666
93	-13.8672
аги	-13.8682
То	-13.8687
74	-13.8705
▁ирту	-13.8714
аин	-13.8715
▁Hil	-13.8725
▁утил	-13.8729
▁ейл	-13.873
ейл	-13.8732
▁Chem	-13.8735
виц	-13.8751
PG	-13.8753
отер	-13.8755
▁мехо	-13.8758
▁лям	-13.8766
ара	-13.8767
зык	-13.8768
КН	-13.877
▁Met	-13.877
орн	-13.8773
ений	-13.8785
▁UR	-13.8792
риф	-13.8796
яз	-13.88
▁Sh	-13.8801
ИЛ	-13.8804
dd	-13.8804
▁ЕП	-13.8811
ефти	-13.8813
▁БКИ	-13.8813
▁Ham	-13.8822
LP	-13.8822
мой	-13.8824
ont	-13.8829
лист	-13.8829
▁Ant	-13.8833
▁Tak	-13.8838
▁акш	-13.8839
емон	-13.8839
лкан	-13.8848
ыть	-13.8853
▁олч	-13.8855
сию	-13.8857
ey	-13.8863
▁tra	-13.8881
ute	-13.8884
wi	-13.8889
▁хенд	-13.8891
сказ	-13.8895
▁СВ	-13.8896
агу	-13.8896
▁ефф	-13.8898
▁ану	-13.89
▁авк	-13.8901
ob	-13.8909
▁hou	-13.8913
▁арха	-13.8916
rat	-13.8916
▁ab	-13.8923
▁чехр	-13.8929
8.	-13.8932
▁MQ	-13.8939
ild	-13.8939
▁gi	-13.894
▁24.	-13.8941
▁4:1	-13.8941
▁ксон	-13.8942
▁ОК	-13.8944
▁Trad	-13.8944
▁Kal	-13.8945
▁TTIP	-13.8945
▁ТТИП	-13.8945
▁Porn	-13.8946
▁bana	-13.8947
▁УСБ	-13.8949
▁2:2	-13.8951
▁Drag	-13.8953
▁УрФ	-13.8953
рия	-13.8953
▁КГИ	-13.8955
▁2:3	-13.8955
▁ГПЗ	-13.8956
▁duct	-13.8956
▁hes	-13.8957
▁аго	-13.8958
▁CB	-13.896
▁эд	-13.8964
нит	-13.8967
▁7.	-13.8968
▁иафан	-13.8968
ОБ	-13.897
фик	-13.8972
▁331	-13.8979
▁840	-13.8981
ess	-13.8985
юл	-13.8993
ыб	-13.8993
ho	-13.8994
▁арге	-13.8994
▁дува	-13.8996
▁197	-13.9001
▁303	-13.9001
▁308	-13.9001
▁276	-13.9003
▁урю	-13.9003
ндар	-13.9003
▁306	-13.9004
oli	-13.9004
▁ГПБ	-13.9005
▁уйн	-13.9011
▁+1	-13.9015
СБ	-13.9017
▁Id	-13.9021
▁Key	-13.9022
▁318	-13.9023
▁земье	-13.9026
▁ионн	-13.9035
▁153	-13.9036
▁Tri	-13.9037
▁262	-13.9039
▁144	-13.9044
▁192	-13.9048
▁232	-13.905
дос	-13.9051
акан	-13.9051
▁stor	-13.9052
▁ТК	-13.9056
муш	-13.9058
▁DD	-13.9058
▁Whit	-13.9069
▁141	-13.9069
▁акте	-13.907
▁дыр	-13.907
▁Eu	-13.9074
▁Stri	-13.9077
▁mac	-13.9078
▁ашу	-13.9079
▁142	-13.908
▁Aer	-13.9093
ашк	-13.9099
▁ТС	-13.9099
льны	-13.9099
▁орхе	-13.9104
▁мум	-13.911
еза	-13.911
▁131	-13.9113
▁223	-13.9114
▁епча	-13.9114
ыч	-13.9117
казы	-13.9121
▁ссош	-13.9122
▁228	-13.9123
▁вь	-13.9124
▁кве	-13.9127
▁рче	-13.9127
ления	-13.9129
▁гиня	-13.9133
▁sso	-13.9133
▁фери	-13.9134
дис	-13.9139
rst	-13.914
▁орга	-13.914
▁202	-13.9143
▁kom	-13.9144
▁Peg	-13.9151
чиш	-13.9155
▁бэк	-13.9157
▁od	-13.9159
▁аггер	-13.916
▁эйк	-13.9164
▁ger	-13.9164
eb	-13.9165
▁мыт	-13.9166
ицу	-13.9172
▁сок	-13.9179
IT	-13.918
▁ny	-13.9183
AM	-13.9183
▁Cat	-13.9184
▁Cr	-13.9187
▁ерди	-13.9192
▁опот	-13.9201
▁їн	-13.9205
▁кВ	-13.9206
▁йф	-13.9216
▁ЗС	-13.9217
▁UA	-13.9221
▁Bas	-13.9227
▁Wat	-13.9232
азы	-13.9235
:3	-13.9255
еда	-13.9259
▁эпп	-13.9263
▁ОГА	-13.9266
арств	-13.9268
манд	-13.9271
▁шеф	-13.9275
▁Saf	-13.9277
док	-13.9278
▁уиз	-13.9282
▁ivi	-13.9285
чуж	-13.9285
▁южи	-13.9286
ГО	-13.9287
оком	-13.9287
▁елочи	-13.9287
▁215	-13.9288
ште	-13.9295
роф	-13.9297
▁FA	-13.93
або	-13.9302
36	-13.9308
▁ссио	-13.9311
▁ЧФ	-13.9319
ями	-13.9321
яти	-13.9326
▁chi	-13.933
▁Ast	-13.9336
▁аре	-13.9349
▁Pres	-13.9353
▁Fort	-13.9361
▁алос	-13.9365
▁дье	-13.9367
▁уджи	-13.9368
ией	-13.9369
▁езен	-13.937
▁Kn	-13.9371
▁gar	-13.9373
▁клей	-13.9373
▁mor	-13.9374
▁ya	-13.9379
32	-13.9381
лал	-13.9381
▁sy	-13.9381
▁етв	-13.9382
лн	-13.9386
твия	-13.9397
▁Эко	-13.9402
▁сухи	-13.9402
хол	-13.9404
ws	-13.9406
▁ане	-13.9414
▁Аль	-13.9419
62	-13.9424
▁гид	-13.9433
▁рир	-13.9439
уще	-13.9443
AC	-13.9455
▁елле	-13.9457
рян	-13.9457
▁hat	-13.946
▁Hun	-13.9466
▁рени	-13.9467
▁Hot	-13.947
▁тюр	-13.9478
▁ейб	-13.9482
елей	-13.9493
▁ффет	-13.9499
ДП	-13.95
66	-13.9505
▁ГИС	-13.9513
▁урен	-13.9513
ВМ	-13.952
НЦ	-13.952
ициа	-13.9524
▁Acc	-13.9525
▁FIN	-13.9534
▁Dat	-13.9542
▁айра	-13.9547
OM	-13.9548
▁еят	-13.9549
▁6.	-13.9551
▁вайс	-13.956
▁улк	-13.9563
ерб	-13.9566
ико	-13.9566
▁юш	-13.9601
▁tru	-13.9606
▁HT	-13.9608
▁Astr	-13.9611
78	-13.9611
▁ппи	-13.9615
ерк	-13.9619
▁НДР	-13.9621
итуа	-13.9622
▁ko	-13.9629
▁Shan	-13.9636
чере	-13.9639
олок	-13.9639
dg	-13.964
▁Mil	-13.964
▁уэт	-13.9642
авы	-13.965
▁ea	-13.9655
ено	-13.9656
▁арг	-13.9662
еньк	-13.9662
RO	-13.9665
▁ree	-13.9668
▁€3	-13.967
США	-13.9681
▁Heu	-13.9686
▁ib	-13.969
емен	-13.9695
▁рыб	-13.9699
▁ирова	-13.9702
▁ОР	-13.9712
▁ges	-13.9716
▁ыти	-13.972
IV	-13.9722
▁НЦ	-13.9722
гли	-13.9729
BM	-13.9732
▁РО	-13.9736
зил	-13.974
▁ркин	-13.9749
АЭС	-13.975
oi	-13.9755
ила	-13.9758
тказ	-13.9765
▁гиг	-13.977
▁Siri	-13.9772
▁Up	-13.9774
▁ward	-13.9775
▁kee	-13.9775
▁кайпу	-13.9776
▁РСМД	-13.9778
▁6:3	-13.9779
▁БДТ	-13.9781
▁Az	-13.9781
ндр	-13.9783
▁ыгея	-13.9784
ийяр	-13.9785
▁Vent	-13.9791
ti	-13.9793
сер	-13.9793
▁1:3	-13.9793
▁356	-13.9794
day	-13.9799
▁анча	-13.9799
▁Fair	-13.98
▁ТОС	-13.98
▁Nikk	-13.9801
▁Ult	-13.9802
▁ГБУЗ	-13.9805
▁7,1	-13.9807
ается	-13.9808
▁MAN	-13.9808
▁8.	-13.9818
▁Цент	-13.982
▁329	-13.9821
▁орф	-13.9821
▁шоп	-13.9823
had	-13.9832
▁490	-13.9833
иб	-13.9836
▁May	-13.9838
рах	-13.9839
▁удзо	-13.9843
▁178	-13.9846
▁НОК	-13.9849
▁эндж	-13.985
▁540	-13.985
▁греш	-13.9854
▁чища	-13.9856
рей	-13.986
джа	-13.9861
▁314	-13.9864
▁265	-13.9865
▁167	-13.9868
▁РЕП	-13.9877
▁257	-13.9878
▁Lan	-13.9879
▁Lyn	-13.9883
джи	-13.9886
▁АГА	-13.9891
▁242	-13.9896
▁OR	-13.9901
▁ркини	-13.9905
▁айна	-13.9907
кто	-13.991
▁235	-13.9918
▁Est	-13.9919
олне	-13.9922
Al	-13.9926
рх	-13.9927
▁НИСЕ	-13.993
ult	-13.993
▁Rav	-13.9932
кры	-13.9941
роект	-13.9944
▁ОЗ	-13.9946
▁Coc	-13.9947
▁етят	-13.9949
FR	-13.9955
▁bla	-13.9968
▁СЗ	-13.9968
ГД	-13.9969
▁Dom	-13.997
▁Mot	-13.997
▁тез	-13.9982
▁ФИБ	-13.9984
▁tri	-13.9988
пок	-13.9993
▁воем	-13.9993
▁Viv	-13.9994
▁ахид	-13.9996
енс	-14.0005
▁убн	-14.0007
▁ирен	-14.0012
▁сар	-14.0015
▁ейсм	-14.002
▁акши	-14.0028
▁Ora	-14.0031
пов	-14.0035
▁tta	-14.0035
▁Ob	-14.004
авно	-14.0041
▁бурж	-14.0043
▁орчи	-14.0043
Вт	-14.0046
DC	-14.0046
чиц	-14.0047
▁ФАН	-14.0047
▁нтос	-14.0052
▁ag	-14.0066
73	-14.0071
▁НЕ	-14.0071
▁Pad	-14.0078
ТЭ	-14.0079
▁Chi	-14.0079
ллиа	-14.0082
▁get	-14.0083
▁кмен	-14.0084
NP	-14.0085
▁Hel	-14.0089
мб	-14.0093
▁ez	-14.0097
мени	-14.0099
uga	-14.0099
▁Jun	-14.0103
AS	-14.0104
опер	-14.0104
▁Rai	-14.0106
трое	-14.0114
▁ui	-14.0116
▁ЦД	-14.0122
▁ss	-14.0123
▁НП	-14.0133
МБО	-14.0135
НС	-14.0137
▁лаж	-14.0138
▁МТСБ	-14.0147
▁Vibe	-14.0152
42	-14.0155
▁онхи	-14.0165
▁PC	-14.0172
▁ЛК	-14.0184
▁этчер	-14.0184
▁Pr	-14.019
CA	-14.0192
ьяк	-14.0192
▁Imp	-14.0194
бов	-14.0199
IN	-14.0203
▁kar	-14.0205
лтон	-14.0206
▁Ray	-14.0208
▁пиан	-14.0213
▁мура	-14.0216
▁сд	-14.0222
▁иот	-14.0226
▁енец	-14.0228
адр	-14.0234
92	-14.0234
ории	-14.0239
▁реме	-14.0242
ркн	-14.0244
▁ret	-14.0256
исц	-14.0256
▁erc	-14.0263
▁игур	-14.0273
пел	-14.0282
▁red	-14.0284
▁звы	-14.0292
▁ili	-14.0293
жер	-14.0293
▁Des	-14.0294
▁туш	-14.0298
жин	-14.0298
спо	-14.0299
готов	-14.0301
▁mar	-14.0301
▁Son	-14.0304
райв	-14.0306
▁енг	-14.0312
▁MV	-14.0317
▁CRI	-14.0318
▁еко	-14.0335
жуаз	-14.0338
▁ME	-14.0343
ИМ	-14.035
ете	-14.0362
ймон	-14.0362
БМ	-14.0365
туш	-14.0367
ГИС	-14.0377
юч	-14.0388
ФУ	-14.0394
▁€5	-14.0397
▁АТ	-14.0398
▁оул	-14.0401
▁рожж	-14.0406
▁Log	-14.0406
юб	-14.0409
88	-14.0411
▁tv	-14.0428
прет	-14.0431
ФА	-14.0434
▁осле	-14.0443
▁Ol	-14.045
SF	-14.0451
ete	-14.0454
▁лайд	-14.0454
▁бик	-14.0458
▁ЧР	-14.0461
▁эры	-14.0467
DA	-14.0467
▁iva	-14.047
▁даун	-14.047
▁вро	-14.0479
▁шуме	-14.0481
▁Coo	-14.0483
▁сли	-14.0484
▁пен	-14.0484
ze	-14.0492
▁7:	-14.0492
ive	-14.0498
▁хм	-14.0499
▁агма	-14.0502
▁зян	-14.0506
▁ces	-14.0513
абр	-14.0521
дра	-14.0526
▁qui	-14.0535
▁игги	-14.0544
▁SW	-14.0552
▁ВО	-14.0552
▁Gas	-14.0555
▁аним	-14.0578
▁мфи	-14.0586
▁AS	-14.0586
чело	-14.0592
дно	-14.0593
этч	-14.0595
важ	-14.0598
▁CH	-14.0599
ихин	-14.0603
▁таш	-14.0604
авк	-14.0609
▁мера	-14.061
▁уни	-14.0622
▁зев	-14.0625
сю	-14.064
▁чише	-14.0644
▁энь	-14.0646
пла	-14.0648
роч	-14.0649
▁alt	-14.0653
▁РАД	-14.0655
риня	-14.0663
опрос	-14.067
оего	-14.0675
фр	-14.0677
▁Romeo	-14.0681
▁ckr	-14.0681
▁Gett	-14.0682
DI	-14.0683
▁андж	-14.0686
▁Vari	-14.0687
▁НИОН	-14.0687
▁ейнд	-14.0688
MS	-14.0692
▁нчи	-14.0692
▁$45	-14.0693
▁Chil	-14.0693
▁0:2	-14.0698
▁Girl	-14.0698
ньг	-14.0699
▁Swi	-14.0701
▁343	-14.0704
▁337	-14.0704
рбон	-14.0704
eg	-14.0708
▁имра	-14.0711
▁ill	-14.0712
наш	-14.0719
▁Cour	-14.0721
▁ula	-14.0721
▁рсун	-14.0721
ГБ	-14.0722
▁CA	-14.0724
них	-14.0724
▁Fro	-14.0725
▁НЭП	-14.0726
▁4:	-14.0733
▁йо	-14.0741
▁198	-14.0742
▁278	-14.0746
▁ирз	-14.0747
▁САУ	-14.0748
TO	-14.075
▁мфиб	-14.0752
▁ллиг	-14.0756
94	-14.0757
api	-14.076
▁exp	-14.0763
▁256	-14.0765
▁173	-14.0765
▁246	-14.0768
rum	-14.0768
▁295	-14.0769
51	-14.0771
ДВ	-14.0771
МА	-14.0772
▁тище	-14.0774
▁kp	-14.0774
▁Opt	-14.0774
▁gan	-14.0775
▁улиа	-14.0777
▁304	-14.0778
▁воры	-14.0779
▁233	-14.0779
▁275	-14.0781
Пр	-14.0784
▁325	-14.0785
▁191	-14.0785
вая	-14.0787
▁271	-14.0788
LL	-14.0789
rge	-14.0792
lt	-14.0793
▁272	-14.0799
▁БМ	-14.0806
53	-14.0809
ард	-14.0812
амер	-14.0815
▁паш	-14.0817
народ	-14.082
▁SD	-14.0826
ost	-14.0826
▁афар	-14.0829
▁Cy	-14.0831
емп	-14.0833
▁енха	-14.0836
ыск	-14.0838
▁Baz	-14.084
нгел	-14.0841
pi	-14.0842
▁ваге	-14.0843
перв	-14.0848
▁Pac	-14.0849
▁Dir	-14.0849
▁дозер	-14.0851
меж	-14.0852
▁Hal	-14.0856
▁кыр	-14.0859
овор	-14.0861
▁зве	-14.0862
▁турн	-14.0864
опро	-14.0865
▁уря	-14.0871
▁апса	-14.0874
si	-14.0879
ХО	-14.0882
▁зтех	-14.0884
ОМС	-14.0886
▁Ke	-14.0889
▁айзе	-14.0889
▁GS	-14.0891
зова	-14.0893
▁вент	-14.0898
▁рды	-14.0898
раг	-14.0898
▁Cal	-14.0901
ублик	-14.0903
▁апир	-14.0906
▁mas	-14.0906
▁тежа	-14.0913
▁лейф	-14.0932
os	-14.0933
ага	-14.0938
▁ES	-14.0939
▁os	-14.0943
▁усты	-14.0952
▁урад	-14.0956
▁EAS	-14.096
US	-14.0962
eat	-14.0965
ern	-14.0974
EG	-14.0976
льше	-14.0977
ожн	-14.0981
ru	-14.0983
▁IB	-14.0996
▁ачок	-14.1004
oor	-14.1009
▁еу	-14.1009
▁эмп	-14.1011
▁учок	-14.1014
▁фарм	-14.1015
▁хте	-14.1015
▁ОБ	-14.1016
▁УР	-14.1017
GO	-14.1018
▁аспо	-14.1024
▁РОА	-14.1026
▁рла	-14.1036
▁Gre	-14.1038
▁адж	-14.1038
▁ГЦ	-14.1045
ИНА	-14.1052
FID	-14.1055
▁САП	-14.1059
тать	-14.106
▁SP	-14.1069
иде	-14.1073
▁хет	-14.1092
▁ьон	-14.11
▁КТ	-14.1104
▁Shop	-14.1113
▁утя	-14.1113
еха	-14.1117
75	-14.1118
экс	-14.1128
вое	-14.1131
▁икер	-14.1136
▁аказа	-14.1136
ссон	-14.1137
ДА	-14.1142
61	-14.1142
дл	-14.1145
▁GE	-14.1151
▁юша	-14.1156
AA	-14.1159
72	-14.1162
шень	-14.1166
▁нома	-14.1166
ремен	-14.1169
▁урча	-14.1171
▁ЧЕ	-14.1171
▁Sal	-14.1178
▁иар	-14.1181
▁дря	-14.1181
▁ЦЭ	-14.1185
▁(6	-14.1202
ыж	-14.121
опор	-14.1217
▁грян	-14.122
эйте	-14.1232
▁етлю	-14.1245
щиц	-14.1246
▁онф	-14.1258
авье	-14.1274
▁ary	-14.1274
▁КМ	-14.1278
▁южен	-14.1284
▁ньер	-14.1284
ИГ	-14.1286
▁ахом	-14.129
▁Un	-14.1294
жде	-14.1294
аща	-14.1295
▁fro	-14.1295
▁инер	-14.1296
TA	-14.1298
▁Hom	-14.13
▁now	-14.1302
▁Fre	-14.1303
af	-14.131
▁au	-14.1311
рбер	-14.1323
▁КСП	-14.1323
ауэр	-14.1326
▁зр	-14.133
ome	-14.1331
▁Boy	-14.1332
▁loo	-14.1334
ТМ	-14.1343
ице	-14.1345
ars	-14.1346
дома	-14.1357
▁OC	-14.1359
ебе	-14.1359
▁ейд	-14.136
▁уэц	-14.1362
нди	-14.1364
▁CNB	-14.1367
▁ыге	-14.138
▁Pas	-14.1387
▁nel	-14.139
▁акер	-14.14
▁Of	-14.1403
ISA	-14.1406
отов	-14.1411
▁Qa	-14.1414
▁(8	-14.1415
▁Bosc	-14.1417
▁юст	-14.1417
ire	-14.1423
▁жуаз	-14.1424
des	-14.1427
аки	-14.1429
▁суха	-14.1433
▁ul	-14.1446
▁махе	-14.1448
▁AC	-14.1451
▁Ala	-14.1457
▁воя	-14.1459
▁mos	-14.146
▁ичто	-14.1465
ило	-14.1465
▁вэн	-14.147
-3	-14.1476
озв	-14.1477
▁ae	-14.1478
терр	-14.1479
MM	-14.1482
▁уджа	-14.1483
ОГ	-14.1489
enz	-14.1494
▁рдин	-14.15
азн	-14.1502
СЕА	-14.1503
▁nc	-14.1505
▁оуз	-14.1513
▁зиму	-14.1516
▁авы	-14.1522
58	-14.1524
Ы	-14.1526
▁веря	-14.1527
▁MP	-14.1535
▁реха	-14.1543
▁ren	-14.1547
▁ao	-14.1552
бк	-14.1558
вух	-14.1558
RC	-14.1559
ОВ	-14.1561
рси	-14.157
жей	-14.1583
▁UC	-14.1584
▁mes	-14.1587
долж	-14.159
АМИ	-14.1599
▁апоч	-14.161
ü	-14.161
▁+2	-14.163
▁nu	-14.1633
ОЙ	-14.1637
Алек	-14.1644
▁аксо	-14.1645
hi	-14.165
▁BF	-14.1653
▁анше	-14.1654
льяр	-14.1656
▁СШ	-14.1658
▁АГ	-14.1661
вик	-14.1671
▁ошно	-14.1671
▁ku	-14.1673
ass	-14.1674
▁$9	-14.1678
′	-14.1681
▁bnb	-14.1681
▁QE	-14.1681
▁енья	-14.1682
▁ZF	-14.1682
▁АзЭС	-14.1683
▁6:4	-14.1684
▁Kat	-14.1687
▁6:2	-14.1688
▁Pace	-14.1689
▁озор	-14.1691
SM	-14.1692
▁Peps	-14.1695
▁эньч	-14.1695
▁овин	-14.1697
▁ПИФ	-14.17
▁Ox	-14.1703
▁жип	-14.1703
▁374	-14.1705
▁mal	-14.1706
CO	-14.1709
▁Trib	-14.1709
▁eus	-14.171
▁cope	-14.1711
▁iv	-14.1711
▁pre	-14.1713
НА	-14.1718
▁РН	-14.172
▁БАНО	-14.1721
▁ОДК	-14.1724
▁орж	-14.1726
▁ФИО	-14.1729
▁ВИП	-14.1739
kt	-14.174
мини	-14.1742
РМ	-14.1743
▁овол	-14.1743
▁Spot	-14.1744
MP	-14.1747
▁МАКП	-14.1747
▁297	-14.1748
▁езар	-14.1753
еме	-14.1754
▁икбо	-14.1754
▁196	-14.1754
▁сова	-14.1756
▁328	-14.1757
▁sp	-14.1758
71	-14.1758
▁248	-14.1763
нтар	-14.1768
▁гвар	-14.177
ЮС	-14.1772
▁еод	-14.1778
ven	-14.1779
▁Moz	-14.1779
▁239	-14.1792
ij	-14.1797
▁292	-14.1798
▁амил	-14.1799
еде	-14.18
тран	-14.1815
ХА	-14.1823
▁Dio	-14.183
▁ОИС	-14.1832
SQ	-14.1837
▁Bra	-14.1837
цов	-14.1838
▁тошн	-14.1839
лиш	-14.1842
▁Lib	-14.1843
перед	-14.1846
▁our	-14.1846
▁251	-14.1851
ДД	-14.1853
▁205	-14.1857
есть	-14.186
▁182	-14.1862
▁Mess	-14.1864
▁дек	-14.1865
▁Sued	-14.1872
▁301	-14.1879
▁4)	-14.1885
▁одс	-14.1886
▁Cab	-14.1887
аде	-14.1888
▁pu	-14.1889
▁op	-14.1892
nai	-14.1898
▁шуб	-14.19
tel	-14.1904
▁гада	-14.1908
▁икси	-14.1917
▁lt	-14.1918
хэ	-14.1931
PO	-14.1936
▁учи	-14.1939
сред	-14.194
▁олчу	-14.1942
▁DP	-14.1943
▁Lau	-14.1961
▁219	-14.1965
▁ульев	-14.1966
▁Va	-14.1967
▁олья	-14.1968
уча	-14.1972
▁ишня	-14.1976
▁221	-14.1981
▁зом	-14.1982
этого	-14.1992
1.	-14.1998
▁war	-14.2001
▁bia	-14.2002
учас	-14.2004
▁чжэ	-14.2009
одня	-14.2014
ишк	-14.202
годня	-14.2023
▁кошк	-14.2027
ЭУ	-14.2038
крыт	-14.2039
LM	-14.2046
ded	-14.2051
▁Os	-14.2056
▁лже	-14.2062
▁iC	-14.2063
▁оря	-14.2063
▁(4	-14.2068
▁нлей	-14.2071
овы	-14.2072
▁анч	-14.2073
▁игл	-14.2074
ыг	-14.2075
▁зарм	-14.2076
озмо	-14.2078
▁олно	-14.2081
▁Tex	-14.2082
дск	-14.2083
чь	-14.2084
▁стец	-14.2084
▁gna	-14.2085
▁мпи	-14.2088
▁сово	-14.2089
▁едел	-14.2092
▁ein	-14.2094
нкер	-14.2097
▁Fla	-14.2098
Эт	-14.2099
ВТ	-14.21
▁ибе	-14.2102
▁Neur	-14.2103
▁Ear	-14.2108
рье	-14.2112
през	-14.2113
▁эйд	-14.2122
енны	-14.2125
▁flo	-14.2125
▁кола	-14.2128
ству	-14.2143
икан	-14.215
▁wo	-14.2159
▁озер	-14.216
wl	-14.2167
ä	-14.2173
ЛЬ	-14.2175
81	-14.2181
▁LIG	-14.2186
▁Dr	-14.2188
иньо	-14.2189
▁йлер	-14.2189
/2	-14.2189
▁авоч	-14.2204
▁вожа	-14.2207
▁Gen	-14.2211
▁оран	-14.2217
▁зун	-14.2219
сущ	-14.2221
▁вайр	-14.2221
▁Vir	-14.2222
▁йско	-14.2232
▁НАП	-14.2232
▁Davi	-14.2234
▁цикл	-14.2237
▁1;	-14.2239
▁--	-14.224
▁бум	-14.2249
тын	-14.2249
▁бюр	-14.225
▁Wil	-14.2252
▁win	-14.2253
▁Ter	-14.2263
озм	-14.2276
веде	-14.2291
▁ac	-14.2291
опас	-14.2292
▁орр	-14.2295
аний	-14.2298
риг	-14.2302
▁овно	-14.2303
48	-14.2305
MA	-14.2308
ейчас	-14.2311
po	-14.2312
риме	-14.2313
нап	-14.2313
гиб	-14.2323
▁влен	-14.2332
НР	-14.2338
▁Gun	-14.2338
ie	-14.234
тру	-14.2344
ате	-14.2346
▁етст	-14.2348
вк	-14.2349
▁ирдж	-14.2366
▁сре	-14.2368
▁имк	-14.2372
unt	-14.2376
84	-14.2377
ьтат	-14.2385
▁Cus	-14.239
olu	-14.2391
raz	-14.2391
ляц	-14.2394
▁укт	-14.2396
▁Meg	-14.2396
▁row	-14.2399
RT	-14.24
▁ипча	-14.2405
Ко	-14.2406
▁ГАС	-14.2415
▁PA	-14.2415
мэн	-14.2416
укли	-14.2417
уде	-14.2427
▁RI	-14.2436
▁баль	-14.2442
бой	-14.2445
▁ирзо	-14.2446
▁Af	-14.2446
ьял	-14.2447
иты	-14.2449
▁АПС	-14.2449
олот	-14.2451
рла	-14.2458
▁итом	-14.2463
уме	-14.2468
▁aar	-14.2469
▁баб	-14.2475
нах	-14.2475
▁MT	-14.2479
▁Ed	-14.2482
▁Cla	-14.2484
▁равл	-14.249
амп	-14.2501
▁ssa	-14.2507
▁ТЭ	-14.2519
HS	-14.2525
▁Wom	-14.2525
hn	-14.2537
▁крип	-14.2538
нка	-14.2544
▁МД	-14.2547
тка	-14.2557
▁ПОР	-14.2561
▁Delf	-14.2562
▁Emer	-14.2563
БТ	-14.2564
енко	-14.2565
rn	-14.2568
▁АСИ	-14.2578
▁киад	-14.258
ился	-14.2581
▁Mad	-14.2582
арен	-14.2591
ell	-14.2592
атр	-14.2595
▁СЗФ	-14.2595
▁une	-14.2602
ике	-14.2603
▁орь	-14.2605
нан	-14.2611
▁орчу	-14.2619
▁Did	-14.2621
кже	-14.2626
▁ибра	-14.2627
КИ	-14.2634
щие	-14.2637
▁Ul	-14.264
ебя	-14.2645
▁Pred	-14.2647
enc	-14.2648
FB	-14.265
гко	-14.2656
▁ушин	-14.2656
ON	-14.2657
тюр	-14.2658
▁Clin	-14.2659
▁вени	-14.2659
ФЛ	-14.2672
ление	-14.2679
КТ	-14.2679
▁ышн	-14.2684
▁vie	-14.2687
▁7)	-14.2692
КМ	-14.2696
лом	-14.2697
лез	-14.2698
:2	-14.2701
▁br	-14.2707
▁tro	-14.2707
ec	-14.271
▁Arm	-14.271
▁йзе	-14.2717
жок	-14.2718
▁улы	-14.2721
▁алка	-14.2723
▁езь	-14.2739
▁ГС	-14.2748
ext	-14.2749
▁ТА	-14.2763
бет	-14.2766
сек	-14.2769
авл	-14.277
▁БИН	-14.2771
▁айки	-14.2772
▁Sex	-14.2774
там	-14.2782
скор	-14.2782
▁эйт	-14.2782
▁шени	-14.2785
©	-14.2792
▁→	-14.2792
▁Coupe	-14.2792
▁Prada	-14.2792
▁Maps	-14.2792
▁Prius	-14.2792
▁РАМН	-14.2793
▁югге	-14.2793
▁East	-14.2793
▁5:1	-14.2794
▁1⁄2	-14.2795
▁look	-14.2798
▁МАУ	-14.28
▁уфман	-14.2801
▁$36	-14.2802
▁ОССИ	-14.2802
▁УЛЬ	-14.2803
юче	-14.2803
заж	-14.2803
96	-14.2804
зр	-14.2808
▁Ger	-14.2809
▁ИЛ	-14.281
БУЗ	-14.281
▁Silv	-14.2811
иться	-14.2812
▁387	-14.2818
▁499	-14.2821
▁иммер	-14.2824
▁353	-14.2824
▁ite	-14.2833
йлер	-14.2833
▁cht	-14.2834
▁mk	-14.2837
ND	-14.284
▁Thin	-14.2841
▁Call	-14.2846
▁351	-14.2846
▁352	-14.2847
Их	-14.2853
▁идли	-14.2854
ГАИ	-14.2855
одим	-14.2858
▁283	-14.2858
▁326	-14.2862
mit	-14.2866
дев	-14.2866
▁анад	-14.2868
▁SI	-14.287
▁323	-14.2873
▁273	-14.2877
▁ИИС	-14.2882
▁Ship	-14.2886
▁284	-14.2886
вок	-14.2886
▁570	-14.2888
мис	-14.2888
▁дошв	-14.2894
▁259	-14.2895
▁Haw	-14.2895
торон	-14.2896
▁289	-14.2897
▁ММ	-14.2898
▁обы	-14.2899
▁Bat	-14.2902
▁узя	-14.2902
▁316	-14.2903
▁Pop	-14.2904
▁улье	-14.291
has	-14.2914
▁ОА	-14.292
айте	-14.292
уди	-14.292
рубл	-14.292
риш	-14.2924
▁ыква	-14.2925
▁261	-14.2925
▁277	-14.293
езу	-14.2931
▁ухум	-14.2932
GM	-14.2933
oll	-14.2938
▁урса	-14.294
▁SAN	-14.2946
▁огол	-14.2949
▁241	-14.2951
льм	-14.2954
▁tol	-14.2957
▁апко	-14.296
ПД	-14.2961
▁аулю	-14.2961
tro	-14.2963
▁щер	-14.2965
▁161	-14.2965
▁МИА	-14.2969
еги	-14.2979
кра	-14.2981
РЗ	-14.299
▁итян	-14.3
жут	-14.3006
pan	-14.301
рти	-14.3012
▁Mic	-14.3013
▁имби	-14.3017
▁Pos	-14.3019
▁спо	-14.3022
▁нур	-14.3025
▁азг	-14.3033
▁ide	-14.3035
ico	-14.304
▁акри	-14.304
▁3;	-14.3041
lk	-14.3041
▁ЕН	-14.3043
▁елин	-14.3048
яб	-14.3056
йт	-14.3058
▁НЭ	-14.3063
▁алда	-14.3063
▁льмар	-14.3063
▁227	-14.3064
nz	-14.3068
37	-14.3069
ies	-14.3078
ярн	-14.3082
▁lip	-14.3085
▁урб	-14.3089
▁вск	-14.3091
▁виг	-14.3103
могу	-14.3105
▁FAT	-14.3108
одоб	-14.311
eh	-14.311
▁дюжи	-14.3111
▁Rol	-14.3113
▁217	-14.3115
▁SX	-14.3116
▁тыш	-14.3117
юз	-14.3117
▁лтым	-14.3121
▁нч	-14.3126
igi	-14.3133
OL	-14.3136
eti	-14.3141
ori	-14.3148
▁орш	-14.315
Влад	-14.3151
ol	-14.3156
днако	-14.3159
ухи	-14.3161
▁эйг	-14.3163
▁ндау	-14.3165
метил	-14.3172
ута	-14.3172
яр	-14.3179
▁ene	-14.3183
хр	-14.3185
▁чанин	-14.3195
кат	-14.3201
явля	-14.3201
▁рдь	-14.3201
▁Bug	-14.3203
▁арка	-14.3203
▁pic	-14.3204
ьют	-14.3213
▁WWD	-14.3214
люк	-14.322
олж	-14.3222
▁блик	-14.3225
▁нях	-14.3227
ару	-14.3231
Евро	-14.3231
▁ТКО	-14.3237
▁плек	-14.3241
▁КОР	-14.3245
▁ушь	-14.3257
▁Shu	-14.3271
▁liv	-14.3274
чу	-14.3283
▁ТУ	-14.3287
онк	-14.3288
будут	-14.3289
▁Traf	-14.329
центр	-14.329
тюх	-14.3292
usi	-14.3292
lf	-14.3297
исхо	-14.3297
▁уя	-14.33
▁Ur	-14.3301
БУР	-14.3311
▁Huma	-14.3317
▁йрес	-14.3322
йти	-14.3323
▁Hear	-14.3324
▁Sur	-14.3324
▁CT	-14.3326
▁ллио	-14.3327
▁Sav	-14.3327
▁стун	-14.3337
▁еор	-14.334
▁яще	-14.3346
▁Gm	-14.3346
госу	-14.3349
▁РСК	-14.3351
нте	-14.3353
РИС	-14.3354
▁9-	-14.3364
97	-14.3366
оди	-14.3367
нны	-14.3369
▁LE	-14.3369
▁cop	-14.3369
▁ерфи	-14.3369
▁EA	-14.338
▁рны	-14.3384
телей	-14.3386
▁омки	-14.3398
ъ	-14.3398
▁cas	-14.3403
▁Cli	-14.3412
ТЭК	-14.3419
▁ABB	-14.3421
▁ибри	-14.3426
▁lik	-14.3426
▁фли	-14.3433
use	-14.3435
▁Lum	-14.344
▁iz	-14.3448
▁Нм	-14.3454
▁Il	-14.3454
▁маха	-14.3457
▁ICA	-14.3458
▁Ban	-14.346
▁Ir	-14.3462
▁mus	-14.3462
▁ГТО	-14.3462
▁удн	-14.3467
▁Pers	-14.3475
6.	-14.3478
нтов	-14.3478
▁Dyn	-14.3479
▁санк	-14.3479
▁Vim	-14.3483
▁енну	-14.3483
▁Mont	-14.3484
SN	-14.349
▁зих	-14.3501
▁Хэ	-14.3502
ора	-14.3504
мбур	-14.3513
▁whi	-14.3518
вз	-14.352
▁Im	-14.3521
▁Zar	-14.3526
▁ТБ	-14.3529
вто	-14.353
▁rent	-14.3539
тнев	-14.3541
▁Hen	-14.3545
▁рюч	-14.3547
▁няж	-14.3548
ефан	-14.3562
иал	-14.3564
▁мчу	-14.3565
▁trea	-14.3567
ников	-14.3571
рюш	-14.358
▁stan	-14.3581
▁рбон	-14.3593
▁NN	-14.3596
▁КУ	-14.3605
ez	-14.3605
ланд	-14.3605
eal	-14.3605
▁rit	-14.3605
▁mod	-14.3614
▁Den	-14.3619
tre	-14.3622
▁рдас	-14.3635
▁CE	-14.3636
▁Ele	-14.3637
▁ci	-14.3643
ьск	-14.3645
inc	-14.3647
▁КАР	-14.3648
▁via	-14.3648
RE	-14.365
▁rew	-14.3654
Де	-14.3664
МР	-14.3675
▁ass	-14.3677
▁ska	-14.3685
▁Prin	-14.3686
▁сат	-14.3688
▁Hum	-14.3691
una	-14.3693
ew	-14.3694
ротив	-14.3694
▁уэля	-14.3695
ain	-14.3699
▁ьяч	-14.37
ДР	-14.37
▁Roma	-14.3703
▁маз	-14.3704
▁DO	-14.371
Мин	-14.3715
▁Ros	-14.3716
ссия	-14.3717
▁ивны	-14.3718
▁риче	-14.3723
илов	-14.3726
етей	-14.3729
ох	-14.3732
▁Jum	-14.3735
трат	-14.3738
▁астей	-14.3742
оне	-14.3759
▁ибул	-14.3759
▁лабан	-14.376
ея	-14.3762
uma	-14.3762
lc	-14.3763
КГ	-14.3763
роц	-14.3769
▁жиг	-14.3784
одно	-14.3789
когда	-14.3791
urt	-14.3791
▁CD	-14.3792
коно	-14.3797
▁ейфе	-14.3799
son	-14.3806
ЕС	-14.3806
▁эйп	-14.3808
▁кетч	-14.3814
▁tr	-14.3815
▁pres	-14.3819
▁спра	-14.3821
▁вате	-14.3837
▁Er	-14.3845
▁lif	-14.3849
▁тюг	-14.3854
▁put	-14.3858
рест	-14.3878
ицын	-14.3878
DF	-14.3879
НО	-14.3883
▁FO	-14.3884
SI	-14.3887
АТЭ	-14.3889
Ее	-14.3893
иях	-14.3904
▁mil	-14.3905
▁одч	-14.3908
истем	-14.3912
▁Stea	-14.3917
фу	-14.3918
▁МБ	-14.3919
▁Tal	-14.3923
▁чиев	-14.3923
▁rg	-14.3925
▁наро	-14.3929
▁Kha	-14.3929
▁ИПП	-14.3932
▁лтик	-14.3933
▁орго	-14.3939
▁бен	-14.3943
▁еньш	-14.3949
▁ерзо	-14.395
▁€8	-14.3951
▁mu	-14.3954
Ла	-14.3961
▁Gio	-14.3965
▁tec	-14.3968
▁IS	-14.3969
час	-14.3981
ner	-14.3986
▁рвих	-14.3989
ктер	-14.399
▁ыжо	-14.399
:5	-14.399
▁пя	-14.3993
▁пух	-14.3999
▁азд	-14.4002
▁ФГБ	-14.401
можно	-14.402
▁pec	-14.4021
маг	-14.4031
▁Bi	-14.4037
веч	-14.4042
́	-14.4042
‒	-14.4042
▁БЭСП	-14.4042
▁Echo	-14.4042
▁THE	-14.4042
▁Xray	-14.4042
▁MDK	-14.4042
▁UCP	-14.4042
▁Happ	-14.4042
▁Edge	-14.4042
▁Cloud	-14.4042
▁AFI	-14.4042
▁Road	-14.4042
▁MIP	-14.4043
сад	-14.4043
щего	-14.4043
▁Snow	-14.4043
▁GQ	-14.4043
▁5:0	-14.4045
▁Vine	-14.4045
▁ТОФ	-14.4047
▁space	-14.4048
▁НОД	-14.4048
▁NX	-14.4049
oni	-14.4049
▁АМАС	-14.4051
▁0:4	-14.4054
▁1:4	-14.4055
▁391	-14.4062
▁doc	-14.4066
▁евц	-14.4067
▁389	-14.4073
▁458	-14.4074
▁аргу	-14.4075
▁463	-14.4076
▁385	-14.4079
▁ЛЕК	-14.4079
▁364	-14.408
▁344	-14.408
▁ССА	-14.4081
▁372	-14.4081
▁ммер	-14.4084
▁338	-14.4084
▁айду	-14.4085
▁342	-14.4086
▁акке	-14.4086
▁362	-14.4087
тви	-14.4088
▁Kir	-14.4093
▁тяг	-14.4094
54	-14.4098
ваш	-14.41
▁СА	-14.4101
▁€4	-14.4101
сты	-14.4105
▁jour	-14.4108
▁ирж	-14.4111
▁335	-14.4112
▁эндо	-14.4114
▁gam	-14.4115
▁ABS	-14.4115
OC	-14.4116
▁296	-14.4118
▁РБ	-14.4118
▁бац	-14.4119
▁Glor	-14.4121
▁анз	-14.4122
▁345	-14.4127
▁аэр	-14.413
▁утне	-14.4132
▁Aft	-14.4134
PP	-14.4136
пон	-14.4138
▁АКС	-14.414
▁288	-14.4143
▁266	-14.4144
▁Phi	-14.4145
▁419	-14.4149
▁Styl	-14.415
▁CNG	-14.4153
▁fr	-14.4155
AV	-14.4156
▁Down	-14.4161
▁Scot	-14.4162
млн	-14.4165
▁неч	-14.4167
ИЗО	-14.417
▁313	-14.4171
▁412	-14.4173
ЭМ	-14.4174
ойк	-14.4177
▁254	-14.4179
▁322	-14.418
▁203	-14.418
▁арст	-14.4185
▁CS	-14.4189
▁244	-14.4189
▁ильд	-14.4196
put	-14.4197
▁рфе	-14.4202
▁ерид	-14.4209
тот	-14.4212
▁мажо	-14.4217
▁MMA	-14.4219
duc	-14.4231
▁остя	-14.4249
▁оти	-14.4249
▁UN	-14.4254
▁312	-14.4255
▁6)	-14.4262
конц	-14.4262
▁рица	-14.4262
▁BA	-14.4274
ЭП	-14.4277
траны	-14.428
▁231	-14.4285
▁Pir	-14.4291
▁айен	-14.4292
доба	-14.4292
IS	-14.4293
▁Via	-14.4295
5;	-14.4295
▁Sie	-14.43
▁ежен	-14.4303
ps	-14.4306
▁ПЧ	-14.4307
АИ	-14.4313
▁еби	-14.4314
▁инье	-14.4315
▁goo	-14.4315
▁Equ	-14.4315
▁пий	-14.4316
▁Meta	-14.4318
нач	-14.4318
▁тес	-14.4318
▁pp	-14.4325
▁пиф	-14.4326
▁РГС	-14.4326
tus	-14.4328
▁асты	-14.433
энс	-14.433
▁огра	-14.4332
▁Spee	-14.4333
▁13.	-14.4335
▁510	-14.4338
▁ВЭ	-14.4341
твие	-14.4345
▁ВВ	-14.4346
▁Zep	-14.4353
▁UT	-14.4355
егк	-14.4356
86	-14.4358
TR	-14.436
▁ипно	-14.436
▁tur	-14.4363
▁Wes	-14.4363
▁варца	-14.4364
▁ихин	-14.4371
▁sm	-14.4371
▁тума	-14.4373
▁Sana	-14.4379
▁янк	-14.4379
▁Sib	-14.4382
ucc	-14.4382
yl	-14.4383
рро	-14.4384
▁Mon	-14.4387
▁джи	-14.4387
les	-14.4394
клад	-14.4394
▁чиц	-14.4404
ома	-14.4406
▁юэл	-14.4406
▁ешил	-14.4409
▁Schi	-14.4414
▁fl	-14.4416
рево	-14.4416
▁Han	-14.4423
▁ссо	-14.4423
ОМ	-14.4424
▁айба	-14.4432
тря	-14.4432
▁Dell	-14.4442
▁Zoo	-14.4446
афи	-14.4448
▁лучи	-14.4449
иум	-14.445
БЗ	-14.445
▁лафи	-14.4456
▁ЦИ	-14.4456
▁дун	-14.4458
▁оцк	-14.4459
▁акк	-14.4465
ГАБ	-14.4471
оманд	-14.4472
EV	-14.4472
▁£1	-14.4475
КФУ	-14.4476
rm	-14.4481
▁игм	-14.4496
ург	-14.4498
▁НЗ	-14.4516
▁куч	-14.4519
▁асеч	-14.4522
▁kor	-14.4527
▁low	-14.4531
▁окса	-14.4535
▁апш	-14.4535
▁ицю	-14.4537
▁og	-14.4538
▁Emi	-14.454
быть	-14.454
▁Oy	-14.4547
▁НИКО	-14.4547
▁обн	-14.4549
▁lar	-14.4552
▁СН	-14.4557
▁сочи	-14.4566
▁тюрь	-14.4566
раны	-14.4567
LA	-14.4583
sta	-14.4585
олос	-14.4588
▁Ell	-14.4589
эйн	-14.4593
▁ерви	-14.4597
▁Asi	-14.4599
▁СТО	-14.4609
рга	-14.4617
▁адед	-14.4623
▁кали	-14.4624
КФ	-14.4627
груп	-14.4628
шт	-14.4629
▁осы	-14.463
▁Wo	-14.4631
▁ерши	-14.4645
▁Ten	-14.4654
▁урч	-14.4654
пу	-14.4662
▁ксай	-14.4668
ah	-14.467
▁йр	-14.468
56	-14.468
ири	-14.4681
▁gr	-14.4685
тч	-14.4689
оно	-14.4694
лужб	-14.4695
▁чех	-14.4701
▁айги	-14.4703
▁Brow	-14.4703
▁Sel	-14.4704
▁Zen	-14.4705
заяв	-14.4708
uk	-14.4708
▁Yu	-14.472
ига	-14.4724
▁ВСС	-14.4729
AW	-14.4731
▁КАД	-14.4731
▁КЦ	-14.4733
▁Эл	-14.4736
ice	-14.4737
▁ime	-14.4737
РС	-14.4739
▁ауэ	-14.4739
AN	-14.474
ева	-14.4746
▁ГАУ	-14.4747
ВЗ	-14.475
▁Dy	-14.4751
гля	-14.4752
▁мял	-14.476
▁Work	-14.4766
МИ	-14.4768
SIS	-14.4771
▁гума	-14.4773
▁QI	-14.4776
▁шеми	-14.4776
▁DE	-14.4778
▁епк	-14.4781
▁mag	-14.4802
▁ec	-14.4816
▁ST	-14.4816
▁унея	-14.4817
▁стно	-14.482
uri	-14.482
▁hen	-14.4821
▁ыне	-14.4822
хап	-14.4826
рот	-14.4842
ефт	-14.4848
▁иен	-14.4848
ОБР	-14.485
▁Sain	-14.4857
▁ПФ	-14.4859
82	-14.4859
▁ехе	-14.4863
▁Sco	-14.4864
▁Cos	-14.4865
овать	-14.4875
▁bot	-14.4875
етк	-14.4875
▁вов	-14.4877
▁тпр	-14.4877
▁одже	-14.4881
▁AMO	-14.4891
РГ	-14.4899
▁uk	-14.492
▁ВБ	-14.4922
▁Mak	-14.4926
▁ахма	-14.4926
ФМС	-14.4928
▁вк	-14.4931
▁екен	-14.4932
▁мкоа	-14.4934
ó	-14.4936
ути	-14.4941
ьник	-14.4944
▁FIA	-14.4947
млрд	-14.495
▁туп	-14.4953
▁лту	-14.4962
▁Jan	-14.4963
енных	-14.4965
техн	-14.4966
▁азух	-14.4971
▁еян	-14.4971
епт	-14.4973
РН	-14.4976
▁орги	-14.4977
LT	-14.4978
▁Ross	-14.4981
▁rac	-14.4985
люб	-14.4986
▁анан	-14.4987
mer	-14.4989
▁ерен	-14.4995
▁урье	-14.4996
▁кейт	-14.4996
▁pi	-14.5002
▁Ив	-14.5003
▁Sher	-14.5009
▁лофа	-14.5009
▁клас	-14.5013
orn	-14.5017
oid	-14.5018
▁ОШ	-14.5024
▁НИК	-14.5028
▁поги	-14.5028
ОВД	-14.5032
ыс	-14.5033
▁жэн	-14.5035
NN	-14.5039
▁уин	-14.504
▁MC	-14.5043
шер	-14.5043
▁Pod	-14.5044
▁авад	-14.5046
ились	-14.5046
нью	-14.5049
тысяч	-14.5049
▁КО	-14.5059
▁ГУВ	-14.5059
▁EV	-14.5061
ОТ	-14.5063
жда	-14.507
RS	-14.5073
ЖС	-14.5077
блик	-14.5085
▁улли	-14.5087
▁ead	-14.5088
район	-14.5091
uls	-14.5094
▁dy	-14.51
▁NO	-14.5102
коп	-14.5105
▁mul	-14.5109
▁ДУ	-14.5112
дюк	-14.5112
▁Roc	-14.5113
лья	-14.5118
▁Ola	-14.5119
▁Thi	-14.5119
NC	-14.5133
пом	-14.5135
нян	-14.5137
дир	-14.5138
акс	-14.5139
▁Jav	-14.5139
аза	-14.5145
узов	-14.5145
▁RO	-14.5149
fe	-14.5151
4.	-14.5153
где	-14.5154
▁урдж	-14.5162
грамм	-14.5168
ph	-14.5172
▁яиц	-14.5182
НАО	-14.5183
▁жье	-14.5184
льс	-14.5185
hous	-14.5187
▁Chro	-14.5188
ып	-14.519
огла	-14.5195
▁MA	-14.5199
СЭ	-14.5201
DO	-14.5201
▁trie	-14.521
▁Carl	-14.5213
▁ибан	-14.5217
▁щур	-14.522
инанс	-14.522
▁йч	-14.5221
▁рвы	-14.5226
▁рахо	-14.523
▁mpi	-14.5231
▁Дм	-14.5231
yr	-14.5235
▁нбар	-14.5238
имп	-14.5247
сего	-14.5251
део	-14.5261
ивш	-14.5265
▁Sud	-14.5265
uy	-14.5265
▁Sin	-14.5266
▁top	-14.5268
▁ворд	-14.5274
▁tas	-14.5275
РПК	-14.5277
▁клян	-14.5287
СТ	-14.5292
ВЦ	-14.5293
▁8)	-14.5299
RI	-14.5301
▁армо	-14.5306
▁Frie	-14.5326
друг	-14.5329
▁рчев	-14.5336
трен	-14.5339
▁Infr	-14.534
▁Ea	-14.5342
▁Whe	-14.5345
▁ерце	-14.5346
летн	-14.5347
▁ju	-14.5356
шла	-14.5361
▁ажк	-14.5362
▁ишев	-14.5363
▁дс	-14.5366
▁уаци	-14.5371
▁Io	-14.5373
▁Ap	-14.538
FL	-14.5388
▁Kor	-14.5393
▁lat	-14.5396
▁выр	-14.5398
PN	-14.5398
▁23.	-14.5399
▁Sai	-14.5401
▁овс	-14.5402
оссия	-14.5404
▁ндро	-14.5405
▁ї	-14.5408
▁Fab	-14.5432
ичк	-14.5435
▁мь	-14.5444
▁clu	-14.5448
ДТ	-14.5454
▁щетн	-14.5459
иби	-14.5462
▁6:	-14.5464
▁Baidu	-14.5471
▁Hürr	-14.5471
▁IIHF	-14.5471
▁TASS	-14.5471
▁gnum	-14.5471
▁Verge	-14.5471
▁Point	-14.5471
▁Roust	-14.5471
▁Niva	-14.5471
▁Lif	-14.5471
▁GMP	-14.5471
▁Want	-14.5472
▁IBO	-14.5472
▁Eye	-14.5473
▁6:0	-14.5474
▁het	-14.5474
▁УЛАГ	-14.5474
▁1⁄	-14.5475
▁БАМ	-14.5476
▁НВФ	-14.5476
▁4:0	-14.5476
РО	-14.5477
▁фель	-14.5479
qua	-14.548
▁Symp	-14.5481
▁5:2	-14.5483
▁sin	-14.5483
▁Cars	-14.5483
▁tb	-14.5487
▁Au	-14.5489
седа	-14.549
▁396	-14.549
▁mai	-14.5496
эти	-14.5496
WC	-14.5499
▁388	-14.55
▁10;	-14.5502
▁Aqua	-14.5505
▁gm	-14.5507
кси	-14.5509
▁икин	-14.551
▁зыб	-14.5511
▁454	-14.5513
▁368	-14.5513
▁354	-14.5517
▁нибок	-14.5518
▁339	-14.5521
▁Cell	-14.5525
▁ТТК	-14.5525
CH	-14.5526
▁уна	-14.5528
▁kin	-14.5531
▁408	-14.5531
▁577	-14.5532
▁Cir	-14.5532
▁355	-14.5539
▁pla	-14.5539
▁айке	-14.5539
жим	-14.5539
yo	-14.5541
еет	-14.5543
▁ОТК	-14.5543
дзо	-14.5543
мут	-14.5544
▁тишье	-14.5544
адо	-14.5545
ОО	-14.5547
▁Ips	-14.5547
XT	-14.5549
▁РТР	-14.5552
▁РЭ	-14.5556
▁авки	-14.5556
▁hip	-14.5563
ерм	-14.5565
uff	-14.5567
ире	-14.5569
▁вей	-14.5572
dex	-14.5572
▁нюха	-14.5573
▁529	-14.5574
▁BT	-14.5575
ДЮ	-14.5575
ИЭ	-14.5577
▁печи	-14.5578
▁327	-14.558
▁413	-14.5583
▁eur	-14.5584
▁(7	-14.559
▁414	-14.5592
ET	-14.5593
МБ	-14.5593
▁серт	-14.5594
▁324	-14.5594
▁321	-14.5597
AFT	-14.5599
▁418	-14.5604
▁плес	-14.5605
▁cou	-14.5605
▁СДС	-14.5607
▁абар	-14.5608
ьно	-14.561
свое	-14.5612
▁253	-14.5615
▁FIS	-14.5615
▁arm	-14.5616
▁402	-14.5616
▁УРа	-14.5617
▁kov	-14.5622
▁ориц	-14.5623
▁307	-14.5623
98	-14.5625
▁Wav	-14.5625
НД	-14.5627
зва	-14.5629
▁арб	-14.563
ВЛ	-14.5637
НЬ	-14.564
wn	-14.564
тыс	-14.5644
▁УСН	-14.5646
▁Eg	-14.5646
▁ЗА	-14.5647
фак	-14.5647
▁Mis	-14.566
▁урдю	-14.5661
▁Xpe	-14.5663
DV	-14.5664
ГАУ	-14.5665
ньол	-14.5667
ушен	-14.5667
▁164	-14.5668
▁икке	-14.5672
МД	-14.5674
▁hal	-14.568
▁РИК	-14.568
▁Шеф	-14.5681
▁Crim	-14.5681
БВ	-14.5685
▁чус	-14.5687
ö	-14.5688
уров	-14.5692
ответ	-14.5693
▁ивней	-14.5696
кос	-14.5696
▁255	-14.5699
мисс	-14.5708
иро	-14.571
▁ьш	-14.5712
GI	-14.5716
▁ыкв	-14.572
КД	-14.5724
▁Et	-14.5724
▁риа	-14.5724
▁Afr	-14.5725
▁Spic	-14.5726
▁ТЮ	-14.573
▁офь	-14.5737
▁Wh	-14.574
▁410	-14.5741
тек	-14.5743
▁укр	-14.5744
рбин	-14.5753
MV	-14.5757
▁елени	-14.5759
▁коми	-14.5762
▁47.	-14.5763
метр	-14.5771
рец	-14.5774
уть	-14.5775
▁ризи	-14.5782
фян	-14.5789
є	-14.5792
▁ксин	-14.5793
▁ful	-14.5797
сно	-14.5797
▁ерцев	-14.5801
▁65.	-14.5807
▁хане	-14.5807
MD	-14.5807
▁абье	-14.5809
▁ON	-14.5815
▁Iris	-14.5816
▁КСИ	-14.5823
▁nad	-14.5825
fa	-14.5827
▁Tet	-14.5829
КПП	-14.5829
ЦР	-14.583
▁опре	-14.583
реч	-14.5831
ГИ	-14.5838
▁оджа	-14.584
▁Medi	-14.5842
андр	-14.5843
▁Hay	-14.5843
▁оржо	-14.5848
▁ляж	-14.5851
▁£4	-14.5852
▁ГР	-14.5866
é	-14.5867
▁манс	-14.5868
▁lux	-14.5877
▁Dia	-14.588
▁Sim	-14.5892
▁wid	-14.5893
▁ЕСВ	-14.5898
▁dan	-14.59
▁ейр	-14.5903
ИЯ	-14.5903
иФ	-14.5908
▁юлен	-14.5913
▁Merl	-14.5914
ледо	-14.5916
▁ильг	-14.5919
ОН	-14.5931
АРА	-14.5935
▁рыча	-14.5935
▁Assi	-14.5943
▁вини	-14.5944
'	-14.5947
ИФ	-14.5949
▁МЮ	-14.5952
▁Swis	-14.5955
сво	-14.5959
La	-14.5961
▁фри	-14.5962
▁spar	-14.5971
▁байк	-14.5973
avi	-14.598
много	-14.5983
▁льна	-14.5991
▁EB	-14.5992
▁DR	-14.5996
ЗК	-14.5997
оим	-14.5997
uc	-14.6003
арод	-14.6007
▁вало	-14.6008
▁ыквы	-14.6012
▁IMA	-14.6013
рид	-14.6024
круг	-14.6031
▁2/	-14.6037
▁эмм	-14.604
▁льба	-14.604
яшк	-14.6044
лж	-14.6049
пресс	-14.6054
▁Bud	-14.6054
чич	-14.6069
▁отье	-14.607
▁pt	-14.6071
▁Mu	-14.6077
опул	-14.6086
ество	-14.6087
▁sap	-14.6088
▁упы	-14.6096
ЛОР	-14.6098
59	-14.6099
исто	-14.6111
▁аню	-14.6114
▁HER	-14.6115
▁ЕА	-14.6122
учил	-14.6123
▁зень	-14.6126
МВ	-14.6128
ндж	-14.6138
▁сч	-14.6141
стреч	-14.6149
▁оджи	-14.615
▁JB	-14.615
▁fie	-14.6152
▁fin	-14.6155
▁Pre	-14.6158
▁аве	-14.6159
▁ммон	-14.6161
▁УНА	-14.6162
▁Let	-14.6166
▁ЕЛ	-14.6168
транс	-14.6171
изм	-14.6175
▁ебса	-14.6177
▁tha	-14.6185
евер	-14.6186
▁SC	-14.6193
▁ьясс	-14.6198
▁PL	-14.6202
▁итта	-14.6205
▁Dro	-14.6209
▁ВСН	-14.6213
▁Rose	-14.6215
▁Berk	-14.6219
▁ГМ	-14.6231
san	-14.6234
▁ВР	-14.6235
▁айко	-14.6239
▁ros	-14.6251
▁НИА	-14.6252
▁скол	-14.6252
▁nd	-14.6253
ольше	-14.6254
jo	-14.6254
▁Glas	-14.6255
огу	-14.6259
пил	-14.626
▁FC	-14.6261
жир	-14.6274
ek	-14.6279
▁урав	-14.6283
▁тва	-14.6292
НГ	-14.6301
▁пли	-14.6301
Ь	-14.6301
место	-14.6312
▁ринь	-14.6324
монд	-14.6324
ЭИ	-14.6327
▁иня	-14.6328
▁bon	-14.633
план	-14.6331
▁умэ	-14.6332
есте	-14.6332
▁Bern	-14.6335
ФНС	-14.6338
▁Scor	-14.6341
эг	-14.6343
кенд	-14.6345
НСО	-14.6346
пек	-14.6353
учн	-14.636
рое	-14.6363
▁gio	-14.6363
▁мара	-14.6365
▁зел	-14.6369
▁Shi	-14.6371
▁епки	-14.6372
ї	-14.6372
▁опк	-14.6372
▁set	-14.6374
▁NI	-14.6378
▁lm	-14.6386
▁BN	-14.6389
▁ощи	-14.639
ИРО	-14.6393
ине	-14.6404
▁stra	-14.6405
хал	-14.6406
Co	-14.6415
▁MR	-14.6417
▁УБ	-14.6418
ужи	-14.6419
▁ОЛЕ	-14.6423
АСО	-14.6423
име	-14.6431
▁kie	-14.6432
ЧР	-14.6434
ъя	-14.6441
▁VC	-14.6443
▁убай	-14.6444
▁тни	-14.6444
СТО	-14.6453
▁Bon	-14.6454
▁Sm	-14.6455
емы	-14.646
▁лба	-14.6461
▁ирша	-14.6467
▁WW	-14.6468
▁Ib	-14.6471
▁ФАД	-14.6472
НИИ	-14.6475
вэн	-14.6475
▁клу	-14.6478
▁бадр	-14.6478
▁адья	-14.6481
ege	-14.6487
▁Plat	-14.6488
▁егас	-14.6492
▁илис	-14.6493
▁HP	-14.6495
рим	-14.6496
▁тае	-14.6499
▁АНТ	-14.65
▁бры	-14.6501
▁LC	-14.6503
▁ПТУ	-14.6507
лла	-14.6509
▁ояж	-14.6512
▁енч	-14.6515
▁SH	-14.6516
▁стриц	-14.652
▁аура	-14.6525
виа	-14.6529
▁Plan	-14.6537
▁trad	-14.6538
▁пяч	-14.6547
▁bow	-14.6547
▁коны	-14.6549
▁МЦ	-14.6553
Car	-14.6557
амин	-14.6557
иком	-14.6558
rav	-14.656
▁арго	-14.6562
ЕЛЬ	-14.6568
▁грыз	-14.6571
lv	-14.6572
СХ	-14.6573
зян	-14.6581
▁ложе	-14.6583
▁ечи	-14.6585
▁льви	-14.6587
унг	-14.6588
ехт	-14.6588
алл	-14.6591
▁айли	-14.6594
алк	-14.6595
▁Fem	-14.6597
▁озл	-14.6602
сии	-14.6603
▁NL	-14.6607
хра	-14.661
▁nn	-14.6611
ПЧ	-14.6614
овл	-14.6614
▁Гоа	-14.6619
Fi	-14.6619
▁лаба	-14.6619
аря	-14.6623
▁бб	-14.6628
▁ige	-14.6628
▁ій	-14.6632
▁sup	-14.6643
яже	-14.6645
▁ръ	-14.6646
azz	-14.6649
PH	-14.6653
▁ast	-14.6654
▁КРС	-14.6656
▁рие	-14.6663
▁винс	-14.6665
▁Kon	-14.6672
кв	-14.6673
▁орха	-14.6679
▁хаб	-14.6682
▁fu	-14.6683
▁ндал	-14.6685
▁bro	-14.6685
▁MD	-14.6689
▁ечте	-14.6691
БС	-14.6703
▁епат	-14.6703
инал	-14.6712
▁dig	-14.6725
▁имба	-14.6734
▁ky	-14.6739
▁VM	-14.6739
▁юше	-14.674
▁лдан	-14.674
▁уйя	-14.6743
▁нве	-14.6747
путат	-14.6749
▁gu	-14.675
▁Hor	-14.6751
рюм	-14.6752
тью	-14.6757
▁агир	-14.676
▁ноя	-14.6761
mb	-14.6763
▁Fed	-14.6768
▁gra	-14.6768
▁tus	-14.6769
▁Bow	-14.6772
▁гаф	-14.6773
▁ppe	-14.6775
tal	-14.6784
▁акла	-14.6794
ДЦ	-14.6799
СЗ	-14.6806
омб	-14.6815
▁Rot	-14.6815
фел	-14.6828
▁овша	-14.6841
право	-14.6851
ыше	-14.6859
▁укс	-14.686
стью	-14.686
▁зет	-14.6861
ТЦ	-14.6864
рохо	-14.6868
соо	-14.687
▁алил	-14.6873
илась	-14.6874
раст	-14.6879
▁трац	-14.688
rem	-14.6891
овый	-14.6894
▁Nor	-14.6895
▁дрис	-14.6902
▁ria	-14.6905
оби	-14.6912
▁ифи	-14.6921
ьт	-14.6921
ань	-14.6927
уне	-14.693
▁Trac	-14.6946
▁оус	-14.6948
азде	-14.6953
▁ЕД	-14.6956
▁итм	-14.6956
фен	-14.6965
едь	-14.6965
uf	-14.6967
ST	-14.6971
▁tre	-14.6974
▁Ty	-14.6977
▁епто	-14.6981
▁анке	-14.6995
▁Zi	-14.6995
▁ВАС	-14.6998
ТБО	-14.6999
авиа	-14.7008
ФТ	-14.7009
▁яй	-14.7012
ризн	-14.7017
ники	-14.7019
▁Veg	-14.7033
▁улья	-14.7033
▁рюш	-14.7036
кции	-14.7037
▁фриз	-14.7038
▁инз	-14.7045
баз	-14.7049
▁вско	-14.7054
▁атут	-14.7054
защи	-14.7062
▁iel	-14.7074
вого	-14.7079
онов	-14.708
отн	-14.7092
нихи	-14.7094
8,	-14.7097
▁прио	-14.7112
ивает	-14.7114
ler	-14.7119
ехн	-14.7123
▁овр	-14.7123
асть	-14.7134
▁етч	-14.7135
▁lcim	-14.7137
▁‬	-14.7137
▁html	-14.7137
▁Floyd	-14.7137
▁pdf	-14.7137
▁ЕПСС	-14.7137
▁pä	-14.7137
▁view	-14.7138
▁Run	-14.7138
▁FIR	-14.7138
▁Iron	-14.7138
▁Fer	-14.7139
▁auty	-14.7139
▁stry	-14.7139
▁XL	-14.714
кц	-14.714
loud	-14.7141
ссе	-14.7142
юша	-14.7142
▁iq	-14.7146
▁Heav	-14.7146
▁Hein	-14.7149
▁Scre	-14.715
атч	-14.715
▁Kle	-14.715
▁tum	-14.7151
▁Pai	-14.7153
ьм	-14.7154
▁айса	-14.7155
▁fan	-14.7155
огиб	-14.7155
▁ЕЕК	-14.7163
▁BOS	-14.7163
so	-14.7166
▁Kin	-14.7167
▁12;	-14.7168
ако	-14.717
▁КНД	-14.717
▁11;	-14.717
ежи	-14.7172
▁373	-14.7173
▁479	-14.7174
▁ОЛ	-14.7174
▁Gh	-14.7175
▁виан	-14.7175
▁379	-14.7175
oul	-14.7176
рио	-14.7177
▁366	-14.7178
▁уршет	-14.7178
▁436	-14.718
▁561	-14.7181
▁0:3	-14.7181
ПФ	-14.7182
▁456	-14.7182
▁Phar	-14.7182
▁382	-14.7184
▁363	-14.7188
▁НАПК	-14.7188
▁bel	-14.7189
▁VK	-14.7189
▁465	-14.7189
▁472	-14.719
▁four	-14.719
▁Bir	-14.719
▁Opp	-14.7192
▁365	-14.7194
▁мукш	-14.7197
▁ызы	-14.7197
▁Koh	-14.7198
▁ino	-14.721
▁Pil	-14.7216
act	-14.7219
▁озел	-14.7221
ъе	-14.7221
▁зурп	-14.7222
▁Ax	-14.7224
▁XA	-14.7224
▁шепт	-14.7225
rey	-14.7226
▁nute	-14.7228
иза	-14.7231
▁Qi	-14.7231
▁gues	-14.7239
▁Dani	-14.7241
аться	-14.7243
▁МЖД	-14.7245
милл	-14.7246
▁ЕНД	-14.7254
▁LSE	-14.7258
van	-14.7264
rom	-14.7267
▁айру	-14.7268
пока	-14.727
ose	-14.7274
▁тюши	-14.7275
СМД	-14.7279
ффер	-14.7282
den	-14.7282
▁дськ	-14.7295
▁Dura	-14.7295
трин	-14.7297
▁Eric	-14.7298
▁СНБ	-14.7303
▁287	-14.7303
▁236	-14.7304
val	-14.7309
▁слы	-14.7309
ухо	-14.731
▁299	-14.7311
▁рбин	-14.7311
твую	-14.7312
OR	-14.7315
erg	-14.7318
йман	-14.7321
VC	-14.7321
FF	-14.7322
▁422	-14.7322
tor	-14.7322
азо	-14.7323
▁КСИМа	-14.7327
▁саток	-14.7329
▁NIS	-14.7331
ize	-14.7336
▁lite	-14.7336
▁ЧТП	-14.7339
есяц	-14.7343
▁247	-14.7345
рич	-14.7347
шта	-14.7348
▁522	-14.7349
▁4;	-14.735
▁BG	-14.735
▁дли	-14.7352
ением	-14.7353
▁gran	-14.7356
▁озу	-14.7358
▁хма	-14.7358
▁орлу	-14.7361
Укра	-14.7367
голо	-14.7369
▁ыря	-14.7372
кам	-14.7373
▁Feel	-14.7376
▁415	-14.7384
▁Vill	-14.7384
▁ухл	-14.7387
▁Fou	-14.7389
▁авг	-14.7391
▁ED	-14.7392
▁ОРК	-14.7394
люс	-14.7394
▁ушту	-14.7396
БДД	-14.741
▁Lens	-14.7413
▁АРТ	-14.7415
▁рее	-14.7427
месте	-14.7427
▁ОТТ	-14.7427
гру	-14.7429
tat	-14.743
дире	-14.7433
лучил	-14.7434
▁ВМ	-14.7435
rus	-14.744
▁181	-14.7441
▁ГТ	-14.7442
оцен	-14.7452
▁хун	-14.7452
▁Mul	-14.7461
▁RB	-14.7462
bur	-14.7463
▁Tat	-14.7465
▁айдо	-14.7466
▁Ku	-14.7475
ny	-14.7475
4)	-14.7476
▁Chu	-14.7476
ani	-14.7479
▁Sot	-14.7482
лжн	-14.7482
▁ОЗП	-14.7482
▁МТ	-14.7485
▁rf	-14.7486
оба	-14.7486
▁Kan	-14.7488
ssy	-14.7489
▁индс	-14.7489
▁РЕК	-14.749
▁peed	-14.7495
iti	-14.7499
инк	-14.7499
▁кты	-14.7502
▁алаф	-14.7503
ib	-14.7506
ien	-14.7508
сте	-14.751
спорт	-14.7511
ant	-14.7512
▁пага	-14.7517
ску	-14.7517
▁wh	-14.7524
▁ЦР	-14.7528
▁эйс	-14.7529
▁ries	-14.7539
▁due	-14.754
▁ВКР	-14.754
▁скоч	-14.7541
▁ФАР	-14.7541
мул	-14.7545
▁LIB	-14.7546
ИСТ	-14.7549
▁урт	-14.7552
SL	-14.7554
Ново	-14.7557
▁Tek	-14.7567
▁УД	-14.7568
UB	-14.7568
▁фали	-14.7569
▁тулк	-14.757
▁PD	-14.7572
▁ll	-14.7574
▁юнгр	-14.7595
РИ	-14.7595
зет	-14.7595
▁Laur	-14.7602
бай	-14.7604
кас	-14.7605
▁Dra	-14.7608
нко	-14.7613
▁Pen	-14.7622
nc	-14.7624
▁ММД	-14.7624
▁ЛЧ	-14.7625
▁Osc	-14.7626
агент	-14.7626
▁Dal	-14.7629
▁УС	-14.7638
▁Mun	-14.7643
▁Fede	-14.7644
▁бзе	-14.7649
▁зур	-14.7652
аба	-14.7657
VI	-14.7657
▁рмад	-14.7659
▁ыню	-14.766
▁НИС	-14.7664
yp	-14.7667
▁миха	-14.7668
▁Wel	-14.767
°	-14.7671
▁джар	-14.7675
Ма	-14.7678
▁Tha	-14.7679
этот	-14.7679
▁pot	-14.7681
▁овл	-14.7682
рини	-14.7686
очт	-14.7689
▁пелье	-14.769
▁ямы	-14.7696
ЛД	-14.7697
▁ML	-14.7699
шик	-14.7702
анти	-14.7713
▁МЗ	-14.7713
НКО	-14.7713
▁Cry	-14.7716
▁Nan	-14.7726
ung	-14.7729
▁ючи	-14.7741
▁кмал	-14.7742
▁Pap	-14.7745
▁уф	-14.7754
ЕХ	-14.7758
▁коб	-14.7759
▁kal	-14.7762
▁DI	-14.7764
▁абы	-14.7767
▁атын	-14.7774
▁ДВ	-14.7774
▁ижу	-14.7783
▁ВСК	-14.7786
▁лихов	-14.7796
▁ФБ	-14.7798
зиас	-14.78
щат	-14.7813
▁Spar	-14.7816
▁оит	-14.7821
▁Ern	-14.7822
TM	-14.7825
VA	-14.7825
▁угле	-14.7826
МИД	-14.7829
▁lve	-14.7832
▁аймы	-14.7838
мно	-14.7842
EB	-14.7845
RA	-14.7845
ества	-14.7849
▁use	-14.785
▁айма	-14.7853
уста	-14.7854
арес	-14.7855
рчев	-14.7868
игр	-14.7872
Так	-14.7873
СИЗО	-14.7874
▁ашеч	-14.7874
орот	-14.788
▁Fr	-14.7893
NG	-14.7901
аге	-14.7908
uck	-14.7911
▁заи	-14.7926
ахом	-14.7933
▁9.	-14.7936
реги	-14.794
▁iK	-14.7947
ark	-14.7949
ента	-14.7954
Се	-14.7963
▁phi	-14.7965
всех	-14.7965
▁скоп	-14.7975
▁Zer	-14.7977
YT	-14.7984
▁Вел	-14.7988
▁ерья	-14.7992
узе	-14.8
▁тп	-14.8001
айон	-14.8006
нз	-14.8006
bo	-14.8007
▁Poo	-14.8009
юг	-14.8014
СТИ	-14.8017
IG	-14.802
иан	-14.8027
▁оффе	-14.8028
▁IA	-14.8036
дэ	-14.8041
▁ЦВ	-14.8047
▁3"	-14.805
▁ромк	-14.8052
yan	-14.8053
▁Ras	-14.8058
air	-14.8062
▁віт	-14.8062
▁лмер	-14.8065
▁Sno	-14.8067
▁ерла	-14.8071
▁Pin	-14.8081
илось	-14.8082
▁mem	-14.8083
▁дова	-14.8089
ПЭ	-14.809
▁утен	-14.8094
ТГ	-14.8095
▁Ei	-14.8101
▁тои	-14.8103
▁PE	-14.8104
uT	-14.8108
▁анго	-14.811
▁МУ	-14.8116
▁EL	-14.8119
одил	-14.8121
▁анга	-14.8123
АХО	-14.8124
▁индж	-14.8129
овар	-14.8135
омент	-14.8142
▁лиха	-14.8147
чай	-14.8156
AG	-14.816
фет	-14.816
вью	-14.8162
лект	-14.8163
еста	-14.8164
%)	-14.8164
чей	-14.8169
▁анья	-14.817
aul	-14.8177
sti	-14.8179
▁lef	-14.8185
▁Hai	-14.8187
йм	-14.819
▁МСХ	-14.8193
MX	-14.8198
▁ещи	-14.82
▁РМ	-14.8201
utt	-14.8202
83	-14.8205
MC	-14.8212
олоч	-14.8212
РД	-14.8216
▁ГИ	-14.8218
ja	-14.8219
▁лати	-14.8224
▁IM	-14.8225
▁утче	-14.8236
▁капи	-14.8238
▁str	-14.8241
ппо	-14.8242
▁fil	-14.8248
▁рвен	-14.8251
oe	-14.8253
▁Rid	-14.826
дыш	-14.8261
онс	-14.8262
элл	-14.8263
Им	-14.8278
▁Pica	-14.8295
льеф	-14.8301
▁вуар	-14.8301
▁é	-14.8305
▁3:	-14.8305
редит	-14.8306
res	-14.831
▁eas	-14.8311
▁Od	-14.8311
ибу	-14.8312
▁OL	-14.8319
лид	-14.8321
▁BV	-14.8323
ПТ	-14.833
▁рфин	-14.8331
▁spi	-14.8336
hat	-14.8338
ноч	-14.8339
▁tai	-14.8344
льян	-14.8349
Дж	-14.835
BI	-14.8352
▁епик	-14.8354
элт	-14.836
▁ye	-14.8364
−	-14.8365
▁ЧК	-14.8372
▁аком	-14.8372
ЙЛ	-14.8378
ГВ	-14.8378
▁марш	-14.8379
▁ерц	-14.838
учш	-14.8397
луж	-14.8399
▁ran	-14.8405
▁sec	-14.8409
lica	-14.8414
▁рти	-14.842
ПМ	-14.8426
▁гря	-14.8429
усс	-14.8431
КАД	-14.8438
aq	-14.8444
▁арбо	-14.8454
▁оша	-14.8456
▁Tu	-14.8457
Bl	-14.8459
▁ob	-14.8459
▁тея	-14.8461
▁bor	-14.8461
▁Tea	-14.8464
хай	-14.8471
чиг	-14.8474
▁осд	-14.8477
▁tak	-14.8477
енг	-14.8479
▁TR	-14.8482
ожд	-14.8493
▁теже	-14.8497
▁мьен	-14.8497
месяц	-14.8501
тало	-14.8506
oc	-14.851
▁Libr	-14.851
tty	-14.8512
▁Bec	-14.8512
идн	-14.8512
▁нфо	-14.8516
▁ЛЬ	-14.8521
▁plu	-14.8527
него	-14.8533
ифт	-14.8538
▁уфт	-14.854
юджет	-14.854
▁юкве	-14.8546
kar	-14.8546
gy	-14.8547
que	-14.8547
озг	-14.8549
imp	-14.855
RB	-14.855
sk	-14.8555
▁Sho	-14.8555
две	-14.8562
есн	-14.8565
▁пицы	-14.8569
ООН	-14.857
круп	-14.8573
▁теро	-14.8576
▁rt	-14.8581
сей	-14.8588
ji	-14.8588
изнес	-14.859
▁UO	-14.8592
ous	-14.8595
ске	-14.8597
▁Japa	-14.8601
воих	-14.8604
▁агун	-14.8608
▁ize	-14.8612
ЗА	-14.8612
вра	-14.8615
SX	-14.8616
1)	-14.8618
tch	-14.8623
▁AN	-14.8624
фо	-14.8624
▁Soc	-14.8631
кино	-14.8633
алин	-14.8633
▁ФПА	-14.8634
▁gur	-14.864
▁СЭП	-14.8653
▁DT	-14.8654
▁окет	-14.8658
сюк	-14.8658
ЗО	-14.8659
▁Vin	-14.8665
▁Pra	-14.8666
RK	-14.8671
RU	-14.8675
▁итви	-14.8676
ні	-14.8682
йдет	-14.869
▁эшн	-14.8693
▁чуд	-14.8701
▁УЗ	-14.8709
бул	-14.8711
▁юх	-14.8717
анию	-14.8721
▁Marc	-14.8726
CB	-14.8727
▁бош	-14.8729
егион	-14.8731
▁Swa	-14.8736
дост	-14.8745
Сирии	-14.8747
верн	-14.8748
▁имфа	-14.8753
ati	-14.8759
▁БК	-14.8759
rod	-14.876
мьер	-14.8776
▁Luc	-14.8777
▁уцк	-14.8788
EN	-14.8788
AF	-14.8789
вести	-14.8793
▁енхи	-14.8799
ГЛ	-14.8806
кк	-14.8807
▁клет	-14.8807
эд	-14.8807
отме	-14.8818
одя	-14.8818
▁nie	-14.8819
▁льти	-14.8824
спи	-14.8825
ЧФ	-14.8826
6;	-14.8835
▁Nac	-14.8836
исп	-14.8837
▁НН	-14.8837
▁абаш	-14.8839
карт	-14.8842
▁емы	-14.8843
▁ear	-14.8848
юда	-14.8848
▁арих	-14.8849
▁Caf	-14.8853
▁алоч	-14.8861
ife	-14.8861
бат	-14.8862
ЛА	-14.8875
▁ровы	-14.8876
уск	-14.8877
▁Put	-14.8878
hop	-14.8879
▁rai	-14.8883
▁анит	-14.8886
ПХ	-14.8891
▁Ly	-14.8891
себя	-14.8896
юм	-14.8898
мень	-14.8901
теп	-14.8904
Ку	-14.8909
▁ешу	-14.8909
VM	-14.8911
▁GB	-14.8915
BB	-14.8915
всем	-14.8917
EC	-14.892
zu	-14.8931
уга	-14.8932
▁ыто	-14.8935
▁вах	-14.8938
числе	-14.8944
Рос	-14.8948
▁айно	-14.8948
ram	-14.895
▁шеч	-14.8952
▁мпф	-14.8953
Ба	-14.8954
▁ses	-14.8958
ОЦ	-14.8959
▁дсон	-14.8965
▁увс	-14.8967
▁янь	-14.8973
ius	-14.8975
▁хард	-14.8977
▁ефле	-14.8983
голос	-14.8984
▁урц	-14.8989
тег	-14.8994
▁AA	-14.8997
фти	-14.9006
▁ТД	-14.9013
▁амбу	-14.9016
отказ	-14.9017
ure	-14.902
▁арга	-14.9021
йфу	-14.9024
▁лби	-14.9027
▁УСС	-14.9029
ынк	-14.903
▁Ce	-14.9033
ОИ	-14.9034
дея	-14.9036
▁nut	-14.9038
КОМ	-14.9042
ЦКК	-14.9043
▁зерт	-14.9047
▁"5	-14.9048
▁ошн	-14.905
▁омах	-14.9058
▁ЦЕР	-14.906
оих	-14.9061
CG	-14.9061
▁улио	-14.9063
▁копи	-14.9066
каж	-14.9067
▁dee	-14.9079
двух	-14.908
рна	-14.9099
▁mel	-14.9104
▁Ps	-14.9108
▁PO	-14.9109
▁игг	-14.9116
▁€7	-14.9117
▁пахи	-14.9119
вши	-14.9119
ричин	-14.9124
▁Dut	-14.9128
▁СРН	-14.9129
▁5:	-14.9133
рл	-14.9136
▁ip	-14.9137
▁MEDIA	-14.9137
▁***	-14.9137
▁РАЕН	-14.9137
▁Vehi	-14.9137
▁Town	-14.9138
▁Vlad	-14.9138
▁Jim	-14.9138
▁Like	-14.9138
▁VIN	-14.9139
▁lica	-14.9139
▁fire	-14.9139
▁Hind	-14.914
▁Cum	-14.9142
пот	-14.9144
▁iens	-14.9145
▁триг	-14.9145
▁хабад	-14.9145
▁УГ	-14.9146
▁sko	-14.9148
▁Smok	-14.9151
▁Get	-14.9152
▁Temp	-14.9153
▁cn	-14.9153
▁СЕН	-14.9154
▁ъюта	-14.9155
▁Tok	-14.9156
▁2:4	-14.9156
▁998	-14.9161
ЕТО	-14.9161
▁МЧМ	-14.9162
wa	-14.9168
▁NGC	-14.917
▁ЖЭК	-14.9175
▁РСД	-14.9179
▁Oppo	-14.9179
оты	-14.918
▁ЕСТИ	-14.918
▁378	-14.918
▁Ny	-14.9182
▁348	-14.9184
▁ФСВ	-14.9185
▁Squa	-14.9187
▁395	-14.9188
▁люхи	-14.9195
07	-14.9198
▁475	-14.92
▁441	-14.9204
▁361	-14.9205
▁Hosp	-14.9206
▁341	-14.9208
▁hin	-14.9209
оды	-14.9211
▁ЖЖ	-14.9213
▁эйф	-14.9213
▁уифф	-14.9213
▁КТР	-14.9214
▁377	-14.9215
▁ЕЛЕН	-14.9216
▁СОЖ	-14.9221
▁stud	-14.9225
▁406	-14.9227
▁409	-14.9227
▁мэйн	-14.9228
ались	-14.9228
▁Mult	-14.9229
▁332	-14.923
▁451	-14.9233
ОД	-14.924
▁ФИ	-14.9242
НИ	-14.9245
▁KI	-14.925
торг	-14.925
▁БТИ	-14.9251
тье	-14.9253
▁298	-14.926
само	-14.9263
▁ris	-14.9265
онг	-14.9265
▁508	-14.9266
бург	-14.9266
▁вондо	-14.9268
вр	-14.9271
▁РСХ	-14.9272
ЕНИ	-14.9275
▁ВНИ	-14.9276
▁Eas	-14.9278
▁Heal	-14.9287
шлом	-14.9291
▁РЫ	-14.9309
МЖ	-14.9311
▁ИМА	-14.9318
▁итт	-14.9318
▁BEA	-14.9319
▁LX	-14.932
цент	-14.9326
▁чищ	-14.933
▁айе	-14.9335
▁269	-14.9336
НЕ	-14.9336
▁олом	-14.9336
▁тоб	-14.934
▁274	-14.934
НДИ	-14.9342
▁еццо	-14.9343
БИ	-14.9344
▁НФО	-14.9346
▁І	-14.9349
▁MO	-14.9349
▁CLA	-14.9354
▁оен	-14.9354
дже	-14.9359
▁Bliz	-14.9365
ina	-14.9368
▁+8	-14.937
▁имб	-14.9377
▁aw	-14.9379
uv	-14.9379
ридж	-14.938
ково	-14.9389
ili	-14.939
ica	-14.9392
йер	-14.9393
▁518	-14.9395
▁МТК	-14.9397
сын	-14.9399
▁хауз	-14.9403
▁аосе	-14.9404
▁281	-14.9406
ola	-14.9408
ham	-14.9408
▁ГХК	-14.941
▁НТК	-14.9411
кил	-14.9416
ину	-14.9419
лощ	-14.9426
▁Aug	-14.9427
ебо	-14.9428
▁Meh	-14.943
▁ps	-14.943
▁хау	-14.9431
▁Ves	-14.9434
▁SOH	-14.9435
pel	-14.9435
йфэ	-14.944
▁ЭСМ	-14.9442
день	-14.9444
▁TI	-14.9446
▁Lit	-14.9447
▁08	-14.9455
▁Tuc	-14.9456
▁мкин	-14.946
▁кабр	-14.9462
▁анко	-14.9469
▁шумо	-14.9474
лук	-14.9481
рован	-14.9481
▁лики	-14.9483
БД	-14.9484
▁БРП	-14.9488
▁кту	-14.9488
▁ОГ	-14.9489
амм	-14.949
▁ейра	-14.9492
▁нджа	-14.9493
▁hro	-14.9493
▁gre	-14.9501
етн	-14.9502
▁гато	-14.9505
пет	-14.9507
СГ	-14.9519
▁Ace	-14.9525
▁Py	-14.9525
▁830	-14.9534
инс	-14.9534
▁вайп	-14.9535
▁kui	-14.9536
стей	-14.9536
эро	-14.9546
▁ТИ	-14.9553
VR	-14.9554
▁Sca	-14.9555
▁зда	-14.9562
чту	-14.9564
▁аско	-14.9567
▁ммаж	-14.9568
лиза	-14.957
▁Esc	-14.9572
пара	-14.9572
▁диш	-14.9574
ннел	-14.9575
▁iga	-14.9587
ерво	-14.9588
▁229	-14.9588
▁тузи	-14.9588
▁БДС	-14.9589
▁ХД	-14.9591
ором	-14.9594
2)	-14.9596
оде	-14.9601
▁ap	-14.9602
▁Ass	-14.9604
▁tle	-14.9605
▁вст	-14.961
нац	-14.9611
▁сип	-14.9618
▁ердок	-14.962
ужб	-14.9621
▁анчу	-14.9621
▁Berl	-14.9628
▁Tin	-14.9629
▁PAC	-14.963
▁Gro	-14.9634
бещ	-14.9639
▁эбб	-14.9639
▁МИФ	-14.964
ешн	-14.9644
СКО	-14.9649
▁9;	-14.9655
гус	-14.9658
▁ибн	-14.9659
▁HA	-14.9662
▁ибар	-14.9682
▁Vega	-14.9684
▁ифм	-14.9685
.0	-14.9685
реда	-14.9687
тех	-14.9691
дид	-14.9694
▁ацу	-14.9697
АДИ	-14.9701
▁ail	-14.9705
▁хал	-14.9708
ДДТ	-14.9708
CD	-14.9712
▁чуж	-14.9712
олю	-14.9721
▁КГ	-14.9723
▁омаш	-14.9723
ноги	-14.9723
▁мазо	-14.9729
▁vc	-14.973
▁рдта	-14.9731
▁Fen	-14.975
his	-14.9752
ожен	-14.9753
▁із	-14.9755
sp	-14.9757
оскве	-14.976
▁ояс	-14.9762
агф	-14.9763
ошел	-14.9767
▁луш	-14.9768
▁сц	-14.9777
▁юф	-14.978
▁ESC	-14.9781
▁mb	-14.9781
▁ЦНС	-14.9784
▁ойз	-14.9791
есл	-14.9792
▁Duo	-14.9796
▁Wand	-14.9803
ule	-14.9805
▁омбо	-14.9807
▁ЭР	-14.9809
▁ОСБ	-14.9815
▁Sore	-14.9827
умб	-14.9832
▁sur	-14.9833
io	-14.9834
итат	-14.9837
ГСЧ	-14.9843
адми	-14.9845
▁Tv	-14.9847
▁длих	-14.9851
ЛГ	-14.9865
▁ндов	-14.987
EP	-14.9883
ываю	-14.9888
▁Ou	-14.9889
дим	-14.9897
GS	-14.9899
▁ЕЛЬ	-14.9903
школ	-14.9905
▁тсва	-14.9905
мере	-14.9907
ику	-14.9909
▁mpo	-14.9919
▁Inno	-14.992
доз	-14.9923
▁Los	-14.9925
▁ллан	-14.9933
▁SO	-14.9934
▁мее	-14.9934
ранее	-14.9935
▁new	-14.9935
▁енщ	-14.9937
ура	-14.9941
ымл	-14.9947
▁ssi	-14.9949
▁уччи	-14.9952
▁KA	-14.9954
ЦИ	-14.9955
▁Ral	-14.9955
▁yo	-14.9958
▁НФ	-14.9968
▁мми	-14.997
эп	-14.9977
▁евзи	-14.998
олл	-14.9983
анж	-14.9987
сегд	-14.9998
ara	-15
▁Cu	-15.0001
▁Verd	-15.0003
▁IPS	-15.0004
ене	-15.0008
▁ереп	-15.0011
▁ДН	-15.0013
▁sho	-15.0013
pa	-15.0016
▁убам	-15.0016
орк	-15.0018
арш	-15.0021
▁Laz	-15.0024
aun	-15.0031
▁шик	-15.0031
▁HE	-15.0032
ето	-15.0033
▁ANS	-15.0043
▁eu	-15.0044
разу	-15.0047
ткрыт	-15.005
▁ГВ	-15.0052
▁унж	-15.0052
▁шеи	-15.0053
▁VS	-15.0053
ивать	-15.0058
yg	-15.0062
рва	-15.0071
стать	-15.0072
▁MB	-15.0074
▁АУ	-15.0079
▁Tar	-15.0083
▁Mod	-15.0089
▁Dun	-15.009
aff	-15.0091
▁MAR	-15.0092
▁аи	-15.0098
▁har	-15.0099
▁sto	-15.01
ky	-15.0105
▁SN	-15.0119
▁ООП	-15.0119
▁РАМ	-15.012
▁НИМ	-15.0123
▁окот	-15.0126
▁клюж	-15.0126
нков	-15.0132
▁етух	-15.0141
град	-15.0141
блем	-15.0145
▁hys	-15.0145
FE	-15.0145
▁SIP	-15.0149
поли	-15.0149
тора	-15.015
▁ТН	-15.0154
евро	-15.0157
lob	-15.0158
тории	-15.0158
▁ижо	-15.0159
Ив	-15.0166
ull	-15.0167
▁sid	-15.0172
НУ	-15.0174
вле	-15.0176
оллар	-15.0177
▁душе	-15.0181
▁Bos	-15.0192
▁олид	-15.0199
▁Ahr	-15.02
онно	-15.0208
▁шас	-15.0211
ерал	-15.0219
]	-15.0223
aid	-15.0225
РЭ	-15.0226
ув	-15.0227
арл	-15.023
▁УМ	-15.0231
▁Dam	-15.0232
▁Bil	-15.0235
▁орле	-15.0235
одк	-15.0238
ама	-15.024
HA	-15.0248
шут	-15.0253
sso	-15.0254
ЕРН	-15.0256
▁ВЦ	-15.0265
ане	-15.0267
▁жун	-15.0273
▁КОВ	-15.0285
▁Vete	-15.0287
еча	-15.0291
▁асю	-15.0297
▁паги	-15.0298
▁имха	-15.03
оке	-15.0304
▁хами	-15.0306
йш	-15.0315
коре	-15.0317
▁nan	-15.0328
уэл	-15.0334
9.	-15.0338
дорог	-15.0338
▁кейн	-15.0346
оюз	-15.0348
▁Ric	-15.0349
жье	-15.0363
стат	-15.0363
ъект	-15.0367
▁appl	-15.0367
тайл	-15.0368
lux	-15.0372
▁эйве	-15.0372
реа	-15.0374
▁рань	-15.0376
лидер	-15.0378
казан	-15.0378
▁Trai	-15.038
связи	-15.038
▁Inn	-15.0384
нин	-15.0388
▁етчи	-15.0389
але	-15.0395
тит	-15.0405
▁ä	-15.0411
▁HO	-15.0412
убец	-15.0414
▁ольщ	-15.0415
▁нтье	-15.0417
▁phy	-15.0424
▁MG	-15.0424
руч	-15.0429
сла	-15.0438
зид	-15.0442
Турц	-15.0447
TL	-15.0451
ГН	-15.0455
▁Sli	-15.0458
▁lly	-15.0458
Те	-15.046
айо	-15.046
служб	-15.0463
▁юрк	-15.0468
борд	-15.0469
52	-15.0477
ray	-15.0483
▁Yes	-15.0488
овлен	-15.0491
rov	-15.0493
▁pht	-15.05
рту	-15.05
▁эйб	-15.0501
▁cc	-15.051
▁лб	-15.051
▁атки	-15.0511
МАП	-15.0518
▁Roo	-15.0524
зел	-15.0535
▁мари	-15.0546
▁02	-15.0548
▁ижон	-15.055
ETI	-15.0555
енщин	-15.0555
▁лум	-15.0557
kk	-15.0562
урм	-15.0568
ище	-15.0569
▁еба	-15.0576
БЖ	-15.0581
▁жанд	-15.0591
азу	-15.0593
уша	-15.0596
▁Mr	-15.0604
▁ухра	-15.0619
УР	-15.0621
▁las	-15.0621
▁bat	-15.0627
асто	-15.0631
ppe	-15.064
▁Stel	-15.064
бас	-15.0649
яла	-15.0654
▁Рид	-15.0656
▁ифа	-15.0666
стов	-15.0672
>	-15.0673
ицей	-15.0674
▁Luk	-15.0677
▁Neu	-15.0679
▁орду	-15.0681
PR	-15.0684
▁каля	-15.0691
▁удж	-15.0696
айя	-15.0711
игу	-15.0714
▁олье	-15.0725
▁ФСФ	-15.0731
фильм	-15.0733
▁Sil	-15.0733
▁элли	-15.0735
▁If	-15.0738
дог	-15.074
▁Duk	-15.0744
▁Thr	-15.075
людей	-15.0751
ist	-15.0757
ФОР	-15.0759
▁qu	-15.0764
▁ануа	-15.0766
рая	-15.0768
ues	-15.0769
ъяр	-15.0769
▁сулек	-15.0772
ога	-15.0774
боль	-15.0776
▁ускл	-15.0778
▁слон	-15.078
▁ido	-15.0784
8;	-15.079
▁МОС	-15.0792
рты	-15.0797
▁кис	-15.0801
▁инге	-15.0808
▁тук	-15.0816
▁Kh	-15.0822
▁Age	-15.083
▁ешоч	-15.0832
алог	-15.0832
ega	-15.0837
▁nin	-15.0839
▁аля	-15.084
▁митр	-15.0843
▁апаш	-15.0844
ЦЗ	-15.0848
El	-15.0852
акет	-15.0855
▁sme	-15.0856
▁гум	-15.0864
рех	-15.0867
GR	-15.0868
факт	-15.0871
▁ВД	-15.0872
▁Bab	-15.0877
Глав	-15.0881
▁енье	-15.0883
▁ьор	-15.0886
cro	-15.0887
етро	-15.0894
мед	-15.0904
айда	-15.0912
▁za	-15.0915
▁(9	-15.0927
машин	-15.0929
▁dp	-15.0934
▁UP	-15.0936
▁пах	-15.0936
меш	-15.094
блюд	-15.0946
cus	-15.0946
бэк	-15.0956
кро	-15.0957
rop	-15.0957
▁WP	-15.0959
зни	-15.096
▁NF	-15.0961
▁TE	-15.0963
▁SL	-15.0966
налог	-15.0971
АЙ	-15.0974
▁ейч	-15.0976
▁Oct	-15.0977
нар	-15.0979
▁ИФ	-15.0983
▁ДАН	-15.0988
▁мека	-15.0988
вки	-15.0991
▁акли	-15.0991
азад	-15.0992
▁орде	-15.0994
▁етя	-15.0996
езо	-15.0998
▁ацки	-15.0999
РОС	-15.0999
тано	-15.1001
▁KP	-15.1005
▁елью	-15.1015
▁бул	-15.1018
▁Fri	-15.1023
9,	-15.1024
rak	-15.1024
kom	-15.1027
▁лабу	-15.1032
pri	-15.1038
▁Cer	-15.1038
▁UKA	-15.1042
рб	-15.1052
Фед	-15.1053
ЛИН	-15.1056
lu	-15.1065
ксин	-15.1072
ильм	-15.1077
▁РХ	-15.1077
WE	-15.1077
▁олби	-15.1081
ятель	-15.1081
▁вту	-15.1082
лучш	-15.1084
пра	-15.1086
▁НОВО	-15.1088
SC	-15.1088
хно	-15.1088
ЦКП	-15.1091
▁ву	-15.1093
▁Gla	-15.1107
▁тд	-15.1112
сети	-15.1113
▁ii	-15.1114
tic	-15.1116
▁sha	-15.1117
▁ехи	-15.1118
рби	-15.1123
БО	-15.1124
▁Nu	-15.1128
сих	-15.113
▁бру	-15.1137
МБУ	-15.1142
▁Cho	-15.1143
▁SCA	-15.1143
▁брех	-15.1144
▁bec	-15.1144
ТАСС	-15.1144
НФ	-15.1145
отно	-15.1154
▁ахир	-15.1156
реф	-15.1163
▁имчи	-15.1164
▁маза	-15.1168
▁лащ	-15.1173
▁орфи	-15.1178
▁nta	-15.1182
▁иник	-15.119
▁ерих	-15.1191
▁Eb	-15.1199
▁Fun	-15.1207
▁НСИ	-15.1216
РВ	-15.1216
▁full	-15.1216
рьян	-15.1216
Me	-15.1221
▁изн	-15.1228
▁Tho	-15.1234
ашн	-15.1241
▁Gam	-15.1247
рий	-15.125
иру	-15.125
▁BM	-15.1251
▁оня	-15.1259
▁yan	-15.1269
▁гот	-15.127
УГ	-15.1273
▁КВ	-15.1278
LE	-15.1279
▁Beac	-15.1281
ьхуа	-15.1287
ахи	-15.1288
екдо	-15.1289
УЗ	-15.1299
▁AD	-15.1303
▁опки	-15.1307
хл	-15.1307
▁Hat	-15.1313
▁атт	-15.1313
▁Sale	-15.1316
hl	-15.1317
▁Gl	-15.1318
ТЭС	-15.1325
▁ерти	-15.1331
▁овач	-15.1332
▁Nin	-15.1336
▁вае	-15.1347
DK	-15.1348
▁fak	-15.1349
▁тыл	-15.135
my	-15.1354
▁nic	-15.1364
▁ахха	-15.1364
▁дуб	-15.1366
матч	-15.1372
▁EM	-15.1375
яй	-15.1384
▁юнь	-15.1385
che	-15.1386
▁priv	-15.1387
чун	-15.1389
▁SM	-15.1393
пт	-15.1395
хоз	-15.1396
▁CG	-15.1399
▁eer	-15.141
▁Phy	-15.141
▁ГПС	-15.1421
:4	-15.1425
зло	-15.1426
▁Qui	-15.1435
▁Kas	-15.1436
aja	-15.1438
▁ИЭ	-15.1438
▁FE	-15.1452
ероя	-15.1459
мне	-15.146
▁егг	-15.1462
▁еппе	-15.1464
утбол	-15.1469
­	-15.1473
▁улка	-15.1474
ДУ	-15.1478
vid	-15.148
▁see	-15.1481
▁Hut	-15.1482
узы	-15.1488
BR	-15.1494
обыч	-15.1501
ау	-15.1502
▁уньо	-15.1504
▁этри	-15.1507
▁far	-15.1514
▁поку	-15.1527
▁СТ	-15.153
▁Bet	-15.153
пуск	-15.1536
естве	-15.1543
уэн	-15.1544
тии	-15.1545
▁нест	-15.1553
▁cha	-15.1555
иса	-15.1556
▁анте	-15.1557
▁MM	-15.1561
▁ижа	-15.1562
жизни	-15.1564
ойл	-15.1564
▁Peac	-15.1579
▁кле	-15.1586
▁DF	-15.1587
▁ND	-15.159
▁РАС	-15.1595
ахо	-15.1596
ube	-15.1597
▁"8	-15.1598
▁айх	-15.1601
▁LB	-15.161
уби	-15.1612
▁ОБД	-15.1614
теря	-15.1624
уэ	-15.1624
õ	-15.163
ig	-15.1633
nak	-15.1633
дп	-15.1633
▁Driv	-15.1635
tv	-15.1637
▁É	-15.1637
\	-15.1637
‍	-15.1637
▁~	-15.1637
▁ë	-15.1637
😂	-15.1637
▁Vimeo	-15.1637
▁Sync	-15.1637
▁Grip	-15.1638
▁brid	-15.1638
▁уйчич	-15.1638
▁ZL	-15.1638
▁SAB	-15.1639
▁VP	-15.1641
▁рень	-15.1641
▁XE	-15.1642
▁aif	-15.1643
▁cell	-15.1644
▁Ав	-15.1644
▁ПЕТ	-15.1644
▁Sara	-15.1644
▁stock	-15.1645
rb	-15.1645
ожид	-15.1645
▁fm	-15.1647
▁3:4	-15.1647
▁Svo	-15.1649
ЗЛ	-15.1649
▁НТ	-15.165
▁Swed	-15.1653
▁Mold	-15.1653
▁Bust	-15.1653
▁Giul	-15.1654
▁ФТ	-15.1656
▁Bf	-15.1656
▁тула	-15.1656
▁898	-15.1657
▁Word	-15.1658
▁vs	-15.1658
▁7.0	-15.1659
▁783	-15.1661
▁епка	-15.1664
▁джин	-15.1666
▁калин	-15.1669
how	-15.1669
▁Dock	-15.1669
ребе	-15.1675
▁$27	-15.1677
асл	-15.1678
▁397	-15.1681
▁773	-15.1681
▁Quin	-15.1683
▁шае	-15.1686
▁386	-15.1686
ити	-15.1689
har	-15.169
▁ког	-15.1691
▁EY	-15.1692
uar	-15.1692
▁746	-15.1693
▁581	-15.1694
лями	-15.1695
▁384	-15.1695
▁448	-15.1697
▁588	-15.1699
чье	-15.1699
канал	-15.1703
▁башне	-15.1706
▁495	-15.1706
▁579	-15.1707
▁ПП	-15.1707
марта	-15.1707
▁EF	-15.1707
▁СКФУ	-15.1707
▁Ash	-15.171
▁537	-15.1711
юди	-15.1715
▁554	-15.1716
bad	-15.1717
▁Pf	-15.1717
▁дран	-15.1718
плат	-15.1718
▁336	-15.1718
▁ГРЦ	-15.172
▁2:6	-15.172
▁EQ	-15.1722
▁Pie	-15.1722
▁444	-15.1722
зем	-15.1725
▁show	-15.1726
▁544	-15.1729
▁333	-15.1735
▁Tee	-15.1737
▁ЭКС	-15.1739
▁веша	-15.1741
▁Velo	-15.1743
▁TEP	-15.1746
▁Les	-15.1749
▁АБС	-15.1755
▁CCC	-15.1758
▁Miss	-15.1758
rch	-15.1763
▁ОСО	-15.1766
▁шхед	-15.1767
▁СТР	-15.1767
▁ДОСТ	-15.177
cil	-15.1771
▁lax	-15.1772
▁Blaz	-15.1775
▁ойф	-15.1777
▁jo	-15.178
▁копа	-15.1781
▁ola	-15.1786
▁4",	-15.1787
▁Fus	-15.1793
ФГ	-15.1798
▁ibo	-15.1801
▁лашек	-15.1804
натор	-15.1812
артии	-15.1813
дро	-15.1813
▁Vene	-15.1815
таки	-15.1817
▁дство	-15.1823
ТАХ	-15.1829
▁Lind	-15.1832
sim	-15.1832
▁кун	-15.1833
▁Kx	-15.1833
▁инч	-15.1838
▁SPA	-15.1839
елем	-15.1843
▁9)	-15.1843
▁FB	-15.1844
▁pd	-15.1846
ществ	-15.1848
▁812	-15.1853
VP	-15.1857
▁акшу	-15.1864
▁690	-15.1864
▁LL	-15.1865
лома	-15.1866
▁PM	-15.1868
ula	-15.1871
▁айз	-15.1872
▁Ub	-15.1873
▁СКИ	-15.1877
▁щелк	-15.188
иям	-15.1885
▁мэн	-15.1886
▁grea	-15.1896
▁SR	-15.1903
▁ija	-15.1903
▁калк	-15.1904
▁401	-15.1908
▁þ	-15.1912
▁922	-15.1912
▁МАН	-15.1913
онт	-15.1913
▁Sve	-15.1914
зг	-15.1918
СМИ	-15.192
▁268	-15.1923
rag	-15.1929
ерф	-15.1937
▁ИАА	-15.1937
посл	-15.194
укту	-15.1941
▁gor	-15.1945
▁514	-15.1945
▁Gri	-15.1947
▁несу	-15.1951
АРК	-15.1953
▁енди	-15.1953
▁енга	-15.1956
▁вечь	-15.1959
▁Haze	-15.1966
▁spec	-15.1967
RR	-15.1968
▁ПЕН	-15.1968
лью	-15.1969
IO	-15.1972
▁Mait	-15.1976
WW	-15.1976
энн	-15.1981
TF	-15.1983
суб	-15.1984
▁инуа	-15.1989
▁Vij	-15.199
ters	-15.1992
служ	-15.1993
▁12)	-15.1993
uct	-15.1995
▁уджу	-15.2
равд	-15.2001
▁cto	-15.2009
4"	-15.2012
▁айга	-15.2015
▁ova	-15.2016
▁Pl	-15.2023
▁512	-15.2024
▁кетт	-15.2025
▁ИД	-15.2026
ужчин	-15.2027
сб	-15.203
▁АПО	-15.2031
ВИ	-15.2035
▁лбр	-15.2035
▁аули	-15.2042
▁ОЖД	-15.2043
▁TX	-15.2044
дида	-15.2047
инте	-15.2055
елк	-15.2056
olk	-15.2057
рую	-15.206
ГМ	-15.2063
▁іч	-15.2063
▁Bor	-15.2063
чил	-15.2067
▁арж	-15.2071
▁ВИН	-15.2075
ыню	-15.2076
▁алал	-15.208
▁MAT	-15.2081
ВХ	-15.2087
смат	-15.2089
▁отыш	-15.2093
либ	-15.2099
ЕН	-15.2102
▁ППО	-15.2106
▁тиз	-15.2111
оми	-15.2113
▁lue	-15.2116
▁КОМ	-15.2122
зде	-15.2124
Бел	-15.2128
зл	-15.2129
bar	-15.2129
▁311	-15.2134
ier	-15.2134
шес	-15.2143
▁KF	-15.2143
▁Cris	-15.2145
ыбо	-15.2148
▁kon	-15.215
▁sic	-15.2158
alv	-15.216
▁Fra	-15.2165
ация	-15.2165
ТАР	-15.2166
ЕМ	-15.2169
▁Cl	-15.2176
ШИН	-15.2178
▁йбар	-15.218
▁Жа	-15.2181
своих	-15.2185
▁PET	-15.2188
РОТ	-15.2194
▁акур	-15.2196
▁Luca	-15.2197
▁луз	-15.2199
ензи	-15.22
ДОН	-15.2204
▁ОГР	-15.2208
ht	-15.2208
▁жухи	-15.2208
▁анф	-15.2209
▁Dar	-15.2209
мать	-15.221
▁еточ	-15.2216
▁икхов	-15.2218
▁ОД	-15.2218
SB	-15.2224
опин	-15.2225
▁McK	-15.2228
▁aja	-15.2229
▁шиба	-15.223
равил	-15.2234
▁олеум	-15.2236
▁rou	-15.2245
▁lug	-15.2247
сех	-15.2249
▁НБК	-15.2255
Трамп	-15.2263
UX	-15.2263
▁танг	-15.2268
▁Sof	-15.2269
нты	-15.2273
ics	-15.2274
ФР	-15.2274
ЦСС	-15.2275
▁иу	-15.2276
▁ейц	-15.2277
▁уэя	-15.2278
▁ерцы	-15.2278
▁дани	-15.2281
еев	-15.2282
▁Vest	-15.2283
АПП	-15.2286
▁Gor	-15.2288
ерев	-15.2288
обяз	-15.229
▁aok	-15.2304
▁dom	-15.2304
лют	-15.2312
▁Ee	-15.2313
осквы	-15.2313
твор	-15.2316
АДА	-15.2324
▁лс	-15.2327
мь	-15.2331
рлы	-15.2336
орг	-15.2337
▁нико	-15.2337
own	-15.2339
▁итч	-15.2341
▁Pep	-15.2347
лаб	-15.2351
▁Had	-15.2356
огл	-15.2357
хва	-15.2363
▁ЕТ	-15.2365
йдж	-15.2366
ового	-15.2369
▁укши	-15.2371
свои	-15.2375
tp	-15.2377
▁Ball	-15.2378
окол	-15.2378
стало	-15.2383
нужно	-15.2385
ГР	-15.2389
оев	-15.2392
▁укса	-15.2395
▁Vert	-15.2397
▁зол	-15.2399
ериод	-15.2402
▁ИНС	-15.2404
▁HTT	-15.2407
онц	-15.2418
стол	-15.2419
▁SAR	-15.2421
Крым	-15.2423
▁FF	-15.2423
ниг	-15.2426
ДНР	-15.2434
ЭЛ	-15.2442
▁Shin	-15.2443
▁кропа	-15.2444
▁ржу	-15.2452
▁YP	-15.2456
ега	-15.2459
▁вхо	-15.246
оры	-15.2462
▁ИИ	-15.2467
айр	-15.2468
▁Vy	-15.2468
льд	-15.2469
рети	-15.2477
▁(-	-15.248
▁ссай	-15.2485
▁hum	-15.2487
▁Mai	-15.2489
▁Kub	-15.2491
▁wee	-15.2492
▁ВГА	-15.2496
▁вяже	-15.2502
ari	-15.2503
▁ВИТ	-15.2508
▁lam	-15.2509
КОВ	-15.2511
▁Has	-15.2513
почт	-15.2515
вития	-15.2515
▁юньо	-15.2518
летк	-15.2524
жите	-15.2524
▁дм	-15.2529
08	-15.253
азан	-15.2532
оем	-15.254
▁ПТС	-15.2543
▁MU	-15.2545
▁айв	-15.2552
ead	-15.2554
▁екти	-15.2556
▁ji	-15.2561
▁НЕР	-15.2561
▁рапн	-15.2566
атри	-15.2566
▁own	-15.257
зап	-15.2575
SK	-15.2588
▁КОН	-15.2597
▁terr	-15.2598
огн	-15.2603
▁Wre	-15.2606
яю	-15.2613
ДИ	-15.2613
▁умп	-15.2613
▁Neo	-15.2614
▁убча	-15.262
▁NG	-15.2621
AZ	-15.2624
▁ромец	-15.2631
РИА	-15.2634
марш	-15.2635
мк	-15.2637
уан	-15.2639
▁tik	-15.2642
УГА	-15.2646
▁€6	-15.2647
етт	-15.2651
фонд	-15.2658
▁лм	-15.2665
ейф	-15.2667
туд	-15.2669
▁ьны	-15.2676
road	-15.2677
ВЧ	-15.2678
лении	-15.2683
деб	-15.2691
▁tud	-15.2693
▁lon	-15.2697
▁гад	-15.27
▁араг	-15.2701
вск	-15.2708
▁МБУ	-15.2709
▁ді	-15.2712
улиц	-15.2713
АФА	-15.2713
▁отте	-15.272
▁uel	-15.2725
ацк	-15.2735
▁Tro	-15.2745
ime	-15.2755
alt	-15.2757
▁итс	-15.2758
мента	-15.276
▁mid	-15.2761
ешк	-15.2762
▁ысьв	-15.2765
ndi	-15.2766
цесс	-15.2767
зав	-15.277
проц	-15.2775
анных	-15.2776
йда	-15.2777
▁05	-15.2779
CL	-15.278
▁ожже	-15.2785
▁цебо	-15.2796
▁Tur	-15.2798
зис	-15.2804
▁ордор	-15.2804
▁хья	-15.281
▁ВА	-15.2812
числ	-15.2818
АУФ	-15.2822
▁кура	-15.2828
▁pus	-15.2831
зом	-15.2835
je	-15.284
▁LS	-15.2844
трус	-15.2846
UI	-15.2853
▁арне	-15.2855
▁Att	-15.2857
▁мбай	-15.2862
ЕГ	-15.2862
▁TA	-15.2866
▁азл	-15.2873
быв	-15.288
9;	-15.288
▁Glo	-15.2888
отк	-15.289
▁glo	-15.2893
▁Inf	-15.2896
▁зюм	-15.2898
▁урь	-15.2904
GA	-15.2913
Tu	-15.2914
ака	-15.2915
▁Oh	-15.2918
кст	-15.2919
▁ейру	-15.292
ryp	-15.2924
▁АБ	-15.2925
▁лыг	-15.2933
▁How	-15.2943
▁Colo	-15.2945
▁ГПО	-15.2946
остью	-15.2956
▁Esp	-15.2958
▁+3	-15.2959
IU	-15.296
бс	-15.2962
▁AK	-15.2966
НЫ	-15.2968
▁нье	-15.2972
▁авье	-15.2972
рко	-15.2975
детей	-15.2976
тране	-15.2979
▁ауф	-15.298
нефти	-15.298
лбан	-15.2981
▁сихи	-15.2985
мещ	-15.299
▁окс	-15.2991
сбор	-15.2997
▁акС	-15.3001
бах	-15.3001
▁JS	-15.3005
▁Vig	-15.3006
уба	-15.3007
пеци	-15.3008
иго	-15.3011
аго	-15.3019
▁tz	-15.302
▁Seg	-15.3021
▁poi	-15.3023
erm	-15.3023
▁щев	-15.3031
▁IFA	-15.3031
сса	-15.3034
ехо	-15.3036
вот	-15.3042
▁Clar	-15.3048
омк	-15.3049
упа	-15.3049
иями	-15.3049
▁шиш	-15.3051
оц	-15.3057
▁НВ	-15.3063
▁БАН	-15.3063
дни	-15.3065
▁Spe	-15.3066
пенс	-15.307
▁ильс	-15.3073
▁TS	-15.3075
▁одя	-15.3076
прод	-15.3076
BK	-15.3077
часть	-15.31
TU	-15.3102
▁КН	-15.3105
олев	-15.311
▁Roch	-15.3112
▁унне	-15.3122
АСС	-15.313
▁ифле	-15.313
ипл	-15.3131
aga	-15.3131
▁oh	-15.3139
истр	-15.3142
▁НХ	-15.3147
шар	-15.3154
▁Kro	-15.3155
нша	-15.3155
▁олкл	-15.3163
are	-15.3168
▁bac	-15.3168
▁йвин	-15.317
ельс	-15.3171
нтр	-15.319
▁гба	-15.3193
▁ендр	-15.3194
nde	-15.3198
▁верь	-15.3199
шед	-15.3201
ПРФ	-15.3204
дми	-15.3204
анны	-15.3205
▁омс	-15.3206
▁ышеч	-15.3223
кут	-15.3228
клуб	-15.3229
▁Jul	-15.3229
Центр	-15.3233
жур	-15.3239
▁АМИ	-15.3242
рзи	-15.3242
gur	-15.3243
▁CV	-15.3245
ПАТ	-15.3249
▁ессо	-15.3251
▁rom	-15.3256
▁Нью	-15.3258
агин	-15.3259
▁aad	-15.3262
▁эпт	-15.327
▁кман	-15.3272
▁Lad	-15.3277
БФ	-15.3279
▁ік	-15.3283
мик	-15.3283
▁ПКС	-15.3288
▁Mid	-15.3289
▁пихи	-15.3292
бри	-15.3295
ews	-15.3295
ИР	-15.3298
тября	-15.3311
VD	-15.3317
вс	-15.3318
hr	-15.3319
▁матр	-15.3328
заб	-15.3331
▁Tun	-15.3332
gie	-15.3338
▁орщи	-15.3347
ИХ	-15.3348
рамк	-15.3349
скв	-15.3354
вну	-15.3355
▁хлом	-15.3356
сем	-15.3356
lon	-15.3361
gn	-15.3381
одо	-15.3382
люд	-15.3382
▁отти	-15.3382
▁ужь	-15.3394
кри	-15.3395
oop	-15.3401
омощь	-15.3401
ee	-15.3407
▁елч	-15.3415
▁ойс	-15.3416
носц	-15.3417
▁ЦП	-15.3418
цца	-15.3423
▁Rab	-15.3425
твует	-15.3426
▁Crow	-15.3426
▁НСА	-15.343
tha	-15.3435
риан	-15.3446
▁WS	-15.3446
▁ссит	-15.3449
▁Us	-15.3451
квар	-15.3454
▁тоща	-15.3469
▁EI	-15.3474
еня	-15.3474
лд	-15.3482
дать	-15.3486
части	-15.3489
▁ыня	-15.3491
▁Bru	-15.35
▁льфо	-15.3511
▁Dres	-15.3522
эле	-15.3528
▁van	-15.3532
ЛИС	-15.3533
▁мпир	-15.3535
▁оубо	-15.3538
OW	-15.3544
▁CI	-15.3551
ore	-15.3553
PD	-15.3557
▁укин	-15.3566
▁АЦ	-15.3566
8)	-15.3568
▁lit	-15.3571
▁Om	-15.3572
▁IL	-15.3573
нод	-15.3573
иди	-15.3579
куш	-15.3579
▁CF	-15.358
▁ЛО	-15.3581
есен	-15.3581
▁lem	-15.3593
ьет	-15.3597
нюш	-15.3603
▁Hul	-15.3611
▁ишак	-15.3612
АБ	-15.3614
▁hea	-15.3615
▁ссен	-15.3621
be	-15.3628
▁махи	-15.3636
люди	-15.3637
опт	-15.3639
▁эдд	-15.3641
▁sci	-15.3642
▁rtu	-15.3649
▁ERT	-15.3651
вак	-15.3653
вшин	-15.3655
ппа	-15.3656
▁доз	-15.3657
срок	-15.3661
округ	-15.3662
▁ТЛ	-15.3665
▁тишь	-15.3665
urs	-15.3666
ЗМ	-15.3667
меня	-15.368
▁яму	-15.3683
еря	-15.3693
Re	-15.3694
▁ерцо	-15.3695
▁cee	-15.3697
хт	-15.3698
no	-15.3703
рни	-15.3705
режим	-15.3707
ow	-15.3708
▁Maxi	-15.3715
айш	-15.3717
вка	-15.3725
▁храп	-15.3731
7;	-15.3736
БП	-15.3738
вас	-15.374
пяч	-15.374
ороны	-15.3752
воен	-15.3753
1;	-15.3754
айм	-15.3755
Совет	-15.3757
▁ORE	-15.3762
▁хип	-15.3762
УИ	-15.3769
▁ЭН	-15.3769
йхе	-15.3774
▁spo	-15.3776
виз	-15.3777
▁Vie	-15.3783
▁вше	-15.3783
▁gg	-15.3785
нени	-15.3786
▁урши	-15.3792
▁арба	-15.38
мот	-15.3801
объе	-15.3806
вещ	-15.3811
▁лтГ	-15.3811
▁Sma	-15.3814
ерьез	-15.3818
▁ПИ	-15.3824
вир	-15.383
▁винт	-15.3832
авит	-15.3835
▁пун	-15.3839
▁HB	-15.3841
▁энда	-15.3844
▁Lon	-15.3844
▁Kna	-15.3847
инин	-15.3849
▁ТОВ	-15.3854
ary	-15.3858
ругие	-15.3862
тож	-15.387
иси	-15.3874
исты	-15.3875
▁амзи	-15.3875
▁Herr	-15.3876
епо	-15.3877
ища	-15.3878
МЧС	-15.3878
▁ейте	-15.3882
▁ерпе	-15.3884
▁айю	-15.389
▁вана	-15.3897
вюр	-15.3902
▁клеп	-15.3907
▁Ari	-15.3907
OV	-15.3909
▁орда	-15.3917
полу	-15.3918
сух	-15.3928
PU	-15.393
▁Ess	-15.3942
мая	-15.3949
дик	-15.3954
▁еа	-15.3958
▁Ken	-15.3964
связ	-15.3965
▁Wu	-15.3974
ссии	-15.3974
▁cla	-15.3986
▁хт	-15.4005
CE	-15.4008
доход	-15.401
успе	-15.4013
▁ячь	-15.4015
irl	-15.402
умн	-15.402
PV	-15.4031
▁Dea	-15.4032
XXI	-15.4034
Мос	-15.4035
▁Wiz	-15.4042
eps	-15.4045
▁Iva	-15.4055
НЕВ	-15.4056
▁мни	-15.4061
▁ахин	-15.4062
▁СПА	-15.4073
зме	-15.4074
▁ейз	-15.4084
out	-15.4089
▁Tag	-15.4089
▁грим	-15.409
▁Door	-15.409
▁шер	-15.4095
пк	-15.4097
НПЗ	-15.4099
води	-15.4107
▁эпто	-15.4117
молет	-15.4118
▁урма	-15.4123
#	-15.4123
хоро	-15.4126
▁МЕ	-15.4148
АУ	-15.4149
ТОН	-15.4153
оги	-15.4163
IL	-15.4178
ці	-15.4182
перс	-15.4182
▁авен	-15.4185
УП	-15.419
орта	-15.4191
▁Cou	-15.4197
▁Hop	-15.4197
оспо	-15.4198
шест	-15.4202
сток	-15.4203
▁уксо	-15.4204
Mac	-15.4204
сик	-15.4206
инск	-15.4207
▁нгел	-15.421
▁эгг	-15.4214
▁орзе	-15.4217
ывает	-15.4221
▁люкс	-15.4222
VN	-15.4228
▁LT	-15.4231
аются	-15.4239
ршер	-15.424
nit	-15.4258
зам	-15.4268
уется	-15.4272
▁Main	-15.4279
▁Mae	-15.4288
▁ФИН	-15.4288
▁ейнс	-15.4289
▁Nev	-15.4301
▁шиб	-15.4301
ЕО	-15.4302
ачи	-15.4306
▁шник	-15.4306
прин	-15.4318
аи	-15.4324
джан	-15.4328
рге	-15.4334
▁агис	-15.4336
логи	-15.4337
ГЭ	-15.4341
▁Tie	-15.4343
▁акха	-15.4344
▁Сы	-15.4344
mos	-15.4344
▁pes	-15.4352
uty	-15.4353
Mess	-15.4358
▁Cel	-15.436
▁ЭСП	-15.4363
ндо	-15.437
HP	-15.4375
▁УТ	-15.4379
роль	-15.4384
▁обби	-15.4386
ЭГ	-15.4391
сман	-15.4392
воч	-15.4399
опи	-15.4406
rap	-15.4408
▁гаро	-15.4409
Ар	-15.4409
▁NV	-15.4411
▁Jer	-15.4415
▁орзи	-15.442
▁tac	-15.4422
ZO	-15.4423
ищ	-15.4431
▁Sah	-15.4433
еспе	-15.444
ür	-15.4444
▁ЭСК	-15.4446
▁КСА	-15.4447
▁йб	-15.4447
фюм	-15.4451
РЕ	-15.4453
eas	-15.4459
▁НО	-15.4469
▁апс	-15.447
▁tun	-15.4478
ивают	-15.4478
▁оуч	-15.4483
ТУР	-15.4484
ПНИ	-15.4486
▁мото	-15.449
кабря	-15.4494
▁OF	-15.4494
eel	-15.4497
▁TG	-15.4499
▁ароч	-15.4501
Пет	-15.4506
▁ees	-15.4506
▁WE	-15.4511
qu	-15.4515
▁ческо	-15.4516
▁ОФ	-15.452
ирм	-15.4524
▁рехи	-15.4526
▁икк	-15.4529
CV	-15.4531
гро	-15.4536
оля	-15.454
7)	-15.4546
▁Quo	-15.4548
разом	-15.4554
сор	-15.4555
▁унин	-15.4561
▁Ato	-15.4565
▁опье	-15.4567
ТАН	-15.4568
▁Ok	-15.4581
▁ВТ	-15.4583
▁ВФ	-15.4586
ОЖ	-15.4587
▁fun	-15.4587
▁енки	-15.4591
au	-15.4596
фед	-15.4597
хн	-15.4601
AR	-15.4606
ервы	-15.461
благ	-15.4618
▁whe	-15.4626
▁йфе	-15.4627
odi	-15.4634
▁ДЗ	-15.4638
▁PG	-15.464
▁Raz	-15.4641
шенк	-15.4646
▁mec	-15.4654
▁Oa	-15.4654
пост	-15.466
▁КА	-15.4661
нгар	-15.4667
▁Fat	-15.467
блок	-15.4675
▁AE	-15.4677
▁арбе	-15.4682
▁1:	-15.4688
WD	-15.4689
▁вке	-15.4694
▁узги	-15.4698
назад	-15.4702
рны	-15.4704
▁NED	-15.4705
уги	-15.4706
▁ктум	-15.471
nv	-15.471
▁Nom	-15.4713
ДЛ	-15.4715
ike	-15.4716
▁эдк	-15.4727
сдел	-15.4729
ффект	-15.4731
выше	-15.4735
▁RM	-15.4736
▁VA	-15.4736
▁Vel	-15.4738
жит	-15.4738
▁чури	-15.4743
▁ранд	-15.4743
вез	-15.4746
▁арда	-15.4751
тки	-15.4759
▁олб	-15.4759
▁Bou	-15.4767
февр	-15.4768
▁уэр	-15.4768
ньху	-15.477
▁Wak	-15.4775
▁лбу	-15.4775
ip	-15.4778
hro	-15.478
арм	-15.479
▁Dur	-15.4791
▁стя	-15.4793
еньги	-15.48
▁Chic	-15.4806
▁СМА	-15.4806
афар	-15.4812
епе	-15.4816
HD	-15.4816
he	-15.4817
спе	-15.482
Ха	-15.4832
▁Ima	-15.4836
ial	-15.4836
▁Kra	-15.4838
сф	-15.4843
борь	-15.4843
▁лкар	-15.4843
▁unt	-15.4849
▁мея	-15.4854
куль	-15.4856
▁nee	-15.4863
▁етче	-15.4868
▁агна	-15.4872
▁анчо	-15.4874
▁бн	-15.4877
▁Fai	-15.4882
▁Sn	-15.4884
▁энс	-15.4885
ГМС	-15.4887
▁ОЖ	-15.4888
ЯН	-15.4894
RG	-15.4903
зж	-15.4907
▁ивен	-15.4911
тери	-15.4912
АРТ	-15.4918
▁сох	-15.492
енья	-15.4927
ОНО	-15.4929
▁BO	-15.493
▁имее	-15.4934
деп	-15.4934
▁Doc	-15.4935
УБ	-15.4938
▁васт	-15.4939
ЕРО	-15.4941
▁алко	-15.4943
[...]
