<unk>	0
<s>	0
</s>	0
,	-3.57233
▁в	-3.71545
е	-3.7664
▁	-3.88993
.	-3.938
а	-3.99674
и	-4.02513
й	-4.06061
▁и	-4.09031
▁,	-4.15963
▁.	-4.32439
▁"	-4.41674
▁на	-4.45017
х	-4.45602
м	-4.58603
▁с	-4.73272
▁-	-4.76151
▁не	-4.8366
я	-4.93051
ы	-4.97917
▁что	-5.0006
▁по	-5.04364
го	-5.12805
у	-5.13754
-	-5.28509
о	-5.36314
"	-5.40262
ся	-5.4081
▁а	-5.44052
▁В	-5.44479
ов	-5.55257
т	-5.59581
▁о	-5.64873
ю	-5.68602
ь	-5.69128
▁за	-5.72114
▁из	-5.73226
▁у	-5.75513
▁к	-5.77199
ой	-5.7865
ом	-5.84082
ая	-5.95152
ть	-5.97949
▁от	-6.01675
▁(	-6.08389
л	-6.1093
для	-6.19044
▁был	-6.19971
ую	-6.27565
▁это	-6.28071
▁до	-6.29675
▁как	-6.30422
▁которы	-6.3048
▁года	-6.33035
▁По	-6.33351
▁",	-6.34774
▁России	-6.40132
▁:	-6.41918
ого	-6.45668
ет	-6.46465
▁его	-6.48913
в	-6.51772
▁но	-6.53951
:	-6.55078
▁он	-6.56814
▁при	-6.57671
▁все	-6.68033
▁этом	-6.69602
▁С	-6.69633
ли	-6.7258
▁На	-6.76553
с	-6.80189
▁будет	-6.81082
▁году	-6.84917
ми	-6.8545
▁со	-6.87997
▁также	-6.89265
▁".	-6.90785
▁А	-6.93737
▁то	-6.94036
▁под	-6.95385
▁уже	-7.00425
▁так	-7.01005
бы	-7.01735
▁было	-7.03865
н	-7.03896
▁И	-7.04258
)	-7.06807
▁м	-7.0723
▁время	-7.07302
ем	-7.07693
▁же	-7.07808
▁об	-7.09276
▁том	-7.10277
то	-7.1188
▁раз	-7.13599
▁про	-7.15246
▁или	-7.17115
▁мы	-7.17299
ей	-7.19578
▁после	-7.19676
▁только	-7.19715
д	-7.2022
▁я	-7.2023
еще	-7.20246
▁США	-7.21736
ка	-7.23025
ки	-7.23711
▁лет	-7.2382
▁того	-7.23966
▁может	-7.25456
ами	-7.257
ных	-7.2614
з	-7.26658
▁более	-7.2696
▁во	-7.27897
▁Но	-7.28603
▁Как	-7.31031
лись	-7.33078
▁их	-7.35009
▁?	-7.35138
▁ее	-7.37364
▁вы	-7.37368
▁они	-7.38404
к	-7.40509
за	-7.40907
▁заявил	-7.41059
ной	-7.41167
▁РФ	-7.42065
но	-7.42182
▁У	-7.45121
▁Он	-7.45168
▁котор	-7.46295
▁бы	-7.46719
▁К	-7.47231
▁есть	-7.47289
▁человек	-7.47542
ен	-7.48333
▁2016	-7.49858
▁Это	-7.50378
▁О	-7.51069
▁которо	-7.51444
лась	-7.53315
п	-7.53897
ев	-7.5439
▁этого	-7.54586
ного	-7.55052
▁словам	-7.552
▁е	-7.55848
▁ом	-7.5618
▁При	-7.5634
ит	-7.56757
▁руб	-7.58681
▁области	-7.59072
ам	-7.59383
ок	-7.59657
ют	-7.59964
ться	-7.60087
▁Так	-7.61674
ку	-7.62262
▁Об	-7.62307
▁млн	-7.6262
если	-7.62983
▁будут	-7.64967
▁2015	-7.65346
▁1	-7.66198
▁ли	-7.66533
▁когда	-7.67725
▁чем	-7.68176
▁За	-7.68456
▁она	-7.68688
",	-7.68781
▁пере	-7.69531
▁быть	-7.71477
▁)	-7.71524
▁ни	-7.71547
▁можно	-7.71801
▁рублей	-7.71964
ч	-7.72423
▁г	-7.72442
▁без	-7.72816
му	-7.73389
на	-7.73499
▁где	-7.73734
▁очень	-7.74323
▁компании	-7.7497
▁эти	-7.75108
▁российски	-7.75842
▁страны	-7.76077
▁стал	-7.76155
▁Не	-7.76388
▁млрд	-7.76477
р	-7.76586
же	-7.76729
▁ов	-7.7678
ш	-7.76965
▁Я	-7.77983
г	-7.7821
▁сообщает	-7.79191
б	-7.794
сколько	-7.79424
ные	-7.79668
▁тем	-7.7982
▁год	-7.80224
▁могу	-7.80632
▁них	-7.81604
▁тысяч	-7.82178
ых	-7.83341
▁свое	-7.83765
ется	-7.85647
▁).	-7.85678
▁один	-7.85865
ются	-7.85979
ни	-7.8677
▁сказал	-7.87477
ый	-7.87504
▁больше	-7.87873
▁данным	-7.88414
ная	-7.88448
С	-7.88679
▁ми	-7.88709
▁тыс	-7.89281
ru	-7.89306
▁Александр	-7.90748
▁результат	-7.90789
Ъ	-7.91032
▁два	-7.91057
ный	-7.91306
даже	-7.91325
ин	-7.91532
".	-7.92253
ж	-7.93511
▁Серге	-7.94347
▁),	-7.95187
▁10	-7.95273
▁нас	-7.95701
▁ы	-7.95994
около	-7.96613
▁пресс	-7.96635
лся	-7.96668
▁сообщил	-7.96729
▁П	-7.97063
▁против	-7.97189
▁сейчас	-7.97397
ла	-7.98003
▁Украины	-7.98266
ную	-7.99167
▁всего	-7.99403
▁Владимир	-7.99515
▁президента	-7.99715
▁отметил	-7.99817
▁нет	-8.00088
▁этот	-8.00455
▁Россия	-8.00808
▁ся	-8.01002
В	-8.01166
▁Ес	-8.01943
▁20	-8.02146
он	-8.02309
▁Ране	-8.02405
▁решение	-8.02605
▁суд	-8.03998
▁пока	-8.05817
ят	-8.06227
▁Мы	-8.07811
ст	-8.07834
ал	-8.07915
▁всех	-8.08569
▁между	-8.08871
▁2	-8.11989
▁являет	-8.12146
вою	-8.12539
▁себя	-8.12593
через	-8.14098
▁президент	-8.14471
s	-8.14698
▁Однако	-8.14777
▁кто	-8.14817
▁Сирии	-8.15249
▁числе	-8.15387
▁глав	-8.16034
те	-8.16042
▁двух	-8.16403
▁три	-8.16592
▁российско	-8.16788
▁новы	-8.1766
ф	-8.1772
5	-8.17846
▁передает	-8.18341
▁Кром	-8.20006
ра	-8.20015
▁начал	-8.20018
▁глава	-8.20461
2	-8.21195
▁само	-8.2147
▁...	-8.21659
▁города	-8.2178
%	-8.22
▁власти	-8.22231
ать	-8.22311
ко	-8.22663
ва	-8.22707
▁5	-8.22804
▁день	-8.23236
▁!	-8.23535
▁2014	-8.23783
▁3	-8.2398
▁момент	-8.24116
▁Москве	-8.24364
ков	-8.24502
ло	-8.24937
▁сегодня	-8.2504
▁первы	-8.25041
▁15	-8.25082
▁Дмитри	-8.25367
▁место	-8.25729
ым	-8.25948
ской	-8.26051
▁таки	-8.26614
▁Все	-8.26959
ным	-8.26994
▁просто	-8.27266
▁ный	-8.2729
▁4	-8.27293
▁вопрос	-8.27643
Р	-8.27791
▁перед	-8.27861
▁должны	-8.27931
▁много	-8.28104
ить	-8.28473
▁Lenta	-8.28633
▁работы	-8.28799
▁стран	-8.29065
▁над	-8.29072
ил	-8.29113
▁ные	-8.29584
▁меня	-8.29953
▁отношени	-8.30153
▁12	-8.30169
ец	-8.30686
вести	-8.30739
ль	-8.31552
▁безопасности	-8.31792
▁лиш	-8.31798
▁стороны	-8.31806
▁дело	-8.31846
1	-8.32127
ник	-8.32236
▁М	-8.32695
▁связи	-8.32752
ись	-8.3307
▁СМИ	-8.33239
▁людей	-8.33239
▁Путин	-8.33356
▁случае	-8.3364
▁пол	-8.33656
А	-8.34723
▁других	-8.34884
▁8	-8.35158
▁последни	-8.35388
▁рассказал	-8.36325
ти	-8.36508
▁мира	-8.36927
▁ранее	-8.37203
▁Напомним	-8.37765
ему	-8.37792
3	-8.38621
▁7	-8.38824
▁территории	-8.38991
▁6	-8.39227
▁18	-8.39238
РИА	-8.3926
▁ходе	-8.39299
▁жизни	-8.40256
▁свои	-8.4049
М	-8.40783
▁считает	-8.40923
▁говорит	-8.40998
▁Р	-8.41374
▁организации	-8.41587
▁нужно	-8.41605
О	-8.41894
▁марта	-8.4208
лось	-8.42113
▁30	-8.42318
▁Г	-8.42453
▁ных	-8.42515
ась	-8.42543
▁После	-8.42593
сти	-8.42703
▁участие	-8.42755
▁мнению	-8.43635
щ	-8.44422
▁человека	-8.4464
да	-8.45125
▁там	-8.45472
▁стало	-8.45885
9	-8.468
▁своих	-8.46901
▁Москвы	-8.46954
▁Д	-8.47056
ского	-8.47527
ский	-8.47607
Б	-8.47672
▁Новости	-8.48047
▁11	-8.48249
▁Алексе	-8.48256
e	-8.48355
ер	-8.48488
▁дела	-8.48948
▁почти	-8.4916
▁сам	-8.49261
▁господин	-8.49416
6	-8.49838
▁Т	-8.5007
▁партии	-8.50545
▁Б	-8.50968
▁ТАСС	-8.51268
▁именно	-8.51422
Т	-8.51613
▁состав	-8.52236
▁детей	-8.52454
должен	-8.52455
К	-8.52537
▁Сегодня	-8.5321
▁Андре	-8.5329
▁ной	-8.53378
▁тех	-8.53452
▁9	-8.53663
▁люди	-8.53894
▁известно	-8.53921
▁те	-8.5397
▁ного	-8.54342
▁14	-8.54374
▁Да	-8.5475
▁Дл	-8.54805
▁часть	-8.54807
▁н	-8.54835
▁него	-8.54899
▁многи	-8.549
▁апреля	-8.54984
▁стали	-8.55153
▁однако	-8.55552
▁сентября	-8.55658
▁говорится	-8.55756
0	-8.5577
ан	-8.56143
▁стране	-8.56157
ось	-8.5676
▁средств	-8.56992
▁граждан	-8.57043
▁уголовно	-8.57211
▁государства	-8.57436
o	-8.57623
▁рамка	-8.57717
ик	-8.58064
▁проект	-8.5818
▁S	-8.58348
▁17	-8.58772
П	-8.58978
▁правительства	-8.59096
Д	-8.59267
▁период	-8.60103
ив	-8.60196
ор	-8.60359
▁котором	-8.60575
8	-8.60695
▁компания	-8.60738
▁представитель	-8.60914
▁им	-8.61178
ля	-8.61672
▁дома	-8.61839
▁одной	-8.61949
i	-8.62185
▁сообщили	-8.62353
▁идет	-8.62412
ны	-8.62512
▁одного	-8.62518
4	-8.62548
▁февраля	-8.6292
▁самы	-8.63192
).	-8.63431
га	-8.63457
▁25	-8.63923
▁образом	-8.64166
▁менее	-8.6419
▁времени	-8.64616
▁т	-8.64654
▁2017	-8.64676
▁13	-8.64732
▁16	-8.64811
▁министр	-8.64989
до	-8.65119
▁пор	-8.65128
▁возможность	-8.65168
▁мая	-8.6527
▁ч	-8.65328
ке	-8.65432
▁ноября	-8.65598
▁декабря	-8.6561
▁развития	-8.65723
▁октября	-8.66074
▁дел	-8.66267
▁ского	-8.66545
▁информации	-8.66621
▁цен	-8.66636
▁Из	-8.66803
7	-8.66822
▁назад	-8.67313
ое	-8.67775
▁рас	-8.67943
▁такой	-8.67947
▁управления	-8.68013
▁января	-8.68141
▁Е	-8.68196
▁22	-8.68256
▁другие	-8.68383
этому	-8.68908
▁Во	-8.68975
ц	-8.69006
ру	-8.69127
▁До	-8.69193
вер	-8.69289
▁счет	-8.69385
▁ссылк	-8.69669
▁Они	-8.69878
▁л	-8.70477
ут	-8.70492
по	-8.70917
▁премьер	-8.71373
сь	-8.71374
▁части	-8.71535
ном	-8.71661
▁ский	-8.71688
▁Сейчас	-8.717
▁тот	-8.71866
▁среди	-8.72104
▁долларов	-8.72197
▁работу	-8.72316
ще	-8.72354
▁составил	-8.7237
▁Турции	-8.72481
▁трех	-8.72749
▁потому	-8.72825
▁обще	-8.72983
не	-8.73067
▁слова	-8.73088
ри	-8.7317
▁получил	-8.73413
▁мне	-8.73737
▁ную	-8.73741
▁наше	-8.73778
▁директор	-8.7413
▁рост	-8.74185
▁да	-8.74186
▁21	-8.74466
▁надо	-8.74758
▁наши	-8.74828
▁частности	-8.7484
▁себе	-8.7492
▁удалось	-8.7506
▁свой	-8.75084
▁п	-8.75188
▁ряд	-8.75465
▁назвал	-8.75643
▁течение	-8.75654
▁группы	-8.75853
би	-8.76145
ская	-8.76217
▁;	-8.76382
▁ситуации	-8.76561
▁военно	-8.76622
▁перв	-8.7664
▁районе	-8.76702
▁конце	-8.76768
▁Ф	-8.7682
ских	-8.76993
▁ЕС	-8.77083
ице	-8.77108
либо	-8.77178
▁Совет	-8.77473
▁дня	-8.77483
ши	-8.77662
от	-8.77732
▁здесь	-8.7778
▁своего	-8.77841
ские	-8.77914
главы	-8.77943
▁этим	-8.78565
си	-8.78571
▁очередь	-8.78641
ба	-8.78918
▁вместе	-8.79015
▁19	-8.79022
▁находит	-8.7907
▁объем	-8.79714
сть	-8.79807
▁пост	-8.79869
ди	-8.80026
ск	-8.80234
y	-8.80528
▁полиции	-8.80658
▁вот	-8.80894
▁деньги	-8.80918
сегда	-8.81054
▁заместител	-8.81132
ение	-8.81145
▁тепер	-8.81301
▁срок	-8.81331
де	-8.81334
ель	-8.81529
▁официально	-8.81916
▁действия	-8.82084
ре	-8.82138
смотря	-8.82401
▁тогда	-8.82418
▁ным	-8.82545
▁стоит	-8.82635
▁некоторы	-8.82668
▁системы	-8.82723
▁явля	-8.82743
▁пыта	-8.82747
шел	-8.82865
▁24	-8.82941
ро	-8.82958
▁необходимо	-8.83194
ян	-8.83436
▁Михаил	-8.83702
▁Президент	-8.83839
Н	-8.83839
▁банка	-8.83893
▁эту	-8.83953
▁своим	-8.83988
▁добавил	-8.84055
▁сразу	-8.84066
▁Что	-8.8408
▁подчеркнул	-8.84697
▁50	-8.84742
▁пред	-8.84743
▁право	-8.85064
тоже	-8.85491
▁д	-8.85621
▁стать	-8.86258
▁проекта	-8.863
ения	-8.86343
▁комитета	-8.86429
У	-8.86579
▁23	-8.86997
▁итога	-8.87143
▁200	-8.87522
▁суда	-8.87793
▁качестве	-8.8791
▁Ш	-8.87949
▁чего	-8.88052
ает	-8.88116
▁рынка	-8.88298
▁сотрудник	-8.88326
▁агентство	-8.88345
▁сделать	-8.88554
▁начала	-8.88573
▁решения	-8.88798
▁A	-8.88827
Ф	-8.88839
▁прав	-8.88924
▁большо	-8.88961
▁имеет	-8.89022
▁Про	-8.89063
▁де	-8.89327
▁лучше	-8.89751
ное	-8.89988
▁28	-8.90164
летни	-8.90168
▁месте	-8.90238
▁No	-8.90244
ист	-8.90247
Л	-8.90461
▁гор	-8.90501
ностью	-8.90756
▁100	-8.90961
енко	-8.91031
▁конечно	-8.91303
▁количество	-8.91351
▁рынке	-8.91655
▁То	-8.91694
▁F	-8.91731
▁Н	-8.91745
▁сайте	-8.91791
▁годы	-8.91982
▁деятельности	-8.92045
▁меньше	-8.92072
чи	-8.92401
▁августа	-8.92421
▁ре	-8.92463
▁сил	-8.92896
▁хотя	-8.92898
▁уровне	-8.92957
ги	-8.93034
▁B	-8.93232
▁МВД	-8.93457
▁пять	-8.93588
жи	-8.93706
▁например	-8.9407
ман	-8.94417
▁27	-8.94546
▁правительство	-8.94708
▁друг	-8.9473
▁МИД	-8.94878
▁лиц	-8.94896
ос	-8.94945
▁нефти	-8.94972
▁26	-8.94991
▁должн	-8.95087
▁ами	-8.95204
▁городе	-8.95249
▁прошлого	-8.95296
▁связан	-8.95353
▁нового	-8.95381
▁ко	-8.955
▁проведени	-8.95691
И	-8.9577
▁Игор	-8.95816
▁второй	-8.96005
),	-8.96011
станет	-8.96091
▁возможно	-8.96254
▁отмечает	-8.96286
▁ним	-8.96533
ек	-8.96825
▁компаний	-8.96841
▁бюджет	-8.96906
тор	-8.97003
▁провел	-8.97094
▁причин	-8.97173
▁C	-8.97302
▁считают	-8.97312
▁новый	-8.97336
че	-8.97382
▁работа	-8.9742
▁ст	-8.97542
▁ная	-8.97602
▁От	-8.97797
▁перво	-8.98088
t	-8.98351
▁четыре	-8.9853
▁помощи	-8.98583
▁работать	-8.98714
▁внимание	-8.98771
▁город	-8.99018
▁Россию	-8.99056
Г	-8.99195
▁настоящее	-8.99366
▁социально	-8.99454
▁июля	-8.99826
▁экономическо	-8.99861
▁средства	-9.00058
w	-9.00384
▁Трамп	-9.00401
▁две	-9.00458
оставляет	-9.01093
▁эта	-9.01169
▁29	-9.01198
са	-9.01265
n	-9.01465
▁закон	-9.01474
▁Глава	-9.0154
▁всем	-9.01553
▁посколь	-9.01704
▁мире	-9.01735
нд	-9.01794
▁данные	-9.01917
▁миллионов	-9.02062
▁Федерации	-9.02134
кин	-9.02134
▁региона	-9.022
▁ничего	-9.02237
▁ООН	-9.02338
▁авто	-9.02348
ств	-9.02357
▁Украине	-9.02445
▁появи	-9.02505
▁Мурманск	-9.02511
▁предложил	-9.02634
▁дней	-9.02872
▁сделал	-9.03082
▁иностранны	-9.03204
▁кино	-9.03314
ду	-9.03409
об	-9.03464
▁главны	-9.03567
▁ответ	-9.03739
овые	-9.03743
▁40	-9.03832
▁одна	-9.03888
▁проблемы	-9.03888
▁одном	-9.03906
▁истории	-9.03913
▁центра	-9.03964
бо	-9.03976
▁часов	-9.04002
▁ской	-9.04295
ние	-9.04446
▁получили	-9.04575
▁источник	-9.04751
▁одно	-9.04797
▁своем	-9.05024
▁жизнь	-9.05077
▁таким	-9.05387
ском	-9.05583
али	-9.05655
▁ском	-9.05753
▁ведомства	-9.05761
▁Европы	-9.05823
ают	-9.05839
кр	-9.05868
▁получить	-9.06081
▁информацию	-9.0623
▁та	-9.06235
ус	-9.06256
/	-9.06421
ар	-9.06479
▁сборной	-9.06544
гр	-9.06584
▁Поэтому	-9.06694
▁Российско	-9.06767
▁другой	-9.06899
из	-9.06992
▁местны	-9.07037
тер	-9.0704
лен	-9.07201
▁достаточно	-9.07358
▁Со	-9.07495
▁потом	-9.07497
▁приводит	-9.07685
ировать	-9.08005
▁программы	-9.08104
▁администрации	-9.08169
▁прошлом	-9.0829
▁/	-9.08357
▁практически	-9.08436
a	-9.08533
▁ка	-9.08765
▁Его	-9.08893
▁процесс	-9.09032
▁материал	-9.09344
вар	-9.09419
▁Евгени	-9.09439
▁ситуация	-9.09544
или	-9.09558
▁бизнес	-9.096
▁заявление	-9.09763
▁бывши	-9.10294
▁официальны	-9.10468
▁месяцев	-9.10553
u	-9.10555
▁представител	-9.10603
▁ская	-9.10721
▁Вы	-9.10768
▁2013	-9.10923
ния	-9.11067
▁Таки	-9.11104
▁просмотров	-9.11294
▁Никола	-9.11394
вал	-9.11512
▁стоимость	-9.11705
▁одним	-9.11734
ир	-9.11754
▁войны	-9.11765
▁Когда	-9.11872
▁тако	-9.11927
▁мест	-9.12088
▁населения	-9.12213
▁тому	-9.12215
▁команды	-9.12419
▁права	-9.12529
▁точк	-9.12688
▁делать	-9.12715
прочем	-9.12764
▁Тем	-9.12933
m	-9.12937
▁жителей	-9.12978
d	-9.12993
▁службы	-9.13011
стр	-9.13201
ну	-9.13209
▁курс	-9.13323
▁экономики	-9.1352
▁Ц	-9.13607
▁россиян	-9.13817
▁экс	-9.13834
▁оказал	-9.14051
▁G	-9.14161
▁ым	-9.14303
▁места	-9.14315
▁Госдумы	-9.14471
▁ей	-9.14593
▁ин	-9.14599
▁участников	-9.14773
▁последне	-9.14783
▁депутат	-9.14792
ина	-9.14827
▁евро	-9.14846
▁лично	-9.14998
▁участи	-9.15013
▁процентов	-9.1504
▁политическ	-9.15047
▁должно	-9.15159
▁реализаци	-9.15177
▁31	-9.15193
▁государственно	-9.15224
▁s	-9.15346
▁Согласн	-9.1551
▁число	-9.15551
▁выборов	-9.15569
▁впервые	-9.15595
▁р	-9.1569
▁цены	-9.15732
▁хотел	-9.15774
▁возможности	-9.15885
ча	-9.15967
▁отношения	-9.16018
▁национально	-9.16051
уд	-9.16141
▁Виктор	-9.16186
зи	-9.16188
оз	-9.16198
▁прошл	-9.16221
ца	-9.16285
аль	-9.16306
ид	-9.16368
йти	-9.16667
лин	-9.1672
▁договор	-9.16739
лов	-9.16749
▁выборах	-9.16764
▁гос	-9.1682
ол	-9.16832
▁вопросы	-9.16948
▁Порошенко	-9.17202
▁Германии	-9.17321
▁повод	-9.17382
▁минут	-9.17658
▁мало	-9.17952
▁участник	-9.17976
▁видео	-9.18274
вод	-9.18297
ний	-9.18413
▁законодательств	-9.18576
АО	-9.18606
цы	-9.18625
▁политики	-9.18773
▁З	-9.18864
▁сотрудников	-9.18985
▁половин	-9.19158
b	-9.19161
▁Еще	-9.19178
▁Олег	-9.19209
▁выше	-9.19235
▁больш	-9.19458
▁нефть	-9.19626
▁меры	-9.19681
▁Россией	-9.19853
▁сравнени	-9.19861
▁принят	-9.19909
▁удар	-9.20005
▁крупны	-9.20051
бр	-9.20162
▁которым	-9.20218
▁итоге	-9.20499
ари	-9.20507
▁дом	-9.20689
▁сообщении	-9.20795
▁Клинтон	-9.20909
▁международны	-9.20928
▁интервью	-9.21067
▁мог	-9.21175
▁первом	-9.21324
Ru	-9.21369
▁руководство	-9.21462
▁агентства	-9.21491
Интерфакс	-9.21626
▁встречи	-9.21716
ясь	-9.21743
▁новой	-9.21779
▁ЦБ	-9.2179
▁проблем	-9.21875
▁украински	-9.21918
▁пяти	-9.22171
▁подготовк	-9.22225
мимо	-9.22272
▁активно	-9.22286
▁собой	-9.22342
▁I	-9.22381
ряд	-9.22643
▁Источник	-9.22694
▁обороны	-9.22717
ша	-9.22821
▁целом	-9.22845
аться	-9.22904
▁Сам	-9.22942
▁движения	-9.22959
мен	-9.22981
▁произошло	-9.2308
▁размере	-9.23205
▁важно	-9.23231
▁Под	-9.23259
▁пояснил	-9.23441
▁начальник	-9.23458
▁сети	-9.23488
па	-9.23519
▁комитет	-9.2365
▁вообще	-9.23782
▁улице	-9.23788
▁уровень	-9.2381
▁затем	-9.23926
▁член	-9.23967
▁пишет	-9.24146
▁Франции	-9.24149
▁бюджета	-9.24299
ран	-9.24307
▁условиях	-9.24459
▁написал	-9.24514
▁совет	-9.24535
▁Санкт	-9.24607
ически	-9.24665
овать	-9.2469
▁центре	-9.24737
ста	-9.24822
▁N	-9.24915
▁УК	-9.25245
ком	-9.25253
00	-9.25276
▁ситуацию	-9.25373
▁виде	-9.25439
▁работ	-9.25499
▁данных	-9.25691
▁какие	-9.25802
r	-9.25986
ед	-9.26122
▁каждый	-9.26175
▁помощью	-9.26191
▁конца	-9.26373
кс	-9.2646
▁НАТО	-9.2649
▁действительно	-9.26511
▁роста	-9.26581
▁ное	-9.26673
Я	-9.26724
ад	-9.26749
er	-9.26791
▁речь	-9.26921
ров	-9.27026
l	-9.27039
▁учет	-9.2712
йте	-9.27179
▁самом	-9.2731
ант	-9.27749
Э	-9.27845
▁министра	-9.27875
▁государство	-9.27909
▁сказать	-9.28013
▁сообщила	-9.28298
▁интернет	-9.2831
тся	-9.28357
▁з	-9.28361
▁мер	-9.28465
▁самолет	-9.28602
▁фон	-9.28617
▁никак	-9.28689
▁следует	-9.28724
▁производства	-9.28802
▁созда	-9.28816
▁пользу	-9.28936
▁погибли	-9.28979
▁Новы	-9.29068
▁действий	-9.2915
ставить	-9.29364
▁ведь	-9.2941
▁сообщалось	-9.29416
▁Ъ	-9.29453
▁хорошо	-9.29465
▁пре	-9.29625
▁заявила	-9.29632
▁состоит	-9.29666
▁P	-9.2997
ями	-9.29995
▁международно	-9.30073
министр	-9.30123
▁Ла	-9.30143
овой	-9.30212
нов	-9.30278
▁законопроект	-9.30304
▁газета	-9.30358
▁тонн	-9.3039
вин	-9.30599
мер	-9.30722
▁помощь	-9.30818
▁готов	-9.30819
▁выход	-9.30867
▁намерен	-9.30974
▁понедельник	-9.31085
▁работает	-9.31177
▁Российск	-9.31211
▁центр	-9.31381
▁различны	-9.31489
▁ход	-9.31521
▁Су	-9.31525
могли	-9.31537
▁Де	-9.31627
▁рынок	-9.3174
▁услуг	-9.3182
▁совета	-9.31916
▁читай	-9.31933
▁весь	-9.31937
▁E	-9.31959
ство	-9.31965
ту	-9.32045
▁Трампа	-9.32256
▁предприятия	-9.32322
▁бес	-9.32433
вший	-9.3246
▁подобны	-9.32528
▁ными	-9.32597
пол	-9.32622
▁группа	-9.32643
▁наибол	-9.3281
ци	-9.32856
▁сами	-9.32924
▁государственны	-9.32938
▁месяца	-9.33041
▁республики	-9.33113
▁вас	-9.33269
▁план	-9.33338
▁правоохранитель	-9.3341
ООО	-9.33466
▁мир	-9.3353
▁банк	-9.33534
▁известны	-9.33574
▁района	-9.33578
▁СССР	-9.33605
летне	-9.33634
▁делу	-9.33677
▁работал	-9.33683
▁пятницу	-9.33732
▁версии	-9.33867
▁лидер	-9.34005
▁ш	-9.34099
Един	-9.34176
▁особенно	-9.34206
российского	-9.34228
▁Москва	-9.34433
▁среду	-9.34437
▁согласн	-9.34459
▁Владимира	-9.34531
▁четверг	-9.34546
▁принято	-9.34685
пи	-9.34826
▁наш	-9.3488
▁бывше	-9.34942
▁образования	-9.35086
▁Дональд	-9.35219
▁любо	-9.35242
▁M	-9.35244
▁никто	-9.35254
▁прямо	-9.35323
▁вариант	-9.35353
пример	-9.35405
▁городско	-9.35408
▁перспектив	-9.35576
▁говорят	-9.35663
▁Э	-9.35725
▁американски	-9.35763
▁L	-9.3581
▁произоше	-9.36029
▁сфере	-9.36065
▁имени	-9.36071
P	-9.36071
▁работе	-9.36272
▁фильм	-9.36391
уз	-9.36424
▁этап	-9.36602
▁комплекс	-9.36657
▁выступа	-9.36683
▁ты	-9.36705
▁порядка	-9.36718
▁Украина	-9.36739
▁показател	-9.36797
▁Путина	-9.36877
▁особо	-9.36882
▁Ли	-9.36929
▁какой	-9.36941
▁позволя	-9.36945
▁Крыма	-9.36963
▁украинско	-9.36968
Мы	-9.37012
▁цитируе	-9.37118
▁органов	-9.37308
ак	-9.37329
Х	-9.37379
▁ребенка	-9.37421
▁направлен	-9.37497
▁смогу	-9.37502
▁самым	-9.37516
▁закона	-9.37525
▁начали	-9.37686
▁часто	-9.37772
▁сайт	-9.37775
▁четырех	-9.37797
▁Алеппо	-9.3784
▁вторник	-9.37989
▁призвал	-9.3814
▁встреча	-9.38144
ест	-9.38204
лад	-9.38226
▁The	-9.38235
▁зам	-9.38235
Газпром	-9.3826
▁данны	-9.38327
▁ическ	-9.38379
▁Савченко	-9.38401
бе	-9.38427
▁изменения	-9.38438
▁готовы	-9.38451
▁находят	-9.38583
оч	-9.38666
▁постоянно	-9.38809
▁роль	-9.38977
▁придет	-9.3906
▁ном	-9.39072
▁силы	-9.39073
▁денег	-9.39247
▁Л	-9.39337
▁ку	-9.39364
▁опыт	-9.39468
▁департамент	-9.39673
▁деле	-9.39819
▁экономически	-9.39875
▁культуры	-9.39876
ня	-9.40018
▁вернуть	-9.40061
▁2012	-9.40123
про	-9.40293
ич	-9.40321
▁принял	-9.40339
▁операции	-9.40391
▁быстро	-9.40429
▁говорить	-9.40503
▁газа	-9.40588
▁комиссии	-9.40614
нескольких	-9.40677
▁нельзя	-9.40677
▁использовать	-9.4079
шлось	-9.4081
▁сильно	-9.40964
▁примерн	-9.41129
▁Европе	-9.41137
▁ф	-9.41223
▁фонд	-9.41238
▁тур	-9.41393
▁Ле	-9.41393
▁никогда	-9.41398
▁прогноз	-9.41494
al	-9.41671
S	-9.41716
▁первой	-9.41735
▁уровня	-9.41851
▁доступ	-9.41874
▁Ре	-9.41916
▁клуб	-9.41976
▁женщин	-9.42026
▁Петр	-9.42039
асается	-9.42402
▁общественно	-9.42525
▁строительство	-9.42695
▁Песков	-9.42714
кой	-9.42728
▁никаки	-9.42735
▁руководитель	-9.4281
дут	-9.42811
▁находи	-9.42901
при	-9.42964
▁председатель	-9.43007
▁попытк	-9.43041
секретар	-9.43062
▁чемпионата	-9.43123
ится	-9.43315
▁анти	-9.43412
▁акции	-9.43431
▁преступления	-9.43434
▁система	-9.43521
▁переговоры	-9.43542
▁заявили	-9.43612
▁свет	-9.43636
▁рубля	-9.43711
▁тут	-9.43934
▁российск	-9.43985
▁финансовы	-9.44015
▁режим	-9.44059
▁пройдет	-9.44114
▁Тогда	-9.442
▁строительства	-9.44299
▁собеседник	-9.44335
дел	-9.44382
▁автомобиль	-9.44389
▁ближайше	-9.44402
▁Известия	-9.44408
▁э	-9.44465
▁список	-9.44465
▁социальны	-9.44538
▁силу	-9.4458
▁факт	-9.44602
▁включа	-9.44777
▁дополнительны	-9.44887
дробнее	-9.44965
▁Ку	-9.44969
▁заседани	-9.45164
▁совместно	-9.45221
кон	-9.45244
▁Ка	-9.45335
▁способ	-9.45497
▁РБК	-9.45536
▁соответстви	-9.45536
полне	-9.45619
▁происходит	-9.45838
▁второ	-9.45877
▁сумму	-9.45885
▁поддержку	-9.45952
▁организация	-9.46064
▁говорил	-9.46172
▁Мир	-9.46221
▁T	-9.4624
▁Ба	-9.46425
ятся	-9.46431
▁фонда	-9.46447
дин	-9.46451
▁матч	-9.46469
▁имеют	-9.4657
▁привел	-9.46576
▁бизнеса	-9.46641
▁членов	-9.46643
▁штраф	-9.46643
▁Мо	-9.46657
▁выступил	-9.46662
▁Суд	-9.46693
▁давно	-9.46747
▁крайне	-9.46757
ников	-9.4677
▁позволит	-9.46837
▁Image	-9.46904
f	-9.46997
▁Ди	-9.47093
ры	-9.47102
▁задержан	-9.47129
▁полно	-9.47219
▁выразил	-9.47315
▁самолета	-9.47368
▁Фото	-9.47385
▁телеканал	-9.47523
▁благодаря	-9.47542
▁вопросам	-9.47579
▁выбор	-9.47584
лив	-9.47639
▁ра	-9.47819
тель	-9.47858
▁машин	-9.47884
цев	-9.47888
▁состоянии	-9.4795
▁Среди	-9.47962
▁2011	-9.47988
▁взрыв	-9.48041
▁сможет	-9.48076
▁российским	-9.48154
йдет	-9.48261
овсем	-9.48316
▁остается	-9.48316
лишко	-9.48335
▁почему	-9.48447
▁условия	-9.48479
изм	-9.48506
▁спорта	-9.48562
▁Ар	-9.48584
▁месяц	-9.48788
▁налогов	-9.48971
▁Минобороны	-9.49071
▁Максим	-9.49095
▁финансов	-9.49228
▁миллиона	-9.49253
▁федерально	-9.49303
▁мужчина	-9.49323
ства	-9.49328
▁управление	-9.49405
▁автомобиля	-9.49602
▁точно	-9.49676
оп	-9.49694
▁труд	-9.49803
▁занимает	-9.49811
▁бо	-9.49884
▁Киев	-9.49921
жа	-9.49955
службе	-9.50001
▁ком	-9.50119
▁приходит	-9.50161
▁регионе	-9.50262
▁МЧС	-9.50328
▁военных	-9.50356
▁соглашения	-9.50387
▁обратил	-9.50463
▁продукции	-9.50498
▁выборы	-9.50558
▁организаций	-9.5064
▁контракт	-9.50671
▁сбор	-9.50702
▁метров	-9.50727
A	-9.5074
▁деятельность	-9.50784
▁2018	-9.50804
ис	-9.50975
▁следующи	-9.51194
▁Теперь	-9.51283
▁представителе	-9.51286
▁развитие	-9.51368
сон	-9.51373
ун	-9.51437
пер	-9.51468
▁проходит	-9.51577
▁Борис	-9.51686
▁края	-9.51951
▁кандидат	-9.51964
▁внутренни	-9.52005
ность	-9.52045
▁депутатов	-9.52163
▁раньше	-9.52249
гу	-9.52321
▁Иван	-9.52324
▁клуба	-9.52379
▁раза	-9.52578
▁размер	-9.52596
▁Медведев	-9.52696
инг	-9.52838
▁Ту	-9.52932
ход	-9.53024
▁Первы	-9.53028
ar	-9.53085
▁нарушения	-9.53166
▁специально	-9.53228
▁Российски	-9.53363
▁автомобилей	-9.53382
▁предлагает	-9.53408
▁воз	-9.53494
▁ниже	-9.53511
▁сложно	-9.53535
▁возбужден	-9.53554
ват	-9.53562
▁европейски	-9.53582
сп	-9.5361
▁совершенно	-9.53627
▁позиции	-9.5371
од	-9.53771
▁60	-9.53773
▁Ко	-9.53837
▁президентом	-9.5391
нести	-9.53913
▁пример	-9.53956
▁па	-9.53965
нг	-9.53984
▁му	-9.54138
ше	-9.54165
▁признал	-9.54282
▁сообщается	-9.54368
▁скорее	-9.54398
")	-9.54525
▁недели	-9.5455
▁куда	-9.54575
▁фото	-9.54672
▁500	-9.54695
▁процента	-9.54715
▁результаты	-9.54747
▁минимум	-9.54862
▁Представител	-9.54931
▁кого	-9.54949
an	-9.54951
новь	-9.54987
щи	-9.54993
ъ	-9.55023
▁Бо	-9.55031
йдут	-9.55034
▁основно	-9.55063
▁свободы	-9.55151
▁получени	-9.55219
▁декабре	-9.55295
▁всю	-9.55322
▁властей	-9.55362
▁ведет	-9.55411
▁переговоров	-9.55423
▁долго	-9.55436
▁назначен	-9.55441
▁ближайши	-9.55489
▁ла	-9.55503
▁июня	-9.55535
▁Ми	-9.55552
▁большинство	-9.55556
▁производство	-9.55582
▁санкции	-9.55629
▁значительно	-9.55731
пр	-9.55895
▁уверен	-9.55898
ировал	-9.559
бер	-9.55969
▁зрения	-9.5603
▁эксперты	-9.56034
ющий	-9.56047
▁зон	-9.56063
гар	-9.56113
▁решил	-9.56117
▁образ	-9.56126
▁главн	-9.56272
чь	-9.56423
ева	-9.56425
▁эксперт	-9.56556
менно	-9.56629
▁тренер	-9.56636
вы	-9.56777
могла	-9.56866
▁террористическ	-9.56908
▁факту	-9.57203
э	-9.57273
▁конфликт	-9.57314
▁ских	-9.57351
овых	-9.57383
▁предложение	-9.57584
ились	-9.57683
▁объектов	-9.57735
▁прекращени	-9.57786
▁статус	-9.57898
ается	-9.57937
▁довольн	-9.58027
▁найти	-9.58058
▁будем	-9.58127
сс	-9.58201
▁матче	-9.58207
▁странах	-9.58208
▁планирует	-9.58298
▁шесть	-9.58304
▁борьбе	-9.58346
▁январе	-9.58405
▁рабочи	-9.58412
лет	-9.5854
▁акций	-9.58556
▁третье	-9.58604
▁годов	-9.5861
уш	-9.58619
▁Ж	-9.58701
ходят	-9.5882
▁Х	-9.58823
▁вид	-9.58929
председателя	-9.58963
▁отношений	-9.59013
▁кор	-9.59019
бл	-9.59101
▁стар	-9.59247
▁значит	-9.59271
▁адрес	-9.59323
▁губернатор	-9.59373
▁продажи	-9.59435
▁дороги	-9.59457
▁запрет	-9.59497
пис	-9.59547
▁голосов	-9.59577
▁команда	-9.59599
▁кон	-9.59601
▁машины	-9.5969
▁мероприятия	-9.5977
▁Великобритании	-9.59788
▁информация	-9.59788
?	-9.59867
▁Антон	-9.60011
▁банков	-9.60079
▁просьб	-9.60139
▁следствия	-9.60152
▁здания	-9.60205
место	-9.60436
▁Южно	-9.60436
овал	-9.60457
жды	-9.60477
лон	-9.60479
▁задержал	-9.60524
▁собственно	-9.60529
вшего	-9.60541
таки	-9.6056
▁Га	-9.60587
▁связанны	-9.60668
▁теле	-9.60818
▁школы	-9.60965
▁обычно	-9.6102
▁обнаружен	-9.61037
▁очередно	-9.61039
▁боевы	-9.61076
▁хочет	-9.61085
I	-9.61089
служба	-9.61113
▁санкций	-9.61117
▁круг	-9.61126
рон	-9.61254
en	-9.61471
▁ново	-9.61528
▁рассказывает	-9.61624
▁300	-9.61691
▁снижени	-9.61865
▁жертв	-9.61913
ур	-9.61952
начала	-9.61977
▁необходимы	-9.62094
▁фильма	-9.62229
▁Елен	-9.62285
C	-9.62288
▁интерес	-9.6236
министра	-9.62361
▁название	-9.62412
ул	-9.62414
▁шанс	-9.62439
▁вынужден	-9.6244
▁документы	-9.62523
▁Китай	-9.62687
▁Ро	-9.62695
▁ДТП	-9.62795
▁неделе	-9.62815
дать	-9.62835
еж	-9.62868
▁Ю	-9.62884
▁скоро	-9.62975
▁предложения	-9.62984
▁воскресенье	-9.63114
▁заявления	-9.63156
▁семьи	-9.63223
▁общ	-9.63363
З	-9.63416
▁документов	-9.63508
▁ским	-9.63519
одну	-9.63574
▁встрече	-9.63671
▁арест	-9.6378
▁работают	-9.6381
▁директора	-9.63812
▁$1	-9.63929
▁планируется	-9.63993
▁данно	-9.64027
▁равно	-9.64116
▁Ха	-9.64134
▁газ	-9.64205
▁Кар	-9.64205
▁Кон	-9.64207
▁ремонт	-9.64245
▁мирово	-9.64262
▁Ша	-9.643
▁поставк	-9.64307
us	-9.64367
▁смерти	-9.64372
▁станции	-9.64489
▁систему	-9.64507
▁серьезны	-9.64508
ации	-9.64569
▁рядом	-9.646
▁35	-9.64645
ra	-9.64662
▁дети	-9.64671
▁R	-9.64736
▁хороши	-9.64741
раз	-9.64756
чат	-9.64861
▁областно	-9.64941
▁оно	-9.65008
тив	-9.65043
▁десятк	-9.65282
▁оружия	-9.65335
▁внутри	-9.65342
▁вызвал	-9.65543
▁режима	-9.65571
▁скую	-9.65607
▁основны	-9.65642
▁опубликовал	-9.65797
▁двум	-9.65799
▁Пол	-9.65917
пл	-9.65989
▁подтвердил	-9.65996
com	-9.66088
Е	-9.66128
▁выплат	-9.6621
▁запрос	-9.66212
▁армии	-9.66261
▁Юрий	-9.66297
▁Пока	-9.66378
▁яко	-9.664
▁приняли	-9.66489
▁снижение	-9.665
▁сирийско	-9.66522
▁контроль	-9.6653
▁доме	-9.66556
▁столицы	-9.66556
▁воды	-9.666
▁ночь	-9.6664
▁линии	-9.66647
▁вчера	-9.66666
▁32	-9.66732
прежнем	-9.66818
▁площади	-9.66818
▁руководителя	-9.66904
▁ан	-9.67008
▁жители	-9.67152
зер	-9.67259
▁тяжело	-9.67295
▁люб	-9.6741
▁соглашение	-9.67425
▁Крым	-9.67443
бор	-9.67522
▁пар	-9.67559
▁Московско	-9.67567
вшись	-9.67634
зы	-9.67695
▁прошло	-9.67705
▁представлен	-9.6774
▁столице	-9.6774
▁Ан	-9.67744
▁море	-9.67745
▁поддержки	-9.6781
▁пути	-9.67976
p	-9.68034
▁марте	-9.68132
▁прежде	-9.68138
▁!"	-9.68166
▁резко	-9.68174
▁полу	-9.68249
▁Ни	-9.68303
▁отмечают	-9.68392
▁игры	-9.68401
Исламско	-9.68417
▁региональны	-9.68456
По	-9.68516
▁текст	-9.68528
▁местно	-9.68535
▁настоящи	-9.68543
нул	-9.68616
▁высоки	-9.68686
▁групп	-9.687
▁Международно	-9.6877
эн	-9.6883
▁Кор	-9.68844
▁регионов	-9.68913
▁создание	-9.68967
ско	-9.68991
▁защиты	-9.69055
▁сообщал	-9.69136
▁необходимости	-9.69139
▁боевиков	-9.69159
▁плат	-9.69316
▁основном	-9.69338
ально	-9.69396
ешь	-9.69422
▁рассмотрени	-9.69491
▁серьезно	-9.69511
ирован	-9.69517
▁Рио	-9.69532
▁лица	-9.69556
v	-9.69573
▁получила	-9.69607
▁парламента	-9.69626
▁основе	-9.69666
▁доби	-9.69804
▁отмечается	-9.69853
▁СКР	-9.69887
▁Один	-9.69922
▁получат	-9.6999
▁Более	-9.70069
▁исследования	-9.70111
▁O	-9.70112
▁анализ	-9.70118
▁проблема	-9.7013
▁специальны	-9.70255
▁канал	-9.70264
▁проводит	-9.70296
▁государств	-9.70327
▁конфликта	-9.70376
▁транспорта	-9.70396
ции	-9.70615
▁адвокат	-9.70624
▁ответственности	-9.70628
▁H	-9.70634
▁создан	-9.70698
ес	-9.70799
▁решили	-9.708
▁расследования	-9.70818
чен	-9.7088
▁характер	-9.70885
▁вокруг	-9.7098
▁стол	-9.71007
▁середин	-9.71013
▁авиа	-9.71023
▁иск	-9.71119
ion	-9.71125
▁Вот	-9.71139
▁документ	-9.71206
▁обмен	-9.71215
▁сезон	-9.71313
▁вам	-9.71352
ван	-9.71364
▁Facebook	-9.71403
▁субботу	-9.71403
▁область	-9.71404
▁состоя	-9.7142
▁попросил	-9.71599
▁Ольг	-9.71601
▁легко	-9.71661
цен	-9.71714
▁Эти	-9.71776
ика	-9.71784
▁ответственность	-9.71862
▁хо	-9.71906
▁70	-9.71953
▁Би	-9.71973
▁ЦСКА	-9.71991
▁погибших	-9.71995
▁обязательно	-9.72038
няя	-9.7204
▁феврале	-9.7205
▁мере	-9.72109
▁журналистам	-9.72166
▁дал	-9.72285
▁неделю	-9.72389
▁б	-9.72404
ган	-9.72444
тин	-9.72456
кар	-9.72611
▁ФСБ	-9.72638
▁федеральны	-9.72713
целью	-9.72881
пустя	-9.72914
▁Москву	-9.72979
▁плана	-9.73026
рез	-9.73069
▁сти	-9.73135
▁Константин	-9.73178
▁обо	-9.73194
▁пункт	-9.73236
▁сказала	-9.73251
тан	-9.73342
Россия	-9.73357
▁Ново	-9.73368
▁втором	-9.73481
▁собственны	-9.73545
снова	-9.73554
▁Саудовск	-9.73577
▁напомнил	-9.73577
▁метро	-9.73692
Ц	-9.74054
▁обвинения	-9.74059
тро	-9.74061
▁ракет	-9.74068
▁военны	-9.74082
▁пассажиров	-9.74102
кор	-9.74115
▁ту	-9.74285
рен	-9.7453
▁Валери	-9.74588
раж	-9.74664
нию	-9.74723
▁больши	-9.74751
▁территори	-9.7488
▁Ну	-9.74922
▁электро	-9.74946
вшая	-9.74986
▁проектов	-9.75011
▁торгов	-9.75041
▁мое	-9.75193
▁техники	-9.75195
▁ское	-9.75247
▁игра	-9.75315
рос	-9.75399
▁кой	-9.75446
тар	-9.75519
▁невозможно	-9.75643
кал	-9.75653
▁Нью	-9.75692
▁переход	-9.75702
▁вернул	-9.75791
▁важны	-9.75796
ости	-9.758
▁Отмечается	-9.758
ция	-9.75841
тр	-9.75861
▁сентябре	-9.76004
▁Министр	-9.76004
▁Бывши	-9.76206
ющие	-9.7633
чин	-9.76336
иться	-9.76347
▁поступил	-9.76388
▁Лавров	-9.76417
▁чуть	-9.76435
▁признан	-9.76438
▁хотят	-9.76453
▁Там	-9.7646
▁Ч	-9.7654
▁V	-9.76546
▁детски	-9.76553
▁спортсменов	-9.76564
▁рассказала	-9.76607
▁45	-9.7662
▁отчет	-9.76692
▁журналистов	-9.76698
чень	-9.76795
▁вооруженны	-9.76799
▁голосования	-9.76812
▁цена	-9.76817
▁кризис	-9.76818
чев	-9.76849
▁Банк	-9.76877
▁проб	-9.76885
▁регионально	-9.76901
▁Бу	-9.7711
▁открыл	-9.77167
▁нарушение	-9.77174
▁взгляд	-9.7724
▁финансово	-9.77283
дер	-9.7744
▁Японии	-9.77447
▁погиб	-9.77549
▁защит	-9.77728
становится	-9.77774
▁использование	-9.77776
▁a	-9.77822
g	-9.77824
▁беженцев	-9.77863
▁Обама	-9.77874
▁рассказали	-9.77919
▁Ма	-9.77919
▁первым	-9.77943
▁представителя	-9.78118
▁оказа	-9.78133
ехать	-9.78149
▁игр	-9.78262
▁ноябре	-9.78281
▁октябре	-9.78281
▁Между	-9.78285
▁мнение	-9.78319
▁сторону	-9.78329
▁топ	-9.78355
▁расследование	-9.78364
▁кандидатов	-9.78368
c	-9.78437
▁баррель	-9.78491
▁крупнейши	-9.78492
▁поддержал	-9.78504
▁ИГ	-9.78529
▁Мне	-9.78535
▁опубликован	-9.7854
▁женщина	-9.78542
нова	-9.78555
▁37	-9.78575
▁задач	-9.78575
D	-9.78654
▁ними	-9.78716
ченко	-9.78737
▁издание	-9.78769
▁33	-9.78873
▁программ	-9.78878
▁автор	-9.79043
▁принцип	-9.79163
▁Национально	-9.79172
▁должность	-9.79184
▁шаг	-9.79198
▁ось	-9.79202
▁произошл	-9.79306
▁текуще	-9.79378
нс	-9.79446
лан	-9.79668
▁рейтинг	-9.79736
▁полиция	-9.79759
▁победу	-9.79793
▁каких	-9.79813
▁смогли	-9.79817
▁Федерально	-9.79841
▁Компани	-9.79848
нее	-9.79969
▁делам	-9.79984
▁Джон	-9.80107
▁инициатив	-9.80218
читать	-9.80226
▁Иль	-9.80268
▁общественны	-9.80311
ri	-9.80421
▁накануне	-9.80588
▁занима	-9.80597
▁Конечно	-9.80612
▁отказ	-9.80634
▁семь	-9.80639
▁обеспечит	-9.80751
▁органы	-9.80848
еля	-9.81001
▁войск	-9.81023
▁повышени	-9.81124
▁актер	-9.81143
ложить	-9.81161
▁маршрут	-9.81202
▁кв	-9.81294
ющих	-9.81359
▁плохо	-9.81394
каз	-9.81406
▁оперативно	-9.81501
▁дать	-9.81506
▁депутаты	-9.81508
▁Госдуму	-9.81529
нер	-9.81712
▁думаю	-9.81752
▁генерал	-9.81798
▁составит	-9.81822
енный	-9.81845
▁D	-9.81856
▁предварительны	-9.81865
▁продолжает	-9.81969
▁продолжит	-9.8201
▁дни	-9.82018
▁га	-9.82034
▁системе	-9.82077
давать	-9.82099
▁борьбы	-9.82118
За	-9.8215
иц	-9.82151
▁округа	-9.82161
шь	-9.82199
ирует	-9.82223
▁создани	-9.82285
M	-9.82353
▁страна	-9.82363
▁W	-9.82379
ому	-9.82392
▁века	-9.82498
▁шести	-9.82526
▁Потом	-9.82581
ович	-9.8259
▁проверки	-9.82603
▁объявил	-9.82667
▁движение	-9.82668
▁ул	-9.82679
:00	-9.82749
▁принимать	-9.82769
▁Reuters	-9.82779
▁апреле	-9.82779
ент	-9.82918
▁представил	-9.82999
ических	-9.83029
▁занимал	-9.83044
▁новым	-9.83379
▁история	-9.83438
▁Хилл	-9.83439
нин	-9.83443
▁допинг	-9.83489
мат	-9.83501
енно	-9.83514
▁публикаци	-9.83555
▁той	-9.83598
▁завод	-9.83624
▁медицинско	-9.83647
▁площадь	-9.83659
це	-9.83675
олог	-9.83715
▁данном	-9.83813
in	-9.83815
банк	-9.83824
▁ну	-9.83865
▁Китая	-9.83882
▁ассоциаци	-9.83901
цов	-9.83995
▁пе	-9.84052
▁пожар	-9.84067
▁состояние	-9.84103
▁сутки	-9.84104
На	-9.84149
▁начать	-9.84191
▁высоко	-9.84193
▁женщины	-9.84259
▁контакт	-9.84263
▁запас	-9.84271
▁подход	-9.84324
▁дальше	-9.84327
▁подал	-9.84328
▁успешно	-9.84368
фер	-9.84446
▁пообещал	-9.84462
▁остальны	-9.84469
▁Хо	-9.84562
▁страну	-9.84643
▁ряда	-9.84755
мин	-9.8484
▁("	-9.84874
▁события	-9.84885
▁режиссер	-9.84923
▁обеспечени	-9.84958
▁Витали	-9.84994
▁36	-9.85157
or	-9.8517
▁заказ	-9.85217
▁недавно	-9.85218
▁буду	-9.85254
пе	-9.85272
▁комплекса	-9.8538
▁вечером	-9.85384
▁дорожно	-9.85402
▁открыто	-9.8544
▁Сочи	-9.85479
▁наук	-9.85483
▁мед	-9.85609
▁Кубк	-9.85678
меть	-9.85684
▁сама	-9.85766
▁дает	-9.85781
▁разговор	-9.85805
▁расходы	-9.85806
Власти	-9.85929
▁кампании	-9.8605
▁мужчин	-9.86066
▁Роман	-9.86114
re	-9.86266
▁гол	-9.86282
огда	-9.86345
▁Apple	-9.86347
▁будущем	-9.86347
▁домов	-9.8637
▁сезона	-9.86412
▁сервис	-9.8645
иль	-9.86469
▁террористов	-9.86507
▁происшествия	-9.86564
▁вес	-9.86579
ложил	-9.86592
▁общества	-9.86598
▁рейс	-9.86599
ден	-9.86682
Это	-9.86762
▁кол	-9.86768
▁нашли	-9.86792
▁Интернет	-9.86802
▁Вчера	-9.86809
▁жив	-9.86821
ложен	-9.86949
менить	-9.86992
▁портал	-9.87062
▁ж	-9.87092
прокомментировал	-9.8719
▁добычи	-9.87259
рат	-9.8728
k	-9.87284
▁труда	-9.87356
▁Был	-9.87381
▁существует	-9.87489
ас	-9.87564
▁поле	-9.87592
▁конкурс	-9.87602
▁гражданско	-9.87617
▁кур	-9.87767
▁предприятий	-9.87788
▁уточнил	-9.87846
▁ер	-9.87862
▁политике	-9.87874
▁программу	-9.87892
▁кроме	-9.87964
▁нынешне	-9.87964
▁состояни	-9.87972
▁матча	-9.88018
▁праздник	-9.88029
▁фактически	-9.88068
▁незаконно	-9.88075
▁партия	-9.88098
▁мой	-9.88171
▁самые	-9.8828
▁80	-9.88296
▁требования	-9.88397
▁временно	-9.884
▁Барак	-9.88458
▁метод	-9.88484
▁Больш	-9.88518
▁Ме	-9.88579
▁систем	-9.88605
▁летом	-9.88639
▁московско	-9.88688
дал	-9.88698
▁губернатора	-9.88733
▁абсолютно	-9.88801
▁мин	-9.88822
▁Ра	-9.88858
▁согласи	-9.88928
станут	-9.88931
▁телефон	-9.88932
▁экспертов	-9.88939
.00	-9.88955
N	-9.88976
▁2010	-9.88979
ющей	-9.8902
стер	-9.8904
▁2008	-9.89043
▁Эксперт	-9.89046
▁совершени	-9.89093
▁i	-9.89095
▁пуст	-9.891
Зенит	-9.89109
ски	-9.89117
▁38	-9.89155
▁СК	-9.89203
▁пер	-9.89218
▁Ин	-9.89266
ur	-9.8927
бу	-9.89282
▁кризиса	-9.893
▁возможны	-9.89321
▁карт	-9.8933
▁помочь	-9.89342
▁статье	-9.89365
▁группировки	-9.89367
▁Марк	-9.89367
фор	-9.89387
▁российском	-9.894
▁модель	-9.89436
выше	-9.89479
▁регионах	-9.89571
ight	-9.89577
▁сотрудничества	-9.89587
▁списк	-9.89587
▁оста	-9.89603
вая	-9.89753
▁издания	-9.89761
▁ны	-9.89767
▁экспорт	-9.89777
▁другими	-9.89799
▁Надежд	-9.89895
▁девят	-9.89905
▁реально	-9.89912
▁рождения	-9.89954
▁американско	-9.90038
▁провинци	-9.90047
▁34	-9.90069
▁формировани	-9.90097
▁всему	-9.9011
▁опер	-9.90177
гра	-9.90229
ности	-9.90237
▁массово	-9.90286
▁Второ	-9.90298
▁новом	-9.90392
▁народ	-9.90398
▁отметили	-9.9043
▁заседания	-9.90468
▁служба	-9.90476
▁превыша	-9.90521
▁000	-9.90526
ступ	-9.90629
▁исполнени	-9.90635
▁организатор	-9.90703
▁внутренне	-9.90712
▁коллег	-9.90738
▁чаще	-9.90758
ическо	-9.90845
Павел	-9.90892
▁находил	-9.90955
Спартак	-9.90994
▁десять	-9.90999
нской	-9.91222
дж	-9.91232
▁университета	-9.91256
▁обнаружили	-9.91282
▁должности	-9.91295
▁делает	-9.9134
▁замен	-9.9136
▁положение	-9.91368
▁лидера	-9.91391
▁большинств	-9.9143
▁Лиг	-9.91446
▁Болгарии	-9.9147
▁K	-9.9147
чик	-9.91484
▁ГУ	-9.91558
▁жить	-9.91597
▁Хотя	-9.91712
▁указ	-9.9174
▁корреспондент	-9.91756
▁успех	-9.91782
фи	-9.91861
▁политика	-9.91918
▁1,5	-9.91977
▁разработк	-9.92098
вшихся	-9.9213
▁прибыль	-9.92162
▁Правда	-9.92194
▁цель	-9.92215
▁программа	-9.92272
▁c	-9.92333
▁занял	-9.92348
▁структуры	-9.92368
▁судебно	-9.9239
▁суде	-9.92396
▁ному	-9.9255
R	-9.92552
▁товаров	-9.92566
чер	-9.9261
вшие	-9.92674
▁бр	-9.92683
▁огня	-9.92738
▁торговы	-9.92752
▁занимать	-9.92767
▁отдельны	-9.9277
▁создания	-9.92785
▁аэропорта	-9.9285
казались	-9.92938
▁Мар	-9.92949
▁контроля	-9.93001
▁модели	-9.93003
Ведь	-9.93067
овый	-9.93109
▁прием	-9.9311
▁Министерство	-9.93176
ro	-9.93222
▁ставки	-9.9327
,5	-9.93277
▁мигрантов	-9.93293
▁документа	-9.93297
▁покупк	-9.93311
▁Олимпийски	-9.93312
▁ради	-9.93338
▁поток	-9.93377
▁Многи	-9.934
▁неоднократно	-9.934
▁гендиректор	-9.93427
▁км	-9.93468
▁отставку	-9.93474
раздо	-9.93499
▁министерства	-9.93514
▁може	-9.9353
▁случай	-9.93539
▁совершил	-9.93644
O	-9.93746
ания	-9.93814
▁др	-9.93855
E	-9.93874
at	-9.93882
▁историю	-9.93889
▁реальны	-9.93894
▁концерт	-9.93979
▁отказа	-9.94023
▁Че	-9.94066
▁понять	-9.94071
▁утром	-9.94082
▁уход	-9.94085
▁смартфон	-9.94134
▁восемь	-9.94134
et	-9.94291
▁ло	-9.94313
▁европейско	-9.94321
▁освобожден	-9.94366
▁июле	-9.94386
▁следующе	-9.94405
▁Минфин	-9.94524
­	-9.94585
▁кажется	-9.94593
▁ВВП	-9.94626
▁авиакомпани	-9.94664
▁внешне	-9.94676
бежать	-9.94683
▁соответствующи	-9.94694
▁сообщения	-9.94694
▁приче	-9.94763
юсь	-9.94798
▁расчет	-9.94812
▁увеличил	-9.94827
▁Ал	-9.94832
▁охран	-9.94867
▁правил	-9.94868
▁Италии	-9.94873
▁водитель	-9.94881
▁далеко	-9.94884
род	-9.94885
▁августе	-9.94901
▁масс	-9.94981
премьер	-9.95031
▁Анн	-9.95065
ген	-9.95093
▁доля	-9.95099
▁условий	-9.9512
▁Татьян	-9.9512
▁кандидата	-9.95177
▁роли	-9.95236
ук	-9.95252
▁числа	-9.95336
▁оказалось	-9.95339
▁называют	-9.95343
▁Вячеслав	-9.95368
▁Денис	-9.95372
олько	-9.95375
новую	-9.95387
▁специалисты	-9.95396
▁инцидент	-9.95458
▁ген	-9.95461
тон	-9.95489
▁мае	-9.95611
▁90	-9.95716
▁существенно	-9.95766
▁спортивны	-9.95825
▁лишени	-9.9583
▁западны	-9.95856
▁депутата	-9.95876
ируют	-9.95877
▁правительственн	-9.95912
▁Причин	-9.95944
▁структур	-9.95968
▁ар	-9.95989
▁мол	-9.96072
бол	-9.96079
▁Ло	-9.96086
▁максимально	-9.96116
▁Крыму	-9.96145
▁приехал	-9.96151
▁зарегистрирован	-9.96153
▁ированны	-9.96156
▁Верховно	-9.9618
▁Тако	-9.96194
▁язык	-9.96197
гер	-9.96249
▁сад	-9.96272
емся	-9.96274
▁относительн	-9.96327
▁отказался	-9.96333
▁стара	-9.96345
▁голов	-9.96358
▁предсто	-9.96431
▁правила	-9.9647
▁Республики	-9.96563
▁ась	-9.96607
▁Гор	-9.9665
▁борту	-9.96731
▁среднем	-9.9674
▁55	-9.96756
▁отделения	-9.96821
▁Гос	-9.96823
скоре	-9.96861
▁посла	-9.96903
▁Уже	-9.96905
▁технически	-9.96917
▁выиграл	-9.96955
▁политически	-9.96991
▁отметила	-9.97009
ился	-9.97016
▁цел	-9.97023
▁продаж	-9.97135
ших	-9.97147
лик	-9.97177
▁проводить	-9.97233
▁регулярно	-9.97238
▁медицински	-9.97282
▁Эта	-9.97327
▁торговли	-9.97347
▁дорог	-9.97357
▁позицию	-9.97376
▁трети	-9.97379
▁отмен	-9.97402
▁объявлен	-9.97473
▁ен	-9.97474
▁смог	-9.9751
▁городски	-9.97545
▁развитию	-9.97548
▁вод	-9.97596
▁потребовал	-9.97604
▁активов	-9.97644
гин	-9.97675
▁вопросов	-9.97714
▁ответил	-9.9773
▁знаю	-9.97772
▁урегулировани	-9.97785
▁пр	-9.97805
▁программе	-9.9785
▁отрасли	-9.97884
▁учреждения	-9.9789
▁Те	-9.97919
▁частны	-9.9793
▁Почему	-9.98008
▁базе	-9.9809
▁сенатор	-9.98143
▁серии	-9.9817
▁призыв	-9.98181
▁турнира	-9.98183
▁Иран	-9.9824
▁нужны	-9.98258
▁цели	-9.98408
▁воздушно	-9.98459
▁предусмотрен	-9.98583
ска	-9.98601
▁Мин	-9.98608
▁определенны	-9.98644
▁парламент	-9.98649
▁доллара	-9.98678
▁народно	-9.98767
вес	-9.98769
▁доходов	-9.98774
▁смен	-9.98778
▁турецки	-9.98793
▁палаты	-9.98825
▁разные	-9.98833
▁КНДР	-9.98908
вших	-9.99016
▁Их	-9.9902
ходить	-9.99023
нюю	-9.99028
▁порядке	-9.99039
под	-9.99201
▁Бр	-9.99254
тур	-9.99258
▁акционер	-9.99294
B	-9.99306
уют	-9.99364
нуть	-9.99393
▁окончани	-9.99425
▁стоимости	-9.99425
▁сегодняшни	-9.99426
атор	-9.99428
▁сколько	-9.99432
▁другим	-9.99497
шей	-9.9955
скую	-9.99587
▁доход	-9.99697
рак	-9.99801
▁взрыва	-9.99815
▁сред	-9.99844
▁сын	-9.99949
▁Госдум	-9.99969
▁Пере	-10.0001
▁продуктов	-10.0003
ству	-10.0006
▁сь	-10.001
▁Центрально	-10.0011
▁днем	-10.0017
▁прокуратуры	-10.002
▁проведение	-10.0025
Ш	-10.0028
▁400	-10.0043
▁Вечер	-10.0044
шев	-10.0044
Не	-10.0051
▁победы	-10.006
▁знаком	-10.0063
▁Ру	-10.0068
▁Сер	-10.0071
▁оппозиции	-10.0072
▁сожалению	-10.0073
▁ова	-10.008
▁остава	-10.009
▁клиентов	-10.0091
▁выполнени	-10.0099
ала	-10.0107
▁Ирин	-10.0109
▁показал	-10.0112
▁миллиардов	-10.0117
су	-10.0121
▁помощник	-10.013
▁подписал	-10.0135
▁часа	-10.0135
▁нов	-10.0138
▁Раз	-10.014
▁аэропорту	-10.0147
▁требовани	-10.0149
▁американской	-10.0149
▁правило	-10.0149
▁Бар	-10.0152
▁современно	-10.0153
▁кредит	-10.0155
▁отсутствие	-10.0159
ток	-10.0163
▁сторон	-10.0165
▁мастер	-10.017
пад	-10.0172
▁конкретны	-10.0178
▁двое	-10.0178
▁здоровья	-10.0178
▁офис	-10.0179
ость	-10.0181
шка	-10.0182
▁пришли	-10.0182
▁сторона	-10.0185
▁объединени	-10.0188
▁150	-10.0189
▁жалоб	-10.0189
▁современны	-10.0195
▁Правительство	-10.0202
▁побед	-10.0204
▁людям	-10.0205
▁отметить	-10.0205
ланд	-10.0206
рыв	-10.0207
▁мэр	-10.0211
▁правда	-10.0211
▁самостоятельно	-10.0212
▁собирается	-10.0215
▁отдела	-10.0217
▁Иванов	-10.0221
▁неизвестны	-10.0231
▁протяжени	-10.0231
▁политик	-10.0236
▁поиск	-10.0245
▁тариф	-10.0246
▁трудно	-10.0248
иков	-10.0252
вали	-10.0253
▁ем	-10.0255
▁поддержке	-10.0257
▁эффект	-10.0257
кан	-10.0259
▁появля	-10.0259
ia	-10.0265
держ	-10.0266
▁конкурса	-10.0267
▁прибыли	-10.0269
▁каждого	-10.0271
it	-10.0272
▁сумма	-10.028
▁успел	-10.028
▁проекты	-10.028
НИ	-10.0285
▁стрельб	-10.0285
▁пострадали	-10.0287
▁миллиарда	-10.0291
евич	-10.0294
▁увеличить	-10.0295
▁союза	-10.0297
▁?"	-10.0299
▁предварительно	-10.0301
▁Лу	-10.0305
▁Гу	-10.0308
▁имущества	-10.0311
▁соответственно	-10.0311
▁путем	-10.0312
ге	-10.0312
▁утверждает	-10.0313
▁ежегодно	-10.0314
▁главным	-10.0321
▁квартале	-10.0324
▁тр	-10.0327
▁здание	-10.0327
▁чемпионат	-10.0328
▁советско	-10.0332
h	-10.0339
▁обвинил	-10.0342
▁ядерно	-10.0343
▁семье	-10.035
▁решить	-10.0351
▁главное	-10.0352
▁класс	-10.0358
▁использования	-10.0369
▁транспортны	-10.0369
▁раздел	-10.0373
▁экран	-10.0375
▁ди	-10.0379
▁услуги	-10.0381
▁применени	-10.0384
▁долг	-10.0384
▁корпораци	-10.0392
▁степени	-10.0392
▁руки	-10.0398
▁след	-10.0405
F	-10.041
▁мо	-10.041
▁Вмест	-10.0414
▁научно	-10.0415
рин	-10.0419
▁Та	-10.0419
▁Институт	-10.0419
▁Китае	-10.0419
▁Причем	-10.042
▁расходов	-10.0421
ошли	-10.0423
▁вести	-10.0423
▁общи	-10.0424
▁меж	-10.0433
▁советски	-10.0433
▁детско	-10.0437
▁сирийски	-10.0441
▁средне	-10.0442
▁пакет	-10.045
▁Зде	-10.0451
▁молодо	-10.0451
нев	-10.0453
▁появил	-10.0456
▁Красно	-10.0457
▁друга	-10.0457
дор	-10.0463
▁участвова	-10.0463
▁зафиксирован	-10.0463
▁ность	-10.0463
▁перевод	-10.0463
▁экономике	-10.0474
▁онлайн	-10.0479
▁директоров	-10.048
▁лучши	-10.0481
▁2009	-10.0481
▁сложности	-10.0481
T	-10.0484
▁требует	-10.0486
▁зависи	-10.0494
▁информационно	-10.05
▁48	-10.05
иров	-10.0501
▁имя	-10.0506
▁каждом	-10.0507
▁Им	-10.0511
▁Сил	-10.0518
▁Вер	-10.052
▁политических	-10.0524
▁жил	-10.0527
▁би	-10.0531
▁co	-10.0532
нский	-10.0539
▁спец	-10.0544
▁технологий	-10.0544
▁расположен	-10.0545
▁спор	-10.0546
▁сильны	-10.0548
лер	-10.055
▁Twitter	-10.0556
▁нынешни	-10.0556
▁промышленности	-10.0557
le	-10.0558
щик	-10.0564
▁39	-10.0569
мент	-10.0571
▁час	-10.0572
▁дополнительно	-10.0574
▁позже	-10.0575
▁начало	-10.0576
▁критик	-10.0577
▁ведут	-10.0582
▁немного	-10.0582
▁инвестиций	-10.0584
▁зависимости	-10.0584
▁честь	-10.0584
▁влияние	-10.0585
ic	-10.0585
▁возраст	-10.0585
▁июне	-10.0586
▁снизил	-10.0592
▁конкурент	-10.0593
▁проведен	-10.0593
▁Мария	-10.0597
▁источники	-10.0605
▁секретар	-10.062
▁мор	-10.0622
▁коллеги	-10.0625
▁номер	-10.063
▁чемпионате	-10.063
▁эфире	-10.0633
▁странице	-10.0635
дар	-10.0636
▁t	-10.0644
▁получит	-10.0651
▁ученые	-10.0667
▁рабоче	-10.0669
▁Рас	-10.0671
▁отправил	-10.0677
▁улица	-10.0681
▁делегаци	-10.0695
▁Турция	-10.0695
▁годах	-10.0695
▁специалистов	-10.07
▁север	-10.0702
▁Киеве	-10.0704
▁аль	-10.0711
жу	-10.0711
▁правильно	-10.0713
▁Донбассе	-10.0717
G	-10.0718
▁запланирован	-10.0722
▁ру	-10.0722
ание	-10.0738
▁журналист	-10.0739
▁проводят	-10.0741
▁X	-10.0747
la	-10.0748
▁международным	-10.0751
▁саммит	-10.0751
▁Рос	-10.0758
▁кому	-10.0758
воз	-10.0761
▁Чере	-10.0762
▁42	-10.0764
▁странами	-10.0766
▁механизм	-10.0766
▁событий	-10.0766
▁вос	-10.0772
▁туристов	-10.0774
▁представляет	-10.0776
▁брат	-10.0781
▁противо	-10.0784
▁звезд	-10.0787
▁оплат	-10.0799
▁низки	-10.0806
▁руководства	-10.0808
▁столько	-10.0811
▁попал	-10.0814
▁приговор	-10.0817
▁спикер	-10.0819
▁транспортно	-10.0819
▁сигнал	-10.0824
нная	-10.0825
el	-10.0829
▁Кстати	-10.0835
▁трлн	-10.0835
▁рекорд	-10.0847
▁повышение	-10.0848
президент	-10.085
▁капитал	-10.0858
пов	-10.086
ta	-10.0872
▁километров	-10.0874
стра	-10.0875
▁небольшо	-10.0877
▁союз	-10.0877
▁бар	-10.0878
▁режиме	-10.088
▁отдел	-10.0883
▁таком	-10.0883
▁Премьер	-10.0892
▁подозрени	-10.0892
▁писал	-10.0897
▁аналогичны	-10.0908
▁аппарат	-10.0908
▁Фонд	-10.0921
Известиям	-10.0922
▁ранения	-10.0922
ря	-10.0927
ниц	-10.0933
▁хозяйства	-10.0933
▁боя	-10.0943
▁Новый	-10.0944
▁московски	-10.0944
▁прокурор	-10.0948
▁мужчины	-10.095
мар	-10.0953
▁народны	-10.0954
▁сотрудникам	-10.0957
▁Кур	-10.0959
▁вывод	-10.0967
▁больницу	-10.0968
▁заседание	-10.0968
▁сезоне	-10.0971
▁обсуждени	-10.0971
▁лидеров	-10.0974
▁печат	-10.0975
▁объяснил	-10.0977
▁усилия	-10.0977
▁подобно	-10.0981
▁направлении	-10.0984
▁коп	-10.0986
▁штаб	-10.0996
▁возрасте	-10.1002
▁фигур	-10.1002
▁исключительно	-10.1006
▁жилья	-10.1006
кер	-10.1007
▁чемпион	-10.1008
рк	-10.1009
▁научны	-10.101
20	-10.101
▁буд	-10.1011
▁технологии	-10.1024
▁ельны	-10.1024
▁ожидается	-10.1033
▁заявк	-10.1033
▁утвержден	-10.1034
▁телеканала	-10.1034
▁вызов	-10.1036
ТАСС	-10.1036
▁мисси	-10.1036
▁ор	-10.1042
▁вещи	-10.1045
▁окончательно	-10.105
▁каждо	-10.1055
▁задача	-10.1055
купить	-10.1056
▁Екатерин	-10.1058
▁зарубежны	-10.1064
▁составлял	-10.1067
▁завода	-10.1071
▁нашим	-10.1078
▁оп	-10.108
▁введен	-10.1087
▁Азербайджан	-10.1093
чит	-10.1093
▁район	-10.1095
▁театра	-10.1104
▁момента	-10.1109
30	-10.1109
▁вопросу	-10.111
▁федерации	-10.1111
▁Леонид	-10.1122
▁вовсе	-10.1126
▁марки	-10.1129
▁договора	-10.1129
▁назва	-10.1133
▁другом	-10.1134
▁правам	-10.1135
▁Мал	-10.1138
▁сложны	-10.1138
▁турецко	-10.1139
жен	-10.114
▁блок	-10.1149
▁Google	-10.1151
▁ности	-10.1153
▁границы	-10.1156
▁счетом	-10.1157
▁временем	-10.1159
▁предмет	-10.1161
▁партий	-10.1167
▁радио	-10.1169
▁свободно	-10.1171
▁финал	-10.1171
ивать	-10.1185
▁банковск	-10.1189
▁ракеты	-10.1189
▁британско	-10.1196
▁обязанност	-10.1199
▁выплаты	-10.1199
▁проверку	-10.1201
Ч	-10.1202
▁партнер	-10.121
▁Новосибирск	-10.121
▁Светлан	-10.121
▁судебны	-10.1216
▁Политика	-10.1217
▁сообщение	-10.1219
▁оружие	-10.1225
▁потерял	-10.123
▁ировать	-10.1231
▁выхода	-10.1232
▁Пан	-10.1235
▁генеральны	-10.1235
▁выросл	-10.1236
▁Депутат	-10.1239
▁Отметим	-10.1239
▁давление	-10.1241
▁административно	-10.1244
▁(1	-10.1244
▁денежны	-10.1246
▁Украину	-10.1248
вяз	-10.1256
▁Зате	-10.1257
▁Чтоб	-10.1261
▁старт	-10.1262
▁Эрдоган	-10.1264
▁огромны	-10.1268
▁крушени	-10.1269
▁полагает	-10.1269
▁наказание	-10.127
▁внесен	-10.127
▁широко	-10.1276
нт	-10.1296
▁порядок	-10.1298
▁турнир	-10.1298
▁изменений	-10.1299
▁крае	-10.1308
il	-10.131
▁любы	-10.1322
▁сер	-10.1326
▁заключил	-10.1328
▁capt	-10.1328
▁предприниматель	-10.133
пасть	-10.1332
Роснефт	-10.1353
▁газеты	-10.1355
▁техническо	-10.1356
▁Пресс	-10.1358
▁мероприятий	-10.1362
▁группе	-10.1363
▁лучших	-10.1367
▁следующем	-10.1367
▁готовит	-10.1367
сов	-10.1373
▁размещен	-10.1375
▁увеличени	-10.1378
▁обстоятельства	-10.1381
стан	-10.1382
▁говоря	-10.1387
·	-10.1387
▁Ирана	-10.1393
▁Информационн	-10.1398
▁уж	-10.1398
раб	-10.1399
▁традиционно	-10.1402
▁бу	-10.1416
▁роман	-10.1417
▁Керри	-10.1418
▁городов	-10.1418
лез	-10.1421
▁основани	-10.1423
▁l	-10.1423
Ес	-10.1423
▁избирательно	-10.1427
▁Ор	-10.1429
▁финансирования	-10.1439
▁сеть	-10.1443
▁Кирилл	-10.1447
▁праймериз	-10.1447
▁полученны	-10.1449
▁эксплуатаци	-10.145
ьев	-10.1471
▁рулем	-10.1478
кануне	-10.1478
▁позволил	-10.148
▁начина	-10.1481
▁участвовал	-10.1482
▁годом	-10.1483
▁действующи	-10.1494
▁примеру	-10.1495
▁двор	-10.15
пар	-10.1502
▁гривен	-10.1508
z	-10.1512
▁качества	-10.1512
▁политику	-10.1514
▁e	-10.1516
востоке	-10.1518
▁базы	-10.1521
▁массовы	-10.1528
▁пройти	-10.1531
лав	-10.1533
▁памяти	-10.1538
▁поставил	-10.1538
центр	-10.1539
▁предоставлени	-10.1542
▁семей	-10.1545
▁Вести	-10.1549
▁позиция	-10.1552
▁ста	-10.1554
▁падение	-10.1556
▁запуск	-10.1557
льных	-10.1559
▁Юли	-10.1559
▁включен	-10.1562
▁входит	-10.1564
цию	-10.1568
▁исторически	-10.1568
дан	-10.1573
▁риск	-10.158
▁обрати	-10.158
▁команду	-10.1581
▁скандал	-10.1583
▁ически	-10.1584
▁мировы	-10.1585
бин	-10.1586
▁столь	-10.1592
▁убийство	-10.1602
▁запрещен	-10.1606
чив	-10.1608
▁здравоохранения	-10.1615
▁доходы	-10.1618
шин	-10.1621
▁спрос	-10.1623
▁автобус	-10.1625
▁ри	-10.1627
первых	-10.1627
Петербурге	-10.1628
ведения	-10.163
▁ЦИК	-10.163
▁сообщают	-10.164
▁оборон	-10.165
▁проводил	-10.1651
влек	-10.1655
▁чиновников	-10.1657
▁большим	-10.1659
озле	-10.1666
▁налоговы	-10.1673
▁снял	-10.1683
▁едино	-10.1686
▁цвет	-10.1686
▁ший	-10.1688
▁энерго	-10.1689
▁вопроса	-10.1689
▁стратегически	-10.1696
▁считать	-10.1705
▁рода	-10.171
▁подряд	-10.1715
▁электронны	-10.1719
▁сто	-10.1722
аж	-10.1722
▁ребенок	-10.1722
▁стандарт	-10.1724
ошел	-10.1727
▁ист	-10.1727
▁личны	-10.1732
могло	-10.1733
▁бюджетны	-10.1736
▁направил	-10.1744
▁квартал	-10.1749
▁физически	-10.1756
▁агентств	-10.176
▁$2	-10.1762
▁Фа	-10.1762
▁ведомстве	-10.1767
▁банки	-10.1768
▁Комитет	-10.1769
▁дальнейше	-10.1773
▁падения	-10.1776
▁Чу	-10.1776
▁инвесторов	-10.1777
▁ресурс	-10.1781
▁пунктов	-10.1782
▁претензи	-10.1784
▁операция	-10.1784
▁сельско	-10.1792
тра	-10.1794
▁шоу	-10.1802
▁Запад	-10.1803
st	-10.1805
▁Наталья	-10.1808
▁затрат	-10.1812
▁46	-10.1814
▁Следственно	-10.1815
▁платформ	-10.1815
▁Вадим	-10.1815
нцев	-10.1817
▁приняти	-10.1821
▁Министерства	-10.1823
ce	-10.1823
▁ков	-10.1825
▁КПРФ	-10.1827
li	-10.1832
▁хорош	-10.1837
▁Ги	-10.1845
▁миру	-10.1847
▁­	-10.1851
▁убийстве	-10.1853
▁выгляд	-10.1856
▁коллектив	-10.1859
▁Бел	-10.186
▁миллион	-10.1861
Газета	-10.1864
▁выпуск	-10.1865
▁пострадавших	-10.1871
▁состава	-10.1872
▁имел	-10.1874
оль	-10.1874
▁Анатоли	-10.1878
▁сохранить	-10.1878
▁хочу	-10.1878
вол	-10.189
▁нова	-10.1891
▁вклад	-10.1891
▁пользователей	-10.1893
▁китайски	-10.1894
L	-10.1895
▁отдельно	-10.1897
▁граждане	-10.19
летня	-10.1902
▁коллекци	-10.1909
▁Евросоюз	-10.1916
▁выступления	-10.1919
▁ль	-10.1921
▁статьи	-10.1923
▁Рад	-10.1924
▁принадлеж	-10.1927
▁эконом	-10.1931
▁завершени	-10.1931
▁случаев	-10.1941
▁земли	-10.1941
▁квартиры	-10.1941
▁концу	-10.1941
▁умер	-10.1944
▁компьютер	-10.1945
▁журнал	-10.1945
▁национальны	-10.195
▁Сан	-10.1952
▁исследований	-10.1952
ывать	-10.1953
▁вышл	-10.1956
писать	-10.1956
▁торгово	-10.1961
▁желание	-10.1967
щенко	-10.1968
пут	-10.1969
▁треть	-10.1969
ирования	-10.1971
▁Возможно	-10.1972
▁аварии	-10.1972
нц	-10.1973
▁ограничения	-10.1974
▁44	-10.1974
▁избран	-10.198
▁порт	-10.1992
▁общем	-10.1992
▁продолжают	-10.1994
▁конференции	-10.1995
▁оказать	-10.1999
▁десяти	-10.2
▁создал	-10.2004
▁отличие	-10.2013
▁заметил	-10.2015
▁аэропорт	-10.2018
▁сделки	-10.2019
▁основан	-10.2021
▁Нет	-10.2024
▁вырос	-10.203
▁взять	-10.2032
ница	-10.2035
тек	-10.2036
▁сократил	-10.2039
след	-10.2042
▁прокат	-10.2043
▁художник	-10.2044
▁следственно	-10.205
▁опасны	-10.2053
▁используют	-10.2053
▁бор	-10.2055
▁спорт	-10.2055
▁сторонник	-10.2066
▁объясняет	-10.2066
▁Му	-10.2067
▁колонии	-10.2068
▁поможет	-10.2068
▁сыграл	-10.2068
▁действующе	-10.2069
▁моря	-10.2071
▁упал	-10.2085
шего	-10.2087
▁возраста	-10.2089
▁ВТБ	-10.2092
▁интересы	-10.2093
гран	-10.2094
ческая	-10.2094
▁проблему	-10.2097
▁ведомство	-10.2102
▁семи	-10.2107
шен	-10.211
нный	-10.211
▁президенту	-10.2111
▁суммы	-10.2115
▁инфраструктуры	-10.2121
ард	-10.2123
▁встречу	-10.213
,6	-10.2136
▁помог	-10.2137
▁развивать	-10.2138
▁многочисленны	-10.2141
▁защитник	-10.2144
▁одновременно	-10.2146
▁путь	-10.2147
▁сроки	-10.2148
льную	-10.215
▁спортивно	-10.2157
▁выручк	-10.2164
▁Пре	-10.2164
▁196	-10.2167
рев	-10.2176
пло	-10.2177
анов	-10.2177
три	-10.2185
▁проезд	-10.2197
▁авиации	-10.2198
вшийся	-10.2198
▁овой	-10.2201
▁p	-10.2206
вшей	-10.2211
▁49	-10.2212
▁Центр	-10.2214
▁Мак	-10.2216
▁47	-10.2219
▁министров	-10.2223
▁тела	-10.2224
▁театр	-10.2226
скать	-10.2226
▁огонь	-10.2229
▁планируют	-10.223
▁име	-10.2231
▁Кра	-10.2234
▁знакомы	-10.2235
▁ГИБДД	-10.224
,7	-10.2246
вор	-10.2248
▁частью	-10.2248
▁орган	-10.2249
▁r	-10.2254
Новости	-10.2257
▁Центра	-10.2262
▁оборудования	-10.2262
▁отдыха	-10.227
▁дали	-10.2272
▁сути	-10.2273
▁правительстве	-10.2274
▁крупно	-10.2275
▁населенны	-10.2278
▁результатам	-10.2282
будь	-10.2283
▁представителям	-10.2285
▁местах	-10.2288
▁приняты	-10.2291
▁знает	-10.2292
нос	-10.2294
▁Сообщается	-10.2294
▁родителей	-10.2294
▁выяснилось	-10.2295
▁единиц	-10.2295
▁оборот	-10.23
▁культур	-10.2305
▁нарушений	-10.2306
▁камер	-10.2307
▁43	-10.2307
▁материалы	-10.2311
ному	-10.2312
▁заключения	-10.2313
▁причастност	-10.2313
▁родил	-10.2313
▁старши	-10.2313
емых	-10.2316
▁комиссия	-10.2323
▁передач	-10.2324
▁каким	-10.2338
▁памятник	-10.2341
шло	-10.2341
▁построен	-10.2348
▁институт	-10.2351
ите	-10.2352
▁президенты	-10.2352
▁следствие	-10.2354
▁Кто	-10.2361
▁избирателей	-10.2363
друг	-10.2366
▁Па	-10.2369
▁голос	-10.237
▁ман	-10.2375
▁процесса	-10.2376
▁количества	-10.2378
▁военн	-10.2378
▁теракта	-10.2396
▁решений	-10.2397
▁Лев	-10.2401
▁57	-10.2406
кл	-10.2407
зор	-10.2407
▁убийства	-10.2418
▁влия	-10.242
.)	-10.2423
▁Кремля	-10.2426
▁ждет	-10.2426
▁рыб	-10.2432
▁госпож	-10.2433
▁ц	-10.2433
▁Полици	-10.2433
чные	-10.2434
чки	-10.2434
▁животных	-10.2437
енной	-10.2438
▁мотор	-10.2438
▁платеж	-10.2439
▁старше	-10.2444
▁съезд	-10.2453
ed	-10.2453
▁Главны	-10.2455
начально	-10.2457
▁страхов	-10.2457
pyr	-10.2459
▁опрошенны	-10.2459
▁письмо	-10.2459
▁работников	-10.2462
▁пожара	-10.2464
▁иначе	-10.2467
▁валют	-10.2474
▁столкну	-10.2474
▁целы	-10.2475
роде	-10.2475
▁Дело	-10.2479
ющихся	-10.248
▁укреплени	-10.2483
▁необходимость	-10.2487
▁Экс	-10.2488
▁знак	-10.2488
▁рад	-10.2489
▁инструмент	-10.2491
▁инфляции	-10.2493
▁компанией	-10.2493
▁Реч	-10.2497
▁безопасность	-10.2497
юр	-10.2499
▁50%	-10.2504
▁отказались	-10.2504
▁народа	-10.2506
▁Без	-10.2506
▁капитала	-10.2508
▁Автор	-10.2514
▁Перв	-10.2516
▁игроков	-10.2516
▁Европейско	-10.252
▁специалист	-10.2521
▁летни	-10.2524
Жанейро	-10.2526
▁розыск	-10.2526
▁транспорт	-10.2527
▁собственник	-10.2528
▁дипломат	-10.2533
▁Пар	-10.2534
▁случаях	-10.2536
▁чемпионов	-10.2538
▁китайско	-10.2541
▁тепло	-10.2541
▁картины	-10.2542
▁65	-10.2544
▁+	-10.2549
▁ночью	-10.2554
▁устройства	-10.2555
рес	-10.2559
▁гибели	-10.256
▁домашни	-10.256
▁полицию	-10.256
▁полицейские	-10.256
▁напоминает	-10.256
▁скончался	-10.2561
▁общество	-10.2564
▁билет	-10.2565
▁французско	-10.2566
▁2007	-10.2567
▁обязан	-10.2585
▁туда	-10.2588
▁процедур	-10.259
▁Юри	-10.259
th	-10.2592
ch	-10.2594
▁душ	-10.2594
▁финансирование	-10.2601
▁тело	-10.2603
▁эффективно	-10.2609
▁предприятие	-10.2613
▁подверг	-10.2617
эй	-10.2618
▁центрально	-10.2619
▁непосредственно	-10.2627
▁встретил	-10.2627
▁банковски	-10.2627
▁форме	-10.2629
▁Всемирно	-10.263
▁списка	-10.2631
▁кредитны	-10.264
несли	-10.2648
▁ущерб	-10.2651
▁ваш	-10.2652
елл	-10.2652
тели	-10.2652
▁долга	-10.2652
▁10%	-10.2654
▁компенсаци	-10.2661
▁дат	-10.2663
ing	-10.2664
▁штата	-10.2664
▁улицы	-10.2666
▁типа	-10.2677
▁сло	-10.2678
▁поля	-10.2681
▁положения	-10.2683
▁ресторан	-10.2685
▁теракт	-10.2687
▁называемы	-10.269
▁отечественн	-10.2692
▁акция	-10.2693
▁солдат	-10.2695
▁парк	-10.27
▁флаг	-10.2702
▁род	-10.2702
▁взял	-10.2702
ред	-10.2705
дти	-10.271
▁очков	-10.2713
▁чисто	-10.2715
▁супруг	-10.2718
▁сосед	-10.2725
▁кг	-10.2729
▁оборудование	-10.2732
▁действие	-10.2732
▁цене	-10.2735
нет	-10.2737
▁ти	-10.2738
▁игру	-10.2738
▁75	-10.2743
▁коррупции	-10.2747
▁долги	-10.2749
▁тест	-10.2754
пустить	-10.2755
-2016	-10.2756
▁обратить	-10.2756
▁означает	-10.2763
▁обсудил	-10.2763
▁197	-10.2765
ление	-10.2767
▁слов	-10.2772
▁бед	-10.2773
ПК	-10.2774
▁трое	-10.2775
▁закрыт	-10.2776
▁угрозы	-10.2778
шим	-10.278
▁волн	-10.2785
▁материалов	-10.2787
▁действова	-10.2788
▁боевики	-10.279
фе	-10.2793
▁множество	-10.2794
▁ля	-10.2794
▁Председател	-10.2798
▁водителя	-10.2798
▁института	-10.2801
▁юридически	-10.2804
▁квартир	-10.281
правления	-10.2813
▁знают	-10.2815
▁мобильны	-10.2817
ским	-10.282
▁курса	-10.2822
▁вирус	-10.2825
▁Кан	-10.2826
▁источников	-10.2827
▁реформ	-10.2827
▁проходил	-10.2828
▁стади	-10.2831
▁итоги	-10.2831
▁высше	-10.2832
▁ОПЕК	-10.2832
▁планы	-10.2835
▁кандидатур	-10.2836
▁2020	-10.2836
▁появится	-10.2837
▁коммерчески	-10.2839
▁плане	-10.2843
▁управляющи	-10.2843
▁помещени	-10.2844
▁команде	-10.2847
▁проходят	-10.285
службы	-10.285
▁выступал	-10.2854
▁захват	-10.2854
▁особы	-10.2855
▁сотрудничество	-10.2856
▁производителей	-10.2856
▁изменить	-10.2857
▁показали	-10.2858
▁уголовны	-10.2861
▁транс	-10.2861
▁потенциал	-10.2865
▁Кол	-10.2865
▁Белоруссии	-10.2867
▁вероятно	-10.2867
▁собак	-10.2868
▁судьб	-10.2869
▁административны	-10.2872
сен	-10.2873
тельно	-10.2873
Северной	-10.2878
▁золото	-10.288
▁собрал	-10.288
▁показать	-10.2881
▁писали	-10.2882
▁нападения	-10.289
▁фракции	-10.289
▁Евросоюза	-10.2893
▁изучени	-10.2896
▁подтвердили	-10.2896
▁Гол	-10.2899
▁$3	-10.29
▁ВВС	-10.2902
▁буквально	-10.2902
▁кин	-10.2903
▁группу	-10.2905
▁ников	-10.2905
▁зоны	-10.2906
▁борьб	-10.2906
▁U	-10.2907
▁Киева	-10.2913
Петербург	-10.2915
▁полном	-10.2916
▁передачи	-10.2918
▁стен	-10.2929
чный	-10.2929
▁объекта	-10.2933
▁бесплатно	-10.2934
▁интересно	-10.2934
▁спроса	-10.2936
▁юрист	-10.2937
▁власть	-10.2938
▁увеличение	-10.2938
▁передал	-10.2939
▁бур	-10.2943
▁er	-10.2943
▁аем	-10.2945
▁заключен	-10.2951
▁дер	-10.2958
фт	-10.2964
▁школе	-10.2965
▁электронно	-10.2965
▁участков	-10.2967
▁войска	-10.2968
▁Дале	-10.2976
▁Париже	-10.2988
▁регион	-10.2988
▁британски	-10.3002
▁команд	-10.3004
▁пользова	-10.3008
▁утра	-10.3009
▁нему	-10.3015
МС	-10.3018
▁достигл	-10.3018
▁остались	-10.3018
▁близки	-10.3019
▁работающи	-10.3019
▁покинул	-10.3023
▁средни	-10.3026
▁говорили	-10.3031
▁муниципальны	-10.3033
чка	-10.3034
▁стат	-10.3037
МК	-10.304
▁источника	-10.3041
▁реакци	-10.3043
▁качество	-10.3048
▁видно	-10.3049
▁президентски	-10.3054
▁заявлял	-10.3055
▁грозит	-10.3065
▁пришел	-10.3068
▁гражданин	-10.3068
▁победил	-10.3068
▁американский	-10.3069
▁f	-10.3073
▁актив	-10.3074
▁мяч	-10.3076
▁террористически	-10.3076
▁Group	-10.3077
▁Соединенны	-10.3077
▁самолетов	-10.3078
▁индекс	-10.3079
▁Петра	-10.3086
▁визит	-10.3087
▁матери	-10.3095
конференции	-10.3108
▁приз	-10.3109
▁постановлени	-10.3111
▁аукцион	-10.3113
▁полицейских	-10.3113
▁профессор	-10.3113
▁бороться	-10.3114
ывает	-10.3116
▁Некоторы	-10.3118
;	-10.3121
▁пострадал	-10.3124
▁популярны	-10.3124
▁готова	-10.3128
▁культурно	-10.3128
▁объект	-10.3132
▁Пу	-10.3133
ными	-10.3134
▁ающий	-10.314
▁Государственно	-10.3146
▁Али	-10.3147
▁кредитов	-10.3148
▁очевидно	-10.3148
▁выходит	-10.3152
▁субсиди	-10.3153
▁отсутстви	-10.3155
▁делают	-10.3155
▁расследовани	-10.3155
мор	-10.3156
▁n	-10.3157
▁содержание	-10.3158
овского	-10.3159
▁пункта	-10.3162
▁действуе	-10.3162
▁нашем	-10.3165
▁считаю	-10.3166
▁2,5	-10.3167
▁коммуникаци	-10.3169
▁расти	-10.317
▁восстановлени	-10.3171
▁Мор	-10.3175
▁Го	-10.3175
▁диалог	-10.3179
▁прошлы	-10.3181
▁Перво	-10.3181
▁продаже	-10.3182
▁земле	-10.3184
▁планировал	-10.3185
кий	-10.3188
▁тер	-10.3192
▁преимуществ	-10.3194
▁заинтересован	-10.3195
▁темп	-10.3196
▁университет	-10.3199
эл	-10.3203
▁o	-10.3203
▁назначения	-10.3203
▁(2	-10.3204
▁генеральн	-10.3207
▁Дума	-10.321
вид	-10.321
▁обстановк	-10.322
▁баланс	-10.322
▁Чита	-10.3221
▁обязательства	-10.3222
▁предусматривает	-10.3224
▁195	-10.3231
▁выс	-10.3232
▁чер	-10.3238
▁население	-10.3239
▁продукты	-10.324
▁опрос	-10.3243
нные	-10.3254
вел	-10.3255
▁внимания	-10.3256
▁существовани	-10.3256
▁недвижимости	-10.3256
▁News	-10.3257
▁[	-10.3258
-2	-10.3261
▁низко	-10.3263
▁Кир	-10.3269
▁класса	-10.3271
▁занимают	-10.3271
работать	-10.3274
▁Лондоне	-10.3276
▁Решение	-10.3279
▁правительств	-10.3286
▁разрушен	-10.3292
▁лист	-10.3292
▁Перед	-10.3292
▁предлагают	-10.3294
▁салон	-10.3296
▁брать	-10.3296
▁терактов	-10.3297
▁штат	-10.3299
▁способны	-10.3303
итель	-10.3307
▁органах	-10.3307
▁автомобили	-10.3307
▁дух	-10.3311
▁ТВ	-10.3312
▁прокуратура	-10.3313
▁поколения	-10.3315
▁поправки	-10.3318
сотни	-10.3323
▁овым	-10.3326
▁имущество	-10.3328
▁полномочий	-10.3328
▁Европу	-10.3328
▁соревнований	-10.3328
▁плюс	-10.3329
▁врач	-10.333
▁советник	-10.3334
порт	-10.3342
▁рук	-10.3347
▁внешни	-10.3352
▁20%	-10.3355
▁музыкант	-10.3362
▁компанию	-10.3364
▁городах	-10.3365
▁протест	-10.3368
▁Ти	-10.3372
▁высказал	-10.3375
▁рассматривает	-10.3375
▁Васили	-10.3378
▁оставил	-10.3378
последстви	-10.3381
▁открыты	-10.3382
▁задержаны	-10.3382
▁Стар	-10.3391
лей	-10.3393
ата	-10.3398
▁выдач	-10.3399
▁символ	-10.3399
▁растет	-10.3401
▁совещани	-10.3402
▁убежден	-10.3404
бот	-10.3406
▁дальнейшем	-10.3407
▁протеста	-10.3411
▁машина	-10.3416
▁обратно	-10.3422
▁интересов	-10.343
▁участникам	-10.3432
▁41	-10.3432
▁Вашингтон	-10.3434
▁Меркель	-10.3437
▁нужда	-10.3438
▁продолжать	-10.344
▁молодых	-10.3441
бежал	-10.3442
▁субъект	-10.3447
▁сложи	-10.3453
аков	-10.3454
▁Дом	-10.3457
▁овая	-10.3458
▁вред	-10.3461
▁считается	-10.3463
▁приказ	-10.3463
▁ались	-10.3463
▁травм	-10.3466
▁категории	-10.3471
▁мет	-10.3475
▁целях	-10.3475
▁Учены	-10.3476
▁предоставит	-10.3479
▁смерть	-10.3485
▁сына	-10.3486
▁всеми	-10.3495
▁черны	-10.3496
▁возвращени	-10.3501
▁развива	-10.3503
▁профессиональны	-10.3504
▁воспользова	-10.3511
▁увидеть	-10.3511
▁Мат	-10.3511
▁связь	-10.3511
▁Можно	-10.3512
▁премии	-10.3512
▁фотографи	-10.3512
ация	-10.3512
▁прода	-10.3517
▁футболист	-10.3518
▁продолжается	-10.3518
▁налог	-10.3521
▁встреч	-10.3521
▁мск	-10.3524
чук	-10.3534
▁морско	-10.3534
ении	-10.3538
лог	-10.354
▁военнослужащих	-10.3542
▁автомат	-10.3543
▁зарплат	-10.3545
▁Греции	-10.3548
▁заявлении	-10.3549
▁восьми	-10.355
▁микро	-10.355
▁закупк	-10.3553
▁отказать	-10.3555
▁график	-10.3557
▁совместны	-10.3562
▁активист	-10.3563
▁благо	-10.3563
▁Наш	-10.3564
▁мощность	-10.357
▁доста	-10.3571
▁лечение	-10.3573
платить	-10.3575
ышел	-10.3577
ставят	-10.3578
▁сокращение	-10.3578
▁шим	-10.3581
▁неизвестно	-10.3585
▁сюжет	-10.3585
▁ждать	-10.3587
▁отечественны	-10.3588
▁посольств	-10.3598
▁открыт	-10.36
▁оценкам	-10.3603
луч	-10.361
▁Ник	-10.3612
▁85	-10.3616
▁футбольно	-10.3617
▁слав	-10.3621
▁Челябинск	-10.3623
▁устроил	-10.3623
▁улучшени	-10.3626
▁фестиваля	-10.3629
▁намерены	-10.3632
▁снизи	-10.3633
▁искусства	-10.3634
▁600	-10.3635
Ж	-10.3636
▁предел	-10.3636
▁Сотрудники	-10.3637
▁бензин	-10.3638
▁тему	-10.3646
▁острова	-10.3648
▁дают	-10.3649
▁зале	-10.365
▁зарплаты	-10.3654
▁видит	-10.3656
▁снизить	-10.3657
лага	-10.3658
▁дискусси	-10.366
▁неожиданно	-10.366
Динамо	-10.366
коп	-10.3661
▁РАН	-10.3661
▁осталось	-10.3665
▁бомб	-10.367
▁продажу	-10.3672
чан	-10.3676
▁бизнесмен	-10.3676
▁контракта	-10.368
▁дожд	-10.368
▁куп	-10.3682
▁достиг	-10.3684
▁подразделения	-10.3691
есс	-10.3692
▁работник	-10.3696
▁останется	-10.3698
▁арестован	-10.3705
▁постепенно	-10.3707
▁доллар	-10.3707
▁владел	-10.3707
▁представить	-10.3714
▁публично	-10.3716
▁больнице	-10.3722
▁вышли	-10.3731
енные	-10.3733
▁будущи	-10.3737
▁видим	-10.3739
▁долю	-10.374
▁b	-10.3743
▁потеря	-10.375
▁числ	-10.3751
▁Союза	-10.3752
▁преступлений	-10.3752
ad	-10.3757
▁расс	-10.3757
▁Люди	-10.3757
▁Господи	-10.3763
▁ведущи	-10.3763
▁199	-10.3767
▁Павл	-10.3769
▁красно	-10.377
▁ев	-10.3772
Локомотив	-10.3773
▁хватает	-10.3773
▁версия	-10.3773
▁распоряжени	-10.3774
▁четверто	-10.3774
▁Кам	-10.3782
▁ба	-10.3792
▁зло	-10.3797
▁Ду	-10.3803
▁кажд	-10.3808
▁решать	-10.3809
ющим	-10.381
▁проспект	-10.3811
▁уверены	-10.3815
▁устройство	-10.3818
▁194	-10.3821
сер	-10.3824
▁Игр	-10.3824
▁юго	-10.3826
енного	-10.3829
▁пару	-10.3836
▁Кара	-10.3838
▁ключевы	-10.3838
▁началась	-10.3839
▁of	-10.3841
▁5%	-10.3841
▁больницы	-10.3841
▁приоритет	-10.3844
▁взят	-10.3844
▁подозреваем	-10.3848
▁поврежден	-10.3848
▁перевозк	-10.385
▁Пер	-10.385
▁техника	-10.3851
▁ждут	-10.3851
▁утверждают	-10.3851
евой	-10.3854
▁образование	-10.3855
дем	-10.3856
▁лент	-10.3859
▁идея	-10.3864
▁Международны	-10.3868
▁обвиняемы	-10.3874
▁овых	-10.3877
▁налога	-10.3878
тоимость	-10.3879
▁элемент	-10.388
▁прочи	-10.3882
▁чист	-10.3886
▁Обамы	-10.3888
▁примет	-10.3895
▁бл	-10.3898
▁ясно	-10.39
▁прямы	-10.3907
▁0	-10.391
зже	-10.3911
фр	-10.3921
▁играл	-10.3922
▁обычны	-10.3923
вен	-10.3923
▁Кремле	-10.3926
инов	-10.3927
▁набрал	-10.3927
сып	-10.3928
▁остаются	-10.3932
▁бой	-10.3938
▁оценки	-10.394
▁спокойно	-10.3943
сек	-10.3944
ступает	-10.3948
▁доклад	-10.3949
кова	-10.395
▁нашу	-10.3952
▁получают	-10.3954
▁получал	-10.3955
Москва	-10.3957
▁инженер	-10.3961
▁детям	-10.3965
▁иска	-10.3977
▁решен	-10.3981
▁инцидента	-10.3981
▁высокой	-10.3984
▁семья	-10.3986
▁интереса	-10.3988
Ю	-10.3993
▁кро	-10.3994
H	-10.3995
▁вступил	-10.3995
рас	-10.3997
▁времен	-10.3998
▁профессионально	-10.3999
▁обязательств	-10.4002
ош	-10.4002
▁границу	-10.4003
▁ИГИЛ	-10.4004
▁ww	-10.4004
▁доктор	-10.4004
▁родители	-10.4004
▁повлия	-10.4005
▁пят	-10.4009
▁домой	-10.4012
▁резерв	-10.4014
▁наличи	-10.4019
▁задачи	-10.4023
▁поздне	-10.4024
▁свобод	-10.4025
фа	-10.4032
▁документе	-10.4032
▁органам	-10.4033
▁оценивает	-10.4037
▁Бер	-10.404
▁коалиции	-10.4042
▁явно	-10.4044
рик	-10.4046
▁Сто	-10.4054
▁вкус	-10.4054
чно	-10.4054
▁площадк	-10.4055
▁немецки	-10.4057
▁видов	-10.4057
▁Марин	-10.4064
▁выезд	-10.4065
шла	-10.4068
ыш	-10.4073
▁следственны	-10.4077
▁iPhone	-10.4082
▁атмосфер	-10.4082
▁сотруднича	-10.4082
▁память	-10.4082
▁контроле	-10.4082
▁нужна	-10.4082
▁реестр	-10.4082
▁198	-10.4083
▁собирают	-10.4087
▁собственности	-10.4087
▁сверх	-10.4087
▁взятки	-10.4089
доб	-10.4095
▁слово	-10.4097
▁граждански	-10.4097
▁идеи	-10.4099
▁бесед	-10.4099
▁нормально	-10.4111
▁платить	-10.4112
▁указал	-10.4112
▁министерство	-10.4113
▁решению	-10.4113
▁традиционны	-10.4113
▁льно	-10.4114
чел	-10.4118
учить	-10.4118
▁новостей	-10.4121
▁Мутко	-10.4121
▁52	-10.4123
▁курорт	-10.4125
зин	-10.4126
▁столично	-10.4127
▁границе	-10.4134
▁сократить	-10.4136
V	-10.4141
▁знал	-10.4146
▁попыта	-10.4146
▁отношение	-10.4146
▁передан	-10.4147
▁остал	-10.4153
▁Хар	-10.4153
шиеся	-10.4154
▁in	-10.4155
▁завтра	-10.416
▁пал	-10.416
ol	-10.4161
▁футболу	-10.4163
▁доставлен	-10.4164
▁мост	-10.4165
ступить	-10.417
▁ДНР	-10.417
▁присоедини	-10.4172
▁любом	-10.4174
▁Красноярск	-10.4175
▁определени	-10.4177
▁норм	-10.4179
▁убит	-10.4186
▁проголосовал	-10.4193
▁ФАС	-10.4194
▁вину	-10.4197
▁россияне	-10.4198
▁начнут	-10.42
▁будущего	-10.42
▁комнат	-10.42
▁Последни	-10.42
пал	-10.42
ступления	-10.4202
▁формат	-10.4204
▁времена	-10.4206
носят	-10.4207
▁шей	-10.4218
▁бумаг	-10.4219
пил	-10.4225
▁исход	-10.423
▁ические	-10.4233
▁последствия	-10.4234
▁наконец	-10.4235
Интер	-10.4238
▁дум	-10.4239
▁людьми	-10.4239
▁повестк	-10.4239
▁настолько	-10.4239
▁форума	-10.424
▁гостей	-10.424
▁питания	-10.424
▁немецко	-10.424
▁полны	-10.4244
▁мнения	-10.4246
▁Куб	-10.4247
▁ник	-10.4248
▁школ	-10.4249
▁ши	-10.4251
▁скорость	-10.4251
▁вечер	-10.4254
▁требование	-10.4259
▁положительны	-10.4265
▁срока	-10.4269
▁сделан	-10.4273
▁одобрил	-10.4279
▁Может	-10.4279
гла	-10.4282
▁чиновники	-10.4284
ss	-10.4288
енных	-10.4288
▁заключает	-10.4288
▁отбор	-10.4292
▁регистрации	-10.4297
▁муж	-10.4298
▁долгов	-10.4305
ьян	-10.4307
ведении	-10.4307
▁использует	-10.4308
▁квартире	-10.431
da	-10.4312
▁фотографии	-10.4312
▁визита	-10.4316
кат	-10.4316
▁возбудил	-10.4319
▁посмотреть	-10.4319
▁употреблени	-10.4319
▁постановление	-10.4321
▁мои	-10.4323
▁Бол	-10.4324
▁война	-10.4329
▁стоял	-10.4331
▁фронт	-10.4332
нес	-10.4333
▁Захарова	-10.4335
▁премьера	-10.4342
▁Бен	-10.4348
твор	-10.435
▁Кр	-10.4355
▁рек	-10.4358
инэкономразвития	-10.4359
▁Times	-10.436
▁Брюсселе	-10.4361
▁мера	-10.4361
▁250	-10.4365
ТО	-10.4365
▁осуществлени	-10.4368
▁аренд	-10.4371
▁климат	-10.4374
▁просит	-10.4377
▁объема	-10.4378
▁ируют	-10.438
▁назван	-10.438
▁вперед	-10.4381
▁подписан	-10.4383
▁обе	-10.4386
Ма	-10.4395
▁маленьки	-10.4398
▁живет	-10.44
▁канала	-10.4401
▁требуют	-10.4401
▁французски	-10.4402
тил	-10.4402
нич	-10.4402
▁житель	-10.4405
▁Участник	-10.4405
олод	-10.4407
▁Ри	-10.4407
▁Аль	-10.4407
эк	-10.4412
зо	-10.4413
▁юг	-10.4418
▁понятно	-10.4418
▁паспорт	-10.442
▁Ман	-10.4422
▁инфраструктур	-10.4428
▁втор	-10.4431
▁кар	-10.4435
▁Артем	-10.444
▁поставок	-10.444
▁немало	-10.444
▁столичны	-10.4444
▁Парти	-10.4444
прямую	-10.4446
▁космическо	-10.4446
▁установи	-10.4446
▁руках	-10.4447
вшегося	-10.4448
and	-10.445
пат	-10.445
▁причина	-10.445
▁частно	-10.4454
▁ал	-10.4458
▁Два	-10.4461
▁енные	-10.4462
▁прошедши	-10.4471
▁Евро	-10.4479
▁эпизод	-10.4481
▁операций	-10.4481
▁операцию	-10.4481
▁четко	-10.4481
▁пресечения	-10.4481
▁фигурант	-10.4482
▁ваше	-10.4484
▁ать	-10.4492
x	-10.4495
▁московском	-10.4495
▁определить	-10.4496
▁наоборот	-10.4499
▁ставка	-10.4501
▁референдум	-10.4502
▁Карл	-10.4507
▁Никит	-10.4513
▁районах	-10.4514
▁прибыл	-10.4516
▁Хи	-10.4516
▁объекты	-10.4519
▁завершил	-10.452
▁участок	-10.4522
▁молодежи	-10.4522
▁частично	-10.4524
▁сумел	-10.4525
▁возникл	-10.453
ован	-10.4531
▁причины	-10.4535
▁Джо	-10.4538
25	-10.4541
▁отношениях	-10.4546
▁активны	-10.4546
▁Бур	-10.4553
▁тура	-10.4559
▁ающие	-10.4559
▁Одна	-10.456
править	-10.456
▁Афганистан	-10.4563
конец	-10.4567
▁шего	-10.4574
▁службу	-10.4575
▁Ча	-10.4578
▁бер	-10.458
бек	-10.4582
▁извест	-10.4585
▁сериал	-10.4585
▁Мурманска	-10.4586
▁предела	-10.4586
▁лицо	-10.4588
▁Бал	-10.4592
▁оценк	-10.4592
X	-10.4593
▁возника	-10.4597
▁лен	-10.4599
▁историческо	-10.4604
▁оснащен	-10.4604
▁детьми	-10.4604
▁строй	-10.4605
▁Шу	-10.4608
on	-10.4608
▁заключение	-10.461
▁обращение	-10.4611
▁миллиардер	-10.4613
▁800	-10.4615
▁шин	-10.4616
▁обвинение	-10.4617
джи	-10.4617
▁Кал	-10.4618
предпринимателей	-10.4621
Йорк	-10.4624
▁соответству	-10.4626
▁посту	-10.4626
долго	-10.4628
as	-10.463
▁бел	-10.463
▁металл	-10.4631
▁°	-10.4636
▁предполагает	-10.4641
▁53	-10.4644
грать	-10.4645
▁Владивосток	-10.4645
▁борт	-10.4645
▁Общество	-10.4645
▁округе	-10.4648
▁вел	-10.465
▁ают	-10.4651
▁20-	-10.4656
▁поручени	-10.4662
бар	-10.4669
▁кабинет	-10.4677
▁Велико	-10.4682
▁закону	-10.4686
▁протокол	-10.4687
▁удастся	-10.4687
▁крови	-10.4689
▁пострадавши	-10.4691
▁магазин	-10.4691
▁науки	-10.4703
▁верну	-10.4709
▁прекрасно	-10.4709
▁плен	-10.4711
▁дефицит	-10.4712
▁Спорт	-10.4713
▁избирательны	-10.4713
▁чик	-10.4714
цу	-10.4725
▁будущее	-10.4728
▁ученых	-10.473
▁бирже	-10.4732
▁дочь	-10.4733
▁получает	-10.4733
▁книги	-10.4736
▁властями	-10.4738
▁противодействи	-10.4739
▁экономика	-10.4745
▁оценке	-10.4754
▁вертолет	-10.4757
▁Само	-10.4759
▁огромно	-10.476
▁ворота	-10.4762
▁брак	-10.4768
▁готовности	-10.4772
ter	-10.4774
▁").	-10.4778
▁Вол	-10.4781
▁Востока	-10.4781
▁врачей	-10.4783
▁проверка	-10.4783
дается	-10.4789
▁поддерживает	-10.479
ющая	-10.4791
▁120	-10.4793
▁Кадыров	-10.4797
▁рассказывал	-10.48
▁импорт	-10.4805
▁Банка	-10.4807
пит	-10.4808
▁продолжа	-10.4812
▁благотворительн	-10.4814
чная	-10.4815
,5%	-10.4819
▁структура	-10.482
Петербурга	-10.4827
▁секунд	-10.4828
▁какое	-10.4828
ex	-10.4828
▁журналисты	-10.483
▁обращения	-10.4833
▁значительны	-10.4834
▁ша	-10.4835
▁северо	-10.4836
▁Чечни	-10.4838
▁Аравии	-10.4844
пор	-10.4846
▁нском	-10.4848
▁топлива	-10.4854
▁суток	-10.4855
▁искусств	-10.4856
▁рано	-10.4857
▁недель	-10.4857
▁производств	-10.4858
▁уйти	-10.4858
▁температура	-10.4862
▁крыш	-10.4865
▁ограничен	-10.4868
▁лов	-10.4872
▁5-	-10.4877
▁ающих	-10.4879
▁независимо	-10.4882
▁властям	-10.4887
▁стороне	-10.4888
▁оператор	-10.489
▁устройств	-10.4894
▁бюро	-10.4896
▁атак	-10.4898
идею	-10.4902
▁похоже	-10.4902
▁определенно	-10.4905
льная	-10.4907
▁гостиниц	-10.491
▁мать	-10.4918
▁экипажа	-10.4919
▁столиц	-10.4924
льд	-10.4924
первые	-10.4927
▁здании	-10.493
▁возник	-10.4934
▁Сал	-10.4936
▁расход	-10.4936
▁удовлетворен	-10.4939
▁церкви	-10.4939
▁быстрее	-10.4939
▁юбиле	-10.4939
▁Турцию	-10.4939
▁должностны	-10.494
▁энергетики	-10.4943
▁понял	-10.4943
▁воздуха	-10.4946
▁сайта	-10.4946
▁правово	-10.4946
Ростов	-10.4947
▁дороге	-10.4947
▁посетил	-10.495
▁американск	-10.4952
▁2000	-10.4952
▁гонки	-10.4955
▁цы	-10.4961
▁книг	-10.4962
▁отдал	-10.4967
es	-10.4968
▁принес	-10.4969
ании	-10.4969
екс	-10.4971
▁россиянин	-10.4974
▁участка	-10.498
▁Геннади	-10.4982
▁пласт	-10.4982
▁II	-10.4984
▁друж	-10.4984
▁требованиям	-10.4988
▁Бор	-10.4992
▁аппарата	-10.4992
▁задержани	-10.4993
▁настроен	-10.4995
▁другое	-10.4995
▁67	-10.4997
▁запрещенно	-10.4999
сков	-10.5001
▁строго	-10.5001
▁30%	-10.5003
Дону	-10.5004
▁ство	-10.5005
▁предыдуще	-10.5005
кинуть	-10.5005
▁занять	-10.5005
▁выросли	-10.5006
▁решени	-10.5007
едет	-10.5011
▁соперник	-10.5011
▁интересны	-10.5014
▁намерени	-10.5014
▁фильме	-10.5016
эр	-10.5019
кур	-10.5022
гад	-10.5022
▁рубеж	-10.5023
▁результатов	-10.5025
▁регламент	-10.5025
▁письма	-10.5025
▁признать	-10.5025
▁Мужчин	-10.5025
▁материала	-10.5026
▁виду	-10.5026
▁стоят	-10.5026
▁d	-10.5027
▁интернете	-10.5035
▁ел	-10.5041
▁русско	-10.5048
▁процессе	-10.5056
▁установленны	-10.5056
▁силам	-10.5058
▁Олимпиаде	-10.5062
▁отправить	-10.5064
▁телевидени	-10.5068
▁полагают	-10.5068
▁любовь	-10.5068
▁строить	-10.5069
▁полтора	-10.5071
▁обеспечение	-10.5071
ево	-10.5075
▁летне	-10.5085
▁Газета	-10.5086
▁Азии	-10.5087
▁лед	-10.5091
▁роди	-10.5094
▁существую	-10.5094
▁наличие	-10.5095
▁принимают	-10.5097
▁текущи	-10.5098
▁сценари	-10.51
▁производител	-10.5107
▁аналитик	-10.511
ограф	-10.5111
▁Благодар	-10.5111
▁предъявлен	-10.5111
▁чрезвычайно	-10.5111
▁смотреть	-10.5112
▁персонаж	-10.5112
▁ович	-10.5112
▁злоумышленник	-10.5113
▁поезд	-10.512
▁въезд	-10.5121
!	-10.5121
▁мусульман	-10.5124
▁чиновник	-10.5129
▁Московского	-10.5131
▁опасно	-10.5131
▁Бразилии	-10.5138
пас	-10.5139
▁лечения	-10.5142
▁выделен	-10.5144
▁Три	-10.5146
▁температур	-10.5147
▁мэра	-10.515
▁украинск	-10.515
▁американц	-10.5151
▁Проект	-10.5155
▁деревн	-10.5155
▁зампред	-10.5155
▁доли	-10.5155
▁предложен	-10.516
▁попали	-10.5161
Роснефть	-10.5161
При	-10.5162
ыр	-10.5163
▁значение	-10.5166
▁видел	-10.5176
▁сохранени	-10.5177
▁осужден	-10.5179
дон	-10.5181
▁соответствующе	-10.519
▁администрация	-10.5191
изации	-10.5191
▁WADA	-10.5193
▁своему	-10.5197
▁педагог	-10.5198
▁баррелей	-10.5198
▁возглавил	-10.5198
▁судом	-10.52
▁титул	-10.5201
▁став	-10.5202
▁установлени	-10.5215
▁организаци	-10.5217
▁Ос	-10.522
фф	-10.5229
▁выпуска	-10.5232
▁ребята	-10.5233
▁девушка	-10.5234
▁парламентски	-10.5235
▁поднял	-10.5237
▁ЖКХ	-10.5242
▁Индии	-10.5243
Краснодар	-10.5245
▁продукт	-10.5247
▁заверил	-10.5249
жив	-10.5254
▁флота	-10.5257
▁допрос	-10.526
ьер	-10.5262
ляр	-10.5264
▁взаимодействи	-10.527
льного	-10.5273
▁заболевания	-10.5274
▁нского	-10.5284
▁образц	-10.5284
Реал	-10.5285
▁Польши	-10.5286
▁полгода	-10.5286
▁концепци	-10.5287
▁спутник	-10.5296
▁ресурсов	-10.5297
▁Вооруженны	-10.5299
дро	-10.53
▁малы	-10.5304
▁сведения	-10.5309
▁ключев	-10.5312
гал	-10.5313
▁состоялся	-10.5317
нять	-10.5317
▁провал	-10.5317
▁дл	-10.5317
▁гости	-10.532
ера	-10.5328
▁боев	-10.5329
▁J	-10.5329
▁Эр	-10.5329
▁Ассоциаци	-10.5331
▁негативно	-10.5331
▁ситуацией	-10.5331
▁СНГ	-10.5331
▁обращени	-10.5332
▁бывает	-10.5333
▁госсекретар	-10.5333
▁форм	-10.5334
нского	-10.5337
▁вида	-10.5339
пан	-10.5339
лли	-10.5339
▁Мон	-10.5339
▁воду	-10.5341
▁Джа	-10.5341
▁-2016	-10.5351
'	-10.5351
▁54	-10.5351
▁заметно	-10.5351
▁принимал	-10.5356
▁сообщило	-10.5359
▁Победы	-10.5361
фил	-10.5361
▁олимпийски	-10.5361
▁1,2	-10.5365
▁машину	-10.5366
▁фондов	-10.5368
кра	-10.5368
▁домашне	-10.5375
▁содержит	-10.5375
▁показывает	-10.5375
▁испытания	-10.5376
▁66	-10.5377
▁среднего	-10.5383
▁лидером	-10.5383
▁3%	-10.5385
▁потребителей	-10.5386
▁партнеров	-10.539
▁просил	-10.5395
▁рос	-10.5396
бить	-10.5399
▁случайно	-10.5406
▁пилот	-10.5407
▁добива	-10.5408
▁сестр	-10.5413
▁Ростов	-10.5414
▁почт	-10.5416
▁Гал	-10.5416
▁продолжил	-10.542
▁пенсии	-10.542
▁певиц	-10.542
▁наказания	-10.542
▁поручил	-10.5421
is	-10.5421
▁Тро	-10.5424
вил	-10.5425
▁объявили	-10.5428
▁организован	-10.5429
лияния	-10.5435
▁цев	-10.5441
ын	-10.5442
▁тяжелы	-10.5446
▁служб	-10.5446
▁гре	-10.5448
▁четверт	-10.5451
▁ведомств	-10.5459
▁жестко	-10.546
▁отзыв	-10.5465
▁голосование	-10.5466
rent	-10.5468
▁зрителей	-10.5472
▁наград	-10.5472
▁села	-10.5472
▁база	-10.5473
Транс	-10.5474
становят	-10.5477
вание	-10.5478
▁зал	-10.5478
▁приняла	-10.5482
▁высот	-10.5484
▁колес	-10.5484
Известия	-10.5496
▁Востоке	-10.5504
▁травмы	-10.5504
▁Стои	-10.5504
▁вероятность	-10.5507
▁мальчик	-10.5507
▁закончил	-10.5508
живут	-10.5509
Справедлив	-10.551
▁музея	-10.551
▁робот	-10.551
▁the	-10.5514
▁потери	-10.5515
▁рубрик	-10.5516
▁посвящен	-10.5518
▁военный	-10.552
▁обладател	-10.5522
чески	-10.5522
▁провод	-10.5523
ключить	-10.5524
▁градусов	-10.5524
альный	-10.5525
▁смысл	-10.5527
▁59	-10.5532
▁приватизации	-10.5532
▁катастроф	-10.5532
▁совершен	-10.5536
▁третьем	-10.5538
▁черно	-10.5538
▁каза	-10.5538
▁Тор	-10.5538
истов	-10.5539
▁€	-10.5539
▁акт	-10.5542
стью	-10.555
▁начнется	-10.5552
▁Васильев	-10.5554
▁полугоди	-10.5555
to	-10.5557
▁Асада	-10.5557
▁супер	-10.5557
нцидент	-10.5565
▁отец	-10.5566
▁близ	-10.557
▁ныне	-10.557
▁запретил	-10.5573
▁2019	-10.5573
▁основания	-10.5575
▁грузовик	-10.5576
▁3,5	-10.5577
▁сыр	-10.5578
▁цар	-10.5583
▁владе	-10.5585
▁открытия	-10.5586
▁пик	-10.5589
▁строительны	-10.5593
▁выпустил	-10.5594
▁видимо	-10.5599
▁Египта	-10.56
▁подготовил	-10.56
▁филиал	-10.56
▁раунд	-10.56
▁экономику	-10.56
▁марк	-10.5601
▁поддерживать	-10.5603
▁инвест	-10.5606
am	-10.5607
▁Нужн	-10.5609
▁направля	-10.5614
▁пит	-10.5615
▁аются	-10.5615
▁Люб	-10.5618
▁спин	-10.5619
▁военным	-10.5629
▁остановить	-10.563
▁жела	-10.5634
рек	-10.5634
▁Хе	-10.5635
▁суб	-10.5635
▁груз	-10.5637
▁Петербурге	-10.5641
%)	-10.5643
▁лицензии	-10.5646
▁Минздрав	-10.5646
▁пенсионер	-10.5646
▁заказчик	-10.5647
▁нагрузк	-10.565
▁МОК	-10.5653
▁край	-10.5654
▁приходил	-10.5655
▁2004	-10.5656
ухов	-10.5656
▁расстояни	-10.5657
▁2006	-10.5657
▁далее	-10.5659
рус	-10.5659
▁сегмент	-10.566
▁счету	-10.5661
▁занят	-10.5662
▁ЛДПР	-10.5662
▁достижения	-10.5664
▁Главно	-10.5668
▁лекарств	-10.5669
▁требовал	-10.567
▁относят	-10.5675
▁соглашений	-10.5677
▁нормы	-10.568
▁Сбербанк	-10.5683
▁мощны	-10.5687
▁КНР	-10.5692
▁доступны	-10.5696
▁поставщик	-10.5699
▁выполнять	-10.5701
▁Донецк	-10.5702
▁летчик	-10.5708
▁штаба	-10.5709
▁Федор	-10.571
▁баз	-10.571
▁русского	-10.5711
▁Ростовско	-10.5715
держать	-10.5719
▁представля	-10.572
▁Путиным	-10.5722
▁рейтинге	-10.5723
ающего	-10.5723
маш	-10.5724
▁атаки	-10.5726
▁62	-10.5726
-1	-10.5726
▁поражение	-10.5729
▁Испании	-10.5733
ично	-10.5737
▁конкретно	-10.5738
▁океан	-10.5738
▁превысил	-10.574
▁Георги	-10.5745
▁рез	-10.5747
армия	-10.5748
▁рок	-10.5754
▁митинг	-10.5756
▁фирмы	-10.5759
числ	-10.576
▁$4	-10.5762
▁войне	-10.5763
ьте	-10.5764
▁процент	-10.5771
▁Ma	-10.5771
▁собира	-10.5774
▁сектора	-10.5778
▁карты	-10.5779
▁брос	-10.5782
▁Известно	-10.5784
▁альбом	-10.5784
▁картин	-10.5787
▁Бе	-10.5789
▁серьезн	-10.5792
▁обсуждать	-10.5794
▁опубликованно	-10.5795
▁ическое	-10.5805
▁подозреваемы	-10.5807
▁едины	-10.5807
гур	-10.581
▁Пред	-10.5816
▁шесто	-10.5818
▁потребител	-10.5819
▁готовят	-10.5824
▁цикл	-10.5827
▁имена	-10.5827
▁нынешнем	-10.5828
▁минуты	-10.583
▁Америки	-10.5831
▁задолженности	-10.5831
▁костюм	-10.5831
▁запад	-10.5832
▁установк	-10.5832
▁ядерны	-10.5837
▁гражданам	-10.5838
▁фирм	-10.5838
▁поиска	-10.5841
▁недостаточно	-10.5842
▁нефтяны	-10.5846
▁жилы	-10.5848
▁мирового	-10.5855
▁51	-10.5857
▁сборн	-10.586
▁масштаб	-10.5861
прос	-10.5862
▁тренера	-10.5862
▁уплат	-10.5862
▁выступит	-10.5865
▁пояснили	-10.5867
▁крупном	-10.5868
▁страховы	-10.5873
▁соглас	-10.5873
▁Большинств	-10.5878
▁Экономика	-10.5878
▁реформы	-10.5878
▁песни	-10.588
▁лидеры	-10.5881
▁ЧП	-10.5882
▁стр	-10.5884
▁относит	-10.5885
▁шайб	-10.5886
▁фактор	-10.5886
▁увидел	-10.5888
▁каса	-10.5892
▁64	-10.5892
▁снять	-10.5894
ожд	-10.5903
▁Чи	-10.5904
▁препаратов	-10.5908
бан	-10.5912
класс	-10.5912
становить	-10.5913
хат	-10.5917
▁профессионал	-10.5918
▁активы	-10.5918
▁реклам	-10.5921
бил	-10.5921
▁законопроекта	-10.5924
▁фамили	-10.5924
▁издани	-10.5926
▁Вопрос	-10.5926
▁День	-10.5929
▁осенью	-10.593
Ка	-10.593
ck	-10.5932
▁ками	-10.5932
ine	-10.5932
▁информационны	-10.5934
▁разным	-10.5934
▁виновным	-10.5937
▁Сирию	-10.5939
▁любим	-10.5941
чных	-10.5946
▁отмечал	-10.5947
▁селе	-10.5948
леч	-10.5948
▁доказательств	-10.5953
▁Или	-10.5955
▁вход	-10.5958
очных	-10.5959
▁Наука	-10.5959
▁приговорил	-10.5961
▁ших	-10.5961
▁очка	-10.5962
▁сумм	-10.5962
▁пищ	-10.5962
▁иностранн	-10.5963
▁продлени	-10.5966
▁враг	-10.5968
▁обещал	-10.5968
▁остановк	-10.5973
▁многом	-10.5974
лег	-10.5976
▁Надо	-10.5976
▁Республик	-10.5976
▁продукцию	-10.5981
▁ового	-10.5982
▁редакци	-10.5982
▁управлении	-10.5992
▁положительно	-10.5993
▁высок	-10.5997
▁федеральном	-10.5998
▁Кажды	-10.6
▁языка	-10.6003
▁56	-10.6003
▁инвестиционно	-10.6005
▁Ста	-10.6007
▁антидопингово	-10.6011
▁валюты	-10.6016
▁ориентир	-10.6017
▁похорон	-10.6019
▁выбрал	-10.6019
▁Армении	-10.602
▁приведе	-10.6021
тора	-10.6022
ie	-10.6023
▁судья	-10.6025
Турецк	-10.6025
▁Зам	-10.6027
строения	-10.6029
▁дан	-10.6032
▁районов	-10.6034
▁этапа	-10.6035
тесь	-10.6036
мерно	-10.6036
▁республике	-10.6036
▁дав	-10.6037
▁жена	-10.6037
▁применение	-10.6039
▁нефтяно	-10.6043
▁танц	-10.6046
▁территорий	-10.6047
▁сектор	-10.6048
▁установил	-10.6048
▁подозреваемых	-10.605
▁попытка	-10.6054
▁Официальны	-10.6055
▁обыск	-10.6055
▁церемонии	-10.6058
▁полос	-10.606
онно	-10.6061
▁мирно	-10.6062
▁свидетельству	-10.6063
▁иной	-10.6066
▁докладе	-10.6066
▁Пентагон	-10.6067
▁Саакашвили	-10.6067
▁содействи	-10.6067
▁потребует	-10.6067
▁Дамаск	-10.6067
▁заранее	-10.6067
лат	-10.6068
▁отделение	-10.6068
▁арестовал	-10.6069
▁снег	-10.607
▁Северо	-10.6072
▁ставку	-10.6072
▁взяли	-10.6073
▁храм	-10.6075
▁победа	-10.6078
▁завершен	-10.6081
▁Северн	-10.6084
▁физическо	-10.6084
▁разработки	-10.6085
▁называемо	-10.6086
Тульской	-10.6087
▁регулятор	-10.6089
▁государственн	-10.6089
▁мар	-10.6095
▁поста	-10.6096
▁полномочия	-10.6102
▁прибор	-10.6103
ИК	-10.6107
▁боево	-10.6107
▁привлеч	-10.6108
▁тон	-10.611
▁ирует	-10.6114
▁сахар	-10.6115
▁турист	-10.6115
▁пытал	-10.6117
▁вода	-10.6117
▁обнаружил	-10.612
▁назначил	-10.6125
▁помогает	-10.613
▁политолог	-10.613
▁отлич	-10.6132
▁Олимпиады	-10.6141
▁начинает	-10.6143
мир	-10.6144
фин	-10.6145
▁обслуживани	-10.6147
▁юридическо	-10.6147
▁рубежом	-10.6147
▁Владимиру	-10.6148
▁Co	-10.6149
▁Воз	-10.615
W	-10.6151
▁установлено	-10.6155
▁забил	-10.6156
▁проведе	-10.6156
▁прогресс	-10.6158
▁голоса	-10.6158
▁транзит	-10.6162
▁музей	-10.6163
▁жилье	-10.6164
▁Гар	-10.617
▁трагедии	-10.6171
▁1,6	-10.6171
▁руководителей	-10.6171
▁офицер	-10.6172
тельны	-10.6174
▁противник	-10.6178
▁объявила	-10.6179
▁любител	-10.6184
▁инвестиционны	-10.6188
▁открыти	-10.6188
см	-10.6189
▁требуется	-10.6196
▁охраны	-10.62
▁защиту	-10.6201
▁Минск	-10.6203
▁Следственны	-10.6211
▁информацией	-10.6211
чалось	-10.6211
▁Числ	-10.6211
▁запуска	-10.6212
▁дач	-10.6213
▁показания	-10.6214
▁шая	-10.6217
▁последним	-10.6221
▁угрозу	-10.6221
▁Казахстан	-10.6223
▁предвыборно	-10.6228
Про	-10.6232
▁единственно	-10.6235
▁судов	-10.6236
▁направление	-10.6237
▁веществ	-10.6237
▁Год	-10.6243
▁краж	-10.6245
▁Лидер	-10.6248
▁бир	-10.6249
▁плав	-10.6251
▁разниц	-10.6259
▁Следствие	-10.6259
▁сохранил	-10.6259
▁хотим	-10.6259
▁Особенно	-10.6261
▁комментариев	-10.6262
▁ведущих	-10.6263
▁инвестор	-10.6269
▁содержат	-10.627
▁одержал	-10.627
▁строительств	-10.6271
▁рисков	-10.6272
▁40%	-10.6272
жин	-10.6273
слав	-10.6274
▁2005	-10.6275
▁введение	-10.6278
▁нападение	-10.6281
▁соцсети	-10.6289
▁вызыва	-10.6292
▁меч	-10.6297
▁выигра	-10.6298
▁парка	-10.6299
падает	-10.6301
ыграть	-10.6303
▁комментиру	-10.6303
▁вылет	-10.6304
▁ро	-10.6305
▁жило	-10.6307
▁товары	-10.6308
▁определен	-10.6308
рет	-10.6311
▁угроз	-10.6312
▁кос	-10.6314
▁сняти	-10.6314
▁голову	-10.6316
лист	-10.6317
▁куб	-10.6317
▁Большо	-10.6318
▁начнет	-10.6319
▁соперника	-10.6329
▁Мари	-10.633
▁":	-10.6332
шек	-10.6332
▁Американски	-10.6335
общ	-10.6336
▁диск	-10.6339
▁счета	-10.6339
▁квартиру	-10.6343
▁фильмов	-10.6348
Яндекс	-10.6357
▁продюсер	-10.6357
▁выполнит	-10.6357
▁комментирова	-10.6357
иректор	-10.6357
▁Руслан	-10.6358
▁ировал	-10.6361
▁открыть	-10.6362
▁обстрел	-10.6366
▁склад	-10.6368
▁мобильно	-10.6368
▁олимпийско	-10.6369
▁появлени	-10.637
▁кодекс	-10.6371
▁динамик	-10.6374
▁велико	-10.6374
▁проекте	-10.6375
▁Какие	-10.6375
▁подчеркивает	-10.6379
▁школу	-10.638
▁отправлен	-10.6382
▁драк	-10.6387
▁войну	-10.6391
▁называется	-10.6392
▁Зе	-10.6392
▁помещения	-10.6393
▁экспорта	-10.6394
▁Тер	-10.64
пел	-10.6405
▁сказали	-10.6405
▁получение	-10.6406
▁Роберт	-10.6406
▁произойдет	-10.6406
▁Ro	-10.6407
▁парти	-10.641
▁фестиваль	-10.6411
▁пенсионны	-10.6412
▁мама	-10.6412
▁перестал	-10.6417
▁Улюкаев	-10.6421
▁действовал	-10.6421
▁штате	-10.6426
чал	-10.6427
▁поставлен	-10.6432
▁карьеру	-10.6439
очные	-10.6439
фон	-10.6441
▁Казахстана	-10.6443
▁предлагал	-10.6448
ойти	-10.6448
▁пара	-10.6449
▁Специалист	-10.6456
▁Турцией	-10.6456
▁заработал	-10.6456
▁редактор	-10.6456
▁горожан	-10.6456
▁Самолет	-10.6457
▁выставки	-10.6457
▁подготовлен	-10.6461
▁исключение	-10.6463
оставляют	-10.6464
▁займет	-10.6464
▁193	-10.6464
▁смысле	-10.6465
▁трем	-10.6467
▁руководител	-10.647
▁глобально	-10.647
▁поклонник	-10.6472
рд	-10.6474
▁традиции	-10.6477
▁парковк	-10.6477
▁Дн	-10.6478
▁распространени	-10.6479
▁поведение	-10.6484
▁взаимодействия	-10.6488
▁Путину	-10.6501
Север	-10.6502
▁Анкар	-10.6505
▁оппонент	-10.6506
▁уменьши	-10.6506
▁коллектор	-10.6506
Газете	-10.6506
▁капитан	-10.6506
▁воздушны	-10.6507
вания	-10.6508
▁направления	-10.6509
▁банке	-10.6519
▁организм	-10.6523
сьма	-10.6526
▁рейтинга	-10.6527
▁разведки	-10.6533
▁сть	-10.6535
▁некоторым	-10.6536
▁признани	-10.6541
▁полета	-10.6541
▁Ши	-10.6543
▁жестки	-10.6544
▁обеспечива	-10.6551
▁шла	-10.6552
▁Тел	-10.6555
▁поясняет	-10.6556
▁Женщин	-10.6556
▁установили	-10.6556
▁ФРГ	-10.6556
▁Грузии	-10.6557
▁Мэр	-10.6559
▁обвинени	-10.6561
▁Кавказ	-10.6561
▁Общ	-10.6565
▁деклараци	-10.6566
▁ожидает	-10.6568
▁достигнут	-10.6568
▁69	-10.6576
▁принимает	-10.6577
▁секрет	-10.6579
▁подробност	-10.658
▁полис	-10.658
▁решила	-10.6586
гло	-10.6587
▁статья	-10.6588
▁нарко	-10.6588
▁национальн	-10.6589
▁страх	-10.6596
▁ролик	-10.6597
▁играх	-10.6601
▁РЖД	-10.6606
▁возврат	-10.6606
слов	-10.6606
▁врачи	-10.6608
против	-10.6608
▁газете	-10.6609
▁g	-10.6611
▁восстановить	-10.6611
▁опять	-10.6614
▁проверить	-10.6615
▁инициативы	-10.6617
▁развити	-10.6618
▁весной	-10.662
▁ева	-10.662
▁72	-10.6624
▁Кузнецов	-10.6624
▁футбольны	-10.6626
▁единственный	-10.6627
▁ваши	-10.663
▁основным	-10.663
▁терроризмом	-10.6632
▁организова	-10.6634
▁сборную	-10.6638
▁земельны	-10.6641
▁поздн	-10.6642
▁58	-10.6643
▁остро	-10.6646
man	-10.665
▁рассматривать	-10.6652
▁Результат	-10.6656
▁добычу	-10.6656
▁земля	-10.6656
▁обсудит	-10.6657
▁сделк	-10.6658
▁потенциальны	-10.6658
▁минуте	-10.6661
стон	-10.6665
▁мат	-10.6667
▁использовал	-10.6667
▁набор	-10.6669
тивны	-10.667
▁возвраща	-10.667
▁спортсмены	-10.6671
теп	-10.6671
▁построить	-10.6677
▁расположенны	-10.6679
▁договоренности	-10.6681
▁строительно	-10.6681
вторых	-10.6682
▁жар	-10.6683
▁девяти	-10.6687
▁уступил	-10.6689
▁расположенно	-10.6692
казывать	-10.6694
▁Донецко	-10.6696
▁продавать	-10.67
▁причине	-10.6701
много	-10.6704
▁представлени	-10.6706
▁Гран	-10.6707
▁Документ	-10.6707
▁ОБСЕ	-10.6707
▁космодром	-10.6707
▁Сбербанка	-10.6707
▁хлеб	-10.6709
▁бомбардировщик	-10.6711
▁скорости	-10.6714
яков	-10.6714
▁важн	-10.6715
▁опроса	-10.6715
▁привлечени	-10.6715
▁поселке	-10.6719
▁Штат	-10.6719
▁длин	-10.6722
▁Хам	-10.6725
▁непо	-10.6726
▁4%	-10.6729
▁экипаж	-10.6731
▁шок	-10.6732
▁завоевал	-10.6733
▁Восточно	-10.6734
▁законом	-10.6736
▁моста	-10.6742
лас	-10.6746
▁истребител	-10.6747
▁журнала	-10.6747
▁жир	-10.675
▁Бог	-10.675
▁литератур	-10.6754
▁Матвиенко	-10.6758
▁вдвое	-10.6758
▁немедленно	-10.6758
▁сердце	-10.6758
▁кстати	-10.6758
Барселон	-10.6758
▁посеща	-10.676
▁Узбекистана	-10.6761
▁минувше	-10.6762
▁Ван	-10.6763
▁участки	-10.6763
▁глаз	-10.6764
▁создает	-10.6764
▁внесени	-10.6765
▁текущем	-10.6768
▁сделано	-10.6769
▁постоянны	-10.6769
▁Кореи	-10.6769
▁изуча	-10.6776
▁самолеты	-10.6776
▁Фр	-10.6779
▁фронта	-10.678
▁артист	-10.6786
дают	-10.6791
▁признался	-10.6797
Русск	-10.6799
▁производитель	-10.6801
▁Ch	-10.6803
▁думал	-10.6804
▁ель	-10.6804
офф	-10.6805
▁медиа	-10.6808
▁архив	-10.681
▁пришла	-10.681
ень	-10.6812
▁спасти	-10.6815
▁агент	-10.6815
▁поздрави	-10.6817
▁консультаци	-10.6819
▁отца	-10.6821
▁рекомендовал	-10.6824
▁&	-10.6827
▁4-	-10.6834
▁сообщали	-10.6834
▁планов	-10.6836
▁ником	-10.6837
ходящих	-10.6837
плат	-10.6838
▁успеха	-10.684
▁перенос	-10.684
ma	-10.6841
▁космически	-10.6842
▁признали	-10.6843
▁допусти	-10.6847
▁урок	-10.6847
▁разрешения	-10.685
▁справи	-10.6852
эт	-10.6855
▁действую	-10.6859
▁дорого	-10.686
▁шоссе	-10.6861
▁Ангел	-10.6861
▁подписани	-10.6868
▁черт	-10.6868
▁Григори	-10.687
ущ	-10.6873
▁временны	-10.6875
▁открыли	-10.688
▁преподавател	-10.6881
▁участке	-10.6883
▁американским	-10.6883
▁опроверг	-10.6883
▁стратегии	-10.6884
▁коммунист	-10.6885
▁грузов	-10.6889
▁хозяйств	-10.6893
▁управля	-10.6894
▁угрозой	-10.6895
▁купил	-10.6895
Мо	-10.6897
▁следователи	-10.6899
▁снимк	-10.6903
▁собрания	-10.6908
▁минус	-10.6908
▁Фор	-10.691
▁сегодняшне	-10.6913
▁Дэвид	-10.6913
▁единственны	-10.6915
▁Украиной	-10.6921
▁отвечает	-10.6923
▁давал	-10.6923
te	-10.6923
▁Джи	-10.6924
▁вынесен	-10.6926
▁следит	-10.6927
▁режиссера	-10.6929
▁кажды	-10.693
зон	-10.693
▁Кат	-10.6932
▁драм	-10.6932
▁приобрел	-10.6933
▁ско	-10.6933
▁ьны	-10.6934
▁одни	-10.6936
▁оформлени	-10.6937
▁цену	-10.6938
▁Валентина	-10.694
▁лучшим	-10.6949
▁68	-10.6955
▁Май	-10.6956
▁Поздн	-10.6957
▁сообщества	-10.6958
▁кова	-10.6959
▁стратеги	-10.696
▁ремонта	-10.6963
▁безусловно	-10.6965
▁Башар	-10.6966
▁ед	-10.6968
рач	-10.697
▁Севастополя	-10.6971
▁жителям	-10.6974
▁(3	-10.6975
▁50-	-10.6976
▁сказано	-10.6978
▁проекту	-10.6978
▁номера	-10.6979
▁глаза	-10.6985
▁нарушени	-10.6991
▁дар	-10.6993
влечь	-10.6994
▁угроза	-10.6998
▁валютны	-10.6999
▁Новгород	-10.6999
▁исследование	-10.7004
▁водителей	-10.7009
шко	-10.7013
▁Волгоград	-10.7014
▁Бельгии	-10.7017
▁Mercedes	-10.7017
▁хуже	-10.7018
▁знать	-10.7019
▁разбирательств	-10.702
▁итогов	-10.7021
▁обязательны	-10.7022
▁сел	-10.7023
▁ическом	-10.7028
▁Z	-10.7028
кас	-10.7031
▁Нов	-10.7031
▁малыш	-10.7032
пон	-10.7033
запад	-10.7034
▁студентов	-10.704
▁пан	-10.7042
▁изменение	-10.7046
▁сотрудничестве	-10.7048
▁авторы	-10.7054
▁исполня	-10.7054
▁публик	-10.7065
▁Губернатор	-10.707
▁Одни	-10.707
▁Франс	-10.707
▁"...	-10.707
▁лыж	-10.7071
▁исходя	-10.7072
▁здоровье	-10.7073
▁получается	-10.7078
▁Син	-10.7084
▁Ад	-10.7086
▁выступление	-10.7087
▁Руководител	-10.7088
▁осуществлять	-10.709
▁судей	-10.7091
ton	-10.7093
оценить	-10.7094
▁преследовани	-10.7096
rk	-10.7105
▁бег	-10.711
Деньги	-10.7118
▁фа	-10.7119
▁начинают	-10.712
▁Роспотребнадзор	-10.7123
▁нижне	-10.7123
▁прокурора	-10.7123
▁кот	-10.7125
▁удовлетвори	-10.7128
▁республик	-10.7136
Но	-10.7138
▁инвесторы	-10.7144
▁надзор	-10.7148
▁обеща	-10.7152
▁ись	-10.7156
продемонстрирова	-10.7157
▁рассмотре	-10.7157
ВКС	-10.7157
▁цвета	-10.7158
▁сервиса	-10.7159
▁строительстве	-10.7163
ниж	-10.7169
▁авторов	-10.7172
▁высоким	-10.7174
▁лев	-10.7175
▁Жен	-10.7175
▁Отечественн	-10.7176
▁предупредил	-10.7176
▁критери	-10.7176
▁акциз	-10.7176
▁героя	-10.7177
▁честно	-10.7178
▁окна	-10.7179
▁опасности	-10.7179
▁развед	-10.7181
▁создавать	-10.7183
▁полезны	-10.7187
▁базу	-10.7188
тебя	-10.7189
▁мечта	-10.7194
▁спад	-10.7195
▁английско	-10.7198
▁восточно	-10.7204
▁ссыла	-10.7206
▁объеме	-10.7206
▁платы	-10.7208
близи	-10.721
▁6%	-10.721
▁Каз	-10.7211
▁7%	-10.7213
▁равны	-10.7215
▁показан	-10.7215
▁инициативу	-10.7216
▁пято	-10.7217
▁отряд	-10.7219
цер	-10.7225
▁подготовку	-10.7225
▁возможност	-10.7225
▁знаменито	-10.7228
▁WSJ	-10.7229
▁Адвокат	-10.7229
▁пистолет	-10.7229
▁отметив	-10.723
▁номинаци	-10.723
▁глубин	-10.723
▁сетях	-10.723
▁появление	-10.7232
▁Бри	-10.7233
груж	-10.724
▁периода	-10.7242
▁наверное	-10.7243
▁риска	-10.7246
▁целей	-10.7253
мысл	-10.7253
▁храни	-10.7255
▁закрыты	-10.7259
▁приму	-10.7261
▁итальянск	-10.7265
▁обвиняем	-10.7271
▁Оста	-10.7271
▁перемен	-10.7272
▁француз	-10.7275
▁Част	-10.7276
▁забот	-10.7278
рок	-10.7279
▁Латвии	-10.7283
▁Уголовно	-10.7283
▁корабля	-10.7283
▁узнать	-10.7283
▁приближ	-10.7283
▁700	-10.7284
▁любви	-10.7284
зар	-10.7289
▁отделени	-10.7291
▁выбрать	-10.7291
▁поддержат	-10.7292
Оскар	-10.7293
▁Самы	-10.7293
▁Европейски	-10.7294
▁облада	-10.7297
ti	-10.7297
▁Аб	-10.73
рь	-10.7301
▁характера	-10.7301
пуст	-10.7301
▁запрещена	-10.7301
,9%	-10.7304
строй	-10.7305
▁63	-10.7307
ллер	-10.7309
▁отдых	-10.731
▁активность	-10.731
лаг	-10.7311
▁изменил	-10.7313
енс	-10.7321
▁уничтожен	-10.7325
▁брон	-10.7328
▁игрок	-10.733
▁Работа	-10.733
se	-10.7331
▁гонк	-10.7333
▁регионы	-10.7335
▁Встреча	-10.7337
▁злоупотреблени	-10.7337
▁конгресс	-10.7337
▁бан	-10.7337
▁величин	-10.7338
▁Пекин	-10.7338
▁случилось	-10.7339
▁случаи	-10.734
▁Соколов	-10.734
рог	-10.7343
▁человеком	-10.7345
▁Союз	-10.7346
▁3-	-10.7346
▁граф	-10.7346
▁медали	-10.7347
летел	-10.7347
▁проиграл	-10.7348
▁установлен	-10.735
ций	-10.7354
▁спортсмен	-10.7355
▁гражданина	-10.7357
▁глубоко	-10.7358
▁задействован	-10.7358
▁лес	-10.7361
▁игре	-10.7364
▁Иде	-10.7365
▁трассе	-10.7366
▁проник	-10.737
▁звук	-10.7374
▁хакер	-10.7374
▁зданий	-10.7379
▁друзья	-10.738
▁произошедшего	-10.7381
▁уничтожени	-10.7384
▁Дол	-10.7385
очно	-10.7386
▁Меня	-10.7388
▁Boeing	-10.7392
▁Джордж	-10.7392
▁архитектур	-10.7392
▁форвард	-10.7392
▁преступление	-10.7392
▁оказывается	-10.7392
▁выводу	-10.7394
▁богаты	-10.7394
▁меша	-10.7397
▁k	-10.7404
▁сокращения	-10.7405
альная	-10.7406
▁пенсионно	-10.7407
▁понимаю	-10.7409
Башнефт	-10.7412
▁разработан	-10.7412
▁нравится	-10.7413
▁обвиня	-10.7413
▁рассчитывает	-10.7414
мол	-10.7418
▁соц	-10.742
▁фар	-10.7423
▁флот	-10.7428
▁уникальны	-10.743
▁зим	-10.7432
▁St	-10.7432
▁игрока	-10.7436
▁желез	-10.7437
ивают	-10.7438
▁продан	-10.7439
▁футбол	-10.7439
монт	-10.744
▁бело	-10.7445
▁Bloomberg	-10.7446
▁Америке	-10.7446
▁заболеваний	-10.7446
▁волонтер	-10.7446
▁космос	-10.7446
▁Рады	-10.745
▁9%	-10.7452
▁74	-10.7454
▁подтверждени	-10.7458
ФО	-10.7459
▁знамениты	-10.746
▁аренду	-10.7461
▁пуск	-10.7464
▁преступник	-10.7465
▁копи	-10.7466
▁музыкальны	-10.7467
▁террорист	-10.7469
▁поездк	-10.7471
▁поделил	-10.7473
Йорке	-10.7475
▁пациентов	-10.7478
▁газов	-10.7482
▁остров	-10.7486
▁доклада	-10.7486
▁биолог	-10.7488
▁меняется	-10.7491
▁танк	-10.7491
▁вынес	-10.7494
▁матчей	-10.7497
▁риски	-10.7497
ry	-10.7499
▁двигателе	-10.75
▁портрет	-10.7502
▁адвоката	-10.7502
▁лодк	-10.7502
▁существующи	-10.7502
▁туризма	-10.7503
▁возобновлени	-10.7506
▁Одно	-10.7507
▁посетит	-10.7508
▁некотор	-10.7511
▁природ	-10.7515
АЗ	-10.7515
▁направленны	-10.7519
▁нно	-10.7521
▁дорогу	-10.7521
▁кредитно	-10.7521
▁давления	-10.7522
▁бренд	-10.7524
▁нский	-10.7526
исты	-10.7527
▁МВФ	-10.7528
▁Самар	-10.7528
чались	-10.7529
▁приобре	-10.753
▁изъят	-10.753
▁обвиняют	-10.7534
син	-10.7537
▁эксперимент	-10.7542
суд	-10.7544
▁руку	-10.7546
▁гуманитарно	-10.7546
▁крупнейше	-10.7547
▁членам	-10.7547
владельцев	-10.7547
▁ожидаем	-10.7548
▁Урал	-10.755
едва	-10.7552
▁ВС	-10.7555
Аэрофлот	-10.7556
▁СИЗО	-10.7556
▁Станислав	-10.7556
▁предоставил	-10.7556
▁работодател	-10.7556
▁утвердил	-10.7556
▁Минюст	-10.7557
▁ирование	-10.7557
▁ярки	-10.7557
▁доверия	-10.7557
▁рубль	-10.7558
▁процедуры	-10.7559
рис	-10.756
▁Pa	-10.756
▁мысли	-10.7566
▁западно	-10.7569
▁Дем	-10.7569
▁ликвидации	-10.757
▁Закон	-10.7572
ca	-10.7573
▁чьи	-10.7573
▁Други	-10.7578
▁кадров	-10.7579
▁касс	-10.7583
▁принима	-10.7583
клю	-10.7588
▁среды	-10.759
▁избрани	-10.7591
▁стадиона	-10.7591
▁Пр	-10.7594
▁холдинг	-10.7596
▁Фил	-10.7597
▁трансляци	-10.7597
▁миллиард	-10.7605
▁доставк	-10.7605
▁маск	-10.7609
Кр	-10.761
▁Аркади	-10.7612
▁знаем	-10.7612
▁получен	-10.7613
▁похищен	-10.7614
▁арбитраж	-10.7617
ельной	-10.7621
▁страхования	-10.7623
▁понимать	-10.7627
▁Хабаровск	-10.7628
стран	-10.763
▁клиент	-10.7635
▁политиков	-10.7638
▁референдума	-10.7639
▁запущен	-10.7642
▁демократ	-10.7643
▁сфер	-10.7646
▁центров	-10.7657
▁жилищно	-10.7659
▁Западно	-10.7659
▁специалиста	-10.7659
▁ды	-10.7661
горск	-10.7663
версию	-10.7664
▁передаче	-10.7667
▁BMW	-10.7668
▁максимум	-10.7668
▁побережь	-10.7668
▁спирт	-10.7668
▁тюрьмы	-10.7668
▁заработн	-10.7668
▁учения	-10.7669
▁международном	-10.7669
na	-10.767
▁ежедневно	-10.767
▁новинк	-10.7671
▁правоохранител	-10.7673
▁шум	-10.7679
альной	-10.768
▁ввел	-10.768
▁Род	-10.768
▁обл	-10.7683
▁минувши	-10.7683
▁вызван	-10.7683
Союз	-10.7691
▁стартовал	-10.7691
▁школьник	-10.7693
▁зону	-10.7697
▁лице	-10.77
▁поднять	-10.7701
ve	-10.7701
▁полуострова	-10.7701
брать	-10.7703
▁альтернатив	-10.7703
цеп	-10.7707
Рос	-10.7713
▁километра	-10.7716
▁дизайн	-10.7717
▁командой	-10.7718
▁Тр	-10.7718
▁Ху	-10.772
▁очереди	-10.7721
▁ожидания	-10.7721
▁инспектор	-10.7724
▁обыграл	-10.7724
▁рассчитан	-10.7724
▁переговорах	-10.7725
▁скрыв	-10.7729
▁районны	-10.7733
зел	-10.7734
▁щий	-10.7737
▁терроризм	-10.774
▁разрыв	-10.7741
▁Бра	-10.7742
▁кредитор	-10.7746
▁малого	-10.7747
▁гроз	-10.7747
бег	-10.7748
▁золота	-10.775
▁част	-10.7751
зан	-10.7754
ation	-10.7756
▁15%	-10.7757
▁даст	-10.7759
▁шт	-10.776
▁независимы	-10.7762
АК	-10.7763
▁сложн	-10.7767
▁Эль	-10.7769
▁1%	-10.7778
▁квалификаци	-10.7778
▁АТО	-10.7778
▁значения	-10.778
▁YouTube	-10.7781
▁заморозк	-10.7781
▁сердца	-10.7781
▁позиций	-10.7781
▁мандат	-10.7781
▁скидк	-10.7781
▁Inter	-10.7781
▁Смоленск	-10.7782
▁недвижимость	-10.7783
▁откуда	-10.7787
▁ставок	-10.7787
▁Управлени	-10.7788
▁акцию	-10.779
▁ребят	-10.7792
▁защища	-10.7792
▁разве	-10.7793
рей	-10.7793
▁картина	-10.7794
▁организацией	-10.7795
▁платежей	-10.7799
▁заняла	-10.7802
▁Федеральн	-10.7807
▁жен	-10.7809
ly	-10.7809
▁стро	-10.781
▁m	-10.781
▁катастрофы	-10.781
▁добавляет	-10.7813
так	-10.7813
▁пребывани	-10.7814
▁Бес	-10.7817
▁незаконны	-10.7818
▁прост	-10.7821
скольк	-10.7821
ent	-10.7821
▁пропаганд	-10.7824
▁произведен	-10.7828
▁убил	-10.7831
ерс	-10.7834
▁2%	-10.7835
▁аналог	-10.7836
Манчестер	-10.7837
▁Анастаси	-10.7837
▁досрочно	-10.7837
▁переработк	-10.7837
▁пространства	-10.7837
▁понимает	-10.7837
Коммерсантъ	-10.7838
▁доставил	-10.7838
▁клиник	-10.7838
▁требова	-10.7838
▁подрядчик	-10.7838
▁женщину	-10.7839
▁сцене	-10.7843
▁дизайнер	-10.7844
▁молоды	-10.7844
▁поезда	-10.7844
▁исполнительно	-10.7847
▁прекратит	-10.7847
▁Мам	-10.7849
▁соревнования	-10.7849
▁центральны	-10.7852
▁покупки	-10.7858
▁лишил	-10.7859
pe	-10.7859
▁езд	-10.7861
▁заложен	-10.7861
▁Гер	-10.787
▁разрешение	-10.7871
▁взыскани	-10.7873
▁Треть	-10.7874
▁выросло	-10.7876
РА	-10.7878
▁станови	-10.7878
▁положени	-10.788
▁ника	-10.788
▁свидетел	-10.7883
▁труб	-10.7886
▁мусор	-10.7887
▁био	-10.7887
▁Николаев	-10.7887
▁учебно	-10.7888
▁Ким	-10.7889
▁гг	-10.7889
▁Чем	-10.7889
▁местном	-10.7892
▁16:	-10.7892
▁Москвой	-10.7895
▁посещени	-10.7895
▁выставка	-10.7895
▁уверенность	-10.7896
zr	-10.7896
▁кафе	-10.7898
граф	-10.7899
▁добавила	-10.7901
▁столкновения	-10.7901
▁76	-10.7902
▁99	-10.7908
▁личности	-10.7909
▁очки	-10.7909
▁близких	-10.791
ками	-10.7912
▁Петербурга	-10.7918
▁предназначен	-10.7921
▁качественно	-10.7922
▁показ	-10.7923
ением	-10.7925
крат	-10.7925
▁делал	-10.7928
▁энергии	-10.7928
▁герои	-10.793
▁рассказ	-10.7932
люб	-10.7934
Ленты	-10.7937
▁кам	-10.7939
▁поддержи	-10.7942
здрав	-10.7943
▁предоставлен	-10.7943
▁отменен	-10.7944
▁подписали	-10.7948
▁Nov	-10.795
▁группировка	-10.795
▁готовил	-10.7952
▁Минэкономики	-10.7952
▁наследия	-10.7952
нис	-10.7954
▁трав	-10.7959
▁видели	-10.796
▁терминал	-10.7961
▁судна	-10.7964
▁указывает	-10.7965
секретаря	-10.7965
▁4,5	-10.7965
▁получилось	-10.7967
▁77	-10.797
▁тщательно	-10.797
▁американском	-10.7974
▁ветеран	-10.7974
рит	-10.7975
▁Минфина	-10.7976
▁енным	-10.7977
▁стан	-10.798
▁председателе	-10.7981
▁находить	-10.7984
▁законодательно	-10.7987
▁менять	-10.7987
▁Аравия	-10.7993
▁каком	-10.7995
,2%	-10.7995
цк	-10.7995
▁Гри	-10.8
▁кроссовер	-10.8
▁воздух	-10.8001
▁ница	-10.8002
▁создател	-10.8005
▁выкуп	-10.8006
▁подарк	-10.8007
▁группировк	-10.8007
▁возбуждени	-10.8007
▁посадк	-10.8009
і	-10.801
▁аргумент	-10.801
▁друзей	-10.801
▁разработчик	-10.801
▁Мексик	-10.801
▁застройщик	-10.801
▁газопровод	-10.801
▁единоросс	-10.801
▁закрыл	-10.801
▁топливо	-10.801
▁блюд	-10.8011
▁Член	-10.8013
▁думать	-10.8014
Ар	-10.8015
▁Тра	-10.8019
▁острове	-10.8024
▁морски	-10.803
▁ущерба	-10.8033
▁популярность	-10.8034
▁основател	-10.8034
▁оружием	-10.8038
▁выраст	-10.8041
рвать	-10.8041
▁един	-10.8042
50	-10.8045
▁шар	-10.8045
▁добро	-10.8048
▁небольши	-10.8049
▁кодекса	-10.8052
▁русски	-10.8052
▁вплот	-10.8054
os	-10.8055
▁спецслужб	-10.8057
▁наблюдения	-10.8057
▁конкурсе	-10.806
j	-10.8062
▁надежду	-10.8062
▁вагон	-10.8063
▁приостановлен	-10.8068
▁мясо	-10.8068
▁полуфинал	-10.8069
Около	-10.8069
▁детали	-10.8069
▁нефте	-10.8071
▁пересмотр	-10.8071
▁клад	-10.8072
▁добавив	-10.808
▁сокращени	-10.8083
▁ответить	-10.8084
▁Сирийск	-10.8085
▁поездки	-10.8086
▁Швеции	-10.8091
▁месяцы	-10.8091
▁звон	-10.8093
▁енко	-10.8094
▁содержания	-10.8094
▁осмотр	-10.8094
▁функции	-10.8095
▁академии	-10.8099
▁дипломатически	-10.8101
движ	-10.8101
▁Бело	-10.8102
▁площадки	-10.8102
▁природны	-10.8104
▁осуществляет	-10.8104
▁In	-10.8104
▁лиги	-10.8105
▁ареста	-10.8107
▁плеч	-10.8108
ng	-10.8108
▁компаниями	-10.8109
▁медаль	-10.811
пп	-10.811
▁Южн	-10.8115
▁ше	-10.8118
▁корпус	-10.8119
▁службе	-10.8121
▁Йо	-10.8124
▁поселка	-10.8124
▁дисциплин	-10.8125
▁взяла	-10.8126
-154	-10.8126
▁муниципалитет	-10.8126
▁тренд	-10.8127
▁автомобиле	-10.8128
формировать	-10.8128
▁разобраться	-10.8128
▁учреждений	-10.8129
▁размещения	-10.8129
▁использовали	-10.8129
▁провокаци	-10.813
▁on	-10.8133
▁парад	-10.8134
▁Чер	-10.8139
▁родственников	-10.8139
▁промышленно	-10.8141
▁уточняет	-10.8146
ницы	-10.8148
▁татар	-10.8149
▁формально	-10.8152
▁международн	-10.816
онос	-10.816
Об	-10.8162
▁указани	-10.8163
▁наруш	-10.8167
▁эффективност	-10.8168
▁Нам	-10.8169
▁поэт	-10.817
▁пристав	-10.8173
▁Жан	-10.8174
▁остановил	-10.8175
▁Жител	-10.8179
▁девочка	-10.818
▁человеку	-10.8182
▁члена	-10.8184
▁видеть	-10.8184
▁алкоголя	-10.8185
▁дивиденд	-10.8185
▁экзамен	-10.8185
▁инвестиции	-10.8185
▁узнал	-10.8185
ведут	-10.8186
▁силовы	-10.8186
▁Верховны	-10.8187
▁способству	-10.8187
▁алкогольно	-10.8188
▁снос	-10.8189
▁учителя	-10.819
▁двига	-10.8191
▁сетей	-10.8194
▁активности	-10.8198
▁презентаци	-10.8199
▁вкладов	-10.8199
▁$5	-10.8199
▁ца	-10.8207
▁ческ	-10.8208
▁строител	-10.8213
▁прогул	-10.8213
▁тел	-10.8215
▁линия	-10.8216
▁музыкально	-10.8216
ысокопоставленны	-10.8221
▁СУ	-10.8223
▁пишут	-10.8224
▁руководству	-10.8224
▁реализова	-10.8224
▁японско	-10.8225
▁дорожны	-10.8227
▁Русск	-10.8227
пуск	-10.8229
▁учебны	-10.8231
▁принципе	-10.8231
▁дорогах	-10.8231
▁de	-10.8236
▁одежды	-10.8236
um	-10.824
▁Англии	-10.8241
▁машине	-10.8243
―	-10.8244
▁батальон	-10.8244
▁болезни	-10.8244
▁естественно	-10.8244
▁Заместител	-10.8244
▁негативны	-10.8244
▁Людмил	-10.8244
▁подъем	-10.8245
▁Коми	-10.8245
▁нужен	-10.8246
▁надеется	-10.8246
▁Зна	-10.8251
▁АЭС	-10.8251
▁краево	-10.8252
▁);	-10.8252
ord	-10.8256
фан	-10.8261
▁условно	-10.8266
▁Бизнес	-10.8266
▁Петров	-10.8266
▁спецслужбы	-10.8267
▁жительниц	-10.8271
▁полковник	-10.8275
▁Q	-10.8275
▁бросил	-10.8284
▁Ск	-10.8287
▁мирных	-10.8292
▁Попов	-10.8296
▁охот	-10.8297
▁конкуренции	-10.8304
▁индивидуальны	-10.8304
▁утверждал	-10.8304
▁планеты	-10.8305
▁фермер	-10.8308
▁препараты	-10.8313
▁актриса	-10.8313
▁повысить	-10.8314
ключения	-10.8318
▁выявлен	-10.8319
▁категори	-10.832
жан	-10.8325
▁пассажир	-10.8326
▁причинам	-10.8327
Ан	-10.8328
▁девушки	-10.8329
▁дости	-10.8331
▁24"	-10.8333
▁бал	-10.8334
▁арабск	-10.8336
▁созыва	-10.8338
U	-10.8341
K	-10.8342
▁процентны	-10.8342
▁Информаци	-10.8343
▁денежно	-10.8344
▁Ак	-10.8345
▁остав	-10.8347
▁исполнение	-10.8347
▁препарат	-10.835
▁оппозици	-10.8353
▁Рост	-10.8355
строен	-10.8355
льно	-10.8356
▁призер	-10.8357
Он	-10.8357
▁белы	-10.8361
▁Асад	-10.8362
▁рынки	-10.8364
▁вооруженно	-10.8364
▁Советско	-10.8364
▁здорово	-10.8365
▁коалици	-10.8365
ительно	-10.8366
▁заверши	-10.8367
▁отставке	-10.8369
▁речи	-10.8371
▁задани	-10.8371
▁элит	-10.8372
▁крест	-10.8372
▁чтени	-10.8372
▁Др	-10.8375
▁льгот	-10.8378
▁границ	-10.8378
торг	-10.838
▁выходные	-10.8382
▁движени	-10.8383
▁сбора	-10.8383
▁допустил	-10.8388
▁рассчитывать	-10.8388
▁Ев	-10.8394
▁Австралии	-10.8398
▁Гре	-10.8401
▁Ирака	-10.8401
ho	-10.8402
проб	-10.8403
▁квартала	-10.8403
▁экономист	-10.8404
носить	-10.8407
▁командовани	-10.8408
▁Тре	-10.8409
казалось	-10.8409
▁78	-10.8409
▁практике	-10.841
,4%	-10.8413
▁школа	-10.8419
▁ран	-10.8421
▁Центробанк	-10.8422
▁крымски	-10.8424
▁убийц	-10.8424
▁маневр	-10.8424
▁стратегическо	-10.8424
▁(4	-10.8424
▁маленьк	-10.8426
▁FT	-10.8427
▁Втор	-10.8428
▁Новак	-10.8429
▁выполнение	-10.8431
▁Главное	-10.8431
▁крут	-10.8437
▁направлений	-10.8437
▁должник	-10.8441
▁Лес	-10.8442
▁менеджер	-10.8445
▁88	-10.8446
▁встретить	-10.8446
▁Друго	-10.8447
▁Майкл	-10.8449
▁отпуск	-10.8451
Извести	-10.8452
▁возглавлял	-10.8457
▁Московский	-10.8458
▁националист	-10.8458
▁нарушител	-10.846
▁напал	-10.846
▁сотрудника	-10.846
▁Почт	-10.846
▁гер	-10.8461
▁месячн	-10.8464
▁высши	-10.8465
ряду	-10.8465
▁защитить	-10.8465
▁восстановление	-10.8473
▁правилам	-10.8473
▁вторая	-10.8474
▁ing	-10.8476
▁открытие	-10.8477
руб	-10.8478
▁съем	-10.8479
▁боксер	-10.8479
▁девочки	-10.8481
▁собственн	-10.8482
▁лекарства	-10.8483
▁объединя	-10.8485
▁коридор	-10.8485
▁разрешит	-10.8485
▁соцсетях	-10.8485
▁местным	-10.8487
▁чуж	-10.8488
▁действиям	-10.8489
▁Верси	-10.8489
▁отказал	-10.8492
▁страховани	-10.8493
▁двигателя	-10.8494
▁ционно	-10.8495
▁форум	-10.8495
▁вызва	-10.8501
▁подпис	-10.851
▁перемирия	-10.8512
▁улиц	-10.8513
▁любит	-10.8515
▁кредиты	-10.8517
▁фраз	-10.8517
▁грани	-10.8519
▁физик	-10.8521
▁государством	-10.8522
▁сессии	-10.8522
▁10-	-10.8524
▁Запада	-10.8527
ay	-10.8531
▁страной	-10.8532
Спорт	-10.8534
▁обстоятельств	-10.8541
▁магазинов	-10.8542
▁аемы	-10.8543
▁Тим	-10.8545
▁2015-	-10.8545
нфляция	-10.8546
▁Подмосковье	-10.8546
▁Швейцарии	-10.8546
▁выполнил	-10.8546
▁ближе	-10.8546
▁колонн	-10.8546
▁недалеко	-10.8546
▁Наши	-10.8546
▁ключ	-10.8547
▁отменил	-10.8548
▁страшно	-10.8549
▁ограничений	-10.855
глас	-10.855
▁выступ	-10.8554
▁масштабны	-10.8557
▁врача	-10.8558
▁помога	-10.856
госпитализирован	-10.856
▁сферы	-10.8561
che	-10.857
▁30-	-10.857
▁предлага	-10.857
▁Геро	-10.8574
▁боле	-10.8575
▁срочно	-10.8576
пущен	-10.8576
▁форму	-10.8577
▁Московск	-10.8577
▁це	-10.8578
▁формы	-10.8579
▁ированн	-10.8579
▁обсуждение	-10.8586
▁выявил	-10.8588
▁преимущество	-10.8589
▁вещества	-10.8591
▁считал	-10.8592
редко	-10.8594
▁установки	-10.8597
▁спросил	-10.8597
▁реконструкции	-10.8599
▁комментарии	-10.86
▁участвую	-10.8606
Daily	-10.8607
▁Проблем	-10.8607
▁велосипед	-10.8607
▁легкоатлет	-10.8607
▁авторитет	-10.8607
▁ипотек	-10.8607
▁Рамзан	-10.8607
▁Дум	-10.8607
▁появ	-10.8608
▁русских	-10.8608
▁сообщество	-10.8611
▁1991	-10.8611
▁подъезд	-10.8612
▁залог	-10.8615
▁самопровозглаш	-10.8615
▁областях	-10.862
ндер	-10.8621
▁15-	-10.8621
▁Тот	-10.8622
▁террористы	-10.8622
▁закрыть	-10.8623
▁борьба	-10.8623
▁готовность	-10.8625
▁Цель	-10.8628
▁комплект	-10.8637
▁Le	-10.8637
▁исполнил	-10.864
ИГ	-10.8641
▁банд	-10.8641
▁инвалид	-10.8646
▁принесл	-10.8648
▁квадратны	-10.8649
МВД	-10.8654
▁рынках	-10.8655
тые	-10.8655
▁чай	-10.8656
▁жертвам	-10.8656
разу	-10.8658
▁норматив	-10.8658
▁политическим	-10.8659
▁качественны	-10.866
▁подтверди	-10.8664
▁счастлив	-10.8664
▁отмеча	-10.8666
▁хор	-10.8666
▁происходил	-10.8669
▁лагеря	-10.8669
▁совершит	-10.8669
▁историк	-10.8669
▁штурм	-10.8669
▁выбран	-10.8669
▁намечен	-10.8669
▁Mail	-10.8669
▁щих	-10.867
▁90-	-10.8671
▁экспертизы	-10.8672
▁похожи	-10.8677
▁пояс	-10.8677
▁редко	-10.868
▁ворот	-10.8681
эм	-10.8681
▁ированно	-10.8687
▁дала	-10.8688
▁представляют	-10.8688
▁промышленны	-10.8688
▁поддержка	-10.869
▁заводе	-10.8692
рест	-10.8692
▁нами	-10.8693
▁польско	-10.8694
▁замеча	-10.8694
▁собирал	-10.8701
▁наблюдает	-10.8703
▁президентско	-10.8705
▁мозга	-10.8705
▁хочется	-10.8706
▁революции	-10.871
▁понимают	-10.8711
▁ранен	-10.8714
▁задержания	-10.8714
▁покида	-10.8715
▁согласил	-10.8715
▁записи	-10.8717
▁собра	-10.8719
стях	-10.8719
двиг	-10.8725
▁Реджеп	-10.8731
▁потребительски	-10.8731
▁Франция	-10.8731
▁вузов	-10.8735
▁мм	-10.8735
▁ракетны	-10.8736
▁Сен	-10.8741
▁Демократическ	-10.8743
▁Кост	-10.8743
▁чему	-10.8744
ТС	-10.8746
▁Республиканск	-10.8751
▁согласовани	-10.8754
▁обраща	-10.8755
смотр	-10.8757
▁АиФ	-10.8758
▁строчк	-10.876
▁полет	-10.876
▁расширени	-10.876
▁призван	-10.8761
▁2-	-10.8761
▁раскрыт	-10.8761
▁присоединени	-10.8767
▁бокс	-10.8769
▁завершить	-10.877
▁японски	-10.877
▁продолжал	-10.8771
грает	-10.8772
▁отличает	-10.8775
▁форуме	-10.8782
кажут	-10.8782
▁автомобильны	-10.8789
▁Интерфакс	-10.879
▁парке	-10.879
▁тенденци	-10.8791
ВКонтакте	-10.8793
▁удовольствие	-10.8793
▁Видео	-10.8793
▁хватит	-10.8793
▁Земли	-10.8794
▁вратар	-10.8794
▁пояснила	-10.8796
▁сюда	-10.8797
казывается	-10.8797
▁реальности	-10.88
▁овский	-10.8802
▁енных	-10.8802
▁ГК	-10.8806
люс	-10.8807
▁Велик	-10.8807
▁условиям	-10.8807
здание	-10.8808
▁авиаудар	-10.8809
УП	-10.8812
▁испытыва	-10.8813
▁лук	-10.8814
кажет	-10.8814
▁письме	-10.8816
▁]	-10.8818
▁очно	-10.8819
▁сформирован	-10.882
▁союзник	-10.8823
▁жителя	-10.8826
▁собрать	-10.8828
▁обвиняет	-10.883
▁блока	-10.8831
вели	-10.8834
▁ическим	-10.8834
СК	-10.8835
▁подростков	-10.8836
▁демократов	-10.8837
▁фе	-10.8838
▁соблюдени	-10.8838
▁ожидают	-10.8839
▁Германия	-10.884
▁турнире	-10.8845
▁использован	-10.8846
▁берегов	-10.8847
▁последстви	-10.8848
ard	-10.885
▁боль	-10.8851
▁футболиста	-10.8853
▁заксобрани	-10.8856
▁лауреат	-10.8856
▁гряз	-10.8856
▁постановк	-10.8856
▁репутаци	-10.8856
▁ает	-10.8857
▁допустить	-10.8858
▁зачем	-10.8859
▁способность	-10.8863
▁плод	-10.8863
▁аналитики	-10.8865
▁Татарстан	-10.8865
▁найден	-10.8867
▁ания	-10.8868
▁данн	-10.8869
▁остально	-10.887
▁седьмо	-10.8874
▁подтверждает	-10.8875
▁ПАО	-10.8876
▁футбола	-10.8877
▁доказательства	-10.8881
▁Глав	-10.8882
нтер	-10.8885
▁Украински	-10.8886
роз	-10.889
▁осозна	-10.8892
▁уровн	-10.8892
▁важным	-10.8894
▁организовал	-10.8896
▁компаниям	-10.8899
ступают	-10.8901
▁чи	-10.8901
ления	-10.8901
▁публичны	-10.8902
настоящему	-10.8902
▁енная	-10.8904
▁Омск	-10.8904
▁ался	-10.8906
▁пользователи	-10.8906
▁имеющих	-10.8907
▁эффективность	-10.891
▁какая	-10.8911
▁Re	-10.8912
▁Рус	-10.8915
▁Шар	-10.8915
▁улицу	-10.8917
▁миров	-10.8918
▁Al	-10.8919
▁пространство	-10.892
▁убедить	-10.892
▁Тайип	-10.892
17	-10.8922
▁счита	-10.8924
▁демонстраци	-10.8925
▁Мос	-10.8925
▁исключа	-10.8929
▁церемони	-10.8931
▁чиновника	-10.8931
▁гон	-10.8934
▁разно	-10.8938
▁сбил	-10.8938
▁To	-10.894
▁поверхност	-10.8949
▁образовательны	-10.8951
▁знали	-10.8953
▁зато	-10.8957
▁цифры	-10.8961
▁приступил	-10.8962
▁личность	-10.8962
▁кап	-10.8969
▁али	-10.897
льным	-10.8972
ектор	-10.8975
▁Генпрокуратур	-10.8978
▁возглавит	-10.8983
▁шахмат	-10.8983
▁учитывая	-10.8983
▁дверь	-10.8985
▁Европа	-10.8985
▁южно	-10.8985
▁Екатеринбурге	-10.8985
▁городу	-10.8989
▁респондентов	-10.899
▁пу	-10.8993
▁хим	-10.8994
▁оценил	-10.8995
▁велики	-10.8996
▁отстранен	-10.8996
ерию	-10.8996
▁четверо	-10.8998
▁финала	-10.9
▁берет	-10.9
▁Медведева	-10.9
▁жал	-10.9002
▁Ираке	-10.9004
▁приема	-10.9006
,1%	-10.9006
▁придержива	-10.9009
▁имели	-10.9009
▁ФИФА	-10.901
▁Белого	-10.9013
▁носит	-10.9016
▁запустил	-10.9018
▁способност	-10.9019
▁масло	-10.9021
va	-10.9027
▁6-	-10.9029
▁военнослужащи	-10.9035
▁газо	-10.9038
▁подчеркнула	-10.9042
▁New	-10.9044
торым	-10.9047
▁эвакуаци	-10.9047
▁возгорани	-10.9047
▁наркотиков	-10.9047
▁обеспокоен	-10.9047
▁ответственны	-10.9047
▁юнош	-10.9048
▁трансфер	-10.9048
▁верх	-10.9048
▁Сити	-10.9049
▁пап	-10.9049
▁христиан	-10.9049
▁познакоми	-10.905
▁Лебедев	-10.9051
берг	-10.9053
▁80%	-10.9055
тав	-10.9058
▁хит	-10.9059
▁зелены	-10.9061
▁пациента	-10.9063
▁существенны	-10.9063
▁190	-10.9064
▁экспертиз	-10.9066
▁8-	-10.9066
▁основатель	-10.9066
▁близко	-10.9066
няк	-10.9067
▁исполнительны	-10.9067
▁вопросом	-10.907
▁перешл	-10.9073
▁десятка	-10.9074
▁трасс	-10.9075
▁Мол	-10.9076
▁фур	-10.9077
▁действ	-10.908
▁мужчину	-10.9086
▁95	-10.9087
▁автоматически	-10.9088
▁полетов	-10.909
▁гуманитарны	-10.9096
счет	-10.9097
▁дохода	-10.9099
▁Над	-10.9099
▁вуза	-10.9099
▁сделка	-10.9099
▁выступлени	-10.91
▁Яр	-10.9101
▁столкновени	-10.9104
▁использовани	-10.9105
Вести	-10.9106
▁Лондон	-10.9108
▁отреагировал	-10.9111
▁воспитани	-10.9112
▁кинематограф	-10.9112
▁недавне	-10.9112
▁авиабаз	-10.9112
▁батаре	-10.9112
▁технику	-10.9113
▁пользователя	-10.9113
▁выражении	-10.9114
▁штук	-10.9114
▁выехал	-10.9117
▁договоренностей	-10.9118
Наш	-10.9118
очный	-10.912
▁деятельностью	-10.9121
▁Джона	-10.9122
▁щего	-10.9122
▁делом	-10.9131
▁дежур	-10.9132
▁лин	-10.9137
▁читател	-10.9138
▁предпринимател	-10.9138
▁звезды	-10.9141
▁71	-10.9143
▁разработал	-10.9143
Воронеж	-10.9151
АН	-10.9151
▁думы	-10.9152
▁ЛНР	-10.9153
▁клиентам	-10.9158
▁Оно	-10.9162
▁Стран	-10.9162
▁показателей	-10.9164
рад	-10.9171
▁переворота	-10.9171
▁исследовательск	-10.9172
▁железнодорожно	-10.9177
▁героев	-10.9177
▁отмечен	-10.9177
▁сделок	-10.9177
▁соглашени	-10.9178
▁волос	-10.9178
▁73	-10.9178
▁надежд	-10.9181
▁предложений	-10.9182
▁контролирова	-10.9183
▁посетителей	-10.9186
имов	-10.9189
▁боли	-10.919
▁енной	-10.9193
град	-10.9196
ивно	-10.9196
▁тема	-10.9198
▁Ситуаци	-10.92
▁попытал	-10.9201
▁стабильно	-10.9201
▁точны	-10.921
▁согласован	-10.9211
▁щие	-10.9213
▁располага	-10.9217
▁человечески	-10.9217
▁кредитования	-10.9218
▁взлет	-10.9219
▁подозревают	-10.922
жно	-10.922
▁указанны	-10.9224
▁Реш	-10.9227
▁поражения	-10.9232
▁чтении	-10.9237
Урал	-10.9239
▁туре	-10.924
▁Израиля	-10.9242
▁землю	-10.9242
▁покушени	-10.9242
▁поворот	-10.9242
▁Польше	-10.9242
▁Миронов	-10.9242
▁слышал	-10.9243
▁проще	-10.9243
▁ФБР	-10.9243
▁убиты	-10.9244
▁занятия	-10.9244
▁пятер	-10.9244
▁перелом	-10.9245
▁Агентство	-10.9245
▁преступно	-10.9245
▁стражей	-10.9249
▁Лю	-10.925
▁Хан	-10.9251
▁метра	-10.9253
▁судьи	-10.9253
▁энергетическо	-10.9254
▁полузащитник	-10.9257
▁балет	-10.9262
▁Мил	-10.9264
▁Мартин	-10.9267
▁выводы	-10.9268
▁членом	-10.927
▁болельщиков	-10.927
▁парламентари	-10.9273
▁ельно	-10.9276
▁социальн	-10.9276
▁держать	-10.9278
▁Пен	-10.9279
▁Берлин	-10.928
▁тайм	-10.9282
▁тип	-10.9284
договориться	-10.9285
▁Вал	-10.929
▁новость	-10.929
▁инфекци	-10.9291
▁пис	-10.9292
▁страниц	-10.9294
▁ировали	-10.9296
▁формате	-10.9296
▁дальнейши	-10.9297
▁назначени	-10.9297
▁проведенно	-10.9298
▁ранены	-10.9298
▁запретит	-10.9299
▁алась	-10.9301
▁ается	-10.9304
▁гриппа	-10.9306
▁Литв	-10.9307
▁Instagram	-10.9308
▁Samsung	-10.9308
▁Собянин	-10.9308
▁Финляндии	-10.9308
▁радиостанци	-10.9308
▁заявив	-10.9309
▁НКО	-10.931
▁кибер	-10.931
▁Группа	-10.9311
▁сильнее	-10.9311
▁02	-10.9313
атов	-10.9315
▁почв	-10.9317
очку	-10.9318
▁экспозици	-10.9323
▁проживани	-10.9327
▁ание	-10.933
▁использу	-10.9332
▁многим	-10.9332
доль	-10.9335
▁культурны	-10.9338
йтесь	-10.9339
▁запис	-10.9341
▁приобретени	-10.9341
▁внедрени	-10.9342
▁свободны	-10.9343
▁холод	-10.9344
▁оказывают	-10.9346
▁зимой	-10.9346
▁Март	-10.9349
▁Белы	-10.935
▁красивы	-10.9352
арт	-10.9353
▁Государственн	-10.9355
▁розничн	-10.9355
▁добровольно	-10.9355
шан	-10.9362
▁станция	-10.9363
▁Том	-10.9364
Свобод	-10.9364
▁проверя	-10.9365
▁енно	-10.9367
▁выстрел	-10.9368
▁посвященны	-10.9372
▁сценарий	-10.9373
▁Эн	-10.9373
губернатор	-10.9374
▁профилактик	-10.9374
▁Олланд	-10.9374
▁мелки	-10.9374
▁Предполагается	-10.9374
▁мертв	-10.9375
▁04	-10.9378
льный	-10.9382
▁Организаци	-10.9382
▁оценива	-10.9383
▁канцлер	-10.9383
щиков	-10.9385
ul	-10.9385
▁зуб	-10.9387
гиб	-10.9388
▁старту	-10.939
▁100%	-10.9395
▁форма	-10.9395
▁Курс	-10.9396
▁мощности	-10.94
▁25%	-10.9401
▁партнерами	-10.9402
▁пригласил	-10.9402
▁стартов	-10.9404
▁телефону	-10.9404
▁выяснили	-10.9408
▁st	-10.941
▁зимни	-10.9414
▁противоречи	-10.9421
▁конструкци	-10.9422
▁необходим	-10.9426
▁коммерческо	-10.9426
▁находя	-10.9432
▁красны	-10.9439
▁Египет	-10.9441
▁монастыр	-10.9441
▁двадцат	-10.9441
▁заставил	-10.9441
▁моделей	-10.9441
▁Минтранс	-10.9441
▁спасатели	-10.9441
▁оказан	-10.9441
▁покупателя	-10.9444
▁такси	-10.9447
▁носил	-10.9448
аги	-10.9448
▁тяжел	-10.9449
▁Тур	-10.945
▁спаса	-10.945
▁считаем	-10.9452
▁пациент	-10.9453
лес	-10.9456
▁ноги	-10.9457
оставлять	-10.9461
▁резолюци	-10.9462
▁погибшего	-10.9463
▁13:	-10.9464
▁слабо	-10.9464
▁возможным	-10.9467
▁Сахалин	-10.9469
▁приход	-10.9474
▁ельн	-10.9475
Народн	-10.9478
▁82	-10.948
▁собор	-10.948
▁Ярослав	-10.948
▁9-	-10.9483
люк	-10.9486
▁Дуб	-10.9488
▁Кот	-10.9489
▁коллегами	-10.949
▁новогодни	-10.9492
▁предложит	-10.9493
▁слову	-10.9494
▁подразделени	-10.9506
▁Конституци	-10.9507
▁СБУ	-10.9507
▁ходатайство	-10.9507
▁контент	-10.9508
▁телевизор	-10.9508
▁хирург	-10.9509
▁дочери	-10.9509
▁Ряд	-10.951
-2"	-10.9511
▁территория	-10.9512
▁ошибки	-10.9512
▁192	-10.9514
▁думает	-10.9521
▁закрытия	-10.9525
▁чемпиона	-10.9525
▁отвечать	-10.9528
▁концов	-10.9528
▁регулировани	-10.953
▁увеличен	-10.9531
щут	-10.9531
-8	-10.9534
▁мужа	-10.9541
лор	-10.9543
▁часы	-10.9543
▁добр	-10.9543
▁прекратил	-10.9543
▁Эт	-10.9545
▁ожидал	-10.9546
▁человеческо	-10.9552
co	-10.9554
▁щим	-10.9555
▁лишен	-10.956
▁бренда	-10.9563
▁1-	-10.9564
▁мероприятие	-10.9569
▁оснований	-10.957
▁Volkswagen	-10.9575
▁награжден	-10.9575
▁наставник	-10.9575
▁Недавн	-10.9576
▁рецепт	-10.9576
▁насилия	-10.9576
▁выделя	-10.9579
▁способствова	-10.9579
▁покупателей	-10.9581
▁вспоминает	-10.9581
Аль	-10.9584
▁американцев	-10.9584
▁подать	-10.9585
▁альянса	-10.959
Да	-10.9591
▁волну	-10.9592
▁брал	-10.9598
▁вертолета	-10.9601
▁определил	-10.9602
▁называть	-10.9602
▁7-	-10.9603
▁блокад	-10.9604
▁стоя	-10.9604
бирать	-10.9605
▁тарифов	-10.9607
▁выпускник	-10.9607
▁обсуждал	-10.9609
▁подрыв	-10.961
▁Клим	-10.9611
▁голод	-10.9611
нским	-10.9615
▁пассажирски	-10.9615
▁семью	-10.9616
росс	-10.9623
▁Егор	-10.9626
несут	-10.9638
▁Владислав	-10.9644
▁Прокуратур	-10.9644
▁заслуг	-10.9644
▁освободил	-10.9644
▁языке	-10.9645
▁составляющ	-10.9646
▁республиканцев	-10.9648
▁05	-10.9649
▁рады	-10.965
▁клиническ	-10.965
▁медицинск	-10.9654
▁русском	-10.9656
▁офшор	-10.9658
▁терроризма	-10.9658
▁пропал	-10.9659
▁установлены	-10.9661
▁размера	-10.9661
▁выполнен	-10.9662
▁предположил	-10.9663
▁плей	-10.9665
▁системой	-10.9667
▁показывают	-10.9668
▁Кадырова	-10.9668
▁1990-	-10.9676
▁называет	-10.9679
▁выдал	-10.9679
▁ученик	-10.9683
▁Калининград	-10.9686
▁обращать	-10.9693
▁печ	-10.9696
▁8%	-10.9696
-24	-10.9696
▁разби	-10.9697
▁Марс	-10.9698
▁показала	-10.9701
▁вызывае	-10.9702
ment	-10.9703
▁1,3	-10.9705
▁окружени	-10.9705
▁месторождени	-10.9708
▁Норвегии	-10.9709
▁актера	-10.971
▁Университет	-10.9712
▁поправок	-10.9712
▁юстици	-10.9712
▁везде	-10.9712
▁здоровью	-10.9712
▁школах	-10.9712
▁благоустройств	-10.9712
▁знания	-10.9715
▁опасность	-10.9715
▁процедура	-10.9716
▁седан	-10.9718
▁проезж	-10.9719
бив	-10.9724
▁допинга	-10.9726
▁al	-10.9728
▁ожидать	-10.9728
восток	-10.9728
▁приговорен	-10.973
▁заяв	-10.9736
▁партнеры	-10.9737
▁широки	-10.9739
▁энерги	-10.974
▁памятника	-10.9741
▁товар	-10.9742
▁исключил	-10.9743
предел	-10.9743
▁вмешательств	-10.9744
▁Канад	-10.9746
▁уверенно	-10.9748
▁значительн	-10.9749
▁код	-10.975
нар	-10.9751
▁полицейского	-10.9751
▁посол	-10.9752
дает	-10.9754
▁Коло	-10.9759
▁‐	-10.9762
Рус	-10.9763
11	-10.9765
▁наблюда	-10.9766
онных	-10.9767
▁подключ	-10.9772
олл	-10.9772
▁зрител	-10.9774
▁Тай	-10.9777
▁праздника	-10.978
▁Таджикистан	-10.9781
▁Эдуард	-10.9781
▁аэродром	-10.9781
▁болезнь	-10.9781
▁сельхоз	-10.9781
▁фабрик	-10.9781
▁учитывать	-10.9781
▁Вообще	-10.9781
▁Казани	-10.9781
▁оплачива	-10.9781
нял	-10.9781
▁освободит	-10.9782
▁происходяще	-10.9782
▁задолженность	-10.9782
▁1,8	-10.9782
▁ярко	-10.9784
▁дорога	-10.9785
▁пьян	-10.9785
▁возмещени	-10.9786
▁коррупцией	-10.9787
▁зачаст	-10.9788
BC	-10.9788
▁Катар	-10.9788
шись	-10.9789
▁решающ	-10.979
▁землетрясения	-10.9793
эль	-10.9793
ac	-10.9799
▁кем	-10.9801
▁холдинга	-10.9801
тебе	-10.9804
▁Сталин	-10.9807
▁Ирак	-10.9809
▁Луганской	-10.9809
делить	-10.981
зависимость	-10.9811
▁противостояни	-10.9815
24	-10.9815
▁понимание	-10.9816
▁обвини	-10.9816
▁исключено	-10.9817
▁головы	-10.9818
▁ающей	-10.9818
▁Юр	-10.9818
▁адапт	-10.982
▁контр	-10.9822
▁состоят	-10.9824
▁партнера	-10.9825
▁причастны	-10.9827
▁реша	-10.9832
▁начальн	-10.9833
▁бог	-10.984
▁держав	-10.9841
▁артиллери	-10.9849
▁ОСАГО	-10.985
▁Полицейски	-10.985
▁депозит	-10.985
▁Объем	-10.985
▁прежни	-10.985
▁Женеве	-10.9851
▁коробк	-10.9851
▁Вашингтона	-10.9851
▁годовщин	-10.9851
▁обжалова	-10.9852
▁камеры	-10.9857
ливо	-10.986
▁ающе	-10.986
▁виды	-10.9864
▁вооружения	-10.9865
кладывать	-10.9868
▁глобальны	-10.9869
▁проходили	-10.9872
▁мировом	-10.9875
гул	-10.9875
▁атаку	-10.9876
▁стадион	-10.9878
▁рекламы	-10.9879
▁кабинета	-10.9879
▁казалось	-10.988
▁чин	-10.988
▁Баб	-10.9882
▁мигрант	-10.9884
▁композици	-10.9885
▁регулятора	-10.9887
▁ужас	-10.9889
▁льным	-10.9889
▁ветер	-10.9891
▁всяко	-10.9895
▁бизнесмена	-10.9895
▁эффективны	-10.9898
▁мини	-10.9899
▁продал	-10.9899
▁Тут	-10.99
▁снижа	-10.9902
▁уточнили	-10.9903
менеджер	-10.9903
▁лицом	-10.9903
▁магазина	-10.9904
▁нашел	-10.9904
▁пить	-10.9905
▁спас	-10.9908
▁факторов	-10.9909
▁москвич	-10.9909
▁Молдавии	-10.991
▁пошли	-10.991
▁Амурско	-10.9912
▁обществе	-10.9913
▁Берн	-10.9917
▁легенд	-10.992
▁аккаунт	-10.992
▁рассужда	-10.992
▁фаворит	-10.992
▁Захарченко	-10.9921
▁атлет	-10.9921
▁толп	-10.9923
▁коммунальны	-10.9924
▁принимали	-10.9924
▁61	-10.9925
▁01	-10.9925
▁обучение	-10.9926
леб	-10.9927
▁ающая	-10.9928
▁12:	-10.9933
▁предстояще	-10.9933
▁ценны	-10.9934
▁присутствовал	-10.9934
▁бега	-10.9935
▁крас	-10.9937
▁женско	-10.9937
▁установленно	-10.9946
▁дороже	-10.9952
▁атака	-10.9953
▁Буд	-10.9954
кажется	-10.9958
▁региональном	-10.9959
▁ведения	-10.9959
▁взрослых	-10.9959
▁прокуратур	-10.9962
▁водой	-10.9962
▁шие	-10.9966
▁проблемой	-10.9967
▁хозяев	-10.9969
▁1,4	-10.9969
▁судя	-10.997
ционный	-10.9971
▁мозг	-10.9971
▁отверг	-10.9973
жал	-10.9973
▁ног	-10.9973
▁парламенте	-10.9977
▁готовить	-10.9978
▁трудово	-10.9982
▁кредитам	-10.9985
сор	-10.9985
▁Мед	-10.9988
▁поступлени	-10.9988
Со	-10.9988
▁желающи	-10.9991
Роскосмос	-10.9991
▁НПФ	-10.9991
▁Программ	-10.9991
▁Происшестви	-10.9991
▁Сибири	-10.9991
▁конструктор	-10.9991
▁обработк	-10.9991
▁характеристик	-10.9991
▁жюри	-10.9991
▁трибун	-10.9991
▁Володин	-10.9991
▁Токио	-10.9991
▁1,1	-10.9991
▁Дел	-10.9991
▁Свет	-10.9992
▁земель	-10.9993
▁приятно	-10.9993
▁25-	-10.9994
▁минимальны	-10.9994
▁приобрета	-10.9997
▁судно	-10.9998
init	-11
▁Работ	-11.0001
▁Пас	-11.0001
▁Думы	-11.0002
▁исследовател	-11.0003
▁Донбасса	-11.0007
▁довер	-11.0007
▁устав	-11.0009
▁применять	-11.0009
▁тво	-11.0009
▁350	-11.0009
▁Петербург	-11.001
▁допущен	-11.0012
▁экстренно	-11.0018
▁Иркутск	-11.0019
▁закончи	-11.002
▁семейны	-11.002
▁запрета	-11.002
ill	-11.0023
▁запреща	-11.0026
едов	-11.0026
▁применя	-11.0026
▁электроэнергии	-11.0027
бург	-11.0028
▁сохраняет	-11.0029
▁улыб	-11.0034
▁Ус	-11.0036
▁резолюции	-11.0039
▁ставит	-11.0042
▁нерв	-11.0043
▁художника	-11.0044
▁бок	-11.0045
▁пра	-11.0048
▁отчетности	-11.0048
▁прокуратуру	-11.005
▁предпринимателя	-11.0056
▁79	-11.0056
внимательно	-11.0062
▁Служб	-11.0062
▁соотечественник	-11.0062
▁предположени	-11.0062
▁индивидуально	-11.0062
▁бабушк	-11.0062
▁продлил	-11.0062
▁нескольким	-11.0062
▁отравлени	-11.0062
▁линейк	-11.0062
▁Мер	-11.0063
▁охват	-11.0064
▁заявлений	-11.0064
bg	-11.0067
▁начинается	-11.0067
▁ьно	-11.0068
Ку	-11.0069
анные	-11.0069
▁строя	-11.0073
▁свят	-11.0074
▁пользовател	-11.0075
▁стиле	-11.0076
▁to	-11.0078
▁матчах	-11.0078
Джеб	-11.0079
▁линию	-11.008
▁золоты	-11.008
▁игроки	-11.0082
рап	-11.0082
▁мински	-11.0082
▁вывоз	-11.0083
▁рис	-11.0083
очного	-11.0086
▁Общественно	-11.0086
▁обид	-11.0088
▁территориально	-11.0089
▁потока	-11.0092
▁разрешен	-11.0096
покупать	-11.0098
all	-11.0098
план	-11.0101
▁рекомендации	-11.0106
ложения	-11.0106
▁лево	-11.0107
▁Масс	-11.0107
▁Ленина	-11.0109
▁12-	-11.0109
▁ающим	-11.0113
▁аналогично	-11.0115
▁очередн	-11.0116
▁госпитал	-11.0116
▁исключи	-11.0117
▁удержива	-11.0118
▁приложение	-11.0124
▁Регион	-11.0124
▁спортсмена	-11.0126
▁огн	-11.0127
▁заведения	-11.0129
▁недостатк	-11.0133
▁поддерживают	-11.0133
▁хоккеист	-11.0133
▁религиозны	-11.0133
▁Совбез	-11.0133
▁связей	-11.0133
▁Джеймс	-11.0133
▁дешевле	-11.0133
▁Шеремет	-11.0133
▁обучения	-11.0134
▁Правительств	-11.0136
▁жанр	-11.0136
▁1999	-11.0137
▁обход	-11.0138
▁кле	-11.0138
▁Журналист	-11.0139
▁цех	-11.014
▁сан	-11.0141
▁родно	-11.0142
пед	-11.0143
ПС	-11.0145
▁ограничение	-11.0145
▁мен	-11.0149
▁общения	-11.015
▁актуальны	-11.015
▁огромн	-11.0151
▁резки	-11.0153
▁помогал	-11.0153
▁активн	-11.0154
джа	-11.0158
▁Вашингтоне	-11.0158
▁владельцы	-11.0159
▁наверн	-11.0159
▁спортсменк	-11.0162
вис	-11.0165
▁мониторинг	-11.0167
▁количеств	-11.0167
▁стражу	-11.0173
▁сум	-11.0175
▁упали	-11.0177
▁испытани	-11.0179
▁ЧМ	-11.0179
▁Хор	-11.018
▁собственность	-11.0181
▁пес	-11.0182
▁школьников	-11.0183
▁Пушкин	-11.0185
▁Yo	-11.0191
▁инициатива	-11.0196
▁отмене	-11.0196
▁опусти	-11.0197
евые	-11.02
посредств	-11.0205
▁петици	-11.0205
▁Минэнерго	-11.0205
▁Карелии	-11.0206
режде	-11.0207
▁взорвал	-11.0207
12	-11.0209
▁громки	-11.0211
явлен	-11.0212
▁света	-11.0212
▁изображение	-11.0215
▁театре	-11.0215
▁истек	-11.0216
▁двери	-11.0218
▁учи	-11.0218
▁ректор	-11.0219
дняя	-11.0219
▁потребления	-11.0219
▁занятост	-11.022
▁переписк	-11.0222
▁доказать	-11.0222
▁повтори	-11.0223
▁ката	-11.0228
▁итальянски	-11.0229
ационн	-11.023
▁практика	-11.0234
▁благодар	-11.0234
vo	-11.0236
▁шли	-11.0237
▁Дне	-11.0237
▁1/	-11.0239
▁Валентин	-11.0239
▁свободу	-11.024
▁Фер	-11.0243
Мир	-11.0246
▁обсужда	-11.0246
▁коротки	-11.0252
▁усилени	-11.0253
▁функци	-11.0253
▁обруши	-11.0257
тул	-11.026
bo	-11.026
ставляет	-11.0262
▁родны	-11.0266
▁Истори	-11.0268
▁настояще	-11.027
▁Самарско	-11.027
▁Врач	-11.027
▁Ставропол	-11.0272
▁фильмы	-11.0276
▁уходит	-11.0276
▁экстремизм	-11.0278
▁Законопроект	-11.0278
▁бутылк	-11.0278
▁защищен	-11.0278
▁уведомлен	-11.0278
▁возникновени	-11.0278
▁скажем	-11.0278
▁Кудрин	-11.0278
▁щик	-11.0278
▁высказывания	-11.028
▁произвел	-11.028
▁1998	-11.0281
▁месторождения	-11.0281
▁трассы	-11.0281
▁независимости	-11.0282
▁ходил	-11.0283
▁госкомпани	-11.0285
▁группово	-11.0285
▁говорилось	-11.0286
▁объяснить	-11.0287
▁пуска	-11.0289
▁Международн	-11.0289
тяж	-11.0296
▁радикал	-11.0296
▁Вене	-11.0301
▁горд	-11.0302
▁определя	-11.0308
таж	-11.0312
▁полит	-11.0314
op	-11.0314
▁решит	-11.0316
▁отрази	-11.0316
▁потребност	-11.0317
▁удара	-11.0319
▁ец	-11.0322
▁ред	-11.0322
▁следов	-11.0326
▁La	-11.0329
▁Эл	-11.0332
крытие	-11.0333
▁измен	-11.0333
▁(5	-11.0348
national	-11.0351
▁Британии	-11.0351
▁Калифорни	-11.0351
▁НХЛ	-11.0351
▁Нарышкин	-11.0351
▁двусторонни	-11.0351
▁пособи	-11.0351
▁потерпел	-11.0351
▁спонсор	-11.0351
▁ФРС	-11.0351
▁неплохо	-11.0351
▁употребля	-11.0351
▁глу	-11.0351
▁дилер	-11.0352
▁подачи	-11.0352
▁Цена	-11.0353
▁побывал	-11.0353
▁шутк	-11.0355
▁предстоящи	-11.0356
работан	-11.0356
▁Ген	-11.0357
▁марш	-11.0357
▁серьезным	-11.0358
▁писатель	-11.0361
▁новости	-11.0362
▁улучшит	-11.0364
▁произошедше	-11.0364
▁вылетел	-11.0367
мышленно	-11.0369
КС	-11.0371
▁ввоз	-11.0371
▁вечера	-11.0372
▁автора	-11.0373
▁рыночн	-11.0375
▁присутствие	-11.0375
без	-11.0376
▁достойно	-11.0382
▁Wi	-11.0383
▁годовых	-11.0387
▁никого	-11.0388
▁украинским	-11.0389
▁странам	-11.0389
▁Vi	-11.039
▁выставке	-11.0391
▁эпох	-11.0391
▁работой	-11.0393
▁факты	-11.0393
ha	-11.0395
скоп	-11.0396
▁признаки	-11.0396
▁выдвинут	-11.0397
ЭК	-11.0399
▁обыски	-11.0401
▁другу	-11.0407
▁Штатов	-11.0407
▁уточняется	-11.041
▁фотограф	-11.0415
▁исследовани	-11.0415
▁приглашени	-11.0419
▁написан	-11.0421
▁регистраци	-11.0423
ПП	-11.0424
▁Air	-11.0424
▁Дворкович	-11.0424
▁Руководств	-11.0424
▁компромисс	-11.0424
▁спектакль	-11.0424
▁сопротивлени	-11.0424
▁изделий	-11.0424
▁случившегося	-11.0424
▁бойцов	-11.0425
▁Скоре	-11.0425
▁расп	-11.0426
▁Литвы	-11.0427
▁Много	-11.0429
▁подготовить	-11.0432
▁кампанию	-11.0434
▁Филипп	-11.0435
▁гражданство	-11.0435
▁Mar	-11.0436
▁Ростове	-11.0437
▁шахте	-11.0438
▁холодно	-11.045
▁160	-11.0451
▁регистр	-11.0451
▁организованно	-11.0454
▁средствами	-11.0455
▁искусственно	-11.0456
▁претендент	-11.0459
▁вывел	-11.0459
▁For	-11.0463
▁портфел	-11.0464
▁добави	-11.0466
▁региональной	-11.0467
▁стью	-11.0468
▁вели	-11.047
▁роз	-11.0472
▁клубов	-11.0472
▁Мел	-11.0472
▁желающих	-11.0474
Амур	-11.0474
▁погашени	-11.0476
▁собран	-11.0481
▁шедш	-11.0483
▁творчески	-11.0484
▁объявлено	-11.0487
очек	-11.0489
туда	-11.0489
▁лом	-11.049
Групп	-11.0492
▁Следовател	-11.0492
вольно	-11.0493
▁рейсов	-11.0494
▁ухудшени	-11.0494
изация	-11.0494
▁банкрот	-11.0496
▁11-	-11.0497
▁авиационно	-11.0498
▁Ожидается	-11.0498
▁павильон	-11.0498
▁преддвери	-11.0498
▁продовольственн	-11.0498
▁фрагмент	-11.0498
▁хоккею	-11.0498
▁Майдан	-11.0499
▁орден	-11.05
▁освобождения	-11.0502
▁отметки	-11.0504
,7%	-11.0507
▁ехал	-11.0511
▁следствием	-11.0513
hi	-11.0513
▁Данны	-11.0517
▁переста	-11.0517
▁торговле	-11.0518
▁Павлов	-11.0521
▁пропуска	-11.0522
▁отозвал	-11.0523
▁определяет	-11.0526
▁распределен	-11.0526
▁академик	-11.0527
▁84	-11.0529
▁владельца	-11.0531
▁нос	-11.0532
▁Саратов	-11.0534
▁имеющие	-11.0534
сыграет	-11.0535
▁нск	-11.0538
▁мошенничестве	-11.054
▁склон	-11.0541
▁закрыв	-11.0541
▁щая	-11.0542
▁Дагестан	-11.0542
▁порог	-11.0543
▁Свердловско	-11.0544
▁усилен	-11.0545
▁Эд	-11.0547
▁вещей	-11.0551
шем	-11.0556
▁отстранени	-11.0559
▁ответа	-11.0559
▁актов	-11.0562
▁россиянам	-11.0562
▁смотрел	-11.0563
▁План	-11.0565
▁шахт	-11.0567
▁130	-11.0569
▁индексаци	-11.057
▁особ	-11.057
▁прозрачн	-11.0572
▁штрафа	-11.0572
▁свидетельствую	-11.0572
▁Кремль	-11.0573
▁Эстонии	-11.0573
▁бюллетен	-11.0573
▁музыки	-11.0573
▁тренировк	-11.0573
▁теори	-11.0573
▁Ra	-11.0573
▁Кипр	-11.0573
▁Хал	-11.0573
▁наступление	-11.0573
▁произведения	-11.0575
▁гараж	-11.0576
▁карман	-11.0576
▁подорожал	-11.0578
▁поведения	-11.058
▁названия	-11.0581
▁Свободно	-11.0584
▁Da	-11.0586
▁17:	-11.0588
▁стороной	-11.0589
▁аэро	-11.059
ражения	-11.0591
хранения	-11.0593
▁станций	-11.0596
▁численность	-11.0599
правлять	-11.0599
спор	-11.06
▁Дарь	-11.0601
▁толк	-11.0601
▁пилота	-11.0601
нность	-11.0602
лайн	-11.0604
▁подопечны	-11.0606
▁явк	-11.061
играют	-11.0617
▁получится	-11.0623
Ново	-11.0625
▁предприяти	-11.0625
▁составлен	-11.0632
▁разместил	-11.0634
▁сопровождени	-11.0635
онер	-11.0636
▁сняты	-11.0637
дачу	-11.0643
▁решает	-11.0644
▁Бой	-11.0644
▁Генеральны	-11.0645
▁включает	-11.0646
▁0,5	-11.0646
▁Безопасност	-11.0648
▁петербургско	-11.0648
▁разрешил	-11.0648
▁раскритиковал	-11.0648
▁сертификат	-11.0648
▁оппозиционер	-11.0648
одно	-11.0649
▁зависе	-11.0649
▁потенциально	-11.065
▁IT	-11.0651
▁Просто	-11.0651
▁происшестви	-11.0651
▁угрожа	-11.0656
▁мэрии	-11.0657
▁держит	-11.066
▁завершился	-11.0661
▁ресурсы	-11.0663
udi	-11.0663
▁нож	-11.0667
▁Австрии	-11.0667
▁министерстве	-11.0667
▁мной	-11.067
ne	-11.0671
▁Никол	-11.0672
▁рассмотрен	-11.0673
▁коротко	-11.0673
▁сможе	-11.0677
▁признает	-11.0678
▁Ил	-11.0679
щихся	-11.0679
нного	-11.068
▁Пермск	-11.0681
▁Лук	-11.0681
▁комфорт	-11.0683
▁пожарны	-11.0685
звание	-11.0687
ющиеся	-11.0687
▁ислам	-11.0689
▁награды	-11.0689
▁ющих	-11.0689
▁груд	-11.069
▁выброс	-11.069
tion	-11.0691
▁районно	-11.0692
▁лицам	-11.0693
▁получивши	-11.0695
▁Анкаре	-11.0698
▁Авто	-11.0698
▁продолжение	-11.0699
do	-11.0701
▁перехода	-11.0703
▁тяг	-11.0706
▁просты	-11.0706
глядит	-11.0711
Золот	-11.0713
▁заведени	-11.0716
▁станци	-11.0716
Ведомости	-11.0717
▁900	-11.0719
▁Pro	-11.072
▁дворц	-11.0723
▁гражданами	-11.0724
▁Renault	-11.0724
▁диапазон	-11.0724
▁резонанс	-11.0724
▁рынков	-11.0724
▁гидро	-11.0724
▁опасения	-11.0724
▁автономно	-11.0724
предположительно	-11.0725
▁экологии	-11.0726
далеку	-11.0726
▁беспилотник	-11.073
▁отлично	-11.0733
▁округ	-11.0734
▁важнейши	-11.0735
▁прошедше	-11.0737
▁польски	-11.0738
▁град	-11.074
▁делали	-11.0744
▁хозяева	-11.0747
per	-11.0749
▁видят	-11.075
сан	-11.075
▁журналиста	-11.0756
емые	-11.0756
▁конкурентов	-11.0757
▁заключенных	-11.0757
▁технологически	-11.0762
▁щей	-11.0762
▁Данил	-11.0765
▁академ	-11.0766
▁жалобы	-11.0769
▁газет	-11.077
▁туристически	-11.0771
▁разведк	-11.0774
▁госпитализирова	-11.0781
▁исполнитель	-11.0782
▁указан	-11.0785
ища	-11.0791
▁Всероссийско	-11.0793
▁способом	-11.0796
▁увеличив	-11.0796
▁ящик	-11.0796
▁взрослы	-11.0799
▁Минпромторг	-11.08
▁оркестр	-11.08
▁Шойгу	-11.08
▁Кастро	-11.08
▁откроет	-11.08
▁продавц	-11.08
▁прирост	-11.08
▁Абэ	-11.0801
▁МГУ	-11.0802
▁вооружений	-11.0803
▁ства	-11.0803
▁проводим	-11.0803
пасибо	-11.0805
▁вооружение	-11.0806
▁сидел	-11.0809
▁судить	-11.0811
ладить	-11.0811
▁основная	-11.0818
▁специальн	-11.0821
▁судьба	-11.0822
▁приступ	-11.0825
▁ожидани	-11.0828
▁пле	-11.0828
Бел	-11.0829
▁успешны	-11.0829
▁секс	-11.0829
▁Арсени	-11.0831
▁Одесско	-11.0832
▁распространение	-11.0832
▁снимал	-11.0833
▁книга	-11.0835
▁поединк	-11.0836
▁производстве	-11.0838
▁счетов	-11.0839
спасательн	-11.084
▁зона	-11.0843
▁Ленинградско	-11.0846
▁открывает	-11.0856
▁общин	-11.0856
ka	-11.0867
▁делово	-11.0867
▁сохранение	-11.0873
▁Герман	-11.0873
авшие	-11.0874
нские	-11.0875
▁пакета	-11.0877
▁Барнаул	-11.0877
▁диагноз	-11.0877
▁молодежь	-11.0877
▁аспект	-11.0877
▁ходатайств	-11.0878
▁радикальны	-11.0878
▁Русско	-11.0878
▁ночно	-11.0878
▁электрическ	-11.0879
▁выжи	-11.088
▁задержк	-11.0881
▁блогер	-11.0883
▁ответили	-11.0885
▁громко	-11.0885
▁уполномоченны	-11.0886
▁реабилитаци	-11.0886
▁обойдет	-11.0886
▁представлял	-11.0886
рио	-11.0887
▁изготовлени	-11.0888
▁профильны	-11.0889
▁длительно	-11.0892
▁двигатель	-11.0893
▁Морозов	-11.0895
▁овое	-11.0895
▁оператора	-11.0898
▁возглавляе	-11.0905
▁Sa	-11.0905
▁уступ	-11.0908
все	-11.0909
▁событие	-11.0909
▁чек	-11.0911
Голос	-11.0911
▁сохраня	-11.0911
he	-11.0911
▁обнаружи	-11.0915
▁возглавля	-11.0917
▁психолог	-11.0923
▁He	-11.0923
▁чемпионк	-11.0924
▁получа	-11.0926
браться	-11.0927
▁упала	-11.0933
президента	-11.0934
▁любимы	-11.0934
▁субъекта	-11.0935
▁фонды	-11.0935
▁ликвидирован	-11.0936
▁культуре	-11.0936
▁вывода	-11.0936
дик	-11.0937
▁ры	-11.0939
▁палата	-11.094
▁организациями	-11.094
▁180	-11.0941
▁привлечен	-11.0942
▁оказывать	-11.0943
▁взяты	-11.0943
▁молодежно	-11.0944
▁достижени	-11.0944
ke	-11.0944
▁эксперта	-11.0945
▁реализован	-11.0951
▁Toyota	-11.0954
▁календар	-11.0954
▁комбинат	-11.0954
▁наблюдателей	-11.0954
▁позвонил	-11.0954
▁ВИЧ	-11.0954
▁чувствует	-11.0955
БР	-11.0958
▁зафиксировал	-11.0958
▁пыт	-11.0958
▁Плюс	-11.0959
▁омбудсмен	-11.0962
▁предполагается	-11.0963
▁кухн	-11.0964
▁Ас	-11.0966
▁приводят	-11.0966
▁возвращение	-11.0969
▁Великобритания	-11.097
rt	-11.0971
▁ники	-11.0973
лизов	-11.0976
▁предотвращени	-11.0977
▁супруга	-11.0979
▁обещан	-11.098
▁обоснован	-11.0985
▁ударил	-11.0985
креп	-11.0987
▁Слав	-11.099
▁водо	-11.099
шер	-11.0992
▁ченко	-11.0997
▁этаже	-11.0997
ec	-11.0998
▁украинц	-11.0998
▁сильным	-11.1
брав	-11.1
▁Граждан	-11.1
▁ров	-11.1002
▁производить	-11.1004
▁поддержк	-11.1007
▁професси	-11.1009
▁арбитражны	-11.101
▁выгодно	-11.1012
▁191	-11.1013
▁Бат	-11.1016
▁снега	-11.1018
экономическо	-11.1018
▁изображен	-11.1021
▁бригады	-11.1022
▁немц	-11.1022
ut	-11.1024
▁снимать	-11.1024
▁Лун	-11.1025
▁командир	-11.1026
▁стихи	-11.1026
ернется	-11.1027
▁бель	-11.1028
▁Ливии	-11.1029
▁Канады	-11.1031
▁подмосковно	-11.1033
▁Аргентин	-11.1033
▁Ричард	-11.1033
▁акцент	-11.1033
▁кладбище	-11.1033
▁набережн	-11.1033
▁явление	-11.1033
▁кораблей	-11.1033
▁фунт	-11.1033
▁стремительно	-11.1033
▁медики	-11.1033
▁вовремя	-11.1033
▁уволен	-11.1034
▁удобно	-11.1034
▁Ян	-11.1034
▁повреждения	-11.1035
▁блокировк	-11.1035
▁билеты	-11.1036
▁правом	-11.1038
▁заявляет	-11.1039
▁найдены	-11.1039
▁оценка	-11.104
▁Тар	-11.104
▁Кос	-11.1042
▁слабы	-11.1042
▁звер	-11.1044
▁совершенны	-11.1045
▁вижу	-11.1045
▁сборны	-11.1048
▁Bo	-11.1048
▁странно	-11.105
▁Эм	-11.1053
▁страд	-11.1054
▁инвестирова	-11.1054
▁квартира	-11.1055
▁Джей	-11.1058
▁чисты	-11.106
▁принятие	-11.1061
▁ВЭБ	-11.1066
▁проводили	-11.1066
▁препарата	-11.1067
▁скандала	-11.1069
▁мал	-11.1069
▁баллов	-11.1071
▁посетител	-11.1074
▁особенност	-11.1077
▁зарплату	-11.1077
▁Луганск	-11.1079
Ин	-11.108
▁народов	-11.108
▁добра	-11.108
релизе	-11.1088
▁Нижне	-11.1088
▁методик	-11.1088
▁одобрен	-11.1089
▁больно	-11.109
▁туристическ	-11.1093
▁правильны	-11.1093
▁следователя	-11.1095
Право	-11.1098
▁несет	-11.1099
▁пенсионеров	-11.1099
▁автобуса	-11.1101
▁крупн	-11.1104
▁выявлени	-11.111
▁Вьетнам	-11.1111
▁Елизавет	-11.1111
▁внедорожник	-11.1111
▁группировок	-11.1111
▁кинотеатр	-11.1111
▁хозяин	-11.1111
▁Пенсионн	-11.1111
▁предотврати	-11.1111
▁хватил	-11.1111
▁конституционно	-11.1112
▁премию	-11.1112
▁фин	-11.1112
▁кровь	-11.1112
▁Каримов	-11.1112
▁впечатление	-11.1112
▁учений	-11.1114
▁устанавливают	-11.1115
▁пригород	-11.1116
печат	-11.1116
▁статью	-11.1117
▁трат	-11.1118
▁Корея	-11.1118
▁Дан	-11.1118
▁четвертый	-11.112
анг	-11.1122
▁15:	-11.1124
▁исполни	-11.1124
гляд	-11.1126
▁штрафов	-11.1128
▁развивает	-11.1128
▁Наконец	-11.1134
▁уехал	-11.1137
▁сведениям	-11.1139
▁минимально	-11.114
▁партийно	-11.1141
▁март	-11.1147
▁Берлине	-11.1148
▁соединени	-11.1151
ty	-11.1153
сматрива	-11.1153
▁Стра	-11.1154
Все	-11.1154
▁принадлежат	-11.1154
▁прохождени	-11.1156
▁продава	-11.1157
▁пас	-11.116
▁клубе	-11.1162
гонщик	-11.1168
▁голосовани	-11.117
▁упор	-11.1172
▁Черн	-11.1172
▁студенты	-11.1172
▁аться	-11.1173
▁парн	-11.1173
▁теннис	-11.1175
▁охранник	-11.1177
▁86	-11.118
▁попала	-11.1183
▁стреми	-11.1184
▁идее	-11.1185
▁Памфилова	-11.1186
▁Мур	-11.1186
▁лучш	-11.1189
▁Роскомнадзор	-11.1191
▁посчитал	-11.1191
▁планируем	-11.1191
▁посредник	-11.1191
▁резидент	-11.1191
▁Администраци	-11.1191
▁объяснени	-11.1191
▁княз	-11.1191
▁признают	-11.1191
вский	-11.1192
▁забрал	-11.1192
▁Тимур	-11.1192
▁реформа	-11.1193
▁сталкива	-11.1195
▁имен	-11.1196
▁квот	-11.1198
▁выделени	-11.1199
▁распоряжение	-11.1201
▁бригад	-11.1201
▁уст	-11.1203
▁стремя	-11.1204
▁Ер	-11.1204
чек	-11.1204
▁стимул	-11.1207
евых	-11.1207
▁зн	-11.1209
▁Средне	-11.1211
▁материально	-11.1212
▁Меж	-11.1213
▁прорыв	-11.1214
▁включил	-11.1218
▁располагает	-11.1219
▁Воронежск	-11.1223
▁одежд	-11.1224
▁Финанс	-11.123
▁молод	-11.123
▁цифра	-11.1231
статься	-11.1232
▁Кен	-11.1234
▁устранени	-11.1234
пред	-11.1235
▁герой	-11.1235
едут	-11.1236
▁16-	-11.1241
▁атомн	-11.1241
▁Фар	-11.1243
▁оправдан	-11.1246
▁очн	-11.1246
▁Свято	-11.1251
▁редакции	-11.1252
▁защищать	-11.1254
▁Ислам	-11.1256
▁кара	-11.1256
▁Рим	-11.1258
▁экстренны	-11.1261
▁заканчива	-11.1262
▁кат	-11.1264
▁заключа	-11.1266
▁отрыв	-11.1269
▁вознаграждени	-11.1271
▁выяснить	-11.1271
▁кубометров	-11.1271
▁полицией	-11.1271
▁степень	-11.1271
▁древне	-11.1271
▁перевозок	-11.1271
▁значимы	-11.1271
▁Стивен	-11.1271
▁Пожар	-11.1271
▁ростом	-11.1271
▁десятилетия	-11.1271
▁задне	-11.1271
▁генсек	-11.1272
нья	-11.1272
▁чудо	-11.1272
▁тендер	-11.1273
▁мероприяти	-11.1274
▁краю	-11.1274
▁приезжа	-11.1278
▁h	-11.1279
▁учиться	-11.1279
▁60-	-11.128
▁Еврокомисси	-11.1281
▁Эрдогана	-11.1282
▁размести	-11.1286
▁ющие	-11.1287
+	-11.1287
▁обвал	-11.1288
▁государственным	-11.1288
▁записк	-11.1288
ционные	-11.1289
енков	-11.1292
▁жили	-11.1293
▁православно	-11.1294
▁задума	-11.1295
▁учредител	-11.1296
40	-11.1298
▁долгосрочно	-11.1303
ga	-11.1304
▁осв	-11.1305
▁сердечно	-11.1306
▁контрактов	-11.1306
▁Фед	-11.1307
▁92	-11.1308
▁запись	-11.1313
▁полк	-11.1314
▁пожалуй	-11.1315
▁Водител	-11.1319
▁Важно	-11.1323
▁принципиально	-11.1332
▁ухудши	-11.1334
▁18:	-11.1342
▁Ред	-11.1343
▁подчеркну	-11.1343
▁налоги	-11.1344
▁приобретение	-11.1346
▁апелляци	-11.1348
▁совещания	-11.1348
▁ощуща	-11.1351
▁препятстви	-11.1351
▁Bank	-11.1351
▁осудил	-11.1351
▁Наибол	-11.1352
▁существ	-11.1354
▁рассказать	-11.1356
▁юны	-11.1357
▁an	-11.1357
▁2,2	-11.1358
▁назначение	-11.1359
казать	-11.1359
▁доверие	-11.1359
кош	-11.1359
▁знаете	-11.136
▁звани	-11.1362
щин	-11.1363
▁Красн	-11.1363
▁жи	-11.1363
▁птиц	-11.1364
▁усилить	-11.1367
▁мил	-11.1367
▁домах	-11.137
▁поблагодарил	-11.1373
▁высока	-11.1374
▁инспекци	-11.1376
▁обязанностей	-11.1382
▁эр	-11.1388
▁Дер	-11.1389
▁авший	-11.1389
▁Восток	-11.139
▁пен	-11.1394
▁Mo	-11.1398
▁красиво	-11.1398
▁Обычн	-11.1399
▁внезапно	-11.1404
▁партийны	-11.1405
▁дополнительн	-11.1405
▁Министерств	-11.1406
▁зарплата	-11.1406
▁Маркин	-11.1409
▁ницы	-11.1411
▁проверк	-11.1415
▁студи	-11.1416
▁Лос	-11.1419
▁популярно	-11.142
▁отвечал	-11.1422
▁поколение	-11.1424
▁упомина	-11.1424
▁возможностям	-11.1426
▁кафедр	-11.1426
▁Конгресс	-11.1433
▁мурманчан	-11.1433
▁неправильно	-11.1433
▁песню	-11.1433
▁лекци	-11.1433
▁Сандерс	-11.1433
▁примирени	-11.1433
▁служил	-11.1433
▁Титов	-11.1433
▁извинени	-11.1436
аньше	-11.1436
▁ценам	-11.1436
▁училищ	-11.1437
▁соревнованиях	-11.1437
▁украинцев	-11.1439
шли	-11.1439
▁Эс	-11.144
▁жизне	-11.1443
▁Зо	-11.1445
▁точек	-11.1446
▁гарант	-11.1447
▁запрещенных	-11.1448
▁юан	-11.1448
▁бит	-11.1457
▁продажа	-11.1457
маз	-11.1457
▁обуча	-11.1458
▁танков	-11.1459
,3%	-11.1462
▁взносов	-11.1463
▁норма	-11.1466
▁коммун	-11.1467
ive	-11.1469
▁сериала	-11.1469
кос	-11.147
▁Гро	-11.1471
▁Пят	-11.1471
▁бюджетно	-11.1472
▁проход	-11.1472
▁сменил	-11.1472
▁Сар	-11.1473
▁замечани	-11.1477
Рубин	-11.1478
▁комисси	-11.1479
▁обнаружени	-11.148
ражение	-11.1484
▁темы	-11.1487
льц	-11.1488
▁объедини	-11.1491
-1"	-11.1491
▁выгод	-11.1492
нист	-11.1492
▁дешевы	-11.1493
▁напомин	-11.1494
▁карьеры	-11.1495
▁игрово	-11.1497
вязать	-11.1499
▁искусство	-11.1502
▁кофе	-11.1506
▁Донбасс	-11.1511
▁думск	-11.1511
▁законов	-11.1512
ложение	-11.1512
▁мотив	-11.1512
▁Михайлов	-11.1514
▁генпрокурор	-11.1515
▁колледж	-11.1515
▁предъявил	-11.1515
▁сигарет	-11.1515
▁сексуально	-11.1515
▁гибель	-11.1515
▁соратник	-11.1515
▁надеюсь	-11.1515
▁Франк	-11.1515
▁сырья	-11.1515
▁поддержани	-11.1516
▁варианты	-11.1516
▁повторно	-11.1517
▁Интересно	-11.1518
▁гриб	-11.1518
ающую	-11.1518
▁Алекс	-11.1518
▁активистов	-11.1519
▁ограничить	-11.1521
▁плохи	-11.1523
▁желани	-11.1526
▁планета	-11.1527
▁монополи	-11.153
▁поддерживал	-11.153
▁лей	-11.1532
▁сирийском	-11.1532
▁противника	-11.1536
▁пространстве	-11.1538
▁кампания	-11.1538
▁зелен	-11.1538
▁Хоч	-11.1538
▁ставил	-11.154
▁скрыт	-11.1542
▁продолжени	-11.1544
▁весом	-11.1545
▁технологическо	-11.1546
▁вручил	-11.1547
▁приблизи	-11.1552
▁позволят	-11.1552
▁суды	-11.1553
▁сложивш	-11.1553
▁производственны	-11.1554
▁целево	-11.1554
▁бумаги	-11.1556
▁экскурси	-11.1556
▁уда	-11.1557
▁плавани	-11.1557
водить	-11.1558
▁жены	-11.1558
спикер	-11.1561
▁$6	-11.1565
▁открытым	-11.1566
▁ируем	-11.1566
di	-11.1567
▁предупрежда	-11.1567
НБ	-11.1571
▁пережи	-11.1573
▁альянс	-11.158
▁Город	-11.158
▁подтвержден	-11.158
▁подозревает	-11.1583
▁привлек	-11.1585
▁библиотек	-11.1586
бирает	-11.1587
▁учрежден	-11.1588
▁федеральным	-11.1588
▁законны	-11.1589
▁Гус	-11.1589
ходили	-11.1589
▁наращива	-11.159
▁нагрузки	-11.159
▁Рай	-11.1591
яка	-11.1593
▁настоящ	-11.1595
▁корабль	-11.1597
▁факультет	-11.1597
▁пенсию	-11.1597
▁соответствова	-11.1597
▁любил	-11.1597
▁проверок	-11.1597
▁канадск	-11.1597
▁лагере	-11.1597
▁цирк	-11.1597
▁возмущен	-11.1598
▁император	-11.1598
▁религи	-11.1598
▁ровно	-11.1599
▁чемпионом	-11.1599
▁еле	-11.16
▁поступ	-11.1603
ЕК	-11.1603
▁соседне	-11.1604
▁смысла	-11.1604
▁трудности	-11.1607
▁стабилизаци	-11.1607
▁общественности	-11.1611
вержен	-11.1611
▁60%	-11.1611
▁путешестви	-11.1612
▁эфир	-11.1615
▁работникам	-11.1616
▁размещение	-11.1619
▁снижать	-11.1623
▁Силь	-11.1623
▁иностранным	-11.1625
▁производителя	-11.1626
▁книгу	-11.1629
▁транспорте	-11.1632
▁карту	-11.1637
сотен	-11.1641
ЭС	-11.1642
▁технология	-11.1643
дновременно	-11.1644
▁Академи	-11.1644
▁Ближнем	-11.1645
▁отказыва	-11.1646
▁70-	-11.1647
▁глубок	-11.1649
▁участниц	-11.165
стоять	-11.1651
▁просмотр	-11.1652
▁горячи	-11.1652
▁Дальне	-11.1654
▁жест	-11.1659
▁Джан	-11.1662
▁различным	-11.1662
несла	-11.1662
▁ставши	-11.1663
▁производит	-11.1666
▁Соответствующ	-11.1668
▁называл	-11.1675
▁масштабно	-11.1679
нешнеполитическо	-11.1681
▁Израиль	-11.1681
▁ребенком	-11.1681
▁Силуанов	-11.1681
▁Смирнов	-11.1681
▁Таиланд	-11.1681
▁пенсий	-11.1681
▁угодно	-11.1681
▁прописан	-11.1681
▁Питер	-11.1681
▁разумеется	-11.1681
▁полигон	-11.1681
▁минимума	-11.1681
плач	-11.1683
▁заявляют	-11.1683
▁сцены	-11.1683
▁оперативны	-11.1683
▁прогнозирует	-11.1684
▁мороз	-11.1686
мешать	-11.1686
▁Против	-11.1686
▁континент	-11.1686
▁банком	-11.1686
ведомо	-11.1688
▁Бут	-11.1688
▁сложнее	-11.1689
▁наблюдать	-11.169
▁оборудован	-11.1691
▁снижает	-11.1692
▁70%	-11.1692
служ	-11.1693
▁головн	-11.1694
▁различ	-11.1695
▁категория	-11.1695
▁полеты	-11.1696
▁эксперимента	-11.1697
▁Лет	-11.1697
▁пришло	-11.1699
▁собрани	-11.17
▁разговарива	-11.1701
▁расширение	-11.1705
▁Господ	-11.1705
▁дорож	-11.1706
▁приглаша	-11.1707
▁районы	-11.1709
▁пересечени	-11.1711
▁разговора	-11.1714
▁особенности	-11.1715
▁маг	-11.1719
▁действующим	-11.1721
▁швед	-11.173
]	-11.1731
▁нелегальны	-11.1733
▁подтвердила	-11.1735
логическ	-11.1736
▁антироссийски	-11.1738
▁подобн	-11.1741
▁соседни	-11.1741
▁+1	-11.1744
▁балл	-11.1745
▁превышени	-11.1746
▁$50	-11.1747
▁похож	-11.1749
▁Лондона	-11.175
▁Семен	-11.175
▁приложения	-11.1752
▁узнали	-11.1764
▁Европарламент	-11.1765
▁Касьянов	-11.1765
▁бассейн	-11.1765
▁экспедици	-11.1765
▁Япония	-11.1765
▁баллистическ	-11.1765
Ельцин	-11.1765
▁мяса	-11.1765
▁основу	-11.1765
▁удач	-11.1766
▁выдвига	-11.1766
▁товарищ	-11.1767
▁коэффициент	-11.177
▁обещают	-11.1773
▁Джу	-11.1773
▁здоровы	-11.1773
▁избранны	-11.1779
▁предыдущи	-11.178
▁потерпевши	-11.1781
▁Тверской	-11.1782
очная	-11.1782
▁финансовым	-11.1784
▁тигр	-11.179
▁современн	-11.1791
▁привод	-11.1793
▁блокирова	-11.1801
▁Центральны	-11.1803
▁Do	-11.1809
▁обостр	-11.1815
▁сомнения	-11.1816
▁инвалидов	-11.1818
▁снежн	-11.1818
▁традиция	-11.1818
▁отправили	-11.1819
▁кредита	-11.1819
▁исламист	-11.1821
▁98	-11.1825
части	-11.1825
up	-11.1825
▁исчез	-11.1828
▁мощно	-11.1831
▁управляем	-11.1831
▁Мус	-11.1831
▁комплексов	-11.1832
▁служебны	-11.1833
▁подробно	-11.1833
▁Яценюк	-11.1836
▁Руси	-11.1838
▁Генерально	-11.184
▁предоставля	-11.184
▁фестивале	-11.1841
▁сомнева	-11.1846
▁исты	-11.1846
▁Journal	-11.1849
▁Russia	-11.1849
▁Киргизии	-11.1849
▁контрабанд	-11.1849
▁Варшав	-11.1849
▁Пакистан	-11.1849
▁отрасль	-11.1849
оглу	-11.185
▁грамм	-11.185
▁стресс	-11.185
▁полицейским	-11.1851
ступил	-11.1851
▁связя	-11.1851
▁персональны	-11.1852
▁пошлин	-11.1853
▁серия	-11.1854
▁государственном	-11.1854
▁композитор	-11.1854
▁зачет	-11.1855
▁Жуков	-11.1855
▁Гра	-11.1856
ity	-11.1858
▁диалога	-11.186
▁корм	-11.1864
▁задержанны	-11.1865
▁нулев	-11.1866
▁Тал	-11.1868
sa	-11.1869
водят	-11.1869
ls	-11.1869
энд	-11.187
▁дым	-11.1871
▁льный	-11.1871
▁представляющи	-11.1872
▁поступа	-11.1874
▁оценивают	-11.1874
▁парламентско	-11.1876
▁гигант	-11.1877
▁наблюдал	-11.188
▁жизнью	-11.1881
▁Фо	-11.1881
оказания	-11.1883
▁праздновани	-11.1883
нское	-11.1884
▁Приморск	-11.1885
▁приговора	-11.1888
▁университете	-11.189
ряж	-11.1891
▁парков	-11.1894
▁заемщик	-11.1896
▁опор	-11.1896
▁внес	-11.1896
▁допуска	-11.1897
▁снят	-11.1901
▁Федоров	-11.1903
▁позитивны	-11.1903
▁заметили	-11.1904
▁служебно	-11.1906
▁пары	-11.1911
▁опубликованны	-11.1915
▁базовы	-11.1916
▁Республика	-11.1917
▁отрица	-11.1921
▁бомбы	-11.1921
▁1,7	-11.1922
▁задержанных	-11.1922
▁лишни	-11.1923
▁термин	-11.1923
▁пул	-11.1925
▁преврати	-11.1926
▁отрицательны	-11.1928
▁Немцова	-11.1928
тельные	-11.1931
▁соблюдать	-11.1931
▁обеспечен	-11.1932
▁талант	-11.1934
▁Патриарх	-11.1935
▁Пострадавш	-11.1935
▁Тегеран	-11.1935
▁автосалон	-11.1935
▁легче	-11.1935
▁религиозно	-11.1935
Газеты	-11.1935
▁подарок	-11.1935
▁Француз	-11.1935
▁банкротства	-11.1936
▁свежи	-11.1936
▁2,8	-11.1936
▁быстры	-11.1936
▁Томас	-11.1936
▁молоко	-11.1937
▁попробова	-11.1938
▁месяце	-11.1938
▁расширить	-11.1941
идеть	-11.1943
лис	-11.1944
▁Con	-11.1944
▁2,6	-11.1944
▁получив	-11.1945
▁литр	-11.1949
▁победой	-11.195
▁семьям	-11.1951
▁разряд	-11.1956
▁обзор	-11.1957
▁Свои	-11.1958
▁признакам	-11.1959
▁интернета	-11.1962
▁навык	-11.1962
▁стадионе	-11.1964
▁зала	-11.1964
▁состоял	-11.1965
▁управляюще	-11.1966
▁строил	-11.1967
▁органа	-11.1969
▁комиссию	-11.197
▁привез	-11.1972
▁правозащитник	-11.1974
вш	-11.1975
Авиа	-11.1975
▁лидиру	-11.1976
80	-11.1976
▁представления	-11.1977
▁Сав	-11.1979
▁экономическ	-11.1985
▁секунды	-11.1989
▁интеграции	-11.199
&	-11.1992
▁Маг	-11.1993
▁ветеранов	-11.1993
▁погибл	-11.1995
То	-11.2
▁количестве	-11.2001
one	-11.2002
▁округу	-11.2002
▁увидели	-11.2002
ig	-11.2003
est	-11.2006
▁соверша	-11.2008
ИС	-11.2012
▁православны	-11.2015
▁стены	-11.2015
▁отметк	-11.2016
▁дам	-11.2016
▁порта	-11.2017
▁чувствую	-11.2017
▁урожа	-11.202
▁законы	-11.202
▁Кандидат	-11.2021
▁двоих	-11.2021
▁заболевание	-11.2021
▁зоопарк	-11.2021
▁музыку	-11.2021
▁человечеств	-11.2021
▁слухи	-11.2021
▁ющего	-11.2021
▁воздухе	-11.2021
▁зеркал	-11.2022
▁Лучши	-11.2024
▁противостоя	-11.2025
▁регулирования	-11.2027
▁проведенны	-11.2029
▁чей	-11.2029
Мар	-11.2034
▁сбыт	-11.2038
▁чувств	-11.2038
▁единственн	-11.2038
▁НК	-11.2038
ханов	-11.204
▁6,5	-11.2041
▁миграционно	-11.2041
▁одобрени	-11.2045
▁центры	-11.2046
▁территориальны	-11.2048
▁Где	-11.2048
▁руками	-11.2049
▁Чист	-11.2049
▁непрост	-11.2051
▁май	-11.2051
таш	-11.2051
думан	-11.2053
▁личн	-11.2054
▁дефицита	-11.2055
▁чувства	-11.2056
▁бен	-11.2059
▁5,5	-11.2059
▁эпохи	-11.206
▁прогнозам	-11.206
▁литров	-11.2063
▁телефона	-11.2064
▁персонал	-11.2068
▁13-	-11.2069
ОП	-11.207
▁ФГ	-11.2077
▁соблюдение	-11.2077
▁изменени	-11.2079
▁Дальнего	-11.2081
▁Ульяновск	-11.2083
▁re	-11.2087
ir	-11.209
▁непросто	-11.209
▁балла	-11.2091
▁Оренбург	-11.2095
▁раненых	-11.2096
▁четверть	-11.2098
▁относи	-11.2099
▁вруч	-11.2101
▁больниц	-11.2104
Русский	-11.2105
▁вреда	-11.2105
▁основы	-11.2106
▁Android	-11.2108
▁Аксенов	-11.2108
▁обусловлен	-11.2108
▁туроператор	-11.2108
▁упражнени	-11.2108
▁Госдеп	-11.2108
▁Рогозин	-11.2108
▁изделия	-11.2108
▁Организатор	-11.2108
▁нехватк	-11.2108
▁повторя	-11.2109
▁элементов	-11.2109
▁родину	-11.211
▁Богдан	-11.2111
▁Основно	-11.2112
▁1996	-11.2113
▁мальчика	-11.2113
▁бытово	-11.2114
▁закрыто	-11.2114
▁избавить	-11.2115
▁Сборн	-11.2116
▁классик	-11.2118
▁художественны	-11.2122
▁состоять	-11.2123
▁критику	-11.2125
▁экономическим	-11.213
▁ФК	-11.2131
▁Галин	-11.2131
▁мирны	-11.2132
▁Нидерландов	-11.2133
▁отличи	-11.2133
шат	-11.2134
▁спортсменам	-11.214
▁собирать	-11.2142
▁строит	-11.2142
▁иранско	-11.2145
▁происхождения	-11.2147
▁погодны	-11.2147
▁практику	-11.2147
▁английски	-11.2147
довольство	-11.2152
▁арт	-11.2152
▁шаги	-11.2155
▁продолжаются	-11.2155
▁Лин	-11.2155
▁ично	-11.2156
▁фанат	-11.2157
▁аудитории	-11.216
ГА	-11.216
десят	-11.2164
▁созданны	-11.2165
окажется	-11.2166
▁сдать	-11.2166
▁Первым	-11.2173
▁администраци	-11.2174
▁процентн	-11.2175
▁шее	-11.2175
▁сухо	-11.2176
Платон	-11.2177
▁горно	-11.2177
▁законодательны	-11.2184
60	-11.2185
▁жу	-11.2191
▁первенств	-11.2192
▁Рам	-11.2192
Коммерсант	-11.2195
Как	-11.2195
бросил	-11.2196
Комсомольск	-11.2196
▁Культура	-11.2196
▁Правоохранител	-11.2196
▁архитектор	-11.2196
▁видеозапис	-11.2196
▁дисквалификаци	-11.2196
▁недавни	-11.2196
▁спектакля	-11.2196
▁хотите	-11.2196
▁зерна	-11.2196
▁химическо	-11.2196
▁живопис	-11.2197
▁мультфильм	-11.2197
▁$7	-11.2197
▁ритейлер	-11.2198
▁обломк	-11.2198
▁отставки	-11.2199
▁Зика	-11.2202
▁заключении	-11.2204
счастью	-11.2204
▁ослаблени	-11.2207
▁постара	-11.2208
21	-11.2211
▁наблюдени	-11.2212
▁стоил	-11.2215
▁Срок	-11.2216
▁железно	-11.2216
▁художественно	-11.2217
▁правяще	-11.2217
▁нанесен	-11.2218
▁маршрута	-11.222
▁чувство	-11.222
▁услышал	-11.2223
▁Сай	-11.2226
▁09:	-11.2229
колько	-11.2229
▁07	-11.2235
ленд	-11.2237
▁зритель	-11.2239
▁хищении	-11.2239
ступило	-11.2239
шир	-11.224
▁1000	-11.224
▁идей	-11.2241
112	-11.2242
▁претендентов	-11.2242
▁Королев	-11.2244
От	-11.2246
▁знач	-11.2246
▁Британски	-11.2249
▁увеличит	-11.225
чков	-11.2251
▁праздничны	-11.2253
▁посольство	-11.2254
▁студент	-11.2254
▁отвеча	-11.2254
▁демонстриру	-11.2255
▁кредиторов	-11.2257
▁правовы	-11.2258
▁кадровы	-11.2258
▁Y	-11.2258
Авто	-11.2259
▁территориях	-11.2265
▁оценили	-11.2267
▁формул	-11.2267
▁монет	-11.2268
▁Татарстана	-11.2272
▁рабоч	-11.2274
▁Лоб	-11.2274
▁бесплатны	-11.2275
▁Узбекистан	-11.2279
▁еду	-11.2282
Нафтогаз	-11.2284
▁Кэмерон	-11.2284
▁ПАРНАС	-11.2284
▁Режиссер	-11.2284
▁Центризбирком	-11.2284
▁выдвинул	-11.2284
▁мотоцикл	-11.2284
▁суверенитет	-11.2284
▁разреша	-11.2284
▁освещени	-11.2284
▁прибыти	-11.2284
▁туризм	-11.2286
▁следователей	-11.2288
▁опровергл	-11.2288
▁ездить	-11.2289
▁алкоголь	-11.229
▁окружающе	-11.2292
▁выходил	-11.2292
▁распространя	-11.2294
следовать	-11.2295
▁Кубок	-11.2295
▁корпуса	-11.2296
▁сбит	-11.2297
▁заявляли	-11.2297
▁говорю	-11.2297
▁Орлов	-11.2299
▁экстремист	-11.2301
▁мошенник	-11.2302
▁врезал	-11.2306
▁Машин	-11.2306
▁(+	-11.231
▁глазах	-11.231
▁дебют	-11.2311
▁клетки	-11.2313
▁Победител	-11.2314
▁сообщени	-11.2315
угл	-11.2317
▁практики	-11.2317
32	-11.2319
▁живо	-11.2319
▁Дагестана	-11.2321
▁Зин	-11.2321
▁Степан	-11.2321
▁Итог	-11.2322
▁задни	-11.2327
▁рекордны	-11.2331
▁обеспечению	-11.2331
▁Дор	-11.2335
бывают	-11.2336
▁Краснодарск	-11.2337
▁отнес	-11.2341
▁обнародован	-11.2342
▁ощущение	-11.2343
▁Ha	-11.2346
▁Африки	-11.2347
▁справк	-11.2356
▁Коб	-11.2356
▁сотрудничеств	-11.236
▁Национальны	-11.2361
▁обман	-11.2364
вшее	-11.2365
▁окруж	-11.2367
▁клиента	-11.2369
▁поднят	-11.2371
▁Гройсман	-11.2373
▁Департамент	-11.2373
▁Собеседник	-11.2373
▁бухгалтер	-11.2373
▁маркетинг	-11.2373
▁очевидцев	-11.2373
▁сведений	-11.2373
▁гварди	-11.2374
▁претендова	-11.2374
▁свадьб	-11.2374
▁повысил	-11.2374
▁Нагорно	-11.2374
▁условие	-11.2374
▁последовал	-11.2374
▁След	-11.2374
▁спектр	-11.2374
▁пересмотреть	-11.2375
▁III	-11.2375
▁сним	-11.2376
▁родственникам	-11.2378
шняя	-11.2378
▁03	-11.2379
▁городом	-11.238
▁Давид	-11.238
ходящий	-11.2383
▁случая	-11.2384
▁ывают	-11.2385
▁обсуждают	-11.2389
▁сказк	-11.2389
▁указывают	-11.239
▁головой	-11.2393
▁полномочиями	-11.2396
▁УЕФА	-11.2397
▁сумк	-11.2398
▁песен	-11.2401
▁продлить	-11.2403
▁пунктах	-11.2407
▁Военно	-11.2407
майор	-11.2408
▁всяки	-11.2409
▁взрывно	-11.241
▁Вар	-11.2412
▁легки	-11.2417
▁держал	-11.2418
▁последнем	-11.2426
▁разработа	-11.2426
▁Пус	-11.2427
▁валютно	-11.2427
▁обычн	-11.243
▁защита	-11.2431
ческу	-11.2431
▁подходит	-11.2436
▁болельщик	-11.2438
▁школьн	-11.2441
▁рассматривают	-11.2445
▁Стр	-11.2446
сторонне	-11.2449
▁визитом	-11.2449
▁Сим	-11.245
▁14:	-11.2452
▁финально	-11.2453
террористическо	-11.2457
▁муниципально	-11.2461
▁продолжительно	-11.2461
▁космонавт	-11.2463
Огонек	-11.2464
▁Шевченко	-11.2464
▁проанализирова	-11.2464
▁симптом	-11.2464
▁усилий	-11.2464
▁аптек	-11.2464
▁траур	-11.2464
▁версий	-11.2464
▁похитил	-11.2464
▁Lada	-11.2464
▁Тюмен	-11.2464
▁посадку	-11.2465
▁Airb	-11.2465
▁Факт	-11.2465
▁карьер	-11.2466
▁выставлен	-11.2467
▁застройк	-11.2467
▁битв	-11.247
▁So	-11.2471
▁губ	-11.2473
▁удален	-11.2473
▁90%	-11.2473
▁персонала	-11.2474
▁нападающий	-11.2477
▁Буш	-11.2484
▁нужд	-11.2484
▁руководителе	-11.2484
▁выборами	-11.2484
▁вооружен	-11.2485
▁незаконным	-11.2487
▁привык	-11.2488
▁автомобилист	-11.2489
▁исключен	-11.2493
▁выполня	-11.2493
▁2,7	-11.2494
▁корпоративны	-11.2496
▁уголь	-11.2496
андр	-11.2496
▁адресу	-11.2497
▁террористами	-11.25
▁отеле	-11.2507
▁81	-11.2508
po	-11.2511
▁нанес	-11.2513
▁долей	-11.2514
▁Wa	-11.2514
▁выставк	-11.2516
▁сторонни	-11.2516
совершеннолетних	-11.2516
▁живот	-11.2516
цкого	-11.2518
парк	-11.2519
▁смеш	-11.2519
▁Ho	-11.252
▁галере	-11.2521
▁колеса	-11.2521
▁итог	-11.2521
▁нападении	-11.2523
▁руководств	-11.2523
▁Цен	-11.2525
бывать	-11.2529
▁услыша	-11.253
▁победителей	-11.253
▁качеств	-11.2532
▁заняты	-11.2533
▁Театр	-11.2533
ведению	-11.2535
▁бывшим	-11.2536
▁какими	-11.2536
Перв	-11.2539
ложений	-11.254
▁называ	-11.2541
▁Мен	-11.2544
▁Щ	-11.2545
▁лайнера	-11.2547
▁пяты	-11.2547
▁Мель	-11.2547
320	-11.255
▁газовы	-11.255
▁достоверн	-11.2554
▁ансамбл	-11.2554
лейтенант	-11.2555
▁плакат	-11.2555
▁священник	-11.2555
▁ПДД	-11.2555
▁потратил	-11.2555
▁Оксан	-11.2555
▁казни	-11.2555
▁виноват	-11.2555
▁Козлов	-11.2556
▁Br	-11.2556
▁Участ	-11.2556
▁призывае	-11.2556
▁государству	-11.2558
ital	-11.2558
▁рейд	-11.2558
▁1994	-11.2559
▁лаборатори	-11.256
▁постройк	-11.2561
▁информирова	-11.2561
▁крем	-11.2563
▁боевиками	-11.2564
▁настаивает	-11.2565
▁Ты	-11.2565
▁Сумма	-11.2566
▁ищет	-11.2568
▁Соответствующи	-11.2568
▁11:	-11.257
▁посвященно	-11.257
▁частей	-11.2571
▁Росстата	-11.2572
▁предпринима	-11.2572
▁банкир	-11.2573
▁рассмотри	-11.2574
▁Америка	-11.2579
▁Получи	-11.2581
▁обеспечивает	-11.2581
▁Порт	-11.2582
▁Перми	-11.2583
▁сенсаци	-11.2583
▁химически	-11.2584
▁установлена	-11.2585
▁британц	-11.2587
▁Нового	-11.2588
▁съемки	-11.2589
▁предыдущих	-11.259
закупок	-11.2594
▁нарушает	-11.2596
▁оборонно	-11.2596
▁выполнял	-11.2597
▁звезда	-11.2604
▁председател	-11.2605
пект	-11.2606
▁устанавливает	-11.2608
▁Крис	-11.2611
▁специальност	-11.2611
▁дворе	-11.2614
▁магазины	-11.2615
▁сократи	-11.2616
▁De	-11.2617
▁сегмента	-11.2618
▁предполагаем	-11.2619
▁Верховн	-11.262
черн	-11.2623
▁участках	-11.2624
▁Вас	-11.2626
▁экологически	-11.2628
риц	-11.2633
▁осуществи	-11.2638
ge	-11.2638
▁110	-11.264
▁равн	-11.2643
▁повлиял	-11.2644
▁спецназ	-11.2644
▁World	-11.2646
льскохозяйственн	-11.2646
▁Йемен	-11.2646
▁Чиновник	-11.2646
▁лицензию	-11.2646
▁налогообложени	-11.2646
▁рацион	-11.2646
▁скульптур	-11.2646
▁сюрприз	-11.2646
▁пьес	-11.2646
▁Флорид	-11.2646
▁Сербии	-11.2646
▁компенсацию	-11.2646
▁последующи	-11.2646
▁выигрыва	-11.2647
▁вокзал	-11.2647
▁согласия	-11.2647
сугуб	-11.2648
▁защитника	-11.2648
▁Мосул	-11.2648
▁русские	-11.2648
▁тираж	-11.2648
▁полуострове	-11.2649
▁создают	-11.2649
▁патриарх	-11.2649
▁2-3	-11.265
▁тенденция	-11.265
▁крупным	-11.265
▁интересам	-11.2652
▁Остальны	-11.2652
▁крупнейшим	-11.2653
▁отклонил	-11.2655
СПЧ	-11.2656
▁победить	-11.2656
▁Дав	-11.2661
▁Абдул	-11.2665
люблю	-11.2665
▁весенн	-11.2666
▁80-	-11.2666
▁цветы	-11.2667
▁Наталь	-11.2667
▁перерыв	-11.2669
▁предполагаемы	-11.2674
▁Стал	-11.2675
▁смотрит	-11.2677
▁Волков	-11.268
▁расста	-11.268
другому	-11.268
▁хлоп	-11.2682
▁формирование	-11.2685
МА	-11.2688
▁миф	-11.2691
▁приостановил	-11.2691
▁хозяйство	-11.2697
▁необходима	-11.2698
▁возмож	-11.2698
бур	-11.2699
тайн	-11.2703
▁встретит	-11.2705
▁возвращать	-11.2706
рид	-11.2706
▁военном	-11.2708
ФЗ	-11.2709
▁продукта	-11.2712
▁граница	-11.2714
▁Львов	-11.2715
▁достижение	-11.2716
▁животны	-11.2716
▁близким	-11.2716
фис	-11.2719
▁пыл	-11.2723
▁низк	-11.2725
▁грузовиков	-11.2727
▁РФС	-11.273
▁развал	-11.2733
Лент	-11.2735
▁выделит	-11.2737
Анджелес	-11.2739
▁Гагарина	-11.2739
▁Действительно	-11.2739
▁восстанавлива	-11.2739
▁контролируем	-11.2739
▁президиум	-11.2739
▁модификаци	-11.2739
▁Башкирии	-11.2739
▁прыжк	-11.2739
▁ОНФ	-11.2739
▁перехват	-11.2739
Й	-11.274
▁певц	-11.274
▁Молодо	-11.274
▁радикально	-11.274
▁рассчитывают	-11.2741
▁ству	-11.2742
▁1997	-11.2743
▁учреждение	-11.2744
▁однозначно	-11.2744
▁берут	-11.2744
▁футболистов	-11.2744
▁ценности	-11.2746
▁капитально	-11.2746
▁увеличилась	-11.2747
▁оппозиционны	-11.2749
▁Соглашени	-11.275
▁гуля	-11.2751
▁Крест	-11.2752
▁разрешени	-11.2753
▁льные	-11.2753
▁координаци	-11.2755
▁кадр	-11.2756
▁свидетелей	-11.2757
▁рассказыва	-11.2757
▁Анти	-11.2757
▁угрожает	-11.2759
▁увольнени	-11.276
▁называем	-11.276
▁продвижени	-11.276
купают	-11.2763
▁гектаров	-11.2766
▁проживающи	-11.2769
mi	-11.2773
▁исков	-11.2775
▁хол	-11.2778
▁$	-11.2779
▁слушания	-11.2779
▁обслужива	-11.2779
▁республиканц	-11.2787
▁превратил	-11.2787
▁руч	-11.2788
▁смотр	-11.2789
▁стрел	-11.2791
▁королев	-11.2795
▁восточны	-11.2797
▁возможном	-11.2798
стар	-11.2798
▁тормоз	-11.2803
▁необходимым	-11.2804
▁тестировани	-11.2805
▁Брюсселя	-11.2807
▁случаю	-11.2809
▁94	-11.2811
▁дата	-11.2816
▁музее	-11.2818
ывают	-11.2818
▁Париж	-11.2821
Российск	-11.2823
▁полка	-11.2826
▁Саш	-11.2828
>	-11.2832
Benz	-11.2832
▁брифинг	-11.2832
▁бульвар	-11.2832
▁голкипер	-11.2832
▁капремонт	-11.2832
▁картофел	-11.2832
▁областей	-11.2832
▁тяжести	-11.2832
▁ПФР	-11.2832
▁лозунг	-11.2832
▁подавля	-11.2832
▁прогремел	-11.2832
▁растут	-11.2832
▁дружб	-11.2832
▁семинар	-11.2833
▁Сол	-11.2833
▁разочарован	-11.2833
▁яйца	-11.2834
▁накопительн	-11.2835
▁ошибок	-11.2836
▁духовно	-11.2837
SA	-11.2838
▁опытом	-11.2838
премьера	-11.2841
▁третьим	-11.2843
▁аналитическо	-11.2844
▁жалова	-11.2844
▁небо	-11.2844
▁реч	-11.2845
▁Кро	-11.2846
▁лифт	-11.2846
▁улучш	-11.2848
▁льда	-11.2848
▁кожи	-11.2848
▁своеобразн	-11.2851
▁Чемпионат	-11.2853
▁Главным	-11.2857
▁Пальмир	-11.2857
▁антимонопольн	-11.2858
ОР	-11.2858
▁An	-11.2859
▁палате	-11.2859
▁продают	-11.2863
▁Сп	-11.2867
Открытие	-11.287
▁Тан	-11.2871
▁Лен	-11.2875
▁доступно	-11.2878
▁моно	-11.288
▁веке	-11.2881
▁истин	-11.2887
▁Плат	-11.289
▁уровнем	-11.289
▁Кузнецова	-11.2892
▁концерта	-11.2892
▁жителями	-11.2892
▁правонарушения	-11.2893
▁Be	-11.2896
▁щем	-11.2899
жать	-11.2899
▁магазинах	-11.2901
оличество	-11.2905
▁ликвидирова	-11.2905
▁обстрела	-11.2907
▁ведение	-11.2907
▁Кер	-11.2916
▁is	-11.2916
▁поход	-11.2922
▁нрав	-11.2925
▁присвоен	-11.2927
▁ценностей	-11.2927
▁Макларен	-11.2927
▁НДС	-11.2927
▁фьючерс	-11.2927
▁сообщить	-11.2927
▁Комисси	-11.2927
ФСИН	-11.2927
▁стекло	-11.2927
▁помню	-11.2927
▁пляж	-11.2927
▁Круз	-11.2927
▁Фильм	-11.2927
▁перенесен	-11.2927
▁лизинг	-11.2928
▁барьер	-11.2928
Россельхознадзор	-11.2928
▁смерт	-11.2928
▁схема	-11.2929
▁Мишел	-11.2929
▁сцену	-11.2929
▁лимит	-11.2931
▁Волгоградско	-11.2932
▁демократии	-11.2932
▁Джонсон	-11.2932
▁сообществ	-11.2932
▁перекрыт	-11.2932
▁владени	-11.2934
em	-11.2935
▁льготы	-11.2939
▁Каир	-11.2941
▁распространен	-11.2941
▁подписей	-11.2944
Ростех	-11.2945
▁подразделение	-11.2946
▁годовом	-11.295
▁ошибка	-11.2953
▁параметр	-11.2953
▁Местны	-11.2953
▁Нижнем	-11.2955
▁ресторана	-11.2956
▁захватил	-11.2957
▁справля	-11.2958
▁Утро	-11.2962
▁выведен	-11.2963
▁офиса	-11.2963
▁93	-11.2964
▁Движени	-11.2967
▁заявлен	-11.2969
▁83	-11.2971
▁торжеств	-11.2971
▁паспорта	-11.2974
▁завоева	-11.2974
▁банку	-11.2979
DA	-11.2979
▁комментари	-11.2983
▁расширя	-11.2988
▁Di	-11.2989
Радио	-11.299
▁выбирать	-11.2996
▁ночи	-11.3001
▁исключает	-11.3002
▁Иванова	-11.3002
▁Национальн	-11.3003
▁проблемами	-11.3006
квартир	-11.301
▁кабин	-11.3011
▁дыр	-11.3013
Евро	-11.3014
▁обслуживание	-11.3017
▁диплом	-11.3017
▁килограммов	-11.302
▁дальне	-11.3021
▁автодорог	-11.3022
▁компенсирова	-11.3022
▁снегопад	-11.3022
▁контролирует	-11.3022
▁оформля	-11.3022
▁курдов	-11.3022
▁ужесточени	-11.3022
▁Post	-11.3022
▁заверша	-11.3022
▁удивительно	-11.3023
▁попадани	-11.3023
▁сговор	-11.3023
▁небольш	-11.3025
▁консультант	-11.3026
▁Капитал	-11.3029
▁лайнер	-11.303
ep	-11.303
▁продлен	-11.3034
▁реконструкци	-11.3034
▁Ряб	-11.3037
▁пострадавше	-11.3037
▁корейск	-11.3038
▁высоте	-11.3038
▁устроить	-11.3042
▁развит	-11.3042
▁Шест	-11.3042
словно	-11.3044
▁пуга	-11.3045
▁ющим	-11.3046
▁республика	-11.3057
▁партнерств	-11.3057
▁нарушил	-11.3058
▁глазами	-11.3058
▁чиновникам	-11.3061
▁обязал	-11.3061
▁вырасти	-11.3068
▁произ	-11.3077
▁фактов	-11.3079
▁указано	-11.3081
▁нормальны	-11.3082
▁Сахалинско	-11.3082
▁образова	-11.3085
▁силовик	-11.3086
▁мотива	-11.3088
▁Нижегородско	-11.3093
▁объявит	-11.3093
▁броси	-11.3093
летие	-11.3101
▁безопасно	-11.3103
▁7,5	-11.3105
▁операторов	-11.3109
▁лишение	-11.311
ua	-11.3117
▁Gala	-11.3118
▁Понятно	-11.3118
▁ребенку	-11.3118
▁контейнер	-11.3118
▁Пассажир	-11.3118
▁снаряд	-11.3118
▁мельдоний	-11.3119
▁ЦРУ	-11.3119
▁существовал	-11.3119
Говорит	-11.3119
end	-11.3119
▁изображения	-11.312
▁справедливости	-11.312
▁оформи	-11.3121
▁свеже	-11.3121
xy	-11.3122
Арсенал	-11.3122
▁апелляционн	-11.3122
▁понят	-11.3124
▁косну	-11.3124
Пар	-11.3124
Fi	-11.3126
▁лекарственны	-11.3126
▁весны	-11.3126
▁самоуправления	-11.3127
▁направлениям	-11.3127
▁украинском	-11.3128
вшую	-11.3128
▁больных	-11.3129
ремя	-11.3129
▁конкур	-11.313
▁понятны	-11.313
майдан	-11.3132
▁уют	-11.3133
▁приходят	-11.3134
▁Лиз	-11.3134
аспечата	-11.3136
▁жизненно	-11.3136
▁Александрова	-11.314
▁привлекать	-11.3141
▁картину	-11.3144
▁Мун	-11.3144
▁центром	-11.3145
▁нормативны	-11.3148
▁серебряны	-11.3149
▁сильного	-11.3151
-2018	-11.3154
▁выпущен	-11.3155
▁опытны	-11.3156
▁масла	-11.3157
ящего	-11.3158
▁европейским	-11.3158
▁Ближне	-11.3159
▁высказывани	-11.3159
▁уменьшени	-11.316
нности	-11.316
▁объектам	-11.3162
▁Домодедово	-11.3163
▁падени	-11.3163
▁неизбежно	-11.3164
▁масштаба	-11.3164
мур	-11.3165
▁Ленинград	-11.3167
▁развод	-11.3169
▁карьере	-11.3173
▁предлагаем	-11.3174
▁АСВ	-11.3177
лизм	-11.3177
▁продолжат	-11.3178
страивает	-11.3178
▁границей	-11.3179
▁мягко	-11.3181
▁инвесторам	-11.3182
турецк	-11.3182
▁позволяющи	-11.3183
▁фаз	-11.3185
▁иску	-11.3187
▁островов	-11.3187
▁горяче	-11.3191
▁детства	-11.3192
НИИ	-11.3193
▁волк	-11.3194
▁исправ	-11.3197
▁регулярны	-11.3199
праве	-11.3203
▁прояви	-11.3204
▁гостя	-11.3204
▁научил	-11.3206
▁носить	-11.3206
▁Por	-11.3208
▁лаборатории	-11.3209
сид	-11.3213
▁магнит	-11.3214
начальник	-11.3214
▁январь	-11.3215
ступенчат	-11.3215
▁контекст	-11.3215
▁соболезновани	-11.3215
▁тревог	-11.3215
▁условии	-11.3215
▁Боевик	-11.3215
▁предпринят	-11.3215
▁построил	-11.3215
▁деньгами	-11.3215
▁витамин	-11.3215
CAS	-11.3215
▁возникнут	-11.3216
▁сквер	-11.3216
▁Зуб	-11.3217
▁приемлем	-11.3217
▁навсегда	-11.3217
▁Лор	-11.3217
▁героин	-11.3218
одители	-11.322
▁Мог	-11.3221
верное	-11.3223
даст	-11.3223
час	-11.3223
▁посет	-11.3224
▁140	-11.3225
льность	-11.3226
▁фантастическ	-11.3226
▁Пал	-11.3226
▁уважение	-11.3227
▁концерн	-11.3227
▁дель	-11.3229
▁связыва	-11.323
▁энергетик	-11.3231
▁приглашен	-11.3232
▁хранение	-11.3233
▁прекрасны	-11.3235
▁отправля	-11.3237
▁ed	-11.3237
▁смертник	-11.324
▁ветра	-11.3242
Кар	-11.3244
▁96	-11.3244
▁площадка	-11.3246
▁подземны	-11.3247
▁придумал	-11.3247
бивать	-11.325
▁карточк	-11.3252
▁устойчиво	-11.3253
▁рассматривал	-11.3254
▁востребован	-11.326
ash	-11.326
▁населенн	-11.3263
▁вылета	-11.3264
▁столичном	-11.3266
▁владельце	-11.3268
▁археолог	-11.3268
▁колен	-11.3268
объявления	-11.3269
▁вызываю	-11.3271
▁агитаци	-11.3272
▁оборота	-11.3274
▁Венесуэлы	-11.3276
▁покажет	-11.3278
▁Улюкаева	-11.3284
▁разрабатыва	-11.3285
▁оценивал	-11.3286
▁километр	-11.3288
▁мужско	-11.3288
▁беседы	-11.329
▁новогодн	-11.329
▁забор	-11.3291
▁учил	-11.3291
▁реагирова	-11.3291
▁товара	-11.3292
▁Чечне	-11.3292
▁шую	-11.3297
как	-11.33
▁Ган	-11.3302
▁рекламны	-11.3304
кредит	-11.3304
▁уважа	-11.3305
▁войн	-11.3308
▁экстремистско	-11.3309
▁эпидеми	-11.3313
▁CNN	-11.3313
▁Microsoft	-11.3313
▁авиакатастроф	-11.3313
▁ассамбле	-11.3313
▁вспомнить	-11.3313
▁девушек	-11.3313
▁железнодорожны	-11.3313
▁спецопераци	-11.3313
▁телевизионн	-11.3313
▁участвует	-11.3313
▁церковь	-11.3313
▁конвенци	-11.3313
▁курдски	-11.3313
▁гранат	-11.3313
▁полицейский	-11.3314
▁букв	-11.3314
▁Wall	-11.3314
▁кузов	-11.3314
▁помогаю	-11.3315
▁плит	-11.3316
▁Семь	-11.3317
▁Побед	-11.3317
▁патриот	-11.3317
▁соблюда	-11.3318
▁ученым	-11.3318
▁понятие	-11.3319
▁ранне	-11.3319
▁06	-11.3319
▁фирма	-11.3319
▁создавал	-11.332
▁щую	-11.332
▁отзыва	-11.332
▁Нико	-11.3323
▁дистанц	-11.3324
▁публику	-11.3326
▁зимне	-11.3326
▁бил	-11.3327
▁обеспечил	-11.3329
▁риску	-11.3332
▁Ar	-11.3333
▁разделен	-11.3334
▁вошла	-11.3334
▁Брюссел	-11.3336
▁Te	-11.3338
net	-11.3339
лиги	-11.3342
▁профессии	-11.3343
▁испанско	-11.3343
▁обед	-11.3344
▁объяснили	-11.3345
▁обсуждали	-11.3345
▁Самым	-11.3346
▁19:	-11.3348
▁техническим	-11.3349
▁ЮКОСа	-11.3349
▁Корее	-11.3351
▁официальн	-11.3354
▁признание	-11.3357
▁загоре	-11.3357
▁инстанции	-11.3358
▁Учитывая	-11.3359
▁процессы	-11.3359
▁Мало	-11.336
▁будь	-11.3361
▁достойны	-11.3362
eg	-11.3365
▁Борисов	-11.3366
mp	-11.3366
▁'	-11.3367
▁напряженност	-11.3367
▁силой	-11.3374
▁планирова	-11.3378
▁категор	-11.3378
▁Бас	-11.3379
▁созданы	-11.338
▁подписать	-11.3382
▁включ	-11.3383
стает	-11.3383
▁прогнозы	-11.3385
▁назнач	-11.3386
▁ация	-11.3387
▁раскол	-11.3389
▁торжественно	-11.339
▁модернизации	-11.339
▁тройк	-11.3392
▁Po	-11.3392
альд	-11.3392
▁принадлежал	-11.3398
▁учитель	-11.34
▁Зелен	-11.3402
▁реальность	-11.3402
Лучш	-11.3403
pa	-11.3403
▁таблице	-11.3404
цин	-11.3405
▁Газ	-11.3406
▁патриотическ	-11.3407
▁реакцию	-11.3409
▁Мик	-11.341
▁учен	-11.3411
▁Киевско	-11.3411
Милан	-11.3411
▁асфальт	-11.3412
▁Горбачев	-11.3412
▁Пхеньян	-11.3412
▁грунт	-11.3412
▁поликлиник	-11.3412
▁сентябрь	-11.3412
▁учителей	-11.3412
▁отклонен	-11.3412
▁Магомед	-11.3412
▁Взрыв	-11.3412
▁проявлени	-11.3412
▁протестующи	-11.3413
▁освоени	-11.3413
ъехал	-11.3413
▁питание	-11.3413
▁закреплен	-11.3413
▁3,8	-11.3413
▁надежны	-11.3414
▁потребительско	-11.3414
информ	-11.3414
▁привлекательно	-11.3414
▁Екатеринбурга	-11.3415
▁круж	-11.3416
▁Софи	-11.3418
▁Главная	-11.3418
▁преодолеть	-11.3419
▁СПГ	-11.3422
▁прозвучал	-11.3424
▁повышенно	-11.3424
▁Акци	-11.3431
▁Баку	-11.3434
▁тесно	-11.3436
▁ферм	-11.3436
▁покупатель	-11.3436
мисс	-11.3437
▁развиты	-11.3437
▁10:	-11.3438
▁нанесени	-11.3439
▁Макаров	-11.3442
▁агента	-11.3443
▁знаков	-11.3443
▁вступит	-11.3444
▁отходов	-11.3444
▁смену	-11.3445
▁структуру	-11.3447
▁неудач	-11.3448
▁2,3	-11.345
▁семейно	-11.3453
▁спортивн	-11.3454
▁добавля	-11.3457
▁слуша	-11.3462
▁вечно	-11.3463
▁учащи	-11.3467
▁спасл	-11.3467
▁строени	-11.3468
▁рев	-11.3469
▁братья	-11.3469
▁вакцин	-11.3471
▁самим	-11.3473
▁профсоюз	-11.3473
▁рассматрива	-11.3475
▁потребление	-11.3476
▁общим	-11.3476
▁союзников	-11.3477
▁артиста	-11.348
▁двигать	-11.3483
▁двойн	-11.3484
▁внук	-11.3485
▁случи	-11.3494
▁доверя	-11.3494
▁перемещени	-11.3496
▁ены	-11.3496
▁производителям	-11.3497
▁Алта	-11.3499
анных	-11.3503
▁сопровожд	-11.3505
▁готово	-11.3505
▁агрегат	-11.351
▁происходя	-11.3511
▁Стамбуле	-11.3511
▁своевременно	-11.3512
▁ЕГЭ	-11.3512
▁ЛУКОЙЛ	-11.3512
▁Пользовател	-11.3512
▁Шарапова	-11.3512
▁гибрид	-11.3512
▁иностранцев	-11.3512
▁мессенджер	-11.3512
▁переведен	-11.3512
▁противоположн	-11.3512
▁соглаша	-11.3512
▁триллион	-11.3512
▁волейбол	-11.3512
▁вывез	-11.3512
_	-11.3512
▁принадлежащи	-11.3512
▁узнав	-11.3512
Челси	-11.3512
▁Высок	-11.3512
▁твит	-11.3512
▁кибератак	-11.3512
▁взаимно	-11.3513
▁воздействия	-11.3513
▁утечк	-11.3514
▁Ларис	-11.3514
▁теракты	-11.3514
▁IV	-11.3515
▁вируса	-11.3515
▁случивше	-11.3515
▁верно	-11.3517
авит	-11.3518
▁3,6	-11.3522
▁массив	-11.3524
▁большом	-11.3524
▁удалени	-11.3527
▁ракетно	-11.3532
▁сырье	-11.3537
▁членств	-11.3538
Блок	-11.3539
Что	-11.3542
СН	-11.3543
носителя	-11.3544
▁предметы	-11.3548
▁предоставляет	-11.355
▁89	-11.3555
▁разбор	-11.3555
совершенствовани	-11.3558
▁имеюще	-11.356
▁заблокирован	-11.3561
службу	-11.3563
▁овском	-11.3564
▁МО	-11.3566
▁поверхность	-11.3566
▁Рыб	-11.3567
▁сирийск	-11.3569
▁палат	-11.3569
▁популярным	-11.3574
▁лечени	-11.3576
▁популярн	-11.3579
▁региону	-11.358
▁телефонны	-11.3581
▁стабильност	-11.3582
▁Долг	-11.3583
▁ключевым	-11.3585
▁показателя	-11.3585
▁молодым	-11.3586
▁садов	-11.3586
ate	-11.359
писок	-11.3591
▁объективно	-11.3592
▁знакомых	-11.3594
▁храма	-11.3597
▁91	-11.3598
▁посты	-11.3599
добав	-11.36
▁соперников	-11.3604
▁Ваш	-11.3605
▁виновны	-11.3613
▁Девушк	-11.3613
▁достоинства	-11.3613
▁оптимизм	-11.3613
▁ситуаций	-11.3613
▁абонент	-11.3613
▁ненавист	-11.3613
▁рынку	-11.3613
▁ярмарк	-11.3613
▁бактери	-11.3613
▁Жертв	-11.3613
▁добыча	-11.3613
▁пехот	-11.3613
▁Путешествия	-11.3614
▁Stre	-11.3614
▁килограмм	-11.3615
очаров	-11.3615
▁удобны	-11.3615
▁Стрел	-11.3615
▁живущи	-11.3616
лаев	-11.3617
ография	-11.3618
▁1970	-11.3619
▁нечего	-11.3619
говорим	-11.362
▁онколог	-11.3621
▁1960	-11.3621
▁страховщик	-11.3624
▁стремит	-11.3625
▁шеф	-11.3625
▁москвичей	-11.3629
шейся	-11.3632
▁институтов	-11.3632
▁боевик	-11.3633
▁жестоко	-11.3633
▁Фин	-11.3634
▁Дар	-11.3638
▁расширен	-11.3639
▁высказался	-11.364
Джер	-11.364
▁учеб	-11.3641
▁рекомендует	-11.3642
▁ельным	-11.3642
▁воде	-11.3645
слыш	-11.3645
живать	-11.3645
▁Две	-11.3647
▁Одесс	-11.365
▁Ален	-11.365
▁Сад	-11.3651
краш	-11.3655
▁Кино	-11.3657
▁Парламент	-11.366
валось	-11.3662
▁Арави	-11.3668
▁подвел	-11.3669
▁называли	-11.3672
▁берегу	-11.3674
▁стреля	-11.3674
▁русским	-11.3677
▁Сред	-11.3677
▁сравнива	-11.3679
▁выборам	-11.3679
▁подбор	-11.368
▁Обще	-11.3681
▁продлит	-11.3681
▁конструкции	-11.3685
▁удержать	-11.3686
▁ориентирован	-11.3686
▁пограничн	-11.3687
▁Lo	-11.3687
▁одежду	-11.3688
▁Румынии	-11.3689
▁КС	-11.3689
▁вырази	-11.369
▁Подобны	-11.3692
▁автомобилем	-11.3693
левых	-11.3696
▁воспитанник	-11.3696
менем	-11.3697
▁испытание	-11.3704
▁аналитиков	-11.3705
▁инского	-11.3707
▁НА	-11.3709
▁контрольно	-11.3713
▁нашла	-11.3715
Адмирал	-11.3715
▁XIX	-11.3715
▁Аналогичн	-11.3715
▁Роналд	-11.3715
▁ежемесячно	-11.3715
▁естественны	-11.3715
▁оптимизаци	-11.3715
▁фильтр	-11.3715
▁Шувалов	-11.3715
▁европейц	-11.3715
▁Карякин	-11.3715
Система	-11.3715
▁приезд	-11.3715
Кубань	-11.3715
▁Лукашенко	-11.3716
▁транспортировк	-11.3716
▁пояснит	-11.3717
▁ознакоми	-11.3717
▁уволил	-11.3718
▁длинны	-11.3718
▁звен	-11.3719
▁пролет	-11.372
▁зрителям	-11.3721
▁US	-11.3722
▁видимости	-11.3722
▁интеллектуальн	-11.3723
ОН	-11.3726
▁производственно	-11.3726
ифика	-11.3727
▁жидкост	-11.3729
▁проголосова	-11.3734
▁прекраща	-11.3734
▁Буде	-11.374
▁переговор	-11.374
▁старых	-11.3743
▁законно	-11.3744
▁довод	-11.3744
▁объединить	-11.3745
▁беременност	-11.3746
▁противоречит	-11.3746
▁прекрати	-11.3746
▁финансировани	-11.3747
▁зарабатыва	-11.3749
▁заложников	-11.375
▁ОИ	-11.3751
▁купе	-11.3751
▁Команда	-11.3759
▁народу	-11.3759
▁овски	-11.3759
дите	-11.3759
▁Кажд	-11.3761
FA	-11.3762
ft	-11.3762
▁души	-11.3763
▁дубл	-11.3763
▁министерств	-11.3764
▁чита	-11.3765
▁одет	-11.3769
культ	-11.3771
▁мониторинга	-11.3772
▁впереди	-11.3774
ческо	-11.3777
▁долгосрочны	-11.378
▁€1	-11.3781
▁Футбол	-11.3785
лять	-11.3787
▁достигает	-11.3788
▁Федеральны	-11.3789
▁Дон	-11.3793
▁престиж	-11.3796
осторожност	-11.3798
▁королевств	-11.3802
▁доходность	-11.3802
▁пилотов	-11.3805
▁берега	-11.3809
▁Свое	-11.381
Звезд	-11.3811
▁шут	-11.3813
▁Госдепартамент	-11.3818
▁Четыре	-11.3818
▁снайпер	-11.3818
▁тротуар	-11.3818
▁удостоверени	-11.3818
▁Гитлер	-11.3818
▁инновационны	-11.3818
▁колебани	-11.3818
ашвили	-11.3818
▁авария	-11.3818
▁ВМФ	-11.3818
▁Чехии	-11.3818
▁послужил	-11.3819
Открыт	-11.3819
▁четвертьфинал	-11.3819
▁Кру	-11.3819
▁гла	-11.3819
▁насыщен	-11.3821
▁надеются	-11.3821
▁схож	-11.3822
▁Выбор	-11.3823
энерго	-11.3824
▁испыта	-11.3825
▁направили	-11.3827
▁распад	-11.3829
▁способна	-11.3831
▁иракско	-11.3831
моему	-11.3832
▁доск	-11.3834
▁медицин	-11.3834
▁предоставлять	-11.3835
▁сильн	-11.3836
▁Хэ	-11.3837
▁2000-	-11.3839
▁уголовн	-11.3839
▁могил	-11.3839
▁визов	-11.384
▁Ba	-11.3841
летия	-11.3841
нижение	-11.3843
ходящего	-11.3843
▁отеля	-11.3844
▁детств	-11.3846
▁вводить	-11.3849
▁работавши	-11.3849
ирующие	-11.3849
▁верить	-11.385
▁писателя	-11.3851
▁возведени	-11.3852
▁меньш	-11.3852
КоАП	-11.3853
▁обладае	-11.3853
▁окно	-11.3855
▁(7	-11.3858
▁di	-11.386
▁ножом	-11.3861
ителей	-11.3861
▁Основн	-11.3862
ub	-11.3862
▁облегч	-11.3863
▁связал	-11.3866
▁индустрии	-11.3867
▁полезно	-11.3868
▁ходит	-11.387
▁площадку	-11.3871
ack	-11.3871
▁скач	-11.3871
▁устроен	-11.3875
▁Матч	-11.3876
бивал	-11.3879
▁вступлени	-11.388
купать	-11.3881
▁2,4	-11.3881
Мос	-11.3882
▁понрави	-11.3882
▁компонент	-11.3883
▁нская	-11.389
Ак	-11.389
▁сервисов	-11.3891
▁музыка	-11.3891
▁нападени	-11.3892
▁заметны	-11.3895
езж	-11.3895
▁перелет	-11.3897
▁Остров	-11.3898
▁бизнесом	-11.3902
▁актива	-11.3902
▁105	-11.3905
▁пожарно	-11.3907
▁выполняет	-11.3907
▁дождь	-11.3907
▁давали	-11.3907
▁мяча	-11.3912
▁цкий	-11.3913
▁веков	-11.3913
▁Восточный	-11.3914
▁секторе	-11.3914
▁Груз	-11.3914
▁перерыва	-11.3914
▁убийств	-11.3915
▁гонка	-11.3917
▁пальц	-11.3918
▁обращают	-11.392
▁лот	-11.392
▁заключенны	-11.3922
▁Tesla	-11.3922
▁Автомобиль	-11.3922
▁Архангельск	-11.3922
▁Конашенков	-11.3922
▁Отвеча	-11.3922
▁диабет	-11.3922
▁математик	-11.3922
▁механик	-11.3922
▁облигаций	-11.3922
▁прожиточн	-11.3922
▁раскрыл	-11.3922
▁удивля	-11.3922
▁деревянн	-11.3922
▁пулемет	-11.3923
▁патент	-11.3923
▁бонус	-11.3923
▁кнопк	-11.3923
▁кольца	-11.3923
▁транш	-11.3923
▁троих	-11.3923
▁Минтруд	-11.3923
▁греческо	-11.3923
▁XX	-11.3923
▁молока	-11.3923
▁стрелково	-11.3923
▁Германию	-11.3923
Рияд	-11.3924
▁Сечин	-11.3924
▁лежи	-11.3925
▁гарантий	-11.3926
▁опасн	-11.3927
▁цифр	-11.3928
▁настаивал	-11.3928
▁коррупционны	-11.3929
АП	-11.393
▁наказан	-11.393
▁воздержа	-11.3931
▁корпоративно	-11.3931
▁Ливан	-11.3932
ell	-11.3933
▁страница	-11.3934
▁отправк	-11.3936
▁Жил	-11.3937
звонить	-11.3937
▁отражает	-11.3938
▁гус	-11.3938
начал	-11.3941
▁разбира	-11.3944
пинг	-11.3947
▁служить	-11.3948
▁Янукович	-11.3949
▁170	-11.395
читыв	-11.3951
▁Высше	-11.3952
▁успе	-11.3953
▁розничны	-11.3953
▁Африк	-11.3953
▁общение	-11.3957
▁Новгороде	-11.3958
▁войскам	-11.3961
▁планировани	-11.3964
▁Ценност	-11.3965
▁силовиков	-11.3965
▁гуманитарн	-11.3968
▁грант	-11.3968
Мисс	-11.3973
▁лишить	-11.3973
▁выдвижени	-11.3974
▁читал	-11.3974
строят	-11.3975
▁представит	-11.3977
▁страж	-11.3979
▁тепла	-11.3979
▁слаб	-11.398
▁Бак	-11.3982
▁привлечение	-11.3985
▁отряда	-11.399
▁ПО	-11.3991
▁федерация	-11.3991
org	-11.3994
▁отобра	-11.3995
▁заряд	-11.3995
▁катани	-11.3999
▁массы	-11.4001
кладывал	-11.4003
▁Эк	-11.4008
▁избирател	-11.401
▁максимальны	-11.4013
▁уважени	-11.4015
▁ma	-11.4016
▁декор	-11.4016
▁демократически	-11.4017
▁намерения	-11.402
▁ответственно	-11.4021
▁дивизи	-11.4024
▁победителя	-11.4026
▁пожил	-11.4026
▁адвокатов	-11.4027
▁платны	-11.4027
▁взнос	-11.4027
▁Аналитик	-11.4028
▁Бастрыкин	-11.4028
▁Выяснилось	-11.4028
▁астроном	-11.4028
▁вспомнил	-11.4028
▁констатировал	-11.4028
адмирал	-11.4028
▁Поклонск	-11.4028
▁физлиц	-11.4028
▁гаджет	-11.4028
▁Ереван	-11.4028
▁Харьков	-11.4028
▁Толст	-11.4028
▁Немецк	-11.4028
▁копеек	-11.4028
▁приостановк	-11.4028
▁идеально	-11.4029
▁мысль	-11.4029
▁нарасти	-11.4029
▁угля	-11.403
▁равен	-11.403
▁скрылся	-11.4031
▁дистанции	-11.4031
▁показателям	-11.4032
▁скончалась	-11.4032
▁обсуждается	-11.4033
▁надежды	-11.4034
▁инструменты	-11.4034
Каприо	-11.4035
▁уборк	-11.4035
транс	-11.4036
терять	-11.4037
▁AP	-11.4038
▁леса	-11.4039
▁сельски	-11.4041
▁очередны	-11.4041
Дон	-11.4041
▁отчита	-11.4041
▁вероятны	-11.4043
▁ницу	-11.4044
▁Яценюка	-11.4045
СА	-11.4047
▁понимаем	-11.4052
▁выглядел	-11.4053
▁пир	-11.4054
▁Su	-11.4054
бирал	-11.4055
равл	-11.4058
▁биатлонист	-11.4061
▁экологическ	-11.4062
▁школьны	-11.4063
▁экономическая	-11.4063
▁реки	-11.4066
▁Старо	-11.4066
▁Пак	-11.4067
▁Анкары	-11.4068
▁победителе	-11.4069
▁стойк	-11.4069
:6	-11.4076
сот	-11.4076
▁Северная	-11.4077
▁обострени	-11.4077
▁ению	-11.4082
▁рот	-11.4083
эш	-11.4084
СИ	-11.4085
▁креп	-11.4088
▁объясня	-11.4088
▁1990	-11.4088
▁приют	-11.4091
младши	-11.4093
▁скуч	-11.4094
▁Пла	-11.4094
▁фактором	-11.4095
▁арестом	-11.4095
ОВ	-11.4097
▁медицины	-11.4097
▁парламентарий	-11.4098
▁конфликтов	-11.4099
▁вагонов	-11.4099
▁незаконном	-11.41
▁боро	-11.41
▁совпада	-11.4101
▁посыл	-11.4103
▁Черны	-11.4104
▁усиление	-11.4105
▁динамика	-11.4105
▁кадры	-11.4106
▁белорусско	-11.4109
страивать	-11.4109
левого	-11.411
марк	-11.4114
▁бул	-11.4115
▁документах	-11.4116
действительности	-11.4116
спорить	-11.4118
▁эколог	-11.412
▁цветов	-11.4125
▁вертолетов	-11.4127
▁коррект	-11.4127
▁осужденных	-11.4128
Виктория	-11.4133
▁шест	-11.4133
ометр	-11.4133
▁крымско	-11.4134
▁Добави	-11.4134
▁Курдистан	-11.4134
▁Очевидно	-11.4134
▁выработк	-11.4134
▁инициатор	-11.4134
▁механическ	-11.4134
▁одномандатны	-11.4134
▁резюмировал	-11.4134
▁господдержк	-11.4134
▁Мосгорсуд	-11.4134
▁воспитыв	-11.4134
▁намерева	-11.4134
▁Заявлени	-11.4134
▁шлем	-11.4134
вращ	-11.4134
▁мельдония	-11.4134
нормандско	-11.4135
▁заявлению	-11.4135
▁сдела	-11.4135
ложат	-11.4135
▁выезжа	-11.4135
▁даты	-11.4136
▁добавлен	-11.4137
▁воров	-11.4138
▁Центробанка	-11.4138
▁реструктуризаци	-11.4138
▁подвиг	-11.4139
▁провалил	-11.4139
▁отража	-11.414
сирот	-11.4141
▁FM	-11.4141
▁Рын	-11.4142
▁декабрь	-11.4143
▁эвакуирован	-11.4144
▁бандит	-11.4144
▁СКА	-11.4145
▁пассажиры	-11.4145
▁ne	-11.4145
▁Шир	-11.4146
▁марок	-11.4146
WADA	-11.4147
▁фракци	-11.4147
▁растрат	-11.4147
ткин	-11.415
▁редки	-11.4152
▁памятников	-11.4154
▁откровенно	-11.4156
▁пробег	-11.4159
▁донор	-11.4159
едр	-11.4161
▁ничь	-11.4166
▁окончил	-11.4167
▁разгон	-11.4171
▁Юго	-11.4171
▁военнослужащ	-11.4172
▁ьск	-11.4178
▁авиационны	-11.418
▁поколени	-11.4183
▁экспертно	-11.4183
▁удивил	-11.4184
▁Мински	-11.4184
▁порыв	-11.4185
▁северно	-11.4185
▁попадают	-11.4186
▁Жу	-11.4186
▁диспетчер	-11.4188
▁Народно	-11.419
▁распространил	-11.4191
▁высоком	-11.4194
▁собранны	-11.4194
▁Марии	-11.4197
▁относить	-11.42
▁пожилы	-11.42
▁организма	-11.4206
▁Золото	-11.4207
▁удачно	-11.4208
▁хулиган	-11.421
ирующих	-11.421
▁звонки	-11.4211
▁тренером	-11.4213
▁нул	-11.4216
▁резервы	-11.4217
▁Соло	-11.4218
▁женой	-11.4222
▁последовательно	-11.4229
люд	-11.423
▁командира	-11.423
▁поездов	-11.4231
помним	-11.4233
Ы	-11.424
▁поражен	-11.424
▁крик	-11.4241
▁собственном	-11.4242
▁антикоррупционн	-11.4242
▁критическо	-11.4242
▁Guardian	-11.4242
▁Исинбаев	-11.4242
▁абсурд	-11.4242
▁микрорайон	-11.4242
▁обрушени	-11.4242
▁Нынешн	-11.4242
▁избирком	-11.4242
▁Четвер	-11.4242
сосудист	-11.4242
▁армию	-11.4242
▁выделил	-11.4242
ДНК	-11.4242
▁выполнены	-11.4242
▁аллерг	-11.4242
▁Com	-11.4242
▁оппозиционно	-11.4242
▁изменится	-11.4243
▁рука	-11.4243
▁песня	-11.4243
▁руководил	-11.4244
▁Актер	-11.4244
▁милици	-11.4245
▁изменилась	-11.4246
▁наблюдатель	-11.425
▁финанс	-11.4253
США	-11.4257
▁пробы	-11.4259
▁материалам	-11.4259
▁радар	-11.426
▁горяч	-11.4263
▁студии	-11.4264
▁моим	-11.4267
▁либерал	-11.4267
▁плотно	-11.4268
▁Американск	-11.4269
▁Алтайск	-11.4272
стик	-11.4273
▁вниз	-11.4274
▁стандартам	-11.4276
▁медвед	-11.4277
кладывают	-11.4278
▁Сети	-11.4281
▁искусственны	-11.4282
▁агрессии	-11.4282
▁погоды	-11.4285
▁финиш	-11.4288
ходящие	-11.4288
Газ	-11.4289
▁нян	-11.4292
▁классов	-11.4292
▁1,9	-11.4294
▁авших	-11.4298
▁взросл	-11.4299
▁ающими	-11.4301
▁гляд	-11.4303
▁ели	-11.4304
СМ	-11.4306
▁этаж	-11.4306
арки	-11.4307
▁реп	-11.4307
▁пропуск	-11.4312
▁Вод	-11.4312
▁Зим	-11.4312
▁анонсировал	-11.4315
▁творчества	-11.4316
▁биатлон	-11.4316
Звезда	-11.4318
▁популярност	-11.4319
▁камеру	-11.4327
▁Миш	-11.4328
▁утрат	-11.4329
▁лицами	-11.433
▁шему	-11.433
▁Человек	-11.433
con	-11.4333
▁цеп	-11.4337
▁Куд	-11.4339
▁срочн	-11.4339
греб	-11.434
брошен	-11.4343
▁выдающи	-11.4343
тун	-11.4346
▁патриарха	-11.4347
▁Парк	-11.4348
▁Музыка	-11.435
*	-11.435
Калашников	-11.435
▁Израиле	-11.435
▁компакт	-11.435
▁оспарива	-11.435
▁подсчитал	-11.435
▁развлечени	-11.435
▁тюрьме	-11.435
▁юрисдикци	-11.435
▁Financ	-11.435
▁монтаж	-11.435
▁необычны	-11.435
Олимп	-11.435
стиль	-11.435
▁захотел	-11.435
▁утилизаци	-11.4351
▁сгорел	-11.4351
▁голландск	-11.4351
▁опира	-11.4351
▁Новиков	-11.4352
▁Томск	-11.4352
пульс	-11.4352
▁родственники	-11.4352
▁позитивно	-11.4353
▁осадков	-11.4353
▁укрепит	-11.4354
Монако	-11.4355
▁переехал	-11.4355
RU	-11.4356
распространяется	-11.4356
▁олимпийск	-11.4357
▁морально	-11.4357
▁талантливы	-11.4357
▁главном	-11.4359
▁революци	-11.4359
▁тактик	-11.4366
ТР	-11.4366
▁областны	-11.4367
▁кроссовера	-11.4369
▁хищения	-11.4369
▁кабмина	-11.4369
▁сочетани	-11.4373
▁август	-11.4374
▁документации	-11.4375
спешно	-11.4379
▁приведен	-11.438
▁собственным	-11.4381
▁Папа	-11.4381
▁экспортер	-11.4383
▁рт	-11.4385
▁литературы	-11.4387
▁договоров	-11.4391
▁Бразили	-11.4393
▁приложени	-11.4394
▁фикс	-11.4396
▁завер	-11.4397
▁напряженн	-11.44
▁принц	-11.4402
▁ывает	-11.4403
судят	-11.4404
▁общественность	-11.4406
▁открыв	-11.4407
▁высоты	-11.4409
qu	-11.441
▁карта	-11.4412
▁12%	-11.4412
▁взлома	-11.4414
▁присутствия	-11.4415
▁Хорош	-11.4416
▁ведуще	-11.4419
▁написано	-11.4419
▁многоквартирны	-11.442
▁Мюнхене	-11.4423
▁рака	-11.4423
▁рыночны	-11.4423
▁демократическо	-11.4425
▁достигнуты	-11.4426
▁федераци	-11.4429
▁социолог	-11.4431
▁нелегально	-11.4433
Магнит	-11.4434
▁труп	-11.4437
▁женски	-11.4439
кита	-11.4441
▁подсудимы	-11.4442
Ал	-11.4447
делает	-11.4448
ъезд	-11.4449
▁умерл	-11.445
▁произой	-11.4451
▁ch	-11.4453
▁выплатит	-11.4453
▁пешеход	-11.4457
▁фундамент	-11.4458
▁документу	-11.4459
▁арбитр	-11.4459
▁Договор	-11.446
чевидцы	-11.446
▁Видимо	-11.446
▁Голодец	-11.446
▁Расследование	-11.446
▁ополченц	-11.446
▁отслежива	-11.446
▁побежда	-11.446
▁контролю	-11.446
▁овощей	-11.446
▁Надеюсь	-11.446
▁Рабоч	-11.446
▁гранатомет	-11.446
▁интриг	-11.446
▁критически	-11.446
▁НТВ	-11.446
▁изъял	-11.446
▁овощи	-11.446
▁Ответ	-11.4461
▁агрессивно	-11.4461
▁упрощен	-11.4461
Жизн	-11.4461
▁стоянк	-11.4462
▁метрополитена	-11.4463
▁выдан	-11.4463
▁банками	-11.4463
▁Артур	-11.4463
▁ДПС	-11.4464
▁логик	-11.4464
▁опасаются	-11.4464
▁гарантии	-11.4465
▁РП	-11.4467
смотрите	-11.4467
▁явил	-11.4469
▁оплату	-11.447
▁парламентариев	-11.447
▁указанно	-11.4473
▁рекомендаци	-11.4474
щение	-11.4475
ходом	-11.4475
▁Саратовско	-11.4478
▁давности	-11.4478
▁рамк	-11.4478
штат	-11.4478
Y	-11.4479
Центр	-11.448
рма	-11.4481
групп	-11.4482
▁технологи	-11.4483
▁Кап	-11.4487
▁импорта	-11.449
▁страст	-11.4495
▁Хр	-11.4495
▁ринг	-11.4499
▁Венесуэл	-11.4502
▁предусмотренно	-11.4503
▁Британск	-11.4504
▁Ленин	-11.4506
▁сесси	-11.4508
▁перемирие	-11.4508
▁поединка	-11.451
▁аешь	-11.451
▁изъяты	-11.4513
▁привычны	-11.4517
▁теплы	-11.4519
▁НИ	-11.4523
▁виновно	-11.4524
▁митинга	-11.4526
▁крепост	-11.4528
▁Необходимо	-11.4529
▁щее	-11.453
стояние	-11.4531
▁претенду	-11.4531
▁Труд	-11.4535
▁дис	-11.4537
▁Оле	-11.454
▁опаса	-11.4543
▁перевозчика	-11.4543
▁te	-11.4544
▁полноценно	-11.4545
▁Сири	-11.4546
▁ывал	-11.455
ехал	-11.4553
▁признак	-11.4554
▁Буду	-11.4557
▁зарегистрировал	-11.4557
▁почувствовал	-11.4563
▁экономическом	-11.4566
▁ценово	-11.4566
▁жестк	-11.4567
▁волны	-11.4568
▁реставраци	-11.4571
▁AFP	-11.4571
▁Минобрнауки	-11.4571
▁Примечательно	-11.4571
▁компетенци	-11.4571
▁лондонско	-11.4571
▁очевидны	-11.4571
▁состязани	-11.4571
▁спектакле	-11.4571
▁отсутствует	-11.4571
▁певец	-11.4571
▁приветствова	-11.4571
▁Life	-11.4571
▁Гюлен	-11.4571
▁пропавши	-11.4572
▁насилие	-11.4573
▁Книг	-11.4573
▁клубом	-11.4573
▁бойца	-11.4576
▁ничем	-11.4576
▁Лучше	-11.4578
ключать	-11.4578
▁1993	-11.4578
▁льду	-11.458
▁3,7	-11.4581
▁умира	-11.4584
▁залива	-11.4585
▁отвод	-11.4585
▁мусора	-11.4588
▁повышать	-11.4589
▁Октябрьск	-11.4591
пресс	-11.4594
▁Элла	-11.4594
▁осново	-11.4595
▁сыном	-11.4598
▁республиканско	-11.4599
▁политическое	-11.46
▁площадках	-11.46
▁касающи	-11.4603
▁разбился	-11.4603
▁водки	-11.4604
▁Мас	-11.4604
▁социалист	-11.4605
▁вины	-11.4605
▁создав	-11.4606
конференци	-11.4608
▁правонарушени	-11.4611
▁прерва	-11.4612
▁забывать	-11.4612
▁состоялись	-11.4612
▁пусты	-11.4612
▁перспективны	-11.4614
▁собрание	-11.4614
▁страшны	-11.4614
▁родителями	-11.4615
▁автоматическо	-11.4618
▁Австрали	-11.4619
▁выстраива	-11.4619
▁пожизненно	-11.462
▁СП	-11.4623
▁электронн	-11.4623
▁летнем	-11.4623
▁доступност	-11.4628
▁комплектаци	-11.4628
▁Шер	-11.4629
▁природно	-11.4633
▁Степанов	-11.4637
▁соответствующ	-11.464
▁выплачив	-11.4641
▁финансовом	-11.4645
▁считали	-11.4645
▁молча	-11.4646
▁грамот	-11.4646
▁травму	-11.4647
▁Едино	-11.4648
▁магистрал	-11.465
▁ногу	-11.4659
▁панел	-11.4662
ИН	-11.4663
▁поставщиков	-11.4666
ездок	-11.4667
▁Официально	-11.467
▁моде	-11.467
мощь	-11.4671
▁утвержда	-11.4671
▁звания	-11.4674
ТК	-11.4674
РГ	-11.4675
▁подан	-11.4678
▁здоровьем	-11.4678
▁расстрел	-11.4679
▁взаимо	-11.4681
▁Минсельхоз	-11.4684
▁Тимошенко	-11.4684
▁возобновил	-11.4684
▁невероятно	-11.4684
▁чудес	-11.4684
▁эстафет	-11.4684
▁сексуальны	-11.4684
▁инвестиция	-11.4684
▁медалей	-11.4684
▁нацелен	-11.4684
▁0,8	-11.4684
▁консерватор	-11.4684
▁схемы	-11.4684
▁образованию	-11.4685
▁внешн	-11.4685
▁купюр	-11.4686
▁полотн	-11.4686
Польша	-11.4687
▁прибывши	-11.4688
▁олигарх	-11.4688
▁решают	-11.4689
▁предупреждение	-11.469
▁Играх	-11.4691
▁проблемам	-11.4691
▁полицейско	-11.4691
▁беж	-11.4691
▁сократилось	-11.4693
▁Никаки	-11.4694
son	-11.47
▁совместн	-11.4704
страдает	-11.4708
▁выпал	-11.471
▁Ca	-11.4711
▁успехом	-11.4711
▁руководит	-11.4722
ционных	-11.4723
▁Эрик	-11.4723
ИТ	-11.4724
▁исполком	-11.4724
▁Цар	-11.4725
▁$10	-11.4726
▁Военны	-11.4726
▁владельцам	-11.4727
селению	-11.4735
▁услугам	-11.4736
муниципального	-11.4738
▁еды	-11.474
▁штрафы	-11.474
▁длинн	-11.4744
▁Правил	-11.4745
▁описани	-11.4745
▁Поводо	-11.4748
▁Дании	-11.4748
▁рухнул	-11.4749
▁3,2	-11.475
▁голуб	-11.4751
▁ала	-11.4751
▁Сара	-11.4752
▁сообща	-11.4756
▁Кэ	-11.4759
▁приток	-11.476
▁предпочита	-11.4766
▁жилом	-11.4766
▁оказывает	-11.4766
▁Me	-11.4766
ant	-11.4766
порядка	-11.4767
▁Пальмиры	-11.4767
▁Кук	-11.4769
эз	-11.4771
СП	-11.4773
▁Следующи	-11.4775
ированно	-11.4775
▁привезл	-11.4776
▁миграции	-11.4778
бирают	-11.4781
▁полученн	-11.4786
▁гром	-11.4787
▁авиакомпания	-11.4787
▁подорожа	-11.479
▁провед	-11.4791
▁лидерам	-11.4793
ТП	-11.4794
▁Ерофеев	-11.4797
▁Приморье	-11.4797
▁Соловьев	-11.4797
▁Штайнмайер	-11.4797
▁напряжени	-11.4797
▁КХЛ	-11.4797
▁интерьер	-11.4797
▁предсказа	-11.4798
▁надеемся	-11.4798
▁предпочтени	-11.4798
▁санатор	-11.4798
▁имеющим	-11.4799
▁Cap	-11.4799
▁BBC	-11.48
тест	-11.48
жав	-11.48
▁куратор	-11.4801
▁детск	-11.4801
▁остатк	-11.4805
▁Ксени	-11.4807
▁вело	-11.4809
▁нарушен	-11.481
шихся	-11.4811
дорожн	-11.4812
крыть	-11.4813
▁Джен	-11.4816
▁смертн	-11.4818
▁пассажира	-11.4819
▁Хант	-11.482
▁недовольны	-11.4822
КБ	-11.4823
▁(19	-11.4825
ойдет	-11.4826
▁гео	-11.4827
▁звонк	-11.4829
▁аудитори	-11.4831
▁озвучил	-11.4833
▁показывал	-11.4834
▁ранни	-11.4834
▁87	-11.4838
ляют	-11.4839
▁справедливо	-11.4839
▁котиров	-11.484
▁орбит	-11.4841
▁шестви	-11.4841
▁полуостров	-11.4841
▁администрацию	-11.4842
▁вверх	-11.4842
ошлись	-11.4843
кад	-11.4843
▁известным	-11.4844
▁визы	-11.4845
▁комиссар	-11.4846
▁дур	-11.4848
дача	-11.4851
Днепр	-11.4854
чке	-11.4856
▁Италия	-11.4858
▁землетрясение	-11.4859
▁Абу	-11.486
▁Государств	-11.4861
▁меню	-11.4863
▁эффективн	-11.4863
▁учеников	-11.4863
▁капитализаци	-11.487
▁заложник	-11.4873
▁входил	-11.4874
Яблоко	-11.4878
▁счетах	-11.4882
▁связанно	-11.4883
▁трудовы	-11.4883
▁этажа	-11.4884
▁Бир	-11.4887
▁гарантирован	-11.4887
▁мощ	-11.4887
▁Гру	-11.4887
▁эмоционально	-11.4888
▁подводн	-11.4889
▁Осетии	-11.4893
▁северны	-11.4897
▁солнце	-11.4903
▁содержащ	-11.4906
▁способствовал	-11.4906
▁багаж	-11.491
▁лесо	-11.491
▁тракт	-11.491
потреб	-11.4912
Багдад	-11.4912
прикосновени	-11.4912
▁10-15	-11.4912
▁Леонард	-11.4912
▁ПАСЕ	-11.4912
▁Планируется	-11.4912
▁безопасны	-11.4912
▁горизонт	-11.4912
▁опьянения	-11.4912
▁отраслей	-11.4912
▁прототип	-11.4912
▁розыгрыш	-11.4912
▁эмбарго	-11.4912
▁корабли	-11.4912
▁Техас	-11.4912
▁2:0	-11.4912
▁РПЦ	-11.4913
▁проинформирова	-11.4913
посадочн	-11.4914
▁золот	-11.4914
▁проверен	-11.4915
▁подчеркивают	-11.4917
▁(8	-11.4917
▁ивны	-11.4918
▁сервер	-11.4919
▁имидж	-11.4919
▁избега	-11.4922
▁Симон	-11.4922
▁остры	-11.4922
▁национальным	-11.4926
▁Дадин	-11.4929
▁Тарасов	-11.4932
▁знакомств	-11.4936
▁Филиппин	-11.4937
▁накоплени	-11.4942
▁автобусов	-11.4943
▁правы	-11.4945
▁философ	-11.4945
▁предпочитаю	-11.4945
▁Мура	-11.4947
▁ошиб	-11.4949
▁подчеркива	-11.4951
▁признаков	-11.4953
▁рег	-11.4954
▁Хорошо	-11.4962
▁заинтересова	-11.4969
▁выдавать	-11.4969
▁привлекл	-11.4972
▁стабильность	-11.4975
▁каш	-11.498
▁Ход	-11.4984
▁творческо	-11.4989
▁праздников	-11.499
▁Боб	-11.4993
▁2017-201	-11.4994
▁богат	-11.4994
переди	-11.4996
▁фу	-11.5002
▁перечислен	-11.5002
пускать	-11.5003
▁чье	-11.5003
▁приготов	-11.5005
▁больны	-11.5006
резал	-11.5007
ойдут	-11.5008
ировании	-11.501
▁грузовы	-11.5011
гнут	-11.5012
ушли	-11.5013
▁принадлежност	-11.5014
▁объясняют	-11.5014
▁Муж	-11.5016
▁фарм	-11.5017
▁отправит	-11.5018
▁перевозчик	-11.5019
Испания	-11.5023
▁вокзала	-11.5028
▁скромны	-11.5028
Евровидение	-11.5029
▁Uber	-11.5029
▁Лазарев	-11.5029
▁Площад	-11.5029
▁виртуально	-11.5029
▁всерьез	-11.5029
▁менеджмент	-11.5029
▁постановил	-11.5029
▁реализует	-11.5029
▁уменьша	-11.5029
▁шоколад	-11.5029
▁изоляци	-11.5029
▁сибирск	-11.5029
▁калибр	-11.5029
▁Ковалев	-11.5029
▁электричеств	-11.5029
▁достаточны	-11.5029
▁тяжки	-11.5029
▁корректировк	-11.5029
▁дальни	-11.503
доволен	-11.503
▁приземл	-11.503
▁впечатления	-11.5031
▁увеличивать	-11.5031
▁радость	-11.5031
▁юмор	-11.5031
▁осени	-11.5031
▁подарил	-11.5032
▁Стамбул	-11.5033
▁дивизион	-11.5033
▁троп	-11.5033
▁МТС	-11.5033
▁развлекательн	-11.5035
▁арене	-11.5036
▁торги	-11.5036
▁Мэй	-11.5038
▁вино	-11.5039
▁возобновить	-11.5041
▁Ялт	-11.5042
▁ожида	-11.5042
▁гражданства	-11.5043
▁Билл	-11.5044
▁приоритетны	-11.5044
▁депутатами	-11.5044
ставив	-11.5045
-10	-11.5045
▁пообща	-11.5045
▁конституции	-11.5045
▁раздраж	-11.5046
▁Ираном	-11.5048
▁созданно	-11.5051
▁допуск	-11.5057
▁параллельно	-11.506
▁Дети	-11.506
▁образован	-11.5061
▁вовлечен	-11.5061
звучит	-11.5062
tic	-11.5063
▁1:0	-11.5063
▁трек	-11.5064
▁коррупци	-11.5065
▁хорошее	-11.5065
▁дне	-11.5066
▁хищени	-11.507
▁Севастополе	-11.507
▁обозначен	-11.5071
▁шв	-11.5074
▁перевел	-11.5075
▁направлениях	-11.5075
▁теннисистк	-11.5077
▁поднима	-11.5082
▁привлекал	-11.5085
▁me	-11.5085
чество	-11.5085
▁$40	-11.5088
35	-11.509
▁словом	-11.509
▁наложен	-11.5091
▁ослаб	-11.5092
▁бывал	-11.5097
▁опек	-11.5099
▁Филип	-11.5105
свеч	-11.5105
▁определять	-11.5106
▁градус	-11.5109
▁окончательны	-11.5116
▁местами	-11.5116
▁кредитовани	-11.5117
▁бат	-11.5118
▁застрелил	-11.5118
▁установ	-11.512
▁08:	-11.512
▁отличны	-11.5121
▁повышенны	-11.5123
▁обяза	-11.5124
▁психологически	-11.5124
▁обнародовал	-11.5125
КО	-11.5126
▁арестованы	-11.5126
▁доходах	-11.5135
▁сомнени	-11.5136
▁осторожно	-11.514
▁Генерал	-11.514
IB	-11.5141
▁осад	-11.5146
▁Подмосковья	-11.5146
▁аккумулятор	-11.5146
▁беспокоит	-11.5146
▁деревья	-11.5146
▁повезло	-11.5146
▁предшественник	-11.5146
▁престол	-11.5146
▁рождественск	-11.5146
▁сознательн	-11.5146
▁трафик	-11.5146
▁фальшив	-11.5146
▁чрезвычайны	-11.5146
▁Грозном	-11.5146
▁ФНС	-11.5146
▁лагерь	-11.5146
▁подумать	-11.5146
▁банкротстве	-11.5146
▁резервов	-11.5146
▁подчиненны	-11.5146
▁перечисля	-11.5146
▁преемник	-11.5146
▁Луценко	-11.5146
▁применил	-11.5147
Шахтер	-11.5147
▁киевско	-11.5147
▁умеет	-11.5148
▁опци	-11.5148
▁энергетически	-11.5148
▁генетическ	-11.5148
▁расшифров	-11.5148
▁попавши	-11.5149
▁отстаива	-11.5149
▁психологи	-11.5149
▁украшен	-11.5149
▁бронзовы	-11.5151
▁слеп	-11.5151
▁Налогов	-11.5152
▁музыкантов	-11.5154
▁ированы	-11.5155
▁МиГ	-11.5155
▁квалифицированн	-11.5156
▁занимаем	-11.5156
▁стоящи	-11.5157
▁классически	-11.5158
▁поправк	-11.5159
▁подразумевает	-11.5161
▁проявил	-11.5161
▁останавлив	-11.5161
▁стиля	-11.5161
▁сосла	-11.5162
▁посоветовал	-11.5162
▁планете	-11.5163
специализированн	-11.5164
▁туш	-11.5164
▁исламско	-11.5165
▁умел	-11.5165
▁устанавливать	-11.5169
▁Счетн	-11.5169
▁Христо	-11.5172
▁Лог	-11.5172
кончил	-11.5173
террористическ	-11.5179
▁отвечаю	-11.518
▁перенести	-11.5182
▁актуально	-11.5183
▁легких	-11.5183
▁тайны	-11.5184
▁полосы	-11.5196
чок	-11.5197
▁валюта	-11.5198
▁тверд	-11.5198
▁TV	-11.5199
▁ируемы	-11.5199
▁помещен	-11.5202
▁идеологи	-11.5202
▁факторы	-11.5202
▁выяснил	-11.5203
▁45-	-11.5203
▁сомнений	-11.5203
▁электроэнерги	-11.5204
▁приватизаци	-11.5207
▁тренировочн	-11.5209
▁понимани	-11.521
▁личным	-11.5214
ФС	-11.5214
▁Белом	-11.5222
▁ликвид	-11.5225
▁Заче	-11.5228
▁гастрол	-11.5229
▁нормам	-11.523
ki	-11.523
▁диет	-11.5232
▁акцизов	-11.5233
▁оказыва	-11.5234
▁Януковича	-11.5235
Сп	-11.5238
▁деклар	-11.5241
let	-11.5243
▁преступлени	-11.5244
▁региональным	-11.5245
▁подписк	-11.5245
▁таможенны	-11.5247
tin	-11.5248
▁бить	-11.5249
▁съемочн	-11.5249
▁рукой	-11.5255
▁Общественн	-11.5257
ведение	-11.5258
▁законодател	-11.5258
▁Парижа	-11.5259
▁пожалова	-11.5261
▁смягч	-11.5263
Кон	-11.5263
▁последствиям	-11.5265
▁электромобил	-11.5265
нешнеполитически	-11.5265
ысокотехнологичн	-11.5265
▁Getty	-11.5265
▁Gold	-11.5265
▁Hyundai	-11.5265
▁Генштаб	-11.5265
▁Липецк	-11.5265
▁ЮНЕСКО	-11.5265
▁видеоролик	-11.5265
▁деревьев	-11.5265
▁неожиданны	-11.5265
▁разногласия	-11.5265
▁решетк	-11.5265
▁Каролин	-11.5265
▁армейск	-11.5265
▁концепт	-11.5266
▁киевски	-11.5266
▁понятия	-11.5267
▁депресси	-11.5267
▁спасения	-11.5269
▁совершенств	-11.5269
▁предположить	-11.527
▁воздействие	-11.5272
▁восьмо	-11.5274
Атлетико	-11.5275
▁верит	-11.5276
▁мук	-11.5276
▁лесу	-11.5276
▁метр	-11.5278
▁стимулировани	-11.5281
Камчатск	-11.5286
▁смесь	-11.5286
▁указывал	-11.5287
▁суть	-11.5289
▁лишним	-11.5293
▁рождени	-11.5298
▁пограничник	-11.5299
▁Пес	-11.5299
▁Черного	-11.53
▁скот	-11.53
Сегодня	-11.5304
жил	-11.5307
▁Алла	-11.5309
гнет	-11.5311
Чер	-11.5313
▁захоронени	-11.5313
Нусра	-11.5313
▁щит	-11.5313
-35	-11.5316
▁намек	-11.5316
▁желанию	-11.5316
ВД	-11.5317
▁краск	-11.5317
▁адаптаци	-11.5318
рф	-11.5318
▁заемщиков	-11.532
▁пользования	-11.5321
▁Пять	-11.5322
▁высказыва	-11.5323
▁мягки	-11.5325
▁отдельным	-11.533
▁современном	-11.5333
▁спокойн	-11.5334
▁яхт	-11.5335
▁подня	-11.5336
▁обследовани	-11.5339
▁комфортно	-11.5341
▁антидопинговы	-11.5342
▁поехал	-11.5343
▁сообщениям	-11.5348
▁масштабн	-11.5348
тветственность	-11.5349
▁длительны	-11.535
▁вопр	-11.5351
▁переговора	-11.5352
▁стационар	-11.5357
▁разгром	-11.5361
ухин	-11.5362
▁жительства	-11.5366
▁ЦК	-11.5372
▁ограничив	-11.5372
▁важна	-11.5374
▁Коль	-11.5376
▁аварийно	-11.5379
▁Школ	-11.5383
▁Мосула	-11.5385
▁обозначи	-11.5386
▁Sky	-11.5386
▁Воробьев	-11.5386
▁Соответственно	-11.5386
▁благополучно	-11.5386
▁диаметр	-11.5386
▁осужда	-11.5386
▁пенальти	-11.5386
▁статистики	-11.5386
Болгария	-11.5386
▁Гончар	-11.5386
▁Спикер	-11.5386
▁фасад	-11.5386
▁бедстви	-11.5386
▁планшет	-11.5386
▁Уверен	-11.5386
▁Синдз	-11.5386
▁Ахмет	-11.5386
▁добыче	-11.5386
▁четки	-11.5386
▁счастья	-11.5386
▁Спасател	-11.5386
▁прочего	-11.5386
▁гречески	-11.5386
▁XXI	-11.5387
▁Кристин	-11.5387
▁премиальн	-11.5387
▁формулировк	-11.5387
▁Ex	-11.5387
▁чести	-11.5388
ельзя	-11.5388
▁рекордно	-11.539
▁капуст	-11.539
▁Севастополь	-11.5392
запрещена	-11.5393
▁мужеств	-11.5393
▁клип	-11.5395
▁принадлежаще	-11.5395
▁патолог	-11.5399
▁игрушк	-11.5399
ood	-11.54
▁десант	-11.5401
▁Олимпиад	-11.5401
▁стве	-11.5402
смотрим	-11.5403
▁майски	-11.5404
▁Коз	-11.5406
▁Абд	-11.5408
nt	-11.5409
▁незаме	-11.541
▁рекламу	-11.541
▁полосу	-11.5412
▁небольшим	-11.5412
AT	-11.5413
▁техническ	-11.5417
▁конво	-11.5419
▁договоренност	-11.542
▁выгодны	-11.5421
▁Агентств	-11.5421
▁шем	-11.5425
жки	-11.5426
демократ	-11.5428
▁лежал	-11.543
ендиректор	-11.5432
▁родным	-11.5433
▁Долж	-11.5436
▁современным	-11.5436
▁выясняют	-11.5439
сол	-11.544
▁Весн	-11.5441
▁ездил	-11.5449
▁благоприятны	-11.5449
▁инстанци	-11.5453
ДП	-11.5456
ейлер	-11.5456
▁предвыборны	-11.5461
лло	-11.5462
▁ограниченно	-11.5463
замен	-11.5464
▁социал	-11.5464
▁отключени	-11.5465
▁общественн	-11.5472
ver	-11.5476
▁избира	-11.5477
▁заводов	-11.5477
▁увольнения	-11.548
▁чувствовал	-11.5481
▁Дмитриев	-11.5482
▁35-	-11.5484
▁продвину	-11.5485
▁пропустил	-11.5486
ывая	-11.5488
▁паст	-11.5491
▁концерна	-11.5493
▁партнерства	-11.5494
менеджеров	-11.5495
▁металлически	-11.5496
купает	-11.5497
МУ	-11.55
форд	-11.5501
Вол	-11.5506
▁Иркутско	-11.5506
чальник	-11.5507
▁Airlines	-11.5508
▁Deutsch	-11.5508
▁Венгрии	-11.5508
▁Ковальчук	-11.5508
▁Мадуро	-11.5508
▁Прокурор	-11.5508
▁девальваци	-11.5508
▁заведующ	-11.5508
▁петербургски	-11.5508
▁предъявля	-11.5508
▁приурочен	-11.5508
▁эксклюзив	-11.5508
▁эмоции	-11.5508
▁Auto	-11.5508
▁девочек	-11.5508
▁затрудни	-11.5508
▁меньшинств	-11.5508
▁ПРО	-11.5508
▁потрачен	-11.5508
▁Сибирск	-11.5508
▁апрель	-11.5508
▁повстанц	-11.5508
▁короля	-11.5508
▁легендарно	-11.5508
▁нападавши	-11.5508
▁стекла	-11.5508
▁Абрам	-11.5508
▁последующе	-11.5508
▁скелет	-11.5508
▁молитв	-11.5508
▁ацией	-11.5508
▁магнитуд	-11.5509
▁перевози	-11.551
▁полпред	-11.5512
▁китайск	-11.5512
▁скрыться	-11.5513
▁подсчетам	-11.5514
▁ученый	-11.5514
▁противостояния	-11.5515
▁присутстви	-11.5517
▁обстрелял	-11.5518
▁Керченск	-11.5518
ыгин	-11.5519
▁интересует	-11.552
▁приятны	-11.5521
▁способно	-11.5521
▁картинк	-11.5522
▁избирательн	-11.5523
▁Адам	-11.5524
▁Продаж	-11.5527
▁подписано	-11.5528
▁проблемны	-11.5529
▁Основны	-11.553
росли	-11.553
▁Родител	-11.5531
▁РАО	-11.5533
третьих	-11.5533
▁друзьями	-11.5535
▁Рез	-11.5536
▁Одессе	-11.5536
▁клиенты	-11.5536
▁Nissan	-11.5537
▁отпуска	-11.5537
▁затор	-11.5537
разведчик	-11.5537
▁перестрелк	-11.5538
▁08	-11.5542
▁Указ	-11.5543
▁Эрн	-11.5544
▁амнисти	-11.5545
▁технологиям	-11.5545
▁предметов	-11.5548
▁публикова	-11.5549
▁ируя	-11.5551
▁записал	-11.5556
▁подводны	-11.5557
Крым	-11.5558
▁численност	-11.5559
[...]
