{
  "version": "1.0",
  "truncation": null,
  "padding": null,
  "added_tokens": [
    {
      "id": 0,
      "content": "[UNK]",
      "single_word": false,
      "lstrip": false,
      "rstrip": false,
      "normalized": false,
      "special": true
    },
    {
      "id": 1,
      "content": "[CLS]",
      "single_word": false,
      "lstrip": false,
      "rstrip": false,
      "normalized": false,
      "special": true
    },
    {
      "id": 2,
      "content": "[SEP]",
      "single_word": false,
      "lstrip": false,
      "rstrip": false,
      "normalized": false,
      "special": true
    },
    {
      "id": 3,
      "content": "[PAD]",
      "single_word": false,
      "lstrip": false,
      "rstrip": false,
      "normalized": false,
      "special": true
    },
    {
      "id": 4,
      "content": "[MASK]",
      "single_word": false,
      "lstrip": false,
      "rstrip": false,
      "normalized": false,
      "special": true
    }
  ],
  "normalizer": {
    "type": "Sequence",
    "normalizers": [
      {
        "type": "NFKC"
      },
      {
        "type": "Lowercase"
      }
    ]
  },
  "pre_tokenizer": {
    "type": "Whitespace"
  },
  "post_processor": null,
  "decoder": {
    "type": "WordPiece",
    "prefix": "##",
    "cleanup": true
  },
  "model": {
    "type": "WordPiece",
    "unk_token": "[UNK]",
    "continuing_subword_prefix": "##",
    "max_input_chars_per_word": 100,
    "vocab": {
      "[UNK]": 0,
      "[CLS]": 1,
      "[SEP]": 2,
      "[PAD]": 3,
      "[MASK]": 4,
      "!": 5,
      "\"": 6,
      "#": 7,
      "$": 8,
      "%": 9,
      "&": 10,
      "'": 11,
      "(": 12,
      ")": 13,
      "*": 14,
      "+": 15,
      ",": 16,
      "-": 17,
      ".": 18,
      "/": 19,
      "0": 20,
      "1": 21,
      "2": 22,
      "3": 23,
      "4": 24,
      "5": 25,
      "6": 26,
      "7": 27,
      "8": 28,
      "9": 29,
      ":": 30,
      ";": 31,
      "<": 32,
      "=": 33,
      ">": 34,
      "?": 35,
      "@": 36,
      "[": 37,
      "\\": 38,
      "]": 39,
      "_": 40,
      "`": 41,
      "a": 42,
      "b": 43,
      "c": 44,
      "d": 45,
      "e": 46,
      "f": 47,
      "g": 48,
      "h": 49,
      "i": 50,
      "j": 51,
      "k": 52,
      "l": 53,
      "m": 54,
      "n": 55,
      "o": 56,
      "p": 57,
      "q": 58,
      "r": 59,
      "s": 60,
      "t": 61,
      "u": 62,
      "v": 63,
      "w": 64,
      "x": 65,
      "y": 66,
      "z": 67,
      "~": 68,
      "": 69,
      "£": 70,
      "¤": 71,
      "¥": 72,
      "¦": 73,
      "§": 74,
      "©": 75,
      "¬": 76,
      "­": 77,
      "°": 78,
      "·": 79,
      "×": 80,
      "ß": 81,
      "à": 82,
      "á": 83,
      "ä": 84,
      "ç": 85,
      "è": 86,
      "é": 87,
      "ê": 88,
      "ë": 89,
      "í": 90,
      "ð": 91,
      "ó": 92,
      "ô": 93,
      "õ": 94,
      "ö": 95,
      "ø": 96,
      "ü": 97,
      "þ": 98,
      "ā": 99,
      "ę": 100,
      "ī": 101,
      "ı": 102,
      "ł": 103,
      "ń": 104,
      "ŏ": 105,
      "ś": 106,
      "ş": 107,
      "š": 108,
      "ʀ": 109,
      "ʼ": 110,
      "́": 111,
      "̆": 112,
      "̇": 113,
      "̈": 114,
      "̊": 115,
      "έ": 116,
      "α": 117,
      "β": 118,
      "γ": 119,
      "η": 120,
      "λ": 121,
      "μ": 122,
      "ν": 123,
      "ο": 124,
      "ρ": 125,
      "σ": 126,
      "τ": 127,
      "χ": 128,
      "ώ": 129,
      "а": 130,
      "б": 131,
      "в": 132,
      "г": 133,
      "д": 134,
      "е": 135,
      "ж": 136,
      "з": 137,
      "и": 138,
      "й": 139,
      "к": 140,
      "л": 141,
      "м": 142,
      "н": 143,
      "о": 144,
      "п": 145,
      "р": 146,
      "с": 147,
      "т": 148,
      "у": 149,
      "ф": 150,
      "х": 151,
      "ц": 152,
      "ч": 153,
      "ш": 154,
      "щ": 155,
      "ъ": 156,
      "ы": 157,
      "ь": 158,
      "э": 159,
      "ю": 160,
      "я": 161,
      "є": 162,
      "і": 163,
      "ї": 164,
      "ў": 165,
      "џ": 166,
      "ғ": 167,
      "қ": 168,
      "ҳ": 169,
      "ӣ": 170,
      "‍": 171,
      "‎": 172,
      "‐": 173,
      "‒": 174,
      "―": 175,
      "•": 176,
      "‪": 177,
      "‬": 178,
      "′": 179,
      "⁄": 180,
      "€": 181,
      "→": 182,
      "−": 183,
      "∙": 184,
      "⋅": 185,
      "─": 186,
      "■": 187,
      "▲": 188,
      "►": 189,
      "●": 190,
      "☃": 191,
      "☝": 192,
      "♫": 193,
      "⚽": 194,
      "❄": 195,
      "《": 196,
      "》": 197,
      "": 198,
      "️": 199,
      "🌞": 200,
      "🍺": 201,
      "🎂": 202,
      "🐅": 203,
      "🐗": 204,
      "🐺": 205,
      "💪": 206,
      "😂": 207,
      "🙈": 208,
      "##к": 209,
      "##р": 210,
      "##о": 211,
      "##м": 212,
      "##н": 213,
      "##е": 214,
      "##а": 215,
      "##д": 216,
      "##и": 217,
      "##з": 218,
      "##f": 219,
      "##t": 220,
      "##e": 221,
      "##n": 222,
      "##p": 223,
      "##o": 224,
      "##s": 225,
      "##в": 226,
      "##у": 227,
      "##ж": 228,
      "##b": 229,
      "##r": 230,
      "##w": 231,
      "##б": 232,
      "##ш": 233,
      "##ы": 234,
      "##й": 235,
      "##я": 236,
      "##л": 237,
      "##ь": 238,
      "##ъ": 239,
      "##т": 240,
      "##х": 241,
      "##ф": 242,
      "##ч": 243,
      "##с": 244,
      "##ц": 245,
      "##п": 246,
      "##ю": 247,
      "##i": 248,
      "##h": 249,
      "##г": 250,
      "##2": 251,
      "##u": 252,
      "##l": 253,
      "##a": 254,
      "##k": 255,
      "##v": 256,
      "##c": 257,
      "##щ": 258,
      "##э": 259,
      "##y": 260,
      "##d": 261,
      "##m": 262,
      "##5": 263,
      "##g": 264,
      "##9": 265,
      "##0": 266,
      "##6": 267,
      "##і": 268,
      "##8": 269,
      "##1": 270,
      "##z": 271,
      "##x": 272,
      "##7": 273,
      "##є": 274,
      "##3": 275,
      "##­": 276,
      "##4": 277,
      "##q": 278,
      "##.": 279,
      "##j": 280,
      "##$": 281,
      "##,": 282,
      "##ü": 283,
      "##ʼ": 284,
      "##-": 285,
      "##!": 286,
      "##ä": 287,
      "##_": 288,
      "##ν": 289,
      "##τ": 290,
      "##ο": 291,
      "##μ": 292,
      "##)": 293,
      "##õ": 294,
      "##́": 295,
      "##>": 296,
      "##ї": 297,
      "##*": 298,
      "##à": 299,
      "##🐺": 300,
      "##🐅": 301,
      "##🎂": 302,
      "##🍺": 303,
      "##⚽": 304,
      "##/": 305,
      "##;": 306,
      "##ê": 307,
      "##ó": 308,
      "##è": 309,
      "##í": 310,
      "##−": 311,
      "##ғ": 312,
      "###": 313,
      "##\"": 314,
      "##ў": 315,
      "##қ": 316,
      "##é": 317,
      "##ð": 318,
      "##ҳ": 319,
      "##]": 320,
      "##ʀ": 321,
      "##þ": 322,
      "##ī": 323,
      "##ā": 324,
      "##=": 325,
      "##ŏ": 326,
      "##€": 327,
      "##ß": 328,
      "##%": 329,
      "##?": 330,
      "##ô": 331,
      "##~": 332,
      "##ń": 333,
      "##😂": 334,
      "##α": 335,
      "##γ": 336,
      "##έ": 337,
      "##η": 338,
      "##σ": 339,
      "##ö": 340,
      "##+": 341,
      "##@": 342,
      "##ı": 343,
      "##ş": 344,
      "##ë": 345,
      "##:": 346,
      "##☃": 347,
      "##❄": 348,
      "##š": 349,
      "##‬": 350,
      "##ø": 351,
      "##ç": 352,
      "##ę": 353,
      "##ρ": 354,
      "##ώ": 355,
      "##ś": 356,
      "##'": 357,
      "##[": 358,
      "##′": 359,
      "##‎": 360,
      "##̇": 361,
      "##▲": 362,
      "##ст": 363,
      "##ен": 364,
      "##ов": 365,
      "##ра": 366,
      "##но": 367,
      "по": 368,
      "##то": 369,
      "##ро": 370,
      "##ре": 371,
      "##ан": 372,
      "на": 373,
      "##ет": 374,
      "##ли": 375,
      "##ль": 376,
      "##ри": 377,
      "##ко": 378,
      "##го": 379,
      "##ер": 380,
      "##ны": 381,
      "##ит": 382,
      "##ла": 383,
      "##ни": 384,
      "##ат": 385,
      "##ени": 386,
      "##ки": 387,
      "##ле": 388,
      "##ка": 389,
      "ко": 390,
      "не": 391,
      "##од": 392,
      "##на": 393,
      "за": 394,
      "##ло": 395,
      "##ся": 396,
      "##ци": 397,
      "##ств": 398,
      "##ти": 399,
      "со": 400,
      "про": 401,
      "##ем": 402,
      "##сс": 403,
      "ра": 404,
      "##та": 405,
      "##да": 406,
      "об": 407,
      "##ру": 408,
      "##ми": 409,
      "до": 410,
      "##ани": 411,
      "##ва": 412,
      "от": 413,
      "##ля": 414,
      "##ей": 415,
      "что": 416,
      "##ров": 417,
      "при": 418,
      "пре": 419,
      "##ско": 420,
      "во": 421,
      "##ор": 422,
      "##ин": 423,
      "##ак": 424,
      "##ель": 425,
      "##сти": 426,
      "##мо": 427,
      "##во": 428,
      "ре": 429,
      "##че": 430,
      "ро": 431,
      "то": 432,
      "##де": 433,
      "вы": 434,
      "из": 435,
      "##ви": 436,
      "##ать": 437,
      "мо": 438,
      "##ения": 439,
      "##не": 440,
      "##ры": 441,
      "##ски": 442,
      "##ча": 443,
      "это": 444,
      "##ной": 445,
      "##ных": 446,
      "##сси": 447,
      "##ста": 448,
      "##сп": 449,
      "бы": 450,
      "##ед": 451,
      "##бо": 452,
      "ст": 453,
      "##сь": 454,
      "##за": 455,
      "##ку": 456,
      "##ере": 457,
      "##ного": 458,
      "##ар": 459,
      "го": 460,
      "##ди": 461,
      "##лу": 462,
      "##же": 463,
      "##ду": 464,
      "##ги": 465,
      "##ма": 466,
      "##ть": 467,
      "##ков": 468,
      "##ме": 469,
      "под": 470,
      "росси": 471,
      "##мен": 472,
      "##об": 473,
      "##сто": 474,
      "##ют": 475,
      "##ение": 476,
      "год": 477,
      "но": 478,
      "##ил": 479,
      "##ции": 480,
      "##се": 481,
      "##ве": 482,
      "##ить": 483,
      "##лов": 484,
      "бо": 485,
      "де": 486,
      "##он": 487,
      "##ные": 488,
      "кото": 489,
      "##сть": 490,
      "##му": 491,
      "пред": 492,
      "ка": 493,
      "##ный": 494,
      "ми": 495,
      "##ши": 496,
      "##по": 497,
      "##щи": 498,
      "20": 499,
      "##зи": 500,
      "раз": 501,
      "##ово": 502,
      "##ну": 503,
      "ин": 504,
      "ме": 505,
      "##ще": 506,
      "##ек": 507,
      "##па": 508,
      "##чи": 509,
      "##ент": 510,
      "##ам": 511,
      "##ется": 512,
      "\",": 513,
      "##ал": 514,
      "##ня": 515,
      "##итель": 516,
      "ком": 517,
      "##рав": 518,
      "##уд": 519,
      "##ход": 520,
      "##те": 521,
      "##уб": 522,
      "ни": 523,
      "ли": 524,
      "как": 525,
      "##ран": 526,
      "##ше": 527,
      "те": 528,
      "##ным": 529,
      "пере": 530,
      "##си": 531,
      "##ской": 532,
      "так": 533,
      "##ут": 534,
      "для": 535,
      "все": 536,
      "кон": 537,
      "##га": 538,
      "##ря": 539,
      "##ск": 540,
      "##пи": 541,
      "##ания": 542,
      "##жи": 543,
      "##до": 544,
      "##лен": 545,
      "од": 546,
      "##став": 547,
      "##вы": 548,
      "##ур": 549,
      "##ства": 550,
      "пос": 551,
      "201": 552,
      "##ят": 553,
      "сво": 554,
      "се": 555,
      "##ство": 556,
      "##ствен": 557,
      "ма": 558,
      "са": 559,
      "##из": 560,
      "которы": 561,
      "##са": 562,
      "##жно": 563,
      "та": 564,
      "##ского": 565,
      "##бы": 566,
      "##жд": 567,
      "##ке": 568,
      "он": 569,
      "си": 570,
      "ста": 571,
      "бе": 572,
      "##би": 573,
      "##аль": 574,
      "##ту": 575,
      "года": 576,
      "воз": 577,
      "сп": 578,
      "##вер": 579,
      "##су": 580,
      "##ев": 581,
      "##тов": 582,
      "##ном": 583,
      "##ите": 584,
      "сооб": 585,
      "\".": 586,
      "##ате": 587,
      "##лю": 588,
      "##ты": 589,
      "оп": 590,
      "##кра": 591,
      "его": 592,
      "россии": 593,
      "##лей": 594,
      "сто": 595,
      "##гра": 596,
      "##али": 597,
      "##зы": 598,
      "##лед": 599,
      "##ности": 600,
      "##нов": 601,
      "##ении": 602,
      "##чен": 603,
      "##ых": 604,
      "##каза": 605,
      "##ша": 606,
      "##ских": 607,
      "##лек": 608,
      "##ная": 609,
      "рабо": 610,
      "пер": 611,
      "##про": 612,
      "##ска": 613,
      "##сту": 614,
      "##ща": 615,
      "##тив": 616,
      "##ное": 617,
      "ве": 618,
      "стра": 619,
      "да": 620,
      "че": 621,
      "##она": 622,
      "##ция": 623,
      "дол": 624,
      "гла": 625,
      "##ред": 626,
      "##жа": 627,
      "##мы": 628,
      "су": 629,
      "##фи": 630,
      "ав": 631,
      "##лько": 632,
      "##ание": 633,
      "ос": 634,
      "##дер": 635,
      "##кой": 636,
      "##рем": 637,
      "па": 638,
      "##ета": 639,
      "##стан": 640,
      "##ник": 641,
      "сов": 642,
      "россий": 643,
      "комп": 644,
      "хо": 645,
      "##ита": 646,
      "##зов": 647,
      "##ую": 648,
      "##ании": 649,
      "буд": 650,
      "##ом": 651,
      "ви": 652,
      "пра": 653,
      "##мер": 654,
      "##ба": 655,
      "ру": 656,
      "##атель": 657,
      "##ский": 658,
      "зая": 659,
      "мы": 660,
      "также": 661,
      "##зу": 662,
      "ча": 663,
      "вла": 664,
      "же": 665,
      "##сов": 666,
      "пров": 667,
      "поли": 668,
      "этом": 669,
      "полу": 670,
      "руб": 671,
      "ди": 672,
      "##ления": 673,
      "слу": 674,
      "боль": 675,
      "##це": 676,
      "##ые": 677,
      "##вил": 678,
      "##жен": 679,
      "##бе": 680,
      "##гда": 681,
      "##рии": 682,
      "##род": 683,
      "ор": 684,
      "##стви": 685,
      "##мет": 686,
      "##жет": 687,
      "будет": 688,
      "##спо": 689,
      "##ность": 690,
      "расс": 691,
      "ак": 692,
      "##ый": 693,
      "лет": 694,
      "лю": 695,
      "##лн": 696,
      "##вод": 697,
      "##лись": 698,
      "##ром": 699,
      "году": 700,
      "##нист": 701,
      "##зид": 702,
      "##лось": 703,
      "##ком": 704,
      "дру": 705,
      "##рит": 706,
      "бу": 707,
      "##гла": 708,
      "##ис": 709,
      "##ную": 710,
      "##тор": 711,
      "врем": 712,
      "презид": 713,
      "пу": 714,
      "##ень": 715,
      "##вет": 716,
      "##дар": 717,
      "ев": 718,
      "га": 719,
      "##том": 720,
      "##гу": 721,
      "##ера": 722,
      "##сли": 723,
      "ан": 724,
      "ва": 725,
      "##руп": 726,
      "пар": 727,
      "##ним": 728,
      "после": 729,
      "##прав": 730,
      "уже": 731,
      "укра": 732,
      "##со": 733,
      "##ению": 734,
      "##пу": 735,
      "##зд": 736,
      "##тер": 737,
      "эк": 738,
      "му": 739,
      "ку": 740,
      "##ющи": 741,
      "объ": 742,
      "орг": 743,
      "##вать": 744,
      "##фор": 745,
      "##лся": 746,
      "уча": 747,
      "##цию": 748,
      "##ана": 749,
      "нов": 750,
      "##лее": 751,
      "##каз": 752,
      "##ца": 753,
      "##ений": 754,
      "##рой": 755,
      "было": 756,
      "был": 757,
      "##ские": 758,
      "их": 759,
      "ле": 760,
      "челов": 761,
      "##коно": 762,
      "##вя": 763,
      "##гов": 764,
      "ты": 765,
      "##при": 766,
      "дан": 767,
      "фи": 768,
      "ново": 769,
      "обра": 770,
      "##ане": 771,
      "ар": 772,
      "##лож": 773,
      "прав": 774,
      "без": 775,
      "##ати": 776,
      "ки": 777,
      "время": 778,
      "том": 779,
      "гра": 780,
      "произ": 781,
      "сер": 782,
      "тре": 783,
      "##ву": 784,
      "которые": 785,
      "##стоя": 786,
      "##лась": 787,
      "еще": 788,
      "##ника": 789,
      "меж": 790,
      "они": 791,
      "или": 792,
      "сч": 793,
      "чем": 794,
      "слов": 795,
      "представ": 796,
      "реш": 797,
      "##анд": 798,
      "тер": 799,
      "##ются": 800,
      "##руд": 801,
      "само": 802,
      "##кан": 803,
      "##вши": 804,
      "##ступ": 805,
      "##чно": 806,
      "обла": 807,
      "только": 808,
      "нача": 809,
      "если": 810,
      "##год": 811,
      "авто": 812,
      "##яб": 813,
      "##ится": 814,
      "##вля": 815,
      "##сы": 816,
      "##стре": 817,
      "##ников": 818,
      "##пре": 819,
      "ба": 820,
      "##лет": 821,
      "##циаль": 822,
      "##ата": 823,
      "евро": 824,
      "##ой": 825,
      "более": 826,
      "зна": 827,
      "##бу": 828,
      "##ление": 829,
      "между": 830,
      "вер": 831,
      "##зыва": 832,
      "сша": 833,
      "##зна": 834,
      "пов": 835,
      "ско": 836,
      "чтобы": 837,
      "может": 838,
      "##цион": 839,
      "##кры": 840,
      "##ента": 841,
      "##мот": 842,
      "кра": 843,
      "того": 844,
      "пе": 845,
      "19": 846,
      "моск": 847,
      "##станов": 848,
      "бан": 849,
      "##ском": 850,
      "тем": 851,
      "госу": 852,
      "минист": 853,
      "ее": 854,
      "исто": 855,
      "##ге": 856,
      "государ": 857,
      "##льт": 858,
      "##ней": 859,
      "##рий": 860,
      "##иту": 861,
      "##казал": 862,
      "##ская": 863,
      "органи": 864,
      "буду": 865,
      "были": 866,
      "##шен": 867,
      "мар": 868,
      "##держ": 869,
      "##кт": 870,
      "##тиче": 871,
      "##рен": 872,
      "сообща": 873,
      "10": 874,
      "дей": 875,
      "##ова": 876,
      "сообщ": 877,
      "вед": 878,
      "##дет": 879,
      "мин": 880,
      "##сте": 881,
      "##убли": 882,
      "ом": 883,
      "ту": 884,
      "гово": 885,
      "который": 886,
      "##хо": 887,
      "2016": 888,
      "##пас": 889,
      "эти": 890,
      "##ких": 891,
      "пол": 892,
      "цент": 893,
      "сам": 894,
      "##ники": 895,
      "реги": 896,
      "вз": 897,
      "свя": 898,
      "##ым": 899,
      "есть": 900,
      "##цы": 901,
      "испо": 902,
      "суд": 903,
      "рф": 904,
      "##ству": 905,
      "им": 906,
      "одна": 907,
      "она": 908,
      "тех": 909,
      "отно": 910,
      "##сед": 911,
      "пи": 912,
      "пл": 913,
      "мен": 914,
      "алек": 915,
      "##вед": 916,
      "вопро": 917,
      "##ональ": 918,
      "##кон": 919,
      "##лом": 920,
      "тра": 921,
      "##стра": 922,
      "ры": 923,
      "##кономи": 924,
      "##стов": 925,
      "фе": 926,
      "россия": 927,
      "свои": 928,
      "помо": 929,
      "возмо": 930,
      "##ена": 931,
      "ну": 932,
      "согла": 933,
      "##ити": 934,
      "когда": 935,
      "##дера": 936,
      "##стве": 937,
      "президент": 938,
      "##ходи": 939,
      "сот": 940,
      "спе": 941,
      "основ": 942,
      "отмет": 943,
      "ри": 944,
      "##бор": 945,
      "сред": 946,
      "заявил": 947,
      "##ледов": 948,
      "эксп": 949,
      "##ха": 950,
      "##аться": 951,
      "##форма": 952,
      "ус": 953,
      "##пер": 954,
      "##рд": 955,
      "человек": 956,
      "##орт": 957,
      "экономи": 958,
      "мог": 959,
      "ов": 960,
      "жи": 961,
      "##яти": 962,
      "##ман": 963,
      ").": 964,
      "дет": 965,
      "ране": 966,
      "ранее": 967,
      "сей": 968,
      "##пы": 969,
      "##кие": 970,
      "##ены": 971,
      "##шения": 972,
      "##ций": 973,
      "##стро": 974,
      "##вест": 975,
      "груп": 976,
      "##вал": 977,
      "##клю": 978,
      "соб": 979,
      "этого": 980,
      "##рован": 981,
      "##ью": 982,
      "ад": 983,
      "##ему": 984,
      "##ября": 985,
      "##яс": 986,
      "##годня": 987,
      "резу": 988,
      "сегодня": 989,
      "организа": 990,
      "##мери": 991,
      "##ды": 992,
      "информа": 993,
      "алекс": 994,
      "лу": 995,
      "##тин": 996,
      "прош": 997,
      "##час": 998,
      "##ску": 999,
      "чет": 1000,
      "други": 1001,
      "чис": 1002,
      "##тро": 1003,
      "сторо": 1004,
      "вс": 1005,
      "сейчас": 1006,
      "проек": 1007,
      "##en": 1008,
      "результ": 1009,
      "глав": 1010,
      "##мент": 1011,
      "##мента": 1012,
      "послед": 1013,
      "словам": 1014,
      "горо": 1015,
      "кар": 1016,
      "газ": 1017,
      "##дает": 1018,
      "влади": 1019,
      "##ний": 1020,
      "##сла": 1021,
      "##гово": 1022,
      "##спе": 1023,
      "сотруд": 1024,
      "##ением": 1025,
      "дела": 1026,
      "области": 1027,
      "##цев": 1028,
      "2015": 1029,
      "обо": 1030,
      "##лич": 1031,
      "##пе": 1032,
      "получ": 1033,
      "##er": 1034,
      "правитель": 1035,
      "##чень": 1036,
      "интер": 1037,
      "##рия": 1038,
      "воен": 1039,
      "##оне": 1040,
      "##ствия": 1041,
      "стро": 1042,
      "ru": 1043,
      "ся": 1044,
      "млн": 1045,
      "##логи": 1046,
      "##сков": 1047,
      "день": 1048,
      "##вает": 1049,
      "служ": 1050,
      "##льно": 1051,
      "##00": 1052,
      "однако": 1053,
      "будут": 1054,
      "была": 1055,
      "амери": 1056,
      "федера": 1057,
      "##тра": 1058,
      "можно": 1059,
      "##ье": 1060,
      "украин": 1061,
      "##тора": 1062,
      "рас": 1063,
      "пока": 1064,
      "обще": 1065,
      "##ителя": 1066,
      "##льзов": 1067,
      "счита": 1068,
      "##аний": 1069,
      "приня": 1070,
      "##вести": 1071,
      "##ским": 1072,
      "сде": 1073,
      "очень": 1074,
      "##ние": 1075,
      "##ителей": 1076,
      "возможно": 1077,
      "аг": 1078,
      "поч": 1079,
      "##ковод": 1080,
      "гражд": 1081,
      "##шего": 1082,
      "##дол": 1083,
      "##кий": 1084,
      "род": 1085,
      "),": 1086,
      "##от": 1087,
      "стан": 1088,
      "первы": 1089,
      "украи": 1090,
      "тур": 1091,
      "владими": 1092,
      "мед": 1093,
      "руковод": 1094,
      "##цу": 1095,
      "ла": 1096,
      "##ках": 1097,
      "##вой": 1098,
      "явля": 1099,
      "неско": 1100,
      "##оде": 1101,
      "где": 1102,
      "##ять": 1103,
      "деп": 1104,
      "случа": 1105,
      "быть": 1106,
      "##тому": 1107,
      "работа": 1108,
      "##сно": 1109,
      "##кла": 1110,
      "иг": 1111,
      "##дов": 1112,
      "##кого": 1113,
      "компании": 1114,
      "рублей": 1115,
      "##аты": 1116,
      "проб": 1117,
      "сист": 1118,
      "фин": 1119,
      "один": 1120,
      "15": 1121,
      "рай": 1122,
      "ду": 1123,
      "##ших": 1124,
      "##ными": 1125,
      "##лы": 1126,
      "встре": 1127,
      "пла": 1128,
      "ген": 1129,
      "которо": 1130,
      "страны": 1131,
      "##рек": 1132,
      "мил": 1133,
      "##бира": 1134,
      "сем": 1135,
      "##иться": 1136,
      "против": 1137,
      "мл": 1138,
      "##аны": 1139,
      "##итуа": 1140,
      "кор": 1141,
      "управ": 1142,
      "##вин": 1143,
      "нет": 1144,
      "вод": 1145,
      "##лем": 1146,
      "обе": 1147,
      "ситуа": 1148,
      "млрд": 1149,
      "больш": 1150,
      "##ровать": 1151,
      "два": 1152,
      "##нее": 1153,
      "уч": 1154,
      "участ": 1155,
      "производ": 1156,
      "кро": 1157,
      "говорит": 1158,
      "##нали": 1159,
      "офи": 1160,
      "##ремен": 1161,
      "всего": 1162,
      "##нес": 1163,
      "##нер": 1164,
      "##лага": 1165,
      "це": 1166,
      "##ta": 1167,
      "даже": 1168,
      "##народ": 1169,
      "сообщает": 1170,
      "##рь": 1171,
      "глава": 1172,
      "долж": 1173,
      "право": 1174,
      "нас": 1175,
      "них": 1176,
      "##ким": 1177,
      "тран": 1178,
      "##чь": 1179,
      "вто": 1180,
      "жиз": 1181,
      "##ене": 1182,
      "пет": 1183,
      "тыся": 1184,
      "этот": 1185,
      "дву": 1186,
      "ло": 1187,
      "поз": 1188,
      "##твер": 1189,
      "##ители": 1190,
      "напо": 1191,
      "оста": 1192,
      "необ": 1193,
      "##щен": 1194,
      "американ": 1195,
      "##рабо": 1196,
      "состав": 1197,
      "##чение": 1198,
      "##ствов": 1199,
      "##ительно": 1200,
      "##стран": 1201,
      "милли": 1202,
      "##атери": 1203,
      "сан": 1204,
      "##им": 1205,
      "##коло": 1206,
      "##ятель": 1207,
      "уда": 1208,
      "парти": 1209,
      "##грам": 1210,
      "##бов": 1211,
      "откры": 1212,
      "##смот": 1213,
      "##нии": 1214,
      "кри": 1215,
      "пресс": 1216,
      "##шей": 1217,
      "име": 1218,
      "##рито": 1219,
      "##ете": 1220,
      "международ": 1221,
      "много": 1222,
      "неф": 1223,
      "фор": 1224,
      "гос": 1225,
      "##рова": 1226,
      "##чер": 1227,
      "отме": 1228,
      "террито": 1229,
      "##чения": 1230,
      "финан": 1231,
      "александ": 1232,
      "три": 1233,
      "оче": 1234,
      "##ях": 1235,
      "##цен": 1236,
      "##вар": 1237,
      "ответ": 1238,
      "доро": 1239,
      "##вали": 1240,
      "фо": 1241,
      "##тере": 1242,
      "больше": 1243,
      "систем": 1244,
      "продол": 1245,
      "наход": 1246,
      "извест": 1247,
      "бли": 1248,
      "сре": 1249,
      "##жения": 1250,
      "##ться": 1251,
      "разв": 1252,
      "##нима": 1253,
      "тор": 1254,
      "тыс": 1255,
      "##кая": 1256,
      "сле": 1257,
      "президента": 1258,
      "##дель": 1259,
      "необходи": 1260,
      "##пла": 1261,
      "##рак": 1262,
      "##тре": 1263,
      "около": 1264,
      "опера": 1265,
      "готов": 1266,
      "фак": 1267,
      "сказал": 1268,
      "##ческой": 1269,
      "##ья": 1270,
      "##фе": 1271,
      "##щей": 1272,
      "##рая": 1273,
      "##моби": 1274,
      "чере": 1275,
      "полити": 1276,
      "200": 1277,
      "поб": 1278,
      "данным": 1279,
      "ию": 1280,
      "могут": 1281,
      "мат": 1282,
      "##тя": 1283,
      "наз": 1284,
      "след": 1285,
      "##бя": 1286,
      "##сса": 1287,
      "12": 1288,
      "смо": 1289,
      "пло": 1290,
      "##йте": 1291,
      "доку": 1292,
      "вой": 1293,
      "несколько": 1294,
      "созд": 1295,
      "##вила": 1296,
      "##шь": 1297,
      "отмеча": 1298,
      "люд": 1299,
      "отнош": 1300,
      "##яв": 1301,
      "бю": 1302,
      "кры": 1303,
      "уров": 1304,
      "##лови": 1305,
      "автомоби": 1306,
      "рын": 1307,
      "ше": 1308,
      "##него": 1309,
      "##сты": 1310,
      "##льного": 1311,
      "##рует": 1312,
      "##прияти": 1313,
      "##ское": 1314,
      "ша": 1315,
      "пор": 1316,
      "госп": 1317,
      "кли": 1318,
      "##рук": 1319,
      "програм": 1320,
      "граждан": 1321,
      "украины": 1322,
      "##мест": 1323,
      "вопрос": 1324,
      "кан": 1325,
      "##on": 1326,
      "##опас": 1327,
      "респ": 1328,
      "##вили": 1329,
      "##хов": 1330,
      "кто": 1331,
      "которая": 1332,
      "##нил": 1333,
      "##жение": 1334,
      "##ниче": 1335,
      "жен": 1336,
      "экспер": 1337,
      "решение": 1338,
      "заяв": 1339,
      "перед": 1340,
      "##шел": 1341,
      "##жда": 1342,
      "##пис": 1343,
      "##анию": 1344,
      "челове": 1345,
      "##раз": 1346,
      "эта": 1347,
      "сообщил": 1348,
      "ито": 1349,
      "меся": 1350,
      "депут": 1351,
      "ря": 1352,
      "##говор": 1353,
      "агент": 1354,
      "участи": 1355,
      "прода": 1356,
      "сни": 1357,
      "проц": 1358,
      "высо": 1359,
      "кроме": 1360,
      "через": 1361,
      "##ети": 1362,
      "состоя": 1363,
      "##иты": 1364,
      "ок": 1365,
      "##лия": 1366,
      "мест": 1367,
      "всех": 1368,
      "источ": 1369,
      "наци": 1370,
      "развити": 1371,
      "ши": 1372,
      "сдела": 1373,
      "##щего": 1374,
      "спо": 1375,
      "##емо": 1376,
      "безопас": 1377,
      "##онов": 1378,
      "фран": 1379,
      "поддерж": 1380,
      "##вно": 1381,
      "##ерб": 1382,
      "##оз": 1383,
      "мол": 1384,
      "имен": 1385,
      "отметил": 1386,
      "сообщи": 1387,
      "власти": 1388,
      "мн": 1389,
      "кол": 1390,
      "##вают": 1391,
      "би": 1392,
      "город": 1393,
      "##мит": 1394,
      "##вший": 1395,
      "круп": 1396,
      "##полн": 1397,
      "##хи": 1398,
      "##..": 1399,
      "##торы": 1400,
      "##ьер": 1401,
      "над": 1402,
      "##хран": 1403,
      "сек": 1404,
      "соот": 1405,
      "##стей": 1406,
      "##щих": 1407,
      "##лаго": 1408,
      "уго": 1409,
      "##цией": 1410,
      "##рори": 1411,
      "направ": 1412,
      "30": 1413,
      "ци": 1414,
      "место": 1415,
      "перво": 1416,
      "чемпи": 1417,
      "вме": 1418,
      "мно": 1419,
      "ян": 1420,
      "республи": 1421,
      "является": 1422,
      "официаль": 1423,
      "установ": 1424,
      "##рон": 1425,
      "которых": 1426,
      "свое": 1427,
      "##ряд": 1428,
      "луч": 1429,
      "напом": 1430,
      "нару": 1431,
      "##ено": 1432,
      "дви": 1433,
      "##шение": 1434,
      "ави": 1435,
      "государствен": 1436,
      "ны": 1437,
      "##нут": 1438,
      "##реде": 1439,
      "виде": 1440,
      "дирек": 1441,
      "соответ": 1442,
      "##минист": 1443,
      "##инов": 1444,
      "##ющих": 1445,
      "города": 1446,
      "провед": 1447,
      "приз": 1448,
      "расп": 1449,
      "##нич": 1450,
      "побед": 1451,
      "##яз": 1452,
      "##ляет": 1453,
      "совер": 1454,
      "этой": 1455,
      "матери": 1456,
      "##нем": 1457,
      "##ям": 1458,
      "##льной": 1459,
      "11": 1460,
      "##чу": 1461,
      "##министра": 1462,
      "##льный": 1463,
      "##соб": 1464,
      "прем": 1465,
      "работ": 1466,
      "##казыва": 1467,
      "спи": 1468,
      "##ческих": 1469,
      "интере": 1470,
      "##ентов": 1471,
      "зани": 1472,
      "законо": 1473,
      "владимир": 1474,
      "себя": 1475,
      "центра": 1476,
      "##ровал": 1477,
      "кур": 1478,
      "иск": 1479,
      "двух": 1480,
      "##ился": 1481,
      "следу": 1482,
      "террори": 1483,
      "меня": 1484,
      "ха": 1485,
      "##рос": 1486,
      "сы": 1487,
      "##ждения": 1488,
      "запре": 1489,
      "жур": 1490,
      "##ствую": 1491,
      "совет": 1492,
      "произо": 1493,
      "свою": 1494,
      "бор": 1495,
      "теле": 1496,
      "там": 1497,
      "соста": 1498,
      "##пол": 1499,
      "мет": 1500,
      "пробле": 1501,
      "биз": 1502,
      "##ческого": 1503,
      "сирии": 1504,
      "##работ": 1505,
      "##ния": 1506,
      "##дин": 1507,
      "##туры": 1508,
      "мак": 1509,
      "бюд": 1510,
      "##мп": 1511,
      "ти": 1512,
      "числе": 1513,
      "тысяч": 1514,
      "##лого": 1515,
      "режи": 1516,
      "18": 1517,
      "##анов": 1518,
      "##енно": 1519,
      "бое": 1520,
      "##пад": 1521,
      "##скую": 1522,
      "##лении": 1523,
      "...": 1524,
      "##точ": 1525,
      "##бра": 1526,
      "##зя": 1527,
      "##атов": 1528,
      "##неш": 1529,
      "позво": 1530,
      "дж": 1531,
      "уве": 1532,
      "поэ": 1533,
      "##тен": 1534,
      "ен": 1535,
      "##них": 1536,
      "благо": 1537,
      "##ателя": 1538,
      "##зе": 1539,
      "дело": 1540,
      "авиа": 1541,
      "##бой": 1542,
      "передает": 1543,
      "ль": 1544,
      "муж": 1545,
      "член": 1546,
      "стал": 1547,
      "##рей": 1548,
      "кита": 1549,
      "сил": 1550,
      "строитель": 1551,
      "##льных": 1552,
      "каче": 1553,
      "дмит": 1554,
      "стать": 1555,
      "использов": 1556,
      "фон": 1557,
      "шко": 1558,
      "ал": 1559,
      "нико": 1560,
      "сент": 1561,
      "комит": 1562,
      "##треб": 1563,
      "##гиб": 1564,
      "националь": 1565,
      "задерж": 1566,
      "##ному": 1567,
      "##an": 1568,
      "##атри": 1569,
      "дома": 1570,
      "2014": 1571,
      "чу": 1572,
      "##щения": 1573,
      "##лья": 1574,
      "ран": 1575,
      "##щее": 1576,
      "##вая": 1577,
      "получи": 1578,
      "господ": 1579,
      "##чин": 1580,
      "голо": 1581,
      "услови": 1582,
      "##чина": 1583,
      "##ством": 1584,
      "част": 1585,
      "дека": 1586,
      "квар": 1587,
      "##in": 1588,
      "##бод": 1589,
      "погиб": 1590,
      "доба": 1591,
      "выбо": 1592,
      "прове": 1593,
      "гор": 1594,
      "администра": 1595,
      "просто": 1596,
      "плани": 1597,
      "##един": 1598,
      "сро": 1599,
      "мер": 1600,
      "компания": 1601,
      "25": 1602,
      "##лит": 1603,
      "##орта": 1604,
      "министр": 1605,
      "##ятся": 1606,
      "##ходит": 1607,
      "ный": 1608,
      "ему": 1609,
      "москве": 1610,
      "очеред": 1611,
      "обвин": 1612,
      "апре": 1613,
      "прод": 1614,
      "москов": 1615,
      "##шие": 1616,
      "собствен": 1617,
      "сбор": 1618,
      "##рил": 1619,
      "бра": 1620,
      "элек": 1621,
      "именно": 1622,
      "сми": 1623,
      "новости": 1624,
      "уголов": 1625,
      "многи": 1626,
      "декаб": 1627,
      "зем": 1628,
      "##слу": 1629,
      "##мости": 1630,
      "##фер": 1631,
      "##рах": 1632,
      "работы": 1633,
      "##кну": 1634,
      "##ствие": 1635,
      "##гей": 1636,
      "ные": 1637,
      "##шли": 1638,
      "актив": 1639,
      "своей": 1640,
      "заклю": 1641,
      "##куп": 1642,
      "цен": 1643,
      "##enta": 1644,
      "окт": 1645,
      "##готов": 1646,
      "безопасности": 1647,
      "##лим": 1648,
      "##евра": 1649,
      "##ностью": 1650,
      "оказа": 1651,
      "##вые": 1652,
      "даль": 1653,
      "связ": 1654,
      "среди": 1655,
      "нор": 1656,
      "16": 1657,
      "##чет": 1658,
      "предлож": 1659,
      "##чем": 1660,
      "ги": 1661,
      "результате": 1662,
      "стран": 1663,
      "##овой": 1664,
      "##кам": 1665,
      "февра": 1666,
      "зат": 1667,
      "друго": 1668,
      "##зда": 1669,
      "проду": 1670,
      "долла": 1671,
      "суще": 1672,
      "##щий": 1673,
      "##шин": 1674,
      "должны": 1675,
      "ге": 1676,
      "lenta": 1677,
      "ск": 1678,
      "обяз": 1679,
      "опреде": 1680,
      "##ющий": 1681,
      "##рово": 1682,
      "стороны": 1683,
      "конку": 1684,
      "янва": 1685,
      "должно": 1686,
      "провод": 1687,
      "предпо": 1688,
      "поэтому": 1689,
      "еди": 1690,
      "рез": 1691,
      "чер": 1692,
      "уг": 1693,
      "##или": 1694,
      "##кое": 1695,
      "хоро": 1696,
      "##мость": 1697,
      "контро": 1698,
      "призна": 1699,
      "которой": 1700,
      "исп": 1701,
      "часть": 1702,
      "##нк": 1703,
      "сергей": 1704,
      "##йти": 1705,
      "##сит": 1706,
      "##тон": 1707,
      "13": 1708,
      "защ": 1709,
      "проис": 1710,
      "настоя": 1711,
      "образ": 1712,
      "##ссии": 1713,
      "связи": 1714,
      "##дом": 1715,
      "политиче": 1716,
      "##кин": 1717,
      "мира": 1718,
      "людей": 1719,
      "##фф": 1720,
      "измен": 1721,
      "спорт": 1722,
      "вели": 1723,
      "тасс": 1724,
      "ино": 1725,
      "##лимпи": 1726,
      "меди": 1727,
      "русс": 1728,
      "14": 1729,
      "нам": 1730,
      "17": 1731,
      "нау": 1732,
      "коман": 1733,
      "помощ": 1734,
      "зд": 1735,
      "ной": 1736,
      "нужно": 1737,
      "##ступа": 1738,
      "##or": 1739,
      "наде": 1740,
      "других": 1741,
      "##вра": 1742,
      "##рить": 1743,
      "деятель": 1744,
      "##ший": 1745,
      "российской": 1746,
      "четы": 1747,
      "него": 1748,
      "##ателей": 1749,
      "##роб": 1750,
      "##ске": 1751,
      "путин": 1752,
      "неко": 1753,
      "фото": 1754,
      "напомним": 1755,
      "тогда": 1756,
      "трансп": 1757,
      "##зации": 1758,
      "кла": 1759,
      "##нь": 1760,
      "неза": 1761,
      "александр": 1762,
      "коне": 1763,
      "преступ": 1764,
      "филь": 1765,
      "##личе": 1766,
      "##ющие": 1767,
      "ных": 1768,
      "случае": 1769,
      "занима": 1770,
      "##чной": 1771,
      "восто": 1772,
      "чемпион": 1773,
      "европ": 1774,
      "пен": 1775,
      "##лог": 1776,
      "площа": 1777,
      "##лон": 1778,
      "вра": 1779,
      "всем": 1780,
      "ули": 1781,
      "##лан": 1782,
      "кред": 1783,
      "деся": 1784,
      "##пра": 1785,
      "люди": 1786,
      "ведом": 1787,
      "обеспе": 1788,
      "успе": 1789,
      "премьер": 1790,
      "анд": 1791,
      "организации": 1792,
      "сум": 1793,
      "парла": 1794,
      "##кс": 1795,
      "фут": 1796,
      "##воз": 1797,
      "социаль": 1798,
      "рей": 1799,
      "##es": 1800,
      "рам": 1801,
      "ходе": 1802,
      "##циали": 1803,
      "риа": 1804,
      "территории": 1805,
      "канди": 1806,
      "тя": 1807,
      "стар": 1808,
      "##ници": 1809,
      "##вается": 1810,
      "##щение": 1811,
      "ожи": 1812,
      "нем": 1813,
      "футбо": 1814,
      "подчер": 1815,
      "представитель": 1816,
      "##строй": 1817,
      "жизни": 1818,
      "гру": 1819,
      "марта": 1820,
      "человека": 1821,
      "российских": 1822,
      "рассказал": 1823,
      "лишь": 1824,
      "##ерж": 1825,
      "стали": 1826,
      "журнали": 1827,
      "50": 1828,
      "показ": 1829,
      "продук": 1830,
      "пери": 1831,
      "##ar": 1832,
      "вот": 1833,
      "став": 1834,
      "тепер": 1835,
      "четыре": 1836,
      "теперь": 1837,
      "напри": 1838,
      "например": 1839,
      "##тно": 1840,
      "##рию": 1841,
      "способ": 1842,
      "которого": 1843,
      "##ган": 1844,
      "партии": 1845,
      "##вок": 1846,
      "прив": 1847,
      "##мов": 1848,
      "##тить": 1849,
      "аэ": 1850,
      "знач": 1851,
      "почти": 1852,
      "бар": 1853,
      "обы": 1854,
      "##мина": 1855,
      "европей": 1856,
      "первый": 1857,
      "стало": 1858,
      "лег": 1859,
      "исс": 1860,
      "председ": 1861,
      "счет": 1862,
      "мнению": 1863,
      "мне": 1864,
      "##ссе": 1865,
      "считает": 1866,
      "огра": 1867,
      "ная": 1868,
      "неде": 1869,
      "##раб": 1870,
      "аль": 1871,
      "##ружи": 1872,
      "поя": 1873,
      "##лез": 1874,
      "вос": 1875,
      "##кре": 1876,
      "##рую": 1877,
      "##мой": 1878,
      "##атели": 1879,
      "закон": 1880,
      "##рования": 1881,
      "сокра": 1882,
      "ного": 1883,
      "новые": 1884,
      "момент": 1885,
      "##рев": 1886,
      "ника": 1887,
      "своих": 1888,
      "подтвер": 1889,
      "четвер": 1890,
      "особ": 1891,
      "количе": 1892,
      "свобод": 1893,
      "##шая": 1894,
      "клу": 1895,
      "##вших": 1896,
      "объем": 1897,
      "электро": 1898,
      "пы": 1899,
      "##рот": 1900,
      "министер": 1901,
      "гу": 1902,
      "ход": 1903,
      "##вор": 1904,
      "осу": 1905,
      "##сут": 1906,
      "##ору": 1907,
      "исследов": 1908,
      "объек": 1909,
      "олимпи": 1910,
      "чи": 1911,
      "насе": 1912,
      "преду": 1913,
      "каж": 1914,
      "зо": 1915,
      "##щем": 1916,
      "москвы": 1917,
      "кандид": 1918,
      "##ляр": 1919,
      "повы": 1920,
      "конце": 1921,
      "проце": 1922,
      "внут": 1923,
      "##щие": 1924,
      "##нет": 1925,
      "ог": 1926,
      "сло": 1927,
      "##вид": 1928,
      "кру": 1929,
      "##спек": 1930,
      "обсу": 1931,
      "подготов": 1932,
      "фа": 1933,
      "образов": 1934,
      "поль": 1935,
      "прак": 1936,
      "##ственно": 1937,
      "госду": 1938,
      "##емон": 1939,
      "мир": 1940,
      "дости": 1941,
      "##личи": 1942,
      "коми": 1943,
      "специали": 1944,
      "пози": 1945,
      "некоторы": 1946,
      "отношении": 1947,
      "##le": 1948,
      "пути": 1949,
      "проку": 1950,
      "пояс": 1951,
      "шт": 1952,
      "##ербур": 1953,
      "постав": 1954,
      "##льные": 1955,
      "петербур": 1956,
      "##ложен": 1957,
      "##тель": 1958,
      "22": 1959,
      "##над": 1960,
      "##анием": 1961,
      "##лев": 1962,
      "зде": 1963,
      "ив": 1964,
      "главы": 1965,
      "детей": 1966,
      "реали": 1967,
      "части": 1968,
      "провер": 1969,
      "##ату": 1970,
      "гер": 1971,
      "##лены": 1972,
      "##ствует": 1973,
      "здесь": 1974,
      "##роны": 1975,
      "называ": 1976,
      "##ее": 1977,
      "период": 1978,
      "##чки": 1979,
      "инст": 1980,
      "обществен": 1981,
      "стране": 1982,
      "##дут": 1983,
      "такой": 1984,
      "##ками": 1985,
      "кос": 1986,
      "24": 1987,
      "пример": 1988,
      "##шим": 1989,
      "выход": 1990,
      "правительства": 1991,
      "зако": 1992,
      "ради": 1993,
      "##торов": 1994,
      "стои": 1995,
      "российского": 1996,
      "предприяти": 1997,
      "сти": 1998,
      "игра": 1999,
      "##ерна": 2000,
      "прог": 2001,
      "апреля": 2002,
      "##ток": 2003,
      "##датель": 2004,
      "##цей": 2005,
      "авгу": 2006,
      "страна": 2007,
      "инф": 2008,
      "мур": 2009,
      "прекра": 2010,
      "ссы": 2011,
      "бал": 2012,
      "уби": 2013,
      "завер": 2014,
      "##лин": 2015,
      "банк": 2016,
      "вклю": 2017,
      "2017": 2018,
      "говорится": 2019,
      "дмитрий": 2020,
      "потому": 2021,
      "государства": 2022,
      "сентября": 2023,
      "##рета": 2024,
      "комплек": 2025,
      "требов": 2026,
      "суб": 2027,
      "анти": 2028,
      "одной": 2029,
      "21": 2030,
      "##тически": 2031,
      "полож": 2032,
      "обна": 2033,
      "окру": 2034,
      "сою": 2035,
      "надо": 2036,
      "отде": 2037,
      "источник": 2038,
      "##ант": 2039,
      "должен": 2040,
      "вместе": 2041,
      "утвер": 2042,
      "зан": 2043,
      "##той": 2044,
      "санк": 2045,
      "##тия": 2046,
      "##убликов": 2047,
      "##чных": 2048,
      "реб": 2049,
      "##ню": 2050,
      "##щая": 2051,
      "конкур": 2052,
      "##стана": 2053,
      "произош": 2054,
      "назна": 2055,
      "исклю": 2056,
      "генера": 2057,
      "##вшего": 2058,
      "##ницу": 2059,
      "подоз": 2060,
      "наза": 2061,
      "бизнес": 2062,
      "смог": 2063,
      "кредит": 2064,
      "вним": 2065,
      "##пара": 2066,
      "участие": 2067,
      "времен": 2068,
      "рамках": 2069,
      "хотя": 2070,
      "докумен": 2071,
      "иностран": 2072,
      "сообщили": 2073,
      "##ритель": 2074,
      "##ьез": 2075,
      "##тура": 2076,
      "оцен": 2077,
      "##ческие": 2078,
      "треть": 2079,
      "сод": 2080,
      "проект": 2081,
      "энер": 2082,
      "наб": 2083,
      "слова": 2084,
      "пенси": 2085,
      "##йд": 2086,
      "##чат": 2087,
      "##гам": 2088,
      "предо": 2089,
      "другие": 2090,
      "##ерт": 2091,
      "мая": 2092,
      "##al": 2093,
      "доста": 2094,
      "постра": 2095,
      "##рин": 2096,
      "губ": 2097,
      "вол": 2098,
      "идет": 2099,
      "##вых": 2100,
      "торгов": 2101,
      "##разу": 2102,
      "##жден": 2103,
      "таким": 2104,
      "##держи": 2105,
      "менее": 2106,
      "##фа": 2107,
      "управления": 2108,
      "##охран": 2109,
      "лидер": 2110,
      "рос": 2111,
      "выступ": 2112,
      "одного": 2113,
      "согласно": 2114,
      "бюджет": 2115,
      "мурман": 2116,
      "доход": 2117,
      "кап": 2118,
      "региональ": 2119,
      "борь": 2120,
      "##смен": 2121,
      "вал": 2122,
      "тот": 2123,
      "##еты": 2124,
      "##езд": 2125,
      "февраля": 2126,
      "##оря": 2127,
      "##ая": 2128,
      "##струк": 2129,
      "пам": 2130,
      "пострада": 2131,
      "##it": 2132,
      "##еров": 2133,
      "##лено": 2134,
      "новый": 2135,
      "##чный": 2136,
      "преж": 2137,
      "##арта": 2138,
      "опубликов": 2139,
      "подчеркну": 2140,
      "возможность": 2141,
      "макси": 2142,
      "##лии": 2143,
      "##еди": 2144,
      "команд": 2145,
      "времени": 2146,
      "техно": 2147,
      "засед": 2148,
      "##нять": 2149,
      "аэро": 2150,
      "верси": 2151,
      "голосов": 2152,
      "верну": 2153,
      "образом": 2154,
      "спор": 2155,
      "совета": 2156,
      "ского": 2157,
      "ана": 2158,
      "потреб": 2159,
      "аб": 2160,
      "увер": 2161,
      "народ": 2162,
      "известно": 2163,
      "октября": 2164,
      "##мени": 2165,
      "пода": 2166,
      "##рес": 2167,
      "регу": 2168,
      "исполн": 2169,
      "аре": 2170,
      "информации": 2171,
      "ноября": 2172,
      "миха": 2173,
      "развития": 2174,
      "декабря": 2175,
      "попа": 2176,
      "##лик": 2177,
      "угро": 2178,
      "##чные": 2179,
      "##ce": 2180,
      "##рошен": 2181,
      "иде": 2182,
      "мод": 2183,
      "##oo": 2184,
      "подоб": 2185,
      "##ева": 2186,
      "##лена": 2187,
      "##жай": 2188,
      "серьез": 2189,
      "трех": 2190,
      "no": 2191,
      "##рам": 2192,
      "##мыш": 2193,
      "деньги": 2194,
      "назад": 2195,
      "##рец": 2196,
      "##чего": 2197,
      "##ter": 2198,
      "региона": 2199,
      "одно": 2200,
      "специаль": 2201,
      "конечно": 2202,
      "##сили": 2203,
      "##ченко": 2204,
      "##ябре": 2205,
      "замест": 2206,
      "ник": 2207,
      "действия": 2208,
      "продолжа": 2209,
      "##раж": 2210,
      "извести": 2211,
      "средств": 2212,
      "материа": 2213,
      "##ффек": 2214,
      "наш": 2215,
      "лиц": 2216,
      "воору": 2217,
      "кино": 2218,
      "##матри": 2219,
      "##чески": 2220,
      "января": 2221,
      "расследов": 2222,
      "##ствовать": 2223,
      "смер": 2224,
      "реко": 2225,
      "гри": 2226,
      "свой": 2227,
      "этих": 2228,
      "китай": 2229,
      "гов": 2230,
      "ский": 2231,
      "ссыл": 2232,
      "переда": 2233,
      "100": 2234,
      "попы": 2235,
      "##he": 2236,
      "ную": 2237,
      "оте": 2238,
      "##шее": 2239,
      "себе": 2240,
      "##ила": 2241,
      "##чей": 2242,
      "комитета": 2243,
      "дня": 2244,
      "##ез": 2245,
      "взры": 2246,
      "второй": 2247,
      "пыта": 2248,
      "##хра": 2249,
      "пря": 2250,
      "##стри": 2251,
      "##лять": 2252,
      "работу": 2253,
      "стоит": 2254,
      "прибы": 2255,
      "ис": 2256,
      "господин": 2257,
      "профе": 2258,
      "группы": 2259,
      "ес": 2260,
      "конф": 2261,
      "самолет": 2262,
      "ней": 2263,
      "долларов": 2264,
      "in": 2265,
      "##чного": 2266,
      "##чил": 2267,
      "ап": 2268,
      "23": 2269,
      "рак": 2270,
      "тоже": 2271,
      "сирий": 2272,
      "199": 2273,
      "40": 2274,
      "##ступи": 2275,
      "турции": 2276,
      "музы": 2277,
      "пят": 2278,
      "тру": 2279,
      "##лений": 2280,
      "намер": 2281,
      "мв": 2282,
      "инвести": 2283,
      "выпу": 2284,
      "финансов": 2285,
      "федерации": 2286,
      "сез": 2287,
      "рост": 2288,
      "удалось": 2289,
      "мень": 2290,
      "эффек": 2291,
      "##нили": 2292,
      "мэ": 2293,
      "##бин": 2294,
      "объяс": 2295,
      "##дии": 2296,
      "co": 2297,
      "##руют": 2298,
      "доб": 2299,
      "##муще": 2300,
      "контра": 2301,
      "такие": 2302,
      "##ательно": 2303,
      "ответствен": 2304,
      "##мышлен": 2305,
      "кре": 2306,
      "сразу": 2307,
      "##пин": 2308,
      "##ждение": 2309,
      "##казать": 2310,
      "эту": 2311,
      "28": 2312,
      "\")": 2313,
      "##нец": 2314,
      "либо": 2315,
      "ост": 2316,
      "##ями": 2317,
      "##чает": 2318,
      "##жных": 2319,
      "вид": 2320,
      "частности": 2321,
      "губерна": 2322,
      "##чить": 2323,
      "##казала": 2324,
      "директор": 2325,
      "##жной": 2326,
      "пользов": 2327,
      "##зии": 2328,
      "столи": 2329,
      "##ферен": 2330,
      "##пози": 2331,
      "места": 2332,
      "закры": 2333,
      "план": 2334,
      "продолж": 2335,
      "площад": 2336,
      "дополн": 2337,
      "банка": 2338,
      "своего": 2339,
      "спортсмен": 2340,
      "анали": 2341,
      "зада": 2342,
      "технологи": 2343,
      "ссылкой": 2344,
      "##кси": 2345,
      "##тиво": 2346,
      "##ового": 2347,
      "увелич": 2348,
      "север": 2349,
      "пара": 2350,
      "##слав": 2351,
      "ближай": 2352,
      "куб": 2353,
      "районе": 2354,
      "##жу": 2355,
      "газета": 2356,
      "многие": 2357,
      "##ческий": 2358,
      "которое": 2359,
      "ситуации": 2360,
      "кварти": 2361,
      "распо": 2362,
      "дене": 2363,
      "видео": 2364,
      "##атив": 2365,
      "брит": 2366,
      "нало": 2367,
      "стала": 2368,
      "ами": 2369,
      "убий": 2370,
      "##льным": 2371,
      "течение": 2372,
      "##рения": 2373,
      "покуп": 2374,
      "публи": 2375,
      "очередь": 2376,
      "##ro": 2377,
      "суде": 2378,
      "##ех": 2379,
      "##йдет": 2380,
      "пасса": 2381,
      "##ровали": 2382,
      "изд": 2383,
      "дума": 2384,
      "срав": 2385,
      "реаль": 2386,
      "##нок": 2387,
      "права": 2388,
      "##дать": 2389,
      "парт": 2390,
      "законодатель": 2391,
      "необходимо": 2392,
      "27": 2393,
      "хи": 2394,
      "опас": 2395,
      "##зо": 2396,
      "суда": 2397,
      "предлага": 2398,
      "агентство": 2399,
      "##гля": 2400,
      "00": 2401,
      "полиции": 2402,
      "наблю": 2403,
      "возду": 2404,
      "##лай": 2405,
      "привод": 2406,
      "этим": 2407,
      "уни": 2408,
      "правительство": 2409,
      "##ыт": 2410,
      "##енко": 2411,
      "##виси": 2412,
      "##ваем": 2413,
      "пассажи": 2414,
      "потер": 2415,
      "##итали": 2416,
      "##ствии": 2417,
      "уточ": 2418,
      "##ницы": 2419,
      "нач": 2420,
      "таких": 2421,
      "ным": 2422,
      "##дил": 2423,
      "##казали": 2424,
      "##доров": 2425,
      "службы": 2426,
      "хозя": 2427,
      "избира": 2428,
      "##ян": 2429,
      "последние": 2430,
      "всегда": 2431,
      "находится": 2432,
      "молод": 2433,
      "труд": 2434,
      "##нова": 2435,
      "собира": 2436,
      "деле": 2437,
      "##стер": 2438,
      "системы": 2439,
      "проекта": 2440,
      "##ществ": 2441,
      "меро": 2442,
      "женщи": 2443,
      "фу": 2444,
      "мероприяти": 2445,
      "средства": 2446,
      "герм": 2447,
      "##шо": 2448,
      "выбор": 2449,
      "разработ": 2450,
      "куль": 2451,
      "медици": 2452,
      "услу": 2453,
      "##няя": 2454,
      "ам": 2455,
      "тури": 2456,
      "выпла": 2457,
      "новых": 2458,
      "большин": 2459,
      "ей": 2460,
      "##вания": 2461,
      "начала": 2462,
      "26": 2463,
      "спец": 2464,
      "##вен": 2465,
      "чего": 2466,
      "банков": 2467,
      "две": 2468,
      "##ину": 2469,
      "разме": 2470,
      "##нача": 2471,
      "предостав": 2472,
      "противо": 2473,
      "миллиар": 2474,
      "пять": 2475,
      "запад": 2476,
      "##сколь": 2477,
      "##ti": 2478,
      "##чка": 2479,
      "чинов": 2480,
      "##видет": 2481,
      "мя": 2482,
      "чита": 2483,
      "##чера": 2484,
      "кажд": 2485,
      "трен": 2486,
      "полицей": 2487,
      "секрета": 2488,
      "миров": 2489,
      "котором": 2490,
      "тяже": 2491,
      "поряд": 2492,
      "нового": 2493,
      "начале": 2494,
      "масс": 2495,
      "иници": 2496,
      "тро": 2497,
      "пост": 2498,
      "предпри": 2499,
      "##бит": 2500,
      "сделать": 2501,
      "ой": 2502,
      "отношения": 2503,
      "несмот": 2504,
      "несмотря": 2505,
      "красно": 2506,
      "ведь": 2507,
      "бло": 2508,
      "решения": 2509,
      "боеви": 2510,
      "##обо": 2511,
      "созда": 2512,
      "российский": 2513,
      "дел": 2514,
      "прогно": 2515,
      "внеш": 2516,
      "бесп": 2517,
      "вице": 2518,
      "##точно": 2519,
      "стоимость": 2520,
      "маши": 2521,
      "##бли": 2522,
      "посколь": 2523,
      "семь": 2524,
      "исла": 2525,
      "месте": 2526,
      "нынеш": 2527,
      "качестве": 2528,
      "поскольку": 2529,
      "29": 2530,
      "алексей": 2531,
      "процесс": 2532,
      "стре": 2533,
      "совершен": 2534,
      "сла": 2535,
      "##вое": 2536,
      "конц": 2537,
      "един": 2538,
      "потом": 2539,
      "осво": 2540,
      "##анных": 2541,
      "##кую": 2542,
      "годы": 2543,
      "затем": 2544,
      "гре": 2545,
      "свет": 2546,
      "##стоятель": 2547,
      "##ваться": 2548,
      "примен": 2549,
      "##ват": 2550,
      "сайте": 2551,
      "##ющим": 2552,
      "республики": 2553,
      "##мин": 2554,
      "##вание": 2555,
      "попу": 2556,
      "посе": 2557,
      "##проек": 2558,
      "шо": 2559,
      "гол": 2560,
      "расход": 2561,
      "бывший": 2562,
      "действ": 2563,
      "запу": 2564,
      "аэроп": 2565,
      "##енти": 2566,
      "прин": 2567,
      "итогам": 2568,
      "бере": 2569,
      "кана": 2570,
      "количество": 2571,
      "##пера": 2572,
      "оружи": 2573,
      "##лета": 2574,
      "рынке": 2575,
      "современ": 2576,
      "ита": 2577,
      "мор": 2578,
      "возбу": 2579,
      "подроб": 2580,
      "ат": 2581,
      "совмест": 2582,
      "празд": 2583,
      "внутрен": 2584,
      "учен": 2585,
      "данные": 2586,
      "собра": 2587,
      "деятельности": 2588,
      "получил": 2589,
      "выступа": 2590,
      "универ": 2591,
      "турец": 2592,
      "августа": 2593,
      "зам": 2594,
      "уче": 2595,
      "собы": 2596,
      "министра": 2597,
      "##рю": 2598,
      "ук": 2599,
      "##сен": 2600,
      "городе": 2601,
      "призн": 2602,
      "##лой": 2603,
      "##графи": 2604,
      "##вшие": 2605,
      "законопроек": 2606,
      "окон": 2607,
      ".,": 2608,
      "##руется": 2609,
      "##онд": 2610,
      "теат": 2611,
      "мвд": 2612,
      "отказа": 2613,
      "правоохран": 2614,
      "сте": 2615,
      "подозре": 2616,
      "##зин": 2617,
      "рынка": 2618,
      "##мом": 2619,
      "депутат": 2620,
      "##лег": 2621,
      "следствен": 2622,
      "ман": 2623,
      "вне": 2624,
      "##ина": 2625,
      "завод": 2626,
      "##зм": 2627,
      "ним": 2628,
      "дом": 2629,
      "разре": 2630,
      "##ленных": 2631,
      "##фак": 2632,
      "##менти": 2633,
      "акти": 2634,
      "выс": 2635,
      "ничего": 2636,
      "возра": 2637,
      "##ствий": 2638,
      "иго": 2639,
      "догово": 2640,
      "ное": 2641,
      "представители": 2642,
      "мал": 2643,
      "##лением": 2644,
      "которую": 2645,
      "нефти": 2646,
      "##гии": 2647,
      "распро": 2648,
      "##жды": 2649,
      "жа": 2650,
      "##ница": 2651,
      "речь": 2652,
      "другой": 2653,
      "##щим": 2654,
      "прошлого": 2655,
      "##лению": 2656,
      "##цени": 2657,
      "российские": 2658,
      "тради": 2659,
      "ситуация": 2660,
      "появи": 2661,
      "спас": 2662,
      "наи": 2663,
      "##рование": 2664,
      "прокура": 2665,
      "компаний": 2666,
      "##стой": 2667,
      "сай": 2668,
      "ожида": 2669,
      "олимпий": 2670,
      "цель": 2671,
      "неда": 2672,
      "впер": 2673,
      "добавил": 2674,
      "впервые": 2675,
      "нее": 2676,
      "##так": 2677,
      "возвра": 2678,
      "##шки": 2679,
      "##нин": 2680,
      "##шем": 2681,
      "##дели": 2682,
      "голов": 2683,
      "отмечает": 2684,
      "##нд": 2685,
      "отра": 2686,
      "работать": 2687,
      "выполн": 2688,
      "##ительных": 2689,
      "золо": 2690,
      "подчеркнул": 2691,
      "интернет": 2692,
      "рассмот": 2693,
      "тон": 2694,
      "транспорт": 2695,
      "##ниц": 2696,
      "такое": 2697,
      "должна": 2698,
      "полно": 2699,
      "проблемы": 2700,
      "подпис": 2701,
      "##скому": 2702,
      "диа": 2703,
      "наши": 2704,
      "##тий": 2705,
      "кризи": 2706,
      "жизнь": 2707,
      "това": 2708,
      "##роз": 2709,
      "настоящее": 2710,
      "##ляют": 2711,
      "забо": 2712,
      "почему": 2713,
      "##ag": 2714,
      "##льная": 2715,
      "принима": 2716,
      "помощи": 2717,
      "британ": 2718,
      "постоя": 2719,
      "остав": 2720,
      "ской": 2721,
      "худ": 2722,
      "пиш": 2723,
      "##пов": 2724,
      "просмот": 2725,
      "комму": 2726,
      "россию": 2727,
      "осуществ": 2728,
      "вчера": 2729,
      "здоров": 2730,
      "юри": 2731,
      "##вую": 2732,
      "отправ": 2733,
      "##нице": 2734,
      "ограни": 2735,
      "асс": 2736,
      "штра": 2737,
      "##кар": 2738,
      "недо": 2739,
      "##лот": 2740,
      "##жении": 2741,
      "##рет": 2742,
      "июля": 2743,
      "неиз": 2744,
      "##там": 2745,
      "уровне": 2746,
      "выяс": 2747,
      "мире": 2748,
      "число": 2749,
      "нед": 2750,
      "трам": 2751,
      "украине": 2752,
      "позд": 2753,
      "##роят": 2754,
      "##вел": 2755,
      "телек": 2756,
      "имеет": 2757,
      "станет": 2758,
      "внимание": 2759,
      "медицин": 2760,
      "мас": 2761,
      "нашей": 2762,
      "##ствуют": 2763,
      "демо": 2764,
      "##ходя": 2765,
      "мину": 2766,
      "сотрудниче": 2767,
      "весь": 2768,
      "служба": 2769,
      "соответствую": 2770,
      "##жем": 2771,
      "хол": 2772,
      "введ": 2773,
      "##пли": 2774,
      "какие": 2775,
      "одним": 2776,
      "##ющей": 2777,
      "сф": 2778,
      "новой": 2779,
      "оба": 2780,
      "полностью": 2781,
      "этому": 2782,
      "информацию": 2783,
      "восп": 2784,
      "пунк": 2785,
      "дней": 2786,
      "приш": 2787,
      "выз": 2788,
      "оппози": 2789,
      "летний": 2790,
      "оон": 2791,
      "бело": 2792,
      "миллионов": 2793,
      "содерж": 2794,
      "##жал": 2795,
      "мощ": 2796,
      "своем": 2797,
      "коллек": 2798,
      "иску": 2799,
      "##неф": 2800,
      "вза": 2801,
      "постоян": 2802,
      "##ктор": 2803,
      "вооб": 2804,
      "важ": 2805,
      "андрей": 2806,
      "получили": 2807,
      "читайте": 2808,
      "сами": 2809,
      "истории": 2810,
      "##мии": 2811,
      "отмечается": 2812,
      "каждый": 2813,
      "добы": 2814,
      "стол": 2815,
      "минут": 2816,
      "сотрудники": 2817,
      "см": 2818,
      "доступ": 2819,
      "близ": 2820,
      "различ": 2821,
      "началь": 2822,
      "%.": 2823,
      "центр": 2824,
      "##мере": 2825,
      "поня": 2826,
      "мид": 2827,
      "москва": 2828,
      "администрации": 2829,
      "бер": 2830,
      "наруш": 2831,
      "##их": 2832,
      "каса": 2833,
      "##фика": 2834,
      "получить": 2835,
      "##ровки": 2836,
      "интерфак": 2837,
      "отве": 2838,
      "района": 2839,
      "##чит": 2840,
      "причи": 2841,
      "справ": 2842,
      "сравн": 2843,
      "##дем": 2844,
      "##дили": 2845,
      "объя": 2846,
      "считают": 2847,
      "попыт": 2848,
      "35": 2849,
      "##рее": 2850,
      "люб": 2851,
      "##чным": 2852,
      "запа": 2853,
      "обвиня": 2854,
      "##тил": 2855,
      "информацион": 2856,
      "цены": 2857,
      "дов": 2858,
      "крым": 2859,
      "##ником": 2860,
      "кни": 2861,
      "сборной": 2862,
      "следов": 2863,
      "тай": 2864,
      "европы": 2865,
      "допу": 2866,
      "возгла": 2867,
      "живо": 2868,
      "предполага": 2869,
      "повод": 2870,
      "программы": 2871,
      "##рат": 2872,
      "мини": 2873,
      "срок": 2874,
      "председатель": 2875,
      "особенно": 2876,
      "замет": 2877,
      "тому": 2878,
      "получа": 2879,
      "##наль": 2880,
      "отдель": 2881,
      "сама": 2882,
      "ведомства": 2883,
      "##боль": 2884,
      "серге": 2885,
      "интерес": 2886,
      "re": 2887,
      "##рите": 2888,
      "теку": 2889,
      "страте": 2890,
      "сложно": 2891,
      "the": 2892,
      "прави": 2893,
      "экс": 2894,
      "##ял": 2895,
      "##гру": 2896,
      "##говоры": 2897,
      "вообще": 2898,
      "##шта": 2899,
      "поста": 2900,
      "пала": 2901,
      "професси": 2902,
      "появ": 2903,
      "хоте": 2904,
      "евг": 2905,
      "игро": 2906,
      "##няет": 2907,
      "группа": 2908,
      "ская": 2909,
      "дип": 2910,
      "практически": 2911,
      "ребен": 2912,
      "##рами": 2913,
      "##ческая": 2914,
      "меньше": 2915,
      "##ющего": 2916,
      "##никами": 2917,
      "вооружен": 2918,
      "##бер": 2919,
      "##жного": 2920,
      "2013": 2921,
      "объедин": 2922,
      "##ине": 2923,
      "обязатель": 2924,
      "эффектив": 2925,
      "##da": 2926,
      "адвок": 2927,
      "некоторые": 2928,
      "выстав": 2929,
      "велико": 2930,
      "сет": 2931,
      "##фон": 2932,
      "зве": 2933,
      "сере": 2934,
      "##еры": 2935,
      "предприним": 2936,
      "самых": 2937,
      "встреча": 2938,
      "пожа": 2939,
      "каза": 2940,
      "долго": 2941,
      "российская": 2942,
      "большой": 2943,
      "клин": 2944,
      "сб": 2945,
      "прошлом": 2946,
      "составляет": 2947,
      "рассказыва": 2948,
      "центре": 2949,
      "россиян": 2950,
      "военно": 2951,
      "университ": 2952,
      "каждо": 2953,
      "##щую": 2954,
      "##рошенко": 2955,
      "съ": 2956,
      "вари": 2957,
      "войны": 2958,
      "восстанов": 2959,
      "ого": 2960,
      "францу": 2961,
      "команды": 2962,
      "предва": 2963,
      "одном": 2964,
      "рейтин": 2965,
      "примерно": 2966,
      "говор": 2967,
      "31": 2968,
      "##нал": 2969,
      "вести": 2970,
      "месяцев": 2971,
      "клю": 2972,
      "##жета": 2973,
      "край": 2974,
      "##il": 2975,
      "ряд": 2976,
      "ава": 2977,
      "вопросы": 2978,
      "достаточно": 2979,
      "оцени": 2980,
      "##цид": 2981,
      "предваритель": 2982,
      "##тие": 2983,
      "популяр": 2984,
      "просмотров": 2985,
      "жителей": 2986,
      "##дев": 2987,
      "бол": 2988,
      "##нуть": 2989,
      "истори": 2990,
      "финанси": 2991,
      "демокра": 2992,
      "струк": 2993,
      "скоро": 2994,
      "пяти": 2995,
      "сообщается": 2996,
      "сторон": 2997,
      "привле": 2998,
      "пис": 2999,
      "делать": 3000,
      "участников": 3001,
      "гон": 3002,
      "требу": 3003,
      "##никам": 3004,
      "группи": 3005,
      "населения": 3006,
      "виз": 3007,
      "тр": 3008,
      "дав": 3009,
      "часов": 3010,
      "сети": 3011,
      "##сил": 3012,
      "состо": 3013,
      "##град": 3014,
      "##сок": 3015,
      "террористи": 3016,
      "впро": 3017,
      "промышлен": 3018,
      "оконч": 3019,
      "ах": 3020,
      "ым": 3021,
      "превы": 3022,
      "реши": 3023,
      "##чествен": 3024,
      "##били": 3025,
      "харак": 3026,
      "област": 3027,
      "##ra": 3028,
      "ска": 3029,
      "сохран": 3030,
      "спортив": 3031,
      "##сом": 3032,
      "##ходят": 3033,
      "экономики": 3034,
      "агентства": 3035,
      "60": 3036,
      "приоб": 3037,
      "турни": 3038,
      "нефть": 3039,
      "обнару": 3040,
      "впрочем": 3041,
      "киев": 3042,
      "##ич": 3043,
      "##анк": 3044,
      "отсут": 3045,
      "##вич": 3046,
      "##чая": 3047,
      "страхов": 3048,
      "возможности": 3049,
      "лучше": 3050,
      "парламента": 3051,
      "##кими": 3052,
      "дон": 3053,
      "поддержи": 3054,
      "госдумы": 3055,
      "ира": 3056,
      "коро": 3057,
      "##сят": 3058,
      "машин": 3059,
      "приводит": 3060,
      "##тах": 3061,
      "сня": 3062,
      "незакон": 3063,
      "действительно": 3064,
      "процентов": 3065,
      "##зн": 3066,
      "благода": 3067,
      "вывод": 3068,
      "эксперты": 3069,
      "известия": 3070,
      "искус": 3071,
      "##енты": 3072,
      "##клад": 3073,
      "выборов": 3074,
      "аф": 3075,
      "крупней": 3076,
      "##жать": 3077,
      "##ленные": 3078,
      "важно": 3079,
      "станов": 3080,
      "уголовное": 3081,
      "##того": 3082,
      "коммер": 3083,
      "организация": 3084,
      "политики": 3085,
      "##ого": 3086,
      "##сур": 3087,
      "проте": 3088,
      "##обра": 3089,
      "пенсион": 3090,
      "##ительные": 3091,
      "##вым": 3092,
      "##ван": 3093,
      "кварта": 3094,
      "обу": 3095,
      "главный": 3096,
      "мага": 3097,
      "инициати": 3098,
      "указ": 3099,
      "##гран": 3100,
      "##вала": 3101,
      "геро": 3102,
      "трав": 3103,
      "##el": 3104,
      "транс": 3105,
      "уровень": 3106,
      "крас": 3107,
      "выборах": 3108,
      "штраф": 3109,
      "похо": 3110,
      "инцид": 3111,
      "##пон": 3112,
      "##бур": 3113,
      "порошенко": 3114,
      "выда": 3115,
      "##ался": 3116,
      "трамп": 3117,
      "сотрудников": 3118,
      "германии": 3119,
      "принци": 3120,
      "свидет": 3121,
      "##ol": 3122,
      "поми": 3123,
      "##тии": 3124,
      "отмен": 3125,
      "пси": 3126,
      "меры": 3127,
      "ау": 3128,
      "##руг": 3129,
      "выра": 3130,
      "перспек": 3131,
      "санкт": 3132,
      "слож": 3133,
      "постанов": 3134,
      "##леп": 3135,
      "техниче": 3136,
      "##вью": 3137,
      "попро": 3138,
      "жерт": 3139,
      "##чис": 3140,
      "секретарь": 3141,
      "##рина": 3142,
      "##ческим": 3143,
      "##ала": 3144,
      "##рез": 3145,
      "кило": 3146,
      "##зма": 3147,
      "договор": 3148,
      "мало": 3149,
      "заявила": 3150,
      "второ": 3151,
      "отстав": 3152,
      "исполь": 3153,
      "заявление": 3154,
      "перегово": 3155,
      "проблем": 3156,
      "хорошо": 3157,
      "защит": 3158,
      "вероят": 3159,
      "интервью": 3160,
      "заместитель": 3161,
      "оде": 3162,
      "##ri": 3163,
      "тю": 3164,
      "принад": 3165,
      "##форми": 3166,
      "конфлик": 3167,
      "единствен": 3168,
      "принадле": 3169,
      "вас": 3170,
      "действую": 3171,
      "##щении": 3172,
      "##ентом": 3173,
      "ирован": 3174,
      "##рко": 3175,
      "поме": 3176,
      "##ложи": 3177,
      "лит": 3178,
      "бел": 3179,
      "расши": 3180,
      "дальней": 3181,
      "произошло": 3182,
      "никто": 3183,
      "ислам": 3184,
      "благодаря": 3185,
      "россией": 3186,
      "назвал": 3187,
      "##част": 3188,
      "объяв": 3189,
      "несколь": 3190,
      "худо": 3191,
      "##гли": 3192,
      "##цов": 3193,
      "итоге": 3194,
      "бизне": 3195,
      "чув": 3196,
      "интерфакс": 3197,
      "сц": 3198,
      "##ум": 3199,
      "сообщении": 3200,
      "##кви": 3201,
      "ном": 3202,
      "##ia": 3203,
      "сдел": 3204,
      "##креп": 3205,
      "судеб": 3206,
      "клинтон": 3207,
      "##кро": 3208,
      "##лер": 3209,
      "раст": 3210,
      "крем": 3211,
      "пож": 3212,
      "##лад": 3213,
      "##вого": 3214,
      "мино": 3215,
      "##шает": 3216,
      "встречи": 3217,
      "колле": 3218,
      "глу": 3219,
      "какой": 3220,
      "##щиков": 3221,
      "государство": 3222,
      "##реть": 3223,
      "размере": 3224,
      "эксперт": 3225,
      "движения": 3226,
      "цб": 3227,
      "##писа": 3228,
      "##мб": 3229,
      "прио": 3230,
      "##нев": 3231,
      "сообщила": 3232,
      "##льное": 3233,
      "##пло": 3234,
      "ситуацию": 3235,
      "бюджета": 3236,
      "##пора": 3237,
      "ниже": 3238,
      "фонда": 3239,
      "первую": 3240,
      "результат": 3241,
      "собой": 3242,
      "роста": 3243,
      "часто": 3244,
      "жел": 3245,
      "уд": 3246,
      "##тором": 3247,
      "претен": 3248,
      "обороны": 3249,
      "выпол": 3250,
      "##бесед": 3251,
      "поне": 3252,
      "зар": 3253,
      "пись": 3254,
      "всей": 3255,
      "##фо": 3256,
      "напис": 3257,
      "понима": 3258,
      "причин": 3259,
      "##ещ": 3260,
      "##анные": 3261,
      "##лях": 3262,
      "конст": 3263,
      "организов": 3264,
      "сообщалось": 3265,
      "руководитель": 3266,
      "документа": 3267,
      "втор": 3268,
      "оно": 3269,
      "##re": 3270,
      "зад": 3271,
      "учре": 3272,
      "мужчина": 3273,
      "иностранных": 3274,
      "сли": 3275,
      "май": 3276,
      "нако": 3277,
      "следует": 3278,
      "погибли": 3279,
      "тут": 3280,
      "нап": 3281,
      "##чик": 3282,
      "условиях": 3283,
      "##сить": 3284,
      "которым": 3285,
      "данных": 3286,
      "##мя": 3287,
      "женщ": 3288,
      "собесед": 3289,
      "ремон": 3290,
      "##игра": 3291,
      "##тики": 3292,
      "первого": 3293,
      "использу": 3294,
      "##жей": 3295,
      "рынок": 3296,
      "франции": 3297,
      "нато": 3298,
      "##скими": 3299,
      "физи": 3300,
      "устрой": 3301,
      "соверш": 3302,
      "постро": 3303,
      "национальной": 3304,
      "ата": 3305,
      "ском": 3306,
      "смот": 3307,
      "низ": 3308,
      "##as": 3309,
      "каз": 3310,
      "##сою": 3311,
      "службе": 3312,
      "##оци": 3313,
      "##лах": 3314,
      "своим": 3315,
      "департа": 3316,
      "##льян": 3317,
      "хозяй": 3318,
      "изу": 3319,
      "пад": 3320,
      "##нимать": 3321,
      "первом": 3322,
      "уверен": 3323,
      "терак": 3324,
      "пишет": 3325,
      "ек": 3326,
      "проблема": 3327,
      "михаил": 3328,
      "влия": 3329,
      "серви": 3330,
      "эр": 3331,
      "##уне": 3332,
      "##рок": 3333,
      "медве": 3334,
      "улице": 3335,
      "зарпла": 3336,
      "рассматри": 3337,
      "правда": 3338,
      "помощью": 3339,
      "рекомен": 3340,
      "партнер": 3341,
      "сель": 3342,
      "коло": 3343,
      "##форм": 3344,
      "целом": 3345,
      "союз": 3346,
      "имуще": 3347,
      "упо": 3348,
      "выше": 3349,
      "силу": 3350,
      "валют": 3351,
      "начина": 3352,
      "##нию": 3353,
      "##емых": 3354,
      "конца": 3355,
      "представителя": 3356,
      "##льном": 3357,
      "язы": 3358,
      "##брит": 3359,
      "##три": 3360,
      "говорят": 3361,
      "тен": 3362,
      "##зор": 3363,
      "накан": 3364,
      "великобрит": 3365,
      "накануне": 3366,
      "##читы": 3367,
      "форми": 3368,
      "пояснил": 3369,
      "француз": 3370,
      "##док": 3371,
      "помощь": 3372,
      "##сро": 3373,
      "тысячи": 3374,
      "##шка": 3375,
      "владимира": 3376,
      "##гляд": 3377,
      "70": 3378,
      "нель": 3379,
      "прием": 3380,
      "налогов": 3381,
      "##вии": 3382,
      "##стам": 3383,
      "максима": 3384,
      "##ваются": 3385,
      "диплом": 3386,
      "разви": 3387,
      "производства": 3388,
      "всеми": 3389,
      "взрыв": 3390,
      "45": 3391,
      "##et": 3392,
      "раск": 3393,
      "##ссия": 3394,
      "конферен": 3395,
      "останов": 3396,
      "##ждает": 3397,
      "##под": 3398,
      "дина": 3399,
      "украина": 3400,
      "сме": 3401,
      "инди": 3402,
      "ными": 3403,
      "##ун": 3404,
      "присут": 3405,
      "бой": 3406,
      "##ведения": 3407,
      "первой": 3408,
      "верхов": 3409,
      "действий": 3410,
      "цити": 3411,
      "##нить": 3412,
      "##одей": 3413,
      "сав": 3414,
      "возник": 3415,
      "прид": 3416,
      "нельзя": 3417,
      "причем": 3418,
      "понедель": 3419,
      "шан": 3420,
      "##енных": 3421,
      "парламент": 3422,
      "оч": 3423,
      "трампа": 3424,
      "делу": 3425,
      "2012": 3426,
      "зе": 3427,
      "такого": 3428,
      "материале": 3429,
      "##us": 3430,
      "годов": 3431,
      "закона": 3432,
      "степ": 3433,
      "камп": 3434,
      "##оволь": 3435,
      "##пл": 3436,
      "зах": 3437,
      "оператив": 3438,
      "##деми": 3439,
      "##чать": 3440,
      "шта": 3441,
      "##мец": 3442,
      "##хани": 3443,
      "подо": 3444,
      "сим": 3445,
      "заявили": 3446,
      "газпро": 3447,
      "сказать": 3448,
      "##зер": 3449,
      "деву": 3450,
      "пользу": 3451,
      "свер": 3452,
      "##ьше": 3453,
      "##пр": 3454,
      "ресур": 3455,
      "##удов": 3456,
      "##рудов": 3457,
      "огром": 3458,
      "неизвест": 3459,
      "ут": 3460,
      "##рили": 3461,
      "пит": 3462,
      "находи": 3463,
      "относ": 3464,
      "независи": 3465,
      "сту": 3466,
      "очевид": 3467,
      "работает": 3468,
      "оо": 3469,
      "система": 3470,
      "путина": 3471,
      "##сср": 3472,
      "##веро": 3473,
      "результаты": 3474,
      "финанс": 3475,
      "##стить": 3476,
      "напад": 3477,
      "##мые": 3478,
      "ката": 3479,
      "патри": 3480,
      "полиция": 3481,
      "начали": 3482,
      "увеличи": 3483,
      "четырех": 3484,
      "порядка": 3485,
      "заб": 3486,
      "дональ": 3487,
      "проведения": 3488,
      "запрещен": 3489,
      "барре": 3490,
      "im": 3491,
      "##ic": 3492,
      "##лить": 3493,
      "приход": 3494,
      "обрати": 3495,
      "изменения": 3496,
      "версии": 3497,
      "опла": 3498,
      "##вли": 3499,
      "оборудов": 3500,
      "список": 3501,
      "отечествен": 3502,
      "вок": 3503,
      "роль": 3504,
      "большинство": 3505,
      "##дан": 3506,
      "перевоз": 3507,
      "ооо": 3508,
      "вам": 3509,
      "спа": 3510,
      "ссср": 3511,
      "##дал": 3512,
      "данный": 3513,
      "##еду": 3514,
      "работе": 3515,
      "пятницу": 3516,
      "##ации": 3517,
      "##дек": 3518,
      "##ителем": 3519,
      "плат": 3520,
      "##нул": 3521,
      "вес": 3522,
      "александра": 3523,
      "месяца": 3524,
      "бен": 3525,
      "##is": 3526,
      "среду": 3527,
      "раньше": 3528,
      "##tion": 3529,
      "##шествия": 3530,
      "владель": 3531,
      "десят": 3532,
      "аппара": 3533,
      "денег": 3534,
      "80": 3535,
      "поки": 3536,
      "2018": 3537,
      "политика": 3538,
      "вся": 3539,
      "бори": 3540,
      "скорее": 3541,
      "эко": 3542,
      "##нр": 3543,
      "раза": 3544,
      "ростов": 3545,
      "##дим": 3546,
      "особо": 3547,
      "силы": 3548,
      "комиссии": 3549,
      "игорь": 3550,
      "наших": 3551,
      "двиг": 3552,
      "министерства": 3553,
      "##нему": 3554,
      "неболь": 3555,
      "##стива": 3556,
      "электрон": 3557,
      "образования": 3558,
      "выборы": 3559,
      "%,": 3560,
      "##сем": 3561,
      "помимо": 3562,
      "расположен": 3563,
      "сфере": 3564,
      "миниму": 3565,
      "тан": 3566,
      "переговоры": 3567,
      "##ались": 3568,
      "друг": 3569,
      "крыма": 3570,
      "внес": 3571,
      "упа": 3572,
      "##бк": 3573,
      "говорить": 3574,
      "никогда": 3575,
      "стратеги": 3576,
      "##бора": 3577,
      "##щик": 3578,
      "карти": 3579,
      "ребенка": 3580,
      "япо": 3581,
      "##более": 3582,
      "##суль": 3583,
      "произошел": 3584,
      "комитет": 3585,
      "наиболее": 3586,
      "чит": 3587,
      "вет": 3588,
      "##вета": 3589,
      "##комп": 3590,
      "воздуш": 3591,
      "успеш": 3592,
      "памят": 3593,
      "скан": 3594,
      "немец": 3595,
      "воск": 3596,
      "##бир": 3597,
      "##лаг": 3598,
      "##чены": 3599,
      "зло": 3600,
      "##они": 3601,
      "##кова": 3602,
      "нео": 3603,
      "пропа": 3604,
      "ред": 3605,
      "газа": 3606,
      "органов": 3607,
      "самым": 3608,
      "строительство": 3609,
      "норма": 3610,
      "живот": 3611,
      "сорев": 3612,
      "куп": 3613,
      "самом": 3614,
      "достиг": 3615,
      "понедельник": 3616,
      "ху": 3617,
      "допин": 3618,
      "##чено": 3619,
      "капит": 3620,
      "масшта": 3621,
      "екатери": 3622,
      "алеп": 3623,
      "##ew": 3624,
      "выде": 3625,
      "##зывает": 3626,
      "алеппо": 3627,
      "конкре": 3628,
      "членов": 3629,
      "##чку": 3630,
      "##чная": 3631,
      "##стя": 3632,
      "90": 3633,
      "культуры": 3634,
      "савченко": 3635,
      "ков": 3636,
      "кате": 3637,
      "##жные": 3638,
      "лиш": 3639,
      "метро": 3640,
      "белору": 3641,
      "вторник": 3642,
      "##ясь": 3643,
      "вов": 3644,
      "син": 3645,
      "отказ": 3646,
      "режисс": 3647,
      "смогут": 3648,
      "цитирует": 3649,
      "##луч": 3650,
      "акции": 3651,
      "первые": 3652,
      "аналоги": 3653,
      "дере": 3654,
      "##вом": 3655,
      "пари": 3656,
      "любо": 3657,
      "могли": 3658,
      "провести": 3659,
      "чемпионата": 3660,
      "##ниципа": 3661,
      "нарушения": 3662,
      "ключе": 3663,
      "соревнов": 3664,
      "##ace": 3665,
      "арм": 3666,
      "четверг": 3667,
      "##ок": 3668,
      "операции": 3669,
      "фонд": 3670,
      "цена": 3671,
      "##вей": 3672,
      "##дина": 3673,
      "##пос": 3674,
      "имени": 3675,
      "желез": 3676,
      "испол": 3677,
      "гиб": 3678,
      "вв": 3679,
      "500": 3680,
      "скры": 3681,
      "##ологи": 3682,
      "##ссий": 3683,
      "##дия": 3684,
      "посет": 3685,
      "никаких": 3686,
      "институ": 3687,
      "щи": 3688,
      "##ut": 3689,
      "##ческое": 3690,
      "взаим": 3691,
      "##ланд": 3692,
      "##риф": 3693,
      "давно": 3694,
      "задержан": 3695,
      "избиратель": 3696,
      "моде": 3697,
      "полага": 3698,
      "перс": 3699,
      "заявля": 3700,
      "женщина": 3701,
      "оши": 3702,
      "муниципа": 3703,
      "##шинг": 3704,
      "##рабаты": 3705,
      "нескольких": 3706,
      "##дали": 3707,
      "европе": 3708,
      "думаю": 3709,
      "##age": 3710,
      "32": 3711,
      "##хе": 3712,
      "кали": 3713,
      "марш": 3714,
      "возбужд": 3715,
      "ура": 3716,
      "##нила": 3717,
      "##фици": 3718,
      "вашинг": 3719,
      "функ": 3720,
      "касается": 3721,
      "км": 3722,
      "автомобиль": 3723,
      "ассоци": 3724,
      "##at": 3725,
      "случай": 3726,
      "##шла": 3727,
      "##рел": 3728,
      "препара": 3729,
      "быстро": 3730,
      "##вился": 3731,
      "взя": 3732,
      "##ителям": 3733,
      "уровня": 3734,
      "##бороны": 3735,
      "студ": 3736,
      "стату": 3737,
      "являются": 3738,
      "молоде": 3739,
      "требования": 3740,
      "сопер": 3741,
      "прожи": 3742,
      "механи": 3743,
      "##ительной": 3744,
      "принято": 3745,
      "корруп": 3746,
      "минобороны": 3747,
      "жан": 3748,
      "зи": 3749,
      "ори": 3750,
      "сохра": 3751,
      "команда": 3752,
      "кого": 3753,
      "##стью": 3754,
      "песков": 3755,
      "остается": 3756,
      "традицион": 3757,
      "уб": 3758,
      "столич": 3759,
      "участники": 3760,
      "преступления": 3761,
      "##шую": 3762,
      "бежен": 3763,
      "информация": 3764,
      "ракет": 3765,
      "пройдет": 3766,
      "воро": 3767,
      "##работа": 3768,
      "воскрес": 3769,
      "300": 3770,
      "##метров": 3771,
      "административ": 3772,
      "управля": 3773,
      "выд": 3774,
      "широ": 3775,
      "ид": 3776,
      "##рор": 3777,
      "первых": 3778,
      "com": 3779,
      "подробнее": 3780,
      "соц": 3781,
      "самый": 3782,
      "строительства": 3783,
      "союза": 3784,
      "##чном": 3785,
      "##чении": 3786,
      "приве": 3787,
      "##гах": 3788,
      "находятся": 3789,
      "бизнеса": 3790,
      "##едли": 3791,
      "веду": 3792,
      "поддержку": 3793,
      "##рение": 3794,
      "корпора": 3795,
      "продажи": 3796,
      "деятельность": 3797,
      "петербург": 3798,
      "##сб": 3799,
      "##пров": 3800,
      "##роса": 3801,
      "жела": 3802,
      "олимпиа": 3803,
      "катего": 3804,
      "сь": 3805,
      "сол": 3806,
      "##тами": 3807,
      "роман": 3808,
      "тол": 3809,
      "выну": 3810,
      "месяц": 3811,
      "курс": 3812,
      "##шком": 3813,
      "поступ": 3814,
      "наказ": 3815,
      "##ерв": 3816,
      "##итар": 3817,
      "кораб": 3818,
      "сумму": 3819,
      "законопроект": 3820,
      "##езда": 3821,
      "многих": 3822,
      "радио": 3823,
      "энерг": 3824,
      "##чили": 3825,
      "лав": 3826,
      "##няется": 3827,
      "фестива": 3828,
      "семей": 3829,
      "лени": 3830,
      "рбк": 3831,
      "переход": 3832,
      "самолета": 3833,
      "фильм": 3834,
      "##возмо": 3835,
      "##станавли": 3836,
      "самого": 3837,
      "сыгра": 3838,
      "полномо": 3839,
      ".)": 3840,
      "##стом": 3841,
      "ото": 3842,
      "сю": 3843,
      "##чс": 3844,
      "куда": 3845,
      "нуж": 3846,
      "ке": 3847,
      "кад": 3848,
      "опыт": 3849,
      "никола": 3850,
      "разных": 3851,
      "##дой": 3852,
      "спу": 3853,
      "##лети": 3854,
      "##клады": 3855,
      "прежде": 3856,
      "оказыва": 3857,
      "2011": 3858,
      "путе": 3859,
      "жители": 3860,
      "президентом": 3861,
      "соглашения": 3862,
      "дети": 3863,
      "состоянии": 3864,
      "потен": 3865,
      "##рож": 3866,
      "##гом": 3867,
      "высоко": 3868,
      "житель": 3869,
      "##тят": 3870,
      "суббо": 3871,
      "еги": 3872,
      "экономического": 3873,
      "заверш": 3874,
      "кара": 3875,
      "принять": 3876,
      "поводу": 3877,
      "##ственных": 3878,
      "такая": 3879,
      "спорта": 3880,
      "мигран": 3881,
      "##емого": 3882,
      "сравнению": 3883,
      "##груз": 3884,
      "бывшего": 3885,
      "лица": 3886,
      "сможет": 3887,
      "ядер": 3888,
      "поко": 3889,
      "будем": 3890,
      "миллиона": 3891,
      "клуба": 3892,
      "уз": 3893,
      "##нения": 3894,
      "##мыс": 3895,
      "совсем": 3896,
      "андре": 3897,
      "##ден": 3898,
      "предупре": 3899,
      "впол": 3900,
      "пак": 3901,
      "унич": 3902,
      "условия": 3903,
      "фотографи": 3904,
      "уничто": 3905,
      "винов": 3906,
      "демон": 3907,
      "ские": 3908,
      "##ест": 3909,
      "всю": 3910,
      "вполне": 3911,
      "ака": 3912,
      "ву": 3913,
      "посо": 3914,
      "судь": 3915,
      "планируется": 3916,
      "егип": 3917,
      "пору": 3918,
      "ниж": 3919,
      "сих": 3920,
      "рассчиты": 3921,
      "санкции": 3922,
      "донба": 3923,
      "image": 3924,
      "иру": 3925,
      "регионе": 3926,
      "официальный": 3927,
      "##ыми": 3928,
      "военных": 3929,
      "район": 3930,
      "фору": 3931,
      "улуч": 3932,
      "##лок": 3933,
      "##рованы": 3934,
      "##ir": 3935,
      "##лова": 3936,
      "посвя": 3937,
      "вечер": 3938,
      "государственной": 3939,
      "составе": 3940,
      "дра": 3941,
      "пок": 3942,
      "фир": 3943,
      "свободы": 3944,
      "охра": 3945,
      "достав": 3946,
      "##овом": 3947,
      "организаций": 3948,
      "##ent": 3949,
      "##ствовал": 3950,
      "энергети": 3951,
      "федерального": 3952,
      "мчс": 3953,
      "той": 3954,
      "продукции": 3955,
      "##нюю": 3956,
      "арестов": 3957,
      "тек": 3958,
      "заре": 3959,
      "##ляции": 3960,
      "рекла": 3961,
      "##вив": 3962,
      "развед": 3963,
      "представителей": 3964,
      "сегодняш": 3965,
      "джон": 3966,
      "##лют": 3967,
      "соедин": 3968,
      "пригла": 3969,
      "бог": 3970,
      "вече": 3971,
      "использовать": 3972,
      "рубля": 3973,
      "бук": 3974,
      "контрак": 3975,
      "освобо": 3976,
      "заболев": 3977,
      "слишком": 3978,
      "##щу": 3979,
      "пора": 3980,
      "запро": 3981,
      "##зывать": 3982,
      "ских": 3983,
      "##гар": 3984,
      "девя": 3985,
      "алкого": 3986,
      "##ing": 3987,
      "брю": 3988,
      "нью": 3989,
      "##бран": 3990,
      "##тся": 3991,
      "инфра": 3992,
      "##енье": 3993,
      "самой": 3994,
      "пес": 3995,
      "депутатов": 3996,
      "пут": 3997,
      "культ": 3998,
      "плате": 3999,
      "метров": 4000,
      "тонн": 4001,
      "причиной": 4002,
      "ем": 4003,
      "пан": 4004,
      "##сон": 4005,
      "коле": 4006,
      "сом": 4007,
      "##ссов": 4008,
      "арен": 4009,
      "предусмот": 4010,
      "поезд": 4011,
      "##тили": 4012,
      "##ционного": 4013,
      "позже": 4014,
      "коммента": 4015,
      "дороги": 4016,
      "недели": 4017,
      "##одно": 4018,
      "преды": 4019,
      "правила": 4020,
      "шесть": 4021,
      "позиции": 4022,
      "активи": 4023,
      "##сет": 4024,
      "##пор": 4025,
      "кой": 4026,
      "зави": 4027,
      "##ческую": 4028,
      "инте": 4029,
      "руководство": 4030,
      "умер": 4031,
      "##ap": 4032,
      "##щать": 4033,
      "развитие": 4034,
      "прим": 4035,
      "198": 4036,
      "готовы": 4037,
      "отношений": 4038,
      "автомобилей": 4039,
      "36": 4040,
      "гло": 4041,
      "##леко": 4042,
      "целью": 4043,
      "профессиональ": 4044,
      "придется": 4045,
      "##рыв": 4046,
      "клуб": 4047,
      "предыду": 4048,
      "обсужда": 4049,
      "вд": 4050,
      "##пере": 4051,
      "одоб": 4052,
      "вместо": 4053,
      "губернатор": 4054,
      "свидетель": 4055,
      "конкрет": 4056,
      "ap": 4057,
      "дово": 4058,
      "##шать": 4059,
      "##цам": 4060,
      "##дел": 4061,
      "##тери": 4062,
      "рабочи": 4063,
      "самое": 4064,
      "процента": 4065,
      "победы": 4066,
      "распростран": 4067,
      "##оны": 4068,
      "##йдут": 4069,
      "партий": 4070,
      "конститу": 4071,
      "полномочи": 4072,
      "гран": 4073,
      "напа": 4074,
      "##лял": 4075,
      "услуг": 4076,
      "сергея": 4077,
      "##am": 4078,
      "игры": 4079,
      "десяти": 4080,
      "снова": 4081,
      "##тп": 4082,
      "##гре": 4083,
      "##инг": 4084,
      "##ческом": 4085,
      "силов": 4086,
      "происходит": 4087,
      "ученые": 4088,
      "евросою": 4089,
      "внов": 4090,
      "найти": 4091,
      "невозмо": 4092,
      "рядом": 4093,
      "телекана": 4094,
      "вновь": 4095,
      "профи": 4096,
      "фили": 4097,
      "международной": 4098,
      "активно": 4099,
      "бель": 4100,
      "##un": 4101,
      "##ительный": 4102,
      "шах": 4103,
      "бил": 4104,
      "##льную": 4105,
      "предприятия": 4106,
      "машины": 4107,
      "пожар": 4108,
      "%)": 4109,
      "##вшей": 4110,
      "##ur": 4111,
      "сосед": 4112,
      "рели": 4113,
      "##менты": 4114,
      "дево": 4115,
      "##туру": 4116,
      "властей": 4117,
      "жест": 4118,
      "испыт": 4119,
      "значит": 4120,
      "пришлось": 4121,
      "переговоров": 4122,
      "кв": 4123,
      "##юсь": 4124,
      "производство": 4125,
      "июня": 4126,
      "матч": 4127,
      "уди": 4128,
      "##вый": 4129,
      "##анах": 4130,
      "фигу": 4131,
      "яв": 4132,
      "##20": 4133,
      "зрения": 4134,
      "олег": 4135,
      "##жит": 4136,
      "##шев": 4137,
      "порта": 4138,
      "иван": 4139,
      "моби": 4140,
      "соглашение": 4141,
      "корре": 4142,
      "обнаружи": 4143,
      "маршру": 4144,
      "цер": 4145,
      "музыка": 4146,
      "фоне": 4147,
      "цвет": 4148,
      "##чное": 4149,
      "##тиков": 4150,
      "директора": 4151,
      "##ами": 4152,
      "##етов": 4153,
      "обязан": 4154,
      "саудов": 4155,
      "актер": 4156,
      "декабре": 4157,
      "театра": 4158,
      "обстоятель": 4159,
      "##ателем": 4160,
      "хок": 4161,
      "гаран": 4162,
      "матча": 4163,
      "телефон": 4164,
      "борьбе": 4165,
      "##нефти": 4166,
      "##ху": 4167,
      "доме": 4168,
      "странах": 4169,
      "конференции": 4170,
      "яко": 4171,
      "##ери": 4172,
      "побе": 4173,
      "мето": 4174,
      "края": 4175,
      "оказался": 4176,
      "документы": 4177,
      "алексе": 4178,
      "объектов": 4179,
      "гроз": 4180,
      "пои": 4181,
      "мой": 4182,
      "##жает": 4183,
      "интерн": 4184,
      "школы": 4185,
      "све": 4186,
      "##шу": 4187,
      "согласов": 4188,
      "депутаты": 4189,
      "председателя": 4190,
      "издание": 4191,
      "академи": 4192,
      "##ьера": 4193,
      "реда": 4194,
      "история": 4195,
      "футболи": 4196,
      "зрите": 4197,
      "заме": 4198,
      "прось": 4199,
      "выро": 4200,
      "факту": 4201,
      "господина": 4202,
      "##ook": 4203,
      "написал": 4204,
      "мит": 4205,
      "акций": 4206,
      "республикан": 4207,
      "норм": 4208,
      "фильма": 4209,
      "!\"": 4210,
      "##дых": 4211,
      "##лли": 4212,
      "отк": 4213,
      "стрем": 4214,
      "##арт": 4215,
      "размер": 4216,
      "##гами": 4217,
      "недавно": 4218,
      "##солют": 4219,
      "армии": 4220,
      "вопросам": 4221,
      "абсолют": 4222,
      "евгений": 4223,
      "ум": 4224,
      "##зем": 4225,
      "##анной": 4226,
      "сах": 4227,
      "главного": 4228,
      "автомобиля": 4229,
      "чуть": 4230,
      "внутри": 4231,
      "пооб": 4232,
      "##алы": 4233,
      "##разде": 4234,
      "предложения": 4235,
      "точки": 4236,
      "##ременно": 4237,
      "имеют": 4238,
      "заявления": 4239,
      "здания": 4240,
      "рекорд": 4241,
      "юриди": 4242,
      "болга": 4243,
      "ара": 4244,
      "сколько": 4245,
      "стандар": 4246,
      "международного": 4247,
      "министерство": 4248,
      "реализации": 4249,
      "косми": 4250,
      "остров": 4251,
      "али": 4252,
      "спрос": 4253,
      "минэ": 4254,
      "учиты": 4255,
      "процеду": 4256,
      "обнаружен": 4257,
      "дер": 4258,
      "##емся": 4259,
      "ночь": 4260,
      "автобу": 4261,
      "скр": 4262,
      "специалисты": 4263,
      "заседании": 4264,
      "великобритании": 4265,
      "##ционной": 4266,
      "следствия": 4267,
      "справедли": 4268,
      "вступ": 4269,
      "##его": 4270,
      "##атар": 4271,
      "зару": 4272,
      "одну": 4273,
      "##туаль": 4274,
      "документ": 4275,
      "конструк": 4276,
      "арбит": 4277,
      "наблюд": 4278,
      "семьи": 4279,
      "##лив": 4280,
      "инве": 4281,
      "северо": 4282,
      "компен": 4283,
      "санкций": 4284,
      "ответственность": 4285,
      "кер": 4286,
      "оль": 4287,
      "##ляется": 4288,
      "работают": 4289,
      "озна": 4290,
      "##кер": 4291,
      "планирует": 4292,
      "происшествия": 4293,
      "##ехал": 4294,
      "культур": 4295,
      "нарко": 4296,
      "хочет": 4297,
      "психо": 4298,
      "поле": 4299,
      "зай": 4300,
      "обмен": 4301,
      "гости": 4302,
      "##поли": 4303,
      "##силия": 4304,
      "маль": 4305,
      "##ченных": 4306,
      "твор": 4307,
      "яр": 4308,
      "##чную": 4309,
      "##стати": 4310,
      "реак": 4311,
      "марте": 4312,
      "предусмотрен": 4313,
      "запи": 4314,
      "##аков": 4315,
      "инвест": 4316,
      "нефтя": 4317,
      "циф": 4318,
      "мужчин": 4319,
      "уголовного": 4320,
      "замен": 4321,
      "изра": 4322,
      "нефте": 4323,
      "##личие": 4324,
      "33": 4325,
      "an": 4326,
      "еже": 4327,
      "сх": 4328,
      "убе": 4329,
      "##щена": 4330,
      "##лами": 4331,
      "взят": 4332,
      "водитель": 4333,
      "январе": 4334,
      "воскресенье": 4335,
      "##мон": 4336,
      "сильно": 4337,
      "домаш": 4338,
      "кстати": 4339,
      "остан": 4340,
      "сказала": 4341,
      "##нен": 4342,
      "##стями": 4343,
      "довольно": 4344,
      "##сах": 4345,
      "востоке": 4346,
      "подозреваем": 4347,
      "инвесто": 4348,
      "дтп": 4349,
      "оз": 4350,
      "причина": 4351,
      "включая": 4352,
      "##рода": 4353,
      "неу": 4354,
      "ната": 4355,
      "соп": 4356,
      "лидера": 4357,
      "##ственной": 4358,
      "скон": 4359,
      "принял": 4360,
      "##служи": 4361,
      "петербурге": 4362,
      "документов": 4363,
      "перспекти": 4364,
      "якобы": 4365,
      "##анка": 4366,
      "самые": 4367,
      "главное": 4368,
      "станции": 4369,
      "систему": 4370,
      "режима": 4371,
      "сайт": 4372,
      "смен": 4373,
      "поло": 4374,
      "фина": 4375,
      "распоря": 4376,
      "единой": 4377,
      "смерти": 4378,
      "департамента": 4379,
      "снача": 4380,
      "укреп": 4381,
      "##сад": 4382,
      "говорил": 4383,
      "сниз": 4384,
      "исключ": 4385,
      "рассказывает": 4386,
      "сначала": 4387,
      "агре": 4388,
      "режим": 4389,
      "московской": 4390,
      "грузов": 4391,
      "звезд": 4392,
      "##роде": 4393,
      "##чев": 4394,
      "заня": 4395,
      "зареги": 4396,
      "скую": 4397,
      "##дирек": 4398,
      "метал": 4399,
      "легко": 4400,
      "потре": 4401,
      "##чай": 4402,
      "микро": 4403,
      "таки": 4404,
      "сцена": 4405,
      "##мат": 4406,
      "награ": 4407,
      "##лат": 4408,
      "отдых": 4409,
      "выигра": 4410,
      "##мую": 4411,
      "верто": 4412,
      "##печат": 4413,
      "вокруг": 4414,
      "нане": 4415,
      "суп": 4416,
      "матче": 4417,
      "снижение": 4418,
      "устро": 4419,
      "##os": 4420,
      "##фин": 4421,
      "##рови": 4422,
      "##вшим": 4423,
      "последний": 4424,
      "воды": 4425,
      "##служа": 4426,
      "площади": 4427,
      "неделе": 4428,
      "военнослужа": 4429,
      "зву": 4430,
      "эле": 4431,
      "##ив": 4432,
      "##декс": 4433,
      "выраз": 4434,
      "любой": 4435,
      "николай": 4436,
      "определен": 4437,
      "контроли": 4438,
      "прямо": 4439,
      "столицы": 4440,
      "мировой": 4441,
      "оружия": 4442,
      "зарегистри": 4443,
      "юрий": 4444,
      "подразде": 4445,
      "лицен": 4446,
      "##фикси": 4447,
      "арти": 4448,
      "##ционных": 4449,
      "цион": 4450,
      "регуляр": 4451,
      "состоится": 4452,
      "равно": 4453,
      "отпра": 4454,
      "жало": 4455,
      "возглавля": 4456,
      "возбуждено": 4457,
      "брен": 4458,
      "##гер": 4459,
      "##стил": 4460,
      "предста": 4461,
      "конт": 4462,
      "стади": 4463,
      "##фиц": 4464,
      "приняли": 4465,
      "исследования": 4466,
      "комплекс": 4467,
      "зафикси": 4468,
      "линии": 4469,
      "начал": 4470,
      "факт": 4471,
      "участия": 4472,
      "минимум": 4473,
      "##слов": 4474,
      "##лега": 4475,
      "##мур": 4476,
      "военные": 4477,
      "эпи": 4478,
      "##im": 4479,
      "##анс": 4480,
      "обс": 4481,
      "автом": 4482,
      "управление": 4483,
      "предложил": 4484,
      "некоторых": 4485,
      "счит": 4486,
      "авиакомп": 4487,
      "##ch": 4488,
      "обнов": 4489,
      "##туре": 4490,
      "музе": 4491,
      "женщин": 4492,
      "##защ": 4493,
      "##сток": 4494,
      "годах": 4495,
      "спек": 4496,
      "адрес": 4497,
      "получила": 4498,
      "масштаб": 4499,
      "невозможно": 4500,
      "(\"": 4501,
      "face": 4502,
      "##лил": 4503,
      "##город": 4504,
      "крае": 4505,
      "соблю": 4506,
      "бро": 4507,
      "рио": 4508,
      "соответствии": 4509,
      "регули": 4510,
      "япон": 4511,
      "##сматри": 4512,
      "роли": 4513,
      "поддержки": 4514,
      "инфраструк": 4515,
      "мере": 4516,
      "##мень": 4517,
      "предложи": 4518,
      "##чиков": 4519,
      "новая": 4520,
      "контроль": 4521,
      "худож": 4522,
      "эки": 4523,
      "##book": 4524,
      "##ьми": 4525,
      "##ьют": 4526,
      "найд": 4527,
      "точно": 4528,
      "летнего": 4529,
      "программа": 4530,
      "утвержда": 4531,
      "решили": 4532,
      "медведев": 4533,
      "зво": 4534,
      "шу": 4535,
      "##едж": 4536,
      "##ровано": 4537,
      "израи": 4538,
      "держ": 4539,
      "сне": 4540,
      "фло": 4541,
      "##gh": 4542,
      "##москов": 4543,
      "лиги": 4544,
      "##щает": 4545,
      "летом": 4546,
      "реа": 4547,
      "автор": 4548,
      "банки": 4549,
      "защиты": 4550,
      "адвокат": 4551,
      "дво": 4552,
      "неодно": 4553,
      "комменти": 4554,
      "поса": 4555,
      "российским": 4556,
      "##говой": 4557,
      "составила": 4558,
      "кредитов": 4559,
      "совершенно": 4560,
      "вечером": 4561,
      "узна": 4562,
      "друга": 4563,
      "арт": 4564,
      "регионов": 4565,
      "встрече": 4566,
      "неделю": 4567,
      "ежегод": 4568,
      "полови": 4569,
      "##лян": 4570,
      "ликви": 4571,
      "темпера": 4572,
      "необходимости": 4573,
      "следую": 4574,
      "боевиков": 4575,
      "st": 4576,
      "двор": 4577,
      "оказ": 4578,
      "поступи": 4579,
      "позволит": 4580,
      "обвинения": 4581,
      "транспорта": 4582,
      "фсб": 4583,
      "##мых": 4584,
      "рассказала": 4585,
      "лекар": 4586,
      "##вшись": 4587,
      "бизнесмен": 4588,
      "##дж": 4589,
      "##la": 4590,
      "основе": 4591,
      "первым": 4592,
      "практи": 4593,
      "расследование": 4594,
      "злоу": 4595,
      "бур": 4596,
      "##иг": 4597,
      "##россий": 4598,
      "создать": 4599,
      "создание": 4600,
      "движение": 4601,
      "огранич": 4602,
      "энерго": 4603,
      "напря": 4604,
      "ущ": 4605,
      "уво": 4606,
      "наша": 4607,
      "##интере": 4608,
      "возоб": 4609,
      "социальной": 4610,
      "зен": 4611,
      "цска": 4612,
      "проком": 4613,
      "могу": 4614,
      "прокомменти": 4615,
      "##мос": 4616,
      "##купа": 4617,
      "кам": 4618,
      "##чив": 4619,
      "отмечают": 4620,
      "##ters": 4621,
      "расследования": 4622,
      "сена": 4623,
      "причаст": 4624,
      "строй": 4625,
      "разру": 4626,
      "ответственности": 4627,
      "губернатора": 4628,
      "днем": 4629,
      "##буд": 4630,
      "топли": 4631,
      "рассказали": 4632,
      "##пел": 4633,
      "официально": 4634,
      "московского": 4635,
      "феврале": 4636,
      "предполож": 4637,
      "зн": 4638,
      "ось": 4639,
      "эфи": 4640,
      "предъ": 4641,
      "констан": 4642,
      "мари": 4643,
      "паци": 4644,
      "сообщения": 4645,
      "погибших": 4646,
      "брази": 4647,
      "ближайшее": 4648,
      "конфликта": 4649,
      "facebook": 4650,
      "##зан": 4651,
      "##стям": 4652,
      "##анта": 4653,
      "вале": 4654,
      "экстре": 4655,
      "возобнов": 4656,
      "иран": 4657,
      "##служ": 4658,
      "публика": 4659,
      "института": 4660,
      "субботу": 4661,
      "##ed": 4662,
      "обстре": 4663,
      "бума": 4664,
      "всп": 4665,
      "фрон": 4666,
      "мон": 4667,
      "подряд": 4668,
      "##тера": 4669,
      "составил": 4670,
      "столице": 4671,
      "инцидент": 4672,
      "to": 4673,
      "пат": 4674,
      "общей": 4675,
      "мошен": 4676,
      "пассажиров": 4677,
      "##дают": 4678,
      "вик": 4679,
      "университета": 4680,
      "бир": 4681,
      "победу": 4682,
      "оказались": 4683,
      "постоянно": 4684,
      "##защит": 4685,
      "37": 4686,
      "виктор": 4687,
      "основном": 4688,
      "логи": 4689,
      "взаимодей": 4690,
      "##интересов": 4691,
      "плю": 4692,
      "##нит": 4693,
      "##нилось": 4694,
      "##вижи": 4695,
      "москву": 4696,
      "помог": 4697,
      "недвижи": 4698,
      "утром": 4699,
      "new": 4700,
      "согласи": 4701,
      "цик": 4702,
      "гуман": 4703,
      "удов": 4704,
      "фед": 4705,
      "поправ": 4706,
      "нег": 4707,
      "зависи": 4708,
      "посмот": 4709,
      "первое": 4710,
      "призвал": 4711,
      "женщины": 4712,
      "ma": 4713,
      "баш": 4714,
      "своими": 4715,
      "проектов": 4716,
      "тренер": 4717,
      "зарубе": 4718,
      "34": 4719,
      "ист": 4720,
      "последнее": 4721,
      "сделал": 4722,
      "обычно": 4723,
      "сезон": 4724,
      "корресп": 4725,
      "дни": 4726,
      "доля": 4727,
      "##волю": 4728,
      "##зацию": 4729,
      "ское": 4730,
      "руководителя": 4731,
      "дальше": 4732,
      "##раво": 4733,
      "##нах": 4734,
      "куз": 4735,
      "##тической": 4736,
      "групп": 4737,
      "ошиб": 4738,
      "спустя": 4739,
      "пом": 4740,
      "преми": 4741,
      "болез": 4742,
      "далее": 4743,
      "граждани": 4744,
      "удовлет": 4745,
      "ними": 4746,
      "##утки": 4747,
      "помога": 4748,
      "сумма": 4749,
      "конкурс": 4750,
      "корреспонд": 4751,
      "##ел": 4752,
      "боле": 4753,
      "##ходить": 4754,
      "види": 4755,
      "большая": 4756,
      "##овала": 4757,
      "техники": 4758,
      "которому": 4759,
      "сентябре": 4760,
      "отчет": 4761,
      "прилож": 4762,
      "моло": 4763,
      "меч": 4764,
      "опти": 4765,
      "хотят": 4766,
      "гендирек": 4767,
      "##лый": 4768,
      "выбра": 4769,
      "характер": 4770,
      "##зей": 4771,
      "##оры": 4772,
      "кабин": 4773,
      "следствие": 4774,
      "ир": 4775,
      "фрак": 4776,
      "##вался": 4777,
      "выру": 4778,
      "вырос": 4779,
      "каких": 4780,
      "##мый": 4781,
      "учетом": 4782,
      "##мать": 4783,
      "превра": 4784,
      "спортсменов": 4785,
      "сконча": 4786,
      "дать": 4787,
      "##илла": 4788,
      "основной": 4789,
      "водо": 4790,
      "оказалось": 4791,
      "журналистов": 4792,
      "всемир": 4793,
      "вя": 4794,
      "йор": 4795,
      "полет": 4796,
      "выска": 4797,
      "голосования": 4798,
      "app": 4799,
      "экипа": 4800,
      "хран": 4801,
      "##ое": 4802,
      "ноябре": 4803,
      "владе": 4804,
      "область": 4805,
      "жили": 4806,
      "международных": 4807,
      "##ателям": 4808,
      "мероприятия": 4809,
      "расходы": 4810,
      "казах": 4811,
      "становится": 4812,
      "напра": 4813,
      "протя": 4814,
      "знако": 4815,
      "привлек": 4816,
      "защи": 4817,
      "##телей": 4818,
      "аэропор": 4819,
      "ожидается": 4820,
      "оформ": 4821,
      "ул": 4822,
      "топ": 4823,
      "##циях": 4824,
      "##меть": 4825,
      "баррель": 4826,
      "приходится": 4827,
      "японии": 4828,
      "персона": 4829,
      "отпу": 4830,
      "тариф": 4831,
      "чаще": 4832,
      "##исков": 4833,
      "##гули": 4834,
      "197": 4835,
      "родствен": 4836,
      "ряда": 4837,
      "начальник": 4838,
      "фер": 4839,
      "##жный": 4840,
      "##uters": 4841,
      "сочи": 4842,
      "##емь": 4843,
      "##ждений": 4844,
      "сторону": 4845,
      "должность": 4846,
      "кандидатов": 4847,
      "обама": 4848,
      "reuters": 4849,
      "беженцев": 4850,
      "##жан": 4851,
      "оборо": 4852,
      "органы": 4853,
      "смогли": 4854,
      "собеседник": 4855,
      "вар": 4856,
      "паль": 4857,
      "уро": 4858,
      "##дд": 4859,
      "##пар": 4860,
      "##ментов": 4861,
      "##вели": 4862,
      "кие": 4863,
      "земли": 4864,
      "##снов": 4865,
      "##щему": 4866,
      "подня": 4867,
      "отметили": 4868,
      "общество": 4869,
      "предложение": 4870,
      "модель": 4871,
      "проз": 4872,
      "##емой": 4873,
      "море": 4874,
      "##стами": 4875,
      "маг": 4876,
      "пав": 4877,
      "серд": 4878,
      "форма": 4879,
      "правоохранительных": 4880,
      "швей": 4881,
      "##ропо": 4882,
      "##зация": 4883,
      "перевод": 4884,
      "регистра": 4885,
      "##мбар": 4886,
      "утра": 4887,
      "указыва": 4888,
      "##кнов": 4889,
      "простран": 4890,
      "существует": 4891,
      "прежнему": 4892,
      "глоб": 4893,
      "ай": 4894,
      "##лье": 4895,
      "##гор": 4896,
      "проходит": 4897,
      "##стили": 4898,
      "позволяет": 4899,
      "октябре": 4900,
      "гар": 4901,
      "полов": 4902,
      "##вило": 4903,
      "решил": 4904,
      "лавров": 4905,
      "ch": 4906,
      "татар": 4907,
      "##ada": 4908,
      "##одо": 4909,
      "##дий": 4910,
      "##чика": 4911,
      "##утся": 4912,
      "люби": 4913,
      "арх": 4914,
      "американских": 4915,
      "системе": 4916,
      "круг": 4917,
      "выпуск": 4918,
      "катастро": 4919,
      "##риев": 4920,
      "##дума": 4921,
      "стаби": 4922,
      "##ционный": 4923,
      "военного": 4924,
      "форму": 4925,
      "капита": 4926,
      "##ющая": 4927,
      "присо": 4928,
      "##тый": 4929,
      "уре": 4930,
      "хв": 4931,
      "##мар": 4932,
      "##анный": 4933,
      "навер": 4934,
      "страну": 4935,
      "sp": 4936,
      "бри": 4937,
      "хра": 4938,
      "задол": 4939,
      "лично": 4940,
      "новую": 4941,
      "проверки": 4942,
      "комплекса": 4943,
      "продолжает": 4944,
      "различных": 4945,
      "эрдо": 4946,
      "38": 4947,
      "##рост": 4948,
      "заинтересов": 4949,
      "рав": 4950,
      "государственного": 4951,
      "апреле": 4952,
      "госдуму": 4953,
      "мель": 4954,
      "##щены": 4955,
      "доказ": 4956,
      "##ждены": 4957,
      "сиг": 4958,
      "##зыск": 4959,
      "новое": 4960,
      "шести": 4961,
      "кандидат": 4962,
      "итальян": 4963,
      "спарта": 4964,
      "сторона": 4965,
      "учеб": 4966,
      "раскры": 4967,
      "400": 4968,
      "##емый": 4969,
      "##бом": 4970,
      "первая": 4971,
      "рус": 4972,
      "военной": 4973,
      "##минает": 4974,
      "борьбы": 4975,
      "кризис": 4976,
      "трени": 4977,
      "симво": 4978,
      "##тации": 4979,
      "донец": 4980,
      "назначен": 4981,
      "труда": 4982,
      "##ностей": 4983,
      "пропу": 4984,
      "##вались": 4985,
      "сообще": 4986,
      "##деть": 4987,
      "команду": 4988,
      "##лайн": 4989,
      "уви": 4990,
      "##тории": 4991,
      "фактически": 4992,
      "состояние": 4993,
      "ленин": 4994,
      "гуманитар": 4995,
      "##нику": 4996,
      "избе": 4997,
      "##хода": 4998,
      "главе": 4999
    }
  }
}