[UNK]	0
[CLS]	1
[SEP]	2
[PAD]	3
[MASK]	4
!	5
"	6
#	7
$	8
%	9
&	10
'	11
(	12
)	13
*	14
+	15
,	16
-	17
.	18
/	19
0	20
1	21
2	22
3	23
4	24
5	25
6	26
7	27
8	28
9	29
:	30
;	31
<	32
=	33
>	34
?	35
@	36
[	37
\	38
]	39
_	40
`	41
a	42
b	43
c	44
d	45
e	46
f	47
g	48
h	49
i	50
j	51
k	52
l	53
m	54
n	55
o	56
p	57
q	58
r	59
s	60
t	61
u	62
v	63
w	64
x	65
y	66
z	67
~	68
	69
£	70
¤	71
¥	72
¦	73
§	74
©	75
¬	76
­	77
°	78
·	79
×	80
ß	81
à	82
á	83
ä	84
ç	85
è	86
é	87
ê	88
ë	89
í	90
ð	91
ó	92
ô	93
õ	94
ö	95
ø	96
ü	97
þ	98
ā	99
ę	100
ī	101
ı	102
ł	103
ń	104
ŏ	105
ś	106
ş	107
š	108
ʀ	109
ʼ	110
́	111
̆	112
̇	113
̈	114
̊	115
έ	116
α	117
β	118
γ	119
η	120
λ	121
μ	122
ν	123
ο	124
ρ	125
σ	126
τ	127
χ	128
ώ	129
а	130
б	131
в	132
г	133
д	134
е	135
ж	136
з	137
и	138
й	139
к	140
л	141
м	142
н	143
о	144
п	145
р	146
с	147
т	148
у	149
ф	150
х	151
ц	152
ч	153
ш	154
щ	155
ъ	156
ы	157
ь	158
э	159
ю	160
я	161
є	162
і	163
ї	164
ў	165
џ	166
ғ	167
қ	168
ҳ	169
ӣ	170
‍	171
‎	172
‐	173
‒	174
―	175
•	176
‪	177
‬	178
′	179
⁄	180
€	181
→	182
−	183
∙	184
⋅	185
─	186
■	187
▲	188
►	189
●	190
☃	191
☝	192
♫	193
⚽	194
❄	195
《	196
》	197
	198
️	199
🌞	200
🍺	201
🎂	202
🐅	203
🐗	204
🐺	205
💪	206
😂	207
🙈	208
##т	209
##е	210
##н	211
##д	212
##ы	213
##9	214
##5	215
##7	216
##и	217
##с	218
##а	219
##п	220
##у	221
##л	222
##ь	223
##р	224
##о	225
##х	226
##в	227
##ш	228
##й	229
##ю	230
##ц	231
##б	232
##я	233
##к	234
##г	235
##м	236
##ж	237
##m	238
##g	239
##щ	240
##ч	241
##з	242
##ф	243
##a	244
##b	245
##o	246
##c	247
##l	248
##n	249
##i	250
##k	251
##2	252
##f	253
##э	254
##1	255
##.	256
##u	257
##h	258
##r	259
##p	260
##s	261
##q	262
##e	263
##d	264
##4	265
##6	266
##0	267
##8	268
##3	269
##t	270
##z	271
##́	272
##w	273
##v	274
##y	275
##ъ	276
##-	277
##!	278
##"	279
##­	280
##і	281
##j	282
##x	283
##/	284
##$	285
##ν	286
##τ	287
##ο	288
##μ	289
##]	290
##_	291
##š	292
##ö	293
##ü	294
##è	295
##é	296
##)	297
##,	298
##õ	299
##*	300
##ó	301
##ў	302
##қ	303
##ä	304
##~	305
##:	306
##%	307
##;	308
##€	309
##☃	310
##❄	311
##ô	312
##ρ	313
##ώ	314
##α	315
###	316
##ê	317
##ʼ	318
##😂	319
##ҳ	320
##‬	321
##ї	322
##ғ	323
##є	324
##▲	325
##′	326
##[	327
##?	328
##⚽	329
##ß	330
##=	331
##>	332
##ı	333
##ş	334
##🐺	335
##🐅	336
##🎂	337
##🍺	338
##ŏ	339
##'	340
##ð	341
##í	342
##ʀ	343
##ī	344
##ā	345
##ę	346
##@	347
##+	348
##−	349
##þ	350
##à	351
##ś	352
##ń	353
##ë	354
##̇	355
##‎	356
##γ	357
##έ	358
##η	359
##σ	360
##ø	361
##ç	362
##ст	363
##ен	364
##ов	365
##ра	366
##но	367
по	368
##то	369
##ро	370
##ре	371
##ан	372
на	373
##ет	374
##ли	375
##ль	376
##ри	377
##ко	378
##го	379
##ер	380
##ны	381
##ит	382
##ла	383
##ни	384
##ат	385
##ени	386
##ки	387
##ле	388
##ка	389
ко	390
не	391
##од	392
##на	393
за	394
##ло	395
##ся	396
##ци	397
##ств	398
##ти	399
со	400
про	401
##ем	402
##сс	403
ра	404
##та	405
##да	406
об	407
##ру	408
##ми	409
до	410
##ани	411
##ва	412
от	413
##ля	414
##ей	415
что	416
##ров	417
при	418
пре	419
##ско	420
во	421
##ор	422
##ин	423
##ак	424
##ель	425
##сти	426
##мо	427
##во	428
ре	429
##че	430
ро	431
то	432
##де	433
вы	434
из	435
##ви	436
##ать	437
мо	438
##ения	439
##не	440
##ры	441
##ски	442
##ча	443
это	444
##ной	445
##ных	446
##сси	447
##ста	448
##сп	449
бы	450
##ед	451
##бо	452
ст	453
##сь	454
##за	455
##ку	456
##ере	457
##ного	458
##ар	459
го	460
##ди	461
##лу	462
##же	463
##ду	464
##ги	465
##ма	466
##ть	467
##ков	468
##ме	469
под	470
росси	471
##мен	472
##об	473
##сто	474
##ют	475
##ение	476
год	477
но	478
##ил	479
##ции	480
##се	481
##ве	482
##ить	483
##лов	484
бо	485
де	486
##он	487
##ные	488
кото	489
##сть	490
##му	491
пред	492
ка	493
##ный	494
ми	495
##ши	496
##по	497
##щи	498
20	499
##зи	500
раз	501
##ово	502
##ну	503
ин	504
ме	505
##ще	506
##ек	507
##па	508
##чи	509
##ент	510
##ам	511
##ется	512
",	513
##ал	514
##ня	515
##итель	516
ком	517
##рав	518
##уд	519
##ход	520
##те	521
##уб	522
ни	523
ли	524
как	525
##ран	526
##ше	527
те	528
##ным	529
пере	530
##си	531
##ской	532
так	533
##ут	534
для	535
все	536
кон	537
##га	538
##ря	539
##ск	540
##пи	541
##ания	542
##жи	543
##до	544
##лен	545
од	546
##став	547
##вы	548
##ур	549
##ства	550
пос	551
201	552
##ят	553
сво	554
се	555
##ство	556
##ствен	557
ма	558
са	559
##из	560
которы	561
##са	562
##жно	563
та	564
##ского	565
##бы	566
##жд	567
##ке	568
он	569
си	570
ста	571
бе	572
##би	573
##аль	574
##ту	575
года	576
воз	577
сп	578
##вер	579
##су	580
##ев	581
##тов	582
##ном	583
##ите	584
сооб	585
".	586
##ате	587
##лю	588
##ты	589
оп	590
##кра	591
его	592
россии	593
##лей	594
сто	595
##гра	596
##али	597
##зы	598
##лед	599
##ности	600
##нов	601
##ении	602
##чен	603
##ых	604
##каза	605
##ша	606
##ских	607
##лек	608
##ная	609
рабо	610
пер	611
##про	612
##ска	613
##сту	614
##ща	615
##тив	616
##ное	617
ве	618
стра	619
да	620
че	621
##она	622
##ция	623
дол	624
гла	625
##ред	626
##жа	627
##мы	628
су	629
##фи	630
ав	631
##лько	632
##ание	633
ос	634
##дер	635
##кой	636
##рем	637
па	638
##ета	639
##стан	640
##ник	641
сов	642
россий	643
комп	644
хо	645
##ита	646
##зов	647
##ую	648
##ании	649
буд	650
##ом	651
ви	652
пра	653
##мер	654
##ба	655
ру	656
##атель	657
##ский	658
зая	659
мы	660
также	661
##зу	662
ча	663
вла	664
же	665
##сов	666
пров	667
поли	668
этом	669
полу	670
руб	671
ди	672
##ления	673
слу	674
боль	675
##це	676
##ые	677
##вил	678
##жен	679
##бе	680
##гда	681
##рии	682
##род	683
ор	684
##стви	685
##мет	686
##жет	687
будет	688
##спо	689
##ность	690
расс	691
ак	692
##ый	693
лет	694
лю	695
##лн	696
##вод	697
##лись	698
##ром	699
году	700
##нист	701
##зид	702
##лось	703
##ком	704
дру	705
##рит	706
бу	707
##гла	708
##ис	709
##ную	710
##тор	711
врем	712
презид	713
пу	714
##ень	715
##вет	716
##дар	717
ев	718
га	719
##том	720
##гу	721
##ера	722
##сли	723
ан	724
ва	725
##руп	726
пар	727
##ним	728
после	729
##прав	730
уже	731
укра	732
##со	733
##ению	734
##пу	735
##зд	736
##тер	737
эк	738
му	739
ку	740
##ющи	741
объ	742
орг	743
##вать	744
##фор	745
##лся	746
уча	747
##цию	748
##ана	749
нов	750
##лее	751
##каз	752
##ца	753
##ений	754
##рой	755
было	756
был	757
##ские	758
их	759
ле	760
челов	761
##коно	762
##вя	763
##гов	764
ты	765
##при	766
дан	767
фи	768
ново	769
обра	770
##ане	771
ар	772
##лож	773
прав	774
без	775
##ати	776
ки	777
время	778
том	779
гра	780
произ	781
сер	782
тре	783
##ву	784
которые	785
##стоя	786
##лась	787
еще	788
##ника	789
меж	790
они	791
или	792
сч	793
чем	794
слов	795
представ	796
реш	797
##анд	798
тер	799
##ются	800
##руд	801
само	802
##кан	803
##вши	804
##ступ	805
##чно	806
обла	807
только	808
нача	809
если	810
##год	811
авто	812
##яб	813
##ится	814
##вля	815
##сы	816
##стре	817
##ников	818
##пре	819
ба	820
##лет	821
##циаль	822
##ата	823
евро	824
##ой	825
более	826
зна	827
##бу	828
##ление	829
между	830
вер	831
##зыва	832
сша	833
##зна	834
пов	835
ско	836
чтобы	837
может	838
##цион	839
##кры	840
##ента	841
##мот	842
кра	843
того	844
пе	845
19	846
моск	847
##станов	848
бан	849
##ском	850
тем	851
госу	852
минист	853
ее	854
исто	855
##ге	856
государ	857
##льт	858
##ней	859
##рий	860
##иту	861
##казал	862
##ская	863
органи	864
буду	865
были	866
##шен	867
мар	868
##держ	869
##кт	870
##тиче	871
##рен	872
сообща	873
10	874
дей	875
##ова	876
сообщ	877
вед	878
##дет	879
мин	880
##сте	881
##убли	882
ом	883
ту	884
гово	885
который	886
##хо	887
2016	888
##пас	889
эти	890
##ких	891
пол	892
цент	893
сам	894
##ники	895
реги	896
вз	897
свя	898
##ым	899
есть	900
##цы	901
испо	902
суд	903
рф	904
##ству	905
им	906
одна	907
она	908
тех	909
отно	910
##сед	911
пи	912
пл	913
мен	914
алек	915
##вед	916
вопро	917
##ональ	918
##кон	919
##лом	920
тра	921
##стра	922
ры	923
##кономи	924
##стов	925
фе	926
россия	927
свои	928
помо	929
возмо	930
##ена	931
ну	932
согла	933
##ити	934
когда	935
##дера	936
##стве	937
президент	938
##ходи	939
сот	940
спе	941
основ	942
отмет	943
ри	944
##бор	945
сред	946
заявил	947
##ледов	948
эксп	949
##ха	950
##аться	951
##форма	952
ус	953
##пер	954
##рд	955
человек	956
##орт	957
экономи	958
мог	959
ов	960
жи	961
##яти	962
##ман	963
).	964
дет	965
ране	966
ранее	967
сей	968
##пы	969
##кие	970
##ены	971
##шения	972
##ций	973
##стро	974
##вест	975
груп	976
##вал	977
##клю	978
соб	979
этого	980
##рован	981
##ью	982
ад	983
##ему	984
##ября	985
##яс	986
##годня	987
резу	988
сегодня	989
организа	990
##мери	991
##ды	992
информа	993
алекс	994
лу	995
##тин	996
прош	997
##час	998
##ску	999
чет	1000
други	1001
чис	1002
##тро	1003
сторо	1004
вс	1005
сейчас	1006
проек	1007
##en	1008
результ	1009
глав	1010
##мент	1011
##мента	1012
послед	1013
словам	1014
горо	1015
кар	1016
газ	1017
##дает	1018
влади	1019
##ний	1020
##сла	1021
##гово	1022
##спе	1023
сотруд	1024
##ением	1025
дела	1026
области	1027
##цев	1028
2015	1029
обо	1030
##лич	1031
##пе	1032
получ	1033
##er	1034
правитель	1035
##чень	1036
интер	1037
##рия	1038
воен	1039
##оне	1040
##ствия	1041
стро	1042
ru	1043
ся	1044
млн	1045
##логи	1046
##сков	1047
день	1048
##вает	1049
служ	1050
##льно	1051
##00	1052
однако	1053
будут	1054
была	1055
амери	1056
федера	1057
##тра	1058
можно	1059
##ье	1060
украин	1061
##тора	1062
рас	1063
пока	1064
обще	1065
##ителя	1066
##льзов	1067
счита	1068
##аний	1069
приня	1070
##вести	1071
##ским	1072
сде	1073
очень	1074
##ние	1075
##ителей	1076
возможно	1077
аг	1078
поч	1079
##ковод	1080
гражд	1081
##шего	1082
##дол	1083
##кий	1084
род	1085
),	1086
##от	1087
стан	1088
первы	1089
украи	1090
тур	1091
владими	1092
мед	1093
руковод	1094
##цу	1095
ла	1096
##ках	1097
##вой	1098
явля	1099
неско	1100
##оде	1101
где	1102
##ять	1103
деп	1104
случа	1105
быть	1106
##тому	1107
работа	1108
##сно	1109
##кла	1110
иг	1111
##дов	1112
##кого	1113
компании	1114
рублей	1115
##аты	1116
проб	1117
сист	1118
фин	1119
один	1120
15	1121
рай	1122
ду	1123
##ших	1124
##ными	1125
##лы	1126
встре	1127
пла	1128
ген	1129
которо	1130
страны	1131
##рек	1132
мил	1133
##бира	1134
сем	1135
##иться	1136
против	1137
мл	1138
##аны	1139
##итуа	1140
кор	1141
управ	1142
##вин	1143
нет	1144
вод	1145
##лем	1146
обе	1147
ситуа	1148
млрд	1149
больш	1150
##ровать	1151
два	1152
##нее	1153
уч	1154
участ	1155
производ	1156
кро	1157
говорит	1158
##нали	1159
офи	1160
##ремен	1161
всего	1162
##нес	1163
##нер	1164
##лага	1165
це	1166
##ta	1167
даже	1168
##народ	1169
сообщает	1170
##рь	1171
глава	1172
долж	1173
право	1174
нас	1175
них	1176
##ким	1177
тран	1178
##чь	1179
вто	1180
жиз	1181
##ене	1182
пет	1183
тыся	1184
этот	1185
дву	1186
ло	1187
поз	1188
##твер	1189
##ители	1190
напо	1191
оста	1192
необ	1193
##щен	1194
американ	1195
##рабо	1196
состав	1197
##чение	1198
##ствов	1199
##ительно	1200
##стран	1201
милли	1202
##атери	1203
сан	1204
##им	1205
##коло	1206
##ятель	1207
уда	1208
парти	1209
##грам	1210
##бов	1211
откры	1212
##смот	1213
##нии	1214
кри	1215
пресс	1216
##шей	1217
име	1218
##рито	1219
##ете	1220
международ	1221
много	1222
неф	1223
фор	1224
гос	1225
##рова	1226
##чер	1227
отме	1228
террито	1229
##чения	1230
финан	1231
александ	1232
три	1233
оче	1234
##ях	1235
##цен	1236
##вар	1237
ответ	1238
доро	1239
##вали	1240
фо	1241
##тере	1242
больше	1243
систем	1244
продол	1245
наход	1246
извест	1247
бли	1248
сре	1249
##жения	1250
##ться	1251
разв	1252
##нима	1253
тор	1254
тыс	1255
##кая	1256
сле	1257
президента	1258
##дель	1259
необходи	1260
##пла	1261
##рак	1262
##тре	1263
около	1264
опера	1265
готов	1266
фак	1267
сказал	1268
##ческой	1269
##ья	1270
##щей	1271
##фе	1272
##рая	1273
##моби	1274
чере	1275
полити	1276
200	1277
поб	1278
данным	1279
ию	1280
могут	1281
мат	1282
##тя	1283
наз	1284
след	1285
##бя	1286
##сса	1287
12	1288
смо	1289
пло	1290
##йте	1291
доку	1292
вой	1293
несколько	1294
созд	1295
##вила	1296
##шь	1297
отмеча	1298
люд	1299
отнош	1300
##яв	1301
бю	1302
кры	1303
уров	1304
##лови	1305
автомоби	1306
рын	1307
ше	1308
##него	1309
##сты	1310
##льного	1311
##рует	1312
##прияти	1313
##ское	1314
ша	1315
пор	1316
госп	1317
кли	1318
##рук	1319
програм	1320
граждан	1321
украины	1322
##мест	1323
вопрос	1324
кан	1325
##on	1326
##опас	1327
респ	1328
##вили	1329
##хов	1330
кто	1331
которая	1332
##нил	1333
##жение	1334
##ниче	1335
жен	1336
экспер	1337
решение	1338
заяв	1339
перед	1340
##шел	1341
##жда	1342
##пис	1343
##анию	1344
челове	1345
##раз	1346
эта	1347
сообщил	1348
ито	1349
меся	1350
депут	1351
ря	1352
##говор	1353
агент	1354
участи	1355
прода	1356
сни	1357
проц	1358
высо	1359
кроме	1360
через	1361
##ети	1362
состоя	1363
##иты	1364
ок	1365
##лия	1366
мест	1367
всех	1368
источ	1369
наци	1370
развити	1371
ши	1372
сдела	1373
##щего	1374
спо	1375
##емо	1376
безопас	1377
##онов	1378
фран	1379
поддерж	1380
##вно	1381
##ерб	1382
##оз	1383
мол	1384
имен	1385
отметил	1386
сообщи	1387
власти	1388
мн	1389
кол	1390
##вают	1391
би	1392
город	1393
##мит	1394
##вший	1395
круп	1396
##полн	1397
##хи	1398
##..	1399
##торы	1400
##ьер	1401
над	1402
##хран	1403
сек	1404
соот	1405
##стей	1406
##щих	1407
##лаго	1408
уго	1409
##цией	1410
##рори	1411
направ	1412
30	1413
ци	1414
место	1415
перво	1416
чемпи	1417
вме	1418
мно	1419
ян	1420
республи	1421
является	1422
официаль	1423
установ	1424
##рон	1425
которых	1426
свое	1427
##ряд	1428
луч	1429
напом	1430
нару	1431
##ено	1432
дви	1433
##шение	1434
ави	1435
государствен	1436
ны	1437
##нут	1438
##реде	1439
виде	1440
дирек	1441
соответ	1442
##минист	1443
##инов	1444
##ющих	1445
города	1446
провед	1447
приз	1448
расп	1449
##нич	1450
побед	1451
##яз	1452
##ляет	1453
совер	1454
этой	1455
матери	1456
##нем	1457
##ям	1458
##льной	1459
11	1460
##чу	1461
##министра	1462
##льный	1463
##соб	1464
прем	1465
работ	1466
##казыва	1467
спи	1468
##ческих	1469
интере	1470
##ентов	1471
зани	1472
законо	1473
владимир	1474
себя	1475
центра	1476
##ровал	1477
кур	1478
иск	1479
двух	1480
##ился	1481
следу	1482
террори	1483
меня	1484
ха	1485
##рос	1486
сы	1487
##ждения	1488
запре	1489
жур	1490
##ствую	1491
совет	1492
произо	1493
свою	1494
бор	1495
теле	1496
там	1497
соста	1498
##пол	1499
мет	1500
пробле	1501
биз	1502
##ческого	1503
сирии	1504
##работ	1505
##ния	1506
##дин	1507
##туры	1508
мак	1509
бюд	1510
##мп	1511
ти	1512
числе	1513
тысяч	1514
##лого	1515
режи	1516
18	1517
##анов	1518
##енно	1519
бое	1520
##пад	1521
##скую	1522
##лении	1523
...	1524
##точ	1525
##бра	1526
##зя	1527
##атов	1528
##неш	1529
позво	1530
дж	1531
уве	1532
поэ	1533
##тен	1534
ен	1535
##них	1536
благо	1537
##ателя	1538
##зе	1539
дело	1540
авиа	1541
##бой	1542
передает	1543
ль	1544
муж	1545
член	1546
стал	1547
##рей	1548
кита	1549
сил	1550
строитель	1551
##льных	1552
каче	1553
дмит	1554
стать	1555
использов	1556
фон	1557
шко	1558
ал	1559
нико	1560
сент	1561
комит	1562
##треб	1563
##гиб	1564
националь	1565
задерж	1566
##ному	1567
##an	1568
##атри	1569
дома	1570
2014	1571
чу	1572
##щения	1573
##лья	1574
ран	1575
##щее	1576
##вая	1577
получи	1578
господ	1579
##чин	1580
голо	1581
услови	1582
##чина	1583
##ством	1584
част	1585
дека	1586
квар	1587
##in	1588
##бод	1589
погиб	1590
доба	1591
выбо	1592
прове	1593
гор	1594
администра	1595
просто	1596
плани	1597
##един	1598
сро	1599
мер	1600
компания	1601
25	1602
##лит	1603
##орта	1604
министр	1605
##ятся	1606
##ходит	1607
ный	1608
ему	1609
москве	1610
очеред	1611
обвин	1612
апре	1613
прод	1614
москов	1615
##шие	1616
собствен	1617
сбор	1618
##рил	1619
бра	1620
элек	1621
именно	1622
сми	1623
новости	1624
уголов	1625
многи	1626
декаб	1627
зем	1628
##слу	1629
##мости	1630
##фер	1631
##рах	1632
работы	1633
##кну	1634
##ствие	1635
##гей	1636
ные	1637
##шли	1638
актив	1639
своей	1640
заклю	1641
##куп	1642
цен	1643
##enta	1644
окт	1645
##готов	1646
безопасности	1647
##лим	1648
##евра	1649
##ностью	1650
оказа	1651
##вые	1652
даль	1653
связ	1654
среди	1655
нор	1656
16	1657
##чет	1658
предлож	1659
##чем	1660
ги	1661
результате	1662
стран	1663
##овой	1664
##кам	1665
февра	1666
зат	1667
друго	1668
##зда	1669
проду	1670
долла	1671
суще	1672
##щий	1673
##шин	1674
должны	1675
ге	1676
lenta	1677
ск	1678
обяз	1679
опреде	1680
##ющий	1681
##рово	1682
стороны	1683
конку	1684
янва	1685
должно	1686
провод	1687
предпо	1688
поэтому	1689
еди	1690
рез	1691
чер	1692
уг	1693
##или	1694
##кое	1695
хоро	1696
##мость	1697
контро	1698
призна	1699
которой	1700
исп	1701
часть	1702
##нк	1703
сергей	1704
##йти	1705
##сит	1706
##тон	1707
13	1708
защ	1709
проис	1710
настоя	1711
образ	1712
##ссии	1713
связи	1714
##дом	1715
политиче	1716
##кин	1717
мира	1718
людей	1719
##фф	1720
измен	1721
спорт	1722
вели	1723
тасс	1724
ино	1725
##лимпи	1726
меди	1727
русс	1728
14	1729
нам	1730
17	1731
нау	1732
коман	1733
помощ	1734
зд	1735
ной	1736
нужно	1737
##ступа	1738
##or	1739
наде	1740
других	1741
##вра	1742
##рить	1743
деятель	1744
##ший	1745
российской	1746
четы	1747
него	1748
##ателей	1749
##роб	1750
##ске	1751
путин	1752
неко	1753
фото	1754
напомним	1755
тогда	1756
трансп	1757
##зации	1758
кла	1759
##нь	1760
неза	1761
александр	1762
коне	1763
преступ	1764
филь	1765
##личе	1766
##ющие	1767
ных	1768
случае	1769
занима	1770
##чной	1771
восто	1772
чемпион	1773
европ	1774
пен	1775
##лог	1776
площа	1777
##лон	1778
вра	1779
всем	1780
ули	1781
##лан	1782
кред	1783
деся	1784
##пра	1785
люди	1786
ведом	1787
обеспе	1788
успе	1789
премьер	1790
анд	1791
организации	1792
сум	1793
парла	1794
##кс	1795
фут	1796
##воз	1797
социаль	1798
рей	1799
##es	1800
рам	1801
ходе	1802
##циали	1803
риа	1804
территории	1805
канди	1806
тя	1807
стар	1808
##ници	1809
##вается	1810
##щение	1811
ожи	1812
нем	1813
футбо	1814
подчер	1815
представитель	1816
##строй	1817
жизни	1818
гру	1819
марта	1820
человека	1821
российских	1822
рассказал	1823
лишь	1824
##ерж	1825
стали	1826
журнали	1827
50	1828
показ	1829
продук	1830
пери	1831
##ar	1832
вот	1833
став	1834
тепер	1835
четыре	1836
теперь	1837
напри	1838
например	1839
##тно	1840
##рию	1841
способ	1842
которого	1843
##ган	1844
партии	1845
##вок	1846
прив	1847
##тить	1848
##мов	1849
аэ	1850
знач	1851
почти	1852
бар	1853
обы	1854
##мина	1855
европей	1856
первый	1857
стало	1858
лег	1859
исс	1860
председ	1861
счет	1862
мнению	1863
мне	1864
##ссе	1865
считает	1866
огра	1867
ная	1868
неде	1869
##раб	1870
аль	1871
##ружи	1872
поя	1873
##лез	1874
вос	1875
##кре	1876
##рую	1877
##мой	1878
##атели	1879
закон	1880
##рования	1881
сокра	1882
ного	1883
новые	1884
момент	1885
##рев	1886
ника	1887
своих	1888
подтвер	1889
четвер	1890
особ	1891
количе	1892
свобод	1893
##шая	1894
клу	1895
##вших	1896
объем	1897
электро	1898
пы	1899
##рот	1900
министер	1901
гу	1902
ход	1903
##вор	1904
осу	1905
##сут	1906
##ору	1907
исследов	1908
объек	1909
олимпи	1910
чи	1911
насе	1912
преду	1913
каж	1914
зо	1915
##щем	1916
москвы	1917
кандид	1918
##ляр	1919
повы	1920
конце	1921
проце	1922
внут	1923
##щие	1924
##нет	1925
ог	1926
сло	1927
##вид	1928
кру	1929
##спек	1930
обсу	1931
подготов	1932
фа	1933
образов	1934
поль	1935
прак	1936
##ственно	1937
госду	1938
##емон	1939
мир	1940
дости	1941
##личи	1942
коми	1943
специали	1944
пози	1945
некоторы	1946
отношении	1947
##le	1948
пути	1949
проку	1950
пояс	1951
шт	1952
##ербур	1953
постав	1954
##льные	1955
петербур	1956
##ложен	1957
##тель	1958
22	1959
##над	1960
##анием	1961
##лев	1962
зде	1963
ив	1964
главы	1965
детей	1966
реали	1967
части	1968
провер	1969
##ату	1970
гер	1971
##лены	1972
##ствует	1973
здесь	1974
##роны	1975
называ	1976
##ее	1977
период	1978
##чки	1979
инст	1980
обществен	1981
стране	1982
##дут	1983
такой	1984
##ками	1985
кос	1986
24	1987
пример	1988
##шим	1989
выход	1990
правительства	1991
зако	1992
ради	1993
##торов	1994
стои	1995
российского	1996
предприяти	1997
сти	1998
игра	1999
##ерна	2000
прог	2001
апреля	2002
##ток	2003
##датель	2004
##цей	2005
авгу	2006
страна	2007
инф	2008
мур	2009
прекра	2010
ссы	2011
бал	2012
уби	2013
завер	2014
##лин	2015
банк	2016
вклю	2017
2017	2018
говорится	2019
дмитрий	2020
потому	2021
государства	2022
сентября	2023
##рета	2024
комплек	2025
требов	2026
суб	2027
анти	2028
одной	2029
21	2030
##тически	2031
полож	2032
обна	2033
окру	2034
сою	2035
надо	2036
отде	2037
источник	2038
##ант	2039
должен	2040
вместе	2041
утвер	2042
зан	2043
##той	2044
санк	2045
##тия	2046
##убликов	2047
##чных	2048
реб	2049
##ню	2050
##щая	2051
конкур	2052
##стана	2053
произош	2054
назна	2055
исклю	2056
генера	2057
##вшего	2058
##ницу	2059
подоз	2060
наза	2061
бизнес	2062
смог	2063
кредит	2064
вним	2065
##пара	2066
участие	2067
времен	2068
рамках	2069
хотя	2070
докумен	2071
иностран	2072
сообщили	2073
##ритель	2074
##ьез	2075
##тура	2076
оцен	2077
##ческие	2078
треть	2079
сод	2080
проект	2081
энер	2082
наб	2083
слова	2084
пенси	2085
##йд	2086
##гам	2087
##чат	2088
предо	2089
другие	2090
##ерт	2091
мая	2092
##al	2093
доста	2094
постра	2095
##рин	2096
губ	2097
вол	2098
идет	2099
##вых	2100
торгов	2101
##разу	2102
##жден	2103
таким	2104
##держи	2105
менее	2106
##фа	2107
управления	2108
##охран	2109
лидер	2110
рос	2111
выступ	2112
одного	2113
согласно	2114
бюджет	2115
мурман	2116
доход	2117
кап	2118
региональ	2119
борь	2120
##смен	2121
вал	2122
тот	2123
##еты	2124
##езд	2125
февраля	2126
##оря	2127
##ая	2128
##струк	2129
пам	2130
пострада	2131
##it	2132
##еров	2133
##лено	2134
новый	2135
##чный	2136
преж	2137
##арта	2138
опубликов	2139
подчеркну	2140
возможность	2141
макси	2142
##лии	2143
##еди	2144
команд	2145
времени	2146
техно	2147
засед	2148
##нять	2149
аэро	2150
верси	2151
голосов	2152
верну	2153
образом	2154
спор	2155
совета	2156
ского	2157
ана	2158
потреб	2159
аб	2160
увер	2161
народ	2162
известно	2163
октября	2164
##мени	2165
пода	2166
##рес	2167
регу	2168
исполн	2169
аре	2170
информации	2171
ноября	2172
миха	2173
развития	2174
декабря	2175
попа	2176
##лик	2177
угро	2178
##чные	2179
##ce	2180
##рошен	2181
иде	2182
мод	2183
##oo	2184
подоб	2185
##ева	2186
##лена	2187
##жай	2188
серьез	2189
трех	2190
no	2191
##рам	2192
##мыш	2193
деньги	2194
назад	2195
##рец	2196
##чего	2197
##ter	2198
региона	2199
одно	2200
специаль	2201
конечно	2202
##сили	2203
##ченко	2204
##ябре	2205
замест	2206
ник	2207
действия	2208
продолжа	2209
##раж	2210
извести	2211
средств	2212
материа	2213
##ффек	2214
наш	2215
лиц	2216
воору	2217
кино	2218
##матри	2219
##чески	2220
января	2221
расследов	2222
##ствовать	2223
смер	2224
реко	2225
гри	2226
свой	2227
этих	2228
китай	2229
гов	2230
ский	2231
ссыл	2232
переда	2233
100	2234
попы	2235
##he	2236
ную	2237
оте	2238
##шее	2239
себе	2240
##ила	2241
##чей	2242
комитета	2243
дня	2244
##ез	2245
взры	2246
второй	2247
пыта	2248
##хра	2249
пря	2250
##стри	2251
##лять	2252
работу	2253
стоит	2254
прибы	2255
ис	2256
господин	2257
профе	2258
группы	2259
ес	2260
конф	2261
самолет	2262
ней	2263
долларов	2264
in	2265
##чного	2266
##чил	2267
ап	2268
23	2269
рак	2270
тоже	2271
сирий	2272
199	2273
40	2274
##ступи	2275
турции	2276
музы	2277
пят	2278
тру	2279
##лений	2280
намер	2281
мв	2282
инвести	2283
выпу	2284
финансов	2285
федерации	2286
сез	2287
рост	2288
удалось	2289
мень	2290
эффек	2291
##нили	2292
мэ	2293
##бин	2294
объяс	2295
##дии	2296
co	2297
##руют	2298
доб	2299
##муще	2300
контра	2301
такие	2302
##ательно	2303
ответствен	2304
##мышлен	2305
кре	2306
сразу	2307
##пин	2308
##ждение	2309
##казать	2310
эту	2311
28	2312
")	2313
##нец	2314
либо	2315
ост	2316
##ями	2317
##чает	2318
##жных	2319
вид	2320
частности	2321
губерна	2322
##чить	2323
##казала	2324
директор	2325
##жной	2326
пользов	2327
##зии	2328
столи	2329
##ферен	2330
##пози	2331
места	2332
закры	2333
план	2334
продолж	2335
площад	2336
дополн	2337
банка	2338
своего	2339
спортсмен	2340
анали	2341
зада	2342
технологи	2343
ссылкой	2344
##кси	2345
##тиво	2346
##ового	2347
увелич	2348
север	2349
пара	2350
##слав	2351
ближай	2352
куб	2353
районе	2354
##жу	2355
газета	2356
многие	2357
##ческий	2358
которое	2359
ситуации	2360
кварти	2361
распо	2362
дене	2363
видео	2364
##атив	2365
брит	2366
нало	2367
стала	2368
ами	2369
убий	2370
##льным	2371
течение	2372
##рения	2373
покуп	2374
публи	2375
очередь	2376
##ro	2377
суде	2378
##ех	2379
##йдет	2380
пасса	2381
##ровали	2382
изд	2383
дума	2384
срав	2385
реаль	2386
##нок	2387
права	2388
##дать	2389
парт	2390
законодатель	2391
необходимо	2392
27	2393
хи	2394
опас	2395
##зо	2396
суда	2397
предлага	2398
агентство	2399
##гля	2400
00	2401
полиции	2402
наблю	2403
возду	2404
##лай	2405
привод	2406
этим	2407
уни	2408
правительство	2409
##ыт	2410
##енко	2411
##виси	2412
##ваем	2413
пассажи	2414
потер	2415
##итали	2416
##ствии	2417
уточ	2418
##ницы	2419
нач	2420
таких	2421
ным	2422
##дил	2423
##казали	2424
##доров	2425
службы	2426
хозя	2427
избира	2428
##ян	2429
последние	2430
всегда	2431
находится	2432
молод	2433
труд	2434
##нова	2435
собира	2436
деле	2437
##стер	2438
системы	2439
проекта	2440
##ществ	2441
меро	2442
женщи	2443
фу	2444
мероприяти	2445
средства	2446
герм	2447
##шо	2448
выбор	2449
разработ	2450
куль	2451
медици	2452
услу	2453
##няя	2454
ам	2455
тури	2456
выпла	2457
новых	2458
большин	2459
ей	2460
##вания	2461
начала	2462
26	2463
спец	2464
##вен	2465
чего	2466
банков	2467
две	2468
##ину	2469
разме	2470
##нача	2471
предостав	2472
противо	2473
миллиар	2474
пять	2475
запад	2476
##сколь	2477
##чка	2478
##ti	2479
чинов	2480
##видет	2481
мя	2482
чита	2483
##чера	2484
кажд	2485
трен	2486
полицей	2487
секрета	2488
миров	2489
котором	2490
тяже	2491
поряд	2492
нового	2493
начале	2494
масс	2495
иници	2496
тро	2497
пост	2498
предпри	2499
##бит	2500
сделать	2501
ой	2502
отношения	2503
несмот	2504
несмотря	2505
красно	2506
ведь	2507
бло	2508
решения	2509
боеви	2510
##обо	2511
созда	2512
российский	2513
дел	2514
прогно	2515
внеш	2516
бесп	2517
вице	2518
##точно	2519
стоимость	2520
маши	2521
##бли	2522
посколь	2523
семь	2524
исла	2525
месте	2526
нынеш	2527
качестве	2528
поскольку	2529
29	2530
алексей	2531
процесс	2532
стре	2533
совершен	2534
сла	2535
##вое	2536
конц	2537
един	2538
потом	2539
осво	2540
##анных	2541
##кую	2542
годы	2543
затем	2544
гре	2545
свет	2546
##стоятель	2547
##ваться	2548
примен	2549
##ват	2550
сайте	2551
##ющим	2552
республики	2553
##мин	2554
##вание	2555
попу	2556
посе	2557
##проек	2558
шо	2559
гол	2560
расход	2561
бывший	2562
действ	2563
запу	2564
аэроп	2565
##енти	2566
прин	2567
итогам	2568
бере	2569
кана	2570
количество	2571
##пера	2572
оружи	2573
##лета	2574
рынке	2575
современ	2576
ита	2577
мор	2578
возбу	2579
подроб	2580
ат	2581
совмест	2582
празд	2583
внутрен	2584
учен	2585
данные	2586
собра	2587
деятельности	2588
получил	2589
выступа	2590
универ	2591
турец	2592
августа	2593
зам	2594
уче	2595
собы	2596
министра	2597
##рю	2598
ук	2599
##сен	2600
городе	2601
призн	2602
##лой	2603
##графи	2604
##вшие	2605
законопроек	2606
окон	2607
.,	2608
##руется	2609
##онд	2610
теат	2611
мвд	2612
отказа	2613
правоохран	2614
сте	2615
подозре	2616
##зин	2617
рынка	2618
##мом	2619
депутат	2620
##лег	2621
следствен	2622
ман	2623
вне	2624
##ина	2625
завод	2626
##зм	2627
ним	2628
дом	2629
разре	2630
##ленных	2631
##фак	2632
##менти	2633
акти	2634
выс	2635
ничего	2636
возра	2637
##ствий	2638
иго	2639
догово	2640
ное	2641
представители	2642
мал	2643
##лением	2644
которую	2645
нефти	2646
##гии	2647
распро	2648
##жды	2649
жа	2650
##ница	2651
речь	2652
другой	2653
##щим	2654
прошлого	2655
##лению	2656
##цени	2657
российские	2658
тради	2659
ситуация	2660
появи	2661
спас	2662
наи	2663
##рование	2664
прокура	2665
компаний	2666
##стой	2667
сай	2668
ожида	2669
олимпий	2670
цель	2671
неда	2672
впер	2673
добавил	2674
впервые	2675
нее	2676
##так	2677
возвра	2678
##шки	2679
##нин	2680
##шем	2681
##дели	2682
голов	2683
отмечает	2684
##нд	2685
отра	2686
работать	2687
выполн	2688
##ительных	2689
золо	2690
подчеркнул	2691
интернет	2692
рассмот	2693
тон	2694
транспорт	2695
##ниц	2696
такое	2697
должна	2698
полно	2699
проблемы	2700
подпис	2701
##скому	2702
диа	2703
наши	2704
##тий	2705
кризи	2706
жизнь	2707
това	2708
##роз	2709
настоящее	2710
##ляют	2711
забо	2712
почему	2713
##ag	2714
##льная	2715
принима	2716
помощи	2717
британ	2718
постоя	2719
остав	2720
ской	2721
худ	2722
пиш	2723
##пов	2724
просмот	2725
комму	2726
россию	2727
осуществ	2728
вчера	2729
здоров	2730
юри	2731
##вую	2732
отправ	2733
##нице	2734
ограни	2735
асс	2736
штра	2737
##кар	2738
недо	2739
##лот	2740
##жении	2741
##рет	2742
июля	2743
неиз	2744
##там	2745
уровне	2746
выяс	2747
мире	2748
число	2749
нед	2750
трам	2751
украине	2752
позд	2753
##роят	2754
##вел	2755
телек	2756
имеет	2757
станет	2758
внимание	2759
медицин	2760
мас	2761
нашей	2762
##ствуют	2763
демо	2764
##ходя	2765
мину	2766
сотрудниче	2767
весь	2768
служба	2769
соответствую	2770
##жем	2771
хол	2772
введ	2773
##пли	2774
какие	2775
одним	2776
##ющей	2777
сф	2778
новой	2779
оба	2780
полностью	2781
этому	2782
информацию	2783
восп	2784
пунк	2785
дней	2786
приш	2787
выз	2788
оппози	2789
летний	2790
оон	2791
бело	2792
миллионов	2793
содерж	2794
##жал	2795
мощ	2796
своем	2797
коллек	2798
иску	2799
##неф	2800
вза	2801
постоян	2802
##ктор	2803
вооб	2804
важ	2805
андрей	2806
получили	2807
читайте	2808
сами	2809
истории	2810
##мии	2811
отмечается	2812
каждый	2813
добы	2814
стол	2815
минут	2816
сотрудники	2817
см	2818
доступ	2819
близ	2820
различ	2821
началь	2822
%.	2823
центр	2824
##мере	2825
поня	2826
мид	2827
москва	2828
администрации	2829
бер	2830
наруш	2831
##их	2832
каса	2833
##фика	2834
получить	2835
##ровки	2836
интерфак	2837
отве	2838
района	2839
##чит	2840
причи	2841
справ	2842
сравн	2843
##дем	2844
##дили	2845
объя	2846
считают	2847
попыт	2848
35	2849
##рее	2850
люб	2851
##чным	2852
запа	2853
обвиня	2854
##тил	2855
информацион	2856
цены	2857
дов	2858
крым	2859
##ником	2860
кни	2861
сборной	2862
следов	2863
тай	2864
европы	2865
допу	2866
возгла	2867
живо	2868
предполага	2869
повод	2870
программы	2871
##рат	2872
мини	2873
срок	2874
председатель	2875
особенно	2876
замет	2877
тому	2878
получа	2879
##наль	2880
отдель	2881
сама	2882
ведомства	2883
##боль	2884
серге	2885
интерес	2886
re	2887
##рите	2888
теку	2889
страте	2890
сложно	2891
the	2892
прави	2893
экс	2894
##ял	2895
##гру	2896
##говоры	2897
вообще	2898
##шта	2899
поста	2900
пала	2901
професси	2902
появ	2903
хоте	2904
евг	2905
игро	2906
##няет	2907
группа	2908
ская	2909
дип	2910
практически	2911
ребен	2912
##рами	2913
##ческая	2914
меньше	2915
##ющего	2916
##никами	2917
вооружен	2918
##бер	2919
##жного	2920
2013	2921
объедин	2922
##ине	2923
обязатель	2924
эффектив	2925
##da	2926
адвок	2927
некоторые	2928
выстав	2929
велико	2930
сет	2931
##фон	2932
зве	2933
сере	2934
##еры	2935
предприним	2936
самых	2937
встреча	2938
пожа	2939
каза	2940
долго	2941
российская	2942
большой	2943
клин	2944
сб	2945
прошлом	2946
составляет	2947
рассказыва	2948
центре	2949
россиян	2950
военно	2951
университ	2952
каждо	2953
##щую	2954
##рошенко	2955
съ	2956
вари	2957
войны	2958
восстанов	2959
ого	2960
францу	2961
команды	2962
предва	2963
одном	2964
рейтин	2965
примерно	2966
говор	2967
31	2968
##нал	2969
вести	2970
месяцев	2971
клю	2972
##жета	2973
край	2974
##il	2975
ряд	2976
ава	2977
вопросы	2978
достаточно	2979
оцени	2980
##цид	2981
предваритель	2982
##тие	2983
популяр	2984
просмотров	2985
жителей	2986
##дев	2987
бол	2988
##нуть	2989
истори	2990
финанси	2991
демокра	2992
струк	2993
скоро	2994
пяти	2995
сообщается	2996
сторон	2997
привле	2998
пис	2999
делать	3000
участников	3001
гон	3002
требу	3003
##никам	3004
группи	3005
населения	3006
виз	3007
тр	3008
дав	3009
часов	3010
сети	3011
##сил	3012
состо	3013
##град	3014
##сок	3015
террористи	3016
впро	3017
промышлен	3018
оконч	3019
ах	3020
ым	3021
превы	3022
реши	3023
##чествен	3024
##били	3025
харак	3026
област	3027
##ra	3028
ска	3029
сохран	3030
спортив	3031
##сом	3032
##ходят	3033
экономики	3034
агентства	3035
60	3036
приоб	3037
турни	3038
нефть	3039
обнару	3040
впрочем	3041
киев	3042
##ич	3043
##анк	3044
отсут	3045
##вич	3046
##чая	3047
страхов	3048
возможности	3049
лучше	3050
парламента	3051
##кими	3052
дон	3053
поддержи	3054
госдумы	3055
ира	3056
коро	3057
##сят	3058
машин	3059
приводит	3060
##тах	3061
сня	3062
незакон	3063
действительно	3064
процентов	3065
##зн	3066
благода	3067
вывод	3068
эксперты	3069
известия	3070
искус	3071
##енты	3072
##клад	3073
выборов	3074
аф	3075
крупней	3076
##жать	3077
##ленные	3078
важно	3079
станов	3080
уголовное	3081
##того	3082
коммер	3083
организация	3084
политики	3085
##сур	3086
##ого	3087
проте	3088
##обра	3089
пенсион	3090
##ительные	3091
##вым	3092
##ван	3093
кварта	3094
обу	3095
главный	3096
мага	3097
инициати	3098
указ	3099
##гран	3100
##вала	3101
геро	3102
трав	3103
##el	3104
транс	3105
уровень	3106
крас	3107
выборах	3108
штраф	3109
похо	3110
инцид	3111
##пон	3112
##бур	3113
порошенко	3114
выда	3115
##ался	3116
трамп	3117
сотрудников	3118
германии	3119
принци	3120
свидет	3121
##ol	3122
поми	3123
##тии	3124
отмен	3125
пси	3126
меры	3127
ау	3128
##руг	3129
выра	3130
перспек	3131
санкт	3132
слож	3133
постанов	3134
##леп	3135
техниче	3136
##вью	3137
попро	3138
жерт	3139
##чис	3140
секретарь	3141
##рина	3142
##ческим	3143
##ала	3144
##рез	3145
кило	3146
##зма	3147
договор	3148
мало	3149
заявила	3150
второ	3151
отстав	3152
исполь	3153
заявление	3154
перегово	3155
проблем	3156
хорошо	3157
защит	3158
вероят	3159
интервью	3160
заместитель	3161
оде	3162
##ri	3163
тю	3164
принад	3165
##форми	3166
конфлик	3167
единствен	3168
принадле	3169
вас	3170
действую	3171
##щении	3172
##ентом	3173
ирован	3174
##рко	3175
поме	3176
##ложи	3177
лит	3178
бел	3179
расши	3180
дальней	3181
произошло	3182
никто	3183
ислам	3184
благодаря	3185
россией	3186
назвал	3187
##част	3188
объяв	3189
несколь	3190
худо	3191
##гли	3192
##цов	3193
итоге	3194
бизне	3195
чув	3196
интерфакс	3197
сц	3198
##ум	3199
сообщении	3200
##кви	3201
ном	3202
##ia	3203
сдел	3204
##креп	3205
судеб	3206
клинтон	3207
##лер	3208
##кро	3209
раст	3210
крем	3211
пож	3212
##лад	3213
##вого	3214
мино	3215
##шает	3216
встречи	3217
колле	3218
глу	3219
какой	3220
##щиков	3221
государство	3222
##реть	3223
размере	3224
эксперт	3225
движения	3226
цб	3227
##писа	3228
##мб	3229
прио	3230
##нев	3231
сообщила	3232
##льное	3233
##пло	3234
ситуацию	3235
бюджета	3236
##пора	3237
ниже	3238
фонда	3239
первую	3240
результат	3241
собой	3242
роста	3243
часто	3244
жел	3245
уд	3246
##тором	3247
претен	3248
обороны	3249
выпол	3250
##бесед	3251
поне	3252
зар	3253
пись	3254
всей	3255
##фо	3256
напис	3257
понима	3258
причин	3259
##ещ	3260
##анные	3261
##лях	3262
конст	3263
организов	3264
сообщалось	3265
руководитель	3266
документа	3267
втор	3268
оно	3269
##re	3270
зад	3271
учре	3272
мужчина	3273
иностранных	3274
сли	3275
май	3276
нако	3277
следует	3278
погибли	3279
тут	3280
нап	3281
##чик	3282
условиях	3283
##сить	3284
которым	3285
данных	3286
##мя	3287
женщ	3288
собесед	3289
ремон	3290
##игра	3291
##тики	3292
первого	3293
использу	3294
##жей	3295
рынок	3296
франции	3297
нато	3298
##скими	3299
физи	3300
устрой	3301
соверш	3302
постро	3303
национальной	3304
ата	3305
ском	3306
смот	3307
низ	3308
##as	3309
каз	3310
##сою	3311
службе	3312
##оци	3313
##лах	3314
своим	3315
департа	3316
##льян	3317
хозяй	3318
изу	3319
пад	3320
##нимать	3321
первом	3322
уверен	3323
терак	3324
пишет	3325
ек	3326
проблема	3327
михаил	3328
влия	3329
серви	3330
эр	3331
##уне	3332
##рок	3333
медве	3334
улице	3335
зарпла	3336
рассматри	3337
правда	3338
помощью	3339
рекомен	3340
партнер	3341
сель	3342
коло	3343
##форм	3344
целом	3345
союз	3346
имуще	3347
упо	3348
выше	3349
силу	3350
валют	3351
начина	3352
##нию	3353
##емых	3354
конца	3355
представителя	3356
##льном	3357
язы	3358
##три	3359
##брит	3360
говорят	3361
тен	3362
##зор	3363
накан	3364
великобрит	3365
накануне	3366
##читы	3367
форми	3368
пояснил	3369
француз	3370
##док	3371
помощь	3372
##сро	3373
тысячи	3374
##шка	3375
владимира	3376
##гляд	3377
70	3378
нель	3379
прием	3380
налогов	3381
##вии	3382
##стам	3383
максима	3384
##ваются	3385
диплом	3386
разви	3387
производства	3388
всеми	3389
взрыв	3390
45	3391
##et	3392
раск	3393
##ссия	3394
конферен	3395
останов	3396
##под	3397
##ждает	3398
дина	3399
украина	3400
сме	3401
инди	3402
ными	3403
##ун	3404
присут	3405
бой	3406
##ведения	3407
первой	3408
верхов	3409
действий	3410
цити	3411
##нить	3412
##одей	3413
сав	3414
возник	3415
прид	3416
нельзя	3417
причем	3418
понедель	3419
шан	3420
##енных	3421
парламент	3422
оч	3423
трампа	3424
делу	3425
2012	3426
зе	3427
такого	3428
материале	3429
##us	3430
годов	3431
закона	3432
степ	3433
камп	3434
##оволь	3435
##пл	3436
зах	3437
оператив	3438
##деми	3439
##чать	3440
шта	3441
##мец	3442
##хани	3443
подо	3444
сим	3445
заявили	3446
газпро	3447
сказать	3448
##зер	3449
деву	3450
пользу	3451
свер	3452
##пр	3453
##ьше	3454
ресур	3455
##удов	3456
##рудов	3457
огром	3458
неизвест	3459
ут	3460
##рили	3461
пит	3462
находи	3463
относ	3464
независи	3465
сту	3466
очевид	3467
работает	3468
оо	3469
система	3470
путина	3471
##сср	3472
##веро	3473
результаты	3474
финанс	3475
##стить	3476
напад	3477
##мые	3478
ката	3479
патри	3480
полиция	3481
начали	3482
увеличи	3483
четырех	3484
порядка	3485
заб	3486
дональ	3487
проведения	3488
запрещен	3489
барре	3490
im	3491
##ic	3492
##лить	3493
приход	3494
обрати	3495
изменения	3496
версии	3497
опла	3498
##вли	3499
оборудов	3500
список	3501
отечествен	3502
вок	3503
роль	3504
большинство	3505
##дан	3506
перевоз	3507
ооо	3508
вам	3509
спа	3510
ссср	3511
##дал	3512
данный	3513
##еду	3514
работе	3515
пятницу	3516
##ации	3517
##дек	3518
##ителем	3519
плат	3520
##нул	3521
вес	3522
александра	3523
месяца	3524
бен	3525
##is	3526
среду	3527
раньше	3528
##tion	3529
##шествия	3530
владель	3531
десят	3532
аппара	3533
денег	3534
80	3535
поки	3536
2018	3537
политика	3538
вся	3539
бори	3540
скорее	3541
эко	3542
##нр	3543
раза	3544
ростов	3545
##дим	3546
особо	3547
силы	3548
комиссии	3549
игорь	3550
наших	3551
двиг	3552
министерства	3553
##нему	3554
неболь	3555
##стива	3556
электрон	3557
образования	3558
выборы	3559
%,	3560
##сем	3561
помимо	3562
расположен	3563
сфере	3564
миниму	3565
тан	3566
переговоры	3567
##ались	3568
друг	3569
крыма	3570
внес	3571
упа	3572
##бк	3573
говорить	3574
никогда	3575
стратеги	3576
##бора	3577
##щик	3578
карти	3579
ребенка	3580
япо	3581
##более	3582
##суль	3583
произошел	3584
комитет	3585
наиболее	3586
чит	3587
вет	3588
##вета	3589
##комп	3590
воздуш	3591
успеш	3592
памят	3593
скан	3594
немец	3595
воск	3596
##бир	3597
##лаг	3598
##чены	3599
зло	3600
##они	3601
##кова	3602
нео	3603
пропа	3604
ред	3605
газа	3606
органов	3607
самым	3608
строительство	3609
норма	3610
живот	3611
сорев	3612
куп	3613
самом	3614
достиг	3615
понедельник	3616
ху	3617
допин	3618
##чено	3619
капит	3620
масшта	3621
екатери	3622
алеп	3623
##ew	3624
выде	3625
##зывает	3626
алеппо	3627
конкре	3628
членов	3629
##чку	3630
##чная	3631
##стя	3632
90	3633
культуры	3634
савченко	3635
ков	3636
кате	3637
##жные	3638
лиш	3639
метро	3640
белору	3641
вторник	3642
##ясь	3643
вов	3644
син	3645
отказ	3646
режисс	3647
смогут	3648
цитирует	3649
##луч	3650
акции	3651
первые	3652
аналоги	3653
дере	3654
##вом	3655
пари	3656
любо	3657
могли	3658
провести	3659
чемпионата	3660
##ниципа	3661
нарушения	3662
ключе	3663
соревнов	3664
##ace	3665
арм	3666
четверг	3667
##ок	3668
операции	3669
фонд	3670
цена	3671
##вей	3672
##дина	3673
##пос	3674
имени	3675
желез	3676
испол	3677
гиб	3678
вв	3679
500	3680
скры	3681
##ологи	3682
##ссий	3683
##дия	3684
посет	3685
никаких	3686
институ	3687
щи	3688
##ut	3689
##ческое	3690
взаим	3691
##ланд	3692
##риф	3693
давно	3694
задержан	3695
избиратель	3696
моде	3697
полага	3698
перс	3699
заявля	3700
женщина	3701
оши	3702
муниципа	3703
##шинг	3704
##рабаты	3705
нескольких	3706
##дали	3707
европе	3708
думаю	3709
##age	3710
32	3711
##хе	3712
кали	3713
марш	3714
возбужд	3715
ура	3716
##нила	3717
##фици	3718
вашинг	3719
функ	3720
касается	3721
км	3722
автомобиль	3723
ассоци	3724
##at	3725
случай	3726
##шла	3727
##рел	3728
препара	3729
быстро	3730
##вился	3731
взя	3732
##ителям	3733
уровня	3734
##бороны	3735
студ	3736
стату	3737
являются	3738
молоде	3739
требования	3740
сопер	3741
прожи	3742
механи	3743
##ительной	3744
принято	3745
корруп	3746
минобороны	3747
жан	3748
зи	3749
ори	3750
сохра	3751
команда	3752
кого	3753
##стью	3754
песков	3755
остается	3756
традицион	3757
уб	3758
столич	3759
участники	3760
преступления	3761
##шую	3762
бежен	3763
информация	3764
ракет	3765
пройдет	3766
воро	3767
##работа	3768
воскрес	3769
300	3770
##метров	3771
административ	3772
управля	3773
выд	3774
широ	3775
ид	3776
##рор	3777
первых	3778
com	3779
подробнее	3780
соц	3781
самый	3782
строительства	3783
союза	3784
##чном	3785
##чении	3786
приве	3787
##гах	3788
находятся	3789
бизнеса	3790
##едли	3791
веду	3792
поддержку	3793
##рение	3794
корпора	3795
продажи	3796
деятельность	3797
петербург	3798
##сб	3799
##пров	3800
##роса	3801
жела	3802
олимпиа	3803
катего	3804
сь	3805
сол	3806
##тами	3807
роман	3808
тол	3809
выну	3810
месяц	3811
курс	3812
##шком	3813
поступ	3814
наказ	3815
##ерв	3816
##итар	3817
кораб	3818
сумму	3819
законопроект	3820
##езда	3821
многих	3822
радио	3823
энерг	3824
##чили	3825
лав	3826
##няется	3827
фестива	3828
семей	3829
лени	3830
рбк	3831
переход	3832
самолета	3833
фильм	3834
##возмо	3835
##станавли	3836
самого	3837
сыгра	3838
полномо	3839
.)	3840
##стом	3841
ото	3842
сю	3843
##чс	3844
куда	3845
нуж	3846
ке	3847
кад	3848
опыт	3849
никола	3850
разных	3851
##дой	3852
спу	3853
##лети	3854
##клады	3855
прежде	3856
оказыва	3857
2011	3858
путе	3859
жители	3860
президентом	3861
соглашения	3862
дети	3863
состоянии	3864
потен	3865
##рож	3866
##гом	3867
высоко	3868
житель	3869
##тят	3870
суббо	3871
еги	3872
экономического	3873
заверш	3874
кара	3875
принять	3876
поводу	3877
##ственных	3878
такая	3879
спорта	3880
мигран	3881
##емого	3882
сравнению	3883
##груз	3884
бывшего	3885
лица	3886
сможет	3887
ядер	3888
поко	3889
будем	3890
миллиона	3891
клуба	3892
уз	3893
##нения	3894
##мыс	3895
совсем	3896
андре	3897
##ден	3898
предупре	3899
впол	3900
пак	3901
унич	3902
условия	3903
фотографи	3904
уничто	3905
винов	3906
демон	3907
ские	3908
##ест	3909
всю	3910
вполне	3911
ака	3912
ву	3913
посо	3914
судь	3915
планируется	3916
егип	3917
пору	3918
ниж	3919
сих	3920
рассчиты	3921
санкции	3922
донба	3923
image	3924
иру	3925
регионе	3926
официальный	3927
##ыми	3928
военных	3929
район	3930
фору	3931
улуч	3932
##лок	3933
##рованы	3934
##ir	3935
##лова	3936
посвя	3937
вечер	3938
государственной	3939
составе	3940
дра	3941
пок	3942
фир	3943
свободы	3944
охра	3945
достав	3946
##овом	3947
организаций	3948
##ent	3949
##ствовал	3950
энергети	3951
федерального	3952
мчс	3953
той	3954
продукции	3955
##нюю	3956
арестов	3957
тек	3958
заре	3959
##ляции	3960
рекла	3961
##вив	3962
развед	3963
представителей	3964
сегодняш	3965
джон	3966
##лют	3967
соедин	3968
пригла	3969
бог	3970
вече	3971
использовать	3972
рубля	3973
бук	3974
контрак	3975
освобо	3976
заболев	3977
слишком	3978
##щу	3979
пора	3980
запро	3981
##зывать	3982
ских	3983
##гар	3984
девя	3985
алкого	3986
##ing	3987
брю	3988
нью	3989
##тся	3990
##бран	3991
инфра	3992
##енье	3993
самой	3994
пес	3995
депутатов	3996
пут	3997
культ	3998
плате	3999
метров	4000
тонн	4001
причиной	4002
ем	4003
пан	4004
##сон	4005
коле	4006
сом	4007
##ссов	4008
арен	4009
предусмот	4010
поезд	4011
##тили	4012
##ционного	4013
позже	4014
коммента	4015
дороги	4016
недели	4017
##одно	4018
преды	4019
правила	4020
шесть	4021
позиции	4022
активи	4023
##сет	4024
##пор	4025
кой	4026
зави	4027
##ческую	4028
инте	4029
руководство	4030
умер	4031
##щать	4032
##ap	4033
развитие	4034
прим	4035
198	4036
готовы	4037
отношений	4038
автомобилей	4039
36	4040
гло	4041
##леко	4042
целью	4043
профессиональ	4044
придется	4045
##рыв	4046
клуб	4047
предыду	4048
обсужда	4049
вд	4050
##пере	4051
одоб	4052
вместо	4053
губернатор	4054
свидетель	4055
конкрет	4056
ap	4057
дово	4058
##шать	4059
##цам	4060
##дел	4061
##тери	4062
рабочи	4063
самое	4064
процента	4065
победы	4066
распростран	4067
##оны	4068
##йдут	4069
партий	4070
конститу	4071
полномочи	4072
гран	4073
напа	4074
##лял	4075
услуг	4076
сергея	4077
##am	4078
игры	4079
десяти	4080
снова	4081
##тп	4082
##гре	4083
##инг	4084
##ческом	4085
силов	4086
происходит	4087
ученые	4088
евросою	4089
внов	4090
найти	4091
невозмо	4092
рядом	4093
телекана	4094
вновь	4095
профи	4096
фили	4097
международной	4098
активно	4099
бель	4100
##un	4101
##ительный	4102
шах	4103
бил	4104
##льную	4105
предприятия	4106
машины	4107
пожар	4108
%)	4109
##вшей	4110
##ur	4111
сосед	4112
рели	4113
##менты	4114
дево	4115
##туру	4116
властей	4117
жест	4118
испыт	4119
значит	4120
пришлось	4121
переговоров	4122
кв	4123
##юсь	4124
производство	4125
июня	4126
матч	4127
уди	4128
##вый	4129
##анах	4130
фигу	4131
яв	4132
##20	4133
зрения	4134
олег	4135
##жит	4136
##шев	4137
порта	4138
иван	4139
моби	4140
соглашение	4141
корре	4142
обнаружи	4143
маршру	4144
цер	4145
музыка	4146
фоне	4147
цвет	4148
##чное	4149
##тиков	4150
директора	4151
##ами	4152
##етов	4153
обязан	4154
саудов	4155
актер	4156
декабре	4157
театра	4158
обстоятель	4159
##ателем	4160
хок	4161
гаран	4162
матча	4163
телефон	4164
борьбе	4165
##нефти	4166
##ху	4167
доме	4168
странах	4169
конференции	4170
яко	4171
##ери	4172
побе	4173
мето	4174
края	4175
оказался	4176
документы	4177
алексе	4178
объектов	4179
гроз	4180
пои	4181
мой	4182
##жает	4183
интерн	4184
школы	4185
све	4186
##шу	4187
согласов	4188
депутаты	4189
председателя	4190
издание	4191
академи	4192
##ьера	4193
реда	4194
история	4195
футболи	4196
зрите	4197
заме	4198
прось	4199
выро	4200
факту	4201
господина	4202
##ook	4203
написал	4204
мит	4205
акций	4206
республикан	4207
норм	4208
фильма	4209
!"	4210
##дых	4211
##лли	4212
отк	4213
стрем	4214
##арт	4215
размер	4216
##гами	4217
недавно	4218
##солют	4219
армии	4220
вопросам	4221
абсолют	4222
евгений	4223
ум	4224
##зем	4225
##анной	4226
сах	4227
главного	4228
автомобиля	4229
чуть	4230
внутри	4231
пооб	4232
##алы	4233
##разде	4234
предложения	4235
точки	4236
##ременно	4237
имеют	4238
заявления	4239
здания	4240
рекорд	4241
юриди	4242
болга	4243
ара	4244
сколько	4245
стандар	4246
международного	4247
министерство	4248
реализации	4249
косми	4250
остров	4251
али	4252
спрос	4253
минэ	4254
учиты	4255
процеду	4256
обнаружен	4257
дер	4258
##емся	4259
ночь	4260
автобу	4261
скр	4262
специалисты	4263
заседании	4264
великобритании	4265
##ционной	4266
следствия	4267
справедли	4268
вступ	4269
##его	4270
##атар	4271
зару	4272
одну	4273
##туаль	4274
документ	4275
конструк	4276
арбит	4277
наблюд	4278
семьи	4279
##лив	4280
инве	4281
северо	4282
компен	4283
санкций	4284
ответственность	4285
кер	4286
оль	4287
##ляется	4288
работают	4289
озна	4290
##кер	4291
планирует	4292
происшествия	4293
##ехал	4294
культур	4295
нарко	4296
хочет	4297
психо	4298
поле	4299
зай	4300
обмен	4301
гости	4302
##поли	4303
##силия	4304
маль	4305
##ченных	4306
твор	4307
яр	4308
##чную	4309
##стати	4310
реак	4311
марте	4312
предусмотрен	4313
запи	4314
##аков	4315
инвест	4316
нефтя	4317
циф	4318
мужчин	4319
уголовного	4320
замен	4321
изра	4322
нефте	4323
##личие	4324
33	4325
an	4326
еже	4327
сх	4328
убе	4329
##щена	4330
##лами	4331
взят	4332
водитель	4333
январе	4334
воскресенье	4335
##мон	4336
сильно	4337
домаш	4338
кстати	4339
остан	4340
сказала	4341
##нен	4342
##стями	4343
довольно	4344
##сах	4345
востоке	4346
подозреваем	4347
инвесто	4348
дтп	4349
оз	4350
причина	4351
включая	4352
##рода	4353
неу	4354
ната	4355
соп	4356
лидера	4357
##ственной	4358
скон	4359
принял	4360
##служи	4361
петербурге	4362
документов	4363
перспекти	4364
якобы	4365
##анка	4366
самые	4367
главное	4368
станции	4369
систему	4370
режима	4371
сайт	4372
смен	4373
поло	4374
фина	4375
распоря	4376
единой	4377
смерти	4378
департамента	4379
снача	4380
укреп	4381
##сад	4382
говорил	4383
сниз	4384
исключ	4385
рассказывает	4386
сначала	4387
агре	4388
режим	4389
московской	4390
грузов	4391
звезд	4392
##роде	4393
##чев	4394
заня	4395
зареги	4396
скую	4397
##дирек	4398
метал	4399
легко	4400
потре	4401
##чай	4402
микро	4403
таки	4404
сцена	4405
##мат	4406
награ	4407
##лат	4408
отдых	4409
выигра	4410
##мую	4411
верто	4412
##печат	4413
вокруг	4414
нане	4415
суп	4416
матче	4417
снижение	4418
устро	4419
##фин	4420
##os	4421
##рови	4422
##вшим	4423
последний	4424
воды	4425
##служа	4426
площади	4427
неделе	4428
военнослужа	4429
зву	4430
эле	4431
##ив	4432
##декс	4433
выраз	4434
любой	4435
николай	4436
определен	4437
контроли	4438
прямо	4439
столицы	4440
мировой	4441
оружия	4442
зарегистри	4443
юрий	4444
подразде	4445
лицен	4446
##фикси	4447
арти	4448
##ционных	4449
цион	4450
регуляр	4451
состоится	4452
равно	4453
отпра	4454
жало	4455
возглавля	4456
возбуждено	4457
брен	4458
##гер	4459
##стил	4460
предста	4461
конт	4462
стади	4463
##фиц	4464
приняли	4465
исследования	4466
комплекс	4467
зафикси	4468
линии	4469
начал	4470
факт	4471
участия	4472
минимум	4473
##слов	4474
##лега	4475
##мур	4476
военные	4477
эпи	4478
##im	4479
##анс	4480
обс	4481
автом	4482
управление	4483
предложил	4484
некоторых	4485
счит	4486
авиакомп	4487
##ch	4488
обнов	4489
##туре	4490
музе	4491
женщин	4492
##защ	4493
##сток	4494
годах	4495
спек	4496
адрес	4497
получила	4498
масштаб	4499
невозможно	4500
("	4501
face	4502
##лил	4503
##город	4504
крае	4505
соблю	4506
бро	4507
рио	4508
соответствии	4509
регули	4510
япон	4511
##сматри	4512
роли	4513
поддержки	4514
инфраструк	4515
мере	4516
##мень	4517
предложи	4518
##чиков	4519
новая	4520
контроль	4521
худож	4522
эки	4523
##ьми	4524
##ьют	4525
##book	4526
найд	4527
точно	4528
летнего	4529
программа	4530
утвержда	4531
решили	4532
медведев	4533
зво	4534
шу	4535
##едж	4536
##ровано	4537
израи	4538
держ	4539
сне	4540
фло	4541
##gh	4542
##москов	4543
лиги	4544
##щает	4545
летом	4546
реа	4547
автор	4548
банки	4549
защиты	4550
адвокат	4551
дво	4552
неодно	4553
комменти	4554
поса	4555
российским	4556
##говой	4557
составила	4558
кредитов	4559
совершенно	4560
вечером	4561
узна	4562
друга	4563
арт	4564
регионов	4565
встрече	4566
неделю	4567
ежегод	4568
полови	4569
##лян	4570
ликви	4571
темпера	4572
необходимости	4573
следую	4574
боевиков	4575
st	4576
двор	4577
оказ	4578
поступи	4579
позволит	4580
обвинения	4581
транспорта	4582
фсб	4583
##мых	4584
рассказала	4585
лекар	4586
##вшись	4587
бизнесмен	4588
##дж	4589
##la	4590
основе	4591
первым	4592
практи	4593
расследование	4594
злоу	4595
бур	4596
##иг	4597
##россий	4598
создать	4599
создание	4600
движение	4601
огранич	4602
энерго	4603
напря	4604
ущ	4605
уво	4606
наша	4607
##интере	4608
возоб	4609
социальной	4610
зен	4611
цска	4612
проком	4613
могу	4614
прокомменти	4615
##мос	4616
##купа	4617
кам	4618
##чив	4619
отмечают	4620
##ters	4621
расследования	4622
сена	4623
причаст	4624
строй	4625
разру	4626
ответственности	4627
губернатора	4628
днем	4629
##буд	4630
топли	4631
рассказали	4632
##пел	4633
официально	4634
московского	4635
феврале	4636
предполож	4637
зн	4638
ось	4639
эфи	4640
предъ	4641
констан	4642
мари	4643
паци	4644
сообщения	4645
погибших	4646
брази	4647
ближайшее	4648
конфликта	4649
facebook	4650
##зан	4651
##стям	4652
##анта	4653
вале	4654
экстре	4655
возобнов	4656
иран	4657
##служ	4658
публика	4659
института	4660
субботу	4661
##ed	4662
обстре	4663
бума	4664
всп	4665
фрон	4666
мон	4667
подряд	4668
##тера	4669
составил	4670
столице	4671
инцидент	4672
to	4673
пат	4674
общей	4675
мошен	4676
пассажиров	4677
##дают	4678
вик	4679
университета	4680
бир	4681
победу	4682
оказались	4683
постоянно	4684
##защит	4685
37	4686
виктор	4687
основном	4688
логи	4689
взаимодей	4690
##интересов	4691
плю	4692
##нит	4693
##нилось	4694
##вижи	4695
москву	4696
помог	4697
недвижи	4698
утром	4699
new	4700
согласи	4701
цик	4702
гуман	4703
удов	4704
фед	4705
поправ	4706
нег	4707
зависи	4708
посмот	4709
первое	4710
призвал	4711
женщины	4712
ma	4713
баш	4714
своими	4715
проектов	4716
тренер	4717
зарубе	4718
34	4719
ист	4720
последнее	4721
сделал	4722
обычно	4723
сезон	4724
корресп	4725
дни	4726
доля	4727
##волю	4728
##зацию	4729
ское	4730
руководителя	4731
дальше	4732
##раво	4733
##нах	4734
куз	4735
##тической	4736
групп	4737
ошиб	4738
спустя	4739
пом	4740
преми	4741
болез	4742
далее	4743
граждани	4744
удовлет	4745
ними	4746
##утки	4747
помога	4748
сумма	4749
конкурс	4750
корреспонд	4751
##ел	4752
боле	4753
##ходить	4754
види	4755
большая	4756
##овала	4757
техники	4758
которому	4759
сентябре	4760
отчет	4761
прилож	4762
моло	4763
меч	4764
опти	4765
хотят	4766
гендирек	4767
##лый	4768
выбра	4769
характер	4770
##зей	4771
##оры	4772
кабин	4773
следствие	4774
ир	4775
фрак	4776
##вался	4777
выру	4778
вырос	4779
каких	4780
##мый	4781
учетом	4782
##мать	4783
превра	4784
спортсменов	4785
сконча	4786
дать	4787
##илла	4788
основной	4789
водо	4790
оказалось	4791
журналистов	4792
всемир	4793
вя	4794
йор	4795
полет	4796
выска	4797
голосования	4798
app	4799
экипа	4800
хран	4801
##ое	4802
ноябре	4803
владе	4804
область	4805
жили	4806
международных	4807
##ателям	4808
мероприятия	4809
расходы	4810
казах	4811
становится	4812
напра	4813
протя	4814
знако	4815
привлек	4816
защи	4817
##телей	4818
аэропор	4819
ожидается	4820
оформ	4821
ул	4822
топ	4823
##циях	4824
##меть	4825
баррель	4826
приходится	4827
японии	4828
персона	4829
отпу	4830
тариф	4831
чаще	4832
##исков	4833
##гули	4834
197	4835
родствен	4836
ряда	4837
начальник	4838
фер	4839
##жный	4840
##uters	4841
сочи	4842
##емь	4843
##ждений	4844
сторону	4845
должность	4846
кандидатов	4847
обама	4848
reuters	4849
беженцев	4850
##жан	4851
оборо	4852
органы	4853
смогли	4854
собеседник	4855
вар	4856
паль	4857
уро	4858
##дд	4859
##пар	4860
##ментов	4861
##вели	4862
кие	4863
земли	4864
##снов	4865
##щему	4866
подня	4867
отметили	4868
общество	4869
предложение	4870
модель	4871
проз	4872
##емой	4873
море	4874
##стами	4875
маг	4876
пав	4877
серд	4878
форма	4879
правоохранительных	4880
швей	4881
##ропо	4882
##зация	4883
перевод	4884
регистра	4885
##мбар	4886
утра	4887
указыва	4888
##кнов	4889
простран	4890
существует	4891
прежнему	4892
глоб	4893
ай	4894
##лье	4895
##гор	4896
проходит	4897
##стили	4898
позволяет	4899
октябре	4900
гар	4901
полов	4902
##вило	4903
решил	4904
лавров	4905
ch	4906
татар	4907
##ada	4908
##одо	4909
##дий	4910
##чика	4911
##утся	4912
люби	4913
арх	4914
американских	4915
системе	4916
круг	4917
выпуск	4918
катастро	4919
##риев	4920
##дума	4921
стаби	4922
##ционный	4923
военного	4924
форму	4925
капита	4926
##ющая	4927
присо	4928
##тый	4929
уре	4930
хв	4931
##мар	4932
##анный	4933
навер	4934
страну	4935
sp	4936
бри	4937
хра	4938
задол	4939
лично	4940
новую	4941
проверки	4942
комплекса	4943
продолжает	4944
различных	4945
эрдо	4946
38	4947
##рост	4948
заинтересов	4949
рав	4950
государственного	4951
апреле	4952
госдуму	4953
мель	4954
##щены	4955
доказ	4956
##ждены	4957
сиг	4958
##зыск	4959
новое	4960
шести	4961
кандидат	4962
итальян	4963
спарта	4964
сторона	4965
учеб	4966
раскры	4967
400	4968
##емый	4969
##бом	4970
первая	4971
рус	4972
военной	4973
##минает	4974
борьбы	4975
кризис	4976
трени	4977
симво	4978
##тации	4979
донец	4980
назначен	4981
труда	4982
##ностей	4983
пропу	4984
##вались	4985
сообще	4986
##деть	4987
команду	4988
##лайн	4989
уви	4990
##тории	4991
фактически	4992
состояние	4993
ленин	4994
гуманитар	4995
##нику	4996
избе	4997
##хода	4998
главе	4999
общества	5000
крупных	5001
##плани	5002
##чению	5003
докла	5004
##ждении	5005
рубе	5006
повре	5007
провели	5008
десять	5009
супру	5010
##гин	5011
час	5012
2008	5013
местные	5014
соответственно	5015
сберб	5016
кин	5017
тв	5018
##лых	5019
##up	5020
непри	5021
заплани	5022
роз	5023
экономика	5024
источники	5025
китая	5026
подтвердил	5027
ер	5028
преде	5029
##чины	5030
обрат	5031
газеты	5032
втором	5033
зелен	5034
неоднокра	5035
сутки	5036
##ари	5037
преи	5038
государств	5039
ассоциации	5040
##ub	5041
обслужи	5042
избран	5043
##мым	5044
194	5045
связа	5046
процент	5047
ауди	5048
##шить	5049
безу	5050
##ально	5051
супер	5052
игр	5053
конкурен	5054
договори	5055
малень	5056
модели	5057
дал	5058
лон	5059
сен	5060
##джи	5061
приговор	5062
референ	5063
2010	5064
самостоятель	5065
другими	5066
порт	5067
программу	5068
сезона	5069
смарт	5070
преимуще	5071
##вад	5072
##чается	5073
##ального	5074
акци	5075
75	5076
нашли	5077
отметила	5078
##ствовали	5079
витали	5080
усили	5081
цере	5082
зав	5083
зато	5084
##тик	5085
сожал	5086
стати	5087
##лка	5088
коали	5089
домов	5090
приостанов	5091
выразил	5092
apple	5093
ая	5094
века	5095
члены	5096
признал	5097
максим	5098
бед	5099
жил	5100
##вов	5101
##ot	5102
измени	5103
##пом	5104
местных	5105
регионального	5106
ова	5107
ува	5108
##нос	5109
##образ	5110
##ствием	5111
новым	5112
политике	5113
кампании	5114
дерев	5115
посвящен	5116
урегули	5117
ась	5118
джа	5119
##нется	5120
пересе	5121
мурманск	5122
дени	5123
ля	5124
пя	5125
##енные	5126
##анией	5127
назв	5128
##енок	5129
террористов	5130
прогре	5131
ель	5132
ока	5133
хилла	5134
##шений	5135
депутата	5136
издания	5137
хиллари	5138
двое	5139
елена	5140
##цем	5141
##циональ	5142
##стаи	5143
##байд	5144
провин	5145
помочь	5146
снизи	5147
горя	5148
регионах	5149
##зербайд	5150
азербайд	5151
оа	5152
##ссы	5153
##зывают	5154
196	5155
контракт	5156
экстреми	5157
al	5158
чрез	5159
воспо	5160
имя	5161
делам	5162
партия	5163
мнение	5164
провел	5165
предприятий	5166
кризиса	5167
телекан	5168
добычи	5169
удоб	5170
вен	5171
иметь	5172
##тим	5173
привы	5174
##ительного	5175
конс	5176
##тых	5177
анка	5178
прошло	5179
всему	5180
автомобили	5181
установлен	5182
55	5183
нашего	5184
##сколько	5185
выяв	5186
марки	5187
предусматри	5188
жить	5189
ина	5190
##кат	5191
##страи	5192
брать	5193
радика	5194
посоль	5195
умень	5196
##шении	5197
##щаться	5198
##ъек	5199
##скор	5200
вось	5201
##циям	5202
прошед	5203
кажется	5204
заседания	5205
ремонт	5206
cap	5207
##эн	5208
##ема	5209
экспорт	5210
экспертов	5211
редак	5212
подмосков	5213
ному	5214
однов	5215
менедж	5216
работал	5217
ставки	5218
группировки	5219
террористической	5220
##бург	5221
одновременно	5222
##лки	5223
##зий	5224
правил	5225
знаком	5226
экономической	5227
главным	5228
##яться	5229
премьера	5230
крайне	5231
ским	5232
смыс	5233
фар	5234
##ано	5235
##ваку	5236
##чек	5237
момента	5238
прошли	5239
смерт	5240
сотрудничества	5241
восемь	5242
иванов	5243
холод	5244
##емые	5245
##дам	5246
##зирован	5247
##няют	5248
сева	5249
совещ	5250
петр	5251
войск	5252
контроля	5253
##ав	5254
принимать	5255
рождения	5256
компьют	5257
спецслуж	5258
расходов	5259
000	5260
ощу	5261
насколько	5262
ресто	5263
дает	5264
жив	5265
реализов	5266
лат	5267
уж	5268
хри	5269
##маться	5270
деб	5271
задержали	5272
задача	5273
удар	5274
эксплу	5275
концер	5276
":	5277
пригово	5278
стрель	5279
?"	5280
лен	5281
обви	5282
##рукт	5283
##ственные	5284
писа	5285
##гового	5286
американского	5287
нарушение	5288
здраво	5289
##ght	5290
церемо	5291
##тб	5292
##жде	5293
сери	5294
##ителями	5295
##лыш	5296
американский	5297
алта	5298
должности	5299
петербурга	5300
эваку	5301
##шкин	5302
боро	5303
стара	5304
павел	5305
войска	5306
программ	5307
журналистам	5308
аэропорта	5309
следственного	5310
газпром	5311
болгарии	5312
замо	5313
стоя	5314
глаза	5315
виру	5316
огня	5317
структуры	5318
экологи	5319
обнаружили	5320
##ген	5321
отри	5322
создания	5323
относительно	5324
##декса	5325
режиссер	5326
##жеб	5327
арми	5328
значительно	5329
ближайшие	5330
партне	5331
лондо	5332
подвер	5333
##менте	5334
историю	5335
траг	5336
американской	5337
эксперти	5338
прибыль	5339
товаров	5340
палаты	5341
середин	5342
лин	5343
сед	5344
##яр	5345
отли	5346
сть	5347
госс	5348
июле	5349
прокуратура	5350
компенса	5351
ван	5352
разде	5353
##ряс	5354
онлайн	5355
дис	5356
повед	5357
сообщал	5358
регион	5359
цели	5360
##ющихся	5361
земель	5362
инстру	5363
августе	5364
говоря	5365
мэр	5366
события	5367
распростра	5368
##лий	5369
прошел	5370
##атья	5371
семья	5372
показатель	5373
генеральный	5374
полицейские	5375
##фикации	5376
вариант	5377
мигрантов	5378
брон	5379
кат	5380
##коном	5381
##лец	5382
##наб	5383
камер	5384
##ственного	5385
бес	5386
вопросов	5387
школь	5388
отставку	5389
вашингто	5390
фр	5391
понять	5392
##мира	5393
привед	5394
журна	5395
политической	5396
торговли	5397
появилась	5398
дове	5399
##ах	5400
##шему	5401
##бр	5402
##зай	5403
тера	5404
кир	5405
территорию	5406
продаж	5407
спокой	5408
очередной	5409
динами	5410
севасто	5411
ано	5412
эн	5413
##стров	5414
##голо	5415
##итут	5416
револю	5417
##нял	5418
##альных	5419
##ательства	5420
базе	5421
будущем	5422
употреб	5423
телеканал	5424
##чью	5425
коль	5426
закуп	5427
##рованию	5428
##фина	5429
общего	5430
национального	5431
субъек	5432
ввп	5433
сахали	5434
неоднократно	5435
трагеди	5436
сче	5437
кост	5438
##ляли	5439
мае	5440
силь	5441
##шают	5442
хочу	5443
англи	5444
последних	5445
обещ	5446
статье	5447
италии	5448
весьма	5449
воспит	5450
ий	5451
татья	5452
##енности	5453
кому	5454
##щики	5455
разные	5456
инжен	5457
##стане	5458
прай	5459
программе	5460
дмитрия	5461
условий	5462
спектак	5463
li	5464
свы	5465
##роваться	5466
любов	5467
газете	5468
граждане	5469
крыму	5470
намерен	5471
позднее	5472
вяче	5473
иль	5474
##льской	5475
##гой	5476
гораз	5477
каб	5478
кандидата	5479
пассажир	5480
сканда	5481
гораздо	5482
устанавли	5483
##овых	5484
мона	5485
лай	5486
норве	5487
выяснилось	5488
здравоохран	5489
te	5490
##ешь	5491
изъ	5492
соглас	5493
другим	5494
проекты	5495
позицию	5496
пострадали	5497
отказался	5498
напада	5499
свыше	5500
млад	5501
шей	5502
поря	5503
знаю	5504
вторы	5505
борту	5506
отделения	5507
музыкан	5508
ввод	5509
твер	5510
##тит	5511
##жным	5512
настро	5513
##лам	5514
150	5515
двумя	5516
институт	5517
магази	5518
статисти	5519
tw	5520
кнд	5521
ух	5522
##чности	5523
случи	5524
произошед	5525
заседание	5526
##начально	5527
неожи	5528
впере	5529
активов	5530
подчерки	5531
сократи	5532
учреждения	5533
##руктур	5534
вин	5535
##цент	5536
коп	5537
консуль	5538
имп	5539
развитию	5540
предлагает	5541
примор	5542
48	5543
вене	5544
##ликт	5545
прост	5546
##виду	5547
предмет	5548
2009	5549
направления	5550
множе	5551
государственных	5552
конфликт	5553
услуги	5554
арбитраж	5555
вряд	5556
зоне	5557
цы	5558
##коми	5559
##стоит	5560
игру	5561
плохо	5562
обеспечи	5563
отрасли	5564
лы	5565
проголо	5566
##чают	5567
серии	5568
марк	5569
вернуть	5570
прокуратуры	5571
вооруженных	5572
севастопо	5573
ведет	5574
среднем	5575
людям	5576
доходов	5577
регуля	5578
взрыва	5579
потеря	5580
шоу	5581
дональд	5582
середине	5583
кндр	5584
##ph	5585
##ходили	5586
числа	5587
целе	5588
начать	5589
порядке	5590
прогноз	5591
объявил	5592
плюс	5593
втб	5594
юго	5595
яро	5596
##жду	5597
завед	5598
##ждать	5599
##проку	5600
украинского	5601
ать	5602
##мс	5603
прес	5604
##ссию	5605
кады	5606
инвали	5607
международный	5608
команди	5609
класси	5610
немного	5611
стоимости	5612
делега	5613
второго	5614
абсолютно	5615
задолжен	5616
пото	5617
##амы	5618
руки	5619
диск	5620
новоси	5621
крат	5622
оказалась	5623
внутренних	5624
правило	5625
on	5626
подпи	5627
мастер	5628
##тического	5629
клиентов	5630
проведение	5631
едино	5632
боевики	5633
оружие	5634
de	5635
уника	5636
##рению	5637
прибли	5638
минима	5639
##сила	5640
обеспечить	5641
опубликован	5642
оппозиции	5643
##сант	5644
##кут	5645
подъ	5646
номер	5647
возника	5648
##щается	5649
##споко	5650
ближ	5651
городской	5652
льго	5653
##рового	5654
северной	5655
ориенти	5656
отре	5657
##сия	5658
дизай	5659
мужчины	5660
чемпионате	5661
отдела	5662
##ехать	5663
здоровья	5664
da	5665
квали	5666
коре	5667
##гий	5668
спра	5669
страш	5670
чеч	5671
##жала	5672
арест	5673
##ступили	5674
наконец	5675
сожалению	5676
новосибир	5677
ров	5678
##лак	5679
странице	5680
##ритет	5681
##анами	5682
##ябрь	5683
пило	5684
здание	5685
миллиардов	5686
вертолет	5687
аэропорту	5688
есте	5689
жу	5690
##тива	5691
##зыв	5692
австра	5693
украинских	5694
холдин	5695
вариан	5696
квартале	5697
екатерин	5698
##провод	5699
хокке	5700
49	5701
дэ	5702
ими	5703
южно	5704
коор	5705
взрос	5706
сборная	5707
обеспечения	5708
прибыли	5709
наблюда	5710
каждого	5711
второе	5712
##рид	5713
корот	5714
прото	5715
##ровании	5716
вышел	5717
моз	5718
ность	5719
бомбар	5720
разбира	5721
мел	5722
##щают	5723
поддержке	5724
республике	5725
напомнил	5726
боевых	5727
краснодар	5728
железно	5729
кг	5730
##ber	5731
столько	5732
далеко	5733
##степ	5734
отметить	5735
генпроку	5736
ребенок	5737
собирается	5738
миллиарда	5739
##посред	5740
путем	5741
ед	5742
##енного	5743
отлич	5744
##мого	5745
мигра	5746
##альной	5747
журналист	5748
сложи	5749
генерал	5750
хими	5751
тюрь	5752
бомбарди	5753
##пев	5754
##чность	5755
полуо	5756
лес	5757
краси	5758
усил	5759
турция	5760
режиме	5761
иногда	5762
появля	5763
версия	5764
хотел	5765
пообещ	5766
ольга	5767
сопрово	5768
for	5769
вру	5770
лед	5771
заказ	5772
пресе	5773
воло	5774
##сами	5775
российском	5776
форм	5777
сложности	5778
читать	5779
44	5780
air	5781
лите	5782
##итов	5783
сор	5784
##дации	5785
##мут	5786
карьер	5787
территори	5788
заниматься	5789
концеп	5790
накоп	5791
имущества	5792
удив	5793
киеве	5794
англий	5795
39	5796
goo	5797
##станции	5798
директоров	5799
использования	5800
привати	5801
технологии	5802
информационное	5803
46	5804
65	5805
наступ	5806
заработ	5807
выгляд	5808
любы	5809
решить	5810
огонь	5811
андрея	5812
протяжении	5813
пле	5814
##жению	5815
вынес	5816
годом	5817
интересов	5818
следующий	5819
связан	5820
политических	5821
социальных	5822
совместно	5823
воспри	5824
степени	5825
##гал	5826
##ваю	5827
начало	5828
знамен	5829
последствия	5830
украинской	5831
штата	5832
анато	5833
потенциаль	5834
алексея	5835
входит	5836
сведения	5837
##лков	5838
##явля	5839
такую	5840
мария	5841
спут	5842
положение	5843
##дей	5844
##жил	5845
##ck	5846
##лина	5847
непосред	5848
##скоре	5849
можем	5850
##граф	5851
летняя	5852
парков	5853
экономике	5854
гео	5855
сирийской	5856
требует	5857
группиров	5858
корреспондент	5859
бак	5860
зим	5861
##пят	5862
##казано	5863
штат	5864
называют	5865
##itter	5866
технологий	5867
##нефть	5868
километров	5869
брюссе	5870
twitter	5871
42	5872
тал	5873
##шек	5874
пришли	5875
##сторон	5876
##пок	5877
власть	5878
##бера	5879
##тических	5880
##нг	5881
разу	5882
сид	5883
сообщение	5884
крити	5885
июне	5886
подобные	5887
инвестиций	5888
появились	5889
промышленности	5890
приобрет	5891
поклон	5892
посад	5893
эфире	5894
неожидан	5895
гром	5896
##стно	5897
##чал	5898
федеральной	5899
находя	5900
волго	5901
доходы	5902
##стойчи	5903
зависимости	5904
##гать	5905
подход	5906
пасп	5907
##цами	5908
отметим	5909
составит	5910
ранения	5911
осужден	5912
общественного	5913
туристов	5914
исламское	5915
иначе	5916
##толог	5917
природ	5918
дефиц	5919
предвы	5920
предстоит	5921
##шили	5922
##ленно	5923
сара	5924
##това	5925
##тые	5926
хоть	5927
##бели	5928
##терн	5929
странами	5930
сезоне	5931
противостоя	5932
донбассе	5933
мошенниче	5934
предвыбор	5935
впечат	5936
##ань	5937
избра	5938
секу	5939
продуктов	5940
специалистов	5941
сервис	5942
проголосов	5943
дю	5944
эль	5945
эмо	5946
##вами	5947
##бок	5948
разно	5949
получения	5950
##ровала	5951
госпитали	5952
##one	5953
событий	5954
негатив	5955
вскоре	5956
заха	5957
##ленный	5958
тамо	5959
главной	5960
расчет	5961
комиссия	5962
модер	5963
порядок	5964
47	5965
южной	5966
##жают	5967
получен	5968
вопросу	5969
руководства	5970
кубка	5971
трудно	5972
блоки	5973
завтра	5974
##стях	5975
полез	5976
ности	5977
##шается	5978
вещи	5979
группе	5980
участием	5981
спикер	5982
европейских	5983
убийство	5984
выплаты	5985
##gle	5986
##гия	5987
бом	5988
##зировать	5989
настоящий	5990
подготовки	5991
").	5992
столкнов	5993
аи	5994
вспо	5995
##бло	5996
госпо	5997
инспек	5998
опу	5999
честь	6000
говори	6001
прошла	6002
службу	6003
установить	6004
выхода	6005
конкурса	6006
трлн	6007
хозяйства	6008
##вшая	6009
##поте	6010
опрошен	6011
бай	6012
запрет	6013
повышение	6014
столь	6015
акцион	6016
границы	6017
россияне	6018
локо	6019
бюро	6020
лидеров	6021
ракеты	6022
блока	6023
глубо	6024
ii	6025
##рк	6026
##ul	6027
могла	6028
195	6029
президенту	6030
состава	6031
попыта	6032
доброво	6033
отсутствие	6034
связано	6035
охо	6036
##пп	6037
больницу	6038
##мериз	6039
американские	6040
сроки	6041
праймериз	6042
ухуд	6043
##лана	6044
подс	6045
делов	6046
каким	6047
лишения	6048
анг	6049
участвовать	6050
направлении	6051
позволя	6052
трое	6053
освобод	6054
завода	6055
договора	6056
недоста	6057
ввести	6058
##бри	6059
##фы	6060
##енной	6061
##ровер	6062
##ционные	6063
жилья	6064
получит	6065
название	6066
субси	6067
добиться	6068
увеличить	6069
##зора	6070
попытки	6071
турнира	6072
индивиду	6073
кем	6074
ски	6075
##шению	6076
##тое	6077
##онали	6078
руководством	6079
составля	6080
проверку	6081
уточнил	6082
сеть	6083
наказание	6084
болель	6085
чрезвы	6086
счетом	6087
google	6088
нара	6089
выгод	6090
подписа	6091
тело	6092
опровер	6093
зенит	6094
оптими	6095
эксплуата	6096
ас	6097
усилия	6098
набра	6099
написа	6100
повер	6101
материалы	6102
грузови	6103
##оте	6104
##швили	6105
##жений	6106
##di	6107
зара	6108
леони	6109
газо	6110
сотрудник	6111
считаю	6112
ведомство	6113
квартиры	6114
вовсе	6115
##щению	6116
привести	6117
##ительным	6118
которыми	6119
итоги	6120
лучших	6121
успех	6122
временем	6123
текущего	6124
оао	6125
чрезвычай	6126
чт	6127
##вину	6128
леген	6129
пострадавших	6130
отрас	6131
ирана	6132
очевидно	6133
рубеж	6134
##эс	6135
##стр	6136
доби	6137
меда	6138
кирил	6139
украину	6140
сделали	6141
доллара	6142
стиму	6143
##езде	6144
патриар	6145
выросла	6146
кпр	6147
ску	6148
##юк	6149
##эк	6150
нагруз	6151
##воритель	6152
##вия	6153
часа	6154
большое	6155
изменений	6156
произошла	6157
мяч	6158
железнодо	6159
кпрф	6160
бут	6161
вну	6162
##ьев	6163
настаи	6164
препод	6165
выбира	6166
##ведом	6167
статьи	6168
памяти	6169
возрасте	6170
самая	6171
news	6172
43	6173
ох	6174
##ились	6175
ночью	6176
предстоя	6177
2020	6178
пару	6179
городов	6180
занимается	6181
мероприятий	6182
прокомментировал	6183
ды	6184
дали	6185
овой	6186
плен	6187
2000	6188
##енью	6189
антон	6190
президенты	6191
многочис	6192
сын	6193
округа	6194
буква	6195
bo	6196
ировать	6197
##змом	6198
##ss	6199
вызов	6200
##ательных	6201
взгляд	6202
большую	6203
пользователей	6204
путеше	6205
керри	6206
##лые	6207
поля	6208
пройти	6209
##восто	6210
произвед	6211
использование	6212
обязательно	6213
примеру	6214
роснефти	6215
приобре	6216
хвата	6217
иска	6218
мм	6219
пох	6220
рады	6221
авторы	6222
базы	6223
семи	6224
качества	6225
резко	6226
вернуться	6227
дополнительные	6228
финансирования	6229
королев	6230
зависит	6231
исключительно	6232
виталий	6233
caption	6234
лонд	6235
ово	6236
##еся	6237
##теля	6238
сег	6239
##чена	6240
политику	6241
альтерн	6242
известиям	6243
олимпийских	6244
ограничения	6245
лондон	6246
альян	6247
вклад	6248
сформи	6249
##пред	6250
##силь	6251
рулем	6252
путь	6253
графи	6254
снижения	6255
##литель	6256
геор	6257
процесса	6258
поправки	6259
капитала	6260
амур	6261
##жить	6262
поступа	6263
##щика	6264
гривен	6265
законодательства	6266
телеканала	6267
убы	6268
хар	6269
##тс	6270
рекон	6271
##против	6272
вез	6273
##цеп	6274
новом	6275
ший	6276
био	6277
медиа	6278
транспор	6279
выступления	6280
финансовых	6281
дипломати	6282
модерни	6283
##энер	6284
застав	6285
переми	6286
##циями	6287
актри	6288
главных	6289
делает	6290
ступ	6291
соревнования	6292
солд	6293
прово	6294
третий	6295
предпоч	6296
прокуро	6297
жертв	6298
сегодняшний	6299
интернете	6300
инвесторов	6301
здравоохранения	6302
ил	6303
лей	6304
##енный	6305
подклю	6306
кав	6307
европейского	6308
выступил	6309
чиновников	6310
подписал	6311
допинг	6312
оф	6313
цене	6314
##вере	6315
##зья	6316
##лаб	6317
зака	6318
##циони	6319
##куда	6320
главой	6321
##способ	6322
верх	6323
находился	6324
проводить	6325
чемпионат	6326
автомати	6327
дуб	6328
лев	6329
устойчи	6330
##яют	6331
досто	6332
миру	6333
возле	6334
оправ	6335
суме	6336
экспери	6337
считается	6338
известный	6339
распреде	6340
интересно	6341
ожид	6342
предварительным	6343
сделки	6344
##чета	6345
изобра	6346
интересы	6347
##ровок	6348
утверждает	6349
михаила	6350
пунктов	6351
причины	6352
аварий	6353
кузнец	6354
wada	6355
##лке	6356
##шло	6357
##яет	6358
челя	6359
туда	6360
планы	6361
православ	6362
суммы	6363
сереб	6364
падения	6365
статус	6366
провинции	6367
##стры	6368
##итек	6369
отстран	6370
подрост	6371
тепло	6372
бесс	6373
случаев	6374
создан	6375
улица	6376
ведомстве	6377
поставки	6378
убийстве	6379
краснояр	6380
наталья	6381
челябин	6382
of	6383
вред	6384
гря	6385
зон	6386
мю	6387
##зой	6388
нему	6389
##ейн	6390
приез	6391
##люка	6392
перене	6393
родители	6394
ro	6395
моря	6396
##гон	6397
мок	6398
тела	6399
2019	6400
прошлой	6401
назвать	6402
класс	6403
професс	6404
понятно	6405
перспектив	6406
вероятно	6407
находились	6408
обстоятельства	6409
архитек	6410
##еть	6411
##нам	6412
##вард	6413
##щихся	6414
исследований	6415
##вшегося	6416
продолжают	6417
крупнейших	6418
en	6419
лоб	6420
##зит	6421
##кол	6422
##кина	6423
соли	6424
кури	6425
шаг	6426
возраст	6427
вороне	6428
41	6429
##гил	6430
концу	6431
опы	6432
минфин	6433
необходимость	6434
проблему	6435
потребитель	6436
креди	6437
местах	6438
##оборот	6439
аварии	6440
девять	6441
er	6442
##гани	6443
покры	6444
насто	6445
##нито	6446
рефор	6447
вылет	6448
##овое	6449
##допин	6450
взять	6451
правительстве	6452
международным	6453
антидопин	6454
правам	6455
окончатель	6456
сахалин	6457
идут	6458
экра	6459
народа	6460
##дила	6461
##дум	6462
чай	6463
основных	6464
большого	6465
внешне	6466
вечерний	6467
авиакомпании	6468
бат	6469
кэ	6470
##дро	6471
##мана	6472
##нике	6473
министров	6474
сообщают	6475
рода	6476
встречу	6477
электри	6478
существенно	6479
возраста	6480
коммуника	6481
нарушений	6482
57	6483
le	6484
ww	6485
днр	6486
##ец	6487
##ация	6488
##рог	6489
заслу	6490
граду	6491
поможет	6492
частью	6493
колонии	6494
инфраструктуры	6495
ели	6496
ых	6497
##лл	6498
##жется	6499
##ks	6500
выйти	6501
осна	6502
российское	6503
##беки	6504
лети	6505
скончался	6506
##py	6507
отличие	6508
росте	6509
##нули	6510
##ственный	6511
пусть	6512
украинские	6513
этапе	6514
класса	6515
врач	6516
устройства	6517
полагает	6518
##стрен	6519
заве	6520
##кус	6521
разы	6522
разо	6523
##сада	6524
##альный	6525
родителей	6526
резо	6527
##roup	6528
начальника	6529
присоедин	6530
##фил	6531
зак	6532
пройдут	6533
конгре	6534
лабора	6535
корпу	6536
авиации	6537
добав	6538
сохранить	6539
узбеки	6540
##эль	6541
##нив	6542
##тировать	6543
##анец	6544
произой	6545
##атай	6546
администрация	6547
кандидату	6548
машина	6549
сотрудничество	6550
съем	6551
гибдд	6552
психологи	6553
следующем	6554
tim	6555
зер	6556
##номо	6557
посту	6558
сос	6559
##ляция	6560
##ейро	6561
моро	6562
контак	6563
мама	6564
сути	6565
решений	6566
##ития	6567
назвали	6568
чемпионов	6569
списка	6570
количества	6571
банкрот	6572
оборудования	6573
животных	6574
религи	6575
ущерб	6576
резолю	6577
нрав	6578
сда	6579
улюка	6580
##рт	6581
экстрен	6582
архи	6583
основные	6584
остальные	6585
местного	6586
заключения	6587
улицы	6588
повышен	6589
идея	6590
"),	6591
кремля	6592
картины	6593
убед	6594
85	6595
ец	6596
##id	6597
постеп	6598
общем	6599
##ровой	6600
мора	6601
стары	6602
группу	6603
отношение	6604
резерв	6605
смерть	6606
борис	6607
купить	6608
предъяв	6609
аю	6610
истре	6611
потра	6612
нема	6613
слуш	6614
сотни	6615
занимает	6616
убийства	6617
избирателей	6618
чиновники	6619
афри	6620
влияние	6621
ежегодно	6622
ао	6623
дар	6624
мут	6625
дожд	6626
преодо	6627
##чества	6628
##амб	6629
##ственным	6630
##бав	6631
тему	6632
ответил	6633
2007	6634
команде	6635
врачи	6636
журналисты	6637
положения	6638
заняти	6639
угрозы	6640
специально	6641
площадь	6642
столкну	6643
следователи	6644
художе	6645
падение	6646
саудовской	6647
просьбой	6648
br	6649
ждет	6650
ирак	6651
ую	6652
##кому	6653
декла	6654
полицию	6655
данном	6656
знает	6657
говорили	6658
роди	6659
городах	6660
работников	6661
типа	6662
другом	6663
социально	6664
стартов	6665
##ехали	6666
выступает	6667
письмо	6668
злоумышлен	6669
52	6670
##чан	6671
обой	6672
опек	6673
##говари	6674
##стовер	6675
##отвра	6676
территория	6677
торже	6678
официальном	6679
джо	6680
школе	6681
подготовке	6682
исче	6683
отказались	6684
заболевания	6685
видимо	6686
въ	6687
мать	6688
##кли	6689
##лили	6690
пережи	6691
##стую	6692
компанией	6693
случаях	6694
производителей	6695
кроссов	6696
дорог	6697
городского	6698
никакого	6699
инфляции	6700
copy	6701
игроков	6702
##right	6703
соблюд	6704
татьяна	6705
copyright	6706
ались	6707
вдо	6708
ипоте	6709
##тан	6710
##te	6711
##тория	6712
##зия	6713
компози	6714
авст	6715
киева	6716
педа	6717
##рованных	6718
думы	6719
гражданской	6720
московский	6721
зоны	6722
диаг	6723
появится	6724
жанейро	6725
означает	6726
##игры	6727
локомо	6728
53	6729
джи	6730
##жная	6731
захо	6732
прохо	6733
##ранов	6734
напоминает	6735
форме	6736
шего	6737
гибели	6738
другого	6739
подтвердили	6740
фас	6741
выпуска	6742
внед	6743
##берг	6744
победа	6745
самостоятельно	6746
пообещал	6747
bl	6748
ада	6749
кова	6750
точ	6751
нибуд	6752
диску	6753
судя	6754
заверши	6755
тенни	6756
госсек	6757
нибудь	6758
шве	6759
##тки	6760
показали	6761
застрой	6762
счета	6763
петра	6764
недав	6765
гендиректор	6766
yo	6767
гим	6768
ирина	6769
лов	6770
##ид	6771
##лая	6772
##мера	6773
таком	6774
##полномо	6775
земле	6776
другое	6777
ходатай	6778
общественной	6779
региональных	6780
материалов	6781
успешно	6782
вак	6783
вете	6784
иной	6785
##ьи	6786
##ad	6787
##ve	6788
обстанов	6789
##зал	6790
представляет	6791
луган	6792
оборон	6793
источников	6794
задержаны	6795
восточной	6796
играх	6797
добро	6798
квартире	6799
пожара	6800
очков	6801
коррупции	6802
евросоюза	6803
потребов	6804
отдыха	6805
09	6806
am	6807
тео	6808
спроса	6809
знают	6810
пове	6811
центроб	6812
семье	6813
остались	6814
##щенко	6815
наука	6816
прокурор	6817
заместителя	6818
передачи	6819
молодой	6820
аук	6821
ar	6822
group	6823
удо	6824
ца	6825
##шку	6826
##жат	6827
забы	6828
вошли	6829
пересмот	6830
одному	6831
долг	6832
готова	6833
война	6834
планируют	6835
тенден	6836
писали	6837
##кель	6838
##мини	6839
отда	6840
##рыва	6841
##дует	6842
предна	6843
даге	6844
национали	6845
##лится	6846
русской	6847
чист	6848
пытаются	6849
противоре	6850
коллектив	6851
калинин	6852
жилищ	6853
воспользов	6854
араб	6855
еж	6856
оке	6857
фей	6858
##дц	6859
##хан	6860
##эй	6861
##года	6862
проходят	6863
мос	6864
предотвра	6865
##писы	6866
##гранич	6867
российско	6868
компанию	6869
##хоз	6870
учени	6871
ших	6872
направлен	6873
китае	6874
существую	6875
объяснил	6876
дональда	6877
белоруссии	6878
фракции	6879
бороться	6880
отриц	6881
овая	6882
##рома	6883
##дино	6884
номина	6885
##ительное	6886
друзья	6887
##летряс	6888
печ	6889
действие	6890
украинский	6891
землетряс	6892
защите	6893
русского	6894
играть	6895
подобных	6896
видно	6897
евгения	6898
нападения	6899
ввс	6900
идти	6901
истреб	6902
ув	6903
уполномо	6904
##стат	6905
нами	6906
наме	6907
##кали	6908
##ссель	6909
##стической	6910
ребя	6911
изначально	6912
боя	6913
участков	6914
курса	6915
космо	6916
продолжается	6917
фун	6918
тяжело	6919
париже	6920
запрос	6921
константин	6922
фра	6923
##стных	6924
изо	6925
структур	6926
##чики	6927
вело	6928
существов	6929
блок	6930
рабочих	6931
госсекрета	6932
600	6933
##om	6934
##ительную	6935
##ждению	6936
долги	6937
осталось	6938
отец	6939
самолетов	6940
##видеть	6941
похоже	6942
коллеги	6943
температура	6944
валерий	6945
эрдоган	6946
безуслов	6947
буквально	6948
снима	6949
##циона	6950
##пой	6951
представля	6952
##чук	6953
продукты	6954
каждой	6955
принадлежит	6956
сомн	6957
www	6958
ающий	6959
сар	6960
сказ	6961
##кор	6962
##нау	6963
##менов	6964
иннова	6965
комфор	6966
парк	6967
орган	6968
##ложить	6969
нужда	6970
операция	6971
месторо	6972
брат	6973
единая	6974
появился	6975
острова	6976
увеличение	6977
давление	6978
бирже	6979
восьми	6980
таможен	6981
800	6982
##рели	6983
##лева	6984
большим	6985
техника	6986
источника	6987
атмос	6988
богат	6989
сна	6990
##нх	6991
##ge	6992
показал	6993
##кал	6994
зале	6995
веще	6996
##бах	6997
##вяз	6998
слово	6999
##надзор	7000
предприятие	7001
серьезно	7002
потерпев	7003
полицейских	7004
девушка	7005
учитывая	7006
недвижимости	7007
апел	7008
век	7009
упла	7010
##эт	7011
нашим	7012
выб	7013
анто	7014
##итив	7015
связь	7016
назначения	7017
располага	7018
молодых	7019
предполагается	7020
вашингтон	7021
потенци	7022
наверное	7023
избежать	7024
лондоне	7025
вину	7026
тов	7027
эпо	7028
##снаб	7029
запла	7030
проспек	7031
през	7032
премии	7033
повтор	7034
джей	7035
проводится	7036
исправ	7037
русский	7038
прогнози	7039
финансирование	7040
километ	7041
церкви	7042
регулярно	7043
педаго	7044
it	7045
ают	7046
мемо	7047
ол	7048
уме	7049
##дером	7050
перено	7051
началась	7052
бара	7053
сына	7054
григо	7055
растет	7056
подразделения	7057
ждать	7058
мск	7059
сча	7060
##ляться	7061
принес	7062
органах	7063
знамени	7064
клиента	7065
благот	7066
внимания	7067
##градской	7068
терактов	7069
обратился	7070
считать	7071
реконструк	7072
игил	7073
квад	7074
##ci	7075
пошли	7076
##тая	7077
вышли	7078
##газ	7079
пау	7080
актуаль	7081
музей	7082
курор	7083
лагер	7084
безопасность	7085
добавля	7086
прекращения	7087
требований	7088
западе	7089
поколения	7090
патру	7091
множество	7092
кров	7093
уста	7094
##спи	7095
сад	7096
лечение	7097
европу	7098
встрет	7099
крупные	7100
затра	7101
черного	7102
попал	7103
различные	7104
соревнований	7105
полномочий	7106
взыск	7107
сфер	7108
налог	7109
##риз	7110
##руем	7111
домой	7112
секрет	7113
вмеш	7114
запрещена	7115
намерены	7116
задачи	7117
зарплаты	7118
отказаться	7119
категории	7120
бит	7121
овых	7122
рен	7123
титу	7124
юби	7125
##ака	7126
##пс	7127
пот	7128
##рик	7129
общая	7130
##лями	7131
какое	7132
осенью	7133
служеб	7134
анна	7135
москви	7136
действует	7137
ведо	7138
дважды	7139
дорожного	7140
молда	7141
европейской	7142
память	7143
захв	7144
фотографии	7145
хак	7146
##шой	7147
##жением	7148
нелега	7149
##нести	7150
##андат	7151
самм	7152
экономических	7153
получат	7154
меркель	7155
никак	7156
концерт	7157
рейтинг	7158
психи	7159
египет	7160
обсуд	7161
поверх	7162
религиоз	7163
вре	7164
увидеть	7165
##лла	7166
##анного	7167
##лига	7168
общий	7169
разгово	7170
комн	7171
вида	7172
большие	7173
будущее	7174
вопроса	7175
целях	7176
создании	7177
мнения	7178
повышения	7179
эффект	7180
искусства	7181
принадлежа	7182
десятки	7183
упал	7184
капитал	7185
военнослужащих	7186
федо	7187
дже	7188
древ	7189
##нопо	7190
наличи	7191
заем	7192
соци	7193
отря	7194
##рована	7195
плане	7196
услов	7197
делают	7198
продаже	7199
продажу	7200
##ющиеся	7201
оценки	7202
нужны	7203
фигуран	7204
брига	7205
##ниторин	7206
втора	7207
пти	7208
шар	7209
##еха	7210
##хл	7211
##бек	7212
поним	7213
дея	7214
193	7215
самар	7216
детям	7217
станут	7218
шай	7219
заявлении	7220
востока	7221
оценкам	7222
греции	7223
штаб	7224
соцсет	7225
обязанности	7226
алтай	7227
вторая	7228
впос	7229
пры	7230
сно	7231
сказали	7232
##вития	7233
обру	7234
дочь	7235
##вига	7236
##ледствии	7237
перм	7238
участок	7239
##ложил	7240
база	7241
испы	7242
испан	7243
##ess	7244
документе	7245
малы	7246
форума	7247
останется	7248
ярослав	7249
литера	7250
постепенно	7251
впоследствии	7252
входят	7253
##тный	7254
##сер	7255
зал	7256
долю	7257
бывает	7258
нидер	7259
больнице	7260
телеви	7261
конец	7262
лидеры	7263
валенти	7264
предприниматель	7265
максимально	7266
fi	7267
##але	7268
##бан	7269
##анси	7270
##гора	7271
доли	7272
достой	7273
##ссив	7274
мекси	7275
остаются	7276
высокой	7277
лучший	7278
футболу	7279
уверены	7280
свидете	7281
фестиваля	7282
хватает	7283
##тран	7284
##gra	7285
##рации	7286
поток	7287
больницы	7288
новогод	7289
представить	7290
платить	7291
обвинение	7292
клад	7293
преступлений	7294
пытались	7295
хотели	7296
инцидента	7297
десятилети	7298
and	7299
##лым	7300
##вят	7301
примет	7302
##мая	7303
##шими	7304
такси	7305
##ителю	7306
пеше	7307
действовать	7308
судья	7309
отношению	7310
библи	7311
книги	7312
любовь	7313
екатеринбур	7314
la	7315
жк	7316
ической	7317
сэ	7318
##ус	7319
##лод	7320
##фона	7321
наоборот	7322
робо	7323
стен	7324
стек	7325
ками	7326
##тым	7327
полном	7328
результата	7329
русская	7330
нашу	7331
протеста	7332
нужна	7333
посмотреть	7334
немало	7335
вроде	7336
##мод	7337
пога	7338
##татом	7339
##воро	7340
мото	7341
переста	7342
##ленного	7343
повто	7344
главная	7345
последнего	7346
голос	7347
продемон	7348
генерального	7349
единственный	7350
желание	7351
динамо	7352
выглядит	7353
продемонстри	7354
днев	7355
ждут	7356
уход	7357
фан	7358
##кри	7359
##рист	7360
##ствова	7361
досро	7362
##оби	7363
развер	7364
своему	7365
средне	7366
федеральный	7367
сыр	7368
идеи	7369
пытается	7370
коммуна	7371
правильно	7372
коммерсант	7373
весной	7374
фестиваль	7375
утверждают	7376
вспом	7377
иркут	7378
безусловно	7379
ические	7380
##жали	7381
##льского	7382
прос	7383
обамы	7384
гостей	7385
##ательной	7386
открытие	7387
этап	7388
##енностей	7389
доллар	7390
креп	7391
компьютер	7392
08	7393
дани	7394
сбо	7395
##щений	7396
##овал	7397
##ержа	7398
##нием	7399
рано	7400
предложен	7401
##сив	7402
##суди	7403
повест	7404
##шены	7405
полной	7406
риск	7407
госде	7408
центральной	7409
гаранти	7410
коалиции	7411
дисци	7412
импорт	7413
бомбардиров	7414
##зод	7415
начи	7416
##рим	7417
зао	7418
соз	7419
прочи	7420
##ляются	7421
прият	7422
моя	7423
##зию	7424
ников	7425
##скать	7426
границу	7427
министром	7428
основании	7429
получать	7430
##вшийся	7431
изменить	7432
старший	7433
сокращение	7434
инфек	7435
идею	7436
паралимпи	7437
квартир	7438
мяг	7439
результатам	7440
филип	7441
публикации	7442
координа	7443
iph	7444
зуб	7445
рисков	7446
##жо	7447
##ik	7448
##вало	7449
страх	7450
250	7451
ограничен	7452
визита	7453
предложили	7454
исчез	7455
iphone	7456
оскор	7457
##фонов	7458
контин	7459
долга	7460
видов	7461
новостей	7462
военный	7463
енный	7464
качество	7465
заключен	7466
связанные	7467
показать	7468
предлагают	7469
обязательства	7470
привлечь	7471
претенд	7472
верховной	7473
оперативно	7474
патрио	7475
армия	7476
vi	7477
юр	7478
##сети	7479
##чете	7480
##рое	7481
##щими	7482
инду	7483
белого	7484
решению	7485
полтора	7486
офиц	7487
политик	7488
собственности	7489
объекты	7490
inter	7491
постановление	7492
устройство	7493
пакет	7494
грозит	7495
взятки	7496
предназна	7497
кле	7498
##бил	7499
##банк	7500
##ay	7501
##тика	7502
мониторин	7503
опро	7504
главу	7505
##ствию	7506
противодей	7507
операцию	7508
отношениях	7509
областной	7510
сенатор	7511
удовлетвор	7512
мутко	7513
крови	7514
лек	7515
уп	7516
хан	7517
##енным	7518
##рике	7519
##атся	7520
непро	7521
обя	7522
допро	7523
годам	7524
бок	7525
##ательств	7526
границе	7527
ведут	7528
числен	7529
остался	7530
людьми	7531
установлено	7532
великой	7533
процессе	7534
##ступила	7535
праздник	7536
взаи	7537
районах	7538
заметил	7539
долгосро	7540
магазин	7541
95	7542
ись	7543
ить	7544
лд	7545
##зинов	7546
##нав	7547
зачем	7548
отказыва	7549
розы	7550
какая	7551
##ремя	7552
правления	7553
будущего	7554
связаны	7555
содей	7556
мурманска	7557
начнут	7558
снизить	7559
звон	7560
реаги	7561
регистрации	7562
названием	7563
times	7564
дне	7565
диз	7566
##стся	7567
деше	7568
вино	7569
мусуль	7570
##стрее	7571
значи	7572
необходимые	7573
советского	7574
енные	7575
проводит	7576
политического	7577
##вшихся	7578
финансовые	7579
содержание	7580
турнир	7581
питания	7582
потребу	7583
настолько	7584
ежед	7585
##син	7586
заработа	7587
##сторо	7588
##жном	7589
летней	7590
рыно	7591
порту	7592
искать	7593
связанных	7594
штур	7595
окружа	7596
лицо	7597
атлети	7598
предпринимателей	7599
писал	7600
евросоюз	7601
рознич	7602
вячеслав	7603
захарова	7604
благотворитель	7605
##ьет	7606
##жут	7607
##таж	7608
препят	7609
##дик	7610
202	7611
либера	7612
лука	7613
фильме	7614
попасть	7615
нынешнего	7616
замминистра	7617
игоря	7618
золото	7619
получается	7620
##сятся	7621
замороз	7622
вперед	7623
уполномочен	7624
##жную	7625
##нина	7626
созн	7627
проф	7628
##валось	7629
##вающих	7630
роско	7631
##село	7632
##тех	7633
лидером	7634
сало	7635
##альные	7636
миллион	7637
##развития	7638
науки	7639
минэконом	7640
неуда	7641
минэкономразвития	7642
66	7643
##лле	7644
##ершен	7645
##кает	7646
реша	7647
мои	7648
воздей	7649
российскую	7650
руках	7651
##совершен	7652
проведении	7653
врача	7654
проверка	7655
объясняет	7656
ликвиди	7657
инженер	7658
воронеж	7659
оли	7660
слыш	7661
подели	7662
замп	7663
##ссу	7664
дают	7665
акция	7666
певи	7667
клим	7668
наук	7669
закону	7670
пытался	7671
театр	7672
поставок	7673
олимпиаде	7674
пресечения	7675
взаимо	7676
зампред	7677
рит	7678
##сор	7679
##тору	7680
регла	7681
российскими	7682
решением	7683
дум	7684
операций	7685
надежда	7686
опубликовал	7687
ученых	7688
обязательств	7689
попросил	7690
дальнейшем	7691
корпоратив	7692
опрошенных	7693
атом	7694
исте	7695
опол	7696
##чением	7697
пой	7698
рок	7699
росту	7700
стани	7701
долгов	7702
взно	7703
взор	7704
судом	7705
стороне	7706
результатов	7707
насле	7708
удастся	7709
продю	7710
законом	7711
округе	7712
оценке	7713
серьезные	7714
пользователи	7715
бесплат	7716
письма	7717
медведе	7718
финансовой	7719
молодежи	7720
академии	7721
05	7722
67	7723
##шед	7724
колон	7725
##руя	7726
пришел	7727
вышла	7728
миро	7729
симп	7730
властями	7731
вадим	7732
обращения	7733
##шенко	7734
минзд	7735
рим	7736
дороге	7737
официального	7738
исследователь	7739
предлагается	7740
чиновник	7741
светлана	7742
получают	7743
гонки	7744
афгани	7745
урал	7746
музея	7747
is	7748
илья	7749
нп	7750
##ft	7751
приме	7752
быстрее	7753
##гина	7754
##ателю	7755
дама	7756
румы	7757
рубль	7758
##ложения	7759
детьми	7760
родился	7761
коррек	7762
офис	7763
центрального	7764
благодар	7765
продви	7766
врачей	7767
старт	7768
занял	7769
аэропорт	7770
медицинской	7771
окончания	7772
кадров	7773
николая	7774
энергетики	7775
стандарт	7776
знаменит	7777
товар	7778
54	7779
лод	7780
уйти	7781
поку	7782
наше	7783
##ляцию	7784
##стиан	7785
##нят	7786
тура	7787
живет	7788
карты	7789
ранен	7790
надежды	7791
сократить	7792
общественных	7793
прекрас	7794
мэра	7795
штаба	7796
оборудование	7797
выросли	7798
швейца	7799
денис	7800
предусматривает	7801
кавказ	7802
профессор	7803
56	7804
гро	7805
устраи	7806
##аги	7807
##чке	7808
наличие	7809
выраж	7810
нос	7811
могло	7812
120	7813
##ort	7814
исследование	7815
1990	7816
пункта	7817
предполагает	7818
визит	7819
машину	7820
испытания	7821
замеч	7822
экипажа	7823
mar	7824
вкла	7825
ищ	7826
сити	7827
устран	7828
цар	7829
##ran	7830
расти	7831
##ленной	7832
проекте	7833
телевид	7834
помощник	7835
преследов	7836
длитель	7837
ужа	7838
##сель	7839
##щал	7840
##овые	7841
недель	7842
отс	7843
##чали	7844
##тели	7845
##гает	7846
посред	7847
видим	7848
арс	7849
духов	7850
готовности	7851
сообщило	7852
мурманской	7853
народного	7854
угроза	7855
грип	7856
мировых	7857
церков	7858
аравии	7859
прозра	7860
77	7861
банд	7862
кс	7863
мани	7864
хле	7865
ясно	7866
копи	7867
нес	7868
дону	7869
прис	7870
изоб	7871
##слава	7872
позитив	7873
третье	7874
третьего	7875
воздуха	7876
смотреть	7877
отечественной	7878
небольшой	7879
традиционно	7880
вынужден	7881
чечни	7882
ребята	7883
ического	7884
сним	7885
эсто	7886
##хват	7887
##bc	7888
##думы	7889
##ковой	7890
подвод	7891
суток	7892
виду	7893
больших	7894
обращение	7895
среднего	7896
водителя	7897
электроэнер	7898
исходя	7899
товари	7900
отвечает	7901
приоритет	7902
совершил	7903
сюжет	7904
флота	7905
топлива	7906
лдпр	7907
аются	7908
дем	7909
ическая	7910
опа	7911
овые	7912
##ation	7913
бокс	7914
возму	7915
планах	7916
получение	7917
состоялась	7918
здании	7919
футбол	7920
чисто	7921
борьбу	7922
голосование	7923
тренера	7924
отдельных	7925
бориса	7926
эпизод	7927
ический	7928
нд	7929
счаст	7930
##дить	7931
##цар	7932
##зак	7933
поп	7934
привет	7935
##главы	7936
турцию	7937
открыто	7938
населенных	7939
попали	7940
замглавы	7941
травмы	7942
теракта	7943
представителями	7944
смеш	7945
платфор	7946
екатерина	7947
костю	7948
кадыров	7949
саратов	7950
госпожа	7951
провока	7952
адап	7953
очи	7954
явно	7955
##ерва	7956
пребы	7957
моей	7958
властям	7959
трево	7960
полков	7961
пик	7962
приняла	7963
генна	7964
никакой	7965
предоставить	7966
белорусс	7967
аиф	7968
азии	7969
длин	7970
физ	7971
фанта	7972
##мед	7973
##енность	7974
##нился	7975
обжа	7976
обнарод	7977
вызывает	7978
посла	7979
сделан	7980
##собра	7981
продоволь	7982
пенсии	7983
состоит	7984
объявлен	7985
пропаган	7986
контракта	7987
мельдо	7988
рестора	7989
генпрокура	7990
заксобра	7991
51	7992
62	7993
se	7994
нского	7995
ябло	7996
солн	7997
##валась	7998
отка	7999
каре	8000
мирового	8001
##шив	8002
##чивать	8003
##альным	8004
##ательные	8005
анге	8006
началось	8007
повлия	8008
федеральных	8009
воду	8010
2006	8011
городских	8012
##ine	8013
груз	8014
ins	8015
активы	8016
объявили	8017
поддерживает	8018
демонстри	8019
артист	8020
бразилии	8021
рп	8022
ске	8023
##um	8024
соко	8025
##стила	8026
роса	8027
##кович	8028
вир	8029
лечения	8030
начались	8031
тема	8032
заключение	8033
обсуждения	8034
роснефть	8035
появилось	8036
транспортных	8037
спокойно	8038
пешеход	8039
ex	8040
фаль	8041
##жки	8042
##li	8043
потери	8044
налого	8045
отклю	8046
выстре	8047
разобра	8048
стабили	8049
ужесто	8050
лега	8051
данной	8052
значение	8053
##озгла	8054
объектив	8055
сверд	8056
достигну	8057
солне	8058
песни	8059
озву	8060
гражданин	8061
брюсселе	8062
оскорб	8063
59	8064
двер	8065
ленты	8066
ржд	8067
шам	8068
##цова	8069
##льности	8070
заво	8071
забра	8072
проходи	8073
##жим	8074
послу	8075
##жены	8076
барак	8077
последним	8078
состоялся	8079
сексу	8080
пояснили	8081
дополнительных	8082
аналитики	8083
шансы	8084
баррелей	8085
олимпиады	8086
гимна	8087
ает	8088
входя	8089
ез	8090
##тур	8091
##илот	8092
индии	8093
##пись	8094
##жности	8095
ослаб	8096
решать	8097
ведется	8098
основания	8099
высокий	8100
состоянию	8101
голоса	8102
надеюсь	8103
самолеты	8104
беспилот	8105
поздрав	8106
рейтинге	8107
ресурсов	8108
париж	8109
профилак	8110
зрителей	8111
схем	8112
жкх	8113
начиная	8114
64	8115
sa	8116
оса	8117
тщ	8118
##ик	8119
##хам	8120
##йн	8121
##локи	8122
информи	8123
перечис	8124
банке	8125
полгода	8126
сотрудниками	8127
управлении	8128
открытия	8129
политические	8130
счету	8131
польши	8132
времена	8133
начнется	8134
законопроекта	8135
кремле	8136
обратиться	8137
живут	8138
подверг	8139
приведет	8140
brent	8141
mer	8142
боб	8143
езд	8144
снг	8145
хват	8146
погод	8147
поедин	8148
##лога	8149
проход	8150
разъ	8151
получает	8152
серти	8153
ситуацией	8154
третьем	8155
запуск	8156
задей	8157
партнеров	8158
силовые	8159
норматив	8160
дисципли	8161
хор	8162
##ай	8163
изготов	8164
##стая	8165
обозна	8166
показывает	8167
владимиру	8168
списке	8169
четверть	8170
обсудили	8171
фами	8172
образование	8173
достижения	8174
потребителей	8175
народной	8176
звезда	8177
##знать	8178
виктора	8179
мечта	8180
владелец	8181
асада	8182
блю	8183
яцен	8184
##зен	8185
##анным	8186
##низ	8187
проник	8188
##емым	8189
##нера	8190
голу	8191
##баров	8192
решении	8193
организацию	8194
расстоя	8195
производитель	8196
этапа	8197
собственной	8198
надежду	8199
##гант	8200
спортсмены	8201
квартиру	8202
превышает	8203
областного	8204
атаки	8205
наказания	8206
уволь	8207
кнр	8208
пожи	8209
поисков	8210
##рией	8211
соба	8212
##гистра	8213
опять	8214
жесто	8215
термина	8216
плана	8217
финлян	8218
правозащит	8219
гражданам	8220
земля	8221
каждом	8222
огне	8223
применения	8224
полагают	8225
вдруг	8226
поиска	8227
митин	8228
справедливо	8229
лицензии	8230
приватизации	8231
дефицит	8232
леонид	8233
кирилл	8234
02	8235
##бель	8236
##чется	8237
опере	8238
тульской	8239
средняя	8240
многом	8241
нормы	8242
подал	8243
выставка	8244
сверх	8245
аппарата	8246
армей	8247
оказывается	8248
непосредственно	8249
градусов	8250
sh	8251
брос	8252
ех	8253
одино	8254
цвета	8255
##co	8256
##потреб	8257
##выми	8258
##ждена	8259
##кера	8260
##жая	8261
полуго	8262
ваго	8263
##прият	8264
еврокоми	8265
соглашений	8266
карто	8267
принятия	8268
##шихся	8269
встрети	8270
войне	8271
подтвержда	8272
позиция	8273
анализ	8274
задач	8275
туристи	8276
голод	8277
признать	8278
минуты	8279
вырази	8280
шанс	8281
любом	8282
инвесторы	8283
артем	8284
73	8285
дат	8286
лета	8287
##иков	8288
##ллек	8289
##ьте	8290
##vi	8291
##ард	8292
подчин	8293
мега	8294
переме	8295
одни	8296
дисп	8297
расска	8298
экономику	8299
адре	8300
правительством	8301
владимиром	8302
коллег	8303
сектора	8304
единиц	8305
специалист	8306
предоста	8307
продолжать	8308
университет	8309
поддерживать	8310
рекомендов	8311
имущество	8312
формирования	8313
египта	8314
интеллек	8315
венесу	8316
солдат	8317
дли	8318
опис	8319
ового	8320
пово	8321
##стин	8322
подар	8323
рада	8324
доктор	8325
##постав	8326
##енте	8327
тара	8328
бесед	8329
работо	8330
хотим	8331
планов	8332
территорий	8333
2004	8334
государственный	8335
занимал	8336
ставка	8337
европейский	8338
аналитик	8339
довер	8340
заблоки	8341
покинуть	8342
полномочия	8343
держа	8344
магнит	8345
эвакуи	8346
58	8347
##зли	8348
поро	8349
##лера	8350
разве	8351
индекс	8352
сиби	8353
глаз	8354
##ционным	8355
банком	8356
судов	8357
пилот	8358
обоснов	8359
лучшие	8360
испании	8361
путиным	8362
достаточ	8363
нашем	8364
минуте	8365
введения	8366
демократической	8367
памятник	8368
фирмы	8369
нанес	8370
злоупотреб	8371
07	8372
76	8373
вкс	8374
жена	8375
куд	8376
пал	8377
пента	8378
сви	8379
##вд	8380
##шко	8381
нав	8382
##дуют	8383
##мах	8384
фикси	8385
регионы	8386
направлены	8387
объеме	8388
министерстве	8389
население	8390
частично	8391
прекратить	8392
разработки	8393
нижегород	8394
вынуждены	8395
подозреваемых	8396
другая	8397
экстремист	8398
естественно	8399
квадрат	8400
ическое	8401
кня	8402
шим	8403
пун	8404
василь	8405
##вян	8406
открыл	8407
школ	8408
пострадал	8409
исполнения	8410
выполнения	8411
объявила	8412
требуется	8413
заявлял	8414
случайно	8415
помогает	8416
докладе	8417
реформы	8418
ушел	8419
цу	8420
чп	8421
##кей	8422
##ke	8423
##sj	8424
покупа	8425
проигра	8426
##ково	8427
##суа	8428
парка	8429
финал	8430
америки	8431
кримина	8432
войну	8433
шара	8434
периода	8435
мурманске	8436
михай	8437
намерена	8438
ростовской	8439
реклам	8440
звезды	8441
константи	8442
половине	8443
договорились	8444
церемонии	8445
задолженности	8446
достоин	8447
печати	8448
72	8449
ый	8450
##хой	8451
##цо	8452
##нами	8453
проявля	8454
доклад	8455
волон	8456
##полу	8457
разрабаты	8458
сирию	8459
силами	8460
осмот	8461
артил	8462
правительству	8463
проведет	8464
проводят	8465
обеспечение	8466
показатели	8467
объемы	8468
путину	8469
народный	8470
##oom	8471
диалог	8472
нападение	8473
препаратов	8474
половины	8475
поступило	8476
анатолий	8477
артилле	8478
охран	8479
трой	8480
швед	8481
юлия	8482
##de	8483
##латно	8484
неве	8485
непра	8486
выходит	8487
выдели	8488
подзем	8489
всероссий	8490
##жив	8491
##ственная	8492
оппон	8493
стоят	8494
черном	8495
поставить	8496
площадью	8497
беремен	8498
канала	8499
недоволь	8500
минус	8501
хотелось	8502
валюты	8503
соцсети	8504
седь	8505
свердлов	8506
sta	8507
борт	8508
вли	8509
кис	8510
тере	8511
##хин	8512
##мей	8513
прояв	8514
мост	8515
##вец	8516
##сии	8517
##сист	8518
селе	8519
средней	8520
районов	8521
многое	8522
школу	8523
заключается	8524
показания	8525
продукцию	8526
ставропо	8527
##оряд	8528
вернулся	8529
культура	8530
##повед	8531
девяти	8532
железнодоро	8533
99	8534
ающих	8535
мк	8536
##мбу	8537
##лям	8538
приступ	8539
тест	8540
одерж	8541
саака	8542
начался	8543
экспорта	8544
шая	8545
сделано	8546
определить	8547
##all	8548
угрозу	8549
собираются	8550
канад	8551
собрания	8552
товары	8553
принципи	8554
начинает	8555
армении	8556
поручил	8557
##вшейся	8558
портал	8559
сбербанка	8560
трагедии	8561
стимули	8562
буты	8563
паралимпий	8564
жителям	8565
снять	8566
убит	8567
##юр	8568
##гры	8569
##вились	8570
##лую	8571
новин	8572
строго	8573
руководителей	8574
жизн	8575
двусторон	8576
соответствует	8577
защиту	8578
ставку	8579
бюджетных	8580
борьба	8581
подозрева	8582
спасатели	8583
крайней	8584
язык	8585
неизвестно	8586
взяли	8587
охраны	8588
интегра	8589
перспективы	8590
высказы	8591
заранее	8592
саакашвили	8593
700	8594
##цкий	8595
кот	8596
заба	8597
рад	8598
стамбу	8599
первен	8600
акку	8601
скому	8602
участии	8603
поддержал	8604
научно	8605
закончи	8606
штате	8607
временно	8608
прямой	8609
возглавил	8610
заметно	8611
казалось	8612
договоренности	8613
привело	8614
ведущих	8615
спраши	8616
рубежом	8617
серебря	8618
ато	8619
ающие	8620
##опера	8621
##жь	8622
##читься	8623
##нической	8624
выжи	8625
##мас	8626
разговор	8627
##няются	8628
сел	8629
села	8630
##изо	8631
##люб	8632
данного	8633
автоном	8634
основная	8635
петро	8636
смогла	8637
ряде	8638
проверить	8639
называется	8640
бесплатно	8641
наиболь	8642
коммунист	8643
здоровье	8644
стратегии	8645
требуют	8646
отоз	8647
комментариев	8648
01	8649
68	8650
or	8651
астро	8652
дил	8653
уде	8654
эми	8655
##яг	8656
##фу	8657
##sc	8658
похи	8659
ство	8660
##май	8661
##сел	8662
рубрике	8663
серде	8664
##хождения	8665
риска	8666
информацией	8667
2005	8668
плот	8669
человеку	8670
поддержать	8671
продать	8672
фильмов	8673
инвестиции	8674
голову	8675
смысле	8676
отреаги	8677
карьеру	8678
мюнх	8679
испыты	8680
po	8681
ур	8682
эли	8683
##иль	8684
##нолет	8685
пон	8686
##ницей	8687
несовершен	8688
закреп	8689
резид	8690
переработ	8691
майд	8692
##бии	8693
экономические	8694
строить	8695
крупном	8696
##ank	8697
обыгра	8698
объекта	8699
космод	8700
торговых	8701
сирийского	8702
мвф	8703
правоохранительные	8704
соответствующие	8705
решила	8706
характери	8707
герои	8708
помещения	8709
перспективе	8710
казахстана	8711
несовершеннолет	8712
vol	8713
дель	8714
нском	8715
юрия	8716
закан	8717
обсе	8718
моста	8719
##луй	8720
поднима	8721
разработа	8722
##рят	8723
дава	8724
аргу	8725
средний	8726
лау	8727
агентству	8728
врата	8729
секретаря	8730
празднич	8731
традиции	8732
вероятность	8733
причине	8734
хуже	8735
причастности	8736
мемори	8737
69	8738
олега	8739
щих	8740
##тек	8741
##рай	8742
##нились	8743
корей	8744
отца	8745
##ительная	8746
автова	8747
хочется	8748
арка	8749
бабу	8750
сообщали	8751
священ	8752
рыб	8753
возможных	8754
основным	8755
управлением	8756
американская	8757
установили	8758
заключил	8759
отделение	8760
начнет	8761
применя	8762
оставить	8763
выставки	8764
килограм	8765
финансового	8766
ветер	8767
текст	8768
льгот	8769
преподав	8770
внешнеполи	8771
##gram	8772
04	8773
клет	8774
##жья	8775
начин	8776
коз	8777
##екта	8778
лиди	8779
скорой	8780
полета	8781
взгля	8782
получении	8783
дорого	8784
торгово	8785
хабаров	8786
джор	8787
угле	8788
окончательно	8789
жертвами	8790
ресурс	8791
аппарат	8792
разведки	8793
израиль	8794
взаимодействия	8795
##ube	8796
неожиданно	8797
произойдет	8798
##ворота	8799
ази	8800
флаг	8801
##юри	8802
##ax	8803
##дами	8804
призыва	8805
выезд	8806
подви	8807
теп	8808
пас	8809
васили	8810
турцией	8811
создана	8812
хороший	8813
успеха	8814
играет	8815
большинства	8816
ислами	8817
нынешнем	8818
высказа	8819
инициативы	8820
красной	8821
выполнять	8822
ремонта	8823
совершении	8824
спасти	8825
десятков	8826
скандал	8827
режиссера	8828
фронта	8829
сообщества	8830
посольства	8831
дисквали	8832
профсою	8833
th	8834
us	8835
##логов	8836
радо	8837
##вах	8838
откуда	8839
вор	8840
реп	8841
##ковых	8842
кала	8843
рабочей	8844
осве	8845
политолог	8846
##овая	8847
относятся	8848
проекту	8849
работали	8850
надзор	8851
лучшим	8852
фондов	8853
национальный	8854
собственных	8855
цену	8856
объема	8857
##менил	8858
запуска	8859
полноцен	8860
инициативу	8861
единственным	8862
едва	8863
патриарх	8864
пункт	8865
чуд	8866
шпи	8867
##вшем	8868
##ноп	8869
##торое	8870
##лию	8871
кодекса	8872
##рур	8873
прино	8874
##ментом	8875
старо	8876
опрос	8877
полит	8878
рассчит	8879
судей	8880
##долго	8881
игре	8882
154	8883
факты	8884
портре	8885
имена	8886
##ателями	8887
ценности	8888
некоторое	8889
грузии	8890
площадке	8891
уточняется	8892
мероприятие	8893
шоссе	8894
рассмотрение	8895
медицинских	8896
введение	8897
добычу	8898
скорость	8899
поражение	8900
выиграл	8901
азербайдж	8902
фрг	8903
mo	8904
нской	8905
овый	8906
узнать	8907
##тед	8908
##шил	8909
##льп	8910
облига	8911
консу	8912
красо	8913
риски	8914
организаторы	8915
вслед	8916
тормо	8917
человеком	8918
биат	8919
террористы	8920
терроризмом	8921
благополу	8922
сборную	8923
признали	8924
ведомств	8925
ожидает	8926
немед	8927
ссыла	8928
##ced	8929
исход	8930
выступая	8931
используют	8932
напрямую	8933
швейцар	8934
азербайджан	8935
ио	8936
овым	8937
##нение	8938
##хат	8939
##кл	8940
позна	8941
##редо	8942
проезд	8943
мера	8944
последов	8945
##ственное	8946
сувер	8947
друж	8948
пуска	8949
импор	8950
детских	8951
международные	8952
смолен	8953
канц	8954
признался	8955
молодые	8956
поселке	8957
важней	8958
вооруженные	8959
построить	8960
##utube	8961
посол	8962
##ung	8963
компенсации	8964
вторых	8965
секун	8966
узбекистана	8967
youtube	8968
нидерланд	8969
74	8970
ева	8971
##устрой	8972
извин	8973
##чивается	8974
беспо	8975
##пром	8976
ваш	8977
ким	8978
киров	8979
миню	8980
взял	8981
писто	8982
участки	8983
участка	8984
открыть	8985
матви	8986
местной	8987
##хии	8988
добавила	8989
октябрь	8990
##ite	8991
продолжит	8992
событи	8993
внести	8994
пожалуй	8995
скорости	8996
развивать	8997
механизм	8998
разбиратель	8999
##гана	9000
##строва	9001
непло	9002
##нару	9003
собо	9004
социали	9005
##дах	9006
приехал	9007
моно	9008
##бон	9009
каком	9010
комеди	9011
##жие	9012
малого	9013
таджи	9014
возме	9015
базов	9016
##ционер	9017
водителей	9018
правонару	9019
республик	9020
продукт	9021
барсело	9022
оценку	9023
оценить	9024
паралле	9025
налога	9026
германия	9027
западной	9028
прогноза	9029
констати	9030
избирательной	9031
требованиям	9032
высокопостав	9033
хоккей	9034
ущер	9035
кореи	9036
актриса	9037
матвиенко	9038
ия	9039
йо	9040
оска	9041
сказано	9042
улья	9043
шут	9044
##оном	9045
погранич	9046
залож	9047
стадии	9048
##тую	9049
спон	9050
осо	9051
еврови	9052
арк	9053
минфина	9054
экономический	9055
встреч	9056
участке	9057
открыли	9058
срока	9059
опубликовано	9060
концов	9061
разрешения	9062
характера	9063
демонстра	9064
полуостров	9065
валентина	9066
евровид	9067
пья	9068
уступ	9069
яну	9070
нац	9071
заг	9072
запис	9073
отвер	9074
откро	9075
бывших	9076
##мал	9077
тебя	9078
перекры	9079
"...	9080
##щаются	9081
экспо	9082
##льному	9083
случаи	9084
производители	9085
целый	9086
тимо	9087
московском	9088
происходя	9089
объект	9090
угрозой	9091
законодательство	9092
современных	9093
подробности	9094
признан	9095
сотрудничестве	9096
одномандат	9097
женщину	9098
девушки	9099
обследов	9100
всемирного	9101
йорк	9102
сбербанк	9103
христиан	9104
разуме	9105
63	9106
wsj	9107
двой	9108
##чился	9109
##фт	9110
##такт	9111
добра	9112
привел	9113
выве	9114
##писи	9115
даст	9116
диви	9117
газов	9118
представлены	9119
базу	9120
экспор	9121
адмира	9122
картин	9123
украиной	9124
учения	9125
находиться	9126
известных	9127
матчей	9128
строительству	9129
строительстве	9130
рейс	9131
некоторым	9132
морской	9133
попытка	9134
сельского	9135
относится	9136
откров	9137
напряжен	9138
знать	9139
недвижимость	9140
смысл	9141
спецслужбы	9142
ились	9143
мете	9144
ые	9145
##рении	9146
##берт	9147
показа	9148
пойдет	9149
##рила	9150
##голь	9151
прок	9152
призы	9153
выступили	9154
мосу	9155
севере	9156
191	9157
карт	9158
продав	9159
развитии	9160
связана	9161
подготовку	9162
северного	9163
рассмотрения	9164
запада	9165
студентов	9166
севастополя	9167
госпитализи	9168
be	9169
di	9170
вход	9171
оре	9172
шла	9173
##жур	9174
##ровка	9175
роспо	9176
##маз	9177
мака	9178
дистан	9179
последу	9180
обратно	9181
последней	9182
оборот	9183
пласти	9184
платы	9185
официальной	9186
государственные	9187
землю	9188
##ландии	9189
командов	9190
продолжить	9191
объединения	9192
структура	9193
исламского	9194
чувств	9195
удоволь	9196
влияния	9197
выдвину	9198
бельгии	9199
автобус	9200
мальчик	9201
зарубежных	9202
вирус	9203
случилось	9204
улюкаев	9205
merced	9206
роспотреб	9207
mercedes	9208
bm	9209
аем	9210
уско	9211
шев	9212
##шков	9213
побы	9214
##мог	9215
##зис	9216
серий	9217
возгора	9218
чему	9219
авторов	9220
президентских	9221
жилье	9222
детали	9223
госдуме	9224
##надзора	9225
выступление	9226
квартал	9227
инициативе	9228
гражданина	9229
наращи	9230
прокурора	9231
венесуэ	9232
go	9233
ня	9234
нский	9235
эд	9236
юно	9237
##реди	9238
коти	9239
заго	9240
просит	9241
##скоп	9242
розыск	9243
выйдет	9244
медали	9245
личности	9246
##фик	9247
совете	9248
полузащит	9249
##стребов	9250
##овало	9251
франция	9252
составили	9253
авиау	9254
скром	9255
занимаются	9256
сокращения	9257
герман	9258
третья	9259
крест	9260
##декват	9261
обстоятельств	9262
предположительно	9263
##berg	9264
разумеется	9265
un	9266
вэ	9267
гали	9268
драм	9269
лнр	9270
хло	9271
эй	9272
##ющую	9273
##gy	9274
##лизации	9275
запас	9276
сопротив	9277
пробе	9278
##ссо	9279
мотор	9280
##жела	9281
какую	9282
##турой	9283
вел	9284
сухо	9285
мысли	9286
трассе	9287
четко	9288
четверо	9289
федеральном	9290
учитель	9291
международном	9292
респонд	9293
##шиеся	9294
гидро	9295
третьей	9296
опасности	9297
адвоката	9298
упомя	9299
остановить	9300
колес	9301
маршрут	9302
фронт	9303
mail	9304
йорке	9305
сигнал	9306
журнала	9307
ет	9308
мг	9309
упро	9310
##ющее	9311
пойти	9312
##лят	9313
нож	9314
предше	9315
##няли	9316
перемен	9317
руку	9318
возмож	9319
целей	9320
американцы	9321
канал	9322
передать	9323
##емости	9324
хорошие	9325
социальные	9326
трудо	9327
размещен	9328
сайта	9329
сетях	9330
незаконно	9331
подозреваемый	9332
удовлетво	9333
запланирован	9334
единоро	9335
нравится	9336
сырье	9337
опаса	9338
обжалов	9339
лауре	9340
pro	9341
уте	9342
##пет	9343
##льность	9344
проще	9345
общ	9346
рожде	9347
##вим	9348
##дук	9349
##держала	9350
будто	9351
акцию	9352
можете	9353
сотрудника	9354
##ждая	9355
тихо	9356
nov	9357
видит	9358
покупки	9359
внешней	9360
следственный	9361
соответствующий	9362
любви	9363
допусти	9364
выводу	9365
героев	9366
сюда	9367
процедуры	9368
спецслужб	9369
латвии	9370
теракт	9371
сосредо	9372
презента	9373
кладби	9374
подозреваемого	9375
xx	9376
ируют	9377
улы	9378
упра	9379
##шке	9380
##рита	9381
моти	9382
##гию	9383
предска	9384
миссии	9385
интен	9386
отметив	9387
дорогу	9388
готовится	9389
состояния	9390
республика	9391
ныне	9392
##and	9393
получилось	9394
собственно	9395
зданий	9396
банковской	9397
правоохранители	9398
появление	9399
героя	9400
травм	9401
одесс	9402
острове	9403
лекарства	9404
произошедшего	9405
талант	9406
скид	9407
ожидания	9408
bloom	9409
ведомости	9410
библиоте	9411
jo	9412
sk	9413
гекта	9414
офф	9415
рем	9416
снего	9417
##гур	9418
##eing	9419
поезда	9420
##гона	9421
соору	9422
примут	9423
##завод	9424
каи	9425
кафе	9426
ники	9427
магистра	9428
органами	9429
нова	9430
обез	9431
##рья	9432
международная	9433
запретить	9434
позволяют	9435
преступление	9436
содержа	9437
максиму	9438
анализа	9439
воздух	9440
туризма	9441
машине	9442
обнаружены	9443
оказаться	9444
референдума	9445
революции	9446
столкновения	9447
boeing	9448
атмосфер	9449
присво	9450
##стера	9451
оби	9452
##руются	9453
придержи	9454
вошел	9455
##чество	9456
##кови	9457
лиге	9458
честно	9459
##ательный	9460
орен	9461
баз	9462
знал	9463
среды	9464
жиль	9465
сотрудникам	9466
америке	9467
составить	9468
##вардии	9469
созданию	9470
видели	9471
следующего	9472
меняется	9473
советской	9474
изменение	9475
успел	9476
председателем	9477
ing	9478
создавать	9479
золота	9480
восстановить	9481
защитник	9482
понимаю	9483
заболеваний	9484
девочка	9485
стадиона	9486
пациентов	9487
башнефти	9488
катастрофы	9489
предвыборной	9490
альтернатив	9491
мусульман	9492
bloomberg	9493
su	9494
света	9495
##нс	9496
##литься	9497
##льва	9498
заку	9499
заложен	9500
##тила	9501
##анин	9502
##вав	9503
отрав	9504
##обла	9505
##седе	9506
рассу	9507
партию	9508
позволи	9509
##виден	9510
обсуждение	9511
конкурсе	9512
энергии	9513
пользоваться	9514
##agen	9515
текущем	9516
давления	9517
индий	9518
бензин	9519
сомне	9520
ликвидации	9521
спартак	9522
охот	9523
зону	9524
баталь	9525
ra	9526
бата	9527
вкон	9528
звание	9529
ош	9530
сизо	9531
указал	9532
##ован	9533
нано	9534
проходить	9535
обход	9536
##мое	9537
контакт	9538
возро	9539
вещ	9540
экза	9541
треб	9542
туре	9543
менять	9544
##торами	9545
политиков	9546
итогов	9547
поддержка	9548
школа	9549
дальнего	9550
тяж	9551
реализацию	9552
аэроф	9553
##вшиеся	9554
##такте	9555
пришла	9556
страхования	9557
инициатива	9558
захват	9559
газпрома	9560
персональ	9561
муниципальных	9562
корпорации	9563
конституции	9564
мужчину	9565
выросло	9566
доклада	9567
линей	9568
доверия	9569
недостаточно	9570
дизель	9571
вконтакте	9572
ировали	9573
сово	9574
ть	9575
устав	9576
##илась	9577
понимать	9578
рестав	9579
делом	9580
знаем	9581
расстре	9582
участниками	9583
имел	9584
рынки	9585
мерт	9586
черно	9587
русских	9588
отдел	9589
версию	9590
прибыл	9591
стоимостью	9592
принципе	9593
.),	9594
республиканской	9595
заняла	9596
полуострова	9597
легендар	9598
волонтер	9599
bmw	9600
совокуп	9601
88	9602
ала	9603
ается	9604
тво	9605
хро	9606
нев	9607
##монопо	9608
##невно	9609
##менту	9610
##овок	9611
##енту	9612
посл	9613
##филь	9614
видеть	9615
##ательного	9616
новому	9617
правя	9618
##шено	9619
нужен	9620
овского	9621
лукой	9622
руководству	9623
большей	9624
цело	9625
##tal	9626
очереди	9627
побере	9628
енко	9629
использованием	9630
командой	9631
##est	9632
поясняет	9633
антимонопо	9634
площадки	9635
манче	9636
смяг	9637
переговорах	9638
верховный	9639
комментарии	9640
сценарий	9641
реабили	9642
приложение	9643
возникает	9644
тюрьмы	9645
написала	9646
космонав	9647
коммерсантъ	9648
ульянов	9649
zr	9650
опо	9651
сана	9652
тар	9653
цев	9654
##пед	9655
настав	9656
##лежа	9657
короб	9658
речи	9659
месту	9660
##сий	9661
орб	9662
фифа	9663
грамот	9664
значения	9665
центров	9666
живу	9667
детский	9668
военную	9669
чемпиона	9670
штатов	9671
памфил	9672
подчеркнула	9673
анаста	9674
ареста	9675
западных	9676
процессу	9677
выполнить	9678
близких	9679
магазинов	9680
щий	9681
соперника	9682
ворота	9683
поездки	9684
девочки	9685
комментировать	9686
изъя	9687
подписали	9688
ущерба	9689
);	9690
гам	9691
уведом	9692
##чений	9693
выгля	9694
сты	9695
индекса	9696
ставок	9697
бег	9698
друзей	9699
##ентами	9700
организацией	9701
руководители	9702
остальных	9703
ближе	9704
курд	9705
активность	9706
герой	9707
барнау	9708
позиций	9709
покупать	9710
слабо	9711
турецких	9712
##ницах	9713
британского	9714
болгар	9715
дипломат	9716
захар	9717
эконом	9718
функции	9719
арестован	9720
платежей	9721
сердца	9722
lif	9723
вещества	9724
наличии	9725
03	9726
con	9727
жене	9728
сур	9729
склады	9730
##нт	9731
##рных	9732
##лист	9733
##рович	9734
выигры	9735
##виль	9736
боли	9737
разб	9738
ница	9739
пао	9740
паки	9741
##ровав	9742
известен	9743
рынках	9744
месяцы	9745
поддержали	9746
частных	9747
компаниями	9748
собственные	9749
крушения	9750
хирур	9751
выплат	9752
оружием	9753
недопу	9754
съемо	9755
сцене	9756
оплаты	9757
картина	9758
пространства	9759
разобраться	9760
fl	9761
бла	9762
др	9763
ини	9764
пр	9765
##ion	9766
##ету	9767
##ровку	9768
мих	9769
тали	9770
##града	9771
дивиден	9772
бас	9773
москвой	9774
##тические	9775
взлет	9776
судна	9777
импера	9778
однажды	9779
поблаго	9780
местный	9781
интересу	9782
советник	9783
защита	9784
социального	9785
европейские	9786
пояснила	9787
пятер	9788
выступал	9789
введен	9790
рассматривает	9791
владельцев	9792
муниципалит	9793
вдвое	9794
альянса	9795
вдох	9796
диагно	9797
поблагода	9798
::	9799
pe	9800
sam	9801
алась	9802
гг	9803
очки	9804
##ыв	9805
##ий	9806
##гат	9807
просят	9808
востребов	9809
романа	9810
масса	9811
весе	9812
муль	9813
кух	9814
облад	9815
знаете	9816
государством	9817
имму	9818
##кономики	9819
вода	9820
обеих	9821
составляют	9822
официальным	9823
кредиты	9824
реализу	9825
волод	9826
специальные	9827
банковских	9828
попытке	9829
эффективности	9830
каждому	9831
сервиса	9832
обратились	9833
зимой	9834
выдви	9835
активисты	9836
саудовская	9837
аравия	9838
минэкономики	9839
контр	9840
донецкой	9841
менеджер	9842
улицах	9843
наследия	9844
##sche	9845
василий	9846
ался	9847
фбр	9848
яку	9849
##сан	9850
##торе	9851
##ладель	9852
небе	9853
запо	9854
##дара	9855
доль	9856
доступа	9857
такими	9858
сильный	9859
сибир	9860
##новения	9861
##жается	9862
гага	9863
данное	9864
бах	9865
полный	9866
строя	9867
думать	9868
продавать	9869
добавив	9870
восток	9871
днях	9872
отдельно	9873
игроки	9874
сетей	9875
спортивных	9876
##ложили	9877
электронной	9878
воздушного	9879
путешествия	9880
наблюдения	9881
указывает	9882
урегулирования	9883
потенциал	9884
госдеп	9885
##озглашен	9886
78	9887
fo	9888
pr	9889
дз	9890
ежем	9891
здо	9892
ических	9893
сбу	9894
чар	9895
##ьков	9896
рек	9897
##чева	9898
мик	9899
полученных	9900
новго	9901
плод	9902
возможностей	9903
семен	9904
ответить	9905
официальные	9906
видел	9907
зоо	9908
подозрению	9909
##ческими	9910
нынешний	9911
заводе	9912
содержания	9913
скажем	9914
неизвестные	9915
ключевых	9916
финала	9917
доказательства	9918
поведение	9919
кирги	9920
швеции	9921
воспользоваться	9922
мосгор	9923
as	9924
ания	9925
хам	9926
шту	9927
##вшую	9928
##шит	9929
##ct	9930
нава	9931
кодекс	9932
##тию	9933
рецеп	9934
##див	9935
##менко	9936
бого	9937
##альное	9938
страной	9939
дала	9940
##мысла	9941
авший	9942
компет	9943
данному	9944
##ативно	9945
общее	9946
принят	9947
дорогах	9948
назем	9949
##местить	9950
сроком	9951
компаниям	9952
##кнул	9953
затруд	9954
##ющийся	9955
намного	9956
большинстве	9957
размещения	9958
миллиардер	9959
турецкие	9960
##графии	9961
##ily	9962
демократов	9963
учреждений	9964
напит	9965
зарплат	9966
подопе	9967
владельцы	9968
иденти	9969
судьи	9970
алкоголя	9971
болезни	9972
родственников	9973
сердце	9974
прогресс	9975
##емато	9976
сопровожда	9977
медаль	9978
кузнецов	9979
комфорт	9980
ежедневно	9981
вкладов	9982
азербайджана	9983
op	9984
вклады	9985
##ером	9986
##шал	9987
##гель	9988
##генти	9989
##зму	9990
наро	9991
кори	9992
заста	9993
##тацию	9994
воин	9995
реформа	9996
дежур	9997
##чила	9998
давать	9999
