<unk>	0
<s>	0
</s>	0
▁	-3.5453
а	-3.60256
е	-3.63006
и	-3.76042
,	-3.78781
▁в	-3.87637
.	-4.16254
▁и	-4.28873
й	-4.40756
м	-4.41334
▁,	-4.41392
▁.	-4.57457
▁на	-4.59519
ы	-4.60217
▁с	-4.60929
▁"	-4.66342
х	-4.66718
я	-4.71063
у	-4.79489
▁не	-4.9746
▁по	-4.97533
ов	-4.99234
о	-4.99886
▁-	-5.00542
т	-5.07831
▁что	-5.2392
л	-5.33218
в	-5.36128
-	-5.37816
го	-5.3842
ь	-5.48602
▁у	-5.52483
▁В	-5.52547
с	-5.53016
▁за	-5.55185
▁а	-5.55705
ю	-5.56254
▁о	-5.59828
"	-5.5988
▁к	-5.64926
ом	-5.66331
ой	-5.79418
▁из	-5.85459
▁от	-5.86093
д	-5.86466
ет	-5.86897
ли	-5.90972
ся	-5.95792
н	-5.99772
▁С	-6.08805
но	-6.11438
ть	-6.13604
▁до	-6.14974
▁при	-6.2003
▁(	-6.23785
з	-6.24502
ки	-6.24899
ем	-6.25058
ей	-6.31444
п	-6.31813
р	-6.31964
к	-6.35701
▁По	-6.38937
ка	-6.4082
▁про	-6.42932
для	-6.4311
▁был	-6.44634
ных	-6.45442
ла	-6.46065
ш	-6.46575
▁как	-6.48272
▁которы	-6.49711
ж	-6.49951
▁это	-6.51565
ая	-6.52526
▁но	-6.54693
▁года	-6.54901
▁",	-6.5509
:	-6.55715
ит	-6.55728
ого	-6.56
ен	-6.56925
б	-6.58459
на	-6.58671
ч	-6.5948
ной	-6.61369
ам	-6.6157
ст	-6.62014
▁России	-6.63988
ами	-6.65454
▁:	-6.66979
ми	-6.67862
▁об	-6.68314
▁м	-6.68608
▁А	-6.6967
▁со	-6.7101
▁под	-6.7129
▁его	-6.72673
ра	-6.7314
ую	-6.7317
▁раз	-6.74164
▁На	-6.74347
ни	-6.75971
г	-6.77764
ные	-6.77805
ного	-6.78193
▁вы	-6.78318
▁он	-6.79049
ку	-6.82194
он	-6.82835
то	-6.85697
▁И	-6.85973
ал	-6.87631
ить	-6.88235
▁все	-6.88312
ил	-6.89224
ан	-6.89343
ло	-6.90377
С	-6.90988
ев	-6.92475
▁этом	-6.93796
ный	-6.95821
бы	-6.96723
▁то	-7.00901
ют	-7.01073
▁К	-7.01991
▁пере	-7.02032
ти	-7.04306
%	-7.04418
▁будет	-7.04933
ок	-7.05226
же	-7.0681
ков	-7.07552
за	-7.07728
ль	-7.08008
▁".	-7.08156
не	-7.08274
▁году	-7.08919
ным	-7.09635
ф	-7.10865
▁также	-7.13169
▁Д	-7.13483
ар	-7.14214
▁же	-7.14506
ых	-7.15288
▁так	-7.15363
▁О	-7.16129
ник	-7.16204
)	-7.16264
ля	-7.16325
ер	-7.17311
ор	-7.17931
ри	-7.18434
ется	-7.19122
▁У	-7.1953
да	-7.20354
e	-7.21393
▁п	-7.21879
те	-7.22139
щ	-7.22194
К	-7.22338
лись	-7.22396
▁П	-7.22679
▁уже	-7.24529
ва	-7.26175
ать	-7.26264
0	-7.27204
1	-7.27863
▁было	-7.28244
А	-7.28444
ко	-7.28917
де	-7.29282
му	-7.29462
o	-7.29521
▁М	-7.30684
сти	-7.30711
▁время	-7.31123
▁г	-7.31598
че	-7.31876
▁лет	-7.32701
еще	-7.33877
▁во	-7.34012
▁том	-7.34555
ин	-7.35174
▁я	-7.36483
2	-7.36938
ная	-7.37348
ым	-7.37437
ской	-7.37573
▁Г	-7.37739
лся	-7.37851
▁после	-7.38278
ру	-7.38557
ый	-7.3891
▁заявил	-7.39981
вер	-7.40084
▁мы	-7.40237
▁Ф	-7.41343
щи	-7.42532
ро	-7.43083
нов	-7.43094
ста	-7.43448
▁только	-7.43573
ре	-7.44326
▁Но	-7.44542
▁США	-7.45562
ят	-7.46342
ться	-7.4719
▁или	-7.47194
a	-7.47206
ны	-7.47379
▁того	-7.47822
ения	-7.48237
ются	-7.48289
П	-7.48813
ную	-7.48922
Р	-7.4915
▁может	-7.49285
▁1	-7.49541
ение	-7.49635
стр	-7.49826
ци	-7.49995
▁За	-7.50325
▁более	-7.50749
▁?	-7.51111
по	-7.51704
▁Как	-7.51761
лась	-7.52238
▁4	-7.52463
М	-7.53465
▁ре	-7.54045
▁их	-7.54888
тор	-7.55139
ского	-7.55226
i	-7.55839
каз	-7.56774
▁ш	-7.5681
ном	-7.57209
ду	-7.5779
В	-7.579
3	-7.58007
ча	-7.58451
ке	-7.5871
или	-7.58785
от	-7.59564
али	-7.59576
мен	-7.59786
▁ли	-7.60442
▁бы	-7.60616
▁ее	-7.61581
ц	-7.61609
▁РФ	-7.62075
ед	-7.62195
5	-7.62426
▁Об	-7.62651
га	-7.62689
до	-7.62992
Н	-7.63066
▁человек	-7.63228
би	-7.63387
жи	-7.63464
▁котор	-7.63902
▁они	-7.6445
ск	-7.64611
▁При	-7.65031
ств	-7.65333
ба	-7.65473
▁5	-7.6566
гр	-7.65709
▁суд	-7.66157
4	-7.66292
▁глав	-7.66551
ши	-7.66654
лен	-7.67132
ще	-7.67422
▁Он	-7.68137
об	-7.68612
▁6	-7.68906
ель	-7.69239
ает	-7.695
▁Я	-7.69922
▁де	-7.70765
▁Б	-7.70905
О	-7.70956
▁есть	-7.71198
9	-7.72064
▁пол	-7.72357
8	-7.7246
ше	-7.72554
▁руб	-7.73003
ив	-7.73149
ос	-7.73223
▁2016	-7.73418
Б	-7.74307
▁Это	-7.74323
оз	-7.74678
ских	-7.7515
ут	-7.75528
▁Не	-7.75764
▁ф	-7.75801
▁Так	-7.75842
ди	-7.76734
▁мо	-7.77162
▁Ш	-7.7718
кр	-7.77286
▁этого	-7.77996
▁Т	-7.78195
▁без	-7.78226
ое	-7.78623
сть	-7.78714
▁словам	-7.79161
▁которо	-7.79354
ступ	-7.80013
▁тем	-7.8009
если	-7.80333
ров	-7.80713
вал	-7.80869
ния	-7.81012
▁результат	-7.81189
ги	-7.81273
си	-7.81605
ский	-7.81855
ня	-7.81989
ол	-7.82157
t	-7.82582
▁да	-7.82652
▁области	-7.82929
▁ни	-7.83208
▁российски	-7.83358
▁Р	-7.83774
▁ов	-7.83995
▁2	-7.84025
из	-7.84351
",	-7.85071
▁2015	-7.85199
ну	-7.85908
ное	-7.86261
7	-7.86287
▁млн	-7.8648
▁б	-7.86788
▁чем	-7.86832
▁рас	-7.86885
▁начал	-7.86927
Д	-7.875
▁н	-7.87596
6	-7.88412
▁7	-7.88694
▁будут	-7.88787
вод	-7.896
▁нас	-7.89727
Ф	-7.89748
Т	-7.89787
▁сообщил	-7.89952
▁год	-7.90725
▁3	-7.90853
▁стран	-7.91199
▁пре	-7.9125
▁д	-7.91555
▁когда	-7.91595
▁сказал	-7.91645
чи	-7.91909
ек	-7.92239
▁вид	-7.92364
Ъ	-7.92519
сколько	-7.92707
▁Владимир	-7.92802
▁10	-7.93855
▁)	-7.94072
▁20	-7.94165
пр	-7.95131
аль	-7.95225
тро	-7.95262
▁быть	-7.95329
▁стал	-7.95352
оч	-7.95387
▁8	-7.95419
▁можно	-7.95657
ство	-7.95668
▁против	-7.95843
▁рублей	-7.95844
ур	-7.96741
▁она	-7.96893
И	-7.97665
▁где	-7.97683
тер	-7.97823
▁ом	-7.98027
▁очень	-7.98189
▁отметил	-7.98349
▁эти	-7.98412
ний	-7.98631
ают	-7.98735
▁компании	-7.98814
▁те	-7.98872
ности	-8.00323
▁млрд	-8.00333
▁пред	-8.00364
▁страны	-8.00629
бр	-8.00919
ность	-8.01057
▁ко	-8.01075
d	-8.01598
▁один	-8.02303
s	-8.02938
l	-8.03085
▁сообщает	-8.03231
▁свое	-8.03308
ист	-8.03517
▁З	-8.03607
ир	-8.04301
пер	-8.0442
ход	-8.05096
".	-8.05184
▁них	-8.05437
▁Ма	-8.05493
▁могу	-8.05529
▁вопрос	-8.05848
лось	-8.05848
ест	-8.06003
▁тысяч	-8.06037
вы	-8.06117
лет	-8.06169
ак	-8.06406
сп	-8.06546
▁президент	-8.06983
ически	-8.07579
ально	-8.08078
u	-8.08195
ец	-8.08594
род	-8.08631
▁ми	-8.08717
Г	-8.09185
▁15	-8.09237
уд	-8.09542
▁Ка	-8.09866
бор	-8.09868
▁).	-8.09911
▁воз	-8.1009
▁тр	-8.10521
па	-8.10596
тельно	-8.10701
ском	-8.10808
ца	-8.1082
▁9	-8.1117
▁Александр	-8.11327
▁больше	-8.11502
▁бо	-8.11513
▁Е	-8.11561
▁ка	-8.11754
пас	-8.11811
▁цен	-8.1183
ред	-8.11985
ru	-8.12073
m	-8.12095
▁данным	-8.12305
p	-8.12609
▁план	-8.12619
▁Путин	-8.12673
▁Х	-8.12938
▁кон	-8.12987
▁тыс	-8.13201
раж	-8.13573
ние	-8.1369
y	-8.13876
около	-8.14331
▁само	-8.14658
▁два	-8.15024
лов	-8.15351
▁Серге	-8.1643
даже	-8.17405
э	-8.17607
зи	-8.17656
▁S	-8.17732
▁дела	-8.18001
▁проект	-8.18162
ран	-8.1874
У	-8.18758
▁),	-8.18954
ирован	-8.19251
n	-8.19728
▁отношени	-8.2015
▁рассказал	-8.2036
▁Россия	-8.20711
▁пресс	-8.20921
дел	-8.20957
▁сейчас	-8.21214
▁граждан	-8.21345
ус	-8.21552
ировать	-8.2178
▁Украины	-8.2211
▁лиш	-8.22756
ская	-8.22775
▁всего	-8.22848
▁пока	-8.22906
держ	-8.23089
кой	-8.23438
ские	-8.24313
ры	-8.24429
▁л	-8.24607
▁состав	-8.24732
ент	-8.24743
▁з	-8.24958
▁президента	-8.25226
▁перед	-8.25315
▁много	-8.25685
▁До	-8.25745
▁этот	-8.2575
ком	-8.25813
▁Э	-8.25867
▁документ	-8.25919
▁Ес	-8.25947
▁закон	-8.26134
▁новы	-8.26148
▁Ране	-8.26221
▁решение	-8.26223
▁Ч	-8.26376
ства	-8.26538
▁пар	-8.26865
ик	-8.27143
ания	-8.28118
ман	-8.2816
▁Про	-8.28173
▁12	-8.28399
ад	-8.28416
ическо	-8.28446
бл	-8.28735
▁0	-8.2914
пи	-8.29254
са	-8.29512
пад	-8.29909
▁нет	-8.3011
▁ч	-8.30212
нию	-8.30271
▁обще	-8.30319
▁первы	-8.30501
▁э	-8.30558
▁три	-8.30601
▁Да	-8.31021
g	-8.31332
ша	-8.31342
▁всех	-8.31663
▁Ко	-8.31673
фи	-8.31712
нес	-8.3185
▁19	-8.32388
▁между	-8.32737
вин	-8.33047
▁Мы	-8.33387
ировал	-8.33407
чен	-8.33454
▁момент	-8.33634
сс	-8.33931
Л	-8.33986
b	-8.34198
мер	-8.34388
пис	-8.34404
еж	-8.34416
вою	-8.3455
▁над	-8.34672
▁Во	-8.34683
er	-8.35084
раб	-8.35532
▁меня	-8.35606
овой	-8.35675
пол	-8.35753
▁города	-8.35839
▁российско	-8.35869
▁сам	-8.36027
вести	-8.36049
▁лиц	-8.36252
▁себя	-8.36451
▁Мо	-8.36925
ту	-8.37051
▁готов	-8.37395
ему	-8.37648
гу	-8.37652
через	-8.3801
раз	-8.38386
▁числе	-8.38447
▁двух	-8.38508
▁Однако	-8.38637
▁счет	-8.38744
▁Сирии	-8.3904
▁ди	-8.39091
▁т	-8.39195
▁Ж	-8.39485
▁кто	-8.39519
▁пост	-8.39673
тель	-8.39749
▁гос	-8.39764
бе	-8.39843
▁Ба	-8.39843
▁Н	-8.39846
ющих	-8.40051
Э	-8.40092
▁ся	-8.40298
енко	-8.40323
бо	-8.40669
ул	-8.40787
аться	-8.40866
вар	-8.40866
▁день	-8.40954
цы	-8.41268
▁C	-8.41469
ается	-8.41731
ции	-8.4209
ант	-8.42121
тра	-8.42127
▁A	-8.42244
▁передает	-8.42299
▁случае	-8.42809
▁200	-8.43104
▁интерес	-8.43225
оль	-8.43437
бер	-8.43751
ание	-8.43976
▁Кром	-8.4406
лад	-8.44131
r	-8.44183
00	-8.44425
▁11	-8.44483
ось	-8.44573
лин	-8.44717
▁...	-8.44823
▁газ	-8.45407
▁Дмитри	-8.4556
про	-8.45722
▁30	-8.45741
▁Все	-8.45831
нд	-8.45882
▁директор	-8.46093
▁власти	-8.46098
▁!	-8.46236
▁стать	-8.463
k	-8.46445
рас	-8.46638
вор	-8.46698
ина	-8.4685
ян	-8.46855
▁Мар	-8.4707
▁18	-8.47091
▁цел	-8.47092
жа	-8.47325
лей	-8.47354
▁место	-8.47477
тр	-8.47608
▁2014	-8.47638
▁друг	-8.47945
тив	-8.47959
▁P	-8.48011
▁Москве	-8.4822
▁сегодня	-8.48892
▁бу	-8.48942
▁дело	-8.49108
▁последни	-8.49321
▁глава	-8.49444
овал	-8.49469
▁B	-8.49504
▁Со	-8.49735
гра	-8.49788
▁являет	-8.49813
c	-8.49893
▁групп	-8.49907
ряд	-8.50201
йти	-8.50351
▁прав	-8.50656
дин	-8.50749
шел	-8.50759
▁просто	-8.5097
▁проблем	-8.51445
цен	-8.51505
кин	-8.51532
жен	-8.51697
итель	-8.51986
▁должны	-8.52053
ложен	-8.52122
ице	-8.52156
▁Lenta	-8.52489
уш	-8.52495
▁Ц	-8.52528
▁созда	-8.52833
▁работы	-8.52892
▁считает	-8.53131
ится	-8.53195
▁гор	-8.53295
▁таки	-8.53491
▁Ре	-8.53576
▁команд	-8.54076
▁лидер	-8.54149
кс	-8.54265
ников	-8.54496
▁получил	-8.5463
оп	-8.54679
▁F	-8.55094
ями	-8.55398
▁безопасности	-8.55584
▁Ю	-8.55588
олог	-8.55699
ско	-8.55932
▁оста	-8.56392
▁стороны	-8.56414
▁связи	-8.5662
▁25	-8.5676
▁дел	-8.56885
▁людей	-8.57095
▁СМИ	-8.57095
▁та	-8.57356
▁Ле	-8.57378
ъ	-8.57387
▁То	-8.57865
▁материал	-8.58071
ским	-8.58166
уз	-8.58257
чер	-8.58541
▁стар	-8.58558
▁других	-8.58753
▁побед	-8.58829
▁мор	-8.58936
овых	-8.58948
бу	-8.58976
енно	-8.59098
ации	-8.5911
▁16	-8.60001
▁машин	-8.60494
).	-8.60572
▁дорог	-8.60885
шей	-8.6095
▁ранее	-8.61057
кон	-8.61137
ись	-8.61151
▁Л	-8.61401
▁кор	-8.61436
▁часть	-8.61504
▁Напомним	-8.61615
▁14	-8.61766
▁город	-8.61817
▁Из	-8.61819
▁ный	-8.61909
▁депутат	-8.61919
▁тех	-8.62007
▁13	-8.62007
▁труд	-8.62155
▁источник	-8.62337
▁люб	-8.62552
иль	-8.62557
▁причин	-8.62581
ющие	-8.62652
,5	-8.62729
при	-8.62738
▁мира	-8.62815
нос	-8.62989
РИА	-8.63117
an	-8.63208
▁семь	-8.6322
▁самолет	-8.63325
ирует	-8.6338
ении	-8.63448
атор	-8.63449
стра	-8.63603
▁После	-8.63801
▁игр	-8.63804
ук	-8.63869
▁территории	-8.63938
▁вод	-8.63963
▁ходе	-8.64036
▁ло	-8.6405
▁жизни	-8.64112
A	-8.64114
h	-8.64231
▁мед	-8.64249
инг	-8.64324
рос	-8.64365
▁свои	-8.64416
▁торгов	-8.64533
▁Сам	-8.64594
▁больш	-8.64676
▁кредит	-8.64733
од	-8.64834
▁говорит	-8.64964
цию	-8.65141
▁17	-8.65189
▁компания	-8.65277
▁нужно	-8.65438
▁женщин	-8.65651
овать	-8.65686
▁марта	-8.65825
▁организации	-8.65846
скую	-8.65899
▁Ли	-8.65961
▁фильм	-8.66027
▁систем	-8.66165
тельны	-8.6624
▁Кар	-8.66243
▁самы	-8.66264
▁ные	-8.66835
тся	-8.66956
▁там	-8.67059
▁участие	-8.67463
▁мнению	-8.67509
▁банк	-8.67641
▁право	-8.67651
▁выход	-8.67654
I	-8.67777
чит	-8.67907
▁па	-8.67939
▁Де	-8.67972
▁тур	-8.68065
должен	-8.68067
ости	-8.68111
вший	-8.68135
▁сторон	-8.68208
in	-8.68387
ar	-8.68656
▁мир	-8.68678
v	-8.68734
▁р	-8.68991
▁срок	-8.69004
▁пор	-8.6904
▁ин	-8.69079
▁программ	-8.69191
▁авто	-8.69233
▁M	-8.6966
▁став	-8.69779
▁кандидат	-8.69857
▁многи	-8.69914
чно	-8.69945
▁актив	-8.69946
▁министр	-8.69949
▁Бо	-8.70085
▁стало	-8.70224
▁Мин	-8.70279
ден	-8.7034
ась	-8.70409
▁своих	-8.70521
▁ряд	-8.70727
порт	-8.70778
▁Москвы	-8.7081
▁От	-8.70904
▁политик	-8.71034
цев	-8.71115
▁экс	-8.71182
▁человека	-8.71488
ость	-8.71688
▁Алексе	-8.71773
ева	-8.71826
▁бес	-8.71991
▁Новости	-8.72075
тар	-8.72538
▁период	-8.72629
▁Кр	-8.72734
стан	-8.72847
▁име	-8.73255
▁господин	-8.73262
▁почти	-8.73321
рат	-8.73357
ющий	-8.73502
лон	-8.7364
рь	-8.73722
смотр	-8.73862
▁него	-8.74029
▁партии	-8.74193
▁объем	-8.74248
дж	-8.74453
▁появи	-8.74468
ват	-8.74589
▁50	-8.74697
рез	-8.75
▁бизнес	-8.75015
чик	-8.75042
▁Пер	-8.75117
▁средств	-8.75144
иров	-8.7524
▁ТАСС	-8.75295
▁мер	-8.75371
▁именно	-8.7539
▁сотрудник	-8.75392
▁фонд	-8.75557
служ	-8.75577
ления	-8.75635
▁принят	-8.75888
▁детей	-8.76317
▁части	-8.76365
чь	-8.76382
▁наши	-8.76434
овые	-8.76588
пло	-8.76699
▁Тр	-8.76785
▁Сегодня	-8.76966
▁Андре	-8.76966
▁дома	-8.77002
зы	-8.77034
▁баз	-8.77102
дал	-8.77137
on	-8.77288
▁клуб	-8.77628
▁люди	-8.77748
ция	-8.78077
▁занима	-8.78191
лив	-8.78291
▁открыт	-8.78374
▁G	-8.78403
▁выс	-8.78523
▁стол	-8.78531
▁форм	-8.78647
▁Ро	-8.78717
▁апреля	-8.7884
▁L	-8.78841
▁известно	-8.78926
▁премьер	-8.78995
З	-8.79117
▁T	-8.79166
▁явля	-8.79383
▁говорится	-8.79395
▁однако	-8.79434
▁Ар	-8.79488
▁сентября	-8.79514
лег	-8.79667
▁мне	-8.79691
▁ком	-8.79762
▁рук	-8.79963
▁представител	-8.7999
▁уголовно	-8.80316
▁стали	-8.80395
▁хотя	-8.80645
ика	-8.80715
or	-8.80808
▁сил	-8.80935
▁Га	-8.81037
▁продаж	-8.81177
▁Те	-8.81406
▁рамка	-8.8144
al	-8.81449
пуст	-8.81559
▁процесс	-8.81589
▁россиян	-8.8175
▁бр	-8.81963
▁ар	-8.82035
▁мужчин	-8.82135
▁оп	-8.82164
▁ново	-8.8228
S	-8.82408
дер	-8.82539
▁представитель	-8.82557
▁рад	-8.82619
тели	-8.82637
след	-8.82753
▁государства	-8.82786
▁2017	-8.82888
▁орган	-8.83144
▁ши	-8.83265
▁режим	-8.83273
▁стране	-8.83478
▁защит	-8.83568
ностью	-8.83646
ление	-8.83676
▁правительства	-8.83778
дан	-8.83856
рев	-8.84072
▁задержан	-8.84095
ических	-8.84106
ван	-8.84313
фер	-8.84348
▁22	-8.8436
рыв	-8.84661
▁рост	-8.84983
▁котором	-8.85088
▁ответ	-8.85263
▁всем	-8.85328
▁Совет	-8.85368
▁Российск	-8.8558
▁одной	-8.85729
ун	-8.85865
▁доход	-8.85949
▁Ми	-8.86107
вид	-8.86126
20	-8.86205
ата	-8.86332
▁идет	-8.86377
▁одного	-8.86391
мин	-8.86565
▁февраля	-8.86776
▁вос	-8.86801
▁состояни	-8.86822
енных	-8.86838
▁пе	-8.86861
▁необходимо	-8.86877
Е	-8.86882
министр	-8.86932
лан	-8.87019
▁ных	-8.87073
ска	-8.87131
общ	-8.87182
пуск	-8.87185
▁Ал	-8.87313
ниц	-8.87397
▁21	-8.87642
▁Вы	-8.87698
▁конце	-8.87786
тур	-8.87952
▁способ	-8.87976
▁менее	-8.88048
▁оказа	-8.88067
▁борьб	-8.88109
▁образом	-8.88117
дать	-8.88127
▁возможно	-8.88129
▁правил	-8.88273
гер	-8.8856
пор	-8.88604
▁сообщили	-8.88778
▁возможность	-8.88998
▁перв	-8.89132
w	-8.89453
▁декабря	-8.89454
▁ноября	-8.89454
▁мая	-8.89459
▁развития	-8.8946
▁ним	-8.89552
▁октября	-8.8993
▁времени	-8.89965
▁зам	-8.90047
▁24	-8.90211
▁информации	-8.90478
▁пыта	-8.90481
▁принял	-8.90563
▁ра	-8.90566
▁Та	-8.90663
секретар	-8.90767
еля	-8.91082
ывать	-8.91126
▁назад	-8.91188
уют	-8.91303
▁некоторы	-8.91304
тан	-8.91312
▁региона	-8.91393
▁No	-8.91421
f	-8.9144
фор	-8.91529
кор	-8.91678
▁такой	-8.91767
▁ц	-8.91808
▁заседани	-8.91928
▁января	-8.91997
вая	-8.92015
▁управления	-8.92015
▁мар	-8.92219
Петербург	-8.92276
▁другие	-8.92303
▁член	-8.92402
лер	-8.92439
▁эта	-8.9251
этому	-8.92982
нс	-8.93014
гар	-8.93147
▁центр	-8.93319
▁ссылк	-8.9347
▁действия	-8.93562
есс	-8.93599
▁жил	-8.93767
ируют	-8.93904
щик	-8.94028
▁себе	-8.94232
▁добавил	-8.9425
▁среди	-8.94454
сь	-8.94508
▁жив	-8.94514
ными	-8.94632
▁парламент	-8.94657
▁ного	-8.94773
▁наше	-8.94899
рк	-8.9528
▁эксперт	-8.95412
▁Сейчас	-8.95468
▁состоя	-8.95491
▁трех	-8.95528
▁ной	-8.95678
бил	-8.95769
луч	-8.95862
▁Киев	-8.95872
▁находи	-8.95874
сов	-8.95954
рен	-8.96101
▁ЕС	-8.9612
▁две	-8.96129
▁Они	-8.96293
ывает	-8.9633
▁Турции	-8.96337
▁Че	-8.96396
▁работу	-8.96461
▁долларов	-8.96465
▁подчеркнул	-8.9661
▁свой	-8.96814
▁потому	-8.96854
шим	-8.96855
▁военно	-8.96895
▁проведени	-8.96926
▁199	-8.96931
▁сбор	-8.97053
сегда	-8.97099
▁составил	-8.97114
▁Ла	-8.9772
▁намерен	-8.97785
▁100	-8.97955
T	-8.97999
вали	-8.98042
пл	-8.98147
▁тот	-8.98179
▁надо	-8.98389
▁слова	-8.98441
▁сезон	-8.98617
▁частности	-8.98705
▁удалось	-8.98915
▁сто	-8.98959
▁ского	-8.99112
▁рынка	-8.99213
▁Ха	-8.99244
▁течение	-8.99363
▁направлен	-8.99531
▁договор	-8.99964
▁Ку	-9.00236
▁23	-9.00415
▁ситуации	-9.00417
▁бюджет	-9.00448
C	-9.00493
ток	-9.00533
либо	-9.00568
ведения	-9.00657
it	-9.00706
▁Рос	-9.00745
▁;	-9.0079
вели	-9.00849
▁E	-9.00866
▁взрыв	-9.00878
▁группы	-9.01081
▁решил	-9.01223
бол	-9.01253
▁мест	-9.01327
▁транспорт	-9.01383
▁своего	-9.01419
▁назвал	-9.01435
▁дня	-9.01483
),	-9.01628
▁здесь	-9.01636
▁тогда	-9.01654
▁ский	-9.01789
ству	-9.01795
▁Па	-9.01829
зер	-9.01915
▁районе	-9.02047
смотря	-9.02242
▁D	-9.02575
дут	-9.02613
▁очередь	-9.02642
▁матч	-9.02785
▁вместе	-9.02872
▁минут	-9.02923
▁комплекс	-9.02948
▁этим	-9.02964
ятся	-9.03116
▁территори	-9.03205
бот	-9.03217
▁регион	-9.03232
▁одно	-9.03271
▁полу	-9.03302
летни	-9.03379
▁иск	-9.03561
лав	-9.03666
ился	-9.03694
нул	-9.03853
▁спорт	-9.03872
▁должн	-9.03962
цов	-9.03992
воз	-9.04025
▁I	-9.04108
чин	-9.04185
жал	-9.04513
▁полиции	-9.04519
▁28	-9.04589
нского	-9.04755
▁деньги	-9.04832
▁Мурманск	-9.04909
▁спортсмен	-9.04909
▁заместител	-9.0499
▁связан	-9.05022
▁тепер	-9.05248
▁журналист	-9.05299
▁собра	-9.05393
вяз	-9.05529
▁Петр	-9.05544
▁установлен	-9.05704
▁официально	-9.05991
доб	-9.06281
▁ную	-9.06343
▁совет	-9.06378
▁Ту	-9.06423
▁находит	-9.06469
▁качестве	-9.06487
▁евро	-9.06688
▁уверен	-9.0671
град	-9.06717
▁специалист	-9.06747
▁Кон	-9.06763
▁лично	-9.06838
Х	-9.06909
▁встреч	-9.06914
▁му	-9.06965
▁места	-9.06988
▁сер	-9.07209
▁границ	-9.0725
▁уровне	-9.07397
▁Михаил	-9.07557
▁час	-9.07558
▁Президент	-9.07639
енные	-9.07661
▁Ин	-9.07697
▁работа	-9.07735
вшего	-9.07761
▁сразу	-9.07819
▁системы	-9.07837
▁эту	-9.07881
иться	-9.07947
плат	-9.08028
▁своим	-9.08083
строен	-9.08131
▁стоит	-9.08292
▁расс	-9.08353
▁банка	-9.08364
▁услуг	-9.08374
▁видео	-9.08478
▁пункт	-9.0862
▁лучше	-9.08625
en	-9.08642
▁обо	-9.08737
▁выступа	-9.08772
▁прошл	-9.089
▁кол	-9.09
/	-9.09188
▁пример	-9.09215
ющим	-9.09216
▁40	-9.09228
▁Ра	-9.09252
▁перво	-9.09275
▁американски	-9.09397
лог	-9.09437
▁W	-9.09579
▁поддержк	-9.09642
▁конфликт	-9.09944
▁пояснил	-9.09944
▁структур	-9.10028
▁Су	-9.10033
▁долг	-9.10069
▁курс	-9.10151
▁международны	-9.10179
▁смерт	-9.10187
▁Никола	-9.10365
▁Под	-9.10369
▁итога	-9.10455
▁зон	-9.10588
▁партнер	-9.10613
▁квартир	-9.10697
▁комитета	-9.10913
ивать	-9.1102
▁автор	-9.11083
▁прошлого	-9.11115
re	-9.11194
▁второ	-9.11515
ари	-9.11523
▁27	-9.11598
дар	-9.11629
явлен	-9.1194
▁миллиард	-9.11964
▁чего	-9.11994
рит	-9.12002
мат	-9.12085
рон	-9.12088
▁Что	-9.12091
шен	-9.12154
чные	-9.1216
▁агентство	-9.12273
▁времен	-9.12284
ному	-9.12367
▁ход	-9.1237
▁сделать	-9.12392
▁своем	-9.12405
▁решения	-9.12487
изм	-9.12634
▁мин	-9.12652
▁народ	-9.12695
▁сти	-9.12811
▁след	-9.12864
▁26	-9.12961
▁ро	-9.13021
чных	-9.13128
▁экономическо	-9.13166
▁норм	-9.13204
стер	-9.13216
▁ту	-9.13271
▁проверк	-9.13413
▁кино	-9.13466
▁начала	-9.1347
▁вот	-9.13709
дор	-9.138
▁доступ	-9.13808
▁отлич	-9.13819
▁права	-9.13842
▁объект	-9.13865
▁участник	-9.14217
пит	-9.14332
▁вес	-9.1438
ывают	-9.14505
кер	-9.14531
▁дал	-9.14621
вших	-9.14662
▁H	-9.14712
могли	-9.14852
▁конечно	-9.14898
▁Кор	-9.14956
АО	-9.15012
▁основно	-9.15073
▁ракет	-9.15082
▁счита	-9.15117
▁месте	-9.15262
▁оценк	-9.15292
▁интернет	-9.15423
▁рынке	-9.15511
▁центра	-9.15581
льного	-9.15661
ании	-9.1567
▁меньше	-9.15687
▁остав	-9.1578
▁деятельности	-9.15864
▁августа	-9.16129
нской	-9.16188
▁прогноз	-9.16218
x	-9.16218
▁имеет	-9.16226
▁количество	-9.16347
вшие	-9.16359
▁авиа	-9.16363
▁сайте	-9.16468
▁проекта	-9.16528
▁отношения	-9.16591
▁анти	-9.16628
▁иностранны	-9.16647
рок	-9.16685
▁Новы	-9.16687
рак	-9.16696
нц	-9.16835
▁МВД	-9.17019
▁Ан	-9.17057
▁удар	-9.17116
▁годы	-9.17264
печат	-9.17371
мент	-9.17447
▁взят	-9.17495
▁дум	-9.17585
ланд	-9.1762
▁пять	-9.17643
▁жизнь	-9.17737
▁например	-9.17763
P	-9.17796
▁процент	-9.17876
полне	-9.17999
▁аэропорт	-9.18098
▁29	-9.18185
предел	-9.18245
▁скоро	-9.18295
at	-9.1845
▁снижени	-9.18461
няя	-9.1851
▁МИД	-9.18733
▁нефти	-9.18842
▁Бр	-9.18864
▁задач	-9.1895
вен	-9.19011
▁Его	-9.19019
▁роди	-9.19191
▁Бу	-9.19224
▁указ	-9.19356
▁хо	-9.19474
▁запрет	-9.19559
▁средне	-9.19568
российского	-9.19623
станет	-9.19631
▁Ду	-9.19641
чат	-9.19682
▁Игор	-9.19786
льных	-9.19808
▁угроз	-9.19831
▁нового	-9.19841
B	-9.19886
▁мало	-9.19929
▁средства	-9.19998
▁конкурс	-9.20014
▁второй	-9.20077
тоже	-9.20155
истов	-9.20162
▁Му	-9.20175
енной	-9.20185
▁хорош	-9.20274
▁правительство	-9.2035
▁отмечает	-9.20403
▁участк	-9.20476
▁говорил	-9.20476
▁школ	-9.20559
▁новый	-9.20571
вол	-9.20654
▁компаний	-9.20661
▁продукт	-9.20661
▁суда	-9.20729
▁начина	-9.20787
▁политическ	-9.20946
▁выше	-9.21134
▁позволя	-9.21219
▁показател	-9.2132
▁чиновник	-9.21499
▁одном	-9.21513
▁городе	-9.21599
нский	-9.21676
▁плат	-9.21824
ган	-9.21856
летне	-9.21923
Ч	-9.21926
лез	-9.21932
▁большо	-9.21943
нная	-9.22196
кан	-9.22259
▁факт	-9.22265
▁др	-9.2233
▁считают	-9.22388
▁пожар	-9.22394
▁помощи	-9.22439
▁признал	-9.22441
лик	-9.22461
▁главны	-9.22468
прос	-9.2247
▁работ	-9.22481
оставляет	-9.22532
▁четыре	-9.22534
▁внимание	-9.22628
чка	-9.22845
▁Россию	-9.22912
▁настоящее	-9.22964
▁врач	-9.23057
▁государственно	-9.23087
▁принима	-9.23102
▁работать	-9.23136
▁ль	-9.23217
▁Трамп	-9.23342
льц	-9.23461
▁арест	-9.23476
▁ным	-9.23522
▁местны	-9.23533
▁июля	-9.23719
▁чемпион	-9.23759
▁тако	-9.23787
▁Крым	-9.23802
нг	-9.23867
▁собственно	-9.23932
▁понят	-9.23959
▁социально	-9.24047
▁R	-9.24063
▁игра	-9.24066
нер	-9.24077
здание	-9.24141
▁посколь	-9.24154
▁провел	-9.24173
▁качеств	-9.2418
▁сообщени	-9.24196
енный	-9.24302
олод	-9.24387
▁кур	-9.24396
▁данно	-9.24461
вел	-9.24488
▁больниц	-9.24549
▁Дл	-9.2463
нуть	-9.24755
екс	-9.24776
▁завод	-9.24803
el	-9.24819
▁мог	-9.24883
▁Глава	-9.2512
▁риск	-9.25165
▁район	-9.25221
▁свет	-9.2529
▁прибыл	-9.25354
▁создан	-9.25382
жив	-9.25465
▁террорист	-9.25563
▁кризис	-9.25603
▁округ	-9.25603
▁товар	-9.25838
▁подготовк	-9.25895
▁возраст	-9.25899
▁га	-9.25951
▁данные	-9.25974
▁миллионов	-9.26013
▁ничего	-9.26093
▁мол	-9.26159
▁Федерации	-9.26178
▁Украине	-9.26189
▁ООН	-9.26189
▁контракт	-9.26189
Ц	-9.26209
▁N	-9.26221
▁сотрудничеств	-9.26385
▁предложил	-9.26504
жу	-9.26522
▁гол	-9.26534
▁дней	-9.26589
▁бел	-9.26661
▁Ник	-9.2667
▁последне	-9.26683
,6	-9.26692
▁сделал	-9.2671
▁бывши	-9.26857
тин	-9.26886
▁коллег	-9.26995
▁блок	-9.27096
чный	-9.27295
▁Ни	-9.27451
▁губернатор	-9.27599
▁одна	-9.27724
▁истории	-9.27769
▁штраф	-9.27769
▁представля	-9.27788
читыв	-9.27829
▁ру	-9.27883
брать	-9.27904
Интерфакс	-9.28068
▁улиц	-9.28146
Я	-9.28155
ходят	-9.28418
▁телеканал	-9.28569
▁s	-9.28713
▁би	-9.28778
▁мире	-9.28811
▁ведомства	-9.28825
▁инициатив	-9.2887
тав	-9.28925
es	-9.29165
креп	-9.29304
▁прода	-9.29312
▁проблемы	-9.29316
z	-9.29375
▁особенно	-9.29395
рин	-9.29473
▁часов	-9.29539
▁каждо	-9.29551
▁таким	-9.29669
▁Европы	-9.29679
гла	-9.29698
▁союз	-9.29757
▁законопроект	-9.2978
▁V	-9.29817
▁карт	-9.29868
▁наш	-9.29947
▁республик	-9.30005
▁получить	-9.30012
▁голов	-9.30071
▁информацию	-9.30086
▁сумм	-9.30293
▁американско	-9.30306
▁запрещен	-9.30338
▁должно	-9.30461
▁сборной	-9.30485
йте	-9.30503
▁помог	-9.30524
▁Поэтому	-9.30534
ожд	-9.30585
слов	-9.30589
▁активно	-9.30739
▁украински	-9.30757
эн	-9.30871
▁теракт	-9.30905
▁полно	-9.30933
▁получили	-9.30949
под	-9.31082
▁другой	-9.31108
▁обвиня	-9.31113
▁достаточно	-9.31213
▁потом	-9.31273
▁крупны	-9.31316
▁приводит	-9.31327
числ	-9.31686
▁района	-9.31688
▁станци	-9.31716
▁снизи	-9.31742
ович	-9.31894
выше	-9.31967
▁60	-9.32222
▁практически	-9.32248
▁сайт	-9.32327
▁прошлом	-9.32355
фф	-9.32378
ница	-9.3271
ьян	-9.3276
et	-9.32785
▁администрации	-9.32789
▁выплат	-9.32945
▁тер	-9.32971
▁теле	-9.3309
ясь	-9.33213
ация	-9.33286
▁Евгени	-9.33295
▁образова	-9.33397
▁ситуация	-9.334
▁месяц	-9.33401
▁театр	-9.33442
ющей	-9.33495
▁программы	-9.33504
▁Хо	-9.33613
▁заявление	-9.33625
сен	-9.33632
слав	-9.33646
▁/	-9.33729
st	-9.33819
-2	-9.33876
▁прокуратур	-9.34034
альный	-9.34136
▁международно	-9.34187
,7	-9.34354
клю	-9.34397
▁подтвердил	-9.34399
▁месяцев	-9.34466
▁свобод	-9.34528
▁весь	-9.34543
▁оппозици	-9.34566
▁официальны	-9.347
▁2013	-9.34779
очно	-9.348
▁просмотров	-9.35102
▁Тем	-9.3514
чев	-9.35188
▁одним	-9.35314
▁этап	-9.35362
ченко	-9.35378
▁мирово	-9.35542
▁войны	-9.35579
▁Когда	-9.35583
▁стоимость	-9.35638
изации	-9.35646
▁капитал	-9.35957
▁наблюда	-9.36069
▁населения	-9.3607
сон	-9.36182
суд	-9.36204
пал	-9.36438
▁Го	-9.36592
прочем	-9.36672
▁называ	-9.36672
▁выбор	-9.36687
▁жителей	-9.36831
▁назначен	-9.36933
▁службы	-9.36943
▁государство	-9.37001
▁участи	-9.37097
▁политически	-9.37157
▁опыт	-9.37171
бар	-9.37254
▁делать	-9.37351
▁общественно	-9.37377
▁экономики	-9.37378
▁соглашени	-9.37478
овый	-9.37536
▁Рус	-9.37658
▁существ	-9.37702
▁проводит	-9.37731
▁игрок	-9.37781
▁класс	-9.37785
▁военны	-9.37809
▁представлен	-9.37814
▁клиент	-9.37817
▁отмен	-9.37897
ra	-9.37923
▁точк	-9.38048
▁погиб	-9.38205
▁автомобиль	-9.38256
▁ском	-9.38264
▁тому	-9.38271
▁Лу	-9.38336
▁пят	-9.3834
▁команды	-9.38345
становить	-9.38469
▁31	-9.38568
▁Бер	-9.38649
▁тренер	-9.38701
▁Согласн	-9.38705
▁Таки	-9.38733
▁впервые	-9.3881
▁заключен	-9.38865
▁спрос	-9.38885
▁валют	-9.38962
▁Госдумы	-9.38974
▁число	-9.3898
▁реализаци	-9.39035
▁налогов	-9.39058
▁Ста	-9.39081
▁участников	-9.39121
▁лучши	-9.39155
шла	-9.39217
▁министерств	-9.39256
▁возможности	-9.39384
▁Пол	-9.39457
шин	-9.39463
▁процентов	-9.39645
ично	-9.39697
▁утвержда	-9.39703
▁владе	-9.39708
▁выборов	-9.39846
давать	-9.39849
▁хотел	-9.3986
▁попытк	-9.39928
▁слов	-9.39931
▁различны	-9.39957
▁Виктор	-9.3996
▁старт	-9.39979
▁объявил	-9.4004
▁рейтинг	-9.4004
▁турнир	-9.40049
▁верну	-9.40131
F	-9.4017
нич	-9.40344
▁продолжа	-9.4035
пар	-9.40367
▁Бел	-9.40509
▁высоко	-9.40529
▁образ	-9.40573
▁годов	-9.40577
▁выборах	-9.40631
▁долго	-9.4074
▁ская	-9.40804
ован	-9.40816
тек	-9.4091
▁Порошенко	-9.41058
▁Германии	-9.41198
енного	-9.41358
▁север	-9.41396
▁включа	-9.41403
▁знаком	-9.41451
▁Ло	-9.41481
▁государственны	-9.415
▁национально	-9.4158
▁предприяти	-9.41628
▁культур	-9.41661
▁картин	-9.41666
▁совершен	-9.41668
фт	-9.41839
▁спец	-9.41863
▁федерально	-9.42087
▁приобре	-9.4209
Ru	-9.42171
▁цены	-9.42182
▁вывод	-9.42359
▁законодательств	-9.42436
▁обсужда	-9.42663
▁Еще	-9.42679
бег	-9.42702
▁собира	-9.42763
▁пяти	-9.42815
твор	-9.42914
чки	-9.42948
▁вопросы	-9.43016
▁половин	-9.43044
▁государств	-9.43046
▁квартал	-9.43126
▁Мир	-9.43139
▁Олег	-9.43158
▁телефон	-9.43248
▁банков	-9.43378
▁отдел	-9.43385
▁нефть	-9.43494
▁назва	-9.43497
бин	-9.43617
▁сотрудников	-9.43647
крат	-9.43701
▁сравнени	-9.43708
▁Россией	-9.43708
ационн	-9.43716
снова	-9.43768
▁повод	-9.43808
▁Министерств	-9.43825
▁вариант	-9.43826
▁искусств	-9.43943
▁итоге	-9.4406
вание	-9.44098
▁Госдум	-9.44123
il	-9.44132
ro	-9.44287
▁выполнен	-9.4433
йдет	-9.44381
▁знач	-9.44482
▁ген	-9.44488
▁палат	-9.44659
▁Клинтон	-9.44765
эт	-9.4477
▁интервью	-9.44883
ion	-9.44953
▁Сер	-9.44979
▁меры	-9.45015
▁заяв	-9.45098
▁войск	-9.45109
▁принцип	-9.45119
▁штат	-9.4525
нный	-9.45303
▁признан	-9.45374
▁приговор	-9.45478
тон	-9.45504
▁Аб	-9.45555
▁использу	-9.45594
▁тонн	-9.45617
рус	-9.45644
▁ской	-9.45659
▁агентства	-9.457
▁ическ	-9.45704
▁ЦБ	-9.45707
Евро	-9.45804
▁электро	-9.45926
▁первом	-9.45927
▁любо	-9.46079
▁собой	-9.46221
мимо	-9.46278
▁35	-9.46311
▁ночь	-9.46506
ген	-9.46521
▁Источник	-9.4655
стран	-9.46572
▁комитет	-9.46602
▁политики	-9.46679
▁чувств	-9.46791
рис	-9.46837
▁новой	-9.46866
▁обороны	-9.46914
▁произошло	-9.47054
леч	-9.4707
▁Кур	-9.47095
▁начальник	-9.472
▁сообщении	-9.47226
▁четверт	-9.47274
▁движения	-9.47342
три	-9.47343
нев	-9.47354
эр	-9.47355
▁фон	-9.4737
N	-9.47391
льным	-9.47412
▁целом	-9.47525
▁Российско	-9.47542
▁уровень	-9.47637
▁вообще	-9.47641
▁круг	-9.47708
▁произ	-9.47786
▁размере	-9.4782
▁затем	-9.47875
▁перспектив	-9.47881
Един	-9.47935
▁70	-9.47949
▁пишет	-9.48003
▁Франции	-9.48035
▁террористическ	-9.48081
Ш	-9.48105
исты	-9.48124
▁повышени	-9.48147
▁инвестор	-9.48223
▁сети	-9.48226
▁украинско	-9.48248
▁встречи	-9.48276
▁условиях	-9.48317
▁внешн	-9.48332
▁Санкт	-9.48369
▁написал	-9.48379
пример	-9.48394
рик	-9.48418
▁важно	-9.48463
▁университет	-9.48491
▁определен	-9.48594
▁экономически	-9.48596
▁выпуск	-9.48615
менно	-9.48661
нцев	-9.48724
▁расположен	-9.48736
▁показал	-9.48759
▁опубликован	-9.48859
▁действительно	-9.48873
▁атак	-9.48878
M	-9.49069
▁ситуацию	-9.49229
▁охран	-9.49245
▁другим	-9.49249
▁данных	-9.4932
▁Иран	-9.4945
рес	-9.49539
ol	-9.49607
▁получени	-9.49653
▁каждый	-9.49654
ирования	-9.49687
▁УК	-9.49712
▁известны	-9.49757
▁занят	-9.49858
▁достиг	-9.49871
▁помощью	-9.5009
▁какие	-9.50146
▁условия	-9.50148
▁бюджета	-9.50169
▁предлага	-9.5018
ic	-9.50337
▁НАТО	-9.50345
▁конца	-9.50352
▁ремонт	-9.50379
▁измен	-9.50401
ch	-9.50426
us	-9.50535
▁куп	-9.50544
кануне	-9.50598
▁инвест	-9.50665
▁улице	-9.50797
вис	-9.50815
▁речь	-9.50838
▁устройств	-9.50971
▁произоше	-9.50998
▁учет	-9.51035
▁центре	-9.51067
▁Кол	-9.51113
▁часто	-9.51149
▁обеспечени	-9.51222
▁служб	-9.51258
▁80	-9.51363
правления	-9.51417
▁адвокат	-9.51474
▁кар	-9.5153
▁сказать	-9.51757
▁Ново	-9.51773
▁никак	-9.51871
ивают	-9.51876
▁Джон	-9.51958
▁зарплат	-9.52109
▁экспорт	-9.52147
le	-9.52209
▁рассматрива	-9.52244
ъезд	-9.52362
учил	-9.52395
▁возбужден	-9.52489
▁следует	-9.52493
▁читай	-9.52512
▁настоящ	-9.52593
▁деятельность	-9.52617
▁роста	-9.52689
▁пользу	-9.52745
▁погибли	-9.5281
▁принадлеж	-9.52834
▁Ос	-9.52957
▁действий	-9.53025
▁Центр	-9.53074
▁сообщалось	-9.53277
▁ведь	-9.53322
льную	-9.53432
▁организация	-9.53489
▁Пред	-9.53491
▁состоит	-9.53516
E	-9.53525
▁Вер	-9.53539
чив	-9.53634
▁характер	-9.53643
▁министра	-9.53673
▁группировк	-9.53776
▁передач	-9.53803
▁руководство	-9.53871
▁Медведев	-9.53901
▁пес	-9.53903
▁заверши	-9.53904
▁пользовател	-9.53918
▁газета	-9.53925
▁закрыт	-9.54043
▁хорошо	-9.54059
▁жертв	-9.5416
бан	-9.54177
▁производства	-9.54317
кур	-9.54398
▁самом	-9.54449
la	-9.54537
▁помощь	-9.54556
гул	-9.54572
▁размер	-9.54648
▁финансовы	-9.5468
▁регионально	-9.54739
▁сильно	-9.54837
▁понедельник	-9.54941
▁канал	-9.54986
Газпром	-9.55072
▁магазин	-9.55072
ставить	-9.55079
дро	-9.55119
▁третье	-9.55228
▁расследовани	-9.55236
▁работает	-9.55237
▁поиск	-9.5535
▁деле	-9.55451
▁X	-9.55541
▁встреча	-9.55563
служба	-9.55585
▁рынок	-9.55596
▁Гос	-9.55789
▁отделени	-9.55798
▁протест	-9.55881
▁язык	-9.56001
▁выросл	-9.56025
альная	-9.56052
▁огн	-9.56099
▁подобны	-9.56184
▁цвет	-9.56259
▁бывше	-9.56307
банк	-9.56318
▁сел	-9.56464
▁обрати	-9.56622
▁наибол	-9.56702
гран	-9.56703
нин	-9.56862
D	-9.56894
здрав	-9.5692
емых	-9.57096
▁Ру	-9.57148
пут	-9.57201
фин	-9.57274
▁правоохранитель	-9.57288
▁финал	-9.57307
ООО	-9.57328
глас	-9.57347
пред	-9.57372
▁Среди	-9.57382
▁Трампа	-9.57385
▁чемпионат	-9.57412
▁запис	-9.57427
▁СССР	-9.57454
▁легко	-9.57454
▁предприятия	-9.57588
▁пятницу	-9.57588
▁следующе	-9.5759
▁версии	-9.57723
▁давно	-9.57749
▁доби	-9.57813
▁подпис	-9.57818
▁участвова	-9.57857
▁O	-9.57907
▁ограничен	-9.57956
▁живот	-9.57963
▁основны	-9.57994
▁среду	-9.58032
▁вероятн	-9.58132
▁совета	-9.5832
▁вас	-9.58365
▁четверг	-9.58396
▁прямо	-9.58397
▁специально	-9.58533
▁Москва	-9.58582
▁мэр	-9.58597
▁доллар	-9.58835
▁делу	-9.58854
▁Европе	-9.58941
ur	-9.58943
▁образования	-9.58993
▁Первы	-9.59059
▁Дональд	-9.59075
▁никто	-9.59111
казались	-9.59164
▁наруш	-9.59191
▁представителя	-9.59287
▁реша	-9.59318
▁Республик	-9.59335
▁сфере	-9.59405
▁Гор	-9.59412
емся	-9.59465
▁месяца	-9.59474
▁прием	-9.5954
▁республики	-9.59592
▁2012	-9.59621
▁говорят	-9.5964
▁Запад	-9.59694
▁Пар	-9.59695
▁хочет	-9.59919
▁90	-9.6001
службе	-9.6009
▁порядка	-9.60173
▁финансировани	-9.60175
▁имени	-9.60185
ешь	-9.60187
▁потеря	-9.60227
­	-9.60308
▁Украина	-9.60308
▁сервис	-9.60322
▁остров	-9.60334
▁председатель	-9.60371
▁предсто	-9.60452
▁книг	-9.60462
▁Борис	-9.60468
ницы	-9.60507
▁минимум	-9.60584
▁травм	-9.60594
▁Банк	-9.60641
чал	-9.60762
▁цитируе	-9.60875
▁Северн	-9.60895
▁списк	-9.60943
▁четырех	-9.60998
▁адрес	-9.61002
Рос	-9.61186
▁какой	-9.61208
▁сообщал	-9.61257
+	-9.61277
▁аппарат	-9.61277
▁ребенка	-9.61277
▁принято	-9.61291
▁муж	-9.61395
▁Суд	-9.61405
читать	-9.61408
▁работе	-9.61419
▁высоки	-9.61424
▁огромн	-9.61431
▁европейски	-9.61556
▁площадк	-9.61556
▁контроль	-9.61582
▁Алеппо	-9.61696
▁вторник	-9.61848
▁налог	-9.61882
коп	-9.61919
▁ными	-9.61965
▁The	-9.61976
▁призвал	-9.61984
ведение	-9.62029
R	-9.62037
▁золот	-9.62116
▁небольш	-9.62116
кар	-9.62117
▁изменения	-9.62181
▁Савченко	-9.62256
▁постоянно	-9.62256
▁Максим	-9.62257
▁обеща	-9.62268
чная	-9.62285
▁сын	-9.62312
▁снят	-9.62325
▁вклад	-9.62348
▁органов	-9.62476
▁актер	-9.62495
▁хозяйств	-9.62538
▁переход	-9.62574
▁находят	-9.62594
▁работал	-9.62624
ent	-9.6264
▁быстро	-9.62704
▁реформ	-9.62822
▁развива	-9.62888
▁матче	-9.62897
▁самым	-9.62948
▁обращени	-9.62961
▁роль	-9.63056
▁45	-9.63084
▁денег	-9.63104
is	-9.63124
▁допинг	-9.63246
▁Крыма	-9.63344
▁руководств	-9.6342
▁департамент	-9.63529
▁Мак	-9.63628
▁ресурс	-9.63672
▁успех	-9.63672
шлось	-9.63677
▁российск	-9.63677
▁попал	-9.63699
▁смогу	-9.63765
▁привлек	-9.63827
▁нападени	-9.63943
▁действ	-9.63954
▁десятк	-9.63958
▁номер	-9.64015
▁основани	-9.64029
▁сокращен	-9.64244
▁операции	-9.64262
▁силы	-9.64326
▁говорить	-9.64363
вания	-9.6438
▁культуры	-9.64491
▁Стр	-9.64503
таки	-9.6453
нескольких	-9.64531
▁использовать	-9.64531
▁нельзя	-9.64531
▁Рас	-9.64602
▁данны	-9.64692
▁национальн	-9.64736
▁институт	-9.64819
▁парк	-9.64866
нести	-9.64937
▁придет	-9.64992
▁(1	-9.65171
▁первой	-9.65193
▁обнаружен	-9.65252
▁никогда	-9.65254
▁Московско	-9.65346
▁сним	-9.65349
▁знаю	-9.65352
▁груз	-9.65411
▁чист	-9.65429
▁финансов	-9.65478
▁уровня	-9.65543
▁ты	-9.65586
▁подход	-9.65742
▁реально	-9.6583
▁московско	-9.65833
пущен	-9.6584
эл	-9.65881
цк	-9.65921
▁комиссии	-9.6596
▁футбол	-9.65998
▁нарушения	-9.6604
▁осв	-9.66051
▁точно	-9.66075
▁Фото	-9.66125
▁масштаб	-9.66125
▁особо	-9.66224
▁Песков	-9.66564
ющая	-9.66744
нтер	-9.66772
▁готовы	-9.66794
▁сирийско	-9.66858
▁U	-9.66864
▁руководитель	-9.66887
▁серьезны	-9.66931
▁фигур	-9.67005
▁Верховн	-9.67011
▁подозреваем	-9.6705
▁строительство	-9.67133
▁дипломат	-9.67153
▁акции	-9.67159
▁никаки	-9.67205
ce	-9.67206
▁Черн	-9.67242
евич	-9.67262
▁производител	-9.67295
▁фотограф	-9.67301
▁открыл	-9.67313
▁мет	-9.67364
▁препарат	-9.67449
дробнее	-9.67573
▁Известия	-9.67612
▁сложн	-9.67622
▁работник	-9.67707
▁доклад	-9.67721
▁совместно	-9.67745
▁эффект	-9.67747
▁взял	-9.67791
▁переговоры	-9.67841
▁коррупци	-9.67894
▁случай	-9.67894
▁рубля	-9.68007
овсем	-9.68024
потреб	-9.68028
▁ближайше	-9.68042
▁лес	-9.68051
▁Тогда	-9.68077
▁пройдет	-9.68102
▁собеседник	-9.68191
▁список	-9.68195
йдут	-9.68251
▁преступления	-9.68304
▁текуще	-9.68341
▁шаг	-9.68485
▁отчет	-9.68697
▁страхов	-9.68712
▁согласи	-9.68714
▁функци	-9.6879
▁тут	-9.68901
▁Раз	-9.68985
▁чемпионата	-9.69002
▁сделк	-9.69005
▁пассажир	-9.69012
держать	-9.6903
▁праздник	-9.6909
▁предпринимател	-9.69101
▁правительств	-9.69169
▁строительства	-9.69242
▁социальны	-9.69314
▁Иван	-9.69388
▁соответстви	-9.69392
▁РБК	-9.69392
▁выступлени	-9.69401
лага	-9.69546
▁инцидент	-9.6957
▁силу	-9.69616
▁категор	-9.69694
▁происходит	-9.69694
▁размещен	-9.69705
▁отсутстви	-9.69846
▁необходимы	-9.69863
▁ошиб	-9.70003
▁требования	-9.70102
▁ниже	-9.70177
▁продолжает	-9.70298
▁выступил	-9.70309
▁зрител	-9.70329
▁избран	-9.70443
▁пострадал	-9.70455
чески	-9.70493
ri	-9.7052
▁крайне	-9.70607
▁позволит	-9.70607
▁популяр	-9.70706
▁Image	-9.70759
▁сумму	-9.70776
▁Там	-9.70829
ческая	-9.7085
▁выразил	-9.70916
юсь	-9.70924
O	-9.71163
▁исследовани	-9.71166
▁приходит	-9.71197
▁поддержку	-9.71198
▁ваш	-9.7125
▁членов	-9.71332
▁масс	-9.71403
▁нынешне	-9.71528
▁проходит	-9.7159
▁благодаря	-9.71636
▁дополнительны	-9.71697
▁русско	-9.71781
▁сможет	-9.71836
▁2011	-9.71837
▁опер	-9.71921
казалось	-9.71993
▁почему	-9.72312
лишко	-9.72322
▁визит	-9.72328
▁остается	-9.72383
▁вернуть	-9.72485
▁производств	-9.72505
▁Рад	-9.72546
▁стат	-9.72587
зин	-9.72599
▁$1	-9.72615
асается	-9.7276
▁вопросам	-9.72775
мысл	-9.72861
информ	-9.72901
▁наук	-9.72902
▁призыв	-9.7292
▁Минобороны	-9.72925
▁режиссер	-9.72925
▁писал	-9.72957
▁пле	-9.73059
▁управление	-9.73082
ограф	-9.73146
▁сложно	-9.73171
▁Больш	-9.73239
▁уход	-9.73257
▁случи	-9.73302
▁автомобиля	-9.73395
▁обнаружил	-9.73395
▁проведен	-9.73431
▁привел	-9.73436
▁нарко	-9.73471
▁важны	-9.73503
По	-9.7351
▁миллиона	-9.73543
▁выполня	-9.7371
ia	-9.73804
▁местно	-9.73811
шка	-9.74022
▁эффективно	-9.74023
▁километр	-9.74026
▁назнач	-9.74033
глуб	-9.74076
▁продукции	-9.74184
▁МЧС	-9.74184
▁равно	-9.74214
▁развитие	-9.7425
▁двига	-9.74275
▁требовани	-9.7446
ителей	-9.74482
▁федеральны	-9.7466
▁2018	-9.7466
▁метров	-9.74664
▁городско	-9.74671
▁движени	-9.74771
▁имеют	-9.74823
▁поставк	-9.74826
▁организаций	-9.74835
▁военных	-9.74836
▁следующи	-9.7484
▁оценива	-9.74843
▁Иль	-9.74892
▁семей	-9.749
▁поезд	-9.75081
▁контр	-9.75087
▁разработк	-9.75139
▁Теперь	-9.75139
▁выборы	-9.75181
▁двор	-9.75297
▁увеличени	-9.75299
▁мигрант	-9.75299
▁выставк	-9.75301
▁соглашения	-9.75309
X	-9.75366
▁процедур	-9.75459
Союз	-9.75601
▁уничтож	-9.7562
▁девят	-9.75633
люс	-9.7573
▁Вашингтон	-9.7578
▁Донбасс	-9.7578
▁внутренни	-9.7578
▁довольн	-9.75782
▁края	-9.75901
рек	-9.75932
▁звезд	-9.75941
цеп	-9.75995
▁голосов	-9.76038
▁транс	-9.76051
ss	-9.76076
▁раньше	-9.76102
▁дорож	-9.76161
слыш	-9.76257
ложил	-9.76396
▁разрешен	-9.76429
вес	-9.76448
▁генеральн	-9.76462
▁коп	-9.76609
НИ	-9.76617
новь	-9.76727
▁вооружен	-9.76798
V	-9.76855
конец	-9.76858
▁сообщается	-9.77141
▁мероприяти	-9.77159
▁осуществля	-9.77239
▁Ор	-9.77247
▁вчера	-9.77286
▁автомобилей	-9.77292
ing	-9.77312
30	-9.77433
▁позиции	-9.77567
▁депутатов	-9.77582
▁микро	-9.77584
жды	-9.776
▁согласн	-9.77699
▁практик	-9.7773
▁реклам	-9.77899
зор	-9.78168
▁K	-9.78205
▁ведущ	-9.78238
▁скорее	-9.78289
▁Евросоюз	-9.78388
▁сосед	-9.78399
▁фото	-9.78402
▁региональны	-9.78415
▁недели	-9.78494
▁куда	-9.78531
▁президентом	-9.7856
▁500	-9.78569
надзор	-9.78585
▁глаз	-9.78673
▁Представител	-9.78719
▁обмен	-9.78757
рог	-9.7877
▁ированн	-9.7888
▁желани	-9.79001
центр	-9.79025
▁декабре	-9.79051
▁меж	-9.79187
▁ближайши	-9.79218
▁властей	-9.79218
▁совершенно	-9.7928
▁запрос	-9.7941
▁июня	-9.79426
ндер	-9.79497
▁большинство	-9.79587
▁всю	-9.79616
▁переговоров	-9.7963
▁лечени	-9.7969
▁дальнейше	-9.7972
▁зрения	-9.79887
ed	-9.79975
▁оказыва	-9.8001
▁партий	-9.80059
▁ведет	-9.80139
▁крупно	-9.80222
▁десяти	-9.80224
▁свободы	-9.8028
▁Южно	-9.80332
▁инфраструктур	-9.8039
▁максимальн	-9.8039
▁получат	-9.80421
▁страниц	-9.80656
▁Восток	-9.80729
техник	-9.80733
▁прежде	-9.80759
▁санкции	-9.80837
▁Ma	-9.80867
Ростов	-9.80892
▁Лондон	-9.80897
▁исполнени	-9.80897
▁довер	-9.80911
▁198	-9.80922
$	-9.80973
▁рекорд	-9.81067
▁производство	-9.81148
:00	-9.81166
▁оказал	-9.81182
Роснефт	-9.81236
▁странах	-9.81238
▁роли	-9.81256
▁занял	-9.81288
▁прекращени	-9.81406
▁предложение	-9.81528
▁эксперты	-9.8154
▁собственны	-9.81559
▁покупк	-9.81578
▁Антон	-9.81603
▁тип	-9.81727
▁статус	-9.81783
▁объявлен	-9.81872
▁зим	-9.8189
▁факту	-9.81898
ложить	-9.81904
▁продолжит	-9.81918
▁рабочи	-9.81918
▁будем	-9.81924
▁шесть	-9.82112
▁раздел	-9.82184
▁природ	-9.82242
▁акций	-9.82261
▁январе	-9.82261
▁вышл	-9.82284
▁значительно	-9.82358
▁крае	-9.8243
▁планирует	-9.82433
▁применени	-9.82492
вшись	-9.82542
▁крупнейши	-9.82556
▁Кир	-9.82657
▁объектов	-9.8275
атов	-9.82784
▁Минфин	-9.82801
▁едино	-9.82819
▁соглас	-9.82827
?	-9.8289
движ	-9.82976
▁указан	-9.8303
▁маршрут	-9.83123
▁уточнил	-9.83123
ошли	-9.83283
▁форум	-9.83297
▁фирм	-9.83307
▁упал	-9.83352
▁Бар	-9.83412
Й	-9.83468
▁обычно	-9.83476
начала	-9.83565
▁Великобритании	-9.83644
▁информация	-9.83644
▁боевы	-9.83694
▁мощно	-9.83746
▁рейс	-9.83773
▁следствия	-9.83818
▁требует	-9.83818
▁происшестви	-9.83992
▁здания	-9.83993
▁просьб	-9.83999
▁количеств	-9.84087
▁гарант	-9.84171
▁значит	-9.84193
▁особ	-9.84219
целью	-9.84231
Север	-9.84356
▁задержал	-9.84382
▁мероприятия	-9.84428
▁Гол	-9.84453
▁опасно	-9.84486
гин	-9.84691
▁обстоятельств	-9.84694
▁увеличил	-9.84694
▁умер	-9.84759
▁платеж	-9.84789
▁сделан	-9.849
▁аренд	-9.84916
онер	-9.84932
нюю	-9.84958
▁восстановлен	-9.85046
▁Китай	-9.85047
▁близки	-9.85048
▁рыб	-9.85109
менить	-9.85126
▁штаб	-9.85225
▁300	-9.8539
▁32	-9.85459
▁Пре	-9.85474
▁развед	-9.85636
▁санкций	-9.85682
▁возможны	-9.85744
▁отечественн	-9.85755
▁разговор	-9.85757
▁боевик	-9.85967
▁название	-9.85997
▁рассказывает	-9.86147
▁вынужден	-9.86289
▁шанс	-9.86305
▁автомат	-9.86329
▁Елен	-9.86388
место	-9.86426
▁школы	-9.8644
▁метод	-9.8651
▁ДТП	-9.86648
пустя	-9.86768
▁неделе	-9.86774
▁воскресенье	-9.86827
▁свидетельств	-9.86829
▁предложения	-9.86861
▁управля	-9.86982
▁пилот	-9.8701
▁заявления	-9.87031
платить	-9.87079
▁предлагает	-9.87109
as	-9.87171
am	-9.87184
▁комисси	-9.87211
▁комментари	-9.87368
▁предоставлен	-9.87368
▁скандал	-9.87408
▁In	-9.87615
▁планируется	-9.87651
▁предусмотрен	-9.8773
▁работают	-9.87823
▁следовател	-9.8789
▁объясня	-9.87911
▁распространен	-9.87911
▁стандарт	-9.87911
Газета	-9.87912
▁Чу	-9.88148
▁эконом	-9.88162
▁вызвал	-9.88285
▁молоды	-9.88296
одну	-9.88409
▁кажд	-9.88474
com	-9.8853
▁девушк	-9.8864
▁ожидает	-9.88641
▁кадр	-9.88813
▁подписал	-9.88827
▁исполнител	-9.88856
▁рядом	-9.88932
▁внутри	-9.89009
▁оружия	-9.89191
▁памятник	-9.89191
▁Юрий	-9.89194
▁житель	-9.89213
▁русски	-9.89344
▁топ	-9.89346
▁Эл	-9.89362
▁опубликовал	-9.89375
▁Ну	-9.89402
▁дети	-9.89405
▁поток	-9.89496
▁освобожден	-9.89559
▁посвящен	-9.89559
▁двум	-9.8956
▁запуск	-9.89727
▁обраща	-9.89745
▁автобус	-9.89745
▁поступил	-9.89785
▁камер	-9.89798
▁потребител	-9.89813
▁финансово	-9.8991
▁голос	-9.89913
▁преступлени	-9.89976
▁смысл	-9.90017
пект	-9.90072
▁Правительств	-9.90115
▁прокурор	-9.90115
▁карьер	-9.90117
▁столицы	-9.90117
▁армии	-9.90128
▁очередно	-9.90138
ТО	-9.90249
огда	-9.90414
вшая	-9.90433
▁обязательств	-9.90487
▁соперник	-9.90492
▁создание	-9.90522
▁линии	-9.90527
▁площади	-9.90674
▁студент	-9.90674
прежнем	-9.90674
▁систему	-9.90695
влек	-9.90745
▁фактор	-9.9086
▁жители	-9.90865
▁футболист	-9.90872
J	-9.91048
▁Лавров	-9.91048
▁яко	-9.91159
езж	-9.91202
▁выгляд	-9.91305
▁постановлени	-9.91424
Исламско	-9.91612
▁федераци	-9.91612
▁незаконно	-9.91612
▁марте	-9.91666
▁St	-9.91778
▁критик	-9.91803
▁избирател	-9.91882
эк	-9.91893
▁!"	-9.91893
▁пути	-9.91924
▁думаю	-9.91948
чень	-9.91966
▁руководителя	-9.9197
▁руководител	-9.91972
▁резко	-9.92026
демократ	-9.92074
▁формировани	-9.92103
фон	-9.92326
▁завершен	-9.92377
▁текст	-9.92404
▁импорт	-9.92431
▁вызыва	-9.92437
▁Париж	-9.92442
ter	-9.92479
▁отмечают	-9.92516
могла	-9.92653
▁возглавля	-9.92749
▁конкурент	-9.92749
грать	-9.92815
▁тяжел	-9.92885
▁благо	-9.92936
▁невозможно	-9.9294
▁воздух	-9.92943
▁предмет	-9.92966
▁терроризм	-9.93131
▁тариф	-9.93139
▁необходимости	-9.93159
▁гре	-9.93186
знани	-9.93233
▁Рио	-9.93266
▁волн	-9.93295
▁отмечается	-9.9336
▁внесен	-9.93475
▁гонк	-9.93487
▁Вол	-9.93496
▁олимпийск	-9.93515
▁подразделени	-9.93515
▁основе	-9.93516
▁СКР	-9.93517
▁специальны	-9.93522
▁боль	-9.93548
▁боевиков	-9.93672
монт	-9.93682
▁Иванов	-9.93723
▁учеб	-9.93762
▁исключен	-9.93766
▁сектор	-9.93767
пат	-9.93813
▁Более	-9.93901
▁анализ	-9.93904
▁Роман	-9.93995
▁Один	-9.94052
тивны	-9.94071
▁регионов	-9.94177
▁треть	-9.94294
▁журнал	-9.94304
▁похож	-9.94307
▁близ	-9.94317
▁серьезно	-9.9433
▁ответственности	-9.9448
премьер	-9.94569
председателя	-9.94656
▁вокруг	-9.94674
▁рассмотрени	-9.94675
▁концерт	-9.94679
▁середин	-9.94871
▁36	-9.94975
▁здоров	-9.95032
▁обсуждени	-9.95064
▁оружие	-9.95064
▁тяжело	-9.95121
▁рек	-9.95125
скоре	-9.9513
▁ответил	-9.95162
СП	-9.95218
▁Facebook	-9.95259
▁обязательно	-9.95259
▁субботу	-9.95259
▁цифр	-9.9526
▁область	-9.95261
▁исследования	-9.95328
олько	-9.95328
▁попросил	-9.95467
▁Ольг	-9.95481
▁33	-9.95575
▁Эти	-9.95591
▁расследования	-9.956
▁ответственность	-9.95714
▁ЦСКА	-9.95847
▁феврале	-9.95847
▁погибших	-9.95848
▁Арави	-9.95848
▁жалоб	-9.95852
▁областно	-9.95871
▁лекарств	-9.96241
▁коммерческ	-9.96242
▁ФСБ	-9.96242
▁неделю	-9.96257
кажет	-9.96267
▁водо	-9.96308
Россия	-9.96384
▁мяч	-9.96407
▁дополнительн	-9.9642
▁стен	-9.9658
▁Москву	-9.96835
▁исход	-9.97003
▁Константин	-9.97034
▁Олимпийск	-9.97035
▁Бело	-9.97094
ad	-9.97159
▁метро	-9.97216
▁помещени	-9.97237
▁Саудовск	-9.97433
▁напомнил	-9.97433
▁оборон	-9.97471
▁Государственн	-9.97633
▁взаимодейств	-9.97633
▁технически	-9.97638
▁занимает	-9.97645
Интер	-9.9774
▁очеред	-9.97801
▁журналистам	-9.97832
▁отдельны	-9.97944
▁подряд	-9.97977
▁обратил	-9.97987
▁пакет	-9.9804
-2016	-9.98122
ключения	-9.98207
тяж	-9.98252
▁бед	-9.98258
▁организаци	-9.98376
▁Валери	-9.98438
▁ранен	-9.98512
▁объединен	-9.98639
▁Куб	-9.98682
▁промышленн	-9.98688
▁получит	-9.98725
▁пассажиров	-9.98744
восток	-9.98769
▁ское	-9.9878
▁Национально	-9.98788
▁авиакомпани	-9.98841
▁артист	-9.98852
▁обвинения	-9.98896
▁мост	-9.99029
Ж	-9.99044
▁обстрел	-9.99051
▁техники	-9.99129
▁поколени	-9.99163
▁покупател	-9.99248
▁мастер	-9.99258
▁Нью	-9.99262
▁нарушение	-9.99333
▁1,5	-9.99487
▁брон	-9.99558
▁связанны	-9.99577
▁Отмечается	-9.99655
▁сентябре	-9.9986
становится	-9.99861
▁Министр	-9.99865
двиг	-9.99873
▁наличи	-9.99885
▁Международн	-9.99906
править	-9.99976
▁использование	-9.99982
▁Бывши	-9.99991
▁Франц	-10.0001
▁аналитик	-10.0006
▁пациент	-10.0006
▁чуть	-10.0008
▁Мал	-10.0012
▁смог	-10.0014
ифика	-10.0028
президент	-10.0032
▁детски	-10.0036
крытия	-10.0037
▁современно	-10.0048
▁Люб	-10.0051
цер	-10.0059
▁соответствующи	-10.0085
▁энерго	-10.0089
▁офис	-10.0091
▁взгляд	-10.011
▁голосования	-10.0115
▁Японии	-10.013
▁бизнесмен	-10.0149
▁вертолет	-10.0151
▁бал	-10.0152
▁беженцев	-10.0172
▁сократил	-10.0173
▁Обама	-10.0177
▁закончи	-10.0177
начально	-10.0181
ut	-10.0196
▁прошло	-10.0202
▁октябре	-10.0214
▁отправил	-10.0214
▁Между	-10.0214
▁ноябре	-10.0214
▁академ	-10.0214
▁бренд	-10.0215
▁трасс	-10.0215
▁водитель	-10.0222
▁ИГ	-10.0224
▁мнение	-10.0226
▁197	-10.0234
▁элемент	-10.0235
▁баррель	-10.0235
▁поддержал	-10.0236
▁решен	-10.0247
ехать	-10.0248
▁властям	-10.0256
▁расчет	-10.0258
▁37	-10.0267
без	-10.0268
пресс	-10.028
▁акт	-10.0297
Краснодар	-10.0304
▁произошл	-10.0306
▁должность	-10.0311
▁договоренност	-10.032
▁матери	-10.0324
▁примерн	-10.0332
елл	-10.0342
▁опрос	-10.035
дик	-10.0355
▁турецки	-10.0361
▁Компани	-10.0361
▁общественны	-10.0362
▁полиция	-10.0363
▁каких	-10.0376
▁единств	-10.0382
▁обеспечит	-10.0383
▁оператор	-10.0386
▁Мне	-10.0404
таж	-10.0411
▁поддержи	-10.0413
▁победител	-10.0414
▁организатор	-10.0425
▁ущерб	-10.0425
▁плохо	-10.0426
▁Каз	-10.0442
▁температур	-10.0447
▁Конечно	-10.0447
▁действова	-10.0447
▁проводил	-10.0452
▁сильны	-10.0453
▁вечер	-10.0459
▁Ирак	-10.0462
▁тест	-10.0473
▁Павл	-10.0477
▁акционер	-10.049
▁девочк	-10.049
▁ислам	-10.049
вшихся	-10.0492
▁расп	-10.0493
▁медицинско	-10.0506
▁Эрдоган	-10.0511
▁окончательн	-10.0511
▁Тим	-10.0517
▁введен	-10.0525
▁генерал	-10.0529
▁современны	-10.0533
▁обязанност	-10.0553
▁оперативно	-10.0553
▁предварительны	-10.0555
▁сообществ	-10.0576
▁фронт	-10.0576
▁звон	-10.0577
▁нужд	-10.0601
▁шести	-10.0604
▁сценари	-10.062
▁Побед	-10.0621
▁перевод	-10.0633
▁Брюссел	-10.0642
▁жителя	-10.0642
;	-10.0643
Урал	-10.0646
▁испытани	-10.0649
▁Потом	-10.0654
▁ГУ	-10.0661
▁Reuters	-10.0663
▁апреле	-10.0663
▁представил	-10.0685
▁достижени	-10.0685
▁поздн	-10.0687
▁гражданин	-10.069
▁дни	-10.0698
▁художник	-10.0707
▁фракци	-10.0708
фил	-10.0716
торг	-10.0724
▁история	-10.0729
▁американц	-10.0729
▁успешно	-10.0729
▁Хилл	-10.073
▁площадь	-10.0751
▁ассоциаци	-10.0774
▁контакт	-10.0774
▁осужден	-10.0774
▁Китая	-10.0774
транс	-10.0775
▁публикаци	-10.0788
▁дух	-10.0792
▁действующи	-10.0798
▁сутки	-10.0798
▁пообещал	-10.0818
▁дальше	-10.0818
▁снег	-10.083
бург	-10.0836
▁металл	-10.0841
▁обвинени	-10.0857
носят	-10.0861
▁события	-10.0863
▁отстав	-10.0873
▁Витали	-10.0886
▁начать	-10.0887
▁каса	-10.0898
▁предложен	-10.0904
▁недавно	-10.0907
▁катастроф	-10.093
▁расходы	-10.093
▁Второ	-10.0941
▁вечером	-10.0945
▁символ	-10.0952
▁принимать	-10.0954
▁Сочи	-10.0956
▁минувш	-10.0961
▁Джа	-10.0963
▁домов	-10.0967
конференци	-10.0968
▁объяснил	-10.0972
▁преимуществ	-10.0975
▁кампании	-10.0975
▁2010	-10.0975
▁допусти	-10.0978
▁извест	-10.0979
▁Ch	-10.0985
▁следствие	-10.0998
культ	-10.1003
пустить	-10.1004
Власти	-10.1015
▁Apple	-10.102
▁будущем	-10.102
▁стадион	-10.102
Это	-10.1026
▁остальны	-10.1027
▁Федерально	-10.103
▁рубеж	-10.1037
▁общества	-10.106
▁администраци	-10.1062
▁Интернет	-10.1066
▁захват	-10.1067
▁портал	-10.1068
▁Вчера	-10.1071
▁веществ	-10.1079
▁относи	-10.1101
▁нашли	-10.1108
▁добычи	-10.1112
▁резерв	-10.1112
▁съем	-10.1113
▁Марк	-10.1117
▁Международно	-10.1129
▁38	-10.113
▁34	-10.1133
▁запланирован	-10.1134
▁механизм	-10.1134
▁существует	-10.1135
▁брос	-10.1156
▁радио	-10.1157
▁балл	-10.1167
▁196	-10.118
▁признак	-10.1181
▁кроме	-10.1181
▁берег	-10.1181
▁проходил	-10.1182
▁убит	-10.1189
▁молодо	-10.1191
▁подписан	-10.1198
▁фактически	-10.1203
▁194	-10.1209
угл	-10.1216
последстви	-10.1218
▁Был	-10.1221
▁хим	-10.1226
▁гуманитарн	-10.1227
▁родственник	-10.1227
▁экипаж	-10.1227
▁предусматрив	-10.1227
▁заметил	-10.1228
▁Красно	-10.123
▁рассказыва	-10.1243
▁ельны	-10.1246
дновременно	-10.125
▁Барак	-10.1252
▁направил	-10.1273
▁предупрежд	-10.1273
▁Эксперт	-10.1273
▁заключа	-10.1273
▁знает	-10.1274
▁получает	-10.1286
▁модели	-10.129
Зенит	-10.1297
▁2008	-10.1297
ающего	-10.1299
▁абсолютно	-10.1315
▁выделен	-10.1317
▁посла	-10.1318
▁помочь	-10.132
▁модель	-10.1321
▁Анкар	-10.1323
▁лев	-10.1328
▁пользова	-10.134
ight	-10.1343
▁слуша	-10.1344
▁традици	-10.1365
▁утвержден	-10.1367
▁Надежд	-10.1367
▁расходов	-10.1367
▁рождения	-10.1368
▁начнет	-10.1368
станут	-10.1373
▁Гер	-10.1375
▁билет	-10.138
ck	-10.1387
▁Кубк	-10.139
▁референдум	-10.139
Йорк	-10.1391
▁провинци	-10.1391
▁лишени	-10.1399
▁внутренне	-10.1414
▁европейско	-10.1414
▁коалици	-10.1415
▁Друг	-10.1419
▁Герман	-10.1426
▁установил	-10.1438
▁Всемирн	-10.1438
▁судебно	-10.1438
▁превыша	-10.144
летел	-10.1448
▁стрел	-10.1452
▁000	-10.1454
▁потенциал	-10.1456
▁супруг	-10.1461
▁вооруженны	-10.1462
!	-10.1464
▁чаще	-10.1464
▁определя	-10.1465
АЗ	-10.1466
▁поселк	-10.1485
Спартак	-10.1485
▁экран	-10.1485
▁десять	-10.1486
▁75	-10.1486
▁надежд	-10.149
▁малы	-10.1503
▁большинств	-10.1504
▁сохраня	-10.1509
будь	-10.1516
▁массово	-10.1519
▁судьб	-10.1524
▁должности	-10.1531
▁Болгарии	-10.1533
▁найден	-10.1542
▁жить	-10.1552
▁корреспондент	-10.1557
▁высот	-10.1557
▁пан	-10.1557
▁Хотя	-10.1558
▁индекс	-10.1581
▁открыв	-10.1588
Павел	-10.1592
▁Правда	-10.1605
▁Сбербанк	-10.1605
▁поправк	-10.1605
▁создания	-10.1607
тесь	-10.161
ектор	-10.1613
and	-10.1622
▁Донецк	-10.1629
▁Гре	-10.165
▁маленьк	-10.1653
▁привлеч	-10.1665
▁защитник	-10.1672
▁контроля	-10.1677
ПК	-10.1697
▁применя	-10.1704
▁знал	-10.171
▁гендиректор	-10.1726
▁неоднократно	-10.1726
▁Многи	-10.1726
▁флот	-10.1727
▁Главны	-10.1727
▁отставку	-10.1738
▁компьютер	-10.175
▁совершил	-10.175
▁потребовал	-10.175
Ведь	-10.176
▁брат	-10.1772
▁Казахстан	-10.1774
▁историю	-10.1774
▁коллектив	-10.1774
▁оборот	-10.1775
▁кажется	-10.1776
Ю	-10.1776
▁утром	-10.178
▁сложи	-10.1785
▁55	-10.1788
▁желез	-10.1796
▁смартфон	-10.1799
▁пенсионер	-10.1799
▁попыта	-10.1799
▁восемь	-10.1799
▁западны	-10.1802
▁числа	-10.1817
▁Перво	-10.1818
▁богат	-10.1824
▁июле	-10.1825
▁Генерал	-10.183
▁коммун	-10.1836
раздо	-10.1845
снаб	-10.1846
бежать	-10.1848
▁ВВП	-10.1848
▁строительств	-10.1851
друг	-10.1861
▁Италии	-10.1873
▁ребят	-10.1873
▁законодател	-10.1875
▁далеко	-10.1875
▁организован	-10.1877
▁компенсаци	-10.1898
▁условий	-10.1898
▁Татьян	-10.1898
▁спортивны	-10.19
▁Главно	-10.19
▁реальны	-10.1912
▁формат	-10.1913
▁Вячеслав	-10.1922
▁Денис	-10.1923
▁спецслужб	-10.1924
МК	-10.1925
▁психолог	-10.1926
▁требова	-10.1937
▁субъект	-10.1947
▁возвращени	-10.1947
▁Московск	-10.1956
▁знак	-10.1967
▁существенно	-10.1969
▁здравоохранени	-10.1972
▁выиграл	-10.1972
▁ворот	-10.1976
▁холод	-10.1979
▁публик	-10.1981
▁Дальн	-10.1982
▁высказыва	-10.199
▁учрежден	-10.1994
▁частны	-10.1994
▁ресторан	-10.1997
▁отказался	-10.1997
▁заявлял	-10.1998
▁приехал	-10.1999
▁Причин	-10.2
▁co	-10.2019
▁использовал	-10.2022
▁борту	-10.2023
▁соответству	-10.2034
▁значительн	-10.2041
▁экспертиз	-10.2047
▁совещани	-10.2047
▁диалог	-10.2048
▁Центрально	-10.2059
▁Эта	-10.206
▁тепло	-10.2064
▁дешев	-10.2074
вращ	-10.2084
▁зависи	-10.209
▁Мед	-10.2092
▁регулярно	-10.2098
прокомментировал	-10.2105
▁инструмент	-10.2123
▁позицию	-10.2123
▁Лиг	-10.2123
▁развитию	-10.2124
▁трети	-10.2131
▁выгод	-10.2146
▁урегулировани	-10.2149
▁прекрасн	-10.2149
▁персонал	-10.2149
▁мировы	-10.2158
▁исполни	-10.217
▁Почему	-10.2174
▁отрасли	-10.2174
▁единственны	-10.2175
▁одежд	-10.2176
▁учреждения	-10.2177
▁продолжают	-10.2181
▁развит	-10.2184
▁душ	-10.2196
▁нужны	-10.22
▁земель	-10.22
▁сенатор	-10.2201
▁рассмотре	-10.2202
казывается	-10.2208
экономическ	-10.2213
▁серии	-10.2219
менеджер	-10.2225
▁воздушно	-10.2225
▁появлени	-10.2231
▁называют	-10.2234
▁вирус	-10.2237
▁распоряжени	-10.2251
▁регистраци	-10.2251
▁устанавлив	-10.2251
▁порядке	-10.2251
▁поврежден	-10.2251
▁друж	-10.2255
▁независимо	-10.2269
▁КНДР	-10.2276
▁медицински	-10.2287
▁Чтоб	-10.2289
▁автомобили	-10.2302
▁мотив	-10.2303
▁Асад	-10.2305
учить	-10.2312
▁пострадавш	-10.2326
▁стоимости	-10.2328
▁окончани	-10.2328
▁сегодняшни	-10.233
▁зарегистрирован	-10.2348
▁стратеги	-10.2353
▁Вечер	-10.2359
▁сильн	-10.2361
▁Вмест	-10.2376
▁Кадыров	-10.238
▁сигнал	-10.238
▁кабинет	-10.238
▁детско	-10.238
▁банкрот	-10.238
▁реакци	-10.2381
▁днем	-10.2382
работать	-10.2384
▁прошедш	-10.2389
▁снижа	-10.241
▁временно	-10.2429
▁400	-10.2432
G	-10.2437
▁ключ	-10.2442
▁верх	-10.2444
▁сожалению	-10.2458
▁посольств	-10.2458
▁установк	-10.2458
▁длин	-10.246
▁бомб	-10.2461
▁личны	-10.2473
▁относительн	-10.2481
Извести	-10.2483
▁подчеркива	-10.2485
▁помощник	-10.2511
▁ядерно	-10.2517
▁активист	-10.2525
▁Ирин	-10.253
▁расширен	-10.2537
близи	-10.254
▁куб	-10.2543
▁санкци	-10.2545
▁предварительно	-10.2564
▁информационно	-10.2564
▁конкретны	-10.2564
▁двое	-10.2564
▁здоровья	-10.2564
▁Без	-10.257
▁изменил	-10.2584
▁отмеча	-10.2586
▁людям	-10.259
▁отметить	-10.259
▁успел	-10.2591
▁собирается	-10.2607
▁неизвестны	-10.2617
▁кодекс	-10.2617
▁протяжени	-10.2617
▁правда	-10.2638
▁полуостров	-10.2643
▁появля	-10.2644
▁подверг	-10.2645
▁Бог	-10.2651
▁сопровожд	-10.267
▁увеличить	-10.267
▁бумаг	-10.267
▁возвраща	-10.2671
▁стрельб	-10.2672
▁научно	-10.2677
▁дожд	-10.269
▁полос	-10.2693
▁аналог	-10.2696
▁имущества	-10.2697
▁соответственно	-10.2697
▁путем	-10.2699
▁облада	-10.27
▁пришли	-10.2708
▁использования	-10.2726
▁замеча	-10.2726
▁езд	-10.2728
▁Джо	-10.2743
▁Основн	-10.2746
▁доказательств	-10.2751
▁путешеств	-10.2751
▁предполагает	-10.2751
▁изображен	-10.2751
▁льгот	-10.2752
▁красно	-10.2762
▁роман	-10.2766
▁степени	-10.2778
▁сохранени	-10.2778
▁корпораци	-10.2778
▁проверя	-10.2784
▁танк	-10.2794
▁Институт	-10.2805
▁зафиксирован	-10.2805
▁инженер	-10.2805
▁Китае	-10.2806
▁Причем	-10.2807
изация	-10.2824
▁церемони	-10.2832
▁ключевы	-10.2833
▁согласован	-10.2844
▁сложности	-10.2848
лизов	-10.2848
▁подобно	-10.2858
▁исполня	-10.2859
▁взросл	-10.2859
▁онлайн	-10.2859
▁лед	-10.2859
▁повлия	-10.286
▁экономике	-10.286
▁организова	-10.2883
▁технологий	-10.2887
▁ориентир	-10.2887
▁2009	-10.2888
▁сериал	-10.2888
▁столично	-10.2891
▁флаг	-10.2905
▁консул	-10.2915
▁позже	-10.2918
▁власть	-10.2919
▁агент	-10.2929
▁переговор	-10.2939
▁Twitter	-10.2942
▁нынешни	-10.2942
▁немного	-10.2943
▁промышленности	-10.2944
▁ведомстве	-10.2953
▁основан	-10.2963
▁входит	-10.2969
▁инвестиций	-10.2969
▁подтвержда	-10.2969
▁зависимости	-10.2969
▁влияние	-10.2969
▁Груз	-10.2971
▁честь	-10.2973
▁правильно	-10.2982
▁июне	-10.2984
▁усилен	-10.3
▁улучш	-10.3018
▁арбитраж	-10.3024
▁обеспечива	-10.3024
▁революци	-10.3025
▁музыкант	-10.3052
▁британско	-10.3052
первых	-10.3053
▁ученые	-10.3053
▁сторонник	-10.3071
▁Турция	-10.308
▁реализова	-10.308
▁делегаци	-10.3081
▁проводят	-10.3083
Авто	-10.3106
▁Литв	-10.3117
▁предоставля	-10.3125
▁включен	-10.3126
▁коллекци	-10.3136
▁событий	-10.3136
▁низки	-10.3137
▁приложени	-10.3139
▁саммит	-10.3139
▁бесед	-10.3157
▁произведен	-10.3162
U	-10.3163
▁дефицит	-10.3164
▁дальне	-10.3165
▁дорожно	-10.3186
▁столько	-10.3194
▁подозрева	-10.3212
L	-10.322
▁трагеди	-10.3221
▁секунд	-10.3221
▁техническо	-10.3221
▁дизайн	-10.3221
▁Кстати	-10.3221
▁трлн	-10.3222
▁Велико	-10.3222
иректор	-10.3223
▁вруч	-10.3225
Известиям	-10.3227
▁Бур	-10.3232
▁правительственн	-10.3246
▁регулятор	-10.3249
▁паспорт	-10.3249
▁аналогичны	-10.325
▁стреми	-10.3254
ционные	-10.3266
▁заинтересован	-10.3271
▁Премьер	-10.3277
▁подозрени	-10.3277
▁Air	-10.3277
Транс	-10.3279
▁Канад	-10.328
▁Анн	-10.3305
▁проголосова	-10.3306
▁московски	-10.3306
▁арестован	-10.3309
▁Фонд	-10.3309
▁миграци	-10.3311
▁ранения	-10.3313
▁избирательно	-10.3314
▁председател	-10.3324
ТАСС	-10.3338
▁технологии	-10.3363
▁усилия	-10.3363
▁городски	-10.3371
▁направлении	-10.3384
▁голосовани	-10.3386
▁приоритет	-10.3392
▁вперед	-10.3393
▁жилья	-10.3393
▁исключительно	-10.3394
▁административно	-10.3421
▁предвыборн	-10.3421
▁мисси	-10.3421
▁широко	-10.3422
ционный	-10.3424
▁восточн	-10.3424
крытие	-10.3426
▁вызов	-10.3426
▁обыск	-10.3435
▁Екатерин	-10.3435
▁зарубежны	-10.3449
▁составлял	-10.3453
▁II	-10.3456
▁Азербайджан	-10.3478
▁Сотрудник	-10.3478
▁понимаю	-10.348
▁банковск	-10.35
право	-10.3507
▁противостоя	-10.3508
▁Леонид	-10.3508
▁турецко	-10.3508
▁советски	-10.3511
▁вовсе	-10.3512
▁научны	-10.353
▁ционн	-10.3536
▁Google	-10.3537
▁говоря	-10.3562
▁Политика	-10.3566
▁давление	-10.3566
▁судебны	-10.3567
▁полученны	-10.357
▁любим	-10.3583
▁Новосибирск	-10.3595
▁Светлан	-10.3595
▁денежны	-10.3595
▁минимальн	-10.3596
▁Депутат	-10.3625
▁Отметим	-10.3625
▁Украину	-10.3625
▁располага	-10.3625
▁нагрузк	-10.3625
▁конституци	-10.3625
▁изменений	-10.3625
▁крушени	-10.3654
▁наказание	-10.3654
▁полагает	-10.3658
счет	-10.3674
▁энергетик	-10.3684
▁порядок	-10.3684
▁парламентари	-10.3693
▁последствия	-10.3694
▁высказал	-10.3696
▁настаива	-10.3697
▁алкоголь	-10.3713
▁заключил	-10.3713
▁исключа	-10.3713
Свобод	-10.3713
▁capt	-10.3713
▁бензин	-10.3713
▁координ	-10.3713
▁редакци	-10.3713
▁ухудш	-10.3713
▁мальчик	-10.3713
▁традиционно	-10.3714
▁газеты	-10.3715
▁масл	-10.3718
▁человеческ	-10.3743
▁увеличив	-10.3744
▁зелен	-10.3745
▁Пресс	-10.3748
▁$3	-10.3749
▁планировал	-10.3766
▁секрет	-10.3767
·	-10.3773
▁устойчив	-10.3773
▁Федор	-10.3774
▁Информационн	-10.3778
▁храни	-10.3781
▁медицин	-10.3797
€	-10.3803
▁субсиди	-10.3803
▁Керри	-10.3803
▁норматив	-10.3803
▁падение	-10.3804
▁определенны	-10.3805
▁страховани	-10.3821
▁советско	-10.3823
▁праймериз	-10.3833
▁эксплуатаци	-10.3833
▁Кирилл	-10.3833
▁Штат	-10.3837
▁колес	-10.384
▁позволил	-10.3863
▁убийство	-10.3863
▁рулем	-10.3864
▁затрат	-10.3866
▁уникальн	-10.3867
▁окруж	-10.3869
▁Валентин	-10.3893
▁гривен	-10.3893
▁митинг	-10.3894
▁Официальн	-10.3924
▁столкновени	-10.3924
▁аудитор	-10.3924
▁памяти	-10.3924
▁позиция	-10.3924
▁поставил	-10.3924
▁увидел	-10.3924
▁спортивно	-10.3926
▁исторически	-10.3954
▁грузовик	-10.3954
▁писател	-10.3956
купить	-10.3961
ифиц	-10.3966
▁Экс	-10.3975
▁сегмент	-10.3984
ведомств	-10.4007
'	-10.4015
▁литератур	-10.4015
▁опроверг	-10.4015
▁ЦИК	-10.4015
▁сообщают	-10.4015
▁Работ	-10.402
▁популярны	-10.4026
▁командир	-10.4036
▁страд	-10.404
▁электронны	-10.4044
▁гражданско	-10.4046
▁пропаганд	-10.4046
▁доброволь	-10.4046
▁$2	-10.4056
▁отдельно	-10.4059
Екатеринбург	-10.4061
▁холдинг	-10.4077
▁итальянск	-10.4077
▁стратегически	-10.4078
▁массовы	-10.4092
▁миллион	-10.4103
▁ребенок	-10.4107
▁бюро	-10.4108
▁агентств	-10.4108
▁приведе	-10.4117
▁отзыв	-10.4125
производителей	-10.4125
WADA	-10.4138
▁Комитет	-10.4138
▁падения	-10.414
▁шоу	-10.4149
▁Американск	-10.4165
▁претензи	-10.4169
▁Наталья	-10.4169
▁Бразили	-10.4169
▁операция	-10.4171
▁пострадавших	-10.4172
th	-10.4186
▁КПРФ	-10.4201
▁полномочия	-10.4201
▁Следственно	-10.4201
▁платформ	-10.4201
▁следственно	-10.4201
▁произошедше	-10.4201
▁Вадим	-10.4201
▁нефте	-10.4208
▁конференции	-10.421
▁основател	-10.421
▁обновлен	-10.422
▁энерги	-10.4232
▁агресси	-10.4232
▁чтени	-10.4244
▁Анатоли	-10.4263
▁сохранить	-10.4263
▁хочу	-10.4264
▁трат	-10.4295
▁сельско	-10.4297
▁ведомство	-10.4304
▁представит	-10.4308
▁школьник	-10.4319
▁исключи	-10.4321
▁китайско	-10.4326
▁перемири	-10.4327
▁концу	-10.4327
▁земли	-10.4327
▁почт	-10.4344
▁Возможно	-10.4358
▁осуществлен	-10.4358
▁аварии	-10.4358
▁жизне	-10.4358
▁ограничения	-10.4366
▁поездк	-10.4371
▁обслуживани	-10.439
▁инвалид	-10.439
▁аварий	-10.439
▁опасны	-10.4397
кажут	-10.4401
▁получив	-10.4413
▁труб	-10.4419
▁болельщик	-10.4421
▁ВТБ	-10.4422
▁Господи	-10.4423
класс	-10.4426
▁военн	-10.4428
▁мозг	-10.4428
▁прокат	-10.4436
▁Европейско	-10.4445
▁поможет	-10.4453
▁колонии	-10.4453
▁действующе	-10.4454
▁сыграл	-10.4454
▁страшн	-10.4489
&	-10.4518
▁угрожа	-10.4518
▁многочисленны	-10.4518
▁пласт	-10.4522
▁Одесс	-10.4524
▁путь	-10.4526
▁снял	-10.4527
▁Ro	-10.4531
▁присутстви	-10.455
▁эксперимент	-10.455
Групп	-10.455
▁выручк	-10.4551
Новости	-10.4559
▁продлен	-10.4572
▁Узбекистан	-10.4582
▁ожидани	-10.4582
▁нарушений	-10.4582
▁проезд	-10.4583
▁храм	-10.4584
меть	-10.4584
▁авиации	-10.4591
▁равн	-10.4598
▁ГИБДД	-10.4615
▁огонь	-10.4615
▁спутник	-10.4616
▁использован	-10.4626
▁танц	-10.4639
плач	-10.4646
▁поставщик	-10.4647
▁Ярослав	-10.4647
▁оборудования	-10.4648
озле	-10.4648
▁решений	-10.4652
▁Re	-10.4658
▁Кажд	-10.4665
▁Сообщается	-10.468
▁причастност	-10.468
▁подростк	-10.468
▁родителей	-10.468
▁единиц	-10.468
▁приватизаци	-10.468
▁Артем	-10.4681
▁выяснилось	-10.4682
экономика	-10.4684
▁Чере	-10.4707
▁Кузнецов	-10.4713
▁Улюкаев	-10.4713
▁выезд	-10.4713
▁хранени	-10.4714
Лучш	-10.472
▁электронно	-10.4721
▁Федеральн	-10.4731
▁пищ	-10.4732
▁подтвержден	-10.4746
▁столкну	-10.4746
▁важн	-10.4778
▁Кремля	-10.4812
▁защища	-10.4812
▁ждет	-10.4812
▁$4	-10.4812
▁госпож	-10.4812
▁обязан	-10.4815
▁иначе	-10.482
pyr	-10.4845
▁опрошенны	-10.4845
▁письмо	-10.4845
▁закупк	-10.4845
▁укреплени	-10.4846
▁фикс	-10.4846
▁французско	-10.4846
▁Полици	-10.4854
бирать	-10.4862
тоимость	-10.4878
▁вспомина	-10.4878
▁инфляции	-10.4878
▁компанией	-10.4878
▁направля	-10.4878
▁безопасность	-10.4878
▁случаях	-10.4878
▁соверша	-10.4878
▁Автор	-10.4883
▁собственник	-10.4896
Z	-10.4912
Жанейро	-10.4912
▁соревнования	-10.4912
▁розыск	-10.4912
▁коммуникаци	-10.4915
▁заболевания	-10.4945
▁полицейские	-10.4945
▁скончался	-10.4945
▁гибели	-10.4945
▁динамик	-10.4946
▁земле	-10.4946
▁домашни	-10.4946
▁полицию	-10.4947
▁напоминает	-10.4949
▁Волгоград	-10.4979
Золот	-10.498
▁актрис	-10.498
2016	-10.4983
Щ	-10.5013
▁преврати	-10.5013
▁непосредственно	-10.5013
▁климат	-10.5013
▁встретил	-10.5013
▁называемы	-10.5041
▁акция	-10.5048
▁туризм	-10.5054
▁рекомендова	-10.5081
▁солдат	-10.5081
▁очков	-10.5085
▁организм	-10.5087
люб	-10.5089
▁исчез	-10.5115
▁низко	-10.5119
▁оборудование	-10.512
▁необходим	-10.5122
▁справи	-10.5126
▁означает	-10.5149
▁экстремист	-10.5149
▁мобильны	-10.5149
▁обсудил	-10.515
▁итоги	-10.5152
Русск	-10.5172
▁Председател	-10.5183
▁резолюци	-10.5183
▁водителя	-10.5183
▁хищени	-10.5183
▁легенд	-10.5184
Коммерсант	-10.5218
▁ОПЕК	-10.5218
▁административны	-10.5218
▁ветеран	-10.5218
▁изучени	-10.5219
▁отстранен	-10.5224
▁крыш	-10.5225
▁показать	-10.5238
▁достигнут	-10.5252
▁Белоруссии	-10.5252
▁$5	-10.5253
▁бесплатно	-10.5253
▁узнал	-10.5253
▁собак	-10.5268
▁буквально	-10.5287
Ленинград	-10.5287
▁офицер	-10.5287
▁незаконны	-10.5287
▁ВВС	-10.5288
▁сомнени	-10.5289
▁выбира	-10.5305
▁Новгород	-10.5322
▁комплект	-10.5322
▁юрист	-10.5322
кредит	-10.5327
▁испан	-10.533
▁звани	-10.5349
▁наблюдени	-10.5357
▁преодоле	-10.5357
▁происходя	-10.5366
▁привлечени	-10.5375
▁скрыв	-10.5389
▁муниципальны	-10.5392
▁отправля	-10.5392
▁покинул	-10.5393
▁завтра	-10.5394
▁взнос	-10.5395
жесточ	-10.5397
▁охот	-10.54
▁заявк	-10.5406
▁месторождени	-10.5427
▁альтернатив	-10.5427
▁корпус	-10.5427
▁посадк	-10.5428
могло	-10.5439
▁велико	-10.5442
▁свидетел	-10.5462
▁Group	-10.5463
▁Соединенны	-10.5463
▁управляющи	-10.5467
идеть	-10.5474
[	-10.5498
▁Некоторы	-10.5498
▁полицейских	-10.5498
▁профессор	-10.5498
▁бороться	-10.5498
▁аукцион	-10.5498
▁подключ	-10.5523
энергетическ	-10.5534
°	-10.5534
▁очевидно	-10.5534
▁Восточно	-10.5534
▁посетител	-10.5536
Кавказ	-10.5541
ничеств	-10.5566
Воронеж	-10.557
▁герои	-10.557
H	-10.5573
]	-10.5605
▁Георги	-10.5605
▁ходатайств	-10.5605
▁обстановк	-10.5605
▁бирже	-10.5605
▁баланс	-10.5605
▁население	-10.5606
консерв	-10.5606
▁обратно	-10.5608
▁здоровье	-10.5611
▁Чита	-10.5611
▁футбольно	-10.5623
▁действуе	-10.5629
▁добро	-10.564
▁мошенничеств	-10.5641
▁недвижимости	-10.5641
▁рекомендаци	-10.5641
▁внимания	-10.5641
▁Решение	-10.5641
▁News	-10.5643
▁существовани	-10.5646
▁выдач	-10.5648
▁желающи	-10.565
▁добавля	-10.5677
▁грипп	-10.5677
▁разрушен	-10.5678
▁актуальн	-10.5679
▁выраст	-10.5686
▁имущество	-10.5713
▁полномочий	-10.5713
▁соревнований	-10.5713
▁Европу	-10.5714
▁патриот	-10.575
▁соблюдени	-10.575
▁компанию	-10.575
▁теннис	-10.575
▁дистанц	-10.5784
гляд	-10.5786
▁стабильн	-10.5786
Q	-10.5786
▁убежден	-10.5786
▁хозяев	-10.5786
▁оформлен	-10.5787
▁растет	-10.579
▁меша	-10.5796
▁Меркель	-10.5823
▁поставлен	-10.5823
▁акциз	-10.5823
▁комфорт	-10.5823
▁исправ	-10.5826
▁профессиональны	-10.5827
▁частно	-10.5854
▁Татарстан	-10.586
▁изъят	-10.586
▁встретит	-10.586
▁of	-10.5861
▁Луганск	-10.5861
▁военнослужащих	-10.5862
▁Учены	-10.5871
▁предоставит	-10.5875
сотни	-10.5882
▁склад	-10.5888
▁воспользова	-10.5897
▁увидеть	-10.5897
▁связь	-10.5899
▁премии	-10.5902
▁финанс	-10.5915
▁автомобиле	-10.5922
▁работающи	-10.5922
▁график	-10.5934
▁заявлении	-10.5934
▁восьми	-10.5937
▁Греции	-10.5937
▁оценил	-10.5938
▁шахт	-10.594
▁поднял	-10.5945
▁удач	-10.5947
W	-10.5948
▁неизвестно	-10.5971
▁тенденци	-10.5971
Звезд	-10.5971
▁альянс	-10.5971
▁немецко	-10.5971
▁сюжет	-10.5971
▁цикл	-10.5972
▁ждать	-10.5973
▁профессионально	-10.5976
▁Челябинск	-10.6008
▁педагог	-10.6008
▁подготовлен	-10.6008
▁публично	-10.6008
▁реконструкци	-10.6008
▁фестиваля	-10.6008
▁устроил	-10.6008
▁занимать	-10.6011
▁дискусси	-10.6046
▁неожиданно	-10.6046
▁РАН	-10.6046
Динамо	-10.6047
▁друзья	-10.6083
▁постепенно	-10.6083
▁Люди	-10.6083
▁останется	-10.6084
▁атлет	-10.6087
▁поднят	-10.6112
▁кроссовер	-10.6121
▁Васильев	-10.6121
▁регулировани	-10.6121
▁мусор	-10.6121
▁поднима	-10.6123
▁вагон	-10.6125
▁транспортны	-10.6129
праве	-10.6134
Локомотив	-10.6159
▁хватает	-10.6159
▁версия	-10.6159
▁комментиру	-10.6159
▁понимани	-10.6159
▁смеш	-10.6162
▁истребител	-10.6197
▁недостаточно	-10.6197
▁Конституци	-10.6197
▁проспект	-10.6197
▁профессионал	-10.6204
▁благодар	-10.6211
▁прямы	-10.6235
▁преступник	-10.6236
▁ждут	-10.6237
▁перевозк	-10.6239
Москва	-10.6259
▁написан	-10.6272
▁знаменито	-10.6273
▁Обамы	-10.6277
,4%	-10.6277
▁гимн	-10.628
▁справедливо	-10.6312
▁Центробанк	-10.6312
▁Кремле	-10.6312
▁получают	-10.6312
▁отказыва	-10.6323
▁набрал	-10.6324
оперативн	-10.6342
▁присутствова	-10.635
квалифицирова	-10.635
▁поручени	-10.6351
▁детям	-10.6351
▁туристическ	-10.6354
▁школьн	-10.638
▁ясно	-10.6381
▁производит	-10.6388
▁ИГИЛ	-10.6389
▁космическо	-10.6389
▁немецки	-10.6389
▁ww	-10.6389
▁размести	-10.639
▁доктор	-10.639
▁улучшени	-10.64
▁нужна	-10.6428
▁следственны	-10.6428
▁поверхност	-10.6439
▁явно	-10.6445
▁англ	-10.6453
Башнефт	-10.6467
▁iPhone	-10.6467
▁Австрали	-10.6467
▁землетрясени	-10.6467
▁сотруднича	-10.6467
▁атмосфер	-10.6467
▁память	-10.6467
▁сократить	-10.6467
▁Англи	-10.6467
▁решению	-10.6469
▁традиционны	-10.6469
▁контроле	-10.6469
ведении	-10.6476
▁реестр	-10.6484
▁новостей	-10.6507
▁Мутко	-10.6507
▁курорт	-10.6507
▁итогов	-10.6508
▁просит	-10.6526
логическ	-10.6526
▁новогодн	-10.6533
▁доставлен	-10.6546
▁бригад	-10.6546
▁оправда	-10.6546
▁Красноярск	-10.6546
▁коррект	-10.6546
▁Швеци	-10.6546
▁океан	-10.6548
▁продолжени	-10.6548
▁срочн	-10.6572
▁стоял	-10.6579
▁проведе	-10.6579
▁будущего	-10.6585
▁начнут	-10.6585
▁комнат	-10.6587
▁Последни	-10.6591
▁крест	-10.6593
▁преступно	-10.6597
▁боево	-10.6621
▁людьми	-10.6625
▁украинц	-10.6625
▁настолько	-10.6625
▁питания	-10.6625
▁повестк	-10.6625
▁эпох	-10.6626
▁гостей	-10.6627
▁транспортно	-10.6633
▁титул	-10.6633
▁француз	-10.6648
▁Захарова	-10.6665
▁одобрил	-10.6665
▁пешеход	-10.6665
▁Может	-10.6666
Олимп	-10.6668
▁отметк	-10.6669
▁приезжа	-10.6675
Y	-10.6682
▁народны	-10.6685
▁возбудил	-10.6705
▁ликвидаци	-10.6705
▁посмотреть	-10.6705
▁талант	-10.6705
▁употреблени	-10.6706
ive	-10.6715
▁выступит	-10.6739
инэкономразвития	-10.6745
продемонстрирова	-10.6745
▁Times	-10.6745
▁конструкци	-10.6745
▁претендент	-10.6745
▁потерпев	-10.6746
▁военнослужащ	-10.6783
▁Участник	-10.6785
прямую	-10.6785
▁противоречи	-10.6785
▁звук	-10.6786
▁столичны	-10.6798
казывал	-10.6805
▁народно	-10.6815
▁дисциплин	-10.6826
▁Дагестан	-10.6826
▁воздейств	-10.6826
▁поставок	-10.6826
▁розничн	-10.6826
▁прогресс	-10.6826
▁немало	-10.6827
▁определить	-10.6827
▁прекратит	-10.6829
▁элит	-10.6831
▁крупнейш	-10.6837
▁корпоратив	-10.6866
▁пресечения	-10.6866
▁эпизод	-10.6866
▁наоборот	-10.6866
▁операций	-10.6866
▁Нижне	-10.6866
▁королев	-10.6866
▁операцию	-10.6867
▁четко	-10.6867
▁окружающ	-10.6899
▁Нидерланд	-10.6907
▁молодежи	-10.6907
▁участок	-10.6907
▁сумел	-10.6908
▁Одна	-10.6943
▁Афганистан	-10.6948
▁перевозчик	-10.6948
▁уполномочен	-10.6948
Южн	-10.6957
полковник	-10.6959
▁французски	-10.6964
▁способност	-10.6985
▁историческо	-10.6989
▁оснащен	-10.6989
▁письме	-10.699
▁одобрен	-10.699
▁детьми	-10.699
▁избирательны	-10.7
▁украинск	-10.7007
▁Владивосток	-10.7031
▁москвич	-10.7031
▁Общество	-10.7031
▁Жител	-10.7037
Национальн	-10.7042
▁созыв	-10.705
▁тяну	-10.7053
▁удастся	-10.7072
▁посеща	-10.7072
▁протокол	-10.7073
▁выделя	-10.7076
▁удовлетвори	-10.7114
▁будущее	-10.7114
▁противодействи	-10.7114
▁приглашен	-10.7114
▁ученых	-10.7116
▁эколог	-10.7142
▁полицейско	-10.7156
▁поддерживает	-10.7156
ключить	-10.7161
▁кредитовани	-10.717
▁благотворительн	-10.7198
▁ликвидирова	-10.7198
▁Чечни	-10.7198
▁мониторинг	-10.724
▁топлива	-10.724
▁ослаб	-10.724
▁дневн	-10.7263
бросил	-10.7266
▁Агентств	-10.7282
▁здании	-10.7282
ходящих	-10.7314
▁выяснил	-10.7323
▁предыдуще	-10.7325
▁удовлетворен	-10.7325
▁церкви	-10.7325
▁быстрее	-10.7325
▁посетил	-10.7325
▁юбиле	-10.7326
▁способствова	-10.7327
▁должностны	-10.7332
▁Геннади	-10.7368
▁Олимпиаде	-10.7368
▁чуж	-10.7379
▁строить	-10.738
▁ученик	-10.7385
▁американск	-10.7386
Дону	-10.7392
чальник	-10.7395
ставят	-10.7397
▁Генпрокуратур	-10.741
▁регламент	-10.741
▁Мужчин	-10.741
▁письма	-10.7411
▁признать	-10.7411
▁Проект	-10.7411
▁жестко	-10.7415
▁ужас	-10.7417
▁называемо	-10.7433
режде	-10.7435
▁соответствующе	-10.7442
▁ежедневн	-10.7454
▁текущи	-10.7454
▁телевидени	-10.7454
▁полагают	-10.7455
▁Благодар	-10.7497
▁злоумышленник	-10.7497
▁мусульман	-10.7497
▁персонаж	-10.7497
▁предъявлен	-10.7497
▁чрезвычайно	-10.7497
▁смотреть	-10.7497
▁таможенн	-10.7497
▁непрост	-10.7514
▁професси	-10.7522
▁Соответствующ	-10.754
▁деревн	-10.7542
коммунальн	-10.7574
▁баррелей	-10.7584
▁возглавил	-10.7584
▁предназначен	-10.7584
▁прозрачн	-10.7584
▁хакер	-10.7584
▁криминал	-10.7585
▁неудач	-10.7585
▁исследовател	-10.7597
▁апелляци	-10.7628
▁ЖКХ	-10.7628
▁адапт	-10.7628
▁Индии	-10.7629
▁рыночн	-10.7629
▁заверил	-10.7635
▁Вооруженны	-10.7672
▁бюджетны	-10.7672
▁Польши	-10.7672
▁полгода	-10.7673
▁концепци	-10.7675
▁серьезн	-10.7684
▁Ассоциаци	-10.7716
▁ситуацией	-10.7716
▁электроэнерги	-10.7716
▁негативно	-10.7716
▁СНГ	-10.7716
▁нефтяно	-10.7717
▁читател	-10.7717
▁заметно	-10.7719
▁Общественн	-10.7761
▁домашне	-10.7761
▁показывает	-10.7761
▁владельца	-10.7761
▁содержит	-10.7767
становят	-10.779
▁Ближне	-10.7805
▁продолжил	-10.7805
▁пенсии	-10.7805
▁наказания	-10.7806
▁певиц	-10.7806
▁инвестиционно	-10.785
▁Филипп	-10.785
▁вмешательств	-10.785
▁модернизаци	-10.785
▁поединк	-10.7851
▁приходил	-10.7858
Справедлив	-10.7895
▁Калининград	-10.7895
▁градусов	-10.7895
▁обознач	-10.7895
▁подорожа	-10.7895
▁переворот	-10.7895
▁музея	-10.7895
▁Хорош	-10.7895
▁запреща	-10.7898
▁строительны	-10.79
▁the	-10.7901
▁иностранн	-10.7904
▁Нужн	-10.7906
▁мощны	-10.7908
Почт	-10.7915
▁строител	-10.7924
▁напомин	-10.7936
▁2019	-10.794
▁полугоди	-10.7941
▁выпустил	-10.7941
нцидент	-10.7978
▁Ростовско	-10.7982
▁объедини	-10.7986
▁Египта	-10.7986
▁подготовил	-10.7986
▁Австри	-10.7986
▁Королев	-10.7986
▁МОК	-10.7986
▁поддерживать	-10.7986
▁филиал	-10.7986
▁раунд	-10.7986
▁экономику	-10.7987
▁едины	-10.8014
▁ЛДПР	-10.8032
▁лицензии	-10.8032
▁инфекци	-10.8032
▁расстояни	-10.8032
▁соблюда	-10.8032
▁товарищ	-10.8044
▁удиви	-10.8053
▁демократическ	-10.8057
▁предполагаем	-10.8077
▁Испании	-10.8077
▁КНР	-10.8078
Тульской	-10.8078
▁патрул	-10.8081
оставлять	-10.809
▁обладател	-10.8105
▁превысил	-10.8123
▁конкретно	-10.8123
▁участвую	-10.8125
▁мобильно	-10.8125
▁Известно	-10.817
▁альбом	-10.817
▁спирт	-10.817
▁студи	-10.8171
▁ядерны	-10.8177
▁антидопингово	-10.8216
▁Америки	-10.8216
▁костюм	-10.8216
▁лайнер	-10.8216
▁задолженности	-10.8216
▁либерал	-10.8238
▁Экономика	-10.8263
▁индустри	-10.8263
▁разрабатыва	-10.8263
▁Большинств	-10.8264
▁шайб	-10.8268
▁лаборатори	-10.831
▁осенью	-10.831
▁Яценюк	-10.831
▁фамили	-10.8311
j	-10.8357
▁продукцию	-10.8357
▁сокраща	-10.8357
▁управлении	-10.8357
▁Ставропол	-10.8357
▁контролирова	-10.8358
▁остановк	-10.8361
Открыт	-10.8403
▁глобально	-10.8405
▁офшор	-10.8405
▁похорон	-10.8405
Турецк	-10.8405
▁Армении	-10.8405
▁выбрал	-10.8408
▁счастлив	-10.8452
▁Пентагон	-10.8452
▁Саакашвили	-10.8452
▁содействи	-10.8452
▁заранее	-10.8453
▁Дамаск	-10.8453
▁потребует	-10.8454
▁строительно	-10.8458
▁возмож	-10.8467
Право	-10.8477
▁продлит	-10.849
▁Олимпиады	-10.85
▁успешны	-10.85
▁отрицательн	-10.85
▁Бизнес	-10.85
▁политолог	-10.85
▁признает	-10.85
K	-10.8505
▁численност	-10.8539
▁артиллери	-10.8548
▁интеллект	-10.8548
▁транзит	-10.8548
▁Африк	-10.8548
▁беременн	-10.8549
▁музей	-10.8549
спасательн	-10.8553
предпринимателей	-10.8572
▁распространя	-10.8572
▁Следственны	-10.8596
▁информацией	-10.8596
▁испытыва	-10.8596
▁провокаци	-10.8597
▁Числ	-10.8598
▁объясни	-10.8603
▁Следствие	-10.8645
▁соцсети	-10.8645
▁событие	-10.8645
▁сохранил	-10.8645
▁Особенно	-10.8645
▁привез	-10.8645
владельцев	-10.8645
▁хотим	-10.8646
▁одержал	-10.8648
▁птиц	-10.8652
▁парковк	-10.867
▁заканчива	-10.8694
▁потребност	-10.8729
▁президентски	-10.874
▁килограмм	-10.8743
▁пенсионны	-10.8743
▁продюсер	-10.8743
Яндекс	-10.8743
▁портфел	-10.8743
▁выполнит	-10.8743
▁орбит	-10.8743
▁Британск	-10.8743
▁комментирова	-10.8744
рвать	-10.8759
▁отправлен	-10.8779
▁технология	-10.8792
▁фестиваль	-10.8792
▁произойдет	-10.8792
▁грамот	-10.8792
▁Роберт	-10.8792
▁Специалист	-10.8841
▁Турцией	-10.8841
▁библиотек	-10.8841
▁горожан	-10.8841
▁заработал	-10.8841
▁ощущени	-10.8841
▁редактор	-10.8841
▁Степан	-10.8841
▁поклонник	-10.8841
сторонне	-10.8859
▁подробност	-10.8887
▁атомн	-10.8891
▁оппонент	-10.8891
▁патриарх	-10.8891
▁уменьши	-10.8891
Газете	-10.8891
▁коллектор	-10.8891
▁воздушны	-10.8891
▁капитан	-10.8891
port	-10.8892
▁удален	-10.8915
▁Еврокомисси	-10.8941
▁Норвеги	-10.8941
▁деклараци	-10.8941
▁поясняет	-10.8941
▁Женщин	-10.8941
▁националист	-10.8941
▁ФРГ	-10.8941
▁оригинал	-10.8942
▁силовик	-10.8943
▁обжалова	-10.8945
▁футбольны	-10.8956
▁РЖД	-10.8991
▁боксер	-10.8992
▁квалификаци	-10.8992
▁возврат	-10.8992
▁проверить	-10.8992
▁Америка	-10.8999
▁Результат	-10.9042
▁добычу	-10.9042
▁построить	-10.9042
▁уважени	-10.9042
▁Поздн	-10.9042
▁земля	-10.9042
▁потенциальны	-10.9053
▁обсудит	-10.9054
▁областн	-10.9088
кладывает	-10.9089
▁ОБСЕ	-10.9093
▁космодром	-10.9093
▁правозащитн	-10.9093
▁бомбардировщик	-10.9093
▁Документ	-10.9093
▁остановил	-10.9095
▁Yo	-10.9121
кончил	-10.9122
▁правонарушени	-10.9144
▁праздничн	-10.9144
Барселон	-10.9144
▁Матвиенко	-10.9144
▁немедленно	-10.9144
▁сердце	-10.9144
▁гигант	-10.9144
▁вдвое	-10.9144
▁сырье	-10.9145
▁важнейш	-10.9146
▁Григори	-10.9195
▁консультаци	-10.9195
▁Пальмир	-10.9195
▁вокзал	-10.9195
▁преподавател	-10.9247
▁швейцар	-10.9247
▁христиан	-10.9247
▁эвакуирова	-10.9247
▁шоссе	-10.9247
▁изготовлен	-10.9247
▁Ангел	-10.9247
▁английско	-10.9247
Народн	-10.9257
▁Венесуэл	-10.9298
▁Украиной	-10.9298
▁отвечает	-10.9298
▁пенсионно	-10.9298
▁напряженн	-10.9298
▁Дэвид	-10.9298
▁сегодняшне	-10.9299
▁дежур	-10.9299
▁гранат	-10.93
▁первенств	-10.93
▁Севастополя	-10.935
▁безусловно	-10.935
▁обязательны	-10.935
▁ограничив	-10.9351
▁сказано	-10.9351
▁Мосул	-10.9351
▁Башар	-10.9352
▁Mercedes	-10.9403
▁Бельгии	-10.9403
▁Молдави	-10.9403
▁разбирательств	-10.9403
▁ссыла	-10.9403
▁экологическ	-10.942
террористическ	-10.9443
▁Губернатор	-10.9455
▁Руководител	-10.9455
▁увольнени	-10.9455
▁преследовани	-10.9455
Деньги	-10.9456
сматрива	-10.9504
▁содержат	-10.9506
▁Роспотребнадзор	-10.9508
▁выясня	-10.9508
▁творчеств	-10.9508
▁осозна	-10.9508
▁обоснован	-10.951
▁разверну	-10.9512
азумеется	-10.9512
▁замедл	-10.9517
▁предупредил	-10.9562
▁Отечественн	-10.9562
▁критери	-10.9562
▁наращива	-10.9562
▁героя	-10.9562
▁посетит	-10.9567
▁международн	-10.9602
▁WSJ	-10.9615
▁Адвокат	-10.9615
▁биатлон	-10.9615
▁пистолет	-10.9615
▁отметив	-10.9615
▁Команд	-10.9616
▁Приморск	-10.9616
▁номинаци	-10.9616
▁Европейски	-10.9628
▁Латвии	-10.9669
▁Свердловск	-10.9669
▁Стамбул	-10.9669
▁задействован	-10.9669
▁узнать	-10.9669
▁корабля	-10.9669
▁Уголовно	-10.9669
▁упомина	-10.9669
▁приближ	-10.9669
▁корабле	-10.967
▁честно	-10.9679
Оскар	-10.9715
▁собственн	-10.9715
▁злоупотреблени	-10.9723
▁магнит	-10.9723
▁конгресс	-10.9723
▁Встреча	-10.9723
▁заложник	-10.9723
▁зданий	-10.9723
▁отвечаю	-10.9725
▁концерн	-10.9728
▁скромн	-10.9734
▁Boeing	-10.9777
▁музыкальны	-10.9777
▁Михайлов	-10.9777
▁архитектур	-10.9777
▁интеграци	-10.9777
▁форвард	-10.9777
▁Джордж	-10.9777
▁рассчитывает	-10.9777
▁инстанци	-10.9777
▁доставк	-10.9778
▁правоохранител	-10.9807
▁Bloomberg	-10.9832
▁Америке	-10.9832
▁заболеваний	-10.9832
▁космос	-10.9832
▁гектар	-10.9832
Ведомост	-10.9832
▁волонтер	-10.9832
▁рожден	-10.9833
ооружения	-10.9868
▁связыва	-10.9876
▁упомяну	-10.9887
‐	-10.9887
▁ожидаем	-10.9887
▁Регион	-10.9887
▁МВФ	-10.9887
▁портрет	-10.9887
▁пограничн	-10.9887
▁стабильност	-10.9887
ающую	-10.9914
Аэрофлот	-10.9942
▁СИЗО	-10.9942
▁предоставил	-10.9942
▁утвердил	-10.9942
▁Станислав	-10.9942
▁работодател	-10.9942
▁дивизи	-10.9942
▁жилищно	-10.9942
▁придержива	-10.9942
▁трансляци	-10.9943
▁музее	-10.9943
▁распределен	-10.9965
▁Тверск	-10.9973
▁Янукович	-10.9998
▁присутству	-10.9998
▁Хабаровск	-10.9998
▁понимать	-10.9998
▁Аркади	-10.9998
▁похищен	-10.9998
▁расстрел	-10.9999
▁усилит	-11.0006
▁BMW	-11.0053
▁максимум	-11.0053
▁музыкально	-11.0053
▁побережь	-11.0053
▁тюрьмы	-11.0053
▁Граждан	-11.0054
▁Футбол	-11.0054
▁госпитал	-11.0054
▁заработн	-11.0054
▁фанат	-11.0054
▁реагирова	-11.0055
▁продвижени	-11.0055
▁Всероссийск	-11.0078
▁Памфилов	-11.011
▁инспектор	-11.011
▁смягч	-11.011
▁фрукт	-11.011
▁рассчитан	-11.011
▁обыграл	-11.011
▁сомнева	-11.011
▁откровен	-11.0111
исследовательск	-11.015
▁YouTube	-11.0166
▁недвижимость	-11.0166
▁заморозк	-11.0166
▁позиций	-11.0166
▁Смоленск	-11.0166
▁сердца	-11.0166
▁мандат	-11.0166
▁пребывани	-11.0167
▁скидк	-11.0169
▁японско	-11.017
Манчестер	-11.0223
▁Анастаси	-11.0223
▁досрочно	-11.0223
▁происхождени	-11.0223
▁переработк	-11.0223
▁взыскани	-11.0223
▁пространства	-11.0223
▁доставил	-11.0223
▁понимает	-11.0223
▁любител	-11.0228
▁Москвой	-11.028
▁предпочита	-11.028
▁параметр	-11.028
▁денежно	-11.028
▁посещени	-11.028
▁Минэкономики	-11.0338
▁востребован	-11.0338
▁терминал	-11.0338
▁подробн	-11.0353
▁Управлени	-11.0363
▁бомбардир	-11.0395
>	-11.0395
і	-11.0395
▁аргумент	-11.0395
▁застройщик	-11.0395
▁разработчик	-11.0395
▁друзей	-11.0395
▁единоросс	-11.0395
▁авиаудар	-11.0395
▁Мексик	-11.0396
закупок	-11.0396
▁топливо	-11.0396
▁блюд	-11.0396
▁закрыл	-11.0402
▁поблагодари	-11.0454
▁приостановлен	-11.0454
▁Сирийск	-11.0454
▁полуфинал	-11.0459
▁Истори	-11.0489
Красн	-11.0494
-154	-11.0512
▁муниципалитет	-11.0512
▁разобраться	-11.0512
▁нефтегаз	-11.0512
▁распространи	-11.0512
покупать	-11.0512
ысокопоставленны	-11.0571
▁алкоголя	-11.0571
▁дивиденд	-11.0571
▁презентаци	-11.0571
▁экзамен	-11.0571
▁пишут	-11.0571
▁торжественн	-11.0571
▁содержащ	-11.0571
тягив	-11.0574
▁признав	-11.0579
▁центральны	-11.0579
▁госпитализирова	-11.0595
▁подтверди	-11.0604
АвтоВАЗ	-11.063
―	-11.063
▁Людмил	-11.063
▁агрегат	-11.063
▁батальон	-11.063
▁естественно	-11.063
▁болезни	-11.063
▁Пушкин	-11.063
▁Заместител	-11.063
▁Свято	-11.0631
▁индивидуальны	-11.069
▁интенсивн	-11.069
▁конкуренции	-11.069
▁сельхоз	-11.069
▁удержива	-11.0701
удивительно	-11.0724
▁Информаци	-11.074
▁родителям	-11.0749
▁рынки	-11.0749
▁седьмо	-11.0749
▁рассчитывать	-11.0749
правлению	-11.0776
▁испыта	-11.079
▁социальн	-11.0794
▁расширя	-11.081
▁двигателя	-11.081
▁убийц	-11.081
▁маневр	-11.081
▁выявил	-11.081
▁крымски	-11.081
▁стратегическо	-11.0811
▁очн	-11.0861
▁квадратны	-11.087
▁объединя	-11.087
▁соцсетях	-11.087
▁разрешит	-11.0871
▁физик	-11.0871
▁нарушител	-11.0929
▁осложн	-11.0931
нфляция	-11.0931
▁Подмосковье	-11.0931
▁Швейцарии	-11.0931
▁демонстриру	-11.0931
▁выполнил	-11.0931
▁недалеко	-11.0931
▁приглаша	-11.0931
Daily	-11.0993
▁Мюнхен	-11.0993
▁велосипед	-11.0993
▁конструктив	-11.0993
▁легкоатлет	-11.0993
▁норвеж	-11.0993
▁областях	-11.0993
▁самопровозглаш	-11.0993
▁Рамзан	-11.0993
▁прекратил	-11.0993
мышленно	-11.1034
▁происходил	-11.1054
▁историк	-11.1054
▁совершит	-11.1055
Карабах	-11.1055
▁Республиканск	-11.106
▁Демократическ	-11.1116
▁Реджеп	-11.1116
▁благоприятн	-11.1116
▁осуществи	-11.1116
▁присоединени	-11.1116
▁профсоюз	-11.1116
▁реабилитаци	-11.1116
*	-11.1433
q	-11.2029
Ы	-11.2167
−	-11.5407
_	-11.5898
#	-11.8791
@	-11.9778
Ь	-12.1735
`	-12.4404
ü	-12.5926
ä	-12.7087
ї	-12.7087
•	-12.84
é	-13.1218
õ	-13.1218
×	-13.272
⁄	-13.3276
є	-13.5156
■	-13.587
ó	-13.8382
′	-13.9382
ö	-14.0493
©	-14.0493
̆	-14.0493
́	-14.1743
‒	-14.1743
è	-14.3172
І	-14.3172
þ	-14.4838
‬	-14.4838
É	-14.9338
~	-14.9338
ë	-14.9338
‍	-14.9338
😂	-14.9338
\	-14.9338
μ	-14.9338
ў	-14.9338
Ν	-15.2671
Ş	-15.2672
¦	-15.2672
¬	-15.2672
Ö	-15.2672
α	-15.2672
қ	-15.2672
à	-15.2672
β	-15.2672
Α	-15.7671
Η	-15.7671
️	-15.7671
Š	-15.7671
ç	-15.7672
í	-15.7672
ð	-15.7672
ô	-15.7672
ī	-15.7672
ı	-15.7672
ʀ	-15.7672
ʼ	-15.7672
џ	-15.7672
▲	-15.7672
⚽	-15.7672
ο	-15.7672
ś	-15.7672
ν	-15.7672
ғ	-16.7663
ŏ	-16.7664
ê	-16.7665
‪	-16.7666
Ў	-16.7667
→	-16.7668
<	-16.7669
=	-16.767
£	-16.7671
Έ	-16.7671
Γ	-16.7671
🐗	-16.7671
Қ	-16.7671
¤	-16.7672
¥	-16.7672
§	-16.7672
Ë	-16.7672
ß	-16.7672
á	-16.7672
ø	-16.7672
ā	-16.7672
ę	-16.7672
İ	-16.7672
Ł	-16.7672
ş	-16.7672
š	-16.7672
̈	-16.7672
̊	-16.7672
Σ	-16.7672
ρ	-16.7672
χ	-16.7672
ώ	-16.7672
Є	-16.7672
Ї	-16.7672
ӣ	-16.7672
∙	-16.7672
⋅	-16.7672
─	-16.7672
►	-16.7672
●	-16.7672
☃	-16.7672
☝	-16.7672
♫	-16.7672
❄	-16.7672
《	-16.7672
》	-16.7672
	-16.7672
🌞	-16.7672
🍺	-16.7672
🎂	-16.7672
🐅	-16.7672
🐺	-16.7672
💪	-16.7672
λ	-16.7672
ń	-16.7672
έ	-16.7672
ҳ	-16.7672
(	-16.7672
τ	-16.7672
