<unk>	0
<s>	0
</s>	0
▁п	-0
ст	-1
▁в	-2
▁с	-3
ен	-4
ов	-5
ра	-6
▁н	-7
▁о	-8
то	-9
но	-10
ре	-11
ко	-12
▁и	-13
ро	-14
го	-15
ли	-16
▁по	-17
ан	-18
ет	-19
▁д	-20
ль	-21
ри	-22
▁на	-23
ны	-24
ка	-25
▁м	-26
те	-27
ла	-28
за	-29
ни	-30
ер	-31
▁б	-32
та	-33
ени	-34
ки	-35
ле	-36
на	-37
ть	-38
▁ч	-39
да	-40
ло	-41
ти	-42
▁у	-43
ва	-44
▁не	-45
ся	-46
ци	-47
▁ко	-48
▁за	-49
ми	-50
▁"	-51
ру	-52
ди	-53
во	-54
ви	-55
сс	-56
▁со	-57
▁про	-58
▁ра	-59
ем	-60
▁а	-61
ани	-62
▁В	-63
▁С	-64
▁э	-65
ля	-66
▁-	-67
▁П	-68
де	-69
ров	-70
▁к	-71
ско	-72
сти	-73
ста	-74
▁го	-75
▁от	-76
▁до	-77
▁об	-78
▁что	-79
не	-80
по	-81
мо	-82
▁г	-83
▁при	-84
▁Р	-85
▁пре	-86
ры	-87
▁К	-88
ей	-89
ду	-90
▁во	-91
ча	-92
че	-93
чи	-94
▁М	-95
сто	-96
бо	-97
ма	-98
ски	-99
же	-100
▁ре	-101
▁вы	-102
ения	-103
ной	-104
▁т	-105
▁е	-106
тель	-107
ве	-108
ных	-109
хо	-110
▁Н	-111
▁то	-112
сси	-113
▁из	-114
ку	-115
ово	-116
до	-117
сь	-118
ного	-119
▁2	-120
се	-121
лу	-122
▁бы	-123
▁ка	-124
жи	-125
ме	-126
ши	-127
ова	-128
▁О	-129
ги	-130
ств	-131
▁это	-132
щи	-133
▁А	-134
ну	-135
▁мо	-136
▁ф	-137
▁1	-138
зи	-139
об	-140
мен	-141
ют	-142
ере	-143
ение	-144
ции	-145
па	-146
ные	-147
▁те	-148
ный	-149
си	-150
▁Т	-151
сть	-152
му	-153
ту	-154
пи	-155
▁ст	-156
▁кото	-157
▁та	-158
▁Д	-159
ков	-160
▁По	-161
",	-162
га	-163
▁Ро	-164
ря	-165
▁под	-166
ты	-167
ше	-168
ще	-169
▁де	-170
▁бо	-171
ня	-172
ар	-173
▁И	-174
он	-175
ется	-176
▁з	-177
▁ме	-178
▁раз	-179
би	-180
лю	-181
са	-182
▁пред	-183
▁20	-184
▁Б	-185
пе	-186
▁(	-187
лов	-188
▁Г	-189
▁Росси	-190
лен	-191
ской	-192
тов	-193
ке	-194
▁ми	-195
ор	-196
жа	-197
▁ро	-198
це	-199
су	-200
ным	-201
ден	-202
ания	-203
▁пере	-204
ек	-205
вы	-206
ак	-207
▁ин	-208
ран	-209
ства	-210
▁бу	-211
лет	-212
сле	-213
".	-214
про	-215
пу	-216
ского	-217
спо	-218
ствен	-219
▁для	-220
ство	-221
▁ли	-222
бы	-223
ин	-224
▁ру	-225
▁ком	-226
▁ма	-227
каза	-228
▁ста	-229
▁все	-230
мы	-231
▁сво	-232
жно	-233
▁которы	-234
дет	-235
▁кон	-236
▁Е	-237
ды	-238
▁су	-239
▁са	-240
▁си	-241
ща	-242
▁На	-243
ез	-244
▁У	-245
▁я	-246
▁но	-247
▁201	-248
аль	-249
вер	-250
▁года	-251
ск	-252
▁пра	-253
ном	-254
▁так	-255
она	-256
▁как	-257
кра	-258
ться	-259
ур	-260
гра	-261
ная	-262
цен	-263
ана	-264
▁сооб	-265
ба	-266
лей	-267
▁ни	-268
▁России	-269
тив	-270
▁воз	-271
ное	-272
ности	-273
ска	-274
зы	-275
бе	-276
чен	-277
дер	-278
пра	-279
ских	-280
ении	-281
овы	-282
гу	-283
со	-284
▁Л	-285
тся	-286
лся	-287
▁его	-288
из	-289
сту	-290
жен	-291
фи	-292
▁ве	-293
▁се	-294
вля	-295
пре	-296
кс	-297
▁Ф	-298
ский	-299
рова	-300
▁хо	-301
нов	-302
▁сто	-303
ция	-304
дов	-305
дни	-306
ша	-307
▁он	-308
лько	-309
▁рабо	-310
рем	-311
▁дол	-312
▁стра	-313
ание	-314
ходи	-315
ющи	-316
ании	-317
стви	-318
▁З	-319
ети	-320
кой	-321
▁после	-322
ета	-323
мер	-324
лись	-325
рг	-326
▁Э	-327
яви	-328
▁жи	-329
ную	-330
ность	-331
зу	-332
ления	-333
стави	-334
▁этом	-335
ца	-336
ят	-337
▁Мо	-338
▁росси	-339
жд	-340
ром	-341
стан	-342
▁пер	-343
▁че	-344
▁комп	-345
▁да	-346
рии	-347
ев	-348
гда	-349
ха	-350
▁па	-351
тра	-352
▁полу	-353
▁3	-354
▁же	-355
лось	-356
жет	-357
▁пров	-358
ред	-359
стра	-360
▁будет	-361
▁ча	-362
гла	-363
вши	-364
при	-365
▁гла	-366
▁ви	-367
▁руб	-368
ком	-369
▁расс	-370
▁году	-371
зиден	-372
▁ос	-373
лы	-374
дин	-375
▁од	-376
том	-377
▁ш	-378
▁ав	-379
▁врем	-380
сли	-381
▁боль	-382
▁сов	-383
ению	-384
стоя	-385
рен	-386
▁поли	-387
▁также	-388
ву	-389
род	-390
ник	-391
дар	-392
ские	-393
руп	-394
пер	-395
вя	-396
тя	-397
▁Ч	-398
▁ди	-399
▁россий	-400
▁дру	-401
фор	-402
ству	-403
▁ак	-404
бли	-405
ень	-406
тер	-407
сов	-408
цию	-409
ений	-410
▁уже	-411
лее	-412
рой	-413
коно	-414
00	-415
▁мл	-416
▁лю	-417
лова	-418
тор	-419
лась	-420
вет	-421
▁слу	-422
ются	-423
▁орг	-424
▁был	-425
зна	-426
▁объ	-427
▁было	-428
бу	-429
▁уча	-430
▁челов	-431
став	-432
ласти	-433
три	-434
▁цен	-435
ес	-436
зыва	-437
▁Ко	-438
тиче	-439
ему	-440
ными	-441
▁время	-442
жду	-443
▁пар	-444
▁которые	-445
теля	-446
▁ты	-447
▁без	-448
▁Ка	-449
▁За	-450
прав	-451
гово	-452
▁обра	-453
сы	-454
▁президен	-455
пы	-456
кан	-457
лек	-458
▁их	-459
▁заяви	-460
ге	-461
ская	-462
ника	-463
телей	-464
рт	-465
▁произ	-466
▁нача	-467
стре	-468
вро	-469
▁дан	-470
цион	-471
▁том	-472
▁ва	-473
▁Во	-474
▁мы	-475
циаль	-476
▁гра	-477
кон	-478
ление	-479
▁Х	-480
чно	-481
▁чи	-482
▁гово	-483
ском	-484
ней	-485
▁авто	-486
ход	-487
▁4	-488
бря	-489
▁только	-490
ША	-491
▁тре	-492
▁Ми	-493
▁чем	-494
▁или	-495
рь	-496
▁5	-497
шен	-498
дом	-499
аз	-500
).	-501
▁само	-502
вать	-503
кры	-504
▁спо	-505
ене	-506
▁США	-507
▁еще	-508
год	-509
лан	-510
▁тер	-511
станов	-512
▁ус	-513
сте	-514
▁лет	-515
▁му	-516
▁того	-517
▁сообща	-518
▁Я	-519
тели	-520
ональ	-521
▁При	-522
▁может	-523
▁пу	-524
дут	-525
тре	-526
судар	-527
шения	-528
▁зна	-529
рта	-530
▁более	-531
ом	-532
нее	-533
▁слова	-534
цы	-535
▁фи	-536
тия	-537
казал	-538
шение	-539
▁чтобы	-540
зов	-541
▁пи	-542
▁Со	-543
▁сообщи	-544
▁Но	-545
▁были	-546
ников	-547
тро	-548
▁сле	-549
чита	-550
▁Моск	-551
▁рас	-552
▁который	-553
пол	-554
▁19	-555
▁органи	-556
▁Укра	-557
мети	-558
▁прави	-559
▁ле	-560
▁ее	-561
▁они	-562
▁Ма	-563
▁Как	-564
▁Ш	-565
▁ку	-566
),	-567
▁Са	-568
▁х	-569
реди	-570
лом	-571
нист	-572
▁говори	-573
кономи	-574
тельно	-575
▁РФ	-576
..	-577
лекс	-578
ково	-579
нима	-580
▁Ц	-581
ед	-582
ой	-583
тру	-584
▁испо	-585
логи	-586
стро	-587
▁Го	-588
▁вз	-589
▁государ	-590
▁отно	-591
▁Украи	-592
▁дей	-593
▁Си	-594
ску	-595
лож	-596
▁свя	-597
сла	-598
▁реги	-599
тин	-600
дера	-601
форма	-602
▁Об	-603
ением	-604
али	-605
ью	-606
льта	-607
стве	-608
▁помо	-609
ких	-610
стов	-611
▁эти	-612
анк	-613
▁между	-614
▁вопро	-615
▁им	-616
лли	-617
▁свои	-618
▁получи	-619
ним	-620
ступ	-621
ман	-622
ут	-623
жда	-624
▁заявил	-625
оне	-626
рд	-627
▁спе	-628
ники	-629
яв	-630
▁Ки	-631
▁представи	-632
держ	-633
▁Та	-634
▁исто	-635
ций	-636
пла	-637
емы	-638
▁есть	-639
▁6	-640
▁Это	-641
клю	-642
чет	-643
ане	-644
пас	-645
▁пол	-646
▁вер	-647
▁человек	-648
мери	-649
дей	-650
щен	-651
▁ры	-652
en	-653
▁этого	-654
яс	-655
годня	-656
час	-657
▁возмо	-658
er	-659
▁тех	-660
▁горо	-661
лади	-662
зд	-663
рован	-664
мента	-665
слу	-666
тора	-667
ейчас	-668
▁Ан	-669
трудни	-670
▁работа	-671
зульта	-672
льно	-673
▁Алекс	-674
▁счита	-675
▁ок	-676
▁результа	-677
цев	-678
ках	-679
▁словам	-680
пера	-681
▁Бо	-682
вест	-683
▁2016	-684
рий	-685
смо	-686
▁области	-687
шего	-688
▁отмети	-689
от	-690
овой	-691
▁други	-692
▁ки	-693
зова	-694
▁Влади	-695
чень	-696
публи	-697
▁экономи	-698
▁организа	-699
▁7	-700
▁экс	-701
ствия	-702
▁сторо	-703
едера	-704
нако	-705
▁соб	-706
тельства	-707
кла	-708
▁млн	-709
▁груп	-710
кие	-711
▁Пу	-712
▁2015	-713
дол	-714
тери	-715
ую	-716
аний	-717
▁кра	-718
вести	-719
▁чет	-720
▁ж	-721
ген	-722
▁мар	-723
цу	-724
▁дела	-725
▁обо	-726
вает	-727
вод	-728
▁сред	-729
▁она	-730
▁це	-731
гут	-732
лага	-733
▁проек	-734
ским	-735
мент	-736
чения	-737
▁если	-738
▁будут	-739
каз	-740
анд	-741
ставля	-742
▁переда	-743
▁была	-744
▁информа	-745
ложи	-746
▁Евро	-747
кого	-748
▁пе	-749
▁прош	-750
▁Се	-751
дела	-752
чение	-753
бор	-754
тому	-755
сты	-756
▁сотрудни	-757
▁приня	-758
хи	-759
туа	-760
дель	-761
▁когда	-762
▁Владими	-763
▁ту	-764
▁воен	-765
▁новы	-766
▁согла	-767
вой	-768
▁тем	-769
▁ба	-770
рия	-771
бира	-772
рабо	-773
рек	-774
▁рублей	-775
▁ад	-776
сно	-777
▁можно	-778
▁случа	-779
шей	-780
▁бе	-781
▁явля	-782
▁быть	-783
▁Не	-784
▁подо	-785
▁основ	-786
лови	-787
20	-788
нистра	-789
сков	-790
▁L	-791
бле	-792
▁Сер	-793
рав	-794
▁бан	-795
вали	-796
▁Ни	-797
▁очень	-798
▁Он	-799
▁неско	-800
▁где	-801
ит	-802
ряд	-803
рак	-804
▁которо	-805
▁день	-806
▁гражд	-807
вед	-808
▁дет	-809
▁страны	-810
▁разви	-811
▁стан	-812
рам	-813
чь	-814
▁млрд	-815
рти	-816
▁Так	-817
▁компании	-818
▁возможно	-819
ta	-820
казыва	-821
▁год	-822
рани	-823
▁Ва	-824
ремен	-825
▁8	-826
▁сист	-827
ровать	-828
▁ну	-829
меча	-830
нер	-831
мерикан	-832
фе	-833
▁суд	-834
ющих	-835
аны	-836
▁сообщает	-837
▁руково	-838
торы	-839
чер	-840
▁встре	-841
▁стро	-842
сса	-843
▁10	-844
твер	-845
рит	-846
▁Па	-847
ское	-848
▁рай	-849
▁S	-850
вал	-851
тере	-852
▁них	-853
народ	-854
▁ситуа	-855
▁долж	-856
▁пов	-857
ете	-858
нес	-859
пом	-860
▁коми	-861
ян	-862
рито	-863
инан	-864
ших	-865
щего	-866
▁оста	-867
ному	-868
▁вс	-869
вший	-870
грам	-871
▁тыся	-872
▁необ	-873
▁глав	-874
▁смо	-875
▁Ю	-876
ний	-877
▁жиз	-878
▁дву	-879
дели	-880
коло	-881
тии	-882
рук	-883
тай	-884
льного	-885
▁Ин	-886
щей	-887
▁уда	-888
стран	-889
ru	-890
жения	-891
води	-892
тельство	-893
▁два	-894
▁Ж	-895
▁прове	-896
ствова	-897
ять	-898
тен	-899
▁име	-900
▁Александ	-901
пута	-902
▁террито	-903
▁участ	-904
▁тыс	-905
▁милли	-906
▁сер	-907
моби	-908
▁нет	-909
▁против	-910
ового	-911
▁A	-912
чу	-913
▁пробле	-914
▁один	-915
on	-916
тября	-917
рово	-918
▁Ба	-919
▁даже	-920
бер	-921
▁продол	-922
▁исполь	-923
ях	-924
бя	-925
соб	-926
шь	-927
▁ю	-928
СС	-929
▁сказал	-930
▁право	-931
рая	-932
▁нас	-933
▁много	-934
прия	-935
▁данным	-936
луч	-937
нен	-938
▁неф	-939
ческой	-940
нии	-941
вели	-942
▁15	-943
▁Од	-944
▁могут	-945
жден	-946
▁Ку	-947
▁Ра	-948
ким	-949
лани	-950
него	-951
ступи	-952
▁9	-953
ками	-954
▁офи	-955
▁T	-956
емо	-957
▁больше	-958
▁необходи	-959
скую	-960
▁Про	-961
▁откры	-962
дова	-963
▁обще	-964
шел	-965
лин	-966
опас	-967
▁оче	-968
▁поз	-969
ясни	-970
▁пока	-971
▁всего	-972
▁коман	-973
гро	-974
нь	-975
▁сейчас	-976
▁I	-977
шин	-978
▁финан	-979
▁наз	-980
▁президента	-981
▁Украины	-982
▁поч	-983
▁рын	-984
▁выбо	-985
▁уров	-986
роме	-987
▁этот	-988
▁пло	-989
шении	-990
▁Россия	-991
анию	-992
▁пла	-993
министра	-994
мени	-995
▁Все	-996
▁состоя	-997
▁первы	-998
▁сен	-999
▁Из	-1000
лия	-1001
▁пресс	-1002
щения	-1003
▁автомоби	-1004
▁американ	-1005
рует	-1006
▁прода	-1007
▁которая	-1008
лем	-1009
▁сообщил	-1010
нем	-1011
▁ар	-1012
гент	-1013
ерез	-1014
▁вой	-1015
▁До	-1016
▁челове	-1017
▁несколько	-1018
▁доро	-1019
▁Мин	-1020
▁кор	-1021
▁опера	-1022
▁То	-1023
▁Да	-1024
циональ	-1025
▁около	-1026
ис	-1027
▁тран	-1028
in	-1029
▁сегодня	-1030
юд	-1031
льный	-1032
нению	-1033
▁N	-1034
▁оп	-1035
жение	-1036
▁вла	-1037
▁Ве	-1038
ющий	-1039
▁доку	-1040
▁извест	-1041
▁жен	-1042
анее	-1043
кова	-1044
▁Ранее	-1045
▁участи	-1046
анима	-1047
стей	-1048
ющие	-1049
▁бли	-1050
мет	-1051
цией	-1052
▁Ме	-1053
льной	-1054
имо	-1055
▁Ви	-1056
▁всех	-1057
кре	-1058
▁три	-1059
▁200	-1060
▁ито	-1061
ответ	-1062
▁програм	-1063
▁эк	-1064
лаго	-1065
▁самы	-1066
онов	-1067
▁сем	-1068
▁сни	-1069
▁минист	-1070
▁меся	-1071
▁побе	-1072
держа	-1073
,5	-1074
▁ско	-1075
од	-1076
▁отметил	-1077
бов	-1078
▁укра	-1079
▁сдела	-1080
раз	-1081
рори	-1082
▁фор	-1083
▁Мы	-1084
▁Ново	-1085
ческих	-1086
▁находи	-1087
an	-1088
виа	-1089
нения	-1090
ья	-1091
▁тра	-1092
бур	-1093
ледов	-1094
лич	-1095
▁президент	-1096
▁ан	-1097
▁B	-1098
лого	-1099
▁ис	-1100
вают	-1101
▁которых	-1102
▁вос	-1103
кий	-1104
▁ду	-1105
▁готов	-1106
▁полити	-1107
▁C	-1108
▁фак	-1109
▁является	-1110
льных	-1111
рон	-1112
туры	-1113
▁каж	-1114
▁города	-1115
рей	-1116
Ро	-1117
лены	-1118
▁место	-1119
ору	-1120
▁F	-1121
точ	-1122
прави	-1123
▁безопас	-1124
▁газ	-1125
▁ию	-1126
▁высо	-1127
▁этой	-1128
▁заяв	-1129
▁От	-1130
тр	-1131
▁строи	-1132
тки	-1133
▁решение	-1134
▁депута	-1135
ностью	-1136
▁обви	-1137
▁мест	-1138
зя	-1139
хов	-1140
дь	-1141
тий	-1142
▁круп	-1143
▁себя	-1144
▁отмеча	-1145
▁M	-1146
▁свое	-1147
ческого	-1148
▁вто	-1149
ждения	-1150
бра	-1151
урна	-1152
▁га	-1153
▁вне	-1154
нут	-1155
кам	-1156
▁кри	-1157
лении	-1158
ступа	-1159
▁граждан	-1160
▁нару	-1161
▁Владимир	-1162
вших	-1163
еры	-1164
щее	-1165
зан	-1166
рах	-1167
▁через	-1168
▁установ	-1169
▁чемпи	-1170
ссе	-1171
чина	-1172
вно	-1173
▁Сирии	-1174
▁кто	-1175
▁совер	-1176
▁Однако	-1177
бой	-1178
▁двух	-1179
зда	-1180
ье	-1181
▁произо	-1182
▁оказа	-1183
▁занима	-1184
▁матери	-1185
▁мен	-1186
▁числе	-1187
зе	-1188
▁над	-1189
▁управ	-1190
▁свою	-1191
▁агент	-1192
...	-1193
▁уго	-1194
▁призна	-1195
пад	-1196
▁позво	-1197
▁тысяч	-1198
▁пос	-1199
▁интер	-1200
▁Пре	-1201
чем	-1202
▁глава	-1203
ил	-1204
▁спи	-1205
▁передает	-1206
▁ква	-1207
ходя	-1208
▁кол	-1209
▁дирек	-1210
зо	-1211
смот	-1212
▁обя	-1213
чество	-1214
▁экспер	-1215
▁Тур	-1216
лим	-1217
▁Бе	-1218
▁международ	-1219
▁террори	-1220
ена	-1221
▁12	-1222
писа	-1223
нова	-1224
митри	-1225
готов	-1226
менно	-1227
ноги	-1228
▁запре	-1229
▁$	-1230
циа	-1231
вра	-1232
▁Кроме	-1233
мина	-1234
▁дви	-1235
▁законо	-1236
ям	-1237
▁евро	-1238
▁перед	-1239
дук	-1240
▁бюд	-1241
▁Россий	-1242
кая	-1243
▁проце	-1244
гли	-1245
там	-1246
▁тру	-1247
▁интере	-1248
▁Дмитри	-1249
▁власти	-1250
кну	-1251
овых	-1252
▁защи	-1253
спе	-1254
▁соответ	-1255
▁обла	-1256
▁R	-1257
лог	-1258
▁голо	-1259
▁услови	-1260
▁авиа	-1261
▁поль	-1262
чной	-1263
бре	-1264
▁перво	-1265
▁украин	-1266
щение	-1267
▁дека	-1268
▁журна	-1269
▁Если	-1270
ходит	-1271
▁госпо	-1272
▁Москве	-1273
ева	-1274
or	-1275
▁G	-1276
вается	-1277
▁следу	-1278
▁эта	-1279
гей	-1280
тета	-1281
▁дея	-1282
▁официаль	-1283
▁После	-1284
тельных	-1285
▁поги	-1286
тие	-1287
▁ян	-1288
▁стать	-1289
enta	-1290
тно	-1291
ун	-1292
▁режи	-1293
▁теле	-1294
▁ответ	-1295
ван	-1296
шли	-1297
▁луч	-1298
зации	-1299
▁дома	-1300
евра	-1301
йте	-1302
▁увели	-1303
▁своей	-1304
▁последни	-1305
кое	-1306
тить	-1307
▁разме	-1308
▁стал	-1309
▁бое	-1310
▁2014	-1311
▁апре	-1312
▁янва	-1313
ске	-1314
▁результате	-1315
▁вме	-1316
es	-1317
ьер	-1318
▁Гла	-1319
овые	-1320
ствие	-1321
▁част	-1322
▁Ли	-1323
▁заклю	-1324
▁виде	-1325
▁доба	-1326
201	-1327
вые	-1328
▁биз	-1329
▁Гос	-1330
▁Lenta	-1331
шо	-1332
йти	-1333
▁созд	-1334
ственной	-1335
▁P	-1336
вшего	-1337
▁работы	-1338
▁шко	-1339
ган	-1340
▁приз	-1341
фф	-1342
этому	-1343
МИ	-1344
лена	-1345
ссии	-1346
▁направ	-1347
▁федера	-1348
▁11	-1349
АСС	-1350
нет	-1351
▁должны	-1352
вая	-1353
▁плани	-1354
▁февра	-1355
▁меня	-1356
▁сы	-1357
ружи	-1358
▁моло	-1359
▁долла	-1360
вле	-1361
▁очеред	-1362
мой	-1363
▁Су	-1364
▁18	-1365
▁стран	-1366
▁которой	-1367
лимпи	-1368
▁должно	-1369
служ	-1370
▁него	-1371
▁администра	-1372
ото	-1373
▁Сергей	-1374
▁просто	-1375
▁прово	-1376
▁30	-1377
▁кан	-1378
▁стороны	-1379
пло	-1380
строй	-1381
седа	-1382
ема	-1383
▁безопасности	-1384
преде	-1385
ственного	-1386
▁сро	-1387
▁людей	-1388
▁ци	-1389
тон	-1390
шая	-1391
ar	-1392
ние	-1393
▁связи	-1394
▁креди	-1395
▁муж	-1396
▁производ	-1397
▁иск	-1398
▁ему	-1399
дить	-1400
▁актив	-1401
▁ноя	-1402
▁показа	-1403
▁мат	-1404
▁дело	-1405
▁необходимо	-1406
щих	-1407
чить	-1408
▁СМИ	-1409
грани	-1410
ых	-1411
▁других	-1412
помним	-1413
пусти	-1414
гре	-1415
▁Ру	-1416
▁поддерж	-1417
▁Сов	-1418
пей	-1419
▁элек	-1420
ИА	-1421
▁Вы	-1422
▁город	-1423
▁испол	-1424
▁конку	-1425
тали	-1426
▁реши	-1427
держи	-1428
▁обсу	-1429
▁уголов	-1430
еспе	-1431
▁Пер	-1432
▁Ар	-1433
сед	-1434
▁Ре	-1435
▁случае	-1436
▁потре	-1437
▁созда	-1438
▁би	-1439
▁служ	-1440
▁Путин	-1441
циали	-1442
▁ранее	-1443
фер	-1444
воз	-1445
▁ше	-1446
▁ино	-1447
▁помощ	-1448
▁продук	-1449
▁прод	-1450
▁деятель	-1451
▁Напомним	-1452
▁состави	-1453
етер	-1454
▁образ	-1455
▁догово	-1456
▁суще	-1457
▁настоя	-1458
▁благо	-1459
▁неза	-1460
▁часть	-1461
▁Ла	-1462
▁вопрос	-1463
▁территории	-1464
пример	-1465
храни	-1466
▁продолжа	-1467
▁мира	-1468
▁ули	-1469
анием	-1470
дида	-1471
▁сбор	-1472
утбо	-1473
▁уби	-1474
▁пози	-1475
▁Дж	-1476
▁филь	-1477
▁источ	-1478
▁проис	-1479
▁каче	-1480
▁прав	-1481
▁человека	-1482
шие	-1483
▁рассказал	-1484
▁контро	-1485
▁жизни	-1486
▁ново	-1487
льные	-1488
тически	-1489
ыре	-1490
▁Под	-1491
▁процен	-1492
кин	-1493
рази	-1494
▁успе	-1495
перь	-1496
▁подчер	-1497
▁Александр	-1498
кта	-1499
▁предпо	-1500
▁обеспе	-1501
▁зд	-1502
дитель	-1503
▁друго	-1504
▁сказа	-1505
▁Те	-1506
▁ана	-1507
▁предо	-1508
сут	-1509
▁гу	-1510
▁марта	-1511
▁ла	-1512
▁Федера	-1513
ственно	-1514
-1	-1515
тем	-1516
▁план	-1517
▁организации	-1518
▁женщи	-1519
▁пери	-1520
▁ведом	-1521
▁чу	-1522
▁неко	-1523
▁торг	-1524
▁распо	-1525
▁ходе	-1526
полни	-1527
▁которого	-1528
▁российских	-1529
▁лишь	-1530
▁мнению	-1531
▁называ	-1532
рави	-1533
лез	-1534
пыт	-1535
рования	-1536
струк	-1537
рию	-1538
▁материа	-1539
▁хоро	-1540
кти	-1541
той	-1542
▁считает	-1543
al	-1544
▁компания	-1545
тами	-1546
▁самолет	-1547
▁социаль	-1548
▁говорит	-1549
сом	-1550
ить	-1551
▁деся	-1552
дел	-1553
▁ша	-1554
ые	-1555
торов	-1556
▁площа	-1557
▁преступ	-1558
щем	-1559
ством	-1560
тельные	-1561
▁25	-1562
скому	-1563
мов	-1564
▁0	-1565
▁нужно	-1566
▁момент	-1567
▁14	-1568
▁Кры	-1569
рую	-1570
тельной	-1571
чки	-1572
▁Трам	-1573
▁своих	-1574
▁ц	-1575
▁13	-1576
▁заме	-1577
инов	-1578
тур	-1579
ственных	-1580
▁Кон	-1581
ток	-1582
▁Анд	-1583
щая	-1584
▁фон	-1585
▁кандида	-1586
сло	-1587
▁стало	-1588
▁16	-1589
чных	-1590
▁Москвы	-1591
▁Де	-1592
▁преду	-1593
▁осу	-1594
▁подтвер	-1595
▁Также	-1596
ститу	-1597
▁сокра	-1598
▁действи	-1599
▁многи	-1600
▁сум	-1601
роны	-1602
▁меди	-1603
▁Новости	-1604
енно	-1605
▁мене	-1606
▁Госду	-1607
лон	-1608
рту	-1609
▁ОО	-1610
▁17	-1611
▁пода	-1612
▁насе	-1613
▁транспо	-1614
ляр	-1615
▁кур	-1616
цей	-1617
щении	-1618
▁сек	-1619
ложен	-1620
▁журнали	-1621
енси	-1622
▁счет	-1623
▁политиче	-1624
тных	-1625
▁ожи	-1626
▁составля	-1627
le	-1628
▁там	-1629
спубли	-1630
тан	-1631
▁появи	-1632
▁получа	-1633
етербур	-1634
▁W	-1635
▁конце	-1636
▁уни	-1637
ствует	-1638
▁повы	-1639
▁отношении	-1640
▁четыре	-1641
▁почти	-1642
▁добави	-1643
ший	-1644
▁дости	-1645
▁четвер	-1646
▁ТАСС	-1647
▁коли	-1648
▁партии	-1649
щий	-1650
▁обна	-1651
над	-1652
▁Цен	-1653
ческие	-1654
▁рам	-1655
▁значи	-1656
десь	-1657
▁след	-1658
▁нау	-1659
шений	-1660
▁объек	-1661
▁ри	-1662
▁подготов	-1663
▁пы	-1664
ницу	-1665
▁поку	-1666
вания	-1667
▁парла	-1668
▁футбо	-1669
▁способ	-1670
дой	-1671
них	-1672
▁именно	-1673
дии	-1674
лено	-1675
правля	-1676
▁детей	-1677
▁республи	-1678
мп	-1679
▁послед	-1680
чный	-1681
▁стране	-1682
▁Сегодня	-1683
дина	-1684
един	-1685
вшие	-1686
▁задерж	-1687
▁Ле	-1688
тура	-1689
▁вра	-1690
it	-1691
бан	-1692
ровал	-1693
ровали	-1694
▁совет	-1695
еме	-1696
чные	-1697
▁люди	-1698
▁части	-1699
▁Фран	-1700
▁перегово	-1701
ропо	-1702
▁Для	-1703
▁Пред	-1704
▁буду	-1705
▁даль	-1706
▁апреля	-1707
тиво	-1708
вых	-1709
▁говорится	-1710
стана	-1711
▁ги	-1712
▁нор	-1713
▁сентября	-1714
▁ссы	-1715
рот	-1716
▁однако	-1717
%.	-1718
еха	-1719
пара	-1720
разу	-1721
▁кли	-1722
еров	-1723
енера	-1724
▁реали	-1725
▁зако	-1726
тар	-1727
▁прем	-1728
▁главы	-1729
▁Дмитрий	-1730
▁государства	-1731
▁клу	-1732
▁авгу	-1733
гам	-1734
явля	-1735
▁электро	-1736
▁Хо	-1737
сили	-1738
виси	-1739
ерт	-1740
▁ог	-1741
ния	-1742
руг	-1743
▁прекра	-1744
▁обы	-1745
▁провер	-1746
▁стали	-1747
▁зан	-1748
▁вклю	-1749
жу	-1750
ню	-1751
▁измен	-1752
бен	-1753
страда	-1754
▁закон	-1755
лья	-1756
пис	-1757
скими	-1758
чного	-1759
ьез	-1760
▁иг	-1761
▁исс	-1762
роб	-1763
стя	-1764
кт	-1765
▁рамках	-1766
▁утвер	-1767
нять	-1768
смен	-1769
▁сообщили	-1770
▁завер	-1771
ченко	-1772
▁правительства	-1773
▁страна	-1774
▁должен	-1775
▁руковод	-1776
▁чемпиона	-1777
нение	-1778
▁предприя	-1779
урман	-1780
нологи	-1781
▁Что	-1782
▁куль	-1783
▁нам	-1784
▁провед	-1785
▁спорт	-1786
▁докумен	-1787
0-	-1788
▁Миха	-1789
▁сам	-1790
стри	-1791
▁назна	-1792
ены	-1793
пози	-1794
▁суб	-1795
лению	-1796
▁уч	-1797
акси	-1798
▁рей	-1799
блю	-1800
шее	-1801
▁анти	-1802
▁отказа	-1803
▁исклю	-1804
▁причи	-1805
ваться	-1806
▁идет	-1807
▁иностран	-1808
дил	-1809
▁2017	-1810
▁санк	-1811
▁опреде	-1812
мыш	-1813
▁участие	-1814
▁одной	-1815
или	-1816
шим	-1817
▁финанс	-1818
▁февраля	-1819
oo	-1820
▁свобо	-1821
▁недо	-1822
вор	-1823
▁Они	-1824
▁пример	-1825
▁центра	-1826
▁подчеркну	-1827
▁особ	-1828
фа	-1829
кола	-1830
чего	-1831
▁образом	-1832
нечно	-1833
▁борь	-1834
▁специали	-1835
вид	-1836
▁председа	-1837
▁ло	-1838
читы	-1839
телем	-1840
▁менее	-1841
▁времени	-1842
▁пя	-1843
▁Га	-1844
▁попа	-1845
▁одного	-1846
чей	-1847
▁подоз	-1848
ter	-1849
зад	-1850
▁декабря	-1851
▁тя	-1852
жай	-1853
▁ноября	-1854
▁ограни	-1855
рев	-1856
рин	-1857
▁гру	-1858
рами	-1859
▁маши	-1860
▁мет	-1861
парта	-1862
▁октября	-1863
▁развития	-1864
▁обяза	-1865
▁принима	-1866
▁нем	-1867
▁проку	-1868
▁ника	-1869
he	-1870
▁такой	-1871
▁информации	-1872
▁рез	-1873
▁назад	-1874
нуть	-1875
матри	-1876
▁разрабо	-1877
▁некоторы	-1878
▁националь	-1879
▁возможность	-1880
ффек	-1881
ческий	-1882
▁региона	-1883
▁выпол	-1884
▁Мар	-1885
ствовать	-1886
▁засед	-1887
%,	-1888
▁января	-1889
гля	-1890
хода	-1891
▁представитель	-1892
▁сре	-1893
тет	-1894
▁Гер	-1895
▁инф	-1896
▁мая	-1897
ющего	-1898
▁другие	-1899
сова	-1900
▁опубли	-1901
ce	-1902
▁Че	-1903
вен	-1904
▁пыта	-1905
Газ	-1906
рец	-1907
▁роди	-1908
лют	-1909
жных	-1910
▁противо	-1911
▁ря	-1912
▁этих	-1913
гно	-1914
зидент	-1915
ВД	-1916
▁пострада	-1917
мышлен	-1918
тельного	-1919
оло	-1920
тельный	-1921
▁времен	-1922
▁региональ	-1923
лкой	-1924
▁бюджет	-1925
▁аре	-1926
▁себе	-1927
▁действия	-1928
-2	-1929
ель	-1930
▁управления	-1931
▁серьез	-1932
.,	-1933
▁22	-1934
▁аэ	-1935
▁средств	-1936
тина	-1937
▁окру	-1938
▁российского	-1939
▁игра	-1940
тах	-1941
▁угро	-1942
кет	-1943
▁собствен	-1944
рил	-1945
▁No	-1946
▁ЕС	-1947
▁Сейчас	-1948
▁зада	-1949
▁ради	-1950
графи	-1951
▁21	-1952
дили	-1953
▁прибы	-1954
▁конф	-1955
▁погиб	-1956
▁шта	-1957
▁работу	-1958
▁D	-1959
нок	-1960
ове	-1961
▁еди	-1962
телям	-1963
▁Турции	-1964
ови	-1965
ющей	-1966
дан	-1967
нил	-1968
жной	-1969
▁трех	-1970
доров	-1971
▁среди	-1972
вобо	-1973
▁первый	-1974
мон	-1975
▁долларов	-1976
мом	-1977
шем	-1978
шло	-1979
ницы	-1980
▁кар	-1981
▁надо	-1982
▁потому	-1983
пин	-1984
▁кла	-1985
▁тоже	-1986
▁Между	-1987
▁ти	-1988
▁наде	-1989
цени	-1990
▁тур	-1991
▁свой	-1992
▁предлага	-1993
берна	-1994
муще	-1995
неш	-1996
▁специаль	-1997
ющим	-1998
▁увер	-1999
▁намер	-2000
,2	-2001
▁Ри	-2002
▁24	-2003
хва	-2004
лега	-2005
▁Му	-2006
▁ге	-2007
▁пенси	-2008
▁частности	-2009
овый	-2010
▁поясни	-2011
at	-2012
дж	-2013
шла	-2014
▁вним	-2015
мии	-2016
ссия	-2017
▁РИА	-2018
▁удалось	-2019
вое	-2020
зии	-2021
▁100	-2022
рить	-2023
▁член	-2024
▁предлож	-2025
доб	-2026
▁столи	-2027
▁доста	-2028
▁работ	-2029
▁ссылкой	-2030
▁районе	-2031
жды	-2032
кто	-2033
Ин	-2034
дви	-2035
ro	-2036
▁мне	-2037
проек	-2038
▁регу	-2039
▁своего	-2040
▁тот	-2041
▁реко	-2042
▁ситуации	-2043
личи	-2044
част	-2045
вание	-2046
▁стоимо	-2047
йдет	-2048
▁инвести	-2049
пуска	-2050
▁ха	-2051
▁Минист	-2052
▁ближай	-2053
▁Бу	-2054
▁обе	-2055
▁которое	-2056
-201	-2057
▁места	-2058
лимпий	-2059
▁лидер	-2060
обе	-2061
ферен	-2062
▁взры	-2063
ат	-2064
▁Пет	-2065
▁сез	-2066
руют	-2067
▁Кра	-2068
▁тогда	-2069
▁течение	-2070
кси	-2071
▁50	-2072
▁публи	-2073
няя	-2074
▁Лу	-2075
▁дня	-2076
▁вот	-2077
▁иде	-2078
▁здесь	-2079
ссажи	-2080
ждение	-2081
▁энер	-2082
▁группы	-2083
▁очередь	-2084
▁требов	-2085
▁заня	-2086
▁срав	-2087
▁верси	-2088
принима	-2089
нача	-2090
нец	-2091
▁закры	-2092
рю	-2093
▁Мурман	-2094
шед	-2095
ТО	-2096
▁оцен	-2097
▁вместе	-2098
▁расследов	-2099
▁контра	-2100
▁гос	-2101
▁ны	-2102
чил	-2103
ница	-2104
▁законода	-2105
зования	-2106
▁известно	-2107
▁Ту	-2108
▁ребен	-2109
,6	-2110
ствии	-2111
▁мень	-2112
▁мину	-2113
▁зем	-2114
▁сло	-2115
▁замести	-2116
▁ожида	-2117
▁E	-2118
шки	-2119
▁собира	-2120
мя	-2121
▁ху	-2122
жении	-2123
▁деньги	-2124
ссий	-2125
▁лиц	-2126
▁полиции	-2127
▁199	-2128
▁треть	-2129
езд	-2130
▁дене	-2131
ленных	-2132
▁теперь	-2133
▁ини	-2134
▁спортсмен	-2135
еть	-2136
бро	-2137
▁лег	-2138
сколь	-2139
▁находится	-2140
рес	-2141
пита	-2142
фици	-2143
роприя	-2144
мости	-2145
▁смер	-2146
▁профе	-2147
▁стала	-2148
▁выступа	-2149
▁голосов	-2150
мест	-2151
чка	-2152
На	-2153
▁пор	-2154
▁привле	-2155
▁проект	-2156
▁системы	-2157
▁Вер	-2158
▁предложи	-2159
▁права	-2160
▁Ев	-2161
анов	-2162
видет	-2163
шой	-2164
▁сразу	-2165
телями	-2166
▁начала	-2167
кую	-2168
▁Ха	-2169
▁технологи	-2170
▁суда	-2171
чера	-2172
▁постав	-2173
льным	-2174
прово	-2175
▁европей	-2176
лев	-2177
▁това	-2178
руется	-2179
▁23	-2180
▁эту	-2181
ху	-2182
слав	-2183
лением	-2184
бова	-2185
лит	-2186
▁избира	-2187
▁рассказа	-2188
▁Ав	-2189
▁стре	-2190
ственный	-2191
щие	-2192
▁одно	-2193
▁суде	-2194
▁таких	-2195
▁всегда	-2196
▁фото	-2197
шенко	-2198
▁подоб	-2199
▁производи	-2200
лений	-2201
▁нового	-2202
им	-2203
,3	-2204
дит	-2205
▁пун	-2206
овая	-2207
емых	-2208
▁кино	-2209
▁дополни	-2210
ссо	-2211
▁реаль	-2212
▁бизнес	-2213
▁средства	-2214
рева	-2215
▁Герм	-2216
▁парт	-2217
▁котором	-2218
▁комитета	-2219
тать	-2220
▁новых	-2221
▁уточ	-2222
▁этим	-2223
▁услу	-2224
боль	-2225
▁Вели	-2226
▁эффек	-2227
▁русс	-2228
▁выпла	-2229
▁конфли	-2230
,7	-2231
фика	-2232
▁наблю	-2233
фак	-2234
цин	-2235
менти	-2236
▁премьер	-2237
▁банков	-2238
точно	-2239
▁мероприя	-2240
▁спа	-2241
рения	-2242
скольку	-2243
чества	-2244
▁российской	-2245
▁Бы	-2246
▁Сле	-2247
▁воору	-2248
▁Никола	-2249
▁месте	-2250
▁струк	-2251
стер	-2252
▁пря	-2253
▁кварти	-2254
▁дел	-2255
обра	-2256
▁убий	-2257
ИД	-2258
▁H	-2259
▁неде	-2260
▁исследов	-2261
▁качестве	-2262
верси	-2263
вала	-2264
▁сделать	-2265
▁Ду	-2266
▁поряд	-2267
▁решения	-2268
▁начале	-2269
шую	-2270
стой	-2271
льная	-2272
дним	-2273
▁сирий	-2274
▁пассажи	-2275
co	-2276
▁годы	-2277
▁Алексей	-2278
▁Она	-2279
▁внут	-2280
▁музы	-2281
▁тури	-2282
▁бес	-2283
▁генера	-2284
тера	-2285
▁две	-2286
▁посе	-2287
▁хозя	-2288
▁чего	-2289
▁последние	-2290
ществ	-2291
▁28	-2292
▁миллиар	-2293
▁количество	-2294
гов	-2295
▁сайте	-2296
▁мя	-2297
▁министр	-2298
▁бра	-2299
номо	-2300
▁тяже	-2301
▁стоит	-2302
▁прошлого	-2303
жде	-2304
▁отношения	-2305
вую	-2306
охрани	-2307
хра	-2308
▁изд	-2309
,4	-2310
▁став	-2311
▁рынке	-2312
▁августа	-2313
тарь	-2314
▁итогам	-2315
▁использова	-2316
хран	-2317
▁сти	-2318
▁например	-2319
пли	-2320
▁деятельности	-2321
сточ	-2322
ag	-2323
▁разре	-2324
▁директор	-2325
▁ответствен	-2326
лой	-2327
юз	-2328
сам	-2329
шта	-2330
гии	-2331
▁МВД	-2332
▁ней	-2333
▁соста	-2334
▁агентство	-2335
еди	-2336
чат	-2337
лити	-2338
▁хотя	-2339
▁правительство	-2340
▁спор	-2341
▁обрати	-2342
неф	-2343
▁опас	-2344
▁семь	-2345
▁получил	-2346
▁возбу	-2347
▁аэропо	-2348
ходов	-2349
стью	-2350
▁всем	-2351
▁возду	-2352
▁отра	-2353
▁возра	-2354
▁миров	-2355
жного	-2356
ено	-2357
пере	-2358
▁трен	-2359
▁период	-2360
нице	-2361
▁городе	-2362
дно	-2363
летний	-2364
▁рынка	-2365
▁внутрен	-2366
зин	-2367
▁фа	-2368
▁оцени	-2369
▁(1	-2370
▁МИД	-2371
▁поэтому	-2372
▁Его	-2373
▁видео	-2374
▁пять	-2375
тной	-2376
веден	-2377
▁пово	-2378
первые	-2379
▁нефти	-2380
▁распро	-2381
По	-2382
зма	-2383
▁прогно	-2384
,8	-2385
гру	-2386
лег	-2387
▁находя	-2388
▁Иго	-2389
▁ши	-2390
▁уче	-2391
ым	-2392
▁инициа	-2393
▁взя	-2394
▁второй	-2395
няет	-2396
ходят	-2397
▁Москов	-2398
▁новый	-2399
▁боеви	-2400
▁оружи	-2401
▁чинов	-2402
▁которую	-2403
вари	-2404
▁отмечает	-2405
▁попу	-2406
▁нынеш	-2407
▁масс	-2408
▁добавил	-2409
лета	-2410
▁подчеркнул	-2411
▁выз	-2412
▁руководи	-2413
жать	-2414
▁нео	-2415
▁сту	-2416
▁выро	-2417
шу	-2418
▁конкур	-2419
▁позволя	-2420
is	-2421
оны	-2422
ником	-2423
рование	-2424
казывает	-2425
нин	-2426
рят	-2427
▁26	-2428
▁27	-2429
▁аль	-2430
форми	-2431
▁пост	-2432
ант	-2433
кар	-2434
щую	-2435
ритан	-2436
чает	-2437
▁диа	-2438
ваются	-2439
▁совершен	-2440
▁должна	-2441
,1	-2442
стоян	-2443
▁бар	-2444
▁новые	-2445
▁москов	-2446
ствуют	-2447
▁такие	-2448
▁V	-2449
▁дума	-2450
ленные	-2451
▁компаний	-2452
▁настоящее	-2453
ус	-2454
▁июля	-2455
▁Россию	-2456
▁банк	-2457
▁Президент	-2458
роят	-2459
лекана	-2460
тельным	-2461
игра	-2462
▁бло	-2463
водит	-2464
чении	-2465
▁мире	-2466
▁рассмо	-2467
шет	-2468
▁каса	-2469
бин	-2470
▁Согла	-2471
▁примен	-2472
▁собы	-2473
юза	-2474
▁помощи	-2475
▁господин	-2476
сить	-2477
▁современ	-2478
обре	-2479
обще	-2480
▁полицей	-2481
ровки	-2482
▁непо	-2483
▁поскольку	-2484
▁Оба	-2485
▁пользова	-2486
il	-2487
конча	-2488
ква	-2489
▁отде	-2490
▁уровне	-2491
▁мир	-2492
▁процесс	-2493
▁миллионов	-2494
ходы	-2495
▁неу	-2496
пада	-2497
прос	-2498
шению	-2499
того	-2500
траф	-2501
▁состав	-2502
▁проекта	-2503
▁Федерации	-2504
ol	-2505
▁своем	-2506
▁написа	-2507
рина	-2508
▁вице	-2509
▁спец	-2510
▁внеш	-2511
▁имеет	-2512
▁Сто	-2513
ведения	-2514
▁Украине	-2515
дия	-2516
стров	-2517
▁нашей	-2518
▁совмест	-2519
▁получили	-2520
▁объяви	-2521
▁большин	-2522
рое	-2523
▁ООН	-2524
▁станет	-2525
▁работать	-2526
▁Глава	-2527
лети	-2528
тайте	-2529
▁прак	-2530
▁забо	-2531
▁проблемы	-2532
ента	-2533
▁ген	-2534
▁внимание	-2535
▁представля	-2536
▁зам	-2537
▁возвра	-2538
▁правоохрани	-2539
комп	-2540
вока	-2541
▁кризи	-2542
▁прин	-2543
терфак	-2544
▁верну	-2545
▁ничего	-2546
▁СК	-2547
▁дней	-2548
▁района	-2549
ion	-2550
мена	-2551
▁Андрей	-2552
▁29	-2553
▁неиз	-2554
▁кажды	-2555
▁потом	-2556
▁истории	-2557
us	-2558
рее	-2559
▁выс	-2560
▁род	-2561
льное	-2562
▁приве	-2563
▁рост	-2564
ктор	-2565
▁акти	-2566
▁ведомства	-2567
▁телекана	-2568
▁одна	-2569
ческая	-2570
цов	-2571
▁Ди	-2572
▁увеличи	-2573
ятся	-2574
▁различ	-2575
el	-2576
▁выда	-2577
▁губерна	-2578
тая	-2579
дется	-2580
▁писа	-2581
▁этому	-2582
тый	-2583
▁Европы	-2584
▁жизнь	-2585
▁предпринима	-2586
СК	-2587
овым	-2588
am	-2589
▁тон	-2590
▁считают	-2591
шать	-2592
▁экспо	-2593
▁данные	-2594
▁конечно	-2595
▁полностью	-2596
▁законопроек	-2597
▁тради	-2598
ственные	-2599
▁сборной	-2600
▁сф	-2601
лых	-2602
▁вза	-2603
▁Поэтому	-2604
док	-2605
▁норма	-2606
▁понима	-2607
▁информацию	-2608
тых	-2609
вый	-2610
мин	-2611
лана	-2612
▁требу	-2613
▁здоров	-2614
▁пят	-2615
▁Кар	-2616
▁терак	-2617
▁Серге	-2618
▁народ	-2619
били	-2620
тные	-2621
▁представ	-2622
нами	-2623
▁Иван	-2624
▁снизи	-2625
▁кру	-2626
▁техни	-2627
▁кана	-2628
тябре	-2629
ум	-2630
▁запрещен	-2631
чены	-2632
▁медицин	-2633
еты	-2634
▁ним	-2635
▁добы	-2636
▁иску	-2637
кро	-2638
▁ал	-2639
▁программы	-2640
▁жа	-2641
▁наи	-2642
▁администрации	-2643
▁другой	-2644
▁просмот	-2645
мар	-2646
▁сцен	-2647
▁связан	-2648
чая	-2649
жный	-2650
▁Евг	-2651
▁тому	-2652
рошенко	-2653
,9	-2654
сок	-2655
▁коллек	-2656
▁прошлом	-2657
▁поддержи	-2658
▁получить	-2659
доро	-2660
▁хи	-2661
▁мог	-2662
что	-2663
▁объем	-2664
▁самых	-2665
вшей	-2666
нить	-2667
щиков	-2668
собо	-2669
▁ситуация	-2670
▁оппози	-2671
▁составляет	-2672
дент	-2673
емон	-2674
▁мини	-2675
▁пожа	-2676
▁месяцев	-2677
▁постоян	-2678
▁Глав	-2679
▁фран	-2680
сил	-2681
▁НА	-2682
▁весь	-2683
емокра	-2684
▁бизне	-2685
▁возгла	-2686
▁40	-2687
▁юри	-2688
▁просмотров	-2689
они	-2690
тече	-2691
▁теку	-2692
▁выступи	-2693
можно	-2694
▁близ	-2695
ic	-2696
таль	-2697
▁мощ	-2698
никами	-2699
▁министер	-2700
▁ап	-2701
спек	-2702
▁сай	-2703
дения	-2704
седни	-2705
▁Ста	-2706
▁ракет	-2707
▁Лю	-2708
снов	-2709
▁Когда	-2710
▁гор	-2711
▁живо	-2712
жета	-2713
▁выра	-2714
▁связ	-2715
▁войны	-2716
▁осуществ	-2717
▁мужчи	-2718
▁прокура	-2719
▁населения	-2720
вок	-2721
▁меньше	-2722
▁вари	-2723
▁многие	-2724
▁команды	-2725
еспубли	-2726
▁("	-2727
лии	-2728
▁пам	-2729
▁неда	-2730
прочем	-2731
мир	-2732
чис	-2733
вестия	-2734
▁торгов	-2735
тором	-2736
▁банка	-2737
▁освобо	-2738
За	-2739
▁отве	-2740
▁жителей	-2741
АО	-2742
ок	-2743
ниц	-2744
рок	-2745
▁Восто	-2746
▁одном	-2747
Ба	-2748
▁фун	-2749
▁сами	-2750
▁Ша	-2751
вети	-2752
чать	-2753
▁восстанов	-2754
жем	-2755
▁харак	-2756
▁Госдумы	-2757
50	-2758
▁площад	-2759
льном	-2760
чески	-2761
рови	-2762
▁приводит	-2763
рко	-2764
пор	-2765
ести	-2766
▁процентов	-2767
▁влия	-2768
▁наблюда	-2769
▁экономики	-2770
et	-2771
лга	-2772
▁Клин	-2773
▁службы	-2774
▁впервые	-2775
▁2013	-2776
▁заво	-2777
▁россиян	-2778
их	-2779
сем	-2780
тию	-2781
▁игро	-2782
▁Ира	-2783
▁цены	-2784
▁утвержда	-2785
▁возможности	-2786
ставить	-2787
▁Международ	-2788
зм	-2789
▁нов	-2790
▁сложно	-2791
вым	-2792
▁Мед	-2793
▁превы	-2794
▁вопросы	-2795
кви	-2796
▁поме	-2797
▁начина	-2798
тивных	-2799
▁налог	-2800
▁выборов	-2801
▁группи	-2802
надле	-2803
▁попро	-2804
▁проте	-2805
▁участников	-2806
▁нее	-2807
лла	-2808
▁обвиня	-2809
▁срок	-2810
re	-2811
град	-2812
▁цель	-2813
▁турни	-2814
▁делать	-2815
даря	-2816
жные	-2817
▁Тем	-2818
▁Республи	-2819
зер	-2820
таки	-2821
чным	-2822
▁выборах	-2823
▁Германии	-2824
▁практически	-2825
тей	-2826
ится	-2827
▁полож	-2828
▁транспорт	-2829
вью	-2830
дем	-2831
здни	-2832
слам	-2833
▁Порошенко	-2834
▁бере	-2835
▁началь	-2836
весто	-2837
▁обсужда	-2838
▁приобре	-2839
▁правитель	-2840
баты	-2841
▁страте	-2842
▁Согласно	-2843
▁пяти	-2844
Петербур	-2845
мые	-2846
пора	-2847
▁одним	-2848
анных	-2849
▁покупа	-2850
▁заявила	-2851
жей	-2852
гран	-2853
▁пала	-2854
▁стол	-2855
▁област	-2856
пов	-2857
тирует	-2858
ционной	-2859
▁предполага	-2860
▁сотрудников	-2861
Ка	-2862
поли	-2863
▁отсут	-2864
▁наши	-2865
овом	-2866
▁кры	-2867
▁един	-2868
тили	-2869
▁Ана	-2870
▁сла	-2871
▁доступ	-2872
▁предвари	-2873
нев	-2874
треть	-2875
чета	-2876
▁гри	-2877
▁Санк	-2878
▁измени	-2879
чено	-2880
рованы	-2881
▁парламента	-2882
▁ряд	-2883
▁Россией	-2884
▁финанси	-2885
▁убе	-2886
▁рейтин	-2887
▁политики	-2888
▁принадле	-2889
треб	-2890
▁итоге	-2891
ологи	-2892
▁долго	-2893
▁таким	-2894
▁достаточно	-2895
леп	-2896
фон	-2897
▁число	-2898
лот	-2899
▁часов	-2900
▁кварта	-2901
шить	-2902
▁край	-2903
▁нико	-2904
▁турец	-2905
▁назвал	-2906
▁незакон	-2907
▁праздни	-2908
▁чер	-2909
▁сообщении	-2910
сен	-2911
▁искус	-2912
сур	-2913
кими	-2914
▁Еще	-2915
россий	-2916
▁отправи	-2917
▁Министер	-2918
:1	-2919
▁съ	-2920
▁встречи	-2921
коб	-2922
▁сил	-2923
▁прио	-2924
▁сня	-2925
▁несколь	-2926
▁источник	-2927
мых	-2928
клад	-2929
▁Трамп	-2930
▁полови	-2931
▁размере	-2932
▁террористи	-2933
▁кре	-2934
▁Центра	-2935
▁пригово	-2936
▁сообщила	-2937
▁агентства	-2938
сер	-2939
терфакс	-2940
лях	-2941
▁Чер	-2942
▁теа	-2943
▁представители	-2944
▁кни	-2945
▁меры	-2946
сро	-2947
вого	-2948
стам	-2949
ципа	-2950
▁упа	-2951
▁поня	-2952
▁военно	-2953
▁интервью	-2954
▁министра	-2955
▁Ъ	-2956
веро	-2957
▁бюджета	-2958
ила	-2959
▁всей	-2960
Из	-2961
▁поне	-2962
▁комплек	-2963
тивно	-2964
▁поте	-2965
▁собой	-2966
▁произошло	-2967
шает	-2968
матиче	-2969
▁Источ	-2970
▁Боль	-2971
▁нефть	-2972
▁штраф	-2973
▁отстав	-2974
▁обороны	-2975
▁использу	-2976
▁расши	-2977
▁популяр	-2978
▁продолжи	-2979
▁документа	-2980
пуск	-2981
ческим	-2982
▁истори	-2983
уне	-2984
служи	-2985
▁затем	-2986
▁которым	-2987
▁условиях	-2988
цам	-2989
пред	-2990
▁учи	-2991
▁вообще	-2992
▁свидет	-2993
лый	-2994
раб	-2995
▁ЦБ	-2996
чная	-2997
никам	-2998
▁попы	-2999
▁роста	-3000
ционных	-3001
▁Франции	-3002
▁уровень	-3003
▁движения	-3004
▁конкурен	-3005
ону	-3006
▁крупней	-3007
▁иностранных	-3008
▁лучше	-3009
▁британ	-3010
лер	-3011
минист	-3012
тельное	-3013
▁Клинтон	-3014
Ru	-3015
пар	-3016
чку	-3017
▁стар	-3018
▁исполни	-3019
ing	-3020
▁тор	-3021
▁постро	-3022
▁дальней	-3023
более	-3024
▁состо	-3025
▁ситуацию	-3026
шка	-3027
as	-3028
▁дово	-3029
▁неме	-3030
▁какие	-3031
стом	-3032
▁уголовное	-3033
▁улице	-3034
▁примерно	-3035
вли	-3036
▁целом	-3037
▁капита	-3038
▁российские	-3039
ями	-3040
▁помощью	-3041
гна	-3042
▁31	-3043
▁конца	-3044
▁каждый	-3045
▁центре	-3046
лки	-3047
▁францу	-3048
▁Ген	-3049
кобрит	-3050
▁Санкт	-3051
▁дав	-3052
▁постанов	-3053
▁скоро	-3054
Рос	-3055
диви	-3056
ствов	-3057
▁своим	-3058
ционного	-3059
▁пояснил	-3060
▁заявление	-3061
дев	-3062
▁претен	-3063
▁инвесто	-3064
хе	-3065
▁НАТО	-3066
▁ау	-3067
туру	-3068
▁относи	-3069
▁соответству	-3070
тный	-3071
▁клиен	-3072
▁действу	-3073
▁универси	-3074
дий	-3075
▁пишет	-3076
▁Владимира	-3077
▁вну	-3078
▁пара	-3079
▁адвока	-3080
▁встреча	-3081
пря	-3082
▁Ал	-3083
▁втор	-3084
вел	-3085
рпла	-3086
▁изу	-3087
▁раск	-3088
▁интерес	-3089
")	-3090
30	-3091
нему	-3092
секре	-3093
▁первую	-3094
▁УК	-3095
▁российский	-3096
▁Япо	-3097
тного	-3098
▁сети	-3099
▁зависи	-3100
▁проблем	-3101
▁тр	-3102
▁поки	-3103
▁депутат	-3104
▁погибли	-3105
▁сере	-3106
▁обнаружи	-3107
ющая	-3108
▁управля	-3109
▁рассматри	-3110
▁Великобрит	-3111
▁пси	-3112
▁Михаил	-3113
▁зарпла	-3114
▁организация	-3115
▁Воз	-3116
ri	-3117
рез	-3118
▁Пере	-3119
▁сообщалось	-3120
емый	-3121
▁кос	-3122
▁Медве	-3123
▁особенно	-3124
▁професси	-3125
дума	-3126
аксима	-3127
льзя	-3128
▁опро	-3129
▁ремон	-3130
▁подписа	-3131
▁проблема	-3132
▁государство	-3133
▁имуще	-3134
▁ей	-3135
▁пись	-3136
▁Трампа	-3137
▁материале	-3138
▁похо	-3139
▁поступи	-3140
▁приходи	-3141
▁следует	-3142
това	-3143
▁новой	-3144
▁действий	-3145
▁шо	-3146
▁какой	-3147
▁первом	-3148
лай	-3149
▁призн	-3150
▁газета	-3151
так	-3152
хани	-3153
▁Дон	-3154
▁клю	-3155
▁учре	-3156
▁пои	-3157
▁хорошо	-3158
▁понедель	-3159
▁ведь	-3160
▁часто	-3161
▁заявили	-3162
▁промышлен	-3163
▁жерт	-3164
▁Впрочем	-3165
ou	-3166
▁мало	-3167
▁пользу	-3168
▁производства	-3169
▁низ	-3170
▁люби	-3171
▁совета	-3172
ина	-3173
емой	-3174
▁комму	-3175
▁проводи	-3176
вета	-3177
вченко	-3178
▁Российской	-3179
":	-3180
ССР	-3181
▁ава	-3182
▁речь	-3183
сад	-3184
▁выше	-3185
зах	-3186
дово	-3187
▁судеб	-3188
▁присут	-3189
▁читайте	-3190
▁либо	-3191
▁помощь	-3192
▁подозрева	-3193
▁действительно	-3194
порт	-3195
сшта	-3196
▁язы	-3197
шествия	-3198
▁Путина	-3199
▁вырази	-3200
сной	-3201
▁партнер	-3202
сп	-3203
▁указ	-3204
▁физи	-3205
сит	-3206
дать	-3207
▁вас	-3208
▁слож	-3209
▁проведения	-3210
▁чув	-3211
▁данных	-3212
▁республики	-3213
вар	-3214
цами	-3215
▁сли	-3216
▁тысячи	-3217
▁использов	-3218
реги	-3219
▁собра	-3220
▁останов	-3221
тят	-3222
▁Мино	-3223
▁мэ	-3224
▁дер	-3225
клады	-3226
▁делу	-3227
БК	-3228
экономи	-3229
▁пятницу	-3230
вом	-3231
банка	-3232
▁худо	-3233
бороны	-3234
▁рынок	-3235
▁система	-3236
▁сказать	-3237
▁поддержа	-3238
НР	-3239
▁Ло	-3240
▁Эр	-3241
тива	-3242
няется	-3243
▁секре	-3244
▁работе	-3245
▁сторон	-3246
▁стоимость	-3247
▁деле	-3248
▁барре	-3249
▁начали	-3250
▁ответи	-3251
▁Источник	-3252
▁сотрудники	-3253
▁СССР	-3254
▁трав	-3255
▁хозяй	-3256
▁отдель	-3257
▁посети	-3258
тья	-3259
пром	-3260
▁мага	-3261
▁позд	-3262
▁Александра	-3263
стати	-3264
▁китай	-3265
▁среду	-3266
▁большой	-3267
куп	-3268
▁Север	-3269
тые	-3270
мимо	-3271
тря	-3272
▁нач	-3273
▁уси	-3274
▁раза	-3275
▁полага	-3276
▁рекомен	-3277
▁предприятия	-3278
Са	-3279
дя	-3280
гах	-3281
бора	-3282
▁бом	-3283
▁арен	-3284
▁доби	-3285
▁взаимо	-3286
▁выступ	-3287
▁группа	-3288
рудов	-3289
▁следова	-3290
Мы	-3291
щу	-3292
вшая	-3293
▁След	-3294
▁камп	-3295
▁Игорь	-3296
бло	-3297
▁Гу	-3298
▁фина	-3299
▁Крыма	-3300
▁Среди	-3301
▁возник	-3302
▁Крем	-3303
▁важно	-3304
▁голов	-3305
▁наших	-3306
▁никто	-3307
▁Дональ	-3308
емого	-3309
щается	-3310
▁версии	-3311
▁устрой	-3312
▁прожи	-3313
ел	-3314
▁сфере	-3315
▁форми	-3316
▁ИГ	-3317
▁ООО	-3318
▁еже	-3319
смотря	-3320
▁произошел	-3321
Во	-3322
лору	-3323
▁Москва	-3324
▁выстав	-3325
бар	-3326
вшим	-3327
▁Бер	-3328
▁говорят	-3329
Мо	-3330
вей	-3331
коми	-3332
▁сель	-3333
▁месяца	-3334
▁согласи	-3335
лимпиа	-3336
▁форма	-3337
▁потеря	-3338
▁институ	-3339
▁интернет	-3340
▁опубликова	-3341
▁самом	-3342
кса	-3343
▁In	-3344
▁Ну	-3345
след	-3346
чное	-3347
тивной	-3348
▁напад	-3349
катери	-3350
▁двига	-3351
▁миниму	-3352
▁ребенка	-3353
▁несмотря	-3354
▁Re	-3355
▁Бори	-3356
▁сдел	-3357
гом	-3358
▁баз	-3359
леппо	-3360
ностей	-3361
▁такое	-3362
▁четырех	-3363
▁вооружен	-3364
▁глу	-3365
▁огром	-3366
▁первого	-3367
▁работает	-3368
раво	-3369
▁конц	-3370
▁собе	-3371
▁Алеппо	-3372
ace	-3373
анные	-3374
▁Подроб	-3375
▁такого	-3376
▁порядка	-3377
бай	-3378
вез	-3379
▁Совета	-3380
▁закона	-3381
▁органов	-3382
под	-3383
▁обу	-3384
шлось	-3385
▁изменения	-3386
▁расположен	-3387
▁Ти	-3388
ew	-3389
age	-3390
шему	-3391
▁смогут	-3392
▁цитирует	-3393
▁образования	-3394
лах	-3395
▁сме	-3396
ниципа	-3397
▁неболь	-3398
▁пенсион	-3399
▁проходи	-3400
▁Савченко	-3401
▁понедельник	-3402
▁Аб	-3403
▁ВВ	-3404
ственным	-3405
щим	-3406
▁внес	-3407
▁имени	-3408
▁объяв	-3409
▁заявля	-3410
▁бро	-3411
льную	-3412
▁силы	-3413
▁дипло	-3414
:0	-3415
ir	-3416
ent	-3417
▁The	-3418
▁первой	-3419
▁перево	-3420
▁принци	-3421
▁X	-3422
шинг	-3423
▁денег	-3424
▁вели	-3425
▁нако	-3426
▁Красно	-3427
▁вероят	-3428
▁заместитель	-3429
▁ск	-3430
лять	-3431
▁золо	-3432
▁сыгра	-3433
▁аппара	-3434
▁неизвест	-3435
ый	-3436
▁выход	-3437
▁уверен	-3438
▁Украина	-3439
▁четверг	-3440
чном	-3441
▁газа	-3442
▁дом	-3443
▁Фото	-3444
▁узна	-3445
▁обнару	-3446
▁спу	-3447
▁роль	-3448
▁операции	-3449
▁сте	-3450
▁тен	-3451
▁арти	-3452
▁департа	-3453
▁потреби	-3454
▁провести	-3455
▁нескольких	-3456
дим	-3457
▁аб	-3458
спон	-3459
ющее	-3460
ческое	-3461
▁Новые	-3462
▁могли	-3463
▁вол	-3464
тех	-3465
бран	-3466
▁комиссии	-3467
▁вок	-3468
▁пора	-3469
ционный	-3470
▁сохрани	-3471
▁собеседни	-3472
▁Ге	-3473
скрес	-3474
▁Верхов	-3475
▁россия	-3476
анный	-3477
▁опубликов	-3478
▁ль	-3479
▁объяс	-3480
▁успеш	-3481
▁положи	-3482
▁культуры	-3483
бере	-3484
▁Алек	-3485
ческую	-3486
▁валют	-3487
▁выясни	-3488
▁задержа	-3489
▁касается	-3490
СБ	-3491
▁веду	-3492
▁стату	-3493
▁уровня	-3494
▁колле	-3495
вшись	-3496
▁нельзя	-3497
Еди	-3498
зор	-3499
▁никогда	-3500
▁комплекс	-3501
▁являются	-3502
▁нарушения	-3503
защи	-3504
шком	-3505
зация	-3506
▁2012	-3507
▁вторник	-3508
▁строительство	-3509
▁Im	-3510
ссоциа	-3511
▁самолета	-3512
риа	-3513
езда	-3514
▁наро	-3515
▁допин	-3516
▁Европе	-3517
▁электрон	-3518
ap	-3519
лле	-3520
сона	-3521
▁опла	-3522
▁спро	-3523
▁взрыв	-3524
▁карти	-3525
гры	-3526
иль	-3527
▁геро	-3528
гети	-3529
▁кате	-3530
шением	-3531
Интерфакс	-3532
ест	-3533
лоу	-3534
тел	-3535
нили	-3536
▁сорев	-3537
город	-3538
▁переговоры	-3539
АС	-3540
енко	-3541
▁пропа	-3542
▁Например	-3543
зит	-3544
дение	-3545
▁силу	-3546
▁невоз	-3547
▁помога	-3548
▁пройдет	-3549
▁преступления	-3550
▁(2	-3551
▁Пи	-3552
▁км	-3553
тивного	-3554
▁конкре	-3555
▁предупре	-3556
▁некоторые	-3557
▁важ	-3558
▁список	-3559
риф	-3560
▁ото	-3561
▁строительства	-3562
бир	-3563
.201	-3564
банк	-3565
станавли	-3566
▁муниципа	-3567
▁независи	-3568
▁руководитель	-3569
лые	-3570
▁води	-3571
▁выво	-3572
▁говорить	-3573
▁находятся	-3574
▁акции	-3575
тельную	-3576
▁стратеги	-3577
ЧС	-3578
каде	-3579
▁тут	-3580
стями	-3581
мая	-3582
одно	-3583
тром	-3584
чную	-3585
▁выде	-3586
▁выну	-3587
▁учен	-3588
▁зарабо	-3589
▁Известия	-3590
лда	-3591
▁Ча	-3592
▁Таким	-3593
▁Тогда	-3594
▁бежен	-3595
▁ресур	-3596
▁принято	-3597
▁француз	-3598
▁инци	-3599
▁отмен	-3600
▁Поль	-3601
▁сумму	-3602
сах	-3603
▁особо	-3604
▁требования	-3605
ждено	-3606
▁оборудов	-3607
помина	-3608
ченных	-3609
▁наказ	-3610
▁фонда	-3611
▁бизнеса	-3612
▁Чи	-3613
▁поко	-3614
▁посвя	-3615
▁бывший	-3616
▁препара	-3617
▁председатель	-3618
▁зри	-3619
▁дере	-3620
▁органа	-3621
зем	-3622
лок	-3623
▁Совет	-3624
▁членов	-3625
▁памят	-3626
▁мужчина	-3627
▁поддержку	-3628
жар	-3629
тил	-3630
▁ор	-3631
▁РБК	-3632
▁пору	-3633
тивные	-3634
▁Пес	-3635
ляции	-3636
▁многих	-3637
суль	-3638
▁Поли	-3639
ленный	-3640
служба	-3641
тельная	-3642
▁корруп	-3643
▁состоянии	-3644
▁O	-3645
мый	-3646
сят	-3647
юсь	-3648
▁пес	-3649
ломет	-3650
▁поводу	-3651
▁сим	-3652
▁деву	-3653
▁быстро	-3654
креп	-3655
▁оши	-3656
▁ниже	-3657
▁сравнению	-3658
гип	-3659
▁вов	-3660
▁дра	-3661
ледова	-3662
потреб	-3663
▁катего	-3664
▁сможет	-3665
▁Екатери	-3666
▁разработ	-3667
ТП	-3668
▁пунк	-3669
▁функ	-3670
естива	-3671
▁самого	-3672
▁оказыва	-3673
▁Националь	-3674
▁60	-3675
▁миллиона	-3676
еру	-3677
чай	-3678
▁сопер	-3679
▁данный	-3680
▁чемпионата	-3681
▁Пе	-3682
▁Фе	-3683
сток	-3684
полне	-3685
ровано	-3686
▁разных	-3687
▁спорта	-3688
роз	-3689
▁давно	-3690
▁случай	-3691
нюю	-3692
▁Гре	-3693
▁почему	-3694
▁остается	-3695
▁Минобороны	-3696
менты	-3697
▁цена	-3698
▁случи	-3699
▁главный	-3700
▁объясни	-3701
▁Жи	-3702
▁сих	-3703
▁направи	-3704
▁благодаря	-3705
▁коло	-3706
ровала	-3707
▁заверши	-3708
▁регионе	-3709
ПР	-3710
вати	-3711
▁вся	-3712
▁воскрес	-3713
▁полномо	-3714
▁составе	-3715
▁зап	-3716
чили	-3717
▁Image	-3718
▁станови	-3719
▁минут	-3720
▁перио	-3721
▁проведен	-3722
вался	-3723
рабаты	-3724
▁согласно	-3725
телю	-3726
правед	-3727
службе	-3728
▁Андре	-3729
ch	-3730
нию	-3731
▁суббо	-3732
▁Подробнее	-3733
▁соглашения	-3734
▁U	-3735
беж	-3736
▁МЧС	-3737
▁скры	-3738
▁рубля	-3739
▁выборы	-3740
▁столич	-3741
▁военных	-3742
леко	-3743
праведли	-3744
чик	-3745
▁улуч	-3746
▁организаций	-3747
ia	-3748
бом	-3749
лка	-3750
▁$1	-3751
вили	-3752
сколько	-3753
ференции	-3754
ed	-3755
рого	-3756
вались	-3757
▁самым	-3758
ственная	-3759
▁ат	-3760
удов	-3761
▁результаты	-3762
▁Экс	-3763
секретарь	-3764
▁сообщается	-3765
▁Кри	-3766
▁клуба	-3767
▁масшта	-3768
ственное	-3769
▁деятельность	-3770
лн	-3771
вто	-3772
кер	-3773
енти	-3774
▁скан	-3775
▁каждо	-3776
▁практи	-3777
▁принять	-3778
▁процеду	-3779
-3	-3780
форм	-3781
▁соц	-3782
летов	-3783
предели	-3784
▁представителей	-3785
дали	-3786
емые	-3787
▁ска	-3788
▁анали	-3789
▁Вашинг	-3790
▁депутатов	-3791
▁вам	-3792
чению	-3793
▁Прави	-3794
▁ключе	-3795
▁подпис	-3796
im	-3797
энер	-3798
тации	-3799
▁Киев	-3800
▁потен	-3801
▁продукции	-3802
жит	-3803
щать	-3804
стами	-3805
▁Донба	-3806
▁месяц	-3807
▁никаких	-3808
▁условия	-3809
▁отношений	-3810
ad	-3811
чит	-3812
ньше	-3813
▁запад	-3814
зирован	-3815
:2	-3816
вори	-3817
.2016	-3818
▁достиг	-3819
▁механи	-3820
▁рассчиты	-3821
▁автомобилей	-3822
▁шан	-3823
▁2011	-3824
▁уничто	-3825
▁аналоги	-3826
▁использовать	-3827
мень	-3828
▁най	-3829
пущен	-3830
▁выигра	-3831
▁готовы	-3832
▁пригла	-3833
▁президентом	-3834
новь	-3835
▁марш	-3836
▁арест	-3837
▁Песков	-3838
▁соревнов	-3839
дает	-3840
анной	-3841
чиков	-3842
▁девя	-3843
анитар	-3844
▁Сергея	-3845
▁Теперь	-3846
▁Коми	-3847
▁семей	-3848
смотрен	-3849
▁раньше	-3850
спекти	-3851
▁вчера	-3852
▁немец	-3853
▁километ	-3854
тник	-3855
▁демон	-3856
министр	-3857
▁бывшего	-3858
▁сегодняш	-3859
▁Представи	-3860
емся	-3861
▁инфра	-3862
▁Евросо	-3863
▁молоде	-3864
▁недели	-3865
нах	-3866
гули	-3867
▁свет	-3868
▁серви	-3869
▁Би	-3870
циях	-3871
▁Пар	-3872
▁гон	-3873
▁доказа	-3874
▁магази	-3875
▁совсем	-3876
▁позиции	-3877
▁придется	-3878
▁Лон	-3879
▁2018	-3880
▁июня	-3881
▁напом	-3882
▁владель	-3883
▁свободы	-3884
▁переговоров	-3885
pp	-3886
un	-3887
летнего	-3888
▁комитет	-3889
▁происходит	-3890
жает	-3891
▁всю	-3892
▁эксперты	-3893
▁полномочи	-3894
пить	-3895
▁труд	-3896
▁высоко	-3897
▁мигран	-3898
:00	-3899
кли	-3900
нефти	-3901
▁куда	-3902
▁судь	-3903
▁найти	-3904
▁непри	-3905
единен	-3906
▁властей	-3907
▁демокра	-3908
куль	-3909
туре	-3910
щему	-3911
интере	-3912
▁поста	-3913
эн	-3914
ланд	-3915
▁оно	-3916
▁Интер	-3917
▁санкции	-3918
▁корпора	-3919
▁воскресень	-3920
▁Раз	-3921
дирек	-3922
▁Олег	-3923
▁фоне	-3924
▁годов	-3925
▁матча	-3926
▁наиболее	-3927
ционные	-3928
▁борьбе	-3929
▁Олимпиа	-3930
▁коммента	-3931
▁тонн	-3932
▁оказался	-3933
▁35	-3934
леты	-3935
▁странах	-3936
ook	-3937
▁Вол	-3938
▁ката	-3939
▁снова	-3940
▁максима	-3941
▁слишком	-3942
▁тро	-3943
▁роли	-3944
▁вполне	-3945
▁очевид	-3946
▁декабре	-3947
▁фотографи	-3948
▁инфраструк	-3949
лоб	-3950
▁края	-3951
▁услуг	-3952
▁зрения	-3953
▁обстоя	-3954
Ру	-3955
бри	-3956
▁будем	-3957
▁вновь	-3958
▁покуп	-3959
▁Алексе	-3960
▁активно	-3961
▁господина	-3962
.0	-3963
ясь	-3964
гами	-3965
▁дове	-3966
▁ядер	-3967
гой	-3968
▁нуж	-3969
▁воздуш	-3970
▁написал	-3971
▁Кур	-3972
▁центр	-3973
тической	-3974
▁вопросам	-3975
РИА	-3976
дам	-3977
лина	-3978
▁меж	-3979
▁акций	-3980
▁скорее	-3981
▁директора	-3982
▁автомобиль	-3983
еви	-3984
▁обязан	-3985
▁прежде	-3986
дра	-3987
солют	-3988
циона	-3989
тивный	-3990
▁факту	-3991
▁фестива	-3992
▁объектов	-3993
▁свидетель	-3994
Со	-3995
▁тю	-3996
▁десяти	-3997
▁продажи	-3998
▁реализации	-3999
▁Лав	-4000
▁Болга	-4001
▁Лондо	-4002
гер	-4003
▁фигу	-4004
▁рекла	-4005
▁Великобритании	-4006
дро	-4007
мую	-4008
▁зи	-4009
анда	-4010
▁Кер	-4011
▁сом	-4012
▁охра	-4013
▁свер	-4014
▁имеют	-4015
▁маршру	-4016
▁рабочи	-4017
▁фильма	-4018
▁заседании	-4019
▁следствия	-4020
▁автомобиля	-4021
▁мероприятия	-4022
сон	-4023
▁500	-4024
▁прось	-4025
▁машины	-4026
▁Государ	-4027
▁Евгений	-4028
▁бой	-4029
▁вспо	-4030
▁широ	-4031
▁энергети	-4032
кологи	-4033
▁плате	-4034
▁алкого	-4035
регистри	-4036
рили	-4037
ющую	-4038
▁жел	-4039
▁ори	-4040
▁Российская	-4041
ww	-4042
ец	-4043
либо	-4044
▁смы	-4045
вшихся	-4046
тельств	-4047
▁Петербур	-4048
▁планирует	-4049
▁информация	-4050
Ислам	-4051
▁опыт	-4052
личие	-4053
▁окон	-4054
▁отече	-4055
▁национальной	-4056
мор	-4057
нул	-4058
рыв	-4059
ждении	-4060
▁большо	-4061
его	-4062
▁целью	-4063
▁санкций	-4064
зацию	-4065
честве	-4066
▁Амери	-4067
▁преды	-4068
▁пришлось	-4069
▁Аф	-4070
росс	-4071
▁архи	-4072
▁озна	-4073
сматри	-4074
▁парламент	-4075
▁район	-4076
▁семьи	-4077
▁приеха	-4078
▁январе	-4079
▁Джон	-4080
▁жест	-4081
▁шесть	-4082
▁разгово	-4083
▁предостав	-4084
фикси	-4085
▁хочет	-4086
▁юриди	-4087
▁задержан	-4088
▁документы	-4089
гор	-4090
кобы	-4091
щики	-4092
▁фир	-4093
служа	-4094
▁нарко	-4095
▁отчет	-4096
▁школы	-4097
▁команда	-4098
роде	-4099
-2016	-4100
рания	-4101
▁Обще	-4102
▁восто	-4103
▁точки	-4104
▁профессиональ	-4105
▁ДТП	-4106
▁Наде	-4107
▁попыт	-4108
▁дороги	-4109
▁сказала	-4110
▁обнаружен	-4111
▁воскресенье	-4112
стру	-4113
▁Оль	-4114
▁иска	-4115
.00	-4116
▁вид	-4117
▁сет	-4118
дентов	-4119
▁предыду	-4120
▁заявления	-4121
▁документов	-4122
оз	-4123
com	-4124
груз	-4125
▁Поч	-4126
начала	-4127
ционное	-4128
▁невозможно	-4129
▁председателя	-4130
▁K	-4131
джи	-4132
фина	-4133
▁мор	-4134
строи	-4135
▁реда	-4136
▁гаран	-4137
▁фильм	-4138
▁планируется	-4139
▁предусмотрен	-4140
тка	-4141
▁фонд	-4142
регули	-4143
▁здания	-4144
лами	-4145
▁Всего	-4146
▁крити	-4147
▁принял	-4148
▁свобод	-4149
▁процента	-4150
▁развитие	-4151
▁предложения	-4152
▁198	-4153
▁све	-4154
▁жела	-4155
москов	-4156
▁порта	-4157
▁смерти	-4158
чев	-4159
▁вече	-4160
▁рассказывает	-4161
▁экономического	-4162
сия	-4163
▁Май	-4164
ременно	-4165
▁систему	-4166
▁c	-4167
езде	-4168
йдут	-4169
▁Аль	-4170
▁дево	-4171
тран	-4172
▁запа	-4173
▁посо	-4174
▁Китай	-4175
▁самой	-4176
▁молоды	-4177
▁режима	-4178
▁состоится	-4179
ay	-4180
ИК	-4181
лам	-4182
рота	-4183
▁300	-4184
▁Рос	-4185
▁тан	-4186
▁дети	-4187
▁крае	-4188
▁оружия	-4189
дах	-4190
лад	-4191
▁Там	-4192
▁Крым	-4193
▁мето	-4194
▁одну	-4195
альной	-4196
▁транс	-4197
▁недоста	-4198
▁сю	-4199
енин	-4200
▁зару	-4201
▁желез	-4202
▁самый	-4203
▁приняли	-4204
поль	-4205
▁Комп	-4206
▁нефте	-4207
▁заболе	-4208
пан	-4209
▁фору	-4210
▁олимпий	-4211
▁станции	-4212
.1	-4213
вии	-4214
ющими	-4215
▁Юрий	-4216
▁запи	-4217
▁неделе	-4218
▁коро	-4219
▁внутри	-4220
▁столицы	-4221
▁70	-4222
чением	-4223
▁лидера	-4224
▁зафикси	-4225
▁страхов	-4226
▁эксперт	-4227
▁вынужден	-4228
▁некоторых	-4229
восто	-4230
▁Пари	-4231
▁доме	-4232
▁карь	-4233
▁моби	-4234
▁слов	-4235
▁степ	-4236
▁рядом	-4237
▁Европей	-4238
рос	-4239
прем	-4240
чается	-4241
ческом	-4242
▁захва	-4243
▁матче	-4244
▁Николай	-4245
▁предложил	-4246
▁большинство	-4247
обнов	-4248
▁армии	-4249
▁выгля	-4250
▁автобу	-4251
▁активи	-4252
▁партий	-4253
▁участия	-4254
▁футболи	-4255
▁зарегистри	-4256
▁соответствии	-4257
аги	-4258
лян	-4259
ъек	-4260
▁нес	-4261
▁линии	-4262
▁потреб	-4263
▁сканда	-4264
▁получила	-4265
СКА	-4266
▁одоб	-4267
▁годах	-4268
▁домаш	-4269
▁замети	-4270
▁включая	-4271
▁образов	-4272
gh	-4273
▁ву	-4274
▁жители	-4275
▁работают	-4276
бка	-4277
▁ночь	-4278
▁марте	-4279
комменти	-4280
▁женщина	-4281
▁площади	-4282
▁посвящен	-4283
▁отды	-4284
довлет	-4285
▁женщин	-4286
▁неодно	-4287
▁производство	-4288
os	-4289
▁л	-4290
▁распоря	-4291
▁составила	-4292
чика	-4293
▁Гри	-4294
▁ата	-4295
▁дво	-4296
▁оде	-4297
▁нало	-4298
▁поле	-4299
▁умер	-4300
▁Медведев	-4301
▁регионов	-4302
▁законопроект	-4303
щер	-4304
book	-4305
ющем	-4306
▁рассмотр	-4307
▁поддержки	-4308
ера	-4309
спи	-4310
нении	-4311
▁космо	-4312
▁нефтя	-4313
▁первые	-4314
▁прокуро	-4315
▁отмечается	-4316
ЭС	-4317
▁кого	-4318
▁лицен	-4319
▁вызыва	-4320
▁прокомменти	-4321
▁распростран	-4322
▁необходимости	-4323
ut	-4324
тек	-4325
цем	-4326
клон	-4327
▁кад	-4328
▁якобы	-4329
▁боевиков	-4330
▁возглавля	-4331
▁рассказала	-4332
▁Face	-4333
▁подраз	-4334
om	-4335
ters	-4336
сами	-4337
чена	-4338
▁Вот	-4339
▁СКР	-4340
▁реак	-4341
▁остан	-4342
▁психо	-4343
▁основе	-4344
роваться	-4345
▁результат	-4346
питали	-4347
▁Отмеча	-4348
▁сильно	-4349
▁минимум	-4350
▁выдви	-4351
▁плана	-4352
ствовали	-4353
▁позволит	-4354
▁конфликта	-4355
▁исследования	-4356
щал	-4357
лень	-4358
годно	-4359
▁лица	-4360
Россия	-4361
▁Макси	-4362
▁взгля	-4363
▁легко	-4364
▁отмечают	-4365
▁привлека	-4366
▁перспекти	-4367
кура	-4368
▁Брю	-4369
▁мед	-4370
▁мере	-4371
▁мета	-4372
▁ликви	-4373
▁начал	-4374
▁решили	-4375
▁довольно	-4376
ot	-4377
мым	-4378
▁80	-4379
▁друг	-4380
▁метров	-4381
▁рассказали	-4382
▁военнослужа	-4383
▁расследования	-4384
▁Рио	-4385
▁вокруг	-4386
40	-4387
дца	-4388
▁Бар	-4389
▁микро	-4390
▁награ	-4391
ствовал	-4392
▁ближайшее	-4393
▁транспорта	-4394
тни	-4395
тым	-4396
▁тай	-4397
▁уви	-4398
▁коле	-4399
▁знако	-4400
▁регуляр	-4401
▁социальной	-4402
:3	-4403
Ма	-4404
ьера	-4405
циями	-4406
▁Пока	-4407
▁значит	-4408
▁субботу	-4409
▁Facebook	-4410
▁ответственности	-4411
▁Эти	-4412
▁уво	-4413
▁хок	-4414
▁Арави	-4415
▁коммер	-4416
▁содерж	-4417
▁столице	-4418
▁составил	-4419
лить	-4420
▁доб	-4421
печат	-4422
▁игры	-4423
▁равно	-4424
▁стади	-4425
ставили	-4426
▁встрече	-4427
▁погибших	-4428
мия	-4429
▁тек	-4430
▁курс	-4431
ленной	-4432
сторон	-4433
▁предъ	-4434
▁взаимодей	-4435
▁пути	-4436
▁оказались	-4437
декс	-4438
ссер	-4439
страи	-4440
▁Более	-4441
▁защиты	-4442
▁неделю	-4443
▁возобнов	-4444
▁основном	-4445
▁эффектив	-4446
ur	-4447
▁Есть	-4448
ющихся	-4449
▁сцена	-4450
▁Констан	-4451
фо	-4452
").	-4453
кор	-4454
▁45	-4455
волю	-4456
▁циф	-4457
▁Этот	-4458
▁факт	-4459
▁лекар	-4460
▁общей	-4461
▁абсолют	-4462
▁соглашение	-4463
рост	-4464
▁связа	-4465
▁Саудов	-4466
▁ФСБ	-4467
▁Вале	-4468
▁Один	-4469
▁сайт	-4470
▁вступи	-4471
ич	-4472
дами	-4473
тным	-4474
▁эле	-4475
▁прямо	-4476
▁радио	-4477
▁соблю	-4478
▁Москву	-4479
▁Олимпий	-4480
▁знамени	-4481
▁создать	-4482
▁контроли	-4483
▁Мир	-4484
▁профи	-4485
▁разру	-4486
▁Именно	-4487
▁середи	-4488
▁феврале	-4489
щает	-4490
▁союз	-4491
▁любой	-4492
▁театра	-4493
▁допусти	-4494
▁Чу	-4495
тает	-4496
▁ЦСКА	-4497
▁клуб	-4498
ходить	-4499
▁гости	-4500
▁напря	-4501
▁пообе	-4502
▁сделал	-4503
▁мировой	-4504
▁обвинения	-4505
▁пассажиров	-4506
зей	-4507
деть	-4508
▁наш	-4509
битра	-4510
▁путе	-4511
▁самое	-4512
▁Информа	-4513
чью	-4514
мана	-4515
тная	-4516
▁сне	-4517
мость	-4518
респон	-4519
▁Чтобы	-4520
▁причаст	-4521
▁сократи	-4522
▁стандар	-4523
000	-4524
▁воды	-4525
службы	-4526
▁выбра	-4527
Извести	-4528
▁осуществля	-4529
дор	-4530
года	-4531
жений	-4532
▁обнов	-4533
▁говорил	-4534
▁инициати	-4535
кина	-4536
▁сожа	-4537
▁присо	-4538
▁департамента	-4539
вин	-4540
▁Мат	-4541
▁дли	-4542
движи	-4543
▁паци	-4544
ментов	-4545
строва	-4546
▁потер	-4547
▁соверши	-4548
мей	-4549
▁режим	-4550
▁обстре	-4551
▁авиакомп	-4552
▁возбуждено	-4553
жал	-4554
▁32	-4555
анта	-4556
лиги	-4557
▁Егип	-4558
ждений	-4559
▁размер	-4560
▁Y	-4561
жением	-4562
способ	-4563
▁топли	-4564
▁хотят	-4565
▁победи	-4566
▁учетом	-4567
▁публика	-4568
▁Отмечается	-4569
кипа	-4570
▁заве	-4571
▁спаса	-4572
▁усили	-4573
▁призвал	-4574
▁определи	-4575
▁снижение	-4576
чек	-4577
жнему	-4578
мотря	-4579
▁порт	-4580
▁заинтере	-4581
▁уголовного	-4582
▁Й	-4583
брь	-4584
▁Нес	-4585
ровер	-4586
▁которому	-4587
"),	-4588
пел	-4589
▁Фи	-4590
купа	-4591
мати	-4592
▁Соб	-4593
▁метро	-4594
▁прием	-4595
▁спортсменов	-4596
▁J	-4597
пон	-4598
скор	-4599
▁той	-4600
▁беспо	-4601
▁недвижи	-4602
▁конструк	-4603
▁международных	-4604
жали	-4605
▁мер	-4606
▁отли	-4607
▁сове	-4608
▁постоянно	-4609
▁участники	-4610
обо	-4611
нули	-4612
▁Без	-4613
▁эпи	-4614
▁испыт	-4615
▁протя	-4616
ленного	-4617
▁Японии	-4618
▁превра	-4619
▁своими	-4620
ФА	-4621
▁Гор	-4622
▁ними	-4623
▁такая	-4624
▁сконча	-4625
▁культур	-4626
▁сообщения	-4627
лота	-4628
нера	-4629
чков	-4630
▁Нью	-4631
▁гро	-4632
▁цер	-4633
рованных	-4634
▁сторону	-4635
▁журналистов	-4636
▁руководство	-4637
▁ответственность	-4638
ждать	-4639
▁чуть	-4640
ставил	-4641
▁Обама	-4642
▁темпера	-4643
▁напомина	-4644
▁кандидатов	-4645
КО	-4646
Ко	-4647
▁поло	-4648
▁Ростов	-4649
▁концер	-4650
тического	-4651
▁голосования	-4652
▁Ши	-4653
▁эфи	-4654
▁верто	-4655
▁смогли	-4656
▁область	-4657
▁проектов	-4658
енса	-4659
▁соцс	-4660
▁утра	-4661
альных	-4662
▁аналити	-4663
▁сентябре	-4664
▁федерального	-4665
луа	-4666
▁вместо	-4667
▁баррель	-4668
▁беженцев	-4669
▁совершенно	-4670
мат	-4671
илла	-4672
кнов	-4673
▁бума	-4674
ложения	-4675
▁экстре	-4676
▁техники	-4677
▁договорен	-4678
▁потребова	-4679
▁российским	-4680
ДД	-4681
дний	-4682
▁App	-4683
тальян	-4684
▁болез	-4685
▁друга	-4686
▁музыка	-4687
▁победу	-4688
▁перевоз	-4689
кло	-4690
тона	-4691
льской	-4692
▁поезд	-4693
фициаль	-4694
▁Виктор	-4695
▁ноябре	-4696
▁отметили	-4697
▁официальный	-4698
Ком	-4699
голо	-4700
▁Бан	-4701
▁гум	-4702
▁сде	-4703
кануне	-4704
▁каких	-4705
▁страх	-4706
▁Белору	-4707
спорт	-4708
▁агре	-4709
▁накануне	-4710
пит	-4711
овое	-4712
стям	-4713
▁Вто	-4714
нется	-4715
эй	-4716
сна	-4717
▁Ад	-4718
март	-4719
▁раскры	-4720
▁кредитов	-4721
▁приходится	-4722
▁органы	-4723
▁позволяет	-4724
▁	-4725
о	-4726
е	-4727
а	-4728
и	-4729
н	-4730
т	-4731
с	-4732
р	-4733
в	-4734
л	-4735
к	-4736
д	-4737
м	-4738
п	-4739
у	-4740
ы	-4741
я	-4742
г	-4743
з	-4744
б	-4745
,	-4746
ь	-4747
й	-4748
ч	-4749
.	-4750
х	-4751
ж	-4752
"	-4753
ц	-4754
ю	-4755
ш	-4756
-	-4757
щ	-4758
С	-4759
ф	-4760
э	-4761
В	-4762
П	-4763
1	-4764
0	-4765
К	-4766
Р	-4767
2	-4768
А	-4769
М	-4770
Н	-4771
О	-4772
И	-4773
Д	-4774
Т	-4775
Б	-4776
:	-4777
e	-4778
Г	-4779
5	-4780
a	-4781
3	-4782
Ф	-4783
(	-4784
)	-4785
o	-4786
6	-4787
4	-4788
У	-4789
r	-4790
Е	-4791
9	-4792
i	-4793
n	-4794
Л	-4795
t	-4796
7	-4797
8	-4798
З	-4799
Э	-4800
Ш	-4801
s	-4802
ъ	-4803
u	-4804
l	-4805
Ч	-4806
%	-4807
Х	-4808
Я	-4809
c	-4810
Ц	-4811
?	-4812
A	-4813
d	-4814
m	-4815
g	-4816
S	-4817
p	-4818
h	-4819
I	-4820
T	-4821
Ж	-4822
L	-4823
C	-4824
R	-4825
Ю	-4826
y	-4827
Ъ	-4828
N	-4829
B	-4830
M	-4831
P	-4832
F	-4833
k	-4834
b	-4835
!	-4836
w	-4837
G	-4838
D	-4839
$	-4840
W	-4841
E	-4842
/	-4843
v	-4844
f	-4845
;	-4846
V	-4847
H	-4848
O	-4849
X	-4850
x	-4851
Й	-4852
U	-4853
z	-4854
J	-4855
K	-4856
­	-4857
+	-4858
Y	-4859
·	-4860
€	-4861
'	-4862
&	-4863
Z	-4864
Щ	-4865
[	-4866
°	-4867
]	-4868
Q	-4869
j	-4870
‐	-4871
>	-4872
і	-4873
―	-4874
*	-4875
q	-4876
Ы	-4877
−	-4878
_	-4879
#	-4880
£	-4881
@	-4882
Ь	-4883
=	-4884
`	-4885
ü	-4886
ä	-4887
ї	-4888
•	-4889
é	-4890
õ	-4891
×	-4892
⁄	-4893
<	-4894
є	-4895
■	-4896
ó	-4897
′	-4898
©	-4899
ö	-4900
→	-4901
́	-4902
‒	-4903
è	-4904
І	-4905
þ	-4906
‬	-4907
\	-4908
~	-4909
É	-4910
ë	-4911
μ	-4912
ў	-4913
‍	-4914
😂	-4915
¦	-4916
¬	-4917
Ö	-4918
à	-4919
Ş	-4920
Ν	-4921
α	-4922
β	-4923
Ў	-4924
қ	-4925
‪	-4926
ç	-4927
ê	-4928
í	-4929
ð	-4930
ô	-4931
ī	-4932
ı	-4933
ŏ	-4934
ś	-4935
Š	-4936
ʀ	-4937
ʼ	-4938
Α	-4939
Η	-4940
ν	-4941
ο	-4942
џ	-4943
ғ	-4944
▲	-4945
⚽	-4946
️	-4947
¤	-4948
¥	-4949
§	-4950
Ë	-4951
ß	-4952
á	-4953
ø	-4954
ā	-4955
ę	-4956
İ	-4957
Ł	-4958
ń	-4959
ş	-4960
š	-4961
̊	-4962
Έ	-4963
Γ	-4964
Σ	-4965
έ	-4966
λ	-4967
ρ	-4968
τ	-4969
χ	-4970
ώ	-4971
Є	-4972
Ї	-4973
ё	-4974
Қ	-4975
ҳ	-4976
ӣ	-4977
∙	-4978
⋅	-4979
─	-4980
►	-4981
●	-4982
☃	-4983
☝	-4984
♫	-4985
❄	-4986
《	-4987
》	-4988
	-4989
🌞	-4990
🍺	-4991
🎂	-4992
🐅	-4993
🐗	-4994
🐺	-4995
💪	-4996
