[UNK]	0
[CLS]	1
[SEP]	2
[PAD]	3
[MASK]	4
!	5
"	6
#	7
$	8
%	9
&	10
'	11
(	12
)	13
*	14
+	15
,	16
-	17
.	18
/	19
0	20
1	21
2	22
3	23
4	24
5	25
6	26
7	27
8	28
9	29
:	30
;	31
<	32
=	33
>	34
?	35
@	36
[	37
\	38
]	39
_	40
`	41
a	42
b	43
c	44
d	45
e	46
f	47
g	48
h	49
i	50
j	51
k	52
l	53
m	54
n	55
o	56
p	57
q	58
r	59
s	60
t	61
u	62
v	63
w	64
x	65
y	66
z	67
~	68
	69
£	70
¤	71
¥	72
¦	73
§	74
©	75
¬	76
­	77
°	78
·	79
×	80
ß	81
à	82
á	83
ä	84
ç	85
è	86
é	87
ê	88
ë	89
í	90
ð	91
ó	92
ô	93
õ	94
ö	95
ø	96
ü	97
þ	98
ā	99
ę	100
ī	101
ı	102
ł	103
ń	104
ŏ	105
ś	106
ş	107
š	108
ʀ	109
ʼ	110
́	111
̆	112
̇	113
̈	114
̊	115
έ	116
α	117
β	118
γ	119
η	120
λ	121
μ	122
ν	123
ο	124
ρ	125
σ	126
τ	127
χ	128
ώ	129
а	130
б	131
в	132
г	133
д	134
е	135
ж	136
з	137
и	138
й	139
к	140
л	141
м	142
н	143
о	144
п	145
р	146
с	147
т	148
у	149
ф	150
х	151
ц	152
ч	153
ш	154
щ	155
ъ	156
ы	157
ь	158
э	159
ю	160
я	161
є	162
і	163
ї	164
ў	165
џ	166
ғ	167
қ	168
ҳ	169
ӣ	170
‍	171
‎	172
‐	173
‒	174
―	175
•	176
‪	177
‬	178
′	179
⁄	180
€	181
→	182
−	183
∙	184
⋅	185
─	186
■	187
▲	188
►	189
●	190
☃	191
☝	192
♫	193
⚽	194
❄	195
《	196
》	197
	198
️	199
🌞	200
🍺	201
🎂	202
🐅	203
🐗	204
🐺	205
💪	206
😂	207
🙈	208
##и	209
##ч	210
##е	211
##к	212
##a	213
##n	214
##d	215
##з	216
##т	217
##а	218
##m	219
##с	220
##п	221
##н	222
##р	223
##в	224
##о	225
##б	226
##й	227
##г	228
##r	229
##e	230
##k	231
##ы	232
##ш	233
##д	234
##o	235
##s	236
##t	237
##ж	238
##м	239
##i	240
##л	241
##ь	242
##у	243
##я	244
##v	245
##p	246
##х	247
##w	248
##l	249
##j	250
##9	251
##э	252
##ф	253
##3	254
##6	255
##z	256
##h	257
##g	258
##ю	259
##u	260
##і	261
##c	262
##y	263
##1	264
##щ	265
##2	266
##ц	267
##5	268
##f	269
##4	270
##b	271
##7	272
##є	273
##̇	274
##0	275
##ʼ	276
##8	277
##ä	278
##x	279
##ó	280
##.	281
##q	282
##õ	283
##ā	284
##é	285
##ў	286
##α	287
##γ	288
##έ	289
##ъ	290
##,	291
##"	292
##ҳ	293
##%	294
##ї	295
##*	296
##$	297
##ş	298
##/	299
##-	300
##+	301
##;	302
##ö	303
##қ	304
##!	305
##)	306
##ғ	307
##ü	308
##:	309
##ç	310
##ώ	311
##μ	312
##ë	313
##?	314
##ð	315
##′	316
##þ	317
##]	318
###	319
##ø	320
##ο	321
##ν	322
##ê	323
##_	324
##à	325
##>	326
##ī	327
##ʀ	328
##η	329
##σ	330
##=	331
##ę	332
##í	333
по	334
##ст	335
на	336
пр	337
##то	338
##ен	339
##ер	340
##ов	341
##ет	342
##ни	343
ов	344
##ан	345
##ел	346
##го	347
но	348
ст	349
ко	350
не	351
##од	352
за	353
ра	354
##ед	355
##ор	356
##ск	357
##ли	358
##ра	359
ит	360
##но	361
##ин	362
об	363
##ль	364
ом	365
##ос	366
ен	367
от	368
##ся	369
ны	370
про	371
##ла	372
##ем	373
ка	374
ни	375
ени	376
из	377
##ко	378
##ал	379
что	380
то	381
##ит	382
ой	383
##ть	384
до	385
ре	386
##ва	387
##ро	388
ил	389
та	390
##ил	391
ан	392
при	393
ол	394
ин	395
##си	396
со	397
вы	398
##ка	399
он	400
это	401
во	402
##ми	403
ли	404
ер	405
##тор	406
##ав	407
бы	408
ор	409
##он	410
##уд	411
год	412
тр	413
ост	414
##ель	415
ей	416
мо	417
ого	418
##ат	419
ал	420
рос	421
ие	422
##во	423
##ти	424
их	425
ар	426
ру	427
##ек	428
##ент	429
ри	430
##ки	431
раз	432
##ци	433
ет	434
##ар	435
ме	436
оп	437
ия	438
##ля	439
##ей	440
пер	441
ро	442
##ес	443
котор	444
од	445
ани	446
##ир	447
пред	448
##ны	449
ци	450
росси	451
##че	452
ить	453
ос	454
##же	455
##ез	456
##ло	457
под	458
##от	459
##об	460
им	461
ий	462
ла	463
##сти	464
ые	465
##ру	466
##жд	467
##ма	468
##да	469
##ле	470
ает	471
##ур	472
ая	473
##ств	474
ых	475
ии	476
лен	477
де	478
ения	479
кон	480
са	481
его	482
ско	483
ах	484
тор	485
##ут	486
так	487
ль	488
как	489
##на	490
ам	491
##сс	492
иче	493
ическ	494
##сь	495
ем	496
ист	497
##сп	498
##ви	499
ать	500
ат	501
ся	502
##ют	503
сл	504
ый	505
ев	506
ных	507
пос	508
стр	509
##ис	510
для	511
вс	512
ник	513
ение	514
##льн	515
##ев	516
##ол	517
ной	518
ком	519
ного	520
##ож	521
ти	522
ав	523
##ча	524
ив	525
итель	526
оз	527
ми	528
ств	529
ую	530
ое	531
ви	532
раб	533
сп	534
те	535
##ги	536
ами	537
ир	538
ть	539
ес	540
буд	541
##та	542
##каз	543
тел	544
се	545
ки	546
##общ	547
##сть	548
да	549
ок	550
##ят	551
##кт	552
нов	553
йск	554
ные	555
пере	556
тер	557
##уп	558
кр	559
вер	560
ный	561
все	562
прав	563
ски	564
работ	565
пре	566
сообщ	567
лени	568
##ее	569
##ект	570
тв	571
ее	572
ля	573
##чн	574
ог	575
ма	576
сто	577
этом	578
##льк	579
ад	580
сво	581
яв	582
ед	583
##уж	584
ста	585
##уч	586
##еч	587
##им	588
бо	589
ым	590
гла	591
пол	592
гов	593
ча	594
говор	595
##ую	596
##ик	597
вед	598
ут	599
су	600
ик	601
мы	602
ск	603
гра	604
гор	605
ур	606
ак	607
##ыв	608
лет	609
гос	610
ран	611
уд	612
ят	613
сам	614
ход	615
комп	616
мир	617
##вн	618
ку	619
ред	620
ек	621
па	622
ва	623
мож	624
кра	625
или	626
ию	627
##бр	628
ания	629
али	630
мен	631
мест	632
также	633
##ход	634
ции	635
ности	636
след	637
руб	638
став	639
##из	640
ай	641
ства	642
##ог	643
ство	644
воз	645
##ул	646
ном	647
##лю	648
мер	649
дент	650
##ран	651
##льш	652
оч	653
каз	654
го	655
ают	656
ской	657
тран	658
вид	659
##дел	660
будет	661
вод	662
же	663
##лен	664
кан	665
##бы	666
лю	667
##ерж	668
уб	669
##ди	670
##рав	671
дел	672
##ре	673
през	674
ель	675
ров	676
году	677
реш	678
рас	679
мет	680
прези	681
мент	682
эк	683
##ных	684
ест	685
они	686
иров	687
##тов	688
лов	689
расс	690
ве	691
нес	692
##ще	693
##не	694
ным	695
ости	696
##ам	697
инт	698
##ган	699
ова	700
оск	701
уже	702
ты	703
##ной	704
##ном	705
ении	706
##ита	707
после	708
##вы	709
##яв	710
тель	711
см	712
иг	713
ность	714
ится	715
пар	716
##ри	717
ное	718
##ющ	719
мин	720
ис	721
тро	722
ду	723
был	724
##ве	725
ива	726
##ша	727
поли	728
ского	729
мл	730
том	731
она	732
орган	733
ков	734
нач	735
ют	736
лож	737
чем	738
##сн	739
##ии	740
уч	741
##яз	742
уча	743
ел	744
чер	745
без	746
##гда	747
дол	748
##емя	749
было	750
город	751
ная	752
вр	753
##екс	754
гол	755
остав	756
чел	757
время	758
оро	759
зна	760
##их	761
интер	762
ость	763
ле	764
##тив	765
##нов	766
##рт	767
##ой	768
челов	769
##де	770
овы	771
мини	772
##ий	773
еще	774
ласти	775
ус	776
чет	777
##ник	778
##ень	779
тольк	780
начал	781
пу	782
##руп	783
может	784
##иц	785
тви	786
##рос	787
рез	788
##ян	789
мог	790
тур	791
уп	792
евро	793
ется	794
если	795
нап	796
##оч	797
ян	798
явил	799
сов	800
ди	801
##ыт	802
ук	803
рем	804
иза	805
##яд	806
ила	807
вла	808
##ябр	809
ании	810
##ня	811
##ом	812
олее	813
кор	814
га	815
##рат	816
стран	817
участ	818
##жду	819
между	820
ап	821
сша	822
цент	823
иц	824
##люч	825
еств	826
аг	827
мат	828
ас	829
бор	830
цион	831
того	832
##те	833
ож	834
ступ	835
ления	836
авто	837
##ось	838
веден	839
аз	840
##ени	841
олж	842
перв	843
сказ	844
##ме	845
минис	846
##ше	847
арств	848
##есс	849
кольк	850
##лик	851
инф	852
##ного	853
##ейс	854
анк	855
изв	856
дет	857
би	858
##ные	859
луч	860
вел	861
зв	862
##руг	863
ло	864
чтобы	865
ную	866
иа	867
вз	868
##ад	869
озм	870
центр	871
озмож	872
коном	873
ается	874
##мен	875
держ	876
тре	877
были	878
уст	879
огла	880
роект	881
##тат	882
кур	883
альн	884
отр	885
ован	886
ский	887
олуч	888
че	889
ому	890
##бор	891
нар	892
рф	893
цен	894
око	895
готов	896
##сто	897
дор	898
тех	899
##ку	900
лед	901
больш	902
госуд	903
род	904
ср	905
над	906
исп	907
св	908
пл	909
тан	910
эти	911
анд	912
ня	913
сир	914
##мм	915
си	916
опрос	917
сред	918
отно	919
ош	920
##ац	921
му	922
атель	923
нт	924
ры	925
народ	926
зд	927
алекс	928
##пи	929
нет	930
ублик	931
фа	932
краин	933
долж	934
сч	935
мар	936
оф	937
ранее	938
ует	939
ремен	940
кл	941
еч	942
##це	943
суд	944
когда	945
ыми	946
ледов	947
ох	948
##ции	949
есть	950
аб	951
дейс	952
ец	953
ений	954
газ	955
##стн	956
тем	957
##тр	958
##анд	959
ид	960
ерт	961
тра	962
##стр	963
перед	964
пут	965
ствен	966
ание	967
ими	968
орма	969
##вер	970
пис	971
вш	972
счита	973
тав	974
##га	975
##му	976
нима	977
мол	978
фед	979
##ным	980
##циа	981
ьтат	982
##ним	983
этого	984
дж	985
##ящ	986
ению	987
годня	988
бу	989
ился	990
полн	991
наз	992
ться	993
эксп	994
ающ	995
кт	996
##ери	997
ряд	998
##час	999
нас	1000
ейчас	1001
явля	1002
асс	1003
ными	1004
осси	1005
##чин	1006
резул	1007
полит	1008
груп	1009
ольш	1010
групп	1011
жд	1012
##ив	1013
опер	1014
хо	1015
##зов	1016
отруд	1017
ловам	1018
отнош	1019
ез	1020
влади	1021
енно	1022
ление	1023
ке	1024
стал	1025
тся	1026
наш	1027
##ясн	1028
орт	1029
кла	1030
сед	1031
ала	1032
##мер	1033
иться	1034
гр	1035
ыва	1036
##ина	1037
опа	1038
неф	1039
ень	1040
торон	1041
чис	1042
изаци	1043
овал	1044
нару	1045
ивн	1046
ru	1047
##ста	1048
гражд	1049
дна	1050
млн	1051
стан	1052
##ущ	1053
ских	1054
фи	1055
теля	1056
бл	1057
рай	1058
европ	1059
днако	1060
метил	1061
##бо	1062
риз	1063
##кон	1064
лиш	1065
будут	1066
знач	1067
кол	1068
телей	1069
орм	1070
служ	1071
охран	1072
федер	1073
олог	1074
главн	1075
ово	1076
была	1077
ников	1078
ген	1079
иск	1080
произ	1081
мил	1082
совет	1083
дви	1084
аем	1085
себ	1086
##енн	1087
един	1088
ротив	1089
ковод	1090
могут	1091
##ец	1092
сел	1093
рав	1094
где	1095
мотр	1096
ьн	1097
ска	1098
ция	1099
уж	1100
истем	1101
следн	1102
иту	1103
##00	1104
рубле	1105
можно	1106
них	1107
ики	1108
ип	1109
очень	1110
один	1111
быть	1112
##кол	1113
оказ	1114
связ	1115
ью	1116
руги	1117
ему	1118
##ный	1119
таки	1120
заяв	1121
ич	1122
траны	1123
иру	1124
закон	1125
отв	1126
аш	1127
##рд	1128
оманд	1129
ейск	1130
##лиц	1131
два	1132
отм	1133
оста	1134
млрд	1135
итуац	1136
##ыл	1137
яет	1138
ось	1139
##дан	1140
лист	1141
ивш	1142
ех	1143
сего	1144
ыст	1145
люб	1146
ну	1147
##еж	1148
ьзов	1149
##ус	1150
овер	1151
овать	1152
наход	1153
фон	1154
##nt	1155
##по	1156
спор	1157
##анс	1158
енных	1159
##сяч	1160
друг	1161
техн	1162
управ	1163
ием	1164
ились	1165
дв	1166
жиз	1167
ото	1168
тысяч	1169
ква	1170
твов	1171
ба	1172
лся	1173
район	1174
##ител	1175
дир	1176
пи	1177
грамм	1178
##овн	1179
иальн	1180
амери	1181
глава	1182
инанс	1183
милли	1184
андр	1185
оль	1186
##уб	1187
дву	1188
##лич	1189
оглас	1190
##цен	1191
ги	1192
##ия	1193
лиц	1194
##уча	1195
бли	1196
пра	1197
укра	1198
вели	1199
оссия	1200
блем	1201
голов	1202
##ых	1203
##er	1204
ено	1205
ыв	1206
ита	1207
нд	1208
усл	1209
утин	1210
теле	1211
основ	1212
полиц	1213
опера	1214
ег	1215
ело	1216
ун	1217
ответ	1218
##ить	1219
необ	1220
лат	1221
обра	1222
терри	1223
извес	1224
цел	1225
моб	1226
доб	1227
кро	1228
тыс	1229
много	1230
##ощ	1231
##оро	1232
тели	1233
мед	1234
ество	1235
##ком	1236
пресс	1237
одим	1238
мобил	1239
##кой	1240
даже	1241
сер	1242
зап	1243
##ок	1244
есп	1245
хот	1246
этому	1247
ники	1248
опас	1249
стреч	1250
транс	1251
##ну	1252
гро	1253
место	1254
ключ	1255
ольше	1256
стоян	1257
пла	1258
реа	1259
мор	1260
##ест	1261
аль	1262
аж	1263
редел	1264
летн	1265
ыступ	1266
ервы	1267
объ	1268
анным	1269
стро	1270
бр	1271
бел	1272
ум	1273
ующ	1274
##ета	1275
ская	1276
ха	1277
##олн	1278
рын	1279
необх	1280
цию	1281
##анк	1282
ще	1283
казал	1284
защ	1285
право	1286
пом	1287
военн	1288
бес	1289
точ	1290
еги	1291
твия	1292
украи	1293
около	1294
дирек	1295
##зу	1296
илась	1297
путат	1298
##вин	1299
лег	1300
сен	1301
ния	1302
##нес	1303
ись	1304
авш	1305
ана	1306
##са	1307
нти	1308
этот	1309
рин	1310
le	1311
##сим	1312
пет	1313
сдел	1314
пуск	1315
быв	1316
##ие	1317
пе	1318
ался	1319
##нер	1320
канск	1321
чит	1322
недел	1323
ивает	1324
рен	1325
ример	1326
рус	1327
ави	1328
ением	1329
тно	1330
име	1331
оверш	1332
оцен	1333
клад	1334
выс	1335
аться	1336
предп	1337
являе	1338
щик	1339
юд	1340
ул	1341
ены	1342
люд	1343
доку	1344
тен	1345
ним	1346
нич	1347
месте	1348
выбор	1349
реж	1350
аки	1351
порт	1352
рат	1353
##щен	1354
ние	1355
ери	1356
танов	1357
ека	1358
омощ	1359
стра	1360
три	1361
лучил	1362
истра	1363
устан	1364
иал	1365
##атр	1366
спорт	1367
ика	1368
всех	1369
раж	1370
маш	1371
дал	1372
тву	1373
лись	1374
еб	1375
кач	1376
агент	1377
звал	1378
мон	1379
кин	1380
ыш	1381
стави	1382
иф	1383
##льт	1384
план	1385
ител	1386
сла	1387
еть	1388
ющ	1389
ества	1390
истор	1391
снов	1392
##ду	1393
извод	1394
стоящ	1395
пока	1396
частн	1397
отмеч	1398
ника	1399
ейш	1400
троит	1401
ях	1402
сро	1403
офиц	1404
сни	1405
енко	1406
него	1407
рак	1408
чик	1409
ерг	1410
илось	1411
##отв	1412
луж	1413
##аж	1414
ские	1415
мь	1416
движ	1417
сра	1418
инг	1419
измен	1420
наруш	1421
нени	1422
вал	1423
рист	1424
омент	1425
терро	1426
бур	1427
спец	1428
испол	1429
##един	1430
##том	1431
##ующ	1432
кто	1433
##би	1434
круп	1435
нуж	1436
вани	1437
курс	1438
обвин	1439
ило	1440
нос	1441
ском	1442
вос	1443
теп	1444
лич	1445
вой	1446
показ	1447
дм	1448
ятся	1449
##жет	1450
редит	1451
тк	1452
10	1453
этой	1454
пособ	1455
мьер	1456
лект	1457
всем	1458
крупн	1459
дан	1460
ляет	1461
рт	1462
аний	1463
защит	1464
авиа	1465
##сяц	1466
там	1467
лид	1468
##инг	1469
себя	1470
рани	1471
рег	1472
твующ	1473
месяц	1474
циона	1475
поб	1476
юджет	1477
чемпи	1478
отре	1479
изнес	1480
##вар	1481
само	1482
через	1483
бира	1484
сет	1485
жител	1486
двух	1487
льно	1488
вести	1489
##юз	1490
тя	1491
сирии	1492
егион	1493
респ	1494
ведом	1495
енные	1496
шло	1497
новос	1498
бург	1499
стви	1500
день	1501
дела	1502
жи	1503
вра	1504
куп	1505
пор	1506
ья	1507
числе	1508
свою	1509
голос	1510
отказ	1511
##итр	1512
сбор	1513
лит	1514
эта	1515
жел	1516
одно	1517
филь	1518
##лаг	1519
еп	1520
рам	1521
ьник	1522
ять	1523
нем	1524
енной	1525
ричин	1526
нск	1527
ному	1528
ались	1529
дав	1530
апр	1531
овой	1532
кроме	1533
кварт	1534
дмитр	1535
##ак	1536
йд	1537
гл	1538
##гиб	1539
соотв	1540
ецк	1541
нии	1542
кци	1543
##нир	1544
рия	1545
велич	1546
рован	1547
школ	1548
овых	1549
ара	1550
##мин	1551
лим	1552
ются	1553
стве	1554
ман	1555
лаг	1556
матер	1557
бра	1558
##вол	1559
##лож	1560
сь	1561
сс	1562
##есь	1563
град	1564
ланир	1565
олла	1566
алось	1567
хоро	1568
игра	1569
##ык	1570
конц	1571
акт	1572
соб	1573
зем	1574
админ	1575
езд	1576
оскве	1577
гер	1578
нее	1579
обств	1580
ческ	1581
дд	1582
нев	1583
менно	1584
сай	1585
мит	1586
ъект	1587
етс	1588
##ым	1589
##щин	1590
турци	1591
своей	1592
поз	1593
ктябр	1594
апрел	1595
член	1596
ям	1597
лектр	1598
ивать	1599
стать	1600
январ	1601
добав	1602
ткр	1603
полаг	1604
ткрыт	1605
15	1606
селен	1607
вк	1608
##ый	1609
тории	1610
отреб	1611
местн	1612
озвол	1613
оллар	1614
##nta	1615
але	1616
lenta	1617
20	1618
овые	1619
##отр	1620
смотр	1621
дач	1622
##зда	1623
созда	1624
казан	1625
прос	1626
олжны	1627
ент	1628
держк	1629
вет	1630
тябр	1631
овлен	1632
фф	1633
тивн	1634
связи	1635
дорог	1636
уз	1637
ожи	1638
##жн	1639
реб	1640
ергей	1641
лиз	1642
лидер	1643
ией	1644
особ	1645
арти	1646
факт	1647
уг	1648
сущ	1649
скор	1650
труд	1651
служб	1652
вит	1653
вар	1654
росто	1655
блю	1656
уровн	1657
вое	1658
асп	1659
прин	1660
оор	1661
##бол	1662
##on	1663
лимпи	1664
енщин	1665
торг	1666
игр	1667
оздан	1668
цев	1669
пы	1670
льной	1671
дн	1672
##гра	1673
##сят	1674
сев	1675
поч	1676
мод	1677
тов	1678
рк	1679
тасс	1680
сми	1681
йти	1682
лучш	1683
омним	1684
жил	1685
подин	1686
фильм	1687
луча	1688
хва	1689
оби	1690
людей	1691
дон	1692
ноябр	1693
рост	1694
зн	1695
##an	1696
стар	1697
емь	1698
лощ	1699
сдела	1700
мал	1701
##лог	1702
ругих	1703
ддерж	1704
обяз	1705
час	1706
матч	1707
исс	1708
культ	1709
прод	1710
машин	1711
ней	1712
налог	1713
обы	1714
доста	1715
дем	1716
ели	1717
уют	1718
виде	1719
вестн	1720
разн	1721
ятель	1722
еспеч	1723
нальн	1724
ини	1725
тон	1726
побед	1727
крыт	1728
укт	1729
шт	1730
лин	1731
страд	1732
ту	1733
вот	1734
лучае	1735
очн	1736
ожида	1737
ье	1738
воб	1739
сти	1740
тар	1741
риа	1742
десят	1743
лощад	1744
уктур	1745
енн	1746
ровод	1747
сновн	1748
вобод	1749
еж	1750
сек	1751
ризна	1752
in	1753
гру	1754
втор	1755
шел	1756
##езд	1757
сил	1758
еты	1759
пуст	1760
натор	1761
источ	1762
ере	1763
ходе	1764
естве	1765
зам	1766
тяж	1767
седа	1768
##дат	1769
##неш	1770
дидат	1771
##тон	1772
утбол	1773
вин	1774
кар	1775
шли	1776
жизни	1777
##мп	1778
ближ	1779
фор	1780
отдел	1781
част	1782
ранич	1783
ащ	1784
арт	1785
марта	1786
пыта	1787
канал	1788
появ	1789
свои	1790
хоз	1791
ял	1792
##or	1793
хорош	1794
твор	1795
артии	1796
##еп	1797
главы	1798
огда	1799
оглаш	1800
ству	1801
яют	1802
ществ	1803
мно	1804
еро	1805
ервый	1806
назыв	1807
лишь	1808
мур	1809
рынк	1810
изм	1811
нению	1812
крым	1813
##утр	1814
разов	1815
чин	1816
вяз	1817
олож	1818
оциа	1819
уш	1820
ужчин	1821
фер	1822
жив	1823
верну	1824
ичн	1825
##шл	1826
стат	1827
улиц	1828
ового	1829
сут	1830
фонд	1831
своих	1832
ями	1833
ена	1834
рек	1835
стало	1836
равил	1837
зав	1838
онд	1839
лась	1840
##ar	1841
трамп	1842
вп	1843
крат	1844
обяза	1845
цесс	1846
чере	1847
груз	1848
фин	1849
осквы	1850
нг	1851
оли	1852
удал	1853
вн	1854
##зи	1855
нужно	1856
вли	1857
ито	1858
чен	1859
ериод	1860
числ	1861
фес	1862
пециа	1863
##нул	1864
##дум	1865
мента	1866
осдум	1867
преду	1868
услов	1869
сири	1870
аэ	1871
кой	1872
гон	1873
объем	1874
вития	1875
мне	1876
льн	1877
сыл	1878
ела	1879
нор	1880
парла	1881
цы	1882
лении	1883
##ун	1884
ател	1885
12	1886
четве	1887
анных	1888
пост	1889
олю	1890
есн	1891
клуб	1892
стали	1893
хват	1894
##лек	1895
внутр	1896
30	1897
##ная	1898
трет	1899
ирует	1900
почти	1901
ниц	1902
пит	1903
ард	1904
молод	1905
зыв	1906
##es	1907
конце	1908
колич	1909
красн	1910
сутс	1911
дать	1912
рамк	1913
бар	1914
эт	1915
др	1916
вор	1917
нефти	1918
общ	1919
ант	1920
ари	1921
ерь	1922
пад	1923
остью	1924
тране	1925
обе	1926
ново	1927
детей	1928
руч	1929
ратур	1930
бла	1931
уа	1932
беж	1933
фр	1934
дома	1935
ользу	1936
##ял	1937
ава	1938
полож	1939
маг	1940
ром	1941
часть	1942
практ	1943
бин	1944
вещ	1945
плат	1946
люди	1947
меня	1948
глав	1949
срок	1950
тп	1951
части	1952
##раф	1953
бло	1954
поясн	1955
стол	1956
сумм	1957
раст	1958
ооруж	1959
нам	1960
ложн	1961
ца	1962
ера	1963
no	1964
редн	1965
отому	1966
тября	1967
одной	1968
включ	1969
позиц	1970
инск	1971
лял	1972
пят	1973
верш	1974
уть	1975
шн	1976
омощь	1977
гу	1978
актив	1979
твует	1980
мещен	1981
бер	1982
одерж	1983
олжен	1984
годн	1985
мерен	1986
ностр	1987
твие	1988
благо	1989
нять	1990
##уг	1991
режд	1992
жур	1993
сильн	1994
усп	1995
сборн	1996
оступ	1997
успе	1998
онат	1999
метр	2000
оюз	2001
тоим	2002
инв	2003
санк	2004
рияти	2005
санкц	2006
анию	2007
ади	2008
сключ	2009
комме	2010
точно	2011
перс	2012
округ	2013
верен	2014
наруж	2015
суб	2016
режим	2017
дт	2018
ообщ	2019
сети	2020
полу	2021
ороны	2022
трол	2023
##ая	2024
итог	2025
фев	2026
парат	2027
ругие	2028
аци	2029
ась	2030
хи	2031
зван	2032
ерьез	2033
тит	2034
уто	2035
ъясн	2036
авг	2037
росл	2038
февра	2039
тправ	2040
аст	2041
мв	2042
##ьб	2043
утвер	2044
доход	2045
смен	2046
авгус	2047
теч	2048
иаль	2049
дорож	2050
кажд	2051
сниж	2052
треб	2053
сад	2054
высок	2055
айш	2056
шир	2057
эр	2058
ше	2059
сих	2060
жела	2061
ама	2062
гран	2063
прет	2064
власт	2065
co	2066
жизн	2067
нтон	2068
молет	2069
инств	2070
чи	2071
аксим	2072
##ям	2073
вол	2074
##ью	2075
аются	2076
оедин	2077
блок	2078
уется	2079
енее	2080
ывает	2081
ике	2082
##ерт	2083
дного	2084
йн	2085
седан	2086
миров	2087
ио	2088
шта	2089
пож	2090
исход	2091
энер	2092
борьб	2093
энерг	2094
ировк	2095
разом	2096
кабр	2097
образ	2098
бывш	2099
тик	2100
стоят	2101
ивают	2102
читыв	2103
надо	2104
ано	2105
вес	2106
крыл	2107
кос	2108
кабря	2109
проце	2110
никак	2111
ложил	2112
аэро	2113
такой	2114
петер	2115
еск	2116
остан	2117
ицу	2118
ечно	2119
топ	2120
лова	2121
сполн	2122
сужд	2123
угро	2124
сылк	2125
инвес	2126
мас	2127
пен	2128
уль	2129
иха	2130
вни	2131
фо	2132
гля	2133
тот	2134
русск	2135
долг	2136
назад	2137
зон	2138
онов	2139
ерб	2140
ское	2141
штаб	2142
25	2143
едь	2144
ффект	2145
##al	2146
ивал	2147
еньги	2148
мести	2149
киев	2150
смерт	2151
алась	2152
итай	2153
жен	2154
арм	2155
имо	2156
казыв	2157
ышлен	2158
справ	2159
сматр	2160
рит	2161
овый	2162
юр	2163
дня	2164
мая	2165
этих	2166
тол	2167
роди	2168
зж	2169
##рыв	2170
иван	2171
иль	2172
трех	2173
обрат	2174
среди	2175
питал	2176
ящ	2177
##le	2178
ечер	2179
арест	2180
##oo	2181
писал	2182
ации	2183
гно	2184
торой	2185
##гио	2186
себе	2187
чу	2188
итета	2189
ополн	2190
губ	2191
регио	2192
оряд	2193
лять	2194
тиц	2195
внима	2196
яя	2197
тоит	2198
одоб	2199
здан	2200
ите	2201
фран	2202
ством	2203
удов	2204
близ	2205
11	2206
худ	2207
вания	2208
дис	2209
одобн	2210
важн	2211
личн	2212
рук	2213
рият	2214
ркнул	2215
подче	2216
имущ	2217
йский	2218
класс	2219
журна	2220
тин	2221
##he	2222
земл	2223
тоже	2224
должн	2225
адр	2226
парти	2227
##тивн	2228
граф	2229
убий	2230
хозя	2231
ажд	2232
дь	2233
пя	2234
север	2235
сегда	2236
дум	2237
ителя	2238
орядк	2239
лекс	2240
конод	2241
ступн	2242
мног	2243
##шен	2244
воего	2245
мере	2246
пенси	2247
прям	2248
делал	2249
парк	2250
этим	2251
банк	2252
ьян	2253
йские	2254
нст	2255
чь	2256
добр	2257
ассаж	2258
шед	2259
прещ	2260
твер	2261
гноз	2262
сез	2263
эту	2264
пять	2265
ноч	2266
енник	2267
верси	2268
сезон	2269
заб	2270
ихся	2271
конч	2272
ато	2273
ущ	2274
минут	2275
сущес	2276
обира	2277
знан	2278
пон	2279
анков	2280
##оп	2281
анием	2282
тверд	2283
воим	2284
##гие	2285
влия	2286
никол	2287
слов	2288
ге	2289
толиц	2290
годы	2291
ребен	2292
тогда	2293
ринят	2294
акие	2295
йдет	2296
либо	2297
дума	2298
гром	2299
нстру	2300
ате	2301
удар	2302
фото	2303
указ	2304
стала	2305
нди	2306
вят	2307
##сл	2308
верк	2309
иш	2310
##кс	2311
доров	2312
тиво	2313
взрыв	2314
ским	2315
лета	2316
здесь	2317
ногие	2318
несен	2319
руж	2320
гляд	2321
римен	2322
кино	2323
тест	2324
айн	2325
осл	2326
устро	2327
блюда	2328
ион	2329
шла	2330
яется	2331
шен	2332
роз	2333
рий	2334
погиб	2335
крыв	2336
шедш	2337
ша	2338
будущ	2339
мурма	2340
нег	2341
ставк	2342
сравн	2343
олев	2344
своем	2345
могли	2346
рожд	2347
бил	2348
иго	2349
мел	2350
льных	2351
мвд	2352
имею	2353
фли	2354
тия	2355
станц	2356
ренд	2357
риним	2358
юс	2359
висим	2360
больн	2361
урн	2362
пам	2363
моск	2364
литик	2365
дежд	2366
троен	2367
ензи	2368
росил	2369
аря	2370
ух	2371
ыск	2372
франц	2373
18	2374
илл	2375
тепер	2376
уточн	2377
товар	2378
фликт	2379
тог	2380
лизац	2381
руп	2382
озр	2383
хож	2384
чего	2385
ику	2386
реаль	2387
памят	2388
er	2389
ревн	2390
алл	2391
ладел	2392
муз	2393
ьев	2394
олот	2395
случа	2396
услуг	2397
давно	2398
кли	2399
##вик	2400
автор	2401
одна	2402
слав	2403
бесп	2404
регул	2405
##ce	2406
решил	2407
ослед	2408
новых	2409
влек	2410
##пис	2411
ало	2412
##вест	2413
анные	2414
акц	2415
видео	2416
креп	2417
права	2418
осто	2419
##за	2420
вязан	2421
ихаил	2422
ходит	2423
исло	2424
нефт	2425
свой	2426
дукт	2427
жден	2428
ывш	2429
рб	2430
олн	2431
усил	2432
тракт	2433
ункт	2434
сразу	2435
данн	2436
онк	2437
лив	2438
тнер	2439
мотря	2440
медиц	2441
онал	2442
нтов	2443
поп	2444
вока	2445
трен	2446
музык	2447
14	2448
50	2449
родаж	2450
таких	2451
омина	2452
##леч	2453
веду	2454
влеч	2455
чита	2456
ндр	2457
##ноп	2458
меш	2459
косм	2460
ьц	2461
аны	2462
емон	2463
обещ	2464
re	2465
овск	2466
мид	2467
выход	2468
ляци	2469
води	2470
вен	2471
иб	2472
имп	2473
кк	2474
##ге	2475
стрем	2476
озрев	2477
рск	2478
издан	2479
строи	2480
зор	2481
конф	2482
ракет	2483
ицы	2484
ъяв	2485
оруж	2486
коп	2487
сит	2488
дальн	2489
уда	2490
оевик	2491
мой	2492
окуп	2493
яч	2494
ласт	2495
объяв	2496
неж	2497
нефть	2498
чина	2499
свое	2500
ице	2501
отлич	2502
стрел	2503
мероп	2504
имеет	2505
ьзова	2506
слам	2507
быт	2508
##дач	2509
##роб	2510
тим	2511
стоит	2512
ехал	2513
герма	2514
ризис	2515
лог	2516
тай	2517
етыре	2518
рыв	2519
выше	2520
явлен	2521
проку	2522
тек	2523
ний	2524
13	2525
исто	2526
озник	2527
ьб	2528
иници	2529
вне	2530
разил	2531
##леж	2532
требо	2533
авл	2534
ктивн	2535
равн	2536
атем	2537
осков	2538
ып	2539
зар	2540
анс	2541
хотя	2542
нтир	2543
губер	2544
ляющ	2545
здрав	2546
оценк	2547
штраф	2548
яж	2549
суда	2550
изац	2551
аф	2552
скую	2553
логи	2554
искус	2555
одимо	2556
мов	2557
наком	2558
март	2559
рынке	2560
чинов	2561
ывший	2562
каж	2563
сайте	2564
як	2565
печ	2566
учас	2567
коноп	2568
нивер	2569
ейств	2570
16	2571
туд	2572
деп	2573
нял	2574
лений	2575
регис	2576
ахов	2577
восп	2578
ност	2579
новый	2580
учен	2581
инс	2582
рынка	2583
демо	2584
##со	2585
взят	2586
енц	2587
орд	2588
тогам	2589
ици	2590
театр	2591
ести	2592
обед	2593
дио	2594
##at	2595
пуля	2596
нужд	2597
вращ	2598
руш	2599
лужб	2600
22	2601
еме	2602
кции	2603
лаго	2604
ьск	2605
##ro	2606
##ман	2607
омн	2608
остоя	2609
енный	2610
кал	2611
лу	2612
пром	2613
олле	2614
рибы	2615
зов	2616
ошел	2617
ау	2618
остиг	2619
жизнь	2620
ощ	2621
аэроп	2622
ака	2623
арк	2624
писан	2625
урнал	2626
трат	2627
ритан	2628
леч	2629
ожд	2630
руго	2631
треть	2632
игор	2633
##она	2634
асл	2635
пиш	2636
йт	2637
задач	2638
быстр	2639
цией	2640
газет	2641
веч	2642
осущ	2643
шлого	2644
адици	2645
17	2646
окон	2647
танет	2648
модел	2649
обычн	2650
пожар	2651
угроз	2652
лось	2653
разви	2654
айте	2655
ервые	2656
аспро	2657
лан	2658
овали	2659
ази	2660
##re	2661
нед	2662
енд	2663
нынеш	2664
пыт	2665
строй	2666
врач	2667
меч	2668
равда	2669
кв	2670
елей	2671
алат	2672
тяжел	2673
ищ	2674
обор	2675
ина	2676
ельно	2677
рибыл	2678
шест	2679
цов	2680
##езн	2681
атак	2682
олжна	2683
фесси	2684
ъедин	2685
блемы	2686
бол	2687
оа	2688
ругой	2689
##ему	2690
ведет	2691
такие	2692
еш	2693
одейс	2694
тельн	2695
шенко	2696
марк	2697
титут	2698
ач	2699
##мес	2700
исси	2701
чера	2702
оллег	2703
овмес	2704
годов	2705
куб	2706
очему	2707
овым	2708
повы	2709
риход	2710
повыш	2711
амп	2712
##лиз	2713
ne	2714
атив	2715
ках	2716
рабоч	2717
дев	2718
воду	2719
оссию	2720
##ген	2721
хара	2722
две	2723
июн	2724
каса	2725
ниче	2726
боев	2727
июля	2728
гар	2729
низ	2730
финал	2731
опинг	2732
митет	2733
опыт	2734
рубл	2735
клон	2736
мире	2737
ероят	2738
норма	2739
шес	2740
##мо	2741
ток	2742
ствия	2743
изов	2744
омощи	2745
уальн	2746
орту	2747
дней	2748
нят	2749
лик	2750
ляют	2751
мощ	2752
очк	2753
яз	2754
ерж	2755
прис	2756
вольн	2757
телем	2758
##ag	2759
пуляр	2760
иев	2761
жал	2762
нвест	2763
орв	2764
конс	2765
цена	2766
аким	2767
ыгра	2768
карт	2769
онер	2770
вице	2771
ринял	2772
бой	2773
оон	2774
пара	2775
секре	2776
ндрей	2777
огиб	2778
мигра	2779
сф	2780
ничег	2781
осуд	2782
дух	2783
лега	2784
нашей	2785
сниз	2786
тм	2787
##ика	2788
экс	2789
гиона	2790
тарь	2791
аждый	2792
ланд	2793
нир	2794
дук	2795
гиб	2796
помн	2797
ифика	2798
##ыр	2799
арш	2800
иктор	2801
дукци	2802
потом	2803
окра	2804
сст	2805
сстан	2806
отмен	2807
олезн	2808
осква	2809
треби	2810
кир	2811
сть	2812
конт	2813
факс	2814
разд	2815
верх	2816
рел	2817
теря	2818
нут	2819
оен	2820
осточ	2821
принц	2822
опасн	2823
твуют	2824
пытк	2825
еже	2826
яг	2827
пов	2828
омп	2829
еа	2830
##цу	2831
етом	2832
олжно	2833
ока	2834
бран	2835
вч	2836
ровер	2837
лот	2838
слу	2839
ократ	2840
обращ	2841
21	2842
гресс	2843
онима	2844
ертв	2845
хотел	2846
этап	2847
курор	2848
##поз	2849
войн	2850
артин	2851
вокат	2852
кс	2853
вис	2854
еньше	2855
ций	2856
стров	2857
оконч	2858
19	2859
ори	2860
серге	2861
оо	2862
нок	2863
терак	2864
цип	2865
the	2866
харак	2867
риск	2868
инте	2869
сем	2870
ерво	2871
ообще	2872
24	2873
оев	2874
льные	2875
мерно	2876
лужбы	2877
одроб	2878
евген	2879
грок	2880
орот	2881
рх	2882
##вс	2883
детск	2884
омет	2885
досто	2886
оне	2887
ситет	2888
огибл	2889
рон	2890
##бн	2891
поко	2892
руз	2893
рг	2894
хе	2895
пас	2896
номоч	2897
оу	2898
писк	2899
ебн	2900
заим	2901
хозяй	2902
атег	2903
везд	2904
проб	2905
арта	2906
монт	2907
##лав	2908
сайт	2909
тому	2910
оенно	2911
бужд	2912
рет	2913
физ	2914
анг	2915
лиент	2916
рик	2917
шлом	2918
мало	2919
пок	2920
поезд	2921
печат	2922
яти	2923
евер	2924
пятн	2925
йтинг	2926
ion	2927
изир	2928
штат	2929
часов	2930
окращ	2931
раг	2932
рад	2933
обой	2934
ранцу	2935
самых	2936
тив	2937
варит	2938
ходил	2939
неза	2940
рубеж	2941
фици	2942
сей	2943
твии	2944
учн	2945
окупа	2946
on	2947
st	2948
выясн	2949
лини	2950
елико	2951
ьер	2952
урс	2953
ловин	2954
мос	2955
оммер	2956
уров	2957
акци	2958
видет	2959
оба	2960
одним	2961
оман	2962
знак	2963
тарт	2964
елать	2965
ерд	2966
декс	2967
тут	2968
путе	2969
отмет	2970
точк	2971
войны	2972
ясь	2973
ею	2974
ужд	2975
лиг	2976
ариа	2977
омб	2978
бам	2979
ерн	2980
свобо	2981
завод	2982
ствие	2983
яр	2984
проче	2985
мощн	2986
28	2987
йст	2988
курен	2989
трел	2990
едл	2991
кил	2992
пект	2993
едве	2994
верг	2995
100	2996
наи	2997
долго	2998
сор	2999
етер	3000
ерты	3001
осток	3002
обран	3003
естр	3004
еля	3005
мысл	3006
хода	3007
ерал	3008
бал	3009
водит	3010
валют	3011
лагод	3012
бот	3013
##ров	3014
боров	3015
ожал	3016
нта	3017
рд	3018
цель	3019
твий	3020
цены	3021
конфе	3022
##in	3023
ходящ	3024
ката	3025
мень	3026
стана	3027
##as	3028
вив	3029
обыч	3030
нно	3031
цер	3032
екс	3033
ева	3034
##ad	3035
ассов	3036
нис	3037
точн	3038
баз	3039
льг	3040
ошло	3041
оппоз	3042
унд	3043
брос	3044
иям	3045
пуска	3046
23	3047
дов	3048
ын	3049
адлеж	3050
става	3051
остр	3052
дебн	3053
40	3054
запад	3055
помог	3056
бив	3057
яем	3058
джо	3059
ойск	3060
дар	3061
нкт	3062
нь	3063
нему	3064
новен	3065
исты	3066
фун	3067
узе	3068
трав	3069
##ter	3070
рис	3071
черн	3072
рев	3073
##иров	3074
вью	3075
места	3076
иссии	3077
оно	3078
яс	3079
оля	3080
кер	3081
доп	3082
ути	3083
чник	3084
щего	3085
графи	3086
ывать	3087
овая	3088
таким	3089
глу	3090
ервом	3091
ети	3092
боле	3093
огн	3094
ыб	3095
овить	3096
спект	3097
черед	3098
вто	3099
##йс	3100
елов	3101
нято	3102
ица	3103
колле	3104
иях	3105
виз	3106
иков	3107
ренц	3108
неу	3109
таж	3110
остов	3111
ипл	3112
тонн	3113
еком	3114
сон	3115
дает	3116
омат	3117
бесед	3118
нф	3119
носит	3120
al	3121
чист	3122
хоч	3123
ранен	3124
меж	3125
меры	3126
петр	3127
союз	3128
лучше	3129
дер	3130
дом	3131
льз	3132
юри	3133
пора	3134
аха	3135
лер	3136
зал	3137
лач	3138
ниг	3139
цб	3140
менты	3141
рес	3142
ывают	3143
тенд	3144
йм	3145
##нешн	3146
родн	3147
дл	3148
йте	3149
вас	3150
ули	3151
расп	3152
актер	3153
ометр	3154
бит	3155
##il	3156
##us	3157
дин	3158
жа	3159
##ха	3160
являю	3161
прие	3162
роста	3163
бок	3164
еи	3165
##ol	3166
етк	3167
лаб	3168
авр	3169
атыв	3170
27	3171
атри	3172
илу	3173
спа	3174
крес	3175
##ения	3176
оволь	3177
трудн	3178
тип	3179
раздн	3180
меньш	3181
новой	3182
уне	3183
##мир	3184
ональ	3185
фик	3186
хр	3187
жеств	3188
ечн	3189
вящ	3190
фил	3191
ейн	3192
елу	3193
##ич	3194
дава	3195
en	3196
генер	3197
26	3198
озна	3199
ног	3200
четыр	3201
брита	3202
пал	3203
йской	3204
акции	3205
живо	3206
рби	3207
нул	3208
сан	3209
льный	3210
алин	3211
гост	3212
яющ	3213
орож	3214
чн	3215
ерм	3216
спис	3217
хан	3218
##am	3219
теку	3220
ине	3221
паса	3222
кращ	3223
бус	3224
нуть	3225
гри	3226
ктор	3227
29	3228
фра	3229
шь	3230
свет	3231
блюд	3232
оци	3233
пп	3234
еву	3235
ремл	3236
авари	3237
кого	3238
егу	3239
пт	3240
an	3241
##пр	3242
##ut	3243
брать	3244
рии	3245
рь	3246
писа	3247
тд	3248
овик	3249
спе	3250
чив	3251
лены	3252
яжен	3253
аден	3254
ходят	3255
более	3256
какой	3257
миним	3258
im	3259
ормир	3260
атар	3261
зи	3262
##енк	3263
ента	3264
вез	3265
##it	3266
ео	3267
зер	3268
елк	3269
ниж	3270
нужн	3271
зык	3272
игу	3273
илов	3274
олга	3275
ших	3276
гори	3277
еха	3278
лаз	3279
обо	3280
олет	3281
##сср	3282
апад	3283
зр	3284
мя	3285
нер	3286
орк	3287
тива	3288
сим	3289
истов	3290
ители	3291
порта	3292
енс	3293
инк	3294
опол	3295
роис	3296
логич	3297
цит	3298
стит	3299
илет	3300
мину	3301
ув	3302
##лат	3303
ойд	3304
реф	3305
канц	3306
реди	3307
реду	3308
усск	3309
проц	3310
кате	3311
рец	3312
орис	3313
ондо	3314
ращ	3315
терин	3316
наши	3317
ея	3318
оя	3319
ровал	3320
легк	3321
ельн	3322
йц	3323
ассе	3324
дпис	3325
еф	3326
ссср	3327
отеч	3328
лам	3329
часто	3330
няли	3331
оружи	3332
хов	3333
ога	3334
понят	3335
хран	3336
овета	3337
асно	3338
ьше	3339
прек	3340
одном	3341
тдель	3342
илы	3343
дил	3344
ховн	3345
омер	3346
прошл	3347
ажи	3348
непо	3349
мерик	3350
паден	3351
цк	3352
##се	3353
км	3354
аге	3355
тавки	3356
внешн	3357
овил	3358
оче	3359
тю	3360
ыта	3361
проп	3362
гн	3363
уем	3364
глаш	3365
шк	3366
вт	3367
##мун	3368
фере	3369
бк	3370
##тер	3371
собра	3372
аев	3373
щей	3374
начн	3375
телям	3376
зе	3377
ивно	3378
москв	3379
пони	3380
ыплат	3381
инам	3382
социа	3383
знача	3384
кцион	3385
пришл	3386
ага	3387
режде	3388
мск	3389
ппо	3390
имени	3391
крет	3392
мина	3393
встр	3394
изит	3395
лав	3396
пил	3397
юк	3398
еев	3399
иде	3400
екабр	3401
льян	3402
com	3403
вченк	3404
нс	3405
рител	3406
ловия	3407
ing	3408
еле	3409
##бу	3410
одо	3411
клю	3412
вам	3413
ооо	3414
##гл	3415
ляе	3416
режи	3417
ысо	3418
ещ	3419
атели	3420
отста	3421
бан	3422
анный	3423
скому	3424
орон	3425
елен	3426
рн	3427
отив	3428
олд	3429
маю	3430
троль	3431
круг	3432
##ace	3433
нтар	3434
дписа	3435
щен	3436
наю	3437
опро	3438
срочн	3439
ником	3440
муни	3441
мч	3442
тие	3443
ститу	3444
аги	3445
егуля	3446
ъем	3447
итар	3448
ениях	3449
случ	3450
есс	3451
дых	3452
рейс	3453
лон	3454
##ap	3455
оши	3456
назв	3457
дтвер	3458
лт	3459
диа	3460
зло	3461
овле	3462
##age	3463
ущен	3464
неиз	3465
бело	3466
реч	3467
ксп	3468
ражен	3469
вку	3470
ино	3471
лд	3472
ками	3473
див	3474
льск	3475
акет	3476
траж	3477
платы	3478
толк	3479
вст	3480
роли	3481
##ir	3482
лада	3483
пада	3484
ажно	3485
юн	3486
мирн	3487
оды	3488
кст	3489
сы	3490
лез	3491
оправ	3492
ошли	3493
ереж	3494
двиг	3495
амер	3496
относ	3497
итор	3498
разде	3499
авлен	3500
абл	3501
анали	3502
нац	3503
роль	3504
сель	3505
инци	3506
тож	3507
аск	3508
ват	3509
##рал	3510
оме	3511
ечен	3512
ьма	3513
крас	3514
здн	3515
встре	3516
мб	3517
чат	3518
рбк	3519
вып	3520
ro	3521
трир	3522
енную	3523
мп	3524
ради	3525
ниже	3526
инд	3527
сия	3528
ои	3529
рок	3530
роп	3531
айд	3532
возду	3533
енск	3534
дог	3535
выш	3536
image	3537
прост	3538
евр	3539
андре	3540
чувс	3541
сш	3542
ысоко	3543
ульт	3544
омис	3545
ap	3546
орн	3547
дале	3548
яде	3549
недо	3550
спас	3551
ура	3552
щий	3553
онец	3554
вода	3555
кция	3556
ды	3557
брал	3558
to	3559
льная	3560
te	3561
той	3562
рив	3563
имен	3564
лению	3565
пог	3566
полне	3567
актор	3568
оюза	3569
кн	3570
сами	3571
дц	3572
шу	3573
стой	3574
канд	3575
хл	3576
##рет	3577
гры	3578
шо	3579
соц	3580
реда	3581
айк	3582
ельс	3583
спеш	3584
дали	3585
ъявил	3586
ключе	3587
дости	3588
одн	3589
верн	3590
асил	3591
обре	3592
ука	3593
ерк	3594
лад	3595
леж	3596
буде	3597
всю	3598
мчс	3599
йл	3600
фс	3601
ьного	3602
арх	3603
##ерь	3604
31	3605
ван	3606
енная	3607
йская	3608
ровел	3609
дат	3610
лк	3611
еперь	3612
сии	3613
фе	3614
спи	3615
бере	3616
екрет	3617
листы	3618
рая	3619
гре	3620
тных	3621
##вис	3622
анти	3623
ща	3624
new	3625
роиз	3626
имн	3627
обеди	3628
нав	3629
овую	3630
мена	3631
лко	3632
рал	3633
олос	3634
жива	3635
наб	3636
скр	3637
дущ	3638
дется	3639
жер	3640
рут	3641
сот	3642
стей	3643
овор	3644
рест	3645
никам	3646
ыл	3647
итет	3648
ндар	3649
льше	3650
лл	3651
ума	3652
еврал	3653
рко	3654
шеств	3655
щих	3656
обиль	3657
мэ	3658
li	3659
воч	3660
смог	3661
дну	3662
##en	3663
хар	3664
##ri	3665
##быт	3666
олит	3667
елик	3668
тт	3669
рае	3670
зрени	3671
пило	3672
60	3673
дут	3674
муж	3675
нк	3676
тали	3677
ауд	3678
событ	3679
енное	3680
внов	3681
##ска	3682
анов	3683
аю	3684
##ите	3685
чай	3686
чев	3687
обнов	3688
дея	3689
мф	3690
лено	3691
дии	3692
ший	3693
сол	3694
мост	3695
ектор	3696
слож	3697
снова	3698
яко	3699
завис	3700
кри	3701
мн	3702
рина	3703
озит	3704
кат	3705
возгл	3706
оэ	3707
ваний	3708
200	3709
одар	3710
оток	3711
гроз	3712
шин	3713
хол	3714
ене	3715
boo	3716
менит	3717
очи	3718
абс	3719
ерег	3720
##зр	3721
ельск	3722
двига	3723
прекр	3724
уга	3725
аде	3726
овое	3727
прес	3728
йским	3729
кита	3730
ласть	3731
ык	3732
начит	3733
читат	3734
иби	3735
чан	3736
шев	3737
вд	3738
вв	3739
енда	3740
эле	3741
кост	3742
масс	3743
ивающ	3744
танци	3745
нит	3746
поряд	3747
стати	3748
ати	3749
ерто	3750
рот	3751
fi	3752
##ение	3753
овано	3754
жды	3755
енном	3756
изо	3757
ресс	3758
рошен	3759
весь	3760
енит	3761
дтп	3762
одозр	3763
ерии	3764
норм	3765
сно	3766
##уст	3767
еред	3768
азета	3769
оронн	3770
book	3771
ризм	3772
ета	3773
трана	3774
пись	3775
ранс	3776
язан	3777
ходов	3778
ович	3779
дают	3780
ерно	3781
ируют	3782
ург	3783
епл	3784
амб	3785
иж	3786
ктив	3787
син	3788
ирм	3789
замет	3790
face	3791
цеп	3792
раи	3793
тмеч	3794
еализ	3795
нерг	3796
ia	3797
може	3798
лн	3799
юю	3800
##чер	3801
иновн	3802
есов	3803
били	3804
потер	3805
стк	3806
тори	3807
морск	3808
елю	3809
изма	3810
орск	3811
ченко	3812
mo	3813
аи	3814
оммун	3815
орта	3816
ыч	3817
мс	3818
##хо	3819
восто	3820
лица	3821
раниц	3822
дина	3823
бав	3824
жить	3825
иро	3826
ыр	3827
кам	3828
юб	3829
##el	3830
арь	3831
##ch	3832
рач	3833
app	3834
ада	3835
таб	3836
роф	3837
вак	3838
сцен	3839
скоро	3840
пали	3841
еда	3842
##la	3843
ентов	3844
видн	3845
гин	3846
зации	3847
олк	3848
плани	3849
шего	3850
тян	3851
орг	3852
борон	3853
бильн	3854
ница	3855
утк	3856
ально	3857
нен	3858
легко	3859
осн	3860
лека	3861
тят	3862
ывал	3863
щиков	3864
цска	3865
изб	3866
одств	3867
икл	3868
тобы	3869
олл	3870
жало	3871
ши	3872
эф	3873
ерс	3874
вали	3875
проса	3876
лем	3877
##ur	3878
перат	3879
зиров	3880
рави	3881
арл	3882
очт	3883
идер	3884
ора	3885
рств	3886
овар	3887
мещ	3888
стрир	3889
олнен	3890
ar	3891
боту	3892
фсб	3893
рв	3894
обс	3895
олод	3896
устил	3897
ошла	3898
торов	3899
удь	3900
лох	3901
нек	3902
##st	3903
нализ	3904
скими	3905
игн	3906
дчер	3907
щем	3908
вич	3909
ацие	3910
етел	3911
лена	3912
тром	3913
давн	3914
иан	3915
ича	3916
йств	3917
льзов	3918
едал	3919
йно	3920
зах	3921
ошенн	3922
нение	3923
ферен	3924
500	3925
есь	3926
лом	3927
олько	3928
гат	3929
эм	3930
преп	3931
дчерк	3932
ti	3933
асти	3934
ьми	3935
прив	3936
выд	3937
ипа	3938
кцию	3939
35	3940
рель	3941
ху	3942
жан	3943
лле	3944
тил	3945
адо	3946
ожник	3947
поле	3948
ерез	3949
елл	3950
лее	3951
крит	3952
форм	3953
ицион	3954
руд	3955
адк	3956
оказа	3957
сб	3958
##бли	3959
овест	3960
едж	3961
публи	3962
ртал	3963
рующ	3964
ньк	3965
овом	3966
стин	3967
енным	3968
ch	3969
одпис	3970
тябре	3971
квал	3972
тки	3973
зан	3974
льным	3975
суде	3976
щи	3977
метро	3978
ссе	3979
комму	3980
кий	3981
ходы	3982
лей	3983
ужден	3984
##ss	3985
оло	3986
ma	3987
ород	3988
века	3989
арак	3990
ушк	3991
енти	3992
70	3993
бро	3994
рели	3995
овре	3996
разу	3997
льном	3998
плате	3999
аще	4000
ину	4001
рази	4002
тавил	4003
гент	4004
ежд	4005
сери	4006
озв	4007
ыти	4008
##фа	4009
еству	4010
пита	4011
бед	4012
жн	4013
номи	4014
икр	4015
июл	4016
парта	4017
каки	4018
ствов	4019
ежи	4020
каких	4021
торго	4022
преж	4023
ограф	4024
астро	4025
спрос	4026
йства	4027
новл	4028
пел	4029
расте	4030
асть	4031
иги	4032
уме	4033
онн	4034
влад	4035
ден	4036
##йд	4037
ады	4038
екци	4039
##ada	4040
зб	4041
иже	4042
циа	4043
ире	4044
авать	4045
акс	4046
гал	4047
еру	4048
ерри	4049
ослав	4050
зии	4051
олиц	4052
ьги	4053
торию	4054
##up	4055
роме	4056
олон	4057
прежд	4058
льное	4059
семи	4060
ево	4061
жк	4062
нат	4063
стен	4064
неш	4065
проч	4066
uter	4067
дни	4068
нает	4069
етств	4070
нимал	4071
араб	4072
news	4073
неп	4074
экстр	4075
uters	4076
атом	4077
иции	4078
ечь	4079
итали	4080
пев	4081
щие	4082
ерв	4083
акан	4084
ретен	4085
300	4086
sp	4087
асто	4088
ыг	4089
ыстав	4090
запис	4091
икой	4092
##дд	4093
руг	4094
авля	4095
air	4096
тором	4097
важ	4098
ище	4099
эн	4100
отн	4101
осп	4102
чест	4103
ривод	4104
ытия	4105
ако	4106
сн	4107
чре	4108
еду	4109
айне	4110
защи	4111
сси	4112
ойти	4113
таль	4114
анам	4115
кова	4116
ойдет	4117
стер	4118
омоч	4119
ложно	4120
ыша	4121
вок	4122
ерев	4123
вно	4124
азе	4125
семь	4126
фт	4127
##ht	4128
ерл	4129
apple	4130
ic	4131
стью	4132
ких	4133
акл	4134
авших	4135
йских	4136
сьм	4137
иат	4138
##др	4139
ойк	4140
етал	4141
тист	4142
оком	4143
аши	4144
селе	4145
ериал	4146
стор	4147
ениям	4148
айм	4149
могу	4150
нка	4151
рп	4152
тск	4153
олго	4154
чета	4155
отя	4156
одол	4157
емн	4158
cap	4159
алк	4160
опуст	4161
боро	4162
сид	4163
шка	4164
##wi	4165
иска	4166
аспор	4167
80	4168
идел	4169
сфер	4170
циаль	4171
зг	4172
хим	4173
##ck	4174
нию	4175
анц	4176
имет	4177
bo	4178
тру	4179
ата	4180
рте	4181
итр	4182
чать	4183
це	4184
умы	4185
нл	4186
истам	4187
аков	4188
идно	4189
вший	4190
икт	4191
оин	4192
дост	4193
for	4194
енер	4195
слови	4196
тал	4197
яд	4198
ария	4199
льную	4200
арат	4201
ерни	4202
it	4203
двер	4204
лес	4205
юм	4206
кие	4207
тир	4208
льс	4209
авал	4210
борот	4211
ару	4212
страх	4213
наци	4214
емп	4215
оке	4216
анск	4217
оско	4218
алог	4219
рош	4220
исан	4221
стане	4222
едине	4223
внес	4224
дно	4225
сче	4226
ъя	4227
отк	4228
емен	4229
маль	4230
ихо	4231
de	4232
дес	4233
дной	4234
мм	4235
поте	4236
ете	4237
льд	4238
мени	4239
охо	4240
ульта	4241
уки	4242
чень	4243
вышен	4244
ввп	4245
аша	4246
уру	4247
арн	4248
un	4249
##зд	4250
мае	4251
окол	4252
яются	4253
век	4254
одав	4255
здо	4256
ентир	4257
дос	4258
атл	4259
днем	4260
роизо	4261
нием	4262
ины	4263
роход	4264
рана	4265
празд	4266
знал	4267
трети	4268
зглав	4269
45	4270
ооб	4271
рган	4272
ресто	4273
нова	4274
кус	4275
тию	4276
суль	4277
апа	4278
увств	4279
зы	4280
вание	4281
туа	4282
ильно	4283
ta	4284
сю	4285
##ое	4286
итик	4287
особо	4288
лива	4289
тора	4290
йство	4291
реми	4292
ити	4293
риг	4294
одел	4295
валь	4296
gr	4297
бю	4298
##et	4299
манда	4300
инима	4301
one	4302
збе	4303
лы	4304
апита	4305
абот	4306
кндр	4307
дра	4308
помощ	4309
енты	4310
чт	4311
ейс	4312
ален	4313
втб	4314
десь	4315
gle	4316
вся	4317
тория	4318
уры	4319
ub	4320
еет	4321
жения	4322
фиц	4323
етр	4324
купк	4325
акое	4326
авка	4327
da	4328
вход	4329
уле	4330
торог	4331
держа	4332
афик	4333
щая	4334
етн	4335
миха	4336
ip	4337
отор	4338
ьных	4339
арла	4340
ыска	4341
эп	4342
##ve	4343
оворя	4344
эл	4345
опров	4346
торое	4347
bl	4348
twi	4349
лев	4350
щин	4351
нача	4352
емл	4353
goo	4354
аже	4355
уго	4356
льт	4357
атр	4358
лично	4359
пин	4360
ао	4361
зин	4362
##ic	4363
кнул	4364
мель	4365
атери	4366
уля	4367
авил	4368
ким	4369
нтари	4370
дро	4371
риоб	4372
tter	4373
мк	4374
нец	4375
евск	4376
есед	4377
ске	4378
ашн	4379
жно	4380
пан	4381
мок	4382
имя	4383
вили	4384
азы	4385
велик	4386
##ети	4387
кад	4388
орите	4389
буду	4390
90	4391
оих	4392
рно	4393
леп	4394
уша	4395
осла	4396
аба	4397
езно	4398
ган	4399
ысл	4400
рект	4401
ига	4402
пло	4403
озг	4404
раща	4405
банка	4406
лков	4407
рл	4408
цик	4409
тмети	4410
атор	4411
рж	4412
оди	4413
лите	4414
скоре	4415
ii	4416
жной	4417
нц	4418
наче	4419
роде	4420
брат	4421
оки	4422
шно	4423
вать	4424
наль	4425
рож	4426
ателя	4427
000	4428
vi	4429
тн	4430
еров	4431
кому	4432
терн	4433
взя	4434
et	4435
тей	4436
яться	4437
лия	4438
режн	4439
итан	4440
рио	4441
риго	4442
имат	4443
ири	4444
диров	4445
ig	4446
нз	4447
вые	4448
амен	4449
столь	4450
очь	4451
##un	4452
##ниц	4453
сяч	4454
чк	4455
##vi	4456
ражд	4457
пройд	4458
оку	4459
ni	4460
прим	4461
po	4462
дк	4463
зко	4464
ню	4465
рм	4466
тура	4467
плен	4468
сег	4469
ебе	4470
улир	4471
or	4472
ира	4473
пик	4474
ода	4475
счет	4476
дск	4477
нист	4478
адим	4479
екла	4480
бора	4481
мари	4482
елове	4483
ижн	4484
пир	4485
тих	4486
кров	4487
ац	4488
кг	4489
ань	4490
оциал	4491
ыт	4492
овсе	4493
есно	4494
орожн	4495
рошло	4496
асса	4497
алья	4498
ома	4499
оса	4500
оао	4501
ега	4502
уэ	4503
омен	4504
кпр	4505
нак	4506
мак	4507
capt	4508
кпрф	4509
утр	4510
нацио	4511
икс	4512
прев	4513
овен	4514
##ul	4515
овки	4516
раш	4517
уте	4518
овед	4519
реко	4520
огод	4521
озиц	4522
глас	4523
янс	4524
ря	4525
##ay	4526
оте	4527
завер	4528
оми	4529
инов	4530
довол	4531
ьмо	4532
оты	4533
отни	4534
рочн	4535
спек	4536
овало	4537
читаю	4538
мэр	4539
ушен	4540
рупп	4541
ce	4542
коло	4543
вка	4544
етро	4545
cop	4546
отел	4547
танц	4548
150	4549
онии	4550
bre	4551
поста	4552
либ	4553
азу	4554
обще	4555
онт	4556
гибдд	4557
оже	4558
эро	4559
кап	4560
of	4561
wada	4562
дко	4563
кру	4564
##гу	4565
заг	4566
толи	4567
суди	4568
оотв	4569
елем	4570
рым	4571
рофес	4572
оем	4573
сень	4574
цир	4575
цам	4576
енз	4577
изу	4578
лома	4579
альне	4580
am	4581
олов	4582
ливо	4583
угол	4584
##шк	4585
овь	4586
лиж	4587
ерп	4588
меет	4589
виж	4590
естн	4591
ируе	4592
ержив	4593
бить	4594
деж	4595
gro	4596
хор	4597
##yr	4598
торы	4599
екл	4600
and	4601
нн	4602
трое	4603
служи	4604
вати	4605
sh	4606
есо	4607
очет	4608
ровск	4609
рода	4610
лизир	4611
el	4612
ww	4613
ико	4614
льц	4615
днр	4616
онных	4617
трон	4618
нешне	4619
32	4620
оров	4621
сточ	4622
еди	4623
напр	4624
пеш	4625
омпан	4626
нна	4627
уи	4628
воен	4629
делен	4630
рови	4631
400	4632
so	4633
гог	4634
рва	4635
щим	4636
##ба	4637
ятс	4638
ипе	4639
тиков	4640
вырос	4641
оры	4642
аниям	4643
пус	4644
ight	4645
group	4646
che	4647
эй	4648
иву	4649
учил	4650
tim	4651
na	4652
арод	4653
рой	4654
правд	4655
дп	4656
дох	4657
верд	4658
рже	4659
##ed	4660
арии	4661
одит	4662
тям	4663
орош	4664
ишь	4665
стори	4666
акой	4667
рю	4668
##ia	4669
стил	4670
кальн	4671
иями	4672
напад	4673
вших	4674
жет	4675
хм	4676
рол	4677
еста	4678
copyr	4679
вро	4680
##id	4681
арен	4682
рид	4683
стоя	4684
редне	4685
int	4686
дель	4687
##ум	4688
##эс	4689
опек	4690
упал	4691
кви	4692
аров	4693
есси	4694
аду	4695
удо	4696
форма	4697
yo	4698
вить	4699
юди	4700
тики	4701
урман	4702
лово	4703
ицей	4704
##ks	4705
рч	4706
емье	4707
ra	4708
##ra	4709
обр	4710
ивер	4711
добн	4712
оц	4713
отов	4714
##мис	4715
оспо	4716
лава	4717
мик	4718
дели	4719
есте	4720
36	4721
коро	4722
онно	4723
перес	4724
сили	4725
ацию	4726
##лин	4727
ожен	4728
ствии	4729
убер	4730
упр	4731
.,	4732
жей	4733
нин	4734
перев	4735
аза	4736
итае	4737
олис	4738
ыгр	4739
ent	4740
каб	4741
анта	4742
вых	4743
мии	4744
сал	4745
тиров	4746
сты	4747
аты	4748
ожно	4749
назна	4750
ежден	4751
анка	4752
ийск	4753
пала	4754
офе	4755
вшей	4756
пат	4757
тет	4758
##ук	4759
www	4760
арск	4761
ятн	4762
чива	4763
ибли	4764
mar	4765
ввс	4766
устр	4767
зит	4768
нстр	4769
рку	4770
проф	4771
получ	4772
уста	4773
гио	4774
ex	4775
ыж	4776
нами	4777
допус	4778
нные	4779
пох	4780
еса	4781
орог	4782
сив	4783
иви	4784
комис	4785
рант	4786
ссыл	4787
бщ	4788
нко	4789
##эт	4790
оту	4791
пци	4792
##хл	4793
соп	4794
циал	4795
тече	4796
нге	4797
##is	4798
33	4799
ола	4800
инн	4801
оре	4802
екц	4803
душ	4804
ухо	4805
елич	4806
сос	4807
узов	4808
##ово	4809
жит	4810
фл	4811
мес	4812
опи	4813
алит	4814
ктур	4815
уй	4816
##ct	4817
етров	4818
ber	4819
рмо	4820
росс	4821
совер	4822
атов	4823
длеж	4824
иво	4825
рац	4826
торая	4827
бог	4828
игил	4829
евой	4830
вил	4831
вир	4832
мей	4833
окк	4834
очка	4835
водо	4836
ложен	4837
покуп	4838
жем	4839
##нс	4840
верж	4841
",	4842
lo	4843
аро	4844
зл	4845
прово	4846
ирск	4847
кул	4848
ставл	4849
возбу	4850
учит	4851
вшие	4852
нения	4853
sa	4854
вну	4855
еход	4856
изы	4857
онда	4858
ерна	4859
se	4860
##ft	4861
оборо	4862
лис	4863
лиции	4864
азо	4865
ота	4866
##сир	4867
одк	4868
ясн	4869
иста	4870
ваз	4871
иден	4872
ажу	4873
седн	4874
лана	4875
тала	4876
сток	4877
iph	4878
еми	4879
пс	4880
тле	4881
юда	4882
ходя	4883
ислен	4884
тивно	4885
ярн	4886
сын	4887
итов	4888
отс	4889
тоян	4890
перво	4891
акр	4892
ражда	4893
кэ	4894
##ье	4895
контр	4896
##ess	4897
титу	4898
потр	4899
ерман	4900
едом	4901
уре	4902
иду	4903
биле	4904
олу	4905
арто	4906
ожет	4907
ктора	4908
ером	4909
75	4910
mer	4911
ащен	4912
нп	4913
урм	4914
сроч	4915
ероя	4916
at	4917
нци	4918
шан	4919
ьи	4920
ьк	4921
нать	4922
кать	4923
ничн	4924
прият	4925
етей	4926
има	4927
кив	4928
55	4929
дним	4930
лли	4931
оей	4932
ртов	4933
ьниц	4934
одня	4935
атил	4936
ницы	4937
times	4938
нау	4939
итер	4940
орва	4941
оза	4942
мых	4943
екре	4944
вая	4945
вает	4946
сию	4947
думы	4948
дне	4949
ою	4950
чно	4951
изе	4952
ерск	4953
ерва	4954
тери	4955
стои	4956
гани	4957
##ank	4958
##ort	4959
аив	4960
тина	4961
нечн	4962
вои	4963
лья	4964
едк	4965
пута	4966
ленно	4967
иниц	4968
избир	4969
пец	4970
тинг	4971
шим	4972
овк	4973
зак	4974
ляр	4975
еоб	4976
стик	4977
дающ	4978
убл	4979
овала	4980
нил	4981
ованы	4982
егат	4983
обход	4984
дам	4985
кана	4986
або	4987
дить	4988
тные	4989
рано	4990
мущ	4991
исте	4992
авт	4993
учш	4994
нты	4995
ребов	4996
##um	4997
лак	4998
редпо	4999
ачал	5000
be	5001
wi	5002
еры	5003
орни	5004
опор	5005
иве	5006
едн	5007
етье	5008
жида	5009
34	5010
нсп	5011
чес	5012
ыс	5013
оллек	5014
грам	5015
фас	5016
позво	5017
вше	5018
вон	5019
бом	5020
лдпр	5021
вшего	5022
акон	5023
ема	5024
рс	5025
науч	5026
обес	5027
анн	5028
тии	5029
##and	5030
посту	5031
вета	5032
гул	5033
жение	5034
шив	5035
года	5036
арс	5037
осет	5038
мать	5039
рова	5040
пожа	5041
шаг	5042
man	5043
nat	5044
sk	5045
куд	5046
олен	5047
разг	5048
ивы	5049
##ецк	5050
ющих	5051
реть	5052
вм	5053
нный	5054
раво	5055
олном	5056
роб	5057
ашен	5058
иция	5059
ву	5060
##ид	5061
##bc	5062
тани	5063
етил	5064
миг	5065
ожил	5066
нков	5067
вроп	5068
##чк	5069
мах	5070
%.	5071
37	5072
выб	5073
##ными	5074
нимаю	5075
отом	5076
ржд	5077
реле	5078
онечн	5079
вэ	5080
иси	5081
лоб	5082
##da	5083
прид	5084
емо	5085
атч	5086
алого	5087
жкх	5088
ьм	5089
поне	5090
спл	5091
вери	5092
brent	5093
еки	5094
мис	5095
ури	5096
ольши	5097
снг	5098
th	5099
вме	5100
дик	5101
еят	5102
сом	5103
бс	5104
уе	5105
щее	5106
мое	5107
анима	5108
визи	5109
ляю	5110
госпо	5111
ian	5112
тф	5113
фир	5114
##фо	5115
ловно	5116
тема	5117
рье	5118
кнр	5119
42	5120
астр	5121
уф	5122
емле	5123
озда	5124
нский	5125
38	5126
жир	5127
оход	5128
рри	5129
овн	5130
рали	5131
вого	5132
ешк	5133
gram	5134
des	5135
ибо	5136
ллек	5137
едет	5138
елев	5139
go	5140
jo	5141
иент	5142
лил	5143
юл	5144
##co	5145
алов	5146
вора	5147
ропа	5148
оном	5149
тным	5150
щую	5151
##ud	5152
##ция	5153
етвер	5154
ирек	5155
май	5156
урецк	5157
ающих	5158
авший	5159
лор	5160
наде	5161
еня	5162
ерси	5163
атить	5164
дия	5165
восс	5166
кций	5167
тайск	5168
вмест	5169
сск	5170
##sj	5171
онс	5172
вкс	5173
##oom	5174
600	5175
нсо	5176
чп	5177
чных	5178
##lo	5179
носи	5180
енси	5181
ge	5182
фина	5183
кома	5184
обл	5185
илли	5186
очер	5187
узы	5188
нител	5189
трукт	5190
звест	5191
чные	5192
ныне	5193
реали	5194
йк	5195
щат	5196
олг	5197
ары	5198
тыр	5199
la	5200
нео	5201
возв	5202
ужно	5203
купа	5204
увер	5205
цу	5206
яли	5207
тат	5208
моя	5209
сум	5210
лете	5211
##изо	5212
жили	5213
снос	5214
lin	5215
pe	5216
vol	5217
дъ	5218
трени	5219
честв	5220
аси	5221
бе	5222
шей	5223
##ья	5224
##ub	5225
тоят	5226
лок	5227
рыно	5228
ародн	5229
65	5230
вов	5231
дроб	5232
рата	5233
орен	5234
уются	5235
ативн	5236
ула	5237
тоял	5238
одро	5239
мвф	5240
##all	5241
##ki	5242
##жи	5243
кры	5244
##ard	5245
еся	5246
осмо	5247
уба	5248
ужен	5249
250	5250
кет	5251
рш	5252
ремя	5253
обсе	5254
онта	5255
руга	5256
иму	5257
ube	5258
ur	5259
ыли	5260
меча	5261
ебя	5262
собен	5263
fo	5264
ho	5265
аран	5266
виа	5267
агр	5268
вг	5269
иком	5270
тка	5271
итвы	5272
инга	5273
опе	5274
евых	5275
азн	5276
ратно	5277
фрг	5278
шоу	5279
##ke	5280
стных	5281
ранн	5282
редо	5283
ково	5284
ромн	5285
yout	5286
berg	5287
ed	5288
##fe	5289
поль	5290
осе	5291
вино	5292
твет	5293
азв	5294
езул	5295
руппа	5296
merce	5297
pro	5298
вск	5299
спон	5300
бек	5301
пк	5302
тного	5303
ыло	5304
ерем	5305
убеж	5306
епро	5307
чески	5308
уши	5309
иной	5310
лла	5311
ветс	5312
кте	5313
поэт	5314
онной	5315
айт	5316
очки	5317
еятел	5318
wsj	5319
гим	5320
оим	5321
тств	5322
800	5323
рукт	5324
айдан	5325
вити	5326
##ite	5327
заня	5328
кот	5329
ету	5330
ерба	5331
еальн	5332
ung	5333
ильн	5334
сени	5335
##хи	5336
подс	5337
слуг	5338
bm	5339
авар	5340
лод	5341
мся	5342
илан	5343
рию	5344
пера	5345
вест	5346
тное	5347
нской	5348
boe	5349
обу	5350
еря	5351
апи	5352
прода	5353
46	5354
tr	5355
tor	5356
us	5357
еют	5358
ычн	5359
ьт	5360
рита	5361
##ын	5362
наше	5363
анди	5364
вига	5365
исхо	5366
ажет	5367
120	5368
дерац	5369
лнр	5370
bloom	5371
48	5372
we	5373
дю	5374
тс	5375
##fa	5376
най	5377
уков	5378
меди	5379
##ash	5380
нное	5381
bank	5382
тной	5383
юз	5384
онные	5385
вою	5386
етен	5387
екта	5388
mail	5389
44	5390
wag	5391
xx	5392
ае	5393
ммун	5394
нб	5395
сий	5396
##ние	5397
едва	5398
47	5399
бле	5400
сна	5401
##yp	5402
роком	5403
мыш	5404
екса	5405
мерт	5406
ровн	5407
офи	5408
ередн	5409
ападе	5410
нса	5411
оенн	5412
рма	5413
сизо	5414
есту	5415
дачи	5416
чук	5417
нцев	5418
дробн	5419
бъ	5420
бат	5421
дз	5422
еал	5423
исти	5424
рда	5425
рше	5426
остей	5427
чему	5428
inst	5429
43	5430
нная	5431
ваш	5432
ающий	5433
ажн	5434
ющие	5435
моде	5436
ащит	5437
мяч	5438
ссии	5439
bmw	5440
mic	5441
sam	5442
zr	5443
уше	5444
чей	5445
##te	5446
оват	5447
прое	5448
тья	5449
екущ	5450
ошл	5451
фифа	5452
зован	5453
мисси	5454
азвит	5455
чной	5456
ратор	5457
ечат	5458
попа	5459
##und	5460
inter	5461
зю	5462
##эк	5463
заме	5464
опо	5465
есл	5466
ницу	5467
мпе	5468
айск	5469
ющей	5470
зыва	5471
лта	5472
оси	5473
осту	5474
тий	5475
куль	5476
аэс	5477
##ily	5478
идео	5479
фбр	5480
хир	5481
ьными	5482
соци	5483
бое	5484
техно	5485
епри	5486
ернет	5487
pr	5488
tal	5489
ише	5490
тный	5491
ыбор	5492
ься	5493
руют	5494
лаш	5495
вик	5496
полно	5497
елос	5498
ично	5499
оща	5500
bus	5501
гур	5502
етов	5503
сар	5504
умен	5505
шие	5506
яла	5507
онф	5508
атал	5509
борн	5510
аций	5511
tele	5512
авлял	5513
me	5514
аше	5515
ект	5516
еатр	5517
иен	5518
уц	5519
сте	5520
риш	5521
року	5522
осс	5523
емпи	5524
атер	5525
идент	5526
ствий	5527
лиза	5528
зво	5529
иди	5530
##ши	5531
зато	5532
ерст	5533
рих	5534
сят	5535
тве	5536
естно	5537
роду	5538
няя	5539
life	5540
wor	5541
жск	5542
зде	5543
кас	5544
еран	5545
амо	5546
ужа	5547
ация	5548
41	5549
85	5550
ai	5551
ba	5552
ft	5553
xi	5554
дения	5555
мка	5556
тч	5557
кая	5558
едо	5559
оги	5560
сли	5561
##de	5562
##гер	5563
кое	5564
непр	5565
едан	5566
исе	5567
мате	5568
ртв	5569
иверс	5570
шит	5571
едиц	5572
тых	5573
речи	5574
зао	5575
омин	5576
отп	5577
оны	5578
онен	5579
мои	5580
огд	5581
мани	5582
воров	5583
39	5584
49	5585
do	5586
гк	5587
сбу	5588
##йн	5589
ойн	5590
мот	5591
рич	5592
стиж	5593
ворит	5594
daily	5595
влен	5596
зо	5597
щн	5598
##mi	5599
овав	5600
енте	5601
отер	5602
илос	5603
вад	5604
ающие	5605
нгр	5606
ето	5607
зу	5608
##ti	5609
лир	5610
верт	5611
икул	5612
нтер	5613
раке	5614
di	5615
pri	5616
ri	5617
тас	5618
разб	5619
еве	5620
огу	5621
аку	5622
вающ	5623
нимат	5624
деньг	5625
зк	5626
нной	5627
##ge	5628
##ца	5629
торую	5630
оним	5631
циям	5632
уточ	5633
son	5634
ешен	5635
оят	5636
реста	5637
оков	5638
ирово	5639
лето	5640
net	5641
%,	5642
57	5643
ыстр	5644
отл	5645
боль	5646
аса	5647
азан	5648
ылк	5649
##ult	5650
insta	5651
sams	5652
io	5653
nal	5654
ton	5655
сд	5656
тна	5657
##зв	5658
енк	5659
мыв	5660
ажен	5661
рите	5662
льтур	5663
52	5664
700	5665
гда	5666
дей	5667
мек	5668
шем	5669
арко	5670
икан	5671
ющий	5672
##old	5673
op	5674
нным	5675
чал	5676
ъе	5677
обя	5678
вызв	5679
опр	5680
мира	5681
спы	5682
уди	5683
вето	5684
##трк	5685
овке	5686
##нин	5687
ращен	5688
льм	5689
ляц	5690
едс	5691
сков	5692
айо	5693
бас	5694
ппа	5695
рман	5696
##ci	5697
онск	5698
уса	5699
туре	5700
агер	5701
рых	5702
язы	5703
роне	5704
внос	5705
кти	5706
нхл	5707
пить	5708
рта	5709
рят	5710
тос	5711
тбол	5712
хэ	5713
иля	5714
ейк	5715
амм	5716
оего	5717
тый	5718
елы	5719
рези	5720
еньк	5721
вари	5722
рных	5723
фг	5724
стиц	5725
анр	5726
приз	5727
##авш	5728
рип	5729
иса	5730
орол	5731
жид	5732
адио	5733
bg	5734
аур	5735
кп	5736
нки	5737
пти	5738
чм	5739
зация	5740
енци	5741
руко	5742
стоял	5743
лого	5744
53	5745
is	5746
pla	5747
si	5748
рди	5749
##яс	5750
нош	5751
раве	5752
рево	5753
ерну	5754
очной	5755
сме	5756
исал	5757
ашей	5758
фрс	5759
volks	5760
cn	5761
мят	5762
фект	5763
##уа	5764
##цк	5765
олы	5766
арди	5767
торым	5768
пао	5769
учк	5770
еза	5771
ехн	5772
ниман	5773
дмин	5774
ers	5775
нпф	5776
62	5777
fl	5778
par	5779
асн	5780
еу	5781
нсир	5782
рц	5783
умм	5784
ыть	5785
рада	5786
ерр	5787
мого	5788
убо	5789
ждал	5790
войс	5791
stre	5792
иу	5793
ида	5794
нга	5795
уск	5796
намер	5797
аме	5798
джа	5799
езо	5800
cas	5801
орат	5802
##зер	5803
овет	5804
арте	5805
роя	5806
тика	5807
есен	5808
темы	5809
осаго	5810
азани	5811
есяце	5812
бъем	5813
eu	5814
нных	5815
##ld	5816
нанс	5817
овка	5818
ноп	5819
есе	5820
мам	5821
чая	5822
ожар	5823
ломк	5824
su	5825
аго	5826
дение	5827
уро	5828
юге	5829
неи	5830
орит	5831
сист	5832
вшим	5833
нув	5834
nite	5835
рный	5836
нициа	5837
онг	5838
дание	5839
адн	5840
ровь	5841
орой	5842
ищев	5843
лма	5844
мма	5845
нце	5846
тник	5847
овес	5848
обыт	5849
воих	5850
одов	5851
емых	5852
несе	5853
исл	5854
novi	5855
ружен	5856
ачен	5857
дател	5858
дпол	5859
ib	5860
бн	5861
лос	5862
тст	5863
уал	5864
##ср	5865
обил	5866
икал	5867
ндо	5868
рупн	5869
ted	5870
шум	5871
бет	5872
олич	5873
пф	5874
уси	5875
##yo	5876
нах	5877
рати	5878
нить	5879
татов	5880
адавш	5881
гласи	5882
транн	5883
ашин	5884
ачи	5885
эфф	5886
мгу	5887
оял	5888
пул	5889
уан	5890
##se	5891
остро	5892
одни	5893
пода	5894
ятно	5895
кован	5896
агра	5897
рыва	5898
ыполн	5899
64	5900
mi	5901
шко	5902
пояс	5903
##ско	5904
руже	5905
миро	5906
ирк	5907
окр	5908
огр	5909
сул	5910
айл	5911
види	5912
нту	5913
унк	5914
почт	5915
##est	5916
he	5917
рго	5918
овод	5919
анда	5920
лиров	5921
асв	5922
мун	5923
изошл	5924
ard	5925
51	5926
ice	5927
бен	5928
кса	5929
нне	5930
##эн	5931
##чев	5932
мые	5933
еку	5934
ваем	5935
вами	5936
возм	5937
анкер	5938
рфс	5939
тко	5940
шл	5941
ыз	5942
арна	5943
оду	5944
силь	5945
трал	5946
езу	5947
икак	5948
щать	5949
nault	5950
eg	5951
аил	5952
бов	5953
рто	5954
рки	5955
раю	5956
раль	5957
нице	5958
дой	5959
орно	5960
мите	5961
акар	5962
еобх	5963
af	5964
рци	5965
шил	5966
шек	5967
##va	5968
енат	5969
анной	5970
цид	5971
ходим	5972
гуля	5973
тите	5974
jour	5975
жу	5976
##дж	5977
##vo	5978
кими	5979
мый	5980
джет	5981
тайн	5982
зова	5983
рикан	5984
ad	5985
es	5986
gu	5987
sm	5988
кем	5989
рни	5990
тл	5991
##тс	5992
рех	5993
огер	5994
черк	5995
russ	5996
чьи	5997
toyo	5998
gal	5999
шая	6000
наст	6001
рах	6002
рей	6003
приб	6004
ишк	6005
con	6006
mon	6007
аун	6008
оител	6009
##жен	6010
наме	6011
ону	6012
мом	6013
алу	6014
леду	6015
рыл	6016
ичк	6017
ольф	6018
дово	6019
рудо	6020
ford	6021
hy	6022
pa	6023
вую	6024
етон	6025
жда	6026
йс	6027
ренн	6028
##шин	6029
итк	6030
итат	6031
добы	6032
онят	6033
рим	6034
етить	6035
оде	6036
атк	6037
раба	6038
ующих	6039
орам	6040
67	6041
74	6042
гг	6043
жат	6044
пек	6045
пей	6046
##me	6047
ейт	6048
конеч	6049
оник	6050
нтябр	6051
тавк	6052
ашк	6053
##ers	6054
уефа	6055
micro	6056
play	6057
ждает	6058
56	6059
вля	6060
мул	6061
прем	6062
обав	6063
оле	6064
бычн	6065
лях	6066
очти	6067
четы	6068
икова	6069
soft	6070
tes	6071
зь	6072
##як	6073
арп	6074
осв	6075
ийн	6076
амы	6077
атин	6078
тавит	6079
ующие	6080
введ	6081
ектр	6082
ben	6083
ьный	6084
##ls	6085
##ue	6086
##ca	6087
зад	6088
отд	6089
вости	6090
разве	6091
рони	6092
одр	6093
вищ	6094
тике	6095
euro	6096
77	6097
aut	6098
lada	6099
гей	6100
кую	6101
цру	6102
##чи	6103
реп	6104
ане	6105
аня	6106
инь	6107
вог	6108
##очк	6109
рдо	6110
world	6111
рна	6112
рсе	6113
сса	6114
##гин	6115
тац	6116
алют	6117
лага	6118
есу	6119
едов	6120
апл	6121
ильм	6122
рской	6123
130	6124
ефо	6125
рмац	6126
ax	6127
med	6128
##az	6129
риб	6130
авод	6131
ехо	6132
ющим	6133
wiki	6134
72	6135
ial	6136
нутр	6137
хн	6138
##ап	6139
##су	6140
лать	6141
мене	6142
жест	6143
ерам	6144
огич	6145
ght	6146
iv	6147
nt	6148
pol	6149
бре	6150
сат	6151
пот	6152
отал	6153
антов	6154
льб	6155
уде	6156
очно	6157
арнас	6158
95	6159
ph	6160
укой	6161
чного	6162
яза	6163
стн	6164
тога	6165
арр	6166
удит	6167
азов	6168
трак	6169
воре	6170
ущес	6171
uni	6172
##udi	6173
укойл	6174
54	6175
пдд	6176
рме	6177
уве	6178
ьес	6179
обна	6180
лян	6181
меро	6182
аген	6183
печа	6184
лизи	6185
ообща	6186
щении	6187
roid	6188
лярн	6189
тном	6190
ыка	6191
яб	6192
омс	6193
ройс	6194
трой	6195
упи	6196
асов	6197
обща	6198
##ood	6199
ксан	6200
влены	6201
get	6202
жар	6203
пле	6204
ыясн	6205
##пл	6206
##эр	6207
онный	6208
рог	6209
мейк	6210
cl	6211
зм	6212
##ту	6213
##па	6214
отч	6215
изн	6216
орре	6217
осил	6218
##жев	6219
ленн	6220
йском	6221
аке	6222
жает	6223
sport	6224
iii	6225
post	6226
58	6227
бвин	6228
жим	6229
зис	6230
иэ	6231
сур	6232
фк	6233
чка	6234
##енд	6235
инал	6236
етра	6237
асх	6238
серв	6239
##anc	6240
ибун	6241
ьбе	6242
пфр	6243
cit	6244
ty	6245
аул	6246
епо	6247
нного	6248
рне	6249
чным	6250
##tt	6251
коса	6252
скан	6253
менов	6254
иваю	6255
ванию	6256
мба	6257
хмет	6258
63	6259
дс	6260
иот	6261
пий	6262
сить	6263
вым	6264
евн	6265
спг	6266
голо	6267
есто	6268
ифик	6269
рба	6270
bi	6271
зрыв	6272
яви	6273
##шн	6274
забо	6275
изи	6276
таци	6277
сост	6278
трем	6279
лах	6280
ализ	6281
парт	6282
ентра	6283
лизо	6284
емонт	6285
елям	6286
##uts	6287
дельн	6288
вгуст	6289
benz	6290
явили	6291
fr	6292
tv	6293
чл	6294
##цы	6295
итвин	6296
сооб	6297
лице	6298
риров	6299
тико	6300
апе	6301
апу	6302
сиро	6303
ндс	6304
рене	6305
900	6306
ass	6307
aks	6308
ser	6309
дми	6310
еек	6311
лм	6312
рям	6313
##ba	6314
итыв	6315
боя	6316
упа	6317
строе	6318
нская	6319
ощн	6320
площ	6321
нюю	6322
вмс	6323
тства	6324
73	6325
car	6326
wall	6327
дя	6328
жный	6329
иум	6330
лой	6331
фз	6332
хв	6333
доч	6334
домо	6335
алек	6336
роса	6337
лас	6338
тые	6339
ывали	6340
иску	6341
еспч	6342
##ork	6343
ожде	6344
второ	6345
350	6346
евоз	6347
оспит	6348
итики	6349
ктик	6350
##хан	6351
раф	6352
ракт	6353
реал	6354
тает	6355
воп	6356
имс	6357
упе	6358
ожив	6359
ссы	6360
еща	6361
атич	6362
аива	6363
лмаз	6364
99	6365
fm	6366
york	6367
кси	6368
нну	6369
ансир	6370
твит	6371
полов	6372
енту	6373
вете	6374
онкур	6375
160	6376
cnn	6377
59	6378
88	6379
бри	6380
лка	6381
тущ	6382
шет	6383
##ty	6384
итир	6385
ресн	6386
огил	6387
стон	6388
раны	6389
учить	6390
нтв	6391
нижен	6392
ллион	6393
майер	6394
таты	6395
68	6396
pl	6397
зви	6398
кхл	6399
нном	6400
рного	6401
итал	6402
ерф	6403
ейл	6404
аник	6405
мышл	6406
айан	6407
игери	6408
овок	6409
##ill	6410
space	6411
тало	6412
опред	6413
66	6414
вци	6415
гко	6416
уар	6417
ыше	6418
енде	6419
##чак	6420
дини	6421
нду	6422
егэ	6423
варт	6424
ацион	6425
ожден	6426
##ing	6427
end	6428
отуар	6429
auto	6430
иумф	6431
audi	6432
ачн	6433
вки	6434
нто	6435
чный	6436
илер	6437
сок	6438
ейм	6439
##ейн	6440
ози	6441
дню	6442
шенк	6443
усско	6444
аруш	6445
вмф	6446
line	6447
вциом	6448
fa	6449
бще	6450
йо	6451
лина	6452
рной	6453
тэ	6454
ынешн	6455
##ll	6456
ношен	6457
одина	6458
ктер	6459
алай	6460
бах	6461
ветл	6462
ачк	6463
дата	6464
xix	6465
as	6466
wh	6467
зя	6468
кб	6469
мтс	6470
##ta	6471
коап	6472
зала	6473
тап	6474
мею	6475
ахи	6476
атит	6477
вим	6478
верно	6479
ечин	6480
абоч	6481
ортн	6482
180	6483
улин	6484
бсу	6485
##ypt	6486
axy	6487
61	6488
cor	6489
em	6490
аа	6491
абр	6492
благ	6493
гло	6494
нны	6495
оиз	6496
рил	6497
фнс	6498
шки	6499
##гон	6500
иты	6501
опри	6502
осм	6503
льф	6504
адми	6505
сией	6506
пион	6507
ариан	6508
пасе	6509
нфор	6510
мигр	6511
guard	6512
tesla	6513
84	6514
nor	6515
rol	6516
tra	6517
жник	6518
кта	6519
нали	6520
омме	6521
рева	6522
прио	6523
арик	6524
авле	6525
озду	6526
равля	6527
ителе	6528
ine	6529
ниров	6530
рудн	6531
нформ	6532
por	6533
port	6534
war	6535
xvi	6536
змен	6537
нни	6538
##нев	6539
каль	6540
онны	6541
ритор	6542
боч	6543
еские	6544
##ass	6545
all	6546
niss	6547
76	6548
ha	6549
her	6550
бий	6551
дите	6552
еше	6553
иар	6554
оис	6555
ппоз	6556
щения	6557
##af	6558
ерх	6559
орс	6560
одор	6561
осу	6562
саж	6563
льши	6564
склю	6565
уду	6566
ваю	6567
корр	6568
ечк	6569
ующий	6570
нском	6571
ружи	6572
вена	6573
ицию	6574
egypt	6575
".	6576
br	6577
сис	6578
чко	6579
чить	6580
##юк	6581
нала	6582
нако	6583
неб	6584
итв	6585
онц	6586
етск	6587
анил	6588
подоб	6589
емой	6590
огран	6591
курат	6592
ези	6593
ываем	6594
итуа	6595
##org	6596
амаз	6597
лавы	6598
рпц	6599
рмат	6600
ысок	6601
69	6602
71	6603
ive	6604
land	6605
вь	6606
ьет	6607
##ps	6608
ову	6609
арит	6610
имы	6611
сколь	6612
тере	6613
мали	6614
ковск	6615
фициа	6616
икаг	6617
кцио	6618
red	6619
арок	6620
бир	6621
змер	6622
мств	6623
уя	6624
фар	6625
##до	6626
##ys	6627
нот	6628
новил	6629
едующ	6630
ране	6631
пак	6632
абэ	6633
ичем	6634
манск	6635
днк	6636
логов	6637
рофе	6638
дпс	6639
afp	6640
ag	6641
eb	6642
per	6643
воро	6644
есят	6645
зни	6646
кно	6647
щно	6648
##ху	6649
##хин	6650
онча	6651
амят	6652
икет	6653
люче	6654
няти	6655
ичные	6656
еских	6657
airl	6658
bbc	6659
вл	6660
гп	6661
лал	6662
мг	6663
рса	6664
фу	6665
яю	6666
яна	6667
ристо	6668
рои	6669
аход	6670
всу	6671
окал	6672
сман	6673
рфпл	6674
рожде	6675
алкан	6676
92	6677
gi	6678
gold	6679
pi	6680
еор	6681
нм	6682
уна	6683
ута	6684
пери	6685
еды	6686
мым	6687
яте	6688
ятел	6689
долл	6690
ичен	6691
нды	6692
нейш	6693
ицын	6694
ефт	6695
фтс	6696
uber	6697
org	6698
ират	6699
кц	6700
лж	6701
мме	6702
##дь	6703
изме	6704
алю	6705
осов	6706
амс	6707
едел	6708
редп	6709
мерн	6710
ines	6711
##art	6712
печен	6713
ликов	6714
мпан	6715
ропор	6716
вский	6717
press	6718
hyund	6719
обави	6720
82	6721
hi	6722
ry	6723
ure	6724
аказ	6725
ебо	6726
##li	6727
кора	6728
омо	6729
ерро	6730
одил	6731
мим	6732
спч	6733
прави	6734
укр	6735
умент	6736
ртер	6737
##ust	6738
дзо	6739
ab	6740
ly	6741
астн	6742
нч	6743
чек	6744
##бан	6745
##жк	6746
нан	6747
неско	6748
цио	6749
ичего	6750
окер	6751
вают	6752
следу	6753
трас	6754
траф	6755
let	6756
ебен	6757
вался	6758
епа	6759
просы	6760
знь	6761
ацио	6762
еский	6763
омисс	6764
shi	6765
exp	6766
xxi	6767
getty	6768
78	6769
bes	6770
nanc	6771
qu	6772
rt	6773
ress	6774
ss	6775
sup	6776
ua	6777
аек	6778
еод	6779
нде	6780
олик	6781
цин	6782
шок	6783
ыла	6784
##аст	6785
##ug	6786
овел	6787
##рас	6788
разв	6789
тег	6790
телек	6791
ицк	6792
родо	6793
няк	6794
здор	6795
уации	6796
берт	6797
140	6798
афи	6799
deuts	6800
нца	6801
86	6802
kia	6803
mat	6804
тис	6805
шее	6806
коль	6807
рее	6808
орти	6809
мости	6810
алы	6811
роч	6812
аман	6813
стоим	6814
тым	6815
держи	6816
итают	6817
ley	6818
ежа	6819
астер	6820
фгуп	6821
glo	6822
ko	6823
lt	6824
ler	6825
сле	6826
фн	6827
юч	6828
##тен	6829
тая	6830
тации	6831
выми	6832
истер	6833
евин	6834
мыс	6835
апы	6836
ценк	6837
люби	6838
икам	6839
олин	6840
попыт	6841
##ind	6842
оргов	6843
capi	6844
тиру	6845
уфс	6846
mit	6847
sol	6848
гсу	6849
ояв	6850
рным	6851
сма	6852
чения	6853
яск	6854
##шек	6855
##ber	6856
поми	6857
пря	6858
раже	6859
##лит	6860
ерз	6861
амва	6862
вист	6863
тера	6864
утс	6865
удк	6866
удет	6867
айс	6868
лева	6869
альни	6870
егио	6871
твуе	6872
оаэ	6873
нную	6874
bil	6875
id	6876
ul	6877
нте	6878
рка	6879
тниц	6880
ько	6881
##ns	6882
##жа	6883
##ьер	6884
нал	6885
ната	6886
омик	6887
анер	6888
анси	6889
етит	6890
озя	6891
адиц	6892
реде	6893
айер	6894
резид	6895
унн	6896
чены	6897
вэб	6898
fox	6899
аган	6900
оящ	6901
рги	6902
шии	6903
шение	6904
##пк	6905
##fc	6906
инто	6907
менен	6908
елан	6909
ниям	6910
ртн	6911
вине	6912
##ast	6913
tech	6914
вгтрк	6915
сийск	6916
мекер	6917
79	6918
fer	6919
нв	6920
оян	6921
пво	6922
чил	6923
щит	6924
##чан	6925
##ka	6926
##oc	6927
##юр	6928
нон	6929
тать	6930
анел	6931
онч	6932
огол	6933
ожк	6934
колл	6935
105	6936
стич	6937
еска	6938
йству	6939
ржи	6940
pors	6941
ram	6942
лек	6943
мкс	6944
сэ	6945
##мат	6946
омму	6947
##сян	6948
рини	6949
торж	6950
ирмен	6951
ивали	6952
унг	6953
ажа	6954
рты	6955
узык	6956
110	6957
##ina	6958
атир	6959
brex	6960
мкад	6961
изнь	6962
ac	6963
ari	6964
pay	6965
луб	6966
фск	6967
чная	6968
ыд	6969
##фор	6970
ерик	6971
орч	6972
алер	6973
рика	6974
опей	6975
тили	6976
елье	6977
ровки	6978
анкци	6979
тях	6980
ишер	6981
шать	6982
ириж	6983
вф	6984
ече	6985
жин	6986
тная	6987
эд	6988
##бек	6989
##ek	6990
изда	6991
ории	6992
##лян	6993
лайн	6994
амал	6995
тич	6996
озд	6997
ирн	6998
оге	6999
утб	7000
упк	7001
упо	7002
вшэ	7003
пиона	7004
ухин	7005
тимул	7006
зовал	7007
фсин	7008
chev	7009
узыка	7010
истич	7011
91	7012
bla	7013
вре	7014
йде	7015
пинг	7016
сня	7017
яни	7018
##бин	7019
поло	7020
обин	7021
енции	7022
анш	7023
арно	7024
опк	7025
ату	7026
озы	7027
адал	7028
веде	7029
канди	7030
начин	7031
ором	7032
уплен	7033
ожн	7034
ечта	7035
ринц	7036
иками	7037
рке	7038
no1	7039
еаэс	7040
roy	7041
iaaf	7042
еллер	7043
nik	7044
хмед	7045
glob	7046
lu	7047
nas	7048
wti	7049
вщ	7050
гли	7051
йз	7052
лф	7053
нник	7054
пли	7055
ьют	7056
##ep	7057
##етт	7058
рикс	7059
##лок	7060
дино	7061
ошк	7062
ужбы	7063
les	7064
аких	7065
##ans	7066
айкал	7067
мфо	7068
нюдь	7069
mark	7070
bel	7071
pet	7072
res	7073
дки	7074
рси	7075
рные	7076
фм	7077
чс	7078
чки	7079
##жу	7080
мих	7081
бои	7082
очек	7083
дици	7084
ужб	7085
ичных	7086
ажны	7087
ицио	7088
serv	7089
ca	7090
cr	7091
cat	7092
cre	7093
ner	7094
ot	7095
рти	7096
рде	7097
шель	7098
язи	7099
стной	7100
омог	7101
енч	7102
приг	7103
ейх	7104
опу	7105
перт	7106
рое	7107
одер	7108
ахр	7109
еден	7110
скл	7111
ехно	7112
ацией	7113
имост	7114
салон	7115
еррор	7116
ктам	7117
mits	7118
94	7119
vo	7120
адач	7121
жите	7122
иет	7123
оит	7124
пиров	7125
тва	7126
тэк	7127
##xus	7128
овин	7129
ойл	7130
тают	7131
онстр	7132
лиф	7133
ерин	7134
тренн	7135
мою	7136
скал	7137
учи	7138
азмер	7139
сирий	7140
ссан	7141
ищи	7142
ney	7143
290	7144
банко	7145
айден	7146
иллиа	7147
super	7148
81	7149
dis	7150
han	7151
il	7152
блен	7153
дэ	7154
##чук	7155
##ma	7156
овной	7157
док	7158
ору	7159
ейер	7160
рием	7161
етан	7162
истр	7163
виль	7164
учше	7165
оха	7166
наза	7167
кты	7168
ингов	7169
ателе	7170
еаль	7171
мско	7172
ванн	7173
мсфо	7174
тстве	7175
пийск	7176
assoc	7177
ссанж	7178
ms	7179
mus	7180
wash	7181
вя	7182
зра	7183
зных	7184
лезн	7185
уще	7186
шат	7187
##фе	7188
итт	7189
итн	7190
прош	7191
рещ	7192
тата	7193
коман	7194
авы	7195
скв	7196
урк	7197
екан	7198
асск	7199
ожа	7200
егит	7201
лук	7202
ищу	7203
##ade	7204
sko	7205
fly	7206
93	7207
hu	7208
гтрк	7209
лых	7210
лить	7211
шал	7212
рать	7213
аре	7214
риан	7215
аяк	7216
ахт	7217
тира	7218
икел	7219
мерз	7220
водя	7221
онах	7222
безо	7223
анды	7224
ецб	7225
двар	7226
note	7227
аук	7228
жать	7229
айкер	7230
fifa	7231
аиш	7232
ржа	7233
98	7234
tri	7235
зир	7236
зник	7237
иноп	7238
м2	7239
нда	7240
уни	7241
усс	7242
##зе	7243
##яр	7244
стым	7245
ници	7246
##рон	7247
етв	7248
рока	7249
винин	7250
есел	7251
елек	7252
владе	7253
идж	7254
личк	7255
159	7256
еской	7257
170	7258
star	7259
оспод	7260
пирт	7261
##ull	7262
83	7263
she	7264
дли	7265
нент	7266
рном	7267
тмен	7268
щение	7269
ъед	7270
##сон	7271
##нх	7272
##ie	7273
##bo	7274
енгер	7275
иман	7276
ласс	7277
##утер	7278
амск	7279
спол	7280
едв	7281
ведо	7282
грани	7283
летк	7284
тнош	7285
икар	7286
ифер	7287
койл	7288
авляе	7289
ubi	7290
кгб	7291
gy	7292
sci	7293
жных	7294
зят	7295
пц	7296
##ii	7297
##фу	7298
##ща	7299
##ано	7300
##рот	7301
ейд	7302
арин	7303
стре	7304
авин	7305
вере	7306
еде	7307
азви	7308
ичто	7309
дало	7310
ероп	7311
ионер	7312
##ats	7313
ксе	7314
450	7315
tors	7316
week	7317
лтай	7318
ltd	7319
fre	7320
my	7321
вей	7322
лг	7323
мпи	7324
нел	7325
рре	7326
тыв	7327
##ne	7328
##fi	7329
нахо	7330
ноше	7331
воли	7332
быва	7333
орви	7334
виц	7335
твую	7336
оскол	7337
сион	7338
ужн	7339
вании	7340
венир	7341
comm	7342
вднх	7343
вэба	7344
gt	7345
je	7346
wel	7347
гэс	7348
дым	7349
йон	7350
хра	7351
хин	7352
юар	7353
##do	7354
##пс	7355
##фл	7356
зада	7357
заве	7358
тари	7359
анжев	7360
робн	7361
окси	7362
азм	7363
азве	7364
плыв	7365
валк	7366
ницк	7367
мощи	7368
ержал	7369
ксус	7370
нтам	7371
шинев	7372
рудов	7373
ica	7374
grap	7375
bler	7376
mart	7377
польз	7378
ment	7379
тируе	7380
нвес	7381
skoda	7382
htt	7383
ke	7384
sy	7385
wat	7386
way	7387
звол	7388
йр	7389
лент	7390
лят	7391
нян	7392
олаг	7393
оун	7394
##ws	7395
##ff	7396
ови	7397
нест	7398
олч	7399
ерес	7400
етве	7401
ахо	7402
теш	7403
полня	7404
акал	7405
убли	7406
иско	7407
егк	7408
икат	7409
ind	7410
inde	7411
лавн	7412
poke	7413
капит	7414
одкб	7415
del	7416
fe	7417
fon	7418
hon	7419
hold	7420
lla	7421
mc	7422
sc	7423
мр	7424
рэ	7425
уко	7426
усь	7427
хт	7428
чном	7429
##бт	7430
##мар	7431
коб	7432
изер	7433
тами	7434
ерсо	7435
роек	7436
ирь	7437
госп	7438
вай	7439
корин	7440
ниях	7441
ратит	7442
узн	7443
ариат	7444
лексе	7445
чья	7446
erfa	7447
ержи	7448
##ine	7449
сложн	7450
зинь	7451
чейк	7452
graph	7453
erfax	7454
by	7455
bar	7456
der	7457
gl	7458
ka	7459
аво	7460
рла	7461
юг	7462
##вен	7463
пой	7464
енген	7465
оти	7466
анха	7467
ыход	7468
амил	7469
ляп	7470
ектив	7471
казы	7472
абу	7473
равит	7474
порти	7475
ффан	7476
##ana	7477
оуи	7478
ste	7479
елями	7480
бота	7481
энд	7482
вижен	7483
trans	7484
open	7485
кпп	7486
ev	7487
sco	7488
итом	7489
луг	7490
нными	7491
рга	7492
сло	7493
уиз	7494
фре	7495
хх	7496
шот	7497
##мк	7498
стные	7499
обод	7500
инер	7501
арите	7502
одж	7503
одче	7504
одных	7505
дай	7506
люк	7507
веш	7508
седат	7509
ндфл	7510
lexus	7511
ренер	7512
улк	7513
качес	7514
епе	7515
антин	7516
попул	7517
зовы	7518
amer	7519
sony	7520
nord	7521
black	7522
are	7523
gen	7524
oo	7525
s7	7526
tch	7527
иод	7528
кле	7529
оот	7530
рст	7531
##mp	7532
##хт	7533
овр	7534
онни	7535
онья	7536
ерен	7537
огин	7538
ятк	7539
возд	7540
рядк	7541
тенк	7542
ентар	7543
армон	7544
ишин	7545
оук	7546
comp	7547
rov	7548
мокр	7549
sky	7550
усада	7551
бахче	7552
инопт	7553
http	7554
87	7555
bro	7556
ep	7557
ter	7558
аин	7559
лют	7560
лман	7561
мут	7562
мрот	7563
ольк	7564
тез	7565
тэс	7566
уин	7567
ьва	7568
##зо	7569
##sa	7570
##ьян	7571
##уз	7572
##фср	7573
лии	7574
арю	7575
опл	7576
озн	7577
едро	7578
гласн	7579
ведя	7580
айя	7581
охин	7582
чении	7583
логии	7584
ауз	7585
ержа	7586
реля	7587
рети	7588
онок	7589
ефть	7590
china	7591
рсфср	7592
вуз	7593
вфла	7594
scien	7595
89	7596
ct	7597
ie	7598
ve	7599
рр	7600
##ai	7601
##go	7602
отин	7603
анч	7604
орп	7605
аля	7606
разм	7607
опат	7608
предс	7609
подн	7610
вада	7611
менее	7612
айор	7613
виду	7614
корм	7615
умб	7616
ража	7617
давш	7618
ффе	7619
варен	7620
##ore	7621
уация	7622
трате	7623
ержат	7624
arch	7625
off	7626
фскн	7627
ness	7628
аус	7629
зри	7630
нси	7631
тед	7632
тую	7633
тени	7634
хам	7635
шения	7636
щил	7637
##пы	7638
##рн	7639
нома	7640
нико	7641
либр	7642
ейз	7643
ейдж	7644
одд	7645
авить	7646
едр	7647
ирова	7648
ложк	7649
ороп	7650
ипт	7651
##one	7652
ерево	7653
ават	7654
cont	7655
220	7656
sty	7657
нкер	7658
ургут	7659
аижк	7660
ыры	7661
art	7662
bent	7663
media	7664
йзен	7665
min	7666
mir	7667
евик	7668
зме	7669
рер	7670
цо	7671
шую	7672
ьная	7673
яже	7674
##зин	7675
##вд	7676
##мы	7677
овит	7678
оттен	7679
орос	7680
остал	7681
ристи	7682
имон	7683
льк	7684
амин	7685
спр	7686
маз	7687
сква	7688
пасн	7689
айзер	7690
апк	7691
родов	7692
трад	7693
тавл	7694
ирую	7695
унь	7696
ins	7697
125	7698
рецк	7699
инос	7700
live	7701
limi	7702
ural	7703
ci	7704
du	7705
kar	7706
morg	7707
ny	7708
sn	7709
ver	7710
вент	7711
женн	7712
мсп	7713
оутер	7714
тказ	7715
туп	7716
щиц	7717
##бер	7718
##хов	7719
##эп	7720
##gi	7721
иле	7722
олан	7723
ейр	7724
ейф	7725
аяв	7726
аве	7727
удн	7728
айон	7729
ровой	7730
оскв	7731
ису	7732
ютн	7733
танк	7734
андер	7735
аби	7736
ехим	7737
хаос	7738
мье	7739
ссо	7740
густ	7741
еским	7742
ешск	7743
ботн	7744
##ris	7745
вдв	7746
орода	7747
егап	7748
уберн	7749
отуш	7750
нтерф	7751
plus	7752
nasa	7753
.)	7754
ast	7755
vr	7756
ya	7757
абы	7758
ачин	7759
бб	7760
вного	7761
йф	7762
лга	7763
тц	7764
тител	7765
хит	7766
##уш	7767
##фан	7768
пои	7769
олни	7770
орр	7771
моч	7772
опил	7773
роко	7774
ламен	7775
аттер	7776
вагон	7777
ипк	7778
нули	7779
квар	7780
приня	7781
ini	7782
жении	7783
ауэр	7784
ержан	7785
етерб	7786
лежа	7787
занн	7788
итрин	7789
рчес	7790
sach	7791
нпз	7792
volvo	7793
##oody	7794
ferr	7795
вщи	7796
..	7797
act	7798
cle	7799
cro	7800
ele	7801
moody	7802
om	7803
кел	7804
кве	7805
пм	7806
тча	7807
ьг	7808
ьед	7809
##бк	7810
##йк	7811
##im	7812
##хе	7813
##20	7814
ове	7815
овд	7816
##ант	7817
моле	7818
ришл	7819
етев	7820
евы	7821
даль	7822
крик	7823
оген	7824
огов	7825
уман	7826
ссов	7827
узыр	7828
линк	7829
inve	7830
novo	7831
ибу	7832
maz	7833
ссион	7834
зинф	7835
time	7836
gem	7837
rio	7838
fran	7839
лмык	7840
учили	7841
ack	7842
eca	7843
ja	7844
jet	7845
ol	7846
жес	7847
рви	7848
сне	7849
шос	7850
ыто	7851
##ды	7852
##фи	7853
поэ	7854
посто	7855
енна	7856
алкон	7857
иху	7858
арва	7859
арны	7860
рир	7861
етар	7862
роят	7863
имк	7864
емно	7865
апо	7866
нимае	7867
езон	7868
оторо	7869
тков	7870
ежим	7871
190	7872
айдар	7873
ara	7874
sput	7875
ссию	7876
оцент	7877
хэм	7878
уфсб	7879
опуля	7880
sachs	7881
mazda	7882
dub	7883
eco	7884
met	7885
pre	7886
ron	7887
wind	7888
аком	7889
дител	7890
зго	7891
нпо	7892
рета	7893
уфа	7894
хни	7895
##ыш	7896
овно	7897
раин	7898
омар	7899
омир	7900
омой	7901
енил	7902
анат	7903
онце	7904
орьб	7905
алли	7906
##ейл	7907
рох	7908
роц	7909
одный	7910
посл	7911
озе	7912
новы	7913
удущ	7914
ошек	7915
офер	7916
ждан	7917
аемо	7918
умов	7919
ериф	7920
епар	7921
280	7922
eng	7923
вант	7924
char	7925
ологи	7926
mars	7927
фмс	7928
раине	7929
).	7930
),	7931
96	7932
ay	7933
bur	7934
mp	7935
ng	7936
os	7937
ore	7938
rad	7939
tar	7940
wer	7941
аче	7942
бв	7943
бтр	7944
гб	7945
гии	7946
иник	7947
кис	7948
сход	7949
ыбо	7950
ьки	7951
##жин	7952
##bs	7953
енка	7954
каин	7955
чтоб	7956
инц	7957
вооб	7958
##онд	7959
имер	7960
пасс	7961
айкон	7962
казат	7963
деля	7964
лови	7965
ледо	7966
наса	7967
егов	7968
альс	7969
ингв	7970
ьяху	7971
рков	7972
уаз	7973
улиан	7974
айдер	7975
круч	7976
sho	7977
petro	7978
cred	7979
indep	7980
urals	7981
97	7982
av	7983
out	7984
uar	7985
ze	7986
аут	7987
бп	7988
гд	7989
дг	7990
еул	7991
иша	7992
кну	7993
нью	7994
цю	7995
яй	7996
##ке	7997
##na	7998
##етк	7999
овник	8000
ноб	8001
кола	8002
кали	8003
анша	8004
олочк	8005
оран	8006
етти	8007
мех	8008
амон	8009
евет	8010
тье	8011
мыт	8012
алис	8013
уби	8014
убин	8015
игс	8016
сова	8017
ольно	8018
серг	8019
ышев	8020
ртс	8021
глон	8022
браз	8023
елит	8024
ионе	8025
рете	8026
230	8027
270	8028
ещер	8029
мэй	8030
улярн	8031
cent	8032
amaz	8033
ures	8034
busi	8035
ios	8036
...	8037
bu	8038
can	8039
gre	8040
gps	8041
lam	8042
nes	8043
tur	8044
гуп	8045
зли	8046
квы	8047
митр	8048
рная	8049
рение	8050
шни	8051
##аш	8052
##шер	8053
##юл	8054
##uge	8055
итм	8056
кай	8057
ните	8058
анно	8059
воль	8060
мость	8061
рие	8062
риво	8063
атт	8064
атс	8065
коме	8066
ирен	8067
скус	8068
айвер	8069
мера	8070
мерл	8071
сово	8072
rus	8073
ебаст	8074
тке	8075
авай	8076
чье	8077
240	8078
sti	8079
##use	8080
mod	8081
moss	8082
mac	8083
дении	8084
you	8085
имать	8086
gov	8087
poli	8088
bild	8089
ult	8090
лгбт	8091
aw	8092
cam	8093
pub	8094
sch	8095
uk	8096
va	8097
vers	8098
wa	8099
гбу	8100
икол	8101
оед	8102
урат	8103
##day	8104
##зы	8105
##эб	8106
овл	8107
зас	8108
обла	8109
нын	8110
##ром	8111
ану	8112
олуча	8113
вый	8114
листа	8115
##ейк	8116
атур	8117
мист	8118
спб	8119
спер	8120
теро	8121
терян	8122
горч	8123
урбан	8124
удан	8125
рамп	8126
inc	8127
no3	8128
венно	8129
ешн	8130
ефан	8131
chan	8132
ммент	8133
grand	8134
blue	8135
рчук	8136
link	8137
corp	8138
shell	8139
ейзаж	8140
ихуан	8141
уфас	8142
ble	8143
cra	8144
dr	8145
ey	8146
far	8147
gm	8148
g20	8149
ike	8150
jag	8151
pal	8152
ut	8153
сц	8154
тлич	8155
яние	8156
##дс	8157
##мон	8158
омич	8159
инст	8160
арб	8161
арник	8162
етни	8163
опла	8164
амет	8165
оган	8166
едп	8167
уты	8168
екер	8169
матич	8170
азс	8171
ктейл	8172
ипул	8173
ндер	8174
запа	8175
страц	8176
дана	8177
ртын	8178
апрет	8179
ушн	8180
анон	8181
еском	8182
111	8183
sto	8184
ali	8185
мфц	8186
fiat	8187
ссия	8188
ics	8189
тейш	8190
mana	8191
peuge	8192
ерант	8193
pho	8194
whats	8195
амвай	8196
fons	8197
honda	8198
ikea	8199
borg	8200
ral	8201
tte	8202
ue	8203
бик	8204
дед	8205
дим	8206
ещин	8207
жо	8208
кит	8209
ксим	8210
нур	8211
фом	8212
фсо	8213
эко	8214
##mo	8215
##джи	8216
##iz	8217
##qu	8218
рао	8219
анель	8220
сотр	8221
ейган	8222
ейман	8223
ейха	8224
никс	8225
мират	8226
окс	8227
окру	8228
мао	8229
кучн	8230
ивае	8231
##яза	8232
деть	8233
средн	8234
идо	8235
##ang	8236
мвт	8237
овски	8238
ener	8239
мпк	8240
today	8241
нении	8242
рпк	8243
егаис	8244
псж	8245
крыва	8246
cons	8247
rese	8248
6s	8249
bp	8250
ei	8251
ufc	8252
бмп	8253
зом	8254
иел	8255
квн	8256
мцк	8257
оезд	8258
сент	8259
уми	8260
штон	8261
##зон	8262
##пт	8263
##ван	8264
##вел	8265
##бл	8266
##гк	8267
##to	8268
##ij	8269
##лы	8270
##яж	8271
##фт	8272
тощ	8273
реи	8274
илк	8275
анал	8276
инейн	8277
алуб	8278
мев	8279
меял	8280
ленд	8281
лью	8282
слан	8283
сех	8284
окур	8285
адж	8286
ску	8287
краш	8288
убк	8289
агад	8290
ожь	8291
окож	8292
жду	8293
ехт	8294
итаю	8295
ебно	8296
нских	8297
бращ	8298
no2	8299
##ate	8300
зрен	8301
хмат	8302
360	8303
атыш	8304
lop	8305
750	8306
ешкин	8307
рдаш	8308
олыж	8309
черкн	8310
вищу	8311
вейер	8312
ant	8313
ga	8314
har	8315
ki	8316
ll	8317
non	8318
oil	8319
бэ	8320
дек	8321
еиз	8322
згл	8323
иам	8324
иним	8325
кын	8326
рсп	8327
тку	8328
хма	8329
юль	8330
юще	8331
##йт	8332
пола	8333
итва	8334
омос	8335
анж	8336
анун	8337
инат	8338
воем	8339
ейг	8340
рушен	8341
деб	8342
ирс	8343
окт	8344
огат	8345
роват	8346
ицце	8347
тана	8348
ечени	8349
ормил	8350
ажир	8351
ранит	8352
жижен	8353
ьявол	8354
115	8355
квт	8356
stand	8357
##ith	8358
мбер	8359
ораб	8360
эроп	8361
enter	8362
осик	8363
чало	8364
part	8365
sms	8366
ebit	8367
фнл	8368
дымл	8369
elect	8370
cal	8371
dri	8372
est	8373
mast	8374
rns	8375
бь	8376
ванс	8377
лжи	8378
рян	8379
рмен	8380
шм	8381
юэ	8382
##йл	8383
##kh	8384
##топ	8385
енин	8386
дож	8387
аннер	8388
##кар	8389
воля	8390
ерлин	8391
одан	8392
льман	8393
атан	8394
авно	8395
авит	8396
урил	8397
игов	8398
напо	8399
фак	8400
офз	8401
идд	8402
ичи	8403
осье	8404
##ero	8405
##ond	8406
##ong	8407
ченк	8408
астин	8409
иоск	8410
ухан	8411
рбент	8412
ампер	8413
мощь	8414
ргин	8415
stm	8416
238	8417
зиаст	8418
втун	8419
еркут	8420
аудер	8421
лема	8422
анско	8423
ipo	8424
одах	8425
уэн	8426
иксут	8427
крут	8428
sec	8429
пкр	8430
##ype	8431
айлд	8432
solar	8433
music	8434
mini	8435
етний	8436
ющего	8437
ah	8438
ain	8439
fal	8440
hd	8441
mal	8442
sse	8443
tre	8444
up	8445
wood	8446
вный	8447
гит	8448
ециа	8449
ишен	8450
пб	8451
пно	8452
сви	8453
сыр	8454
хта	8455
ысяч	8456
эш	8457
##юш	8458
стям	8459
ког	8460
код	8461
ниу	8462
анан	8463
орил	8464
алым	8465
аргин	8466
одско	8467
деят	8468
амя	8469
евно	8470
дах	8471
бою	8472
икенд	8473
скре	8474
урен	8475
акси	8476
удут	8477
азет	8478
идн	8479
валер	8480
жинир	8481
стиг	8482
иток	8483
чили	8484
афор	8485
ордон	8486
##ata	8487
225	8488
аузер	8489
оули	8490
бите	8491
##uth	8492
зино	8493
увз	8494
lix	8495
оэср	8496
арлам	8497
рюк	8498
house	8499
бова	8500
сател	8501
class	8502
тэц	8503
gener	8504
zeit	8505
model	8506
az	8507
oc	8508
ows	8509
swi	8510
um	8511
wba	8512
дка	8513
йва	8514
линг	8515
мра	8516
ппи	8517
пящ	8518
рени	8519
рения	8520
суп	8521
фсс	8522
ьем	8523
юга	8524
##чек	8525
##nc	8526
##лет	8527
##ях	8528
##wn	8529
нез	8530
рами	8531
омни	8532
анз	8533
анны	8534
анец	8535
онь	8536
вом	8537
лика	8538
арес	8539
##ари	8540
анит	8541
льта	8542
тиз	8543
даю	8544
урис	8545
акто	8546
акти	8547
очвы	8548
дию	8549
апин	8550
велоп	8551
устер	8552
иды	8553
ипенд	8554
ольер	8555
елоч	8556
ебл	8557
брати	8558
роны	8559
ангел	8560
##ink	8561
аска	8562
аскир	8563
оид	8564
max	8565
беди	8566
номич	8567
amne	8568
эйл	8569
ents	8570
exx	8571
netf	8572
ibu	8573
ейлор	8574
гпу	8575
енчур	8576
хмад	8577
свид	8578
bas	8579
ds	8580
gam	8581
gel	8582
lg	8583
ps	8584
sen	8585
uri	8586
ura	8587
wal	8588
wta	8589
бд	8590
дри	8591
еем	8592
ктр	8593
лрос	8594
муп	8595
фти	8596
фано	8597
##ni	8598
##вет	8599
##rys	8600
##хуа	8601
##юс	8602
##cus	8603
пото	8604
неде	8605
омы	8606
омов	8607
енни	8608
нили	8609
енить	8610
ойт	8611
тае	8612
анде	8613
ладе	8614
##нач	8615
слен	8616
перег	8617
##ечк	8618
ранх	8619
кук	8620
алик	8621
айда	8622
естер	8623
игер	8624
овыш	8625
усло	8626
турн	8627
укс	8628
ожни	8629
азнач	8630
имир	8631
егет	8632
йдар	8633
брас	8634
ina	8635
виней	8636
аща	8637
нгар	8638
антел	8639
руков	8640
ухон	8641
ъявл	8642
яжел	8643
175	8644
оуми	8645
stone	8646
##ute	8647
оркут	8648
дилер	8649
вател	8650
roen	8651
top	8652
def	8653
абота	8654
lock	8655
злов	8656
340	8657
махер	8658
650	8659
тсж	8660
бъяв	8661
онфе	8662
back	8663
city	8664
roll	8665
rolls	8666
royce	8667
шельк	8668
free	8669
watch	8670
анхай	8671
falc	8672
abc	8673
bn	8674
bal	8675
cy	8676
mh	8677
uki	8678
бяза	8679
епи	8680
зет	8681
йч	8682
ллин	8683
лэп	8684
мми	8685
мман	8686
нба	8687
усн	8688
шар	8689
ыц	8690
##чик	8691
##тк	8692
##пе	8693
##ko	8694
##шир	8695
##шев	8696
##pe	8697
##pi	8698
##pp	8699
##ga	8700
##uis	8701
##цп	8702
сту	8703
##льц	8704
отник	8705
ойс	8706
тах	8707
анган	8708
вост	8709
аним	8710
##лом	8711
ичев	8712
евес	8713
ирджи	8714
сталь	8715
утч	8716
удин	8717
убе	8718
игал	8719
игул	8720
апан	8721
мура	8722
тавля	8723
ключи	8724
уллит	8725
ческу	8726
гуэб	8727
ишеч	8728
ert	8729
##rom	8730
аркер	8731
str	8732
any	8733
ima	8734
зря	8735
очев	8736
tel	8737
ванш	8738
дате	8739
chrys	8740
бром	8741
south	8742
иэл	8743
frank	8744
вопро	8745
ааг	8746
лроса	8747
(!	8748
--	8749
dan	8750
fut	8751
g7	8752
ht	8753
mag	8754
sat	8755
блик	8756
дже	8757
дыв	8758
мни	8759
рро	8760
уска	8761
фбк	8762
хк	8763
чих	8764
##di	8765
##ас	8766
##йв	8767
##цер	8768
нож	8769
зат	8770
лий	8771
ория	8772
арет	8773
етто	8774
опп	8775
ропо	8776
рошл	8777
одом	8778
сеан	8779
вержд	8780
урбин	8781
кун	8782
ализа	8783
значе	8784
идан	8785
елок	8786
малч	8787
inf	8788
бласт	8789
уани	8790
иши	8791
клин	8792
тайс	8793
ища	8794
nex	8795
stat	8796
ana	8797
##iti	8798
огаз	8799
lie	8800
атино	8801
вичус	8802
icij	8803
фирм	8804
focus	8805
smart	8806
ишкек	8807
club	8808
яске	8809
мрск	8810
рспп	8811
drive	8812
шмент	8813
(!)	8814
ea	8815
fash	8816
loo	8817
lli	8818
nbc	8819
ple	8820
pat	8821
ran	8822
ria	8823
sun	8824
бонд	8825
гут	8826
еко	8827
зел	8828
зыр	8829
нста	8830
оул	8831
оша	8832
укол	8833
ыра	8834
ыне	8835
ьор	8836
##av	8837
##ьк	8838
##фар	8839
итин	8840
обан	8841
омст	8842
оттер	8843
ойз	8844
илон	8845
анен	8846
олын	8847
иня	8848
ерца	8849
ейб	8850
алочк	8851
опч	8852
лье	8853
еман	8854
озво	8855
ирзи	8856
окб	8857
лям	8858
утнев	8859
урт	8860
алид	8861
алил	8862
ловн	8863
смс	8864
игл	8865
янн	8866
корп	8867
езе	8868
ндес	8869
вкп	8870
шелон	8871
coц	8872
ульс	8873
135	8874
боты	8875
ald	8876
alp	8877
##ili	8878
лтар	8879
spe	8880
box	8881
fort	8882
tail	8883
ipad	8884
еснок	8885
омас	8886
wei	8887
тство	8888
иньк	8889
citi	8890
trav	8891
xvii	8892
уфсин	8893
royal	8894
улкан	8895
оньяк	8896
borgh	8897
bb	8898
bull	8899
card	8900
ee	8901
ess	8902
gn	8903
iy	8904
sber	8905
tti	8906
vest	8907
wo	8908
will	8909
вель	8910
вные	8911
кмен	8912
лтон	8913
тни	8914
тдел	8915
цср	8916
чиц	8917
##чп	8918
##sh	8919
##tv	8920
##ux	8921
страт	8922
коны	8923
неяд	8924
обат	8925
кав	8926
воя	8927
воща	8928
ермен	8929
ордан	8930
ейма	8931
##рут	8932
##дак	8933
аян	8934
ахта	8935
стри	8936
ирт	8937
редь	8938
паде	8939
номы	8940
ельфе	8941
асан	8942
азур	8943
олжн	8944
сказы	8945
отора	8946
егис	8947
ниями	8948
ингер	8949
ьяк	8950
ентск	8951
варц	8952
ery	8953
ежец	8954
210	8955
##adi	8956
утик	8957
лавно	8958
ылды	8959
ican	8960
ity	8961
deve	8962
уэль	8963
amg	8964
ande	8965
beat	8966
sui	8967
фари	8968
лифат	8969
ньюс	8970
nono	8971
ak	8972
age	8973
aust	8974
bri	8975
dol	8976
eo	8977
flo	8978
nter	8979
ners	8980
oi	8981
pic	8982
rs	8983
аста	8984
зма	8985
лб	8986
мги	8987
ммер	8988
рвы	8989
сре	8990
фю	8991
ьхуа	8992
эс	8993
##ms	8994
##жо	8995
##лер	8996
##ly	8997
##фер	8998
##hn	8999
##unt	9000
наг	9001
##лив	9002
итяз	9003
енг	9004
каян	9005
инья	9006
арф	9007
арил	9008
рун	9009
риум	9010
механ	9011
осы	9012
осин	9013
подт	9014
подо	9015
аввин	9016
ивных	9017
майд	9018
адон	9019
едш	9020
уран	9021
акк	9022
люм	9023
елья	9024
ельф	9025
ельц	9026
мети	9027
меть	9028
ловк	9029
дун	9030
гать	9031
азил	9032
офо	9033
офон	9034
алак	9035
ичны	9036
баш	9037
унз	9038
акир	9039
рту	9040
ссанс	9041
ветск	9042
угун	9043
ичнев	9044
асту	9045
ишнев	9046
145	9047
ибер	9048
ищет	9049
орист	9050
ятия	9051
рису	9052
нерц	9053
елег	9054
tou	9055
lic	9056
нке	9057
day	9058
эйн	9059
ыжи	9060
bear	9061
нспк	9062
рсбу	9063
вух	9064
web	9065
pari	9066
suz	9067
bile	9068
льфин	9069
янао	9070
фнб	9071
оксич	9072
фюмер	9073
3d	9074
hel	9075
ix	9076
ium	9077
mas	9078
nc	9079
vw	9080
бад	9081
вчин	9082
мд	9083
нщин	9084
сх	9085
уче	9086
шер	9087
юст	9088
юшк	9089
##пу	9090
##лык	9091
##per	9092
##zz	9093
набу	9094
прел	9095
овид	9096
стел	9097
обзон	9098
прок	9099
доз	9100
рече	9101
олоч	9102
выр	9103
воей	9104
ерш	9105
##тик	9106
арг	9107
риу	9108
етч	9109
опг	9110
роче	9111
##рус	9112
есчан	9113
икер	9114
ранц	9115
илин	9116
убн	9117
напа	9118
матр	9119
чех	9120
окой	9121
бун	9122
алач	9123
грэс	9124
егин	9125
теныш	9126
качк	9127
епет	9128
155	9129
узи	9130
##епт	9131
тпп	9132
nolo	9133
йнен	9134
222	9135
гарт	9136
рггу	9137
sta	9138
ердж	9139
рдер	9140
нья	9141
шкент	9142
лтын	9143
tom	9144
tour	9145
teka	9146
драйв	9147
тнт	9148
колот	9149
320	9150
bio	9151
xviii	9152
hua	9153
yah	9154
cross	9155
келет	9156
vesta	9157
>>	9158
gh	9159
gar	9160
ir	9161
kal	9162
pd	9163
que	9164
san	9165
tt	9166
tw	9167
val	9168
wbc	9169
west	9170
x5	9171
аос	9172
вейн	9173
вбек	9174
гэ	9175
динг	9176
ебр	9177
исим	9178
йся	9179
йвар	9180
кф	9181
нинг	9182
оек	9183
хром	9184
##ak	9185
##жан	9186
##эл	9187
##ze	9188
обчак	9189
отка	9190
олок	9191
инев	9192
ерц	9193
аллин	9194
опал	9195
##лев	9196
атла	9197
еван	9198
тиск	9199
вио	9200
крин	9201
лями	9202
огут	9203
едер	9204
сун	9205
икин	9206
куст	9207
игес	9208
елто	9209
упп	9210
укьян	9211
агин	9212
мус	9213
нтро	9214
ечт	9215
ечту	9216
буш	9217
еннос	9218
ываю	9219
ьюс	9220
енок	9221
ндпи	9222
ингл	9223
109	9224
108	9225
ински	9226
течен	9227
count	9228
еско	9229
шает	9230
мидов	9231
лечен	9232
stan	9233
store	9234
мпл	9235
ураб	9236
спид	9237
мэа	9238
мнени	9239
mob	9240
ирог	9241
ораз	9242
spie	9243
##ide	9244
log	9245
арон	9246
john	9247
sim	9248
fli	9249
pare	9250
head	9251
осова	9252
ways	9253
craft	9254
next	9255
люмж	9256
spieg	9257
cus	9258
cbs	9259
dy	9260
mor	9261
ov	9262
sub	9263
дит	9264
драв	9265
еган	9266
жного	9267
иит	9268
лс	9269
лже	9270
мна	9271
ося	9272
пь	9273
тгк	9274
хэт	9275
щал	9276
этр	9277
##нет	9278
##ыз	9279
##мет	9280
несс	9281
каф	9282
выда	9283
етт	9284
етхо	9285
опы	9286
опин	9287
##ейд	9288
одя	9289
##дай	9290
скони	9291
ахим	9292
ахман	9293
ивл	9294
мида	9295
ирка	9296
дак	9297
утил	9298
скер	9299
вах	9300
канер	9301
тык	9302
томо	9303
усел	9304
пун	9305
##ицк	9306
диум	9307
асе	9308
борь	9309
азд	9310
муш	9311
марин	9312
абин	9313
кеан	9314
ормов	9315
оказы	9316
ринью	9317
илош	9318
елин	9319
артн	9320
ушек	9321
ферт	9322
питан	9323
дьей	9324
reg	9325
лант	9326
ргун	9327
stud	9328
жали	9329
архат	9330
нкр	9331
оложе	9332
снбо	9333
ытк	9334
ряк	9335
intel	9336
танин	9337
ury	9338
usb	9339
ntal	9340
аулу	9341
track	9342
bell	9343
мгимо	9344
//	9345
bf	9346
bay	9347
dc	9348
ju	9349
lay	9350
num	9351
xr	9352
атон	9353
бру	9354
бкс	9355
гем	9356
иол	9357
кен	9358
нтом	9359
оус	9360
тво	9361
урав	9362
фцп	9363
шав	9364
щу	9365
ьон	9366
ьей	9367
##бар	9368
##шан	9369
##ште	9370
##дин	9371
##мур	9372
##wc	9373
##щев	9374
ену	9375
##лаш	9376
ниф	9377
ниел	9378
изтоп	9379
анна	9380
триц	9381
арфор	9382
етян	9383
анин	9384
имлян	9385
лай	9386
сян	9387
тила	9388
верс	9389
скфо	9390
удил	9391
кушер	9392
убов	9393
лест	9394
##еньк	9395
туры	9396
апри	9397
окот	9398
свр	9399
мум	9400
скадр	9401
ипрас	9402
трибу	9403
106	9404
107	9405
ртен	9406
нским	9407
днев	9408
еску	9409
женк	9410
ослу	9411
уха	9412
136	9413
афос	9414
луче	9415
260	9416
тюр	9417
есса	9418
лонг	9419
rock	9420
мпшир	9421
ллер	9422
мфи	9423
елюст	9424
ычк	9425
некдо	9426
tic	9427
chris	9428
энк	9429
gran	9430
rack	9431
нилс	9432
урист	9433
mics	9434
акуум	9435
ards	9436
lux	9437
luft	9438
scow	9439
йфон	9440
иамин	9441
xray	9442
шавин	9443
avi	9444
dre	9445
ier	9446
jp	9447
king	9448
nd	9449
ori	9450
ric	9451
v6	9452
wr	9453
аит	9454
аис	9455
бм	9456
гнес	9457
дше	9458
еер	9459
еша	9460
жжен	9461
лго	9462
нсн	9463
оак	9464
огие	9465
оизо	9466
тес	9467
фур	9468
фут	9469
хен	9470
ыге	9471
ьвин	9472
##чив	9473
##аф	9474
##шу	9475
##хат	9476
##gh	9477
##нит	9478
немен	9479
итч	9480
##нол	9481
нив	9482
ойште	9483
иллаш	9484
анго	9485
сочек	9486
онса	9487
орж	9488
ейми	9489
опс	9490
опит	9491
опон	9492
одв	9493
##лоч	9494
егор	9495
ахом	9496
амит	9497
евит	9498
миф	9499
едник	9500
удни	9501
айф	9502
айна	9503
возн	9504
мери	9505
рово	9506
онин	9507
веко	9508
тыре	9509
упл	9510
уппы	9511
ицил	9512
агил	9513
асмур	9514
ошмар	9515
джей	9516
##боу	9517
бак	9518
байт	9519
пиро	9520
лицк	9521
хаот	9522
хаус	9523
сенин	9524
158	9525
варк	9526
ежен	9527
мурт	9528
олице	9529
еракт	9530
дтер	9531
попр	9532
146	9533
мидт	9534
мойк	9535
ауза	9536
ощад	9537
орию	9538
оум	9539
286	9540
улис	9541
##ild	9542
зид	9543
зрк	9544
симо	9545
##apt	9546
аски	9547
нквд	9548
ырг	9549
рожа	9550
vii	9551
visa	9552
анье	9553
колол	9554
хмуд	9555
550	9556
trade	9557
usa	9558
xiv	9559
кпсс	9560
уски	9561
нному	9562
орчен	9563
ртии	9564
jeep	9565
анчж	9566
новые	9567
аджид	9568
ade	9569
call	9570
hyp	9571
sw	9572
tan	9573
ye	9574
боб	9575
дят	9576
лбан	9577
ольн	9578
оше	9579
пни	9580
шить	9581
щер	9582
югу	9583
яп	9584
##ьи	9585
##хр	9586
##je	9587
##юн	9588
##юм	9589
##be	9590
стно	9591
проте	9592
тои	9593
таш	9594
анб	9595
орчак	9596
ейник	9597
алан	9598
ихин	9599
арни	9600
арка	9601
опот	9602
опре	9603
опок	9604
одок	9605
подп	9606
имб	9607
евк	9608
миаш	9609
вии	9610
мади	9611
утер	9612
ургон	9613
уды	9614
убик	9615
метан	9616
укер	9617
уклин	9618
##няк	9619
иццы	9620
асин	9621
азен	9622
рфпи	9623
еньг	9624
rut	9625
ипо	9626
унья	9627
запр	9628
led	9629
ифф	9630
сср	9631
156	9632
ребл	9633
122	9634
ухи	9635
189	9636
165	9637
224	9638
инай	9639
ешил	9640
285	9641
рьян	9642
зрев	9643
увд	9644
мпа	9645
spi	9646
цех	9647
daim	9648
vie	9649
nis	9650
shar	9651
##ump	9652
skype	9653
gear	9654
found	9655
уцер	9656
work	9657
flash	9658
heb	9659
андаш	9660
ольфс	9661
оджер	9662
рство	9663
epa	9664
dubai	9665
uefa	9666
swift	9667
hyper	9668
ae	9669
ale	9670
eas	9671
gol	9672
hal	9673
hol	9674
hur	9675
hum	9676
iat	9677
ien	9678
pmi	9679
pana	9680
sor	9681
tm	9682
tage	9683
uro	9684
with	9685
вав	9686
дру	9687
еви	9688
ельк	9689
еян	9690
жки	9691
жев	9692
зс	9693
зев	9694
звы	9695
мбр	9696
моро	9697
оуч	9698
рче	9699
убр	9700
фрон	9701
чон	9702
чну	9703
эра	9704
ювет	9705
яшк	9706
##кк	9707
##no	9708
##em	9709
##th	9710
##lar	9711
##фал	9712
##bi	9713
изон	9714
толь	9715
доел	9716
таю	9717
анном	9718
анад	9719
лифа	9720
ерил	9721
ерти	9722
ерне	9723
остер	9724
##елье	9725
еймер	9726
ейнол	9727
алдай	9728
ихов	9729
ияд	9730
роше	9731
имра	9732
имми	9733
амоч	9734
авк	9735
авер	9736
ивье	9737
ирги	9738
тью	9739
икк	9740
урин	9741
паш	9742
васт	9743
илик	9744
##быш	9745
ельг	9746
ельер	9747
расхо	9748
несот	9749
усев	9750
дич	9751
асска	9752
азут	9753
плек	9754
алал	9755
ипен	9756
ехман	9757
башк	9758
лати	9759
серт	9760
ренг	9761
авиат	9762
етыр	9763
ерар	9764
coo	9765
cola	9766
coca	9767
чишк	9768
ески	9769
илья	9770
ильяр	9771
116	9772
112	9773
аток	9774
reut	9775
удак	9776
афк	9777
инае	9778
ампа	9779
рагуа	9780
282	9781
ексе	9782
alt	9783
дероб	9784
лавл	9785
лавин	9786
ключа	9787
кспо	9788
аско	9789
иант	9790
tig	9791
щили	9792
энь	9793
сюк	9794
glenc	9795
авкат	9796
nike	9797
рмар	9798
orat	9799
rav	9800
##rai	9801
atla	9802
420	9803
380	9804
есян	9805
дюс	9806
еймар	9807
hunt	9808
арехо	9809
ндак	9810
олчок	9811
mclar	9812
ичиг	9813
нтрол	9814
dream	9815
hebdo	9816
ger	9817
gul	9818
gaz	9819
hil	9820
lle	9821
nan	9822
rp	9823
sal	9824
ssj	9825
tap	9826
xia	9827
бод	9828
бул	9829
гс	9830
дыр	9831
зих	9832
иок	9833
фри	9834
хет	9835
хдс	9836
цум	9837
чуг	9838
ьш	9839
юхин	9840
яжет	9841
якс	9842
##иш	9843
##пч	9844
##пп	9845
##пов	9846
##нь	9847
##рик	9848
##бе	9849
##дк	9850
##дт	9851
##ьо	9852
##uc	9853
пры	9854
овс	9855
овцы	9856
итрус	9857
отро	9858
отил	9859
проек	9860
доль	9861
оньер	9862
лио	9863
ерви	9864
алон	9865
ардан	9866
разл	9867
поди	9868
имин	9869
емени	9870
ивен	9871
ивел	9872
озла	9873
озре	9874
спо	9875
иран	9876
стов	9877
икка	9878
урд	9879
екен	9880
убже	9881
игин	9882
игур	9883
апит	9884
агит	9885
агмат	9886
борд	9887
азар	9888
чег	9889
абич	9890
иджи	9891
скад	9892
еху	9893
петян	9894
ышк	9895
102	9896
поры	9897
154	9898
угин	9899
цао	9900
nok	9901
not	9902
гуз	9903
coll	9904
тинкт	9905
ишек	9906
ионн	9907
аряг	9908
133	9909
132	9910
луи	9911
ощи	9912
172	9913
оух	9914
дова	9915
ймон	9916
втан	9917
урак	9918
стойн	9919
ттп	9920
moto	9921
aru	9922
вност	9923
ерлан	9924
ices	9925
ety	9926
poor	9927
уэл	9928
уэли	9929
love	9930
екист	9931
that	9932
die	9933
print	9934
prise	9935
prime	9936
ibf	9937
кбар	9938
barc	9939
анхае	9940
cib	9941
burg	9942
аутин	9943
бпп	9944
йваз	9945
усну	9946
ыргыз	9947
.:	9948
au	9949
bit	9950
bra	9951
data	9952
full	9953
iam	9954
jaz	9955
md	9956
pass	9957
rf	9958
sis	9959
was	9960
xv	9961
вуд	9962
дэн	9963
екол	9964
еэс	9965
зим	9966
ибр	9967
куч	9968
мрт	9969
мку	9970
нго	9971
нтор	9972
оан	9973
рыт	9974
сик	9975
сбр	9976
тент	9977
тить	9978
умер	9979
фхр	9980
хал	9981
ыно	9982
юш	9983
юфо	9984
##рб	9985
##гал	9986
##pn	9987
##po	9988
##фр	9989
##ha	9990
нае	9991
наро	9992
##ток	9993
##нис	9994
стс	9995
##лис	9996
илен	9997
илмы	9998
олб	9999
собо	10000
ерди	10001
орф	10002
ието	10003
етуч	10004
межев	10005
анихи	10006
имов	10007
скол	10008
тороп	10009
амос	10010
амбо	10011
атта	10012
##исц	10013
тиос	10014
тихо	10015
авуч	10016
озу	10017
мисс	10018
есар	10019
киф	10020
веря	10021
утящ	10022
аклав	10023
решен	10024
игмат	10025
игмар	10026
елел	10027
лехт	10028
янк	10029
апс	10030
ицца	10031
агал	10032
иас	10033
сиров	10034
сип	10035
идье	10036
##муш	10037
джи	10038
ашлык	10039
бальц	10040
егр	10041
хай	10042
триб	10043
дален	10044
ебисц	10045
ышн	10046
носец	10047
101	10048
брак	10049
ффен	10050
оору	10051
това	10052
126	10053
no4	10054
117	10055
миды	10056
213	10057
199	10058
ргсян	10059
stor	10060
##хап	10061
везет	10062
нера	10063
ещан	10064
boy	10065
board	10066
отке	10067
ммв	10068
бюро	10069
ацк	10070
soci	10071
эйр	10072
ыжок	10073
псв	10074
ллиа	10075
think	10076
уфе	10077
laun	10078
имуз	10079
вско	10080
нбки	10081
850	10082
adi	10083
big	10084
990	10085
тэм	10086
аказа	10087
озяй	10088
сэм	10089
лфер	10090
cruis	10091
welle	10092
оксик	10093
пмр	10094
узырь	10095
узыря	10096
htc	10097
essar	10098
lays	10099
дятся	10100
морок	10101
ada	10102
ban	10103
bat	10104
cc	10105
ces	10106
cup	10107
db	10108
eed	10109
euts	10110
fanc	10111
hs	10112
ky	10113
lus	10114
llo	10115
lls	10116
ning	10117
oct	10118
omi	10119
rc	10120
rat	10121
van	10122
vir	10123
win	10124
дду	10125
зве	10126
ибы	10127
иэт	10128
кей	10129
ктов	10130
кку	10131
ксо	10132
манд	10133
мзин	10134
нэ	10135
ооп	10136
пск	10137
плик	10138
сод	10139
сэр	10140
тта	10141
убы	10142
хом	10143
хун	10144
хман	10145
цфо	10146
чо	10147
шоп	10148
ьен	10149
яще	10150
##nd	10151
##ву	10152
##эй	10153
##юг	10154
стя	10155
неск	10156
зани	10157
итс	10158
итта	10159
общен	10160
омбо	10161
омби	10162
ниан	10163
ойны	10164
ойот	10165
илсон	10166
анции	10167
инчев	10168
сочк	10169
выг	10170
онэ	10171
лиан	10172
ерлок	10173
орш	10174
трц	10175
арма	10176
рум	10177
перац	10178
кона	10179
ахмон	10180
льник	10181
атб	10182
атх	10183
евра	10184
комм	10185
авен	10186
озл	10187
озни	10188
иршин	10189
кре	10190
икник	10191
иквел	10192
урбу	10193
урба	10194
акер	10195
акул	10196
ятл	10197
алист	10198
айду	10199
игир	10200
ивар	10201
укан	10202
уклы	10203
азин	10204
звод	10205
дорф	10206
андар	10207
ошкар	10208
мушк	10209
абан	10210
идлав	10211
бум	10212
насел	10213
ивнев	10214
ужба	10215
унгл	10216
альто	10217
умп	10218
юдей	10219
носца	10220
104	10221
арай	10222
винз	10223
винь	10224
ариф	10225
nova	10226
пенг	10227
ильны	10228
чуфар	10229
итеб	10230
114	10231
118	10232
дье	10233
ухар	10234
185	10235
rev	10236
ибл	10237
ибра	10238
137	10239
окраз	10240
вчар	10241
еюган	10242
филд	10243
ens	10244
291	10245
рьез	10246
ефти	10247
ефир	10248
ессон	10249
rob	10250
tock	10251
мфти	10252
шип	10253
tico	10254
ллег	10255
chi	10256
bos	10257
енера	10258
ммк	10259
арней	10260
good	10261
уляк	10262
ганг	10263
vis	10264
vip	10265
ацд	10266
уэтк	10267
руппы	10268
rac	10269
sab	10270
оюд	10271
ski	10272
480	10273
аеб	10274
insti	10275
baba	10276
нтерн	10277
tone	10278
oper	10279
suv	10280
рейк	10281
ghts	10282
площа	10283
trip	10284
indus	10285
mcd	10286
insi	10287
nyt	10288
snap	10289
aston	10290
##qui	10291
фссп	10292
lockh	10293
ьорн	10294
опчен	10295
ncy	10296
logy	10297
дится	10298
други	10299
зихер	10300
дольф	10301
nokia	10302
ммвб	10303
fancy	10304
иэтл	10305
dv	10306
don	10307
dust	10308
ek	10309
food	10310
from	10311
hor	10312
lan	10313
lor	10314
mill	10315
nfc	10316
pwc	10317
rid	10318
sum	10319
too	10320
uan	10321
za	10322
вных	10323
гмо	10324
дст	10325
дран	10326
дфо	10327
есяц	10328
жю	10329
зил	10330
змир	10331
лун	10332
лочк	10333
лбин	10334
мхат	10335
нчи	10336
орал	10337
рлян	10338
сз	10339
тб	10340
тти	10341
фери	10342
шюр	10343
##ex	10344
##мал	10345
##лан	10346
##яш	10347
##хк	10348
овны	10349
стык	10350
рачн	10351
##нок	10352
обов	10353
енец	10354
ентом	10355
отен	10356
нышк	10357
нион	10358
нита	10359
реей	10360
илва	10361
приме	10362
олма	10363
инз	10364
волок	10365
ортон	10366
орбер	10367
ейзер	10368
ихан	10369
армен	10370
рито	10371
етин	10372
еттер	10373
мее	10374
опес	10375
имм	10376
торе	10377
амк	10378
##сье	10379
атэк	10380
атрас	10381
стрин	10382
озер	10383
ирюк	10384
есин	10385
кип	10386
сточн	10387
стаг	10388
стайл	10389
чак	10390
утен	10391
скепт	10392
уря	10393
акса	10394
госу	10395
люст	10396
тышк	10397
трои	10398
янь	10399
гас	10400
асон	10401
вела	10402
иад	10403
ошен	10404
нтин	10405
езар	10406
пиф	10407
лицей	10408
lett	10409
улы	10410
103	10411
епел	10412
акте	10413
вке	10414
208	10415
угмк	10416
аспи	10417
иний	10418
инист	10419
no7	10420
no8	10421
ere	10422
рбу	10423
149	10424
венк	10425
ибе	10426
рхан	10427
оубор	10428
ынь	10429
глуш	10430
ханян	10431
лавк	10432
елени	10433
мчуж	10434
мбет	10435
дцп	10436
##urt	10437
ties	10438
spo	10439
force	10440
dev	10441
ubs	10442
рлык	10443
vimp	10444
аньк	10445
осааф	10446
цирк	10447
душек	10448
уйн	10449
sea	10450
рсон	10451
lab	10452
бещ	10453
котек	10454
dow	10455
вадор	10456
еток	10457
сдп	10458
opel	10459
ункер	10460
paje	10461
вляе	10462
polo	10463
pix	10464
##uga	10465
пряг	10466
911	10467
иджак	10468
bros	10469
ррит	10470
mirr	10471
айоне	10472
show	10473
бпла	10474
turk	10475
эшв	10476
occ	10477
info	10478
loop	10479
дюсш	10480
игурд	10481
mcdon	10482
рлянд	10483
нитаз	10484
02	10485
cadi	10486
das	10487
hr	10488
hat	10489
hen	10490
hill	10491
hbo	10492
ivi	10493
kapt	10494
lte	10495
mash	10496
nce	10497
sit	10498
sur	10499
set	10500
tro	10501
vk	10502
vu	10503
woo	10504
xper	10505
альк	10506
аад	10507
вной	10508
ганд	10509
дур	10510
еат	10511
зст	10512
зол	10513
зуб	10514
йбыш	10515
кч	10516
лар	10517
мю	10518
нш	10519
нвар	10520
пес	10521
пиц	10522
рсн	10523
улик	10524
##dy	10525
##вл	10526
##бал	10527
##уи	10528
##za	10529
##ова	10530
стыл	10531
обк	10532
омки	10533
каля	10534
изк	10535
така	10536
аню	10537
олт	10538
олом	10539
сох	10540
орда	10541
орги	10542
орте	10543
риде	10544
етят	10545
мейс	10546
опул	10547
ият	10548
ройд	10549
анир	10550
осфор	10551
льш	10552
льма	10553
льна	10554
льмен	10555
льну	10556
озо	10557
виг	10558
спит	10559
##гик	10560
окет	10561
веро	10562
огал	10563
едсе	10564
акел	10565
летт	10566
летит	10567
илис	10568
убан	10569
игел	10570
дус	10571
начен	10572
матыв	10573
велин	10574
отров	10575
нарк	10576
плыл	10577
счур	10578
абик	10579
трач	10580
грев	10581
блуд	10582
орман	10583
скак	10584
ашу	10585
ехе	10586
бади	10587
байн	10588
барон	10589
ндин	10590
объя	10591
точит	10592
ринг	10593
lego	10594
акияж	10595
ифон	10596
вало	10597
лити	10598
епин	10599
лагин	10600
204	10601
ентил	10602
принт	10603
тово	10604
ркк	10605
иссан	10606
линн	10607
infi	10608
ондир	10609
##ara	10610
впк	10611
впп	10612
121	10613
128	10614
тпу	10615
now	10616
no5	10617
гумен	10618
адид	10619
шеф	10620
еское	10621
айнц	10622
148	10623
логер	10624
ордин	10625
226	10626
аркин	10627
ксел	10628
ынк	10629
ala	10630
дера	10631
ейндж	10632
294	10633
ппс	10634
тюар	10635
рнк	10636
оэз	10637
mos	10638
##ell	10639
адам	10640
эмми	10641
дене	10642
ical	10643
аклан	10644
хорд	10645
els	10646
wwf	10647
370	10648
tha	10649
уфы	10650
майда	10651
geo	10652
peo	10653
trump	10654
520	10655
ейкер	10656
пейск	10657
рафи	10658
тэка	10659
мгпс	10660
high	10661
унгли	10662
иеты	10663
вяж	10664
llac	10665
glc	10666
фомс	10667
оксин	10668
бьет	10669
мураз	10670
strat	10671
вельт	10672
touch	10673
кфол	10674
hurr	10675
доело	10676
gaze	10677
егрюл	10678
ace	10679
ball	10680
dit	10681
ect	10682
ham	10683
hub	10684
hall	10685
ies	10686
kni	10687
nte	10688
our	10689
pace	10690
ray	10691
sd	10692
sap	10693
бац	10694
вгик	10695
гц	10696
гми	10697
гир	10698
гот	10699
гсс	10700
еча	10701
зур	10702
збу	10703
зейк	10704
кут	10705
кстр	10706
лжен	10707
мт	10708
мним	10709
нрав	10710
нбу	10711
оча	10712
пх	10713
пих	10714
пыл	10715
тсн	10716
уо	10717
уит	10718
щад	10719
эмп	10720
эхо	10721
ючк	10722
южин	10723
##чж	10724
##зк	10725
##вк	10726
##гат	10727
##om	10728
##int	10729
##лов	10730
##ja	10731
##цо	10732
рап	10733
##нот	10734
омра	10735
енди	10736
енхап	10737
отан	10738
отик	10739
изант	10740
инч	10741
инзы	10742
вож	10743
вожу	10744
ерган	10745
ертон	10746
ориц	10747
ейра	10748
мото	10749
##атэ	10750
арра	10751
етте	10752
одг	10753
одск	10754
имхан	10755
имчив	10756
лаж	10757
аят	10758
дец	10759
амел	10760
##виц	10761
атн	10762
авьер	10763
озор	10764
сеян	10765
крест	10766
ляск	10767
ляль	10768
чае	10769
чаю	10770
икси	10771
екма	10772
вала	10773
айи	10774
люч	10775
убен	10776
ельфа	10777
расно	10778
несу	10779
игар	10780
учел	10781
учре	10782
##иху	10783
лео	10784
леб	10785
диг	10786
гаш	10787
апек	10788
ицак	10789
агатэ	10790
ошка	10791
здр	10792
клейк	10793
абал	10794
ужин	10795
ужье	10796
нихан	10797
двфу	10798
енос	10799
еггер	10800
тнос	10801
ебит	10802
нские	10803
манн	10804
ссен	10805
собн	10806
узла	10807
123	10808
127	10809
ардье	10810
no6	10811
гути	10812
cov	10813
##oot	10814
113	10815
атеги	10816
рбер	10817
rec	10818
ибсон	10819
ыпл	10820
169	10821
166	10822
162	10823
калыв	10824
ешет	10825
ачер	10826
211	10827
212	10828
193	10829
249	10830
243	10831
хеш	10832
оуз	10833
оуст	10834
ster	10835
рдин	10836
рдар	10837
еварт	10838
етиц	10839
улит	10840
##utt	10841
нсов	10842
урад	10843
team	10844
ладок	10845
310	10846
вана	10847
liber	10848
оэн	10849
fire	10850
fide	10851
ирож	10852
arm	10853
spar	10854
умын	10855
fore	10856
льдо	10857
етрян	10858
ips	10859
ign	10860
niel	10861
ora	10862
ort	10863
ell	10864
soth	10865
exc	10866
330	10867
sakh	10868
this	10869
онсин	10870
етуш	10871
оватт	10872
зываю	10873
xii	10874
гкчп	10875
зошл	10876
dior	10877
digi	10878
prio	10879
priva	10880
ртаз	10881
530	10882
sion	10883
advi	10884
гейт	10885
ntv	10886
poly	10887
лянк	10888
лянц	10889
лойд	10890
озици	10891
able	10892
soll	10893
bella	10894
рсик	10895
ойлов	10896
хтар	10897
апош	10898
prem	10899
ukrai	10900
гитис	10901
пбгу	10902
balt	10903
pict	10904
преля	10905
риума	10906
two	10907
этрин	10908
hsbc	10909
айдук	10910
cri	10911
cur	10912
cay	10913
dp	10914
dar	10915
den	10916
fund	10917
gor	10918
hes	10919
hug	10920
if	10921
ku	10922
mtv	10923
ool	10924
rx	10925
sv	10926
tol	10927
tns	10928
tute	10929
uc	10930
ual	10931
v8	10932
ven	10933
wing	10934
вени	10935
вным	10936
гв	10937
гва	10938
еус	10939
жные	10940
ззи	10941
иств	10942
исян	10943
йх	10944
йман	10945
мбоу	10946
пюш	10947
фель	10948
цод	10949
цил	10950
цка	10951
шон	10952
эми	10953
##чо	10954
##кер	10955
##ac	10956
##ds	10957
##тп	10958
##man	10959
##йр	10960
##pt	10961
##gue	10962
##цин	10963
овол	10964
нол	10965
омк	10966
отти	10967
прохо	10968
касл	10969
##ало	10970
ойе	10971
анек	10972
олтон	10973
онку	10974
онсо	10975
ерки	10976
орб	10977
орна	10978
алок	10979
иход	10980
риц	10981
риче	10982
етчин	10983
##ейр	10984
одс	10985
иммер	10986
льва	10987
амов	10988
емы	10989
слон	10990
евов	10991
еванд	10992
озетт	10993
мич	10994
вифт	10995
амид	10996
ирж	10997
ирес	10998
дани	10999
терт	11000
терб	11001
огба	11002
едла	11003
утя	11004
утан	11005
мыл	11006
урь	11007
урор	11008
уриц	11009
урби	11010
акш	11011
аксо	11012
акрас	11013
летне	11014
пах	11015
менел	11016
айно	11017
айетт	11018
мерат	11019
мерзи	11020
очв	11021
ловч	11022
оски	11023
онас	11024
##адн	11025
рфб	11026
муар	11027
рыб	11028
охи	11029
абер	11030
езид	11031
еньш	11032
фика	11033
равд	11034
ичер	11035
осьон	11036
ехник	11037
отон	11038
баб	11039
ндал	11040
егал	11041
егле	11042
унзе	11043
машк	11044
носц	11045
жиж	11046
глуб	11047
герб	11048
207	11049
проду	11050
ащик	11051
вязи	11052
олимп	11053
дряш	11054
гувд	11055
течек	11056
шеи	11057
шею	11058
чишек	11059
указа	11060
184	11061
188	11062
ибн	11063
ибал	11064
163	11065
акаро	11066
179	11067
176	11068
ачс	11069
216	11070
237	11071
ньери	11072
дерг	11073
##uss	11074
263	11075
293	11076
ani	11077
везен	11078
тюшк	11079
шкал	11080
пилб	11081
лты	11082
лтур	11083
лдос	11084
мпле	11085
315	11086
lib	11087
нклав	11088
fic	11089
fiba	11090
ижен	11091
ижов	11092
mot	11093
tie	11094
лейк	11095
жнвл	11096
отяг	11097
цефал	11098
нлмк	11099
арук	11100
deep	11101
unes	11102
dae	11103
мккк	11104
тейк	11105
##ung	11106
pos	11107
уэй	11108
raex	11109
lov	11110
пср	11111
ate	11112
опорт	11113
убаш	11114
edit	11115
чейн	11116
bak	11117
bach	11118
##уаз	11119
sukh	11120
шумев	11121
ксак	11122
conc	11123
777	11124
едова	11125
asset	11126
лмы	11127
fair	11128
eby	11129
мгб	11130
gies	11131
амвая	11132
налет	11133
vogue	11134
welt	11135
feed	11136
рлак	11137
уньл	11138
амонт	11139
green	11140
turki	11141
stock	11142
ммиак	11143
иэлт	11144
зырь	11145
dolce	11146
bears	11147
view	11148
golf	11149
human	11150
gulat	11151
ддув	11152
гмии	11153
пюшон	11154
жнвлп	11155
ao	11156
ays	11157
ck	11158
cs	11159
cis	11160
dge	11161
eur	11162
fen	11163
fri	11164
fed	11165
gas	11166
hers	11167
ill	11168
jun	11169
kh	11170
lond	11171
lms	11172
mv	11173
nort	11174
niti	11175
ok	11176
pis	11177
sin	11178
site	11179
tag	11180
var	11181
wbo	11182
аор	11183
ася	11184
ауч	11185
ауг	11186
ври	11187
вук	11188
гав	11189
гку	11190
жак	11191
зян	11192
иор	11193
иета	11194
кд	11195
рми	11196
сны	11197
ува	11198
ущин	11199
урал	11200
фам	11201
хью	11202
цд	11203
чжо	11204
шут	11205
шик	11206
эка	11207
юж	11208
юхов	11209
яиц	11210
яшек	11211
##ег	11212
##ея	11213
##dg	11214
##dge	11215
##зол	11216
##oi	11217
##ip	11218
##эм	11219
##фф	11220
##енс	11221
стм	11222
стру	11223
стюг	11224
копи	11225
итл	11226
итя	11227
итка	11228
итма	11229
обен	11230
обос	11231
омж	11232
##алк	11233
тона	11234
##тье	11235
анет	11236
анте	11237
инод	11238
онтр	11239
лики	11240
орл	11241
орь	11242
орде	11243
орщин	11244
тров	11245
алд	11246
ихи	11247
арят	11248
етя	11249
опт	11250
##ляр	11251
одч	11252
одст	11253
осно	11254
осок	11255
##лот	11256
##лой	11257
подв	11258
##ури	11259
коне	11260
ахмал	11261
амн	11262
##ссп	11263
##ськ	11264
тиш	11265
миа	11266
вима	11267
тея	11268
амир	11269
есник	11270
будо	11271
кист	11272
новит	11273
верал	11274
ляд	11275
огл	11276
маж	11277
адт	11278
адед	11279
адин	11280
едди	11281
суф	11282
урц	11283
урса	11284
акья	11285
удж	11286
удяк	11287
удфан	11288
крад	11289
алич	11290
алия	11291
айх	11292
айен	11293
айка	11294
номер	11295
очва	11296
гой	11297
убя	11298
ровы	11299
ровед	11300
ужев	11301
смо	11302
лех	11303
леон	11304
леба	11305
усин	11306
турва	11307
реме	11308
апор	11309
апез	11310
апшин	11311
агс	11312
ожж	11313
анке	11314
иани	11315
рфен	11316
ошуа	11317
ечи	11318
абол	11319
идже	11320
хост	11321
кеа	11322
блус	11323
##бок	11324
скат	11325
ипто	11326
заявл	11327
баха	11328
гид	11329
итани	11330
ндов	11331
ажжен	11332
ренин	11333
авиш	11334
тенок	11335
еби	11336
снил	11337
ингс	11338
валю	11339
тепе	11340
войк	11341
регу	11342
ьякон	11343
одног	11344
епал	11345
сайд	11346
209	11347
201	11348
ветр	11349
угр	11350
варес	11351
ркин	11352
инил	11353
тук	11354
туруп	11355
ежца	11356
винт	11357
винси	11358
nos	11359
гум	11360
густа	11361
йнар	11362
еская	11363
улье	11364
252	11365
атора	11366
ишка	11367
айнен	11368
иона	11369
186	11370
187	11371
ern	11372
копа	11373
зарм	11374
яжк	11375
лум	11376
171	11377
ачек	11378
изова	11379
тмк	11380
218	11381
194	11382
245	11383
оуна	11384
stri	11385
ошлом	11386
онос	11387
зиан	11388
тюша	11389
тюхин	11390
##app	11391
##ira	11392
вате	11393
ватт	11394
ураж	11395
ирожк	11396
рвк	11397
##ste	11398
иано	11399
cher	11400
энн	11401
ртеж	11402
всян	11403
blo	11404
##ica	11405
via	11406
тейн	11407
ацан	11408
sha	11409
ипег	11410
rai	11411
оцк	11412
367	11413
marv	11414
ыжк	11415
saudi	11416
нпк	11417
atp	11418
four	11419
сенич	11420
фгбу	11421
кпв	11422
cnbc	11423
ibo	11424
иркул	11425
мунт	11426
рейт	11427
pav	11428
##meo	11429
вищн	11430
950	11431
hab	11432
hermi	11433
bras	11434
lyn	11435
qui	11436
ельеф	11437
лфетк	11438
ойлер	11439
ject	11440
insid	11441
riot	11442
buzz	11443
аттл	11444
gab	11445
уксов	11446
нагр	11447
аргет	11448
ебрр	11449
хэтт	11450
bfm	11451
иолет	11452
оумн	11453
тоиер	11454
octav	11455
ншлаг	11456
оэнсе	11457
глубь	11458
чжоу	11459
01	11460
08	11461
aero	11462
bor	11463
dt	11464
ez	11465
ec	11466
ech	11467
fat	11468
gs	11469
gon	11470
ile	11471
mt	11472
map	11473
made	11474
ns	11475
nit	11476
ob	11477
ox	11478
pc	11479
put	11480
pen	11481
pur	11482
room	11483
sl	11484
sil	11485
sort	11486
sand	11487
ts	11488
type	11489
uz	11490
vl	11491
x6	11492
x1	11493
бки	11494
бсп	11495
бицк	11496
вц	11497
вво	11498
гис	11499
гус	11500
гчп	11501
еан	11502
еут	11503
жент	11504
жку	11505
иом	11506
итон	11507
йфор	11508
кбр	11509
лоч	11510
лмер	11511
мри	11512
пг	11513
тев	11514
уны	11515
фол	11516
хс	11517
хте	11518
цво	11519
црб	11520
чуд	11521
чью	11522
шечк	11523
эб	11524
эль	11525
эйд	11526
юп	11527
юре	11528
ято	11529
яму	11530
##ио	11531
##ach	11532
##ng	11533
##шик	11534
##pg	11535
##pc	11536
##хая	11537
##hi	11538
##uk	11539
##uro	11540
нафи	11541
##етс	11542
овят	11543
стун	11544
кош	11545
рар	11546
рация	11547
##орд	11548
##раш	11549
итцер	11550
омон	11551
омол	11552
енов	11553
ныв	11554
##лаж	11555
изой	11556
тащ	11557
анки	11558
олой	11559
олмен	11560
инчук	11561
онтон	11562
вольт	11563
вояк	11564
##мид	11565
лино	11566
ерств	11567
орин	11568
орга	11569
трк	11570
трях	11571
остин	11572
ейп	11573
ейвен	11574
росо	11575
ихтен	11576
ариху	11577
етны	11578
одон	11579
осста	11580
имф	11581
имок	11582
саул	11583
егод	11584
аху	11585
емал	11586
##вич	11587
слы	11588
стры	11589
ивны	11590
озгл	11591
спос	11592
иря	11593
ирлик	11594
иржу	11595
ирюл	11596
кид	11597
ляз	11598
мара	11599
едель	11600
часье	11601
акб	11602
акри	11603
ранд	11604
удью	11605
паха	11606
айра	11607
айем	11608
ровк	11609
веял	11610
овач	11611
смм	11612
учан	11613
учич	11614
леха	11615
усле	11616
упц	11617
дипч	11618
гай	11619
гауз	11620
ицо	11621
агмет	11622
усто	11623
ована	11624
ледн	11625
сиж	11626
рыск	11627
фаш	11628
абен	11629
джич	11630
езен	11631
езьер	11632
ывае	11633
енье	11634
енья	11635
фиде	11636
скар	11637
пида	11638
олья	11639
гиг	11640
ндро	11641
егли	11642
егул	11643
морож	11644
ажор	11645
умил	11646
хаб	11647
щеп	11648
##сак	11649
lee	11650
пех	11651
улуз	11652
яхов	11653
жип	11654
врал	11655
ческо	11656
152	11657
206	11658
ентер	11659
витер	11660
туман	11661
ежц	11662
ежцы	11663
груж	11664
ерон	11665
ушин	11666
ондин	11667
нгур	11668
олил	11669
воры	11670
nov	11671
анол	11672
ажда	11673
ишень	11674
183	11675
рбин	11676
147	11677
ret	11678
139	11679
134	11680
138	11681
ордо	11682
акао	11683
ланг	11684
ищей	11685
ищук	11686
neo	11687
214	11688
195	11689
ужда	11690
елят	11691
234	11692
керит	11693
264	11694
ояс	11695
огаб	11696
нсар	11697
##iri	11698
аскал	11699
мбар	11700
ураш	11701
дышк	11702
317	11703
греш	11704
ттар	11705
ающе	11706
катил	11707
##ely	11708
##ura	11709
орах	11710
номик	11711
аксин	11712
снв	11713
рошк	11714
ейсм	11715
viii	11716
нзор	11717
ory	11718
эйв	11719
дпм	11720
хмел	11721
хмур	11722
exo	11723
ext	11724
пциг	11725
sent	11726
375	11727
вэф	11728
уфссп	11729
geely	11730
hot	11731
home	11732
edy	11733
trad	11734
usm	11735
440	11736
470	11737
рмаш	11738
pres	11739
манил	11740
390	11741
дейц	11742
ibm	11743
mist	11744
heu	11745
smith	11746
670	11747
вища	11748
737	11749
нтос	11750
white	11751
briti	11752
matt	11753
kod	11754
ерзл	11755
idc	11756
index	11757
ргас	11758
слойк	11759
клеив	11760
ept	11761
мута	11762
clear	11763
арбон	11764
умие	11765
game	11766
walk	11767
tics	11768
year	11769
tmz	11770
гузар	11771
акьяо	11772
йфори	11773
1а	11774
5s	11775
aro	11776
bana	11777
did	11778
fest	11779
fina	11780
ges	11781
gir	11782
had	11783
ide	11784
kor	11785
kat	11786
lar	11787
lit	11788
lup	11789
lum	11790
mk	11791
mq	11792
more	11793
nus	11794
oon	11795
pan	11796
pad	11797
qash	11798
qai	11799
rank	11800
sund	11801
sana	11802
ward	11803
x3	11804
xbo	11805
zo	11806
бэк	11807
вб	11808
зеп	11809
йя	11810
кна	11811
лвин	11812
лмуш	11813
мял	11814
мрет	11815
нра	11816
оет	11817
оуд	11818
осян	11819
рз	11820
рра	11821
рлик	11822
тул	11823
уик	11824
хем	11825
хат	11826
чф	11827
чус	11828
щет	11829
щел	11830
щев	11831
юля	11832
юев	11833
юрал	11834
##чс	11835
##чел	11836
##еф	11837
##тун	11838
##пан	11839
##рк	11840
##йя	11841
##шо	11842
##дар	11843
##мс	11844
##уф	11845
##яч	11846
##wl	11847
##эф	11848
##gas	11849
##ya	11850
##11	11851
##fr	11852
принг	11853
корт	11854
заи	11855
зац	11856
раха	11857
##лил	11858
итян	11859
обер	11860
обел	11861
омил	11862
омест	11863
омтик	11864
енщ	11865
енал	11866
енки	11867
отки	11868
тоб	11869
инрик	11870
онет	11871
онян	11872
ерим	11873
ерих	11874
ердак	11875
орго	11876
орев	11877
орчев	11878
тры	11879
остяк	11880
ихр	11881
арго	11882
аржа	11883
аржин	11884
опов	11885
опус	11886
оптер	11887
рохо	11888
рохин	11889
одвин	11890
оср	11891
осен	11892
саак	11893
егоч	11894
егол	11895
скопа	11896
ахан	11897
ахин	11898
льби	11899
льпа	11900
амт	11901
амент	11902
амар	11903
амлет	11904
атун	11905
теял	11906
ирик	11907
ирту	11908
сеч	11909
адл	11910
стап	11911
мырд	11912
скуч	11913
урч	11914
урш	11915
урма	11916
уряд	11917
акро	11918
удник	11919
уджи	11920
вао	11921
илит	11922
айки	11923
мерк	11924
делов	11925
естов	11926
ловц	11927
рассл	11928
оскут	11929
тын	11930
исел	11931
усб	11932
гаи	11933
аггер	11934
ступа	11935
азэс	11936
анкев	11937
иафан	11938
ованн	11939
родск	11940
марка	11941
абир	11942
хоп	11943
грн	11944
ормит	11945
милл	11946
ехан	11947
ехос	11948
ехоб	11949
бао	11950
пиано	11951
пищев	11952
ндра	11953
елочи	11954
ажк	11955
бры	11956
leg	11957
екар	11958
мона	11959
ифа	11960
валок	11961
тамон	11962
земье	11963
153	11964
157	11965
202	11966
елип	11967
тун	11968
туш	11969
стион	11970
впб	11971
итол	11972
303	11973
306	11974
308	11975
аваг	11976
no9	11977
берн	11978
астор	11979
астар	11980
эры	11981
cos	11982
ильф	11983
ионно	11984
негин	11985
141	11986
142	11987
144	11988
ибк	11989
ибов	11990
ибил	11991
131	11992
223	11993
228	11994
ауля	11995
ощун	11996
азиат	11997
ешок	11998
низац	11999
ликв	12000
сфи	12001
аршер	12002
215	12003
192	12004
197	12005
ретто	12006
ангс	12007
ony	12008
рдк	12009
рден	12010
232	12011
нфо	12012
als	12013
alfa	12014
276	12015
ечнев	12016
262	12017
хане	12018
хана	12019
ang	12020
увп	12021
кмени	12022
втс	12023
##бук	12024
ещев	12025
мчуг	12026
омео	12027
ros	12028
318	12029
lig	12030
мфк	12031
ижа	12032
mont	12033
ырк	12034
arct	12035
вичюс	12036
may	12037
вное	12038
ico	12039
tain	12040
ейсмо	12041
эпп	12042
мкп	12043
мкб	12044
рлс	12045
vive	12046
nint	12047
pop	12048
рмол	12049
омид	12050
cope	12051
ннк	12052
ннель	12053
nai	12054
nav	12055
##ise	12056
331	12057
louis	12058
sex	12059
майк	12060
майл	12061
tru	12062
toro	12063
works	12064
xiii	12065
doc	12066
dodge	12067
rich	12068
агерю	12069
хэш	12070
призн	12071
park	12072
иньон	12073
льбин	12074
рнег	12075
лмат	12076
вимы	12077
840	12078
porn	12079
ports	12080
ware	12081
рсак	12082
organ	12083
шокер	12084
kom	12085
удке	12086
уннел	12087
иету	12088
шатк	12089
scan	12090
авочк	12091
инерг	12092
brot	12093
iew	12094
duct	12095
omv	12096
drag	12097
farc	12098
bnp	12099
чихин	12100
гутин	12101
ttip	12102
mase	12103
етчиц	12104
брук	12105
sharp	12106
holly	12107
jazz	12108
virg	12109
ксони	12110
ттип	12111
thaad	12112
амнем	12113
айхут	12114
leeco	12115
xbox	12116
06	12117
00	12118
aft	12119
bon	12120
bir	12121
bill	12122
cx	12123
cla	12124
clo	12125
cris	12126
dam	12127
dats	12128
fro	12129
foot	12130
gun	12131
gma	12132
has	12133
iq	12134
kp	12135
mm	12136
mr	12137
nn	12138
nh	12139
od	12140
ola	12141
oli	12142
odo	12143
rg	12144
rb	12145
siri	12146
tat	12147
tata	12148
ui	12149
zep	12150
бон	12151
бож	12152
бэт	12153
вю	12154
вут	12155
вавш	12156
дящ	12157
зен	12158
зда	12159
иер	12160
икон	12161
кх	12162
кск	12163
клик	12164
лч	12165
лвис	12166
лэк	12167
оясн	12168
пч	12169
пз	12170
пв	12171
пса	12172
пзр	12173
пфо	12174
сав	12175
утор	12176
уон	12177
улен	12178
уян	12179
усср	12180
фан	12181
фадн	12182
х5	12183
цв	12184
цей	12185
цой	12186
чр	12187
ысь	12188
ьку	12189
эв	12190
эг	12191
эвис	12192
юф	12193
яны	12194
##dd	12195
##бос	12196
##гф	12197
##od	12198
##жер	12199
##мд	12200
##ьт	12201
##cci	12202
##12	12203
поги	12204
##точ	12205
овш	12206
ноте	12207
стим	12208
коле	12209
кочан	12210
нево	12211
запи	12212
##еди	12213
##ног	12214
обь	12215
омка	12216
енны	12217
##лас	12218
еник	12219
реха	12220
илма	12221
анл	12222
анф	12223
анто	12224
анше	12225
анхая	12226
инар	12227
соби	12228
оня	12229
онро	12230
онус	12231
волоч	12232
быст	12233
оря	12234
орча	12235
орнер	12236
молог	12237
аллю	12238
арис	12239
ардак	12240
арлев	12241
риим	12242
мега	12243
иян	12244
итьев	12245
имфо	12246
ийом	12247
лаф	12248
лаги	12249
##мас	12250
сач	12251
скоч	12252
ахто	12253
ахру	12254
ахид	12255
ахнет	12256
амка	12257
атэ	12258
атхи	12259
евц	12260
всм	12261
авки	12262
ивни	12263
мип	12264
тефан	12265
ирз	12266
есбос	12267
##так	12268
крич	12269
огнит	12270
адой	12271
едств	12272
едев	12273
ымян	12274
полз	12275
сухи	12276
скин	12277
урна	12278
урюм	12279
акур	12280
куш	12281
кулис	12282
ваге	12283
менн	12284
менц	12285
##иза	12286
айг	12287
айко	12288
аймер	12289
гоа	12290
веж	12291
тыл	12292
смин	12293
парян	12294
исы	12295
учин	12296
учок	12297
елч	12298
упы	12299
дишо	12300
гад	12301
габт	12302
ицин	12303
ицюк	12304
асел	12305
асак	12306
азг	12307
биен	12308
устыр	12309
нях	12310
нтен	12311
рышек	12312
нетк	12313
абар	12314
абад	12315
идли	12316
##газ	12317
молви	12318
алам	12319
гря	12320
равл	12321
ипят	12322
ьюз	12323
ехи	12324
пиг	12325
гистр	12326
морк	12327
альти	12328
объе	12329
брит	12330
умно	12331
умэн	12332
ерид	12333
бурж	12334
тепов	12335
жиг	12336
епк	12337
епти	12338
епча	12339
лимит	12340
ссу	12341
ссит	12342
ямы	12343
151	12344
артир	12345
ащи	12346
артер	12347
ферин	12348
этчер	12349
ацик	12350
сихи	12351
col	12352
чища	12353
257	12354
119	12355
шас	12356
клип	12357
мешк	12358
ree	12359
rex	12360
rent	12361
венос	12362
ибин	12363
копал	12364
ансер	12365
167	12366
ордюр	12367
калы	12368
ауи	12369
178	12370
nexus	12371
242	12372
оуф	12373
еваст	12374
235	12375
дове	12376
етик	12377
улио	12378
еист	12379
eni	12380
265	12381
стите	12382
ефат	12383
row	12384
рокур	12385
укат	12386
укав	12387
314	12388
катан	12389
оэк	12390
аиф	12391
##eld	12392
гиня	12393
356	12394
chero	12395
эндж	12396
снт	12397
фтар	12398
химов	12399
нлей	12400
form	12401
itf	12402
зыбл	12403
чтен	12404
рлан	12405
viber	12406
ete	12407
нюк	12408
рашк	12409
329	12410
sos	12411
##баш	12412
intes	12413
короч	12414
sele	12415
seat	12416
рсмд	12417
исис	12418
job	12419
узыре	12420
бег	12421
ршан	12422
460	12423
trust	12424
тийяр	12425
амош	12426
490	12427
гкб	12428
зоя	12429
мекал	12430
cnpc	12431
iba	12432
айлер	12433
ункин	12434
ркини	12435
ads	12436
adva	12437
espn	12438
mond	12439
pack	12440
лагай	12441
ntic	12442
540	12443
gett	12444
иэй	12445
фкп	12446
880	12447
fax	12448
чкок	12449
гпб	12450
мгту	12451
pire	12452
ssang	12453
mate	12454
ючей	12455
фмба	12456
creta	12457
вяжет	12458
kee	12459
key	12460
syste	12461
india	12462
тезы	12463
ctor	12464
vent	12465
sno	12466
тупи	12467
кайпу	12468
гбуз	12469
бдт	12470
look	12471
bridg	12472
нагн	12473
пункт	12474
гемон	12475
тюрк	12476
ыгеи	12477
ыгея	12478
бакан	12479
щериц	12480
мпани	12481
алалд	12482
прыг	12483
ойота	12484
умпц	12485
шипн	12486
гвай	12487
дания	12488
пехот	12489
бэтч	12490
пзрк	12491
риимч	12492
05	12493
04	12494
bad	12495
buga	12496
cg	12497
c4	12498
cell	12499
df	12500
ddo	12501
ear	12502
eus	12503
find	12504
fast	12505
gri	12506
gart	12507
ih	12508
iers	12509
ili	12510
kin	12511
kie	12512
kpi	12513
lc	12514
mel	12515
mess	12516
nu	12517
nad	12518
nest	12519
nko	12520
pt	12521
pp	12522
p9	12523
pu	12524
pap	12525
qe	12526
qi	12527
rd	12528
r2	12529
rap	12530
rst	12531
sr	12532
ses	12533
tu	12534
tas	12535
tta	12536
uf	12537
vc	12538
yong	12539
zer	12540
ацу	12541
бз	12542
бери	12543
вна	12544
гил	12545
гуд	12546
гвар	12547
ежн	12548
зте	12549
зун	12550
ипи	12551
иэн	12552
йда	12553
йна	12554
йбек	12555
йова	12556
кво	12557
кги	12558
кыр	12559
лх	12560
лда	12561
лба	12562
мз	12563
мав	12564
манс	12565
нэк	12566
пд	12567
рент	12568
рчин	12569
суж	12570
слик	12571
тны	12572
тма	12573
усти	12574
фоб	12575
хенд	12576
цэ	12577
цтак	12578
чж	12579
чуж	12580
шуб	12581
шмир	12582
щук	12583
щелье	12584
ыль	12585
ыня	12586
эц	12587
юв	12588
юстр	12589
яш	12590
##нб	12591
##рин	12592
##гар	12593
##ec	12594
##ok	12595
##os	12596
##хол	12597
##wd	12598
##10	12599
##щиц	12600
##bl	12601
нани	12602
найд	12603
овж	12604
овос	12605
стуч	12606
стец	12607
коул	12608
неч	12609
зать	12610
раон	12611
обыл	12612
еней	12613
енуа	12614
прог	12615
##лак	12616
ниск	12617
тоф	12618
ойф	12619
дош	12620
дозер	12621
репо	12622
реби	12623
илю	12624
иллен	12625
анюк	12626
оловн	12627
олтер	12628
инш	12629
инят	12630
онгл	12631
воще	12632
ерта	12633
орз	12634
орле	12635
орду	12636
трин	12637
ейв	12638
ейц	12639
ейше	12640
ейцы	12641
мош	12642
ихим	12643
аред	12644
арга	12645
арвин	12646
аржу	12647
риха	12648
етх	12649
етек	12650
етлю	12651
мехо	12652
##ляк	12653
рома	12654
роад	12655
одал	12656
одуб	12657
анив	12658
цика	12659
##лоз	12660
лап	12661
лащ	12662
лайд	12663
лажан	12664
сак	12665
скоп	12666
ахир	12667
торо	12668
тораж	12669
емов	12670
атут	12671
атчин	12672
евен	12673
нику	12674
тище	12675
авс	12676
аван	12677
авзол	12678
озен	12679
озхо	12680
озетк	12681
виан	12682
вимо	12683
спар	12684
тежа	12685
##гиз	12686
ирр	12687
ирер	12688
иринг	12689
иргал	12690
есил	12691
есоч	12692
креди	12693
ляк	12694
ляж	12695
лящ	12696
огвар	12697
бош	12698
полк	12699
утит	12700
утят	12701
икст	12702
акли	12703
удзо	12704
ходи	12705
ходн	12706
еке	12707
пагат	12708
вайд	12709
вачк	12710
айе	12711
айв	12712
номе	12713
очвен	12714
видан	12715
убейр	12716
экг	12717
вестр	12718
исо	12719
дурас	12720
дуван	12721
ивад	12722
ложит	12723
елось	12724
усо	12725
пук	12726
гаф	12727
апра	12728
апре	12729
азл	12730
азик	12731
анкор	12732
анкин	12733
анкос	12734
детел	12735
био	12736
няж	12737
сио	12738
ошнот	12739
нтре	12740
нете	12741
фаль	12742
охан	12743
охим	12744
идло	12745
хофер	12746
грян	12747
ужк	12748
итум	12749
икид	12750
ипит	12751
ипат	12752
ипчан	12753
ашек	12754
отос	12755
пичк	12756
олье	12757
унц	12758
рена	12759
улон	12760
ртк	12761
сеть	12762
епит	12763
нейл	12764
штан	12765
##мпр	12766
фори	12767
ушь	12768
305	12769
304	12770
ардер	12771
ворд	12772
френд	12773
магин	12774
берто	12775
уток	12776
астов	12777
астыр	12778
амаат	12779
coup	12780
иоп	12781
тикут	12782
веса	12783
пенс	12784
256	12785
пячк	12786
ишу	12787
ишар	12788
ишущ	12789
шении	12790
билет	12791
мело	12792
erce	12793
ren	12794
ибет	12795
иберт	12796
ячк	12797
ансов	12798
яжут	12799
афар	12800
печи	12801
168	12802
173	12803
174	12804
ендр	12805
ендер	12806
ачок	12807
nel	12808
орвет	12809
еао	12810
окар	12811
191	12812
198	12813
246	12814
ронн	12815
stad	12816
нисеф	12817
ундр	12818
233	12819
визор	12820
улия	12821
лаба	12822
271	12823
272	12824
275	12825
278	12826
атриц	12827
295	12828
рьят	12829
еффт	12830
шкин	12831
шкев	12832
нсам	12833
ещи	12834
мчиш	12835
лтуф	12836
инок	12837
лезт	12838
мбик	12839
rosh	12840
romeo	12841
tosh	12842
tek	12843
йлер	12844
like	12845
ереда	12846
ижк	12847
iaq	12848
мсу	12849
гата	12850
tian	12851
chrom	12852
mach	12853
ictv	12854
ite	12855
una	12856
taka	12857
сюжет	12858
##eti	12859
daq	12860
улян	12861
ржуаз	12862
##vid	12863
дков	12864
ацер	12865
аньол	12866
омаш	12867
уэк	12868
##uld	12869
325	12870
азать	12871
атын	12872
marus	12873
337	12874
seas	12875
343	12876
рсун	12877
mann	12878
вэнь	12879
pegas	12880
шейн	12881
вовал	12882
homo	12883
лтаб	12884
осич	12885
рихин	12886
слиг	12887
слим	12888
зои	12889
еточ	12890
етой	12891
rift	12892
фгк	12893
siber	12894
онгад	12895
лосо	12896
mich	12897
шилов	12898
conn	12899
mons	12900
pant	12901
хнет	12902
phi	12903
580	12904
изиан	12905
cars	12906
ндуз	12907
fact	12908
asia	12909
льфи	12910
вьял	12911
гпз	12912
нмг	12913
qua	12914
ulus	12915
acc	12916
nikk	12917
зрак	12918
иджей	12919
лгари	12920
deloi	12921
fond	12922
слойн	12923
gene	12924
рства	12925
уньи	12926
veriz	12927
ссош	12928
пмэф	12929
калив	12930
калил	12931
йваш	12932
бдал	12933
ошач	12934
dolu	12935
мдм	12936
риуме	12937
нессе	12938
juke	12939
easa	12940
иккья	12941
nance	12942
уэлл	12943
оанат	12944
хайм	12945
урбаг	12946
snapc	12947
пхг	12948
пылов	12949
ckr	12950
maps	12951
рдкор	12952
nhk	12953
zeppe	12954
вюрт	12955
ddos	12956
фобос	12957
(-	12958
aa	12959
ail	12960
bt	12961
best	12962
cer	12963
dm	12964
dro	12965
dong	12966
evo	12967
fir	12968
g5	12969
gf	12970
gan	12971
gat	12972
hand	12973
ik	12974
iva	12975
kz	12976
lm	12977
mu	12978
men	12979
mco	12980
nti	12981
nme	12982
oz	12983
pg	12984
ped	12985
q3	12986
tus	12987
tut	12988
tum	12989
vin	12990
wide	12991
yeti	12992
zf	12993
zen	12994
zero	12995
zara	12996
аств	12997
аной	12998
абор	12999
бут	13000
бяк	13001
ві	13002
вств	13003
вник	13004
гт	13005
гтс	13006
еси	13007
екон	13008
еэк	13009
йб	13010
кман	13011
лп	13012
лв	13013
лна	13014
лдан	13015
пэт	13016
пчук	13017
рень	13018
рну	13019
сну	13020
титр	13021
улю	13022
унин	13023
учев	13024
фел	13025
фку	13026
фпк	13027
чут	13028
чанк	13029
чоп	13030
чвк	13031
шп	13032
шам	13033
ьющ	13034
юх	13035
юин	13036
юлен	13037
юша	13038
юшен	13039
яо	13040
яц	13041
##чат	13042
##тет	13043
##аз	13044
##пз	13045
##нк	13046
##оо	13047
##ома	13048
##бур	13049
##гр	13050
##kt	13051
##дон	13052
##лед	13053
##ьен	13054
##ьол	13055
##уэр	13056
##эг	13057
##by	13058
##ür	13059
поче	13060
##гор	13061
нота	13062
стес	13063
коно	13064
заст	13065
замас	13066
раск	13067
рамм	13068
рахо	13069
##ски	13070
итц	13071
итре	13072
обн	13073
омод	13074
омот	13075
омок	13076
енду	13077
отье	13078
каже	13079
каут	13080
кален	13081
нипи	13082
изни	13083
##кот	13084
токс	13085
тоног	13086
реск	13087
##роч	13088
тафор	13089
анко	13090
анса	13091
аншин	13092
олли	13093
олча	13094
сож	13095
сочи	13096
онна	13097
онье	13098
ерте	13099
орц	13100
орян	13101
орхе	13102
трв	13103
трив	13104
остя	13105
ейси	13106
ейте	13107
ейрут	13108
аляр	13109
росы	13110
##тир	13111
арбор	13112
арбек	13113
риф	13114
етл	13115
етта	13116
опен	13117
##ляс	13118
##лях	13119
##еса	13120
анич	13121
подр	13122
имр	13123
имби	13124
имбл	13125
лани	13126
конен	13127
сап	13128
сау	13129
ахра	13130
ахит	13131
ахот	13132
льти	13133
амут	13134
амник	13135
емот	13136
ивз	13137
ивэн	13138
озел	13139
мия	13140
рабов	13141
ирчи	13142
иргин	13143
сест	13144
сеял	13145
кио	13146
киад	13147
крос	13148
верь	13149
мазов	13150
адг	13151
адул	13152
##имо	13153
сук	13154
икос	13155
икбо	13156
сктоп	13157
урю	13158
акши	13159
аклаж	13160
летев	13161
кум	13162
кумен	13163
еков	13164
еккер	13165
вае	13166
вайс	13167
илиан	13168
айли	13169
айман	13170
айгин	13171
люлоз	13172
убб	13173
убит	13174
убян	13175
смер	13176
иггин	13177
исин	13178
исла	13179
троп	13180
томл	13181
черен	13182
пущ	13183
напф	13184
дили	13185
укал	13186
уклет	13187
гап	13188
гато	13189
гаро	13190
апп	13191
апко	13192
апир	13193
апид	13194
агир	13195
агут	13196
борт	13197
ожью	13198
ожжен	13199
азад	13200
азус	13201
лото	13202
иаско	13203
плет	13204
ошн	13205
мук	13206
мусс	13207
нтян	13208
зду	13209
фаз	13210
клет	13211
аблин	13212
гази	13213
темир	13214
идк	13215
идус	13216
траш	13217
трам	13218
кеп	13219
ортун	13220
алаг	13221
rum	13222
фиба	13223
ризи	13224
колы	13225
колов	13226
гене	13227
искин	13228
скас	13229
ипил	13230
нук	13231
пилил	13232
##erg	13233
ндд	13234
ндир	13235
унж	13236
морт	13237
морф	13238
умн	13239
умпо	13240
lev	13241
улов	13242
ебер	13243
ебта	13244
ифом	13245
слас	13246
инге	13247
ингем	13248
личи	13249
ткин	13250
ртю	13251
ртин	13252
ьяч	13253
епот	13254
епест	13255
арая	13256
ссон	13257
205	13258
угс	13259
угис	13260
модзи	13261
инит	13262
тушк	13263
ежк	13264
ежут	13265
inel	13266
винс	13267
форд	13268
ерохо	13269
рекр	13270
олио	13271
олид	13272
елад	13273
елал	13274
##унг	13275
301	13276
общил	13277
авад	13278
ромк	13279
гузов	13280
астей	13281
чич	13282
анок	13283
топт	13284
ульг	13285
ульев	13286
251	13287
рити	13288
юрер	13289
юрнб	13290
ильс	13291
ильд	13292
чуй	13293
тинц	13294
думч	13295
ущо	13296
ишев	13297
билен	13298
юсон	13299
ухл	13300
182	13301
ero	13302
erc	13303
аллон	13304
ибан	13305
ибик	13306
ситуа	13307
##att	13308
221	13309
ауна	13310
ачет	13311
nect	13312
шесин	13313
ягут	13314
219	13315
ксинг	13316
виса	13317
196	13318
248	13319
stra	13320
омбат	13321
ярис	13322
елян	13323
рдьол	13324
##ini	13325
##ase	13326
евад	13327
239	13328
ынев	13329
405	13330
ресе	13331
292	13332
297	13333
птил	13334
ans	13335
еолок	13336
нсу	13337
мчук	13338
аскин	13339
road	13340
мпс	13341
мпп	13342
дыш	13343
tex	13344
еркли	13345
щагин	13346
холм	13347
ыква	13348
атик	13349
атим	13350
ротти	13351
fis	13352
ижан	13353
ижам	13354
moz	13355
mode	13356
едает	13357
валир	13358
ary	13359
рвен	13360
cha	13361
chall	13362
еруан	13363
нешн	13364
spri	13365
стерс	13366
рпер	13367
рппс	13368
det	13369
арнс	13370
арню	13371
tax	13372
лын	13373
етрен	13374
зинк	13375
мкжд	13376
ett	13377
тейл	13378
ацал	13379
омаи	13380
уэцк	13381
ceo	13382
copt	13383
shan	13384
shutt	13385
328	13386
уиш	13387
эйк	13388
эйт	13389
эймон	13390
ржев	13391
##edd	13392
атып	13393
ыжов	13394
виреп	13395
отсон	13396
merr	13397
att	13398
ублер	13399
лакин	13400
bec	13401
374	13402
вэбу	13403
thun	13404
тырин	13405
linux	13406
peps	13407
tran	13408
weal	13409
435	13410
430	13411
prin	13412
ашеск	13413
dire	13414
opt	13415
ейкья	13416
кпк	13417
plaza	13418
625	13419
620	13420
ызыл	13421
gucci	13422
аунд	13423
##mex	13424
вищев	13425
иньо	13426
cli	13427
рафан	13428
брини	13429
plc	13430
plan	13431
place	13432
ерфи	13433
бахе	13434
ash	13435
мтсб	13436
ааф	13437
718	13438
фарм	13439
мгц	13440
gie	13441
нмут	13442
едели	13443
qual	13444
унгля	13445
ртыш	13446
ртир	13447
iles	13448
musta	13449
freed	13450
wells	13451
храни	13452
delta	13453
хтин	13454
stem	13455
вешан	13456
civ	13457
oly	13458
tara	13459
shop	13460
калип	13461
buck	13462
great	13463
илкул	13464
tream	13465
azur	13466
games	13467
walt	13468
bnb	13469
hell	13470
garo	13471
одяч	13472
дакшн	13473
wrang	13474
зсд	13475
rfid	13476
зимут	13477
олбик	13478
оопт	13479
bosco	13480
horiz	13481
дство	13482
сдпг	13483
vuit	13484
гцси	13485
гссон	13486
эмпб	13487
орица	13488
spark	13489
цодд	13490
лтыми	13491
vari	13492
вриат	13493
кпвв	13494
омолз	13495
gmail	13496
савье	13497
ахруш	13498
айкоп	13499
иэйте	13500
qiwi	13501
няжич	13502
coupe	13503
("	13504
aar	13505
bol	13506
but	13507
cd	13508
cb	13509
dal	13510
eut	13511
east	13512
fz	13513
fc	13514
fy	13515
fca	13516
furt	13517
g8	13518
gq	13519
gte	13520
hay	13521
happ	13522
iz	13523
ich	13524
jan	13525
kon	13526
kay	13527
lat	13528
lite	13529
long	13530
mes	13531
mil	13532
mis	13533
mult	13534
mili	13535
nl	13536
nx	13537
ow	13538
ont	13539
ott	13540
pia	13541
plo	13542
pers	13543
qa	13544
qr	13545
ras	13546
ring	13547
rbs	13548
sx	13549
sud	13550
vs	13551
vy	13552
vas	13553
vel	13554
vpn	13555
zy	13556
аер	13557
ача	13558
ауб	13559
бля	13560
бейн	13561
вхо	13562
гм	13563
гдр	13564
гмк	13565
дод	13566
дул	13567
дном	13568
дчук	13569
жон	13570
жэн	13571
зла	13572
зик	13573
зре	13574
зощ	13575
иган	13576
йрат	13577
кка	13578
лел	13579
луп	13580
лыв	13581
лбр	13582
лбор	13583
лус	13584
лха	13585
лтик	13586
мутр	13587
нло	13588
ндел	13589
оут	13590
оуб	13591
пур	13592
пив	13593
птрк	13594
рны	13595
рдан	13596
рить	13597
тман	13598
уло	13599
уган	13600
улаг	13601
фалк	13602
хсс	13603
хган	13604
хад	13605
хив	13606
цос	13607
цки	13608
цени	13609
чун	13610
шени	13611
шеньк	13612
ыма	13613
эст	13614
юра	13615
##dc	13616
##зл	13617
##ты	13618
##ач	13619
##men	13620
##рп	13621
##вал	13622
##оз	13623
##op	13624
##мор	13625
##узе	13626
##хед	13627
##wf	13628
##90	13629
##эш	13630
##энс	13631
##фин	13632
##uv	13633
##yd	13634
##br	13635
##xo	13636
нато	13637
овчев	13638
овшан	13639
стуж	13640
стцы	13641
зали	13642
заде	13643
##скн	13644
итни	13645
ития	13646
омом	13647
еншик	13648
отт	13649
као	13650
каш	13651
кало	13652
ниве	13653
нипов	13654
енив	13655
ениц	13656
изат	13657
тош	13658
тошн	13659
допо	13660
илев	13661
тач	13662
анга	13663
аннис	13664
олей	13665
инж	13666
инян	13667
иняк	13668
инчик	13669
соль	13670
согл	13671
волик	13672
вожа	13673
лип	13674
ерла	13675
еренк	13676
##уда	13677
трян	13678
ейч	13679
ейни	13680
ейна	13681
моп	13682
арч	13683
арст	13684
армпр	13685
руха	13686
рион	13687
етхи	13688
##ард	13689
осой	13690
осби	13691
иминг	13692
##рун	13693
##маз	13694
иис	13695
сах	13696
ахар	13697
торк	13698
льны	13699
аму	13700
амол	13701
емя	13702
атсон	13703
авес	13704
авир	13705
авный	13706
вип	13707
виэ	13708
вище	13709
вицк	13710
тео	13711
теже	13712
ирча	13713
ирзо	13714
ирлан	13715
сева	13716
септ	13717
даун	13718
окса	13719
терз	13720
терж	13721
мач	13722
мау	13723
матор	13724
стом	13725
глад	13726
чад	13727
чали	13728
чанин	13729
утях	13730
суха	13731
икинг	13732
урант	13733
ранье	13734
удр	13735
ятв	13736
екал	13737
екман	13738
пачк	13739
вагу	13740
алих	13741
айло	13742
айрат	13743
айгер	13744
##люк	13745
мерга	13746
ельм	13747
елью	13748
расев	13749
естри	13750
смп	13751
паре	13752
##рич	13753
минг	13754
исон	13755
дуб	13756
##шак	13757
онад	13758
пух	13759
диен	13760
укки	13761
укшин	13762
илал	13763
апро	13764
апоч	13765
иццу	13766
асек	13767
асок	13768
асенс	13769
азыв	13770
азэл	13771
биг	13772
лучи	13773
андит	13774
сиа	13775
ошт	13776
маран	13777
офьи	13778
клер	13779
абил	13780
идал	13781
ертел	13782
траги	13783
джер	13784
ортк	13785
клас	13786
алас	13787
алага	13788
грен	13789
грим	13790
еньев	13791
ивней	13792
фио	13793
колон	13794
ужи	13795
икини	13796
ипов	13797
ичвар	13798
ашил	13799
ашир	13800
аштет	13801
ехре	13802
басс	13803
ывет	13804
ндик	13805
еглин	13806
серов	13807
##окер	13808
умбы	13809
##винг	13810
lear	13811
leum	13812
улер	13813
нимки	13814
ерифа	13815
триум	13816
ышов	13817
ифат	13818
ингз	13819
инген	13820
врам	13821
рамн	13822
позв	13823
ффон	13824
ффало	13825
елив	13826
ежес	13827
ежад	13828
ino	13829
ереп	13830
артен	13831
ушер	13832
##унд	13833
124	13834
302	13835
зывал	13836
дрис	13837
арид	13838
журн	13839
coff	13840
чиев	13841
ульф	13842
259	13843
юрк	13844
чусь	13845
ишни	13846
ишени	13847
юсю	13848
иллы	13849
рбон	13850
ибис	13851
ибул	13852
зори	13853
161	13854
227	13855
ауни	13856
аура	13857
neuro	13858
сфо	13859
217	13860
241	13861
sts	13862
289	13863
283	13864
284	13865
ыбк	13866
лабан	13867
273	13868
277	13869
ene	13870
261	13871
палл	13872
ime	13873
imp	13874
зиев	13875
зерог	13876
инкев	13877
увре	13878
пилен	13879
roc	13880
ross	13881
rott	13882
robo	13883
индси	13884
ропри	13885
айдо	13886
ten	13887
tect	13888
фсбр	13889
319	13890
316	13891
грева	13892
скры	13893
ллан	13894
ligo	13895
мфет	13896
ыкву	13897
етаг	13898
амбур	13899
ижи	13900
ижу	13901
ырь	13902
353	13903
351	13904
352	13905
хуа	13906
cht	13907
cham	13908
child	13909
лейн	13910
mak	13911
spa	13912
энт	13913
bot	13914
ртег	13915
une	13916
tant	13917
gra	13918
бюр	13919
лыва	13920
ейсон	13921
dac	13922
улев	13923
blp	13924
мельц	13925
мкд	13926
ets	13927
##unk	13928
pose	13929
рмал	13930
ацлав	13931
егас	13932
ряп	13933
ряпк	13934
ceed	13935
ama	13936
323	13937
326	13938
sound	13939
chemi	13940
эйлин	13941
эйчел	13942
inte	13943
ыжик	13944
lot	13945
кулов	13946
ллио	13947
ницын	13948
skys	13949
вэн	13950
исипи	13951
уфман	13952
уфскн	13953
387	13954
онсал	13955
law	13956
pemex	13957
бекк	13958
котин	13959
апиро	13960
prada	13961
baz	13962
499	13963
dom	13964
down	13965
price	13966
prius	13967
леток	13968
570	13969
льмар	13970
isu	13971
siem	13972
para	13973
eure	13974
suedd	13975
heav	13976
afi	13977
esc	13978
hyb	13979
medic	13980
аулер	13981
999	13982
who	13983
herme	13984
brit	13985
peris	13986
нмтп	13987
hire	13988
ship	13989
quest	13990
sso	13991
ортик	13992
lts	13993
орчич	13994
globe	13995
cab	13996
msq	13997
huff	13998
tries	13999
trial	14000
ейден	14001
йрес	14002
ахома	14003
delfi	14004
рэц	14005
вайр	14006
югге	14007
эндон	14008
аляп	14009
mira	14010
щица	14011
jack	14012
metro	14013
preda	14014
engie	14015
##qua	14016
esta	14017
бьют	14018
cyg	14019
speed	14020
bbb	14021
ммерс	14022
touar	14023
чехра	14024
pdf	14025
игеса	14026
morn	14027
пьев	14028
хэтте	14029
еттел	14030
гемпт	14031
трица	14032
жевен	14033
hilt	14034
гсчс	14035
юшни	14036
орфян	14037
креш	14038
вчарк	14039
lorer	14040
сзфо	14041
sity	14042
альке	14043
ордаш	14044
feng	14045
гаван	14046
кдэ	14047
цдх	14048
ордеа	14049
мажор	14050
front	14051
пзз	14052
пвр	14053
kiev	14054
чжэн	14055
лнах	14056
ртюх	14057
bucks	14058
зощр	14059
лборд	14060
шению	14061
07	14062
4g	14063
aed	14064
bet	14065
bia	14066
bud	14067
bard	14068
cv	14069
cir	14070
cine	14071
dut	14072
dash	14073
ef	14074
efe	14075
eine	14076
fil	14077
gp	14078
hl	14079
jll	14080
kr	14081
kl	14082
kre	14083
kub	14084
lv	14085
lse	14086
mg	14087
m2	14088
mur	14089
mul	14090
mid	14091
mma	14092
nr	14093
n1	14094
oh	14095
og	14096
oy	14097
pin	14098
pti	14099
qx	14100
rm	14101
ris	14102
rge	14103
tb	14104
tank	14105
typ	14106
test	14107
tass	14108
ug	14109
ves	14110
vine	14111
whe	14112
wild	14113
ypg	14114
а5	14115
аат	14116
бт	14117
бей	14118
всс	14119
вень	14120
гто	14121
гам	14122
гери	14123
дре	14124
дян	14125
денн	14126
дпр	14127
еей	14128
ерат	14129
жэ	14130
жав	14131
жун	14132
зерт	14133
иин	14134
йен	14135
кев	14136
клян	14137
кфу	14138
лки	14139
лита	14140
лым	14141
лчак	14142
мц	14143
м4	14144
мем	14145
мко	14146
мру	14147
муч	14148
м11	14149
нцу	14150
нха	14151
ненк	14152
нэп	14153
оноп	14154
пн	14155
ръ	14156
т2	14157
тто	14158
туб	14159
тком	14160
ттон	14161
улич	14162
увин	14163
увс	14164
улом	14165
фен	14166
фок	14167
фрут	14168
хi	14169
хон	14170
хрон	14171
цз	14172
цни	14173
цар	14174
чни	14175
чур	14176
шуч	14177
шчак	14178
ына	14179
ычев	14180
ьел	14181
юво	14182
юнер	14183
юза	14184
юшев	14185
##кц	14186
##dr	14187
##зел	14188
##зод	14189
##гд	14190
##kk	14191
##шов	14192
##si	14193
##мюн	14194
##лу	14195
##хп	14196
##хал	14197
##wa	14198
##wk	14199
##фен	14200
##30	14201
##ho	14202
##щик	14203
поним	14204
нао	14205
наф	14206
овец	14207
##гом	14208
нод	14209
ноя	14210
стян	14211
коран	14212
кошк	14213
неев	14214
нехт	14215
рации	14216
##ори	14217
##ора	14218
итко	14219
##лье	14220
енен	14221
енев	14222
енвд	14223
отир	14224
##лад	14225
каял	14226
нисян	14227
изун	14228
топи	14229
илем	14230
таз	14231
таил	14232
анни	14233
анча	14234
анчак	14235
олес	14236
олоб	14237
олман	14238
инка	14239
сои	14240
онх	14241
онар	14242
онут	14243
онга	14244
ерит	14245
ерей	14246
ерже	14247
ерце	14248
еранс	14249
ерши	14250
орщ	14251
орче	14252
орге	14253
трейд	14254
осте	14255
остот	14256
ейко	14257
ейду	14258
ейтер	14259
ейфа	14260
ейца	14261
ейфе	14262
##атл	14263
алко	14264
аллен	14265
алун	14266
ихе	14267
арз	14268
арне	14269
арян	14270
аргон	14271
арщев	14272
рул	14273
руан	14274
риген	14275
етка	14276
##арс	14277
мека	14278
месл	14279
опод	14280
опья	14281
перм	14282
перли	14283
одз	14284
одт	14285
##ези	14286
имак	14287
детон	14288
скопи	14289
ахе	14290
ахна	14291
ахту	14292
льди	14293
львер	14294
льба	14295
льпы	14296
амра	14297
амне	14298
исть	14299
атки	14300
атхо	14301
евел	14302
стриц	14303
комк	14304
ивин	14305
ивьер	14306
миев	14307
теги	14308
ирев	14309
есун	14310
киап	14311
оксу	14312
нован	14313
терв	14314
терос	14315
твл	14316
огул	14317
огмат	14318
мад	14319
марат	14320
маха	14321
аджи	14322
адюк	14323
аджа	14324
едос	14325
ыме	14326
чаэс	14327
икент	14328
икки	14329
икюр	14330
скб	14331
грави	14332
горт	14333
урфо	14334
урчак	14335
урфу	14336
акуст	14337
летят	14338
мири	14339
кунев	14340
паок	14341
пайк	14342
ваи	14343
вато	14344
васк	14345
крап	14346
##бри	14347
айр	14348
айма	14349
айом	14350
номов	14351
ельт	14352
тыгин	14353
игне	14354
иггер	14355
пархи	14356
##рид	14357
минс	14358
исер	14359
исой	14360
исхан	14361
дува	14362
дубн	14363
ковы	14364
учук	14365
елес	14366
елчн	14367
чело	14368
усен	14369
усан	14370
могл	14371
янг	14372
яну	14373
укин	14374
гада	14375
апочк	14376
ествл	14377
агис	14378
асеч	14379
асне	14380
ожав	14381
азир	14382
аздел	14383
инфо	14384
бид	14385
звен	14386
звес	14387
лоп	14388
ианин	14389
усты	14390
свер	14391
плес	14392
андо	14393
анду	14394
андат	14395
анджи	14396
няев	14397
зден	14398
нетт	14399
фали	14400
клан	14401
клетк	14402
абк	14403
абун	14404
идзо	14405
трац	14406
траци	14407
ормаж	14408
еннон	14409
ортл	14410
ипел	14411
ипти	14412
ичек	14413
ехол	14414
ехди	14415
нун	14416
бара	14417
пиан	14418
пива	14419
унт	14420
##оке	14421
умел	14422
точен	14423
сенк	14424
сениц	14425
анап	14426
авис	14427
триг	14428
ифм	14429
плант	14430
яхт	14431
мьен	14432
ингр	14433
личек	14434
тяг	14435
ьямин	14436
епан	14437
ептун	14438
мант	14439
сслед	14440
земья	14441
вкб	14442
203	14443
ентл	14444
ффу	14445
ффетт	14446
ффорд	14447
узя	14448
узер	14449
узик	14450
угур	14451
виты	14452
варца	14453
ркц	14454
inbe	14455
##епп	14456
ферн	14457
фрин	14458
тпр	14459
цай	14460
амас	14461
cold	14462
улья	14463
254	14464
##ool	14465
думыв	14466
ьянк	14467
ишлен	14468
ишок	14469
шае	14470
уху	14471
рбен	14472
рберт	14473
143	14474
обеща	14475
веню	14476
копч	14477
тайм	14478
депут	14479
лузк	14480
ауст	14481
ауне	14482
ощав	14483
акаев	14484
177	14485
азира	14486
инас	14487
ачут	14488
токов	14489
язн	14490
еали	14491
244	14492
ргс	14493
ангал	14494
start	14495
омбик	14496
ернат	14497
288	14498
балов	14499
рдон	14500
церк	14501
церн	14502
ексит	14503
евак	14504
нисхо	14505
ундер	14506
231	14507
етир	14508
улиа	14509
улил	14510
жао	14511
лабуг	14512
279	14513
унея	14514
ейнс	14515
ейнд	14516
266	14517
палк	14518
##ama	14519
296	14520
ппер	14521
ппоро	14522
ane	14523
рьял	14524
лазиз	14525
увшин	14526
ефано	14527
кмал	14528
тюш	14529
come	14530
олдин	14531
муниц	14532
иног	14533
toes	14534
toma	14535
tels	14536
хлед	14537
313	14538
312	14539
lip	14540
нкул	14541
катыв	14542
холме	14543
fies	14544
field	14545
ижо	14546
mous	14547
ычвар	14548
ыря	14549
олкин	14550
шира	14551
валин	14552
arte	14553
ианн	14554
chase	14555
олома	14556
пели	14557
пелле	14558
збек	14559
нешь	14560
энкс	14561
едуе	14562
icy	14563
bom	14564
итрюш	14565
ded	14566
deo	14567
dep	14568
dex	14569
ммрп	14570
und	14571
458	14572
tab	14573
take	14574
david	14575
ipc	14576
blat	14577
рнос	14578
абаб	14579
абах	14580
ржан	14581
нцел	14582
point	14583
ord	14584
ирак	14585
ацар	14586
омах	14587
отеск	14588
онтар	14589
эрон	14590
sher	14591
elli	14592
икот	14593
322	14594
sour	14595
soul	14596
эйг	14597
эйвен	14598
хмут	14599
young	14600
raz	14601
rain	14602
rail	14603
362	14604
364	14605
стын	14606
ркун	14607
335	14608
338	14609
вилз	14610
вилл	14611
вилов	14612
мейн	14613
los	14614
low	14615
logi	14616
арош	14617
##fta	14618
551	14619
ллига	14620
342	14621
345	14622
344	14623
nato	14624
ska	14625
372	14626
вэй	14627
исиц	14628
thom	14629
389	14630
385	14631
desi	14632
pepp	14633
дъег	14634
edge	14635
educ	14636
463	14637
дюр	14638
дюжин	14639
нбар	14640
рдас	14641
419	14642
412	14643
baid	14644
391	14645
pris	14646
cng	14647
нгаз	14648
mip	14649
ункан	14650
мунд	14651
510	14652
aff	14653
esa	14654
small	14655
conv	14656
conf	14657
monde	14658
paci	14659
560	14660
auth	14661
phys	14662
phili	14663
рогн	14664
tvn	14665
730	14666
cart	14667
680	14668
алайк	14669
what	14670
кбм	14671
core	14672
emira	14673
emerg	14674
аас	14675
have	14676
gio	14677
gior	14678
him	14679
abba	14680
860	14681
solut	14682
ерзо	14683
idon	14684
орчу	14685
вфп	14686
лфин	14687
енчич	14688
иете	14689
muse	14690
тираш	14691
980	14692
ндау	14693
symp	14694
олчат	14695
рэу	14696
glor	14697
авоч	14698
steel	14699
клеен	14700
brown	14701
astro	14702
йфел	14703
оррис	14704
хэмом	14705
prev	14706
mpia	14707
radi	14708
игсб	14709
want	14710
wave	14711
stop	14712
иелит	14713
мевш	14714
бэсп	14715
бдра	14716
bnd	14717
ukip	14718
htm	14719
spect	14720
queen	14721
ttle	14722
##элл	14723
ерцов	14724
dyna	14725
дневк	14726
афосн	14727
luxe	14728
avia	14729
nds	14730
orig	14731
spice	14732
убров	14733
эньчж	14734
mdk	14735
апсан	14736
batt	14737
дства	14738
олтан	14739
ортеж	14740
бацк	14741
gorod	14742
ucp	14743
cisco	14744
mvno	14745
фамил	14746
silv	14747
эйдж	14748
mqb	14749
йяф	14750
truct	14751
cloud	14752
rgus	14753
лафит	14754
ьюзан	14755
гилов	14756
зтех	14757
мавир	14758
гафон	14759
уббот	14760
унжут	14761
угисо	14762
улочк	14763
aedes	14764
typh	14765
inbev	14766
**	14767
3g	14768
aб	14769
a4	14770
bh	14771
bc	14772
bang	14773
bond	14774
cо	14775
cash	14776
dj	14777
dun	14778
eon	14779
ees	14780
ein	14781
ead	14782
eart	14783
fb	14784
fit	14785
ful	14786
gb	14787
gla	14788
gall	14789
gard	14790
gmp	14791
gate	14792
hro	14793
het	14794
hür	14795
ire	14796
ira	14797
iris	14798
iwf	14799
jor	14800
kir	14801
ken	14802
kuga	14803
ls	14804
lut	14805
lci	14806
lanc	14807
late	14808
ml	14809
mun	14810
mba	14811
mass	14812
nut	14813
nine	14814
oс	14815
oce	14816
oid	14817
p1	14818
pfi	14819
psa	14820
pink	14821
puss	14822
qs	14823
q7	14824
qia	14825
rq	14826
rit	14827
s6	14828
sü	14829
sus	14830
sel	14831
tl	14832
tun	14833
tvi	14834
tind	14835
tgo	14836
ula	14837
uci	14838
vet	14839
wond	14840
wise	14841
xe	14842
xl	14843
zi	14844
zak	14845
аир	14846
аоке	14847
бель	14848
бис	14849
бнов	14850
в2	14851
гни	14852
гель	14853
гик	14854
ді	14855
диз	14856
десс	14857
еил	14858
еяд	14859
жек	14860
жез	14861
жье	14862
зент	14863
зой	14864
зень	14865
ичин	14866
иус	14867
йе	14868
йдан	14869
йса	14870
ксл	14871
луд	14872
ллен	14873
лкс	14874
лчев	14875
м3	14876
мва	14877
мбу	14878
мшин	14879
нвер	14880
оил	14881
пед	14882
пляс	14883
ртр	14884
рчев	14885
сэс	14886
тз	14887
тень	14888
тста	14889
тсо	14890
тяза	14891
уис	14892
ульк	14893
уанд	14894
улав	14895
улат	14896
хти	14897
цет	14898
цем	14899
чав	14900
чмен	14901
шов	14902
шле	14903
шур	14904
шник	14905
ыро	14906
ьо	14907
ьвы	14908
ьест	14909
эру	14910
экон	14911
эвел	14912
элас	14913
юна	14914
ючи	14915
яма	14916
##чов	14917
##чич	14918
##ры	14919
##ош	14920
##йе	14921
##гов	14922
##ev	14923
##ef	14924
##so	14925
##ib	14926
##лум	14927
##ph	14928
##zy	14929
##hl	14930
##hf	14931
##uz	14932
##uy	14933
##uf	14934
##cc	14935
##цз	14936
##fan	14937
накс	14938
пруд	14939
прян	14940
##тол	14941
##овы	14942
овц	14943
овяж	14944
##ань	14945
##гос	14946
стма	14947
кох	14948
коной	14949
кори	14950
кочев	14951
заз	14952
зацк	14953
раци	14954
##рак	14955
итро	14956
итуд	14957
итес	14958
омми	14959
омне	14960
омын	14961
енят	14962
енга	14963
отек	14964
отта	14965
отят	14966
отык	14967
отши	14968
проис	14969
##лач	14970
кари	14971
ниат	14972
нити	14973
нибал	14974
нибок	14975
тоз	14976
томи	14977
ойст	14978
ойер	14979
рещен	14980
##ват	14981
##роз	14982
##рой	14983
илвы	14984
тави	14985
анью	14986
анцу	14987
прич	14988
приго	14989
оланд	14990
олкон	14991
инб	14992
инел	14993
инди	14994
инье	14995
инейд	14996
собр	14997
вык	14998
оняв	14999
онхи	15000
онщиц	15001
лида	15002
либи	15003
ерис	15004
ордел	15005
орди	15006
орри	15007
ейен	15008
ейес	15009
ейта	15010
алт	15011
алва	15012
алтон	15013
аленк	15014
ихв	15015
арел	15016
арки	15017
рует	15018
русь	15019
риал	15020
рива	15021
рима	15022
риус	15023
рица	15024
рицк	15025
етче	15026
меха	15027
мехи	15028
опки	15029
перся	15030
рожн	15031
оден	15032
осю	15033
осев	15034
осол	15035
осэр	15036
##лоб	15037
имма	15038
имшек	15039
имьян	15040
ийска	15041
##мак	15042
аяль	15043
ыха	15044
деи	15045
сао	15046
ахл	15047
ахно	15048
ахат	15049
ахчев	15050
тору	15051
льми	15052
льви	15053
льга	15054
льниц	15055
амор	15056
амей	15057
емк	15058
емс	15059
емер	15060
емел	15061
атам	15062
евзин	15063
нойн	15064
тимер	15065
тишк	15066
авн	15067
авюр	15068
ивлин	15069
озов	15070
озин	15071
ознер	15072
миан	15073
вие	15074
вия	15075
вито	15076
вини	15077
викт	15078
вихин	15079
теян	15080
есв	15081
окен	15082
окшин	15083
скир	15084
твин	15085
лягер	15086
огам	15087
маза	15088
адан	15089
адог	15090
адте	15091
адья	15092
едч	15093
стас	15094
ымел	15095
утче	15096
урта	15097
урьян	15098
урлык	15099
акин	15100
акос	15101
аквет	15102
удер	15103
удну	15104
кура	15105
кулач	15106
екле	15107
пальк	15108
ватор	15109
илич	15110
рубе	15111
айми	15112
айля	15113
айтон	15114
айбер	15115
мерч	15116
меран	15117
очив	15118
гок	15119
гоу	15120
голик	15121
люлит	15122
убко	15123
убар	15124
убам	15125
делыв	15126
решк	15127
решь	15128
мета	15129
меты	15130
естор	15131
онис	15132
вея	15133
веет	15134
оска	15135
тыни	15136
тылоч	15137
иген	15138
игьер	15139
игмюн	15140
минк	15141
исн	15142
исне	15143
млет	15144
ютер	15145
ютин	15146
уччин	15147
еллит	15148
черт	15149
врп	15150
лец	15151
упле	15152
упрун	15153
еврон	15154
диев	15155
изак	15156
корн	15157
апка	15158
апар	15159
апур	15160
апун	15161
ицц	15162
агн	15163
агу	15164
асо	15165
асы	15166
асу	15167
асход	15168
ожин	15169
азал	15170
лока	15171
локи	15172
лошн	15173
локот	15174
трепе	15175
курив	15176
чебо	15177
окопч	15178
плыт	15179
танг	15180
анден	15181
няшк	15182
сиби	15183
ошер	15184
##ацк	15185
мурат	15186
муха	15187
рыча	15188
клу	15189
ечте	15190
охр	15191
охте	15192
трах	15193
##мус	15194
молк	15195
джар	15196
бук	15197
ктк	15198
асср	15199
ортуг	15200
алаам	15201
грейд	15202
run	15203
иски	15204
милов	15205
ипс	15206
ипп	15207
иппи	15208
ашечк	15209
ехин	15210
баск	15211
бачк	15212
байк	15213
ольт	15214
гима	15215
гидь	15216
гроби	15217
море	15218
альз	15219
альек	15220
leva	15221
авили	15222
нимк	15223
ничье	15224
трино	15225
монд	15226
ифтер	15227
##дун	15228
мьян	15229
сраэ	15230
ингит	15231
ктон	15232
илоз	15233
дмс	15234
дман	15235
сетс	15236
ьясс	15237
епу	15238
епто	15239
епат	15240
еплав	15241
епту	15242
араг	15243
арад	15244
лимп	15245
мана	15246
ямз	15247
ветт	15248
узян	15249
угацк	15250
витк	15251
варни	15252
аспа	15253
линд	15254
туле	15255
тучн	15256
ьето	15257
ежин	15258
inn	15259
ушев	15260
ушвиц	15261
завуи	15262
елаят	15263
307	15264
##esh	15265
этра	15266
ворум	15267
антер	15268
ручк	15269
уай	15270
фрб	15271
фред	15272
цафа	15273
ераа	15274
ераль	15275
noki	15276
гуар	15277
гума	15278
хима	15279
асты	15280
cour	15281
court	15282
чип	15283
йнс	15284
иото	15285
иолье	15286
косин	15287
еске	15288
253	15289
255	15290
ильг	15291
лекса	15292
чьев	15293
ишхан	15294
ионов	15295
негал	15296
era	15297
erz	15298
рбак	15299
читае	15300
rew	15301
rel	15302
rey	15303
reem	15304
венны	15305
ибар	15306
копин	15307
тайк	15308
яков	15309
164	15310
енца	15311
калк	15312
луш	15313
ауш	15314
аули	15315
акак	15316
оау	15317
ешель	15318
аршав	15319
лотк	15320
ксин	15321
ангар	15322
ond	15323
oni	15324
state	15325
мосов	15326
ердер	15327
ердин	15328
сорт	15329
елял	15330
рджи	15331
##ady	15332
ыню	15333
402	15334
408	15335
нье	15336
ясоч	15337
визин	15338
aly	15339
дерей	15340
ахами	15341
дине	15342
динк	15343
жанин	15344
сана	15345
птер	15346
тдома	15347
img	15348
зимир	15349
везер	15350
ефер	15351
ефил	15352
ефчов	15353
очечн	15354
тюн	15355
юквен	15356
ессо	15357
лтгу	15358
юнг	15359
юнь	15360
аскон	15361
roust	15362
мпут	15363
оиб	15364
оиск	15365
сшор	15366
api	15367
tet	15368
tec	15369
tein	15370
грыз	15371
lion	15372
lifan	15373
хари	15374
ттк	15375
крист	15376
крипт	15377
ыквы	15378
нитк	15379
ирон	15380
адага	15381
лемы	15382
arp	15383
arg	15384
ианж	15385
355	15386
354	15387
chili	15388
инуа	15389
евоч	15390
энки	15391
энгл	15392
акоте	15393
рпг	15394
шкар	15395
boat	15396
нлу	15397
юмк	15398
тирк	15399
тирик	15400
dead	15401
ммы	15402
ммонд	15403
unit	15404
454	15405
сюду	15406
драм	15407
blica	15408
зинт	15409
##ics	15410
дрок	15411
лепт	15412
iihf	15413
рожжи	15414
niva	15415
пири	15416
уэзер	15417
макп	15418
иксел	15419
amo	15420
ерпе	15421
ерпа	15422
вижу	15423
ella	15424
321	15425
324	15426
327	15427
some	15428
эйли	15429
эйпл	15430
navi	15431
рючк	15432
оцар	15433
368	15434
азаз	15435
mari	15436
339	15437
уйт	15438
berks	15439
saf	15440
sant	15441
saint	15442
saip	15443
териа	15444
##uma	15445
##anda	15446
вуари	15447
уфан	15448
уфмс	15449
388	15450
ибок	15451
узыри	15452
lafa	15453
peace	15454
убай	15455
fom	15456
how	15457
pros	15458
469	15459
true	15460
use	15461
нблум	15462
рмази	15463
рдак	15464
413	15465
414	15466
410	15467
418	15468
манив	15469
393	15470
396	15471
dog	15472
door	15473
domi	15474
doing	15475
ойнт	15476
diam	15477
577	15478
отлк	15479
iot	15480
ious	15481
сдс	15482
529	15483
528	15484
меков	15485
opa	15486
opp	15487
льмет	15488
льмон	15489
аммы	15490
фгб	15491
чмень	15492
sier	15493
смеив	15494
агол	15495
урой	15496
урочк	15497
лосак	15498
miss	15499
hewl	15500
ксай	15501
afr	15502
adv	15503
esqui	15504
smo	15505
аунт	15506
pac	15507
paul	15508
pais	15509
749	15510
740	15511
770	15512
црун	15513
иньол	15514
nta	15515
phil	15516
плеск	15517
clar	15518
clus	15519
clini	15520
аулю	15521
tvp	15522
assi	15523
sera	15524
дяя	15525
дяев	15526
айант	15527
еймон	15528
fab	15529
ахида	15530
аагу	15531
глот	15532
train	15533
trail	15534
hai	15535
haber	15536
hawk	15537
here	15538
hero	15539
heri	15540
итвен	15541
pion	15542
pizz	15543
hip	15544
корач	15545
abs	15546
ssa	15547
supp	15548
kov	15549
фнпр	15550
айсер	15551
ular	15552
нвф	15553
ончик	15554
йзек	15555
markt	15556
cafe	15557
шельц	15558
енчик	15559
ейхе	15560
лыхин	15561
ндай	15562
етвей	15563
well	15564
scre	15565
рэп	15566
кобк	15567
derni	15568
steam	15569
evan	15570
клеит	15571
еренг	15572
compo	15573
skyl	15574
тезов	15575
ейджа	15576
едрик	15577
style	15578
verge	15579
astra	15580
оррик	15581
ибути	15582
arab	15583
metal	15584
хнич	15585
burn	15586
tary	15587
иренс	15588
чьег	15589
schia	15590
utc	15591
умия	15592
тощак	15593
harm	15594
harp	15595
kick	15596
trend	15597
swiss	15598
дриат	15599
чихи	15600
льеф	15601
льефа	15602
gnat	15603
gnum	15604
woman	15605
чицы	15606
арфол	15607
астух	15608
pdv	15609
valve	15610
аосе	15611
ерцев	15612
ерцог	15613
осяк	15614
одяг	15615
кенес	15616
лайер	15617
тюрье	15618
ллерг	15619
easy	15620
cook	15621
coop	15622
прыск	15623
вудин	15624
story	15625
шопа	15626
итсел	15627
яньг	15628
spoti	15629
nced	15630
surf	15631
аррак	15632
tols	15633
гвт	15634
гвп	15635
йхэ	15636
урьев	15637
пахом	15638
ндалл	15639
feder	15640
pisa	15641
юженк	15642
тишье	15643
heuer	15644
heure	15645
didi	15646
girls	15647
ериха	15648
bird	15649
gunv	15650
пчрб	15651
лхим	15652
лдаш	15653
чужин	15654
эцян	15655
йлерз	15656
юинз	15657
имбио	15658
mozi	15659
eutel	15660
plos	15661
rosso	15662
heavy	15663
dutch	15664
венья	15665
мкоа	15666
ръа	15667
тубер	15668
цнии	15669
шучив	15670
аснец	15671
baidu	15672
aбв	15673
ocean	15674
pussy	15675
кслер	15676
онхиа	15677
цафап	15678
рджио	15679
09	15680
03	15681
4x	15682
aug	15683
bv	15684
b2	15685
bum	15686
bass	15687
cen	15688
cum	15689
cbc	15690
doom	15691
ege	15692
eva	15693
eff	15694
fin	15695
fall	15696
gls	15697
gade	15698
gone	15699
gura	15700
hp	15701
hit	15702
his	15703
hard	15704
jap	15705
kn	15706
kan	15707
kle	15708
kit	15709
kfc	15710
kno	15711
l1	15712
lb	15713
las	15714
lve	15715
lud	15716
lug	15717
lone	15718
m4	15719
mb	15720
mad	15721
mia	15722
mund	15723
mily	15724
mwc	15725
n3	15726
nute	15727
nuc	15728
ou	15729
oor	15730
old	15731
ova	15732
pä	15733
pil	15734
pus	15735
pit	15736
ppe	15737
q5	15738
rr	15739
roo	15740
race	15741
rand	15742
rapt	15743
sb	15744
sas	15745
smi	15746
side	15747
s90	15748
tz	15749
tto	15750
unt	15751
uls	15752
vm	15753
vat	15754
v12	15755
ws	15756
wil	15757
wers	15758
xa	15759
xc	15760
xy	15761
yand	15762
а1	15763
авол	15764
асян	15765
бó	15766
бти	15767
бент	15768
бест	15769
бфа	15770
бдо	15771
бзе	15772
вита	15773
винг	15774
вмп	15775
вхл	15776
гел	15777
гги	15778
гун	15779
дб	15780
дво	15781
диц	15782
дный	15783
еок	15784
елаг	15785
евис	15786
жанд	15787
жуа	15788
зва	15789
зек	15790
зей	15791
зот	15792
иатр	15793
ишл	15794
йма	15795
йвинг	15796
кы	15797
кш	15798
кне	15799
ккол	15800
ксир	15801
кейн	15802
кдк	15803
лери	15804
лби	15805
лбу	15806
мки	15807
мжд	15808
ммен	15809
манк	15810
нж	15811
нрик	15812
оина	15813
пси	15814
пчин	15815
пшер	15816
пелье	15817
рсо	15818
с4	15819
срат	15820
сых	15821
синг	15822
туж	15823
тлен	15824
тбо	15825
тюз	15826
тмо	15827
ттер	15828
тгу	15829
теньк	15830
фп	15831
фис	15832
хер	15833
хил	15834
хур	15835
цвел	15836
чуб	15837
чок	15838
чжи	15839
шне	15840
щель	15841
ыльц	15842
ьери	15843
ьвен	15844
ьвиц	15845
эво	15846
эйс	15847
эшн	15848
юли	15849
юма	15850
юоро	15851
юха	15852
югер	15853
юшин	15854
юшн	15855
яе	15856
яцк	15857
ій	15858
їн	15859
їни	15860
##чу	15861
##чет	15862
##еб	15863
##кен	15864
##зит	15865
##аин	15866
##бел	15867
##бул	15868
##гэ	15869
##sc	15870
##sf	15871
##ik	15872
##лк	15873
##ьей	15874
##яц	15875
##хон	15876
##хир	15877
##jo	15878
##фс	15879
##фет	15880
##фат	15881
##hr	15882
##cy	15883
##цц	15884
##bh	15885
нати	15886
##ена	15887
##нил	15888
овне	15889
овша	15890
овбаш	15891
##еля	15892
нора	15893
стд	15894
стент	15895
стмы	15896
кок	15897
кота	15898
нею	15899
нези	15900
неап	15901
##рад	15902
итти	15903
итвол	15904
итич	15905
иттер	15906
обит	15907
обот	15908
обле	15909
обол	15910
обок	15911
обби	15912
омз	15913
омм	15914
омор	15915
омей	15916
енто	15917
ентор	15918
енад	15919
енге	15920
енхи	15921
отрон	15922
##лап	15923
##лам	15924
калин	15925
ниа	15926
ниш	15927
нища	15928
изан	15929
изляр	15930
##тьян	15931
речн	15932
илд	15933
илка	15934
илля	15935
тад	15936
таник	15937
таун	15938
таял	15939
таха	15940
тагф	15941
анар	15942
аней	15943
анетт	15944
приц	15945
олм	15946
олер	15947
олще	15948
олмо	15949
инем	15950
инги	15951
инха	15952
##сик	15953
онто	15954
лих	15955
лиль	15956
лисс	15957
лихов	15958
ерсти	15959
ерлог	15960
быч	15961
орка	15962
оруд	15963
орло	15964
орха	15965
оршк	15966
орчи	15967
орхол	15968
ейса	15969
моз	15970
мотив	15971
мозр	15972
мозер	15973
молоч	15974
алей	15975
алеч	15976
алоч	15977
алом	15978
алоп	15979
албур	15980
иепа	15981
ихмин	15982
арж	15983
арви	15984
арган	15985
арша	15986
арящ	15987
ареж	15988
арха	15989
аргу	15990
аржи	15991
арбер	15992
арзы	15993
аргиз	15994
руст	15995
русс	15996
риев	15997
##кив	15998
етли	15999
етки	16000
мея	16001
опко	16002
иягу	16003
перл	16004
одез	16005
оджа	16006
одрич	16007
подго	16008
имт	16009
имор	16010
имее	16011
имба	16012
ийг	16013
лами	16014
деев	16015
конд	16016
кону	16017
саки	16018
сама	16019
саги	16020
саток	16021
ахтов	16022
лька	16023
амбук	16024
амхал	16025
амфет	16026
емет	16027
емок	16028
истен	16029
истей	16030
атко	16031
атку	16032
евал	16033
всн	16034
нике	16035
тисс	16036
тишек	16037
авц	16038
авди	16039
аверт	16040
ивьен	16041
озон	16042
мий	16043
мифи	16044
виант	16045
теж	16046
теин	16047
тебл	16048
ирл	16049
ирю	16050
ирша	16051
телес	16052
киа	16053
##стье	16054
окос	16055
крти	16056
всегд	16057
еечк	16058
огли	16059
огун	16060
оглоб	16061
маи	16062
маф	16063
маго	16064
адс	16065
адет	16066
адож	16067
адри	16068
адзи	16069
адван	16070
явл	16071
едло	16072
ымал	16073
утюр	16074
утляр	16075
суш	16076
сухо	16077
икун	16078
икке	16079
икмет	16080
мыр	16081
мыра	16082
скел	16083
скур	16084
скетс	16085
грат	16086
урга	16087
урдж	16088
акерт	16089
ранг	16090
ятр	16091
мирт	16092
куки	16093
куна	16094
екти	16095
екзит	16096
ваян	16097
вабе	16098
вароч	16099
краб	16100
алио	16101
алим	16102
менев	16103
руба	16104
айю	16105
айет	16106
айсс	16107
айса	16108
айфу	16109
##люс	16110
голь	16111
гомон	16112
люс	16113
убор	16114
ельч	16115
ельве	16116
ровд	16117
метк	16118
метш	16119
экб	16120
экгра	16121
ловил	16122
тынь	16123
смус	16124
игун	16125
игмун	16126
парс	16127
исепп	16128
трош	16129
ивач	16130
начк	16131
учма	16132
орок	16133
леи	16134
левар	16135
леца	16136
усман	16137
турк	16138
турц	16139
упор	16140
яня	16141
дира	16142
укян	16143
уково	16144
апт	16145
апш	16146
апер	16147
апал	16148
апси	16149
апса	16150
агар	16151
агса	16152
асюк	16153
олжан	16154
анкре	16155
биян	16156
иасс	16157
куре	16158
##кус	16159
##кун	16160
леди	16161
срп	16162
плел	16163
андж	16164
няют	16165
сиб	16166
сиф	16167
сибу	16168
нтрат	16169
файл	16170
офа	16171
оффе	16172
охон	16173
охир	16174
абур	16175
абье	16176
ецц	16177
газд	16178
темб	16179
идин	16180
иджет	16181
трап	16182
тради	16183
траус	16184
##гас	16185
буэн	16186
ктус	16187
хоу	16188
хопа	16189
езт	16190
езент	16191
ортен	16192
алар	16193
алаб	16194
алаф	16195
грин	16196
грюм	16197
опаз	16198
rupt	16199
стань	16200
фиа	16201
райт	16202
райв	16203
искор	16204
селек	16205
ипан	16206
ипно	16207
ипящ	16208
ипцер	16209
ипяч	16210
ичуш	16211
ичюс	16212
ехтер	16213
двор	16214
двин	16215
баян	16216
баум	16217
байр	16218
бамид	16219
пич	16220
ольг	16221
ндж	16222
нден	16223
ндре	16224
ндук	16225
егер	16226
егби	16227
унсо	16228
латин	16229
целел	16230
хотал	16231
мори	16232
морр	16233
альди	16234
бров	16235
брод	16236
бренд	16237
умкон	16238
хамид	16239
сенд	16240
leag	16241
less	16242
lens	16243
ренл	16244
ренев	16245
ренаж	16246
режен	16247
иалк	16248
даля	16249
ебк	16250
ебед	16251
ебра	16252
кинг	16253
кинд	16254
ифос	16255
ейшн	16256
ерге	16257
ерген	16258
лужи	16259
ингис	16260
##бист	16261
ртел	16262
тяшев	16263
епки	16264
епсс	16265
епик	16266
арашк	16267
лагу	16268
митт	16269
етсе	16270
вкр	16271
ентен	16272
ффет	16273
узан	16274
ребе	16275
угов	16276
вард	16277
ркс	16278
смид	16279
елис	16280
уктуа	16281
штин	16282
туз	16283
туми	16284
тужев	16285
ьево	16286
винк	16287
винц	16288
винец	16289
ащел	16290
ушет	16291
##ars	16292
нгин	16293
нглад	16294
итой	16295
129	16296
ардо	16297
ардон	16298
дрен	16299
ворт	16300
антро	16301
ерья	16302
фрем	16303
фриз	16304
ромов	16305
вещев	16306
гуен	16307
гуаин	16308
ациф	16309
асью	16310
утопи	16311
астел	16312
coin	16313
cool	16314
чищ	16315
ионо	16316
есков	16317
ескин	16318
топа	16319
258	16320
армез	16321
имоно	16322
ильв	16323
тиньо	16324
думк	16325
ьянме	16326
ущу	16327
слова	16328
ишут	16329
шаф	16330
игол	16331
мелов	16332
181	16333
аллов	16334
аллем	16335
ндрик	16336
rene	16337
вендс	16338
ибек	16339
ибур	16340
копян	16341
мовер	16342
луст	16343
аум	16344
ауэ	16345
ауль	16346
аулин	16347
ощуп	16348
вечье	16349
вечья	16350
болк	16351
ешин	16352
ешек	16353
ачит	16354
##aga	16355
гибл	16356
ксон	16357
орио	16358
247	16359
рхард	16360
stic	16361
омбин	16362
ернс	16363
287	16364
рды	16365
рдор	16366
рдын	16367
236	16368
ньше	16369
alg	16370
дерн	16371
дерея	16372
цбк	16373
длер	16374
кресл	16375
enc	16376
enel	16377
санти	16378
299	16379
пту	16380
птин	16381
рьяк	16382
imper	16383
зерти	16384
обоа	16385
инкли	16386
ефал	16387
ламар	16388
ховен	16389
омеро	16390
кмар	16391
тюг	16392
лавра	16393
елест	16394
банов	16395
олден	16396
сельч	16397
аске	16398
ватк	16399
еченг	16400
rod	16401
rose	16402
roma	16403
индо	16404
индж	16405
орнев	16406
урач	16407
урай	16408
tok	16409
town	16410
temp	16411
кнд	16412
стойк	16413
айкин	16414
укач	16415
архан	16416
архом	16417
щах	16418
мэн	16419
liv	16420
ттин	16421
нкб	16422
якот	16423
оэт	16424
ввсс	16425
елюр	16426
modo	16427
камь	16428
олкл	16429
иклон	16430
шиб	16431
орас	16432
есьяк	16433
ломов	16434
ломил	16435
рельс	16436
еллан	16437
еджак	16438
лейф	16439
make	16440
броу	16441
бедр	16442
пеле	16443
пела	16444
ижев	16445
циали	16446
евок	16447
энс	16448
энг	16449
энси	16450
энду	16451
энгф	16452
акост	16453
снб	16454
icq	16455
icbc	16456
аймыр	16457
bost	16458
boss	16459
bouy	16460
атас	16461
нлд	16462
forn	16463
лесоо	16464
юмов	16465
тиран	16466
dei	16467
depe	16468
ммд	16469
атлон	16470
456	16471
сюй	16472
итиев	16473
бюра	16474
лыж	16475
лыгин	16476
мкин	16477
мкпп	16478
абаш	16479
гана	16480
одиак	16481
рожж	16482
ige	16483
чкин	16484
nie	16485
nig	16486
nian	16487
nium	16488
pot	16489
pole	16490
дкп	16491
нюха	16492
oran	16493
тихл	16494
ацка	16495
анья	16496
омач	16497
омаз	16498
уэр	16499
уэйн	16500
иксен	16501
ced	16502
eld	16503
elite	16504
chem	16505
nac	16506
rax	16507
оцман	16508
363	16509
366	16510
365	16511
корот	16512
стыд	16513
marc	16514
олаз	16515
уйя	16516
bern	16517
богат	16518
loud	16519
ароч	16520
арочк	16521
sav	16522
saxo	16523
sey	16524
псин	16525
merl	16526
ati	16527
льяни	16528
beij	16529
349	16530
вондо	16531
емак	16532
mani	16533
робац	16534
вуют	16535
махан	16536
379	16537
373	16538
tho	16539
422	16540
уфер	16541
уфнс	16542
382	16543
god	16544
онсю	16545
иллис	16546
lav	16547
lake	16548
ling	16549
peed	16550
pect	16551
кетча	16552
ршлаг	16553
urn	16554
hos	16555
опея	16556
prov	16557
465	16558
tory	16559
485	16560
найт	16561
479	16562
472	16563
рмани	16564
439	16565
436	16566
438	16567
mem	16568
уцк	16569
415	16570
baby	16571
мотан	16572
нтере	16573
ries	16574
nals	16575
сдю	16576
енкин	16577
526	16578
522	16579
дейк	16580
шеми	16581
opal	16582
рташ	16583
фгр	16584
фгср	16585
iso	16586
рдиан	16587
623	16588
аснет	16589
онгар	16590
iber	16591
ibur	16592
ibsf	16593
шумов	16594
mix	16595
heal	16596
hein	16597
esp	16598
рахт	16599
cong	16600
672	16601
678	16602
ггетс	16603
561	16604
auty	16605
nto	16606
955	16607
phar	16608
547	16609
змет	16610
589	16611
630	16612
дсон	16613
лахн	16614
995	16615
ксима	16616
брич	16617
660	16618
whi	16619
610	16620
coro	16621
corv	16622
emp	16623
осмд	16624
trafi	16625
ьетро	16626
бирк	16627
фарк	16628
giz	16629
xxii	16630
780	16631
quer	16632
quad	16633
ssl	16634
sson	16635
ssan	16636
##ugh	16637
ицкев	16638
koh	16639
вэбе	16640
винеи	16641
эдк	16642
luc	16643
crj	16644
шельф	16645
940	16646
учиг	16647
hang	16648
сквит	16649
иджан	16650
иджит	16651
длих	16652
scie	16653
ейдон	16654
ейдар	16655
jeff	16656
icao	16657
олчит	16658
олчек	16659
олчун	16660
deli	16661
dell	16662
feel	16663
рэб	16664
рэд	16665
кобел	16666
зиньо	16667
glass	16668
эндс	16669
even	16670
scot	16671
ххi	16672
инера	16673
дайк	16674
клеил	16675
клеар	16676
оврин	16677
оукал	16678
870	16679
broad	16680
мутил	16681
890	16682
мазон	16683
nym	16684
cleef	16685
рвихи	16686
акомо	16687
shopp	16688
camp	16689
ukad	16690
fare	16691
gmbh	16692
pale	16693
арбар	16694
ндерр	16695
нурк	16696
llc	16697
llas	16698
бэй	16699
октя	16700
cali	16701
юэл	16702
stry	16703
imax	16704
dani	16705
чиха	16706
ножов	16707
infra	16708
ошак	16709
тнич	16710
akt	16711
eos	16712
float	16713
floyd	16714
астаз	16715
енгал	16716
иберк	16717
heli	16718
бадр	16719
схем	16720
етчуп	16721
ghs	16722
iran	16723
сунян	16724
morr	16725
несса	16726
мфиб	16727
энкси	16728
aegi	16729
holo	16730
гсм	16731
урдал	16732
iams	16733
ибри	16734
llow	16735
кейт	16736
ккум	16737
оопер	16738
омбоз	16739
ойоты	16740
visit	16741
lane	16742
езарь	16743
улыж	16744
surv	16745
кчр	16746
пицы	16747
пихив	16748
лебов	16749
дигме	16750
цкад	16751
лмыцк	16752
вукли	16753
рмиш	16754
увак	16755
шутил	16756
алдис	16757
копах	16758
chery	16759
blog	16760
fatf	16761
sorts	16762
анкис	16763
имфом	16764
чусет	16765
щетно	16766
щелин	16767
уршет	16768
ндрай	16769
cosmo	16770
ижай	16771
кхар	16772
эвм	16773
орчащ	16774
ептид	16775
ссух	16776
colum	16777
ihs	16778
rapid	16779
ufg	16780
йнак	16781
квойя	16782
пдн	16783
прогн	16784
илюч	16785
етхие	16786
drop	16787
pgn	16788
bolt	16789
happy	16790
jane	16791
лелит	16792
пивин	16793
теохо	16794
muls	16795
tbit	16796
илемм	16797
онхит	16798
иптих	16799
ухуми	16800
html	16801
earth	16802
hürr	16803
irish	16804
lcim	16805
südd	16806
зойл	16807
лксм	16808
рычаж	16809
жуази	16810
инхас	16811
арежк	16812
%)	16813
(%	16814
($	16815
4s	16816
4х	16817
5se	16818
a6	16819
a8	16820
aol	16821
ael	16822
ave	16823
aid	16824
ake	16825
aqua	16826
band	16827
bdo	16828
cp	16829
cad	16830
cel	16831
cuk	16832
dir	16833
dur	16834
dup	16835
dia	16836
due	16837
dly	16838
eh	16839
eq	16840
eal	16841
ela	16842
equ	16843
equi	16844
fg	16845
ff	16846
fan	16847
gg	16848
gin	16849
gna	16850
gang	16851
gdr	16852
hm	16853
hin	16854
hut	16855
haz	16856
hind	16857
hull	16858
i8	16859
ior	16860
ias	16861
ius	16862
iel	16863
ild	16864
ifc	16865
ifi	16866
ize	16867
iaga	16868
jul	16869
jum	16870
just	16871
jim	16872
ks	16873
kf	16874
kol	16875
kard	16876
kaz	16877
kna	16878
lx	16879
lap	16880
last	16881
mall	16882
mest	16883
mind	16884
nv	16885
n8	16886
nam	16887
nic	16888
nsa	16889
o1	16890
ole	16891
oba	16892
ody	16893
py	16894
pf	16895
pas	16896
pht	16897
pra	16898
pate	16899
pool	16900
q2	16901
rag	16902
rin	16903
rse	16904
s8	16905
say	16906
svo	16907
tx	16908
tin	16909
tty	16910
tart	16911
uh	16912
uy	16913
ust	16914
ugh	16915
uok	16916
vill	16917
wm	16918
wp	16919
wu	16920
wis	16921
wine	16922
x4	16923
yan	16924
yes	16925
yuk	16926
zz	16927
zoom	16928
аал	16929
аав	16930
аам	16931
бпк	16932
бдс	16933
белье	16934
вко	16935
вма	16936
всп	16937
вяд	16938
вось	16939
вга	16940
гоб	16941
гму	16942
гущ	16943
гнеш	16944
гба	16945
гбоу	16946
гхк	16947
гфс	16948
гбист	16949
дси	16950
дти	16951
дськ	16952
еной	16953
еном	16954
ечев	16955
жж	16956
жут	16957
жкт	16958
жуаз	16959
жокер	16960
жора	16961
зэ	16962
зран	16963
зне	16964
зяк	16965
иc	16966
ижд	16967
йв	16968
йг	16969
йш	16970
йлен	16971
йовы	16972
кз	16973
клок	16974
кутер	16975
лэ	16976
лган	16977
ллат	16978
лсон	16979
лраш	16980
мш	16981
м5	16982
муд	16983
мниц	16984
мхт	16985
мцп	16986
нр	16987
нлив	16988
нтье	16989
оос	16990
оат	16991
ощен	16992
п1	16993
п2	16994
пуд	16995
пекс	16996
пейс	16997
пина	16998
пенн	16999
псо	17000
пэн	17001
плит	17002
пдк	17003
рча	17004
рлен	17005
ряз	17006
рмин	17007
рлин	17008
рняк	17009
ртьян	17010
сг	17011
сыт	17012
сза	17013
слин	17014
сцк	17015
сгк	17016
тли	17017
туч	17018
тзи	17019
уги	17020
уник	17021
фб	17022
фэ	17023
фал	17024
фог	17025
фпа	17026
флях	17027
хие	17028
хитр	17029
хэк	17030
цп	17031
цг	17032
цм	17033
цх	17034
цек	17035
цуп	17036
цхе	17037
чий	17038
шв	17039
шд	17040
шва	17041
шета	17042
шепт	17043
що	17044
щур	17045
ъют	17046
ыни	17047
ыре	17048
ырд	17049
ыжев	17050
ьез	17051
эх	17052
эск	17053
эсс	17054
юи	17055
юй	17056
южен	17057
юшек	17058
яа	17059
яу	17060
яра	17061
ялен	17062
яме	17063
япы	17064
′′	17065
##чут	17066
##кал	17067
##ао	17068
##аль	17069
##см	17070
##нг	17071
##нд	17072
##бз	17073
##ez	17074
##kar	17075
##шт	17076
##дл	17077
##мз	17078
##ьем	17079
##яг	17080
##we	17081
##фэ	17082
##gs	17083
##uze	17084
##är	17085
##xi	17086
##que	17087
понир	17088
прут	17089
пратл	17090
##енг	17091
##еро	17092
овент	17093
стыв	17094
коу	17095
некс	17096
зачат	17097
раен	17098
раэк	17099
раунд	17100
##орт	17101
##лир	17102
итим	17103
итул	17104
иттен	17105
итчук	17106
обж	17107
обнин	17108
омко	17109
омит	17110
омул	17111
енли	17112
енек	17113
енги	17114
еняв	17115
енну	17116
еннер	17117
енчан	17118
отав	17119
отар	17120
отул	17121
отчин	17122
оттс	17123
кац	17124
катон	17125
ниль	17126
нишк	17127
ениш	17128
изги	17129
тоун	17130
тонин	17131
ойло	17132
ойман	17133
доган	17134
##важ	17135
##рок	17136
илял	17137
иллюс	17138
таен	17139
тава	17140
анул	17141
анац	17142
антр	17143
анчин	17144
анус	17145
анфр	17146
приян	17147
олем	17148
олек	17149
инен	17150
инель	17151
инда	17152
инган	17153
инник	17154
инус	17155
инза	17156
##сив	17157
сош	17158
соно	17159
соян	17160
солин	17161
онз	17162
онор	17163
ончер	17164
ликт	17165
ликон	17166
ликс	17167
орра	17168
орне	17169
орив	17170
орзи	17171
оржи	17172
орлы	17173
трос	17174
трым	17175
трюк	17176
остел	17177
остян	17178
ейст	17179
ейда	17180
ейди	17181
моу	17182
моза	17183
молян	17184
огон	17185
огож	17186
алет	17187
алль	17188
алев	17189
иест	17190
ихт	17191
арв	17192
арц	17193
арер	17194
арда	17195
аруж	17196
руй	17197
рулив	17198
рулев	17199
рино	17200
риба	17201
##кир	17202
разр	17203
етле	17204
етце	17205
етдо	17206
меин	17207
меек	17208
месс	17209
опз	17210
опц	17211
опед	17212
опник	17213
опну	17214
опич	17215
оплот	17216
##лял	17217
##ейм	17218
перч	17219
перу	17220
рощ	17221
одят	17222
оджи	17223
однин	17224
аниак	17225
циан	17226
итье	17227
осат	17228
осей	17229
имал	17230
имит	17231
имка	17232
имес	17233
имбер	17234
имзод	17235
лаха	17236
лайт	17237
##рум	17238
##маж	17239
ыхин	17240
сас	17241
ахн	17242
ахти	17243
ахис	17244
ахте	17245
ахха	17246
ахтер	17247
торич	17248
льбо	17249
львин	17250
льван	17251
льчив	17252
амзи	17253
амук	17254
амдар	17255
емма	17256
ембр	17257
истан	17258
атран	17259
атдо	17260
евант	17261
авор	17262
авзо	17263
аврид	17264
ивон	17265
ивец	17266
озк	17267
озол	17268
озул	17269
озой	17270
милин	17271
милит	17272
вика	17273
вида	17274
вияж	17275
тешк	17276
теуш	17277
ирос	17278
ирко	17279
ирсон	17280
ирван	17281
ирроз	17282
тьк	17283
есит	17284
телл	17285
телер	17286
киз	17287
киб	17288
кидк	17289
даг	17290
окут	17291
крс	17292
кран	17293
верб	17294
верьк	17295
еец	17296
ляв	17297
огжан	17298
мац	17299
мада	17300
матов	17301
мага	17302
стож	17303
стоте	17304
адз	17305
адта	17306
едя	17307
едра	17308
ымов	17309
чато	17310
чаян	17311
утыл	17312
утюн	17313
суг	17314
сулек	17315
суман	17316
икор	17317
икко	17318
икри	17319
икшн	17320
мычк	17321
граб	17322
урни	17323
урье	17324
урвич	17325
акст	17326
акен	17327
акра	17328
ранк	17329
рань	17330
удс	17331
удик	17332
удок	17333
уджа	17334
ятни	17335
миран	17336
екел	17337
екью	17338
пач	17339
паг	17340
паст	17341
пашн	17342
вара	17343
вашен	17344
крам	17345
краст	17346
илие	17347
менк	17348
руби	17349
айб	17350
айни	17351
айед	17352
айру	17353
айят	17354
айба	17355
айрон	17356
айхе	17357
очен	17358
очин	17359
очес	17360
гощ	17361
видл	17362
жего	17363
лючи	17364
убра	17365
убна	17366
эку	17367
экц	17368
онит	17369
веян	17370
вешен	17371
вебек	17372
интус	17373
оваж	17374
овато	17375
смт	17376
смр	17377
сму	17378
смык	17379
игри	17380
парин	17381
минт	17382
исецк	17383
тропи	17384
думе	17385
дувал	17386
ивай	17387
томэ	17388
учнин	17389
елез	17390
черп	17391
череп	17392
леху	17393
услив	17394
пуцин	17395
упит	17396
упта	17397
напк	17398
янв	17399
янск	17400
яньк	17401
совар	17402
дией	17403
уклой	17404
ремо	17405
илат	17406
корд	17407
гах	17408
гасс	17409
апен	17410
апил	17411
иццер	17412
агел	17413
агли	17414
агун	17415
агетт	17416
матин	17417
матик	17418
асэ	17419
асю	17420
азк	17421
изван	17422
детт	17423
лои	17424
лофан	17425
иаз	17426
иааф	17427
трепк	17428
четов	17429
рфак	17430
окошн	17431
##кум	17432
ледь	17433
срз	17434
срн	17435
надт	17436
плекс	17437
андал	17438
ням	17439
сигэ	17440
муль	17441
нтк	17442
здер	17443
фалин	17444
офан	17445
офил	17446
офман	17447
клов	17448
ечет	17449
ечей	17450
охот	17451
абли	17452
абра	17453
абла	17454
абит	17455
абон	17456
ецов	17457
ецил	17458
идс	17459
идко	17460
ертил	17461
трасс	17462
джин	17463
бумаж	17464
ассо	17465
хоус	17466
езь	17467
езут	17468
кефал	17469
орты	17470
ортер	17471
грм	17472
rub	17473
фибр	17474
блан	17475
ризн	17476
ормин	17477
равьи	17478
ьнян	17479
скаль	17480
нихир	17481
ипко	17482
ипут	17483
ипнот	17484
ьюк	17485
емунд	17486
ичч	17487
ичок	17488
ашет	17489
ашни	17490
ашат	17491
ашля	17492
бай	17493
баль	17494
баку	17495
бакар	17496
бауэр	17497
пира	17498
пиль	17499
пика	17500
пират	17501
ольщ	17502
ольде	17503
гист	17504
гини	17505
гиль	17506
##ere	17507
итаян	17508
ндп	17509
ндем	17510
нджи	17511
ндэнс	17512
еген	17513
егги	17514
егеж	17515
елочк	17516
унс	17517
унта	17518
унди	17519
унью	17520
доби	17521
меда	17522
плач	17523
плац	17524
морал	17525
альте	17526
альса	17527
ажин	17528
брик	17529
умч	17530
умо	17531
умин	17532
умит	17533
умом	17534
умме	17535
хаузе	17536
анаи	17537
анас	17538
риньо	17539
lef	17540
lex	17541
lead	17542
lect	17543
leaf	17544
ренно	17545
авиши	17546
улла	17547
улка	17548
ериг	17549
иаля	17550
ебин	17551
ышу	17552
ифе	17553
сниц	17554
чикв	17555
ингал	17556
вале	17557
тепл	17558
дане	17559
регин	17560
сетей	17561
жито	17562
враам	17563
ьяр	17564
ьяго	17565
литк	17566
епенд	17567
брад	17568
брау	17569
ссер	17570
ддер	17571
узен	17572
угл	17573
угле	17574
угкц	17575
варро	17576
аспол	17577
товил	17578
ркан	17579
малус	17580
елиск	17581
линс	17582
тум	17583
туха	17584
туоз	17585
тарц	17586
iner	17587
inno	17588
грунк	17589
винч	17590
винья	17591
виндт	17592
форго	17593
ащат	17594
арты	17595
##orp	17596
ерот	17597
чинк	17598
енас	17599
нгел	17600
нгель	17601
койн	17602
арден	17603
ардин	17604
этс	17605
дрем	17606
ворч	17607
вору	17608
ворил	17609
антил	17610
антри	17611
ерьев	17612
фрра	17613
платц	17614
nom	17615
nobi	17616
утья	17617
шнев	17618
гузин	17619
хипс	17620
хиаль	17621
титс	17622
астю	17623
астой	17624
асточ	17625
течк	17626
шире	17627
амаил	17628
амади	17629
гранд	17630
cog	17631
code	17632
чиш	17633
йнал	17634
штам	17635
штама	17636
анос	17637
весу	17638
весел	17639
ескон	17640
ловай	17641
едьк	17642
арман	17643
дисл	17644
адрин	17645
ндиан	17646
ишня	17647
ишук	17648
ишняк	17649
шах	17650
шайд	17651
ухра	17652
erics	17653
аллер	17654
алоф	17655
рбуз	17656
501	17657
508	17658
rect	17659
венч	17660
венс	17661
венал	17662
иба	17663
ибог	17664
зорл	17665
копы	17666
копов	17667
ячь	17668
тайл	17669
текин	17670
ыпин	17671
ансен	17672
афа	17673
якл	17674
якяр	17675
ордор	17676
##ath	17677
229	17678
ауэлл	17679
акам	17680
аркра	17681
вечий	17682
недр	17683
ендор	17684
ендра	17685
ешка	17686
ешей	17687
ешнев	17688
ned	17689
neft	17690
аршин	17691
окат	17692
ксал	17693
рхен	17694
рхбз	17695
хеа	17696
оув	17697
оути	17698
оузи	17699
оуваж	17700
еверн	17701
сейн	17702
ons	17703
sten	17704
stel	17705
stade	17706
ердок	17707
ерджи	17708
ярг	17709
281	17710
рдта	17711
ынью	17712
409	17713
406	17714
404	17715
407	17716
ньо	17717
ревел	17718
ясок	17719
етиз	17720
тажер	17721
сонн	17722
нфл	17723
allo	17724
дерм	17725
длан	17726
274	17727
хрим	17728
ейнг	17729
enz	17730
269	17731
грибк	17732
298	17733
птк	17734
ano	17735
anh	17736
везут	17737
игуан	17738
нерв	17739
енсу	17740
енсен	17741
инкин	17742
ояж	17743
ояжер	17744
ефел	17745
ефлер	17746
тюк	17747
тюхов	17748
агада	17749
лавэр	17750
нсари	17751
##глу	17752
банг	17753
мчм	17754
агия	17755
инол	17756
юндар	17757
чате	17758
rom	17759
rok	17760
round	17761
roth	17762
мпф	17763
мпц	17764
мпир	17765
мпгу	17766
оида	17767
рокер	17768
apa	17769
ураск	17770
tos	17771
teva	17772
шук	17773
шуль	17774
шумо	17775
айкул	17776
укар	17777
лкмар	17778
мэт	17779
мэйн	17780
lica	17781
хард	17782
ауда	17783
мфин	17784
мфис	17785
якоти	17786
мнб	17787
оэск	17788
ыквер	17789
чане	17790
fia	17791
books	17792
ургу	17793
ижон	17794
мсб	17795
мсха	17796
ырян	17797
олкер	17798
оргул	17799
шифр	17800
лемов	17801
лемин	17802
##urs	17803
орач	17804
ораес	17805
arti	17806
armo	17807
есье	17808
эмф	17809
эмбо	17810
chy	17811
chro	17812
chart	17813
chux	17814
chica	17815
щип	17816
лейфа	17817
ороде	17818
брон	17819
аксан	17820
ервей	17821
spy	17822
spur	17823
airs	17824
снет	17825
фтан	17826
аймор	17827
bok	17828
bout	17829
bour	17830
bows	17831
bowl	17832
its	17833
юмри	17834
dee	17835
deal	17836
ммон	17837
укини	17838
урул	17839
453	17840
451	17841
чтз	17842
чтпз	17843
daf	17844
dawn	17845
dakar	17846
етнев	17847
эпт	17848
элли	17849
blad	17850
blade	17851
bliz	17852
левал	17853
пинат	17854
улят	17855
дроц	17856
дроме	17857
абас	17858
гано	17859
ржс	17860
рожь	17861
тнк	17862
etv	17863
nier	17864
nice	17865
рмел	17866
orbi	17867
ords	17868
ираж	17869
аньчж	17870
омаха	17871
уэток	17872
ряж	17873
cee	17874
cev	17875
break	17876
онтус	17877
круж	17878
ензел	17879
sham	17880
elp	17881
wwdc	17882
иког	17883
уини	17884
уифф	17885
sof	17886
sole	17887
soho	17888
##бай	17889
эйси	17890
ройл	17891
рюс	17892
рючн	17893
rak	17894
raf	17895
369	17896
361	17897
пати	17898
mara	17899
marr	17900
mary	17901
сопш	17902
332	17903
334	17904
олак	17905
душин	17906
душев	17907
уйбыш	17908
##ctv	17909
рацци	17910
мейте	17911
оккер	17912
loft	17913
saa	17914
see	17915
кэм	17916
уреш	17917
нпп	17918
нпц	17919
ato	17920
науф	17921
закр	17922
bea	17923
ивеев	17924
341	17925
348	17926
вонн	17927
рсх	17928
many	17929
вмк	17930
вмор	17931
вушек	17932
махив	17933
377	17934
378	17935
вэо	17936
вэл	17937
исик	17938
екир	17939
thro	17940
уфт	17941
уфет	17942
оздаг	17943
383	17944
goal	17945
онсен	17946
очере	17947
йкел	17948
тырк	17949
laur	17950
pec	17951
peb	17952
асик	17953
кетт	17954
hop	17955
лодар	17956
илант	17957
461	17958
torep	17959
wear	17960
дюк	17961
тсмен	17962
441	17963
476	17964
475	17965
474	17966
рмад	17967
батро	17968
лтас	17969
осии	17970
осизо	17971
tale	17972
talk	17973
busch	17974
mego	17975
рихе	17976
word	17977
856	17978
bac	17979
bafta	17980
395	17981
492	17982
еточк	17983
нтерз	17984
diag	17985
prima	17986
prize	17987
rie	17988
sonn	17989
576	17990
nale	17991
toni	17992
сдк	17993
525	17994
аркоп	17995
oppo	17996
тоси	17997
еньке	17998
sip	17999
sib	18000
simi	18001
рдини	18002
смеял	18003
622	18004
рцыз	18005
ускл	18006
cast	18007
бнт	18008
бнр	18009
уаля	18010
пфир	18011
уант	18012
646	18013
647	18014
miev	18015
hear	18016
heart	18017
мунц	18018
516	18019
518	18020
бенс	18021
##энь	18022
afd	18023
шилк	18024
ado	18025
esi	18026
gues	18027
тлер	18028
итке	18029
влян	18030
гейта	18031
иньц	18032
иньет	18033
729	18034
726	18035
ivan	18036
ival	18037
poll	18038
tye	18039
biya	18040
лмк	18041
carl	18042
998	18043
бриф	18044
plug	18045
нтош	18046
faw	18047
asx	18048
where	18049
cord	18050
ааз	18051
ааль	18052
849	18053
norm	18054
760	18055
herb	18056
agro	18057
мгд	18058
pick	18059
утас	18060
820	18061
ryan	18062
кораб	18063
abi	18064
lyt	18065
нчуг	18066
expo	18067
quo	18068
rtus	18069
ндеш	18070
ндегр	18071
тисон	18072
kokt	18073
ркаст	18074
анеля	18075
сэпи	18076
сэйн	18077
acar	18078
aria	18079
blabl	18080
no10	18081
no18	18082
belg	18083
cruze	18084
ots	18085
949	18086
944	18087
ойлу	18088
вяда	18089
иттл	18090
иттин	18091
уркан	18092
930	18093
ахтин	18094
trib	18095
tribe	18096
830	18097
shen	18098
shep	18099
лтайв	18100
indit	18101
feat	18102
femen	18103
рэш	18104
хтуб	18105
амиля	18106
stear	18107
scout	18108
слоен	18109
муты	18110
теза	18111
894	18112
veg	18113
ррор	18114
умбур	18115
хамон	18116
лькен	18117
уньес	18118
insur	18119
very	18120
ссоли	18121
ауэрл	18122
пмж	18123
java	18124
enga	18125
mpa	18126
mpo	18127
ngc	18128
инцин	18129
мехой	18130
мехом	18131
аттин	18132
crazy	18133
pala	18134
stok	18135
илков	18136
anto	18137
anti	18138
октев	18139
calv	18140
driv	18141
бьяд	18142
treas	18143
оньи	18144
base	18145
dsm	18146
омыс	18147
игера	18148
шарие	18149
ускай	18150
хкф	18151
зелк	18152
ошаль	18153
ьорк	18154
опчат	18155
чицу	18156
oib	18157
pica	18158
чехру	18159
iron	18160
twe	18161
twin	18162
кринш	18163
кафов	18164
кенти	18165
уравл	18166
ртенс	18167
тюрин	18168
rocks	18169
мфиби	18170
tical	18171
бмд	18172
ешак	18173
аркая	18174
share	18175
halo	18176
iens	18177
еянг	18178
hills	18179
hilux	18180
урдюм	18181
сипян	18182
ттас	18183
оюдн	18184
dvd	18185
лунд	18186
иммел	18187
кипел	18188
езаря	18189
no71	18190
hatha	18191
seti	18192
trop	18193
зубец	18194
кчф	18195
тюард	18196
мтш	18197
уоми	18198
рапне	18199
dpd	18200
иствы	18201
фельд	18202
цкарт	18203
орбот	18204
иреса	18205
пахн	18206
libor	18207
fendi	18208
frie	18209
frien	18210
sino	18211
аугли	18212
фамин	18213
орлук	18214
ордео	18215
тишья	18216
адеда	18217
уджав	18218
гойда	18219
ernst	18220
raiff	18221
echo	18222
ileo	18223
vladi	18224
лочек	18225
хабад	18226
girl	18227
lita	18228
тулк	18229
хема	18230
хата	18231
хату	18232
тыню	18233
аншеи	18234
елчок	18235
буржц	18236
жигит	18237
snow	18238
lookp	18239
dfb	18240
euser	18241
nado	18242
цэпр	18243
дошв	18244
аргас	18245
етлюр	18246
иррен	18247
dmit	18248
first	18249
gfk	18250
mula	18251
vinci	18252
гтлк	18253
унинг	18254
итрея	18255
сожж	18256
рифом	18257
sudd	18258
жонк	18259
оуба	18260
калол	18261
мопом	18262
ашилк	18263
ырьев	18264
cvc	18265
klm	18266
krem	18267
nrk	18268
wheel	18269
цзя	18270
ененж	18271
льдив	18272
***	18273
irel	18274
muni	18275
tlt	18276
еяды	18277
жезин	18278
сэсов	18279
цетил	18280
алтус	18281
агнат	18282
юнгри	18283
4x4	18284
japan	18285
mundo	18286
зотер	18287
кыре	18288
сыха	18289
щелья	18290
їнськ	18291
аломн	18292
ммдм	18293
which	18294
гобуз	18295
гнешк	18296
гбаум	18297
зэдун	18298
мцпз	18299
сзао	18300
сцкк	18301
тзиас	18302
цхак	18303
":	18304
2d	18305
2g	18306
5c	18307
5x	18308
6p	18309
7x	18310
aad	18311
ase	18312
ava	18313
ause	18314
bug	18315
bsi	18316
cil	18317
cet	18318
cess	18319
cub	18320
cyp	18321
cme	18322
cls	18323
cctv	18324
dw	18325
dg	18326
dag	18327
dns	18328
dpi	18329
dura	18330
eer	18331
eat	18332
eace	18333
eia	18334
eks	18335
fes	18336
fus	18337
fol	18338
fet	18339
fun	18340
fra	18341
fess	18342
fum	18343
funk	18344
g4	18345
gap	18346
gch	18347
gti	18348
h2	18349
hult	18350
hate	18351
hbr	18352
iв	18353
i3	18354
iar	18355
iss	18356
ife	18357
ifa	18358
jb	18359
jti	18360
jump	18361
jbl	18362
kx	18363
ker	18364
kas	18365
kel	18366
kup	18367
kid	18368
kong	18369
kell	18370
lä	18371
lõ	18372
lun	18373
loom	18374
lue	18375
ladi	18376
mol	18377
mam	18378
mut	18379
mck	18380
mold	18381
mine	18382
n2	18383
nda	18384
nash	18385
ngo	18386
ndi	18387
nfr	18388
oe	18389
oro	18390
ous	18391
ose	18392
ome	18393
own	18394
pn	18395
pv	18396
px	18397
pon	18398
pes	18399
pel	18400
pine	18401
pto	18402
pfr	18403
punk	18404
qute	18405
rite	18406
rnc	18407
ride	18408
sz	18409
s5	18410
sar	18411
sce	18412
sic	18413
sid	18414
sli	18415
sore	18416
sara	18417
squa	18418
tn	18419
tle	18420
tam	18421
tul	18422
tud	18423
ters	18424
tuc	18425
tpg	18426
ule	18427
uss	18428
uet	18429
uaz	18430
uma	18431
vt	18432
v4	18433
vag	18434
vada	18435
vic	18436
w1	18437
wol	18438
wpp	18439
wanda	18440
x7	18441
xps	18442
yl	18443
yu	18444
zn	18445
zd	18446
zv	18447
zl	18448
zh	18449
zor	18450
zoo	18451
zna	18452
а2	18453
а4	18454
ауп	18455
аим	18456
аиз	18457
абыт	18458
бг	18459
бф	18460
бск	18461
бем	18462
бдел	18463
бьер	18464
в1	18465
вва	18466
вви	18467
вев	18468
вня	18469
вейс	18470
ванк	18471
вная	18472
вье	18473
вцк	18474
гш	18475
гю	18476
гпо	18477
гэт	18478
гэн	18479
гэб	18480
дла	18481
дда	18482
драф	18483
драл	18484
дмис	18485
еель	18486
жект	18487
жус	18488
жанк	18489
жби	18490
жкс	18491
жутер	18492
жечк	18493
жова	18494
жрк	18495
зель	18496
иель	18497
ином	18498
ищен	18499
йер	18500
йод	18501
йко	18502
йне	18503
йду	18504
йтон	18505
йшен	18506
йдач	18507
йбин	18508
йчук	18509
йван	18510
йбар	18511
кя	18512
кша	18513
кня	18514
кга	18515
клич	18516
кшин	18517
кмус	18518
лми	18519
лны	18520
лык	18521
лэн	18522
лхан	18523
лбек	18524
мран	18525
мре	18526
мита	18527
мбо	18528
ммин	18529
мхл	18530
мгер	18531
мтк	18532
мшик	18533
мбук	18534
мглу	18535
ні	18536
нщ	18537
ннер	18538
нзи	18539
нерт	18540
нвс	18541
нхап	18542
оуп	18543
орав	18544
оябр	18545
оом	18546
оуча	18547
ощин	18548
пэ	18549
пі	18550
пим	18551
пму	18552
пест	18553
пью	18554
пбк	18555
пгк	18556
рле	18557
рнов	18558
рник	18559
рящ	18560
рвин	18561
рнер	18562
рду	18563
ртон	18564
рэк	18565
сn	18566
суч	18567
сри	18568
сце	18569
снер	18570
сду	18571
свар	18572
тг	18573
ткой	18574
тха	18575
тца	18576
тхк	18577
уей	18578
утов	18579
узу	18580
уйс	18581
уум	18582
уокер	18583
фст	18584
фро	18585
фей	18586
фтр	18587
фрд	18588
фюр	18589
фимо	18590
хво	18591
хей	18592
хут	18593
хина	18594
хему	18595
хья	18596
хетт	18597
хii	18598
хлом	18599
хлам	18600
цт	18601
цбр	18602
цеж	18603
цнс	18604
чар	18605
чим	18606
чиз	18607
чжу	18608
чцз	18609
шна	18610
швы	18611
шиц	18612
шнер	18613
шмин	18614
шраф	18615
шман	18616
шхед	18617
щеч	18618
щущ	18619
щак	18620
ъяд	18621
ыщ	18622
ьмен	18623
эз	18624
эли	18625
эда	18626
эсп	18627
эша	18628
ээн	18629
юко	18630
юны	18631
юта	18632
юран	18633
юнин	18634
яст	18635
яка	18636
яон	18637
язов	18638
яус	18639
яоп	18640
янок	18641
ястье	18642
іч	18643
із	18644
##ип	18645
##иг	18646
##ео	18647
##aa	18648
##aн	18649
##зен	18650
##зян	18651
##тт	18652
##тин	18653
##аб	18654
##ах	18655
##mri	18656
##пц	18657
##пер	18658
##пур	18659
##ню	18660
##рр	18661
##рц	18662
##вм	18663
##вил	18664
##ои	18665
##оф	18666
##бен	18667
##бат	18668
##гс	18669
##ram	18670
##kka	18671
##шел	18672
##дп	18673
##дб	18674
##ден	18675
##жж	18676
##жик	18677
##ix	18678
##ice	18679
##ick	18680
##лем	18681
##лым	18682
##уя	18683
##уме	18684
##хв	18685
##хен	18686
##фри	18687
##юж	18688
##uck	18689
##car	18690
##yl	18691
##yer	18692
##цю	18693
##xe	18694
##ql	18695
пою	18696
постр	18697
пофе	18698
наби	18699
##ете	18700
##еть	18701
овца	18702
овзел	18703
##гой	18704
##гош	18705
ноц	18706
нонир	18707
ноза	18708
ночев	18709
нохин	18710
стю	18711
стир	18712
стерт	18713
стыр	18714
коч	18715
кож	18716
коли	18717
коте	18718
кошн	18719
нех	18720
нечк	18721
неточ	18722
зари	18723
зализ	18724
зачк	18725
##рап	18726
итте	18727
итие	18728
иттон	18729
итсон	18730
##ноч	18731
##нон	18732
обд	18733
обар	18734
обир	18735
обак	18736
омф	18737
омел	18738
омал	18739
омож	18740
омак	18741
омвич	18742
енан	18743
енчев	18744
енточ	18745
отус	18746
отмис	18747
##сяк	18748
##лар	18749
када	18750
касс	18751
каду	18752
камп	18753
ниор	18754
нись	18755
ниму	18756
ниона	18757
ниас	18758
тоэ	18759
тока	18760
толе	18761
топо	18762
оймат	18763
ойлок	18764
доя	18765
доев	18766
реча	18767
рехи	18768
рейн	18769
##роу	18770
илм	18771
илог	18772
илму	18773
илюл	18774
илюс	18775
иллом	18776
таг	18777
тагон	18778
анп	18779
анор	18780
анев	18781
ануа	18782
антье	18783
олз	18784
олно	18785
олло	18786
олян	18787
олду	18788
олун	18789
олза	18790
инго	18791
инек	18792
инча	18793
инде	18794
инатр	18795
инкс	18796
##сис	18797
солап	18798
вычк	18799
онан	18800
онур	18801
онне	18802
онесс	18803
онду	18804
онзи	18805
онхов	18806
волит	18807
лион	18808
лиха	18809
лихат	18810
ерч	18811
ерет	18812
ерми	18813
ерга	18814
ерчин	18815
ервин	18816
ерза	18817
ерцы	18818
ерхан	18819
орх	18820
орик	18821
орби	18822
оршен	18823
орца	18824
орфи	18825
оршан	18826
трек	18827
трут	18828
труб	18829
остат	18830
ейе	18831
ейя	18832
ейва	18833
ейнер	18834
ейза	18835
еймо	18836
ейпл	18837
ейчел	18838
ейгом	18839
мотор	18840
огот	18841
огорц	18842
##атт	18843
алст	18844
алла	18845
алка	18846
алма	18847
алле	18848
алят	18849
алящ	18850
албан	18851
росав	18852
иек	18853
иес	18854
иегу	18855
ихал	18856
ихом	18857
ихуа	18858
арли	18859
арем	18860
арек	18861
арле	18862
арим	18863
арус	18864
арду	18865
арзин	18866
армуш	18867
руи	18868
рущ	18869
русак	18870
етш	18871
етю	18872
етхов	18873
##арш	18874
мезк	18875
опм	18876
опар	18877
опик	18878
опнет	18879
ияв	18880
##лят	18881
перан	18882
перин	18883
роен	18884
рощен	18885
рози	18886
рочк	18887
одик	18888
одзин	18889
аницк	18890
осал	18891
осле	18892
оснин	18893
осфат	18894
##отт	18895
##оби	18896
##оба	18897
имар	18898
имул	18899
имом	18900
лаган	18901
ласн	18902
лаце	18903
лачин	18904
ламан	18905
лажк	18906
ламаз	18907
##рук	18908
##дад	18909
##урт	18910
аячк	18911
деин	18912
деал	18913
деян	18914
сани	18915
саад	18916
ахен	18917
ахон	18918
ахло	18919
ахма	18920
ахбар	18921
льст	18922
льто	18923
льет	18924
амат	18925
аманд	18926
амби	18927
амун	18928
амза	18929
амхо	18930
емат	18931
истк	18932
атыр	18933
атэс	18934
атту	18935
слг	18936
слей	18937
евс	18938
евек	18939
евмат	18940
евьян	18941
##олк	18942
нойи	18943
нойя	18944
комс	18945
комол	18946
тион	18947
авон	18948
авпи	18949
авец	18950
авмин	18951
ивк	18952
ивень	18953
озп	18954
озан	18955
миен	18956
миду	18957
мигу	18958
вих	18959
вику	18960
вилиз	18961
спк	18962
спп	18963
спин	18964
спраш	18965
амис	18966
иры	18967
ирил	18968
ирени	18969
ирза	18970
иряк	18971
иршер	18972
есхи	18973
есшов	18974
телс	18975
телы	18976
телло	18977
сео	18978
сеив	18979
сечк	18980
дагар	18981
окф	18982
окск	18983
окко	18984
терти	18985
верз	18986
твц	18987
ляпа	18988
ляпк	18989
огит	18990
огепт	18991
мато	18992
маду	18993
мадо	18994
мадин	18995
адь	18996
адер	18997
адил	18998
адик	18999
едит	19000
едян	19001
стад	19002
стах	19003
стайн	19004
стайк	19005
боу	19006
ымен	19007
ымар	19008
ымчук	19009
ымбал	19010
чащ	19011
веди	19012
утча	19013
утям	19014
иква	19015
икуд	19016
икман	19017
икхов	19018
мык	19019
скм	19020
скен	19021
скфу	19022
урф	19023
урко	19024
урбы	19025
уретк	19026
урпе	19027
урицк	19028
урпур	19029
уржик	19030
акил	19031
акшин	19032
акке	19033
ранча	19034
удл	19035
удх	19036
удис	19037
куи	19038
кушен	19039
кушк	19040
кулин	19041
кушин	19042
кутир	19043
екв	19044
екет	19045
екин	19046
екут	19047
еккен	19048
паи	19049
паз	19050
паги	19051
пагу	19052
пахи	19053
ваза	19054
крати	19055
алию	19056
менто	19057
менад	19058
айа	19059
айп	19060
айво	19061
айек	19062
айга	19063
айнер	19064
айза	19065
айзон	19066
айвет	19067
айфер	19068
возер	19069
номал	19070
мерин	19071
очан	19072
очал	19073
очде	19074
очник	19075
гоз	19076
гоф	19077
видо	19078
канат	19079
люж	19080
люхи	19081
убос	19082
убне	19083
убник	19084
ельв	19085
ельо	19086
ельче	19087
реши	19088
естк	19089
ловок	19090
овап	19091
оску	19092
оскан	19093
тельт	19094
смонд	19095
игг	19096
иглиц	19097
игнин	19098
пари	19099
парга	19100
исов	19101
исок	19102
исмат	19103
исбен	19104
трог	19105
троум	19106
дули	19107
дуза	19108
дулин	19109
ивак	19110
томн	19111
томит	19112
ковер	19113
ковис	19114
учер	19115
учет	19116
учей	19117
учме	19118
уччи	19119
учмы	19120
елле	19121
еллен	19122
елнок	19123
еллаж	19124
черин	19125
вред	19126
оропи	19127
усы	19128
усли	19129
пуган	19130
##янк	19131
турба	19132
упер	19133
упон	19134
упиц	19135
уплет	19136
напор	19137
янц	19138
дип	19139
диан	19140
диск	19141
дижан	19142
укси	19143
укса	19144
укман	19145
корб	19146
корма	19147
гау	19148
гая	19149
галь	19150
гаузе	19151
апло	19152
апут	19153
апник	19154
апье	19155
апшу	19156
ицше	19157
агет	19158
агна	19159
агсе	19160
асси	19161
асма	19162
асмин	19163
асын	19164
борг	19165
ожок	19166
ожак	19167
азь	19168
азер	19169
анкун	19170
биа	19171
бищ	19172
бибу	19173
локон	19174
лопа	19175
иаш	19176
иагу	19177
устин	19178
рфан	19179
рфин	19180
рфей	19181
окост	19182
дорж	19183
дорин	19184
техе	19185
##куш	19186
свт	19187
свир	19188
свеч	19189
плк	19190
тант	19191
андор	19192
андра	19193
андри	19194
сие	19195
сиад	19196
ошич	19197
муг	19198
музи	19199
нтал	19200
нтей	19201
нтес	19202
рыд	19203
рышк	19204
фаст	19205
мары	19206
марша	19207
клун	19208
оху	19209
охсе	19210
абе	19211
абел	19212
абат	19213
абул	19214
абуг	19215
аббар	19216
ець	19217
еццо	19218
идр	19219
идя	19220
идда	19221
идур	19222
трауб	19223
##габ	19224
##гай	19225
молв	19226
буз	19227
буха	19228
бушев	19229
ктз	19230
ктб	19231
ктро	19232
ассер	19233
ассан	19234
оссии	19235
хокс	19236
езли	19237
кесян	19238
грц	19239
груд	19240
гринг	19241
ыват	19242
rul	19243
фип	19244
фиу	19245
райва	19246
ормон	19247
ужир	19248
ипер	19249
ипни	19250
ипин	19251
иппо	19252
ипун	19253
ьюр	19254
ьюгин	19255
ичко	19256
ичур	19257
ашут	19258
ехр	19259
ехом	19260
ехлы	19261
нум	19262
нузл	19263
отови	19264
баши	19265
ольм	19266
ольет	19267
гиа	19268
гия	19269
еноз	19270
енон	19271
ывк	19272
ндт	19273
ндор	19274
ндун	19275
ндлер	19276
ндвич	19277
егну	19278
елоча	19279
уней	19280
унев	19281
унтир	19282
латтр	19283
крот	19284
кроп	19285
крон	19286
кропа	19287
кройк	19288
хоту	19289
плаг	19290
мора	19291
ажок	19292
ажке	19293
брел	19294
умг	19295
умбри	19296
хак	19297
хас	19298
хауэр	19299
хагош	19300
точек	19301
сенс	19302
анай	19303
анах	19304
анахи	19305
нтис	19306
ринк	19307
ринь	19308
lege	19309
песив	19310
улу	19311
улуп	19312
улук	19313
тенг	19314
режк	19315
екас	19316
триж	19317
икас	19318
икав	19319
икаил	19320
машхо	19321
ебц	19322
ебан	19323
ебал	19324
ебек	19325
ебол	19326
ебса	19327
ышь	19328
ышня	19329
ифк	19330
ифс	19331
ифле	19332
яхин	19333
ингх	19334
валоч	19335
тепло	19336
дмарш	19337
ткев	19338
ртун	19339
тамож	19340
епт	19341
епил	19342
епка	19343
епгу	19344
еппе	19345
рамт	19346
глов	19347
арам	19348
мано	19349
сью	19350
ськив	19351
ссг	19352
собст	19353
герт	19354
ческа	19355
ддт	19356
митри	19357
ффк	19358
уза	19359
узел	19360
узин	19361
узил	19362
угла	19363
углов	19364
угадн	19365
скорт	19366
оорд	19367
ркул	19368
донк	19369
нейд	19370
нейтр	19371
обыш	19372
елио	19373
елил	19374
елия	19375
тонч	19376
туст	19377
тула	19378
туги	19379
тузи	19380
тулат	19381
тулин	19382
тушек	19383
тулок	19384
стира	19385
ежо	19386
init	19387
inci	19388
ерещ	19389
замат	19390
артан	19391
артук	19392
ушью	19393
уштун	19394
енаха	19395
онден	19396
##are	19397
нгул	19398
нгус	19399
итоло	19400
питие	19401
ардар	19402
##ese	19403
этм	19404
этэ	19405
этти	19406
этри	19407
эттон	19408
этлин	19409
дрк	19410
дред	19411
древ	19412
вори	19413
ерьм	19414
уапс	19415
уайр	19416
фрп	19417
фрэнс	19418
вещан	19419
утьер	19420
гуми	19421
уточк	19422
астон	19423
айшул	19424
шеин	19425
амада	19426
cout	19427
coun	19428
colo	19429
чищен	19430
йнд	19431
йнек	19432
иоз	19433
иоска	19434
штадт	19435
аноч	19436
аночк	19437
весом	19438
топк	19439
фокус	19440
армы	19441
армош	19442
ритв	19443
юрбу	19444
родич	19445
##ook	19446
чуань	19447
понк	19448
ишт	19449
ишит	19450
ишат	19451
ишоп	19452
шахт	19453
шараш	19454
шабаш	19455
мелен	19456
мелян	19457
ухно	19458
ухад	19459
иллем	19460
erm	19461
err	19462
аллы	19463
аллу	19464
##зай	19465
рбарс	19466
ндрит	19467
rea	19468
ref	19469
ream	19470
веном	19471
ибит	19472
ибир	19473
зоры	19474
авлет	19475
ыпкал	19476
зарме	19477
ансон	19478
афф	19479
афер	19480
афке	19481
якса	19482
инсле	19483
ордюж	19484
ауф	19485
ауфор	19486
аузе	19487
ощек	19488
ощущ	19489
акат	19490
акаф	19491
пишин	19492
ланга	19493
ендт	19494
квит	19495
оаз	19496
ешоч	19497
ешью	19498
ешнс	19499
ачо	19500
ачту	19501
ачты	19502
nev	19503
neue	19504
гарк	19505
тмил	19506
аршем	19507
ежев	19508
еабр	19509
окас	19510
вчук	19511
ксхп	19512
their	19513
ргб	19514
ргд	19515
ангр	19516
ангер	19517
ангур	19518
рагун	19519
радов	19520
ona	19521
ong	19522
ьерн	19523
урсов	19524
омба	19525
ернд	19526
ернха	19527
рдель	19528
рдев	19529
еваш	19530
базар	19531
ундб	19532
дован	19533
ында	19534
ындин	19535
401	19536
ньхуа	19537
рисе	19538
кера	19539
глухо	19540
дерми	19541
дерон	19542
ресси	19543
улим	19544
##хай	19545
##olo	19546
лабу	19547
фило	19548
env	19549
267	19550
268	19551
палуб	19552
чнев	19553
ермуд	19554
фраз	19555
птур	19556
ance	19557
imm	19558
imag	19559
##itz	19560
##ity	19561
зерум	19562
зрпк	19563
енсан	19564
инкен	19565
инкяв	19566
увеч	19567
еях	19568
еяны	19569
ояр	19570
ламыв	19571
дилов	19572
цкан	19573
тюши	19574
тюшин	19575
тюшу	19576
агас	19577
льянц	19578
нсом	19579
клюж	19580
ещут	19581
ещук	19582
бано	19583
олдб	19584
олды	19585
агиз	19586
агиф	19587
лтан	19588
лтык	19589
речк	19590
лден	19591
лдер	19592
лдыш	19593
мбд	19594
мбур	19595
rog	19596
roman	19597
rough	19598
мпб	19599
мпил	19600
мпуш	19601
индс	19602
айды	19603
айдон	19604
сши	19605
apt	19606
ураг	19607
урам	19608
урацк	19609
tov	19610
tep	19611
кнэ	19612
еркес	19613
фсфр	19614
311	19615
ванше	19616
[...]
