[UNK]	0
[CLS]	1
[SEP]	2
[PAD]	3
[MASK]	4
!	5
"	6
#	7
$	8
%	9
&	10
'	11
(	12
)	13
*	14
+	15
,	16
-	17
.	18
/	19
0	20
1	21
2	22
3	23
4	24
5	25
6	26
7	27
8	28
9	29
:	30
;	31
<	32
=	33
>	34
?	35
@	36
[	37
\	38
]	39
_	40
`	41
a	42
b	43
c	44
d	45
e	46
f	47
g	48
h	49
i	50
j	51
k	52
l	53
m	54
n	55
o	56
p	57
q	58
r	59
s	60
t	61
u	62
v	63
w	64
x	65
y	66
z	67
~	68
	69
£	70
¤	71
¥	72
¦	73
§	74
©	75
¬	76
­	77
°	78
·	79
×	80
ß	81
à	82
á	83
ä	84
ç	85
è	86
é	87
ê	88
ë	89
í	90
ð	91
ó	92
ô	93
õ	94
ö	95
ø	96
ü	97
þ	98
ā	99
ę	100
ī	101
ı	102
ł	103
ń	104
ŏ	105
ś	106
ş	107
š	108
ʀ	109
ʼ	110
́	111
̆	112
̇	113
̈	114
̊	115
έ	116
α	117
β	118
γ	119
η	120
λ	121
μ	122
ν	123
ο	124
ρ	125
σ	126
τ	127
χ	128
ώ	129
а	130
б	131
в	132
г	133
д	134
е	135
ж	136
з	137
и	138
й	139
к	140
л	141
м	142
н	143
о	144
п	145
р	146
с	147
т	148
у	149
ф	150
х	151
ц	152
ч	153
ш	154
щ	155
ъ	156
ы	157
ь	158
э	159
ю	160
я	161
є	162
і	163
ї	164
ў	165
џ	166
ғ	167
қ	168
ҳ	169
ӣ	170
‍	171
‎	172
‐	173
‒	174
―	175
•	176
‪	177
‬	178
′	179
⁄	180
€	181
→	182
−	183
∙	184
⋅	185
─	186
■	187
▲	188
►	189
●	190
☃	191
☝	192
♫	193
⚽	194
❄	195
《	196
》	197
	198
️	199
🌞	200
🍺	201
🎂	202
🐅	203
🐗	204
🐺	205
💪	206
😂	207
🙈	208
##а	209
##т	210
##о	211
##в	212
##и	213
##з	214
##у	215
##б	216
##л	217
##щ	218
##е	219
##с	220
##ь	221
##н	222
##ы	223
##р	224
##м	225
##я	226
##г	227
##к	228
##д	229
##ю	230
##ж	231
##y	232
##e	233
##8	234
##ч	235
##ц	236
##й	237
##п	238
##ш	239
##ъ	240
##х	241
##ф	242
##4	243
##2	244
##1	245
##o	246
##s	247
##t	248
##э	249
##b	250
##r	251
##i	252
##u	253
##f	254
##w	255
##g	256
##m	257
##n	258
##h	259
##c	260
##l	261
##a	262
##d	263
##9	264
##k	265
##5	266
##0	267
##p	268
##x	269
##7	270
##,	271
##z	272
##⚽	273
###	274
##v	275
##6	276
##3	277
##-	278
##_	279
##ғ	280
##[	281
##q	282
##j	283
##і	284
##!	285
##ї	286
##"	287
##:	288
##ä	289
##.	290
##>	291
##*	292
##õ	293
##😂	294
##)	295
##+	296
##ń	297
##ê	298
##$	299
##/	300
##?	301
##ę	302
##ü	303
##'	304
##­	305
##é	306
##ν	307
##τ	308
##ο	309
##μ	310
##à	311
##є	312
##ö	313
##ß	314
##ş	315
##ʼ	316
##қ	317
##í	318
##%	319
##ë	320
##;	321
##]	322
##ð	323
##ø	324
##☃	325
##❄	326
##ó	327
##=	328
##′	329
##ў	330
##−	331
##~	332
##́	333
##ī	334
##ā	335
##‎	336
##€	337
##þ	338
##ρ	339
##ώ	340
##α	341
##▲	342
##š	343
##ŏ	344
##ç	345
##γ	346
##έ	347
##η	348
##σ	349
##ʀ	350
##̇	351
##@	352
##è	353
##ś	354
##‬	355
##ҳ	356
##ô	357
##🐺	358
##🐅	359
##🎂	360
##🍺	361
##ı	362
##ст	363
##ен	364
##ов	365
##ра	366
##но	367
по	368
##то	369
##ро	370
##ре	371
##ан	372
на	373
##ет	374
##ли	375
##ль	376
##ри	377
##ко	378
##го	379
##ер	380
##ны	381
##ит	382
##ла	383
##ни	384
##ат	385
##ени	386
##ки	387
##ле	388
##ка	389
ко	390
не	391
##од	392
##на	393
за	394
##ло	395
##ся	396
##ци	397
##ств	398
##ти	399
со	400
про	401
##ем	402
##сс	403
ра	404
##та	405
##да	406
об	407
##ру	408
##ми	409
до	410
##ани	411
##ва	412
от	413
##ля	414
##ей	415
что	416
##ров	417
при	418
пре	419
##ско	420
во	421
##ор	422
##ин	423
##ак	424
##ель	425
##сти	426
##мо	427
##во	428
ре	429
##че	430
ро	431
то	432
##де	433
вы	434
из	435
##ви	436
##ать	437
мо	438
##ения	439
##не	440
##ры	441
##ски	442
##ча	443
это	444
##ной	445
##ных	446
##сси	447
##ста	448
##сп	449
бы	450
##ед	451
##бо	452
ст	453
##сь	454
##за	455
##ку	456
##ере	457
##ного	458
##ар	459
го	460
##ди	461
##лу	462
##же	463
##ду	464
##ги	465
##ма	466
##ть	467
##ков	468
##ме	469
под	470
росси	471
##мен	472
##об	473
##сто	474
##ют	475
##ение	476
год	477
но	478
##ил	479
##ции	480
##се	481
##ве	482
##ить	483
##лов	484
бо	485
де	486
##он	487
##ные	488
кото	489
##сть	490
##му	491
пред	492
ка	493
##ный	494
ми	495
##ши	496
##по	497
##щи	498
20	499
##зи	500
раз	501
##ово	502
##ну	503
ин	504
ме	505
##ще	506
##ек	507
##па	508
##чи	509
##ент	510
##ам	511
##ется	512
",	513
##ал	514
##ня	515
##итель	516
ком	517
##рав	518
##уд	519
##ход	520
##те	521
##уб	522
ни	523
ли	524
как	525
##ран	526
##ше	527
те	528
##ным	529
пере	530
##си	531
##ской	532
так	533
##ут	534
для	535
все	536
кон	537
##га	538
##ря	539
##ск	540
##пи	541
##ания	542
##жи	543
##до	544
##лен	545
од	546
##став	547
##вы	548
##ур	549
##ства	550
пос	551
201	552
##ят	553
сво	554
се	555
##ство	556
##ствен	557
ма	558
са	559
##из	560
которы	561
##са	562
##жно	563
та	564
##ского	565
##бы	566
##жд	567
##ке	568
он	569
си	570
ста	571
бе	572
##би	573
##аль	574
##ту	575
года	576
воз	577
сп	578
##вер	579
##су	580
##ев	581
##тов	582
##ном	583
##ите	584
сооб	585
".	586
##ате	587
##лю	588
##ты	589
оп	590
##кра	591
его	592
россии	593
##лей	594
сто	595
##гра	596
##али	597
##зы	598
##лед	599
##ности	600
##нов	601
##ении	602
##чен	603
##ых	604
##каза	605
##ша	606
##ских	607
##лек	608
##ная	609
рабо	610
пер	611
##про	612
##ска	613
##сту	614
##ща	615
##тив	616
##ное	617
ве	618
стра	619
да	620
че	621
##она	622
##ция	623
дол	624
гла	625
##ред	626
##жа	627
##мы	628
су	629
##фи	630
ав	631
##лько	632
##ание	633
ос	634
##дер	635
##кой	636
##рем	637
па	638
##ета	639
##стан	640
##ник	641
сов	642
россий	643
комп	644
хо	645
##ита	646
##зов	647
##ую	648
##ании	649
буд	650
##ом	651
ви	652
пра	653
##мер	654
##ба	655
ру	656
##атель	657
##ский	658
зая	659
мы	660
также	661
##зу	662
ча	663
вла	664
же	665
##сов	666
пров	667
поли	668
этом	669
полу	670
руб	671
ди	672
##ления	673
слу	674
боль	675
##це	676
##ые	677
##вил	678
##жен	679
##бе	680
##гда	681
##рии	682
##род	683
ор	684
##стви	685
##мет	686
##жет	687
будет	688
##спо	689
##ность	690
расс	691
ак	692
##ый	693
лет	694
лю	695
##лн	696
##вод	697
##лись	698
##ром	699
году	700
##нист	701
##зид	702
##лось	703
##ком	704
дру	705
##рит	706
бу	707
##гла	708
##ис	709
##ную	710
##тор	711
врем	712
презид	713
пу	714
##ень	715
##вет	716
##дар	717
ев	718
га	719
##том	720
##гу	721
##ера	722
##сли	723
ан	724
ва	725
##руп	726
пар	727
##ним	728
после	729
##прав	730
уже	731
укра	732
##со	733
##ению	734
##пу	735
##зд	736
##тер	737
эк	738
му	739
ку	740
##ющи	741
объ	742
орг	743
##вать	744
##фор	745
##лся	746
уча	747
##цию	748
##ана	749
нов	750
##лее	751
##каз	752
##ца	753
##ений	754
##рой	755
было	756
был	757
##ские	758
их	759
ле	760
челов	761
##коно	762
##вя	763
##гов	764
ты	765
##при	766
дан	767
фи	768
ново	769
обра	770
##ане	771
ар	772
##лож	773
прав	774
без	775
##ати	776
ки	777
время	778
том	779
гра	780
произ	781
сер	782
тре	783
##ву	784
которые	785
##стоя	786
##лась	787
еще	788
##ника	789
меж	790
они	791
или	792
сч	793
чем	794
слов	795
представ	796
реш	797
##анд	798
тер	799
##ются	800
##руд	801
само	802
##кан	803
##вши	804
##ступ	805
##чно	806
обла	807
только	808
нача	809
если	810
##год	811
авто	812
##яб	813
##ится	814
##вля	815
##сы	816
##стре	817
##ников	818
##пре	819
ба	820
##лет	821
##циаль	822
##ата	823
евро	824
##ой	825
более	826
зна	827
##бу	828
##ление	829
между	830
вер	831
##зыва	832
сша	833
##зна	834
пов	835
ско	836
чтобы	837
может	838
##цион	839
##кры	840
##ента	841
##мот	842
кра	843
того	844
пе	845
19	846
моск	847
##станов	848
бан	849
##ском	850
тем	851
госу	852
минист	853
ее	854
исто	855
##ге	856
государ	857
##льт	858
##ней	859
##рий	860
##иту	861
##казал	862
##ская	863
органи	864
буду	865
были	866
##шен	867
мар	868
##держ	869
##кт	870
##тиче	871
##рен	872
сообща	873
10	874
дей	875
##ова	876
сообщ	877
вед	878
##дет	879
мин	880
##сте	881
##убли	882
ом	883
ту	884
гово	885
который	886
##хо	887
2016	888
##пас	889
эти	890
##ких	891
пол	892
цент	893
сам	894
##ники	895
реги	896
вз	897
свя	898
##ым	899
есть	900
##цы	901
испо	902
суд	903
рф	904
##ству	905
им	906
одна	907
она	908
тех	909
отно	910
##сед	911
пи	912
пл	913
мен	914
алек	915
##вед	916
вопро	917
##ональ	918
##кон	919
##лом	920
тра	921
##стра	922
ры	923
##кономи	924
##стов	925
фе	926
россия	927
свои	928
помо	929
возмо	930
##ена	931
ну	932
согла	933
##ити	934
когда	935
##дера	936
##стве	937
президент	938
##ходи	939
сот	940
спе	941
основ	942
отмет	943
ри	944
##бор	945
сред	946
заявил	947
##ледов	948
эксп	949
##ха	950
##аться	951
##форма	952
ус	953
##пер	954
##рд	955
человек	956
##орт	957
экономи	958
мог	959
ов	960
жи	961
##яти	962
##ман	963
).	964
дет	965
ране	966
ранее	967
сей	968
##пы	969
##кие	970
##ены	971
##шения	972
##ций	973
##стро	974
##вест	975
груп	976
##вал	977
##клю	978
соб	979
этого	980
##рован	981
##ью	982
ад	983
##ему	984
##ября	985
##яс	986
##годня	987
резу	988
сегодня	989
организа	990
##мери	991
##ды	992
информа	993
алекс	994
лу	995
##тин	996
прош	997
##час	998
##ску	999
чет	1000
други	1001
чис	1002
##тро	1003
сторо	1004
вс	1005
сейчас	1006
проек	1007
##en	1008
результ	1009
глав	1010
##мент	1011
##мента	1012
послед	1013
словам	1014
горо	1015
кар	1016
газ	1017
##дает	1018
влади	1019
##ний	1020
##сла	1021
##гово	1022
##спе	1023
сотруд	1024
##ением	1025
дела	1026
области	1027
##цев	1028
2015	1029
обо	1030
##лич	1031
##пе	1032
получ	1033
##er	1034
правитель	1035
##чень	1036
интер	1037
##рия	1038
воен	1039
##оне	1040
##ствия	1041
стро	1042
ru	1043
ся	1044
млн	1045
##логи	1046
##сков	1047
день	1048
##вает	1049
служ	1050
##льно	1051
##00	1052
однако	1053
будут	1054
была	1055
амери	1056
федера	1057
##тра	1058
можно	1059
##ье	1060
украин	1061
##тора	1062
рас	1063
пока	1064
обще	1065
##ителя	1066
##льзов	1067
счита	1068
##аний	1069
приня	1070
##вести	1071
##ским	1072
сде	1073
очень	1074
##ние	1075
##ителей	1076
возможно	1077
аг	1078
поч	1079
##ковод	1080
гражд	1081
##шего	1082
##дол	1083
##кий	1084
род	1085
),	1086
##от	1087
стан	1088
первы	1089
украи	1090
тур	1091
владими	1092
мед	1093
руковод	1094
##цу	1095
ла	1096
##ках	1097
##вой	1098
явля	1099
неско	1100
##оде	1101
где	1102
##ять	1103
деп	1104
случа	1105
быть	1106
##тому	1107
работа	1108
##сно	1109
##кла	1110
иг	1111
##дов	1112
##кого	1113
компании	1114
рублей	1115
##аты	1116
проб	1117
сист	1118
фин	1119
один	1120
15	1121
рай	1122
ду	1123
##ших	1124
##ными	1125
##лы	1126
встре	1127
пла	1128
ген	1129
которо	1130
страны	1131
##рек	1132
мил	1133
##бира	1134
сем	1135
##иться	1136
против	1137
мл	1138
##аны	1139
##итуа	1140
кор	1141
управ	1142
##вин	1143
нет	1144
вод	1145
##лем	1146
обе	1147
ситуа	1148
млрд	1149
больш	1150
##ровать	1151
два	1152
##нее	1153
уч	1154
участ	1155
производ	1156
кро	1157
говорит	1158
##нали	1159
офи	1160
##ремен	1161
всего	1162
##нес	1163
##нер	1164
##лага	1165
це	1166
##ta	1167
даже	1168
##народ	1169
сообщает	1170
##рь	1171
глава	1172
долж	1173
право	1174
нас	1175
них	1176
##ким	1177
тран	1178
##чь	1179
вто	1180
жиз	1181
##ене	1182
пет	1183
тыся	1184
этот	1185
дву	1186
ло	1187
поз	1188
##твер	1189
##ители	1190
напо	1191
оста	1192
необ	1193
##щен	1194
американ	1195
##рабо	1196
состав	1197
##чение	1198
##ствов	1199
##ительно	1200
##стран	1201
милли	1202
##атери	1203
сан	1204
##им	1205
##коло	1206
##ятель	1207
уда	1208
парти	1209
##грам	1210
##бов	1211
откры	1212
##смот	1213
##нии	1214
кри	1215
пресс	1216
##шей	1217
име	1218
##рито	1219
##ете	1220
международ	1221
много	1222
неф	1223
фор	1224
гос	1225
##рова	1226
##чер	1227
отме	1228
террито	1229
##чения	1230
финан	1231
александ	1232
три	1233
оче	1234
##ях	1235
##цен	1236
##вар	1237
ответ	1238
доро	1239
##вали	1240
фо	1241
##тере	1242
больше	1243
систем	1244
продол	1245
наход	1246
извест	1247
бли	1248
сре	1249
##жения	1250
##ться	1251
разв	1252
##нима	1253
тор	1254
тыс	1255
##кая	1256
сле	1257
президента	1258
##дель	1259
необходи	1260
##пла	1261
##рак	1262
##тре	1263
около	1264
опера	1265
готов	1266
фак	1267
сказал	1268
##ческой	1269
##ья	1270
##щей	1271
##фе	1272
##рая	1273
##моби	1274
чере	1275
полити	1276
200	1277
поб	1278
данным	1279
ию	1280
могут	1281
мат	1282
##тя	1283
наз	1284
след	1285
##бя	1286
##сса	1287
12	1288
смо	1289
пло	1290
##йте	1291
доку	1292
вой	1293
несколько	1294
созд	1295
##вила	1296
##шь	1297
отмеча	1298
люд	1299
отнош	1300
##яв	1301
бю	1302
кры	1303
уров	1304
##лови	1305
автомоби	1306
рын	1307
ше	1308
##него	1309
##сты	1310
##льного	1311
##рует	1312
##прияти	1313
##ское	1314
ша	1315
пор	1316
госп	1317
кли	1318
##рук	1319
програм	1320
граждан	1321
украины	1322
##мест	1323
вопрос	1324
кан	1325
##on	1326
##опас	1327
респ	1328
##вили	1329
##хов	1330
кто	1331
которая	1332
##нил	1333
##жение	1334
##ниче	1335
жен	1336
экспер	1337
решение	1338
заяв	1339
перед	1340
##шел	1341
##жда	1342
##пис	1343
##анию	1344
челове	1345
##раз	1346
эта	1347
сообщил	1348
ито	1349
меся	1350
депут	1351
ря	1352
##говор	1353
агент	1354
участи	1355
прода	1356
сни	1357
проц	1358
высо	1359
кроме	1360
через	1361
##ети	1362
состоя	1363
##иты	1364
ок	1365
##лия	1366
мест	1367
всех	1368
источ	1369
наци	1370
развити	1371
ши	1372
сдела	1373
##щего	1374
спо	1375
##емо	1376
безопас	1377
##онов	1378
фран	1379
поддерж	1380
##вно	1381
##ерб	1382
##оз	1383
мол	1384
имен	1385
отметил	1386
сообщи	1387
власти	1388
мн	1389
кол	1390
##вают	1391
би	1392
город	1393
##мит	1394
##вший	1395
круп	1396
##полн	1397
##хи	1398
##..	1399
##торы	1400
##ьер	1401
над	1402
##хран	1403
сек	1404
соот	1405
##стей	1406
##щих	1407
##лаго	1408
уго	1409
##цией	1410
##рори	1411
направ	1412
30	1413
ци	1414
место	1415
перво	1416
чемпи	1417
вме	1418
мно	1419
ян	1420
республи	1421
является	1422
официаль	1423
установ	1424
##рон	1425
которых	1426
свое	1427
##ряд	1428
луч	1429
напом	1430
нару	1431
##ено	1432
дви	1433
##шение	1434
ави	1435
государствен	1436
ны	1437
##нут	1438
##реде	1439
виде	1440
дирек	1441
соответ	1442
##минист	1443
##инов	1444
##ющих	1445
города	1446
провед	1447
приз	1448
расп	1449
##нич	1450
побед	1451
##яз	1452
##ляет	1453
совер	1454
этой	1455
матери	1456
##нем	1457
##ям	1458
##льной	1459
11	1460
##чу	1461
##министра	1462
##льный	1463
##соб	1464
прем	1465
работ	1466
##казыва	1467
спи	1468
##ческих	1469
интере	1470
##ентов	1471
зани	1472
законо	1473
владимир	1474
себя	1475
центра	1476
##ровал	1477
кур	1478
иск	1479
двух	1480
##ился	1481
следу	1482
террори	1483
меня	1484
ха	1485
##рос	1486
сы	1487
##ждения	1488
запре	1489
жур	1490
##ствую	1491
совет	1492
произо	1493
свою	1494
бор	1495
теле	1496
там	1497
соста	1498
##пол	1499
мет	1500
пробле	1501
биз	1502
##ческого	1503
сирии	1504
##работ	1505
##ния	1506
##дин	1507
##туры	1508
мак	1509
бюд	1510
##мп	1511
ти	1512
числе	1513
тысяч	1514
##лого	1515
режи	1516
18	1517
##анов	1518
##енно	1519
бое	1520
##пад	1521
##скую	1522
##лении	1523
...	1524
##точ	1525
##бра	1526
##зя	1527
##атов	1528
##неш	1529
позво	1530
дж	1531
уве	1532
поэ	1533
##тен	1534
ен	1535
##них	1536
благо	1537
##ателя	1538
##зе	1539
дело	1540
авиа	1541
##бой	1542
передает	1543
ль	1544
муж	1545
член	1546
стал	1547
##рей	1548
кита	1549
сил	1550
строитель	1551
##льных	1552
каче	1553
дмит	1554
стать	1555
использов	1556
фон	1557
шко	1558
ал	1559
нико	1560
сент	1561
комит	1562
##треб	1563
##гиб	1564
националь	1565
задерж	1566
##ному	1567
##an	1568
##атри	1569
дома	1570
2014	1571
чу	1572
##щения	1573
##лья	1574
ран	1575
##щее	1576
##вая	1577
получи	1578
господ	1579
##чин	1580
голо	1581
услови	1582
##чина	1583
##ством	1584
част	1585
дека	1586
квар	1587
##in	1588
##бод	1589
погиб	1590
доба	1591
выбо	1592
прове	1593
гор	1594
администра	1595
просто	1596
плани	1597
##един	1598
сро	1599
мер	1600
компания	1601
25	1602
##лит	1603
##орта	1604
министр	1605
##ятся	1606
##ходит	1607
ный	1608
ему	1609
москве	1610
очеред	1611
обвин	1612
апре	1613
прод	1614
москов	1615
##шие	1616
собствен	1617
сбор	1618
##рил	1619
бра	1620
элек	1621
именно	1622
сми	1623
новости	1624
уголов	1625
многи	1626
декаб	1627
зем	1628
##слу	1629
##мости	1630
##фер	1631
##рах	1632
работы	1633
##кну	1634
##ствие	1635
##гей	1636
ные	1637
##шли	1638
актив	1639
своей	1640
заклю	1641
##куп	1642
цен	1643
##enta	1644
окт	1645
##готов	1646
безопасности	1647
##лим	1648
##евра	1649
##ностью	1650
оказа	1651
##вые	1652
даль	1653
связ	1654
среди	1655
нор	1656
16	1657
##чет	1658
предлож	1659
##чем	1660
ги	1661
результате	1662
стран	1663
##овой	1664
##кам	1665
февра	1666
зат	1667
друго	1668
##зда	1669
проду	1670
долла	1671
суще	1672
##щий	1673
##шин	1674
должны	1675
ге	1676
lenta	1677
ск	1678
обяз	1679
опреде	1680
##ющий	1681
##рово	1682
стороны	1683
конку	1684
янва	1685
должно	1686
провод	1687
предпо	1688
поэтому	1689
еди	1690
рез	1691
чер	1692
уг	1693
##или	1694
##кое	1695
хоро	1696
##мость	1697
контро	1698
призна	1699
которой	1700
исп	1701
часть	1702
##нк	1703
сергей	1704
##йти	1705
##сит	1706
##тон	1707
13	1708
защ	1709
проис	1710
настоя	1711
образ	1712
##ссии	1713
связи	1714
##дом	1715
политиче	1716
##кин	1717
мира	1718
людей	1719
##фф	1720
измен	1721
спорт	1722
вели	1723
тасс	1724
ино	1725
##лимпи	1726
меди	1727
русс	1728
14	1729
нам	1730
17	1731
нау	1732
коман	1733
помощ	1734
зд	1735
ной	1736
нужно	1737
##ступа	1738
##or	1739
наде	1740
других	1741
##вра	1742
##рить	1743
деятель	1744
##ший	1745
российской	1746
четы	1747
него	1748
##ателей	1749
##роб	1750
##ске	1751
путин	1752
неко	1753
фото	1754
напомним	1755
тогда	1756
трансп	1757
##зации	1758
кла	1759
##нь	1760
неза	1761
александр	1762
коне	1763
преступ	1764
филь	1765
##личе	1766
##ющие	1767
ных	1768
случае	1769
занима	1770
##чной	1771
восто	1772
чемпион	1773
европ	1774
пен	1775
##лог	1776
площа	1777
##лон	1778
вра	1779
всем	1780
ули	1781
##лан	1782
кред	1783
деся	1784
##пра	1785
люди	1786
ведом	1787
обеспе	1788
успе	1789
премьер	1790
анд	1791
организации	1792
сум	1793
парла	1794
##кс	1795
фут	1796
##воз	1797
социаль	1798
рей	1799
##es	1800
рам	1801
ходе	1802
##циали	1803
риа	1804
территории	1805
канди	1806
тя	1807
стар	1808
##ници	1809
##вается	1810
##щение	1811
ожи	1812
нем	1813
футбо	1814
подчер	1815
представитель	1816
##строй	1817
жизни	1818
гру	1819
марта	1820
человека	1821
российских	1822
рассказал	1823
лишь	1824
##ерж	1825
стали	1826
журнали	1827
50	1828
показ	1829
продук	1830
пери	1831
##ar	1832
вот	1833
став	1834
тепер	1835
четыре	1836
теперь	1837
напри	1838
например	1839
##тно	1840
##рию	1841
способ	1842
которого	1843
##ган	1844
партии	1845
##вок	1846
прив	1847
##тить	1848
##мов	1849
аэ	1850
знач	1851
почти	1852
бар	1853
обы	1854
##мина	1855
европей	1856
первый	1857
стало	1858
лег	1859
исс	1860
председ	1861
счет	1862
мнению	1863
мне	1864
##ссе	1865
считает	1866
огра	1867
ная	1868
неде	1869
##раб	1870
аль	1871
##ружи	1872
поя	1873
##лез	1874
вос	1875
##кре	1876
##рую	1877
##мой	1878
##атели	1879
закон	1880
##рования	1881
сокра	1882
ного	1883
новые	1884
момент	1885
##рев	1886
ника	1887
своих	1888
подтвер	1889
четвер	1890
особ	1891
количе	1892
свобод	1893
##шая	1894
клу	1895
##вших	1896
объем	1897
электро	1898
пы	1899
##рот	1900
министер	1901
гу	1902
ход	1903
##вор	1904
осу	1905
##сут	1906
##ору	1907
исследов	1908
объек	1909
олимпи	1910
чи	1911
насе	1912
преду	1913
каж	1914
зо	1915
##щем	1916
москвы	1917
кандид	1918
##ляр	1919
повы	1920
конце	1921
проце	1922
внут	1923
##щие	1924
##нет	1925
ог	1926
сло	1927
##вид	1928
кру	1929
##спек	1930
обсу	1931
подготов	1932
фа	1933
образов	1934
поль	1935
прак	1936
##ственно	1937
госду	1938
##емон	1939
мир	1940
дости	1941
##личи	1942
коми	1943
специали	1944
пози	1945
некоторы	1946
отношении	1947
##le	1948
пути	1949
проку	1950
пояс	1951
шт	1952
##ербур	1953
постав	1954
##льные	1955
петербур	1956
##ложен	1957
##тель	1958
22	1959
##над	1960
##анием	1961
##лев	1962
зде	1963
ив	1964
главы	1965
детей	1966
реали	1967
части	1968
провер	1969
##ату	1970
гер	1971
##лены	1972
##ствует	1973
здесь	1974
##роны	1975
называ	1976
##ее	1977
период	1978
##чки	1979
инст	1980
обществен	1981
стране	1982
##дут	1983
такой	1984
##ками	1985
кос	1986
24	1987
пример	1988
##шим	1989
выход	1990
правительства	1991
зако	1992
ради	1993
##торов	1994
стои	1995
российского	1996
предприяти	1997
сти	1998
игра	1999
##ерна	2000
прог	2001
апреля	2002
##ток	2003
##датель	2004
##цей	2005
авгу	2006
страна	2007
инф	2008
мур	2009
прекра	2010
ссы	2011
бал	2012
уби	2013
завер	2014
##лин	2015
банк	2016
вклю	2017
2017	2018
говорится	2019
дмитрий	2020
потому	2021
государства	2022
сентября	2023
##рета	2024
комплек	2025
требов	2026
суб	2027
анти	2028
одной	2029
21	2030
##тически	2031
полож	2032
обна	2033
окру	2034
сою	2035
надо	2036
отде	2037
источник	2038
##ант	2039
должен	2040
вместе	2041
утвер	2042
зан	2043
##той	2044
санк	2045
##тия	2046
##убликов	2047
##чных	2048
реб	2049
##ню	2050
##щая	2051
конкур	2052
##стана	2053
произош	2054
назна	2055
исклю	2056
генера	2057
##вшего	2058
##ницу	2059
подоз	2060
наза	2061
бизнес	2062
смог	2063
кредит	2064
вним	2065
##пара	2066
участие	2067
времен	2068
рамках	2069
хотя	2070
докумен	2071
иностран	2072
сообщили	2073
##ритель	2074
##ьез	2075
##тура	2076
оцен	2077
##ческие	2078
треть	2079
сод	2080
проект	2081
энер	2082
наб	2083
слова	2084
пенси	2085
##гам	2086
##чат	2087
##йд	2088
предо	2089
другие	2090
##ерт	2091
мая	2092
##al	2093
доста	2094
постра	2095
##рин	2096
губ	2097
вол	2098
идет	2099
##вых	2100
торгов	2101
##разу	2102
##жден	2103
таким	2104
##держи	2105
менее	2106
##фа	2107
управления	2108
##охран	2109
лидер	2110
рос	2111
выступ	2112
одного	2113
согласно	2114
бюджет	2115
мурман	2116
доход	2117
кап	2118
региональ	2119
борь	2120
##смен	2121
вал	2122
тот	2123
##еты	2124
##езд	2125
февраля	2126
##оря	2127
##ая	2128
##струк	2129
пам	2130
пострада	2131
##it	2132
##еров	2133
##лено	2134
новый	2135
##чный	2136
преж	2137
##арта	2138
опубликов	2139
подчеркну	2140
возможность	2141
макси	2142
##лии	2143
##еди	2144
команд	2145
времени	2146
техно	2147
засед	2148
##нять	2149
аэро	2150
верси	2151
голосов	2152
верну	2153
образом	2154
спор	2155
совета	2156
ского	2157
ана	2158
потреб	2159
аб	2160
увер	2161
народ	2162
известно	2163
октября	2164
##мени	2165
пода	2166
##рес	2167
регу	2168
исполн	2169
аре	2170
информации	2171
ноября	2172
миха	2173
развития	2174
декабря	2175
попа	2176
##лик	2177
угро	2178
##чные	2179
##ce	2180
##рошен	2181
иде	2182
мод	2183
##oo	2184
подоб	2185
##ева	2186
##лена	2187
##жай	2188
серьез	2189
трех	2190
no	2191
##рам	2192
##мыш	2193
деньги	2194
назад	2195
##рец	2196
##чего	2197
##ter	2198
региона	2199
одно	2200
специаль	2201
конечно	2202
##сили	2203
##ченко	2204
##ябре	2205
замест	2206
ник	2207
действия	2208
продолжа	2209
##раж	2210
извести	2211
средств	2212
материа	2213
##ффек	2214
наш	2215
лиц	2216
воору	2217
кино	2218
##матри	2219
##чески	2220
января	2221
расследов	2222
##ствовать	2223
смер	2224
реко	2225
гри	2226
свой	2227
этих	2228
китай	2229
гов	2230
ский	2231
ссыл	2232
переда	2233
100	2234
попы	2235
##he	2236
ную	2237
оте	2238
##шее	2239
себе	2240
##ила	2241
##чей	2242
комитета	2243
дня	2244
##ез	2245
взры	2246
второй	2247
пыта	2248
##хра	2249
пря	2250
##стри	2251
##лять	2252
работу	2253
стоит	2254
прибы	2255
ис	2256
господин	2257
профе	2258
группы	2259
ес	2260
конф	2261
самолет	2262
ней	2263
долларов	2264
in	2265
##чного	2266
##чил	2267
ап	2268
23	2269
рак	2270
тоже	2271
сирий	2272
199	2273
40	2274
##ступи	2275
турции	2276
музы	2277
пят	2278
тру	2279
##лений	2280
намер	2281
мв	2282
инвести	2283
выпу	2284
финансов	2285
федерации	2286
сез	2287
рост	2288
удалось	2289
мень	2290
эффек	2291
##нили	2292
мэ	2293
##бин	2294
объяс	2295
##дии	2296
co	2297
##руют	2298
доб	2299
##муще	2300
контра	2301
такие	2302
##ательно	2303
ответствен	2304
##мышлен	2305
кре	2306
сразу	2307
##пин	2308
##ждение	2309
##казать	2310
эту	2311
28	2312
")	2313
##нец	2314
либо	2315
ост	2316
##ями	2317
##чает	2318
##жных	2319
вид	2320
частности	2321
губерна	2322
##чить	2323
##казала	2324
директор	2325
##жной	2326
пользов	2327
##зии	2328
столи	2329
##ферен	2330
##пози	2331
места	2332
закры	2333
план	2334
продолж	2335
площад	2336
дополн	2337
банка	2338
своего	2339
спортсмен	2340
анали	2341
зада	2342
технологи	2343
ссылкой	2344
##кси	2345
##тиво	2346
##ового	2347
увелич	2348
север	2349
пара	2350
##слав	2351
ближай	2352
куб	2353
районе	2354
##жу	2355
газета	2356
многие	2357
##ческий	2358
которое	2359
ситуации	2360
кварти	2361
распо	2362
дене	2363
видео	2364
##атив	2365
брит	2366
нало	2367
стала	2368
ами	2369
убий	2370
##льным	2371
течение	2372
##рения	2373
покуп	2374
публи	2375
очередь	2376
##ro	2377
суде	2378
##ех	2379
##йдет	2380
пасса	2381
##ровали	2382
изд	2383
дума	2384
срав	2385
реаль	2386
##нок	2387
права	2388
##дать	2389
парт	2390
законодатель	2391
необходимо	2392
27	2393
хи	2394
опас	2395
##зо	2396
суда	2397
предлага	2398
агентство	2399
##гля	2400
00	2401
полиции	2402
наблю	2403
возду	2404
##лай	2405
привод	2406
этим	2407
уни	2408
правительство	2409
##ыт	2410
##енко	2411
##виси	2412
##ваем	2413
пассажи	2414
потер	2415
##итали	2416
##ствии	2417
уточ	2418
##ницы	2419
нач	2420
таких	2421
ным	2422
##дил	2423
##казали	2424
##доров	2425
службы	2426
хозя	2427
избира	2428
##ян	2429
последние	2430
всегда	2431
находится	2432
молод	2433
труд	2434
##нова	2435
собира	2436
деле	2437
##стер	2438
системы	2439
проекта	2440
##ществ	2441
меро	2442
женщи	2443
фу	2444
мероприяти	2445
средства	2446
герм	2447
##шо	2448
выбор	2449
разработ	2450
куль	2451
медици	2452
услу	2453
##няя	2454
ам	2455
тури	2456
выпла	2457
новых	2458
большин	2459
ей	2460
##вания	2461
начала	2462
26	2463
спец	2464
##вен	2465
чего	2466
банков	2467
две	2468
##ину	2469
разме	2470
##нача	2471
предостав	2472
противо	2473
миллиар	2474
пять	2475
запад	2476
##сколь	2477
##чка	2478
##ti	2479
чинов	2480
##видет	2481
мя	2482
чита	2483
##чера	2484
кажд	2485
трен	2486
полицей	2487
секрета	2488
миров	2489
котором	2490
тяже	2491
поряд	2492
нового	2493
начале	2494
масс	2495
иници	2496
тро	2497
пост	2498
предпри	2499
##бит	2500
сделать	2501
ой	2502
отношения	2503
несмот	2504
несмотря	2505
красно	2506
ведь	2507
бло	2508
решения	2509
боеви	2510
##обо	2511
созда	2512
российский	2513
дел	2514
прогно	2515
внеш	2516
бесп	2517
вице	2518
##точно	2519
стоимость	2520
маши	2521
##бли	2522
посколь	2523
семь	2524
исла	2525
месте	2526
нынеш	2527
качестве	2528
поскольку	2529
29	2530
алексей	2531
процесс	2532
стре	2533
совершен	2534
сла	2535
##вое	2536
конц	2537
един	2538
потом	2539
осво	2540
##анных	2541
##кую	2542
годы	2543
затем	2544
гре	2545
свет	2546
##стоятель	2547
##ваться	2548
примен	2549
##ват	2550
сайте	2551
##ющим	2552
республики	2553
##мин	2554
##вание	2555
попу	2556
посе	2557
##проек	2558
шо	2559
гол	2560
расход	2561
бывший	2562
действ	2563
запу	2564
аэроп	2565
##енти	2566
прин	2567
итогам	2568
бере	2569
кана	2570
количество	2571
##пера	2572
оружи	2573
##лета	2574
рынке	2575
современ	2576
ита	2577
мор	2578
возбу	2579
подроб	2580
ат	2581
совмест	2582
празд	2583
внутрен	2584
учен	2585
данные	2586
собра	2587
деятельности	2588
получил	2589
выступа	2590
универ	2591
турец	2592
августа	2593
зам	2594
уче	2595
собы	2596
министра	2597
##рю	2598
ук	2599
##сен	2600
городе	2601
призн	2602
##лой	2603
##графи	2604
##вшие	2605
законопроек	2606
окон	2607
.,	2608
##руется	2609
##онд	2610
теат	2611
мвд	2612
отказа	2613
правоохран	2614
сте	2615
подозре	2616
##зин	2617
рынка	2618
##мом	2619
депутат	2620
##лег	2621
следствен	2622
ман	2623
вне	2624
##ина	2625
завод	2626
##зм	2627
ним	2628
дом	2629
разре	2630
##ленных	2631
##фак	2632
##менти	2633
акти	2634
выс	2635
ничего	2636
возра	2637
##ствий	2638
иго	2639
догово	2640
ное	2641
представители	2642
мал	2643
##лением	2644
которую	2645
нефти	2646
##гии	2647
распро	2648
##жды	2649
жа	2650
##ница	2651
речь	2652
другой	2653
##щим	2654
прошлого	2655
##лению	2656
##цени	2657
российские	2658
тради	2659
ситуация	2660
появи	2661
спас	2662
наи	2663
##рование	2664
прокура	2665
компаний	2666
##стой	2667
сай	2668
ожида	2669
олимпий	2670
цель	2671
неда	2672
впер	2673
добавил	2674
впервые	2675
нее	2676
##так	2677
возвра	2678
##шки	2679
##нин	2680
##шем	2681
##дели	2682
голов	2683
отмечает	2684
##нд	2685
отра	2686
работать	2687
выполн	2688
##ительных	2689
золо	2690
подчеркнул	2691
интернет	2692
рассмот	2693
тон	2694
транспорт	2695
##ниц	2696
такое	2697
должна	2698
полно	2699
проблемы	2700
подпис	2701
##скому	2702
диа	2703
наши	2704
##тий	2705
кризи	2706
жизнь	2707
това	2708
##роз	2709
настоящее	2710
##ляют	2711
забо	2712
почему	2713
##ag	2714
##льная	2715
принима	2716
помощи	2717
британ	2718
постоя	2719
остав	2720
ской	2721
худ	2722
пиш	2723
##пов	2724
просмот	2725
комму	2726
россию	2727
осуществ	2728
вчера	2729
здоров	2730
юри	2731
##вую	2732
отправ	2733
##нице	2734
ограни	2735
асс	2736
штра	2737
##кар	2738
недо	2739
##лот	2740
##жении	2741
##рет	2742
июля	2743
неиз	2744
##там	2745
уровне	2746
выяс	2747
мире	2748
число	2749
нед	2750
трам	2751
украине	2752
позд	2753
##роят	2754
##вел	2755
телек	2756
имеет	2757
станет	2758
внимание	2759
медицин	2760
мас	2761
нашей	2762
##ствуют	2763
демо	2764
##ходя	2765
мину	2766
сотрудниче	2767
весь	2768
служба	2769
соответствую	2770
##жем	2771
хол	2772
введ	2773
##пли	2774
какие	2775
одним	2776
##ющей	2777
сф	2778
новой	2779
оба	2780
полностью	2781
этому	2782
информацию	2783
восп	2784
пунк	2785
дней	2786
приш	2787
выз	2788
оппози	2789
летний	2790
оон	2791
бело	2792
миллионов	2793
содерж	2794
##жал	2795
мощ	2796
своем	2797
коллек	2798
иску	2799
##неф	2800
вза	2801
постоян	2802
##ктор	2803
вооб	2804
важ	2805
андрей	2806
получили	2807
читайте	2808
сами	2809
истории	2810
##мии	2811
отмечается	2812
каждый	2813
добы	2814
стол	2815
минут	2816
сотрудники	2817
см	2818
доступ	2819
близ	2820
различ	2821
началь	2822
%.	2823
центр	2824
##мере	2825
поня	2826
мид	2827
москва	2828
администрации	2829
бер	2830
наруш	2831
##их	2832
каса	2833
##фика	2834
получить	2835
##ровки	2836
интерфак	2837
отве	2838
района	2839
##чит	2840
причи	2841
справ	2842
сравн	2843
##дем	2844
##дили	2845
объя	2846
считают	2847
попыт	2848
35	2849
##рее	2850
люб	2851
##чным	2852
запа	2853
обвиня	2854
##тил	2855
информацион	2856
цены	2857
дов	2858
крым	2859
##ником	2860
кни	2861
сборной	2862
следов	2863
тай	2864
европы	2865
допу	2866
возгла	2867
живо	2868
предполага	2869
повод	2870
программы	2871
##рат	2872
мини	2873
срок	2874
председатель	2875
особенно	2876
замет	2877
тому	2878
получа	2879
##наль	2880
отдель	2881
сама	2882
ведомства	2883
##боль	2884
серге	2885
интерес	2886
re	2887
##рите	2888
теку	2889
страте	2890
сложно	2891
the	2892
прави	2893
экс	2894
##ял	2895
##гру	2896
##говоры	2897
вообще	2898
##шта	2899
поста	2900
пала	2901
професси	2902
появ	2903
хоте	2904
евг	2905
игро	2906
##няет	2907
группа	2908
ская	2909
дип	2910
практически	2911
ребен	2912
##рами	2913
##ческая	2914
меньше	2915
##ющего	2916
##никами	2917
вооружен	2918
##бер	2919
##жного	2920
2013	2921
объедин	2922
##ине	2923
обязатель	2924
эффектив	2925
##da	2926
адвок	2927
некоторые	2928
выстав	2929
велико	2930
сет	2931
##фон	2932
зве	2933
сере	2934
##еры	2935
предприним	2936
самых	2937
встреча	2938
пожа	2939
каза	2940
долго	2941
российская	2942
большой	2943
клин	2944
сб	2945
прошлом	2946
составляет	2947
рассказыва	2948
центре	2949
россиян	2950
военно	2951
университ	2952
каждо	2953
##щую	2954
##рошенко	2955
съ	2956
вари	2957
войны	2958
восстанов	2959
ого	2960
францу	2961
команды	2962
предва	2963
одном	2964
рейтин	2965
примерно	2966
говор	2967
31	2968
##нал	2969
вести	2970
месяцев	2971
клю	2972
##жета	2973
край	2974
##il	2975
ряд	2976
ава	2977
вопросы	2978
достаточно	2979
оцени	2980
##цид	2981
предваритель	2982
##тие	2983
популяр	2984
просмотров	2985
жителей	2986
##дев	2987
бол	2988
##нуть	2989
истори	2990
финанси	2991
демокра	2992
струк	2993
скоро	2994
пяти	2995
сообщается	2996
сторон	2997
привле	2998
пис	2999
делать	3000
участников	3001
гон	3002
требу	3003
##никам	3004
группи	3005
населения	3006
виз	3007
тр	3008
дав	3009
часов	3010
сети	3011
##сил	3012
состо	3013
##град	3014
##сок	3015
террористи	3016
впро	3017
промышлен	3018
оконч	3019
ах	3020
ым	3021
превы	3022
реши	3023
##чествен	3024
##били	3025
харак	3026
област	3027
##ra	3028
ска	3029
сохран	3030
спортив	3031
##сом	3032
##ходят	3033
экономики	3034
агентства	3035
60	3036
приоб	3037
турни	3038
нефть	3039
обнару	3040
впрочем	3041
киев	3042
##ич	3043
##анк	3044
отсут	3045
##вич	3046
##чая	3047
страхов	3048
возможности	3049
лучше	3050
парламента	3051
##кими	3052
дон	3053
поддержи	3054
госдумы	3055
ира	3056
коро	3057
##сят	3058
машин	3059
приводит	3060
##тах	3061
сня	3062
незакон	3063
действительно	3064
процентов	3065
##зн	3066
благода	3067
вывод	3068
эксперты	3069
известия	3070
искус	3071
##енты	3072
##клад	3073
выборов	3074
аф	3075
крупней	3076
##жать	3077
##ленные	3078
важно	3079
станов	3080
уголовное	3081
##того	3082
коммер	3083
организация	3084
политики	3085
##ого	3086
##сур	3087
проте	3088
##обра	3089
пенсион	3090
##ительные	3091
##вым	3092
##ван	3093
кварта	3094
обу	3095
главный	3096
мага	3097
инициати	3098
указ	3099
##гран	3100
##вала	3101
геро	3102
трав	3103
##el	3104
транс	3105
уровень	3106
крас	3107
выборах	3108
штраф	3109
похо	3110
инцид	3111
##пон	3112
##бур	3113
порошенко	3114
выда	3115
##ался	3116
трамп	3117
сотрудников	3118
германии	3119
принци	3120
свидет	3121
##ol	3122
поми	3123
##тии	3124
отмен	3125
пси	3126
меры	3127
ау	3128
##руг	3129
выра	3130
перспек	3131
санкт	3132
слож	3133
постанов	3134
##леп	3135
техниче	3136
##вью	3137
попро	3138
жерт	3139
##чис	3140
секретарь	3141
##рина	3142
##ческим	3143
##ала	3144
##рез	3145
кило	3146
##зма	3147
договор	3148
мало	3149
заявила	3150
второ	3151
отстав	3152
исполь	3153
заявление	3154
перегово	3155
проблем	3156
хорошо	3157
защит	3158
вероят	3159
интервью	3160
заместитель	3161
оде	3162
##ri	3163
тю	3164
принад	3165
##форми	3166
конфлик	3167
единствен	3168
принадле	3169
вас	3170
действую	3171
##щении	3172
##ентом	3173
ирован	3174
##рко	3175
поме	3176
##ложи	3177
лит	3178
бел	3179
расши	3180
дальней	3181
произошло	3182
никто	3183
ислам	3184
благодаря	3185
россией	3186
назвал	3187
##част	3188
объяв	3189
несколь	3190
худо	3191
##гли	3192
##цов	3193
итоге	3194
бизне	3195
чув	3196
интерфакс	3197
сц	3198
##ум	3199
сообщении	3200
##кви	3201
ном	3202
##ia	3203
сдел	3204
##креп	3205
судеб	3206
клинтон	3207
##лер	3208
##кро	3209
раст	3210
крем	3211
пож	3212
##лад	3213
##вого	3214
мино	3215
##шает	3216
встречи	3217
колле	3218
глу	3219
какой	3220
##щиков	3221
государство	3222
##реть	3223
размере	3224
эксперт	3225
движения	3226
цб	3227
##писа	3228
##мб	3229
прио	3230
##нев	3231
сообщила	3232
##льное	3233
##пло	3234
ситуацию	3235
бюджета	3236
##пора	3237
ниже	3238
фонда	3239
первую	3240
результат	3241
собой	3242
роста	3243
часто	3244
жел	3245
уд	3246
##тором	3247
претен	3248
обороны	3249
выпол	3250
##бесед	3251
поне	3252
зар	3253
пись	3254
всей	3255
##фо	3256
напис	3257
понима	3258
причин	3259
##ещ	3260
##анные	3261
##лях	3262
конст	3263
организов	3264
сообщалось	3265
руководитель	3266
документа	3267
втор	3268
оно	3269
##re	3270
зад	3271
учре	3272
мужчина	3273
иностранных	3274
сли	3275
май	3276
нако	3277
следует	3278
погибли	3279
тут	3280
нап	3281
##чик	3282
условиях	3283
##сить	3284
которым	3285
данных	3286
##мя	3287
женщ	3288
собесед	3289
ремон	3290
##игра	3291
##тики	3292
первого	3293
использу	3294
##жей	3295
рынок	3296
франции	3297
нато	3298
##скими	3299
физи	3300
устрой	3301
соверш	3302
постро	3303
национальной	3304
ата	3305
ском	3306
смот	3307
низ	3308
##as	3309
каз	3310
##сою	3311
службе	3312
##оци	3313
##лах	3314
своим	3315
департа	3316
##льян	3317
хозяй	3318
изу	3319
пад	3320
##нимать	3321
первом	3322
уверен	3323
терак	3324
пишет	3325
ек	3326
проблема	3327
михаил	3328
влия	3329
серви	3330
эр	3331
##уне	3332
##рок	3333
медве	3334
улице	3335
зарпла	3336
рассматри	3337
правда	3338
помощью	3339
рекомен	3340
партнер	3341
сель	3342
коло	3343
##форм	3344
целом	3345
союз	3346
имуще	3347
упо	3348
выше	3349
силу	3350
валют	3351
начина	3352
##нию	3353
##емых	3354
конца	3355
представителя	3356
##льном	3357
язы	3358
##три	3359
##брит	3360
говорят	3361
тен	3362
##зор	3363
накан	3364
великобрит	3365
накануне	3366
##читы	3367
форми	3368
пояснил	3369
француз	3370
##док	3371
помощь	3372
##сро	3373
тысячи	3374
##шка	3375
владимира	3376
##гляд	3377
70	3378
нель	3379
прием	3380
налогов	3381
##вии	3382
##стам	3383
максима	3384
##ваются	3385
диплом	3386
разви	3387
производства	3388
всеми	3389
взрыв	3390
45	3391
##et	3392
раск	3393
##ссия	3394
конферен	3395
останов	3396
##ждает	3397
##под	3398
дина	3399
украина	3400
сме	3401
инди	3402
ными	3403
##ун	3404
присут	3405
бой	3406
##ведения	3407
первой	3408
верхов	3409
действий	3410
цити	3411
##нить	3412
##одей	3413
сав	3414
возник	3415
прид	3416
нельзя	3417
причем	3418
понедель	3419
шан	3420
##енных	3421
парламент	3422
оч	3423
трампа	3424
делу	3425
2012	3426
зе	3427
такого	3428
материале	3429
##us	3430
годов	3431
закона	3432
степ	3433
камп	3434
##оволь	3435
##пл	3436
зах	3437
оператив	3438
##деми	3439
##чать	3440
шта	3441
##мец	3442
##хани	3443
подо	3444
сим	3445
заявили	3446
газпро	3447
сказать	3448
##зер	3449
деву	3450
пользу	3451
свер	3452
##ьше	3453
##пр	3454
ресур	3455
##удов	3456
##рудов	3457
огром	3458
неизвест	3459
ут	3460
##рили	3461
пит	3462
находи	3463
относ	3464
независи	3465
сту	3466
очевид	3467
работает	3468
оо	3469
система	3470
путина	3471
##сср	3472
##веро	3473
результаты	3474
финанс	3475
##стить	3476
напад	3477
##мые	3478
ката	3479
патри	3480
полиция	3481
начали	3482
увеличи	3483
четырех	3484
порядка	3485
заб	3486
дональ	3487
проведения	3488
запрещен	3489
барре	3490
im	3491
##ic	3492
##лить	3493
приход	3494
обрати	3495
изменения	3496
версии	3497
опла	3498
##вли	3499
оборудов	3500
список	3501
отечествен	3502
вок	3503
роль	3504
большинство	3505
##дан	3506
перевоз	3507
ооо	3508
вам	3509
спа	3510
ссср	3511
##дал	3512
данный	3513
##еду	3514
работе	3515
пятницу	3516
##ации	3517
##дек	3518
##ителем	3519
плат	3520
##нул	3521
вес	3522
александра	3523
месяца	3524
бен	3525
##is	3526
среду	3527
раньше	3528
##tion	3529
##шествия	3530
владель	3531
десят	3532
аппара	3533
денег	3534
80	3535
поки	3536
2018	3537
политика	3538
вся	3539
бори	3540
скорее	3541
эко	3542
##нр	3543
раза	3544
ростов	3545
##дим	3546
особо	3547
силы	3548
комиссии	3549
игорь	3550
наших	3551
двиг	3552
министерства	3553
##нему	3554
неболь	3555
##стива	3556
электрон	3557
образования	3558
выборы	3559
%,	3560
##сем	3561
помимо	3562
расположен	3563
сфере	3564
миниму	3565
тан	3566
переговоры	3567
##ались	3568
друг	3569
крыма	3570
внес	3571
упа	3572
##бк	3573
говорить	3574
никогда	3575
стратеги	3576
##бора	3577
##щик	3578
карти	3579
ребенка	3580
япо	3581
##более	3582
##суль	3583
произошел	3584
комитет	3585
наиболее	3586
чит	3587
вет	3588
##вета	3589
##комп	3590
воздуш	3591
успеш	3592
памят	3593
скан	3594
немец	3595
воск	3596
##бир	3597
##лаг	3598
##чены	3599
зло	3600
##они	3601
##кова	3602
нео	3603
пропа	3604
ред	3605
газа	3606
органов	3607
самым	3608
строительство	3609
норма	3610
живот	3611
сорев	3612
куп	3613
самом	3614
достиг	3615
понедельник	3616
ху	3617
допин	3618
##чено	3619
капит	3620
масшта	3621
екатери	3622
алеп	3623
##ew	3624
выде	3625
##зывает	3626
алеппо	3627
конкре	3628
членов	3629
##чку	3630
##чная	3631
##стя	3632
90	3633
культуры	3634
савченко	3635
ков	3636
кате	3637
##жные	3638
лиш	3639
метро	3640
белору	3641
вторник	3642
##ясь	3643
вов	3644
син	3645
отказ	3646
режисс	3647
смогут	3648
цитирует	3649
##луч	3650
акции	3651
первые	3652
аналоги	3653
дере	3654
##вом	3655
пари	3656
любо	3657
могли	3658
провести	3659
чемпионата	3660
##ниципа	3661
нарушения	3662
ключе	3663
соревнов	3664
##ace	3665
арм	3666
четверг	3667
##ок	3668
операции	3669
фонд	3670
цена	3671
##вей	3672
##дина	3673
##пос	3674
имени	3675
желез	3676
испол	3677
гиб	3678
вв	3679
500	3680
скры	3681
##ологи	3682
##ссий	3683
##дия	3684
посет	3685
никаких	3686
институ	3687
щи	3688
##ut	3689
##ческое	3690
взаим	3691
##ланд	3692
##риф	3693
давно	3694
задержан	3695
избиратель	3696
моде	3697
полага	3698
перс	3699
заявля	3700
женщина	3701
оши	3702
муниципа	3703
##шинг	3704
##рабаты	3705
нескольких	3706
##дали	3707
европе	3708
думаю	3709
##age	3710
32	3711
##хе	3712
кали	3713
марш	3714
возбужд	3715
ура	3716
##нила	3717
##фици	3718
вашинг	3719
функ	3720
касается	3721
км	3722
автомобиль	3723
ассоци	3724
##at	3725
случай	3726
##шла	3727
##рел	3728
препара	3729
быстро	3730
##вился	3731
взя	3732
##ителям	3733
уровня	3734
##бороны	3735
студ	3736
стату	3737
являются	3738
молоде	3739
требования	3740
сопер	3741
прожи	3742
механи	3743
##ительной	3744
принято	3745
корруп	3746
минобороны	3747
жан	3748
зи	3749
ори	3750
сохра	3751
команда	3752
кого	3753
##стью	3754
песков	3755
остается	3756
традицион	3757
уб	3758
столич	3759
участники	3760
преступления	3761
##шую	3762
бежен	3763
информация	3764
ракет	3765
пройдет	3766
воро	3767
##работа	3768
воскрес	3769
300	3770
##метров	3771
административ	3772
управля	3773
выд	3774
широ	3775
ид	3776
##рор	3777
первых	3778
com	3779
подробнее	3780
соц	3781
самый	3782
строительства	3783
союза	3784
##чном	3785
##чении	3786
приве	3787
##гах	3788
находятся	3789
бизнеса	3790
##едли	3791
веду	3792
поддержку	3793
##рение	3794
корпора	3795
продажи	3796
деятельность	3797
петербург	3798
##сб	3799
##пров	3800
##роса	3801
жела	3802
олимпиа	3803
катего	3804
сь	3805
сол	3806
##тами	3807
роман	3808
тол	3809
выну	3810
месяц	3811
курс	3812
##шком	3813
поступ	3814
наказ	3815
##ерв	3816
##итар	3817
кораб	3818
сумму	3819
законопроект	3820
##езда	3821
многих	3822
радио	3823
энерг	3824
##чили	3825
лав	3826
##няется	3827
фестива	3828
семей	3829
лени	3830
рбк	3831
переход	3832
самолета	3833
фильм	3834
##возмо	3835
##станавли	3836
самого	3837
сыгра	3838
полномо	3839
.)	3840
##стом	3841
ото	3842
сю	3843
##чс	3844
куда	3845
нуж	3846
ке	3847
кад	3848
опыт	3849
никола	3850
разных	3851
##дой	3852
спу	3853
##лети	3854
##клады	3855
прежде	3856
оказыва	3857
2011	3858
путе	3859
жители	3860
президентом	3861
соглашения	3862
дети	3863
состоянии	3864
потен	3865
##рож	3866
##гом	3867
высоко	3868
житель	3869
##тят	3870
суббо	3871
еги	3872
экономического	3873
заверш	3874
кара	3875
принять	3876
поводу	3877
##ственных	3878
такая	3879
спорта	3880
мигран	3881
##емого	3882
сравнению	3883
##груз	3884
бывшего	3885
лица	3886
сможет	3887
ядер	3888
поко	3889
будем	3890
миллиона	3891
клуба	3892
уз	3893
##нения	3894
##мыс	3895
совсем	3896
андре	3897
##ден	3898
предупре	3899
впол	3900
пак	3901
унич	3902
условия	3903
фотографи	3904
уничто	3905
винов	3906
демон	3907
ские	3908
##ест	3909
всю	3910
вполне	3911
ака	3912
ву	3913
посо	3914
судь	3915
планируется	3916
егип	3917
пору	3918
ниж	3919
сих	3920
рассчиты	3921
санкции	3922
донба	3923
image	3924
иру	3925
регионе	3926
официальный	3927
##ыми	3928
военных	3929
район	3930
фору	3931
улуч	3932
##лок	3933
##рованы	3934
##ir	3935
##лова	3936
посвя	3937
вечер	3938
государственной	3939
составе	3940
дра	3941
пок	3942
фир	3943
свободы	3944
охра	3945
достав	3946
##овом	3947
организаций	3948
##ent	3949
##ствовал	3950
энергети	3951
федерального	3952
мчс	3953
той	3954
продукции	3955
##нюю	3956
арестов	3957
тек	3958
заре	3959
##ляции	3960
рекла	3961
##вив	3962
развед	3963
представителей	3964
сегодняш	3965
джон	3966
##лют	3967
соедин	3968
пригла	3969
бог	3970
вече	3971
использовать	3972
рубля	3973
бук	3974
контрак	3975
освобо	3976
заболев	3977
слишком	3978
##щу	3979
пора	3980
запро	3981
##зывать	3982
ских	3983
##гар	3984
девя	3985
алкого	3986
##ing	3987
брю	3988
нью	3989
##тся	3990
##бран	3991
инфра	3992
##енье	3993
самой	3994
пес	3995
депутатов	3996
пут	3997
культ	3998
плате	3999
метров	4000
тонн	4001
причиной	4002
ем	4003
пан	4004
##сон	4005
коле	4006
сом	4007
##ссов	4008
арен	4009
предусмот	4010
поезд	4011
##тили	4012
##ционного	4013
позже	4014
коммента	4015
дороги	4016
недели	4017
##одно	4018
преды	4019
правила	4020
шесть	4021
позиции	4022
активи	4023
##сет	4024
##пор	4025
кой	4026
зави	4027
##ческую	4028
инте	4029
руководство	4030
умер	4031
##щать	4032
##ap	4033
развитие	4034
прим	4035
198	4036
готовы	4037
отношений	4038
автомобилей	4039
36	4040
гло	4041
##леко	4042
целью	4043
профессиональ	4044
придется	4045
##рыв	4046
клуб	4047
предыду	4048
обсужда	4049
вд	4050
##пере	4051
одоб	4052
вместо	4053
губернатор	4054
свидетель	4055
конкрет	4056
ap	4057
дово	4058
##цам	4059
##шать	4060
##дел	4061
##тери	4062
рабочи	4063
самое	4064
процента	4065
победы	4066
распростран	4067
##оны	4068
##йдут	4069
партий	4070
конститу	4071
полномочи	4072
гран	4073
напа	4074
##лял	4075
услуг	4076
сергея	4077
##am	4078
игры	4079
десяти	4080
снова	4081
##тп	4082
##гре	4083
##инг	4084
##ческом	4085
силов	4086
происходит	4087
ученые	4088
евросою	4089
внов	4090
найти	4091
невозмо	4092
рядом	4093
телекана	4094
вновь	4095
профи	4096
фили	4097
международной	4098
активно	4099
бель	4100
##un	4101
##ительный	4102
шах	4103
бил	4104
##льную	4105
предприятия	4106
машины	4107
пожар	4108
%)	4109
##вшей	4110
##ur	4111
сосед	4112
рели	4113
##менты	4114
дево	4115
##туру	4116
властей	4117
жест	4118
испыт	4119
значит	4120
пришлось	4121
переговоров	4122
кв	4123
##юсь	4124
производство	4125
июня	4126
матч	4127
уди	4128
##вый	4129
##анах	4130
фигу	4131
яв	4132
##20	4133
зрения	4134
олег	4135
##жит	4136
##шев	4137
порта	4138
иван	4139
моби	4140
соглашение	4141
корре	4142
обнаружи	4143
маршру	4144
цер	4145
музыка	4146
фоне	4147
цвет	4148
##чное	4149
##тиков	4150
директора	4151
##ами	4152
##етов	4153
обязан	4154
саудов	4155
актер	4156
декабре	4157
театра	4158
обстоятель	4159
##ателем	4160
хок	4161
гаран	4162
матча	4163
телефон	4164
борьбе	4165
##нефти	4166
##ху	4167
доме	4168
странах	4169
конференции	4170
яко	4171
##ери	4172
побе	4173
мето	4174
края	4175
оказался	4176
документы	4177
алексе	4178
объектов	4179
гроз	4180
пои	4181
мой	4182
##жает	4183
интерн	4184
школы	4185
све	4186
##шу	4187
согласов	4188
депутаты	4189
председателя	4190
издание	4191
академи	4192
##ьера	4193
реда	4194
история	4195
футболи	4196
зрите	4197
заме	4198
прось	4199
выро	4200
факту	4201
господина	4202
##ook	4203
написал	4204
мит	4205
акций	4206
республикан	4207
норм	4208
фильма	4209
!"	4210
##лли	4211
##дых	4212
отк	4213
стрем	4214
##арт	4215
размер	4216
##гами	4217
недавно	4218
##солют	4219
армии	4220
вопросам	4221
абсолют	4222
евгений	4223
ум	4224
##зем	4225
##анной	4226
сах	4227
главного	4228
автомобиля	4229
чуть	4230
внутри	4231
пооб	4232
##алы	4233
##разде	4234
предложения	4235
точки	4236
##ременно	4237
имеют	4238
заявления	4239
здания	4240
рекорд	4241
юриди	4242
болга	4243
ара	4244
сколько	4245
стандар	4246
международного	4247
министерство	4248
реализации	4249
косми	4250
остров	4251
али	4252
спрос	4253
минэ	4254
учиты	4255
процеду	4256
обнаружен	4257
дер	4258
##емся	4259
ночь	4260
автобу	4261
скр	4262
специалисты	4263
заседании	4264
великобритании	4265
##ционной	4266
следствия	4267
справедли	4268
вступ	4269
##его	4270
##атар	4271
зару	4272
одну	4273
##туаль	4274
документ	4275
конструк	4276
арбит	4277
наблюд	4278
семьи	4279
##лив	4280
инве	4281
северо	4282
компен	4283
санкций	4284
ответственность	4285
кер	4286
оль	4287
##ляется	4288
работают	4289
озна	4290
##кер	4291
планирует	4292
происшествия	4293
##ехал	4294
культур	4295
нарко	4296
хочет	4297
психо	4298
поле	4299
зай	4300
обмен	4301
гости	4302
##поли	4303
##силия	4304
маль	4305
##ченных	4306
твор	4307
яр	4308
##чную	4309
##стати	4310
реак	4311
марте	4312
предусмотрен	4313
запи	4314
##аков	4315
инвест	4316
нефтя	4317
циф	4318
мужчин	4319
уголовного	4320
замен	4321
изра	4322
нефте	4323
##личие	4324
33	4325
an	4326
еже	4327
сх	4328
убе	4329
##щена	4330
##лами	4331
взят	4332
водитель	4333
январе	4334
воскресенье	4335
##мон	4336
сильно	4337
домаш	4338
кстати	4339
остан	4340
сказала	4341
##нен	4342
##стями	4343
довольно	4344
##сах	4345
востоке	4346
подозреваем	4347
инвесто	4348
дтп	4349
оз	4350
причина	4351
включая	4352
##рода	4353
неу	4354
ната	4355
соп	4356
лидера	4357
##ственной	4358
скон	4359
принял	4360
##служи	4361
петербурге	4362
документов	4363
перспекти	4364
якобы	4365
##анка	4366
самые	4367
главное	4368
станции	4369
систему	4370
режима	4371
сайт	4372
смен	4373
поло	4374
фина	4375
распоря	4376
единой	4377
смерти	4378
департамента	4379
снача	4380
укреп	4381
##сад	4382
говорил	4383
сниз	4384
исключ	4385
рассказывает	4386
сначала	4387
агре	4388
режим	4389
московской	4390
грузов	4391
звезд	4392
##роде	4393
##чев	4394
заня	4395
зареги	4396
скую	4397
##дирек	4398
метал	4399
легко	4400
потре	4401
##чай	4402
микро	4403
таки	4404
сцена	4405
##мат	4406
награ	4407
##лат	4408
отдых	4409
выигра	4410
##мую	4411
верто	4412
##печат	4413
вокруг	4414
нане	4415
суп	4416
матче	4417
снижение	4418
устро	4419
##фин	4420
##os	4421
##рови	4422
##вшим	4423
последний	4424
воды	4425
##служа	4426
площади	4427
неделе	4428
военнослужа	4429
зву	4430
эле	4431
##ив	4432
##декс	4433
выраз	4434
любой	4435
николай	4436
определен	4437
контроли	4438
прямо	4439
столицы	4440
мировой	4441
оружия	4442
зарегистри	4443
юрий	4444
подразде	4445
лицен	4446
##фикси	4447
арти	4448
##ционных	4449
цион	4450
регуляр	4451
состоится	4452
равно	4453
отпра	4454
жало	4455
возглавля	4456
возбуждено	4457
брен	4458
##гер	4459
##стил	4460
предста	4461
конт	4462
стади	4463
##фиц	4464
приняли	4465
исследования	4466
комплекс	4467
зафикси	4468
линии	4469
начал	4470
факт	4471
участия	4472
минимум	4473
##слов	4474
##лега	4475
##мур	4476
военные	4477
эпи	4478
##im	4479
##анс	4480
обс	4481
автом	4482
управление	4483
предложил	4484
некоторых	4485
счит	4486
авиакомп	4487
##ch	4488
обнов	4489
##туре	4490
музе	4491
женщин	4492
##защ	4493
##сток	4494
годах	4495
спек	4496
адрес	4497
получила	4498
масштаб	4499
невозможно	4500
("	4501
face	4502
##лил	4503
##город	4504
крае	4505
соблю	4506
бро	4507
рио	4508
соответствии	4509
регули	4510
япон	4511
##сматри	4512
роли	4513
поддержки	4514
инфраструк	4515
мере	4516
##мень	4517
предложи	4518
##чиков	4519
новая	4520
контроль	4521
худож	4522
эки	4523
##ьми	4524
##ьют	4525
##book	4526
найд	4527
точно	4528
летнего	4529
программа	4530
утвержда	4531
решили	4532
медведев	4533
зво	4534
шу	4535
##едж	4536
##ровано	4537
израи	4538
держ	4539
сне	4540
фло	4541
##gh	4542
##москов	4543
лиги	4544
##щает	4545
летом	4546
реа	4547
автор	4548
банки	4549
защиты	4550
адвокат	4551
дво	4552
неодно	4553
комменти	4554
поса	4555
российским	4556
##говой	4557
составила	4558
кредитов	4559
совершенно	4560
вечером	4561
узна	4562
друга	4563
арт	4564
регионов	4565
встрече	4566
неделю	4567
ежегод	4568
полови	4569
##лян	4570
ликви	4571
темпера	4572
необходимости	4573
следую	4574
боевиков	4575
st	4576
двор	4577
оказ	4578
поступи	4579
позволит	4580
обвинения	4581
транспорта	4582
фсб	4583
##мых	4584
рассказала	4585
лекар	4586
##вшись	4587
бизнесмен	4588
##дж	4589
##la	4590
основе	4591
первым	4592
практи	4593
расследование	4594
злоу	4595
бур	4596
##иг	4597
##россий	4598
создать	4599
создание	4600
движение	4601
огранич	4602
энерго	4603
напря	4604
ущ	4605
уво	4606
наша	4607
##интере	4608
возоб	4609
социальной	4610
зен	4611
цска	4612
проком	4613
могу	4614
прокомменти	4615
##мос	4616
##купа	4617
кам	4618
##чив	4619
отмечают	4620
##ters	4621
расследования	4622
сена	4623
причаст	4624
строй	4625
разру	4626
ответственности	4627
губернатора	4628
днем	4629
##буд	4630
топли	4631
рассказали	4632
##пел	4633
официально	4634
московского	4635
феврале	4636
предполож	4637
зн	4638
ось	4639
эфи	4640
предъ	4641
констан	4642
мари	4643
паци	4644
сообщения	4645
погибших	4646
брази	4647
ближайшее	4648
конфликта	4649
facebook	4650
##зан	4651
##стям	4652
##анта	4653
вале	4654
экстре	4655
возобнов	4656
иран	4657
##служ	4658
публика	4659
института	4660
субботу	4661
##ed	4662
обстре	4663
бума	4664
всп	4665
фрон	4666
мон	4667
подряд	4668
##тера	4669
составил	4670
столице	4671
инцидент	4672
to	4673
пат	4674
общей	4675
мошен	4676
пассажиров	4677
##дают	4678
вик	4679
университета	4680
бир	4681
победу	4682
оказались	4683
постоянно	4684
##защит	4685
37	4686
виктор	4687
основном	4688
логи	4689
взаимодей	4690
##интересов	4691
плю	4692
##нит	4693
##нилось	4694
##вижи	4695
москву	4696
помог	4697
недвижи	4698
утром	4699
new	4700
согласи	4701
цик	4702
гуман	4703
удов	4704
фед	4705
поправ	4706
нег	4707
зависи	4708
посмот	4709
первое	4710
призвал	4711
женщины	4712
ma	4713
баш	4714
своими	4715
проектов	4716
тренер	4717
зарубе	4718
34	4719
ист	4720
последнее	4721
сделал	4722
обычно	4723
сезон	4724
корресп	4725
дни	4726
доля	4727
##волю	4728
##зацию	4729
ское	4730
руководителя	4731
дальше	4732
##раво	4733
##нах	4734
куз	4735
##тической	4736
групп	4737
ошиб	4738
спустя	4739
пом	4740
преми	4741
болез	4742
далее	4743
граждани	4744
удовлет	4745
ними	4746
##утки	4747
помога	4748
сумма	4749
конкурс	4750
корреспонд	4751
##ел	4752
боле	4753
##ходить	4754
види	4755
большая	4756
##овала	4757
техники	4758
которому	4759
сентябре	4760
отчет	4761
прилож	4762
моло	4763
меч	4764
опти	4765
хотят	4766
гендирек	4767
##лый	4768
выбра	4769
характер	4770
##зей	4771
##оры	4772
кабин	4773
следствие	4774
ир	4775
фрак	4776
##вался	4777
выру	4778
вырос	4779
каких	4780
##мый	4781
учетом	4782
##мать	4783
превра	4784
спортсменов	4785
сконча	4786
дать	4787
##илла	4788
основной	4789
водо	4790
оказалось	4791
журналистов	4792
всемир	4793
вя	4794
йор	4795
полет	4796
выска	4797
голосования	4798
app	4799
экипа	4800
хран	4801
##ое	4802
ноябре	4803
владе	4804
область	4805
жили	4806
международных	4807
##ателям	4808
мероприятия	4809
расходы	4810
казах	4811
становится	4812
напра	4813
протя	4814
знако	4815
привлек	4816
защи	4817
##телей	4818
аэропор	4819
ожидается	4820
оформ	4821
ул	4822
топ	4823
##циях	4824
##меть	4825
баррель	4826
приходится	4827
японии	4828
персона	4829
отпу	4830
тариф	4831
чаще	4832
##исков	4833
##гули	4834
197	4835
родствен	4836
ряда	4837
начальник	4838
фер	4839
##жный	4840
##uters	4841
сочи	4842
##емь	4843
##ждений	4844
сторону	4845
должность	4846
кандидатов	4847
обама	4848
reuters	4849
беженцев	4850
##жан	4851
оборо	4852
органы	4853
смогли	4854
собеседник	4855
вар	4856
паль	4857
уро	4858
##дд	4859
##пар	4860
##ментов	4861
##вели	4862
кие	4863
земли	4864
##щему	4865
##снов	4866
подня	4867
отметили	4868
общество	4869
предложение	4870
модель	4871
проз	4872
##емой	4873
море	4874
##стами	4875
маг	4876
пав	4877
серд	4878
форма	4879
правоохранительных	4880
швей	4881
##ропо	4882
##зация	4883
перевод	4884
регистра	4885
##мбар	4886
утра	4887
указыва	4888
##кнов	4889
простран	4890
существует	4891
прежнему	4892
глоб	4893
ай	4894
##лье	4895
##гор	4896
проходит	4897
##стили	4898
позволяет	4899
октябре	4900
гар	4901
полов	4902
##вило	4903
решил	4904
лавров	4905
ch	4906
татар	4907
##ada	4908
##одо	4909
##дий	4910
##чика	4911
##утся	4912
люби	4913
арх	4914
американских	4915
системе	4916
круг	4917
выпуск	4918
катастро	4919
##риев	4920
##дума	4921
стаби	4922
##ционный	4923
военного	4924
форму	4925
капита	4926
##ющая	4927
присо	4928
##тый	4929
уре	4930
хв	4931
##мар	4932
##анный	4933
навер	4934
страну	4935
sp	4936
бри	4937
хра	4938
задол	4939
лично	4940
новую	4941
проверки	4942
комплекса	4943
продолжает	4944
различных	4945
эрдо	4946
38	4947
##рост	4948
заинтересов	4949
рав	4950
государственного	4951
апреле	4952
госдуму	4953
мель	4954
##щены	4955
доказ	4956
##ждены	4957
сиг	4958
##зыск	4959
новое	4960
шести	4961
кандидат	4962
итальян	4963
спарта	4964
сторона	4965
учеб	4966
раскры	4967
400	4968
##емый	4969
##бом	4970
первая	4971
рус	4972
военной	4973
##минает	4974
борьбы	4975
кризис	4976
трени	4977
симво	4978
##тации	4979
донец	4980
назначен	4981
труда	4982
##ностей	4983
пропу	4984
##вались	4985
сообще	4986
##деть	4987
команду	4988
##лайн	4989
уви	4990
##тории	4991
фактически	4992
состояние	4993
ленин	4994
гуманитар	4995
##нику	4996
избе	4997
##хода	4998
главе	4999
общества	5000
крупных	5001
##плани	5002
##чению	5003
докла	5004
##ждении	5005
рубе	5006
повре	5007
провели	5008
десять	5009
супру	5010
##гин	5011
час	5012
2008	5013
местные	5014
соответственно	5015
сберб	5016
кин	5017
тв	5018
##лых	5019
##up	5020
непри	5021
заплани	5022
роз	5023
экономика	5024
источники	5025
китая	5026
подтвердил	5027
ер	5028
преде	5029
##чины	5030
обрат	5031
газеты	5032
втором	5033
зелен	5034
неоднокра	5035
сутки	5036
##ари	5037
преи	5038
государств	5039
ассоциации	5040
##ub	5041
обслужи	5042
избран	5043
##мым	5044
194	5045
связа	5046
процент	5047
ауди	5048
##шить	5049
безу	5050
##ально	5051
супер	5052
игр	5053
конкурен	5054
договори	5055
малень	5056
модели	5057
дал	5058
лон	5059
сен	5060
##джи	5061
приговор	5062
референ	5063
2010	5064
самостоятель	5065
другими	5066
порт	5067
программу	5068
сезона	5069
смарт	5070
преимуще	5071
##вад	5072
##чается	5073
##ального	5074
акци	5075
75	5076
нашли	5077
отметила	5078
##ствовали	5079
витали	5080
усили	5081
цере	5082
зав	5083
зато	5084
##тик	5085
сожал	5086
стати	5087
##лка	5088
коали	5089
домов	5090
приостанов	5091
выразил	5092
apple	5093
ая	5094
века	5095
члены	5096
признал	5097
максим	5098
бед	5099
жил	5100
##вов	5101
##ot	5102
измени	5103
##пом	5104
местных	5105
регионального	5106
ова	5107
ува	5108
##нос	5109
##образ	5110
##ствием	5111
новым	5112
политике	5113
кампании	5114
дерев	5115
посвящен	5116
урегули	5117
ась	5118
джа	5119
##нется	5120
пересе	5121
мурманск	5122
дени	5123
ля	5124
пя	5125
##енные	5126
##анией	5127
назв	5128
##енок	5129
террористов	5130
прогре	5131
ель	5132
ока	5133
хилла	5134
##шений	5135
депутата	5136
издания	5137
хиллари	5138
двое	5139
елена	5140
##цем	5141
##циональ	5142
##стаи	5143
##байд	5144
провин	5145
помочь	5146
снизи	5147
горя	5148
регионах	5149
##зербайд	5150
азербайд	5151
оа	5152
##ссы	5153
##зывают	5154
196	5155
контракт	5156
экстреми	5157
al	5158
чрез	5159
воспо	5160
имя	5161
делам	5162
партия	5163
мнение	5164
провел	5165
предприятий	5166
кризиса	5167
телекан	5168
добычи	5169
удоб	5170
вен	5171
иметь	5172
##тим	5173
привы	5174
##ительного	5175
конс	5176
##тых	5177
анка	5178
прошло	5179
всему	5180
автомобили	5181
установлен	5182
55	5183
нашего	5184
##сколько	5185
выяв	5186
марки	5187
предусматри	5188
жить	5189
ина	5190
##кат	5191
##страи	5192
брать	5193
радика	5194
посоль	5195
умень	5196
##щаться	5197
##шении	5198
##ъек	5199
##скор	5200
вось	5201
##циям	5202
прошед	5203
кажется	5204
заседания	5205
ремонт	5206
cap	5207
##эн	5208
##ема	5209
экспорт	5210
экспертов	5211
редак	5212
подмосков	5213
ному	5214
однов	5215
менедж	5216
работал	5217
ставки	5218
группировки	5219
террористической	5220
##бург	5221
одновременно	5222
##лки	5223
##зий	5224
правил	5225
знаком	5226
экономической	5227
главным	5228
##яться	5229
премьера	5230
крайне	5231
ским	5232
смыс	5233
фар	5234
##ано	5235
##ваку	5236
##чек	5237
момента	5238
прошли	5239
смерт	5240
сотрудничества	5241
восемь	5242
иванов	5243
холод	5244
##емые	5245
##дам	5246
##зирован	5247
##няют	5248
сева	5249
совещ	5250
петр	5251
войск	5252
контроля	5253
##ав	5254
принимать	5255
рождения	5256
компьют	5257
спецслуж	5258
расходов	5259
000	5260
ощу	5261
насколько	5262
ресто	5263
дает	5264
жив	5265
реализов	5266
лат	5267
уж	5268
хри	5269
##маться	5270
деб	5271
задержали	5272
задача	5273
удар	5274
эксплу	5275
концер	5276
":	5277
пригово	5278
стрель	5279
?"	5280
лен	5281
обви	5282
##рукт	5283
##ственные	5284
писа	5285
##гового	5286
американского	5287
нарушение	5288
здраво	5289
##ght	5290
церемо	5291
##тб	5292
##жде	5293
сери	5294
##ителями	5295
##лыш	5296
американский	5297
алта	5298
должности	5299
петербурга	5300
эваку	5301
##шкин	5302
боро	5303
стара	5304
павел	5305
войска	5306
программ	5307
журналистам	5308
аэропорта	5309
следственного	5310
газпром	5311
болгарии	5312
замо	5313
стоя	5314
глаза	5315
виру	5316
огня	5317
структуры	5318
экологи	5319
обнаружили	5320
##ген	5321
отри	5322
создания	5323
относительно	5324
##декса	5325
режиссер	5326
##жеб	5327
арми	5328
значительно	5329
ближайшие	5330
партне	5331
лондо	5332
подвер	5333
##менте	5334
историю	5335
траг	5336
американской	5337
эксперти	5338
прибыль	5339
товаров	5340
палаты	5341
середин	5342
лин	5343
сед	5344
##яр	5345
отли	5346
сть	5347
госс	5348
июле	5349
прокуратура	5350
компенса	5351
ван	5352
разде	5353
##ряс	5354
онлайн	5355
дис	5356
повед	5357
сообщал	5358
регион	5359
цели	5360
##ющихся	5361
земель	5362
инстру	5363
августе	5364
говоря	5365
мэр	5366
события	5367
распростра	5368
##лий	5369
прошел	5370
##атья	5371
семья	5372
показатель	5373
генеральный	5374
полицейские	5375
##фикации	5376
вариант	5377
мигрантов	5378
брон	5379
кат	5380
##коном	5381
##лец	5382
##наб	5383
камер	5384
##ственного	5385
бес	5386
вопросов	5387
школь	5388
отставку	5389
вашингто	5390
фр	5391
понять	5392
##мира	5393
привед	5394
журна	5395
политической	5396
торговли	5397
появилась	5398
дове	5399
##ах	5400
##бр	5401
##шему	5402
##зай	5403
тера	5404
кир	5405
территорию	5406
продаж	5407
спокой	5408
очередной	5409
динами	5410
севасто	5411
ано	5412
эн	5413
##стров	5414
##голо	5415
##итут	5416
револю	5417
##нял	5418
##альных	5419
##ательства	5420
базе	5421
будущем	5422
употреб	5423
телеканал	5424
##чью	5425
коль	5426
закуп	5427
##рованию	5428
##фина	5429
общего	5430
национального	5431
субъек	5432
ввп	5433
сахали	5434
неоднократно	5435
трагеди	5436
сче	5437
кост	5438
##ляли	5439
мае	5440
силь	5441
##шают	5442
хочу	5443
англи	5444
последних	5445
обещ	5446
статье	5447
италии	5448
весьма	5449
воспит	5450
ий	5451
татья	5452
##енности	5453
кому	5454
##щики	5455
разные	5456
инжен	5457
##стане	5458
прай	5459
программе	5460
дмитрия	5461
условий	5462
спектак	5463
li	5464
свы	5465
##роваться	5466
любов	5467
газете	5468
граждане	5469
крыму	5470
намерен	5471
позднее	5472
вяче	5473
иль	5474
##льской	5475
##гой	5476
гораз	5477
каб	5478
кандидата	5479
пассажир	5480
сканда	5481
гораздо	5482
устанавли	5483
##овых	5484
мона	5485
лай	5486
норве	5487
выяснилось	5488
здравоохран	5489
te	5490
##ешь	5491
изъ	5492
соглас	5493
другим	5494
проекты	5495
позицию	5496
пострадали	5497
отказался	5498
напада	5499
свыше	5500
млад	5501
шей	5502
поря	5503
знаю	5504
вторы	5505
борту	5506
отделения	5507
музыкан	5508
ввод	5509
твер	5510
##тит	5511
##жным	5512
настро	5513
##лам	5514
150	5515
двумя	5516
институт	5517
магази	5518
статисти	5519
tw	5520
кнд	5521
ух	5522
##чности	5523
случи	5524
произошед	5525
заседание	5526
##начально	5527
неожи	5528
впере	5529
активов	5530
подчерки	5531
сократи	5532
учреждения	5533
##руктур	5534
вин	5535
##цент	5536
коп	5537
консуль	5538
имп	5539
развитию	5540
предлагает	5541
примор	5542
48	5543
вене	5544
##ликт	5545
прост	5546
##виду	5547
предмет	5548
2009	5549
направления	5550
множе	5551
государственных	5552
конфликт	5553
услуги	5554
арбитраж	5555
вряд	5556
зоне	5557
цы	5558
##коми	5559
##стоит	5560
игру	5561
плохо	5562
обеспечи	5563
отрасли	5564
лы	5565
проголо	5566
##чают	5567
серии	5568
марк	5569
вернуть	5570
прокуратуры	5571
вооруженных	5572
севастопо	5573
ведет	5574
среднем	5575
людям	5576
доходов	5577
регуля	5578
взрыва	5579
потеря	5580
шоу	5581
дональд	5582
середине	5583
кндр	5584
##ph	5585
##ходили	5586
числа	5587
целе	5588
начать	5589
порядке	5590
прогноз	5591
объявил	5592
плюс	5593
втб	5594
юго	5595
яро	5596
##жду	5597
завед	5598
##ждать	5599
##проку	5600
украинского	5601
ать	5602
##мс	5603
прес	5604
##ссию	5605
кады	5606
инвали	5607
международный	5608
команди	5609
класси	5610
немного	5611
стоимости	5612
делега	5613
второго	5614
абсолютно	5615
задолжен	5616
пото	5617
##амы	5618
руки	5619
диск	5620
новоси	5621
крат	5622
оказалась	5623
внутренних	5624
правило	5625
on	5626
подпи	5627
мастер	5628
##тического	5629
клиентов	5630
проведение	5631
едино	5632
боевики	5633
оружие	5634
de	5635
уника	5636
##рению	5637
прибли	5638
минима	5639
##сила	5640
обеспечить	5641
опубликован	5642
оппозиции	5643
##сант	5644
##кут	5645
подъ	5646
номер	5647
возника	5648
##щается	5649
##споко	5650
ближ	5651
городской	5652
льго	5653
##рового	5654
северной	5655
ориенти	5656
отре	5657
##сия	5658
дизай	5659
мужчины	5660
чемпионате	5661
отдела	5662
##ехать	5663
здоровья	5664
da	5665
квали	5666
коре	5667
##гий	5668
спра	5669
страш	5670
чеч	5671
##жала	5672
арест	5673
##ступили	5674
наконец	5675
сожалению	5676
новосибир	5677
ров	5678
##лак	5679
странице	5680
##ритет	5681
##анами	5682
##ябрь	5683
пило	5684
здание	5685
миллиардов	5686
вертолет	5687
аэропорту	5688
есте	5689
жу	5690
##тива	5691
##зыв	5692
австра	5693
украинских	5694
холдин	5695
вариан	5696
квартале	5697
екатерин	5698
##провод	5699
хокке	5700
49	5701
дэ	5702
ими	5703
южно	5704
коор	5705
взрос	5706
сборная	5707
обеспечения	5708
прибыли	5709
наблюда	5710
каждого	5711
второе	5712
##рид	5713
корот	5714
прото	5715
##ровании	5716
вышел	5717
моз	5718
ность	5719
бомбар	5720
разбира	5721
мел	5722
##щают	5723
поддержке	5724
республике	5725
напомнил	5726
боевых	5727
краснодар	5728
железно	5729
кг	5730
##ber	5731
столько	5732
далеко	5733
##степ	5734
отметить	5735
генпроку	5736
ребенок	5737
собирается	5738
миллиарда	5739
##посред	5740
путем	5741
ед	5742
##енного	5743
отлич	5744
##мого	5745
мигра	5746
##альной	5747
журналист	5748
сложи	5749
генерал	5750
хими	5751
тюрь	5752
бомбарди	5753
##чность	5754
##пев	5755
полуо	5756
лес	5757
краси	5758
усил	5759
турция	5760
режиме	5761
иногда	5762
появля	5763
версия	5764
хотел	5765
пообещ	5766
ольга	5767
сопрово	5768
for	5769
вру	5770
лед	5771
заказ	5772
пресе	5773
воло	5774
##сами	5775
российском	5776
форм	5777
сложности	5778
читать	5779
44	5780
air	5781
лите	5782
##итов	5783
сор	5784
##дации	5785
##мут	5786
карьер	5787
территори	5788
заниматься	5789
концеп	5790
накоп	5791
имущества	5792
удив	5793
киеве	5794
англий	5795
39	5796
goo	5797
##станции	5798
директоров	5799
использования	5800
привати	5801
технологии	5802
информационное	5803
46	5804
65	5805
наступ	5806
заработ	5807
выгляд	5808
любы	5809
решить	5810
огонь	5811
андрея	5812
протяжении	5813
пле	5814
##жению	5815
вынес	5816
годом	5817
интересов	5818
следующий	5819
связан	5820
политических	5821
социальных	5822
совместно	5823
воспри	5824
степени	5825
##гал	5826
##ваю	5827
начало	5828
знамен	5829
последствия	5830
украинской	5831
штата	5832
анато	5833
потенциаль	5834
алексея	5835
входит	5836
сведения	5837
##лков	5838
##явля	5839
такую	5840
мария	5841
спут	5842
положение	5843
##дей	5844
##жил	5845
##ck	5846
##лина	5847
непосред	5848
##скоре	5849
можем	5850
##граф	5851
летняя	5852
парков	5853
экономике	5854
гео	5855
сирийской	5856
требует	5857
группиров	5858
корреспондент	5859
бак	5860
зим	5861
##пят	5862
##казано	5863
штат	5864
называют	5865
##itter	5866
технологий	5867
##нефть	5868
километров	5869
брюссе	5870
twitter	5871
42	5872
тал	5873
##шек	5874
пришли	5875
##сторон	5876
##пок	5877
власть	5878
##бера	5879
##тических	5880
##нг	5881
разу	5882
сид	5883
сообщение	5884
крити	5885
июне	5886
подобные	5887
инвестиций	5888
появились	5889
промышленности	5890
приобрет	5891
поклон	5892
посад	5893
эфире	5894
неожидан	5895
гром	5896
##стно	5897
##чал	5898
федеральной	5899
находя	5900
волго	5901
доходы	5902
##стойчи	5903
зависимости	5904
##гать	5905
подход	5906
пасп	5907
##цами	5908
отметим	5909
составит	5910
ранения	5911
осужден	5912
общественного	5913
туристов	5914
исламское	5915
иначе	5916
##толог	5917
природ	5918
дефиц	5919
предвы	5920
предстоит	5921
##шили	5922
##ленно	5923
сара	5924
##това	5925
##тые	5926
хоть	5927
##бели	5928
##терн	5929
странами	5930
сезоне	5931
противостоя	5932
донбассе	5933
мошенниче	5934
предвыбор	5935
впечат	5936
##ань	5937
избра	5938
секу	5939
продуктов	5940
специалистов	5941
сервис	5942
проголосов	5943
дю	5944
эль	5945
эмо	5946
##вами	5947
##бок	5948
разно	5949
получения	5950
##ровала	5951
госпитали	5952
##one	5953
событий	5954
негатив	5955
вскоре	5956
заха	5957
##ленный	5958
тамо	5959
главной	5960
расчет	5961
комиссия	5962
модер	5963
порядок	5964
47	5965
южной	5966
##жают	5967
получен	5968
вопросу	5969
руководства	5970
кубка	5971
трудно	5972
блоки	5973
завтра	5974
##стях	5975
полез	5976
ности	5977
##шается	5978
вещи	5979
группе	5980
участием	5981
спикер	5982
европейских	5983
убийство	5984
выплаты	5985
##gle	5986
##гия	5987
бом	5988
##зировать	5989
настоящий	5990
подготовки	5991
").	5992
столкнов	5993
аи	5994
вспо	5995
##бло	5996
госпо	5997
инспек	5998
опу	5999
честь	6000
говори	6001
прошла	6002
службу	6003
установить	6004
выхода	6005
конкурса	6006
трлн	6007
хозяйства	6008
##вшая	6009
##поте	6010
опрошен	6011
бай	6012
запрет	6013
повышение	6014
столь	6015
акцион	6016
границы	6017
россияне	6018
локо	6019
бюро	6020
лидеров	6021
ракеты	6022
блока	6023
глубо	6024
ii	6025
##рк	6026
##ul	6027
могла	6028
195	6029
президенту	6030
состава	6031
попыта	6032
доброво	6033
отсутствие	6034
связано	6035
охо	6036
##пп	6037
больницу	6038
##мериз	6039
американские	6040
сроки	6041
праймериз	6042
ухуд	6043
##лана	6044
подс	6045
делов	6046
каким	6047
лишения	6048
анг	6049
участвовать	6050
направлении	6051
позволя	6052
трое	6053
освобод	6054
завода	6055
договора	6056
недоста	6057
ввести	6058
##бри	6059
##фы	6060
##енной	6061
##ровер	6062
##ционные	6063
жилья	6064
получит	6065
название	6066
субси	6067
добиться	6068
увеличить	6069
##зора	6070
попытки	6071
турнира	6072
индивиду	6073
кем	6074
ски	6075
##шению	6076
##тое	6077
##онали	6078
руководством	6079
составля	6080
проверку	6081
уточнил	6082
сеть	6083
наказание	6084
болель	6085
чрезвы	6086
счетом	6087
google	6088
нара	6089
выгод	6090
подписа	6091
тело	6092
опровер	6093
зенит	6094
оптими	6095
эксплуата	6096
ас	6097
усилия	6098
набра	6099
написа	6100
повер	6101
материалы	6102
грузови	6103
##оте	6104
##жений	6105
##швили	6106
##di	6107
зара	6108
леони	6109
газо	6110
сотрудник	6111
считаю	6112
ведомство	6113
квартиры	6114
вовсе	6115
##щению	6116
привести	6117
##ительным	6118
которыми	6119
итоги	6120
лучших	6121
успех	6122
временем	6123
текущего	6124
оао	6125
чрезвычай	6126
чт	6127
##вину	6128
леген	6129
пострадавших	6130
отрас	6131
ирана	6132
очевидно	6133
рубеж	6134
##эс	6135
##стр	6136
доби	6137
меда	6138
кирил	6139
украину	6140
сделали	6141
доллара	6142
стиму	6143
##езде	6144
патриар	6145
выросла	6146
кпр	6147
ску	6148
##юк	6149
##эк	6150
нагруз	6151
##воритель	6152
##вия	6153
часа	6154
большое	6155
изменений	6156
произошла	6157
мяч	6158
железнодо	6159
кпрф	6160
бут	6161
вну	6162
##ьев	6163
настаи	6164
препод	6165
выбира	6166
##ведом	6167
статьи	6168
памяти	6169
возрасте	6170
самая	6171
news	6172
43	6173
ох	6174
##ились	6175
ночью	6176
предстоя	6177
2020	6178
пару	6179
городов	6180
занимается	6181
мероприятий	6182
прокомментировал	6183
ды	6184
дали	6185
овой	6186
плен	6187
2000	6188
##енью	6189
антон	6190
президенты	6191
многочис	6192
сын	6193
округа	6194
буква	6195
bo	6196
ировать	6197
##змом	6198
##ss	6199
вызов	6200
##ательных	6201
взгляд	6202
большую	6203
пользователей	6204
путеше	6205
керри	6206
##лые	6207
поля	6208
пройти	6209
##восто	6210
произвед	6211
использование	6212
обязательно	6213
примеру	6214
роснефти	6215
приобре	6216
хвата	6217
иска	6218
мм	6219
пох	6220
рады	6221
авторы	6222
базы	6223
семи	6224
качества	6225
резко	6226
вернуться	6227
дополнительные	6228
финансирования	6229
королев	6230
зависит	6231
исключительно	6232
виталий	6233
caption	6234
лонд	6235
ово	6236
##еся	6237
##теля	6238
сег	6239
##чена	6240
политику	6241
альтерн	6242
известиям	6243
олимпийских	6244
ограничения	6245
лондон	6246
альян	6247
вклад	6248
сформи	6249
##пред	6250
##силь	6251
рулем	6252
путь	6253
графи	6254
снижения	6255
##литель	6256
геор	6257
процесса	6258
поправки	6259
капитала	6260
амур	6261
##жить	6262
поступа	6263
##щика	6264
гривен	6265
законодательства	6266
телеканала	6267
убы	6268
хар	6269
##тс	6270
рекон	6271
##против	6272
вез	6273
##цеп	6274
новом	6275
ший	6276
био	6277
медиа	6278
транспор	6279
выступления	6280
финансовых	6281
дипломати	6282
модерни	6283
##энер	6284
застав	6285
переми	6286
##циями	6287
актри	6288
главных	6289
делает	6290
ступ	6291
соревнования	6292
солд	6293
прово	6294
третий	6295
предпоч	6296
прокуро	6297
жертв	6298
сегодняшний	6299
интернете	6300
инвесторов	6301
здравоохранения	6302
ил	6303
лей	6304
##енный	6305
подклю	6306
кав	6307
европейского	6308
выступил	6309
чиновников	6310
подписал	6311
допинг	6312
оф	6313
цене	6314
##вере	6315
##зья	6316
##лаб	6317
зака	6318
##циони	6319
##куда	6320
главой	6321
##способ	6322
верх	6323
находился	6324
проводить	6325
чемпионат	6326
автомати	6327
дуб	6328
лев	6329
устойчи	6330
##яют	6331
досто	6332
миру	6333
возле	6334
оправ	6335
суме	6336
экспери	6337
считается	6338
известный	6339
распреде	6340
интересно	6341
ожид	6342
предварительным	6343
сделки	6344
##чета	6345
изобра	6346
интересы	6347
##ровок	6348
утверждает	6349
михаила	6350
пунктов	6351
причины	6352
аварий	6353
кузнец	6354
wada	6355
##лке	6356
##яет	6357
##шло	6358
челя	6359
туда	6360
планы	6361
православ	6362
суммы	6363
сереб	6364
падения	6365
статус	6366
провинции	6367
##стры	6368
##итек	6369
отстран	6370
подрост	6371
тепло	6372
бесс	6373
случаев	6374
создан	6375
улица	6376
ведомстве	6377
поставки	6378
убийстве	6379
краснояр	6380
наталья	6381
челябин	6382
of	6383
вред	6384
гря	6385
зон	6386
мю	6387
##зой	6388
нему	6389
##ейн	6390
приез	6391
##люка	6392
перене	6393
родители	6394
ro	6395
моря	6396
##гон	6397
мок	6398
тела	6399
2019	6400
прошлой	6401
назвать	6402
класс	6403
професс	6404
понятно	6405
перспектив	6406
вероятно	6407
находились	6408
обстоятельства	6409
архитек	6410
##еть	6411
##нам	6412
##вард	6413
##щихся	6414
исследований	6415
##вшегося	6416
продолжают	6417
крупнейших	6418
en	6419
лоб	6420
##зит	6421
##кол	6422
##кина	6423
соли	6424
кури	6425
шаг	6426
возраст	6427
вороне	6428
41	6429
##гил	6430
концу	6431
опы	6432
минфин	6433
необходимость	6434
проблему	6435
потребитель	6436
креди	6437
местах	6438
##оборот	6439
аварии	6440
девять	6441
er	6442
##гани	6443
покры	6444
насто	6445
##нито	6446
рефор	6447
вылет	6448
##овое	6449
##допин	6450
взять	6451
правительстве	6452
международным	6453
антидопин	6454
правам	6455
окончатель	6456
сахалин	6457
идут	6458
экра	6459
народа	6460
##дила	6461
##дум	6462
чай	6463
основных	6464
большого	6465
внешне	6466
вечерний	6467
авиакомпании	6468
бат	6469
кэ	6470
##мана	6471
##дро	6472
##нике	6473
министров	6474
сообщают	6475
рода	6476
встречу	6477
электри	6478
существенно	6479
возраста	6480
коммуника	6481
нарушений	6482
57	6483
le	6484
ww	6485
днр	6486
##ация	6487
##ец	6488
##рог	6489
заслу	6490
граду	6491
поможет	6492
частью	6493
колонии	6494
инфраструктуры	6495
ели	6496
ых	6497
##лл	6498
##жется	6499
##ks	6500
выйти	6501
осна	6502
российское	6503
##беки	6504
лети	6505
скончался	6506
##py	6507
отличие	6508
росте	6509
##нули	6510
##ственный	6511
пусть	6512
украинские	6513
этапе	6514
класса	6515
врач	6516
устройства	6517
полагает	6518
##стрен	6519
заве	6520
##кус	6521
разо	6522
разы	6523
##сада	6524
##альный	6525
родителей	6526
резо	6527
##roup	6528
начальника	6529
присоедин	6530
##фил	6531
зак	6532
пройдут	6533
конгре	6534
лабора	6535
корпу	6536
авиации	6537
добав	6538
сохранить	6539
узбеки	6540
##эль	6541
##нив	6542
##тировать	6543
##анец	6544
произой	6545
##атай	6546
администрация	6547
кандидату	6548
машина	6549
сотрудничество	6550
съем	6551
гибдд	6552
психологи	6553
следующем	6554
tim	6555
зер	6556
##номо	6557
посту	6558
сос	6559
##ляция	6560
##ейро	6561
моро	6562
контак	6563
мама	6564
сути	6565
решений	6566
##ития	6567
назвали	6568
чемпионов	6569
списка	6570
количества	6571
банкрот	6572
оборудования	6573
животных	6574
религи	6575
ущерб	6576
резолю	6577
нрав	6578
сда	6579
улюка	6580
##рт	6581
экстрен	6582
архи	6583
основные	6584
остальные	6585
местного	6586
заключения	6587
улицы	6588
повышен	6589
идея	6590
"),	6591
кремля	6592
картины	6593
убед	6594
85	6595
ец	6596
##id	6597
постеп	6598
общем	6599
##ровой	6600
мора	6601
стары	6602
группу	6603
отношение	6604
резерв	6605
смерть	6606
борис	6607
купить	6608
предъяв	6609
аю	6610
истре	6611
потра	6612
нема	6613
слуш	6614
сотни	6615
занимает	6616
убийства	6617
избирателей	6618
чиновники	6619
афри	6620
влияние	6621
ежегодно	6622
ао	6623
дар	6624
мут	6625
дожд	6626
преодо	6627
##чества	6628
##амб	6629
##ственным	6630
##бав	6631
тему	6632
ответил	6633
2007	6634
команде	6635
врачи	6636
журналисты	6637
положения	6638
заняти	6639
угрозы	6640
специально	6641
площадь	6642
столкну	6643
следователи	6644
художе	6645
падение	6646
саудовской	6647
просьбой	6648
br	6649
ждет	6650
ирак	6651
ую	6652
##кому	6653
декла	6654
полицию	6655
данном	6656
знает	6657
говорили	6658
роди	6659
городах	6660
работников	6661
типа	6662
другом	6663
социально	6664
стартов	6665
##ехали	6666
выступает	6667
письмо	6668
злоумышлен	6669
52	6670
##чан	6671
обой	6672
опек	6673
##говари	6674
##стовер	6675
##отвра	6676
территория	6677
торже	6678
официальном	6679
джо	6680
школе	6681
подготовке	6682
исче	6683
отказались	6684
заболевания	6685
видимо	6686
въ	6687
мать	6688
##кли	6689
##лили	6690
пережи	6691
##стую	6692
компанией	6693
случаях	6694
производителей	6695
кроссов	6696
дорог	6697
городского	6698
никакого	6699
инфляции	6700
copy	6701
игроков	6702
##right	6703
соблюд	6704
татьяна	6705
copyright	6706
ались	6707
вдо	6708
ипоте	6709
##тан	6710
##te	6711
##тория	6712
##зия	6713
компози	6714
авст	6715
киева	6716
педа	6717
##рованных	6718
думы	6719
гражданской	6720
московский	6721
зоны	6722
диаг	6723
появится	6724
жанейро	6725
означает	6726
##игры	6727
локомо	6728
53	6729
джи	6730
##жная	6731
захо	6732
прохо	6733
##ранов	6734
напоминает	6735
форме	6736
шего	6737
гибели	6738
другого	6739
подтвердили	6740
фас	6741
выпуска	6742
внед	6743
##берг	6744
победа	6745
самостоятельно	6746
пообещал	6747
bl	6748
ада	6749
кова	6750
точ	6751
нибуд	6752
диску	6753
судя	6754
заверши	6755
тенни	6756
госсек	6757
нибудь	6758
шве	6759
##тки	6760
показали	6761
застрой	6762
счета	6763
петра	6764
недав	6765
гендиректор	6766
yo	6767
гим	6768
ирина	6769
лов	6770
##ид	6771
##лая	6772
##мера	6773
таком	6774
##полномо	6775
земле	6776
другое	6777
ходатай	6778
общественной	6779
региональных	6780
материалов	6781
успешно	6782
вак	6783
вете	6784
иной	6785
##ьи	6786
##ad	6787
##ve	6788
обстанов	6789
##зал	6790
представляет	6791
луган	6792
оборон	6793
источников	6794
задержаны	6795
восточной	6796
играх	6797
добро	6798
квартире	6799
пожара	6800
очков	6801
коррупции	6802
евросоюза	6803
потребов	6804
отдыха	6805
09	6806
am	6807
тео	6808
спроса	6809
знают	6810
пове	6811
центроб	6812
семье	6813
остались	6814
##щенко	6815
наука	6816
прокурор	6817
заместителя	6818
передачи	6819
молодой	6820
аук	6821
ar	6822
group	6823
удо	6824
ца	6825
##жат	6826
##шку	6827
забы	6828
вошли	6829
пересмот	6830
одному	6831
долг	6832
готова	6833
война	6834
планируют	6835
тенден	6836
писали	6837
##кель	6838
##мини	6839
отда	6840
##рыва	6841
##дует	6842
предна	6843
даге	6844
национали	6845
##лится	6846
русской	6847
чист	6848
пытаются	6849
противоре	6850
коллектив	6851
калинин	6852
жилищ	6853
воспользов	6854
араб	6855
еж	6856
оке	6857
фей	6858
##дц	6859
##хан	6860
##эй	6861
##года	6862
проходят	6863
мос	6864
предотвра	6865
##писы	6866
##гранич	6867
российско	6868
компанию	6869
##хоз	6870
учени	6871
ших	6872
направлен	6873
китае	6874
существую	6875
объяснил	6876
дональда	6877
белоруссии	6878
фракции	6879
бороться	6880
отриц	6881
овая	6882
##рома	6883
##дино	6884
номина	6885
##ительное	6886
друзья	6887
##летряс	6888
печ	6889
действие	6890
украинский	6891
землетряс	6892
защите	6893
русского	6894
играть	6895
подобных	6896
видно	6897
евгения	6898
нападения	6899
ввс	6900
идти	6901
истреб	6902
ув	6903
уполномо	6904
##стат	6905
нами	6906
наме	6907
##кали	6908
##ссель	6909
##стической	6910
ребя	6911
изначально	6912
боя	6913
участков	6914
курса	6915
космо	6916
продолжается	6917
фун	6918
тяжело	6919
париже	6920
запрос	6921
константин	6922
фра	6923
##стных	6924
изо	6925
структур	6926
##чики	6927
вело	6928
существов	6929
блок	6930
рабочих	6931
госсекрета	6932
600	6933
##om	6934
##ительную	6935
##ждению	6936
долги	6937
осталось	6938
отец	6939
самолетов	6940
##видеть	6941
похоже	6942
коллеги	6943
температура	6944
валерий	6945
эрдоган	6946
безуслов	6947
буквально	6948
снима	6949
##циона	6950
##пой	6951
представля	6952
##чук	6953
продукты	6954
каждой	6955
принадлежит	6956
сомн	6957
www	6958
ающий	6959
сар	6960
сказ	6961
##кор	6962
##нау	6963
##менов	6964
иннова	6965
комфор	6966
парк	6967
орган	6968
##ложить	6969
нужда	6970
операция	6971
месторо	6972
брат	6973
единая	6974
появился	6975
острова	6976
увеличение	6977
давление	6978
бирже	6979
восьми	6980
таможен	6981
800	6982
##рели	6983
##лева	6984
большим	6985
техника	6986
источника	6987
атмос	6988
богат	6989
сна	6990
##нх	6991
##ge	6992
показал	6993
##кал	6994
зале	6995
веще	6996
##бах	6997
##вяз	6998
слово	6999
##надзор	7000
предприятие	7001
серьезно	7002
потерпев	7003
полицейских	7004
девушка	7005
учитывая	7006
недвижимости	7007
апел	7008
век	7009
упла	7010
##эт	7011
нашим	7012
выб	7013
анто	7014
##итив	7015
связь	7016
назначения	7017
располага	7018
молодых	7019
предполагается	7020
вашингтон	7021
потенци	7022
наверное	7023
избежать	7024
лондоне	7025
вину	7026
тов	7027
эпо	7028
##снаб	7029
запла	7030
проспек	7031
през	7032
премии	7033
повтор	7034
джей	7035
проводится	7036
исправ	7037
русский	7038
прогнози	7039
финансирование	7040
километ	7041
церкви	7042
регулярно	7043
педаго	7044
it	7045
ают	7046
мемо	7047
ол	7048
уме	7049
##дером	7050
перено	7051
началась	7052
бара	7053
сына	7054
григо	7055
растет	7056
подразделения	7057
ждать	7058
мск	7059
сча	7060
##ляться	7061
принес	7062
органах	7063
знамени	7064
клиента	7065
благот	7066
внимания	7067
##градской	7068
терактов	7069
обратился	7070
считать	7071
реконструк	7072
игил	7073
квад	7074
##ci	7075
пошли	7076
##тая	7077
вышли	7078
##газ	7079
пау	7080
актуаль	7081
музей	7082
курор	7083
лагер	7084
безопасность	7085
добавля	7086
прекращения	7087
требований	7088
западе	7089
поколения	7090
патру	7091
множество	7092
кров	7093
уста	7094
##спи	7095
сад	7096
лечение	7097
европу	7098
встрет	7099
крупные	7100
затра	7101
черного	7102
попал	7103
различные	7104
соревнований	7105
полномочий	7106
взыск	7107
сфер	7108
налог	7109
##риз	7110
##руем	7111
домой	7112
секрет	7113
вмеш	7114
запрещена	7115
намерены	7116
задачи	7117
зарплаты	7118
отказаться	7119
категории	7120
бит	7121
овых	7122
рен	7123
титу	7124
юби	7125
##ака	7126
##пс	7127
пот	7128
##рик	7129
общая	7130
##лями	7131
какое	7132
осенью	7133
служеб	7134
анна	7135
москви	7136
действует	7137
ведо	7138
дважды	7139
дорожного	7140
молда	7141
европейской	7142
память	7143
захв	7144
фотографии	7145
хак	7146
##жением	7147
##шой	7148
нелега	7149
##нести	7150
##андат	7151
самм	7152
экономических	7153
получат	7154
меркель	7155
никак	7156
концерт	7157
рейтинг	7158
психи	7159
египет	7160
обсуд	7161
поверх	7162
религиоз	7163
вре	7164
увидеть	7165
##лла	7166
##анного	7167
##лига	7168
общий	7169
разгово	7170
комн	7171
вида	7172
большие	7173
будущее	7174
вопроса	7175
целях	7176
создании	7177
мнения	7178
повышения	7179
эффект	7180
искусства	7181
принадлежа	7182
десятки	7183
упал	7184
капитал	7185
военнослужащих	7186
федо	7187
дже	7188
древ	7189
##нопо	7190
наличи	7191
заем	7192
соци	7193
отря	7194
##рована	7195
плане	7196
услов	7197
делают	7198
продаже	7199
продажу	7200
##ющиеся	7201
оценки	7202
нужны	7203
фигуран	7204
брига	7205
##ниторин	7206
втора	7207
пти	7208
шар	7209
##бек	7210
##еха	7211
##хл	7212
поним	7213
дея	7214
193	7215
самар	7216
детям	7217
станут	7218
шай	7219
заявлении	7220
востока	7221
оценкам	7222
греции	7223
штаб	7224
соцсет	7225
обязанности	7226
алтай	7227
вторая	7228
впос	7229
пры	7230
сно	7231
сказали	7232
##вития	7233
обру	7234
дочь	7235
##вига	7236
##ледствии	7237
перм	7238
участок	7239
##ложил	7240
база	7241
испы	7242
испан	7243
##ess	7244
документе	7245
малы	7246
форума	7247
останется	7248
ярослав	7249
литера	7250
постепенно	7251
впоследствии	7252
входят	7253
##тный	7254
##сер	7255
зал	7256
долю	7257
бывает	7258
нидер	7259
больнице	7260
телеви	7261
конец	7262
лидеры	7263
валенти	7264
предприниматель	7265
максимально	7266
fi	7267
##але	7268
##бан	7269
##анси	7270
##гора	7271
доли	7272
достой	7273
##ссив	7274
мекси	7275
остаются	7276
высокой	7277
лучший	7278
футболу	7279
уверены	7280
свидете	7281
фестиваля	7282
хватает	7283
##тран	7284
##gra	7285
##рации	7286
поток	7287
больницы	7288
новогод	7289
представить	7290
платить	7291
обвинение	7292
клад	7293
преступлений	7294
пытались	7295
хотели	7296
инцидента	7297
десятилети	7298
and	7299
##вят	7300
##лым	7301
примет	7302
##мая	7303
##шими	7304
такси	7305
##ителю	7306
пеше	7307
действовать	7308
судья	7309
отношению	7310
библи	7311
книги	7312
любовь	7313
екатеринбур	7314
la	7315
жк	7316
ической	7317
сэ	7318
##ус	7319
##лод	7320
##фона	7321
наоборот	7322
робо	7323
стен	7324
стек	7325
ками	7326
##тым	7327
полном	7328
результата	7329
русская	7330
нашу	7331
протеста	7332
нужна	7333
посмотреть	7334
немало	7335
вроде	7336
##мод	7337
пога	7338
##татом	7339
##воро	7340
мото	7341
переста	7342
##ленного	7343
повто	7344
главная	7345
последнего	7346
голос	7347
продемон	7348
генерального	7349
единственный	7350
желание	7351
динамо	7352
выглядит	7353
продемонстри	7354
днев	7355
ждут	7356
уход	7357
фан	7358
##кри	7359
##рист	7360
##ствова	7361
досро	7362
##оби	7363
развер	7364
своему	7365
средне	7366
федеральный	7367
сыр	7368
идеи	7369
пытается	7370
коммуна	7371
правильно	7372
коммерсант	7373
весной	7374
фестиваль	7375
утверждают	7376
вспом	7377
иркут	7378
безусловно	7379
ические	7380
##жали	7381
##льского	7382
прос	7383
обамы	7384
гостей	7385
##ательной	7386
открытие	7387
этап	7388
##енностей	7389
доллар	7390
креп	7391
компьютер	7392
08	7393
дани	7394
сбо	7395
##щений	7396
##овал	7397
##ержа	7398
##нием	7399
рано	7400
предложен	7401
##сив	7402
##суди	7403
повест	7404
##шены	7405
полной	7406
риск	7407
госде	7408
центральной	7409
гаранти	7410
коалиции	7411
дисци	7412
импорт	7413
бомбардиров	7414
##зод	7415
начи	7416
##рим	7417
зао	7418
соз	7419
прочи	7420
##ляются	7421
прият	7422
моя	7423
##зию	7424
ников	7425
##скать	7426
границу	7427
министром	7428
основании	7429
получать	7430
##вшийся	7431
изменить	7432
старший	7433
сокращение	7434
инфек	7435
идею	7436
паралимпи	7437
квартир	7438
мяг	7439
результатам	7440
филип	7441
публикации	7442
координа	7443
iph	7444
зуб	7445
рисков	7446
##жо	7447
##ik	7448
##вало	7449
страх	7450
250	7451
ограничен	7452
визита	7453
предложили	7454
исчез	7455
iphone	7456
оскор	7457
##фонов	7458
контин	7459
долга	7460
видов	7461
новостей	7462
военный	7463
енный	7464
качество	7465
заключен	7466
связанные	7467
показать	7468
предлагают	7469
обязательства	7470
привлечь	7471
претенд	7472
верховной	7473
оперативно	7474
патрио	7475
армия	7476
vi	7477
юр	7478
##сети	7479
##чете	7480
##рое	7481
##щими	7482
инду	7483
белого	7484
решению	7485
полтора	7486
офиц	7487
политик	7488
собственности	7489
объекты	7490
inter	7491
постановление	7492
устройство	7493
пакет	7494
грозит	7495
взятки	7496
предназна	7497
кле	7498
##бил	7499
##банк	7500
##ay	7501
##тика	7502
мониторин	7503
опро	7504
главу	7505
##ствию	7506
противодей	7507
операцию	7508
отношениях	7509
областной	7510
сенатор	7511
удовлетвор	7512
мутко	7513
крови	7514
лек	7515
уп	7516
хан	7517
##енным	7518
##рике	7519
##атся	7520
непро	7521
обя	7522
допро	7523
годам	7524
бок	7525
##ательств	7526
границе	7527
ведут	7528
числен	7529
остался	7530
людьми	7531
установлено	7532
великой	7533
процессе	7534
##ступила	7535
праздник	7536
взаи	7537
районах	7538
заметил	7539
долгосро	7540
магазин	7541
95	7542
ись	7543
ить	7544
лд	7545
##зинов	7546
##нав	7547
зачем	7548
отказыва	7549
розы	7550
какая	7551
##ремя	7552
правления	7553
будущего	7554
связаны	7555
содей	7556
мурманска	7557
начнут	7558
снизить	7559
звон	7560
реаги	7561
регистрации	7562
названием	7563
times	7564
дне	7565
диз	7566
##стся	7567
деше	7568
вино	7569
мусуль	7570
##стрее	7571
значи	7572
необходимые	7573
советского	7574
енные	7575
проводит	7576
политического	7577
##вшихся	7578
финансовые	7579
содержание	7580
турнир	7581
питания	7582
потребу	7583
настолько	7584
ежед	7585
##син	7586
заработа	7587
##сторо	7588
##жном	7589
летней	7590
рыно	7591
порту	7592
искать	7593
связанных	7594
штур	7595
окружа	7596
лицо	7597
атлети	7598
предпринимателей	7599
писал	7600
евросоюз	7601
рознич	7602
вячеслав	7603
захарова	7604
благотворитель	7605
##ьет	7606
##жут	7607
##таж	7608
препят	7609
##дик	7610
202	7611
либера	7612
лука	7613
фильме	7614
попасть	7615
нынешнего	7616
замминистра	7617
игоря	7618
золото	7619
получается	7620
##сятся	7621
замороз	7622
вперед	7623
уполномочен	7624
##жную	7625
##нина	7626
созн	7627
проф	7628
##валось	7629
##вающих	7630
роско	7631
##село	7632
##тех	7633
лидером	7634
сало	7635
##альные	7636
миллион	7637
##развития	7638
науки	7639
минэконом	7640
неуда	7641
минэкономразвития	7642
66	7643
##лле	7644
##ершен	7645
##кает	7646
реша	7647
мои	7648
воздей	7649
российскую	7650
руках	7651
##совершен	7652
проведении	7653
врача	7654
проверка	7655
объясняет	7656
ликвиди	7657
инженер	7658
воронеж	7659
оли	7660
слыш	7661
подели	7662
замп	7663
##ссу	7664
дают	7665
акция	7666
певи	7667
клим	7668
наук	7669
закону	7670
пытался	7671
театр	7672
поставок	7673
олимпиаде	7674
пресечения	7675
взаимо	7676
зампред	7677
рит	7678
##сор	7679
##тору	7680
регла	7681
российскими	7682
решением	7683
дум	7684
операций	7685
надежда	7686
опубликовал	7687
ученых	7688
обязательств	7689
попросил	7690
дальнейшем	7691
корпоратив	7692
опрошенных	7693
атом	7694
исте	7695
опол	7696
##чением	7697
пой	7698
рок	7699
росту	7700
стани	7701
долгов	7702
взно	7703
взор	7704
судом	7705
стороне	7706
результатов	7707
насле	7708
удастся	7709
продю	7710
законом	7711
округе	7712
оценке	7713
серьезные	7714
пользователи	7715
бесплат	7716
письма	7717
медведе	7718
финансовой	7719
молодежи	7720
академии	7721
05	7722
67	7723
##шед	7724
колон	7725
##руя	7726
пришел	7727
вышла	7728
миро	7729
симп	7730
властями	7731
вадим	7732
обращения	7733
##шенко	7734
минзд	7735
рим	7736
дороге	7737
официального	7738
исследователь	7739
предлагается	7740
чиновник	7741
светлана	7742
получают	7743
гонки	7744
афгани	7745
урал	7746
музея	7747
is	7748
илья	7749
нп	7750
##ft	7751
приме	7752
быстрее	7753
##гина	7754
##ателю	7755
дама	7756
румы	7757
рубль	7758
##ложения	7759
детьми	7760
родился	7761
коррек	7762
офис	7763
центрального	7764
благодар	7765
продви	7766
врачей	7767
старт	7768
занял	7769
аэропорт	7770
медицинской	7771
окончания	7772
кадров	7773
николая	7774
энергетики	7775
стандарт	7776
знаменит	7777
товар	7778
54	7779
лод	7780
уйти	7781
поку	7782
наше	7783
##ляцию	7784
##стиан	7785
##нят	7786
тура	7787
живет	7788
карты	7789
ранен	7790
надежды	7791
сократить	7792
общественных	7793
прекрас	7794
мэра	7795
штаба	7796
оборудование	7797
выросли	7798
швейца	7799
денис	7800
предусматривает	7801
кавказ	7802
профессор	7803
56	7804
гро	7805
устраи	7806
##аги	7807
##чке	7808
наличие	7809
выраж	7810
нос	7811
могло	7812
120	7813
##ort	7814
исследование	7815
1990	7816
пункта	7817
предполагает	7818
визит	7819
машину	7820
испытания	7821
замеч	7822
экипажа	7823
mar	7824
вкла	7825
ищ	7826
сити	7827
устран	7828
цар	7829
##ran	7830
расти	7831
##ленной	7832
проекте	7833
телевид	7834
помощник	7835
преследов	7836
длитель	7837
ужа	7838
##щал	7839
##сель	7840
##овые	7841
недель	7842
отс	7843
##чали	7844
##тели	7845
##гает	7846
посред	7847
видим	7848
арс	7849
духов	7850
готовности	7851
сообщило	7852
мурманской	7853
народного	7854
угроза	7855
грип	7856
мировых	7857
церков	7858
аравии	7859
прозра	7860
77	7861
банд	7862
кс	7863
мани	7864
хле	7865
ясно	7866
копи	7867
нес	7868
дону	7869
прис	7870
изоб	7871
##слава	7872
позитив	7873
третье	7874
третьего	7875
воздуха	7876
смотреть	7877
отечественной	7878
небольшой	7879
традиционно	7880
вынужден	7881
чечни	7882
ребята	7883
ического	7884
сним	7885
эсто	7886
##хват	7887
##bc	7888
##думы	7889
##ковой	7890
подвод	7891
суток	7892
виду	7893
больших	7894
обращение	7895
среднего	7896
водителя	7897
электроэнер	7898
исходя	7899
товари	7900
отвечает	7901
приоритет	7902
совершил	7903
сюжет	7904
флота	7905
топлива	7906
лдпр	7907
аются	7908
дем	7909
ическая	7910
опа	7911
овые	7912
##ation	7913
бокс	7914
возму	7915
планах	7916
получение	7917
состоялась	7918
здании	7919
футбол	7920
чисто	7921
борьбу	7922
голосование	7923
тренера	7924
отдельных	7925
бориса	7926
эпизод	7927
ический	7928
нд	7929
счаст	7930
##зак	7931
##дить	7932
##цар	7933
поп	7934
привет	7935
##главы	7936
турцию	7937
открыто	7938
населенных	7939
попали	7940
замглавы	7941
травмы	7942
теракта	7943
представителями	7944
смеш	7945
платфор	7946
екатерина	7947
костю	7948
кадыров	7949
саратов	7950
госпожа	7951
провока	7952
адап	7953
очи	7954
явно	7955
##ерва	7956
пребы	7957
моей	7958
властям	7959
трево	7960
полков	7961
пик	7962
приняла	7963
генна	7964
никакой	7965
предоставить	7966
белорусс	7967
аиф	7968
азии	7969
длин	7970
физ	7971
фанта	7972
##мед	7973
##енность	7974
##нился	7975
обжа	7976
обнарод	7977
вызывает	7978
посла	7979
сделан	7980
##собра	7981
продоволь	7982
пенсии	7983
состоит	7984
объявлен	7985
пропаган	7986
контракта	7987
мельдо	7988
рестора	7989
генпрокура	7990
заксобра	7991
51	7992
62	7993
se	7994
нского	7995
ябло	7996
солн	7997
##валась	7998
отка	7999
каре	8000
мирового	8001
##шив	8002
##чивать	8003
##альным	8004
##ательные	8005
анге	8006
началось	8007
повлия	8008
федеральных	8009
воду	8010
2006	8011
городских	8012
##ine	8013
груз	8014
ins	8015
активы	8016
объявили	8017
поддерживает	8018
демонстри	8019
артист	8020
бразилии	8021
рп	8022
ске	8023
##um	8024
соко	8025
##стила	8026
роса	8027
##кович	8028
вир	8029
лечения	8030
начались	8031
тема	8032
заключение	8033
обсуждения	8034
роснефть	8035
появилось	8036
транспортных	8037
спокойно	8038
пешеход	8039
ex	8040
фаль	8041
##жки	8042
##li	8043
потери	8044
налого	8045
отклю	8046
выстре	8047
разобра	8048
стабили	8049
ужесто	8050
лега	8051
данной	8052
значение	8053
##озгла	8054
объектив	8055
сверд	8056
достигну	8057
солне	8058
песни	8059
озву	8060
гражданин	8061
брюсселе	8062
оскорб	8063
59	8064
двер	8065
ленты	8066
ржд	8067
шам	8068
##цова	8069
##льности	8070
заво	8071
забра	8072
проходи	8073
##жим	8074
послу	8075
##жены	8076
барак	8077
последним	8078
состоялся	8079
сексу	8080
пояснили	8081
дополнительных	8082
аналитики	8083
шансы	8084
баррелей	8085
олимпиады	8086
гимна	8087
ает	8088
входя	8089
ез	8090
##тур	8091
##илот	8092
индии	8093
##пись	8094
##жности	8095
ослаб	8096
решать	8097
ведется	8098
основания	8099
высокий	8100
состоянию	8101
голоса	8102
надеюсь	8103
самолеты	8104
беспилот	8105
поздрав	8106
рейтинге	8107
ресурсов	8108
париж	8109
профилак	8110
зрителей	8111
схем	8112
жкх	8113
начиная	8114
64	8115
sa	8116
оса	8117
тщ	8118
##ик	8119
##йн	8120
##хам	8121
##локи	8122
информи	8123
перечис	8124
банке	8125
полгода	8126
сотрудниками	8127
управлении	8128
открытия	8129
политические	8130
счету	8131
польши	8132
времена	8133
начнется	8134
законопроекта	8135
кремле	8136
обратиться	8137
живут	8138
подверг	8139
приведет	8140
brent	8141
mer	8142
боб	8143
езд	8144
снг	8145
хват	8146
погод	8147
поедин	8148
##лога	8149
проход	8150
разъ	8151
получает	8152
серти	8153
ситуацией	8154
третьем	8155
запуск	8156
задей	8157
партнеров	8158
силовые	8159
норматив	8160
дисципли	8161
хор	8162
##ай	8163
изготов	8164
##стая	8165
обозна	8166
показывает	8167
владимиру	8168
списке	8169
четверть	8170
обсудили	8171
фами	8172
образование	8173
достижения	8174
потребителей	8175
народной	8176
звезда	8177
##знать	8178
виктора	8179
мечта	8180
владелец	8181
асада	8182
блю	8183
яцен	8184
##зен	8185
##анным	8186
##низ	8187
проник	8188
##емым	8189
##нера	8190
голу	8191
##баров	8192
решении	8193
организацию	8194
расстоя	8195
производитель	8196
этапа	8197
собственной	8198
надежду	8199
##гант	8200
спортсмены	8201
квартиру	8202
превышает	8203
областного	8204
атаки	8205
наказания	8206
уволь	8207
кнр	8208
пожи	8209
поисков	8210
##рией	8211
соба	8212
##гистра	8213
опять	8214
жесто	8215
термина	8216
плана	8217
финлян	8218
правозащит	8219
гражданам	8220
земля	8221
каждом	8222
огне	8223
применения	8224
полагают	8225
вдруг	8226
поиска	8227
митин	8228
справедливо	8229
лицензии	8230
приватизации	8231
дефицит	8232
леонид	8233
кирилл	8234
02	8235
##бель	8236
##чется	8237
опере	8238
тульской	8239
средняя	8240
многом	8241
нормы	8242
подал	8243
выставка	8244
сверх	8245
аппарата	8246
армей	8247
оказывается	8248
непосредственно	8249
градусов	8250
sh	8251
брос	8252
ех	8253
одино	8254
цвета	8255
##co	8256
##потреб	8257
##выми	8258
##ждена	8259
##кера	8260
##жая	8261
полуго	8262
ваго	8263
##прият	8264
еврокоми	8265
соглашений	8266
карто	8267
принятия	8268
##шихся	8269
встрети	8270
войне	8271
подтвержда	8272
позиция	8273
анализ	8274
задач	8275
туристи	8276
голод	8277
признать	8278
минуты	8279
вырази	8280
шанс	8281
любом	8282
инвесторы	8283
артем	8284
73	8285
дат	8286
лета	8287
##иков	8288
##ллек	8289
##ьте	8290
##vi	8291
##ард	8292
подчин	8293
мега	8294
переме	8295
одни	8296
дисп	8297
расска	8298
экономику	8299
адре	8300
правительством	8301
владимиром	8302
коллег	8303
сектора	8304
единиц	8305
специалист	8306
предоста	8307
продолжать	8308
университет	8309
поддерживать	8310
рекомендов	8311
имущество	8312
формирования	8313
египта	8314
интеллек	8315
венесу	8316
солдат	8317
дли	8318
опис	8319
ового	8320
пово	8321
##стин	8322
подар	8323
рада	8324
доктор	8325
##постав	8326
##енте	8327
тара	8328
бесед	8329
работо	8330
хотим	8331
планов	8332
территорий	8333
2004	8334
государственный	8335
занимал	8336
ставка	8337
европейский	8338
аналитик	8339
довер	8340
заблоки	8341
покинуть	8342
полномочия	8343
держа	8344
магнит	8345
эвакуи	8346
58	8347
##зли	8348
поро	8349
##лера	8350
разве	8351
индекс	8352
сиби	8353
глаз	8354
##ционным	8355
банком	8356
судов	8357
пилот	8358
обоснов	8359
лучшие	8360
испании	8361
путиным	8362
достаточ	8363
нашем	8364
минуте	8365
введения	8366
демократической	8367
памятник	8368
фирмы	8369
нанес	8370
злоупотреб	8371
07	8372
76	8373
вкс	8374
жена	8375
куд	8376
пал	8377
пента	8378
сви	8379
##вд	8380
##шко	8381
нав	8382
##дуют	8383
##мах	8384
фикси	8385
регионы	8386
направлены	8387
объеме	8388
министерстве	8389
население	8390
частично	8391
прекратить	8392
разработки	8393
нижегород	8394
вынуждены	8395
подозреваемых	8396
другая	8397
экстремист	8398
естественно	8399
квадрат	8400
ическое	8401
кня	8402
шим	8403
пун	8404
василь	8405
##вян	8406
открыл	8407
школ	8408
пострадал	8409
исполнения	8410
выполнения	8411
объявила	8412
требуется	8413
заявлял	8414
случайно	8415
помогает	8416
докладе	8417
реформы	8418
ушел	8419
цу	8420
чп	8421
##кей	8422
##sj	8423
##ke	8424
покупа	8425
проигра	8426
##ково	8427
##суа	8428
парка	8429
финал	8430
америки	8431
кримина	8432
войну	8433
шара	8434
периода	8435
мурманске	8436
михай	8437
намерена	8438
ростовской	8439
реклам	8440
звезды	8441
константи	8442
половине	8443
договорились	8444
церемонии	8445
задолженности	8446
достоин	8447
печати	8448
72	8449
ый	8450
##цо	8451
##хой	8452
##нами	8453
проявля	8454
доклад	8455
волон	8456
##полу	8457
разрабаты	8458
сирию	8459
силами	8460
осмот	8461
артил	8462
правительству	8463
проведет	8464
проводят	8465
обеспечение	8466
показатели	8467
объемы	8468
путину	8469
народный	8470
##oom	8471
диалог	8472
нападение	8473
препаратов	8474
половины	8475
поступило	8476
анатолий	8477
артилле	8478
охран	8479
трой	8480
швед	8481
юлия	8482
##de	8483
##латно	8484
неве	8485
непра	8486
выходит	8487
выдели	8488
подзем	8489
всероссий	8490
##жив	8491
##ственная	8492
оппон	8493
стоят	8494
черном	8495
поставить	8496
площадью	8497
беремен	8498
канала	8499
недоволь	8500
минус	8501
хотелось	8502
валюты	8503
соцсети	8504
седь	8505
свердлов	8506
sta	8507
борт	8508
вли	8509
кис	8510
тере	8511
##мей	8512
##хин	8513
прояв	8514
мост	8515
##вец	8516
##сии	8517
##сист	8518
селе	8519
средней	8520
районов	8521
многое	8522
школу	8523
заключается	8524
показания	8525
продукцию	8526
ставропо	8527
##оряд	8528
вернулся	8529
культура	8530
##повед	8531
девяти	8532
железнодоро	8533
99	8534
ающих	8535
мк	8536
##мбу	8537
##лям	8538
приступ	8539
тест	8540
одерж	8541
саака	8542
начался	8543
экспорта	8544
шая	8545
сделано	8546
определить	8547
##all	8548
угрозу	8549
собираются	8550
канад	8551
собрания	8552
товары	8553
принципи	8554
начинает	8555
армении	8556
поручил	8557
##вшейся	8558
портал	8559
сбербанка	8560
трагедии	8561
стимули	8562
буты	8563
паралимпий	8564
жителям	8565
снять	8566
убит	8567
##гры	8568
##юр	8569
##вились	8570
##лую	8571
новин	8572
строго	8573
руководителей	8574
жизн	8575
двусторон	8576
соответствует	8577
защиту	8578
ставку	8579
бюджетных	8580
борьба	8581
подозрева	8582
спасатели	8583
крайней	8584
язык	8585
неизвестно	8586
взяли	8587
охраны	8588
интегра	8589
перспективы	8590
высказы	8591
заранее	8592
саакашвили	8593
700	8594
##цкий	8595
кот	8596
заба	8597
рад	8598
стамбу	8599
первен	8600
акку	8601
скому	8602
участии	8603
поддержал	8604
научно	8605
закончи	8606
штате	8607
временно	8608
прямой	8609
возглавил	8610
заметно	8611
казалось	8612
договоренности	8613
привело	8614
ведущих	8615
спраши	8616
рубежом	8617
серебря	8618
ато	8619
ающие	8620
##опера	8621
##жь	8622
##читься	8623
##нической	8624
выжи	8625
##мас	8626
разговор	8627
##няются	8628
сел	8629
села	8630
##изо	8631
##люб	8632
данного	8633
автоном	8634
основная	8635
петро	8636
смогла	8637
ряде	8638
проверить	8639
называется	8640
бесплатно	8641
наиболь	8642
коммунист	8643
здоровье	8644
стратегии	8645
требуют	8646
отоз	8647
комментариев	8648
01	8649
68	8650
or	8651
астро	8652
дил	8653
уде	8654
эми	8655
##яг	8656
##фу	8657
##sc	8658
похи	8659
ство	8660
##май	8661
##сел	8662
рубрике	8663
серде	8664
##хождения	8665
риска	8666
информацией	8667
2005	8668
плот	8669
человеку	8670
поддержать	8671
продать	8672
фильмов	8673
инвестиции	8674
голову	8675
смысле	8676
отреаги	8677
карьеру	8678
мюнх	8679
испыты	8680
po	8681
ур	8682
эли	8683
##иль	8684
##нолет	8685
пон	8686
##ницей	8687
несовершен	8688
закреп	8689
резид	8690
переработ	8691
майд	8692
##бии	8693
экономические	8694
строить	8695
крупном	8696
##ank	8697
обыгра	8698
объекта	8699
космод	8700
торговых	8701
сирийского	8702
мвф	8703
правоохранительные	8704
соответствующие	8705
решила	8706
характери	8707
герои	8708
помещения	8709
перспективе	8710
казахстана	8711
несовершеннолет	8712
vol	8713
дель	8714
нском	8715
юрия	8716
закан	8717
обсе	8718
моста	8719
##луй	8720
поднима	8721
разработа	8722
##рят	8723
дава	8724
аргу	8725
средний	8726
лау	8727
агентству	8728
врата	8729
секретаря	8730
празднич	8731
традиции	8732
вероятность	8733
причине	8734
хуже	8735
причастности	8736
мемори	8737
69	8738
олега	8739
щих	8740
##тек	8741
##рай	8742
##нились	8743
корей	8744
отца	8745
##ительная	8746
автова	8747
хочется	8748
арка	8749
бабу	8750
сообщали	8751
священ	8752
рыб	8753
возможных	8754
основным	8755
управлением	8756
американская	8757
установили	8758
заключил	8759
отделение	8760
начнет	8761
применя	8762
оставить	8763
выставки	8764
килограм	8765
финансового	8766
ветер	8767
текст	8768
льгот	8769
преподав	8770
внешнеполи	8771
##gram	8772
04	8773
клет	8774
##жья	8775
начин	8776
коз	8777
##екта	8778
лиди	8779
скорой	8780
полета	8781
взгля	8782
получении	8783
дорого	8784
торгово	8785
хабаров	8786
джор	8787
угле	8788
окончательно	8789
жертвами	8790
ресурс	8791
аппарат	8792
разведки	8793
израиль	8794
взаимодействия	8795
##ube	8796
неожиданно	8797
произойдет	8798
##ворота	8799
ази	8800
флаг	8801
##юри	8802
##ax	8803
##дами	8804
призыва	8805
выезд	8806
подви	8807
теп	8808
пас	8809
васили	8810
турцией	8811
создана	8812
хороший	8813
успеха	8814
играет	8815
большинства	8816
ислами	8817
нынешнем	8818
высказа	8819
инициативы	8820
красной	8821
выполнять	8822
ремонта	8823
совершении	8824
спасти	8825
десятков	8826
скандал	8827
режиссера	8828
фронта	8829
сообщества	8830
посольства	8831
дисквали	8832
профсою	8833
th	8834
us	8835
##логов	8836
радо	8837
##вах	8838
откуда	8839
вор	8840
реп	8841
##ковых	8842
кала	8843
рабочей	8844
осве	8845
политолог	8846
##овая	8847
относятся	8848
проекту	8849
работали	8850
надзор	8851
лучшим	8852
фондов	8853
национальный	8854
собственных	8855
цену	8856
объема	8857
##менил	8858
запуска	8859
полноцен	8860
инициативу	8861
единственным	8862
едва	8863
патриарх	8864
пункт	8865
чуд	8866
шпи	8867
##вшем	8868
##ноп	8869
##торое	8870
##лию	8871
кодекса	8872
##рур	8873
прино	8874
##ментом	8875
старо	8876
опрос	8877
полит	8878
рассчит	8879
судей	8880
##долго	8881
игре	8882
154	8883
факты	8884
портре	8885
имена	8886
##ателями	8887
ценности	8888
некоторое	8889
грузии	8890
площадке	8891
уточняется	8892
мероприятие	8893
шоссе	8894
рассмотрение	8895
медицинских	8896
введение	8897
добычу	8898
скорость	8899
поражение	8900
выиграл	8901
азербайдж	8902
фрг	8903
mo	8904
нской	8905
овый	8906
узнать	8907
##тед	8908
##шил	8909
##льп	8910
облига	8911
консу	8912
красо	8913
риски	8914
организаторы	8915
вслед	8916
тормо	8917
человеком	8918
биат	8919
террористы	8920
терроризмом	8921
благополу	8922
сборную	8923
признали	8924
ведомств	8925
ожидает	8926
немед	8927
ссыла	8928
##ced	8929
исход	8930
выступая	8931
используют	8932
напрямую	8933
швейцар	8934
азербайджан	8935
ио	8936
овым	8937
##нение	8938
##кл	8939
##хат	8940
позна	8941
##редо	8942
проезд	8943
мера	8944
последов	8945
##ственное	8946
сувер	8947
друж	8948
пуска	8949
импор	8950
детских	8951
международные	8952
смолен	8953
канц	8954
признался	8955
молодые	8956
поселке	8957
важней	8958
вооруженные	8959
построить	8960
##utube	8961
посол	8962
##ung	8963
компенсации	8964
вторых	8965
секун	8966
узбекистана	8967
youtube	8968
нидерланд	8969
74	8970
ева	8971
##устрой	8972
извин	8973
##чивается	8974
беспо	8975
##пром	8976
ваш	8977
ким	8978
киров	8979
миню	8980
взял	8981
писто	8982
участки	8983
участка	8984
открыть	8985
матви	8986
местной	8987
##хии	8988
добавила	8989
октябрь	8990
##ite	8991
продолжит	8992
событи	8993
внести	8994
пожалуй	8995
скорости	8996
развивать	8997
механизм	8998
разбиратель	8999
##гана	9000
##строва	9001
непло	9002
##нару	9003
собо	9004
социали	9005
##дах	9006
приехал	9007
моно	9008
##бон	9009
каком	9010
комеди	9011
##жие	9012
малого	9013
таджи	9014
возме	9015
базов	9016
##ционер	9017
водителей	9018
правонару	9019
республик	9020
продукт	9021
барсело	9022
оценку	9023
оценить	9024
паралле	9025
налога	9026
германия	9027
западной	9028
прогноза	9029
констати	9030
избирательной	9031
требованиям	9032
высокопостав	9033
хоккей	9034
ущер	9035
кореи	9036
актриса	9037
матвиенко	9038
ия	9039
йо	9040
оска	9041
сказано	9042
улья	9043
шут	9044
##оном	9045
погранич	9046
залож	9047
стадии	9048
##тую	9049
спон	9050
осо	9051
еврови	9052
арк	9053
минфина	9054
экономический	9055
встреч	9056
участке	9057
открыли	9058
срока	9059
опубликовано	9060
концов	9061
разрешения	9062
характера	9063
демонстра	9064
полуостров	9065
валентина	9066
евровид	9067
пья	9068
уступ	9069
яну	9070
нац	9071
заг	9072
запис	9073
отвер	9074
откро	9075
бывших	9076
##мал	9077
тебя	9078
перекры	9079
"...	9080
##щаются	9081
экспо	9082
##льному	9083
случаи	9084
производители	9085
целый	9086
тимо	9087
московском	9088
происходя	9089
объект	9090
угрозой	9091
законодательство	9092
современных	9093
подробности	9094
признан	9095
сотрудничестве	9096
одномандат	9097
женщину	9098
девушки	9099
обследов	9100
всемирного	9101
йорк	9102
сбербанк	9103
христиан	9104
разуме	9105
63	9106
wsj	9107
двой	9108
##чился	9109
##фт	9110
##такт	9111
добра	9112
привел	9113
выве	9114
##писи	9115
даст	9116
диви	9117
газов	9118
представлены	9119
базу	9120
экспор	9121
адмира	9122
картин	9123
украиной	9124
учения	9125
находиться	9126
известных	9127
матчей	9128
строительству	9129
строительстве	9130
рейс	9131
некоторым	9132
морской	9133
попытка	9134
сельского	9135
относится	9136
откров	9137
напряжен	9138
знать	9139
недвижимость	9140
смысл	9141
спецслужбы	9142
ились	9143
мете	9144
ые	9145
##берт	9146
##рении	9147
показа	9148
пойдет	9149
##рила	9150
##голь	9151
прок	9152
призы	9153
выступили	9154
мосу	9155
севере	9156
191	9157
карт	9158
продав	9159
развитии	9160
связана	9161
подготовку	9162
северного	9163
рассмотрения	9164
запада	9165
студентов	9166
севастополя	9167
госпитализи	9168
be	9169
di	9170
вход	9171
оре	9172
шла	9173
##жур	9174
##ровка	9175
роспо	9176
##маз	9177
мака	9178
дистан	9179
последу	9180
обратно	9181
последней	9182
оборот	9183
пласти	9184
платы	9185
официальной	9186
государственные	9187
землю	9188
##ландии	9189
командов	9190
продолжить	9191
объединения	9192
структура	9193
исламского	9194
чувств	9195
удоволь	9196
влияния	9197
выдвину	9198
бельгии	9199
автобус	9200
мальчик	9201
зарубежных	9202
вирус	9203
случилось	9204
улюкаев	9205
merced	9206
роспотреб	9207
mercedes	9208
bm	9209
аем	9210
уско	9211
шев	9212
##шков	9213
побы	9214
##мог	9215
##зис	9216
серий	9217
возгора	9218
чему	9219
авторов	9220
президентских	9221
жилье	9222
детали	9223
госдуме	9224
##надзора	9225
выступление	9226
квартал	9227
инициативе	9228
гражданина	9229
наращи	9230
прокурора	9231
венесуэ	9232
go	9233
ня	9234
нский	9235
эд	9236
юно	9237
##реди	9238
коти	9239
заго	9240
просит	9241
##скоп	9242
розыск	9243
выйдет	9244
медали	9245
личности	9246
##фик	9247
совете	9248
полузащит	9249
##стребов	9250
##овало	9251
франция	9252
составили	9253
авиау	9254
скром	9255
занимаются	9256
сокращения	9257
герман	9258
третья	9259
крест	9260
##декват	9261
обстоятельств	9262
предположительно	9263
##berg	9264
разумеется	9265
un	9266
вэ	9267
гали	9268
драм	9269
лнр	9270
хло	9271
эй	9272
##ющую	9273
##gy	9274
##лизации	9275
запас	9276
сопротив	9277
пробе	9278
##ссо	9279
мотор	9280
##жела	9281
какую	9282
##турой	9283
вел	9284
сухо	9285
мысли	9286
трассе	9287
четко	9288
четверо	9289
федеральном	9290
учитель	9291
международном	9292
респонд	9293
##шиеся	9294
гидро	9295
третьей	9296
опасности	9297
адвоката	9298
упомя	9299
остановить	9300
колес	9301
маршрут	9302
фронт	9303
mail	9304
йорке	9305
сигнал	9306
журнала	9307
ет	9308
мг	9309
упро	9310
##ющее	9311
пойти	9312
##лят	9313
нож	9314
предше	9315
##няли	9316
перемен	9317
руку	9318
возмож	9319
целей	9320
американцы	9321
канал	9322
передать	9323
##емости	9324
хорошие	9325
социальные	9326
трудо	9327
размещен	9328
сайта	9329
сетях	9330
незаконно	9331
подозреваемый	9332
удовлетво	9333
запланирован	9334
единоро	9335
нравится	9336
сырье	9337
опаса	9338
обжалов	9339
лауре	9340
pro	9341
уте	9342
##пет	9343
##льность	9344
проще	9345
общ	9346
рожде	9347
##вим	9348
##дук	9349
##держала	9350
будто	9351
акцию	9352
можете	9353
сотрудника	9354
##ждая	9355
тихо	9356
nov	9357
видит	9358
покупки	9359
внешней	9360
следственный	9361
соответствующий	9362
любви	9363
допусти	9364
выводу	9365
героев	9366
сюда	9367
процедуры	9368
спецслужб	9369
латвии	9370
теракт	9371
сосредо	9372
презента	9373
кладби	9374
подозреваемого	9375
xx	9376
ируют	9377
улы	9378
упра	9379
##шке	9380
##рита	9381
моти	9382
##гию	9383
предска	9384
миссии	9385
интен	9386
отметив	9387
дорогу	9388
готовится	9389
состояния	9390
республика	9391
ныне	9392
##and	9393
получилось	9394
собственно	9395
зданий	9396
банковской	9397
правоохранители	9398
появление	9399
героя	9400
травм	9401
одесс	9402
острове	9403
лекарства	9404
произошедшего	9405
талант	9406
скид	9407
ожидания	9408
bloom	9409
ведомости	9410
библиоте	9411
jo	9412
sk	9413
гекта	9414
офф	9415
рем	9416
снего	9417
##гур	9418
##eing	9419
поезда	9420
##гона	9421
соору	9422
примут	9423
##завод	9424
каи	9425
кафе	9426
ники	9427
магистра	9428
органами	9429
нова	9430
обез	9431
##рья	9432
международная	9433
запретить	9434
позволяют	9435
преступление	9436
содержа	9437
максиму	9438
анализа	9439
воздух	9440
туризма	9441
машине	9442
обнаружены	9443
оказаться	9444
референдума	9445
революции	9446
столкновения	9447
boeing	9448
атмосфер	9449
присво	9450
##стера	9451
оби	9452
##руются	9453
придержи	9454
вошел	9455
##чество	9456
##кови	9457
лиге	9458
честно	9459
##ательный	9460
орен	9461
баз	9462
знал	9463
среды	9464
жиль	9465
сотрудникам	9466
америке	9467
составить	9468
##вардии	9469
созданию	9470
видели	9471
следующего	9472
меняется	9473
советской	9474
изменение	9475
успел	9476
председателем	9477
ing	9478
создавать	9479
золота	9480
восстановить	9481
защитник	9482
понимаю	9483
заболеваний	9484
девочка	9485
стадиона	9486
пациентов	9487
башнефти	9488
катастрофы	9489
предвыборной	9490
альтернатив	9491
мусульман	9492
bloomberg	9493
su	9494
света	9495
##нс	9496
##литься	9497
##льва	9498
заку	9499
заложен	9500
##тила	9501
##анин	9502
##вав	9503
отрав	9504
##обла	9505
##седе	9506
рассу	9507
партию	9508
позволи	9509
##виден	9510
обсуждение	9511
конкурсе	9512
энергии	9513
пользоваться	9514
##agen	9515
текущем	9516
давления	9517
индий	9518
бензин	9519
сомне	9520
ликвидации	9521
спартак	9522
охот	9523
зону	9524
баталь	9525
ra	9526
бата	9527
вкон	9528
звание	9529
ош	9530
сизо	9531
указал	9532
##ован	9533
нано	9534
проходить	9535
обход	9536
##мое	9537
контакт	9538
возро	9539
вещ	9540
экза	9541
треб	9542
туре	9543
менять	9544
##торами	9545
политиков	9546
итогов	9547
поддержка	9548
школа	9549
дальнего	9550
тяж	9551
реализацию	9552
аэроф	9553
##вшиеся	9554
##такте	9555
пришла	9556
страхования	9557
инициатива	9558
захват	9559
газпрома	9560
персональ	9561
муниципальных	9562
корпорации	9563
конституции	9564
мужчину	9565
выросло	9566
доклада	9567
линей	9568
доверия	9569
недостаточно	9570
дизель	9571
вконтакте	9572
ировали	9573
сово	9574
ть	9575
устав	9576
##илась	9577
понимать	9578
рестав	9579
делом	9580
знаем	9581
расстре	9582
участниками	9583
имел	9584
рынки	9585
мерт	9586
черно	9587
русских	9588
отдел	9589
версию	9590
прибыл	9591
стоимостью	9592
принципе	9593
.),	9594
республиканской	9595
заняла	9596
полуострова	9597
легендар	9598
волонтер	9599
bmw	9600
совокуп	9601
88	9602
ала	9603
ается	9604
тво	9605
хро	9606
нев	9607
##монопо	9608
##невно	9609
##менту	9610
##овок	9611
##енту	9612
посл	9613
##филь	9614
видеть	9615
##ательного	9616
новому	9617
правя	9618
##шено	9619
нужен	9620
овского	9621
лукой	9622
руководству	9623
большей	9624
цело	9625
##tal	9626
очереди	9627
побере	9628
енко	9629
использованием	9630
командой	9631
##est	9632
поясняет	9633
антимонопо	9634
площадки	9635
манче	9636
смяг	9637
переговорах	9638
верховный	9639
комментарии	9640
сценарий	9641
реабили	9642
приложение	9643
возникает	9644
тюрьмы	9645
написала	9646
космонав	9647
коммерсантъ	9648
ульянов	9649
zr	9650
опо	9651
сана	9652
тар	9653
цев	9654
##пед	9655
настав	9656
##лежа	9657
короб	9658
речи	9659
месту	9660
##сий	9661
орб	9662
фифа	9663
грамот	9664
значения	9665
центров	9666
живу	9667
детский	9668
военную	9669
чемпиона	9670
штатов	9671
памфил	9672
подчеркнула	9673
анаста	9674
ареста	9675
западных	9676
процессу	9677
выполнить	9678
близких	9679
магазинов	9680
щий	9681
соперника	9682
ворота	9683
поездки	9684
девочки	9685
комментировать	9686
изъя	9687
подписали	9688
ущерба	9689
);	9690
гам	9691
уведом	9692
##чений	9693
выгля	9694
сты	9695
индекса	9696
ставок	9697
бег	9698
друзей	9699
##ентами	9700
организацией	9701
руководители	9702
остальных	9703
ближе	9704
курд	9705
активность	9706
герой	9707
барнау	9708
позиций	9709
покупать	9710
слабо	9711
турецких	9712
##ницах	9713
британского	9714
болгар	9715
дипломат	9716
захар	9717
эконом	9718
функции	9719
арестован	9720
платежей	9721
сердца	9722
lif	9723
вещества	9724
наличии	9725
03	9726
con	9727
жене	9728
сур	9729
склады	9730
##нт	9731
##рных	9732
##лист	9733
##рович	9734
выигры	9735
##виль	9736
боли	9737
разб	9738
ница	9739
пао	9740
паки	9741
##ровав	9742
известен	9743
рынках	9744
месяцы	9745
поддержали	9746
частных	9747
компаниями	9748
собственные	9749
крушения	9750
хирур	9751
выплат	9752
оружием	9753
недопу	9754
съемо	9755
сцене	9756
оплаты	9757
картина	9758
пространства	9759
разобраться	9760
fl	9761
бла	9762
др	9763
ини	9764
пр	9765
##ion	9766
##ету	9767
##ровку	9768
мих	9769
тали	9770
##града	9771
дивиден	9772
бас	9773
москвой	9774
##тические	9775
взлет	9776
судна	9777
импера	9778
однажды	9779
поблаго	9780
местный	9781
интересу	9782
советник	9783
защита	9784
социального	9785
европейские	9786
пояснила	9787
пятер	9788
выступал	9789
введен	9790
рассматривает	9791
владельцев	9792
муниципалит	9793
вдвое	9794
альянса	9795
вдох	9796
диагно	9797
поблагода	9798
::	9799
pe	9800
sam	9801
алась	9802
гг	9803
очки	9804
##ий	9805
##ыв	9806
##гат	9807
просят	9808
востребов	9809
романа	9810
масса	9811
весе	9812
муль	9813
кух	9814
облад	9815
знаете	9816
государством	9817
имму	9818
##кономики	9819
вода	9820
обеих	9821
составляют	9822
официальным	9823
кредиты	9824
реализу	9825
волод	9826
специальные	9827
банковских	9828
попытке	9829
эффективности	9830
каждому	9831
сервиса	9832
обратились	9833
зимой	9834
выдви	9835
активисты	9836
саудовская	9837
аравия	9838
минэкономики	9839
контр	9840
донецкой	9841
менеджер	9842
улицах	9843
наследия	9844
##sche	9845
василий	9846
ался	9847
фбр	9848
яку	9849
##сан	9850
##торе	9851
##ладель	9852
небе	9853
запо	9854
##дара	9855
доль	9856
доступа	9857
такими	9858
сильный	9859
сибир	9860
##новения	9861
##жается	9862
гага	9863
данное	9864
бах	9865
полный	9866
строя	9867
думать	9868
продавать	9869
добавив	9870
восток	9871
днях	9872
отдельно	9873
игроки	9874
сетей	9875
спортивных	9876
##ложили	9877
электронной	9878
воздушного	9879
путешествия	9880
наблюдения	9881
указывает	9882
урегулирования	9883
потенциал	9884
госдеп	9885
##озглашен	9886
78	9887
fo	9888
pr	9889
дз	9890
ежем	9891
здо	9892
ических	9893
сбу	9894
чар	9895
##ьков	9896
рек	9897
##чева	9898
мик	9899
полученных	9900
новго	9901
плод	9902
возможностей	9903
семен	9904
ответить	9905
официальные	9906
видел	9907
зоо	9908
подозрению	9909
##ческими	9910
нынешний	9911
заводе	9912
содержания	9913
скажем	9914
неизвестные	9915
ключевых	9916
финала	9917
доказательства	9918
поведение	9919
кирги	9920
швеции	9921
воспользоваться	9922
мосгор	9923
as	9924
ания	9925
хам	9926
шту	9927
##вшую	9928
##шит	9929
##ct	9930
нава	9931
кодекс	9932
##тию	9933
рецеп	9934
##див	9935
##менко	9936
бого	9937
##альное	9938
страной	9939
дала	9940
##мысла	9941
авший	9942
компет	9943
данному	9944
##ативно	9945
общее	9946
принят	9947
дорогах	9948
назем	9949
##местить	9950
сроком	9951
компаниям	9952
##кнул	9953
затруд	9954
##ющийся	9955
намного	9956
большинстве	9957
размещения	9958
миллиардер	9959
турецкие	9960
##графии	9961
##ily	9962
демократов	9963
учреждений	9964
напит	9965
зарплат	9966
подопе	9967
владельцы	9968
иденти	9969
судьи	9970
алкоголя	9971
болезни	9972
родственников	9973
сердце	9974
прогресс	9975
##емато	9976
сопровожда	9977
медаль	9978
кузнецов	9979
комфорт	9980
ежедневно	9981
вкладов	9982
азербайджана	9983
op	9984
вклады	9985
##зму	9986
##ером	9987
##гель	9988
##генти	9989
##шал	9990
наро	9991
кори	9992
заста	9993
##тацию	9994
воин	9995
реформа	9996
дежур	9997
##чила	9998
давать	9999
папа	10000
192	10001
##контро	10002
группой	10003
украинская	10004
почет	10005
плав	10006
официальных	10007
интересах	10008
активности	10009
резон	10010
аэс	10011
мирных	10012
остаться	10013
планеты	10014
уточняет	10015
недалеко	10016
рассмотреть	10017
транспортного	10018
принимают	10019
понят	10020
рейтинга	10021
одежды	10022
организовать	10023
языка	10024
взяла	10025
виновным	10026
форум	10027
записи	10028
выручка	10029
сигна	10030
англии	10031
велоси	10032
ежемеся	10033
блог	10034
лом	10035
пье	10036
руд	10037
##зме	10038
##явили	10039
##цом	10040
побо	10041
помен	10042
##нас	10043
прогу	10044
изби	10045
##стья	10046
##скет	10047
##нования	10048
часы	10049
аргенти	10050
границ	10051
началом	10052
европа	10053
людми	10054
надеется	10055
восточный	10056
##ard	10057
внеза	10058
ирака	10059
отменить	10060
белых	10061
претензии	10062
хули	10063
препараты	10064
широко	10065
отоп	10066
арбитражный	10067
холдинг	10068
любые	10069
##ational	10070
экспози	10071
lo	10072
so	10073
нко	10074
сцен	10075
удержи	10076
фрук	10077
##пно	10078
##фель	10079
##эм	10080
непре	10081
зача	10082
##емати	10083
выста	10084
быт	10085
##зион	10086
личной	10087
конфи	10088
##жили	10089
опроса	10090
гай	10091
необы	10092
футбола	10093
прекрасно	10094
серьезных	10095
увеличения	10096
законодательству	10097
голланд	10098
принимает	10099
пишут	10100
профессиона	10101
отставке	10102
стратегических	10103
корпорация	10104
форуме	10105
половина	10106
практике	10107
конкуренции	10108
австралии	10109
наблюдается	10110
добавляет	10111
португа	10112
медведева	10113
разъяс	10114
адмирал	10115
ft	10116
жителя	10117
##пан	10118
##лился	10119
##тировал	10120
реформ	10121
издели	10122
веществ	10123
экстра	10124
##ющими	10125
кибер	10126
двадц	10127
математи	10128
автомобиле	10129
##етии	10130
установки	10131
выходные	10132
однозна	10133
покупку	10134
хозяева	10135
оставаться	10136
турнире	10137
пенсионного	10138
судебных	10139
другую	10140
аренду	10141
представил	10142
потребовал	10143
гк	10144
остро	10145
шин	10146
##ул	10147
##евич	10148
поду	10149
##лине	10150
неред	10151
проез	10152
отход	10153
##вича	10154
компро	10155
лице	10156
сессии	10157
мад	10158
##граде	10159
ослож	10160
важных	10161
дорога	10162
необходимых	10163
гражданского	10164
направлений	10165
члена	10166
политический	10167
баланс	10168
набере	10169
моду	10170
заместителем	10171
инициатив	10172
внутренней	10173
олимпийского	10174
сторонников	10175
устройств	10176
бельгий	10177
предложила	10178
павла	10179
субъектов	10180
локомотив	10181
манчестер	10182
sams	10183
82	10184
##шением	10185
зап	10186
дочер	10187
посети	10188
##ательство	10189
##сова	10190
##совета	10191
бух	10192
представление	10193
знали	10194
детского	10195
формы	10196
енных	10197
благоприят	10198
определенные	10199
контролем	10200
медики	10201
известий	10202
денежных	10203
соответствующее	10204
возглав	10205
редко	10206
калифор	10207
вузов	10208
%),	10209
интернета	10210
цифры	10211
камчат	10212
экипаж	10213
норвеж	10214
нападающий	10215
воспринима	10216
перемирия	10217
реконструкции	10218
сферы	10219
соцсетях	10220
ритей	10221
швейцарии	10222
шарап	10223
неправи	10224
зона	10225
огла	10226
##сбу	10227
##квар	10228
##льф	10229
непод	10230
доче	10231
прине	10232
пристав	10233
репу	10234
##кул	10235
##няка	10236
##теат	10237
##ательным	10238
фило	10239
самопров	10240
башки	10241
высокие	10242
провела	10243
##ступает	10244
улиц	10245
объемов	10246
инфляция	10247
закрыть	10248
турецкого	10249
театре	10250
колеб	10251
свидетельствуют	10252
ограничений	10253
подмосковье	10254
делегации	10255
мозга	10256
группировка	10257
газопровод	10258
многочисленные	10259
приобрести	10260
биатло	10261
зачастую	10262
аться	10263
вно	10264
ич	10265
кво	10266
ович	10267
стив	10268
щего	10269
##шт	10270
созыва	10271
прокат	10272
##ровке	10273
личность	10274
тести	10275
дивер	10276
нус	10277
овский	10278
последствий	10279
городу	10280
##ers	10281
считаем	10282
двум	10283
биологи	10284
победитель	10285
енной	10286
задержания	10287
фаво	10288
фабри	10289
достичь	10290
выступать	10291
1991	10292
мясо	10293
областях	10294
легкоат	10295
экспертизы	10296
daily	10297
проголосовали	10298
заверил	10299
xi	10300
очка	10301
##ba	10302
##стит	10303
##енное	10304
##рика	10305
приро	10306
мотива	10307
##куль	10308
ноги	10309
перечень	10310
севе	10311
##продук	10312
экску	10313
действуют	10314
##хозя	10315
вопросом	10316
старта	10317
легкой	10318
возвращения	10319
самих	10320
поводом	10321
восстановление	10322
выводы	10323
понимают	10324
##ash	10325
практика	10326
пальми	10327
обслуживания	10328
камеры	10329
монасты	10330
иниции	10331
экскур	10332
##хозяй	10333
me	10334
валь	10335
нена	10336
оказать	10337
##жер	10338
##ствовала	10339
##ровых	10340
реест	10341
бон	10342
бога	10343
##гают	10344
##ственную	10345
таб	10346
##иску	10347
##ционную	10348
минских	10349
минтран	10350
оснований	10351
производству	10352
удары	10353
имели	10354
увели	10355
потерял	10356
подписан	10357
питер	10358
редже	10359
лекарств	10360
совещании	10361
вашингтона	10362
сильнее	10363
tele	10364
вторым	10365
подчеркивает	10366
виртуаль	10367
gl	10368
итель	10369
пого	10370
##корей	10371
застре	10372
##вающие	10373
дешев	10374
##совест	10375
парке	10376
бази	10377
основного	10378
жид	10379
служб	10380
обеспоко	10381
вторую	10382
настоящему	10383
идеологи	10384
меньшей	10385
реальности	10386
беспоряд	10387
турецкой	10388
золотой	10389
отправить	10390
тайи	10391
допустить	10392
ираке	10393
запрещенной	10394
электронных	10395
гендиректора	10396
кабинета	10397
референдум	10398
снизилась	10399
хоккеи	10400
##ult	10401
опроверг	10402
insta	10403
нередко	10404
ed	10405
ирую	10406
##каун	10407
общую	10408
приказ	10409
##шир	10410
чечен	10411
рук	10412
гастро	10413
знак	10414
печат	10415
главные	10416
известного	10417
заявку	10418
окна	10419
направление	10420
следующей	10421
енная	10422
средизем	10423
предложением	10424
проводятся	10425
улицу	10426
старту	10427
##надц	10428
стихи	10429
антироссий	10430
планета	10431
пенсионер	10432
технических	10433
расширя	10434
посетителей	10435
рассчитывает	10436
процедура	10437
убежден	10438
эпидеми	10439
комментируя	10440
топливо	10441
выбрать	10442
казахстан	10443
паспорт	10444
саммита	10445
счастли	10446
азиат	10447
метео	10448
at	10449
гю	10450
плей	10451
яй	10452
##шель	10453
##хим	10454
##эр	10455
набира	10456
##лав	10457
раду	10458
прину	10459
##вол	10460
##невосто	10461
##мали	10462
аккаун	10463
андер	10464
лебе	10465
обрабо	10466
обладает	10467
учета	10468
готовность	10469
следствием	10470
боевой	10471
использовали	10472
собственного	10473
русские	10474
ходу	10475
ходить	10476
повысить	10477
ребят	10478
иностранные	10479
действиях	10480
реально	10481
опасность	10482
##близи	10483
отказалась	10484
олимпийский	10485
эффективность	10486
##образов	10487
письме	10488
приема	10489
свето	10490
присоеди	10491
обвинил	10492
согласился	10493
формате	10494
секунд	10495
составляла	10496
везде	10497
работод	10498
сибири	10499
респондентов	10500
79	10501
вит	10502
впло	10503
осад	10504
сал	10505
труп	10506
удерж	10507
##тите	10508
##жье	10509
##se	10510
##льский	10511
ответа	10512
комбин	10513
##товых	10514
гав	10515
##леть	10516
этими	10517
горожан	10518
владивосто	10519
готовит	10520
победил	10521
предложений	10522
затрат	10523
существуют	10524
деятельностью	10525
обсуждать	10526
кредитных	10527
передаче	10528
ракета	10529
чиновника	10530
массовой	10531
поселка	10532
манев	10533
разрешение	10534
информационной	10535
допуска	10536
восстановления	10537
верховного	10538
капитан	10539
вуза	10540
%).	10541
футболист	10542
конструктив	10543
кинемато	10544
протоко	10545
эксплуатации	10546
скульп	10547
екатеринбурге	10548
минздра	10549
instagram	10550
вплоть	10551
71	10552
жар	10553
ирует	10554
ическую	10555
шере	10556
##ср	10557
##ca	10558
коэ	10559
##сек	10560
каждая	10561
##зив	10562
переворота	10563
##крат	10564
стражей	10565
гад	10566
антит	10567
новей	10568
бага	10569
рыбо	10570
осталась	10571
следить	10572
направить	10573
установлены	10574
советских	10575
боевые	10576
160	10577
фильмы	10578
##art	10579
госдума	10580
моди	10581
нарушении	10582
становятся	10583
казан	10584
департамент	10585
партнеры	10586
начинают	10587
языке	10588
независимости	10589
.).	10590
сахар	10591
наркотиков	10592
бренд	10593
полетов	10594
направил	10595
доказательств	10596
пределами	10597
холдинга	10598
чтении	10599
затраты	10600
реестр	10601
антитер	10602
астра	10603
вкус	10604
вьет	10605
гр	10606
жюри	10607
ирование	10608
учили	10609
чьи	10610
##тр	10611
##жли	10612
обман	10613
##ляем	10614
выпа	10615
##вело	10616
депо	10617
##шина	10618
линия	10619
консо	10620
##жность	10621
беско	10622
##мети	10623
мульт	10624
участвовали	10625
представлен	10626
омбуд	10627
технику	10628
основатель	10629
передви	10630
джу	10631
авиаба	10632
членом	10633
национальная	10634
другому	10635
показателей	10636
требование	10637
исполнение	10638
специальных	10639
кинотеат	10640
концент	10641
турецкий	10642
высшего	10643
##ющейся	10644
мощности	10645
отвечать	10646
попросили	10647
договоренностей	10648
физических	10649
вокза	10650
любого	10651
студенты	10652
оригина	10653
соединенных	10654
ошибки	10655
спартака	10656
договориться	10657
регулятор	10658
подростков	10659
центробанк	10660
барака	10661
выражении	10662
омбудсмен	10663
агра	10664
гит	10665
ит	10666
нерв	10667
фью	10668
шка	10669
шед	10670
юсти	10671
ющие	10672
##трк	10673
##ос	10674
##кред	10675
##дя	10676
##шов	10677
##шер	10678
наря	10679
##лизов	10680
##льтатом	10681
##вай	10682
ворот	10683
подать	10684
разг	10685
личного	10686
марок	10687
##бами	10688
мыс	10689
градо	10690
##летов	10691
скор	10692
теми	10693
результатом	10694
##ena	10695
##логии	10696
сделок	10697
медвед	10698
назвала	10699
яндекс	10700
составило	10701
получив	10702
гигант	10703
затя	10704
единого	10705
подготовка	10706
современной	10707
транспортной	10708
близкий	10709
рассматривать	10710
запрещено	10711
допинга	10712
ядерной	10713
поражения	10714
занято	10715
израиля	10716
кредитования	10717
помню	10718
наверняка	10719
приговорил	10720
квалифици	10721
вблизи	10722
##янин	10723
##пк	10724
##фр	10725
##фед	10726
##анная	10727
прися	10728
приходи	10729
точку	10730
выдерж	10731
номера	10732
##ительности	10733
##яты	10734
мужа	10735
190	10736
судно	10737
детской	10738
карл	10739
оставил	10740
форвард	10741
фактор	10742
2003	10743
журнал	10744
планирова	10745
многим	10746
футбольного	10747
лицом	10748
создали	10749
современного	10750
британский	10751
обвиняют	10752
появятся	10753
писатель	10754
спортивной	10755
протест	10756
выраст	10757
технического	10758
конкретные	10759
телефону	10760
культурного	10761
нефтяной	10762
художник	10763
консерв	10764
эмоциональ	10765
болельщиков	10766
##ksw	10767
гриппа	10768
ией	10769
пить	10770
рет	10771
яс	10772
##олог	10773
##вшему	10774
##читали	10775
##овы	10776
попра	10777
неи	10778
##сян	10779
##дела	10780
подконтро	10781
##дорож	10782
сове	10783
компон	10784
влад	10785
мусо	10786
бава	10787
темы	10788
##торам	10789
семью	10790
пети	10791
лока	10792
трибу	10793
центральный	10794
запрета	10795
резю	10796
обыски	10797
волну	10798
исполнении	10799
сирийских	10800
намерении	10801
реальных	10802
западные	10803
выяснили	10804
обучение	10805
##old	10806
дальнейшего	10807
симфе	10808
внесен	10809
исполня	10810
корабль	10811
рассчитывать	10812
республиканцев	10813
запись	10814
вертолета	10815
контролировать	10816
пациента	10817
фермер	10818
формально	10819
ленинград	10820
венг	10821
маркет	10822
фунда	10823
##ехала	10824
задействов	10825
финляндии	10826
интенсив	10827
оштра	10828
samsung	10829
кани	10830
нт	10831
нхл	10832
сд	10833
##дь	10834
##uar	10835
показала	10836
##ляю	10837
прести	10838
##нек	10839
##чаются	10840
госком	10841
лист	10842
тебе	10843
слову	10844
представляют	10845
баскет	10846
услыш	10847
крите	10848
имеется	10849
2001	10850
гражданских	10851
заявки	10852
заявлением	10853
высоким	10854
распис	10855
никому	10856
130	10857
парламенте	10858
прекращении	10859
подобного	10860
покупателей	10861
уточнили	10862
выступают	10863
штрафа	10864
медицинского	10865
важным	10866
защитить	10867
коллегами	10868
препарат	10869
сыграл	10870
завершить	10871
металлу	10872
stre	10873
реализовать	10874
партнерами	10875
кадырова	10876
задолженность	10877
кратко	10878
юбилей	10879
создает	10880
геннадий	10881
давайте	10882
немедленно	10883
антитеррори	10884
84	10885
одина	10886
тель	10887
шли	10888
##ило	10889
##щением	10890
нашел	10891
колу	10892
облег	10893
##ковые	10894
перепи	10895
посы	10896
совпа	10897
гале	10898
##сообраз	10899
новость	10900
обоих	10901
федерация	10902
родину	10903
лоша	10904
удается	10905
##ровая	10906
известны	10907
оператор	10908
местному	10909
спикера	10910
терроризма	10911
погибшего	10912
московскому	10913
никита	10914
спецна	10915
собрать	10916
белый	10917
начинается	10918
моделей	10919
ядерного	10920
процедуру	10921
обнаружено	10922
распоряжении	10923
зарегистрирован	10924
возглавлял	10925
хранения	10926
знакомый	10927
акционе	10928
альтернати	10929
обсудить	10930
900	10931
ическом	10932
юге	10933
##фек	10934
##ile	10935
##лел	10936
непо	10937
проходили	10938
##стики	10939
реани	10940
избав	10941
##извод	10942
##фим	10943
пале	10944
орлов	10945
друже	10946
ведения	10947
пище	10948
собран	10949
учред	10950
участникам	10951
ударов	10952
2002	10953
крупный	10954
ожидать	10955
оценка	10956
региональной	10957
##менили	10958
закрытия	10959
массовых	10960
действующих	10961
атаку	10962
столичного	10963
категори	10964
судьба	10965
конкретных	10966
финале	10967
##lay	10968
тарифов	10969
урожен	10970
посольство	10971
ровно	10972
предпочита	10973
консульт	10974
дочери	10975
61	10976
bg	10977
fin	10978
wor	10979
сбора	10980
свят	10981
##ес	10982
##джа	10983
##пат	10984
##равил	10985
насилия	10986
сооте	10987
##ческому	10988
##справ	10989
##дие	10990
опер	10991
виды	10992
##жена	10993
серб	10994
суды	10995
участник	10996
американцев	10997
американским	10998
системой	10999
состоялось	11000
государственную	11001
школах	11002
андже	11003
аэрод	11004
инструк	11005
музыки	11006
двери	11007
здоровью	11008
вызвали	11009
справиться	11010
книгу	11011
парламентской	11012
##лагать	11013
нефтяных	11014
устроили	11015
знания	11016
пространство	11017
увидел	11018
церемония	11019
анон	11020
вспоминает	11021
эксперимента	11022
нпф	11023
ужас	11024
volksw	11025
соотечествен	11026
volkswagen	11027
bank	11028
бре	11029
гал	11030
дата	11031
##ума	11032
##бал	11033
##пит	11034
заряд	11035
завое	11036
##тип	11037
приготов	11038
прийти	11039
изв	11040
##дию	11041
кас	11042
евра	11043
купи	11044
арсен	11045
безрабо	11046
трей	11047
##бус	11048
##ционно	11049
военным	11050
показывают	11051
##нерго	11052
членами	11053
черный	11054
старше	11055
исполнительный	11056
головы	11057
мощностью	11058
отвеча	11059
книга	11060
игрока	11061
авария	11062
сторонники	11063
огромное	11064
памятника	11065
ведущий	11066
корабля	11067
минэнерго	11068
преимущество	11069
фрс	11070
спектакль	11071
норвегии	11072
инвалидов	11073
эксплуатацию	11074
морозов	11075
соколов	11076
безработи	11077
cn	11078
иных	11079
рэ	11080
эду	11081
##yo	11082
##чков	11083
##bo	11084
нагор	11085
выработ	11086
стер	11087
какого	11088
перейти	11089
серию	11090
##енья	11091
россиянин	11092
приняты	11093
водой	11094
открытии	11095
дороже	11096
франсуа	11097
направлено	11098
180	11099
благоустрой	11100
национальных	11101
происше	11102
называет	11103
занять	11104
северная	11105
разработке	11106
полицейского	11107
замед	11108
возвращение	11109
поздно	11110
##читал	11111
отсутствия	11112
уверенность	11113
налоговых	11114
неизвестный	11115
увеличилось	11116
особое	11117
##urn	11118
матчах	11119
руслан	11120
фарма	11121
вашингтоне	11122
разоча	11123
полковник	11124
поправок	11125
ri	11126
груд	11127
##шор	11128
##ler	11129
##кио	11130
зарабаты	11131
##тике	11132
раун	11133
доказать	11134
##вилась	11135
предель	11136
камен	11137
никого	11138
линию	11139
##ленным	11140
вич	11141
агро	11142
лаг	11143
учителя	11144
проблемой	11145
львов	11146
фонды	11147
комитете	11148
резер	11149
кредита	11150
грузин	11151
исключено	11152
специальной	11153
вооружения	11154
передал	11155
дополнительно	11156
современные	11157
принимали	11158
неизбе	11159
оценивается	11160
популярных	11161
постановления	11162
литров	11163
казани	11164
сельхоз	11165
упали	11166
коррупцией	11167
желающих	11168
рекламы	11169
предусмотрено	11170
супруга	11171
отличается	11172
деловой	11173
луганской	11174
землетрясения	11175
фраг	11176
апелля	11177
таджики	11178
баскетбо	11179
mic	11180
ающая	11181
убор	11182
##лку	11183
##ллет	11184
##нан	11185
##чится	11186
пог	11187
##льцев	11188
##летом	11189
##датом	11190
обл	11191
призыв	11192
приехали	11193
токио	11194
изде	11195
##вий	11196
ства	11197
гот	11198
подразу	11199
деко	11200
марина	11201
##бив	11202
кура	11203
##довать	11204
лож	11205
факторов	11206
кандидатом	11207
клубов	11208
исследователи	11209
покупке	11210
сравни	11211
прокуратуру	11212
ассамб	11213
недостат	11214
вызвал	11215
мощность	11216
важный	11217
350	11218
популярность	11219
трансфер	11220
штрафов	11221
сделка	11222
изучения	11223
раскри	11224
бойцов	11225
ресурсы	11226
##лагал	11227
донбасса	11228
рабочие	11229
юридических	11230
элемента	11231
помогут	11232
кабинет	11233
воспитан	11234
взрослых	11235
резолюции	11236
молдавии	11237
потребуется	11238
осаго	11239
экзамен	11240
женеве	11241
юстиции	11242
подразуме	11243
аз	11244
сход	11245
##ас	11246
##янов	11247
нака	11248
##льском	11249
##коснов	11250
кален	11251
##щины	11252
##дора	11253
##жах	11254
российскому	11255
участвуют	11256
##годно	11257
##ционная	11258
рыба	11259
экспеди	11260
собак	11261
назван	11262
высоких	11263
работники	11264
совету	11265
московских	11266
четвертый	11267
клубе	11268
ивана	11269
опасения	11270
выплатить	11271
выполнение	11272
протесту	11273
красного	11274
отмене	11275
отмены	11276
обратилась	11277
функциони	11278
свидетельствует	11279
поиск	11280
обмена	11281
причинам	11282
половиной	11283
терапи	11284
впереди	11285
роскос	11286
электроэнергии	11287
дверь	11288
захарченко	11289
вдохнов	11290
оштраф	11291
92	11292
cas	11293
he	11294
кей	11295
осторо	11296
сбы	11297
##ели	11298
##ton	11299
##эл	11300
##нори	11301
пошел	11302
понад	11303
наград	11304
напротив	11305
##кад	11306
заведения	11307
##тация	11308
стат	11309
стью	11310
боев	11311
##щикам	11312
##чикам	11313
##убий	11314
табли	11315
работой	11316
##производ	11317
##сомо	11318
данными	11319
фик	11320
самому	11321
импе	11322
трассы	11323
обществе	11324
сделала	11325
домах	11326
свободу	11327
внимательно	11328
вален	11329
объяснить	11330
применение	11331
событие	11332
британской	11333
тюрем	11334
рекомендации	11335
покинул	11336
ленина	11337
нижней	11338
реакция	11339
снизился	11340
отчетности	11341
прозву	11342
символи	11343
неприят	11344
акционеров	11345
противоречи	11346
госсекретарь	11347
уплаты	11348
intern	11349
станислав	11350
резонанс	11351
самопровозглашен	11352
дешевле	11353
металлур	11354
ba	11355
адекват	11356
джеб	11357
кло	11358
оле	11359
чм	11360
##ефа	11361
##ффици	11362
##ресс	11363
нар	11364
нары	11365
##емая	11366
##мил	11367
россель	11368
##ссией	11369
совбе	11370
анс	11371
фини	11372
темпы	11373
##хот	11374
жилой	11375
федеральная	11376
финансы	11377
заявлений	11378
окс	11379
окре	11380
шие	11381
призем	11382
выступить	11383
абду	11384
народных	11385
китайской	11386
апте	11387
1998	11388
кубин	11389
налоговой	11390
высказал	11391
сфера	11392
университете	11393
страховых	11394
ростове	11395
статуса	11396
отобра	11397
завершился	11398
пакета	11399
правилам	11400
митинг	11401
премию	11402
ходатайство	11403
невероят	11404
бин	11405
храм	11406
##нений	11407
##йка	11408
##льд	11409
общения	11410
достовер	11411
отча	11412
вопло	11413
##мок	11414
##едов	11415
##дую	11416
ниц	11417
##зываться	11418
стражу	11419
кули	11420
кубок	11421
будучи	11422
правом	11423
наслед	11424
матчи	11425
связей	11426
склон	11427
единый	11428
играют	11429
странам	11430
утвержден	11431
специальный	11432
1999	11433
игрок	11434
поддерживают	11435
обучения	11436
великобритания	11437
сюр	11438
исключением	11439
жалобы	11440
половину	11441
заинтересован	11442
окажется	11443
школьников	11444
жуков	11445
попытался	11446
съемки	11447
въезд	11448
вакци	11449
заксобрания	11450
высказывания	11451
компроми	11452
консоли	11453
симферопо	11454
ающим	11455
ору	11456
пля	11457
эл	11458
ющих	11459
##ап	11460
##ьем	11461
пони	11462
положен	11463
##кома	11464
##вам	11465
##обе	11466
кась	11467
разум	11468
##паз	11469
конвен	11470
пособи	11471
саха	11472
##кеан	11473
орке	11474
кубо	11475
произведения	11476
самоубий	11477
полного	11478
траги	11479
сотрудни	11480
принятие	11481
напомина	11482
##йтесь	11483
##ничать	11484
потребления	11485
спортсмена	11486
публично	11487
##фикация	11488
отдельные	11489
выставке	11490
травма	11491
действующий	11492
используется	11493
двигателя	11494
нормально	11495
административных	11496
билеты	11497
награды	11498
возглавляет	11499
владеет	11500
жилых	11501
целесообраз	11502
приблиз	11503
опубликованном	11504
подъем	11505
заслужен	11506
занятия	11507
месторождения	11508
индуст	11509
карелии	11510
космодрома	11511
06	11512
86	11513
we	11514
вита	11515
мной	11516
ченко	11517
шой	11518
##гент	11519
##шников	11520
##ld	11521
##кости	11522
проме	11523
пробы	11524
раско	11525
вызыва	11526
##едент	11527
номе	11528
##зина	11529
комсомо	11530
##жное	11531
сила	11532
беспоко	11533
##леты	11534
##рена	11535
формат	11536
джона	11537
##inite	11538
признаки	11539
доставили	11540
средствами	11541
принимал	11542
поставил	11543
появления	11544
писать	11545
спортивный	11546
поступил	11547
космической	11548
убежи	11549
бренда	11550
зафиксировано	11551
найден	11552
валерия	11553
совещания	11554
потока	11555
дизайнер	11556
говорилось	11557
свердловской	11558
novinite	11559
коэффици	11560
приходилось	11561
госкомп	11562
зв	11563
пев	11564
юко	11565
##чательно	11566
##ow	11567
рау	11568
садов	11569
вещей	11570
павиль	11571
отметки	11572
делали	11573
гражданами	11574
санитар	11575
многоквар	11576
ответили	11577
известные	11578
боепри	11579
сталки	11580
уголовных	11581
способность	11582
альфа	11583
свободного	11584
играл	11585
кредитной	11586
бюджете	11587
подачи	11588
исполнительной	11589
британии	11590
культуре	11591
противопо	11592
машино	11593
нынешней	11594
домод	11595
довери	11596
палата	11597
литвы	11598
объявлено	11599
кремль	11600
совершить	11601
французской	11602
годовых	11603
перевозки	11604
любопы	11605
сыграть	11606
редактор	11607
футболиста	11608
компенси	11609
домашний	11610
тарифы	11611
анкаре	11612
аноним	11613
ближнего	11614
появляется	11615
разногла	11616
боксер	11617
анонси	11618
многокварти	11619
нк	11620
пх	11621
##зом	11622
##ув	11623
##бре	11624
##ывать	11625
##pe	11626
##рио	11627
##ссен	11628
отдать	11629
##жек	11630
разным	11631
##нулся	11632
переи	11633
спрово	11634
вижу	11635
рух	11636
еврей	11637
участвовал	11638
багда	11639
##тический	11640
делал	11641
станций	11642
рейсов	11643
счетов	11644
специализи	11645
завершения	11646
региональные	11647
исполнитель	11648
лицам	11649
столицу	11650
##ros	11651
подробно	11652
поздравил	11653
квартала	11654
претензий	11655
выполня	11656
рекоменда	11657
кампанию	11658
подоро	11659
спаси	11660
аналогичным	11661
избирательных	11662
метод	11663
жалобу	11664
художника	11665
снег	11666
поведения	11667
случившегося	11668
регулятора	11669
мошенничестве	11670
иллю	11671
теоре	11672
корректи	11673
недопусти	11674
изделий	11675
спровоци	11676
pos	11677
доволь	11678
цит	11679
шую	11680
щая	11681
##кта	11682
##две	11683
##шан	11684
##ob	11685
##лиять	11686
отзы	11687
прими	11688
мое	11689
преддве	11690
##жий	11691
##жих	11692
##итации	11693
провали	11694
экзем	11695
баша	11696
повлиять	11697
стороной	11698
получится	11699
производстве	11700
сандер	11701
клиент	11702
советский	11703
должностных	11704
научных	11705
успели	11706
журналиста	11707
особенности	11708
стиль	11709
опубликовала	11710
уверенно	11711
ростова	11712
публику	11713
молодого	11714
берегов	11715
канале	11716
##шкина	11717
оппозиция	11718
нарушением	11719
парламентских	11720
упала	11721
привели	11722
сыграет	11723
освобождения	11724
учитывать	11725
найдены	11726
помогают	11727
портфе	11728
смартфонов	11729
горячи	11730
дебют	11731
музыкант	11732
хоккею	11733
акционер	11734
елиза	11735
социологи	11736
квадратных	11737
##промтор	11738
улыб	11739
оренбург	11740
раскритиков	11741
96	11742
бру	11743
гей	11744
пани	11745
хе	11746
##шат	11747
##овым	11748
##рины	11749
##лея	11750
кофе	11751
сорат	11752
##ссер	11753
мило	11754
суть	11755
актера	11756
новыми	11757
грам	11758
минпромтор	11759
##хождение	11760
судо	11761
рфс	11762
возможным	11763
жир	11764
названия	11765
бюллет	11766
эксперта	11767
спирт	11768
произошли	11769
позволить	11770
способны	11771
назначил	11772
реальные	11773
амби	11774
инициа	11775
диапаз	11776
отвечая	11777
степан	11778
кампания	11779
щие	11780
покров	11781
фирма	11782
##сеть	11783
вступил	11784
заменить	11785
сократился	11786
дэвид	11787
асв	11788
австрии	11789
бригады	11790
манипу	11791
эстонии	11792
проходил	11793
категорически	11794
af	11795
man	11796
na	11797
rena	11798
ином	11799
манд	11800
скими	11801
##нать	11802
##глу	11803
##san	11804
##ment	11805
неже	11806
прези	11807
##дес	11808
вывед	11809
госкор	11810
##сев	11811
разговари	11812
паро	11813
##ующих	11814
летних	11815
##собом	11816
ведутся	11817
центром	11818
возможной	11819
собянин	11820
##end	11821
дух	11822
транзит	11823
петров	11824
удара	11825
ряду	11826
способом	11827
##емость	11828
горно	11829
заключенных	11830
должност	11831
сумме	11832
конкурентов	11833
абэ	11834
мэрии	11835
видят	11836
пользователь	11837
видеоза	11838
внутреннего	11839
эффективно	11840
пожалов	11841
##фоны	11842
зарплату	11843
французский	11844
владельца	11845
метропо	11846
зрители	11847
реакции	11848
агрессив	11849
зафиксирован	11850
гуманитарной	11851
преимущественно	11852
амурской	11853
конгресс	11854
предназначен	11855
хватит	11856
спасибо	11857
преддверии	11858
renault	11859
госкорпора	11860
net	11861
ган	11862
ельные	11863
ню	11864
свед	11865
сдержи	11866
щей	11867
##ьере	11868
##дор	11869
##рад	11870
##най	11871
пром	11872
отту	11873
##дины	11874
##мел	11875
кал	11876
перес	11877
##утер	11878
вечера	11879
видом	11880
аква	11881
парнас	11882
мусор	11883
самыми	11884
организаторов	11885
руководителем	11886
лос	11887
сможем	11888
рынков	11889
признает	11890
способствовать	11891
региональном	11892
хозяев	11893
создал	11894
слабы	11895
поставили	11896
искусство	11897
действующего	11898
судебного	11899
присутствие	11900
двигатель	11901
управляющий	11902
1980	11903
откло	11904
снега	11905
бумаги	11906
сообщество	11907
экологии	11908
полученные	11909
путешествен	11910
тщательно	11911
полузащитник	11912
резюми	11913
экземп	11914
оттуда	11915
au	11916
мгу	11917
окра	11918
овое	11919
рс	11920
##ринов	11921
сочет	11922
распе	11923
##деб	11924
горе	11925
##дило	11926
кастро	11927
кафед	11928
##шилась	11929
##зитом	11930
сала	11931
сига	11932
басс	11933
основы	11934
обоз	11935
военное	11936
почув	11937
большом	11938
американском	11939
фактов	11940
шел	11941
высокая	11942
материал	11943
статью	11944
уголовной	11945
хорошая	11946
политическую	11947
законы	11948
попала	11949
##ражений	11950
вооружений	11951
трудности	11952
мировом	11953
внедорож	11954
вызвало	11955
сергеем	11956
минимума	11957
##марк	11958
эрдогана	11959
магазина	11960
устойчиво	11961
добавить	11962
заплатить	11963
титул	11964
оскар	11965
шойгу	11966
переименов	11967
hy	11968
аспек	11969
атак	11970
ите	11971
исков	11972
клич	11973
крей	11974
слы	11975
хит	11976
чей	11977
яков	11978
##ульт	11979
##гр	11980
попад	11981
##анали	11982
##рием	11983
замы	11984
##лятор	11985
выкуп	11986
##душ	11987
носит	11988
раздели	11989
мыш	11990
актов	11991
russ	11992
возможное	11993
факульт	11994
рязан	11995
снижению	11996
крупного	11997
директором	11998
статья	11999
занимался	12000
способен	12001
чика	12002
серьезный	12003
праздника	12004
выяснить	12005
берлине	12006
организациями	12007
забил	12008
отечественных	12009
брюссель	12010
пределы	12011
проспекте	12012
##алеку	12013
неподалеку	12014
international	12015
ne	12016
pa	12017
ur	12018
ающего	12019
уф	12020
уют	12021
эс	12022
элит	12023
южный	12024
##океан	12025
##ропера	12026
налоги	12027
небо	12028
зали	12029
##орти	12030
ростом	12031
##гиев	12032
като	12033
мином	12034
ливии	12035
##пич	12036
таил	12037
бела	12038
возна	12039
хотите	12040
руси	12041
##ренко	12042
туропера	12043
первыми	12044
##класс	12045
сектор	12046
чуж	12047
русском	12048
пыт	12049
комиссию	12050
космос	12051
конкурент	12052
назначение	12053
народов	12054
добры	12055
парамет	12056
канады	12057
террористических	12058
ключевой	12059
кораблей	12060
предупрежда	12061
песню	12062
релизе	12063
умвд	12064
вступления	12065
наблюдателей	12066
toyo	12067
болезнь	12068
ельци	12069
редакции	12070
сведениям	12071
##снабжения	12072
певица	12073
госдепарта	12074
toyota	12075
mot	12076
pl	12077
##уса	12078
##дра	12079
##фей	12080
##тона	12081
натура	12082
облом	12083
рого	12084
роском	12085
избы	12086
##вела	12087
дева	12088
кари	12089
развод	12090
личный	12091
мара	12092
возь	12093
велич	12094
слухи	12095
##роды	12096
краю	12097
рича	12098
учиться	12099
цивили	12100
государственная	12101
следующим	12102
обязаны	12103
мирного	12104
выходить	12105
баллов	12106
##фикацию	12107
постара	12108
пенсионеров	12109
принципа	12110
глубин	12111
огромный	12112
десятка	12113
вовремя	12114
любое	12115
гибель	12116
заявляет	12117
распространения	12118
авиакомпания	12119
повреждения	12120
сериала	12121
трагедия	12122
корея	12123
наступление	12124
штатах	12125
железнодорож	12126
лаборатории	12127
##техно	12128
кладбище	12129
упраж	12130
президи	12131
98	12132
афи	12133
дета	12134
жены	12135
зритель	12136
ировал	12137
останавли	12138
ука	12139
уиль	12140
##вати	12141
##чкой	12142
##енс	12143
порой	12144
##ними	12145
##рований	12146
##ссион	12147
##едово	12148
поднять	12149
##стого	12150
##шила	12151
##теро	12152
ницы	12153
серия	12154
такому	12155
##альном	12156
любит	12157
##теров	12158
самоу	12159
##ционном	12160
согласен	12161
управлять	12162
учений	12163
##щенных	12164
советов	12165
телефона	12166
восточного	12167
подтвердила	12168
кредитам	12169
разработать	12170
масло	12171
группировок	12172
растор	12173
понимает	12174
взрывчат	12175
япония	12176
николаев	12177
контрактов	12178
сомнения	12179
методи	12180
займет	12181
мальчика	12182
распоряжение	12183
представила	12184
полеты	12185
пределах	12186
варианты	12187
транспорте	12188
кандидатуру	12189
константина	12190
памфилова	12191
анастасия	12192
##urnal	12193
домодедово	12194
вознагра	12195
уильям	12196
mi	12197
ари	12198
бле	12199
зов	12200
спад	12201
фур	12202
эт	12203
##ики	12204
##чита	12205
##рора	12206
насы	12207
##лиц	12208
##кость	12209
доно	12210
##вос	12211
стены	12212
##числи	12213
перешел	12214
чел	12215
правовой	12216
президентской	12217
лук	12218
америка	12219
искрен	12220
законов	12221
региональный	12222
продолжаются	12223
##зок	12224
высшей	12225
коллекции	12226
заметили	12227
долгое	12228
террористическая	12229
отсутствии	12230
парламентарий	12231
построен	12232
пользуются	12233
запрещенных	12234
молодежь	12235
механиз	12236
перехода	12237
жительница	12238
силовых	12239
портале	12240
усилить	12241
снизились	12242
магазины	12243
любых	12244
обойти	12245
фейсбу	12246
самарской	12247
филосо	12248
81	12249
иться	12250
йем	12251
крово	12252
снаб	12253
смысла	12254
уефа	12255
хали	12256
набор	12257
навига	12258
##рис	12259
просро	12260
##чеб	12261
##жера	12262
подру	12263
лизин	12264
##люд	12265
вина	12266
##бая	12267
полицией	12268
летнюю	12269
лето	12270
фигур	12271
архе	12272
безви	12273
трети	12274
марка	12275
овую	12276
федеральным	12277
##ценко	12278
проведен	12279
следующие	12280
льного	12281
ранены	12282
##ровое	12283
польше	12284
включает	12285
подали	12286
материала	12287
китайских	12288
финансовый	12289
задачу	12290
осуществля	12291
ограничение	12292
сохранение	12293
принцип	12294
##ркома	12295
сельско	12296
развиваться	12297
отечественного	12298
перевозок	12299
вовле	12300
посетить	12301
ассоциация	12302
нижнем	12303
зенита	12304
логисти	12305
помогать	12306
федор	12307
варша	12308
пропуска	12309
твит	12310
обвинили	12311
бронзов	12312
инвалид	12313
критику	12314
набрал	12315
отрасль	12316
нагрузки	12317
соревнованиях	12318
обойд	12319
педагоги	12320
лагеря	12321
продюсер	12322
дисциплина	12323
кисло	12324
кубометров	12325
che	12326
ею	12327
##бю	12328
##бар	12329
##мати	12330
##ry	12331
невы	12332
незна	12333
несет	12334
моего	12335
##едо	12336
##зировал	12337
##чились	12338
лик	12339
белом	12340
опе	12341
рассказать	12342
новак	12343
##тическом	12344
центры	12345
работала	12346
работающих	12347
семина	12348
коллед	12349
льных	12350
смир	12351
дальневосто	12352
политическая	12353
подтверждает	12354
штаты	12355
требованием	12356
дохода	12357
подарок	12358
пассажиры	12359
ожидают	12360
360	12361
обязанностей	12362
лидерами	12363
держать	12364
бизнесмена	12365
взаимодействие	12366
урегулированию	12367
приговора	12368
скандала	12369
делегация	12370
освободить	12371
георгий	12372
автоматически	12373
удостовер	12374
григорий	12375
церковь	12376
es	12377
eu	12378
iv	12379
аза	12380
вку	12381
иков	12382
ится	12383
рати	12384
уходит	12385
шер	12386
шум	12387
южного	12388
##шени	12389
##ig	12390
##ue	12391
##man	12392
##стата	12393
поде	12394
##ризации	12395
преем	12396
волей	12397
точек	12398
подсуди	12399
мили	12400
разговоры	12401
беседе	12402
##туа	12403
##держа	12404
##баев	12405
заявив	12406
решено	12407
основу	12408
рису	12409
жилого	12410
прошлый	12411
карту	12412
украинцев	12413
обещают	12414
шаги	12415
франци	12416
задержании	12417
собственный	12418
рейсы	12419
альбо	12420
реализация	12421
подавля	12422
нейтра	12423
северный	12424
массового	12425
стрелков	12426
пункты	12427
адвокаты	12428
сложнее	12429
районный	12430
активистов	12431
подразделений	12432
отрица	12433
карьеры	12434
бомбы	12435
график	12436
челябинской	12437
дождь	12438
поверхности	12439
условно	12440
прочих	12441
взносов	12442
понра	12443
самоуправ	12444
"?	12445
ben	12446
ha	12447
дро	12448
нским	12449
свад	12450
утили	12451
##вто	12452
##яд	12453
##юка	12454
##fa	12455
поез	12456
сочин	12457
проанали	12458
док	12459
отбы	12460
девело	12461
##чиком	12462
тес	12463
перевед	12464
##сило	12465
конфе	12466
##рян	12467
маха	12468
дале	12469
пары	12470
заявок	12471
лест	12472
считали	12473
представлять	12474
основан	12475
военная	12476
показыва	12477
районы	12478
генети	12479
необходимы	12480
чемпионом	12481
112	12482
сырья	12483
запретили	12484
специализирован	12485
капитали	12486
парад	12487
тяжелой	12488
совместной	12489
нашими	12490
юрист	12491
добыча	12492
звез	12493
ированный	12494
зарплата	12495
привела	12496
категория	12497
аренды	12498
цветы	12499
отправил	12500
музее	12501
двоих	12502
узнали	12503
выбрали	12504
преврати	12505
защищать	12506
пространстве	12507
лондона	12508
закупки	12509
тверской	12510
ближнем	12511
волгоград	12512
позволят	12513
гряз	12514
вдоль	12515
диагности	12516
аукцион	12517
фальси	12518
мотиви	12519
journal	12520
обойдется	12521
свадь	12522
lada	12523
tra	12524
ег	12525
танк	12526
ухода	12527
ят	12528
##щался	12529
##ько	12530
##шкой	12531
поляр	12532
##листи	12533
##рие	12534
##тал	12535
##валов	12536
оты	12537
прису	12538
быстры	12539
##арла	12540
десант	12541
автора	12542
банку	12543
полную	12544
##ходило	12545
сотен	12546
специ	12547
числу	12548
лари	12549
водители	12550
фактам	12551
шись	12552
совершили	12553
енным	12554
льный	12555
проверок	12556
надеемся	12557
общественности	12558
комплексов	12559
пенсию	12560
нашему	12561
1992	12562
денежные	12563
изданию	12564
полицейский	12565
рассмотрен	12566
коммуни	12567
коллектор	12568
майкл	12569
студент	12570
освобожден	12571
отклон	12572
стадионе	12573
##думал	12574
ощущение	12575
вариантов	12576
землетрясение	12577
встретиться	12578
вреза	12579
заработал	12580
пребывания	12581
жизнью	12582
талантли	12583
мультфиль	12584
world	12585
лагере	12586
боеприпа	12587
sm	12588
гера	12589
ился	12590
осп	12591
рг	12592
угодно	12593
##банка	12594
##суд	12595
##мане	12596
##юта	12597
##ie	12598
##ver	12599
##тоза	12600
насили	12601
нехват	12602
реал	12603
изна	12604
##луж	12605
миг	12606
разор	12607
##нуться	12608
##нями	12609
##шала	12610
аван	12611
представления	12612
##шена	12613
думу	12614
##колог	12615
продолжение	12616
торгового	12617
уровню	12618
гражданство	12619
поддержкой	12620
собственность	12621
предложить	12622
гипер	12623
свободной	12624
пенсий	12625
музыку	12626
ближайших	12627
воздухе	12628
голки	12629
содержится	12630
обвиняемого	12631
ребенком	12632
сохранения	12633
крупнейший	12634
обуслов	12635
расширение	12636
сцены	12637
физической	12638
особого	12639
ветера	12640
##ews	12641
заявляли	12642
заявляют	12643
петербургского	12644
филиала	12645
##unda	12646
стремительно	12647
укрепление	12648
дворе	12649
приложения	12650
увидели	12651
пилота	12652
дефицита	12653
мошенничество	12654
сумел	12655
корпуса	12656
вреда	12657
мотоци	12658
повторя	12659
неплохо	12660
рождествен	12661
закупок	12662
людмила	12663
хулиган	12664
распечат	12665
гля	12666
лар	12667
лам	12668
сете	12669
##ало	12670
##oc	12671
##экономи	12672
##lin	12673
##стор	12674
##кии	12675
нести	12676
##тием	12677
проиг	12678
приходит	12679
##инский	12680
##чивает	12681
тел	12682
онф	12683
стациона	12684
чест	12685
совме	12686
аккред	12687
##гун	12688
повлек	12689
темати	12690
нуле	12691
правительственных	12692
плать	12693
критиков	12694
александру	12695
войти	12696
задержанных	12697
политическим	12698
научный	12699
##ork	12700
европарла	12701
##стройки	12702
способности	12703
особый	12704
кандидаты	12705
законе	12706
подчеркнули	12707
вернулись	12708
подала	12709
разработку	12710
размещение	12711
мяса	12712
неизмен	12713
пришло	12714
оценивает	12715
используются	12716
французского	12717
стадион	12718
родственники	12719
супруги	12720
сериал	12721
журнале	12722
впечатление	12723
вспомина	12724
ступен	12725
тенденция	12726
ездить	12727
осозна	12728
авиауда	12729
реанима	12730
сведений	12731
pol	12732
еро	12733
мс	12734
оза	12735
свод	12736
упор	12737
хру	12738
яма	12739
##щались	12740
##ните	12741
навы	12742
роберт	12743
подор	12744
##вес	12745
203	12746
ниге	12747
личных	12748
опор	12749
полутора	12750
новгород	12751
##держки	12752
главную	12753
обост	12754
противника	12755
производителя	12756
дорожной	12757
дорогой	12758
крыла	12759
уровнем	12760
победой	12761
затро	12762
скри	12763
проводили	12764
немно	12765
немцова	12766
количеству	12767
подобный	12768
материалах	12769
задачей	12770
прогнозы	12771
свете	12772
диалога	12773
люблю	12774
любую	12775
запасы	12776
книг	12777
съезд	12778
технические	12779
причину	12780
собеседника	12781
использует	12782
формирование	12783
налоговые	12784
развива	12785
##бирком	12786
символ	12787
сенса	12788
лайнер	12789
ford	12790
потенциальных	12791
теннисист	12792
ветеранов	12793
эпохи	12794
понимание	12795
мельдоний	12796
недовольство	12797
интеграции	12798
аркадий	12799
импортоза	12800
канцлер	12801
секунды	12802
киргизии	12803
изделия	12804
джебхат	12805
метрополит	12806
el	12807
ание	12808
ающей	12809
опи	12810
эста	12811
##еща	12812
##фаль	12813
##az	12814
##реи	12815
##рум	12816
роу	12817
##ловой	12818
разрыв	12819
мешает	12820
##ительность	12821
##сим	12822
##евать	12823
буря	12824
обращаться	12825
автоса	12826
теме	12827
темпа	12828
полное	12829
президенте	12830
сотрудничать	12831
станция	12832
высокую	12833
победить	12834
победителем	12835
премье	12836
террорист	12837
проводи	12838
легче	12839
объемом	12840
округу	12841
торговле	12842
##roid	12843
законодательством	12844
каждым	12845
тренд	12846
нынешних	12847
внутренние	12848
соответствующих	12849
вызвала	12850
важные	12851
любят	12852
довод	12853
говорю	12854
привлека	12855
сложных	12856
попробов	12857
помещение	12858
расширить	12859
атаков	12860
посетил	12861
административного	12862
идей	12863
охране	12864
ярмар	12865
останутся	12866
регулирования	12867
смартфон	12868
альянс	12869
офшор	12870
банкротства	12871
слушания	12872
километрах	12873
перенос	12874
раненых	12875
огнестре	12876
одержал	12877
##ковича	12878
колум	12879
изнасил	12880
wi	12881
еду	12882
ельный	12883
ения	12884
ики	12885
ое	12886
пдд	12887
ун	12888
хим	12889
ющего	12890
##язы	12891
##дит	12892
##енит	12893
##инга	12894
вывести	12895
##едет	12896
##ковского	12897
##илов	12898
какими	12899
лись	12900
##пирован	12901
спро	12902
руко	12903
руками	12904
вами	12905
обращении	12906
кири	12907
##атах	12908
##атами	12909
##атастро	12910
банках	12911
вопросе	12912
##щено	12913
готовятся	12914
государственным	12915
победителей	12916
меру	12917
старшего	12918
действиями	12919
хищении	12920
предоставления	12921
вызван	12922
получали	12923
оценили	12924
аналогичный	12925
кадры	12926
панам	12927
элементов	12928
представили	12929
оказания	12930
отпуск	12931
татарстана	12932
аудитории	12933
оказывать	12934
анкара	12935
стрельбы	12936
обещал	12937
австралий	12938
глубоко	12939
чрезвычайно	12940
сегменте	12941
солидар	12942
антидопингового	12943
конгресса	12944
существования	12945
нуждается	12946
прыж	12947
свидетелей	12948
прогнозам	12949
максимум	12950
зоопар	12951
бухгал	12952
бесконе	12953
ликвид	12954
ta	12955
wik	12956
усп	12957
ют	12958
##ически	12959
##баты	12960
##ps	12961
наф	12962
задержала	12963
##ционе	12964
софи	12965
отраз	12966
моих	12967
бывшие	12968
подле	12969
тепл	12970
весен	12971
пада	12972
аксен	12973
органа	12974
##атило	12975
##летел	12976
##хозна	12977
##строен	12978
городом	12979
##говое	12980
федеральному	12981
плата	12982
шеф	12983
цир	12984
государственном	12985
призвали	12986
центральном	12987
происхождения	12988
количестве	12989
достигла	12990
называемой	12991
периодически	12992
версий	12993
подобное	12994
вооружение	12995
сирийские	12996
1994	12997
1996	12998
италия	12999
пунктах	13000
обвиняется	13001
снял	13002
сложной	13003
отставки	13004
ированные	13005
огромные	13006
синд	13007
поколение	13008
##ллиона	13009
практику	13010
глазах	13011
заработной	13012
лейтен	13013
перенес	13014
деклара	13015
территориях	13016
дагестана	13017
android	13018
численность	13019
олигар	13020
миронов	13021
ищут	13022
хлеб	13023
справедливости	13024
васильев	13025
забайка	13026
нидерландов	13027
параллельно	13028
тихоокеан	13029
планировалось	13030
доверие	13031
вали	13032
зерна	13033
муд	13034
оча	13035
очные	13036
сго	13037
цру	13038
ще	13039
##жин	13040
##цк	13041
##хом	13042
##фан	13043
пола	13044
пожела	13045
##торию	13046
##нис	13047
##нией	13048
##инского	13049
##монов	13050
##чел	13051
моменту	13052
##тером	13053
перелом	13054
##изм	13055
##сус	13056
##ченные	13057
##анды	13058
баб	13059
1000	13060
взло	13061
собрав	13062
обещает	13063
локали	13064
кристи	13065
местным	13066
городские	13067
распа	13068
советские	13069
статьям	13070
заключ	13071
заключении	13072
обеспечению	13073
свободнен	13074
чистая	13075
##щиеся	13076
практики	13077
стиле	13078
балло	13079
положительно	13080
округ	13081
вернулась	13082
передачу	13083
1995	13084
труб	13085
квартира	13086
##началь	13087
миллиард	13088
внешних	13089
славян	13090
олимпийские	13091
красный	13092
зика	13093
телеканалу	13094
пообеща	13095
выиграла	13096
выручки	13097
хватило	13098
концерн	13099
паспорта	13100
сегмента	13101
кредиторов	13102
африки	13103
континента	13104
претендентов	13105
фантасти	13106
адресу	13107
выделить	13108
обыграл	13109
клетки	13110
соболез	13111
удовлетворил	13112
позволило	13113
(+	13114
91	13115
cit	13116
gal	13117
джен	13118
псков	13119
сбе	13120
фк	13121
щу	13122
##тится	13123
##нат	13124
##ty	13125
коля	13126
ролик	13127
##зацией	13128
разда	13129
##нуты	13130
##теп	13131
##ленном	13132
малай	13133
самую	13134
##ательная	13135
полуфина	13136
другу	13137
счете	13138
решет	13139
песен	13140
государству	13141
центриз	13142
судить	13143
рисов	13144
экономическая	13145
проектом	13146
являлся	13147
##винут	13148
участках	13149
имеющих	13150
##ьян	13151
установлена	13152
лучшее	13153
проведут	13154
совершения	13155
выборами	13156
горд	13157
восстанавли	13158
каждую	13159
технология	13160
размера	13161
собрались	13162
следственные	13163
головой	13164
осуществлять	13165
введении	13166
берлин	13167
следователей	13168
предварительно	13169
единственное	13170
захва	13171
находилась	13172
борисов	13173
небольшо	13174
флори	13175
негативно	13176
персонала	13177
динамика	13178
приобретение	13179
болельщики	13180
нагрузка	13181
кэме	13182
коммуникаций	13183
телевизион	13184
налогооб	13185
полугодии	13186
выразили	13187
михал	13188
средиземном	13189
фьючер	13190
нафто	13191
бр	13192
вм	13193
грой	13194
ическим	13195
пфр	13196
сжи	13197
тим	13198
##рск	13199
##bus	13200
##овую	13201
##лежи	13202
##лечь	13203
зага	13204
проигры	13205
выез	13206
подходя	13207
богу	13208
##ительном	13209
##ительными	13210
##тес	13211
визитом	13212
ваши	13213
обратил	13214
технической	13215
спеку	13216
участника	13217
##ствования	13218
открыт	13219
террористами	13220
метра	13221
условиям	13222
планируем	13223
##ертвов	13224
голосовать	13225
угроз	13226
реальной	13227
наблюдать	13228
мировые	13229
понял	13230
палате	13231
демократ	13232
спортивного	13233
##ell	13234
единственная	13235
пожертвов	13236
учреждение	13237
очевидцев	13238
финансово	13239
нападении	13240
караба	13241
полномочиями	13242
иванова	13243
согласия	13244
согласились	13245
архан	13246
формули	13247
усилий	13248
возникают	13249
посадку	13250
iii	13251
предпочт	13252
пересмотреть	13253
разговора	13254
минздрава	13255
экземпля	13256
гройс	13257
83	13258
94	13259
93	13260
aut	13261
ass	13262
дых	13263
крес	13264
риску	13265
схо	13266
снимать	13267
хер	13268
ях	13269
##вании	13270
##льными	13271
кожи	13272
соль	13273
проходя	13274
расту	13275
доми	13276
долей	13277
приу	13278
рее	13279
вып	13280
моему	13281
моменты	13282
бывшему	13283
ночи	13284
сильным	13285
##альная	13286
возвед	13287
виль	13288
вашей	13289
образу	13290
##чному	13291
##преки	13292
печа	13293
нужд	13294
экономическом	13295
детские	13296
кардина	13297
родной	13298
геншта	13299
развит	13300
франк	13301
##хие	13302
своеобраз	13303
двига	13304
макла	13305
енного	13306
частные	13307
ходом	13308
достигли	13309
третьим	13310
росстата	13311
мероприятии	13312
боевиками	13313
##минания	13314
интерфаксу	13315
текущий	13316
сбере	13317
огонек	13318
визу	13319
принадлежат	13320
развивается	13321
ключевые	13322
предупредил	13323
предыдущих	13324
шахмат	13325
мобильных	13326
просьбе	13327
оздоров	13328
отправили	13329
высказыва	13330
заинтересованы	13331
отлично	13332
льготы	13333
говорила	13334
добиваться	13335
православной	13336
завершилась	13337
приятно	13338
влиятель	13339
принципиально	13340
аккуму	13341
несовершеннолетних	13342
полуострове	13343
фармацев	13344
ансамб	13345
сюрпри	13346
башара	13347
play	13348
ввер	13349
жителями	13350
лента	13351
улич	13352
щим	13353
##зти	13354
##ital	13355
##me	13356
##рачи	13357
поры	13358
называть	13359
заполн	13360
отста	13361
##вию	13362
бывшей	13363
##луб	13364
##сера	13365
##шились	13366
##няк	13367
масла	13368
спг	13369
перми	13370
##тивных	13371
частей	13372
данная	13373
карточ	13374
жизнен	13375
климат	13376
высоте	13377
местом	13378
русско	13379
занимают	13380
##тельно	13381
балла	13382
положении	13383
расследованию	13384
китайского	13385
пытаясь	13386
подозревают	13387
сделку	13388
бойко	13389
владельцем	13390
картину	13391
одобрил	13392
явления	13393
норманд	13394
космического	13395
справедливой	13396
смены	13397
зарегистрировано	13398
контей	13399
соблюдать	13400
партнером	13401
компенсацию	13402
вячеслава	13403
кабмина	13404
настроения	13405
командир	13406
подсчет	13407
настаивает	13408
кузнецова	13409
предъявлено	13410
захорон	13411
океана	13412
клиентам	13413
солнце	13414
артиллерий	13415
познакоми	13416
одесской	13417
целост	13418
юкоса	13419
импортозаме	13420
аш	13421
ация	13422
асад	13423
воде	13424
гуд	13425
ик	13426
иные	13427
кен	13428
мяс	13429
нобе	13430
уст	13431
##структур	13432
##ану	13433
начис	13434
##льс	13435
невер	13436
проин	13437
##ляя	13438
выбран	13439
депу	13440
мимо	13441
##дох	13442
своев	13443
возрос	13444
акт	13445
лежа	13446
сербии	13447
бала	13448
повез	13449
105	13450
трак	13451
последняя	13452
делается	13453
возможностями	13454
##одец	13455
лозу	13456
дорож	13457
оператора	13458
высокого	13459
первоначально	13460
курсе	13461
макро	13462
добавили	13463
простой	13464
черных	13465
великого	13466
космети	13467
прекращение	13468
балтий	13469
отделении	13470
выступит	13471
пятый	13472
площадка	13473
увеличился	13474
запустить	13475
берет	13476
морских	13477
разрешить	13478
попытку	13479
обвиняемых	13480
ребенку	13481
обнаружил	13482
коммерческих	13483
выращи	13484
чувства	13485
##ish	13486
небольшие	13487
муниципального	13488
контракты	13489
билетов	13490
футболистов	13491
справедливая	13492
##ливуд	13493
элементы	13494
лицензию	13495
жалоб	13496
утверждал	13497
обороне	13498
попытались	13499
субсиди	13500
грузовиков	13501
опытом	13502
кроссовер	13503
центробанка	13504
снай	13505
счастью	13506
нижегородской	13507
правящей	13508
однозначно	13509
анджеле	13510
евразий	13511
micros	13512
сельскохозяй	13513
волейбо	13514
депутатом	13515
ph	13516
pri	13517
бриф	13518
ирования	13519
склад	13520
убра	13521
фла	13522
ял	13523
##чны	13524
##шно	13525
##шет	13526
посты	13527
##рева	13528
##антов	13529
нала	13530
заповед	13531
##тирован	13532
соло	13533
пропис	13534
отнес	13535
отчете	13536
##акова	13537
выно	13538
вызывают	13539
капу	13540
##нув	13541
нич	13542
сепара	13543
сильного	13544
рубле	13545
пусты	13546
##говых	13547
арене	13548
границей	13549
терп	13550
певец	13551
##шенков	13552
пика	13553
последнюю	13554
владислав	13555
возможном	13556
составлял	13557
развлек	13558
##феев	13559
110	13560
джан	13561
енную	13562
льные	13563
сентябрь	13564
пенсионе	13565
угрожает	13566
no1	13567
специального	13568
1997	13569
объяснили	13570
процессы	13571
празднов	13572
британских	13573
вызвать	13574
предприниматели	13575
рассказывал	13576
##ill	13577
структуре	13578
искусств	13579
майор	13580
проблемами	13581
рассматривается	13582
степень	13583
увеличилась	13584
стратегия	13585
немецкий	13586
немецкого	13587
поступления	13588
судьбу	13589
рассчитывают	13590
рабочий	13591
распространение	13592
контролиру	13593
отправился	13594
согласие	13595
магазинах	13596
брюсселя	13597
противостояние	13598
дюй	13599
опыта	13600
австрий	13601
веке	13602
##кризис	13603
вспомнить	13604
примечательно	13605
диспет	13606
михайлов	13607
гектаров	13608
мульти	13609
гагарина	13610
башкирии	13611
наряду	13612
фейсбуке	13613
benz	13614
абон	13615
есп	13616
нер	13617
фз	13618
чур	13619
ывать	13620
##ора	13621
##цкого	13622
наце	13623
##кала	13624
проработ	13625
обер	13626
отель	13627
репре	13628
вылета	13629
выступила	13630
##чам	13631
##дист	13632
носить	13633
бону	13634
ках	13635
капре	13636
мессен	13637
##вержен	13638
васи	13639
купе	13640
кипр	13641
областей	13642
автором	13643
вернется	13644
банкам	13645
##льтра	13646
федеральное	13647
родитель	13648
##отно	13649
лоя	13650
официальное	13651
срочно	13652
классов	13653
футбольной	13654
ставит	13655
способствует	13656
европейским	13657
альбом	13658
количеством	13659
позициям	13660
называемый	13661
общественный	13662
волков	13663
бюджету	13664
потребление	13665
##ood	13666
передали	13667
продолжил	13668
наблюдатель	13669
спецопера	13670
тяжести	13671
крымских	13672
растут	13673
ошибок	13674
донбасс	13675
аренда	13676
предыдущего	13677
одобрен	13678
испытаний	13679
фигури	13680
схема	13681
глазами	13682
лайнера	13683
спутник	13684
##dian	13685
контакты	13686
убедить	13687
столкнулись	13688
номинации	13689
досрочно	13690
взаимоотно	13691
пентагона	13692
суверенит	13693
правонарушения	13694
дзю	13695
шеремет	13696
post	13697
распечатать	13698
капремон	13699
get	13700
вмс	13701
ден	13702
описы	13703
сва	13704
сбли	13705
ценностей	13706
ющий	13707
##омо	13708
##ому	13709
##улли	13710
##мета	13711
##ганов	13712
пополн	13713
наг	13714
наби	13715
насиль	13716
общение	13717
реки	13718
##деев	13719
словно	13720
словом	13721
темой	13722
сообщить	13723
сообщений	13724
результатив	13725
последнем	13726
карьере	13727
открыты	13728
имея	13729
готовят	13730
состояться	13731
сделает	13732
курдов	13733
горба	13734
собственную	13735
дальнем	13736
странно	13737
журналистами	13738
продукция	13739
проверя	13740
китайский	13741
прямые	13742
кубке	13743
подписей	13744
сотрудничеству	13745
демократии	13746
гонке	13747
литов	13748
теракты	13749
представителям	13750
возникли	13751
столичных	13752
зависеть	13753
билет	13754
явление	13755
портала	13756
поиски	13757
нефтепродук	13758
ограничить	13759
бумаг	13760
инструменты	13761
направлениям	13762
one	13763
находящихся	13764
улюкаева	13765
знаменитого	13766
ищет	13767
ндс	13768
обнародов	13769
еврокомиссии	13770
килограммов	13771
сцену	13772
экстради	13773
календар	13774
россельхозна	13775
поездок	13776
россельхознад	13777
89	13778
fm	13779
брошен	13780
ены	13781
ерев	13782
зу	13783
иду	13784
кель	13785
кноп	13786
тит	13787
трем	13788
тремя	13789
указано	13790
##имен	13791
##нского	13792
##op	13793
##oft	13794
##aks	13795
##стру	13796
##стят	13797
##стяз	13798
погово	13799
пойдут	13800
##кас	13801
копе	13802
заря	13803
состяз	13804
приго	13805
##боро	13806
##кулы	13807
гориз	13808
##дился	13809
разница	13810
лив	13811
силой	13812
##шаются	13813
##тивно	13814
осн	13815
пасе	13816
провал	13817
больных	13818
##гуш	13819
участвует	13820
автодо	13821
минера	13822
свято	13823
россиянина	13824
помогли	13825
детства	13826
прошлым	13827
##лыми	13828
корм	13829
##ствование	13830
критики	13831
торговой	13832
операторов	13833
созданы	13834
оккупа	13835
установил	13836
льда	13837
гордо	13838
январь	13839
великий	13840
поставку	13841
периодом	13842
пострадавшим	13843
одноимен	13844
прямых	13845
опасных	13846
мяча	13847
содержит	13848
каждое	13849
исторических	13850
привлечения	13851
состоятся	13852
спортивные	13853
объявления	13854
##iat	13855
приорит	13856
силуанов	13857
железной	13858
проживания	13859
доставлены	13860
разведыв	13861
реакцию	13862
нанесен	13863
подразделение	13864
дворкович	13865
молоко	13866
space	13867
избранный	13868
приговорен	13869
спектакля	13870
младен	13871
екатеринбург	13872
субсидий	13873
патриарха	13874
многочисленных	13875
королевства	13876
оснащен	13877
преодолеть	13878
госсекретаря	13879
москвичей	13880
упаков	13881
навсе	13882
аэрофлот	13883
занятости	13884
архангель	13885
еспч	13886
дании	13887
дату	13888
ушли	13889
##ллер	13890
##ненно	13891
##мся	13892
##sa	13893
##роп	13894
завы	13895
заправ	13896
запечат	13897
##лота	13898
соч	13899
##тар	13900
общаться	13901
##рованием	13902
издатель	13903
##поста	13904
нии	13905
тепла	13906
##товые	13907
##жаю	13908
кузов	13909
авторитет	13910
повстан	13911
##ятия	13912
карди	13913
почты	13914
учителей	13915
александрова	13916
месяце	13917
крупно	13918
сроков	13919
намере	13920
ставить	13921
требовать	13922
антикризис	13923
возможностью	13924
профессии	13925
осуществляется	13926
предполагалось	13927
##ратур	13928
похорон	13929
желании	13930
низкой	13931
низких	13932
девушек	13933
весны	13934
нарушениях	13935
прожиточ	13936
улучшения	13937
доставлен	13938
обсуждали	13939
методы	13940
островов	13941
предусмотренного	13942
контек	13943
автомат	13944
указывают	13945
пропуск	13946
запланировано	13947
редакцию	13948
литератур	13949
перемирие	13950
изображения	13951
летию	13952
воронежской	13953
пожизн	13954
беседы	13955
венесуэлы	13956
самоуправления	13957
cor	13958
york	13959
аут	13960
анима	13961
вил	13962
дню	13963
иного	13964
ион	13965
ума	13966
##ek	13967
##шк	13968
##эта	13969
##ражения	13970
най	13971
налич	13972
растра	13973
##вано	13974
отдал	13975
придет	13976
прирост	13977
превос	13978
##скон	13979
##чее	13980
##вилось	13981
##нестров	13982
##сеев	13983
инстанции	13984
мали	13985
##бия	13986
годами	13987
будь	13988
нови	13989
##тическая	13990
деньгами	13991
лаза	13992
открытым	13993
условии	13994
признала	13995
подготовить	13996
назначении	13997
исключить	13998
пострадавшие	13999
действительности	14000
морского	14001
текущей	14002
появиться	14003
структуру	14004
инициативой	14005
организованной	14006
приднестров	14007
независимой	14008
##issan	14009
ветра	14010
воздушных	14011
радиостанции	14012
юридической	14013
конструкции	14014
арбитра	14015
смену	14016
хранение	14017
консерва	14018
знакомых	14019
консульта	14020
чечне	14021
появляются	14022
географи	14023
госпитализирован	14024
летие	14025
десятилетия	14026
уполномоченный	14027
яценюк	14028
достоинства	14029
заканчи	14030
реджеп	14031
принуд	14032
cnn	14033
нарышкин	14034
нобелев	14035
навсегда	14036
ало	14037
даты	14038
щую	14039
##алов	14040
##ацию	14041
##губ	14042
##жаться	14043
навод	14044
##леи	14045
кое	14046
зала	14047
##цио	14048
##лялись	14049
вошла	14050
вопреки	14051
##орд	14052
##акатастро	14053
тота	14054
вышед	14055
##стье	14056
##стьян	14057
каро	14058
каме	14059
инского	14060
интри	14061
##симуще	14062
##ленко	14063
перси	14064
случив	14065
##цева	14066
##бег	14067
будете	14068
##коман	14069
##прио	14070
фила	14071
град	14072
##тическим	14073
саммит	14074
возможного	14075
экспресс	14076
услы	14077
жиринов	14078
##ьева	14079
работаем	14080
александром	14081
автомобилем	14082
клиенты	14083
переданы	14084
авиакатастро	14085
соответствуют	14086
тираж	14087
продлении	14088
140	14089
преступник	14090
рамзан	14091
балан	14092
словами	14093
аресте	14094
передач	14095
массовые	14096
совершено	14097
голливуд	14098
атлан	14099
признание	14100
##oll	14101
одежду	14102
действующим	14103
двигателей	14104
электронные	14105
неопре	14106
административной	14107
ведущие	14108
нижнего	14109
улучшить	14110
алкоголь	14111
маршруту	14112
оборота	14113
татарстан	14114
семьям	14115
предметы	14116
заведомо	14117
вертолетов	14118
сложившейся	14119
заработать	14120
асфаль	14121
убыт	14122
модернизации	14123
сахалинской	14124
дискуссии	14125
окружающей	14126
встретился	14127
интеллектуаль	14128
стамбуле	14129
портрет	14130
презентации	14131
реставра	14132
набережной	14133
ненави	14134
тайип	14135
таблице	14136
премьером	14137
соболезнования	14138
microsoft	14139
ia	14140
абра	14141
бек	14142
вший	14143
кхл	14144
лан	14145
пей	14146
уяз	14147
эм	14148
южная	14149
##оче	14150
##леров	14151
##гвардии	14152
##дзе	14153
кона	14154
проповед	14155
##лятся	14156
прибор	14157
вывоз	14158
монет	14159
ствен	14160
депре	14161
сестра	14162
поликли	14163
рассе	14164
рассказ	14165
буль	14166
пуск	14167
кибера	14168
полным	14169
соглашению	14170
экспон	14171
##манов	14172
##рованного	14173
обош	14174
##работок	14175
рынку	14176
крупной	14177
секторе	14178
проведена	14179
хай	14180
обвинению	14181
собственников	14182
декабрь	14183
показателя	14184
иностранным	14185
нашла	14186
исчер	14187
сирийском	14188
намерения	14189
располож	14190
западного	14191
применением	14192
совместных	14193
праздники	14194
признаны	14195
объединение	14196
##ладить	14197
низкие	14198
союзников	14199
возникла	14200
танков	14201
выделено	14202
препарата	14203
корабли	14204
емель	14205
автобуса	14206
художников	14207
причастность	14208
предположил	14209
катастроф	14210
стабильности	14211
sport	14212
совещание	14213
вируса	14214
партнера	14215
региону	14216
сильней	14217
ориентирован	14218
краснодарского	14219
airbus	14220
доброволь	14221
злоумышленники	14222
точнее	14223
курорт	14224
кровь	14225
вмешательства	14226
саммите	14227
екатеринбурга	14228
сэконом	14229
2025	14230
арсена	14231
роспотребнадзора	14232
сопротивление	14233
life	14234
поблагодарил	14235
отходов	14236
нтв	14237
махачка	14238
##очеред	14239
87	14240
ser	14241
tes	14242
апо	14243
ельная	14244
илась	14245
хэ	14246
##ъем	14247
покон	14248
##атлан	14249
##кия	14250
заду	14251
##рун	14252
доработ	14253
волн	14254
тома	14255
измер	14256
моле	14257
бывшая	14258
разво	14259
ингуш	14260
посов	14261
спар	14262
стоить	14263
компак	14264
аксе	14265
лева	14266
образа	14267
началу	14268
пеки	14269
министру	14270
маркин	14271
минкуль	14272
##страхов	14273
##строя	14274
##тинг	14275
##довал	14276
учет	14277
госзак	14278
триум	14279
торги	14280
##росил	14281
##тенберг	14282
выбора	14283
происходят	14284
##праве	14285
успехов	14286
министерством	14287
исключил	14288
иностранцев	14289
опубликовали	14290
передача	14291
##ступило	14292
тяжелом	14293
тяжелые	14294
массы	14295
троих	14296
слад	14297
популя	14298
внесли	14299
недоб	14300
самим	14301
получал	14302
пожаре	14303
оценил	14304
пенсионных	14305
штрафы	14306
конфликтов	14307
чувство	14308
судебные	14309
упомина	14310
патриот	14311
деревян	14312
соперников	14313
профессиональных	14314
укрепления	14315
температуры	14316
поступили	14317
направили	14318
аудио	14319
референду	14320
институтов	14321
консультации	14322
недостаточ	14323
путешествие	14324
харьков	14325
шийся	14326
##способности	14327
существование	14328
##cial	14329
офицер	14330
мониторинг	14331
мониторинга	14332
звонки	14333
салоне	14334
воздействия	14335
ополчен	14336
сертифик	14337
княз	14338
проиграл	14339
автоваза	14340
высказался	14341
новгороде	14342
народу	14343
внезапно	14344
шарапова	14345
гаджет	14346
багаж	14347
мысль	14348
вырастет	14349
резервы	14350
неизбежно	14351
понадоб	14352
russia	14353
челси	14354
егэ	14355
сепарати	14356
неопреде	14357
госзаку	14358
bre	14359
ip	14360
tv	14361
ввоз	14362
ввели	14363
сдерж	14364
свин	14365
##нении	14366
##чую	14367
нечего	14368
залог	14369
солов	14370
равен	14371
отличи	14372
годовом	14373
спло	14374
стоян	14375
весом	14376
дай	14377
##ательности	14378
пуга	14379
пушкин	14380
мун	14381
граф	14382
##никах	14383
украинским	14384
покажет	14385
родине	14386
случаю	14387
душе	14388
ситуаций	14389
насчиты	14390
##платель	14391
именем	14392
##хина	14393
проводил	14394
конечном	14395
чистой	14396
включен	14397
бизнесом	14398
уверена	14399
михаи	14400
серьезным	14401
взрыве	14402
площадку	14403
аналитиков	14404
малых	14405
британские	14406
обвиняемый	14407
допустил	14408
хотела	14409
афган	14410
защитника	14411
литвин	14412
документах	14413
бойцы	14414
оперативного	14415
сохраняется	14416
переходе	14417
обсуждается	14418
нефтегаз	14419
виктория	14420
ошибка	14421
1970	14422
1960	14423
братья	14424
пилотов	14425
баку	14426
волгоградской	14427
снаря	14428
румынии	14429
джордж	14430
котировки	14431
мадрид	14432
стартует	14433
автосало	14434
вмф	14435
ad	14436
wh	14437
асси	14438
дв	14439
дод	14440
ение	14441
иа	14442
иса	14443
крав	14444
сби	14445
##мель	14446
##стере	14447
##енции	14448
полю	14449
##атур	14450
код	14451
коап	14452
##мир	14453
##ваи	14454
##инге	14455
ронал	14456
ног	14457
лишен	14458
маз	14459
таба	14460
##альную	14461
воздерж	14462
##итесь	14463
стоять	14464
летние	14465
##рится	14466
новомосков	14467
безработ	14468
грана	14469
считы	14470
организм	14471
марга	14472
возможные	14473
средство	14474
каря	14475
военном	14476
санти	14477
открытый	14478
женой	14479
призвала	14480
аллер	14481
определения	14482
испания	14483
170	14484
свобода	14485
специалиста	14486
называли	14487
играли	14488
дополнительного	14489
туристы	14490
запущен	14491
возбудили	14492
совместного	14493
признания	14494
жалу	14495
близкие	14496
адвокатов	14497
окончании	14498
сервисов	14499
студии	14500
двигаться	14501
гибрид	14502
##utsche	14503
тексте	14504
удивля	14505
футболисты	14506
космических	14507
займ	14508
видимости	14509
скончалась	14510
гарри	14511
пятеро	14512
холодной	14513
армию	14514
кольца	14515
субсидии	14516
выбирать	14517
транспорти	14518
ростех	14519
произойти	14520
старых	14521
дарья	14522
удосто	14523
фунтов	14524
лукашенко	14525
поделился	14526
регламент	14527
рекомендовал	14528
автоваз	14529
извинения	14530
заложников	14531
уступил	14532
загря	14533
xix	14534
##ileaks	14535
эдуард	14536
декора	14537
индустрии	14538
audi	14539
wikileaks	14540
горизон	14541
nissan	14542
але	14543
бей	14544
дре	14545
дым	14546
еа	14547
ика	14548
ивать	14549
кы	14550
лот	14551
нская	14552
пс	14553
плов	14554
рт	14555
сдать	14556
тк	14557
утро	14558
увид	14559
цкий	14560
штор	14561
юан	14562
##план	14563
поза	14564
##торий	14565
##лировать	14566
##лати	14567
##атр	14568
##тино	14569
сосуди	14570
пролет	14571
призывает	14572
востор	14573
выта	14574
бывшим	14575
##жев	14576
##мад	14577
##обы	14578
предпис	14579
верить	14580
чехии	14581
экск	14582
кук	14583
лесо	14584
решит	14585
##ентам	14586
организма	14587
экономическим	14588
остальное	14589
##нутся	14590
национальную	14591
выборам	14592
надеются	14593
сталин	14594
способы	14595
достижение	14596
выходе	14597
спорте	14598
абсур	14599
думает	14600
миллиардера	14601
слава	14602
шоко	14603
уклон	14604
жалов	14605
понятие	14606
запасов	14607
сергею	14608
выставку	14609
промышленной	14610
снятия	14611
незаконных	14612
дальнейшее	14613
собеседники	14614
используя	14615
армян	14616
возбуждении	14617
студен	14618
соперник	14619
оказывают	14620
сегодняшнего	14621
песня	14622
комментарий	14623
шахте	14624
вступит	14625
инфраструктуру	14626
ленинградской	14627
братьев	14628
прошедшие	14629
ресторан	14630
обеспечивает	14631
дэви	14632
разыски	14633
потря	14634
хакер	14635
разговоре	14636
федоров	14637
снимки	14638
яценюка	14639
ехать	14640
##axy	14641
ссылаясь	14642
##gyp	14643
ножом	14644
рассуждает	14645
фавори	14646
неисправ	14647
street	14648
motor	14649
рогозин	14650
galaxy	14651
набиулли	14652
cl	14653
land	14654
wall	14655
всу	14656
иско	14657
тка	14658
умышлен	14659
чек	14660
элла	14661
##аров	14662
##сенко	14663
##ялись	14664
##чо	14665
##енная	14666
пота	14667
коопера	14668
непон	14669
прощ	14670
просил	14671
рака	14672
прер	14673
рожден	14674
изба	14675
моги	14676
##чала	14677
подве	14678
када	14679
переу	14680
онко	14681
сильные	14682
стой	14683
веро	14684
орден	14685
##комиться	14686
бул	14687
обратить	14688
##сывать	14689
скот	14690
минт	14691
менед	14692
траур	14693
россиянам	14694
служить	14695
тысячу	14696
этаже	14697
лучшего	14698
запрете	14699
льной	14700
продлить	14701
московская	14702
сборы	14703
ценам	14704
изменится	14705
грузо	14706
антикор	14707
бюджетные	14708
арестом	14709
##ражением	14710
избирателя	14711
германию	14712
западном	14713
канада	14714
минувшие	14715
доступны	14716
середины	14717
выдачи	14718
белые	14719
несколькими	14720
пожил	14721
низко	14722
максимальная	14723
конференция	14724
относиться	14725
лицами	14726
арестовали	14727
силовиков	14728
гарантий	14729
##edia	14730
молока	14731
привлекать	14732
##парков	14733
обслуживание	14734
маленький	14735
анкары	14736
прошедших	14737
распространяется	14738
пассажирский	14739
заставить	14740
африкан	14741
дагестан	14742
предотвратить	14743
платформы	14744
яблоко	14745
кудрин	14746
облигаций	14747
благов	14748
диагноз	14749
неправильно	14750
задействованы	14751
самопровозглашенной	14752
эстаф	14753
конашенков	14754
tesla	14755
антикорруп	14756
et	14757
ib	14758
ающими	14759
ению	14760
мета	14761
ои	14762
оформи	14763
ряб	14764
тет	14765
уйдет	14766
##рда	14767
##чкин	14768
##ai	14769
##per	14770
##лились	14771
##рировать	14772
кома	14773
запод	14774
соро	14775
проезда	14776
общие	14777
##мона	14778
выя	14779
##чаю	14780
подходит	14781
##нула	14782
ницу	14783
личные	14784
перешли	14785
мала	14786
##бина	14787
сток	14788
стоял	14789
дадут	14790
суди	14791
рука	14792
дистанции	14793
ваша	14794
муже	14795
##ложений	14796
представит	14797
бастры	14798
##тическое	14799
минсель	14800
##ence	14801
правительственные	14802
думе	14803
открытого	14804
международное	14805
фактором	14806
рядов	14807
##озе	14808
установления	14809
##ровался	14810
поэта	14811
строительных	14812
частной	14813
частного	14814
уголовному	14815
обыкнов	14816
исключение	14817
генерала	14818
инвестиционного	14819
хищения	14820
предлагаем	14821
медицины	14822
выплату	14823
предоставлении	14824
тренером	14825
трол	14826
берегу	14827
договоров	14828
мощный	14829
сняли	14830
попросила	14831
понимаем	14832
влияет	14833
памятников	14834
пропаг	14835
скрылся	14836
столичном	14837
жестко	14838
ликвида	14839
поступила	14840
коалиция	14841
изменилась	14842
ресторанов	14843
импорта	14844
приморского	14845
приморье	14846
выглядят	14847
осужденных	14848
опусти	14849
лобби	14850
летия	14851
старые	14852
кроссовера	14853
противоречит	14854
##снабжение	14855
шайбу	14856
начнутся	14857
реагировать	14858
вагонов	14859
козлов	14860
репети	14861
чудо	14862
принесли	14863
величине	14864
копеек	14865
непонят	14866
заподоз	14867
car	14868
guar	14869
xvi	14870
блан	14871
нур	14872
пли	14873
пшени	14874
сак	14875
##сю	14876
##рного	14877
##mon	14878
рао	14879
домо	14880
воров	14881
##восток	14882
реструк	14883
##кур	14884
лиф	14885
сирот	14886
опья	14887
давали	14888
##баева	14889
гара	14890
лежит	14891
данную	14892
туров	14893
основное	14894
экономист	14895
лад	14896
заявлению	14897
состоялись	14898
надпись	14899
направлена	14900
курди	14901
следующих	14902
проблеме	14903
льным	14904
происходило	14905
чемпионка	14906
исследовании	14907
фаши	14908
предприятии	14909
генеральной	14910
подозритель	14911
документу	14912
##ринг	14913
торговые	14914
действиям	14915
исин	14916
крепо	14917
остат	14918
собирать	14919
семьей	14920
выполнены	14921
воспиты	14922
любителей	14923
популярности	14924
исторического	14925
приобрета	14926
незаконной	14927
ированной	14928
атаке	14929
ключевым	14930
статусе	14931
широкий	14932
освобождение	14933
поездов	14934
стремится	14935
спросил	14936
конструктор	14937
цифра	14938
агрессии	14939
заняли	14940
##финанси	14941
ционный	14942
брони	14943
комментирует	14944
цикл	14945
защищен	14946
##мбарго	14947
тренирово	14948
уважа	14949
прошлогод	14950
менеджеров	14951
камеру	14952
ильи	14953
статистика	14954
потеряли	14955
новосибирске	14956
протокол	14957
сформирован	14958
злоумышленник	14959
антона	14960
захвати	14961
офицеров	14962
противодействия	14963
мельдония	14964
проходила	14965
тормоз	14966
удовольствием	14967
шевченко	14968
мусора	14969
фундамента	14970
finan	14971
арсенал	14972
разногласия	14973
отклонил	14974
реструкту	14975
.:	14976
egyp	14977
rt	14978
аешь	14979
вере	14980
ленте	14981
рель	14982
св	14983
слия	14984
скам	14985
шему	14986
##иш	14987
##бет	14988
##шали	14989
##ns	14990
погру	14991
загруз	14992
##лока	14993
##тироваться	14994
обит	14995
отстра	14996
приходят	14997
приехать	14998
выпи	14999
##рыве	15000
##зами	15001
##пот	15002
##нулась	15003
индо	15004
перекре	15005
марии	15006
##люзив	15007
вера	15008
экран	15009
##ционное	15010
банками	15011
святого	15012
владивосток	15013
военными	15014
меджли	15015
открытых	15016
следы	15017
клиниче	15018
продажа	15019
высоты	15020
источником	15021
использовании	15022
продлится	15023
испу	15024
##ore	15025
повышении	15026
балет	15027
исключает	15028
волны	15029
торговый	15030
китайские	15031
местами	15032
покупатель	15033
разработан	15034
##ющимся	15035
ученый	15036
следственном	15037
прокуратуре	15038
рассмотрит	15039
рассмотрении	15040
британская	15041
информационных	15042
следователь	15043
съезде	15044
предварительного	15045
предварительные	15046
парламентарии	15047
организациях	15048
помещений	15049
документации	15050
женщине	15051
атака	15052
хозяйство	15053
проблемам	15054
формирований	15055
оплату	15056
коваль	15057
улучшение	15058
##amb	15059
творчества	15060
замену	15061
домашних	15062
микрорай	15063
урожай	15064
кругло	15065
конкуренто	15066
смартфона	15067
преимущества	15068
экспертиза	15069
земельных	15070
вводить	15071
копей	15072
впечатления	15073
шихся	15074
встретится	15075
литературы	15076
содействие	15077
знаменитый	15078
скеп	15079
погоды	15080
закончилась	15081
мюнхене	15082
батальона	15083
врезался	15084
лейтенант	15085
guardian	15086
ac	15087
ешь	15088
иным	15089
ирова	15090
кут	15091
нские	15092
озе	15093
псев	15094
титов	15095
ушла	15096
умира	15097
флот	15098
ювели	15099
ярко	15100
##титься	15101
##вь	15102
##ела	15103
##сдик	15104
##гатов	15105
##хова	15106
##ne	15107
понача	15108
##тологи	15109
##тав	15110
обид	15111
отвод	15112
приви	15113
вороб	15114
##стал	15115
##амет	15116
перерыва	15117
мастера	15118
##сай	15119
летним	15120
любая	15121
бун	15122
анны	15123
объеди	15124
леон	15125
министры	15126
действовали	15127
меню	15128
живой	15129
##строить	15130
расчета	15131
станцию	15132
руководил	15133
души	15134
##рьев	15135
среда	15136
развле	15137
необходимым	15138
высоком	15139
надлежа	15140
направленные	15141
нарушает	15142
проведению	15143
списки	15144
интереса	15145
позволили	15146
национальные	15147
планировали	15148
черные	15149
хорошее	15150
признают	15151
научной	15152
подтвердить	15153
клубом	15154
ходят	15155
заняться	15156
вернули	15157
остры	15158
##тивом	15159
трудовой	15160
разработка	15161
применять	15162
ману	15163
подписать	15164
подписания	15165
юрисдик	15166
минувшей	15167
предпринимательства	15168
гонча	15169
штрафной	15170
помещении	15171
минобр	15172
проблемах	15173
присутствия	15174
шансов	15175
штайн	15176
столичной	15177
драго	15178
выиграть	15179
зарубежные	15180
храма	15181
инструмент	15182
монако	15183
согласны	15184
квалификации	15185
тюрьме	15186
разнообраз	15187
расчеты	15188
написано	15189
##энерго	15190
бессмер	15191
шегося	15192
##науки	15193
лагерь	15194
иркутской	15195
##сторожности	15196
саратовской	15197
рпц	15198
калашников	15199
разбирательства	15200
библиотеки	15201
лукойл	15202
газопровода	15203
яйца	15204
осадков	15205
оспари	15206
метрополитена	15207
приуро	15208
недобро	15209
роналду	15210
эксклюзив	15211
псевдо	15212
поначалу	15213
минобрнауки	15214
por	15215
алось	15216
вправе	15217
гур	15218
дпс	15219
ельных	15220
уфа	15221
хво	15222
чин	15223
щее	15224
##алась	15225
##кет	15226
##клон	15227
##чительно	15228
##рал	15229
попол	15230
полях	15231
##гоне	15232
запом	15233
дому	15234
выстраи	15235
изации	15236
мороз	15237
##спорта	15238
##гим	15239
##тьев	15240
ногу	15241
##зиа	15242
ниг	15243
липе	15244
личное	15245
перера	15246
переговор	15247
##сис	15248
мах	15249
рабочего	15250
##становок	15251
вины	15252
##ательстве	15253
диамет	15254
##метов	15255
лесу	15256
грани	15257
представлена	15258
скором	15259
мартин	15260
ведение	15261
получился	15262
родителями	15263
офисе	15264
открылся	15265
трижды	15266
необходима	15267
политикой	15268
лучшей	15269
сыном	15270
енное	15271
администрацию	15272
брай	15273
хорошей	15274
контролю	15275
суммар	15276
крушение	15277
образовательных	15278
стиля	15279
занят	15280
доходность	15281
финансовым	15282
мэй	15283
площадках	15284
создают	15285
греб	15286
голодец	15287
здоровьем	15288
предварительной	15289
давности	15290
парламентариев	15291
короля	15292
крупнейшим	15293
травму	15294
расширения	15295
очевидцы	15296
карабах	15297
соединенные	15298
гарантии	15299
инвестор	15300
наталь	15301
артисты	15302
ционные	15303
узнал	15304
вспы	15305
оптима	15306
зеленый	15307
стрельбу	15308
страшно	15309
усиление	15310
потенциально	15311
спутников	15312
пленар	15313
овощи	15314
овощей	15315
изображение	15316
ающую	15317
декларации	15318
жилищно	15319
увлек	15320
прогнозирует	15321
индустри	15322
отслежи	15323
демонстрирует	15324
опасаются	15325
биатлонист	15326
астрахан	15327
консерватив	15328
девальва	15329
озабо	15330
do	15331
бод	15332
вшая	15333
грин	15334
днк	15335
еды	15336
зор	15337
звания	15338
рани	15339
ткан	15340
ультра	15341
##ином	15342
##евой	15343
##жутся	15344
##vo	15345
##тори	15346
##рела	15347
##релся	15348
##андер	15349
заим	15350
##еми	15351
домини	15352
прикры	15353
вышло	15354
изы	15355
##диоз	15356
##метом	15357
##стон	15358
##шины	15359
лихо	15360
##ательны	15361
желе	15362
новоро	15363
##летний	15364
организу	15365
будущих	15366
полка	15367
детек	15368
руководстве	15369
водки	15370
миллионы	15371
находясь	15372
слеп	15373
окно	15374
местными	15375
соответствие	15376
спир	15377
тамбов	15378
льду	15379
национальном	15380
администрацией	15381
очередного	15382
определенных	15383
политическое	15384
преступной	15385
четвертого	15386
обсужд	15387
поставщиков	15388
положительный	15389
1993	15390
пользователям	15391
##зости	15392
потерпел	15393
турист	15394
трои	15395
ислама	15396
слав	15397
сравнения	15398
сбил	15399
отсутствует	15400
сложные	15401
собеседников	15402
колосс	15403
покинули	15404
капитана	15405
аналогичные	15406
задержанный	15407
оказывает	15408
уничтожен	15409
фирм	15410
доставки	15411
арестовал	15412
заболевание	15413
##гард	15414
мобильный	15415
определенный	15416
артиста	15417
обстрел	15418
чрезмер	15419
природных	15420
успехом	15421
георгиев	15422
соблюдения	15423
счетах	15424
забывать	15425
сомнений	15426
афганистана	15427
товарище	15428
мюнхен	15429
госпитализированы	15430
предшествен	15431
возможны	15432
сосредоточ	15433
разбился	15434
штук	15435
лебедев	15436
избавиться	15437
конвенции	15438
комсомоль	15439
afp	15440
euro	15441
ab	15442
bbc	15443
ni	15444
ате	15445
влюб	15446
нь	15447
нскую	15448
фнс	15449
ыми	15450
эволю	15451
##лк	15452
##керы	15453
##ma	15454
##af	15455
##тос	15456
##топ	15457
##рив	15458
отв	15459
вымог	15460
моим	15461
мобили	15462
##дини	15463
##шись	15464
разобла	15465
##ждено	15466
дик	15467
люкс	15468
анные	15469
арена	15470
знаков	15471
марти	15472
служил	15473
родина	15474
родителям	15475
производить	15476
имеются	15477
международными	15478
автомобильных	15479
женской	15480
молч	15481
льную	15482
продлил	15483
брата	15484
угля	15485
незадолго	15486
образованию	15487
польша	15488
##линг	15489
положить	15490
голосовании	15491
##шееся	15492
столица	15493
покупателя	15494
славы	15495
признана	15496
договору	15497
голове	15498
осуществления	15499
отправлен	15500
пункте	15501
постоянной	15502
важнее	15503
сравнении	15504
гонкон	15505
незаконном	15506
важное	15507
принципу	15508
сложная	15509
тюмен	15510
ированных	15511
расширен	15512
бизнесу	15513
чувствует	15514
организован	15515
рекоменд	15516
валюте	15517
воздушно	15518
традиционных	15519
романов	15520
поступать	15521
фестивале	15522
обсуждают	15523
схват	15524
домашнем	15525
пациент	15526
премия	15527
всемирной	15528
оформить	15529
сократилось	15530
заведую	15531
миграции	15532
посадки	15533
паспор	15534
опрошенные	15535
грузовик	15536
медалей	15537
гряду	15538
архитектур	15539
корпус	15540
чистый	15541
носителя	15542
повлияет	15543
завоева	15544
схемы	15545
черномор	15546
org	15547
углевод	15548
тимошенко	15549
роспотребнадзор	15550
пальмиры	15551
краткосро	15552
изнасилов	15553
благове	15554
вниз	15555
деду	15556
ивший	15557
уходя	15558
фил	15559
эмбарго	15560
##аз	15561
##тей	15562
##блюд	15563
##сона	15564
##ear	15565
##чок	15566
##стеров	15567
##овый	15568
поеди	15569
##ролог	15570
нации	15571
##ливо	15572
собор	15573
отступ	15574
отзыв	15575
##стик	15576
реформи	15577
молит	15578
##чало	15579
##боров	15580
##гивает	15581
##сека	15582
бои	15583
всеоб	15584
##ленд	15585
##сках	15586
давал	15587
осетии	15588
пуле	15589
вай	15590
леона	15591
лечеб	15592
кина	15593
март	15594
рфпл	15595
экономическую	15596
лун	15597
приняло	15598
турбо	15599
игнори	15600
##дови	15601
составлять	15602
шест	15603
окку	15604
терроризм	15605
авиация	15606
ценой	15607
проводим	15608
легких	15609
фай	15610
положением	15611
союзе	15612
кредитные	15613
опубликованы	15614
расследовании	15615
сирийская	15616
намерено	15617
планете	15618
кубань	15619
видеоро	15620
реального	15621
пассажира	15622
предоставление	15623
массу	15624
канаде	15625
праздников	15626
внутренний	15627
собрали	15628
собрание	15629
окончил	15630
визы	15631
промышленного	15632
вывода	15633
протестов	15634
переговорам	15635
смесь	15636
подорож	15637
хус	15638
управляющих	15639
платеж	15640
профессиональной	15641
мобильного	15642
победе	15643
академик	15644
автобусов	15645
нанесли	15646
определенной	15647
броне	15648
эфир	15649
согласилась	15650
учебных	15651
направлениях	15652
эмоции	15653
серебро	15654
обстоятельствах	15655
вылетел	15656
экране	15657
банкротстве	15658
стартовал	15659
арабской	15660
учеников	15661
намечен	15662
атмосф	15663
джеймс	15664
заморозке	15665
телевидение	15666
ангела	15667
голодов	15668
отозвал	15669
лидирует	15670
происходящее	15671
откровенно	15672
упомяну	15673
лауреат	15674
здорово	15675
увеличен	15676
смирнов	15677
конфедера	15678
вверх	15679
лозун	15680
дюймов	15681
индоне	15682
штайнмай	15683
поединок	15684
gold	15685
вложения	15686
звер	15687
м2	15688
ове	15689
очной	15690
публиков	15691
фтс	15692
шот	15693
##ваны	15694
##кать	15695
##ъю	15696
##tra	15697
попов	15698
##анты	15699
##кос	15700
##нисти	15701
корее	15702
договоры	15703
робер	15704
разби	15705
разместить	15706
инг	15707
перевести	15708
сильных	15709
##био	15710
долл	15711
осени	15712
служа	15713
гараж	15714
##форд	15715
будущий	15716
проекти	15717
агента	15718
родных	15719
корне	15720
трансли	15721
открытой	15722
имела	15723
##феева	15724
секс	15725
лучшая	15726
строительной	15727
фондом	15728
признаков	15729
подтверждения	15730
населением	15731
проверке	15732
##йден	15733
мурманчан	15734
доходах	15735
сирийский	15736
закрыты	15737
дополнительный	15738
молодым	15739
мероприятиях	15740
шоки	15741
берег	15742
правоохранителей	15743
юристы	15744
трампу	15745
палат	15746
рассказывали	15747
съезда	15748
оценивают	15749
писателя	15750
ираном	15751
расшиф	15752
дальнейшей	15753
платят	15754
немецкой	15755
убил	15756
арестованы	15757
!",	15758
выиграли	15759
посадо	15760
знакомые	15761
избранного	15762
депутатами	15763
фарм	15764
концерта	15765
войсками	15766
инструмента	15767
подчеркивают	15768
севастополь	15769
подпись	15770
концепции	15771
удивительно	15772
поклонников	15773
кемеров	15774
отраслей	15775
родилась	15776
ветерина	15777
добросовест	15778
органам	15779
пермского	15780
стекло	15781
розыгры	15782
минздрав	15783
несчаст	15784
входящих	15785
спонсо	15786
галина	15787
обжаловать	15788
sky	15789
володин	15790
бассей	15791
##технологи	15792
попробовать	15793
аксенов	15794
проинформи	15795
снайпер	15796
непонятно	15797
опьянения	15798
uber	15799
ve	15800
алю	15801
броса	15802
вле	15803
елен	15804
кр	15805
мей	15806
мтс	15807
овать	15808
плу	15809
сказа	15810
уга	15811
усы	15812
фет	15813
хал	15814
ывают	15815
эска	15816
##зать	15817
##чане	15818
##vel	15819
##гос	15820
##ерьез	15821
##лею	15822
загру	15823
##ссон	15824
общим	15825
##спорт	15826
##бол	15827
ству	15828
стена	15829
поддель	15830
##щев	15831
##няться	15832
перестре	15833
конъю	15834
##ганом	15835
##жила	15836
масси	15837
##альти	15838
вела	15839
гала	15840
вопросах	15841
всерьез	15842
делах	15843
участниц	15844
офиса	15845
факторы	15846
шагом	15847
гражданства	15848
участию	15849
местная	15850
колла	15851
тип	15852
задержание	15853
обвинений	15854
пенальти	15855
способна	15856
четвертое	15857
электромоби	15858
банкро	15859
утвердил	15860
временного	15861
волна	15862
пострадавший	15863
инвестиционных	15864
думал	15865
правах	15866
проектах	15867
амнисти	15868
применении	15869
посеща	15870
турецкая	15871
осуществить	15872
книге	15873
приобрел	15874
киевской	15875
вырасти	15876
постановил	15877
единственной	15878
письмен	15879
низкий	15880
независимо	15881
отечественные	15882
расположенных	15883
немецких	15884
синх	15885
отказе	15886
парижа	15887
завершении	15888
мигранты	15889
предупреждение	15890
полосы	15891
награду	15892
разрушен	15893
хранили	15894
равных	15895
зеленых	15896
инструментов	15897
шейся	15898
музыкантов	15899
севастополе	15900
командира	15901
дизайн	15902
похити	15903
убытки	15904
потребительских	15905
экстренных	15906
резервов	15907
преодоле	15908
климата	15909
афганистане	15910
преследования	15911
поисках	15912
выразила	15913
экстремистской	15914
рассчитан	15915
минюст	15916
евровидение	15917
януковича	15918
добраться	15919
возглавить	15920
##штейн	15921
нусра	15922
владивостоке	15923
компромисс	15924
таилан	15925
##undai	15926
стокголь	15927
круглосу	15928
благовещен	15929
ag	15930
fa	15931
res	15932
аку	15933
аму	15934
взи	15935
вяз	15936
гин	15937
сму	15938
увы	15939
чили	15940
юне	15941
##зита	15942
##уч	15943
##рдо	15944
##др	15945
##чник	15946
##рея	15947
##рини	15948
##рирован	15949
##нилась	15950
##лос	15951
сож	15952
отбора	15953
отстаи	15954
приста	15955
престо	15956
мону	15957
##мара	15958
миф	15959
##теж	15960
лишение	15961
##шеб	15962
силе	15963
беля	15964
спч	15965
сун	15966
##деров	15967
##зован	15968
рукой	15969
провоци	15970
обладатель	15971
автопроизвод	15972
##преда	15973
вопросами	15974
##итим	15975
живых	15976
организатор	15977
луценко	15978
лого	15979
пресса	15980
прессы	15981
известная	15982
##лович	15983
агентств	15984
снижении	15985
шиит	15986
##щегося	15987
курсу	15988
использовал	15989
голосу	15990
науке	15991
здрав	15992
классы	15993
огнем	15994
##let	15995
общественное	15996
август	15997
иностранного	15998
потребности	15999
потребовала	16000
серьезную	16001
##рецедент	16002
увеличении	16003
необходимое	16004
потерять	16005
беспрецедент	16006
оставляет	16007
поняли	16008
предпринимателя	16009
россиянка	16010
незаконным	16011
организациям	16012
конфликты	16013
ированы	16014
ированная	16015
купил	16016
лишним	16017
столичные	16018
поручение	16019
активист	16020
##перевоз	16021
напали	16022
девочку	16023
стремятся	16024
устроить	16025
истин	16026
итальянский	16027
конкуренцию	16028
акцизов	16029
подмосковья	16030
лыж	16031
[...]
