<unk>	0
<s>	0
</s>	0
▁	-2.52385
।	-3.2374
ं	-3.67389
ः	-3.74629
े	-4.41651
ा	-4.63802
म्	-4.71719
॥	-4.74058
,	-4.80808
▁न	-4.81865
ो	-4.98983
▁च	-4.9928
-	-5.02058
म	-5.1025
स्य	-5.22855
.	-5.24385
▁स	-5.3985
▁-	-5.4494
▁अ	-5.48264
▁(	-5.50735
)	-5.55053
▁इति	-5.56156
न	-5.60803
त	-5.60804
▁"	-5.61463
ति	-5.66566
ाः	-5.7139
ी	-5.79369
ेन	-5.8297
क	-5.87553
या	-5.90001
ि	-5.92445
▁प्र	-5.9665
▁वा	-6.00235
"	-6.02834
▁एव	-6.08588
ते	-6.08818
स	-6.10833
▁तु	-6.12206
▁वि	-6.15309
ता	-6.17325
र	-6.21621
▁आ	-6.21808
य	-6.23349
तः	-6.25938
ौ	-6.29726
व	-6.30263
▁हि	-6.30607
ाय	-6.32403
न्	-6.37855
▁.	-6.38244
्य	-6.39549
▁यथा	-6.41089
प	-6.4507
ना	-6.45973
ानि	-6.46009
'	-6.46814
▁'	-6.52058
ात्	-6.53221
ानां	-6.53477
र्	-6.54724
्	-6.57304
▁सर्व	-6.57328
▁ते	-6.57962
च	-6.58264
▁स्व	-6.58329
मा	-6.59762
ल	-6.61965
स्	-6.62081
नि	-6.63422
द	-6.66568
॒	-6.66744
त्	-6.67667
▁भवति	-6.67966
वि	-6.69497
अ	-6.69891
▁तथा	-6.70242
श्च	-6.71762
▁सं	-6.73502
ेषु	-6.74328
ैः	-6.74399
ग	-6.74627
?	-6.7489
▁पर	-6.76119
ह	-6.76522
▁_	-6.78185
श	-6.78557
▁प्रति	-6.78593
ान्	-6.78606
▁मे	-6.81811
प्र	-6.83014
▁अपि	-6.85498
ज	-6.86926
▁तस्य	-6.88316
▁किं	-6.88326
▁सा	-6.88803
▁व	-6.895
▁यदि	-6.90156
▁सु	-6.92768
पि	-6.92847
▁तत्	-6.92996
॑	-6.93138
:	-6.93485
▁?	-6.94724
ेण	-6.95077
▁अस्ति	-6.95579
▁मम	-6.9833
०	-6.98605
ण	-6.98817
ां	-6.99131
▁क	-7.02584
सि	-7.05033
तु	-7.06217
▁एक	-7.06599
▁वै	-7.08347
थ	-7.08436
ादि	-7.08984
वा	-7.09289
▁तत्र	-7.10244
तो	-7.10312
ु	-7.11102
▁एवं	-7.11648
▁नि	-7.1173
सं	-7.11847
▁य	-7.12071
▁परि	-7.12082
न्ति	-7.12812
ने	-7.12907
▁पुनः	-7.13809
ये	-7.15586
मेव	-7.16361
गु	-7.16427
▁त	-7.1652
▁प	-7.16533
▁नाम	-7.19601
स्व	-7.19889
▁यत्	-7.20341
▁सह	-7.21796
स्तु	-7.23819
ै	-7.23978
सा	-7.24407
का	-7.24848
s	-7.25221
१	-7.2527
त्व	-7.25491
नं	-7.26653
▁अथ	-7.27851
ॊ	-7.29529
ेति	-7.30418
ित	-7.30541
ट	-7.31755
ार्थ	-7.32527
्या	-7.34375
/	-7.34504
स्त	-7.34605
रा	-7.35347
यो	-7.35387
▁१	-7.35592
कः	-7.35842
▁पूर्व	-7.36321
▁मा	-7.36463
▁तदा	-7.37471
▁तव	-7.37903
▁सम	-7.38982
ष	-7.39281
त्य	-7.39334
▁उप	-7.39799
▁तद्	-7.40004
▁देव	-7.40798
▁ततः	-7.41118
]	-7.41249
त्र	-7.41326
▁२	-7.42939
के	-7.43019
मिति	-7.43342
▁तेन	-7.45333
द्	-7.45879
भ	-7.46636
▁श	-7.4687
सु	-7.47475
रि	-7.47517
ला	-7.48237
;	-7.48276
ड	-7.48279
यति	-7.49015
ख	-7.49215
िक	-7.49442
▁इ	-7.49567
▁ग	-7.49921
▁=	-7.50735
्यते	-7.51203
ब	-7.52629
त्वं	-7.53336
▁उ	-7.5382
य्	-7.53912
ल्	-7.53953
▁तद	-7.5429
▁धर्म	-7.54382
ाणां	-7.5453
ैव	-7.55458
कं	-7.5564
कार	-7.56395
▁__	-7.56657
▁[	-7.56708
हि	-7.56966
नु	-7.57017
यं	-7.57067
यः	-7.57887
▁मया	-7.58426
▁का	-7.59201
इ	-7.6006
ान	-7.60304
▁अत्र	-7.60412
ऽ	-7.61345
तां	-7.62095
▁!	-7.62373
▁ये	-7.62509
▁कथं	-7.62895
रूप	-7.62918
▁ए	-7.63885
ोऽ	-7.64266
▁तं	-7.65209
२	-7.65297
▁ह	-7.65716
योः	-7.65965
धि	-7.66488
▁भव	-7.66517
ोप	-7.66618
▁यो	-7.66769
ष्ट	-7.66881
▁सः	-7.67187
रु	-7.6723
दा	-7.67318
▁कर्म	-7.67492
!	-7.67602
ीय	-7.68213
भि	-7.69033
ाव	-7.69153
मि	-7.69377
आ	-7.69397
देव	-7.69679
▁या	-7.70169
ती	-7.70456
▁ब	-7.70516
▁अहं	-7.70575
वान्	-7.70731
घ	-7.715
यां	-7.71843
ध	-7.72324
देश	-7.72467
रे	-7.7345
--	-7.73523
▁अन्य	-7.7374
▁हे	-7.73997
▁के	-7.74233
▁इत्य	-7.74328
▁द	-7.74955
▁कार्य	-7.75729
▁ज	-7.76601
ाद	-7.77261
िता	-7.77424
▁त्वं	-7.77533
मपि	-7.77771
याः	-7.77826
दि	-7.78478
▁अनु	-7.78722
भिः	-7.79115
द्य	-7.79509
णा	-7.79722
क्	-7.79956
श्	-7.80297
▁अभि	-7.8032
वे	-7.80454
▁गुण	-7.80641
पा	-7.80856
▁पुत्र	-7.81151
न्न	-7.8121
▁वर्ष	-7.81552
▁ॐ	-7.81779
▁यत्र	-7.82186
वत्	-7.82334
ाणि	-7.8241
▁दु	-7.82591
न्य	-7.82797
e	-7.82987
ामि	-7.83564
▁आसीत्	-7.84552
तया	-7.84712
▁स्यात्	-7.84964
मान	-7.85024
से	-7.85259
▁३	-7.86083
▁विश्व	-7.86176
ञ्च	-7.86527
▁सर्वे	-7.86953
भाव	-7.8716
▁--	-7.87589
▁यदा	-7.8824
न्त	-7.88292
क्ष	-7.88402
▁यः	-7.88615
ितः	-7.88811
▁काम	-7.88887
ँ	-7.88955
स्थ	-7.89182
जन	-7.89579
पर	-7.8985
▁अतः	-7.90126
▁कु	-7.90242
ङ्ग	-7.9047
▁महा	-7.91383
धा	-7.91439
▁बहु	-7.91629
री	-7.91853
मे	-7.91953
a	-7.9202
लि	-7.9245
पद	-7.92782
▁नमः	-7.92811
▁पद	-7.93133
्यं	-7.93188
ेत	-7.93207
▁लोक	-7.9484
िका	-7.9486
ाद्	-7.95059
▁पा	-7.95143
ेत्	-7.95214
मी	-7.95243
न्ते	-7.9531
▁त्रि	-7.95718
त्वात्	-7.96101
▁ख	-7.96427
▁/	-7.96438
__	-7.96647
▁प्रथम	-7.96927
मु	-7.97705
▁४	-7.99595
गुण	-7.99755
▁वेद	-7.9983
ैर्	-7.99987
▁करोति	-8.00199
▁निर्	-8.00615
▁ज्ञान	-8.00712
ू	-8.00951
▁राज	-8.01155
▁जन	-8.01459
च्छ	-8.01557
o	-8.01695
सी	-8.02534
▁अस्य	-8.02591
▁उत्तर	-8.02923
रो	-8.03413
कर	-8.03518
▁तेषां	-8.04195
▁यस्य	-8.04541
को	-8.04666
तर	-8.04731
▁अव	-8.05225
▁कृत	-8.05323
ैक	-8.05365
षु	-8.05469
▁1	-8.05594
▁दश	-8.05663
धर्म	-8.05804
▁२०	-8.05809
र्य	-8.06006
▁समा	-8.06105
▁प्रा	-8.06127
▁अप	-8.06312
▁प्राप्त	-8.06449
▁इव	-8.06565
▁भवेत्	-8.06852
व्य	-8.06899
स्या	-8.07238
▁सदा	-8.07644
▁सन्	-8.07644
▁धन	-8.07648
▁शब्द	-8.07796
ेव	-8.07964
परि	-8.07979
▁इदं	-8.08018
▁तर्हि	-8.08084
येत्	-8.08248
३	-8.0876
हं	-8.0896
काल	-8.09043
▁५	-8.09045
च्	-8.09634
▁१९	-8.10252
▁अर्थ	-8.10896
▁अन	-8.1095
▁वर्तते	-8.11151
ानु	-8.11387
ट्	-8.11447
▁वयं	-8.11929
ठ	-8.12036
प्य	-8.12321
ाह	-8.12542
नी	-8.12927
▁कि	-8.13119
▁सन्ति	-8.13505
▁और	-8.13568
▁को	-8.13663
भव	-8.13826
▁जल	-8.13836
▁इह	-8.13933
▁मां	-8.14246
▁गृह	-8.14458
उ	-8.14539
कृत	-8.1454
ए	-8.14819
▁ना	-8.14956
▁*	-8.15313
तं	-8.15362
▁भविष्यति	-8.15467
भूत	-8.15632
▁देश	-8.15762
▁यद्	-8.16152
ई	-8.16323
▁काल	-8.16462
कर्म	-8.16687
▁अयं	-8.16799
ायां	-8.17169
भाग	-8.17233
▁छ	-8.17583
्व	-8.17727
गत	-8.17729
ग्	-8.18564
+	-8.18833
▁वर्षे	-8.1894
ले	-8.19038
i	-8.1906
▁जन्म	-8.19108
चि	-8.192
त्त	-8.19279
▁जीव	-8.1938
त्वा	-8.19417
▁सप्त	-8.19567
नाम	-8.19772
▁कृत्वा	-8.20238
योग	-8.20373
च्च	-8.20638
▁पुरुष	-8.20903
जा	-8.21025
क्त	-8.21069
न्तु	-8.21256
_	-8.21667
प्रति	-8.21688
ार्थं	-8.21691
सः	-8.21737
▁प्राण	-8.21924
पु	-8.22102
णि	-8.22591
ज्ञान	-8.22613
दु	-8.22839
पाद	-8.23026
राज	-8.2303
र्थ	-8.23102
▁केवलं	-8.23121
▁ह्य	-8.233
▁ऽ	-8.23459
लोक	-8.23866
▁६	-8.23884
y	-8.24036
▁येन	-8.2412
▁चा	-8.24407
t	-8.24415
पूर्व	-8.24819
श्व	-8.24823
▁यद	-8.24864
▁विना	-8.24946
ितम्	-8.2501
c	-8.25028
▁स्म	-8.25467
▁नास्ति	-8.25785
▁+	-8.26213
▁ततो	-8.26226
्वा	-8.26245
▁अत	-8.2632
▁त्व	-8.26422
नः	-8.26556
वार	-8.27254
▁एतत्	-8.27295
▁सर्वं	-8.27536
ली	-8.27668
ितं	-8.27868
▁2	-8.27993
▁सामान्य	-8.28051
▁कर	-8.28539
न्द	-8.28547
▁भाषा	-8.28638
तम	-8.28769
वर्ष	-8.29147
त्वेन	-8.29316
लं	-8.29449
वी	-8.29497
फल	-8.29591
▁र	-8.29781
▁केवल	-8.30275
▁विद्यते	-8.30298
ान्तर	-8.3033
सम	-8.30521
मन	-8.3062
▁सुख	-8.3082
गा	-8.30897
ङ्	-8.31231
d	-8.31408
िः	-8.31559
▁रे	-8.31732
▁पु	-8.31798
▁स्त्री	-8.31895
▁पाप	-8.32141
पी	-8.32365
▁पुनर्	-8.3244
▁किम्	-8.32715
▁ल	-8.32718
▁पूर्ण	-8.3279
▁भारत	-8.32986
▁शक्ति	-8.33216
▁भाव	-8.33276
ेऽपि	-8.33347
ेऽ	-8.33368
द्र	-8.33449
भेद	-8.33538
ोऽपि	-8.33652
कु	-8.33714
▁एष	-8.33913
▁खः	-8.34114
ङ	-8.34395
४	-8.34727
▁सूर्य	-8.34907
▁भू	-8.34999
वती	-8.35101
ान्त	-8.35238
▁राजा	-8.35264
▁आह	-8.35377
ष्ठ	-8.35591
वर	-8.36308
▁भ	-8.36329
▁तम	-8.36907
क्रम	-8.36999
ण्ड	-8.3715
ृ	-8.3735
ैर	-8.37463
▁पञ्च	-8.37474
S	-8.3766
▁एत	-8.37975
मात्र	-8.38032
▁यज्ञ	-8.38109
वेद	-8.38443
▁अति	-8.38673
▁रक्ष	-8.38863
मुख	-8.38954
यत्	-8.39358
▁सर्वत्र	-8.39418
▁१०	-8.39592
▁८	-8.39643
▁दृश्यते	-8.39886
था	-8.40346
▁3	-8.40588
कि	-8.40878
▁नियम	-8.40881
कार्य	-8.40933
नो	-8.41001
ीं	-8.41066
▁दृष्ट्वा	-8.41223
▁परं	-8.41259
ाप	-8.41311
▁मध्ये	-8.41613
▁विषय	-8.41628
प्	-8.41655
k	-8.4166
हा	-8.41814
▁सत्य	-8.41997
णे	-8.42075
नम्	-8.42337
▁क्रिया	-8.42929
ार	-8.43406
बल	-8.43433
▁दुःख	-8.4365
b	-8.44031
▁नित्य	-8.44085
सार	-8.44409
▁परम	-8.44555
करण	-8.44739
ापि	-8.44824
शब्द	-8.44987
द्ध	-8.45018
त्वे	-8.45125
▁सम्	-8.45321
॰	-8.45455
यात	-8.45568
कम्	-8.4566
रूपेण	-8.45703
िनः	-8.45857
1	-8.45933
l	-8.46037
वान	-8.46058
काले	-8.46062
वः	-8.4612
▁दृष्ट	-8.46246
ज्ञ	-8.46669
▁ई	-8.47203
दे	-8.47243
ाद्य	-8.47403
▁राज्य	-8.4773
वाद	-8.48328
▁फल	-8.48336
चार	-8.48729
▁पि	-8.48863
मध्ये	-8.49093
▁पुं	-8.49503
▁प्रत्य	-8.49567
▁घट	-8.49705
▁अधिक	-8.49785
ढ	-8.49816
g	-8.49823
▁सोम	-8.49958
▁अभवत्	-8.5009
शु	-8.50262
▁ध	-8.50353
षा	-8.50366
यन्	-8.50377
▁ओ	-8.50507
▁संस्कृत	-8.50813
हर	-8.5084
यते	-8.51005
▁मु	-8.51043
▁शत	-8.51253
▁सूचना	-8.51315
स्म	-8.51438
▁श्री	-8.51721
मय	-8.51808
▁पृष्ठ	-8.51917
n	-8.52291
शा	-8.52301
▁विद्या	-8.52382
सर्व	-8.52678
▁पुनर	-8.52833
ात	-8.52855
माह	-8.53109
कल	-8.53136
▁शिव	-8.53149
रं	-8.53184
ञ्ज	-8.53354
भा	-8.53385
काम	-8.53397
दश	-8.53558
वास	-8.53581
सर	-8.53624
▁द्वि	-8.53678
▁भा	-8.53703
▁इत्यादि	-8.53818
ाश्च	-8.5382
▁त्वया	-8.54256
▁संशयः	-8.54373
छ	-8.54597
दी	-8.54627
विध	-8.54843
यत	-8.55331
▁S	-8.55397
▁प्रश्न	-8.55494
वर्ण	-8.55577
ानाम्	-8.55599
फ	-8.55819
विशेष	-8.55964
त्या	-8.56072
▁अस्मिन्	-8.56106
स्ति	-8.56184
▁चेत्	-8.56349
▁व्य	-8.56682
>	-8.56767
रिति	-8.56843
रस	-8.56862
▁बल	-8.56999
देह	-8.57083
ाभि	-8.57247
मुप	-8.57454
▁विशेष	-8.57599
▁वन	-8.576
▁७	-8.57768
▁वर्ण	-8.58134
▁ब्रह्म	-8.5826
▁दिन	-8.5831
▁भवन्ति	-8.58379
v	-8.58803
▁नो	-8.58884
त्वम्	-8.59026
▁मन	-8.59116
्यां	-8.59251
▁गो	-8.59252
सो	-8.59355
▁जायते	-8.59635
हार	-8.59762
▁अद्य	-8.5982
ुः	-8.60012
पुत्र	-8.60356
▁()	-8.60457
▁स्वयं	-8.60471
▁परा	-8.60581
▁दक्षिण	-8.60656
लक्षण	-8.60748
ध्य	-8.60942
यु	-8.60965
▁कृते	-8.61263
ग्र	-8.61524
पुरुष	-8.61608
भ्य	-8.61624
यन्ति	-8.6208
र्ष	-8.62197
D	-8.62312
▁तमे	-8.62462
हे	-8.6256
पाल	-8.62618
दान	-8.62643
भू	-8.62685
विषय	-8.62871
▁जा	-8.63123
▁स्थान	-8.63166
▁अन्यथा	-8.63239
▁गत	-8.63292
▁बाल	-8.63338
▁शुभ	-8.63394
गण	-8.63419
▁काले	-8.63427
▁शक्यते	-8.63478
▁योग	-8.63522
नां	-8.6392
r	-8.64085
▁नैव	-8.64141
तीति	-8.64248
▁पी	-8.64293
ताम्	-8.64328
▁मह	-8.6466
मृ	-8.64825
काः	-8.65367
▁वर	-8.65373
ात्म	-8.65543
िन	-8.65627
स्ते	-8.65635
▁भय	-8.65667
▁तथापि	-8.65795
युक्त	-8.65964
▁भाषण	-8.6614
५	-8.6629
▁वस्तु	-8.66349
र्न	-8.66422
स्थान	-8.66822
इति	-8.66834
चर	-8.66864
णं	-8.67006
▁नित्यं	-8.67048
P	-8.67119
ड्	-8.67363
A	-8.6743
▁कार्यं	-8.67448
वन	-8.67621
शत	-8.67703
▁भाग	-8.67774
शि	-8.68081
▁5	-8.68129
ळ	-8.68229
शः	-8.68351
स्त्व	-8.68427
▁कारण	-8.68469
रः	-8.68593
m	-8.68728
ेभ्यः	-8.68744
▁स्वर्ग	-8.68769
▁नव	-8.68781
लो	-8.68828
धन	-8.68846
क्षण	-8.69044
मस्ति	-8.69203
ज्य	-8.69236
▁भारतीय	-8.69411
▁एते	-8.69749
▁११	-8.69947
मुक्त	-8.70259
▁क्षण	-8.70533
शक्ति	-8.70538
ज्ञा	-8.70871
पात	-8.70918
▁मनो	-8.71132
ाभ्यां	-8.7114
▁समुद्र	-8.71179
[	-8.71461
▁अस्माकं	-8.71525
▁चैव	-8.7157
▁हस्त	-8.71629
चा	-8.71645
2	-8.71882
▁4	-8.71975
हित	-8.7212
ॆ	-8.72239
▁किन्तु	-8.723
▁उच्यते	-8.72311
▁पाद	-8.72495
प्त	-8.72535
▁प्रकाश	-8.7256
▁तत	-8.72575
ङ्क	-8.72643
दिति	-8.72662
र्म	-8.72808
▁तस्मात्	-8.72927
▁नगर	-8.72931
ात्मक	-8.73062
▁मुख्य	-8.73119
▁त्वा	-8.7336
▁दूर	-8.73372
मनु	-8.73541
भिर्	-8.73866
u	-8.7395
▁देह	-8.7396
वै	-8.74034
▁वृक्ष	-8.74037
▁जात	-8.74085
▁ऐ	-8.74114
▁क्रियते	-8.7432
▁श्रुत	-8.74413
p	-8.74509
▁अथवा	-8.74525
गम	-8.74563
▁सिद्ध	-8.74604
िर	-8.74718
▁प्रिय	-8.74873
र्व	-8.74931
व्या	-8.74999
▁अनेक	-8.75014
पुर	-8.75153
▁वद	-8.75163
▁गच्छ	-8.75192
जु	-8.75278
कारः	-8.75315
दिन	-8.75347
▁९	-8.75516
▁ऋ	-8.75621
C	-8.75663
मार्ग	-8.75814
तौ	-8.75903
▁राष्ट्र	-8.75994
▁रस	-8.76003
स्ता	-8.76048
धान	-8.76118
▁दोष	-8.76125
धी	-8.76235
▁गा	-8.76248
ादौ	-8.76819
ान्य	-8.769
ेष	-8.76908
भाषा	-8.77072
▁इत्यस्य	-8.77172
▁भवतः	-8.77549
▁पक्ष	-8.77764
▁एकः	-8.77957
▁यतः	-8.78112
▁मित्र	-8.78254
▁जनाः	-8.78335
▁विधि	-8.78376
▁भविष्य	-8.78512
▁गुरु	-8.78552
शेष	-8.78623
▁द्वादश	-8.78702
▁कल्प	-8.78768
नीय	-8.78857
▁विकल्प	-8.78879
▁यत	-8.7901
▁कोई	-8.79023
मन्त्र	-8.79161
▁मूल	-8.79209
▁पृष्ठानि	-8.79233
स्थित	-8.79335
▁वर्तमान	-8.79466
ीनां	-8.79658
मिदं	-8.79668
▁पुण्य	-8.7969
▁प्रत्यय	-8.79715
टी	-8.79736
निर्	-8.7984
्यो	-8.79908
जात	-8.80004
स्मि	-8.80087
जि	-8.80152
ञ्	-8.80245
▁A	-8.8033
सू	-8.80332
3	-8.80577
यम	-8.80604
देशे	-8.80615
मित्य	-8.80756
दृष्ट	-8.80914
▁मत	-8.81037
▁शि	-8.81056
की	-8.81319
▁P	-8.81367
E	-8.81464
▁१८	-8.81589
▁दीर्घ	-8.81843
वद	-8.81845
षि	-8.81858
शास्त्र	-8.8195
▁कथ	-8.81995
शी	-8.82079
नेन	-8.82091
▁उक्त	-8.82113
▁मार्ग	-8.82354
▁त्वां	-8.82514
▁समान	-8.82544
▁पुर	-8.82583
कारण	-8.82616
▁गति	-8.83003
▁सहस्र	-8.83029
ीकरण	-8.83147
▁ऊ	-8.8333
नगर	-8.8349
▁केन	-8.83495
माण	-8.83577
▁सर्वा	-8.83585
▁पश्य	-8.83589
f	-8.83644
ोत्तर	-8.83768
▁१२	-8.83784
▁माता	-8.83943
द्व	-8.83971
ाऽ	-8.84002
▁उत्	-8.84007
▁शरीर	-8.84089
▁दा	-8.84123
मास	-8.84139
ख्यात	-8.84163
ाङ्ग	-8.8423
रण	-8.84459
ायाः	-8.84485
चित	-8.84584
▁दृश्य	-8.84626
ांश	-8.849
▁कः	-8.84939
द्वय	-8.85035
ज्ज	-8.85127
▁तस्मिन्	-8.85238
दोष	-8.85427
▁सि	-8.85658
मो	-8.85718
▁निष्	-8.8591
जीव	-8.86071
▁भूत	-8.86091
▁तथैव	-8.86185
▁लाभ	-8.86201
▁देवा	-8.86267
h	-8.86281
न्यास	-8.86323
पक्ष	-8.86348
▁तृतीय	-8.86418
टि	-8.86532
▁लोके	-8.86535
८	-8.8655
▁क्षेत्र	-8.86581
सन्	-8.86586
याम	-8.8664
▁भवान्	-8.86861
शील	-8.86949
▁अनुसंधान	-8.86994
▁बुद्धि	-8.86997
वाक्य	-8.8706
re	-8.87106
▁बि	-8.87111
विधि	-8.87118
▁B	-8.87139
सिद्ध	-8.87226
६	-8.87257
ाम	-8.87262
ीयते	-8.87308
▁वाक्य	-8.87361
▁द्वितीय	-8.87434
▁परीक्षा	-8.87456
▁जि	-8.87595
T	-8.87745
वचन	-8.87802
▁8	-8.87899
दार	-8.88086
▁अग्नि	-8.88278
▁राम	-8.88325
▁पाठ	-8.88515
▁अनेन	-8.88568
णी	-8.8857
▁सर्वेषां	-8.88589
▁पुरा	-8.88635
सम्	-8.88723
पति	-8.8893
▁पूर्वं	-8.89036
▁सर्व्व	-8.89069
र्च	-8.89085
▁चित्र	-8.89097
ar	-8.8933
क्रिया	-8.89475
ड़	-8.89531
▁प्रत्यक्ष	-8.89578
▁की	-8.89678
▁रूप	-8.89734
ण्	-8.8979
द्वि	-8.89798
▁यावत्	-8.89799
शो	-8.89803
M	-8.89878
▁मि	-8.89973
▁वय	-8.90121
▁है	-8.90128
er	-8.90402
स्तथा	-8.90425
in	-8.9052
▁यद्य	-8.90629
यि	-8.90713
ालय	-8.9092
▁पठ	-8.90945
▁तन्	-8.90976
ात्मा	-8.90982
▁मुक्त	-8.90996
साधन	-8.91124
▁पिता	-8.91132
तन्त्र	-8.9118
▁दुर्	-8.91251
▁पार	-8.91343
▁घ	-8.9136
िति	-8.91654
िनी	-8.91662
रुप	-8.91675
▁प्राप्नोति	-8.91682
▁भगवान्	-8.91724
न्तर	-8.91858
▁प्रकृति	-8.91943
▁संयुक्त	-8.9195
वृत्ति	-8.91956
वर्ग	-8.91986
▁सर्वदा	-8.92019
ाति	-8.92095
▁वेबसाइट	-8.92142
स्वरूप	-8.92228
▁दिव्य	-8.92229
▁शत्रु	-8.92283
दृश्य	-8.92288
ास	-8.92307
िताः	-8.92385
▁अधिकार	-8.92515
चित्	-8.92646
▁धा	-8.92654
▁शेष	-8.92746
ग्रह	-8.92771
▁१५	-8.92809
▁विकास	-8.92888
▁खलु	-8.92917
▁6	-8.92941
क्र	-8.92983
I	-8.93117
▁आत्म	-8.93136
▁उत्तम	-8.93302
▁अधिकतम	-8.93302
▁नृप	-8.93304
▁प्रजा	-8.93305
▁रथ	-8.93611
ोक्त	-8.93668
▁इदानीं	-8.93812
▁दे	-8.9386
वृत	-8.93981
घात	-8.94085
वश	-8.94131
बोध	-8.94146
▁वृद्ध	-8.94179
▁20	-8.94241
मुच्यते	-8.94336
▁इन्द्र	-8.94412
▁इत्यर्थः	-8.94474
ष्य	-8.94504
ेश्वर	-8.94587
स्र	-8.9472
▁1.	-8.94792
वस	-8.94799
▁प्रधान	-8.94824
▁कुर्वन्ति	-8.94937
al	-8.94976
▁भावः	-8.95107
धार	-8.95118
ल्ल	-8.95156
▁मृत्यु	-8.95413
▁कृष्ण	-8.95418
---	-8.95628
▁प्रमाण	-8.9578
▁कृ	-8.95827
▁मध्य	-8.9588
▁विप्र	-8.95894
धर	-8.95984
▁ग्रह	-8.96057
▁एषा	-8.96142
▁विभाग	-8.96201
ह्य	-8.96212
▁संख्या	-8.96454
ध्व	-8.96509
हीन	-8.96521
दर्शन	-8.96633
▁ननु	-8.96653
ुक्त	-8.96704
▁यम	-8.96739
▁एका	-8.96742
ीत	-8.96769
▁अध्ययन	-8.96777
७	-8.96812
%	-8.96857
कट	-8.96924
▁शास्त्र	-8.9695
▁फ	-8.96958
▁इत	-8.97026
प्रा	-8.97055
वृत्त	-8.97118
कुल	-8.97174
ितुं	-8.97202
पूर्ण	-8.97249
स्ट	-8.97425
युत	-8.97487
▁अधिनियम	-8.97721
विधान	-8.9776
▁सूत्र	-8.9809
▁सुर	-8.98156
▁वायु	-8.98192
▁वाम	-8.98208
▁यतो	-8.98336
...	-8.9835
पे	-8.98387
▁प्रातः	-8.98466
or	-8.98549
श्य	-8.98625
भ्यः	-8.98653
प्रिय	-8.98688
तृ	-8.98715
▁पितृ	-8.9883
ाधिक	-8.98886
ल्प	-8.9889
मूल	-8.98926
ओ	-8.98982
▁बा	-8.99192
▁किम	-8.99202
मन्य	-8.99224
▁10	-8.99281
ष्व	-8.99311
खा	-8.99548
▁स्थित	-8.99743
िव	-8.99764
ाम्	-8.99885
str	-9.00147
पत्र	-9.00231
▁7	-9.00615
▁कथा	-9.00682
र्त	-9.00762
रूपं	-9.0077
▁प्रभाव	-9.0084
▁ला	-9.00857
ष्टा	-9.00942
टे	-9.01159
कृ	-9.01196
मत	-9.0121
जी	-9.01452
गमन	-9.01548
*	-9.0165
=	-9.01668
▁मध्यम	-9.01688
बन्ध	-9.01812
▁विचार	-9.01829
▁दिवस	-9.01933
▁मृत	-9.01955
ीकृत	-9.01978
स्मिन्	-9.02068
ॉ	-9.0223
स्स	-9.02247
▁निज	-9.02345
ाया	-9.02411
सह	-9.02461
L	-9.02593
ेयं	-9.02666
धे	-9.02698
▁कुल	-9.02807
ाप्य	-9.02825
▁मनुष्य	-9.02855
▁कारणं	-9.02903
▁आस	-9.02946
▁लघु	-9.03084
▁फलं	-9.03173
र्ह	-9.0324
▁हर	-9.03276
▁पर्वत	-9.03397
त्रय	-9.03452
प्रत्यय	-9.03516
▁उद्	-9.03667
▁विषये	-9.03672
▁M	-9.03749
▁युद्ध	-9.03778
▁हरि	-9.03794
▁मन्त्र	-9.03908
त्स	-9.0393
▁गृहे	-9.04041
▁गण	-9.04057
म्ब	-9.0419
▁शा	-9.04231
संबन्ध	-9.04277
▁मानव	-9.04454
▁C	-9.04456
▁19	-9.0451
सर्ग	-9.04528
क्रिय	-9.0459
▁प्रसिद्ध	-9.0468
▁रोग	-9.04735
विषये	-9.04887
B	-9.05027
्यन्ते	-9.05028
▁सति	-9.05085
▁श्रुत्वा	-9.05106
भी	-9.05143
खे	-9.05217
ताप	-9.05236
▁जय	-9.05342
ाहं	-9.05353
▁हृदय	-9.05387
्याः	-9.05571
▁उच्च	-9.05637
मति	-9.05664
स्था	-9.05807
रोह	-9.05896
्ये	-9.0603
दर्श	-9.0607
▁I	-9.06458
▁वो	-9.06503
जल	-9.06564
▁ग्राम	-9.06681
▁दैव	-9.06729
गो	-9.06729
▁कदाचित्	-9.06832
▁विज्ञान	-9.06884
▁द्वारा	-9.06891
▁दि	-9.0698
१९	-9.07109
तम्	-9.0714
▁स्वप्न	-9.07295
ेत्य	-9.07314
▁कर्तुं	-9.07376
▁१४	-9.07411
x	-9.07476
रात्र	-9.07707
ेह	-9.07725
ज्	-9.07728
▁कुरु	-9.07748
▁समाचार	-9.07825
▁भूमि	-9.07836
00	-9.0787
▁प्राप्य	-9.07915
योजन	-9.07952
वाह	-9.0807
र्ज	-9.08082
रू	-9.08161
▁पुस्तक	-9.08165
▁T	-9.0819
ीति	-9.08195
▁निर	-9.08328
N	-9.08349
▁दण्ड	-9.08416
सौ	-9.08498
▁क्व	-9.08515
ऽपि	-9.0852
▁जगत्	-9.0858
▁प्रयोग	-9.08804
▁तर	-9.08829
यन	-9.08999
याम्	-9.09029
▁ईश्वर	-9.0905
▁तौ	-9.09221
▁पृथक्	-9.09229
▁शुद्ध	-9.09352
6	-9.09377
▁#	-9.09481
कृत्	-9.09498
▁यद्यपि	-9.09678
ञ	-9.09731
समा	-9.09826
गृह	-9.09842
▁वे	-9.09893
▁न्याय	-9.09922
वो	-9.10125
▁अहम्	-9.1015
▁तस्या	-9.10171
ामः	-9.10205
चन	-9.10282
वं	-9.10283
यम्	-9.10342
मानं	-9.10459
ास्ति	-9.10469
यान	-9.10477
मह	-9.10489
▁तिथि	-9.10534
ित्वा	-9.10604
प्रती	-9.10748
#	-9.1077
खण्ड	-9.10988
सम्बद्धानि	-9.11003
ार्थः	-9.11058
▁ध्यान	-9.11105
प्राप्त	-9.11171
▁कन्या	-9.11173
दं	-9.11199
▁संसार	-9.11356
दृश	-9.11359
थे	-9.11427
योर्	-9.116
झ	-9.1169
▁मुख	-9.11717
▁क्वचित्	-9.11742
भाष	-9.11895
▁देवता	-9.11938
वर्त	-9.1194
▁गत्वा	-9.11972
ानाम	-9.12057
प्रयोग	-9.12253
यितुं	-9.12328
विभाग	-9.12508
on	-9.12659
वद्	-9.12747
▁इयं	-9.12914
▁हो	-9.12922
ान्न	-9.13105
त्रा	-9.13206
an	-9.13247
▁2.	-9.13299
▁समास	-9.13401
तन	-9.13401
▁रु	-9.13403
हो	-9.13411
गे	-9.13423
▁जनवरी	-9.13434
ाधिकार	-9.13493
▁मद	-9.13508
पदं	-9.13538
९	-9.1359
मिव	-9.13607
▁जीवन	-9.13857
▁इत्येव	-9.13871
▁अस	-9.13899
नाय	-9.13925
▁शक्य	-9.14044
▁द्विज	-9.14119
सां	-9.14123
▁अमेरिका	-9.14239
▁समय	-9.14301
▁इत्यत्र	-9.14347
▁इत्यनेन	-9.14355
हस्त	-9.14423
दुःख	-9.14455
सुख	-9.14489
भागे	-9.14611
हेतु	-9.14776
▁मयि	-9.15046
▁भेद	-9.15054
▁पृथिवी	-9.15081
लिङ्ग	-9.15099
▁अधि	-9.15242
विश	-9.15412
▁कल	-9.1542
विद्या	-9.15434
▁स्वा	-9.15547
O	-9.15591
4	-9.15747
लः	-9.15799
▁चतुर्थ	-9.15867
रेव	-9.15882
▁विशेषतः	-9.1601
गता	-9.16035
संख्या	-9.16065
U	-9.16157
▁भारतस्य	-9.16255
ादीनां	-9.16288
▁प्रवेश	-9.1629
वां	-9.16314
क्षय	-9.16323
त्थ	-9.16343
R	-9.16482
भुव	-9.16792
at	-9.16891
▁नर	-9.16948
▁वाच	-9.17011
▁उभय	-9.17106
▁रात्रि	-9.17148
ष्ण	-9.17212
▁ग्रन्थ	-9.17234
ाना	-9.17265
7	-9.17333
▁क्रीड	-9.1739
कल्प	-9.17546
ुं	-9.17635
क्रान्त	-9.17682
▁तां	-9.17683
▁>	-9.17782
पन	-9.17838
नाथ	-9.17853
राज्य	-9.17901
▁...	-9.17908
त्येव	-9.17928
▁१७	-9.1802
बद्ध	-9.18036
ाभाव	-9.18053
▁वृ	-9.18093
भु	-9.18099
ल्य	-9.18124
▁युक्त	-9.18128
्यु	-9.18139
क्क	-9.18167
विद	-9.18394
मल	-9.18627
क्षा	-9.18935
▁मुनि	-9.19218
गच्छ	-9.19262
▁आप	-9.19326
न्द्र	-9.19334
मित	-9.19781
▁एषः	-9.19816
भिर	-9.19935
न्त्य	-9.20061
यथा	-9.20337
न्ध	-9.20366
5	-9.20595
र्ण	-9.20642
दर	-9.20672
▁एतद	-9.20686
पतिः	-9.20723
विज्ञान	-9.20763
▁उद	-9.20812
▁चतुर्	-9.20905
१०	-9.20906
▁झ	-9.20943
▁अयम्	-9.21087
▁कीदृश	-9.21089
भास	-9.21095
पन्न	-9.21099
बा	-9.21207
ाल	-9.21219
ेष्व	-9.21223
पथ	-9.21278
ोऽयं	-9.21316
▁---	-9.21346
जः	-9.21455
नियम	-9.21493
▁एतद्	-9.21581
▁तत्त्व	-9.21652
▁१६	-9.21658
तुं	-9.2171
▁१३	-9.21774
▁यु	-9.21807
व्रत	-9.21877
▁दिव	-9.22009
दिष्ट	-9.22204
▁वीर	-9.2221
▁द्रव्य	-9.22228
यामि	-9.22247
दत्त	-9.22254
▁औ	-9.22275
मान्	-9.22371
्यः	-9.22413
ेषां	-9.22649
िते	-9.22658
▁9	-9.22696
िह	-9.22746
ोत्	-9.22801
▁कृपया	-9.22839
▁देशे	-9.22928
▁व्यक्ति	-9.22932
ीर	-9.23083
र्ध	-9.23151
▁शृणु	-9.232
▁शक्त	-9.23241
▁थ्व	-9.23244
रोध	-9.2332
▁सो	-9.23488
स्तव	-9.23517
▁सिंह	-9.23575
महा	-9.2369
8	-9.23819
दो	-9.23847
▁माया	-9.2386
भार	-9.23866
▁दत्त	-9.23924
▁लेख	-9.23968
सूत्र	-9.23982
▁एवम्	-9.2404
▁अर्थः	-9.24082
भय	-9.24314
त्रि	-9.24336
िय	-9.24464
क्ति	-9.24537
▁स्मर	-9.24647
▁प्रतिशत	-9.24726
▁पुष्प	-9.2473
कस्य	-9.24732
▁पत	-9.24795
▁गतः	-9.24815
पान	-9.24866
लेख	-9.24922
▁रा	-9.24952
▁L	-9.24993
▁विविध	-9.25062
तार	-9.25307
ागत	-9.25364
ष्	-9.25406
िं	-9.25421
िना	-9.25431
रथ	-9.25501
▁शर	-9.25505
न्तं	-9.25538
मृत	-9.2554
▁श्रेष्ठ	-9.25575
ेद	-9.25724
भृत	-9.2579
ेश	-9.25806
▁पृ	-9.25835
विष्ट	-9.25891
▁कला	-9.25913
▁बाध	-9.26038
राष्ट्र	-9.26058
पत्य	-9.26059
▁महत्	-9.26083
स्यापि	-9.2618
ध्याय	-9.26227
ाश्रय	-9.26231
▁परीक्षण	-9.26284
▁तेषु	-9.26317
र्द	-9.26348
▁Home	-9.26373
▁पे	-9.26442
}	-9.26456
▁अङ्ग	-9.26635
▁साधन	-9.26715
▁पुन	-9.26756
ed	-9.26768
▁प्रदेश	-9.26771
▁आगत	-9.26843
▁मूल्य	-9.27091
▁क्रम	-9.2711
▁देवी	-9.27249
शङ्क	-9.27292
टा	-9.27304
▁<	-9.27332
▁समर्थ	-9.274
शन	-9.27446
लु	-9.27532
प्राप्ति	-9.27547
▁कृतं	-9.27576
ाण	-9.27764
▁मनः	-9.27871
भेदे	-9.27875
वन्तः	-9.2788
एक	-9.27894
le	-9.28004
▁बाह्य	-9.28221
..	-9.28334
▁पश्यति	-9.28346
▁भवता	-9.28415
मेक	-9.2861
ऽहं	-9.28637
न्तः	-9.28679
स्त्र	-9.2873
▁दिश	-9.28794
वह	-9.28818
द्वा	-9.28833
पते	-9.28835
▁प्रण	-9.28912
▁रात्रौ	-9.29
▁समाज	-9.29071
▁वापि	-9.29084
▁चित्त	-9.29152
नव	-9.29183
रहित	-9.29193
▁सेव	-9.29204
ाख्य	-9.29267
ेय	-9.29313
▁उदाहरण	-9.29364
▁मान	-9.29365
दन्त	-9.29382
▁N	-9.29412
म्ह	-9.29463
▁व्या	-9.29478
धु	-9.29512
ोऽहं	-9.2952
▁पू	-9.2963
कृतं	-9.29632
▁जान	-9.29695
▁ज्ञानं	-9.29764
▁अपर	-9.29978
डि	-9.30142
दानं	-9.30223
▁किल	-9.30278
▁परमेश्वर	-9.30291
क्षि	-9.30419
डी	-9.30435
▁हित	-9.30484
▁चन्द्र	-9.30574
ैश्च	-9.30589
▁हेतु	-9.30592
्यम्	-9.30629
गल	-9.3067
ितो	-9.30734
वत	-9.30764
ाई	-9.3077
ुर	-9.30795
▁गर्भ	-9.30905
▁कृता	-9.30934
▁समस्त	-9.30977
▁जाता	-9.30982
▁पूजा	-9.30995
▁कर्तव्य	-9.31026
▁जप	-9.3106
एव	-9.31074
▁लिखित	-9.31123
▁कश्चित्	-9.31131
ही	-9.31258
क्ष्य	-9.31335
▁याति	-9.31361
जो	-9.3142
▁यूयं	-9.31611
▁तावत्	-9.31676
गति	-9.31716
क्षेप	-9.31927
▁ज्ञात	-9.3196
▁दृढ	-9.32045
ग्राह	-9.32096
▁स्था	-9.3211
केन	-9.32133
भवत्	-9.32224
▁यथ	-9.32266
िष्यामि	-9.32288
▁सौ	-9.32364
▁एकं	-9.3239
तव्य	-9.32441
धू	-9.32487
भक्त	-9.32551
नित्य	-9.32776
हु	-9.32971
it	-9.33028
▁परिणाम	-9.33131
▁देवानां	-9.33152
▁सत्	-9.33171
▁मास	-9.33173
▁स्वरूप	-9.33179
▁तादृश	-9.33213
यन्त	-9.33323
▁सम्भव	-9.33387
णः	-9.33454
क्षु	-9.33482
▁चापि	-9.33497
थि	-9.33568
ग्नि	-9.33575
ुप	-9.33604
तरं	-9.33661
▁11	-9.33661
▁विष्णु	-9.33686
महं	-9.33777
ाग्र	-9.33869
१२	-9.339
▁पशु	-9.33914
9	-9.33961
लाभ	-9.33964
िम	-9.33984
▁आसन्	-9.34083
िनां	-9.34117
ग्राम	-9.34149
▁रक्त	-9.34289
▁कुत्र	-9.34331
षे	-9.34343
स्तस्य	-9.34506
दय	-9.34523
ेनैव	-9.34577
्यै	-9.34595
▁दर्शन	-9.346
वस्तु	-9.34613
गतं	-9.34619
▁गच्छति	-9.34632
▁किमपि	-9.34707
▁यज	-9.34721
▁परिभाषा	-9.34786
ायै	-9.34973
▁लक्षण	-9.34996
धिक	-9.35
िणी	-9.35002
कू	-9.35009
विद्य	-9.35028
हत	-9.35184
▁प्रथमं	-9.35201
तत्	-9.35459
ेन्द्र	-9.35499
लोप	-9.35586
▁12	-9.35683
थ्य	-9.35689
ास्ते	-9.35761
▁क्र	-9.35812
▁स्पष्ट	-9.35812
१८	-9.35906
००	-9.36157
▁इदम्	-9.36173
▁मधु	-9.36202
विष	-9.36354
▁त्रि०	-9.36467
▁वर्षा	-9.36542
रक्ष	-9.36581
विंशति	-9.36619
मू	-9.36645
सहस्र	-9.36709
▁तस्याः	-9.36789
व्	-9.36812
रत	-9.36955
राम	-9.37022
कृति	-9.37091
िष्यति	-9.37136
ग्रहण	-9.37295
▁शिक्षा	-9.37297
▁कस्य	-9.37314
फलं	-9.37443
▁कदा	-9.37446
▁वस	-9.37486
िन्	-9.37512
विरोध	-9.37581
▁भिन्न	-9.37615
क्षेत्र	-9.37636
0	-9.37653
▁परस्पर	-9.37761
नाश	-9.37777
ेभ्यो	-9.37801
ेद्	-9.37831
भगव	-9.37833
यित्वा	-9.37855
ह्न	-9.37884
▁इतर	-9.37911
णो	-9.37913
▁→	-9.3793
ाक्ष	-9.37935
िष्यते	-9.37947
रोग	-9.37947
शे	-9.37969
ष्टि	-9.3801
▁विशिष्ट	-9.38023
न्ती	-9.38033
िष्य	-9.38095
दृ	-9.38171
▁पश्चिम	-9.38207
वंश	-9.38267
तत्त्व	-9.3838
▁दुर्लभ	-9.38536
▁भूय	-9.38573
▁विष	-9.38575
वेश	-9.38637
ख्या	-9.38638
ज्योति	-9.38704
िनो	-9.38787
▁अन्तर्	-9.39036
भावः	-9.3904
डा	-9.39105
▁कोऽपि	-9.39105
▁तदेव	-9.39147
चित्र	-9.39175
20	-9.39181
ासु	-9.39203
▁निर्मित	-9.39228
▁श्र	-9.39241
▁वित्त	-9.39272
उप	-9.39274
▁समाप्त	-9.39307
क्स	-9.39427
▁हा	-9.39458
▁श्लोक	-9.39519
▁अधुना	-9.39589
▁सुत	-9.39639
▁सेवा	-9.39719
स्तर	-9.39807
स्त्य	-9.39849
▁जलं	-9.39852
en	-9.39936
▁वह	-9.3998
योग्य	-9.39993
F	-9.4
▁दीप	-9.40128
द्वारा	-9.40138
▁कम	-9.4016
्र	-9.40228
▁प्रायः	-9.40337
ेदं	-9.40366
▁कथय	-9.4042
▁भक्ति	-9.40474
भे	-9.40496
कर्ता	-9.40501
ग्रहणं	-9.40536
परा	-9.4056
▁शु	-9.40596
▁क्ष	-9.40695
सम्बन्ध	-9.40699
▁वृद्धि	-9.40705
ज़	-9.40718
G	-9.40741
▁G	-9.40779
ुत्	-9.4084
▁विजय	-9.41026
ब्ध	-9.4107
तव	-9.41141
ादयः	-9.41238
▁व्रत	-9.41239
र्थे	-9.41271
▁अध्याय	-9.41343
▁msg	-9.41403
▁कथित	-9.41421
▁रूपं	-9.415
▁व्यवसाय	-9.415
स्त्रि	-9.415
▁लि	-9.41629
10	-9.4165
▁गम	-9.41665
▁वक्तव्य	-9.41726
▁क्रि	-9.4175
▁लिङ्ग	-9.41798
▁रज	-9.41844
पश्य	-9.41849
म्भ	-9.41925
ीश्वर	-9.41969
▁स्थिर	-9.42006
▁ज्या	-9.42096
▁आकाश	-9.42109
गृह्य	-9.42244
▁भक्त	-9.42255
द्या	-9.42329
नाम्	-9.4243
ैष	-9.42474
▁व्यवहार	-9.4249
▁गते	-9.42554
▁ध्वनि	-9.42577
निर्देश	-9.42643
▁विवाह	-9.4269
१४	-9.42794
मर	-9.428
िभिः	-9.42827
िर्	-9.42868
▁भज	-9.42996
वृद्ध	-9.43011
णीय	-9.43011
ुद	-9.43012
दास	-9.43155
मार	-9.43269
▁विनि	-9.43278
गम्य	-9.43281
रेण	-9.43311
किं	-9.43433
शब्दः	-9.43466
खिल	-9.43478
▁गिर	-9.43568
ध्या	-9.43588
ing	-9.43643
▁प्रशिक्षण	-9.43835
▁प्रकृत	-9.43839
शासन	-9.43853
▁मही	-9.43861
स्मै	-9.43865
▁धारा	-9.4396
स्तत्र	-9.43977
िष्ठ	-9.44006
▁पर्य	-9.44015
यज्ञ	-9.44097
गतः	-9.44215
निमित्त	-9.44234
कर्ष	-9.44272
▁आव	-9.44324
भोग	-9.44337
▁स्वयम्	-9.44449
▁निश्चित	-9.44486
▁विमान	-9.44515
▁राज्यं	-9.44557
क्य	-9.44655
दिश	-9.44763
ास्त	-9.44842
शक्त	-9.44861
ाच्च	-9.44869
योर	-9.44871
▁इतिहास	-9.44904
▁पदार्थ	-9.44935
गी	-9.44944
िष	-9.44954
▁छुं	-9.44957
पो	-9.4509
▁18	-9.45113
२०	-9.45119
बुद्धि	-9.45122
युग	-9.45207
j	-9.45208
न्व	-9.45216
मण्डल	-9.45354
▁मृग	-9.4538
▁d	-9.45401
▁कृतम्	-9.45416
▁काव्य	-9.45552
ादिषु	-9.45553
ज्ञात	-9.45571
युक्तं	-9.45671
ेषा	-9.45682
शब्देन	-9.45686
जन्म	-9.45855
▁सुखं	-9.45865
पत्ति	-9.45946
▁विरोध	-9.46072
▁सत्त्व	-9.46126
▁तप	-9.46132
▁सदस्य	-9.46153
येत	-9.46217
ङ्गल	-9.46332
▁करोमि	-9.46402
▁विद्यालय	-9.46424
▁निः	-9.46443
लम्ब	-9.4648
ुत्तर	-9.46483
स्थाने	-9.46501
▁प्रथमा	-9.46513
▁प्रतिषेध	-9.46527
▁देवाः	-9.46613
▁चक्र	-9.46633
▁प्राप्ते	-9.46769
र्क	-9.46825
▁पति	-9.46843
विश्व	-9.46859
▁मुक्ति	-9.46917
िल	-9.46928
दूषण	-9.46966
▁स्त्रियां	-9.46969
▁द्वौ	-9.46978
वल	-9.47017
चित्त	-9.47021
▁यू	-9.47087
प्रकाश	-9.47197
▁रम	-9.47209
ोदय	-9.47272
शिष्ट	-9.47382
▁भवतु	-9.47397
्यमान	-9.47499
▁नेवाः	-9.47509
▁युव	-9.47544
▁राजन्	-9.47559
मध्य	-9.47584
▁बुद्ध	-9.47706
द्द	-9.47711
ोत्तम	-9.47734
▁दिने	-9.47757
कृते	-9.4778
ार्थे	-9.47835
▁रुपये	-9.47836
▁कृषि	-9.47846
▁व्यक्त	-9.47859
▁कुतः	-9.47868
१७	-9.47892
▁मोह	-9.47909
गर	-9.47963
▁सत्यं	-9.47996
w	-9.48022
▁•	-9.48032
्यू	-9.48036
▁उपयोगकर्ता	-9.48137
वृ	-9.48142
ज्ञानं	-9.48152
र्द्ध	-9.48166
▁साम	-9.48265
▁नदी	-9.48282
जं	-9.48296
▁कति	-9.48315
▁इत्येत	-9.48328
▁पुरुषः	-9.48426
मुत्	-9.48458
▁Tag	-9.48536
▁धनं	-9.4858
भुज	-9.48599
ासन	-9.48603
▁निवेश	-9.48668
मभि	-9.48673
▁२१	-9.48728
▁वने	-9.48913
▁जातः	-9.49015
▁सर्वाणि	-9.49051
काय	-9.49052
जे	-9.49112
▁$	-9.49115
नीत	-9.4912
णां	-9.49229
▁अश्व	-9.49268
वन्	-9.4932
▁तानि	-9.49367
▁यं	-9.49428
▁तिष्ठ	-9.49484
▁दुष्ट	-9.49577
त्वम	-9.49588
▁उपरि	-9.49685
श्रम	-9.49715
बुद्ध	-9.49747
▁एता	-9.49774
is	-9.49782
▁तस्माद	-9.49826
▁केन्द्र	-9.49861
▁कर्ण	-9.49862
▁द्वार	-9.49864
▁शीत	-9.4987
पत	-9.49881
▁शीघ्रं	-9.49972
▁अह	-9.50037
▁अन्त	-9.50081
▁मोक्ष	-9.5012
▁तान्	-9.50139
H	-9.50143
▁अतो	-9.50187
▁धन्य	-9.50289
@	-9.50299
▁नरक	-9.50351
दाय	-9.50361
िण	-9.50497
▁कुर्यात्	-9.50539
▁कृतः	-9.50555
ad	-9.50558
भारत	-9.50602
▁नाश	-9.50703
▁संशय	-9.50736
▁3.	-9.50781
दिवस	-9.50872
▁लक्ष	-9.50873
▁कथम्	-9.51034
ितवान्	-9.51059
िनि	-9.51271
दः	-9.51329
▁लब्ध	-9.51419
▁उत	-9.51512
▁योजना	-9.51641
▁सरकार	-9.51699
समये	-9.51769
us	-9.51814
भ्यो	-9.5182
▁जग	-9.51952
बि	-9.51962
▁देहि	-9.52024
मिह	-9.5204
ल्या	-9.52065
▁सकल	-9.52078
▁रि	-9.5208
▁क्रोध	-9.52087
▁तुल्य	-9.5215
▁शान्ति	-9.52252
▁V	-9.52278
▁सम्बन्ध	-9.52285
प्ल	-9.52361
▁पश्चात्	-9.52411
ग्न	-9.52444
च्छि	-9.52466
िणः	-9.52483
▁द्वे	-9.52547
यै	-9.52587
कृत्य	-9.52587
ाश	-9.5259
नौ	-9.52609
▁दान	-9.52682
पृ	-9.52688
▁शीघ्र	-9.52813
तस्य	-9.52856
श्चैव	-9.52906
ष्टु	-9.52928
▁दक्षिणा	-9.52939
संज्ञा	-9.53041
घ्न	-9.53142
पृष्ठ	-9.53142
िकं	-9.53205
वर्तते	-9.53226
र्ग	-9.53284
▁&	-9.53292
▁२२	-9.5333
ानन्द	-9.53343
हू	-9.53362
▁निर्देश	-9.5337
▁क्षमा	-9.53456
हन	-9.53463
▁कालः	-9.53532
▁मो	-9.53597
ाध्याय	-9.53603
स्क	-9.53646
▁ऋण	-9.53757
▁इष्ट	-9.53872
▁नेत्र	-9.53919
▁अन्तर	-9.5393
कृता	-9.53954
प्रथम	-9.53974
स्मा	-9.54007
रुण	-9.54009
▁सभा	-9.54015
मुद	-9.54186
पण	-9.54188
र्वा	-9.54197
▁तया	-9.54209
लोके	-9.54247
50	-9.54304
फ्	-9.54315
▁कर्ता	-9.54335
▁अन्न	-9.54373
ाक्षर	-9.54387
भ्यां	-9.54404
भद्र	-9.54451
▁प्रसन्न	-9.54466
यू	-9.54497
वारं	-9.54513
▁साधु	-9.54536
भ्या	-9.54538
ऊ	-9.54581
रूपा	-9.54663
हिं	-9.54674
▁राक्षस	-9.54788
ii	-9.54798
▁ज्ञेय	-9.54809
▁छात्र	-9.54833
▁पत्र	-9.54838
संयुक्त	-9.54838
▁चिन्तय	-9.54901
वति	-9.54902
११	-9.54908
▁क्षम	-9.54952
▁विश	-9.55001
वृक्ष	-9.55046
▁पाठः	-9.55076
क्षर	-9.551
▁प्रत्या	-9.55117
स्थिति	-9.55156
रित	-9.55179
ार्ध	-9.55246
भूत्	-9.5528
▁विनाश	-9.55348
▁सू	-9.55434
ोर	-9.55529
ग्रन्थ	-9.55553
▁हत	-9.55564
▁३०	-9.55608
रम	-9.55627
▁तू	-9.55641
▁D	-9.55691
वाच	-9.55725
▁स्थिति	-9.55773
मन्त	-9.55897
योजय	-9.55975
पर्यन्तं	-9.55988
बी	-9.56016
▁स्नान	-9.56023
धृत	-9.56025
लय	-9.56033
पर्य	-9.56108
▁{	-9.56159
▁स्नेह	-9.562
▁परन्तु	-9.56223
सव	-9.56303
धातु	-9.56311
नम	-9.56327
▁सी	-9.56335
दूर	-9.56361
▁जानाति	-9.56448
प्रसङ्ग	-9.56453
▁२५	-9.56479
नयन	-9.56521
▁प्रत्येक	-9.56533
▁पृष्ट	-9.56631
▁एतेन	-9.56633
am	-9.5677
▁भोजन	-9.56802
▁स्वर	-9.56843
▁श्वेत	-9.56853
▁साध्य	-9.56913
▁बहुधा	-9.56978
नगरे	-9.57005
▁सव	-9.57141
▁तम्	-9.57176
▁मानुष	-9.5721
भवति	-9.57293
▁विकिपीडिया	-9.5739
▁प्रत्येकं	-9.57402
मव	-9.57487
तुर	-9.57497
▁मू	-9.57499
हृत	-9.57537
स्वर	-9.57578
पय	-9.57663
▁//	-9.57813
▁प्राचीन	-9.57849
▁परे	-9.57856
लभ	-9.57866
कर्तु	-9.57866
जान	-9.57884
▁कथम	-9.57909
▁भगवन्	-9.57928
▁आवश्यक	-9.57936
जय	-9.57948
18	-9.57959
टक	-9.57986
▁अतीत	-9.58014
वृत्तिः	-9.58018
भूता	-9.58083
ैत	-9.58111
▁लक्ष्य	-9.58124
१६	-9.58157
▁धातु	-9.58238
▁स्थाने	-9.5826
युद्ध	-9.58315
ाङ्क	-9.58323
पाठ	-9.58331
▁व्यापार	-9.58379
दन	-9.58439
ार्थम्	-9.58558
▁धारय	-9.58594
▁संभव	-9.58615
मात्रं	-9.58642
ब्	-9.58664
▁परम्	-9.58685
▁अल	-9.58685
दिव	-9.58794
न्नि	-9.58827
ास्तु	-9.58908
भ्रम	-9.58926
▁वर्ग	-9.58934
प्स	-9.58936
१५	-9.58979
▁तस्मै	-9.59006
ज्ञेय	-9.59157
संभव	-9.59286
▁अज	-9.59297
▁देवि	-9.59332
ुर्	-9.59347
▁षष्ठ	-9.59401
कम	-9.59425
वृद्धि	-9.59472
ग्रे	-9.59478
▁अल्प	-9.59514
ोद्	-9.59532
▁पेपर	-9.59664
▁पिब	-9.59702
करं	-9.59739
▁n	-9.59897
vi	-9.5992
▁शून्य	-9.59931
▁सम्यक्	-9.59949
काश	-9.59975
▁कार्यक्रम	-9.59984
स्त्वं	-9.6002
▁एतस्य	-9.60023
▁आत्मा	-9.60147
राध	-9.6016
करो	-9.60195
▁E	-9.60284
मना	-9.6029
▁महोदय	-9.60294
▁अय	-9.60322
स्थानं	-9.60353
मर्थ	-9.60374
▁विश्लेषण	-9.60375
▁भवे	-9.60393
ch	-9.60557
च्या	-9.60569
▁0	-9.60581
▁15	-9.60618
वर्	-9.6064
X	-9.60652
▁वचनं	-9.60686
▁ध्रुव	-9.60707
श्र	-9.60722
▁खेल	-9.60789
▁सम्पूर्ण	-9.60798
धिकार	-9.60942
यामास	-9.60945
▁इत्यादिना	-9.6097
ादिति	-9.60998
स्तदा	-9.61011
▁लभते	-9.61037
व्यय	-9.61113
▁क्रीडा	-9.61273
▁स्थापय	-9.61343
सम्भव	-9.61388
भूमि	-9.61475
मित्र	-9.61535
स्थापन	-9.61578
▁अन्ये	-9.6162
तमः	-9.61659
▁यथार्थ	-9.61661
▁सागर	-9.61695
▁पितर	-9.61708
▁भोग	-9.61791
कालं	-9.61798
ज्वल	-9.61855
सत्य	-9.61953
थ्	-9.61964
▁तस्माद्	-9.62003
क्व	-9.62054
▁प्रविष्ट	-9.62091
▁सङ्	-9.6211
▁युग	-9.62172
प्रमाण	-9.62236
▁सदैव	-9.6227
ागम	-9.62284
्यादि	-9.62351
वाचक	-9.62407
़	-9.62505
▁स्याद	-9.62509
दिने	-9.62568
प्रतिषेध	-9.62598
ङि	-9.62631
▁विद्यमान	-9.62636
तप	-9.62639
ic	-9.62684
ाइ	-9.62709
णु	-9.62733
प्रधान	-9.62735
▁ददाति	-9.62771
▁मत्	-9.62788
ाग्नि	-9.63015
तीत्य	-9.63029
युः	-9.6308
▁अत्य	-9.63101
▁सप्तम	-9.63188
▁प्रोक्तं	-9.63262
▁पु०	-9.63299
सन	-9.63305
es	-9.63343
▁दर्शय	-9.63377
▁थः	-9.63389
▁सूक्ष्म	-9.63426
▁सम्भवति	-9.63448
▁m	-9.63461
▁नूतन	-9.63477
▁स्थानं	-9.63529
▁येषां	-9.63539
चरण	-9.63555
िद	-9.63577
▁करोतु	-9.63645
युक्तः	-9.63646
धारण	-9.63693
वादी	-9.63701
▁ब्राह्मण	-9.63713
▁दुष्	-9.63719
द्रु	-9.63765
दीप	-9.63775
तुः	-9.6378
शब्दे	-9.63831
▁व्यायाम	-9.63921
▁कृतवान्	-9.6399
▁भाग्य	-9.6399
▁अतीव	-9.64003
as	-9.64026
▁भगवान	-9.64026
▁विहित	-9.64037
▁वत्स	-9.64091
▁भग	-9.64095
न्यथा	-9.64098
रिय	-9.64159
▁राग	-9.64177
▁काय	-9.64187
▁वृत्त	-9.64189
धाव	-9.64264
पद्यते	-9.64313
न्तो	-9.64331
▁महिला	-9.64336
▁बुध	-9.64414
▁जूगु	-9.64429
et	-9.64503
▁जानामि	-9.64526
▁शिष्य	-9.64562
▁फरवरी	-9.64586
विचार	-9.6459
▁लिख	-9.64675
चक्र	-9.64679
▁मातृ	-9.64684
▁अग्ने	-9.64715
12	-9.64724
▁14	-9.64729
त्री	-9.64736
भिन्न	-9.64847
ाधि	-9.64951
▁शेषः	-9.6499
▁अन्यत्र	-9.65022
पीड	-9.652
भ्र	-9.65215
▁सेना	-9.65248
▁शान्त	-9.65301
ाणाम्	-9.65332
▁कुर्व	-9.65352
▁अष्ट	-9.65364
▁मूर्ख	-9.65429
०४	-9.65446
वर्त्त	-9.65462
▁गृहं	-9.65513
ामहे	-9.65579
▁कौ	-9.6559
-1	-9.65612
▁धन्यवाद	-9.65619
स्यैव	-9.65632
▁मानस	-9.65634
करः	-9.65679
मानः	-9.65726
▁भयं	-9.6574
▁नृत्य	-9.65795
▁4.	-9.65829
प्रभ	-9.65845
▁निर्माण	-9.65945
संख्य	-9.65972
▁मात्रा	-9.65993
▁अत्यन्त	-9.66019
▁कवि	-9.66099
▁लिखत	-9.66203
ादेव	-9.66281
ोर्	-9.663
▁शस्त्र	-9.66352
प्लव	-9.66394
▁f	-9.66475
▁विधीयते	-9.665
मद	-9.66536
जीवन	-9.6654
▁सर्वेषु	-9.66544
पदे	-9.66568
▁कर्मणा	-9.66576
स्पर्ध	-9.66577
लब्ध	-9.66661
भो	-9.66724
नर	-9.66748
▁संस्था	-9.66749
ाधिप	-9.66792
▁उपयोग	-9.66821
नय	-9.66876
त्ता	-9.66883
▁हय	-9.67043
il	-9.67104
▁परमं	-9.67104
केश	-9.67151
▁स्मृत	-9.67169
िकः	-9.67187
बहु	-9.67222
तुर्	-9.67226
▁भार	-9.67228
ीया	-9.67288
्म	-9.67292
स्प	-9.67338
▁स्वभाव	-9.6739
▁प्रेम	-9.6739
णम्	-9.67391
चु	-9.67425
▁जुइ	-9.67432
▁यानि	-9.67472
▁कार	-9.67525
मासस्य	-9.67546
तद	-9.67551
▁कै	-9.67571
st	-9.67628
▁नै	-9.67713
▁तच्च	-9.67725
▁२४	-9.67748
▁तथ	-9.67778
▁इत्याह	-9.67877
▁एकादश	-9.67894
च्य	-9.67937
▁महान्	-9.68018
19	-9.68066
▁कथ्यते	-9.68132
पल	-9.68226
पिं	-9.68273
▁ठ	-9.68314
करणे	-9.68319
ष्म	-9.68323
▁प्रकार	-9.6834
दक्षिण	-9.68341
हितं	-9.68345
चल	-9.68386
वन्त	-9.68401
▁संस्करण	-9.68453
ज्ञाय	-9.68615
▁हृदि	-9.68637
th	-9.68683
▁नील	-9.68725
कथं	-9.68744
▁निर्णय	-9.68761
सङ्ग	-9.68928
▁करिष्यामि	-9.68943
मथ	-9.68948
मिच्छ	-9.68987
कला	-9.69004
बाध	-9.69012
विधा	-9.69052
गृहीत	-9.69058
प्रत्ययः	-9.69059
पृच्छ	-9.69116
ह्	-9.69265
ितुम्	-9.69285
पद्य	-9.69292
▁कश्चन	-9.69296
▁करण	-9.69317
▁सफल	-9.69367
सप्त	-9.69389
फु	-9.69438
सत्	-9.69543
न्याय	-9.69574
▁तो	-9.69609
सामर्थ्य	-9.69615
कम्प	-9.69699
▁प्रवर्त	-9.69715
द्धि	-9.69717
परं	-9.6979
▁सीता	-9.69796
22	-9.69822
▁सामाजिक	-9.69827
शाला	-9.69917
▁२७	-9.69946
नेक	-9.70005
▁स्मृति	-9.70078
▁कर्तव्यं	-9.70089
▁शुक्र	-9.70102
▁स्थिता	-9.70154
▁उवाच	-9.70255
थु	-9.70324
▁पदे	-9.70416
▁मनसा	-9.70556
▁दर्शयति	-9.70572
पूर्वं	-9.70595
▁इत्युक्त	-9.70629
▁मेरे	-9.70634
ग्ने	-9.70682
ऋ	-9.70704
▁नु	-9.70706
दौ	-9.70706
पालन	-9.70715
ाथ	-9.70805
तरा	-9.70834
क्रय	-9.70905
▁पच	-9.70909
ाकार	-9.70938
▁गोप	-9.70946
विकल्प	-9.70972
कार्यं	-9.71033
▁२६	-9.7105
र्त्त	-9.71063
पाय	-9.71151
ुष	-9.712
▁नहि	-9.71205
▁मद्	-9.71314
ान्ते	-9.71346
योनि	-9.71354
तेन	-9.71374
▁F	-9.71402
▁कर्मणि	-9.71422
देवता	-9.71476
सद	-9.71498
▁रुद्र	-9.71545
▁l	-9.71589
प्रदेश	-9.71616
विशिष्ट	-9.71618
▁रो	-9.71654
▁स्वतन्त्र	-9.71758
▁गृहीत	-9.71955
ab	-9.71964
▁भारते	-9.71982
▁अस्मि	-9.72001
▁अभ्य	-9.72005
▁जीवित	-9.72013
देशस्य	-9.72021
भावे	-9.72086
हृदय	-9.72118
▁युवा	-9.72121
नू	-9.72149
▁अनुभव	-9.72165
मत्	-9.72248
र्थं	-9.72283
यदि	-9.72339
▁O	-9.72351
▁रक्षण	-9.72424
जग	-9.72498
▁पूज्य	-9.7254
३७	-9.72544
▁प्रोक्त	-9.72584
▁समूह	-9.72595
▁अहो	-9.72598
भावेन	-9.726
कारक	-9.72614
▁कर्	-9.72652
॒त	-9.72683
▁ऋत	-9.72699
▁तिष्ठति	-9.72737
जायते	-9.72793
▁यस्मिन्	-9.7283
▁कथितं	-9.72834
▁भवन	-9.72856
राज्यस्य	-9.72893
िषु	-9.72945
▁एवम	-9.72945
सेन	-9.73005
क्ल	-9.73094
▁निषेध	-9.73097
द्यु	-9.73156
▁प्रीति	-9.73197
च्छेद	-9.73227
▁चेति	-9.7323
▁उत्पाद	-9.73236
▁भेदः	-9.73265
सृ	-9.73272
बुध	-9.73331
▁बोध	-9.73367
▁मधुर	-9.73373
कथा	-9.7343
▁इत्य्	-9.7356
▁समुदाय	-9.73638
▁तदपि	-9.73724
प्रकार	-9.73754
▁to	-9.73756
धो	-9.73762
▁कुशल	-9.73773
कारस्य	-9.73796
01	-9.73807
ाहुः	-9.73856
▁स्वीकृत	-9.73862
▁इन्	-9.73863
▁विपरीत	-9.73879
▁मन्यते	-9.73899
बर	-9.73954
▁याच	-9.73994
▁मरण	-9.74025
शिर	-9.74093
सिद्धि	-9.7413
यात्	-9.74139
▁पार्थिव	-9.7415
▁प्रयत्न	-9.7418
▁ज्येष्ठ	-9.74251
▁शब्दः	-9.74262
ट्र	-9.74279
▁किञ्चित्	-9.74291
भुक्त	-9.74377
▁इच्छ	-9.74397
साध्य	-9.74405
ोच्यते	-9.7451
भूय	-9.74526
▁आदेश	-9.74607
▁गन्ध	-9.74643
माना	-9.74657
▁वर्ध	-9.74743
▁कमल	-9.74756
▁वृत्ति	-9.74796
तोऽ	-9.74822
योगः	-9.74867
प्रद	-9.74901
▁भ्रम	-9.74958
॒व	-9.74986
सृज	-9.74994
▁निश्चय	-9.75044
▁भवत्य	-9.7507
सभा	-9.75107
मणि	-9.75112
०००	-9.75152
तथा	-9.75168
ुक	-9.75182
▁ताव	-9.75217
▁खँ	-9.75309
राग	-9.7539
कृष्ट	-9.75422
▁स्वाहा	-9.75425
▁सरल	-9.75428
रचना	-9.75439
▁आदि	-9.75445
▁पदं	-9.75493
▁..	-9.75513
11	-9.75574
यौ	-9.75593
▁उपाय	-9.75614
▁रोचते	-9.75639
▁प्रवृत्ति	-9.75642
निपात	-9.75662
ाधिकरण	-9.75687
व्यवस्थित	-9.75757
▁समीप	-9.75787
यॊ	-9.75808
तरण	-9.75809
▁दृष्टि	-9.7584
▁तात	-9.75852
०२	-9.75863
ब्रह्म	-9.75881
कर्तृ	-9.75888
ाश्रम	-9.75897
व्यक्त	-9.75928
मात्रेण	-9.76011
▁ह्र	-9.7609
निर्माण	-9.7612
▁प्रवर्तते	-9.76248
द्रव	-9.76301
▁देय	-9.76358
क्रमण	-9.76365
ादिकं	-9.76374
ेन्	-9.76385
४१	-9.76467
▁श्रेय	-9.76491
el	-9.76494
▁मन्द	-9.76541
▁नरः	-9.76585
▁वयम्	-9.76585
प्रत्य	-9.76593
▁सुवर्ण	-9.76663
▁बलि	-9.76677
▁उत्पादन	-9.76797
▁नाना	-9.7681
▁अनुवाद	-9.76822
▁एम	-9.7684
▁स्याद्	-9.76916
▁स्थितः	-9.76934
ादिना	-9.76945
▁व्याख्यात	-9.77002
ात्मनः	-9.7708
▁खाद	-9.77123
6.	-9.77124
▁तदर्थ	-9.77163
निधि	-9.77164
▁इत्यत	-9.77173
शीर्ष	-9.77209
▁कुमार	-9.77257
स्माकं	-9.77273
▁भर	-9.77293
मेत	-9.77297
पत्	-9.77316
▁समीक्षा	-9.77328
योज्य	-9.77345
हम्	-9.77361
▁ब्र	-9.77398
ाशय	-9.77505
रव	-9.77522
फा	-9.7753
▁हृदयं	-9.77582
▁c	-9.77591
▁केचित्	-9.77596
▁घोषणा	-9.77622
▁रक्षा	-9.77663
कण्ठ	-9.77711
▁छु	-9.77795
▁बहिः	-9.77835
तद्	-9.77835
▁धीर	-9.7803
▁13	-9.78092
▁एस	-9.78099
iv	-9.78141
मयं	-9.78146
शय	-9.78175
वचनम्	-9.78177
▁दरिद्र	-9.7819
व्यवहार	-9.78195
पूजित	-9.78215
▁प्रभो	-9.78242
ज्या	-9.78249
▁17	-9.78329
पू	-9.78343
▁मत्स्य	-9.78412
ित्	-9.7847
दाता	-9.78488
हन्	-9.78517
कथन	-9.78534
▁लु	-9.78547
सागर	-9.78569
सम्पादन	-9.78609
भिप्राय	-9.7866
प्राण	-9.78687
▁वचन	-9.78722
ol	-9.7874
▁जना	-9.78752
▁आर	-9.78786
स्तोत्र	-9.78812
▁दर्शित	-9.7886
▁दुःखं	-9.78868
कैः	-9.78884
ाऽऽ	-9.78939
कानि	-9.78941
▁विषयः	-9.79014
▁चल	-9.79014
रति	-9.79016
अथ	-9.79027
▁मै	-9.79075
▁वदति	-9.7909
▁विस्तार	-9.79119
श्वा	-9.79141
युक्ता	-9.79144
स्पृश	-9.79158
▁वक्तव्यम्	-9.79163
ची	-9.79188
▁पुत्रः	-9.7922
▁षड्	-9.79279
▁यजमान	-9.7931
▁शासन	-9.79374
7.	-9.79426
दर्शनं	-9.79443
डे	-9.79452
▁दुर्ग	-9.7949
मते	-9.79643
ay	-9.79647
पुराण	-9.79707
▁तीर्थ	-9.79737
▁नीति	-9.7974
त्त्व	-9.79761
▁प्रतिष्ठा	-9.79784
▁वस्तुतः	-9.79803
▁त्वत्	-9.79883
-'	-9.79922
पिण्ड	-9.79948
रूपे	-9.79949
्येन	-9.79976
▁न्यून	-9.79994
ारम्भ	-9.80007
▁कुरुते	-9.80034
मुद्	-9.80039
यमान	-9.80079
▁प्रयोगः	-9.80085
व्यवस्था	-9.801
▁वरिष्ठ	-9.80158
ान्तरे	-9.80159
▁प्रकरण	-9.80198
▁ज्ञात्वा	-9.80226
लोपः	-9.80245
▁साहित्य	-9.8032
02	-9.8033
३०	-9.80404
१३	-9.80474
चिद्	-9.80502
ाम्य	-9.8057
▁अर्ध	-9.80608
दर्भ	-9.80622
सन्न	-9.80694
भूतं	-9.80774
▁सोऽ	-9.80859
निष्ठ	-9.80922
▁नियत	-9.80931
वीर	-9.80932
पाप	-9.81007
▁घृत	-9.81032
▁मनसि	-9.81139
ाश्रित	-9.81194
मनस	-9.81219
▁पुराण	-9.81285
ोक्तं	-9.81351
▁यात्रा	-9.814
ट्ट	-9.8141
▁परिवार	-9.81448
▁पवित्र	-9.81448
▁ज्ञायते	-9.81472
सत्त्व	-9.8157
▁पृथिव्या	-9.81631
योजित	-9.8164
▁निमित्त	-9.81645
्यर्थ	-9.81656
करणं	-9.81697
ैन	-9.8171
४७	-9.81754
कारिण	-9.81778
▁प्रवृत्त	-9.8183
त्सु	-9.81845
६०	-9.81931
▁राष्ट्रपति	-9.81948
दै	-9.81998
▁संयोग	-9.82024
पार	-9.82038
कर्त	-9.82051
▁प्रतीयते	-9.82115
▁शाश्वत	-9.82116
▁विवरण	-9.82261
▁अधोलिखित	-9.82278
▁कुत	-9.82296
व्यापार	-9.82313
विंश	-9.82326
▁कल्याण	-9.82326
स्तम्भ	-9.82345
▁वास	-9.82349
तायाः	-9.82429
26	-9.82446
▁बहवः	-9.82465
द्रव्य	-9.82518
ूनां	-9.8253
ासी	-9.82534
वध	-9.82544
▁तयोः	-9.82561
▁p	-9.82602
पक्षे	-9.82618
शोधन	-9.8264
तमे	-9.82648
▁कृपा	-9.8266
▁नाहं	-9.8268
▁हृदये	-9.82762
भाज	-9.82865
दध	-9.82884
▁साधारण	-9.82925
ाचार्य	-9.82925
ानी	-9.82935
▁बालक	-9.82945
स्यां	-9.82976
रपि	-9.83002
द्वार	-9.83008
▁मं	-9.83059
मोद	-9.83092
▁त्यज	-9.831
▁आवेदन	-9.83106
यन्त्र	-9.83139
ra	-9.83148
▁विश्वे	-9.83165
ांसि	-9.83207
▁प्रयोजन	-9.83209
▁रुचि	-9.83262
▁आगम	-9.83273
▁स्वी	-9.83303
र्जन	-9.83324
▁षट्	-9.83348
▁सततं	-9.83396
▁कुर्या	-9.83433
▁चरण	-9.8352
▁H	-9.83648
संहिता	-9.83681
वर्जित	-9.83693
वेष	-9.8375
सामान्य	-9.83767
▁दोषः	-9.83796
गृ	-9.83815
▁साक्षात्	-9.83857
▁तृतीया	-9.8386
न्या	-9.83872
▁एतादृश	-9.83894
ितव्य	-9.83908
▁तेषाम	-9.83933
▁करो	-9.83945
▁हंस	-9.83985
ेन्द्रिय	-9.84016
▁क्षय	-9.84029
कानां	-9.84035
०५	-9.84038
र्वि	-9.84042
▁सुन्दर	-9.84045
▁आनन्द	-9.84075
गू	-9.84085
ादेश	-9.84132
▁कदाचन	-9.84151
दुर्	-9.84177
▁अभ्यास	-9.84185
▁विशेषण	-9.84191
स्तेन	-9.84201
७५	-9.84207
▁स्थापित	-9.84265
७०	-9.84313
क्षे	-9.84383
५५	-9.84399
कल्पना	-9.84418
स्तत्	-9.84447
▁संस्कृति	-9.84469
भूति	-9.84561
▁आरम्भ	-9.84565
▁एकदा	-9.84567
८०	-9.84575
▁पंच	-9.84578
मोक्ष	-9.84597
▁दया	-9.84632
दपि	-9.84641
▁दूत	-9.84641
▁प्रतिज्ञा	-9.84712
पञ्च	-9.84713
▁शोक	-9.84764
द्वयं	-9.84791
▁सूच	-9.84798
लोचन	-9.84799
▁श्रवण	-9.84831
▁वह्नि	-9.84919
▁अस्तु	-9.84942
▁खोज	-9.84952
▁पात्र	-9.85003
▁स्वतः	-9.85144
स्ती	-9.85149
ज्ञः	-9.85173
्येत	-9.85194
तैल	-9.85196
▁जित	-9.85202
▁यच्च	-9.85248
हरण	-9.85315
माल	-9.85319
सङ्घ	-9.85442
▁वर्गः	-9.85451
▁स्वागत	-9.85464
आर	-9.85486
▁ङीप्	-9.85496
▁संवत्सर	-9.85511
लक्षणं	-9.85572
स्मात्	-9.85596
ग्ध	-9.85659
धेय	-9.85665
▁पूर्वोक्त	-9.85676
▁प्रतिवेदन	-9.8576
ुत्तम	-9.8585
▁प्रमुख	-9.85914
▁परिवर्तन	-9.85995
्यत	-9.86007
~	-9.86014
▁दुर	-9.86017
४४	-9.86026
▁वाच्य	-9.86047
40	-9.86063
▁पीत	-9.86066
▁ययौ	-9.86084
ादित्य	-9.86085
तॊ	-9.86171
▁त्वमेव	-9.86204
भृ	-9.86205
▁स्वर्ण	-9.8622
तस्	-9.86268
३४	-9.86359
▁मिथ्या	-9.86365
स्वभाव	-9.86367
गतम्	-9.86384
▁राष्ट्रिय	-9.86388
भ्रा	-9.8645
▁वाक्यं	-9.86496
▁२३	-9.86501
▁गीत	-9.86505
सिंह	-9.86541
▁बी	-9.86564
न्ता	-9.86572
विघ्न	-9.86578
▁कर्तव्यम्	-9.86578
▁प्राक्	-9.86601
प्रेक्ष	-9.86616
मोह	-9.86652
दाह	-9.86688
▁स्पर्श	-9.86717
▁भर्त	-9.86761
ाणाम	-9.86901
▁तैः	-9.86956
भक्ति	-9.86995
निवास	-9.87049
ꣳ	-9.87058
▁पूर	-9.87105
ब्रू	-9.87125
चय	-9.8715
मुख्य	-9.87235
स्त्री	-9.87252
▁उपा	-9.87261
▁पुनरा	-9.87284
स्थे	-9.87306
ब्रवीत्	-9.87364
हास	-9.87368
▁of	-9.87373
षी	-9.87374
कुर्व	-9.87429
▁हिंसा	-9.8744
घट	-9.87461
०९	-9.87477
▁कार्या	-9.8754
जाल	-9.87616
▁स्वयमेव	-9.87619
▁२८	-9.87695
गृहे	-9.87711
ात्र	-9.87731
▁याये	-9.87738
गर्भ	-9.87754
तले	-9.87762
▁शैल	-9.8782
▁राज्ञ	-9.87891
ीयः	-9.879
▁तत्रैव	-9.8791
▁त्याग	-9.8792
▁निद्रा	-9.8795
ाण्य	-9.87962
2.	-9.88033
▁गिरि	-9.88085
स्तद	-9.88099
वचनं	-9.8813
सुर	-9.88152
४२	-9.88152
भर	-9.88173
▁जाति	-9.88182
▁तद्व	-9.882
वाणी	-9.88203
▁युद्धे	-9.88205
▁धकाः	-9.88209
▁प्रयोजनम्	-9.8824
ोऽस्ति	-9.88263
घोष	-9.88292
▁गज	-9.88293
▁अन्वयः	-9.88299
▁क्रमेण	-9.88309
३९	-9.88313
यतः	-9.8834
टो	-9.88341
रौ	-9.8838
३८	-9.88391
ह्व	-9.88393
▁संस्थान	-9.8846
▁भीत	-9.88461
▁निवृत्त	-9.88539
श्चा	-9.88558
▁प्रार्थय	-9.88567
▁मण्डल	-9.88659
▁समये	-9.88676
कौ	-9.88703
संस्कृत	-9.8872
▁आचार्य	-9.88743
15	-9.88774
▁कदापि	-9.88823
W	-9.88831
28	-9.8889
ष्यति	-9.88908
▁पार्थ	-9.88921
क्षेत्रे	-9.88944
मेतत्	-9.88946
▁प्रधानमन्त्री	-9.89015
▁तक	-9.89019
ाकाश	-9.8914
चरित	-9.89192
ाचार	-9.89227
भूषण	-9.89315
▁परिवर्त	-9.89328
पत्रं	-9.89342
▁दू	-9.89394
लक	-9.89406
▁सहाय	-9.89417
ार्ह	-9.89462
▁भाष	-9.89479
▁शक्तिः	-9.89493
03	-9.895
▁पृथ	-9.89513
ोऽस्मि	-9.89518
▁नाम्ना	-9.89532
ण्ण	-9.89534
त्वाद	-9.8957
नन्द	-9.89617
▁त्वयि	-9.89621
▁कर्म्म	-9.89626
अनु	-9.89635
सीद	-9.89639
17	-9.89651
ोदित	-9.89685
▁शक्नोति	-9.89719
नृत	-9.89742
▁कार्	-9.89758
▁नारी	-9.89767
४९	-9.89785
▁प्रभु	-9.89837
▁इमे	-9.89879
▁अक्षर	-9.89896
यैव	-9.89899
▁16	-9.89903
▁करिष्यति	-9.89924
▁अस्याः	-9.89946
व्र	-9.89953
▁श्रद्धा	-9.90027
ण्य	-9.90032
▁सिद्धि	-9.90118
शुभ	-9.9012
▁प्रभात	-9.9014
▁कर्त्तव्य	-9.90174
▁व्यवस्था	-9.90205
▁नेपाल	-9.90215
त्याह	-9.90218
ताल	-9.90263
यस्य	-9.90276
चिन्	-9.903
विदा	-9.90321
▁जे	-9.90326
यन्ते	-9.90345
पुट	-9.90358
ात्मानं	-9.9039
व्यं	-9.90434
५१	-9.90434
▁अग्र	-9.90452
त्ति	-9.90475
ासीत्	-9.90486
जित	-9.9051
▁कष्ट	-9.90518
▁धर	-9.90521
ान्वित	-9.90552
▁भाष्य	-9.9063
गुरु	-9.90634
लभ्य	-9.90701
लव	-9.90763
करी	-9.90787
K	-9.90789
कोश	-9.90827
▁इत्	-9.90833
▁दुग्ध	-9.90848
क्षिप्त	-9.90851
सृष्ट	-9.90913
फ़	-9.9096
बाल	-9.90971
▁मन्ये	-9.90981
भाषित	-9.90983
▁शक्र	-9.91002
रक्षित	-9.91024
▁अध्यक्ष	-9.9109
▁विवेक	-9.91128
▁MSS	-9.91166
▁ग्रीष्म	-9.91166
५९	-9.91185
▁विश्वं	-9.91212
▁सर्वतः	-9.91213
भेदेन	-9.91249
तल	-9.91334
▁प्रश्नः	-9.91384
गद	-9.91406
ध्र	-9.9142
द्वेष	-9.91458
▁चिन्ता	-9.91462
श्रुत	-9.91479
z	-9.91548
गन्ध	-9.91572
धाय	-9.91573
रिव	-9.91595
स्तं	-9.91614
५२	-9.91681
ब्राह्मण	-9.91737
फि	-9.9176
▁अग्रे	-9.91765
un	-9.91821
स्थल	-9.91844
भावना	-9.9189
२१	-9.91929
लित	-9.91932
▁कार्यम्	-9.91945
सुत	-9.9197
रङ्ग	-9.91993
ादपि	-9.91994
▁जगद	-9.9201
ग्रहणम्	-9.92017
▁अकरोत्	-9.92134
ायाम्	-9.92188
▁हल	-9.92193
मूर्ति	-9.92199
समर्थ	-9.92243
▁शरणं	-9.92248
▁वध	-9.92279
विशेषण	-9.92295
▁बीज	-9.92359
कारि	-9.9239
▁भार्या	-9.92398
▁दह	-9.92408
माया	-9.92444
४८	-9.92524
नन्तर	-9.92583
▁यस्तु	-9.92615
ॅ	-9.92635
▁महत्वपूर्ण	-9.92642
▁यत्न	-9.92643
जन्य	-9.92662
▁माम्	-9.92685
अप	-9.92686
▁गाय	-9.92697
येन	-9.9272
यात्रा	-9.92758
वन्द	-9.92765
दण्ड	-9.92769
योगी	-9.92777
▁प्राधिकरण	-9.9279
परम	-9.92838
▁खु	-9.92852
रित्य	-9.92876
▁चीन	-9.92887
ोपरि	-9.92965
▁अन्व	-9.93026
▁चिर	-9.93039
ha	-9.93078
▁रुप	-9.93095
शंस	-9.93201
▁करिष्य	-9.93214
मन्त्री	-9.93236
धम	-9.93243
▁विरुद्ध	-9.93277
▁प्रतिदिनं	-9.933
▁भूत्वा	-9.93302
▁हृ	-9.93353
▁कुर्वन्	-9.93378
समय	-9.93399
बर्	-9.93414
च्युत	-9.93446
भौ	-9.93454
▁पूजय	-9.93512
▁बह	-9.93635
▁इतः	-9.93655
▁यानाः	-9.93757
तू	-9.93757
भाषण	-9.93803
शू	-9.93816
निवृत्ति	-9.93828
शुद्ध	-9.93907
५७	-9.93916
▁कीर्ति	-9.9392
बाहु	-9.93931
इगु	-9.93967
▁नान्य	-9.93969
▁वीर्य	-9.93978
माप	-9.93987
थो	-9.94007
▁प्रथमः	-9.94077
▁मेघ	-9.9417
ावह	-9.94182
शरीर	-9.94239
श्रु	-9.94266
▁श्रुति	-9.94297
घ्र	-9.94314
संशय	-9.94405
ाभ्य	-9.94452
ेच्छ	-9.94462
त्याग	-9.9449
▁छन्द	-9.94556
ीयं	-9.94581
▁दिनाङ्के	-9.94619
▁संसाधन	-9.94701
ांश्च	-9.94736
▁नात्र	-9.94737
र्जित	-9.94749
▁उक्तं	-9.94776
०६	-9.94787
ात्मना	-9.9479
▁त्रयो	-9.94836
▁धु	-9.94879
ूप	-9.94903
▁SF	-9.94917
▁वचः	-9.94943
िके	-9.95107
दीय	-9.95165
गोचर	-9.95172
▁विर	-9.95196
कर्ण	-9.95251
▁स्मरण	-9.95358
▁दक्ष	-9.95387
▁नद्य	-9.95391
श्याम	-9.95393
दर्प	-9.95408
▁इत्यपि	-9.95448
स्पर्श	-9.95449
ऑ	-9.9545
वाल	-9.95486
ण्व	-9.95491
ऽन	-9.95562
▁संप्र	-9.9559
▁वार्षिक	-9.9563
वच	-9.9564
▁वक्तुं	-9.9565
पदा	-9.95728
▁ताः	-9.95747
जर	-9.95753
श्वास	-9.9576
▁पीसी	-9.95782
समान	-9.95785
▁पितामह	-9.95831
▁पर्यावरण	-9.95838
खि	-9.9585
द्वितीय	-9.95864
स्मरण	-9.95896
वित्त	-9.95899
ख्य	-9.95916
▁नष्ट	-9.95956
बीज	-9.95964
▁बन्ध	-9.95964
परम्परा	-9.95977
नाद	-9.95993
▁हु	-9.9613
विन्द	-9.96138
▁प्राह	-9.96201
पूज	-9.96211
सहित	-9.96218
तमं	-9.96239
▁व्याकरण	-9.96248
▁डा	-9.96293
▁संस्कार	-9.96306
वेग	-9.96406
▁K	-9.96419
स्तो	-9.96422
विरुद्ध	-9.96448
वय	-9.96495
▁पत्नी	-9.96497
▁यद्वा	-9.9651
▁आधार	-9.96526
वित्	-9.96529
श्रेष्ठ	-9.96534
▁ततस्त	-9.96657
ढ़	-9.96687
▁भवन्त	-9.96702
▁उक्तम्	-9.96712
एस	-9.96715
4.	-9.96776
विनाश	-9.96796
▁अना	-9.96908
तत्र	-9.97035
▁श्रम	-9.97042
▁एतेषां	-9.97057
▁शिशु	-9.97058
▁गृहीत्वा	-9.9706
ैरपि	-9.9706
▁समीपे	-9.97166
४६	-9.97174
▁औषध	-9.97182
ग्ल	-9.97237
▁उन्नत	-9.97277
तश्च	-9.97298
संयोग	-9.97315
निष्ठा	-9.97339
यता	-9.97339
▁प्रोक्ता	-9.97341
कारेण	-9.97373
▁पाक	-9.97411
▁गतिः	-9.97435
▁इत्येतद्	-9.97458
14	-9.97459
ir	-9.97497
ऽभि	-9.975
वक्तु	-9.97562
द्वन्द्व	-9.97574
च्छा	-9.97677
▁प्रस्तुत	-9.97755
चिन्त्य	-9.97819
▁मनु	-9.97865
साधारण	-9.97887
▁विश्वास	-9.97926
▁b	-9.97939
▁ग्राह्य	-9.97965
▁मासे	-9.97981
▁मुद्रा	-9.98
फ्र	-9.98014
▁४०	-9.98014
तीर्थ	-9.9804
निष्	-9.98073
▁शयन	-9.98085
ro	-9.98181
शब्दस्य	-9.98191
चेतन	-9.98221
०७	-9.98242
▁दो	-9.98271
परिमाण	-9.98284
प्रयोजन	-9.98298
दल	-9.9831
▁महि	-9.98353
▁सायं	-9.98372
विधे	-9.98373
सक्त	-9.98415
नात्	-9.98415
िदं	-9.98416
▁निरा	-9.9842
कालः	-9.98543
▁सार्ध	-9.9858
▁तन्न	-9.98589
तिथि	-9.98624
धनं	-9.98626
▁स्वप्ने	-9.9863
▁५०	-9.98642
^	-9.98738
सेवा	-9.9877
मत्त	-9.98842
७४	-9.98847
▁समस्या	-9.98881
पीडित	-9.98883
त्यर्थ	-9.98895
09	-9.98906
▁सृज	-9.98923
दू	-9.98927
समास	-9.98931
र्य्य	-9.98948
▁पुरो	-9.9898
▁लोका	-9.98991
▁सङ्ग	-9.99037
ावस्था	-9.99085
पदार्थ	-9.99114
II	-9.99143
इत्य	-9.99185
रज	-9.99185
▁इदम	-9.99196
▁अन्तरिक्ष	-9.99303
सम्बद्ध	-9.99327
साद	-9.99483
▁रामः	-9.99486
▁प्रयुक्त	-9.99488
▁इच्छा	-9.99537
-2	-9.99692
प्रसारण	-9.997
▁त्वम	-9.99706
▁ऊर्ध्व	-9.99727
क्रम्य	-9.99732
अपि	-9.99756
जिन	-9.99801
क्षित	-9.99844
मनो	-9.99883
▁द्विगुण	-9.99883
▁सम्प्रति	-9.99914
▁विवाद	-9.99916
▁तस्मा	-9.99943
▁व्रज	-10.0009
क्षत	-10.0009
▁तर्क	-10.0012
▁गुह्य	-10.0014
▁द्वितीया	-10.0019
▁अधिकृत	-10.0019
५६	-10.0021
▁श्रूयते	-10.0022
षण	-10.0026
▁केवलम्	-10.0027
▁व्याख्या	-10.0029
▁किमर्थं	-10.0031
▁प्रकाशित	-10.0032
५०	-10.0034
▁कारणम्	-10.0035
निरोध	-10.0038
रक्त	-10.0047
▁सम्प्र	-10.0052
ur	-10.0055
▁अभाव	-10.0056
▁सर्वान्	-10.0063
▁वज्र	-10.0064
पूर	-10.0067
▁मह्यं	-10.0069
▁जीवनं	-10.0074
ादीनि	-10.0079
▁२९	-10.0082
२२	-10.0085
ाब्द	-10.0086
▁नहीं	-10.0097
▁स्त्रीणां	-10.0097
▁सृष्टि	-10.01
बु	-10.0101
▁कारक	-10.0103
▁स्फुट	-10.0119
प्रवेश	-10.0124
तृण	-10.0127
स्मान्	-10.0128
दीप्त	-10.0129
मेष	-10.0129
▁इन्द्रिय	-10.0131
▁देवः	-10.0132
▁अन्तः	-10.0132
ऽव	-10.0134
संज्ञ	-10.014
▁रति	-10.0143
हरति	-10.0143
▁सय	-10.0143
9.	-10.0148
वाहन	-10.0148
जन्त	-10.0149
▁तार	-10.0158
▁त्वम्	-10.0161
दृष्ट्या	-10.0164
▁वसु	-10.0166
▁बलं	-10.0169
धः	-10.017
▁पै	-10.0171
गीत	-10.0174
▁विधा	-10.0175
माला	-10.0178
स्यामि	-10.0178
९०	-10.0182
▁(=	-10.0182
▁वदन्ति	-10.0186
तमा	-10.019
ादेशः	-10.0196
▁वेतन	-10.02
न्ये	-10.0201
▁निर्दिष्ट	-10.0205
▁करुणा	-10.0207
संयुत	-10.0208
लक्षणम्	-10.0208
▁वर्षाणि	-10.0213
▁R	-10.0215
बे	-10.022
प्रदान	-10.022
▁विभक्त	-10.0221
▁स्नानं	-10.0225
▁विभिन्न	-10.0226
▁पातु	-10.0226
भिधीयते	-10.0237
ऽथ	-10.024
न्तर्	-10.0242
द्योत	-10.0251
▁विशेषः	-10.0252
▁उत्सव	-10.026
▁पो	-10.0267
श्वर	-10.0267
्यात्	-10.0269
युक्ते	-10.0278
मुपा	-10.0281
▁समुप	-10.0282
ाप्त	-10.0284
▁स्वस्य	-10.029
वर्धन	-10.0295
ाहार	-10.0301
29	-10.0301
जायत	-10.0302
▁अन्तिम	-10.0308
▁आर्	-10.0312
▁इम	-10.0312
शाल	-10.0313
संघ	-10.0315
▁लाखों	-10.0317
मिद	-10.032
वादिन	-10.0328
▁दशम	-10.0331
▁बभूव	-10.0336
वर्ध	-10.0338
दित्य	-10.0339
▁घटना	-10.0344
वायु	-10.0346
माद	-10.0352
▁३१	-10.0354
▁वृष	-10.0356
क्रमेण	-10.0359
परे	-10.0363
प्प	-10.0363
विस्तर	-10.0364
▁अवि	-10.0367
निहित	-10.0371
▁असि	-10.0374
मप्य	-10.0374
सत्तम	-10.0377
▁विदेश	-10.0388
▁तन्त्र	-10.0398
७६	-10.0404
▁ततश्च	-10.0405
▁इय	-10.0406
▁घोर	-10.0406
16	-10.0406
प्रवाह	-10.0414
▁यन्त्र	-10.0415
▁सकलं	-10.0417
▁परस्परं	-10.0418
▁सहित	-10.042
▁गम्यते	-10.0422
▁30	-10.0425
डु	-10.0431
▁वानर	-10.0432
▁सनातन	-10.0441
युक्तम्	-10.0441
कथ	-10.0443
२४	-10.0453
ate	-10.0454
▁वर्त	-10.0454
चेष्ट	-10.0456
५४	-10.0458
विधिः	-10.0458
प्रसाद	-10.046
नीति	-10.046
▁कश्चिद्	-10.0462
▁वस्त्र	-10.0464
▁विकार	-10.0465
▁सञ्	-10.0467
▁छि	-10.0469
रक	-10.047
▁धर्मः	-10.0475
▁गुणा	-10.0476
▁स्वास्थ्य	-10.048
▁मन्दिर	-10.0481
▁षोडश	-10.0482
▁J	-10.0482
▁2019	-10.0484
सत्ता	-10.0486
ार्त	-10.0493
▁च्व	-10.0493
समीप	-10.0494
सहस्राणि	-10.0495
3.	-10.05
क्रियते	-10.0501
▁न०	-10.0503
▁केचन	-10.0503
हुत	-10.0504
रत्न	-10.0505
लक्षणा	-10.0507
विद्व	-10.051
▁बालकः	-10.0513
se	-10.0518
ून	-10.0524
▁उत्तरः	-10.0528
ot	-10.0534
▁भवतीति	-10.0534
▁अनि	-10.0537
▁एन	-10.0538
▁इत्युक्ते	-10.0539
दुर	-10.0544
दीर्घ	-10.0545
▁अनुकूल	-10.055
▁मर्त्य	-10.0552
म्बर	-10.0553
्यतां	-10.0553
32	-10.0554
द्रा	-10.0557
▁शं	-10.0559
▁the	-10.0561
क्री	-10.0564
▁विश्वविद्यालय	-10.0567
ततः	-10.057
६५	-10.057
▁सैन्य	-10.057
तिष्ठ	-10.0574
गते	-10.0587
र्ड	-10.0587
▁वार्ता	-10.0593
लील	-10.0593
ut	-10.0595
निवेश	-10.0596
सदृश	-10.0601
▁हरिः	-10.0608
▁एवमेव	-10.0608
▁भो	-10.0611
मेकं	-10.0616
▁क्ली	-10.0616
हृद	-10.0617
▁2020	-10.0632
▁अतएव	-10.0635
मतिः	-10.0637
▁स्मृतः	-10.0639
ाधार	-10.0639
▁जले	-10.064
▁विधिः	-10.0648
मै	-10.0648
▁लभ्यते	-10.0656
▁होम	-10.0659
▁स्त्रिय	-10.0662
▁वर्धते	-10.0663
स्थितः	-10.0667
अर्थ	-10.0667
पुण्य	-10.0672
▁सद	-10.0673
▁भोज	-10.0674
साधक	-10.0675
▁प्रविश्य	-10.0675
▁वात	-10.0677
▁प्रज्ञा	-10.0686
▁पश्यामि	-10.0686
▁निर्वाचन	-10.0688
▁रहस्य	-10.0692
▁सन्धि	-10.0694
बन्धु	-10.0695
▁त्यक्त	-10.07
शाख	-10.0701
निश्चय	-10.0702
ोत्सव	-10.0705
रण्य	-10.0709
िकाः	-10.0712
▁समयः	-10.0715
प्रश्न	-10.0717
▁वैद्य	-10.0719
▁स्वार्थ	-10.0725
मन्व	-10.0732
तुल्य	-10.0734
प्रभाव	-10.0744
▁करे	-10.0748
प्रतिष्ठित	-10.0748
▁बु	-10.0748
संस्कार	-10.0752
येद्	-10.0756
▁आर्थिक	-10.0758
▁परीक्ष	-10.0759
▁राष्ट्रीय	-10.0762
्येव	-10.0764
स्माद	-10.0766
▁रह	-10.0768
वु	-10.0769
▁ऽपि	-10.0775
▁W	-10.0778
ोपदेश	-10.078
om	-10.078
धृ	-10.0785
▁द्वितीयं	-10.0786
▁अधिकारी	-10.0789
वता	-10.0794
▁पद्म	-10.0794
जगाम	-10.0796
▁धूम	-10.08
ऽनु	-10.0801
▁याःगु	-10.0807
च्छ्र	-10.0811
▁कव	-10.0812
▁दक्षिणे	-10.0813
▁वायुः	-10.0815
कूट	-10.0818
▁नाग	-10.082
गोल	-10.0823
▁याना	-10.0824
▁सुरक्षा	-10.0825
हम	-10.0826
▁अधो	-10.0829
ादिक	-10.0831
४३	-10.0832
▁कार्य्य	-10.0833
▁प्रजापति	-10.0834
कीर्त	-10.0836
दद	-10.0838
▁वः	-10.0841
वर्य	-10.0844
वेष्ट	-10.0848
वसान	-10.0854
▁टी	-10.0856
▁षष्ठी	-10.0859
▁पर्व	-10.0863
संग	-10.0865
▁मन्	-10.0866
▁पुरस्कार	-10.0867
▁समु	-10.0867
िरे	-10.0868
ul	-10.0874
स्ततः	-10.0876
▁वर्णन	-10.0878
iii	-10.0882
ैषा	-10.0883
भाव्य	-10.0885
▁चिद	-10.089
Y	-10.0892
▁माम	-10.0892
▁रवि	-10.0892
▁अक्ष	-10.0893
त्वाद्	-10.0894
स्तीति	-10.0898
▁मुने	-10.0899
धौ	-10.09
चन्द्र	-10.0904
▁दूरे	-10.0908
कारो	-10.0909
६२	-10.0929
भयं	-10.0929
प्रतीक्ष	-10.093
त्र्य	-10.0931
▁प्राप्ता	-10.0932
▁विभाषा	-10.0936
ेऽस्मिन्	-10.0939
्युप	-10.0942
ेनापि	-10.0943
▁सङ्ख्या	-10.0946
मांस	-10.0956
ह्र	-10.0959
ेभ्य	-10.0961
▁प्रसाद	-10.0964
▁कश्चिद	-10.0965
▁प्रमाणं	-10.0968
ta	-10.097
▁सृष्ट	-10.0971
▁दीन	-10.0971
▁भोजनं	-10.0972
राशि	-10.0977
▁दैत्य	-10.0977
▁नृ	-10.0978
र्हि	-10.098
कोण	-10.0982
▁21	-10.0984
यथ	-10.0985
▁नारद	-10.0985
▁सद्	-10.0987
रेक	-10.0987
रक्षण	-10.0992
▁प्रार्थना	-10.0994
ऽऽ	-10.0997
शब्दो	-10.1003
▁इत्युच्यते	-10.1003
योगे	-10.1005
▁व्यव	-10.1006
गतो	-10.1006
▁अनन्त	-10.1012
▁शरीरं	-10.1012
▁अध	-10.1019
स्येति	-10.102
▁राजनीति	-10.1023
▁मूढ	-10.1025
क्ष्ण	-10.103
▁सूत	-10.1031
▁स्रोत	-10.1032
िकी	-10.1038
वादः	-10.1039
वाच्य	-10.104
▁प्राधान्य	-10.1041
उच्चारण	-10.1041
▁सौभाग्य	-10.1042
ऽन्य	-10.1043
▁इच्छति	-10.105
एत	-10.1054
li	-10.1054
लाप	-10.1061
8.	-10.1068
▁वेग	-10.1078
▁पक्षे	-10.1078
माने	-10.1082
▁स्वातन्त्र्य	-10.1084
▁परमा	-10.1085
त्यादिना	-10.1085
▁इत्यस्मात्	-10.109
▁अव्यय	-10.1091
▁धीरे	-10.1093
जाः	-10.1096
▁खो	-10.11
मूल्य	-10.11
▁विचित्र	-10.1102
▁छात्राः	-10.1103
▁त्रीणि	-10.1107
▁पतित	-10.111
दैवत	-10.1116
ब्रुव	-10.1116
द्वै	-10.1118
दृष्टि	-10.1123
13	-10.1126
▁यव	-10.1127
▁प्रयत	-10.1127
▁शरण	-10.1129
भाग्य	-10.113
30	-10.1133
वरी	-10.1134
▁याव	-10.1135
ोदक	-10.1139
▁युगे	-10.1147
वात	-10.1148
and	-10.1149
08	-10.115
▁शक्यं	-10.1153
▁अमरः	-10.1155
▁इत्येवं	-10.1157
▁5.	-10.1157
कर्तव्य	-10.1159
▁दिवा	-10.1164
विग्रह	-10.1167
परिहार	-10.1171
▁प्रत्ययः	-10.1171
गृह्णा	-10.1178
द्धा	-10.1179
▁आगच्छ	-10.118
:-	-10.1181
▁अपा	-10.1183
▁प्राप	-10.1186
▁आय	-10.1187
धातोः	-10.1188
ब्रवी	-10.1191
पेक्ष	-10.1191
वेदन	-10.1193
पत्तेः	-10.1197
▁स्थल	-10.1198
▁प्रस्ताव	-10.1198
५८	-10.1203
▁प्राग	-10.1206
ज्ञापय	-10.1206
कुम्भ	-10.1206
पात्र	-10.1208
▁इमं	-10.1208
▁कक्षा	-10.1215
▁दोषा	-10.1218
▁यॊ	-10.1219
▁दर	-10.1222
▁वाज	-10.1223
▁25	-10.1229
▁विहाय	-10.1244
सूर्य	-10.1245
▁अवदत्	-10.1248
▁सर्वस्य	-10.1249
▁चेत	-10.125
1.	-10.125
▁भुवि	-10.1251
▁सर्वथा	-10.1252
र्या	-10.1253
विशेषः	-10.1255
क्षम	-10.1256
विवेक	-10.126
▁तवा	-10.1262
▁अ॒	-10.1262
पूजन	-10.1262
▁वरुण	-10.1263
त्यन्त	-10.1266
याद	-10.1268
▁तै	-10.1272
ow	-10.1272
भवद्	-10.1276
पट	-10.1277
ासौ	-10.1277
▁प्रीत	-10.1278
▁भूमौ	-10.1283
त्रयं	-10.1283
प्रकृति	-10.1284
परिचय	-10.1288
पक्व	-10.1292
▁एको	-10.1295
व्यसन	-10.1298
▁जक	-10.1299
महे	-10.1307
शक्त्या	-10.1308
▁उचित	-10.1313
▁देवस्य	-10.1314
▁पुरातन	-10.1317
▁साल	-10.1326
लय्	-10.1328
व्यतिरेक	-10.1332
▁संविधान	-10.1334
िणा	-10.1339
31	-10.1343
od	-10.1346
नीया	-10.1348
मित्यर्थः	-10.1351
कान्	-10.1355
▁स्वस्थ	-10.1356
रूढ	-10.1359
▁राशि	-10.136
▁भवती	-10.1361
मूर्त	-10.1363
रणं	-10.1364
▁इत्या	-10.1365
न्तरिक्ष	-10.1367
ासि	-10.1374
पश्चा	-10.1379
▁पठित	-10.1392
२५	-10.1393
▁देशस्य	-10.1394
▁सर्वैः	-10.1394
21	-10.1397
07	-10.1398
▁प्रतिभा	-10.1398
▁युद्धं	-10.1398
▁सहसा	-10.1399
▁३२	-10.14
▁लेखन	-10.1407
दानी	-10.1411
▁कर्माणि	-10.1414
विपर्यय	-10.1415
डो	-10.142
शून्य	-10.1429
सेना	-10.143
त्य्	-10.1434
▁हेतुः	-10.1434
विकार	-10.1435
पूजा	-10.1437
स्थानम्	-10.1439
शुद्धि	-10.1445
पद्धति	-10.1448
▁हानि	-10.1453
रुद	-10.1458
ri	-10.1458
ात्मकं	-10.1461
३२	-10.1462
▁Answer	-10.147
संवाद	-10.1473
▁प्राप्यते	-10.1479
▁यस्मात्	-10.148
▁तदनु	-10.1488
भेदः	-10.1494
▁सप्ताह	-10.1495
छा	-10.15
▁तस्यां	-10.1501
▁अवस्था	-10.1503
ादयो	-10.1507
वर्द्ध	-10.1511
शान्त	-10.1513
केन्द्र	-10.1515
फलकम्ः	-10.1518
▁सर्प	-10.1518
वश्य	-10.1519
▁अग्निः	-10.1526
▁व्यय	-10.1528
com	-10.153
कुमार	-10.1536
▁आसन	-10.1537
▁जी	-10.1539
▁देवो	-10.1542
▁गवा	-10.1542
V	-10.1543
▁चेद	-10.1544
▁चतुर्दश	-10.1547
लक्ष	-10.1547
▁करणीय	-10.1548
▁कारयेत्	-10.1551
35	-10.1552
पुस्तक	-10.1556
▁अधिकरण	-10.1557
७१	-10.157
▁निवेदन	-10.1573
तये	-10.158
▁सिध्यति	-10.1586
५३	-10.1588
▁शे	-10.159
धीत	-10.1593
▁वाहन	-10.1594
पुनः	-10.1595
▁आग	-10.1599
▁मित्रं	-10.1599
प्यते	-10.1602
▁तपो	-10.1603
न्स	-10.1604
क्राम	-10.1612
▁आर्य	-10.1614
▁त्यक्त्वा	-10.1614
▁रत्न	-10.1618
▁ईश्वरः	-10.1619
समवाय	-10.1622
▁ऋषि	-10.1627
▁संदेह	-10.1629
दग्ध	-10.163
स्थं	-10.1631
ादेः	-10.1631
▁द्रष्टुं	-10.1635
▁2018	-10.1635
▁एकैक	-10.1636
ारभ्य	-10.1636
▁एतानि	-10.1637
▁कालेन	-10.1639
▁ध्वज	-10.1639
७२	-10.1643
ion	-10.1647
वाचि	-10.1647
रिया	-10.1652
स्तद्	-10.1655
▁कथयति	-10.166
▁स्थितम्	-10.1668
शिया	-10.1672
३१	-10.1673
▁सदृश	-10.1675
▁संरक्षण	-10.1676
▁कृत्य	-10.1677
▁आधुनिक	-10.1679
▁अस्माभिः	-10.1681
२७	-10.1682
गणित	-10.1682
▁Re	-10.1686
तय	-10.169
▁राज्ञः	-10.17
वीर्य	-10.1703
05	-10.1704
▁यश्च	-10.1706
ेत्यर्थः	-10.171
▁निवर्त	-10.1711
जाति	-10.1712
▁परस्परम्	-10.1713
▁नमो	-10.1719
द्वीप	-10.172
▁शूर	-10.172
प्रत्यक्ष	-10.1723
▁डि	-10.1725
▁Next	-10.1727
धुना	-10.1731
▁हस	-10.1732
ध्वं	-10.1734
दानव	-10.1736
टु	-10.1739
▁इद	-10.1747
▁मदु	-10.1749
धुर	-10.1751
ावरण	-10.1753
▁जीवति	-10.1753
▁=>	-10.1754
▁परमात्म	-10.1755
▁गुणाः	-10.1757
विक्रम	-10.1761
शोभ	-10.1761
दर्थ	-10.1762
▁अवश्यं	-10.1767
६१	-10.1768
चिह्न	-10.1772
▁नागरिक	-10.1775
▁बहूनि	-10.1775
▁पुष्टि	-10.1775
युध	-10.1779
चिर	-10.178
▁अध्यायः	-10.1785
▁नाटक	-10.1785
मातर	-10.1793
ग्रा	-10.1798
सर्प	-10.1799
▁श्राद्ध	-10.1801
▁व्याघ्र	-10.1806
लङ्कार	-10.1806
▁हर्ष	-10.1812
▁चतुर	-10.1813
महि	-10.1814
द्भिः	-10.1816
ुदात्त	-10.1817
गच्छति	-10.1823
िष्यन्ति	-10.1826
मर्द	-10.1827
▁हन्त	-10.1827
▁चैक	-10.1829
▁हव	-10.183
पण्डित	-10.1831
▁Q	-10.1842
६४	-10.1843
मलं	-10.1847
▁जनता	-10.1849
९१	-10.185
ोदर	-10.185
त्रापि	-10.185
श्चापि	-10.1856
▁सौम्य	-10.1858
ऽस्ति	-10.1862
रुचि	-10.1863
▁ताम	-10.1863
▁अण्	-10.1869
▁प्रथमे	-10.1873
स्माद्	-10.1874
समृद्ध	-10.1876
युज्य	-10.1876
्यन्त	-10.1877
देक	-10.1877
ोऽसि	-10.1877
निश्चित	-10.1879
दधि	-10.1885
▁वेति	-10.1886
योगेन	-10.1889
रभ	-10.189
लिका	-10.1893
सङ्कल्प	-10.1894
▁क्षेत्रे	-10.1895
▁जगद्	-10.1896
▁अंश	-10.19
ाभ्याम्	-10.1904
ादिभिः	-10.1912
श्रय	-10.1913
▁द्विविध	-10.1913
वाञ्छ	-10.1914
दैव	-10.1917
▁विशाल	-10.1918
▁समग्र	-10.1918
बन्धन	-10.1922
दुप	-10.1924
संस्थ	-10.1929
▁w	-10.1932
करा	-10.1934
▁24	-10.1943
पेक्षा	-10.1945
▁करि	-10.1946
सैनिक	-10.1947
▁माय	-10.1948
७७	-10.1951
भावो	-10.1955
▁अवश्य	-10.1962
ाख्या	-10.1964
भावित	-10.1967
▁स्वयम	-10.1971
भोजन	-10.1973
सामग्री	-10.1974
बै	-10.1976
वाप	-10.1982
▁कश्चि	-10.1987
क्षिप	-10.1994
भ्यन्तर	-10.1999
▁यथोक्त	-10.2
ीकृत्य	-10.2003
▁ईश	-10.2005
ent	-10.2005
▁प्रकृते	-10.2007
नैव	-10.2008
कृतिः	-10.2011
मात्रे	-10.2011
▁३३	-10.2014
▁व्यास	-10.2017
ञ्जन	-10.2018
यज	-10.2022
ोऽप्य	-10.2023
कक्ष	-10.2023
ीश	-10.2024
▁साथ	-10.2033
▁योग्य	-10.2033
धर्म्म	-10.2036
गृहं	-10.2039
देशिक	-10.2039
▁प्रविश	-10.2039
कर्मणि	-10.2039
पराजित	-10.2043
लिखित	-10.2047
ाद्या	-10.2047
▁स्तुत	-10.2049
▁तदाह	-10.2051
▁प्राप्तवान्	-10.2054
▁समागत	-10.2055
बंध	-10.2058
▁प्रकारेण	-10.2059
▁इत्थं	-10.2064
▁धाःसा	-10.2065
▁देशः	-10.2066
२८	-10.2069
▁तमेव	-10.2072
ेष्ट	-10.2073
▁रिक्त	-10.2078
देशीय	-10.2078
नायक	-10.2079
च्यते	-10.2082
ter	-10.2087
२३	-10.2089
ैश्वर्य	-10.2089
▁मिश्र	-10.209
ानन्तरं	-10.2092
वस्था	-10.2094
▁यश	-10.2095
▁नवीन	-10.2095
तोष	-10.2106
हर्ष	-10.2109
▁बे	-10.2118
▁पितुः	-10.2119
▁प्रजाः	-10.2124
जनक	-10.2125
ादय	-10.2126
साहस	-10.2128
व्याप्त	-10.213
▁संभवति	-10.2135
मेध	-10.2136
बिन्दु	-10.2138
६९	-10.214
▁स्युः	-10.2142
वक्त्र	-10.2142
▁दृष्टा	-10.2151
हृष्ट	-10.2159
िष्	-10.2161
ऽत्र	-10.2163
▁आरब्ध	-10.2163
भवन्	-10.2166
▁सर्वाः	-10.2167
▁सम्बन्धि	-10.2171
०८	-10.2172
▁दास्य	-10.2181
वीत	-10.2187
▁सर्वलोक	-10.2187
गौरव	-10.2189
नुग्रह	-10.2189
▁जिला	-10.219
▁शम	-10.2191
▁क्रमशः	-10.2193
भ्यास	-10.2196
न्वित	-10.2196
▁ज्योतिष	-10.2198
▁पाणि	-10.2202
▁ऋतु	-10.2204
वतां	-10.2204
ेयम्	-10.2205
ैनं	-10.2206
▁अभिप्राय	-10.2207
रुत	-10.2214
▁चकार	-10.2215
▁प्रकट	-10.2216
परायण	-10.222
▁पट	-10.2221
विध्य	-10.2228
04	-10.2229
राव	-10.2233
--"	-10.2234
कारी	-10.2235
▁शोच	-10.2239
▁एषां	-10.224
निर्णय	-10.2242
वचने	-10.2244
लू	-10.2245
▁भवेद्	-10.2245
्यर्थं	-10.2246
अहं	-10.2247
ब्ल	-10.2249
पत्रिका	-10.225
वादि	-10.225
६८	-10.2256
निर्मित	-10.2256
श्री	-10.226
▁मर्	-10.2261
परिभाष	-10.2264
ायते	-10.2265
▁दत्त्वा	-10.227
▁कार्याणि	-10.2271
पराध	-10.2275
मानस	-10.2276
▁वसन्त	-10.2276
विहीन	-10.2276
अह	-10.2277
▁हिंस	-10.2278
ैति	-10.2278
▁जाल	-10.2281
▁पापं	-10.2281
विवक्ष	-10.2284
साम	-10.2287
ित्य	-10.2287
▁अङ्क	-10.229
वर्षे	-10.2293
परीक्षा	-10.2296
ष्यते	-10.2296
▁कारय	-10.2298
▁जनः	-10.2299
▁स्मृता	-10.2313
मत्र	-10.2319
परिषद	-10.232
तर्क	-10.2328
सय	-10.2328
घु	-10.233
▁व्याधि	-10.233
संग्रह	-10.2331
यद	-10.2332
ेश्वरः	-10.2334
▁तद्यथा	-10.2335
लोभ	-10.2335
▁उन्	-10.2339
लोम	-10.2341
गेह	-10.2342
मुक्ति	-10.2342
▁योऽ	-10.2354
▁साभारः	-10.2362
भङ्ग	-10.2362
▁रणे	-10.2365
प्रदेशे	-10.2367
▁विधाय	-10.2368
▁नोप	-10.2371
▁नायक	-10.2372
▁क्षीर	-10.2385
सलिल	-10.2387
▁नामानि	-10.2388
पुष्प	-10.2397
ात्मनि	-10.2398
ल्व	-10.2399
धिकं	-10.2415
धव	-10.242
प्रतीति	-10.2422
सिद्धिः	-10.2422
सर्वकार	-10.2422
नै	-10.2424
ब्र	-10.2426
८६	-10.2427
▁प्रयच्छ	-10.2433
क्षीण	-10.2435
नाप	-10.2437
ि॒	-10.2438
प्रसिद्ध	-10.244
▁शुचि	-10.244
▁नक्षत्र	-10.2446
क्रमे	-10.245
▁अस्मान्	-10.2451
ालये	-10.2453
▁सामान्यतः	-10.2455
्यताम्	-10.2459
भर्	-10.2459
दित	-10.2465
▁आशा	-10.2465
सम्म	-10.2474
▁पञ्चम	-10.2475
▁अपराध	-10.2475
▁कर्तव्यः	-10.2476
क्रुद्ध	-10.2477
▁सप्तदश	-10.2479
प्रशस्त	-10.2488
▁संबंधन	-10.2489
▁रावण	-10.2494
धिकरण	-10.2501
▁दिशि	-10.2509
परिणाम	-10.251
भक्ष	-10.2514
▁गुरुः	-10.2514
▁सूक्त	-10.2515
▁नापि	-10.2515
▁यथाशक्ति	-10.2515
लिख	-10.2518
विभव	-10.2528
▁गन्तव्य	-10.2533
$	-10.2534
कोटि	-10.2538
▁स्तुति	-10.2544
▁यौवन	-10.255
रॊ	-10.2552
▁धनु	-10.2552
▁दृश्यन्ते	-10.2556
▁अहम	-10.2558
▁द्वीप	-10.2559
▁ओं	-10.2562
ive	-10.2564
▁जनार्दन	-10.2566
▁प्रवक्ष्यामि	-10.2566
भौतिक	-10.2567
रूपाणि	-10.2568
▁विदुः	-10.257
▁लक्ष्यते	-10.2573
▁देवदेव	-10.2575
▁पार्श्व	-10.2577
▁सर्वज्ञ	-10.2578
@1	-10.2579
▁मरणं	-10.2579
वृत्तं	-10.2582
25	-10.2584
▁ततॊ	-10.2588
▁गृह्ण	-10.2589
धारा	-10.259
▁टिप्पणियां	-10.2591
श्लेष	-10.2594
▁स्थिते	-10.2595
गोत्र	-10.2598
▁इच्छामि	-10.2604
विधानं	-10.2606
▁जू	-10.2608
व्यापक	-10.2611
▁सचिव	-10.2612
क्ष्म	-10.2614
▁समर्पयामि	-10.2619
▁पठति	-10.2624
ष्ट्र	-10.2626
▁षड	-10.2628
फो	-10.2631
▁हस्ते	-10.2632
▁पुरुषो	-10.2632
▁अनन्तरं	-10.2633
ोक्ति	-10.2636
▁यान	-10.2637
संस्थित	-10.2637
pr	-10.264
गि	-10.2642
▁अस्मा	-10.2645
▁भरत	-10.2645
शोक	-10.2649
नीयं	-10.2649
▁ततोऽ	-10.2651
▁फलम्	-10.2656
यी	-10.2664
ययौ	-10.2665
▁वृष्टि	-10.2668
साध	-10.2668
पत्त	-10.2669
तीव	-10.267
▁कार्यालय	-10.2675
ॐ	-10.2676
ाभावात्	-10.2677
▁राज्ञा	-10.2677
्नु	-10.2679
▁दृश्यम्	-10.268
▁धर्मो	-10.2682
ैस्त	-10.2684
पाक	-10.2684
▁यशः	-10.2688
अव	-10.2693
माध्यम	-10.2697
▁ज्ञातु	-10.2698
▁वेत्ति	-10.27
वते	-10.27
▁कान्त	-10.2703
यन्तु	-10.2704
न्तीति	-10.2705
तप्त	-10.2708
४०	-10.2709
भाष्य	-10.2711
तिरिक्त	-10.2711
▁असौ	-10.2714
मासे	-10.2716
10.	-10.2716
▁निहत	-10.2717
▁आधिकारिक	-10.2721
▁कुतो	-10.2724
▁कानून	-10.2725
भविष्य	-10.273
▁आवश्यकता	-10.273
▁कोटि	-10.2732
ation	-10.2732
परोक्ष	-10.2734
▁अन्वेषण	-10.2738
चाल	-10.2739
▁नाभि	-10.274
काव्य	-10.2741
▁अर	-10.2747
विभक्ति	-10.2755
यतु	-10.2757
स्ताव	-10.2758
▁स्थितिः	-10.2759
सृत	-10.276
▁प्रकल्प	-10.2761
ानुसारं	-10.2763
▁मार्च	-10.2767
▁अभवन्	-10.2768
गौ	-10.2769
▁समर्थन	-10.277
▁शोध	-10.277
८९	-10.2773
▁दीयते	-10.2773
ग्व	-10.2782
शूल	-10.2787
७३	-10.2787
तत्पर	-10.279
▁आङ्ग्ल	-10.2791
▁तनु	-10.2792
दातव्य	-10.2795
ou	-10.2796
▁In	-10.2804
▁स्वकीय	-10.2806
वक्ष्य	-10.2808
▁धार्मिक	-10.2811
करोति	-10.2815
▁दृष्टं	-10.2816
▁न्यायालय	-10.282
▁घन	-10.2822
▁इमा	-10.2823
प्लुत	-10.283
िणां	-10.2831
चिन्तय	-10.2837
ल्ला	-10.2839
ास्त्र	-10.284
▁दद्यात्	-10.2842
▁निशा	-10.2846
िनं	-10.285
दृक्	-10.2854
▁पाण्डव	-10.2854
▁स्त्रिया	-10.2857
▁पुनरपि	-10.2859
▁तत्रापि	-10.2866
▁घर	-10.2867
समाप्त	-10.2869
▁दिवि	-10.287
युष्मा	-10.2871
▁प्रक्रिया	-10.2873
गमनं	-10.2874
▁अध्य	-10.2875
उत्	-10.2877
▁किंचित्	-10.2878
▁पूर्वेण	-10.2883
▁वच	-10.2887
▁भ्रात	-10.2891
मरण	-10.2891
ावली	-10.2893
▁पुरतः	-10.2896
▁पुनस्त	-10.2897
▁महता	-10.2903
सङ्गीत	-10.2904
चालन	-10.2905
▁शिक्षक	-10.2906
▁अपना	-10.2912
▁उपलब्ध	-10.2917
▁एताव	-10.2918
▁कोप	-10.2918
चिद	-10.292
धीः	-10.2923
लै	-10.2925
▁रोच	-10.2929
ावपि	-10.293
आई	-10.2934
नुवर्त	-10.2934
▁सुप्त	-10.2936
▁दल	-10.2937
समुद्र	-10.2937
▁भवतां	-10.2938
शान	-10.2942
अभि	-10.2945
युर्	-10.2948
ेयुः	-10.2951
शिक्षण	-10.2954
▁३५	-10.2959
क्ख	-10.2962
कौशल	-10.2962
िश	-10.2963
द्विष	-10.2964
▁लक्षणं	-10.2965
पर्ण	-10.2965
▁जाने	-10.2965
वर्ज	-10.2966
समूह	-10.2967
▁पूजां	-10.2969
▁सर्वभूतेषु	-10.2971
शक्य	-10.2973
▁जगत	-10.2973
▁शाक	-10.2974
▁महत्त्व	-10.2977
▁अधिकं	-10.298
▁इत्येतत्	-10.298
▁शिला	-10.2984
ान्वय	-10.2984
▁27	-10.2986
▁प्राकृत	-10.2987
नन्दन	-10.2988
स्कन्ध	-10.2989
▁मंत्र	-10.2992
▁23	-10.2999
▁एक्स	-10.3002
त्वादि	-10.3003
▁तत्क्षण	-10.3009
कृतम्	-10.3011
▁विधिना	-10.3018
▁तेनैव	-10.3018
बू	-10.3025
ितानि	-10.3025
ap	-10.3026
▁मांस	-10.3027
ोऽयम	-10.3027
लाल	-10.3043
▁तीव्र	-10.3044
▁कर्तुम्	-10.3045
कालिक	-10.3049
मुन	-10.306
विनय	-10.306
विषया	-10.3062
▁स्तः	-10.3065
ाधीन	-10.3065
भाषत	-10.3066
▁गृह्यते	-10.3067
स्तेषां	-10.3068
▁दद	-10.3068
कर्मणा	-10.3068
▁सूत्रे	-10.3069
▁किंचिद	-10.3071
चक्षुष	-10.3072
सम्पर्क	-10.3074
२००	-10.3075
▁अधः	-10.3077
▁निर्व	-10.3077
म्बु	-10.3079
ak	-10.308
सम्मेलन	-10.308
▁कतम	-10.3082
६६	-10.3084
वर्त्तते	-10.3085
रह	-10.3088
▁केनापि	-10.3092
▁महाबल	-10.3094
▁शतं	-10.31
मण्डले	-10.3101
▁शब्दस्य	-10.3106
▁भागः	-10.3107
▁भक्षय	-10.3109
स्फुर	-10.3114
▁स्थापना	-10.3121
ोऽध्यायः	-10.3122
धरा	-10.3122
इन्द्र	-10.3124
रात्रे	-10.3126
जनाः	-10.3129
पीठ	-10.3131
ex	-10.3133
▁रूपम्	-10.3135
▁३६	-10.3139
लक्ष्य	-10.3139
▁मौ	-10.3142
▁पीठ	-10.315
ानुप	-10.3151
रिष्ट	-10.3152
av	-10.3153
द्भुत	-10.3153
33	-10.3154
▁शिक्षण	-10.3155
▁एस्	-10.3158
▁बालिका	-10.3158
-3	-10.316
▁सवित	-10.3166
मार्गेण	-10.3167
▁तोय	-10.3167
▁अर्थात्	-10.3168
▁वाक्	-10.3173
em	-10.3174
▁आहार	-10.3177
ेतत्	-10.3179
संस्था	-10.3183
▁सम्पन्न	-10.3183
६७	-10.3189
▁क्लेश	-10.319
▁मई	-10.319
▁छाया	-10.3194
२६	-10.3194
कर्षण	-10.3196
औ	-10.3198
▁पालय	-10.3199
▁मुहूर्त	-10.32
▁ईदृश	-10.32
▁खर	-10.3202
▁जाये	-10.3205
▁नाट्य	-10.3205
हत्या	-10.3206
ङ्क्ष	-10.3207
न्वय	-10.3209
त्वमेव	-10.3209
▁कालो	-10.3209
युष्म	-10.3212
िष्ट	-10.3219
ायुध	-10.3223
ीयम्	-10.3227
ण्ट	-10.3228
वाद्य	-10.3228
भिक्ष	-10.3229
स्पृष्ट	-10.3231
▁प्रदत्त	-10.3232
९५	-10.3233
▁शुल्क	-10.3236
▁मृदु	-10.3238
९७	-10.3239
वने	-10.3246
शिक्षा	-10.3247
अन्य	-10.3252
▁यान्ति	-10.3263
स्ट्र	-10.3265
शिव	-10.3272
▁नूनं	-10.3276
शास	-10.3282
▁प्रयत्नेन	-10.3283
▁लग्न	-10.3287
▁४५	-10.3288
कीर्ति	-10.3288
▁रिपु	-10.3292
▁सत्र	-10.3292
कर्मणः	-10.3297
▁विद्वान्	-10.3299
त्वस्य	-10.3299
▁पर्याय	-10.3299
▁स्यादिति	-10.33
▁वरं	-10.3301
िष्ये	-10.3303
भवन	-10.3304
३३	-10.3306
जातीय	-10.3308
▁प्राय	-10.3309
प्रतिष्ठ	-10.3312
चक्ष	-10.3312
▁बाल्य	-10.3312
▁कर्तव्या	-10.3318
▁प्रभुः	-10.3319
▁वक्ष्यामि	-10.3321
▁पलाय	-10.3322
पुष्ट	-10.3325
▁उक्तः	-10.333
▁उपदेश	-10.3334
तीत	-10.3337
मासीत्	-10.3338
▁वया	-10.3338
▁यच्छ	-10.3339
र्भवति	-10.3343
ोपाय	-10.3346
कोष	-10.3351
चिन्तन	-10.3355
प्रेषण	-10.3366
5.	-10.3366
मभ्य	-10.3367
▁द्रष्टु	-10.3367
रक्षा	-10.3367
कुटुम्ब	-10.3369
वर्तन	-10.3375
मानो	-10.3384
▁मानवः	-10.3388
वयव	-10.339
06	-10.3391
▁अर्ह	-10.3392
वतः	-10.3394
▁सम्मान	-10.3398
▁वैज्ञानिक	-10.3399
▁उत्कृष्ट	-10.34
रुद्ध	-10.34
मात्म	-10.3404
ध्वंस	-10.3409
तद्धित	-10.341
▁हन्ति	-10.341
येति	-10.3411
▁स्ना	-10.3412
वृत्ते	-10.3421
▁तेऽ	-10.3427
काण्ड	-10.343
▁लोकानां	-10.343
यिष्यामि	-10.3434
▁जनानां	-10.3442
▁आदित्य	-10.3444
महोदय	-10.3446
७९	-10.3454
▁(1)	-10.3454
ितुम	-10.3455
▁स्मृतम्	-10.346
▁भक्त्या	-10.3461
ूर	-10.3461
र्ब	-10.3471
▁अन्ते	-10.3475
▁विदित	-10.3475
▁क्षणं	-10.348
ess	-10.3482
▁जुल	-10.3485
मयः	-10.3485
▁तुभ्यं	-10.3485
निश	-10.3485
▁भ्रमण	-10.3492
मग्न	-10.3494
ide	-10.3496
▁दिनानि	-10.3498
मंत्र	-10.3498
▁नाव	-10.3499
▁राज्ये	-10.3501
ृष	-10.3501
घन	-10.3502
तेजस	-10.3507
स्तू	-10.3508
सूची	-10.3513
▁←	-10.3515
▁आई	-10.3516
▁महती	-10.3523
▁प्रेत	-10.3525
ारोप	-10.3525
▁हरे	-10.3528
कीर्त्त	-10.3531
छि	-10.3531
श्न	-10.3536
मुच्य	-10.3537
▁शोभन	-10.354
▁नीच	-10.354
पूर्ति	-10.3545
ुभय	-10.355
▁समुद्	-10.3551
ीणां	-10.3552
▁क्षेत्रं	-10.3553
शौच	-10.3558
साहित्य	-10.3562
ब्ज	-10.3563
षष्टि	-10.3563
सैन्य	-10.3564
24	-10.3564
▁प्राग्	-10.3565
धत्ते	-10.3568
्रा	-10.3569
▁यथाविधि	-10.3572
▁तपः	-10.3573
नन्त	-10.3573
▁कल्पित	-10.3574
न्यत्र	-10.3577
▁चिकित्सा	-10.3579
▁ज्वर	-10.3582
▁कविता	-10.3584
▁जगति	-10.3587
भावात्	-10.3587
▁ह्रस्व	-10.3594
▁मखु	-10.3595
▁त्रिविध	-10.3599
संसर्ग	-10.36
▁विशेषेण	-10.3601
os	-10.3602
पूज्य	-10.3602
ग्रहणे	-10.3608
▁लॊक	-10.361
▁स्वस्ति	-10.3612
▁क्या	-10.3613
तरे	-10.3615
▁तदु	-10.3616
▁शुभा	-10.3617
▁सर्वभूत	-10.362
38	-10.362
२९	-10.3627
▁त्वय	-10.3629
कुट	-10.3632
ार्थी	-10.3633
▁निरन्तर	-10.3636
प्रबन्ध	-10.3642
सङ्	-10.365
तदा	-10.365
३६	-10.3651
▁2021	-10.3654
▁वर्तन्ते	-10.3658
▁गृहाण	-10.3659
▁जीवितं	-10.3661
▁संकल्प	-10.3662
लिक	-10.3663
▁चान्य	-10.3669
वर्ति	-10.3672
▁देवदत्त	-10.3673
रतः	-10.3674
लिंग	-10.3676
निर	-10.3682
मुद्र	-10.3684
येगु	-10.3689
▁कूप	-10.3699
▁ध्यानं	-10.3701
पितृ	-10.3704
▁तस्यैव	-10.3706
मृत्यु	-10.3706
▁धारणा	-10.3708
ुष्क	-10.3711
परिवार	-10.3712
साम्य	-10.3717
▁प्रयत्नतः	-10.372
विधौ	-10.372
निरूपण	-10.3721
विल	-10.3721
ौषध	-10.3725
टन	-10.3726
भवेत्	-10.3726
भार्य	-10.3726
▁श्रुतिः	-10.3726
▁उष्ण	-10.3728
शिख	-10.3729
ख्	-10.3735
स्तौ	-10.3735
▁पुरुषस्य	-10.3737
▁सीमा	-10.3744
▁प्रकृतिः	-10.3745
▁तासां	-10.3746
निमित्तं	-10.3746
याज	-10.3753
कोप	-10.3753
ॄणां	-10.3754
▁तिल	-10.3762
८४	-10.3766
ष्टौ	-10.3777
लिया	-10.3777
▁अनुप	-10.3778
▁प्रशासन	-10.3778
▁पौर	-10.378
प्रशंस	-10.3784
भग	-10.3787
७८	-10.3788
पदेन	-10.3789
मन्त्रिण	-10.379
लग्न	-10.3793
वस्थ	-10.3794
प्रातिपदिक	-10.3797
▁राघव	-10.3797
शिखर	-10.3803
▁तान	-10.3805
तृतीय	-10.3807
▁पश्यन्ति	-10.381
▁युज्यते	-10.3812
▁प्राप्नु	-10.3815
हेतोः	-10.3818
▁आन्दोलन	-10.3826
ृषि	-10.383
▁by	-10.3831
▁ध्येय	-10.3834
संहार	-10.3834
000	-10.3835
60	-10.3838
निषेध	-10.3846
▁व्याख्यान	-10.3848
भावन	-10.3851
▁यन्म	-10.3856
टल	-10.3859
▁वर्षस्य	-10.3865
▁चोर	-10.3868
श्चित्	-10.3871
त्यपि	-10.3872
▁मृत्	-10.3872
भ्रष्ट	-10.3877
39	-10.388
▁उदा	-10.3883
▁इत्येक	-10.3885
37	-10.3885
▁मनुः	-10.3886
45	-10.3886
▁उपास	-10.3889
९९	-10.3889
यस	-10.389
▁सिद्धान्त	-10.3895
वादन	-10.3906
ह्वय	-10.3908
▁वसति	-10.3909
योषित	-10.3911
श्रित	-10.3912
क्रीडा	-10.3913
ध्वन	-10.3913
▁कठिन	-10.3914
▁प्रिया	-10.3922
▁पथि	-10.3922
▁बृहत्	-10.3925
▁दिल	-10.3928
निष	-10.3929
ावश्यक	-10.393
शैल	-10.3939
▁दृष्टान्त	-10.3944
नेत्र	-10.3944
▁पदार्थः	-10.3946
▁निम्न	-10.3946
रीत्या	-10.3948
६३	-10.3948
▁आचर	-10.3949
संभवः	-10.395
▁अद्यापि	-10.395
▁खल्व	-10.3952
मिष	-10.3954
ोऽत्र	-10.3958
ण्या	-10.3959
भरण	-10.396
▁गान	-10.396
▁भविष्यन्ति	-10.3961
▁सूचित	-10.3962
त्रिक	-10.3964
▁राजनि०	-10.3973
▁क्वचि	-10.3977
▁अतिशय	-10.3978
▁उद्योग	-10.398
पश्यन्	-10.398
व्याप्ति	-10.3984
प्राय	-10.399
गन्तुं	-10.399
▁विदेशी	-10.3996
ात्मज	-10.3997
श्रव	-10.3998
▁लाख	-10.4001
कल्पित	-10.4004
▁वरद	-10.4015
सर्जन	-10.4015
▁विद्यु	-10.4017
▁प्रतिदिन	-10.4019
▁स्वामिन	-10.402
कन्द	-10.402
▁प्रारम्भ	-10.4024
८८	-10.4025
ार्थक	-10.4033
टर	-10.4035
र्भव	-10.4036
दधाति	-10.404
▁अन्यत्	-10.4043
▁परमात्मा	-10.4048
नाग	-10.4057
▁सम्बन्धी	-10.4061
im	-10.4065
▁महान	-10.4066
▁तेषाम्	-10.4066
▁शक्	-10.4067
▁अवसर	-10.4068
▁वृद्धिः	-10.4073
्यसे	-10.4073
वेध	-10.4073
ेच्छा	-10.408
द्रि	-10.4084
▁भोः	-10.4091
विस्तृत	-10.4092
▁पुनर्निर्दिष्ट	-10.4094
▁आत्मन	-10.4098
▁विजान	-10.4098
प्रभृति	-10.4099
▁देवताः	-10.4102
पदानि	-10.4109
▁द्वितीयः	-10.4109
▁कालं	-10.4113
▁हरेः	-10.4116
▁हिरण्य	-10.4119
▁स्वाभाविक	-10.4122
पिता	-10.4123
वक्ता	-10.4124
सहस्त्र	-10.4125
मूर्ध	-10.4128
▁हां	-10.4129
▁पुत्रो	-10.4131
▁श्रिय	-10.4138
भृश	-10.4138
व्रज	-10.414
▁धातुः	-10.4142
शस्त्र	-10.4146
▁मिल	-10.4148
▁युष्माकं	-10.4153
शोध	-10.4153
):	-10.4157
३५	-10.4159
९४	-10.4164
▁लाल	-10.4164
भिष	-10.4171
वादने	-10.4172
▁समाधि	-10.4176
रास	-10.4178
ासुर	-10.4181
कोट	-10.4183
शिष्य	-10.4186
ोचित	-10.4188
िक्	-10.4188
▁अन्त्य	-10.4192
त्यत्र	-10.4196
भिश्च	-10.4196
▁किञ्चिद	-10.4203
धिकृत	-10.4204
▁बह्व	-10.4204
▁द्वितीये	-10.4208
▁रक्षति	-10.4211
▁नारायण	-10.4216
▁भवन्तः	-10.4219
पर्वत	-10.4224
ीभूत	-10.4228
23	-10.423
ऽप	-10.4233
msg	-10.4235
ma	-10.4239
द्वैत	-10.424
र्श	-10.4242
हता	-10.4244
९८	-10.4245
▁बहिर्	-10.4246
धेनु	-10.4247
विमुक्त	-10.4248
िनाम्	-10.425
41	-10.4252
▁सुखम्	-10.4252
जनन	-10.4258
श्रेणी	-10.4258
▁यया	-10.4259
▁दत्तं	-10.4259
॒र	-10.426
▁एकस्मिन्	-10.4265
▁गङ्गा	-10.4266
▁तावद्	-10.4278
पेक्षया	-10.4283
▁समुद	-10.4298
८१	-10.4298
स्थिर	-10.4298
▁किंच	-10.4301
रुच	-10.4302
सङ्ग्रह	-10.4307
एम	-10.4314
▁साधय	-10.4315
36	-10.4316
कवि	-10.4325
बृह	-10.4326
▁नेपाः	-10.4336
दूत	-10.434
▁लौकिक	-10.4343
▁प्राप्तुं	-10.4349
▁नियुक्त	-10.4352
भोक्त	-10.4353
राह	-10.4354
द्ग	-10.4354
ॄ	-10.4356
९३	-10.4357
▁नरकं	-10.4362
▁स्वामी	-10.4363
वासी	-10.4365
▁भूतानि	-10.4365
▁Archives	-10.4366
▁करिष्ये	-10.4368
तयः	-10.4368
▁अतिथि	-10.4379
▁शीतल	-10.4381
ध्द	-10.4386
▁अमृत	-10.4388
▁त्रयः	-10.439
▁काक	-10.4393
मयी	-10.4395
प्रयोजक	-10.4398
गात्र	-10.4398
ाम्यहम्	-10.4399
स्थिता	-10.44
▁शनैः	-10.4401
भ्	-10.4401
▁तात्पर्य	-10.4407
▁जनसंख्या	-10.441
ब्द	-10.4413
80	-10.4413
श्चेति	-10.4414
▁अतिरिक्त	-10.4416
लङ्घ	-10.4416
विद्युत	-10.4417
▁संस्थिता	-10.4421
विहित	-10.4424
९६	-10.4433
वर्षाणि	-10.4435
▁सोऽपि	-10.4437
केवल	-10.4437
▁प्रतिकूल	-10.4438
न्यस्य	-10.4445
▁जाग	-10.4447
सङ्ख्या	-10.4447
ाभ्यास	-10.4453
ove	-10.4456
▁उपयोगः	-10.4458
▁सन्ध्या	-10.4458
▁पूँजी	-10.4458
परामर्श	-10.4459
▁शुक्ल	-10.4461
▁2017	-10.4461
▁तावद	-10.4471
योजक	-10.4477
▁राष्ट्रे	-10.4478
▁उभौ	-10.4482
क्रोध	-10.4485
०२०	-10.449
▁प्रयास	-10.4491
▁पर्याप्त	-10.4491
मादाय	-10.4492
▁तदनन्तर	-10.4499
पाट	-10.45
पादन	-10.4504
▁चित्तं	-10.4511
▁सर्वेषाम	-10.452
▁ङीष्	-10.4521
▁अर्जुन	-10.4521
▁अप्वः	-10.4522
▁कपि	-10.4527
▁भूयः	-10.4533
रुह	-10.4533
48	-10.4535
मन्दिर	-10.4536
प्राप्य	-10.4536
▁पञ्चदश	-10.4538
भाजन	-10.4538
मन्त्रेण	-10.4543
▁पूरय	-10.4543
▁अवयव	-10.4543
ड़ा	-10.4545
▁सम्यग्	-10.4548
अन्त	-10.4549
ापेक्ष	-10.4552
▁कोरोना	-10.4552
▁चर्चा	-10.4553
वल्	-10.4555
ध्यान	-10.4558
▁विवक्षित	-10.4558
र्प	-10.4561
▁द्विधा	-10.4561
र्स	-10.4562
८७	-10.4563
क्रतु	-10.4565
व्ह	-10.4567
ूल	-10.4568
शव	-10.4569
सम्पत्ति	-10.457
▁तट	-10.457
34	-10.457
केत	-10.4573
रिक	-10.4575
▁अनुमान	-10.4585
तॆ	-10.4588
▁ऊर्जा	-10.4589
पद्यत	-10.4589
▁श्रोतु	-10.4603
वन्ति	-10.4603
▁साक्षात्कार	-10.4603
▁न्यू	-10.4605
हानि	-10.4609
ीयन्ते	-10.4614
▁स्वल्प	-10.4616
यद्	-10.4622
यिष्यति	-10.4623
▁पठन	-10.4626
▁परमार्थ	-10.4633
44	-10.4634
ऋत	-10.4641
▁शरीरे	-10.4642
त्विति	-10.4643
▁प्रशिक्षु	-10.4647
सम्भवः	-10.4649
ात्मने	-10.465
कारणात्	-10.4652
▁प्रयोजनं	-10.4654
▁इदानीम्	-10.4654
व्यथ	-10.4654
लकार	-10.4655
ोत्पाद	-10.4656
▁जरा	-10.4657
ानुसार	-10.4658
ाश्व	-10.466
व्यतिरिक्त	-10.4661
▁न्ह्य	-10.4664
▁मतम्	-10.4665
▁नेता	-10.4665
र्ट	-10.4666
च्वंगु	-10.4672
▁सुहृद	-10.4677
▁श्रोत्र	-10.468
▁भूप	-10.4683
ातीत	-10.4689
47	-10.4691
पृथिव्य	-10.4696
पोष	-10.4701
▁कप	-10.4702
लेखा	-10.4706
▁चेन्न	-10.4709
समन्वितः	-10.4711
▁जगतः	-10.4712
बहू	-10.4715
पीए	-10.4716
me	-10.472
श्छ	-10.472
▁पूर्ववत्	-10.4723
▁दुगु	-10.4726
ान्तरेण	-10.4733
▁स्वार्थे	-10.4737
▁सम्बन्धः	-10.4737
▁ददौ	-10.4747
सेव	-10.4748
त्युप	-10.4752
नृप	-10.4755
मुदित	-10.4765
जार	-10.4766
ग्रस्त	-10.4767
धय	-10.4768
nd	-10.477
▁अन्ध	-10.4779
▁तत्प्र	-10.4787
नुप	-10.479
९२	-10.4791
▁कथयामि	-10.4792
▁आयुः	-10.4799
▁निष्कर्ष	-10.4807
▁दिल्ली	-10.4807
▁स्थूल	-10.4807
स्पृह	-10.4807
ब्ब	-10.4811
▁पार्श्वे	-10.4811
त्रिंश	-10.4815
ेष्वपि	-10.4819
ामीति	-10.482
▁उष	-10.482
▁पुल	-10.4821
▁पावन	-10.4822
▁शाखा	-10.4824
सद्	-10.4827
▁आत्मानं	-10.4827
थापि	-10.4828
▁तपसा	-10.4831
नीयम्	-10.4837
▁भवन्तु	-10.4838
▁सुलभ	-10.484
द्योग	-10.4844
पठ	-10.485
▁विषम	-10.4854
ेष्य	-10.4862
ोऽन्य	-10.4863
राजस्य	-10.4868
▁१००	-10.4869
▁जानन्ति	-10.4869
तर्हि	-10.4869
लक्ष्मी	-10.4872
भाषायां	-10.4873
भया	-10.4876
▁सुखदुःख	-10.4881
समाहित	-10.4883
निवृत्त	-10.4883
ावधि	-10.4888
चीन	-10.4889
▁जून	-10.489
र्षि	-10.49
▁एवेति	-10.4904
▁आपः	-10.4907
ुच्यते	-10.4909
स्वप्न	-10.4912
भविष्यति	-10.4915
सङ्ख्य	-10.4918
▁मदीय	-10.4924
▁केशव	-10.4925
▁उपस्थित	-10.493
मिश्र	-10.4931
मासाद्य	-10.494
▁वैदिक	-10.494
स्रोत	-10.494
▁शक्या	-10.495
लता	-10.4955
िकायां	-10.4955
दर्शनात्	-10.4956
▁मौन	-10.4956
▁एकवचन	-10.4957
ैस्तु	-10.4957
▁अभय	-10.4958
▁राजान	-10.4962
▁एतदेव	-10.4966
माता	-10.4972
▁सुकृत	-10.4973
प्रयत्न	-10.4973
▁नमस्	-10.4975
पत्नी	-10.4979
▁न्यूनतम	-10.4986
वकाश	-10.4986
▁यक्ष	-10.4988
▁उद्यम	-10.4991
▁प्राणि	-10.4991
सन्धि	-10.4992
राज्ये	-10.4994
मर्हति	-10.4998
४५	-10.4999
ऽप्य	-10.5007
प्रतियोगि	-10.5007
▁भारतदेश	-10.5008
▁उपचार	-10.5018
▁ददर्श	-10.5025
▁रोम	-10.5025
▁जनपद	-10.5031
▁रसायन	-10.5037
▁उदाहरणम्	-10.5039
वचनात्	-10.5043
झा	-10.5044
ub	-10.5046
▁परियोजना	-10.5049
▁अष्टम	-10.5049
ant	-10.505
▁स्पेन	-10.5051
▁महत	-10.5056
ानन	-10.5057
ेऽप्य	-10.5063
▁तत्व	-10.5067
▁यीशु	-10.5068
ाध्यक्ष	-10.5069
tr	-10.5071
शतक	-10.5071
▁कस्यचित्	-10.5076
▁तत्सर्वं	-10.5078
▁इत्युक्त्वा	-10.5079
च्छति	-10.508
1.1	-10.508
▁न्ह्यः	-10.5082
▁निगम	-10.5084
▁पुरु	-10.5085
▁अगस्त	-10.5087
▁श्वः	-10.5088
पुत्त्र	-10.5089
मुनि	-10.509
▁यायेगु	-10.509
▁सज्ज	-10.5093
भीष्ट	-10.5097
▁यत्तु	-10.5097
▁कृत्स्न	-10.5102
लुक्	-10.5103
▁प्रजायते	-10.5104
८५	-10.5111
▁पृथिव्यां	-10.5112
लभ्यते	-10.5117
निवारण	-10.512
55	-10.5133
म्̣	-10.5135
ia	-10.5136
▁निवेदय	-10.5136
▁अभिव्यक्ति	-10.5138
लेप	-10.5143
करोत्	-10.5144
क्षमता	-10.5148
टिका	-10.5148
तीर	-10.5148
स्थि	-10.5153
मानेन	-10.5153
दह	-10.5158
गुलि	-10.5158
▁भवितव्यम्	-10.5159
तीत्यर्थः	-10.5161
▁करणीयम्	-10.5164
▁चिरं	-10.5166
ैर्न	-10.5168
बान्धव	-10.5169
ृणु	-10.5173
▁उत्पन्न	-10.5173
▁द्रष्टव्य	-10.5178
ly	-10.5183
मानुष	-10.5186
▁आयु	-10.5187
ांग	-10.5188
49	-10.5192
निष्ट	-10.5195
▁सद्यः	-10.5196
क्ट	-10.5197
क्षये	-10.5199
▁क्रमात्	-10.5199
·	-10.5201
▁विरासत	-10.5201
ानेन	-10.5206
ागार	-10.5211
श्रवण	-10.5212
▁बहुल	-10.5213
▁यस्मा	-10.5215
रात्रि	-10.5221
▁निर्णयः	-10.5234
मनुष्य	-10.5235
▁बहूनां	-10.5235
▁प्रतियोगिता	-10.5241
विवर्जित	-10.5242
स्थितौ	-10.5243
▁सुखी	-10.5244
विरह	-10.5247
ैतत्	-10.5249
▁अवकाश	-10.5253
▁वाच्यम्	-10.5257
बिल	-10.5257
▁तदन्त	-10.5263
दारु	-10.5265
▁कारणेन	-10.5266
▁द्रोण	-10.5268
▁प्रणाली	-10.527
भूते	-10.5271
वस्त्र	-10.5271
▁पित्र	-10.5274
जनैः	-10.5281
कूल	-10.5284
um	-10.5284
▁परमाणु	-10.5284
िन्या	-10.5287
ल्लोक	-10.5288
▁सर्वपाप	-10.5291
वरण	-10.5292
कुर	-10.5296
▁जनक	-10.53
ाध्य	-10.5308
▁आक्रमण	-10.5312
▁संवेदना	-10.5314
सोम	-10.5318
हल	-10.5321
प्रपञ्च	-10.5327
▁वदामि	-10.5328
ोभय	-10.5329
परिमित	-10.5331
▁विलम्ब	-10.5333
ne	-10.5336
देशेषु	-10.5337
▁चैत	-10.534
दृश्यते	-10.5342
▁क्रियमाण	-10.5342
ावयव	-10.5346
युक्तो	-10.5349
▁अस्यां	-10.5351
मन्न	-10.5356
▁तथ्य	-10.5356
▁नन्व	-10.5364
पण्य	-10.5369
▁जाय	-10.5369
▁बौद्ध	-10.537
▁अस्माकम्	-10.5373
▁कुरुत	-10.5373
▁St	-10.5376
▁उद्यान	-10.538
पर्व	-10.538
अधि	-10.538
▁मल्ल	-10.538
स्ततो	-10.5382
सृज्य	-10.5382
क्रु	-10.5382
समुच्चय	-10.5383
सरण	-10.5384
यितुम्	-10.5384
ोक्ता	-10.5387
यत्र	-10.5388
&	-10.5388
पेय	-10.5393
वासरे	-10.5393
साम्राज्य	-10.5401
भीत	-10.5407
▁तत्सम	-10.5409
नोति	-10.5424
दासी	-10.5427
पूरण	-10.5428
मती	-10.5429
पश्चिम	-10.543
▁गुहा	-10.5435
सवर्ण	-10.5436
▁यावद्	-10.5438
▁यस्याः	-10.5439
▁मन्त्रि	-10.5441
योजना	-10.5444
सहाय	-10.5448
भक्ष्य	-10.545
महेश्वर	-10.5457
-4	-10.5458
▁शर्म	-10.546
ह्म	-10.5461
▁भवितव्य	-10.5462
▁संस्करणे	-10.5468
]]	-10.5473
▁अध्यापक	-10.548
▁मुदा	-10.5482
▁वाग्	-10.5485
▁तत्काल	-10.5485
ूँ	-10.5487
▁त्वद	-10.5488
▁गौर	-10.549
वदत्	-10.5492
समेत	-10.5496
ङ्गुल	-10.5502
यतीति	-10.5507
चक्षते	-10.5508
▁सती	-10.5512
कपाल	-10.5513
जीवित	-10.5515
तय्सं	-10.5519
कार्येषु	-10.5519
@2	-10.5519
साव	-10.5527
▁अयम	-10.5528
गव	-10.553
ऽह	-10.5535
चलन	-10.554
▁योगदान	-10.554
मुक्त्वा	-10.5541
▁सार्व	-10.5544
चक्षु	-10.5548
किरण	-10.5548
द्यते	-10.5553
बहि	-10.5556
कुरु	-10.5556
िणो	-10.5558
▁आद्य	-10.5559
▁गताः	-10.5561
▁दोषो	-10.5568
देय	-10.557
विकास	-10.5571
ात्पर	-10.5572
भिप्रेत	-10.5574
दिनाङ्क	-10.5575
<	-10.5576
पीसी	-10.5576
पाकिस्तान	-10.5576
▁छगू	-10.5582
▁परिपूर्ण	-10.5582
आत्म	-10.5588
▁सिध्य	-10.5597
कल्पन	-10.5602
age	-10.5603
▁मतदान	-10.5606
ायुष	-10.5607
त्तु	-10.5609
दर्शने	-10.5613
राष्ट्रिय	-10.5618
▁संसारे	-10.5619
▁दुर्बल	-10.5627
यितु	-10.5627
▁पवन	-10.5629
वाप्य	-10.5634
ig	-10.5637
▁समाचरेत्	-10.5638
ce	-10.5645
▁पितॄणां	-10.5646
46	-10.5646
दिक्षु	-10.5648
▁शक्नु	-10.565
प्रीत	-10.5651
▁शङ्ख	-10.5651
मेर	-10.5653
॒र्	-10.5653
शाली	-10.5654
भोज	-10.5656
▁आत्मनः	-10.566
▁देवान्	-10.5664
ाञ्जलि	-10.5665
▁महत्व	-10.5666
यर	-10.5666
▁अज्ञान	-10.5666
क्षिप्य	-10.5674
गुरो	-10.5677
ोऽनु	-10.5682
ित्यर्थः	-10.5684
▁सर्वकाम	-10.5686
पर्यन्त	-10.5692
र्षे	-10.5692
ect	-10.5703
बाद	-10.5703
क्लि	-10.5704
तॄ	-10.5704
है	-10.5706
ेशे	-10.5706
▁उक्तवान्	-10.5707
वर्च	-10.5708
कालीन	-10.5712
समक्ष	-10.5716
▁शुभम्	-10.5717
▁सर्वदेव	-10.5721
स्कर	-10.5722
परिच्छेद	-10.5724
पास	-10.5726
चत्वार	-10.5727
▁जातम्	-10.5729
▁प्रजानां	-10.573
▁महीयते	-10.5733
वरा	-10.5735
▁प्रिये	-10.5736
▁दस	-10.5736
क्थ	-10.5744
▁रचित	-10.5746
िष्यसि	-10.5747
▁राजानं	-10.5748
▁ब्व	-10.5752
श्रद्ध	-10.5752
▁पृथ्वी	-10.5752
यिता	-10.5753
ज्जन	-10.5755
त्युच्यते	-10.5756
op	-10.5763
वोच	-10.5769
▁सर्वनाम	-10.5771
27	-10.5772
ात्मनो	-10.5773
▁तदैव	-10.5776
▁किञ्च	-10.5778
चिन्त	-10.5779
▁मारुत	-10.5783
गिर	-10.5784
ुवाच	-10.5786
ऎ	-10.5787
भेषज	-10.5788
संज्ञक	-10.5795
▁पुमान्	-10.5799
वर्णन	-10.5803
पार्श्व	-10.5805
▁सर्वभूतानां	-10.5806
▁सर्गः	-10.5807
og	-10.5808
ष्क	-10.5808
ार्क	-10.5809
क्लेश	-10.581
▁भूतानां	-10.5812
▁अव्यक्त	-10.5813
व्यक्ति	-10.5813
ाऽपि	-10.5815
▁याग	-10.5815
▁सिद्धम्	-10.5819
▁पश्चाद्	-10.5822
वैभव	-10.5823
▁विद्यालये	-10.5823
मानस्य	-10.5823
▁आश्चर्य	-10.5824
भाषया	-10.5824
▁केरल	-10.5826
क्त्वा	-10.5828
▁परार्थ	-10.583
▁पार्	-10.5833
▁दद्या	-10.5833
▁100	-10.5834
▁मन्यन्ते	-10.5835
नुष्ठान	-10.5836
साहाय्य	-10.5838
▁उपकरण	-10.5838
भिहित	-10.5842
स्मिन्न	-10.5846
▁बहवो	-10.5849
▁सूर्य्य	-10.5851
वर्तत	-10.5852
सूर	-10.5853
▁प्रतिमा	-10.5853
ā	-10.5858
▁राजधानी	-10.5859
▁कृषक	-10.586
▁साम्प्रत	-10.5863
▁ह्रीं	-10.5866
चतुष्टय	-10.5867
ड्र	-10.5868
▁इती	-10.5868
▁इमां	-10.5874
मित्याह	-10.5881
ज्वाल	-10.5882
तायां	-10.5885
्रियते	-10.5887
▁वयम	-10.589
ोपयोग	-10.589
▁कापि	-10.5893
धिष्ठान	-10.5893
सञ्ज्ञा	-10.5893
▁युधिष्ठिर	-10.5894
he	-10.5897
भिमत	-10.5899
▁तच्छ	-10.59
८२	-10.5901
▁प्रतिपादित	-10.5901
▁व्योम	-10.5901
▁अत्यधिक	-10.5901
्येते	-10.5901
स्थले	-10.5904
▁आरभ्य	-10.5906
प्रतिबन्ध	-10.5908
▁विश्वस्य	-10.5913
शास्त्रे	-10.5914
ानुग	-10.592
▁सख्य	-10.5931
▁द्वयोः	-10.5933
विचक्षण	-10.5935
ध्न	-10.5942
कर्मक	-10.5942
▁विभाव	-10.5945
ाम्यहं	-10.5946
पूर्वक	-10.5954
परिवर्तन	-10.5956
र्भ	-10.5958
▁महाराज	-10.596
▁त्वरित	-10.5965
▁मासि	-10.5967
▁हिन्दी	-10.5967
थवा	-10.5969
ाध्ययन	-10.597
▁इयम्	-10.5973
▁for	-10.5974
▁भिक्षु	-10.5974
ानुकूल	-10.5975
ोऽर्थ	-10.5977
यसि	-10.5981
42	-10.5983
▁पराजय	-10.5984
▁बालकाः	-10.5985
कृष्य	-10.5987
▁कस्मात्	-10.5989
हृ	-10.5991
▁पूर्वमेव	-10.5991
फी	-10.5993
पद्म	-10.5994
जिज्ञास	-10.5996
ाभावे	-10.5997
▁प्रतिपद्यते	-10.6001
▁Post	-10.6003
सन्तुष्ट	-10.6004
▁वय्कः	-10.6004
▁भविता	-10.6006
माश्रित्य	-10.6008
र्पित	-10.601
▁>>	-10.6012
▁अरे	-10.6013
पोषण	-10.6018
प्रयोगे	-10.6018
ऽसौ	-10.6023
चिंत	-10.6025
▁कद	-10.6039
▁गतवान्	-10.604
वश्यं	-10.6041
विश्वविद्यालय	-10.6041
समुदाय	-10.6041
वर्षशत	-10.6041
▁जवा	-10.6044
चेत	-10.6046
क्रे	-10.6049
▁एनं	-10.6059
मनीष	-10.6063
ागमन	-10.6065
स्ट्	-10.6069
▁कौन्तेय	-10.6076
▁विस्तरेण	-10.6077
▁सम्प	-10.6083
▁गणना	-10.6085
ण्ड्	-10.6086
ञ्छ	-10.6088
चिन्तित	-10.609
द्भव	-10.6093
ff	-10.6096
▁परितः	-10.61
▁वय्क	-10.6102
सकाश	-10.6103
ोऽसौ	-10.6105
वेद्य	-10.611
▁ब्रूहि	-10.6113
▁स्वीय	-10.6113
▁देवेश	-10.6118
कीर्ण	-10.6123
▁कस्या	-10.6129
होम	-10.6134
▁समाहितः	-10.6134
वेत्	-10.6136
▁अरण्य	-10.6136
▁क्षति	-10.6138
ललित	-10.6144
▁शक्नुवन्ति	-10.6149
▁स्त्रियः	-10.6154
id	-10.6171
ामृत	-10.6177
ers	-10.6184
श्राव	-10.6185
51	-10.6191
▁भगवतः	-10.6192
सवन	-10.6193
▁रचय	-10.6193
▁चात्र	-10.6197
▁माधव	-10.62
▁घण्टा	-10.62
्यमाना	-10.6203
व्यपदेश	-10.6215
पूर्वकं	-10.6216
▁सौर	-10.622
▁हिन्दु	-10.6224
▁(2)	-10.6224
▁कतिपय	-10.6226
▁आचार	-10.6228
सङ्केत	-10.6235
▁एकान्त	-10.6235
आईपी	-10.6238
स्थानानि	-10.6239
▁एतच्च	-10.624
▁उपयोगी	-10.6245
▁कष	-10.6246
ान्तिक	-10.6246
▁प्रयुज्यते	-10.6247
अत्र	-10.6248
▁मनुज	-10.625
श्लोक	-10.6251
तृप्त	-10.6253
विदुष	-10.6255
ोक्तम्	-10.6255
▁असम	-10.6265
▁रघु	-10.6266
पीति	-10.6272
▁पश्चिमे	-10.6272
ूयते	-10.6274
▁तदिद	-10.6276
▁पाहि	-10.6278
▁स्वभावतः	-10.6278
ज्वर	-10.628
दायक	-10.628
बार	-10.6282
▁कस्यापि	-10.6285
ाप्नोति	-10.6286
पराक्रम	-10.6289
▁पाव	-10.6292
पूर्ब्ब	-10.6297
दर्शनम्	-10.6298
▁शक्नुमः	-10.6299
▁भव्य	-10.6302
मध्यम	-10.6303
स्नेह	-10.6303
▁वृथा	-10.6304
▁be	-10.6309
ान्वितः	-10.6312
▁गर्व	-10.6313
▁सन्तु	-10.6316
भाष्यम्	-10.6328
la	-10.6331
▁वसिष्ठ	-10.6338
च्छब्द	-10.635
भारतीय	-10.6353
ग्राह्य	-10.6356
▁आगत्य	-10.6357
ीयाः	-10.6359
▁गच्छामि	-10.6363
▁भवतो	-10.6363
▁मुञ्च	-10.6371
संसार	-10.6374
दुष्ट	-10.6378
ाविति	-10.6382
कर्तृत्व	-10.6386
योरपि	-10.6386
लिन	-10.639
▁सर्वतो	-10.6397
▁कुर्वन्तु	-10.6397
शृ	-10.6398
ऐ	-10.6398
▁दुःखित	-10.6404
▁[[	-10.6409
▁पदोन्नति	-10.641
र्व्व	-10.6412
▁सञ्चिका	-10.6414
धीन	-10.6423
डिया	-10.6424
▁जातो	-10.6425
▁विकि	-10.6427
▁भवान	-10.6434
माध्यमेन	-10.6437
▁उपसर्ग	-10.6441
▁रोद	-10.6441
सूचना	-10.6446
▁रूपांतरण	-10.6448
वस्तूनि	-10.6448
ोऽभवत्	-10.6453
जज्ञ	-10.6455
▁सावधान	-10.6457
पद्यन्ते	-10.6464
करुण	-10.6467
कान्त	-10.6481
▁यन्न	-10.6483
मेतद्	-10.6485
एष	-10.6485
िष्यामः	-10.6485
▁आरोग्य	-10.6487
▁जाना	-10.6491
▁न्ह्या	-10.6495
▁प्रतीक्षा	-10.6497
▁सहज	-10.6498
अस्ति	-10.6506
▁विद्धि	-10.6509
▁मनू	-10.6511
प्रवृत्त	-10.6512
▁पुत्री	-10.6516
᳚	-10.6524
ोदाहरण	-10.6525
▁श्रृणु	-10.6525
ाख्यान	-10.6526
प्रामाण्य	-10.6526
ाचल	-10.6527
▁ऊर्ज	-10.6529
▁पृथग्	-10.6531
वर्तमान	-10.6532
मीश्वर	-10.6534
भक्षण	-10.6544
विषयक	-10.6546
न्यस्त	-10.6547
▁एतस्मिन्	-10.6549
ुदाहृत	-10.6553
ुत्पन्न	-10.6556
▁अच्	-10.6558
▁शक्यम्	-10.656
▁देवानाम	-10.6563
▁यथाक्रमम्	-10.6564
दिश्यते	-10.6566
लज्ज	-10.6567
▁किमु	-10.6569
ोऽथ	-10.657
ाची	-10.6571
▁व्याप	-10.6577
ादाव	-10.6577
▁कलह	-10.6582
▁विविधा	-10.6584
मानव	-10.6585
▁निकट	-10.6585
वदन	-10.6587
▁कलि	-10.6594
महो	-10.6595
▁सदस	-10.6598
श्चिद	-10.6598
up	-10.6603
लिपि	-10.6604
ov	-10.6607
ोन्नत	-10.6609
बध्यते	-10.6612
सीति	-10.6612
▁प्राणिनां	-10.6614
ोऽहम	-10.6617
बृ	-10.6626
▁हास्य	-10.6628
जनानां	-10.663
स्वीकार	-10.6632
▁उत्साह	-10.664
टिक	-10.6644
▁यावद	-10.6647
▁परिसन्धि	-10.6649
कुशल	-10.6654
जू	-10.6656
ितव्यम्	-10.6661
our	-10.6661
त्वादिति	-10.6664
▁सुविधा	-10.6672
ऽर्थ	-10.6676
▁तरुण	-10.6677
▁भीम	-10.6678
▁सुप्रभात	-10.6678
▁कुर्मः	-10.6679
िनौ	-10.6682
व्यभिचार	-10.6682
गीता	-10.6687
हूत	-10.6696
प्रकरणे	-10.6698
ादीन्	-10.6701
व्याप्य	-10.6703
विद्	-10.6705
▁प्रतिनिधि	-10.6707
▁आरोप	-10.6708
▁विदध	-10.6709
▁निशि	-10.6712
▁US	-10.6718
प्रजा	-10.6718
▁युध्य	-10.6718
िध	-10.6718
ीदृश	-10.6719
पट्ट	-10.6721
▁धइगु	-10.6722
शीत	-10.6725
▁जायन्ते	-10.6726
कॉ	-10.6727
दृत	-10.6731
....	-10.6732
▁जननी	-10.674
द्रुम	-10.6742
▁विभो	-10.6743
▁मनुष्याणां	-10.6746
ाकाङ्क्ष	-10.676
▁क्षिप्र	-10.6763
वल्लभ	-10.6766
▁पीडा	-10.6768
पुंस	-10.6768
ापेक्षया	-10.6769
वत्सर	-10.6769
▁इष्यते	-10.6771
जनि	-10.6772
लक्षित	-10.6774
संस्थान	-10.6775
▁एतन्	-10.6777
▁झी	-10.6778
▁पादौ	-10.678
▁एतौ	-10.6781
ध्यात्म	-10.6782
▁पयो	-10.6782
▁प्राप्स्य	-10.6786
▁आश्रय	-10.679
▁इष	-10.6797
विमर्श	-10.6798
विख्यात	-10.6799
वासिनः	-10.68
▁वाचा	-10.6803
लङ्	-10.6807
▁इत्युप	-10.681
चेतस	-10.6813
▁लज्जा	-10.6814
▁भवेद	-10.6818
▁अनन्तर	-10.6822
भाषिक	-10.6822
▁स्वधा	-10.6833
ag	-10.6833
स्माक	-10.6833
▁महात्मा	-10.6836
विष्णो	-10.6839
ान्तर्गत	-10.6843
यूरोप	-10.6844
स्थापय	-10.6847
प्रतिबिम्ब	-10.6854
दानेन	-10.6854
भिधान	-10.6855
▁त्वद्	-10.6856
समाज	-10.6857
ययुः	-10.6862
वधारण	-10.6866
जागर	-10.6873
no	-10.6874
प्रकृत	-10.6886
ानामपि	-10.6887
▁पशव	-10.6894
if	-10.6895
नपुंसक	-10.6896
▁चेद्	-10.6897
▁अष्टादश	-10.6898
▁कदाचि	-10.6907
ेरन्	-10.6909
िकायाः	-10.6909
▁हत्वा	-10.6911
अमेरिक	-10.6912
▁News	-10.6914
▁सम्यग	-10.6916
गूढ	-10.6918
वदन्	-10.6919
▁पठन्ति	-10.6923
पदवी	-10.6929
हृत्य	-10.6932
प्रदाय	-10.6934
प्रयुक्त	-10.695
▁संपूर्ण	-10.6951
ud	-10.6954
↑	-10.6954
कश्मीर	-10.6954
▁वैश्वदेव	-10.6954
▁प्रायश्चित्त	-10.6954
हारी	-10.6958
रेल	-10.6961
ष्टव्य	-10.6961
पौरुष	-10.6962
▁अर्हति	-10.6964
▁प्रासाद	-10.6964
▁उपयुक्त	-10.6968
▁आदौ	-10.6971
▁व्यवस्थापन	-10.6978
जर्मन	-10.6979
▁शत्र	-10.6983
ee	-10.6984
▁प्रगति	-10.6987
वेक्ष	-10.6989
तिष्ठति	-10.6994
श्रृ	-10.6995
▁पन्था	-10.6995
नासिक	-10.6995
pl	-10.7001
पटल	-10.7002
▁पुरुषोत्तम	-10.7004
ाभिमुख	-10.7004
▁आगच्छति	-10.7011
▁केचिद	-10.7012
शित	-10.7015
▁समाप्तम्	-10.7015
हते	-10.7016
हरि	-10.702
▁शिरः	-10.702
▁द्रष्टव्यम्	-10.7021
स्मृति	-10.7031
▁विशेष्य	-10.7032
▁वातावरण	-10.7035
▁थौं	-10.7035
ाव्	-10.7036
विभागे	-10.7038
पीएससी	-10.7039
ैतद	-10.7039
व्रीह	-10.704
▁जीर्ण	-10.7041
▁भा०	-10.7042
▁ध्यात्वा	-10.7043
व॑	-10.7045
▁बहुविध	-10.7046
मेतद	-10.7047
ात्मानम	-10.7049
▁पक्षिण	-10.7056
ॊप	-10.7057
br	-10.7059
▁माघ	-10.7059
मुद्रा	-10.7064
कर्मसु	-10.707
कारान्त	-10.7074
छु	-10.708
र्घ्य	-10.7081
▁तदुप	-10.7081
माप्नोति	-10.7088
▁विगत	-10.7088
▁तत्त्वतः	-10.7089
सम्पन्न	-10.7089
▁गृहस्थ	-10.7092
न्त्या	-10.7093
मातृ	-10.7096
वृष	-10.7096
नुकूल	-10.7098
परिग्रह	-10.7099
न्ट	-10.7099
चारिण	-10.7101
बिम्ब	-10.7103
▁दिशा	-10.7114
▁कार्यान्वयन	-10.7115
विष्णु	-10.7119
▁सूत्रेण	-10.7119
▁कफ	-10.712
▁दूरभाष	-10.7125
▁त्रिगुण	-10.7129
ज्ञप्त	-10.7139
प्रतिपादन	-10.714
▁तद्वत्	-10.7145
▁भर्ती	-10.7147
ry	-10.715
रुच्यते	-10.7151
त्येक	-10.7151
▁विचार्य	-10.7152
ैर्वि	-10.7155
▁औसत	-10.7156
▁प्रोक्तो	-10.7167
स्तान	-10.7167
▁एवमुक्त	-10.7168
ञ्जय	-10.717
विद्ध	-10.7173
▁एकमेव	-10.7173
यन्ती	-10.7174
▁संयम	-10.7182
▁अज्ञात	-10.7183
रम्भ	-10.7185
▁निवर्तते	-10.7186
99	-10.7187
▁त०	-10.7191
ध्यक्ष	-10.7191
ह्ल	-10.7191
▁क्रूर	-10.7198
▁इत्युक्तम्	-10.7199
▁जुयाः	-10.7199
▁तेजो	-10.7201
▁कर्तुम	-10.7204
▁पुनश्च	-10.7206
रुष	-10.7207
43	-10.7209
ब्रह्मण	-10.7211
▁त्वर	-10.7218
▁उभे	-10.7225
सहितं	-10.7226
▁परित्यज्य	-10.723
ज्ज्ञान	-10.7232
▁महाभाग	-10.7233
बुद्ध्या	-10.7235
▁2016	-10.724
वैशिष्ट्य	-10.724
sp	-10.7246
सीत्	-10.7246
संवेदन	-10.7247
▁किमर्थम्	-10.7252
ग्रीव	-10.7257
चरेत्	-10.7258
▁निन्द	-10.7261
ासीन	-10.7262
कृष्ण	-10.7264
ind	-10.7266
त्वमपि	-10.7266
▁जातु	-10.7268
▁उभ	-10.727
गणन	-10.7273
▁दारिद्र्य	-10.7278
lo	-10.728
▁म्रियते	-10.7284
सखी	-10.7286
▁साक्षि	-10.7287
▁फलानि	-10.7289
स्पष्ट	-10.729
▁सेतु	-10.729
▁क्षेत्रज्ञ	-10.7291
स्फोट	-10.7305
रूपिण	-10.7306
ाभिधान	-10.7308
art	-10.7309
▁सखा	-10.731
भीष	-10.7311
▁विशेषणम्	-10.7312
▁निर्गत	-10.7319
▁औपचारिक	-10.732
स्तथैव	-10.7323
ागत्य	-10.7327
स्थापित	-10.7329
धार्य	-10.7331
▁प्रणम्य	-10.7332
युज्यते	-10.7335
स्नान	-10.7336
धीयते	-10.7345
▁उगु	-10.7352
▁पश्यत	-10.7352
पाणि	-10.7355
न्यायेन	-10.7356
▁अनित्य	-10.7358
▁पित्रा	-10.736
▁तदभाव	-10.7361
ात्मन	-10.7362
विद्यालय	-10.7363
लीन	-10.7363
प्रवृत्ति	-10.7366
▁यत्नतः	-10.7369
▁बहिर	-10.737
चूर्ण	-10.7375
पर्	-10.7375
sh	-10.7378
59	-10.7378
तर्पण	-10.7378
▁इत्येष	-10.7381
▁अवधि	-10.7382
ावेव	-10.7383
▁यस्त	-10.7385
तीरे	-10.7386
▁दिक्	-10.7387
▁सप्तमी	-10.7387
धृति	-10.7396
▁क्षेम	-10.7401
सौन्दर्य	-10.7403
यदा	-10.7405
▁सरस्वत	-10.7406
जह	-10.7407
ध्वा	-10.7407
प्रज्ञ	-10.7409
▁वीक्ष	-10.7411
▁काचित्	-10.7412
प्रार्थन	-10.7412
प्सु	-10.7423
▁खेद	-10.7425
▁रात	-10.7432
साक्षिण	-10.7439
▁प्रवास	-10.7441
▁परस्मैपद	-10.7445
त्रैलोक्य	-10.7445
ाक्षी	-10.7445
▁पश्चाद	-10.7452
▁प्रयच्छति	-10.746
ध्वनि	-10.746
▁पूर्व्व	-10.746
नुभव	-10.746
▁भगवत्	-10.7472
▁पुनरेव	-10.7474
▁प्रसीद	-10.748
श्रुति	-10.749
▁मत्वा	-10.7497
विजय	-10.7497
ापयति	-10.7513
▁सखि	-10.7516
व्याज	-10.7527
▁मध्याह्न	-10.7529
▁मीन	-10.7531
▁आरक्षण	-10.7531
ard	-10.7535
निरपेक्ष	-10.7537
▁इत्यु	-10.7542
र्जुन	-10.7542
▁भ्राता	-10.7543
धारित	-10.7552
▁चत्वारः	-10.7552
तंत्र	-10.7553
त्सर्वं	-10.7554
▁कह	-10.7555
▁तपस	-10.7558
▁उदय	-10.7558
▁उपयुज्य	-10.7559
स्त्राणि	-10.756
प्रकरणम्	-10.7563
सेवन	-10.7564
रिष	-10.7568
क्तु	-10.7568
ादीनाम	-10.7569
▁मज	-10.7573
प्रीण	-10.7573
▁नृणां	-10.7573
▁योग्यता	-10.7574
▁यदु	-10.7575
▁तदेत	-10.7575
भान	-10.7575
▁दीक्षा	-10.7576
▁भस्म	-10.7577
द्विज	-10.758
▁जानासि	-10.7584
प्नो	-10.7584
▁इत्थ	-10.7585
धर्ष	-10.7589
धेन	-10.7591
▁इत्यादौ	-10.7605
▁स्वगृह	-10.7621
मिमं	-10.7621
IN	-10.7623
▁ददा	-10.7623
▁सांख्य	-10.7624
▁देशकाल	-10.7624
सम्भाषणम्	-10.7629
▁स्थित्वा	-10.7633
ऋष	-10.7634
स्मर	-10.7637
ear	-10.7647
▁विभु	-10.7647
▁लोह	-10.7651
बलेन	-10.7653
▁खाद्य	-10.7653
नुमान	-10.7657
▁पर्जन्य	-10.7657
70	-10.7658
▁व्यर्थ	-10.7666
▁अनुच्छेद	-10.7669
चेतसा	-10.767
▁अद्भुत	-10.7681
▁चतुः	-10.7685
▁सर्वश्रेष्ठ	-10.7688
तिष्ठन्	-10.7688
प्रदा	-10.7689
नून	-10.7689
८३	-10.7691
त्यनेन	-10.7692
▁प्रदक्षिण	-10.7692
ोद्भव	-10.7693
मन्यु	-10.7695
क्स्	-10.7696
90	-10.7698
▁साङ्ख्य	-10.77
दोह	-10.7708
दिग्ध	-10.7714
सन्ध	-10.7724
कृद्	-10.7724
योर्मध्ये	-10.7724
▁ऋषय	-10.7727
क्रीड	-10.7734
▁हेतुना	-10.7738
▁विज्ञायते	-10.7743
▁कृतार्थ	-10.7743
hi	-10.7748
SC	-10.7757
▁ज्ञेया	-10.7758
पेक्ष्य	-10.7763
मुत्तमम्	-10.7763
जग्म	-10.7766
▁यूप	-10.7766
पर्यन्तम्	-10.7768
जुष	-10.7773
▁निरस्त	-10.7775
जव	-10.7778
ग्री	-10.778
ew	-10.7782
▁निर्दिश	-10.7783
ST	-10.7785
▁जड	-10.7786
ध्वज	-10.7789
साहस्र	-10.7791
▁इंद्र	-10.7792
विधानसभा	-10.7794
स्त्वया	-10.7796
स्रव	-10.78
व्यञ्जन	-10.7802
▁समाप्ति	-10.7804
▁स्वतन्त्रता	-10.7814
▁निवेदित	-10.7814
▁मातुः	-10.7817
यसे	-10.7818
दीक्ष	-10.7818
▁क्षिति	-10.7821
▁रेफ	-10.7823
ानुभव	-10.7837
▁असत्य	-10.7838
▁समर्पित	-10.7838
कुसुम	-10.7841
▁निराश	-10.7842
ानपि	-10.7846
▁व्यप	-10.7849
▁पुं॰	-10.7851
निरीक्षण	-10.7851
▁भविष्यसि	-10.7858
▁अपवाद	-10.7864
नियत	-10.7864
▁आश्रित	-10.7865
ादेशो	-10.7866
-20	-10.7866
यत्न	-10.7868
▁प्रयुक्तम्	-10.7874
ेत्यादि	-10.788
▁अहोरात्र	-10.7884
▁प्रतिपादय	-10.7887
मूढ	-10.7892
एफ	-10.7901
हीति	-10.7904
▁प्रत्यहं	-10.7908
▁त्वदीय	-10.7916
त्राण	-10.7916
pe	-10.7917
▁निर्धन	-10.7919
▁संक्षेप	-10.7934
▁कुत्रापि	-10.7934
व्यूह	-10.7935
▁अस्त्र	-10.7938
▁जुइगु	-10.7938
वार्ता	-10.7941
▁Tags	-10.7943
ग्निर्	-10.7945
सम्मत	-10.7945
▁त्रै	-10.7947
भ्युपगम	-10.7947
▁प्रणव	-10.7949
भावि	-10.795
▁मुनी	-10.7952
त्वमिति	-10.7952
तिष्ठत	-10.7953
स्पन्द	-10.7959
▁अहमेव	-10.7959
नियन्त्रण	-10.7962
च्छन्द	-10.7964
▁नराधिप	-10.7965
भ्युप	-10.7965
▁पयस	-10.7968
ज्जीव	-10.797
वैष्णव	-10.7974
दातु	-10.7977
▁प्रसूत	-10.7979
▁प्रतिभाति	-10.7984
▁यथैव	-10.7986
▁संप्राप्त	-10.7989
▁एतेषु	-10.799
सदन	-10.7992
▁देव्या	-10.7997
ङ्ख	-10.8003
▁लक्ष्मण	-10.8005
▁जुलाई	-10.8007
सौख्य	-10.8009
चिन्ता	-10.8009
▁कुर्वीत	-10.8011
▁पृच्छति	-10.8015
प्रकरण	-10.8017
क्रोश	-10.8018
▁राजपुत्र	-10.8032
पुनर	-10.8035
विहार	-10.804
▁अपत्य	-10.8041
बाधित	-10.8042
°	-10.805
तिशय	-10.805
युज	-10.8053
▁स्नात्वा	-10.8055
▁उत्पत्ति	-10.8055
▁साध्या	-10.8061
▁क्वापि	-10.8063
दृग्	-10.8073
▁नवम	-10.8076
कर्म्म	-10.8076
मग्नि	-10.8077
च्छाद	-10.8078
रोष	-10.809
सम्पाद्यताम्	-10.8094
ान्यपि	-10.8095
▁अत्रापि	-10.8096
र्घ	-10.8113
थाय्	-10.8114
est	-10.8115
ड्ड	-10.8117
▁कलौ	-10.8118
▁प्रतिपद	-10.8123
ment	-10.8126
▁मित्राणि	-10.8126
व्याध	-10.8127
ार्द्ध	-10.8133
ादन्य	-10.8139
▁समन्ततः	-10.814
त्मक	-10.8142
लम्भ	-10.8149
▁ईशान	-10.8151
त्त्र	-10.8162
58	-10.8167
▁विभक्तिः	-10.818
▁ददृश	-10.8181
▁निश्	-10.819
स्का	-10.8193
वाक्यानि	-10.8195
▁संध्या	-10.8202
विषयत्व	-10.8206
▁संस्थाप्य	-10.8209
मृग	-10.8215
▁प्रमाद	-10.8219
चौर	-10.8221
54	-10.8221
कन्या	-10.8226
▁चिकित्स	-10.8232
दिश्य	-10.8235
ानन्तर	-10.8236
▁क्रियापद	-10.8236
ध्म	-10.8242
▁समन्वय	-10.8244
सूक्ष्म	-10.8249
वशात्	-10.825
▁इरा	-10.8254
▁वास्तव	-10.8259
मुच्च	-10.826
ढु	-10.8273
▁प्राप्नुवन्ति	-10.8275
ानुसारेण	-10.8276
▁पयः	-10.8277
दूषित	-10.8278
ोत्पत्ति	-10.828
▁हिमालय	-10.828
कषाय	-10.8282
▁गगन	-10.829
वृष्ट	-10.8297
ैतद्	-10.8297
▁हस्ति	-10.8298
▁जहा	-10.8299
▁भण	-10.8303
▁समरे	-10.8304
▁पथ्य	-10.8305
वृत्य	-10.8308
्यन्तर	-10.8314
रूप्य	-10.8316
▁VERSE	-10.8321
उद	-10.8324
one	-10.8327
▁मनुष्या	-10.8328
▁अभिमान	-10.8329
▁लोकान्	-10.8331
ho	-10.8332
57	-10.8332
▁ज्ञातव्य	-10.8333
चैतन्य	-10.8335
ीकरोति	-10.8335
▁आसान	-10.834
तेषां	-10.8344
▁श्रुतेः	-10.8344
पृथक्	-10.8346
▁सुभाषित	-10.8347
स्माभिः	-10.8363
मण्डलस्य	-10.8365
ms	-10.8373
कौतुक	-10.8373
सितं	-10.8376
सेवक	-10.838
नदी	-10.8381
▁पर्यटन	-10.8381
इदं	-10.8383
▁प्रलय	-10.8392
▁विशुद्ध	-10.8392
▁ब्रिट	-10.8394
दधे	-10.8398
52	-10.8405
सांस्कृतिक	-10.8413
▁शृण्व	-10.8413
सुषुप्त	-10.8413
रायण	-10.8414
०१०	-10.8417
▁व्रजेत्	-10.8422
▁तयोर्	-10.8423
मिच्छामि	-10.8425
विभक्त	-10.8428
▁केनचित्	-10.8433
प्रत्ययस्य	-10.8434
ऽसि	-10.8441
दँ	-10.8445
▁प्राकृतिक	-10.8449
व्याघ्र	-10.845
मेद	-10.8454
त्वाच्च	-10.8457
अन्येषां	-10.8458
ऩ	-10.8459
वधू	-10.8461
वनी	-10.8463
लाई	-10.8466
ज्ञापन	-10.8467
▁अणु	-10.8468
▁सुग्रीव	-10.8471
जानाति	-10.8471
ातिशय	-10.8476
▁आपण	-10.8482
▁गायत्र	-10.8483
व्यापी	-10.8488
▁अद्यतन	-10.8489
पुत्रेण	-10.8492
मस्तक	-10.8492
ानुमान	-10.8493
▁कुश	-10.8494
▁भवत्येव	-10.8496
▁साक्षी	-10.8497
▁छेद	-10.8498
निर्दिष्ट	-10.8502
▁प्राथमिक	-10.8505
pdf	-10.8505
▁फोटो	-10.8505
ुमर्हसि	-10.8506
▁दत्वा	-10.8506
शृङ्ग	-10.8509
ष्यामि	-10.8512
उत्तर	-10.8516
वेक्ष्य	-10.8516
▁षण्	-10.8518
हङ्कार	-10.8527
कर्मण्य	-10.8528
्वैव	-10.8529
लोड	-10.8529
टीसी	-10.8533
धन्व	-10.8534
प्रक्रिया	-10.8537
अग्नि	-10.8539
पेक्षते	-10.8542
▁तनय	-10.8546
▁जन्तु	-10.8551
स्मिन्नेव	-10.8552
▁निषिद्ध	-10.8552
▁इदानी	-10.8552
▁रिपोर्ट	-10.8553
▁क्षुद्र	-10.8554
चराचर	-10.8554
प्रतिपत्ति	-10.8554
युर	-10.8554
▁आग्नेय	-10.8555
प्रमेय	-10.8555
▁नश्यति	-10.8555
▁00:	-10.8557
ुदाहरण	-10.8559
त्याज्य	-10.8565
▁देवतानां	-10.8567
▁प्रयोगशाला	-10.8572
▁शुच	-10.8581
▁लङ्का	-10.8585
ुद्ध	-10.8586
▁हव्य	-10.8596
J	-10.8598
▁प्रदर्शित	-10.8599
▁पप्रच्छ	-10.8599
वरुण	-10.8601
बोधि	-10.8604
श्रोत	-10.8606
▁करने	-10.8606
ame	-10.8613
▁ह्य्	-10.8617
राज्ञ	-10.8621
मिष्ट	-10.8622
परिचित	-10.8622
53	-10.8627
▁भ्रातर	-10.8631
ग्नौ	-10.8641
▁वीक्ष्य	-10.8644
▁परीणाम	-10.8646
▁उल्लेख	-10.8646
▁प्रोवाच	-10.8647
▁शुभाशुभ	-10.8647
▁हित्वा	-10.8649
वार्षिक	-10.8652
▁श्रद्धया	-10.8654
वीज	-10.8655
▁पूजयेत्	-10.8657
पत्तौ	-10.8659
मुवाच	-10.8659
▁अवशिष्ट	-10.866
▁आकार	-10.8663
▁कस्मिन्	-10.8669
इह	-10.8669
हर्तु	-10.8676
▁उद्देश्य	-10.8678
कुण्ड	-10.8679
ैरेव	-10.8681
ca	-10.8683
▁प्रदर्शय	-10.8683
▁विमल	-10.8683
भाषायाः	-10.8689
स्वपि	-10.8692
माहात्म्य	-10.8694
▁फिल्म	-10.8694
ान्येव	-10.8701
▁आनय	-10.8706
कथय	-10.8708
ास्पद	-10.8708
▁निर्यात	-10.8714
दुष्कर	-10.8714
▁रै	-10.8718
▁चक्षुः	-10.8728
यॊग	-10.8731
▁कुर्याद्	-10.8733
▁प्रकाशन	-10.8734
ies	-10.8735
▁विश्वरूप	-10.8741
▁यथेष्ट	-10.8744
बाह्य	-10.8745
वार्तिक	-10.8753
▁धीमतः	-10.8757
▁लवण	-10.8762
▁निरीक्ष	-10.8765
कर्तार	-10.8765
यितव्य	-10.8768
क्षोभ	-10.8768
▁साहाय्यं	-10.8768
▁कार्यकारण	-10.8776
▁विस्मृत	-10.8776
▁De	-10.8776
सूक्त	-10.8779
भ्रान्त	-10.878
ैक्य	-10.8782
पूत	-10.8782
िण्या	-10.8788
▁अधिसूचना	-10.879
▁आसपास	-10.8791
कर्मणो	-10.8792
▁होवाच	-10.8794
नुष	-10.8795
निपुण	-10.8799
गार	-10.8808
किञ्चि	-10.8809
कर्त्तु	-10.8811
वन्ध	-10.8812
वासना	-10.8816
क्ष्यामि	-10.8823
▁रम्य	-10.8827
मायु	-10.8836
▁अप्रैल	-10.8837
ight	-10.8837
ाऽऽह	-10.8839
▁महत्त्वपूर्ण	-10.8839
माःगु	-10.884
शासक	-10.8846
िष्यत	-10.8846
▁साक्षाद्	-10.8846
▁अथातः	-10.8847
वृष्टि	-10.8848
qu	-10.8848
▁केचिद्	-10.8849
संपन्न	-10.8852
▁निर्गुण	-10.8861
द्वारे	-10.8864
▁जिह्वा	-10.887
चेष्टित	-10.8875
भट	-10.8876
ळी	-10.8878
संपद	-10.8883
बलय्	-10.8884
▁शैक्षिक	-10.8885
▁The	-10.8887
पत्राणि	-10.8897
▁यशो	-10.8906
▁स्थावर	-10.8907
मूत्र	-10.8909
विपरीत	-10.8911
षष्ठ	-10.8914
56	-10.8917
ाढ्य	-10.8918
▁भवितुं	-10.8919
ांतर	-10.8927
▁भारतवर्ष	-10.8929
ya	-10.8929
सन्तान	-10.8935
▁आवां	-10.894
▁विलोक्य	-10.8943
▁विपक्ष	-10.8945
ानुरूप	-10.8946
▁जगन्	-10.8949
▁सहस्रशः	-10.895
▁विद्वांस	-10.8957
▁पावक	-10.8958
ाभ्यन्तरे	-10.897
▁भूरि	-10.8976
ानुवाद	-10.8983
वैराग्य	-10.8984
हृत्	-10.8986
व्याधि	-10.8988
नामधेय	-10.8996
वियोग	-10.8997
▁ग्रहीत	-10.8997
ty	-10.8999
▁प्रेषय	-10.8999
▁चेतना	-10.9003
भै	-10.9005
▁इदानीम	-10.9012
▁वृषभ	-10.9013
▁मदन	-10.9017
साधु	-10.9022
चालक	-10.9023
न्यायाधीश	-10.9032
निरत	-10.9035
▁द्वाव	-10.9035
ER	-10.9042
वर्ती	-10.9044
ारण्य	-10.9049
शान्ति	-10.9052
▁योगदानानि	-10.9054
पूर्वकम्	-10.9058
▁स्तोत	-10.9061
ापेक्षा	-10.9069
कल्याण	-10.9074
▁तुम्ह	-10.9078
ग्रहणेन	-10.9079
काश्मीर	-10.9081
▁ब्रह्माण्ड	-10.9081
ग्निहोत्र	-10.9082
सिन्धु	-10.9084
▁जापान	-10.9084
वर्षेभ्यः	-10.9085
▁यजेत	-10.9087
पतिर्	-10.9095
बीसी	-10.9097
संज्ञाया	-10.9101
▁वक्ष्ये	-10.9103
कृत्वा	-10.9104
▁भगवन्त	-10.9125
संकेत	-10.9128
राष्ट्रीय	-10.9129
ʼ	-10.9131
▁भगिनी	-10.9136
▁मन्यसे	-10.9137
लुप्त	-10.9138
मेलन	-10.9143
त्रास	-10.9146
log	-10.9148
▁नेवाःतय्	-10.915
▁दयेक	-10.916
▁दुख	-10.9163
na	-10.9166
ार्चन	-10.9183
▁सज्जन	-10.9187
वृत्तान्त	-10.919
र्यथा	-10.919
▁शुष्क	-10.9193
▁इलय्	-10.9194
पताक	-10.9194
▁उभयोः	-10.9196
र्चित	-10.9198
▁अभूत्	-10.9201
बिभ	-10.9215
रस्ति	-10.9215
ाभिमान	-10.9216
रूप्यक	-10.9219
वत्या	-10.9223
वेश्य	-10.9229
▁रिश्ते	-10.923
▁अकथयत्	-10.923
दीनां	-10.9232
▁अन्वय	-10.9233
▁जायमान	-10.9233
शकुन	-10.9234
एल	-10.9235
▁संदेश	-10.9235
▁भासते	-10.9241
चरित्र	-10.9244
वन्तौ	-10.9247
भिद्य	-10.9247
सिद्धान्त	-10.9248
▁तर्पय	-10.9249
सन्धान	-10.9252
▁वहति	-10.9257
▁प्रतिपाद्य	-10.9258
▁उक्त्वा	-10.926
▁अनिवार्य	-10.926
▁सुधा	-10.9262
cd	-10.9268
▁अन्योन्य	-10.9271
लुक	-10.9275
दर्शक	-10.9281
▁सातवां	-10.9281
▁स्कूल	-10.9283
▁अन्तर्जाल	-10.9283
▁कृतज्ञ	-10.9284
न्नपि	-10.9292
ल्हा	-10.9292
▁होता	-10.9297
कक्ष्या	-10.9304
चर्या	-10.9307
▁परमाण	-10.9307
98	-10.9308
दिशि	-10.9309
दुर्ग	-10.9311
▁मातरं	-10.9314
व्याख्या	-10.9317
▁साक्षाद	-10.932
ङ्कार	-10.9324
प्रसक्त	-10.9327
सार्वधातुक	-10.9331
घटन	-10.934
साई	-10.9341
▁स्तोम	-10.9342
▁जाग्रत	-10.9343
▁कंस	-10.9345
द्युति	-10.9349
चिकित्सा	-10.9352
▁चतुर्विध	-10.9364
नर्थक	-10.9369
िन्द्र	-10.9373
ऽस्तु	-10.9376
स्थायि	-10.9377
\	-10.9382
शिक्षित	-10.9382
चत्वारिंश	-10.9384
▁2015	-10.9387
▁भविष्यामि	-10.9391
▁असुर	-10.9394
▁इत्याख्य	-10.9399
▁त्रिधा	-10.94
▁कृतवन्तः	-10.94
▁अनुमति	-10.9409
▁वयसि	-10.9418
ine	-10.9422
ँय्	-10.9424
निग्रह	-10.9424
ायतन	-10.9426
▁ज्याझ्वः	-10.9433
▁जीवन्मुक्त	-10.9433
▁तदीय	-10.9434
▁(3)	-10.9434
दर्शित	-10.9434
▁टिप्पणी	-10.9436
वगम्यते	-10.9438
▁वक्ष्यति	-10.9439
▁SP	-10.944
सूचक	-10.9441
▁स्याम	-10.9444
▁त्रिषु	-10.9448
कवच	-10.9456
▁द्रक्ष्य	-10.9456
द्वादश	-10.9467
न्मह	-10.9469
ृणोति	-10.9471
▁सम्बन्धित	-10.9479
▁हरित	-10.948
ूर्ध्व	-10.948
▁प्रणाम	-10.9481
हाँ	-10.9481
अब्	-10.9481
मिन्द्र	-10.9482
विपाक	-10.9482
Z	-10.9484
ान्तर्	-10.9484
▁प्रचलति	-10.9484
▁वासुदेव	-10.9485
सम्पादक	-10.9491
नुराग	-10.9494
▁कोड	-10.9496
त्याशङ्क्य	-10.9503
▁तद्भव	-10.9506
▁समावेश	-10.9507
नामक	-10.9511
प्रमाणेन	-10.9511
एससी	-10.9514
▁प्रकृत्या	-10.9514
ात्मिका	-10.9515
घाट	-10.9521
म्̇	-10.9524
▁जारी	-10.9531
▁चक्षुषा	-10.9533
▁तदानीं	-10.954
▁प्रायशः	-10.954
▁उदाहृत	-10.9542
प्ट	-10.9543
▁गृहपृष्ठ	-10.9548
ध्ययन	-10.9551
▁कृपण	-10.9551
पतये	-10.9553
वाक्येन	-10.9553
नुवाक	-10.9559
ोपेत	-10.9559
▁चन्द्रमा	-10.9561
द्ब	-10.9564
▁असत	-10.9565
ाश्चर्य	-10.9565
▁आश्रम	-10.9572
ऽद्य	-10.9573
▁दातुं	-10.9573
▁यादृश	-10.958
दृष	-10.958
आदि	-10.9583
▁Nepal	-10.9587
०११	-10.9595
ब्य	-10.9596
▁दाव	-10.9601
▁शुक	-10.9601
**	-10.9609
▁एवंविध	-10.9611
समागम	-10.9614
▁प्रशंसा	-10.9618
▁प्रापय	-10.962
▁आशय	-10.9622
▁अन्ततः	-10.9627
▁sa	-10.9627
▁शपथ	-10.9627
पतित	-10.9627
▁लेखकः	-10.963
स्थायी	-10.9632
लिसे	-10.9634
ध्यापक	-10.9635
▁ज्योतिर्	-10.9637
▁शङ्कर	-10.9637
निधान	-10.9639
समर्पण	-10.9641
भूषित	-10.9643
नाम्ना	-10.9646
▁किञ्चन	-10.9648
पौत्र	-10.9653
▁केषां	-10.9654
▁प्रविशति	-10.9662
▁प्रेरय	-10.9668
मोचन	-10.9668
प्रेरित	-10.9669
▁अपेक्षा	-10.9672
▁रात्र्य	-10.9674
महाविद्यालय	-10.9682
त्वान्न	-10.9682
वसर	-10.9683
ci	-10.9686
ांशु	-10.9687
▁तस्यापि	-10.9687
प्रस्थ	-10.9691
▁कर्मचारी	-10.9692
▁शूद्र	-10.9694
▁धाःगु	-10.9695
▁मुद्रण	-10.9697
विकल	-10.9699
▁नरेन्द्र	-10.9699
ीनाम्	-10.9701
कुर्वन्ति	-10.9702
▁उदात्त	-10.9707
संवृत	-10.9712
ोषित	-10.9714
षू	-10.9717
श्चित्त	-10.9717
रश्मि	-10.972
65	-10.972
पुरी	-10.9721
ल्यु	-10.9723
निविष्ट	-10.9731
▁इहैव	-10.9731
con	-10.9734
•	-10.9735
▁अहिंसा	-10.9737
विवाह	-10.9744
▁रसोई	-10.9745
▁मेदि०	-10.9745
▁शानदार	-10.9745
परिवर्त	-10.9753
▁हविः	-10.9761
विलास	-10.9764
▁विराम	-10.9765
ट्ठ	-10.9768
वर्षसहस्राणि	-10.9769
ीकर्तुं	-10.9775
▁आहुः	-10.9775
▁खग	-10.9782
ast	-10.9793
▁उपधा	-10.9793
▁पठेत्	-10.9796
▁यतस्त	-10.9797
▁कस्मै	-10.9797
चालित	-10.9797
भयात्	-10.9798
▁तस्वीर	-10.9798
घण्ट	-10.9798
▁गुड	-10.98
▁वक्र	-10.9803
▁द्व्य	-10.9805
पर्याय	-10.9808
▁समर्पय	-10.982
ूह	-10.9823
युव	-10.9827
सम्पदा	-10.9834
mp	-10.9837
▁यदिदं	-10.9838
▁निखिल	-10.9842
▁नौका	-10.9843
ोत्साह	-10.9845
दिव्य	-10.9845
विरचित	-10.9847
▁शक्नोमि	-10.9851
ans	-10.9852
▁लभेत्	-10.9853
▁संयुगे	-10.9854
बाह	-10.9854
▁सत्वर	-10.9855
भित्त	-10.9863
▁उग्र	-10.9863
▁तेभ्यः	-10.9865
स्मित	-10.9867
वधान	-10.9878
निषेव	-10.9878
▁प्रस्थित	-10.9888
छिन्न	-10.9889
ष्यन्ति	-10.989
महोत्सव	-10.989
ुत्थाय	-10.9896
▁प्रियतम	-10.9898
▁मनसः	-10.9898
▁उपकार	-10.9899
▁विभाति	-10.9905
भ्व	-10.9905
हेतवे	-10.9906
न्धकार	-10.991
योध	-10.9912
▁वक्ष्यते	-10.9914
▁श्रूय	-10.9916
पेक्षित	-10.9918
per	-10.992
tion	-10.9924
पितरौ	-10.9929
त्वेऽपि	-10.9929
कृच्छ्र	-10.9934
▁टीका	-10.9939
▁सम्मुख	-10.9941
64	-10.9946
▁वक्ष	-10.9946
▁यत्नेन	-10.9947
श्रेयस	-10.9949
ादेर	-10.9952
man	-10.9956
▁शिरो	-10.9958
सम्पत्	-10.996
▁मैत्री	-10.996
ऽनेन	-10.9963
▁लग	-10.9964
ैकादश	-10.9967
▁एकाकी	-10.9971
धीर	-10.9971
61	-10.9974
शालिन	-10.998
भॊ	-10.9983
होरात्र	-10.9983
▁तत्तत्	-10.9984
▁नेपाली	-10.9985
▁अपेक्षित	-10.9993
न्यून	-10.9999
▁संसद	-11.0001
राट्	-11.0008
स्तरीय	-11.0011
▁ऐश्वर्य	-11.0012
▁2014	-11.0016
▁विद्यन्ते	-11.0022
विरोधि	-11.0024
निर्वाचन	-11.0025
पञ्चाश	-11.003
शत्रु	-11.0031
▁क्रीत	-11.0034
संवत्सर	-11.004
नक्षत्र	-11.0042
▁विद्युत्	-11.0043
निष्पन्न	-11.0044
▁खर्च	-11.0045
मन्त्रालय	-11.0046
▁न्याय्य	-11.0048
▁पुस्तकालय	-11.0057
व्रण	-11.006
iz	-11.0061
विद्यमान	-11.0065
चरन्ति	-11.0066
▁मुस्लिम	-11.0066
▁शत्रूणां	-11.0067
श्लाघ	-11.0067
▁निवर्त्यताम्	-11.0067
▁कूर्म	-11.0068
सन्ध्य	-11.0071
गिरि	-11.0077
ानुगुण	-11.0081
▁स्यान्न	-11.0087
▁प्यार	-11.009
▁प्रायेण	-11.0091
▁मय्य	-11.0098
निद्र	-11.0098
66	-11.01
▁रयि	-11.0103
▁अनुभूत	-11.0108
वृध	-11.0114
▁ब्रूमः	-11.0121
ियन	-11.0123
15.	-11.0123
▁मुमुक्ष	-11.0123
▁अपने	-11.0128
▁कदाचिद	-11.0138
श्वमेध	-11.0141
ज्झ	-11.0147
गन्धर्व	-11.015
▁इत्याद्य	-11.0158
▁देय्	-11.0162
▁शङ्का	-11.0162
▁सम्भाषण	-11.0164
वत्सल	-11.0169
▁पुष्य	-11.0172
▁सतत	-11.0175
▁Online	-11.0176
▁वणिज	-11.0179
गच्छेत्	-11.0181
min	-11.0185
न्योन्य	-11.0188
पङ्क्ति	-11.019
लाघव	-11.0197
लिङ	-11.0202
प्रेक्ष्य	-11.0221
▁अनन्य	-11.0222
▁ऐतिहासिक	-11.0231
कर्त्ता	-11.0232
ेन्दु	-11.0232
▁पुस्तकानि	-11.0233
▁एकादशी	-11.0233
▁क्षुधा	-11.0236
तय्त	-11.0237
भूष	-11.0237
▁महात्मनः	-11.0238
▁रिक्ति	-11.0247
▁क्रियताम	-11.0253
प्रीत्या	-11.0253
िंग	-11.0257
शब्दात्	-11.0259
द्यापि	-11.026
▁भगवता	-11.0261
विस्तार	-11.0268
स्माभिर	-11.0269
कर्माणि	-11.0275
▁कालिदास	-11.0287
▁दुर्घटना	-11.0287
▁Ans	-11.0288
▁बलवान्	-11.0291
▁शीर्षक	-11.0294
▁सम्पद्यते	-11.0298
ध्यास	-11.0301
▁प्रयाति	-11.0304
▁भविष्यतीति	-11.0304
▁भवितुम्	-11.0306
IS	-11.0308
▁राहु	-11.0312
मुह्य	-11.0312
ity	-11.0315
भट्ट	-11.0317
▁प्रथित	-11.0323
िष्णु	-11.0328
बोधन	-11.033
▁व्यस्त	-11.0332
An	-11.0332
▁यावन्	-11.0334
▁बहुव्रीहि	-11.0343
▁भ्रष्टाचार	-11.0343
▁द्यूत	-11.0344
▁अंत	-11.0351
▁यद्यप्य	-11.0355
▁निर्विकल्प	-11.0356
▁ददामि	-11.0358
▁छम्ह	-11.0362
लुब्ध	-11.0366
जागरण	-11.0367
द्वारेण	-11.0367
निरुद्ध	-11.0367
र्भवेत्	-11.0375
सिद्धये	-11.0375
तरङ्ग	-11.0378
▁सुरक्षित	-11.0381
कार्याणि	-11.0381
▁विभज	-11.0384
सभायां	-11.039
▁अनुकूलन	-11.0395
सर्वकारेण	-11.0397
कन्दुक	-11.04
▁श्रीकृष्ण	-11.0402
88	-11.0408
प्रान्त	-11.0408
संरक्षण	-11.0409
▁रुपए	-11.0409
निर्धारण	-11.0417
▁उदक	-11.0418
स्थानेषु	-11.0419
क्षत्र	-11.0422
संस्कृति	-11.0426
{	-11.0435
वाप्त	-11.044
वनस्पत	-11.0455
▁शैक्षणिक	-11.0455
गामिन	-11.0456
▁घनत्व	-11.0456
▁प्रत्युवाच	-11.0459
▁लागि	-11.046
ग्न्य	-11.046
विश्वास	-11.0462
▁पितॄन	-11.0462
वर्त्म	-11.0465
र्पय	-11.0467
▁मैत्र	-11.0471
▁प्रातःकाले	-11.0473
▁ग्रामीण	-11.0475
▁दूरस्थ	-11.0479
यन्त्य	-11.0486
ञ्ञ	-11.0487
विच्छेद	-11.049
▁श्रेणीः	-11.049
पुरस्कार	-11.051
▁सिद्ध्यति	-11.0513
श्चतुर्	-11.0513
▁जुहोति	-11.0514
▁शोभते	-11.0517
▁महादेव	-11.0517
च्छाया	-11.0527
जानन्	-11.0528
धावन	-11.0531
वत्त्व	-11.0533
समाचार	-11.0533
ेंद्र	-11.0535
/1	-11.0538
▁छन्दसि	-11.0539
▁योजनानां	-11.0539
वर्तिन	-11.0543
एँ	-11.0544
AT	-11.0545
▁यादव	-11.0548
ारोहण	-11.0557
▁कामये	-11.056
विनिमय	-11.056
निबन्धन	-11.0562
क़	-11.0563
मित्युक्त	-11.0566
▁खड्ग	-11.0569
▁प्रयोक्तव्य	-11.0569
प्रतिषिद्ध	-11.057
▁Live	-11.0572
▁वर्षसहस्र	-11.0572
बभूव	-11.0573
▁वर्गीकरण	-11.0577
ललाट	-11.0578
हरेत्	-11.0584
▁यूयम	-11.0584
68	-11.0585
वर्षीय	-11.0588
ोपचार	-11.0589
▁उकिं	-11.06
पल्लव	-11.06
▁सुमह	-11.0603
▁सद्यो	-11.0608
दिशेत्	-11.0609
▁कस्मान्न	-11.0611
▁रुग्ण	-11.0627
सङ्गत	-11.0627
▁गोविन्द	-11.0633
▁शृणोति	-11.0636
▁गणेश	-11.0639
▁आभार	-11.0643
ऽधिक	-11.0643
सञ्चार	-11.0643
▁कुपित	-11.0644
▁प्रतीक	-11.0647
द्रोह	-11.0649
▁जागृ	-11.0652
ुत्पत्ति	-11.0659
▁तन्व	-11.0661
पतन	-11.0668
▁अनुज्ञा	-11.0671
q	-11.0671
▁गहन	-11.0672
प्रतिपक्ष	-11.0675
मश्नुते	-11.0684
▁भीष्म	-11.0685
धुंकाः	-11.0686
▁हविर्	-11.069
▁जन्मदिन	-11.0695
▁धर्मज्ञ	-11.0697
▁भवेयुः	-11.0698
3.1	-11.0705
वर्तेत	-11.0712
▁जगती	-11.0714
▁विषाद	-11.0724
समीक्ष	-11.0725
अध्याप	-11.0729
▁येषा	-11.0735
▁किञ्चिद्	-11.0736
तारक	-11.0739
›	-11.0743
▁विनश्यति	-11.0743
▁विश्राम	-11.0744
▁कथयन्ति	-11.0746
न्हु	-11.0747
▁पृथु	-11.0751
▁यजु	-11.0756
▁समर्थित	-11.076
▁तृप्ति	-11.0765
प्रकारेण	-11.0767
ध्रुव	-11.0768
▁पूर्वपक्ष	-11.0788
सेवित	-11.0794
▁बुधैः	-11.0797
▁विदूषकः	-11.0801
▁समुचित	-11.0804
तथोक्त	-11.0808
सर्ज	-11.081
▁सन्तोष	-11.0811
▁सुव्रत	-11.0812
विद्यार्थिन	-11.0813
▁महेश	-11.0814
▁कृश	-11.0815
परित्याग	-11.0815
all	-11.0817
ist	-11.0819
ote	-11.0828
ार्णव	-11.0829
▁बहून्	-11.0835
▁सहयोग	-11.0837
75	-11.0837
त्युत्तर	-11.0844
ज्ञापक	-11.0846
भास्कर	-11.0847
▁क्षणिक	-11.0848
▁यस्त्व	-11.0851
▁समिध	-11.0852
▁यद्येवं	-11.0861
▁पार्टी	-11.0863
▁पानीय	-11.0863
हेतवः	-11.0864
▁द्विजोत्तम	-11.0865
पुनर्	-11.0866
कूगु	-11.0871
▁तापमान	-11.0873
मन्तव्य	-11.0874
▁२०१५	-11.0874
धिष्ठ	-11.0875
▁कृतकृत्य	-11.0879
नुपलब्ध	-11.0879
500	-11.0886
मुद्दिश्य	-11.0886
वृत्त्या	-11.0889
▁शहर	-11.0893
▁विस्मर	-11.0894
▁छेँ	-11.0896
▁तन्मे	-11.0902
▁वायुर्	-11.0903
सद्भाव	-11.0904
स्तिष्ठ	-11.0906
धिष्ठित	-11.0911
▁शशि	-11.0917
▁मनोरञ्जन	-11.0919
77	-11.0926
पूरित	-11.0937
मित्येव	-11.0939
▁निवेद्य	-11.0943
िष्याम	-11.0944
▁8.0	-11.0947
ice	-11.0947
▁केन्द्रीय	-11.0948
धारिण	-11.0952
▁स्युर्	-11.0953
ुत्थान	-11.0954
▁मलय	-11.0955
▁गोपाल	-11.096
▁राजस्थान	-11.0961
वाह्य	-11.0962
▁कदाचिद्	-11.0963
▁You	-11.0966
▁पत्रकार	-11.097
प्रतिपत्	-11.0979
▁निंतिं	-11.098
▁धीम	-11.0981
▁थुगु	-11.0981
▁नास्तीति	-11.0992
रामायण	-11.0995
▁पठित्वा	-11.0996
▁बहुषु	-11.0997
निर्भर	-11.101
युग्म	-11.1014
▁Xxx	-11.1021
▁भिक्षा	-11.1023
▁तुलसी	-11.1039
▁पृ०	-11.1041
याच्वन	-11.1046
ादिष्व	-11.1046
72	-11.1055
ोद्धार	-11.1055
▁पुंसां	-11.1058
▁सूचयति	-11.1058
▁यशस्	-11.1059
मध्यस्थ	-11.106
tic	-11.1074
मर्हसि	-11.1076
दर्शिन	-11.1081
▁विद्वान	-11.1083
ेष्वेव	-11.1087
▁जगतां	-11.1095
▁आगामि	-11.1098
पूर्त	-11.1098
▁मयूर	-11.11
▁(4)	-11.11
विविक्त	-11.1104
मीटर	-11.1105
▁स्नातक	-11.1107
रोपण	-11.1113
क्षेत्रेषु	-11.1116
▁इत्यस्मिन्	-11.1116
ुपदिश्यते	-11.1117
रश्म	-11.1123
▁तेभ्यो	-11.1124
▁कवचं	-11.1125
▁इच्छन्ति	-11.1131
▁भवेन्	-11.1134
←	-11.1148
पिशाच	-11.1148
सचिव	-11.1156
▁भूतकाल	-11.1158
AS	-11.1161
▁प्रचलित	-11.1167
मापन्न	-11.1175
▁सुखद	-11.1176
विभज्य	-11.1181
गर्ज	-11.1183
▁वय्कःया	-11.1184
दंश	-11.1199
▁उपाधि	-11.1206
......	-11.1212
▁यज्	-11.1215
$1	-11.1217
▁पातक	-11.1219
▁चुनाव	-11.122
निलय	-11.1241
▁आङ्ग्लभाषाया	-11.1242
▁सम्प्राप्त	-11.1242
▁पितुर्	-11.1247
▁२०२०	-11.125
फ़्	-11.1251
▁करिष्यसि	-11.1254
▁मनोहर	-11.1255
पोह	-11.1256
त्यजेत्	-11.1258
पनिषद	-11.1265
▁यायेमाः	-11.1266
UP	-11.1266
▁समृद्धि	-11.1269
▁हृद्य	-11.127
वाई	-11.1281
▁समीचीन	-11.1282
▁चत्वारि	-11.1284
सौभाग्य	-11.1284
▁इत्यादयः	-11.1307
▁निधाय	-11.1316
वेश्म	-11.1318
▁तसक	-11.132
▁युधि	-11.132
▁तज्ज	-11.1328
▁पठ्यते	-11.1333
ोद्देश	-11.1342
पाप्म	-11.1343
▁खोजषब्द	-11.1343
►	-11.1343
▁क्षत्रिय	-11.1344
▁कर्णाटक	-11.1344
▁दीर्घकाल	-11.1345
▁नमस्ते	-11.1345
मिथुन	-11.1346
▁वृत्र	-11.1352
▁शय्या	-11.1353
▁उच्चतम	-11.1366
▁भागवत	-11.1367
स्मृत्य	-11.1371
दृष्ट्वा	-11.1376
▁दत्तवान्	-11.1376
साधित	-11.1377
हरुः	-11.1389
▁अयमेव	-11.1391
▁सू०	-11.1393
गुजरात	-11.1402
▁भुङ्क्ते	-11.1405
▁व्यावहारिक	-11.1405
▁यदुक्तं	-11.1406
भिधेय	-11.1407
▁डॉ	-11.1409
दीक्षित	-11.1411
इपिं	-11.1414
▁पृष्ठभूमि	-11.1415
बध्य	-11.1416
याच्वंगु	-11.1419
श्रान्त	-11.1425
▁अनुवर्तते	-11.1428
व्याख्यान	-11.1436
▁गुरोः	-11.1439
▁स्यादित्य	-11.1441
▁फै	-11.1445
नुमोद	-11.1456
▁मलिन	-11.1458
▁महद्	-11.146
महाद्वीप	-11.1462
निमेष	-11.1465
▁Sentence	-11.1468
▁ऊचुः	-11.1468
{*	-11.1471
*}	-11.1476
BC	-11.1483
लङ्कृत	-11.1491
स्नात	-11.1491
निर्गम	-11.1496
ऋच	-11.1497
▁शक्यन्ते	-11.1497
भिधाय	-11.1502
हितार्थ	-11.1504
▁अनर्थ	-11.1507
▁समाप्य	-11.151
▁अहमपि	-11.1517
▁विस्मित	-11.1517
▁विचारणा	-11.1521
▁फलित	-11.1523
▁निष्फल	-11.1526
ऱ	-11.1531
▁कोविड्	-11.1531
▁जम्मू	-11.1531
▁टेनिस	-11.1531
▁स्वायत्त	-11.1532
▁लब्ध्वा	-11.1535
▁गौतम	-11.1536
▁वर्जय	-11.1536
शोषण	-11.1537
किशोर	-11.1538
▁दूषय	-11.1538
कण्टक	-11.154
भ्रू	-11.1545
EN	-11.1562
प्राप्तौ	-11.1565
सङ्ग्राम	-11.157
फलप्रद	-11.1585
प्युप	-11.1593
▁उपेक्ष	-11.1593
▁धयागु	-11.1595
पाठ्यक्रम	-11.1595
▁Read	-11.1596
▁2013	-11.1598
▁सिंहासन	-11.16
प्रतिभास	-11.1601
▁हिन्दू	-11.1601
▁कौरव	-11.1604
▁हजार	-11.1607
95	-11.1607
द्युम्न	-11.1608
वपुष	-11.1624
▁ताम्र	-11.1626
वसन्त	-11.1627
छात्र	-11.163
TV	-11.1637
▁स्वीकृत्य	-11.1638
विदित	-11.1644
क्टर	-11.1654
लिप्त	-11.1655
सम्प्रदाय	-11.1656
ीत्यर्थः	-11.1657
▁अन्ताराष्ट्रिय	-11.1658
तज्ज्ञ	-11.166
नेतुं	-11.1661
▁vs	-11.1665
क्षेपण	-11.1667
▁बृहस्पति	-11.1667
चतुर्थ	-11.1667
वज्र	-11.1668
▁उपलभ्यते	-11.167
माल्य	-11.1671
▁आयाति	-11.1678
▁तस्मान्	-11.1681
ण्ट्	-11.1688
▁विष्णोः	-11.1689
▁बजे	-11.1689
पत्त्य	-11.17
क्षीर	-11.1702
▁वायव	-11.1711
यूथ	-11.1717
कर्त्र	-11.172
घृण	-11.172
अस्मभ्यं	-11.1722
▁श्ल	-11.1727
▁विधेयक	-11.1737
वारण	-11.1744
▁रोज	-11.1745
▁कीट	-11.1748
निर्वाण	-11.1751
▁पश्यन्तु	-11.1753
वसित	-11.1762
न्वेषण	-11.1762
प्रकर्ष	-11.1763
▁त्रुटि	-11.1764
त्रिंशत्	-11.1767
▁जैन	-11.1767
सुन्दर	-11.1768
▁तस्मान्न	-11.1781
▁व्यतीत	-11.1783
▁सार्वजनिक	-11.1787
विशारद	-11.1787
▁04:	-11.1789
▁आशिष	-11.1797
विस्फोट	-11.181
ip	-11.1814
लघु	-11.1816
AR	-11.1816
1.2	-11.1821
ानुबन्ध	-11.1822
यौवन	-11.1825
▁ब्रह्मणः	-11.1832
क्रीडायां	-11.1832
▁धाये	-11.1833
िन्द्रिय	-11.184
धत्त	-11.1841
▁नवदिल्ली	-11.1851
डब्ल्यू	-11.1851
▁पोर्नो	-11.1852
विस्तीर्ण	-11.1852
▁अगच्छत्	-11.1852
▁पाण्डु	-11.1852
ence	-11.1854
▁भग्न	-11.1855
▁दिनेश	-11.1856
र्मह	-11.1856
▁आरक्षक	-11.1856
▁करोड़	-11.1857
ill	-11.1858
ाष्टक	-11.1867
▁तावन्	-11.1868
▁देशान्तर	-11.1876
69	-11.1891
▁सुश्रुत	-11.1893
IC	-11.1904
प्रयाण	-11.1912
▁यथातथ	-11.1913
मर्याद	-11.1916
▁विकिसूक्तिः	-11.1917
view	-11.1918
संज्ञित	-11.1919
▁व्यवस्थाप	-11.1919
ang	-11.192
मण्डप	-11.1921
पत्न्य	-11.1921
▁तासु	-11.1923
वर्जन	-11.1925
▁जानीम	-11.1925
▁विनष्ट	-11.1927
विवरण	-11.1927
▁शत्रव	-11.1929
ऽभ्य	-11.1939
▁छात्राणां	-11.1945
end	-11.1952
संहर	-11.1952
प्रणीत	-11.196
ऽभवत्	-11.1962
▁वदेत्	-11.1966
▁भौम	-11.1967
▁तेजसा	-11.1976
▁परिवर्तित	-11.1979
▁(--/)	-11.1983
संसदि	-11.1983
▁प्राणायाम	-11.1983
AP	-11.1988
प्नुया	-11.1989
▁भयानक	-11.1995
▁भवतीत्य	-11.1998
▁संबध्यते	-11.2006
कर्म्मण	-11.2008
क्लिष्ट	-11.2022
क्रियायां	-11.2022
पोर्ट	-11.2025
᳘	-11.2049
प्रेरण	-11.205
मवाप्नोति	-11.2051
सर्वस्व	-11.2052
युक्त्या	-11.2053
▁द्वेष्टि	-11.2053
▁गुरू	-11.2056
▁युष्मान्	-11.2057
▁२००८	-11.2058
गुरव	-11.2071
दित्यर्थः	-11.2075
परम्पर	-11.2077
▁किमर्थ	-11.2078
नित्यत्व	-11.2081
▁घञ्	-11.2088
विश्रान्त	-11.2089
पवित्र	-11.2094
▁बहुशः	-11.2102
▁चलचित्र	-11.2103
97	-11.2103
▁मरुतः	-11.2116
समन्वितम्	-11.2117
▁शत्रून्	-11.2119
चित्राणि	-11.2119
▁अग्रिम	-11.2128
तान्त्रिक	-11.213
क्रन्द	-11.2144
परीक्षण	-11.2145
नुस्वार	-11.2148
67	-11.2148
▁इदमेव	-11.2151
ोपाधि	-11.2164
ूणां	-11.2171
वोचत्	-11.2173
भाक्	-11.2175
▁विद्यार्थी	-11.2184
▁भिद्यते	-11.2186
▁सार्द्धं	-11.2186
▁क्रियतां	-11.2187
▁दयित	-11.2188
▁नेपालभाषा	-11.2189
महर्षि	-11.2193
▁भूकम्प	-11.2195
▁लिपा	-11.22
▁बर्हि	-11.2203
विश्रुत	-11.2208
सपत्न	-11.2211
ावसरे	-11.2215
▁निर्भय	-11.2222
१०२	-11.2223
▁उद्धर	-11.2224
सूत्राणि	-11.2229
माचरेत्	-11.223
वासिन	-11.2231
मिमां	-11.2232
▁भूतले	-11.2233
▁मर्यादा	-11.224
▁प्रेरणा	-11.2242
▁धीमता	-11.2245
▁तदुक्तं	-11.2252
संमत	-11.2254
परिष्कृत	-11.2255
▁मिलित्वा	-11.2255
पुच्छ	-11.2266
▁तत्तद्	-11.2274
▁दशरथ	-11.2275
ारोग्य	-11.2281
▁बृहत	-11.2285
पितामह	-11.2286
श्रिय	-11.2289
ace	-11.23
▁भगवतो	-11.2312
▁प्रविवेश	-11.2318
▁त्रयाणां	-11.2322
कुत्सित	-11.2323
▁विशिष्यते	-11.2324
▁For	-11.2325
▁न्हू	-11.2326
क्षिपेत्	-11.2329
▁गौण	-11.2334
▁निवारय	-11.2341
ix	-11.2344
तृष्ण	-11.2344
५००	-11.2346
कल्क	-11.2361
ाहुर्	-11.2368
गंध	-11.2379
ोऽहम्	-11.2382
▁सात्त्विक	-11.2387
▁विराजते	-11.2388
प्रतिज्ञ	-11.2392
सप्ताह	-11.2394
भाण्ड	-11.2397
▁सुदृढ	-11.2401
श्रुत्य	-11.2405
जिह्व	-11.2407
▁प्रौढ	-11.2408
मोहन	-11.2408
संहितायां	-11.2408
▁उपपद्यते	-11.2418
▁तथेति	-11.2422
हर्ता	-11.2446
translation	-11.2456
▁प्रशस्यते	-11.2456
▁इकाई	-11.2456
▁राजनैतिक	-11.2458
जानीहि	-11.246
▁जेतुं	-11.2462
▁एतस्मात्	-11.2465
ET	-11.2465
▁षत्व	-11.2469
▁वराह	-11.2473
▁मोदी	-11.2482
▁my	-11.2488
▁कनिष्ठ	-11.2494
▁सुभग	-11.2496
▁वास्तविक	-11.25
प्रजापते	-11.2502
▁उद्देश	-11.2504
श्विना	-11.2506
कथित	-11.2509
पिपास	-11.2518
▁महाराष्ट्र	-11.2519
मौल	-11.2525
▁Chapter	-11.2525
▁कैवल्य	-11.2525
▁शौर्य	-11.2526
मर्त्य	-11.2535
घृत	-11.2535
▁जनसङ्ख्या	-11.2549
▁अमेरिकी	-11.2549
▁कुर्य्यात्	-11.255
ादेर्	-11.255
▁आगच्छन्ति	-11.255
समुद्भव	-11.2551
▁दृश्यमान	-11.2552
85	-11.2569
ोर्ध्व	-11.2587
ोऽस्माकं	-11.2594
▁क्लीब	-11.2597
स्वामिन	-11.2602
▁सेट्	-11.2605
वलय	-11.2608
मास्थाय	-11.2613
▁प्राप्नो	-11.262
▁पृष्ठाना	-11.2621
ादीनाम्	-11.2625
▁सर्वेषाम्	-11.2628
सोपान	-11.2638
संगत	-11.2648
चष्टे	-11.2649
▁कन्नड	-11.2649
समवेत	-11.2661
▁दायित्व	-11.2666
▁यमुना	-11.267
▁यहां	-11.2671
▁स्त्रीलिङ्ग	-11.2686
▁प्रातर्	-11.2695
शंक	-11.2702
▁अवस्थित	-11.2702
▁वाञ्छित	-11.2708
ष्टादश	-11.2716
लौकिक	-11.2717
निवार्य	-11.2723
▁धिक्	-11.2734
▁मुम्बई	-11.2736
▁विश्वामित्र	-11.2737
वयस्क	-11.2737
▁पार्वती	-11.2741
भुञ्ज	-11.2743
▁मिलित	-11.2746
▁भूगोल	-11.2747
सम्पुट	-11.2769
▁कस्यचिद	-11.2775
दृढ	-11.2776
लॊक	-11.2786
व्यावृत्त	-11.2788
व्यवसाय	-11.2795
शुल्क	-11.2795
▁एशियाई	-11.2808
▁05:	-11.281
▁भृगु	-11.2812
▁पुत्रपौत्र	-11.2814
▁दशलक्ष	-11.2817
प्रशस्तिः	-11.2817
▁कथयिष्यामि	-11.2818
विषाण	-11.283
▁लिए	-11.2833
▁हनू	-11.2836
▁वायव्य	-11.2839
निर्वाह	-11.2844
93	-11.2844
मृश्य	-11.2845
▁यूयम्	-11.2852
सत्कार	-11.2858
आयुष	-11.2869
श्रू	-11.2875
×	-11.288
▁परिसन्धयः	-11.288
▁अपर्याप्त	-11.288
▁All	-11.288
विनिर्मुक्त	-11.288
▁निशम्य	-11.288
▁ब्रवीमि	-11.2881
▁नितरां	-11.2881
▁नारीणां	-11.2883
कुण्डल	-11.2885
▁शारीर	-11.2888
▁ददातु	-11.2905
89	-11.291
कीर्त्य	-11.2913
ेकादश	-11.2919
▁तुरीय	-11.292
घट्ट	-11.2924
▁वर्धमान	-11.2928
ोपादान	-11.2952
जिगीष	-11.2954
▁निपात्यते	-11.2954
प्रभावेण	-11.2959
▁उद्धृत	-11.296
ीन्द्रिय	-11.2965
VI	-11.2966
▁अपहरण	-11.2966
▁सर्वासां	-11.2969
▁मातुल	-11.2974
▁पाताल	-11.2974
▁प्रागेव	-11.2976
▁वर्तमानकाल	-11.2985
ाभिषेक	-11.2998
ङ्कुर	-11.3006
ाशीति	-11.3014
▁लिङ्	-11.3015
CO	-11.3018
स्थापक	-11.3019
▁सम्पादय	-11.3022
▁प्रतिषिध्यते	-11.3025
निरास	-11.3026
▁संघर्ष	-11.3027
▁लभन्ते	-11.3027
▁कारागार	-11.3028
स्वास्थ्य	-11.3031
▁करोषि	-11.3033
▁यहाँ	-11.3039
वतिष्ठते	-11.304
Ch	-11.3052
ोत्पन्न	-11.3064
निसें	-11.3067
सञ्ज्ञ	-11.3088
न्तःकरण	-11.3091
▁चिकीर्ष	-11.3099
माप्नुयात्	-11.3099
▁निम्नलिखित	-11.31
▁तस्मिं	-11.3102
Q	-11.3111
▁दुरात्म	-11.3113
▁इत्यस्माद्	-11.3113
सूदन	-11.3114
▁कच्चि	-11.3129
87	-11.3134
▁चतुष्	-11.3135
▁विदित्वा	-11.3168
▁वन्यजीव	-11.3173
▁प्रत्यभिज्ञा	-11.3175
▁sent	-11.3175
▁लिप्यते	-11.3177
स्थैर्य	-11.3177
आश्व	-11.3179
▁धृत्वा	-11.3182
▁प्राप्नोत्	-11.3191
गन्तव्य	-11.3196
जितेन्द्रिय	-11.3204
62	-11.3207
भैरव	-11.3231
ुत्थित	-11.3233
▁कपिल	-11.3236
▁विद्म	-11.3245
तन्मात्र	-11.3247
किलोमीटर	-11.3247
▁ब्रूयात्	-11.3248
▁मेदिनी	-11.3249
ack	-11.3249
▁गरुड	-11.3255
▁सम्भावना	-11.3259
निन्दित	-11.326
▁२०१३	-11.3262
78	-11.3262
व्यत्यय	-11.3272
पृथिवी	-11.3273
74	-11.3275
००३	-11.3278
पूरुष	-11.3289
▁चक्षुर्	-11.3289
विनोद	-11.3289
समाहार	-11.3294
ance	-11.3308
१०३	-11.3314
▁शोभा	-11.3318
▁दरॊण	-11.3323
▁गुणवत्ता	-11.3324
▁उत्थाय	-11.3324
श्लिष्ट	-11.3325
ock	-11.3326
▁कहीं	-11.3331
▁प्रकल्पयेत्	-11.3332
कोविद	-11.3335
▁कदाचिदपि	-11.3337
¦	-11.3475
്	-11.5138
Í	-11.5601
ऌ	-11.6493
̄	-11.6597
ॠ	-11.7025
உ	-11.7025
о	-11.7358
÷	-11.7587
️	-11.7821
а	-11.806
−	-11.806
ḥ	-11.8182
●	-11.8306
🙏	-11.8306
€	-11.9353
Ś	-11.9632
்	-11.9775
ū	-11.992
≤	-12.0067
ऍ	-12.0368
́	-12.0678
ا	-12.0678
е	-12.0837
н	-12.1162
(	-12.1191
¬	-12.1329
ॢ	-12.1329
ા	-12.1329
р	-12.1498
ऴ	-12.1498
л	-12.167
₹	-12.167
т	-12.2024
ü	-12.2024
৷	-12.2024
ર	-12.2206
и	-12.2206
é	-12.2391
Ø	-12.2391
σ	-12.2391
ന	-12.2772
ə	-12.2773
√	-12.2969
ī	-12.3169
£	-12.3373
્	-12.3373
с	-12.3581
👉	-12.3581
꣢	-12.4011
ś	-12.4233
в	-12.4233
ل	-12.4233
ṣ	-12.4233
ക	-12.4233
→	-12.4591
д	-12.4693
★	-12.4693
ാ	-12.4931
‐	-12.4931
ન	-12.4931
ી	-12.5175
◆	-12.5175
ь	-12.5175
॓	-12.5175
≥	-12.5175
✔	-12.5425
ம	-12.5425
ி	-12.5682
ー	-12.5945
꣣	-12.5945
ે	-12.6215
ா	-12.6215
ി	-12.6215
ു	-12.6493
‡	-12.6493
⇒	-12.6493
🔊	-12.6493
த	-12.6493
á	-12.6779
î	-12.6779
¥	-12.7073
ñ	-12.7073
꣡	-12.7376
ن	-12.7376
¢	-12.7376
ó	-12.7688
Ž	-12.7688
🙂	-12.7688
ர	-12.7688
⁄	-12.8011
©	-12.8011
м	-12.8011
🇳	-12.8011
🪔	-12.8011
ത	-12.8011
§	-12.8344
у	-12.8344
я	-12.8344
ر	-12.8344
م	-12.8344
ऄ	-12.8344
ો	-12.8344
ي	-12.8344
ṇ	-12.8344
જ	-12.8344
і	-12.8689
【	-12.8689
к	-12.9046
་	-12.9046
🚩	-12.9046
ˆ	-12.9046
ı	-12.9416
🌷	-12.9416
б	-12.9801
й	-12.9801
್	-12.9801
】	-12.9801
ऺ	-12.9801
ç	-13.0201
¤	-13.0201
̥	-13.0201
語	-13.0201
í	-13.0201
ક	-13.0201
ര	-13.0201
🌹	-13.0201
ய	-13.0201
വ	-13.0201
ு	-13.0618
י	-13.1052
ત	-13.1052
ப	-13.1052
வ	-13.1052
વ	-13.1052
г	-13.1507
Î	-13.1507
з	-13.1507
આ	-13.1507
ː	-13.1507
্	-13.1507
പ	-13.1983
à	-13.1983
è	-13.1983
ˈ	-13.1983
ં	-13.2483
મ	-13.2483
ം	-13.2483
െ	-13.2483
ᳪ	-13.2483
া	-13.2483
સ	-13.2483
ട	-13.2483
س	-13.301
Ó	-13.301
د	-13.301
ந	-13.301
❌	-13.301
க	-13.301
ц	-13.3565
യ	-13.3565
®	-13.3565
ন	-13.3565
ನ	-13.3565
✅	-13.3565
п	-13.3565
ன	-13.3565
ऒ	-13.3565
ങ	-13.4153
ه	-13.4153
ತ	-13.4153
ṭ	-13.4153
ع	-13.4153
മ	-13.4153
い	-13.4153
બ	-13.4778
ö	-13.4778
પ	-13.4778
ṛ	-13.4778
†	-13.4778
🔥	-13.4778
х	-13.4778
ی	-13.4778
ಾ	-13.4778
ত	-13.4778
ல	-13.4778
ರ	-13.5445
ऻ	-13.5445
હ	-13.5445
â	-13.5445
ب	-13.5445
‹	-13.5445
⇄	-13.5445
🛑	-13.5445
അ	-13.5445
✍	-13.5445
ি	-13.5445
ɪ	-13.5445
ו	-13.6159
С	-13.6159
র	-13.6159
ച	-13.6159
ú	-13.6159
ж	-13.6159
ગ	-13.6159
ɑ	-13.6159
్	-13.6159
ಿ	-13.6159
᳭	-13.6159
ン	-13.6159
🌺	-13.6159
ല	-13.6159
μ	-13.6928
▲	-13.6928
❑	-13.6928
ы	-13.6928
¡	-13.6929
ï	-13.6929
̊	-13.6929
॔	-13.6929
િ	-13.6929
⋙	-13.6929
■	-13.6929
📖	-13.6929
±	-13.6929
ş	-13.6929
🌞	-13.6929
ು	-13.7762
ദ	-13.7762
🕉	-13.7762
Ï	-13.7762
ł	-13.7762
و	-13.7762
ܘ	-13.7762
ય	-13.7762
➧	-13.7762
🏻	-13.7762
š	-13.7762
̈	-13.7762
ॡ	-13.7762
એ	-13.7762
છ	-13.7762
ോ	-13.7762
၊	-13.7762
✓	-13.7762
❤	-13.7762
ã	-13.7762
ম	-13.7762
М	-13.7762
语	-13.8671
ದ	-13.8671
ت	-13.8671
Б	-13.8671
α	-13.8671
ṃ	-13.8671
′	-13.8671
∠	-13.8671
◎	-13.8671
ヒ	-13.8671
ু	-13.8671
一	-13.8671
ה	-13.9671
ک	-13.9671
૧	-13.9671
அ	-13.9671
ಂ	-13.9671
ള	-13.9671
デ	-13.9671
ê	-13.9671
ю	-13.9671
ى	-13.9671
ి	-13.9671
ಲ	-13.9671
❯	-13.9671
し	-13.9671
マ	-13.9671
🌸	-13.9671
💐	-13.9671
😂	-13.9671
ক	-13.9671
。	-13.9671
の	-13.9671
দ	-13.9671
ʊ	-13.9671
ണ	-13.9671
א	-14.0782
ч	-14.0782
ర	-14.0782
¶	-14.0782
Þ	-14.0782
̃	-14.0782
ב	-14.0782
◌	-14.0782
İ	-14.0782
ం	-14.0782
న	-14.0782
ᄌ	-14.0782
◉	-14.0782
☝	-14.0782
➡	-14.0782
図	-14.0782
大	-14.0782
書	-14.0782
月	-14.0782
ʃ	-14.0782
ુ	-14.0782
ಸ	-14.0782
ḍ	-14.0782
ṁ	-14.0782
য	-14.0782
̣	-14.1988
Х	-14.2032
ר	-14.2032
ব	-14.2032
À	-14.2032
ટ	-14.2032
ಗ	-14.2032
റ	-14.2032
💮	-14.2032
🔱	-14.2032
È	-14.2032
щ	-14.2032
ش	-14.2032
ಕ	-14.2032
▶	-14.2032
◦	-14.2032
☆	-14.2032
⭐	-14.2032
か	-14.2032
ラ	-14.2032
增	-14.2032
전	-14.2032
😊	-14.2032
স	-14.2032
ে	-14.2032
શ	-14.2032
ழ	-14.2032
ವ	-14.2032
ল	-14.2032
̶	-14.2032
േ	-14.2032
೦	-14.2032
̇	-14.2325
ס	-14.3461
Ç	-14.3461
ശ	-14.3461
દ	-14.3461
వ	-14.3461
ý	-14.3461
ē	-14.3461
Š	-14.3461
П	-14.3461
ט	-14.3461
ਕ	-14.3461
ண	-14.3461
య	-14.3461
ు	-14.3461
ಯ	-14.3461
ೆ	-14.3461
സ	-14.3461
ൊ	-14.3461
∆	-14.3461
▪	-14.3461
♂	-14.3461
つ	-14.3461
テ	-14.3461
余	-14.3461
名	-14.3461
音	-14.3461
다	-14.3461
🔹	-14.3461
ॿ	-14.3461
થ	-14.3461
♥	-14.3461
Æ	-14.3461
Ü	-14.3461
ળ	-14.3461
ɛ	-14.3461
ো	-14.3461
ட	-14.3461
ெ	-14.3461
ಡ	-14.3461
お	-14.3461
আ	-14.3461
行	-14.5127
🌿	-14.5127
Д	-14.5127
ز	-14.5127
எ	-14.5127
ా	-14.5127
Ê	-14.5127
æ	-14.5127
π	-14.5127
Т	-14.5127
є	-14.5127
گ	-14.5127
ણ	-14.5127
ற	-14.5127
త	-14.5127
な	-14.5127
꣯	-14.5127
ĉ	-14.5127
̧	-14.5127
θ	-14.5127
מ	-14.5127
ح	-14.5127
ܬ	-14.5127
উ	-14.5127
ਾ	-14.5127
ભ	-14.5127
ಳ	-14.5127
എ	-14.5127
ധ	-14.5127
∴	-14.5127
パ	-14.5127
ル	-14.5127
사	-14.5127
🍃	-14.5127
🔅	-14.5127
ō	-14.5127
ž	-14.5127
В	-14.5127
ق	-14.5127
మ	-14.5127
ء	-14.5127
ோ	-14.5127
す	-14.5127
🌻	-14.5127
হ	-14.5127
年	-14.5127
ഷ	-14.7127
ל	-14.7127
シ	-14.7127
ズ	-14.7127
ż	-14.7127
♀	-14.7127
Ј	-14.7127
Н	-14.7127
জ	-14.7127
ਰ	-14.7127
ઉ	-14.7127
ି	-14.7127
ಮ	-14.7127
⛳	-14.7127
음	-14.7127
Œ	-14.7127
ೀ	-14.7127
🍁	-14.7127
Ş	-14.7127
ǁ	-14.7127
ς	-14.7127
φ	-14.7127
А	-14.7127
Р	-14.7127
ш	-14.7127
ة	-14.7127
ف	-14.7127
ہ	-14.7127
ੀ	-14.7127
ಪ	-14.7127
⇔	-14.7127
∫	-14.7127
⋆	-14.7127
▼	-14.7127
✳	-14.7127
❇	-14.7127
あ	-14.7127
く	-14.7127
ネ	-14.7127
亦	-14.7127
知	-14.7127
📚	-14.7127
🔗	-14.7127
🔶	-14.7127
😀	-14.7127
😃	-14.7127
😎	-14.7127
😞	-14.7127
😢	-14.7127
Û	-14.7127
Ā	-14.7127
э	-14.7127
۔	-14.7127
ە	-14.7127
থ	-14.7127
અ	-14.7127
ഗ	-14.7127
ജ	-14.7127
ས	-14.7127
ṅ	-14.7127
‒	-14.7127
🌄	-14.7127
প	-14.7127
ა	-14.7127
়	-14.7127
ˌ	-14.7127
リ	-14.9627
亲	-14.9627
ї	-14.9627
ρ	-14.9627
Ð	-14.9627
ધ	-14.9627
ഞ	-14.9627
国	-14.9627
ஶ	-14.9627
ß	-14.9627
פ	-14.9627
క	-14.9627
ഇ	-14.9627
と	-14.9627
十	-14.9627
可	-14.9627
如	-14.9627
尔	-14.9627
기	-14.9627
하	-14.9627
😜	-14.9627
Ì	-14.9627
ફ	-14.9627
લ	-14.9627
😳	-14.9627
ä	-14.9627
ø	-14.9627
Ō	-14.9627
ƒ	-14.9627
ǀ	-14.9627
Ι	-14.9627
β	-14.9627
ι	-14.9627
Ц	-14.9627
Э	-14.9627
ك	-14.9627
ܐ	-14.9627
ܒ	-14.9627
ܛ	-14.9627
ܪ	-14.9627
ਲ	-14.9627
ૐ	-14.9627
૦	-14.9627
૪	-14.9627
స	-14.9627
ആ	-14.9627
།	-14.9627
―	-14.9627
‰	-14.9627
※	-14.9627
≍	-14.9627
◄	-14.9627
♣	-14.9627
⛅	-14.9627
➛	-14.9627
➢	-14.9627
➤	-14.9627
た	-14.9627
ッ	-14.9627
义	-14.9627
人	-14.9627
何	-14.9627
僕	-14.9627
应	-14.9627
彼	-14.9627
愛	-14.9627
我	-14.9627
故	-14.9627
氣	-14.9627
觉	-14.9627
论	-14.9627
靈	-14.9627
낱	-14.9627
니	-14.9627
말	-14.9627
세	-14.9627
위	-14.9627
이	-14.9627
키	-14.9627
👇	-14.9627
🔍	-14.9627
😡	-14.9627
ę	-14.9627
œ	-14.9627
Δ	-14.9627
ή	-14.9627
᳖	-14.9627
⏳	-14.9627
👌	-14.9627
গ	-14.9627
ஜ	-14.9627
ഉ	-14.9627
っ	-14.9627
て	-14.9627
不	-14.9627
无	-14.9627
試	-14.9627
ì	-14.9627
̕	-14.9627
ئ	-14.9627
ܦ	-14.9627
இ	-14.9627
ஷ	-14.9627
ల	-14.9627
ொ	-14.9627
්	-14.9627
的	-14.9627
ô	-14.9627
ள	-14.9627
ʒ	-14.9627
ধ	-14.9627
母	-15.296
梵	-15.296
ɔ	-15.2961
ʏ	-15.2961
🤝	-15.2961
ਸ	-15.2961
ஸ	-15.2961
ಎ	-15.2961
ಶ	-15.2961
ğ	-15.2961
ಚ	-15.2961
Ã	-15.2961
õ	-15.2961
ř	-15.2961
Ÿ	-15.2961
У	-15.2961
ج	-15.2961
భ	-15.2961
ಉ	-15.2961
೨	-15.2961
↔	-15.2961
る	-15.2961
대	-15.2961
합	-15.2961
🌱	-15.2961
č	-15.2961
ě	-15.2961
Ψ	-15.2961
⃣	-15.2961
☀	-15.2961
京	-15.2961
🔔	-15.2961
¿	-15.2961
Á	-15.2961
Ö	-15.2961
ò	-15.2961
ć	-15.2961
į	-15.2961
δ	-15.2961
η	-15.2961
ν	-15.2961
ο	-15.2961
τ	-15.2961
З	-15.2961
И	-15.2961
Й	-15.2961
О	-15.2961
ג	-15.2961
ש	-15.2961
ת	-15.2961
آ	-15.2961
إ	-15.2961
پ	-15.2961
چ	-15.2961
ট	-15.2961
ৰ	-15.2961
ਮ	-15.2961
ੋ	-15.2961
੍	-15.2961
ઃ	-15.2961
ચ	-15.2961
ઞ	-15.2961
ડ	-15.2961
૯	-15.2961
ீ	-15.2961
ே	-15.2961
ಬ	-15.2961
ಹ	-15.2961
ഈ	-15.2961
ീ	-15.2961
ൾ	-15.2961
ව	-15.2961
ා	-15.2961
ག	-15.2961
ུ	-15.2961
ზ	-15.2961
ᄉ	-15.2961
ᅩ	-15.2961
ጻ	-15.2961
Ṛ	-15.2961
Ủ	-15.2961
∈	-15.2961
◇	-15.2961
✥	-15.2961
✴	-15.2961
➜	-15.2961
う	-15.2961
き	-15.2961
だ	-15.2961
ら	-15.2961
を	-15.2961
ア	-15.2961
コ	-15.2961
ス	-15.2961
タ	-15.2961
チ	-15.2961
ト	-15.2961
为	-15.2961
作	-15.2961
依	-15.2961
反	-15.2961
因	-15.2961
意	-15.2961
所	-15.2961
新	-15.2961
果	-15.2961
格	-15.2961
比	-15.2961
生	-15.2961
痛	-15.2961
発	-15.2961
相	-15.2961
能	-15.2961
说	-15.2961
诸	-15.2961
通	-15.2961
遣	-15.2961
量	-15.2961
非	-15.2961
颂	-15.2961
발	-15.2961
브	-15.2961
요	-15.2961
𑑂	-15.2961
🌉	-15.2961
🌟	-15.2961
🍀	-15.2961
👫	-15.2961
💕	-15.2961
🔐	-15.2961
🔸	-15.2961
😉	-15.2961
Â	-15.2961
κ	-15.2961
ং	-15.2961
≈	-15.2961
❁	-15.2961
🌙	-15.2961
😍	-15.2961
ð	-15.2961
ષ	-15.2961
ബ	-15.2961
გ	-15.2961
ი	-15.2961
ᛁ	-15.2961
ᛖ	-15.2961
ᴇ	-15.2961
成	-15.2961
期	-15.2961
用	-15.2961
者	-15.2961
自	-15.2961
間	-15.2961
機	-15.2961
释	-15.2961
ৱ	-15.2961
ർ	-15.2961
ය	-15.2961
ි	-15.2961
ま	-15.2961
🇵	-15.2961
ܣ	-15.2961
ක	-15.2961
ɜ	-15.2961
薩	-15.2961
ʁ	-15.2961
ླ	-15.796
χ	-15.796
Ἀ	-15.796
首	-15.796
נ	-15.7961
ী	-15.7961
ச	-15.7961
ൂ	-15.7961
バ	-15.7961
ロ	-15.7961
和	-15.7961
泊	-15.7961
祖	-15.7961
ė	-15.7961
ɒ	-15.7961
Ю	-15.7961
ܠ	-15.7961
ਪ	-15.7961
਼	-15.7961
ଆ	-15.7961
అ	-15.7961
ೇ	-15.7961
೪	-15.7961
五	-15.7961
代	-15.7961
小	-15.7961
白	-15.7961
页	-15.7961
𑐕	-15.7961
𑐮	-15.7961
𑐴	-15.7961
ṝ	-15.7961
《	-15.7961
プ	-15.7961
・	-15.7961
上	-15.7961
🍥	-15.7961
🐯	-15.7961
📝	-15.7961
Å	-15.7961
ù	-15.7961
ą	-15.7961
Ċ	-15.7961
ŋ	-15.7961
ư	-15.7961
ǒ	-15.7961
ǔ	-15.7961
ά	-15.7961
ό	-15.7961
І	-15.7961
К	-15.7961
Ф	-15.7961
Я	-15.7961
ф	-15.7961
ј	-15.7961
ү	-15.7961
ם	-15.7961
ן	-15.7961
ק	-15.7961
ص	-15.7961
ط	-15.7961
ً	-15.7961
٬	-15.7961
ڪ	-15.7961
ۆ	-15.7961
ۇ	-15.7961
ॾ	-15.7961
ই	-15.7961
ঘ	-15.7961
চ	-15.7961
ছ	-15.7961
ਅ	-15.7961
ਗ	-15.7961
ਤ	-15.7961
ਨ	-15.7961
ਬ	-15.7961
ਿ	-15.7961
ੇ	-15.7961
ੱ	-15.7961
ઈ	-15.7961
ઓ	-15.7961
ઠ	-15.7961
઼	-15.7961
ૂ	-15.7961
૨	-15.7961
૫	-15.7961
ପ	-15.7961
ଲ	-15.7961
ା	-15.7961
ஆ	-15.7961
డ	-15.7961
ద	-15.7961
ప	-15.7961
ె	-15.7961
ಃ	-15.7961
ಭ	-15.7961
ഛ	-15.7961
ഭ	-15.7961
ൈ	-15.7961
ൻ	-15.7961
ൽ	-15.7961
ද	-15.7961
ස	-15.7961
น	-15.7961
ิ	-15.7961
ལ	-15.7961
ཧ	-15.7961
ཱ	-15.7961
ྥ	-15.7961
ᆬ	-15.7961
ሕ	-15.7961
ብ	-15.7961
ዝ	-15.7961
ᛋ	-15.7961
ᛚ	-15.7961
᛫	-15.7961
᭭	-15.7961
ᳲ	-15.7961
ḏ	-15.7961
ắ	-15.7961
∅	-15.7961
≠	-15.7961
≡	-15.7961
≦	-15.7961
▷	-15.7961
◊	-15.7961
☑	-15.7961
☘	-15.7961
☰	-15.7961
♡	-15.7961
♫	-15.7961
⚫	-15.7961
✌	-15.7961
✒	-15.7961
✧	-15.7961
✨	-15.7961
✺	-15.7961
❣	-15.7961
➥	-15.7961
⦁	-15.7961
、	-15.7961
》	-15.7961
」	-15.7961
が	-15.7961
さ	-15.7961
に	-15.7961
ひ	-15.7961
み	-15.7961
む	-15.7961
め	-15.7961
も	-15.7961
や	-15.7961
ん	-15.7961
ジ	-15.7961
ボ	-15.7961
三	-15.7961
了	-15.7961
事	-15.7961
于	-15.7961
从	-15.7961
伟	-15.7961
修	-15.7961
全	-15.7961
八	-15.7961
具	-15.7961
切	-15.7961
加	-15.7961
北	-15.7961
卐	-15.7961
印	-15.7961
各	-15.7961
合	-15.7961
吗	-15.7961
员	-15.7961
哲	-15.7961
哷	-15.7961
地	-15.7961
堂	-15.7961
声	-15.7961
天	-15.7961
奪	-15.7961
好	-15.7961
存	-15.7961
安	-15.7961
尼	-15.7961
广	-15.7961
度	-15.7961
当	-15.7961
方	-15.7961
显	-15.7961
普	-15.7961
晴	-15.7961
更	-15.7961
東	-15.7961
械	-15.7961
此	-15.7961
然	-15.7961
猫	-15.7961
球	-15.7961
理	-15.7961
由	-15.7961
益	-15.7961
研	-15.7961
程	-15.7961
第	-15.7961
素	-15.7961
而	-15.7961
许	-15.7961
身	-15.7961
都	-15.7961
감	-15.7961
공	-15.7961
교	-15.7961
급	-15.7961
두	-15.7961
듬	-15.7961
라	-15.7961
리	-15.7961
민	-15.7961
비	-15.7961
서	-15.7961
성	-15.7961
슈	-15.7961
신	-15.7961
아	-15.7961
어	-15.7961
영	-15.7961
예	-15.7961
완	-15.7961
의	-15.7961
인	-15.7961
좀	-15.7961
주	-15.7961
학	-15.7961
한	-15.7961
히	-15.7961
𑐎	-15.7961
𑐫	-15.7961
𑐵	-15.7961
𑑄	-15.7961
𑑅	-15.7961
🌈	-15.7961
🌏	-15.7961
🎉	-15.7961
🎖	-15.7961
👈	-15.7961
👍	-15.7961
👏	-15.7961
👨	-15.7961
👴	-15.7961
💄	-15.7961
💏	-15.7961
💔	-15.7961
💛	-15.7961
💥	-15.7961
📌	-15.7961
📎	-15.7961
📰	-15.7961
🔰	-15.7961
😄	-15.7961
😅	-15.7961
😒	-15.7961
🙍	-15.7961
🥇	-15.7961
🩸	-15.7961
🎯	-15.7961
Ú	-15.7961
̆	-15.7961
ର	-15.7961
六	-15.7961
로	-15.7961
👩	-15.7961
😘	-15.7961
🥀	-15.7961
Ò	-15.7961
ɡ	-15.7961
ע	-15.7961
ଓ	-15.7961
ଡ	-15.7961
଼	-15.7961
శ	-15.7961
ഥ	-15.7961
ང	-15.7961
མ	-15.7961
外	-15.7961
异	-15.7961
有	-15.7961
立	-15.7961
🌼	-15.7961
أ	-15.7961
「	-15.7961
ε	-15.7961
غ	-15.7961
খ	-15.7961
ഹ	-15.7961
པ	-15.7961
よ	-15.7961
婆	-15.7961
🇦	-15.7961
🇺	-15.7961
ཐ	-15.7961
ཡ	-15.7961
间	-15.7961
整	-15.7961
ィ	-16.7954
∕	-16.7955
♦	-16.7956
🇮	-16.7957
❍	-16.7958
‖	-16.7959
བ	-16.796
ཟ	-16.796
̐	-16.796
ᮩ	-16.796
⛹	-16.796
グ	-16.796
副	-16.796
少	-16.796
运	-16.796
飞	-16.796
☁	-16.796
ń	-16.796
ʉ	-16.796
ω	-16.796
ҫ	-16.796
؞	-16.796
ِ	-16.796
ܚ	-16.796
ઝ	-16.796
೧	-16.796
᭠	-16.796
执	-16.796
是	-16.796
永	-16.796
続	-16.796
闻	-16.796
韩	-16.796
녹	-16.796
𑑀	-16.796
Ī	-16.7961
Ķ	-16.7961
ť	-16.7961
Ż	-16.7961
Ά	-16.7961
ў	-16.7961
ڼ	-16.7961
ᱧ	-16.7961
♻	-16.7961
中	-16.7961
句	-16.7961
🌀	-16.7961
🌠	-16.7961
🎎	-16.7961
🎤	-16.7961
🎼	-16.7961
Õ	-16.7961
å	-16.7961
ë	-16.7961
û	-16.7961
þ	-16.7961
ÿ	-16.7961
ă	-16.7961
Ŏ	-16.7961
Ů	-16.7961
ų	-16.7961
ȧ	-16.7961
ȯ	-16.7961
ʈ	-16.7961
ʋ	-16.7961
ʌ	-16.7961
ʟ	-16.7961
ʿ	-16.7961
ˎ	-16.7961
ˑ	-16.7961
̍	-16.7961
̖	-16.7961
̠	-16.7961
̪	-16.7961
Κ	-16.7961
Μ	-16.7961
Ο	-16.7961
Σ	-16.7961
Φ	-16.7961
Ω	-16.7961
Е	-16.7961
Л	-16.7961
Ч	-16.7961
ё	-16.7961
ә	-16.7961
Ө	-16.7961
Ե	-16.7961
Կ	-16.7961
Հ	-16.7961
ա	-16.7961
ե	-16.7961
ն	-16.7961
ր	-16.7961
ւ	-16.7961
ַ	-16.7961
ד	-16.7961
כ	-16.7961
ף	-16.7961
ײ	-16.7961
خ	-16.7961
ُ	-16.7961
٫	-16.7961
ٰ	-16.7961
ٹ	-16.7961
ټ	-16.7961
ڌ	-16.7961
ں	-16.7961
ۂ	-16.7961
ܕ	-16.7961
ܟ	-16.7961
ॱ	-16.7961
ॵ	-16.7961
ॺ	-16.7961
ॼ	-16.7961
এ	-16.7961
ঠ	-16.7961
ড	-16.7961
ঢ	-16.7961
ণ	-16.7961
ৃ	-16.7961
০	-16.7961
৩	-16.7961
৭	-16.7961
ਂ	-16.7961
ਇ	-16.7961
ਊ	-16.7961
ਏ	-16.7961
ਖ	-16.7961
ਜ	-16.7961
ਟ	-16.7961
ਡ	-16.7961
ਣ	-16.7961
ਦ	-16.7961
ੁ	-16.7961
ੂ	-16.7961
ੰ	-16.7961
ખ	-16.7961
ૃ	-16.7961
ૠ	-16.7961
૩	-16.7961
૬	-16.7961
૭	-16.7961
૮	-16.7961
ଃ	-16.7961
କ	-16.7961
ଖ	-16.7961
ତ	-16.7961
ଭ	-16.7961
େ	-16.7961
୍	-16.7961
ୟ	-16.7961
ஐ	-16.7961
ஹ	-16.7961
ூ	-16.7961
ை	-16.7961
ఉ	-16.7961
ఎ	-16.7961
ఓ	-16.7961
చ	-16.7961
జ	-16.7961
ధ	-16.7961
ష	-16.7961
హ	-16.7961
ే	-16.7961
ై	-16.7961
ో	-16.7961
ಅ	-16.7961
ಇ	-16.7961
ಜ	-16.7961
ಟ	-16.7961
ಠ	-16.7961
ೂ	-16.7961
ೃ	-16.7961
ೊ	-16.7961
ೋ	-16.7961
೩	-16.7961
ೲ	-16.7961
ഖ	-16.7961
ഠ	-16.7961
ഴ	-16.7961
ൃ	-16.7961
ග	-16.7961
ත	-16.7961
ප	-16.7961
ල	-16.7961
ค	-16.7961
ง	-16.7961
ด	-16.7961
ต	-16.7961
บ	-16.7961
พ	-16.7961
ฟ	-16.7961
ม	-16.7961
ร	-16.7961
ห	-16.7961
อ	-16.7961
ฮ	-16.7961
ั	-16.7961
า	-16.7961
ี	-16.7961
เ	-16.7961
โ	-16.7961
่	-16.7961
้	-16.7961
༔	-16.7961
༡	-16.7961
༣	-16.7961
༨	-16.7961
ཁ	-16.7961
ཊ	-16.7961
ན	-16.7961
ཚ	-16.7961
ཝ	-16.7961
ཥ	-16.7961
ི	-16.7961
ྒ	-16.7961
ྨ	-16.7961
ྭ	-16.7961
ྲ	-16.7961
ე	-16.7961
თ	-16.7961
ლ	-16.7961
ნ	-16.7961
ს	-16.7961
უ	-16.7961
ሉ	-16.7961
ሩ	-16.7961
በ	-16.7961
ቮ	-16.7961
እ	-16.7961
ኳ	-16.7961
ገ	-16.7961
ፂ	-16.7961
ፃ	-16.7961
፪	-16.7961
ᒃ	-16.7961
ᒄ	-16.7961
ᒎ	-16.7961
ᓚ	-16.7961
ᗢ	-16.7961
ᘏ	-16.7961
ᚨ	-16.7961
ᚩ	-16.7961
ᚻ	-16.7961
ᚾ	-16.7961
ᛏ	-16.7961
ᛗ	-16.7961
ᛞ	-16.7961
ᭅ	-16.7961
᮰	-16.7961
Ჱ	-16.7961
ᳬ	-16.7961
ᴀ	-16.7961
Ḩ	-16.7961
ế	-16.7961
ệ	-16.7961
ὁ	-16.7961
ὸ	-16.7961
ῖ	-16.7961
₩	-16.7961
↓	-16.7961
↕	-16.7961
↗	-16.7961
↩	-16.7961
↲	-16.7961
⇏	-16.7961
∖	-16.7961
∙	-16.7961
∝	-16.7961
∩	-16.7961
∵	-16.7961
⊂	-16.7961
⊃	-16.7961
⊕	-16.7961
▀	-16.7961
□	-16.7961
△	-16.7961
☸	-16.7961
☹	-16.7961
☺	-16.7961
♈	-16.7961
♉	-16.7961
⚏	-16.7961
⚕	-16.7961
⚡	-16.7961
⚪	-16.7961
⛈	-16.7961
✖	-16.7961
✦	-16.7961
✪	-16.7961
✹	-16.7961
✼	-16.7961
✿	-16.7961
❗	-16.7961
➖	-16.7961
➞	-16.7961
➦	-16.7961
➨	-16.7961
⟶	-16.7961
⟷	-16.7961
⠀	-16.7961
⭕	-16.7961
〈	-16.7961
け	-16.7961
ち	-16.7961
で	-16.7961
ど	-16.7961
ゃ	-16.7961
れ	-16.7961
イ	-16.7961
エ	-16.7961
オ	-16.7961
ク	-16.7961
セ	-16.7961
ゼ	-16.7961
ツ	-16.7961
ナ	-16.7961
ノ	-16.7961
ピ	-16.7961
ポ	-16.7961
ャ	-16.7961
ョ	-16.7961
七	-16.7961
与	-16.7961
世	-16.7961
习	-16.7961
乱	-16.7961
二	-16.7961
互	-16.7961
仕	-16.7961
份	-16.7961
休	-16.7961
位	-16.7961
你	-16.7961
使	-16.7961
個	-16.7961
倒	-16.7961
健	-16.7961
元	-16.7961
入	-16.7961
其	-16.7961
円	-16.7961
册	-16.7961
决	-16.7961
出	-16.7961
列	-16.7961
别	-16.7961
到	-16.7961
助	-16.7961
化	-16.7961
卍	-16.7961
南	-16.7961
叉	-16.7961
发	-16.7961
口	-16.7961
同	-16.7961
后	-16.7961
吥	-16.7961
吸	-16.7961
告	-16.7961
咒	-16.7961
哉	-16.7961
哥	-16.7961
唯	-16.7961
喝	-16.7961
嘅	-16.7961
器	-16.7961
四	-16.7961
固	-16.7961
國	-16.7961
域	-16.7961
報	-16.7961
境	-16.7961
处	-16.7961
复	-16.7961
多	-16.7961
夜	-16.7961
夢	-16.7961
奖	-16.7961
威	-16.7961
学	-16.7961
官	-16.7961
定	-16.7961
宦	-16.7961
寝	-16.7961
尊	-16.7961
属	-16.7961
岂	-16.7961
工	-16.7961
师	-16.7961
席	-16.7961
常	-16.7961
废	-16.7961
康	-16.7961
廬	-16.7961
引	-16.7961
弥	-16.7961
影	-16.7961
得	-16.7961
徹	-16.7961
忘	-16.7961
念	-16.7961
性	-16.7961
惑	-16.7961
憶	-16.7961
投	-16.7961
摩	-16.7961
收	-16.7961
政	-16.7961
效	-16.7961
日	-16.7961
星	-16.7961
最	-16.7961
朝	-16.7961
杂	-16.7961
某	-16.7961
染	-16.7961
查	-16.7961
栄	-16.7961
检	-16.7961
模	-16.7961
権	-16.7961
款	-16.7961
止	-16.7961
民	-16.7961
汇	-16.7961
没	-16.7961
流	-16.7961
消	-16.7961
灭	-16.7961
熟	-16.7961
父	-16.7961
牙	-16.7961
现	-16.7961
班	-16.7961
發	-16.7961
直	-16.7961
破	-16.7961
秘	-16.7961
稱	-16.7961
究	-16.7961
章	-16.7961
答	-16.7961
类	-16.7961
紅	-16.7961
終	-16.7961
網	-16.7961
繁	-16.7961
肉	-16.7961
花	-16.7961
若	-16.7961
英	-16.7961
茶	-16.7961
葬	-16.7961
處	-16.7961
蛟	-16.7961
蝶	-16.7961
衆	-16.7961
见	-16.7961
视	-16.7961
解	-16.7961
言	-16.7961
記	-16.7961
訳	-16.7961
論	-16.7961
讓	-16.7961
讨	-16.7961
话	-16.7961
贪	-16.7961
越	-16.7961
足	-16.7961
車	-16.7961
转	-16.7961
辦	-16.7961
达	-16.7961
过	-16.7961
返	-16.7961
進	-16.7961
那	-16.7961
金	-16.7961
鉄	-16.7961
错	-16.7961
长	-16.7961
除	-16.7961
陸	-16.7961
障	-16.7961
雨	-16.7961
電	-16.7961
面	-16.7961
響	-16.7961
願	-16.7961
须	-16.7961
飲	-16.7961
龙	-16.7961
꣫	-16.7961
ꣲ	-16.7961
가	-16.7961
간	-16.7961
개	-16.7961
게	-16.7961
고	-16.7961
과	-16.7961
국	-16.7961
금	-16.7961
깨	-16.7961
나	-16.7961
냐	-16.7961
는	-16.7961
달	-16.7961
동	-16.7961
따	-16.7961
뜨	-16.7961
락	-16.7961
레	-16.7961
력	-16.7961
름	-16.7961
만	-16.7961
망	-16.7961
맵	-16.7961
몸	-16.7961
못	-16.7961
뭐	-16.7961
받	-16.7961
백	-16.7961
번	-16.7961
법	-16.7961
봇	-16.7961
산	-16.7961
상	-16.7961
수	-16.7961
술	-16.7961
쉬	-16.7961
스	-16.7961
승	-16.7961
시	-16.7961
없	-16.7961
에	-16.7961
염	-16.7961
외	-16.7961
우	-16.7961
운	-16.7961
월	-16.7961
을	-16.7961
임	-16.7961
입	-16.7961
있	-16.7961
자	-16.7961
적	-16.7961
절	-16.7961
정	-16.7961
조	-16.7961
중	-16.7961
증	-16.7961
지	-16.7961
째	-16.7961
청	-16.7961
크	-16.7961
탄	-16.7961
탑	-16.7961
터	-16.7961
트	-16.7961
특	-16.7961
팅	-16.7961
함	-16.7961
허	-16.7961
힌	-16.7961
힘	-16.7961
︎	-16.7961
𑆤	-16.7961
𑌏	-16.7961
𑌥	-16.7961
𑌫	-16.7961
𑌮	-16.7961
𑌸	-16.7961
𑐰	-16.7961
🅰	-16.7961
🇸	-16.7961
🇹	-16.7961
🌅	-16.7961
🌍	-16.7961
🌎	-16.7961
🌖	-16.7961
🌛	-16.7961
🌝	-16.7961
🌰	-16.7961
🌴	-16.7961
🍋	-16.7961
🍾	-16.7961
🎂	-16.7961
🎃	-16.7961
🎊	-16.7961
🎋	-16.7961
🎵	-16.7961
🎶	-16.7961
🏀	-16.7961
🏃	-16.7961
🏏	-16.7961
🏠	-16.7961
🏮	-16.7961
🏷	-16.7961
🏹	-16.7961
🏽	-16.7961
🐕	-16.7961
🐙	-16.7961
👆	-16.7961
👞	-16.7961
👣	-16.7961
👦	-16.7961
👧	-16.7961
💑	-16.7961
💓	-16.7961
💖	-16.7961
💗	-16.7961
💘	-16.7961
💚	-16.7961
💝	-16.7961
💠	-16.7961
💦	-16.7961
💧	-16.7961
💫	-16.7961
💰	-16.7961
💱	-16.7961
💵	-16.7961
📂	-16.7961
📏	-16.7961
📕	-16.7961
📢	-16.7961
📣	-16.7961
📱	-16.7961
📳	-16.7961
📸	-16.7961
📺	-16.7961
🔟	-16.7961
🔷	-16.7961
🔺	-16.7961
🖊	-16.7961
🖱	-16.7961
🗃	-16.7961
🗒	-16.7961
😇	-16.7961
😌	-16.7961
😔	-16.7961
😝	-16.7961
😩	-16.7961
🙁	-16.7961
🙅	-16.7961
🙆	-16.7961
🙌	-16.7961
🙎	-16.7961
🚑	-16.7961
🚷	-16.7961
🤔	-16.7961
🤗	-16.7961
🤦	-16.7961
🤩	-16.7961
🤲	-16.7961
🥂	-16.7961
🦂	-16.7961
🧐	-16.7961
🧜	-16.7961
ζ	-16.7961
É	-16.7961
Ë	-16.7961
ĕ	-16.7961
Ǒ	-16.7961
Ȩ	-16.7961
ھ	-16.7961
᳒	-16.7961
ソ	-16.7961
介	-16.7961
划	-16.7961
感	-16.7961
改	-16.7961
添	-16.7961
简	-16.7961
计	-16.7961
追	-16.7961
더	-16.7961
파	-16.7961
효	-16.7961
🎓	-16.7961
👱	-16.7961
🕔	-16.7961
🗣	-16.7961
🗳	-16.7961
🛡	-16.7961
🤪	-16.7961
🥰	-16.7961
Ę	-16.7961
ذ	-16.7961
ষ	-16.7961
ఫ	-16.7961
ශ	-16.7961
ྀ	-16.7961
ྱ	-16.7961
ὕ	-16.7961
げ	-16.7961
利	-16.7961
字	-16.7961
戻	-16.7961
文	-16.7961
求	-16.7961
疆	-16.7961
离	-16.7961
维	-16.7961
西	-16.7961
观	-16.7961
🌃	-16.7961
🔻	-16.7961
צ	-16.7961
න	-16.7961
ම	-16.7961
ො	-16.7961
დ	-16.7961
ვ	-16.7961
რ	-16.7961
ც	-16.7961
ご	-16.7961
ざ	-16.7961
は	-16.7961
表	-16.7961
逝	-16.7961
阿	-16.7961
🇱	-16.7961
ŏ	-16.7961
ʻ	-16.7961
孕	-16.7961
时	-16.7961
