[UNK]	0
[CLS]	1
[SEP]	2
[PAD]	3
[MASK]	4
!	5
"	6
#	7
$	8
%	9
&	10
'	11
(	12
)	13
*	14
+	15
,	16
-	17
.	18
/	19
0	20
1	21
2	22
3	23
4	24
5	25
6	26
7	27
8	28
9	29
:	30
;	31
<	32
=	33
>	34
?	35
@	36
[	37
\	38
]	39
^	40
_	41
a	42
b	43
c	44
d	45
e	46
f	47
g	48
h	49
i	50
j	51
k	52
l	53
m	54
n	55
o	56
p	57
q	58
r	59
s	60
t	61
u	62
v	63
w	64
x	65
y	66
z	67
{	68
}	69
~	70
¡	71
¢	72
£	73
¤	74
¥	75
¦	76
§	77
©	78
¬	79
®	80
°	81
±	82
¶	83
·	84
¿	85
×	86
ß	87
à	88
á	89
â	90
ã	91
ä	92
å	93
æ	94
ç	95
è	96
é	97
ê	98
ë	99
ì	100
í	101
î	102
ï	103
ð	104
ñ	105
ò	106
ó	107
ô	108
õ	109
ö	110
÷	111
ø	112
ù	113
ú	114
û	115
ü	116
ý	117
þ	118
ÿ	119
ā	120
ă	121
ą	122
ć	123
ĉ	124
ċ	125
č	126
ē	127
ĕ	128
ė	129
ę	130
ě	131
ğ	132
ī	133
į	134
ı	135
ķ	136
ł	137
ń	138
ŋ	139
ō	140
ŏ	141
œ	142
ř	143
ś	144
ş	145
š	146
ť	147
ū	148
ů	149
ų	150
ż	151
ž	152
ƒ	153
ư	154
ǀ	155
ǁ	156
ǒ	157
ǔ	158
ȧ	159
ȩ	160
ȯ	161
ɑ	162
ɒ	163
ɔ	164
ə	165
ɛ	166
ɜ	167
ɡ	168
ɪ	169
ʁ	170
ʃ	171
ʈ	172
ʉ	173
ʊ	174
ʋ	175
ʌ	176
ʏ	177
ʒ	178
ʟ	179
ʻ	180
ʼ	181
ʿ	182
ˆ	183
ˈ	184
ˌ	185
ˎ	186
ː	187
ˑ	188
́	189
̃	190
̄	191
̆	192
̇	193
̈	194
̊	195
̍	196
̐	197
̕	198
̖	199
̠	200
̣	201
̥	202
̧	203
̪	204
̶	205
ά	206
ή	207
α	208
β	209
δ	210
ε	211
ζ	212
η	213
θ	214
ι	215
κ	216
μ	217
ν	218
ο	219
π	220
ρ	221
ς	222
σ	223
τ	224
φ	225
χ	226
ψ	227
ω	228
ό	229
а	230
б	231
в	232
г	233
д	234
е	235
ж	236
з	237
и	238
й	239
к	240
л	241
м	242
н	243
о	244
п	245
р	246
с	247
т	248
у	249
ф	250
х	251
ц	252
ч	253
ш	254
щ	255
ы	256
ь	257
э	258
ю	259
я	260
ё	261
є	262
і	263
ї	264
ј	265
ў	266
ҫ	267
ү	268
ә	269
ө	270
ա	271
ե	272
կ	273
հ	274
ն	275
ր	276
ւ	277
ַ	278
א	279
ב	280
ג	281
ד	282
ה	283
ו	284
ט	285
י	286
כ	287
ל	288
ם	289
מ	290
ן	291
נ	292
ס	293
ע	294
ף	295
פ	296
צ	297
ק	298
ר	299
ש	300
ת	301
ײ	302
؞	303
ء	304
آ	305
أ	306
إ	307
ئ	308
ا	309
ب	310
ة	311
ت	312
ج	313
ح	314
خ	315
د	316
ذ	317
ر	318
ز	319
س	320
ش	321
ص	322
ط	323
ع	324
غ	325
ف	326
ق	327
ك	328
ل	329
م	330
ن	331
ه	332
و	333
ى	334
ي	335
ً	336
ُ	337
ِ	338
٫	339
٬	340
ٰ	341
ٹ	342
ټ	343
پ	344
چ	345
ڌ	346
ک	347
ڪ	348
گ	349
ں	350
ڼ	351
ھ	352
ہ	353
ۂ	354
ۆ	355
ۇ	356
ی	357
۔	358
ە	359
ܐ	360
ܒ	361
ܕ	362
ܘ	363
ܚ	364
ܛ	365
ܟ	366
ܠ	367
ܣ	368
ܦ	369
ܪ	370
ܬ	371
ँ	372
ं	373
ः	374
ऄ	375
अ	376
आ	377
इ	378
ई	379
उ	380
ऊ	381
ऋ	382
ऌ	383
ऍ	384
ऎ	385
ए	386
ऐ	387
ऑ	388
ऒ	389
ओ	390
औ	391
क	392
ख	393
ग	394
घ	395
ङ	396
च	397
छ	398
ज	399
झ	400
ञ	401
ट	402
ठ	403
ड	404
ढ	405
ण	406
त	407
थ	408
द	409
ध	410
न	411
ऩ	412
प	413
फ	414
ब	415
भ	416
म	417
य	418
र	419
ऱ	420
ल	421
ळ	422
ऴ	423
व	424
श	425
ष	426
स	427
ह	428
ऺ	429
ऻ	430
़	431
ऽ	432
ा	433
ि	434
ी	435
ु	436
ू	437
ृ	438
ॄ	439
ॅ	440
ॆ	441
े	442
ै	443
ॉ	444
ॊ	445
ो	446
ौ	447
्	448
ॐ	449
॑	450
॒	451
॓	452
॔	453
ॠ	454
ॡ	455
ॢ	456
।	457
॥	458
०	459
१	460
२	461
३	462
४	463
५	464
६	465
७	466
८	467
९	468
॰	469
ॱ	470
ॵ	471
ॺ	472
ॼ	473
ॾ	474
ॿ	475
ং	476
আ	477
ই	478
উ	479
এ	480
ক	481
খ	482
গ	483
ঘ	484
চ	485
ছ	486
জ	487
ট	488
ঠ	489
ড	490
ঢ	491
ণ	492
ত	493
থ	494
দ	495
ধ	496
ন	497
প	498
ব	499
ম	500
য	501
র	502
ল	503
ষ	504
স	505
হ	506
়	507
া	508
ি	509
ী	510
ু	511
ৃ	512
ে	513
ো	514
্	515
০	516
৩	517
৭	518
ৰ	519
ৱ	520
৷	521
ਂ	522
ਅ	523
ਇ	524
ਊ	525
ਏ	526
ਕ	527
ਖ	528
ਗ	529
ਜ	530
ਟ	531
ਡ	532
ਣ	533
ਤ	534
ਦ	535
ਨ	536
ਪ	537
ਬ	538
ਮ	539
ਰ	540
ਲ	541
ਸ	542
਼	543
ਾ	544
ਿ	545
ੀ	546
ੁ	547
ੂ	548
ੇ	549
ੋ	550
੍	551
ੰ	552
ੱ	553
ં	554
ઃ	555
અ	556
આ	557
ઈ	558
ઉ	559
એ	560
ઓ	561
ક	562
ખ	563
ગ	564
ચ	565
છ	566
જ	567
ઝ	568
ઞ	569
ટ	570
ઠ	571
ડ	572
ણ	573
ત	574
થ	575
દ	576
ધ	577
ન	578
પ	579
ફ	580
બ	581
ભ	582
મ	583
ય	584
ર	585
લ	586
ળ	587
વ	588
શ	589
ષ	590
સ	591
હ	592
઼	593
ા	594
િ	595
ી	596
ુ	597
ૂ	598
ૃ	599
ે	600
ો	601
્	602
ૐ	603
ૠ	604
૦	605
૧	606
૨	607
૩	608
૪	609
૫	610
૬	611
૭	612
૮	613
૯	614
ଃ	615
ଆ	616
ଓ	617
କ	618
ଖ	619
ଡ	620
ତ	621
ପ	622
ଭ	623
ର	624
ଲ	625
଼	626
ା	627
ି	628
େ	629
୍	630
ୟ	631
அ	632
ஆ	633
இ	634
உ	635
எ	636
ஐ	637
க	638
ச	639
ஜ	640
ட	641
ண	642
த	643
ந	644
ன	645
ப	646
ம	647
ய	648
ர	649
ற	650
ல	651
ள	652
ழ	653
வ	654
ஶ	655
ஷ	656
ஸ	657
ஹ	658
ா	659
ி	660
ீ	661
ு	662
ூ	663
ெ	664
ே	665
ை	666
ொ	667
ோ	668
்	669
ం	670
అ	671
ఉ	672
ఎ	673
ఓ	674
క	675
చ	676
జ	677
డ	678
త	679
ద	680
ధ	681
న	682
ప	683
ఫ	684
భ	685
మ	686
య	687
ర	688
ల	689
వ	690
శ	691
ష	692
స	693
హ	694
ా	695
ి	696
ు	697
ె	698
ే	699
ై	700
ో	701
్	702
ಂ	703
ಃ	704
ಅ	705
ಇ	706
ಉ	707
ಎ	708
ಕ	709
ಗ	710
ಚ	711
ಜ	712
ಟ	713
ಠ	714
ಡ	715
ತ	716
ದ	717
ನ	718
ಪ	719
ಬ	720
ಭ	721
ಮ	722
ಯ	723
ರ	724
ಲ	725
ಳ	726
ವ	727
ಶ	728
ಸ	729
ಹ	730
ಾ	731
ಿ	732
ೀ	733
ು	734
ೂ	735
ೃ	736
ೆ	737
ೇ	738
ೊ	739
ೋ	740
್	741
೦	742
೧	743
೨	744
೩	745
೪	746
ೲ	747
ം	748
അ	749
ആ	750
ഇ	751
ഈ	752
ഉ	753
എ	754
ക	755
ഖ	756
ഗ	757
ങ	758
ച	759
ഛ	760
ജ	761
ഞ	762
ട	763
ഠ	764
ണ	765
ത	766
ഥ	767
ദ	768
ധ	769
ന	770
പ	771
ബ	772
ഭ	773
മ	774
യ	775
ര	776
റ	777
ല	778
ള	779
ഴ	780
വ	781
ശ	782
ഷ	783
സ	784
ഹ	785
ാ	786
ി	787
ീ	788
ു	789
ൂ	790
ൃ	791
െ	792
േ	793
ൈ	794
ൊ	795
ോ	796
്	797
ൻ	798
ർ	799
ൽ	800
ൾ	801
ක	802
ග	803
ත	804
ද	805
න	806
ප	807
ම	808
ය	809
ල	810
ව	811
ශ	812
ස	813
්	814
ා	815
ි	816
ො	817
ค	818
ง	819
ด	820
ต	821
น	822
บ	823
พ	824
ฟ	825
ม	826
ร	827
ห	828
อ	829
ฮ	830
ั	831
า	832
ิ	833
ี	834
เ	835
โ	836
่	837
้	838
་	839
།	840
༔	841
༡	842
༣	843
༨	844
ཁ	845
ག	846
ང	847
ཊ	848
ཐ	849
ན	850
པ	851
བ	852
མ	853
ཚ	854
ཝ	855
ཟ	856
ཡ	857
ལ	858
ཥ	859
ས	860
ཧ	861
ཱ	862
ི	863
ུ	864
ྀ	865
ྒ	866
ྥ	867
ྨ	868
ྭ	869
ྱ	870
ྲ	871
ླ	872
၊	873
ა	874
გ	875
დ	876
ე	877
ვ	878
ზ	879
თ	880
ი	881
ლ	882
ნ	883
რ	884
ს	885
უ	886
ც	887
ჱ	888
ᄉ	889
ᄌ	890
ᅩ	891
ᆬ	892
ሉ	893
ሕ	894
ሩ	895
በ	896
ብ	897
ቮ	898
እ	899
ኳ	900
ዝ	901
ገ	902
ጻ	903
ፂ	904
ፃ	905
፪	906
ᒃ	907
ᒄ	908
ᒎ	909
ᓚ	910
ᗢ	911
ᘏ	912
ᚨ	913
ᚩ	914
ᚻ	915
ᚾ	916
ᛁ	917
ᛋ	918
ᛏ	919
ᛖ	920
ᛗ	921
ᛚ	922
ᛞ	923
᛫	924
ᭅ	925
᭠	926
᭭	927
ᮩ	928
᮰	929
ᱧ	930
᳒	931
᳖	932
᳘	933
᳚	934
ᳪ	935
ᳬ	936
᳭	937
ᳲ	938
ᴀ	939
ᴇ	940
ḍ	941
ḏ	942
ḥ	943
ḩ	944
ṁ	945
ṃ	946
ṅ	947
ṇ	948
ṛ	949
ṝ	950
ṣ	951
ṭ	952
ắ	953
ế	954
ệ	955
ủ	956
ἀ	957
ὁ	958
ὕ	959
ὸ	960
ῖ	961
‐	962
‒	963
―	964
‖	965
†	966
‡	967
•	968
‰	969
′	970
‹	971
›	972
※	973
⁄	974
₩	975
€	976
₹	977
⃣	978
←	979
↑	980
→	981
↓	982
↔	983
↕	984
↗	985
↩	986
↲	987
⇄	988
⇏	989
⇒	990
⇔	991
∅	992
∆	993
∈	994
−	995
∕	996
∖	997
∙	998
√	999
∝	1000
∠	1001
∩	1002
∫	1003
∴	1004
∵	1005
≈	1006
≍	1007
≠	1008
≡	1009
≤	1010
≥	1011
≦	1012
⊂	1013
⊃	1014
⊕	1015
⋆	1016
⋙	1017
⏳	1018
▀	1019
▁	1020
■	1021
□	1022
▪	1023
▲	1024
△	1025
▶	1026
▷	1027
►	1028
▼	1029
◄	1030
◆	1031
◇	1032
◉	1033
◊	1034
◌	1035
◎	1036
●	1037
◦	1038
☀	1039
☁	1040
★	1041
☆	1042
☑	1043
☘	1044
☝	1045
☰	1046
☸	1047
☹	1048
☺	1049
♀	1050
♂	1051
♈	1052
♉	1053
♡	1054
♣	1055
♥	1056
♦	1057
♫	1058
♻	1059
⚏	1060
⚕	1061
⚡	1062
⚪	1063
⚫	1064
⛅	1065
⛈	1066
⛳	1067
⛹	1068
✅	1069
✌	1070
✍	1071
✒	1072
✓	1073
✔	1074
✖	1075
✥	1076
✦	1077
✧	1078
✨	1079
✪	1080
✳	1081
✴	1082
✹	1083
✺	1084
✼	1085
✿	1086
❁	1087
❇	1088
❌	1089
❍	1090
❑	1091
❗	1092
❣	1093
❤	1094
❯	1095
➖	1096
➛	1097
➜	1098
➞	1099
➡	1100
➢	1101
➤	1102
➥	1103
➦	1104
➧	1105
➨	1106
⟶	1107
⟷	1108
⠀	1109
⦁	1110
⭐	1111
⭕	1112
、	1113
。	1114
〈	1115
《	1116
》	1117
「	1118
」	1119
【	1120
】	1121
あ	1122
い	1123
う	1124
お	1125
か	1126
が	1127
き	1128
く	1129
け	1130
げ	1131
ご	1132
さ	1133
ざ	1134
し	1135
す	1136
た	1137
だ	1138
ち	1139
っ	1140
つ	1141
て	1142
で	1143
と	1144
ど	1145
な	1146
に	1147
の	1148
は	1149
ひ	1150
ま	1151
み	1152
む	1153
め	1154
も	1155
ゃ	1156
や	1157
よ	1158
ら	1159
る	1160
れ	1161
を	1162
ん	1163
ア	1164
ィ	1165
イ	1166
エ	1167
オ	1168
ク	1169
グ	1170
コ	1171
シ	1172
ジ	1173
ス	1174
ズ	1175
セ	1176
ゼ	1177
ソ	1178
タ	1179
チ	1180
ッ	1181
ツ	1182
テ	1183
デ	1184
ト	1185
ナ	1186
ネ	1187
ノ	1188
バ	1189
パ	1190
ヒ	1191
ピ	1192
プ	1193
ボ	1194
ポ	1195
マ	1196
ャ	1197
ョ	1198
ラ	1199
リ	1200
ル	1201
ロ	1202
ン	1203
・	1204
ー	1205
一	1206
七	1207
三	1208
上	1209
不	1210
与	1211
世	1212
中	1213
为	1214
义	1215
习	1216
乱	1217
了	1218
事	1219
二	1220
于	1221
互	1222
五	1223
亦	1224
京	1225
亲	1226
人	1227
介	1228
从	1229
仕	1230
代	1231
份	1232
休	1233
伟	1234
位	1235
何	1236
余	1237
作	1238
你	1239
使	1240
依	1241
修	1242
個	1243
倒	1244
健	1245
僕	1246
元	1247
入	1248
全	1249
八	1250
六	1251
其	1252
具	1253
円	1254
册	1255
决	1256
出	1257
切	1258
划	1259
列	1260
利	1261
别	1262
到	1263
副	1264
加	1265
助	1266
化	1267
北	1268
十	1269
卍	1270
卐	1271
南	1272
印	1273
叉	1274
反	1275
发	1276
口	1277
句	1278
可	1279
各	1280
合	1281
同	1282
名	1283
后	1284
吗	1285
吥	1286
吸	1287
告	1288
员	1289
和	1290
咒	1291
哉	1292
哥	1293
哲	1294
哷	1295
唯	1296
喝	1297
嘅	1298
器	1299
四	1300
因	1301
図	1302
固	1303
国	1304
國	1305
地	1306
域	1307
堂	1308
報	1309
境	1310
增	1311
声	1312
处	1313
复	1314
外	1315
多	1316
夜	1317
夢	1318
大	1319
天	1320
奖	1321
奪	1322
好	1323
如	1324
威	1325
婆	1326
孕	1327
字	1328
存	1329
学	1330
安	1331
官	1332
定	1333
宦	1334
寝	1335
尊	1336
小	1337
少	1338
尔	1339
尼	1340
属	1341
岂	1342
工	1343
师	1344
席	1345
常	1346
年	1347
广	1348
应	1349
废	1350
度	1351
康	1352
廬	1353
异	1354
引	1355
弥	1356
当	1357
影	1358
彼	1359
得	1360
徹	1361
忘	1362
念	1363
性	1364
惑	1365
意	1366
愛	1367
感	1368
憶	1369
成	1370
我	1371
戻	1372
所	1373
执	1374
投	1375
摩	1376
收	1377
改	1378
政	1379
故	1380
效	1381
整	1382
文	1383
新	1384
方	1385
无	1386
日	1387
时	1388
星	1389
是	1390
显	1391
普	1392
晴	1393
更	1394
書	1395
最	1396
月	1397
有	1398
朝	1399
期	1400
杂	1401
東	1402
果	1403
某	1404
染	1405
查	1406
栄	1407
格	1408
械	1409
梵	1410
检	1411
模	1412
権	1413
機	1414
款	1415
止	1416
此	1417
母	1418
比	1419
民	1420
氣	1421
永	1422
求	1423
汇	1424
没	1425
泊	1426
流	1427
消	1428
添	1429
灭	1430
然	1431
熟	1432
父	1433
牙	1434
猫	1435
现	1436
班	1437
球	1438
理	1439
生	1440
用	1441
由	1442
疆	1443
痛	1444
発	1445
發	1446
白	1447
的	1448
益	1449
直	1450
相	1451
知	1452
研	1453
破	1454
祖	1455
离	1456
秘	1457
程	1458
稱	1459
究	1460
立	1461
章	1462
第	1463
答	1464
简	1465
类	1466
紅	1467
素	1468
終	1469
続	1470
網	1471
繁	1472
维	1473
者	1474
而	1475
肉	1476
能	1477
自	1478
花	1479
若	1480
英	1481
茶	1482
葬	1483
薩	1484
處	1485
蛟	1486
蝶	1487
衆	1488
行	1489
表	1490
西	1491
见	1492
观	1493
视	1494
觉	1495
解	1496
言	1497
記	1498
訳	1499
試	1500
語	1501
論	1502
讓	1503
计	1504
讨	1505
许	1506
论	1507
话	1508
语	1509
说	1510
诸	1511
贪	1512
越	1513
足	1514
身	1515
車	1516
转	1517
辦	1518
达	1519
过	1520
运	1521
返	1522
追	1523
通	1524
逝	1525
進	1526
遣	1527
那	1528
都	1529
释	1530
量	1531
金	1532
鉄	1533
错	1534
长	1535
間	1536
间	1537
闻	1538
阿	1539
除	1540
陸	1541
障	1542
雨	1543
電	1544
靈	1545
非	1546
面	1547
韩	1548
音	1549
響	1550
願	1551
页	1552
须	1553
颂	1554
飞	1555
飲	1556
首	1557
龙	1558
꣡	1559
꣢	1560
꣣	1561
꣫	1562
꣯	1563
ꣲ	1564
ꣳ	1565
가	1566
간	1567
감	1568
개	1569
게	1570
고	1571
공	1572
과	1573
교	1574
국	1575
금	1576
급	1577
기	1578
깨	1579
나	1580
낱	1581
냐	1582
녹	1583
는	1584
니	1585
다	1586
달	1587
대	1588
더	1589
동	1590
두	1591
듬	1592
따	1593
뜨	1594
라	1595
락	1596
레	1597
력	1598
로	1599
름	1600
리	1601
만	1602
말	1603
망	1604
맵	1605
몸	1606
못	1607
뭐	1608
민	1609
받	1610
발	1611
백	1612
번	1613
법	1614
봇	1615
브	1616
비	1617
사	1618
산	1619
상	1620
서	1621
성	1622
세	1623
수	1624
술	1625
쉬	1626
슈	1627
스	1628
승	1629
시	1630
신	1631
아	1632
어	1633
없	1634
에	1635
염	1636
영	1637
예	1638
완	1639
외	1640
요	1641
우	1642
운	1643
월	1644
위	1645
을	1646
음	1647
의	1648
이	1649
인	1650
임	1651
입	1652
있	1653
자	1654
적	1655
전	1656
절	1657
정	1658
조	1659
좀	1660
주	1661
중	1662
증	1663
지	1664
째	1665
청	1666
크	1667
키	1668
탄	1669
탑	1670
터	1671
트	1672
특	1673
팅	1674
파	1675
하	1676
학	1677
한	1678
함	1679
합	1680
허	1681
효	1682
히	1683
힌	1684
힘	1685
︎	1686
️	1687
�	1688
𑆤	1689
𑌏	1690
𑌥	1691
𑌫	1692
𑌮	1693
𑌸	1694
𑐎	1695
𑐕	1696
𑐫	1697
𑐮	1698
𑐰	1699
𑐴	1700
𑐵	1701
𑑀	1702
𑑂	1703
𑑄	1704
𑑅	1705
🅰	1706
🇦	1707
🇮	1708
🇱	1709
🇳	1710
🇵	1711
🇸	1712
🇹	1713
🇺	1714
🌀	1715
🌃	1716
🌄	1717
🌅	1718
🌈	1719
🌉	1720
🌍	1721
🌎	1722
🌏	1723
🌖	1724
🌙	1725
🌛	1726
🌝	1727
🌞	1728
🌟	1729
🌠	1730
🌰	1731
🌱	1732
🌴	1733
🌷	1734
🌸	1735
🌹	1736
🌺	1737
🌻	1738
🌼	1739
🌿	1740
🍀	1741
🍁	1742
🍃	1743
🍋	1744
🍥	1745
🍾	1746
🎂	1747
🎃	1748
🎉	1749
🎊	1750
🎋	1751
🎎	1752
🎓	1753
🎖	1754
🎤	1755
🎯	1756
🎵	1757
🎶	1758
🎼	1759
🏀	1760
🏃	1761
🏏	1762
🏠	1763
🏮	1764
🏷	1765
🏹	1766
🏻	1767
🏽	1768
🐕	1769
🐙	1770
🐯	1771
👆	1772
👇	1773
👈	1774
👉	1775
👌	1776
👍	1777
👏	1778
👞	1779
👣	1780
👦	1781
👧	1782
👨	1783
👩	1784
👫	1785
👱	1786
👴	1787
💄	1788
💏	1789
💐	1790
💑	1791
💓	1792
💔	1793
💕	1794
💖	1795
💗	1796
💘	1797
💚	1798
💛	1799
💝	1800
💠	1801
💥	1802
💦	1803
💧	1804
💫	1805
💮	1806
💰	1807
💱	1808
💵	1809
📂	1810
📌	1811
📎	1812
📏	1813
📕	1814
📖	1815
📚	1816
📝	1817
📢	1818
📣	1819
📰	1820
📱	1821
📳	1822
📸	1823
📺	1824
🔅	1825
🔊	1826
🔍	1827
🔐	1828
🔔	1829
🔗	1830
🔟	1831
🔥	1832
🔰	1833
🔱	1834
🔶	1835
🔷	1836
🔸	1837
🔹	1838
🔺	1839
🔻	1840
🕉	1841
🕔	1842
🖊	1843
🖱	1844
🗃	1845
🗒	1846
🗣	1847
🗳	1848
😀	1849
😂	1850
😃	1851
😄	1852
😅	1853
😇	1854
😉	1855
😊	1856
😌	1857
😍	1858
😎	1859
😒	1860
😔	1861
😘	1862
😜	1863
😝	1864
😞	1865
😡	1866
😢	1867
😩	1868
😳	1869
🙁	1870
🙂	1871
🙅	1872
🙆	1873
🙌	1874
🙍	1875
🙎	1876
🙏	1877
🚑	1878
🚩	1879
🚷	1880
🛑	1881
🛡	1882
🤔	1883
🤗	1884
🤝	1885
🤦	1886
🤩	1887
🤪	1888
🤲	1889
🥀	1890
🥂	1891
🥇	1892
🥰	1893
🦂	1894
🧐	1895
🧜	1896
🩸	1897
🪔	1898
##ा	1899
##न	1900
##े	1901
##ठ	1902
##्	1903
##त	1904
##स	1905
##9	1906
##e	1907
##t	1908
##s	1909
##ि	1910
##भ	1911
##u	1912
##n	1913
##c	1914
##o	1915
##k	1916
##p	1917
##m	1918
##മ	1919
##र	1920
##ु	1921
##ो	1922
##श	1923
##ल	1924
##ध	1925
##य	1926
##क	1927
##a	1928
##i	1929
##d	1930
##६	1931
##४	1932
##ँ	1933
##ज	1934
##ई	1935
##ै	1936
##व	1937
##h	1938
##ā	1939
##g	1940
##ह	1941
##म	1942
##v	1943
##ன	1944
##ॄ	1945
##ी	1946
##อ	1947
##ต	1948
##о	1949
##ж	1950
##н	1951
##प	1952
##ू	1953
##l	1954
##द	1955
##थ	1956
##ः	1957
##ं	1958
##०	1959
##च	1960
##r	1961
##8	1962
##x	1963
##ष	1964
##ण	1965
##ट	1966
##4	1967
##0	1968
##y	1969
##1	1970
##5	1971
##а	1972
##в	1973
##л	1974
##ь	1975
##ḥ	1976
##é	1977
##f	1978
##w	1979
##ऽ	1980
##🏻	1981
##⠀	1982
##7	1983
##ौ	1984
##j	1985
##५	1986
##छ	1987
##=	1988
##ṭ	1989
##॒	1990
##ख	1991
##उ	1992
##ढ	1993
##3	1994
##इ	1995
##ऋ	1996
##ड	1997
##अ	1998
##z	1999
##ו	2000
##ג	2001
##ע	2002
##ळ	2003
##३	2004
##ओ	2005
##-	2006
##)	2007
##6	2008
##b	2009
##의	2010
##ग	2011
##ए	2012
##ന	2013
##е	2014
##р	2015
##б	2016
##ú	2017
##%	2018
##ञ	2019
##х	2020
##г	2021
##~	2022
##१	2023
##2	2024
##७	2025
##パ	2026
##ー	2027
##ル	2028
##語	2029
##.	2030
##•	2031
##ृ	2032
##ž	2033
##८	2034
##ऊ	2035
##>	2036
##?	2037
##ཊ	2038
##q	2039
##ū	2040
##२	2041
##:	2042
##ا	2043
##ل	2044
##ك	2045
##т	2046
##ॐ	2047
##घ	2048
##ॉ	2049
##ङ	2050
##;	2051
##]	2052
##è	2053
##য	2054
##়	2055
##ॊ	2056
##ब	2057
##ব	2058
##_	2059
##ந	2060
##।	2061
##😞	2062
##ó	2063
##फ	2064
##ャ	2065
##॑	2066
##ಾ	2067
##ಗ	2068
##ï	2069
##此	2070
##亦	2071
##遣	2072
##除	2073
##ʟ	2074
##ᴇ	2075
##ᴀ	2076
##ꣳ	2077
##政	2078
##官	2079
##员	2080
##ō	2081
##к	2082
##९	2083
##യ	2084
##ി	2085
##い	2086
##ま	2087
##す	2088
##了	2089
##达	2090
##各	2091
##别	2092
##᳘	2093
##ല	2094
##比	2095
##度	2096
##其	2097
##余	2098
##*	2099
##"	2100
##📰	2101
##划	2102
##ī	2103
##ṇ	2104
##á	2105
##代	2106
##十	2107
##國	2108
##í	2109
##ś	2110
##ɪ	2111
##і	2112
##с	2113
##п	2114
##झ	2115
##む	2116
##س	2117
##ت	2118
##ع	2119
##ي	2120
##я	2121
##ã	2122
##ر	2123
##چ	2124
##ی	2125
##탄	2126
##력	2127
##적	2128
##인	2129
##и	2130
##ʋ	2131
##ː	2132
##و	2133
##ز	2134
##💮	2135
##🚩	2136
##전	2137
##히	2138
##け	2139
##ৰ	2140
##し	2141
##ب	2142
##+	2143
##,	2144
##ത	2145
##د	2146
##ئ	2147
##å	2148
##增	2149
##加	2150
##一	2151
##相	2152
##ऌ	2153
##у	2154
##解	2155
##的	2156
##新	2157
##安	2158
##つ	2159
##ن	2160
##ऩ	2161
##м	2162
##&	2163
##ə	2164
##़	2165
##д	2166
##ṁ	2167
##성	2168
##듬	2169
##ç	2170
##ι	2171
##σ	2172
##τ	2173
##ð	2174
##ூ	2175
##ҫ	2176
##天	2177
##堂	2178
##更	2179
##伟	2180
##ı	2181
##ј	2182
##ṛ	2183
##京	2184
##都	2185
##ස	2186
##ක	2187
##ॆ	2188
##आ	2189
##ʼ	2190
##ṃ	2191
##ṣ	2192
##从	2193
##于	2194
##身	2195
##生	2196
##ح	2197
##入	2198
##ø	2199
##与	2200
##声	2201
##属	2202
##ॿ	2203
##ô	2204
##õ	2205
##й	2206
##ɔ	2207
##ʏ	2208
##'	2209
##ط	2210
##م	2211
##ة	2212
##॥	2213
##份	2214
##報	2215
##告	2216
##ư	2217
##ц	2218
##φ	2219
##ত	2220
##±	2221
##ம	2222
##た	2223
##書	2224
##α	2225
##κ	2226
##ά	2227
##ش	2228
##ه	2229
##シ	2230
##ョ	2231
##ऱ	2232
##ॅ	2233
##ಕ	2234
##염	2235
##ཁ	2236
##{	2237
##య	2238
##ం	2239
##ל	2240
##י	2241
##॰	2242
##事	2243
##ኳ	2244
##🙏	2245
##🌺	2246
##ì	2247
##ʊ	2248
##然	2249
##地	2250
##休	2251
##終	2252
##電	2253
##車	2254
##ᄉ	2255
##세	2256
##ॢ	2257
##}	2258
##/	2259
##≍	2260
##ê	2261
##逝	2262
##孕	2263
###	2264
##ക	2265
##ऐ	2266
##᳚	2267
##ɛ	2268
##한	2269
##민	2270
##국	2271
##是	2272
##闻	2273
##益	2274
##行	2275
##境	2276
##觉	2277
##ラ	2278
##ス	2279
##🌙	2280
##❌	2281
##운	2282
##이	2283
##ള	2284
##ق	2285
##آ	2286
##😍	2287
##à	2288
##願	2289
##터	2290
##레	2291
##서	2292
##<	2293
##ы	2294
##î	2295
##ē	2296
##得	2297
##为	2298
##显	2299
##ć	2300
##ω	2301
##મ	2302
##త	2303
##ǁ	2304
##ऍ	2305
##ۇ	2306
##ە	2307
##ш	2308
##六	2309
##ン	2310
##バ	2311
##ッ	2312
##ク	2313
##ზ	2314
##̪	2315
##ü	2316
##く	2317
##ロ	2318
##リ	2319
##⭐	2320
##蝶	2321
##葬	2322
##花	2323
##ŋ	2324
##ὕ	2325
##ρ	2326
##η	2327
##ા	2328
##ત	2329
##婆	2330
##薩	2331
##哷	2332
##ę	2333
##者	2334
##观	2335
##何	2336
##두	2337
##어	2338
##ş	2339
##음	2340
##하	2341
##기	2342
##щ	2343
##ё	2344
##ప	2345
##న	2346
##വ	2347
##자	2348
##ě	2349
##韩	2350
##民	2351
##国	2352
##ס	2353
##ט	2354
##→	2355
##ł	2356
##꣡	2357
##ת	2358
##ö	2359
##্	2360
##إ	2361
##꣢	2362
##િ	2363
##ੇ	2364
##😳	2365
##과	2366
##ɑ	2367
##į	2368
##引	2369
##ી	2370
##એ	2371
##忘	2372
##記	2373
##憶	2374
##ک	2375
##ṝ	2376
##っ	2377
##て	2378
##き	2379
##ऎ	2380
##술	2381
##ә	2382
##作	2383
##错	2384
##义	2385
##名	2386
##ʒ	2387
##ר	2388
##弥	2389
##ƒ	2390
##進	2391
##પ	2392
##ਣ	2393
##存	2394
##废	2395
##讨	2396
##论	2397
##ᛋ	2398
##^	2399
##ײ	2400
##ַ	2401
##お	2402
##あ	2403
##め	2404
##¦	2405
##ፂ	2406
##ॡ	2407
##疆	2408
##维	2409
##ὸ	2410
##ς	2411
##の	2412
##影	2413
##響	2414
##咒	2415
##能	2416
##成	2417
##果	2418
##ắ	2419
##♀	2420
##ฮ	2421
##ჱ	2422
##ñ	2423
##应	2424
##无	2425
##因	2426
##ನ	2427
##외	2428
##ν	2429
##৷	2430
##¢	2431
##з	2432
##ю	2433
##교	2434
##💔	2435
##✍	2436
##æ	2437
##语	2438
##ʁ	2439
##转	2440
##知	2441
##威	2442
##þ	2443
##£	2444
##가	2445
##ര	2446
##′	2447
##ף	2448
##ด	2449
##域	2450
##稱	2451
##כ	2452
##ן	2453
##ீ	2454
##械	2455
##人	2456
##许	2457
##彼	2458
##औ	2459
##క	2460
##ր	2461
##ե	2462
##ւ	2463
##ա	2464
##હ	2465
##ુ	2466
##ء	2467
##龙	2468
##❤	2469
##ä	2470
##小	2471
##吗	2472
##δ	2473
##整	2474
##年	2475
##영	2476
##상	2477
##ய	2478
##ṅ	2479
##朝	2480
##다	2481
##ક	2482
##陸	2483
##ズ	2484
##ப	2485
##ř	2486
##ч	2487
##ą	2488
##二	2489
##册	2490
##나	2491
##요	2492
##🌞	2493
##尔	2494
##破	2495
##依	2496
##故	2497
##া	2498
##ה	2499
##ர	2500
##ܐ	2501
##ದ	2502
##ḍ	2503
##利	2504
##晴	2505
##ら	2506
##か	2507
##!	2508
##宦	2509
##個	2510
##̇	2511
##œ	2512
##ج	2513
##🤲	2514
##ફ	2515
##️	2516
##ி	2517
##运	2518
##检	2519
##查	2520
##立	2521
##ہ	2522
##➧	2523
##🇵	2524
##ജ	2525
##[	2526
##$	2527
##게	2528
##发	2529
##音	2530
##🇳	2531
##🌷	2532
##效	2533
##👉	2534
##э	2535
##👌	2536
##。	2537
##球	2538
##ち	2539
##ゃ	2540
##ん	2541
##대	2542
##못	2543
##깨	2544
##는	2545
##에	2546
##続	2547
##繁	2548
##栄	2549
##✓	2550
##름	2551
##チ	2552
##コ	2553
##マ	2554
##ቮ	2555
##异	2556
##非	2557
##ন	2558
##ɒ	2559
##ো	2560
##গ	2561
##‹	2562
##🎉	2563
##🍾	2564
##০	2565
##৩	2566
##백	2567
##📸	2568
##로	2569
##量	2570
##颂	2571
##る	2572
##白	2573
##猫	2574
##有	2575
##૧	2576
##月	2577
##习	2578
##정	2579
##が	2580
##所	2581
##说	2582
##反	2583
##č	2584
##≥	2585
##χ	2586
##μ	2587
##냐	2588
##ಟ	2589
##ᳲ	2590
##사	2591
##합	2592
##니	2593
##◆	2594
##介	2595
##ذ	2596
##키	2597
##낱	2598
##말	2599
##ם	2600
##ન	2601
##॓	2602
##ᛁ	2603
##ᛞ	2604
##ᛖ	2605
##দ	2606
##可	2607
##口	2608
##哥	2609
##জ	2610
##处	2611
##ᛚ	2612
##ᚻ	2613
##ᚩ	2614
##ᛗ	2615
##ऄ	2616
##💑	2617
##×	2618
##·	2619
##出	2620
##具	2621
##理	2622
##ੋ	2623
##ਕ	2624
##广	2625
##ý	2626
##ɜ	2627
##ತ	2628
##ട	2629
##є	2630
##ى	2631
##봇	2632
##𑐴	2633
##θ	2634
##ય	2635
##ᄌ	2636
##ں	2637
##ऴ	2638
##ദ	2639
##פ	2640
##팅	2641
##૦	2642
##ॺ	2643
##ૠ	2644
##ಭ	2645
##雨	2646
##ച	2647
##த	2648
##首	2649
##席	2650
##飞	2651
##ა	2652
##함	2653
##신	2654
##중	2655
##입	2656
##發	2657
##수	2658
##증	2659
##亲	2660
##和	2661
##祖	2662
##ק	2663
##灭	2664
##常	2665
##如	2666
##类	2667
##染	2668
##ண	2669
##்	2670
##⃣	2671
##브	2672
##라	2673
##뜨	2674
##리	2675
##ై	2676
##当	2677
##返	2678
##印	2679
##款	2680
##@	2681
##や	2682
##চ	2683
##ல	2684
##ો	2685
##ೇ	2686
##げ	2687
##ੱ	2688
##מ	2689
##ד	2690
##ש	2691
##合	2692
##지	2693
##스	2694
##크	2695
##ห	2696
##า	2697
##ર	2698
##દ	2699
##吥	2700
##ȯ	2701
##テ	2702
##ಮ	2703
##自	2704
##ǔ	2705
##ܘ	2706
##ܒ	2707
##ܛ	2708
##ഭ	2709
##ਮ	2710
##互	2711
##杂	2712
##乱	2713
##ే	2714
##\	2715
##复	2716
##须	2717
##რ	2718
##დ	2719
##な	2720
##那	2721
##พ	2722
##ങ	2723
##意	2724
##←	2725
##言	2726
##过	2727
##同	2728
##א	2729
##ف	2730
##使	2731
##障	2732
##🌹	2733
##研	2734
##究	2735
##೨	2736
##೪	2737
##ે	2738
##્	2739
##通	2740
##话	2741
##월	2742
##ই	2743
##ಂ	2744
##泊	2745
##ু	2746
##ਟ	2747
##ව	2748
##💛	2749
##句	2750
##中	2751
##ῖ	2752
##性	2753
##决	2754
##定	2755
##デ	2756
##▼	2757
##‡	2758
##而	2759
##💫	2760
##う	2761
##少	2762
##ম	2763
##🇮	2764
##章	2765
##消	2766
##世	2767
##间	2768
##🎶	2769
##ಿ	2770
##ೋ	2771
##セ	2772
##イ	2773
##જ	2774
##સ	2775
##ܣ	2776
##ܦ	2777
##汇	2778
##â	2779
##్	2780
##락	2781
##ʌ	2782
##ʃ	2783
##ᳬ	2784
##ས	2785
##ལ	2786
##ᘏ	2787
##ᗢ	2788
##ˈ	2789
##さ	2790
##🏽	2791
##›	2792
##ળ	2793
##ખ	2794
##ˆ	2795
##切	2796
##好	2797
##☝	2798
##茶	2799
##を	2800
##ひ	2801
##と	2802
##哉	2803
##父	2804
##ב	2805
##👈	2806
##ɡ	2807
##八	2808
##叉	2809
##答	2810
##程	2811
##گ	2812
##්	2813
##ট	2814
##位	2815
##格	2816
##ಪ	2817
##ಹ	2818
##হ	2819
##ক	2820
##ʉ	2821
##급	2822
##處	2823
##🔥	2824
##ボ	2825
##ト	2826
##π	2827
##岂	2828
##ۆ	2829
##வ	2830
##ರ	2831
##್	2832
##ଡ	2833
##ල	2834
##ද	2835
##ය	2836
##🍃	2837
##工	2838
##师	2839
##器	2840
##༨	2841
##ο	2842
##🔐	2843
##金	2844
##🌄	2845
##我	2846
##贪	2847
##●	2848
##ڪ	2849
##¬	2850
##ሩ	2851
##不	2852
##念	2853
##长	2854
##ऑ	2855
##れ	2856
##ė	2857
##√	2858
##倒	2859
##📺	2860
##発	2861
##쉬	2862
##시	2863
##星	2864
##ე	2865
##ნ	2866
##გ	2867
##时	2868
##表	2869
##吸	2870
##收	2871
##よ	2872
##み	2873
##止	2874
##は	2875
##ご	2876
##康	2877
##°	2878
##ど	2879
##ٹ	2880
##🖊	2881
##ጻ	2882
##😊	2883
##ф	2884
##వ	2885
##(	2886
##诸	2887
##କ	2888
##만	2889
##간	2890
##૪	2891
##ਸ	2892
##で	2893
##页	2894
##ڌ	2895
##😄	2896
##ീ	2897
##ȧ	2898
##청	2899
##째	2900
##پ	2901
##衆	2902
##文	2903
##ዝ	2904
##ብ	2905
##ᭅ	2906
##ગ	2907
##仕	2908
##ಳ	2909
##ḏ	2910
##💏	2911
##⚕	2912
##学	2913
##ც	2914
##ვ	2915
##ర	2916
##ܠ	2917
##ள	2918
##用	2919
##期	2920
##間	2921
##¤	2922
##ი	2923
##უ	2924
##ਲ	2925
##ア	2926
##ジ	2927
##થ	2928
##ற	2929
##्य	2930
##्र	2931
##्त	2932
##्व	2933
प्र	2934
##र्	2935
##ति	2936
वि	2937
##त्	2938
्य	2939
##ान	2940
##ार	2941
##्ष	2942
म्	2943
ान	2944
्र	2945
##ित	2946
##ां	2947
##ष्	2948
##म्	2949
स्य	2950
ते	2951
##त्र	2952
स्	2953
##न्	2954
नि	2955
वा	2956
##क्ष	2957
##र्व	2958
ित	2959
##द्	2960
र्	2961
सं	2962
##ाम	2963
पर	2964
##क्त	2965
पु	2966
##ृत	2967
##्च	2968
्व	2969
##्या	2970
##था	2971
न्त	2972
भव	2973
त्व	2974
मा	2975
##ेव	2976
ाः	2977
सम	2978
इति	2979
या	2980
##त्य	2981
ति	2982
ेन	2983
##स्त	2984
##ते	2985
रा	2986
##ष्ट	2987
सर्व	2988
##स्	2989
ाद	2990
##पि	2991
भा	2992
##न्त	2993
एव	2994
क्ष	2995
न्	2996
यो	2997
तु	2998
स्व	2999
सा	3000
##स्य	3001
कर	3002
##्ञ	3003
स्त	3004
##या	3005
कार	3006
##र्थ	3007
का	3008
##द्ध	3009
त्	3010
सु	3011
ाय	3012
ात्	3013
त्र	3014
##ना	3015
मु	3016
हि	3017
##मा	3018
##ेश	3019
##दा	3020
वर्	3021
##िक	3022
िक	3023
कि	3024
व्य	3025
##ात	3026
पू	3027
अन	3028
्या	3029
यु	3030
ार	3031
ना	3032
इत्य	3033
दि	3034
स्थ	3035
ेष	3036
##तः	3037
पा	3038
ज्ञ	3039
ता	3040
क्र	3041
##्न	3042
##र्म	3043
कु	3044
ये	3045
देव	3046
ाण	3047
##मि	3048
श्र	3049
##्छ	3050
ानि	3051
भू	3052
यद	3053
पि	3054
##त्त	3055
मह	3056
यथा	3057
ाप	3058
राज	3059
मे	3060
दृ	3061
कृत	3062
ष्	3063
प्रति	3064
द्व	3065
एक	3066
गु	3067
##ूप	3068
मान	3069
##यं	3070
##ेष	3071
परि	3072
##ेद	3073
विश	3074
ानां	3075
ङ्	3076
पुन	3077
ाव	3078
वर	3079
##िय	3080
##स्ति	3081
सह	3082
श्च	3083
दु	3084
##ष्ठ	3085
तथा	3086
ग्र	3087
तद	3088
भि	3089
##ेत	3090
नु	3091
##द्य	3092
##ाय	3093
तत्	3094
काल	3095
्वा	3096
##ङ्	3097
ेण	3098
##श्च	3099
सि	3100
##ता	3101
##भा	3102
##श्य	3103
ेव	3104
त्य	3105
सू	3106
##ीय	3107
##ान्	3108
##द्र	3109
तः	3110
देश	3111
ार्थ	3112
भवति	3113
ेषु	3114
ां	3115
िन	3116
रूप	3117
##च्छ	3118
यति	3119
रि	3120
ाह	3121
##ब्	3122
रु	3123
##ोक	3124
##रण	3125
वै	3126
##ेन	3127
वर्ष	3128
ादि	3129
ान्	3130
िः	3131
##ीत	3132
कथ	3133
मन	3134
उप	3135
पुर	3136
##ृह	3137
्त	3138
किं	3139
र्थ	3140
ाल	3141
पूर्व	3142
ैः	3143
##ध्य	3144
न्य	3145
तस्य	3146
यत्	3147
शि	3148
ान्त	3149
ेत	3150
सम्	3151
##भि	3152
मि	3153
गृह	3154
ीय	3155
भाष	3156
त्त	3157
जन	3158
पद	3159
प्रा	3160
भाव	3161
द्	3162
##यो	3163
##ास	3164
योग	3165
ास	3166
र्त	3167
एत	3168
अपि	3169
##न्द	3170
विष	3171
##ैव	3172
ोऽ	3173
यदि	3174
विध	3175
कृ	3176
##र्ण	3177
नाम	3178
कर्म	3179
##यः	3180
##्ड	3181
##त्व	3182
##्प	3183
##ाद	3184
##ाल	3185
तत्र	3186
ाम	3187
लोक	3188
रो	3189
##ब्द	3190
लि	3191
वृत	3192
धिक	3193
याम	3194
कल	3195
धर्म	3196
को	3197
अस्ति	3198
न्ति	3199
मम	3200
वृ	3201
्म	3202
ज्ञान	3203
##न्ध	3204
##ाः	3205
##र्श	3206
गुण	3207
जी	3208
##भव	3209
##्ल	3210
शब्द	3211
िद	3212
कार्य	3213
एवं	3214
बह	3215
##ये	3216
स्म	3217
##ीर	3218
ष्ट	3219
ात	3220
##न्न	3221
अध	3222
अह	3223
न्त्र	3224
वृत्त	3225
##िष्	3226
अथ	3227
##ङ्ग	3228
शु	3229
दृष्ट	3230
तम	3231
ेति	3232
व्या	3233
ाप्त	3234
पुनः	3235
के	3236
##ुत	3237
मित	3238
ाणि	3239
अनु	3240
निर्	3241
त्वं	3242
ती	3243
मध्य	3244
जीव	3245
धन	3246
##व्य	3247
गत	3248
फल	3249
भूत	3250
##मान	3251
##न्ति	3252
द्य	3253
तव	3254
ेश	3255
ुक्त	3256
भाग	3257
यां	3258
##्ज	3259
ुर	3260
##ञ्च	3261
##कृत	3262
##क्य	3263
##प्त	3264
विद्य	3265
पुत्र	3266
##ुष	3267
##ाह	3268
युक्त	3269
##र्ग	3270
ाध	3271
यः	3272
##वि	3273
दर्श	3274
अस	3275
अप	3276
मू	3277
ैव	3278
##ज्ञ	3279
वेद	3280
महा	3281
##क्	3282
्थ	3283
वे	3284
कर्त	3285
ततः	3286
लक्ष	3287
भार	3288
विशेष	3289
##ोत	3290
समा	3291
##नि	3292
्मि	3293
ित्	3294
पृ	3295
रक्ष	3296
िर	3297
वस	3298
तेन	3299
िति	3300
##्यं	3301
##गु	3302
##भ्य	3303
##तो	3304
दश	3305
त्रि	3306
सिद्ध	3307
विश्व	3308
तस्	3309
तदा	3310
ाग	3311
ङ्ग	3312
्मिन्	3313
दी	3314
वर्त	3315
ग्रह	3316
##्वर	3317
सः	3318
क्त	3319
शक्त	3320
कल्प	3321
आस	3322
##का	3323
तो	3324
##हि	3325
चित	3326
करो	3327
स्थित	3328
##ेत्	3329
चि	3330
द्वि	3331
##चन	3332
##कार	3333
न्द्र	3334
शा	3335
##त्तर	3336
दिन	3337
##ुं	3338
##ख्य	3339
##मन	3340
दृश्य	3341
दे	3342
वान्	3343
न्ते	3344
##्म	3345
दान	3346
ाच	3347
क्षि	3348
करण	3349
तद्	3350
केव	3351
योज	3352
बहु	3353
्त्र	3354
पी	3355
क्रम	3356
केवल	3357
्यते	3358
धार	3359
##भाव	3360
िय	3361
िं	3362
ला	3363
तेष	3364
अन्य	3365
ेः	3366
ोप	3367
##प्र	3368
मेव	3369
##त्वा	3370
वन	3371
ाणां	3372
िव	3373
ने	3374
क्रिय	3375
भेद	3376
बल	3377
यामि	3378
##ती	3379
##्याय	3380
##दं	3381
जात	3382
प्रथ	3383
##ोध	3384
ानु	3385
कथं	3386
च्छ	3387
##रे	3388
##तु	3389
पित	3390
ात्र	3391
ोक्त	3392
स्तु	3393
याः	3394
हित	3395
तं	3396
न्न	3397
ापि	3398
##ोष	3399
बु	3400
्ल	3401
मया	3402
र्व	3403
िण	3404
पुरुष	3405
सुख	3406
वर्ण	3407
न्द	3408
प्रथम	3409
री	3410
##च्य	3411
अव	3412
सो	3413
वाद	3414
काम	3415
अत्र	3416
दू	3417
जा	3418
ामि	3419
##ेण	3420
राष्ट	3421
स्थान	3422
साध	3423
दुः	3424
##्यते	3425
अभि	3426
कारण	3427
##्नि	3428
नम	3429
##गर	3430
्प	3431
हं	3432
##ीत्	3433
जल	3434
न्व	3435
##रु	3436
अहं	3437
##ण्ड	3438
##ेक	3439
--	3440
वद	3441
भविष्	3442
सप्त	3443
##ीन	3444
वचन	3445
##चार	3446
एष	3447
सम्प	3448
भाषा	3449
मो	3450
##योग	3451
तर	3452
विषय	3453
##वा	3454
ेऽ	3455
र्म	3456
अत	3457
राज्य	3458
कः	3459
रण	3460
हर	3461
पूज	3462
##ृद	3463
##थि	3464
निर	3465
ितः	3466
र्तते	3467
जग	3468
परम	3469
ार्	3470
अर्थ	3471
भारत	3472
##ष्य	3473
ुं	3474
तर्	3475
ष्ठ	3476
भो	3477
##यम	3478
मां	3479
्ब	3480
रस	3481
##ेय	3482
तया	3483
य्	3484
गच्छ	3485
मत	3486
भ्य	3487
गो	3488
##र्य	3489
ृष्ठ	3490
ाक्ष	3491
भिः	3492
चा	3493
तां	3494
शत	3495
##वस	3496
ध्य	3497
मध्ये	3498
वत्	3499
दा	3500
यत्र	3501
शी	3502
नो	3503
दुःख	3504
श्व	3505
हे	3506
##ानि	3507
ेत्	3508
सौ	3509
िश	3510
्यात्	3511
ात्म	3512
##स्तु	3513
ालय	3514
पश्य	3515
##सा	3516
दोष	3517
लक्षण	3518
नं	3519
शक्ति	3520
ाश	3521
पे	3522
्न	3523
नी	3524
काले	3525
मूल	3526
क्षिण	3527
तस	3528
##न्म	3529
तस्मा	3530
धिकार	3531
मात्र	3532
ाक	3533
से	3534
यम	3535
भग	3536
##ित्य	3537
##र्त	3538
वार	3539
विना	3540
िका	3541
यदा	3542
सर्वे	3543
##ृश	3544
अतः	3545
येत्	3546
्रि	3547
ब्र	3548
उत्तर	3549
पञ्च	3550
आसीत्	3551
हृद	3552
्यं	3553
वृद्ध	3554
धि	3555
कदा	3556
हेत	3557
करोति	3558
क्षेत	3559
ैक	3560
संस	3561
धा	3562
्ध	3563
्रह	3564
योः	3565
विक	3566
्यां	3567
##देश	3568
बुद्ध	3569
क्व	3570
##यु	3571
ुप	3572
बाल	3573
##ङ्क	3574
मिति	3575
ाद्	3576
माण	3577
श्रुत	3578
ैर्	3579
शक्य	3580
सद	3581
##पर	3582
नमः	3583
तेषां	3584
मय	3585
िता	3586
वाक्य	3587
मान्य	3588
िह	3589
त्स	3590
__	3591
च्च	3592
िम	3593
पक्ष	3594
ेभ्य	3595
भक्त	3596
िल	3597
शर	3598
यस	3599
मुख	3600
अन्त	3601
कुर्व	3602
##रा	3603
भवेत्	3604
राम	3605
ण्ड	3606
##त्प	3607
ास्	3608
संश	3609
क्षण	3610
ीति	3611
परा	3612
ास्ति	3613
्त्री	3614
व्र	3615
सी	3616
प्राण	3617
पूर्ण	3618
मुक्त	3619
इत	3620
नगर	3621
यं	3622
##स्र	3623
सर्वं	3624
दत्त	3625
बन्ध	3626
जन्म	3627
रे	3628
तथ	3629
ान्तर	3630
स्प	3631
##्यात	3632
्ट	3633
पर्य	3634
ज्ञात	3635
ाभ	3636
##ून	3637
अग	3638
अस्य	3639
तर्हि	3640
शेष	3641
##काश	3642
सूच	3643
र्ष	3644
जाय	3645
ित्य	3646
##ान्त	3647
दर्शन	3648
ेक	3649
यस्य	3650
एवम	3651
भय	3652
पाप	3653
्री	3654
स्कृत	3655
भगव	3656
इदं	3657
घट	3658
##षे	3659
द्र	3660
चर	3661
परं	3662
ीन	3663
नव	3664
निव	3665
##यन	3666
्यक्त	3667
सहस्र	3668
त्यय	3669
ज्ज	3670
चार	3671
सत्य	3672
ित्व	3673
शास्त	3674
##दि	3675
ाभि	3676
यज्ञ	3677
ेषां	3678
विधि	3679
यन्ति	3680
##च्च	3681
वाच	3682
क्	3683
हस्त	3684
सदा	3685
नर	3686
ाना	3687
्वर	3688
साम	3689
वास	3690
वयं	3691
यत	3692
र्ज	3693
नां	3694
ले	3695
्मा	3696
वय	3697
पुं	3698
इह	3699
किम	3700
पाठ	3701
र्थः	3702
प्रिय	3703
##न्तु	3704
इव	3705
यू	3706
की	3707
णा	3708
मार्ग	3709
ञ्च	3710
पठ	3711
मास	3712
##धान	3713
म्ब	3714
सन्ति	3715
ेत्य	3716
##र्ष	3717
नियम	3718
अयं	3719
्रह्म	3720
व्याप	3721
यद्	3722
विद	3723
प्य	3724
वर्षे	3725
गण	3726
यात	3727
मित्र	3728
पुनर्	3729
##माण	3730
सेव	3731
र्ध	3732
त्त्व	3733
शिक्ष	3734
ततो	3735
और	3736
ञ्ज	3737
येन	3738
पुनर	3739
वाह	3740
धान	3741
ह्य	3742
देह	3743
ङ्क	3744
द्ध	3745
ेय	3746
ंत	3747
ेद	3748
##िर	3749
भ्र	3750
##ीं	3751
तत	3752
्रा	3753
ाम्	3754
त्या	3755
##थाप	3756
्यक्ष	3757
ानाम	3758
##त्तम	3759
ेश्वर	3760
##णा	3761
ल्	3762
मी	3763
विभा	3764
यत्न	3765
िनः	3766
केवलं	3767
ृत्वा	3768
काश	3769
यित	3770
##णु	3771
ध्व	3772
शुभ	3773
वक्त	3774
मृत	3775
चित्र	3776
##दृश	3777
्वि	3778
न्याय	3779
ख्यात	3780
ान्य	3781
##ब्ध	3782
##स्थ	3783
र्य	3784
हार	3785
्रश	3786
वस्तु	3787
नः	3788
िर्	3789
षु	3790
पाद	3791
्रिया	3792
तिष्ठ	3793
सूर्य	3794
चतु	3795
ाश्च	3796
कृति	3797
ीक्ष	3798
न्तु	3799
एतत्	3800
ैर	3801
ज्य	3802
रीक्ष	3803
सन्	3804
मुद्र	3805
वक्ष	3806
्बन्ध	3807
ंग	3808
्रिय	3809
स्न	3810
सार	3811
मपि	3812
शिष्ट	3813
जायते	3814
पुरा	3815
न्तर	3816
प्राप	3817
लेख	3818
्यु	3819
ाट	3820
##यत	3821
्रश्न	3822
शरीर	3823
वर्ग	3824
स्ति	3825
वीर	3826
्थान	3827
##श्वर	3828
कुल	3829
ाप्य	3830
स्या	3831
ेष्ठ	3832
##कं	3833
विर	3834
द्वित	3835
##नु	3836
हेतु	3837
निष्	3838
वेश	3839
ितम्	3840
दैव	3841
ग्रहण	3842
पृथ	3843
##ग्	3844
ण्	3845
िद्या	3846
गम	3847
यथ	3848
सूत्र	3849
लो	3850
रथ	3851
पेक्ष	3852
दूर	3853
सर	3854
नित्य	3855
ीत	3856
##णि	3857
विभाग	3858
चल	3859
धात	3860
्रकाश	3861
राजा	3862
नृ	3863
##वत्	3864
किम्	3865
आत्	3866
श्री	3867
्ञ	3868
बा	3869
न्यथा	3870
गुरु	3871
लिख	3872
ेह	3873
तप	3874
##्यास	3875
ल्ल	3876
कदाच	3877
##वी	3878
िष	3879
ुम	3880
न्ध	3881
यते	3882
्रष्ट	3883
सङ्ग	3884
सम्भव	3885
स्याः	3886
##ख्या	3887
##वर	3888
##er	3889
म्भ	3890
ल्प	3891
था	3892
दुर्	3893
यन्त	3894
ुल	3895
योजन	3896
ेक्ष	3897
खः	3898
##ज्य	3899
मध	3900
ूर्ण	3901
अद्य	3902
एते	3903
विषये	3904
वल	3905
##षेध	3906
त्वया	3907
िक्ष	3908
ग्न	3909
हृदय	3910
त्वेन	3911
सोम	3912
कश्च	3913
##st	3914
ज्ञा	3915
##करण	3916
वत	3917
रात्र	3918
स्त्र	3919
जना	3920
ाई	3921
वृक्ष	3922
कौ	3923
वायु	3924
करिष्	3925
##ष्ण	3926
ृत्य	3927
्रत्य	3928
सृ	3929
ऽपि	3930
लाभ	3931
देशे	3932
िप	3933
ाभाव	3934
ेऽपि	3935
सूचना	3936
रुप	3937
गति	3938
्रे	3939
युद्ध	3940
ुम्	3941
##ैः	3942
उक्त	3943
ध्याय	3944
दिश	3945
##क्र	3946
िष्ठ	3947
##िप	3948
ास्त	3949
विचार	3950
प्रत	3951
समु	3952
पात	3953
तिप	3954
पत्र	3955
विधान	3956
पर्व	3957
्रम	3958
दाह	3959
ोर	3960
कृते	3961
तमे	3962
साधन	3963
शुद्ध	3964
अभव	3965
ेभ्यः	3966
यतः	3967
दीर्	3968
पुण	3969
धु	3970
ेर	3971
##ंश	3972
नीय	3973
शाल	3974
जीवन	3975
कुरु	3976
दीर्घ	3977
मण्ड	3978
स्मृत	3979
##षण	3980
हत	3981
णां	3982
व्यवस	3983
मनो	3984
यान	3985
्याः	3986
##हित	3987
मुप	3988
पाल	3989
पार	3990
शास	3991
श्ल	3992
्ण	3993
अति	3994
हो	3995
ोः	3996
##दश	3997
नन्त	3998
पति	3999
ुस्त	4000
ाऽ	4001
भाषण	4002
ट्	4003
श्य	4004
विव	4005
समान	4006
्नो	4007
ुः	4008
यन्	4009
्वरूप	4010
देवता	4011
केन	4012
ारत	4013
अधिक	4014
मुख्य	4015
ंद	4016
सन्न	4017
ार्थं	4018
ंस	4019
ोद	4020
त्थ	4021
ित्यं	4022
जान	4023
शृ	4024
१०	4025
ार्यं	4026
म्ह	4027
ीयते	4028
अभवत्	4029
in	4030
मृ	4031
व्यं	4032
्तमान	4033
वो	4034
संभव	4035
##जन	4036
बी	4037
्नोति	4038
इद	4039
लोके	4040
संय	4041
गमन	4042
चिन्त	4043
दिवस	4044
##त्न	4045
लिङ्ग	4046
्स	4047
इच्छ	4048
##ुव	4049
ित्वा	4050
हिं	4051
व्रत	4052
()	4053
अल	4054
ंक	4055
र्च	4056
तुल	4057
्क	4058
रूपं	4059
शान्त	4060
व्यव	4061
संशयः	4062
च्यते	4063
्वप	4064
वर्ध	4065
लय	4066
वान	4067
शिव	4068
भिन्न	4069
ारतीय	4070
्यो	4071
रूपेण	4072
..	4073
ुह	4074
मित्य	4075
जि	4076
शक	4077
व्यम्	4078
चेत्	4079
स्वयं	4080
त्वम	4081
भूमि	4082
कथय	4083
तिश	4084
सति	4085
दीप	4086
ुस्तक	4087
ंश	4088
##जा	4089
नेन	4090
धिकरण	4091
बोध	4092
्माकं	4093
णि	4094
पुण्य	4095
##चि	4096
वक्ष्	4097
मल	4098
युग	4099
्वार	4100
संप	4101
मेर	4102
दिष्ट	4103
##नां	4104
ग्राम	4105
नान	4106
नम्	4107
##पत	4108
जनाः	4109
्वप्न	4110
वह	4111
सुर	4112
ताम्	4113
##वरी	4114
##ुः	4115
ंख्या	4116
धी	4117
तस्या	4118
ानाम्	4119
रोग	4120
ांश	4121
ne	4122
तथापि	4123
##षा	4124
खल	4125
्रं	4126
स्मा	4127
पश्च	4128
पद्य	4129
िन्द	4130
र्ह	4131
्वारा	4132
##हं	4133
##तम	4134
दार	4135
र्क	4136
##om	4137
्रन्	4138
तिथि	4139
माता	4140
नुष्य	4141
लभ	4142
वध	4143
क्ल	4144
ेवं	4145
क्ति	4146
धर	4147
मण्डल	4148
##त्स	4149
ताम	4150
्वर्ग	4151
युत	4152
स्तुत	4153
##र्प	4154
स्फ	4155
गर्	4156
नय	4157
रस्	4158
ध्यान	4159
तल	4160
श्रम	4161
फलं	4162
ाङ्ग	4163
मित्त	4164
गृहे	4165
एकः	4166
द्वार	4167
सुत	4168
कस्य	4169
नैव	4170
वां	4171
##िल	4172
विरोध	4173
स्र	4174
ाया	4175
वश्य	4176
क्षय	4177
ग्नि	4178
िष्	4179
त्वा	4180
त्वां	4181
चक्ष	4182
किञ्च	4183
##यम्	4184
##्नु	4185
िष्ट	4186
मन्य	4187
रस्पर	4188
्रन्थ	4189
त्रय	4190
वः	4191
सिं	4192
##ीप	4193
न्तर्	4194
पूर	4195
वती	4196
यज	4197
ित्त	4198
दध	4199
िश्च	4200
##गत	4201
वन्त	4202
अस्	4203
्रात	4204
वात	4205
ादौ	4206
ुर्	4207
मधु	4208
उत्प	4209
सम्ब	4210
समय	4211
जगत	4212
ादन	4213
्वादश	4214
िभा	4215
बाह	4216
ध्ययन	4217
न्वित	4218
आप	4219
शत्र	4220
दाहरण	4221
ब्	4222
उच्च	4223
ोष	4224
अग्नि	4225
##षु	4226
चतुर्	4227
प्रे	4228
ादेश	4229
िताः	4230
तथैव	4231
र्प	4232
तृत	4233
मद	4234
ुन	4235
हीन	4236
मानव	4237
कम	4238
स्क	4239
##धा	4240
गव	4241
कृत्य	4242
ात्मक	4243
शासन	4244
भाग्य	4245
लघ	4246
सभा	4247
ाद्य	4248
कृष्ण	4249
संव	4250
पूजा	4251
तृतीय	4252
उद	4253
त्प	4254
भूय	4255
हरि	4256
ग्	4257
िन्तु	4258
द्वय	4259
ागत	4260
दाय	4261
याति	4262
अथवा	4263
क्वच	4264
चित्त	4265
मै	4266
्रभाव	4267
शो	4268
दण्ड	4269
एतद	4270
सिंह	4271
माप्त	4272
र्व्व	4273
##or	4274
्रव्य	4275
अनेक	4276
##स्था	4277
सन्ध	4278
्थि	4279
नृप	4280
व्यवह	4281
भु	4282
विज	4283
ीड	4284
विष्ट	4285
कला	4286
रित	4287
दद	4288
ेष्व	4289
िस	4290
##on	4291
रम	4292
##ar	4293
भवतः	4294
कृतं	4295
दित	4296
ta	4297
संसार	4298
##घ्र	4299
ुच्य	4300
जु	4301
ज्ञेय	4302
कथा	4303
ईश्वर	4304
ृत्यु	4305
मनु	4306
नन्तर	4307
कन	4308
##ूल	4309
माह	4310
ग्राह	4311
रिक्त	4312
ित्र	4313
सक	4314
विकास	4315
ीकरण	4316
नै	4317
ितं	4318
न्ह	4319
ितव्य	4320
त्क	4321
दात	4322
##विध	4323
ाण्ड	4324
##म्भ	4325
गृहीत	4326
छा	4327
व्यय	4328
सङ्क	4329
##ष्टि	4330
त्म	4331
एस	4332
##स्मा	4333
पितृ	4334
कोई	4335
मेरिक	4336
आत्म	4337
गतः	4338
ैत	4339
ननु	4340
भवान्	4341
है	4342
नाश	4343
ज्योत	4344
ुर्या	4345
चैव	4346
पिता	4347
दर	4348
ास्य	4349
नाय	4350
मात	4351
्रयोग	4352
क्री	4353
पत	4354
िद्	4355
िभ	4356
्थाप	4357
वर्ज	4358
ख्य	4359
संग	4360
याम्	4361
पर्वत	4362
िख	4363
##श्	4364
ti	4365
न्म	4366
ायं	4367
नन्द	4368
पश्चा	4369
चे	4370
##इट	4371
्रत	4372
योगः	4373
ेल	4374
##es	4375
शील	4376
ें	4377
तादृश	4378
ों	4379
्रमाण	4380
शत्रु	4381
स्मि	4382
संधान	4383
निज	4384
तेज	4385
स्वा	4386
ादिना	4387
ोऽपि	4388
ाधार	4389
द्विज	4390
नेव	4391
शै	4392
समर्थ	4393
दानीं	4394
ीत्य	4395
दिव्य	4396
ुत्वा	4397
ii	4398
११	4399
महो	4400
्रातः	4401
##वाद	4402
स्याद	4403
अनेन	4404
मध्यम	4405
्यः	4406
्ञान	4407
्रकृत	4408
##ष्प	4409
रव	4410
्ड	4411
समास	4412
कर्ता	4413
योजना	4414
ज्ञाय	4415
उभ	4416
िनी	4417
हम	4418
टी	4419
कीर	4420
राग	4421
##ञ्ज	4422
सर्वा	4423
##ष्म	4424
िया	4425
नेप	4426
लब्ध	4427
त्येक	4428
मस्ति	4429
यय	4430
ताप	4431
लोप	4432
्वभाव	4433
तिषेध	4434
परमा	4435
श्चि	4436
यितुं	4437
सत	4438
ीर	4439
िभाषा	4440
म्य	4441
ात्रा	4442
यावत्	4443
संस्	4444
ारण	4445
स्मर	4446
लघु	4447
राज्ञ	4448
गर्भ	4449
ोत्तर	4450
ियां	4451
ुट	4452
त्ति	4453
वश्यक	4454
बि	4455
ाति	4456
ुक	4457
कीर्त	4458
क्षत	4459
ङ्ख्य	4460
बालक	4461
रिण	4462
धिकतम	4463
्ति	4464
विन	4465
ार्या	4466
बाध	4467
प्रद	4468
क्षम	4469
कम्	4470
गवान्	4471
भयं	4472
एका	4473
छात्र	4474
मुच्य	4475
धीय	4476
शः	4477
्यपि	4478
ूल	4479
प्रव	4480
ऋत	4481
प्रजा	4482
सेवा	4483
वश	4484
अधि	4485
कट	4486
शं	4487
कर्ण	4488
यिष्	4489
सम्भ	4490
##रि	4491
क्षिप	4492
ग्री	4493
ितु	4494
रुद्ध	4495
जय	4496
स्नान	4497
्थित	4498
लम्	4499
रुण	4500
ात्मन	4501
खलु	4502
गता	4503
##ियम	4504
स्त्व	4505
रक्त	4506
रोह	4507
रक्षा	4508
श्चिम	4509
बसा	4510
ताव	4511
बसाइट	4512
विप्र	4513
ाह्म	4514
तीति	4515
नद	4516
ोध	4517
र्वदा	4518
च्	4519
ाहं	4520
नीति	4521
न्त्य	4522
सागर	4523
सन्द	4524
मोह	4525
्द	4526
उत्तम	4527
यसि	4528
जित	4529
वाम	4530
कारणं	4531
युज्य	4532
भोग	4533
मूल्य	4534
धातु	4535
ुव	4536
ीप	4537
ितुं	4538
##श्व	4539
ेयं	4540
ूढ	4541
किंच	4542
ैन	4543
आर	4544
पुष्प	4545
ीक्षण	4546
पृथक्	4547
्यू	4548
ीकृत	4549
श्रित	4550
युष्म	4551
्च	4552
भास	4553
मुनि	4554
भिर्	4555
माचार	4556
कथम	4557
पान	4558
गृह्य	4559
स्थाप	4560
##द्रा	4561
कन्या	4562
सकल	4563
क्रीड	4564
र्तुं	4565
आह	4566
कोऽ	4567
कृष	4568
रत	4569
मोक्ष	4570
रोध	4571
सै	4572
िनियम	4573
प्	4574
रति	4575
षष्ठ	4576
िच्छ	4577
वत्स	4578
ेतत्	4579
ृथि	4580
ृथिवी	4581
त्तम	4582
ूर्व	4583
्यन्त	4584
देवा	4585
उपयोग	4586
दिने	4587
र्त्त	4588
र्द्ध	4589
युध	4590
ाम्य	4591
सर्ग	4592
ेद्	4593
स्वी	4594
निष्क	4595
स्वत	4596
मूर्	4597
योर्	4598
कारक	4599
सहित	4600
यतो	4601
रिव	4602
##ेषण	4603
ज्या	4604
पत्त	4605
्वी	4606
कृप	4607
तिह	4608
गन्ध	4609
ूत	4610
##्ण	4611
तौ	4612
न्यास	4613
ेर्	4614
पण	4615
ेम	4616
र्मित	4617
तन्	4618
विविध	4619
िर्ण	4620
वच	4621
यच्छ	4622
र्ग	4623
##ज्	4624
रण्य	4625
भक्ति	4626
ेट	4627
िर्णय	4628
विस	4629
श्	4630
क्षर	4631
मिदं	4632
तय	4633
न्तः	4634
ीनां	4635
ोट	4636
वाच्य	4637
तुर्थ	4638
्यम	4639
्रति	4640
समये	4641
क्ष्य	4642
पाय	4643
ाथ	4644
ार्त	4645
२०	4646
कुत्र	4647
st	4648
खे	4649
ड़	4650
ोक्तं	4651
घ्न	4652
ध्र	4653
ोल	4654
प्राय	4655
ेतन	4656
पीड	4657
गन्त	4658
प्त	4659
ूप	4660
धीयते	4661
तुल्य	4662
त्मान	4663
षध	4664
िक्षा	4665
ाख्य	4666
ाह्मण	4667
१२	4668
र्श	4669
सैन	4670
रिणाम	4671
स्वर	4672
जगत्	4673
re	4674
िनां	4675
यि	4676
्वः	4677
न्नत	4678
th	4679
निध	4680
अहम्	4681
तक	4682
चन	4683
त्वम्	4684
त्यज	4685
ान्न	4686
प्रभ	4687
वेदन	4688
रोप	4689
भ्यास	4690
ाइ	4691
कृता	4692
ोम	4693
्था	4694
गा	4695
यै	4696
शीत	4697
शिष्य	4698
एषा	4699
विद्व	4700
कालः	4701
िरि	4702
स्थल	4703
श्चित	4704
घोष	4705
राश	4706
विंश	4707
पत्न	4708
शङ्क	4709
१५	4710
ुग्	4711
र्न	4712
दिक	4713
चक्र	4714
तन	4715
स्पृ	4716
चरण	4717
ङ्घ	4718
पदं	4719
तीय	4720
यद्य	4721
ार्ध	4722
##डा	4723
्ञानं	4724
वी	4725
ील	4726
वित्त	4727
मयि	4728
तू	4729
पौ	4730
दृढ	4731
अग्न	4732
रल	4733
टि	4734
ुद्ध	4735
वसाय	4736
संज्ञ	4737
राय	4738
ाक्षा	4739
इयं	4740
पश	4741
व्यः	4742
गृहं	4743
च्छेद	4744
मौ	4745
##le	4746
ात्रि	4747
10	4748
्रधान	4749
समाज	4750
णु	4751
परे	4752
देवी	4753
on	4754
िन्त	4755
धनं	4756
जीवित	4757
क्स	4758
an	4759
वरण	4760
नीत	4761
##ra	4762
्यर्थ	4763
ेतद	4764
नुक	4765
तिहास	4766
िखित	4767
ेख	4768
साध्य	4769
काव्य	4770
त्सव	4771
ताः	4772
वर्षा	4773
vi	4774
ूगु	4775
संख्य	4776
जप	4777
पुरस्	4778
विप	4779
ष्व	4780
विनाश	4781
गत्वा	4782
##str	4783
ददा	4784
जनवरी	4785
देय	4786
त्याग	4787
किल	4788
अस्म	4789
सत्	4790
ष्णु	4791
##ज्ञा	4792
रच	4793
वर्तन	4794
तान	4795
sg	4796
त्ययः	4797
बाह्य	4798
बुध	4799
िन्	4800
सन	4801
ूर्त	4802
षि	4803
्रीडा	4804
मनः	4805
ुक्ति	4806
ाड	4807
दीनां	4808
पृथि	4809
sgstr	4810
श्रव	4811
ेभ्यो	4812
पुराण	4813
मर	4814
अङ्ग	4815
तान्	4816
शून	4817
उद्	4818
एषः	4819
ुद	4820
भवत्	4821
स्ट	4822
यॊ	4823
पृथिव	4824
कारः	4825
मान्	4826
केच	4827
्रवि	4828
काय	4829
संशय	4830
पाक	4831
पथ	4832
भवन	4833
स्थिर	4834
दार्थ	4835
ोत्तम	4836
नाथ	4837
धृत	4838
ौर	4839
खण्ड	4840
िदं	4841
्धानि	4842
मस	4843
र्द	4844
सम्बद	4845
र्देश	4846
त्मन	4847
एकं	4848
दास	4849
निवेश	4850
हा	4851
ृत	4852
्थाने	4853
कृपया	4854
धेय	4855
##ध्	4856
थित	4857
नृत	4858
पुंस	4859
tag	4860
भर	4861
मानस	4862
्पष्ट	4863
शंस	4864
र्ण	4865
गृह्ण	4866
िभि	4867
स्स	4868
श्लोक	4869
कति	4870
श्वास	4871
ुप्त	4872
सोऽ	4873
सव	4874
ैश्च	4875
##re	4876
ट्ट	4877
योग्य	4878
स्मै	4879
ुत्प	4880
रूपा	4881
भ्यः	4882
ाश्र	4883
सेना	4884
शून्य	4885
कोट	4886
##दय	4887
ष्ण	4888
णं	4889
नदी	4890
अर्थः	4891
नुकूल	4892
्ष	4893
मन्त	4894
सृज	4895
धारा	4896
चक्षु	4897
संस्थ	4898
र्ता	4899
्य्य	4900
विमान	4901
तीर्थ	4902
ेस	4903
साद	4904
चार्य	4905
ंश्च	4906
घात	4907
वापि	4908
##मे	4909
##ome	4910
अभ	4911
ोड	4912
ाधिक	4913
ोण	4914
यम्	4915
एम	4916
ाप्ते	4917
्ज	4918
कुश	4919
मनस	4920
ब्रवी	4921
यात्	4922
अयम्	4923
म्प	4924
विजय	4925
यश	4926
तार	4927
ज्ञाप	4928
्राम	4929
##कर	4930
वने	4931
सुखं	4932
##ss	4933
ातु	4934
षड	4935
संक	4936
ण्ट	4937
भी	4938
लन	4939
तिशत	4940
##्नो	4941
पिं	4942
बहू	4943
पशु	4944
षा	4945
nt	4946
se	4947
गौ	4948
संप्र	4949
्ये	4950
क्रोध	4951
भ्यां	4952
ब्रू	4953
ायन	4954
ात्मा	4955
सत्यं	4956
कीदृश	4957
१४	4958
सदस्य	4959
ीश्वर	4960
##ट्	4961
त्वे	4962
ाःगु	4963
मुदा	4964
श्रोत	4965
दीय	4966
्रीय	4967
हिम	4968
ैष	4969
योर	4970
शृणु	4971
पल	4972
##al	4973
समर्प	4974
er	4975
कर्ष	4976
तेऽ	4977
##an	4978
न्यून	4979
li	4980
आई	4981
भक्ष	4982
ाकार	4983
्छ	4984
िश्चय	4985
ंच	4986
समस्त	4987
दिव	4988
पो	4989
िष्य	4990
ाधारण	4991
थ्व	4992
्रविश	4993
च्व	4994
ैल	4995
कृतम्	4996
ग्रे	4997
िणः	4998
ज्व	4999
