[UNK]	0
[CLS]	1
[SEP]	2
[PAD]	3
[MASK]	4
!	5
"	6
#	7
$	8
%	9
&	10
'	11
(	12
)	13
*	14
+	15
,	16
-	17
.	18
/	19
0	20
1	21
2	22
3	23
4	24
5	25
6	26
7	27
8	28
9	29
:	30
;	31
<	32
=	33
>	34
?	35
@	36
[	37
\	38
]	39
^	40
_	41
a	42
b	43
c	44
d	45
e	46
f	47
g	48
h	49
i	50
j	51
k	52
l	53
m	54
n	55
o	56
p	57
q	58
r	59
s	60
t	61
u	62
v	63
w	64
x	65
y	66
z	67
{	68
}	69
~	70
¡	71
¢	72
£	73
¤	74
¥	75
¦	76
§	77
©	78
¬	79
®	80
°	81
±	82
¶	83
·	84
¿	85
×	86
ß	87
à	88
á	89
â	90
ã	91
ä	92
å	93
æ	94
ç	95
è	96
é	97
ê	98
ë	99
ì	100
í	101
î	102
ï	103
ð	104
ñ	105
ò	106
ó	107
ô	108
õ	109
ö	110
÷	111
ø	112
ù	113
ú	114
û	115
ü	116
ý	117
þ	118
ÿ	119
ā	120
ă	121
ą	122
ć	123
ĉ	124
ċ	125
č	126
ē	127
ĕ	128
ė	129
ę	130
ě	131
ğ	132
ī	133
į	134
ı	135
ķ	136
ł	137
ń	138
ŋ	139
ō	140
ŏ	141
œ	142
ř	143
ś	144
ş	145
š	146
ť	147
ū	148
ů	149
ų	150
ż	151
ž	152
ƒ	153
ư	154
ǀ	155
ǁ	156
ǒ	157
ǔ	158
ȧ	159
ȩ	160
ȯ	161
ɑ	162
ɒ	163
ɔ	164
ə	165
ɛ	166
ɜ	167
ɡ	168
ɪ	169
ʁ	170
ʃ	171
ʈ	172
ʉ	173
ʊ	174
ʋ	175
ʌ	176
ʏ	177
ʒ	178
ʟ	179
ʻ	180
ʼ	181
ʿ	182
ˆ	183
ˈ	184
ˌ	185
ˎ	186
ː	187
ˑ	188
́	189
̃	190
̄	191
̆	192
̇	193
̈	194
̊	195
̍	196
̐	197
̕	198
̖	199
̠	200
̣	201
̥	202
̧	203
̪	204
̶	205
ά	206
ή	207
α	208
β	209
δ	210
ε	211
ζ	212
η	213
θ	214
ι	215
κ	216
μ	217
ν	218
ο	219
π	220
ρ	221
ς	222
σ	223
τ	224
φ	225
χ	226
ψ	227
ω	228
ό	229
а	230
б	231
в	232
г	233
д	234
е	235
ж	236
з	237
и	238
й	239
к	240
л	241
м	242
н	243
о	244
п	245
р	246
с	247
т	248
у	249
ф	250
х	251
ц	252
ч	253
ш	254
щ	255
ы	256
ь	257
э	258
ю	259
я	260
ё	261
є	262
і	263
ї	264
ј	265
ў	266
ҫ	267
ү	268
ә	269
ө	270
ա	271
ե	272
կ	273
հ	274
ն	275
ր	276
ւ	277
ַ	278
א	279
ב	280
ג	281
ד	282
ה	283
ו	284
ט	285
י	286
כ	287
ל	288
ם	289
מ	290
ן	291
נ	292
ס	293
ע	294
ף	295
פ	296
צ	297
ק	298
ר	299
ש	300
ת	301
ײ	302
؞	303
ء	304
آ	305
أ	306
إ	307
ئ	308
ا	309
ب	310
ة	311
ت	312
ج	313
ح	314
خ	315
د	316
ذ	317
ر	318
ز	319
س	320
ش	321
ص	322
ط	323
ع	324
غ	325
ف	326
ق	327
ك	328
ل	329
م	330
ن	331
ه	332
و	333
ى	334
ي	335
ً	336
ُ	337
ِ	338
٫	339
٬	340
ٰ	341
ٹ	342
ټ	343
پ	344
چ	345
ڌ	346
ک	347
ڪ	348
گ	349
ں	350
ڼ	351
ھ	352
ہ	353
ۂ	354
ۆ	355
ۇ	356
ی	357
۔	358
ە	359
ܐ	360
ܒ	361
ܕ	362
ܘ	363
ܚ	364
ܛ	365
ܟ	366
ܠ	367
ܣ	368
ܦ	369
ܪ	370
ܬ	371
ँ	372
ं	373
ः	374
ऄ	375
अ	376
आ	377
इ	378
ई	379
उ	380
ऊ	381
ऋ	382
ऌ	383
ऍ	384
ऎ	385
ए	386
ऐ	387
ऑ	388
ऒ	389
ओ	390
औ	391
क	392
ख	393
ग	394
घ	395
ङ	396
च	397
छ	398
ज	399
झ	400
ञ	401
ट	402
ठ	403
ड	404
ढ	405
ण	406
त	407
थ	408
द	409
ध	410
न	411
ऩ	412
प	413
फ	414
ब	415
भ	416
म	417
य	418
र	419
ऱ	420
ल	421
ळ	422
ऴ	423
व	424
श	425
ष	426
स	427
ह	428
ऺ	429
ऻ	430
़	431
ऽ	432
ा	433
ि	434
ी	435
ु	436
ू	437
ृ	438
ॄ	439
ॅ	440
ॆ	441
े	442
ै	443
ॉ	444
ॊ	445
ो	446
ौ	447
्	448
ॐ	449
॑	450
॒	451
॓	452
॔	453
ॠ	454
ॡ	455
ॢ	456
।	457
॥	458
०	459
१	460
२	461
३	462
४	463
५	464
६	465
७	466
८	467
९	468
॰	469
ॱ	470
ॵ	471
ॺ	472
ॼ	473
ॾ	474
ॿ	475
ং	476
আ	477
ই	478
উ	479
এ	480
ক	481
খ	482
গ	483
ঘ	484
চ	485
ছ	486
জ	487
ট	488
ঠ	489
ড	490
ঢ	491
ণ	492
ত	493
থ	494
দ	495
ধ	496
ন	497
প	498
ব	499
ম	500
য	501
র	502
ল	503
ষ	504
স	505
হ	506
়	507
া	508
ি	509
ী	510
ু	511
ৃ	512
ে	513
ো	514
্	515
০	516
৩	517
৭	518
ৰ	519
ৱ	520
৷	521
ਂ	522
ਅ	523
ਇ	524
ਊ	525
ਏ	526
ਕ	527
ਖ	528
ਗ	529
ਜ	530
ਟ	531
ਡ	532
ਣ	533
ਤ	534
ਦ	535
ਨ	536
ਪ	537
ਬ	538
ਮ	539
ਰ	540
ਲ	541
ਸ	542
਼	543
ਾ	544
ਿ	545
ੀ	546
ੁ	547
ੂ	548
ੇ	549
ੋ	550
੍	551
ੰ	552
ੱ	553
ં	554
ઃ	555
અ	556
આ	557
ઈ	558
ઉ	559
એ	560
ઓ	561
ક	562
ખ	563
ગ	564
ચ	565
છ	566
જ	567
ઝ	568
ઞ	569
ટ	570
ઠ	571
ડ	572
ણ	573
ત	574
થ	575
દ	576
ધ	577
ન	578
પ	579
ફ	580
બ	581
ભ	582
મ	583
ય	584
ર	585
લ	586
ળ	587
વ	588
શ	589
ષ	590
સ	591
હ	592
઼	593
ા	594
િ	595
ી	596
ુ	597
ૂ	598
ૃ	599
ે	600
ો	601
્	602
ૐ	603
ૠ	604
૦	605
૧	606
૨	607
૩	608
૪	609
૫	610
૬	611
૭	612
૮	613
૯	614
ଃ	615
ଆ	616
ଓ	617
କ	618
ଖ	619
ଡ	620
ତ	621
ପ	622
ଭ	623
ର	624
ଲ	625
଼	626
ା	627
ି	628
େ	629
୍	630
ୟ	631
அ	632
ஆ	633
இ	634
உ	635
எ	636
ஐ	637
க	638
ச	639
ஜ	640
ட	641
ண	642
த	643
ந	644
ன	645
ப	646
ம	647
ய	648
ர	649
ற	650
ல	651
ள	652
ழ	653
வ	654
ஶ	655
ஷ	656
ஸ	657
ஹ	658
ா	659
ி	660
ீ	661
ு	662
ூ	663
ெ	664
ே	665
ை	666
ொ	667
ோ	668
்	669
ం	670
అ	671
ఉ	672
ఎ	673
ఓ	674
క	675
చ	676
జ	677
డ	678
త	679
ద	680
ధ	681
న	682
ప	683
ఫ	684
భ	685
మ	686
య	687
ర	688
ల	689
వ	690
శ	691
ష	692
స	693
హ	694
ా	695
ి	696
ు	697
ె	698
ే	699
ై	700
ో	701
్	702
ಂ	703
ಃ	704
ಅ	705
ಇ	706
ಉ	707
ಎ	708
ಕ	709
ಗ	710
ಚ	711
ಜ	712
ಟ	713
ಠ	714
ಡ	715
ತ	716
ದ	717
ನ	718
ಪ	719
ಬ	720
ಭ	721
ಮ	722
ಯ	723
ರ	724
ಲ	725
ಳ	726
ವ	727
ಶ	728
ಸ	729
ಹ	730
ಾ	731
ಿ	732
ೀ	733
ು	734
ೂ	735
ೃ	736
ೆ	737
ೇ	738
ೊ	739
ೋ	740
್	741
೦	742
೧	743
೨	744
೩	745
೪	746
ೲ	747
ം	748
അ	749
ആ	750
ഇ	751
ഈ	752
ഉ	753
എ	754
ക	755
ഖ	756
ഗ	757
ങ	758
ച	759
ഛ	760
ജ	761
ഞ	762
ട	763
ഠ	764
ണ	765
ത	766
ഥ	767
ദ	768
ധ	769
ന	770
പ	771
ബ	772
ഭ	773
മ	774
യ	775
ര	776
റ	777
ല	778
ള	779
ഴ	780
വ	781
ശ	782
ഷ	783
സ	784
ഹ	785
ാ	786
ി	787
ീ	788
ു	789
ൂ	790
ൃ	791
െ	792
േ	793
ൈ	794
ൊ	795
ോ	796
്	797
ൻ	798
ർ	799
ൽ	800
ൾ	801
ක	802
ග	803
ත	804
ද	805
න	806
ප	807
ම	808
ය	809
ල	810
ව	811
ශ	812
ස	813
්	814
ා	815
ි	816
ො	817
ค	818
ง	819
ด	820
ต	821
น	822
บ	823
พ	824
ฟ	825
ม	826
ร	827
ห	828
อ	829
ฮ	830
ั	831
า	832
ิ	833
ี	834
เ	835
โ	836
่	837
้	838
་	839
།	840
༔	841
༡	842
༣	843
༨	844
ཁ	845
ག	846
ང	847
ཊ	848
ཐ	849
ན	850
པ	851
བ	852
མ	853
ཚ	854
ཝ	855
ཟ	856
ཡ	857
ལ	858
ཥ	859
ས	860
ཧ	861
ཱ	862
ི	863
ུ	864
ྀ	865
ྒ	866
ྥ	867
ྨ	868
ྭ	869
ྱ	870
ྲ	871
ླ	872
၊	873
ა	874
გ	875
დ	876
ე	877
ვ	878
ზ	879
თ	880
ი	881
ლ	882
ნ	883
რ	884
ს	885
უ	886
ც	887
ჱ	888
ᄉ	889
ᄌ	890
ᅩ	891
ᆬ	892
ሉ	893
ሕ	894
ሩ	895
በ	896
ብ	897
ቮ	898
እ	899
ኳ	900
ዝ	901
ገ	902
ጻ	903
ፂ	904
ፃ	905
፪	906
ᒃ	907
ᒄ	908
ᒎ	909
ᓚ	910
ᗢ	911
ᘏ	912
ᚨ	913
ᚩ	914
ᚻ	915
ᚾ	916
ᛁ	917
ᛋ	918
ᛏ	919
ᛖ	920
ᛗ	921
ᛚ	922
ᛞ	923
᛫	924
ᭅ	925
᭠	926
᭭	927
ᮩ	928
᮰	929
ᱧ	930
᳒	931
᳖	932
᳘	933
᳚	934
ᳪ	935
ᳬ	936
᳭	937
ᳲ	938
ᴀ	939
ᴇ	940
ḍ	941
ḏ	942
ḥ	943
ḩ	944
ṁ	945
ṃ	946
ṅ	947
ṇ	948
ṛ	949
ṝ	950
ṣ	951
ṭ	952
ắ	953
ế	954
ệ	955
ủ	956
ἀ	957
ὁ	958
ὕ	959
ὸ	960
ῖ	961
‐	962
‒	963
―	964
‖	965
†	966
‡	967
•	968
‰	969
′	970
‹	971
›	972
※	973
⁄	974
₩	975
€	976
₹	977
⃣	978
←	979
↑	980
→	981
↓	982
↔	983
↕	984
↗	985
↩	986
↲	987
⇄	988
⇏	989
⇒	990
⇔	991
∅	992
∆	993
∈	994
−	995
∕	996
∖	997
∙	998
√	999
∝	1000
∠	1001
∩	1002
∫	1003
∴	1004
∵	1005
≈	1006
≍	1007
≠	1008
≡	1009
≤	1010
≥	1011
≦	1012
⊂	1013
⊃	1014
⊕	1015
⋆	1016
⋙	1017
⏳	1018
▀	1019
▁	1020
■	1021
□	1022
▪	1023
▲	1024
△	1025
▶	1026
▷	1027
►	1028
▼	1029
◄	1030
◆	1031
◇	1032
◉	1033
◊	1034
◌	1035
◎	1036
●	1037
◦	1038
☀	1039
☁	1040
★	1041
☆	1042
☑	1043
☘	1044
☝	1045
☰	1046
☸	1047
☹	1048
☺	1049
♀	1050
♂	1051
♈	1052
♉	1053
♡	1054
♣	1055
♥	1056
♦	1057
♫	1058
♻	1059
⚏	1060
⚕	1061
⚡	1062
⚪	1063
⚫	1064
⛅	1065
⛈	1066
⛳	1067
⛹	1068
✅	1069
✌	1070
✍	1071
✒	1072
✓	1073
✔	1074
✖	1075
✥	1076
✦	1077
✧	1078
✨	1079
✪	1080
✳	1081
✴	1082
✹	1083
✺	1084
✼	1085
✿	1086
❁	1087
❇	1088
❌	1089
❍	1090
❑	1091
❗	1092
❣	1093
❤	1094
❯	1095
➖	1096
➛	1097
➜	1098
➞	1099
➡	1100
➢	1101
➤	1102
➥	1103
➦	1104
➧	1105
➨	1106
⟶	1107
⟷	1108
⠀	1109
⦁	1110
⭐	1111
⭕	1112
、	1113
。	1114
〈	1115
《	1116
》	1117
「	1118
」	1119
【	1120
】	1121
あ	1122
い	1123
う	1124
お	1125
か	1126
が	1127
き	1128
く	1129
け	1130
げ	1131
ご	1132
さ	1133
ざ	1134
し	1135
す	1136
た	1137
だ	1138
ち	1139
っ	1140
つ	1141
て	1142
で	1143
と	1144
ど	1145
な	1146
に	1147
の	1148
は	1149
ひ	1150
ま	1151
み	1152
む	1153
め	1154
も	1155
ゃ	1156
や	1157
よ	1158
ら	1159
る	1160
れ	1161
を	1162
ん	1163
ア	1164
ィ	1165
イ	1166
エ	1167
オ	1168
ク	1169
グ	1170
コ	1171
シ	1172
ジ	1173
ス	1174
ズ	1175
セ	1176
ゼ	1177
ソ	1178
タ	1179
チ	1180
ッ	1181
ツ	1182
テ	1183
デ	1184
ト	1185
ナ	1186
ネ	1187
ノ	1188
バ	1189
パ	1190
ヒ	1191
ピ	1192
プ	1193
ボ	1194
ポ	1195
マ	1196
ャ	1197
ョ	1198
ラ	1199
リ	1200
ル	1201
ロ	1202
ン	1203
・	1204
ー	1205
一	1206
七	1207
三	1208
上	1209
不	1210
与	1211
世	1212
中	1213
为	1214
义	1215
习	1216
乱	1217
了	1218
事	1219
二	1220
于	1221
互	1222
五	1223
亦	1224
京	1225
亲	1226
人	1227
介	1228
从	1229
仕	1230
代	1231
份	1232
休	1233
伟	1234
位	1235
何	1236
余	1237
作	1238
你	1239
使	1240
依	1241
修	1242
個	1243
倒	1244
健	1245
僕	1246
元	1247
入	1248
全	1249
八	1250
六	1251
其	1252
具	1253
円	1254
册	1255
决	1256
出	1257
切	1258
划	1259
列	1260
利	1261
别	1262
到	1263
副	1264
加	1265
助	1266
化	1267
北	1268
十	1269
卍	1270
卐	1271
南	1272
印	1273
叉	1274
反	1275
发	1276
口	1277
句	1278
可	1279
各	1280
合	1281
同	1282
名	1283
后	1284
吗	1285
吥	1286
吸	1287
告	1288
员	1289
和	1290
咒	1291
哉	1292
哥	1293
哲	1294
哷	1295
唯	1296
喝	1297
嘅	1298
器	1299
四	1300
因	1301
図	1302
固	1303
国	1304
國	1305
地	1306
域	1307
堂	1308
報	1309
境	1310
增	1311
声	1312
处	1313
复	1314
外	1315
多	1316
夜	1317
夢	1318
大	1319
天	1320
奖	1321
奪	1322
好	1323
如	1324
威	1325
婆	1326
孕	1327
字	1328
存	1329
学	1330
安	1331
官	1332
定	1333
宦	1334
寝	1335
尊	1336
小	1337
少	1338
尔	1339
尼	1340
属	1341
岂	1342
工	1343
师	1344
席	1345
常	1346
年	1347
广	1348
应	1349
废	1350
度	1351
康	1352
廬	1353
异	1354
引	1355
弥	1356
当	1357
影	1358
彼	1359
得	1360
徹	1361
忘	1362
念	1363
性	1364
惑	1365
意	1366
愛	1367
感	1368
憶	1369
成	1370
我	1371
戻	1372
所	1373
执	1374
投	1375
摩	1376
收	1377
改	1378
政	1379
故	1380
效	1381
整	1382
文	1383
新	1384
方	1385
无	1386
日	1387
时	1388
星	1389
是	1390
显	1391
普	1392
晴	1393
更	1394
書	1395
最	1396
月	1397
有	1398
朝	1399
期	1400
杂	1401
東	1402
果	1403
某	1404
染	1405
查	1406
栄	1407
格	1408
械	1409
梵	1410
检	1411
模	1412
権	1413
機	1414
款	1415
止	1416
此	1417
母	1418
比	1419
民	1420
氣	1421
永	1422
求	1423
汇	1424
没	1425
泊	1426
流	1427
消	1428
添	1429
灭	1430
然	1431
熟	1432
父	1433
牙	1434
猫	1435
现	1436
班	1437
球	1438
理	1439
生	1440
用	1441
由	1442
疆	1443
痛	1444
発	1445
發	1446
白	1447
的	1448
益	1449
直	1450
相	1451
知	1452
研	1453
破	1454
祖	1455
离	1456
秘	1457
程	1458
稱	1459
究	1460
立	1461
章	1462
第	1463
答	1464
简	1465
类	1466
紅	1467
素	1468
終	1469
続	1470
網	1471
繁	1472
维	1473
者	1474
而	1475
肉	1476
能	1477
自	1478
花	1479
若	1480
英	1481
茶	1482
葬	1483
薩	1484
處	1485
蛟	1486
蝶	1487
衆	1488
行	1489
表	1490
西	1491
见	1492
观	1493
视	1494
觉	1495
解	1496
言	1497
記	1498
訳	1499
試	1500
語	1501
論	1502
讓	1503
计	1504
讨	1505
许	1506
论	1507
话	1508
语	1509
说	1510
诸	1511
贪	1512
越	1513
足	1514
身	1515
車	1516
转	1517
辦	1518
达	1519
过	1520
运	1521
返	1522
追	1523
通	1524
逝	1525
進	1526
遣	1527
那	1528
都	1529
释	1530
量	1531
金	1532
鉄	1533
错	1534
长	1535
間	1536
间	1537
闻	1538
阿	1539
除	1540
陸	1541
障	1542
雨	1543
電	1544
靈	1545
非	1546
面	1547
韩	1548
音	1549
響	1550
願	1551
页	1552
须	1553
颂	1554
飞	1555
飲	1556
首	1557
龙	1558
꣡	1559
꣢	1560
꣣	1561
꣫	1562
꣯	1563
ꣲ	1564
ꣳ	1565
가	1566
간	1567
감	1568
개	1569
게	1570
고	1571
공	1572
과	1573
교	1574
국	1575
금	1576
급	1577
기	1578
깨	1579
나	1580
낱	1581
냐	1582
녹	1583
는	1584
니	1585
다	1586
달	1587
대	1588
더	1589
동	1590
두	1591
듬	1592
따	1593
뜨	1594
라	1595
락	1596
레	1597
력	1598
로	1599
름	1600
리	1601
만	1602
말	1603
망	1604
맵	1605
몸	1606
못	1607
뭐	1608
민	1609
받	1610
발	1611
백	1612
번	1613
법	1614
봇	1615
브	1616
비	1617
사	1618
산	1619
상	1620
서	1621
성	1622
세	1623
수	1624
술	1625
쉬	1626
슈	1627
스	1628
승	1629
시	1630
신	1631
아	1632
어	1633
없	1634
에	1635
염	1636
영	1637
예	1638
완	1639
외	1640
요	1641
우	1642
운	1643
월	1644
위	1645
을	1646
음	1647
의	1648
이	1649
인	1650
임	1651
입	1652
있	1653
자	1654
적	1655
전	1656
절	1657
정	1658
조	1659
좀	1660
주	1661
중	1662
증	1663
지	1664
째	1665
청	1666
크	1667
키	1668
탄	1669
탑	1670
터	1671
트	1672
특	1673
팅	1674
파	1675
하	1676
학	1677
한	1678
함	1679
합	1680
허	1681
효	1682
히	1683
힌	1684
힘	1685
︎	1686
️	1687
�	1688
𑆤	1689
𑌏	1690
𑌥	1691
𑌫	1692
𑌮	1693
𑌸	1694
𑐎	1695
𑐕	1696
𑐫	1697
𑐮	1698
𑐰	1699
𑐴	1700
𑐵	1701
𑑀	1702
𑑂	1703
𑑄	1704
𑑅	1705
🅰	1706
🇦	1707
🇮	1708
🇱	1709
🇳	1710
🇵	1711
🇸	1712
🇹	1713
🇺	1714
🌀	1715
🌃	1716
🌄	1717
🌅	1718
🌈	1719
🌉	1720
🌍	1721
🌎	1722
🌏	1723
🌖	1724
🌙	1725
🌛	1726
🌝	1727
🌞	1728
🌟	1729
🌠	1730
🌰	1731
🌱	1732
🌴	1733
🌷	1734
🌸	1735
🌹	1736
🌺	1737
🌻	1738
🌼	1739
🌿	1740
🍀	1741
🍁	1742
🍃	1743
🍋	1744
🍥	1745
🍾	1746
🎂	1747
🎃	1748
🎉	1749
🎊	1750
🎋	1751
🎎	1752
🎓	1753
🎖	1754
🎤	1755
🎯	1756
🎵	1757
🎶	1758
🎼	1759
🏀	1760
🏃	1761
🏏	1762
🏠	1763
🏮	1764
🏷	1765
🏹	1766
🏻	1767
🏽	1768
🐕	1769
🐙	1770
🐯	1771
👆	1772
👇	1773
👈	1774
👉	1775
👌	1776
👍	1777
👏	1778
👞	1779
👣	1780
👦	1781
👧	1782
👨	1783
👩	1784
👫	1785
👱	1786
👴	1787
💄	1788
💏	1789
💐	1790
💑	1791
💓	1792
💔	1793
💕	1794
💖	1795
💗	1796
💘	1797
💚	1798
💛	1799
💝	1800
💠	1801
💥	1802
💦	1803
💧	1804
💫	1805
💮	1806
💰	1807
💱	1808
💵	1809
📂	1810
📌	1811
📎	1812
📏	1813
📕	1814
📖	1815
📚	1816
📝	1817
📢	1818
📣	1819
📰	1820
📱	1821
📳	1822
📸	1823
📺	1824
🔅	1825
🔊	1826
🔍	1827
🔐	1828
🔔	1829
🔗	1830
🔟	1831
🔥	1832
🔰	1833
🔱	1834
🔶	1835
🔷	1836
🔸	1837
🔹	1838
🔺	1839
🔻	1840
🕉	1841
🕔	1842
🖊	1843
🖱	1844
🗃	1845
🗒	1846
🗣	1847
🗳	1848
😀	1849
😂	1850
😃	1851
😄	1852
😅	1853
😇	1854
😉	1855
😊	1856
😌	1857
😍	1858
😎	1859
😒	1860
😔	1861
😘	1862
😜	1863
😝	1864
😞	1865
😡	1866
😢	1867
😩	1868
😳	1869
🙁	1870
🙂	1871
🙅	1872
🙆	1873
🙌	1874
🙍	1875
🙎	1876
🙏	1877
🚑	1878
🚩	1879
🚷	1880
🛑	1881
🛡	1882
🤔	1883
🤗	1884
🤝	1885
🤦	1886
🤩	1887
🤪	1888
🤲	1889
🥀	1890
🥂	1891
🥇	1892
🥰	1893
🦂	1894
🧐	1895
🧜	1896
🩸	1897
🪔	1898
##ट	1899
##र	1900
##ू	1901
##प	1902
##स	1903
##्	1904
##य	1905
##ा	1906
##द	1907
##ृ	1908
##ं	1909
##छ	1910
##ि	1911
##त	1912
##ु	1913
##ल	1914
##ी	1915
##न	1916
##ष	1917
##श	1918
##व	1919
##क	1920
##ण	1921
##च	1922
##े	1923
##भ	1924
##ः	1925
##४	1926
##७	1927
##ो	1928
##ै	1929
##ज	1930
##ह	1931
##म	1932
##ञ	1933
##ध	1934
##ख	1935
##ब	1936
##0	1937
##4	1938
##ग	1939
##थ	1940
##इ	1941
##ङ	1942
##1	1943
##8	1944
##e	1945
##m	1946
##a	1947
##s	1948
##y	1949
##h	1950
##g	1951
##b	1952
##t	1953
##ऽ	1954
##फ	1955
##2	1956
##9	1957
##r	1958
##n	1959
##c	1960
##i	1961
##ई	1962
##̇	1963
##़	1964
##ठ	1965
##६	1966
##३	1967
##7	1968
##ँ	1969
##घ	1970
##ौ	1971
##ॊ	1972
##॒	1973
##ळ	1974
##v	1975
##ʼ	1976
##ड	1977
##२	1978
##०	1979
##尊	1980
##龙	1981
##_	1982
##首	1983
##页	1984
##u	1985
##j	1986
##w	1987
##k	1988
##१	1989
##ॆ	1990
##ढ	1991
##ॉ	1992
##6	1993
##5	1994
##ए	1995
##ॄ	1996
##अ	1997
##o	1998
##l	1999
##-	2000
##p	2001
##.	2002
##d	2003
##f	2004
##3	2005
##॑	2006
##५	2007
##િ	2008
##ધ	2009
##્	2010
##ા	2011
##ં	2012
##ત	2013
##९	2014
##झ	2015
##८	2016
##{	2017
##"	2018
##।	2019
##x	2020
##आ	2021
##ओ	2022
##!	2023
##q	2024
##उ	2025
##̐	2026
##因	2027
##性	2028
##决	2029
##定	2030
##ā	2031
##ങ	2032
##്	2033
##ന	2034
##െ	2035
##औ	2036
##👍	2037
##ऋ	2038
##ॅ	2039
##[	2040
##z	2041
##ḥ	2042
##ऑ	2043
##᳚	2044
##î	2045
##ˆ	2046
##;	2047
##ऱ	2048
##ƒ	2049
##ܘ	2050
##ܠ	2051
##ܦ	2052
##ܐ	2053
##ു	2054
##ബ	2055
##ധ	2056
##ം	2057
##ऊ	2058
##ு	2059
##ர	2060
##ஷ	2061
##ன	2062
##்	2063
##া	2064
##ক	2065
##ু	2066
##র	2067
##ç	2068
##ắ	2069
##む	2070
##ꣳ	2071
##,	2072
##ə	2073
##̣	2074
##)	2075
##ऴ	2076
##ॐ	2077
##꣡	2078
##꣢	2079
##い	2080
##が	2081
##く	2082
##👈	2083
##్	2084
##ర	2085
##ద	2086
##ధ	2087
##ऩ	2088
##᳖	2089
##'	2090
##*	2091
##]	2092
##所	2093
##说	2094
##相	2095
##反	2096
##♡	2097
##᳘	2098
##ś	2099
##॥	2100
##願	2101
##な	2102
##つ	2103
##ī	2104
##ṣ	2105
##ل	2106
##ا	2107
##م	2108
##í	2109
##:	2110
##ம	2111
##ி	2112
##ழ	2113
##ந	2114
##ா	2115
##ட	2116
##ી	2117
##એ	2118
##ম	2119
##হ	2120
##ং	2121
##স	2122
##ॢ	2123
##叉	2124
###	2125
##ො	2126
##ය	2127
##ි	2128
##ක	2129
##්	2130
##ම	2131
##ව	2132
##ා	2133
##ऌ	2134
##🙏	2135
##星	2136
##ऄ	2137
##タ	2138
##チ	2139
##コ	2140
##マ	2141
##ζ	2142
##}	2143
##þ	2144
##॰	2145
##ø	2146
##ي	2147
##ک	2148
##ண	2149
##ి	2150
##̥	2151
##~	2152
##ó	2153
##ı	2154
##ğ	2155
##%	2156
##і	2157
##н	2158
##д	2159
##з	2160
##ū	2161
##ṛ	2162
##ō	2163
##?	2164
##ñ	2165
##а	2166
##р	2167
##я	2168
##•	2169
##á	2170
##у	2171
##ف	2172
##ی	2173
##ع	2174
##ü	2175
##ੋ	2176
##ਂ	2177
##ਡ	2178
##ن	2179
##❤	2180
##ê	2181
##꣣	2182
##ऺ	2183
##🏻	2184
##💐	2185
##=	2186
##́	2187
##ᳪ	2188
##᳭	2189
##을	2190
##ગ	2191
##ઉ	2192
##ન	2193
##$	2194
##ú	2195
##॓	2196
##ഈ	2197
##ṇ	2198
##ર	2199
##ऐ	2200
##த	2201
##ய	2202
##ோ	2203
##ீ	2204
##ஶ	2205
##உ	2206
##ഞ	2207
##ച	2208
##ി	2209
##ത	2210
##ര	2211
##ę	2212
##ş	2213
##ã	2214
##ï	2215
##ે	2216
##à	2217
##ŋ	2218
##√	2219
##ऍ	2220
##영	2221
##상	2222
##ч	2223
##й	2224
##💠	2225
##ാ	2226
##ജ	2227
##യ	2228
##ල	2229
##ද	2230
##ப	2231
##ы	2232
##т	2233
##п	2234
##க	2235
##ள	2236
##🇮	2237
##🇳	2238
##蝶	2239
##葬	2240
##花	2241
##>	2242
##ಾ	2243
##ಠ	2244
##ಲ	2245
##್	2246
##ಿ	2247
##외	2248
##ɪ	2249
##ʒ	2250
##ɜ	2251
##ː	2252
##此	2253
##亦	2254
##遣	2255
##除	2256
##🚩	2257
##ো	2258
##গ	2259
##ூ	2260
##ਕ	2261
##ਾ	2262
##ਲ	2263
##ੀ	2264
##ᘏ	2265
##ᗢ	2266
##️	2267
##ȯ	2268
##/	2269
##é	2270
##м	2271
##и	2272
##в	2273
##э	2274
##š	2275
##о	2276
##ь	2277
##с	2278
##🌙	2279
##૦	2280
##æ	2281
##ળ	2282
##\	2283
##ཱ	2284
##כ	2285
##ו	2286
##ן	2287
##¤	2288
##代	2289
##十	2290
##國	2291
##ರ	2292
##ಳ	2293
##૪	2294
##е	2295
##л	2296
##到	2297
##一	2298
##切	2299
##安	2300
##好	2301
##←	2302
##জ	2303
##ش	2304
##ט	2305
##༨	2306
##б	2307
##۔	2308
##ز	2309
##ه	2310
##ر	2311
##ء	2312
##個	2313
##ب	2314
##+	2315
##ട	2316
##ക	2317
##ള	2318
##六	2319
##章	2320
##消	2321
##化	2322
##吸	2323
##收	2324
##处	2325
##ö	2326
##年	2327
##月	2328
##함	2329
##ে	2330
##ল	2331
##疆	2332
##维	2333
##尔	2334
##自	2335
##た	2336
##가	2337
##&	2338
##ਨ	2339
##<	2340
##ま	2341
##す	2342
##ē	2343
##ʊ	2344
##ً	2345
##è	2346
##🐯	2347
##🌿	2348
##🕉	2349
##만	2350
##간	2351
##🌹	2352
##ऎ	2353
##̃	2354
##ᱧ	2355
##ெ	2356
##ł	2357
##ń	2358
##ॠ	2359
##𑐕	2360
##𑑂	2361
##𑐫	2362
##𑐵	2363
##𑐎	2364
##𑑅	2365
##ፂ	2366
##₹	2367
##👌	2368
##г	2369
##ṁ	2370
##ُ	2371
##ë	2372
##ற	2373
##ṭ	2374
##چ	2375
##ઃ	2376
##→	2377
##ì	2378
##ॺ	2379
##ૠ	2380
##ж	2381
##α	2382
##μ	2383
##π	2384
##ῖ	2385
##॔	2386
##🌞	2387
##હ	2388
##મ	2389
##વ	2390
##દ	2391
##â	2392
##ऻ	2393
##ફ	2394
##ю	2395
##ಟ	2396
##ು	2397
##å	2398
##事	2399
##ž	2400
##ṅ	2401
##引	2402
##何	2403
##‡	2404
##ഗ	2405
##খ	2406
##প	2407
##ধ	2408
##্	2409
##য	2410
##়	2411
##פ	2412
##ר	2413
##っ	2414
##청	2415
##하	2416
##다	2417
##😡	2418
##🌺	2419
##ä	2420
##ס	2421
##י	2422
##ף	2423
##염	2424
##щ	2425
##用	2426
##期	2427
##間	2428
##か	2429
##་	2430
##̄	2431
##ો	2432
##થ	2433
##ὕ	2434
##ρ	2435
##η	2436
##κ	2437
##ك	2438
##ɛ	2439
##ɑ	2440
##終	2441
##電	2442
##車	2443
##ऒ	2444
##💮	2445
##술	2446
##▼	2447
##ྲ	2448
##ྭ	2449
##ী	2450
##ন	2451
##ప	2452
##న	2453
##య	2454
##ా	2455
##స	2456
##ం	2457
##د	2458
##̠	2459
##̍	2460
##泊	2461
##ん	2462
##ح	2463
##亲	2464
##和	2465
##祖	2466
##国	2467
##比	2468
##天	2469
##堂	2470
##更	2471
##伟	2472
##大	2473
##ι	2474
##入	2475
##ದ	2476
##ಗ	2477
##ೆ	2478
##ொ	2479
##வ	2480
##ை	2481
##ಸ	2482
##ತ	2483
##క	2484
##ష	2485
##వ	2486
##ൊ	2487
##േ	2488
##ണ	2489
##ൽ	2490
##ક	2491
##威	2492
##ɡ	2493
##器	2494
##人	2495
##త	2496
##జ	2497
##ά	2498
##ط	2499
##ة	2500
##ր	2501
##ե	2502
##ւ	2503
##ա	2504
##ն	2505
##📺	2506
##円	2507
##🇹	2508
##🇦	2509
##🇺	2510
##🇵	2511
##🇱	2512
##🇸	2513
##ى	2514
##ە	2515
##@	2516
##إ	2517
##ḍ	2518
##ಂ	2519
##書	2520
##🗃	2521
##ˈ	2522
##ʋ	2523
##ભ	2524
##ય	2525
##ુ	2526
##🌍	2527
##ა	2528
##რ	2529
##დ	2530
##ი	2531
##ც	2532
##ვ	2533
##ლ	2534
##😃	2535
##گ	2536
##ත	2537
##ᳬ	2538
##ʃ	2539
##ટ	2540
##س	2541
##ت	2542
##增	2543
##解	2544
##的	2545
##新	2546
##全	2547
##ೂ	2548
##て	2549
##き	2550
##വ	2551
##̪	2552
##א	2553
##♥	2554
##ṃ	2555
##ć	2556
##ચ	2557
##ð	2558
##破	2559
##依	2560
##故	2561
##ੇ	2562
##و	2563
##œ	2564
##然	2565
##地	2566
##х	2567
##ੱ	2568
##通	2569
##🍁	2570
##ฮ	2571
##ิ	2572
##น	2573
##ด	2574
##ี	2575
##к	2576
##陸	2577
##ഹ	2578
##ൻ	2579
##💰	2580
##不	2581
##念	2582
##长	2583
##觉	2584
##̖	2585
##ʿ	2586
##ல	2587
##대	2588
##못	2589
##깨	2590
##는	2591
##ವ	2592
##ಡ	2593
##ᭅ	2594
##ె	2595
##డ	2596
##봇	2597
##이	2598
##ř	2599
##į	2600
##ദ	2601
##ോ	2602
##💫	2603
##げ	2604
##ら	2605
##ם	2606
##മ	2607
##ല	2608
##ロ	2609
##ー	2610
##バ	2611
##リ	2612
##ゼ	2613
##シ	2614
##ョ	2615
##ン	2616
##の	2617
##影	2618
##響	2619
##ہ	2620
##ൂ	2621
##ഷ	2622
##ʟ	2623
##ᴇ	2624
##ᴀ	2625
##ጻ	2626
##৷	2627
##處	2628
##·	2629
##语	2630
##ė	2631
##૧	2632
##మ	2633
##ు	2634
##⭐	2635
##გ	2636
##უ	2637
##ܣ	2638
##ܬ	2639
##જ	2640
##小	2641
##吗	2642
##സ	2643
##인	2644
##ડ	2645
##ਬ	2646
##ਰ	2647
##ྱ	2648
##ྀ	2649
##球	2650
##研	2651
##究	2652
##హ	2653
##者	2654
##观	2655
##为	2656
##‐	2657
##പ	2658
##😅	2659
##😂	2660
##꣯	2661
##🎖	2662
##ý	2663
##能	2664
##知	2665
##ò	2666
##ô	2667
##ё	2668
##দ	2669
##ত	2670
##永	2671
##続	2672
##繁	2673
##栄	2674
##ω	2675
##є	2676
##τ	2677
##ᛚ	2678
##ᛏ	2679
##ᚻ	2680
##ᛖ	2681
##ᚩ	2682
##ᛗ	2683
##름	2684
##(	2685
##弥	2686
##お	2687
##あ	2688
##め	2689
##ע	2690
##ב	2691
##ת	2692
##ج	2693
##지	2694
##北	2695
##京	2696
##ശ	2697
##面	2698
##存	2699
##废	2700
##讨	2701
##论	2702
##과	2703
##음	2704
##أ	2705
##φ	2706
##🎉	2707
##🍾	2708
##റ	2709
##や	2710
##સ	2711
##😍	2712
##ಯ	2713
##ೀ	2714
##作	2715
##错	2716
##义	2717
##名	2718
##나	2719
##요	2720
##ڌ	2721
##ї	2722
##ే	2723
##ˎ	2724
##ഭ	2725
##ק	2726
##ನ	2727
##ಕ	2728
##അ	2729
##ઈ	2730
##🌷	2731
##ち	2732
##ゃ	2733
##金	2734
##ષ	2735
##障	2736
##显	2737
##ą	2738
##度	2739
##其	2740
##余	2741
##^	2742
##😘	2743
##ј	2744
##ৰ	2745
##લ	2746
##雨	2747
##승	2748
##민	2749
##ス	2750
##パ	2751
##઼	2752
##બ	2753
##ૂ	2754
##ই	2755
##ീ	2756
##ব	2757
##発	2758
##音	2759
##仕	2760
##方	2761
##라	2762
##ײ	2763
##ַ	2764
##ॿ	2765
##û	2766
##ÿ	2767
##ഛ	2768
##∆	2769
##🌄	2770
##ǁ	2771
##세	2772
##八	2773
##ど	2774
##శ	2775
##声	2776
##应	2777
##广	2778
##ア	2779
##ジ	2780
##ト	2781
##效	2782
##康	2783
##ખ	2784
##异	2785
##过	2786
##果	2787
##同	2788
##け	2789
##≥	2790
##𑐰	2791
##𑐴	2792
##𑑄	2793
##朝	2794
##ણ	2795
##수	2796
##증	2797
##ზ	2798
##🖊	2799
##¦	2800
##č	2801
##±	2802
##可	2803
##口	2804
##哥	2805
##🏽	2806
##정	2807
##한	2808
##£	2809
##と	2810
##✓	2811
##ư	2812
##无	2813
##非	2814
##🌈	2815
##ස	2816
##ě	2817
##发	2818
##⠀	2819
##は	2820
##よ	2821
##う	2822
##ご	2823
##ざ	2824
##ॡ	2825
##し	2826
##加	2827
##ཊ	2828
##ш	2829
##백	2830
##汇	2831
##🤝	2832
##õ	2833
##ি	2834
##ズ	2835
##語	2836
##句	2837
##中	2838
##ઠ	2839
##ე	2840
##ნ	2841
##চ	2842
##¬	2843
##ኳ	2844
##성	2845
##듬	2846
##益	2847
##转	2848
##ِ	2849
##😇	2850
##💗	2851
##款	2852
##락	2853
##格	2854
##⚕	2855
##衆	2856
##의	2857
##ٰ	2858
##理	2859
##ʉ	2860
##🔐	2861
##意	2862
##了	2863
##达	2864
##各	2865
##别	2866
##🕔	2867
##꣫	2868
##而	2869
##咒	2870
##成	2871
##生	2872
##ల	2873
##★	2874
##ᆬ	2875
##ণ	2876
##☘	2877
##茶	2878
##を	2879
##ひ	2880
##休	2881
##み	2882
##さ	2883
##೦	2884
##ۇ	2885
##غ	2886
##ה	2887
##נ	2888
##ൾ	2889
##ц	2890
##🎼	2891
##ᄌ	2892
##ʌ	2893
##પ	2894
##😊	2895
##有	2896
##›	2897
##ೲ	2898
##୍	2899
##ର	2900
##ତ	2901
##ି	2902
##ଭ	2903
##ା	2904
##′	2905
##ۆ	2906
##ೊ	2907
##ג	2908
##ཁ	2909
##ུ	2910
##མ	2911
##ß	2912
##ų	2913
##מ	2914
##ד	2915
##ש	2916
##ྨ	2917
##ི	2918
##ས	2919
##ȩ	2920
##發	2921
##ർ	2922
##®	2923
##ǒ	2924
##ৃ	2925
##《	2926
##ಮ	2927
##ф	2928
##‹	2929
##키	2930
##낱	2931
##말	2932
##사	2933
##전	2934
##你	2935
##忘	2936
##記	2937
##憶	2938
##ャ	2939
##ל	2940
##位	2941
##是	2942
##闻	2943
##立	2944
##许	2945
##彼	2946
##都	2947
##χ	2948
##ή	2949
##δ	2950
##ς	2951
##੍	2952
##ਤ	2953
##ਮ	2954
##⛳	2955
##શ	2956
##✨	2957
##−	2958
##쉬	2959
##시	2960
##°	2961
##ˌ	2962
##ዝ	2963
##ብ	2964
##ྥ	2965
##ئ	2966
##국	2967
##ઞ	2968
##于	2969
##答	2970
##言	2971
##ൈ	2972
##ഖ	2973
##ル	2974
##신	2975
##중	2976
##입	2977
##니	2978
##브	2979
##σ	2980
##划	2981
##᭭	2982
##૨	2983
##ಃ	2984
##ೋ	2985
##ό	2986
##ν	2987
##ο	2988
##ླ	2989
##ང	2990
##ྒ	2991
##ན	2992
##💛	2993
##ᳲ	2994
##✍	2995
##ٹ	2996
##韩	2997
##民	2998
##😳	2999
##ฟ	3000
##ั	3001
##ง	3002
##。	3003
##世	3004
##间	3005
##📢	3006
##ラ	3007
##ǔ	3008
##월	3009
##当	3010
##デ	3011
##ィ	3012
##止	3013
##ପ	3014
##ഥ	3015
##政	3016
##官	3017
##员	3018
##💕	3019
##席	3020
##飞	3021
##行	3022
##运	3023
##检	3024
##查	3025
##►	3026
##吥	3027
##ড	3028
##る	3029
##白	3030
##猫	3031
##ù	3032
##้	3033
##ห	3034
##า	3035
##👇	3036
##🍀	3037
##⇒	3038
##ਿ	3039
##ਖ	3040
##互	3041
##杂	3042
##乱	3043
##থ	3044
##复	3045
##须	3046
##晴	3047
##ʁ	3048
##域	3049
##稱	3050
##ә	3051
##📸	3052
##习	3053
##父	3054
##×	3055
##🥀	3056
##ॾ	3057
##🔱	3058
##ੰ	3059
##ਜ	3060
##🍃	3061
##⃣	3062
##ż	3063
##ৱ	3064
##আ	3065
##印	3066
##§	3067
##ṝ	3068
##テ	3069
##뜨	3070
##리	3071
##ɔ	3072
##ʏ	3073
##▶	3074
##에	3075
##합	3076
##೨	3077
##೪	3078
##合	3079
##ছ	3080
##θ	3081
##᳒	3082
##̶	3083
##👩	3084
##🎓	3085
##利	3086
##🔥	3087
##👉	3088
##👨	3089
##👧	3090
##進	3091
##ķ	3092
##ۂ	3093
##ষ	3094
##程	3095
##০	3096
##৩	3097
##💏	3098
##ೇ	3099
##ಚ	3100
##●	3101
##宦	3102
##📰	3103
##พ	3104
##่	3105
##ม	3106
##日	3107
##ッ	3108
##ク	3109
##西	3110
##班	3111
##牙	3112
##🎶	3113
##与	3114
##属	3115
##ଡ	3116
##଼	3117
##ଆ	3118
##灭	3119
##常	3120
##如	3121
##类	3122
##ై	3123
##使	3124
##ሩ	3125
##게	3126
##두	3127
##어	3128
##پ	3129
##我	3130
##贪	3131
##¢	3132
##ே	3133
##♀	3134
##で	3135
##਼	3136
##ਣ	3137
##스	3138
##크	3139
##트	3140
##로	3141
##出	3142
##具	3143
##文	3144
##ҫ	3145
##ε	3146
##ὸ	3147
##量	3148
##颂	3149
##岂	3150
##ལ	3151
##ಪ	3152
##ಹ	3153
##从	3154
##身	3155
##诸	3156
##ق	3157
##آ	3158
##ಭ	3159
##工	3160
##师	3161
##◆	3162
##ট	3163
##少	3164
##寝	3165
##교	3166
##ڪ	3167
##ᚾ	3168
##ᛋ	3169
##ᛁ	3170
##ᛞ	3171
##哉	3172
##᮰	3173
##ഠ	3174
##அ	3175
##🤩	3176
##英	3177
##介	3178
##ૃ	3179
##𑑀	3180
##€	3181
##❌	3182
##ร	3183
##บ	3184
##อ	3185
##ต	3186
##れ	3187
##ȧ	3188
##😞	3189
##整	3190
##时	3191
##表	3192
##기	3193
##🤲	3194
##ệ	3195
##째	3196
##婆	3197
##薩	3198
##哷	3199
##那	3200
##摩	3201
##ഴ	3202
##운	3203
##ボ	3204
##に	3205
##େ	3206
##ଖ	3207
##କ	3208
##ଃ	3209
##话	3210
##☝	3211
##¡	3212
##学	3213
##械	3214
##ਟ	3215
##ೃ	3216
##ॱ	3217
##ܒ	3218
##ܛ	3219
##೧	3220
##ذ	3221
##セ	3222
##イ	3223
##染	3224
##ế	3225
##탄	3226
##력	3227
##적	3228
##💑	3229
##ŏ	3230
##ਸ	3231
##二	3232
##册	3233
##份	3234
##報	3235
##告	3236
##💔	3237
##ᄉ	3238
##급	3239
##≍	3240
##ɒ	3241
##得	3242
##🤪	3243
##ಶ	3244
##ಬ	3245
##🙂	3246
##ḏ	3247
##히	3248
##ቮ	3249
##ஹ	3250
##境	3251
##返	3252
##팅	3253
##ୟ	3254
##ں	3255
##터	3256
##레	3257
##서	3258
##చ	3259
##ో	3260
##倒	3261
##†	3262
##خ	3263
##😄	3264
##ൃ	3265
##ஸ	3266
##ॼ	3267
##逝	3268
##孕	3269
##ੁ	3270
##ੂ	3271
##ჱ	3272
##냐	3273
##자	3274
##🏀	3275
##🏹	3276
##➧	3277
##्य	3278
##्र	3279
##्त	3280
##्व	3281
##ान	3282
##ति	3283
##र्	3284
##म्	3285
##ित	3286
प्र	3287
##त्	3288
##्या	3289
##ार	3290
##ां	3291
वि	3292
##क्	3293
##न्	3294
##ते	3295
##स्य	3296
##मा	3297
##ष्	3298
##या	3299
##स्त	3300
##न्त	3301
##क्ष	3302
##स्	3303
##त्र	3304
##र्व	3305
##द्	3306
##ना	3307
##िक	3308
##ेन	3309
##था	3310
##ाद	3311
##ेव	3312
##क्त	3313
##ाम	3314
##त्य	3315
##तः	3316
##ाय	3317
##पि	3318
##वि	3319
पर	3320
##ाः	3321
##्च	3322
##त्त	3323
##ाव	3324
##ष्ट	3325
नि	3326
पु	3327
##ेष	3328
##प्र	3329
इति	3330
सं	3331
##ाल	3332
##र्थ	3333
##नि	3334
##मि	3335
सर्व	3336
##दा	3337
##्वा	3338
##यो	3339
##दि	3340
भव	3341
##द्ध	3342
##ता	3343
वा	3344
एव	3345
##र्त	3346
##ेश	3347
##्ञ	3348
स्	3349
स्व	3350
##्यते	3351
##ाप	3352
##ङ्	3353
##ान्	3354
##ृत	3355
##रा	3356
##श्च	3357
अन	3358
##यं	3359
##्यं	3360
##ये	3361
##ास	3362
##ानि	3363
##भि	3364
सम	3365
##िं	3366
##रण	3367
##र्म	3368
##नं	3369
रा	3370
तु	3371
##ात	3372
##्रि	3373
##ुर	3374
##ज्ञ	3375
##नः	3376
##्ये	3377
##कार	3378
##यः	3379
##ने	3380
##ाग	3381
##रि	3382
##च्	3383
##न्द	3384
प्रति	3385
##ुः	3386
सु	3387
##सं	3388
##ाण	3389
##ती	3390
##न्ति	3391
##ेद	3392
##र्ष	3393
सा	3394
##रे	3395
हि	3396
##रो	3397
##ल्	3398
##त्व	3399
पू	3400
##ुक्त	3401
##ष्ठ	3402
##ानां	3403
##च्छ	3404
##स्ति	3405
##ैव	3406
##मान	3407
यथा	3408
##ेत	3409
##ूप	3410
##िव	3411
##द्य	3412
ते	3413
##ाह	3414
इत्य	3415
##तो	3416
##र्ण	3417
अध	3418
##ात्	3419
त्व	3420
कार	3421
मह	3422
एक	3423
##ीय	3424
##ान्त	3425
##मे	3426
##स्थ	3427
विश	3428
देव	3429
##ब्	3430
द्व	3431
##भव	3432
##गु	3433
##सि	3434
##नु	3435
##रु	3436
##िः	3437
##ेण	3438
##ोऽ	3439
##ाष	3440
श्र	3441
##लं	3442
##कं	3443
##हं	3444
##मु	3445
##ङ्ग	3446
क्	3447
उप	3448
##ैः	3449
##ुं	3450
##व्य	3451
तथा	3452
##स्या	3453
##ितः	3454
##रं	3455
##ेषु	3456
कु	3457
सम्	3458
##का	3459
##र्ग	3460
##भाव	3461
कि	3462
##ृष्ट	3463
##न्ध	3464
##द्व	3465
##री	3466
##सा	3467
##ृश	3468
##स्तु	3469
##मः	3470
राज	3471
##ष्य	3472
##कः	3473
मे	3474
##प्त	3475
भवति	3476
##देश	3477
##क्र	3478
कथ	3479
क्ष	3480
##ृह	3481
##णं	3482
##िता	3483
##तं	3484
##ण्	3485
##वा	3486
मा	3487
सह	3488
##त्या	3489
##नो	3490
##ग्	3491
##रः	3492
##के	3493
यो	3494
किं	3495
##द्र	3496
##सी	3497
स्थ	3498
##कृ	3499
परि	3500
##तु	3501
##ग्र	3502
##न्य	3503
##योग	3504
कृ	3505
--	3506
##हि	3507
##ोप	3508
वै	3509
##स्मा	3510
सू	3511
व्य	3512
मु	3513
ना	3514
अपि	3515
##र्श	3516
##ञ्च	3517
##र्य	3518
##धि	3519
##ितं	3520
तत्	3521
##नी	3522
##ानं	3523
समा	3524
यदि	3525
##्री	3526
एत	3527
स्त	3528
##न्न	3529
##दं	3530
##णा	3531
##मेव	3532
अप	3533
तस्य	3534
##भू	3535
##भ्य	3536
दु	3537
##ीव	3538
प्राप	3539
तद	3540
अनु	3541
पूर्व	3542
##स्व	3543
पृ	3544
##ला	3545
##त्वा	3546
##ुद्ध	3547
##ल्प	3548
भू	3549
##याः	3550
##ब्द	3551
##रूप	3552
अस्ति	3553
##क्षण	3554
##स्मि	3555
##चित	3556
वर्ष	3557
तत्र	3558
ज्ञ	3559
##लो	3560
##ध्य	3561
कृत	3562
दि	3563
##ित्य	3564
##नम्	3565
एवं	3566
##तिः	3567
पा	3568
##ृत्त	3569
##ेत्	3570
##लि	3571
प्रा	3572
##श्व	3573
##धान	3574
बह	3575
##चार	3576
##ण्ड	3577
विद	3578
##श्र	3579
##ुप	3580
मम	3581
##कृत	3582
अथ	3583
गु	3584
##पू	3585
##श्य	3586
अव	3587
##ादि	3588
##त्स	3589
भार	3590
नाम	3591
प्रत्य	3592
पुनः	3593
##यति	3594
##न्ते	3595
##ेति	3596
##च्च	3597
##ितम्	3598
##नां	3599
##मं	3600
##शि	3601
##्यां	3602
##ोष	3603
##्ज	3604
##वान्	3605
व्या	3606
के	3607
##र्ध	3608
यत्	3609
##र्ज	3610
##धिक	3611
##स्म	3612
##णि	3613
कर्त	3614
काल	3615
##ले	3616
##प्	3617
लो	3618
पुन	3619
##चि	3620
गृह	3621
##ीं	3622
##भाष	3623
या	3624
##यम्	3625
##श्	3626
##न्त्र	3627
##यम	3628
##काल	3629
##क्षा	3630
##ित्र	3631
##करण	3632
##ीत	3633
अन्य	3634
##भाग	3635
##ाना	3636
##ुव	3637
##पद	3638
##्रिय	3639
##ेषां	3640
##ाणि	3641
##त्म	3642
##र्थः	3643
##णे	3644
कर्म	3645
##ख्या	3646
##क्ति	3647
##ान्य	3648
स्म	3649
तदा	3650
##न्म	3651
##क्षि	3652
##पाद	3653
##न्द्र	3654
वृ	3655
प्रथ	3656
भाष	3657
स्या	3658
ग्र	3659
शि	3660
##तां	3661
##भिः	3662
प्रव	3663
अधिक	3664
तव	3665
##ानु	3666
जन	3667
##ामि	3668
सि	3669
##धा	3670
##स्त्र	3671
दृष्ट	3672
##युक्त	3673
##न्तु	3674
को	3675
वर्त	3676
##पर	3677
ततः	3678
##पु	3679
का	3680
##बन्ध	3681
##णां	3682
ति	3683
##ित्त	3684
##सु	3685
देश	3686
सः	3687
विष	3688
##सः	3689
##य्	3690
##ह्	3691
##स्था	3692
##णः	3693
##्वं	3694
तेन	3695
शु	3696
करो	3697
##ुरु	3698
ये	3699
क्र	3700
जीव	3701
##से	3702
केव	3703
कार्य	3704
##ूल	3705
##स्मिन्	3706
##वे	3707
##र्थं	3708
अभि	3709
उत्त	3710
##मो	3711
पुत्र	3712
##िका	3713
##पा	3714
प्राप्त	3715
##यु	3716
##काश	3717
##विष्य	3718
__	3719
धर्म	3720
##देव	3721
##दी	3722
##ायां	3723
##योः	3724
##षु	3725
##ोक्त	3726
अत्र	3727
##जन	3728
साम	3729
##ारा	3730
तं	3731
##मिति	3732
ब्र	3733
##ीति	3734
लि	3735
##्यो	3736
##वाद	3737
विश्व	3738
##दे	3739
##म्ब	3740
विक	3741
##च्यते	3742
भग	3743
मन	3744
इत्या	3745
##दान	3746
यु	3747
एष	3748
##सम	3749
##स्र	3750
##को	3751
##कम्	3752
##रुष	3753
##ट्	3754
त्रि	3755
##यि	3756
##तम	3757
##कु	3758
दृश	3759
##रम्	3760
विशेष	3761
कथं	3762
निव	3763
मया	3764
##नेन	3765
भाव	3766
##ित्	3767
##्याः	3768
20	3769
##ख्य	3770
##ोध	3771
##भा	3772
##प्य	3773
##मपि	3774
##क्षे	3775
##ध्ये	3776
भविष्य	3777
त्वं	3778
अहं	3779
##क्य	3780
##हार	3781
##्रिया	3782
चि	3783
##माण	3784
##विध	3785
##सार	3786
##ली	3787
स्वा	3788
२०	3789
##वः	3790
दे	3791
जग	3792
पुरुष	3793
##ज्य	3794
##शा	3795
##ोग	3796
##..	3797
##शः	3798
##नाः	3799
##यित	3800
अन्त	3801
##येत्	3802
##ज्ञान	3803
##्याय	3804
यः	3805
##पी	3806
बहु	3807
सप्त	3808
द्र	3809
##िते	3810
##प्रति	3811
##सीत्	3812
##ष्ण	3813
संस्	3814
हे	3815
##्यामि	3816
##चित्	3817
##ङ्क	3818
समु	3819
रूप	3820
पृथ	3821
सुख	3822
##तम्	3823
शब्द	3824
दिव	3825
पी	3826
##ष्ट्र	3827
पद	3828
##ऽपि	3829
##ुःख	3830
अह	3831
##त्त्व	3832
सर्वे	3833
वे	3834
साध	3835
##जा	3836
गुण	3837
##ृत्य	3838
##सम्	3839
तर्	3840
##ग्रह	3841
मि	3842
दी	3843
##पे	3844
दू	3845
##मी	3846
यत्र	3847
श्रु	3848
##ोः	3849
द्वि	3850
##विष	3851
##ोद	3852
##ाने	3853
##द्या	3854
निर्	3855
##त्वं	3856
##ृद	3857
पित	3858
##ायते	3859
##णम्	3860
##दृश	3861
तद्	3862
यदा	3863
##त्रं	3864
##ञ्ज	3865
विध	3866
पृष्ठ	3867
अतः	3868
त्र	3869
##यां	3870
##िताः	3871
आसीत्	3872
काम	3873
दश	3874
##चन	3875
##परि	3876
##काः	3877
##विश	3878
##षे	3879
##शब्द	3880
##हे	3881
बाल	3882
१९	3883
##सू	3884
१०	3885
सो	3886
दर्श	3887
कदा	3888
व्यव	3889
##दर्श	3890
##्यः	3891
योग	3892
##चना	3893
##ाणां	3894
##ताः	3895
आव	3896
##सिद्ध	3897
##गम	3898
##त्प	3899
ने	3900
चा	3901
##व्या	3902
##ीयते	3903
##लः	3904
##स्ते	3905
##er	3906
शा	3907
##न्व	3908
नमः	3909
अति	3910
यद	3911
भाग	3912
की	3913
##यते	3914
##त्रे	3915
मान	3916
##ग्नि	3917
तस्मा	3918
पि	3919
जा	3920
मां	3921
##धार	3922
##न्या	3923
##योज	3924
##यत्	3925
##णी	3926
##वी	3927
##शी	3928
स्यात्	3929
विना	3930
##ात्म	3931
##ैक	3932
##तया	3933
##हा	3934
##भेद	3935
ला	3936
वेद	3937
##त्रा	3938
##भ्यः	3939
करोति	3940
##रव	3941
संश	3942
##क्रम	3943
##र्ह	3944
स्प	3945
स्था	3946
लोक	3947
अस्य	3948
##्यम्	3949
##कृति	3950
भारत	3951
##__	3952
इदं	3953
एते	3954
रु	3955
##्ल	3956
रे	3957
परी	3958
##कर्त	3959
तेषां	3960
##ज्ज	3961
उक्त	3962
द्वित	3963
##दु	3964
##र्मा	3965
सिद्ध	3966
पञ्च	3967
##स्प	3968
##श्चि	3969
भगव	3970
##ेः	3971
स्त्री	3972
##वृत्त	3973
आह	3974
मू	3975
##म्भ	3976
दक्षि	3977
##षि	3978
##शु	3979
विव	3980
तर्हि	3981
विद्या	3982
पठ	3983
फल	3984
शक	3985
अत	3986
दुःख	3987
चतु	3988
##कर्म	3989
सदा	3990
वयं	3991
आग	3992
##िर	3993
##न्तः	3994
तस्या	3995
##ोऽपि	3996
##ारः	3997
##िति	3998
ततो	3999
##रणं	4000
वर्तते	4001
वद	4002
##ोज	4003
##ारं	4004
रक्ष	4005
##कि	4006
##वर्त	4007
##व्यं	4008
##र्द	4009
##यन	4010
##ीर	4011
ज्ञान	4012
क्षे	4013
अयं	4014
##र्घ	4015
सन्ति	4016
##ितो	4017
इव	4018
जु	4019
राष्ट्र	4020
##र्प	4021
भवेत्	4022
##सह	4023
##ातु	4024
यद्य	4025
इह	4026
##ध्या	4027
##पूर्व	4028
अस्मा	4029
कुर्व	4030
सत्य	4031
##भवत्	4032
##की	4033
##नाम	4034
सर्वं	4035
वर्षे	4036
गच्छ	4037
दोष	4038
और	4039
##st	4040
भविष्यति	4041
प्रथम	4042
पाप	4043
##लोक	4044
आस	4045
##र्थे	4046
##वाच	4047
जान	4048
##ेश्व	4049
##र्भ	4050
##द्वि	4051
##क्ष्य	4052
##ाम्	4053
##सो	4054
##नोति	4055
यस्य	4056
##मुख	4057
##ृण	4058
##ताम्	4059
भ्र	4060
##in	4061
##धे	4062
प्राण	4063
##स्थान	4064
क्रिय	4065
जल	4066
##व्यम्	4067
शी	4068
##त्वात्	4069
नो	4070
परिव	4071
अस	4072
##तीति	4073
तथ	4074
तत	4075
##ेक	4076
मो	4077
केवलं	4078
वाय	4079
##ादश	4080
सद	4081
##हः	4082
##मानं	4083
##ुम्	4084
क्व	4085
##पूर्ण	4086
कृत्वा	4087
जन्म	4088
##दाह	4089
उत्	4090
सामान्य	4091
प्रज	4092
वक्त	4093
##ैर	4094
कल	4095
पश्य	4096
याव	4097
##ाया	4098
पुं	4099
##गृह	4100
वृद्ध	4101
##राज	4102
##ब्ध	4103
घट	4104
परम	4105
...	4106
##कारः	4107
##हो	4108
येन	4109
##ीन	4110
वर्ण	4111
##an	4112
इत्यादि	4113
प्रि	4114
नग	4115
##ाये	4116
परं	4117
पूर्ण	4118
##वर्ष	4119
##थि	4120
जि	4121
अधि	4122
##ोच	4123
##ुम	4124
रात्र	4125
हृद	4126
नव	4127
##पाल	4128
##तिं	4129
##ारी	4130
नास्ति	4131
##ंश	4132
##म्य	4133
##पः	4134
##र्था	4135
##ारि	4136
केवल	4137
मनु	4138
कर	4139
##न्तं	4140
प्रश्	4141
##ण्य	4142
महा	4143
मध्य	4144
सौ	4145
वस्तु	4146
११	4147
बुद्ध	4148
करि	4149
##ar	4150
##माह	4151
किम्	4152
मध्ये	4153
विद्यते	4154
खः	4155
धन	4156
यज्ञ	4157
ब्रह्	4158
वाच	4159
##िकं	4160
##तर	4161
10	4162
##भ्या	4163
पाठ	4164
##ाप्त	4165
पूज	4166
##हित	4167
##on	4168
##मन	4169
##र्च	4170
##कर	4171
##भ्यां	4172
मुक्त	4173
अर्थ	4174
बि	4175
नं	4176
परा	4177
##ष्म	4178
##रेण	4179
प्राप्	4180
ले	4181
##लु	4182
##घ्र	4183
##गत	4184
##ब्र	4185
##रिक	4186
मास	4187
##वेद	4188
##भाषा	4189
201	4190
##ुना	4191
##मास	4192
##ष्टा	4193
भि	4194
##्म	4195
प्रस	4196
प्रभ	4197
नित	4198
##en	4199
##गुण	4200
##ज्ञा	4201
ताव	4202
##्यु	4203
---	4204
प्रकाश	4205
सर	4206
पुरा	4207
##माः	4208
##मात्र	4209
मित्र	4210
##धः	4211
यू	4212
##कल	4213
##at	4214
##वास	4215
समी	4216
##जः	4217
##साध	4218
प्रती	4219
लिख	4220
कल्प	4221
गो	4222
दृश्यते	4223
##ञ्	4224
राजा	4225
##्यू	4226
##ीया	4227
शुभ	4228
जात	4229
##र्वि	4230
##यत	4231
क्री	4232
##शं	4233
##ीम	4234
शरी	4235
कः	4236
##पत्त	4237
##र्न	4238
शक्त	4239
##दाय	4240
##तन्त्र	4241
हेत	4242
पुर	4243
एतत्	4244
क्रिया	4245
##यामि	4246
नः	4247
मूल	4248
##वत्	4249
दृष्ट्वा	4250
##ादृश	4251
ह्य	4252
##यन्ति	4253
##कल्प	4254
सर्वत्र	4255
##es	4256
##फल	4257
त्य	4258
##ेय	4259
निर	4260
युद्ध	4261
##लय	4262
बल	4263
यथ	4264
पाद	4265
१२	4266
##गे	4267
भाषा	4268
कुर	4269
##लभ	4270
##काले	4271
##शो	4272
##वर्ण	4273
##थं	4274
##ड्	4275
##नम	4276
शक्ति	4277
शेष	4278
रि	4279
##टि	4280
##क्षु	4281
##णाम	4282
##रस्य	4283
शत्र	4284
##or	4285
प्रे	4286
सूर्य	4287
प्रयोग	4288
से	4289
##ष्यति	4290
पश	4291
##नाय	4292
##धी	4293
पुनर	4294
सेव	4295
##ान्व	4296
##विशेष	4297
राज्य	4298
##ानाम्	4299
अग्नि	4300
##्ह	4301
##भूत	4302
मृ	4303
##मुक्त	4304
##ायं	4305
चे	4306
तम	4307
युक्त	4308
##om	4309
##नस्य	4310
पृथिव	4311
##षा	4312
यज	4313
भा	4314
##डि	4315
##दिति	4316
स्थान	4317
तृत	4318
स्थाप	4319
१८	4320
काले	4321
निष्	4322
##याम	4323
यद्	4324
##भवति	4325
##ष्यामि	4326
लक्ष	4327
इदान	4328
##काम	4329
##न्नि	4330
मनो	4331
##प्रत्य	4332
अभवत्	4333
भूत	4334
शिव	4335
##ात्र	4336
##वृ	4337
कृते	4338
##्वे	4339
वृत्त	4340
हो	4341
आर	4342
इच्छ	4343
##ायः	4344
वी	4345
##ड़	4346
आत्म	4347
सहस्र	4348
ता	4349
अध्य	4350
राम	4351
उभ	4352
नृ	4353
##णो	4354
वच	4355
किम	4356
नित्य	4357
##वार	4358
##बद्ध	4359
##ष्टं	4360
()	4361
त्वया	4362
नर	4363
१५	4364
##स्त्व	4365
##ाद्य	4366
संशयः	4367
विभ	4368
उपयोग	4369
सम्बन्ध	4370
##त्वेन	4371
##ाध	4372
##ित्वा	4373
##ैत	4374
नैव	4375
सुर	4376
प्रोक्त	4377
अद्य	4378
##००	4379
चिन्त	4380
कुरु	4381
भेद	4382
##दः	4383
सी	4384
##यात्	4385
इद	4386
##टी	4387
ग्रह	4388
##प्राप्त	4389
जायते	4390
##यन्	4391
अस्मिन्	4392
तमे	4393
विद्य	4394
##पो	4395
##शत	4396
मध	4397
##जं	4398
##ादी	4399
##लक्षण	4400
भारती	4401
कारण	4402
व्र	4403
कार्यं	4404
##सौ	4405
##तेन	4406
भवन्ति	4407
##ित्या	4408
शत	4409
सूचना	4410
दत्त	4411
स्वयं	4412
मात	4413
##तेः	4414
##त्वे	4415
##चर	4416
पे	4417
##करो	4418
##स्मै	4419
क्रीड	4420
##पति	4421
निर्व	4422
संस्कृत	4423
दीर्घ	4424
##ार्थ	4425
##देशे	4426
##ोत्त	4427
केन	4428
##न्थ	4429
पर्व	4430
प्रधान	4431
कौ	4432
उत्तर	4433
##वं	4434
##ानाम	4435
विज	4436
मार्ग	4437
नित्यं	4438
##ुत	4439
##ल्ल	4440
एकः	4441
उच्च	4442
ब्रह्म	4443
सव	4444
हस्त	4445
##दृष्ट	4446
तथापि	4447
##कस्य	4448
##्यात्	4449
##िकः	4450
गण	4451
निश्च	4452
वार	4453
शक्यते	4454
अन्यथा	4455
##धर्म	4456
लभ	4457
##मित्त	4458
दिन	4459
चेत्	4460
##विद्या	4461
##बल	4462
##स्याः	4463
कश्च	4464
विप	4465
##ेवं	4466
##समा	4467
..	4468
##al	4469
नी	4470
समुद्र	4471
लेख	4472
##मुप	4473
धार	4474
##निर्	4475
करण	4476
##मव	4477
##रोध	4478
विज्ञ	4479
##नियम	4480
ms	4481
१४	4482
स्वी	4483
स्वर्ग	4484
प्रण	4485
##ेष्ठ	4486
क्षेत्र	4487
शो	4488
##जि	4489
स्वप्	4490
19	4491
दुर्	4492
##दश	4493
##हास	4494
##त्मा	4495
##ाहं	4496
##देशः	4497
##मन्त	4498
विचार	4499
##ान्न	4500
चैव	4501
##दौ	4502
##ीः	4503
##शेष	4504
विषय	4505
अस्माकं	4506
यतः	4507
##वती	4508
तो	4509
##ान्ति	4510
वर	4511
##म्म	4512
ध्य	4513
##गः	4514
उच्यते	4515
##भ्यो	4516
ज्ञात	4517
##ेऽ	4518
ध्व	4519
किन्तु	4520
दक्षिण	4521
##ष्यते	4522
##वेश	4523
मृत्य	4524
##टे	4525
पुस्त	4526
क्रियते	4527
##क्षः	4528
यत	4529
##साय	4530
वर्तमान	4531
साक्ष	4532
इन्द्र	4533
भाषण	4534
विकल्प	4535
वाम	4536
##दू	4537
एका	4538
पूर्वं	4539
जनाः	4540
प्रवि	4541
##्रा	4542
गत	4543
##जी	4544
शक्	4545
अथवा	4546
वस	4547
##हर	4548
##र्क	4549
वन	4550
##न्ना	4551
##ag	4552
अमे	4553
वर्ग	4554
##येन	4555
##जीव	4556
भवतः	4557
चित्र	4558
पार	4559
लघ	4560
##्वि	4561
किञ्च	4562
##सर्व	4563
दृश्य	4564
न्या	4565
ईश्व	4566
तत्त	4567
##रिति	4568
##भावः	4569
बाह	4570
##विक	4571
##्वः	4572
##यस्य	4573
मुख	4574
रुप	4575
##ापि	4576
१७	4577
##मां	4578
नियम	4579
मन्त्र	4580
इत्युक्त	4581
हरि	4582
##द्भ	4583
पश्च	4584
##्ड	4585
##यात	4586
अत्य	4587
##्येत	4588
##यितुं	4589
शू	4590
१३	4591
कोई	4592
त्वां	4593
##मार्ग	4594
##वच	4595
##नाम्	4596
##धिकार	4597
##िनः	4598
तप	4599
##व्यः	4600
##रूपेण	4601
तिष्ठ	4602
##ष्या	4603
निय	4604
##00	4605
कृप	4606
लोके	4607
##रम	4608
विधि	4609
11	4610
##र्द्ध	4611
##ग्ने	4612
##इट	4613
##तोऽ	4614
पृष्ठानि	4615
तां	4616
##ादेश	4617
##वान	4618
श्री	4619
##दत्त	4620
##मिदं	4621
##ल्य	4622
##जे	4623
संयुक्त	4624
कम	4625
माता	4626
प्रवर्त	4627
परमा	4628
##it	4629
कार्या	4630
##कृत्य	4631
##पद्यते	4632
भक्त	4633
दृ	4634
##खि	4635
अती	4636
शीघ्र	4637
अम	4638
##निक	4639
##ासु	4640
विभाग	4641
योज	4642
##संधान	4643
शृण	4644
गुर	4645
१६	4646
##क्षं	4647
##द्रा	4648
इत	4649
त्वा	4650
##स्थाप	4651
##त्वम्	4652
उदाह	4653
##हेत	4654
उद्	4655
अन्व	4656
##च्छति	4657
##पं	4658
##ही	4659
12	4660
##गो	4661
उद	4662
प्रातः	4663
रो	4664
वेब	4665
शास्त्र	4666
विप्र	4667
यं	4668
लाभ	4669
##शक्त	4670
##शास	4671
##कर्ष	4672
##पुत्र	4673
निर्म	4674
पर्य	4675
विस्त	4676
भावः	4677
अभ	4678
इत्यस्य	4679
##ुध	4680
##कूल	4681
ii	4682
##न्तरं	4683
भवान्	4684
भारतीय	4685
स्मृ	4686
दैव	4687
अनुसंधान	4688
तद्व	4689
##वो	4690
तथैव	4691
##गण	4692
##साम	4693
##द्धि	4694
##ान्तर	4695
##सां	4696
अनेन	4697
प्रार्थ	4698
##मनु	4699
##मार	4700
पदा	4701
##क्रिया	4702
पुनर्	4703
क्षण	4704
##ैर्	4705
सर्वेषां	4706
सूत्र	4707
##धिकरण	4708
##पर्य	4709
##मित्य	4710
पिता	4711
##यौ	4712
##तन	4713
##ज्यते	4714
अध्या	4715
##ाला	4716
##शास्त्र	4717
सङ्	4718
प्रकृति	4719
##भवः	4720
##र्या	4721
##ुरुष	4722
ज्यो	4723
श्	4724
विषये	4725
विकास	4726
गति	4727
##नात्	4728
भु	4729
##ष्टः	4730
शुद्ध	4731
##शे	4732
##बुद्ध	4733
वेबसा	4734
##स्मात्	4735
##बि	4736
##पुर	4737
संसार	4738
##लम्	4739
##ेक्ष	4740
##हु	4741
##मू	4742
द्रष्ट	4743
##नीय	4744
द्वादश	4745
विकि	4746
परिवर्त	4747
##वां	4748
धात	4749
प्रयोज	4750
है	4751
##रूपं	4752
सति	4753
हृ	4754
##ित्व	4755
साह	4756
हर	4757
सम्य	4758
इदानीं	4759
ननु	4760
सिं	4761
परीक्षा	4762
दा	4763
##ृतं	4764
##ितानि	4765
अधिकतम	4766
चित्त	4767
इत्येत	4768
##बोध	4769
##रुद्ध	4770
##वस	4771
##कर्ता	4772
##मस्ति	4773
##ज्ञः	4774
प्राप्नोति	4775
विनि	4776
##याम्	4777
फलं	4778
##ची	4779
विष्ण	4780
##ाण्ड	4781
समाप्त	4782
##थः	4783
##न्दि	4784
##ेष्व	4785
वेबसाइट	4786
##मम्	4787
##मह	4788
##ों	4789
##भार	4790
##मानः	4791
##पृ	4792
##कार्य	4793
खलु	4794
कस्य	4795
##परा	4796
##भ्र	4797
##स्तथा	4798
##ोत	4799
##न्त्य	4800
##ेषण	4801
सर्वदा	4802
कुर्वन्ति	4803
##िके	4804
वो	4805
द्विती	4806
विह	4807
##षेध	4808
जू	4809
प्रमाण	4810
मुख्य	4811
इत्यर्थः	4812
स्न	4813
##थे	4814
संख्या	4815
##मेत	4816
ग्राम	4817
##सर्ग	4818
सम्बद्ध	4819
सर्वा	4820
##यित्वा	4821
##केन	4822
रोग	4823
प्रश्न	4824
##हम्	4825
पुष्	4826
##चित्र	4827
##ह्य	4828
सार	4829
तस्मात्	4830
##लिख	4831
वर्ध	4832
##ic	4833
तौ	4834
##च्य	4835
गुरु	4836
दूर	4837
##वरी	4838
15	4839
गृहे	4840
भगवान्	4841
##व्यव	4842
##पार	4843
##ed	4844
##ितवान्	4845
प्रयत्	4846
यतो	4847
श्व	4848
##लक्ष	4849
आप	4850
प्रसिद्ध	4851
##्याव	4852
अधिनियम	4853
कारणं	4854
तत्त्व	4855
##नानि	4856
समान	4857
देशे	4858
नू	4859
##यी	4860
सङ्ग	4861
##स्ट	4862
प्रच	4863
##िकी	4864
प्रय	4865
##ाग्र	4866
##ऽऽ	4867
पव	4868
पक्ष	4869
##ग्ध	4870
##ुक	4871
देवा	4872
##गा	4873
महि	4874
सोम	4875
##त्रि	4876
##र्ति	4877
##शक्ति	4878
त्या	4879
प्रवृत्त	4880
यावत्	4881
##कृतं	4882
पति	4883
##षां	4884
##दपि	4885
##str	4886
शै	4887
##प्रि	4888
समाचार	4889
18	4890
विशि	4891
##am	4892
रस	4893
##कारं	4894
##कारेण	4895
##ोर	4896
##ाह्म	4897
##सङ्ग	4898
दण्ड	4899
##ou	4900
##ृहं	4901
##स्यापि	4902
तस्मिन्	4903
वृक्ष	4904
ne	4905
##ूनां	4906
##ितुं	4907
अहम्	4908
##कृते	4909
शक्य	4910
##र्थम्	4911
बी	4912
तर	4913
वाक्य	4914
भवे	4915
पितृ	4916
न्यू	4917
##च्छेद	4918
स्य	4919
छात्र	4920
उत्पाद	4921
एवम्	4922
भोज	4923
नै	4924
##ारो	4925
मद	4926
##स्पर	4927
##त्ति	4928
##सहस्र	4929
गम	4930
##िकाः	4931
लक्षण	4932
##जात	4933
##घ्	4934
अग	4935
##दिष्ट	4936
द्वारा	4937
##स्यां	4938
एषा	4939
प्रशि	4940
युव	4941
पाल	4942
पश्चि	4943
श्रुत्वा	4944
##मेण	4945
##ाग्	4946
in	4947
षष्ठ	4948
##निः	4949
##दिश	4950
निवेद	4951
चन्द्र	4952
##le	4953
पत्र	4954
यद्यपि	4955
##युः	4956
प्रभाव	4957
एकं	4958
##कम	4959
##iv	4960
##तौ	4961
कथा	4962
##भे	4963
नार	4964
मै	4965
सक	4966
##यान	4967
इयं	4968
##टः	4969
कर्तुं	4970
##टा	4971
अज	4972
निः	4973
अनि	4974
##ान्ते	4975
##खा	4976
निर्ण	4977
गि	4978
अस्म	4979
ती	4980
##क्तं	4981
##िक्त	4982
परम्	4983
कश्चि	4984
##न्तर	4985
##षण	4986
##विधान	4987
स्फ	4988
वाक	4989
न्ह	4990
सन्द	4991
##दोष	4992
##विधि	4993
##कू	4994
##माणं	4995
२०१	4996
##र्त्त	4997
अष्ट	4998
##दो	4999
व्याख्या	5000
##रस	5001
प्रवेश	5002
जनवरी	5003
##ाद्	5004
##ाप्य	5005
##लिङ्ग	5006
२१	5007
##व्र	5008
##कथ	5009
कृतं	5010
##पदं	5011
msg	5012
कदाचित्	5013
नु	5014
उदाहरण	5015
msgstr	5016
अक्ष	5017
अनेक	5018
कृता	5019
धन्य	5020
##ग्रे	5021
##िन	5022
पौ	5023
##क्ष्यामि	5024
##ion	5025
##शिष्ट	5026
##सन्ध	5027
द्वितीय	5028
##न्नं	5029
संव	5030
समर्थ	5031
वय	5032
परस्पर	5033
##हू	5034
एषः	5035
गतः	5036
##ष्मा	5037
##भास	5038
ज्ञानं	5039
गत्वा	5040
अर्थः	5041
भारतस्य	5042
सम्बद्धानि	5043
उद्य	5044
यत्त	5045
##ारु	5046
##बी	5047
मयि	5048
##दुःख	5049
##प्रयोग	5050
##मुच्यते	5051
क्वचित्	5052
##ome	5053
मं	5054
##ारे	5055
##पिं	5056
सोऽ	5057
##ारण	5058
आवश्य	5059
चल	5060
यान	5061
##ादौ	5062
##स्थित	5063
प्रत्यक्ष	5064
##ष्टि	5065
##ेषाम	5066
##मान्	5067
##मन्त्र	5068
##खे	5069
##न्ती	5070
##पुरुष	5071
सै	5072
हिं	5073
इत्येव	5074
गौ	5075
##गं	5076
##संख्या	5077
##सर	5078
विविध	5079
विशेषतः	5080
tag	5081
प्रत्या	5082
कति	5083
##त्प्र	5084
14	5085
an	5086
प्राय	5087
##तुः	5088
##जो	5089
##स्तं	5090
अङ्ग	5091
##भावे	5092
अयम्	5093
##माय	5094
##मध्ये	5095
##र्वा	5096
इत्यनेन	5097
अप्र	5098
##नग	5099
##र्म्म	5100
२२	5101
##्यादि	5102
##ेवाः	5103
##ानी	5104
##ैश्च	5105
पृथक्	5106
##स्ता	5107
भूमि	5108
भी	5109
प्राप्य	5110
अवि	5111
##वाह	5112
##्रियां	5113
##नन्द	5114
##ष्व	5115
##गी	5116
##सेन	5117
सन्ध	5118
स्र	5119
##भिर	5120
##पेक्ष	5121
सत	5122
प्रतिष्ठ	5123
शान्त	5124
##त्थ	5125
उत्स	5126
##सङ्	5127
##वद	5128
##त्ता	5129
##ासि	5130
##ज्ञानं	5131
श्रेष्ठ	5132
दान	5133
क्रि	5134
##वन्तः	5135
##ेत्य	5136
##हस्य	5137
अव्य	5138
बन्ध	5139
##ध्व	5140
##ध्यते	5141
##घा	5142
सर्व्व	5143
ध्यान	5144
लघु	5145
##योजन	5146
खे	5147
२५	5148
कीदृश	5149
इत्यत्र	5150
मनः	5151
पार्थ	5152
कृपया	5153
##पात	5154
सम्पाद	5155
वह	5156
##चा	5157
##मौ	5158
##माद	5159
प्रो	5160
सम्प्र	5161
##ent	5162
##फलं	5163
##साधन	5164
##न्तो	5165
मनुष्य	5166
पं	5167
##ुक्तं	5168
ज्योति	5169
##as	5170
बा	5171
##करणे	5172
##पत्र	5173
##संस्	5174
भो	5175
मत	5176
विर	5177
कर्ण	5178
##ाप्	5179
रूपं	5180
##राः	5181
##मेन	5182
##मत	5183
विद्व	5184
##रुण	5185
##ेयं	5186
##पक्ष	5187
आद	5188
##स्स	5189
सम्प	5190
##करणं	5191
थ्व	5192
विज्ञान	5193
home	5194
तेषु	5195
सन्	5196
##क्ष्म	5197
##मात्	5198
##विभाग	5199
प्रथमं	5200
ज्व	5201
बृह	5202
##तेषु	5203
##ाव्य	5204
बुद्धि	5205
अथा	5206
ददा	5207
नम	5208
नेवाः	5209
##विषय	5210
##भः	5211
##रिक्त	5212
##re	5213
##डा	5214
मन्त	5215
केन्द्र	5216
##गतं	5217
क्रम	5218
धी	5219
जना	5220
२४	5221
कुत्र	5222
##ग्न	5223
##नापि	5224
##ीप	5225
##ायै	5226
13	5227
##ृज	5228
##ताम	5229
##िकित्	5230
##त्यं	5231
हित	5232
शिक्ष	5233
##विषये	5234
मी	5235
##शाल	5236
##ृतम्	5237
अधो	5238
अना	5239
३०	5240
न्याय	5241
##ितां	5242
अधिकार	5243
लु	5244
परीक्षण	5245
भवित	5246
रात्रौ	5247
व्यक्त	5248
मण्ड	5249
सां	5250
##वाः	5251
याति	5252
17	5253
दृढ	5254
##यमेव	5255
##ाय्	5256
वापि	5257
##ान्तः	5258
पश्यति	5259
न्य	5260
नाग	5261
##ुर्	5262
##सेव	5263
##डिया	5264
##लस्य	5265
गा	5266
ज्या	5267
निज	5268
##कारण	5269
ङी	5270
##कृतिः	5271
अश्व	5272
चेत	5273
##योर	5274
लिङ्ग	5275
##स्त्य	5276
कृष्ण	5277
चर	5278
##ेदं	5279
तस्याः	5280
##ष्ये	5281
##िंश	5282
##ानाति	5283
देह	5284
##स्क	5285
देवानां	5286
०१	5287
अहो	5288
वित्त	5289
##चः	5290
प्रया	5291
पुण्य	5292
देवता	5293
परमेश्व	5294
जलं	5295
##दार	5296
##लाः	5297
##मति	5298
##णाम्	5299
यूयं	5300
##षः	5301
##भेदे	5302
##ch	5303
गच्छति	5304
##रणे	5305
चक्र	5306
सृष्ट	5307
##हिता	5308
शृणु	5309
th	5310
vi	5311
भय	5312
re	5313
##इगु	5314
याः	5315
ब्रू	5316
##ौक	5317
##ासी	5318
##ad	5319
##तिक	5320
##ज्	5321
प्रश	5322
विश्वा	5323
इदम्	5324
##िको	5325
निरा	5326
##मिव	5327
वः	5328
##त्तर	5329
द्विज	5330
धर्मा	5331
शास	5332
##ब्दा	5333
चापि	5334
टि	5335
तै	5336
ग्रन्थ	5337
तादृश	5338
##वै	5339
##चित्त	5340
गोप	5341
धनं	5342
तया	5343
हा	5344
##स्वरूप	5345
##वन	5346
##प्प	5347
##lo	5348
##लेख	5349
##ामः	5350
##माना	5351
किमपि	5352
कं	5353
##ेकं	5354
##बं	5355
प्रथमा	5356
शं	5357
२७	5358
राज्यं	5359
##कृता	5360
##श्रु	5361
##स्तस्य	5362
##पित	5363
रोच	5364
संप्र	5365
##वर	5366
##नाश	5367
पत	5368
##ाले	5369
प्रतिदि	5370
##रेत्	5371
ख्या	5372
##मय	5373
धा	5374
##ृतः	5375
विन	5376
##द्द	5377
##त्ते	5378
कर्त्त	5379
##समु	5380
कालः	5381
##्येन	5382
घोष	5383
हं	5384
सूच	5385
शीत	5386
##ून	5387
देवाः	5388
गृही	5389
ग्राह	5390
नृप	5391
समर्प	5392
तम्	5393
##लये	5394
रम	5395
##भु	5396
अध्ययन	5397
स्तु	5398
२००	5399
##स्तव	5400
महोद	5401
निवृत्त	5402
द्वे	5403
आकाश	5404
गते	5405
##्रे	5406
माम	5407
##चे	5408
परिणाम	5409
सुखं	5410
धि	5411
त्रि०	5412
सत्यं	5413
ह्र	5414
अधुना	5415
##गतः	5416
सम्भव	5417
व्यवहार	5418
दिने	5419
तिथि	5420
कश्चित्	5421
##ीनां	5422
माया	5423
##्रियते	5424
२६	5425
कृतम्	5426
इं	5427
##रिका	5428
##िनी	5429
##रात्र	5430
##टक	5431
पुरुषः	5432
जी	5433
##ीयम्	5434
स्थि	5435
##म्ह	5436
प्रायः	5437
##ाद्व	5438
स्थित	5439
स्वभाव	5440
##ध्	5441
##लोके	5442
बाध	5443
##रक्ष	5444
##पदा	5445
##क्स	5446
मत्	5447
##il	5448
कोऽपि	5449
कृतः	5450
शत्रु	5451
16	5452
नेपाल	5453
##टो	5454
श्रद्ध	5455
पाव	5456
वने	5457
##लोप	5458
जाग	5459
##ायु	5460
##राणां	5461
202	5462
देहि	5463
##भक्त	5464
##िकल्प	5465
##ण्ठ	5466
to	5467
##ce	5468
प्रक	5469
रथ	5470
##धिः	5471
विस्म	5472
##ाहि	5473
याये	5474
##लम्ब	5475
स्वतन्त्र	5476
वित	5477
##हितः	5478
##राज्य	5479
अतो	5480
##ृति	5481
द्वौ	5482
साक्षात्	5483
##कारस्य	5484
स्थाने	5485
##ing	5486
##सत	5487
वार्त	5488
यम	5489
##न्नः	5490
##ायत	5491
##धं	5492
##पक	5493
मुनि	5494
##यनं	5495
##नया	5496
##भी	5497
##ूह	5498
##स्ताव	5499
##णेन	5500
शरीर	5501
##माज	5502
संस्थ	5503
तुल	5504
निवेश	5505
##्याम	5506
मिथ	5507
शब्दः	5508
प्रतिपाद	5509
वीर	5510
##साद	5511
प्रदेश	5512
इत्यु	5513
इतिहास	5514
भवता	5515
स्तो	5516
अं	5517
२३	5518
##ूनि	5519
विदेश	5520
##यय	5521
##मण्ड	5522
##ष्ट्रिय	5523
जातः	5524
##ेह	5525
०२	5526
##विंश	5527
एतद	5528
आचार	5529
प्री	5530
छुं	5531
तृ	5532
##रू	5533
##is	5534
##्येण	5535
कू	5536
सन्त	5537
कुतः	5538
##ङ्के	5539
इत्	5540
##मन्य	5541
##िकम्	5542
##ज्ञात	5543
##षी	5544
##भिप्र	5545
तानि	5546
लब्ध	5547
##ट्ट	5548
स्वयम्	5549
कुश	5550
##धु	5551
व्यक्ति	5552
कन्या	5553
तू	5554
रक्त	5555
##यामास	5556
##प्रभ	5557
##ाम्य	5558
आः	5559
##माने	5560
स्त्रियां	5561
धू	5562
##ादेव	5563
अन्ये	5564
क्ल	5565
संस्था	5566
##यव	5567
प्राप्ते	5568
पदं	5569
##ृद्ध	5570
##स्यते	5571
कुल	5572
दिना	5573
##्रुव	5574
स्थानं	5575
निवर्त	5576
मन्य	5577
##मात्म	5578
कर्तव्य	5579
सदस्य	5580
पाठः	5581
भवतु	5582
मूर्	5583
##त्क	5584
##स्तत्र	5585
##भागे	5586
साग	5587
विश्ल	5588
##तस्य	5589
##भय	5590
स्थिति	5591
आसन्	5592
##दृ	5593
##नव	5594
##न्यं	5595
##ान्तं	5596
##धानं	5597
##नुव	5598
तदेव	5599
##वेदन	5600
करोमि	5601
##द्ग	5602
##विद	5603
##कारि	5604
कथम्	5605
##ानुसार	5606
//	5607
र्	5608
##रुप	5609
अमेरिका	5610
सर्वाणि	5611
दै	5612
बु	5613
स्वरूप	5614
##न्दु	5615
त्यक्त	5616
मानु	5617
प्रतिशत	5618
##ादिति	5619
शीघ्रं	5620
विक्र	5621
मौ	5622
##तरं	5623
रुपये	5624
##मित	5625
विवाह	5626
गृहं	5627
विकिपी	5628
प्रत्यय	5629
नदी	5630
##तुर	5631
प्रशिक्षण	5632
तद्य	5633
##श्यं	5634
##खं	5635
##स्थाने	5636
समास	5637
मानव	5638
दुर्लभ	5639
##च्छि	5640
गृह्	5641
देवी	5642
वायु	5643
##मन्त्री	5644
धारा	5645
नाम्	5646
परिभाषा	5647
प्रदर्श	5648
##त्नी	5649
##ांश	5650
स्मर	5651
उत्प	5652
श्रू	5653
परे	5654
##ोऽयं	5655
-'	5656
गन्ध	5657
##विधा	5658
##त्त्वं	5659
##कानां	5660
##म्प	5661
##रवरी	5662
गाय	5663
भोग	5664
उपरि	5665
लाख	5666
तः	5667
##रणम्	5668
##ञ्छ	5669
अग्ने	5670
##ानः	5671
##वृत्ति	5672
उत	5673
##धनं	5674
##स्त्वं	5675
##धिप	5676
वत्स	5677
२८	5678
##लव	5679
##विव	5680
##योक्त	5681
ब्राह्म	5682
कव	5683
##हां	5684
वचनं	5685
##ादीनां	5686
किल	5687
अस्मि	5688
स्ने	5689
##संज्ञ	5690
अय	5691
##क्ष्	5692
##ीकरण	5693
प्रकृत	5694
##योऽ	5695
##राणि	5696
##येत	5697
समाज	5698
बहुव	5699
प्ल	5700
##ेर	5701
समय	5702
##पूज	5703
क्रोध	5704
उपयोगकर्ता	5705
वह्	5706
##शय	5707
निमित्त	5708
##क्षेप	5709
##कृतः	5710
शिक्षा	5711
तावत्	5712
भर्त	5713
##नैः	5714
##ारम्भ	5715
##ुद	5716
प्रिय	5717
भयं	5718
सच	5719
##ीयः	5720
राक्ष	5721
##वादः	5722
##हितं	5723
##बा	5724
##त्पाद	5725
##राष्ट्र	5726
##त्वाद	5727
कर्ता	5728
मय	5729
##चिन्त	5730
"।	5731
##्याद	5732
##तीत्य	5733
जाय	5734
##नतः	5735
अश	5736
प्रयुक्त	5737
पीड	5738
##वर्तते	5739
21	5740
30	5741
##se	5742
##नात	5743
st	5744
##श्चैव	5745
पूजा	5746
##लन	5747
##निष्ठ	5748
##ार्थं	5749
दिव्य	5750
जानाति	5751
अर्था	5752
पदे	5753
25	5754
ममा	5755
##ुट	5756
##त्तम	5757
##ाभि	5758
प्राग	5759
व्यवसाय	5760
एस	5761
पो	5762
पात	5763
##कानि	5764
##न्दो	5765
प्रत्येकं	5766
##सति	5767
##ोक्तं	5768
अल	5769
अल्प	5770
कै	5771
##तिष्ठ	5772
संभव	5773
##योगः	5774
##देह	5775
##ब्रवी	5776
मातृ	5777
चिकित्	5778
##राग	5779
देवि	5780
##ताव	5781
##दात्त	5782
##दिना	5783
##र्भव	5784
परन्तु	5785
तद्वि	5786
यौ	5787
पूर	5788
कला	5789
##र्हि	5790
##कालं	5791
पृष्ट	5792
##कौ	5793
प्राच	5794
जाता	5795
टी	5796
##द्यः	5797
उत्तम	5798
दिवस	5799
अभ्या	5800
##ay	5801
भर	5802
मृत	5803
यश	5804
##हन	5805
##मात्रं	5806
##स्थानं	5807
आई	5808
दुष्	5809
सङ्क	5810
स्त्रि	5811
हेतु	5812
निक	5813
##ष्टे	5814
तस्मै	5815
##गति	5816
##विः	5817
##पृष्ठ	5818
बहि	5819
##हिं	5820
##प्रा	5821
शस्त्र	5822
पुण	5823
००	5824
##ामी	5825
आश्र	5826
##यतु	5827
##ab	5828
##एस	5829
##क्तिः	5830
परमं	5831
क्षि	5832
जगत्	5833
पृथिवी	5834
##भ्यं	5835
##स्ती	5836
भ्रम	5837
न्याया	5838
दुर	5839
##्येष्ठ	5840
##स्थितः	5841
##पत्ति	5842
कर्मा	5843
तन्	5844
##स्फ	5845
समस्त	5846
सम्पूर्ण	5847
नगर	5848
आयु	5849
##ृता	5850
##्यताम्	5851
कर्मणि	5852
पुरस्	5853
##करोत्	5854
##ूढ	5855
##स्त्रि	5856
##टु	5857
महत्व	5858
स्पष्ट	5859
##पद्य	5860
##भं	5861
##ात्मा	5862
##शब्दः	5863
एतेन	5864
वरि	5865
##्यव	5866
शेषः	5867
खोज	5868
त्वम्	5869
अभ्य	5870
##ीयं	5871
##ेषा	5872
उभय	5873
##भूव	5874
##सम्बन्ध	5875
थः	5876
##षं	5877
##धाय	5878
३१	5879
##लब्ध	5880
युग	5881
##ानम्	5882
##मिच्छ	5883
वास	5884
फरवरी	5885
##हीं	5886
##ेते	5887
बहुधा	5888
पिब	5889
##ानुप	5890
##ेषाम्	5891
##भिन्न	5892
पुत्रः	5893
इत्यादिना	5894
भक्ष	5895
##नौ	5896
पार्श	5897
पेपर	5898
तान्	5899
सामाज	5900
##भावात्	5901
प्रोक्तं	5902
भेदः	5903
ग्री	5904
येषां	5905
##पाप	5906
##ोड	5907
स्याद	5908
लभते	5909
##ितम	5910
प्राणि	5911
भज	5912
गर्भ	5913
यानि	5914
राज्ञ	5915
##पाः	5916
##ot	5917
##्यस्य	5918
प्रद	5919
आरो	5920
##et	5921
##--	5922
प्रत्ययः	5923
सदैव	5924
वृद्धि	5925
मरु	5926
शर	5927
ददाति	5928
केश	5929
२९	5930
##लेन	5931
##भोग	5932
##स्तदा	5933
##स्माकं	5934
##वाक्य	5935
##र्यं	5936
मध्यम	5937
विवे	5938
सम्भवति	5939
##र्हति	5940
हृदय	5941
दो	5942
ध्रुव	5943
##तुं	5944
##कैः	5945
##धिष्ठ	5946
##त्रापि	5947
तच्च	5948
##एव	5949
##स्यति	5950
##माव	5951
सत्त्व	5952
जानामि	5953
तृतीय	5954
##परी	5955
पु०	5956
संस	5957
मेरे	5958
चत्व	5959
##िना	5960
##कारे	5961
इत्याह	5962
सर्वेषु	5963
एवा	5964
वय्	5965
भक्ति	5966
श्रो	5967
भारते	5968
प्रजाप	5969
##यन्त	5970
प्रह	5971
##रात्	5972
ध्वनि	5973
चै	5974
विमान	5975
##निमित्त	5976
##पञ्च	5977
##चिद	5978
मधु	5979
श्रव	5980
जूगु	5981
##तायाः	5982
आवेद	5983
##मूल	5984
कृतवान्	5985
गन्त	5986
##पुं	5987
विधान	5988
वैश्व	5989
पुष्प	5990
हरे	5991
##ख्ये	5992
##गच्छ	5993
##क्क	5994
##ष्टो	5995
##ोऽहं	5996
स्थितः	5997
##पदे	5998
जुइ	5999
कुर्यात्	6000
of	6001
आङ्ग	6002
नाय	6003
चेति	6004
##क्ल	6005
##रक्षण	6006
##कुर्व	6007
एम	6008
नरः	6009
साव	6010
सत्	6011
##त्सु	6012
रिक्त	6013
##णस्य	6014
रात्रि	6015
ताप	6016
सञ्च	6017
ज्ञे	6018
कर्तव्यं	6019
200	6020
अतीव	6021
##ितौ	6022
##स्मिन्न	6023
##वृद्ध	6024
##कारो	6025
भिन्न	6026
स्वप्न	6027
विकिपीडिया	6028
बुध	6029
वाद	6030
##श्चा	6031
एतद्	6032
शुक्र	6033
आत्मा	6034
##थाः	6035
##यिष्यामि	6036
महत्	6037
मात्र	6038
विधीयते	6039
खेल	6040
24	6041
##क्षते	6042
धातु	6043
##त्येव	6044
##ाली	6045
संबन्ध	6046
##ालं	6047
देवः	6048
##नय	6049
विषयः	6050
अमेरिक	6051
चक्षु	6052
रज	6053
##गुणं	6054
दुर्ग	6055
##मस्य	6056
##डी	6057
##याय	6058
कथ्यते	6059
ताम	6060
po	6061
##खण्ड	6062
द्वार	6063
अन्यत्र	6064
विशिष्ट	6065
दुःखं	6066
वर्गः	6067
आदि	6068
##स्थं	6069
पश्चात्	6070
##न्ये	6071
हृदि	6072
यात	6073
00	6074
##लयः	6075
##द्वारा	6076
##णाति	6077
उवाच	6078
नृत्य	6079
बो	6080
##el	6081
##ितानां	6082
##ालि	6083
##ासं	6084
क्षमा	6085
नाश	6086
युष्मा	6087
षड	6088
५०	6089
##ान्तरे	6090
विपरी	6091
तिष्ठति	6092
पदार्थ	6093
##्यति	6094
कथितं	6095
##वाय	6096
##घट	6097
##र्ब	6098
समये	6099
करिष्यामि	6100
the	6101
##ासां	6102
अने	6103
नाट	6104
##क्षेत्र	6105
तृतीया	6106
टिप्प	6107
एवम	6108
शोभ	6109
ज्येष्ठ	6110
वयम्	6111
##प्ति	6112
तन्म	6113
परस्प	6114
निग	6115
दर्शयति	6116
हृदयं	6117
भुव	6118
##ार्त	6119
विम	6120
##ेनैव	6121
##प्स	6122
##ह्म	6123
वेत	6124
##साह	6125
##ेशः	6126
##श्रेष्ठ	6127
व्रज	6128
##किं	6129
##राध	6130
##घात	6131
##ुरूप	6132
कृष	6133
तदपि	6134
##ैर्य	6135
पर्या	6136
##दिव	6137
##समये	6138
कीर्त	6139
सम्यक्	6140
इन्द	6141
नारी	6142
अद	6143
च्	6144
##ाश्च	6145
##चेत	6146
अस्तु	6147
प्रेष	6148
##प्तं	6149
विश्लेषण	6150
कान	6151
काय	6152
##स्ततः	6153
##नाव	6154
##ct	6155
इत्य्	6156
में	6157
मूर्ख	6158
##दानं	6159
##करं	6160
##हृद	6161
धाः	6162
##स्वा	6163
##र्ट	6164
एकादश	6165
विश्वं	6166
परिच	6167
खँ	6168
##सस्य	6169
##धीयते	6170
##भूमि	6171
दुष्ट	6172
०३	6173
##वर्ग	6174
##धात	6175
##न्ने	6176
मनसा	6177
ar	6178
सायं	6179
##मप	6180
##ऽहं	6181
##ष्यन्ति	6182
##ग्राह	6183
##ितु	6184
प्रयोगः	6185
भौ	6186
##दम्	6187
##स्मान्	6188
मन्यते	6189
कश्चन	6190
योजना	6191
श्वेत	6192
##भूतं	6193
##भाग्य	6194
अभिप्र	6195
३२	6196
##षो	6197
##करः	6198
##षेधः	6199
पार्थिव	6200
बोध	6201
##जाः	6202
##हस्त	6203
##ानेन	6204
##दिने	6205
अर्ध	6206
##ाता	6207
अन्तः	6208
प्रजा	6209
तन	6210
##पत	6211
##vi	6212
##ान्या	6213
##ग्रहः	6214
नोप	6215
प्राह	6216
संस्करण	6217
प्रकरण	6218
सुवर्ण	6219
##मेक	6220
##कृतम्	6221
मन्त्रि	6222
नहि	6223
वं	6224
##च्वं	6225
चतुर्थ	6226
किञ्चि	6227
on	6228
##ाद्ध	6229
##क्षणं	6230
सभ	6231
स्वतः	6232
शक्तिः	6233
##तानां	6234
स्वं	6235
यथार्थ	6236
दोषः	6237
रोचते	6238
इतर	6239
##न्तम्	6240
अध्याय	6241
##स्थि	6242
प्रथमः	6243
##युक्तं	6244
पाण्ड	6245
##रित	6246
प्रत्येक	6247
नाहं	6248
निर्देश	6249
22	6250
गमि	6251
चो	6252
ताः	6253
दरि	6254
##णु	6255
प्रविश	6256
कल्या	6257
प्रवर्तते	6258
##ायाः	6259
##ें	6260
अनुकूल	6261
सिध्य	6262
इदानी	6263
अक	6264
##न्यः	6265
##श्यति	6266
23	6267
४०	6268
##सन	6269
##गता	6270
व्यायाम	6271
मृत्यु	6272
सर्ग	6273
##षध	6274
##नाद	6275
##पाठ	6276
स्पर्श	6277
ans	6278
वरिष्ठ	6279
दात	6280
##ज़	6281
##विज्ञान	6282
##धिकं	6283
द्वितीया	6284
मृग	6285
सार्व	6286
इष्ट	6287
##नानां	6288
##सुख	6289
##ेश्वर	6290
किञ्चित्	6291
जप	6292
नवी	6293
##ॄणां	6294
धर्मः	6295
धन्यवाद	6296
##चनं	6297
##क्षित	6298
##मिह	6299
बहिः	6300
उन्न	6301
सय	6302
त्वमेव	6303
दिश	6304
पराज	6305
##रति	6306
##र्नि	6307
स्मृत	6308
सामाजिक	6309
##ूष	6310
##यॊ	6311
##द्भव	6312
सुन्द	6313
##च्छ्र	6314
निर्वा	6315
३३	6316
##काय	6317
##ग्राम	6318
भगवन्	6319
01	6320
तात	6321
नाव	6322
##ख्यं	6323
निरूप	6324
महान्	6325
वक्तव्यम्	6326
वाक्यं	6327
खाद	6328
दद्या	6329
धीम	6330
##बाह	6331
माम्	6332
##न्यो	6333
##भूत्	6334
वस्तुतः	6335
##शब्दे	6336
वदति	6337
##ज्र	6338
##िकां	6339
पुरो	6340
यॊ	6341
आगच्छ	6342
##पन्न	6343
##मेति	6344
मुद्र	6345
कुरुते	6346
पवित्र	6347
##धातु	6348
##ap	6349
विस	6350
##ात्मक	6351
पल	6352
लोप	6353
##लयं	6354
##मम	6355
विश्र	6356
देशस्य	6357
ध्या	6358
##ज्या	6359
ऊर्ज	6360
वान	6361
##तमः	6362
##सूत्र	6363
##ूर्ण	6364
##िकार	6365
##ासा	6366
द्रव्य	6367
##ध्यायः	6368
##xx	6369
##ादयः	6370
कुत	6371
व्यापार	6372
तयोः	6373
##रां	6374
दीप	6375
संवत्स	6376
आत्	6377
##्यन्ते	6378
##ित्वं	6379
##स्तीति	6380
शाश्व	6381
मोक्ष	6382
अधोलिख	6383
आरम्	6384
गी	6385
वार्ष	6386
##ग्रहणं	6387
छन्द	6388
नेत	6389
##बु	6390
ज्ञायते	6391
##शील	6392
-"	6393
##िनि	6394
##भो	6395
विच	6396
##याति	6397
बहवः	6398
##हति	6399
##धन	6400
##देशस्य	6401
कृषि	6402
प्रश्नः	6403
त्री	6404
ययौ	6405
##लित	6406
##ादिव	6407
हिन्द	6408
ज्ञात्वा	6409
पद्	6410
मर्त	6411
##संबन्ध	6412
सिंह	6413
तैः	6414
##ङ्गु	6415
##स्थे	6416
राजन्	6417
मनसि	6418
प्रयु	6419
क्षु	6420
##शब्देन	6421
##गमन	6422
विरुद्ध	6423
##त्री	6424
##प्रकाश	6425
एको	6426
कार्यम्	6427
विनाश	6428
##ूं	6429
##ल्ली	6430
##नीं	6431
सकल	6432
##टं	6433
इतः	6434
वक्ष	6435
सात	6436
प्रतीयते	6437
मधुर	6438
नान्य	6439
यच्च	6440
##वादि	6441
##कार्यं	6442
सततं	6443
03	6444
अभव	6445
तन्त्र	6446
##लय्	6447
27	6448
##ाति	6449
##ेष्ट	6450
##जु	6451
##संभव	6452
##चिद्	6453
२०७	6454
तद्ध	6455
स्वर्ण	6456
##भाति	6457
अन्वयः	6458
पशु	6459
##द्यते	6460
##ीये	6461
##ून्	6462
##क्रमः	6463
##कृत्	6464
एतादृश	6465
रुद्र	6466
इमे	6467
##कता	6468
##र्थिक	6469
##दिन	6470
##र्जु	6471
पीसी	6472
##ate	6473
अग्र	6474
##ह्व	6475
तस्माद	6476
भगवान	6477
##पूर्वं	6478
pr	6479
##दत्	6480
प्रमुख	6481
##मादि	6482
कोऽ	6483
हृदये	6484
न्	6485
##्यम	6486
सर्वतः	6487
जय	6488
##बर	6489
##र्मि	6490
##रणः	6491
कर्तव्यम्	6492
विशेषः	6493
##सम्भव	6494
उक्तं	6495
##तार	6496
##मात्रेण	6497
त्यज	6498
अस्याः	6499
##चं	6500
तेज	6501
एकदा	6502
ङीप्	6503
निह	6504
क्रमेण	6505
आश	6506
परः	6507
##तीं	6508
##ण्ट	6509
##त्सर्व	6510
स्वाहा	6511
प्रयोजनम्	6512
म्	6513
यस्मिन्	6514
##खु	6515
##ws	6516
##च्छा	6517
एतस्य	6518
com	6519
आनन्द	6520
मन्द	6521
##भावेन	6522
##नीति	6523
तत्रैव	6524
##ादिषु	6525
##भ्याम्	6526
सेवा	6527
धाव	6528
प्रीति	6529
##निर	6530
##ासः	6531
समं	6532
मोह	6533
मुक्ति	6534
मासे	6535
साहित्य	6536
02	6537
##हारः	6538
##विधं	6539
अन्तरि	6540
दरिद्र	6541
##च्या	6542
##न्तरे	6543
##त्तु	6544
##जान	6545
##्याह	6546
##वाक	6547
##xt	6548
विरा	6549
यस्तु	6550
विधिः	6551
),	6552
दद	6553
ऽपि	6554
##ैल	6555
परो	6556
स्वयमेव	6557
##्येति	6558
स्वप्ने	6559
अन्ति	6560
स्ना	6561
##त्याः	6562
समुदाय	6563
कुर्या	6564
वस्त्र	6565
##भौ	6566
##गतम्	6567
##ान्ध	6568
##लोक्य	6569
पित्र	6570
##पत्	6571
पर्याव	6572
प्रतियोग	6573
##मानो	6574
##भूता	6575
लिखत	6576
26	6577
##वचन	6578
##वादी	6579
विश्वविद्या	6580
##पीड	6581
##नुवन्ति	6582
कर्म्म	6583
##ेभ्यः	6584
##ig	6585
##ौं	6586
##विष्ट	6587
##स्वी	6588
गतिः	6589
डि	6590
भे	6591
योऽ	6592
शब्दा	6593
हु	6594
३५	6595
##मतः	6596
##२०	6597
सर्वभूत	6598
##रीं	6599
द्वा	6600
धकाः	6601
भद्र	6602
##थो	6603
प्रस्तु	6604
विरो	6605
##भिर्	6606
उत्तरः	6607
कदापि	6608
##कृष्ट	6609
##de	6610
विश्वे	6611
मत्स्य	6612
न०	6613
माल	6614
रक्षा	6615
##माश्र	6616
##स्तद	6617
##नादि	6618
प्रधानमन्त्री	6619
नीति	6620
बलं	6621
लाग	6622
##पय	6623
##ृते	6624
##्यै	6625
रामः	6626
मिथ्या	6627
पत्नी	6628
सन्नि	6629
##चरेत्	6630
##फ्	6631
त्वयि	6632
तिथ	6633
##ur	6634
##निश्च	6635
करिष्यति	6636
अग्रे	6637
##ol	6638
##र्थो	6639
##कुल	6640
शक्नोति	6641
##परं	6642
##मभि	6643
क्षम	6644
प्रत्यु	6645
शक्र	6646
##सव	6647
##शतं	6648
##भारः	6649
##क्री	6650
प्रेम	6651
शरणं	6652
##तय्	6653
##महं	6654
##us	6655
समीक्षा	6656
se	6657
छु	6658
नाप	6659
अनन्त	6660
वर्षा	6661
साधु	6662
प्रभो	6663
युद्धे	6664
वृष्ट	6665
स्वस्य	6666
राष्ट्रिय	6667
##नीयं	6668
पंच	6669
महत्वपूर्ण	6670
##साग	6671
##di	6672
तत्प्र	6673
श्रुति	6674
जाति	6675
उक्तम्	6676
##क्ते	6677
३६	6678
##मध्य	6679
##गि	6680
is	6681
##ालः	6682
कदाचन	6683
mss	6684
सेना	6685
प्रतिदिनं	6686
असि	6687
अद्या	6688
मार	6689
##विर	6690
प्रतिवेदन	6691
नगरे	6692
यानाः	6693
आय	6694
हय	6695
##स्थः	6696
पिताम	6697
त्रयो	6698
पर्वत	6699
पक्षे	6700
##सप्त	6701
##ल्या	6702
##थम	6703
निर्ध	6704
संयोग	6705
##रेक	6706
जीवनं	6707
वचः	6708
स्नान	6709
##थ्	6710
##तानि	6711
##त्ये	6712
निम्	6713
स्क	6714
इत्यपि	6715
अकरोत्	6716
चाल	6717
##रौ	6718
##णाः	6719
##युक्तः	6720
व्यवस्था	6721
भ्रात	6722
काव्य	6723
भविष	6724
मन्दि	6725
##स्थिति	6726
वृष	6727
अन्तर	6728
##ation	6729
शक्नु	6730
पच	6731
यन्त्र	6732
४५	6733
साध्य	6734
##चितम्	6735
##र्हसि	6736
##लां	6737
##याव	6738
समुप	6739
कन	6740
भूत्वा	6741
आधार	6742
क्षी	6743
##योजना	6744
विद्यु	6745
कठ	6746
खण्ड	6747
##ामु	6748
##दृश्य	6749
अग्निः	6750
iii	6751
नौ	6752
##ेतु	6753
महान	6754
समीपे	6755
शय	6756
##पतिः	6757
##सै	6758
##चक्र	6759
प्रकल्प	6760
##स्यैव	6761
३७	6762
##ढ़	6763
##न्नो	6764
##त्त्र	6765
##रण्य	6766
##ित्यर्थः	6767
यस्या	6768
शङ्क	6769
##सिं	6770
##तिरिक्त	6771
##संख्य	6772
यद्वा	6773
##कीर्त	6774
शीर्ष	6775
##च्वंगु	6776
ऊर्ध	6777
षट्	6778
##पक्षे	6779
##ितेन	6780
##ांत	6781
कारणम्	6782
उपा	6783
##सीद	6784
शिश	6785
मन्ये	6786
१९९	6787
##क्रमण	6788
श्लोक	6789
क्त	6790
जले	6791
०४	6792
केचित्	6793
न्यून	6794
##ेनि	6795
केवलम्	6796
गिरि	6797
sf	6798
ही	6799
##ङ्कार	6800
##ासते	6801
मेघ	6802
तदु	6803
वर्षाणि	6804
वक्तुं	6805
कथय	6806
अपेक्ष	6807
दिनाङ्के	6808
चरण	6809
##याद	6810
निरी	6811
नात्र	6812
बाह्य	6813
##ive	6814
हन्त	6815
##ध्याय	6816
वाह	6817
##कालः	6818
एतेषां	6819
##जग	6820
##योर्	6821
प्राधिकरण	6822
##नै	6823
वायुः	6824
हरिः	6825
पश्चिम	6826
ईश	6827
##स्तो	6828
संसाधन	6829
##द्योग	6830
देवं	6831
स्वास्थ	6832
##ैरपि	6833
किमर्थं	6834
गृहीत्वा	6835
##राय	6836
देशः	6837
##ेश्वरः	6838
##ायाम्	6839
##ब्रवीत्	6840
अ॒	6841
ऋष	6842
##धौ	6843
##ग्व	6844
##त्पत्त	6845
स्नेह	6846
##रत	6847
##स्त्री	6848
सज्ज	6849
##लिं	6850
##ानुव	6851
मूल्य	6852
घोषणा	6853
##धाव	6854
निर्ग	6855
समयः	6856
##मुद	6857
पूर्वोक्त	6858
सरकार	6859
तार	6860
दास	6861
##स्तेन	6862
निश	6863
सार्ध	6864
अनुभव	6865
स्नानं	6866
##ेक्षा	6867
##ut	6868
##ित्यं	6869
##त्यर्थः	6870
समन्व	6871
सम्प्रति	6872
तेषाम	6873
##र्ड	6874
##्वास	6875
##दिश्य	6876
##द्यो	6877
बालकः	6878
आङ्ग्ल	6879
रक्षण	6880
##सम्ब	6881
##ैष	6882
स्वे	6883
प्रतिनि	6884
एताव	6885
वचन	6886
##ाल्	6887
प्रथमे	6888
भूप	6889
##em	6890
व्याप	6891
शुभा	6892
दूरे	6893
##र्दश	6894
द्वितीयं	6895
महिला	6896
चार	6897
नहीं	6898
षोड	6899
विरोध	6900
एवमेव	6901
##मानस्य	6902
तेऽ	6903
तदि	6904
मरण	6905
##मित्या	6906
##ानो	6907
##निर्म	6908
राग	6909
परस्परं	6910
जनः	6911
४१	6912
##ानन्द	6913
सर्वाः	6914
स्वामि	6915
समू	6916
कालं	6917
2019	6918
समीप	6919
##लयस्य	6920
##करोति	6921
लाखों	6922
शौ	6923
##ov	6924
##येति	6925
याच	6926
##घ्न	6927
##वारं	6928
##ान्तरं	6929
क्ली	6930
अनुवाद	6931
##पुरा	6932
##क्षेत्रे	6933
भाग्य	6934
कुर्य	6935
al	6936
करे	6937
##वर्ज	6938
##गू	6939
##ul	6940
मह्यं	6941
##स्मिं	6942
विशेषण	6943
क्षेत्रे	6944
मनुष्या	6945
2020	6946
दर	6947
##सभा	6948
प्रकार	6949
##ङ्गल	6950
श्रूयते	6951
प्राचीन	6952
##रेव	6953
प्रसार	6954
सकलं	6955
ऋण	6956
वां	6957
सदृश	6958
##बाध	6959
for	6960
धु	6961
##ेऽपि	6962
##ोपरि	6963
##श्मी	6964
स्त्रीणां	6965
थु	6966
प्रमाणं	6967
##र्थी	6968
##ल्क	6969
श्रेण	6970
प्रसाद	6971
अध्यायः	6972
पथ	6973
परमाण	6974
##ैवं	6975
संस्कृति	6976
ब्रह्मा	6977
(=	6978
शङ्	6979
साल	6980
##प्रधान	6981
वात	6982
राष्ट्रीय	6983
शरीरं	6984
असं	6985
##हुः	6986
##नार्थं	6987
संस्थान	6988
##ज्ञाप	6989
साम्	6990
##देशं	6991
कृष्	6992
अन्न	6993
शोध	6994
##ितस्य	6995
##क्षी	6996
##प्रसङ्ग	6997
लभ्यते	6998
नाम्ना	6999
##रीय	7000
##तमं	7001
प्राक्	7002
##क्षिण	7003
वदन्ति	7004
बे	7005
मृद	7006
यद्व	7007
##वद्	7008
##क्व	7009
##जल	7010
महारा	7011
##नीया	7012
परिवार	7013
खल	7014
##ाणी	7015
##ुक्तम्	7016
##मानम्	7017
##त्यां	7018
मुद्रा	7019
##ेयः	7020
##्वी	7021
प्रयोजन	7022
##ङ्घ	7023
__१	7024
28	7025
रत्	7026
##हम	7027
##द्वार	7028
##ष्यसि	7029
##ग्रन्थ	7030
फो	7031
##शङ्क	7032
##्यौ	7033
##ितुम्	7034
##िक्र	7035
देवस्य	7036
मात्रा	7037
उत्पादन	7038
सन्तु	7039
##ाऽ	7040
शब्दस्य	7041
##तृ	7042
##wer	7043
##ह्न	7044
युष्म	7045
स्वातन्त्र	7046
योग्य	7047
स्मृतः	7048
भोजनं	7049
चेद	7050
मित्रं	7051
विभक्त	7052
करु	7053
##ोति	7054
##मानु	7055
##भूति	7056
परीक्ष	7057
डा	7058
नद	7059
##व्ये	7060
##ामहे	7061
म्ह	7062
समि	7063
##प्यते	7064
प्रशास	7065
विल	7066
विभाषा	7067
इत्येवं	7068
शरण	7069
##माणे	7070
प्रतिषेध	7071
पाकि	7072
कां	7073
##क्षत्र	7074
##विचार	7075
संघ	7076
रूपेण	7077
तस्यां	7078
2018	7079
क्रीडा	7080
गम्यते	7081
04	7082
अच	7083
जे	7084
बभूव	7085
##राव	7086
##तमे	7087
##शाला	7088
भवतीति	7089
##गृह्य	7090
##ब्राह्म	7091
ईश्वरः	7092
de	7093
##ूत	7094
##ैश्व	7095
##गते	7096
##माप्	7097
सर्वान्	7098
ज्ञाप	7099
##यिष्यति	7100
शक्यं	7101
मनोर	7102
इमं	7103
##सद	7104
##शयः	7105
सर्वस्य	7106
सम्भाव	7107
परिभाष	7108
##समन्व	7109
##ans	7110
युद्धं	7111
##लक्षणं	7112
बलि	7113
##पथ	7114
##चिः	7115
##ारूप	7116
प्राधान	7117
करोतु	7118
वृत्ति	7119
वर्धते	7120
50	7121
##मानि	7122
##ताया	7123
धीरे	7124
##गन्ध	7125
देवो	7126
पापं	7127
पश्यामि	7128
##दिश्यते	7129
:-	7130
गर्	7131
##धो	7132
स्मृति	7133
नान	7134
##वत	7135
##न्मा	7136
युगे	7137
सङ्ख्या	7138
इत्येतद्	7139
उद्ध	7140
राव	7141
##साः	7142
##नाया	7143
##ग्रहण	7144
शून्य	7145
ओं	7146
हानि	7147
##हृ	7148
समन्त	7149
राज्ये	7150
##रूपे	7151
पट	7152
हर्ष	7153
५५	7154
##पर्यन्तं	7155
खो	7156
चित्	7157
परित्य	7158
इत्यत	7159
##गम्य	7160
नेत्र	7161
आवेदन	7162
माय	7163
ली	7164
शृ	7165
##चाल	7166
प्रस्ताव	7167
##माप	7168
##क्षर	7169
##नात्म	7170
##ादपि	7171
योजन	7172
आर्थिक	7173
राजनि	7174
गुणः	7175
कर्मणा	7176
शिष्य	7177
राष्ट्रपति	7178
ततश्च	7179
हेतुः	7180
##दिष्टम्	7181
##गाः	7182
##द्यु	7183
मिल	7184
लक्षणं	7185
##प्रत्ययः	7186
दया	7187
##॑ः	7188
संशोध	7189
sp	7190
रहस्य	7191
##टर	7192
##वस्तु	7193
##भावो	7194
##क्रान्त	7195
सूक्ष्म	7196
गुणा	7197
एषां	7198
##ाग्नि	7199
याःगु	7200
##ूर	7201
##ir	7202
##निय	7203
##येद्	7204
##काङ्	7205
##ामिति	7206
##यन्ते	7207
##कां	7208
##कत्व	7209
##त्था	7210
##्याम्	7211
सर्वो	7212
भवत्य	7213
जीवन	7214
by	7215
आच	7216
यश्च	7217
##पर्व	7218
मुने	7219
भूमौ	7220
कार्यक्रम	7221
छात्राः	7222
काव	7223
##रात्म	7224
अधिकारी	7225
गुणाः	7226
तीर्थ	7227
त्	7228
दुः	7229
हन	7230
##जन्म	7231
भवती	7232
प्राति	7233
कर्माणि	7234
पर्यावरण	7235
तमेव	7236
३४	7237
सर्वैः	7238
##क्रमे	7239
मूढ	7240
शतं	7241
शान्ति	7242
##ूर्व	7243
##मुत्त	7244
##यितुम्	7245
निर्माण	7246
##धारण	7247
इच्छति	7248
इत्युच्यते	7249
त्रीणि	7250
iv	7251
चौ	7252
छि	7253
वस्त	7254
##शुद्ध	7255
##वत्स	7256
##हत	7257
##द्भिः	7258
##न्द्रिय	7259
साभारः	7260
##ोऽस्ति	7261
##ख्यान	7262
##हेतु	7263
वसु	7264
वज्र	7265
प्रशं	7266
निष्ठ	7267
त्वाम	7268
##मेकं	7269
अतएव	7270
##खः	7271
सर्वथा	7272
##ाणाम्	7273
##द्रूप	7274
स्थिता	7275
स्थिर	7276
us	7277
##िनां	7278
तुल्य	7279
##द्वयं	7280
##प्तः	7281
तदन	7282
लक्ष्य	7283
सृज	7284
दक्षिणा	7285
ततोऽ	7286
परमात्म	7287
अमरः	7288
40	7289
##चने	7290
##चतु	7291
##ादिः	7292
संबं	7293
राज्ञः	7294
सम्भाष	7295
केचन	7296
कामं	7297
##गृहे	7298
पातु	7299
##सृ	7300
##ताप	7301
दुग्ध	7302
भार्या	7303
दिवा	7304
कदाचि	7305
धया	7306
४७	7307
##सुर	7308
प्रात	7309
##न्ता	7310
##ादु	7311
##ादे	7312
व्यु	7313
एतानि	7314
##परम्	7315
ch	7316
फि	7317
वर्ज	7318
##॒व	7319
तेना	7320
तदनु	7321
दक्षिणे	7322
विष्णु	7323
वह्नि	7324
जाल	7325
बै	7326
यस्मा	7327
४४	7328
##ध्वं	7329
##प्रदेश	7330
स्वर	7331
इत्यस्मात्	7332
##ङ्गं	7333
##शिया	7334
##हारे	7335
वय्कः	7336
गता	7337
नमो	7338
##कर्ण	7339
##ter	7340
##र्म्	7341
दृष्टं	7342
##देवं	7343
भागः	7344
प्रविश्य	7345
षष्ठी	7346
##लिक	7347
##ादिकं	7348
##प्रमाण	7349
be	7350
कक्ष	7351
गिर	7352
च्व	7353
४२	7354
##दन	7355
##लया	7356
##ोत्स	7357
माध्य	7358
सूर	7359
अवदत्	7360
इत्थं	7361
अस्या	7362
घो	7363
दानं	7364
##पते	7365
##विश्व	7366
##रात	7367
प्रजाः	7368
##ीव्र	7369
अवश्यं	7370
तक	7371
०५	7372
##यतः	7373
##ादिना	7374
अधिकं	7375
वर्त्त	7376
दूष	7377
answer	7378
आधु	7379
यां	7380
##न्दा	7381
निषेध	7382
स्थितम्	7383
अतीत	7384
29	7385
भोः	7386
यी	7387
##स्यं	7388
सर्वभू	7389
##ास्व	7390
अपरि	7391
प्राप्यते	7392
जीवति	7393
पुरुषं	7394
भुवि	7395
द्रष्टुं	7396
अण्	7397
##विरोध	7398
व्याघ्र	7399
##सक	7400
##प्रती	7401
##ेशे	7402
##श्वर	7403
अस्माभिः	7404
##ादेशः	7405
गुरुः	7406
##मयं	7407
##ow	7408
श्राद्ध	7409
##हूर्त	7410
आन	7411
वेति	7412
##सत्त्व	7413
##ङि	7414
संज्ञ	7415
##कारी	7416
सहाय	7417
##कम्ः	7418
##भेदः	7419
इत्युक्ते	7420
हिंसा	7421
खु	7422
##भयं	7423
##गल	7424
##oo	7425
प्रकारेण	7426
##ावा	7427
##मान्त	7428
पुत्रं	7429
असम	7430
आदेश	7431
कोप	7432
चु	7433
चर्च	7434
मति	7435
लॊ	7436
तस्माद्	7437
ईश्वर	7438
next	7439
##हीन	7440
साथ	7441
भागे	7442
##ोत्तर	7443
05	7444
४९	7445
##केत	7446
##गेन	7447
##त्यु	7448
##र्मु	7449
##्येते	7450
##ब्ब	7451
कालेन	7452
फलकम्ः	7453
विहाय	7454
परस्परम्	7455
07	7456
पक्षि	7457
रच	7458
##द्वा	7459
संग	7460
शिख	7461
मिश्र	7462
सिध्यति	7463
कपि	7464
चतुर	7465
टे	7466
लज्ज	7467
४८	7468
##पन	7469
संविधान	7470
अनुप	7471
गुह	7472
दृष्टि	7473
##षिद्ध	7474
##निर्देश	7475
साय	7476
##पौ	7477
विवाद	7478
भवन	7479
32	7480
इती	7481
विचित्र	7482
##स्ये	7483
##श्चित्त	7484
पृच्छ	7485
##पुस्त	7486
##वृत्तिः	7487
नरक	7488
=>	7489
आम	7490
##ितैः	7491
सहसा	7492
##भेदेन	7493
##धिकारिक	7494
tr	7495
वरं	7496
##रत्	7497
##सान	7498
भवः	7499
बहूनि	7500
यात्र	7501
स्पर्ध	7502
गे	7503
जक	7504
५२	7505
##पचार	7506
##शरी	7507
##df	7508
प्रदू	7509
स्वः	7510
मही	7511
##भाज	7512
साधन	7513
##स्पर्श	7514
##द्भु	7515
तात्	7516
##मृ	7517
##ear	7518
##विधिः	7519
प्रचल	7520
त्यक्त्वा	7521
३८	7522
##ैति	7523
##ावपि	7524
##ज्ञे	7525
##भावं	7526
व्रत	7527
वाञ्छ	7528
##ान्नि	7529
##व्यक्ति	7530
स्तम्भ	7531
.)	7532
##ीर्ण	7533
कथयति	7534
##्यायां	7535
पितुः	7536
कार्याणि	7537
साहाय	7538
भोजन	7539
क्रमशः	7540
नागरिक	7541
##ार्य	7542
##लाई	7543
##यमपि	7544
पै	7545
##ापेक्ष	7546
महत्त्व	7547
श्रोत	7548
व्याकरण	7549
##पदम्	7550
##प्रत्यय	7551
याम	7552
वक्ष्य	7553
४६	7554
##वन्त	7555
##्रो	7556
प्रयोक्त	7557
##द्वित	7558
तत्सर्व	7559
नामानि	7560
कर्तव्यः	7561
"'	7562
##कर्मा	7563
##ेना	7564
व्यो	7565
असौ	7566
चकार	7567
नास	7568
मरणं	7569
याद	7570
सप	7571
##दैव	7572
##कीय	7573
निष	7574
##ब्दं	7575
क्षणं	7576
भूम	7577
अवश्य	7578
फलम्	7579
स्युः	7580
धेन	7581
प्	7582
पतिः	7583
रू	7584
५१	7585
##ादिक	7586
##लभ्यते	7587
तवा	7588
नय	7589
##जायते	7590
##ik	7591
##os	7592
विभिन्न	7593
उपाय	7594
##प्ता	7595
निष्क	7596
नाना	7597
भुक्त	7598
##प्रवेश	7599
सुत	7600
##च्छत्	7601
सिद्धि	7602
##पत्तिः	7603
घन	7604
स्थितिः	7605
उल्	7606
##एं	7607
##ज्ञो	7608
##स्थो	7609
श्रीम	7610
प्राप्तवान्	7611
श्रुत	7612
निर्णय	7613
अर	7614
अन्ध	7615
##ोन्न	7616
स्थिते	7617
धर्मो	7618
जानी	7619
##विशेषः	7620
##कथं	7621
##ेवा	7622
संभवति	7623
भवतां	7624
##र्मः	7625
कुमार	7626
इत्याद	7627
दृश्यम्	7628
जिला	7629
सचिव	7630
वार्षिक	7631
##un	7632
##विरो	7633
##ज्ञां	7634
##ाणं	7635
त्वम	7636
##व्यक्त	7637
##श्रम	7638
तर्क	7639
पूजां	7640
सुरक्षा	7641
उच्चार	7642
##विंशति	7643
अधोलिखितानि	7644
##ाभ्यां	7645
##फ़	7646
##im	7647
##्यामः	7648
##प्रे	7649
##नीयः	7650
अप्	7651
दिशि	7652
##स्रो	7653
पीठ	7654
व्यवस्थाप	7655
सामान्यतः	7656
धार्म	7657
35	7658
गाव	7659
मदु	7660
रण	7661
३९	7662
अधः	7663
##योगे	7664
त्रै	7665
उक्तः	7666
##ब्रह्म	7667
pdf	7668
णि	7669
मेदि	7670
परिसन्ध	7671
##दम	7672
##ेन्द्र	7673
##ak	7674
##नाथ	7675
माध	7676
##ग्री	7677
##ess	7678
तद्यथा	7679
यशः	7680
##्ण	7681
##व्याः	7682
कारयेत्	7683
उत्तरा	7684
नगरं	7685
##लक	7686
##गर	7687
##av	7688
##स्तान	7689
परिष	7690
जनानां	7691
रूपम्	7692
दर्शन	7693
क्षेत्रं	7694
पुस्तक	7695
एस्	7696
##मत्	7697
##त्य्	7698
अन्यः	7699
प्रोक्ता	7700
##सहस्राणि	7701
##०१	7702
##कार्या	7703
सूत्रे	7704
दिवि	7705
अध्यक्ष	7706
दिनानि	7707
पुनर्निर्	7708
आधिकारिक	7709
गङ्ग	7710
ची	7711
पय	7712
##सन्	7713
##वति	7714
##चितं	7715
##ज्यं	7716
##विस्त	7717
अनन्तरं	7718
##न्द्रि	7719
हिमा	7720
व्यति	7721
उत्तरं	7722
##दीनां	7723
पुरुषो	7724
प्रेर	7725
##घव	7726
प्रकृतिः	7727
संयु	7728
##णियां	7729
धर्मं	7730
धातुः	7731
अस्मान्	7732
रणे	7733
हस्ते	7734
##ff	7735
निद्र	7736
कृत्	7737
मानवः	7738
दत्त्वा	7739
एता	7740
सख	7741
सेन	7742
##सत्त	7743
##डे	7744
##च्छया	7745
पात्र	7746
पुनरपि	7747
पद्ध	7748
##पास	7749
##तश्च	7750
##लानि	7751
##बलः	7752
##ृत्व	7753
##ेतुं	7754
स्मरण	7755
पठति	7756
नूतन	7757
स्फुट	7758
post	7759
अन्ते	7760
जै	7761
भोक्त	7762
##यमा	7763
##बध्यते	7764
##गृहं	7765
विदु	7766
अथे	7767
सामर्थ	7768
पृष्ठं	7769
##क्रम्य	7770
श्लो	7771
##नीयम्	7772
arch	7773
बद्ध	7774
##टन	7775
##रूपा	7776
##ृत्ति	7777
अवस्था	7778
संस्कार	7779
मासस्य	7780
आधुनिक	7781
तपः	7782
६०	7783
##ान्ये	7784
##नाति	7785
संरक्षण	7786
नापि	7787
विदुः	7788
लक्ष्यते	7789
जनार्द	7790
मानुष	7791
वन्द	7792
४३	7793
##परः	7794
##लाप	7795
##वश	7796
##मानाः	7797
वैद	7798
##मेवं	7799
दृश्यन्ते	7800
31	7801
नपुं	7802
मई	7803
##च्व	7804
##ैकं	7805
##ps	7806
##तेति	7807
##ङ्गः	7808
स्तः	7809
लोकः	7810
प्रवक्ष्यामि	7811
प्राप्तं	7812
ततॊ	7813
##डः	7814
##ांसि	7815
##ष्प	7816
##क्षुः	7817
##ादः	7818
##स्थिते	7819
कुतो	7820
कोरो	7821
१९७	7822
प्रवृत्ति	7823
संबंधनं	7824
अस्त	7825
दह	7826
##ानाः	7827
इत्ये	7828
महात्म	7829
पूर्वेण	7830
##श्वरः	7831
##दर्शन	7832
इच्छामि	7833
प्रयच्छ	7834
टिप्पणियां	7835
क्वा	7836
वया	7837
५४	7838
##ाधिक	7839
##िनो	7840
##र्षे	7841
##भूतः	7842
योगदान	7843
##ine	7844
पुरतः	7845
समर्पयामि	7846
##िया	7847
##धर्मा	7848
##स्न	7849
तत्रापि	7850
##श्रय	7851
साधारण	7852
ध्यानं	7853
ब्राह्मण	7854
दीयते	7855
नेति	7856
सनात	7857
##ac	7858
समस्या	7859
##ष्ठं	7860
यथाशक्ति	7861
वेत्ति	7862
##र्थाः	7863
नरा	7864
माह	7865
यूप	7866
##शू	7867
##थिव	7868
##॒त	7869
संवेद	7870
##निष	7871
--"	7872
भूय	7873
पुराण	7874
##व्यवस्था	7875
धृत	7876
##ष्क	7877
अन्या	7878
##ग्रीव	7879
##र्यः	7880
##र्जन	7881
कालो	7882
पुनर्व	7883
घटना	7884
जर	7885
५७	7886
##पत्य	7887
##सन्ति	7888
प्रम	7889
##ालय	7890
श्रृण	7891
##कृतिक	7892
वीर्य	7893
सीता	7894
):	7895
##ैर्व	7896
वाप	7897
प्राप्तः	7898
आन्दो	7899
दक्ष	7900
##ज्व	7901
##मात्रे	7902
##क्ता	7903
पुष्ट	7904
एकम्	7905
जाने	7906
द्	7907
पाणि	7908
ष्	7909
वाक्	7910
##संयु	7911
यात्रा	7912
##मोह	7913
##शुभ	7914
##मेतत्	7915
हां	7916
##प्रश्	7917
##ोऽस्मि	7918
##भ्युप	7919
तदाह	7920
2021	7921
or	7922
कष्ट	7923
##th	7924
##विद्य	7925
संभाव	7926
वैज्ञान	7927
##चारि	7928
प्रसन्न	7929
प्रभुः	7930
द्वितीयः	7931
अर्थात्	7932
08	7933
यति	7934
लाल	7935
प्रमा	7936
निपा	7937
##संयुक्त	7938
भारतं	7939
सर्वभूतेषु	7940
ईदृश	7941
कष	7942
री	7943
सत्त	7944
हितं	7945
##ाश	7946
##चल	7947
गृह्यते	7948
##ives	7949
विवेक	7950
प्रदत्त	7951
संह	7952
##मानेन	7953
केनापि	7954
कर्तुम्	7955
##धाति	7956
##बुद्धि	7957
अभवन्	7958
आसी	7959
आपः	7960
तयो	7961
##दाः	7962
##स्तेषां	7963
भवेद	7964
##रिव	7965
##लाभ	7966
केर	7967
तेनैव	7968
वृद्धिः	7969
ver	7970
रह	7971
##ंग	7972
##नर	7973
##ण्या	7974
##चनम्	7975
##विरुद्ध	7976
वर्षस्य	7977
शिर	7978
जीवितं	7979
,"	7980
सञ्ज	7981
##ऽव	7982
##िकायां	7983
संकल्प	7984
##ालो	7985
##रोप	7986
देवदत्त	7987
##व्यो	7988
मनुः	7989
##विक्र	7990
यान्ति	7991
वध	7992
##साव	7993
##णाय	7994
##्यत	7995
##ानन्तरं	7996
##माग	7997
##प्रथ	7998
पूर्वे	7999
##भागः	8000
तवं	8001
##िकायाः	8002
विधाय	8003
##खिल	8004
नूनं	8005
सैन्य	8006
कान्त	8007
यस्मात्	8008
हल	8009
##परे	8010
##यन्त्र	8011
##कान्	8012
##धर	8013
##क्षणे	8014
उत्कृष्ट	8015
कौश	8016
द्वितीये	8017
कूप	8018
##बे	8019
##थैव	8020
##नुते	8021
##साम्	8022
युज्यते	8023
विस्तार	8024
##राज्यस्य	8025
sh	8026
८०	8027
देवताः	8028
नाभि	8029
अपरा	8030
विशेषेण	8031
द्रो	8032
श्रुतिः	8033
महोदय	8034
गज	8035
वंश	8036
##त्तः	8037
समग्र	8038
तुम	8039
##चारः	8040
लोकानां	8041
उद्योग	8042
जो	8043
ब्रि	8044
हन्ति	8045
##ीकृत	8046
##न्यथा	8047
अपर	8048
द्रु	8049
१००	8050
प्रभु	8051
चित	8052
तन्न	8053
फ़	8054
बौ	8055
##ऽनु	8056
वाणि	8057
##स्वभाव	8058
दर्शनं	8059
प्रियं	8060
विपर्य	8061
##कर्षण	8062
##टुम्ब	8063
पोष	8064
५६	8065
##यैव	8066
##युद्ध	8067
##श्त	8068
श्राव	8069
देशं	8070
पुत्रो	8071
नूत	8072
बीज	8073
पार्श्व	8074
ऋतु	8075
चैत	8076
##पान	8077
##सभ	8078
##ांश्च	8079
##ाद्या	8080
##दात्	8081
परिण	8082
अवस	8083
केचि	8084
कर्तृ	8085
स्मृतम्	8086
स्यादिति	8087
अधिकृत	8088
प्रभात	8089
अंश	8090
आवि	8091
छाया	8092
##दय	8093
##ीपे	8094
विकार	8095
##त्यः	8096
तुभ्यं	8097
##र्षि	8098
लोकं	8099
सुखम्	8100
##सिद्धि	8101
पदार्थः	8102
क्लेश	8103
वेतन	8104
धाःसा	8105
ap	8106
तीव्र	8107
वक्ष्यामि	8108
ह्री	8109
##ङ्गे	8110
क्लि	8111
अतिरिक्त	8112
सम्बन्धि	8113
दत्तं	8114
स्वास्थ्य	8115
कवि	8116
कम्प	8117
##ान्यं	8118
प्रक्रिया	8119
परत	8120
##निर्ण	8121
त्वर	8122
2017	8123
##वचनम्	8124
गृह्ण	8125
xxx	8126
##सित	8127
##ष्यं	8128
##भक्ति	8129
##आर	8130
##ारिद्र	8131
इन्	8132
कानि	8133
ध्ये	8134
भृ	8135
##_1	8136
##भिधीयते	8137
राशि	8138
स्वाभाव	8139
जगति	8140
अत्यन्त	8141
##ानुसारं	8142
ऋत	8143
दौ	8144
याना	8145
##um	8146
##क्तः	8147
##त्तं	8148
##प्राण	8149
सुभाष	8150
पूर्वा	8151
##....	8152
पिण्ड	8153
विद्यमान	8154
##बिम्ब	8155
कप	8156
##ार्थः	8157
##स्यो	8158
पराम	8159
स्वि	8160
##योग्य	8161
पूर्वम्	8162
सप्ताह	8163
पदम्	8164
भक्त्या	8165
छे	8166
तासां	8167
रति	8168
लव	8169
५९	8170
##कथा	8171
##च्यु	8172
प्रारम्भ	8173
##स्येति	8174
भवन्तः	8175
##क्रमेण	8176
गृहीत	8177
निवार	8178
##मन्त्रि	8179
चित्तं	8180
06	8181
आयुः	8182
चैक	8183
६५	8184
##र्मध्ये	8185
पूज्य	8186
##ीयन्ते	8187
अपना	8188
##करणम्	8189
दृष्टः	8190
स्पृश	8191
विधिना	8192
विद्वान्	8193
चाप	8194
चीन	8195
ट्र	8196
##भोज	8197
##न्तरम्	8198
##श्छ	8199
सूर्यः	8200
युक्तः	8201
pre	8202
मध्या	8203
मखु	8204
रवि	8205
७०	8206
##मना	8207
##थु	8208
##प्रकार	8209
एवमुक्त	8210
समव	8211
समृद्ध	8212
मुहूर्त	8213
वर्तन्ते	8214
##सें	8215
##ञ्जन	8216
##दृष्ट्या	8217
प्रविष्ट	8218
अद्यापि	8219
आम्	8220
##मते	8221
सर्वलोक	8222
##रोऽ	8223
##पराय	8224
युवा	8225
प्रयत्नेन	8226
तन्नि	8227
धनु	8228
स॒	8229
##एम	8230
विंश	8231
निर्वि	8232
##रोग	8233
देवदेव	8234
##साध्य	8235
##मोद	8236
पश्यन्ति	8237
उभौ	8238
अध्याप	8239
##चो	8240
##गोच	8241
##यामः	8242
##भाषायां	8243
##ग्रहणम्	8244
##परिवर्त	8245
नरकं	8246
प्रार्थना	8247
प्रयत्नतः	8248
लौक	8249
##पत्रं	8250
##कलं	8251
##आई	8252
प्रास	8253
यथाविधि	8254
भूयः	8255
१९८	8256
वृत्तिः	8257
##नत	8258
##धिं	8259
##धुना	8260
##र्भवति	8261
##स्तां	8262
##ायो	8263
##रूपः	8264
##पीसी	8265
##गम्यते	8266
भाति	8267
च्छ	8268
एशिया	8269
सर्प	8270
##क्षिक	8271
वाज	8272
##र्ता	8273
##नुयात्	8274
##केन्द्र	8275
##शब्दस्य	8276
योगी	8277
चतुर्दश	8278
जातं	8279
##मित्यर्थः	8280
हरेः	8281
##बो	8282
##मासीत्	8283
परस्मै	8284
१९४	8285
##मुखं	8286
शरीरे	8287
राज्यस्य	8288
मुखं	8289
अङ्क	8290
##दन्त	8291
##लिः	8292
##श्चापि	8293
##लोकं	8294
रक्षति	8295
आं	8296
सभा	8297
हव	8298
##ाक्ष	8299
##क्रियते	8300
भविष्यन्ति	8301
त्रयः	8302
उपयोगः	8303
##ोत्तम	8304
मार्गे	8305
##ारोह	8306
तनु	8307
सद्	8308
##तॊ	8309
##चन्द्र	8310
##ानीं	8311
##विशिष्ट	8312
पुरु	8313
##कृतेः	8314
##णार्थं	8315
लोका	8316
पुनरा	8317
बुद्धिः	8318
सम्बन्धः	8319
सन्दे	8320
##सदृश	8321
##ुल	8322
##भविष्य	8323
##ोट	8324
##if	8325
सर्वम	8326
##श्चर्य	8327
किंचित्	8328
##स्वं	8329
##दीप	8330
चतुर्	8331
##हरति	8332
प्रयोजनं	8333
नाराय	8334
यौव	8335
खि	8336
तेषाम्	8337
पण्ड	8338
##ाइ	8339
##तत्त्व	8340
##_अ	8341
पूँ	8342
संशय	8343
##स्थानम्	8344
##वर्षे	8345
आरब्ध	8346
archives	8347
वरा	8348
##सय	8349
##दण्ड	8350
##तरा	8351
##लब्	8352
##प्रयोज	8353
त्वद	8354
प्राप्ता	8355
पुरुषस्य	8356
स्वीकृत	8357
राजनि०	8358
मेष	8359
याग	8360
सत्व	8361
##कान	8362
##न्तीति	8363
##भिधान	8364
##रणा	8365
तस्यैव	8366
कामः	8367
राष्ट्रे	8368
इत्येतत्	8369
क्य	8370
तत्व	8371
##र्थस्य	8372
द्वन्द	8373
ज्वल	8374
पुण्यं	8375
युष्माकं	8376
ad	8377
तान	8378
नक्षत्र	8379
सोऽपि	8380
७५	8381
##गर्भ	8382
##ेशं	8383
##न्दः	8384
##ोऽध्यायः	8385
कथम	8386
करिष्ये	8387
सम्बन्धी	8388
करणे	8389
प्या	8390
मतम्	8391
यव	8392
शनैः	8393
सन्न	8394
##रपि	8395
##दित	8396
##शिव	8397
##्य्	8398
##ांस	8399
##ुर्य	8400
##सङ्ख्या	8401
अरे	8402
कण्ठ	8403
सफल	8404
##ूणां	8405
##क्यं	8406
प्रदा	8407
##येण	8408
##योगं	8409
नेपाः	8410
जुल	8411
भूतानि	8412
पुनर्निर्दिष्टम्	8413
आर्य	8414
यया	8415
##ूय	8416
##भिश्च	8417
##सेना	8418
जगतः	8419
तर्प	8420
नील	8421
रचना	8422
प्रसू	8423
सर्वम्	8424
सर्वनाम	8425
##ज्ञाय	8426
##मेल	8427
शिक्षण	8428
##सूचना	8429
(?	8430
अच्	8431
सफ	8432
##न्द्रिया	8433
जनसंख्या	8434
##दीर्घ	8435
दिव्यं	8436
##क्रमम्	8437
##कर्तुं	8438
'।	8439
डो	8440
##ङ्का	8441
राजधान	8442
##ध्यक्ष	8443
##श्रव	8444
##धीः	8445
चिन्ता	8446
##पचारिक	8447
अभाव	8448
चाह	8449
लक्ष्म	8450
शाल	8451
##प्या	8452
##िम	8453
##तमा	8454
##थवा	8455
##ऽप्य	8456
स्ट	8457
महाप	8458
##योगेन	8459
स्याद्	8460
##देवता	8461
विवक्ष	8462
पुस्तकं	8463
अर्जु	8464
आशी	8465
एन	8466
मल	8467
##निर्व	8468
##योज्य	8469
स्वामी	8470
स्त्रिया	8471
##दर्शनं	8472
100	8473
इच्छा	8474
ex	8475
माग	8476
रसो	8477
विधा	8478
एवेति	8479
किंचि	8480
नामा	8481
##पर्या	8482
प्राप्तुं	8483
स्वार्थ	8484
##सम्पाद	8485
युक्तं	8486
इदानीम्	8487
en	8488
तच्छ	8489
वणि	8490
##स्तत्	8491
स्वल्प	8492
इत्युप	8493
##स्थितम्	8494
परिह	8495
अप्वः	8496
##भूते	8497
दुगु	8498
##स्मान्न	8499
अन्यत्	8500
१९५	8501
प्रिया	8502
आवश्यकता	8503
33	8504
मेन	8505
सलि	8506
५३	8507
##बहु	8508
प्राव	8509
विभाव	8510
##क्ट	8511
##भूष	8512
##सम्म	8513
मूलं	8514
##पत्तेः	8515
निर्या	8516
पार्व	8517
##पुरुषः	8518
नन्व	8519
रघ	8520
रसाय	8521
सत्या	8522
##शब्दा	8523
##ल्म	8524
कर्तव्या	8525
पदस्य	8526
विधिव	8527
विदेशी	8528
एक्स	8529
##सन्त	8530
##यिता	8531
##कला	8532
गृहम्	8533
उत्तरम्	8534
चेष्ट	8535
नवीन	8536
तमः	8537
पीत	8538
सती	8539
##पाय	8540
##मयः	8541
स्वार्थे	8542
कश्चिद्	8543
##ासीत्	8544
आत्मानं	8545
षोडश	8546
तपो	8547
##यन्तु	8548
विराज	8549
##विति	8550
अन्यो	8551
चिरं	8552
##पीठ	8553
वेदा	8554
##जाति	8555
धातोः	8556
ङीष्	8557
दं	8558
शोच	8559
सादृश	8560
##ास्य	8561
##ेभ्यो	8562
##घोष	8563
##॒ः	8564
##प्रभाव	8565
##मुख्य	8566
प्राची	8567
##शब्दो	8568
१९६	8569
अस्यां	8570
ताल	8571
मोद	8572
##यसि	8573
##जायत	8574
विन्द	8575
##दिनं	8576
##मेध	8577
दृष्टा	8578
रुचि	8579
पृथिव्यां	8580
गीत	8581
द्यु	8582
ददौ	8583
फे	8584
श्वः	8585
##कट	8586
##id	8587
##त्रयं	8588
भवन्तु	8589
##ुक्तः	8590
##सिष्ठ	8591
मार्च	8592
निर्मा	8593
वसति	8594
निर्णयः	8595
##वम्	8596
##प्रसिद्ध	8597
एकस्मिन्	8598
कोटि	8599
चिद	8600
कानून	8601
38	8602
un	8603
सद्यः	8604
##नयः	8605
##क्रि	8606
##इति	8607
##्रं	8608
प्रार	8609
##ादा	8610
##ङ्गी	8611
##द्वय	8612
##द्रो	8613
सुखदुःख	8614
उदाहरणम्	8615
चिकित्स	8616
##एससी	8617
09	8618
सीत	8619
##सनं	8620
##यज्ञ	8621
##जार	8622
कुम	8623
##क्राम	8624
##मोक्ष	8625
मिति	8626
##कर्त्त	8627
प्रशिक्षु	8628
दद्यात्	8629
निम्न	8630
36	8631
मतः	8632
रौ	8633
##सङ्क	8634
##oc	8635
प्रभा	8636
##नार्थ	8637
##िकानां	8638
##ादयो	8639
##विवे	8640
परिकल्प	8641
##ाहः	8642
गृहाण	8643
##स्थाय	8644
##our	8645
यत्तु	8646
बहुव्री	8647
विपरीत	8648
अन्तरिक्ष	8649
दारिद्र	8650
यच्छ	8651
##पुः	8652
##ra	8653
##स्थिताः	8654
##गुणा	8655
श्रेय	8656
कुम्भ	8657
##द्वै	8658
कथयामि	8659
कृत्य	8660
##प्रतिषेध	8661
रेल	8662
जानन्ति	8663
##शक्तिः	8664
कल्याण	8665
अन्तिम	8666
आयोज	8667
यस्याः	8668
षड्	8669
ह्या	8670
##गतो	8671
स्वच्छ	8672
##ाती	8673
##ेतं	8674
##ोऽसि	8675
अधिकरण	8676
##र्थाय	8677
शिवः	8678
news	8679
##च्छेदः	8680
न्ह्यः	8681
##ाप्नोति	8682
दाय	8683
ददर्श	8684
##वित्त	8685
##श्चेति	8686
प्रतिषेधः	8687
##स्थिता	8688
चिर	8689
सप्तम	8690
कुर्वन्	8691
प्रिये	8692
पार्श्वे	8693
जन्	8694
शकु	8695
िव	8696
७१	8697
प्रप	8698
##तीव	8699
##ाह्	8700
##व्यति	8701
आत्मनः	8702
बौद्ध	8703
##ात्त	8704
##ंद	8705
##याणां	8706
##ादान	8707
##ाद्वि	8708
परति	8709
##ष्टु	8710
##प्रयत्	8711
सर्वदेव	8712
##राश	8713
##तीनां	8714
##ेतत्	8715
##नुप	8716
उपयु	8717
##द्रु	8718
स्थितं	8719
##व्यापार	8720
सङ्ग्र	8721
लोपः	8722
तत्सर्वं	8723
पित्त	8724
##यता	8725
##क्रिय	8726
##भृत	8727
##गव	8728
##संज्ञा	8729
##ाणाम	8730
श्रम	8731
नियमः	8732
कक्षा	8733
दार	8734
##र्स	8735
##क्ष्ण	8736
##त्र्त	8737
बहूनां	8738
दैत्य	8739
दर्प	8740
##पदेश	8741
##ub	8742
##द्देश	8743
द्वेष	8744
उपसर्ग	8745
द्विधा	8746
अस्माकम्	8747
##गृही	8748
##ant	8749
क्या	8750
##रतः	8751
##्यर्थं	8752
##ुरः	8753
##स्वि	8754
समुच्च	8755
विद्यालये	8756
प्रजायते	8757
##वर्षं	8758
शुभम्	8759
जातम्	8760
करणीयम्	8761
मृत्युः	8762
अयम	8763
इमां	8764
गृ	8765
धर	8766
यन्म	8767
६२	8768
##ारोप	8769
##क्षां	8770
परिकी	8771
##भवे	8772
अवकाश	8773
##ेयुः	8774
भवितव्यम्	8775
ह्रस्व	8776
यायेगु	8777
पलाय	8778
न्यूनतम	8779
year	8780
गताः	8781
जला	8782
##तस्तु	8783
##्यक	8784
राजानं	8785
##पदः	8786
##...	8787
##प्रतिष्ठ	8788
स्पेन	8789
जिज्ञ	8790
##घाट	8791
सङ्कल्प	8792
नष्ट	8793
०६	8794
##िणी	8795
##तिथ	8796
परितः	8797
संवि	8798
संस्थाप	8799
##नेः	8800
काश	8801
देहे	8802
##चनात्	8803
आवाह	8804
पुरात	8805
##मुक्तं	8806
##व्यवहार	8807
प्रातिपद	8808
एनं	8809
चन	8810
##जाल	8811
##हितम्	8812
##न्स	8813
##त्यन्त	8814
##दासी	8815
विश्वस्य	8816
दिवं	8817
वाच्यम्	8818
शक्नो	8819
कूट	8820
##प्रभात	8821
गव	8822
##ुरा	8823
##ैस्तु	8824
विलम्ब	8825
##श्चित्	8826
##ेदः	8827
कार्त	8828
संस्करणे	8829
सुखी	8830
दिवसे	8831
दोषो	8832
इयम्	8833
##चरण	8834
प्राद	8835
सर्वपाप	8836
स्वस्ति	8837
साक्षि	8838
##त्वम	8839
वैद्य	8840
पूर्ववत्	8841
भागं	8842
सिद्धम्	8843
पृथिव्या	8844
verse	8845
नरो	8846
नौक	8847
##सत्	8848
##ादित्य	8849
##ालये	8850
सर्वेषाम	8851
##ीयत	8852
उपलब्ध	8853
##स्यामि	8854
कुटुम्ब	8855
परिपूर्ण	8856
##यितु	8857
##न्यास	8858
37	8859
आहार	8860
दन्त	8861
रोज	8862
सृ	8863
५८	8864
##यतां	8865
##र्ना	8866
पराव	8867
निम	8868
संज्ञा	8869
##दात्म	8870
प्रतिबन्ध	8871
##ान्तु	8872
##त्यादि	8873
तदुप	8874
दिल्ली	8875
##म्बर	8876
##सूच	8877
भूतानां	8878
उद्देश	8879
##ous	8880
साम्प्र	8881
प्रदूषण	8882
sent	8883
गं	8884
जाप	8885
द्यो	8886
६१	8887
##य्य	8888
##तये	8889
##डु	8890
##od	8891
##यात्रा	8892
##ादशी	8893
वाऽ	8894
##संश	8895
##स्थितं	8896
क्रुद्ध	8897
प्राप्ति	8898
##कुश	8899
साधार	8900
##पेक्षा	8901
वदामि	8902
तृतीये	8903
निष्कर्ष	8904
ग्रीष्म	8905
]]	8906
अष्टा	8907
आज	8908
आर्	8909
कट	8910
छः	8911
ताम्	8912
साद	8913
##सिक	8914
##जम्	8915
##िती	8916
##ष्टौ	8917
##निं	8918
##निवास	8919
##रात्रे	8920
इत्यनु	8921
##तोऽपि	8922
##पदस्य	8923
##न्वि	8924
##विकल्प	8925
संसारे	8926
##रूपि	8927
विरासत	8928
धीर	8929
शम	8930
हस्ति	8931
##हिते	8932
##्यया	8933
##यादि	8934
##ान्म	8935
##भवं	8936
##ोक्तम्	8937
चतुर्व	8938
सरल	8939
सङ्घ	8940
औषध	8941
पण	8942
सस्य	8943
##रन्	8944
##तप	8945
##शन	8946
##वतां	8947
##तेऽ	8948
##्वात्	8949
##ापा	8950
##भाषण	8951
शेषं	8952
कारणेन	8953
निर्वाचन	8954
br	8955
कविः	8956
७४	8957
##र्कः	8958
##भागं	8959
कार्यः	8960
श्रुतं	8961
पितॄणां	8962
##स्पति	8963
##ore	8964
##लक्षणम्	8965
##ेष्वपि	8966
##प्रयोगः	8967
45	8968
अग्	8969
चान्य	8970
पाय	8971
६४	8972
##केषु	8973
प्रेत	8974
##माल	8975
##क्षो	8976
##ावस्था	8977
निन्द	8978
स्वरूपं	8979
प्रतिगृह	8980
##ान्तरेण	8981
##भूय	8982
दिशः	8983
##भाषत	8984
कापि	8985
##दीयं	8986
युधिष्ठ	8987
पदोन्न	8988
##गमनं	8989
पश्ये	8990
##नाग	8991
परमे	8992
##ावे	8993
##्येक	8994
एकस्य	8995
##ान्तो	8996
##न्यस्य	8997
##स्माद्	8998
पा०	8999
अतिश	9000
सौभाग्य	9001
कस्यचित्	9002
राक्षस	9003
तिथिः	9004
##क्रीड	9005
छगू	9006
##ाच्च	9007
##महे	9008
प्रभावः	9009
##ेद्य	9010
कार्ये	9011
##ृष्टं	9012
कृति	9013
एतदेव	9014
##चारी	9015
नामः	9016
कार्यान्व	9017
##हाँ	9018
##मासस्य	9019
स्थापना	9020
(),	9021
निवेदन	9022
##लोपः	9023
जाये	9024
भृश	9025
०९	9026
##यतीति	9027
##ितवती	9028
निद्रा	9029
पुरः	9030
वास्तु	9031
##ङ्कः	9032
##ासौ	9033
##प्तिः	9034
तत्स	9035
अपह	9036
बह्व	9037
पुनर्ज	9038
सिन्ध	9039
##विधानं	9040
शक्या	9041
विज्ञानं	9042
##वचनं	9043
##खिलं	9044
जाग्र	9045
वन्य	9046
##फु	9047
##कारणं	9048
महाम	9049
समाचरेत्	9050
पूर्वमेव	9051
प्रजानां	9052
चेन्न	9053
जून	9054
स्रोत	9055
'-	9056
34	9057
>>	9058
शे	9059
श्रि	9060
सत्र	9061
##ामा	9062
##लभ्य	9063
##ादेः	9064
महीयते	9065
एकेन	9066
द्वयोः	9067
योष	9068
##पूर	9069
##स्त्रं	9070
सप्तदश	9071
##सम्प	9072
आगत	9073
##ence	9074
##ानामपि	9075
##सामर्थ	9076
धूम	9077
सर्गः	9078
सर्वभूतानां	9079
गद	9080
तमि	9081
##वित्	9082
##ासे	9083
एकैक	9084
देवान्	9085
समाप	9086
जगाम	9087
उक्तवान्	9088
##निर्माण	9089
त्याग	9090
गमिष्यामि	9091
संवेदना	9092
ह्रीं	9093
41	9094
अकथ	9095
##जनाः	9096
##मासे	9097
महती	9098
किमु	9099
तत्क्षण	9100
##ात्मकं	9101
आह्व	9102
वक्तव्यः	9103
बिभ	9104
##प्राप्ति	9105
तपसा	9106
स्त्रियः	9107
]।	9108
अश्	9109
पत्रं	9110
##मित्र	9111
##ment	9112
##ly	9113
प्रस्त	9114
क्रमात्	9115
बालकाः	9116
क्वचि	9117
##ान्वितः	9118
न्ह्य	9119
##पेक्षया	9120
##योरपि	9121
##विवर्ज	9122
दध	9123
मज	9124
॰।	9125
##जनं	9126
##िताम्	9127
किंच	9128
##ादिभिः	9129
पुत्रा	9130
##कोटि	9131
##and	9132
शोक	9133
मन्यन्ते	9134
[[	9135
अस्	9136
नां	9137
पारि	9138
##ंति	9139
##ताल	9140
##ैर्न	9141
##बाल	9142
##्यतां	9143
सम्मान	9144
##ोपदेश	9145
अभिव्यक्ति	9146
अहम	9147
##प्रत्यक्ष	9148
##प्राप्ते	9149
इन्द्रः	9150
प्रकट	9151
गृह्णाति	9152
##करे	9153
##भर	9154
##ैनं	9155
##बलं	9156
##न्नाः	9157
##माया	9158
परियोजना	9159
अग्निं	9160
इत्युक्त्वा	9161
पश्चिमे	9162
##भिप्राय	9163
पेश	9164
शाप	9165
##ग्य	9166
##्रिक	9167
##माणा	9168
प्रतिपद्यते	9169
##ल्लभ	9170
तदैव	9171
रूपांत	9172
##वर्षस्य	9173
ग्रहणं	9174
परमात्मा	9175
सन्दर्भ	9176
ब्रूहि	9177
चिकित्सा	9178
डी	9179
तस्मि	9180
दशा	9181
वल	9182
##छे	9183
##ैस्त	9184
##ज्यो	9185
##२१	9186
##स्तः	9187
संदे	9188
अपश्य	9189
##देवः	9190
##मुखः	9191
अध्यय	9192
कौन्ते	9193
tags	9194
अफ	9195
इय	9196
एतं	9197
वनं	9198
हवि	9199
##टेन	9200
##ृतिः	9201
##ैर्वि	9202
##जय	9203
##जस्य	9204
##बुध	9205
समाग	9206
एतच्च	9207
##ब्दे	9208
##धिका	9209
ब्रुव	9210
प्राप्नो	9211
चित्रं	9212
गौरव	9213
ऽहं	9214
९०	9215
##काव	9216
##मध	9217
##्वल	9218
द्विव	9219
क्षणे	9220
##र्यस्य	9221
समाहितः	9222
तत्रा	9223
निर्दिष्ट	9224
भगवतः	9225
##वत्त	9226
##वक्ष्यामि	9227
##ोच्यते	9228
##मै	9229
##क्षया	9230
##विनाश	9231
संनि	9232
सुभ	9233
##स्थां	9234
##सीति	9235
स्यात्त	9236
##पुन	9237
##राजस्य	9238
जातो	9239
##णामः	9240
##संस्कृत	9241
पुरस्कार	9242
अनेके	9243
44	9244
आचर	9245
वरुण	9246
##ल्यं	9247
##श्वा	9248
##्यार्थ	9249
##ृतो	9250
समाना	9251
##ष्ठे	9252
कृपा	9253
##चार्य	9254
भावना	9255
पृष्ठे	9256
##परिष	9257
##कर्मणि	9258
गतवान्	9259
शक्यम्	9260
सैनिक	9261
हिंस	9262
स्वभावतः	9263
कद	9264
घर	9265
टै	9266
पान	9267
सोप	9268
०७	9269
##सेत्	9270
##य्त	9271
##ख्यां	9272
##बह	9273
##10	9274
विपु	9275
##माध्य	9276
##येगु	9277
एकमेव	9278
मुञ्च	9279
वर्षं	9280
जननी	9281
पितॄ	9282
शुभे	9283
रिपो	9284
##ित्याह	9285
दीर्घः	9286
शक्नुवन्ति	9287
पूँजी	9288
गर्व	9289
पाहि	9290
##ऽन	9291
प्रकृते	9292
##स्यसि	9293
सुप्त	9294
प्राप्तम्	9295
##कम्प	9296
विद्यालय	9297
कुर्वन्तु	9298
जन्मनि	9299
##ादीनि	9300
श्रवण	9301
अर्थे	9302
औष	9303
कस्यापि	9304
##ाभाव	9305
##जाप	9306
प्रकीर्त	9307
##न्तरि	9308
##प्रस	9309
सर्वतो	9310
##ज्ञया	9311
##ेत्यादि	9312
कारक	9313
महास	9314
##मुद्र	9315
व्यय	9316
ग्रन्	9317
उपयोगी	9318
हिन्दी	9319
प्रयुज्यते	9320
पदोन्नति	9321
पयो	9322
##ूगु	9323
##ातः	9324
##वर्ध	9325
##भुव	9326
##ोर्	9327
##जन्य	9328
##त्रेण	9329
निर्ज	9330
सर्वकाम	9331
##नोप	9332
एतौ	9333
##ख्यातं	9334
##षेधे	9335
चात्र	9336
वक्तव्यं	9337
विजान	9338
सन्धि	9339
शक्नुमः	9340
इष्यते	9341
६८	9342
७६	9343
##टिक	9344
##केश	9345
##ण्व	9346
##भ्यते	9347
##स्ततो	9348
##विन्द	9349
##प्रदान	9350
समूह	9351
सुलभ	9352
##र्धा	9353
वृथा	9354
##ग्रहणे	9355
गच्छामि	9356
गतौ	9357
39	9358
कफ	9359
लं	9360
वयम	9361
##टल	9362
##रैः	9363
##देन	9364
विद्धि	9365
##प्रकृति	9366
##दास	9367
##दाता	9368
##नेक	9369
सुप्रभात	9370
##संस्था	9371
##तीः	9372
गच्छन्ति	9373
अत्यन्तं	9374
अन्वेष	9375
सम्पादन	9376
छा	9377
दये	9378
०००	9379
##दुप	9380
##मल	9381
##इन	9382
##ie	9383
##क्थ	9384
##नामा	9385
##ुरिति	9386
सूक्त	9387
गुज	9388
देयं	9389
नगरस्य	9390
पुस्तके	9391
##ष्यामः	9392
मनुष्याणां	9393
आदेशः	9394
आदौ	9395
वश	9396
##सन्नि	9397
##मन्	9398
##गच्छति	9399
परस्य	9400
पुमान्	9401
संपाद	9402
भवतो	9403
सूर्या	9404
तत्सम	9405
साधनं	9406
आगत्य	9407
आगतः	9408
वाचं	9409
सरकारं	9410
त्वाम्	9411
पर्यन्तं	9412
अभी	9413
स्रो	9414
##संस्कार	9415
##लेखः	9416
श्रद्धा	9417
प्राणिनां	9418
अ०	9419
न्त	9420
बाण	9421
भेष	9422
वर्	9423
##ुच्यते	9424
##श्री	9425
##वश्य	9426
संग्राम	9427
तदर्थं	9428
##युक्ते	9429
##त्पत्ति	9430
सहस्राणि	9431
##क्ष्मी	9432
करुणा	9433
अलं	9434
ग्ल	9435
चाय	9436
##सरे	9437
##नक	9438
##ैते	9439
##ht	9440
##ip	9441
राजनीति	9442
मुदा	9443
##ञ्चि	9444
##त्वाद्	9445
व्याव	9446
प्रवाह	9447
##ानुकूल	9448
##म्बु	9449
अहिं	9450
यज्ञं	9451
2016	9452
सरस्व	9453
कल्पना	9454
तत्त्वं	9455
विस्तरेण	9456
सम्प्रसार	9457
चोद	9458
जितः	9459
मनी	9460
##ाङ्ग	9461
##णौ	9462
##नाभि	9463
##प्रश	9464
संयोज	9465
वाताव	9466
प्राथम	9467
भाष्य	9468
शब्दे	9469
त्रय	9470
१९३	9471
जुया	9472
जुहो	9473
सौम्य	9474
शुभं	9475
पादौ	9476
##कूगु	9477
इहा	9478
ययय	9479
शर्म	9480
९१	9481
##वते	9482
##कत	9483
##ामे	9484
सर्वः	9485
यथाक्रमम्	9486
द्वीप	9487
##स्यास्य	9488
माघ	9489
##स्मरण	9490
कालि	9491
विधेय	9492
प्रियः	9493
वय्कलं	9494
##त्सर्वं	9495
48	9496
कस्मात्	9497
ध्याय	9498
भया	9499
##वेन	9500
संहिता	9501
##द्धा	9502
मुच्यते	9503
ज्ञेयं	9504
##प्ल	9505
प्राप्तिः	9506
साक्षात्कार	9507
सदस्यः	9508
धार्मिक	9509
ऋषि	9510
केत	9511
पथि	9512
##ँय्	9513
##यात्म	9514
संपूर्ण	9515
##दिष्टं	9516
##ासो	9517
तुम्	9518
उपचार	9519
##सीं	9520
##्योः	9521
रुच	9522
##०००	9523
अक्षर	9524
प्रायश्चित्त	9525
जायन्ते	9526
अग्न	9527
वाव	9528
वरु	9529
ऽयं	9530
९५	9531
##पुरु	9532
##सन्द	9533
##ीण	9534
##पिण्ड	9535
स्वस्थ	9536
##ापृ	9537
##रिया	9538
कुर्मः	9539
गुप्त	9540
प्रत्ययो	9541
##क्षिप्त	9542
भा०	9543
समाप्तम्	9544
खल्व	9545
कोरोना	9546
as	9547
थौं	9548
धइगु	9549
मतिः	9550
##धू	9551
##ver	9552
##निरूप	9553
महाव	9554
##ान्तर्ग	9555
##क्रो	9556
तत्काल	9557
##श्ल	9558
##पुनः	9559
##सारं	9560
पृष्ठानां	9561
इत्युक्तम्	9562
शासन	9563
##पदार्थ	9564
ab	9565
अर्हति	9566
उष्ण	9567
कर्ष	9568
करुण	9569
त०	9570
वरः	9571
वारं	9572
वारि	9573
हत्वा	9574
८४	9575
##दै	9576
##कत्वं	9577
प्रौ	9578
प्रज्ञा	9579
विहित	9580
##क्ष्यते	9581
##रात्रं	9582
##तीय	9583
##ोऽनु	9584
##क्रोध	9585
##क्षणः	9586
शिरः	9587
लिखितानां	9588
स्वर्गं	9589
##र्द्धं	9590
मण्डल	9591
संस्थिता	9592
प्रजापति	9593
).	9594
कम्	9595
ताद	9596
मत्वा	9597
##ेता	9598
##खल	9599
##18	9600
##त्वि	9601
##द्रं	9602
प्रथमो	9603
##पार्श	9604
पञ्चदश	9605
मूर्त	9606
##ड़ा	9607
परमेश्वरः	9608
क्षिप्र	9609
1अ	9610
औसत	9611
करव	9612
##वय	9613
##धुं	9614
##निवार	9615
##ङ्क्ते	9616
##ानिति	9617
##नेति	9618
साङ्	9619
##त्वस्य	9620
##्याःगु	9621
##प्रतिपाद	9622
पठन्ति	9623
आगच्छति	9624
##ध्याये	9625
##ुमर्हसि	9626
सम्यग्	9627
live	9628
अज्ञान	9629
घृत	9630
वसिष्ठ	9631
##लाष	9632
##धेन	9633
##ऽत्र	9634
##क्षत	9635
##ालयः	9636
##निष्	9637
##ब्धा	9638
##द्रव्य	9639
##युग	9640
विशेषणम्	9641
फलानि	9642
##वर्त्त	9643
मूल्यं	9644
मार्गः	9645
कमल	9646
ज्योतिः	9647
द्रष्टव्यम्	9648
##शाली	9649
##स्थितिः	9650
सार्धं	9651
##श्मीर	9652
जन्त	9653
हू	9654
हार	9655
##ल्यू	9656
##ऽस्मिन्	9657
विमुक्त	9658
##स्ट्	9659
##ुरोध	9660
##ान्ता	9661
बहवो	9662
##ख्यानं	9663
##ग्निः	9664
उभे	9665
वाक्ये	9666
आदित्य	9667
अथातः	9668
आचार्य	9669
42	9670
अर्थं	9671
आशि	9672
##ितया	9673
##िकस्य	9674
##त्यते	9675
##ायेत	9676
नियुक्त	9677
प्रतिकूल	9678
##ाण्य	9679
##त्साह	9680
तिल	9681
##विधः	9682
ताड	9683
प्रसिद्धः	9684
लक्षणम्	9685
स्तुति	9686
जीर्ण	9687
जित	9688
नच	9689
नरे	9690
६७	9691
##परो	9692
##दति	9693
##हानि	9694
##ew	9695
##ानव	9696
भविता	9697
स्नि	9698
##मुद्	9699
##न्यत्र	9700
मुनी	9701
स्त्र	9702
##न्मुक्त	9703
##पूर्वकं	9704
किमर्थम्	9705
तत्त्वतः	9706
थःगु	9707
अर्	9708
प्रबन्ध	9709
##ादय	9710
##प्रदेशे	9711
##योप	9712
उपास	9713
किलो	9714
##ोपा	9715
##दृश्यते	9716
##गोल	9717
सूत्रेण	9718
इतिहासः	9719
पितामह	9720
सनातनः	9721
चतुः	9722
पता	9723
म्रियते	9724
सर्	9725
स्यु	9726
६६	9727
८६	9728
##रथ	9729
##मनं	9730
##धीन	9731
##est	9732
प्रदेशः	9733
##निवेश	9734
##च्छे	9735
##भवेत्	9736
##रीत्या	9737
अपरं	9738
##स्वरूपं	9739
##धिकारः	9740
करोतुः	9741
जीवित	9742
दशम	9743
शाख	9744
ज्ञानम्	9745
प्रोक्तो	9746
प्रणाली	9747
##पद्यत	9748
वाणिज्य	9749
उगु	9750
उचित	9751
जर्म	9752
जातु	9753
तज्	9754
धना	9755
भयम्	9756
मातु	9757
रथं	9758
##सितं	9759
##सर्ज	9760
##दव	9761
##तरः	9762
##विज	9763
##प्रण	9764
साक्षा	9765
व्याधि	9766
क्रय	9767
दूरं	9768
विधे	9769
##ड्ड	9770
##वृद्धि	9771
अत्यधिक	9772
अभय	9773
दूरभाष	9774
चत्वारः	9775
कन्यां	9776
परिसन्धिं	9777
रूपांतरण	9778
अचि	9779
झी	9780
नन्द	9781
यि	9782
##करि	9783
##चु	9784
##मत्र	9785
##ऽस्ति	9786
##स्ने	9787
##तात्	9788
##ुरं	9789
कुण्ड	9790
सूत	9791
विद्यां	9792
अथो	9793
अवलोक	9794
यत्न	9795
स्वात्म	9796
समुद	9797
सूर्यस्य	9798
नृपः	9799
नीच	9800
धारणा	9801
परमार्थ	9802
शैली	9803
शक्यः	9804
अगस्त	9805
vii	9806
निवर्तते	9807
भर्ती	9808
ध्यात्वा	9809
ऊर्ध्व	9810
मृदु	9811
फोटो	9812
##वानां	9813
##वंश	9814
##ud	9815
##माणः	9816
##क्षम	9817
##क्षये	9818
##ेनं	9819
परतः	9820
##ज्ञाः	9821
##गुणः	9822
##भ्यन्तरे	9823
कर्तु	9824
##ित्रं	9825
##पदेन	9826
इत्यादौ	9827
अन्तर्ज	9828
हेम	9829
##ञ्जीत	9830
जुयाः	9831
पृथिवीं	9832
विकल्पः	9833
##नगरे	9834
संबन्धः	9835
कवच	9836
खं	9837
पर्ज	9838
मस्त	9839
सैव	9840
##पद्	9841
##वाणी	9842
##चितः	9843
##है	9844
##प्रवृत्त	9845
सर्वश्रेष्ठ	9846
वास्त	9847
##ेश्च	9848
प्रतिभा	9849
##ोऽप्य	9850
स्थूल	9851
##दीनि	9852
##न्याया	9853
विद्यार्थ	9854
##म्यहम्	9855
##ory	9856
विभक्तिः	9857
मातुः	9858
परम्परा	9859
read	9860
आरम्भ	9861
sa	9862
धनम्	9863
##णीय	9864
##गौ	9865
##20	9866
##तिश	9867
##क्षाः	9868
काराग	9869
उपकरण	9870
पाश	9871
यत्नतः	9872
##दानीं	9873
##विधौ	9874
मितिः	9875
##ादेशे	9876
##बीज	9877
न्यायालय	9878
आया	9879
एति	9880
कॉ	9881
पप्र	9882
मणि	9883
०८	9884
८१	9885
##राम	9886
##पां	9887
##og	9888
सुतः	9889
सुषु	9890
##ल्ला	9891
प्राकृत	9892
गुह्य	9893
प्रत्यये	9894
##राजः	9895
(.	9896
आगम	9897
सरो	9898
##पनं	9899
##वस्य	9900
##थी	9901
##ितमस्ति	9902
##त्तरं	9903
##ातं	9904
##संभवः	9905
महता	9906
मुमु	9907
पुत्री	9908
निर्देशः	9909
अतिथि	9910
रिश्त	9911
विभागः	9912
##शासन	9913
##पुत्रः	9914
##च्यन्ते	9915
प्रयच्छति	9916
पद्म	9917
up	9918
वेश	9919
शता	9920
##रता	9921
##ृष	9922
##िनं	9923
##त्यो	9924
##ाःगु	9925
##संयोग	9926
क्षय	9927
स्थिताः	9928
मुनिः	9929
##र्धं	9930
सप्तमी	9931
विद्यालयं	9932
भ्राता	9933
यथे	9934
पुनराव	9935
नृणां	9936
नित्यम्	9937
##स्त्वया	9938
अष्टादश	9939
##व्रत	9940
पयः	9941
पक्षः	9942
वत्	9943
##शौ	9944
##जना	9945
##ks	9946
##विना	9947
##रेत	9948
किय	9949
कथां	9950
##लिया	9951
##सिद्धिः	9952
##ग्निं	9953
##द्विष	9954
शास्त्रं	9955
ज्याझ	9956
त्रयोदश	9957
उच्चारणः	9958
मारु	9959
यन्	9960
सकाश	9961
##िष्ठ	9962
पूर्	9963
##त्याह	9964
##ञ्चित्	9965
##भूषण	9966
##भाषया	9967
दिवः	9968
योगः	9969
वेदित	9970
जानासि	9971
----	9972
छात्रः	9973
##घातः	9974
कार्यान्वयन	9975
46	9976
गग	9977
दल	9978
##ृज्य	9979
##गुर	9980
##्यानि	9981
प्रदेशे	9982
##ाव्	9983
##ावः	9984
वासु	9985
राज्ञा	9986
##ज्ञं	9987
राजनी	9988
##देः	9989
निर्माणं	9990
सीमा	9991
कविता	9992
प्रतियोगिता	9993
##सम्बद्ध	9994
##त्थाय	9995
55	9996
गतिं	9997
तस्मिन्न	9998
सतां	9999
६९	10000
##ृद्धि	10001
##नार	10002
##वीं	10003
##णात्	10004
##pal	10005
##ओं	10006
विरु	10007
स्थानि	10008
नाथ	10009
पाक	10010
सिद्धान्त	10011
##र्घट	10012
जुलाई	10013
नियन्त्र	10014
दाता	10015
०२०	10016
वैश्वान	10017
तात्पर्य	10018
अदृष्ट	10019
फ्र	10020
मतं	10021
हत	10022
##ैन	10023
##मस	10024
##sपि	10025
##line	10026
##त्तमः	10027
संसर्ग	10028
समर्थः	10029
##िंग	10030
त्वत्	10031
##ृष्टः	10032
सूत्रं	10033
सूची	10034
प्रामाण	10035
अहमेव	10036
नेता	10037
##शीर्ष	10038
मतदान	10039
प्रयुक्तम्	10040
परिकीर्त	10041
you	10042
इमा	10043
उष	10044
सन्तः	10045
##सने	10046
##मर्थ	10047
प्रणि	10048
##क्षय	10049
##द्भि	10050
निबोध	10051
##मिश्र	10052
विशुद्ध	10053
##केगु	10054
तदन्त	10055
##स्वर	10056
काचित्	10057
##ित्वात्	10058
##vious	10059
49	10060
47	10061
वर्द्ध	10062
शान	10063
७२	10064
##रहित	10065
##कत्वेन	10066
प्रसीद	10067
##स्तात्	10068
संरक्ष	10069
स्वाय	10070
स्थित्वा	10071
##ञ्चन	10072
एतेषु	10073
रेफ	10074
बाहु	10075
##मार्गे	10076
सिंहः	10077
दुर्लभं	10078
इन्द्रिया	10079
विश्वविद्यालय	10080
अत्या	10081
औपचारिक	10082
शोष	10083
८९	10084
##करा	10085
##कत्वात्	10086
##ैर्म	10087
##त्मानं	10088
##दिवस	10089
अपराध	10090
भूयो	10091
व्याप्त	10092
##प्नोति	10093
काष्ठ	10094
##पातः	10095
अत्रापि	10096
##देक	10097
भविष्यसि	10098
उत्था	10099
##ard	10100
सहस्रं	10101
कुरुत	10102
विज्ञायते	10103
ज्ञातुं	10104
लाभः	10105
##तीत्यर्थः	10106
परित्यज्य	10107
##ापृथिव	10108
60	10109
अस्त्र	10110
आग्ने	10111
घात	10112
द्याव	10113
धाम	10114
शश	10115
सखि	10116
६३	10117
##खो	10118
##स्तथैव	10119
##स्कर	10120
द्वै	10121
##मुत्स	10122
उपयुक्त	10123
##क्षणिक	10124
प्रत्यहं	10125
पुनरु	10126
अन्तारा	10127
##ष्णु	10128
##ज्जीव	10129
पूर्णं	10130
##भ्यास	10131
##वार्त	10132
ध्वज	10133
##्राज्य	10134
सागर	10135
ग्रीष्	10136
भीम	10137
##पद्ध	10138
##तायां	10139
##मप्य	10140
##मायु	10141
##मिद	10142
##येद	10143
अध्व	10144
एके	10145
कुत्रापि	10146
परिश्र	10147
विदूष	10148
२०६	10149
##वर्षाणि	10150
##हेतुः	10151
##शक्त्या	10152
##लक्षणा	10153
कश्चिद	10154
कीदृशं	10155
कीदृशः	10156
##तय्सं	10157
##मुत्तमम्	10158
##पट	10159
##पश्य	10160
##ीयाः	10161
##ङः	10162
##तिथि	10163
##स्ताः	10164
##प्रसाद	10165
प्रतिभाति	10166
##तुम्	10167
जीवने	10168
सोमः	10169
##ers	10170
##धारणा	10171
चतुर्वि	10172
जुइगु	10173
रात्रिः	10174
भाई	10175
##ानुसारेण	10176
am	10177
इका	10178
खने	10179
ख्री	10180
तय	10181
दस	10182
दय	10183
ददृश	10184
##पेत्	10185
##मृत	10186
##ast	10187
##ail	10188
##विश्य	10189
##त्तो	10190
कोवि	10191
१९१	10192
कलौ	10193
मित्राणि	10194
यथैव	10195
वचनम्	10196
##ित्यादि	10197
स्मृतिः	10198
सृष्टि	10199
स्मृताः	10200
अले	10201
गान्	10202
गवां	10203
मान्य	10204
##ाश्र	10205
##०२	10206
प्रकर्ष	10207
##त्रय	10208
##ायोग	10209
##निर्मा	10210
##संहिता	10211
आसान	10212
प्राणः	10213
##राज्ये	10214
प्राप्नु	10215
विभो	10216
व्रतं	10217
##घ्नं	10218
all	10219
श्रृणु	10220
आशा	10221
इन	10222
##जन्त	10223
##ानस्य	10224
हिन्दु	10225
तेजो	10226
मार्	10227
स्थल	10228
कृत्रि	10229
पृच्छति	10230
##प्लव	10231
पुनश्च	10232
##श्मि	10233
द्रव्यं	10234
रूपाणि	10235
रुद	10236
दोषा	10237
##स्थानानि	10238
यजमान	10239
##ड़े	10240
समर्थन	10241
हंस	10242
वार्ता	10243
सावधान	10244
नाट्य	10245
',	10246
ag	10247
my	10248
अः	10249
अरु	10250
कस्या	10251
करणं	10252
नभ	10253
सॊ	10254
७९	10255
##ंद्र	10256
##िभिः	10257
##िणः	10258
##लना	10259
##नैव	10260
##ग्वि	10261
##ानपि	10262
प्रत	10263
##यात्र	10264
##ादं	10265
प्रतिज्ञा	10266
सुम	10267
हिम	10268
##रूपम्	10269
##लोच	10270
यत्कि	10271
बालः	10272
राष्ट्रं	10273
सूर्यो	10274
गणना	10275
##वचने	10276
##धिकरणे	10277
##ब्राह्मण	10278
क्वापि	10279
ऋग्व	10280
करी	10281
तमा	10282
दाह	10283
नैत	10284
##शस्त्र	10285
##ध्र	10286
##ies	10287
##क्ष्या	10288
##क्षितः	10289
निशा	10290
##निवृत्त	10291
स्वस्व	10292
तुष्ट	10293
योनि	10294
परिष्	10295
देशकाल	10296
पुत्रस्य	10297
##प्रिय	10298
आवश्यक	10299
अभिप्राय	10300
स्नात्वा	10301
ऊँ	10302
तट	10303
रिति	10304
##सत्य	10305
##चौ	10306
##जने	10307
##ain	10308
##तेि	10309
परां	10310
एकल	10311
व्यप	10312
##र्यो	10313
तदर्थ	10314
भूत्	10315
प्रत्यक्षं	10316
लोकाः	10317
कोट	10318
##कुमार	10319
स्थानम्	10320
प्रोक्तः	10321
##पृथ	10322
##भ्रम	10323
समूहः	10324
समन्ततः	10325
51	10326
अल्	10327
अम्ब	10328
अस्प	10329
घृ	10330
बर	10331
मद्य	10332
राय	10333
##शता	10334
##हनि	10335
##ठा	10336
##न्त्व	10337
##ृताः	10338
##राशि	10339
##ीयतां	10340
मुम्ब	10341
समाधि	10342
##पूज्य	10343
दक्षिणां	10344
कुर्वीत	10345
##गृहीत	10346
यज्ञे	10347
2015	10348
कुशल	10349
यूपी	10350
अमु	10351
गतं	10352
वृह	10353
प्रपञ्च	10354
स्नात	10355
##संग	10356
##ेण्	10357
##ग्म	10358
वैशिष्ट	10359
मुस्	10360
वर्षाः	10361
##प्लु	10362
वृक्षः	10363
जनता	10364
विषया	10365
##वेः	10366
##म्बर्	10367
##सम्भवः	10368
आवां	10369
वेदना	10370
जलम्	10371
उद्घाट	10372
अनिवार	10373
##ैश्वर्य	10374
अज्ञात	10375
लम्ब	10376
##तरे	10377
##नोऽ	10378
##षट्	10379
##कोप	10380
##cd	10381
##त्रः	10382
##ावली	10383
समरे	10384
##कारा	10385
प्रतिमा	10386
सुरा	10387
उपदेश	10388
क्षिति	10389
स्थितो	10390
##च्चि	10391
अन्येषां	10392
##न्द्रः	10393
##यिष्य	10394
सत्यम्	10395
प्राप्नुवन्ति	10396
मासि	10397
भिक्षु	10398
शक्तिं	10399
स्मृता	10400
##सामान्य	10401
स्फुर	10402
##चेष्ट	10403
कृत्स्	10404
आपो	10405
दारु	10406
भास	10407
लः	10408
शार	10409
##काण्ड	10410
##धारा	10411
##ॊप	10412
निषिद्ध	10413
##मिमं	10414
भवं	10415
एकत्र	10416
##ुवे	10417
श्रुतेः	10418
घटः	10419
तृतीयं	10420
लिङ्गं	10421
अभ्यास	10422
संवत्सरे	10423
कृष्णः	10424
qu	10425
नैक	10426
रं	10427
रोद	10428
ह्यः	10429
##नेषु	10430
##हरे	10431
##मन्व	10432
##pe	10433
प्रभव	10434
##माच	10435
##क्ष्व	10436
##क्षणम्	10437
दिक्	10438
दिष्ट	10439
##ान्यपि	10440
अन्तर्	10441
पृथ्वी	10442
शब्देन	10443
##त्पन्न	10444
##षिध्यते	10445
##art	10446
पाठ्य	10447
ह्य्	10448
तमस्य	10449
इदम	10450
बोधि	10451
पित्रा	10452
अक्	10453
अर्ह	10454
तमो	10455
ब्व	10456
भस्म	10457
यत्स	10458
हविष	10459
७३	10460
##रेषु	10461
##ia	10462
##ितवन्तः	10463
प्रधानं	10464
विप्रति	10465
##ामपि	10466
स्वयम	10467
##ान्स	10468
देवतानां	10469
##क्रमं	10470
समाश्र	10471
एतस्मिन्	10472
अनुम	10473
##चिन्त्य	10474
ब्रवी	10475
भावे	10476
##ुमर्हति	10477
स्वर्गे	10478
##age	10479
##ame	10480
विसर्ज	10481
more	10482
अन्नं	10483
चक्षुः	10484
त्त	10485
दाव	10486
##शाः	10487
##गन्त	10488
##डं	10489
##क्स्	10490
सम्व	10491
##त्वमेव	10492
शुल्	10493
##ग्रहे	10494
कीर्ति	10495
##ary	10496
##िकीर्ष	10497
सन्ध्या	10498
ऊर्जा	10499
आरम्भः	10500
कन्	10501
नश्यति	10502
पत्	10503
सवर्ण	10504
हित्वा	10505
##णीं	10506
##चिव	10507
##ेद्	10508
सुग्रीव	10509
##ान्तरा	10510
##ृष्टा	10511
##साधारण	10512
##धिपः	10513
##र्ध्व	10514
भ्रष्टा	10515
##दाहरण	10516
महाबलः	10517
आरक्षण	10518
विज्ञे	10519
विज्ञाप	10520
##मार्गः	10521
##मार्गेण	10522
इतरे	10523
समाप्तः	10524
वित्तं	10525
व्रजेत्	10526
सातवां	10527
आश्चर्य	10528
खाद्य	10529
चिं	10530
द्यू	10531
##तथ	10532
##कव	10533
##डो	10534
##योर्मध्ये	10535
##राच	10536
##येत्त	10537
समवाय	10538
##ुरी	10539
हिरण	10540
##च्छाद	10541
तथाच	10542
##श्नुते	10543
कर्मणः	10544
शिशु	10545
##परिणाम	10546
मांस	10547
ततस्त	10548
हेतुना	10549
##द्भुत	10550
##िनौ	10551
भूमिः	10552
trans	10553
बहुव्रीह	10554
43	10555
जने	10556
हतः	10557
##यत्य	10558
##यन्तः	10559
##शै	10560
##णम	10561
##ह्वा	10562
##्यान	10563
##्यता	10564
पुरं	10565
वाजि	10566
##ज्ञाना	10567
श्रे	10568
कुत्स	10569
मेल	10570
##न्येन	10571
नाति	10572
##ुपा	10573
##ुपरि	10574
##पूर्ति	10575
श्रुतम्	10576
नेत्रे	10577
निश्चयः	10578
दण्डः	10579
ऊर्ध्वं	10580
##माप्नोति	10581
साहाय्यं	10582
wh	10583
अब	10584
अरि	10585
गां	10586
नाद	10587
सकृ	10588
८८	10589
९७	10590
##सञ्	10591
##न्याय	10592
##चाः	10593
##12	10594
##नायां	10595
निं	10596
निशि	10597
##ुरो	10598
तेजः	10599
पुत्राः	10600
शुद्धं	10601
##महोद	10602
##खें	10603
प्रोवाच	10604
##मिच्छामि	10605
गन्तुं	10606
परमाणु	10607
रहस्यं	10608
सम्भाषणम्	10609
परामर्श	10610
previous	10611
द्यावापृथिव	10612
not	10613
अरण	10614
दत्वा	10615
नाह	10616
ब्ल	10617
मर्या	10618
षण्	10619
##ूः	10620
##छि	10621
##न्यां	10622
##चुः	10623
##हते	10624
सर्वां	10625
##ापर	10626
अपितु	10627
##लिम	10628
##स्थाः	10629
शुचि	10630
कार्यो	10631
रिपु	10632
##दूष	10633
वसन्त	10634
विष्णुः	10635
सङ्गीत	10636
नारद	10637
ब्रह्माण्ड	10638
तृण	10639
पञ्ज	10640
वाल	10641
##सकं	10642
##लाल	10643
##नन्त	10644
##भया	10645
##ितान्	10646
तथाहि	10647
##ुवः	10648
##ानुष्ठ	10649
क्रमा	10650
भगिनी	10651
साध्या	10652
##मुखे	10653
पृथिव्याः	10654
मुखे	10655
##हीनं	10656
धीमतः	10657
##ight	10658
रत्न	10659
महत्त्वपूर्ण	10660
कौन्तेय	10661
अभूत्	10662
इवा	10663
एच	10664
तरु	10665
तस्मान्	10666
धरण	10667
नया	10668
रङ्ग	10669
७७	10670
##ताय	10671
##आं	10672
##तिर	10673
##नाप	10674
भवत	10675
कुले	10676
##ग्रा	10677
##ग्रहं	10678
समासः	10679
##लाघ	10680
अधिकारः	10681
##बन्धः	10682
क्रमः	10683
##जनानां	10684
##स्रः	10685
रेख	10686
राष्ट्रस्य	10687
होवाच	10688
अध्ययनं	10689
केनचित्	10690
अन्वेषण	10691
पप्रच्छ	10692
आक्रम	10693
इ॒	10694
कात	10695
सफलं	10696
##जां	10697
##हन्ति	10698
##ऽभि	10699
प्रयत	10700
##नाह	10701
निगम	10702
संत	10703
संवेदन	10704
##ेदे	10705
##व्यमिति	10706
##द्वे	10707
बहू	10708
##युक्ता	10709
##ोक्ता	10710
विवरण	10711
##मुखी	10712
वृत्तं	10713
होम	10714
सहस्रशः	10715
गणित	10716
##भेदा	10717
कतिपय	10718
वहति	10719
मन्त्री	10720
सांस्	10721
##पितृ	10722
तूं	10723
##सृत्य	10724
##ाट	10725
##लम	10726
##लाम	10727
##षम्	10728
##ऽथ	10729
निरु	10730
निरोध	10731
##ेषः	10732
भवितुं	10733
वाहन	10734
स्वप	10735
##ासन	10736
प्रतिप	10737
त्वि	10738
##ान्तिक	10739
विशाल	10740
सूक्ष्	10741
मुद्	10742
तदेत	10743
##स्वप्	10744
शिल्प	10745
देहं	10746
पितरं	10747
##कर्तृ	10748
2014	10749
शेषे	10750
मातरं	10751
निश्चित	10752
तद्वत्	10753
प्रमाणम्	10754
शैक्षिक	10755
मनुष्यः	10756
परमेश्वर	10757
online	10758
##own	10759
ऐति	10760
जल्प	10761
##शान	10762
##ha	10763
प्रख्या	10764
##विल	10765
##ालयं	10766
##कारणम्	10767
##र्षं	10768
हिरण्य	10769
##ोऽत्र	10770
श्रेयः	10771
##द्वये	10772
##विषया	10773
पितु	10774
सिद्धं	10775
आसन	10776
आसपास	10777
##माःगु	10778
उभयोः	10779
ग्रहण	10780
साक्षी	10781
##मूर्त	10782
nepal	10783
युवां	10784
उत्साह	10785
##भिप्रायः	10786
संस्थाप्य	10787
श्रेणीः	10788
राजधानी	10789
कस्मा	10790
मित	10791
यमः	10792
यदी	10793
षष्ट	10794
##ist	10795
##घं	10796
##मासी	10797
##मादाय	10798
##स्तम्	10799
परमो	10800
##र्थक	10801
स्वय	10802
समे	10803
इत्येते	10804
##कामा	10805
सहस्त्र	10806
समावेश	10807
स्तुव	10808
दुर्व	10809
##पूजा	10810
कार्यकारण	10811
स्वागतं	10812
##ज्ञाने	10813
जाते	10814
परीणामः	10815
##फलम्	10816
##शोभ	10817
युक्तम्	10818
लेखकः	10819
##शास्त्रं	10820
वृक्षाः	10821
वयसि	10822
##परीक्षा	10823
उन्नत	10824
मर्त्य	10825
संशोधन	10826
ऐश्व	10827
ओष	10828
चोर	10829
८७	10830
८५	10831
##सर्प	10832
##वस्त	10833
##ढं	10834
##तिम्	10835
##म्ना	10836
प्रकृत्य	10837
पुरी	10838
सुविधा	10839
सुहृद	10840
##ष्ठी	10841
##साधार	10842
दिनं	10843
स्मार	10844
##क्षिप्य	10845
##ह्ने	10846
##युतं	10847
धर्मेण	10848
क्वि	10849
##वासरे	10850
प्रतीक्ष	10851
##शास्त्रे	10852
##ित्वेन	10853
भूमिं	10854
मन्यसे	10855
योगदानानि	10856
वैज्ञानिक	10857
घु	10858
द्य	10859
पते	10860
##ह्र	10861
##हरं	10862
##बः	10863
##rit	10864
##डाग	10865
##्वो	10866
प्रग	10867
##क्ख	10868
##ाद्र	10869
##प्री	10870
सर्वज्ञ	10871
भवत्येव	10872
कुप	10873
##द्वीप	10874
व्यभि	10875
कर्तरि	10876
भाष्यम्	10877
##दीर	10878
मनसः	10879
##कुम	10880
ज्ञानेन	10881
वाच्य	10882
##वासी	10883
प्रणम्य	10884
प्रकृतिं	10885
##प्रियः	10886
अव्यय	10887
स्तोत्र	10888
वक्ष्ये	10889
विरोधः	10890
शङ्ख	10891
con	10892
अमा	10893
दधि	10894
भीत	10895
मानं	10896
यष्ट	10897
##शत्र	10898
##काणां	10899
##भृ	10900
##महि	10901
##गामि	10902
संवाद	10903
##र्तते	10904
अनित्य	10905
##मेः	10906
देवेश	10907
##स्माभिः	10908
##वाचक	10909
करने	10910
##ब्रुव	10911
तावद्	10912
##डियो	10913
##जीवि	10914
ग्रामे	10915
##स्थितौ	10916
##नगर	10917
नमस्	10918
##क्लेश	10919
मधुरं	10920
प्रभाते	10921
fr	10922
इत्थ	10923
बद	10924
भासते	10925
यक्ष	10926
९३	10927
##मद	10928
##तःगु	10929
नियत	10930
ज्ञानि	10931
दिल	10932
दिशो	10933
प्रत्यया	10934
##शिख	10935
शिष्ट	10936
धर्मस्य	10937
युध्य	10938
महाबाह	10939
##मात्रम्	10940
जाताः	10941
हेतोः	10942
##ान्वि	10943
वर्तमानः	10944
गुरुव	10945
##ऽऽह	10946
व्यवस्थापन	10947
अकथयत्	10948
at	10949
vs	10950
इलय्	10951
तमु	10952
मना	10953
यादृश	10954
सन	10955
##ूण	10956
##यश्च	10957
##११	10958
प्रकारः	10959
##प्रद	10960
##र्तुं	10961
स्वाम	10962
##ागु	10963
अपने	10964
##त्वाच्च	10965
सामग्री	10966
त्रिषु	10967
##ञ्जलि	10968
मूर्ध	10969
##वृक्ष	10970
अप्रैल	10971
##lok	10972
प्लव	10973
आईपी	10974
स्कन्ध	10975
डे	10976
मते	10977
सानु	10978
##लानां	10979
##मतं	10980
##ञ्ञ	10981
##धाः	10982
##२२	10983
पुत्त्र	10984
##ालन	10985
##त्वादिति	10986
परिपाल	10987
##मेवा	10988
अवयव	10989
शुक्ल	10990
अन्ततः	10991
दूरी	10992
##षेधा	10993
##न्यासः	10994
लोकान्	10995
रुग्	10996
तस्यापि	10997
इहैव	10998
##धेय	10999
##ैरेव	11000
सौभाग	11001
यथोक्त	11002
कारणात्	11003
प्रवर्त्त	11004
गतिम्	11005
प्रवृत्तिः	11006
##ेत्यर्थः	11007
लुक्	11008
पर्याप्त	11009
000	11010
co	11011
इतो	11012
करा	11013
कस्मिन्	11014
भै	11015
शब्दं	11016
##टर्	11017
##सद्	11018
##तै	11019
##नित्य	11020
##ष्याः	11021
##ss	11022
##म्नि	11023
संक्षेप	11024
##ेशन	11025
अनया	11026
##संप	11027
##तीत	11028
##र्षः	11029
इत्यतः	11030
अधी	11031
द्वारं	11032
##व्यानि	11033
##कृतेन	11034
##ोपाय	11035
यदिदं	11036
दुर्घट	11037
कृतवन्तः	11038
##शिक्ष	11039
येना	11040
प्राप्तो	11041
##समू	11042
उक्त्वा	11043
आहुः	11044
##क्ष्यति	11045
मुक्तः	11046
199	11047
प्रायशः	11048
ध्रुवम्	11049
निर्धार	11050
भविष्यामि	11051
आन्दोल	11052
ज्याझ्वः	11053
जारी	11054
लग्	11055
हविः	11056
##रक्षा	11057
##सञ्च	11058
##समं	11059
##ुत्वा	11060
##लौ	11061
##वतः	11062
##मथ	11063
##ey	11064
प्रतीति	11065
पुष्टि	11066
भवान	11067
स्वकी	11068
सुहृ	11069
##वाचि	11070
नाटक	11071
तदानीं	11072
भूरि	11073
##ध्ययन	11074
अभिवाद	11075
बालिका	11076
##ात्मकः	11077
##साधनं	11078
##ord	11079
स्थानीय	11080
वीक्ष्य	11081
संस्कृतं	11082
भवेद्	11083
and	11084
अव्यक्त	11085
ज्ञेया	11086
मायया	11087
वक्ष्यति	11088
59	11089
cl	11090
अम्	11091
गतो	11092
फु	11093
बत	11094
बान्ध	11095
यते	11096
वयः	11097
##ूलं	11098
##लाय	11099
##घो	11100
##्यन्त	11101
##ानुरूप	11102
##ुक्ता	11103
तेभ्यः	11104
##मेय	11105
मुख्या	11106
भूष	11107
पार्	11108
प्रत्ययस्य	11109
##धिकारि	11110
याज्ञ	11111
##पदी	11112
##कोट	11113
यथो	11114
आरक्ष	11115
नरके	11116
##ार्थम्	11117
##कार्येषु	11118
##सङ्ग्र	11119
##सङ्ख्य	11120
सम्पन्न	11121
आत	11122
घण्ट	11123
था	11124
मङ्गल	11125
य॒	11126
श्च	11127
९९	11128
##्न	11129
##ृक्	11130
##जते	11131
##ठी	11132
##50	11133
##र्यथा	11134
##धिर	11135
##नीत	11136
दुर्ज	11137
पदानि	11138
##परिवार	11139
मूर्ति	11140
नित्यः	11141
निश्चितम्	11142
##बलय्	11143
पुष्पं	11144
हिताय	11145
##सेवा	11146
भ्रमण	11147
प्रचलति	11148
इत्येके	11149
we	11150
आइ	11151
उदात्त	11152
केषां	11153
लौ	11154
##ूर्त	11155
##ैका	11156
##मानां	11157
##मनो	11158
##bs	11159
प्रचार	11160
प्राग्	11161
वि॒	11162
##माला	11163
##पिः	11164
परित	11165
संप	11166
भवेत	11167
समः	11168
##ेतो	11169
तेरे	11170
##ोऽथ	11171
व्यञ्ज	11172
एताः	11173
अपा	11174
##भूताः	11175
गृहपृष्ठ	11176
दृष्टान्त	11177
त्र्य	11178
शृण्व	11179
परिवर्तन	11180
##log	11181
दातुं	11182
भ्रातृ	11183
वस्तूनि	11184
दुग्धं	11185
सन्देहः	11186
years	11187
अयि	11188
अङ्गु	11189
आन्त	11190
भाः	11191
##तत्	11192
##वक्त	11193
##हितो	11194
##धेः	11195
##न्तौ	11196
##द्धं	11197
##स्तिः	11198
##ब्ल्यू	11199
##भवन्	11200
सहित	11201
##तुम	11202
##ीतले	11203
कर्मणां	11204
कामा	11205
##भावि	11206
##दुर्	11207
पुनरेव	11208
##कामं	11209
##000	11210
##बुद्धिः	11211
##oun	11212
##सहस्रं	11213
##बीसी	11214
##िंशत्	11215
##तिष्ठते	11216
वर्गःः	11217
इन्द्रिय	11218
प्रविशति	11219
##समन्वितः	11220
पद्धति	11221
रसोई	11222
शानदार	11223
no	11224
अप्रति	11225
खड्	11226
जिं	11227
तरि	11228
धे	11229
यास	11230
हिता	11231
हितम्	11232
##वित	11233
##वता	11234
##चय	11235
##्यात्म	11236
विघ्न	11237
##िकरण	11238
नियोज	11239
##द्वन्द	11240
ज्ञाने	11241
व्याच	11242
##कालिक	11243
##पदानि	11244
दीन	11245
द्विगुण	11246
महाभाग	11247
पश्चाद्	11248
अत्यु	11249
प्रायेण	11250
विश्लेष	11251
चत्वार	11252
वैदिक	11253
कस्मै	11254
सत्ता	11255
हरी	11256
९८	11257
##यू	11258
##वस्था	11259
##ber	11260
##ितेषु	11261
प्रगति	11262
##ामह	11263
##दिष्टः	11264
##ुरि	11265
##स्तिष्ठ	11266
##ाहे	11267
##रुच्यते	11268
##प्ते	11269
क्षीर	11270
##ग्धा	11271
##र्धे	11272
पुनर्म	11273
##पुण	11274
##पाक	11275
##समय	11276
अधिसूचना	11277
यजु	11278
##प्राप्तिः	11279
पुस्तकाल	11280
एकाकी	11281
निर्मितः	11282
प्रतिष्ठा	11283
ग्रन्थः	11284
धाःगु	11285
sc	11286
द्यौ	11287
भ्व	11288
माण	11289
सवि	11290
##दीय	11291
##मनि	11292
विगत	11293
##क्ष्मा	11294
##पिनि	11295
पर्याय	11296
वासः	11297
##ुक्ते	11298
##ृष्टि	11299
क्षयं	11300
वैभव	11301
दिक्षु	11302
उत्तरे	11303
##वादने	11304
शब्दो	11305
शब्दाः	11306
रेखा	11307
##पूर्वकम्	11308
यथोक्तं	11309
सविता	11310
##च्छिन्न	11311
##पाठः	11312
मेदि०	11313
असु	11314
चाप्य	11315
बं	11316
मञ्ज	11317
##भङ्ग	11318
##ोच्च	11319
##जति	11320
##गतम	11321
प्रज्ञ	11322
##त्वार	11323
##ष्ठः	11324
##ृश्य	11325
वैष्ण	11326
##भूम	11327
ज्ञाना	11328
स्याम	11329
दृष्टम्	11330
##पुट	11331
##पुण्य	11332
सामान्यं	11333
प्राणा	11334
नियमा	11335
##ity	11336
समाप्ति	11337
##ice	11338
मंत्र	11339
प्रतिदिन	11340
संस्थायाः	11341
टिप्पणी	11342
अण	11343
उग्र	11344
धर्मि	11345
नायं	11346
म॒	11347
मङ्ग	11348
७८	11349
##पश्चि	11350
##दां	11351
##कै	11352
##कोष	11353
##०३	11354
विख्या	11355
विसर्ग	11356
##क्षरं	11357
##त्यै	11358
##ापं	11359
##र्णं	11360
मेरो	11361
##न्नपि	11362
##ित्यत	11363
पीतं	11364
##विषयं	11365
उत्थ	11366
बिल	11367
बलात्	11368
विचार्य	11369
##कुर्वन्	11370
छन्दसि	11371
वक्ष्यते	11372
शक्नोमि	11373
"-	11374
अन्	11375
आख्या	11376
पतिं	11377
भृत्य	11378
मल्	11379
रेव	11380
सब	11381
##यर	11382
##शुः	11383
##व्	11384
##चक	11385
##जसा	11386
##ानने	11387
##मात	11388
##त्यपि	11389
##विभक्त	11390
##त्तस्य	11391
##मिष्यति	11392
##दिह	11393
स्वधा	11394
##ागत	11395
एकादशी	11396
द्वाद	11397
सम्म	11398
मार्ज	11399
अपृ	11400
##धानम्	11401
प्रत्यभि	11402
पुनरि	11403
##ान्येव	11404
धर्मे	11405
##त्पुरुष	11406
##ातुम्	11407
प्रकाशते	11408
##ort	11409
ध्वन	11410
वामे	11411
##धिकरणम्	11412
##स्ट्रे	11413
पौरुष	11414
विद्वां	11415
स्तोत्रं	11416
प्रदक्षि	11417
स्वातन्त्र्य	11418
##विश्वविद्या	11419
अकार	11420
कस्मिं	11421
तज्ज	11422
दाप	11423
यस्यां	11424
वपु	11425
##ूरु	11426
##यस्व	11427
##लायां	11428
##न्याः	11429
##फे	11430
##्वेन	11431
विद्	11432
विभाति	11433
परोप	11434
##प्रदः	11435
##प्रवाह	11436
##ासुर	11437
##ल्लिङ्ग	11438
महीं	11439
##द्वेष	11440
अनुवर्त	11441
##सुखं	11442
उत्तमः	11443
##विष्यति	11444
##व्याप	11445
यद्येवं	11446
पूर्णतः	11447
पूजयेत्	11448
तावद	11449
शक्तः	11450
लक्ष्यं	11451
अमृत	11452
यत्ते	11453
##समुद्र	11454
##पक्व	11455
क्षुद्र	11456
.-	11457
एम्	11458
वेत्	11459
सखे	11460
##ुष	11461
##वरं	11462
##चिकित्	11463
##ोत्	11464
##मया	11465
##iz	11466
##pl	11467
##८__	11468
##र्नो	11469
##स्यन्ति	11470
##थापि	11471
पराय	11472
##त्तमम्	11473
##दिदं	11474
##ातो	11475
##ुक्त्वा	11476
##मानम	11477
##द्यत	11478
क्षति	11479
##कृताः	11480
यत्नेन	11481
शिरो	11482
शुश्र	11483
##ज्यन्ते	11484
दिवसः	11485
विवरणः	11486
वृद्धिं	11487
शत्रूणां	11488
विद्यन्ते	11489
लभेत्	11490
पुस्तकानि	11491
मन्त्रेण	11492
श्रीकृ	11493
क्रियाः	11494
vide	11495
मृताः	11496
ध्रुवं	11497
##र्म्मा	11498
53	11499
अयो	11500
कृश	11501
मलि	11502
मल्ल	11503
९४	11504
##शान्त	11505
##जेन	11506
##ित्ये	11507
संक्रम	11508
सर्वात्म	11509
##द्यन्ते	11510
एकान्त	11511
सम्भवः	11512
##नोः	11513
पूर्व्व	11514
वर्षति	11515
##लोम	11516
भाषाः	11517
त्रिधा	11518
##ख्यः	11519
पृथग्	11520
##शीलः	11521
दोषाः	11522
##म्यहं	11523
##स्त्वां	11524
##लक्षणः	11525
निर्विकल्प	11526
किञ्चन	11527
सन्देश	11528
##सङ्घ	11529
द्विजाः	11530
##ish	11531
निवर्त्यताम्	11532
दुर्लभम्	11533
उत्पत्त	11534
प्रजापतिः	11535
##भूमिः	11536
##ateg	11537
##चतुष्ट	11538
महात्मनः	11539
ऐतिहास	11540
ol	11541
कर्	11542
खर्च	11543
घं	11544
धान्य	11545
माप	11546
रसः	11547
वैव	11548
सद्य	11549
##तस्त	11550
##ीकृत्य	11551
##नॊ	11552
##करी	11553
##धरः	11554
##बर्	11555
##ऽप	11556
##॒र	11557
##्याद्	11558
##विं	11559
##रियां	11560
##र्षी	11561
##ात्मानं	11562
##ग्ल	11563
योद्ध	11564
भारतम्	11565
तिर	11566
##युगे	11567
##कुले	11568
##विधाः	11569
वेग	11570
द्विजः	11571
अधिष्ठ	11572
भाज	11573
निष्पाद	11574
परिवर्तनं	11575
अनेकानि	11576
##स्त्येव	11577
ब्रूमः	11578
##मात्मनः	11579
##निमित्तं	11580
गीता	11581
संयुगे	11582
रिश्ते	11583
चोप	11584
भण	11585
वु	11586
##रचना	11587
##षाम्	11588
##ोद्ध	11589
##मये	11590
##मसि	11591
##11	11592
##ौति	11593
##ारम्	11594
विस्फ	11595
##ष्णा	11596
##िकर्म	11597
##ष्टुं	11598
स्कूल	11599
स्वेन	11600
##ङ्क्त	11601
##रिय	11602
देवत	11603
##भावा	11604
पृ०	11605
दिति	11606
##हारं	11607
गुणैः	11608
लक्षणा	11609
##कामः	11610
##ोत्तमः	11611
विजय	11612
क्षणात्	11613
मरुतः	11614
वैश्वदेव	11615
श्रेणी	11616
/-	11617
आभार	11618
मद्	11619
यन्न	11620
श्याम	11621
##णिः	11622
##हणं	11623
##मृत्य	11624
##्युप	11625
##ितोऽ	11626
##ामं	11627
##ावेव	11628
स्वनि	11629
##ातुं	11630
##ाणा	11631
सम्पद्यते	11632
एतां	11633
दिग्	11634
ग्रहः	11635
कोश	11636
##जनक	11637
भविष्यतीति	11638
सोमो	11639
पठे	11640
बिन्द	11641
परार्थ	11642
आरभ्य	11643
##म्मू	11644
तत्तु	11645
प्रातःकाले	11646
सम्यग	11647
प्रयत्न	11648
२०१५	11649
सम्पाद्यताम्	11650
##ass	11651
इंद्र	11652
चक्षुषा	11653
##ction	11654
ददामि	11655
##मित्याह	11656
##परम्परा	11657
transl	11658
(--	11659
कलि	11660
गम्भ	11661
पन्	11662
मॉ	11663
वयो	11664
हनु	11665
##करम्	11666
##िकया	11667
संयम	11668
संध्या	11669
##दासः	11670
##ङ्ख	11671
प्रतिबिम्ब	11672
##संवाद	11673
##तंत्र	11674
##पात्र	11675
##ट्स	11676
समुदा	11677
व्यवस्थितः	11678
##िरेव	11679
##ध्यात्म	11680
2013	11681
प्रतीक्षा	11682
##ैतत्	11683
##शेषं	11684
रुपए	11685
केन्द्रीय	11686
भवितुम्	11687
प्रयाति	11688
##मण्डले	11689
तदनन्तरं	11690
डॉ	11691
नानु	11692
भये	11693
शयन	11694
९२	11695
##दर्प	11696
##तमो	11697
##चिता	11698
##मन्दि	11699
##गरे	11700
विलोक्य	11701
##माध	11702
##ायुः	11703
##ष्टम्	11704
निपात	11705
भव्य	11706
##ल्ड	11707
##त्वादि	11708
##ग्रतः	11709
दुरा	11710
##ण्ड्	11711
##शिक्षा	11712
व्याख्यान	11713
यदु	11714
मानवाः	11715
लोकेषु	11716
पठेत्	11717
##स्थानस्य	11718
वृद्धः	11719
....	11720
वाचा	11721
##शोक	11722
प्रयोगशाला	11723
##शेषतः	11724
पश्चाद	11725
ख्याति	11726
रिक्ति	11727
वानर	11728
खण्डः	11729
हानिः	11730
तस्थ	11731
धुं	11732
यस्त	11733
शरु	11734
श्ल	11735
सना	11736
##दर	11737
##दया	11738
##लाव	11739
##जनः	11740
##हारा	11741
##ष्णं	11742
##क्षाल	11743
##ामो	11744
##निव	11745
सर्वकर्म	11746
सर्व्वे	11747
राघ	11748
##कार्ये	11749
##ोऽव	11750
कुलं	11751
##ण्ण	11752
परिमाण	11753
तदव	11754
गुम	11755
कर्मण्य	11756
शुल्क	11757
जीवः	11758
दृश्यं	11759
नेह	11760
यावद्	11761
वर्णः	11762
प्रसङ्ग	11763
विभक्ति	11764
ग्रहणम्	11765
अग्रि	11766
##नन्दन	11767
चक्रे	11768
तादृशं	11769
पतति	11770
##नात्मक	11771
योजनानां	11772
खर	11773
चाहं	11774
तकं	11775
सथ	11776
##दस्य	11777
##दक्षिण	11778
##म्र	11779
##न्स्	11780
संदेह	11781
##ापः	11782
##ृत्वं	11783
सुब	11784
##ुक्ति	11785
##ाहु	11786
##स्थले	11787
##नीये	11788
अपूर्व	11789
##स्वतः	11790
कर्तुम	11791
रूपे	11792
वर्णन	11793
शत्रुः	11794
प्रधानमन्त्रि	11795
विचारः	11796
न्ह्या	11797
श्रद्धया	11798
##मण्डल	11799
शोभते	11800
विमर्श	11801
प्रत्युवाच	11802
महाराज	11803
पाकिस्तान	11804
जुहोति	11805
उकिं	11806
कन्य	11807
गल	11808
नये	11809
नद्यः	11810
##ार्थे	11811
##नयो	11812
##वीत	11813
##भरण	11814
##ितश्च	11815
सर्वशः	11816
##ापरि	11817
##ृत्या	11818
राश	11819
##काराः	11820
##िवा	11821
कथितः	11822
##र्य्य	11823
पुनर्न	11824
मिलि	11825
पृष्ठः	11826
##दर्शने	11827
सिद्ध्यति	11828
अस्मात्	11829
सौम	11830
##कल्या	11831
चेह	11832
न्यास	11833
शृणोति	11834
सूत्रम्	11835
शैक्षणिक	11836
##दिशेत्	11837
ज्वर	11838
निकट	11839
##दिवसे	11840
अनुकूलन	11841
पाष	11842
वये	11843
वर्च	11844
##यै	11845
##वल	11846
##वैः	11847
##भग	11848
##ठे	11849
##_2	11850
##ढा	11851
##मामि	11852
##याद्	11853
##ामित्र	11854
##ान्नं	11855
सुप	11856
##रोधः	11857
##ान्तरम्	11858
##ब्ज	11859
राजन	11860
येँ	11861
२०२०	11862
जगतां	11863
##त्त्वम्	11864
दूत	11865
यदुक्तं	11866
मानसं	11867
चतुर्थे	11868
##सहितं	11869
क्रियां	11870
परिवर्ज	11871
युक्ति	11872
विनश्यति	11873
##पद्यन्ते	11874
एमपी	11875
##माश्रित्य	11876
वर्त्तते	11877
80	11878
अर्ज	11879
आभास	11880
कोष	11881
घोर	11882
जम्मू	11883
धन्या	11884
पारं	11885
वक्र	11886
समिति	11887
सञ्	11888
सखा	11889
९६	11890
##्नि	11891
##ुतः	11892
##लर	11893
##हाय	11894
##ड्य	11895
##pt	11896
विमानं	11897
##ष्णः	11898
##ेष्य	11899
सर्वप्र	11900
##भिर्व	11901
##भिषे	11902
##ीयां	11903
##व्यय	11904
कथयन्ति	11905
##युक्तम्	11906
##सुत	11907
चास्य	11908
स्पृष्ट	11909
करॊ	11910
महाक	11911
##ित्वम्	11912
##जातं	11913
##मात्मानं	11914
सार्वधातु	11915
चर्चा	11916
नराधिप	11917
सांस्कृतिक	11918
**	11919
उन्म	11920
जरा	11921
जपे	11922
तन्व	11923
यमु	11924
रास	11925
##पित्त	11926
##सृज	11927
##िन्	11928
##कण्ठ	11929
##ो॒	11930
##३__	11931
##दिशि	11932
भवेयुः	11933
वाग्	11934
##ान्द	11935
##तीर्थ	11936
स्तोत	11937
अवय	11938
##शिर	11939
भाष्ये	11940
जनपद	11941
##व्याघ्र	11942
##मासाद्य	11943
शक्त्या	11944
##मुक्तम्	11945
हस्तौ	11946
हस्तेन	11947
नमस्ते	11948
##स्कन्ध	11949
सन्तोष	11950
##ाम्यहम्	11951
बुधैः	11952
पवित्रं	11953
घनत्व	11954
आन्दोलन	11955
द्योत	11956
me	11957
अभावः	11958
कॊ	11959
छम्ह	11960
जघ	11961
थुक	11962
दब	11963
सान्त	11964
##सन्न	11965
##शोध	11966
##चयः	11967
##ध्यं	11968
##गुरु	11969
##एँ	11970
##स्सं	11971
राघव	11972
##ागतः	11973
##ाण्	11974
महादेव	11975
##योगतः	11976
##भूः	11977
##श्रेण	11978
ममैव	11979
##शिष्यते	11980
कोल	11981
क्रो	11982
मनू	11983
बहुषु	11984
##विषयः	11985
##दर्शनात्	11986
##म्भः	11987
बलवान्	11988
तृतीयः	11989
सुरक्ष	11990
##दृष्टि	11991
दैवं	11992
शैल	11993
श्रेष्ठं	11994
##विभागः	11995
ममापि	11996
भजते	11997
भौतिक	11998
प्रस्तुत	11999
##वन्तौ	12000
प्राथमिक	12001
विदूषकः	12002
आश्व	12003
कतम	12004
गम्य	12005
जं	12006
तरी	12007
नश्य	12008
यशो	12009
रय	12010
व्	12011
श्वे	12012
##सत्तम	12013
##यने	12014
##हत्या	12015
##मता	12016
##ms	12017
##३१	12018
##ौष	12019
प्रणाम	12020
प्रकृतेः	12021
##्याणि	12022
##ष्टम	12023
##प्रक्रिया	12024
##प्रकरणे	12025
भवद्	12026
वास्तव	12027
स्वस्त	12028
##संसार	12029
साकं	12030
त्व्	12031
##ङ्ग्ल	12032
##ध्यति	12033
कृतो	12034
##कृतो	12035
याइ	12036
दृष्टिः	12037
जीवनस्य	12038
##काशः	12039
ब्रा	12040
गुणव	12041
अतिथ	12042
##ायाम	12043
##गतौ	12044
##भाषायाः	12045
इच्छन्ति	12046
##दूर	12047
##तोऽहं	12048
##जातीय	12049
नेपाली	12050
थुगु	12051
शृङ्ग	12052
भ्रष्टाचार	12053
te	12054
कन्न	12055
कपो	12056
चाव	12057
भित्त	12058
मरि	12059
रै	12060
##ास्ते	12061
##दित्य	12062
##िने	12063
##लङ्	12064
##नान	12065
##15	12066
##फो	12067
##फला	12068
##्यमान	12069
##त्यम्	12070
किमिति	12071
##क्रमा	12072
##न्नित्यं	12073
अनुच्छेद	12074
भूता	12075
##ानुभव	12076
सामग्र	12077
युयु	12078
निवास	12079
द्विगुणं	12080
##भेदं	12081
पठित्वा	12082
करिष्य	12083
शूद्र	12084
चित्ते	12085
पितामहः	12086
नरेन्द्र	12087
ग्रीष्मे	12088
it	12089
अद्भु	12090
चुना	12091
श्वा	12092
विलोक	12093
##र्वेद	12094
##नायाः	12095
##विष्टः	12096
##येयुः	12097
##कारक	12098
##मुदाह	12099
मुद	12100
##नीयाः	12101
पूर्वः	12102
ज्ञा	12103
##भाषे	12104
__२	12105
##कुलं	12106
सप्तमे	12107
द्रवि	12108
##वृत्तं	12109
##सहाय	12110
यज्ञः	12111
भिक्ष	12112
होता	12113
आरभ	12114
विज्ञाय	12115
भुज	12116
##च्यत	12117
नैष	12118
स्फु	12119
##व्रतः	12120
##िकोण	12121
तूष्ण	12122
निमित्तं	12123
तन्मे	12124
श्लोकः	12125
अयमेव	12126
कैव	12127
गूढ	12128
चमत्	12129
जड	12130
टेनि	12131
धनेन	12132
लभ्य	12133
८२	12134
##पश्च	12135
##सरः	12136
##यन्ती	12137
##दध	12138
##दयः	12139
##तयः	12140
##्वाः	12141
##मिल	12142
##भिर्य	12143
##ुरेव	12144
प्रतिवर्षं	12145
यथावत्	12146
##ान्तरण	12147
सम्बोध	12148
##द्वयम्	12149
##प्तौ	12150
नास्तीति	12151
##भूतम्	12152
प्रत्ये	12153
लोको	12154
विषयाः	12155
जीवन्मुक्त	12156
##क्षेत्रं	12157
पीडा	12158
मानस	12159
दक्षिणं	12160
##ind	12161
पुंसां	12162
प्रेत्य	12163
रामस्य	12164
##लक्षणे	12165
##निर्देशः	12166
अध्याये	12167
##वदत्	12168
सूचयति	12169
सूचनाः	12170
मयू	12171
स्त्रियो	12172
पुण्या	12173
काव्यं	12174
इत्यादयः	12175
व्यावहार	12176
साङ्ख्य	12177
निंतिं	12178
,-	12179
pm	12180
गतम्	12181
चक्ष	12182
चारु	12183
जहि	12184
दग्ध	12185
धैर्य	12186
भयान	12187
रचित	12188
सेत	12189
##छु	12190
##कर्म्म	12191
##जन्	12192
##गार	12193
##०४	12194
##_3	12195
##न्त्या	12196
##त्तदा	12197
निदेश	12198
##ेष्यते	12199
##प्रदाय	12200
##प्रार्थ	12201
##मिष्यते	12202
वाचि	12203
##राब	12204
##ुप्	12205
##कृत्वा	12206
देय	12207
द्रव्या	12208
दिवो	12209
पृष्ठतः	12210
रक्षतु	12211
##माहुः	12212
##मुक्ति	12213
मृत्युं	12214
ईश्वरस्य	12215
रुपं	12216
##हीनः	12217
विकासः	12218
##पुरं	12219
##दोषः	12220
##सन्धान	12221
निवृत्ति	12222
बाधते	12223
##ाम्यति	12224
विधानेन	12225
##कुर्वन्ति	12226
##पौत्र	12227
कास	12228
गरु	12229
##ैषा	12230
##मरः	12231
##गानि	12232
##गमः	12233
विभव	12234
##विदः	12235
##प्रयोजन	12236
##निरा	12237
##र्मे	12238
##ेदार	12239
##ोऽस्तु	12240
राजपुत्र	12241
क्षो	12242
अनुप्र	12243
दिनम्	12244
पाश्चा	12245
प्राकृतिक	12246
पुनस्त	12247
कर्मण	12248
##देवस्य	12249
संस्कृतिः	12250
##सूक्तिः	12251
##ैकेन	12252
नवदि	12253
भिष	12254
प्रकाशः	12255
##वासिनः	12256
##धर्मः	12257
हरित	12258
प्रचोद	12259
##प्रयोगे	12260
हास्य	12261
फिल्म	12262
अहिंसा	12263
कवचं	12264
उ०	12265
औं	12266
श्म	12267
िन	12268
##रान	12269
##तव्यं	12270
##ित्वे	12271
##त्रये	12272
##ेनेति	12273
##विनि	12274
##मिष	12275
अनव	12276
रामाय	12277
##रिः	12278
देवे	12279
##देशो	12280
क्षत्रि	12281
अनुवर्तते	12282
##ब्दः	12283
##त्सव	12284
##स्मीति	12285
##कालीन	12286
अन्यतर	12287
##पुष्प	12288
##समी	12289
##ज्ञानम्	12290
निर्भ	12291
##ब्रह्	12292
बलिं	12293
##धीश	12294
दुर्बल	12295
बाह्या	12296
##ादेशो	12297
हैं	12298
पक्षी	12299
ज्योतिष	12300
२००८	12301
परिणामः	12302
##ove	12303
केरल	12304
लौकिक	12305
==	12306
अर्च	12307
इस्	12308
कया	12309
जयः	12310
पर्ण	12311
य्	12312
यातु	12313
##यतो	12314
##ीयो	12315
##कात्	12316
##14	12317
##ib	12318
##र्ल	12319
##क्षणा	12320
निध	12321
भवत्याः	12322
स्वकीय	12323
प्रतिस्प	12324
इत्यर्थे	12325
##ङ्गा	12326
उपसं	12327
##भूयते	12328
##भ्यश्च	12329
भूते	12330
पापि	12331
##धिकृत्य	12332
गृह्य	12333
वृक्षे	12334
काङ्	12335
##ह्नि	12336
जीवनम्	12337
प्राप्ताः	12338
विशेषा	12339
##शाख	12340
अहमपि	12341
##ग्रहणेन	12342
##दर्शनम्	12343
##व्यापी	12344
सदस	12345
करिष्यसि	12346
पूज्यते	12347
##वर्णः	12348
सवित	12349
198	12350
बीजं	12351
स्यान्	12352
योग्यता	12353
57	12354
categ	12355
आदाय	12356
ऋत्वि	12357
एन्	12358
नञ्	12359
मथ	12360
मरा	12361
यन्ति	12362
लक्ष्मी	12363
शव	12364
##पण	12365
##समि	12366
##कप	12367
##क्या	12368
##जाय	12369
##॑ति	12370
##/)	12371
प्रदी	12372
##क्षति	12373
सर्वान	12374
अधर्म	12375
##ान्त्रिक	12376
##र्गे	12377
##ग्नः	12378
भूया	12379
##धान्य	12380
##धिकृत	12381
##पद्ये	12382
अधिका	12383
##न्तुम्	12384
विषयं	12385
करोड़	12386
##प्रतियोग	12387
विधानं	12388
योगं	12389
पठ्यते	12390
दुःखेन	12391
रात्रिं	12392
मृतः	12393
उच्चैः	12394
वनस्प	12395
गुरोः	12396
##ics	12397
श्रेष्ठः	12398
बृहस्प	12399
आकाशे	12400
##प्रभृति	12401
##साहस्र	12402
##द्रूपं	12403
द्वन्द्व	12404
इट	12405
कर्क	12406
जह	12407
रथः	12408
##ृप	12409
##िण	12410
##प्रव	12411
संदेश	12412
संप्रति	12413
तुमु	12414
##नेगु	12415
##संस्थ	12416
सात्त्व	12417
##ष्ठा	12418
##स्यात्	12419
मेऽ	12420
##ोपयोग	12421
समाजे	12422
अवशिष्ट	12423
शिला	12424
##ितेः	12425
तद्भव	12426
स्पृह	12427
सिद्धिः	12428
लिखति	12429
ताभ्यां	12430
दत्तवान्	12431
धारण	12432
##शेषः	12433
##ेऽस्मिन्	12434
विष्णोः	12435
##चित्रं	12436
प्रसिद्धम्	12437
वाक्या	12438
शान्तिः	12439
उत्सव	12440
महोदयः	12441
स्थितौ	12442
प्रकृत्या	12443
खोजष	12444
comment	12445
महाराष्ट्र	12446
chap	12447
##ापेक्षया	12448
exam	12449
54	12450
down	12451
अणु	12452
ऊचुः	12453
ऋणं	12454
एषु	12455
कनिष्ठ	12456
घञ्	12457
छेद	12458
मत्स	12459
यम्	12460
रक्तं	12461
लला	12462
वशी	12463
वचनात्	12464
षु	12465
##समान	12466
##कॊ	12467
##ज्येत	12468
##हन्	12469
##मीति	12470
##गाय	12471
##krit	12472
##९__	12473
विमु	12474
विमो	12475
##त्त्वा	12476
स्वां	12477
##ृतौ	12478
##ुरे	12479
सुमह	12480
##रोह	12481
##स्थल	12482
##मुपा	12483
उपर्य	12484
व्यती	12485
##भूतो	12486
तदहं	12487
##ध्यम्	12488
##न्द्रं	12489
कार्य्य	12490
##ोक्तः	12491
युधि	12492
##कोश	12493
बालानां	12494
##सूत्रे	12495
##ात्मनः	12496
मूष	12497
सौन्द	12498
पुरातन	12499
लिखित	12500
##समासः	12501
new	12502
आवश्यकम्	12503
सार्वजन	12504
शब्दार्थ	12505
sentence	12506
*}	12507
आदर्श	12508
उदा	12509
मन्म	12510
रोष	12511
शूल	12512
८३	12513
##दुः	12514
##तैः	12515
##ैं	12516
##cc	12517
##_4	12518
##up	12519
##ारभ्य	12520
स्वयां	12521
##र्षभ	12522
इत्यस्मिन्	12523
देवानाम	12524
तथाऽ	12525
##स्याम्	12526
##ष्यत	12527
##न्यत्	12528
सू०	12529
अनुमान	12530
जीवे	12531
जीवितम्	12532
संस्कृते	12533
समुद्	12534
रूपये	12535
##धारः	12536
भगवता	12537
वाच्यं	12538
प्रभृति	12539
मार्गेण	12540
ब्रह्मणः	12541
समुद्रे	12542
शक्यन्ते	12543
सोऽयं	12544
पावन	12545
हन्यते	12546
अस्व	12547
कपाल	12548
कष्टं	12549
जनो	12550
धर्म्म	12551
हस	12552
##सृष्ट	12553
##वात	12554
##मक	12555
निजं	12556
प्रतिशतं	12557
सुश्रु	12558
महात्मा	12559
एकवचनम्	12560
##मेलन	12561
उपलभ्यते	12562
स्तन	12563
##लाइन	12564
##श्रयः	12565
कर्मचारी	12566
जनैः	12567
##पाट	12568
##दाने	12569
१०१	12570
##णीया	12571
##र्पण	12572
##कीर्ण	12573
प्रयोगे	12574
##त्वेऽपि	12575
##ोत्तरं	12576
कौतु	12577
197	12578
प्रविष्टः	12579
##हेतवे	12580
बन्धु	12581
धर्मार्थ	12582
तुल्यं	12583
##सिंह	12584
##प्रसङ्गः	12585
52	12586
उड्ड	12587
कस्मान्न	12588
तासु	12589
तसकं	12590
नञ	12591
मर	12592
मीम	12593
स०	12594
##दन्ति	12595
##ृं	12596
##मयो	12597
##धम्	12598
##गमे	12599
प्रल	12600
प्रीत	12601
##माम्	12602
##स्सर्व	12603
##त्रो	12604
संहित	12605
##राह	12606
##रात्रि	12607
##ासनं	12608
रात	12609
##च्छं	12610
यथाव	12611
महेश	12612
##ीयान्	12613
##द्वी	12614
पूर्वव	12615
कृत्व	12616
पाति	12617
##कालस्य	12618
तवम	12619
केवलः	12620
कार्यस्य	12621
##ज्ञानस्य	12622
द्विष	12623
स्वीकृत्य	12624
वर्गीकरण	12625
##पुरस्	12626
सिंहास	12627
व्याख्यातम्	12628
##load	12629
लब्ध्वा	12630
चत्वारि	12631
धयागु	12632
बैठ	12633
##च्वन	12634
आविष्	12635
स्रोतः	12636
chapter	12637
pl	12638
sy	12639
अप्रत्यक्ष	12640
ऐं	12641
मर्द	12642
यैः	12643
##केण	12644
##भ्	12645
##जानां	12646
##महा	12647
##धां	12648
##धीत	12649
##बला	12650
##ारण्य	12651
परिक्र	12652
##प्राप	12653
भवद्भिः	12654
##व्यम	12655
परिगण	12656
अपेक्षा	12657
##युक्तो	12658
उत्तमं	12659
रक्षणं	12660
पश्यन्तु	12661
जिह्वा	12662
पूजये	12663
आत्मने	12664
विद्युत	12665
भुङ्क्ते	12666
तुलसी	12667
##विदां	12668
भद्रं	12669
प्रासाद	12670
युधिष्ठि	12671
res	12672
आयाति	12673
गात्र	12674
ययुः	12675
शशि	12676
सित	12677
##षय	12678
##७__	12679
##हनं	12680
##हिताः	12681
##मर	12682
##गीत	12683
##क्के	12684
##न्मे	12685
##क्षम्	12686
##क्षायां	12687
पुट	12688
##निषेध	12689
##श्चतु	12690
तुं	12691
##्रियः	12692
##ुक्तो	12693
##ेतौ	12694
महत्त्वं	12695
देवेषु	12696
देवीं	12697
##केभ्यः	12698
सूर्यं	12699
दुर्म	12700
सर्वेभ्यः	12701
त्रुट	12702
कीर्त्त	12703
प्राणो	12704
महाविद्या	12705
##end	12706
चेद्	12707
चित्रे	12708
कार्यालय	12709
मैं	12710
अस्मभ्यं	12711
##विभागे	12712
व्यवहारः	12713
##र्भवेत्	12714
विंशति	12715
स्वायत्त	12716
translation	12717
ग्	12718
चत	12719
चानु	12720
नासीत्	12721
मरी	12722
लग्न	12723
##पत्नी	12724
##ास्ति	12725
##ास्तु	12726
##लभा	12727
##हरण	12728
##02	12729
##tr	12730
##ck	12731
##॒न	12732
##op	12733
##॑व	12734
##५__	12735
##िताय	12736
##स्तर	12737
##स्तान्	12738
##विज्ञानं	12739
##प्रवर्त	12740
संभवः	12741
##र्थम	12742
सर्वासु	12743
##ाणः	12744
राजनै	12745
##वाई	12746
परिप	12747
##रूपो	12748
##धिकारी	12749
प्रवृद्ध	12750
तवया	12751
##परम	12752
काक	12753
##काशं	12754
##ज्यम्	12755
##प्रतिषेधः	12756
सुखेन	12757
##ोदय	12758
१०२	12759
वेदे	12760
वेदान्त	12761
सिद्धः	12762
आगामि	12763
यद्यप्य	12764
मुक्तिः	12765
स्थानः	12766
स्थानानि	12767
196	12768
विनियोगः	12769
##भारते	12770
छात्राणां	12771
तादृशः	12772
संस्करणः	12773
वृष्टिः	12774
सर्वोच्च	12775
स्निग्ध	12776
पूर्ब्ब	12777
मुस्लिम	12778
56	12779
sans	12780
जयति	12781
टा	12782
मदि	12783
लल	12784
लिं	12785
शां	12786
##दक्षि	12787
##दशा	12788
##लता	12789
##sc	12790
##५१	12791
##न्ट	12792
##न्ह	12793
##ादाय	12794
##ायुध	12795
सर्वकार	12796
##योनि	12797
भवसि	12798
##ल्लोक	12799
महार	12800
##स्यामः	12801
व्यथ	12802
कृतानि	12803
##ृत्तिः	12804
##शिक्षण	12805
##युज्यते	12806
##माणो	12807
अन्त्य	12808
बहुशः	12809
##ानेक	12810
सोमं	12811
चतुर्थः	12812
चतुर्थं	12813
नगरम्	12814
पूर्णे	12815
पेट	12816
संस्कृतस्य	12817
विकिसूक्तिः	12818
दूरतः	12819
अगच्छत्	12820
कथाः	12821
गिरः	12822
शासनं	12823
पोर्नो	12824
श्राद्धं	12825
गुह्यं	12826
##पुस्तक	12827
स्वाभाविक	12828
साम्प्रतं	12829
अविद्या	12830
आकार	12831
गू	12832
नतु	12833
##तरम्	12834
##मितं	12835
##ॆन	12836
##ढुं	12837
प्र॒	12838
##स्तप	12839
##त्यनु	12840
स्वत	12841
समानं	12842
प्रतिज	12843
अधिव	12844
##र्गः	12845
कथित	12846
किंतु	12847
तद्वा	12848
शुष्	12849
मन्व	12850
##तमम्	12851
जगतो	12852
अन्तरा	12853
लोकस्य	12854
भिद्यते	12855
पशुप	12856
##विशेषण	12857
भूतले	12858
धात्व	12859
मैत्री	12860
बृहत्	12861
##िंशति	12862
##वाक्यं	12863
अन्तर्रा	12864
शिशुः	12865
संदेहः	12866
नवदिल्ली	12867
अट	12868
अया	12869
अशक्त	12870
प॒	12871
पास	12872
पद्य	12873
पाह	12874
सक्त	12875
##रित्य	12876
##दनु	12877
##तरो	12878
##ीनि	12879
##चक्षु	12880
##मलं	12881
##गणे	12882
##घु	12883
##्वम्	12884
##मायां	12885
##र्वी	12886
##ेष्यति	12887
संल	12888
संबध्यते	12889
समयं	12890
##संघ	12891
राज्या	12892
भूतं	12893
##ृत्तं	12894
व्यास	12895
##धिकः	12896
शुचिः	12897
भावं	12898
१९२	12899
ज्ञानस्य	12900
तथेति	12901
वायुना	12902
##र्च्य	12903
कल्पते	12904
विकल्पेन	12905
परिवर्तते	12906
तैलं	12907
ख्यातः	12908
द्वेष्टि	12909
भुवः	12910
##क्रीडा	12911
शुभाशुभ	12912
प्रादुर्	12913
(--/)	12914
आस्त	12915
इष	12916
ईष	12917
कुं	12918
खेद	12919
गरीय	12920
फै	12921
रतः	12922
ल्याः	12923
वीत	12924
शहर	12925
शयनं	12926
##दल	12927
##कुरु	12928
##॒यं	12929
##्ति	12930
प्रादेश	12931
##न्त्री	12932
परतो	12933
##ावत	12934
पुरे	12935
##प्राय	12936
संख्य	12937
सर्वमेव	12938
राष्ट	12939
##मानन्द	12940
##तोः	12941
देव्या	12942
##व्यतिरिक्त	12943
##साक्ष	12944
दिनां	12945
##जनैः	12946
चिह्न	12947
पृथग	12948
साधुः	12949
##मीश्व	12950
चतुष्	12951
##र्घ्यं	12952
क्रियतां	12953
जिन	12954
प्रेक्ष	12955
##डियाः	12956
शिवं	12957
मध्यं	12958
हितकाम	12959
सांख्य	12960
पुरस्कारः	12961
पिबति	12962
ज्ञेयः	12963
##साहित्य	12964
(←	12965
ऑन	12966
कैः	12967
जेतुं	12968
तद्र	12969
तेष्व	12970
पाण	12971
यामि	12972
लग	12973
सध	12974
सीम	12975
##धिव	12976
##्येव	12977
##र्दि	12978
##र्हं	12979
##त्पद्यते	12980
##माता	12981
##द्देव	12982
##ामेव	12983
एवायं	12984
स्वदेश	12985
##संयुक्तं	12986
##संवत्स	12987
द्वी	12988
श्रौ	12989
उपपद्यते	12990
तदुक्तं	12991
अनुवादः	12992
लोह	12993
##भागी	12994
भाषाया	12995
कोपि	12996
चिह्	12997
त्रयाणां	12998
सिद्धे	12999
##ध्याप	13000
यूरोप	13001
##पत्तौ	13002
##धिकारे	13003
##गणना	13004
विहितः	13005
व्याख्यातः	13006
कर्त्तव्यं	13007
कुशलं	13008
खादति	13009
व्योम	13010
नपुंसक	13011
निम्नलिख	13012
.।	13013
gr	13014
tit	13015
ए॒	13016
तरुण	13017
नयन	13018
यह	13019
येषु	13020
लङ्क	13021
श्या	13022
शिक	13023
सतः	13024
##पीति	13025
##कनं	13026
##हाः	13027
##17	13028
##bo	13029
##फि	13030
##ॉप	13031
##त्स्व	13032
विविधा	13033
##िकाल	13034
##विशि	13035
भवामि	13036
##ापेक्षा	13037
##श्चर	13038
सुवि	13039
सार्द्धं	13040
तेऽपि	13041
##ग्धे	13042
अधिकारि	13043
##विधिं	13044
स्वागत	13045
पितर	13046
##सूर्य	13047
स्त्रीलिङ्ग	13048
##गृह्	13049
##राज्यं	13050
परमां	13051
##ang	13052
बुद्ध्या	13053
##तरां	13054
मित्राव	13055
निरन्तरं	13056
##हरुः	13057
##जीवनं	13058
शूर	13059
अभयं	13060
मूर्खः	13061
गीतं	13062
##थ्द्य	13063
##द्वारेण	13064
माध्यम	13065
आराध	13066
ज़	13067
जनि	13068
##यमिति	13069
##नू	13070
##कोऽ	13071
##६__	13072
##र्ड्	13073
##क्लि	13074
##स्तम	13075
##नास	13076
##र्थेन	13077
##मिच्छति	13078
##ान्द्र	13079
##श्चे	13080
सुष्ठ	13081
सुदृ	13082
##त्वमिति	13083
महति	13084
##स्थितो	13085
कथिता	13086
##केतः	13087
वैराग	13088
##भ्यन्तर	13089
कालस्य	13090
अत्रैव	13091
द्रा	13092
सर्वेऽपि	13093
कदाचिद	13094
कलाः	13095
यावद	13096
करना	13097
वाचो	13098
समीपं	13099
सेट्	13100
निष्प	13101
मधुम	13102
प्रविवेश	13103
तिष्ठन्ति	13104
विशिष्यते	13105
वृक्षस्य	13106
वाक्यम्	13107
पत्रिका	13108
विश्वास	13109
##ill	13110
भर्ता	13111
राज्ञां	13112
##त्पत्तिः	13113
गर्ने	13114
प्रशंस	13115
एशियाई	13116
जापान	13117
इण्ड	13118
गर्ज	13119
गर्भव	13120
घण्	13121
चन्द	13122
तल्	13123
तस्व	13124
धनि	13125
बजे	13126
##लाद	13127
##जैः	13128
##मस्तु	13129
##ठः	13130
##ांग	13131
##स्तद्व	13132
##प्रदं	13133
##तात्म	13134
वाणी	13135
##भिमुख	13136
प्रतिभास	13137
सु॒	13138
एकदेश	13139
कथमपि	13140
स्थग	13141
##योगो	13142
अप्य	13143
गुणे	13144
व्यापक	13145
##ित्रे	13146
विषं	13147
त्रिगुण	13148
पृथ्व	13149
पितरः	13150
बिम्ब	13151
नित्या	13152
##वृतः	13153
उच्चतम	13154
निश्चित्य	13155
विचारणा	13156
वर्तमाने	13157
मन्त्रं	13158
मण्डले	13159
भेदा	13160
तदिदं	13161
युष्मान्	13162
मिलित्वा	13163
यीशु	13164
विराजते	13165
कन्नड	13166
कित	13167
कन्द	13168
थ्यं	13169
मयो	13170
यहां	13171
वना	13172
सव्य	13173
सुरु	13174
हता	13175
हतं	13176
हीन	13177
##५०	13178
##्र्	13179
##न्तुं	13180
##िकेन	13181
##र्थकं	13182
##निबन्ध	13183
सर्व्वा	13184
सर्वेषाम्	13185
वाग	13186
##ृत्वा	13187
तेभ्यो	13188
एतत	13189
एतस्मात्	13190
##न्नेव	13191
अपां	13192
अपर्या	13193
##श्रुत	13194
अवत	13195
##भाषणम्	13196
पुत्रे	13197
##िकाम्	13198
देय्	13199
दीक्षा	13200
रुचिः	13201
दुःखम्	13202
जुगु	13203
##ैर्यं	13204
2012	13205
यूयम्	13206
रिप	13207
पशुः	13208
##ान्वय	13209
श्लाघ	13210
वेबसाइटः	13211
##पृच्छ	13212
वाक्यानि	13213
अङ्गी	13214
विश्वासः	13215
मामेव	13216
आईपीसी	13217
प्रकरणम्	13218
वृष्टि	13219
##सागर	13220
घोरं	13221
##द्वितीय	13222
मेने	13223
इकाई	13224
bh	13225
ed	13226
tv	13227
अकर्म	13228
आकर्ष	13229
एं	13230
केषु	13231
धो	13232
पत्त	13233
शश्व	13234
षट	13235
ऽनु	13236
##तूह	13237
##लॊ	13238
##इव	13239
##ऽनेन	13240
##न्नाम	13241
##स्त्वा	13242
##ाद्याः	13243
##त्यत्र	13244
##विदा	13245
निधाय	13246
स्वीय	13247
यथाह	13248
##ेत्याह	13249
महोत्स	13250
##नोद	13251
किंचिद	13252
##ग्रं	13253
अपरे	13254
दृष्टो	13255
अन्तर्ग	13256
गुणो	13257
पठित	13258
वदेत्	13259
##वर्ति	13260
धन्यं	13261
प्रकाशित	13262
##प्रत्ययो	13263
अध्यक्षः	13264
ग्रही	13265
मार्गं	13266
करणीयः	13267
शून्यं	13268
##स्थापन	13269
उत्सवः	13270
प्रशस्यते	13271
निरीक्षण	13272
ऋषिः	13273
मनोरञ्जन	13274
अन्तर्जाल	13275
मुम्बई	13276
goo	13277
ty	13278
आवा	13279
तस्	13280
तास	13281
मता	13282
याप	13283
यतोऽ	13284
व्री	13285
शल्य	13286
सद्यो	13287
##ूयते	13288
##तक	13289
##ल्यां	13290
##चत	13291
##३०	13292
##याश्च	13293
##स्तौ	13294
##दात	13295
##ासम्	13296
##ल्लो	13297
##भावना	13298
कृतकृत्य	13299
##श्वः	13300
##धाने	13301
##ानार्थं	13302
शुक्	13303
विश्वः	13304
जगद	13305
अहः	13306
दीप्त	13307
##किया	13308
प्रसन्ना	13309
नितरां	13310
जातवेद	13311
शरीरम्	13312
पश्यामः	13313
##मुक्तः	13314
इदमेव	13315
##ाग्रे	13316
indi	13317
शिक्षकः	13318
पृष्टः	13319
आरोप	13320
आरोग	13321
आगच्छन्ति	13322
स्कन्द	13323
प्रतिनिधि	13324
##शरीर	13325
##कार्याणि	13326
title	13327
उज्ज	13328
गमन	13329
नोऽ	13330
पन्थ	13331
वरम्	13332
शम्भ	13333
हम	13334
##पाण	13335
##पत्रे	13336
##यसे	13337
##शब्दं	13338
##गोप	13339
##cs	13340
##९१	13341
##र्ने	13342
##क्का	13343
पुल	13344
संयोगः	13345
सर्व्वं	13346
सुकृत	13347
##न्ध्र	13348
##स्माद	13349
सूचितम्	13350
मुह	13351
अपवाद	13352
##ध्यत	13353
##स्म्य	13354
##भाष्य	13355
जनक	13356
जनसङ्ख्या	13357
दृष्टे	13358
पुत्रेण	13359
##कोशः	13360
##ट्ठ	13361
##द्यापि	13362
कामये	13363
बाल्य	13364
पञ्चम	13365
राष्ट्रपतिः	13366
तथ्य	13367
वक्ता	13368
वक्तव्य	13369
##कामो	13370
शतानि	13371
दत्ता	13372
ध्याना	13373
##पर्यन्त	13374
द्वितीयो	13375
वितरण	13376
बुभु	13377
मन्त्रिपरिष	13378
##च्छ्रुत्वा	13379
समन्वय	13380
हनू	13381
परिषद	13382
रिपोर्ट	13383
(*	13384
अमी	13385
कश्मीर	13386
यहाँ	13387
लङ्घ	13388
हजार	13389
##दाव	13390
##नयोः	13391
##णानि	13392
##खन	13393
##16	13394
##त्यर्थं	13395
परेण	13396
##ेषं	13397
##र्मह	13398
सुन	13399
सुष	13400
सुतं	13401
कारणा	13402
महे	13403
##ान्तस्य	13404
सम्ब	13405
कथयिष्यामि	13406
व्यक्तं	13407
भाषायां	13408
सामान	13409
##यिष्यते	13410
##क्यः	13411
जगत	13412
गुणानां	13413
##ere	13414
##कृतिं	13415
##ृणोति	13416
##धेयं	13417
आत्मनि	13418
उपयोगं	13419
मुख्यं	13420
२०१३	13421
शान्तिं	13422
अहोरात्र	13423
##समुदाय	13424
ग्राह्य	13425
शाश्वतं	13426
##स्ट्रेलिया	13427
dr	13428
कामि	13429
धन्व	13430
नयति	13431
##रसः	13432
##चीन	13433
##जत	13434
##गत्य	13435
##थम्	13436
##ऽस्य	13437
##फा	13438
##्यास	13439
विकृत	13440
##ामध्ये	13441
##विहीन	13442
##ष्टिः	13443
##प्रया	13444
##प्रत्या	13445
सर्वार्थ	13446
##दिः	13447
भवते	13448
अनार	13449
##ास्या	13450
सुव	13451
महतः	13452
##ोऽस्य	13453
कुसु	13454
राजस्थान	13455
##मेवेति	13456
##ध्यक्षः	13457
कृताः	13458
कृतवान	13459
##मंत्र	13460
यत्किं	13461
अधिकः	13462
विश्वतः	13463
##म्बा	13464
मनस	13465
पीत्वा	13466
पदेन	13467
##त्त्वे	13468
१०९	13469
स्पेनि	13470
##वर्ती	13471
##ृणु	13472
##ोचत्	13473
##शंस	13474
पादप	13475
१८८	13476
##टीसी	13477
निर्मिता	13478
प्रसिद्धं	13479
प्रययौ	13480
क्रोधः	13481
भरतः	13482
राज्ञो	13483
##वृद्धिः	13484
एकोन	13485
नापं	13486
##सैन्य	13487
प्रशासन	13488
ब्रिटि	13489
अतिशयेन	13490
day	13491
ःथ्द्य	13492
अर्द्ध	13493
जये	13494
भान	13495
शप	13496
सत्त्वं	13497
##पतेः	13498
##ास्त	13499
##तान	13500
##शर	13501
##शम्	13502
##शीति	13503
##कपाल	13504
##धनः	13505
##ङिति	13506
##ईं	13507
##झाव	13508
##क्ष्ये	13509
सर्वमिदं	13510
##द्धे	13511
समनु	13512
साहित	13513
##ूपं	13514
##ीयताम्	13515
उपयोक्त	13516
सम्मेल	13517
सहि	13518
दुने	13519
##ध्यान	13520
कृतवती	13521
प्राङ्	13522
##त्सवः	13523
##पुष्	13524
##काशे	13525
##दानेन	13526
##यित्व	13527
१०८	13528
##कर्तव्य	13529
असुर	13530
युद्धाय	13531
बलव	13532
दिनेश	13533
ज्ञातं	13534
##मूढ	13535
गमनं	13536
प्रवेशः	13537
सोऽहं	13538
चेतना	13539
संप्रसार	13540
समासाद्य	13541
नारीणां	13542
##पुराणे	13543
परिसन्धयः	13544
##लब्धि	13545
##ज्योति	13546
इहापि	13547
क्षिप्रं	13548
राजनीतिक	13549
sanskrit	13550
58	13551
lin	13552
mo	13553
अस्मै	13554
अचिन्त	13555
काये	13556
घृतं	13557
जञ	13558
जिते	13559
तल	13560
तस्मिं	13561
धृ	13562
पां	13563
याहि	13564
वइ	13565
वचना	13566
शेते	13567
##तल	13568
##मयी	13569
##ee	13570
##ळे	13571
##उगु	13572
प्रजन	13573
विन्य	13574
##द्ब	13575
निबन्ध	13576
सर्वासां	13577
##ानिर्	13578
समुद्ध	13579
##र्षयः	13580
सम्मेलन	13581
##तुल्य	13582
--'	13583
दुख	13584
भूर्भ	13585
लोभ	13586
लिए	13587
##हार्य	13588
##विधे	13589
द्रव	13590
सौर	13591
वाचः	13592
पादः	13593
नराः	13594
ग्रहाः	13595
पर्वतः	13596
तोयं	13597
गुरो	13598
##पर्यन्तम्	13599
ग्रामीण	13600
##दिशति	13601
पत्रकार	13602
कीदृशी	13603
बाध्यते	13604
प्रयुक्तः	13605
ज्ञेयम्	13606
one	13607
लज्जा	13608
##न्द्रियः	13609
##ack	13610
ब्रवीमि	13611
संवेदनशील	13612
आनु	13613
कहीं	13614
धाये	13615
पत्य	13616
##िषु	13617
##नक्ति	13618
##शृ	13619
##ण्यां	13620
##गताः	13621
##ड्व	13622
##१२	13623
##॑र	13624
प्रको	13625
##न्हु	13626
##त्तमं	13627
सर्वज्ञः	13628
##द्धर्म	13629
##रेः	13630
महीप	13631
##ङ्ग्	13632
##भावस्य	13633
मातः	13634
सहितं	13635
##लोकः	13636
याता	13637
करोषि	13638
क्रान्त	13639
##यिष्यन्ति	13640
दे॒	13641
जगदी	13642
त्रिंश	13643
व्यवस	13644
##दुर्ग	13645
##वाची	13646
##ेश्वरं	13647
पुंसः	13648
यज्ञो	13649
##one	13650
##तन्त्रे	13651
उभयं	13652
नैवं	13653
विपक्ष	13654
द्रष्टुम्	13655
प्रयत्नं	13656
अव्ययम्	13657
धिक्	13658
विवाहः	13659
उत्पन्न	13660
टीका	13661
हिन्दू	13662
निष्ठा	13663
निपात्यते	13664
."	13665
im	13666
mar	13667
अत्	13668
वव	13669
##पठ	13670
##वने	13671
##चरः	13672
##गतिः	13673
##19	13674
##म्स	13675
##र्वै	13676
##ामीति	13677
##त्युप	13678
परेषां	13679
नितिं	13680
भवतीत्य	13681
अनन्य	13682
##कार्यम्	13683
प्रतिज्ञ	13684
प्रतिषिध्यते	13685
यथाय	13686
##द्रव	13687
##ग्रन्	13688
##योगात्	13689
##न्मह	13690
वृत्र	13691
कार्यक्रमः	13692
जगती	13693
आवृत्ति	13694
##दुष्ट	13695
##स्पृह	13696
आहो	13697
##होत्र	13698
पूजनं	13699
अर्थस्य	13700
शुभकाम	13701
प्रयोगं	13702
सेवां	13703
##ादीन्	13704
विजयः	13705
लभन्ते	13706
##्राज	13707
क्षणेन	13708
ind	13709
##ध्वम्	13710
##बंध	13711
दुर्लभः	13712
##तिष्ठति	13713
परिचयः	13714
परोक्ष	13715
धुआं	13716
गङ्गा	13717
##psc	13718
##शून्य	13719
मध्याह्ने	13720
##भविष्यति	13721
जिज्ञास	13722
अन्ताराष्ट्रिय	13723
टेनिस	13724
download	13725
70	13726
अझ	13727
कयाः	13728
चिकीर्ष	13729
ध्वं	13730
पण्य	13731
बन	13732
हताः	13733
##छा	13734
##तय	13735
##नश्च	13736
##शम	13737
##वल्	13738
##कन	13739
##ne	13740
##अप	13741
प्रारं	13742
##त्ततः	13743
निधि	13744
##प्रकारेण	13745
संस्म	13746
संप्राप्त	13747
स्वधर्म	13748
##्रियं	13749
सम्पत्ति	13750
##द्वारं	13751
सहज	13752
##चार्यः	13753
व्याप्ति	13754
जनयति	13755
##युते	13756
विशेष्य	13757
भावो	13758
पुरुषा	13759
मिन	13760
दर्शय	13761
विवरणं	13762
##कर्मणः	13763
रक्षां	13764
शील	13765
मोदी	13766
उत्पद्यते	13767
लिखितं	13768
कल्प्यते	13769
भेदो	13770
पर्यटन	13771
२०१४	13772
चलन	13773
##ष्वपि	13774
ददातु	13775
##श्रुति	13776
##ारम्भः	13777
दुर्यो	13778
सुन्दर	13779
मुद्रण	13780
नद्याः	13781
सखी	13782
मनीषि	13783
65	13784
99	13785
असम्भव	13786
आँ	13787
कमा	13788
जाना	13789
दव	13790
दस्य	13791
यत्त्व	13792
वेण	13793
वयस्य	13794
सितम्	13795
##सात्	13796
##समाह	13797
##ील	13798
##शते	13799
##ेतः	13800
##भुः	13801
##गान्	13802
##थ्र	13803
##ile	13804
##ानीति	13805
##ितॊ	13806
विभाज	13807
##नार्थम्	13808
##विध्य	13809
##ावन	13810
निधनं	13811
##र्थानां	13812
भवत्या	13813
स्वरः	13814
स्वादि	13815
##ल्स	13816
यथाऽ	13817
##ेत्या	13818
##ोऽसौ	13819
##वार्ष	13820
##र्यम्	13821
##लिनी	13822
व्याप्य	13823
काला	13824
अन्येन	13825
लिप्यते	13826
##ज्ञानेन	13827
वेगेन	13828
बाला	13829
##वीर	13830
सामान्येन	13831
मध्यमा	13832
करिष्यते	13833
यज्ञस्य	13834
गोत्र	13835
भारतीयाः	13836
पर्वते	13837
ध्वनिः	13838
नियतं	13839
##दत्तः	13840
उदाहरणं	13841
##मारु	13842
विष्णो	13843
रोगी	13844
गिरा	13845
उदाहरणः	13846
रमते	13847
##ध्द	13848
प्रीण	13849
##स्फीति	13850
##खण्डे	13851
iso	13852
दरॊ	13853
धृत्वा	13854
##ife	13855
उद्देश्य	13856
वन्यजीव	13857
गुजरात	13858
सार्वजनिक	13859
सुष्ठु	13860
अच्छ	13861
आस्ते	13862
उरु	13863
धत्ते	13864
नहिं	13865
फले	13866
मज्ज	13867
यय	13868
सज	13869
##पयेत्	13870
##पतिं	13871
##यानं	13872
##ीकरणं	13873
##शये	13874
##४__	13875
##घन	13876
##डल	13877
प्रोच	13878
##न्नु	13879
##ायन	13880
##भिमान	13881
राहु	13882
तुर	13883
##न्दे	13884
सुगन्ध	13885
द्व्य	13886
स्थले	13887
नास्त	13888
अपरः	13889
##भ्यम्	13890
दिशं	13891
##श्रेय	13892
##श्यप	13893
##स्मृति	13894
जनान्	13895
##स्त्राणि	13896
उत्तमम्	13897
उत्तिष्ठ	13898
##यिष्ये	13899
कामान्	13900
##विशार	13901
दोषं	13902
प्राणान्	13903
2011	13904
गोल	13905
##विशेषेण	13906
निश्चितं	13907
दक्षिणेन	13908
समाप्ता	13909
दण्डं	13910
प्रशस्त	13911
स्वतन्त्रता	13912
नायकः	13913
अमेरिकी	13914
नान्यथा	13915
धावति	13916
प्रकल्पयेत्	13917
कदाचिदपि	13918
##कर्माणि	13919
सरस्वती	13920
ययययय	13921
ago	13922
राजनैतिक	13923
le	13924
आप्	13925
इम	13926
पानी	13927
म०	13928
यस्	13929
वपुः	13930
सग	13931
सशक्त	13932
##पह	13933
##पक्षः	13934
##सरण	13935
##सरो	13936
##शक	13937
##शङ्	13938
##४१	13939
##ळ्	13940
##ाद्वा	13941
एवमपि	13942
##भिष	13943
##संनि	13944
##द्यथा	13945
##ाहा	13946
कारणे	13947
किशो	13948
##तुल	13949
वैकल्प	13950
ज्ञेय	13951
विदित्वा	13952
##चिदपि	13953
क्रूर	13954
केवला	13955
##पाखें	13956
विश्वामित्र	13957
##हारि	13958
##हारी	13959
स्वागतम्	13960
दूषण	13961
द्विविधं	13962
आहु	13963
विवर्ज	13964
विद्यालयः	13965
पापानि	13966
वायुं	13967
##माहात्म	13968
##वतीं	13969
वसन्ति	13970
न्यासः	13971
विविधानि	13972
##संस्करण	13973
दृढं	13974
आचार्यः	13975
निषेव	13976
कुमारी	13977
असिद्ध	13978
कमपि	13979
गवा	13980
चित्वा	13981
जन्तु	13982
द्यः	13983
वनम्	13984
श्वास	13985
##टिका	13986
##ंस	13987
##िनाम्	13988
##लयाः	13989
##ोद्	13990
##जौ	13991
##म॒	13992
##बले	13993
##थां	13994
##ax	13995
##ानन्त	13996
विभि	13997
##स्यः	13998
##विभव	13999
##त्तत्र	14000
संग्रह	14001
भवन्त	14002
##र्तु	14003
##राया	14004
सुसं	14005
त्वमपि	14006
##स्थस्य	14007
देवैः	14008
##र्गृह	14009
##ितार्थ	14010
सहैव	14011
मुनयः	14012
तत्पर	14013
एतान्	14014
##ण्डल	14015
गुहा	14016
##पुत्रं	14017
विशेषो	14018
योगे	14019
आवयोः	14020
प्राणाः	14021
असत्य	14022
बिन्दु	14023
##हेतोः	14024
अन्वय	14025
पर्यट	14026
##न्त्येव	14027
##विधिना	14028
आवश्यकः	14029
अविद्य	14030
##दृक्	14031
प्रागेव	14032
तेजसा	14033
कर्म्मणि	14034
मन्दिरं	14035
माध्यमेन	14036
##विरोधः	14037
पार्वती	14038
नौकरियां	14039
टैगः	14040
संग्रामे	14041
))	14042
64	14043
अलि	14044
चिक	14045
तद्धि	14046
यद्ध	14047
रज्ज	14048
वाले	14049
ऽन	14050
##तॆ	14051
##कतया	14052
##फलः	14053
##ादू	14054
##कारकः	14055
इत्यमरः	14056
##स्माभि	14057
##धिना	14058
तस्यै	14059
##लोचना	14060
##ध्यः	14061
##ुपु	14062
गुड	14063
##ानुग्रह	14064
##कुण्ठ	14065
##प्यु	14066
समुत्प	14067
पदः	14068
द्विविध	14069
पृष्ठभूमि	14070
दर्शने	14071
सिद्धा	14072
##शुभं	14073
##दाहरणं	14074
वर्णनं	14075
##ीयात्	14076
प्रयोगो	14077
अद्यतन	14078
लेखाः	14079
##मवाप्	14080
##विकार	14081
##तोऽस्मि	14082
##ith	14083
शास्त्रे	14084
प्रयत्नः	14085
अगच्छ	14086
चन्द्रः	14087
वःगु	14088
तैल	14089
सदृशं	14090
नवीनतम	14091
महाबाहो	14092
कतमः	14093
चूर्ण	14094
बां	14095
बाद	14096
वॉ	14097
##ार्	14098
##मती	14099
##ue	14100
##्यर्थ	14101
विभा	14102
##क्सी	14103
##मातृ	14104
##ादो	14105
##राम्	14106
सुप्र	14107
##संहार	14108
एकाग्र	14109
द्वयो	14110
##रुं	14111
##मुवाच	14112
सम्बध्यते	14113
##र्गो	14114
अपु	14115
भूषण	14116
भारी	14117
व्याध	14118
शिल	14119
कोष्ठ	14120
काकः	14121
पृथक्त	14122
पीछे	14123
बाल्ये	14124
यदपि	14125
भगवतो	14126
वर्षेभ्यः	14127
भ्रान्त	14128
प्रियत	14129
महाबल	14130
करिष्यन्ति	14131
##कल्पना	14132
भूतकाल	14133
##ड़ी	14134
ग्रहीत	14135
##भारतस्य	14136
संख्याः	14137
प्रसिद्धा	14138
सन्देह	14139
२०१६	14140
नेवाःतय्	14141
मण्डलं	14142
चक्रं	14143
##त्कृष्ट	14144
एससी	14145
गन्तव्यं	14146
चतुर्थी	14147
पचति	14148
अपेक्षया	14149
##द्योगिक	14150
ऋषयः	14151
स्वेच्छया	14152
त्रैलोक्य	14153
पुनर्जन्म	14154
प्रकर्षेण	14155
hd	14156
अदृश्य	14157
इमानि	14158
एप्रि	14159
मम्	14160
मेव	14161
रोध	14162
ल्ह	14163
वल्	14164
##रहितः	14165
##िय	14166
##ीर्य	14167
##नन्तरं	14168
##वध	14169
##वनं	14170
##ोह	14171
##हान	14172
##bc	14173
##॒ऽ	14174
##॑त	14175
##तेर	14176
##स्तरे	14177
##स्तस्या	14178
##स्तम्भ	14179
##विदो	14180
##ालम्ब	14181
##निरोध	14182
प्रतिवर्ष	14183
##ेतद	14184
##ेतां	14185
महाद्व	14186
##रुणा	14187
मास्तु	14188
अपूर्ण	14189
##चारं	14190
यत्नः	14191
ग्रा	14192
##पराम	14193
करोतीति	14194
अभिभाषण	14195
##युत	14196
लिङ्	14197
विश्वसि	14198
द्रष्टा	14199
##ञ्जलिः	14200
कामयते	14201
सिद्धिं	14202
रक्षिता	14203
औरत	14204
असति	14205
पश्यन्	14206
घटते	14207
वस्तुतस्तु	14208
##कराः	14209
##नमस्ति	14210
शत्रून्	14211
पशूनां	14212
##विशेषे	14213
लक्षयति	14214
इच्छसि	14215
रामो	14216
सम्बन्धित	14217
ग्रहाणां	14218
इन्द्रो	14219
नियमेन	14220
हरिं	14221
##त्प्रसाद	14222
अथापि	14223
भवितव्य	14224
सम्भवतः	14225
विक्री	14226
कुर्य्यात्	14227
रसायन	14228
युधिष्ठिर	14229
गुरुवार	14230
अघ	14231
कण	14232
दासी	14233
नई	14234
पक	14235
बला	14236
र्व	14237
ल्य	14238
##ूनाम्	14239
##िरे	14240
##शेन	14241
##कश्च	14242
##कान्त	14243
##जित	14244
##मभ	14245
##गाह	14246
##ace	14247
प्रक्षाल	14248
##्यात	14249
विचिन्त्य	14250
##न्मात्र	14251
##मात्रा	14252
##माचरेत्	14253
पुलि	14254
एवै	14255
##श्चर्यं	14256
अन्यं	14257
##ुरुप	14258
##गुणे	14259
##प्त्वा	14260
##ग्ना	14261
वैदेश	14262
समाः	14263
स्तर	14264
##र्ध्वं	14265
##युक्ताः	14266
पुत्रपौत्र	14267
लिपा	14268
##समीप	14269
पुरुषाः	14270
मिथः	14271
दर्शितं	14272
##गमने	14273
##शुल्क	14274
##कीर्त्त	14275
##धीनां	14276
करणम्	14277
पुस्तकम्	14278
अमेरि	14279
मातापित	14280
##ick	14281
मदन	14282
नारदः	14283
##बीजं	14284
चलति	14285
सन्धिः	14286
##ash	14287
कर्णा	14288
ब्रूयात्	14289
##लोपे	14290
नवीनं	14291
##वाक्ये	14292
निशम्य	14293
सूर्ये	14294
अवकाशः	14295
इतेि	14296
उ॒	14297
ऋते	14298
छाय्	14299
तेषा	14300
नवे	14301
पह	14302
यायेत	14303
रथे	14304
हतो	14305
##ंत	14306
##शून	14307
##13	14308
##ya	14309
##te	14310
##ौषध	14311
##ढे	14312
##स्योप	14313
##विद्व	14314
संय	14315
##दिनम्	14316
विशा	14317
##रुचि	14318
श्रीर	14319
##मुत्पाद	14320
##क्रमाः	14321
दुहित	14322
अनुष्ठ	14323
गुणं	14324
अवधि	14325
##त्मक	14326
विषम	14327
क्रू	14328
कार्यम	14329
##देहं	14330
##दानम्	14331
##क्षेपः	14332
वेध	14333
दीक्ष	14334
जाया	14335
रुक्	14336
##वृत्ते	14337
विद्यालयस्य	14338
प्रथमम्	14339
##ेश्वरम्	14340
वृद्धा	14341
()?	14342
क्रीडति	14343
नीतिः	14344
##द्भक्त	14345
##मार्गं	14346
##हीना	14347
स्यान्न	14348
##कूलं	14349
उद्यम	14350
विद्वान	14351
प्रीत्या	14352
बुधः	14353
उत्पत्ति	14354
पुरस्कृत्य	14355
आरोग्य	14356
कल्याणं	14357
तद्धित	14358
अध्यापकः	14359
आगतवान्	14360
##माध्यमेन	14361
75	14362
>#	14363
अका	14364
अश्र	14365
आरा	14366
कत्र्त	14367
गोच	14368
तच	14369
दधाति	14370
यानं	14371
वञ्च	14372
##पया	14373
##सरा	14374
##लक्ष्य	14375
##केव	14376
##जर	14377
##हतः	14378
##धाम	14379
##खी	14380
##ts	14381
##ces	14382
प्रपद्यते	14383
##्याणां	14384
##त्रिंश	14385
##र्वे	14386
##प्रबन्ध	14387
संधि	14388
##दिनः	14389
स्वकर्म	14390
राति	14391
तुम्ह	14392
##ैवा	14393
इत्यस्माद्	14394
##त्याग	14395
स्थलं	14396
एतयोः	14397
एतस्याः	14398
अनुदात्त	14399
##लोका	14400
##ित्येव	14401
अवसर	14402
पुनर्वि	14403
याज	14404
स्मरणं	14405
प्रवास	14406
अभिने	14407
##ञ्जते	14408
सामान्यतया	14409
वृद्धौ	14410
प्रियम्	14411
११०	14412
गोविन्द	14413
##स्त्विति	14414
गणेश	14415
साक्षाद	14416
##गणाः	14417
प्रभावं	14418
तीक्ष्ण	14419
##कारणात्	14420
मिथु	14421
समाजस्य	14422
विधानतः	14423
सायंकाले	14424
दौर्	14425
हवामहे	14426
डोमेन	14427
##पुरुषे	14428
##पृथक्	14429
अनिवार्य	14430
आन्तरिक	14431
-)	14432
500	14433
आद्य	14434
इनि	14435
एक्	14436
नवा	14437
पृश	14438
मीन	14439
माला	14440
वदि	14441
वक्ति	14442
हनि	14443
हन्य	14444
##रितः	14445
##्स	14446
##श्यते	14447
##ेक्ष्य	14448
##ज्याःगु	14449
##मर्श	14450
##्रु	14451
विपा	14452
विग्रह	14453
##ेने	14454
निरव	14455
##दिनानि	14456
द्वयं	14457
##ोऽभि	14458
##ोऽभवत्	14459
उपायः	14460
राजान	14461
##त्वात्त	14462
पात्रं	14463
##स्रोत	14464
जगाद	14465
रूप्यक	14466
दिव्या	14467
वेष्ट	14468
गुणान्	14469
बालक	14470
दर्शितम्	14471
यदृ	14472
भारतदेशे	14473
##____	14474
##सहित	14475
जलस्य	14476
.......	14477
प्रश्नं	14478
धनानि	14479
शक्ता	14480
बलेन	14481
तमहं	14482
भावि	14483
##ित्यादिना	14484
##धर्मस्य	14485
विस्तारः	14486
##ह्यति	14487
संप्रवक्ष्यामि	14488
कर्त्तव्य	14489
##विंशतिः	14490
खोजः	14491
ताम्र	14492
प्रविशन्ति	14493
धीमहि	14494
अन्तरिक्षे	14495
क्षमता	14496
हन्तुं	14497
शृग	14498
pie	14499
{*	14500
अये	14501
एफ	14502
गर	14503
गीयते	14504
नक्ष	14505
नीत	14506
पन	14507
मदी	14508
रेण	14509
वट	14510
वसू	14511
ष्य	14512
सख्य	14513
हरः	14514
##सात	14515
##ुका	14516
##शात्	14517
##ैस्	14518
##मधि	14519
##३२	14520
##ितत्वात्	14521
##न्न्	14522
##तेज	14523
पराप्त	14524
##ावर्त	14525
संर	14526
##र्थकम्	14527
##दाति	14528
##द्धः	14529
स्वेद	14530
##राद्	14531
रात्रे	14532
तुला	14533
##ज्ञानि	14534
साभार	14535
##मानानां	14536
##ान्तम्	14537
देवेन	14538
##ङ्गो	14539
एतैः	14540
##स्मिन	14541
##ीतय्	14542
##ानामा	14543
##न्द्रो	14544
अभिगमन	14545
शाब्द	14546
शक्यो	14547
रक्षित	14548
वक्त्र	14549
##ब्धः	14550
##ath	14551
शरीरस्य	14552
क्रियायाः	14553
सूर्य्य	14554
भेदेन	14555
हस्तं	14556
शीघ्रमेव	14557
विहितं	14558
कुत्रचित्	14559
गोपाल	14560
##ाम्यहं	14561
##निष्ठा	14562
श्रवणं	14563
वृषभ	14564
व्यापारः	14565
नपुंस	14566
आशीर्व	14567
##ेत्यादिना	14568
##श्लेष	14569
प्रौढ	14570
हितकाम्यया	14571
em	14572
अय्	14573
अस्ती	14574
अकुर्वन्	14575
उदासी	14576
ग्व	14577
गणः	14578
तोष	14579
नेद	14580
यण	14581
सभ्य	14582
##रक	14583
##दह	14584
##दादि	14585
##दारु	14586
##शैल	14587
##ैरि	14588
##मेष	14589
##au	14590
##ऽयं	14591
##ारूढ	14592
##िकरं	14593
##विनिर्म	14594
##ष्टाः	14595
पुना	14596
##प्रकृत	14597
समस्तं	14598
##रिष्यति	14599
सुनिश्च	14600
##ाणे	14601
##तीरे	14602
पूवं	14603
यथावद	14604
##स्थानां	14605
##भवन	14606
मायाम	14607
व्यर्थ	14608
स्तुत	14609
##स्वामि	14610
कृतज्ञ	14611
व्याख्य	14612
केचिद्	14613
##पर्यं	14614
##हारो	14615
##विधाय	14616
सुखिनः	14617
दशवर्ष	14618
##त्परः	14619
##ात्मना	14620
##भेदो	14621
संशयो	14622
नगरी	14623
बुद्धिं	14624
##गुणैः	14625
सरला	14626
मित्रम्	14627
##फलानि	14628
निराम	14629
विभुः	14630
नीत्वा	14631
195	14632
तत्तत्	14633
##विकि	14634
रोहि	14635
##स्टम	14636
न्यायेन	14637
ख्यातं	14638
विक्रय	14639
श्रूयतां	14640
भौति	14641
विरुद्धं	14642
श्रोतुं	14643
अवश्यम्	14644
##भृतां	14645
भृशं	14646
कोविड्	14647
भूर्भुवः	14648
ht	14649
आक्रमण	14650
काः	14651
चू	14652
द्या	14653
भयाव	14654
यक्व	14655
सप्र	14656
सभी	14657
##पाणि	14658
##सुः	14659
##नयन	14660
##श्या	14661
##णेषु	14662
##थ्या	14663
##ect	14664
##स्तरां	14665
##प्रकरण	14666
##प्रथम	14667
##प्रकरणम्	14668
स्मः	14669
##ापे	14670
##ान्ना	14671
##येदिति	14672
समारोह	14673
##नेना	14674
हिमव	14675
##ङ्गस्य	14676
तथाऽपि	14677
भूतेषु	14678
बहून्	14679
##शिष्य	14680
केना	14681
##भाषाया	14682
##क्षिप	14683
देशय्	14684
##भाक्	14685
२०००	14686
दक्षिणो	14687
##ध्यात्	14688
##पूर्वक	14689
घटा	14690
##ance	14691
धनस्य	14692
बिचाः	14693
बलम्	14694
##वर्णं	14695
निश्चयेन	14696
वरानने	14697
##प्रिया	14698
##प्रियं	14699
२०११	14700
व्याख्यास्यामः	14701
##पेक्षते	14702
प्रोत्साह	14703
##प्रभृत	14704
अग्नेः	14705
श्रोतु	14706
विद्युत्	14707
मुद्रास्फीति	14708
गावः	14709
उपयुज्यते	14710
आवाहयामि	14711
अपहरण	14712
##भिप्रायेण	14713
द्वादशा	14714
गुमनाम	14715
wor	14716
अप्राप्त	14717
खन	14718
गरि	14719
घ्र	14720
धमा	14721
धीः	14722
नख	14723
पर्	14724
पढ़	14725
मत्त	14726
मेद	14727
मृत्त	14728
लता	14729
वयाः	14730
##ूद	14731
##सल	14732
##लू	14733
##ोक	14734
##बार	14735
##थ्य	14736
##ानभि	14737
##स्पद	14738
##नामि	14739
अनौ	14740
##ातीति	14741
##ागम	14742
##त्वान्न	14743
##मान्य	14744
##ङ्ग्रे	14745
सहितः	14746
तत्कथ	14747
समासे	14748
##ण्डं	14749
प्रवेष्ट	14750
पुत्रान्	14751
जगत्प	14752
विधिं	14753
१०३	14754
शाखा	14755
पिशा	14756
जुहु	14757
क्रियताम्	14758
वक्तुम्	14759
११८	14760
मुक्तिं	14761
यथेष्ट	14762
##डियन	14763
शिवे	14764
नियमो	14765
उदाहृतः	14766
उदेति	14767
विनिश्च	14768
समानः	14769
स्फोट	14770
हंसः	14771
सञ्चिका	14772
निगद्यते	14773
##दिवसः	14774
कठिन	14775
##च्युत	14776
मोदते	14777
रयिं	14778
सितम्बर	14779
.:	14780
आर्त	14781
उठ	14782
जानु	14783
तयाः	14784
बन्द	14785
माद	14786
वादि	14787
वदे	14788
सभास	14789
##ूषा	14790
##िमा	14791
##शां	14792
##शुर	14793
##ेर्	14794
##ोत्पाद	14795
##जेत्	14796
##हण	14797
##ऽह	14798
##ांतर	14799
##स्येव	14800
##स्तद्	14801
##न्तरा	14802
##क्षयं	14803
संश्र	14804
##मिदम्	14805
भवत्	14806
##ृत्वे	14807
##र्णः	14808
महाय	14809
महत्त	14810
##मुनि	14811
उपाध	14812
कुट	14813
##नीगु	14814
समाया	14815
भूः	14816
##रूपाणि	14817
##ण्डरी	14818
भाषिक	14819
##पुटः	14820
तिर्य	14821
##सुन्द	14822
##दीगु	14823
त्रिः	14824
त्रिविध	14825
##हारेण	14826
##दृशं	14827
स्पष्टं	14828
विविक्त	14829
जुष	14830
##वाच्य	14831
पश्यसि	14832
प्रश्नो	14833
वस्तुनि	14834
नित्ये	14835
पशून्	14836
सेवते	14837
मृता	14838
भार्ग	14839
लक्षं	14840
##बलेन	14841
वामं	14842
वर्गे	14843
##्वःगु	14844
इतस्ततः	14845
##पुत्रो	14846
द्रष्टु	14847
विनिर्म	14848
पतितं	14849
गौः	14850
##ज्ञातं	14851
गायत्र	14852
स्त्रियं	14853
धीमता	14854
संवत्सर	14855
आङ्ग्लभाषायां	14856
उल्लेख	14857
नूतनं	14858
प्रातिपदिक	14859
दिष्ट्या	14860
द्यावापृथिवी	14861
दुर्घटना	14862
90	14863
]/	14864
boo	14865
mn	14866
अब्रवीत्	14867
ठक्	14868
मघ	14869
वरो	14870
वइगु	14871
हृष्ट	14872
##सक्त	14873
##सचिव	14874
##द्यं	14875
##लष	14876
##श्वास	14877
##चोद	14878
##मतम्	14879
##ऽसौ	14880
##्यापि	14881
##मागतः	14882
##िकर	14883
##थाय्	14884
##ेवम्	14885
##ष्टादश	14886
##कारम्	14887
प्रतिगृह्य	14888
यथाकालं	14889
यथातथ	14890
##ाहिक	14891
इत्येक	14892
महाद	14893
##द्वादश	14894
##प्तो	14895
क्षुध	14896
##कृष्य	14897
वैय	14898
मुहु	14899
दुरात्म	14900
##स्विनः	14901
विदितं	14902
##ोषण	14903
##लेः	14904
अधिकृत्य	14905
कार्	14906
निवस	14907
##जातः	14908
##व्याख्या	14909
##न्वयः	14910
##वीर्य	14911
घटे	14912
##ब्रू	14913
कुर्याद	14914
शिवा	14915
वीरः	14916
सुराः	14917
दत्तः	14918
विषयेषु	14919
##मांस	14920
##ादेशस्य	14921
उद्दिश्य	14922
विप्रा	14923
हरति	14924
२०१२	14925
०१०	14926
##कारिणी	14927
##कौश	14928
स्पष्टम्	14929
##मिच्छसि	14930
नोपपद्यते	14931
क्षुधा	14932
##वादिनः	14933
म्हि	14934
##मानुष	14935
##माप्नुयात्	14936
प्रदूष	14937
निष्कास	14938
विदुषां	14939
ग्रन्था	14940
कृत्रिम	14941
चुनाव	14942
व्यावहारिक	14943
[...	14944
एहि	14945
करः	14946
चक	14947
चान	14948
टाप्	14949
तालि	14950
पङ्क	14951
रतिः	14952
हानं	14953
हीयते	14954
##तत्त्वं	14955
##षये	14956
##वन्	14957
##वरः	14958
##वस्त्र	14959
##वश्यं	14960
##भयोः	14961
##हता	14962
##हतं	14963
##मभ्य	14964
##धम	14965
##घे	14966
##pr	14967
##्यैव	14968
##र्चित	14969
विष्ट	14970
परव	14971
##प्रसार	14972
##निष्ट	14973
भवत्व	14974
##च्छसि	14975
##मानसः	14976
त्वरित	14977
##गुणम्	14978
राज्यम्	14979
सहल	14980
##योग्यं	14981
समाधानं	14982
दुकान	14983
वर्षाणां	14984
प्राज्ञ	14985
##न्त्रं	14986
##ानाधिकरण	14987
##पदां	14988
सामु	14989
त्रिविधं	14990
##कुट	14991
संस्प	14992
##पेक्ष्य	14993
श्रुतौ	14994
वेदाः	14995
स्थाप्य	14996
##स्पृश	14997
भगवत्	14998
रक्षो	14999
##मुखो	15000
##indi	15001
हृदया	15002
##पालः	15003
प्रसज्येत	15004
##तन्त्रं	15005
स्थापयित्वा	15006
शतके	15007
उच्चारण	15008
##मवाप्नोति	15009
गमने	15010
निवेदयेत्	15011
दानेन	15012
##शालायां	15013
निवेशयेत्	15014
लब्धं	15015
यौवन	15016
श्रोत्र	15017
द्वाभ्यां	15018
निरीक्ष	15019
##ानुवाद	15020
प्रशंसा	15021
वय्कःया	15022
द्रोण	15023
category	15024
तस्वीर	15025
do	15026
अह्	15027
अञ्ज	15028
करं	15029
चात	15030
दइ	15031
नोद	15032
भरे	15033
माष	15034
यन्तु	15035
रिव	15036
रश्मि	15037
ऽथ	15038
##तथा	15039
##नुः	15040
##वृष्ट	15041
##महो	15042
##धीय	15043
##li	15044
##्यानां	15045
प्रबुद्ध	15046
##ारम	15047
विध्य	15048
विग्रहः	15049
##यार्थ	15050
##स्तार	15051
##नाद्	15052
##त्यर्थ	15053
##ावु	15054
##प्रतीति	15055
संभ	15056
स्वभावः	15057
समेत	15058
सुता	15059
##संसर्ग	15060
##द्योत	15061
त्वे	15062
##ोऽह	15063
##द्वारे	15064
वैश्य	15065
एतदपि	15066
##न्नरः	15067
##श्रमं	15068
व्याख्ये	15069
##लेखा	15070
दृष्टवान्	15071
जीवन्ति	15072
##वेष्ट	15073
##पातेन	15074
##ोक्तिः	15075
साम्राज्य	15076
##ाराध	15077
मनसो	15078
##समां	15079
सप्ता	15080
द्रौ	15081
सोमा	15082
कीट	15083
पिछ	15084
##णीयं	15085
वायुम	15086
मध्यमः	15087
मासः	15088
१८९	15089
क्षेत्रः	15090
बाह्ये	15091
भक्तानां	15092
भोजनम्	15093
मैत्र	15094
बुद्धिमान्	15095
##रुपेण	15096
पूरयत	15097
##सागरे	15098
##काङ्क्षा	15099
भूमिका	15100
##iki	15101
सेनां	15102
वन्दे	15103
->	15104
ं८	15105
अरण्य	15106
इड	15107
इन्ध	15108
उन	15109
तस्मान्न	15110
धने	15111
पट्ट	15112
बर्हि	15113
मायां	15114
युर	15115
##सर्	15116
##दशः	15117
##िन्य	15118
##लयम्	15119
##च्येत	15120
##ोन	15121
##मतां	15122
##ौघ	15123
##ानाय	15124
##र्देव	15125
प्रारूप	15126
विघ्	15127
##ष्णि	15128
परत्र	15129
संद	15130
वाऽपि	15131
##ातृ	15132
##च्छब्द	15133
यथासंभव	15134
##में	15135
##ोऽन	15136
मुहुः	15137
तदभावे	15138
भूमेः	15139
बहव	15140
##श्म	15141
##पद्येत	15142
अधिकम्	15143
##ामिह	15144
कोड	15145
पुत्राणां	15146
##देहि	15147
पुरुषे	15148
पुरुषेण	15149
##ोग्य	15150
##यितुम	15151
पीपी	15152
निर्गुण	15153
१०७	15154
१०५	15155
विद्यार्थी	15156
##पूर्वः	15157
मध्यमं	15158
पाठे	15159
2010	15160
##ज्ञातः	15161
##ज्ञाता	15162
यूरो	15163
##भूतानि	15164
##चरति	15165
##चर्या	15166
न्यायः	15167
मन्त्रः	15168
##दत्तं	15169
##ेष्वेव	15170
परम्पर	15171
अक्षय	15172
##ग्नौ	15173
स्वतन्त्रः	15174
सागरे	15175
मौन	15176
शस्त्रं	15177
2009	15178
##रेकेण	15179
##सिंहः	15180
पटलः	15181
##fff	15182
##ुराणे	15183
पितॄन्	15184
सदस्यःः	15185
तुम्हारे	15186
उत्थाय	15187
[...]	15188
("	15189
[।	15190
he	15191
nar	15192
आठ	15193
आसम्	15194
उfff	15195
नर्त	15196
नीयते	15197
नष्टं	15198
मुं	15199
सनि	15200
##िद	15201
##लङ्कार	15202
##किः	15203
##णोः	15204
##भीत	15205
##जनो	15206
##हस्ते	15207
##मर्हति	15208
##मब्रवीत्	15209
##ख्	15210
##बाद	15211
##ust	15212
##एफ	15213
##ऊं	15214
##ित्री	15215
प्रसंस्करण	15216
##ाद्यं	15217
पर्यु	15218
निमन्त्र	15219
पुचः	15220
सर्वकार्येषु	15221
##दिष्टा	15222
भवन्तं	15223
स्वया	15224
##संकल्प	15225
##र्षण	15226
राजभाषा	15227
##ण्ट्	15228
परिपक्व	15229
##ोपचार	15230
अवधिः	15231
##र्जा	15232
##श्लोक	15233
तवां	15234
दृष्ट्या	15235
देशेषु	15236
##पाते	15237
##म्बू	15238
##समीपे	15239
भावार्थः	15240
##प्युप	15241
##ज्यत	15242
समुदाह	15243
दर्शनात्	15244
योगेन	15245
##सिद्धये	15246
मांसं	15247
##ेश्वरस्य	15248
##गृह्ण	15249
पूर्णा	15250
समीची	15251
##दृष्टं	15252
प्रणय	15253
##मित्यत	15254
नुद	15255
केशव	15256
2008	15257
सभाप	15258
अनन्तरम्	15259
दास्यामि	15260
रावण	15261
ध्येय	15262
दारिद्र्य	15263
सर्वेषामेव	15264
खनेदु	15265
आभासी	15266
,,	15267
उन्	15268
ऊं	15269
च्वं	15270
चान्ये	15271
मारी	15272
यदेव	15273
रीति	15274
ल्	15275
लै	15276
लट्	15277
वाद्य	15278
सन्दि	15279
हारी	15280
##रसं	15281
##तले	15282
##कक्ष	15283
##ोनि	15284
##मतो	15285
##गन	15286
##फ्त	15287
##॒ता	15288
##१९	15289
##अं	15290
##क्कं	15291
##ेवि	15292
##विप्र	15293
नियु	15294
संन्या	15295
तुरी	15296
##नेत	15297
##नेत्र	15298
##मानौ	15299
##िवे	15300
महतां	15301
समाख्या	15302
पूर्वम	15303
##लाया	15304
दिसम्ब	15305
##र्धधातु	15306
अन्यस्य	15307
ग्रे	15308
कार्य्यं	15309
अभिमान	15310
##ोदये	15311
आवर्त	15312
मानवा	15313
सत्यमेव	15314
मुक्ता	15315
पुरस्त	15316
##वारे	15317
समुद्रस्य	15318
इत्युक्तः	15319
इतना	15320
##हेतवः	15321
विप्राः	15322
विस्तीर्ण	15323
ग्रामं	15324
अष्टौ	15325
##व्रता	15326
##गीष	15327
सम्पर्क	15328
नमोऽस्तु	15329
##भीष्ट	15330
कर्तव्यो	15331
मरुतो	15332
नायक	15333
##वर्गः	15334
गमिष्यति	15335
रक्षणे	15336
##काङ्क्ष	15337
स्पर्धा	15338
##परायणः	15339
बोधिसत्त्व	15340
बहुव्रीहिः	15341
video	15342
स्पेनिश	15343
say	15344
ऊर्द्ध	15345
चायं	15346
नमामि	15347
ब्	15348
वच्	15349
शशा	15350
श्येन	15351
हूं	15352
##सत्ता	15353
##वौ	15354
##कमेव	15355
##काव्य	15356
##ैर्वा	15357
##गम्	15358
##्यादौ	15359
##ांशः	15360
विक्रम	15361
निषेधः	15362
##निन्द	15363
सर्वदैव	15364
भवा	15365
स्मा	15366
समस्य	15367
रागः	15368
सुध	15369
##ाही	15370
##र्णा	15371
##ोऽयम	15372
उपेक्ष	15373
क्षमः	15374
मार्क	15375
##सीः	15376
परिशिष्ट	15377
व्यज्यते	15378
अप्य्	15379
तिस्रो	15380
__2	15381
स्वाह	15382
##सिद्धान्त	15383
शाक	15384
##ात्मने	15385
##हाति	15386
उक्ता	15387
जातानि	15388
पुरू	15389
किमर्थ	15390
##ोत्तरे	15391
कौतूह	15392
वाराण	15393
समुद्री	15394
पारम्	15395
##मूलं	15396
विशिष्टं	15397
अष्टम	15398
शिक्षक	15399
प्रयासः	15400
##राज्यम्	15401
वीर्यं	15402
गृह्णी	15403
संसदि	15404
शुक्रः	15405
किञ्चिद	15406
शङ्का	15407
##शङ्क्याह	15408
प्राधान्यं	15409
कौशल	15410
क्लिक्	15411
भृगु	15412
निबोधत	15413
घण्टा	15414
गान	15415
गया	15416
गतेषु	15417
दँ	15418
नभः	15419
पङ्	15420
सकार	15421
साप्त	15422
हः	15423
हल्	15424
##शाय	15425
##चिं	15426
##मितः	15427
##धरो	15428
##ॊर	15429
##१७	15430
##एन	15431
##॑स्य	15432
##ितर	15433
प्रमाद	15434
प्रताप	15435
##ावयव	15436
##र्थकः	15437
##दाई	15438
##भिर्वि	15439
सम्रा	15440
##ल्फ	15441
इत्येष	15442
##ात्प्र	15443
##मेर	15444
##मेते	15445
##नुं	15446
##मुद्य	15447
उपलभ्य	15448
##र्ग्र	15449
कथितो	15450
##वाक्	15451
##ग्नं	15452
##ग्नी	15453
##र्यु	15454
##नीम्	15455
अप्व	15456
पूर्वो	15457
वर्षः	15458
##लोभ	15459
##श्वस्य	15460
##ान्यथा	15461
भाषते	15462
विषयो	15463
अभियान	15464
उत्तीर्ण	15465
##प्यति	15466
पुरुषार्थ	15467
पितरो	15468
पिष्ट	15469
##णीयः	15470
##ैकादश	15471
लोकसभा	15472
मनुज	15473
यज्ञेन	15474
##साधने	15475
सेयं	15476
##न्निति	15477
तोय	15478
मृत्यो	15479
इत्युक्तं	15480
पर्यवे	15481
तद्वद	15482
##बिन्द	15483
##वसरे	15484
##थें	15485
चलचित्र	15486
##पत्रम्	15487
##चित्तु	15488
वार्त्त	15489
विकिपीडियाः	15490
भरत	15491
##प्रामाण	15492
क्षमस्व	15493
##विरोधि	15494
गावो	15495
सीतां	15496
शकुन्त	15497
66	15498
bl	15499
sl	15500
इर	15501
खा	15502
रेत	15503
रजः	15504
##ृक्ष	15505
##लम्भ	15506
##शीत	15507
##चां	15508
##४०	15509
##ैर्ज	15510
##ैको	15511
##ैरिति	15512
##गात्	15513
##र्के	15514
##ितव्यम्	15515
##न्तस्य	15516
##क्ष्वा	15517
##त्येवं	15518
##ावती	15519
समो	15520
समक्षं	15521
समृद्धि	15522
##रियं	15523
प्रतिज्ञां	15524
सुचि	15525
एकवचन	15526
##रीः	15527
सहकार	15528
कृच्छ्र	15529
तदेवं	15530
##ुद्धं	15531
##लोचन	15532
कृती	15533
पाञ्च	15534
##धिकम्	15535
##ान्य्	15536
भाषापा	15537
कार्यविधि	15538
##मोच	15539
##ध्येत	15540
भविष्यत्	15541
बहुभिः	15542
बहुविध	15543
दर्शनम्	15544
उक्ते	15545
##ीर्यते	15546
प्रजां	15547
वर्णानां	15548
मनुष्याः	15549
११७	15550
##हिताय	15551
निरन्तर	15552
स्थापितः	15553
रामेण	15554
पर्व्व	15555
चैवं	15556
दक्षिणतः	15557
तत्ते	15558
विभागे	15559
विस्तृत	15560
अध्यात्म	15561
भोजने	15562
षष्ठे	15563
##मन्त्रेण	15564
##ree	15565
धीरः	15566
अश्वः	15567
परमेश्वरि	15568
##ज्झ	15569
अभ्यासः	15570
बहिर	15571
वंगु	15572
शाश्वतः	15573
##संबन्धः	15574
भेस	15575
उपाधि	15576
शिरसि	15577
नारायण	15578
##श्रवण	15579
अर्जुन	15580
प्रतिगृह्यताम्	15581
अपश्यत्	15582
प्राप्नोत्	15583
अपर्याप्त	15584
-*	15585
गह	15586
धरा	15587
फला	15588
फट्	15589
बनाम	15590
मर्म	15591
रूढ	15592
ल्यु	15593
हुं	15594
हत्या	15595
##तायै	15596
##लिका	15597
##वीति	15598
##वायु	15599
##जनि	15600
##जलं	15601
##जित्	15602
##ळी	15603
##र्द्र	15604
##ितव्यं	15605
प्रष्ट	15606
प्रकुर्व	15607
##न्तेन	15608
परॊ	15609
##योर्व	15610
##योश्च	15611
##योरु	15612
##ागतं	15613
प्रतिषिद्ध	15614
सुते	15615
यथापूर्वं	15616
##द्युम्	15617
##ाहो	15618
##मुच्च	15619
##भावाद	15620
कियत्	15621
##साई	15622
राजानः	15623
##वाञ्छ	15624
तदप	15625
वर्षसहस्र	15626
दिशा	15627
व्याज	15628
जनकः	15629
सिर	15630
##सुतः	15631
देशो	15632
अभिलाष	15633
##वादे	15634
##यिष्या	15635
भावेन	15636
बहुना	15637
##सूक्त	15638
पिहां	15639
जातिः	15640
आहत्य	15641
विद्यात्	15642
पठि	15643
यद्य्	15644
यद्यत्	15645
प्रथमतः	15646
प्रजात	15647
##पालन	15648
करिष्या	15649
शत्रुं	15650
पशवः	15651
स्थानेषु	15652
##त्वेना	15653
समुद्रं	15654
क्षेत्रज्ञ	15655
लघुक	15656
ग्रामः	15657
गुरुत्वा	15658
भवेदिति	15659
विविधं	15660
##नगरं	15661
सृष्टिः	15662
इंडियन	15663
गन्धर्व	15664
गायति	15665
##र्भवन्ति	15666
poem	15667
२०७५	15668
शय्या	15669
व्याघ्रः	15670
जनार्दन	15671
आसीत	15672
भाषापाकः	15673
72	15674
man	15675
ph	15676
sk	15677
ऋ०	15678
खरी	15679
चण्ड	15680
नराणां	15681
पेन	15682
पिं	15683
बधा	15684
भरा	15685
भानु	15686
मतु	15687
यद्वि	15688
सपत्	15689
ऽव	15690
##पयति	15691
##समास	15692
##यथा	15693
##ुण	15694
##हरः	15695
##मङ्ग	15696
##मव्य	15697
##ख्यो	15698
##ial	15699
प्रकरणे	15700
विवि	15701
##नाथः	15702
##क्तुं	15703
##ायन्ते	15704
##ावस	15705
##ावृत्त	15706
संतु	15707
वाङ्	15708
समन	15709
त्वदीयं	15710
##स्थ्य	15711
सम्प्राप्त	15712
किमिदं	15713
##क्रे	15714
तदानी	15715
##श्वं	15716
अथर्व	15717
##पूर्त	15718
अवधारणा	15719
पुनःपुनः	15720
कार्येषु	15721
निवसति	15722
##क्यम्	15723
दे॒व	15724
पुरुषाणां	15725
श्रुता	15726
##दृशः	15727
##विश्वा	15728
##भेदाः	15729
उक्ताः	15730
.....	15731
हृदयेन	15732
प्रश्ने	15733
##ong	15734
##मन्यते	15735
प्रकाशन	15736
##दायकः	15737
इदानीम	15738
विद्यमानं	15739
विजयं	15740
उदय	15741
पर्युप	15742
दूरस्थ	15743
चन्द्रमा	15744
सकला	15745
चरति	15746
दिनाङ्क	15747
प्रदीयते	15748
निगद	15749
कथयस्व	15750
कृष्णा	15751
गेहे	15752
##स्रोतः	15753
जैन	15754
पोषण	15755
##सङ्कल्प	15756
जन्मान्त	15757
##मुद्दिश्य	15758
वासुदेव	15759
ऐतिहासिक	15760
गम्भीर	15761
कर्णाटक	15762
life	15763
अर्हसि	15764
एल	15765
कोऽयं	15766
गर्ह	15767
गानाः	15768
छो	15769
तर्ज	15770
थन	15771
थज्याःगु	15772
मात्	15773
सूप	15774
सतो	15775
##यमान	15776
##दुर	15777
##कुर	15778
##जाग	15779
##हस्तं	15780
##मृतं	15781
##गणा	15782
##ds	15783
##र्कं	15784
##म्हं	15785
##्याप	15786
विवादः	15787
##मात्मा	15788
##ादर्श	15789
##प्रदेशस्य	15790
##मिसं	15791
सर्वधर्म	15792
##ङ्कारः	15793
##संत	15794
सापि	15795
##च्छु	15796
एकवारं	15797
उपाद	15798
##देशेषु	15799
कथया	15800
अपमान	15801
तत्राह	15802
पाट	15803
##च्चित्र	15804
##धिकाः	15805
##प्सु	15806
गृहेषु	15807
##पादं	15808
शिथि	15809
##समर्थ	15810
##प्य्	15811
श्रुते	15812
व्यवस्थित	15813
पठितम्	15814
फलेषु	15815
##कर्मणा	15816
##ध्यायं	15817
सत्यपि	15818
##र्भु	15819
##साधु	15820
युक्ता	15821
नित्यशः	15822
प्रधाना	15823
194	15824
पश्चा	15825
भक्तिः	15826
##शास्त्रम्	15827
सङ्घट	15828
##edia	15829
अनिश्च	15830
संवर्ध	15831
परमेश्वरम्	15832
यायेमाः	15833
स्मर्यते	15834
बहुवचन	15835
art	15836
पार्थिवः	15837
सभायां	15838
##did	15839
प्राधान्येन	15840
शिष्यः	15841
अवश्यमेव	15842
णिच्	15843
##सम्पादन	15844
##प्रयत्नेन	15845
हूँ	15846
शताब्द	15847
राशिः	15848
मिलियन	15849
type	15850
दिसम्बर	15851
62	15852
इङ्ग्ल	15853
एह	15854
कस्याः	15855
गाः	15856
थथे	15857
थें	15858
न्व	15859
नद्या	15860
पीय	15861
पल्ल	15862
बस	15863
मस्ति	15864
र्य	15865
लाव	15866
शॊ	15867
शनि	15868
##ाभ्या	15869
##शस्य	15870
##शनं	15871
##कदा	15872
##कमिति	15873
##च्वः	15874
##भान	15875
##मर्थं	15876
##गत्या	15877
##ठ्	15878
##अब्	15879
##झे	15880
प्रान्त	15881
##त्न	15882
##ांशं	15883
विनिर्	15884
##स्तरीय	15885
##त्तरे	15886
##ावय	15887
##प्रयुक्त	15888
##निर्वा	15889
सर्वकारेण	15890
##तापि	15891
##ान्दो	15892
##राण	15893
##ानिव	15894
##ात्व	15895
त्वः	15896
महामु	15897
उपकार	15898
मेधा	15899
यत्प्र	15900
##र्जितं	15901
##त्मनः	15902
##पादे	15903
शिष्या	15904
तिङ	15905
इत्याद्य	15906
१९०	15907
मानसिक	15908
क्रियमाण	15909
परमेश	15910
पूर्णः	15911
समीक्ष्य	15912
कल्पित	15913
मूलतः	15914
##ान्वितम्	15915
१८६	15916
वचो	15917
स्वप्नं	15918
चित्रम्	15919
सूत्रस्य	15920
##शास्त्रस्य	15921
समानम्	15922
निवेद्य	15923
##पत्राणि	15924
तृप्त	15925
##षीणां	15926
कैके	15927
पृष्टवान्	15928
अनेका	15929
अनेकाः	15930
विनाशाय	15931
##फ्ट	15932
वांछ	15933
##नियमः	15934
इतीदं	15935
अग्नी	15936
##पुरुषा	15937
धेहि	15938
ip	15939
अस्थि	15940
कल्	15941
ङ्	15942
भयात्	15943
भर्त्त	15944
र्म	15945
ह्व	15946
हते	15947
##रन्ति	15948
##सते	15949
##िणां	15950
##तैव	15951
##लै	15952
##लास	15953
##नये	15954
##शयं	15955
##वधि	15956
##कश	15957
##मर्द	15958
##मखु	15959
##धरा	15960
##थेन	15961
##॑य	15962
प्रदोष	15963
प्रपद्ये	15964
विभाष	15965
##ेनो	15966
##क्त्वा	15967
परित्या	15968
##ष्टुप्	15969
पुणे	15970
##दाया	15971
##दिं	15972
भवनं	15973
##ापू	15974
अनुरूप	15975
##रिक्ष	15976
महद्	15977
एकां	15978
##ोऽति	15979
##मुद्ध	15980
क्षणा	15981
सहयोग	15982
सूचित	15983
एतत्ते	15984
##ित्यत्र	15985
##धिकरणं	15986
##कालो	15987
##कालात्	15988
##ान्यत्र	15989
##बन्धं	15990
क्रतु	15991
##समूह	15992
##रम्भ	15993
पृथु	15994
कामना	15995
पाप्	15996
##ेश्वरो	15997
भ्रा	15998
प्रतीक्षते	15999
भाषायाः	16000
यजते	16001
##वृक्षे	16002
राममोह	16003
##शतैरपि	16004
##ेऽहं	16005
ईश्वरं	16006
निर्मितम्	16007
पवन	16008
२०१९	16009
सतत	16010
निवृत्तिः	16011
जीवा	16012
##लम्ब्य	16013
संस्थया	16014
निवेश्य	16015
##पृष्ठे	16016
षड्व	16017
अभिप्रायः	16018
इदानीमपि	16019
विश्वविद्यालये	16020
चेदपि	16021
रावणः	16022
सामर्थ्य	16023
app	16024
जुलै	16025
वातावरण	16026
क्रयविक्र	16027
श्रेयो	16028
गुणवत्ता	16029
आफ्	16030
चर्म	16031
चयन	16032
झट	16033
तयोर	16034
बली	16035
बध्	16036
रजो	16037
लप्	16038
वश्य	16039
वशे	16040
##रज	16041
##रते	16042
##समो	16043
##षम	16044
##वधार	16045
##कन्या	16046
##भीर	16047
##मनेन	16048
##गरं	16049
प्रबोध	16050
##त्कर्ष	16051
##मार्ज	16052
##ष्टस्य	16053
##्यंति	16054
##ातीत	16055
##ान्त्य	16056
##स्थलं	16057
##स्थिर	16058
सहस	16059
##लायाः	16060
ज्ञाता	16061
पात्रे	16062
विदध	16063
प्रत्यव	16064
गृहस्य	16065
##भाष्ये	16066
##करणस्य	16067
क्रु	16068
क्रान्ति	16069
निवसन्ति	16070
सप्ताहं	16071
कामो	16072
बालिकाः	16073
भगवन्तं	16074
कुर्वते	16075
जानकी	16076
वर्ण्यते	16077
##साधनम्	16078
पुरस्तात्	16079
युद्धम्	16080
स्थापित	16081
इदमपि	16082
##ादीनाम्	16083
क्रीडन्ति	16084
##विकास	16085
पश्चात्त	16086
लाभे	16087
क्षणिक	16088
द्रष्टव्यः	16089
प्रमाणेन	16090
विशिष्टा	16091
पौर्ण	16092
##दुःखं	16093
सांप्र	16094
कृष्णस्य	16095
प्रतिदिनम्	16096
धियो	16097
##स्तावे	16098
अनुकूलता	16099
न्हि	16100
##निरपेक्ष	16101
प्रतिषेधो	16102
##थुइ	16103
यौवने	16104
रघु	16105
विन्दति	16106
##विवर्जितः	16107
ग्लानि	16108
##धुंकाः	16109
ख्रीष्टा	16110
कस्मिंश्चित्	16111
वैवस्व	16112
सनातन	16113
राघवः	16114
##परामर्श	16115
mon	16116
जया	16117
जवा	16118
जज्ञे	16119
ठञ्	16120
तेव	16121
नकार	16122
भवि	16123
रञ्ज	16124
हसति	16125
ऽसि	16126
##ूबर	16127
##सवर्ण	16128
##तव	16129
##कायां	16130
##७१	16131
##हृत	16132
##गतिं	16133
##र्भाव	16134
##र्लि	16135
##र्नाम	16136
प्रसि	16137
##न्तीं	16138
##विधिक	16139
##त्तरा	16140
##ावरण	16141
नियाम	16142
निसर्ग	16143
##मिन्द्र	16144
##दिषु	16145
##भिर्न	16146
##संहित	16147
सामा	16148
यथाकामं	16149
##र्गं	16150
किन	16151
मेरा	16152
##ितायाः	16153
##ग्रस्त	16154
##न्यतर	16155
सूक्ष्मा	16156
##चित्य	16157
ज्ञाति	16158
पाच	16159
केचिद	16160
##धिके	16161
##चिह्	16162
कर्मसु	16163
##ख्याति	16164
दृष्ट्व	16165
##दानी	16166
पदवी	16167
साध्यं	16168
##सम्भाषणम्	16169
१०४	16170
दर्शितः	16171
योगदानं	16172
यदहं	16173
##शीला	16174
स्थातुं	16175
रेस्तरां	16176
पञ्चाश	16177
##धेयम्	16178
क्रियन्ते	16179
ततस्ते	16180
उत्प्र	16181
वक्तु	16182
धनुः	16183
प्रकाशितम्	16184
पादे	16185
दिनेषु	16186
##दूषण	16187
कृतार्थ	16188
##सन्धिः	16189
शीतलं	16190
सम्भवन्ति	16191
वार्ताल	16192
अंत	16193
स्मरति	16194
stud	16195
आश्रय	16196
पिबेत्	16197
गन्तव्य	16198
##क्षेत्रम्	16199
##हस्तेन	16200
##view	16201
सुवर्णं	16202
किञ्चिद्	16203
##सूत्रेण	16204
प्रमुखः	16205
वस्त्रं	16206
क्षीण	16207
##ध्यायस्य	16208
समन्तात्	16209
माधव	16210
ष्ठ	16211
उपयुज्य	16212
68	16213
ll	16214
love	16215
tw	16216
आशु	16217
आमन्त्र	16218
उचितं	16219
औप	16220
जाण	16221
टक्के	16222
थी	16223
दाने	16224
धूप	16225
ब्या	16226
मये	16227
लृ	16228
ल्या	16229
वाला	16230
सच्च	16231
हलः	16232
##ूँ	16233
##यान्	16234
##वेष	16235
##भोक्त	16236
##जयः	16237
##गणः	16238
##gle	16239
##फी	16240
##१०	16241
##ानित्य	16242
##स्यसे	16243
##क्षितं	16244
##िकल	16245
##विपर्य	16246
परात्	16247
पुष्य	16248
##द्धुं	16249
##ापु	16250
##श्चेत्	16251
##भिलाष	16252
सुधा	16253
कारये	16254
महेश्वरः	16255
##मेत्य	16256
##ङ्गम	16257
##काया	16258
किमी	16259
पूर्वस्य	16260
##लाभं	16261
प्रव्र	16262
##पाति	16263
भविष्यवाणी	16264
पीते	16265
##सूत्रं	16266
कदाचिद्	16267
##कर्तुम्	16268
मूले	16269
पश्यत	16270
प्रियो	16271
नवं	16272
मध्यमे	16273
खःसा	16274
##वासः	16275
यथान्या	16276
##टिल	16277
दीर्घो	16278
##शेषेण	16279
सूत्राणि	16280
##पराध	16281
मैसू	16282
न्हूगु	16283
प्रतिष्ठितम्	16284
ग्राह्यं	16285
स्थिरा	16286
प्रतिपाद्यते	16287
##कारिणः	16288
प्राग्व	16289
मातृभाषा	16290
##---	16291
२०७४	16292
२०७६	16293
पृच्छामि	16294
उल्लिख	16295
निद्रां	16296
सलिलं	16297
##पार्श्वे	16298
##ेण्ड्	16299
oldid	16300
तूष्णीं	16301
अतोऽ	16302
कायः	16303
दम	16304
नयेत्	16305
पीव	16306
मरणे	16307
रथा	16308
षि	16309
सास	16310
सेतु	16311
ह्	16312
##पम्	16313
##पित्र	16314
##सोः	16315
##दनं	16316
##ृत्	16317
##नद	16318
##कवि	16319
##ैरु	16320
##ैर्द	16321
##हत्	16322
##मतिः	16323
##॒म	16324
##१८	16325
##32	16326
##qu	16327
##्यॊ	16328
विलक्षण	16329
##तेव	16330
##स्तस्मा	16331
##क्षयः	16332
##नामपि	16333
##ादृष्ट	16334
संभाष	16335
##ृतीय	16336
समर्था	16337
##ुक्तिः	16338
##ाहार	16339
##ीयमान	16340
##भवो	16341
##मुं	16342
##द्वैत	16343
##त्यादिना	16344
परिच्छेद	16345
व्यत्य	16346
##भूतम	16347
भूगोल	16348
##ण्डि	16349
अन्यानि	16350
तवैव	16351
##पराः	16352
देशी	16353
क्रमे	16354
जीवो	16355
जीवस्य	16356
जगद्	16357
द्रुत	16358
साध्यते	16359
##मीडिया	16360
स्थावर	16361
भगवति	16362
##र्भविष्यति	16363
लिखितम्	16364
तमसो	16365
यजमानः	16366
##सौभाग्य	16367
क्षेत्रस्य	16368
##नाम्ना	16369
गुरुं	16370
##ेष्व्	16371
महिलाः	16372
पालन	16373
##भेदात्	16374
निःसं	16375
पौर	16376
प्रतिष्ठाप	16377
बन्धुः	16378
##ध्वनि	16379
व्यक्तित्व	16380
न्यवेद	16381
धाता	16382
२००९	16383
त्यजति	16384
भद्रे	16385
लागिं	16386
कुर्युः	16387
##कर्ण्य	16388
भुक्त्वा	16389
निपाति	16390
आंग्ल	16391
सलिल	16392
प्रारब्ध	16393
##ुरोधेन	16394
##निर्माणं	16395
अस्पताल	16396
स्वकीयं	16397
तिरस्	16398
खोजषब्द	16399
प्रादेशिक	16400
ऑनलाइन	16401
cm	16402
min	16403
इमाः	16404
कान्	16405
जित्वा	16406
तेष	16407
माः	16408
रक्षि	16409
वरण	16410
सापेक्ष	16411
##िप	16412
##वेत	16413
##कया	16414
##कमपि	16415
##बहि	16416
##ro	16417
प्रदु	16418
प्रमुच्यते	16419
##माणां	16420
##मास्थाय	16421
##स्तथ	16422
##स्ना	16423
##स्सु	16424
##नासिक	16425
##क्तो	16426
##ायण	16427
परित्र	16428
##प्रो	16429
संक्रमण	16430
सर्वस्व	16431
##ताड	16432
##ङ्कु	16433
##भिरु	16434
##्येत्	16435
प्रतिपत्त	16436
##ल्स्	16437
##त्वान्	16438
त्विति	16439
कारयति	16440
विशां	16441
##ब्धे	16442
##भवत	16443
##भवन्ति	16444
##ोऽयम्	16445
उपधा	16446
##ृशं	16447
##वाँ	16448
कृत्यं	16449
व्यस	16450
नाड	16451
नास्त्य	16452
##नीयो	16453
स्तौति	16454
##णापि	16455
##भूमौ	16456
##ीतम्	16457
##पदानां	16458
##ानुमान	16459
जनानाम्	16460
##स्त्रिंश	16461
अभिषे	16462
प्राप्तवती	16463
विश्वरूप	16464
पुरुषोत्तम	16465
बहुलं	16466
समुचित	16467
पदानां	16468
१०६	16469
##दर्शना	16470
अतिशय	16471
##ात्मनि	16472
भारतदेशस्य	16473
रुधि	16474
##शुल्	16475
##ध्यापक	16476
असत्	16477
हृदयम्	16478
लेख्य	16479
प्रसन्नः	16480
रिज	16481
यजेत	16482
स्थापयति	16483
##यामहे	16484
सहस्रा	16485
अद्यत्वे	16486
समुद्रः	16487
लेखनम्	16488
विज्ञात	16489
विज्ञेयः	16490
साक्षरता	16491
लघुः	16492
प्रवर्तन्ते	16493
उदार	16494
भारतीयानां	16495
साहसं	16496
##भारत	16497
##ाग्नी	16498
विविधाः	16499
##पक्षस्य	16500
लुप्त	16501
चेतसा	16502
ब्रूते	16503
महोदया	16504
समासतः	16505
राज्ञे	16506
##पुराण	16507
##ारूपेण	16508
काव्ये	16509
परमात्मनः	16510
एवमुक्त्वा	16511
##प्रतिषेधेन	16512
##ब्रुवन्	16513
स्वनिगः	16514
सान्त्व	16515
98	16516
blog	16517
आज्य	16518
उच्य	16519
जट	16520
तैर	16521
प्य	16522
मः	16523
मत्तः	16524
यज्ज	16525
रिक	16526
वहे	16527
सान	16528
सस्म	16529
सख्या	16530
सस्ते	16531
हीति	16532
##पर्ण	16533
##ाई	16534
##लीं	16535
##नय्	16536
##कास	16537
##भयो	16538
##ध्वे	16539
##धत्ते	16540
##गमा	16541
##tc	16542
##॒य	16543
##ug	16544
##॑न	16545
##याँ	16546
##ामुप	16547
पु॒	16548
##मिः	16549
सर्ववि	16550
##दिवं	16551
वाप्य	16552
##ज्ञानां	16553
##रिष्यामि	16554
सुकृतं	16555
##च्छन्ति	16556
त्वय	16557
##ीयानि	16558
##ान्ताः	16559
##ङ्गि	16560
वैध	16561
वैया	16562
तदुक्तम्	16563
##लाभः	16564
##श्रया	16565
व्यासः	16566
कर्तृत्व	16567
##श्न	16568
अन्यतमः	16569
##त्मकं	16570
अन्तर्भवन्ति	16571
##जाता	16572
त्रिक	16573
त्रयं	16574
चाक्षु	16575
स्थायी	16576
भारतवर्ष	16577
चतुर्द	16578
प्राणी	16579
क्रियमाणे	16580
यावता	16581
घटो	16582
अर्थम्	16583
पुरतो	16584
१८५	16585
सीद	16586
दत्तम्	16587
##all	16588
##दूरे	16589
##वानसि	16590
लाभं	16591
##पुरे	16592
मुख्यः	16593
प्रचक्षते	16594
वाक्येन	16595
आवश्यकं	16596
प्रत्याह	16597
चरितं	16598
##मूल्य	16599
मात्राः	16600
त्वामेव	16601
वक्ष्यमाण	16602
##वशात्	16603
shlok	16604
##ube	16605
सिन्धु	16606
क्वचिदपि	16607
व्याचष्टे	16608
गर्भवती	16609
मन्त्रिपरिषद्	16610
);	16611
77	16612
per	16613
page	16614
अकाल	16615
अनाम	16616
आप्त	16617
ओबीसी	16618
काण्ड	16619
छन्दो	16620
तदिति	16621
तस्वी	16622
पृत	16623
पेय	16624
पक्व	16625
मॊ	16626
रत	16627
रोप	16628
लङ्	16629
हितः	16630
##रस्ति	16631
##िह	16632
##ल्व	16633
##शया	16634
##हेन	16635
##मश्नुते	16636
##गाम	16637
##ld	16638
##ितमिति	16639
##्याश्च	16640
##स्तर्हि	16641
##त्येन	16642
##त्ती	16643
##प्रदेशः	16644
संगण	16645
##ाल्ल	16646
##ालयस्य	16647
##निति	16648
##दिग्	16649
##ेशो	16650
स्वादु	16651
स्वगृहं	16652
##भिचार	16653
##ागार	16654
##न्दं	16655
##साक्षि	16656
कथयामास	16657
नार्थ	16658
समासेन	16659
अपः	16660
अनुमति	16661
प्राविश	16662
##धानः	16663
प्रत्युप	16664
क्रिके	16665
##िकाया	16666
##रुषः	16667
##कुत्	16668
कथंचन	16669
##सारेण	16670
श्रुत्या	16671
द्विजात	16672
योगिनः	16673
##रवं	16674
##र्घ्य	16675
##र्पणं	16676
गच्छेत्	16677
ततस्तु	16678
मनुष्ये	16679
प्रश्नस्य	16680
स्थापयेत्	16681
रामं	16682
नृणाम्	16683
सम्बन्धो	16684
चिन्तयेत्	16685
दीर्घकाल	16686
पर्वता	16687
हस्तः	16688
स्वीक्रियते	16689
विकल्पो	16690
एकाधिक	16691
##जीवने	16692
प्रयोजयेत्	16693
##icle	16694
##ग्धं	16695
##त्तिष्ठ	16696
मैथि	16697
उद्यान	16698
अव्ययी	16699
मण्डलस्य	16700
गार्ह	16701
##मण्डलं	16702
तद्योग	16703
##बाधा	16704
पिबन्ति	16705
##वाक्येन	16706
खँय्	16707
सुन्दरं	16708
सुन्दरः	16709
विचक्षणः	16710
सात्व	16711
क्षमताः	16712
##प्रसङ्गात्	16713
मनोरथ	16714
जानीमः	16715
मेदिनी	16716
यानाच्वंगु	16717
सन्दर्भः	16718
हविर्	16719
सैनिकाः	16720
यूपीएससी	16721
कृत्स्नं	16722
शारीर	16723
अक्टो	16724
##राचरम्	16725
##दुर्लभ	16726
प्रारंभ	16727
बधाई	16728
69	16729
ev	16730
अद्	16731
इस्र	16732
उर्व	16733
उक्थ	16734
ओम्	16735
गई	16736
पॉ	16737
मानि	16738
मशी	16739
लब्धा	16740
वेष	16741
शपथ	16742
षष्टि	16743
सदेव	16744
सन्तो	16745
##पाव	16746
##यश	16747
##ंअ	16748
##नस	16749
##षष्ट	16750
##वित्र	16751
##ैकः	16752
##जन्ति	16753
##॒तः	16754
##्यनु	16755
प्रकरणं	16756
##्यापार	16757
##स्को	16758
##िकु	16759
##प्रवृत्ति	16760
संब	16761
संख्ये	16762
##्वाह	16763
##योर्वि	16764
##द्धो	16765
स्वम्	16766
अन्वि	16767
समार	16768
समयो	16769
##संस	16770
पूरण	16771
इत्यर्थ	16772
एकता	16773
देवान	16774
##ेण्ड	16775
किरण	16776
##देशेन	16777
क्षणम्	16778
परिहरति	16779
व्यतिरिक्त	16780
नाशः	16781
तत्पुरुष	16782
तदीय	16783
अनुसन्धान	16784
##स्वाद	16785
##स्वरः	16786
##श्राद्ध	16787
##ादिभ्यः	16788
नामकः	16789
यत्नं	16790
##करणः	16791
प्राप्तौ	16792
##जनस्य	16793
##सारः	16794
सप्तमः	16795
##ष्णो	16796
पीड़	16797
निर्दिश्यते	16798
दशलक्ष	16799
##परिमाण	16800
तस्मात्त	16801
वेदानां	16802
##कर्तव्यं	16803
##मुखम्	16804
भ्रष्ट	16805
शीलं	16806
वस्तुनः	16807
युक्तो	16808
##प्रत्यये	16809
##चरितं	16810
दीर्घं	16811
##दृष्टिः	16812
नीलं	16813
धारयति	16814
वरद	16815
भक्तिं	16816
शीघ्रम्	16817
निर्मितमस्ति	16818
भुञ्जीत	16819
शुद्धि	16820
धातवः	16821
सिंहस्य	16822
महिमा	16823
##र्त्ति	16824
ज्योतिर्	16825
ग्रन्थे	16826
आकाशः	16827
##iss	16828
संभवतः	16829
##गच्छन्ति	16830
नृत्यं	16831
कृषकः	16832
नौका	16833
नदीं	16834
लॊके	16835
परिषद्	16836
भोक्ता	16837
विधिवत्	16838
परमेष्ठ	16839
सुप्रभातम्	16840
##पार्श्व	16841
viii	16842
प्रचोदयात्	16843
पूवंक	16844
av	16845
mp	16846
name	16847
sm	16848
अवा	16849
ज्याय	16850
तच्छ्रुत्वा	16851
बध्यते	16852
मयाः	16853
लयं	16854
वध्य	16855
वल्लभ	16856
शरव	16857
ित	16858
##रथः	16859
##ूम	16860
##पल	16861
##यनम्	16862
##दधाति	16863
##ृम्भ	16864
##ीतः	16865
##कादि	16866
##चरे	16867
##चर्य	16868
##ैर्ह	16869
##hab	16870
प्रमे	16871
प्रदान	16872
##िकृत	16873
##िकैः	16874
सर्वप्रथ	16875
##दिल	16876
##राक्ष	16877
##भिसं	16878
##ुरपि	16879
##ेद्व	16880
महत	16881
देवानाम्	16882
##नुष्ठ	16883
उपग्रह	16884
##ञ्चति	16885
समाय	16886
##भ्योऽ	16887
अनुभवः	16888
पूर्वत्र	16889
अवधार	16890
नामतः	16891
##शियन	16892
##भागेन	16893
वृक्षा	16894
येऽ	16895
##वेक्ष्य	16896
लिटि	16897
2000	16898
चिद्	16899
##सारे	16900
साधना	16901
साधनम्	16902
काम्य	16903
आगतम्	16904
##किल	16905
##र्दूल	16906
##र्थात्	16907
लेभे	16908
युक्त्या	16909
आरभ्यते	16910
नृपति	16911
प्रोक्ताः	16912
कौरव	16913
दुर्भि	16914
##शेषे	16915
ईश्वरो	16916
##दत्ते	16917
कमलः	16918
अभितः	16919
शुद्धः	16920
##प्रिये	16921
वाक्यार्थ	16922
गौर	16923
##भिरेव	16924
भवितव्यं	16925
गाथा	16926
कर्त्तव्यम्	16927
२००६	16928
##मण्डलम्	16929
एतदर्थं	16930
निवर्तन्ते	16931
अमेरिकाया	16932
विवाहे	16933
गन्धं	16934
एसटी	16935
##चेतसः	16936
त्यजेत्	16937
यन्त्रं	16938
सम्भावना	16939
निर्माणम्	16940
ष्ट	16941
वणिक्	16942
अन्योन्य	16943
गुजरा	16944
वास्तविक	16945
सौभाग्यं	16946
शरुत्वा	16947
पानीयं	16948
="	16949
jul	16950
so	16951
अदि	16952
अन्ना	16953
एनम्	16954
कवी	16955
कर्हि	16956
जयं	16957
टाइ	16958
दॆ	16959
फ्रे	16960
म्रिय	16961
रहः	16962
शर्व	16963
सवे	16964
सारं	16965
सन्त्य	16966
सत्यां	16967
##ूच	16968
##ूर्ति	16969
##पीत	16970
##पथं	16971
##सया	16972
##यर्	16973
##नमेव	16974
##वाम	16975
##ह्यते	16976
##मिता	16977
##ram	16978
##ितपुस्तक	16979
##मासा	16980
##मायाः	16981
##ावान्	16982
निभ	16983
सर्वकारस्य	16984
स्वये	16985
राह	16986
सुदु	16987
हिन	16988
पूजन	16989
##च्छाया	16990
इत्यभिधीयते	16991
त्वद्	16992
देवय	16993
##मुत्तर	16994
उपसङ्ख्य	16995
##स्याऽ	16996
##न्धि	16997
##देशीय	16998
भूकम्प	16999
##श्रमे	17000
##र्धेन	17001
##भागो	17002
##न्द्रितः	17003
जीविते	17004
पुत्रि	17005
##पार्थ	17006
##देवताः	17007
सामानाधिकरण	17008
साध्व	17009
त्राहि	17010
बालो	17011
चतुष्ट	17012
आगताः	17013
##पूर्णं	17014
......	17015
पूजयित्वा	17016
शत्रवः	17017
आत्मनो	17018
शोभा	17019
इन्द्रं	17020
इन्द्रस्य	17021
वनवास	17022
##मूर्	17023
साहस	17024
पक्षस्य	17025
मदीय	17026
तीर्थं	17027
##विधानम्	17028
भीतः	17029
कर्णः	17030
तादृशी	17031
कर्त्तुं	17032
प्रीतिः	17033
कुशलः	17034
चत्वारो	17035
off	17036
जपेत्	17037
pro	17038
कुर्याद्	17039
see	17040
नद्यां	17041
आम्र	17042
चीना	17043
व्यतिरे	17044
##संयुतम्	17045
नेपाःया	17046
पश्येत्	17047
साक्षाद्	17048
विरुध्यते	17049
मार्च्	17050
रुग्ण	17051
नपुंसकलिङ्ग	17052
गुरुत्वाकर्षण	17053
61	17054
67	17055
अर्क	17056
अरुण	17057
कह	17058
डु	17059
ड्र	17060
दहति	17061
दथुइ	17062
नद्य	17063
पन्न	17064
पच्यते	17065
बृ	17066
बरा	17067
माना	17068
रुद्ध	17069
वत	17070
##पानं	17071
##पथे	17072
##सत्व	17073
##यस	17074
##ाधि	17075
##ीतं	17076
##निकः	17077
##क्वः	17078
##भये	17079
##मीयते	17080
##धने	17081
##गर्ह	17082
##ॊद	17083
##॑ष	17084
##उप	17085
##न्तां	17086
##विष्ठ	17087
##विष्टा	17088
परन्त	17089
##तार्थ	17090
अनं	17091
प्रतिरोध	17092
प्रतिक्रिया	17093
##ल्बि	17094
कारः	17095
महद	17096
उपासते	17097
कुछ	17098
सम्पुटः	17099
कथितम्	17100
परिसमा	17101
वैकुण्ठ	17102
समाप्य	17103
समागतः	17104
##लाम्	17105
##लोड	17106
कृत्या	17107
##कृतौ	17108
##कृतां	17109
##श्लि	17110
##त्मनि	17111
##ान्यो	17112
##युक्तेन	17113
##परित्या	17114
काठ	17115
शुष्क	17116
उत्तराणि	17117
बालाः	17118
##दर्शनेन	17119
स्पन्द	17120
रक्षितः	17121
प्राणायाम	17122
सदस्याः	17123
पूर्णम्	17124
##वर्षा	17125
करौ	17126
प्रश्नाः	17127
##माहु	17128
##गतस्य	17129
ह्ययं	17130
प्रेरणा	17131
राज्यानि	17132
मृगा	17133
तमसा	17134
वृत्तिं	17135
विजि	17136
हस्ता	17137
##बलम्	17138
विपण	17139
विज्ञेयं	17140
स्वीकार	17141
परमात्	17142
निर्मितं	17143
निर्मीत	17144
प्रार्थयते	17145
श्ले	17146
सैन्यं	17147
गौतम	17148
अङ्गस्य	17149
प्राप्यन्ते	17150
धिया	17151
मानुषं	17152
वह्निः	17153
प्रियतम	17154
एतादृशः	17155
अन्तरिक्षं	17156
विराट	17157
समन्वितः	17158
पाकिस्थान	17159
कांग्रे	17160
##प्रमाणेन	17161
संगीत	17162
यात्रां	17163
पयसा	17164
जनार्दनः	17165
प्यार	17166
जिज्ञासा	17167
धूम्र	17168
विपुलं	17169
प्रकीर्तितः	17170
किलोमी	17171
##लोचनः	17172
ऐश्वर्य	17173
पार्टी	17174
याज्ञवल्	17175
अपृच्छत्	17176
विद्वांसः	17177
##चिकित्सा	17178
मीमां	17179
पेट्रो	17180
अन्तर्राष्ट्रिय	17181
गरीयसी	17182
म्हिगः	17183
88	17184
ac	17185
date	17186
sam	17187
अली	17188
उद्व	17189
औद्योगिक	17190
कब	17191
चुर	17192
चातु	17193
जठ	17194
जग्म	17195
पानं	17196
शन	17197
सकर्म	17198
##िष्यते	17199
##लान्	17200
##वात्	17201
##चक्षते	17202
##चत्वार	17203
##ञः	17204
##धात्	17205
##गान	17206
##az	17207
##30	17208
##स्तन	17209
##त्तमा	17210
##ावान	17211
निर्य	17212
##प्रदा	17213
संवृत्त	17214
सर्वसं	17215
भवन्तीति	17216
##ेताः	17217
इत्यतो	17218
##तोष	17219
एकाद	17220
##मुदी	17221
उपर	17222
सम्मिल	17223
किति	17224
##द्विव	17225
राजस्व	17226
##द्रे	17227
सूच्यते	17228
स्त्रिय	17229
##णार्थ	17230
अपत्य	17231
##ण्डले	17232
##श्रितः	17233
##श्यन्ति	17234
प्रत्ययाः	17235
व्याख्यानं	17236
##लेप	17237
वृश्च	17238
अभिनन्द	17239
पुत्रौ	17240
विश्वानि	17241
##कुम्भ	17242
विशेषणं	17243
##ग्रहो	17244
विनाय	17245
उक्तो	17246
##वर्तत	17247
यद्यहं	17248
##क्ष्यन्ति	17249
असमान	17250
११६	17251
##र्चा	17252
भिक्षा	17253
प्रकाश्यते	17254
##करोमि	17255
##ल्लङ्घ	17256
ब्रह्मण	17257
##ेऽप्य	17258
एकाकि	17259
##स्थापना	17260
उद्घोष	17261
##पुत्रस्य	17262
श्लोके	17263
विकिमीडिया	17264
##पृथिव	17265
##मेतद	17266
ग्रामस्य	17267
view	17268
गृहीतः	17269
##्यामहे	17270
कूर्म	17271
मयैव	17272
उभयत्र	17273
किञ्चिदपि	17274
##सुखम्	17275
आशयः	17276
##निश्चयः	17277
क्षीरं	17278
यादव	17279
अवसरः	17280
छायाचित्र	17281
परस्मैपद	17282
क्रुद्धः	17283
झीगु	17284
##स्वप्न	17285
थुकिं	17286
संहितायां	17287
::	17288
असह	17289
आधिक	17290
उदी	17291
कश	17292
काप	17293
चेदं	17294
रसं	17295
लू	17296
##वतो	17297
##खर	17298
##ta	17299
##घर	17300
##्वलय्	17301
विक्षेप	17302
##िकानि	17303
##क्तम्	17304
##विष्टो	17305
परदेश	17306
निस्	17307
संप्राप्ते	17308
##निवर्त	17309
प्रतिभूति	17310
सुझाव	17311
##त्वाय	17312
पूर्त	17313
##मेका	17314
क्षमां	17315
परिदृश्य	17316
तत्सं	17317
समादाय	17318
##स्वः	17319
भूति	17320
##ध्ययनं	17321
भारं	17322
##पादः	17323
शिब	17324
##ानुबन्ध	17325
##पुत्रा	17326
##देवा	17327
##देवी	17328
##कुसु	17329
भविष्यतः	17330
##्यायै	17331
शब्दानां	17332
##गमय	17333
##श्चिन्त	17334
अस्मासु	17335
शीतो	17336
मोहं	17337
सामान्यतो	17338
नवम	17339
बिभ्र	17340
भिन्ना	17341
भिन्नः	17342
##गुणो	17343
१२३	17344
##णामपि	17345
मृषा	17346
नित्यमेव	17347
##बलात्	17348
करणीया	17349
प्रणाल	17350
स्वप्नो	17351
प्रविष्टा	17352
वनस्पति	17353
तपोध	17354
योजयेत्	17355
मद्यं	17356
अगर	17357
पश्चिमा	17358
पत्राणि	17359
##दोषं	17360
मंत्रि	17361
धीरो	17362
०११	17363
२००७	17364
व्यवहारे	17365
नेपालभाषा	17366
प्रकटी	17367
स्वरूपम्	17368
दातव्यं	17369
शयने	17370
युष्मद	17371
संघर्ष	17372
##ैश्वर्यं	17373
##जन्मनि	17374
द्रुतं	17375
छेँ	17376
सर्वदेवानां	17377
महासाग	17378
करवाणि	17379
जर्मनी	17380
भीमसेन	17381
##शताब्द	17382
##सञ्ज्ञा	17383
अग्रिम	17384
दबाव	17385
ध्यानाकर्षण	17386
उपसङ्ख्यानम्	17387
cr	17388
part	17389
अफ्	17390
आसमां	17391
इमम्	17392
ओली	17393
कच	17394
गरी	17395
गोः	17396
चं	17397
जग्राह	17398
नरं	17399
फी	17400
बिं	17401
मख	17402
मॆ	17403
मपि	17404
लण्ड	17405
वोच	17406
शुरु	17407
षा	17408
५००	17409
##लने	17410
##ीश्व	17411
##वसाय	17412
##कुं	17413
##क्रियां	17414
##जान्	17415
##मसं	17416
##मैः	17417
##मग्नि	17418
##ञि	17419
##बान्ध	17420
##man	17421
##ऽति	17422
##ure	17423
##fin	17424
##र्च्च	17425
प्रच्छ	17426
##स्तृ	17427
##स्तत	17428
##विमान	17429
परैः	17430
पुच	17431
##प्रमाणं	17432
##र्थि	17433
वासो	17434
एवोप	17435
##र्ते	17436
स्वकं	17437
स्वगृह	17438
##श्चन	17439
##यंति	17440
##्रियाः	17441
##ल्गु	17442
##द्यपि	17443
एकैकं	17444
द्वारे	17445
उपनिष	17446
##स्याव	17447
##काे	17448
राजकीय	17449
##द्रव्यं	17450
##योगस्य	17451
वैद्यः	17452
तत्कथं	17453
एतत्स	17454
##भ्यर्च्य	17455
##चिते	17456
एवंविध	17457
पार्ट	17458
पुनर्य	17459
##भाषाः	17460
अन्यैः	17461
अन्यच्च	17462
कर्मधार	17463
जनताया	17464
सि०	17465
काञ्च	17466
काश्मी	17467
##युतः	17468
##युता	17469
##देहे	17470
भावी	17471
दूतः	17472
श्रुणु	17473
त्रु	17474
दशमे	17475
##सूया	17476
##ज्जन	17477
स्त्रीषु	17478
आगमिष्यति	17479
गच्छतु	17480
वायुर	17481
मुक्तो	17482
##्मनि	17483
प्रकाशयति	17484
मित्रे	17485
##भूतस्य	17486
##भूतानां	17487
##न्निव	17488
शिवाय	17489
होमः	17490
विभ्र	17491
उपयोगिता	17492
सुरूप	17493
अद्यत	17494
प्रधानम्	17495
लेखा	17496
स्वर्गलोके	17497
स्वप्नः	17498
##जीवन	17499
##सर्वकारस्य	17500
कमलं	17501
रोगः	17502
पृथक्पृथक्	17503
बाधा	17504
दृढ़	17505
न्यसेत्	17506
पतन्ति	17507
२००४	17508
रजत	17509
##ार्त्त	17510
##पन्नम्	17511
छन्दः	17512
शब्दात्	17513
रक्षणाय	17514
लीला	17515
प्ला	17516
##संयुतः	17517
##प्रश्न	17518
न्ह्यसः	17519
जुयाच्वंगु	17520
##सम्बद्धाः	17521
ऋग्वेद	17522
घृतेन	17523
मर्यादा	17524
##मृत्यु	17525
युरोप	17526
आनी	17527
आलोक	17528
आकारः	17529
गोद	17530
छं	17531
जाम	17532
जज्ञ	17533
तह	17534
दिं	17535
फा	17536
बर्ह	17537
बारे	17538
भजे	17539
मदा	17540
रंग	17541
लेन	17542
वज	17543
वनाः	17544
वाल्	17545
सिक	17546
सद्ग	17547
##रहितं	17548
##यैः	17549
##ृषि	17550
##लत	17551
##ीष	17552
##नते	17553
##क़	17554
##कवच	17555
##भते	17556
##ज्ये	17557
##गां	17558
##yle	17559
##ix	17560
##ॊः	17561
##५२	17562
प्रभाग	17563
##न्ड	17564
##प्रम	17565
##प्रीति	17566
एवाह	17567
##ापूर्व	17568
अनभि	17569
##भिधाय	17570
##ज्ञैः	17571
##रेखा	17572
##िवर्ष	17573
##तोप	17574
कुली	17575
##काश्च	17576
किसान	17577
माँ	17578
##द्रः	17579
परिचार	17580
##न्नत	17581
प्राजाप	17582
##ण्डः	17583
दृष्टिकोण	17584
कोण	17585
विषाण	17586
##देवानां	17587
सामान्या	17588
लिङ	17589
विश्वम्	17590
##पीएससी	17591
सर्वेक्षण	17592
दूरव	17593
यत्रा	17594
बालं	17595
##सूक्ष्म	17596
##नामानि	17597
जानकारी	17598
##स्थानेषु	17599
ततस	17600
११९	17601
##ons	17602
मुक्त्वा	17603
प्रसन्नो	17604
##ative	17605
##साध्यं	17606
शक्ताः	17607
स्थापय	17608
##प्राप्तौ	17609
विद्यया	17610
गणतन्त्र	17611
##धर्मं	17612
##निर्दिष्ट	17613
##हीनो	17614
रोम	17615
अनेनैव	17616
न्यूना	17617
##त्थान	17618
अव्य०	17619
##समुच्च	17620
##भुज	17621
नेपालय्	17622
##मन्यथा	17623
स्त्रियाः	17624
बहिर्	17625
##सम्बन्धः	17626
श्रवणे	17627
कृषिः	17628
निर्देशकः	17629
सिध्यन्ति	17630
वानरः	17631
शिशुं	17632
निरीक्ष्य	17633
सम्भाषण	17634
जानीहि	17635
रणनीति	17636
स्फुटम्	17637
org	17638
देवदत्तः	17639
सङ्ग्रह	17640
गवेष	17641
धीराः	17642
समागताः	17643
रिपोर्	17644
अभीष्ट	17645
क्विप्	17646
यास्यामि	17647
माणव	17648
""	17649
")	17650
].	17651
अत्त	17652
एड	17653
जार	17654
टङ्क	17655
धाय	17656
मृतं	17657
मघव	17658
यस्मि	17659
वसे	17660
वल्ल	17661
हाल	17662
१अ	17663
##पिता	17664
##सोऽ	17665
##दिक	17666
##िस	17667
##लनं	17668
##षति	17669
##वारि	17670
##४२	17671
##मरण	17672
##मध्या	17673
##tp	17674
##६१	17675
##ौज	17676
##्यन	17677
##्यक्त	17678
##्रते	17679
##र्माण	17680
##र्द्द	17681
प्रसह	17682
विलि	17683
##ष्मान	17684
##त्योः	17685
##विहित	17686
परितो	17687
परलोक	17688
##ावर	17689
संचाल	17690
संपूज्य	17691
##र्थेषु	17692
##निधि	17693
##मिष्यामि	17694
अनयोः	17695
##र्षिः	17696
##मानतः	17697
एकूण	17698
##भवम्	17699
##ोऽय	17700
कुष्ठ	17701
##भावतः	17702
किस	17703
मेरु	17704
##क्रुद्ध	17705
##क्रान्तं	17706
##ृहे	17707
सहभाग	17708
कृतिः	17709
व्यस्त	17710
नाशय	17711
एतन्म	17712
अपवादः	17713
##र्जितः	17714
##स्मरणं	17715
कर्तव्ये	17716
##प्ट	17717
##न्द्रस्य	17718
दृष्टिं	17719
काशी	17720
अत्राह	17721
##देय	17722
##ित्थं	17723
सुखे	17724
##ोदर	17725
दशक	17726
##परिहार	17727
दर्शना	17728
पापस्य	17729
जिन्व	17730
अर्थो	17731
##्मना	17732
##्युत	17733
पुराणं	17734
प्रेरण	17735
प्रेक्ष्य	17736
##णों	17737
१५९	17738
कुरुष्व	17739
##लक्षणो	17740
क्षेत्रेषु	17741
मृत्योः	17742
##ite	17743
##सामग्री	17744
##मूर्ति	17745
परिवर्त्त	17746
सङ्गण	17747
प्रतिष्ठान	17748
बृहस्पति	17749
अथातो	17750
नेवाःत	17751
rec	17752
प्रशान्त	17753
धर्मात्मा	17754
प्रतिपादितम्	17755
वह्नौ	17756
पोस्ट	17757
आयुध	17758
आयुष्म	17759
पुष्पाणि	17760
उन्नति	17761
विसृज	17762
अधोलिखित	17763
विचक्षण	17764
अग्रतः	17765
ईशान	17766
समीपम्	17767
प्राधान्य	17768
त्वामहं	17769
उल्लेखः	17770
सामर्थ्यं	17771
निर्माता	17772
##विवेक	17773
कार्त्त	17774
निमेष	17775
##संशयम्	17776
अन्वेषणं	17777
द्यूत	17778
##पिनिगु	17779
एप्रिल्	17780
मातापितरौ	17781
यथान्यायं	17782
तस्वीरः	17783
fe	17784
slok	17785
with	17786
}}	17787
उव	17788
ओषध	17789
कच्च	17790
कश्मी	17791
जनं	17792
टन	17793
दर्भ	17794
दम्प	17795
धाल	17796
धनी	17797
फिर	17798
भयम	17799
भल्ल	17800
मग	17801
यच्छति	17802
रॊ	17803
रताः	17804
रवेः	17805
लकार	17806
लङ्का	17807
षो	17808
##टोः	17809
##पश	17810
##यन्त्य	17811
##ुके	17812
##शाप	17813
##वन्द	17814
##वन्तं	17815
##चूर्ण	17816
##भक्ष	17817
##ोद्य	17818
##ैषि	17819
##ows	17820
##८१	17821
##र्क्ष	17822
##ितुम	17823
##ांशे	17824
विरूप	17825
##मालि	17826
##ष्मः	17827
##ादाव	17828
##ादुप	17829
##ावसरे	17830
निपु	17831
संपद्यते	17832
वाथ	17833
स्वध	17834
##ासय्	17835
समम्	17836
समया	17837
##रिह	17838
सा०	17839
इत्यत्रापि	17840
महः	17841
##मुद्रा	17842
##ङ्गानि	17843
क्ङिति	17844
##व्यञ्ज	17845
##क्रान्तः	17846
##धिनः	17847
##धिपति	17848
अनुगमन	17849
ज्ञातु	17850
##करणेन	17851
##करणाय	17852
##ानाञ्च	17853
कर्मफल	17854
##ानुवाच	17855
तिसृ	17856
जीवानां	17857
##देवो	17858
##ोक्ते	17859
अन्तरेण	17860
सुखस्य	17861
दशधा	17862
##दर्शी	17863
मानचित्र	17864
##ात्मकम्	17865
भगवन	17866
आसनं	17867
##मुखा	17868
क्वचिद्	17869
पश्यतु	17870
वृद्धो	17871
पूर्णतया	17872
जिह्व	17873
बिउगु	17874
मित्रेण	17875
कल्पे	17876
जातौ	17877
पृथिवीप	17878
##वृक्षः	17879
१५०	17880
विभज्य	17881
क्रीडायां	17882
##ोत्तमाः	17883
##दृष्ट्वा	17884
दुर्लभा	17885
बाह्यं	17886
##शासनम्	17887
##मित्येव	17888
विष्णुं	17889
पवमान	17890
प्रभावेण	17891
२०१७	17892
वहन्ति	17893
ज्वाल	17894
##शालां	17895
देहली	17896
ग्राह्या	17897
कवयः	17898
न्यायाधीश	17899
##धिष्ठान	17900
आङ्ग्	17901
बोध्यम्	17902
##els	17903
युष्माभिः	17904
हुत्वा	17905
याचते	17906
##पर्वत	17907
##ime	17908
व्यतिरेक	17909
समग्रं	17910
यौवनं	17911
##न्द्रियाणि	17912
चतुर्विंशति	17913
प्रायश्चित्तं	17914
पत्न्या	17915
अरण्ये	17916
देवेशि	17917
from	17918
द्यौः	17919
पाषाण	17920
पाश्चात्य	17921
धर्मार्थकाम	17922
63	17923
jan	17924
अद्भुत	17925
आभूषण	17926
उमा	17927
गदा	17928
गानं	17929
गर्द	17930
चास	17931
जन्मा	17932
णः	17933
दमन	17934
धर्म्	17935
नॊ	17936
नाल	17937
नैर	17938
पिव	17939
भका	17940
मण	17941
मन्थ	17942
वृत	17943
शते	17944
शेव	17945
शाय	17946
शतेन	17947
##यन्न	17948
##दँ	17949
##शॊ	17950
##शक्य	17951
##वेण	17952
##चये	17953
##चरणं	17954
##७२	17955
##ैक्य	17956
##जम	17957
##मवि	17958
##बू	17959
##गस्य	17960
##ach	17961
##sh	17962
##ौप	17963
##अनु	17964
##उन	17965
##ानेव	17966
विहर	17967
##मासः	17968
##त्तरम्	17969
संदि	17970
संकेत	17971
संक्षिप्त	17972
##मिवा	17973
##मिदानीं	17974
सर्वशक्ति	17975
##यों	17976
वा॒	17977
स्वतंत्र	17978
##कारान्त	17979
##नेट	17980
##र्षु	17981
##त्वमा	17982
##त्वमपि	17983
महात्	17984
देव्याः	17985
##स्याप	17986
##ृष्टो	17987
क्षम्य	17988
##भ्युद	17989
तदो	17990
प्राक्त	17991
स्मृत्य	17992
तिस्रः	17993
##कुली	17994
##नेनैव	17995
भावानां	17996
रूपा	17997
##जाम्	17998
बालकस्य	17999
चाटु	18000
भाग्यं	18001
चतुर्ण	18002
गच्छे	18003
##मुखाः	18004
##inal	18005
असतो	18006
पुंसि	18007
[...]
