{
  "version": "1.0",
  "truncation": null,
  "padding": null,
  "added_tokens": [
    {
      "id": 0,
      "content": "[UNK]",
      "single_word": false,
      "lstrip": false,
      "rstrip": false,
      "normalized": false,
      "special": true
    },
    {
      "id": 1,
      "content": "[CLS]",
      "single_word": false,
      "lstrip": false,
      "rstrip": false,
      "normalized": false,
      "special": true
    },
    {
      "id": 2,
      "content": "[SEP]",
      "single_word": false,
      "lstrip": false,
      "rstrip": false,
      "normalized": false,
      "special": true
    },
    {
      "id": 3,
      "content": "[PAD]",
      "single_word": false,
      "lstrip": false,
      "rstrip": false,
      "normalized": false,
      "special": true
    },
    {
      "id": 4,
      "content": "[MASK]",
      "single_word": false,
      "lstrip": false,
      "rstrip": false,
      "normalized": false,
      "special": true
    }
  ],
  "normalizer": {
    "type": "Sequence",
    "normalizers": [
      {
        "type": "NFKC"
      },
      {
        "type": "Lowercase"
      }
    ]
  },
  "pre_tokenizer": {
    "type": "Whitespace"
  },
  "post_processor": null,
  "decoder": {
    "type": "WordPiece",
    "prefix": "##",
    "cleanup": true
  },
  "model": {
    "type": "WordPiece",
    "unk_token": "[UNK]",
    "continuing_subword_prefix": "##",
    "max_input_chars_per_word": 100,
    "vocab": {
      "[UNK]": 0,
      "[CLS]": 1,
      "[SEP]": 2,
      "[PAD]": 3,
      "[MASK]": 4,
      "!": 5,
      "\"": 6,
      "#": 7,
      "$": 8,
      "%": 9,
      "&": 10,
      "'": 11,
      "(": 12,
      ")": 13,
      "*": 14,
      "+": 15,
      ",": 16,
      "-": 17,
      ".": 18,
      "/": 19,
      "0": 20,
      "1": 21,
      "2": 22,
      "3": 23,
      "4": 24,
      "5": 25,
      "6": 26,
      "7": 27,
      "8": 28,
      "9": 29,
      ":": 30,
      ";": 31,
      "<": 32,
      "=": 33,
      ">": 34,
      "?": 35,
      "@": 36,
      "[": 37,
      "\\": 38,
      "]": 39,
      "^": 40,
      "_": 41,
      "a": 42,
      "b": 43,
      "c": 44,
      "d": 45,
      "e": 46,
      "f": 47,
      "g": 48,
      "h": 49,
      "i": 50,
      "j": 51,
      "k": 52,
      "l": 53,
      "m": 54,
      "n": 55,
      "o": 56,
      "p": 57,
      "q": 58,
      "r": 59,
      "s": 60,
      "t": 61,
      "u": 62,
      "v": 63,
      "w": 64,
      "x": 65,
      "y": 66,
      "z": 67,
      "{": 68,
      "}": 69,
      "~": 70,
      "¡": 71,
      "¢": 72,
      "£": 73,
      "¤": 74,
      "¥": 75,
      "¦": 76,
      "§": 77,
      "©": 78,
      "¬": 79,
      "®": 80,
      "°": 81,
      "±": 82,
      "¶": 83,
      "·": 84,
      "¿": 85,
      "×": 86,
      "ß": 87,
      "à": 88,
      "á": 89,
      "â": 90,
      "ã": 91,
      "ä": 92,
      "å": 93,
      "æ": 94,
      "ç": 95,
      "è": 96,
      "é": 97,
      "ê": 98,
      "ë": 99,
      "ì": 100,
      "í": 101,
      "î": 102,
      "ï": 103,
      "ð": 104,
      "ñ": 105,
      "ò": 106,
      "ó": 107,
      "ô": 108,
      "õ": 109,
      "ö": 110,
      "÷": 111,
      "ø": 112,
      "ù": 113,
      "ú": 114,
      "û": 115,
      "ü": 116,
      "ý": 117,
      "þ": 118,
      "ÿ": 119,
      "ā": 120,
      "ă": 121,
      "ą": 122,
      "ć": 123,
      "ĉ": 124,
      "ċ": 125,
      "č": 126,
      "ē": 127,
      "ĕ": 128,
      "ė": 129,
      "ę": 130,
      "ě": 131,
      "ğ": 132,
      "ī": 133,
      "į": 134,
      "ı": 135,
      "ķ": 136,
      "ł": 137,
      "ń": 138,
      "ŋ": 139,
      "ō": 140,
      "ŏ": 141,
      "œ": 142,
      "ř": 143,
      "ś": 144,
      "ş": 145,
      "š": 146,
      "ť": 147,
      "ū": 148,
      "ů": 149,
      "ų": 150,
      "ż": 151,
      "ž": 152,
      "ƒ": 153,
      "ư": 154,
      "ǀ": 155,
      "ǁ": 156,
      "ǒ": 157,
      "ǔ": 158,
      "ȧ": 159,
      "ȩ": 160,
      "ȯ": 161,
      "ɑ": 162,
      "ɒ": 163,
      "ɔ": 164,
      "ə": 165,
      "ɛ": 166,
      "ɜ": 167,
      "ɡ": 168,
      "ɪ": 169,
      "ʁ": 170,
      "ʃ": 171,
      "ʈ": 172,
      "ʉ": 173,
      "ʊ": 174,
      "ʋ": 175,
      "ʌ": 176,
      "ʏ": 177,
      "ʒ": 178,
      "ʟ": 179,
      "ʻ": 180,
      "ʼ": 181,
      "ʿ": 182,
      "ˆ": 183,
      "ˈ": 184,
      "ˌ": 185,
      "ˎ": 186,
      "ː": 187,
      "ˑ": 188,
      "́": 189,
      "̃": 190,
      "̄": 191,
      "̆": 192,
      "̇": 193,
      "̈": 194,
      "̊": 195,
      "̍": 196,
      "̐": 197,
      "̕": 198,
      "̖": 199,
      "̠": 200,
      "̣": 201,
      "̥": 202,
      "̧": 203,
      "̪": 204,
      "̶": 205,
      "ά": 206,
      "ή": 207,
      "α": 208,
      "β": 209,
      "δ": 210,
      "ε": 211,
      "ζ": 212,
      "η": 213,
      "θ": 214,
      "ι": 215,
      "κ": 216,
      "μ": 217,
      "ν": 218,
      "ο": 219,
      "π": 220,
      "ρ": 221,
      "ς": 222,
      "σ": 223,
      "τ": 224,
      "φ": 225,
      "χ": 226,
      "ψ": 227,
      "ω": 228,
      "ό": 229,
      "а": 230,
      "б": 231,
      "в": 232,
      "г": 233,
      "д": 234,
      "е": 235,
      "ж": 236,
      "з": 237,
      "и": 238,
      "й": 239,
      "к": 240,
      "л": 241,
      "м": 242,
      "н": 243,
      "о": 244,
      "п": 245,
      "р": 246,
      "с": 247,
      "т": 248,
      "у": 249,
      "ф": 250,
      "х": 251,
      "ц": 252,
      "ч": 253,
      "ш": 254,
      "щ": 255,
      "ы": 256,
      "ь": 257,
      "э": 258,
      "ю": 259,
      "я": 260,
      "ё": 261,
      "є": 262,
      "і": 263,
      "ї": 264,
      "ј": 265,
      "ў": 266,
      "ҫ": 267,
      "ү": 268,
      "ә": 269,
      "ө": 270,
      "ա": 271,
      "ե": 272,
      "կ": 273,
      "հ": 274,
      "ն": 275,
      "ր": 276,
      "ւ": 277,
      "ַ": 278,
      "א": 279,
      "ב": 280,
      "ג": 281,
      "ד": 282,
      "ה": 283,
      "ו": 284,
      "ט": 285,
      "י": 286,
      "כ": 287,
      "ל": 288,
      "ם": 289,
      "מ": 290,
      "ן": 291,
      "נ": 292,
      "ס": 293,
      "ע": 294,
      "ף": 295,
      "פ": 296,
      "צ": 297,
      "ק": 298,
      "ר": 299,
      "ש": 300,
      "ת": 301,
      "ײ": 302,
      "؞": 303,
      "ء": 304,
      "آ": 305,
      "أ": 306,
      "إ": 307,
      "ئ": 308,
      "ا": 309,
      "ب": 310,
      "ة": 311,
      "ت": 312,
      "ج": 313,
      "ح": 314,
      "خ": 315,
      "د": 316,
      "ذ": 317,
      "ر": 318,
      "ز": 319,
      "س": 320,
      "ش": 321,
      "ص": 322,
      "ط": 323,
      "ع": 324,
      "غ": 325,
      "ف": 326,
      "ق": 327,
      "ك": 328,
      "ل": 329,
      "م": 330,
      "ن": 331,
      "ه": 332,
      "و": 333,
      "ى": 334,
      "ي": 335,
      "ً": 336,
      "ُ": 337,
      "ِ": 338,
      "٫": 339,
      "٬": 340,
      "ٰ": 341,
      "ٹ": 342,
      "ټ": 343,
      "پ": 344,
      "چ": 345,
      "ڌ": 346,
      "ک": 347,
      "ڪ": 348,
      "گ": 349,
      "ں": 350,
      "ڼ": 351,
      "ھ": 352,
      "ہ": 353,
      "ۂ": 354,
      "ۆ": 355,
      "ۇ": 356,
      "ی": 357,
      "۔": 358,
      "ە": 359,
      "ܐ": 360,
      "ܒ": 361,
      "ܕ": 362,
      "ܘ": 363,
      "ܚ": 364,
      "ܛ": 365,
      "ܟ": 366,
      "ܠ": 367,
      "ܣ": 368,
      "ܦ": 369,
      "ܪ": 370,
      "ܬ": 371,
      "ँ": 372,
      "ं": 373,
      "ः": 374,
      "ऄ": 375,
      "अ": 376,
      "आ": 377,
      "इ": 378,
      "ई": 379,
      "उ": 380,
      "ऊ": 381,
      "ऋ": 382,
      "ऌ": 383,
      "ऍ": 384,
      "ऎ": 385,
      "ए": 386,
      "ऐ": 387,
      "ऑ": 388,
      "ऒ": 389,
      "ओ": 390,
      "औ": 391,
      "क": 392,
      "ख": 393,
      "ग": 394,
      "घ": 395,
      "ङ": 396,
      "च": 397,
      "छ": 398,
      "ज": 399,
      "झ": 400,
      "ञ": 401,
      "ट": 402,
      "ठ": 403,
      "ड": 404,
      "ढ": 405,
      "ण": 406,
      "त": 407,
      "थ": 408,
      "द": 409,
      "ध": 410,
      "न": 411,
      "ऩ": 412,
      "प": 413,
      "फ": 414,
      "ब": 415,
      "भ": 416,
      "म": 417,
      "य": 418,
      "र": 419,
      "ऱ": 420,
      "ल": 421,
      "ळ": 422,
      "ऴ": 423,
      "व": 424,
      "श": 425,
      "ष": 426,
      "स": 427,
      "ह": 428,
      "ऺ": 429,
      "ऻ": 430,
      "़": 431,
      "ऽ": 432,
      "ा": 433,
      "ि": 434,
      "ी": 435,
      "ु": 436,
      "ू": 437,
      "ृ": 438,
      "ॄ": 439,
      "ॅ": 440,
      "ॆ": 441,
      "े": 442,
      "ै": 443,
      "ॉ": 444,
      "ॊ": 445,
      "ो": 446,
      "ौ": 447,
      "्": 448,
      "ॐ": 449,
      "॑": 450,
      "॒": 451,
      "॓": 452,
      "॔": 453,
      "ॠ": 454,
      "ॡ": 455,
      "ॢ": 456,
      "।": 457,
      "॥": 458,
      "०": 459,
      "१": 460,
      "२": 461,
      "३": 462,
      "४": 463,
      "५": 464,
      "६": 465,
      "७": 466,
      "८": 467,
      "९": 468,
      "॰": 469,
      "ॱ": 470,
      "ॵ": 471,
      "ॺ": 472,
      "ॼ": 473,
      "ॾ": 474,
      "ॿ": 475,
      "ং": 476,
      "আ": 477,
      "ই": 478,
      "উ": 479,
      "এ": 480,
      "ক": 481,
      "খ": 482,
      "গ": 483,
      "ঘ": 484,
      "চ": 485,
      "ছ": 486,
      "জ": 487,
      "ট": 488,
      "ঠ": 489,
      "ড": 490,
      "ঢ": 491,
      "ণ": 492,
      "ত": 493,
      "থ": 494,
      "দ": 495,
      "ধ": 496,
      "ন": 497,
      "প": 498,
      "ব": 499,
      "ম": 500,
      "য": 501,
      "র": 502,
      "ল": 503,
      "ষ": 504,
      "স": 505,
      "হ": 506,
      "়": 507,
      "া": 508,
      "ি": 509,
      "ী": 510,
      "ু": 511,
      "ৃ": 512,
      "ে": 513,
      "ো": 514,
      "্": 515,
      "০": 516,
      "৩": 517,
      "৭": 518,
      "ৰ": 519,
      "ৱ": 520,
      "৷": 521,
      "ਂ": 522,
      "ਅ": 523,
      "ਇ": 524,
      "ਊ": 525,
      "ਏ": 526,
      "ਕ": 527,
      "ਖ": 528,
      "ਗ": 529,
      "ਜ": 530,
      "ਟ": 531,
      "ਡ": 532,
      "ਣ": 533,
      "ਤ": 534,
      "ਦ": 535,
      "ਨ": 536,
      "ਪ": 537,
      "ਬ": 538,
      "ਮ": 539,
      "ਰ": 540,
      "ਲ": 541,
      "ਸ": 542,
      "਼": 543,
      "ਾ": 544,
      "ਿ": 545,
      "ੀ": 546,
      "ੁ": 547,
      "ੂ": 548,
      "ੇ": 549,
      "ੋ": 550,
      "੍": 551,
      "ੰ": 552,
      "ੱ": 553,
      "ં": 554,
      "ઃ": 555,
      "અ": 556,
      "આ": 557,
      "ઈ": 558,
      "ઉ": 559,
      "એ": 560,
      "ઓ": 561,
      "ક": 562,
      "ખ": 563,
      "ગ": 564,
      "ચ": 565,
      "છ": 566,
      "જ": 567,
      "ઝ": 568,
      "ઞ": 569,
      "ટ": 570,
      "ઠ": 571,
      "ડ": 572,
      "ણ": 573,
      "ત": 574,
      "થ": 575,
      "દ": 576,
      "ધ": 577,
      "ન": 578,
      "પ": 579,
      "ફ": 580,
      "બ": 581,
      "ભ": 582,
      "મ": 583,
      "ય": 584,
      "ર": 585,
      "લ": 586,
      "ળ": 587,
      "વ": 588,
      "શ": 589,
      "ષ": 590,
      "સ": 591,
      "હ": 592,
      "઼": 593,
      "ા": 594,
      "િ": 595,
      "ી": 596,
      "ુ": 597,
      "ૂ": 598,
      "ૃ": 599,
      "ે": 600,
      "ો": 601,
      "્": 602,
      "ૐ": 603,
      "ૠ": 604,
      "૦": 605,
      "૧": 606,
      "૨": 607,
      "૩": 608,
      "૪": 609,
      "૫": 610,
      "૬": 611,
      "૭": 612,
      "૮": 613,
      "૯": 614,
      "ଃ": 615,
      "ଆ": 616,
      "ଓ": 617,
      "କ": 618,
      "ଖ": 619,
      "ଡ": 620,
      "ତ": 621,
      "ପ": 622,
      "ଭ": 623,
      "ର": 624,
      "ଲ": 625,
      "଼": 626,
      "ା": 627,
      "ି": 628,
      "େ": 629,
      "୍": 630,
      "ୟ": 631,
      "அ": 632,
      "ஆ": 633,
      "இ": 634,
      "உ": 635,
      "எ": 636,
      "ஐ": 637,
      "க": 638,
      "ச": 639,
      "ஜ": 640,
      "ட": 641,
      "ண": 642,
      "த": 643,
      "ந": 644,
      "ன": 645,
      "ப": 646,
      "ம": 647,
      "ய": 648,
      "ர": 649,
      "ற": 650,
      "ல": 651,
      "ள": 652,
      "ழ": 653,
      "வ": 654,
      "ஶ": 655,
      "ஷ": 656,
      "ஸ": 657,
      "ஹ": 658,
      "ா": 659,
      "ி": 660,
      "ீ": 661,
      "ு": 662,
      "ூ": 663,
      "ெ": 664,
      "ே": 665,
      "ை": 666,
      "ொ": 667,
      "ோ": 668,
      "்": 669,
      "ం": 670,
      "అ": 671,
      "ఉ": 672,
      "ఎ": 673,
      "ఓ": 674,
      "క": 675,
      "చ": 676,
      "జ": 677,
      "డ": 678,
      "త": 679,
      "ద": 680,
      "ధ": 681,
      "న": 682,
      "ప": 683,
      "ఫ": 684,
      "భ": 685,
      "మ": 686,
      "య": 687,
      "ర": 688,
      "ల": 689,
      "వ": 690,
      "శ": 691,
      "ష": 692,
      "స": 693,
      "హ": 694,
      "ా": 695,
      "ి": 696,
      "ు": 697,
      "ె": 698,
      "ే": 699,
      "ై": 700,
      "ో": 701,
      "్": 702,
      "ಂ": 703,
      "ಃ": 704,
      "ಅ": 705,
      "ಇ": 706,
      "ಉ": 707,
      "ಎ": 708,
      "ಕ": 709,
      "ಗ": 710,
      "ಚ": 711,
      "ಜ": 712,
      "ಟ": 713,
      "ಠ": 714,
      "ಡ": 715,
      "ತ": 716,
      "ದ": 717,
      "ನ": 718,
      "ಪ": 719,
      "ಬ": 720,
      "ಭ": 721,
      "ಮ": 722,
      "ಯ": 723,
      "ರ": 724,
      "ಲ": 725,
      "ಳ": 726,
      "ವ": 727,
      "ಶ": 728,
      "ಸ": 729,
      "ಹ": 730,
      "ಾ": 731,
      "ಿ": 732,
      "ೀ": 733,
      "ು": 734,
      "ೂ": 735,
      "ೃ": 736,
      "ೆ": 737,
      "ೇ": 738,
      "ೊ": 739,
      "ೋ": 740,
      "್": 741,
      "೦": 742,
      "೧": 743,
      "೨": 744,
      "೩": 745,
      "೪": 746,
      "ೲ": 747,
      "ം": 748,
      "അ": 749,
      "ആ": 750,
      "ഇ": 751,
      "ഈ": 752,
      "ഉ": 753,
      "എ": 754,
      "ക": 755,
      "ഖ": 756,
      "ഗ": 757,
      "ങ": 758,
      "ച": 759,
      "ഛ": 760,
      "ജ": 761,
      "ഞ": 762,
      "ട": 763,
      "ഠ": 764,
      "ണ": 765,
      "ത": 766,
      "ഥ": 767,
      "ദ": 768,
      "ധ": 769,
      "ന": 770,
      "പ": 771,
      "ബ": 772,
      "ഭ": 773,
      "മ": 774,
      "യ": 775,
      "ര": 776,
      "റ": 777,
      "ല": 778,
      "ള": 779,
      "ഴ": 780,
      "വ": 781,
      "ശ": 782,
      "ഷ": 783,
      "സ": 784,
      "ഹ": 785,
      "ാ": 786,
      "ി": 787,
      "ീ": 788,
      "ു": 789,
      "ൂ": 790,
      "ൃ": 791,
      "െ": 792,
      "േ": 793,
      "ൈ": 794,
      "ൊ": 795,
      "ോ": 796,
      "്": 797,
      "ൻ": 798,
      "ർ": 799,
      "ൽ": 800,
      "ൾ": 801,
      "ක": 802,
      "ග": 803,
      "ත": 804,
      "ද": 805,
      "න": 806,
      "ප": 807,
      "ම": 808,
      "ය": 809,
      "ල": 810,
      "ව": 811,
      "ශ": 812,
      "ස": 813,
      "්": 814,
      "ා": 815,
      "ි": 816,
      "ො": 817,
      "ค": 818,
      "ง": 819,
      "ด": 820,
      "ต": 821,
      "น": 822,
      "บ": 823,
      "พ": 824,
      "ฟ": 825,
      "ม": 826,
      "ร": 827,
      "ห": 828,
      "อ": 829,
      "ฮ": 830,
      "ั": 831,
      "า": 832,
      "ิ": 833,
      "ี": 834,
      "เ": 835,
      "โ": 836,
      "่": 837,
      "้": 838,
      "་": 839,
      "།": 840,
      "༔": 841,
      "༡": 842,
      "༣": 843,
      "༨": 844,
      "ཁ": 845,
      "ག": 846,
      "ང": 847,
      "ཊ": 848,
      "ཐ": 849,
      "ན": 850,
      "པ": 851,
      "བ": 852,
      "མ": 853,
      "ཚ": 854,
      "ཝ": 855,
      "ཟ": 856,
      "ཡ": 857,
      "ལ": 858,
      "ཥ": 859,
      "ས": 860,
      "ཧ": 861,
      "ཱ": 862,
      "ི": 863,
      "ུ": 864,
      "ྀ": 865,
      "ྒ": 866,
      "ྥ": 867,
      "ྨ": 868,
      "ྭ": 869,
      "ྱ": 870,
      "ྲ": 871,
      "ླ": 872,
      "၊": 873,
      "ა": 874,
      "გ": 875,
      "დ": 876,
      "ე": 877,
      "ვ": 878,
      "ზ": 879,
      "თ": 880,
      "ი": 881,
      "ლ": 882,
      "ნ": 883,
      "რ": 884,
      "ს": 885,
      "უ": 886,
      "ც": 887,
      "ჱ": 888,
      "ᄉ": 889,
      "ᄌ": 890,
      "ᅩ": 891,
      "ᆬ": 892,
      "ሉ": 893,
      "ሕ": 894,
      "ሩ": 895,
      "በ": 896,
      "ብ": 897,
      "ቮ": 898,
      "እ": 899,
      "ኳ": 900,
      "ዝ": 901,
      "ገ": 902,
      "ጻ": 903,
      "ፂ": 904,
      "ፃ": 905,
      "፪": 906,
      "ᒃ": 907,
      "ᒄ": 908,
      "ᒎ": 909,
      "ᓚ": 910,
      "ᗢ": 911,
      "ᘏ": 912,
      "ᚨ": 913,
      "ᚩ": 914,
      "ᚻ": 915,
      "ᚾ": 916,
      "ᛁ": 917,
      "ᛋ": 918,
      "ᛏ": 919,
      "ᛖ": 920,
      "ᛗ": 921,
      "ᛚ": 922,
      "ᛞ": 923,
      "᛫": 924,
      "ᭅ": 925,
      "᭠": 926,
      "᭭": 927,
      "ᮩ": 928,
      "᮰": 929,
      "ᱧ": 930,
      "᳒": 931,
      "᳖": 932,
      "᳘": 933,
      "᳚": 934,
      "ᳪ": 935,
      "ᳬ": 936,
      "᳭": 937,
      "ᳲ": 938,
      "ᴀ": 939,
      "ᴇ": 940,
      "ḍ": 941,
      "ḏ": 942,
      "ḥ": 943,
      "ḩ": 944,
      "ṁ": 945,
      "ṃ": 946,
      "ṅ": 947,
      "ṇ": 948,
      "ṛ": 949,
      "ṝ": 950,
      "ṣ": 951,
      "ṭ": 952,
      "ắ": 953,
      "ế": 954,
      "ệ": 955,
      "ủ": 956,
      "ἀ": 957,
      "ὁ": 958,
      "ὕ": 959,
      "ὸ": 960,
      "ῖ": 961,
      "‐": 962,
      "‒": 963,
      "―": 964,
      "‖": 965,
      "†": 966,
      "‡": 967,
      "•": 968,
      "‰": 969,
      "′": 970,
      "‹": 971,
      "›": 972,
      "※": 973,
      "⁄": 974,
      "₩": 975,
      "€": 976,
      "₹": 977,
      "⃣": 978,
      "←": 979,
      "↑": 980,
      "→": 981,
      "↓": 982,
      "↔": 983,
      "↕": 984,
      "↗": 985,
      "↩": 986,
      "↲": 987,
      "⇄": 988,
      "⇏": 989,
      "⇒": 990,
      "⇔": 991,
      "∅": 992,
      "∆": 993,
      "∈": 994,
      "−": 995,
      "∕": 996,
      "∖": 997,
      "∙": 998,
      "√": 999,
      "∝": 1000,
      "∠": 1001,
      "∩": 1002,
      "∫": 1003,
      "∴": 1004,
      "∵": 1005,
      "≈": 1006,
      "≍": 1007,
      "≠": 1008,
      "≡": 1009,
      "≤": 1010,
      "≥": 1011,
      "≦": 1012,
      "⊂": 1013,
      "⊃": 1014,
      "⊕": 1015,
      "⋆": 1016,
      "⋙": 1017,
      "⏳": 1018,
      "▀": 1019,
      "▁": 1020,
      "■": 1021,
      "□": 1022,
      "▪": 1023,
      "▲": 1024,
      "△": 1025,
      "▶": 1026,
      "▷": 1027,
      "►": 1028,
      "▼": 1029,
      "◄": 1030,
      "◆": 1031,
      "◇": 1032,
      "◉": 1033,
      "◊": 1034,
      "◌": 1035,
      "◎": 1036,
      "●": 1037,
      "◦": 1038,
      "☀": 1039,
      "☁": 1040,
      "★": 1041,
      "☆": 1042,
      "☑": 1043,
      "☘": 1044,
      "☝": 1045,
      "☰": 1046,
      "☸": 1047,
      "☹": 1048,
      "☺": 1049,
      "♀": 1050,
      "♂": 1051,
      "♈": 1052,
      "♉": 1053,
      "♡": 1054,
      "♣": 1055,
      "♥": 1056,
      "♦": 1057,
      "♫": 1058,
      "♻": 1059,
      "⚏": 1060,
      "⚕": 1061,
      "⚡": 1062,
      "⚪": 1063,
      "⚫": 1064,
      "⛅": 1065,
      "⛈": 1066,
      "⛳": 1067,
      "⛹": 1068,
      "✅": 1069,
      "✌": 1070,
      "✍": 1071,
      "✒": 1072,
      "✓": 1073,
      "✔": 1074,
      "✖": 1075,
      "✥": 1076,
      "✦": 1077,
      "✧": 1078,
      "✨": 1079,
      "✪": 1080,
      "✳": 1081,
      "✴": 1082,
      "✹": 1083,
      "✺": 1084,
      "✼": 1085,
      "✿": 1086,
      "❁": 1087,
      "❇": 1088,
      "❌": 1089,
      "❍": 1090,
      "❑": 1091,
      "❗": 1092,
      "❣": 1093,
      "❤": 1094,
      "❯": 1095,
      "➖": 1096,
      "➛": 1097,
      "➜": 1098,
      "➞": 1099,
      "➡": 1100,
      "➢": 1101,
      "➤": 1102,
      "➥": 1103,
      "➦": 1104,
      "➧": 1105,
      "➨": 1106,
      "⟶": 1107,
      "⟷": 1108,
      "⠀": 1109,
      "⦁": 1110,
      "⭐": 1111,
      "⭕": 1112,
      "、": 1113,
      "。": 1114,
      "〈": 1115,
      "《": 1116,
      "》": 1117,
      "「": 1118,
      "」": 1119,
      "【": 1120,
      "】": 1121,
      "あ": 1122,
      "い": 1123,
      "う": 1124,
      "お": 1125,
      "か": 1126,
      "が": 1127,
      "き": 1128,
      "く": 1129,
      "け": 1130,
      "げ": 1131,
      "ご": 1132,
      "さ": 1133,
      "ざ": 1134,
      "し": 1135,
      "す": 1136,
      "た": 1137,
      "だ": 1138,
      "ち": 1139,
      "っ": 1140,
      "つ": 1141,
      "て": 1142,
      "で": 1143,
      "と": 1144,
      "ど": 1145,
      "な": 1146,
      "に": 1147,
      "の": 1148,
      "は": 1149,
      "ひ": 1150,
      "ま": 1151,
      "み": 1152,
      "む": 1153,
      "め": 1154,
      "も": 1155,
      "ゃ": 1156,
      "や": 1157,
      "よ": 1158,
      "ら": 1159,
      "る": 1160,
      "れ": 1161,
      "を": 1162,
      "ん": 1163,
      "ア": 1164,
      "ィ": 1165,
      "イ": 1166,
      "エ": 1167,
      "オ": 1168,
      "ク": 1169,
      "グ": 1170,
      "コ": 1171,
      "シ": 1172,
      "ジ": 1173,
      "ス": 1174,
      "ズ": 1175,
      "セ": 1176,
      "ゼ": 1177,
      "ソ": 1178,
      "タ": 1179,
      "チ": 1180,
      "ッ": 1181,
      "ツ": 1182,
      "テ": 1183,
      "デ": 1184,
      "ト": 1185,
      "ナ": 1186,
      "ネ": 1187,
      "ノ": 1188,
      "バ": 1189,
      "パ": 1190,
      "ヒ": 1191,
      "ピ": 1192,
      "プ": 1193,
      "ボ": 1194,
      "ポ": 1195,
      "マ": 1196,
      "ャ": 1197,
      "ョ": 1198,
      "ラ": 1199,
      "リ": 1200,
      "ル": 1201,
      "ロ": 1202,
      "ン": 1203,
      "・": 1204,
      "ー": 1205,
      "一": 1206,
      "七": 1207,
      "三": 1208,
      "上": 1209,
      "不": 1210,
      "与": 1211,
      "世": 1212,
      "中": 1213,
      "为": 1214,
      "义": 1215,
      "习": 1216,
      "乱": 1217,
      "了": 1218,
      "事": 1219,
      "二": 1220,
      "于": 1221,
      "互": 1222,
      "五": 1223,
      "亦": 1224,
      "京": 1225,
      "亲": 1226,
      "人": 1227,
      "介": 1228,
      "从": 1229,
      "仕": 1230,
      "代": 1231,
      "份": 1232,
      "休": 1233,
      "伟": 1234,
      "位": 1235,
      "何": 1236,
      "余": 1237,
      "作": 1238,
      "你": 1239,
      "使": 1240,
      "依": 1241,
      "修": 1242,
      "個": 1243,
      "倒": 1244,
      "健": 1245,
      "僕": 1246,
      "元": 1247,
      "入": 1248,
      "全": 1249,
      "八": 1250,
      "六": 1251,
      "其": 1252,
      "具": 1253,
      "円": 1254,
      "册": 1255,
      "决": 1256,
      "出": 1257,
      "切": 1258,
      "划": 1259,
      "列": 1260,
      "利": 1261,
      "别": 1262,
      "到": 1263,
      "副": 1264,
      "加": 1265,
      "助": 1266,
      "化": 1267,
      "北": 1268,
      "十": 1269,
      "卍": 1270,
      "卐": 1271,
      "南": 1272,
      "印": 1273,
      "叉": 1274,
      "反": 1275,
      "发": 1276,
      "口": 1277,
      "句": 1278,
      "可": 1279,
      "各": 1280,
      "合": 1281,
      "同": 1282,
      "名": 1283,
      "后": 1284,
      "吗": 1285,
      "吥": 1286,
      "吸": 1287,
      "告": 1288,
      "员": 1289,
      "和": 1290,
      "咒": 1291,
      "哉": 1292,
      "哥": 1293,
      "哲": 1294,
      "哷": 1295,
      "唯": 1296,
      "喝": 1297,
      "嘅": 1298,
      "器": 1299,
      "四": 1300,
      "因": 1301,
      "図": 1302,
      "固": 1303,
      "国": 1304,
      "國": 1305,
      "地": 1306,
      "域": 1307,
      "堂": 1308,
      "報": 1309,
      "境": 1310,
      "增": 1311,
      "声": 1312,
      "处": 1313,
      "复": 1314,
      "外": 1315,
      "多": 1316,
      "夜": 1317,
      "夢": 1318,
      "大": 1319,
      "天": 1320,
      "奖": 1321,
      "奪": 1322,
      "好": 1323,
      "如": 1324,
      "威": 1325,
      "婆": 1326,
      "孕": 1327,
      "字": 1328,
      "存": 1329,
      "学": 1330,
      "安": 1331,
      "官": 1332,
      "定": 1333,
      "宦": 1334,
      "寝": 1335,
      "尊": 1336,
      "小": 1337,
      "少": 1338,
      "尔": 1339,
      "尼": 1340,
      "属": 1341,
      "岂": 1342,
      "工": 1343,
      "师": 1344,
      "席": 1345,
      "常": 1346,
      "年": 1347,
      "广": 1348,
      "应": 1349,
      "废": 1350,
      "度": 1351,
      "康": 1352,
      "廬": 1353,
      "异": 1354,
      "引": 1355,
      "弥": 1356,
      "当": 1357,
      "影": 1358,
      "彼": 1359,
      "得": 1360,
      "徹": 1361,
      "忘": 1362,
      "念": 1363,
      "性": 1364,
      "惑": 1365,
      "意": 1366,
      "愛": 1367,
      "感": 1368,
      "憶": 1369,
      "成": 1370,
      "我": 1371,
      "戻": 1372,
      "所": 1373,
      "执": 1374,
      "投": 1375,
      "摩": 1376,
      "收": 1377,
      "改": 1378,
      "政": 1379,
      "故": 1380,
      "效": 1381,
      "整": 1382,
      "文": 1383,
      "新": 1384,
      "方": 1385,
      "无": 1386,
      "日": 1387,
      "时": 1388,
      "星": 1389,
      "是": 1390,
      "显": 1391,
      "普": 1392,
      "晴": 1393,
      "更": 1394,
      "書": 1395,
      "最": 1396,
      "月": 1397,
      "有": 1398,
      "朝": 1399,
      "期": 1400,
      "杂": 1401,
      "東": 1402,
      "果": 1403,
      "某": 1404,
      "染": 1405,
      "查": 1406,
      "栄": 1407,
      "格": 1408,
      "械": 1409,
      "梵": 1410,
      "检": 1411,
      "模": 1412,
      "権": 1413,
      "機": 1414,
      "款": 1415,
      "止": 1416,
      "此": 1417,
      "母": 1418,
      "比": 1419,
      "民": 1420,
      "氣": 1421,
      "永": 1422,
      "求": 1423,
      "汇": 1424,
      "没": 1425,
      "泊": 1426,
      "流": 1427,
      "消": 1428,
      "添": 1429,
      "灭": 1430,
      "然": 1431,
      "熟": 1432,
      "父": 1433,
      "牙": 1434,
      "猫": 1435,
      "现": 1436,
      "班": 1437,
      "球": 1438,
      "理": 1439,
      "生": 1440,
      "用": 1441,
      "由": 1442,
      "疆": 1443,
      "痛": 1444,
      "発": 1445,
      "發": 1446,
      "白": 1447,
      "的": 1448,
      "益": 1449,
      "直": 1450,
      "相": 1451,
      "知": 1452,
      "研": 1453,
      "破": 1454,
      "祖": 1455,
      "离": 1456,
      "秘": 1457,
      "程": 1458,
      "稱": 1459,
      "究": 1460,
      "立": 1461,
      "章": 1462,
      "第": 1463,
      "答": 1464,
      "简": 1465,
      "类": 1466,
      "紅": 1467,
      "素": 1468,
      "終": 1469,
      "続": 1470,
      "網": 1471,
      "繁": 1472,
      "维": 1473,
      "者": 1474,
      "而": 1475,
      "肉": 1476,
      "能": 1477,
      "自": 1478,
      "花": 1479,
      "若": 1480,
      "英": 1481,
      "茶": 1482,
      "葬": 1483,
      "薩": 1484,
      "處": 1485,
      "蛟": 1486,
      "蝶": 1487,
      "衆": 1488,
      "行": 1489,
      "表": 1490,
      "西": 1491,
      "见": 1492,
      "观": 1493,
      "视": 1494,
      "觉": 1495,
      "解": 1496,
      "言": 1497,
      "記": 1498,
      "訳": 1499,
      "試": 1500,
      "語": 1501,
      "論": 1502,
      "讓": 1503,
      "计": 1504,
      "讨": 1505,
      "许": 1506,
      "论": 1507,
      "话": 1508,
      "语": 1509,
      "说": 1510,
      "诸": 1511,
      "贪": 1512,
      "越": 1513,
      "足": 1514,
      "身": 1515,
      "車": 1516,
      "转": 1517,
      "辦": 1518,
      "达": 1519,
      "过": 1520,
      "运": 1521,
      "返": 1522,
      "追": 1523,
      "通": 1524,
      "逝": 1525,
      "進": 1526,
      "遣": 1527,
      "那": 1528,
      "都": 1529,
      "释": 1530,
      "量": 1531,
      "金": 1532,
      "鉄": 1533,
      "错": 1534,
      "长": 1535,
      "間": 1536,
      "间": 1537,
      "闻": 1538,
      "阿": 1539,
      "除": 1540,
      "陸": 1541,
      "障": 1542,
      "雨": 1543,
      "電": 1544,
      "靈": 1545,
      "非": 1546,
      "面": 1547,
      "韩": 1548,
      "音": 1549,
      "響": 1550,
      "願": 1551,
      "页": 1552,
      "须": 1553,
      "颂": 1554,
      "飞": 1555,
      "飲": 1556,
      "首": 1557,
      "龙": 1558,
      "꣡": 1559,
      "꣢": 1560,
      "꣣": 1561,
      "꣫": 1562,
      "꣯": 1563,
      "ꣲ": 1564,
      "ꣳ": 1565,
      "가": 1566,
      "간": 1567,
      "감": 1568,
      "개": 1569,
      "게": 1570,
      "고": 1571,
      "공": 1572,
      "과": 1573,
      "교": 1574,
      "국": 1575,
      "금": 1576,
      "급": 1577,
      "기": 1578,
      "깨": 1579,
      "나": 1580,
      "낱": 1581,
      "냐": 1582,
      "녹": 1583,
      "는": 1584,
      "니": 1585,
      "다": 1586,
      "달": 1587,
      "대": 1588,
      "더": 1589,
      "동": 1590,
      "두": 1591,
      "듬": 1592,
      "따": 1593,
      "뜨": 1594,
      "라": 1595,
      "락": 1596,
      "레": 1597,
      "력": 1598,
      "로": 1599,
      "름": 1600,
      "리": 1601,
      "만": 1602,
      "말": 1603,
      "망": 1604,
      "맵": 1605,
      "몸": 1606,
      "못": 1607,
      "뭐": 1608,
      "민": 1609,
      "받": 1610,
      "발": 1611,
      "백": 1612,
      "번": 1613,
      "법": 1614,
      "봇": 1615,
      "브": 1616,
      "비": 1617,
      "사": 1618,
      "산": 1619,
      "상": 1620,
      "서": 1621,
      "성": 1622,
      "세": 1623,
      "수": 1624,
      "술": 1625,
      "쉬": 1626,
      "슈": 1627,
      "스": 1628,
      "승": 1629,
      "시": 1630,
      "신": 1631,
      "아": 1632,
      "어": 1633,
      "없": 1634,
      "에": 1635,
      "염": 1636,
      "영": 1637,
      "예": 1638,
      "완": 1639,
      "외": 1640,
      "요": 1641,
      "우": 1642,
      "운": 1643,
      "월": 1644,
      "위": 1645,
      "을": 1646,
      "음": 1647,
      "의": 1648,
      "이": 1649,
      "인": 1650,
      "임": 1651,
      "입": 1652,
      "있": 1653,
      "자": 1654,
      "적": 1655,
      "전": 1656,
      "절": 1657,
      "정": 1658,
      "조": 1659,
      "좀": 1660,
      "주": 1661,
      "중": 1662,
      "증": 1663,
      "지": 1664,
      "째": 1665,
      "청": 1666,
      "크": 1667,
      "키": 1668,
      "탄": 1669,
      "탑": 1670,
      "터": 1671,
      "트": 1672,
      "특": 1673,
      "팅": 1674,
      "파": 1675,
      "하": 1676,
      "학": 1677,
      "한": 1678,
      "함": 1679,
      "합": 1680,
      "허": 1681,
      "효": 1682,
      "히": 1683,
      "힌": 1684,
      "힘": 1685,
      "︎": 1686,
      "️": 1687,
      "�": 1688,
      "𑆤": 1689,
      "𑌏": 1690,
      "𑌥": 1691,
      "𑌫": 1692,
      "𑌮": 1693,
      "𑌸": 1694,
      "𑐎": 1695,
      "𑐕": 1696,
      "𑐫": 1697,
      "𑐮": 1698,
      "𑐰": 1699,
      "𑐴": 1700,
      "𑐵": 1701,
      "𑑀": 1702,
      "𑑂": 1703,
      "𑑄": 1704,
      "𑑅": 1705,
      "🅰": 1706,
      "🇦": 1707,
      "🇮": 1708,
      "🇱": 1709,
      "🇳": 1710,
      "🇵": 1711,
      "🇸": 1712,
      "🇹": 1713,
      "🇺": 1714,
      "🌀": 1715,
      "🌃": 1716,
      "🌄": 1717,
      "🌅": 1718,
      "🌈": 1719,
      "🌉": 1720,
      "🌍": 1721,
      "🌎": 1722,
      "🌏": 1723,
      "🌖": 1724,
      "🌙": 1725,
      "🌛": 1726,
      "🌝": 1727,
      "🌞": 1728,
      "🌟": 1729,
      "🌠": 1730,
      "🌰": 1731,
      "🌱": 1732,
      "🌴": 1733,
      "🌷": 1734,
      "🌸": 1735,
      "🌹": 1736,
      "🌺": 1737,
      "🌻": 1738,
      "🌼": 1739,
      "🌿": 1740,
      "🍀": 1741,
      "🍁": 1742,
      "🍃": 1743,
      "🍋": 1744,
      "🍥": 1745,
      "🍾": 1746,
      "🎂": 1747,
      "🎃": 1748,
      "🎉": 1749,
      "🎊": 1750,
      "🎋": 1751,
      "🎎": 1752,
      "🎓": 1753,
      "🎖": 1754,
      "🎤": 1755,
      "🎯": 1756,
      "🎵": 1757,
      "🎶": 1758,
      "🎼": 1759,
      "🏀": 1760,
      "🏃": 1761,
      "🏏": 1762,
      "🏠": 1763,
      "🏮": 1764,
      "🏷": 1765,
      "🏹": 1766,
      "🏻": 1767,
      "🏽": 1768,
      "🐕": 1769,
      "🐙": 1770,
      "🐯": 1771,
      "👆": 1772,
      "👇": 1773,
      "👈": 1774,
      "👉": 1775,
      "👌": 1776,
      "👍": 1777,
      "👏": 1778,
      "👞": 1779,
      "👣": 1780,
      "👦": 1781,
      "👧": 1782,
      "👨": 1783,
      "👩": 1784,
      "👫": 1785,
      "👱": 1786,
      "👴": 1787,
      "💄": 1788,
      "💏": 1789,
      "💐": 1790,
      "💑": 1791,
      "💓": 1792,
      "💔": 1793,
      "💕": 1794,
      "💖": 1795,
      "💗": 1796,
      "💘": 1797,
      "💚": 1798,
      "💛": 1799,
      "💝": 1800,
      "💠": 1801,
      "💥": 1802,
      "💦": 1803,
      "💧": 1804,
      "💫": 1805,
      "💮": 1806,
      "💰": 1807,
      "💱": 1808,
      "💵": 1809,
      "📂": 1810,
      "📌": 1811,
      "📎": 1812,
      "📏": 1813,
      "📕": 1814,
      "📖": 1815,
      "📚": 1816,
      "📝": 1817,
      "📢": 1818,
      "📣": 1819,
      "📰": 1820,
      "📱": 1821,
      "📳": 1822,
      "📸": 1823,
      "📺": 1824,
      "🔅": 1825,
      "🔊": 1826,
      "🔍": 1827,
      "🔐": 1828,
      "🔔": 1829,
      "🔗": 1830,
      "🔟": 1831,
      "🔥": 1832,
      "🔰": 1833,
      "🔱": 1834,
      "🔶": 1835,
      "🔷": 1836,
      "🔸": 1837,
      "🔹": 1838,
      "🔺": 1839,
      "🔻": 1840,
      "🕉": 1841,
      "🕔": 1842,
      "🖊": 1843,
      "🖱": 1844,
      "🗃": 1845,
      "🗒": 1846,
      "🗣": 1847,
      "🗳": 1848,
      "😀": 1849,
      "😂": 1850,
      "😃": 1851,
      "😄": 1852,
      "😅": 1853,
      "😇": 1854,
      "😉": 1855,
      "😊": 1856,
      "😌": 1857,
      "😍": 1858,
      "😎": 1859,
      "😒": 1860,
      "😔": 1861,
      "😘": 1862,
      "😜": 1863,
      "😝": 1864,
      "😞": 1865,
      "😡": 1866,
      "😢": 1867,
      "😩": 1868,
      "😳": 1869,
      "🙁": 1870,
      "🙂": 1871,
      "🙅": 1872,
      "🙆": 1873,
      "🙌": 1874,
      "🙍": 1875,
      "🙎": 1876,
      "🙏": 1877,
      "🚑": 1878,
      "🚩": 1879,
      "🚷": 1880,
      "🛑": 1881,
      "🛡": 1882,
      "🤔": 1883,
      "🤗": 1884,
      "🤝": 1885,
      "🤦": 1886,
      "🤩": 1887,
      "🤪": 1888,
      "🤲": 1889,
      "🥀": 1890,
      "🥂": 1891,
      "🥇": 1892,
      "🥰": 1893,
      "🦂": 1894,
      "🧐": 1895,
      "🧜": 1896,
      "🩸": 1897,
      "🪔": 1898,
      "##ि": 1899,
      "##ष": 1900,
      "##्": 1901,
      "##ठ": 1902,
      "##ा": 1903,
      "##म": 1904,
      "##त": 1905,
      "##ु": 1906,
      "##प": 1907,
      "##ो": 1908,
      "##ः": 1909,
      "##ह": 1910,
      "##स": 1911,
      "##य": 1912,
      "##न": 1913,
      "##क": 1914,
      "##र": 1915,
      "##ध": 1916,
      "##ं": 1917,
      "##श": 1918,
      "##ञ": 1919,
      "##ज": 1920,
      "##भ": 1921,
      "##े": 1922,
      "##द": 1923,
      "##ब": 1924,
      "##ी": 1925,
      "##व": 1926,
      "##ट": 1927,
      "##थ": 1928,
      "##p": 1929,
      "##l": 1930,
      "##i": 1931,
      "##c": 1932,
      "##a": 1933,
      "##n": 1934,
      "##t": 1935,
      "##ग": 1936,
      "##_": 1937,
      "##१": 1938,
      "##२": 1939,
      "##ल": 1940,
      "##ै": 1941,
      "##च": 1942,
      "##ू": 1943,
      "##ँ": 1944,
      "##छ": 1945,
      "##०": 1946,
      "##़": 1947,
      "##ॊ": 1948,
      "##ण": 1949,
      "##ত": 1950,
      "##্": 1951,
      "##র": 1952,
      "##ृ": 1953,
      "##९": 1954,
      "##६": 1955,
      "##अ": 1956,
      "##u": 1957,
      "##e": 1958,
      "##2": 1959,
      "##6": 1960,
      "##0": 1961,
      "##3": 1962,
      "##ौ": 1963,
      "##ৱ": 1964,
      "##ল": 1965,
      "##ি": 1966,
      "##আ": 1967,
      "##ম": 1968,
      "##ব": 1969,
      "##া": 1970,
      "##ু": 1971,
      "##ढ": 1972,
      "##o": 1973,
      "##m": 1974,
      "##j": 1975,
      "##b": 1976,
      "##r": 1977,
      "##s": 1978,
      "##झ": 1979,
      "##ड": 1980,
      "##॒": 1981,
      "##ङ": 1982,
      "##̣": 1983,
      "##g": 1984,
      "##ख": 1985,
      "##ॆ": 1986,
      "##h": 1987,
      "##y": 1988,
      "##घ": 1989,
      "##ऽ": 1990,
      "##इ": 1991,
      "##फ": 1992,
      "##५": 1993,
      "##ए": 1994,
      "##४": 1995,
      "##k": 1996,
      "##ɛ": 1997,
      "##ɪ": 1998,
      "##ə": 1999,
      "##ː": 2000,
      "##ɑ": 2001,
      "##d": 2002,
      "##ॄ": 2003,
      "##ॉ": 2004,
      "##☝": 2005,
      "##३": 2006,
      "##ऩ": 2007,
      "##ळ": 2008,
      "##1": 2009,
      "##ರ": 2010,
      "##್": 2011,
      "##9": 2012,
      "##4": 2013,
      "##ई": 2014,
      "##f": 2015,
      "##)": 2016,
      "##॑": 2017,
      "##&": 2018,
      "##आ": 2019,
      "##8": 2020,
      "##ऴ": 2021,
      "##८": 2022,
      "##७": 2023,
      "##5": 2024,
      "##v": 2025,
      "##7": 2026,
      "##ऊ": 2027,
      "##उ": 2028,
      "##ओ": 2029,
      "##x": 2030,
      "##ऋ": 2031,
      "##ó": 2032,
      "##᳚": 2033,
      "##ư": 2034,
      "##્": 2035,
      "##ર": 2036,
      "##ક": 2037,
      "##ણ": 2038,
      "##z": 2039,
      "##ো": 2040,
      "##গ": 2041,
      "##е": 2042,
      "##р": 2043,
      "##в": 2044,
      "##о": 2045,
      "##д": 2046,
      "##ꣳ": 2047,
      "##औ": 2048,
      "##́": 2049,
      "##ā": 2050,
      "##~": 2051,
      "##ḍ": 2052,
      "##ḥ": 2053,
      "##ю": 2054,
      "##н": 2055,
      "##ь": 2056,
      "##w": 2057,
      "##,": 2058,
      "##<": 2059,
      "##ऱ": 2060,
      "##^": 2061,
      "##.": 2062,
      "##ॅ": 2063,
      "##ン": 2064,
      "##デ": 2065,
      "##ィ": 2066,
      "##ー": 2067,
      "##語": 2068,
      "##$": 2069,
      "##\"": 2070,
      "##ʼ": 2071,
      "##ṇ": 2072,
      "##ॐ": 2073,
      "##̄": 2074,
      "##ॢ": 2075,
      "##м": 2076,
      "##ऺ": 2077,
      "##!": 2078,
      "##自": 2079,
      "##能": 2080,
      "##知": 2081,
      "##故": 2082,
      "##q": 2083,
      "##ి": 2084,
      "##న": 2085,
      "##ు": 2086,
      "##మ": 2087,
      "##{": 2088,
      "###": 2089,
      "##?": 2090,
      "##ñ": 2091,
      "##்": 2092,
      "##器": 2093,
      "##人": 2094,
      "##ō": 2095,
      "##॓": 2096,
      "##ʒ": 2097,
      "##ð": 2098,
      "##â": 2099,
      "##æ": 2100,
      "##:": 2101,
      "##ऐ": 2102,
      "##л": 2103,
      "##у": 2104,
      "##ч": 2105,
      "##а": 2106,
      "##é": 2107,
      "##̇": 2108,
      "##ˆ": 2109,
      "##ʃ": 2110,
      "##ṣ": 2111,
      "##с": 2112,
      "##п": 2113,
      "##게": 2114,
      "##꣢": 2115,
      "##无": 2116,
      "##异": 2117,
      "##非": 2118,
      "##᳖": 2119,
      "##-": 2120,
      "##ऌ": 2121,
      "##உ": 2122,
      "##解": 2123,
      "##的": 2124,
      "##新": 2125,
      "##安": 2126,
      "##全": 2127,
      "##ᳪ": 2128,
      "##᳭": 2129,
      "##ய": 2130,
      "##ர": 2131,
      "##റ": 2132,
      "##യ": 2133,
      "##ാ": 2134,
      "##ു": 2135,
      "##ണ": 2136,
      "##്": 2137,
      "##ട": 2138,
      "##ॿ": 2139,
      "##𑑂": 2140,
      "##𑐫": 2141,
      "##𑐵": 2142,
      "##𑐎": 2143,
      "##𑑅": 2144,
      "##᳘": 2145,
      "##ن": 2146,
      "##گ": 2147,
      "##।": 2148,
      "##ו": 2149,
      "##ס": 2150,
      "##י": 2151,
      "##ף": 2152,
      "##}": 2153,
      "##ಳ": 2154,
      "##ï": 2155,
      "##者": 2156,
      "##观": 2157,
      "##何": 2158,
      "##为": 2159,
      "##]": 2160,
      "##'": 2161,
      "##ക": 2162,
      "##ത": 2163,
      "##ദ": 2164,
      "##*": 2165,
      "##む": 2166,
      "##є": 2167,
      "##τ": 2168,
      "##ı": 2169,
      "##ν": 2170,
      "##α": 2171,
      "##[": 2172,
      "##=": 2173,
      "##و": 2174,
      "##م": 2175,
      "##タ": 2176,
      "##チ": 2177,
      "##コ": 2178,
      "##マ": 2179,
      "##함": 2180,
      "##>": 2181,
      "##॔": 2182,
      "##ê": 2183,
      "##ླ": 2184,
      "##í": 2185,
      "##à": 2186,
      "##ş": 2187,
      "##🙏": 2188,
      "##🚩": 2189,
      "##📺": 2190,
      "##ž": 2191,
      "##̐": 2192,
      "##ū": 2193,
      "##î": 2194,
      "##ṛ": 2195,
      "##域": 2196,
      "##名": 2197,
      "##稱": 2198,
      "##ા": 2199,
      "##ન": 2200,
      "##ી": 2201,
      "##ö": 2202,
      "##પ": 2203,
      "##発": 2204,
      "##音": 2205,
      "##の": 2206,
      "##仕": 2207,
      "##方": 2208,
      "##з": 2209,
      "##т": 2210,
      "##ы": 2211,
      "##й": 2212,
      "##и": 2213,
      "##я": 2214,
      "##ζ": 2215,
      "##음": 2216,
      "##ж": 2217,
      "##ੋ": 2218,
      "##ਕ": 2219,
      "##逝": 2220,
      "##孕": 2221,
      "##ફ": 2222,
      "##ે": 2223,
      "##ü": 2224,
      "##ऍ": 2225,
      "##ು": 2226,
      "##ಂ": 2227,
      "##ý": 2228,
      "##િ": 2229,
      "##ધ": 2230,
      "##ં": 2231,
      "##ત": 2232,
      "##ب": 2233,
      "##ي": 2234,
      "##ر": 2235,
      "##/": 2236,
      "##к": 2237,
      "##ī": 2238,
      "##ł": 2239,
      "##승": 2240,
      "##민": 2241,
      "##ṁ": 2242,
      "##॥": 2243,
      "##키": 2244,
      "##낱": 2245,
      "##말": 2246,
      "##사": 2247,
      "##전": 2248,
      "##ˈ": 2249,
      "##👩": 2250,
      "##🎓": 2251,
      "##락": 2252,
      "##月": 2253,
      "##দ": 2254,
      "##ধ": 2255,
      "##ৃ": 2256,
      "##라": 2257,
      "##୍": 2258,
      "##ର": 2259,
      "##ତ": 2260,
      "##ି": 2261,
      "##ଭ": 2262,
      "##ା": 2263,
      "##ೇ": 2264,
      "##ದ": 2265,
      "##த": 2266,
      "##ு": 2267,
      "##ஷ": 2268,
      "##ட": 2269,
      "##ா": 2270,
      "##ன": 2271,
      "##ம": 2272,
      "##સ": 2273,
      "##ય": 2274,
      "##🍀": 2275,
      "##೦": 2276,
      "##←": 2277,
      "##̥": 2278,
      "##ṭ": 2279,
      "##♀": 2280,
      "##മ": 2281,
      "##ല": 2282,
      "##ള": 2283,
      "##ം": 2284,
      "##ᭅ": 2285,
      "##+": 2286,
      "##年": 2287,
      "##વ": 2288,
      "##ി": 2289,
      "##🍃": 2290,
      "##😍": 2291,
      "##🔥": 2292,
      "##̠": 2293,
      "##̍": 2294,
      "##꣣": 2295,
      "##ಾ": 2296,
      "##ಗ": 2297,
      "##生": 2298,
      "##应": 2299,
      "##因": 2300,
      "##ತ": 2301,
      "##ಿ": 2302,
      "##ಲ": 2303,
      "##ೆ": 2304,
      "##ਿ": 2305,
      "##ੱ": 2306,
      "##ਖ": 2307,
      "##ੀ": 2308,
      "##ો": 2309,
      "##ಮ": 2310,
      "##ן": 2311,
      "##á": 2312,
      "##꣡": 2313,
      "##꣯": 2314,
      "##ര": 2315,
      "##െ": 2316,
      "##ന": 2317,
      "##ോ": 2318,
      "##ੇ": 2319,
      "##ཊ": 2320,
      "##ë": 2321,
      "##;": 2322,
      "##ç": 2323,
      "##•": 2324,
      "##ᛚ": 2325,
      "##క": 2326,
      "##్": 2327,
      "##ష": 2328,
      "##ర": 2329,
      "##వ": 2330,
      "##ం": 2331,
      "##ŋ": 2332,
      "##ē": 2333,
      "##і": 2334,
      "##ل": 2335,
      "##ا": 2336,
      "##ء": 2337,
      "##ྥ": 2338,
      "##ུ": 2339,
      "##ऑ": 2340,
      "##х": 2341,
      "##›": 2342,
      "##ி": 2343,
      "##ྲ": 2344,
      "##ྭ": 2345,
      "##🎶": 2346,
      "##%": 2347,
      "##つ": 2348,
      "##̶": 2349,
      "##ὕ": 2350,
      "##ρ": 2351,
      "##η": 2352,
      "##κ": 2353,
      "##봇": 2354,
      "##이": 2355,
      "##가": 2356,
      "##૧": 2357,
      "##б": 2358,
      "##吥": 2359,
      "##ൊ": 2360,
      "##ऒ": 2361,
      "##ę": 2362,
      "##ছ": 2363,
      "##ে": 2364,
      "##ř": 2365,
      "##༨": 2366,
      "##ऻ": 2367,
      "##è": 2368,
      "##🌞": 2369,
      "##ഞ": 2370,
      "##ച": 2371,
      "##য": 2372,
      "##়": 2373,
      "##চ": 2374,
      "##ї": 2375,
      "##ಸ": 2376,
      "##¢": 2377,
      "##八": 2378,
      "##增": 2379,
      "##加": 2380,
      "##一": 2381,
      "##相": 2382,
      "##晴": 2383,
      "##ら": 2384,
      "##し": 2385,
      "##か": 2386,
      "##っ": 2387,
      "##た": 2388,
      "##ා": 2389,
      "##ස": 2390,
      "##😞": 2391,
      "##疆": 2392,
      "##维": 2393,
      "##尔": 2394,
      "##੍": 2395,
      "##ਰ": 2396,
      "##ਤ": 2397,
      "##ਮ": 2398,
      "##ॠ": 2399,
      "##′": 2400,
      "##ગ": 2401,
      "##બ": 2402,
      "##হ": 2403,
      "##ং": 2404,
      "##স": 2405,
      "##س": 2406,
      "##ه": 2407,
      "##č": 2408,
      "##ć": 2409,
      "##🌄": 2410,
      "##🌹": 2411,
      "##💏": 2412,
      "##ൈ": 2413,
      "##ഖ": 2414,
      "##ീ": 2415,
      "##划": 2416,
      "##ǒ": 2417,
      "##ପ": 2418,
      "##ğ": 2419,
      "##ц": 2420,
      "##事": 2421,
      "##整": 2422,
      "##时": 2423,
      "##间": 2424,
      "##表": 2425,
      "##إ": 2426,
      "##ك": 2427,
      "##🎉": 2428,
      "##🍾": 2429,
      "##জ": 2430,
      "##京": 2431,
      "##都": 2432,
      "##ś": 2433,
      "##彼": 2434,
      "##岂": 2435,
      "##义": 2436,
      "##依": 2437,
      "##⇒": 2438,
      "##હ": 2439,
      "##મ": 2440,
      "##દ": 2441,
      "##ང": 2442,
      "##ས": 2443,
      "##š": 2444,
      "##出": 2445,
      "##具": 2446,
      "##理": 2447,
      "##リ": 2448,
      "##ズ": 2449,
      "##ق": 2450,
      "##ة": 2451,
      "##🇵": 2452,
      "##款": 2453,
      "##ذ": 2454,
      "##ف": 2455,
      "##♥": 2456,
      "##г": 2457,
      "##ፂ": 2458,
      "##ೊ": 2459,
      "##ಡ": 2460,
      "##れ": 2461,
      "##ج": 2462,
      "##ה": 2463,
      "##א": 2464,
      "##נ": 2465,
      "##ב": 2466,
      "##ר": 2467,
      "##ט": 2468,
      "##ቮ": 2469,
      "##స": 2470,
      "##హ": 2471,
      "##ా": 2472,
      "##ん": 2473,
      "##ઃ": 2474,
      "##ྨ": 2475,
      "##ི": 2476,
      "##డ": 2477,
      "##ె": 2478,
      "##ળ": 2479,
      "##く": 2480,
      "##ऄ": 2481,
      "##õ": 2482,
      "##✍": 2483,
      "##૦": 2484,
      "##શ": 2485,
      "##ୟ": 2486,
      "##름": 2487,
      "##ラ": 2488,
      "##ス": 2489,
      "##ų": 2490,
      "##ல": 2491,
      "##신": 2492,
      "##중": 2493,
      "##입": 2494,
      "##니": 2495,
      "##다": 2496,
      "##ح": 2497,
      "##ʉ": 2498,
      "##ɡ": 2499,
      "##ÿ": 2500,
      "##休": 2501,
      "##み": 2502,
      "##な": 2503,
      "##さ": 2504,
      "##い": 2505,
      "##ά": 2506,
      "##€": 2507,
      "##句": 2508,
      "##中": 2509,
      "##લ": 2510,
      "##ế": 2511,
      "##ڪ": 2512,
      "##ت": 2513,
      "##ṝ": 2514,
      "##‹": 2515,
      "##ഭ": 2516,
      "##വ": 2517,
      "##േ": 2518,
      "##ವ": 2519,
      "##ø": 2520,
      "##ನ": 2521,
      "##👨": 2522,
      "##👧": 2523,
      "##જ": 2524,
      "##ઞ": 2525,
      "##所": 2526,
      "##作": 2527,
      "##复": 2528,
      "##须": 2529,
      "##พ": 2530,
      "##ิ": 2531,
      "##่": 2532,
      "##ม": 2533,
      "##ً": 2534,
      "##৷": 2535,
      "##થ": 2536,
      "##当": 2537,
      "##茶": 2538,
      "##を": 2539,
      "##ひ": 2540,
      "##と": 2541,
      "##ন": 2542,
      "##代": 2543,
      "##十": 2544,
      "##國": 2545,
      "##ெ": 2546,
      "##வ": 2547,
      "##ே": 2548,
      "##ш": 2549,
      "##ß": 2550,
      "##ജ": 2551,
      "##പ": 2552,
      "##@": 2553,
      "##ট": 2554,
      "##ই": 2555,
      "##\\": 2556,
      "##不": 2557,
      "##念": 2558,
      "##长": 2559,
      "##觉": 2560,
      "##ƒ": 2561,
      "##브": 2562,
      "##ক": 2563,
      "##ખ": 2564,
      "##ṃ": 2565,
      "##᳒": 2566,
      "##᭭": 2567,
      "##ú": 2568,
      "##ј": 2569,
      "##𑐕": 2570,
      "##💐": 2571,
      "##ੁ": 2572,
      "##ੂ": 2573,
      "##ண": 2574,
      "##ந": 2575,
      "##处": 2576,
      "##ભ": 2577,
      "##ુ": 2578,
      "##ʿ": 2579,
      "##க": 2580,
      "##ள": 2581,
      "##॰": 2582,
      "##ã": 2583,
      "##球": 2584,
      "##研": 2585,
      "##究": 2586,
      "##💕": 2587,
      "##ऎ": 2588,
      "##щ": 2589,
      "##₹": 2590,
      "##ی": 2591,
      "##ع": 2592,
      "##ശ": 2593,
      "##성": 2594,
      "##듬": 2595,
      "##ʊ": 2596,
      "##ʁ": 2597,
      "##ˌ": 2598,
      "##🇳": 2599,
      "##🇮": 2600,
      "##כ": 2601,
      "##泊": 2602,
      "##ற": 2603,
      "##お": 2604,
      "##あ": 2605,
      "##め": 2606,
      "##팅": 2607,
      "##ż": 2608,
      "##ప": 2609,
      "##య": 2610,
      "##从": 2611,
      "##余": 2612,
      "##返": 2613,
      "##ల": 2614,
      "##ᆬ": 2615,
      "##ą": 2616,
      "##−": 2617,
      "##་": 2618,
      "##ò": 2619,
      "##에": 2620,
      "##ഷ": 2621,
      "##ങ": 2622,
      "##ચ": 2623,
      "##➧": 2624,
      "##ۆ": 2625,
      "##ک": 2626,
      "##د": 2627,
      "##త": 2628,
      "##ொ": 2629,
      "##ை": 2630,
      "##‡": 2631,
      "##פ": 2632,
      "##ם": 2633,
      "##ூ": 2634,
      "##û": 2635,
      "##ಠ": 2636,
      "##ડ": 2637,
      "##¤": 2638,
      "##۔": 2639,
      "##械": 2640,
      "##ਟ": 2641,
      "##מ": 2642,
      "##ק": 2643,
      "##ד": 2644,
      "##ש": 2645,
      "##π": 2646,
      "##ɒ": 2647,
      "##⭐": 2648,
      "##🏻": 2649,
      "##⠀": 2650,
      "##る": 2651,
      "##白": 2652,
      "##猫": 2653,
      "##ҫ": 2654,
      "##►": 2655,
      "##ě": 2656,
      "##ൂ": 2657,
      "##ൻ": 2658,
      "##💮": 2659,
      "##þ": 2660,
      "##は": 2661,
      "##よ": 2662,
      "##う": 2663,
      "##ご": 2664,
      "##ざ": 2665,
      "##ま": 2666,
      "##す": 2667,
      "##ಭ": 2668,
      "##ಯ": 2669,
      "##한": 2670,
      "##국": 2671,
      "##發": 2672,
      "##ე": 2673,
      "##ნ": 2674,
      "##გ": 2675,
      "##ი": 2676,
      "##ზ": 2677,
      "##ധ": 2678,
      "##🇹": 2679,
      "##🇦": 2680,
      "##🇺": 2681,
      "##🇱": 2682,
      "##🇸": 2683,
      "##ڌ": 2684,
      "##ל": 2685,
      "##ى": 2686,
      "##ں": 2687,
      "##ૂ": 2688,
      "##❌": 2689,
      "##ઈ": 2690,
      "##એ": 2691,
      "##朝": 2692,
      "##ì": 2693,
      "##೧": 2694,
      "##೨": 2695,
      "##ଡ": 2696,
      "##଼": 2697,
      "##ଆ": 2698,
      "##破": 2699,
      "##정": 2700,
      "##ش": 2701,
      "##🌈": 2702,
      "##ಕ": 2703,
      "##°": 2704,
      "##ע": 2705,
      "##ת": 2706,
      "##汇": 2707,
      "##ε": 2708,
      "##ὸ": 2709,
      "##ς": 2710,
      "##诸": 2711,
      "##语": 2712,
      "##政": 2713,
      "##官": 2714,
      "##员": 2715,
      "##少": 2716,
      "##寝": 2717,
      "##て": 2718,
      "##ಚ": 2719,
      "##ä": 2720,
      "##我": 2721,
      "##而": 2722,
      "##贪": 2723,
      "##œ": 2724,
      "##ப": 2725,
      "##ோ": 2726,
      "##χ": 2727,
      "##ι": 2728,
      "##μ": 2729,
      "##ή": 2730,
      "##δ": 2731,
      "##ක": 2732,
      "##්": 2733,
      "##𑑀": 2734,
      "##𑐴": 2735,
      "##𑑄": 2736,
      "##å": 2737,
      "##ർ": 2738,
      "##ہ": 2739,
      "##北": 2740,
      "##√": 2741,
      "##首": 2742,
      "##席": 2743,
      "##飞": 2744,
      "##行": 2745,
      "##运": 2746,
      "##检": 2747,
      "##查": 2748,
      "##★": 2749,
      "##∆": 2750,
      "##ལ": 2751,
      "##ਸ": 2752,
      "##਼": 2753,
      "##ਾ": 2754,
      "##ਲ": 2755,
      "##ಪ": 2756,
      "##ಹ": 2757,
      "##ጻ": 2758,
      "##ù": 2759,
      "##ટ": 2760,
      "##ீ": 2761,
      "##ஶ": 2762,
      "##ג": 2763,
      "##ॡ": 2764,
      "##پ": 2765,
      "##운": 2766,
      "##可": 2767,
      "##口": 2768,
      "##哥": 2769,
      "##하": 2770,
      "##기": 2771,
      "##や": 2772,
      "##대": 2773,
      "##못": 2774,
      "##깨": 2775,
      "##는": 2776,
      "##چ": 2777,
      "##영": 2778,
      "##상": 2779,
      "##️": 2780,
      "##ণ": 2781,
      "##👉": 2782,
      "##●": 2783,
      "##ೀ": 2784,
      "##ა": 2785,
      "##რ": 2786,
      "##დ": 2787,
      "##ც": 2788,
      "##ვ": 2789,
      "##ლ": 2790,
      "##咒": 2791,
      "##成": 2792,
      "##果": 2793,
      "##ഴ": 2794,
      "##使": 2795,
      "##ૃ": 2796,
      "##¬": 2797,
      "##±": 2798,
      "##ʌ": 2799,
      "##ω": 2800,
      "##ཁ": 2801,
      "##མ": 2802,
      "##💑": 2803,
      "##ષ": 2804,
      "##을": 2805,
      "##😅": 2806,
      "##😂": 2807,
      "##说": 2808,
      "##反": 2809,
      "##引": 2810,
      "##🔐": 2811,
      "##が": 2812,
      "##ǔ": 2813,
      "##ײ": 2814,
      "##ַ": 2815,
      "##円": 2816,
      "##用": 2817,
      "##期": 2818,
      "##間": 2819,
      "##خ": 2820,
      "##🏀": 2821,
      "##🏹": 2822,
      "##🤩": 2823,
      "##👌": 2824,
      "##უ": 2825,
      "##ழ": 2826,
      "##૪": 2827,
      "##০": 2828,
      "##৩": 2829,
      "##శ": 2830,
      "##®": 2831,
      "##于": 2832,
      "##身": 2833,
      "##页": 2834,
      "##面": 2835,
      "##存": 2836,
      "##废": 2837,
      "##讨": 2838,
      "##论": 2839,
      "##通": 2840,
      "##ྒ": 2841,
      "##ན": 2842,
      "##陸": 2843,
      "##ṅ": 2844,
      "##亲": 2845,
      "##父": 2846,
      "##▼": 2847,
      "##¦": 2848,
      "##🌺": 2849,
      "##ద": 2850,
      "##터": 2851,
      "##레": 2852,
      "##서": 2853,
      "##ٹ": 2854,
      "##쉬": 2855,
      "##시": 2856,
      "##×": 2857,
      "##😳": 2858,
      "##탄": 2859,
      "##력": 2860,
      "##적": 2861,
      "##인": 2862,
      "##⚕": 2863,
      "##ஹ": 2864,
      "##ز": 2865,
      "##ٰ": 2866,
      "##📢": 2867,
      "##😊": 2868,
      "##🌷": 2869,
      "##ൾ": 2870,
      "##ॾ": 2871,
      "##ۂ": 2872,
      "##ੰ": 2873,
      "##ਜ": 2874,
      "##ਬ": 2875,
      "##程": 2876,
      "##意": 2877,
      "##ൃ": 2878,
      "##了": 2879,
      "##达": 2880,
      "##各": 2881,
      "##别": 2882,
      "##̖": 2883,
      "##σ": 2884,
      "##ഛ": 2885,
      "##합": 2886,
      "##ャ": 2887,
      "##国": 2888,
      "##ܘ": 2889,
      "##ܒ": 2890,
      "##ܛ": 2891,
      "##ە": 2892,
      "##是": 2893,
      "##闻": 2894,
      "##遣": 2895,
      "##백": 2896,
      "##ち": 2897,
      "##ゃ": 2898,
      "##衆": 2899,
      "##의": 2900,
      "##≥": 2901,
      "##ᳬ": 2902,
      "##ᳲ": 2903,
      "##⃣": 2904,
      "##†": 2905,
      "##🗃": 2906,
      "##益": 2907,
      "##转": 2908,
      "##☘": 2909,
      "##ܠ": 2910,
      "##ܦ": 2911,
      "##ܐ": 2912,
      "##ৰ": 2913,
      "##į": 2914,
      "##💫": 2915,
      "##二": 2916,
      "##册": 2917,
      "##境": 2918,
      "##パ": 2919,
      "##ル": 2920,
      "##ഗ": 2921,
      "##😡": 2922,
      "##઼": 2923,
      "##许": 2924,
      "##終": 2925,
      "##電": 2926,
      "##車": 2927,
      "##ಃ": 2928,
      "##ಶ": 2929,
      "##ಬ": 2930,
      "##♡": 2931,
      "##থ": 2932,
      "##ॼ": 2933,
      "##ُ": 2934,
      "##话": 2935,
      "##ǁ": 2936,
      "##📸": 2937,
      "##ᚾ": 2938,
      "##ᛋ": 2939,
      "##ᛁ": 2940,
      "##ᛞ": 2941,
      "##ᛖ": 2942,
      "##ൽ": 2943,
      "##灭": 2944,
      "##常": 2945,
      "##如": 2946,
      "##类": 2947,
      "##청": 2948,
      "##◆": 2949,
      "##🔱": 2950,
      "##ॺ": 2951,
      "##ૠ": 2952,
      "##£": 2953,
      "##φ": 2954,
      "##ਂ": 2955,
      "##ਡ": 2956,
      "##バ": 2957,
      "##ッ": 2958,
      "##ク": 2959,
      "##合": 2960,
      "##ф": 2961,
      "##👍": 2962,
      "##错": 2963,
      "##然": 2964,
      "##地": 2965,
      "##스": 2966,
      "##크": 2967,
      "##리": 2968,
      "##트": 2969,
      "##어": 2970,
      "##로": 2971,
      "##้": 2972,
      "##น": 2973,
      "##ห": 2974,
      "##า": 2975,
      "##で": 2976,
      "##େ": 2977,
      "##ଖ": 2978,
      "##କ": 2979,
      "##ଃ": 2980,
      "##ড": 2981,
      "##金": 2982,
      "##ắ": 2983,
      "##与": 2984,
      "##声": 2985,
      "##属": 2986,
      "##比": 2987,
      "##度": 2988,
      "##其": 2989,
      "##工": 2990,
      "##师": 2991,
      "##🙂": 2992,
      "##ô": 2993,
      "##效": 2994,
      "##ཱ": 2995,
      "##ķ": 2996,
      "##ʋ": 2997,
      "##💠": 2998,
      "##🌙": 2999,
      "##👇": 3000,
      "##✓": 3001,
      "##ր": 3002,
      "##ե": 3003,
      "##ւ": 3004,
      "##ա": 3005,
      "##ն": 3006,
      "##·": 3007,
      "##書": 3008,
      "##康": 3009,
      "##🤲": 3010,
      "##̃": 3011,
      "##▶": 3012,
      "##뜨": 3013,
      "##习": 3014,
      "##째": 3015,
      "##ත": 3016,
      "##ි": 3017,
      "##ය": 3018,
      "##💛": 3019,
      "##ઠ": 3020,
      "##切": 3021,
      "##倒": 3022,
      "##六": 3023,
      "##章": 3024,
      "##消": 3025,
      "##化": 3026,
      "##吸": 3027,
      "##收": 3028,
      "##᮰": 3029,
      "##永": 3030,
      "##続": 3031,
      "##繁": 3032,
      "##栄": 3033,
      "##(": 3034,
      "##염": 3035,
      "##ഠ": 3036,
      "##ᄉ": 3037,
      "##세": 3038,
      "##ᛏ": 3039,
      "##ᚻ": 3040,
      "##ᚩ": 3041,
      "##ᛗ": 3042,
      "##প": 3043,
      "##ዝ": 3044,
      "##ብ": 3045,
      "##ȩ": 3046,
      "##ئ": 3047,
      "##ሩ": 3048,
      "##❤": 3049,
      "##小": 3050,
      "##吗": 3051,
      "##個": 3052,
      "##ɜ": 3053,
      "##૨": 3054,
      "##英": 3055,
      "##哉": 3056,
      "##э": 3057,
      "##ė": 3058,
      "##೪": 3059,
      "##此": 3060,
      "##亦": 3061,
      "##除": 3062,
      "##你": 3063,
      "##忘": 3064,
      "##記": 3065,
      "##憶": 3066,
      "##ᄌ": 3067,
      "##ೃ": 3068,
      "##量": 3069,
      "##颂": 3070,
      "##ȯ": 3071,
      "##ʟ": 3072,
      "##ᴇ": 3073,
      "##ᴀ": 3074,
      "##ệ": 3075,
      "##θ": 3076,
      "##😘": 3077,
      "##ฟ": 3078,
      "##ั": 3079,
      "##ง": 3080,
      "##ё": 3081,
      "##ਣ": 3082,
      "##。": 3083,
      "##得": 3084,
      "##显": 3085,
      "##大": 3086,
      "##利": 3087,
      "##ೋ": 3088,
      "##자": 3089,
      "##日": 3090,
      "##😇": 3091,
      "##💗": 3092,
      "##ร": 3093,
      "##บ": 3094,
      "##อ": 3095,
      "##ต": 3096,
      "##叉": 3097,
      "##🌿": 3098,
      "##位": 3099,
      "##格": 3100,
      "##ೂ": 3101,
      "##ᱧ": 3102,
      "##수": 3103,
      "##증": 3104,
      "##尊": 3105,
      "##龙": 3106,
      "##🤪": 3107,
      "##份": 3108,
      "##報": 3109,
      "##告": 3110,
      "##け": 3111,
      "##ഥ": 3112,
      "##ń": 3113,
      "##止": 3114,
      "##ઉ": 3115,
      "##ܣ": 3116,
      "##ܬ": 3117,
      "##立": 3118,
      "##💔": 3119,
      "##ಟ": 3120,
      "##أ": 3121,
      "##খ": 3122,
      "##술": 3123,
      "##외": 3124,
      "##സ": 3125,
      "##ഹ": 3126,
      "##文": 3127,
      "##✨": 3128,
      "##威": 3129,
      "##き": 3130,
      "##월": 3131,
      "##≍": 3132,
      "##അ": 3133,
      "##జ": 3134,
      "##染": 3135,
      "##婆": 3136,
      "##薩": 3137,
      "##哷": 3138,
      "##那": 3139,
      "##摩": 3140,
      "##ِ": 3141,
      "##雨": 3142,
      "##ྱ": 3143,
      "##ྀ": 3144,
      "##《": 3145,
      "##有": 3146,
      "##ḏ": 3147,
      "##入": 3148,
      "##过": 3149,
      "##同": 3150,
      "##ჱ": 3151,
      "##ロ": 3152,
      "##ゼ": 3153,
      "##シ": 3154,
      "##ョ": 3155,
      "##影": 3156,
      "##響": 3157,
      "##和": 3158,
      "##祖": 3159,
      "##天": 3160,
      "##堂": 3161,
      "##更": 3162,
      "##伟": 3163,
      "##§": 3164,
      "##만": 3165,
      "##간": 3166,
      "##ŏ": 3167,
      "##→": 3168,
      "##ী": 3169,
      "##냐": 3170,
      "##히": 3171,
      "##星": 3172,
      "##💰": 3173,
      "##🥀": 3174,
      "##广": 3175,
      "##ボ": 3176,
      "##ト": 3177,
      "##に": 3178,
      "##ό": 3179,
      "##ο": 3180,
      "##😃": 3181,
      "##ȧ": 3182,
      "##ط": 3183,
      "##学": 3184,
      "##處": 3185,
      "##印": 3186,
      "##📰": 3187,
      "##꣫": 3188,
      "##ॱ": 3189,
      "##지": 3190,
      "##آ": 3191,
      "##答": 3192,
      "##言": 3193,
      "##😄": 3194,
      "##🕉": 3195,
      "##ஸ": 3196,
      "##அ": 3197,
      "##𑐰": 3198,
      "##ೲ": 3199,
      "##セ": 3200,
      "##イ": 3201,
      "##ధ": 3202,
      "##進": 3203,
      "##願": 3204,
      "##ኳ": 3205,
      "##👈": 3206,
      "##ә": 3207,
      "##🐯": 3208,
      "##ᘏ": 3209,
      "##ᗢ": 3210,
      "##げ": 3211,
      "##介": 3212,
      "##🎖": 3213,
      "##요": 3214,
      "##ై": 3215,
      "##나": 3216,
      "##发": 3217,
      "##ල": 3218,
      "##ද": 3219,
      "##ව": 3220,
      "##🖊": 3221,
      "##互": 3222,
      "##杂": 3223,
      "##乱": 3224,
      "##🏽": 3225,
      "##ア": 3226,
      "##ジ": 3227,
      "##‐": 3228,
      "##ῖ": 3229,
      "##⛳": 3230,
      "##性": 3231,
      "##决": 3232,
      "##定": 3233,
      "##🤝": 3234,
      "##韩": 3235,
      "##民": 3236,
      "##చ": 3237,
      "##ో": 3238,
      "##ే": 3239,
      "##ˎ": 3240,
      "##ො": 3241,
      "##ම": 3242,
      "##¡": 3243,
      "##🎼": 3244,
      "##到": 3245,
      "##好": 3246,
      "##蝶": 3247,
      "##葬": 3248,
      "##花": 3249,
      "##障": 3250,
      "##西": 3251,
      "##班": 3252,
      "##牙": 3253,
      "##弥": 3254,
      "##급": 3255,
      "##ബ": 3256,
      "##ど": 3257,
      "##두": 3258,
      "##ɔ": 3259,
      "##ʏ": 3260,
      "##ഈ": 3261,
      "##🍁": 3262,
      "##ۇ": 3263,
      "##غ": 3264,
      "##🕔": 3265,
      "##テ": 3266,
      "##̪": 3267,
      "##ฮ": 3268,
      "##ด": 3269,
      "##ี": 3270,
      "##교": 3271,
      "##ਨ": 3272,
      "##🌍": 3273,
      "##과": 3274,
      "##宦": 3275,
      "##世": 3276,
      "##ষ": 3277,
      "##्य": 3278,
      "##्र": 3279,
      "##्त": 3280,
      "##्व": 3281,
      "##ान": 3282,
      "##ति": 3283,
      "##र्": 3284,
      "##म्": 3285,
      "##ित": 3286,
      "प्र": 3287,
      "##त्": 3288,
      "##्या": 3289,
      "##ार": 3290,
      "##ां": 3291,
      "वि": 3292,
      "##क्": 3293,
      "##न्": 3294,
      "##ते": 3295,
      "##स्य": 3296,
      "##मा": 3297,
      "##ष्": 3298,
      "##या": 3299,
      "##स्त": 3300,
      "##न्त": 3301,
      "##क्ष": 3302,
      "##स्": 3303,
      "##त्र": 3304,
      "##र्व": 3305,
      "##द्": 3306,
      "##ना": 3307,
      "##िक": 3308,
      "##ेन": 3309,
      "##था": 3310,
      "##ाद": 3311,
      "##ेव": 3312,
      "##क्त": 3313,
      "##ाम": 3314,
      "##त्य": 3315,
      "##तः": 3316,
      "##ाय": 3317,
      "##पि": 3318,
      "##वि": 3319,
      "पर": 3320,
      "##ाः": 3321,
      "##्च": 3322,
      "##त्त": 3323,
      "##ाव": 3324,
      "##ष्ट": 3325,
      "नि": 3326,
      "पु": 3327,
      "##ेष": 3328,
      "##प्र": 3329,
      "इति": 3330,
      "सं": 3331,
      "##ाल": 3332,
      "##र्थ": 3333,
      "##नि": 3334,
      "##मि": 3335,
      "सर्व": 3336,
      "##दा": 3337,
      "##्वा": 3338,
      "##यो": 3339,
      "##दि": 3340,
      "भव": 3341,
      "##द्ध": 3342,
      "##ता": 3343,
      "वा": 3344,
      "एव": 3345,
      "##र्त": 3346,
      "##ेश": 3347,
      "##्ञ": 3348,
      "स्": 3349,
      "स्व": 3350,
      "##्यते": 3351,
      "##ाप": 3352,
      "##ङ्": 3353,
      "##ान्": 3354,
      "##ृत": 3355,
      "##रा": 3356,
      "##श्च": 3357,
      "अन": 3358,
      "##यं": 3359,
      "##्यं": 3360,
      "##ये": 3361,
      "##ास": 3362,
      "##ानि": 3363,
      "##भि": 3364,
      "सम": 3365,
      "##िं": 3366,
      "##रण": 3367,
      "##र्म": 3368,
      "##नं": 3369,
      "रा": 3370,
      "तु": 3371,
      "##ात": 3372,
      "##्रि": 3373,
      "##ुर": 3374,
      "##ज्ञ": 3375,
      "##नः": 3376,
      "##्ये": 3377,
      "##कार": 3378,
      "##यः": 3379,
      "##ने": 3380,
      "##ाग": 3381,
      "##रि": 3382,
      "##च्": 3383,
      "##न्द": 3384,
      "प्रति": 3385,
      "##ुः": 3386,
      "सु": 3387,
      "##सं": 3388,
      "##ाण": 3389,
      "##ती": 3390,
      "##न्ति": 3391,
      "##ेद": 3392,
      "##र्ष": 3393,
      "सा": 3394,
      "##रे": 3395,
      "हि": 3396,
      "##रो": 3397,
      "##ल्": 3398,
      "##त्व": 3399,
      "पू": 3400,
      "##ुक्त": 3401,
      "##ष्ठ": 3402,
      "##ानां": 3403,
      "##च्छ": 3404,
      "##स्ति": 3405,
      "##ैव": 3406,
      "##मान": 3407,
      "यथा": 3408,
      "##ेत": 3409,
      "##ूप": 3410,
      "##िव": 3411,
      "##द्य": 3412,
      "ते": 3413,
      "##ाह": 3414,
      "इत्य": 3415,
      "##तो": 3416,
      "##र्ण": 3417,
      "अध": 3418,
      "##ात्": 3419,
      "त्व": 3420,
      "कार": 3421,
      "मह": 3422,
      "एक": 3423,
      "##ीय": 3424,
      "##ान्त": 3425,
      "##मे": 3426,
      "##स्थ": 3427,
      "विश": 3428,
      "देव": 3429,
      "##ब्": 3430,
      "द्व": 3431,
      "##भव": 3432,
      "##गु": 3433,
      "##सि": 3434,
      "##नु": 3435,
      "##रु": 3436,
      "##िः": 3437,
      "##ेण": 3438,
      "##ोऽ": 3439,
      "##ाष": 3440,
      "श्र": 3441,
      "##लं": 3442,
      "##कं": 3443,
      "##हं": 3444,
      "##मु": 3445,
      "##ङ्ग": 3446,
      "क्": 3447,
      "उप": 3448,
      "##ैः": 3449,
      "##ुं": 3450,
      "##व्य": 3451,
      "तथा": 3452,
      "##स्या": 3453,
      "##ितः": 3454,
      "##रं": 3455,
      "##ेषु": 3456,
      "कु": 3457,
      "सम्": 3458,
      "##का": 3459,
      "##र्ग": 3460,
      "##भाव": 3461,
      "कि": 3462,
      "##ृष्ट": 3463,
      "##न्ध": 3464,
      "##द्व": 3465,
      "##री": 3466,
      "##सा": 3467,
      "##ृश": 3468,
      "##स्तु": 3469,
      "##मः": 3470,
      "राज": 3471,
      "##ष्य": 3472,
      "##कः": 3473,
      "मे": 3474,
      "##प्त": 3475,
      "भवति": 3476,
      "##देश": 3477,
      "##क्र": 3478,
      "कथ": 3479,
      "क्ष": 3480,
      "##ृह": 3481,
      "##णं": 3482,
      "##िता": 3483,
      "##तं": 3484,
      "##ण्": 3485,
      "##वा": 3486,
      "मा": 3487,
      "सह": 3488,
      "##त्या": 3489,
      "##नो": 3490,
      "##ग्": 3491,
      "##रः": 3492,
      "##के": 3493,
      "यो": 3494,
      "किं": 3495,
      "##द्र": 3496,
      "##सी": 3497,
      "स्थ": 3498,
      "##कृ": 3499,
      "परि": 3500,
      "##तु": 3501,
      "##ग्र": 3502,
      "##न्य": 3503,
      "##योग": 3504,
      "कृ": 3505,
      "--": 3506,
      "##हि": 3507,
      "##ोप": 3508,
      "वै": 3509,
      "##स्मा": 3510,
      "सू": 3511,
      "व्य": 3512,
      "मु": 3513,
      "ना": 3514,
      "अपि": 3515,
      "##र्श": 3516,
      "##ञ्च": 3517,
      "##र्य": 3518,
      "##धि": 3519,
      "##ितं": 3520,
      "तत्": 3521,
      "##नी": 3522,
      "##ानं": 3523,
      "समा": 3524,
      "यदि": 3525,
      "##्री": 3526,
      "एत": 3527,
      "स्त": 3528,
      "##न्न": 3529,
      "##दं": 3530,
      "##णा": 3531,
      "##मेव": 3532,
      "अप": 3533,
      "तस्य": 3534,
      "##भू": 3535,
      "##भ्य": 3536,
      "दु": 3537,
      "##ीव": 3538,
      "प्राप": 3539,
      "तद": 3540,
      "अनु": 3541,
      "पूर्व": 3542,
      "##स्व": 3543,
      "पृ": 3544,
      "##ला": 3545,
      "##त्वा": 3546,
      "##ुद्ध": 3547,
      "##ल्प": 3548,
      "भू": 3549,
      "##याः": 3550,
      "##ब्द": 3551,
      "##रूप": 3552,
      "अस्ति": 3553,
      "##क्षण": 3554,
      "##स्मि": 3555,
      "##चित": 3556,
      "वर्ष": 3557,
      "तत्र": 3558,
      "ज्ञ": 3559,
      "##लो": 3560,
      "##ध्य": 3561,
      "कृत": 3562,
      "दि": 3563,
      "##ित्य": 3564,
      "##नम्": 3565,
      "एवं": 3566,
      "##तिः": 3567,
      "पा": 3568,
      "##ृत्त": 3569,
      "##ेत्": 3570,
      "##लि": 3571,
      "प्रा": 3572,
      "##श्व": 3573,
      "##धान": 3574,
      "बह": 3575,
      "##चार": 3576,
      "##ण्ड": 3577,
      "विद": 3578,
      "##श्र": 3579,
      "##ुप": 3580,
      "मम": 3581,
      "##कृत": 3582,
      "अथ": 3583,
      "गु": 3584,
      "##पू": 3585,
      "##श्य": 3586,
      "अव": 3587,
      "##ादि": 3588,
      "##त्स": 3589,
      "भार": 3590,
      "नाम": 3591,
      "प्रत्य": 3592,
      "पुनः": 3593,
      "##यति": 3594,
      "##न्ते": 3595,
      "##ेति": 3596,
      "##च्च": 3597,
      "##ितम्": 3598,
      "##नां": 3599,
      "##मं": 3600,
      "##शि": 3601,
      "##्यां": 3602,
      "##ोष": 3603,
      "##्ज": 3604,
      "##वान्": 3605,
      "व्या": 3606,
      "के": 3607,
      "##र्ध": 3608,
      "यत्": 3609,
      "##र्ज": 3610,
      "##धिक": 3611,
      "##स्म": 3612,
      "##णि": 3613,
      "कर्त": 3614,
      "काल": 3615,
      "##ले": 3616,
      "##प्": 3617,
      "लो": 3618,
      "पुन": 3619,
      "##चि": 3620,
      "गृह": 3621,
      "##ीं": 3622,
      "##भाष": 3623,
      "या": 3624,
      "##यम्": 3625,
      "##श्": 3626,
      "##न्त्र": 3627,
      "##यम": 3628,
      "##काल": 3629,
      "##क्षा": 3630,
      "##ित्र": 3631,
      "##करण": 3632,
      "##ीत": 3633,
      "अन्य": 3634,
      "##भाग": 3635,
      "##ाना": 3636,
      "##ुव": 3637,
      "##पद": 3638,
      "##्रिय": 3639,
      "##ेषां": 3640,
      "##ाणि": 3641,
      "##त्म": 3642,
      "##र्थः": 3643,
      "##णे": 3644,
      "कर्म": 3645,
      "##ख्या": 3646,
      "##क्ति": 3647,
      "##ान्य": 3648,
      "स्म": 3649,
      "तदा": 3650,
      "##न्म": 3651,
      "##क्षि": 3652,
      "##पाद": 3653,
      "##न्द्र": 3654,
      "वृ": 3655,
      "प्रथ": 3656,
      "भाष": 3657,
      "स्या": 3658,
      "ग्र": 3659,
      "शि": 3660,
      "##तां": 3661,
      "##भिः": 3662,
      "प्रव": 3663,
      "अधिक": 3664,
      "तव": 3665,
      "##ानु": 3666,
      "जन": 3667,
      "##ामि": 3668,
      "सि": 3669,
      "##धा": 3670,
      "##स्त्र": 3671,
      "दृष्ट": 3672,
      "##युक्त": 3673,
      "##न्तु": 3674,
      "को": 3675,
      "वर्त": 3676,
      "##पर": 3677,
      "ततः": 3678,
      "##पु": 3679,
      "का": 3680,
      "##बन्ध": 3681,
      "##णां": 3682,
      "ति": 3683,
      "##ित्त": 3684,
      "##सु": 3685,
      "देश": 3686,
      "सः": 3687,
      "विष": 3688,
      "##सः": 3689,
      "##य्": 3690,
      "##ह्": 3691,
      "##स्था": 3692,
      "##णः": 3693,
      "##्वं": 3694,
      "तेन": 3695,
      "शु": 3696,
      "करो": 3697,
      "##ुरु": 3698,
      "ये": 3699,
      "क्र": 3700,
      "जीव": 3701,
      "##से": 3702,
      "केव": 3703,
      "कार्य": 3704,
      "##ूल": 3705,
      "##स्मिन्": 3706,
      "##वे": 3707,
      "##र्थं": 3708,
      "अभि": 3709,
      "उत्त": 3710,
      "##मो": 3711,
      "पुत्र": 3712,
      "##िका": 3713,
      "##पा": 3714,
      "प्राप्त": 3715,
      "##यु": 3716,
      "##काश": 3717,
      "##विष्य": 3718,
      "__": 3719,
      "धर्म": 3720,
      "##देव": 3721,
      "##दी": 3722,
      "##ायां": 3723,
      "##योः": 3724,
      "##षु": 3725,
      "##ोक्त": 3726,
      "अत्र": 3727,
      "##जन": 3728,
      "साम": 3729,
      "##ारा": 3730,
      "तं": 3731,
      "##मिति": 3732,
      "ब्र": 3733,
      "##ीति": 3734,
      "लि": 3735,
      "##्यो": 3736,
      "##वाद": 3737,
      "विश्व": 3738,
      "##दे": 3739,
      "##म्ब": 3740,
      "विक": 3741,
      "##च्यते": 3742,
      "भग": 3743,
      "मन": 3744,
      "इत्या": 3745,
      "##दान": 3746,
      "यु": 3747,
      "एष": 3748,
      "##सम": 3749,
      "##स्र": 3750,
      "##को": 3751,
      "##कम्": 3752,
      "##रुष": 3753,
      "##ट्": 3754,
      "त्रि": 3755,
      "##यि": 3756,
      "##तम": 3757,
      "##कु": 3758,
      "दृश": 3759,
      "##रम्": 3760,
      "विशेष": 3761,
      "कथं": 3762,
      "निव": 3763,
      "मया": 3764,
      "##नेन": 3765,
      "भाव": 3766,
      "##ित्": 3767,
      "##्याः": 3768,
      "20": 3769,
      "##ख्य": 3770,
      "##ोध": 3771,
      "##भा": 3772,
      "##प्य": 3773,
      "##मपि": 3774,
      "##क्षे": 3775,
      "##ध्ये": 3776,
      "भविष्य": 3777,
      "त्वं": 3778,
      "अहं": 3779,
      "##क्य": 3780,
      "##हार": 3781,
      "##्रिया": 3782,
      "चि": 3783,
      "##माण": 3784,
      "##विध": 3785,
      "##सार": 3786,
      "##ली": 3787,
      "स्वा": 3788,
      "२०": 3789,
      "##वः": 3790,
      "दे": 3791,
      "जग": 3792,
      "पुरुष": 3793,
      "##ज्य": 3794,
      "##शा": 3795,
      "##ोग": 3796,
      "##..": 3797,
      "##शः": 3798,
      "##नाः": 3799,
      "##यित": 3800,
      "अन्त": 3801,
      "##येत्": 3802,
      "##ज्ञान": 3803,
      "##्याय": 3804,
      "यः": 3805,
      "##पी": 3806,
      "बहु": 3807,
      "सप्त": 3808,
      "द्र": 3809,
      "##िते": 3810,
      "##प्रति": 3811,
      "##सीत्": 3812,
      "##ष्ण": 3813,
      "संस्": 3814,
      "हे": 3815,
      "##्यामि": 3816,
      "##चित्": 3817,
      "##ङ्क": 3818,
      "समु": 3819,
      "रूप": 3820,
      "पृथ": 3821,
      "सुख": 3822,
      "##तम्": 3823,
      "शब्द": 3824,
      "दिव": 3825,
      "पी": 3826,
      "##ष्ट्र": 3827,
      "पद": 3828,
      "##ऽपि": 3829,
      "##ुःख": 3830,
      "अह": 3831,
      "##त्त्व": 3832,
      "सर्वे": 3833,
      "वे": 3834,
      "साध": 3835,
      "##जा": 3836,
      "गुण": 3837,
      "##ृत्य": 3838,
      "##सम्": 3839,
      "तर्": 3840,
      "##ग्रह": 3841,
      "मि": 3842,
      "दी": 3843,
      "##पे": 3844,
      "दू": 3845,
      "##मी": 3846,
      "यत्र": 3847,
      "श्रु": 3848,
      "##ोः": 3849,
      "द्वि": 3850,
      "##विष": 3851,
      "##ोद": 3852,
      "##ाने": 3853,
      "##द्या": 3854,
      "निर्": 3855,
      "##त्वं": 3856,
      "##ृद": 3857,
      "पित": 3858,
      "##ायते": 3859,
      "##णम्": 3860,
      "##दृश": 3861,
      "तद्": 3862,
      "यदा": 3863,
      "##त्रं": 3864,
      "##ञ्ज": 3865,
      "विध": 3866,
      "पृष्ठ": 3867,
      "अतः": 3868,
      "त्र": 3869,
      "##यां": 3870,
      "##िताः": 3871,
      "आसीत्": 3872,
      "काम": 3873,
      "दश": 3874,
      "##चन": 3875,
      "##परि": 3876,
      "##काः": 3877,
      "##विश": 3878,
      "##षे": 3879,
      "##हे": 3880,
      "##शब्द": 3881,
      "बाल": 3882,
      "१९": 3883,
      "##सू": 3884,
      "१०": 3885,
      "सो": 3886,
      "दर्श": 3887,
      "कदा": 3888,
      "व्यव": 3889,
      "##दर्श": 3890,
      "##्यः": 3891,
      "योग": 3892,
      "##चना": 3893,
      "##ाणां": 3894,
      "##ताः": 3895,
      "आव": 3896,
      "##सिद्ध": 3897,
      "##गम": 3898,
      "##त्प": 3899,
      "ने": 3900,
      "चा": 3901,
      "##व्या": 3902,
      "##ीयते": 3903,
      "##लः": 3904,
      "##स्ते": 3905,
      "##er": 3906,
      "शा": 3907,
      "##न्व": 3908,
      "नमः": 3909,
      "अति": 3910,
      "यद": 3911,
      "भाग": 3912,
      "की": 3913,
      "##यते": 3914,
      "##त्रे": 3915,
      "मान": 3916,
      "##ग्नि": 3917,
      "तस्मा": 3918,
      "पि": 3919,
      "जा": 3920,
      "मां": 3921,
      "##धार": 3922,
      "##न्या": 3923,
      "##योज": 3924,
      "##यत्": 3925,
      "##णी": 3926,
      "##वी": 3927,
      "##शी": 3928,
      "स्यात्": 3929,
      "विना": 3930,
      "##ात्म": 3931,
      "##ैक": 3932,
      "##तया": 3933,
      "##हा": 3934,
      "##भेद": 3935,
      "ला": 3936,
      "वेद": 3937,
      "##त्रा": 3938,
      "##भ्यः": 3939,
      "करोति": 3940,
      "##रव": 3941,
      "संश": 3942,
      "##क्रम": 3943,
      "##र्ह": 3944,
      "स्प": 3945,
      "स्था": 3946,
      "लोक": 3947,
      "अस्य": 3948,
      "##्यम्": 3949,
      "##कृति": 3950,
      "भारत": 3951,
      "##__": 3952,
      "इदं": 3953,
      "एते": 3954,
      "रु": 3955,
      "##्ल": 3956,
      "रे": 3957,
      "परी": 3958,
      "##कर्त": 3959,
      "तेषां": 3960,
      "##ज्ज": 3961,
      "उक्त": 3962,
      "द्वित": 3963,
      "##दु": 3964,
      "##र्मा": 3965,
      "सिद्ध": 3966,
      "पञ्च": 3967,
      "##स्प": 3968,
      "##श्चि": 3969,
      "भगव": 3970,
      "##ेः": 3971,
      "स्त्री": 3972,
      "##वृत्त": 3973,
      "आह": 3974,
      "मू": 3975,
      "##म्भ": 3976,
      "दक्षि": 3977,
      "##षि": 3978,
      "##शु": 3979,
      "विव": 3980,
      "तर्हि": 3981,
      "विद्या": 3982,
      "पठ": 3983,
      "फल": 3984,
      "शक": 3985,
      "अत": 3986,
      "दुःख": 3987,
      "चतु": 3988,
      "##कर्म": 3989,
      "सदा": 3990,
      "वयं": 3991,
      "आग": 3992,
      "##िर": 3993,
      "##न्तः": 3994,
      "तस्या": 3995,
      "##ोऽपि": 3996,
      "##ारः": 3997,
      "##िति": 3998,
      "ततो": 3999,
      "##रणं": 4000,
      "वर्तते": 4001,
      "वद": 4002,
      "##ोज": 4003,
      "##ारं": 4004,
      "रक्ष": 4005,
      "##कि": 4006,
      "##वर्त": 4007,
      "##व्यं": 4008,
      "##र्द": 4009,
      "##यन": 4010,
      "##ीर": 4011,
      "ज्ञान": 4012,
      "क्षे": 4013,
      "अयं": 4014,
      "##र्घ": 4015,
      "सन्ति": 4016,
      "##ितो": 4017,
      "इव": 4018,
      "जु": 4019,
      "राष्ट्र": 4020,
      "##र्प": 4021,
      "भवेत्": 4022,
      "##सह": 4023,
      "##ातु": 4024,
      "यद्य": 4025,
      "इह": 4026,
      "##ध्या": 4027,
      "##पूर्व": 4028,
      "अस्मा": 4029,
      "कुर्व": 4030,
      "सत्य": 4031,
      "##भवत्": 4032,
      "##की": 4033,
      "##नाम": 4034,
      "सर्वं": 4035,
      "वर्षे": 4036,
      "गच्छ": 4037,
      "दोष": 4038,
      "और": 4039,
      "##st": 4040,
      "भविष्यति": 4041,
      "प्रथम": 4042,
      "पाप": 4043,
      "##लोक": 4044,
      "आस": 4045,
      "##र्थे": 4046,
      "##वाच": 4047,
      "जान": 4048,
      "##ेश्व": 4049,
      "##र्भ": 4050,
      "##द्वि": 4051,
      "##क्ष्य": 4052,
      "##ाम्": 4053,
      "##सो": 4054,
      "##नोति": 4055,
      "यस्य": 4056,
      "##मुख": 4057,
      "##ृण": 4058,
      "##ताम्": 4059,
      "भ्र": 4060,
      "##in": 4061,
      "##धे": 4062,
      "प्राण": 4063,
      "##स्थान": 4064,
      "क्रिय": 4065,
      "जल": 4066,
      "##व्यम्": 4067,
      "शी": 4068,
      "##त्वात्": 4069,
      "नो": 4070,
      "परिव": 4071,
      "अस": 4072,
      "##तीति": 4073,
      "तथ": 4074,
      "तत": 4075,
      "##ेक": 4076,
      "मो": 4077,
      "केवलं": 4078,
      "वाय": 4079,
      "##ादश": 4080,
      "सद": 4081,
      "##हः": 4082,
      "##मानं": 4083,
      "##ुम्": 4084,
      "क्व": 4085,
      "##पूर्ण": 4086,
      "कृत्वा": 4087,
      "जन्म": 4088,
      "##दाह": 4089,
      "उत्": 4090,
      "सामान्य": 4091,
      "प्रज": 4092,
      "वक्त": 4093,
      "##ैर": 4094,
      "कल": 4095,
      "पश्य": 4096,
      "याव": 4097,
      "##ाया": 4098,
      "पुं": 4099,
      "##गृह": 4100,
      "वृद्ध": 4101,
      "##राज": 4102,
      "##ब्ध": 4103,
      "घट": 4104,
      "परम": 4105,
      "...": 4106,
      "##कारः": 4107,
      "##हो": 4108,
      "येन": 4109,
      "##ीन": 4110,
      "वर्ण": 4111,
      "##an": 4112,
      "इत्यादि": 4113,
      "प्रि": 4114,
      "नग": 4115,
      "##ाये": 4116,
      "परं": 4117,
      "पूर्ण": 4118,
      "##वर्ष": 4119,
      "##थि": 4120,
      "जि": 4121,
      "अधि": 4122,
      "##ोच": 4123,
      "##ुम": 4124,
      "रात्र": 4125,
      "हृद": 4126,
      "नव": 4127,
      "##पाल": 4128,
      "##तिं": 4129,
      "##ारी": 4130,
      "नास्ति": 4131,
      "##ंश": 4132,
      "##म्य": 4133,
      "##पः": 4134,
      "##र्था": 4135,
      "##ारि": 4136,
      "केवल": 4137,
      "मनु": 4138,
      "कर": 4139,
      "##न्तं": 4140,
      "प्रश्": 4141,
      "##ण्य": 4142,
      "महा": 4143,
      "मध्य": 4144,
      "सौ": 4145,
      "वस्तु": 4146,
      "११": 4147,
      "बुद्ध": 4148,
      "करि": 4149,
      "##ar": 4150,
      "##माह": 4151,
      "किम्": 4152,
      "मध्ये": 4153,
      "विद्यते": 4154,
      "खः": 4155,
      "धन": 4156,
      "यज्ञ": 4157,
      "ब्रह्": 4158,
      "वाच": 4159,
      "##िकं": 4160,
      "##तर": 4161,
      "10": 4162,
      "##भ्या": 4163,
      "पाठ": 4164,
      "##ाप्त": 4165,
      "पूज": 4166,
      "##हित": 4167,
      "##on": 4168,
      "##मन": 4169,
      "##र्च": 4170,
      "##कर": 4171,
      "##भ्यां": 4172,
      "मुक्त": 4173,
      "अर्थ": 4174,
      "बि": 4175,
      "नं": 4176,
      "परा": 4177,
      "##ष्म": 4178,
      "##रेण": 4179,
      "प्राप्": 4180,
      "ले": 4181,
      "##लु": 4182,
      "##घ्र": 4183,
      "##गत": 4184,
      "##ब्र": 4185,
      "##रिक": 4186,
      "मास": 4187,
      "##वेद": 4188,
      "##भाषा": 4189,
      "201": 4190,
      "##ुना": 4191,
      "##मास": 4192,
      "##ष्टा": 4193,
      "भि": 4194,
      "##्म": 4195,
      "प्रस": 4196,
      "प्रभ": 4197,
      "नित": 4198,
      "##en": 4199,
      "##गुण": 4200,
      "##ज्ञा": 4201,
      "ताव": 4202,
      "##्यु": 4203,
      "---": 4204,
      "प्रकाश": 4205,
      "सर": 4206,
      "पुरा": 4207,
      "##माः": 4208,
      "##मात्र": 4209,
      "मित्र": 4210,
      "##धः": 4211,
      "यू": 4212,
      "##कल": 4213,
      "##at": 4214,
      "##वास": 4215,
      "समी": 4216,
      "##जः": 4217,
      "##साध": 4218,
      "प्रती": 4219,
      "लिख": 4220,
      "कल्प": 4221,
      "गो": 4222,
      "दृश्यते": 4223,
      "##ञ्": 4224,
      "राजा": 4225,
      "##्यू": 4226,
      "##ीया": 4227,
      "शुभ": 4228,
      "जात": 4229,
      "##र्वि": 4230,
      "##यत": 4231,
      "क्री": 4232,
      "##शं": 4233,
      "##ीम": 4234,
      "शरी": 4235,
      "कः": 4236,
      "##पत्त": 4237,
      "##र्न": 4238,
      "शक्त": 4239,
      "##दाय": 4240,
      "##तन्त्र": 4241,
      "हेत": 4242,
      "पुर": 4243,
      "एतत्": 4244,
      "क्रिया": 4245,
      "##यामि": 4246,
      "नः": 4247,
      "मूल": 4248,
      "##वत्": 4249,
      "दृष्ट्वा": 4250,
      "##ादृश": 4251,
      "ह्य": 4252,
      "##यन्ति": 4253,
      "##कल्प": 4254,
      "सर्वत्र": 4255,
      "##es": 4256,
      "##फल": 4257,
      "त्य": 4258,
      "##ेय": 4259,
      "निर": 4260,
      "युद्ध": 4261,
      "##लय": 4262,
      "बल": 4263,
      "यथ": 4264,
      "पाद": 4265,
      "१२": 4266,
      "##गे": 4267,
      "भाषा": 4268,
      "कुर": 4269,
      "##लभ": 4270,
      "##काले": 4271,
      "##शो": 4272,
      "##वर्ण": 4273,
      "##थं": 4274,
      "##ड्": 4275,
      "##नम": 4276,
      "शक्ति": 4277,
      "शेष": 4278,
      "रि": 4279,
      "##टि": 4280,
      "##क्षु": 4281,
      "##णाम": 4282,
      "##रस्य": 4283,
      "शत्र": 4284,
      "##or": 4285,
      "प्रे": 4286,
      "सूर्य": 4287,
      "प्रयोग": 4288,
      "से": 4289,
      "##ष्यति": 4290,
      "पश": 4291,
      "##नाय": 4292,
      "##धी": 4293,
      "पुनर": 4294,
      "सेव": 4295,
      "##ान्व": 4296,
      "##विशेष": 4297,
      "राज्य": 4298,
      "##ानाम्": 4299,
      "अग्नि": 4300,
      "##्ह": 4301,
      "##भूत": 4302,
      "मृ": 4303,
      "##मुक्त": 4304,
      "##ायं": 4305,
      "चे": 4306,
      "तम": 4307,
      "युक्त": 4308,
      "##om": 4309,
      "##नस्य": 4310,
      "पृथिव": 4311,
      "##षा": 4312,
      "यज": 4313,
      "भा": 4314,
      "##डि": 4315,
      "##दिति": 4316,
      "स्थान": 4317,
      "तृत": 4318,
      "स्थाप": 4319,
      "१८": 4320,
      "काले": 4321,
      "निष्": 4322,
      "##याम": 4323,
      "यद्": 4324,
      "##भवति": 4325,
      "##ष्यामि": 4326,
      "लक्ष": 4327,
      "इदान": 4328,
      "##काम": 4329,
      "##न्नि": 4330,
      "मनो": 4331,
      "##प्रत्य": 4332,
      "अभवत्": 4333,
      "भूत": 4334,
      "शिव": 4335,
      "##ात्र": 4336,
      "##वृ": 4337,
      "कृते": 4338,
      "##्वे": 4339,
      "वृत्त": 4340,
      "हो": 4341,
      "आर": 4342,
      "इच्छ": 4343,
      "##ायः": 4344,
      "वी": 4345,
      "##ड़": 4346,
      "आत्म": 4347,
      "सहस्र": 4348,
      "ता": 4349,
      "अध्य": 4350,
      "राम": 4351,
      "उभ": 4352,
      "नृ": 4353,
      "##णो": 4354,
      "वच": 4355,
      "किम": 4356,
      "नित्य": 4357,
      "##वार": 4358,
      "##बद्ध": 4359,
      "##ष्टं": 4360,
      "()": 4361,
      "त्वया": 4362,
      "नर": 4363,
      "१५": 4364,
      "##स्त्व": 4365,
      "##ाद्य": 4366,
      "संशयः": 4367,
      "विभ": 4368,
      "उपयोग": 4369,
      "सम्बन्ध": 4370,
      "##त्वेन": 4371,
      "##ाध": 4372,
      "##ित्वा": 4373,
      "##ैत": 4374,
      "नैव": 4375,
      "सुर": 4376,
      "प्रोक्त": 4377,
      "अद्य": 4378,
      "##००": 4379,
      "चिन्त": 4380,
      "कुरु": 4381,
      "भेद": 4382,
      "##दः": 4383,
      "सी": 4384,
      "##यात्": 4385,
      "इद": 4386,
      "##टी": 4387,
      "ग्रह": 4388,
      "##प्राप्त": 4389,
      "जायते": 4390,
      "##यन्": 4391,
      "अस्मिन्": 4392,
      "तमे": 4393,
      "विद्य": 4394,
      "##पो": 4395,
      "##शत": 4396,
      "मध": 4397,
      "##जं": 4398,
      "##ादी": 4399,
      "##लक्षण": 4400,
      "भारती": 4401,
      "कारण": 4402,
      "व्र": 4403,
      "कार्यं": 4404,
      "##सौ": 4405,
      "##तेन": 4406,
      "भवन्ति": 4407,
      "##ित्या": 4408,
      "शत": 4409,
      "सूचना": 4410,
      "दत्त": 4411,
      "स्वयं": 4412,
      "मात": 4413,
      "##तेः": 4414,
      "##त्वे": 4415,
      "##चर": 4416,
      "पे": 4417,
      "##करो": 4418,
      "##स्मै": 4419,
      "क्रीड": 4420,
      "##पति": 4421,
      "निर्व": 4422,
      "संस्कृत": 4423,
      "दीर्घ": 4424,
      "##ार्थ": 4425,
      "##देशे": 4426,
      "##ोत्त": 4427,
      "केन": 4428,
      "##न्थ": 4429,
      "पर्व": 4430,
      "प्रधान": 4431,
      "कौ": 4432,
      "उत्तर": 4433,
      "##वं": 4434,
      "##ानाम": 4435,
      "विज": 4436,
      "मार्ग": 4437,
      "नित्यं": 4438,
      "##ुत": 4439,
      "##ल्ल": 4440,
      "एकः": 4441,
      "उच्च": 4442,
      "ब्रह्म": 4443,
      "सव": 4444,
      "हस्त": 4445,
      "##दृष्ट": 4446,
      "तथापि": 4447,
      "##कस्य": 4448,
      "##्यात्": 4449,
      "##िकः": 4450,
      "गण": 4451,
      "निश्च": 4452,
      "वार": 4453,
      "शक्यते": 4454,
      "अन्यथा": 4455,
      "##धर्म": 4456,
      "लभ": 4457,
      "##मित्त": 4458,
      "दिन": 4459,
      "चेत्": 4460,
      "##विद्या": 4461,
      "##बल": 4462,
      "##स्याः": 4463,
      "कश्च": 4464,
      "विप": 4465,
      "##ेवं": 4466,
      "##समा": 4467,
      "..": 4468,
      "##al": 4469,
      "नी": 4470,
      "समुद्र": 4471,
      "लेख": 4472,
      "##मुप": 4473,
      "धार": 4474,
      "##निर्": 4475,
      "करण": 4476,
      "##मव": 4477,
      "##रोध": 4478,
      "विज्ञ": 4479,
      "##नियम": 4480,
      "ms": 4481,
      "१४": 4482,
      "स्वी": 4483,
      "स्वर्ग": 4484,
      "प्रण": 4485,
      "##ेष्ठ": 4486,
      "क्षेत्र": 4487,
      "शो": 4488,
      "##जि": 4489,
      "स्वप्": 4490,
      "19": 4491,
      "दुर्": 4492,
      "##हास": 4493,
      "##शेष": 4494,
      "##त्मा": 4495,
      "##ाहं": 4496,
      "##देशः": 4497,
      "##मन्त": 4498,
      "विचार": 4499,
      "##ान्न": 4500,
      "चैव": 4501,
      "##दौ": 4502,
      "##ीः": 4503,
      "##दश": 4504,
      "विषय": 4505,
      "अस्माकं": 4506,
      "यतः": 4507,
      "##वती": 4508,
      "तो": 4509,
      "##ान्ति": 4510,
      "वर": 4511,
      "##म्म": 4512,
      "ध्य": 4513,
      "##गः": 4514,
      "उच्यते": 4515,
      "##भ्यो": 4516,
      "ज्ञात": 4517,
      "##ेऽ": 4518,
      "ध्व": 4519,
      "किन्तु": 4520,
      "दक्षिण": 4521,
      "##ष्यते": 4522,
      "##वेश": 4523,
      "मृत्य": 4524,
      "##टे": 4525,
      "पुस्त": 4526,
      "क्रियते": 4527,
      "##क्षः": 4528,
      "यत": 4529,
      "##साय": 4530,
      "वर्तमान": 4531,
      "साक्ष": 4532,
      "इन्द्र": 4533,
      "भाषण": 4534,
      "विकल्प": 4535,
      "वाम": 4536,
      "##दू": 4537,
      "एका": 4538,
      "पूर्वं": 4539,
      "जनाः": 4540,
      "प्रवि": 4541,
      "##्रा": 4542,
      "गत": 4543,
      "##जी": 4544,
      "शक्": 4545,
      "अथवा": 4546,
      "वस": 4547,
      "##हर": 4548,
      "##र्क": 4549,
      "वन": 4550,
      "##न्ना": 4551,
      "##ag": 4552,
      "अमे": 4553,
      "वर्ग": 4554,
      "##येन": 4555,
      "##जीव": 4556,
      "भवतः": 4557,
      "चित्र": 4558,
      "पार": 4559,
      "लघ": 4560,
      "##्वि": 4561,
      "किञ्च": 4562,
      "##सर्व": 4563,
      "दृश्य": 4564,
      "न्या": 4565,
      "ईश्व": 4566,
      "तत्त": 4567,
      "##रिति": 4568,
      "##भावः": 4569,
      "बाह": 4570,
      "##विक": 4571,
      "##्वः": 4572,
      "##यस्य": 4573,
      "मुख": 4574,
      "रुप": 4575,
      "##ापि": 4576,
      "१७": 4577,
      "##मां": 4578,
      "नियम": 4579,
      "मन्त्र": 4580,
      "इत्युक्त": 4581,
      "हरि": 4582,
      "##द्भ": 4583,
      "पश्च": 4584,
      "##्ड": 4585,
      "##यात": 4586,
      "अत्य": 4587,
      "##्येत": 4588,
      "##यितुं": 4589,
      "शू": 4590,
      "१३": 4591,
      "कोई": 4592,
      "त्वां": 4593,
      "##मार्ग": 4594,
      "##वच": 4595,
      "##नाम्": 4596,
      "##धिकार": 4597,
      "##िनः": 4598,
      "तप": 4599,
      "##व्यः": 4600,
      "##रूपेण": 4601,
      "तिष्ठ": 4602,
      "##ष्या": 4603,
      "निय": 4604,
      "##00": 4605,
      "कृप": 4606,
      "लोके": 4607,
      "##रम": 4608,
      "विधि": 4609,
      "11": 4610,
      "##र्द्ध": 4611,
      "##ग्ने": 4612,
      "##इट": 4613,
      "##तोऽ": 4614,
      "पृष्ठानि": 4615,
      "तां": 4616,
      "##ादेश": 4617,
      "##वान": 4618,
      "श्री": 4619,
      "##दत्त": 4620,
      "##मिदं": 4621,
      "##ल्य": 4622,
      "##जे": 4623,
      "संयुक्त": 4624,
      "कम": 4625,
      "माता": 4626,
      "प्रवर्त": 4627,
      "परमा": 4628,
      "##it": 4629,
      "कार्या": 4630,
      "##कृत्य": 4631,
      "##पद्यते": 4632,
      "भक्त": 4633,
      "दृ": 4634,
      "##खि": 4635,
      "अती": 4636,
      "शीघ्र": 4637,
      "अम": 4638,
      "##निक": 4639,
      "##ासु": 4640,
      "विभाग": 4641,
      "योज": 4642,
      "##संधान": 4643,
      "शृण": 4644,
      "गुर": 4645,
      "१६": 4646,
      "##क्षं": 4647,
      "##द्रा": 4648,
      "इत": 4649,
      "त्वा": 4650,
      "##स्थाप": 4651,
      "##त्वम्": 4652,
      "उदाह": 4653,
      "##हेत": 4654,
      "उद्": 4655,
      "अन्व": 4656,
      "##च्छति": 4657,
      "##पं": 4658,
      "##ही": 4659,
      "12": 4660,
      "##गो": 4661,
      "उद": 4662,
      "प्रातः": 4663,
      "रो": 4664,
      "वेब": 4665,
      "शास्त्र": 4666,
      "विप्र": 4667,
      "यं": 4668,
      "लाभ": 4669,
      "##कर्ष": 4670,
      "##शक्त": 4671,
      "##शास": 4672,
      "##पुत्र": 4673,
      "निर्म": 4674,
      "पर्य": 4675,
      "विस्त": 4676,
      "भावः": 4677,
      "अभ": 4678,
      "इत्यस्य": 4679,
      "##ुध": 4680,
      "##कूल": 4681,
      "ii": 4682,
      "##न्तरं": 4683,
      "भवान्": 4684,
      "भारतीय": 4685,
      "स्मृ": 4686,
      "दैव": 4687,
      "अनुसंधान": 4688,
      "तद्व": 4689,
      "##वो": 4690,
      "तथैव": 4691,
      "##गण": 4692,
      "##साम": 4693,
      "##द्धि": 4694,
      "##ान्तर": 4695,
      "##सां": 4696,
      "अनेन": 4697,
      "प्रार्थ": 4698,
      "##मनु": 4699,
      "##मार": 4700,
      "पदा": 4701,
      "##क्रिया": 4702,
      "पुनर्": 4703,
      "क्षण": 4704,
      "##ैर्": 4705,
      "सर्वेषां": 4706,
      "सूत्र": 4707,
      "##धिकरण": 4708,
      "##पर्य": 4709,
      "##मित्य": 4710,
      "पिता": 4711,
      "##तन": 4712,
      "##यौ": 4713,
      "##ज्यते": 4714,
      "अध्या": 4715,
      "##ाला": 4716,
      "##शास्त्र": 4717,
      "सङ्": 4718,
      "प्रकृति": 4719,
      "##भवः": 4720,
      "##र्या": 4721,
      "##ुरुष": 4722,
      "ज्यो": 4723,
      "श्": 4724,
      "विषये": 4725,
      "विकास": 4726,
      "गति": 4727,
      "##नात्": 4728,
      "भु": 4729,
      "##ष्टः": 4730,
      "शुद्ध": 4731,
      "##शे": 4732,
      "##बुद्ध": 4733,
      "वेबसा": 4734,
      "##स्मात्": 4735,
      "##बि": 4736,
      "##पुर": 4737,
      "संसार": 4738,
      "##ेक्ष": 4739,
      "##लम्": 4740,
      "##मू": 4741,
      "##हु": 4742,
      "द्रष्ट": 4743,
      "##नीय": 4744,
      "द्वादश": 4745,
      "विकि": 4746,
      "परिवर्त": 4747,
      "##वां": 4748,
      "धात": 4749,
      "प्रयोज": 4750,
      "है": 4751,
      "##रूपं": 4752,
      "सति": 4753,
      "हृ": 4754,
      "##ित्व": 4755,
      "साह": 4756,
      "हर": 4757,
      "सम्य": 4758,
      "इदानीं": 4759,
      "ननु": 4760,
      "सिं": 4761,
      "परीक्षा": 4762,
      "दा": 4763,
      "##ृतं": 4764,
      "##ितानि": 4765,
      "अधिकतम": 4766,
      "चित्त": 4767,
      "इत्येत": 4768,
      "##बोध": 4769,
      "##रुद्ध": 4770,
      "##वस": 4771,
      "##कर्ता": 4772,
      "##मस्ति": 4773,
      "##ज्ञः": 4774,
      "प्राप्नोति": 4775,
      "विनि": 4776,
      "##याम्": 4777,
      "फलं": 4778,
      "##ची": 4779,
      "विष्ण": 4780,
      "##ाण्ड": 4781,
      "समाप्त": 4782,
      "##थः": 4783,
      "##न्दि": 4784,
      "वेबसाइट": 4785,
      "##मम्": 4786,
      "##ेष्व": 4787,
      "##मह": 4788,
      "##ों": 4789,
      "##भार": 4790,
      "##मानः": 4791,
      "##पृ": 4792,
      "##कार्य": 4793,
      "खलु": 4794,
      "कस्य": 4795,
      "##परा": 4796,
      "##भ्र": 4797,
      "##स्तथा": 4798,
      "##ोत": 4799,
      "##न्त्य": 4800,
      "##ेषण": 4801,
      "सर्वदा": 4802,
      "कुर्वन्ति": 4803,
      "##िके": 4804,
      "वो": 4805,
      "द्विती": 4806,
      "विह": 4807,
      "##षेध": 4808,
      "जू": 4809,
      "प्रमाण": 4810,
      "मुख्य": 4811,
      "इत्यर्थः": 4812,
      "स्न": 4813,
      "##थे": 4814,
      "संख्या": 4815,
      "##मेत": 4816,
      "ग्राम": 4817,
      "##सर्ग": 4818,
      "सम्बद्ध": 4819,
      "सर्वा": 4820,
      "##यित्वा": 4821,
      "##केन": 4822,
      "रोग": 4823,
      "प्रश्न": 4824,
      "##हम्": 4825,
      "पुष्": 4826,
      "##चित्र": 4827,
      "##ह्य": 4828,
      "सार": 4829,
      "तस्मात्": 4830,
      "##लिख": 4831,
      "वर्ध": 4832,
      "##ic": 4833,
      "तौ": 4834,
      "##च्य": 4835,
      "गुरु": 4836,
      "दूर": 4837,
      "##वरी": 4838,
      "15": 4839,
      "गृहे": 4840,
      "भगवान्": 4841,
      "##व्यव": 4842,
      "##पार": 4843,
      "##ed": 4844,
      "##ितवान्": 4845,
      "प्रयत्": 4846,
      "यतो": 4847,
      "श्व": 4848,
      "##लक्ष": 4849,
      "आप": 4850,
      "प्रसिद्ध": 4851,
      "##्याव": 4852,
      "अधिनियम": 4853,
      "कारणं": 4854,
      "तत्त्व": 4855,
      "##नानि": 4856,
      "समान": 4857,
      "देशे": 4858,
      "नू": 4859,
      "##यी": 4860,
      "सङ्ग": 4861,
      "##स्ट": 4862,
      "प्रच": 4863,
      "##िकी": 4864,
      "प्रय": 4865,
      "##ाग्र": 4866,
      "##ऽऽ": 4867,
      "पव": 4868,
      "पक्ष": 4869,
      "##ग्ध": 4870,
      "##ुक": 4871,
      "देवा": 4872,
      "##गा": 4873,
      "महि": 4874,
      "सोम": 4875,
      "##त्रि": 4876,
      "##र्ति": 4877,
      "##शक्ति": 4878,
      "त्या": 4879,
      "प्रवृत्त": 4880,
      "यावत्": 4881,
      "##कृतं": 4882,
      "पति": 4883,
      "##षां": 4884,
      "##दपि": 4885,
      "##str": 4886,
      "शै": 4887,
      "##प्रि": 4888,
      "समाचार": 4889,
      "18": 4890,
      "विशि": 4891,
      "##am": 4892,
      "रस": 4893,
      "##कारं": 4894,
      "##कारेण": 4895,
      "##ोर": 4896,
      "##ाह्म": 4897,
      "##सङ्ग": 4898,
      "दण्ड": 4899,
      "##ou": 4900,
      "##ृहं": 4901,
      "##स्यापि": 4902,
      "तस्मिन्": 4903,
      "वृक्ष": 4904,
      "ne": 4905,
      "##ूनां": 4906,
      "##ितुं": 4907,
      "अहम्": 4908,
      "##कृते": 4909,
      "शक्य": 4910,
      "##र्थम्": 4911,
      "बी": 4912,
      "तर": 4913,
      "वाक्य": 4914,
      "भवे": 4915,
      "पितृ": 4916,
      "न्यू": 4917,
      "##च्छेद": 4918,
      "स्य": 4919,
      "छात्र": 4920,
      "उत्पाद": 4921,
      "एवम्": 4922,
      "भोज": 4923,
      "नै": 4924,
      "##ारो": 4925,
      "मद": 4926,
      "##स्पर": 4927,
      "##त्ति": 4928,
      "##सहस्र": 4929,
      "गम": 4930,
      "##िकाः": 4931,
      "लक्षण": 4932,
      "##जात": 4933,
      "##घ्": 4934,
      "अग": 4935,
      "##दिष्ट": 4936,
      "द्वारा": 4937,
      "##स्यां": 4938,
      "एषा": 4939,
      "प्रशि": 4940,
      "युव": 4941,
      "पाल": 4942,
      "पश्चि": 4943,
      "श्रुत्वा": 4944,
      "##मेण": 4945,
      "##ाग्": 4946,
      "in": 4947,
      "षष्ठ": 4948,
      "##निः": 4949,
      "##दिश": 4950,
      "निवेद": 4951,
      "चन्द्र": 4952,
      "##le": 4953,
      "पत्र": 4954,
      "यद्यपि": 4955,
      "##युः": 4956,
      "प्रभाव": 4957,
      "एकं": 4958,
      "##कम": 4959,
      "##iv": 4960,
      "##तौ": 4961,
      "कथा": 4962,
      "##भे": 4963,
      "नार": 4964,
      "मै": 4965,
      "सक": 4966,
      "##यान": 4967,
      "इयं": 4968,
      "##टः": 4969,
      "कर्तुं": 4970,
      "##टा": 4971,
      "अज": 4972,
      "निः": 4973,
      "अनि": 4974,
      "##ान्ते": 4975,
      "##खा": 4976,
      "निर्ण": 4977,
      "गि": 4978,
      "अस्म": 4979,
      "ती": 4980,
      "##क्तं": 4981,
      "##िक्त": 4982,
      "परम्": 4983,
      "कश्चि": 4984,
      "##न्तर": 4985,
      "##षण": 4986,
      "##विधान": 4987,
      "स्फ": 4988,
      "वाक": 4989,
      "न्ह": 4990,
      "सन्द": 4991,
      "##दोष": 4992,
      "##विधि": 4993,
      "##कू": 4994,
      "##माणं": 4995,
      "२०१": 4996,
      "##र्त्त": 4997,
      "अष्ट": 4998,
      "##दो": 4999,
      "व्याख्या": 5000,
      "##रस": 5001,
      "प्रवेश": 5002,
      "जनवरी": 5003,
      "##ाद्": 5004,
      "##ाप्य": 5005,
      "##लिङ्ग": 5006,
      "२१": 5007,
      "##व्र": 5008,
      "##कथ": 5009,
      "कृतं": 5010,
      "##पदं": 5011,
      "msg": 5012,
      "कदाचित्": 5013,
      "नु": 5014,
      "उदाहरण": 5015,
      "msgstr": 5016,
      "अक्ष": 5017,
      "अनेक": 5018,
      "कृता": 5019,
      "धन्य": 5020,
      "##ग्रे": 5021,
      "##िन": 5022,
      "पौ": 5023,
      "##क्ष्यामि": 5024,
      "##ion": 5025,
      "##शिष्ट": 5026,
      "##सन्ध": 5027,
      "द्वितीय": 5028,
      "##न्नं": 5029,
      "संव": 5030,
      "समर्थ": 5031,
      "वय": 5032,
      "परस्पर": 5033,
      "##हू": 5034,
      "एषः": 5035,
      "गतः": 5036,
      "##ष्मा": 5037,
      "##भास": 5038,
      "ज्ञानं": 5039,
      "गत्वा": 5040,
      "अर्थः": 5041,
      "भारतस्य": 5042,
      "सम्बद्धानि": 5043,
      "उद्य": 5044,
      "यत्त": 5045,
      "##ारु": 5046,
      "##बी": 5047,
      "मयि": 5048,
      "##दुःख": 5049,
      "##प्रयोग": 5050,
      "##मुच्यते": 5051,
      "क्वचित्": 5052,
      "##ome": 5053,
      "मं": 5054,
      "##ारे": 5055,
      "##पिं": 5056,
      "सोऽ": 5057,
      "##ारण": 5058,
      "आवश्य": 5059,
      "चल": 5060,
      "यान": 5061,
      "##ादौ": 5062,
      "##स्थित": 5063,
      "प्रत्यक्ष": 5064,
      "##ष्टि": 5065,
      "##ेषाम": 5066,
      "##मान्": 5067,
      "##मन्त्र": 5068,
      "##खे": 5069,
      "##न्ती": 5070,
      "##पुरुष": 5071,
      "सै": 5072,
      "हिं": 5073,
      "इत्येव": 5074,
      "गौ": 5075,
      "##गं": 5076,
      "##संख्या": 5077,
      "##सर": 5078,
      "विविध": 5079,
      "विशेषतः": 5080,
      "tag": 5081,
      "प्रत्या": 5082,
      "कति": 5083,
      "##त्प्र": 5084,
      "14": 5085,
      "an": 5086,
      "प्राय": 5087,
      "##तुः": 5088,
      "##जो": 5089,
      "##स्तं": 5090,
      "अङ्ग": 5091,
      "##भावे": 5092,
      "अयम्": 5093,
      "##माय": 5094,
      "##मध्ये": 5095,
      "##र्वा": 5096,
      "इत्यनेन": 5097,
      "अप्र": 5098,
      "##नग": 5099,
      "##र्म्म": 5100,
      "२२": 5101,
      "##्यादि": 5102,
      "##ेवाः": 5103,
      "##ानी": 5104,
      "##ैश्च": 5105,
      "पृथक्": 5106,
      "##स्ता": 5107,
      "भूमि": 5108,
      "भी": 5109,
      "प्राप्य": 5110,
      "अवि": 5111,
      "##वाह": 5112,
      "##्रियां": 5113,
      "##ष्व": 5114,
      "##नन्द": 5115,
      "##गी": 5116,
      "##सेन": 5117,
      "सन्ध": 5118,
      "स्र": 5119,
      "##भिर": 5120,
      "##पेक्ष": 5121,
      "सत": 5122,
      "प्रतिष्ठ": 5123,
      "शान्त": 5124,
      "##त्थ": 5125,
      "उत्स": 5126,
      "##वद": 5127,
      "##सङ्": 5128,
      "##त्ता": 5129,
      "##ासि": 5130,
      "##ज्ञानं": 5131,
      "श्रेष्ठ": 5132,
      "दान": 5133,
      "क्रि": 5134,
      "##वन्तः": 5135,
      "##ेत्य": 5136,
      "##हस्य": 5137,
      "अव्य": 5138,
      "बन्ध": 5139,
      "##ध्व": 5140,
      "##ध्यते": 5141,
      "##घा": 5142,
      "सर्व्व": 5143,
      "ध्यान": 5144,
      "लघु": 5145,
      "##योजन": 5146,
      "खे": 5147,
      "२५": 5148,
      "कीदृश": 5149,
      "इत्यत्र": 5150,
      "मनः": 5151,
      "पार्थ": 5152,
      "कृपया": 5153,
      "##पात": 5154,
      "सम्पाद": 5155,
      "वह": 5156,
      "##चा": 5157,
      "##मौ": 5158,
      "##माद": 5159,
      "प्रो": 5160,
      "सम्प्र": 5161,
      "##ent": 5162,
      "##फलं": 5163,
      "##साधन": 5164,
      "##न्तो": 5165,
      "मनुष्य": 5166,
      "पं": 5167,
      "##ुक्तं": 5168,
      "ज्योति": 5169,
      "##as": 5170,
      "बा": 5171,
      "##करणे": 5172,
      "##पत्र": 5173,
      "##संस्": 5174,
      "भो": 5175,
      "मत": 5176,
      "विर": 5177,
      "कर्ण": 5178,
      "##ाप्": 5179,
      "रूपं": 5180,
      "##राः": 5181,
      "##मेन": 5182,
      "##मत": 5183,
      "विद्व": 5184,
      "##रुण": 5185,
      "##ेयं": 5186,
      "##पक्ष": 5187,
      "आद": 5188,
      "##स्स": 5189,
      "सम्प": 5190,
      "##करणं": 5191,
      "थ्व": 5192,
      "विज्ञान": 5193,
      "home": 5194,
      "तेषु": 5195,
      "सन्": 5196,
      "##क्ष्म": 5197,
      "##मात्": 5198,
      "##विभाग": 5199,
      "प्रथमं": 5200,
      "ज्व": 5201,
      "बृह": 5202,
      "##तेषु": 5203,
      "##ाव्य": 5204,
      "बुद्धि": 5205,
      "अथा": 5206,
      "ददा": 5207,
      "नम": 5208,
      "नेवाः": 5209,
      "##विषय": 5210,
      "##भः": 5211,
      "##रिक्त": 5212,
      "##re": 5213,
      "##डा": 5214,
      "मन्त": 5215,
      "केन्द्र": 5216,
      "##गतं": 5217,
      "क्रम": 5218,
      "धी": 5219,
      "जना": 5220,
      "२४": 5221,
      "कुत्र": 5222,
      "##ग्न": 5223,
      "##नापि": 5224,
      "##ीप": 5225,
      "##ायै": 5226,
      "13": 5227,
      "##ताम": 5228,
      "##ृज": 5229,
      "##िकित्": 5230,
      "##त्यं": 5231,
      "हित": 5232,
      "शिक्ष": 5233,
      "##विषये": 5234,
      "मी": 5235,
      "##शाल": 5236,
      "##ृतम्": 5237,
      "अधो": 5238,
      "अना": 5239,
      "३०": 5240,
      "न्याय": 5241,
      "##ितां": 5242,
      "अधिकार": 5243,
      "लु": 5244,
      "परीक्षण": 5245,
      "भवित": 5246,
      "रात्रौ": 5247,
      "व्यक्त": 5248,
      "मण्ड": 5249,
      "सां": 5250,
      "##वाः": 5251,
      "याति": 5252,
      "17": 5253,
      "दृढ": 5254,
      "##यमेव": 5255,
      "##ाय्": 5256,
      "वापि": 5257,
      "##ान्तः": 5258,
      "पश्यति": 5259,
      "न्य": 5260,
      "नाग": 5261,
      "##ुर्": 5262,
      "##सेव": 5263,
      "##डिया": 5264,
      "##लस्य": 5265,
      "गा": 5266,
      "ज्या": 5267,
      "निज": 5268,
      "##कारण": 5269,
      "ङी": 5270,
      "##कृतिः": 5271,
      "अश्व": 5272,
      "चेत": 5273,
      "##योर": 5274,
      "लिङ्ग": 5275,
      "##स्त्य": 5276,
      "कृष्ण": 5277,
      "चर": 5278,
      "##ेदं": 5279,
      "तस्याः": 5280,
      "##ष्ये": 5281,
      "##िंश": 5282,
      "##ानाति": 5283,
      "देह": 5284,
      "##स्क": 5285,
      "देवानां": 5286,
      "०१": 5287,
      "अहो": 5288,
      "वित्त": 5289,
      "##चः": 5290,
      "प्रया": 5291,
      "पुण्य": 5292,
      "देवता": 5293,
      "परमेश्व": 5294,
      "जलं": 5295,
      "##मति": 5296,
      "##दार": 5297,
      "##लाः": 5298,
      "##णाम्": 5299,
      "यूयं": 5300,
      "##षः": 5301,
      "##भेदे": 5302,
      "##ch": 5303,
      "गच्छति": 5304,
      "##रणे": 5305,
      "चक्र": 5306,
      "सृष्ट": 5307,
      "##हिता": 5308,
      "शृणु": 5309,
      "th": 5310,
      "vi": 5311,
      "भय": 5312,
      "re": 5313,
      "##इगु": 5314,
      "याः": 5315,
      "ब्रू": 5316,
      "##ौक": 5317,
      "##ासी": 5318,
      "##ad": 5319,
      "##तिक": 5320,
      "##ज्": 5321,
      "प्रश": 5322,
      "विश्वा": 5323,
      "इदम्": 5324,
      "##िको": 5325,
      "निरा": 5326,
      "##मिव": 5327,
      "वः": 5328,
      "##त्तर": 5329,
      "द्विज": 5330,
      "धर्मा": 5331,
      "शास": 5332,
      "##ब्दा": 5333,
      "चापि": 5334,
      "टि": 5335,
      "तै": 5336,
      "ग्रन्थ": 5337,
      "तादृश": 5338,
      "##वै": 5339,
      "##चित्त": 5340,
      "गोप": 5341,
      "धनं": 5342,
      "तया": 5343,
      "हा": 5344,
      "##स्वरूप": 5345,
      "##वन": 5346,
      "##प्प": 5347,
      "##lo": 5348,
      "##लेख": 5349,
      "##ामः": 5350,
      "##माना": 5351,
      "किमपि": 5352,
      "कं": 5353,
      "##ेकं": 5354,
      "##बं": 5355,
      "प्रथमा": 5356,
      "शं": 5357,
      "२७": 5358,
      "राज्यं": 5359,
      "##कृता": 5360,
      "##श्रु": 5361,
      "##स्तस्य": 5362,
      "##पित": 5363,
      "रोच": 5364,
      "संप्र": 5365,
      "##वर": 5366,
      "##नाश": 5367,
      "पत": 5368,
      "##ाले": 5369,
      "प्रतिदि": 5370,
      "##रेत्": 5371,
      "ख्या": 5372,
      "##मय": 5373,
      "धा": 5374,
      "##ृतः": 5375,
      "विन": 5376,
      "##द्द": 5377,
      "##त्ते": 5378,
      "कर्त्त": 5379,
      "##समु": 5380,
      "कालः": 5381,
      "##्येन": 5382,
      "घोष": 5383,
      "हं": 5384,
      "सूच": 5385,
      "शीत": 5386,
      "##ून": 5387,
      "देवाः": 5388,
      "गृही": 5389,
      "ग्राह": 5390,
      "नृप": 5391,
      "समर्प": 5392,
      "तम्": 5393,
      "##लये": 5394,
      "रम": 5395,
      "##भु": 5396,
      "अध्ययन": 5397,
      "स्तु": 5398,
      "२००": 5399,
      "##स्तव": 5400,
      "महोद": 5401,
      "निवृत्त": 5402,
      "द्वे": 5403,
      "आकाश": 5404,
      "गते": 5405,
      "##्रे": 5406,
      "माम": 5407,
      "##चे": 5408,
      "परिणाम": 5409,
      "सुखं": 5410,
      "धि": 5411,
      "त्रि०": 5412,
      "सत्यं": 5413,
      "ह्र": 5414,
      "अधुना": 5415,
      "##गतः": 5416,
      "सम्भव": 5417,
      "व्यवहार": 5418,
      "दिने": 5419,
      "तिथि": 5420,
      "कश्चित्": 5421,
      "##ीनां": 5422,
      "माया": 5423,
      "##्रियते": 5424,
      "२६": 5425,
      "कृतम्": 5426,
      "इं": 5427,
      "##िनी": 5428,
      "##रिका": 5429,
      "##रात्र": 5430,
      "##टक": 5431,
      "पुरुषः": 5432,
      "जी": 5433,
      "##ीयम्": 5434,
      "स्थि": 5435,
      "##म्ह": 5436,
      "प्रायः": 5437,
      "##ाद्व": 5438,
      "स्थित": 5439,
      "स्वभाव": 5440,
      "##ध्": 5441,
      "##लोके": 5442,
      "बाध": 5443,
      "##पदा": 5444,
      "##रक्ष": 5445,
      "##क्स": 5446,
      "मत्": 5447,
      "##il": 5448,
      "कोऽपि": 5449,
      "कृतः": 5450,
      "शत्रु": 5451,
      "16": 5452,
      "नेपाल": 5453,
      "##टो": 5454,
      "श्रद्ध": 5455,
      "पाव": 5456,
      "वने": 5457,
      "##लोप": 5458,
      "जाग": 5459,
      "##ायु": 5460,
      "##राणां": 5461,
      "202": 5462,
      "देहि": 5463,
      "##भक्त": 5464,
      "##िकल्प": 5465,
      "##ण्ठ": 5466,
      "to": 5467,
      "##ce": 5468,
      "प्रक": 5469,
      "रथ": 5470,
      "##धिः": 5471,
      "विस्म": 5472,
      "##ाहि": 5473,
      "याये": 5474,
      "##लम्ब": 5475,
      "स्वतन्त्र": 5476,
      "वित": 5477,
      "##हितः": 5478,
      "##राज्य": 5479,
      "अतो": 5480,
      "##ृति": 5481,
      "द्वौ": 5482,
      "साक्षात्": 5483,
      "##कारस्य": 5484,
      "स्थाने": 5485,
      "##ing": 5486,
      "##सत": 5487,
      "वार्त": 5488,
      "यम": 5489,
      "##न्नः": 5490,
      "##ायत": 5491,
      "##धं": 5492,
      "##पक": 5493,
      "मुनि": 5494,
      "##यनं": 5495,
      "##नया": 5496,
      "##भी": 5497,
      "##ूह": 5498,
      "##स्ताव": 5499,
      "##णेन": 5500,
      "शरीर": 5501,
      "##माज": 5502,
      "संस्थ": 5503,
      "तुल": 5504,
      "निवेश": 5505,
      "##्याम": 5506,
      "मिथ": 5507,
      "शब्दः": 5508,
      "प्रतिपाद": 5509,
      "वीर": 5510,
      "##साद": 5511,
      "प्रदेश": 5512,
      "इत्यु": 5513,
      "इतिहास": 5514,
      "भवता": 5515,
      "स्तो": 5516,
      "अं": 5517,
      "२३": 5518,
      "##ूनि": 5519,
      "विदेश": 5520,
      "##मण्ड": 5521,
      "##यय": 5522,
      "##ष्ट्रिय": 5523,
      "जातः": 5524,
      "##ेह": 5525,
      "०२": 5526,
      "##विंश": 5527,
      "एतद": 5528,
      "आचार": 5529,
      "प्री": 5530,
      "छुं": 5531,
      "तृ": 5532,
      "##रू": 5533,
      "##is": 5534,
      "##्येण": 5535,
      "कू": 5536,
      "सन्त": 5537,
      "कुतः": 5538,
      "##ङ्के": 5539,
      "इत्": 5540,
      "##मन्य": 5541,
      "##िकम्": 5542,
      "##ज्ञात": 5543,
      "##षी": 5544,
      "##भिप्र": 5545,
      "तानि": 5546,
      "लब्ध": 5547,
      "##ट्ट": 5548,
      "स्वयम्": 5549,
      "कुश": 5550,
      "##धु": 5551,
      "व्यक्ति": 5552,
      "कन्या": 5553,
      "तू": 5554,
      "रक्त": 5555,
      "##यामास": 5556,
      "##प्रभ": 5557,
      "##ाम्य": 5558,
      "आः": 5559,
      "##माने": 5560,
      "स्त्रियां": 5561,
      "धू": 5562,
      "##ादेव": 5563,
      "अन्ये": 5564,
      "क्ल": 5565,
      "संस्था": 5566,
      "##यव": 5567,
      "प्राप्ते": 5568,
      "पदं": 5569,
      "##ृद्ध": 5570,
      "##स्यते": 5571,
      "कुल": 5572,
      "दिना": 5573,
      "##्रुव": 5574,
      "स्थानं": 5575,
      "निवर्त": 5576,
      "मन्य": 5577,
      "##मात्म": 5578,
      "कर्तव्य": 5579,
      "सदस्य": 5580,
      "पाठः": 5581,
      "भवतु": 5582,
      "मूर्": 5583,
      "##त्क": 5584,
      "##स्तत्र": 5585,
      "##भागे": 5586,
      "साग": 5587,
      "विश्ल": 5588,
      "##तस्य": 5589,
      "##भय": 5590,
      "स्थिति": 5591,
      "आसन्": 5592,
      "##नव": 5593,
      "##न्यं": 5594,
      "##दृ": 5595,
      "##ान्तं": 5596,
      "##धानं": 5597,
      "##नुव": 5598,
      "तदेव": 5599,
      "##वेदन": 5600,
      "करोमि": 5601,
      "##द्ग": 5602,
      "##विद": 5603,
      "##कारि": 5604,
      "कथम्": 5605,
      "##ानुसार": 5606,
      "//": 5607,
      "र्": 5608,
      "##रुप": 5609,
      "अमेरिका": 5610,
      "सर्वाणि": 5611,
      "दै": 5612,
      "बु": 5613,
      "स्वरूप": 5614,
      "##न्दु": 5615,
      "त्यक्त": 5616,
      "मानु": 5617,
      "प्रतिशत": 5618,
      "##ादिति": 5619,
      "शीघ्रं": 5620,
      "विक्र": 5621,
      "मौ": 5622,
      "##तरं": 5623,
      "रुपये": 5624,
      "##मित": 5625,
      "विवाह": 5626,
      "गृहं": 5627,
      "विकिपी": 5628,
      "प्रत्यय": 5629,
      "नदी": 5630,
      "##तुर": 5631,
      "प्रशिक्षण": 5632,
      "तद्य": 5633,
      "##श्यं": 5634,
      "##खं": 5635,
      "##स्थाने": 5636,
      "समास": 5637,
      "मानव": 5638,
      "दुर्लभ": 5639,
      "##च्छि": 5640,
      "गृह्": 5641,
      "देवी": 5642,
      "वायु": 5643,
      "##मन्त्री": 5644,
      "धारा": 5645,
      "नाम्": 5646,
      "परिभाषा": 5647,
      "प्रदर्श": 5648,
      "##त्नी": 5649,
      "##ांश": 5650,
      "स्मर": 5651,
      "उत्प": 5652,
      "श्रू": 5653,
      "परे": 5654,
      "##ोऽयं": 5655,
      "-'": 5656,
      "गन्ध": 5657,
      "##विधा": 5658,
      "##त्त्वं": 5659,
      "##कानां": 5660,
      "##म्प": 5661,
      "##रवरी": 5662,
      "गाय": 5663,
      "भोग": 5664,
      "उपरि": 5665,
      "लाख": 5666,
      "तः": 5667,
      "##रणम्": 5668,
      "##ञ्छ": 5669,
      "अग्ने": 5670,
      "##ानः": 5671,
      "##वृत्ति": 5672,
      "उत": 5673,
      "##धनं": 5674,
      "##स्त्वं": 5675,
      "##धिप": 5676,
      "वत्स": 5677,
      "२८": 5678,
      "##लव": 5679,
      "##विव": 5680,
      "##योक्त": 5681,
      "ब्राह्म": 5682,
      "कव": 5683,
      "##हां": 5684,
      "वचनं": 5685,
      "##ादीनां": 5686,
      "किल": 5687,
      "अस्मि": 5688,
      "स्ने": 5689,
      "##संज्ञ": 5690,
      "अय": 5691,
      "##क्ष्": 5692,
      "##ीकरण": 5693,
      "प्रकृत": 5694,
      "##योऽ": 5695,
      "##राणि": 5696,
      "##येत": 5697,
      "समाज": 5698,
      "बहुव": 5699,
      "प्ल": 5700,
      "##ेर": 5701,
      "समय": 5702,
      "##पूज": 5703,
      "क्रोध": 5704,
      "उपयोगकर्ता": 5705,
      "वह्": 5706,
      "##शय": 5707,
      "निमित्त": 5708,
      "##क्षेप": 5709,
      "##कृतः": 5710,
      "शिक्षा": 5711,
      "तावत्": 5712,
      "भर्त": 5713,
      "##नैः": 5714,
      "##ारम्भ": 5715,
      "##ुद": 5716,
      "प्रिय": 5717,
      "भयं": 5718,
      "सच": 5719,
      "##ीयः": 5720,
      "राक्ष": 5721,
      "##वादः": 5722,
      "##हितं": 5723,
      "##बा": 5724,
      "##त्पाद": 5725,
      "##राष्ट्र": 5726,
      "##त्वाद": 5727,
      "कर्ता": 5728,
      "मय": 5729,
      "##चिन्त": 5730,
      "\"।": 5731,
      "##्याद": 5732,
      "##तीत्य": 5733,
      "जाय": 5734,
      "##नतः": 5735,
      "अश": 5736,
      "प्रयुक्त": 5737,
      "पीड": 5738,
      "##वर्तते": 5739,
      "21": 5740,
      "30": 5741,
      "##se": 5742,
      "##नात": 5743,
      "st": 5744,
      "##श्चैव": 5745,
      "पूजा": 5746,
      "##लन": 5747,
      "##निष्ठ": 5748,
      "##ार्थं": 5749,
      "दिव्य": 5750,
      "जानाति": 5751,
      "अर्था": 5752,
      "पदे": 5753,
      "25": 5754,
      "ममा": 5755,
      "##ुट": 5756,
      "##त्तम": 5757,
      "##ाभि": 5758,
      "प्राग": 5759,
      "व्यवसाय": 5760,
      "एस": 5761,
      "पो": 5762,
      "पात": 5763,
      "##कानि": 5764,
      "##न्दो": 5765,
      "प्रत्येकं": 5766,
      "##सति": 5767,
      "##ोक्तं": 5768,
      "अल": 5769,
      "अल्प": 5770,
      "कै": 5771,
      "##तिष्ठ": 5772,
      "संभव": 5773,
      "##योगः": 5774,
      "##देह": 5775,
      "##ब्रवी": 5776,
      "मातृ": 5777,
      "चिकित्": 5778,
      "##राग": 5779,
      "देवि": 5780,
      "##ताव": 5781,
      "##दात्त": 5782,
      "##दिना": 5783,
      "##र्भव": 5784,
      "परन्तु": 5785,
      "तद्वि": 5786,
      "यौ": 5787,
      "पूर": 5788,
      "कला": 5789,
      "##र्हि": 5790,
      "##कालं": 5791,
      "पृष्ट": 5792,
      "##कौ": 5793,
      "प्राच": 5794,
      "जाता": 5795,
      "टी": 5796,
      "##द्यः": 5797,
      "उत्तम": 5798,
      "दिवस": 5799,
      "अभ्या": 5800,
      "##ay": 5801,
      "भर": 5802,
      "मृत": 5803,
      "यश": 5804,
      "##हन": 5805,
      "##मात्रं": 5806,
      "##स्थानं": 5807,
      "आई": 5808,
      "दुष्": 5809,
      "सङ्क": 5810,
      "स्त्रि": 5811,
      "हेतु": 5812,
      "निक": 5813,
      "##ष्टे": 5814,
      "तस्मै": 5815,
      "##गति": 5816,
      "##विः": 5817,
      "##पृष्ठ": 5818,
      "बहि": 5819,
      "##हिं": 5820,
      "##प्रा": 5821,
      "शस्त्र": 5822,
      "पुण": 5823,
      "००": 5824,
      "##ामी": 5825,
      "आश्र": 5826,
      "##यतु": 5827,
      "##ab": 5828,
      "##एस": 5829,
      "##क्तिः": 5830,
      "परमं": 5831,
      "क्षि": 5832,
      "जगत्": 5833,
      "पृथिवी": 5834,
      "##भ्यं": 5835,
      "##स्ती": 5836,
      "भ्रम": 5837,
      "न्याया": 5838,
      "दुर": 5839,
      "##्येष्ठ": 5840,
      "##स्थितः": 5841,
      "##पत्ति": 5842,
      "कर्मा": 5843,
      "तन्": 5844,
      "##स्फ": 5845,
      "समस्त": 5846,
      "सम्पूर्ण": 5847,
      "नगर": 5848,
      "आयु": 5849,
      "##ृता": 5850,
      "##्यताम्": 5851,
      "कर्मणि": 5852,
      "पुरस्": 5853,
      "##करोत्": 5854,
      "##ूढ": 5855,
      "##स्त्रि": 5856,
      "##टु": 5857,
      "महत्व": 5858,
      "स्पष्ट": 5859,
      "##पद्य": 5860,
      "##भं": 5861,
      "##ात्मा": 5862,
      "##शब्दः": 5863,
      "एतेन": 5864,
      "वरि": 5865,
      "##्यव": 5866,
      "शेषः": 5867,
      "खोज": 5868,
      "त्वम्": 5869,
      "अभ्य": 5870,
      "##ीयं": 5871,
      "##ेषा": 5872,
      "उभय": 5873,
      "##भूव": 5874,
      "##सम्बन्ध": 5875,
      "थः": 5876,
      "##षं": 5877,
      "##धाय": 5878,
      "३१": 5879,
      "##लब्ध": 5880,
      "युग": 5881,
      "##ानम्": 5882,
      "##मिच्छ": 5883,
      "वास": 5884,
      "फरवरी": 5885,
      "##हीं": 5886,
      "##ेते": 5887,
      "बहुधा": 5888,
      "पिब": 5889,
      "##ानुप": 5890,
      "##ेषाम्": 5891,
      "##भिन्न": 5892,
      "पुत्रः": 5893,
      "इत्यादिना": 5894,
      "भक्ष": 5895,
      "##नौ": 5896,
      "पार्श": 5897,
      "पेपर": 5898,
      "तान्": 5899,
      "सामाज": 5900,
      "##भावात्": 5901,
      "स्याद": 5902,
      "प्रोक्तं": 5903,
      "भेदः": 5904,
      "ग्री": 5905,
      "येषां": 5906,
      "##पाप": 5907,
      "##ोड": 5908,
      "लभते": 5909,
      "##ितम": 5910,
      "प्राणि": 5911,
      "भज": 5912,
      "गर्भ": 5913,
      "यानि": 5914,
      "राज्ञ": 5915,
      "##पाः": 5916,
      "##ot": 5917,
      "##्यस्य": 5918,
      "प्रद": 5919,
      "आरो": 5920,
      "##et": 5921,
      "##--": 5922,
      "प्रत्ययः": 5923,
      "सदैव": 5924,
      "वृद्धि": 5925,
      "मरु": 5926,
      "शर": 5927,
      "ददाति": 5928,
      "केश": 5929,
      "२९": 5930,
      "##भोग": 5931,
      "##लेन": 5932,
      "##स्तदा": 5933,
      "##स्माकं": 5934,
      "##वाक्य": 5935,
      "##र्यं": 5936,
      "मध्यम": 5937,
      "विवे": 5938,
      "सम्भवति": 5939,
      "##र्हति": 5940,
      "हृदय": 5941,
      "दो": 5942,
      "ध्रुव": 5943,
      "##तुं": 5944,
      "##कैः": 5945,
      "##धिष्ठ": 5946,
      "##त्रापि": 5947,
      "तच्च": 5948,
      "##एव": 5949,
      "##स्यति": 5950,
      "##माव": 5951,
      "सत्त्व": 5952,
      "जानामि": 5953,
      "तृतीय": 5954,
      "##परी": 5955,
      "पु०": 5956,
      "संस": 5957,
      "मेरे": 5958,
      "चत्व": 5959,
      "##िना": 5960,
      "##कारे": 5961,
      "इत्याह": 5962,
      "सर्वेषु": 5963,
      "एवा": 5964,
      "वय्": 5965,
      "भक्ति": 5966,
      "श्रो": 5967,
      "भारते": 5968,
      "प्रजाप": 5969,
      "##यन्त": 5970,
      "प्रह": 5971,
      "##रात्": 5972,
      "ध्वनि": 5973,
      "चै": 5974,
      "विमान": 5975,
      "##निमित्त": 5976,
      "##पञ्च": 5977,
      "##चिद": 5978,
      "मधु": 5979,
      "श्रव": 5980,
      "जूगु": 5981,
      "##तायाः": 5982,
      "आवेद": 5983,
      "##मूल": 5984,
      "कृतवान्": 5985,
      "गन्त": 5986,
      "##पुं": 5987,
      "विधान": 5988,
      "वैश्व": 5989,
      "पुष्प": 5990,
      "हरे": 5991,
      "##गच्छ": 5992,
      "##ख्ये": 5993,
      "##क्क": 5994,
      "##ष्टो": 5995,
      "##ोऽहं": 5996,
      "स्थितः": 5997,
      "##पदे": 5998,
      "जुइ": 5999,
      "कुर्यात्": 6000,
      "of": 6001,
      "आङ्ग": 6002,
      "नाय": 6003,
      "चेति": 6004,
      "##क्ल": 6005,
      "##रक्षण": 6006,
      "##कुर्व": 6007,
      "एम": 6008,
      "नरः": 6009,
      "साव": 6010,
      "सत्": 6011,
      "##त्सु": 6012,
      "रिक्त": 6013,
      "##णस्य": 6014,
      "रात्रि": 6015,
      "ताप": 6016,
      "सञ्च": 6017,
      "ज्ञे": 6018,
      "कर्तव्यं": 6019,
      "200": 6020,
      "अतीव": 6021,
      "##ितौ": 6022,
      "##स्मिन्न": 6023,
      "##वृद्ध": 6024,
      "##कारो": 6025,
      "भिन्न": 6026,
      "स्वप्न": 6027,
      "विकिपीडिया": 6028,
      "बुध": 6029,
      "वाद": 6030,
      "##श्चा": 6031,
      "एतद्": 6032,
      "शुक्र": 6033,
      "आत्मा": 6034,
      "##थाः": 6035,
      "##यिष्यामि": 6036,
      "महत्": 6037,
      "मात्र": 6038,
      "विधीयते": 6039,
      "खेल": 6040,
      "24": 6041,
      "##क्षते": 6042,
      "धातु": 6043,
      "##त्येव": 6044,
      "##ाली": 6045,
      "संबन्ध": 6046,
      "##ालं": 6047,
      "देवः": 6048,
      "##नय": 6049,
      "विषयः": 6050,
      "अमेरिक": 6051,
      "चक्षु": 6052,
      "रज": 6053,
      "##गुणं": 6054,
      "दुर्ग": 6055,
      "##मस्य": 6056,
      "##डी": 6057,
      "##याय": 6058,
      "कथ्यते": 6059,
      "ताम": 6060,
      "po": 6061,
      "##खण्ड": 6062,
      "द्वार": 6063,
      "अन्यत्र": 6064,
      "विशिष्ट": 6065,
      "दुःखं": 6066,
      "वर्गः": 6067,
      "आदि": 6068,
      "##स्थं": 6069,
      "पश्चात्": 6070,
      "##न्ये": 6071,
      "हृदि": 6072,
      "यात": 6073,
      "00": 6074,
      "##लयः": 6075,
      "##द्वारा": 6076,
      "##णाति": 6077,
      "उवाच": 6078,
      "नृत्य": 6079,
      "बो": 6080,
      "##el": 6081,
      "##ितानां": 6082,
      "##ालि": 6083,
      "##ासं": 6084,
      "क्षमा": 6085,
      "नाश": 6086,
      "युष्मा": 6087,
      "षड": 6088,
      "५०": 6089,
      "##ान्तरे": 6090,
      "विपरी": 6091,
      "तिष्ठति": 6092,
      "पदार्थ": 6093,
      "##्यति": 6094,
      "कथितं": 6095,
      "##वाय": 6096,
      "##घट": 6097,
      "##र्ब": 6098,
      "समये": 6099,
      "करिष्यामि": 6100,
      "the": 6101,
      "##ासां": 6102,
      "अने": 6103,
      "नाट": 6104,
      "##क्षेत्र": 6105,
      "तृतीया": 6106,
      "टिप्प": 6107,
      "एवम": 6108,
      "शोभ": 6109,
      "ज्येष्ठ": 6110,
      "वयम्": 6111,
      "##प्ति": 6112,
      "तन्म": 6113,
      "परस्प": 6114,
      "निग": 6115,
      "दर्शयति": 6116,
      "हृदयं": 6117,
      "भुव": 6118,
      "##ार्त": 6119,
      "विम": 6120,
      "##ेनैव": 6121,
      "##प्स": 6122,
      "##ह्म": 6123,
      "वेत": 6124,
      "##साह": 6125,
      "##ेशः": 6126,
      "##श्रेष्ठ": 6127,
      "व्रज": 6128,
      "##किं": 6129,
      "##राध": 6130,
      "##घात": 6131,
      "##ुरूप": 6132,
      "कृष": 6133,
      "तदपि": 6134,
      "##ैर्य": 6135,
      "पर्या": 6136,
      "##दिव": 6137,
      "##समये": 6138,
      "कीर्त": 6139,
      "सम्यक्": 6140,
      "इन्द": 6141,
      "नारी": 6142,
      "अद": 6143,
      "च्": 6144,
      "##ाश्च": 6145,
      "##चेत": 6146,
      "अस्तु": 6147,
      "प्रेष": 6148,
      "##प्तं": 6149,
      "विश्लेषण": 6150,
      "कान": 6151,
      "काय": 6152,
      "##स्ततः": 6153,
      "##नाव": 6154,
      "##ct": 6155,
      "इत्य्": 6156,
      "में": 6157,
      "मूर्ख": 6158,
      "##हृद": 6159,
      "##करं": 6160,
      "##दानं": 6161,
      "धाः": 6162,
      "##स्वा": 6163,
      "##र्ट": 6164,
      "एकादश": 6165,
      "विश्वं": 6166,
      "परिच": 6167,
      "खँ": 6168,
      "##सस्य": 6169,
      "##धीयते": 6170,
      "##भूमि": 6171,
      "दुष्ट": 6172,
      "०३": 6173,
      "##धात": 6174,
      "##वर्ग": 6175,
      "##न्ने": 6176,
      "मनसा": 6177,
      "ar": 6178,
      "सायं": 6179,
      "##मप": 6180,
      "##ऽहं": 6181,
      "##ष्यन्ति": 6182,
      "##ग्राह": 6183,
      "##ितु": 6184,
      "प्रयोगः": 6185,
      "भौ": 6186,
      "##दम्": 6187,
      "##स्मान्": 6188,
      "मन्यते": 6189,
      "कश्चन": 6190,
      "योजना": 6191,
      "श्वेत": 6192,
      "##भूतं": 6193,
      "##भाग्य": 6194,
      "अभिप्र": 6195,
      "३२": 6196,
      "##षो": 6197,
      "##करः": 6198,
      "##षेधः": 6199,
      "पार्थिव": 6200,
      "बोध": 6201,
      "##हस्त": 6202,
      "##जाः": 6203,
      "##ानेन": 6204,
      "##दिने": 6205,
      "अर्ध": 6206,
      "##ाता": 6207,
      "अन्तः": 6208,
      "प्रजा": 6209,
      "तन": 6210,
      "##पत": 6211,
      "##vi": 6212,
      "##ान्या": 6213,
      "##ग्रहः": 6214,
      "नोप": 6215,
      "प्राह": 6216,
      "संस्करण": 6217,
      "प्रकरण": 6218,
      "सुवर्ण": 6219,
      "##मेक": 6220,
      "##कृतम्": 6221,
      "मन्त्रि": 6222,
      "नहि": 6223,
      "वं": 6224,
      "##च्वं": 6225,
      "चतुर्थ": 6226,
      "किञ्चि": 6227,
      "on": 6228,
      "##ाद्ध": 6229,
      "##क्षणं": 6230,
      "सभ": 6231,
      "स्वतः": 6232,
      "शक्तिः": 6233,
      "##तानां": 6234,
      "स्वं": 6235,
      "यथार्थ": 6236,
      "दोषः": 6237,
      "रोचते": 6238,
      "इतर": 6239,
      "##न्तम्": 6240,
      "अध्याय": 6241,
      "##स्थि": 6242,
      "प्रथमः": 6243,
      "##युक्तं": 6244,
      "पाण्ड": 6245,
      "##रित": 6246,
      "प्रत्येक": 6247,
      "नाहं": 6248,
      "निर्देश": 6249,
      "22": 6250,
      "गमि": 6251,
      "चो": 6252,
      "ताः": 6253,
      "दरि": 6254,
      "##णु": 6255,
      "प्रविश": 6256,
      "कल्या": 6257,
      "प्रवर्तते": 6258,
      "##ायाः": 6259,
      "##ें": 6260,
      "अनुकूल": 6261,
      "सिध्य": 6262,
      "इदानी": 6263,
      "अक": 6264,
      "##न्यः": 6265,
      "##श्यति": 6266,
      "23": 6267,
      "४०": 6268,
      "##सन": 6269,
      "##गता": 6270,
      "व्यायाम": 6271,
      "मृत्यु": 6272,
      "सर्ग": 6273,
      "##षध": 6274,
      "##नाद": 6275,
      "##पाठ": 6276,
      "स्पर्श": 6277,
      "ans": 6278,
      "वरिष्ठ": 6279,
      "दात": 6280,
      "##ज़": 6281,
      "##विज्ञान": 6282,
      "##धिकं": 6283,
      "द्वितीया": 6284,
      "मृग": 6285,
      "सार्व": 6286,
      "इष्ट": 6287,
      "##नानां": 6288,
      "##सुख": 6289,
      "##ेश्वर": 6290,
      "किञ्चित्": 6291,
      "जप": 6292,
      "नवी": 6293,
      "##ॄणां": 6294,
      "धर्मः": 6295,
      "धन्यवाद": 6296,
      "##चनं": 6297,
      "##क्षित": 6298,
      "##मिह": 6299,
      "बहिः": 6300,
      "उन्न": 6301,
      "सय": 6302,
      "त्वमेव": 6303,
      "दिश": 6304,
      "पराज": 6305,
      "##रति": 6306,
      "##र्नि": 6307,
      "स्मृत": 6308,
      "सामाजिक": 6309,
      "##यॊ": 6310,
      "##ूष": 6311,
      "##द्भव": 6312,
      "सुन्द": 6313,
      "##च्छ्र": 6314,
      "निर्वा": 6315,
      "३३": 6316,
      "##काय": 6317,
      "##ग्राम": 6318,
      "भगवन्": 6319,
      "01": 6320,
      "तात": 6321,
      "नाव": 6322,
      "##ख्यं": 6323,
      "निरूप": 6324,
      "महान्": 6325,
      "वक्तव्यम्": 6326,
      "वाक्यं": 6327,
      "खाद": 6328,
      "दद्या": 6329,
      "धीम": 6330,
      "##बाह": 6331,
      "माम्": 6332,
      "##न्यो": 6333,
      "##भूत्": 6334,
      "वस्तुतः": 6335,
      "##शब्दे": 6336,
      "वदति": 6337,
      "##ज्र": 6338,
      "##िकां": 6339,
      "पुरो": 6340,
      "यॊ": 6341,
      "आगच्छ": 6342,
      "##पन्न": 6343,
      "##मेति": 6344,
      "मुद्र": 6345,
      "कुरुते": 6346,
      "पवित्र": 6347,
      "##धातु": 6348,
      "##ap": 6349,
      "विस": 6350,
      "##ात्मक": 6351,
      "पल": 6352,
      "लोप": 6353,
      "##मम": 6354,
      "##लयं": 6355,
      "विश्र": 6356,
      "देशस्य": 6357,
      "ध्या": 6358,
      "##ज्या": 6359,
      "ऊर्ज": 6360,
      "वान": 6361,
      "##तमः": 6362,
      "##सूत्र": 6363,
      "##ूर्ण": 6364,
      "##िकार": 6365,
      "##ासा": 6366,
      "द्रव्य": 6367,
      "##ध्यायः": 6368,
      "##xx": 6369,
      "##ादयः": 6370,
      "कुत": 6371,
      "व्यापार": 6372,
      "तयोः": 6373,
      "##रां": 6374,
      "दीप": 6375,
      "संवत्स": 6376,
      "आत्": 6377,
      "##्यन्ते": 6378,
      "##ित्वं": 6379,
      "##स्तीति": 6380,
      "शाश्व": 6381,
      "मोक्ष": 6382,
      "अधोलिख": 6383,
      "आरम्": 6384,
      "गी": 6385,
      "वार्ष": 6386,
      "##ग्रहणं": 6387,
      "छन्द": 6388,
      "नेत": 6389,
      "##बु": 6390,
      "ज्ञायते": 6391,
      "##शील": 6392,
      "-\"": 6393,
      "##िनि": 6394,
      "##भो": 6395,
      "विच": 6396,
      "##याति": 6397,
      "बहवः": 6398,
      "##हति": 6399,
      "##धन": 6400,
      "##देशस्य": 6401,
      "कृषि": 6402,
      "प्रश्नः": 6403,
      "त्री": 6404,
      "ययौ": 6405,
      "##लित": 6406,
      "##ादिव": 6407,
      "हिन्द": 6408,
      "ज्ञात्वा": 6409,
      "पद्": 6410,
      "मर्त": 6411,
      "##संबन्ध": 6412,
      "सिंह": 6413,
      "तैः": 6414,
      "##ङ्गु": 6415,
      "##स्थे": 6416,
      "राजन्": 6417,
      "मनसि": 6418,
      "प्रयु": 6419,
      "क्षु": 6420,
      "##शब्देन": 6421,
      "##गमन": 6422,
      "विरुद्ध": 6423,
      "##त्री": 6424,
      "##प्रकाश": 6425,
      "एको": 6426,
      "कार्यम्": 6427,
      "विनाश": 6428,
      "##ूं": 6429,
      "##ल्ली": 6430,
      "##नीं": 6431,
      "सकल": 6432,
      "##टं": 6433,
      "इतः": 6434,
      "वक्ष": 6435,
      "सात": 6436,
      "प्रतीयते": 6437,
      "मधुर": 6438,
      "नान्य": 6439,
      "यच्च": 6440,
      "##वादि": 6441,
      "##कार्यं": 6442,
      "सततं": 6443,
      "03": 6444,
      "अभव": 6445,
      "तन्त्र": 6446,
      "##लय्": 6447,
      "27": 6448,
      "##ाति": 6449,
      "##जु": 6450,
      "##ेष्ट": 6451,
      "##संभव": 6452,
      "##चिद्": 6453,
      "२०७": 6454,
      "तद्ध": 6455,
      "स्वर्ण": 6456,
      "##भाति": 6457,
      "अन्वयः": 6458,
      "पशु": 6459,
      "##द्यते": 6460,
      "##ीये": 6461,
      "##ून्": 6462,
      "##क्रमः": 6463,
      "##कृत्": 6464,
      "एतादृश": 6465,
      "रुद्र": 6466,
      "इमे": 6467,
      "##कता": 6468,
      "##र्थिक": 6469,
      "##दिन": 6470,
      "##र्जु": 6471,
      "पीसी": 6472,
      "##ate": 6473,
      "अग्र": 6474,
      "##ह्व": 6475,
      "तस्माद": 6476,
      "भगवान": 6477,
      "##पूर्वं": 6478,
      "pr": 6479,
      "##दत्": 6480,
      "प्रमुख": 6481,
      "##मादि": 6482,
      "कोऽ": 6483,
      "हृदये": 6484,
      "न्": 6485,
      "##्यम": 6486,
      "सर्वतः": 6487,
      "जय": 6488,
      "##बर": 6489,
      "##र्मि": 6490,
      "##रणः": 6491,
      "कर्तव्यम्": 6492,
      "विशेषः": 6493,
      "##सम्भव": 6494,
      "उक्तं": 6495,
      "##तार": 6496,
      "##मात्रेण": 6497,
      "त्यज": 6498,
      "अस्याः": 6499,
      "##चं": 6500,
      "तेज": 6501,
      "एकदा": 6502,
      "ङीप्": 6503,
      "निह": 6504,
      "क्रमेण": 6505,
      "आश": 6506,
      "परः": 6507,
      "##तीं": 6508,
      "##ण्ट": 6509,
      "##त्सर्व": 6510,
      "स्वाहा": 6511,
      "प्रयोजनम्": 6512,
      "म्": 6513,
      "यस्मिन्": 6514,
      "##खु": 6515,
      "##ws": 6516,
      "##च्छा": 6517,
      "एतस्य": 6518,
      "com": 6519,
      "आनन्द": 6520,
      "मन्द": 6521,
      "##भावेन": 6522,
      "##नीति": 6523,
      "तत्रैव": 6524,
      "##ादिषु": 6525,
      "##भ्याम्": 6526,
      "सेवा": 6527,
      "धाव": 6528,
      "प्रीति": 6529,
      "##निर": 6530,
      "##ासः": 6531,
      "समं": 6532,
      "मोह": 6533,
      "मुक्ति": 6534,
      "मासे": 6535,
      "साहित्य": 6536,
      "02": 6537,
      "##हारः": 6538,
      "##विधं": 6539,
      "अन्तरि": 6540,
      "दरिद्र": 6541,
      "##च्या": 6542,
      "##न्तरे": 6543,
      "##त्तु": 6544,
      "##जान": 6545,
      "##्याह": 6546,
      "##वाक": 6547,
      "##xt": 6548,
      "विरा": 6549,
      "यस्तु": 6550,
      "विधिः": 6551,
      "),": 6552,
      "दद": 6553,
      "ऽपि": 6554,
      "##ैल": 6555,
      "परो": 6556,
      "स्वयमेव": 6557,
      "##्येति": 6558,
      "स्वप्ने": 6559,
      "अन्ति": 6560,
      "स्ना": 6561,
      "##त्याः": 6562,
      "समुदाय": 6563,
      "कुर्या": 6564,
      "वस्त्र": 6565,
      "##भौ": 6566,
      "##गतम्": 6567,
      "##ान्ध": 6568,
      "##लोक्य": 6569,
      "पित्र": 6570,
      "##पत्": 6571,
      "पर्याव": 6572,
      "प्रतियोग": 6573,
      "##मानो": 6574,
      "##भूता": 6575,
      "लिखत": 6576,
      "26": 6577,
      "##वचन": 6578,
      "##वादी": 6579,
      "विश्वविद्या": 6580,
      "##पीड": 6581,
      "##नुवन्ति": 6582,
      "कर्म्म": 6583,
      "##ेभ्यः": 6584,
      "##ig": 6585,
      "##ौं": 6586,
      "##विष्ट": 6587,
      "##स्वी": 6588,
      "गतिः": 6589,
      "डि": 6590,
      "भे": 6591,
      "योऽ": 6592,
      "शब्दा": 6593,
      "हु": 6594,
      "३५": 6595,
      "##मतः": 6596,
      "##२०": 6597,
      "सर्वभूत": 6598,
      "##रीं": 6599,
      "द्वा": 6600,
      "धकाः": 6601,
      "भद्र": 6602,
      "##थो": 6603,
      "प्रस्तु": 6604,
      "विरो": 6605,
      "##भिर्": 6606,
      "उत्तरः": 6607,
      "कदापि": 6608,
      "##कृष्ट": 6609,
      "##de": 6610,
      "विश्वे": 6611,
      "मत्स्य": 6612,
      "न०": 6613,
      "माल": 6614,
      "रक्षा": 6615,
      "##माश्र": 6616,
      "##स्तद": 6617,
      "##नादि": 6618,
      "प्रधानमन्त्री": 6619,
      "नीति": 6620,
      "बलं": 6621,
      "लाग": 6622,
      "##पय": 6623,
      "##ृते": 6624,
      "##्यै": 6625,
      "रामः": 6626,
      "मिथ्या": 6627,
      "पत्नी": 6628,
      "सन्नि": 6629,
      "##चरेत्": 6630,
      "##फ्": 6631,
      "त्वयि": 6632,
      "तिथ": 6633,
      "##ur": 6634,
      "##निश्च": 6635,
      "करिष्यति": 6636,
      "अग्रे": 6637,
      "##ol": 6638,
      "##र्थो": 6639,
      "##कुल": 6640,
      "शक्नोति": 6641,
      "##मभि": 6642,
      "##परं": 6643,
      "क्षम": 6644,
      "प्रत्यु": 6645,
      "शक्र": 6646,
      "##सव": 6647,
      "##शतं": 6648,
      "##भारः": 6649,
      "##क्री": 6650,
      "प्रेम": 6651,
      "शरणं": 6652,
      "##महं": 6653,
      "##तय्": 6654,
      "##us": 6655,
      "समीक्षा": 6656,
      "se": 6657,
      "छु": 6658,
      "नाप": 6659,
      "अनन्त": 6660,
      "वर्षा": 6661,
      "साधु": 6662,
      "प्रभो": 6663,
      "युद्धे": 6664,
      "वृष्ट": 6665,
      "स्वस्य": 6666,
      "राष्ट्रिय": 6667,
      "##नीयं": 6668,
      "पंच": 6669,
      "महत्वपूर्ण": 6670,
      "##साग": 6671,
      "##di": 6672,
      "तत्प्र": 6673,
      "श्रुति": 6674,
      "जाति": 6675,
      "उक्तम्": 6676,
      "##क्ते": 6677,
      "३६": 6678,
      "##मध्य": 6679,
      "##गि": 6680,
      "is": 6681,
      "##ालः": 6682,
      "कदाचन": 6683,
      "mss": 6684,
      "सेना": 6685,
      "प्रतिदिनं": 6686,
      "असि": 6687,
      "अद्या": 6688,
      "मार": 6689,
      "##विर": 6690,
      "प्रतिवेदन": 6691,
      "नगरे": 6692,
      "यानाः": 6693,
      "आय": 6694,
      "हय": 6695,
      "##स्थः": 6696,
      "पिताम": 6697,
      "त्रयो": 6698,
      "पर्वत": 6699,
      "पक्षे": 6700,
      "##सप्त": 6701,
      "##थम": 6702,
      "##ल्या": 6703,
      "निर्ध": 6704,
      "संयोग": 6705,
      "##रेक": 6706,
      "जीवनं": 6707,
      "वचः": 6708,
      "स्नान": 6709,
      "##थ्": 6710,
      "##तानि": 6711,
      "##त्ये": 6712,
      "निम्": 6713,
      "स्क": 6714,
      "इत्यपि": 6715,
      "अकरोत्": 6716,
      "चाल": 6717,
      "##रौ": 6718,
      "##णाः": 6719,
      "##युक्तः": 6720,
      "व्यवस्था": 6721,
      "भ्रात": 6722,
      "काव्य": 6723,
      "भविष": 6724,
      "मन्दि": 6725,
      "##स्थिति": 6726,
      "वृष": 6727,
      "अन्तर": 6728,
      "##ation": 6729,
      "शक्नु": 6730,
      "पच": 6731,
      "यन्त्र": 6732,
      "४५": 6733,
      "साध्य": 6734,
      "##चितम्": 6735,
      "##र्हसि": 6736,
      "##लां": 6737,
      "##याव": 6738,
      "समुप": 6739,
      "कन": 6740,
      "भूत्वा": 6741,
      "आधार": 6742,
      "क्षी": 6743,
      "##योजना": 6744,
      "विद्यु": 6745,
      "कठ": 6746,
      "खण्ड": 6747,
      "##ामु": 6748,
      "##दृश्य": 6749,
      "अग्निः": 6750,
      "iii": 6751,
      "नौ": 6752,
      "##ेतु": 6753,
      "महान": 6754,
      "समीपे": 6755,
      "शय": 6756,
      "##पतिः": 6757,
      "##सै": 6758,
      "##चक्र": 6759,
      "प्रकल्प": 6760,
      "##स्यैव": 6761,
      "३७": 6762,
      "##ढ़": 6763,
      "##न्नो": 6764,
      "##त्त्र": 6765,
      "##रण्य": 6766,
      "##ित्यर्थः": 6767,
      "यस्या": 6768,
      "शङ्क": 6769,
      "##सिं": 6770,
      "##तिरिक्त": 6771,
      "##संख्य": 6772,
      "##सीद": 6773,
      "यद्वा": 6774,
      "##कीर्त": 6775,
      "शीर्ष": 6776,
      "##च्वंगु": 6777,
      "ऊर्ध": 6778,
      "षट्": 6779,
      "##पक्षे": 6780,
      "##ितेन": 6781,
      "##ांत": 6782,
      "कारणम्": 6783,
      "उपा": 6784,
      "शिश": 6785,
      "मन्ये": 6786,
      "१९९": 6787,
      "##क्रमण": 6788,
      "श्लोक": 6789,
      "क्त": 6790,
      "जले": 6791,
      "०४": 6792,
      "केचित्": 6793,
      "न्यून": 6794,
      "##ेनि": 6795,
      "केवलम्": 6796,
      "गिरि": 6797,
      "sf": 6798,
      "ही": 6799,
      "##ङ्कार": 6800,
      "##ासते": 6801,
      "मेघ": 6802,
      "तदु": 6803,
      "वर्षाणि": 6804,
      "वक्तुं": 6805,
      "##याद": 6806,
      "कथय": 6807,
      "अपेक्ष": 6808,
      "दिनाङ्के": 6809,
      "चरण": 6810,
      "निरी": 6811,
      "नात्र": 6812,
      "बाह्य": 6813,
      "##ive": 6814,
      "हन्त": 6815,
      "##ध्याय": 6816,
      "वाह": 6817,
      "##कालः": 6818,
      "एतेषां": 6819,
      "##जग": 6820,
      "##योर्": 6821,
      "प्राधिकरण": 6822,
      "##नै": 6823,
      "वायुः": 6824,
      "हरिः": 6825,
      "पश्चिम": 6826,
      "ईश": 6827,
      "##स्तो": 6828,
      "संसाधन": 6829,
      "##द्योग": 6830,
      "देवं": 6831,
      "स्वास्थ": 6832,
      "##ैरपि": 6833,
      "किमर्थं": 6834,
      "गृहीत्वा": 6835,
      "##राय": 6836,
      "देशः": 6837,
      "##ेश्वरः": 6838,
      "##ायाम्": 6839,
      "##ब्रवीत्": 6840,
      "अ॒": 6841,
      "ऋष": 6842,
      "##धौ": 6843,
      "##ग्व": 6844,
      "##त्पत्त": 6845,
      "स्नेह": 6846,
      "##रत": 6847,
      "##स्त्री": 6848,
      "सज्ज": 6849,
      "##लिं": 6850,
      "##ानुव": 6851,
      "मूल्य": 6852,
      "घोषणा": 6853,
      "##धाव": 6854,
      "निर्ग": 6855,
      "समयः": 6856,
      "##मुद": 6857,
      "पूर्वोक्त": 6858,
      "सरकार": 6859,
      "तार": 6860,
      "दास": 6861,
      "##स्तेन": 6862,
      "निश": 6863,
      "सार्ध": 6864,
      "अनुभव": 6865,
      "स्नानं": 6866,
      "##ेक्षा": 6867,
      "##ut": 6868,
      "##ित्यं": 6869,
      "##त्यर्थः": 6870,
      "समन्व": 6871,
      "सम्प्रति": 6872,
      "तेषाम": 6873,
      "##र्ड": 6874,
      "##्वास": 6875,
      "##दिश्य": 6876,
      "##द्यो": 6877,
      "बालकः": 6878,
      "आङ्ग्ल": 6879,
      "रक्षण": 6880,
      "##सम्ब": 6881,
      "##ैष": 6882,
      "स्वे": 6883,
      "प्रतिनि": 6884,
      "एताव": 6885,
      "वचन": 6886,
      "##ाल्": 6887,
      "प्रथमे": 6888,
      "भूप": 6889,
      "##em": 6890,
      "व्याप": 6891,
      "शुभा": 6892,
      "दूरे": 6893,
      "##र्दश": 6894,
      "द्वितीयं": 6895,
      "महिला": 6896,
      "चार": 6897,
      "नहीं": 6898,
      "षोड": 6899,
      "विरोध": 6900,
      "एवमेव": 6901,
      "##मानस्य": 6902,
      "तेऽ": 6903,
      "तदि": 6904,
      "मरण": 6905,
      "##मित्या": 6906,
      "##ानो": 6907,
      "##निर्म": 6908,
      "राग": 6909,
      "परस्परं": 6910,
      "जनः": 6911,
      "४१": 6912,
      "##ानन्द": 6913,
      "सर्वाः": 6914,
      "स्वामि": 6915,
      "समू": 6916,
      "कालं": 6917,
      "2019": 6918,
      "समीप": 6919,
      "##लयस्य": 6920,
      "##करोति": 6921,
      "लाखों": 6922,
      "शौ": 6923,
      "##ov": 6924,
      "##येति": 6925,
      "याच": 6926,
      "##घ्न": 6927,
      "##वारं": 6928,
      "##ान्तरं": 6929,
      "क्ली": 6930,
      "अनुवाद": 6931,
      "##पुरा": 6932,
      "##क्षेत्रे": 6933,
      "भाग्य": 6934,
      "कुर्य": 6935,
      "al": 6936,
      "करे": 6937,
      "##वर्ज": 6938,
      "##गू": 6939,
      "##ul": 6940,
      "मह्यं": 6941,
      "##स्मिं": 6942,
      "विशेषण": 6943,
      "क्षेत्रे": 6944,
      "मनुष्या": 6945,
      "2020": 6946,
      "दर": 6947,
      "##सभा": 6948,
      "प्रकार": 6949,
      "##ङ्गल": 6950,
      "श्रूयते": 6951,
      "प्राचीन": 6952,
      "##रेव": 6953,
      "प्रसार": 6954,
      "सकलं": 6955,
      "ऋण": 6956,
      "वां": 6957,
      "सदृश": 6958,
      "##बाध": 6959,
      "for": 6960,
      "धु": 6961,
      "##ेऽपि": 6962,
      "##ोपरि": 6963,
      "##श्मी": 6964,
      "स्त्रीणां": 6965,
      "थु": 6966,
      "प्रमाणं": 6967,
      "##र्थी": 6968,
      "##ल्क": 6969,
      "श्रेण": 6970,
      "प्रसाद": 6971,
      "अध्यायः": 6972,
      "पथ": 6973,
      "परमाण": 6974,
      "##ैवं": 6975,
      "संस्कृति": 6976,
      "ब्रह्मा": 6977,
      "(=": 6978,
      "शङ्": 6979,
      "साल": 6980,
      "##प्रधान": 6981,
      "वात": 6982,
      "राष्ट्रीय": 6983,
      "शरीरं": 6984,
      "असं": 6985,
      "##हुः": 6986,
      "##नार्थं": 6987,
      "संस्थान": 6988,
      "##ज्ञाप": 6989,
      "साम्": 6990,
      "##देशं": 6991,
      "कृष्": 6992,
      "अन्न": 6993,
      "शोध": 6994,
      "##ितस्य": 6995,
      "##क्षी": 6996,
      "##प्रसङ्ग": 6997,
      "लभ्यते": 6998,
      "नाम्ना": 6999,
      "##तमं": 7000,
      "##रीय": 7001,
      "प्राक्": 7002,
      "##क्षिण": 7003,
      "वदन्ति": 7004,
      "बे": 7005,
      "मृद": 7006,
      "यद्व": 7007,
      "##क्व": 7008,
      "##जल": 7009,
      "##वद्": 7010,
      "महारा": 7011,
      "##नीया": 7012,
      "परिवार": 7013,
      "खल": 7014,
      "##ाणी": 7015,
      "##ुक्तम्": 7016,
      "##मानम्": 7017,
      "##त्यां": 7018,
      "मुद्रा": 7019,
      "##ेयः": 7020,
      "##्वी": 7021,
      "प्रयोजन": 7022,
      "##ङ्घ": 7023,
      "__१": 7024,
      "28": 7025,
      "रत्": 7026,
      "##हम": 7027,
      "##द्वार": 7028,
      "##ष्यसि": 7029,
      "##ग्रन्थ": 7030,
      "फो": 7031,
      "##शङ्क": 7032,
      "##्यौ": 7033,
      "##ितुम्": 7034,
      "##िक्र": 7035,
      "देवस्य": 7036,
      "मात्रा": 7037,
      "उत्पादन": 7038,
      "सन्तु": 7039,
      "##ाऽ": 7040,
      "शब्दस्य": 7041,
      "##तृ": 7042,
      "##wer": 7043,
      "##ह्न": 7044,
      "युष्म": 7045,
      "स्वातन्त्र": 7046,
      "योग्य": 7047,
      "स्मृतः": 7048,
      "भोजनं": 7049,
      "चेद": 7050,
      "मित्रं": 7051,
      "विभक्त": 7052,
      "करु": 7053,
      "##ोति": 7054,
      "##मानु": 7055,
      "##भूति": 7056,
      "परीक्ष": 7057,
      "डा": 7058,
      "नद": 7059,
      "##व्ये": 7060,
      "##ामहे": 7061,
      "म्ह": 7062,
      "समि": 7063,
      "##प्यते": 7064,
      "प्रशास": 7065,
      "विल": 7066,
      "विभाषा": 7067,
      "इत्येवं": 7068,
      "शरण": 7069,
      "##माणे": 7070,
      "प्रतिषेध": 7071,
      "पाकि": 7072,
      "कां": 7073,
      "##क्षत्र": 7074,
      "##विचार": 7075,
      "संघ": 7076,
      "रूपेण": 7077,
      "तस्यां": 7078,
      "2018": 7079,
      "क्रीडा": 7080,
      "गम्यते": 7081,
      "04": 7082,
      "अच": 7083,
      "जे": 7084,
      "बभूव": 7085,
      "##तमे": 7086,
      "##राव": 7087,
      "##शाला": 7088,
      "भवतीति": 7089,
      "##गृह्य": 7090,
      "##ब्राह्म": 7091,
      "ईश्वरः": 7092,
      "de": 7093,
      "##गते": 7094,
      "##ैश्व": 7095,
      "##ूत": 7096,
      "##माप्": 7097,
      "सर्वान्": 7098,
      "ज्ञाप": 7099,
      "##यिष्यति": 7100,
      "शक्यं": 7101,
      "मनोर": 7102,
      "इमं": 7103,
      "##सद": 7104,
      "##शयः": 7105,
      "सर्वस्य": 7106,
      "सम्भाव": 7107,
      "परिभाष": 7108,
      "##समन्व": 7109,
      "##ans": 7110,
      "युद्धं": 7111,
      "##लक्षणं": 7112,
      "बलि": 7113,
      "##पथ": 7114,
      "##चिः": 7115,
      "##ारूप": 7116,
      "प्राधान": 7117,
      "करोतु": 7118,
      "वृत्ति": 7119,
      "वर्धते": 7120,
      "50": 7121,
      "##मानि": 7122,
      "##ताया": 7123,
      "धीरे": 7124,
      "##गन्ध": 7125,
      "देवो": 7126,
      "पापं": 7127,
      "पश्यामि": 7128,
      "##दिश्यते": 7129,
      ":-": 7130,
      "गर्": 7131,
      "##धो": 7132,
      "स्मृति": 7133,
      "नान": 7134,
      "##वत": 7135,
      "##न्मा": 7136,
      "युगे": 7137,
      "सङ्ख्या": 7138,
      "इत्येतद्": 7139,
      "उद्ध": 7140,
      "राव": 7141,
      "##साः": 7142,
      "##नाया": 7143,
      "##ग्रहण": 7144,
      "शून्य": 7145,
      "ओं": 7146,
      "हानि": 7147,
      "##हृ": 7148,
      "समन्त": 7149,
      "राज्ये": 7150,
      "##रूपे": 7151,
      "पट": 7152,
      "हर्ष": 7153,
      "५५": 7154,
      "##पर्यन्तं": 7155,
      "खो": 7156,
      "चित्": 7157,
      "परित्य": 7158,
      "इत्यत": 7159,
      "##गम्य": 7160,
      "नेत्र": 7161,
      "आवेदन": 7162,
      "माय": 7163,
      "ली": 7164,
      "शृ": 7165,
      "##चाल": 7166,
      "प्रस्ताव": 7167,
      "##माप": 7168,
      "##क्षर": 7169,
      "##नात्म": 7170,
      "##ादपि": 7171,
      "योजन": 7172,
      "आर्थिक": 7173,
      "राजनि": 7174,
      "गुणः": 7175,
      "कर्मणा": 7176,
      "शिष्य": 7177,
      "राष्ट्रपति": 7178,
      "ततश्च": 7179,
      "हेतुः": 7180,
      "##दिष्टम्": 7181,
      "##गाः": 7182,
      "##द्यु": 7183,
      "मिल": 7184,
      "लक्षणं": 7185,
      "##प्रत्ययः": 7186,
      "दया": 7187,
      "##॑ः": 7188,
      "संशोध": 7189,
      "sp": 7190,
      "रहस्य": 7191,
      "##वस्तु": 7192,
      "##टर": 7193,
      "##भावो": 7194,
      "##क्रान्त": 7195,
      "सूक्ष्म": 7196,
      "गुणा": 7197,
      "एषां": 7198,
      "##ाग्नि": 7199,
      "याःगु": 7200,
      "##ir": 7201,
      "##ूर": 7202,
      "##निय": 7203,
      "##येद्": 7204,
      "##काङ्": 7205,
      "##ामिति": 7206,
      "##यन्ते": 7207,
      "##कां": 7208,
      "##कत्व": 7209,
      "##त्था": 7210,
      "##्याम्": 7211,
      "सर्वो": 7212,
      "भवत्य": 7213,
      "जीवन": 7214,
      "by": 7215,
      "आच": 7216,
      "यश्च": 7217,
      "##पर्व": 7218,
      "मुने": 7219,
      "भूमौ": 7220,
      "कार्यक्रम": 7221,
      "छात्राः": 7222,
      "काव": 7223,
      "##रात्म": 7224,
      "अधिकारी": 7225,
      "गुणाः": 7226,
      "तीर्थ": 7227,
      "त्": 7228,
      "दुः": 7229,
      "हन": 7230,
      "##जन्म": 7231,
      "भवती": 7232,
      "प्राति": 7233,
      "कर्माणि": 7234,
      "पर्यावरण": 7235,
      "तमेव": 7236,
      "३४": 7237,
      "सर्वैः": 7238,
      "##क्रमे": 7239,
      "मूढ": 7240,
      "शतं": 7241,
      "शान्ति": 7242,
      "##ूर्व": 7243,
      "##मुत्त": 7244,
      "##यितुम्": 7245,
      "निर्माण": 7246,
      "##धारण": 7247,
      "इच्छति": 7248,
      "इत्युच्यते": 7249,
      "त्रीणि": 7250,
      "iv": 7251,
      "चौ": 7252,
      "छि": 7253,
      "वस्त": 7254,
      "##हत": 7255,
      "##शुद्ध": 7256,
      "##वत्स": 7257,
      "##द्भिः": 7258,
      "##न्द्रिय": 7259,
      "साभारः": 7260,
      "##ोऽस्ति": 7261,
      "##ख्यान": 7262,
      "##हेतु": 7263,
      "वसु": 7264,
      "वज्र": 7265,
      "प्रशं": 7266,
      "निष्ठ": 7267,
      "त्वाम": 7268,
      "##मेकं": 7269,
      "अतएव": 7270,
      "##खः": 7271,
      "सर्वथा": 7272,
      "##ाणाम्": 7273,
      "##द्रूप": 7274,
      "स्थिता": 7275,
      "स्थिर": 7276,
      "us": 7277,
      "##िनां": 7278,
      "तुल्य": 7279,
      "##द्वयं": 7280,
      "##प्तः": 7281,
      "तदन": 7282,
      "लक्ष्य": 7283,
      "सृज": 7284,
      "दक्षिणा": 7285,
      "ततोऽ": 7286,
      "परमात्म": 7287,
      "अमरः": 7288,
      "40": 7289,
      "##चने": 7290,
      "##चतु": 7291,
      "##ादिः": 7292,
      "संबं": 7293,
      "राज्ञः": 7294,
      "सम्भाष": 7295,
      "केचन": 7296,
      "कामं": 7297,
      "##गृहे": 7298,
      "पातु": 7299,
      "##सृ": 7300,
      "##ताप": 7301,
      "दुग्ध": 7302,
      "भार्या": 7303,
      "दिवा": 7304,
      "कदाचि": 7305,
      "धया": 7306,
      "४७": 7307,
      "##सुर": 7308,
      "प्रात": 7309,
      "##न्ता": 7310,
      "##ादु": 7311,
      "##ादे": 7312,
      "व्यु": 7313,
      "एतानि": 7314,
      "##परम्": 7315,
      "ch": 7316,
      "फि": 7317,
      "वर्ज": 7318,
      "##॒व": 7319,
      "तेना": 7320,
      "तदनु": 7321,
      "दक्षिणे": 7322,
      "विष्णु": 7323,
      "वह्नि": 7324,
      "जाल": 7325,
      "बै": 7326,
      "यस्मा": 7327,
      "४४": 7328,
      "##ध्वं": 7329,
      "##प्रदेश": 7330,
      "स्वर": 7331,
      "इत्यस्मात्": 7332,
      "##ङ्गं": 7333,
      "##शिया": 7334,
      "##हारे": 7335,
      "वय्कः": 7336,
      "गता": 7337,
      "नमो": 7338,
      "##कर्ण": 7339,
      "##ter": 7340,
      "##र्म्": 7341,
      "दृष्टं": 7342,
      "##देवं": 7343,
      "भागः": 7344,
      "प्रविश्य": 7345,
      "षष्ठी": 7346,
      "##लिक": 7347,
      "##ादिकं": 7348,
      "##प्रमाण": 7349,
      "be": 7350,
      "कक्ष": 7351,
      "गिर": 7352,
      "च्व": 7353,
      "४२": 7354,
      "##ोत्स": 7355,
      "##दन": 7356,
      "##लया": 7357,
      "माध्य": 7358,
      "सूर": 7359,
      "अवदत्": 7360,
      "इत्थं": 7361,
      "अस्या": 7362,
      "घो": 7363,
      "दानं": 7364,
      "##पते": 7365,
      "##विश्व": 7366,
      "##रात": 7367,
      "प्रजाः": 7368,
      "##ीव्र": 7369,
      "अवश्यं": 7370,
      "तक": 7371,
      "०५": 7372,
      "##यतः": 7373,
      "##ादिना": 7374,
      "अधिकं": 7375,
      "वर्त्त": 7376,
      "दूष": 7377,
      "answer": 7378,
      "आधु": 7379,
      "यां": 7380,
      "##न्दा": 7381,
      "निषेध": 7382,
      "स्थितम्": 7383,
      "अतीत": 7384,
      "29": 7385,
      "भोः": 7386,
      "यी": 7387,
      "##स्यं": 7388,
      "सर्वभू": 7389,
      "##ास्व": 7390,
      "अपरि": 7391,
      "प्राप्यते": 7392,
      "जीवति": 7393,
      "पुरुषं": 7394,
      "भुवि": 7395,
      "द्रष्टुं": 7396,
      "अण्": 7397,
      "##विरोध": 7398,
      "व्याघ्र": 7399,
      "##सक": 7400,
      "##प्रती": 7401,
      "##ेशे": 7402,
      "##श्वर": 7403,
      "अस्माभिः": 7404,
      "##ादेशः": 7405,
      "गुरुः": 7406,
      "##मयं": 7407,
      "##ow": 7408,
      "श्राद्ध": 7409,
      "##हूर्त": 7410,
      "आन": 7411,
      "वेति": 7412,
      "##सत्त्व": 7413,
      "##ङि": 7414,
      "संज्ञ": 7415,
      "##कारी": 7416,
      "सहाय": 7417,
      "##कम्ः": 7418,
      "##भेदः": 7419,
      "इत्युक्ते": 7420,
      "हिंसा": 7421,
      "खु": 7422,
      "##भयं": 7423,
      "##गल": 7424,
      "##oo": 7425,
      "प्रकारेण": 7426,
      "##ावा": 7427,
      "##मान्त": 7428,
      "पुत्रं": 7429,
      "असम": 7430,
      "आदेश": 7431,
      "कोप": 7432,
      "चु": 7433,
      "चर्च": 7434,
      "मति": 7435,
      "लॊ": 7436,
      "तस्माद्": 7437,
      "ईश्वर": 7438,
      "next": 7439,
      "##हीन": 7440,
      "साथ": 7441,
      "भागे": 7442,
      "##ोत्तर": 7443,
      "05": 7444,
      "४९": 7445,
      "##केत": 7446,
      "##गेन": 7447,
      "##त्यु": 7448,
      "##र्मु": 7449,
      "##्येते": 7450,
      "##ब्ब": 7451,
      "कालेन": 7452,
      "फलकम्ः": 7453,
      "विहाय": 7454,
      "परस्परम्": 7455,
      "07": 7456,
      "पक्षि": 7457,
      "रच": 7458,
      "##द्वा": 7459,
      "संग": 7460,
      "शिख": 7461,
      "मिश्र": 7462,
      "सिध्यति": 7463,
      "कपि": 7464,
      "चतुर": 7465,
      "टे": 7466,
      "लज्ज": 7467,
      "४८": 7468,
      "##पन": 7469,
      "संविधान": 7470,
      "अनुप": 7471,
      "गुह": 7472,
      "दृष्टि": 7473,
      "##षिद्ध": 7474,
      "##निर्देश": 7475,
      "साय": 7476,
      "##पौ": 7477,
      "विवाद": 7478,
      "भवन": 7479,
      "32": 7480,
      "इती": 7481,
      "विचित्र": 7482,
      "##स्ये": 7483,
      "##श्चित्त": 7484,
      "पृच्छ": 7485,
      "##पुस्त": 7486,
      "##वृत्तिः": 7487,
      "नरक": 7488,
      "=>": 7489,
      "आम": 7490,
      "##ितैः": 7491,
      "सहसा": 7492,
      "##भेदेन": 7493,
      "##धिकारिक": 7494,
      "tr": 7495,
      "वरं": 7496,
      "##सान": 7497,
      "##रत्": 7498,
      "भवः": 7499,
      "बहूनि": 7500,
      "यात्र": 7501,
      "स्पर्ध": 7502,
      "गे": 7503,
      "जक": 7504,
      "५२": 7505,
      "##पचार": 7506,
      "##शरी": 7507,
      "##df": 7508,
      "प्रदू": 7509,
      "स्वः": 7510,
      "मही": 7511,
      "##भाज": 7512,
      "साधन": 7513,
      "##स्पर्श": 7514,
      "##द्भु": 7515,
      "तात्": 7516,
      "##मृ": 7517,
      "##ear": 7518,
      "##विधिः": 7519,
      "प्रचल": 7520,
      "त्यक्त्वा": 7521,
      "३८": 7522,
      "##ैति": 7523,
      "##ावपि": 7524,
      "##ज्ञे": 7525,
      "##भावं": 7526,
      "व्रत": 7527,
      "वाञ्छ": 7528,
      "##ान्नि": 7529,
      "##व्यक्ति": 7530,
      "स्तम्भ": 7531,
      ".)": 7532,
      "##ीर्ण": 7533,
      "कथयति": 7534,
      "##्यायां": 7535,
      "पितुः": 7536,
      "कार्याणि": 7537,
      "साहाय": 7538,
      "भोजन": 7539,
      "क्रमशः": 7540,
      "नागरिक": 7541,
      "##ार्य": 7542,
      "##लाई": 7543,
      "##यमपि": 7544,
      "पै": 7545,
      "##ापेक्ष": 7546,
      "महत्त्व": 7547,
      "श्रोत": 7548,
      "व्याकरण": 7549,
      "##पदम्": 7550,
      "##प्रत्यय": 7551,
      "याम": 7552,
      "वक्ष्य": 7553,
      "४६": 7554,
      "##वन्त": 7555,
      "##्रो": 7556,
      "प्रयोक्त": 7557,
      "##द्वित": 7558,
      "तत्सर्व": 7559,
      "नामानि": 7560,
      "कर्तव्यः": 7561,
      "\"'": 7562,
      "##कर्मा": 7563,
      "##ेना": 7564,
      "व्यो": 7565,
      "असौ": 7566,
      "चकार": 7567,
      "नास": 7568,
      "मरणं": 7569,
      "याद": 7570,
      "सप": 7571,
      "##कीय": 7572,
      "##दैव": 7573,
      "निष": 7574,
      "##ब्दं": 7575,
      "क्षणं": 7576,
      "भूम": 7577,
      "अवश्य": 7578,
      "फलम्": 7579,
      "स्युः": 7580,
      "धेन": 7581,
      "प्": 7582,
      "पतिः": 7583,
      "रू": 7584,
      "५१": 7585,
      "##ादिक": 7586,
      "##लभ्यते": 7587,
      "तवा": 7588,
      "नय": 7589,
      "##जायते": 7590,
      "##ik": 7591,
      "##os": 7592,
      "विभिन्न": 7593,
      "उपाय": 7594,
      "##प्ता": 7595,
      "निष्क": 7596,
      "नाना": 7597,
      "भुक्त": 7598,
      "##प्रवेश": 7599,
      "सुत": 7600,
      "##च्छत्": 7601,
      "सिद्धि": 7602,
      "##पत्तिः": 7603,
      "घन": 7604,
      "स्थितिः": 7605,
      "उल्": 7606,
      "##एं": 7607,
      "##ज्ञो": 7608,
      "##स्थो": 7609,
      "श्रीम": 7610,
      "प्राप्तवान्": 7611,
      "श्रुत": 7612,
      "निर्णय": 7613,
      "अर": 7614,
      "अन्ध": 7615,
      "##ोन्न": 7616,
      "स्थिते": 7617,
      "धर्मो": 7618,
      "जानी": 7619,
      "##विशेषः": 7620,
      "##कथं": 7621,
      "##ेवा": 7622,
      "संभवति": 7623,
      "भवतां": 7624,
      "##र्मः": 7625,
      "कुमार": 7626,
      "इत्याद": 7627,
      "दृश्यम्": 7628,
      "जिला": 7629,
      "सचिव": 7630,
      "वार्षिक": 7631,
      "##un": 7632,
      "##विरो": 7633,
      "##ज्ञां": 7634,
      "##ाणं": 7635,
      "त्वम": 7636,
      "##व्यक्त": 7637,
      "##श्रम": 7638,
      "तर्क": 7639,
      "पूजां": 7640,
      "सुरक्षा": 7641,
      "उच्चार": 7642,
      "##विंशति": 7643,
      "अधोलिखितानि": 7644,
      "##ाभ्यां": 7645,
      "##im": 7646,
      "##फ़": 7647,
      "##्यामः": 7648,
      "##प्रे": 7649,
      "##नीयः": 7650,
      "अप्": 7651,
      "दिशि": 7652,
      "##स्रो": 7653,
      "पीठ": 7654,
      "व्यवस्थाप": 7655,
      "सामान्यतः": 7656,
      "धार्म": 7657,
      "35": 7658,
      "गाव": 7659,
      "मदु": 7660,
      "रण": 7661,
      "३९": 7662,
      "अधः": 7663,
      "##योगे": 7664,
      "त्रै": 7665,
      "उक्तः": 7666,
      "##ब्रह्म": 7667,
      "pdf": 7668,
      "णि": 7669,
      "मेदि": 7670,
      "परिसन्ध": 7671,
      "##ेन्द्र": 7672,
      "##दम": 7673,
      "##ak": 7674,
      "##नाथ": 7675,
      "माध": 7676,
      "##ग्री": 7677,
      "##ess": 7678,
      "तद्यथा": 7679,
      "यशः": 7680,
      "##्ण": 7681,
      "##व्याः": 7682,
      "कारयेत्": 7683,
      "उत्तरा": 7684,
      "नगरं": 7685,
      "##av": 7686,
      "##गर": 7687,
      "##लक": 7688,
      "##स्तान": 7689,
      "परिष": 7690,
      "जनानां": 7691,
      "रूपम्": 7692,
      "दर्शन": 7693,
      "क्षेत्रं": 7694,
      "पुस्तक": 7695,
      "एस्": 7696,
      "##मत्": 7697,
      "##त्य्": 7698,
      "अन्यः": 7699,
      "प्रोक्ता": 7700,
      "##सहस्राणि": 7701,
      "##०१": 7702,
      "##कार्या": 7703,
      "सूत्रे": 7704,
      "दिवि": 7705,
      "अध्यक्ष": 7706,
      "दिनानि": 7707,
      "पुनर्निर्": 7708,
      "आधिकारिक": 7709,
      "गङ्ग": 7710,
      "ची": 7711,
      "पय": 7712,
      "##सन्": 7713,
      "##ज्यं": 7714,
      "##वति": 7715,
      "##चितं": 7716,
      "##विस्त": 7717,
      "अनन्तरं": 7718,
      "##न्द्रि": 7719,
      "हिमा": 7720,
      "व्यति": 7721,
      "उत्तरं": 7722,
      "##दीनां": 7723,
      "पुरुषो": 7724,
      "प्रेर": 7725,
      "##घव": 7726,
      "प्रकृतिः": 7727,
      "संयु": 7728,
      "##णियां": 7729,
      "धर्मं": 7730,
      "धातुः": 7731,
      "अस्मान्": 7732,
      "रणे": 7733,
      "हस्ते": 7734,
      "##ff": 7735,
      "निद्र": 7736,
      "कृत्": 7737,
      "मानवः": 7738,
      "दत्त्वा": 7739,
      "एता": 7740,
      "सख": 7741,
      "सेन": 7742,
      "##सत्त": 7743,
      "##डे": 7744,
      "##च्छया": 7745,
      "पात्र": 7746,
      "पुनरपि": 7747,
      "पद्ध": 7748,
      "##तश्च": 7749,
      "##पास": 7750,
      "##बलः": 7751,
      "##लानि": 7752,
      "##ृत्व": 7753,
      "##ेतुं": 7754,
      "स्मरण": 7755,
      "पठति": 7756,
      "नूतन": 7757,
      "स्फुट": 7758,
      "post": 7759,
      "अन्ते": 7760,
      "जै": 7761,
      "भोक्त": 7762,
      "##यमा": 7763,
      "##बध्यते": 7764,
      "##गृहं": 7765,
      "विदु": 7766,
      "अथे": 7767,
      "सामर्थ": 7768,
      "पृष्ठं": 7769,
      "##क्रम्य": 7770,
      "श्लो": 7771,
      "##नीयम्": 7772,
      "arch": 7773,
      "बद्ध": 7774,
      "##टन": 7775,
      "##रूपा": 7776,
      "##ृत्ति": 7777,
      "अवस्था": 7778,
      "संस्कार": 7779,
      "मासस्य": 7780,
      "आधुनिक": 7781,
      "तपः": 7782,
      "६०": 7783,
      "##ान्ये": 7784,
      "##नाति": 7785,
      "संरक्षण": 7786,
      "नापि": 7787,
      "विदुः": 7788,
      "लक्ष्यते": 7789,
      "जनार्द": 7790,
      "मानुष": 7791,
      "वन्द": 7792,
      "४३": 7793,
      "##परः": 7794,
      "##वश": 7795,
      "##लाप": 7796,
      "##मानाः": 7797,
      "वैद": 7798,
      "##मेवं": 7799,
      "दृश्यन्ते": 7800,
      "31": 7801,
      "नपुं": 7802,
      "मई": 7803,
      "##ps": 7804,
      "##ैकं": 7805,
      "##च्व": 7806,
      "##तेति": 7807,
      "##ङ्गः": 7808,
      "स्तः": 7809,
      "लोकः": 7810,
      "प्रवक्ष्यामि": 7811,
      "प्राप्तं": 7812,
      "ततॊ": 7813,
      "##डः": 7814,
      "##ांसि": 7815,
      "##ष्प": 7816,
      "##क्षुः": 7817,
      "##ादः": 7818,
      "##स्थिते": 7819,
      "कुतो": 7820,
      "कोरो": 7821,
      "१९७": 7822,
      "प्रवृत्ति": 7823,
      "संबंधनं": 7824,
      "अस्त": 7825,
      "दह": 7826,
      "##ानाः": 7827,
      "इत्ये": 7828,
      "महात्म": 7829,
      "पूर्वेण": 7830,
      "##श्वरः": 7831,
      "##दर्शन": 7832,
      "इच्छामि": 7833,
      "प्रयच्छ": 7834,
      "टिप्पणियां": 7835,
      "क्वा": 7836,
      "वया": 7837,
      "५४": 7838,
      "##िनो": 7839,
      "##ाधिक": 7840,
      "##र्षे": 7841,
      "##भूतः": 7842,
      "योगदान": 7843,
      "##ine": 7844,
      "पुरतः": 7845,
      "समर्पयामि": 7846,
      "##िया": 7847,
      "##धर्मा": 7848,
      "##स्न": 7849,
      "तत्रापि": 7850,
      "##श्रय": 7851,
      "साधारण": 7852,
      "ध्यानं": 7853,
      "ब्राह्मण": 7854,
      "दीयते": 7855,
      "नेति": 7856,
      "सनात": 7857,
      "##ac": 7858,
      "समस्या": 7859,
      "##ष्ठं": 7860,
      "यथाशक्ति": 7861,
      "वेत्ति": 7862,
      "##र्थाः": 7863,
      "नरा": 7864,
      "माह": 7865,
      "यूप": 7866,
      "##शू": 7867,
      "##थिव": 7868,
      "##॒त": 7869,
      "संवेद": 7870,
      "##निष": 7871,
      "--\"": 7872,
      "भूय": 7873,
      "पुराण": 7874,
      "##व्यवस्था": 7875,
      "धृत": 7876,
      "##ष्क": 7877,
      "अन्या": 7878,
      "##ग्रीव": 7879,
      "##र्यः": 7880,
      "##र्जन": 7881,
      "कालो": 7882,
      "पुनर्व": 7883,
      "घटना": 7884,
      "जर": 7885,
      "५७": 7886,
      "##पत्य": 7887,
      "##सन्ति": 7888,
      "प्रम": 7889,
      "##ालय": 7890,
      "श्रृण": 7891,
      "##कृतिक": 7892,
      "वीर्य": 7893,
      "सीता": 7894,
      "):": 7895,
      "##ैर्व": 7896,
      "वाप": 7897,
      "प्राप्तः": 7898,
      "आन्दो": 7899,
      "दक्ष": 7900,
      "##ज्व": 7901,
      "##मात्रे": 7902,
      "##क्ता": 7903,
      "पुष्ट": 7904,
      "एकम्": 7905,
      "जाने": 7906,
      "द्": 7907,
      "पाणि": 7908,
      "ष्": 7909,
      "वाक्": 7910,
      "##संयु": 7911,
      "यात्रा": 7912,
      "##मोह": 7913,
      "##शुभ": 7914,
      "##मेतत्": 7915,
      "हां": 7916,
      "##प्रश्": 7917,
      "##ोऽस्मि": 7918,
      "##भ्युप": 7919,
      "तदाह": 7920,
      "2021": 7921,
      "or": 7922,
      "कष्ट": 7923,
      "##th": 7924,
      "##विद्य": 7925,
      "संभाव": 7926,
      "वैज्ञान": 7927,
      "##चारि": 7928,
      "प्रसन्न": 7929,
      "प्रभुः": 7930,
      "द्वितीयः": 7931,
      "अर्थात्": 7932,
      "08": 7933,
      "यति": 7934,
      "लाल": 7935,
      "प्रमा": 7936,
      "निपा": 7937,
      "##संयुक्त": 7938,
      "भारतं": 7939,
      "सर्वभूतेषु": 7940,
      "ईदृश": 7941,
      "कष": 7942,
      "री": 7943,
      "सत्त": 7944,
      "हितं": 7945,
      "##ाश": 7946,
      "##चल": 7947,
      "गृह्यते": 7948,
      "##ives": 7949,
      "विवेक": 7950,
      "प्रदत्त": 7951,
      "संह": 7952,
      "##मानेन": 7953,
      "केनापि": 7954,
      "कर्तुम्": 7955,
      "##धाति": 7956,
      "##बुद्धि": 7957,
      "अभवन्": 7958,
      "आपः": 7959,
      "तयो": 7960,
      "##दाः": 7961,
      "##स्तेषां": 7962,
      "भवेद": 7963,
      "##रिव": 7964,
      "##लाभ": 7965,
      "केर": 7966,
      "तेनैव": 7967,
      "वृद्धिः": 7968,
      "ver": 7969,
      "आसी": 7970,
      "रह": 7971,
      "##नर": 7972,
      "##ंग": 7973,
      "##चनम्": 7974,
      "##ण्या": 7975,
      "##विरुद्ध": 7976,
      "वर्षस्य": 7977,
      "शिर": 7978,
      "जीवितं": 7979,
      ",\"": 7980,
      "सञ्ज": 7981,
      "##ऽव": 7982,
      "##िकायां": 7983,
      "संकल्प": 7984,
      "##ालो": 7985,
      "##रोप": 7986,
      "देवदत्त": 7987,
      "##व्यो": 7988,
      "मनुः": 7989,
      "##विक्र": 7990,
      "यान्ति": 7991,
      "वध": 7992,
      "##साव": 7993,
      "##णाय": 7994,
      "##्यत": 7995,
      "##ानन्तरं": 7996,
      "##माग": 7997,
      "##प्रथ": 7998,
      "पूर्वे": 7999,
      "##भागः": 8000,
      "तवं": 8001,
      "##िकायाः": 8002,
      "विधाय": 8003,
      "##खिल": 8004,
      "नूनं": 8005,
      "सैन्य": 8006,
      "कान्त": 8007,
      "यस्मात्": 8008,
      "हल": 8009,
      "##परे": 8010,
      "##यन्त्र": 8011,
      "##कान्": 8012,
      "##धर": 8013,
      "##क्षणे": 8014,
      "उत्कृष्ट": 8015,
      "कौश": 8016,
      "द्वितीये": 8017,
      "कूप": 8018,
      "##बे": 8019,
      "##थैव": 8020,
      "##नुते": 8021,
      "##साम्": 8022,
      "युज्यते": 8023,
      "विस्तार": 8024,
      "##राज्यस्य": 8025,
      "sh": 8026,
      "८०": 8027,
      "देवताः": 8028,
      "नाभि": 8029,
      "अपरा": 8030,
      "विशेषेण": 8031,
      "द्रो": 8032,
      "श्रुतिः": 8033,
      "महोदय": 8034,
      "गज": 8035,
      "वंश": 8036,
      "##त्तः": 8037,
      "समग्र": 8038,
      "तुम": 8039,
      "##चारः": 8040,
      "लोकानां": 8041,
      "उद्योग": 8042,
      "जो": 8043,
      "ब्रि": 8044,
      "हन्ति": 8045,
      "##ीकृत": 8046,
      "##न्यथा": 8047,
      "अपर": 8048,
      "द्रु": 8049,
      "१००": 8050,
      "प्रभु": 8051,
      "चित": 8052,
      "तन्न": 8053,
      "फ़": 8054,
      "बौ": 8055,
      "##ऽनु": 8056,
      "वाणि": 8057,
      "##स्वभाव": 8058,
      "दर्शनं": 8059,
      "प्रियं": 8060,
      "विपर्य": 8061,
      "##कर्षण": 8062,
      "##टुम्ब": 8063,
      "पोष": 8064,
      "५६": 8065,
      "##यैव": 8066,
      "##युद्ध": 8067,
      "##श्त": 8068,
      "श्राव": 8069,
      "देशं": 8070,
      "पुत्रो": 8071,
      "नूत": 8072,
      "बीज": 8073,
      "पार्श्व": 8074,
      "ऋतु": 8075,
      "चैत": 8076,
      "##पान": 8077,
      "##सभ": 8078,
      "##ांश्च": 8079,
      "##ाद्या": 8080,
      "##दात्": 8081,
      "परिण": 8082,
      "अवस": 8083,
      "केचि": 8084,
      "कर्तृ": 8085,
      "स्मृतम्": 8086,
      "स्यादिति": 8087,
      "अधिकृत": 8088,
      "प्रभात": 8089,
      "अंश": 8090,
      "आवि": 8091,
      "छाया": 8092,
      "##दय": 8093,
      "##ीपे": 8094,
      "विकार": 8095,
      "##त्यः": 8096,
      "तुभ्यं": 8097,
      "##र्षि": 8098,
      "लोकं": 8099,
      "सुखम्": 8100,
      "##सिद्धि": 8101,
      "पदार्थः": 8102,
      "क्लेश": 8103,
      "वेतन": 8104,
      "धाःसा": 8105,
      "ap": 8106,
      "तीव्र": 8107,
      "वक्ष्यामि": 8108,
      "ह्री": 8109,
      "##ङ्गे": 8110,
      "क्लि": 8111,
      "अतिरिक्त": 8112,
      "सम्बन्धि": 8113,
      "दत्तं": 8114,
      "स्वास्थ्य": 8115,
      "कवि": 8116,
      "कम्प": 8117,
      "##ान्यं": 8118,
      "प्रक्रिया": 8119,
      "परत": 8120,
      "##निर्ण": 8121,
      "त्वर": 8122,
      "2017": 8123,
      "##वचनम्": 8124,
      "गृह्ण": 8125,
      "xxx": 8126,
      "##ष्यं": 8127,
      "##सित": 8128,
      "##भक्ति": 8129,
      "##आर": 8130,
      "##ारिद्र": 8131,
      "इन्": 8132,
      "कानि": 8133,
      "ध्ये": 8134,
      "भृ": 8135,
      "##_1": 8136,
      "##भिधीयते": 8137,
      "राशि": 8138,
      "स्वाभाव": 8139,
      "जगति": 8140,
      "अत्यन्त": 8141,
      "##ानुसारं": 8142,
      "ऋत": 8143,
      "दौ": 8144,
      "याना": 8145,
      "##um": 8146,
      "##क्तः": 8147,
      "##त्तं": 8148,
      "##प्राण": 8149,
      "सुभाष": 8150,
      "पूर्वा": 8151,
      "##....": 8152,
      "पिण्ड": 8153,
      "विद्यमान": 8154,
      "##बिम्ब": 8155,
      "कप": 8156,
      "##ार्थः": 8157,
      "##स्यो": 8158,
      "पराम": 8159,
      "स्वि": 8160,
      "##योग्य": 8161,
      "पूर्वम्": 8162,
      "सप्ताह": 8163,
      "पदम्": 8164,
      "भक्त्या": 8165,
      "छे": 8166,
      "तासां": 8167,
      "रति": 8168,
      "लव": 8169,
      "५९": 8170,
      "##कथा": 8171,
      "##च्यु": 8172,
      "प्रारम्भ": 8173,
      "##स्येति": 8174,
      "भवन्तः": 8175,
      "##क्रमेण": 8176,
      "गृहीत": 8177,
      "निवार": 8178,
      "##मन्त्रि": 8179,
      "चित्तं": 8180,
      "06": 8181,
      "आयुः": 8182,
      "चैक": 8183,
      "६५": 8184,
      "##र्मध्ये": 8185,
      "पूज्य": 8186,
      "##ीयन्ते": 8187,
      "अपना": 8188,
      "##करणम्": 8189,
      "दृष्टः": 8190,
      "स्पृश": 8191,
      "विधिना": 8192,
      "विद्वान्": 8193,
      "चाप": 8194,
      "चीन": 8195,
      "ट्र": 8196,
      "##भोज": 8197,
      "##न्तरम्": 8198,
      "##श्छ": 8199,
      "सूर्यः": 8200,
      "युक्तः": 8201,
      "pre": 8202,
      "मध्या": 8203,
      "मखु": 8204,
      "रवि": 8205,
      "७०": 8206,
      "##मना": 8207,
      "##थु": 8208,
      "##प्रकार": 8209,
      "एवमुक्त": 8210,
      "समव": 8211,
      "समृद्ध": 8212,
      "मुहूर्त": 8213,
      "वर्तन्ते": 8214,
      "##सें": 8215,
      "##ञ्जन": 8216,
      "##दृष्ट्या": 8217,
      "प्रविष्ट": 8218,
      "अद्यापि": 8219,
      "आम्": 8220,
      "##मते": 8221,
      "सर्वलोक": 8222,
      "##रोऽ": 8223,
      "##पराय": 8224,
      "युवा": 8225,
      "प्रयत्नेन": 8226,
      "तन्नि": 8227,
      "धनु": 8228,
      "स॒": 8229,
      "##एम": 8230,
      "विंश": 8231,
      "निर्वि": 8232,
      "##रोग": 8233,
      "देवदेव": 8234,
      "##साध्य": 8235,
      "##मोद": 8236,
      "पश्यन्ति": 8237,
      "उभौ": 8238,
      "अध्याप": 8239,
      "##गोच": 8240,
      "##चो": 8241,
      "##यामः": 8242,
      "##भाषायां": 8243,
      "##ग्रहणम्": 8244,
      "##परिवर्त": 8245,
      "नरकं": 8246,
      "प्रार्थना": 8247,
      "प्रयत्नतः": 8248,
      "लौक": 8249,
      "##पत्रं": 8250,
      "##कलं": 8251,
      "##आई": 8252,
      "प्रास": 8253,
      "यथाविधि": 8254,
      "भूयः": 8255,
      "१९८": 8256,
      "वृत्तिः": 8257,
      "##नत": 8258,
      "##धिं": 8259,
      "##धुना": 8260,
      "##र्भवति": 8261,
      "##स्तां": 8262,
      "##ायो": 8263,
      "##रूपः": 8264,
      "##पीसी": 8265,
      "##गम्यते": 8266,
      "भाति": 8267,
      "च्छ": 8268,
      "एशिया": 8269,
      "सर्प": 8270,
      "##क्षिक": 8271,
      "वाज": 8272,
      "##र्ता": 8273,
      "##नुयात्": 8274,
      "##केन्द्र": 8275,
      "##शब्दस्य": 8276,
      "योगी": 8277,
      "चतुर्दश": 8278,
      "जातं": 8279,
      "##मित्यर्थः": 8280,
      "हरेः": 8281,
      "##बो": 8282,
      "##मासीत्": 8283,
      "परस्मै": 8284,
      "१९४": 8285,
      "##मुखं": 8286,
      "शरीरे": 8287,
      "राज्यस्य": 8288,
      "मुखं": 8289,
      "अङ्क": 8290,
      "##दन्त": 8291,
      "##लिः": 8292,
      "##श्चापि": 8293,
      "##लोकं": 8294,
      "रक्षति": 8295,
      "आं": 8296,
      "सभा": 8297,
      "हव": 8298,
      "##ाक्ष": 8299,
      "##क्रियते": 8300,
      "भविष्यन्ति": 8301,
      "त्रयः": 8302,
      "उपयोगः": 8303,
      "##ोत्तम": 8304,
      "मार्गे": 8305,
      "##ारोह": 8306,
      "तनु": 8307,
      "सद्": 8308,
      "##तॊ": 8309,
      "##चन्द्र": 8310,
      "##ानीं": 8311,
      "##विशिष्ट": 8312,
      "पुरु": 8313,
      "##कृतेः": 8314,
      "##णार्थं": 8315,
      "लोका": 8316,
      "पुनरा": 8317,
      "बुद्धिः": 8318,
      "सम्बन्धः": 8319,
      "सन्दे": 8320,
      "##ुल": 8321,
      "##ोट": 8322,
      "##सदृश": 8323,
      "##भविष्य": 8324,
      "##if": 8325,
      "सर्वम": 8326,
      "##श्चर्य": 8327,
      "किंचित्": 8328,
      "##स्वं": 8329,
      "##दीप": 8330,
      "चतुर्": 8331,
      "##हरति": 8332,
      "प्रयोजनं": 8333,
      "नाराय": 8334,
      "यौव": 8335,
      "खि": 8336,
      "तेषाम्": 8337,
      "पण्ड": 8338,
      "##ाइ": 8339,
      "##तत्त्व": 8340,
      "##_अ": 8341,
      "पूँ": 8342,
      "संशय": 8343,
      "##स्थानम्": 8344,
      "##वर्षे": 8345,
      "आरब्ध": 8346,
      "archives": 8347,
      "वरा": 8348,
      "##तरा": 8349,
      "##सय": 8350,
      "##दण्ड": 8351,
      "##लब्": 8352,
      "##प्रयोज": 8353,
      "त्वद": 8354,
      "प्राप्ता": 8355,
      "पुरुषस्य": 8356,
      "स्वीकृत": 8357,
      "राजनि०": 8358,
      "मेष": 8359,
      "याग": 8360,
      "सत्व": 8361,
      "##कान": 8362,
      "##न्तीति": 8363,
      "##भिधान": 8364,
      "##रणा": 8365,
      "तस्यैव": 8366,
      "कामः": 8367,
      "राष्ट्रे": 8368,
      "इत्येतत्": 8369,
      "क्य": 8370,
      "तत्व": 8371,
      "##र्थस्य": 8372,
      "द्वन्द": 8373,
      "ज्वल": 8374,
      "पुण्यं": 8375,
      "युष्माकं": 8376,
      "ad": 8377,
      "तान": 8378,
      "नक्षत्र": 8379,
      "सोऽपि": 8380,
      "७५": 8381,
      "##गर्भ": 8382,
      "##ेशं": 8383,
      "##न्दः": 8384,
      "##ोऽध्यायः": 8385,
      "कथम": 8386,
      "करिष्ये": 8387,
      "सम्बन्धी": 8388,
      "करणे": 8389,
      "प्या": 8390,
      "मतम्": 8391,
      "यव": 8392,
      "शनैः": 8393,
      "सन्न": 8394,
      "##रपि": 8395,
      "##शिव": 8396,
      "##दित": 8397,
      "##्य्": 8398,
      "##ांस": 8399,
      "##ुर्य": 8400,
      "##सङ्ख्या": 8401,
      "अरे": 8402,
      "कण्ठ": 8403,
      "सफल": 8404,
      "##क्यं": 8405,
      "##ूणां": 8406,
      "प्रदा": 8407,
      "##येण": 8408,
      "##योगं": 8409,
      "नेपाः": 8410,
      "जुल": 8411,
      "भूतानि": 8412,
      "पुनर्निर्दिष्टम्": 8413,
      "आर्य": 8414,
      "यया": 8415,
      "##ूय": 8416,
      "##भिश्च": 8417,
      "##सेना": 8418,
      "जगतः": 8419,
      "तर्प": 8420,
      "नील": 8421,
      "रचना": 8422,
      "प्रसू": 8423,
      "सर्वम्": 8424,
      "सर्वनाम": 8425,
      "##ज्ञाय": 8426,
      "##मेल": 8427,
      "शिक्षण": 8428,
      "##सूचना": 8429,
      "(?": 8430,
      "अच्": 8431,
      "सफ": 8432,
      "##न्द्रिया": 8433,
      "जनसंख्या": 8434,
      "##दीर्घ": 8435,
      "दिव्यं": 8436,
      "##क्रमम्": 8437,
      "##कर्तुं": 8438,
      "'।": 8439,
      "डो": 8440,
      "##ङ्का": 8441,
      "राजधान": 8442,
      "##ध्यक्ष": 8443,
      "##श्रव": 8444,
      "##धीः": 8445,
      "चिन्ता": 8446,
      "##पचारिक": 8447,
      "अभाव": 8448,
      "चाह": 8449,
      "लक्ष्म": 8450,
      "शाल": 8451,
      "##िम": 8452,
      "##तमा": 8453,
      "##प्या": 8454,
      "##थवा": 8455,
      "##ऽप्य": 8456,
      "स्ट": 8457,
      "महाप": 8458,
      "##योगेन": 8459,
      "स्याद्": 8460,
      "##देवता": 8461,
      "विवक्ष": 8462,
      "पुस्तकं": 8463,
      "अर्जु": 8464,
      "आशी": 8465,
      "एन": 8466,
      "मल": 8467,
      "##निर्व": 8468,
      "##योज्य": 8469,
      "स्वामी": 8470,
      "स्त्रिया": 8471,
      "##दर्शनं": 8472,
      "100": 8473,
      "इच्छा": 8474,
      "ex": 8475,
      "माग": 8476,
      "रसो": 8477,
      "विधा": 8478,
      "एवेति": 8479,
      "किंचि": 8480,
      "नामा": 8481,
      "##पर्या": 8482,
      "प्राप्तुं": 8483,
      "स्वार्थ": 8484,
      "##सम्पाद": 8485,
      "युक्तं": 8486,
      "इदानीम्": 8487,
      "en": 8488,
      "तच्छ": 8489,
      "वणि": 8490,
      "##स्तत्": 8491,
      "स्वल्प": 8492,
      "इत्युप": 8493,
      "##स्थितम्": 8494,
      "परिह": 8495,
      "अप्वः": 8496,
      "##भूते": 8497,
      "दुगु": 8498,
      "##स्मान्न": 8499,
      "अन्यत्": 8500,
      "१९५": 8501,
      "प्रिया": 8502,
      "आवश्यकता": 8503,
      "33": 8504,
      "मेन": 8505,
      "सलि": 8506,
      "५३": 8507,
      "##बहु": 8508,
      "प्राव": 8509,
      "विभाव": 8510,
      "##क्ट": 8511,
      "##भूष": 8512,
      "##सम्म": 8513,
      "मूलं": 8514,
      "##पत्तेः": 8515,
      "निर्या": 8516,
      "पार्व": 8517,
      "##पुरुषः": 8518,
      "नन्व": 8519,
      "रघ": 8520,
      "रसाय": 8521,
      "सत्या": 8522,
      "##शब्दा": 8523,
      "##ल्म": 8524,
      "कर्तव्या": 8525,
      "पदस्य": 8526,
      "विधिव": 8527,
      "विदेशी": 8528,
      "एक्स": 8529,
      "##सन्त": 8530,
      "##यिता": 8531,
      "##कला": 8532,
      "गृहम्": 8533,
      "उत्तरम्": 8534,
      "चेष्ट": 8535,
      "नवीन": 8536,
      "तमः": 8537,
      "पीत": 8538,
      "सती": 8539,
      "##मयः": 8540,
      "##पाय": 8541,
      "स्वार्थे": 8542,
      "कश्चिद्": 8543,
      "##ासीत्": 8544,
      "आत्मानं": 8545,
      "षोडश": 8546,
      "तपो": 8547,
      "##यन्तु": 8548,
      "विराज": 8549,
      "##विति": 8550,
      "अन्यो": 8551,
      "चिरं": 8552,
      "##पीठ": 8553,
      "वेदा": 8554,
      "##जाति": 8555,
      "धातोः": 8556,
      "ङीष्": 8557,
      "दं": 8558,
      "शोच": 8559,
      "सादृश": 8560,
      "##ास्य": 8561,
      "##ेभ्यो": 8562,
      "##॒ः": 8563,
      "##घोष": 8564,
      "##प्रभाव": 8565,
      "##मुख्य": 8566,
      "प्राची": 8567,
      "##शब्दो": 8568,
      "१९६": 8569,
      "अस्यां": 8570,
      "ताल": 8571,
      "मोद": 8572,
      "##यसि": 8573,
      "##जायत": 8574,
      "विन्द": 8575,
      "##दिनं": 8576,
      "##मेध": 8577,
      "दृष्टा": 8578,
      "रुचि": 8579,
      "पृथिव्यां": 8580,
      "गीत": 8581,
      "द्यु": 8582,
      "ददौ": 8583,
      "फे": 8584,
      "श्वः": 8585,
      "##कट": 8586,
      "##id": 8587,
      "##त्रयं": 8588,
      "भवन्तु": 8589,
      "##ुक्तः": 8590,
      "##सिष्ठ": 8591,
      "मार्च": 8592,
      "निर्मा": 8593,
      "वसति": 8594,
      "निर्णयः": 8595,
      "##वम्": 8596,
      "##प्रसिद्ध": 8597,
      "एकस्मिन्": 8598,
      "कोटि": 8599,
      "चिद": 8600,
      "कानून": 8601,
      "38": 8602,
      "un": 8603,
      "सद्यः": 8604,
      "##नयः": 8605,
      "##क्रि": 8606,
      "##इति": 8607,
      "##्रं": 8608,
      "प्रार": 8609,
      "##ादा": 8610,
      "##ङ्गी": 8611,
      "##द्वय": 8612,
      "##द्रो": 8613,
      "सुखदुःख": 8614,
      "उदाहरणम्": 8615,
      "चिकित्स": 8616,
      "##एससी": 8617,
      "09": 8618,
      "सीत": 8619,
      "##सनं": 8620,
      "##यज्ञ": 8621,
      "##जार": 8622,
      "कुम": 8623,
      "##क्राम": 8624,
      "##मोक्ष": 8625,
      "मिति": 8626,
      "##कर्त्त": 8627,
      "प्रशिक्षु": 8628,
      "दद्यात्": 8629,
      "निम्न": 8630,
      "36": 8631,
      "मतः": 8632,
      "रौ": 8633,
      "##सङ्क": 8634,
      "##oc": 8635,
      "प्रभा": 8636,
      "##नार्थ": 8637,
      "##िकानां": 8638,
      "##ादयो": 8639,
      "##विवे": 8640,
      "परिकल्प": 8641,
      "##ाहः": 8642,
      "गृहाण": 8643,
      "##स्थाय": 8644,
      "##our": 8645,
      "यत्तु": 8646,
      "बहुव्री": 8647,
      "विपरीत": 8648,
      "अन्तरिक्ष": 8649,
      "दारिद्र": 8650,
      "यच्छ": 8651,
      "##पुः": 8652,
      "##ra": 8653,
      "##स्थिताः": 8654,
      "##गुणा": 8655,
      "श्रेय": 8656,
      "कुम्भ": 8657,
      "##द्वै": 8658,
      "कथयामि": 8659,
      "कृत्य": 8660,
      "##प्रतिषेध": 8661,
      "रेल": 8662,
      "जानन्ति": 8663,
      "##शक्तिः": 8664,
      "कल्याण": 8665,
      "अन्तिम": 8666,
      "आयोज": 8667,
      "यस्याः": 8668,
      "षड्": 8669,
      "ह्या": 8670,
      "##गतो": 8671,
      "स्वच्छ": 8672,
      "##ाती": 8673,
      "##ेतं": 8674,
      "##ोऽसि": 8675,
      "अधिकरण": 8676,
      "##र्थाय": 8677,
      "शिवः": 8678,
      "news": 8679,
      "##च्छेदः": 8680,
      "न्ह्यः": 8681,
      "##ाप्नोति": 8682,
      "दाय": 8683,
      "ददर्श": 8684,
      "##वित्त": 8685,
      "##श्चेति": 8686,
      "प्रतिषेधः": 8687,
      "##स्थिता": 8688,
      "चिर": 8689,
      "सप्तम": 8690,
      "कुर्वन्": 8691,
      "प्रिये": 8692,
      "पार्श्वे": 8693,
      "जन्": 8694,
      "शकु": 8695,
      "िव": 8696,
      "७१": 8697,
      "प्रप": 8698,
      "##तीव": 8699,
      "##ाह्": 8700,
      "##व्यति": 8701,
      "आत्मनः": 8702,
      "बौद्ध": 8703,
      "##ात्त": 8704,
      "##ंद": 8705,
      "##याणां": 8706,
      "##ादान": 8707,
      "##ाद्वि": 8708,
      "परति": 8709,
      "##ष्टु": 8710,
      "##प्रयत्": 8711,
      "सर्वदेव": 8712,
      "##राश": 8713,
      "##तीनां": 8714,
      "##ेतत्": 8715,
      "##नुप": 8716,
      "उपयु": 8717,
      "##द्रु": 8718,
      "स्थितं": 8719,
      "##व्यापार": 8720,
      "सङ्ग्र": 8721,
      "लोपः": 8722,
      "तत्सर्वं": 8723,
      "पित्त": 8724,
      "##यता": 8725,
      "##क्रिय": 8726,
      "##भृत": 8727,
      "##गव": 8728,
      "##संज्ञा": 8729,
      "##ाणाम": 8730,
      "श्रम": 8731,
      "नियमः": 8732,
      "कक्षा": 8733,
      "दार": 8734,
      "##र्स": 8735,
      "##क्ष्ण": 8736,
      "##त्र्त": 8737,
      "बहूनां": 8738,
      "दैत्य": 8739,
      "दर्प": 8740,
      "##पदेश": 8741,
      "##ub": 8742,
      "##द्देश": 8743,
      "द्वेष": 8744,
      "उपसर्ग": 8745,
      "द्विधा": 8746,
      "अस्माकम्": 8747,
      "##गृही": 8748,
      "##ant": 8749,
      "क्या": 8750,
      "##रतः": 8751,
      "##्यर्थं": 8752,
      "##ुरः": 8753,
      "##स्वि": 8754,
      "समुच्च": 8755,
      "विद्यालये": 8756,
      "प्रजायते": 8757,
      "##वर्षं": 8758,
      "शुभम्": 8759,
      "जातम्": 8760,
      "करणीयम्": 8761,
      "मृत्युः": 8762,
      "अयम": 8763,
      "इमां": 8764,
      "गृ": 8765,
      "धर": 8766,
      "यन्म": 8767,
      "६२": 8768,
      "##ारोप": 8769,
      "##क्षां": 8770,
      "परिकी": 8771,
      "##भवे": 8772,
      "अवकाश": 8773,
      "##ेयुः": 8774,
      "भवितव्यम्": 8775,
      "ह्रस्व": 8776,
      "यायेगु": 8777,
      "पलाय": 8778,
      "न्यूनतम": 8779,
      "year": 8780,
      "गताः": 8781,
      "जला": 8782,
      "##तस्तु": 8783,
      "##्यक": 8784,
      "राजानं": 8785,
      "##पदः": 8786,
      "##...": 8787,
      "##प्रतिष्ठ": 8788,
      "स्पेन": 8789,
      "जिज्ञ": 8790,
      "##घाट": 8791,
      "सङ्कल्प": 8792,
      "नष्ट": 8793,
      "०६": 8794,
      "##िणी": 8795,
      "##तिथ": 8796,
      "परितः": 8797,
      "संवि": 8798,
      "संस्थाप": 8799,
      "##नेः": 8800,
      "काश": 8801,
      "देहे": 8802,
      "##चनात्": 8803,
      "आवाह": 8804,
      "पुरात": 8805,
      "##मुक्तं": 8806,
      "##व्यवहार": 8807,
      "प्रातिपद": 8808,
      "एनं": 8809,
      "चन": 8810,
      "##हितम्": 8811,
      "##जाल": 8812,
      "##न्स": 8813,
      "##त्यन्त": 8814,
      "##दासी": 8815,
      "विश्वस्य": 8816,
      "दिवं": 8817,
      "वाच्यम्": 8818,
      "शक्नो": 8819,
      "कूट": 8820,
      "##प्रभात": 8821,
      "गव": 8822,
      "##ुरा": 8823,
      "##ैस्तु": 8824,
      "विलम्ब": 8825,
      "##श्चित्": 8826,
      "##ेदः": 8827,
      "कार्त": 8828,
      "संस्करणे": 8829,
      "सुखी": 8830,
      "दिवसे": 8831,
      "दोषो": 8832,
      "इयम्": 8833,
      "##चरण": 8834,
      "प्राद": 8835,
      "सर्वपाप": 8836,
      "स्वस्ति": 8837,
      "साक्षि": 8838,
      "##त्वम": 8839,
      "वैद्य": 8840,
      "पूर्ववत्": 8841,
      "भागं": 8842,
      "सिद्धम्": 8843,
      "पृथिव्या": 8844,
      "verse": 8845,
      "नरो": 8846,
      "नौक": 8847,
      "##सत्": 8848,
      "##ादित्य": 8849,
      "##ालये": 8850,
      "सर्वेषाम": 8851,
      "##ीयत": 8852,
      "उपलब्ध": 8853,
      "##स्यामि": 8854,
      "कुटुम्ब": 8855,
      "परिपूर्ण": 8856,
      "##यितु": 8857,
      "##न्यास": 8858,
      "37": 8859,
      "आहार": 8860,
      "दन्त": 8861,
      "रोज": 8862,
      "सृ": 8863,
      "५८": 8864,
      "##यतां": 8865,
      "##र्ना": 8866,
      "पराव": 8867,
      "निम": 8868,
      "संज्ञा": 8869,
      "##दात्म": 8870,
      "प्रतिबन्ध": 8871,
      "##ान्तु": 8872,
      "##त्यादि": 8873,
      "तदुप": 8874,
      "दिल्ली": 8875,
      "##म्बर": 8876,
      "##सूच": 8877,
      "भूतानां": 8878,
      "उद्देश": 8879,
      "##ous": 8880,
      "साम्प्र": 8881,
      "प्रदूषण": 8882,
      "sent": 8883,
      "गं": 8884,
      "जाप": 8885,
      "द्यो": 8886,
      "६१": 8887,
      "##तये": 8888,
      "##य्य": 8889,
      "##od": 8890,
      "##डु": 8891,
      "##यात्रा": 8892,
      "##ादशी": 8893,
      "वाऽ": 8894,
      "##संश": 8895,
      "##स्थितं": 8896,
      "क्रुद्ध": 8897,
      "प्राप्ति": 8898,
      "##कुश": 8899,
      "साधार": 8900,
      "##पेक्षा": 8901,
      "वदामि": 8902,
      "तृतीये": 8903,
      "निष्कर्ष": 8904,
      "ग्रीष्म": 8905,
      "]]": 8906,
      "अष्टा": 8907,
      "आज": 8908,
      "आर्": 8909,
      "कट": 8910,
      "छः": 8911,
      "ताम्": 8912,
      "साद": 8913,
      "##सिक": 8914,
      "##जम्": 8915,
      "##िती": 8916,
      "##ष्टौ": 8917,
      "##निं": 8918,
      "##निवास": 8919,
      "##रात्रे": 8920,
      "इत्यनु": 8921,
      "##तोऽपि": 8922,
      "##पदस्य": 8923,
      "##न्वि": 8924,
      "##विकल्प": 8925,
      "संसारे": 8926,
      "##रूपि": 8927,
      "विरासत": 8928,
      "धीर": 8929,
      "शम": 8930,
      "हस्ति": 8931,
      "##हिते": 8932,
      "##्यया": 8933,
      "##यादि": 8934,
      "##ान्म": 8935,
      "##भवं": 8936,
      "##ोक्तम्": 8937,
      "चतुर्व": 8938,
      "सरल": 8939,
      "सङ्घ": 8940,
      "औषध": 8941,
      "पण": 8942,
      "सस्य": 8943,
      "##तप": 8944,
      "##रन्": 8945,
      "##शन": 8946,
      "##वतां": 8947,
      "##तेऽ": 8948,
      "##्वात्": 8949,
      "##ापा": 8950,
      "##भाषण": 8951,
      "शेषं": 8952,
      "कारणेन": 8953,
      "निर्वाचन": 8954,
      "br": 8955,
      "कविः": 8956,
      "७४": 8957,
      "##र्कः": 8958,
      "##भागं": 8959,
      "कार्यः": 8960,
      "श्रुतं": 8961,
      "पितॄणां": 8962,
      "##स्पति": 8963,
      "##ore": 8964,
      "##लक्षणम्": 8965,
      "##प्रयोगः": 8966,
      "45": 8967,
      "अग्": 8968,
      "चान्य": 8969,
      "पाय": 8970,
      "६४": 8971,
      "##केषु": 8972,
      "प्रेत": 8973,
      "##माल": 8974,
      "##क्षो": 8975,
      "##ावस्था": 8976,
      "निन्द": 8977,
      "स्वरूपं": 8978,
      "प्रतिगृह": 8979,
      "##ान्तरेण": 8980,
      "##भूय": 8981,
      "दिशः": 8982,
      "##भाषत": 8983,
      "कापि": 8984,
      "##दीयं": 8985,
      "युधिष्ठ": 8986,
      "पदोन्न": 8987,
      "##गमनं": 8988,
      "पश्ये": 8989,
      "##ेष्वपि": 8990,
      "##नाग": 8991,
      "परमे": 8992,
      "##ावे": 8993,
      "##्येक": 8994,
      "एकस्य": 8995,
      "##ान्तो": 8996,
      "##न्यस्य": 8997,
      "##स्माद्": 8998,
      "पा०": 8999,
      "अतिश": 9000,
      "सौभाग्य": 9001,
      "कस्यचित्": 9002,
      "राक्षस": 9003,
      "तिथिः": 9004,
      "##क्रीड": 9005,
      "छगू": 9006,
      "##ाच्च": 9007,
      "##महे": 9008,
      "प्रभावः": 9009,
      "##ेद्य": 9010,
      "कार्ये": 9011,
      "##ृष्टं": 9012,
      "कृति": 9013,
      "एतदेव": 9014,
      "##चारी": 9015,
      "नामः": 9016,
      "कार्यान्व": 9017,
      "##हाँ": 9018,
      "##मासस्य": 9019,
      "स्थापना": 9020,
      "(),": 9021,
      "निवेदन": 9022,
      "##लोपः": 9023,
      "जाये": 9024,
      "भृश": 9025,
      "०९": 9026,
      "##यतीति": 9027,
      "##ितवती": 9028,
      "निद्रा": 9029,
      "पुरः": 9030,
      "वास्तु": 9031,
      "##ङ्कः": 9032,
      "##ासौ": 9033,
      "##प्तिः": 9034,
      "तत्स": 9035,
      "अपह": 9036,
      "बह्व": 9037,
      "पुनर्ज": 9038,
      "सिन्ध": 9039,
      "##विधानं": 9040,
      "शक्या": 9041,
      "विज्ञानं": 9042,
      "##वचनं": 9043,
      "##खिलं": 9044,
      "जाग्र": 9045,
      "वन्य": 9046,
      "##फु": 9047,
      "##कारणं": 9048,
      "महाम": 9049,
      "समाचरेत्": 9050,
      "पूर्वमेव": 9051,
      "प्रजानां": 9052,
      "चेन्न": 9053,
      "जून": 9054,
      "स्रोत": 9055,
      "'-": 9056,
      "34": 9057,
      ">>": 9058,
      "शे": 9059,
      "श्रि": 9060,
      "सत्र": 9061,
      "##ामा": 9062,
      "##लभ्य": 9063,
      "##ादेः": 9064,
      "महीयते": 9065,
      "एकेन": 9066,
      "द्वयोः": 9067,
      "योष": 9068,
      "##पूर": 9069,
      "##स्त्रं": 9070,
      "सप्तदश": 9071,
      "##सम्प": 9072,
      "आगत": 9073,
      "##ence": 9074,
      "##ानामपि": 9075,
      "##सामर्थ": 9076,
      "धूम": 9077,
      "सर्गः": 9078,
      "सर्वभूतानां": 9079,
      "गद": 9080,
      "तमि": 9081,
      "##वित्": 9082,
      "##ासे": 9083,
      "एकैक": 9084,
      "देवान्": 9085,
      "समाप": 9086,
      "जगाम": 9087,
      "उक्तवान्": 9088,
      "##निर्माण": 9089,
      "त्याग": 9090,
      "गमिष्यामि": 9091,
      "संवेदना": 9092,
      "ह्रीं": 9093,
      "41": 9094,
      "अकथ": 9095,
      "##जनाः": 9096,
      "##मासे": 9097,
      "महती": 9098,
      "किमु": 9099,
      "तत्क्षण": 9100,
      "##ात्मकं": 9101,
      "आह्व": 9102,
      "वक्तव्यः": 9103,
      "बिभ": 9104,
      "##प्राप्ति": 9105,
      "तपसा": 9106,
      "स्त्रियः": 9107,
      "]।": 9108,
      "अश्": 9109,
      "पत्रं": 9110,
      "##मित्र": 9111,
      "##ly": 9112,
      "##ment": 9113,
      "प्रस्त": 9114,
      "क्रमात्": 9115,
      "बालकाः": 9116,
      "क्वचि": 9117,
      "##ान्वितः": 9118,
      "न्ह्य": 9119,
      "##पेक्षया": 9120,
      "##योरपि": 9121,
      "##विवर्ज": 9122,
      "दध": 9123,
      "मज": 9124,
      "॰।": 9125,
      "##जनं": 9126,
      "##िताम्": 9127,
      "किंच": 9128,
      "##ादिभिः": 9129,
      "पुत्रा": 9130,
      "##कोटि": 9131,
      "##and": 9132,
      "शोक": 9133,
      "मन्यन्ते": 9134,
      "[[": 9135,
      "अस्": 9136,
      "नां": 9137,
      "पारि": 9138,
      "##ताल": 9139,
      "##ंति": 9140,
      "##बाल": 9141,
      "##ैर्न": 9142,
      "##्यतां": 9143,
      "सम्मान": 9144,
      "##ोपदेश": 9145,
      "अभिव्यक्ति": 9146,
      "अहम": 9147,
      "##प्रत्यक्ष": 9148,
      "##प्राप्ते": 9149,
      "इन्द्रः": 9150,
      "प्रकट": 9151,
      "गृह्णाति": 9152,
      "##मै": 9153,
      "##करे": 9154,
      "##भर": 9155,
      "##बलं": 9156,
      "##न्नाः": 9157,
      "##माया": 9158,
      "परियोजना": 9159,
      "अग्निं": 9160,
      "इत्युक्त्वा": 9161,
      "पश्चिमे": 9162,
      "##भिप्राय": 9163,
      "पेश": 9164,
      "शाप": 9165,
      "##ग्य": 9166,
      "##्रिक": 9167,
      "##माणा": 9168,
      "प्रतिपद्यते": 9169,
      "##ल्लभ": 9170,
      "तदैव": 9171,
      "रूपांत": 9172,
      "##वर्षस्य": 9173,
      "ग्रहणं": 9174,
      "परमात्मा": 9175,
      "सन्दर्भ": 9176,
      "ब्रूहि": 9177,
      "चिकित्सा": 9178,
      "डी": 9179,
      "तस्मि": 9180,
      "दशा": 9181,
      "वल": 9182,
      "##ज्यो": 9183,
      "##२१": 9184,
      "##छे": 9185,
      "##स्तः": 9186,
      "संदे": 9187,
      "अपश्य": 9188,
      "##देवः": 9189,
      "##मुखः": 9190,
      "अध्यय": 9191,
      "कौन्ते": 9192,
      "tags": 9193,
      "अफ": 9194,
      "इय": 9195,
      "एतं": 9196,
      "वनं": 9197,
      "हवि": 9198,
      "##जय": 9199,
      "##जस्य": 9200,
      "##बुध": 9201,
      "##टेन": 9202,
      "##ैस्त": 9203,
      "##ैनं": 9204,
      "##ृतिः": 9205,
      "समाग": 9206,
      "एतच्च": 9207,
      "##ब्दे": 9208,
      "##धिका": 9209,
      "ब्रुव": 9210,
      "प्राप्नो": 9211,
      "चित्रं": 9212,
      "गौरव": 9213,
      "ऽहं": 9214,
      "९०": 9215,
      "##मध": 9216,
      "##काव": 9217,
      "##ैर्वि": 9218,
      "##्वल": 9219,
      "द्विव": 9220,
      "क्षणे": 9221,
      "##र्यस्य": 9222,
      "समाहितः": 9223,
      "तत्रा": 9224,
      "निर्दिष्ट": 9225,
      "भगवतः": 9226,
      "##ोच्यते": 9227,
      "##वत्त": 9228,
      "##वक्ष्यामि": 9229,
      "##क्षया": 9230,
      "##विनाश": 9231,
      "संनि": 9232,
      "सुभ": 9233,
      "##स्थां": 9234,
      "##सीति": 9235,
      "स्यात्त": 9236,
      "##पुन": 9237,
      "##राजस्य": 9238,
      "जातो": 9239,
      "##णामः": 9240,
      "##संस्कृत": 9241,
      "पुरस्कार": 9242,
      "अनेके": 9243,
      "44": 9244,
      "आचर": 9245,
      "वरुण": 9246,
      "##श्वा": 9247,
      "##ल्यं": 9248,
      "##्यार्थ": 9249,
      "##ृतो": 9250,
      "समाना": 9251,
      "##ष्ठे": 9252,
      "कृपा": 9253,
      "##चार्य": 9254,
      "भावना": 9255,
      "पृष्ठे": 9256,
      "##परिष": 9257,
      "##कर्मणि": 9258,
      "गतवान्": 9259,
      "शक्यम्": 9260,
      "सैनिक": 9261,
      "हिंस": 9262,
      "स्वभावतः": 9263,
      "कद": 9264,
      "घर": 9265,
      "टै": 9266,
      "पान": 9267,
      "सोप": 9268,
      "०७": 9269,
      "##सेत्": 9270,
      "##य्त": 9271,
      "##बह": 9272,
      "##ख्यां": 9273,
      "##10": 9274,
      "विपु": 9275,
      "##माध्य": 9276,
      "##येगु": 9277,
      "एकमेव": 9278,
      "मुञ्च": 9279,
      "वर्षं": 9280,
      "जननी": 9281,
      "पितॄ": 9282,
      "शुभे": 9283,
      "रिपो": 9284,
      "##ित्याह": 9285,
      "दीर्घः": 9286,
      "शक्नुवन्ति": 9287,
      "पूँजी": 9288,
      "गर्व": 9289,
      "पाहि": 9290,
      "##ऽन": 9291,
      "प्रकृते": 9292,
      "##स्यसि": 9293,
      "सुप्त": 9294,
      "प्राप्तम्": 9295,
      "##कम्प": 9296,
      "विद्यालय": 9297,
      "कुर्वन्तु": 9298,
      "जन्मनि": 9299,
      "##ादीनि": 9300,
      "श्रवण": 9301,
      "अर्थे": 9302,
      "औष": 9303,
      "कस्यापि": 9304,
      "##ाभाव": 9305,
      "##जाप": 9306,
      "प्रकीर्त": 9307,
      "##न्तरि": 9308,
      "##प्रस": 9309,
      "सर्वतो": 9310,
      "##ज्ञया": 9311,
      "##ेत्यादि": 9312,
      "कारक": 9313,
      "महास": 9314,
      "##मुद्र": 9315,
      "व्यय": 9316,
      "ग्रन्": 9317,
      "उपयोगी": 9318,
      "हिन्दी": 9319,
      "प्रयुज्यते": 9320,
      "पदोन्नति": 9321,
      "पयो": 9322,
      "##ातः": 9323,
      "##ोर्": 9324,
      "##जन्य": 9325,
      "##भुव": 9326,
      "##वर्ध": 9327,
      "##ूगु": 9328,
      "##त्रेण": 9329,
      "निर्ज": 9330,
      "सर्वकाम": 9331,
      "##नोप": 9332,
      "एतौ": 9333,
      "##ख्यातं": 9334,
      "##षेधे": 9335,
      "चात्र": 9336,
      "वक्तव्यं": 9337,
      "विजान": 9338,
      "सन्धि": 9339,
      "शक्नुमः": 9340,
      "इष्यते": 9341,
      "६८": 9342,
      "७६": 9343,
      "##केश": 9344,
      "##भ्यते": 9345,
      "##टिक": 9346,
      "##ण्व": 9347,
      "##स्ततो": 9348,
      "##विन्द": 9349,
      "##प्रदान": 9350,
      "समूह": 9351,
      "सुलभ": 9352,
      "##र्धा": 9353,
      "वृथा": 9354,
      "##ग्रहणे": 9355,
      "गच्छामि": 9356,
      "गतौ": 9357,
      "39": 9358,
      "कफ": 9359,
      "लं": 9360,
      "वयम": 9361,
      "##रैः": 9362,
      "##देन": 9363,
      "##टल": 9364,
      "विद्धि": 9365,
      "##प्रकृति": 9366,
      "##दास": 9367,
      "##दाता": 9368,
      "##नेक": 9369,
      "सुप्रभात": 9370,
      "##संस्था": 9371,
      "##तीः": 9372,
      "गच्छन्ति": 9373,
      "अत्यन्तं": 9374,
      "अन्वेष": 9375,
      "सम्पादन": 9376,
      "छा": 9377,
      "दये": 9378,
      "०००": 9379,
      "##मल": 9380,
      "##दुप": 9381,
      "##ie": 9382,
      "##इन": 9383,
      "##क्थ": 9384,
      "##नामा": 9385,
      "##ुरिति": 9386,
      "सूक्त": 9387,
      "गुज": 9388,
      "देयं": 9389,
      "नगरस्य": 9390,
      "पुस्तके": 9391,
      "##ष्यामः": 9392,
      "मनुष्याणां": 9393,
      "आदेशः": 9394,
      "आदौ": 9395,
      "वश": 9396,
      "##मन्": 9397,
      "##सन्नि": 9398,
      "##गच्छति": 9399,
      "परस्य": 9400,
      "पुमान्": 9401,
      "संपाद": 9402,
      "भवतो": 9403,
      "सूर्या": 9404,
      "तत्सम": 9405,
      "साधनं": 9406,
      "आगत्य": 9407,
      "आगतः": 9408,
      "वाचं": 9409,
      "सरकारं": 9410,
      "त्वाम्": 9411,
      "पर्यन्तं": 9412,
      "अभी": 9413,
      "स्रो": 9414,
      "##संस्कार": 9415,
      "##लेखः": 9416,
      "श्रद्धा": 9417,
      "प्राणिनां": 9418,
      "अ०": 9419,
      "न्त": 9420,
      "बाण": 9421,
      "भेष": 9422,
      "वर्": 9423,
      "##ुच्यते": 9424,
      "##श्री": 9425,
      "##वश्य": 9426,
      "संग्राम": 9427,
      "तदर्थं": 9428,
      "##युक्ते": 9429,
      "##त्पत्ति": 9430,
      "सहस्राणि": 9431,
      "##क्ष्मी": 9432,
      "करुणा": 9433,
      "अलं": 9434,
      "ग्ल": 9435,
      "चाय": 9436,
      "##सरे": 9437,
      "##नक": 9438,
      "##ip": 9439,
      "##ैते": 9440,
      "##ht": 9441,
      "राजनीति": 9442,
      "मुदा": 9443,
      "##ञ्चि": 9444,
      "##त्वाद्": 9445,
      "व्याव": 9446,
      "प्रवाह": 9447,
      "##ानुकूल": 9448,
      "##म्बु": 9449,
      "अहिं": 9450,
      "यज्ञं": 9451,
      "2016": 9452,
      "सरस्व": 9453,
      "कल्पना": 9454,
      "तत्त्वं": 9455,
      "विस्तरेण": 9456,
      "सम्प्रसार": 9457,
      "चोद": 9458,
      "जितः": 9459,
      "मनी": 9460,
      "##ाङ्ग": 9461,
      "##णौ": 9462,
      "##नाभि": 9463,
      "##प्रश": 9464,
      "संयोज": 9465,
      "वाताव": 9466,
      "प्राथम": 9467,
      "भाष्य": 9468,
      "शब्दे": 9469,
      "त्रय": 9470,
      "१९३": 9471,
      "जुया": 9472,
      "जुहो": 9473,
      "सौम्य": 9474,
      "शुभं": 9475,
      "पादौ": 9476,
      "##कूगु": 9477,
      "इहा": 9478,
      "ययय": 9479,
      "शर्म": 9480,
      "९१": 9481,
      "##कत": 9482,
      "##वते": 9483,
      "##ामे": 9484,
      "सर्वः": 9485,
      "यथाक्रमम्": 9486,
      "द्वीप": 9487,
      "##स्यास्य": 9488,
      "माघ": 9489,
      "##स्मरण": 9490,
      "कालि": 9491,
      "विधेय": 9492,
      "प्रियः": 9493,
      "वय्कलं": 9494,
      "##त्सर्वं": 9495,
      "48": 9496,
      "कस्मात्": 9497,
      "ध्याय": 9498,
      "भया": 9499,
      "##वेन": 9500,
      "संहिता": 9501,
      "##द्धा": 9502,
      "मुच्यते": 9503,
      "ज्ञेयं": 9504,
      "##प्ल": 9505,
      "प्राप्तिः": 9506,
      "साक्षात्कार": 9507,
      "सदस्यः": 9508,
      "धार्मिक": 9509,
      "ऋषि": 9510,
      "केत": 9511,
      "पथि": 9512,
      "##ँय्": 9513,
      "##यात्म": 9514,
      "संपूर्ण": 9515,
      "##दिष्टं": 9516,
      "##ासो": 9517,
      "तुम्": 9518,
      "उपचार": 9519,
      "##सीं": 9520,
      "##्योः": 9521,
      "रुच": 9522,
      "##०००": 9523,
      "अक्षर": 9524,
      "प्रायश्चित्त": 9525,
      "जायन्ते": 9526,
      "अग्न": 9527,
      "वाव": 9528,
      "वरु": 9529,
      "ऽयं": 9530,
      "९५": 9531,
      "##पुरु": 9532,
      "##सन्द": 9533,
      "##ीण": 9534,
      "##पिण्ड": 9535,
      "स्वस्थ": 9536,
      "##ापृ": 9537,
      "##रिया": 9538,
      "कुर्मः": 9539,
      "गुप्त": 9540,
      "प्रत्ययो": 9541,
      "##क्षिप्त": 9542,
      "भा०": 9543,
      "समाप्तम्": 9544,
      "खल्व": 9545,
      "कोरोना": 9546,
      "as": 9547,
      "थौं": 9548,
      "धइगु": 9549,
      "मतिः": 9550,
      "##धू": 9551,
      "##ver": 9552,
      "##निरूप": 9553,
      "महाव": 9554,
      "##ान्तर्ग": 9555,
      "##क्रो": 9556,
      "तत्काल": 9557,
      "##श्ल": 9558,
      "##पुनः": 9559,
      "##सारं": 9560,
      "पृष्ठानां": 9561,
      "इत्युक्तम्": 9562,
      "शासन": 9563,
      "##पदार्थ": 9564,
      "ab": 9565,
      "अर्हति": 9566,
      "उष्ण": 9567,
      "कर्ष": 9568,
      "करुण": 9569,
      "त०": 9570,
      "वरः": 9571,
      "वारं": 9572,
      "वारि": 9573,
      "हत्वा": 9574,
      "८४": 9575,
      "##कत्वं": 9576,
      "##दै": 9577,
      "प्रौ": 9578,
      "प्रज्ञा": 9579,
      "विहित": 9580,
      "##क्ष्यते": 9581,
      "##रात्रं": 9582,
      "##तीय": 9583,
      "##ोऽनु": 9584,
      "##क्रोध": 9585,
      "##क्षणः": 9586,
      "शिरः": 9587,
      "लिखितानां": 9588,
      "स्वर्गं": 9589,
      "##र्द्धं": 9590,
      "मण्डल": 9591,
      "संस्थिता": 9592,
      "प्रजापति": 9593,
      ").": 9594,
      "कम्": 9595,
      "ताद": 9596,
      "मत्वा": 9597,
      "##ेता": 9598,
      "##खल": 9599,
      "##18": 9600,
      "##त्वि": 9601,
      "##द्रं": 9602,
      "प्रथमो": 9603,
      "##पार्श": 9604,
      "पञ्चदश": 9605,
      "मूर्त": 9606,
      "##ड़ा": 9607,
      "परमेश्वरः": 9608,
      "क्षिप्र": 9609,
      "1अ": 9610,
      "औसत": 9611,
      "करव": 9612,
      "##धुं": 9613,
      "##वय": 9614,
      "##निवार": 9615,
      "##ङ्क्ते": 9616,
      "##ानिति": 9617,
      "##नेति": 9618,
      "साङ्": 9619,
      "##त्वस्य": 9620,
      "##्याःगु": 9621,
      "##प्रतिपाद": 9622,
      "पठन्ति": 9623,
      "आगच्छति": 9624,
      "##ध्याये": 9625,
      "##ुमर्हसि": 9626,
      "सम्यग्": 9627,
      "live": 9628,
      "अज्ञान": 9629,
      "घृत": 9630,
      "वसिष्ठ": 9631,
      "##धेन": 9632,
      "##लाष": 9633,
      "##ऽत्र": 9634,
      "##क्षत": 9635,
      "##ालयः": 9636,
      "##निष्": 9637,
      "##ब्धा": 9638,
      "##द्रव्य": 9639,
      "##युग": 9640,
      "विशेषणम्": 9641,
      "फलानि": 9642,
      "##वर्त्त": 9643,
      "मूल्यं": 9644,
      "मार्गः": 9645,
      "कमल": 9646,
      "ज्योतिः": 9647,
      "द्रष्टव्यम्": 9648,
      "##शाली": 9649,
      "##स्थितिः": 9650,
      "सार्धं": 9651,
      "##श्मीर": 9652,
      "जन्त": 9653,
      "हू": 9654,
      "हार": 9655,
      "##ल्यू": 9656,
      "##ऽस्मिन्": 9657,
      "विमुक्त": 9658,
      "##स्ट्": 9659,
      "##ुरोध": 9660,
      "##ान्ता": 9661,
      "बहवो": 9662,
      "##ख्यानं": 9663,
      "##ग्निः": 9664,
      "उभे": 9665,
      "वाक्ये": 9666,
      "आदित्य": 9667,
      "अथातः": 9668,
      "आचार्य": 9669,
      "42": 9670,
      "अर्थं": 9671,
      "आशि": 9672,
      "##ितया": 9673,
      "##िकस्य": 9674,
      "##त्यते": 9675,
      "##ायेत": 9676,
      "नियुक्त": 9677,
      "प्रतिकूल": 9678,
      "##ाण्य": 9679,
      "##त्साह": 9680,
      "तिल": 9681,
      "##विधः": 9682,
      "ताड": 9683,
      "प्रसिद्धः": 9684,
      "लक्षणम्": 9685,
      "स्तुति": 9686,
      "जीर्ण": 9687,
      "जित": 9688,
      "नच": 9689,
      "नरे": 9690,
      "६७": 9691,
      "##परो": 9692,
      "##हानि": 9693,
      "##दति": 9694,
      "##ew": 9695,
      "##ानव": 9696,
      "भविता": 9697,
      "स्नि": 9698,
      "##मुद्": 9699,
      "##न्यत्र": 9700,
      "मुनी": 9701,
      "स्त्र": 9702,
      "##न्मुक्त": 9703,
      "##पूर्वकं": 9704,
      "किमर्थम्": 9705,
      "तत्त्वतः": 9706,
      "थःगु": 9707,
      "अर्": 9708,
      "प्रबन्ध": 9709,
      "##ादय": 9710,
      "##प्रदेशे": 9711,
      "##योप": 9712,
      "उपास": 9713,
      "किलो": 9714,
      "##ोपा": 9715,
      "##दृश्यते": 9716,
      "##गोल": 9717,
      "सूत्रेण": 9718,
      "इतिहासः": 9719,
      "पितामह": 9720,
      "सनातनः": 9721,
      "चतुः": 9722,
      "पता": 9723,
      "म्रियते": 9724,
      "सर्": 9725,
      "स्यु": 9726,
      "६६": 9727,
      "८६": 9728,
      "##मनं": 9729,
      "##रथ": 9730,
      "##धीन": 9731,
      "##est": 9732,
      "प्रदेशः": 9733,
      "##निवेश": 9734,
      "##च्छे": 9735,
      "##भवेत्": 9736,
      "##रीत्या": 9737,
      "अपरं": 9738,
      "##स्वरूपं": 9739,
      "##धिकारः": 9740,
      "करोतुः": 9741,
      "जीवित": 9742,
      "दशम": 9743,
      "शाख": 9744,
      "ज्ञानम्": 9745,
      "प्रोक्तो": 9746,
      "प्रणाली": 9747,
      "##पद्यत": 9748,
      "वाणिज्य": 9749,
      "उगु": 9750,
      "उचित": 9751,
      "जर्म": 9752,
      "जातु": 9753,
      "तज्": 9754,
      "धना": 9755,
      "भयम्": 9756,
      "मातु": 9757,
      "रथं": 9758,
      "##तरः": 9759,
      "##सितं": 9760,
      "##सर्ज": 9761,
      "##दव": 9762,
      "##विज": 9763,
      "##प्रण": 9764,
      "साक्षा": 9765,
      "व्याधि": 9766,
      "क्रय": 9767,
      "दूरं": 9768,
      "विधे": 9769,
      "##ड्ड": 9770,
      "##वृद्धि": 9771,
      "अत्यधिक": 9772,
      "अभय": 9773,
      "दूरभाष": 9774,
      "चत्वारः": 9775,
      "कन्यां": 9776,
      "परिसन्धिं": 9777,
      "रूपांतरण": 9778,
      "अचि": 9779,
      "झी": 9780,
      "नन्द": 9781,
      "यि": 9782,
      "##मत्र": 9783,
      "##करि": 9784,
      "##चु": 9785,
      "##ऽस्ति": 9786,
      "##स्ने": 9787,
      "##तात्": 9788,
      "##ुरं": 9789,
      "कुण्ड": 9790,
      "सूत": 9791,
      "विद्यां": 9792,
      "अथो": 9793,
      "अवलोक": 9794,
      "यत्न": 9795,
      "स्वात्म": 9796,
      "समुद": 9797,
      "सूर्यस्य": 9798,
      "नृपः": 9799,
      "नीच": 9800,
      "धारणा": 9801,
      "परमार्थ": 9802,
      "शैली": 9803,
      "शक्यः": 9804,
      "अगस्त": 9805,
      "vii": 9806,
      "निवर्तते": 9807,
      "भर्ती": 9808,
      "ध्यात्वा": 9809,
      "ऊर्ध्व": 9810,
      "मृदु": 9811,
      "फोटो": 9812,
      "##वानां": 9813,
      "##वंश": 9814,
      "##ud": 9815,
      "##माणः": 9816,
      "##क्षम": 9817,
      "##क्षये": 9818,
      "##ेनं": 9819,
      "परतः": 9820,
      "##ज्ञाः": 9821,
      "##गुणः": 9822,
      "##भ्यन्तरे": 9823,
      "कर्तु": 9824,
      "##ित्रं": 9825,
      "##पदेन": 9826,
      "इत्यादौ": 9827,
      "अन्तर्ज": 9828,
      "हेम": 9829,
      "##ञ्जीत": 9830,
      "जुयाः": 9831,
      "पृथिवीं": 9832,
      "विकल्पः": 9833,
      "##नगरे": 9834,
      "संबन्धः": 9835,
      "कवच": 9836,
      "खं": 9837,
      "पर्ज": 9838,
      "मस्त": 9839,
      "सैव": 9840,
      "##पद्": 9841,
      "##है": 9842,
      "##वाणी": 9843,
      "##चितः": 9844,
      "##प्रवृत्त": 9845,
      "सर्वश्रेष्ठ": 9846,
      "वास्त": 9847,
      "##ेश्च": 9848,
      "प्रतिभा": 9849,
      "##ोऽप्य": 9850,
      "स्थूल": 9851,
      "##दीनि": 9852,
      "##न्याया": 9853,
      "विद्यार्थ": 9854,
      "##म्यहम्": 9855,
      "##ory": 9856,
      "विभक्तिः": 9857,
      "मातुः": 9858,
      "परम्परा": 9859,
      "read": 9860,
      "आरम्भ": 9861,
      "sa": 9862,
      "धनम्": 9863,
      "##गौ": 9864,
      "##णीय": 9865,
      "##20": 9866,
      "##तिश": 9867,
      "##क्षाः": 9868,
      "काराग": 9869,
      "उपकरण": 9870,
      "पाश": 9871,
      "यत्नतः": 9872,
      "##दानीं": 9873,
      "##विधौ": 9874,
      "मितिः": 9875,
      "##ादेशे": 9876,
      "##बीज": 9877,
      "न्यायालय": 9878,
      "आया": 9879,
      "एति": 9880,
      "कॉ": 9881,
      "पप्र": 9882,
      "मणि": 9883,
      "०८": 9884,
      "८१": 9885,
      "##पां": 9886,
      "##राम": 9887,
      "##og": 9888,
      "सुतः": 9889,
      "सुषु": 9890,
      "##ल्ला": 9891,
      "प्राकृत": 9892,
      "गुह्य": 9893,
      "प्रत्यये": 9894,
      "##राजः": 9895,
      "(.": 9896,
      "आगम": 9897,
      "सरो": 9898,
      "##पनं": 9899,
      "##वस्य": 9900,
      "##थी": 9901,
      "##ितमस्ति": 9902,
      "##त्तरं": 9903,
      "##ातं": 9904,
      "##संभवः": 9905,
      "महता": 9906,
      "मुमु": 9907,
      "पुत्री": 9908,
      "निर्देशः": 9909,
      "अतिथि": 9910,
      "रिश्त": 9911,
      "विभागः": 9912,
      "##शासन": 9913,
      "##पुत्रः": 9914,
      "##च्यन्ते": 9915,
      "प्रयच्छति": 9916,
      "पद्म": 9917,
      "up": 9918,
      "वेश": 9919,
      "शता": 9920,
      "##िनं": 9921,
      "##रता": 9922,
      "##ृष": 9923,
      "##त्यो": 9924,
      "##ाःगु": 9925,
      "##संयोग": 9926,
      "क्षय": 9927,
      "स्थिताः": 9928,
      "मुनिः": 9929,
      "##र्धं": 9930,
      "सप्तमी": 9931,
      "विद्यालयं": 9932,
      "भ्राता": 9933,
      "यथे": 9934,
      "पुनराव": 9935,
      "नृणां": 9936,
      "नित्यम्": 9937,
      "##स्त्वया": 9938,
      "अष्टादश": 9939,
      "##व्रत": 9940,
      "पयः": 9941,
      "पक्षः": 9942,
      "वत्": 9943,
      "##शौ": 9944,
      "##जना": 9945,
      "##ks": 9946,
      "##विना": 9947,
      "##रेत": 9948,
      "किय": 9949,
      "कथां": 9950,
      "##लिया": 9951,
      "##सिद्धिः": 9952,
      "##ग्निं": 9953,
      "##द्विष": 9954,
      "शास्त्रं": 9955,
      "ज्याझ": 9956,
      "त्रयोदश": 9957,
      "उच्चारणः": 9958,
      "मारु": 9959,
      "यन्": 9960,
      "सकाश": 9961,
      "##िष्ठ": 9962,
      "पूर्": 9963,
      "##त्याह": 9964,
      "##ञ्चित्": 9965,
      "##भूषण": 9966,
      "##भाषया": 9967,
      "दिवः": 9968,
      "योगः": 9969,
      "वेदित": 9970,
      "जानासि": 9971,
      "----": 9972,
      "छात्रः": 9973,
      "##घातः": 9974,
      "कार्यान्वयन": 9975,
      "46": 9976,
      "गग": 9977,
      "दल": 9978,
      "##गुर": 9979,
      "##ृज्य": 9980,
      "##्यानि": 9981,
      "प्रदेशे": 9982,
      "##ाव्": 9983,
      "##ावः": 9984,
      "वासु": 9985,
      "राज्ञा": 9986,
      "##ज्ञं": 9987,
      "राजनी": 9988,
      "##देः": 9989,
      "निर्माणं": 9990,
      "सीमा": 9991,
      "कविता": 9992,
      "प्रतियोगिता": 9993,
      "##सम्बद्ध": 9994,
      "##त्थाय": 9995,
      "55": 9996,
      "गतिं": 9997,
      "तस्मिन्न": 9998,
      "सतां": 9999
    }
  }
}