<unk>	0
<s>	0
</s>	0
्य	-0
्र	-1
▁स	-2
्त	-3
▁प	-4
्व	-5
▁व	-6
▁।	-7
▁त	-8
▁क	-9
ान	-10
ति	-11
▁अ	-12
र्	-13
▁न	-14
म्	-15
▁म	-16
ित	-17
▁प्र	-18
▁य	-19
त्	-20
▁द	-21
्या	-22
ार	-23
▁भ	-24
▁च	-25
ां	-26
▁वि	-27
▁इ	-28
क्	-29
न्	-30
▁श	-31
ते	-32
स्य	-33
मा	-34
ष्	-35
या	-36
स्त	-37
न्त	-38
क्ष	-39
स्	-40
▁ए	-41
▁ज	-42
त्र	-43
▁॥	-44
र्व	-45
रा	-46
द्	-47
ना	-48
▁ह	-49
▁ग	-50
वि	-51
था	-52
क्त	-53
ेन	-54
▁आ	-55
ेव	-56
त्य	-57
ाद	-58
तः	-59
▁-	-60
पि	-61
िक	-62
ाय	-63
ाम	-64
्च	-65
▁उ	-66
त्त	-67
ाः	-68
ष्ट	-69
▁पर	-70
प्र	-71
▁ब	-72
▁(	-73
▁नि	-74
▁पु	-75
ाव	-76
ेष	-77
▁र	-78
▁इति	-79
नि	-80
ाल	-81
र्थ	-82
▁"	-83
▁सं	-84
मि	-85
▁ल	-86
दा	-87
्वा	-88
दि	-89
यो	-90
▁सर्व	-91
▁ध	-92
द्ध	-93
ता	-94
▁भव	-95
▁एव	-96
र्त	-97
▁वा	-98
ेश	-99
्ञ	-100
▁स्	-101
्यते	-102
▁स्व	-103
ङ्	-104
ान्	-105
ाप	-106
ृत	-107
श्च	-108
यं	-109
्यं	-110
ये	-111
▁अन	-112
भि	-113
ानि	-114
▁रा	-115
ास	-116
▁सम	-117
िं	-118
रण	-119
र्म	-120
नं	-121
▁तु	-122
ात	-123
रि	-124
्रि	-125
रु	-126
▁१	-127
ज्ञ	-128
▁.	-129
कार	-130
नः	-131
्ये	-132
यः	-133
सं	-134
ने	-135
▁सु	-136
ाग	-137
च्	-138
न्द	-139
रो	-140
रे	-141
ाण	-142
ती	-143
▁प्रति	-144
न्ति	-145
र्ष	-146
ुः	-147
ेद	-148
त्व	-149
ल्	-150
▁हि	-151
ष्ठ	-152
मान	-153
▁सा	-154
च्छ	-155
ुक्त	-156
स्ति	-157
मे	-158
▁पू	-159
ानां	-160
ैव	-161
तो	-162
ूप	-163
▁यथा	-164
द्य	-165
▁कु	-166
िव	-167
ाह	-168
र्ण	-169
▁इत्य	-170
▁ते	-171
▁_	-172
ात्	-173
धि	-174
स्थ	-175
तु	-176
गु	-177
▁कार	-178
ीय	-179
▁त्व	-180
ान्त	-181
भव	-182
नु	-183
ब्	-184
▁२	-185
▁'	-186
का	-187
▁मह	-188
कं	-189
सि	-190
श्व	-191
▁द्व	-192
मु	-193
▁ख	-194
▁देव	-195
ेण	-196
कः	-197
ाष	-198
ोऽ	-199
व्य	-200
हं	-201
लं	-202
रं	-203
्री	-204
ङ्ग	-205
ैः	-206
धिक	-207
स्या	-208
ितः	-209
▁क्	-210
▁तथा	-211
ेषु	-212
द्व	-213
सा	-214
▁उप	-215
▁1	-216
री	-217
मः	-218
र्ग	-219
ृष्ट	-220
भाव	-221
▁कि	-222
स्तु	-223
ृश	-224
देश	-225
के	-226
▁सम्	-227
ष्य	-228
प्त	-229
त्या	-230
वा	-231
तं	-232
िः	-233
▁भवति	-234
ुं	-235
▁मे	-236
रः	-237
णं	-238
क्र	-239
ृह	-240
▁राज	-241
िता	-242
▁कथ	-243
ण्	-244
नो	-245
▁श्र	-246
ग्	-247
कृ	-248
▁क्ष	-249
र्य	-250
सी	-251
न्ध	-252
▁सह	-253
न्य	-254
द्र	-255
▁मा	-256
हि	-257
योग	-258
▁किं	-259
▁यो	-260
ध्य	-261
▁स्थ	-262
ेत	-263
▁परि	-264
▁2	-265
स्व	-266
▁एक	-267
स्मा	-268
पु	-269
ग्र	-270
▁कृ	-271
ोप	-272
▁वै	-273
नी	-274
▁गु	-275
▁दु	-276
ञ्च	-277
भू	-278
रूप	-279
ितं	-280
▁व्य	-281
ानं	-282
▁?	-283
▁मु	-284
▁ना	-285
▁सू	-286
णा	-287
▁अपि	-288
दं	-289
न्न	-290
मेव	-291
▁तत्	-292
भ्य	-293
▁समा	-294
▁यदि	-295
ला	-296
▁प्राप	-297
▁तस्य	-298
▁एत	-299
त्वा	-300
▁तद	-301
▁स्त	-302
▁विश	-303
▁अनु	-304
र्श	-305
▁पूर्व	-306
चित	-307
▁पृ	-308
ुद्ध	-309
याः	-310
ब्द	-311
क्षण	-312
ीव	-313
▁अप	-314
स्मि	-315
ल्प	-316
लो	-317
▁अस्ति	-318
▁भू	-319
▁तत्र	-320
▁वर्ष	-321
पू	-322
वृ	-323
ित्य	-324
▁कृत	-325
नम्	-326
▁ज्ञ	-327
लि	-328
तिः	-329
श्र	-330
ेत्	-331
▁एवं	-332
▁फ	-333
--	-334
धान	-335
सु	-336
▁दि	-337
चार	-338
कृत	-339
ण्ड	-340
▁प्रा	-341
▁घ	-342
▁बह	-343
द्या	-344
▁वृ	-345
श्य	-346
▁पा	-347
▁मम	-348
शि	-349
▁छ	-350
ानु	-351
मं	-352
यति	-353
न्ते	-354
▁अथ	-355
▁पुनः	-356
च्च	-357
▁नाम	-358
णि	-359
ितम्	-360
ेति	-361
नां	-362
▁३	-363
ादि	-364
भाष	-365
वान्	-366
ोष	-367
प्	-368
ले	-369
▁भार	-370
्ज	-371
स्म	-372
र्ध	-373
▁यत्	-374
र्ज	-375
▁के	-376
चि	-377
▁अव	-378
काल	-379
▁प्रत्य	-380
▁व्या	-381
श्	-382
▁कर्त	-383
पद	-384
यम्	-385
▁पुन	-386
भाग	-387
करण	-388
्यां	-389
न्त्र	-390
ीं	-391
▁गृह	-392
▁लो	-393
क्षा	-394
त्स	-395
यम	-396
▁काल	-397
ाना	-398
ित्र	-399
▁या	-400
्रिय	-401
क्ति	-402
ाणि	-403
ेषां	-404
त्म	-405
ीत	-406
..	-407
पाद	-408
णे	-409
रुष	-410
▁अन्य	-411
र्थः	-412
ख्या	-413
ान्य	-414
न्म	-415
क्षि	-416
पा	-417
न्द्र	-418
▁तदा	-419
तां	-420
▁स्म	-421
वे	-422
धा	-423
▁कर्म	-424
▁स्या	-425
भिः	-426
युक्त	-427
न्तु	-428
▁प्रथ	-429
स्त्र	-430
▁४	-431
यु	-432
सः	-433
▁शि	-434
▁अधिक	-435
▁तव	-436
▁दृष्ट	-437
णां	-438
ुप	-439
य्	-440
▁ग्र	-441
से	-442
▁वर्त	-443
▁यु	-444
ामि	-445
▁भाष	-446
▁सि	-447
कु	-448
स्था	-449
▁जन	-450
ित्त	-451
▁को	-452
पर	-453
▁ततः	-454
वर्त	-455
ह्	-456
णः	-457
म्ब	-458
देव	-459
▁का	-460
ध्या	-461
मो	-462
▁सः	-463
▁=	-464
वृत्त	-465
▁करो	-466
▁विष	-467
▁शु	-468
▁तेन	-469
ूल	-470
स्मिन्	-471
दी	-472
▁ये	-473
▁हे	-474
र्थं	-475
जन	-476
▁कार्य	-477
▁क्र	-478
▁देश	-479
▁केव	-480
षु	-481
▁जीव	-482
सम	-483
दे	-484
वाद	-485
काश	-486
▁५	-487
▁[	-488
▁विश्व	-489
▁प्राप्त	-490
विष्य	-491
▁पुत्र	-492
▁__	-493
मिति	-494
योः	-495
▁उत्त	-496
को	-497
भा	-498
▁अभि	-499
ोक्त	-500
वः	-501
▁धर्म	-502
▁ति	-503
ारा	-504
त्त्व	-505
▁दे	-506
िका	-507
ायां	-508
ीति	-509
हे	-510
▁बहु	-511
ज्य	-512
स्र	-513
▁तं	-514
च्यते	-515
दान	-516
कम्	-517
▁!	-518
▁अत्र	-519
▁विक	-520
रम्	-521
ट्	-522
▁साम	-523
▁3	-524
▁लि	-525
यि	-526
तम	-527
▁ब्र	-528
▁इत्या	-529
ख्य	-530
▁भग	-531
क्य	-532
▁ऽ	-533
नेन	-534
प्य	-535
क्षे	-536
▁औ	-537
प्रति	-538
▁त्रि	-539
▁मन	-540
▁एष	-541
▁मया	-542
बन्ध	-543
▁दृश	-544
ध्ये	-545
▁कथं	-546
दु	-547
पी	-548
ित्	-549
मपि	-550
हार	-551
▁विशेष	-552
सार	-553
्रिया	-554
▁भविष्य	-555
ली	-556
माण	-557
शा	-558
▁ई	-559
▁ष	-560
▁/	-561
▁भाव	-562
ोध	-563
ज्ञान	-564
धु	-565
▁त्वं	-566
▁चि	-567
शः	-568
ोग	-569
▁स्वा	-570
यित	-571
नाः	-572
येत्	-573
▁जग	-574
▁अहं	-575
पे	-576
िते	-577
ष्ण	-578
यां	-579
सीत्	-580
▁ट	-581
परि	-582
▁पुरुष	-583
▁,	-584
चित्	-585
विध	-586
तम्	-587
हो	-588
्याः	-589
्यामि	-590
जा	-591
▁सप्त	-592
▁--	-593
मी	-594
वेद	-595
▁द्र	-596
विष	-597
▁६	-598
ष्ट्र	-599
▁यः	-600
▁समु	-601
ऽपि	-602
▁थ	-603
▁विद	-604
▁सुख	-605
▁संस्	-606
ुःख	-607
▁अन्त	-608
्वं	-609
सू	-610
▁ऋ	-611
▁पृथ	-612
▁20	-613
००	-614
धार	-615
सम्	-616
त्वं	-617
▁सर्वे	-618
शब्द	-619
▁दिव	-620
▁मृ	-621
ङ्क	-622
▁रूप	-623
्यो	-624
विश	-625
▁तर्	-626
▁वे	-627
दृश	-628
▁श्रु	-629
ाने	-630
▁गुण	-631
▁शब्द	-632
▁यत्र	-633
▁पद	-634
▁पी	-635
▁दू	-636
▁दी	-637
▁ॐ	-638
▁द्वि	-639
व्या	-640
णम्	-641
ग्रह	-642
ायते	-643
त्रं	-644
▁निर्	-645
न्या	-646
ञ्ज	-647
काः	-648
िताः	-649
▁मि	-650
▁परा	-651
चन	-652
▁तद्	-653
▁आसीत्	-654
▁पित	-655
दर्श	-656
▁पृष्ठ	-657
▁अतः	-658
▁यदा	-659
▁हृ	-660
यत्	-661
सिद्ध	-662
▁काम	-663
▁दश	-664
ताः	-665
र्या	-666
धे	-667
वी	-668
गम	-669
वेश	-670
चना	-671
षे	-672
ाणां	-673
न्व	-674
▁बाल	-675
▁दर्श	-676
्यः	-677
▁त्र	-678
▁कदा	-679
ोद	-680
यते	-681
वार	-682
▁८	-683
शु	-684
लः	-685
▁ने	-686
स्ते	-687
हा	-688
ीयते	-689
▁व्यव	-690
कि	-691
▁4	-692
त्रे	-693
▁नमः	-694
▁चा	-695
▁सो	-696
शी	-697
▁योग	-698
ग्नि	-699
▁S	-700
ोः	-701
योज	-702
त्प	-703
▁की	-704
णी	-705
▁स्यात्	-706
भेद	-707
तया	-708
▁शा	-709
ैक	-710
▁७	-711
▁मां	-712
▁तस्मा	-713
▁विना	-714
त्रा	-715
ात्म	-716
▁जा	-717
▁चतु	-718
क्रम	-719
▁मान	-720
कर्म	-721
▁अति	-722
▁भाग	-723
पूर्व	-724
स्प	-725
कर्त	-726
भ्यः	-727
▁करोति	-728
▁पि	-729
कृति	-730
▁विद्या	-731
▁२०	-732
रव	-733
्यम्	-734
▁ला	-735
__	-736
ातु	-737
er	-738
र्ह	-739
▁वेद	-740
षि	-741
▁संश	-742
▁रु	-743
सह	-744
▁यद	-745
र्मा	-746
ज्ज	-747
▁तेषां	-748
▁स्था	-749
▁लोक	-750
श्चि	-751
▁१९	-752
▁एते	-753
▁5	-754
in	-755
▁अस्य	-756
म्भ	-757
▁स्प	-758
वास	-759
▁परी	-760
▁रे	-761
की	-762
▁उक्त	-763
न्तः	-764
▁द्वित	-765
▁सिद्ध	-766
▁भारत	-767
▁इदं	-768
▁भगव	-769
सो	-770
▁तर्हि	-771
▁पठ	-772
नाम	-773
ोऽपि	-774
▁पञ्च	-775
▁सदा	-776
यन	-777
्ल	-778
द्वि	-779
▁तस्या	-780
▁अह	-781
▁मू	-782
▁वर्तते	-783
रणं	-784
व्यं	-785
▁*	-786
र्द	-787
▁स्त्री	-788
▁दक्षि	-789
▁दुःख	-790
st	-791
र्घ	-792
▁वद	-793
▁0	-794
▁वयं	-795
▁अत	-796
ितो	-797
▁ततो	-798
▁रक्ष	-799
▁आग	-800
ोज	-801
र्प	-802
धः	-803
▁शक	-804
लोक	-805
▁भवेत्	-806
▁सन्ति	-807
▁आह	-808
भवत्	-809
वर्ष	-810
▁A	-811
राज	-812
वाच	-813
▁कुर्व	-814
ुव	-815
▁ज्ञान	-816
▁वर्षे	-817
▁जु	-818
मुख	-819
▁क्षे	-820
▁ड	-821
लम्	-822
ारः	-823
▁गच्छ	-824
र्भ	-825
▁इव	-826
▁सर्वं	-827
▁भविष्यति	-828
▁और	-829
र्थे	-830
▁अस्मा	-831
स्थान	-832
धी	-833
▁अयं	-834
▁राष्ट्र	-835
▁दोष	-836
▁पाप	-837
पूर्ण	-838
▁यद्य	-839
गृह	-840
क्ष्य	-841
नोति	-842
ताम्	-843
▁९	-844
ेश्व	-845
▁सत्य	-846
ेः	-847
▁जान	-848
त्वात्	-849
िर	-850
▁+	-851
व्यम्	-852
तीति	-853
हः	-854
an	-855
▁क्रिय	-856
▁प्रथम	-857
ादश	-858
ाम्	-859
मानं	-860
▁आस	-861
▁प्राण	-862
▁इह	-863
▁तथ	-864
▁वी	-865
▁भ्र	-866
▁तत	-867
तिं	-868
▁कृत्वा	-869
णो	-870
दाह	-871
▁शी	-872
▁नो	-873
▁केवलं	-874
भाषा	-875
▁यस्य	-876
▁साध	-877
▁रि	-878
कारः	-879
ेक	-880
ज्ञा	-881
▁वक्त	-882
वाह	-883
▁परिव	-884
▁नृ	-885
ोच	-886
▁क्व	-887
▁जन्म	-888
▁वाय	-889
▁प्रज	-890
▁पश्य	-891
▁उत्	-892
ण्य	-893
▁ऊ	-894
▁१०	-895
▁याव	-896
पाल	-897
ंश	-898
▁ओ	-899
थि	-900
ुम्	-901
▁सद	-902
कल्प	-903
मन	-904
ब्र	-905
मास	-906
▁सामान्य	-907
on	-908
▁घट	-909
म्य	-910
▁कल	-911
▁परम	-912
पः	-913
प्रत्य	-914
▁इत्यादि	-915
▁परं	-916
ar	-917
ैर	-918
▁पुं	-919
▁विध	-920
▁येन	-921
▁वृद्ध	-922
▁मो	-923
00	-924
र्था	-925
ारी	-926
प्राप	-927
▁प्रि	-928
न्तं	-929
हित	-930
ारं	-931
लु	-932
▁नास्ति	-933
▁पूर्ण	-934
रस्य	-935
ाये	-936
त्ति	-937
▁जल	-938
▁मनु	-939
भ्या	-940
▁अधि	-941
▁T	-942
▁रात्र	-943
▁प्रश्	-944
▁करि	-945
▁फल	-946
▁वर्ण	-947
माह	-948
▁विद्यते	-949
▁खः	-950
▁वस्तु	-951
्याय	-952
गत	-953
ह्म	-954
▁हृद	-955
▁जि	-956
▁महा	-957
्रीड	-958
र्च	-959
्यु	-960
▁किम्	-961
भ्यां	-962
रेण	-963
▁अस	-964
ष्म	-965
यस्य	-966
▁बुद्ध	-967
▁मध्य	-968
कल	-969
मात्र	-970
▁I	-971
▁वाच	-972
िति	-973
▁नव	-974
▁सौ	-975
▁प्राप्	-976
वर्ण	-977
घ्र	-978
ष्टा	-979
en	-980
▁नं	-981
▁पूज	-982
▁धन	-983
▁मध्ये	-984
िकं	-985
ारि	-986
वत्	-987
▁मुक्त	-988
▁पाठ	-989
क्षु	-990
गुण	-991
▁पुरा	-992
▁बि	-993
र्वि	-994
or	-995
माः	-996
यत	-997
▁कर	-998
▁ताव	-999
याम	-1000
▁नित	-1001
ञ्	-1002
र्न	-1003
जः	-1004
तर	-1005
फल	-1006
▁समी	-1007
शं	-1008
▁प्रभ	-1009
सर्व	-1010
at	-1011
दाय	-1012
थं	-1013
विशेष	-1014
▁यज्ञ	-1015
▁प्रस	-1016
तन्त्र	-1017
▁दृश्यते	-1018
▁से	-1019
▁अर्थ	-1020
वस	-1021
यामि	-1022
▁प्रकाश	-1023
▁भि	-1024
▁भाषा	-1025
▁लिख	-1026
▁प्रती	-1027
ृण	-1028
काले	-1029
▁6	-1030
साध	-1031
▁ले	-1032
▁राजा	-1033
▁कल्प	-1034
गे	-1035
यन्ति	-1036
नम	-1037
▁मित्र	-1038
▁सर	-1039
ीया	-1040
शो	-1041
ही	-1042
▁गो	-1043
ादृश	-1044
▁शरी	-1045
▁दृष्ट्वा	-1046
▁जात	-1047
▁शुभ	-1048
लभ	-1049
▁श्री	-1050
्म	-1051
धिः	-1052
▁ः	-1053
णाम	-1054
▁प्रे	-1055
▁ह्य	-1056
▁यू	-1057
▁शक्त	-1058
▁सर्वत्र	-1059
▁कः	-1060
▁एतत्	-1061
नस्य	-1062
टि	-1063
वं	-1064
▁चे	-1065
भूत	-1066
्यू	-1067
मुक्त	-1068
काम	-1069
दिति	-1070
नाय	-1071
▁m	-1072
ड्	-1073
परा	-1074
▁क्रिया	-1075
▁युद्ध	-1076
▁सम्ब	-1077
ुम	-1078
▁201	-1079
▁यथ	-1080
भवति	-1081
▁नग	-1082
▁अध	-1083
▁मूल	-1084
ष्यति	-1085
es	-1086
ब्ध	-1087
▁पाद	-1088
कर	-1089
ान्व	-1090
▁8	-1091
ानाम्	-1092
▁शत्र	-1093
ची	-1094
डि	-1095
▁शक्ति	-1096
▁शेष	-1097
तेन	-1098
ायं	-1099
▁प्रयोग	-1100
▁मास	-1101
न्नि	-1102
ष्यामि	-1103
om	-1104
▁सूर्य	-1105
षा	-1106
▁पुर	-1107
▁अभवत्	-1108
समा	-1109
सौ	-1110
▁आव	-1111
▁तम	-1112
ात्र	-1113
▁पश	-1114
▁स्थाप	-1115
▁पृथिव	-1116
टी	-1117
▁बल	-1118
▁युक्त	-1119
▁गुरु	-1120
▁लक्ष	-1121
▁यद्	-1122
स्त्व	-1123
▁११	-1124
▁०	-1125
▁सेव	-1126
▁काले	-1127
▁निष्	-1128
दः	-1129
ष्टं	-1130
विद्या	-1131
▁यज	-1132
प्राप्त	-1133
▁()	-1134
शत	-1135
▁तृत	-1136
▁इदान	-1137
पो	-1138
रिति	-1139
देशे	-1140
▁केवल	-1141
▁मनो	-1142
राः	-1143
▁स्थान	-1144
▁t	-1145
▁इच्छ	-1146
यात्	-1147
ड़	-1148
▁संशयः	-1149
त्वेन	-1150
▁अध्य	-1151
ैत	-1152
▁भूत	-1153
▁शिव	-1154
यन्	-1155
▁त्य	-1156
▁राज्य	-1157
▁कृते	-1158
▁प्रोक्त	-1159
ित्वा	-1160
▁ऐ	-1161
▁हो	-1162
लक्षण	-1163
▁त्वया	-1164
ायः	-1165
▁नित्य	-1166
जि	-1167
▁नः	-1168
▁P	-1169
▁नैव	-1170
▁अग्नि	-1171
▁उपयोग	-1172
▁सहस्र	-1173
येन	-1174
रोध	-1175
▁भा	-1176
▁वच	-1177
ाद्य	-1178
जं	-1179
▁उभ	-1180
धर्म	-1181
▁सी	-1182
करो	-1183
▁चिन्त	-1184
▁M	-1185
▁जायते	-1186
▁ता	-1187
पति	-1188
दृष्ट	-1189
रम	-1190
▁विभ	-1191
▁अध्या	-1192
.1	-1193
ित्या	-1194
त्वे	-1195
▁आत्म	-1196
▁भवन्ति	-1197
ृत्य	-1198
▁कार्यं	-1199
▁किम	-1200
▁विद्य	-1201
▁भेद	-1202
▁कुरु	-1203
▁अद्य	-1204
तेः	-1205
▁तमे	-1206
स्मै	-1207
▁कारण	-1208
ार्थ	-1209
▁पे	-1210
▁अस्मिन्	-1211
▁धी	-1212
▁दत्त	-1213
▁स्वयं	-1214
कस्य	-1215
▁7	-1216
वती	-1217
दू	-1218
न्थ	-1219
al	-1220
वच	-1221
▁C	-1222
निर्	-1223
▁क्रीड	-1224
▁सूचना	-1225
▁व्र	-1226
▁विप	-1227
ल्ल	-1228
जी	-1229
याम्	-1230
▁इद	-1231
ादी	-1232
ानाम	-1233
▁N	-1234
मां	-1235
▁निर्व	-1236
दश	-1237
▁शत	-1238
▁भारती	-1239
▁शक्यते	-1240
मू	-1241
▁प्रधान	-1242
स्याः	-1243
र्गः	-1244
मित्त	-1245
नानि	-1246
▁नित्यं	-1247
▁केन	-1248
▁लभ	-1249
रति	-1250
त्मा	-1251
▁अन्यथा	-1252
▁दीर्घ	-1253
दौ	-1254
ोत्त	-1255
▁संस्कृत	-1256
▁बा	-1257
▁चेत्	-1258
▁पर्व	-1259
मुप	-1260
▁तथापि	-1261
रस	-1262
ेवं	-1263
▁मात	-1264
▁कश्च	-1265
भार	-1266
ासु	-1267
नियम	-1268
▁एकः	-1269
▁निश्च	-1270
शेष	-1271
मन्त	-1272
हु	-1273
▁नी	-1274
▁आर	-1275
देशः	-1276
▁ब्रह्म	-1277
▁हस्त	-1278
▁नर	-1279
जे	-1280
▁कौ	-1281
ेष्ठ	-1282
बल	-1283
जीव	-1284
्वे	-1285
ag	-1286
िकः	-1287
▁गण	-1288
▁१२	-1289
▁स्वी	-1290
हास	-1291
टे	-1292
▁विव	-1293
पृ	-1294
▁धार	-1295
नग	-1296
▁वार	-1297
▁उत्तर	-1298
▁प्रण	-1299
▁चैव	-1300
पुत्र	-1301
▁शो	-1302
▁विज्ञ	-1303
गः	-1304
ान्ति	-1305
▁दुर्	-1306
्रा	-1307
▁१८	-1308
भु	-1309
वर्तते	-1310
पुरुष	-1311
▁स्वप्	-1312
भ्यो	-1313
▁करण	-1314
र्क	-1315
वान	-1316
वां	-1317
▁पुनर	-1318
▁क्षेत्र	-1319
ान्न	-1320
▁अस्माकं	-1321
ष्यते	-1322
क्षः	-1323
ii	-1324
साम	-1325
▁ज्ञात	-1326
नाम्	-1327
▁यतः	-1328
▁विचार	-1329
▁लेख	-1330
रूपेण	-1331
▁विज	-1332
▁क्रियते	-1333
▁उच्यते	-1334
▁किन्तु	-1335
द्रा	-1336
▁स्वर्ग	-1337
▁तो	-1338
▁ध्य	-1339
ह्य	-1340
यात	-1341
▁मृत्य	-1342
▁शक्	-1343
▁ग्रह	-1344
▁प्रवि	-1345
▁H	-1346
▁यत	-1347
भावः	-1348
धिकार	-1349
▁B	-1350
लय	-1351
इति	-1352
▁ध्व	-1353
गो	-1354
▁साक्ष	-1355
▁पूर्वं	-1356
मह	-1357
ेय	-1358
▁जनाः	-1359
▁वर्तमान	-1360
▁विकल्प	-1361
ेऽ	-1362
▁किञ्च	-1363
▁एका	-1364
▁वाम	-1365
▁गत	-1366
▁अथवा	-1367
क्तं	-1368
मनु	-1369
्वः	-1370
ष्या	-1371
तोऽ	-1372
▁१५	-1373
▁पुस्त	-1374
यितुं	-1375
मव	-1376
▁दक्षिण	-1377
▁भाषण	-1378
मेर	-1379
▁10	-1380
दत्त	-1381
▁भवतः	-1382
तुं	-1383
्वि	-1384
न्ना	-1385
▁पार	-1386
▁विषय	-1387
▁सम्बन्ध	-1388
इट	-1389
खि	-1390
निक	-1391
रूपं	-1392
ापि	-1393
कृत्य	-1394
▁दृश्य	-1395
ाहं	-1396
▁न्या	-1397
व्यः	-1398
त्वम्	-1399
▁इत्युक्त	-1400
भ्र	-1401
▁पश्च	-1402
र्द्ध	-1403
वृत्ति	-1404
▁9	-1405
ग्ने	-1406
पं	-1407
▁सव	-1408
▁रुप	-1409
्ड	-1410
मेत	-1411
ल्य	-1412
▁कोई	-1413
▁पृष्ठानि	-1414
▁ईश्व	-1415
▁उच्च	-1416
▁त्वां	-1417
▁वृत्त	-1418
शास	-1419
▁निय	-1420
▁बाह	-1421
घु	-1422
▁लोके	-1423
मिदं	-1424
्येत	-1425
क्रिया	-1426
▁तिष्ठ	-1427
▁न्	-1428
स्थाप	-1429
पद्यते	-1430
पत्त	-1431
वो	-1432
▁मार्ग	-1433
▁नियम	-1434
रू	-1435
▁मन्त्र	-1436
▁वस	-1437
▁प्रव	-1438
▁भु	-1439
▁अत्य	-1440
वेदन	-1441
गण	-1442
▁हरि	-1443
▁परमा	-1444
संधान	-1445
▁चित्र	-1446
▁ङ	-1447
▁विधि	-1448
▁कार्या	-1449
▁तप	-1450
क्षं	-1451
म्म	-1452
▁शू	-1453
▁तां	-1454
▁समुद्र	-1455
it	-1456
पर्य	-1457
शक्त	-1458
▁कृप	-1459
च्छति	-1460
बि	-1461
▁शीघ्र	-1462
▁वन	-1463
कर्ष	-1464
▁उद्	-1465
द्धि	-1466
...	-1467
ादेश	-1468
चर	-1469
मार	-1470
▁अती	-1471
न्तरं	-1472
▁योज	-1473
▁दृ	-1474
मित्य	-1475
▁माता	-1476
शास्त्र	-1477
▁इत	-1478
▁s	-1479
िनः	-1480
▁तत्त्व	-1481
▁रस	-1482
▁मुख	-1483
▁झ	-1484
कूल	-1485
▁वेब	-1486
यौ	-1487
ाला	-1488
▁>	-1489
▁उदाह	-1490
कार्य	-1491
▁वर	-1492
▁विप्र	-1493
▁विभाग	-1494
बुद्ध	-1495
▁निर्म	-1496
▁L	-1497
▁भावः	-1498
▁कम	-1499
धिकरण	-1500
सां	-1501
ैर्	-1502
▁प्रातः	-1503
स्मात्	-1504
▁तथैव	-1505
▁इत्यस्य	-1506
मार्ग	-1507
▁स्मृ	-1508
▁विस्त	-1509
▁लाभ	-1510
▁पुनर्	-1511
▁संयुक्त	-1512
▁अनुसंधान	-1513
▁शास्त्र	-1514
ज्यते	-1515
चित्र	-1516
▁बु	-1517
नात्	-1518
▁मधु	-1519
भवः	-1520
▁सन्	-1521
▁तद्व	-1522
iv	-1523
▁पर्य	-1524
▁अन्व	-1525
▁भक्त	-1526
दिष्ट	-1527
शे	-1528
हम्	-1529
▁प्रार्थ	-1530
हृ	-1531
ुत	-1532
ाया	-1533
▁सर्वेषां	-1534
नीय	-1535
▁पदा	-1536
केन	-1537
▁भवान्	-1538
▁त्वा	-1539
▁रो	-1540
▁अनेन	-1541
▁सुर	-1542
▁यं	-1543
▁सङ्	-1544
साइट	-1545
त्रि	-1546
▁क्षण	-1547
▁उद	-1548
ज्ञः	-1549
कर्ता	-1550
मम्	-1551
▁इन्द्र	-1552
१०	-1553
ित्व	-1554
रुद्ध	-1555
▁द्रष्ट	-1556
▁सूत्र	-1557
यी	-1558
20	-1559
ितानि	-1560
▁विषये	-1561
▁दैव	-1562
▁दिन	-1563
▁प्रकृति	-1564
ृतं	-1565
तन	-1566
ों	-1567
▁विकास	-1568
▁निर	-1569
थः	-1570
▁भारतीय	-1571
▁प्राप्नोति	-1572
िके	-1573
थे	-1574
▁संसार	-1575
बा	-1576
▁सम्य	-1577
▁द्वादश	-1578
ुर	-1579
▁शुद्ध	-1580
▁पिता	-1581
मानः	-1582
▁सति	-1583
▁प्रयोज	-1584
▁परिवर्त	-1585
िकी	-1586
▁गति	-1587
मस्ति	-1588
ेष्व	-1589
▁है	-1590
लिख	-1591
▁१४	-1592
ाण्ड	-1593
न्त्य	-1594
पार	-1595
▁तत्त	-1596
▁मुख्य	-1597
▁खलु	-1598
स्तथा	-1599
▁अम	-1600
▁फलं	-1601
▁इत्येत	-1602
ेषण	-1603
▁श्	-1604
▁ननु	-1605
▁वेबसाइट	-1606
▁विह	-1607
▁इदानीं	-1608
गा	-1609
▁कुर्या	-1610
▁ज्यो	-1611
▁विनि	-1612
▁कुर्वन्ति	-1613
▁सिं	-1614
षेध	-1615
प्रि	-1616
▁सर्वदा	-1617
ध्यते	-1618
▁शक्य	-1619
लक्ष	-1620
यित्वा	-1621
▁1.	-1622
ृणु	-1623
▁इत्यर्थः	-1624
▁विकि	-1625
▁विष्ण	-1626
▁परीक्षा	-1627
दो	-1628
▁सर्वा	-1629
शक्ति	-1630
▁कस्य	-1631
▁द्विती	-1632
▁समाप्त	-1633
▁स्न	-1634
भी	-1635
▁ि	-1636
▁वो	-1637
सङ्ग	-1638
▁अमेर	-1639
दपि	-1640
▁चित्त	-1641
▁दा	-1642
वरी	-1643
▁सम्बद्ध	-1644
re	-1645
स्ट	-1646
हू	-1647
षां	-1648
▁तस्मात्	-1649
कम	-1650
च्य	-1651
▁अधिकतम	-1652
▁प्रमाण	-1653
▁जू	-1654
बी	-1655
मेण	-1656
▁19	-1657
मान्	-1658
▁प्रश्न	-1659
२०	-1660
सहस्र	-1661
ेक्ष	-1662
▁...	-1663
ितवान्	-1664
▁तौ	-1665
▁भी	-1666
कृतं	-1667
▁b	-1668
▁वर्ध	-1669
▁साह	-1670
कथ	-1671
---	-1672
िकाः	-1673
म्ह	-1674
▁प्रयत्	-1675
▁पुष्	-1676
▁संख्या	-1677
▁p	-1678
जात	-1679
ान्तर	-1680
▁प्रसिद्ध	-1681
ऽऽ	-1682
▁रोग	-1683
▁भगवान्	-1684
str	-1685
▁कारणं	-1686
धं	-1687
ाग्र	-1688
▁गृहे	-1689
▁अधिनियम	-1690
▁प्रच	-1691
▁D	-1692
▁ग्राम	-1693
le	-1694
कृते	-1695
कारेण	-1696
कारं	-1697
शिष्ट	-1698
▁आप	-1699
न्दि	-1700
am	-1701
कू	-1702
व्र	-1703
▁प्रय	-1704
▁सार	-1705
ou	-1706
व्यव	-1707
र्थम्	-1708
▁यतो	-1709
▁भवे	-1710
▁१७	-1711
▁c	-1712
स्यापि	-1713
▁यावत्	-1714
▁१३	-1715
ृहं	-1716
ध्व	-1717
ाह्म	-1718
▁देवा	-1719
▁#	-1720
भे	-1721
ानी	-1722
बोध	-1723
धुना	-1724
निः	-1725
ितुं	-1726
खा	-1727
▁नू	-1728
्याव	-1729
च्छेद	-1730
दोष	-1731
▁पति	-1732
▁ण	-1733
दिश	-1734
ूनां	-1735
वै	-1736
सम्ब	-1737
घ्	-1738
युः	-1739
स्यां	-1740
ic	-1741
दुःख	-1742
▁तस्मिन्	-1743
र्ति	-1744
▁सङ्ग	-1745
सङ्	-1746
टा	-1747
तौ	-1748
विधि	-1749
सर्ग	-1750
-1	-1751
ाग्	-1752
▁ती	-1753
▁दण्ड	-1754
मध्ये	-1755
जो	-1756
संस्	-1757
▁एवम्	-1758
ारो	-1759
▁पव	-1760
विधान	-1761
▁विशि	-1762
▁समान	-1763
▁हर	-1764
▁महि	-1765
▁V	-1766
गी	-1767
तुः	-1768
▁पितृ	-1769
▁उत्पाद	-1770
▁वाक्य	-1771
▁१६	-1772
▁वृक्ष	-1773
▁श्रुत्वा	-1774
▁सक	-1775
▁सोम	-1776
▁गम	-1777
प्रयोग	-1778
टः	-1779
▁भोज	-1780
▁छात्र	-1781
लिङ्ग	-1782
▁द्वारा	-1783
▁समाचार	-1784
स्पर	-1785
▁शै	-1786
▁हेतु	-1787
पदं	-1788
न्तर	-1789
▁पक्ष	-1790
▁कर्तुं	-1791
ीः	-1792
▁दूर	-1793
▁प्रशि	-1794
ान्ते	-1795
मन्त्र	-1796
▁नै	-1797
नौ	-1798
भय	-1799
भास	-1800
▁न्यू	-1801
षण	-1802
▁एषा	-1803
▁त्या	-1804
क्ष्यामि	-1805
▁नु	-1806
▁लघु	-1807
▁लक्षण	-1808
▁पाल	-1809
▁श्व	-1810
ed	-1811
१९	-1812
▁कश्चि	-1813
दार	-1814
ष्मा	-1815
खे	-1816
ोत	-1817
▁प्रभाव	-1818
▁निर्ण	-1819
sg	-1820
▁निरा	-1821
संख्या	-1822
▁यद्यपि	-1823
ायु	-1824
ग्रे	-1825
▁अहम्	-1826
▁देशे	-1827
▁चन्द्र	-1828
▁नार	-1829
▁व्याख्या	-1830
माणं	-1831
▁निः	-1832
ाद्	-1833
▁षष्ठ	-1834
▁पश्चि	-1835
यान	-1836
sgstr	-1837
▁एकं	-1838
▁गि	-1839
▁परम्	-1840
▁बी	-1841
▁स्फ	-1842
▁f	-1843
न्नं	-1844
पत्र	-1845
स्थित	-1846
त्ते	-1847
▁धात	-1848
त्प्र	-1849
त्यं	-1850
▁---	-1851
▁इयं	-1852
▁कथा	-1853
▁कदाचित्	-1854
▁कृता	-1855
पेक्ष	-1856
▁कृतं	-1857
▁अग	-1858
न्ती	-1859
भक्त	-1860
ष्टः	-1861
ष्टि	-1862
▁प्रवेश	-1863
त्ता	-1864
वद	-1865
भावे	-1866
▁सम्बद्धानि	-1867
▁वाक	-1868
▁धन्य	-1869
▁वायु	-1870
मुच्यते	-1871
ome	-1872
▁गतः	-1873
चा	-1874
पिं	-1875
र्वा	-1876
▁सन्द	-1877
▁गत्वा	-1878
पक्ष	-1879
पात	-1880
▁जनवरी	-1881
▁उदाहरण	-1882
▁समर्थ	-1883
▁वय	-1884
वत्स	-1885
▁क्वचित्	-1886
▁मद	-1887
गं	-1888
ion	-1889
▁मै	-1890
▁अनि	-1891
▁अनेक	-1892
▁एषः	-1893
समु	-1894
▁ज्ञानं	-1895
▁अष्ट	-1896
▁a	-1897
▁d	-1898
साय	-1899
ेषाम	-1900
▁(1	-1901
रक्ष	-1902
ज्ञानं	-1903
▁द्वितीय	-1904
बु	-1905
▁मयि	-1906
▁अस्म	-1907
स्तं	-1908
विभाग	-1909
▁प्रत्यक्ष	-1910
मौ	-1911
स्ता	-1912
▁2.	-1913
▁परस्पर	-1914
▁विशेषतः	-1915
▁R	-1916
▁)	-1917
▁पौ	-1918
▁पत्र	-1919
नन्द	-1920
▁इत्येव	-1921
ेवाः	-1922
▁अक्ष	-1923
▁भारतस्य	-1924
▁सोऽ	-1925
र्म्म	-1926
▁आवश्य	-1927
▁11	-1928
पित	-1929
▁सम्प	-1930
▁चल	-1931
▁विविध	-1932
सेन	-1933
्रियां	-1934
▁अर्थः	-1935
ारे	-1936
▁मं	-1937
त्थ	-1938
▁मी	-1939
▁उद्य	-1940
▁प्राप्य	-1941
घा	-1942
हस्य	-1943
▁कति	-1944
▁इत्यनेन	-1945
करणे	-1946
ैश्च	-1947
तस्य	-1948
▁अवि	-1949
is	-1950
मेन	-1951
विषय	-1952
ताम	-1953
▁सै	-1954
वन्तः	-1955
माय	-1956
फलं	-1957
योजन	-1958
साधन	-1959
▁n	-1960
किं	-1961
▁गौ	-1962
▁तर	-1963
▁प्रत्या	-1964
ागर	-1965
▁राम	-1966
▁प्राय	-1967
.0	-1968
र्त्त	-1969
▁पृथक्	-1970
राज्य	-1971
ादौ	-1972
▁स्य	-1973
▁हिं	-1974
▁अयम्	-1975
११	-1976
वन	-1977
ान्तः	-1978
ासि	-1979
▁अज	-1980
विषये	-1981
ent	-1982
न्तो	-1983
▁कीदृश	-1984
▁पार्थ	-1985
▁यान	-1986
▁प्रतिष्ठ	-1987
माद	-1988
श्रु	-1989
ेत्य	-1990
▁भूमि	-1991
▁ध्यान	-1992
करणं	-1993
▁श्रेष्ठ	-1994
रुण	-1995
लेख	-1996
▁दान	-1997
▁इत्यत्र	-1998
▁प्रो	-1999
तेषु	-2000
▁12	-2001
▁सत	-2002
स्स	-2003
▁मनः	-2004
भः	-2005
गतं	-2006
न्धि	-2007
मात्	-2008
न्दु	-2009
▁जी	-2010
क्ष्म	-2011
▁कृपया	-2012
एव	-2013
▁मनुष्य	-2014
▁सर्व्व	-2015
कारण	-2016
सेव	-2017
नापि	-2018
ध्	-2019
▁खे	-2020
▁पं	-2021
मति	-2022
ारु	-2023
▁क्रि	-2024
ोर	-2025
नव	-2026
▁अङ्ग	-2027
▁तेषु	-2028
मत	-2029
▁Tag	-2030
हर	-2031
▁ददा	-2032
ाव्य	-2033
प्रा	-2034
▁थ्व	-2035
▁बन्ध	-2036
▁<	-2037
वाः	-2038
त्तर	-2039
▁विद्व	-2040
िकित्	-2041
▁रूपं	-2042
▁प्रथमं	-2043
सृ	-2044
ष्व	-2045
चित्त	-2046
स्क	-2047
▁लु	-2048
ीप	-2049
▁मत	-2050
ृतम्	-2051
▁जना	-2052
▁ज्योति	-2053
नाश	-2054
▁अव्य	-2055
▁नेवाः	-2056
षः	-2057
दिना	-2058
▁Home	-2059
▁कर्ण	-2060
कृतिः	-2061
▁कुत्र	-2062
लस्य	-2063
▁वह	-2064
▁उत्स	-2065
वृद्ध	-2066
शाल	-2067
▁वापि	-2068
ुक्तं	-2069
▁मन्त	-2070
▁शान्त	-2071
▁बुद्धि	-2072
lo	-2073
▁स्र	-2074
मय	-2075
▁अधो	-2076
▁भवित	-2077
▁भो	-2078
ज्	-2079
दृ	-2080
सन्ध	-2081
▁ज्व	-2082
▁पश्यति	-2083
ायै	-2084
डिया	-2085
यमेव	-2086
ितां	-2087
▁वर्ग	-2088
▁E	-2089
स्त्य	-2090
स्वरूप	-2091
रुप	-2092
▁Ne	-2093
▁शृणु	-2094
ेयं	-2095
▁केन्द्र	-2096
चः	-2097
ानाति	-2098
▁याति	-2099
ष्ये	-2100
▁क्रम	-2101
▁O	-2102
िंश	-2103
भेदे	-2104
▁अधिकार	-2105
रात्र	-2106
▁रात्रौ	-2107
▁विज्ञान	-2108
लाः	-2109
▁स्थि	-2110
▁सम्प्र	-2111
▁प्रवर्त	-2112
हिता	-2113
णाम्	-2114
मम	-2115
▁ज्या	-2116
इगु	-2117
▁बृह	-2118
▁परीक्षण	-2119
चे	-2120
नया	-2121
ेदं	-2122
माना	-2123
▁प्रया	-2124
▁तस्याः	-2125
▁देह	-2126
▁ङी	-2127
▁हित	-2128
▁परमेश्व	-2129
रणे	-2130
▁व्यक्त	-2131
१२	-2132
▁न्याय	-2133
▁शत्रु	-2134
▁शिक्ष	-2135
सर	-2136
▁दृढ	-2137
▁गा	-2138
▁नम	-2139
▁गच्छति	-2140
▁जलं	-2141
▁निज	-2142
▁न्य	-2143
प्प	-2144
▁सां	-2145
कृता	-2146
लये	-2147
ब्दा	-2148
▁ब्रू	-2149
▁सृष्ट	-2150
मिव	-2151
▁चापि	-2152
▁यूयं	-2153
▁द्विज	-2154
▁लिङ्ग	-2155
▁देवानां	-2156
कौ	-2157
्यात्	-2158
▁मण्ड	-2159
पदा	-2160
▁२००	-2161
▁कृष्ण	-2162
▁निवेद	-2163
▁देवता	-2164
▁पार्	-2165
तिक	-2166
▁अप्र	-2167
बं	-2168
▁याः	-2169
िको	-2170
▁पुण्य	-2171
▁G	-2172
स्तस्य	-2173
▁तादृश	-2174
योर	-2175
सुख	-2176
गतः	-2177
▁धर्मा	-2178
ग्ध	-2179
ेकं	-2180
▁वित्त	-2181
लोप	-2182
रेत्	-2183
वर	-2184
▁भय	-2185
लम्ब	-2186
▁अथा	-2187
▁धनं	-2188
ch	-2189
▁ख्या	-2190
▁तया	-2191
▁रोच	-2192
▁किमपि	-2193
१५	-2194
▁$	-2195
▁15	-2196
▁अना	-2197
▁गृही	-2198
ौक	-2199
▁18	-2200
न्यं	-2201
▁नृप	-2202
▁आद	-2203
विक	-2204
लोके	-2205
▁प्रश	-2206
▁पत	-2207
▁ग्रन्थ	-2208
डा	-2209
▁टि	-2210
▁विश्वा	-2211
▁प्रतिदि	-2212
▁इदम्	-2213
्रियते	-2214
▁घोष	-2215
▁चक्र	-2216
▁स्तु	-2217
▁ठ	-2218
▁त्रि०	-2219
▁प्रथमा	-2220
्येन	-2221
ad	-2222
नय	-2223
▁कर्त्त	-2224
▁शीत	-2225
रिक्त	-2226
साद	-2227
▁समर्प	-2228
ीयम्	-2229
▁गते	-2230
▁ग्राह	-2231
राष्ट्र	-2232
▁यत्त	-2233
▁कश्चित्	-2234
्रे	-2235
▁वः	-2236
ीनां	-2237
ंस	-2238
टो	-2239
टक	-2240
ाप्	-2241
ग्री	-2242
▁अध्ययन	-2243
▁प्रवृत्त	-2244
ीर	-2245
▁→	-2246
द्द	-2247
हां	-2248
▁राज्यं	-2249
▁रम	-2250
प्रभ	-2251
▁सुखं	-2252
वण	-2253
▁माम	-2254
क्स	-2255
ाप्य	-2256
▁कृतम्	-2257
भिर	-2258
▁सम्भव	-2259
ण्ठ	-2260
ाय्	-2261
▁अश्व	-2262
मण्ड	-2263
▁msgstr	-2264
as	-2265
▁शास	-2266
▁कोऽपि	-2267
▁दिने	-2268
कारस्य	-2269
कृष्ट	-2270
▁प्रायः	-2271
हितः	-2272
▁द्वे	-2273
▁परिणाम	-2274
▁ह्र	-2275
राणां	-2276
▁कालः	-2277
स्थाने	-2278
विंश	-2279
▁तिथि	-2280
▁याये	-2281
▁देवाः	-2282
▁सूच	-2283
▁अधुना	-2284
▁कन्या	-2285
षी	-2286
▁तै	-2287
▁कृतः	-2288
▁माया	-2289
▁व्यवहार	-2290
ायत	-2291
ासी	-2292
▁तम्	-2293
▁पुरुषः	-2294
he	-2295
िन	-2296
▁हा	-2297
.2	-2298
▁स्थित	-2299
पत्	-2300
माज	-2301
िनी	-2302
सत	-2303
▁देहि	-2304
▁इत्यु	-2305
▁विवाह	-2306
▁विस्म	-2307
न्नः	-2308
माने	-2309
▁मत्	-2310
देह	-2311
▁श्रद्ध	-2312
१४	-2313
▁ं	-2314
▁वने	-2315
▁२५	-2316
ज्ञात	-2317
त्वाद	-2318
▁सत्यं	-2319
यय	-2320
▁स्तो	-2321
धारण	-2322
स्तव	-2323
स्ताव	-2324
१८	-2325
ङ्के	-2326
मन्य	-2327
▁अहो	-2328
र्यं	-2329
▁पाव	-2330
भिप्र	-2331
▁स्वभाव	-2332
स्थानं	-2333
ाहि	-2334
▁आकाश	-2335
▁प्रतिपाद	-2336
▁स्वतन्त्र	-2337
ाले	-2338
▁२२	-2339
ष्ट्रिय	-2340
कारि	-2341
▁मुनि	-2342
शय	-2343
▁गोप	-2344
कानां	-2345
त्त्वं	-2346
भागे	-2347
il	-2348
▁रथ	-2349
र्हि	-2350
वर्ज	-2351
▁निवेश	-2352
ूनि	-2353
▁दै	-2354
▁F	-2355
्येण	-2356
▁नेपाल	-2357
ून	-2358
ट्ट	-2359
वादः	-2360
▁छुं	-2361
हिं	-2362
▁साक्षात्	-2363
मित	-2364
राय	-2365
▁वित	-2366
▁जातः	-2367
▁o	-2368
ing	-2369
तरं	-2370
पृष्ठ	-2371
ce	-2372
ूह	-2373
▁l	-2374
मात्म	-2375
ेतुः	-2376
▁मिथ	-2377
▁स्वयम्	-2378
▁तुल	-2379
▁प्री	-2380
▁{	-2381
परी	-2382
▁अभ	-2383
▁महोद	-2384
▁धि	-2385
▁इतिहास	-2386
स्तत्र	-2387
vi	-2388
▁एतद	-2389
▁२१	-2390
▁कुतः	-2391
▁संप्र	-2392
▁तृ	-2393
▁धा	-2394
र्भव	-2395
▁प्राप्ते	-2396
▁चेत	-2397
▁वार्त	-2398
धानं	-2399
▁अतो	-2400
धनं	-2401
ान्तं	-2402
यामास	-2403
▁स्त्रियां	-2404
पुर	-2405
विधा	-2406
▁कुश	-2407
▁स्थाने	-2408
गति	-2409
नुव	-2410
पञ्च	-2411
स्यते	-2412
▁भवता	-2413
ानुसार	-2414
▁•	-2415
▁आसन्	-2416
▁व्यक्ति	-2417
ाद्व	-2418
▁सन्त	-2419
▁करोमि	-2420
पूज	-2421
शब्दः	-2422
▁कर्तव्य	-2423
▁सत्	-2424
चिन्त	-2425
▁तानि	-2426
योऽ	-2427
▁द्वौ	-2428
▁मन्य	-2429
▁त्यक्त	-2430
▁आः	-2431
▁देवी	-2432
▁यम	-2433
▁रक्त	-2434
लेश	-2435
▁तू	-2436
▁प्रदेश	-2437
लव	-2438
▁U	-2439
श्यं	-2440
मन्त्री	-2441
यव	-2442
▁भवतु	-2443
▁अन्ये	-2444
▁शीघ्रं	-2445
ताव	-2446
च्छि	-2447
ोऽयं	-2448
पुं	-2449
ादिति	-2450
▁रुपये	-2451
त्पाद	-2452
▁कू	-2453
▁पदं	-2454
▁दिना	-2455
▁मूर्	-2456
एस	-2457
नैः	-2458
▁परे	-2459
स्थितः	-2460
पक	-2461
▁दुर्लभ	-2462
▁सर्वाणि	-2463
▁शरीर	-2464
मतः	-2465
▁धू	-2466
▁प्रतिशत	-2467
कृतः	-2468
▁कं	-2469
हितं	-2470
िकम्	-2471
▁गृह्	-2472
निष्ठ	-2473
▁स्थानं	-2474
दय	-2475
१७	-2476
धिप	-2477
तिष्ठ	-2478
▁आचार	-2479
▁कथम्	-2480
रवरी	-2481
▁विश्ल	-2482
ञ्छ	-2483
मूल	-2484
रणम्	-2485
ाम्य	-2486
डी	-2487
रत	-2488
नतः	-2489
स्त्वं	-2490
▁३०	-2491
संज्ञ	-2492
▁विदेश	-2493
योक्त	-2494
▁प्रदर्श	-2495
▁तदेव	-2496
▁मानु	-2497
▁तावत्	-2498
▁प्रशिक्षण	-2499
नाव	-2500
रित	-2501
▁अं	-2502
▁प्राची	-2503
▁..	-2504
▁कुल	-2505
▁श्रू	-2506
▁परिभाषा	-2507
राणि	-2508
▁गृहं	-2509
▁&	-2510
येत	-2511
क्ष्	-2512
▁पाठः	-2513
मृ	-2514
-2	-2515
▁ध्र	-2516
१३	-2517
▁इं	-2518
योगः	-2519
▁तद्य	-2520
यथा	-2521
▁14	-2522
णेन	-2523
▁किल	-2524
टु	-2525
ारम्भ	-2526
▁सम्पाद	-2527
▁स्वरूप	-2528
यनं	-2529
▁विर	-2530
क्षेप	-2531
ग्न	-2532
ांश	-2533
▁इत्	-2534
▁गाय	-2535
▁विन	-2536
कानि	-2537
्याम	-2538
तीत्य	-2539
▁संस्था	-2540
राग	-2541
कालं	-2542
▁धारा	-2543
▁समास	-2544
स्मिन्न	-2545
▁टी	-2546
▁मौ	-2547
▁लाख	-2548
जु	-2549
▁२४	-2550
स्वा	-2551
▁भर्त	-2552
▁राक्ष	-2553
▁प्रकृत	-2554
▁उपयोगकर्ता	-2555
▁भोग	-2556
▁उपरि	-2557
▁वचनं	-2558
▁नाम्	-2559
ाभि	-2560
श्चैव	-2561
▁श्रो	-2562
▁मृत्यु	-2563
त्तम	-2564
▁शब्दः	-2565
▁प्रयुक्त	-2566
धात	-2567
ीकरण	-2568
▁उत्प	-2569
▁स्ने	-2570
▁वह्	-2571
▁विकिपी	-2572
हन	-2573
क्तिः	-2574
म्प	-2575
न्दो	-2576
▁गन्ध	-2577
रोग	-2578
स्फ	-2579
▁कर्ता	-2580
▁क्रोध	-2581
ीयः	-2582
▁सच	-2583
▁नदी	-2584
▁भयं	-2585
ब्रवी	-2586
विद	-2587
वाक्य	-2588
लन	-2589
▁जाय	-2590
▁जानाति	-2591
धाय	-2592
मात्रं	-2593
पाठ	-2594
द्यः	-2595
▁प्ल	-2596
ोक्तं	-2597
प्रथ	-2598
दात्त	-2599
▁पूजा	-2600
▁ब्राह्म	-2601
▁प्रत्येकं	-2602
नात	-2603
पाप	-2604
▁धातु	-2605
▁लब्ध	-2606
▁दिव्य	-2607
ानः	-2608
ृति	-2609
▁An	-2610
ष्टे	-2611
स्ती	-2612
स्थि	-2613
▁प्रिय	-2614
▁पृथिवी	-2615
"।	-2616
▁ममा	-2617
▁प्रत्यय	-2618
▁]	-2619
▁जाता	-2620
▁मातृ	-2621
स्त्रि	-2622
▁परन्तु	-2623
भोग	-2624
▁मानव	-2625
▁समाज	-2626
▁प्राग	-2627
ेह	-2628
साह	-2629
पद्य	-2630
विः	-2631
▁२६	-2632
▁२७	-2633
▁पदे	-2634
▁युव	-2635
▁जगत्	-2636
▁तद्वि	-2637
▁कव	-2638
▁आयु	-2639
▁देवि	-2640
▁पृष्ट	-2641
निमित्त	-2642
भं	-2643
▁विरा	-2644
▁पात	-2645
▁समय	-2646
▁जाग	-2647
▁वत्स	-2648
▁अमेरिका	-2649
ार्थं	-2650
ुट	-2651
दानं	-2652
भिन्न	-2653
▁दुष्	-2654
स्माकं	-2655
▁तः	-2656
गच्छ	-2657
▁//	-2658
बद्ध	-2659
▁चक्षु	-2660
ामः	-2661
▁चर	-2662
▁मय	-2663
भ्यं	-2664
विश्व	-2665
करोत्	-2666
्यताम्	-2667
▁तन्	-2668
्येष्ठ	-2669
▁निमित्त	-2670
▁व्यवसाय	-2671
▁यश	-2672
▁क्षि	-2673
ादीनां	-2674
पदे	-2675
▁बाध	-2676
▁सदस्य	-2677
▁संभव	-2678
▁निवृत्त	-2679
ृतः	-2680
मस्य	-2681
▁परमं	-2682
कुर्व	-2683
िकल्प	-2684
▁कला	-2685
▁मृत	-2686
दक्षि	-2687
▁चिकित्	-2688
et	-2689
ीन	-2690
लेन	-2691
▁कै	-2692
१६	-2693
ीयं	-2694
्यादि	-2695
▁स्त्रि	-2696
▁तस्मै	-2697
षं	-2698
भूव	-2699
▁यौ	-2700
▁पत्	-2701
▁शिक्षा	-2702
▁पो	-2703
▁अल्प	-2704
▁स्थिति	-2705
▁पुण	-2706
मिच्छ	-2707
ay	-2708
वाय	-2709
हीं	-2710
ेषा	-2711
कारे	-2712
▁प्रक	-2713
उप	-2714
ामी	-2715
▁बहि	-2716
▁शेषः	-2717
▁स्पष्ट	-2718
▁समस्त	-2719
दम्	-2720
▁दिवस	-2721
भावात्	-2722
कैः	-2723
▁अश	-2724
ादेव	-2725
भाग्य	-2726
▁अर्था	-2727
ेर	-2728
ेते	-2729
रक्षण	-2730
ात्मा	-2731
ab	-2732
▁पूर	-2733
त्रापि	-2734
▁शस्त्र	-2735
▁खोज	-2736
▁प्रोक्तं	-2737
▁सम्पूर्ण	-2738
णु	-2739
▁अल	-2740
ेषाम्	-2741
▁महत्व	-2742
▁थः	-2743
▁न्ह	-2744
त्येव	-2745
▁बहुधा	-2746
ख्यान	-2747
▁एतेन	-2748
▁लभते	-2749
क्षेत्र	-2750
दिव	-2751
यतु	-2752
▁उत	-2753
हस्त	-2754
धिष्ठ	-2755
देशस्य	-2756
बाह	-2757
▁ब्रह्	-2758
रात्	-2759
हेतु	-2760
▁महत्	-2761
▁कर्मा	-2762
▁न्याया	-2763
स्तदा	-2764
▁सदैव	-2765
▁पीड	-2766
▁क्षु	-2767
▁भक्ष	-2768
▁इत्यादिना	-2769
▁सृ	-2770
▁स्याद	-2771
र्हति	-2772
दयः	-2773
▁13	-2774
▁भ्रम	-2775
▁पिब	-2776
▁वास	-2777
▁येषां	-2778
खण्ड	-2779
▁निक	-2780
▁पु०	-2781
▁वरि	-2782
▁पुत्रः	-2783
▁सम्भवति	-2784
▁आश्र	-2785
▁अभ्या	-2786
▁इदानी	-2787
▁ददाति	-2788
▁तान्	-2789
कारो	-2790
▁प्राणि	-2791
▁शं	-2792
श्चा	-2793
▁हरे	-2794
▁भेदः	-2795
▁यानि	-2796
21	-2797
न्ये	-2798
समये	-2799
▁सर्वेषु	-2800
▁3.	-2801
▁एस	-2802
र्नि	-2803
तायाः	-2804
▁राज्ञ	-2805
सद	-2806
धातु	-2807
ष्टो	-2808
▁जूगु	-2809
ोऽहं	-2810
▁एवा	-2811
▁युग	-2812
▁वय्	-2813
घट	-2814
ोड	-2815
करं	-2816
काय	-2817
ितम	-2818
यन्त	-2819
संयुक्त	-2820
थाः	-2821
▁तच्च	-2822
द्वारा	-2823
▁जानामि	-2824
▁कृतवान्	-2825
ot	-2826
▁पुरस्	-2827
▁फरवरी	-2828
नीं	-2829
ख्ये	-2830
भूमि	-2831
▁जुइ	-2832
गुणं	-2833
▁ग्री	-2834
▁ज्ञे	-2835
SS	-2836
▁भज	-2837
▁चेति	-2838
▁अग्ने	-2839
▁इत्याह	-2840
▁गर्भ	-2841
श्रेष्ठ	-2842
चिद	-2843
वचन	-2844
▁भारते	-2845
▁17	-2846
प्ति	-2847
▁गन्त	-2848
▁पेपर	-2849
▁वृद्धि	-2850
पाः	-2851
स्यति	-2852
्यस्य	-2853
▁क्षमा	-2854
▁पार्श्व	-2855
स्थं	-2856
▁केश	-2857
▁प्रजाप	-2858
याय	-2859
▁चै	-2860
▁विमान	-2861
▁स्थितः	-2862
प्स	-2863
▁ध्वनि	-2864
▁सत्त्व	-2865
यिष्यामि	-2866
▁कर्तव्यं	-2867
क्षते	-2868
▁विधीयते	-2869
▁शृ	-2870
चेत	-2871
▁अभ्य	-2872
▁तृतीय	-2873
▁अतीव	-2874
स्मान्	-2875
पत	-2876
ालि	-2877
▁हृदय	-2878
▁परस्प	-2879
▁कर्मणि	-2880
मप	-2881
करः	-2882
नानां	-2883
▁प्रह	-2884
प्रकाश	-2885
ूढ	-2886
प्तं	-2887
ारण	-2888
▁दो	-2889
▁एतद्	-2890
विज्ञान	-2891
ाली	-2892
▁आई	-2893
▁सामाज	-2894
ितौ	-2895
▁अय	-2896
▁चत्व	-2897
▁रात्रि	-2898
लयः	-2899
▁कथ्यते	-2900
णाति	-2901
▁नाय	-2902
▁कुर्यात्	-2903
भो	-2904
▁चु	-2905
क्रमः	-2906
ङ्ग्ल	-2907
ान्तरे	-2908
▁त्वम्	-2909
▁भक्ति	-2910
▁ताप	-2911
▁विवे	-2912
▁वैश्व	-2913
ासा	-2914
▁२३	-2915
ज्या	-2916
सप्त	-2917
▁उत्तम	-2918
▁पुष्प	-2919
▁अस्मि	-2920
▁विधान	-2921
रौ	-2922
ध्यायः	-2923
▁करिष्यामि	-2924
▁नरः	-2925
ग्राम	-2926
▁दुःखं	-2927
दिने	-2928
▁कथितं	-2929
▁तिष्ठति	-2930
ol	-2931
अनु	-2932
घात	-2933
▁हृदि	-2934
▁भिन्न	-2935
▁विषयः	-2936
▁निवर्त	-2937
▁विकिपीडिया	-2938
ग्राह	-2939
▁मेरे	-2940
▁सञ्च	-2941
ितानां	-2942
▁युष्मा	-2943
▁मरु	-2944
ान्या	-2945
▁अन्यत्र	-2946
▁षड	-2947
▁परिच	-2948
▁टिप्प	-2949
▁दर्शयति	-2950
धन	-2951
रां	-2952
ेनैव	-2953
ैर्य	-2954
▁उवाच	-2955
चिद्	-2956
वादि	-2957
▁पश्चात्	-2958
ादु	-2959
र्थो	-2960
▁ताम	-2961
कृतम्	-2962
▁नाट	-2963
धीयते	-2964
ऽहं	-2965
पुरा	-2966
ासां	-2967
सूत्र	-2968
▁विपरी	-2969
▁सम्यक्	-2970
जाः	-2971
▁थु	-2972
▁तन्म	-2973
षो	-2974
▁साव	-2975
▁संस्थ	-2976
▁शुक्र	-2977
दिन	-2978
रोप	-2979
भूतं	-2980
▁अने	-2981
▁नाश	-2982
us	-2983
न्ने	-2984
▁कीर्त	-2985
वत	-2986
िना	-2987
▁शोभ	-2988
स्त्री	-2989
▁मध्यम	-2990
ष्यन्ति	-2991
▁में	-2992
▁वाद	-2993
▁देवः	-2994
ग्रहणं	-2995
ितु	-2996
▁खँ	-2997
ार्त	-2998
स्ततः	-2999
▁प्रेष	-3000
▁	-3001
्	-3002
ा	-3003
त	-3004
र	-3005
ि	-3006
य	-3007
न	-3008
व	-3009
स	-3010
म	-3011
े	-3012
क	-3013
प	-3014
ं	-3015
द	-3016
ः	-3017
ु	-3018
।	-3019
ष	-3020
श	-3021
ो	-3022
ह	-3023
च	-3024
भ	-3025
ी	-3026
ल	-3027
ग	-3028
ध	-3029
अ	-3030
ण	-3031
ज	-3032
थ	-3033
ृ	-3034
-	-3035
ू	-3036
इ	-3037
ब	-3038
.	-3039
ट	-3040
ै	-3041
॥	-3042
ए	-3043
,	-3044
ख	-3045
आ	-3046
"	-3047
उ	-3048
ञ	-3049
ौ	-3050
१	-3051
(	-3052
ऽ	-3053
)	-3054
०	-3055
ड	-3056
ङ	-3057
२	-3058
_	-3059
ठ	-3060
छ	-3061
'	-3062
1	-3063
e	-3064
घ	-3065
a	-3066
2	-3067
0	-3068
?	-3069
i	-3070
फ	-3071
s	-3072
३	-3073
o	-3074
४	-3075
t	-3076
५	-3077
r	-3078
n	-3079
॒	-3080
९	-3081
६	-3082
७	-3083
८	-3084
3	-3085
ई	-3086
/	-3087
:	-3088
4	-3089
l	-3090
5	-3091
ॊ	-3092
॑	-3093
!	-3094
m	-3095
d	-3096
8	-3097
9	-3098
c	-3099
S	-3100
6	-3101
7	-3102
=	-3103
[	-3104
g	-3105
]	-3106
u	-3107
h	-3108
ँ	-3109
p	-3110
;	-3111
ढ	-3112
y	-3113
+	-3114
औ	-3115
ऋ	-3116
v	-3117
A	-3118
I	-3119
़	-3120
*	-3121
b	-3122
ॐ	-3123
T	-3124
f	-3125
P	-3126
C	-3127
ओ	-3128
>	-3129
k	-3130
ऊ	-3131
N	-3132
w	-3133
झ	-3134
E	-3135
M	-3136
D	-3137
B	-3138
x	-3139
R	-3140
L	-3141
॰	-3142
H	-3143
#	-3144
ऐ	-3145
O	-3146
F	-3147
ळ	-3148
ॆ	-3149
V	-3150
ॉ	-3151
G	-3152
U	-3153
@	-3154
ॄ	-3155
%	-3156
$	-3157
{	-3158
<	-3159
}	-3160
X	-3161
K	-3162
&	-3163
W	-3164
•	-3165
→	-3166
j	-3167
J	-3168
Y	-3169
z	-3170
ऑ	-3171
Q	-3172
~	-3173
ꣳ	-3174
ॅ	-3175
←	-3176
^	-3177
q	-3178
̣	-3179
·	-3180
ऎ	-3181
ā	-3182
᳚	-3183
↑	-3184
°	-3185
ʻ	-3186
ऩ	-3187
ʼ	-3188
̇	-3189
\	-3190
Z	-3191
›	-3192
►	-3193
ऱ	-3194
᳘	-3195
×	-3196
¦	-3197
്	-3198
Í	-3199
ऌ	-3200
̄	-3201
̐	-3202
ॠ	-3203
உ	-3204
о	-3205
÷	-3206
‖	-3207
️	-3208
а	-3209
−	-3210
ḥ	-3211
●	-3212
🙏	-3213
€	-3214
Ś	-3215
ર	-3216
்	-3217
ū	-3218
≤	-3219
ऍ	-3220
્	-3221
́	-3222
ا	-3223
е	-3224
н	-3225
¬	-3226
ॢ	-3227
ા	-3228
р	-3229
ऴ	-3230
л	-3231
₹	-3232
ü	-3233
т	-3234
৷	-3235
и	-3236
Ø	-3237
é	-3238
σ	-3239
ə	-3240
ന	-3241
√	-3242
ī	-3243
£	-3244
с	-3245
👉	-3246
꣢	-3247
ś	-3248
в	-3249
ل	-3250
ക	-3251
ṣ	-3252
д	-3253
★	-3254
ન	-3255
ാ	-3256
‐	-3257
ь	-3258
॓	-3259
ી	-3260
≥	-3261
◆	-3262
ம	-3263
✔	-3264
ત	-3265
ி	-3266
ー	-3267
꣣	-3268
ે	-3269
ா	-3270
ി	-3271
ં	-3272
મ	-3273
த	-3274
ു	-3275
‡	-3276
⇒	-3277
❍	-3278
🔊	-3279
á	-3280
î	-3281
¥	-3282
ñ	-3283
¢	-3284
ن	-3285
꣡	-3286
ó	-3287
Ž	-3288
ர	-3289
🙂	-3290
©	-3291
м	-3292
ത	-3293
⁄	-3294
🇳	-3295
🪔	-3296
§	-3297
у	-3298
я	-3299
ر	-3300
م	-3301
ي	-3302
ऄ	-3303
જ	-3304
ો	-3305
ṇ	-3306
і	-3307
【	-3308
🇮	-3309
ˆ	-3310
к	-3311
་	-3312
🚩	-3313
ı	-3314
🌷	-3315
б	-3316
й	-3317
ऺ	-3318
್	-3319
】	-3320
¤	-3321
ç	-3322
í	-3323
̥	-3324
ક	-3325
ய	-3326
ര	-3327
വ	-3328
語	-3329
🌹	-3330
ு	-3331
י	-3332
વ	-3333
ப	-3334
வ	-3335
♦	-3336
Î	-3337
ː	-3338
г	-3339
з	-3340
্	-3341
આ	-3342
∕	-3343
à	-3344
è	-3345
ˈ	-3346
പ	-3347
া	-3348
સ	-3349
ം	-3350
ട	-3351
െ	-3352
ᳪ	-3353
Ó	-3354
د	-3355
س	-3356
க	-3357
ந	-3358
❌	-3359
®	-3360
п	-3361
ц	-3362
ऒ	-3363
ন	-3364
ன	-3365
ನ	-3366
യ	-3367
✅	-3368
ع	-3369
ه	-3370
ತ	-3371
ങ	-3372
മ	-3373
ṭ	-3374
い	-3375
ö	-3376
х	-3377
ی	-3378
ত	-3379
પ	-3380
બ	-3381
ல	-3382
ಾ	-3383
ṛ	-3384
†	-3385
ィ	-3386
🔥	-3387
â	-3388
ɪ	-3389
ب	-3390
ऻ	-3391
ি	-3392
હ	-3393
ರ	-3394
അ	-3395
‹	-3396
⇄	-3397
✍	-3398
🛑	-3399
ú	-3400
ɑ	-3401
С	-3402
ж	-3403
ו	-3404
র	-3405
ગ	-3406
్	-3407
ಿ	-3408
ച	-3409
ല	-3410
᳭	-3411
ン	-3412
🌺	-3413
¡	-3414
±	-3415
ï	-3416
ş	-3417
̊	-3418
μ	-3419
ы	-3420
॔	-3421
િ	-3422
⋙	-3423
■	-3424
▲	-3425
❑	-3426
🌞	-3427
📖	-3428
Ï	-3429
ã	-3430
ł	-3431
š	-3432
̈	-3433
М	-3434
و	-3435
ܘ	-3436
ॡ	-3437
ম	-3438
એ	-3439
છ	-3440
ય	-3441
ು	-3442
ദ	-3443
ോ	-3444
၊	-3445
✓	-3446
❤	-3447
➧	-3448
🏻	-3449
🕉	-3450
α	-3451
Б	-3452
ت	-3453
ু	-3454
ದ	-3455
ṃ	-3456
′	-3457
∠	-3458
◎	-3459
ヒ	-3460
一	-3461
语	-3462
ê	-3463
ʊ	-3464
ю	-3465
ה	-3466
ى	-3467
ک	-3468
ক	-3469
দ	-3470
૧	-3471
அ	-3472
ి	-3473
ಂ	-3474
ಲ	-3475
ണ	-3476
ള	-3477
❯	-3478
。	-3479
し	-3480
の	-3481
デ	-3482
マ	-3483
🌸	-3484
💐	-3485
😂	-3486
¶	-3487
Þ	-3488
İ	-3489
ʃ	-3490
̃	-3491
ч	-3492
א	-3493
ב	-3494
য	-3495
ુ	-3496
ం	-3497
న	-3498
ర	-3499
ಸ	-3500
ᄌ	-3501
ḍ	-3502
ṁ	-3503
◉	-3504
◌	-3505
☝	-3506
➡	-3507
図	-3508
大	-3509
書	-3510
月	-3511
À	-3512
È	-3513
̶	-3514
Х	-3515
щ	-3516
ר	-3517
ش	-3518
ব	-3519
ল	-3520
স	-3521
ে	-3522
ટ	-3523
શ	-3524
ழ	-3525
ಕ	-3526
ಗ	-3527
ವ	-3528
೦	-3529
റ	-3530
േ	-3531
▶	-3532
◦	-3533
☆	-3534
⭐	-3535
か	-3536
ラ	-3537
增	-3538
전	-3539
💮	-3540
🔱	-3541
😊	-3542
Æ	-3543
Ç	-3544
Ü	-3545
ý	-3546
ē	-3547
Š	-3548
ɛ	-3549
П	-3550
ט	-3551
ס	-3552
ॿ	-3553
আ	-3554
ো	-3555
ਕ	-3556
થ	-3557
દ	-3558
ળ	-3559
ட	-3560
ண	-3561
ெ	-3562
య	-3563
వ	-3564
ు	-3565
ಡ	-3566
ಯ	-3567
ೆ	-3568
ശ	-3569
സ	-3570
ൊ	-3571
∆	-3572
▪	-3573
♂	-3574
♥	-3575
お	-3576
つ	-3577
テ	-3578
余	-3579
名	-3580
音	-3581
다	-3582
🔹	-3583
Ê	-3584
æ	-3585
ĉ	-3586
ō	-3587
ž	-3588
̧	-3589
θ	-3590
π	-3591
В	-3592
Д	-3593
Т	-3594
є	-3595
מ	-3596
ء	-3597
ح	-3598
ز	-3599
ق	-3600
گ	-3601
ܬ	-3602
উ	-3603
হ	-3604
ਾ	-3605
ણ	-3606
ભ	-3607
எ	-3608
ற	-3609
ோ	-3610
త	-3611
మ	-3612
ా	-3613
ಳ	-3614
എ	-3615
ധ	-3616
∴	-3617
す	-3618
な	-3619
パ	-3620
ル	-3621
年	-3622
行	-3623
꣯	-3624
사	-3625
🌻	-3626
🌿	-3627
🍃	-3628
🔅	-3629
Û	-3630
Ā	-3631
Œ	-3632
Ş	-3633
ż	-3634
ǁ	-3635
ˌ	-3636
ς	-3637
φ	-3638
Ј	-3639
А	-3640
Н	-3641
Р	-3642
ш	-3643
э	-3644
ל	-3645
ة	-3646
ف	-3647
ہ	-3648
۔	-3649
ە	-3650
জ	-3651
থ	-3652
প	-3653
়	-3654
ਰ	-3655
ੀ	-3656
અ	-3657
ઉ	-3658
ି	-3659
ಪ	-3660
ಮ	-3661
ೀ	-3662
ഗ	-3663
ജ	-3664
ഷ	-3665
ས	-3666
ა	-3667
ṅ	-3668
‒	-3669
⇔	-3670
∫	-3671
⋆	-3672
▼	-3673
♀	-3674
⛳	-3675
✳	-3676
❇	-3677
あ	-3678
く	-3679
シ	-3680
ズ	-3681
ネ	-3682
亦	-3683
知	-3684
음	-3685
🌄	-3686
🍁	-3687
📚	-3688
🔗	-3689
🔶	-3690
😀	-3691
😃	-3692
😎	-3693
😞	-3694
😢	-3695
Ì	-3696
Ð	-3697
ß	-3698
ä	-3699
ì	-3700
ô	-3701
ø	-3702
ę	-3703
Ō	-3704
œ	-3705
ƒ	-3706
ǀ	-3707
ʒ	-3708
̕	-3709
Δ	-3710
Ι	-3711
ή	-3712
β	-3713
ι	-3714
ρ	-3715
Ц	-3716
Э	-3717
ї	-3718
פ	-3719
ئ	-3720
ك	-3721
ܐ	-3722
ܒ	-3723
ܛ	-3724
ܦ	-3725
ܪ	-3726
গ	-3727
ধ	-3728
ਲ	-3729
ધ	-3730
ફ	-3731
લ	-3732
ૐ	-3733
૦	-3734
૪	-3735
இ	-3736
ஜ	-3737
ள	-3738
ஶ	-3739
ஷ	-3740
ொ	-3741
క	-3742
ల	-3743
స	-3744
ആ	-3745
ഇ	-3746
ഉ	-3747
ഞ	-3748
්	-3749
།	-3750
᳖	-3751
―	-3752
‰	-3753
※	-3754
≍	-3755
⏳	-3756
◄	-3757
♣	-3758
⛅	-3759
➛	-3760
➢	-3761
➤	-3762
た	-3763
っ	-3764
て	-3765
と	-3766
ッ	-3767
リ	-3768
不	-3769
义	-3770
亲	-3771
人	-3772
何	-3773
僕	-3774
十	-3775
可	-3776
国	-3777
如	-3778
尔	-3779
应	-3780
彼	-3781
愛	-3782
我	-3783
故	-3784
无	-3785
氣	-3786
的	-3787
觉	-3788
試	-3789
论	-3790
靈	-3791
기	-3792
낱	-3793
니	-3794
말	-3795
세	-3796
위	-3797
이	-3798
키	-3799
하	-3800
👇	-3801
👌	-3802
🔍	-3803
😜	-3804
😡	-3805
😳	-3806
¿	-3807
Á	-3808
Â	-3809
Ã	-3810
Ö	-3811
ð	-3812
ò	-3813
õ	-3814
ć	-3815
č	-3816
ě	-3817
ğ	-3818
į	-3819
ř	-3820
Ÿ	-3821
ɔ	-3822
ɜ	-3823
ʁ	-3824
ʏ	-3825
Ψ	-3826
δ	-3827
η	-3828
κ	-3829
ν	-3830
ο	-3831
τ	-3832
З	-3833
И	-3834
Й	-3835
О	-3836
У	-3837
ג	-3838
ש	-3839
ת	-3840
آ	-3841
إ	-3842
ج	-3843
پ	-3844
چ	-3845
ܣ	-3846
ং	-3847
ট	-3848
ৰ	-3849
ৱ	-3850
ਮ	-3851
ਸ	-3852
ੋ	-3853
੍	-3854
ઃ	-3855
ચ	-3856
ઞ	-3857
ડ	-3858
ષ	-3859
૯	-3860
ஸ	-3861
ீ	-3862
ே	-3863
భ	-3864
ಉ	-3865
ಎ	-3866
ಚ	-3867
ಬ	-3868
ಶ	-3869
ಹ	-3870
೨	-3871
ഈ	-3872
ബ	-3873
ീ	-3874
ർ	-3875
ൾ	-3876
ක	-3877
ය	-3878
ව	-3879
ා	-3880
ි	-3881
ག	-3882
ུ	-3883
გ	-3884
ზ	-3885
ი	-3886
ᄉ	-3887
ᅩ	-3888
ጻ	-3889
ᛁ	-3890
ᛖ	-3891
ᴇ	-3892
Ṛ	-3893
Ủ	-3894
⃣	-3895
↔	-3896
∈	-3897
≈	-3898
◇	-3899
☀	-3900
✥	-3901
✴	-3902
❁	-3903
➜	-3904
う	-3905
き	-3906
だ	-3907
ま	-3908
ら	-3909
る	-3910
を	-3911
ア	-3912
コ	-3913
ス	-3914
タ	-3915
チ	-3916
ト	-3917
为	-3918
京	-3919
作	-3920
依	-3921
反	-3922
因	-3923
意	-3924
成	-3925
所	-3926
新	-3927
期	-3928
果	-3929
格	-3930
梵	-3931
機	-3932
母	-3933
比	-3934
生	-3935
用	-3936
痛	-3937
発	-3938
相	-3939
者	-3940
能	-3941
自	-3942
薩	-3943
说	-3944
诸	-3945
通	-3946
遣	-3947
释	-3948
量	-3949
間	-3950
非	-3951
颂	-3952
대	-3953
발	-3954
브	-3955
요	-3956
합	-3957
𑑂	-3958
🇵	-3959
🌉	-3960
🌙	-3961
🌟	-3962
🌱	-3963
🍀	-3964
👫	-3965
💕	-3966
🔐	-3967
🔔	-3968
🔸	-3969
😉	-3970
😍	-3971
🤝	-3972
Å	-3973
Ò	-3974
Ú	-3975
ù	-3976
ą	-3977
Ċ	-3978
ė	-3979
ŋ	-3980
ư	-3981
ǒ	-3982
ǔ	-3983
ɒ	-3984
ɡ	-3985
̆	-3986
ά	-3987
ε	-3988
χ	-3989
ό	-3990
І	-3991
К	-3992
Ф	-3993
Ю	-3994
Я	-3995
ф	-3996
ј	-3997
ү	-3998
ם	-3999
ן	-4000
נ	-4001
ע	-4002
ק	-4003
أ	-4004
ص	-4005
ط	-4006
غ	-4007
ً	-4008
٬	-4009
ڪ	-4010
ۆ	-4011
ۇ	-4012
ܠ	-4013
ॾ	-4014
ই	-4015
খ	-4016
ঘ	-4017
চ	-4018
ছ	-4019
ী	-4020
ਅ	-4021
ਗ	-4022
ਤ	-4023
ਨ	-4024
ਪ	-4025
ਬ	-4026
਼	-4027
ਿ	-4028
ੇ	-4029
ੱ	-4030
ઈ	-4031
ઓ	-4032
ઠ	-4033
઼	-4034
ૂ	-4035
૨	-4036
૫	-4037
ଆ	-4038
ଓ	-4039
ଡ	-4040
ପ	-4041
ର	-4042
ଲ	-4043
଼	-4044
ା	-4045
ஆ	-4046
ச	-4047
అ	-4048
డ	-4049
ద	-4050
ప	-4051
శ	-4052
ె	-4053
ಃ	-4054
ಭ	-4055
ೇ	-4056
೪	-4057
ഛ	-4058
ഥ	-4059
ഭ	-4060
ഹ	-4061
ൂ	-4062
ൈ	-4063
ൻ	-4064
ൽ	-4065
ද	-4066
ස	-4067
น	-4068
ิ	-4069
ང	-4070
ཐ	-4071
པ	-4072
མ	-4073
ཡ	-4074
ལ	-4075
ཧ	-4076
ཱ	-4077
ྥ	-4078
ླ	-4079
ᆬ	-4080
ሕ	-4081
ብ	-4082
ዝ	-4083
ᛋ	-4084
ᛚ	-4085
᛫	-4086
᭭	-4087
ᳲ	-4088
ḏ	-4089
ṝ	-4090
ắ	-4091
Ἀ	-4092
∅	-4093
≠	-4094
≡	-4095
≦	-4096
▷	-4097
◊	-4098
☑	-4099
☘	-4100
☰	-4101
♡	-4102
♫	-4103
⚫	-4104
✌	-4105
✒	-4106
✧	-4107
✨	-4108
✺	-4109
❣	-4110
➥	-4111
⦁	-4112
、	-4113
《	-4114
》	-4115
「	-4116
」	-4117
が	-4118
さ	-4119
に	-4120
ひ	-4121
み	-4122
む	-4123
め	-4124
も	-4125
や	-4126
よ	-4127
ん	-4128
ジ	-4129
バ	-4130
プ	-4131
ボ	-4132
ロ	-4133
・	-4134
三	-4135
上	-4136
了	-4137
事	-4138
于	-4139
五	-4140
从	-4141
代	-4142
伟	-4143
修	-4144
全	-4145
八	-4146
六	-4147
具	-4148
切	-4149
加	-4150
北	-4151
卐	-4152
印	-4153
各	-4154
合	-4155
吗	-4156
员	-4157
和	-4158
哲	-4159
哷	-4160
地	-4161
堂	-4162
声	-4163
外	-4164
天	-4165
奪	-4166
好	-4167
婆	-4168
存	-4169
安	-4170
小	-4171
尼	-4172
广	-4173
度	-4174
异	-4175
当	-4176
整	-4177
方	-4178
显	-4179
普	-4180
晴	-4181
更	-4182
有	-4183
東	-4184
械	-4185
此	-4186
泊	-4187
然	-4188
猫	-4189
球	-4190
理	-4191
由	-4192
白	-4193
益	-4194
研	-4195
祖	-4196
程	-4197
立	-4198
第	-4199
素	-4200
而	-4201
许	-4202
身	-4203
都	-4204
间	-4205
页	-4206
首	-4207
감	-4208
공	-4209
교	-4210
급	-4211
두	-4212
듬	-4213
라	-4214
로	-4215
리	-4216
민	-4217
비	-4218
서	-4219
성	-4220
슈	-4221
신	-4222
아	-4223
어	-4224
영	-4225
예	-4226
완	-4227
의	-4228
인	-4229
좀	-4230
주	-4231
학	-4232
한	-4233
히	-4234
𑐎	-4235
𑐕	-4236
𑐫	-4237
𑐮	-4238
𑐴	-4239
𑐵	-4240
𑑄	-4241
𑑅	-4242
🇦	-4243
🇺	-4244
🌈	-4245
🌏	-4246
🌼	-4247
🍥	-4248
🎉	-4249
🎖	-4250
🎯	-4251
🐯	-4252
👈	-4253
👍	-4254
👏	-4255
👨	-4256
👩	-4257
👴	-4258
💄	-4259
💏	-4260
💔	-4261
💛	-4262
💥	-4263
📌	-4264
📎	-4265
📝	-4266
📰	-4267
🔰	-4268
😄	-4269
😅	-4270
😒	-4271
😘	-4272
🙍	-4273
🥀	-4274
🥇	-4275
🩸	-4276
É	-4277
Ë	-4278
Õ	-4279
å	-4280
ë	-4281
û	-4282
þ	-4283
ÿ	-4284
ă	-4285
ĕ	-4286
Ę	-4287
Ī	-4288
Ķ	-4289
ń	-4290
Ŏ	-4291
ŏ	-4292
ť	-4293
Ů	-4294
ų	-4295
Ż	-4296
Ǒ	-4297
ȧ	-4298
Ȩ	-4299
ȯ	-4300
ʈ	-4301
ʉ	-4302
ʋ	-4303
ʌ	-4304
ʟ	-4305
ʿ	-4306
ˎ	-4307
ˑ	-4308
̍	-4309
̖	-4310
̠	-4311
̪	-4312
Ά	-4313
Κ	-4314
Μ	-4315
Ο	-4316
Σ	-4317
Φ	-4318
Ω	-4319
ζ	-4320
ω	-4321
Е	-4322
Л	-4323
Ч	-4324
ё	-4325
ў	-4326
ҫ	-4327
ә	-4328
Ө	-4329
Ե	-4330
Կ	-4331
Հ	-4332
ա	-4333
ե	-4334
ն	-4335
ր	-4336
ւ	-4337
ַ	-4338
ד	-4339
כ	-4340
ף	-4341
צ	-4342
ײ	-4343
؞	-4344
خ	-4345
ذ	-4346
ُ	-4347
ِ	-4348
٫	-4349
ٰ	-4350
ٹ	-4351
ټ	-4352
ڌ	-4353
ں	-4354
ڼ	-4355
ھ	-4356
ۂ	-4357
ܕ	-4358
ܚ	-4359
ܟ	-4360
ॱ	-4361
ॵ	-4362
ॺ	-4363
ॼ	-4364
এ	-4365
ঠ	-4366
ড	-4367
ঢ	-4368
ণ	-4369
ষ	-4370
ৃ	-4371
০	-4372
৩	-4373
৭	-4374
ਂ	-4375
ਇ	-4376
ਊ	-4377
ਏ	-4378
ਖ	-4379
ਜ	-4380
ਟ	-4381
ਡ	-4382
ਣ	-4383
ਦ	-4384
ੁ	-4385
ੂ	-4386
ੰ	-4387
ખ	-4388
ઝ	-4389
ૃ	-4390
ૠ	-4391
૩	-4392
૬	-4393
૭	-4394
૮	-4395
ଃ	-4396
କ	-4397
ଖ	-4398
ତ	-4399
ଭ	-4400
େ	-4401
୍	-4402
ୟ	-4403
ஐ	-4404
ஹ	-4405
ூ	-4406
ை	-4407
ఉ	-4408
ఎ	-4409
ఓ	-4410
చ	-4411
జ	-4412
ధ	-4413
ఫ	-4414
ష	-4415
హ	-4416
ే	-4417
ై	-4418
ో	-4419
ಅ	-4420
ಇ	-4421
ಜ	-4422
ಟ	-4423
ಠ	-4424
ೂ	-4425
ೃ	-4426
ೊ	-4427
ೋ	-4428
೧	-4429
೩	-4430
ೲ	-4431
ഖ	-4432
ഠ	-4433
ഴ	-4434
ൃ	-4435
ග	-4436
ත	-4437
න	-4438
ප	-4439
ම	-4440
ල	-4441
ශ	-4442
ො	-4443
ค	-4444
ง	-4445
ด	-4446
ต	-4447
บ	-4448
พ	-4449
ฟ	-4450
ม	-4451
ร	-4452
ห	-4453
อ	-4454
ฮ	-4455
ั	-4456
า	-4457
ี	-4458
เ	-4459
โ	-4460
่	-4461
้	-4462
༔	-4463
༡	-4464
༣	-4465
༨	-4466
ཁ	-4467
ཊ	-4468
ན	-4469
བ	-4470
ཚ	-4471
ཝ	-4472
ཟ	-4473
ཥ	-4474
ི	-4475
ྀ	-4476
ྒ	-4477
ྨ	-4478
ྭ	-4479
ྱ	-4480
ྲ	-4481
დ	-4482
ე	-4483
ვ	-4484
თ	-4485
ლ	-4486
ნ	-4487
რ	-4488
ს	-4489
უ	-4490
ც	-4491
ሉ	-4492
ሩ	-4493
በ	-4494
ቮ	-4495
እ	-4496
ኳ	-4497
ገ	-4498
ፂ	-4499
ፃ	-4500
፪	-4501
ᒃ	-4502
ᒄ	-4503
ᒎ	-4504
ᓚ	-4505
ᗢ	-4506
ᘏ	-4507
ᚨ	-4508
ᚩ	-4509
ᚻ	-4510
ᚾ	-4511
ᛏ	-4512
ᛗ	-4513
ᛞ	-4514
ᭅ	-4515
᭠	-4516
ᮩ	-4517
᮰	-4518
ᱧ	-4519
Ჱ	-4520
᳒	-4521
ᳬ	-4522
ᴀ	-4523
Ḩ	-4524
ế	-4525
ệ	-4526
ὁ	-4527
ὕ	-4528
ὸ	-4529
ῖ	-4530
₩	-4531
↓	-4532
↕	-4533
↗	-4534
↩	-4535
↲	-4536
⇏	-4537
∖	-4538
∙	-4539
∝	-4540
∩	-4541
∵	-4542
⊂	-4543
⊃	-4544
⊕	-4545
▀	-4546
□	-4547
△	-4548
☁	-4549
☸	-4550
☹	-4551
☺	-4552
♈	-4553
♉	-4554
♻	-4555
⚏	-4556
⚕	-4557
⚡	-4558
⚪	-4559
⛈	-4560
⛹	-4561
✖	-4562
✦	-4563
✪	-4564
✹	-4565
✼	-4566
✿	-4567
❗	-4568
➖	-4569
➞	-4570
➦	-4571
➨	-4572
⟶	-4573
⟷	-4574
⠀	-4575
⭕	-4576
〈	-4577
け	-4578
げ	-4579
ご	-4580
ざ	-4581
ち	-4582
で	-4583
ど	-4584
は	-4585
ゃ	-4586
れ	-4587
イ	-4588
エ	-4589
オ	-4590
ク	-4591
グ	-4592
セ	-4593
ゼ	-4594
ソ	-4595
ツ	-4596
ナ	-4597
ノ	-4598
ピ	-4599
ポ	-4600
ャ	-4601
ョ	-4602
七	-4603
与	-4604
世	-4605
中	-4606
习	-4607
乱	-4608
二	-4609
互	-4610
介	-4611
仕	-4612
份	-4613
休	-4614
位	-4615
你	-4616
使	-4617
個	-4618
倒	-4619
健	-4620
元	-4621
入	-4622
其	-4623
円	-4624
册	-4625
决	-4626
出	-4627
划	-4628
列	-4629
利	-4630
别	-4631
到	-4632
副	-4633
助	-4634
化	-4635
卍	-4636
南	-4637
叉	-4638
发	-4639
口	-4640
句	-4641
同	-4642
后	-4643
吥	-4644
吸	-4645
告	-4646
咒	-4647
哉	-4648
哥	-4649
唯	-4650
喝	-4651
嘅	-4652
器	-4653
四	-4654
固	-4655
國	-4656
域	-4657
報	-4658
境	-4659
处	-4660
复	-4661
多	-4662
夜	-4663
夢	-4664
奖	-4665
威	-4666
孕	-4667
字	-4668
学	-4669
官	-4670
定	-4671
宦	-4672
寝	-4673
尊	-4674
少	-4675
属	-4676
岂	-4677
工	-4678
师	-4679
席	-4680
常	-4681
废	-4682
康	-4683
廬	-4684
引	-4685
弥	-4686
影	-4687
得	-4688
徹	-4689
忘	-4690
念	-4691
性	-4692
惑	-4693
感	-4694
憶	-4695
戻	-4696
执	-4697
投	-4698
摩	-4699
收	-4700
改	-4701
政	-4702
效	-4703
文	-4704
日	-4705
时	-4706
星	-4707
是	-4708
最	-4709
朝	-4710
杂	-4711
某	-4712
染	-4713
查	-4714
栄	-4715
检	-4716
模	-4717
権	-4718
款	-4719
止	-4720
民	-4721
永	-4722
求	-4723
汇	-4724
没	-4725
流	-4726
消	-4727
添	-4728
灭	-4729
熟	-4730
父	-4731
牙	-4732
现	-4733
班	-4734
疆	-4735
發	-4736
直	-4737
破	-4738
离	-4739
秘	-4740
稱	-4741
究	-4742
章	-4743
答	-4744
简	-4745
类	-4746
紅	-4747
終	-4748
続	-4749
網	-4750
繁	-4751
维	-4752
肉	-4753
花	-4754
若	-4755
英	-4756
茶	-4757
葬	-4758
處	-4759
蛟	-4760
蝶	-4761
衆	-4762
表	-4763
西	-4764
见	-4765
观	-4766
视	-4767
解	-4768
言	-4769
記	-4770
訳	-4771
論	-4772
讓	-4773
计	-4774
讨	-4775
话	-4776
贪	-4777
越	-4778
足	-4779
車	-4780
转	-4781
辦	-4782
达	-4783
过	-4784
运	-4785
返	-4786
追	-4787
逝	-4788
進	-4789
那	-4790
金	-4791
鉄	-4792
错	-4793
长	-4794
闻	-4795
阿	-4796
除	-4797
陸	-4798
障	-4799
雨	-4800
電	-4801
面	-4802
韩	-4803
響	-4804
願	-4805
须	-4806
飞	-4807
飲	-4808
龙	-4809
꣫	-4810
ꣲ	-4811
가	-4812
간	-4813
개	-4814
게	-4815
고	-4816
과	-4817
국	-4818
금	-4819
깨	-4820
나	-4821
냐	-4822
녹	-4823
는	-4824
달	-4825
더	-4826
동	-4827
따	-4828
뜨	-4829
락	-4830
레	-4831
력	-4832
름	-4833
만	-4834
망	-4835
맵	-4836
몸	-4837
못	-4838
뭐	-4839
받	-4840
백	-4841
번	-4842
법	-4843
봇	-4844
산	-4845
상	-4846
수	-4847
술	-4848
쉬	-4849
스	-4850
승	-4851
시	-4852
없	-4853
에	-4854
염	-4855
외	-4856
우	-4857
운	-4858
월	-4859
을	-4860
임	-4861
입	-4862
있	-4863
자	-4864
적	-4865
절	-4866
정	-4867
조	-4868
중	-4869
증	-4870
지	-4871
째	-4872
청	-4873
크	-4874
탄	-4875
탑	-4876
터	-4877
트	-4878
특	-4879
팅	-4880
파	-4881
함	-4882
허	-4883
효	-4884
힌	-4885
힘	-4886
︎	-4887
𑆤	-4888
𑌏	-4889
𑌥	-4890
𑌫	-4891
𑌮	-4892
𑌸	-4893
𑐰	-4894
𑑀	-4895
🅰	-4896
🇱	-4897
🇸	-4898
🇹	-4899
🌀	-4900
🌃	-4901
🌅	-4902
🌍	-4903
🌎	-4904
🌖	-4905
🌛	-4906
🌝	-4907
🌠	-4908
🌰	-4909
🌴	-4910
🍋	-4911
🍾	-4912
🎂	-4913
🎃	-4914
🎊	-4915
🎋	-4916
🎎	-4917
🎓	-4918
🎤	-4919
🎵	-4920
🎶	-4921
🎼	-4922
🏀	-4923
🏃	-4924
🏏	-4925
🏠	-4926
🏮	-4927
🏷	-4928
🏹	-4929
🏽	-4930
🐕	-4931
🐙	-4932
👆	-4933
👞	-4934
👣	-4935
👦	-4936
👧	-4937
👱	-4938
💑	-4939
💓	-4940
💖	-4941
💗	-4942
💘	-4943
💚	-4944
💝	-4945
💠	-4946
💦	-4947
💧	-4948
💫	-4949
💰	-4950
💱	-4951
💵	-4952
📂	-4953
📏	-4954
📕	-4955
📢	-4956
📣	-4957
📱	-4958
📳	-4959
📸	-4960
📺	-4961
🔟	-4962
🔷	-4963
🔺	-4964
🔻	-4965
🕔	-4966
🖊	-4967
🖱	-4968
🗃	-4969
🗒	-4970
🗣	-4971
🗳	-4972
😇	-4973
😌	-4974
😔	-4975
😝	-4976
😩	-4977
🙁	-4978
🙅	-4979
🙆	-4980
🙌	-4981
🙎	-4982
🚑	-4983
🚷	-4984
🛡	-4985
🤔	-4986
🤗	-4987
🤦	-4988
🤩	-4989
🤪	-4990
🤲	-4991
🥂	-4992
🥰	-4993
🦂	-4994
🧐	-4995
🧜	-4996
