<unk>	0
<s>	0
</s>	0
▁।	-3.28889
ं	-3.56817
ः	-3.7362
े	-4.21229
ा	-4.27401
▁न	-4.43611
▁-	-4.70815
▁॥	-4.7296
म्	-4.76458
▁च	-4.84606
ो	-4.84772
▁	-5.02734
▁"	-5.11244
▁स	-5.17642
▁,	-5.21495
स्य	-5.4096
ि	-5.45096
▁(	-5.45142
म	-5.45841
ी	-5.4774
▁इति	-5.48121
।	-5.49817
▁.	-5.50419
▁अ	-5.53865
ति	-5.65352
.	-5.67166
त	-5.68988
▁वा	-5.7516
,	-5.76004
न	-5.79558
▁ः	-5.8112
्य	-5.83913
)	-5.85007
ाः	-5.88698
▁तु	-5.88903
क	-5.89764
ेन	-5.90389
▁'	-5.91119
▁म	-5.91889
-	-5.98476
▁एव	-6.01157
▁ा	-6.03298
▁प्र	-6.07958
▁ते	-6.10135
▁वि	-6.11094
र	-6.11343
▁ं	-6.11971
▁हि	-6.12237
्	-6.12713
▁व	-6.13314
र्	-6.1586
या	-6.19292
न्	-6.20562
य	-6.23686
▁आ	-6.24777
व	-6.29004
▁य	-6.32055
▁यथा	-6.32339
▁?	-6.33197
▁त	-6.33504
ौ	-6.3358
ाय	-6.35608
ते	-6.39373
ल	-6.40475
स	-6.40712
▁या	-6.41655
ता	-6.41876
▁क	-6.43405
▁स्व	-6.44094
त्	-6.44555
द	-6.46656
तः	-6.50312
▁म्	-6.5511
▁मे	-6.55285
▁_	-6.55961
▁सर्व	-6.56544
▁भवति	-6.57147
▁प्रति	-6.58869
ात्	-6.59227
▁मा	-6.5962
▁तथा	-6.62672
▁सं	-6.63508
स्	-6.64246
ह	-6.65604
ना	-6.66784
ानि	-6.6682
▁)	-6.67878
▁सु	-6.6818
▁सा	-6.68489
▁पर	-6.70557
▁प	-6.70753
प	-6.71972
▁तस्य	-6.72272
ानां	-6.74759
॒	-6.7543
▁स्य	-6.75632
▁र	-6.7632
▁अपि	-6.77765
▁किं	-6.78512
▁नि	-6.78804
▁यदि	-6.78938
▁तत्	-6.78954
ेण	-6.79805
ज	-6.83422
ग	-6.86025
▁े	-6.87223
▁मम	-6.87465
▁ऽ	-6.88221
▁नाम	-6.88705
▁अस्ति	-6.89058
श	-6.89139
ित	-6.90587
ण	-6.9583
०	-6.96077
▁द	-6.96308
▁यत्	-6.96956
ेषु	-6.97779
▁तत्र	-6.98012
पि	-6.98046
्या	-6.9823
ान्	-6.98654
▁वै	-6.99407
▁परि	-7.01521
नि	-7.01608
ु	-7.01735
▁ह	-7.02144
▁श	-7.02503
▁!	-7.02793
▁एवं	-7.04676
▁पुनः	-7.06733
▁ो	-7.07236
▁सह	-7.07952
▁ये	-7.08252
श्च	-7.09297
ैः	-7.09416
▁यो	-7.09419
॑	-7.09948
द्	-7.1106
▁त्वं	-7.11228
भ	-7.12495
िक	-7.12998
▁का	-7.13336
सि	-7.13718
त्र	-7.13885
थ	-7.14272
:	-7.16383
▁एक	-7.16765
▁सम	-7.19959
मा	-7.20137
▁देव	-7.20782
▁अथ	-7.20803
▁तद्	-7.2155
▁--	-7.21826
१	-7.21919
▁२	-7.22213
च	-7.22467
▁श्च	-7.22651
▁१	-7.22944
▁धर्म	-7.2299
▁ना	-7.23114
▁तव	-7.23288
▁उ	-7.24209
▁के	-7.24265
▁ग	-7.24508
न्ति	-7.24745
▁त्व	-7.25766
▁पूर्व	-7.25823
▁तदा	-7.26057
▁उप	-7.26126
ॊ	-7.26445
▁/	-7.26889
▁इ	-7.27013
ै	-7.27209
▁तं	-7.27905
▁ततः	-7.28152
▁__	-7.29166
▁तेन	-7.29269
▁ज	-7.29581
▁ि	-7.29958
वि	-7.30409
▁ता	-7.30716
▁[	-7.31055
तो	-7.33148
▁ल	-7.34634
ट	-7.34953
नं	-7.35022
ादि	-7.35875
▁तद	-7.36093
२	-7.3732
▁=	-7.37403
▁कर्म	-7.37462
ने	-7.38995
ू	-7.39604
▁भाव	-7.40391
▁ब	-7.41043
ये	-7.42772
ध	-7.43442
▁सः	-7.44066
अ	-7.44604
गु	-7.44932
▁ति	-7.44971
ीय	-7.45663
तु	-7.46574
▁यः	-7.46652
▁अत्र	-7.47181
▁मया	-7.47965
▁स्	-7.48169
ब	-7.49182
▁कथं	-7.49561
रा	-7.49595
▁ए	-7.49646
▁कार्य	-7.49941
वा	-7.50794
ैव	-7.51194
त्य	-7.5183
्यते	-7.51922
▁हे	-7.52054
▁गुण	-7.52534
▁पि	-7.53381
▁्	-7.53479
ड	-7.53682
ष	-7.53732
स्त	-7.54051
न्त	-7.54506
▁वर्ष	-7.54642
क्	-7.54672
कार	-7.54727
▁ख	-7.55625
प्र	-7.55957
मान	-7.56063
▁काम	-7.5658
यां	-7.5715
▁भव	-7.5722
▁३	-7.57285
▁देश	-7.57673
'	-7.59569
▁र्	-7.59864
▁जन	-7.60764
ल्	-7.60883
▁अनु	-7.61047
ष्ट	-7.61425
▁+	-7.62248
▁अहं	-7.62252
▁कर	-7.62539
▁दु	-7.62558
क्ष	-7.62895
▁ज्ञान	-7.63007
▁काल	-7.63049
o	-7.6372
▁पद	-7.64255
s	-7.65039
नु	-7.65386
▁ध	-7.66111
▁राज	-7.66166
?	-7.66214
ेत	-7.66688
▁यत्र	-7.66819
▁छ	-7.68087
]	-7.68339
▁शब्द	-7.68442
▁लोक	-7.68576
▁;	-7.68662
▁को	-7.68774
▁रूप	-7.68809
मेव	-7.70054
ख	-7.70363
ाणां	-7.71484
▁अभि	-7.71517
▁४	-7.71529
▁ॐ	-7.71631
यति	-7.71977
रु	-7.7234
▁अन्य	-7.72744
▁महा	-7.73879
ाणि	-7.74023
ला	-7.74248
▁स्यात्	-7.7464
▁सर्वे	-7.74962
य्	-7.7584
▁पुत्र	-7.75871
▁यदा	-7.76051
त्व	-7.77
▁कु	-7.7725
▁वेद	-7.77609
घ	-7.77892
यः	-7.78354
िता	-7.78523
▁स्तु	-7.78595
▁ी	-7.78603
ार्थ	-7.78611
▁५	-7.78862
▁आसीत्	-7.78883
▁विश्व	-7.79076
धि	-7.79326
▁योग	-7.79648
याः	-7.79898
िका	-7.80144
e	-7.80159
सं	-7.80196
वान्	-7.80378
▁*	-7.80657
i	-7.80766
▁कृत	-7.80931
ाद	-7.81076
३	-7.81158
▁धन	-7.81284
a	-7.81359
सा	-7.816
का	-7.81667
▁अतः	-7.81863
च्छ	-7.82267
ामि	-7.82442
▁ण	-7.82448
▁कः	-7.82853
▁त्रि	-7.83503
भि	-7.83866
▁प्रथम	-7.84102
▁कार	-7.84251
स्तु	-7.84611
▁मान	-7.85041
▁नमः	-7.85088
▁मध्ये	-7.85237
दा	-7.85586
▁बहु	-7.85664
▁करोति	-7.85773
▁अव	-7.85887
कः	-7.8622
ती	-7.87138
▁1	-7.87383
▁निर्	-7.87506
▁जीव	-7.87514
▁भ	-7.8765
▁सि	-7.87825
सु	-7.8796
▁इत्य	-7.88415
॥	-7.88643
▁अस्य	-7.88903
▁स्म	-7.89028
▁रे	-7.8939
▁८	-7.90057
▁जल	-7.90114
णा	-7.90317
1	-7.91096
ेति	-7.91131
कं	-7.91143
▁त्य	-7.91199
▁विषय	-7.91222
ँ	-7.91232
रे	-7.91258
स्व	-7.91984
रि	-7.92091
ेव	-7.92099
"	-7.92256
▁तेषां	-7.92286
▁भवेत्	-7.92394
▁६	-7.92684
▁फल	-7.93135
ाव	-7.93295
सी	-7.9333
लि	-7.93684
▁यस्य	-7.94292
से	-7.94399
▁दश	-7.94684
▁ैः	-7.94737
▁तः	-7.94833
▁ादि	-7.94925
इ	-7.95124
▁नु	-7.95256
▁सदा	-7.9536
▁वर्तते	-7.95473
/	-7.95822
▁s	-7.96174
▁अप	-7.96264
▁्य	-7.96338
▁यद्	-7.96696
▁मु	-7.96751
▁इव	-7.96841
▁भूत	-7.97004
▁तां	-7.97145
मि	-7.97243
▁अर्थ	-7.97337
▁ानां	-7.97597
▁तर्हि	-7.97886
▁मां	-7.98254
▁शक्ति	-7.98546
▁समा	-7.98547
▁स्त	-7.98785
के	-7.98816
ान	-7.99099
न्य	-7.99115
कर	-7.9916
भिः	-7.99326
श्	-7.9944
▁इदं	-7.99764
▁विशेष	-7.99935
▁त्वा	-8.00221
▁भि	-8.00478
▁ह्य	-8.00931
ेत्	-8.0111
▁१०	-8.01168
▁वर्षे	-8.01209
▁गत	-8.01346
▁तर	-8.01404
▁ौ	-8.01553
ङ्ग	-8.0162
▁येन	-8.01806
▁वयं	-8.01837
▁सप्त	-8.01893
▁अन	-8.01928
▁गृह	-8.02127
पा	-8.02218
ट्	-8.02318
▁भविष्यति	-8.02571
▁:	-8.02763
▁प्राप्त	-8.02775
४	-8.02848
▁भाषा	-8.034
▁S	-8.03484
ाह	-8.03919
वे	-8.04161
▁सुख	-8.04297
▁तम	-8.04321
▁वर	-8.04379
▁इह	-8.04433
▁कि	-8.04588
▁क्रिया	-8.04789
▁ाय	-8.04809
▁पाप	-8.04907
▁सन्ति	-8.05565
▁ेति	-8.05811
▁पुनर्	-8.06051
▁और	-8.06267
▁पूर्ण	-8.06384
▁काले	-8.06627
▁मेव	-8.06784
▁तो	-8.06806
▁नियम	-8.06899
▁थ	-8.0693
▁यज्ञ	-8.071
▁सामान्य	-8.07337
▁जन्म	-8.07337
यो	-8.07673
न्न	-8.07691
▁वन	-8.08153
▁ात्	-8.08166
▁उत्तर	-8.0821
▁मह	-8.08274
्वा	-8.08295
▁प्रा	-8.08496
▁2	-8.08522
▁भाग	-8.08659
▁ु	-8.08847
▁अयं	-8.09067
2	-8.09139
▁वर्ण	-8.09361
▁दृष्ट	-8.09399
▁कृत्वा	-8.09505
▁यद	-8.09549
्व	-8.09786
▁बल	-8.0995
▁ेषु	-8.09984
▁पा	-8.10186
▁ई	-8.11009
▁पुरुष	-8.1103
▁नो	-8.11074
च्	-8.11233
▁राजा	-8.11318
▁पु	-8.11578
धा	-8.11592
▁विना	-8.11734
ाद्	-8.11999
▁दिन	-8.12194
▁दि	-8.12276
स्थ	-8.12934
▁नास्ति	-8.1296
न्ते	-8.13081
▁ततो	-8.13246
▁मि	-8.13419
नी	-8.1356
▁दुःख	-8.13759
▁भेद	-8.13785
r	-8.14
हि	-8.14451
री	-8.14526
▁केवलं	-8.14655
षु	-8.14836
ितः	-8.15119
▁भू	-8.15284
▁न्	-8.15348
दि	-8.15485
ङ्	-8.15589
▁मिति	-8.15793
▁प्राण	-8.15921
▁स्त्री	-8.16178
तां	-8.16677
मिति	-8.16731
▁अत	-8.1677
५	-8.16945
▁एतत्	-8.17064
▁स्थ	-8.17068
भाव	-8.17291
▁3	-8.1752
▁सर्वं	-8.17683
▁सम्	-8.17793
▁परं	-8.17987
▁ोप	-8.18128
▁राज्य	-8.18412
यं	-8.1888
▁व्य	-8.189
▁स्थान	-8.18959
▁नित्य	-8.19002
▁७	-8.19248
▁केवल	-8.19574
▁भारत	-8.1974
▁त्	-8.20074
▁पुर	-8.20099
▁पाद	-8.20218
ण्ड	-8.20274
▁...	-8.20414
६	-8.2046
चि	-8.20501
▁पञ्च	-8.20655
ापि	-8.21112
७	-8.21209
▁घट	-8.2142
▁तया	-8.21572
▁विद्यते	-8.21971
▁6	-8.22287
द्य	-8.22327
९	-8.22723
▁पक्ष	-8.22837
▁पी	-8.22958
▁संस्कृत	-8.2305
▁परा	-8.23092
ऽ	-8.23319
▁ान्	-8.23332
▁जा	-8.24106
▁एष	-8.24148
ध्य	-8.24162
▁रस	-8.24278
योः	-8.24388
p	-8.24389
▁मुक्त	-8.24439
र्य	-8.24613
▁सत्य	-8.24651
▁किम्	-8.24698
▁सिद्ध	-8.247
▁विद्या	-8.24705
▁चा	-8.2511
न्द	-8.25475
▁आह	-8.25784
▁खः	-8.26011
▁नैव	-8.26086
d	-8.26365
८	-8.26465
हं	-8.26511
▁दा	-8.26908
ाम	-8.2699
▁प्रत्य	-8.27304
▁ष	-8.27416
▁यं	-8.27418
▁२०	-8.27708
▁सन्	-8.27851
▁अति	-8.2792
▁8	-8.27974
▁शास्त्र	-8.28012
▁दृश्यते	-8.28409
m	-8.28456
व्य	-8.28552
्यं	-8.2862
▁ार्थ	-8.28712
▁ानि	-8.29126
▁हस्त	-8.29608
वत्	-8.29746
▁कृते	-8.29829
ृ	-8.30269
च्च	-8.30339
▁मन	-8.30357
तर	-8.3052
▁दृष्ट्वा	-8.30889
t	-8.30909
▁विधि	-8.31165
▁सर्वत्र	-8.31531
▁ाः	-8.31585
▁द्वि	-8.31591
ञ्च	-8.31593
▁सूर्य	-8.31625
ग्	-8.31745
रो	-8.31795
ठ	-8.31846
▁तमे	-8.31888
▁यत	-8.32311
▁वद	-8.32351
येत्	-8.32746
▁९	-8.3281
▁वस्तु	-8.32846
▁ला	-8.32959
6	-8.33036
प्	-8.33105
▁दोष	-8.33231
▁प्रत्यय	-8.33566
▁A	-8.33664
पद	-8.33927
▁विभाग	-8.34111
भव	-8.34474
▁शिव	-8.34495
▁ऽपि	-8.34612
3	-8.34753
▁गण	-8.35378
▁विषये	-8.35639
▁हर	-8.35676
▁कारण	-8.3575
▁क्ष	-8.35821
▁रा	-8.3592
देश	-8.36085
9	-8.36094
▁कल्प	-8.36154
4	-8.36184
▁भय	-8.36276
u	-8.36294
ोप	-8.36354
▁सोम	-8.3649
▁5	-8.36706
▁प्रश्न	-8.36737
▁गा	-8.36798
▁११	-8.36887
▁घ	-8.36932
र्थ	-8.37133
रूप	-8.37198
▁सूचना	-8.37317
श्व	-8.37363
▁सूत्र	-8.37504
▁7	-8.37765
गत	-8.38779
▁॑	-8.38795
▁दक्षिण	-8.39179
ितं	-8.39507
फ	-8.39521
▁श्री	-8.39813
▁श्	-8.39895
▁कार्यं	-8.39897
भूत	-8.40002
▁शत	-8.40053
▁॒	-8.40255
▁अधिक	-8.40303
ोऽ	-8.40726
ली	-8.40958
▁एत	-8.41029
वार	-8.4103
▁पुं	-8.41101
तया	-8.41368
▁गो	-8.41434
▁संख्या	-8.41528
रण	-8.41616
ास	-8.4167
▁त्वया	-8.41759
▁रि	-8.41981
▁फ	-8.42001
0	-8.4212
▁ाद	-8.42233
▁जायते	-8.42391
षा	-8.42519
▁प्रयोग	-8.42687
▁क्रम	-8.42926
▁वृत्त	-8.43051
प्य	-8.43067
▁क्षेत्र	-8.43185
▁गति	-8.43323
मु	-8.4333
ैर्	-8.43341
l	-8.43828
▁लाभ	-8.43861
▁कुल	-8.43926
c	-8.43943
र्ष	-8.43949
▁की	-8.44142
▁नव	-8.4421
--	-8.4424
▁इत्यादि	-8.44317
▁यम	-8.44363
▁अभवत्	-8.44434
▁युक्त	-8.44439
▁देह	-8.44496
▁9	-8.44496
▁4	-8.44547
ानु	-8.44592
▁चेत्	-8.44605
▁तत	-8.44618
नः	-8.44715
▁ट	-8.44782
द्ध	-8.4496
प्त	-8.45072
▁ओ	-8.45087
__	-8.45214
▁लक्षण	-8.45239
▁ग्रह	-8.45252
▁संशयः	-8.45297
▁पुनर	-8.45458
▁बाल	-8.45591
▁परम	-8.45676
▁रु	-8.46013
▁१८	-8.46188
▁मूल	-8.46521
॰	-8.46648
▁अस्मिन्	-8.46731
ार	-8.47168
▁जि	-8.47209
▁१२	-8.47416
▁विकल्प	-8.47647
▁केन	-8.47692
क्त	-8.47971
▁भाषण	-8.48023
▁ित	-8.4811
▁भवन्ति	-8.48154
भ्य	-8.48251
▁समुद्र	-8.48507
▁चित्र	-8.48697
▁संयुक्त	-8.48806
▁वृक्ष	-8.48823
▁रक्ष	-8.4887
जा	-8.49107
ए	-8.49252
▁यतः	-8.49299
▁भा	-8.49348
िनः	-8.4936
मपि	-8.49646
▁दृश्य	-8.49719
▁मुख्य	-8.49724
▁मपि	-8.49807
▁स्वयं	-8.49813
▁शुभ	-8.50178
▁प्रकाश	-8.5023
ितम्	-8.50443
▁अद्य	-8.50805
7	-8.50983
▁सहस्र	-8.51241
▁मन्त्र	-8.51444
जन	-8.51535
▁नित्यं	-8.51578
▁I	-8.51806
आ	-8.51965
▁मृत	-8.523
▁दर्शन	-8.52306
▁वे	-8.5247
▁त्वात्	-8.52582
▁र्थ	-8.52771
▁द्वारा	-8.52875
▁भावः	-8.52898
8	-8.52984
y	-8.53297
तम	-8.53367
▁मित्र	-8.53491
▁शा	-8.53912
▁ाव	-8.53995
▁भारतीय	-8.54132
ढ	-8.54206
स्ति	-8.54208
▁यां	-8.54273
न्तु	-8.54385
▁१५	-8.54437
पर	-8.54688
▁रथ	-8.54696
▁जनाः	-8.54819
▁पार	-8.5486
▁क्रियते	-8.5497
5	-8.55132
शि	-8.55311
▁गुरु	-8.55429
ात्म	-8.5565
▁C	-8.55668
देव	-8.55726
▁राष्ट्र	-8.5577
▁पुण्य	-8.55811
▁गु	-8.55967
▁मध्य	-8.56062
▁मार्ग	-8.56143
▁एते	-8.56356
▁शेष	-8.56471
▁तथापि	-8.56511
▁रोग	-8.56514
ज्ञ	-8.56578
▁श्रुत	-8.56595
▁दे	-8.5665
▁क्षण	-8.56694
▁प्रधान	-8.56795
▁B	-8.5683
▁अन्यथा	-8.56845
▁यु	-8.56848
▁ै	-8.56984
▁देशे	-8.57086
▁>	-8.57297
▁पूर्वं	-8.57425
▁याः	-8.57596
▁वाक्य	-8.57719
▁दूर	-8.57749
▁ेन	-8.57826
▁शक्यते	-8.5789
▁शरीर	-8.57916
ुप	-8.57939
g	-8.58021
णे	-8.58204
▁कथा	-8.58288
▁ब्रह्म	-8.58357
▁राम	-8.58413
▁न्य	-8.58787
▁दीर्घ	-8.58817
▁जय	-8.58969
▁ऐ	-8.59008
▁तौ	-8.59493
▁पाठ	-8.59557
▁]	-8.59733
▁लि	-8.59887
▁समान	-8.59893
▁10	-8.59899
ज्	-8.59949
▁परीक्षा	-8.5998
्यां	-8.60001
लोक	-8.60076
▁रूपेण	-8.60082
▁स्वरूप	-8.60185
▁प्रभाव	-8.60222
▁प्रमाण	-8.60321
▁वर्तमान	-8.60456
▁---	-8.60463
▁1.	-8.60516
▁मत	-8.60841
▁a	-8.60847
हार	-8.60993
कृत	-8.61084
लं	-8.61112
▁सी	-8.61552
ान्त	-8.61592
▁तस्मात्	-8.61677
ड़	-8.61684
काल	-8.61725
▁लोके	-8.61787
▁ानु	-8.61796
▁ग्रन्थ	-8.61846
▁चैव	-8.61913
ई	-8.61946
▁देवा	-8.62014
दी	-8.62055
▁पृष्ठ	-8.62064
चार	-8.62212
हा	-8.62261
▁विचार	-8.62434
▁मुख	-8.62527
▁नगर	-8.62643
वः	-8.62885
पी	-8.62927
▁मनो	-8.63027
▁सो	-8.63076
▁योः	-8.63293
▁दान	-8.63365
ेष	-8.63499
▁ग्र	-8.63702
▁द्वादश	-8.63705
उ	-8.63714
▁रूपं	-8.63734
योग	-8.63771
▁करण	-8.63806
त्वं	-8.63903
▁अस्माकं	-8.6428
▁पश्य	-8.64633
सर	-8.64884
मी	-8.65007
▁वो	-8.65075
ङ	-8.65163
▁उच्यते	-8.65188
णं	-8.65407
▁किन्तु	-8.65421
▁द्	-8.65805
▁बि	-8.66011
कु	-8.66037
▁फलं	-8.66142
▁भविष्य	-8.66302
▁भवतः	-8.66362
▁सर्वा	-8.66458
▁ैक	-8.66579
▁१४	-8.66666
नम्	-8.66799
▁तृतीय	-8.66809
ञ्	-8.66973
▁अथवा	-8.67012
र्व	-8.67017
▁एकः	-8.67124
वाद	-8.67193
▁धा	-8.67244
▁()	-8.67466
▁ॊ	-8.67529
नो	-8.68195
▁इत्यस्य	-8.68258
▁स्या	-8.6843
नीय	-8.68581
ीत	-8.68594
▁प्रकृति	-8.68847
▁#	-8.68861
▁मनुष्य	-8.68974
▁द्वितीय	-8.69023
▁वत्	-8.69047
▁प्रत्यक्ष	-8.69063
▁P	-8.69132
▁त्वेन	-8.6918
▁त्वम्	-8.69231
h	-8.69359
▁विज्ञान	-8.69425
▁मात्र	-8.69616
▁नृप	-8.69635
सू	-8.69684
त्वात्	-8.70035
द्र	-8.70047
▁विप्र	-8.70103
ायां	-8.70185
▁साधन	-8.70239
िति	-8.70568
▁पिता	-8.70591
▁स्वर्ग	-8.70622
▁19	-8.70883
▁ज्ञानं	-8.70946
दु	-8.71015
वती	-8.7106
गा	-8.71189
क्रम	-8.71284
ड्	-8.71293
▁मास	-8.71328
ळ	-8.71392
त्त	-8.71453
र्ज	-8.71516
S	-8.71538
▁गृहे	-8.71628
यन्	-8.71697
▁कृतं	-8.71721
▁युद्ध	-8.7182
▁कल	-8.71953
▁कोई	-8.71983
▁ष्ट	-8.7199
▁ग्राम	-8.72029
▁विकास	-8.72055
▁वय	-8.72067
▁पृष्ठानि	-8.72071
▁हृदय	-8.72114
▁कं	-8.72159
सः	-8.72373
▁है	-8.7256
▁वृद्ध	-8.72703
▁देवता	-8.72995
▁अग्नि	-8.73216
था	-8.73243
▁भवान्	-8.73383
▁प्रिय	-8.73403
▁१७	-8.73437
▁त्वां	-8.7368
▁क्व	-8.7372
▁उक्त	-8.74222
▁M	-8.74243
▁मृत्यु	-8.7447
▁निर	-8.74676
n	-8.74724
▁दण्ड	-8.74933
ार्थं	-8.74951
▁मनु	-8.74956
▁माता	-8.74997
▁कृता	-8.75106
▁हो	-8.7514
▁गच्छ	-8.75328
ाई	-8.75388
▁प्रसिद्ध	-8.75402
णि	-8.75412
▁दिव्य	-8.75556
▁पुरा	-8.75616
▁दत्त	-8.75796
यते	-8.75853
ुर	-8.75892
▁तथैव	-8.75943
▁नाश	-8.76105
न्तर	-8.76153
▁उद्	-8.7616
▁हेतु	-8.76406
▁अस	-8.76556
▁व्या	-8.76646
▁द्रव्य	-8.76674
▁शक्त	-8.76735
ैक	-8.76838
▁इन्द्र	-8.77144
▁अनेक	-8.7724
▁यतो	-8.77322
ञ्ज	-8.77429
▁श्र	-8.77465
▁पर्वत	-8.77642
वास	-8.77708
▁शत्रु	-8.77757
▁अनेन	-8.77758
▁से	-8.77799
तं	-8.77821
▁त्र	-8.77909
▁प्रजा	-8.77924
यत	-8.78079
▁समय	-8.78118
▁सर्व्व	-8.78165
▁ऋ	-8.78167
▁ऊ	-8.78208
b	-8.78259
वी	-8.78307
▁ैर्	-8.78476
यु	-8.78562
▁कृष्ण	-8.78573
▁यात	-8.78754
▁वचन	-8.78926
▁अनुसंधान	-8.78936
▁एका	-8.78989
▁१३	-8.7913
▁यावत्	-8.79151
▁चित्त	-8.7921
छ	-8.79244
▁किम	-8.79502
▁कस्य	-8.79525
▁कला	-8.79654
त्या	-8.79747
▁प्रवेश	-8.79759
पेक्ष	-8.79781
▁सर्वेषां	-8.79801
▁वस	-8.79845
▁पितृ	-8.79921
▁उत्	-8.79983
हित	-8.80139
ान्तर	-8.8023
▁इत	-8.80901
र्त	-8.80958
▁विशिष्ट	-8.80965
दान	-8.81043
k	-8.8106
वान	-8.81068
▁१६	-8.81126
▁जात	-8.81233
पु	-8.81326
धान	-8.81376
▁भूमि	-8.81487
▁लिङ्ग	-8.81505
▁तत्त्व	-8.8151
▁भगवान्	-8.81616
▁मध्यम	-8.81648
र्ध	-8.81655
▁ननु	-8.81753
ल्ल	-8.81803
▁कारणं	-8.81807
▁कुर्वन्ति	-8.81897
▁ाद्	-8.82008
▁L	-8.82036
▁c	-8.82115
▁व्रत	-8.82118
▁न्त	-8.82165
▁बोध	-8.82258
▁समास	-8.8271
वर्त	-8.82853
शा	-8.82885
कि	-8.82968
▁अधिकार	-8.83024
▁प्रदेश	-8.83214
▁भिन्न	-8.83364
▁उत्तम	-8.83431
ष्य	-8.83524
C	-8.83545
▁प्राप्नोति	-8.83856
▁लघु	-8.83873
वर	-8.84082
▁तस्मिन्	-8.84337
ॉ	-8.84386
▁सर्वदा	-8.84432
▁बुद्धि	-8.8454
चर	-8.8458
▁न्याय	-8.846
▁आत्म	-8.84614
▁n	-8.84701
▁खलु	-8.84718
▁माया	-8.84908
▁विरोध	-8.84931
▁p	-8.84936
▁शुद्ध	-8.84943
म्ब	-8.85026
▁वेबसाइट	-8.85063
ले	-8.85082
▁l	-8.85103
▁झ	-8.85173
▁इदानीं	-8.85252
िर	-8.85268
▁अधिकतम	-8.8543
तीति	-8.85436
▁वह	-8.85599
▁शब्दः	-8.85781
▁सति	-8.85792
▁पति	-8.85813
▁कृ	-8.85985
▁मुप	-8.86056
▁निज	-8.86286
▁ैव	-8.8632
▁च्छ	-8.86506
▁दिवस	-8.86742
▁T	-8.86778
▁2.	-8.86951
▁गतः	-8.86965
▁12	-8.87093
▁भ्य	-8.8711
दे	-8.8712
▁वर्त	-8.87216
▁एषा	-8.8726
▁भिः	-8.87369
▁मय	-8.87371
▁बा	-8.8785
▁वीर	-8.88079
भा	-8.88088
▁द्वार	-8.88098
▁इत्यर्थः	-8.88129
▁वृत्ति	-8.88141
▁यद्य	-8.88148
▁पत्र	-8.88355
▁दैव	-8.88372
▁ध्यान	-8.88622
▁वायु	-8.88756
▁स्थाने	-8.88775
▁अध्ययन	-8.88786
▁विष	-8.89149
▁भक्त	-8.89228
▁भाष	-8.89247
▁कर्तुं	-8.89318
ैर	-8.89476
▁य्	-8.89489
▁स्वप्न	-8.89574
▁व्यवहार	-8.89805
▁क्र	-8.899
▁ञ्च	-8.8993
▁t	-8.8994
P	-8.89979
▁आस	-8.89993
▁सार	-8.90088
▁गर्भ	-8.90267
▁क्षय	-8.90297
▁कन्या	-8.90435
मे	-8.90582
चन	-8.90623
▁अधिनियम	-8.90673
I	-8.90699
▁सुर	-8.90711
▁ड	-8.90857
▁संसार	-8.9089
▁वश	-8.90976
er	-8.91019
▁हत	-8.91039
ar	-8.91378
िन	-8.91384
;	-8.91648
▁समाचार	-8.91851
▁ोक्त	-8.91929
▁प्राप्य	-8.91949
भाष	-8.91957
ाप	-8.91984
▁मण्डल	-8.92069
▁तम्	-8.92284
▁त्वे	-8.92358
▁वर्ग	-8.92396
टी	-8.92471
▁दुर्	-8.92484
▁स्थित	-8.92579
A	-8.92643
ेक	-8.92652
हर	-8.92715
चित	-8.92786
र्म	-8.92832
▁कुरु	-8.92844
मय	-8.93032
▁सिंह	-8.93039
▁धि	-8.93084
शु	-8.93134
▁पठ	-8.93166
▁कम	-8.93251
▁रुप	-8.93299
रिति	-8.93478
▁पुष्प	-8.93677
▁प्रातः	-8.93711
▁ान्तर	-8.93882
▁सौ	-8.94044
▁सम्भव	-8.94149
स्म	-8.94169
▁b	-8.94247
▁हरि	-8.94259
▁ान	-8.94299
▁चक्र	-8.94307
ीयते	-8.94375
दिति	-8.94384
▁मूल्य	-8.94836
▁m	-8.95074
▁त्रय	-8.95273
▁समर्थ	-8.95474
▁यति	-8.95489
▁धी	-8.95494
को	-8.95499
▁श्व	-8.95512
▁मुनि	-8.95519
▁शक्य	-8.95569
मह	-8.95598
भाग	-8.95678
ष्ण	-8.95824
▁जगत्	-8.95851
▁नर	-8.95908
पाद	-8.96404
▁पे	-8.96467
विध	-8.96474
▁चतुर्थ	-8.9649
▁विश	-8.96721
▁तन्	-8.96761
नां	-8.96779
▁श्रुत्वा	-8.97046
f	-8.97128
परि	-8.9716
▁बुद्ध	-8.97196
ष्ठ	-8.972
▁गते	-8.97243
▁प्रकृत	-8.97299
▁सम्बन्ध	-8.97308
वन	-8.97472
▁तस्या	-8.97492
▁ज्ञात	-8.97604
ात	-8.97808
युक्त	-8.97861
▁वृद्धि	-8.97922
ष्व	-8.98022
▁रात्रि	-8.98062
▁व्यक्ति	-8.9818
▁ाभि	-8.98195
नेन	-8.98322
▁कदाचित्	-8.98481
▁चि	-8.98513
क्र	-8.98529
▁सत्त्व	-8.9871
न्द्र	-8.98747
▁मोह	-8.98785
▁ईश्वर	-8.98788
कर्म	-8.99093
▁वाद	-8.99139
▁पूजा	-8.99211
▁०	-8.99292
▁ीय	-8.99294
िष	-8.99334
▁शर	-8.99382
▁यद्यपि	-8.99443
नाम	-8.9948
▁अहम्	-8.99506
▁वाम	-8.99557
D	-8.99762
▁ती	-8.99882
▁रो	-8.99905
ङ्क	-8.99919
▁परिणाम	-8.99958
▁15	-8.9997
▁श्रेष्ठ	-9.00012
▁मानव	-9.00083
an	-9.00106
▁D	-9.00205
▁18	-9.00232
▁सेवा	-9.00346
▁ार्थं	-9.00505
▁स्वर	-9.00508
▁दिव	-9.00542
▁पृथिवी	-9.00572
▁दीप	-9.00657
▁सू	-9.00697
ीनां	-9.00698
▁क्रीड	-9.00857
ाल	-9.00963
▁गत्वा	-9.01118
E	-9.01155
ग्र	-9.01263
ेऽपि	-9.01358
▁पदार्थ	-9.01369
ॆ	-9.01619
▁स्मृत	-9.01656
ुः	-9.01657
▁मयि	-9.0174
ाप्य	-9.01799
▁रक्त	-9.01825
फल	-9.01925
▁इयं	-9.01937
कम्	-9.0199
▁निमित्त	-9.02034
▁d	-9.02044
गुण	-9.02061
▁भोग	-9.02083
त्तम	-9.02094
▁व्यापार	-9.02118
ीति	-9.02174
▁जु	-9.02194
▁विशेषतः	-9.02339
धे	-9.02404
▁इत्यत्र	-9.02427
▁व्यक्त	-9.02466
▁मी	-9.02587
ेश	-9.02626
▁लिखित	-9.02673
▁विनाश	-9.02703
▁समाज	-9.02853
▁भक्ति	-9.02917
▁भार	-9.02942
▁पत	-9.02991
पाल	-9.03003
▁दिने	-9.03096
▁सत्	-9.03103
▁भारतस्य	-9.03328
▁तेषु	-9.03443
▁काय	-9.03524
▁E	-9.03538
▁क्वचित्	-9.03578
▁लब्ध	-9.03666
न्ध	-9.03803
▁0	-9.03909
र्च	-9.04172
भिर्	-9.04205
▁तुल्य	-9.0427
▁द्य	-9.04302
▁कृतम्	-9.04327
ेषां	-9.04357
▁शिक्षा	-9.04362
▁f	-9.04491
▁चर	-9.04567
यन्ति	-9.04593
>	-9.04608
gst	-9.04628
▁हीन	-9.04683
▁संबन्ध	-9.04736
▁शु	-9.04761
▁गच्छति	-9.04868
▁त्वम	-9.04973
णी	-9.04999
▁अमेरिका	-9.0504
!	-9.05099
▁पृथक्	-9.05118
पत्ति	-9.05256
▁जनवरी	-9.05276
v	-9.05303
▁<	-9.05315
▁स्वभाव	-9.05331
त्वा	-9.0554
▁कर्तव्य	-9.05739
सो	-9.05814
लो	-9.05815
▁पदं	-9.05937
श्र	-9.06095
▁द्विज	-9.06119
▁वर्षा	-9.06141
ण्	-9.06145
▁स्था	-9.06164
▁द्वय	-9.06168
ोक्त	-9.06178
▁मद	-9.06474
▁निर्मित	-9.06484
▁इत्येव	-9.06565
▁अधि	-9.06574
▁अपर	-9.06628
ध्व	-9.06679
▁देवी	-9.0674
▁तिथि	-9.0681
▁वास	-9.06967
धी	-9.07012
▁पृ	-9.07121
▁ठ	-9.07214
▁जप	-9.07251
▁नां	-9.07286
▁कर्ता	-9.07327
▁युग	-9.07504
▁कृपया	-9.07519
▁इत्यनेन	-9.07613
▁11	-9.0762
▁ोऽपि	-9.07664
▁स्थानं	-9.07673
▁३०	-9.07676
यत्	-9.07767
▁स्मर	-9.07839
िनी	-9.07851
▁िक	-9.07875
मन	-9.07907
ज्ज	-9.07911
▁जाता	-9.07936
▁एतद्	-9.07994
स्मि	-9.08062
▁चन्द्र	-9.08066
▁प्रकार	-9.0808
▁वृ	-9.08103
र्ह	-9.08202
▁व्यवस्था	-9.08265
▁बन्ध	-9.08295
र्क	-9.08337
▁समये	-9.08426
▁सहित	-9.08499
▁याति	-9.08594
भू	-9.0864
▁केन्द्र	-9.08712
र्त्त	-9.08807
▁ज्या	-9.08902
जि	-9.09094
िष्यति	-9.09195
रः	-9.09258
▁मनः	-9.09277
शः	-9.09304
▁परीक्षण	-9.09316
▁मोक्ष	-9.09324
▁ब्राह्मण	-9.09604
▁सव	-9.09714
▁एता	-9.09767
▁विष्णु	-9.09971
तृ	-9.10079
▁ोऽ	-9.10147
▁स्वा	-9.10217
▁साध्य	-9.10228
▁कालः	-9.1024
▁स्थिति	-9.10375
▁ज्ञ	-9.10392
राज	-9.1041
▁विध	-9.10504
रिय	-9.10547
वर्ष	-9.10549
▁कर्ण	-9.10581
▁संभव	-9.10636
▁हा	-9.10671
कारः	-9.10833
▁कृतः	-9.10855
▁तन्त्र	-9.10917
▁क्रीडा	-9.11028
▁गमन	-9.11175
िय	-9.1121
धर्म	-9.11212
▁$	-9.11261
▁एषः	-9.11459
▁वाच	-9.11466
▁वापि	-9.11497
ःगु	-9.11591
▁धारा	-9.11594
▁उभय	-9.11611
▁मुक्ति	-9.11618
▁निर्माण	-9.11639
▁ष्व	-9.11901
▁14	-9.11905
▁सर	-9.12007
▁जीवन	-9.12028
शी	-9.12138
धार	-9.12331
रं	-9.12367
▁प्य	-9.12394
ग्न	-9.12421
▁शून्य	-9.12434
▁अल	-9.12526
al	-9.12551
▁अयम्	-9.12785
▁चतुर्	-9.12815
▁बाह्य	-9.1283
▁तानि	-9.12853
▁3.	-9.1297
▁G	-9.13015
▁१९	-9.13044
▁श्लोक	-9.13087
▁उच्च	-9.13115
▁विमान	-9.13345
▁तिष्ठ	-9.13378
▁ेण	-9.1371
▁राग	-9.13844
▁किल	-9.13854
गम	-9.13931
माह	-9.13947
▁भवता	-9.14259
▁काव्य	-9.14295
▁विविध	-9.143
▁२१	-9.14316
िना	-9.14493
▁कीदृश	-9.14506
▁प्रतिशत	-9.14838
▁देवानां	-9.14864
▁गिर	-9.15008
▁मित्य	-9.15193
▁शृणु	-9.15214
▁अर्थः	-9.15288
ीकरण	-9.15574
▁पशु	-9.15612
▁सभा	-9.15847
क्ष्य	-9.15863
▁थ्व	-9.15903
▁एवम्	-9.15937
पन्न	-9.15958
▁20	-9.15973
▁धातु	-9.15992
▁आगत	-9.16109
▁भोजन	-9.16156
ुक्त	-9.16225
▁द्र	-9.16278
▁२५	-9.16283
▁दृढ	-9.16317
स्ता	-9.16372
की	-9.16376
र्ण	-9.164
▁तादृश	-9.16406
▁i	-9.16421
▁हार	-9.16519
▁वित्त	-9.16563
▁समाप्त	-9.16883
मुख	-9.16897
▁वने	-9.16922
▁अङ्ग	-9.16965
▁पश्चिम	-9.16976
▁पश्यति	-9.16997
▁यज	-9.17012
▁ताम्	-9.17115
▁रात्रौ	-9.17149
ष्	-9.17244
▁साम	-9.17254
▁२२	-9.17372
▁वचनं	-9.17387
शो	-9.17571
▁महत्	-9.17623
▁निर्देश	-9.17627
▁विजय	-9.17645
▁विद	-9.17773
▁समस्त	-9.17874
▁स्थिर	-9.17878
▁षु	-9.17912
▁शासन	-9.18017
▁कथय	-9.18061
▁रक्षण	-9.18068
ाभि	-9.18259
ोऽपि	-9.18292
▁परमेश्वर	-9.18396
▁धर	-9.18445
▁स्पष्ट	-9.18499
▁तान्	-9.18679
▁ानाम्	-9.18766
पूर्व	-9.18774
िष्	-9.18837
▁मृग	-9.18957
▁उद	-9.19132
करण	-9.19185
▁तावत्	-9.1919
वेद	-9.19293
▁चरण	-9.19317
▁भवन	-9.19379
▁करो	-9.19427
▁ध्वनि	-9.19437
▁सागर	-9.1949
▁सदस्य	-9.19563
त्स	-9.19672
▁उदाहरण	-9.19679
▁औ	-9.19796
▁बुध	-9.19833
▁परिभाषा	-9.1986
ितुं	-9.19897
माण	-9.19936
▁न्तर	-9.19953
▁पदे	-9.19981
▁विवाह	-9.20131
▁राज्यं	-9.20165
▁परे	-9.20206
▁Home	-9.20252
▁महोदय	-9.20265
▁वान्	-9.20346
00	-9.20362
▁गृहीत	-9.20472
▁एकं	-9.20646
बल	-9.20791
षि	-9.20848
चा	-9.2098
▁दुष्ट	-9.21111
वो	-9.21141
काः	-9.21178
यन्त	-9.21296
▁निश्चित	-9.21407
▁नेत्र	-9.21654
कल	-9.21663
▁२४	-9.21826
▁यथ	-9.21833
▁मानस	-9.21849
▁संशय	-9.21918
▁संयोग	-9.21945
▁माह	-9.21961
▁कर्मणि	-9.22112
▁सुत	-9.22162
▁जलं	-9.22165
▁हित	-9.22196
तौ	-9.22252
▁कारक	-9.22296
ेयं	-9.22329
▁यूयं	-9.22386
▁सम्बद्धान	-9.22477
▁दृष्टि	-9.22492
भाषा	-9.22504
▁संस्करण	-9.22548
ुर्	-9.22598
▁कोऽपि	-9.22659
त्वे	-9.22772
▁्या	-9.2288
क्क	-9.22958
▁सिद्धि	-9.23
वद	-9.23024
▁धनं	-9.23056
न्व	-9.23185
▁युत	-9.232
▁दुर्लभ	-9.23228
▁लक्ष्य	-9.23273
▁तदेव	-9.23311
▁मधु	-9.23353
वत	-9.23411
▁विद्यालय	-9.23421
स्थान	-9.23423
▁धार	-9.23456
..	-9.2353
▁पर्य	-9.23605
▁नदी	-9.23622
्यर्थ	-9.23623
▁दी	-9.23677
▁व्यवसाय	-9.23723
झ	-9.23862
ागत	-9.23953
बन्ध	-9.23983
▁योजना	-9.24016
ुं	-9.24088
ेय	-9.2416
▁भगवन्	-9.24193
▁कश्चित्	-9.24226
▁सुखं	-9.24304
▁ैर	-9.24351
थि	-9.24697
▁कथित	-9.2475
पत्	-9.24775
▁प्राप्ते	-9.24812
▁ात्म	-9.24852
▁कदा	-9.24884
▁O	-9.24897
▁चापि	-9.249
▁समूह	-9.24999
ज्ञा	-9.25041
▁ाद्य	-9.25057
▁मानुष	-9.25101
T	-9.25128
▁गीत	-9.25201
वृत	-9.25227
▁&	-9.25252
क्षि	-9.25387
▁भेदः	-9.25402
नगर	-9.25436
यम	-9.25552
▁गृहं	-9.25586
▁आसन्	-9.25612
▁परस्पर	-9.25617
▁विहित	-9.25628
हे	-9.25679
▁तीर्थ	-9.25731
्यु	-9.2578
▁भयं	-9.25837
वचन	-9.25851
▁पुरुषः	-9.25858
ेभ्यः	-9.2586
▁किमपि	-9.25913
▁सेव	-9.26008
▁तस्याः	-9.2601
▁पू	-9.26036
▁िन	-9.26136
▁मू	-9.26242
▁सेना	-9.26244
▁निष्	-9.26257
पात	-9.26311
▁ले	-9.26329
M	-9.26346
▁कुत्र	-9.2635
▁इदम्	-9.26415
▁चिन्तय	-9.26468
▁एतद	-9.2653
श्य	-9.26572
म्भ	-9.26684
गण	-9.2669
▁भूय	-9.26698
ुष	-9.26717
▁कौ	-9.26758
▁स्तथा	-9.26769
▁कर्मणा	-9.26775
▁शील	-9.26849
▁प्रथमं	-9.26891
▁चार	-9.26904
▁वार	-9.26957
▁प्रव	-9.27013
ुत्तर	-9.27113
▁निवेश	-9.27188
▁तू	-9.27257
▁भाग्य	-9.27267
▁विरुद्ध	-9.27279
▁शस्त्र	-9.2729
▁दर्श	-9.27376
क्षा	-9.27468
▁ms	-9.27469
क्षण	-9.27489
▁N	-9.27775
काले	-9.27799
▁परम्	-9.27932
▁शि	-9.27952
▁शान्ति	-9.27955
▁रज	-9.27988
▁सत्यं	-9.2799
▁क्रोध	-9.28024
▁मस्ति	-9.2824
▁मृ	-9.28372
▁निश्चय	-9.28431
▁अश्व	-9.28504
▁सन्त	-9.2857
▁शीत	-9.28705
▁स्नेह	-9.28735
▁मही	-9.28737
बा	-9.28781
▁ङ्ग	-9.28821
▁ज्ञेय	-9.29081
ष्टि	-9.29125
▁13	-9.29138
▁यू	-9.29165
▁योग्य	-9.29226
स्त्र	-9.29254
▁मुच्यते	-9.29285
▁इतर	-9.29291
▁बीज	-9.29359
▁प्रायः	-9.29364
▁कृषि	-9.29509
▁4.	-9.29534
▁२६	-9.29572
वर्ण	-9.29631
▁पात्र	-9.2965
▁२७	-9.29674
▁शान्त	-9.29725
▁रक्षा	-9.29752
▁कम्	-9.29852
धर	-9.2988
▁ान्त	-9.29881
व्या	-9.30041
क्ति	-9.30132
▁आव	-9.30253
ग्रह	-9.30286
▁त्याग	-9.30388
▁तस्माद	-9.30453
▁दक्षिणा	-9.30475
▁अधुना	-9.30532
%	-9.30581
▁क्षमा	-9.30604
▁त्या	-9.3063
▁जातः	-9.30692
▁त्रि०	-9.30809
▁→	-9.30832
▁ू	-9.30892
▁प्रशिक्षण	-9.31024
▁यन्	-9.31038
▁संस्कार	-9.31134
▁•	-9.31189
▁17	-9.31244
▁नीति	-9.31312
▁वध	-9.31371
▁F	-9.31419
भेद	-9.31484
▁आकाश	-9.31525
▁वाच्य	-9.31593
▁अध्याय	-9.31605
▁प्रथमा	-9.31641
▁रात्र	-9.31657
▁अन्त	-9.31677
पति	-9.3177
▁युव	-9.3187
▁रम	-9.31907
ब्	-9.32061
▁भ्रम	-9.32064
▁राजन्	-9.32074
▁इत्येत	-9.32109
▁मो	-9.32142
▁पात	-9.32202
▁क्त	-9.32266
▁त्वमेव	-9.32283
▁शिष्य	-9.32342
ज्य	-9.32361
ानाम्	-9.32414
▁स्नान	-9.32456
▁o	-9.32513
▁लिख	-9.32725
▁अज	-9.32824
िद	-9.32925
▁निर्णय	-9.32978
▁लक्ष	-9.33045
▁भर	-9.33084
ात्मक	-9.33245
▁संस्था	-9.33258
▁k	-9.33499
▁..	-9.33621
००	-9.33697
▁दिश	-9.33778
▁साधु	-9.33864
▁निषेध	-9.33912
▁देवाः	-9.33941
▁आप	-9.34024
▁मति	-9.34029
▁द्वे	-9.34137
ात्मा	-9.34142
▁बाध	-9.34163
▁अन्तर	-9.34225
▁मै	-9.34275
▁जी	-9.34414
▁स्वयम्	-9.34465
याम	-9.34713
▁{	-9.34742
▁विशेषण	-9.34838
▁करोमि	-9.34934
▁सकल	-9.35045
▁मत्	-9.35057
काश	-9.35067
▁जाति	-9.35118
ांश	-9.35224
▁समुदाय	-9.3533
ाद्य	-9.35339
स्प	-9.35386
▁प्रतिषेध	-9.35438
▁न्न	-9.35465
▁स्त्रियां	-9.35488
▁भवतु	-9.3559
▁क्रमेण	-9.35617
▁रहित	-9.35663
▁क्षम	-9.3568
यि	-9.35696
▁प्रसन्न	-9.35885
▁साधारण	-9.35929
▁कृत्य	-9.35971
लु	-9.36005
▁अह	-9.36035
▁गन्ध	-9.3607
▁वत्स	-9.36101
▁पुराण	-9.36143
▁द्वौ	-9.36293
▁क्षेत्रे	-9.36318
भ्यः	-9.36321
▁इतिहास	-9.36379
ेश्वर	-9.3641
▁यात्रा	-9.365
▁श्रम	-9.3651
▁R	-9.36585
स्ते	-9.36724
L	-9.36785
भु	-9.36814
▁शब्दस्य	-9.36839
w	-9.36897
▁धन्य	-9.36909
▁टी	-9.37125
िणी	-9.37175
▁ात्मक	-9.37221
▁प्रयोजन	-9.37299
▁ादौ	-9.37312
▁छात्र	-9.37326
N	-9.37386
▁स्पर्श	-9.37478
▁पितर	-9.37491
सार	-9.37515
▁प्रवृत्ति	-9.37524
▁लो	-9.37602
दर	-9.37633
▁निवृत्त	-9.37645
▁२३	-9.37678
▁कुतः	-9.37718
▁धु	-9.37724
▁विशेषः	-9.37759
▁सूक्ष्म	-9.37783
▁नै	-9.37824
यै	-9.37853
▁अतो	-9.37854
ित्वा	-9.37995
▁पृष्ट	-9.38008
त्थ	-9.38093
▁प्रत्ययः	-9.38099
▁कति	-9.38111
▁ध्रुव	-9.38229
▁ऋण	-9.38262
▁राक्षस	-9.38351
स्मा	-9.38396
▁पुस्तक	-9.38543
▁कार्यक्रम	-9.38564
▁लेख	-9.3861
▁कथम्	-9.38611
ूष	-9.38719
▁िष्य	-9.38744
िण	-9.3875
▁नरक	-9.38763
▁पाठः	-9.38821
▁भाष्य	-9.38826
्यन्ते	-9.38873
▁प्रवृत्त	-9.38909
▁कुर्यात्	-9.38991
▁भज	-9.38991
षे	-9.38995
▁यन्त्र	-9.39072
in	-9.39146
वन्	-9.39162
दार	-9.39179
▁षष्ठ	-9.39258
▁ादीनां	-9.39275
▁खण्ड	-9.39326
▁नेवाः	-9.39387
▁जान	-9.3958
ष्टा	-9.39661
ोत्तर	-9.39675
▁छुं	-9.39727
र्द	-9.39877
▁उपरि	-9.40023
▁H	-9.4012
▁सर्वाणि	-9.40142
▁16	-9.40168
▁ुप	-9.40243
▁जे	-9.40331
ादौ	-9.40353
▁पश्चात्	-9.40405
▁जीवित	-9.40417
स्ट	-9.40459
▁कथ	-9.40715
▁उपयोगकर्ता	-9.40754
▁रुपये	-9.4085
▁दो	-9.40869
▁मात्रा	-9.40892
▁स्त्व	-9.40896
▁मिदं	-9.40897
▁प्रविष्ट	-9.40921
▁शीघ्र	-9.40984
▁संस्थान	-9.41021
▁अभ्य	-9.41033
▁ज्ञा	-9.41048
▁//	-9.41049
पत्र	-9.41062
▁उत	-9.41122
▁बी	-9.41202
▁कथम	-9.41252
▁गोप	-9.41281
स्मिन्	-9.41296
जीव	-9.41325
▁शीघ्रं	-9.41449
▁संज्ञा	-9.41617
मो	-9.41628
पुर	-9.41702
हु	-9.41702
▁स्मृति	-9.41713
▁याम	-9.41724
▁ग्रहण	-9.41822
▁स्थितः	-9.41825
re	-9.41831
तव्य	-9.41908
ञ	-9.42019
▁Tag	-9.42105
▁तप	-9.42116
▁सरकार	-9.4215
▁भी	-9.42163
▁परिवार	-9.42175
रात्र	-9.42179
▁जानाति	-9.42218
विश	-9.42235
▁देहि	-9.4226
▁विवेक	-9.42274
▁विकिपीडिया	-9.42302
B	-9.42326
▁कुशल	-9.42426
▁प्रयत्न	-9.42433
▁प्रत्या	-9.42546
टि	-9.426
िष्ठ	-9.42705
▁v	-9.42713
▁मरण	-9.42766
▁इष्ट	-9.42827
▁व्यय	-9.42834
▁सदृश	-9.42883
▁विद्यमान	-9.42946
▁सृज	-9.42967
▁अन्न	-9.43008
▁सङ्	-9.43023
▁g	-9.43036
▁२८	-9.43098
▁वी	-9.43186
▁जित	-9.43264
▁ऋत	-9.43296
यितुं	-9.43367
▁तस्माद्	-9.43468
▁श्वेत	-9.43469
▁चल	-9.43524
ीर	-9.43539
▁परिवर्तन	-9.43592
▁देवि	-9.436
भ्र	-9.43624
मस्ति	-9.43643
शन	-9.438
▁२००	-9.43866
▁अय	-9.43896
ची	-9.43896
▁दल	-9.43994
O	-9.43996
▁स्वीकृत	-9.44037
▁प्राचीन	-9.44055
दश	-9.44097
▁r	-9.44139
िह	-9.44227
▁दुर्ग	-9.4424
रस	-9.44273
मन्त्र	-9.44331
▁विधिः	-9.44389
▁V	-9.44417
म्ह	-9.44566
▁पक्षे	-9.44738
▁स्मरण	-9.44801
▁पुत्रः	-9.44848
पे	-9.44894
▁वीर्य	-9.44988
ह्न	-9.44998
रोध	-9.45
▁तस्मै	-9.45064
▁यान	-9.4508
▁30	-9.45103
ैष	-9.45242
▁व्याख्या	-9.45305
ृत	-9.45307
▁ेभ्यः	-9.45325
▁जना	-9.45333
▁नील	-9.45353
▁मल	-9.45521
़	-9.45534
्यै	-9.45556
▁मिव	-9.4561
▁प्रयोगः	-9.45642
▁नृत्य	-9.45693
वेश	-9.45837
▁स्थल	-9.45844
▁लु	-9.45885
▁e	-9.45885
▁लक्षणं	-9.45907
िताः	-9.45909
▁श्रवण	-9.45944
▁शब्देन	-9.45954
ून	-9.46011
ाहं	-9.46057
षण	-9.461
▁विकार	-9.46101
▁शक्तिः	-9.46155
िष्ट	-9.46262
▁यानि	-9.46273
▁प्रेम	-9.46332
▁w	-9.46341
रू	-9.46388
त्वेन	-9.46434
▁महिला	-9.46452
▁कुमार	-9.46515
▁साहित्य	-9.4657
गी	-9.46588
▁ताः	-9.466
ाभ्यां	-9.4668
▁५०	-9.46684
▁प्रत्येक	-9.46694
▁प्रसाद	-9.4672
▁पिब	-9.46724
▁देशः	-9.46889
▁ग्रहणं	-9.46914
▁मन्य	-9.46917
सम	-9.47031
▁ङ	-9.47031
▁डि	-9.47056
▁तिष्ठति	-9.47101
▁स्यापि	-9.47135
ल्य	-9.47142
ालय	-9.4716
▁सङ्ग	-9.47291
▁दूत	-9.4735
▁सहाय	-9.47372
▁to	-9.4739
▁प्रीति	-9.47436
वृ	-9.47462
▁येषां	-9.47505
ग्नि	-9.47533
▁एतेन	-9.47625
▁खेल	-9.4763
▁विश्लेषण	-9.4772
िणः	-9.47733
▁प्रयुक्त	-9.47991
मात्र	-9.47999
ाधिक	-9.48018
दन	-9.48063
ेऽ	-9.48087
हो	-9.48178
▁क्रिय	-9.48197
▁रुचि	-9.48237
▁सम्पूर्ण	-9.48237
▁यथार्थ	-9.48281
▁गता	-9.48294
▁देशस्य	-9.48365
▁ाभ्यां	-9.48418
▁लभते	-9.48449
▁स्ते	-9.48501
▁बहुधा	-9.48515
कृ	-9.48579
▁णा	-9.48751
▁प्रकरण	-9.48781
वृत्त	-9.48814
+	-9.48951
▁अल्प	-9.48957
▁कै	-9.48967
▁समु	-9.48973
▁सम्यक्	-9.48976
योज	-9.4901
क्स	-9.49064
▁जाल	-9.49096
▁एस	-9.49221
▁ताव	-9.49266
▁वाक्यं	-9.49343
रेव	-9.49419
▁आर	-9.49442
माना	-9.49465
▁शब्दे	-9.49469
▁पूर	-9.49541
▁आदि	-9.49584
▁महान्	-9.49588
▁विस्तार	-9.4961
▁कृतवान्	-9.49616
ादेश	-9.49677
▁विधीयते	-9.49687
▁विपरीत	-9.49732
▁च्	-9.49769
▁परन्तु	-9.49797
▁दर	-9.49962
▁अष्ट	-9.50044
▁शेषः	-9.50085
र्न	-9.50121
▁अन्ये	-9.50162
▁मनसा	-9.50192
▁क्रि	-9.50231
ह्य	-9.50259
▁आवश्यक	-9.50272
▁25	-9.50321
▁पथ	-9.50437
▁शोक	-9.50452
▁गुणा	-9.50471
१०	-9.50475
▁प्रत्येकं	-9.50481
▁आत्मा	-9.50615
▁सप्तम	-9.5065
▁तार	-9.50669
▁एतस्य	-9.50722
शेष	-9.50753
▁स्थिता	-9.50759
▁स्याद	-9.50764
▁विधान	-9.50965
▁पीत	-9.51029
न्ती	-9.51103
▁नियत	-9.51154
जी	-9.51197
▁तैः	-9.51265
▁विषयः	-9.51268
▁मन्दिर	-9.51284
▁वस्त्र	-9.51285
▁पेपर	-9.51444
▁यते	-9.5145
or	-9.51485
▁कृति	-9.51509
▁व्यायाम	-9.51547
▁जानामि	-9.51592
▁क्	-9.51612
▁ेश्वर	-9.51642
▁प्रतिष्ठा	-9.51677
▁यस्मिन्	-9.51857
▁समीप	-9.51864
▁h	-9.51888
द्व	-9.51907
▁नहि	-9.52032
▁कल्याण	-9.52053
▁ान्य	-9.52163
▁पु०	-9.52174
▁सोऽ	-9.52184
▁नूतन	-9.52194
स्र	-9.52222
▁धारय	-9.52252
▁प्रद	-9.5228
धिक	-9.5231
▁ऽहं	-9.52374
▁ददाति	-9.52445
▁मन्द	-9.52452
▁चिन्ता	-9.52601
▁न्यास	-9.52608
▁ेत्य	-9.52623
▁प्रोक्तं	-9.52623
स्मै	-9.52651
▁सामाजिक	-9.52696
▁मासे	-9.52701
▁ाख्य	-9.52714
▁दृ	-9.52762
डि	-9.52764
▁ँ	-9.52793
▁छु	-9.5281
व्	-9.52857
▁रत्न	-9.52858
िव	-9.52872
▁गृह्ण	-9.52974
▁रुद्र	-9.53036
पक्ष	-9.53047
▁युवा	-9.53081
▁शुक्र	-9.53405
▁तथ	-9.5345
▁इत्यादिना	-9.53504
▁पच	-9.53588
▁स्त्र	-9.53638
मान्	-9.53738
▁कमल	-9.53742
▁मूर्ख	-9.53803
▁राशि	-9.53819
▁ाणां	-9.53824
▁ज्येष्ठ	-9.5388
ओ	-9.5389
▁कर्म्म	-9.53916
▁करोतु	-9.53929
▁दर्शित	-9.5394
▁लिखत	-9.53968
▁प्	-9.54025
▁अतीत	-9.54047
▁४०	-9.54136
▁in	-9.54263
शत	-9.54308
▁वर्गः	-9.54325
▁अहो	-9.54363
▁मधुर	-9.54428
▁मित	-9.5444
▁परमं	-9.54454
▁अग्ने	-9.54512
▁चेति	-9.54527
इगु	-9.54542
प्स	-9.54617
▁स्थापित	-9.54693
च्य	-9.54698
▁सङ्ख्या	-9.5477
चित्	-9.54778
▁मन्यते	-9.54811
▁हय	-9.54841
▁विद्य	-9.54868
▁चिर	-9.55062
▁विश्वविद्यालय	-9.55078
▁यॊ	-9.55152
▁ग्राह्य	-9.55179
▁रण	-9.55208
घात	-9.55231
▁वंश	-9.55273
▁भगवान	-9.55498
▁इदम	-9.55695
▁अन्तर्	-9.55738
त्वम्	-9.55749
▁नाना	-9.55773
▁कर्	-9.55838
▁वर्णन	-9.55894
ध्	-9.55979
▁अध	-9.55993
भी	-9.56083
▁ख्यात	-9.56118
धन	-9.56136
▁सदैव	-9.56199
▁रूपा	-9.56253
ेदं	-9.56272
▁ष्य	-9.56328
वां	-9.5633
दृश	-9.56366
▁कर्तव्यं	-9.56485
▁प्रण	-9.56552
▁फरवरी	-9.56563
▁यन्ति	-9.5669
▁प्रतिभा	-9.56704
▁ष्ठ	-9.56825
▁सफल	-9.56876
▁सैन्य	-9.56922
दं	-9.56933
यात	-9.56937
▁अतीव	-9.56993
▁घृत	-9.57
▁मातृ	-9.57005
▁श्रेय	-9.57009
पन	-9.57052
▁प्रसङ्ग	-9.57096
▁सम्भवति	-9.57099
▁सुन्दर	-9.57119
▁स्वतन्त्र	-9.5723
प्नोति	-9.57236
▁जग	-9.5724
▁सीता	-9.57251
▁मार	-9.57282
▁जूगु	-9.57283
▁अत्यन्त	-9.57306
ट्ट	-9.57358
▁वल	-9.57388
▁धीर	-9.57389
▁सर्वेषु	-9.57399
ic	-9.57473
▁संस्कृति	-9.57476
मिदं	-9.57521
▁चेत	-9.57525
▁ध्व	-9.57667
▁नरः	-9.57698
ताम्	-9.57757
▁हृदि	-9.57759
▁बह	-9.57815
▁अन्यत्र	-9.57891
गो	-9.57895
at	-9.57928
▁करिष्यामि	-9.57938
▁पाल	-9.57967
सां	-9.58025
▁दास	-9.58114
▁गिरि	-9.58154
▁आदेश	-9.58155
युः	-9.58293
▁हु	-9.58306
▁भद्र	-9.58307
▁णि	-9.58314
▁हं	-9.58353
▁मुद्रा	-9.58356
▁धन्यवाद	-9.58368
▁K	-9.58374
पद्यते	-9.58415
R	-9.58652
▁पर्व	-9.58703
▁निः	-9.58744
ii	-9.58806
▁थः	-9.58884
▁२९	-9.5891
▁न्यून	-9.58927
▁षट्	-9.58949
▁बलि	-9.58962
▁नाम्ना	-9.58971
ुच्यते	-9.59033
▁एकादश	-9.59062
am	-9.59118
▁विवरण	-9.59183
▁मेरे	-9.59203
▁दुःखं	-9.59217
▁सन्धि	-9.5922
▁भवे	-9.5923
▁कारणम्	-9.5933
▁उपयोग	-9.59352
▁३१	-9.59375
▁21	-9.59382
▁पवित्र	-9.59462
▁रति	-9.59474
▁त्यज	-9.59518
▁कथ्यते	-9.59527
ुक	-9.59569
▁दध	-9.59589
तन	-9.5961
▁ोत्तर	-9.59632
▁दया	-9.59638
▁दू	-9.59777
णु	-9.59798
ण्य	-9.5984
▁स्याद्	-9.59921
▁दर्शयति	-9.59925
ितुम्	-9.59971
▁नाथ	-9.59972
म्य	-9.60058
▁गज	-9.60084
▁कथन	-9.6037
▁हन्त	-9.6041
स्क	-9.60467
▁तच्च	-9.6047
प्रति	-9.60523
▁भारते	-9.60542
▁वः	-9.60557
▁बालक	-9.60572
▁तयोः	-9.60582
मध्ये	-9.60583
▁दोषः	-9.60752
लय्	-9.60777
ाऽ	-9.60789
सन्	-9.60834
वाह	-9.60837
▁पत्नी	-9.60871
कार्य	-9.60896
ल्प	-9.60929
▁तदपि	-9.6102
▁युक्तं	-9.61063
▁ऽप्य	-9.61085
तरं	-9.61087
▁स्ता	-9.61127
तन्त्र	-9.61165
▁दृश	-9.61193
▁िका	-9.61205
▁रिति	-9.61225
▁तक	-9.61252
थे	-9.61299
▁इत्याह	-9.61325
▁हल	-9.61327
et	-9.61349
▁इन्	-9.61391
#	-9.61645
▁डा	-9.61813
▁कथितं	-9.61824
▁पार्थिव	-9.61882
▁बद्ध	-9.61924
दो	-9.61976
▁सृष्ट	-9.61991
▁वाहन	-9.6206
जु	-9.62146
es	-9.62224
▁होम	-9.62308
तार	-9.62319
िम	-9.6233
▁मत्स्य	-9.62354
टा	-9.62356
▁द्ध	-9.62413
▁पुन	-9.62539
ग्ने	-9.62547
मू	-9.62563
▁श्रुति	-9.626
्येव	-9.62689
▁पो	-9.62693
▁वदति	-9.6274
जान	-9.62758
▁कश्चन	-9.62759
▁24	-9.62842
▁ांश	-9.62887
▁हृदयं	-9.62924
▁यजमान	-9.63004
▁प्रभो	-9.63043
▁उवाच	-9.63067
▁5.	-9.63075
वै	-9.63097
ष्म	-9.63101
▁इत्यत	-9.63104
▁नाहं	-9.63124
▁भागे	-9.63158
ाक्ष	-9.63184
▁राष्ट्रिय	-9.63203
▁धात	-9.63216
भिर	-9.63218
▁स्तर	-9.63273
मत	-9.63277
▁प्रोक्त	-9.633
ोर	-9.6333
स्थित	-9.63463
▁सुवर्ण	-9.63489
*	-9.6352
विद	-9.63602
यामि	-9.63715
▁मोद	-9.63725
िनो	-9.63795
णो	-9.63836
▁शं	-9.63854
▁समन्वित	-9.63882
▁भवत्य	-9.64046
िभिः	-9.64117
▁ययौ	-9.64288
मास	-9.64293
▁प्रवर्तते	-9.64339
▁अस्मि	-9.64366
मुप	-9.64396
इति	-9.644
▁सरल	-9.64408
▁ोत्	-9.64549
▁ध्याय	-9.64627
▁ज्ञायते	-9.64651
▁कार्यम्	-9.64671
en	-9.64739
पुरुष	-9.64755
▁भगव	-9.64826
ुद	-9.6489
▁दन्त	-9.6491
ाङ्ग	-9.64917
ृष्ट	-9.64926
▁खाद	-9.64964
र्द्ध	-9.64989
नाय	-9.64998
▁ढ	-9.65052
▁युद्धे	-9.65063
▁चाल	-9.65121
▁वचः	-9.65148
देशे	-9.65251
बी	-9.65275
▁ज्ञात्वा	-9.65299
▁भो	-9.65309
▁बु	-9.65341
▁दरिद्र	-9.65369
▁तर्क	-9.65447
वह	-9.65509
▁इत्य्	-9.65511
ur	-9.65515
दिष्ट	-9.65579
िनां	-9.65591
▁रोचते	-9.65634
▁वह्नि	-9.65672
▁प्रमुख	-9.65742
▁पाक	-9.65789
▁उपाय	-9.65791
▁निरा	-9.65807
▁तात	-9.65874
▁म्ह	-9.6596
▁भीत	-9.65973
थ्	-9.6599
▁श्चैव	-9.65997
▁स्वाहा	-9.6602
धु	-9.66054
शास्त्र	-9.66084
▁चिद	-9.66172
▁था	-9.66183
▁इत्युक्त	-9.66188
▁सम्बद्ध	-9.66223
मित	-9.66231
▁कुरुते	-9.66285
▁दक्ष	-9.6632
▁व्रज	-9.66327
▁उत्पाद	-9.66331
▁हृदये	-9.66338
▁गाय	-9.66341
▁पंच	-9.6635
▁वयम्	-9.66363
▁प्रतिज्ञा	-9.6637
▁यन्त	-9.66474
स्त्व	-9.66495
▁लोप	-9.66541
▁स्र	-9.66542
▁स्वतः	-9.66625
le	-9.66665
सम्	-9.66672
▁हंस	-9.66689
मुक्त	-9.66704
स्त्य	-9.66718
▁नायक	-9.66754
▁किञ्चित्	-9.66768
▁अर्ध	-9.6678
▁भु	-9.66782
▁कव	-9.66823
▁ाङ्ग	-9.66828
▁उत्पादन	-9.66831
यान	-9.66849
▁बहिः	-9.66883
▁गतिः	-9.66915
▁बलं	-9.66926
▁अभाव	-9.66976
on	-9.66984
▁स्तव	-9.66989
यन	-9.67001
वद्	-9.67011
▁राष्ट्रपति	-9.67021
▁हानि	-9.67024
▁विल	-9.67061
गमन	-9.67124
▁यस्तु	-9.67153
▁ादिषु	-9.67198
▁मन्ये	-9.67236
▁वार्ता	-9.67286
▁गम	-9.67303
▁विधा	-9.67305
▁घोषणा	-9.67338
येत	-9.67392
गू	-9.67401
▁तृतीया	-9.67485
योजन	-9.67524
▁वर्षाणि	-9.67565
▁योजन	-9.67594
▁कुर्वन्	-9.67683
▁वार्षिक	-9.67853
▁दह	-9.67858
▁सामर्थ्य	-9.68079
▁सद्	-9.6808
▁पुत्रा	-9.68103
▁साध	-9.68198
▁विभक्त	-9.68214
▁अनुवाद	-9.68216
॒त	-9.68228
यित्वा	-9.68292
▁तन्न	-9.68309
▁कृपा	-9.68352
ाहुः	-9.68366
पू	-9.68394
▁मनसि	-9.68401
▁नाग	-9.68445
ab	-9.68451
▁ैश्च	-9.68663
▁W	-9.68683
▁३३	-9.68721
▁त्रा	-9.68766
▁वरिष्ठ	-9.68771
▁कुत	-9.68831
▁ाधिकार	-9.6885
▁सय	-9.68863
▁ॆ	-9.68892
▁ऽन	-9.689
▁निर्दिष्ट	-9.68917
सिद्ध	-9.68965
▁समीक्षा	-9.68973
▁तेषाम	-9.69038
▁मिश्र	-9.69062
▁मेघ	-9.69068
यात्	-9.69203
▁दानं	-9.69316
▁एवम	-9.69318
▁खँ	-9.69353
▁भेदे	-9.69378
▁दार	-9.69422
▁कष्ट	-9.6945
ैन	-9.69472
शक्ति	-9.69512
▁राज्ञ	-9.69514
न्त्य	-9.69776
स्था	-9.6979
▁प्राय	-9.69794
स्स	-9.69817
फ्	-9.69858
▁पार्थ	-9.69869
▁३२	-9.69888
वन्तः	-9.69911
▁व्याकरण	-9.69953
▁समीपे	-9.69991
▁अनुभव	-9.70047
▁मिथ्या	-9.70082
▁वज्र	-9.7009
पते	-9.70108
▁हेतुः	-9.70141
▁यै	-9.70169
▁निद्रा	-9.70245
शय	-9.70255
▁अभ्यास	-9.70289
▁भार्या	-9.70295
▁प्रो	-9.70333
▁लोका	-9.704
सौ	-9.70401
ास्ति	-9.70452
▁बृह	-9.70537
थ्य	-9.70613
विधि	-9.70643
▁देवः	-9.70671
▁चीन	-9.70671
▁कोटि	-9.70752
▁वस्तुतः	-9.70863
▁MS	-9.70906
▁वक्तव्यम्	-9.70949
▁केचित्	-9.70958
▁िण	-9.71063
▁किञ्च	-9.71115
▁षड्	-9.7121
▁भुज	-9.71282
▁सर्प	-9.71289
बोध	-9.71306
▁स्वागत	-9.71331
▁जीवनं	-9.71376
गल	-9.71404
िनि	-9.71415
▁करणे	-9.71421
▁भिर्	-9.71435
दिश	-9.71623
▁स्रोत	-9.71644
▁प्राक्	-9.71679
ण्ट	-9.71743
▁त्वत्	-9.71955
▁कर्त्तव्य	-9.71967
▁मंत्र	-9.72018
▁जनक	-9.72056
▁मुद्	-9.72193
▁कट	-9.72234
▁चित्	-9.72249
▁पूर्वा	-9.72308
▁प्रयोजनम्	-9.72384
्युप	-9.72476
▁उपा	-9.72487
▁पृथिव्या	-9.7253
▁प्राप्ति	-9.72544
▁पुरस्कार	-9.72604
▁साक्षात्	-9.72654
▁घात	-9.72705
▁कार्या	-9.72743
▁प्रश्नः	-9.72762
▁वृष	-9.72789
ूनां	-9.72802
▁यश्च	-9.72822
ोच्यते	-9.72857
▁परत	-9.72878
▁नारी	-9.72901
▁विश्वे	-9.73034
▁शाश्वत	-9.73087
▁माल	-9.73098
▁श्रद्धा	-9.73142
▁प्रतीयते	-9.73159
▁नगरे	-9.73166
▁अस्तु	-9.73183
▁नापि	-9.73194
▁प्रह	-9.73235
चल	-9.73251
▁वसु	-9.73254
▁वाह	-9.73283
x	-9.73404
ज्ञान	-9.73405
▁पूज्य	-9.73519
▁J	-9.7352
▁आवेदन	-9.73568
▁योर्	-9.73679
षी	-9.73688
ह्व	-9.73696
▁शयन	-9.73726
ed	-9.73767
▁अना	-9.73806
▁पद्म	-9.7388
▁माण	-9.73892
▁वती	-9.73945
▁अत्य	-9.73949
▁बहवः	-9.74077
▁आनन्द	-9.7414
वर्तत	-9.74152
▁दुग्ध	-9.74234
▁सततं	-9.74266
▁स्फुट	-9.74351
▁मूढ	-9.74395
▁कदाचन	-9.744
▁भूम	-9.74496
▁प्रती	-9.74544
▁स्वर्ण	-9.74611
टक	-9.74623
▁मद्	-9.74645
▁एम	-9.74646
▁व्याख्यात	-9.74763
▁हृत	-9.74781
▁स्थिते	-9.74783
▁स्तस्य	-9.74925
▁यव	-9.74973
▁युक्तः	-9.74984
▁छन्द	-9.74996
▁आरम्भ	-9.75041
▁सृष्टि	-9.75095
▁भाषाया	-9.75115
▁प्रभु	-9.75128
पान	-9.75191
▁व्यवस्थित	-9.75213
▁मातर	-9.75229
▁मांस	-9.75258
▁पतिः	-9.75273
▁प्रस्तुत	-9.75311
▁विश्वास	-9.75322
un	-9.75354
▁द्वीप	-9.75417
▁23	-9.75495
▁वाचक	-9.75498
्र	-9.75607
त्ता	-9.75623
▁यच्च	-9.75625
▁प्रक्रिया	-9.75659
▁स्तोत्र	-9.75696
िन्	-9.75709
▁खु	-9.75745
▁करिष्यति	-9.75759
प्रत्यय	-9.75773
▁प्ल	-9.75839
▁22	-9.75841
▁प्राप	-9.75845
▁नान्य	-9.75909
कृति	-9.75927
▁धारण	-9.75985
▁ऽनु	-9.76001
▁तत्रैव	-9.76076
▁कर्तव्यम्	-9.76085
कुल	-9.76122
▁योनि	-9.76129
▁वेग	-9.76204
▁re	-9.76225
▁एकदा	-9.76228
▁स्तत्र	-9.76246
यू	-9.76284
दिन	-9.76451
▁भूत्वा	-9.76466
▁नष्ट	-9.76475
▁गर	-9.76502
▁इच्छा	-9.76758
▁वृत	-9.76759
▁कार्य्य	-9.76788
▁मन्	-9.76849
धाय	-9.76864
▁अनि	-9.76963
िल	-9.76965
▁सौभाग्य	-9.77009
▁पर्यावरण	-9.77013
▁पल	-9.77019
रक्ष	-9.7703
▁लेखन	-9.7703
ूत	-9.7714
ोऽहं	-9.77176
भवत्	-9.77199
▁इच्छ	-9.77218
▁नात्र	-9.77224
▁ही	-9.77277
▁बे	-9.77325
▁धर्मः	-9.77353
दर्शन	-9.77448
▁पट	-9.77573
▁टे	-9.77589
▁घन	-9.77605
सृज	-9.77647
▁खोज	-9.77671
▁एतादृश	-9.77707
▁सर्वकार	-9.77715
िष्यते	-9.77726
▁निर्वाचन	-9.77742
▁भे	-9.77748
▁पै	-9.7784
▁कल्पित	-9.77854
▁सम्पन्न	-9.77907
बु	-9.77978
खिल	-9.7799
▁प्रधानमन्त्री	-9.78014
▁विवाद	-9.78028
सन	-9.7809
कट	-9.78113
▁ध्य	-9.78148
▁नन्द	-9.78276
▁पीठ	-9.78301
▁री	-9.7833
▁विदेश	-9.78369
▁अक्षर	-9.78438
▁प्रार्थय	-9.78454
कृत्	-9.78454
भास	-9.7855
▁मूर्	-9.78551
▁स्वयमेव	-9.78551
▁ङीप्	-9.78691
▁मानं	-9.78704
▁गुह्य	-9.78721
▁स्थापय	-9.78739
▁त्वयि	-9.78762
ुम	-9.78805
▁कृत्	-9.78847
▁शम	-9.78854
▁शङ्क	-9.7887
▁पितामह	-9.78901
▁३५	-9.78952
▁हू	-9.78955
▁वन्त	-9.78957
▁आचार्य	-9.7903
ीकृत	-9.79112
▁भूता	-9.79142
▁प्रभात	-9.79157
▁स्ति	-9.79175
▁of	-9.79187
ांसि	-9.79323
▁प्रज्ञा	-9.79361
▁कोप	-9.79382
विष्ट	-9.79455
▁संसाधन	-9.79462
मूल	-9.79466
▁भास	-9.79479
तस्	-9.79502
▁प्रतिवेदन	-9.79543
▁प्रीत	-9.79579
योर्	-9.79605
▁ख्या	-9.7965
▁पूर्वोक्त	-9.79707
क्षु	-9.79709
▁दिनाङ्के	-9.79786
▁धकाः	-9.79813
it	-9.79955
▁u	-9.79978
▁समस्या	-9.80068
▁४५	-9.80114
▁ऽन्य	-9.80155
▁27	-9.8017
ार्थः	-9.80177
▁नेपाल	-9.80187
▁मथ	-9.8023
भागे	-9.80261
▁प्रमाणं	-9.80269
▁जो	-9.80385
▁तनु	-9.80396
▁ाश्रय	-9.80453
▁पतित	-9.80457
▁सर्वान्	-9.80459
▁धाव	-9.80544
▁यस्या	-9.80562
गे	-9.80619
▁अध्यक्ष	-9.80632
▁निवृत्ति	-9.80675
▁पीसी	-9.80684
▁माम्	-9.80694
▁स्वास्थ्य	-9.80747
▁विश्वं	-9.80756
▁पाय	-9.80793
▁पृच्छ	-9.80826
▁विनि	-9.80836
ब्ध	-9.80841
▁जुइ	-9.80912
▁ादयः	-9.80926
▁रामः	-9.80941
▁मर्त्य	-9.80947
▁हर्ष	-9.80966
▁तृ	-9.80986
▁भागः	-9.81005
▁अन्वयः	-9.8103
▁कान्त	-9.81045
वच	-9.81067
▁महत्वपूर्ण	-9.81096
▁न्ते	-9.8113
▁प्राप्ता	-9.81182
▁भ्यः	-9.81213
डा	-9.81215
▁शक्नोति	-9.81269
मृत	-9.81296
▁न्ति	-9.81374
▁ेत	-9.81406
▁अस्याः	-9.81425
▁ग्रीष्म	-9.81442
▁कदापि	-9.8145
▁ास्ते	-9.81487
▁३६	-9.81527
▁ोऽयं	-9.81547
▁इमे	-9.81583
▁शक्र	-9.81633
▁सर्वतः	-9.81649
▁देवस्य	-9.81774
ay	-9.81794
भय	-9.81822
▁बभूव	-9.81894
▁नीय	-9.81902
यम्	-9.81911
सृ	-9.81942
तीत	-9.82004
वर्ग	-9.82097
▁प्रथमः	-9.82131
हत	-9.82142
▁रूपम्	-9.82162
▁शश	-9.82283
▁जनानां	-9.82284
▁जले	-9.82339
▁द्विगुण	-9.82375
▁न्तु	-9.82433
गर	-9.82434
▁प्रेक्ष	-9.82499
▁एन	-9.825
भार	-9.82528
▁निवर्त	-9.82543
▁दशम	-9.82561
▁धृत	-9.82638
ासन	-9.82675
▁वक्तुं	-9.82677
▁अग्रे	-9.82689
▁इतः	-9.8281
▁पूजित	-9.82841
त्येव	-9.82841
▁क्लेश	-9.82859
न्यास	-9.82877
▁राष्ट्रीय	-9.82882
▁कम्प	-9.82887
▁मभि	-9.82938
▁हिंसा	-9.82945
▁काश	-9.82965
िष्यामि	-9.83084
▁पर्यन्तं	-9.83088
▁गर्	-9.83095
ेन्द्र	-9.83243
▁सायं	-9.83288
▁घटना	-9.83339
▁कालं	-9.83408
▁पीड	-9.83457
▁आय	-9.83478
▁दशा	-9.83504
▁मात्रं	-9.83527
▁शिक्षण	-9.83546
▁ाप	-9.83566
ितव्य	-9.83593
क्षेप	-9.83617
▁घोर	-9.83625
▁कर्माणि	-9.83798
▁प्रकारेण	-9.83801
▁३७	-9.8382
▁युष्म	-9.83832
▁द्वितीया	-9.83832
▁भवतीति	-9.83838
▁रहस्य	-9.8384
▁इत्या	-9.83847
▁पान	-9.8392
▁समं	-9.83945
▁स्तम्भ	-9.83987
▁सम्बन्धि	-9.84026
▁26	-9.84054
▁वेति	-9.84073
▁शरणं	-9.84076
मनु	-9.84122
G	-9.84157
▁नृ	-9.84193
शील	-9.84206
▁परमा	-9.84217
▁रह	-9.84262
▁अन्तः	-9.84265
▁प्रस्ताव	-9.84276
▁यानाः	-9.84276
iv	-9.84279
▁गम्यते	-9.8433
▁करे	-9.84339
▁शे	-9.84354
▁क्षु	-9.84408
▁नेति	-9.84531
▁याम्	-9.84642
▁मव	-9.84739
▁प्रतिदिनं	-9.84761
▁शिशु	-9.84768
तुं	-9.84776
▁लभ्यते	-9.84798
▁प्रकाशित	-9.84918
▁ज्य	-9.84972
▁पाणि	-9.84987
▁वैद्य	-9.84995
डी	-9.85005
्रि	-9.85034
▁याये	-9.85106
कू	-9.85116
▁कर्तृ	-9.85121
▁संघ	-9.85157
▁संरक्षण	-9.85174
▁औषध	-9.85175
▁संग	-9.85185
▁प्राधिकरण	-9.85185
▁राज्ये	-9.8524
▁अन्तरिक्ष	-9.85249
▁भगवत	-9.85263
▁स्थितम्	-9.85273
▁प्रोक्ता	-9.85402
▁वेतन	-9.85416
▁तै	-9.85441
▁प्रिया	-9.85449
▁रूपे	-9.85464
▁स्वस्य	-9.85473
▁प्राह	-9.85485
▁धूम	-9.85538
▁आधार	-9.85588
क्रान्त	-9.85601
▁व्यव	-9.85623
▁नयन	-9.8563
▁तैल	-9.85633
▁काः	-9.85647
▁देय	-9.8567
दय	-9.85719
▁y	-9.85728
▁गृहीत्वा	-9.85777
▁प्रार्थना	-9.858
▁सर्वस्य	-9.85812
क्तु	-9.85903
▁नक्षत्र	-9.85909
▁सूत	-9.85966
▁स्ट	-9.85993
बर	-9.86003
▁अकरोत्	-9.86082
▁कवि	-9.86109
▁वत	-9.86124
▁संविधान	-9.86125
त्री	-9.86161
▁दैत्य	-9.86173
▁अग्र	-9.86201
ज़	-9.86267
▁तीति	-9.86267
▁लय	-9.86324
▁स्नानं	-9.8633
▁मुने	-9.86344
▁50	-9.86366
▁आग	-9.86405
▁वायुः	-9.86434
▁स्थितिः	-9.86437
▁भूमौ	-9.86469
▁चित	-9.86483
▁देवो	-9.86654
▁कार्	-9.86655
H	-9.86713
▁दोषा	-9.86754
▁सप्ताह	-9.86754
▁ब्र	-9.8676
ra	-9.86793
▁स्वातन्त्र्य	-9.86815
▁स्त्रीणां	-9.86824
▁सङ्घ	-9.86832
बि	-9.86837
▁ऽथ	-9.86889
०००	-9.86913
ad	-9.86919
▁स्वप्ने	-9.86952
सह	-9.87029
▁उक्तं	-9.87041
▁आर्	-9.87058
▁युद्धं	-9.8706
लेख	-9.87076
▁स्वार्थ	-9.87106
▁अन्व	-9.87262
▁इत्यपि	-9.87312
▁उन्नत	-9.87332
ॅ	-9.87368
▁तस्मा	-9.87369
▁सर्ग	-9.87397
▁समयः	-9.87433
▁यद्वा	-9.87447
भृत	-9.87494
▁वृत्तिः	-9.87554
▁वरुण	-9.87588
जय	-9.8762
▁भवत्	-9.87702
▁प्रतीत	-9.8777
▁परीक्ष	-9.87783
▁कक्षा	-9.8779
▁विभाषा	-9.87802
▁त्यक्त	-9.87826
ri	-9.87837
▁उक्तम्	-9.87985
▁ार्थे	-9.88061
il	-9.88132
ण्ण	-9.88161
▁ब्रह्मण	-9.88234
▁मरुत	-9.8828
ामहे	-9.88289
▁दक्षिणे	-9.88296
▁SF	-9.88324
el	-9.88345
च्छेद	-9.88353
सर्व	-9.88379
▁ाच्च	-9.88383
ह्	-9.8841
▁निशा	-9.88426
▁पण	-9.88464
ाधिकार	-9.88625
विशेष	-9.88647
▁वर्जित	-9.88675
▁व्याधि	-9.88684
▁दर्शय	-9.88761
▁कार्याणि	-9.88791
▁दूरे	-9.88809
▁गम्य	-9.88861
▁श्राद्ध	-9.88861
▁ताप	-9.88956
▁बै	-9.8898
▁सिद्धान्त	-9.88985
कर्ष	-9.8899
▁सुरक्षा	-9.89077
▁ओं	-9.89084
▁पूर्वक	-9.89095
वित्	-9.89129
▁मार्गे	-9.89157
▁पुनरा	-9.89177
▁200	-9.89244
▁एतेषां	-9.8929
▁परिवर्त	-9.89345
▁शब्दो	-9.89378
▁कीर्ति	-9.89489
लक्षण	-9.89496
▁ऊर्ध्व	-9.89614
▁प्राधान्य	-9.89614
▁द्यु	-9.89669
▁वृष्टि	-9.89827
▁युगे	-9.8983
▁परः	-9.8986
▁ज्वर	-9.90011
▁पठित	-9.90049
▁सचिव	-9.90063
}	-9.90094
▁सूत्रे	-9.90139
्रा	-9.90143
▁पूजन	-9.90164
▁प्रविश्य	-9.90185
▁किमर्थं	-9.90298
▁वर्ध	-9.90343
▁विभिन्न	-9.90374
वल	-9.90377
▁भोजनं	-9.90442
▁वन्द	-9.90495
▁28	-9.90496
ss	-9.90572
▁लाल	-9.90581
▁सम्प्रति	-9.90662
▁जगद	-9.90707
▁सूक्त	-9.90754
▁शैल	-9.9082
▁गतं	-9.90836
▁लग्न	-9.90849
▁शिक्ष	-9.90887
▁ज्वल	-9.90925
रुण	-9.9096
▁लाखों	-9.90962
▁कल्पना	-9.9097
▁नाभि	-9.91014
▁}	-9.9103
▁प्रशस्त	-9.91043
विषय	-9.91044
▁अपा	-9.91084
जः	-9.91124
▁श्रूयते	-9.91156
▁मह्यं	-9.91162
▁असि	-9.91179
▁युक्ता	-9.91211
▁ाऽ	-9.91219
चाल	-9.91231
▁इत्	-9.91232
▁पातु	-9.91285
टे	-9.91296
▁क्षीर	-9.91348
▁भुवि	-9.91422
▁उत्सव	-9.91529
▁ध्वज	-9.91544
▁शतं	-9.91558
▁षष्ठी	-9.91582
▁िव	-9.91692
▁दृष्टा	-9.91724
▁नहीं	-9.91749
▁परम्परा	-9.91767
▁शरण	-9.91794
▁दुर	-9.91803
काम	-9.91807
▁दिवा	-9.91881
▁विचित्र	-9.91915
▁भुक्त	-9.91951
▁तान	-9.92026
U	-9.92033
▁साल	-9.92036
▁दिष्ट	-9.92059
▁हितं	-9.92066
▁इम	-9.92072
▁तमेव	-9.92088
दृ	-9.92168
▁मद्य	-9.92183
▁व्यास	-9.9221
▁अर	-9.92211
▁केश	-9.92212
▁अप्र	-9.92273
द्द	-9.9228
▁हरिः	-9.92295
▁षोडश	-9.92298
त्रय	-9.92302
▁१९९	-9.92358
▁स्तदा	-9.92391
▁छि	-9.92403
▁वदन्ति	-9.92468
▁बध	-9.92513
वर्	-9.9255
▁आगम	-9.92615
वस	-9.92636
▁ाश्च	-9.92719
स्तर	-9.92731
▁वद्	-9.92756
▁नीत	-9.92829
▁तेऽ	-9.92866
▁स्यैव	-9.9288
▁2019	-9.92883
सान	-9.92897
▁निवास	-9.92963
न्यथा	-9.93015
▁आई	-9.93027
▁बालकः	-9.93053
पदं	-9.93059
▁x	-9.93091
▁वर्धते	-9.93258
▁2020	-9.93281
▁अवि	-9.93306
पुत्र	-9.93333
▁करुणा	-9.93334
▁क्य	-9.93364
भ्यो	-9.93402
▁संप्र	-9.93408
▁खो	-9.93431
▁टि	-9.93444
▁कश्चिद्	-9.93459
▁दर्शनं	-9.93466
▁ह्	-9.93505
मति	-9.93508
▁स्तुति	-9.93569
st	-9.93726
▁अनुकूल	-9.93741
▁विधाय	-9.93748
▁पर्याय	-9.93754
▁केवलम्	-9.93805
गच्छ	-9.93898
▁तदनु	-9.93924
▁पालन	-9.93945
▁हृ	-9.93992
▁भग	-9.94054
▁परिमाण	-9.94063
▁वसन्त	-9.94106
▁अन्तिम	-9.94121
▁भ्र	-9.94157
▁हव	-9.94179
▁मतः	-9.94199
गृह्य	-9.94231
▁संवत्सर	-9.9424
▁the	-9.94316
▁तन्म	-9.94352
वस्था	-9.94395
▁पश्यामि	-9.94408
▁वानर	-9.94431
▁यि	-9.94465
▁गुणाः	-9.94515
▁करणीय	-9.94534
▁ोद्	-9.94599
भ्या	-9.94622
▁लाग	-9.94694
ढ़	-9.94719
▁भावना	-9.94727
ूप	-9.94772
क्व	-9.9478
▁सकलं	-9.94835
▁विषया	-9.94854
▁40	-9.94936
▁एको	-9.94936
▁तमः	-9.94947
▁संज्ञ	-9.9496
विष	-9.95042
ात्मानं	-9.9505
ीश्वर	-9.95052
▁स्वी	-9.9507
सर्ग	-9.95085
▁जगद्	-9.95106
देह	-9.95132
▁संदेह	-9.95208
र्घ	-9.95355
▁इय	-9.95371
▁तत्व	-9.95409
▁नामानि	-9.95444
▁गन्तव्य	-9.95458
हू	-9.95603
▁वात	-9.9566
▁जनः	-9.95743
▁भवती	-9.95748
▁03	-9.95813
दोष	-9.95846
▁पार्श्व	-9.95879
▁(=	-9.9588
▁सन्देह	-9.95887
▁पौ	-9.95902
▁फलम्	-9.95914
▁याःगु	-9.95932
ce	-9.96016
▁मूर्ति	-9.96065
▁शोच	-9.96136
▁U	-9.96292
▁ग्रहणम्	-9.96325
▁तवा	-9.96364
▁त्वादि	-9.96377
रित	-9.9641
▁इत्युक्ते	-9.96444
▁आर्य	-9.96485
▁लक्षणम्	-9.96496
▁ऑ	-9.965
▁दीन	-9.96515
▁प्रजापति	-9.96519
▁व्याख्यान	-9.96555
▁शरीरं	-9.96566
तुः	-9.96654
▁कानि	-9.96718
▁रेखा	-9.96757
▁नाटक	-9.9679
▁दिशि	-9.96799
ोऽयं	-9.96868
▁अधिकृत	-9.96874
लोप	-9.96904
▁परस्परं	-9.96915
▁क्षा	-9.96972
▁द्वितीयं	-9.96998
दर्श	-9.97046
मार्ग	-9.97144
▁स्वस्थ	-9.97224
▁भिर	-9.97231
▁उत्तरः	-9.97286
▁अनन्त	-9.97317
=	-9.97362
खा	-9.97428
▁मणि	-9.97494
▁नारद	-9.97508
▁योऽ	-9.97597
भिधीयते	-9.9763
▁एवमेव	-9.97669
▁गवा	-9.97677
तये	-9.97681
▁ादिकं	-9.97769
जात	-9.97774
▁पूजय	-9.97785
▁जनता	-9.97789
पत	-9.97798
▁शोध	-9.97865
▁आर्थिक	-9.97895
१९	-9.97946
▁क्षेत्रं	-9.9795
▁धर्मो	-9.9801
क्ट	-9.98052
▁छात्राः	-9.98054
▁मित्रं	-9.98122
▁केचन	-9.98162
▁क्ली	-9.98177
▁ऋतु	-9.98198
▁विज्ञेय	-9.98205
▁Q	-9.9821
▁कू	-9.98243
▁यत्न	-9.98266
▁वरं	-9.98294
क्य	-9.98347
▁प्रवाह	-9.98365
▁अयम	-9.98389
▁सञ्	-9.98425
▁यस्मात्	-9.98515
घ्न	-9.9855
▁कश्चिद	-9.98564
▁शूर	-9.9861
▁ीं	-9.98635
▁निर्व	-9.98648
▁निपात	-9.98674
▁गृह्य	-9.98678
द्वय	-9.987
▁साहाय्य	-9.9872
▁तन	-9.98744
▁संबंध	-9.98765
▁पञ्चम	-9.98788
▁प्राग	-9.98805
▁सम्पद	-9.98824
▁ब्रू	-9.98842
▁पत्त	-9.98938
▁०१	-9.98946
नुकूल	-9.98988
▁विहाय	-9.99054
र्ड	-9.99062
▁अक्ष	-9.99099
▁is	-9.99104
▁अध्य	-9.99116
मृ	-9.99127
▁2018	-9.99141
ing	-9.99142
▁चेद	-9.99145
▁चरित	-9.99205
▁पिण्ड	-9.99254
▁अधो	-9.99259
▁ाग्नि	-9.99271
▁पीडित	-9.9934
▁विशेषेण	-9.99341
▁व्याघ्र	-9.99358
▁ऋषि	-9.9938
▁माम	-9.9946
▁ह्र	-9.99481
▁माग	-9.99549
▁रचना	-9.99565
▁रणे	-9.99572
▁शक्यं	-9.99608
▁तोय	-9.99613
धेय	-9.99704
▁सद	-9.99717
▁ततश्च	-9.99747
ॄ	-9.9976
▁विदित	-9.99808
▁५५	-9.99811
पो	-9.99821
▁जक	-9.99857
त्रा	-9.99919
▁निवेदन	-9.99975
▁ज्योतिष	-9.99981
▁ताल	-10.0001
दत्त	-10.0003
▁हिंस	-10.0009
▁नौ	-10.0011
गृह	-10.0018
▁त्त	-10.0019
▁अतएव	-10.0019
त्यर्थ	-10.0026
▁चकार	-10.0027
ख्य	-10.0031
पण	-10.0032
▁पत्य	-10.0036
▁शुचि	-10.0037
▁धार्मिक	-10.0039
▁त्रीणि	-10.0039
▁४१	-10.004
▁प्रथमे	-10.0041
▁पुष्टि	-10.0044
▁स्मृतः	-10.0045
▁दद	-10.0049
▁लभ	-10.0053
भारत	-10.0061
▁यौवन	-10.0062
त्ति	-10.0064
▁पुरुषो	-10.0067
▁j	-10.0068
▁विशाल	-10.0076
▁विधिना	-10.0093
▁नमो	-10.0095
▁कालो	-10.0098
▁अव्यय	-10.0099
मेक	-10.0106
▁जगत	-10.0107
नाथ	-10.0111
ir	-10.0123
▁त्यक्त्वा	-10.0127
▁तट	-10.013
▁अधिकारी	-10.0133
▁प्राणा	-10.0138
▁यम्	-10.0138
येद्	-10.0145
▁जीवति	-10.0145
जित	-10.0148
▁हरे	-10.0152
क्रमण	-10.0152
▁ली	-10.0165
▁रवि	-10.0166
▁भोज	-10.0166
▁चतुर	-10.0172
▁सत्ता	-10.0174
▁६०	-10.0174
▁राज्ञः	-10.0175
▁दृष्टं	-10.0175
▁जू	-10.0177
▁स्त्वं	-10.0178
▁स्त्रिया	-10.018
▁क्षणं	-10.0185
▁चिकित्सा	-10.0186
▁मङ्गल	-10.0189
ाश्रित	-10.0193
▁रेव	-10.0197
▁इमं	-10.0199
▁सर्वथा	-10.0202
▁प्रयत	-10.0204
▁३४	-10.0204
▁प्रदान	-10.0209
▁इन्द्रिय	-10.0211
▁दाह	-10.0211
▁सत्र	-10.0213
ाशय	-10.0218
▁दय	-10.0219
▁6.	-10.0224
बुद्ध	-10.0233
▁४७	-10.0237
▁तुष्ट	-10.0238
▁कण्ठ	-10.0238
▁धीरे	-10.0259
▁स्पृश	-10.0263
▁भुव	-10.0267
▁सौम्य	-10.0267
▁नागरिक	-10.0274
▁न्यायालय	-10.0276
▁अहम	-10.0278
▁गुणः	-10.028
▁तस्यां	-10.0283
संख्य	-10.0284
सुर	-10.0287
▁शिष्ट	-10.0287
[	-10.0288
चु	-10.0288
▁ध्या	-10.029
▁मरणं	-10.0297
▁अ॒	-10.0299
▁मुहूर्त	-10.0308
▁गान	-10.0309
राज्य	-10.0311
▁सहसा	-10.0315
▁व्	-10.0319
भेदे	-10.0325
▁पत्रं	-10.0326
चः	-10.0328
▁बाहु	-10.033
ान्य	-10.0332
▁त्वाद	-10.0332
र्ट	-10.0333
▁श्रिय	-10.0337
ुद्	-10.0337
▁पुरातन	-10.0344
▁४९	-10.0344
▁भरत	-10.0344
▁स्वरूपं	-10.0346
▁मेष	-10.0348
ानन्द	-10.036
▁यच्छ	-10.0374
▁वृद्धिः	-10.0374
▁शिला	-10.0376
▁आसन	-10.0377
▁ाणि	-10.0379
▁योर	-10.0379
▁निष	-10.0382
क्रम्य	-10.0385
पत्य	-10.0387
▁इत्युच्यते	-10.0388
▁पदस्य	-10.0393
तुर	-10.0394
भ्यां	-10.0394
ms	-10.0395
▁करि	-10.0395
▁अंश	-10.0415
▁४४	-10.0416
दपि	-10.0418
▁प्रकृते	-10.042
▁र्य	-10.0421
ग्रे	-10.0422
▁अङ्क	-10.0425
▁न०	-10.0426
▁कुर्व	-10.0436
▁अधिकरण	-10.0436
▁सीमा	-10.0439
▁धिकार	-10.0441
▁गुरुः	-10.0443
▁ताम	-10.0445
▁इच्छति	-10.045
▁मुखं	-10.0453
▁साधक	-10.0454
▁सर्वैः	-10.0459
▁भवेद्	-10.0461
राम	-10.0462
▁कालेन	-10.0462
खे	-10.0467
▁कारयेत्	-10.047
▁इत्येवं	-10.0474
▁%	-10.0475
▁वाक्	-10.0479
पृ	-10.048
▁कूट	-10.0482
ज्या	-10.0483
▁पूजां	-10.049
▁चतुर्दश	-10.0494
▁साथ	-10.0499
▁दैवत	-10.05
▁मिह	-10.0501
▁धातुः	-10.0504
▁निरोध	-10.0504
ाभाव	-10.0505
▁अस्मा	-10.0506
▁स्मि	-10.0506
▁गोल	-10.0513
▁इत्यस्मात्	-10.0514
▁यशः	-10.0514
▁राज्ञा	-10.0515
तले	-10.0517
▁प्रतिष्ठित	-10.052
िषु	-10.0522
▁ाह	-10.0531
▁भावे	-10.0538
▁अण्	-10.054
▁ईश्वरः	-10.054
▁४८	-10.0541
▁शिख	-10.0541
▁खर	-10.0542
▁क्षर	-10.0545
▁शुभा	-10.0545
-1	-10.0548
▁नाप	-10.055
▁प्राप्यते	-10.0556
▁द्वन्द्व	-10.0558
▁समुप	-10.056
▁बुद्धिः	-10.0561
▁कारिण	-10.0564
शब्द	-10.0568
▁पदम्	-10.0571
पत्तेः	-10.0575
▁रोच	-10.0577
▁मर	-10.0581
▁एतानि	-10.0582
▁उचित	-10.0583
▁ऽऽ	-10.0583
▁चेष्ट	-10.0585
▁लॊक	-10.0586
▁दाय	-10.0586
▁हस्ते	-10.0587
▁आगच्छ	-10.0587
▁०३	-10.0591
▁पुत्रो	-10.0591
▁अध्यायः	-10.0591
ha	-10.0591
▁शाखा	-10.0592
▁गोचर	-10.0593
▁संयुत	-10.0599
▁याना	-10.0599
▁अवदत्	-10.0603
▁ात्मा	-10.0606
▁४२	-10.0608
▁राध	-10.0615
▁ङ्क	-10.0624
▁भवन्त	-10.0626
▁अग्निः	-10.0633
▁शीर्ष	-10.0634
▁करणं	-10.064
▁बन्धु	-10.0646
▁शुल्क	-10.0648
मद	-10.0654
▁द्विविध	-10.0655
▁भक्त्या	-10.0656
ायाम्	-10.0661
▁अमरः	-10.0661
▁कोऽ	-10.0665
▁विघ्न	-10.0672
न्द्रिय	-10.0674
▁समग्र	-10.0675
▁कोश	-10.0678
▁पेक्ष	-10.0684
▁हन्ति	-10.0689
▁अवस्था	-10.0694
▁द्वेष	-10.0696
▁ईश	-10.0697
iii	-10.0702
▁दीयते	-10.0703
▁दत्त्वा	-10.0704
▁मिच्छ	-10.0704
▁शतक	-10.0705
▁दिनानि	-10.0706
▁प्रकट	-10.0709
▁द्रष्टुं	-10.071
ख्यात	-10.0713
मुच्यते	-10.0713
▁तल	-10.0714
▁विद्युत	-10.0715
दित	-10.0719
ut	-10.0728
▁तदर्थ	-10.073
▁ल्	-10.0731
▁परिषद	-10.0732
▁मदु	-10.0733
▁वारि	-10.0736
▁यामि	-10.0736
▁घर	-10.0737
▁दृष्ट्या	-10.0739
▁देवं	-10.0739
ाध्याय	-10.074
▁एकैक	-10.0744
▁7.	-10.0744
▁पितुः	-10.0745
पतिः	-10.0749
▁संख्य	-10.0754
▁जातं	-10.0756
▁शाक	-10.0758
▁Next	-10.076
▁रावण	-10.0761
▁भावेन	-10.0762
▁दाता	-10.0773
▁कुर्या	-10.0776
▁बिभ	-10.0777
▁योगी	-10.0783
ऊ	-10.0786
▁तीव्र	-10.0788
कारस्य	-10.0789
▁लक्ष्यते	-10.0789
▁८०	-10.0792
▁समुद्	-10.0796
▁कर्तु	-10.0798
▁29	-10.08
▁नाव	-10.0801
▁सर्वज्ञ	-10.0803
▁यथोक्त	-10.0808
▁चैक	-10.0814
र्ग	-10.0815
त्सु	-10.0815
▁यान्ति	-10.0822
▁इत्थं	-10.0824
▁सिध्यति	-10.0831
म्बर	-10.0837
▁नैक	-10.0837
दृष्ट	-10.0841
▁यौ	-10.0852
▁कार्यालय	-10.0862
युत	-10.0871
र्प	-10.0871
▁ृ	-10.0873
▁श्रेणी	-10.0874
▁विग्रह	-10.0877
▁अस्माभिः	-10.0878
▁जिला	-10.0879
▁पर्यन्त	-10.0883
@	-10.0884
▁मात्रेण	-10.0887
ान्तरे	-10.0887
▁सन्न	-10.0891
िष्ठा	-10.0897
▁ततस्त	-10.0905
▁अवश्यं	-10.0907
▁लक्षणा	-10.0908
▁ऽव	-10.0909
▁ज्योति	-10.0911
ल्या	-10.0923
▁मुत्	-10.0925
▁शिक्षक	-10.0932
▁प्रजाः	-10.0933
▁ाभाव	-10.0936
▁कुतो	-10.094
जायत	-10.0941
वाक्य	-10.0942
▁Answer	-10.0943
▁आधुनिक	-10.0943
▁स्थापना	-10.0947
▁कथयति	-10.0947
▁विक्रम	-10.0951
▁राय	-10.0952
▁स्युः	-10.0952
▁ग्नि	-10.0955
▁पुरुषं	-10.0962
॒व	-10.0964
▁ऽभि	-10.0966
ैषा	-10.0975
▁01	-10.0979
▁मन्त	-10.0984
▁सर्वाः	-10.0987
▁तेनैव	-10.0989
F	-10.099
▁बहूनि	-10.0994
▁भवः	-10.0995
▁रिक्त	-10.0996
▁परिचय	-10.1
▁सम्बन्धी	-10.1002
▁परस्परम्	-10.1002
▁विद्वान्	-10.1008
पय	-10.101
वाच	-10.1013
▁गुप्त	-10.1015
▁धिक	-10.1017
पूर्ण	-10.1017
▁आशा	-10.1018
▁एषां	-10.1025
▁संकल्प	-10.1025
▁समाधि	-10.1026
ासीत्	-10.103
▁समर्थन	-10.1031
▁मना	-10.1036
▁पुरुषस्य	-10.1036
ोत्तम	-10.1038
▁पते	-10.1043
▁ेद	-10.1057
▁तदाह	-10.106
लम्ब	-10.1062
▁४६	-10.1066
▁क्रमशः	-10.1066
▁सुप्त	-10.107
▁मर्थ	-10.1076
मेध	-10.1077
▁ार्थम्	-10.1078
▁समागत	-10.1079
ate	-10.1082
▁स्थितं	-10.1085
▁ट्र	-10.1085
▁मुदा	-10.1087
▁प्रभुः	-10.1096
▁लौकिक	-10.1106
▁परो	-10.1111
▁द्वयं	-10.1117
▁संभवति	-10.112
ध्र	-10.1124
▁=>	-10.1124
▁निहत	-10.1126
▁ञ	-10.1126
▁जाना	-10.1132
▁8.	-10.1132
▁कैः	-10.1133
▁वश्य	-10.1135
▁निष्ठ	-10.1144
▁सम्मान	-10.1145
मना	-10.1147
नौ	-10.1147
▁वर्षस्य	-10.115
▁दृष्टान्त	-10.1151
▁पापं	-10.1152
▁नवीन	-10.1158
▁निष्ठा	-10.1159
▁युज्यते	-10.1159
▁वया	-10.1159
▁अपराध	-10.1162
▁३८	-10.1162
▁प्रतीक्ष	-10.1162
▁गद	-10.1164
ही	-10.1186
▁दिवि	-10.1186
▁युक्ति	-10.1187
▁इमा	-10.1199
▁सर्वम	-10.1199
_	-10.1202
▁मित्यर्थः	-10.1203
▁निधि	-10.1203
▁तावद	-10.1204
श्लेष	-10.1207
राष्ट्र	-10.1208
▁त्म	-10.1211
▁प्रयच्छ	-10.1213
▁महत्त्व	-10.1213
▁प्रतिषेधः	-10.1216
▁ेभ्यो	-10.1222
▁वैज्ञानिक	-10.1224
▁Re	-10.1228
▁स्थानम्	-10.1229
▁नीच	-10.1229
ारभ्य	-10.1229
▁शुद्धि	-10.1233
▁पठन	-10.1235
▁त्रिविध	-10.1236
▁पुट	-10.1241
▁व्याप	-10.1244
▁प्राकृत	-10.1251
▁विकृत	-10.1251
▁लेखक	-10.1254
▁ज्	-10.126
10	-10.1265
▁गे	-10.1277
▁विदुः	-10.1277
▁भ्रमण	-10.1279
▁प्रदेशे	-10.128
▁रिपु	-10.129
▁तपः	-10.129
▁कतम	-10.1294
▁साक्षाद	-10.13
▁सम्म	-10.1303
▁कर्तुम्	-10.1303
▁प्राप्तवान्	-10.1305
▁५२	-10.1305
▁ण्य	-10.1306
▁असौ	-10.1307
▁35	-10.1309
▁ाधिक	-10.1315
▁पाश	-10.1323
▁दृश्यम्	-10.1326
▁प्राप्तिः	-10.1326
▁येत्	-10.1331
▁कुम्भ	-10.1331
▁स्प	-10.1333
▁वक्तव्य	-10.1338
▁षड	-10.1341
▁चु	-10.1341
▁देशं	-10.1344
@1	-10.1346
▁याग	-10.1346
ब्र	-10.1351
▁िता	-10.1351
▁अस्त	-10.1354
▁वर्द्ध	-10.1354
रण्य	-10.1357
ानाम	-10.1358
▁गाव	-10.1364
▁गतौ	-10.1364
▁गृहाण	-10.1365
▁प्लव	-10.1367
▁निन्द	-10.1371
▁ऽयं	-10.1381
▁अभिप्राय	-10.1391
ोदित	-10.1394
णीय	-10.1398
▁अस्मान्	-10.14
▁al	-10.1401
▁कूप	-10.1409
▁पद्धति	-10.141
▁जनार्दन	-10.1415
▁समवाय	-10.1418
▁कर्तव्यः	-10.1418
▁यथाशक्ति	-10.1419
▁ाग्र	-10.1422
▁प्रवक्ष्यामि	-10.1426
▁३९	-10.1426
▁विद्व	-10.1428
▁रित्य	-10.1431
▁तिल	-10.1432
▁मौ	-10.1432
▁प्रकल्प	-10.1434
▁प्रदूषण	-10.1439
▁विपर्यय	-10.144
▁st	-10.1441
▁शोभ	-10.1458
वन्त	-10.1464
▁आङ्ग्ल	-10.1464
प्प	-10.1467
▁सामान्यतः	-10.1467
▁धातोः	-10.1468
डु	-10.1469
▁मृदु	-10.147
चय	-10.1473
▁महता	-10.1474
▁चिन्	-10.1475
▁गृह्यते	-10.1481
▁क्या	-10.1482
क्ष्म	-10.1483
▁एकस्य	-10.1487
ाङ्क	-10.1488
▁जाने	-10.1488
▁मिल	-10.1488
▁आरब्ध	-10.1489
▁X	-10.1495
▁स्वामी	-10.1496
▁भर्	-10.1497
▁गुरो	-10.1502
▁प्रतीति	-10.1503
▁धारणा	-10.1506
▁प्रयत्नेन	-10.1508
▁धया	-10.1511
▁सहस्राणि	-10.1511
▁विन्द	-10.1511
▁लोपः	-10.1512
▁नारायण	-10.1512
▁धू	-10.1513
▁धाःसा	-10.1513
ासौ	-10.1516
▁स्वामिन	-10.1519
▁स्वयम	-10.1523
▁नेता	-10.1523
▁एक्स	-10.1529
▁भूत्	-10.1537
▁वाप	-10.154
▁हुत	-10.1541
▁कश्चि	-10.1543
▁गताः	-10.1543
V	-10.1544
जायते	-10.1544
▁भक्ष	-10.1545
▁दद्यात्	-10.1545
भूय	-10.155
१८	-10.1553
▁साहस	-10.1554
▁विषम	-10.1557
▁सैनिक	-10.1562
▁32	-10.1567
▁शय	-10.1568
▁तद्यथा	-10.1569
▁गमिष्य	-10.1572
▁प्रियं	-10.1578
▁तेजस	-10.158
▁लोकानां	-10.158
▁पृथ	-10.1583
▁त्वाद्	-10.1584
▁पूर्वेण	-10.1585
▁आधिकारिक	-10.1586
▁ग्	-10.1589
▁गौरव	-10.1592
ित्यर्थः	-10.1593
▁करी	-10.1593
▁स्थापन	-10.1595
▁सन्देश	-10.1598
▁प्रदा	-10.1601
▁मेक	-10.1601
दिश्यते	-10.1601
▁दृश्यन्ते	-10.1604
▁वसति	-10.1604
▁भाति	-10.1606
▁लम्ब	-10.1607
▁क्षणे	-10.1609
▁तय्	-10.1613
▁दीप्त	-10.1614
▁तत्रापि	-10.1629
▁मार्च	-10.1631
▁ततोऽ	-10.1631
न्ता	-10.1634
▁वाक्ये	-10.1642
धौ	-10.1642
▁सम्पादन	-10.1646
▁विज्ञानं	-10.1649
एस	-10.1651
▁शाला	-10.1653
▁आत्मन	-10.1653
▁दिवसे	-10.1655
िणां	-10.1657
▁तपो	-10.1659
यामास	-10.166
▁सामग्री	-10.166
▁इद	-10.166
▁साभारः	-10.166
▁पाण्डव	-10.1661
▁सप्तदश	-10.1667
▁आचर	-10.1668
▁ितः	-10.1668
▁क्षेप	-10.1671
ध्याप	-10.1672
समा	-10.1673
▁क्ल	-10.1677
▁प्रशासन	-10.1681
▁शाल	-10.1681
▁अन्ध	-10.1684
▁दुष्	-10.1685
▁सङ्कल्प	-10.1686
▁७०	-10.1686
▁भूतानि	-10.169
▁द्व	-10.1692
▁स्तन	-10.1693
▁०२	-10.1696
▁पुरतः	-10.1697
▁नमस्	-10.1697
ध्वं	-10.17
▁श्रुतिः	-10.1704
▁तात्पर्य	-10.171
व्यय	-10.171
▁वर्य	-10.171
▁पण्डित	-10.1711
▁नाट्य	-10.1711
▁मतम्	-10.1711
प्ति	-10.1716
▁वेत्ति	-10.1722
▁भाषित	-10.1723
▁सम्बन्धः	-10.1726
▁जगति	-10.1726
▁देवताः	-10.1728
▁प्रयास	-10.1729
▁श्रित	-10.1729
वृत्ति	-10.173
▁पुनरपि	-10.1737
▁ध्यानं	-10.1739
▁सादृश्य	-10.1742
▁व्यसन	-10.1742
▁कविता	-10.1745
▁पूर्वे	-10.1747
व्रत	-10.1756
▁जन्य	-10.1761
मुद	-10.177
लाप	-10.177
रुप	-10.177
▁वर्तन्ते	-10.1771
▁जाये	-10.1772
▁मूलं	-10.1772
वादी	-10.1772
▁नोप	-10.1778
▁ादिति	-10.1786
▁प्रकृतिः	-10.1791
▁पृष्ठं	-10.1794
▁गणित	-10.1798
▁चोर	-10.1801
▁भोः	-10.1806
▁स्वस्ति	-10.1807
॒र	-10.1807
▁एस्	-10.181
▁षि	-10.1818
ऋ	-10.182
▁दत्तं	-10.1824
▁लोह	-10.1829
▁ध्येय	-10.1831
▁वेदना	-10.1834
▁दास्य	-10.1835
▁राष्ट्रे	-10.1835
▁संवाद	-10.1835
▁काङ्क्ष	-10.1835
▁चिह्न	-10.1838
राग	-10.1842
▁त्वय	-10.1847
▁ालय	-10.1848
▁आद	-10.1849
▁दौ	-10.1849
लिङ्ग	-10.1851
▁पुत्रं	-10.1856
▁पठति	-10.1857
▁किंचित्	-10.1857
▁आवश्यकता	-10.1857
▁संस्थित	-10.1859
▁केनापि	-10.1859
▁दूषण	-10.1862
स्तीति	-10.1862
शक्त	-10.1866
नव	-10.1869
▁अन्वेषण	-10.1872
क्ता	-10.1872
▁शोभन	-10.1874
▁ल्या	-10.1875
▁साक्षात्कार	-10.1878
▁पार्श्वे	-10.1883
as	-10.1884
१७	-10.189
▁डी	-10.1891
▁ोऽस्ति	-10.1892
▁ing	-10.1893
▁संहिता	-10.1897
▁यश	-10.19
▁देवदेव	-10.1901
▁प्रारम्भ	-10.1902
▁कानून	-10.1911
se	-10.1914
वश	-10.1914
▁द्रुत	-10.1915
▁वर्ज	-10.1916
▁बालिका	-10.1917
▁जीवितं	-10.1921
कर्ता	-10.1922
तिष्ठ	-10.1924
मर्हति	-10.1932
▁वादिन	-10.1939
▁नद्या	-10.1942
▁नूनं	-10.1945
▁प्रभव	-10.1945
यथा	-10.1949
▁प्रेत	-10.1951
▁नियुक्त	-10.1951
िदं	-10.1952
रपि	-10.1953
▁अद	-10.1963
▁स्वामि	-10.1964
▁कप	-10.1968
सङ्ग	-10.1969
▁भवतां	-10.1976
▁सर्वलोक	-10.1981
▁अनन्तरं	-10.1982
▁अधः	-10.1986
▁त्येव	-10.1986
▁प्रयोजनं	-10.1992
▁मई	-10.1992
▁धर्म्म	-10.1996
▁ेऽपि	-10.1996
▁ग्राह	-10.2011
▁ऽस्मिन्	-10.2011
▁प्राणि	-10.2018
▁ह्रस्व	-10.2018
मार	-10.2029
▁de	-10.2035
लक	-10.2037
▁ागम	-10.204
▁समर्पयामि	-10.2041
▁संग्रह	-10.2044
▁इच्छामि	-10.2051
▁ऽस्म	-10.2054
▁अन्ते	-10.2059
▁सुरा	-10.2061
अथ	-10.2063
▁रङ्ग	-10.2064
▁वाऽ	-10.2064
▁टिप्पणियां	-10.2065
▁पद्य	-10.2067
▁द्या	-10.2067
▁गङ्गा	-10.2068
व्र	-10.2073
▁स्यादिति	-10.2076
▁पलाय	-10.2077
▁आहार	-10.2079
▁तत्पर	-10.2079
▁जिन	-10.2083
▁दिति	-10.2086
▁शीतल	-10.2087
▁विश्वा	-10.2088
▁मखु	-10.2091
▁सन्ध्या	-10.2093
पर्य	-10.2093
▁सलिल	-10.2094
▁नगरं	-10.2098
▁दम	-10.21
▁वक्ष्यामि	-10.2101
▁प्रतिबन्ध	-10.2101
▁आदित्य	-10.2103
▁व्याप्त	-10.2106
न्थ	-10.2121
▁५७	-10.2121
▁बाल्य	-10.2121
▁स्वकीय	-10.2122
▁गेह	-10.2126
▁उपदेश	-10.2126
▁वेत्	-10.2128
▁ऽर्थ	-10.2132
▁पालय	-10.2132
▁तृण	-10.2139
▁प्रदत्त	-10.214
▁तस्यैव	-10.2142
us	-10.2146
▁सूचित	-10.2148
▁यक्ष	-10.2152
▁भेदेन	-10.2155
ण्व	-10.2164
ांस	-10.2165
▁अपना	-10.2168
▁अभवन्	-10.2169
▁उपलब्ध	-10.2175
▁१९७	-10.2176
▁जगाम	-10.2177
▁लेखा	-10.2179
▁५४	-10.218
▁यितुं	-10.218
▁सर्वनाम	-10.218
सत्	-10.2189
▁थे	-10.2198
ूर	-10.2199
▁II	-10.2201
▁र्च	-10.2201
▁बहिर्	-10.221
ry	-10.2211
▁च्व	-10.2212
▁प्राग्	-10.2213
▁हिरण्य	-10.2219
▁सर्वभूतेषु	-10.2228
▁देवदत्त	-10.223
ष्यन्ति	-10.2235
▁निम्न	-10.2237
▁or	-10.2241
▁2021	-10.2247
▁लभ्य	-10.2247
▁ायै	-10.2248
▁द्रष्टु	-10.2251
प्राप्त	-10.2252
▁भाज	-10.2254
ङ्गुल	-10.226
▁अनुप	-10.2262
▁हां	-10.227
लिका	-10.2283
▁गृहम्	-10.2284
▁तिर	-10.2302
▁चान्य	-10.2302
▁तत्क्षण	-10.2303
▁रक्षित	-10.2303
▁निर्णयः	-10.2304
▁क्रियता	-10.2306
▁निरन्तर	-10.2307
▁ईदृश	-10.2308
ोपरि	-10.2309
▁रू	-10.2309
▁बहुल	-10.2311
▁तासां	-10.2316
▁दातु	-10.2321
▁विष्णो	-10.2327
क्षय	-10.2331
▁चर्चा	-10.2334
ent	-10.2337
▁महाबल	-10.2339
श्रुत	-10.2339
▁प्रत्ययो	-10.2339
▁इत्येतत्	-10.2339
▁विदेशी	-10.2341
▁साम्य	-10.2343
▁वाचि	-10.2345
▁अधिकं	-10.2347
▁स्तेन	-10.2349
▁प्राप्नु	-10.2353
कल्प	-10.2353
▁शुक्ल	-10.2354
▁यया	-10.2357
चेत	-10.2357
▁१००	-10.2362
▁प्राप्तः	-10.2366
▁राज्यस्य	-10.2369
▁इत्येतद	-10.2375
▁भूप	-10.2375
▁कठिन	-10.2379
▁जरा	-10.2383
▁सख्य	-10.2384
▁by	-10.2386
हरण	-10.2388
▁परिभाष	-10.2389
▁समेत	-10.2394
▁for	-10.2394
▁साधनं	-10.2396
▁शब्दार्थ	-10.2399
▁जनपद	-10.2399
ेभ्यो	-10.2403
▁विस्मय	-10.2408
क्रिया	-10.2408
▁अन्यत्	-10.2414
▁प्रियः	-10.2415
▁ार्थः	-10.2415
ङ्गल	-10.2417
स्माकं	-10.2418
ोद्	-10.2418
▁be	-10.242
▁भ्यां	-10.242
▁विभाव	-10.2424
▁महती	-10.2424
▁बन्धन	-10.2428
▁णां	-10.2429
▁शर्म	-10.243
▁कर्तव्या	-10.2434
▁धान्य	-10.2435
▁कार्ये	-10.2436
▁चिन्तन	-10.2437
▁५९	-10.2437
▁पदार्थः	-10.2452
▁मानवः	-10.2454
▁त्यर्थ	-10.2456
▁तुभ्यं	-10.2464
▁ान्न	-10.2468
▁प्रदर्शन	-10.247
▁प्रिये	-10.247
▁भुवन	-10.2471
▁व्यापक	-10.2474
▁सुखम्	-10.2482
श्म	-10.2482
▁"'	-10.2482
▁४३	-10.2484
▁स्थूल	-10.2487
▁चित्तं	-10.2488
▁यथाविधि	-10.2491
▁बाण	-10.2491
▁श्रय	-10.2496
▁च्च	-10.2497
▁थु	-10.2501
▁पथि	-10.2506
▁पौर	-10.2506
▁एकवचन	-10.2507
▁कर्ष	-10.2516
ुवाच	-10.2517
▁क्रमात्	-10.2519
गम्य	-10.2521
▁श्याम	-10.2525
▁अर्ह	-10.253
युज	-10.2531
▁प्रतिमा	-10.2534
▁७५	-10.2536
▁द्योत	-10.254
▁अर्थात्	-10.2542
▁on	-10.2543
▁परस्य	-10.2543
▁षा	-10.2544
▁पश्यन्ति	-10.2551
ाध्यक्ष	-10.256
▁सम्मेलन	-10.2567
▁उत्कृष्ट	-10.2567
▁जिज्ञास	-10.2568
▁रोम	-10.2572
▁न्यू	-10.2581
▁विहीन	-10.2581
कारण	-10.2584
▁दानव	-10.259
▁रचित	-10.2593
▁पूज	-10.2594
▁←	-10.2594
▁वक्त्र	-10.2595
▁क्वचिद	-10.2597
▁संस्थिता	-10.2599
▁पत्रिका	-10.2606
▁संशोधन	-10.2606
च्या	-10.2607
विभाग	-10.2607
राज्यस्य	-10.2609
▁शो	-10.2609
▁रुद	-10.2612
▁हृद	-10.2615
▁काक	-10.2617
▁त्र्य	-10.2618
▁उक्तः	-10.262
ोऽध्यायः	-10.2622
▁तावद्	-10.2624
▁तत्त्वं	-10.2625
▁31	-10.2625
ul	-10.263
▁शेषं	-10.2635
शासन	-10.2635
▁स्मृतम्	-10.2639
मासस्य	-10.264
▁वाग्	-10.2643
ादय	-10.2643
ादेव	-10.2648
ध्द	-10.265
▁महान	-10.2651
▁विंशति	-10.2652
्रियते	-10.2654
z	-10.2654
▁जर	-10.2654
▁रोह	-10.2655
▁गोत्र	-10.2659
▁विवक्षित	-10.266
▁पावन	-10.2661
▁द्वितीये	-10.2662
▁प्राप्तं	-10.2668
▁सोऽपि	-10.2672
▁विद्यु	-10.2679
हृ	-10.268
▁जुल	-10.268
▁पूरय	-10.2681
▁५६	-10.2682
▁प्रयत्नतः	-10.2686
▁उन्	-10.2702
▁किंच	-10.2708
▁फ़	-10.2711
▁ासी	-10.2712
▁प्रबन्ध	-10.2713
▁दोषो	-10.2716
ङि	-10.272
▁गतो	-10.2733
▁पराजित	-10.2737
▁विकि	-10.2737
▁भविष्यन्ति	-10.274
▁मनुः	-10.2742
▁शरीरे	-10.2748
▁इत्येक	-10.2749
▁द्रष्ट	-10.2749
द्वीप	-10.2752
▁पुरो	-10.2757
▁उष्ण	-10.2758
▁100	-10.2759
▁बिन्दु	-10.2759
▁राघव	-10.2759
▁हेम	-10.2761
▁सम्प्र	-10.2763
▁ेन्द्र	-10.2763
▁अतिशय	-10.2765
▁गच्छन्ति	-10.2765
▁अतिथि	-10.2767
▁०४	-10.2767
▁योजय	-10.2768
साधन	-10.2772
▁तपसा	-10.2773
ाक्षर	-10.2777
▁आन्दोलन	-10.2787
▁पर्याप्त	-10.2787
▁रव	-10.2788
▁उद्योग	-10.2795
▁बह्व	-10.28
▁विधानं	-10.2802
▁an	-10.2804
▁रक्षति	-10.2804
j	-10.2805
▁्र	-10.2807
▁निर्देशः	-10.2812
न्तरिक्ष	-10.2813
▁स्वाभाविक	-10.2815
▁जनसंख्या	-10.2815
▁कौशल	-10.2815
▁शी	-10.282
वीर	-10.2822
▁जगतः	-10.2826
स्मान्	-10.2828
▁विमुक्त	-10.2829
▁मदीय	-10.2832
भवति	-10.2839
▁अन्त्य	-10.2852
▁अतिरिक्त	-10.2853
ive	-10.2854
▁पश्यत	-10.2861
▁चेतन	-10.2861
▁मार्गः	-10.2866
▁स्पर्धा	-10.2866
▁घा	-10.2868
ऽहं	-10.2871
▁निधन	-10.2872
▁६५	-10.2873
▁जाय	-10.2877
▁सुहृद	-10.2878
▁तेषाम्	-10.2884
▁निगम	-10.2888
▁द्विधा	-10.2893
▁विस्तर	-10.2896
▁कुटुम्ब	-10.2898
▁भवन्तः	-10.2899
दर्थ	-10.29
भूत्	-10.2902
▁भूतानां	-10.2909
वस्थित	-10.2913
ोदर	-10.2913
▁माला	-10.2917
ोदय	-10.2919
▁द्वितीयः	-10.2925
▁फि	-10.2926
▁दिशा	-10.2926
▁(1)	-10.2928
▁यस्	-10.2936
▁यस्त	-10.2946
द्भुत	-10.2951
▁श्वः	-10.2952
▁राजनीति	-10.2956
▁रसायन	-10.2957
▁ed	-10.2961
▁श्रोत्र	-10.2962
▁~	-10.2968
▁न्वित	-10.2972
मित्य	-10.2973
▁ऽहम	-10.2979
▁2017	-10.2984
▁ादिना	-10.2989
▁तदु	-10.299
▁प्रणय	-10.2994
▁मेतत्	-10.2996
निर्दिष्टम्	-10.3005
▁पूर्वम्	-10.3007
---	-10.3008
▁प्रतिकूल	-10.3011
▁हरेः	-10.3015
▁अद्यापि	-10.3016
▁निरीक्ष	-10.3017
▁वाञ्छ	-10.3018
▁ैस्	-10.3024
▁लाख	-10.3025
▁खल	-10.3027
व्यक्त	-10.3027
▁ग्ल	-10.3028
▁ाधिकरण	-10.3029
▁वचनम्	-10.3032
▁परमात्मा	-10.3032
▁वरद	-10.3032
▁फलानि	-10.3036
▁पवन	-10.3037
रूपेण	-10.3038
▁त्रयोदश	-10.304
▁संसद	-10.3041
▁सुखदुःख	-10.3042
▁गणना	-10.3045
▁:-	-10.3049
धत्ते	-10.3055
▁सम्यग्	-10.3056
▁विभव	-10.306
▁संभवः	-10.3063
▁er	-10.3065
▁समृद्ध	-10.3067
▁सम्पर्क	-10.3068
▁विलम्ब	-10.307
▁५१	-10.307
▁शिल्प	-10.3071
▁देवान्	-10.3072
▁विद्यालये	-10.3072
▁ऽस्ति	-10.3073
▁भूषण	-10.3075
▁द्रव	-10.3079
▁अभय	-10.3086
▁कपि	-10.3094
▁दिग्	-10.3097
लङ्कार	-10.3105
▁बिल	-10.3106
▁तदनन्तर	-10.3113
तिरिक्त	-10.3113
▁मात्रे	-10.3121
▁वाज	-10.3122
▁माध्यम	-10.3127
▁सुलभ	-10.3127
येगु	-10.3128
▁सती	-10.313
▁तमस	-10.3135
▁अवयव	-10.3136
क्ख	-10.3137
▁प्रतियोगिता	-10.3137
▁पित्र	-10.3142
▁कुर्वत	-10.3143
निर्	-10.3146
▁भवद्	-10.3146
▁परिहार	-10.3147
▁विधेय	-10.3152
▁भृ	-10.3159
▁भवत	-10.3163
▁अमृत	-10.3164
▁छाया	-10.3166
▁खल्व	-10.317
la	-10.3176
▁सुकृत	-10.318
▁वैदिक	-10.3184
▁वेश	-10.3192
▁समाप	-10.3193
▁अवसर	-10.3199
▁योषित	-10.3203
▁अवश्य	-10.3206
▁तथ्य	-10.3206
▁मन्त्री	-10.3207
▁क्षति	-10.3211
▁व्यतिरेक	-10.3212
▁काष्ठ	-10.3215
▁कलि	-10.3216
▁रूपाणि	-10.3218
ङ्घ	-10.322
द्वि	-10.322
▁St	-10.3221
आर	-10.3228
०५	-10.323
▁निष्क	-10.3242
▁भूयः	-10.3243
▁जून	-10.3246
▁प्रतिदिन	-10.3246
ावली	-10.3249
पथ	-10.325
ञ्जन	-10.3254
▁युष्माकं	-10.3255
▁मयं	-10.3257
▁हरण	-10.326
ब्ज	-10.3264
▁सज्ज	-10.3275
▁क्रियमाण	-10.3277
▁घ्न	-10.3277
▁शनैः	-10.3278
▁संसर्ग	-10.3291
▁@	-10.3295
▁निरूपण	-10.3299
▁मारुत	-10.33
▁परमार्थ	-10.3301
टर	-10.3304
▁ज्ञानेन	-10.3308
▁्यते	-10.331
▁वर्त्त	-10.3311
▁मौन	-10.3321
लब्ध	-10.3323
▁ऊर्जा	-10.3323
▁कारणेन	-10.3324
ाश्रय	-10.3325
भोग	-10.3326
▁वर्धन	-10.3327
२०	-10.333
▁^	-10.3331
▁पित्त	-10.3336
▁मन्व	-10.3337
ाग्र	-10.3344
▁आयु	-10.3345
▁दस	-10.3347
हास	-10.3348
▁मार्गेण	-10.3351
रुद्ध	-10.3355
▁वाणिज्य	-10.3358
▁क्रुद्ध	-10.336
टल	-10.336
▁07	-10.3365
मन्य	-10.3368
▁बहुवचन	-10.3369
▁ष्	-10.3372
ाश्रम	-10.3374
▁स्थितो	-10.3378
▁एकस्मिन्	-10.3378
▁अनुमान	-10.3382
श्चित्	-10.3382
▁सिद्धिः	-10.3383
▁ददौ	-10.3383
▁स्वल्प	-10.3391
▁ाऽऽ	-10.3392
▁प्राप्तुं	-10.34
▁जातम्	-10.3401
▁नरकं	-10.3401
ष्ट्र	-10.3407
▁पृष्ठे	-10.3409
▁घोष	-10.3409
▁मल्ल	-10.341
प्रिय	-10.3411
▁योग्यता	-10.3423
▁अथात	-10.3423
▁स्मार	-10.3425
▁भवन्तु	-10.343
▁ख्य	-10.3431
▁किञ्चिद	-10.3431
▁विष्ट	-10.3432
▁क्षिप	-10.3436
▁वन्तः	-10.3437
▁सम्भवः	-10.3437
▁प्रवास	-10.3437
▁वेष	-10.3437
▁प्रभा	-10.3439
K	-10.344
▁करिष्ये	-10.3442
ेच्छा	-10.3444
▁अर्जुन	-10.3446
▁राजनि०	-10.3446
▁भौतिक	-10.3446
▁परियोजना	-10.3447
ove	-10.3448
▁क्षीण	-10.3448
▁१९८	-10.3455
▁तच्छ	-10.3459
▁परमे	-10.346
▁फा	-10.3462
▁मत्र	-10.3462
▁38	-10.3464
▁उभौ	-10.3476
▁निष्कर्ष	-10.3478
▁वास्तु	-10.3484
▁कर्त	-10.3486
▁पूर्वमेव	-10.3486
▁वयम	-10.3487
ाख्या	-10.349
साद	-10.3496
th	-10.3502
▁द्रोण	-10.3507
▁हेतोः	-10.3508
▁गुहा	-10.3511
▁ितम्	-10.3512
▁मन्त्रिण	-10.3513
▁ादिभिः	-10.3519
दास	-10.3521
▁ध्वन	-10.3529
▁अधोलिखितान	-10.3534
▁तत्सर्वं	-10.3536
▁गर्व	-10.3543
▁जानन्ति	-10.3544
▁लकार	-10.3552
▁स्वार्थे	-10.3556
▁मतिः	-10.3557
▁दधि	-10.3561
▁ान्वित	-10.3563
यता	-10.3565
तप	-10.3566
▁सूची	-10.3569
टिका	-10.3569
▁संपाद	-10.3571
▁कथयामि	-10.358
▁शंस	-10.3584
▁ानन्तरं	-10.3584
▁निमित्तं	-10.3588
धुना	-10.3589
१२	-10.359
▁पुरु	-10.3593
▁दिल	-10.3595
▁सन्दर्भ	-10.3595
▁नेपाः	-10.3596
▁शूल	-10.3596
▁बृहत्	-10.3599
▁वीक्ष	-10.3602
▁परार्थ	-10.3604
▁मुह	-10.3604
▁धाम	-10.3614
▁पुस्तकं	-10.362
▁मुद	-10.3621
▁बौद्ध	-10.3626
▁युक्ते	-10.3627
भर	-10.3628
▁ासन	-10.3634
▁कोण	-10.3637
▁ादपि	-10.3637
▁परिपूर्ण	-10.3637
▁दित्य	-10.3638
▁सूर्य्य	-10.3638
▁महाराज	-10.3638
▁परमाणु	-10.3643
▁केशव	-10.3644
प्रद	-10.3644
▁वैर	-10.3644
▁मिम	-10.3645
▁दुःखित	-10.3645
▁ीकरण	-10.3647
▁ित्य	-10.3649
tion	-10.3651
▁पूँजी	-10.3656
▁गृह्णाति	-10.3667
▁स्क	-10.3673
युग	-10.3677
▁वाचा	-10.368
▁विरह	-10.3683
▁प्रजायते	-10.3693
▁पञ्चदश	-10.3693
▁गल	-10.3695
▁ख्याति	-10.3696
▁आत्मानं	-10.3704
▁शाप	-10.3708
▁एवमुक्त	-10.3708
प्यते	-10.3712
ꣳ	-10.3712
▁सिद्धे	-10.3712
▁मान्य	-10.3712
▁धैर्य	-10.3717
▁सौर	-10.3718
▁श्चापि	-10.3721
▁तदन्त	-10.3725
▁१९४	-10.3728
▁प्रचार	-10.3728
▁सुविधा	-10.3729
▁भारतदेश	-10.3732
▁पाव	-10.3734
▁ानुसार	-10.3737
▁चिरं	-10.3738
▁स्वच्छ	-10.3739
▁कर्मण	-10.3743
▁मुञ्च	-10.3744
▁तस्मान्	-10.3746
▁विस्तृत	-10.3747
▁प्रणाली	-10.3747
खण्ड	-10.3748
टन	-10.3751
▁न्यूनतम	-10.3752
▁ल्य	-10.3755
▁निर्गत	-10.3757
▁शक्या	-10.376
ाधिप	-10.3761
▁वेध	-10.3762
▁दिक्	-10.3766
▁धनु	-10.3768
▁व्याप्ति	-10.377
▁श्वर	-10.3773
▁पूर्ववत्	-10.3773
▁33	-10.3775
▁ङीष्	-10.3778
▁दुगु	-10.3778
▁Archives	-10.3778
नेक	-10.3778
▁दीक्षा	-10.3781
▁गमिष्यामि	-10.3784
▁पय	-10.3784
▁भृत्य	-10.3784
▁मासस्य	-10.3787
▁ग्राहक	-10.3788
▁उपस्थित	-10.3794
राध	-10.3796
▁ऽप	-10.3798
▁ज्ञानम्	-10.3798
▁सद्यः	-10.38
▁ाधिप	-10.3802
▁विरोधः	-10.3805
▁जन्मनि	-10.3807
ैश्च	-10.3812
▁सत्या	-10.3813
०२	-10.3816
क्षर	-10.3818
▁वारं	-10.3819
▁देव्या	-10.3821
▁फु	-10.3824
▁आयुः	-10.3829
▁In	-10.3832
▁ाधि	-10.3833
भक्त	-10.3834
▁स्कन्ध	-10.384
▁ोत्तम	-10.384
▁अप्वः	-10.384
▁उपयोगः	-10.3841
▁शङ्ख	-10.3843
▁मण्डले	-10.3845
000	-10.3845
▁त्रयः	-10.3847
पयेत्	-10.3849
▁निर्मा	-10.3855
▁लोभ	-10.3856
▁ाद्या	-10.3858
▁गौर	-10.3859
▁इदानीम्	-10.3861
▁संविद	-10.3867
▁कोरोना	-10.387
▁दिल्ली	-10.387
ॄणां	-10.387
घ्र	-10.3873
▁संग्राम	-10.3879
▁कद	-10.3883
ायुध	-10.3889
▁ैत	-10.389
▁जननी	-10.3891
ीयन्ते	-10.3892
▁अष्टम	-10.3894
▁९०	-10.3894
▁ेक	-10.3896
ुभय	-10.3896
ाणाम्	-10.3899
▁पुत्री	-10.3903
▁माधव	-10.3904
▁सङ्गीत	-10.3906
ागम	-10.3906
▁अगस्त	-10.3913
▁तमा	-10.3913
एम	-10.3916
▁निवस	-10.3917
▁मन्त्रि	-10.3919
▁देवानाम	-10.392
वयव	-10.3924
▁निव	-10.3929
▁प्रशिक्षु	-10.3932
तुमर्हसि	-10.3934
▁महि	-10.3935
▁ोदय	-10.3936
▁मुखे	-10.3936
▁जातो	-10.3936
क्ल	-10.3937
▁दग्ध	-10.394
▁घु	-10.3943
▁क्रान्ति	-10.3944
▁कविः	-10.3945
▁ददर्श	-10.3946
शङ्क	-10.3955
▁तीर	-10.3957
▁यित्वा	-10.3962
▁स्पेन	-10.3966
▁दुर्बल	-10.3968
av	-10.3974
▁कारणात्	-10.3977
▁प्रथ	-10.3978
▁निवेदय	-10.3983
▁तेजो	-10.3989
▁एवेति	-10.3989
▁देहे	-10.399
▁विक्रय	-10.3995
फ़	-10.3996
▁तत्काल	-10.4001
▁करणीयम्	-10.4004
▁मत्त	-10.4005
धारण	-10.4007
टु	-10.4011
▁अप्य	-10.4013
र्षि	-10.4014
मिव	-10.4015
▁धरा	-10.402
ावपि	-10.4021
▁च्छेद	-10.4021
▁मनुज	-10.4022
▁सुता	-10.403
▁सिध्य	-10.4031
▁दातव्य	-10.4033
▁शिर	-10.4036
▁कुरुत	-10.4039
पद्यत	-10.4041
धीत	-10.4042
स्तथा	-10.4048
▁आद्य	-10.405
▁ेव	-10.4054
▁निकट	-10.4054
▁कृत्स्न	-10.4059
▁सुखी	-10.406
▁देशीय	-10.4061
▁देयं	-10.4064
▁उष	-10.4065
▁पराजय	-10.4067
▁१९५	-10.4067
▁यय	-10.4069
▁ाचार्य	-10.407
१५	-10.407
▁विनय	-10.4085
▁यावद्	-10.4088
▁संयम	-10.4088
▁ाख्या	-10.4092
▁कुर	-10.4093
▁तद्धित	-10.4093
▁उद्यम	-10.4096
▁न्ह्य	-10.41
▁भृश	-10.4104
▁आपः	-10.4113
▁ाभ्य	-10.4113
▁कर्मणः	-10.4119
▁अस्यां	-10.412
▁परिश्रम	-10.412
▁मृष	-10.4123
▁संवेदना	-10.4124
ाम्यहम्	-10.4125
▁भक्षय	-10.4129
▁मन्यन्ते	-10.4135
▁त्वरित	-10.4138
▁ोऽहं	-10.4138
▁शिखर	-10.4139
▁भवितव्य	-10.4139
▁साधय	-10.414
▁ादीनि	-10.414
▁36	-10.4143
▁द्रष्टव्य	-10.4147
▁यायेगु	-10.4149
▁ञ्	-10.415
▁एतदेव	-10.4151
▁राजधानी	-10.4152
▁प्रयोजक	-10.4152
▁चाप	-10.4153
▁वाच्यम्	-10.4156
▁वु	-10.4156
▁02	-10.4156
दूर	-10.4158
▁मासीत्	-10.4158
▁भङ्ग	-10.4163
▁राजानं	-10.4165
▁दिशः	-10.4168
▁न्ह्यः	-10.4169
कर्षण	-10.4171
▁भवितव्यम्	-10.4174
▁विवक्ष	-10.4176
▁एकेन	-10.4177
▁विशेषणम्	-10.4179
▁तमो	-10.4181
द्वार	-10.4186
▁न्व	-10.4187
▁पीडा	-10.4188
▁भिक्षु	-10.419
▁ानुप	-10.4191
▁वसिष्ठ	-10.4194
▁भवान	-10.4196
▁नेह	-10.4198
▁शन	-10.4203
▁37	-10.4203
▁अच्	-10.4204
▁वदन	-10.4205
▁यावद	-10.4207
▁महत	-10.4207
▁महत्व	-10.4207
बुध	-10.4209
▁दाव	-10.4216
▁उत्पन्न	-10.4221
ृणो	-10.4221
▁पयो	-10.4222
▁गृ	-10.4223
▁१९६	-10.4226
▁पन	-10.4231
▁शिरस	-10.4232
▁रोद	-10.4236
▁डे	-10.4238
▁विधे	-10.4239
▁विपुल	-10.4249
▁महाभाग	-10.4249
▁पुष्ट	-10.425
▁भव्य	-10.425
▁सिद्धम्	-10.4253
▁मप्य	-10.4255
▁गच्छामि	-10.4258
▁उपचार	-10.4259
▁इन	-10.4263
दिने	-10.4264
▁ब्रह्मा	-10.4273
▁ाकार	-10.4278
▁परमात्मन	-10.428
▁त्रिंश	-10.4284
▁कोट	-10.4284
▁योगदान	-10.4289
ैरपि	-10.4299
▁भ्रान्त	-10.4307
श्न	-10.4308
ग्राह	-10.431
vi	-10.431
▁युक्तम्	-10.4311
▁इत्यर्थ	-10.4314
▁शक	-10.4315
▁भ्यो	-10.4318
▁कक्ष	-10.4319
▁स्पृष्ट	-10.4323
▁भविता	-10.4323
▁प्रकाशन	-10.4325
▁हास्य	-10.4326
▁पश्चाद्	-10.433
चक	-10.4331
▁मासि	-10.4331
▁10.	-10.4334
▁रचय	-10.4335
▁यस्याः	-10.4339
▁com	-10.4339
▁श्वास	-10.434
▁७४	-10.4343
▁पितॄणां	-10.4345
च्यते	-10.4347
▁कस्यचित्	-10.4349
चक्ष	-10.435
▁शुभम्	-10.4351
▁युध्य	-10.4352
▁कान्	-10.4358
▁सर्वभूत	-10.4362
नू	-10.437
▁तिथिः	-10.4371
▁ad	-10.4378
▁पश्यन्	-10.4378
शान	-10.4379
▁प्रार्थित	-10.438
तुर्	-10.438
▁५८	-10.4381
ak	-10.4383
▁कलह	-10.4386
▁इत्युक्त्वा	-10.4386
पर्यन्त	-10.4388
▁स्त्रियः	-10.439
धातु	-10.4393
@2	-10.4397
▁पृथिव्यां	-10.4401
▁सदस	-10.4404
▁समाप्ति	-10.4407
▁चक्षुष	-10.4407
▁अभिव्यक्ति	-10.441
▁ेत्यर्थः	-10.441
▁बहूनां	-10.4412
▁उदाहरणम्	-10.4412
सागर	-10.4416
▁निशि	-10.4417
▁निहित	-10.4419
▁मतदान	-10.442
▁ज्योतिः	-10.4421
▁त्रै	-10.4421
▁गतवान्	-10.4424
▁मते	-10.4425
▁विश्वस्य	-10.4427
▁घण्टा	-10.4428
परा	-10.4432
▁ब्रवी	-10.4435
▁पश्चिमे	-10.4436
▁मूर्त	-10.4441
▁भयम्	-10.4441
▁पृथ्वी	-10.4442
मासाद्य	-10.4443
नन्दन	-10.4449
धू	-10.4451
▁अस्माकम्	-10.4452
ch	-10.4455
▁परोक्ष	-10.4455
▁यन्न	-10.4457
▁स्त्रिय	-10.4458
▁क्षित	-10.4459
▁विविधा	-10.4465
▁खन	-10.4471
▁सम्पत्ति	-10.4475
▁विरासत	-10.4475
▁प्रतिपद्यते	-10.4475
▁वदामि	-10.4477
▁ज़	-10.4479
▁उद्यान	-10.4482
भ्	-10.4485
न्वय	-10.4491
ेयुः	-10.4494
▁दशक	-10.4497
▁रोध	-10.45
▁सर्गः	-10.4508
▁ब्व	-10.4509
▁प्रयुज्यते	-10.4516
▁द्वयोः	-10.4519
▁उपसर्ग	-10.452
▁चेन्न	-10.4521
▁सहस्त्र	-10.4522
ex	-10.4524
मर्थ	-10.4525
▁गात्र	-10.4527
▁34	-10.4531
साम	-10.4532
▁मग्न	-10.4535
जल	-10.4538
▁आक्रमण	-10.4538
यॊ	-10.4546
▁स्थिताः	-10.4547
▁पुमान्	-10.4549
▁प्राज्ञ	-10.4558
▁स्ततः	-10.456
▁द्विष	-10.4563
▁ाणाम्	-10.4564
▁ात्मकं	-10.4567
▁प्रतिपादित	-10.4575
▁तरुण	-10.4576
▁स्वीय	-10.458
▁विभक्ति	-10.4581
▁भस्म	-10.4582
▁संसारे	-10.4583
वृद्ध	-10.4588
▁विशुद्ध	-10.4589
▁अव्यक्त	-10.4591
▁खेद	-10.4594
▁तिस्र	-10.4595
▁आचार	-10.4597
▁इत्युप	-10.4598
▁कृतो	-10.4599
▁५३	-10.46
▁9.	-10.4601
▁परामर्श	-10.4607
▁प्रायश्चित्त	-10.4607
▁जै	-10.4608
▁हिन्दी	-10.4608
▁भीम	-10.4612
▁सन्तु	-10.4615
▁गच्छत	-10.4618
द्यु	-10.4619
▁तदुप	-10.4619
▁कस्या	-10.462
▁अवकाश	-10.4621
▁शक्त्या	-10.4629
▁उपकरण	-10.4633
▁त्वद	-10.4638
W	-10.4642
▁ब्रूहि	-10.4645
▁अन्यतम	-10.4647
▁ह्व	-10.4649
▁प्रजानां	-10.4651
षित	-10.4653
▁अपश्य	-10.4653
20	-10.4653
▁त्वद्	-10.4653
बाध	-10.4664
ृष	-10.4667
▁अरे	-10.4669
▁परितः	-10.4669
▁प्रपञ्च	-10.4674
▁साम्प्रत	-10.4675
▁हिन्दु	-10.4675
निश	-10.4679
▁No	-10.468
▁नाम्न	-10.4688
▁पूर्व्व	-10.4692
▁ददा	-10.4698
▁ग्रहणे	-10.4698
ुष्य	-10.4705
▁आश्चर्य	-10.4708
▁पुत्त्र	-10.4708
वरी	-10.471
▁शक्नु	-10.4711
▁प्रासाद	-10.4712
▁प्रसार	-10.4715
▁प्रसूत	-10.4716
▁भवतो	-10.4723
▁महो	-10.4731
सभा	-10.4739
▁ादेः	-10.4739
▁स्वभावतः	-10.4739
दुःख	-10.4741
▁प्रतिनिधि	-10.4742
▁आत्मनः	-10.4744
▁वर्ति	-10.4745
▁बहवो	-10.4746
▁सूर	-10.4749
▁पदानि	-10.4757
▁कस्मात्	-10.4762
▁उत्तरम्	-10.4764
▁निरूपित	-10.4777
▁केरल	-10.4778
▁ऽत्र	-10.4779
▁समाचरेत्	-10.4781
▁प्रकरणे	-10.4782
▁जाते	-10.4786
▁सर्वभूतानां	-10.4788
तीनां	-10.4788
▁किंचिद	-10.4794
▁सृ	-10.4795
▁प्रतिवर्ष	-10.4796
▁श्रु	-10.48
▁कस्यापि	-10.48
▁अरण्य	-10.4801
▁पन्न	-10.4804
▁at	-10.4808
▁सञ्चिका	-10.4809
▁अध्यापक	-10.481
▁विह	-10.481
▁स्थानीय	-10.4814
▁विज्ञ	-10.4814
▁समाहितः	-10.4817
▁[[	-10.482
▁जनैः	-10.4824
वस्तु	-10.483
▁क्षमता	-10.4832
▁साध्या	-10.4833
▁देवालय	-10.4833
▁प्रशंस	-10.4833
▁जागर	-10.4834
▁विशेष्य	-10.4837
▁उदा	-10.4838
▁प्रातिपदिक	-10.4854
▁ततस्	-10.4855
▁तदैव	-10.4866
▁वक्तव्यः	-10.4874
▁ज्ञानस्य	-10.4877
▁युधिष्ठिर	-10.4877
▁तनय	-10.4877
12	-10.4878
▁सखा	-10.4878
ब्ब	-10.4879
▁सङ्ग्रह	-10.4887
▁पृथग्	-10.4896
▁कापि	-10.4898
०३	-10.49
प्लव	-10.4904
▁देवेश	-10.4908
▁त्थ	-10.4908
▁पुस्तके	-10.4908
▁कृषक	-10.4912
▁तत्सम	-10.4913
▁विनियोग	-10.4915
▁सदन	-10.4919
▁शैली	-10.492
▁श्चेति	-10.492
ादीनां	-10.4921
▁००	-10.4926
▁मन्त्रेण	-10.4926
चित्त	-10.4931
वाल	-10.4932
▁ङ्	-10.4933
▁इयम्	-10.4938
▁मनुष्याणां	-10.4938
यर	-10.4939
▁तदभाव	-10.4943
▁पुत्रस्य	-10.4945
▁नामक	-10.4946
▁व्यतिरिक्त	-10.4949
▁पदेन	-10.495
▁प्रेषित	-10.4951
▁वचनात्	-10.4954
▁इमां	-10.4956
▁शोष	-10.4957
▁रूढ	-10.4959
▁बालकाः	-10.4962
▁परायण	-10.4976
▁व्यति	-10.4979
11	-10.4982
▁जीवने	-10.4986
▁इत्यु	-10.499
▁्व	-10.499
▁विस्तरेण	-10.4994
▁एकान्त	-10.5012
▁विदा	-10.5014
▁समुच्चय	-10.5015
▁यीशु	-10.5015
▁निवारण	-10.5016
▁जीर्ण	-10.5019
▁क्षत	-10.5021
दन्त	-10.5022
ष्प	-10.5024
▁व्योम	-10.503
▁व्यथ	-10.5034
▁महीयते	-10.5035
ानुसार	-10.5035
मण्डल	-10.5037
बू	-10.5039
▁सक्त	-10.5039
▁पोष	-10.5045
▁ांश्च	-10.5047
▁इत्यनु	-10.5048
▁सावधान	-10.505
▁ह्रीं	-10.5052
▁कस्मा	-10.5052
▁ळ	-10.5058
▁महेश्वर	-10.5059
पूर	-10.5061
▁60	-10.5065
▁वेष्ट	-10.5065
▁वादी	-10.5076
▁प्रविश	-10.5076
धिकार	-10.508
शंस	-10.5088
▁ुत्	-10.509
▁विज्ञाय	-10.5091
▁पादप	-10.5096
▁ाप्य	-10.5098
▁विगत	-10.5115
▁पुनस्त	-10.5119
▁सार्ध	-10.512
▁भ्राता	-10.512
▁अत्यधिक	-10.5121
▁>>	-10.5128
▁६४	-10.5128
age	-10.5128
▁क्षेम	-10.5128
▁अन्येषा	-10.5131
▁चात्र	-10.5132
▁कुर्वन्तु	-10.5136
▁उक्तवान्	-10.5144
पट	-10.5148
▁ादयो	-10.5148
▁जितः	-10.5152
▁जड	-10.5154
▁Post	-10.5154
▁वातावरण	-10.5155
▁सर्वतो	-10.5158
▁वैभव	-10.5165
▁एनं	-10.5165
▁पराक्रम	-10.5172
▁अज्ञान	-10.5172
लाभ	-10.5174
▁साक्षि	-10.518
▁न्त्य	-10.5184
स्फ	-10.5185
▁दर्शनात्	-10.5187
पीड	-10.5187
▁शिश	-10.5188
▁रघु	-10.519
▁US	-10.5193
पृष्ठ	-10.5193
ग्रहण	-10.521
▁पेय	-10.5212
▁यूप	-10.5215
▁शिरः	-10.5217
▁ोपदेश	-10.5219
▁योगेन	-10.5223
▁वृद्धा	-10.5224
०४	-10.5226
▁ार्ह	-10.5234
▁भवेद	-10.5235
ेन्द्रिय	-10.524
▁प्रतीक्षा	-10.5245
▁स्वात्म	-10.5246
▁पक्षिण	-10.5249
भक्ति	-10.5249
▁गुणैः	-10.5254
▁सहज	-10.5255
▁महात्मा	-10.5257
▁सेवन	-10.5258
▁६८	-10.526
li	-10.526
▁(),	-10.5263
▁स्वधा	-10.5264
▁विद्धि	-10.5264
▁·	-10.5264
▁li	-10.5267
▁45	-10.5276
प्रथम	-10.5278
१४	-10.5281
▁पुल	-10.5284
▁हत्वा	-10.5285
▁ोऽस्मि	-10.5288
▁पित्रा	-10.5288
▁ङि	-10.5289
▁चेद्	-10.529
▁झी	-10.5292
▁क्रतु	-10.5292
▁धम	-10.5295
▁पाहि	-10.5296
▁पदोन्नति	-10.5296
▁लक्ष्मी	-10.5296
ादयः	-10.5299
▁स्वतन्त्रता	-10.5305
▁वाद्य	-10.5306
लोचन	-10.5313
▁खाद्य	-10.5325
▁ज्ञापय	-10.5328
▁ावस्था	-10.5332
ā	-10.5332
▁बान्धव	-10.5332
▁विधौ	-10.5332
▁६६	-10.5333
▁चिन्तित	-10.5335
▁सेतु	-10.5338
▁दे॒व	-10.5339
▁प्राणिनां	-10.5341
▁समाधान	-10.5352
▁कफ	-10.5354
▁संपूर्ण	-10.5355
ङ्कर	-10.5363
▁रूपांतरण	-10.5368
▁कौन्तेय	-10.5368
▁ऎ	-10.5368
▁कतिपय	-10.537
▁अधोलिखित	-10.537
▁एतन्	-10.537
▁अस्त्र	-10.537
▁अनन्तर	-10.5373
▁साम्राज्य	-10.5374
तीव	-10.5375
▁विलक्षण	-10.5377
▁गव	-10.5377
▁लङ्का	-10.5385
▁44	-10.5387
▁निबोध	-10.5395
▁ta	-10.5395
▁्यो	-10.5397
▁क्ति	-10.5398
▁मातुः	-10.54
▁कृतार्थ	-10.5401
18	-10.5404
▁तयोर्	-10.5404
▁पन्था	-10.5405
▁जायन्ते	-10.5408
▁वक्ष	-10.5409
▁प्रणि	-10.541
▁पादौ	-10.5411
११	-10.5414
▁विचार्य	-10.5415
▁क्रय	-10.5416
नयन	-10.5418
▁48	-10.542
▁नगरस्य	-10.5422
▁च्युत	-10.5431
▁तपस	-10.5432
▁शङ्का	-10.5434
▁ाण्य	-10.5436
▁उपयोगी	-10.5439
▁पुरुषोत्तम	-10.5446
▁ादित्य	-10.5447
▁वृथा	-10.5447
▁मुनय	-10.5449
▁सखि	-10.5451
▁भृत	-10.5452
▁त्रिगुण	-10.5458
▁अब्	-10.5462
▁धर्मेण	-10.5462
▁तपस्	-10.5469
▁ाधार	-10.5474
शाला	-10.5476
▁सुप्रभात	-10.5476
▁आरोग्य	-10.5476
▁विचक्षण	-10.5476
▁कुर्मः	-10.5476
▁लिंग	-10.5481
▁षष्टि	-10.5485
▁रै	-10.5487
▁सुतः	-10.549
नन्द	-10.5495
▁रौ	-10.5495
▁रिव	-10.5497
▁वय्क	-10.5499
▁काम्य	-10.5501
▁वक्तव्यं	-10.5503
▁प्रलय	-10.5512
▁गू	-10.5513
▁उकि	-10.552
▁Se	-10.5523
ारम्भ	-10.5526
दिवस	-10.5528
▁पेक्षा	-10.5534
▁39	-10.5538
▁भ्रष्ट	-10.5541
▁७६	-10.5541
ाऽऽ	-10.5542
▁७१	-10.5545
▁समक्ष	-10.5546
▁शृङ्ग	-10.5549
▁News	-10.555
pe	-10.5551
▁प्रगति	-10.5553
▁तीत्य	-10.5556
▁वय्कः	-10.5556
▁परित्यज्य	-10.556
अप	-10.5568
▁शक्यम्	-10.557
▁पयः	-10.5581
▁ाथ	-10.5584
▁विवर्जित	-10.5585
▁विभो	-10.5591
▁खिल	-10.5603
▁ानाम	-10.5611
हस्त	-10.5615
▁यत्नतः	-10.5615
▁कष	-10.5615
▁एतस्मिन्	-10.5619
▁क्री	-10.5619
ास्ते	-10.5621
ff	-10.5621
▁शक्नुवन्ति	-10.5622
▁शौच	-10.5623
▁ओषध	-10.5623
▁६७	-10.5623
▁भगवतः	-10.5626
च्छ्र	-10.5627
▁ार्ध	-10.5627
▁क्षिप्र	-10.5628
▁हृष्ट	-10.5629
▁स्वीकार	-10.563
▁ाश्रम	-10.5631
▁स्त्रि	-10.5632
▁ीश्वर	-10.5632
▁इती	-10.5639
▁स्पृ	-10.5641
▁बहुविध	-10.5642
▁तदर्थं	-10.5642
▁मेकं	-10.5643
आई	-10.5645
ेतुं	-10.5648
▁पूरण	-10.5652
▁सप्तमी	-10.5655
▁जव	-10.5658
▁वैश्वदेव	-10.5659
▁शत्रू	-10.566
▁चतुः	-10.5662
▁छेद	-10.5662
▁धेनु	-10.5666
वसाय	-10.5666
विश्व	-10.5676
▁तमस्य	-10.5681
▁लज्जा	-10.5683
▁इष	-10.5687
श्रेष्ठ	-10.5691
ेयम्	-10.5691
▁ज्ञेया	-10.5693
▁मर्द	-10.5694
▁(2)	-10.5698
▁क्रूर	-10.5698
ant	-10.57
▁माघ	-10.5703
▁ेष्व	-10.5708
▁भ्रातर	-10.571
▁असम	-10.5717
▁ऽसौ	-10.5722
▁भक्ष्य	-10.5732
▁विद्वांस	-10.5734
▁शक्नुमः	-10.5734
▁श्रृणु	-10.5735
▁प्रेरण	-10.5737
▁रात	-10.5741
▁प्रमाद	-10.5747
▁ाहं	-10.5753
▁किमु	-10.5754
▁९५	-10.576
सुख	-10.5764
nd	-10.5767
▁लोचन	-10.577
▁2016	-10.5771
▁स्थाप्य	-10.5771
▁यथाक्रमम्	-10.5772
▁वीक्ष्य	-10.5773
भ्यास	-10.5773
▁व्यवस्थापन	-10.5774
▁इष्यते	-10.5776
▁गृहस्थ	-10.5781
▁परिच्छेद	-10.5789
▁क्षिति	-10.5789
▁आगत्य	-10.579
ांग	-10.5797
▁आदौ	-10.58
ास्यामि	-10.5804
▁तद्वत्	-10.5807
▁निवर्तते	-10.5808
▁पत्न्य	-10.5809
▁निर्मल	-10.5815
रुह्य	-10.5819
▁६२	-10.5823
ब्रवीत	-10.5829
▁वर्णित	-10.5833
▁दूरभाष	-10.5842
▁म्रियते	-10.5845
नृत	-10.5846
▁सम्प्रसारण	-10.5846
▁विज्ञात	-10.585
▁मत्वा	-10.5859
▁अष्टादश	-10.5864
▁एतौ	-10.5872
▁सतां	-10.5873
▁खग	-10.5874
▁हस्ति	-10.588
▁लोकान्	-10.5882
▁उत्साह	-10.5884
▁ऊर्ज	-10.5888
▁हेतुना	-10.589
दिव	-10.5891
▁पेश	-10.5894
▁न्ह्या	-10.5898
▁दीना	-10.5899
▁त्यादि	-10.59
▁आरोप	-10.5901
▁प्रभृति	-10.5902
▁समिति	-10.5902
च्वन	-10.5906
▁स्थले	-10.5907
कालीन	-10.5911
▁व्यप	-10.5912
▁रपि	-10.5919
▁ोऽसि	-10.5919
मोह	-10.592
▁वृण	-10.592
▁अनित्य	-10.592
▁दारिद्र्य	-10.5921
▁पर्	-10.5924
▁मनीष	-10.5926
▁समन्वय	-10.5931
▁चयन	-10.5936
▁स्थितौ	-10.594
ारोह	-10.594
▁हितम्	-10.5946
ाम्यहं	-10.5947
▁आरभ्य	-10.5952
▁साक्षिण	-10.5957
▁विख्यात	-10.5959
▁भ्रातृ	-10.5961
▁हिताय	-10.5963
▁अज्ञात	-10.5965
▁ाभावे	-10.5965
▁प्रकर्ष	-10.5968
▁कस्मिन्	-10.5972
▁निवेदित	-10.5972
▁क्षेत्रज्ञ	-10.5976
▁साक्षी	-10.5977
▁विंश	-10.5986
▁कर्तुम	-10.5989
वाहन	-10.5991
▁शव	-10.5993
▁उपयुक्त	-10.5995
▁वैश्वानर	-10.5997
▁चतुष्टय	-10.5998
▁कुश	-10.5999
▁आश्रय	-10.5999
▁प्रणम्य	-10.6
▁उभे	-10.6001
▁पह	-10.6009
कर्मण	-10.6018
▁विक्री	-10.6025
स्तव	-10.6025
▁बलेन	-10.6025
▁कारेण	-10.6026
▁समुत्	-10.6027
▁मनस्	-10.6028
▁बहिर	-10.6028
▁पूर्ब्ब	-10.6036
▁औसत	-10.6036
उप	-10.6036
▁उपयुज्य	-10.6038
▁कर्तृत्व	-10.6038
▁मधि	-10.604
▁मृत्यो	-10.6041
स्वर	-10.6041
▁टीका	-10.6042
▁सेवक	-10.6042
▁ाक्षर	-10.6044
▁पथ्य	-10.6045
▁विभक्तिः	-10.6046
▁वाणी	-10.6052
गृहीत	-10.6054
▁पूत	-10.6062
▁द्रष्टव्यम्	-10.6062
ग्ध	-10.6063
▁श्रुतेः	-10.6063
नियम	-10.6066
▁नवम	-10.6069
▁पाकिस्तान	-10.6074
▁विमल	-10.6076
कर्ण	-10.6081
▁चेतना	-10.6085
▁तप्त	-10.6088
▁यन्म	-10.6088
▁लक्षित	-10.6088
▁फोटो	-10.6089
▁सम्यग	-10.609
▁रम्य	-10.609
▁प्रयच्छति	-10.6093
▁एतच्च	-10.6097
▁निष्प	-10.6097
▁फ्र	-10.6098
▁पटल	-10.6102
नाश	-10.6104
▁उदय	-10.6107
▁प्रणव	-10.611
▁वास्तव	-10.6115
▁जातु	-10.6115
अहं	-10.6117
▁र्ष	-10.6118
▁De	-10.6121
ैतत्	-10.6122
▁ध्यात्व	-10.6123
▁मनसः	-10.6142
▁स्नात	-10.6143
▁तेजः	-10.6145
▁संध्या	-10.6145
निपात	-10.6151
▁देशकाल	-10.6151
▁परिसन्धि	-10.6152
▁प्रसीद	-10.6152
▁थौं	-10.6158
▁निरस्त	-10.6163
▁लता	-10.6164
ोऽसौ	-10.6166
▁ऽन्त	-10.6178
▁चतुष्	-10.6179
▁तदिद	-10.6182
▁व्यर्थ	-10.6187
▁गन्तुं	-10.6188
▁व्यभिचार	-10.6191
▁भेषज	-10.6191
▁नृणां	-10.6191
त्यादिना	-10.6193
▁रीत्या	-10.6195
▁क्षिप्त	-10.6196
▁मृद	-10.6196
pr	-10.6198
▁सीद	-10.62
छि	-10.6202
न्ट	-10.6208
▁जहा	-10.621
▁हन्य	-10.6215
▁जन्तु	-10.6215
वकाश	-10.6216
▁चिन्त्य	-10.6216
▁अवधि	-10.6218
▁शुक	-10.6222
▁शल्य	-10.6223
▁औपचारिक	-10.623
▁रिप	-10.6231
▁Y	-10.6237
▁तद्वद	-10.6238
▁अर्हति	-10.6242
▁हव्य	-10.6242
tr	-10.6243
▁समाप्तम्	-10.6243
▁प्रोक्तो	-10.6246
▁स्तेषां	-10.6246
खल	-10.6247
▁बाह	-10.6247
▁न्द्र	-10.6248
पराध	-10.6258
▁सर्वकाम	-10.6262
वादने	-10.6263
▁ैश्वर्य	-10.6266
▁क्षि	-10.6269
▁कार्यान्वयन	-10.6269
▁लक्ष्मण	-10.6269
▁श्रव	-10.6271
▁पुरोहित	-10.6272
▁८६	-10.6272
▁पूर्त	-10.6275
▁प्रदक्षिण	-10.6277
▁वेदितव्य	-10.6278
▁वाक्यार्थ	-10.6279
▁ुद	-10.6282
प्रतिषेध	-10.6282
▁काण्ड	-10.6284
▁कदाचि	-10.6284
▁तत्त्वतः	-10.6287
▁प्रयोक्त	-10.6287
▁वर्षशत	-10.6288
▁मीन	-10.6288
▁६१	-10.629
▁स्तत्	-10.6292
▁धृ	-10.63
▁पठन्ति	-10.6308
▁दर्पण	-10.6309
▁सार्धं	-10.6312
▁भा०	-10.6313
रिष्ट	-10.6313
▁एच	-10.6315
▁विधानेन	-10.6319
▁स्तोम	-10.6321
▁47	-10.6326
▁१९३	-10.6326
▁पश्चाद	-10.6327
भिप्रेत	-10.6328
ाब्द	-10.6335
रिव	-10.6336
▁प्रकरणम्	-10.634
▁माध्यमेन	-10.6346
▁जिह्वा	-10.6348
▁यूरोप	-10.6348
▁पण्य	-10.635
▁कल्पन	-10.6352
▁चक्षुः	-10.6352
यात्रा	-10.6354
▁८४	-10.6359
▁डो	-10.6366
गृहे	-10.6369
▁जल्प	-10.637
▁आगच्छति	-10.6371
▁इत्येष	-10.6371
▁त्वमपि	-10.6376
च्युत	-10.6381
रेक	-10.6384
कीर्ण	-10.6386
▁भूमिका	-10.6386
▁जनन	-10.6386
▁सनातन	-10.6388
▁वितरण	-10.6389
▁भाई	-10.6389
▁वक्र	-10.6389
▁पुनस्	-10.6396
▁लवण	-10.6403
▁ास्ति	-10.6405
क्षेत्र	-10.6406
▁जाग	-10.6408
▁जुयाः	-10.6411
▁करिष्य	-10.6411
▁यशो	-10.6417
▁त०	-10.6419
▁इत्युक्तम्	-10.642
क्षिप्य	-10.6421
↑	-10.6427
▁वस्तूनि	-10.6427
ृणु	-10.6429
▁वीत	-10.6434
▁भर्ती	-10.6434
▁केतु	-10.6443
▁व्याप्य	-10.6445
▁भक्षण	-10.6446
पाठ	-10.6447
▁इदानीम	-10.6452
▁प्रामाण्य	-10.6467
▁मध्याह्न	-10.6467
▁ब्रा	-10.6468
▁सांख्य	-10.6468
▁am	-10.6474
▁चौर	-10.6475
▁ज्ञातव्य	-10.648
ोऽस्मि	-10.6482
▁किमर्थम्	-10.6483
▁विज्ञायते	-10.6487
मेय	-10.6492
▁कह	-10.6493
▁विपक्ष	-10.6496
▁शिरो	-10.6498
▁भगवत्	-10.6499
▁पुरस्कृत	-10.6507
▁कृत्रिम	-10.6508
▁आरक्षण	-10.6511
धृत	-10.6514
▁विद्ध	-10.6514
▁अव्य	-10.6517
▁इत्यादौ	-10.6521
▁ललित	-10.6522
ोत्पाद	-10.6523
▁Tags	-10.6524
▁श्रोत	-10.6526
▁49	-10.6529
▁भूरि	-10.6531
▁क्रान्त	-10.6535
▁ारम्भ	-10.6539
▁पदवी	-10.654
र्पित	-10.6541
▁मित्राणि	-10.6544
▁ापेक्षया	-10.6548
▁राष्ट्रस्य	-10.655
ीणां	-10.6559
▁सुधा	-10.6559
▁चारु	-10.656
▁दै	-10.6562
▁स्याम	-10.6566
▁ch	-10.6586
▁निषिद्ध	-10.6588
▁परस्मैपद	-10.6588
▁विमर्श	-10.6588
▁यदु	-10.659
▁शब्दाः	-10.659
▁रमणीय	-10.659
▁तयो	-10.6591
▁परिमित	-10.6595
शाली	-10.6596
▁त्वदीय	-10.6599
▁ताभ्या	-10.66
▁तैर्	-10.6603
▁संधि	-10.6606
्यताम्	-10.661
▁शुच	-10.6616
िष्ये	-10.6618
▁ापि	-10.6618
▁सनातनः	-10.6629
ाग्नि	-10.663
▁ऋषय	-10.663
▁गगन	-10.6636
▁समर्पित	-10.6637
▁कपाल	-10.6637
▁र्ध	-10.6637
▁कोष	-10.6641
▁जानासि	-10.6643
▁सर्वश्रेष्ठ	-10.6644
▁प्रसव	-10.6644
▁ज्ञातुं	-10.6646
▁ोत्सव	-10.6648
▁संपद	-10.665
▁पुनश्च	-10.6653
जन्म	-10.6657
▁चत्वारः	-10.6659
▁स्थानानि	-10.666
▁संक्षेप	-10.6663
▁]]	-10.6666
▁पयस	-10.6667
▁रेफ	-10.6667
▁गायत्र	-10.6667
▁६९	-10.667
▁पर्ण	-10.6674
▁भर्ता	-10.6679
▁व्रजेत्	-10.6679
▁अद्भुत	-10.6686
्तुं	-10.6687
▁काचित्	-10.6695
▁लव	-10.6697
▁ान्वय	-10.6706
▁रुच	-10.6707
▁वैशिष्ट्य	-10.6711
▁पर्जन्य	-10.6711
▁ड्र	-10.6711
▁ौषध	-10.6712
▁नराधिप	-10.6713
▁तव्य	-10.6715
करोति	-10.6715
पीसी	-10.6719
▁तर्पय	-10.672
▁09	-10.6723
▁कुर्वीत	-10.6732
▁तुला	-10.6738
▁केषु	-10.6749
ावरण	-10.675
▁साङ्ख्य	-10.6752
▁मनोरथ	-10.6752
▁प्रतिपादन	-10.6753
▁ꣳ	-10.6758
कर्तरि	-10.6758
▁पाखे	-10.6759
▁लेख्य	-10.676
▁अनुच्छेद	-10.6763
पद्यन्ते	-10.6764
विद्या	-10.6764
मिह	-10.6766
▁भविष्यसि	-10.6771
▁सूर्यस्य	-10.6774
▁एकल	-10.6784
योर	-10.6785
मेतद्	-10.6791
▁सर्वपाप	-10.6793
▁वेदान्त	-10.6794
▁निर्यात	-10.6797
▁िद	-10.6799
▁उत्पत्ति	-10.6801
सहस्र	-10.6805
द्दिश्य	-10.6807
▁वर्धय	-10.6812
त्मानम	-10.6814
▁चत्वार	-10.6816
▁यथैव	-10.6817
▁इत्थ	-10.682
▁स्थित्वा	-10.6822
जसा	-10.6824
▁प्लुत	-10.6832
▁आश्रित	-10.6835
▁सङ्केत	-10.6835
▁क्लि	-10.6836
▁पट्ट	-10.6837
▁कलौ	-10.6839
▁मायया	-10.6841
▁बिम्ब	-10.6846
▁गोष्ठ	-10.6847
निर्देश	-10.6848
▁भूयो	-10.6848
▁निर्धन	-10.685
▁वरण	-10.6851
▁केचिद	-10.6852
▁चिद्	-10.6856
▁me	-10.6857
▁अहमेव	-10.686
एक	-10.6861
▁ितुं	-10.6862
▁प्रत्यहं	-10.6868
and	-10.687
▁शृण्व	-10.6878
▁अपत्य	-10.6878
▁प्रीण	-10.6879
▁संवत्सरे	-10.6881
▁वृषभ	-10.6883
▁फलकम्ः	-10.6887
▁चक्षुषा	-10.6888
▁समावेश	-10.6889
▁संदेश	-10.6891
▁जापान	-10.6891
ाणाम	-10.6902
▁तद्वि	-10.6906
याच्वंगु	-10.6908
▁प्रतिबिम्ब	-10.6918
च्छब्द	-10.6919
▁जुलाई	-10.6921
▁आकार	-10.6925
▁जर्मन	-10.6927
▁कुत्रापि	-10.693
च्वंगु	-10.6931
▁प्राकृतिक	-10.6933
▁लुक्	-10.6937
▁वाक्यानि	-10.6941
▁एकमेव	-10.6946
▁प्रतियोगि	-10.695
▁मदन	-10.6955
▁भौ	-10.6956
▁बहू	-10.696
▁सुभाषित	-10.6961
▁स्नात्वा	-10.6964
▁श्रोतु	-10.6965
रोग	-10.6967
▁संस्थायाः	-10.6978
▁महिमा	-10.6984
▁दिशो	-10.6988
▁कुर्याद्	-10.6991
पश्य	-10.6992
▁पावक	-10.6994
▁41	-10.6995
▁यजेत	-10.7
▁ज्योतिर्	-10.7001
▁पुनरेव	-10.7008
▁चेह	-10.7009
व्ह	-10.7015
▁ादिक	-10.7016
▁स्मिन्	-10.702
योग्य	-10.7025
▁42	-10.7027
▁तिष्ठत	-10.7029
▁ाभावात्	-10.703
▁बुद्ध्या	-10.7036
▁अणु	-10.7039
▁प्रयुक्तम्	-10.7039
▁स्तोत	-10.704
१६	-10.7043
▁निराश	-10.7043
▁चैत	-10.7044
▁देवतानां	-10.7058
▁अपवाद	-10.7061
▁भवत्येव	-10.7071
▁Vi	-10.7072
▁०५	-10.7072
▁लीला	-10.7073
▁प्रान्त	-10.7077
▁जगन्	-10.7084
▁त्रैलोक्य	-10.7087
▁विदुष	-10.7087
▁व्यपदेश	-10.7092
चिर	-10.7092
▁द्वै	-10.7093
▁भण	-10.7094
▁सखी	-10.7116
▁कॊ	-10.7121
▁तस्यापि	-10.7122
▁सञ्ज्ञा	-10.7126
▁निरीक्षण	-10.7127
▁ीकृत	-10.713
▁पृच्छति	-10.7131
▁इंद्र	-10.7132
▁भगिनी	-10.7133
द्रु	-10.7135
▁धान	-10.7136
ड्ड	-10.7136
▁पुना	-10.7141
▁ईशान	-10.7145
▁तन्व	-10.7148
▁55	-10.715
▁us	-10.7152
हृत्य	-10.716
▁संन्यास	-10.7166
▁पक्व	-10.7168
▁्यन्ते	-10.7169
ाञ्जलि	-10.7172
▁होता	-10.7178
▁विराम	-10.718
▁कर्मण्य	-10.7187
न्वितः	-10.7193
$	-10.7194
▁आसान	-10.7198
▁७९	-10.7207
▁सन्तुष्ट	-10.7208
▁ितवान्	-10.7213
▁दुख	-10.7215
▁तेभ्यः	-10.7215
पीएस	-10.7215
▁हिमालय	-10.7216
ध्ययन	-10.7217
▁शताब्द	-10.7219
▁प्रयोगशाला	-10.7219
▁ब्रह्माण्ड	-10.722
▁स्फोट	-10.7223
▁जीवनस्य	-10.7225
दुप	-10.723
▁दत्वा	-10.7231
▁वहति	-10.7233
▁उच्चारण	-10.7235
▁दुष्कृत	-10.7236
▁ोदक	-10.7239
▁कोष्ठ	-10.7243
▁लग	-10.7244
▁शक्	-10.7246
▁न्यायेन	-10.7247
▁तदीय	-10.7251
▁रीति	-10.7253
▁वक्ता	-10.7259
▁समन्ततः	-10.726
▁प्रशंसा	-10.726
▁भासते	-10.7261
▁क्षुद्र	-10.7264
▁पर्यटन	-10.7265
▁भवतीत्य	-10.7267
▁आपण	-10.7268
पुराण	-10.727
▁विषयक	-10.7271
▁गुड	-10.7273
▁जुइगु	-10.7278
▁समरे	-10.728
▁ात्मना	-10.7281
▁श्रद्धया	-10.7282
▁करुण	-10.7285
▁ीया	-10.7302
▁गुजरात	-10.7303
▁योजित	-10.7305
▁सज्जन	-10.7305
▁संज्ञक	-10.7308
▁संस्थाप्य	-10.7312
▁मात्म	-10.7314
▁दिक्षु	-10.7315
▁त्वमिति	-10.7319
▁आपो	-10.7319
▁जायमान	-10.7325
▁पुं॰	-10.7325
▁यत्नेन	-10.7333
ग्रतः	-10.7335
▁तत्पुरुष	-10.7336
▁ऋग्वेद	-10.7346
▁हित्वा	-10.7347
▁शङ्कर	-10.7348
ष्यसि	-10.7349
▁वयसि	-10.7352
▁th	-10.7356
▁मन्यसे	-10.7361
▁प्रणाम	-10.7361
विवेश	-10.7362
▁प्रतिपादय	-10.7363
▁रक्षिता	-10.7366
▁ब्रिट	-10.7368
प्रयोग	-10.7369
▁शै	-10.7371
▁तायाः	-10.7371
ल्लोक	-10.7372
नोति	-10.7375
चरण	-10.7376
▁९७	-10.7377
▁अहोरात्र	-10.7378
▁एल	-10.7384
▁परिग्रह	-10.7385
▁सर्वात्म	-10.7389
▁सौन्दर्य	-10.739
▁वक्ष्ये	-10.7392
▁ानन्द	-10.7394
▁ाकाश	-10.74
▁त्रिषु	-10.7403
▁संहिताया	-10.7408
▁अभिमान	-10.7408
▁यशस	-10.741
ीकृत्य	-10.7413
▁46	-10.7414
▁दिनाङ्क	-10.7421
▁मैत्री	-10.7429
▁प्राथमिक	-10.7434
▁सुग्रीव	-10.7434
▁The	-10.7434
▁नियन्त्रण	-10.7434
▁स्कूल	-10.7435
▁पौरुष	-10.7436
▁न्ती	-10.744
▁11.	-10.7441
▁हान	-10.7452
▁मुद्रण	-10.7454
▁कृतज्ञ	-10.7458
▁न्याय्य	-10.7458
▁विध्य	-10.7459
▁ह्रद	-10.7459
▁७२	-10.746
▁गुलि	-10.7462
▁विश्वरूप	-10.7467
▁ऽयम	-10.7475
ापयति	-10.7476
▁To	-10.7476
▁धृति	-10.7478
▁प्राप्नुवन्ति	-10.7479
▁अस्मभ्य	-10.7479
▁कृतानि	-10.7479
▁2015	-10.748
▁विकल	-10.7482
▁केनचित्	-10.7486
संहार	-10.7488
▁ऋच	-10.7492
▁लङ्घ	-10.7492
▁विद्यार्थि	-10.7493
मित्र	-10.7494
▁मुच्य	-10.7501
▁२०६	-10.7511
▁स्निग्ध	-10.7523
▁चूर्ण	-10.7523
▁वैष्णव	-10.7524
▁८९	-10.7525
विज्ञान	-10.7527
ात्मनः	-10.7528
▁राति	-10.7529
▁आवां	-10.753
ुच्य	-10.7535
▁प्रताप	-10.7537
▁ाणाम	-10.7539
▁कृपण	-10.754
▁तस्मिन्न	-10.7549
▁र्ह	-10.7557
▁निर्गुण	-10.7561
▁न्ध	-10.7567
▁रिपोर्ट	-10.7568
▁ाङ्क	-10.7568
▁वल्लभ	-10.7568
▁समागम	-10.7568
▁ह्य्	-10.7569
▁चतुर्विध	-10.7574
▁१९२	-10.7578
▁भारतवर्ष	-10.7582
▁श्रृ	-10.7589
▁भवितुं	-10.7592
~	-10.7592
ोत्सव	-10.7594
▁९१	-10.7595
▁शीर्षक	-10.7596
▁असत्य	-10.7601
▁विस्मृत	-10.7613
▁प्रसज्य	-10.7613
▁८८	-10.7613
▁महत्त्वपूर्ण	-10.7613
▁फिल्म	-10.7615
▁नश्यति	-10.7615
▁पुस्तकालय	-10.7616
▁समारोह	-10.7622
▁----	-10.7623
▁पूजयेत्	-10.7624
▁िनी	-10.7626
▁अद्यतन	-10.7627
▁आनय	-10.7628
ोऽत्र	-10.7632
▁ब्ल	-10.7632
प्रवक्ष्यामि	-10.7637
▁संप्राप्त	-10.7638
▁बना	-10.7639
भिमत	-10.7641
▁यथेष्ट	-10.7658
▁दुह	-10.7658
▁सौख्य	-10.7661
भ्युपगम	-10.7662
क्रोश	-10.7663
▁व्र	-10.7666
▁आयुष	-10.7666
▁प्रतिपाद्य	-10.767
▁गहन	-10.7671
▁व्याज	-10.7674
उच्चारण	-10.7683
▁चेष्टा	-10.7684
15	-10.7684
▁वर्त्तते	-10.7685
▁sa	-10.7685
br	-10.7689
न्तर्गत	-10.7691
▁एशिया	-10.7701
▁शुष्क	-10.7703
▁पप्रच्छ	-10.7703
▁आग्नेय	-10.7704
▁08	-10.7706
▁व्यञ्जन	-10.7708
▁वेला	-10.771
▁सर्वकर्म	-10.771
▁कार्यकारण	-10.7712
▁विहार	-10.7722
▁परमात्म	-10.7722
▁क्रियापद	-10.7727
▁क्षणात्	-10.7739
ायुष	-10.7741
▁प्रतीक	-10.7743
▁तीक्ष्ण	-10.7748
▁शुभाशुभ	-10.7748
▁परिकीर्तित	-10.7748
▁यजु	-10.7749
▁प्रदर्शित	-10.7749
निमित्त	-10.7749
▁पतन	-10.7755
▁पाट	-10.7758
▁चन्द्रमा	-10.7758
▁राजपुत्र	-10.7759
▁़	-10.776
▁व्याध	-10.7763
▁मोच	-10.7764
▁यावन्	-10.7764
▁en	-10.7765
▁यदुक्त	-10.7766
चक्र	-10.7767
▁असत	-10.777
▁जाग्रत	-10.7772
▁मनस	-10.7772
▁समाहित	-10.7772
▁उद्देश्य	-10.7772
▁करने	-10.7774
▁कषाय	-10.7776
र्म्म	-10.778
▁कीर्तित	-10.7781
िष्णु	-10.7783
ment	-10.7792
मिष	-10.7793
▁VERSE	-10.7794
▁00:	-10.7794
▁समृद्धि	-10.7796
▁चैतन्य	-10.7798
▁विलोक्य	-10.78
▁त्रिधा	-10.7804
▁लेप	-10.7805
est	-10.7808
▁सेवित	-10.782
ार्जन	-10.7821
▁se	-10.7828
▁सूच्य	-10.7834
ST	-10.7838
▁नपुंसक	-10.7839
▁अम्ब	-10.7848
▁कृतवन्तः	-10.7852
▁द्वैत	-10.7855
सम्पादन	-10.7867
▁vi	-10.7869
ya	-10.787
▁सविता	-10.7872
▁le	-10.7886
▁अधिसूचना	-10.7886
▁उल्लेख	-10.7886
▁सांस्कृतिक	-10.7886
▁पुष्कर	-10.7886
▁ीत्यर्थः	-10.7886
क्राम	-10.7886
▁गुणान्	-10.7889
▁यज्	-10.789
▁पुस्तकानि	-10.7892
स्तथैव	-10.7899
▁भ्रात	-10.7901
दृक्	-10.7907
केश	-10.7908
▁कलश	-10.7912
ct	-10.7915
अपि	-10.7915
▁संहत	-10.7916
▁वृक्षाः	-10.792
▁७८	-10.7921
▁कोड	-10.7923
▁बार	-10.7926
नन्तरं	-10.7928
ऩ	-10.7932
▁शैक्षिक	-10.7932
▁अवशिष्ट	-10.7932
▁सातवां	-10.7932
साहस्र	-10.7933
▁वध्य	-10.7934
▁विसर्ग	-10.7938
▁ानन्तर	-10.794
▁भान	-10.794
▁आपद	-10.7942
कम्प	-10.7945
▁सहस्रशः	-10.7946
ृषि	-10.7947
वेक्ष्य	-10.7949
▁प्रमाणेन	-10.7949
ादित्य	-10.795
▁अर्च	-10.7954
▁वत्सर	-10.7956
▁व्यस्त	-10.7961
ाइन	-10.7964
▁विदध	-10.7965
▁तिष्ठन्ति	-10.797
▁क्रीत	-10.7973
▁वक्ष्यति	-10.7979
▁होवाच	-10.7982
▁द्यूत	-10.7983
▁ेष्वपि	-10.7991
▁आशिष	-10.7993
▁स्फु	-10.7996
सप्त	-10.7998
▁ध्वंस	-10.8005
प्सु	-10.8006
▁यन्तु	-10.8018
▁जीवन्मुक्त	-10.8025
▁रिश्ते	-10.8025
▁वासुदेव	-10.8026
▁ाभ्याम्	-10.8028
▁परमाण	-10.8028
ard	-10.8043
▁ग्रस्त	-10.8052
ियन	-10.8053
तर्हि	-10.8055
कुर्वन्	-10.8056
▁जह	-10.8062
▁वासना	-10.8063
▁जनित	-10.8069
▁प्रदीप	-10.8072
▁ब्रुव	-10.8072
▁अप्रैल	-10.8072
▁शूद्र	-10.8072
▁प्रोवाच	-10.8074
▁दारुण	-10.808
▁भानु	-10.8083
▁णीय	-10.8091
▁अनुभूत	-10.8091
ह्म	-10.8092
▁निखिल	-10.8106
यिष्यामि	-10.811
▁तच्	-10.8112
▁श्रुत्य	-10.8115
▁परीणाम	-10.812
▁नेवाःतय्	-10.812
ाचार्य	-10.812
नुसन्धान	-10.812
▁मयी	-10.812
▁स्कन्द	-10.8124
▁७३	-10.8128
▁योज्य	-10.813
▁उदक	-10.8144
art	-10.8146
▁धिकरण	-10.8146
▁यॊग	-10.8147
▁दद्या	-10.815
▁Previous	-10.8167
▁पाकिस्थान	-10.8167
▁धीमतः	-10.8167
▁वादन	-10.8171
▁यादृश	-10.8178
ेरन्	-10.8185
▁अभूत्	-10.8188
ागत्य	-10.819
▁त्मक	-10.8192
▁ार्य	-10.8195
▁नौका	-10.8199
▁वायुर्	-10.82
▁सार्द्ध	-10.821
▁तथाहि	-10.8216
▁निर्विकल्प	-10.8217
▁८७	-10.8218
▁कुण्ड	-10.8219
हङ्कार	-10.822
▁यामास	-10.8224
▁स्थावर	-10.8225
▁नायं	-10.8228
▁धिया	-10.8236
▁SP	-10.8237
▁गन्तु	-10.8241
▁सहयोग	-10.8243
पत्तौ	-10.8248
▁७७	-10.8253
▁युध	-10.8253
▁एकत्र	-10.8255
▁क्षणिक	-10.8255
▁आसपास	-10.8262
▁व्यूह	-10.8263
▁सुषुप्त	-10.8263
▁तदानीं	-10.8266
▁लज्ज	-10.8269
▁भोज्य	-10.827
▁वियोग	-10.8271
समास	-10.8271
मेतत्	-10.8274
▁शपथ	-10.8278
▁᳚	-10.8279
▁कुपित	-10.8281
▁पितॄ	-10.8282
▁आख्या	-10.8283
ञ्छ	-10.8287
▁हरित	-10.8293
▁९९	-10.8295
▁प्रस्थित	-10.8295
▁स्वजन	-10.8296
▁केचिद्	-10.8296
▁द्व्य	-10.8299
भुज	-10.8302
▁सम्मत	-10.8305
▁चिकीर्ष	-10.831
▁अनिवार्य	-10.8311
log	-10.8311
▁भविष्यामि	-10.8312
qu	-10.8312
▁महात्मनः	-10.8314
▁सखे	-10.8314
▁यतीति	-10.8314
वाचक	-10.8318
▁पा०	-10.8319
▁पालक	-10.8319
▁हविः	-10.832
▁बुद्धिर्	-10.8323
ग्राम	-10.8326
▁प्रतीय	-10.8327
▁ऊँ	-10.8339
▁९८	-10.8342
▁and	-10.8345
▁र्द्ध	-10.8349
च्यन्ते	-10.8349
▁80	-10.835
▁सर्वेषाम	-10.8351
▁ुद्	-10.8355
ाचरेत्	-10.8358
दृश्य	-10.8359
old	-10.8359
▁स्त्रियो	-10.8365
▁तेभ्यो	-10.8366
▁भवेत	-10.8366
▁प्रेषय	-10.8369
▁उदात्त	-10.8369
▁तृप्ति	-10.8375
▁कीट	-10.8375
▁टिप्पणी	-10.8376
▁प्रियतम	-10.8379
▁भिधान	-10.8385
▁०२०	-10.8388
स्थापन	-10.8405
ोऽप्य	-10.8409
▁पार्व	-10.8415
one	-10.8417
▁उभयोः	-10.8418
▁अनुमति	-10.8424
▁सम्मुख	-10.8425
▁०९	-10.8425
ुत्पन्न	-10.8427
▁स्तद्	-10.8432
स्पर्श	-10.844
ांतर	-10.8441
ti	-10.8451
▁2014	-10.8456
▁तर्पण	-10.8456
▁अन्तर्जाल	-10.8457
ग्नौ	-10.8459
सेना	-10.8461
ांश्च	-10.8466
▁मनोहर	-10.847
ावश्यक	-10.847
▁रक्षक	-10.8471
▁रोष	-10.8478
▁यदिदं	-10.848
▁as	-10.8481
▁पृथग	-10.8481
▁बाधित	-10.8481
▁ल्ल	-10.8483
▁६३	-10.8483
प्ल	-10.8484
▁59	-10.8484
▁द्वाव	-10.8485
▁द्वा	-10.8487
▁रजत	-10.8487
▁आईपी	-10.8487
शुद्ध	-10.8487
▁मलिन	-10.8491
सर्प	-10.8491
हीन	-10.8497
▁त्वाच्च	-10.85
ight	-10.8505
▁कर्मचारी	-10.8506
▁जागृ	-10.8508
ey	-10.8509
▁धर्मज्ञ	-10.852
▁प्रसक्त	-10.8521
▁भै	-10.8521
▁मीश्वर	-10.8523
▁योगदानानि	-10.8525
▁रूपिण	-10.8536
▁अन्योन्य	-10.8538
▁कृश	-10.8542
धिकृत	-10.8542
▁उपकार	-10.8551
▁गोविन्द	-10.8554
काश्मीर	-10.8555
ुदाहृत	-10.8556
▁वणिज	-10.8556
ब्द	-10.856
▁co	-10.8562
▁समिध	-10.8563
▁संवृत	-10.8567
▁जगती	-10.857
▁पोषण	-10.8572
▁यद्यप्य	-10.8573
▁दुष्कर	-10.8576
▁स्तद	-10.858
▁अन्ततः	-10.858
▁no	-10.8586
▁वेगेन	-10.859
▁शकुन	-10.8592
▁प्रायेण	-10.8594
▁बन्द	-10.8599
▁उग्र	-10.8602
▁योजनानां	-10.8602
▁रयि	-10.8604
ʼ	-10.8604
̇	-10.8604
▁Nepal	-10.8604
▁अकथयत्	-10.8604
▁जुहोति	-10.8604
▁मुस्लिम	-10.8604
▁शय्या	-10.8604
▁द्रुम	-10.8609
पेक्षते	-10.8612
▁महाबाह	-10.8613
▁दयेक	-10.8621
▁ेन्द्रिय	-10.8624
धिकरण	-10.863
▁ोपयोग	-10.863
▁मौल	-10.8638
द्रव	-10.8642
▁किरण	-10.8645
यज्ञ	-10.8647
▁तारक	-10.8653
▁ज्याझ्वः	-10.8654
▁कौतुक	-10.8654
▁वृष्ट	-10.8656
▁संकेत	-10.8663
▁पठेत्	-10.8678
मेर	-10.8679
▁उक्त्वा	-10.868
वंश	-10.8685
▁संपन्न	-10.8685
▁do	-10.8686
स्मिन्नेव	-10.8689
▁तेऽपि	-10.8692
ect	-10.8692
▁जारी	-10.8697
ँय्	-10.8704
▁भ्रष्टाचार	-10.8704
▁मीमांस	-10.8704
▁रसोई	-10.8704
▁कुसुम	-10.8705
▁भ्यास	-10.8721
वाणी	-10.8724
▁जाया	-10.8732
▁पतति	-10.8733
X	-10.8739
धिकृत्य	-10.874
▁आशय	-10.8745
▁दुर्घटना	-10.8754
▁शैक्षणिक	-10.8754
▁अहिंसा	-10.8754
मुद्	-10.8754
▁प्रविशति	-10.8755
▁ैरपि	-10.8757
▁प्रायशः	-10.8759
▁िह	-10.876
▁लभेत्	-10.8762
▁कस्मै	-10.8766
▁अंत	-10.8766
▁यतस्त	-10.8768
▁प्रयात	-10.8775
▁भग्न	-10.8782
▁प्रकाशते	-10.8789
ब्रह्म	-10.879
▁इहैव	-10.8797
▁मैत्र	-10.8803
▁आश्रम	-10.8805
ग्निहोत्र	-10.8805
▁सन्तोष	-10.8805
▁सङ्ख्य	-10.8806
▁लोकेषु	-10.8807
इन्द्र	-10.8813
▁स्पर्ध	-10.8816
▁पृष्ठाना	-10.8818
▁मस्तक	-10.8819
▁आहुः	-10.8827
▁प्रेरय	-10.8828
▁पुष्य	-10.8828
▁इत्याख्य	-10.8829
▁मात्मन	-10.8833
ैतद्	-10.8837
▁सूचि	-10.8838
▁वर्षसहस्र	-10.8839
▁सन्तान	-10.8842
▁अपने	-10.8847
▁प्यार	-10.8847
ोन्नत	-10.8847
फ्र	-10.885
▁ाध्याय	-10.885
▁संवेदन	-10.8851
\	-10.8855
▁गम्भीर	-10.8855
▁ग्रामीण	-10.8856
▁निपुण	-10.8856
▁सुरक्षित	-10.8856
▁पवमान	-10.8856
▁हविर्	-10.8856
ation	-10.8857
▁सम्बन्धित	-10.8867
▁स्वेद	-10.8868
▁एवंविध	-10.887
▁नास्तीति	-10.8873
▁गणेश	-10.8874
▁नेपाली	-10.8877
▁पातक	-10.888
▁पूरित	-10.8885
द्भिः	-10.8886
यन्त्र	-10.8888
▁द्विजाः	-10.8897
▁कक्ष्या	-10.8901
▁द्वाभ्या	-10.8903
▁महद्	-10.8905
▁विषयत्व	-10.8905
▁बहुव्रीहि	-10.8906
▁विभाति	-10.8907
▁(3)	-10.8908
▁गृहपृष्ठ	-10.8911
▁बाधक	-10.8912
▁स्वदेश	-10.8912
▁वक्ष्यते	-10.8915
▁कर्त्तु	-10.8915
▁पितुर्	-10.8916
▁सङ्गत	-10.8917
▁ादीन्	-10.8923
▁धन्व	-10.8928
समये	-10.8941
▁कृप	-10.895
▁इत्याद्य	-10.8955
▁ताम्र	-10.8957
▁राहु	-10.8957
Z	-10.8957
▁ोदाहरण	-10.8957
▁उदाहृत	-10.8957
▁रुग्ण	-10.8958
▁शत्रूणां	-10.8958
▁प्रचलति	-10.8958
▁भागवत	-10.8959
▁मादाय	-10.8961
र्ज्ज	-10.8963
दिशेत्	-10.8966
17	-10.8967
▁यादव	-10.8968
▁तॆ	-10.8972
▁पर्य्य	-10.8974
▁z	-10.8977
▁मनू	-10.8978
▁सिन्धु	-10.8985
▁अदृश्य	-10.9
▁विषाद	-10.9003
▁एकादशी	-10.9009
▁मित्याह	-10.9009
▁विश्राम	-10.9009
▁देख	-10.9012
▁मिष्ट	-10.9014
▁यस्त्व	-10.9015
▁क्षुधा	-10.9018
▁प्रेत्य	-10.9022
▁इड	-10.9022
▁प्रदर्शय	-10.9022
▁अरुण	-10.9025
▁कृष्य	-10.9027
▁वासिन	-10.9029
▁it	-10.9032
▁स्माकं	-10.9034
▁छन्दसि	-10.9035
▁43	-10.9037
ण्ठ	-10.9046
वर्धन	-10.9047
▁लिपि	-10.9055
▁पानीय	-10.9057
▁तूष्णी	-10.9061
▁शानदार	-10.9061
▁अमर	-10.9062
▁एकाकी	-10.9071
▁सपत्न	-10.9074
▁भविष्यतीति	-10.9075
▁दयित	-10.9076
▁ददामि	-10.9077
▁प्रथित	-10.908
▁ानुसारेण	-10.908
▁जगतां	-10.9083
ञ्जल	-10.9084
▁गोपाल	-10.9085
न्नपि	-10.9085
▁नामधेय	-10.9088
▁कदाचिद	-10.9089
▁मेलन	-10.9095
▁केन्द्रीय	-10.9097
▁गूढ	-10.9107
cd	-10.911
▁अनन्य	-10.9112
▁Online	-10.9113
▁कालिदास	-10.9113
▁तस्वीर	-10.9113
ine	-10.9114
▁भीष्म	-10.9116
▁८५	-10.9119
▁शतानि	-10.9119
▁मानवाः	-10.9119
ies	-10.9122
▁भौम	-10.9125
▁आरभ	-10.9128
▁विद्यन्ते	-10.913
▁वृत्र	-10.9132
▁सम्भाषणम्	-10.9133
▁तावन्	-10.9134
▁िष्यते	-10.9134
▁ma	-10.9139
ाइट	-10.9143
▁ाध्ययन	-10.9143
▁हिंसाया	-10.9145
पेक्ष्य	-10.9146
▁समर्पय	-10.915
▁भयात्	-10.9152
फलकम्ः	-10.9153
▁नद्यः	-10.9158
▁पृथु	-10.9158
भाष्यम्	-10.916
▁अयि	-10.9161
▁वीज	-10.9162
▁ितुम्	-10.9162
▁ऐश्वर्य	-10.9165
▁माहात्म्य	-10.9165
▁संयुगे	-10.9166
ित्याह	-10.9167
▁बर्हि	-10.917
▁१९१	-10.9174
▁बलवान्	-10.9182
▁एकदेश	-10.9184
▁पूर्वपद	-10.9187
▁वासव	-10.92
▁व्युत्	-10.9201
▁पृथिव्य	-10.9204
▁मेदि०	-10.9218
प्ट	-10.922
▁मेरो	-10.9221
▁अपेक्षित	-10.9221
▁हत्या	-10.9225
▁स्थानेषु	-10.9227
▁दूरस्थ	-10.9229
▁विधानतः	-10.923
ेनापि	-10.9233
▁अक्षय	-10.9241
▁सद्यो	-10.9244
▁कृत्व	-10.9254
▁भवेन्	-10.9256
▁प्रापय	-10.9261
▁मुदित	-10.9262
▁भिश्च	-10.9267
▁असुर	-10.9267
▁शक्नोमि	-10.9271
▁सम्पाद्यताम्	-10.9271
▁कनिष्ठ	-10.9272
▁प्रेरित	-10.9272
▁द्विजोत्तम	-10.9273
▁ोऽभवत्	-10.9274
▁पुरुषार्थ	-10.9275
्छिन्न	-10.9278
▁गद्य	-10.9285
▁ग्रहणेन	-10.9286
▁त्विति	-10.9292
स्ट्र	-10.9292
▁तयोर	-10.9295
▁अनुकूलन	-10.9299
▁शोभते	-10.9309
▁स्थायि	-10.931
▁लिसे	-10.9311
▁ra	-10.9316
▁धुर	-10.932
ैतद	-10.9322
▁खड्ग	-10.9324
-2-	-10.9325
▁लङ्	-10.9326
▁९३	-10.9326
▁सूचक	-10.9327
▁यद्येवं	-10.9328
▁सतत	-10.933
▁विस्मित	-10.9333
▁समर्थित	-10.9333
▁युञ्ज	-10.9341
ge	-10.9343
एव	-10.9346
▁घनत्व	-10.9346
▁राजस्थान	-10.935
▁आभार	-10.9355
▁बाधते	-10.9356
▁खर्च	-10.936
▁चेतसा	-10.9361
▁तृप्त	-10.9368
कूगु	-10.9372
▁प्रयाति	-10.938
▁दूरतः	-10.9384
▁04	-10.9386
ास्पद	-10.9389
▁विराज	-10.939
▁सत्वर	-10.9397
▁सम्भाषण	-10.9399
▁वर्षीय	-10.94
▁अस्मात्	-10.9417
मात्रेण	-10.9418
लम्भ	-10.9421
▁मुक्त्वा	-10.9424
▁बुधैः	-10.9426
वश्यं	-10.9427
▁मुद्र	-10.9431
▁महाविद्यालय	-10.9431
▁त्रुटि	-10.9431
▁दधाति	-10.9431
▁प्रचलित	-10.9432
▁भोक्ता	-10.9434
▁ब्रूमः	-10.9434
▁गुरू	-10.9439
ुदात्त	-10.944
▁निष्पन्न	-10.9442
▁तापमान	-10.9447
▁प्रतिष्ठ	-10.9447
▁स्नातक	-10.9448
▁नुसार	-10.945
▁वस्था	-10.9455
▁वृत्तान्त	-10.946
▁ान्तर्गत	-10.9461
▁पत्रकार	-10.9465
ान्तिक	-10.9468
▁आज्ञा	-10.9468
▁किञ्चिद्	-10.9472
▁आवृत्ति	-10.9474
Y	-10.9474
▁वस्तुनि	-10.9475
▁विरुध्य	-10.9486
▁शृणोति	-10.9486
▁निवर्त्यताम्	-10.9486
▁तुलसी	-10.9486
▁महादेव	-10.9486
तत्त्व	-10.9489
▁मयूर	-10.949
▁समुचित	-10.9492
▁भूतकाल	-10.9497
▁चलन	-10.9498
▁विनश्यति	-10.9501
▁भवितुम्	-10.9505
▁०७	-10.9506
▁कनक	-10.9507
▁ज्ञातु	-10.9509
▁कर्मसु	-10.9513
ord	-10.9522
▁51	-10.9534
▁मर्यादा	-10.954
▁भिप्राय	-10.954
निर्माण	-10.954
▁जानीम	-10.9541
▁प्रवर्तक	-10.9542
▁चरित्र	-10.9543
▁गर्ज	-10.9545
▁पोर्न	-10.9546
▁क्राम	-10.9549
▁ीकृत्य	-10.9549
▁वराह	-10.9556
▁ग्व	-10.9558
▁कालिक	-10.9562
वर्षसहस्राणि	-10.9564
▁गाथा	-10.9565
▁सम्पद्यते	-10.9567
▁53	-10.9571
ly	-10.9572
▁विदुर	-10.9572
▁कंस	-10.9574
▁श्रद्ध	-10.9576
▁अदृष्ट	-10.9581
▁अन्वय	-10.9585
▁निदान	-10.9592
▁सार्वधातुक	-10.9594
▁श्रीकृष्ण	-10.9594
▁माश्रित्य	-10.9594
▁सम्पादक	-10.9595
▁रण्य	-10.9596
▁सिद्ध्यति	-10.9596
▁कृच्छ्र	-10.9596
▁चत्वारि	-10.9597
▁विद्वान	-10.9597
▁क्षोभ	-10.9597
▁सिंहासन	-10.9599
▁एतावत	-10.9599
▁निष्फल	-10.9601
▁प्रातःकाले	-10.9602
पवाद	-10.9602
▁मन्त्रालय	-10.9603
▁सुखद	-10.9608
▁निरपेक्ष	-10.9608
▁ानामपि	-10.9609
▁नितरा	-10.961
▁रुपए	-10.961
▁बंध	-10.9611
▁ैन	-10.9624
▁तथागत	-10.9633
▁नमस्ते	-10.9637
▁2013	-10.9649
▁मुत्तमम्	-10.9649
▁धावति	-10.9652
▁महोत्सव	-10.9653
▁नित्यत्व	-10.9655
▁डॉ	-10.9661
▁ऽधिक	-10.9663
▁देशान्तर	-10.9666
▁स्युर्	-10.967
▁जैन	-10.968
▁प्रीत्या	-10.9682
▁विराट	-10.9694
▁मित्यादि	-10.97
▁जानन्	-10.9704
▁ऐतिहासिक	-10.9704
▁क्षत्रिय	-10.9705
▁रञ्ज	-10.9705
▁रश्मि	-10.9706
▁निवेद्य	-10.9708
▁मनसो	-10.9709
▁प्रत्युवाच	-10.971
▁अनेकानि	-10.971
▁विनिमय	-10.9711
▁बहुषु	-10.9715
▁भवेयुः	-10.9716
▁बहून्	-10.9719
▁my	-10.972
▁°	-10.972
▁फलित	-10.972
▁जातीय	-10.9721
▁निर्गम	-10.9721
▁भजते	-10.9734
▁कृष्ट	-10.9734
साध्य	-10.9738
जाल	-10.974
▁कदाचिद्	-10.974
▁रुद्ध	-10.9745
स्वरूप	-10.9745
▁जानत	-10.9745
▁परिवर्तित	-10.9747
विंशति	-10.9748
मोक्ष	-10.9748
▁त्वेऽपि	-10.9755
▁PDF	-10.976
▁मनोरञ्जन	-10.976
▁समीचीन	-10.976
▁पार्टी	-10.976
▁जम्मू	-10.976
▁ैस्तु	-10.976
▁विनिर्	-10.9761
▁कृतकृत्य	-10.9761
▁प्रवर्तन	-10.9762
▁Ans	-10.9764
▁रिक्ति	-10.9765
▁कस्मान्न	-10.9765
▁05	-10.9766
▁रोज	-10.9767
▁जन्मदिन	-10.9773
▁व्रण	-10.9777
▁निषेव	-10.9778
कारान्त	-10.9779
▁ऽभ्य	-10.9783
▁ययुः	-10.9783
▁ात्मनः	-10.9803
▁सर्वशः	-10.9818
▁यूयम	-10.9819
▁थुकि	-10.9819
▁येषाम	-10.9821
जातीय	-10.9824
▁कर्तार	-10.9826
▁उच्चतम	-10.983
▁छात्राणां	-10.9838
▁पद्धत	-10.9844
▁स्वाध्याय	-10.9856
ेन्स	-10.9857
▁निधाय	-10.9857
▁योगिना	-10.9871
▁देय्	-10.9871
▁न्यायाधीश	-10.9872
▁ातिशय	-10.9873
ोदात्त	-10.9874
▁Live	-10.9875
▁प्रेषण	-10.9875
▁२०१५	-10.9877
▁वर्गीकरण	-10.988
▁रक्षतु	-10.9886
▁कामये	-10.9886
▁उपाधि	-10.9889
▁लोकसभा	-10.989
▁०८	-10.9892
▁ासीत्	-10.9895
▁छेँ	-10.9895
▁तैर	-10.9916
▁कथयन्ति	-10.9922
▁पाच	-10.9925
▁शोधन	-10.9927
श्छ	-10.9928
▁राजनैतिक	-10.9929
▁श्लाघ	-10.9929
▁कर्णाटक	-10.9929
▁वैराग्य	-10.9929
▁लाघव	-10.9929
▁युधि	-10.993
▁तत्कथ	-10.9933
घोष	-10.9934
▁पुंसां	-10.994
▁किमिति	-10.9945
▁भरण	-10.9949
▁दृष	-10.9953
▁साक्ष्य	-10.9959
▁पूर्वपक्ष	-10.9959
▁तत्तत्	-10.996
▁प्रयोक्तव्य	-10.9961
▁एफ	-10.9964
ान्वित	-10.9971
▁ऽग्नि	-10.9977
▁हास	-10.9978
▁भुङ्क्ते	-10.9985
▁ऋत्वि	-10.9986
▁चतुर्विंश	-10.9988
▁विनष्ट	-10.9989
▁विशिष्यते	-10.999
▁कर्त्ता	-10.9991
▁निष्कास	-10.9994
▁हिन्दू	-10.9996
▁तद्भव	-11
▁तथेति	-11.0004
▁शहर	-11.0004
श्रव	-11.0007
▁दीर्घकाल	-11.0007
▁देवेभ्य	-11.0007
वासिनः	-11.0014
साव	-11.0015
▁९६	-11.0025
▁वचस	-11.003
▁ावयव	-11.0034
रुत्वा	-11.0038
▁वार्तिक	-11.0043
▁दायित्व	-11.0043
▁निर्धारण	-11.005
▁तनू	-11.0055
ER	-11.0057
▁ation	-11.0062
▁स्ततो	-11.0067
हाँ	-11.0076
▁आगमन	-11.0078
▁शतश	-11.008
▁आदाय	-11.0088
▁वदेत्	-11.0095
lu	-11.0096
▁जहि	-11.0099
▁चुनाव	-11.01
▁सुभग	-11.0103
▁विपाक	-11.0105
वगम्यते	-11.011
▁दूषय	-11.011
▁पूज्यते	-11.0116
▁दायक	-11.0129
▁सुव्रत	-11.013
▁स्थातु	-11.0141
▁वामन	-11.0146
q	-11.0155
▁वायुना	-11.0157
▁चलचित्र	-11.0158
ity	-11.0161
▁वैश्य	-11.0165
▁IN	-11.0168
▁पाण	-11.0168
▁करिष्यसि	-11.017
▁क्रु	-11.0174
▁जात्य	-11.0176
▁निर्भय	-11.0178
▁90	-11.0181
▁हृद्य	-11.0184
▁हन्यते	-11.0185
▁57	-11.0187
द्रोह	-11.0188
▁अनुज्ञा	-11.019
▁धिक्	-11.0191
▁त्रयाणां	-11.0193
▁ाभ्यास	-11.0203
▁त्याज्य	-11.0203
▁कूल	-11.0206
▁जानु	-11.0212
चन्द्र	-11.0216
›	-11.0216
▁व्यावहारिक	-11.0216
मश्नुते	-11.0216
▁बृहस्पति	-11.0216
▁पाण्डु	-11.0217
▁आरोह	-11.0217
▁दर्प	-11.0219
▁ोत्पत्ति	-11.0221
▁सम्प्राप्त	-11.0224
▁यायेमाः	-11.023
▁विक्षेप	-11.0231
▁पठित्वा	-11.0232
▁दृश्यमान	-11.0233
▁लब्ध्वा	-11.0239
▁इच्छन्ति	-11.0241
▁मन्तव्य	-11.0247
▁विलास	-11.0255
ऽऽ	-11.0259
▁मन्यु	-11.0262
▁वर्चस	-11.0266
▁वधू	-11.0272
▁वयस	-11.0273
▁Xxx	-11.0274
▁गौतम	-11.0275
▁तृष्णा	-11.0275
▁असम्भव	-11.0275
▁ललाट	-11.0275
▁२०२०	-11.028
▁थुगु	-11.0287
▁कारणत्व	-11.0298
▁मिलित	-11.03
iz	-11.03
▁क्रियायाः	-11.0309
▁विधेयक	-11.0312
▁धनुष	-11.0312
▁द्वारेण	-11.0313
▁विचारणा	-11.0317
▁भूतले	-11.0318
▁पठ्यते	-11.0319
▁कुर्याद	-11.0321
▁अन्ताराष्ट्रिय	-11.0333
▁कस्मिंश्चि	-11.0333
▁समर्पण	-11.0333
▁टैग	-11.0334
▁परित्याग	-11.0334
▁लीन	-11.0335
▁निग्रह	-11.0342
▁बाद	-11.0348
▁इत्यस्मिन्	-11.035
ेषाम	-11.036
▁सूचयति	-11.0362
▁याम्य	-11.0369
ावेव	-11.0371
▁यिष्यामि	-11.0374
ह्र	-11.0374
▁दुरित	-11.0384
भविष्य	-11.0384
▁पङ्क्ति	-11.0387
▁कानन	-11.0389
ान्यपि	-11.0391
▁संबध्यते	-11.0392
▁तदुक्तं	-11.0394
▁सञ्जात	-11.0395
▁प्रशान्त	-11.0398
▁कर्म्मणि	-11.04
▁कौरव	-11.04
ुत्प	-11.0402
▁ाभिधान	-11.0405
▁भवद्भिः	-11.0406
▁वय्कःया	-11.0413
ाढ्य	-11.0423
▁घञ्	-11.0428
▁व्यावृत्त	-11.0431
va	-11.0435
▁९४	-11.0442
▁तदहं	-11.0451
▁पृष्ठभूमि	-11.0452
▁शौर्य	-11.0452
▁तामस	-11.0452
▁ज्ञापक	-11.0453
▁टेनिस	-11.0453
▁मंगल	-11.0455
िदानीं	-11.0457
▁इत्यादयः	-11.0459
▁पृ०	-11.0461
▁आज्य	-11.0462
▁जातवेद	-11.0462
▁व्यतीत	-11.0466
▁द्वित्व	-11.0466
▁शाब्द	-11.0468
▁शेते	-11.0469
▁==	-11.047
▁व्यु	-11.0475
▁चन्दन	-11.0476
ेन्दु	-11.0479
▁संभाव्य	-11.0485
▁54	-11.0486
▁अनर्थ	-11.0487
छु	-11.0492
^	-11.0507
▁परिवर्तते	-11.0508
▁An	-11.0513
न्यसेत्	-11.0529
▁भट्ट	-11.0529
▁दोह	-11.0538
▁दिनेश	-11.0541
▁दशलक्ष	-11.0557
▁सकृद	-11.0558
▁प्रौढ	-11.0561
ज्झ	-11.0563
▁अप्रत्यक्ष	-11.0572
▁जनसङ्ख्या	-11.0572
▁भिद्यते	-11.0572
▁अनुवर्तते	-11.0572
▁(4)	-11.0574
▁योर्मध्ये	-11.0575
▁For	-11.0576
▁लिङ्	-11.0578
▁निश्चल	-11.0579
ारब्ध	-11.0582
▁मध्यस्थ	-11.0584
▁सद्भाव	-11.0584
▁२००८	-11.0585
▁आगामि	-11.0586
▁स्वर्गलोक	-11.0592
▁वाञ्छित	-11.0598
▁भर्तु	-11.06
▁दृक्	-11.0606
▁वर्धित	-11.0606
ुत्थान	-11.0609
_1_	-11.061
▁प्रवृद्ध	-11.0614
होरात्र	-11.0618
▁जुष	-11.0619
▁सार्वजनिक	-11.0633
▁पिशाच	-11.0633
▁स्वायत्त	-11.0633
▁हजार	-11.0633
▁अविद्या	-11.0634
▁गौण	-11.0636
▁वपुः	-11.0638
▁लुप्त	-11.0644
▁सम्पत्	-11.0649
▁रम्भ	-11.0654
▁प्रसारण	-11.0661
▁युष्मान्	-11.0665
न्योन्य	-11.0666
▁दत्तवान्	-11.0674
▁रुज	-11.0677
▁दुरात्म	-11.0687
ट्ठ	-11.0688
▁यस्माद	-11.0689
▁परिशिष्ट	-11.0694
▁रुधिर	-11.0694
▁विद्यार्थी	-11.0694
▁करोड़	-11.0706
▁गन्धर्व	-11.0707
▁सू०	-11.071
▁९२	-11.0717
▁किमर्थ	-11.0723
▁ly	-11.0724
▁गच्छेत्	-11.0729
▁56	-11.073
▁अहमपि	-11.0733
ङ्ख	-11.0738
▁वर्तमानकाल	-11.074
मिच्छामि	-11.0752
▁उच्चैः	-11.0753
▁कोविड्	-11.0755
▁विसर्जन	-11.0755
▁विवस्व	-11.0756
▁दूषित	-11.0757
▁द्वेष्टि	-11.076
▁बजे	-11.0761
▁स्यान्न	-11.0762
▁स्वरित	-11.077
▁गमय	-11.0778
▁ब्द	-11.0781
30	-11.0782
▁कूर्म	-11.0786
▁बहुशः	-11.079
▁प्रतिभास	-11.079
▁कश्मीर	-11.0791
▁तापस	-11.0796
पुट	-11.0796
▁संक्रमण	-11.0798
▁52	-11.0801
▁पौत्र	-11.0804
ऽऽह	-11.0807
ॐ	-11.0813
▁खोजषब्द	-11.0817
▁चमत्कार	-11.0817
▁आङ्ग्लभाषाया	-11.0817
▁चक्षुर्	-11.0818
▁भयानक	-11.0818
▁धूप	-11.082
▁तसक	-11.0821
न्हु	-11.0822
तीर्थ	-11.0832
▁vs	-11.0842
▁विजित	-11.0847
▁वाजिन	-11.085
▁भ्व	-11.0851
▁पत्राणि	-11.0857
▁प्रमेय	-11.0863
▁भाजन	-11.0865
▁ऊचुः	-11.0879
▁प्रातर्	-11.0882
▁प्राणायाम	-11.0882
▁चैत्र	-11.0883
▁करोषि	-11.0886
▁स्यादित्य	-11.0887
▁ओज	-11.0887
▁04:	-11.0888
▁70	-11.0896
▁ेत्यादि	-11.0897
ययौ	-11.09
▁75	-11.0908
▁थाय्	-11.0909
▁वर्षाणा	-11.0923
ाभावात्	-11.0923
▁कारित	-11.0924
▁कृद्	-11.0934
कण्ठ	-11.0938
▁Sentence	-11.0941
▁चत्वारिंश	-11.0942
*}	-11.0944
▁तरङ्ग	-11.0952
▁महिष	-11.0955
▁जेतुं	-11.0957
▁शक्यन्ते	-11.0969
▁ोऽयम	-11.0975
▁ऽभवत्	-11.0981
▁मित्येव	-11.0984
▁लिपा	-11.0985
▁लिङ	-11.1
ऱ	-11.1004
▁pdf	-11.1004
▁उपलभ्यते	-11.1004
▁प्रशस्यते	-11.1004
▁मिथुन	-11.1004
▁सात्त्विक	-11.1004
▁सरस्वती	-11.1004
▁ग्रहाणां	-11.1004
▁विभज्य	-11.1004
▁वर्धमान	-11.1008
▁आयाति	-11.1016
▁महाराष्ट्र	-11.1016
▁थ्यं	-11.1018
िन्या	-11.102
▁वायव्य	-11.102
▁तुरीय	-11.1021
विधान	-11.1027
▁क्लीब	-11.1037
प्रकाश	-11.1038
▁पश्यन्तु	-11.1038
▁संमत	-11.1046
▁निविष्ट	-11.1051
▁हितार्थ	-11.1061
▁ादन्य	-11.1064
▁पुत्रपौत्र	-11.1068
▁पाठ्यक्रम	-11.1068
▁एतयो	-11.1068
▁सम्प्रदाय	-11.1068
▁शकट	-11.1072
▁ाभिमुख	-11.1076
▁कन्नड	-11.1086
▁58	-11.1098
▁चिकित्सक	-11.1099
▁कथमि	-11.1106
कीर्त	-11.1106
▁न्यस्त	-11.1108
▁करिष्यते	-11.1114
▁सर्वासु	-11.1117
▁निवारय	-11.112
▁आदर्श	-11.1128
▁औप	-11.113
▁शुश्रूष	-11.1131
ाकाङ्क्ष	-11.1131
▁ात्मने	-11.1134
▁तथोक्त	-11.1137
▁ोद्भव	-11.1139
-3-	-11.114
नर्थक	-11.1149
▁विराजते	-11.1152
▁गर्ने	-11.1157
▁च्छाया	-11.116
▁पराध	-11.1167
▁मलय	-11.1177
▁समीर	-11.1191
▁कैवल्य	-11.1195
▁दशरथ	-11.1196
▁विधानसभा	-11.1196
▁विरचित	-11.1196
व्याघ्र	-11.1196
हेतु	-11.1196
नुसृत्य	-11.1197
▁युग्म	-11.1197
▁एशियाई	-11.1198
▁अग्रिम	-11.1199
▁अनुदात्त	-11.1199
▁Ex	-11.12
▁कस्यचिद	-11.1202
▁न्हू	-11.1206
▁जलाशय	-11.1207
घाट	-11.1211
▁एतस्मात	-11.1216
वर्षाणि	-11.1227
ष्ठु	-11.1229
▁अमेरिकी	-11.123
▁he	-11.123
▁भवन्त्य	-11.1238
▁जागरण	-11.1244
▁हसन्	-11.1255
▁राजनीतिक	-11.1258
▁कथमपि	-11.1259
▁नवदिल्ली	-11.126
▁अगच्छत्	-11.126
▁किशोर	-11.126
▁नारीणां	-11.126
▁आरक्षक	-11.1261
ाधम	-11.1262
▁लुब्ध	-11.1263
▁नेपालभाषा	-11.1264
▁भूकम्प	-11.1264
▁ब्रवीमि	-11.1267
▁संघर्ष	-11.1268
▁इत्यस्माद	-11.1271
▁त्रास	-11.1272
▁शालिन	-11.1275
.01	-11.1275
ice	-11.129
▁वपुष	-11.1291
द्युम्न	-11.1297
जज्ञे	-11.1304
▁विकिसूक्तिः	-11.1325
▁प्रत्यभिज्ञा	-11.1325
▁विभूति	-11.1327
▁नरेन्द्र	-11.1331
▁सम्भाव्य	-11.1335
▁करोतीति	-11.1335
▁एतदर्थ	-11.1345
त्युक्तम्	-11.1368
▁कृतवती	-11.1371
▁कुप्य	-11.139
▁विस्तीर्ण	-11.139
▁प्रतिषिद्ध	-11.139
▁विभाजन	-11.139
▁हेतवः	-11.139
▁सङ्ग्राम	-11.1391
▁रामायण	-11.1392
▁करिष्याम	-11.1397
▁सहकारि	-11.1399
▁विस्मर	-11.1402
▁गृण	-11.141
क्रोध	-11.1421
▁धियो	-11.1421
▁सुश्रुत	-11.1422
▁65	-11.1426
▁रक्षसा	-11.1437
▁कर्मफल	-11.1443
▁सेट्	-11.1445
ोपदेश	-11.1446
▁All	-11.1456
▁असमर्थ	-11.1464
▁पूष	-11.1465
ज्ज्वल	-11.1467
▁हेतुत्व	-11.148
ज्वाल	-11.1485
▁यूथ	-11.1492
▁किंचिद्	-11.1499
▁समाप्य	-11.1512
▁उद्देश	-11.1513
मुवाच	-11.1522
᳘	-11.1522
▁विस्फोट	-11.1522
▁विश्रान्त	-11.1523
←	-11.1523
स्पृश	-11.1524
लिखित	-11.1527
▁कर्त्र	-11.1528
▁मिलित्वा	-11.1528
▁संगीत	-11.1528
▁स्त्रीलिङ्ग	-11.153
इपिं	-11.1532
▁प्रयाण	-11.1539
▁कीर्तय	-11.154
▁श्रावय	-11.1545
▁विद्म	-11.1545
ence	-11.155
▁बाध्यते	-11.1556
▁उपपद्यते	-11.1556
▁साधित	-11.1559
ञ्ञ	-11.1573
सत्त्व	-11.1581
▁वक्ष्यमाण	-11.1589
▁निशम्य	-11.1589
▁शारीर	-11.1589
▁विश्वामित्र	-11.159
▁धीमता	-11.159
▁षण	-11.1591
▁निबन्धन	-11.1591
तान्त्रिक	-11.1592
▁पार्वती	-11.1597
▁धिप	-11.16
▁पाताल	-11.1602
▁विदित्वा	-11.1605
▁निर्भर	-11.1615
▁१९०	-11.1621
▁समीक्ष्य	-11.1626
▁षत्व	-11.1631
▁ात्मज	-11.1637
▁भूगोल	-11.1656
▁यमुना	-11.1657
▁मातुल	-11.1658
▁प्रयोज्य	-11.1658
▁स्पन्द	-11.1664
▁महर्षि	-11.1664
▁भृगु	-11.167
ेऽस्मिन्	-11.167
▁वास्तविक	-11.1671
▁पुनरुक्त	-11.1673
▁कृतवान	-11.1678
▁लिए	-11.1684
▁शृण	-11.1692
▁मुद्रित	-11.1694
विरोध	-11.1715
▁गच्छाम	-11.172
▁इकाई	-11.1724
▁प्रकृष्ट	-11.1724
▁दीक्षित	-11.1724
▁चराचर	-11.1724
वोचत्	-11.173
▁यहां	-11.1731
▁युज्य	-11.1732
त्रिंश	-11.1735
▁गवेष	-11.1735
▁समुत्पन्न	-11.1736
▁दिवाकर	-11.1737
▁कुर्य्यात्	-11.1737
स्मीति	-11.1738
▁वसान	-11.1745
▁पुंसः	-11.1757
▁प्रतिक्रिया	-11.1759
▁एकविंश	-11.1762
▁निर्माता	-11.1763
▁प्रार्थन	-11.1766
▁पु॰	-11.1769
▁वीणा	-11.1782
▁प्राप्नोत्	-11.1785
▁Video	-11.1792
▁प्रकोष्ठ	-11.1792
▁गुणवत्ता	-11.1792
▁विविक्त	-11.1792
▁पल्लव	-11.1792
▁रुच्यते	-11.1794
▁कथयिष्यामि	-11.1797
▁सिन्ध	-11.1797
▁विदुषां	-11.1798
दधाति	-11.18
ुत्थित	-11.18
ast	-11.1801
▁लभन्ते	-11.1802
▁ददातु	-11.1804
son	-11.1817
▁मरीच	-11.1817
▁जटा	-11.1825
▁नान्यथा	-11.183
▁कपिल	-11.1833
▁भगवद्	-11.1833
▁संशोध	-11.1834
ार्णव	-11.1838
▁भ्राम	-11.1842
ोदक	-11.1845
बंध	-11.1856
▁परिपक्व	-11.186
▁2012	-11.1862
▁चक्रु	-11.1864
-4-	-11.1865
▁तत्त्वज्ञान	-11.1867
▁मुग्ध	-11.1867
▁छिद्र	-11.1867
▁आसीद	-11.1867
▁प्रजापते	-11.1867
▁उत्तरपद	-11.1871
▁वर्त्तमान	-11.1887
▁निराकृत	-11.1892
▁सर्वेषाम्	-11.1892
▁कुष्ठ	-11.1899
translation	-11.1929
▁Chapter	-11.1929
▁प्रोत्साह	-11.1929
▁कारागार	-11.1929
▁मुम्बई	-11.1929
▁गरुड	-11.1929
▁कुत्सित	-11.1929
▁हेतवे	-11.193
▁निर्वाण	-11.1931
▁अन्तर्राष्ट्र	-11.1931
▁उक्थ	-11.1931
▁द्रविण	-11.1933
▁ोभय	-11.1938
vii	-11.1938
जानीहि	-11.1939
▁आगच्छन्ति	-11.1952
▁प्रणीत	-11.1952
▁संज्ञित	-11.1954
▁सम्पादय	-11.1974
ide	-11.1983
▁संप्रसारण	-11.1998
▁व्यज्यते	-11.1999
▁मेदिनी	-11.1999
▁लिप्यते	-11.2003
संस्कृत	-11.2005
▁वेश्म	-11.2005
▁05:	-11.2008
▁मीटर	-11.2009
▁नवम्बर	-11.2015
विवेक	-11.202
▁यहाँ	-11.202
ांशु	-11.2022
ुत्थाय	-11.2028
▁यूयम्	-11.2031
▁प्राप्नो	-11.204
धीयते	-11.2041
▁चारिण	-11.2044
▁रंग	-11.2047
▁ल्व	-11.2056
▁500	-11.2056
▁मन्त्रिपरिषद	-11.2068
▁अपर्याप्त	-11.2068
▁सुगन्ध	-11.2069
sion	-11.2069
▁उद्धृत	-11.2071
▁वर्त्म	-11.2071
▁मुहुः	-11.2072
▁गुरव	-11.2075
▁प्रागेव	-11.2082
▁करिष्यन्ति	-11.2082
▁निपात्यते	-11.2087
▁पशून्	-11.2088
▁त्रिरात्र	-11.2092
ix	-11.2094
▁प्रारब्ध	-11.2095
▁क्वाप	-11.2096
▁त्युक्त	-11.2106
कोटि	-11.2111
▁एमपी	-11.2111
▁सत्कार	-11.2111
▁समायात	-11.2124
▁प्रयुज्य	-11.2127
ile	-11.2129
▁जगाद	-11.2129
▁स्फुरत	-11.213
थुइ	-11.2131
▁कटु	-11.2135
▁वनस्पति	-11.2139
▁उदार	-11.2139
▁सायक	-11.2141
▁तपस्विन	-11.2141
ैश्वर्य	-11.2144
▁अपहरण	-11.2148
▁सर्वासां	-11.2151
ेष्यति	-11.2159
▁विरक्त	-11.216
▁भ्रू	-11.2161
▁प्रययौ	-11.2165
▁निरुद्ध	-11.2168
▁आयुध	-11.2181
▁च्वना	-11.2195
मास्थाय	-11.2196
युद्ध	-11.2197
▁पञ्चाश	-11.2197
ोद्धार	-11.22
▁ISO	-11.221
▁ago	-11.221
▁कन्दुक	-11.221
▁२०१३	-11.221
▁वन्यजीव	-11.221
▁पशू	-11.221
▁कण्टक	-11.2211
ेष्वेव	-11.222
▁कदाचिदपि	-11.2223
▁धृत्वा	-11.2225
▁कीर्त्य	-11.2227
▁यस्माद्	-11.2236
▁दर्शयन्	-11.2239
▁धारिण	-11.2241
▁भाण्ड	-11.2253
▁सूचय	-11.2266
▁परिसन्धयः	-11.2281
▁सम्बध्यते	-11.2281
▁श्मशान	-11.2281
▁प्रतिषिध्यते	-11.2281
▁पाषाण	-11.2281
▁उत्थाय	-11.2281
द्यापि	-11.2282
▁ब्रुवन्	-11.2283
▁ब्रूयात्	-11.2283
▁तत्तद्	-11.2285
▁मिथः	-11.2285
▁शासक	-11.2286
▁ज्ञापन	-11.2287
▁प्रणश्य	-11.2289
▁बुद्धिमान्	-11.2289
.04	-11.229
▁फलप्रद	-11.2292
शीर्ष	-11.2315
▁चरेत्	-11.2321
▁प्रसारित	-11.2335
शिष	-11.2349
▁किमिद	-11.2352
×	-11.2353
▁बोधिसत्त्व	-11.2353
PSC	-11.2355
▁कहीं	-11.2357
▁समवेत	-11.2357
▁ऽस्माक	-11.2357
रत्न	-11.2357
विकल्प	-11.2359
▁प्रकल्पयेत्	-11.236
▁अभियान	-11.2368
.02	-11.2369
▁श्रोतव्य	-11.2372
▁विचिन्त्य	-11.2374
▁दुर्जन	-11.2376
क्षिपेत्	-11.2377
▁छ्र	-11.2386
▁ेत्यादिना	-11.239
येवं	-11.2397
▁प्राच्य	-11.2404
सम्पुट	-11.2411
▁इतीद	-11.2423
▁सन्निहित	-11.2426
▁पशूनां	-11.2427
▁2011	-11.2428
arch	-11.2429
▁व्युत्पत्ति	-11.243
▁सञ्चार	-11.2432
▁go	-11.2445
▁min	-11.2448
▁ानुरूप	-11.2458
▁निर्वाह	-11.2467
AT	-11.2467
▁इदानी	-11.2483
▁मित्रावरुण	-11.2499
▁शुभकामना	-11.2499
▁प्रधानमन्त्रिण	-11.2499
▁अभिभाषण	-11.2499
▁धीमहि	-11.2499
▁परोपकार	-11.2499
▁सुदृढ	-11.25
▁रिक्तस्थान	-11.2502
▁शरणागत	-11.2502
▁त्रिदिव	-11.2505
▁कपोत	-11.2506
▁उत्पद्यते	-11.2507
▁कुण्डल	-11.2508
प्लुत	-11.2509
▁02:	-11.2516
▁त्यजेत्	-11.2517
गर्भ	-11.2519
▁अस्थि	-11.2519
▁टङ्क	-11.2526
नुस्वार	-11.2526
▁निन्दित	-11.2546
▁वर्जन	-11.2556
▁नुष्ठान	-11.2572
▁स्वेच्छया	-11.2572
▁नेतृत्व	-11.2572
▁त्रिकोण	-11.2572
▁निम्नलिखित	-11.2572
नुनासिक	-11.2573
▁मण्डप	-11.2574
▁दिनांक	-11.2574
▁रौद्र	-11.2576
▁मातृभाषा	-11.2577
▁पुनर्जन्म	-11.2578
▁sent	-11.2582
▁अनुवृत्ति	-11.2587
▁स्थापयेत्	-11.259
▁भागिन	-11.2595
▁लक्षयति	-11.2604
▁ानुभव	-11.2606
पूज्य	-11.2619
▁ग्रहीत	-11.2622
▁दृष्टिकोण	-11.2646
▁अवधारणा	-11.2646
▁साक्षरता	-11.2646
▁जानकी	-11.2654
▁पताका	-11.2655
▁धातवः	-11.2658
▁छिन्न	-11.266
▁क्रियन्ते	-11.2665
▁विद्याधर	-11.2667
ोऽर्थ	-11.2706
▁द्यावापृथिवी	-11.2721
▁भूर्भुवः	-11.2721
▁आन्तरिक	-11.2721
▁इस्लाम	-11.2721
▁स्पेनिश	-11.2721
▁संलग्न	-11.2721
▁व्यत्यय	-11.2722
▁अस्मत्	-11.2724
▁भर्तृ	-11.2724
▁कुर्वाण	-11.2725
▁शतसहस्र	-11.2725
▁२०१६	-11.2725
▁सञ्ज्ञ	-11.2738
▁per	-11.2738
▁स्वादु	-11.2739
▁एससी	-11.2743
▁यथातथ	-11.2747
ite	-11.275
▁हरुः	-11.2755
▁कियत्	-11.2761
▁प्रशम	-11.2772
▁हरिण	-11.2775
नित्यं	-11.2777
ुपैति	-11.2796
▁दुर्योधन	-11.2796
▁यथोचित	-11.2796
▁निबद्ध	-11.2796
▁दरॊण	-11.2796
▁इत्यमरः	-11.2796
▁धुआं	-11.2796
▁स्थैर्य	-11.2797
▁राजकीय	-11.2797
▁वितर्क	-11.2797
▁दर्भ	-11.28
▁आईपीसी	-11.2803
▁कल्क	-11.2811
▁दुकान	-11.2817
▁भूतपूर्व	-11.2824
▁घोषित	-11.2824
स्त्वां	-11.2836
▁क्लिक	-11.2836
▁ज्ञानिन	-11.2837
ET	-11.2839
ाभ्यन्तरे	-11.285
ङ्गिरस	-11.2866
▁नौकरियां	-11.2872
त्प्रेक्षा	-11.2872
▁वरानने	-11.2872
▁अब्रवीत्	-11.2872
▁You	-11.2872
▁स्थायी	-11.2874
▁फ्रान्स	-11.2876
वतिष्ठते	-11.2879
▁आत्मनेपद	-11.288
श्लिष्ट	-11.2882
▁भित्ति	-11.2886
▁नीत्वा	-11.2889
▁निवेशयेत्	-11.289
▁आवयोः	-11.2893
▁मातृका	-11.2899
चिन्त्य	-11.2913
ज्वल	-11.2914
▁चिकित्स	-11.2926
▁तन्मय	-11.2926
▁उभयोर	-11.2934
¦	-11.2948
▁निगद्यते	-11.2948
▁आह्वान	-11.2949
▁२०१४	-11.2954
▁ाधीन	-11.2954
निश्चय	-11.2973
▁वृन्द	-11.298
▁दास्यामि	-11.298
ाशीति	-11.3006
▁years	-11.3025
▁प्रारंभ	-11.3025
ीकर्तुं	-11.3025
▁निरर्थक	-11.3025
▁संभाषण	-11.3025
ack	-11.3026
▁ज्वाला	-11.3026
▁मिलियन	-11.3029
▁पाठशाला	-11.3029
▁शिशिर	-11.3029
▁निराकरण	-11.3031
▁पूरुष	-11.3031
▁man	-11.3041
▁धम्म	-11.3056
der	-11.3063
ारोग्य	-11.3064
▁बरह्म	-11.3103
▁गुमनाम	-11.3103
▁श्रावण	-11.3103
▁डोमेन	-11.3103
▁सम्बोधन	-11.3103
▁मूर्ध्न	-11.3103
▁उत्तिष्ठ	-11.3107
▁विपश्चि	-11.3109
▁नायिका	-11.3111
▁अध्वर	-11.3112
▁इतेि	-11.3115
▁08:	-11.3116
▁चिकित्सित	-11.3119
ill	-11.312
▁ल्हा	-11.3128
न्तःकरण	-11.3131
▁दद्याद्	-11.3131
▁समीपस्थ	-11.3151
▁Year	-11.3181
▁शृगाल	-11.3181
▁कर्त्तरि	-11.3181
▁असाधारण	-11.3181
▁सरोवर	-11.3181
▁पराशर	-11.3181
▁धेहि	-11.3182
▁कार्तिक	-11.3183
▁शैत्य	-11.3192
▁निरुक्त	-11.3197
▁कार्यकर्ता	-11.3198
▁परिदृश्य	-11.32
▁मेधाव	-11.3201
पुण्य	-11.3204
▁हसित	-11.3223
▁अमेरिक	-11.3227
▁अध्यात्म	-11.3232
▁कुर्य्या	-11.3244
वंगु	-11.3259
शार्दूल	-11.3259
▁शर्करा	-11.3259
▁सितम्बर	-11.326
▁कश्यप	-11.326
▁भयावह	-11.326
▁नियामक	-11.326
▁निमेष	-11.3261
▁रूप्यकाण	-11.3261
▁काञ्चन	-11.3261
▁नोपपद्यते	-11.3262
▁छाय्	-11.3263
▁सायंकाले	-11.3264
▁कुत्रचित्	-11.3265
▁व्याकुल	-11.3267
पहृत	-11.3271
▁धरणी	-11.3271
end	-11.3272
ance	-11.3273
हृदय	-11.3277
▁चातुर्	-11.328
▁ग्रहीतु	-11.3303
▁निलय	-11.3314
▁तज्ज्ञ	-11.3333
▁साम्न	-11.3341
▁क्रिकेट	-11.3341
ादेर्	-11.3343
▁III	-11.3343
▁सङ्कट	-11.3344
▁मुद्दिश्य	-11.3345
▁con	-11.3349
▁वयस्क	-11.3351
▁भवेदिति	-11.3351
ish	-11.3354
▁आनीत	-11.3355
▁प्रविशन्ति	-11.3355
▁प्रदीयत	-11.3358
▁पादुक	-11.3361
▁ात्मनो	-11.3377
ूणां	-11.3396
▁शुभ्र	-11.3409
ook	-11.3419
▁श्रूयतां	-11.3421
▁TV	-11.3423
▁सर्वेषामेव	-11.3425
▁नवीनतम	-11.3426
▁तन्मात्र	-11.3429
▁प्रत्याहार	-11.3432
▁निरामय	-11.3441
ित्यत	-11.3441
▁ाभ्यन्तर	-11.3446
ार्पण	-11.3446
▁ब्राह्म	-11.345
▁क्लिष्ट	-11.3454
▁जनाना	-11.3456
▁युष्माक	-11.3467
▁परिणत	-11.3482
लिटि	-11.3484
▁कौतूहल	-11.3499
▁हितकाम्यया	-11.3499
▁अयोध्या	-11.3499
▁जानकारी	-11.35
ग्निष्टोम	-11.35
▁पीछे	-11.35
▁तस्कर	-11.3501
▁विनोद	-11.3505
▁तज्ज्ञान	-11.3506
▁वायस	-11.3506
▁योजक	-11.351
▁निहन्	-11.3536
▁जानीत	-11.3537
▁दर्शयितु	-11.3558
ष्टादश	-11.3558
▁रूक्ष	-11.356
▁आंग्ल	-11.3581
▁आवाहयामि	-11.3581
▁ादीनाम्	-11.3581
▁शिथिल	-11.3581
▁यशस्विन	-11.3581
▁अमेरिक्क	-11.3581
▁पर्व्वत	-11.3582
▁स्थापयित्वा	-11.3585
▁सावित्र	-11.3588
▁निवेदयेत्	-11.359
▁फ्ल	-11.3593
▁सोपान	-11.3593
सम्भाषणम्	-11.3597
▁प्रदर्श्य	-11.3599
▁हनिष्य	-11.3625
▁गंध	-11.3632
▁मुद्रास्फीति	-11.3663
▁अभीष्ट	-11.3663
▁बिचाः	-11.3663
▁जिल्ला	-11.3664
▁घृण	-11.3664
▁Un	-11.367
▁यथाकालं	-11.3671
▁समाख्यात	-11.3677
ाहुर्	-11.368
ुत्पत्ति	-11.3693
▁काचिद	-11.3697
ON	-11.3703
▁चलच्चित्र	-11.3745
▁राजकुमार	-11.3745
▁Pro	-11.3745
▁शिबिर	-11.3745
▁वैदेशिक	-11.3746
▁द्वयोर्	-11.3749
▁क्षणमात्र	-11.3753
▁समुद्भव	-11.3754
▁वृष्ण	-11.376
क्रीडा	-11.3768
स्ट्रेलिया	-11.3788
संहिता	-11.3789
▁रक्षितु	-11.3791
▁याज्ञवल्क्य	-11.3829
▁नमोऽस्तु	-11.3829
▁वैकल्पिक	-11.3829
▁वस्तूनां	-11.3829
▁समानाधिकरण	-11.3829
▁इतस्ततः	-11.3829
▁प्रादेशिक	-11.3829
▁सर्वकार्येषु	-11.3829
▁ावसरे	-11.3829
▁पूजयेद्	-11.383
▁तर्ह्य	-11.3831
▁ार्जित	-11.3833
▁प्रोक्षण	-11.3835
▁दैन्य	-11.3837
▁प्रवर्तन्त	-11.3838
▁व्योम्न	-11.3841
▁Rea	-11.3842
്	-11.4612
{	-11.4636
J	-11.4637
Í	-11.5075
<	-11.5798
औ	-11.5901
ऌ	-11.5966
ॠ	-11.6498
உ	-11.6498
о	-11.6832
&	-11.688
÷	-11.706
•	-11.7111
️	-11.7294
а	-11.7534
−	-11.7534
Q	-11.759
ḥ	-11.7656
●	-11.7779
🙏	-11.7779
ऐ	-11.8355
€	-11.8826
Ś	-11.9106
்	-11.9248
ū	-11.9393
ऍ	-11.9841
́	-12.0151
ا	-12.0151
е	-12.031
н	-12.0635
¬	-12.0802
ॢ	-12.0802
ા	-12.0802
ऴ	-12.0971
р	-12.0971
л	-12.1144
ü	-12.1498
т	-12.1498
и	-12.168
ર	-12.1865
Ø	-12.1865
σ	-12.1865
é	-12.1865
᳚	-12.1988
ə	-12.2246
ന	-12.2246
√	-12.2442
ī	-12.2642
£	-12.2846
્	-12.3054
с	-12.3054
꣢	-12.3484
в	-12.3707
ś	-12.3707
ل	-12.3707
ṣ	-12.3707
ക	-12.3707
°	-12.3868
ാ	-12.4405
ન	-12.4405
ી	-12.4649
ь	-12.4649
॓	-12.4649
ம	-12.4899
ி	-12.5155
꣣	-12.5418
ー	-12.5418
ா	-12.5688
ે	-12.5688
ി	-12.5688
த	-12.5966
❍	-12.5966
🔊	-12.5966
ു	-12.5966
á	-12.6252
î	-12.6252
ñ	-12.6546
¥	-12.6546
꣡	-12.6849
¢	-12.6849
ن	-12.6849
ர	-12.7161
ó	-12.7162
Ž	-12.7162
ത	-12.7484
©	-12.7484
м	-12.7484
⁄	-12.7484
🪔	-12.7484
ر	-12.7817
م	-12.7817
જ	-12.7817
я	-12.7817
ો	-12.7817
ṇ	-12.7817
§	-12.7817
ي	-12.7817
ऄ	-12.7817
у	-12.7817
і	-12.8162
【	-12.8162
་	-12.8519
ˆ	-12.8519
🚩	-12.8519
к	-12.8519
ı	-12.889
🌷	-12.889
ऑ	-12.9209
→	-12.9209
್	-12.9274
б	-12.9274
й	-12.9274
】	-12.9274
ऺ	-12.9274
ய	-12.9674
ç	-12.9674
ര	-12.9674
വ	-12.9674
語	-12.9674
¤	-12.9674
í	-12.9674
ક	-12.9674
🌹	-12.9674
̥	-12.9674
ு	-13.0091
י	-13.0526
ப	-13.0526
વ	-13.0526
வ	-13.0526
্	-13.098
ː	-13.098
г	-13.098
આ	-13.098
ત	-13.098
Î	-13.098
з	-13.098
à	-13.1457
è	-13.1457
ˈ	-13.1457
െ	-13.1957
સ	-13.1957
া	-13.1957
ം	-13.1957
ട	-13.1957
ᳪ	-13.1957
ં	-13.2483
મ	-13.2483
Ó	-13.2483
س	-13.2483
க	-13.2483
ந	-13.2483
د	-13.2483
ন	-13.3038
п	-13.3038
ನ	-13.3038
യ	-13.3038
®	-13.3038
ц	-13.3038
ऒ	-13.3038
ன	-13.3038
·	-13.3561
ه	-13.3627
ತ	-13.3627
ṭ	-13.3627
ع	-13.3627
മ	-13.3627
い	-13.3627
પ	-13.4252
ಾ	-13.4252
ö	-13.4252
ی	-13.4252
બ	-13.4252
ல	-13.4252
ṛ	-13.4252
†	-13.4252
ত	-13.4252
ィ	-13.4252
х	-13.4252
ি	-13.4918
ب	-13.4918
ऻ	-13.4918
હ	-13.4918
‹	-13.4918
⇄	-13.4918
🛑	-13.4918
â	-13.4918
ರ	-13.4918
✍	-13.4918
(	-13.5567
র	-13.5633
ɑ	-13.5633
ગ	-13.5633
్	-13.5633
ú	-13.5633
С	-13.5633
ж	-13.5633
ಿ	-13.5633
ച	-13.5633
🌺	-13.5633
ല	-13.5633
ン	-13.5633
ו	-13.5633
॔	-13.6402
¡	-13.6402
±	-13.6402
ş	-13.6402
̊	-13.6402
μ	-13.6402
ы	-13.6402
િ	-13.6402
⋙	-13.6402
■	-13.6402
▲	-13.6402
🌞	-13.6402
📖	-13.6402
ï	-13.6402
ম	-13.7235
و	-13.7235
🕉	-13.7235
ã	-13.7235
Ï	-13.7235
š	-13.7235
ܘ	-13.7235
ॡ	-13.7235
એ	-13.7235
ય	-13.7235
ು	-13.7235
ോ	-13.7235
✓	-13.7235
❤	-13.7235
➧	-13.7235
🏻	-13.7235
ł	-13.7235
ദ	-13.7235
语	-13.8144
ু	-13.8144
α	-13.8144
Б	-13.8144
ت	-13.8144
ṃ	-13.8144
′	-13.8144
◎	-13.8144
一	-13.8144
ದ	-13.8144
ണ	-13.9144
দ	-13.9144
ಂ	-13.9144
ʊ	-13.9144
ک	-13.9144
ক	-13.9144
ê	-13.9144
ى	-13.9144
૧	-13.9144
ಲ	-13.9144
❯	-13.9144
。	-13.9144
し	-13.9144
デ	-13.9144
🌸	-13.9144
😂	-13.9144
ה	-13.9144
ి	-13.9144
の	-13.9144
ю	-13.9144
マ	-13.9144
ч	-14.0255
ర	-14.0255
Þ	-14.0255
ુ	-14.0255
İ	-14.0255
ב	-14.0255
ḍ	-14.0255
大	-14.0255
̃	-14.0255
ᄌ	-14.0255
ṁ	-14.0255
◉	-14.0255
◌	-14.0255
☝	-14.0255
図	-14.0255
書	-14.0255
月	-14.0255
ʃ	-14.0255
א	-14.0255
য	-14.0255
¶	-14.0255
ం	-14.0255
న	-14.0255
ব	-14.1505
േ	-14.1505
̶	-14.1505
স	-14.1505
ল	-14.1505
શ	-14.1505
ಕ	-14.1505
ش	-14.1505
ವ	-14.1505
À	-14.1505
È	-14.1505
ে	-14.1505
ழ	-14.1505
ಗ	-14.1505
റ	-14.1505
◦	-14.1505
⭐	-14.1505
か	-14.1505
增	-14.1505
전	-14.1505
💮	-14.1505
ટ	-14.1505
Х	-14.1505
ラ	-14.1506
П	-14.2934
వ	-14.2934
സ	-14.2934
ɛ	-14.2934
আ	-14.2934
Æ	-14.2934
ý	-14.2934
ળ	-14.2934
ட	-14.2934
ೆ	-14.2934
ൊ	-14.2934
Ü	-14.2934
ē	-14.2934
ט	-14.2934
ো	-14.2934
થ	-14.2934
ண	-14.2934
య	-14.2934
ಡ	-14.2934
ಯ	-14.2934
ശ	-14.2934
∆	-14.2934
♥	-14.2934
つ	-14.2934
余	-14.2934
名	-14.2934
音	-14.2934
다	-14.2934
🔹	-14.2934
Š	-14.2934
ॿ	-14.2934
દ	-14.2934
ெ	-14.2934
ס	-14.2934
ਕ	-14.2934
ు	-14.2934
お	-14.2934
テ	-14.2934
🌿	-14.46
ભ	-14.4601
ਾ	-14.4601
ق	-14.4601
گ	-14.4601
হ	-14.4601
ా	-14.4601
ಳ	-14.4601
な	-14.4601
æ	-14.4601
ĉ	-14.4601
ō	-14.4601
ž	-14.4601
θ	-14.4601
π	-14.4601
є	-14.4601
מ	-14.4601
ء	-14.4601
ح	-14.4601
ܬ	-14.4601
ோ	-14.4601
మ	-14.4601
∴	-14.4601
パ	-14.4601
年	-14.4601
🍃	-14.4601
🔅	-14.4601
Ê	-14.4601
ز	-14.4601
ற	-14.4601
行	-14.4601
す	-14.4601
사	-14.4601
త	-14.4601
ა	-14.6601
э	-14.6601
ל	-14.6601
থ	-14.6601
ہ	-14.6601
ಮ	-14.6601
ജ	-14.6601
♀	-14.6601
Ş	-14.6601
ς	-14.6601
φ	-14.6601
Н	-14.6601
ш	-14.6601
ة	-14.6601
ف	-14.6601
۔	-14.6601
ە	-14.6601
প	-14.6601
়	-14.6601
ਰ	-14.6601
ੀ	-14.6601
ઉ	-14.6601
ି	-14.6601
ೀ	-14.6601
ས	-14.6601
ṅ	-14.6601
⇔	-14.6601
∫	-14.6601
⋆	-14.6601
▼	-14.6601
⛳	-14.6601
✳	-14.6601
❇	-14.6601
あ	-14.6601
く	-14.6601
ネ	-14.6601
음	-14.6601
🌄	-14.6601
🍁	-14.6601
🔗	-14.6601
🔶	-14.6601
😞	-14.6601
Û	-14.6601
জ	-14.6601
Œ	-14.6601
亦	-14.6601
知	-14.6601
😃	-14.6601
ˌ	-14.6601
ಪ	-14.6601
ഗ	-14.6601
ഷ	-14.6601
シ	-14.6601
ズ	-14.6601
亲	-14.91
ആ	-14.9101
国	-14.9101
ধ	-14.9101
ι	-14.9101
ρ	-14.9101
લ	-14.9101
ொ	-14.9101
స	-14.9101
ഞ	-14.9101
ફ	-14.9101
的	-14.9101
Ð	-14.9101
ß	-14.9101
්	-14.9101
っ	-14.9101
て	-14.9101
ッ	-14.9101
不	-14.9101
彼	-14.9101
᳖	-14.9101
ä	-14.9101
ì	-14.9101
ø	-14.9101
ę	-14.9101
Ō	-14.9101
̕	-14.9101
Δ	-14.9101
Ι	-14.9101
ή	-14.9101
β	-14.9101
ئ	-14.9101
ك	-14.9101
ܐ	-14.9101
ܒ	-14.9101
ܛ	-14.9101
ܦ	-14.9101
ܪ	-14.9101
গ	-14.9101
ਲ	-14.9101
ૐ	-14.9101
૦	-14.9101
૪	-14.9101
ஷ	-14.9101
క	-14.9101
ల	-14.9101
།	-14.9101
―	-14.9101
‰	-14.9101
※	-14.9101
≍	-14.9101
⛅	-14.9101
➛	-14.9101
➢	-14.9101
た	-14.9101
と	-14.9101
义	-14.9101
人	-14.9101
何	-14.9101
僕	-14.9101
可	-14.9101
如	-14.9101
应	-14.9101
愛	-14.9101
我	-14.9101
故	-14.9101
无	-14.9101
氣	-14.9101
觉	-14.9101
论	-14.9101
靈	-14.9101
낱	-14.9101
말	-14.9101
위	-14.9101
이	-14.9101
키	-14.9101
하	-14.9101
🔍	-14.9101
😳	-14.9101
œ	-14.9101
Ц	-14.9101
ƒ	-14.9101
ધ	-14.9101
세	-14.9101
ô	-14.9101
ї	-14.9101
リ	-14.9101
尔	-14.9101
Ì	-14.9101
ऎ	-15.2369
ð	-15.2434
ג	-15.2434
薩	-15.2434
タ	-15.2434
チ	-15.2434
𑑂	-15.2434
ৱ	-15.2434
ஸ	-15.2434
ಬ	-15.2434
ව	-15.2434
ი	-15.2434
З	-15.2434
ج	-15.2434
ઞ	-15.2434
ා	-15.2434
გ	-15.2434
ᴇ	-15.2434
ア	-15.2434
反	-15.2434
意	-15.2434
成	-15.2434
相	-15.2434
说	-15.2434
ზ	-15.2434
¿	-15.2434
Â	-15.2434
õ	-15.2434
ć	-15.2434
č	-15.2434
ğ	-15.2434
į	-15.2434
ř	-15.2434
ɔ	-15.2434
ɜ	-15.2434
ʁ	-15.2434
ʏ	-15.2434
Ψ	-15.2434
δ	-15.2434
η	-15.2434
κ	-15.2434
ν	-15.2434
ο	-15.2434
τ	-15.2434
ש	-15.2434
ת	-15.2434
آ	-15.2434
إ	-15.2434
چ	-15.2434
ܣ	-15.2434
ং	-15.2434
ট	-15.2434
ৰ	-15.2434
ੋ	-15.2434
ઃ	-15.2434
ચ	-15.2434
ડ	-15.2434
ષ	-15.2434
૯	-15.2434
ே	-15.2434
భ	-15.2434
ಶ	-15.2434
ಹ	-15.2434
೨	-15.2434
ഈ	-15.2434
ീ	-15.2434
ർ	-15.2434
ൾ	-15.2434
ය	-15.2434
ි	-15.2434
ག	-15.2434
ུ	-15.2434
ᅩ	-15.2434
ጻ	-15.2434
ᛖ	-15.2434
Ủ	-15.2434
⃣	-15.2434
↔	-15.2434
∈	-15.2434
≈	-15.2434
◇	-15.2434
✥	-15.2434
❁	-15.2434
➜	-15.2434
う	-15.2434
き	-15.2434
ら	-15.2434
る	-15.2434
コ	-15.2434
ス	-15.2434
ト	-15.2434
为	-15.2434
京	-15.2434
依	-15.2434
因	-15.2434
所	-15.2434
果	-15.2434
格	-15.2434
者	-15.2434
通	-15.2434
遣	-15.2434
释	-15.2434
量	-15.2434
非	-15.2434
颂	-15.2434
대	-15.2434
발	-15.2434
브	-15.2434
요	-15.2434
🇵	-15.2434
🌉	-15.2434
🌙	-15.2434
🔐	-15.2434
🔔	-15.2434
🔸	-15.2434
😉	-15.2434
😍	-15.2434
🤝	-15.2434
ò	-15.2434
ě	-15.2434
ீ	-15.2434
新	-15.2434
Ã	-15.2434
Ÿ	-15.2434
Ö	-15.2434
ಚ	-15.2434
ᛁ	-15.2434
を	-15.2434
作	-15.2434
比	-15.2434
生	-15.2434
能	-15.2434
自	-15.2434
诸	-15.2434
ᄉ	-15.2434
Й	-15.2434
ਮ	-15.2434
ま	-15.2434
和	-15.7434
祖	-15.7434
ɡ	-15.7434
Я	-15.7434
ע	-15.7434
ପ	-15.7434
ḏ	-15.7434
球	-15.7434
𑐕	-15.7434
𑐫	-15.7434
غ	-15.7434
ઠ	-15.7434
ె	-15.7434
ද	-15.7434
了	-15.7434
全	-15.7434
有	-15.7434
리	-15.7434
서	-15.7434
ė	-15.7434
ǔ	-15.7434
೪	-15.7434
プ	-15.7434
方	-15.7434
라	-15.7434
아	-15.7434
영	-15.7434
Å	-15.7434
Ò	-15.7434
Ú	-15.7434
ù	-15.7434
ą	-15.7434
Ċ	-15.7434
ŋ	-15.7434
ư	-15.7434
ǒ	-15.7434
ɒ	-15.7434
̆	-15.7434
ά	-15.7434
ε	-15.7434
χ	-15.7434
ό	-15.7434
ф	-15.7434
ј	-15.7434
ү	-15.7434
ם	-15.7434
ן	-15.7434
ק	-15.7434
أ	-15.7434
ص	-15.7434
ط	-15.7434
ً	-15.7434
ۆ	-15.7434
ۇ	-15.7434
ܠ	-15.7434
ॾ	-15.7434
ই	-15.7434
খ	-15.7434
ঘ	-15.7434
চ	-15.7434
ছ	-15.7434
ਤ	-15.7434
ਨ	-15.7434
ਿ	-15.7434
ੇ	-15.7434
ੱ	-15.7434
ઈ	-15.7434
ૂ	-15.7434
૨	-15.7434
૫	-15.7434
ଆ	-15.7434
ଓ	-15.7434
ଡ	-15.7434
ର	-15.7434
଼	-15.7434
ା	-15.7434
డ	-15.7434
ద	-15.7434
ಃ	-15.7434
ಭ	-15.7434
ೇ	-15.7434
ഹ	-15.7434
ൻ	-15.7434
ൽ	-15.7434
ස	-15.7434
น	-15.7434
ิ	-15.7434
ཐ	-15.7434
མ	-15.7434
ལ	-15.7434
ླ	-15.7434
ᛋ	-15.7434
ᛚ	-15.7434
᛫	-15.7434
᭭	-15.7434
ᳲ	-15.7434
ṝ	-15.7434
ắ	-15.7434
Ἀ	-15.7434
∅	-15.7434
≠	-15.7434
≡	-15.7434
≦	-15.7434
▷	-15.7434
◊	-15.7434
♡	-15.7434
♫	-15.7434
⚫	-15.7434
✌	-15.7434
✒	-15.7434
✧	-15.7434
✨	-15.7434
✺	-15.7434
➥	-15.7434
⦁	-15.7434
《	-15.7434
」	-15.7434
が	-15.7434
さ	-15.7434
に	-15.7434
み	-15.7434
む	-15.7434
め	-15.7434
や	-15.7434
ん	-15.7434
ジ	-15.7434
バ	-15.7434
ボ	-15.7434
ロ	-15.7434
・	-15.7434
三	-15.7434
事	-15.7434
于	-15.7434
从	-15.7434
伟	-15.7434
修	-15.7434
八	-15.7434
具	-15.7434
加	-15.7434
卐	-15.7434
印	-15.7434
各	-15.7434
合	-15.7434
吗	-15.7434
员	-15.7434
地	-15.7434
堂	-15.7434
声	-15.7434
天	-15.7434
奪	-15.7434
好	-15.7434
存	-15.7434
安	-15.7434
小	-15.7434
异	-15.7434
当	-15.7434
整	-15.7434
普	-15.7434
晴	-15.7434
更	-15.7434
東	-15.7434
械	-15.7434
此	-15.7434
然	-15.7434
猫	-15.7434
理	-15.7434
白	-15.7434
研	-15.7434
程	-15.7434
素	-15.7434
而	-15.7434
身	-15.7434
都	-15.7434
间	-15.7434
页	-15.7434
首	-15.7434
감	-15.7434
교	-15.7434
두	-15.7434
듬	-15.7434
로	-15.7434
민	-15.7434
성	-15.7434
슈	-15.7434
신	-15.7434
어	-15.7434
완	-15.7434
인	-15.7434
학	-15.7434
한	-15.7434
히	-15.7434
𑐎	-15.7434
𑐵	-15.7434
𑑅	-15.7434
🇦	-15.7434
🇺	-15.7434
🌈	-15.7434
🌏	-15.7434
🌼	-15.7434
🍥	-15.7434
🎉	-15.7434
🎖	-15.7434
🎯	-15.7434
👈	-15.7434
👍	-15.7434
👨	-15.7434
👩	-15.7434
👴	-15.7434
💄	-15.7434
💏	-15.7434
💔	-15.7434
💛	-15.7434
💥	-15.7434
📌	-15.7434
📎	-15.7434
📝	-15.7434
📰	-15.7434
🔰	-15.7434
😄	-15.7434
😅	-15.7434
😘	-15.7434
🙍	-15.7434
🥀	-15.7434
🥇	-15.7434
Ю	-15.7434
ਬ	-15.7434
ప	-15.7434
శ	-15.7434
ᆬ	-15.7434
广	-15.7434
度	-15.7434
许	-15.7434
의	-15.7434
よ	-15.7434
尼	-15.7434
泊	-15.7434
ൂ	-15.7434
ང	-15.7434
🩸	-16.7241
😒	-16.7242
👏	-16.7243
🐯	-16.7244
𑑄	-16.7245
𑐴	-16.7246
𑐮	-16.7247
주	-16.7248
좀	-16.7249
예	-16.725
비	-16.7251
급	-16.7252
공	-16.7253
第	-16.7254
立	-16.7255
益	-16.7256
由	-16.7257
显	-16.7258
婆	-16.7259
外	-16.726
哷	-16.7261
哲	-16.7262
北	-16.7263
切	-16.7264
六	-16.7265
代	-16.7266
五	-16.7267
上	-16.7268
も	-16.7269
ひ	-16.727
「	-16.7271
》	-16.7272
、	-16.7273
❣	-16.7274
☰	-16.7275
☘	-16.7276
☑	-16.7277
ዝ	-16.7278
ብ	-16.7279
ሕ	-16.728
ྥ	-16.7281
ཱ	-16.7282
ཧ	-16.7283
ཡ	-16.7284
པ	-16.7285
ൈ	-16.7286
ഭ	-16.7287
ഥ	-16.7288
ഛ	-16.7289
అ	-16.729
ச	-16.7291
ஆ	-16.7292
ଲ	-16.7293
઼	-16.7294
ઓ	-16.7295
਼	-16.7296
ਪ	-16.7297
ਗ	-16.7298
ਅ	-16.7299
ী	-16.73
ڪ	-16.7301
٬	-16.7302
נ	-16.7303
Ф	-16.7304
К	-16.7305
І	-16.7306
💕	-16.7307
👫	-16.7308
🍀	-16.7309
🌱	-16.731
🌟	-16.7311
합	-16.7312
間	-16.7313
発	-16.7314
痛	-16.7315
用	-16.7316
母	-16.7317
機	-16.7318
梵	-16.7319
期	-16.732
だ	-16.7321
✴	-16.7322
☀	-16.7323
Ṛ	-16.7324
ක	-16.7325
ബ	-16.7326
ಎ	-16.7327
ಉ	-16.7328
੍	-16.7329
ਸ	-16.733
پ	-16.7331
У	-16.7332
О	-16.7333
И	-16.7334
Á	-16.7335
😡	-16.7336
😜	-16.7337
👌	-16.7338
👇	-16.7339
니	-16.734
기	-16.7341
試	-16.7342
十	-16.7343
➤	-16.7344
♣	-16.7345
◄	-16.7346
⏳	-16.7347
ഉ	-16.7348
ഇ	-16.7349
ஶ	-16.735
ள	-16.7351
ஜ	-16.7352
இ	-16.7353
פ	-16.7354
Э	-16.7355
ʒ	-16.7356
ǀ	-16.7357
😢	-16.7358
😎	-16.7359
😀	-16.736
📚	-16.7361
‒	-16.7362
અ	-16.7363
Р	-16.7364
А	-16.7365
Ј	-16.7366
ǁ	-16.7367
ż	-16.7368
Ā	-16.7369
🌻	-16.737
꣯	-16.7371
ル	-16.7372
ധ	-16.7373
എ	-16.7374
எ	-16.7375
ણ	-16.7376
উ	-16.7377
Т	-16.7378
Д	-16.7379
В	-16.738
̧	-16.7381
♂	-16.7382
▪	-16.7383
Ç	-16.7384
😊	-16.7385
🔱	-16.7386
☆	-16.7387
▶	-16.7388
೦	-16.7389
ר	-16.739
щ	-16.7391
➡	-16.7392
ಸ	-16.7393
💐	-16.7394
ള	-16.7395
அ	-16.7396
ヒ	-16.7397
∠	-16.7398
၊	-16.7399
છ	-16.74
М	-16.7401
̈	-16.7402
❑	-16.7403
᳭	-16.7404
അ	-16.7405
ɪ	-16.7406
🔥	-16.7407
ങ	-16.7408
✅	-16.7409
❌	-16.741
പ	-16.7411
∕	-16.7412
♦	-16.7413
🇮	-16.7414
🇳	-16.7415
🙂	-16.7416
⇒	-16.7417
‡	-16.7418
✔	-16.7419
◆	-16.742
≥	-16.7421
‐	-16.7422
★	-16.7423
д	-16.7424
👉	-16.7425
৷	-16.7426
₹	-16.7427
≤	-16.7428
‖	-16.7429
̐	-16.743
̄	-16.7431
►	-16.7432
ཁ	-16.7433
摩	-16.7433
逝	-16.7433
阿	-16.7433
ʻ	-16.7433
צ	-16.7434
ਊ	-16.7434
დ	-16.7434
ვ	-16.7434
რ	-16.7434
ც	-16.7434
少	-16.7434
Õ	-16.7434
ʉ	-16.7434
ʋ	-16.7434
Κ	-16.7434
Ե	-16.7434
ذ	-16.7434
ৃ	-16.7434
ੁ	-16.7434
ੰ	-16.7434
େ	-16.7434
୍	-16.7434
ఉ	-16.7434
ఫ	-16.7434
ഖ	-16.7434
ත	-16.7434
ප	-16.7434
ල	-16.7434
ශ	-16.7434
ᴀ	-16.7434
互	-16.7434
份	-16.7434
你	-16.7434
南	-16.7434
夢	-16.7434
忘	-16.7434
念	-16.7434
戻	-16.7434
最	-16.7434
永	-16.7434
牙	-16.7434
现	-16.7434
終	-16.7434
続	-16.7434
蝶	-16.7434
西	-16.7434
见	-16.7434
解	-16.7434
越	-16.7434
达	-16.7434
过	-16.7434
鉄	-16.7434
산	-16.7434
스	-16.7434
크	-16.7434
탄	-16.7434
터	-16.7434
트	-16.7434
🙅	-16.7434
Ȩ	-16.7434
৭	-16.7434
೩	-16.7434
ᓚ	-16.7434
ᚨ	-16.7434
改	-16.7434
添	-16.7434
简	-16.7434
辦	-16.7434
追	-16.7434
더	-16.7434
동	-16.7434
맵	-16.7434
있	-16.7434
조	-16.7434
특	-16.7434
힌	-16.7434
🍋	-16.7434
🤩	-16.7434
🥂	-16.7434
É	-16.7434
å	-16.7434
ë	-16.7434
û	-16.7434
þ	-16.7434
ÿ	-16.7434
ă	-16.7434
ĕ	-16.7434
Ī	-16.7434
Ķ	-16.7434
ń	-16.7434
Ŏ	-16.7434
ŏ	-16.7434
ť	-16.7434
Ů	-16.7434
ų	-16.7434
Ż	-16.7434
Ǒ	-16.7434
ȧ	-16.7434
ȯ	-16.7434
ʈ	-16.7434
ʌ	-16.7434
ʟ	-16.7434
ʿ	-16.7434
ˎ	-16.7434
ˑ	-16.7434
̍	-16.7434
̖	-16.7434
̠	-16.7434
̪	-16.7434
Ά	-16.7434
Μ	-16.7434
Ο	-16.7434
Σ	-16.7434
Φ	-16.7434
Ω	-16.7434
ω	-16.7434
Л	-16.7434
Ч	-16.7434
ё	-16.7434
ў	-16.7434
ҫ	-16.7434
ә	-16.7434
Ө	-16.7434
Կ	-16.7434
Հ	-16.7434
ա	-16.7434
ե	-16.7434
ն	-16.7434
ր	-16.7434
ւ	-16.7434
ַ	-16.7434
ד	-16.7434
כ	-16.7434
ף	-16.7434
ײ	-16.7434
؞	-16.7434
خ	-16.7434
ُ	-16.7434
ِ	-16.7434
٫	-16.7434
ٰ	-16.7434
ٹ	-16.7434
ټ	-16.7434
ڌ	-16.7434
ں	-16.7434
ڼ	-16.7434
ۂ	-16.7434
ܕ	-16.7434
ܚ	-16.7434
ܟ	-16.7434
ॱ	-16.7434
ॵ	-16.7434
ॺ	-16.7434
ॼ	-16.7434
এ	-16.7434
ঠ	-16.7434
ড	-16.7434
ঢ	-16.7434
ণ	-16.7434
ষ	-16.7434
০	-16.7434
৩	-16.7434
ਂ	-16.7434
ਇ	-16.7434
ਏ	-16.7434
ਖ	-16.7434
ਜ	-16.7434
ਟ	-16.7434
ਡ	-16.7434
ਣ	-16.7434
ਦ	-16.7434
ੂ	-16.7434
ખ	-16.7434
ઝ	-16.7434
ૃ	-16.7434
ૠ	-16.7434
૩	-16.7434
૬	-16.7434
૭	-16.7434
૮	-16.7434
ଃ	-16.7434
କ	-16.7434
ଖ	-16.7434
ତ	-16.7434
ଭ	-16.7434
ୟ	-16.7434
ஐ	-16.7434
ஹ	-16.7434
ூ	-16.7434
ை	-16.7434
ఎ	-16.7434
ఓ	-16.7434
చ	-16.7434
జ	-16.7434
ధ	-16.7434
ష	-16.7434
హ	-16.7434
ే	-16.7434
ై	-16.7434
ో	-16.7434
ಅ	-16.7434
ಇ	-16.7434
ಜ	-16.7434
ಟ	-16.7434
ೂ	-16.7434
ೃ	-16.7434
ೊ	-16.7434
ೋ	-16.7434
೧	-16.7434
ೲ	-16.7434
ഠ	-16.7434
ഴ	-16.7434
ග	-16.7434
න	-16.7434
ම	-16.7434
ො	-16.7434
ค	-16.7434
ง	-16.7434
ด	-16.7434
ต	-16.7434
บ	-16.7434
พ	-16.7434
ฟ	-16.7434
ม	-16.7434
ร	-16.7434
ห	-16.7434
อ	-16.7434
ฮ	-16.7434
ั	-16.7434
า	-16.7434
ี	-16.7434
เ	-16.7434
โ	-16.7434
่	-16.7434
้	-16.7434
༔	-16.7434
༡	-16.7434
༣	-16.7434
༨	-16.7434
ཊ	-16.7434
བ	-16.7434
ཚ	-16.7434
ཝ	-16.7434
ཟ	-16.7434
ཥ	-16.7434
ི	-16.7434
ྀ	-16.7434
ྨ	-16.7434
ྭ	-16.7434
ྱ	-16.7434
ྲ	-16.7434
ე	-16.7434
თ	-16.7434
ლ	-16.7434
ნ	-16.7434
ს	-16.7434
უ	-16.7434
ሉ	-16.7434
ሩ	-16.7434
በ	-16.7434
ቮ	-16.7434
እ	-16.7434
ኳ	-16.7434
ገ	-16.7434
ፂ	-16.7434
ፃ	-16.7434
ᒃ	-16.7434
ᒄ	-16.7434
ᒎ	-16.7434
ᗢ	-16.7434
ᘏ	-16.7434
ᚩ	-16.7434
ᚻ	-16.7434
ᚾ	-16.7434
ᛏ	-16.7434
ᛗ	-16.7434
ᛞ	-16.7434
ᭅ	-16.7434
ᱧ	-16.7434
Ჱ	-16.7434
᳒	-16.7434
ᳬ	-16.7434
Ḩ	-16.7434
ế	-16.7434
ệ	-16.7434
ὁ	-16.7434
ὕ	-16.7434
ὸ	-16.7434
ῖ	-16.7434
₩	-16.7434
↓	-16.7434
↕	-16.7434
↗	-16.7434
↩	-16.7434
↲	-16.7434
⇏	-16.7434
∖	-16.7434
∙	-16.7434
∝	-16.7434
∩	-16.7434
∵	-16.7434
⊂	-16.7434
⊃	-16.7434
⊕	-16.7434
▀	-16.7434
□	-16.7434
△	-16.7434
☁	-16.7434
☸	-16.7434
☹	-16.7434
☺	-16.7434
♈	-16.7434
♉	-16.7434
♻	-16.7434
⚏	-16.7434
⚕	-16.7434
⚡	-16.7434
⚪	-16.7434
⛈	-16.7434
⛹	-16.7434
✖	-16.7434
✦	-16.7434
✪	-16.7434
✹	-16.7434
✼	-16.7434
✿	-16.7434
❗	-16.7434
➖	-16.7434
➞	-16.7434
➦	-16.7434
➨	-16.7434
⟶	-16.7434
⟷	-16.7434
⠀	-16.7434
⭕	-16.7434
〈	-16.7434
け	-16.7434
げ	-16.7434
ち	-16.7434
で	-16.7434
ど	-16.7434
ゃ	-16.7434
れ	-16.7434
イ	-16.7434
エ	-16.7434
オ	-16.7434
ク	-16.7434
グ	-16.7434
セ	-16.7434
ゼ	-16.7434
ソ	-16.7434
ツ	-16.7434
ナ	-16.7434
ノ	-16.7434
ピ	-16.7434
ポ	-16.7434
ャ	-16.7434
七	-16.7434
与	-16.7434
世	-16.7434
中	-16.7434
习	-16.7434
乱	-16.7434
二	-16.7434
介	-16.7434
仕	-16.7434
休	-16.7434
位	-16.7434
使	-16.7434
個	-16.7434
倒	-16.7434
健	-16.7434
元	-16.7434
入	-16.7434
其	-16.7434
円	-16.7434
册	-16.7434
决	-16.7434
出	-16.7434
划	-16.7434
列	-16.7434
利	-16.7434
别	-16.7434
到	-16.7434
副	-16.7434
助	-16.7434
卍	-16.7434
叉	-16.7434
发	-16.7434
口	-16.7434
句	-16.7434
同	-16.7434
后	-16.7434
吥	-16.7434
吸	-16.7434
告	-16.7434
咒	-16.7434
哉	-16.7434
哥	-16.7434
喝	-16.7434
嘅	-16.7434
器	-16.7434
四	-16.7434
固	-16.7434
國	-16.7434
域	-16.7434
報	-16.7434
境	-16.7434
处	-16.7434
复	-16.7434
多	-16.7434
夜	-16.7434
奖	-16.7434
威	-16.7434
孕	-16.7434
学	-16.7434
官	-16.7434
定	-16.7434
宦	-16.7434
寝	-16.7434
尊	-16.7434
属	-16.7434
岂	-16.7434
工	-16.7434
师	-16.7434
席	-16.7434
常	-16.7434
废	-16.7434
康	-16.7434
廬	-16.7434
引	-16.7434
弥	-16.7434
影	-16.7434
得	-16.7434
徹	-16.7434
性	-16.7434
惑	-16.7434
感	-16.7434
憶	-16.7434
执	-16.7434
投	-16.7434
收	-16.7434
政	-16.7434
效	-16.7434
文	-16.7434
日	-16.7434
时	-16.7434
星	-16.7434
是	-16.7434
朝	-16.7434
杂	-16.7434
某	-16.7434
染	-16.7434
查	-16.7434
栄	-16.7434
模	-16.7434
権	-16.7434
款	-16.7434
止	-16.7434
民	-16.7434
求	-16.7434
汇	-16.7434
没	-16.7434
流	-16.7434
灭	-16.7434
熟	-16.7434
父	-16.7434
班	-16.7434
發	-16.7434
直	-16.7434
破	-16.7434
离	-16.7434
秘	-16.7434
稱	-16.7434
究	-16.7434
答	-16.7434
类	-16.7434
網	-16.7434
繁	-16.7434
肉	-16.7434
花	-16.7434
若	-16.7434
英	-16.7434
葬	-16.7434
處	-16.7434
蛟	-16.7434
衆	-16.7434
表	-16.7434
观	-16.7434
视	-16.7434
言	-16.7434
記	-16.7434
訳	-16.7434
論	-16.7434
讓	-16.7434
计	-16.7434
讨	-16.7434
话	-16.7434
贪	-16.7434
足	-16.7434
車	-16.7434
返	-16.7434
進	-16.7434
那	-16.7434
金	-16.7434
长	-16.7434
除	-16.7434
陸	-16.7434
障	-16.7434
雨	-16.7434
電	-16.7434
面	-16.7434
韩	-16.7434
響	-16.7434
願	-16.7434
须	-16.7434
飞	-16.7434
飲	-16.7434
龙	-16.7434
꣫	-16.7434
ꣲ	-16.7434
가	-16.7434
간	-16.7434
개	-16.7434
게	-16.7434
고	-16.7434
과	-16.7434
국	-16.7434
금	-16.7434
깨	-16.7434
나	-16.7434
냐	-16.7434
녹	-16.7434
는	-16.7434
달	-16.7434
따	-16.7434
뜨	-16.7434
락	-16.7434
레	-16.7434
력	-16.7434
름	-16.7434
만	-16.7434
망	-16.7434
몸	-16.7434
못	-16.7434
뭐	-16.7434
받	-16.7434
백	-16.7434
번	-16.7434
법	-16.7434
봇	-16.7434
상	-16.7434
수	-16.7434
술	-16.7434
쉬	-16.7434
승	-16.7434
시	-16.7434
없	-16.7434
에	-16.7434
염	-16.7434
외	-16.7434
우	-16.7434
운	-16.7434
월	-16.7434
을	-16.7434
임	-16.7434
입	-16.7434
자	-16.7434
적	-16.7434
절	-16.7434
정	-16.7434
중	-16.7434
증	-16.7434
지	-16.7434
째	-16.7434
청	-16.7434
탑	-16.7434
팅	-16.7434
파	-16.7434
함	-16.7434
허	-16.7434
힘	-16.7434
︎	-16.7434
𑆤	-16.7434
𑌏	-16.7434
𑌥	-16.7434
𑌫	-16.7434
𑌮	-16.7434
𑌸	-16.7434
𑐰	-16.7434
𑑀	-16.7434
🅰	-16.7434
🇱	-16.7434
🇸	-16.7434
🇹	-16.7434
🌀	-16.7434
🌃	-16.7434
🌅	-16.7434
🌍	-16.7434
🌎	-16.7434
🌖	-16.7434
🌛	-16.7434
🌝	-16.7434
🌠	-16.7434
🌰	-16.7434
🌴	-16.7434
🍾	-16.7434
🎂	-16.7434
🎃	-16.7434
🎊	-16.7434
🎋	-16.7434
🎎	-16.7434
🎓	-16.7434
🎤	-16.7434
🎵	-16.7434
🎶	-16.7434
🎼	-16.7434
🏀	-16.7434
🏃	-16.7434
🏏	-16.7434
🏠	-16.7434
🏮	-16.7434
🏷	-16.7434
🏹	-16.7434
🏽	-16.7434
🐕	-16.7434
🐙	-16.7434
👆	-16.7434
👞	-16.7434
👣	-16.7434
👦	-16.7434
👧	-16.7434
👱	-16.7434
💑	-16.7434
💓	-16.7434
💖	-16.7434
💗	-16.7434
💘	-16.7434
💚	-16.7434
💝	-16.7434
💠	-16.7434
💦	-16.7434
💧	-16.7434
💫	-16.7434
💰	-16.7434
💱	-16.7434
💵	-16.7434
📂	-16.7434
📏	-16.7434
📕	-16.7434
📢	-16.7434
📣	-16.7434
📱	-16.7434
📳	-16.7434
📸	-16.7434
📺	-16.7434
🔟	-16.7434
🔷	-16.7434
🔻	-16.7434
🕔	-16.7434
🖊	-16.7434
🖱	-16.7434
🗃	-16.7434
🗒	-16.7434
🗣	-16.7434
🗳	-16.7434
😇	-16.7434
😌	-16.7434
😔	-16.7434
😝	-16.7434
😩	-16.7434
🙁	-16.7434
🙆	-16.7434
🙌	-16.7434
🙎	-16.7434
🚑	-16.7434
🚷	-16.7434
🛡	-16.7434
🤔	-16.7434
🤗	-16.7434
🤦	-16.7434
🤪	-16.7434
🤲	-16.7434
🥰	-16.7434
🦂	-16.7434
🧐	-16.7434
Ë	-16.7434
ζ	-16.7434
Ę	-16.7434
Е	-16.7434
ھ	-16.7434
ಠ	-16.7434
፪	-16.7434
᮰	-16.7434
효	-16.7434
ൃ	-16.7434
᭠	-16.7434
ᮩ	-16.7434
唯	-16.7434
字	-16.7434
疆	-16.7434
维	-16.7434
茶	-16.7434
转	-16.7434
错	-16.7434
闻	-16.7434
🔺	-16.7434
ご	-16.7434
ざ	-16.7434
は	-16.7434
ョ	-16.7434
化	-16.7434
检	-16.7434
消	-16.7434
紅	-16.7434
运	-16.7434
̣	-16.7434
ན	-16.7434
ྒ	-16.7434
章	-16.7434
