{
  "version": "1.0",
  "truncation": null,
  "padding": null,
  "added_tokens": [
    {
      "id": 0,
      "content": "[UNK]",
      "single_word": false,
      "lstrip": false,
      "rstrip": false,
      "normalized": false,
      "special": true
    },
    {
      "id": 1,
      "content": "[CLS]",
      "single_word": false,
      "lstrip": false,
      "rstrip": false,
      "normalized": false,
      "special": true
    },
    {
      "id": 2,
      "content": "[SEP]",
      "single_word": false,
      "lstrip": false,
      "rstrip": false,
      "normalized": false,
      "special": true
    },
    {
      "id": 3,
      "content": "[PAD]",
      "single_word": false,
      "lstrip": false,
      "rstrip": false,
      "normalized": false,
      "special": true
    },
    {
      "id": 4,
      "content": "[MASK]",
      "single_word": false,
      "lstrip": false,
      "rstrip": false,
      "normalized": false,
      "special": true
    }
  ],
  "normalizer": {
    "type": "Sequence",
    "normalizers": [
      {
        "type": "NFKC"
      },
      {
        "type": "Lowercase"
      }
    ]
  },
  "pre_tokenizer": {
    "type": "Whitespace"
  },
  "post_processor": null,
  "decoder": {
    "type": "WordPiece",
    "prefix": "##",
    "cleanup": true
  },
  "model": {
    "type": "WordPiece",
    "unk_token": "[UNK]",
    "continuing_subword_prefix": "##",
    "max_input_chars_per_word": 100,
    "vocab": {
      "[UNK]": 0,
      "[CLS]": 1,
      "[SEP]": 2,
      "[PAD]": 3,
      "[MASK]": 4,
      "!": 5,
      "\"": 6,
      "#": 7,
      "$": 8,
      "%": 9,
      "&": 10,
      "'": 11,
      "(": 12,
      ")": 13,
      "*": 14,
      "+": 15,
      ",": 16,
      "-": 17,
      ".": 18,
      "/": 19,
      "0": 20,
      "1": 21,
      "2": 22,
      "3": 23,
      "4": 24,
      "5": 25,
      "6": 26,
      "7": 27,
      "8": 28,
      "9": 29,
      ":": 30,
      ";": 31,
      "<": 32,
      "=": 33,
      ">": 34,
      "?": 35,
      "@": 36,
      "[": 37,
      "\\": 38,
      "]": 39,
      "^": 40,
      "_": 41,
      "a": 42,
      "b": 43,
      "c": 44,
      "d": 45,
      "e": 46,
      "f": 47,
      "g": 48,
      "h": 49,
      "i": 50,
      "j": 51,
      "k": 52,
      "l": 53,
      "m": 54,
      "n": 55,
      "o": 56,
      "p": 57,
      "q": 58,
      "r": 59,
      "s": 60,
      "t": 61,
      "u": 62,
      "v": 63,
      "w": 64,
      "x": 65,
      "y": 66,
      "z": 67,
      "{": 68,
      "}": 69,
      "~": 70,
      "¡": 71,
      "¢": 72,
      "£": 73,
      "¤": 74,
      "¥": 75,
      "¦": 76,
      "§": 77,
      "©": 78,
      "¬": 79,
      "®": 80,
      "°": 81,
      "±": 82,
      "¶": 83,
      "·": 84,
      "¿": 85,
      "×": 86,
      "ß": 87,
      "à": 88,
      "á": 89,
      "â": 90,
      "ã": 91,
      "ä": 92,
      "å": 93,
      "æ": 94,
      "ç": 95,
      "è": 96,
      "é": 97,
      "ê": 98,
      "ë": 99,
      "ì": 100,
      "í": 101,
      "î": 102,
      "ï": 103,
      "ð": 104,
      "ñ": 105,
      "ò": 106,
      "ó": 107,
      "ô": 108,
      "õ": 109,
      "ö": 110,
      "÷": 111,
      "ø": 112,
      "ù": 113,
      "ú": 114,
      "û": 115,
      "ü": 116,
      "ý": 117,
      "þ": 118,
      "ÿ": 119,
      "ā": 120,
      "ă": 121,
      "ą": 122,
      "ć": 123,
      "ĉ": 124,
      "ċ": 125,
      "č": 126,
      "ē": 127,
      "ĕ": 128,
      "ė": 129,
      "ę": 130,
      "ě": 131,
      "ğ": 132,
      "ī": 133,
      "į": 134,
      "ı": 135,
      "ķ": 136,
      "ł": 137,
      "ń": 138,
      "ŋ": 139,
      "ō": 140,
      "ŏ": 141,
      "œ": 142,
      "ř": 143,
      "ś": 144,
      "ş": 145,
      "š": 146,
      "ť": 147,
      "ū": 148,
      "ů": 149,
      "ų": 150,
      "ż": 151,
      "ž": 152,
      "ƒ": 153,
      "ư": 154,
      "ǀ": 155,
      "ǁ": 156,
      "ǒ": 157,
      "ǔ": 158,
      "ȧ": 159,
      "ȩ": 160,
      "ȯ": 161,
      "ɑ": 162,
      "ɒ": 163,
      "ɔ": 164,
      "ə": 165,
      "ɛ": 166,
      "ɜ": 167,
      "ɡ": 168,
      "ɪ": 169,
      "ʁ": 170,
      "ʃ": 171,
      "ʈ": 172,
      "ʉ": 173,
      "ʊ": 174,
      "ʋ": 175,
      "ʌ": 176,
      "ʏ": 177,
      "ʒ": 178,
      "ʟ": 179,
      "ʻ": 180,
      "ʼ": 181,
      "ʿ": 182,
      "ˆ": 183,
      "ˈ": 184,
      "ˌ": 185,
      "ˎ": 186,
      "ː": 187,
      "ˑ": 188,
      "́": 189,
      "̃": 190,
      "̄": 191,
      "̆": 192,
      "̇": 193,
      "̈": 194,
      "̊": 195,
      "̍": 196,
      "̐": 197,
      "̕": 198,
      "̖": 199,
      "̠": 200,
      "̣": 201,
      "̥": 202,
      "̧": 203,
      "̪": 204,
      "̶": 205,
      "ά": 206,
      "ή": 207,
      "α": 208,
      "β": 209,
      "δ": 210,
      "ε": 211,
      "ζ": 212,
      "η": 213,
      "θ": 214,
      "ι": 215,
      "κ": 216,
      "μ": 217,
      "ν": 218,
      "ο": 219,
      "π": 220,
      "ρ": 221,
      "ς": 222,
      "σ": 223,
      "τ": 224,
      "φ": 225,
      "χ": 226,
      "ψ": 227,
      "ω": 228,
      "ό": 229,
      "а": 230,
      "б": 231,
      "в": 232,
      "г": 233,
      "д": 234,
      "е": 235,
      "ж": 236,
      "з": 237,
      "и": 238,
      "й": 239,
      "к": 240,
      "л": 241,
      "м": 242,
      "н": 243,
      "о": 244,
      "п": 245,
      "р": 246,
      "с": 247,
      "т": 248,
      "у": 249,
      "ф": 250,
      "х": 251,
      "ц": 252,
      "ч": 253,
      "ш": 254,
      "щ": 255,
      "ы": 256,
      "ь": 257,
      "э": 258,
      "ю": 259,
      "я": 260,
      "ё": 261,
      "є": 262,
      "і": 263,
      "ї": 264,
      "ј": 265,
      "ў": 266,
      "ҫ": 267,
      "ү": 268,
      "ә": 269,
      "ө": 270,
      "ա": 271,
      "ե": 272,
      "կ": 273,
      "հ": 274,
      "ն": 275,
      "ր": 276,
      "ւ": 277,
      "ַ": 278,
      "א": 279,
      "ב": 280,
      "ג": 281,
      "ד": 282,
      "ה": 283,
      "ו": 284,
      "ט": 285,
      "י": 286,
      "כ": 287,
      "ל": 288,
      "ם": 289,
      "מ": 290,
      "ן": 291,
      "נ": 292,
      "ס": 293,
      "ע": 294,
      "ף": 295,
      "פ": 296,
      "צ": 297,
      "ק": 298,
      "ר": 299,
      "ש": 300,
      "ת": 301,
      "ײ": 302,
      "؞": 303,
      "ء": 304,
      "آ": 305,
      "أ": 306,
      "إ": 307,
      "ئ": 308,
      "ا": 309,
      "ب": 310,
      "ة": 311,
      "ت": 312,
      "ج": 313,
      "ح": 314,
      "خ": 315,
      "د": 316,
      "ذ": 317,
      "ر": 318,
      "ز": 319,
      "س": 320,
      "ش": 321,
      "ص": 322,
      "ط": 323,
      "ع": 324,
      "غ": 325,
      "ف": 326,
      "ق": 327,
      "ك": 328,
      "ل": 329,
      "م": 330,
      "ن": 331,
      "ه": 332,
      "و": 333,
      "ى": 334,
      "ي": 335,
      "ً": 336,
      "ُ": 337,
      "ِ": 338,
      "٫": 339,
      "٬": 340,
      "ٰ": 341,
      "ٹ": 342,
      "ټ": 343,
      "پ": 344,
      "چ": 345,
      "ڌ": 346,
      "ک": 347,
      "ڪ": 348,
      "گ": 349,
      "ں": 350,
      "ڼ": 351,
      "ھ": 352,
      "ہ": 353,
      "ۂ": 354,
      "ۆ": 355,
      "ۇ": 356,
      "ی": 357,
      "۔": 358,
      "ە": 359,
      "ܐ": 360,
      "ܒ": 361,
      "ܕ": 362,
      "ܘ": 363,
      "ܚ": 364,
      "ܛ": 365,
      "ܟ": 366,
      "ܠ": 367,
      "ܣ": 368,
      "ܦ": 369,
      "ܪ": 370,
      "ܬ": 371,
      "ँ": 372,
      "ं": 373,
      "ः": 374,
      "ऄ": 375,
      "अ": 376,
      "आ": 377,
      "इ": 378,
      "ई": 379,
      "उ": 380,
      "ऊ": 381,
      "ऋ": 382,
      "ऌ": 383,
      "ऍ": 384,
      "ऎ": 385,
      "ए": 386,
      "ऐ": 387,
      "ऑ": 388,
      "ऒ": 389,
      "ओ": 390,
      "औ": 391,
      "क": 392,
      "ख": 393,
      "ग": 394,
      "घ": 395,
      "ङ": 396,
      "च": 397,
      "छ": 398,
      "ज": 399,
      "झ": 400,
      "ञ": 401,
      "ट": 402,
      "ठ": 403,
      "ड": 404,
      "ढ": 405,
      "ण": 406,
      "त": 407,
      "थ": 408,
      "द": 409,
      "ध": 410,
      "न": 411,
      "ऩ": 412,
      "प": 413,
      "फ": 414,
      "ब": 415,
      "भ": 416,
      "म": 417,
      "य": 418,
      "र": 419,
      "ऱ": 420,
      "ल": 421,
      "ळ": 422,
      "ऴ": 423,
      "व": 424,
      "श": 425,
      "ष": 426,
      "स": 427,
      "ह": 428,
      "ऺ": 429,
      "ऻ": 430,
      "़": 431,
      "ऽ": 432,
      "ा": 433,
      "ि": 434,
      "ी": 435,
      "ु": 436,
      "ू": 437,
      "ृ": 438,
      "ॄ": 439,
      "ॅ": 440,
      "ॆ": 441,
      "े": 442,
      "ै": 443,
      "ॉ": 444,
      "ॊ": 445,
      "ो": 446,
      "ौ": 447,
      "्": 448,
      "ॐ": 449,
      "॑": 450,
      "॒": 451,
      "॓": 452,
      "॔": 453,
      "ॠ": 454,
      "ॡ": 455,
      "ॢ": 456,
      "।": 457,
      "॥": 458,
      "०": 459,
      "१": 460,
      "२": 461,
      "३": 462,
      "४": 463,
      "५": 464,
      "६": 465,
      "७": 466,
      "८": 467,
      "९": 468,
      "॰": 469,
      "ॱ": 470,
      "ॵ": 471,
      "ॺ": 472,
      "ॼ": 473,
      "ॾ": 474,
      "ॿ": 475,
      "ং": 476,
      "আ": 477,
      "ই": 478,
      "উ": 479,
      "এ": 480,
      "ক": 481,
      "খ": 482,
      "গ": 483,
      "ঘ": 484,
      "চ": 485,
      "ছ": 486,
      "জ": 487,
      "ট": 488,
      "ঠ": 489,
      "ড": 490,
      "ঢ": 491,
      "ণ": 492,
      "ত": 493,
      "থ": 494,
      "দ": 495,
      "ধ": 496,
      "ন": 497,
      "প": 498,
      "ব": 499,
      "ম": 500,
      "য": 501,
      "র": 502,
      "ল": 503,
      "ষ": 504,
      "স": 505,
      "হ": 506,
      "়": 507,
      "া": 508,
      "ি": 509,
      "ী": 510,
      "ু": 511,
      "ৃ": 512,
      "ে": 513,
      "ো": 514,
      "্": 515,
      "০": 516,
      "৩": 517,
      "৭": 518,
      "ৰ": 519,
      "ৱ": 520,
      "৷": 521,
      "ਂ": 522,
      "ਅ": 523,
      "ਇ": 524,
      "ਊ": 525,
      "ਏ": 526,
      "ਕ": 527,
      "ਖ": 528,
      "ਗ": 529,
      "ਜ": 530,
      "ਟ": 531,
      "ਡ": 532,
      "ਣ": 533,
      "ਤ": 534,
      "ਦ": 535,
      "ਨ": 536,
      "ਪ": 537,
      "ਬ": 538,
      "ਮ": 539,
      "ਰ": 540,
      "ਲ": 541,
      "ਸ": 542,
      "਼": 543,
      "ਾ": 544,
      "ਿ": 545,
      "ੀ": 546,
      "ੁ": 547,
      "ੂ": 548,
      "ੇ": 549,
      "ੋ": 550,
      "੍": 551,
      "ੰ": 552,
      "ੱ": 553,
      "ં": 554,
      "ઃ": 555,
      "અ": 556,
      "આ": 557,
      "ઈ": 558,
      "ઉ": 559,
      "એ": 560,
      "ઓ": 561,
      "ક": 562,
      "ખ": 563,
      "ગ": 564,
      "ચ": 565,
      "છ": 566,
      "જ": 567,
      "ઝ": 568,
      "ઞ": 569,
      "ટ": 570,
      "ઠ": 571,
      "ડ": 572,
      "ણ": 573,
      "ત": 574,
      "થ": 575,
      "દ": 576,
      "ધ": 577,
      "ન": 578,
      "પ": 579,
      "ફ": 580,
      "બ": 581,
      "ભ": 582,
      "મ": 583,
      "ય": 584,
      "ર": 585,
      "લ": 586,
      "ળ": 587,
      "વ": 588,
      "શ": 589,
      "ષ": 590,
      "સ": 591,
      "હ": 592,
      "઼": 593,
      "ા": 594,
      "િ": 595,
      "ી": 596,
      "ુ": 597,
      "ૂ": 598,
      "ૃ": 599,
      "ે": 600,
      "ો": 601,
      "્": 602,
      "ૐ": 603,
      "ૠ": 604,
      "૦": 605,
      "૧": 606,
      "૨": 607,
      "૩": 608,
      "૪": 609,
      "૫": 610,
      "૬": 611,
      "૭": 612,
      "૮": 613,
      "૯": 614,
      "ଃ": 615,
      "ଆ": 616,
      "ଓ": 617,
      "କ": 618,
      "ଖ": 619,
      "ଡ": 620,
      "ତ": 621,
      "ପ": 622,
      "ଭ": 623,
      "ର": 624,
      "ଲ": 625,
      "଼": 626,
      "ା": 627,
      "ି": 628,
      "େ": 629,
      "୍": 630,
      "ୟ": 631,
      "அ": 632,
      "ஆ": 633,
      "இ": 634,
      "உ": 635,
      "எ": 636,
      "ஐ": 637,
      "க": 638,
      "ச": 639,
      "ஜ": 640,
      "ட": 641,
      "ண": 642,
      "த": 643,
      "ந": 644,
      "ன": 645,
      "ப": 646,
      "ம": 647,
      "ய": 648,
      "ர": 649,
      "ற": 650,
      "ல": 651,
      "ள": 652,
      "ழ": 653,
      "வ": 654,
      "ஶ": 655,
      "ஷ": 656,
      "ஸ": 657,
      "ஹ": 658,
      "ா": 659,
      "ி": 660,
      "ீ": 661,
      "ு": 662,
      "ூ": 663,
      "ெ": 664,
      "ே": 665,
      "ை": 666,
      "ொ": 667,
      "ோ": 668,
      "்": 669,
      "ం": 670,
      "అ": 671,
      "ఉ": 672,
      "ఎ": 673,
      "ఓ": 674,
      "క": 675,
      "చ": 676,
      "జ": 677,
      "డ": 678,
      "త": 679,
      "ద": 680,
      "ధ": 681,
      "న": 682,
      "ప": 683,
      "ఫ": 684,
      "భ": 685,
      "మ": 686,
      "య": 687,
      "ర": 688,
      "ల": 689,
      "వ": 690,
      "శ": 691,
      "ష": 692,
      "స": 693,
      "హ": 694,
      "ా": 695,
      "ి": 696,
      "ు": 697,
      "ె": 698,
      "ే": 699,
      "ై": 700,
      "ో": 701,
      "్": 702,
      "ಂ": 703,
      "ಃ": 704,
      "ಅ": 705,
      "ಇ": 706,
      "ಉ": 707,
      "ಎ": 708,
      "ಕ": 709,
      "ಗ": 710,
      "ಚ": 711,
      "ಜ": 712,
      "ಟ": 713,
      "ಠ": 714,
      "ಡ": 715,
      "ತ": 716,
      "ದ": 717,
      "ನ": 718,
      "ಪ": 719,
      "ಬ": 720,
      "ಭ": 721,
      "ಮ": 722,
      "ಯ": 723,
      "ರ": 724,
      "ಲ": 725,
      "ಳ": 726,
      "ವ": 727,
      "ಶ": 728,
      "ಸ": 729,
      "ಹ": 730,
      "ಾ": 731,
      "ಿ": 732,
      "ೀ": 733,
      "ು": 734,
      "ೂ": 735,
      "ೃ": 736,
      "ೆ": 737,
      "ೇ": 738,
      "ೊ": 739,
      "ೋ": 740,
      "್": 741,
      "೦": 742,
      "೧": 743,
      "೨": 744,
      "೩": 745,
      "೪": 746,
      "ೲ": 747,
      "ം": 748,
      "അ": 749,
      "ആ": 750,
      "ഇ": 751,
      "ഈ": 752,
      "ഉ": 753,
      "എ": 754,
      "ക": 755,
      "ഖ": 756,
      "ഗ": 757,
      "ങ": 758,
      "ച": 759,
      "ഛ": 760,
      "ജ": 761,
      "ഞ": 762,
      "ട": 763,
      "ഠ": 764,
      "ണ": 765,
      "ത": 766,
      "ഥ": 767,
      "ദ": 768,
      "ധ": 769,
      "ന": 770,
      "പ": 771,
      "ബ": 772,
      "ഭ": 773,
      "മ": 774,
      "യ": 775,
      "ര": 776,
      "റ": 777,
      "ല": 778,
      "ള": 779,
      "ഴ": 780,
      "വ": 781,
      "ശ": 782,
      "ഷ": 783,
      "സ": 784,
      "ഹ": 785,
      "ാ": 786,
      "ി": 787,
      "ീ": 788,
      "ു": 789,
      "ൂ": 790,
      "ൃ": 791,
      "െ": 792,
      "േ": 793,
      "ൈ": 794,
      "ൊ": 795,
      "ോ": 796,
      "്": 797,
      "ൻ": 798,
      "ർ": 799,
      "ൽ": 800,
      "ൾ": 801,
      "ක": 802,
      "ග": 803,
      "ත": 804,
      "ද": 805,
      "න": 806,
      "ප": 807,
      "ම": 808,
      "ය": 809,
      "ල": 810,
      "ව": 811,
      "ශ": 812,
      "ස": 813,
      "්": 814,
      "ා": 815,
      "ි": 816,
      "ො": 817,
      "ค": 818,
      "ง": 819,
      "ด": 820,
      "ต": 821,
      "น": 822,
      "บ": 823,
      "พ": 824,
      "ฟ": 825,
      "ม": 826,
      "ร": 827,
      "ห": 828,
      "อ": 829,
      "ฮ": 830,
      "ั": 831,
      "า": 832,
      "ิ": 833,
      "ี": 834,
      "เ": 835,
      "โ": 836,
      "่": 837,
      "้": 838,
      "་": 839,
      "།": 840,
      "༔": 841,
      "༡": 842,
      "༣": 843,
      "༨": 844,
      "ཁ": 845,
      "ག": 846,
      "ང": 847,
      "ཊ": 848,
      "ཐ": 849,
      "ན": 850,
      "པ": 851,
      "བ": 852,
      "མ": 853,
      "ཚ": 854,
      "ཝ": 855,
      "ཟ": 856,
      "ཡ": 857,
      "ལ": 858,
      "ཥ": 859,
      "ས": 860,
      "ཧ": 861,
      "ཱ": 862,
      "ི": 863,
      "ུ": 864,
      "ྀ": 865,
      "ྒ": 866,
      "ྥ": 867,
      "ྨ": 868,
      "ྭ": 869,
      "ྱ": 870,
      "ྲ": 871,
      "ླ": 872,
      "၊": 873,
      "ა": 874,
      "გ": 875,
      "დ": 876,
      "ე": 877,
      "ვ": 878,
      "ზ": 879,
      "თ": 880,
      "ი": 881,
      "ლ": 882,
      "ნ": 883,
      "რ": 884,
      "ს": 885,
      "უ": 886,
      "ც": 887,
      "ჱ": 888,
      "ᄉ": 889,
      "ᄌ": 890,
      "ᅩ": 891,
      "ᆬ": 892,
      "ሉ": 893,
      "ሕ": 894,
      "ሩ": 895,
      "በ": 896,
      "ብ": 897,
      "ቮ": 898,
      "እ": 899,
      "ኳ": 900,
      "ዝ": 901,
      "ገ": 902,
      "ጻ": 903,
      "ፂ": 904,
      "ፃ": 905,
      "፪": 906,
      "ᒃ": 907,
      "ᒄ": 908,
      "ᒎ": 909,
      "ᓚ": 910,
      "ᗢ": 911,
      "ᘏ": 912,
      "ᚨ": 913,
      "ᚩ": 914,
      "ᚻ": 915,
      "ᚾ": 916,
      "ᛁ": 917,
      "ᛋ": 918,
      "ᛏ": 919,
      "ᛖ": 920,
      "ᛗ": 921,
      "ᛚ": 922,
      "ᛞ": 923,
      "᛫": 924,
      "ᭅ": 925,
      "᭠": 926,
      "᭭": 927,
      "ᮩ": 928,
      "᮰": 929,
      "ᱧ": 930,
      "᳒": 931,
      "᳖": 932,
      "᳘": 933,
      "᳚": 934,
      "ᳪ": 935,
      "ᳬ": 936,
      "᳭": 937,
      "ᳲ": 938,
      "ᴀ": 939,
      "ᴇ": 940,
      "ḍ": 941,
      "ḏ": 942,
      "ḥ": 943,
      "ḩ": 944,
      "ṁ": 945,
      "ṃ": 946,
      "ṅ": 947,
      "ṇ": 948,
      "ṛ": 949,
      "ṝ": 950,
      "ṣ": 951,
      "ṭ": 952,
      "ắ": 953,
      "ế": 954,
      "ệ": 955,
      "ủ": 956,
      "ἀ": 957,
      "ὁ": 958,
      "ὕ": 959,
      "ὸ": 960,
      "ῖ": 961,
      "‐": 962,
      "‒": 963,
      "―": 964,
      "‖": 965,
      "†": 966,
      "‡": 967,
      "•": 968,
      "‰": 969,
      "′": 970,
      "‹": 971,
      "›": 972,
      "※": 973,
      "⁄": 974,
      "₩": 975,
      "€": 976,
      "₹": 977,
      "⃣": 978,
      "←": 979,
      "↑": 980,
      "→": 981,
      "↓": 982,
      "↔": 983,
      "↕": 984,
      "↗": 985,
      "↩": 986,
      "↲": 987,
      "⇄": 988,
      "⇏": 989,
      "⇒": 990,
      "⇔": 991,
      "∅": 992,
      "∆": 993,
      "∈": 994,
      "−": 995,
      "∕": 996,
      "∖": 997,
      "∙": 998,
      "√": 999,
      "∝": 1000,
      "∠": 1001,
      "∩": 1002,
      "∫": 1003,
      "∴": 1004,
      "∵": 1005,
      "≈": 1006,
      "≍": 1007,
      "≠": 1008,
      "≡": 1009,
      "≤": 1010,
      "≥": 1011,
      "≦": 1012,
      "⊂": 1013,
      "⊃": 1014,
      "⊕": 1015,
      "⋆": 1016,
      "⋙": 1017,
      "⏳": 1018,
      "▀": 1019,
      "▁": 1020,
      "■": 1021,
      "□": 1022,
      "▪": 1023,
      "▲": 1024,
      "△": 1025,
      "▶": 1026,
      "▷": 1027,
      "►": 1028,
      "▼": 1029,
      "◄": 1030,
      "◆": 1031,
      "◇": 1032,
      "◉": 1033,
      "◊": 1034,
      "◌": 1035,
      "◎": 1036,
      "●": 1037,
      "◦": 1038,
      "☀": 1039,
      "☁": 1040,
      "★": 1041,
      "☆": 1042,
      "☑": 1043,
      "☘": 1044,
      "☝": 1045,
      "☰": 1046,
      "☸": 1047,
      "☹": 1048,
      "☺": 1049,
      "♀": 1050,
      "♂": 1051,
      "♈": 1052,
      "♉": 1053,
      "♡": 1054,
      "♣": 1055,
      "♥": 1056,
      "♦": 1057,
      "♫": 1058,
      "♻": 1059,
      "⚏": 1060,
      "⚕": 1061,
      "⚡": 1062,
      "⚪": 1063,
      "⚫": 1064,
      "⛅": 1065,
      "⛈": 1066,
      "⛳": 1067,
      "⛹": 1068,
      "✅": 1069,
      "✌": 1070,
      "✍": 1071,
      "✒": 1072,
      "✓": 1073,
      "✔": 1074,
      "✖": 1075,
      "✥": 1076,
      "✦": 1077,
      "✧": 1078,
      "✨": 1079,
      "✪": 1080,
      "✳": 1081,
      "✴": 1082,
      "✹": 1083,
      "✺": 1084,
      "✼": 1085,
      "✿": 1086,
      "❁": 1087,
      "❇": 1088,
      "❌": 1089,
      "❍": 1090,
      "❑": 1091,
      "❗": 1092,
      "❣": 1093,
      "❤": 1094,
      "❯": 1095,
      "➖": 1096,
      "➛": 1097,
      "➜": 1098,
      "➞": 1099,
      "➡": 1100,
      "➢": 1101,
      "➤": 1102,
      "➥": 1103,
      "➦": 1104,
      "➧": 1105,
      "➨": 1106,
      "⟶": 1107,
      "⟷": 1108,
      "⠀": 1109,
      "⦁": 1110,
      "⭐": 1111,
      "⭕": 1112,
      "、": 1113,
      "。": 1114,
      "〈": 1115,
      "《": 1116,
      "》": 1117,
      "「": 1118,
      "」": 1119,
      "【": 1120,
      "】": 1121,
      "あ": 1122,
      "い": 1123,
      "う": 1124,
      "お": 1125,
      "か": 1126,
      "が": 1127,
      "き": 1128,
      "く": 1129,
      "け": 1130,
      "げ": 1131,
      "ご": 1132,
      "さ": 1133,
      "ざ": 1134,
      "し": 1135,
      "す": 1136,
      "た": 1137,
      "だ": 1138,
      "ち": 1139,
      "っ": 1140,
      "つ": 1141,
      "て": 1142,
      "で": 1143,
      "と": 1144,
      "ど": 1145,
      "な": 1146,
      "に": 1147,
      "の": 1148,
      "は": 1149,
      "ひ": 1150,
      "ま": 1151,
      "み": 1152,
      "む": 1153,
      "め": 1154,
      "も": 1155,
      "ゃ": 1156,
      "や": 1157,
      "よ": 1158,
      "ら": 1159,
      "る": 1160,
      "れ": 1161,
      "を": 1162,
      "ん": 1163,
      "ア": 1164,
      "ィ": 1165,
      "イ": 1166,
      "エ": 1167,
      "オ": 1168,
      "ク": 1169,
      "グ": 1170,
      "コ": 1171,
      "シ": 1172,
      "ジ": 1173,
      "ス": 1174,
      "ズ": 1175,
      "セ": 1176,
      "ゼ": 1177,
      "ソ": 1178,
      "タ": 1179,
      "チ": 1180,
      "ッ": 1181,
      "ツ": 1182,
      "テ": 1183,
      "デ": 1184,
      "ト": 1185,
      "ナ": 1186,
      "ネ": 1187,
      "ノ": 1188,
      "バ": 1189,
      "パ": 1190,
      "ヒ": 1191,
      "ピ": 1192,
      "プ": 1193,
      "ボ": 1194,
      "ポ": 1195,
      "マ": 1196,
      "ャ": 1197,
      "ョ": 1198,
      "ラ": 1199,
      "リ": 1200,
      "ル": 1201,
      "ロ": 1202,
      "ン": 1203,
      "・": 1204,
      "ー": 1205,
      "一": 1206,
      "七": 1207,
      "三": 1208,
      "上": 1209,
      "不": 1210,
      "与": 1211,
      "世": 1212,
      "中": 1213,
      "为": 1214,
      "义": 1215,
      "习": 1216,
      "乱": 1217,
      "了": 1218,
      "事": 1219,
      "二": 1220,
      "于": 1221,
      "互": 1222,
      "五": 1223,
      "亦": 1224,
      "京": 1225,
      "亲": 1226,
      "人": 1227,
      "介": 1228,
      "从": 1229,
      "仕": 1230,
      "代": 1231,
      "份": 1232,
      "休": 1233,
      "伟": 1234,
      "位": 1235,
      "何": 1236,
      "余": 1237,
      "作": 1238,
      "你": 1239,
      "使": 1240,
      "依": 1241,
      "修": 1242,
      "個": 1243,
      "倒": 1244,
      "健": 1245,
      "僕": 1246,
      "元": 1247,
      "入": 1248,
      "全": 1249,
      "八": 1250,
      "六": 1251,
      "其": 1252,
      "具": 1253,
      "円": 1254,
      "册": 1255,
      "决": 1256,
      "出": 1257,
      "切": 1258,
      "划": 1259,
      "列": 1260,
      "利": 1261,
      "别": 1262,
      "到": 1263,
      "副": 1264,
      "加": 1265,
      "助": 1266,
      "化": 1267,
      "北": 1268,
      "十": 1269,
      "卍": 1270,
      "卐": 1271,
      "南": 1272,
      "印": 1273,
      "叉": 1274,
      "反": 1275,
      "发": 1276,
      "口": 1277,
      "句": 1278,
      "可": 1279,
      "各": 1280,
      "合": 1281,
      "同": 1282,
      "名": 1283,
      "后": 1284,
      "吗": 1285,
      "吥": 1286,
      "吸": 1287,
      "告": 1288,
      "员": 1289,
      "和": 1290,
      "咒": 1291,
      "哉": 1292,
      "哥": 1293,
      "哲": 1294,
      "哷": 1295,
      "唯": 1296,
      "喝": 1297,
      "嘅": 1298,
      "器": 1299,
      "四": 1300,
      "因": 1301,
      "図": 1302,
      "固": 1303,
      "国": 1304,
      "國": 1305,
      "地": 1306,
      "域": 1307,
      "堂": 1308,
      "報": 1309,
      "境": 1310,
      "增": 1311,
      "声": 1312,
      "处": 1313,
      "复": 1314,
      "外": 1315,
      "多": 1316,
      "夜": 1317,
      "夢": 1318,
      "大": 1319,
      "天": 1320,
      "奖": 1321,
      "奪": 1322,
      "好": 1323,
      "如": 1324,
      "威": 1325,
      "婆": 1326,
      "孕": 1327,
      "字": 1328,
      "存": 1329,
      "学": 1330,
      "安": 1331,
      "官": 1332,
      "定": 1333,
      "宦": 1334,
      "寝": 1335,
      "尊": 1336,
      "小": 1337,
      "少": 1338,
      "尔": 1339,
      "尼": 1340,
      "属": 1341,
      "岂": 1342,
      "工": 1343,
      "师": 1344,
      "席": 1345,
      "常": 1346,
      "年": 1347,
      "广": 1348,
      "应": 1349,
      "废": 1350,
      "度": 1351,
      "康": 1352,
      "廬": 1353,
      "异": 1354,
      "引": 1355,
      "弥": 1356,
      "当": 1357,
      "影": 1358,
      "彼": 1359,
      "得": 1360,
      "徹": 1361,
      "忘": 1362,
      "念": 1363,
      "性": 1364,
      "惑": 1365,
      "意": 1366,
      "愛": 1367,
      "感": 1368,
      "憶": 1369,
      "成": 1370,
      "我": 1371,
      "戻": 1372,
      "所": 1373,
      "执": 1374,
      "投": 1375,
      "摩": 1376,
      "收": 1377,
      "改": 1378,
      "政": 1379,
      "故": 1380,
      "效": 1381,
      "整": 1382,
      "文": 1383,
      "新": 1384,
      "方": 1385,
      "无": 1386,
      "日": 1387,
      "时": 1388,
      "星": 1389,
      "是": 1390,
      "显": 1391,
      "普": 1392,
      "晴": 1393,
      "更": 1394,
      "書": 1395,
      "最": 1396,
      "月": 1397,
      "有": 1398,
      "朝": 1399,
      "期": 1400,
      "杂": 1401,
      "東": 1402,
      "果": 1403,
      "某": 1404,
      "染": 1405,
      "查": 1406,
      "栄": 1407,
      "格": 1408,
      "械": 1409,
      "梵": 1410,
      "检": 1411,
      "模": 1412,
      "権": 1413,
      "機": 1414,
      "款": 1415,
      "止": 1416,
      "此": 1417,
      "母": 1418,
      "比": 1419,
      "民": 1420,
      "氣": 1421,
      "永": 1422,
      "求": 1423,
      "汇": 1424,
      "没": 1425,
      "泊": 1426,
      "流": 1427,
      "消": 1428,
      "添": 1429,
      "灭": 1430,
      "然": 1431,
      "熟": 1432,
      "父": 1433,
      "牙": 1434,
      "猫": 1435,
      "现": 1436,
      "班": 1437,
      "球": 1438,
      "理": 1439,
      "生": 1440,
      "用": 1441,
      "由": 1442,
      "疆": 1443,
      "痛": 1444,
      "発": 1445,
      "發": 1446,
      "白": 1447,
      "的": 1448,
      "益": 1449,
      "直": 1450,
      "相": 1451,
      "知": 1452,
      "研": 1453,
      "破": 1454,
      "祖": 1455,
      "离": 1456,
      "秘": 1457,
      "程": 1458,
      "稱": 1459,
      "究": 1460,
      "立": 1461,
      "章": 1462,
      "第": 1463,
      "答": 1464,
      "简": 1465,
      "类": 1466,
      "紅": 1467,
      "素": 1468,
      "終": 1469,
      "続": 1470,
      "網": 1471,
      "繁": 1472,
      "维": 1473,
      "者": 1474,
      "而": 1475,
      "肉": 1476,
      "能": 1477,
      "自": 1478,
      "花": 1479,
      "若": 1480,
      "英": 1481,
      "茶": 1482,
      "葬": 1483,
      "薩": 1484,
      "處": 1485,
      "蛟": 1486,
      "蝶": 1487,
      "衆": 1488,
      "行": 1489,
      "表": 1490,
      "西": 1491,
      "见": 1492,
      "观": 1493,
      "视": 1494,
      "觉": 1495,
      "解": 1496,
      "言": 1497,
      "記": 1498,
      "訳": 1499,
      "試": 1500,
      "語": 1501,
      "論": 1502,
      "讓": 1503,
      "计": 1504,
      "讨": 1505,
      "许": 1506,
      "论": 1507,
      "话": 1508,
      "语": 1509,
      "说": 1510,
      "诸": 1511,
      "贪": 1512,
      "越": 1513,
      "足": 1514,
      "身": 1515,
      "車": 1516,
      "转": 1517,
      "辦": 1518,
      "达": 1519,
      "过": 1520,
      "运": 1521,
      "返": 1522,
      "追": 1523,
      "通": 1524,
      "逝": 1525,
      "進": 1526,
      "遣": 1527,
      "那": 1528,
      "都": 1529,
      "释": 1530,
      "量": 1531,
      "金": 1532,
      "鉄": 1533,
      "错": 1534,
      "长": 1535,
      "間": 1536,
      "间": 1537,
      "闻": 1538,
      "阿": 1539,
      "除": 1540,
      "陸": 1541,
      "障": 1542,
      "雨": 1543,
      "電": 1544,
      "靈": 1545,
      "非": 1546,
      "面": 1547,
      "韩": 1548,
      "音": 1549,
      "響": 1550,
      "願": 1551,
      "页": 1552,
      "须": 1553,
      "颂": 1554,
      "飞": 1555,
      "飲": 1556,
      "首": 1557,
      "龙": 1558,
      "꣡": 1559,
      "꣢": 1560,
      "꣣": 1561,
      "꣫": 1562,
      "꣯": 1563,
      "ꣲ": 1564,
      "ꣳ": 1565,
      "가": 1566,
      "간": 1567,
      "감": 1568,
      "개": 1569,
      "게": 1570,
      "고": 1571,
      "공": 1572,
      "과": 1573,
      "교": 1574,
      "국": 1575,
      "금": 1576,
      "급": 1577,
      "기": 1578,
      "깨": 1579,
      "나": 1580,
      "낱": 1581,
      "냐": 1582,
      "녹": 1583,
      "는": 1584,
      "니": 1585,
      "다": 1586,
      "달": 1587,
      "대": 1588,
      "더": 1589,
      "동": 1590,
      "두": 1591,
      "듬": 1592,
      "따": 1593,
      "뜨": 1594,
      "라": 1595,
      "락": 1596,
      "레": 1597,
      "력": 1598,
      "로": 1599,
      "름": 1600,
      "리": 1601,
      "만": 1602,
      "말": 1603,
      "망": 1604,
      "맵": 1605,
      "몸": 1606,
      "못": 1607,
      "뭐": 1608,
      "민": 1609,
      "받": 1610,
      "발": 1611,
      "백": 1612,
      "번": 1613,
      "법": 1614,
      "봇": 1615,
      "브": 1616,
      "비": 1617,
      "사": 1618,
      "산": 1619,
      "상": 1620,
      "서": 1621,
      "성": 1622,
      "세": 1623,
      "수": 1624,
      "술": 1625,
      "쉬": 1626,
      "슈": 1627,
      "스": 1628,
      "승": 1629,
      "시": 1630,
      "신": 1631,
      "아": 1632,
      "어": 1633,
      "없": 1634,
      "에": 1635,
      "염": 1636,
      "영": 1637,
      "예": 1638,
      "완": 1639,
      "외": 1640,
      "요": 1641,
      "우": 1642,
      "운": 1643,
      "월": 1644,
      "위": 1645,
      "을": 1646,
      "음": 1647,
      "의": 1648,
      "이": 1649,
      "인": 1650,
      "임": 1651,
      "입": 1652,
      "있": 1653,
      "자": 1654,
      "적": 1655,
      "전": 1656,
      "절": 1657,
      "정": 1658,
      "조": 1659,
      "좀": 1660,
      "주": 1661,
      "중": 1662,
      "증": 1663,
      "지": 1664,
      "째": 1665,
      "청": 1666,
      "크": 1667,
      "키": 1668,
      "탄": 1669,
      "탑": 1670,
      "터": 1671,
      "트": 1672,
      "특": 1673,
      "팅": 1674,
      "파": 1675,
      "하": 1676,
      "학": 1677,
      "한": 1678,
      "함": 1679,
      "합": 1680,
      "허": 1681,
      "효": 1682,
      "히": 1683,
      "힌": 1684,
      "힘": 1685,
      "︎": 1686,
      "️": 1687,
      "�": 1688,
      "𑆤": 1689,
      "𑌏": 1690,
      "𑌥": 1691,
      "𑌫": 1692,
      "𑌮": 1693,
      "𑌸": 1694,
      "𑐎": 1695,
      "𑐕": 1696,
      "𑐫": 1697,
      "𑐮": 1698,
      "𑐰": 1699,
      "𑐴": 1700,
      "𑐵": 1701,
      "𑑀": 1702,
      "𑑂": 1703,
      "𑑄": 1704,
      "𑑅": 1705,
      "🅰": 1706,
      "🇦": 1707,
      "🇮": 1708,
      "🇱": 1709,
      "🇳": 1710,
      "🇵": 1711,
      "🇸": 1712,
      "🇹": 1713,
      "🇺": 1714,
      "🌀": 1715,
      "🌃": 1716,
      "🌄": 1717,
      "🌅": 1718,
      "🌈": 1719,
      "🌉": 1720,
      "🌍": 1721,
      "🌎": 1722,
      "🌏": 1723,
      "🌖": 1724,
      "🌙": 1725,
      "🌛": 1726,
      "🌝": 1727,
      "🌞": 1728,
      "🌟": 1729,
      "🌠": 1730,
      "🌰": 1731,
      "🌱": 1732,
      "🌴": 1733,
      "🌷": 1734,
      "🌸": 1735,
      "🌹": 1736,
      "🌺": 1737,
      "🌻": 1738,
      "🌼": 1739,
      "🌿": 1740,
      "🍀": 1741,
      "🍁": 1742,
      "🍃": 1743,
      "🍋": 1744,
      "🍥": 1745,
      "🍾": 1746,
      "🎂": 1747,
      "🎃": 1748,
      "🎉": 1749,
      "🎊": 1750,
      "🎋": 1751,
      "🎎": 1752,
      "🎓": 1753,
      "🎖": 1754,
      "🎤": 1755,
      "🎯": 1756,
      "🎵": 1757,
      "🎶": 1758,
      "🎼": 1759,
      "🏀": 1760,
      "🏃": 1761,
      "🏏": 1762,
      "🏠": 1763,
      "🏮": 1764,
      "🏷": 1765,
      "🏹": 1766,
      "🏻": 1767,
      "🏽": 1768,
      "🐕": 1769,
      "🐙": 1770,
      "🐯": 1771,
      "👆": 1772,
      "👇": 1773,
      "👈": 1774,
      "👉": 1775,
      "👌": 1776,
      "👍": 1777,
      "👏": 1778,
      "👞": 1779,
      "👣": 1780,
      "👦": 1781,
      "👧": 1782,
      "👨": 1783,
      "👩": 1784,
      "👫": 1785,
      "👱": 1786,
      "👴": 1787,
      "💄": 1788,
      "💏": 1789,
      "💐": 1790,
      "💑": 1791,
      "💓": 1792,
      "💔": 1793,
      "💕": 1794,
      "💖": 1795,
      "💗": 1796,
      "💘": 1797,
      "💚": 1798,
      "💛": 1799,
      "💝": 1800,
      "💠": 1801,
      "💥": 1802,
      "💦": 1803,
      "💧": 1804,
      "💫": 1805,
      "💮": 1806,
      "💰": 1807,
      "💱": 1808,
      "💵": 1809,
      "📂": 1810,
      "📌": 1811,
      "📎": 1812,
      "📏": 1813,
      "📕": 1814,
      "📖": 1815,
      "📚": 1816,
      "📝": 1817,
      "📢": 1818,
      "📣": 1819,
      "📰": 1820,
      "📱": 1821,
      "📳": 1822,
      "📸": 1823,
      "📺": 1824,
      "🔅": 1825,
      "🔊": 1826,
      "🔍": 1827,
      "🔐": 1828,
      "🔔": 1829,
      "🔗": 1830,
      "🔟": 1831,
      "🔥": 1832,
      "🔰": 1833,
      "🔱": 1834,
      "🔶": 1835,
      "🔷": 1836,
      "🔸": 1837,
      "🔹": 1838,
      "🔺": 1839,
      "🔻": 1840,
      "🕉": 1841,
      "🕔": 1842,
      "🖊": 1843,
      "🖱": 1844,
      "🗃": 1845,
      "🗒": 1846,
      "🗣": 1847,
      "🗳": 1848,
      "😀": 1849,
      "😂": 1850,
      "😃": 1851,
      "😄": 1852,
      "😅": 1853,
      "😇": 1854,
      "😉": 1855,
      "😊": 1856,
      "😌": 1857,
      "😍": 1858,
      "😎": 1859,
      "😒": 1860,
      "😔": 1861,
      "😘": 1862,
      "😜": 1863,
      "😝": 1864,
      "😞": 1865,
      "😡": 1866,
      "😢": 1867,
      "😩": 1868,
      "😳": 1869,
      "🙁": 1870,
      "🙂": 1871,
      "🙅": 1872,
      "🙆": 1873,
      "🙌": 1874,
      "🙍": 1875,
      "🙎": 1876,
      "🙏": 1877,
      "🚑": 1878,
      "🚩": 1879,
      "🚷": 1880,
      "🛑": 1881,
      "🛡": 1882,
      "🤔": 1883,
      "🤗": 1884,
      "🤝": 1885,
      "🤦": 1886,
      "🤩": 1887,
      "🤪": 1888,
      "🤲": 1889,
      "🥀": 1890,
      "🥂": 1891,
      "🥇": 1892,
      "🥰": 1893,
      "🦂": 1894,
      "🧐": 1895,
      "🧜": 1896,
      "🩸": 1897,
      "🪔": 1898,
      "##र": 1899,
      "##भ": 1900,
      "##े": 1901,
      "##त": 1902,
      "##ु": 1903,
      "##ग": 1904,
      "##्": 1905,
      "##ब": 1906,
      "##ि": 1907,
      "##स": 1908,
      "##न": 1909,
      "##ं": 1910,
      "##ई": 1911,
      "##ा": 1912,
      "##व": 1913,
      "##ट": 1914,
      "##द": 1915,
      "##क": 1916,
      "##़": 1917,
      "##श": 1918,
      "##ओ": 1919,
      "##ण": 1920,
      "##य": 1921,
      "##ङ": 1922,
      "##च": 1923,
      "##ल": 1924,
      "##ड": 1925,
      "##म": 1926,
      "##ृ": 1927,
      "##प": 1928,
      "##ू": 1929,
      "##ष": 1930,
      "##ॉ": 1931,
      "##ह": 1932,
      "##ी": 1933,
      "##थ": 1934,
      "##ो": 1935,
      "##ऽ": 1936,
      "##ै": 1937,
      "##ः": 1938,
      "##ज": 1939,
      "##ञ": 1940,
      "##ध": 1941,
      "##इ": 1942,
      "##ढ": 1943,
      "##ौ": 1944,
      "##ॊ": 1945,
      "##छ": 1946,
      "##३": 1947,
      "##f": 1948,
      "##e": 1949,
      "##r": 1950,
      "##d": 1951,
      "##/": 1952,
      "##*": 1953,
      "##>": 1954,
      "##ख": 1955,
      "##ऩ": 1956,
      "##ऱ": 1957,
      "##w": 1958,
      "##b": 1959,
      "##a": 1960,
      "##ॆ": 1961,
      "##घ": 1962,
      "##॑": 1963,
      "##ए": 1964,
      "##i": 1965,
      "##m": 1966,
      "##n": 1967,
      "##s": 1968,
      "##o": 1969,
      "##४": 1970,
      "##१": 1971,
      "##l": 1972,
      "##अ": 1973,
      "##ठ": 1974,
      "##५": 1975,
      "##c": 1976,
      "##h": 1977,
      "##u": 1978,
      "##फ": 1979,
      "##ँ": 1980,
      "##॒": 1981,
      "##ॅ": 1982,
      "##೧": 1983,
      "##೨": 1984,
      "##७": 1985,
      "##t": 1986,
      "##8": 1987,
      "##ळ": 1988,
      "##꣢": 1989,
      "##आ": 1990,
      "##०": 1991,
      "##-": 1992,
      "##)": 1993,
      "##g": 1994,
      "##v": 1995,
      "##९": 1996,
      "##ഥ": 1997,
      "##മ": 1998,
      "##ാ": 1999,
      "##ക": 2000,
      "##ട": 2001,
      "##്": 2002,
      "##െ": 2003,
      "##ó": 2004,
      "##८": 2005,
      "##२": 2006,
      "##ര": 2007,
      "##യ": 2008,
      "##ോ": 2009,
      "##ഗ": 2010,
      "##ം": 2011,
      "##ꣳ": 2012,
      "##5": 2013,
      "##2": 2014,
      "##7": 2015,
      "##9": 2016,
      "##ம": 2017,
      "##ா": 2018,
      "##ப": 2019,
      "##ி": 2020,
      "##y": 2021,
      "##1": 2022,
      "##4": 2023,
      "##6": 2024,
      "##k": 2025,
      "##3": 2026,
      "##p": 2027,
      "##६": 2028,
      "##q": 2029,
      "##切": 2030,
      "##具": 2031,
      "##倒": 2032,
      "##义": 2033,
      "##ெ": 2034,
      "##ய": 2035,
      "##ல": 2036,
      "##த": 2037,
      "##ā": 2038,
      "##ḍ": 2039,
      "##ī": 2040,
      "##̃": 2041,
      "##ુ": 2042,
      "##ં": 2043,
      "##ಾ": 2044,
      "##ಮ": 2045,
      "##ॠ": 2046,
      "##ï": 2047,
      "##ॄ": 2048,
      "##झ": 2049,
      "##å": 2050,
      "##ॐ": 2051,
      "##્": 2052,
      "##ર": 2053,
      "##શ": 2054,
      "##ન": 2055,
      "##0": 2056,
      "##ऋ": 2057,
      "##а": 2058,
      "##с": 2059,
      "##к": 2060,
      "##р": 2061,
      "##ы": 2062,
      "##в": 2063,
      "##j": 2064,
      "##[": 2065,
      "##ྲ": 2066,
      "##ྭ": 2067,
      "##æ": 2068,
      "##x": 2069,
      "##_": 2070,
      "##उ": 2071,
      "##ö": 2072,
      "##ü": 2073,
      "##᳘": 2074,
      "##í": 2075,
      "##̣": 2076,
      "##ṣ": 2077,
      "##ऊ": 2078,
      "##•": 2079,
      "##ॡ": 2080,
      "##е": 2081,
      "##о": 2082,
      "##д": 2083,
      "##ñ": 2084,
      "##ಭ": 2085,
      "##್": 2086,
      "##ಯ": 2087,
      "##ಸ": 2088,
      "##ವ": 2089,
      "##ک": 2090,
      "##ر": 2091,
      "##н": 2092,
      "##х": 2093,
      "##и": 2094,
      "##б": 2095,
      "##щ": 2096,
      "##ೊ": 2097,
      "##ಡ": 2098,
      "##ಗ": 2099,
      "##ು": 2100,
      "##{": 2101,
      "##õ": 2102,
      "##ऺ": 2103,
      "##్": 2104,
      "##ర": 2105,
      "##ె": 2106,
      "##ం": 2107,
      "##డ": 2108,
      "##ழ": 2109,
      "##்": 2110,
      "##ś": 2111,
      "##\"": 2112,
      "##ր": 2113,
      "##ե": 2114,
      "##ւ": 2115,
      "##ա": 2116,
      "##ն": 2117,
      "##ऐ": 2118,
      "##᮰": 2119,
      "##星": 2120,
      "##ತ": 2121,
      "##ರ": 2122,
      "##ಂ": 2123,
      "##ത": 2124,
      "##ു": 2125,
      "##ൊ": 2126,
      "##ണ": 2127,
      "##觉": 2128,
      "##语": 2129,
      "##言": 2130,
      "##청": 2131,
      "##하": 2132,
      "##다": 2133,
      "##z": 2134,
      "##ॢ": 2135,
      "##ل": 2136,
      "##ح": 2137,
      "##م": 2138,
      "##د": 2139,
      "##ા": 2140,
      "##ભ": 2141,
      "##ય": 2142,
      "##औ": 2143,
      "##ṭ": 2144,
      "##,": 2145,
      "##꣡": 2146,
      "##ి": 2147,
      "##న": 2148,
      "##ు": 2149,
      "##మ": 2150,
      "##ી": 2151,
      "##એ": 2152,
      "##🌹": 2153,
      "##મ": 2154,
      "##ો": 2155,
      "##ì": 2156,
      "##ে": 2157,
      "##ল": 2158,
      "##া": 2159,
      "##ಶ": 2160,
      "##ಬ": 2161,
      "##ṃ": 2162,
      "##通": 2163,
      "##л": 2164,
      "##꣣": 2165,
      "##બ": 2166,
      "##ṇ": 2167,
      "##]": 2168,
      "##ṛ": 2169,
      "##й": 2170,
      "##᳚": 2171,
      "##ḥ": 2172,
      "##þ": 2173,
      "##ю": 2174,
      "##ь": 2175,
      "##'": 2176,
      "##~": 2177,
      "##.": 2178,
      "##ऴ": 2179,
      "##민": 2180,
      "##ж": 2181,
      "###": 2182,
      "##র": 2183,
      "##ছ": 2184,
      "##ি": 2185,
      "##ন": 2186,
      "##্": 2187,
      "##দ": 2188,
      "##만": 2189,
      "##간": 2190,
      "##ர": 2191,
      "##月": 2192,
      "##̄": 2193,
      "##ч": 2194,
      "##т": 2195,
      "##ÿ": 2196,
      "##ʼ": 2197,
      "##ş": 2198,
      "##′": 2199,
      "##👩": 2200,
      "##🎓": 2201,
      "##处": 2202,
      "##余": 2203,
      "##我": 2204,
      "##而": 2205,
      "##贪": 2206,
      "##ે": 2207,
      "##റ": 2208,
      "##ū": 2209,
      "##ડ": 2210,
      "##જ": 2211,
      "##ě": 2212,
      "##ೆ": 2213,
      "##ಳ": 2214,
      "##ೂ": 2215,
      "##京": 2216,
      "##ோ": 2217,
      "##ラ": 2218,
      "##ス": 2219,
      "##പ": 2220,
      "##ി": 2221,
      "##ત": 2222,
      "##િ": 2223,
      "##ઞ": 2224,
      "##ي": 2225,
      "##ه": 2226,
      "##ṅ": 2227,
      "##ê": 2228,
      "##인": 2229,
      "##̇": 2230,
      "##স": 2231,
      "##॔": 2232,
      "##라": 2233,
      "##ன": 2234,
      "##比": 2235,
      "##度": 2236,
      "##其": 2237,
      "##款": 2238,
      "##ஷ": 2239,
      "##ண": 2240,
      "##ு": 2241,
      "##́": 2242,
      "##ȯ": 2243,
      "##&": 2244,
      "##$": 2245,
      "##ങ": 2246,
      "##ന": 2247,
      "##ý": 2248,
      "##ו": 2249,
      "##ל": 2250,
      "##י": 2251,
      "##ચ": 2252,
      "##@": 2253,
      "##਼": 2254,
      "##੍": 2255,
      "##ਰ": 2256,
      "##ੋ": 2257,
      "##ਮ": 2258,
      "##ਣ": 2259,
      "##ੀ": 2260,
      "##॓": 2261,
      "##я": 2262,
      "##ج": 2263,
      "##🙏": 2264,
      "##¡": 2265,
      "##た": 2266,
      "##く": 2267,
      "##ن": 2268,
      "##;": 2269,
      "##ס": 2270,
      "##פ": 2271,
      "##ר": 2272,
      "##ה": 2273,
      "##ˆ": 2274,
      "##é": 2275,
      "##続": 2276,
      "##繁": 2277,
      "##栄": 2278,
      "##쉬": 2279,
      "##시": 2280,
      "##ø": 2281,
      "##🏻": 2282,
      "##⚕": 2283,
      "##ந": 2284,
      "##<": 2285,
      "##ž": 2286,
      "##=": 2287,
      "##إ": 2288,
      "##س": 2289,
      "##ا": 2290,
      "##પ": 2291,
      "##થ": 2292,
      "##п": 2293,
      "##す": 2294,
      "##ᛋ": 2295,
      "##🌞": 2296,
      "##브": 2297,
      "##દ": 2298,
      "##🏽": 2299,
      "##:": 2300,
      "##ט": 2301,
      "##ऍ": 2302,
      "##韩": 2303,
      "##民": 2304,
      "##国": 2305,
      "##ę": 2306,
      "##ᛚ": 2307,
      "##ನ": 2308,
      "##ķ": 2309,
      "##چ": 2310,
      "##વ": 2311,
      "##ળ": 2312,
      "##ı": 2313,
      "##ொ": 2314,
      "##ட": 2315,
      "##வ": 2316,
      "##ை": 2317,
      "##←": 2318,
      "##チ": 2319,
      "##コ": 2320,
      "##マ": 2321,
      "##у": 2322,
      "##ऌ": 2323,
      "##ো": 2324,
      "##ট": 2325,
      "##ই": 2326,
      "##程": 2327,
      "##入": 2328,
      "##ദ": 2329,
      "##ധ": 2330,
      "##}": 2331,
      "##ボ": 2332,
      "##ッ": 2333,
      "##ト": 2334,
      "##に": 2335,
      "##よ": 2336,
      "##る": 2337,
      "##ഷ": 2338,
      "##🌺": 2339,
      "##̐": 2340,
      "##ب": 2341,
      "##政": 2342,
      "##官": 2343,
      "##员": 2344,
      "##‡": 2345,
      "##이": 2346,
      "##팅": 2347,
      "##м": 2348,
      "##ג": 2349,
      "##§": 2350,
      "##日": 2351,
      "##ള": 2352,
      "##ཁ": 2353,
      "##ུ": 2354,
      "##མ": 2355,
      "##à": 2356,
      "##ક": 2357,
      "##య": 2358,
      "##చ": 2359,
      "##ో": 2360,
      "##ഞ": 2361,
      "##μ": 2362,
      "##వ": 2363,
      "##ల": 2364,
      "##ా": 2365,
      "##స": 2366,
      "##క": 2367,
      "##è": 2368,
      "##ə": 2369,
      "##ቮ": 2370,
      "##ല": 2371,
      "##ц": 2372,
      "##교": 2373,
      "##效": 2374,
      "##ਲ": 2375,
      "##ὕ": 2376,
      "##ρ": 2377,
      "##η": 2378,
      "##κ": 2379,
      "##α": 2380,
      "##수": 2381,
      "##증": 2382,
      "##키": 2383,
      "##낱": 2384,
      "##말": 2385,
      "##사": 2386,
      "##전": 2387,
      "##ư": 2388,
      "##š": 2389,
      "##ç": 2390,
      "##ʒ": 2391,
      "##శ": 2392,
      "##త": 2393,
      "##உ": 2394,
      "##г": 2395,
      "##و": 2396,
      "##💮": 2397,
      "##🤪": 2398,
      "##ᱧ": 2399,
      "##ॺ": 2400,
      "##ૠ": 2401,
      "##哉": 2402,
      "##터": 2403,
      "##레": 2404,
      "##서": 2405,
      "##હ": 2406,
      "##ધ": 2407,
      "##ক": 2408,
      "##ত": 2409,
      "##་": 2410,
      "##ણ": 2411,
      "##ô": 2412,
      "##സ": 2413,
      "##േ": 2414,
      "##।": 2415,
      "##ã": 2416,
      "##ற": 2417,
      "##க": 2418,
      "##א": 2419,
      "##份": 2420,
      "##報": 2421,
      "##告": 2422,
      "##â": 2423,
      "##到": 2424,
      "##一": 2425,
      "##安": 2426,
      "##好": 2427,
      "##ང": 2428,
      "##ས": 2429,
      "##̶": 2430,
      "##ї": 2431,
      "##ん": 2432,
      "##⭐": 2433,
      "##ِ": 2434,
      "##ت": 2435,
      "##і": 2436,
      "##꣯": 2437,
      "##ൂ": 2438,
      "##ച": 2439,
      "##ু": 2440,
      "##ম": 2441,
      "##î": 2442,
      "##い": 2443,
      "##し": 2444,
      "##文": 2445,
      "##名": 2446,
      "##ᆬ": 2447,
      "##ё": 2448,
      "##ੁ": 2449,
      "##ੂ": 2450,
      "##য": 2451,
      "##়": 2452,
      "##二": 2453,
      "##册": 2454,
      "##̥": 2455,
      "##œ": 2456,
      "##ά": 2457,
      "##ऑ": 2458,
      "##ò": 2459,
      "##ಲ": 2460,
      "##ಿ": 2461,
      "##🚩": 2462,
      "##ੱ": 2463,
      "##ਕ": 2464,
      "##೦": 2465,
      "##器": 2466,
      "##人": 2467,
      "##ො": 2468,
      "##ය": 2469,
      "##ි": 2470,
      "##ක": 2471,
      "##්": 2472,
      "##ම": 2473,
      "##ව": 2474,
      "##ා": 2475,
      "##ধ": 2476,
      "##ৃ": 2477,
      "##ऻ": 2478,
      "##增": 2479,
      "##加": 2480,
      "##相": 2481,
      "##+": 2482,
      "##👍": 2483,
      "##于": 2484,
      "##彼": 2485,
      "##亦": 2486,
      "##答": 2487,
      "##ε": 2488,
      "##ὸ": 2489,
      "##ς": 2490,
      "##ɛ": 2491,
      "##ɪ": 2492,
      "##ː": 2493,
      "##ɑ": 2494,
      "##থ": 2495,
      "##ॼ": 2496,
      "##事": 2497,
      "##處": 2498,
      "##球": 2499,
      "##ち": 2500,
      "##ゃ": 2501,
      "##기": 2502,
      "##此": 2503,
      "##遣": 2504,
      "##除": 2505,
      "##%": 2506,
      "##೪": 2507,
      "##ō": 2508,
      "##വ": 2509,
      "##ع": 2510,
      "##️": 2511,
      "##班": 2512,
      "##牙": 2513,
      "##ী": 2514,
      "##生": 2515,
      "##应": 2516,
      "##无": 2517,
      "##因": 2518,
      "##划": 2519,
      "##᳖": 2520,
      "##ᛏ": 2521,
      "##ᚻ": 2522,
      "##ᛖ": 2523,
      "##ᚩ": 2524,
      "##ᛗ": 2525,
      "##𑑂": 2526,
      "##𑐫": 2527,
      "##𑐵": 2528,
      "##𑐎": 2529,
      "##𑑅": 2530,
      "##૦": 2531,
      "##用": 2532,
      "##期": 2533,
      "##間": 2534,
      "##か": 2535,
      "##ē": 2536,
      "##发": 2537,
      "##音": 2538,
      "##에": 2539,
      "##ܘ": 2540,
      "##ܒ": 2541,
      "##ܛ": 2542,
      "##疆": 2543,
      "##维": 2544,
      "##尔": 2545,
      "##自": 2546,
      "##ள": 2547,
      "##ൽ": 2548,
      "##お": 2549,
      "##あ": 2550,
      "##め": 2551,
      "##ა": 2552,
      "##რ": 2553,
      "##დ": 2554,
      "##ი": 2555,
      "##ც": 2556,
      "##ვ": 2557,
      "##ლ": 2558,
      "##대": 2559,
      "##못": 2560,
      "##깨": 2561,
      "##는": 2562,
      "##চ": 2563,
      "##む": 2564,
      "##整": 2565,
      "##年": 2566,
      "##的": 2567,
      "##时": 2568,
      "##间": 2569,
      "##表": 2570,
      "##ൾ": 2571,
      "##스": 2572,
      "##크": 2573,
      "##리": 2574,
      "##트": 2575,
      "##어": 2576,
      "##로": 2577,
      "##ß": 2578,
      "##😘": 2579,
      "##ۇ": 2580,
      "##غ": 2581,
      "##ە": 2582,
      "##ʟ": 2583,
      "##ᴇ": 2584,
      "##ᴀ": 2585,
      "##發": 2586,
      "##ే": 2587,
      "##ُ": 2588,
      "##😃": 2589,
      "##ೀ": 2590,
      "##হ": 2591,
      "##♀": 2592,
      "##ײ": 2593,
      "##ַ": 2594,
      "##á": 2595,
      "##ષ": 2596,
      "##ટ": 2597,
      "##ں": 2598,
      "##지": 2599,
      "##😄": 2600,
      "##ਂ": 2601,
      "##ਡ": 2602,
      "##→": 2603,
      "##ೇ": 2604,
      "##ದ": 2605,
      "##从": 2606,
      "##返": 2607,
      "##🤩": 2608,
      "##ま": 2609,
      "##ਿ": 2610,
      "##ਖ": 2611,
      "##ʊ": 2612,
      "##ব": 2613,
      "##з": 2614,
      "##ð": 2615,
      "##의": 2616,
      "##ҫ": 2617,
      "##介": 2618,
      "##히": 2619,
      "##ی": 2620,
      "##ف": 2621,
      "##᳭": 2622,
      "##락": 2623,
      "##❤": 2624,
      "##✍": 2625,
      "##영": 2626,
      "##상": 2627,
      "##સ": 2628,
      "##💏": 2629,
      "##√": 2630,
      "##û": 2631,
      "##🍃": 2632,
      "##ྨ": 2633,
      "##ི": 2634,
      "##ć": 2635,
      "##ജ": 2636,
      "##\\": 2637,
      "##ശ": 2638,
      "##ń": 2639,
      "##ગ": 2640,
      "##ף": 2641,
      "##염": 2642,
      "##ே": 2643,
      "##💔": 2644,
      "##ù": 2645,
      "##운": 2646,
      "##ك": 2647,
      "##ى": 2648,
      "##ắ": 2649,
      "##ା": 2650,
      "##ୟ": 2651,
      "##ద": 2652,
      "##ధ": 2653,
      "##ಪ": 2654,
      "##ಹ": 2655,
      "##ಃ": 2656,
      "##ష": 2657,
      "##威": 2658,
      "##ᳪ": 2659,
      "##🌿": 2660,
      "##ٰ": 2661,
      "##ಕ": 2662,
      "##ء": 2663,
      "##✓": 2664,
      "##ˈ": 2665,
      "##ʋ": 2666,
      "##使": 2667,
      "##뜨": 2668,
      "##👈": 2669,
      "##¢": 2670,
      "##み": 2671,
      "##止": 2672,
      "##ཱ": 2673,
      "##ǒ": 2674,
      "##·": 2675,
      "##॰": 2676,
      "##ν": 2677,
      "##合": 2678,
      "##能": 2679,
      "##知": 2680,
      "##故": 2681,
      "##ʁ": 2682,
      "##ˌ": 2683,
      "##🕉": 2684,
      "##®": 2685,
      "##ú": 2686,
      "##ш": 2687,
      "##ة": 2688,
      "##ஸ": 2689,
      "##ஹ": 2690,
      "##ṁ": 2691,
      "##ɜ": 2692,
      "##😇": 2693,
      "##💗": 2694,
      "##ፂ": 2695,
      "##ř": 2696,
      "##ロ": 2697,
      "##ー": 2698,
      "##バ": 2699,
      "##リ": 2700,
      "##ゼ": 2701,
      "##シ": 2702,
      "##ョ": 2703,
      "##ン": 2704,
      "##の": 2705,
      "##影": 2706,
      "##響": 2707,
      "##行": 2708,
      "##工": 2709,
      "##师": 2710,
      "##🎼": 2711,
      "##?": 2712,
      "##ι": 2713,
      "##σ": 2714,
      "##τ": 2715,
      "##ό": 2716,
      "##ॿ": 2717,
      "##🥀": 2718,
      "##当": 2719,
      "##ି": 2720,
      "##ପ": 2721,
      "##৷": 2722,
      "##异": 2723,
      "##过": 2724,
      "##果": 2725,
      "##同": 2726,
      "##域": 2727,
      "##稱": 2728,
      "##ル": 2729,
      "##ზ": 2730,
      "##ீ": 2731,
      "##ৰ": 2732,
      "##প": 2733,
      "##জ": 2734,
      "##ش": 2735,
      "##ร": 2736,
      "##บ": 2737,
      "##อ": 2738,
      "##ต": 2739,
      "##ੰ": 2740,
      "##ਜ": 2741,
      "##ਾ": 2742,
      "##ਬ": 2743,
      "##ŏ": 2744,
      "##ʌ": 2745,
      "##ʃ": 2746,
      "##ƒ": 2747,
      "##গ": 2748,
      "##引": 2749,
      "##何": 2750,
      "##可": 2751,
      "##吥": 2752,
      "##ہ": 2753,
      "##🏹": 2754,
      "##ස": 2755,
      "##ŋ": 2756,
      "##性": 2757,
      "##决": 2758,
      "##定": 2759,
      "##晴": 2760,
      "##ら": 2761,
      "##っ": 2762,
      "##🔐": 2763,
      "##立": 2764,
      "##有": 2765,
      "##ق": 2766,
      "##آ": 2767,
      "##జ": 2768,
      "##汇": 2769,
      "##ᘏ": 2770,
      "##ᗢ": 2771,
      "##位": 2772,
      "##格": 2773,
      "##🇵": 2774,
      "##ർ": 2775,
      "##🌍": 2776,
      "##成": 2777,
      "##ഠ": 2778,
      "##ప": 2779,
      "##¬": 2780,
      "##į": 2781,
      "##所": 2782,
      "##作": 2783,
      "##复": 2784,
      "##须": 2785,
      "##ଡ": 2786,
      "##଼": 2787,
      "##ଆ": 2788,
      "##叉": 2789,
      "##ן": 2790,
      "##ᚾ": 2791,
      "##ᛁ": 2792,
      "##ᛞ": 2793,
      "##き": 2794,
      "##ഹ": 2795,
      "##정": 2796,
      "##한": 2797,
      "##۔": 2798,
      "##𑑀": 2799,
      "##𑐴": 2800,
      "##𑑄": 2801,
      "##テ": 2802,
      "##ィ": 2803,
      "##語": 2804,
      "##😅": 2805,
      "##😂": 2806,
      "##な": 2807,
      "##つ": 2808,
      "##ɔ": 2809,
      "##ʏ": 2810,
      "##🌷": 2811,
      "##う": 2812,
      "##少": 2813,
      "##寝": 2814,
      "##て": 2815,
      "##מ": 2816,
      "##้": 2817,
      "##น": 2818,
      "##ห": 2819,
      "##า": 2820,
      "##č": 2821,
      "##🔥": 2822,
      "##地": 2823,
      "##େ": 2824,
      "##ଖ": 2825,
      "##କ": 2826,
      "##ଃ": 2827,
      "##가": 2828,
      "##^": 2829,
      "##願": 2830,
      "##進": 2831,
      "##ズ": 2832,
      "##ệ": 2833,
      "##金": 2834,
      "##᳒": 2835,
      "##᭭": 2836,
      "##ア": 2837,
      "##ジ": 2838,
      "##🇹": 2839,
      "##🇦": 2840,
      "##🇺": 2841,
      "##🇱": 2842,
      "##🇸": 2843,
      "##ऎ": 2844,
      "##ऒ": 2845,
      "##ܠ": 2846,
      "##ܦ": 2847,
      "##ܐ": 2848,
      "##ਨ": 2849,
      "##ീ": 2850,
      "##ഭ": 2851,
      "##🖊": 2852,
      "##ิ": 2853,
      "##ด": 2854,
      "##ี": 2855,
      "##♥": 2856,
      "##ൈ": 2857,
      "##신": 2858,
      "##중": 2859,
      "##입": 2860,
      "##니": 2861,
      "##ʉ": 2862,
      "##ɡ": 2863,
      "##০": 2864,
      "##৩": 2865,
      "##ä": 2866,
      "##声": 2867,
      "##广": 2868,
      "##ł": 2869,
      "##ླ": 2870,
      "##ྒ": 2871,
      "##ན": 2872,
      "##🗃": 2873,
      "##ૂ": 2874,
      "##백": 2875,
      "##گ": 2876,
      "##ٹ": 2877,
      "##益": 2878,
      "##境": 2879,
      "##성": 2880,
      "##蝶": 2881,
      "##葬": 2882,
      "##花": 2883,
      "##⃣": 2884,
      "##ষ": 2885,
      "##급": 2886,
      "##者": 2887,
      "##观": 2888,
      "##为": 2889,
      "##😍": 2890,
      "##게": 2891,
      "##ئ": 2892,
      "##終": 2893,
      "##電": 2894,
      "##車": 2895,
      "##康": 2896,
      "##૧": 2897,
      "##ḏ": 2898,
      "##ャ": 2899,
      "##朝": 2900,
      "##许": 2901,
      "##ড": 2902,
      "##十": 2903,
      "##六": 2904,
      "##章": 2905,
      "##消": 2906,
      "##化": 2907,
      "##吸": 2908,
      "##收": 2909,
      "##ફ": 2910,
      "##大": 2911,
      "##利": 2912,
      "##ং": 2913,
      "##ڌ": 2914,
      "##נ": 2915,
      "##ב": 2916,
      "##岂": 2917,
      "##依": 2918,
      "##页": 2919,
      "##面": 2920,
      "##存": 2921,
      "##废": 2922,
      "##讨": 2923,
      "##论": 2924,
      "##ɒ": 2925,
      "##休": 2926,
      "##さ": 2927,
      "##є": 2928,
      "##ਤ": 2929,
      "##𑐰": 2930,
      "##●": 2931,
      "##자": 2932,
      "##국": 2933,
      "##📢": 2934,
      "##ഛ": 2935,
      "##ת": 2936,
      "##ై": 2937,
      "##⛳": 2938,
      "##พ": 2939,
      "##่": 2940,
      "##ม": 2941,
      "##亲": 2942,
      "##父": 2943,
      "##ઠ": 2944,
      "##ॾ": 2945,
      "##错": 2946,
      "##雨": 2947,
      "##탄": 2948,
      "##력": 2949,
      "##적": 2950,
      "##ৱ": 2951,
      "##আ": 2952,
      "##ೋ": 2953,
      "##ذ": 2954,
      "##ڪ": 2955,
      "##习": 2956,
      "##ק": 2957,
      "##ਸ": 2958,
      "##°": 2959,
      "##が": 2960,
      "##量": 2961,
      "##颂": 2962,
      "##非": 2963,
      "##ע": 2964,
      "##€": 2965,
      "##ǔ": 2966,
      "##🌄": 2967,
      "##꣫": 2968,
      "##📰": 2969,
      "##ᄌ": 2970,
      "##ூ": 2971,
      "##̪": 2972,
      "##ز": 2973,
      "##ബ": 2974,
      "##세": 2975,
      "##요": 2976,
      "##ჱ": 2977,
      "##ઈ": 2978,
      "##➧": 2979,
      "##ם": 2980,
      "##ખ": 2981,
      "##૨": 2982,
      "##خ": 2983,
      "##두": 2984,
      "##ο": 2985,
      "##ȩ": 2986,
      "##発": 2987,
      "##を": 2988,
      "##¤": 2989,
      "##합": 2990,
      "##ஶ": 2991,
      "##你": 2992,
      "##忘": 2993,
      "##了": 2994,
      "##記": 2995,
      "##憶": 2996,
      "##ฟ": 2997,
      "##ั": 2998,
      "##ง": 2999,
      "##ഈ": 3000,
      "##得": 3001,
      "##显": 3002,
      "##ğ": 3003,
      "##ኳ": 3004,
      "##げ": 3005,
      "##ȧ": 3006,
      "##ሩ": 3007,
      "##書": 3008,
      "##월": 3009,
      "##反": 3010,
      "##意": 3011,
      "##不": 3012,
      "##念": 3013,
      "##长": 3014,
      "##代": 3015,
      "##個": 3016,
      "##仕": 3017,
      "##方": 3018,
      "##음": 3019,
      "##술": 3020,
      "##پ": 3021,
      "##✨": 3022,
      "##π": 3023,
      "##ῖ": 3024,
      "##パ": 3025,
      "##봇": 3026,
      "##互": 3027,
      "##杂": 3028,
      "##乱": 3029,
      "##ė": 3030,
      "##😳": 3031,
      "##ً": 3032,
      "##×": 3033,
      "##ә": 3034,
      "##ω": 3035,
      "##ೃ": 3036,
      "##八": 3037,
      "##ą": 3038,
      "##ත": 3039,
      "##ਟ": 3040,
      "##尊": 3041,
      "##龙": 3042,
      "##首": 3043,
      "##ש": 3044,
      "##灭": 3045,
      "##常": 3046,
      "##如": 3047,
      "##类": 3048,
      "##染": 3049,
      "##ζ": 3050,
      "##口": 3051,
      "##哥": 3052,
      "##ૃ": 3053,
      "##泊": 3054,
      "##ˎ": 3055,
      "##💛": 3056,
      "##כ": 3057,
      "##름": 3058,
      "##は": 3059,
      "##ご": 3060,
      "##ざ": 3061,
      "##̠": 3062,
      "##̍": 3063,
      "##と": 3064,
      "##婆": 3065,
      "##薩": 3066,
      "##哷": 3067,
      "##那": 3068,
      "##摩": 3069,
      "##や": 3070,
      "##学": 3071,
      "##ഴ": 3072,
      "##け": 3073,
      "##ൻ": 3074,
      "##ۂ": 3075,
      "##白": 3076,
      "##猫": 3077,
      "##⠀": 3078,
      "##🌈": 3079,
      "##ų": 3080,
      "##破": 3081,
      "##째": 3082,
      "##ク": 3083,
      "##ე": 3084,
      "##ნ": 3085,
      "##გ": 3086,
      "##લ": 3087,
      "##ઃ": 3088,
      "##弥": 3089,
      "##ཊ": 3090,
      "##ལ": 3091,
      "##ṝ": 3092,
      "##宦": 3093,
      "##🇳": 3094,
      "##📺": 3095,
      "##θ": 3096,
      "##ط": 3097,
      "##國": 3098,
      "##઼": 3099,
      "##ۆ": 3100,
      "##ऄ": 3101,
      "##ഖ": 3102,
      "##φ": 3103,
      "##나": 3104,
      "##🇮": 3105,
      "##身": 3106,
      "##💰": 3107,
      "##ᭅ": 3108,
      "##💫": 3109,
      "##ᄉ": 3110,
      "##💑": 3111,
      "##🎶": 3112,
      "##খ": 3113,
      "##ಟ": 3114,
      "##ઉ": 3115,
      "##ൃ": 3116,
      "##ྥ": 3117,
      "##解": 3118,
      "##新": 3119,
      "##全": 3120,
      "##陸": 3121,
      "##🎉": 3122,
      "##🍾": 3123,
      "##印": 3124,
      "##ד": 3125,
      "##(": 3126,
      "##衆": 3127,
      "##😞": 3128,
      "##☝": 3129,
      "##ྱ": 3130,
      "##ྀ": 3131,
      "##ф": 3132,
      "##和": 3133,
      "##祖": 3134,
      "##天": 3135,
      "##堂": 3136,
      "##更": 3137,
      "##伟": 3138,
      "##ੇ": 3139,
      "##达": 3140,
      "##各": 3141,
      "##别": 3142,
      "##逝": 3143,
      "##孕": 3144,
      "##ど": 3145,
      "##械": 3146,
      "##理": 3147,
      "##హ": 3148,
      "##セ": 3149,
      "##イ": 3150,
      "##χ": 3151,
      "##ή": 3152,
      "##δ": 3153,
      "##ዝ": 3154,
      "##ብ": 3155,
      "##냐": 3156,
      "##༨": 3157,
      "##ј": 3158,
      "##📸": 3159,
      "##说": 3160,
      "##是": 3161,
      "##闻": 3162,
      "##席": 3163,
      "##飞": 3164,
      "##运": 3165,
      "##检": 3166,
      "##查": 3167,
      "##咒": 3168,
      "##小": 3169,
      "##吗": 3170,
      "##ܣ": 3171,
      "##ܬ": 3172,
      "##э": 3173,
      "##出": 3174,
      "##研": 3175,
      "##究": 3176,
      "##함": 3177,
      "##障": 3178,
      "##转": 3179,
      "##−": 3180,
      "##ጻ": 3181,
      "##然": 3182,
      "##ಚ": 3183,
      "##외": 3184,
      "##≍": 3185,
      "##👨": 3186,
      "##👧": 3187,
      "##🤝": 3188,
      "##უ": 3189,
      "##̖": 3190,
      "##과": 3191,
      "##ণ": 3192,
      "##デ": 3193,
      "##诸": 3194,
      "##《": 3195,
      "##れ": 3196,
      "##ල": 3197,
      "##ද": 3198,
      "##୍": 3199,
      "##ର": 3200,
      "##ତ": 3201,
      "##ଭ": 3202,
      "##!": 3203,
      "##句": 3204,
      "##中": 3205,
      "##茶": 3206,
      "##ひ": 3207,
      "##世": 3208,
      "##与": 3209,
      "##属": 3210,
      "##🤲": 3211,
      "##्य": 3212,
      "##्र": 3213,
      "##्त": 3214,
      "##र्": 3215,
      "##ति": 3216,
      "##्व": 3217,
      "##ान": 3218,
      "प्र": 3219,
      "##म्": 3220,
      "##त्": 3221,
      "##ित": 3222,
      "वि": 3223,
      "##्या": 3224,
      "##ार": 3225,
      "##ां": 3226,
      "##न्": 3227,
      "##्ष": 3228,
      "##ते": 3229,
      "##ष्": 3230,
      "##न्त": 3231,
      "##स्य": 3232,
      "##क्ष": 3233,
      "##त्र": 3234,
      "##द्": 3235,
      "##या": 3236,
      "##स्": 3237,
      "##र्व": 3238,
      "##मा": 3239,
      "पर": 3240,
      "नि": 3241,
      "##स्त": 3242,
      "##था": 3243,
      "##क्त": 3244,
      "##ाम": 3245,
      "##ेव": 3246,
      "##ेन": 3247,
      "सं": 3248,
      "##त्य": 3249,
      "##तः": 3250,
      "##पि": 3251,
      "##ाय": 3252,
      "पु": 3253,
      "##ाः": 3254,
      "##िक": 3255,
      "स्": 3256,
      "##्च": 3257,
      "वा": 3258,
      "भव": 3259,
      "##ष्ट": 3260,
      "##ना": 3261,
      "##दि": 3262,
      "स्व": 3263,
      "इति": 3264,
      "##ृत": 3265,
      "##ाव": 3266,
      "##ेष": 3267,
      "सर्व": 3268,
      "##दा": 3269,
      "##र्थ": 3270,
      "##ाल": 3271,
      "त्व": 3272,
      "एव": 3273,
      "##द्ध": 3274,
      "##र्त": 3275,
      "##्ञ": 3276,
      "##ाद": 3277,
      "सम": 3278,
      "मा": 3279,
      "##ेश": 3280,
      "##त्त": 3281,
      "रा": 3282,
      "##ता": 3283,
      "अन": 3284,
      "##मि": 3285,
      "तु": 3286,
      "##्यते": 3287,
      "##ङ्": 3288,
      "##ान्": 3289,
      "##नि": 3290,
      "प्रा": 3291,
      "##यो": 3292,
      "##्यं": 3293,
      "##यं": 3294,
      "सा": 3295,
      "सु": 3296,
      "कि": 3297,
      "##्वा": 3298,
      "स्त": 3299,
      "##रण": 3300,
      "##्रि": 3301,
      "##ये": 3302,
      "##रा": 3303,
      "##र्म": 3304,
      "पू": 3305,
      "प्रति": 3306,
      "##नं": 3307,
      "कार": 3308,
      "ते": 3309,
      "##ानि": 3310,
      "हि": 3311,
      "मु": 3312,
      "##वि": 3313,
      "##भि": 3314,
      "यो": 3315,
      "##ात": 3316,
      "##नः": 3317,
      "##रु": 3318,
      "##्ये": 3319,
      "वर्": 3320,
      "कु": 3321,
      "##यः": 3322,
      "##प्त": 3323,
      "##न्द": 3324,
      "द्व": 3325,
      "ना": 3326,
      "##ने": 3327,
      "##श्च": 3328,
      "##च्": 3329,
      "विश": 3330,
      "##न्ति": 3331,
      "यथा": 3332,
      "मह": 3333,
      "##ुः": 3334,
      "##ल्": 3335,
      "देव": 3336,
      "##ेद": 3337,
      "##रो": 3338,
      "##ास": 3339,
      "##ष्ठ": 3340,
      "##ज्ञ": 3341,
      "##ती": 3342,
      "##रे": 3343,
      "##रि": 3344,
      "##स्ति": 3345,
      "##धि": 3346,
      "स्थ": 3347,
      "क्ष": 3348,
      "दि": 3349,
      "##ूप": 3350,
      "परि": 3351,
      "इत्य": 3352,
      "श्र": 3353,
      "सम्": 3354,
      "एक": 3355,
      "##ैव": 3356,
      "पा": 3357,
      "मे": 3358,
      "भा": 3359,
      "##च्छ": 3360,
      "##नु": 3361,
      "या": 3362,
      "यु": 3363,
      "##तो": 3364,
      "##कार": 3365,
      "##द्य": 3366,
      "##ीय": 3367,
      "##ात्": 3368,
      "दृ": 3369,
      "##ब्": 3370,
      "##भा": 3371,
      "##ेण": 3372,
      "##ानां": 3373,
      "##हं": 3374,
      "##णि": 3375,
      "राज": 3376,
      "व्य": 3377,
      "##ेत": 3378,
      "तथा": 3379,
      "##वा": 3380,
      "म्": 3381,
      "उप": 3382,
      "गु": 3383,
      "##्रा": 3384,
      "अध": 3385,
      "##लं": 3386,
      "सह": 3387,
      "##मान": 3388,
      "##ग्": 3389,
      "ज्ञ": 3390,
      "भू": 3391,
      "##ोक": 3392,
      "##ण्": 3393,
      "##रं": 3394,
      "##सि": 3395,
      "##गु": 3396,
      "भवति": 3397,
      "##ष्य": 3398,
      "कथ": 3399,
      "##ुं": 3400,
      "##णं": 3401,
      "##िता": 3402,
      "कृत": 3403,
      "##षा": 3404,
      "कृ": 3405,
      "##णा": 3406,
      "##िः": 3407,
      "सू": 3408,
      "##ितः": 3409,
      "##का": 3410,
      "##ङ्ग": 3411,
      "##व्य": 3412,
      "##मे": 3413,
      "तद": 3414,
      "वै": 3415,
      "##प्र": 3416,
      "पूर्व": 3417,
      "दु": 3418,
      "विद": 3419,
      "##ान्त": 3420,
      "##सा": 3421,
      "##कं": 3422,
      "##ृह": 3423,
      "##री": 3424,
      "स्य": 3425,
      "##मः": 3426,
      "तत्": 3427,
      "समा": 3428,
      "##्री": 3429,
      "##भव": 3430,
      "किं": 3431,
      "पृ": 3432,
      "तस्य": 3433,
      "##श्य": 3434,
      "##चि": 3435,
      "##ला": 3436,
      "##तं": 3437,
      "##क्": 3438,
      "##प्": 3439,
      "मि": 3440,
      "सि": 3441,
      "##रः": 3442,
      "ति": 3443,
      "--": 3444,
      "##न्ध": 3445,
      "##सी": 3446,
      "##ेषु": 3447,
      "##हि": 3448,
      "##र्ण": 3449,
      "को": 3450,
      "##त्या": 3451,
      "यदि": 3452,
      "##ैः": 3453,
      "मन": 3454,
      "जन": 3455,
      "अपि": 3456,
      "##तु": 3457,
      "शि": 3458,
      "काल": 3459,
      "##र्श": 3460,
      "##ानं": 3461,
      "अनु": 3462,
      "##न्न": 3463,
      "एत": 3464,
      "##स्मा": 3465,
      "##र्ग": 3466,
      "नाम": 3467,
      "रूप": 3468,
      "##्रह": 3469,
      "##नां": 3470,
      "##ुक्त": 3471,
      "##दं": 3472,
      "व्या": 3473,
      "का": 3474,
      "के": 3475,
      "तत्र": 3476,
      "##कः": 3477,
      "##भाव": 3478,
      "मध": 3479,
      "##ण्ड": 3480,
      "अस्ति": 3481,
      "##ितं": 3482,
      "##स्थ": 3483,
      "प्रत्य": 3484,
      "##ेत्": 3485,
      "##णां": 3486,
      "##र्य": 3487,
      "वर्ष": 3488,
      "##ब्द": 3489,
      "अप": 3490,
      "##क्र": 3491,
      "##ल्प": 3492,
      "देश": 3493,
      "##स्तु": 3494,
      "##ीव": 3495,
      "##स्या": 3496,
      "यत्": 3497,
      "वृ": 3498,
      "##त्व": 3499,
      "##ञ्च": 3500,
      "बह": 3501,
      "कर्त": 3502,
      "मम": 3503,
      "एवं": 3504,
      "गृह": 3505,
      "##क्ति": 3506,
      "विष": 3507,
      "##देश": 3508,
      "##योग": 3509,
      "भाव": 3510,
      "##स्मि": 3511,
      "स्या": 3512,
      "कर्म": 3513,
      "##सं": 3514,
      "##्यः": 3515,
      "##क्षण": 3516,
      "भार": 3517,
      "##ृत्त": 3518,
      "##कृ": 3519,
      "अथ": 3520,
      "शु": 3521,
      "##तिः": 3522,
      "##क्षा": 3523,
      "##नी": 3524,
      "श्च": 3525,
      "##न्य": 3526,
      "पुनः": 3527,
      "##ित्य": 3528,
      "##धान": 3529,
      "क्र": 3530,
      "ये": 3531,
      "##र्ष": 3532,
      "वर्त": 3533,
      "स्म": 3534,
      "##नम्": 3535,
      "दृष्ट": 3536,
      "##लि": 3537,
      "त्वं": 3538,
      "##श्व": 3539,
      "##त्म": 3540,
      "##्म": 3541,
      "शब्द": 3542,
      "##चार": 3543,
      "##षु": 3544,
      "##याः": 3545,
      "पुन": 3546,
      "ता": 3547,
      "मान": 3548,
      "ाद": 3549,
      "##्रिय": 3550,
      "लोक": 3551,
      "##नो": 3552,
      "अव": 3553,
      "##ितम्": 3554,
      "##न्ते": 3555,
      "##ीत": 3556,
      "##यम": 3557,
      "##धा": 3558,
      "तदा": 3559,
      "##द्र": 3560,
      "चि": 3561,
      "मू": 3562,
      "लि": 3563,
      "##्यो": 3564,
      "##ुप": 3565,
      "##णे": 3566,
      "##यति": 3567,
      "##वान्": 3568,
      "##ित्र": 3569,
      "##के": 3570,
      "जीव": 3571,
      "धर्म": 3572,
      "तं": 3573,
      "तेन": 3574,
      "##ेषां": 3575,
      "प्रव": 3576,
      "विशेष": 3577,
      "सः": 3578,
      "र्": 3579,
      "तव": 3580,
      "पद": 3581,
      "##च्च": 3582,
      "##प्य": 3583,
      "प्रथ": 3584,
      "पुत्र": 3585,
      "##्यां": 3586,
      "##ोष": 3587,
      "प्राप्त": 3588,
      "##यम्": 3589,
      "निर्": 3590,
      "भि": 3591,
      "##कृत": 3592,
      "##न्त्र": 3593,
      "संस्": 3594,
      "ततः": 3595,
      "करो": 3596,
      "साध": 3597,
      "##त्वा": 3598,
      "##्ल": 3599,
      "##्ज": 3600,
      "अधिक": 3601,
      "__": 3602,
      "##र्थः": 3603,
      "साम": 3604,
      "अन्य": 3605,
      "##ित्त": 3606,
      "##ख्या": 3607,
      "##मं": 3608,
      "निव": 3609,
      "कार्य": 3610,
      "विश्व": 3611,
      "पि": 3612,
      "वे": 3613,
      "योग": 3614,
      "जा": 3615,
      "##मेव": 3616,
      "##क्षि": 3617,
      "##भू": 3618,
      "##ले": 3619,
      "दे": 3620,
      "##ामि": 3621,
      "##िका": 3622,
      "##ीं": 3623,
      "##रुष": 3624,
      "##िष्य": 3625,
      "##न्द्र": 3626,
      "##णः": 3627,
      "##ोप": 3628,
      "प्रश": 3629,
      "त्रि": 3630,
      "विक": 3631,
      "##स्मिन्": 3632,
      "##स्म": 3633,
      "यः": 3634,
      "ने": 3635,
      "##ाह": 3636,
      "केव": 3637,
      "सो": 3638,
      "##ृश": 3639,
      "बहु": 3640,
      "अभि": 3641,
      "##ाना": 3642,
      "तद्": 3643,
      "##श्र": 3644,
      "##पाद": 3645,
      "##न्तु": 3646,
      "उत्त": 3647,
      "##करण": 3648,
      "##से": 3649,
      "##ऽपि": 3650,
      "##द्धि": 3651,
      "##मु": 3652,
      "##धिक": 3653,
      "त्य": 3654,
      "हे": 3655,
      "दर्श": 3656,
      "गुण": 3657,
      "##पा": 3658,
      "##वः": 3659,
      "##ीति": 3660,
      "##त्स": 3661,
      "रो": 3662,
      "द्र": 3663,
      "दी": 3664,
      "भग": 3665,
      "शा": 3666,
      "अत्र": 3667,
      "##काश": 3668,
      "##र्थं": 3669,
      "##जा": 3670,
      "न्": 3671,
      "ला": 3672,
      "##थि": 3673,
      "बु": 3674,
      "##वे": 3675,
      "पी": 3676,
      "##न्म": 3677,
      "##सः": 3678,
      "##ारा": 3679,
      "मया": 3680,
      "##भाग": 3681,
      "##रूप": 3682,
      "समु": 3683,
      "कथं": 3684,
      "भविष्य": 3685,
      "##रम्": 3686,
      "जग": 3687,
      "भाग": 3688,
      "##स्व": 3689,
      "##पद": 3690,
      "त्र": 3691,
      "द्वि": 3692,
      "##च्यते": 3693,
      "##भिः": 3694,
      "20": 3695,
      "##य्": 3696,
      "इत्या": 3697,
      "चा": 3698,
      "सुख": 3699,
      "मृ": 3700,
      "रि": 3701,
      "##जन": 3702,
      "दश": 3703,
      "रु": 3704,
      "दू": 3705,
      "ग्र": 3706,
      "सप्त": 3707,
      "ज्ञान": 3708,
      "व्यव": 3709,
      "न्त": 3710,
      "२०": 3711,
      "ादि": 3712,
      "##ट्": 3713,
      "पुरुष": 3714,
      "काम": 3715,
      "अहं": 3716,
      "शक": 3717,
      "##ान्य": 3718,
      "##ध्य": 3719,
      "##शि": 3720,
      "##्रिया": 3721,
      "##सीत्": 3722,
      "##स्त्र": 3723,
      "हृ": 3724,
      "भो": 3725,
      "श्रु": 3726,
      "तर्": 3727,
      "##मो": 3728,
      "##तां": 3729,
      "##ायां": 3730,
      "##पु": 3731,
      "##त्त्व": 3732,
      "ग्रह": 3733,
      "सम्ब": 3734,
      "##त्रा": 3735,
      "अन्त": 3736,
      "##चन": 3737,
      "##ग्र": 3738,
      "##ंश": 3739,
      "पित": 3740,
      "स्थान": 3741,
      "स्था": 3742,
      "##चित्": 3743,
      "##येत्": 3744,
      "भाष": 3745,
      "##म्ब": 3746,
      "##ोध": 3747,
      "##माण": 3748,
      "##..": 3749,
      "स्तु": 3750,
      "प्रय": 3751,
      "सर्वे": 3752,
      "##्याय": 3753,
      "##्यामि": 3754,
      "यद": 3755,
      "रे": 3756,
      "की": 3757,
      "##वाद": 3758,
      "##ङ्क": 3759,
      "##हार": 3760,
      "##ख्य": 3761,
      "फल": 3762,
      "क्षे": 3763,
      "##दान": 3764,
      "युक्त": 3765,
      "##पू": 3766,
      "##ुःख": 3767,
      "पृष्ठ": 3768,
      "##पे": 3769,
      "यत्र": 3770,
      "##र्ध": 3771,
      "वेद": 3772,
      "##सु": 3773,
      "लक्ष": 3774,
      "विध": 3775,
      "##काल": 3776,
      "नो": 3777,
      "##तम्": 3778,
      "##ष्ट्र": 3779,
      "##ज्य": 3780,
      "मो": 3781,
      "यदा": 3782,
      "भेद": 3783,
      "मां": 3784,
      "कः": 3785,
      "##सार": 3786,
      "स्प": 3787,
      "##श्चि": 3788,
      "##ेति": 3789,
      "अह": 3790,
      "बाल": 3791,
      "##िते": 3792,
      "##ष्ण": 3793,
      "नु": 3794,
      "##शः": 3795,
      "##भ्य": 3796,
      "वृत्त": 3797,
      "महा": 3798,
      "चतु": 3799,
      "स्यात्": 3800,
      "सिद्ध": 3801,
      "##दी": 3802,
      "विद्या": 3803,
      "१०": 3804,
      "वद": 3805,
      "##नेन": 3806,
      "अतः": 3807,
      "##वी": 3808,
      "विना": 3809,
      "आसीत्": 3810,
      "एष": 3811,
      "##ली": 3812,
      "१९": 3813,
      "कदा": 3814,
      "उत्": 3815,
      "##कम्": 3816,
      "##तम": 3817,
      "तः": 3818,
      "वी": 3819,
      "##यि": 3820,
      "##यु": 3821,
      "##णी": 3822,
      "##्याः": 3823,
      "##ायते": 3824,
      "##र्ज": 3825,
      "##्न": 3826,
      "गच्छ": 3827,
      "तस्मा": 3828,
      "नं": 3829,
      "मनु": 3830,
      "##णम्": 3831,
      "सद": 3832,
      "##ोक्त": 3833,
      "##षे": 3834,
      "##ग्नि": 3835,
      "##स्र": 3836,
      "जान": 3837,
      "मध्ये": 3838,
      "परी": 3839,
      "दुःख": 3840,
      "##्वं": 3841,
      "गो": 3842,
      "शी": 3843,
      "##योः": 3844,
      "रक्ष": 3845,
      "परा": 3846,
      "नमः": 3847,
      "##त्रं": 3848,
      "करोति": 3849,
      "तो": 3850,
      "##स्था": 3851,
      "स्वा": 3852,
      "संश": 3853,
      "अति": 3854,
      "##पी": 3855,
      "पञ्च": 3856,
      "##ीयते": 3857,
      "##ज्ञा": 3858,
      "ात्": 3859,
      "भारत": 3860,
      "जि": 3861,
      "प्रस": 3862,
      "कर": 3863,
      "दक्षि": 3864,
      "न्य": 3865,
      "##चना": 3866,
      "##युक्त": 3867,
      "त्वा": 3868,
      "तां": 3869,
      "द्वित": 3870,
      "##षि": 3871,
      "विधि": 3872,
      "ले": 3873,
      "##स्प": 3874,
      "##म्य": 3875,
      "स्त्री": 3876,
      "ैः": 3877,
      "तेषां": 3878,
      "कल्प": 3879,
      "##गर": 3880,
      "करण": 3881,
      "##त्रे": 3882,
      "राष्ट्र": 3883,
      "दृश": 3884,
      "##क्षे": 3885,
      "ोऽ": 3886,
      "आग": 3887,
      "प्रि": 3888,
      "अस्य": 3889,
      "यस्य": 3890,
      "धन": 3891,
      "वाक": 3892,
      "सत्य": 3893,
      "भवेत्": 3894,
      "ानां": 3895,
      "वर्तते": 3896,
      "ाय": 3897,
      "कुर्व": 3898,
      "सदा": 3899,
      "कल": 3900,
      "##हे": 3901,
      "दिव": 3902,
      "##ञ्ज": 3903,
      "दोष": 3904,
      "एते": 3905,
      "क्रिय": 3906,
      "पठ": 3907,
      "इदं": 3908,
      "वर्षे": 3909,
      "तर्हि": 3910,
      "##ताः": 3911,
      "##वर्त": 3912,
      "जु": 3913,
      "जल": 3914,
      "्य": 3915,
      "उक्त": 3916,
      "ततो": 3917,
      "इह": 3918,
      "वयं": 3919,
      "जात": 3920,
      "भगव": 3921,
      "सौ": 3922,
      "येन": 3923,
      "विज्ञ": 3924,
      "##िताः": 3925,
      "##लः": 3926,
      "भाषा": 3927,
      "वाच": 3928,
      "##र्या": 3929,
      "आह": 3930,
      "जन्म": 3931,
      "भ्र": 3932,
      "##शा": 3933,
      "##er": 3934,
      "बि": 3935,
      "हेत": 3936,
      "##मपि": 3937,
      "सन्": 3938,
      "भविष्यति": 3939,
      "ाव": 3940,
      "आव": 3941,
      "##ारि": 3942,
      "काले": 3943,
      "नृ": 3944,
      "##न्व": 3945,
      "तस्या": 3946,
      "सन्ति": 3947,
      "पाद": 3948,
      "घट": 3949,
      "क्रिया": 3950,
      "वर्ण": 3951,
      "वक्त": 3952,
      "शक्ति": 3953,
      "ेति": 3954,
      "##यित": 3955,
      "मेव": 3956,
      "##यन": 3957,
      "##ारः": 3958,
      "इव": 3959,
      "ोप": 3960,
      "प्रथम": 3961,
      "अत": 3962,
      "वाय": 3963,
      "पश्य": 3964,
      "अयं": 3965,
      "ाः": 3966,
      "प्रयोग": 3967,
      "वस्तु": 3968,
      "सर्वं": 3969,
      "##ीन": 3970,
      "##धे": 3971,
      "तम": 3972,
      "प्रती": 3973,
      "##लोक": 3974,
      "हृद": 3975,
      "##कृति": 3976,
      "मध्य": 3977,
      "सी": 3978,
      "##ानु": 3979,
      "##णो": 3980,
      "##ल्य": 3981,
      "##श्": 3982,
      "परं": 3983,
      "आस": 3984,
      "और": 3985,
      "प्रद": 3986,
      "अस्मा": 3987,
      "तत": 3988,
      "पे": 3989,
      "पश": 3990,
      "##ादश": 3991,
      "##ारं": 3992,
      "बा": 3993,
      "पूज": 3994,
      "नः": 3995,
      "ानु": 3996,
      "ेषु": 3997,
      "ार्थ": 3998,
      "मार्ग": 3999,
      "##ितो": 4000,
      "सामान्य": 4001,
      "यं": 4002,
      "यद्य": 4003,
      "रात्र": 4004,
      "##विध": 4005,
      "##ण्य": 4006,
      "कृत्वा": 4007,
      "##ष्टा": 4008,
      "##योज": 4009,
      "क्व": 4010,
      "##न्तः": 4011,
      "भूत": 4012,
      "##भाष": 4013,
      "अस": 4014,
      "तथ": 4015,
      "विषय": 4016,
      "##भवत्": 4017,
      "##्छ": 4018,
      "##दे": 4019,
      "ब्रह": 4020,
      "प्रकाश": 4021,
      "शेष": 4022,
      "##व्यं": 4023,
      "ष्": 4024,
      "##क्रम": 4025,
      "यज्ञ": 4026,
      "##म्भ": 4027,
      "##्राह": 4028,
      "मुक्त": 4029,
      "पाठ": 4030,
      "नी": 4031,
      "नव": 4032,
      "##काः": 4033,
      "##मिति": 4034,
      "सेव": 4035,
      "बल": 4036,
      "##पत्त": 4037,
      "केवलं": 4038,
      "##र्घ": 4039,
      "##यते": 4040,
      "राज्य": 4041,
      "याव": 4042,
      "प्रभ": 4043,
      "##द्या": 4044,
      "अधि": 4045,
      "##भ्यः": 4046,
      "दा": 4047,
      "##नोति": 4048,
      "पाप": 4049,
      "ताव": 4050,
      "नित": 4051,
      "पुनर्": 4052,
      "##देव": 4053,
      "##कु": 4054,
      "अर्थ": 4055,
      "ती": 4056,
      "नास्ति": 4057,
      "##ारी": 4058,
      "परम": 4059,
      "पुं": 4060,
      "##िति": 4061,
      "समी": 4062,
      "मुख": 4063,
      "ात्म": 4064,
      "यद्": 4065,
      "##रणं": 4066,
      "##लो": 4067,
      "करि": 4068,
      "##कि": 4069,
      "...": 4070,
      "वच": 4071,
      "केन": 4072,
      "हस्त": 4073,
      "पुरा": 4074,
      "##र्प": 4075,
      "##यां": 4076,
      "प्रे": 4077,
      "इत्यादि": 4078,
      "याः": 4079,
      "ह्य": 4080,
      "शक्त": 4081,
      "हो": 4082,
      "क्री": 4083,
      "##ुर": 4084,
      "युद्ध": 4085,
      "गत": 4086,
      "पुर": 4087,
      "##व्यम्": 4088,
      "भु": 4089,
      "10": 4090,
      "कर्": 4091,
      "धात": 4092,
      "तप": 4093,
      "मिति": 4094,
      "##ूल": 4095,
      "नैव": 4096,
      "श्व": 4097,
      "##सो": 4098,
      "##st": 4099,
      "##र्ह": 4100,
      "##ेः": 4101,
      "##ेक": 4102,
      "शरी": 4103,
      "##ुर्": 4104,
      "लिख": 4105,
      "विव": 4106,
      "स्थाप": 4107,
      "केवल": 4108,
      "त्": 4109,
      "धार": 4110,
      "चे": 4111,
      "खः": 4112,
      "धी": 4113,
      "विद्यते": 4114,
      "व्र": 4115,
      "##गः": 4116,
      "प्रक": 4117,
      "पूर्ण": 4118,
      "##बन्ध": 4119,
      "##हः": 4120,
      "यू": 4121,
      "कृते": 4122,
      "राजा": 4123,
      "चिन्त": 4124,
      "किम्": 4125,
      "कारण": 4126,
      "##ुम्": 4127,
      "शुभ": 4128,
      "११": 4129,
      "प्राप्": 4130,
      "##ृष्ट": 4131,
      "सर": 4132,
      "##ाये": 4133,
      "##मी": 4134,
      "##भाषा": 4135,
      "##न्या": 4136,
      "ानि": 4137,
      "सर्वा": 4138,
      "##द्व": 4139,
      "एतत्": 4140,
      "##हा": 4141,
      "##ोः": 4142,
      "शत": 4143,
      "गण": 4144,
      "विप": 4145,
      "##दाह": 4146,
      "##गम": 4147,
      "##क्ष्य": 4148,
      "तया": 4149,
      "##व्या": 4150,
      "विभ": 4151,
      "201": 4152,
      "##गे": 4153,
      "लक्षण": 4154,
      "से": 4155,
      "यज": 4156,
      "##धः": 4157,
      "दृश्यते": 4158,
      "दत्त": 4159,
      "निष्": 4160,
      "तमे": 4161,
      "पृथ": 4162,
      "ान्": 4163,
      "##को": 4164,
      "दिन": 4165,
      "त्या": 4166,
      "सूर्य": 4167,
      "निर्व": 4168,
      "##तिं": 4169,
      "दृश्य": 4170,
      "##ोद": 4171,
      "वर": 4172,
      "गुरु": 4173,
      "क्रम": 4174,
      "पर्य": 4175,
      "दृष्ट्वा": 4176,
      "मनो": 4177,
      "##न्तं": 4178,
      "राम": 4179,
      "विषये": 4180,
      "यां": 4181,
      "दुर्": 4182,
      "##ुना": 4183,
      "##टि": 4184,
      "श्री": 4185,
      "##पर": 4186,
      "##घ्र": 4187,
      "##ज्ज": 4188,
      "ध्व": 4189,
      "मित्र": 4190,
      "द्": 4191,
      "##तर": 4192,
      "##स्ते": 4193,
      "कार्यं": 4194,
      "विभाग": 4195,
      "वस": 4196,
      "सर्वत्र": 4197,
      "शत्र": 4198,
      "तृत": 4199,
      "पृथि": 4200,
      "##कारः": 4201,
      "ान": 4202,
      "ऽपि": 4203,
      "वृद्ध": 4204,
      "ध्य": 4205,
      "---": 4206,
      "वन": 4207,
      "क्रीड": 4208,
      "वार": 4209,
      "##हित": 4210,
      "निर": 4211,
      "प्रवि": 4212,
      "पर्व": 4213,
      "##यन्": 4214,
      "प्रधान": 4215,
      "##वं": 4216,
      "वह": 4217,
      "##लय": 4218,
      "##जः": 4219,
      "##ड्": 4220,
      "##धार": 4221,
      "##ष्यामि": 4222,
      "गम": 4223,
      "रुप": 4224,
      "मन्त्र": 4225,
      "नित्य": 4226,
      "विद्य": 4227,
      "##__": 4228,
      "##रेण": 4229,
      "पक्ष": 4230,
      "यथ": 4231,
      "##मानं": 4232,
      "कौ": 4233,
      "कं": 4234,
      "ब्र": 4235,
      "##शी": 4236,
      "##णु": 4237,
      "१२": 4238,
      "लेख": 4239,
      "तिष्ठ": 4240,
      "अग्नि": 4241,
      "##र्द": 4242,
      "##ar": 4243,
      "##णाम": 4244,
      "नर": 4245,
      "निश्च": 4246,
      "ब्रह्म": 4247,
      "संस्कृत": 4248,
      "##दिति": 4249,
      "##भ्यां": 4250,
      "##on": 4251,
      "न्या": 4252,
      "##वाच": 4253,
      "##िं": 4254,
      "प्राय": 4255,
      "सम्भव": 4256,
      "##ुम": 4257,
      "स्वरूप": 4258,
      "##लु": 4259,
      "##पाल": 4260,
      "१८": 4261,
      "##्यम्": 4262,
      "##ब्ध": 4263,
      "विचार": 4264,
      "ान्त": 4265,
      "##ून": 4266,
      "कश्चि": 4267,
      "त्वया": 4268,
      "##तीति": 4269,
      "##ैक": 4270,
      "ज्ञात": 4271,
      "मूल": 4272,
      "सम्बन्ध": 4273,
      "##पः": 4274,
      "##an": 4275,
      "रस": 4276,
      "यत": 4277,
      "पुनर": 4278,
      "जायते": 4279,
      "##यात्": 4280,
      "आत्म": 4281,
      "शृ": 4282,
      "संव": 4283,
      "सङ्": 4284,
      "##ेश्व": 4285,
      "##दृश": 4286,
      "छा": 4287,
      "##ैर्": 4288,
      "इदान": 4289,
      "लभ": 4290,
      "अभवत्": 4291,
      "##शु": 4292,
      "प्रोक्त": 4293,
      "मात्र": 4294,
      "संशयः": 4295,
      "##ात्म": 4296,
      "क्षेत्र": 4297,
      "अध्य": 4298,
      "नियम": 4299,
      "तत्त्व": 4300,
      "##in": 4301,
      "यतः": 4302,
      "इच्छ": 4303,
      "शास्त्र": 4304,
      "##ाने": 4305,
      "दीर्घ": 4306,
      "अद्य": 4307,
      "च्छ": 4308,
      "अभ": 4309,
      "कुरु": 4310,
      "##गत": 4311,
      "##िर": 4312,
      "किम": 4313,
      "##वरी": 4314,
      "भारती": 4315,
      "भावः": 4316,
      "##वार": 4317,
      "##माः": 4318,
      "१५": 4319,
      "संयुक्त": 4320,
      "उभ": 4321,
      "()": 4322,
      "निय": 4323,
      "अस्मिन्": 4324,
      "चेत्": 4325,
      "नग": 4326,
      "विकल्प": 4327,
      "##थं": 4328,
      "##ष्टं": 4329,
      "मी": 4330,
      "##तया": 4331,
      "##नाम्": 4332,
      "पूर्वं": 4333,
      "नित्यं": 4334,
      "भवन्ति": 4335,
      "सूचना": 4336,
      "आर": 4337,
      "उपयोग": 4338,
      "मपि": 4339,
      "##ग्रह": 4340,
      "##हो": 4341,
      "##en": 4342,
      "देशे": 4343,
      "##ापि": 4344,
      "##ादृश": 4345,
      "##कर": 4346,
      "##om": 4347,
      "##र्भ": 4348,
      "##यामि": 4349,
      "##वत्": 4350,
      "लाभ": 4351,
      "##क्षु": 4352,
      "भक्त": 4353,
      "##ञ्": 4354,
      "##ेय": 4355,
      "द्विती": 4356,
      "मात": 4357,
      "स्वयं": 4358,
      "उत्तर": 4359,
      "ित": 4360,
      "##र्था": 4361,
      "##िकं": 4362,
      "पदा": 4363,
      "संख्या": 4364,
      "इद": 4365,
      "तर": 4366,
      "##र्च": 4367,
      "विज": 4368,
      "मद": 4369,
      "##रोध": 4370,
      "स्वी": 4371,
      "##डि": 4372,
      "निम": 4373,
      "एका": 4374,
      "##्राणि": 4375,
      "##ताम्": 4376,
      "##ायं": 4377,
      "योः": 4378,
      "योज": 4379,
      "बाह": 4380,
      "##र्थे": 4381,
      "द्वारा": 4382,
      "त्वात्": 4383,
      "मास": 4384,
      "##ित्वा": 4385,
      "प्राण": 4386,
      "हरि": 4387,
      "##ैर": 4388,
      "जनाः": 4389,
      "##or": 4390,
      "शो": 4391,
      "प्रण": 4392,
      "पुस्त": 4393,
      "मण्ड": 4394,
      "in": 4395,
      "##पूर्ण": 4396,
      "वो": 4397,
      "बुद्ध": 4398,
      "##सिद्ध": 4399,
      "सहस्र": 4400,
      "##लभ": 4401,
      "मृत्य": 4402,
      "ेन": 4403,
      "विह": 4404,
      "सव": 4405,
      "कम": 4406,
      "मन्त": 4407,
      "कस्य": 4408,
      "##याम": 4409,
      "सुर": 4410,
      "क्रियते": 4411,
      "संस्थ": 4412,
      "##ध्या": 4413,
      "##मुख": 4414,
      "लोके": 4415,
      "##गा": 4416,
      "तथापि": 4417,
      "धि": 4418,
      "स्वप्": 4419,
      "बन्ध": 4420,
      "##ंस": 4421,
      "चित्त": 4422,
      "##की": 4423,
      "##म्म": 4424,
      "स्वर्ग": 4425,
      "रूपं": 4426,
      "##स्मै": 4427,
      "उच्च": 4428,
      "ङ्": 4429,
      "एकः": 4430,
      "##ीनां": 4431,
      "अन्यथा": 4432,
      "सङ्ग": 4433,
      "तौ": 4434,
      "19": 4435,
      "##वो": 4436,
      "शक्यते": 4437,
      "ms": 4438,
      "##ित्": 4439,
      "क्षण": 4440,
      "वर्तमान": 4441,
      "##ान्ति": 4442,
      "प्रदेश": 4443,
      "कार्या": 4444,
      "प्रज": 4445,
      "गा": 4446,
      "##टी": 4447,
      "##श्वर": 4448,
      "##ड़": 4449,
      "गति": 4450,
      "रूपेण": 4451,
      "१४": 4452,
      "सक": 4453,
      "##पति": 4454,
      "परस्प": 4455,
      "विस्त": 4456,
      "##न्थ": 4457,
      "चैव": 4458,
      "प्रभाव": 4459,
      "लो": 4460,
      "निर्म": 4461,
      "फलं": 4462,
      "दैव": 4463,
      "##द्रा": 4464,
      "श्": 4465,
      "##es": 4466,
      "##ुत": 4467,
      "पाल": 4468,
      "भी": 4469,
      "चित्र": 4470,
      "समुद्र": 4471,
      "विशि": 4472,
      "भाषण": 4473,
      "दान": 4474,
      "##at": 4475,
      "द्य": 4476,
      "वृक्ष": 4477,
      "बी": 4478,
      "पति": 4479,
      "##ज्": 4480,
      "दक्षिण": 4481,
      "ज्ञानं": 4482,
      "साह": 4483,
      "व्याप": 4484,
      "##यन्ति": 4485,
      "धर्": 4486,
      "प्रमाण": 4487,
      "##ाला": 4488,
      "उद्": 4489,
      "त्वम्": 4490,
      "भवतः": 4491,
      "लघ": 4492,
      "ाभि": 4493,
      "वर्ध": 4494,
      "सूत्र": 4495,
      "प्रश्न": 4496,
      "##ेदन": 4497,
      "##ेष्ठ": 4498,
      "अस्माकं": 4499,
      "क्ल": 4500,
      "संभव": 4501,
      "पश्च": 4502,
      "वाम": 4503,
      "##त्तर": 4504,
      "##ष्यति": 4505,
      "##त्तम": 4506,
      "कृतं": 4507,
      "साक्ष": 4508,
      "##भूत": 4509,
      "उच्यते": 4510,
      "##ुष": 4511,
      "##००": 4512,
      "##मेर": 4513,
      "किन्तु": 4514,
      "शक्": 4515,
      "बुद्धि": 4516,
      "किञ्च": 4517,
      "##च्य": 4518,
      "परीक्षा": 4519,
      "##दः": 4520,
      "तस्मात्": 4521,
      "१७": 4522,
      "परिवर्त": 4523,
      "मं": 4524,
      "माता": 4525,
      "##र्ता": 4526,
      "अथवा": 4527,
      "##शो": 4528,
      "ज्यो": 4529,
      "##ूत": 4530,
      "##ह्य": 4531,
      "त्वेन": 4532,
      "ष्ट": 4533,
      "प्रवर्त": 4534,
      "प्रयोज": 4535,
      "प्रार्थ": 4536,
      "##पं": 4537,
      "सिं": 4538,
      "सम्प": 4539,
      "नै": 4540,
      "त्वां": 4541,
      "यात": 4542,
      "वाक्य": 4543,
      "पिता": 4544,
      "##चित": 4545,
      "##त्वं": 4546,
      "##ष्यते": 4547,
      "पत्र": 4548,
      "##स्याः": 4549,
      "चर": 4550,
      "प्रवृत्त": 4551,
      "भारतीय": 4552,
      "गृहे": 4553,
      "##क्तं": 4554,
      "##ृत्य": 4555,
      "वर्षा": 4556,
      "##पो": 4557,
      "विनि": 4558,
      "##ष्टि": 4559,
      "ग्राम": 4560,
      "भय": 4561,
      "##मास": 4562,
      "##िक्": 4563,
      "शू": 4564,
      "इत्युक्त": 4565,
      "यतो": 4566,
      "##्वे": 4567,
      "##यत्": 4568,
      "प्रकृति": 4569,
      "प्रत्यय": 4570,
      "##्रु": 4571,
      "##वाह": 4572,
      "##ेवं": 4573,
      "##तेः": 4574,
      "विप्र": 4575,
      "प्रजा": 4576,
      "हर": 4577,
      "विकास": 4578,
      "इन्द्र": 4579,
      "कोई": 4580,
      "भवान्": 4581,
      "11": 4582,
      "पृष्ठानि": 4583,
      "सति": 4584,
      "१३": 4585,
      "##त्मा": 4586,
      "परमा": 4587,
      "अत्य": 4588,
      "पुष्": 4589,
      "सम्बद्ध": 4590,
      "अमेर": 4591,
      "##सू": 4592,
      "12": 4593,
      "स्न": 4594,
      "शीघ्र": 4595,
      "दूर": 4596,
      "द्वादश": 4597,
      "##इट": 4598,
      "..": 4599,
      "धा": 4600,
      "##जं": 4601,
      "विष्ण": 4602,
      "संसार": 4603,
      "दण्ड": 4604,
      "अन्व": 4605,
      "१६": 4606,
      "परम्": 4607,
      "##हास": 4608,
      "र्थ": 4609,
      "कथा": 4610,
      "है": 4611,
      "##दाय": 4612,
      "कृप": 4613,
      "##ग्ने": 4614,
      "वय": 4615,
      "समाप्त": 4616,
      "इत्यस्य": 4617,
      "अती": 4618,
      "गि": 4619,
      "##ष्या": 4620,
      "प्रातः": 4621,
      "##टे": 4622,
      "##ल्ल": 4623,
      "भवे": 4624,
      "ii": 4625,
      "इत": 4626,
      "जी": 4627,
      "तथैव": 4628,
      "पार": 4629,
      "देवा": 4630,
      "कृता": 4631,
      "##ag": 4632,
      "मुख्य": 4633,
      "##भ्यो": 4634,
      "##संधान": 4635,
      "अनेन": 4636,
      "उद": 4637,
      "वेब": 4638,
      "उदाह": 4639,
      "शुद्ध": 4640,
      "शै": 4641,
      "कारणं": 4642,
      "प्रयत्": 4643,
      "an": 4644,
      "##ारो": 4645,
      "ननु": 4646,
      "निमित्त": 4647,
      "##पद्यते": 4648,
      "शब्दः": 4649,
      "रोग": 4650,
      "वत्": 4651,
      "अनुसंधान": 4652,
      "##स्मात्": 4653,
      "विकि": 4654,
      "प्रकार": 4655,
      "##ष्टः": 4656,
      "यम": 4657,
      "महि": 4658,
      "द्रष्ट": 4659,
      "##त्वात्": 4660,
      "प्रवेश": 4661,
      "सर्वेषां": 4662,
      "तद्व": 4663,
      "ज्ञा": 4664,
      "कम्": 4665,
      "गृ": 4666,
      "यावत्": 4667,
      "तृती": 4668,
      "रथ": 4669,
      "निर्ण": 4670,
      "##दु": 4671,
      "मित्य": 4672,
      "##धन": 4673,
      "भिः": 4674,
      "स्फ": 4675,
      "##व्यः": 4676,
      "श्ल": 4677,
      "##धी": 4678,
      "प्रसिद्ध": 4679,
      "गतः": 4680,
      "##ेषा": 4681,
      "पव": 4682,
      "रह": 4683,
      "##जे": 4684,
      "लिङ्ग": 4685,
      "सोम": 4686,
      "मै": 4687,
      "##खा": 4688,
      "##ष्म": 4689,
      "समान": 4690,
      "प्रत्यक्ष": 4691,
      "##षेध": 4692,
      "##ेषण": 4693,
      "भूमि": 4694,
      "कुर्वन्ति": 4695,
      "सै": 4696,
      "स्मृ": 4697,
      "तृ": 4698,
      "##शत": 4699,
      "भगवान्": 4700,
      "पितृ": 4701,
      "सम्य": 4702,
      "य्": 4703,
      "दो": 4704,
      "##टा": 4705,
      "कुर्या": 4706,
      "##नियम": 4707,
      "##ष्ठा": 4708,
      "वेबसा": 4709,
      "स्थित": 4710,
      "तन्": 4711,
      "स्वभाव": 4712,
      "तस्मिन्": 4713,
      "तम्": 4714,
      "##यत": 4715,
      "अधिकतम": 4716,
      "प्राप्नोति": 4717,
      "##चर": 4718,
      "विज्ञान": 4719,
      "##वर्ष": 4720,
      "अध्या": 4721,
      "गते": 4722,
      "नगर": 4723,
      "##ोऽ": 4724,
      "अक": 4725,
      "##al": 4726,
      "खलु": 4727,
      "पात": 4728,
      "सर्वदा": 4729,
      "इदानीं": 4730,
      "ैर्": 4731,
      "ां": 4732,
      "##शे": 4733,
      "##न्तरं": 4734,
      "स्थाने": 4735,
      "##नाम": 4736,
      "##र्क": 4737,
      "वेबसाइट": 4738,
      "शिव": 4739,
      "भोज": 4740,
      "##गृह": 4741,
      "##त्ता": 4742,
      "अम": 4743,
      "मत": 4744,
      "ne": 4745,
      "##तन्त्र": 4746,
      "##ीर": 4747,
      "मृत": 4748,
      "हा": 4749,
      "शास": 4750,
      "चन्द्र": 4751,
      "##लम्": 4752,
      "ग्रन्थ": 4753,
      "निवृत्त": 4754,
      "निः": 4755,
      "नां": 4756,
      "##वती": 4757,
      "##ज्यते": 4758,
      "##न्तर": 4759,
      "ैक": 4760,
      "इत्यर्थः": 4761,
      "##धिकार": 4762,
      "18": 4763,
      "विर": 4764,
      "##्येत": 4765,
      "15": 4766,
      "##ितुं": 4767,
      "##्नि": 4768,
      "देवता": 4769,
      "निर्देश": 4770,
      "आद": 4771,
      "कर्तुं": 4772,
      "ञ्च": 4773,
      "##कूल": 4774,
      "##पादन": 4775,
      "मित": 4776,
      "देह": 4777,
      "##ज्ञान": 4778,
      "##र्ति": 4779,
      "##खि": 4780,
      "सूच": 4781,
      "समाचार": 4782,
      "सेन": 4783,
      "##वास": 4784,
      "त्वे": 4785,
      "##धिः": 4786,
      "न्याय": 4787,
      "पत": 4788,
      "##साय": 4789,
      "लघु": 4790,
      "एषा": 4791,
      "पश्चि": 4792,
      "मन्य": 4793,
      "आप": 4794,
      "##प्रति": 4795,
      "अधिनियम": 4796,
      "##िनः": 4797,
      "यति": 4798,
      "##लन": 4799,
      "##याम्": 4800,
      "वः": 4801,
      "##रुद्ध": 4802,
      "नाम्": 4803,
      "ख्या": 4804,
      "गौ": 4805,
      "##वां": 4806,
      "##मां": 4807,
      "समर्थ": 4808,
      "संस्था": 4809,
      "चक्र": 4810,
      "चेत": 4811,
      "##ध्यते": 4812,
      "##भ्या": 4813,
      "मत्": 4814,
      "व्याख्या": 4815,
      "##जी": 4816,
      "विधान": 4817,
      "इत्येत": 4818,
      "द्वितीय": 4819,
      "पौ": 4820,
      "शब्": 4821,
      "पीड": 4822,
      "##गी": 4823,
      "##माह": 4824,
      "पर्या": 4825,
      "याम": 4826,
      "ज्व": 4827,
      "##शं": 4828,
      "षष्ठ": 4829,
      "चिक": 4830,
      "माह": 4831,
      "##रिति": 4832,
      "##्राह्म": 4833,
      "लु": 4834,
      "##00": 4835,
      "##जो": 4836,
      "व्यवहार": 4837,
      "सन्द": 4838,
      "ार्थं": 4839,
      "ाद्": 4840,
      "##जि": 4841,
      "शान्त": 4842,
      "हेतु": 4843,
      "प्रकृ": 4844,
      "स्मृत": 4845,
      "क्त": 4846,
      "पदं": 4847,
      "मय": 4848,
      "प्रो": 4849,
      "##तेन": 4850,
      "यान": 4851,
      "मुनि": 4852,
      "##पत्ति": 4853,
      "अहम्": 4854,
      "##सौ": 4855,
      "व्यवस्था": 4856,
      "##कर्म": 4857,
      "प्रमा": 4858,
      "##नाय": 4859,
      "प्रकरण": 4860,
      "##ाद्य": 4861,
      "ग्राह": 4862,
      "प्राप": 4863,
      "क्रि": 4864,
      "नार": 4865,
      "केन्द्र": 4866,
      "##ोत": 4867,
      "##निक": 4868,
      "##धिकरण": 4869,
      "श्रुत्वा": 4870,
      "दद": 4871,
      "मार": 4872,
      "हं": 4873,
      "##च्छति": 4874,
      "प्रशि": 4875,
      "##काले": 4876,
      "##ग्ध": 4877,
      "प्रत्या": 4878,
      "एवम्": 4879,
      "##यितुं": 4880,
      "##न्धि": 4881,
      "##ूगु": 4882,
      "दिने": 4883,
      "खो": 4884,
      "पं": 4885,
      "स्र": 4886,
      "प्राप्य": 4887,
      "यय": 4888,
      "प्रच": 4889,
      "प्रयो": 4890,
      "क्": 4891,
      "##ूनां": 4892,
      "शरीर": 4893,
      "यद्यपि": 4894,
      "##नस्य": 4895,
      "##स्मान्": 4896,
      "##str": 4897,
      "श्रेष्ठ": 4898,
      "अष्ट": 4899,
      "नेव": 4900,
      "##नीय": 4901,
      "re": 4902,
      "ध्यान": 4903,
      "ैव": 4904,
      "##सर्ग": 4905,
      "कालः": 4906,
      "कदाचित्": 4907,
      "वित्त": 4908,
      "सां": 4909,
      "##वान": 4910,
      "वृद्धि": 4911,
      "एकं": 4912,
      "इयं": 4913,
      "सन्त": 4914,
      "स्थानं": 4915,
      "व्यक्त": 4916,
      "राज्ञ": 4917,
      "खे": 4918,
      "गत्वा": 4919,
      "##न्दि": 4920,
      "ज्योति": 4921,
      "ब्राह्म": 4922,
      "मयि": 4923,
      "कला": 4924,
      "##it": 4925,
      "मधु": 4926,
      "कृतम्": 4927,
      "तेषु": 4928,
      "कुल": 4929,
      "##ारे": 4930,
      "विल": 4931,
      "##णाम्": 4932,
      "जना": 4933,
      "विशेषतः": 4934,
      "हित": 4935,
      "विद्व": 4936,
      "##ग्रे": 4937,
      "##गो": 4938,
      "##ाद्": 4939,
      "कृतः": 4940,
      "##्वः": 4941,
      "भारतस्य": 4942,
      "मुप": 4943,
      "क्षि": 4944,
      "कव": 4945,
      "##राज": 4946,
      "२०१": 4947,
      "##ूष": 4948,
      "याति": 4949,
      "रम": 4950,
      "##ुत्": 4951,
      "##शेष": 4952,
      "कर्त्त": 4953,
      "मनः": 4954,
      "##दिष्ट": 4955,
      "##त्रि": 4956,
      "प्ल": 4957,
      "निरा": 4958,
      "जनवरी": 4959,
      "चै": 4960,
      "मनुष्य": 4961,
      "क्वचित्": 4962,
      "अक्ष": 4963,
      "नाश": 4964,
      "संब": 4965,
      "२१": 4966,
      "##नात्": 4967,
      "अनेक": 4968,
      "माया": 4969,
      "##ासु": 4970,
      "प्रश्": 4971,
      "##पेक्ष": 4972,
      "गच्छति": 4973,
      "तै": 4974,
      "विविध": 4975,
      "पृथक्": 4976,
      "##नाः": 4977,
      "##हम्": 4978,
      "14": 4979,
      "उदाहरण": 4980,
      "##कर्ता": 4981,
      "##gstr": 4982,
      "##द्धा": 4983,
      "##ान्तर": 4984,
      "msgstr": 4985,
      "vi": 4986,
      "सृष्ट": 4987,
      "पुण्य": 4988,
      "कति": 4989,
      "सम्बद्धानि": 4990,
      "##स्ट": 4991,
      "स्थि": 4992,
      "##द्यो": 4993,
      "बोध": 4994,
      "एषः": 4995,
      "समये": 4996,
      "सत्": 4997,
      "अर्थः": 4998,
      "##क्ष्यामि": 4999
    }
  }
}