<unk>	0
<s>	0
</s>	0
्य	-0
▁स	-1
्र	-2
▁प	-3
▁व	-4
▁।	-5
▁त	-6
्त	-7
▁क	-8
र्	-9
▁न	-10
▁म	-11
▁अ	-12
ति	-13
▁य	-14
्व	-15
ान	-16
▁द	-17
▁प्र	-18
म्	-19
त्	-20
▁भ	-21
ित	-22
▁श	-23
▁वि	-24
्या	-25
▁च	-26
ार	-27
▁र	-28
▁इ	-29
▁ज	-30
ां	-31
▁-	-32
्ष	-33
न्	-34
▁ग	-35
▁॥	-36
ते	-37
▁ह	-38
ष्	-39
▁ए	-40
▁ा	-41
स्य	-42
क्ष	-43
त्र	-44
न्त	-45
द्	-46
स्	-47
या	-48
र्व	-49
मा	-50
▁पर	-51
▁आ	-52
▁नि	-53
स्त	-54
▁"	-55
था	-56
▁ब	-57
क्त	-58
ेन	-59
ेव	-60
▁ल	-61
ाम	-62
▁,	-63
▁ध	-64
त्य	-65
▁सं	-66
पि	-67
तः	-68
▁उ	-69
ाय	-70
िक	-71
▁पु	-72
ाः	-73
▁स्	-74
▁वा	-75
्च	-76
ष्ट	-77
▁भव	-78
▁(	-79
▁.	-80
ेष	-81
दि	-82
▁स्व	-83
ना	-84
ृत	-85
▁इति	-86
ाव	-87
र्थ	-88
▁सर्व	-89
दा	-90
ाल	-91
्वा	-92
▁एव	-93
द्ध	-94
र्त	-95
्ञ	-96
ेश	-97
▁सम	-98
▁मा	-99
त्त	-100
ान्	-101
ता	-102
▁रा	-103
मि	-104
▁ः	-105
ङ्	-106
्यते	-107
▁अन	-108
▁तु	-109
▁त्व	-110
ाद	-111
▁१	-112
▁प्रा	-113
यो	-114
्यं	-115
िं	-116
यं	-117
▁सा	-118
▁सु	-119
▁'	-120
ानि	-121
▁स्त	-122
रण	-123
नि	-124
्रि	-125
ये	-126
रा	-127
र्म	-128
▁प्रति	-129
▁पू	-130
नं	-131
▁कार	-132
▁ते	-133
▁ं	-134
वि	-135
▁मु	-136
▁ो	-137
भि	-138
▁यो	-139
▁हि	-140
्ये	-141
नः	-142
ात	-143
▁ऽ	-144
रु	-145
ीय	-146
▁वर्	-147
▁कु	-148
प्त	-149
न्द	-150
श्च	-151
ने	-152
▁ना	-153
▁_	-154
च्	-155
▁े	-156
न्ति	-157
▁विश	-158
▁२	-159
ुः	-160
ष्ठ	-161
▁मह	-162
▁यथा	-163
ल्	-164
▁देव	-165
ेद	-166
यः	-167
ैव	-168
ज्ञ	-169
ानां	-170
ास	-171
िव	-172
रो	-173
▁द्व	-174
रे	-175
▁ख	-176
स्ति	-177
▁स्थ	-178
▁क्ष	-179
ूप	-180
▁1	-181
▁इत्य	-182
रि	-183
▁श्र	-184
▁एक	-185
▁अध	-186
▁?	-187
▁सम्	-188
ाग	-189
च्छ	-190
▁मे	-191
▁पा	-192
▁यु	-193
कार	-194
द्य	-195
तो	-196
▁या	-197
ती	-198
▁दृ	-199
ब्	-200
णि	-201
ेण	-202
िः	-203
ान्त	-204
हं	-205
प्र	-206
णा	-207
ङ्ग	-208
▁व्य	-209
ेत	-210
▁राज	-211
▁तथा	-212
▁परि	-213
▁मन	-214
▁म्	-215
ाष	-216
ैः	-217
▁उप	-218
▁कि	-219
▁गु	-220
▁2	-221
लं	-222
्न	-223
ण्	-224
िष	-225
ेषु	-226
वा	-227
▁सह	-228
▁ज्ञ	-229
ुं	-230
मान	-231
▁भू	-232
िता	-233
णं	-234
ोक	-235
रं	-236
▁कथ	-237
▁भवति	-238
▁कृत	-239
ितः	-240
सि	-241
▁कृ	-242
न्ध	-243
्रा	-244
मे	-245
▁सू	-246
गु	-247
का	-248
▁तद	-249
▁वै	-250
▁दि	-251
सा	-252
▁पूर्व	-253
▁दु	-254
▁विद	-255
ृह	-256
▁)	-257
कं	-258
री	-259
मः	-260
▁स्य	-261
्री	-262
▁तत्	-263
भव	-264
▁समा	-265
▁किं	-266
्यः	-267
▁पृ	-268
▁फ	-269
ात्	-270
▁तस्य	-271
श्य	-272
रः	-273
ला	-274
सी	-275
तं	-276
र्ण	-277
▁वर्ष	-278
▁घ	-279
▁यदि	-280
▁को	-281
▁जन	-282
चि	-283
त्या	-284
धि	-285
▁अपि	-286
ानं	-287
ग्	-288
र्श	-289
▁३	-290
ञ्च	-291
▁काल	-292
र्ग	-293
तु	-294
▁अनु	-295
स्मा	-296
▁ति	-297
▁नाम	-298
ुक्त	-299
न्न	-300
हि	-301
▁रूप	-302
्रह	-303
▁ष	-304
▁मि	-305
दं	-306
ण्ड	-307
व्य	-308
ितं	-309
णां	-310
▁व्या	-311
▁छ	-312
▁तत्र	-313
▁एत	-314
▁के	-315
भाव	-316
▁मध	-317
स्थ	-318
▁का	-319
क्	-320
कः	-321
ेत्	-322
▁अस्ति	-323
▁अप	-324
क्र	-325
ब्द	-326
ल्प	-327
▁सि	-328
स्तु	-329
देश	-330
स्या	-331
ीव	-332
▁प्रत्य	-333
▁विष	-334
सं	-335
▁देश	-336
▁कर्त	-337
▁वृ	-338
▁बह	-339
▁मम	-340
▁--	-341
▁यत्	-342
्यो	-343
▁एवं	-344
त्व	-345
▁गृह	-346
योग	-347
स्मि	-348
▁भाव	-349
▁स्या	-350
▁कर्म	-351
र्ष	-352
ुप	-353
कृ	-354
ृत्त	-355
क्षण	-356
▁भार	-357
▁४	-358
्ल	-359
▁शु	-360
ित्य	-361
तिः	-362
क्षा	-363
▁ि	-364
▁!	-365
क्ति	-366
▁अथ	-367
त्म	-368
▁श्च	-369
धान	-370
▁ान	-371
▁पुनः	-372
र्य	-373
▁भाष	-374
▁ै	-375
▁ये	-376
▁क्र	-377
▁वर्त	-378
▁स्म	-379
▁दृष्ट	-380
▁त्वं	-381
ितम्	-382
नम्	-383
ीत	-384
चार	-385
▁पुन	-386
▁शब्द	-387
्म	-388
▁५	-389
▁ता	-390
▁ाद	-391
्रिय	-392
▁मान	-393
ोष	-394
▁लोक	-395
याः	-396
नी	-397
णे	-398
धा	-399
▁अव	-400
यम	-401
▁/	-402
▁शि	-403
द्र	-404
▁तदा	-405
िष्य	-406
न्ते	-407
श्व	-408
▁मू	-409
▁3	-410
नु	-411
यति	-412
ित्र	-413
वान्	-414
्यां	-415
ेषां	-416
▁धर्म	-417
के	-418
▁तं	-419
▁जीव	-420
▁तेन	-421
▁तव	-422
च्च	-423
▁चि	-424
▁प्रव	-425
▁विशेष	-426
प्य	-427
▁पद	-428
िका	-429
रुष	-430
▁लि	-431
▁प्रथ	-432
▁पुत्र	-433
▁सः	-434
ीन	-435
▁प्राप्त	-436
न्त्र	-437
ीं	-438
कृत	-439
▁निर्	-440
लि	-441
न्य	-442
त्वा	-443
▁संस्	-444
▁[	-445
र्थः	-446
▁करो	-447
्ज	-448
▁साध	-449
▁ततः	-450
▁__	-451
यम्	-452
ित्त	-453
▁=	-454
मं	-455
ख्या	-456
▁शक	-457
▁कार्य	-458
▁साम	-459
▁अन्य	-460
▁निव	-461
भू	-462
▁योग	-463
▁वे	-464
ोप	-465
मेव	-466
णः	-467
▁अधिक	-468
▁विश्व	-469
▁भि	-470
ले	-471
▁ट	-472
ुष	-473
▁दे	-474
ामि	-475
▁थ	-476
क्षि	-477
न्द्र	-478
▁प्रश	-479
▁विक	-480
▁६	-481
ाह	-482
स्म	-483
स्मिन्	-484
▁त्वा	-485
ाप	-486
▁पि	-487
ृश	-488
▁ने	-489
▁केव	-490
भाष	-491
श्र	-492
▁यः	-493
▁सो	-494
▁त्रि	-495
▁तद्	-496
▁विध	-497
से	-498
▁उत्त	-499
▁अभि	-500
मु	-501
करण	-502
ऽपि	-503
ीति	-504
न्तु	-505
▁बहु	-506
पाद	-507
धिक	-508
ाना	-509
र्थं	-510
▁दर्श	-511
▁भग	-512
सः	-513
▁द्र	-514
▁गुण	-515
▁हे	-516
▁ी	-517
▁त्य	-518
काश	-519
त्स	-520
बन्ध	-521
▁रो	-522
न्म	-523
▁ई	-524
▁त्र	-525
▁पुरुष	-526
ारा	-527
ीप	-528
भाग	-529
▁अत्र	-530
▁4	-531
▁बु	-532
▁मया	-533
जन	-534
▁एष	-535
▁र्	-536
रूप	-537
स्व	-538
▁कथं	-539
▁समु	-540
▁भाग	-541
▁भारत	-542
य्	-543
▁भविष्य	-544
▁जग	-545
▁औ	-546
पद	-547
▁८	-548
च्यते	-549
भिः	-550
▁शा	-551
▁इत्या	-552
..	-553
▁७	-554
▁सुख	-555
▁मृ	-556
रम्	-557
▁दिव	-558
▁दश	-559
वे	-560
पा	-561
▁20	-562
द्धि	-563
▁दू	-564
▁पी	-565
▁सप्त	-566
▁ज्ञान	-567
▁न्त	-568
▁व्यव	-569
▁5	-570
▁S	-571
▁ग्र	-572
▁ादि	-573
स्त्र	-574
वः	-575
▁काम	-576
ट्	-577
▁ऋ	-578
ान्य	-579
▁रु	-580
▁२०	-581
मो	-582
्रिया	-583
सीत्	-584
चन	-585
▁हृ	-586
▁श्रु	-587
ायां	-588
▁तर्	-589
▁ला	-590
तां	-591
ङ्क	-592
▁भो	-593
त्त्व	-594
पु	-595
▁जा	-596
▁ग्रह	-597
ोध	-598
▁a	-599
▁न्	-600
▁अहं	-601
भा	-602
▁चा	-603
▁+	-604
▁पृथ	-605
त्रा	-606
प्	-607
▁द्वि	-608
जा	-609
चित्	-610
▁अन्त	-611
▁ड	-612
▁पित	-613
▁स्थान	-614
▁स्था	-615
येत्	-616
माण	-617
म्ब	-618
्याय	-619
▁प्रय	-620
▁स्तु	-621
▁सर्वे	-622
सु	-623
्यामि	-624
प्न	-625
▁यद	-626
▁की	-627
हार	-628
पू	-629
▁s	-630
ख्य	-631
▁युक्त	-632
दान	-633
▁रे	-634
शः	-635
ध्य	-636
▁क्षे	-637
▁;	-638
वाद	-639
▁रि	-640
ुःख	-641
▁यत्र	-642
काल	-643
ज्य	-644
र्ध	-645
▁लक्ष	-646
िते	-647
▁पृष्ठ	-648
शि	-649
▁९	-650
ष्ट्र	-651
ष्ण	-652
▁ॐ	-653
▁वेद	-654
▁अह	-655
▁फल	-656
▁सिद्ध	-657
ेति	-658
▁नो	-659
ीयते	-660
▁स्प	-661
▁यदा	-662
▁भेद	-663
▁मां	-664
सार	-665
▁कः	-666
▁0	-667
श्चि	-668
▁मो	-669
▁बाल	-670
्याः	-671
नां	-672
भ्य	-673
▁ु	-674
▁वृत्त	-675
▁नु	-676
▁चतु	-677
▁स्यात्	-678
ीर	-679
ग्र	-680
▁्	-681
▁वद	-682
▁०	-683
णी	-684
▁विना	-685
▁विद्या	-686
▁अतः	-687
▁दी	-688
▁आसीत्	-689
णम्	-690
▁उत्	-691
▁कदा	-692
▁तः	-693
▁*	-694
ायते	-695
तम	-696
कम्	-697
▁महा	-698
नेन	-699
▁गच्छ	-700
ोक्त	-701
▁तस्मा	-702
स्र	-703
▁नं	-704
र्ज	-705
्वं	-706
▁रक्ष	-707
▁१९	-708
▁जान	-709
▁दोष	-710
▁मध्ये	-711
▁परी	-712
▁सद	-713
▁दुःख	-714
ञ्ज	-715
▁नमः	-716
तम्	-717
त्रं	-718
स्था	-719
▁शी	-720
▁करोति	-721
▁A	-722
▁तो	-723
योः	-724
▁ाय	-725
ली	-726
▁संश	-727
▁ण	-728
▁गो	-729
▁अति	-730
▁पञ्च	-731
▁१०	-732
▁ात्	-733
षु	-734
स्प	-735
▁कर	-736
▁धन	-737
▁विज्ञ	-738
चना	-739
▁प्रस	-740
▁दक्षि	-741
युक्त	-742
▁न्य	-743
▁परा	-744
ोति	-745
दश	-746
▁द्वित	-747
▁तां	-748
▁:	-749
▁दृश	-750
▁ौ	-751
▁i	-752
म्य	-753
▁ैः	-754
▁कल्प	-755
▁t	-756
▁तेषां	-757
▁करण	-758
▁ले	-759
हे	-760
क्षे	-761
त्रे	-762
▁नव	-763
▁आग	-764
▁ोऽ	-765
▁स्त्री	-766
▁राष्ट्र	-767
िताः	-768
▁6	-769
▁अस्य	-770
▁वाक	-771
▁प्रि	-772
▁भवेत्	-773
▁सत्य	-774
▁ानां	-775
▁वर्तते	-776
पी	-777
▁कुर्व	-778
▁सदा	-779
▁यस्य	-780
ष्य	-781
▁कल	-782
▁एते	-783
▁पठ	-784
▁क्रिय	-785
यु	-786
▁वर्षे	-787
दी	-788
नो	-789
▁जन्म	-790
▁तर्हि	-791
▁उक्त	-792
▁जल	-793
▁ततो	-794
▁जि	-795
▁जात	-796
▁भगव	-797
पे	-798
▁येन	-799
▁इदं	-800
▁सौ	-801
▁आव	-802
षे	-803
▁वाच	-804
▁वयं	-805
विध	-806
▁m	-807
▁इह	-808
ुव	-809
▁आह	-810
er	-811
ग्नि	-812
▁प्रद	-813
▁भ्र	-814
लः	-815
▁ाव	-816
मपि	-817
र्या	-818
ज्ञा	-819
▁हेत	-820
▁भविष्यति	-821
▁I	-822
म्भ	-823
यि	-824
▁ओ	-825
ितो	-826
▁जु	-827
▁नृ	-828
▁तस्या	-829
▁परिव	-830
्यम्	-831
▁घट	-832
▁पाद	-833
▁क्रिया	-834
▁काले	-835
ताः	-836
▁वक्त	-837
▁ेति	-838
▁सन्ति	-839
ारः	-840
▁मेव	-841
यन	-842
यित	-843
▁ोप	-844
▁भाषा	-845
▁प्रथम	-846
▁नग	-847
▁ाः	-848
▁सर्वं	-849
▁आस	-850
▁वर्ण	-851
▁इव	-852
▁वाय	-853
▁प्रयोग	-854
▁पश्य	-855
लोक	-856
▁बल	-857
▁तम	-858
▁अत	-859
▁पश	-860
ारं	-861
▁वस्तु	-862
कृति	-863
▁हृद	-864
ेक	-865
▁8	-866
▁परं	-867
▁और	-868
▁मध्य	-869
--	-870
▁तत	-871
▁अस्मा	-872
▁मुक्त	-873
मिति	-874
शा	-875
ुर	-876
ष्टा	-877
्छ	-878
देव	-879
▁शक्त	-880
▁ेषु	-881
▁अयं	-882
▁ार्थ	-883
▁T	-884
धे	-885
▁मार्ग	-886
▁पूज	-887
▁पे	-888
▁्य	-889
▁बि	-890
▁यद्य	-891
ण्य	-892
▁यं	-893
▁रात्र	-894
▁मूल	-895
▁ऊ	-896
▁स्वा	-897
ानु	-898
▁कृत्वा	-899
षि	-900
योज	-901
▁7	-902
▁सी	-903
▁सामान्य	-904
▁नित	-905
▁तथ	-906
भवत्	-907
▁क्व	-908
▁भूत	-909
▁पाप	-910
▁विषय	-911
▁ान्	-912
क्रम	-913
ूल	-914
▁ब्रह	-915
्राह	-916
ारि	-917
▁बा	-918
▁शेष	-919
▁यज्ञ	-920
▁अस	-921
द्या	-922
व्यं	-923
▁प्रकाश	-924
▁सेव	-925
▁केवलं	-926
र्घ	-927
पत्त	-928
▁याव	-929
▁पाठ	-930
▁प्रभ	-931
▁ित	-932
भ्यः	-933
▁शक्ति	-934
▁ताव	-935
दे	-936
▁भा	-937
▁नास्ति	-938
▁पुनर्	-939
▁अर्थ	-940
िति	-941
▁परम	-942
▁ात्म	-943
ेश्व	-944
▁यद्	-945
रणं	-946
▁मुख	-947
सो	-948
ुर्	-949
न्तः	-950
▁हस्त	-951
ुम्	-952
▁करि	-953
र्प	-954
▁पुरा	-955
▁...	-956
▁केन	-957
र्ह	-958
▁पुं	-959
दृश	-960
▁इत्यादि	-961
▁वच	-962
▁प्रे	-963
▁याः	-964
ारी	-965
▁ह्य	-966
कु	-967
▁नः	-968
यां	-969
▁ान्त	-970
▁युद्ध	-971
थि	-972
▁विव	-973
▁क्री	-974
लो	-975
▁पुर	-976
▁गत	-977
▁सम्बन्ध	-978
ाम्	-979
व्यम्	-980
▁वी	-981
ृण	-982
▁तप	-983
▁नैव	-984
▁अधि	-985
▁कर्	-986
▁धात	-987
▁हो	-988
▁नी	-989
काः	-990
▁शरी	-991
▁श्व	-992
▁लिख	-993
▁ती	-994
▁स्थाप	-995
▁ानु	-996
▁चे	-997
▁धार	-998
श्	-999
▁खः	-1000
▁प्रक	-1001
ोः	-1002
हः	-1003
ेः	-1004
▁विद्यते	-1005
▁व्र	-1006
▁त्	-1007
▁केवल	-1008
द्व	-1009
▁राज्य	-1010
▁कृते	-1011
▁राजा	-1012
▁चिन्त	-1013
ृष्ट	-1014
▁किम्	-1015
▁वर	-1016
▁मिति	-1017
▁शुभ	-1018
▁दा	-1019
▁यू	-1020
on	-1021
भाषा	-1022
st	-1023
मी	-1024
ब्ध	-1025
▁गण	-1026
▁9	-1027
▁पूर्ण	-1028
▁सर	-1029
ाये	-1030
▁ानि	-1031
▁एतत्	-1032
▁वृद्ध	-1033
▁प्रज	-1034
ीनां	-1035
▁सर्वा	-1036
दाह	-1037
▁शत	-1038
न्व	-1039
▁तया	-1040
क्ष्य	-1041
▁विभ	-1042
▁सन्	-1043
▁दृश्यते	-1044
▁P	-1045
▁दत्त	-1046
पर	-1047
▁निष्	-1048
को	-1049
तीति	-1050
न्या	-1051
▁201	-1052
▁दिन	-1053
गः	-1054
▁यज	-1055
▁लक्षण	-1056
▁10	-1057
▁त्या	-1058
▁से	-1059
▁C	-1060
ुना	-1061
तिं	-1062
रोध	-1063
▁निर्व	-1064
▁११	-1065
शी	-1066
▁तमे	-1067
▁पर्य	-1068
▁दृष्ट्वा	-1069
▁मनो	-1070
▁गुरु	-1071
▁क्रम	-1072
कि	-1073
▁विषये	-1074
▁यां	-1075
हा	-1076
▁राम	-1077
▁दुर्	-1078
▁c	-1079
घ्र	-1080
▁दृश्य	-1081
मन	-1082
ज्ज	-1083
en	-1084
णो	-1085
स्ते	-1086
▁ध्व	-1087
▁मित्र	-1088
▁कार्यं	-1089
▁वस	-1090
हित	-1091
▁सर्वत्र	-1092
तर	-1093
▁विभाग	-1094
▁द्	-1095
▁विप	-1096
▁शत्र	-1097
००	-1098
कारः	-1099
▁ऽपि	-1100
▁M	-1101
or	-1102
▁तृत	-1103
▁द्वा	-1104
ोद	-1105
▁निर	-1106
▁ध्य	-1107
लय	-1108
▁वार	-1109
▁पर्व	-1110
ड्	-1111
▁वन	-1112
▁प्रधान	-1113
यते	-1114
दिति	-1115
धार	-1116
यन्	-1117
जः	-1118
▁कारण	-1119
▁प्रवि	-1120
▁क्रीड	-1121
▁॒	-1122
ुम	-1123
▁रुप	-1124
गे	-1125
▁॑	-1126
▁वह	-1127
रेण	-1128
▁विद्य	-1129
__	-1130
▁शिव	-1131
▁धी	-1132
मानं	-1133
▁मन्त्र	-1134
▁प्राप्न	-1135
ून	-1136
▁विधि	-1137
▁पृथिव	-1138
▁यथ	-1139
▁श्री	-1140
न्तं	-1141
▁पक्ष	-1142
▁तिष्ठ	-1143
▁l	-1144
ञ्	-1145
णाम	-1146
▁ब्र	-1147
▁निश्च	-1148
▁कं	-1149
▁N	-1150
▁ब्रह्म	-1151
▁नर	-1152
वाच	-1153
भ्यां	-1154
▁संस्कृत	-1155
▁लेख	-1156
▁न्या	-1157
▁प्राय	-1158
▁कौ	-1159
ैक	-1160
▁स्वरूप	-1161
र्थे	-1162
▁संव	-1163
▁विचार	-1164
ar	-1165
▁नित्य	-1166
▁कश्चि	-1167
▁त्वया	-1168
▁ेन	-1169
िकं	-1170
▁ज्ञात	-1171
▁ऐ	-1172
▁पुनर	-1173
टि	-1174
ैर्	-1175
▁यत	-1176
▁जायते	-1177
ापि	-1178
वी	-1179
िर	-1180
▁>	-1181
an	-1182
▁भु	-1183
व्या	-1184
▁सङ्	-1185
▁भक्त	-1186
▁सम्ब	-1187
▁इदान	-1188
▁प्रोक्त	-1189
▁लभ	-1190
ष्टं	-1191
▁संशयः	-1192
▁आत्म	-1193
▁अभवत्	-1194
▁मात्र	-1195
▁अध्य	-1196
▁नियम	-1197
▁ां	-1198
▁सम्भव	-1199
शु	-1200
▁रस	-1201
▁क्षेत्र	-1202
▁तत्त्व	-1203
ाने	-1204
▁दीर्घ	-1205
▁प्रती	-1206
▁यतः	-1207
▁इच्छ	-1208
▁शास्त्र	-1209
पाल	-1210
▁बुद्ध	-1211
▁च्छ	-1212
▁p	-1213
▁कुरु	-1214
▁भावः	-1215
▁१८	-1216
▁किम	-1217
ेय	-1218
माः	-1219
▁]	-1220
▁अभ	-1221
in	-1222
यात्	-1223
▁१२	-1224
दु	-1225
▁()	-1226
लु	-1227
वरी	-1228
▁b	-1229
▁निय	-1230
▁अस्मिन्	-1231
▁चेत्	-1232
षेध	-1233
▁उभ	-1234
ग्रह	-1235
तया	-1236
▁पूर्वं	-1237
▁विकल्प	-1238
▁अद्य	-1239
▁नित्यं	-1240
▁उपयोग	-1241
▁भवन्ति	-1242
▁मपि	-1243
▁सूचना	-1244
ंश	-1245
▁आर	-1246
om	-1247
र्भ	-1248
▁क्ल	-1249
▁संयुक्त	-1250
ल्य	-1251
कर	-1252
▁लाभ	-1253
▁B	-1254
र्च	-1255
यामि	-1256
▁मात	-1257
▁स्वयं	-1258
र्था	-1259
▁पदा	-1260
▁तर	-1261
▁संख्या	-1262
▁छा	-1263
▁उत्तर	-1264
▁विज	-1265
▁सव	-1266
षा	-1267
▁स्वी	-1268
▁मनुष	-1269
ित्वा	-1270
सिद्ध	-1271
ैर	-1272
पूर्ण	-1273
ायं	-1274
▁योः	-1275
▁निम	-1276
डि	-1277
ताम्	-1278
▁द्वारा	-1279
▁त्वात्	-1280
▁1.	-1281
▁बाह	-1282
▁प्राण	-1283
▁इद	-1284
▁प्रण	-1285
ध्या	-1286
ुत	-1287
द्रा	-1288
▁जनाः	-1289
▁d	-1290
▁मण्ड	-1291
लभ	-1292
▁वो	-1293
हो	-1294
▁n	-1295
▁सहस्र	-1296
▁देशे	-1297
▁पुस्त	-1298
▁शो	-1299
▁विह	-1300
▁१५	-1301
▁मृत्य	-1302
▁ङ	-1303
मुख	-1304
▁गम	-1305
▁योज	-1306
▁मन्त	-1307
न्थ	-1308
▁आप	-1309
▁सुर	-1310
▁अग्नि	-1311
▁क्रियते	-1312
▁कस्य	-1313
▁संस्थ	-1314
▁प्रश्न	-1315
▁लोके	-1316
▁बन्ध	-1317
▁H	-1318
▁तथापि	-1319
याम	-1320
es	-1321
म्म	-1322
▁चित्त	-1323
▁रूपं	-1324
स्मै	-1325
▁स्वर्ग	-1326
▁एकः	-1327
▁अन्यथा	-1328
00	-1329
ीया	-1330
▁सङ्ग	-1331
▁तौ	-1332
दः	-1333
▁शक्यते	-1334
▁अग	-1335
▁विप्र	-1336
▁वर्तमान	-1337
▁कम	-1338
▁प्रदेश	-1339
ित्	-1340
ड़	-1341
▁कार्या	-1342
▁शान्त	-1343
▁एका	-1344
▁सक	-1345
▁मी	-1346
▁गति	-1347
▁परस्प	-1348
मास	-1349
▁हर	-1350
▁चैव	-1351
▁विस्त	-1352
▁रूपेण	-1353
▁प्रभाव	-1354
▁---	-1355
वत्	-1356
्राणि	-1357
थं	-1358
▁झ	-1359
▁फलं	-1360
▁निर्म	-1361
दाय	-1362
▁दैव	-1363
▁लो	-1364
▁L	-1365
▁पाल	-1366
यत्	-1367
▁वृक्ष	-1368
सू	-1369
▁सूर्य	-1370
▁दान	-1371
▁चित्र	-1372
गम	-1373
▁धि	-1374
ज्	-1375
▁समुद्र	-1376
▁वर्ध	-1377
▁पति	-1378
▁गा	-1379
▁ज्ञानं	-1380
▁द्य	-1381
यन्ति	-1382
▁व्याप	-1383
▁दक्षिण	-1384
त्तर	-1385
▁साक्ष	-1386
▁साह	-1387
ेष्ठ	-1388
▁ाभि	-1389
▁धर्	-1390
ेदन	-1391
▁भाषण	-1392
▁अस्माकं	-1393
भूत	-1394
▁प्रमाण	-1395
▁उद्	-1396
च्य	-1397
▁पश्च	-1398
त्तम	-1399
▁वाम	-1400
गर	-1401
▁ॊ	-1402
▁कृतं	-1403
मेर	-1404
ीयः	-1405
▁मास	-1406
▁सूत्र	-1407
▁उच्यते	-1408
▁भी	-1409
▁हरि	-1410
▁त्वम्	-1411
▁किन्तु	-1412
▁भवतः	-1413
▁किञ्च	-1414
▁परीक्षा	-1415
शो	-1416
▁तस्मात्	-1417
▁परिवर्त	-1418
▁द्वादश	-1419
▁मं	-1420
▁१४	-1421
ह्य	-1422
▁लघ	-1423
ात्म	-1424
ूत	-1425
▁अथवा	-1426
र्ता	-1427
▁त्वेन	-1428
चित	-1429
▁प्रवर्त	-1430
▁रोग	-1431
▁प्रार्थ	-1432
ारो	-1433
▁ज्यो	-1434
▁r	-1435
at	-1436
टी	-1437
▁सिं	-1438
की	-1439
▁प्रयोज	-1440
▁बी	-1441
▁त्वां	-1442
▁मनु	-1443
त्वं	-1444
ृत्य	-1445
▁संभव	-1446
▁नै	-1447
▁यात	-1448
▁वाक्य	-1449
▁#	-1450
स्याः	-1451
▁ईश्व	-1452
▁माता	-1453
▁प्रवृत्त	-1454
▁चर	-1455
▁गृहे	-1456
ेवं	-1457
त्मा	-1458
▁उच्च	-1459
▁वर्षा	-1460
▁क्षण	-1461
र्द	-1462
िंश	-1463
्वे	-1464
▁शक्न	-1465
▁D	-1466
▁विनि	-1467
▁पिता	-1468
िक्	-1469
▁भारतीय	-1470
▁भय	-1471
▁इत्युक्त	-1472
ii	-1473
िष्ट	-1474
▁प्रकृति	-1475
▁पत्र	-1476
▁ग्राम	-1477
▁19	-1478
ष्टि	-1479
गत	-1480
तेः	-1481
▁यतो	-1482
वाह	-1483
▁श्	-1484
▁f	-1485
▁कोई	-1486
▁पृष्ठानि	-1487
▁विकास	-1488
▁शू	-1489
▁कृप	-1490
▁पार	-1491
ल्ल	-1492
▁परमा	-1493
इट	-1494
▁पुष्	-1495
क्तं	-1496
वर्ष	-1497
▁सम्बद्ध	-1498
▁शुद्ध	-1499
वं	-1500
▁सति	-1501
▁स्न	-1502
▁भवान्	-1503
▁अत्य	-1504
▁शीघ्र	-1505
▁१७	-1506
▁शृण	-1507
जं	-1508
▁दूर	-1509
▁नृप	-1510
▁विष्ण	-1511
▁संसार	-1512
ाला	-1513
हास	-1514
▁परम्	-1515
▁दण्ड	-1516
▁हं	-1517
▁है	-1518
▁कथा	-1519
▁इत्यस्य	-1520
टे	-1521
धन	-1522
▁अती	-1523
▁प्रातः	-1524
▁समाप्त	-1525
▁सम्प्र	-1526
▁वय	-1527
वो	-1528
▁अन्व	-1529
▁भवे	-1530
▁श्ल	-1531
▁प्रत्यय	-1532
ग्ने	-1533
▁तथैव	-1534
▁इत	-1535
▁बुद्धि	-1536
▁वत्	-1537
▁अमेर	-1538
भ्यो	-1539
संधान	-1540
▁मुख्य	-1541
▁अनेन	-1542
▁वेब	-1543
▁उदाह	-1544
▁देवा	-1545
▁कारणं	-1546
▁प्रयत्	-1547
ष्म	-1548
ारे	-1549
▁जी	-1550
▁उद	-1551
▁ननु	-1552
▁e	-1553
▁o	-1554
पद्यते	-1555
▁शब्दः	-1556
▁निमित्त	-1557
ag	-1558
▁शै	-1559
स्मात्	-1560
▁१३	-1561
▁अनुसंधान	-1562
▁ष्ट	-1563
रस्य	-1564
▁प्रकार	-1565
▁कृता	-1566
▁विकि	-1567
त्वात्	-1568
▁प्रसिद्ध	-1569
शं	-1570
▁द्रष्ट	-1571
▁प्रवेश	-1572
▁सर्वेषां	-1573
▁यावत्	-1574
धी	-1575
▁निर्ण	-1576
▁इन्द्र	-1577
▁भिः	-1578
जे	-1579
▁कम्	-1580
▁मित्य	-1581
▁तद्व	-1582
▁गतः	-1583
▁१६	-1584
▁स्फ	-1585
▁रह	-1586
▁सम्प	-1587
र्ति	-1588
▁रथ	-1589
▁गि	-1590
▁लिङ्ग	-1591
▁R	-1592
▁सन्ध	-1593
▁हिं	-1594
▁प्रत्यक्ष	-1595
▁मद	-1596
▁समान	-1597
शे	-1598
▁भूमि	-1599
▁ग्रन्थ	-1600
▁कुर्वन्ति	-1601
शत	-1602
▁पव	-1603
▁स्मृ	-1604
ेषण	-1605
▁भगवान्	-1606
नियम	-1607
▁सम्य	-1608
▁समीप	-1609
▁कुर्या	-1610
▁सै	-1611
रिति	-1612
ष्ठा	-1613
▁वेबसा	-1614
▁मै	-1615
▁स्थित	-1616
▁पितृ	-1617
▁यम	-1618
▁तस्मिन्	-1619
गा	-1620
▁ैव	-1621
कर्म	-1622
▁स्वभाव	-1623
कूल	-1624
खा	-1625
ादृश	-1626
▁तन्	-1627
▁प्राप्नोति	-1628
▁2.	-1629
ोऽ	-1630
▁V	-1631
चर	-1632
▁विज्ञान	-1633
्येत	-1634
▁गते	-1635
▁तम्	-1636
्नि	-1637
▁खलु	-1638
▁ैर्	-1639
▁सर्वदा	-1640
▁इदानीं	-1641
▁पात	-1642
न्तरं	-1643
ष्यति	-1644
ुक	-1645
िनः	-1646
▁स्थाने	-1647
▁वेबसाइट	-1648
टा	-1649
▁12	-1650
▁भोज	-1651
▁सोम	-1652
▁अम	-1653
व्यः	-1654
र्क	-1655
तन्त्र	-1656
al	-1657
▁मत	-1658
▁11	-1659
▁ैक	-1660
लम्	-1661
यत	-1662
▁E	-1663
▁अधिकतम	-1664
▁अध्या	-1665
▁य्	-1666
▁गृ	-1667
▁नां	-1668
▁मृत	-1669
▁निवृत्त	-1670
▁निः	-1671
ज्यते	-1672
▁चन्द्र	-1673
▁इत्यर्थः	-1674
▁विर	-1675
वती	-1676
▁शास	-1677
ितुं	-1678
▁देह	-1679
ज्ञान	-1680
▁कर्तुं	-1681
न्तर	-1682
▁देवता	-1683
▁आद	-1684
क्षु	-1685
ष्टः	-1686
▁ञ्च	-1687
▁निर्देश	-1688
पादन	-1689
साय	-1690
ोत	-1691
▁धा	-1692
▁मित	-1693
▁करिष	-1694
ुन	-1695
▁सेन	-1696
▁त्वे	-1697
िकी	-1698
▁न्याय	-1699
खि	-1700
▁पत	-1701
▁मन्य	-1702
▁स्र	-1703
▁अधिनियम	-1704
लन	-1705
▁ाधिक	-1706
▁यति	-1707
त्ता	-1708
▁महि	-1709
रुद्ध	-1710
▁नाम्	-1711
मां	-1712
▁ख्या	-1713
वां	-1714
▁समी	-1715
▁माह	-1716
▁समर्थ	-1717
▁समाचार	-1718
भ्या	-1719
▁संस्था	-1720
ध्यते	-1721
जी	-1722
▁पश्चि	-1723
▁व्याख्या	-1724
▁चक्र	-1725
▁गौ	-1726
▁चेत	-1727
▁मत्	-1728
▁विधान	-1729
सौ	-1730
माह	-1731
▁हा	-1732
▁शब्	-1733
▁इत्येत	-1734
▁द्वितीय	-1735
जि	-1736
▁याम	-1737
▁पर्या	-1738
▁पौ	-1739
्राह्म	-1740
ग्ध	-1741
णाम्	-1742
▁व्यवहार	-1743
▁अक	-1744
▁बोध	-1745
▁सूच	-1746
▁ार्थं	-1747
जो	-1748
पति	-1749
▁ज्व	-1750
▁ाद्	-1751
iv	-1752
▁पीड	-1753
▁यान	-1754
▁सन्द	-1755
▁v	-1756
▁षष्ठ	-1757
▁स्मृत	-1758
▁र्थ	-1759
▁प्रकृ	-1760
गृह	-1761
तेन	-1762
▁पदं	-1763
▁वः	-1764
▁तेष	-1765
▁प्रमा	-1766
▁मय	-1767
पत्ति	-1768
▁एषा	-1769
▁सूर	-1770
ोर्	-1771
▁िक	-1772
▁व्यवस्था	-1773
सम्	-1774
▁मुप	-1775
▁कुल	-1776
▁कव	-1777
काले	-1778
▁प्रकरण	-1779
▁अनेक	-1780
▁विरोध	-1781
याम्	-1782
▁ग्राह	-1783
▁प्राप	-1784
वास	-1785
▁मार	-1786
ूनां	-1787
ान्ति	-1788
▁प्रो	-1789
ाद्	-1790
▁क्त	-1791
▁श्रुत्वा	-1792
च्छति	-1793
यितुं	-1794
▁जाग	-1795
▁लु	-1796
▁एवम्	-1797
▁प्रशि	-1798
▁केन्द्र	-1799
▁व्यक्त	-1800
ूगु	-1801
स्मान्	-1802
राज	-1803
▁दद	-1804
▁अङ्ग	-1805
▁प्रत्या	-1806
पः	-1807
▁प्राप्य	-1808
ान्तर	-1809
▁क्रि	-1810
▁प्रच	-1811
▁हेतु	-1812
▁नार	-1813
▁यय	-1814
▁अहम्	-1815
▁पं	-1816
▁प्रयो	-1817
▁यद्यपि	-1818
ुत्	-1819
▁दिने	-1820
▁विल	-1821
▁15	-1822
▁श्रेष्ठ	-1823
str	-1824
▁18	-1825
▁नेव	-1826
▁अष्ट	-1827
▁खो	-1828
▁तृ	-1829
सर्ग	-1830
▁कालः	-1831
▁ध्यान	-1832
ूष	-1833
▁O	-1834
▁कदाचित्	-1835
▁इयं	-1836
▁सन्त	-1837
हम्	-1838
न्दि	-1839
▁एकं	-1840
▁सां	-1841
▁स्थानं	-1842
▁मयि	-1843
▁राज्ञ	-1844
▁शं	-1845
▁गत्वा	-1846
शेष	-1847
▁मुनि	-1848
गी	-1849
▁कृतम्	-1850
▁ज्योति	-1851
▁ब्राह्म	-1852
▁कला	-1853
▁तेषु	-1854
▁विशेषतः	-1855
▁विद्व	-1856
▁वित्त	-1857
▁जना	-1858
▁कृतः	-1859
्वः	-1860
▁हित	-1861
▁G	-1862
▁क्षि	-1863
स्ट	-1864
रणे	-1865
▁वीर	-1866
▁भारतस्य	-1867
▁खे	-1868
▁याति	-1869
▁कर्त्त	-1870
▁लघु	-1871
दिष्ट	-1872
▁नाश	-1873
▁मनः	-1874
▁विविध	-1875
▁क्वचित्	-1876
▁चै	-1877
▁निरा	-1878
नात्	-1879
▁२०१	-1880
▁प्ल	-1881
▁गच्छति	-1882
▁माया	-1883
▁विशिष्ट	-1884
हर	-1885
ासु	-1886
▁in	-1887
▁विन	-1888
▁संबन्ध	-1889
▁रम	-1890
रणम्	-1891
it	-1892
▁अक्ष	-1893
द्धा	-1894
वान	-1895
कर्ता	-1896
sg	-1897
वर्त	-1898
sgstr	-1899
▁<	-1900
▁जनवरी	-1901
िन	-1902
▁मधु	-1903
ाद्य	-1904
▁सम्बद्धानि	-1905
▁कति	-1906
▁ठ	-1907
▁सृष्ट	-1908
द्यो	-1909
▁एषः	-1910
▁स्थि	-1911
मन्त	-1912
नीय	-1913
ाणां	-1914
▁पृथक्	-1915
क्ष्यामि	-1916
णात्	-1917
▁वाद	-1918
▁सत्	-1919
▁पार्थ	-1920
फल	-1921
ीयं	-1922
▁पुण्य	-1923
▁ार	-1924
▁ोऽपि	-1925
सम	-1926
▁3.	-1927
पेक्ष	-1928
▁समये	-1929
▁ङ्ग	-1930
▁चतुर्	-1931
िके	-1932
▁भ्य	-1933
गो	-1934
▁सृ	-1935
▁विम	-1936
▁कृपया	-1937
ग्रे	-1938
▁इत्यनेन	-1939
धः	-1940
ादि	-1941
▁अर्थः	-1942
िकः	-1943
▁चल	-1944
▁जगत्	-1945
▁छात्र	-1946
▁परिणाम	-1947
▁वापि	-1948
▁समय	-1949
ेश्वर	-1950
▁२१	-1951
▁पूजा	-1952
पन्	-1953
त्ते	-1954
▁ज्या	-1955
चिद	-1956
सां	-1957
▁तन	-1958
▁आवश्य	-1959
▁वाह	-1960
ग्न	-1961
▁कर्ता	-1962
▁सर्व्व	-1963
le	-1964
ome	-1965
▁लब्ध	-1966
▁इत्येव	-1967
▁तै	-1968
▁मानव	-1969
ोर	-1970
कर्ष	-1971
▁तानि	-1972
▁काव	-1973
▁u	-1974
▁प्रतिषेध	-1975
मान्	-1976
▁चिक	-1977
▁प्राच	-1978
▁ददा	-1979
▁विच	-1980
ou	-1981
ानाम्	-1982
▁महोद	-1983
▁$	-1984
▁सत्त्व	-1985
▁३०	-1986
▁वने	-1987
▁कू	-1988
▁सोऽ	-1989
▁सङ्क	-1990
▁शिक्ष	-1991
▁शरीर	-1992
▁वान्	-1993
▁धनं	-1994
▁14	-1995
▁इत्	-1996
▁अयम्	-1997
▁हृदय	-1998
▁सत	-1999
▁जलं	-2000
▁स्थिति	-2001
▁इत्यत्र	-2002
▁बृह	-2003
▁राज्यं	-2004
▁वास	-2005
कृत्य	-2006
▁ताम्	-2007
▁ध्या	-2008
▁प्रिय	-2009
▁नाय	-2010
नाम	-2011
त्रि	-2012
▁काय	-2013
▁मिथ	-2014
यित्वा	-2015
▁श्लोक	-2016
▁प्रया	-2017
ारण	-2018
▁घोष	-2019
▁परे	-2020
▁अप्र	-2021
▁वचनं	-2022
▁दृढ	-2023
▁वार्त	-2024
्याह	-2025
तन	-2026
▁गृह्	-2027
▁{	-2028
धिकार	-2029
▁देवानां	-2030
▁आन	-2031
▁दीप	-2032
ादश	-2033
ृतं	-2034
▁निवेश	-2035
▁भ्रम	-2036
पं	-2037
▁वचन	-2038
▁F	-2039
▁शिक्षा	-2040
▁निज	-2041
काम	-2042
▁नम	-2043
▁पदे	-2044
▁सुखं	-2045
लिख	-2046
▁कीदृश	-2047
बु	-2048
नाम्	-2049
▁सुव	-2050
▁परीक्षण	-2051
▁मूर्	-2052
गुण	-2053
पन्न	-2054
▁पत्	-2055
▁प्रथमं	-2056
पृ	-2057
्रे	-2058
भिर्	-2059
▁२५	-2060
स्यां	-2061
▁पश्यति	-2062
▁टी	-2063
▁वं	-2064
कस्य	-2065
▁गृहं	-2066
▁तिथि	-2067
▁तादृश	-2068
▁Ne	-2069
▁२२	-2070
▁Tag	-2071
▁अधो	-2072
▁ज्ञे	-2073
सह	-2074
▁बाध	-2075
▁तुल	-2076
▁दिना	-2077
▁एवम	-2078
▁थ्व	-2079
▁चक्ष	-2080
▁दै	-2081
▁भूम	-2082
यी	-2083
▁भवित	-2084
▁रात्रौ	-2085
▁शीत	-2086
▁संवि	-2087
▁ह्र	-2088
▁साधन	-2089
▁मस्ति	-2090
▁संप्र	-2091
▁युग	-2092
▁कीर्त	-2093
▁U	-2094
▁ोक्त	-2095
▁नेवाः	-2096
▁भे	-2097
▁निवर्त	-2098
▁h	-2099
▁टि	-2100
▁द्वे	-2101
पन	-2102
▁तू	-2103
च्छेद	-2104
▁समास	-2105
▁षु	-2106
▁ानाम्	-2107
▁लोप	-2108
▁वृत्ति	-2109
▁भेदः	-2110
▁कुत्र	-2111
▁गृहीत	-2112
▁अधिकार	-2113
▁स्त्रिय	-2114
ent	-2115
▁..	-2116
▁कृष्ण	-2117
▁पुरुषः	-2118
▁अव्य	-2119
▁तावत्	-2120
▁जाय	-2121
िष्यामि	-2122
▁मौ	-2123
▁भयं	-2124
▁तस्याः	-2125
ion	-2126
▁रोच	-2127
विद्या	-2128
▁गन्ध	-2129
▁रू	-2130
िष्यते	-2131
▁समस्त	-2132
▁त्वम	-2133
▁रक्त	-2134
▁शब्दा	-2135
▁कुश	-2136
▁तन्त्र	-2137
▁ेण	-2138
▁Home	-2139
▁गर्भ	-2140
▁प्रश्	-2141
▁सत्यं	-2142
▁प्रथमा	-2143
ूह	-2144
▁निवेद	-2145
▁भिन्न	-2146
▁विश्वा	-2147
▁वृद्धि	-2148
▁स्वप्न	-2149
ब्र	-2150
र्णं	-2151
सर	-2152
▁प्रकृत	-2153
▁धारा	-2154
▁प्री	-2155
▁व्यक्ति	-2156
▁ैर	-2157
▁्या	-2158
▁g	-2159
वार	-2160
नस्य	-2161
▁सार	-2162
▁ोत्	-2163
न्त्य	-2164
ic	-2165
▁शत्रु	-2166
▁स्त्रि	-2167
डिया	-2168
ुक्तं	-2169
▁तान्	-2170
▁२४	-2171
िकाः	-2172
▁कर्ण	-2173
▁संयोग	-2174
▁अतो	-2175
▁ताः	-2176
▁कर्मणि	-2177
▁नौ	-2178
▁जाना	-2179
थे	-2180
दृ	-2181
▁एता	-2182
▁धर्मा	-2183
▁ष्व	-2184
▁चापि	-2185
▁यूयं	-2186
ितवान्	-2187
▁कोऽपि	-2188
▁द्विज	-2189
▁ध्वनि	-2190
▁संस्करण	-2191
▁देवी	-2192
▁ाश्र	-2193
▁समर्प	-2194
▁नगर	-2195
स्थान	-2196
▁एतद्	-2197
▁(1	-2198
am	-2199
▁एतद	-2200
▁वायु	-2201
टः	-2202
▁कर्तव्य	-2203
▁साक्षात्	-2204
▁स्तो	-2205
खे	-2206
हू	-2207
लये	-2208
▁ही	-2209
रेत्	-2210
▁w	-2211
देशे	-2212
टक	-2213
▁धू	-2214
▁पूर	-2215
▁ब्रू	-2216
▁कश्चित्	-2217
▁दो	-2218
मानः	-2219
▁त्त	-2220
भेद	-2221
▁4.	-2222
▁मानुष	-2223
▁अध्ययन	-2224
▁संज्ञ	-2225
▁पाव	-2226
▁मोक्ष	-2227
▁कन्या	-2228
▁&	-2229
चिद्	-2230
▁गोप	-2231
▁चार	-2232
▁धन्य	-2233
▁धिक	-2234
▁प्रत्ये	-2235
भार	-2236
▁माल	-2237
ष्ट्रिय	-2238
ावि	-2239
ध्ये	-2240
माना	-2241
▁किमपि	-2242
दो	-2243
येन	-2244
▁कै	-2245
▁भर	-2246
▁इदम्	-2247
▁ताम	-2248
▁ेत्य	-2249
दिश	-2250
▁विवे	-2251
▁प्राप्ते	-2252
▁अज	-2253
▁जातः	-2254
कारं	-2255
▁वित	-2256
▁स्तथा	-2257
हु	-2258
▁यौ	-2259
▁प्य	-2260
▁पुरस्	-2261
▁अहो	-2262
▁वर्ग	-2263
▁देवाः	-2264
▁प्रजा	-2265
▁री	-2266
▁देहि	-2267
▁प्रतिपाद	-2268
▁भवता	-2269
वेश	-2270
न्ती	-2271
▁अश्व	-2272
▁प्रत	-2273
▁दास	-2274
▁विदेश	-2275
▁विरुद्ध	-2276
परा	-2277
ाणि	-2278
▁उत्तम	-2279
▁प्रायः	-2280
तौ	-2281
▁ध्र	-2282
▁२००	-2283
ष्मा	-2284
▁त्यक्त	-2285
▁भोग	-2286
नाय	-2287
▁अश	-2288
▁गाय	-2289
▁स्ने	-2290
तुः	-2291
▁था	-2292
▁शृणु	-2293
▁पदार्थ	-2294
▁13	-2295
▁आय	-2296
▁यॊ	-2297
धं	-2298
▁संब	-2299
▁दिवस	-2300
▁द्वार	-2301
▁विशेषः	-2302
▁मुच्यते	-2303
ीः	-2304
तिक	-2305
▁प्रतिदि	-2306
▁परिभाषा	-2307
▁यन्	-2308
हिता	-2309
▁कश्च	-2310
▁ुप	-2311
▁२६	-2312
re	-2313
▁२७	-2314
▁याये	-2315
बल	-2316
ितानि	-2317
रुण	-2318
▁जुइ	-2319
▁समन्व	-2320
ध्	-2321
▁श्रव	-2322
न्दु	-2323
▁मातृ	-2324
चा	-2325
पात	-2326
षां	-2327
▁स्वतन्त्र	-2328
▁इं	-2329
ीयम्	-2330
▁सेवा	-2331
▁प्रयुक्त	-2332
▁अधुना	-2333
▁त्रि०	-2334
त्यं	-2335
▁अना	-2336
पूर्व	-2337
वृत्त	-2338
▁स्वप्	-2339
त्वे	-2340
▁→	-2341
यमेव	-2342
▁17	-2343
▁शर	-2344
घा	-2345
▁•	-2346
▁स्वर	-2347
▁विस्म	-2348
▁तत्त	-2349
▁द्रव्य	-2350
▁आकाश	-2351
▁प्रतिष्ठ	-2352
▁प्रत्ययः	-2353
ऽऽ	-2354
▁ाभाव	-2355
ूनि	-2356
▁भक्ति	-2357
▁त्वमेव	-2358
▁ोद	-2359
▁वत्स	-2360
▁दिव्य	-2361
▁व्यवसाय	-2362
▁क्रोध	-2363
▁देशः	-2364
▁गे	-2365
▁k	-2366
प्प	-2367
▁निर्वा	-2368
ों	-2369
नाः	-2370
हां	-2371
▁व्यति	-2372
▁नेपाल	-2373
▁पुत्रः	-2374
ासि	-2375
्मा	-2376
▁शय	-2377
▁निरूप	-2378
▁msgstr	-2379
ण्ठ	-2380
धिः	-2381
मात्र	-2382
▁पाठः	-2383
▁वर्ज	-2384
▁क्रीडा	-2385
र्द्ध	-2386
▁सभ	-2387
धिकरण	-2388
▁स्त्रियां	-2389
▁विश्ल	-2390
पिं	-2391
▁आसन्	-2392
▁स्मर	-2393
▁स्वयम्	-2394
प्ति	-2395
▁दात	-2396
▁202	-2397
▁मनुष्य	-2398
▁गन्त	-2399
वन	-2400
क्ष्म	-2401
▁प्रदर्श	-2402
▁महत्	-2403
▁विमान	-2404
क्षित	-2405
▁वस्त	-2406
▁करोमि	-2407
▁दुर्लभ	-2408
▁तदेव	-2409
▁एवा	-2410
▁कुतः	-2411
▁भवतु	-2412
▁क्षेत्रे	-2413
ुच्यते	-2414
▁क्रमेण	-2415
▁समाज	-2416
▁मध्यम	-2417
चः	-2418
शक्ति	-2419
▁निर्मा	-2420
▁शब्दस्य	-2421
▁क्	-2422
▁भर्त	-2423
▁थः	-2424
▁शक्य	-2425
▁सामा	-2426
▁सदस्य	-2427
▁पार्श	-2428
▁प्रतिशत	-2429
भु	-2430
▁ादौ	-2431
▁द्वौ	-2432
▁राक्ष	-2433
▁इतिहास	-2434
▁शक्तिः	-2435
▁अमेरिका	-2436
he	-2437
▁किल	-2438
▁विभक्त	-2439
्याम	-2440
रिक्त	-2441
▁अं	-2442
▁वां	-2443
▁जाता	-2444
▁प्रशिक्षण	-2445
▁मति	-2446
ङ्के	-2447
प्राय	-2448
▁छुं	-2449
▁आचार	-2450
▁विधिः	-2451
▁स्त्व	-2452
▁२३	-2453
▁भास	-2454
▁स्पर्श	-2455
डा	-2456
▁आः	-2457
सेन	-2458
दर्श	-2459
▁केश	-2460
▁अन्ये	-2461
▁पक्षे	-2462
▁न्ह	-2463
▁विनाश	-2464
▁ली	-2465
▁बहि	-2466
▁कथम्	-2467
▁स्थितः	-2468
गण	-2469
मात्	-2470
▁प्रस्त	-2471
▁च्	-2472
▁वश	-2473
▁श्रू	-2474
▁ाद्य	-2475
▁पुष्प	-2476
▁पल	-2477
▁भक्ष	-2478
▁लक्षणं	-2479
▁सिंह	-2480
▁संर	-2481
▁शीघ्रं	-2482
▁विकिपी	-2483
▁खण्ड	-2484
▁शब्दे	-2485
▁कुर्यात्	-2486
▁माम	-2487
▁ादीनां	-2488
ादेश	-2489
्येन	-2490
▁उदाहरण	-2491
ीये	-2492
▁अथा	-2493
▁स्ते	-2494
▁प्रयोगः	-2495
ce	-2496
▁नदी	-2497
▁मोह	-2498
▁पर्वत	-2499
▁राजन्	-2500
▁स्याद	-2501
▁सर्वाणि	-2502
▁ग्रहण	-2503
▁देवि	-2504
▁y	-2505
▁शङ्क	-2506
बि	-2507
▁16	-2508
▁विषयः	-2509
▁ू	-2510
परि	-2511
ान्ते	-2512
▁मिदं	-2513
▁हु	-2514
साधन	-2515
स्ता	-2516
▁ान्य	-2517
भः	-2518
ृतः	-2519
▁कुम	-2520
▁धातु	-2521
▁दर्शन	-2522
▁//	-2523
▁लाख	-2524
्यादि	-2525
▁रुपये	-2526
▁वात	-2527
▁रक्षा	-2528
▁एस	-2529
▁कथय	-2530
▁उपरि	-2531
▁यानि	-2532
्यति	-2533
पुरुष	-2534
▁दुष्	-2535
▁प्राणि	-2536
▁चत्व	-2537
▁आई	-2538
▁काः	-2539
▁न्याया	-2540
मिदं	-2541
▁सर्ग	-2542
▁जानाति	-2543
देशः	-2544
▁क्षु	-2545
▁युव	-2546
▁पृथिवी	-2547
िद	-2548
▁सदृश	-2549
दार	-2550
ष्टो	-2551
▁शोभ	-2552
▁सहस	-2553
▁ज्ञा	-2554
▁वाक्यं	-2555
ृता	-2556
▁पथ	-2557
सर्व	-2558
ट्ट	-2559
▁निह	-2560
▁पुण	-2561
▁स्क	-2562
त्राणि	-2563
▁२८	-2564
▁क्षमा	-2565
गं	-2566
▁स्ना	-2567
▁तृतीय	-2568
न्द्रिय	-2569
▁परस्पर	-2570
▁मिव	-2571
▁दुर्ग	-2572
पो	-2573
▁जय	-2574
ार्थ	-2575
▁परो	-2576
▁यते	-2577
ेदं	-2578
यात	-2579
रवरी	-2580
ेष्व	-2581
▁ग्रहणं	-2582
▁शब्देन	-2583
सत	-2584
▁कवि	-2585
▁चरण	-2586
▁कर्मा	-2587
▁शेषः	-2588
▁कर्म्म	-2589
▁यश	-2590
▁उपयोगकर्ता	-2591
▁ग्री	-2592
▁ेभ्यः	-2593
्येण	-2594
ग्री	-2595
▁उभय	-2596
▁अस्म	-2597
▁सिद्धि	-2598
▁भज	-2599
▁रज	-2600
ान्व	-2601
धानं	-2602
ष्टे	-2603
▁तस्मै	-2604
▁मुक्ति	-2605
योर्	-2606
▁क्षम	-2607
▁दिश	-2608
▁परः	-2609
▁देवः	-2610
्स	-2611
▁महत्व	-2612
▁देशस्य	-2613
षण	-2614
त्ति	-2615
न्नं	-2616
▁अवि	-2617
▁मन्त्रि	-2618
टो	-2619
्यात्	-2620
▁सञ्च	-2621
▁प्रार	-2622
▁योजना	-2623
▁स्पष्ट	-2624
▁सद्	-2625
वन्तः	-2626
▁योजन	-2627
दौ	-2628
विधा	-2629
तत्	-2630
न्ना	-2631
▁पिब	-2632
▁परमं	-2633
मेन	-2634
▁ज्ये	-2635
▁स्यापि	-2636
▁तिष्ठति	-2637
▁हरे	-2638
▁हवि	-2639
▁रात्रि	-2640
▁नीति	-2641
माय	-2642
▁An	-2643
▁कृत्	-2644
िष्यति	-2645
ृति	-2646
स्त्य	-2647
▁येषां	-2648
▁योग्य	-2649
▁सम्पाद	-2650
▁न्व	-2651
▁तैः	-2652
▁शाल	-2653
▁ाभ्यां	-2654
▁प्रत्येकं	-2655
ानी	-2656
▁आश	-2657
▁दुःखं	-2658
▁पश्चात्	-2659
▁गमि	-2660
▁जाल	-2661
बा	-2662
पत्	-2663
▁एतेन	-2664
▁व्रज	-2665
▁परमेश्व	-2666
सन	-2667
▁लभते	-2668
▁बहुधा	-2669
▁उद्य	-2670
२०	-2671
▁वध	-2672
▁संक	-2673
क्षेप	-2674
▁अल्प	-2675
▁कल्या	-2676
▁तस्माद्	-2677
▁गता	-2678
ूर	-2679
▁ँ	-2680
ासन	-2681
▁धाव	-2682
▁रत्	-2683
▁यन्त्र	-2684
▁दार	-2685
▁उत	-2686
▁सच	-2687
▁ीय	-2688
▁अभ्या	-2689
▁कृतवान्	-2690
▁परन्तु	-2691
▁विधीयते	-2692
▁चेति	-2693
▁विक्र	-2694
▁विपरी	-2695
▁संस्कार	-2696
ाहा	-2697
▁न्यू	-2698
▁ाणां	-2699
▁उत्पाद	-2700
टु	-2701
वृ	-2702
ुद्ध	-2703
▁समं	-2704
▁वर्गः	-2705
ानाम	-2706
▁मन्दि	-2707
▁प्रोक्तं	-2708
▁प्रधानमन्त	-2709
▁25	-2710
▁कोऽ	-2711
▁मण्डल	-2712
▁अपे	-2713
हीं	-2714
▁30	-2715
▁उपा	-2716
▁छन्द	-2717
वच	-2718
र्न	-2719
यस्य	-2720
▁अनि	-2721
▁नरः	-2722
▁व्यवस्थ	-2723
▁धर्मः	-2724
▁शस्त्र	-2725
धनं	-2726
सन्ध	-2727
▁नूत	-2728
▁जाति	-2729
▁सामाज	-2730
▁भौ	-2731
▁K	-2732
▁संग	-2733
▁जानामि	-2734
▁चाल	-2735
▁ऽहं	-2736
▁उत्स	-2737
वाः	-2738
▁पु०	-2739
र्थम्	-2740
▁मासे	-2741
▁पुरुषो	-2742
पर्य	-2743
▁कर्तव्यं	-2744
ed	-2745
▁माय	-2746
र्वा	-2747
▁X	-2748
▁शोक	-2749
▁ददाति	-2750
▁दुष्ट	-2751
पदं	-2752
ad	-2753
▁वान	-2754
▁दोषः	-2755
▁युक्तं	-2756
क्य	-2757
▁व्यापार	-2758
lo	-2759
१०	-2760
▁मरु	-2761
भो	-2762
▁यन्ति	-2763
श्वर	-2764
▁200	-2765
▁इत्यादिना	-2766
▁5.	-2767
रिक्ष	-2768
▁मनसा	-2769
▁भारते	-2770
तेषु	-2771
▁कृष	-2772
▁वैश्व	-2773
▁पुस्तक	-2774
णु	-2775
वर	-2776
घ्न	-2777
ाय्	-2778
▁मृत्यु	-2779
ामः	-2780
िनी	-2781
पद्य	-2782
भूव	-2783
▁णि	-2784
▁प्रह	-2785
ch	-2786
ुट	-2787
रोत्	-2788
▁बलं	-2789
क्षते	-2790
▁कृषि	-2791
▁निषेध	-2792
▁खेल	-2793
▁अग्ने	-2794
▁रक्षण	-2795
▁शे	-2796
▁तेज	-2797
▁पद्	-2798
▁राग	-2799
▁विश्वविद्या	-2800
मय	-2801
▁चित	-2802
ङ्ग्ल	-2803
▁स्मा	-2804
▁मन्यते	-2805
▁वर्त्त	-2806
सृ	-2807
धिप	-2808
▁भगवन्	-2809
▁चतुर्थ	-2810
▁समुदाय	-2811
▁३१	-2812
क्ता	-2813
▁नारी	-2814
वाय	-2815
▁एम	-2816
▁ताप	-2817
▁ऽन	-2818
▁परिच	-2819
▁वक्ष	-2820
▁इदानी	-2821
▁to	-2822
त्री	-2823
▁भाग्य	-2824
▁शुक्र	-2825
▁संघ	-2826
▁भवती	-2827
▁संवत्स	-2828
▁सर्वेषु	-2829
▁विकिपीडिया	-2830
जीव	-2831
म्ह	-2832
▁नेत	-2833
▁तिथ	-2834
बी	-2835
विधि	-2836
▁जे	-2837
▁वरि	-2838
▁आश्र	-2839
▁नाट	-2840
▁में	-2841
▁वेत	-2842
▁साव	-2843
▁सदैव	-2844
▁प्रेम	-2845
▁हृदयं	-2846
▁प्रेष	-2847
▁21	-2848
▁५०	-2849
▁कारणम्	-2850
▁सम्भवति	-2851
▁फरवरी	-2852
यव	-2853
▁पूर्	-2854
▁स्मि	-2855
▁सुन्द	-2856
कल	-2857
ञ्छ	-2858
▁गी	-2859
▁आरो	-2860
मस्ति	-2861
▁अतीव	-2862
▁आत्मा	-2863
वद	-2864
▁सम्यक्	-2865
▁प्रसङ्ग	-2866
▁पेपर	-2867
्रियते	-2868
▁डि	-2869
निर्	-2870
▁कथम	-2871
▁जूगु	-2872
▁अस्मि	-2873
स्यते	-2874
▁ज्ञाप	-2875
▁गुणा	-2876
▁हृदि	-2877
▁सन्नि	-2878
▁स्नान	-2879
▁इत्याह	-2880
▁प्रजाप	-2881
▁प्रयोजन	-2882
नानि	-2883
▁ान्व	-2884
▁कार्यम्	-2885
न्तो	-2886
▁ाङ्ग	-2887
▁कथितं	-2888
▁करिष्यामि	-2889
ाली	-2890
▁वय्	-2891
▁स्वं	-2892
▁युष्मा	-2893
▁श्रो	-2894
इगु	-2895
त्वेन	-2896
▁भागे	-2897
षध	-2898
ोड	-2899
पुं	-2900
▁जीवन	-2901
▁पुरो	-2902
▁मेरे	-2903
▁धन्यवाद	-2904
चं	-2905
ची	-2906
▁अभ्य	-2907
▁रिति	-2908
▁व्रत	-2909
▁संज्ञा	-2910
▁२९	-2911
▁तृतीया	-2912
▁ढ	-2913
बोध	-2914
▁ममा	-2915
त्वम्	-2916
▁गतिः	-2917
▁तच्च	-2918
▁न्न	-2919
▁तयोः	-2920
▁भेदे	-2921
बर	-2922
▁ाह	-2923
▁वज	-2924
शिष्ट	-2925
▁मात्रा	-2926
ून्	-2927
▁अय	-2928
▁आदि	-2929
▁धाः	-2930
▁मानं	-2931
▁कथ्यते	-2932
एस	-2933
ुल	-2934
भास	-2935
▁दाय	-2936
र्हति	-2937
▁दर्शयति	-2938
लिङ्ग	-2939
▁इत्ये	-2940
▁भवत्य	-2941
as	-2942
▁अग्न	-2943
▁मुद्रा	-2944
▁अन्यत्र	-2945
▁W	-2946
▁सय	-2947
▁तदपि	-2948
▁स्ति	-2949
▁मूल्य	-2950
▁४०	-2951
भ्यं	-2952
▁त्यज	-2953
पक्ष	-2954
स्क	-2955
धर्म	-2956
▁कालं	-2957
राणां	-2958
▁ध्रुव	-2959
▁पाण्ड	-2960
▁अर्था	-2961
▁महान्	-2962
दय	-2963
धाय	-2964
र्जन	-2965
▁टिप्प	-2966
हृ	-2967
ित्व	-2968
▁दानं	-2969
▁नाहं	-2970
▁पराज	-2971
▁पत्नी	-2972
▁निर्माण	-2973
▁सूक्ष्म	-2974
कम	-2975
▁an	-2976
▁सङ्ख्या	-2977
च्छा	-2978
▁वदति	-2979
▁संयु	-2980
▁विश्वं	-2981
नतः	-2982
श्यं	-2983
▁माम्	-2984
▁दद्या	-2985
▁माध्य	-2986
▁मृग	-2987
▁मन्द	-2988
▁सायं	-2989
▁पार्थिव	-2990
il	-2991
▁अद	-2992
▁स्वामि	-2993
भे	-2994
▁दं	-2995
▁ादी	-2996
▁नृत्य	-2997
▁प्रीति	-2998
▁स्याद्	-2999
▁रण	-3000
▁कां	-3001
▁पो	-3002
भ्र	-3003
▁24	-3004
▁स्वतः	-3005
▁त्री	-3006
▁साधु	-3007
खः	-3008
▁उवाच	-3009
इति	-3010
लित	-3011
राणि	-3012
▁वार्ष	-3013
▁यथार्थ	-3014
▁सर्वकार	-3015
वेद	-3016
ज्ञः	-3017
▁मुद्र	-3018
▁व्यायाम	-3019
िको	-3020
▁दर	-3021
▁नय	-3022
▁दरि	-3023
▁मर्त	-3024
▁यस्मिन्	-3025
थः	-3026
कृतं	-3027
यामास	-3028
▁तस्माद	-3029
▁J	-3030
▁लौ	-3031
▁वयम्	-3032
▁कश्चन	-3033
▁प्रश्नः	-3034
साह	-3035
▁ययौ	-3036
▁विरा	-3037
▁प्रतियोग	-3038
ामी	-3039
▁धु	-3040
▁ल्	-3041
ान्न	-3042
▁कुत	-3043
▁तात	-3044
प्नोति	-3045
▁इत्य्	-3046
▁हेतुः	-3047
▁अध्याय	-3048
्वि	-3049
▁तार	-3050
▁प्रवर्तते	-3051
▁एको	-3052
प्रति	-3053
रात्र	-3054
▁प्रसाद	-3055
▁ज्ञायते	-3056
▁सार्व	-3057
▁सिध्य	-3058
▁खँ	-3059
▁वचः	-3060
▁बाह्य	-3061
▁प्रतिव	-3062
▁युद्धे	-3063
रू	-3064
▁राष्ट्रिय	-3065
लाः	-3066
प्तं	-3067
दात्त	-3068
▁अभाव	-3069
▁विकार	-3070
▁कुरुते	-3071
▁पश्चिम	-3072
▁विशेषण	-3073
▁ज्ञात्वा	-3074
ीप्	-3075
▁जप	-3076
▁क्षी	-3077
▁श्चैव	-3078
▁प्रमुख	-3079
▁साहित्य	-3080
फलं	-3081
▁याम्	-3082
▁रोचते	-3083
धात	-3084
्यु	-3085
द्यः	-3086
▁योऽ	-3087
▁सामर्थ	-3088
केन	-3089
▁सहाय	-3090
▁जीवनं	-3091
▁यस्तु	-3092
▁गर्	-3093
▁श्रुति	-3094
▁सामाजिक	-3095
▁गिरि	-3096
▁प्रथमः	-3097
ोत्	-3098
▁लङ्	-3099
▁हन्त	-3100
▁तीर्थ	-3101
▁करु	-3102
▁निग	-3103
िकल्प	-3104
▁ब्राह्मण	-3105
▁शीर्ष	-3106
▁हिंसा	-3107
▁युक्तः	-3108
▁किञ्चित्	-3109
श्म	-3110
▁शोध	-3111
▁बहिः	-3112
▁काव्य	-3113
▁स्नेह	-3114
ातन्त्र	-3115
मित	-3116
ेषा	-3117
▁मुद्	-3118
▁ादिषु	-3119
▁स्वाहा	-3120
▁वर्षाणि	-3121
ख्ये	-3122
▁इतर	-3123
▁संस	-3124
▁भ्रात	-3125
▁छु	-3126
भागे	-3127
▁आयु	-3128
▁कान	-3129
▁ज्येष्ठ	-3130
▁कन	-3131
▁ष्ठ	-3132
▁देवं	-3133
▁नापि	-3134
ay	-3135
कू	-3136
▁ॆ	-3137
▁नहि	-3138
▁कृत्य	-3139
▁यात्रा	-3140
▁संस्थान	-3141
▁आध	-3142
▁नोप	-3143
▁सङ्घ	-3144
▁ऽप्य	-3145
▁वृष	-3146
▁मनसि	-3147
लयः	-3148
▁ताल	-3149
भाग्य	-3150
▁ैश्च	-3151
▁विश्र	-3152
▁अनुवाद	-3153
▁प्रत्येक	-3154
येत	-3155
्यताम्	-3156
▁प्राह	-3157
▁समीपे	-3158
▁दृष्टि	-3159
▁३३	-3160
▁षट्	-3161
ष्यामि	-3162
भिर	-3163
▁खाद	-3164
▁भागः	-3165
▁अन्तर्	-3166
▁आवश्यक	-3167
▁नगरे	-3168
▁ाप	-3169
ासां	-3170
▁वती	-3171
▁पतिः	-3172
▁ऋष	-3173
▁सम्पूर्ण	-3174
▁रुद्र	-3175
▁दह	-3176
▁बे	-3177
▁बो	-3178
दत्त	-3179
▁अस्त	-3180
▁स्थिता	-3181
ार्य	-3182
▁व्याकरण	-3183
एव	-3184
▁यत्त	-3185
▁हृदये	-3186
▁मिथ्या	-3187
भय	-3188
▁नू	-3189
▁मूढ	-3190
▁उन्न	-3191
▁यश्च	-3192
▁वस्तुतः	-3193
साद	-3194
▁बुध	-3195
त्रापि	-3196
▁वक्तव्यम्	-3197
पित	-3198
▁षड	-3199
▁कारि	-3200
▁अनुभव	-3201
▁अस्तु	-3202
▁स्वाग	-3203
▁द्वितीया	-3204
ैत	-3205
दुःख	-3206
▁अन्तः	-3207
▁MS	-3208
▁शौ	-3209
▁ाग	-3210
▁करणे	-3211
सति	-3212
ायत	-3213
शय	-3214
िषु	-3215
▁३२	-3216
प्रत्य	-3217
▁वरिष्ठ	-3218
▁विश्लेषण	-3219
▁प्रयोजनम्	-3220
▁अल	-3221
णाति	-3222
▁यम्	-3223
▁याच	-3224
ान्तः	-3225
▁मत्स्य	-3226
▁प्रमाणं	-3227
मत	-3228
▁पट	-3229
ृद्ध	-3230
▁न्ते	-3231
▁मङ्ग	-3232
त्मानं	-3233
.0	-3234
ॄणां	-3235
▁निरी	-3236
▁श्रम	-3237
▁नाम्ना	-3238
▁वंश	-3239
▁प्रयु	-3240
▁श्वेत	-3241
पाः	-3242
▁पंच	-3243
▁भुव	-3244
्यामः	-3245
▁लक्ष्म	-3246
▁न्यून	-3247
▁x	-3248
▁अर्ध	-3249
▁भोजन	-3250
▁शाश्व	-3251
▁शून्य	-3252
▁महत्त्व	-3253
▁हय	-3254
ाप्त	-3255
▁त्म	-3256
स्यति	-3257
▁भगवान	-3258
▁दक्षिणा	-3259
क्षर	-3260
▁हीन	-3261
▁पवित्र	-3262
vi	-3263
माने	-3264
येद्	-3265
▁स्त्र	-3266
▁नद	-3267
चित्र	-3268
▁रामः	-3269
▁मन्ये	-3270
▁प्रतीयते	-3271
▁स्थिते	-3272
▁चो	-3273
▁जनः	-3274
▁शिश	-3275
ब्रवी	-3276
▁बद्ध	-3277
▁सततं	-3278
▁ब्रह्मा	-3279
.1	-3280
▁दूष	-3281
▁सेना	-3282
यय	-3283
रात्	-3284
र्वि	-3285
▁गतं	-3286
▁करे	-3287
▁विष्णु	-3288
▁प्रतिभा	-3289
ख्यान	-3290
▁बहवः	-3291
▁वादि	-3292
▁प्	-3293
▁देवो	-3294
▁भ्यः	-3295
▁सर्वभूत	-3296
et	-3297
टर	-3298
▁गृही	-3299
▁रूपे	-3300
▁स्वप्ने	-3301
▁कर्तव्यम्	-3302
▁22	-3303
▁इतः	-3304
▁इष्ट	-3305
▁यच्च	-3306
▁23	-3307
▁पच	-3308
▁ीं	-3309
▁Ans	-3310
▁अधोलिख	-3311
▁मल	-3312
▁जले	-3313
▁रूपा	-3314
▁नमो	-3315
▁आरम्	-3316
▁योर्	-3317
▁त्रयो	-3318
▁मात्रं	-3319
▁प्रस्तु	-3320
▁ऽनु	-3321
र्थिक	-3322
▁जानी	-3323
▁ईश्वर	-3324
▁रूपम्	-3325
▁तत्रैव	-3326
मह	-3327
▁डा	-3328
▁दया	-3329
▁राव	-3330
▁तन्म	-3331
▁पद्ध	-3332
▁साध्य	-3333
डी	-3334
▁मरण	-3335
▁नेति	-3336
▁करिष्यति	-3337
▁मेघ	-3338
▁एकदा	-3339
▁कर्मणा	-3340
द्योग	-3341
▁तुल्य	-3342
▁देवस्य	-3343
ेह	-3344
▁वह्नि	-3345
▁विवाह	-3346
▁प्रसार	-3347
दन	-3348
ख्यं	-3349
▁समू	-3350
▁सैन	-3351
▁विंश	-3352
▁हानि	-3353
▁भूत्वा	-3354
▁स्तत्र	-3355
▁भवन	-3356
▁अपरा	-3357
▁महिला	-3358
▁मूर्त	-3359
▁लक्ष्य	-3360
▁धर	-3361
स्यं	-3362
▁लाग	-3363
▁वस्त्र	-3364
टन	-3365
▁निर्ग	-3366
शास्त्र	-3367
▁ऑ	-3368
▁निक	-3369
▁विश्वे	-3370
त्थ	-3371
कृते	-3372
न्दो	-3373
▁एतस्य	-3374
▁अनुकूल	-3375
▁पर्याव	-3376
▁स्वास्थ	-3377
▁प्रभो	-3378
रेव	-3379
▁गुणः	-3380
▁नात्र	-3381
▁मिश्र	-3382
▁मतः	-3383
▁साल	-3384
▁सृज	-3385
पत्तिः	-3386
▁खोज	-3387
▁भिर्	-3388
▁तस्मि	-3389
▁एतादृश	-3390
▁सर्वतः	-3391
तरं	-3392
▁ओं	-3393
▁साद	-3394
क्रमण	-3395
▁लिखत	-3396
▁सर्वान्	-3397
▁पूर्वोक्त	-3398
ायै	-3399
▁नाव	-3400
▁अन्ति	-3401
▁आगच्छ	-3402
▁प्रधानमन्त्री	-3403
-1	-3404
ऽहं	-3405
▁of	-3406
▁पशु	-3407
▁पीठ	-3408
ध्याय	-3409
▁राज्ये	-3410
▁त्वयि	-3411
▁बीज	-3412
्वंगु	-3413
▁विभा	-3414
▁सामान	-3415
▁युद्धं	-3416
▁स्वयमेव	-3417
पक	-3418
तुं	-3419
सन्	-3420
▁ऽव	-3421
▁३५	-3422
▁म्ह	-3423
▁२०७	-3424
▁ङीप्	-3425
▁उक्तं	-3426
▁तेषाम	-3427
लयं	-3428
▁रं	-3429
▁अभव	-3430
▁पिताम	-3431
▁शतं	-3432
▁घोषणा	-3433
कृष्ट	-3434
▁अस्याः	-3435
▁छि	-3436
is	-3437
▁सना	-3438
▁न्तु	-3439
▁स्वे	-3440
▁शब्दो	-3441
▁प्रविश	-3442
▁प्रतिवेदन	-3443
▁इमे	-3444
▁वरं	-3445
▁धकाः	-3446
▁कदाचन	-3447
▁शान्ति	-3448
▁समीक्षा	-3449
ec	-3450
▁४५	-3451
▁तमः	-3452
▁श्रा	-3453
▁सज्ज	-3454
▁समयः	-3455
ुवन्ति	-3456
▁वायुः	-3457
▁27	-3458
▁शङ्	-3459
▁दिनाङ्के	-3460
▁त्रा	-3461
▁पीसी	-3462
▁अन्वयः	-3463
युः	-3464
▁शृ	-3465
▁ादयः	-3466
ध्यायः	-3467
▁द्वीप	-3468
विश	-3469
▁शरण	-3470
राज्य	-3471
▁कक्ष	-3472
▁हर्ष	-3473
▁जनानां	-3474
ल्ली	-3475
▁ाति	-3476
क्षणं	-3477
▁ास्ते	-3478
▁ोऽयं	-3479
▁पर्यन्तं	-3480
ot	-3481
▁ाम	-3482
▁वेति	-3483
संख्या	-3484
▁चिन्ता	-3485
▁स्वस्य	-3486
गल	-3487
ूं	-3488
ह्न	-3489
▁न०	-3490
▁३६	-3491
कालं	-3492
▁कदापि	-3493
▁वृत्तिः	-3494
▁शक्नोति	-3495
▁शरणं	-3496
▁आङ्ग्ल	-3497
▁स्थितिः	-3498
▁स्नानं	-3499
विष	-3500
▁शन	-3501
लोके	-3502
▁वेग	-3503
▁कोटि	-3504
▁मनोर	-3505
▁सम्म	-3506
▁यानाः	-3507
▁प्राचीन	-3508
ान्तं	-3509
▁कृति	-3510
▁विभि	-3511
▁संसाधन	-3512
▁गं	-3513
▁तदि	-3514
▁सुत	-3515
▁नक्ष	-3516
▁भावे	-3517
▁अनन्त	-3518
▁देशं	-3519
▁श्रुत	-3520
▁दर्शनं	-3521
▁सुवर्ण	-3522
▁प्रसन्न	-3523
▁प्रवृत्ति	-3524
▁जं	-3525
हितः	-3526
ेषाम	-3527
▁चित्	-3528
▁सर्वो	-3529
▁उत्तरः	-3530
▁वक्तुं	-3531
▁राष्ट्रीय	-3532
▁स्वातन्त्र	-3533
▁कठ	-3534
▁क्लेश	-3535
▁पक्षि	-3536
▁Y	-3537
ल्क	-3538
ाम्य	-3539
▁निष	-3540
▁द्या	-3541
▁नाना	-3542
▁शुभा	-3543
▁अग्रे	-3544
▁ार्थे	-3545
▁स्थितम्	-3546
▁प्रतिदिनं	-3547
▁In	-3548
▁तीति	-3549
▁बभूव	-3550
▁समाग	-3551
▁अन्तर	-3552
▁नान्य	-3553
▁कर्माणि	-3554
ङ्कार	-3555
▁तद्य	-3556
▁भवतीति	-3557
ab	-3558
खं	-3559
▁३७	-3560
▁मभि	-3561
▁अग्र	-3562
▁दक्ष	-3563
▁दिवा	-3564
▁सीता	-3565
▁केचित्	-3566
▁स्मृति	-3567
▁प्रकारेण	-3568
देह	-3569
पत्र	-3570
▁साग	-3571
▁विवाद	-3572
खु	-3573
▁26	-3574
▁भद्र	-3575
▁साम्	-3576
▁प्राक्	-3577
▁िव	-3578
▁दुर	-3579
▁बलि	-3580
धीयते	-3581
▁कुर्य	-3582
▁गम्यते	-3583
ित्स	-3584
▁दूरे	-3585
▁प्रस्ताव	-3586
सभा	-3587
▁भवः	-3588
▁उपाय	-3589
▁मार्गे	-3590
पुत्र	-3591
▁आनन्द	-3592
▁भोजनं	-3593
▁लभ्यते	-3594
▁मव	-3595
▁लं	-3596
गुणं	-3597
▁याग	-3598
▁न्ति	-3599
▁ेष्व	-3600
▁दृष्टं	-3601
▁सम्बन्धि	-3602
राग	-3603
▁हितं	-3604
▁सरकार	-3605
रपि	-3606
श्यति	-3607
▁कृष्	-3608
▁वज्र	-3609
▁शक्र	-3610
▁अध्यक्ष	-3611
▁प्रकल्प	-3612
▁प्राप्ति	-3613
▁सकल	-3614
▁साय	-3615
▁उक्तम्	-3616
▁परिवार	-3617
▁दौ	-3618
▁युष्म	-3619
▁क्षेत्रं	-3620
पय	-3621
दत्	-3622
ानः	-3623
▁तीव	-3624
्राणां	-3625
▁प्राधान	-3626
▁गृहीत्वा	-3627
ाले	-3628
लोक्य	-3629
▁मुने	-3630
▁प्राग	-3631
▁शरीरं	-3632
▁निर्णय	-3633
▁खि	-3634
▁उपल	-3635
क्तिः	-3636
▁परिष	-3637
▁हरिः	-3638
▁अकरोत्	-3639
▁श्रद्ध	-3640
ol	-3641
रेक	-3642
▁दल	-3643
भूत्	-3644
▁वसु	-3645
▁भूमौ	-3646
स्माकं	-3647
▁सन्तु	-3648
▁निम्	-3649
▁यद्वा	-3650
▁रच	-3651
क्ष्	-3652
▁युगे	-3653
▁नेत्र	-3654
▁इत्यपि	-3655
▁दरिद्र	-3656
▁उत्पादन	-3657
▁संस्कृति	-3658
्वी	-3659
▁भुक्त	-3660
▁मित्रं	-3661
▁स्त्रीणां	-3662
▁टे	-3663
ृतम्	-3664
▁धीम	-3665
▁माग	-3666
▁षोड	-3667
▁स्तव	-3668
▁प्रथमे	-3669
▁स्तम्भ	-3670
थ्	-3671
▁लॊ	-3672
▁च्व	-3673
▁दुः	-3674
▁सभा	-3675
▁ाच्च	-3676
id	-3677
ह्	-3678
▁घन	-3679
▁जो	-3680
▁नागर	-3681
▁विभाषा	-3682
▁द्वितीयं	-3683
xt	-3684
ूढ	-3685
तोः	-3686
समा	-3687
▁थु	-3688
▁शिख	-3689
▁गुणाः	-3690
▁पृच्छ	-3691
▁दक्षिणे	-3692
▁असि	-3693
▁भया	-3694
▁अन्न	-3695
िना	-3696
ेयं	-3697
▁खु	-3698
प्ता	-3699
▁भूप	-3700
▁ोत्त	-3701
▁सर्वस्य	-3702
ज़	-3703
थम	-3704
▁रवि	-3705
▁िष्य	-3706
▁धर्मो	-3707
▁परमाण	-3708
▁हिन्द	-3709
▁SF	-3710
विंश	-3711
▁विरो	-3712
▁श्रे	-3713
▁कार्याणि	-3714
▁at	-3715
▁वल	-3716
▁ऽथ	-3717
▁नाथ	-3718
स्त्व	-3719
▁ऊर्ध	-3720
▁तमेव	-3721
▁सार्ध	-3722
▁तत्रा	-3723
▁प्राणा	-3724
ुषा	-3725
▁राशि	-3726
▁स्मरण	-3727
ांश	-3728
▁50	-3729
▁शिष	-3730
▁ाश्च	-3731
▁शक्नु	-3732
▁केवलम्	-3733
▁भार्या	-3734
▁प्राधिकरण	-3735
स्तव	-3736
▁अने	-3737
▁एकादश	-3738
▁सैन्य	-3739
▁एतेषां	-3740
ate	-3741
थाः	-3742
ात्मा	-3743
▁लिखित	-3744
▁किमर्थं	-3745
▁खल	-3746
▁नान	-3747
▁फलम्	-3748
▁बहुव	-3749
▁प्रेर	-3750
▁बालकः	-3751
चरेत्	-3752
र्हसि	-3753
▁तदनु	-3754
▁सकलं	-3755
▁कर्तृ	-3756
▁स्थिर	-3757
▁ाभ्या	-3758
ण्ट	-3759
शाला	-3760
▁सचिव	-3761
▁श्रेण	-3762
▁कार्यक्रम	-3763
ws	-3764
▁ऋण	-3765
▁र्त	-3766
▁तात्	-3767
▁प्रशं	-3768
▁}	-3769
▁28	-3770
िकम्	-3771
▁वद्	-3772
▁चर्च	-3773
▁पाणि	-3774
▁क्षणं	-3775
▁चिकित्स	-3776
▁मनुष्या	-3777
यनं	-3778
ेशः	-3779
▁गज	-3780
▁चौ	-3781
▁पान	-3782
▁सागर	-3783
▁निष्ठ	-3784
▁प्रक्रिया	-3785
▁महत्वपूर्ण	-3786
▁मिल	-3787
▁शिर	-3788
दिश्य	-3789
▁राजनी	-3790
▁ानुसार	-3791
▁त्वर	-3792
▁भुवि	-3793
▁मह्यं	-3794
▁लाखों	-3795
▁वीर्य	-3796
▁सम्भाव	-3797
▁श्रूयते	-3798
▁सम्प्रति	-3799
▁रुच	-3800
▁तन्न	-3801
▁सर्वाः	-3802
वस	-3803
भवः	-3804
दात्	-3805
रण्य	-3806
स्तं	-3807
ीकरण	-3808
▁नम्	-3809
▁कानि	-3810
▁पुत्रं	-3811
▁परस्परं	-3812
ितु	-3813
▁मद्	-3814
▁नन्द	-3815
▁पापं	-3816
▁कस्या	-3817
▁वाञ्छ	-3818
▁स्यैव	-3819
▁पुरुषं	-3820
ितौ	-3821
▁ईश	-3822
▁यी	-3823
▁िन	-3824
▁तेऽ	-3825
▁नहीं	-3826
▁इत्येतद्	-3827
▁णा	-3828
▁तुम	-3829
ित्या	-3830
▁शक्यं	-3831
▁स्तदा	-3832
▁ान्तर	-3833
▁करिष्य	-3834
▁विद्यमान	-3835
▁Q	-3836
▁अ॒	-3837
्वास	-3838
▁याद	-3839
▁हार	-3840
▁तद्ध	-3841
▁महारा	-3842
▁वदन्ति	-3843
▁आम	-3844
▁तय	-3845
▁गौर	-3846
▁१९९	-3847
▁ेत्या	-3848
▁स्वरूपं	-3849
▁प्रविश्य	-3850
दम्	-3851
▁(2	-3852
▁तक	-3853
▁कामं	-3854
▁संशोध	-3855
श्रेष्ठ	-3856
▁प्रिया	-3857
ाण	-3858
लयस्य	-3859
▁नामानि	-3860
▁सूत्रे	-3861
▁लक्षणम्	-3862
▁पय	-3863
त्मक	-3864
▁2019	-3865
▁कालो	-3866
त्यर्थः	-3867
जग	-3868
▁गतो	-3869
▁इच्छा	-3870
▁पुराण	-3871
▁वर्धते	-3872
▁रेव	-3873
▁2020	-3874
▁द्रु	-3875
▁II	-3876
▁दध	-3877
क्ते	-3878
ञ्जन	-3879
▁निश	-3880
▁त्रै	-3881
▁मुखं	-3882
▁करोतु	-3883
▁श्राद्ध	-3884
▁समि	-3885
▁स्वर्ण	-3886
▁सुरक्षा	-3887
ितां	-3888
▁नाग	-3889
ग्रहः	-3890
▁तच्छ	-3891
▁तस्यां	-3892
▁परमात्म	-3893
el	-3894
फ्	-3895
भारः	-3896
▁कपि	-3897
▁भवद्	-3898
▁विवा	-3899
▁पश्यामि	-3900
▁४१	-3901
▁पत्त	-3902
▁गुरुः	-3903
▁त्याग	-3904
▁स्मृतः	-3905
▁त्वाद	-3906
▁पत्रं	-3907
▁स्वस्थ	-3908
▁ाऽ	-3909
▁पाय	-3910
▁माध	-3911
▁रिप	-3912
▁ेश्व	-3913
▁अद्या	-3914
ब्रवीत्	-3915
▁ग्रहणम्	-3916
रुप	-3917
▁03	-3918
िक्र	-3919
▁िका	-3920
▁करणं	-3921
वर्तते	-3922
▁निवार	-3923
▁यस्या	-3924
▁दिनानि	-3925
दम	-3926
ौं	-3927
व्र	-3928
▁यै	-3929
▁धेन	-3930
▁एवमेव	-3931
▁याःगु	-3932
▁साहाय	-3933
▁स्तस्य	-3934
▁कुर्वन्	-3935
▁(=	-3936
▁ची	-3937
▁मथ	-3938
▁ास	-3939
कृता	-3940
दिना	-3941
▁मेष	-3942
▁वाक्	-3943
▁समुप	-3944
कारस्य	-3945
▁त्वत्	-3946
▁विधाय	-3947
▁भृ	-3948
▁भूता	-3949
▁भ्या	-3950
▁विवेक	-3951
▁षष्ठी	-3952
▁चु	-3953
▁ेत	-3954
▁पीत	-3955
▁अतीत	-3956
▁दिशि	-3957
▁व्यो	-3958
▁आवेदन	-3959
▁विपर्य	-3960
▁पोष	-3961
▁नामा	-3962
▁ादिकं	-3963
▁कश्चिद्	-3964
कर्त	-3965
▁एताव	-3966
▁योनि	-3967
▁ञ	-3968
▁भूय	-3969
▁वचना	-3970
▁स्त्वं	-3971
ांत	-3972
ासा	-3973
▁वेश	-3974
▁ाणि	-3975
▁क्षय	-3976
▁चकार	-3977
▁तर्क	-3978
▁पदम्	-3979
▁पुत्रो	-3980
न्नः	-3981
▁तदु	-3982
▁भ्रा	-3983
▁यामि	-3984
▁रणे	-3985
▁रति	-3986
▁प्रप	-3987
▁पूजां	-3988
▁रिक्त	-3989
▁वृद्धिः	-3990
०१	-3991
ear	-3992
ध्व	-3993
▁पै	-3994
▁गिर	-3995
▁लाल	-3996
▁महान	-3997
▁निद्रा	-3998
▁साधारण	-3999
▁श्रद्धा	-4000
▁राष्ट्रपति	-4001
हम	-4002
▁is	-4003
धिष्ठ	-4004
▁दन्त	-4005
▁इत्येवं	-4006
▁छात्राः	-4007
▁पर्यावरण	-4008
ङ्गा	-4009
▁संह	-4010
▁ितः	-4011
▁धर्मं	-4012
▁पात्र	-4013
▁समन्त	-4014
▁अग्निः	-4015
▁परित्य	-4016
वर्ण	-4017
मार्ग	-4018
▁जातं	-4019
▁मरणं	-4020
▁बुद्धिः	-4021
▁हन	-4022
▁पाकि	-4023
▁याना	-4024
▁दुग्ध	-4025
▁साक्षि	-4026
यान	-4027
▁बै	-4028
▁इत्यत	-4029
▁गृह्ण	-4030
▁इम	-4031
योगः	-4032
▁क्ली	-4033
▁संबं	-4034
▁जीवति	-4035
▁राज्ञः	-4036
▁यस्मात्	-4037
▁विशेषेण	-4038
ायण	-4039
▁इमं	-4040
कृतिः	-4041
▁अर्ज	-4042
▁कालेन	-4043
▁धार्म	-4044
▁ईश्वरः	-4045
▁घो	-4046
विधं	-4047
लक्षण	-4048
▁कामः	-4049
▁संशय	-4050
▁पिण्ड	-4051
▁दीन	-4052
▁2018	-4053
▁भावा	-4054
▁योगी	-4055
▁कान्त	-4056
▁मूर्ख	-4057
मुच्यते	-4058
▁तयो	-4059
▁महाब	-4060
▁लज्ज	-4061
▁ततश्च	-4062
▁धातुः	-4063
▁५५	-4064
▁कौश	-4065
▁तवा	-4066
▁मही	-4067
्येति	-4068
च्वंगु	-4069
त्राणां	-4070
▁पूर्वा	-4071
ing	-4072
ालय	-4073
▁फि	-4074
▁कुतो	-4075
▁मुहू	-4076
▁विभिन्न	-4077
▁व्	-4078
श्रम	-4079
▁धृत	-4080
▁निवास	-4081
▁अधिकारी	-4082
▁संविधान	-4083
▁j	-4084
प्रे	-4085
स्माद्	-4086
▁परीक्ष	-4087
▁प्रत्यु	-4088
ra	-4089
यौ	-4090
▁चिर	-4091
▁स्वः	-4092
▁त्रीणि	-4093
▁प्राति	-4094
ig	-4095
सीद	-4096
▁द्रो	-4097
▁पदस्य	-4098
▁स्फुट	-4099
▁्त	-4100
▁एषां	-4101
▁प्रजाः	-4102
▁Re	-4103
▁िष	-4104
दानं	-4105
▁आदेश	-4106
▁लोकः	-4107
▁सर्वम	-4108
▁आर्थिक	-4109
▁पूर्वे	-4110
▁अध्यायः	-4111
०००	-4112
▁40	-4113
▁जक	-4114
क्षं	-4115
▁करं	-4116
▁गृह्य	-4117
▁विहाय	-4118
▁प्रदूष	-4119
▁त्यक्त्वा	-4120
लय्	-4121
▁जर	-4122
▁केत	-4123
▁कृपा	-4124
▁परिभाष	-4125
▁सर्वथा	-4126
मति	-4127
हिं	-4128
▁३४	-4129
र्णा	-4130
▁शील	-4131
▁ष्य	-4132
▁अतएव	-4133
▁धीरे	-4134
▁मानस	-4135
▁चिकित्	-4136
▁वन्द	-4137
▁यजमान	-4138
▁राजनि	-4139
▁पुत्रा	-4140
▁सर्वैः	-4141
▁स्थितं	-4142
▁प्रतिष्ठा	-4143
ुते	-4144
्ने	-4145
▁४७	-4146
▁घात	-4147
▁सात	-4148
▁कण्ठ	-4149
▁on	-4150
▁अर	-4151
▁the	-4152
▁धया	-4153
न्तम्	-4154
iii	-4155
ुषु	-4156
च्छि	-4157
▁अण्	-4158
▁यशः	-4159
▁सञ्	-4160
▁सुहृ	-4161
▁शास्त	-4162
▁वक्ष्य	-4163
भं	-4164
भौ	-4165
wer	-4166
रात	-4167
▁क्य	-4168
न्तरे	-4169
▁विषया	-4170
▁ऽऽ	-4171
▁केचन	-4172
▁ित्य	-4173
▁Ar	-4174
▁४९	-4175
ादेव	-4176
▁घटना	-4177
▁द्यो	-4178
▁मूलं	-4179
▁लोकं	-4180
▁शिक्षण	-4181
▁%	-4182
ेनि	-4183
▁st	-4184
▁नाभि	-4185
▁द्वयं	-4186
▁भावेन	-4187
▁नरा	-4188
ान्तरे	-4189
▁द्वन्द	-4190
▁विधिना	-4191
जु	-4192
नम	-4193
राः	-4194
▁४४	-4195
कृत्	-4196
▁कैः	-4197
▁दशा	-4198
ितुम्	-4199
▁तर्प	-4200
▁समुद	-4201
▁विचित्र	-4202
▁प्राप्तं	-4203
▁इत्युच्यते	-4204
करो	-4205
ष्यते	-4206
त्तमम्	-4207
ुक्तम्	-4208
▁इच्छति	-4209
▁प्रज्ञा	-4210
-2	-4211
शील	-4212
▁ऽभि	-4213
सहस्र	-4214
▁व्यप	-4215
दपि	-4216
र्मा	-4217
ग्राम	-4218
▁त्रय	-4219
▁सहसा	-4220
▁कल्याण	-4221
▁प्राप्तः	-4222
▁प्रोक्ता	-4223
▁साथ	-4224
▁पातु	-4225
▁हन्ति	-4226
▁दृष्टा	-4227
▁प्रियं	-4228
▁द्रष्टुं	-4229
ब्ब	-4230
रीं	-4231
शिया	-4232
▁गुह	-4233
▁पराम	-4234
स्तीति	-4235
▁एतानि	-4236
▁पृष्ट	-4237
▁विज्ञानं	-4238
▁प्राप्यते	-4239
गमन	-4240
रति	-4241
▁०१	-4242
▁४८	-4243
▁कर्ष	-4244
▁चेष्ट	-4245
▁इत्यस्मात्	-4246
रीय	-4247
▁02	-4248
▁०३	-4249
म्बर	-4250
▁दाह	-4251
▁सत्त	-4252
▁समूह	-4253
▁सर्प	-4254
▁यान्ति	-4255
ृश्य	-4256
▁अमरः	-4257
▁भाष्य	-4258
▁वृष्ट	-4259
▁सुप्र	-4260
▁पृष्ठं	-4261
▁ार्थम्	-4262
▁इत्युक्ते	-4263
ही	-4264
कीय	-4265
सङ्	-4266
ायन	-4267
▁ङी	-4268
▁शून	-4269
▁ऽन्य	-4270
▁निष्क	-4271
▁हस्ते	-4272
▁कल्पना	-4273
▁वर्षस्य	-4274
चनं	-4275
प्स	-4276
हुः	-4277
र्त्त	-4278
▁अवदत्	-4279
▁वय्कः	-4280
▁श्राव	-4281
▁संभाव	-4282
▁ात्मक	-4283
▁संहिता	-4284
पदे	-4285
कृतिक	-4286
प्यते	-4287
▁न्तर	-4288
▁भक्त्या	-4289
▁संरक्षण	-4290
ढ़	-4291
किं	-4292
थाय	-4293
▁गाव	-4294
▁ध्ये	-4295
▁येत्	-4296
▁विधा	-4297
▁व्याघ्र	-4298
▁स्थानम्	-4299
▁प्राप्ता	-4300
जात	-4301
▁कत	-4302
▁द्यु	-4303
▁इत्थं	-4304
▁दीयते	-4305
▁अवश्यं	-4306
▁दृष्ट्या	-4307
ro	-4308
▁ब्	-4309
▁तदन	-4310
▁सत्या	-4311
▁ात्मा	-4312
▁कार्ये	-4313
▁दत्त्वा	-4314
▁वया	-4315
▁वरा	-4316
▁ग्नि	-4317
▁स्थल	-4318
▁अधिकं	-4319
▁दत्तं	-4320
▁भावना	-4321
▁वार्षिक	-4322
▁प्रतिषेधः	-4323
गू	-4324
धौ	-4325
▁फ़	-4326
▁मणि	-4327
▁भागं	-4328
▁युवा	-4329
▁पितुः	-4330
▁कारयेत्	-4331
▁कर्तव्यः	-4332
▁लक्ष्यते	-4333
▁प्रार्थना	-4334
▁वत	-4335
▁वैद	-4336
ज्ञात	-4337
▁Next	-4338
▁द्वेष	-4339
▁रित्य	-4340
▁ार्थः	-4341
▁देवताः	-4342
▁ध्यानं	-4343
▁प्रभुः	-4344
▁प्रतिनि	-4345
▁29	-4346
गृह्य	-4347
▁प्रकृतिः	-4348
कृतः	-4349
▁तपः	-4350
▁षड्	-4351
▁नगरं	-4352
दिष्टम्	-4353
▁यथोक्त	-4354
▁मात्रेण	-4355
▁सिध्यति	-4356
▁परस्परम्	-4357
ादौ	-4358
▁01	-4359
▁re	-4360
▁०२	-4361
न्ता	-4362
भूति	-4363
▁गताः	-4364
▁दुरा	-4365
▁भूतं	-4366
▁निन्द	-4367
▁ाग्नि	-4368
▁विस्तार	-4369
▁गीत	-4370
णियां	-4371
▁आधुन	-4372
▁जिला	-4373
▁यात्र	-4374
▁राक्षस	-4375
▁विपरीत	-4376
▁परम्परा	-4377
▁पार्श्व	-4378
ov	-4379
ें	-4380
▁४२	-4381
क्रमः	-4382
▁वाणि	-4383
▁अस्माभिः	-4384
▁सम्बन्धी	-4385
▁घा	-4386
▁दय	-4387
▁राश	-4388
▁शता	-4389
▁पण्ड	-4390
▁तेनैव	-4391
▁स्युः	-4392
▁दृश्यम्	-4393
▁धनु	-4394
▁रुचि	-4395
▁विवरण	-4396
▁ेभ्यो	-4397
▁ृ	-4398
▁कष	-4399
▁जै	-4400
▁यव	-4401
▁द्ध	-4402
▁धूम	-4403
▁Answer	-4404
▁प्रदेशे	-4405
▁स्वास्थ्य	-4406
us	-4407
ेर्	-4408
▁रौ	-4409
पृष्ठ	-4410
▁भवत्	-4411
▁प्रचल	-4412
▁समस्या	-4413
▁सम्बन्धः	-4414
▁प्राप्तिः	-4415
ost	-4416
स्फ	-4417
कम्ः	-4418
हारः	-4419
▁ाचार	-4420
▁दैत्य	-4421
▁बहूनि	-4422
▁चतुर्दश	-4423
▁विद्वान्	-4424
▁ऋत	-4425
▁पण	-4426
▁वप	-4427
▁इन्द	-4428
▁दिवि	-4429
▁व्युत्	-4430
▁संकल्प	-4431
▁संभवति	-4432
क्ल	-4433
द्द	-4434
▁४६	-4435
▁दिवसे	-4436
▁समुद्	-4437
▁राष्ट्रे	-4438
रस	-4439
पाप	-4440
▁६०	-4441
▁स्तः	-4442
▁क्रमशः	-4443
ive	-4444
हति	-4445
▁योगः	-4446
▁वारि	-4447
▁विशि	-4448
▁स्वीकृत	-4449
भी	-4450
शतं	-4451
्रं	-4452
▁=>	-4453
▁लव	-4454
ज्या	-4455
▁मदु	-4456
▁लौक	-4457
दृश्य	-4458
▁कष्ट	-4459
▁कथयति	-4460
▁श्रोत	-4461
ha	-4462
ङि	-4463
▁6.	-4464
▁३८	-4465
▁रचना	-4466
▁लोपः	-4467
▁ानाम	-4468
▁जीवित	-4469
▁लक्षणा	-4470
▁सौभाग्य	-4471
▁पुरुषस्य	-4472
▁अन्तरिक्ष	-4473
स्स	-4474
▁al	-4475
▁मना	-4476
▁मुद	-4477
▁मेदि	-4478
▁भवतां	-4479
▁साधनं	-4480
▁साधार	-4481
▁युज्यते	-4482
नग	-4483
▁असौ	-4484
▁उल्	-4485
कानां	-4486
▁व्यय	-4487
▁पुनरा	-4488
▁प्रभु	-4489
▁प्रिये	-4490
▁वार्ता	-4491
▁मित्यर्थः	-4492
@1	-4493
धर	-4494
पुर	-4495
श्न	-4496
भावे	-4497
▁गतौ	-4498
▁यया	-4499
▁यूप	-4500
▁उद्ध	-4501
▁शेषं	-4502
ध्यक्ष	-4503
▁कर्तुम्	-4504
्यै	-4505
प्नु	-4506
▁च्च	-4507
▁नरक	-4508
▁सम्भाष	-4509
▁वैज्ञान	-4510
टं	-4511
ेतत्	-4512
▁चेद	-4513
▁तनु	-4514
क्षया	-4515
▁प्रयच्छ	-4516
्रो	-4517
▁क्वा	-4518
▁विदुः	-4519
▁प्राप्तवान्	-4520
▁35	-4521
▁हां	-4522
▁ऽयं	-4523
चिदपि	-4524
▁मतम्	-4525
▁जीवितं	-4526
▁श्रुतिः	-4527
॒व	-4528
धिकारिक	-4529
▁आच	-4530
▁आर्	-4531
▁इती	-4532
▁मोद	-4533
विष्ट	-4534
▁निपा	-4535
▁कक्षा	-4536
▁चित्तं	-4537
▁सर्वभू	-4538
▁अस्मान्	-4539
▁सामान्यतः	-4540
घव	-4541
▁छे	-4542
▁धे	-4543
▁ऽप	-4544
▁कूप	-4545
▁नाद	-4546
▁ादिति	-4547
▁पूर्वम्	-4548
▁पूर्वेण	-4549
▁चिकित्सा	-4550
▁प्रयोजनं	-4551
ैष	-4552
▁32	-4553
▁३९	-4554
र्धा	-4555
▁अयम	-4556
▁भोः	-4557
▁भूत्	-4558
▁शासन	-4559
▁अवश्य	-4560
▁ध्याय	-4561
▁नियमः	-4562
दिश्यते	-4563
▁प्रियः	-4564
▁यथाशक्ति	-4565
▁प्रवक्ष्यामि	-4566
हन	-4567
॒त	-4568
प्ल	-4569
▁शम	-4570
▁सख	-4571
ूर्ण	-4572
▁ोद्	-4573
▁नूतन	-4574
▁भाति	-4575
▁अन्ते	-4576
▁निरोध	-4577
▁सत्ता	-4578
▁अवस्था	-4579
▁जनार्द	-4580
▁गृह्यते	-4581
▁तत्सर्व	-4582
ुपा	-4583
शब्द	-4584
▁आधार	-4585
▁कम्प	-4586
▁काङ्	-4587
▁ग्रा	-4588
▁दर्प	-4589
▁महोदय	-4590
▁तत्त्वं	-4591
▁लोकानां	-4592
▁पुनर्निर्	-4593
▁प्रयत्नेन	-4594
मू	-4595
खिल	-4596
ण्या	-4597
▁रसो	-4598
▁छाया	-4599
▁जाने	-4600
▁लोका	-4601
▁करुणा	-4602
▁कुम्भ	-4603
▁धातोः	-4604
▁वाच्य	-4605
ff	-4606
रौ	-4607
▁५२	-4608
व्ये	-4609
स्वी	-4610
त्याः	-4611
▁गुरो	-4612
▁द्वय	-4613
▁सस्य	-4614
▁सहस्राणि	-4615
▁हू	-4616
भवति	-4617
भेदे	-4618
▁अथे	-4619
▁विस	-4620
▁लम्ब	-4621
▁शिष्य	-4622
▁अधः	-4623
▁माण	-4624
▁गृहम्	-4625
▁समुत्	-4626
▁दद्यात्	-4627
करः	-4628
वद्	-4629
▁गमन	-4630
▁वाप	-4631
▁अन्ध	-4632
▁कारः	-4633
▁प्या	-4634
वृत्ति	-4635
▁इत्यु	-4636
▁स्पृश	-4637
▁तद्यथा	-4638
▁त्वाद्	-4639
▁भूतानि	-4640
▁तत्रापि	-4641
▁अधोलिखितानि	-4642
▁or	-4643
▁वेतन	-4644
पत्तेः	-4645
▁उक्तः	-4646
▁पुरतः	-4647
▁योगदान	-4648
▁स्थितो	-4649
▁आधिकारिक	-4650
▁दृश्यन्ते	-4651
ोट	-4652
लोप	-4653
शक्त	-4654
ेष्ट	-4655
▁जगति	-4656
▁रत्न	-4657
▁सन्न	-4658
▁मार्गः	-4659
▁विद्यार्थ	-4660
श्वर्य	-4661
▁प्रकी	-4662
▁भवेद्	-4663
▁मानवः	-4664
▁मिच्छ	-4665
▁उत्तरं	-4666
em	-4667
▁"'	-4668
▁चिद	-4669
▁तत्व	-4670
▁महात्म	-4671
▁साभारः	-4672
▁पदार्थः	-4673
▁सामग्री	-4674
▁स्ट	-4675
▁मनुः	-4676
▁अन्यः	-4677
▁उत्तरा	-4678
▁पुनरपि	-4679
▁वेत्ति	-4680
▁सङ्कल्प	-4681
घात	-4682
सान	-4683
पुंस	-4684
र्षि	-4685
▁नील	-4686
▁पद्म	-4687
▁व्याप्त	-4688
भवा	-4689
याय	-4690
ांसि	-4691
▁पठति	-4692
▁क्षणे	-4693
▁सुखम्	-4694
▁दृष्टः	-4695
▁विद्यु	-4696
▁निर्णयः	-4697
▁प्रत्ययो	-4698
ans	-4699
ेद्	-4700
▁कप	-4701
▁ऋतु	-4702
▁मुत्	-4703
▁सन्धि	-4704
▁अनन्तरं	-4705
▁परिसन्ध	-4706
▁पार्श्वे	-4707
▁वर्तन्ते	-4708
ीपी	-4709
▁धृ	-4710
ामहे	-4711
▁एस्	-4712
▁णां	-4713
▁ततॊ	-4714
▁समे	-4715
▁तदाह	-4716
▁ेऽपि	-4717
ir	-4718
पान	-4719
▁ing	-4720
चारिक	-4721
▁जनता	-4722
▁योगे	-4723
▁द्वितीयः	-4724
ैल	-4725
क्व	-4726
ारोह	-4727
▁महो	-4728
▁केनापि	-4729
▁वाक्ये	-4730
▁किंचित्	-4731
▁स्वार्थ	-4732
ut	-4733
क्स	-4734
गतं	-4735
▁मई	-4736
▁हत	-4737
▁आया	-4738
▁जिह	-4739
▁तमा	-4740
▁तान	-4741
▁हिम	-4742
▁श्रवण	-4743
▁देवदेव	-4744
▁मुहूर्त	-4745
नीं	-4746
▁औप	-4747
▁८०	-4748
कारण	-4749
▁दिल	-4750
▁देवे	-4751
▁हिंस	-4752
▁भेदेन	-4753
▁स्वामी	-4754
▁ोऽस्ति	-4755
▁स्वाभाव	-4756
▁प्रारम्भ	-4757
▁प्रतिज्ञा	-4758
दिन	-4759
▁बौ	-4760
▁असं	-4761
▁तपो	-4762
▁मयं	-4763
▁वनं	-4764
▁प्रम	-4765
▁नियुक्त	-4766
ur	-4767
पदा	-4768
र्ड	-4769
▁दारि	-4770
▁नूनं	-4771
▁भारतं	-4772
▁स्तेन	-4773
करं	-4774
ग्य	-4775
▁अद्	-4776
▁महं	-4777
▁सलि	-4778
▁कुमार	-4779
▁अधिकृत	-4780
▁तस्यैव	-4781
▁समुच्च	-4782
▁St	-4783
नीयं	-4784
लम्ब	-4785
वारं	-4786
▁हिमा	-4787
▁ब्रवी	-4788
▁मात्म	-4789
▁यितुं	-4790
▁सप्ताह	-4791
▁ऽस्मिन्	-4792
धो	-4793
यतु	-4794
▁7.	-4795
▁तवं	-4796
कर्षण	-4797
▁कोरो	-4798
▁अस्या	-4799
▁वर्षं	-4800
▁किञ्चि	-4801
ेर	-4802
▁इन्	-4803
▁देवत	-4804
▁पुष्ट	-4805
▁इच्छामि	-4806
▁संबंधनं	-4807
▁राज्यस्य	-4808
▁समर्पयामि	-4809
न्दन	-4810
न्दा	-4811
▁चीन	-4812
योजना	-4813
▁तुम्	-4814
▁योगि	-4815
▁श्वः	-4816
▁वर्द्ध	-4817
▁स्यादिति	-4818
▁प्रतिबन्ध	-4819
▁टिप्पणियां	-4820
▁५७	-4821
पत्य	-4822
▁कूट	-4823
▁ञ्ज	-4824
▁नेन	-4825
▁योर	-4826
▁शोच	-4827
▁मद्य	-4828
▁्यते	-4829
▁त्वाम	-4830
▁वक्ष्यामि	-4831
oo	-4832
नीया	-4833
कार्य	-4834
च्छत्	-4835
▁ज्वल	-4836
▁मंत्र	-4837
▁द्वितीये	-4838
▁निर्देशः	-4839
पृथ	-4840
▁डो	-4841
▁५४	-4842
योजन	-4843
ान्ध	-4844
▁आवि	-4845
▁केर	-4846
▁मिह	-4847
▁प्रभात	-4848
ul	-4849
कौ	-4850
ानो	-4851
पतिः	-4852
▁सती	-4853
▁१९७	-4854
▁गम्य	-4855
▁शरीरे	-4856
▁मात्रे	-4857
नया	-4858
ल्म	-4859
िंग	-4860
▁आं	-4861
▁जला	-4862
▁विधानं	-4863
▁प्रयोक्त	-4864
xx	-4865
ess	-4866
ter	-4867
ाया	-4868
▁५१	-4869
चितं	-4870
▁इदम	-4871
▁परत	-4872
▁अन्यो	-4873
▁अभवन्	-4874
▁प्रदा	-4875
▁प्रात	-4876
▁श्रृण	-4877
▁समृद्ध	-4878
▁सर्वभूतेषु	-4879
वादी	-4880
स्रो	-4881
▁तमो	-4882
▁दाव	-4883
▁धना	-4884
▁मखु	-4885
▁ासी	-4886
▁2021	-4887
▁अनुप	-4888
▁एकाद	-4889
▁पत्य	-4890
▁विभाव	-4891
▁वैद्य	-4892
राष्ट्र	-4893
▁सृष्टि	-4894
ik	-4895
▁ायै	-4896
▁ाभ्य	-4897
▁विवक्ष	-4898
▁आवश्यकता	-4899
---	-4900
लेख	-4901
्ति	-4902
र्जा	-4903
▁मुन	-4904
▁एकम्	-4905
▁प्रग	-4906
▁तासां	-4907
▁भ्यां	-4908
▁विन्द	-4909
▁संभवः	-4910
▁संवेद	-4911
▁पुण्यं	-4912
▁इत्येतत्	-4913
▁पुरस्कार	-4914
हत	-4915
▁31	-4916
▁अप्	-4917
▁करः	-4918
▁दोषो	-4919
▁ाश	-4920
ब्धा	-4921
रूपं	-4922
सस्य	-4923
▁for	-4924
▁पते	-4925
▁र्य	-4926
▁ाऽऽ	-4927
▁ईदृश	-4928
▁महती	-4929
▁यच्छ	-4930
▁स्मृतम्	-4931
वचन	-4932
▁by	-4933
र्मः	-4934
▁ताड	-4935
▁अङ्क	-4936
▁प्रभा	-4937
ायु	-4938
▁५९	-4939
▁काश	-4940
द्यते	-4941
▁भावं	-4942
▁आन्दो	-4943
▁परस्य	-4944
▁अमेरिक	-4945
▁अर्थात्	-4946
▁हल	-4947
▁४३	-4948
▁७०	-4949
▁.....	-4950
▁क्रमात्	-4951
▁निर्वाचन	-4952
क्क	-4953
मत्	-4954
▁अंश	-4955
▁चाप	-4956
▁राय	-4957
▁संवाद	-4958
▁सम्मे	-4959
▁इत्याद	-4960
▁तुभ्यं	-4961
▁यथाविधि	-4962
मार	-4963
▁ात	-4964
न्मा	-4965
षिद्ध	-4966
ोत्तर	-4967
▁जगतः	-4968
▁रङ्ग	-4969
▁विशाल	-4970
▁सोऽपि	-4971
▁प्रदान	-4972
▁पश्यन्ति	-4973
▁स॒	-4974
▁७५	-4975
च्छया	-4976
▁ह्री	-4977
▁निम्न	-4978
▁ोत्तर	-4979
▁सम्भवः	-4980
▁आम्	-4981
ेषाम्	-4982
▁देहे	-4983
▁भूयः	-4984
▁एशिया	-4985
▁संख्य	-4986
▁समग्र	-4987
▁ज्ञानम्	-4988
▁←	-4989
ण्ण	-4990
▁जू	-4991
▁भावो	-4992
▁वसति	-4993
▁वेदा	-4994
▁ितम्	-4995
लभ्यते	-4996
▁विवर्ज	-4997
▁स्थापना	-4998
▁निमित्तं	-4999
▁er	-5000
टुम्ब	-5001
▁दिति	-5002
▁भवन्तः	-5003
▁रक्षति	-5004
▁राजधान	-5005
▁स्त्रिया	-5006
वत	-5007
▁एन	-5008
▁ङ्	-5009
▁कारक	-5010
▁पुनरु	-5011
▁On	-5012
▁५६	-5013
▁मेक	-5014
न्नति	-5015
▁Arch	-5016
▁भोक्त	-5017
▁वचनम्	-5018
▁प्रबन्ध	-5019
▁पृथिव्या	-5020
▁प्रयत्नतः	-5021
ow	-5022
चने	-5023
▁त्वद	-5024
▁दोषा	-5025
▁नरकं	-5026
▁हरेः	-5027
▁सिद्धिः	-5028
▁डी	-5029
▁०४	-5030
ives	-5031
▁भवं	-5032
▁भाज	-5033
क्रमे	-5034
▁ब्रि	-5035
▁धारणा	-5036
▁भविष्यन्ति	-5037
ेवा	-5038
हितं	-5039
▁ङ्क	-5040
▁ततोऽ	-5041
स्थितः	-5042
▁चिह्न	-5043
▁देवदत्त	-5044
▁सर्वलोक	-5045
▁गच्छन्ति	-5046
मेति	-5047
▁तज्	-5048
▁नीत	-5049
▁सुभाष	-5050
▁युक्ता	-5051
▁विरोधः	-5052
ie	-5053
चे	-5054
▁गद	-5055
▁यि	-5056
▁ट्र	-5057
▁पिं	-5058
विशेष	-5059
▁सत्व	-5060
देशस्य	-5061
▁जिज्ञ	-5062
▁तद्वि	-5063
▁धाःसा	-5064
▁मण्डले	-5065
▁वाक्या	-5066
▁सूर्यः	-5067
▁भूतानां	-5068
▁सफ	-5069
▁तिल	-5070
▁दाता	-5071
▁वारं	-5072
▁भारती	-5073
▁समवाय	-5074
▁देवान्	-5075
▁पृष्ठे	-5076
▁जनसंख्या	-5077
कुल	-5078
▁ed	-5079
▁६५	-5080
▁क्या	-5081
▁मतिः	-5082
ीयन्ते	-5083
▁स्रोत	-5084
▁ादिना	-5085
▁अन्यत्	-5086
▁तेषाम्	-5087
▁दिव्यं	-5088
▁निर्दिष्ट	-5089
▁सिद्धान्त	-5090
कारि	-5091
▁असम	-5092
▁परमे	-5093
▁मुदा	-5094
▁षोडश	-5095
व्यक्ति	-5096
▁अभिप्राय	-5097
▁प्रविष्ट	-5098
मन्	-5099
▁(3	-5100
कारे	-5101
क्तः	-5102
त्सु	-5103
▁अहम	-5104
▁करी	-5105
▁अपरि	-5106
▁एक्स	-5107
▁त्रयः	-5108
▁पार्व	-5109
▁फलानि	-5110
▁वन्तः	-5111
▁चित्रं	-5112
▁ापेक्ष	-5113
▁कुटुम्ब	-5114
▁ज्ञानेन	-5115
▁पुस्तकं	-5116
▁~	-5117
▁लः	-5118
धारण	-5119
▁(1)	-5120
▁ाधि	-5121
▁सञ्ज	-5122
▁ग्रन्	-5123
▁द्विधा	-5124
▁सप्तदश	-5125
यिष्यामि	-5126
▁विद्यालये	-5127
डे	-5128
▁बं	-5129
धाति	-5130
ैर्य	-5131
▁वाज	-5132
▁पित्त	-5133
▁व्रतं	-5134
▁व्याधि	-5135
▁प्रदूषण	-5136
▁मन्त्री	-5137
दिव	-5138
▁:-	-5139
▁आसी	-5140
▁चान	-5141
▁2017	-5142
▁नवीन	-5143
▁सनात	-5144
▁दित्य	-5145
▁विभागः	-5146
▁अद्यापि	-5147
अथ	-5148
▁मज	-5149
▁१००	-5150
ation	-5151
▁जातम्	-5152
▁प्रसू	-5153
▁ऽस्ति	-5154
▁सूर्यो	-5155
ER	-5156
ine	-5157
मनु	-5158
मिव	-5159
करणं	-5160
▁अचि	-5161
▁मते	-5162
▁वयम	-5163
▁्यो	-5164
▁अभिन	-5165
▁परिण	-5166
▁राजन	-5167
▁अन्या	-5168
▁विघ्न	-5169
▁विलम्ब	-5170
▁सम्यग्	-5171
▁अत्यन्त	-5172
▁प्रामाण	-5173
▁सर्वनाम	-5174
▁सुखदुःख	-5175
सरे	-5176
ेदः	-5177
ल्ला	-5178
▁वरः	-5179
▁रेखा	-5180
क्रम्य	-5181
▁तीव्र	-5182
▁अन्तिम	-5183
▁परस्मै	-5184
र्ट	-5185
▁08	-5186
दिने	-5187
धिकं	-5188
▁भूष	-5189
▁चिरं	-5190
▁जगाम	-5191
▁भविष	-5192
▁सीमा	-5193
▁प्राप्	-5194
▁वास्तु	-5195
रोप	-5196
साम	-5197
ुतः	-5198
हारे	-5199
▁ग्ल	-5200
▁धीर	-5201
तिष्ठ	-5202
▁एकेन	-5203
▁ध्वं	-5204
▁भ्यो	-5205
▁पूज्य	-5206
▁कारणेन	-5207
▁निर्या	-5208
▁सूत्रं	-5209
▁04	-5210
▁आईपी	-5211
▁च्या	-5212
मासस्य	-5213
▁कुण्ड	-5214
▁क्रमः	-5215
▁रूपाणि	-5216
▁सम्मान	-5217
▁तस्मान्	-5218
▁युष्माकं	-5219
ेतु	-5220
▁जगद्	-5221
▁वाचि	-5222
▁सन्दे	-5223
▁ेन्द्र	-5224
चो	-5225
▁@	-5226
▁गव	-5227
▁वसि	-5228
▁तावद्	-5229
▁पुत्त	-5230
▁विहित	-5231
▁श्रेय	-5232
▁सुप्त	-5233
राज्यस्य	-5234
▁दारिद्र	-5235
▁विमुक्त	-5236
दर	-5237
रणा	-5238
ाग्र	-5239
▁100	-5240
▁नरो	-5241
▁पेश	-5242
▁रूपः	-5243
▁मूर्ति	-5244
▁शास्त्रं	-5245
ितम	-5246
▁शनैः	-5247
▁स्तन	-5248
्यायां	-5249
▁मेतत्	-5250
▁निष्ठा	-5251
▁विदेशी	-5252
▁संसर्ग	-5253
▁सर्वम्	-5254
▁ह्रस्व	-5255
▁मार्गेण	-5256
▁स्वार्थे	-5257
▁^	-5258
▁हव	-5259
त्तः	-5260
▁जुल	-5261
▁शाप	-5262
▁बाहु	-5263
▁मस्त	-5264
▁विदुष	-5265
▁करिष्ये	-5266
▁नुप	-5267
▁पुरु	-5268
▁मधुर	-5269
▁सिन्ध	-5270
क्रान्त	-5271
▁उपयोगः	-5272
रां	-5273
▁07	-5274
▁घृ	-5275
▁हम	-5276
त्सव	-5277
द्वि	-5278
▁जुह	-5279
▁ददौ	-5280
▁भिर	-5281
▁सहित	-5282
▁विज्ञे	-5283
▁वृत्तं	-5284
▁स्वल्प	-5285
इन	-5286
भूमि	-5287
▁पूँ	-5288
▁मतं	-5289
वचनम्	-5290
▁नागरिक	-5291
▁भवन्तु	-5292
▁ानन्तरं	-5293
▁पूर्वमेव	-5294
▁विद्यालय	-5295
▁प्राप्तुं	-5296
ck	-5297
▁ाध	-5298
▁्र	-5299
▁आपः	-5300
▁रेल	-5301
▁ऊर्ज	-5302
▁कृतो	-5303
▁मृदु	-5304
पेक्षा	-5305
▁ज्ञाने	-5306
िया	-5307
▁38	-5308
▁खं	-5309
ेतुं	-5310
▁चोद	-5311
▁नैक	-5312
▁१९८	-5313
मित्त	-5314
▁भेदा	-5315
▁यस्त	-5316
▁स्तं	-5317
▁एकस्य	-5318
▁पक्षः	-5319
▁ज्ञाना	-5320
▁राजनि०	-5321
▁सम्पन्न	-5322
्यू	-5323
▁रघ	-5324
सङ्ग	-5325
▁आगत	-5326
▁उभौ	-5327
▁पदो	-5328
स्तान	-5329
्यस्य	-5330
▁गतिं	-5331
▁दिशः	-5332
▁यन्त	-5333
▁तिथिः	-5334
▁मासस्य	-5335
▁ादिभिः	-5336
ीर्ण	-5337
▁यौव	-5338
▁गर्व	-5339
▁तपसा	-5340
▁ध्वज	-5341
▁विधे	-5342
▁हेतोः	-5343
▁साक्षा	-5344
▁ग्रीष्म	-5345
▁जानन्ति	-5346
▁फो	-5347
▁ेव	-5348
▁जाप	-5349
▁शैल	-5350
▁ुत्	-5351
कुर्व	-5352
निष्ठ	-5353
▁आयुः	-5354
▁कविः	-5355
▁देयं	-5356
▁नष्ट	-5357
▁ादपि	-5358
▁आरब्ध	-5359
▁हस्ति	-5360
▁यस्याः	-5361
▁श्रुतं	-5362
▁सिद्धम्	-5363
▁अतिरिक्त	-5364
▁तत्सर्वं	-5365
un	-5366
ालन	-5367
▁33	-5368
भावः	-5369
्रियः	-5370
▁जातो	-5371
श्रित्य	-5372
▁कथयामि	-5373
लाई	-5374
ष्क	-5375
▁उदा	-5376
▁मत्र	-5377
▁नेपाः	-5378
▁सूक्त	-5379
▁प्रचार	-5380
▁सन्दर्भ	-5381
▁स्वस्ति	-5382
▁एकस्मिन्	-5383
श्त	-5384
▁तय्	-5385
▁सर्	-5386
▁अपना	-5387
▁वासि	-5388
▁सुखी	-5389
▁अक्षर	-5390
▁कानून	-5391
▁निवेदन	-5392
▁साक्षात्कार	-5393
पथ	-5394
सव	-5395
लिक	-5396
ध्वं	-5397
▁ावि	-5398
▁एवेति	-5399
▁श्चापि	-5400
▁एवमुक्त	-5401
▁गृह्णाति	-5402
▁प्रजायते	-5403
▁(?	-5404
▁णं	-5405
▁हस	-5406
▁वल्	-5407
▁दुगु	-5408
▁वाहन	-5409
▁पित्र	-5410
▁वेदना	-5411
▁वृक्षः	-5412
▁आत्मानं	-5413
▁साम्प्र	-5414
se	-5415
000	-5416
ीयो	-5417
्येक	-5418
▁१९४	-5419
▁जन्त	-5420
▁मुञ्च	-5421
▁जन्मनि	-5422
▁युक्तम्	-5423
▁कर्तव्या	-5424
▁पूर्ववत्	-5425
दिः	-5426
ाप्य	-5427
▁शुच	-5428
्येते	-5429
▁प्रवाह	-5430
▁ात्मकं	-5431
▁त्रयोदश	-5432
▁मृत्युः	-5433
▁यथाक्रम	-5434
ct	-5435
▁ar	-5436
▁आज	-5437
श्वरः	-5438
▁ङीष्	-5439
▁भयम्	-5440
▁शिवः	-5441
▁हिता	-5442
श्चित्	-5443
▁शुभम्	-5444
▁सद्यः	-5445
▁यित्वा	-5446
▁Archives	-5447
▁गमिष्यामि	-5448
▁th	-5449
च्या	-5450
सारं	-5451
▁चैक	-5452
▁भिष	-5453
▁मेन	-5454
▁मांस	-5455
▁लाभः	-5456
▁ह्या	-5457
▁गुप्त	-5458
▁विषयं	-5459
▁युक्ते	-5460
▁इदानीम्	-5461
▁स्थिताः	-5462
▁विश्वस्य	-5463
तीत	-5464
ाहं	-5465
▁de	-5466
स्थि	-5467
िकां	-5468
▁तस्	-5469
▁धाम	-5470
▁समव	-5471
▁होम	-5472
▁ांश	-5473
▁दिवं	-5474
▁अप्वः	-5475
▁यत्तु	-5476
▁विधेय	-5477
▁स्कन्ध	-5478
▁पृथिव्यां	-5479
धु	-5480
▁(4	-5481
▁05	-5482
▁अरे	-5483
▁चैत	-5484
▁तुं	-5485
▁माद	-5486
▁मुखे	-5487
▁व्यभि	-5488
▁समाना	-5489
▁कर्मणः	-5490
▁उत्तरम्	-5491
▁करणीयम्	-5492
▁कारणात्	-5493
भवं	-5494
लाप	-5495
▁टा	-5496
▁सप	-5497
भूतं	-5498
▁कोप	-5499
▁पाक	-5500
▁माः	-5501
▁निशा	-5502
▁नपुंस	-5503
▁भूमिः	-5504
▁प्राची	-5505
▁प्रभावः	-5506
▁प्रयत्न	-5507
▁प्रयोगे	-5508
▁वाच्यम्	-5509
▁व्याख्यान	-5510
एम	-5511
॑ः	-5512
▁en	-5513
▁फे	-5514
स्ये	-5515
▁अपर	-5516
▁आर्य	-5517
▁कोवि	-5518
▁गान्	-5519
▁परति	-5520
▁पुरः	-5521
▁शुभं	-5522
▁त्रयं	-5523
▁ददर्श	-5524
▁कार्यः	-5525
▁न्ह्यः	-5526
▁संसारे	-5527
▁सहस्रं	-5528
▁स्वच्छ	-5529
▁विशेषणम्	-5530
▁प्रशिक्षु	-5531
ताम	-5532
▁अर्	-5533
▁बिभ	-5534
▁रिव	-5535
▁वेष	-5536
▁भूते	-5537
▁सुतः	-5538
▁गृहाण	-5539
▁बहुव्री	-5540
टल	-5541
मुप	-5542
▁जाये	-5543
▁ोऽहं	-5544
▁प्रकट	-5545
▁शब्दं	-5546
▁अधिकरण	-5547
▁आधुनिक	-5548
▁मूल्यं	-5549
▁क्रान्त	-5550
▁प्रायश्च	-5551
▁सर्वेषाम	-5552
जाः	-5553
खण्ड	-5554
▁अच्	-5555
▁दूत	-5556
न्यास	-5557
▁मानः	-5558
▁बौद्ध	-5559
ताप	-5560
दोष	-5561
भात	-5562
रन्	-5563
▁तमि	-5564
▁१९५	-5565
▁ानुप	-5566
क्रिया	-5567
▁न्ह्य	-5568
▁परितः	-5569
▁विराज	-5570
▁अस्यां	-5571
▁कृत्स्	-5572
▁तृतीये	-5573
▁प्रदेशः	-5574
▁तात्पर्य	-5575
आर	-5576
▁भृश	-5577
▁यज्ञं	-5578
▁सर्गः	-5579
▁परिमाण	-5580
▁राजानं	-5581
▁ज्योतिः	-5582
▁पश्चिमे	-5583
▁भवितव्यम्	-5584
पत	-5585
निः	-5586
▁36	-5587
▁कट	-5588
▁शः	-5589
र्हि	-5590
ैरपि	-5591
▁सरल	-5592
ामिति	-5593
▁कुशल	-5594
▁दारु	-5595
▁वन्य	-5596
▁वरुण	-5597
▁एतदेव	-5598
▁स्वयम	-5599
▁ादीनि	-5600
▁पुरुषा	-5601
▁प्राग्	-5602
▁मासीत्	-5603
▁यायेगु	-5604
▁स्तुति	-5605
▁न्यूनतम	-5606
▁उदाहरणम्	-5607
▁निवृत्ति	-5608
▁मन्यन्ते	-5609
ग्व	-5610
▁),	-5611
प्रा	-5612
र्षे	-5613
▁आशी	-5614
▁निब	-5615
▁पथि	-5616
▁नन्व	-5617
▁मन्व	-5618
▁दिष्ट	-5619
▁स्त्रियः	-5620
पास	-5621
▁37	-5622
▁1.1	-5623
▁पयो	-5624
क्षिक	-5625
▁विद्	-5626
▁संनि	-5627
▁सुरा	-5628
▁प्रवास	-5629
di	-5630
एं	-5631
पते	-5632
ेशे	-5633
▁णे	-5634
▁सूत	-5635
▁१९६	-5636
ित्वं	-5637
▁विपु	-5638
▁उपचार	-5639
▁गुह्य	-5640
▁युक्ति	-5641
▁स्पर्ध	-5642
▁गच्छामि	-5643
म्प	-5644
सें	-5645
▁इतो	-5646
▁पाश	-5647
▁वाग्	-5648
▁विजय	-5649
▁शुभे	-5650
▁प्रतीति	-5651
▁संस्थिता	-5652
▁घर	-5653
एससी	-5654
▁जित	-5655
स्तथा	-5656
▁चतुर	-5657
▁जितः	-5658
▁तेजो	-5659
▁शस्त	-5660
▁मार्च	-5661
▁पुत्रस्य	-5662
षः	-5663
दित	-5664
ैति	-5665
▁षि	-5666
▁्व	-5667
▁७४	-5668
▁योष	-5669
च्छ्र	-5670
▁दिनं	-5671
▁महाम	-5672
▁स्थं	-5673
▁जाग्र	-5674
▁जीवने	-5675
▁यज्ञे	-5676
▁प्रथमो	-5677
▁विद्यां	-5678
कलं	-5679
लिः	-5680
▁ज़	-5681
▁मप	-5682
▁ों	-5683
▁५८	-5684
कारी	-5685
▁नाप	-5686
▁हंस	-5687
▁धनम्	-5688
▁नाति	-5689
▁पुरं	-5690
▁यावद्	-5691
▁ग्रहणे	-5692
▁पितॄणां	-5693
▁निर्माणं	-5694
@2	-5695
▁ad	-5696
▁it	-5697
▁छः	-5698
▁९०	-5699
▁औषध	-5700
▁हेम	-5701
रूपेण	-5702
▁कुले	-5703
▁तदुप	-5704
▁पदेन	-5705
▁सुषु	-5706
▁स्ततः	-5707
▁हस्ता	-5708
▁गतवान्	-5709
निष	-5710
▁गान	-5711
▁माव	-5712
▁यस्	-5713
▁रथं	-5714
▁देहं	-5715
▁नमस्	-5716
▁पद्य	-5717
विंशति	-5718
▁शक्या	-5719
▁स्मार	-5720
▁ाभावे	-5721
▁आत्मनः	-5722
▁बहूनां	-5723
▁पश्चाद्	-5724
▁संबन्धः	-5725
▁संवेदना	-5726
▁ेत्यर्थः	-5727
धिं	-5728
वम्	-5729
▁00	-5730
वादि	-5731
▁मनी	-5732
दृष्ट	-5733
▁दिक्	-5734
▁ाख्य	-5735
▁ाग्र	-5736
▁द्विष	-5737
▁वदामि	-5738
▁कश्चिद	-5739
▁कीर्ति	-5740
▁अस्माकम्	-5741
▁निष्कर्ष	-5742
▁परियोजना	-5743
▁संस्करणे	-5744
▁प्रतिपद्यते	-5745
शन	-5746
िम	-5747
्ता	-5748
्वल	-5749
ासते	-5750
▁Pre	-5751
▁असु	-5752
▁एनं	-5753
▁दशम	-5754
मिच्छ	-5755
▁कापि	-5756
▁निरु	-5757
▁पितॄ	-5758
▁बह्व	-5759
▁पश्ये	-5760
▁प्रेत	-5761
▁ाणाम्	-5762
▁पित्रा	-5763
▁विरासत	-5764
▁प्रकृते	-5765
▁परमात्मा	-5766
▁प्रतियोगिता	-5767
▁विश्वविद्यालय	-5768
चल	-5769
ेण्	-5770
▁34	-5771
▁8.	-5772
▁७१	-5773
न्ने	-5774
▁कमल	-5775
▁दये	-5776
▁धान	-5777
िंशत्	-5778
▁गतम्	-5779
▁जननी	-5780
▁जुया	-5781
▁बहिर्	-5782
▁समाधि	-5783
▁उपसर्ग	-5784
▁द्वयोः	-5785
▁प्रस्थ	-5786
▁कस्यचित्	-5787
▁प्रयुज्यते	-5788
रुः	-5789
▁५३	-5790
संस्	-5791
▁आशा	-5792
▁ितं	-5793
त्येव	-5794
मध्ये	-5795
▁आहार	-5796
▁इमां	-5797
▁नेता	-5798
▁भूयो	-5799
▁शर्म	-5800
▁न्यास	-5801
▁पदानि	-5802
▁सप्तम	-5803
▁पञ्चदश	-5804
▁पुमान्	-5805
▁द्रव्यं	-5806
▁संग्राम	-5807
▁वक्तव्यः	-5808
माग	-5809
ुरा	-5810
▁ग्	-5811
▁करा	-5812
▁घृत	-5813
▁जने	-5814
▁िता	-5815
▁अप्य	-5816
▁पारि	-5817
▁अवकाश	-5818
▁परिकी	-5819
▁वसिष्ठ	-5820
फ़	-5821
▁शोष	-5822
▁द्वै	-5823
▁नृपः	-5824
▁वादी	-5825
▁स्थे	-5826
msgstr	-5827
▁कार्त	-5828
▁गङ्गा	-5829
▁द्वारं	-5830
▁प्रशास	-5831
▁परामर्श	-5832
▁पुस्तके	-5833
▁प्रायश्चित्त	-5834
लिं	-5835
▁००	-5836
▁गणित	-5837
▁चेन्न	-5838
▁विधिव	-5839
▁सहितं	-5840
▁ब्रूहि	-5841
▁मुक्तः	-5842
▁समाहितः	-5843
▁उत्कृष्ट	-5844
▁ज्ञानस्य	-5845
▁प्रजानां	-5846
▁ळ	-5847
विक	-5848
सहस	-5849
र्यं	-5850
▁कोट	-5851
श्मीर	-5852
▁जनैः	-5853
▁मार्	-5854
▁संदे	-5855
▁प्रकरणे	-5856
▁प्रपञ्च	-5857
▁स्वभावतः	-5858
डः	-5859
कैः	-5860
तोऽ	-5861
साग	-5862
र्थो	-5863
श्रु	-5864
▁आश्च	-5865
▁गणना	-5866
▁प्रौ	-5867
▁भङ्ग	-5868
▁मातु	-5869
▁यक्ष	-5870
▁स्थः	-5871
▁ादेः	-5872
▁सौम्य	-5873
र्मध्ये	-5874
▁उद्देश	-5875
▁दीर्घः	-5876
▁किञ्चिद	-5877
▁युधिष्ठ	-5878
▁विकल्पः	-5879
▁विप्रति	-5880
▁सम्पादन	-5881
स्ती	-5882
▁उपे	-5883
▁तदैव	-5884
▁नामः	-5885
▁बहवो	-5886
▁यद्व	-5887
▁वश्य	-5888
▁पुत्री	-5889
▁हिन्दु	-5890
▁वाणिज्य	-5891
▁प्रतिवर्ष	-5892
भाषण	-5893
▁जून	-5894
जायते	-5895
र्थाः	-5896
▁इयम्	-5897
▁तत्प	-5898
▁सुलभ	-5899
▁ाष्ट	-5900
▁कस्मि	-5901
▁भविता	-5902
▁वनस्प	-5903
▁दिल्ली	-5904
▁शक्तिं	-5905
▁कस्यापि	-5906
▁परिकल्प	-5907
▁समाचरेत्	-5908
▁सर्वभूतानां	-5909
डु	-5910
▁[[	-5911
ुवन्	-5912
ूर्व	-5913
▁ऋषि	-5914
▁भेष	-5915
▁ल्ल	-5916
▁सफल	-5917
▁ाहं	-5918
▁श्चा	-5919
न्तरम्	-5920
▁योगेन	-5921
▁श्चेति	-5922
▁सर्वतो	-5923
▁सहस्रा	-5924
▁धार्मिक	-5925
हाँ	-5926
ादी	-5927
ालं	-5928
▁सरो	-5929
कारेण	-5930
त्तमः	-5931
▁पराय	-5932
▁विवि	-5933
▁प्राव	-5934
▁ाख्या	-5935
▁कस्मात्	-5936
▁प्रातिपद	-5937
▁मन्त्रेण	-5938
▁प्राप्तम्	-5939
▁हतः	-5940
बुद्ध	-5941
▁काष्ठ	-5942
▁ग्रहः	-5943
▁इत्यभि	-5944
▁ज्ञेयं	-5945
▁बालकाः	-5946
▁वचनात्	-5947
▁सिद्धं	-5948
▁जः	-5949
▁com	-5950
▁पता	-5951
▁कथां	-5952
▁भस्म	-5953
▁ऽत्र	-5954
▁उपस्थ	-5955
▁त्र्य	-5956
▁सिंहः	-5957
▁स्पेन	-5958
▁पितामह	-5959
▁मनुष्याणां	-5960
तमः	-5961
तय्	-5962
पाठ	-5963
तिर्	-5964
न्यं	-5965
न्ये	-5966
शङ्क	-5967
▁छगू	-5968
▁धारण	-5969
▁शिरः	-5970
▁सत्र	-5971
▁प्राद	-5972
▁द्यावा	-5973
▁निबन्ध	-5974
▁साम्रा	-5975
▁नियन्त्र	-5976
▁ापि	-5977
च्चार	-5978
वस्था	-5979
▁उपयु	-5980
▁दिग्	-5981
▁मेकं	-5982
▁योगं	-5983
▁वाचक	-5984
▁सूची	-5985
▁ततस्त	-5986
▁ांश्च	-5987
▁कोरोना	-5988
▁क्रुद्ध	-5989
▁सर्वज्ञ	-5990
▁प्रतीक्ष	-5991
बे	-5992
तमं	-5993
▁षा	-5994
▁ाल	-5995
लक्ष	-5996
▁मुनी	-5997
▁शिला	-5998
▁भिक्ष	-5999
▁संपाद	-6000
▁समूहः	-6001
▁भ्राता	-6002
▁महीयते	-6003
▁परिवर्तन	-6004
▁इत्युक्त्वा	-6005
▁वु	-6006
चनाः	-6007
▁(),	-6008
▁मयो	-6009
▁वति	-6010
सन्ति	-6011
▁प्लव	-6012
▁भवतो	-6013
▁रिपु	-6014
▁वाचं	-6015
▁नाट्य	-6016
▁मुनिः	-6017
▁ह्रीं	-6018
eo	-6019
▁६४	-6020
▁पयः	-6021
▁ैस्	-6022
▁आयोज	-6023
▁कान्	-6024
ज्ञानं	-6025
▁गुणैः	-6026
▁नियमा	-6027
▁बान्ध	-6028
▁माध्यम	-6029
▁राज्ञा	-6030
▁विशेषा	-6031
▁निर्मित	-6032
▁शक्त्या	-6033
▁दर्शनात्	-6034
▁न्यायालय	-6035
▁वक्तव्यं	-6036
ak	-6037
जार	-6038
मेक	-6039
मेध	-6040
यथा	-6041
ावे	-6042
▁>>	-6043
ाद्व	-6044
ोपरि	-6045
▁गां	-6046
▁मेत	-6047
्रियं	-6048
▁कामा	-6049
▁परिह	-6050
▁रहित	-6051
▁ादयो	-6052
▁भगवतः	-6053
▁वाताव	-6054
▁नगरस्य	-6055
▁उक्तवान्	-6056
▁कुर्वन्तु	-6057
▁नया	-6058
▁वरु	-6059
▁Post	-6060
▁दूरं	-6061
▁पलाय	-6062
▁बोधि	-6063
▁भवेद	-6064
▁सतां	-6065
▁ऊर्जा	-6066
▁तमस्य	-6067
▁चतुर्व	-6068
▁धर्मेण	-6069
▁पूर्णं	-6070
▁शक्यम्	-6071
▁अभिव्यक्ति	-6072
▁स्वातन्त्र्य	-6073
▁US	-6074
▁कफ	-6075
▁रुद	-6076
ांतरण	-6077
▁किलो	-6078
▁केचि	-6079
▁पादौ	-6080
▁स्रो	-6081
▁भ्रमण	-6082
▁मर्या	-6083
▁संयोज	-6084
▁कर्तुम	-6085
▁तदर्थं	-6086
▁वास्तव	-6087
▁ग्राह्य	-6088
▁राजनीति	-6089
▁विस्तरेण	-6090
ूय	-6091
मिह	-6092
▁६८	-6093
▁नौक	-6094
▁विधौ	-6095
▁कर्तु	-6096
▁हत्वा	-6097
▁लिङ्गं	-6098
▁विद्धि	-6099
▁ोऽस्मि	-6100
▁प्रकीर्त	-6101
▁·	-6102
▁45	-6103
▁चिं	-6104
▁अतिश	-6105
▁नारद	-6106
▁पाहि	-6107
▁सकाश	-6108
पूर्णं	-6109
▁चात्र	-6110
▁अग्निं	-6111
▁त्वस्य	-6112
▁परमाणु	-6113
▁हिन्दी	-6114
१२	-6115
धेय	-6116
िनि	-6117
▁कद	-6118
▁६६	-6119
▁एतं	-6120
▁गोच	-6121
▁यथो	-6122
▁रूढ	-6123
▁ऽति	-6124
▁वन्त	-6125
▁प्रणि	-6126
▁इत्यनु	-6127
▁इत्युप	-6128
▁धर्मस्य	-6129
▁विद्वां	-6130
▁सूत्रेण	-6131
▁पदोन्नति	-6132
▁राष्ट्रं	-6133
तीं	-6134
य्य	-6135
वाक	-6136
ीयत	-6137
▁टै	-6138
धातु	-6139
माणे	-6140
स्वा	-6141
हरति	-6142
ावपि	-6143
▁महे	-6144
▁कालि	-6145
▁किंच	-6146
▁शुचि	-6147
▁अर्थे	-6148
▁निद्र	-6149
▁सरस्व	-6150
▁स्थले	-6151
▁उपयोगी	-6152
▁उपलब्ध	-6153
▁संवेदन	-6154
▁निश्चयः	-6155
▁निश्चित	-6156
▁प्रतिकूल	-6157
▁प्राणिनां	-6158
▁ऎ	-6159
भुत	-6160
भोग	-6161
▁44	-6162
▁ाथ	-6163
सेत्	-6164
्यया	-6165
▁सुम	-6166
▁्यः	-6167
▁आह्व	-6168
▁शैली	-6169
च्छेदः	-6170
्यन्ते	-6171
▁कविता	-6172
▁क्षयं	-6173
▁तुष्ट	-6174
▁परिष्	-6175
▁पुरात	-6176
▁मातुः	-6177
▁आचार्य	-6178
▁कौन्ते	-6179
▁चक्षुष	-6180
▁पुष्टि	-6181
▁प्रणाली	-6182
▁रूपांतरण	-6183
▁दृष्टान्त	-6184
▁प्रसिद्धः	-6185
▁48	-6186
▁Al	-6187
ज्यं	-6188
▁रपि	-6189
▁शाख	-6190
त्र्त	-6191
न्नेव	-6192
र्थाय	-6193
▁बीजं	-6194
▁स्वि	-6195
स्थाने	-6196
▁व्याव	-6197
▁वृक्षे	-6198
▁सङ्गीत	-6199
▁जायन्ते	-6200
▁प्रकारः	-6201
▁योग्यता	-6202
▁सङ्ग्रह	-6203
▁परमेश्वर	-6204
our	-6205
मुद	-6206
शास	-6207
▁be	-6208
▁ैत	-6209
गन्ध	-6210
पदम्	-6211
▁असा	-6212
▁एवै	-6213
▁तैल	-6214
पन्नः	-6215
▁एकैक	-6216
▁मप्य	-6217
▁वृथा	-6218
▁ान्न	-6219
▁उपकरण	-6220
▁वर्णन	-6221
▁ेश्वर	-6222
▁पत्रिका	-6223
▁इन्द्रिय	-6224
व्	-6225
▁दस	-6226
ैश्च	-6227
▁10.	-6228
▁चाह	-6229
▁धुं	-6230
▁माघ	-6231
चित्त	-6232
▁चतुः	-6233
▁परां	-6234
▁महता	-6235
ेश्वरः	-6236
▁अनेके	-6237
▁निबोध	-6238
▁कन्यां	-6239
▁कुर्मः	-6240
▁सन्देश	-6241
▁प्रधानं	-6242
▁स्वर्गं	-6243
▁सुप्रभात	-6244
▁कार्यान्व	-6245
▁39	-6246
▁७६	-6247
▁र्च	-6248
ज्ञां	-6249
▁नियत	-6250
▁वेदित	-6251
▁हितम्	-6252
▁परमार्थ	-6253
SC	-6254
भर	-6255
ाल्	-6256
क्षी	-6257
नाति	-6258
न्दः	-6259
▁मवा	-6260
▁यास	-6261
▁सीत	-6262
व्याः	-6263
▁News	-6264
▁चेद्	-6265
▁भेदो	-6266
▁दर्शने	-6267
▁कर्मणां	-6268
▁विभक्ति	-6269
▁स्पृष्ट	-6270
▁परित्यज्य	-6271
थैव	-6272
िणी	-6273
▁60	-6274
▁खा	-6275
▁तट	-6276
▁ष्	-6277
▁६७	-6278
▁अलं	-6279
▁कन्	-6280
▁नीच	-6281
▁सुभ	-6282
▁किमु	-6283
▁मान्	-6284
▁एकमेव	-6285
▁त्येव	-6286
▁त्वद्	-6287
▁मत्वा	-6288
▁त्वाम्	-6289
▁यत्नतः	-6290
कट	-6291
ैकं	-6292
भूता	-6293
▁जनक	-6294
▁यथे	-6295
▁उष्ण	-6296
▁खल्व	-6297
▁बलेन	-6298
▁मानि	-6299
▁स्नि	-6300
▁रहस्य	-6301
▁क्षिप्र	-6302
▁प्रत्यये	-6303
▁शक्नुवन्ति	-6304
▁डे	-6305
वर्ग	-6306
ष्टु	-6307
ृत्व	-6308
▁न्द	-6309
▁मेध	-6310
स्यसि	-6311
▁कुलं	-6312
▁गमनं	-6313
▁माला	-6314
▁आगत्य	-6315
▁क्षीर	-6316
▁पूँजी	-6317
▁यस्मा	-6318
▁सर्वः	-6319
▁सप्तमी	-6320
▁सन्ध्या	-6321
▁वैश्वदेव	-6322
th	-6323
आई	-6324
१९	-6325
गाः	-6326
▁(2)	-6327
▁एतौ	-6328
▁गुज	-6329
▁बाण	-6330
▁याय	-6331
▁ऽसौ	-6332
ृत्ति	-6333
▁पतिं	-6334
▁पृथग्	-6335
▁मङ्गल	-6336
▁मितिः	-6337
▁श्रूय	-6338
▁प्रासाद	-6339
▁विज्ञाय	-6340
▁शास्त्रे	-6341
नौ	-6342
▁त०	-6343
▁धो	-6344
▁ेक	-6345
▁६२	-6346
▁९५	-6347
ब्दे	-6348
स्थे	-6349
▁ण्य	-6350
▁तरं	-6351
म्बर्	-6352
▁व्यस	-6353
यितुम्	-6354
▁वर्णः	-6355
▁निर्दि	-6356
▁महाभाग	-6357
▁लोकान्	-6358
▁वीक्ष्य	-6359
▁शक्नुमः	-6360
▁सर्वपाप	-6361
▁परमेश्वरः	-6362
-3	-6363
भूय	-6364
याद	-6365
व्यो	-6366
▁आदौ	-6367
▁पङ्	-6368
▁प्त	-6369
▁2016	-6370
▁निशि	-6371
▁पोर्	-6372
▁इष्यते	-6373
▁विख्या	-6374
▁सुविधा	-6375
▁स्थानि	-6376
▁विशुद्ध	-6377
▁वैश्वान	-6378
▁निवर्तते	-6379
▁विभक्तिः	-6380
▁यथाक्रमम्	-6381
im	-6382
दाः	-6383
▁06	-6384
भारत	-6385
▁अक्	-6386
▁कोश	-6387
▁ग्न	-6388
▁नेह	-6389
▁पुट	-6390
▁यन्न	-6391
▁वेत्	-6392
भावात्	-6393
▁उद्घा	-6394
▁सिद्धा	-6395
▁नित्यम्	-6396
▁प्राकृत	-6397
▁म्रियते	-6398
▁अत्यन्तं	-6399
2.	-6400
पनं	-6401
मेय	-6402
▁IS	-6403
▁अफ	-6404
वाणी	-6405
ानीं	-6406
▁आरा	-6407
▁संच	-6408
▁समः	-6409
▁सैव	-6410
ित्यं	-6411
▁पुरी	-6412
▁कारेण	-6413
▁त्रया	-6414
▁दिनम्	-6415
▁पाठ्य	-6416
▁शिल्प	-6417
▁समासः	-6418
▁ग्रामे	-6419
▁पर्याय	-6420
▁मुक्तं	-6421
▁सरकारं	-6422
▁साक्षी	-6423
▁स्थितौ	-6424
▁स्यान्	-6425
▁आन्दोलन	-6426
▁स्मृतिः	-6427
▁सम्प्रसार	-6428
पौ	-6429
▁झी	-6430
▁सखि	-6431
▁िनः	-6432
▁आगतः	-6433
▁शेषे	-6434
▁ाप्य	-6435
▁ोऽसि	-6436
▁तदर्थ	-6437
▁पञ्चा	-6438
▁हिताय	-6439
▁चतुष्ट	-6440
▁विचारः	-6441
▁ावस्था	-6442
▁प्रतिमा	-6443
▁प्रभृति	-6444
▁विश्लेष	-6445
▁समाप्तम्	-6446
षो	-6447
शुभ	-6448
ष्व	-6449
▁मर	-6450
ज्ञे	-6451
षेधे	-6452
▁गोल	-6453
▁दधि	-6454
▁यित	-6455
▁वन्	-6456
▁ार्	-6457
ात्मक	-6458
▁क्रो	-6459
▁तावद	-6460
▁मनसः	-6461
▁मानो	-6462
▁वाचा	-6463
▁ऽस्य	-6464
▁शत्रू	-6465
▁साध्या	-6466
▁समन्वितः	-6467
▁औष	-6468
ence	-6469
ेयुः	-6470
▁आचर	-6471
▁तरि	-6472
▁नयन	-6473
▁ब्ल	-6474
▁कार्	-6475
▁द्रव	-6476
▁माना	-6477
▁बलात्	-6478
▁मूर्ध	-6479
▁गन्तुं	-6480
▁भ्रातृ	-6481
▁उपयुक्त	-6482
▁स्वात्म	-6483
▁वैज्ञानिक	-6484
▁द्रष्टव्यम्	-6485
येण	-6486
▁अ०	-6487
▁कण	-6488
गम्य	-6489
ञ्चन	-6490
▁आरभ	-6491
▁उभे	-6492
▁तिर	-6493
बिम्ब	-6494
▁जातु	-6495
▁शिष्ट	-6496
▁शब्दाः	-6497
▁समर्थन	-6498
▁सार्धं	-6499
सहस्राणि	-6500
▁पृष्ठानां	-6501
-4	-6502
▁तल	-6503
▁औसत	-6504
▁रसः	-6505
▁शकु	-6506
पन्ना	-6507
▁केषु	-6508
▁परतः	-6509
▁अपश्य	-6510
▁दर्शय	-6511
▁वय्कलं	-6512
▁पूर्ब्ब	-6513
▁श्रुतेः	-6514
▁प्रोक्तो	-6515
▁प्रयच्छति	-6516
घ्	-6517
ुद	-6518
चुः	-6519
ालः	-6520
ृते	-6521
ेतं	-6522
▁६१	-6523
वादः	-6524
▁वाऽ	-6525
▁्यं	-6526
पद्यत	-6527
▁गुणं	-6528
▁तेजः	-6529
▁मुमु	-6530
▁साङ्	-6531
▁ार्ध	-6532
▁एतच्च	-6533
▁धर्मे	-6534
▁भृत्य	-6535
▁स्फुर	-6536
▁स्वाद	-6537
▁मध्याह	-6538
▁युक्तो	-6539
▁वृष्टि	-6540
▁समर्थः	-6541
▁त्वादिति	-6542
▁पर्याप्त	-6543
▁प्रकरणम्	-6544
▁प्रत्यया	-6545
▁प्रस्तुत	-6546
ub	-6547
तक	-6548
११	-6549
अहं	-6550
ोमि	-6551
▁फु	-6552
मानो	-6553
▁देय	-6554
▁र्व	-6555
▁जलम्	-6556
▁धइगु	-6557
▁निगम	-6558
▁रूपि	-6559
▁लभ्य	-6560
▁विमो	-6561
▁सन्तः	-6562
▁कालस्य	-6563
▁तद्वत्	-6564
▁देशकाल	-6565
▁संग्रह	-6566
▁पृथिवीं	-6567
▁प्रदत्त	-6568
▁विचक्षण	-6569
▁स्तोत्र	-6570
▁ध्यात्वा	-6571
▁लिखितानां	-6572
SE	-6573
तार	-6574
निक	-6575
माद	-6576
सत्	-6577
▁[1	-6578
▁इय	-6579
▁सॊ	-6580
याद्	-6581
▁अपह	-6582
▁थौं	-6583
▁रतः	-6584
स्ततः	-6585
ार्थं	-6586
▁जीवा	-6587
▁विचि	-6588
पुरुषः	-6589
▁चक्रे	-6590
▁वेष्ट	-6591
▁ोक्तं	-6592
▁तत्काल	-6593
▁प्रसीद	-6594
▁विरोधि	-6595
▁क्रियां	-6596
▁प्राप्नु	-6597
▁विद्यालयं	-6598
ीण	-6599
ous	-6600
तस्	-6601
दीयं	-6602
ल्या	-6603
साम्	-6604
▁अकथ	-6605
▁अभय	-6606
▁इमा	-6607
▁चाय	-6608
▁चोर	-6609
▁नये	-6610
▁वृत	-6611
मुक्त	-6612
▁क्षो	-6613
▁जन्य	-6614
▁मासि	-6615
▁विभव	-6616
▁्यां	-6617
▁काण्ड	-6618
▁नृणां	-6619
▁बृहत्	-6620
▁लोकाः	-6621
▁शृङ्ग	-6622
▁अर्हति	-6623
▁रीत्या	-6624
▁पुत्राः	-6625
▁वैशिष्ट	-6626
▁तत्त्वतः	-6627
▁व्यभिचार	-6628
▁इत्युक्तम्	-6629
गन	-6630
ारु	-6631
▁दः	-6632
▁८६	-6633
काङ्	-6634
त्तो	-6635
भाषत	-6636
र्गत	-6637
▁भा०	-6638
ष्ठान	-6639
▁ततस्	-6640
▁लग्न	-6641
▁वासः	-6642
गम्यते	-6643
▁आरम्भ	-6644
▁देवेश	-6645
▁पृथ्वी	-6646
▁वृक्षा	-6647
▁औपचारिक	-6648
▁प्रणम्य	-6649
▁रात्रिः	-6650
▁विधानेन	-6651
▁स्तेषां	-6652
▁परिवर्तनं	-6653
च्व	-6654
धेः	-6655
▁am	-6656
▁ट्	-6657
▁मः	-6658
▁ह्	-6659
▁अथो	-6660
▁शान	-6661
ञ्जीत	-6662
दात्म	-6663
▁कुरुत	-6664
▁स्थूल	-6665
▁अनुमान	-6666
▁त्वमपि	-6667
▁पठन्ति	-6668
▁प्राथम	-6669
▁हिरण्य	-6670
प्नुयात्	-6671
▁ग्रन्थः	-6672
▁विश्वास	-6673
▁प्रदक्षि	-6674
▁कार्यान्वयन	-6675
od	-6676
▁47	-6677
▁८४	-6678
कारो	-6679
▁ख्य	-6680
▁जरा	-6681
▁ताद	-6682
▁वणि	-6683
▁१९३	-6684
▁ग्रे	-6685
▁अतिथि	-6686
▁कृताः	-6687
▁दूरभाष	-6688
▁पद्धति	-6689
▁अत्यधिक	-6690
▁आगच्छति	-6691
▁कार्य्य	-6692
▁दृष्टिः	-6693
▁माध्यमेन	-6694
▁सूर्यस्य	-6695
▁स्तोत्रं	-6696
▁राष्ट्रस्य	-6697
▁स्वतन्त्रता	-6698
▁ऽह	-6699
▁उगु	-6700
▁किय	-6701
▁भाई	-6702
▁भीत	-6703
▁जाते	-6704
▁चक्षुः	-6705
▁मण्डलं	-6706
▁दुर्लभं	-6707
▁भ्रष्टा	-6708
▁कॉ	-6709
▁बर	-6710
कानि	-6711
ङ्गल	-6712
▁र्ष	-6713
▁पप्र	-6714
▁र्थे	-6715
▁शाला	-6716
▁शिरो	-6717
▁ीकरण	-6718
▁खाद्य	-6719
▁जुयाः	-6720
▁ास्ति	-6721
▁वित्तं	-6722
▁सनातनः	-6723
▁क्रियाः	-6724
9.	-6725
चु	-6726
सद	-6727
ore	-6728
भृत	-6729
देशं	-6730
पुरा	-6731
ीकृत	-6732
▁निं	-6733
▁गुणो	-6734
▁थःगु	-6735
▁ाध्य	-6736
▁कदाचि	-6737
▁दिवसः	-6738
▁भर्ती	-6739
▁मतदान	-6740
▁वर्गे	-6741
▁हानिः	-6742
▁धर्म्म	-6743
▁पेक्षा	-6744
▁बृहस्प	-6745
▁ान्तरं	-6746
▁चत्वारः	-6747
▁ज्ञातुं	-6748
▁वस्तूनि	-6749
▁किमर्थम्	-6750
▁प्रत्यक्षं	-6751
pe	-6752
गृ	-6753
कां	-6754
नाथ	-6755
र्स	-6756
सिं	-6757
▁गः	-6758
▁गल	-6759
▁अभी	-6760
▁भुज	-6761
▁सित	-6762
▁मर्द	-6763
▁काराग	-6764
▁चर्चा	-6765
▁दीप्त	-6766
▁युध्य	-6767
▁ारम्भ	-6768
▁ऊर्ध्व	-6769
▁क्षिति	-6770
▁रहस्यं	-6771
▁विभागे	-6772
▁इतिहासः	-6773
▁इन्द्रः	-6774
▁प्रशासन	-6775
▁विज्ञायते	-6776
ठा	-6777
थम्	-6778
ेशन	-6779
▁णी	-6780
खिलं	-6781
▁जनो	-6782
▁ण्ड	-6783
▁यशो	-6784
▁सोप	-6785
▁Tags	-6786
▁अपरं	-6787
▁आवाह	-6788
▁जल्प	-6789
▁महास	-6790
▁दीक्ष	-6791
▁धान्य	-6792
रेन्द्र	-6793
▁आरक्षण	-6794
▁कृत्रि	-6795
▁प्राणः	-6796
▁इत्यादौ	-6797
▁द्वन्द्व	-6798
▁मित्राणि	-6799
▁स्थानानि	-6800
यर	-6801
▁ज्	-6802
कम्प	-6803
कूगु	-6804
भक्त	-6805
माणं	-6806
ल्पि	-6807
▁कपाल	-6808
▁दिशो	-6809
▁निधि	-6810
▁ाधिप	-6811
▁ितुं	-6812
रात्रे	-6813
्यर्थं	-6814
▁करोतुः	-6815
▁कार्यो	-6816
▁चत्वार	-6817
▁मार्गं	-6818
▁व्यञ्ज	-6819
▁हेतुना	-6820
▁राजधानी	-6821
▁सर्वदेव	-6822
▁ापेक्षया	-6823
कान	-6824
नगर	-6825
▁फ्र	-6826
▁बलव	-6827
पक्षे	-6828
▁दग्ध	-6829
▁शाखा	-6830
स्तस्य	-6831
▁रिश्त	-6832
▁वैदिक	-6833
▁शक्यः	-6834
च्छिन्न	-6835
▁अन्वेष	-6836
▁तमवर्ष	-6837
▁तृतीयं	-6838
▁विमर्श	-6839
▁परिसन्धिं	-6840
०२	-6841
०५	-6842
ँय्	-6843
▁]]	-6844
▁कॊ	-6845
▁६९	-6846
मादि	-6847
म्बु	-6848
ल्यू	-6849
सात्	-6850
स्थं	-6851
▁आसन	-6852
▁गाः	-6853
▁रेफ	-6854
▁जर्म	-6855
▁पीडा	-6856
क्षणिक	-6857
▁छात्रः	-6858
▁जानासि	-6859
▁पुनश्च	-6860
▁रिपोर्	-6861
▁संशोधन	-6862
▁देवानाम	-6863
▁प्रवृत्तिः	-6864
▁व्यवस्थापन	-6865
▁सर्वश्रेष्ठ	-6866
छे	-6867
▁ꣳ	-6868
▁रः	-6869
▁अवा	-6870
▁पां	-6871
▁मेल	-6872
▁यैः	-6873
सूचना	-6874
▁ज्वर	-6875
▁माने	-6876
▁श्वा	-6877
▁ाद्या	-6878
▁निर्वि	-6879
▁श्रेणी	-6880
▁सावधान	-6881
▁नक्षत्र	-6882
▁व्रजेत्	-6883
ह्म	-6884
▁अस्	-6885
▁कलौ	-6886
▁बला	-6887
वस्तु	-6888
▁तस्थ	-6889
▁पराव	-6890
▁शङ्ख	-6891
▁संयम	-6892
▁सानु	-6893
ङ्क्ते	-6894
▁करणम्	-6895
▁धर्मि	-6896
▁ाख्यं	-6897
न्मुक्त	-6898
▁परिहार	-6899
▁विग्रह	-6900
▁कुर्वीत	-6901
▁विचार्य	-6902
▁परिपूर्ण	-6903
▁भविष्यसि	-6904
ap	-6905
▁↑	-6906
and	-6907
ड़ा	-6908
ड्य	-6909
▁दम	-6910
▁तये	-6911
▁तरु	-6912
▁वये	-6913
▁शनि	-6914
चितम्	-6915
वासरे	-6916
▁जनपद	-6917
▁नाटक	-6918
▁पाखे	-6919
▁विभू	-6920
▁षष्ट	-6921
▁सान्	-6922
▁ह्यः	-6923
▁काचित्	-6924
▁पुरस्त	-6925
▁विंशति	-6926
▁शुद्धं	-6927
वक्ष्यामि	-6928
▁संवत्सरे	-6929
▁प्रयुक्तम्	-6930
कल्प	-6931
रिया	-6932
▁भीम	-6933
▁मन्	-6934
▁समृ	-6935
▁गवां	-6936
▁यथैव	-6937
▁ाक्ष	-6938
▁ज्याझ	-6939
▁तृप्त	-6940
▁दण्डः	-6941
▁भवन्त	-6942
▁भूमिं	-6943
▁मर्त्य	-6944
▁महोदयः	-6945
▁प्रकर्ष	-6946
▁स्मृताः	-6947
▁साहाय्यं	-6948
▁स्थित्वा	-6949
टिक	-6950
दास	-6951
लां	-6952
▁(.	-6953
▁):	-6954
▁ne	-6955
▁रत	-6956
▁शश	-6957
ानेन	-6958
▁खने	-6959
▁धरण	-6960
▁कन्द	-6961
▁विभो	-6962
▁विरु	-6963
▁अगस्त	-6964
▁अहमेव	-6965
▁क्षति	-6966
▁गोष्ठ	-6967
▁द्विव	-6968
▁बिम्ब	-6969
▁मायया	-6970
▁विजान	-6971
▁ाश्रय	-6972
▁ख्याति	-6973
▁फलकम्ः	-6974
▁स्मिन्	-6975
▁स्मृता	-6976
▁व्याप्य	-6977
▁स्वर्गे	-6978
▁प्रत्यहं	-6979
▁वाक्यानि	-6980
▁सामर्थ्य	-6981
गि	-6982
लाष	-6983
देशो	-6984
श्चा	-6985
्रिक	-6986
▁आगम	-6987
▁इवा	-6988
▁एति	-6989
▁जग्	-6990
▁ज्य	-6991
स्थाय	-6992
▁काला	-6993
▁भूरि	-6994
▁वानर	-6995
▁स्तर	-6996
▁अवलोक	-6997
▁गोत्र	-6998
▁तदन्त	-6999
▁अपेक्ष	-7000
▁पूर्वः	-7001
▁समावेश	-7002
▁्यन्ते	-7003
नव	-7004
ंस्	-7005
मतः	-7006
ेता	-7007
▁अः	-7008
▁ञ्	-7009
द्वा	-7010
▁ज्ज	-7011
▁नेष	-7012
▁वयो	-7013
▁संत	-7014
ादेशः	-7015
▁अहिं	-7016
▁पार्	-7017
▁लुक्	-7018
▁जीर्ण	-7019
▁जुलाई	-7020
▁तयोर्	-7021
यिष्यति	-7022
▁अभ्यास	-7023
▁नेत्रे	-7024
▁कर्मचार	-7025
▁तस्यापि	-7026
▁सर्वकाम	-7027
▁कुत्रापि	-7028
▁प्रतिभाति	-7029
▁प्रतिबिम्ब	-7030
tr	-7031
▁q	-7032
ालि	-7033
▁41	-7034
▁9.	-7035
▁०५	-7036
शासन	-7037
▁घोर	-7038
त्मान	-7039
▁ददृश	-7040
▁वासु	-7041
▁अध्यय	-7042
▁चान्य	-7043
▁देवाल	-7044
▁पुनस्	-7045
▁विधिं	-7046
▁व्यास	-7047
▁शुक्ल	-7048
▁स्वेन	-7049
▁सर्वां	-7050
▁ाभावात्	-7051
▁कुर्याद्	-7052
▁परिकीर्त	-7053
▁स्नात्वा	-7054
▁संस्थायाः	-7055
१८	-7056
ासौ	-7057
▁ag	-7058
▁चक	-7059
▁तृण	-7060
पृथिव	-7061
▁तैर्	-7062
▁पञ्ज	-7063
▁बालः	-7064
▁वहति	-7065
▁चेतना	-7066
▁मार्ज	-7067
▁यज्ञः	-7068
▁वर्णा	-7069
▁ज्ञानि	-7070
▁महाराज	-7071
▁ाधिकार	-7072
▁न्यायेन	-7073
▁प्राप्तो	-7074
ht	-7075
दैव	-7076
पकः	-7077
▁एं	-7078
▁कुप	-7079
▁ह्व	-7080
▁नानु	-7081
▁मञ्ज	-7082
▁योगा	-7083
▁स्फु	-7084
भाषायां	-7085
▁क्वापि	-7086
▁तेभ्यः	-7087
▁दृष्टे	-7088
▁बालिका	-7089
▁वृद्धा	-7090
▁सिद्धे	-7091
▁पृच्छति	-7092
▁वक्तव्य	-7093
▁सहस्त्र	-7094
▁देवतानां	-7095
▁प्रमाणम्	-7096
▁व्यवहारः	-7097
०३	-7098
टर्	-7099
▁गह	-7100
▁म॒	-7101
▁िः	-7102
ानम्	-7103
▁द्रा	-7104
च्यन्ते	-7105
▁अन्तर्ज	-7106
▁विष्णुः	-7107
▁सर्वप्र	-7108
▁55	-7109
ब्धि	-7110
र्थक	-7111
▁ोपा	-7112
ोक्तं	-7113
▁रुपं	-7114
ञ्चित्	-7115
▁उन्नत	-7116
▁एतेषु	-7117
▁चतुष्	-7118
▁भगिनी	-7119
▁उद्योग	-7120
▁दृश्यं	-7121
▁पश्चाद	-7122
▁सत्यम्	-7123
▁कौन्तेय	-7124
▁जीवनस्य	-7125
▁निर्धार	-7126
▁प्रकाशः	-7127
▁दक्षिणां	-7128
षी	-7129
टेन	-7130
▁Sh	-7131
▁अब	-7132
▁घु	-7133
▁लय	-7134
▁७९	-7135
स्ट्	-7136
▁यमः	-7137
▁रोप	-7138
▁हृत	-7139
पन्नं	-7140
णार्थं	-7141
त्सर्व	-7142
▁बन्धु	-7143
▁कृतानि	-7144
▁दीक्षा	-7145
▁स्वस्व	-7146
▁ितवान्	-7147
▁अत्रापि	-7148
▁अन्वेषण	-7149
▁स्थानीय	-7150
वै	-7151
णीय	-7152
▁९१	-7153
ment	-7154
णामः	-7155
▁आपो	-7156
▁जाः	-7157
▁बिल	-7158
▁वशी	-7159
▁सीद	-7160
vious	-7161
दानीं	-7162
▁कन्य	-7163
▁देशो	-7164
▁सक्त	-7165
▁ह्य्	-7166
▁ाण्य	-7167
पूर्वं	-7168
प्रदेश	-7169
▁कुत्स	-7170
▁कोष्ठ	-7171
▁तायाः	-7172
▁भासते	-7173
▁मानेन	-7174
▁रूप्य	-7175
▁वसन्त	-7176
▁अज्ञान	-7177
▁दर्शना	-7178
▁द्विगु	-7179
▁नित्यः	-7180
▁यत्नेन	-7181
▁वर्षाः	-7182
▁व्यापक	-7183
▁श्रृणु	-7184
▁ात्मना	-7185
प्रत्ययः	-7186
▁अन्तारा	-7187
▁आश्चर्य	-7188
▁चक्षुषा	-7189
▁त्वमिति	-7190
▁सूत्रम्	-7191
▁प्रोक्तः	-7192
▁प्रयोगशाला	-7193
▁ब्रह्माण्ड	-7194
▁य॒	-7195
ेद्य	-7196
▁घ्न	-7197
▁चेह	-7198
▁धीः	-7199
▁वयः	-7200
ज्ञया	-7201
▁रुग्	-7202
▁वयसि	-7203
▁वाणी	-7204
रिक्षे	-7205
▁जुइगु	-7206
▁दुर्घ	-7207
▁शुल्क	-7208
▁सौन्द	-7209
▁स्यां	-7210
ष्यन्ति	-7211
▁हित्वा	-7212
▁चतुर्वि	-7213
▁समन्ततः	-7214
▁समाप्ति	-7215
नय	-7216
चेत	-7217
णेन	-7218
▁लल	-7219
ङ्कः	-7220
▁इका	-7221
▁तरा	-7222
काणां	-7223
योज्य	-7224
विन्द	-7225
▁ख्री	-7226
▁पुं॰	-7227
▁मुस्	-7228
▁ाकाश	-7229
्याःगु	-7230
▁आग्ने	-7231
▁कीदृशं	-7232
▁कीदृशः	-7233
▁दिक्षु	-7234
▁देशेषु	-7235
▁पूर्वकं	-7236
▁भाषायां	-7237
▁संस्थाप्य	-7238
अप	-7239
रत	-7240
१७	-7241
pal	-7242
▁(6	-7243
▁49	-7244
▁खर	-7245
▁िं	-7246
▁९७	-7247
▁अणु	-7248
▁कलि	-7249
▁घण्	-7250
▁जये	-7251
▁तकं	-7252
▁भये	-7253
▁शयन	-7254
▁ेदं	-7255
▁----	-7256
▁आसान	-7257
▁ऋग्व	-7258
▁कामो	-7259
▁समरे	-7260
▁क्षेप	-7261
▁दत्वा	-7262
▁निपात	-7263
▁प्रणय	-7264
▁मातरं	-7265
▁शङ्का	-7266
▁श्याम	-7267
▁स्वधा	-7268
▁कर्तरि	-7269
▁त्रिषु	-7270
▁निश्चय	-7271
▁मन्यसे	-7272
▁मुख्या	-7273
▁श्रुतम्	-7274
दू	-7275
थ्य	-7276
विद	-7277
▁42	-7278
▁46	-7279
▁as	-7280
▁do	-7281
▁इन	-7282
▁णः	-7283
स्वि	-7284
हस्त	-7285
▁अपा	-7286
▁मता	-7287
▁पुरे	-7288
▁वक्र	-7289
▁वैभव	-7290
▁अपराध	-7291
▁भौतिक	-7292
ऽध्यायः	-7293
▁कृष्णः	-7294
▁शुद्धि	-7295
▁वक्ष्ये	-7296
▁वेदान्त	-7297
▁द्यावापृथिव	-7298
ःः	-7299
जय	-7300
तृ	-7301
सय	-7302
ीनं	-7303
▁रै	-7304
▁अन्	-7305
▁अले	-7306
▁जिन	-7307
▁धरा	-7308
▁ामि	-7309
तीनां	-7310
भक्ति	-7311
▁आवां	-7312
▁मर्थ	-7313
▁शुल्	-7314
▁अव्यय	-7315
▁जाताः	-7316
▁पेक्ष	-7317
▁पौरुष	-7318
▁भगवत्	-7319
▁स्तत्	-7320
▁ज्ञेया	-7321
▁सुग्री	-7322
▁प्रयोगो	-7323
▁वृद्धिं	-7324
अव	-7325
णौ	-7326
दिल	-7327
▁८९	-7328
त्ये	-7329
▁घटः	-7330
▁भवत	-7331
▁मलि	-7332
▁हरी	-7333
▁२०६	-7334
त्सवः	-7335
▁2015	-7336
▁लङ्घ	-7337
▁बिन्द	-7338
▁पुष्पं	-7339
▁केनचित्	-7340
▁द्विविध	-7341
▁एतस्मिन्	-7342
▁प्राप्नुवन्ति	-7343
एक	-7344
▁़	-7345
भयं	-7346
▁जड	-7347
म्मा	-7348
▁गणः	-7349
▁वृह	-7350
▁शार	-7351
▁हता	-7352
दाहरण	-7353
ान्तु	-7354
▁क्लि	-7355
▁परित	-7356
▁महाक	-7357
▁सफलं	-7358
ध्याये	-7359
▁कतिपय	-7360
▁लेखकः	-7361
▁विदूष	-7362
▁वैष्ण	-7363
▁अज्ञात	-7364
▁द्विजो	-7365
▁स्पर्धा	-7366
▁सामान्यं	-7367
▁व्यतिरिक्त	-7368
कथ	-7369
फु	-7370
॒ः	-7371
१५	-7372
पद्	-7373
लिम	-7374
लेन	-7375
▁८८	-7376
ङ्का	-7377
श्मि	-7378
श्रय	-7379
▁क्ति	-7380
▁तन्त	-7381
▁सोमः	-7382
▁खण्डः	-7383
▁यथासं	-7384
▁लज्जा	-7385
स्कृतिक	-7386
▁भवितुं	-7387
▁भाष्ये	-7388
▁महाबलः	-7389
▁विक्रम	-7390
▁विनिर्	-7391
▁विशेषो	-7392
▁कस्मिन्	-7393
▁भारतवर्ष	-7394
▁प्रतीक्षा	-7395
▁प्राकृतिक	-7396
थु	-7397
थो	-7398
ेदे	-7399
ौति	-7400
▁बत	-7401
▁नीय	-7402
▁ब्व	-7403
पयेत्	-7404
▁अध्व	-7405
▁पितरं	-7406
▁हास्य	-7407
▁त्यादि	-7408
▁नश्यति	-7409
▁अष्टादश	-7410
▁क्षणात्	-7411
▁पूजयेत्	-7412
▁वृक्षाः	-7413
▁सञ्ज्ञा	-7414
▁समाप्तः	-7415
▁पुस्तकाल	-7416
▁बुद्ध्या	-7417
▁व्याप्ति	-7418
बं	-7419
अपि	-7420
पदः	-7421
ावा	-7422
▁गर	-7423
▁७२	-7424
ग्ना	-7425
र्मु	-7426
▁The	-7427
▁एके	-7428
▁पर्	-7429
▁भृत	-7430
▁अस्त्र	-7431
▁ग्रीष्	-7432
▁संक्षेप	-7433
▁अन्येषां	-7434
▁कार्यस्य	-7435
▁निर्मितः	-7436
▁वर्त्तते	-7437
line	-7438
ंद्र	-7439
▁एकल	-7440
▁जगद	-7441
▁भान	-7442
▁लिं	-7443
▁ऽभव	-7444
कालिक	-7445
▁इतरे	-7446
▁चारु	-7447
▁बालक	-7448
▁मल्ल	-7449
▁विपा	-7450
उच्चार	-7451
▁तत्सम	-7452
▁द्वयो	-7453
▁महावि	-7454
▁तुल्यं	-7455
▁ध्रुवम्	-7456
▁पप्रच्छ	-7457
▁प्रमाणेन	-7458
▁कार्यकारण	-7459
▁फा	-7460
▁वेध	-7461
त्तरं	-7462
त्यते	-7463
▁च्यु	-7464
स्यामि	-7465
▁कर्णा	-7466
▁चक्षु	-7467
▁मान्य	-7468
▁मुम्ब	-7469
▁तीक्ष्	-7470
▁पश्यन्	-7471
उच्चारणः	-7472
पद्यन्ते	-7473
▁व्यतिरेक	-7474
थी	-7475
१४	-7476
...	-7477
▁पन	-7478
ERSE	-7479
गृहे	-7480
▁00:	-7481
▁कुर	-7482
▁चात	-7483
▁लता	-7484
▁लोह	-7485
▁गीता	-7486
▁नायं	-7487
▁परमो	-7488
▁भवेत	-7489
▁मारु	-7490
यात्रा	-7491
स्थिति	-7492
िकीर्ष	-7493
▁VERSE	-7494
▁मधुरं	-7495
▁यन्तु	-7496
▁यस्मि	-7497
▁विहीन	-7498
▁स्याम	-7499
▁स्वाय	-7500
▁पुनराव	-7501
▁विशेषे	-7502
▁श्रेयः	-7503
▁सिद्धः	-7504
▁विशेष्य	-7505
df	-7506
▁Se	-7507
शाली	-7508
▁भाः	-7509
ान्या	-7510
ाप्ते	-7511
▁अर्ह	-7512
▁परिम	-7513
▁पादः	-7514
▁श्या	-7515
स्थानं	-7516
▁अन्नं	-7517
▁गतिम्	-7518
▁सदृशं	-7519
▁सैनिक	-7520
▁स्थलं	-7521
▁ानन्द	-7522
षिध्यते	-7523
▁निषिद्ध	-7524
▁प्रख्या	-7525
▁मनुष्यः	-7526
▁कृतवन्तः	-7527
▁प्रकृतिं	-7528
▁साक्षाद्	-7529
▁पुस्तकानि	-7530
मव	-7531
सित	-7532
▁७८	-7533
त्य्	-7534
लेखः	-7535
▁न्यो	-7536
▁आदेशः	-7537
▁निर्ज	-7538
▁मध्यं	-7539
▁शक्तः	-7540
▁पुष्पा	-7541
▁पूर्णा	-7542
▁वर्णनं	-7543
▁विषयाः	-7544
▁विसर्ग	-7545
▁क्षुद्र	-7546
▁प्रभाते	-7547
▁मित्याह	-7548
▁लक्ष्यं	-7549
▁सादृश्य	-7550
▁ज्योतिर्	-7551
▁शब्दार्थ	-7552
▁ीत्यर्थः	-7553
▁सांस्कृतिक	-7554
ver	-7555
वेः	-7556
▁(5	-7557
▁एच	-7558
यिता	-7559
▁सखा	-7560
त्यां	-7561
पूज्य	-7562
▁आवेद	-7563
▁द्यौ	-7564
▁नायक	-7565
▁वह्न	-7566
भ्याम्	-7567
▁अत्या	-7568
▁दातुं	-7569
▁शुश्र	-7570
▁आरम्भः	-7571
▁तेभ्यो	-7572
▁परिपाल	-7573
▁भिक्षु	-7574
▁सातवां	-7575
▁हस्तेन	-7576
▁तत्क्षण	-7577
▁नास्त्य	-7578
▁वाक्यम्	-7579
▁शैक्षिक	-7580
▁सहस्रशः	-7581
▁तिष्ठन्ति	-7582
4.	-7583
if	-7584
ory	-7585
▁नभ	-7586
स्वं	-7587
▁मधि	-7588
▁रेण	-7589
▁समो	-7590
▁हतं	-7591
▁ायु	-7592
ानन्द	-7593
▁आशिष	-7594
▁दिवः	-7595
▁भव्य	-7596
▁यष्ट	-7597
▁वादः	-7598
पूर्ति	-7599
र्द्धं	-7600
▁प्रयत	-7601
▁समिति	-7602
▁होवाच	-7603
▁लक्षणे	-7604
▁ेष्वपि	-7605
▁कर्मण्य	-7606
▁भवत्येव	-7607
▁वक्ष्यति	-7608
▁वर्तमानः	-7609
▁विद्युत्	-7610
▁संयुक्तं	-7611
▁पृथिव्याः	-7612
est	-7613
सृज	-7614
ासे	-7615
▁गू	-7616
▁घं	-7617
▁तूं	-7618
▁रात	-7619
▁र्न	-7620
मात्म	-7621
वानां	-7622
▁केरल	-7623
▁जीवि	-7624
▁दूरी	-7625
▁वतां	-7626
▁अथातः	-7627
▁तथाहि	-7628
▁यामास	-7629
▁शृण्व	-7630
▁कल्पित	-7631
▁चित्ते	-7632
▁नारायण	-7633
▁पुरातन	-7634
▁ऊर्ध्वं	-7635
▁प्रशस्त	-7636
▁मुक्तिः	-7637
▁वासुदेव	-7638
▁ाभ्याम्	-7639
▁जीवन्मुक्त	-7640
उप	-7641
महे	-7642
ुवः	-7643
▁जह	-7644
▁७३	-7645
कर्ण	-7646
▁11.	-7647
▁अमा	-7648
▁कथन	-7649
▁तुर	-7650
▁रोष	-7651
▁जीवः	-7652
▁न्तः	-7653
▁भवान	-7654
▁भावि	-7655
▁ल्या	-7656
▁वाजि	-7657
▁विगत	-7658
▁समार	-7659
▁स्ता	-7660
▁हीनं	-7661
▁अधिका	-7662
▁चक्रं	-7663
▁दोषाः	-7664
▁परोक्ष	-7665
▁प्रदीप	-7666
▁प्रोवाच	-7667
▁मन्त्रं	-7668
▁व्यक्तं	-7669
▁व्याख्य	-7670
▁निरीक्षण	-7671
▁प्रतिदिन	-7672
▁संस्कृतं	-7673
age	-7674
▁us	-7675
▁चू	-7676
▁थे	-7677
▁अरि	-7678
▁कात	-7679
नीयम्	-7680
▁करने	-7681
▁कवचं	-7682
▁कारं	-7683
▁यानं	-7684
▁वामे	-7685
▁िताः	-7686
रात्रं	-7687
▁अपितु	-7688
▁अभूत्	-7689
▁पक्षी	-7690
▁प्रभव	-7691
▁यादृश	-7692
▁रक्तं	-7693
▁वर्गी	-7694
स्मान्न	-7695
▁स्वागतं	-7696
▁नरेन्द्र	-7697
▁प्रत्यभि	-7698
तीव	-7699
धीः	-7700
▁ंश	-7701
▁रव	-7702
▁८७	-7703
्वाद	-7704
▁तरी	-7705
▁पा०	-7706
▁ल्य	-7707
▁वि॒	-7708
▁ऽसि	-7709
ारिणः	-7710
▁अनिव	-7711
▁अवयव	-7712
▁भेदं	-7713
▁येषु	-7714
▁धीमतः	-7715
▁यतीति	-7716
▁यत्ते	-7717
▁सम्यग	-7718
▁लोकस्य	-7719
▁वाच्यं	-7720
▁दर्शनम्	-7721
▁Previous	-7722
▁स्त्रियो	-7723
षं	-7724
टना	-7725
णाः	-7726
ैवं	-7727
▁SP	-7728
▁sa	-7729
▁७७	-7730
ग्धा	-7731
डियो	-7732
परिव	-7733
▁अम्	-7734
▁अल्	-7735
▁गुर	-7736
▁फला	-7737
▁शूल	-7738
करोति	-7739
तिहास	-7740
विभाग	-7741
▁नरके	-7742
▁ाग्न	-7743
म्यहम्	-7744
▁कानां	-7745
▁धैर्य	-7746
▁याज्ञ	-7747
▁युवां	-7748
▁श्वास	-7749
▁जिह्वा	-7750
▁बिन्दु	-7751
▁विक्रय	-7752
▁वृद्धः	-7753
▁स्थापय	-7754
▁अधिकारः	-7755
▁अध्ययनं	-7756
▁विलक्षण	-7757
▁निर्विकल्प	-7758
▁᳚	-7759
ंति	-7760
ताल	-7761
शयः	-7762
ासी	-7763
▁1)	-7764
▁2)	-7765
▁यन	-7766
▁९९	-7767
गृहं	-7768
चक्ष	-7769
ण्ड्	-7770
द्धं	-7771
▁and	-7772
▁कया	-7773
▁दाप	-7774
▁र्ध	-7775
स्थित	-7776
▁त्व्	-7777
▁दाने	-7778
▁द्यः	-7779
▁पारं	-7780
कार्यं	-7781
▁आसपास	-7782
▁भाषाः	-7783
▁गुणान्	-7784
▁तदानीं	-7785
▁शताब्द	-7786
▁संध्या	-7787
▁मण्डलस्य	-7788
▁भविष्यामि	-7789
०४	-7790
धीन	-7791
परं	-7792
▁इ॒	-7793
▁ऊँ	-7794
▁९८	-7795
ोऽपि	-7796
▁वैक	-7797
▁श्म	-7798
▁दैवत	-7799
▁भूषण	-7800
▁यन्म	-7801
▁विषम	-7802
▁हविः	-7803
▁केषां	-7804
▁न्द्र	-7805
▁विध्य	-7806
▁ान्ते	-7807
▁जीवनम्	-7808
▁पूर्वो	-7809
▁इत्येते	-7810
▁चिकीर्ष	-7811
▁दृष्टम्	-7812
▁राज्यम्	-7813
▁महात्मनः	-7814
गतः	-7815
▁औं	-7816
▁जघ	-7817
▁बन	-7818
▁ेह	-7819
जायत	-7820
पेत्	-7821
र्थी	-7822
▁जनि	-7823
▁अमृत	-7824
▁गमने	-7825
▁तेना	-7826
▁धारय	-7827
▁ध्वन	-7828
▁फोटो	-7829
▁यूपी	-7830
▁इंद्र	-7831
▁एकत्र	-7832
▁संदेह	-7833
▁त्वादि	-7834
▁मुक्ता	-7835
▁पूर्व्व	-7836
▁सम्मेलन	-7837
▁विरुद्धं	-7838
यॊ	-7839
॒र	-7840
धनः	-7841
मोह	-7842
शान	-7843
ूपं	-7844
▁ुद	-7845
▁०९	-7846
▁६३	-7847
यामः	-7848
▁तमं	-7849
▁सौम	-7850
सूत्र	-7851
िंशति	-7852
▁उचित	-7853
▁क्षर	-7854
▁गुणे	-7855
▁भूमे	-7856
▁्याः	-7857
▁उभयोः	-7858
▁कृतिः	-7859
▁निदेश	-7860
▁यदिदं	-7861
▁वाद्य	-7862
▁स्वरः	-7863
▁त्रिधा	-7864
▁ध्रुवं	-7865
▁न्यासः	-7866
▁यस्यां	-7867
▁सम्मुख	-7868
▁सुन्दर	-7869
▁ताभ्यां	-7870
▁शब्दात्	-7871
▁सत्त्वं	-7872
▁प्रकृत्य	-7873
तमा	-7874
न्स	-7875
ब्ज	-7876
वते	-7877
▁2014	-7878
▁इलय्	-7879
▁कथाः	-7880
▁कुसु	-7881
▁क्वि	-7882
▁पन्न	-7883
▁पावन	-7884
▁वचने	-7885
▁ाणाम	-7886
▁आख्या	-7887
▁गन्तु	-7888
▁योद्ध	-7889
▁लौकिक	-7890
▁वर्ति	-7891
क्षिप्य	-7892
▁तादृशं	-7893
▁द्विजः	-7894
▁परार्थ	-7895
▁वर्षति	-7896
▁त्रिविध	-7897
▁त्वाच्च	-7898
▁परीणामः	-7899
सेव	-7900
▁हः	-7901
ight	-7902
चनम्	-7903
िष्ठ	-7904
▁जिं	-7905
▁सखे	-7906
▁ेत्	-7907
ञ्जलि	-7908
▁अनया	-7909
▁क्रु	-7910
▁टीका	-7911
▁पठित	-7912
▁पतति	-7913
▁यययय	-7914
▁लोको	-7915
▁उत्सव	-7916
▁क्रमा	-7917
▁नगरम्	-7918
▁नायकः	-7919
▁पश्चा	-7920
▁यन्ते	-7921
▁वेगेन	-7922
▁स्पृह	-7923
▁अन्ततः	-7924
▁ात्मकः	-7925
▁बहुव्रीह	-7926
▁श्रेष्ठं	-7927
▁योगदानानि	-7928
चक	-7929
▁To	-7930
▁ch	-7931
वित्	-7932
▁खड्	-7933
▁मरि	-7934
▁रथः	-7935
▁ागम	-7936
ङ्मुख	-7937
दर्शन	-7938
▁अस्प	-7939
▁परेण	-7940
▁वर्च	-7941
सत्त्व	-7942
▁अर्थं	-7943
▁तन्मे	-7944
▁तेऽपि	-7945
▁द्वाव	-7946
▁वासना	-7947
▁विन्य	-7948
▁उद्घाट	-7949
▁दुग्धं	-7950
▁दृष्टो	-7951
▁द्वयम्	-7952
▁लोकेषु	-7953
▁वायुर्	-7954
पर्यन्तं	-7955
▁प्रायेण	-7956
▁योजनानां	-7957
▁प्रातिपदिक	-7958
▁व्यवस्थितः	-7959
ङः	-7960
▁॰	-7961
ect	-7962
िनो	-7963
▁पह	-7964
▁सब	-7965
ears	-7966
यितु	-7967
लोकं	-7968
ुष्य	-7969
▁अरु	-7970
▁जपे	-7971
▁मुह	-7972
▁र्ज	-7973
▁षण्	-7974
▁सौर	-7975
▁तुला	-7976
▁दैवं	-7977
▁निकट	-7978
▁मस्य	-7979
▁महीं	-7980
▁र्थं	-7981
▁ैरपि	-7982
▁Nepal	-7983
▁च्छेद	-7984
▁तान्य	-7985
▁द्योत	-7986
▁समुदा	-7987
▁सविता	-7988
▁अकथयत्	-7989
▁जुहोति	-7990
▁भावात्	-7991
▁महाबाह	-7992
▁रक्षणं	-7993
▁ान्तरे	-7994
▁परिणामः	-7995
▁प्रशंसा	-7996
▁प्रेक्ष	-7997
▁संपूर्ण	-7998
▁प्रकाशते	-7999
▁प्रसङ्गः	-8000
ासः	-8001
▁उष	-8002
▁पन्	-8003
▁यीश	-8004
ज्ञाय	-8005
▁कौतु	-8006
▁जारी	-8007
▁तेरे	-8008
▁दिशा	-8009
▁निपु	-8010
▁पीतं	-8011
▁युतं	-8012
िकायां	-8013
▁क्षये	-8014
▁व्योम	-8015
▁समाजे	-8016
मात्रेण	-8017
▁पुनरेव	-8018
▁उक्त्वा	-8019
▁चतुर्थे	-8020
▁परित्या	-8021
▁पुत्त्र	-8022
▁पुत्रेण	-8023
▁विनिर्म	-8024
▁सन्देहः	-8025
▁ज्याझ्वः	-8026
▁निश्चितम्	-8027
ant	-8028
ङ्घ	-8029
ध्द	-8030
ध्र	-8031
सुर	-8032
ायो	-8033
▁ऐं	-8034
ज्ञो	-8035
दिनं	-8036
योगे	-8037
▁ऽहम	-8038
ित्यत	-8039
▁इहैव	-8040
▁महाप	-8041
▁रसोई	-8042
▁लीला	-8043
▁व्यथ	-8044
प्रायः	-8045
▁कस्मै	-8046
▁प्रीत	-8047
▁मीमां	-8048
▁किञ्चन	-8049
▁गृह्णी	-8050
▁नासीत्	-8051
▁प्रगति	-8052
▁संयोगः	-8053
▁टिप्पणी	-8054
▁द्विजाः	-8055
▁विलोक्य	-8056
▁प्रविशति	-8057
▁संस्कृतिः	-8058
▁भ्रष्टाचार	-8059
01	-8060
ail	-8061
गोल	-8062
मम्	-8063
ापा	-8064
कालः	-8065
योगं	-8066
ष्णु	-8067
▁अयि	-8068
▁अवस	-8069
▁कुं	-8070
▁जयः	-8071
▁नेक	-8072
▁सकृ	-8073
न्नपि	-8074
पत्तौ	-8075
▁अनुम	-8076
▁कारो	-8077
▁जयति	-8078
▁तथ्य	-8079
▁राघव	-8080
▁सारं	-8081
▁ार्ह	-8082
▁पठेत्	-8083
▁यत्कि	-8084
▁लभेत्	-8085
▁विषयो	-8086
▁अप्रैल	-8087
▁अहिंसा	-8088
▁इत्यतः	-8089
▁दुःखेन	-8090
▁प्रायशः	-8091
▁संवत्सर	-8092
▁स्थापित	-8093
▁शैक्षणिक	-8094
▁सम्पत्ति	-8095
▁प्रवर्त्त	-8096
▁महाविद्या	-8097
▁वर्षेभ्यः	-8098
▁प्रत्ययस्य	-8099
pp	-8100
ढा	-8101
ove	-8102
तेि	-8103
रणः	-8104
शत्	-8105
▁80	-8106
▁आत	-8107
स्कर	-8108
▁करॊ	-8109
▁जगत	-8110
▁दीय	-8111
▁नास	-8112
▁शां	-8113
द्वीप	-8114
भवेत्	-8115
सृत्य	-8116
▁आहुः	-8117
▁ज्ञः	-8118
▁पर्ण	-8119
▁पालन	-8120
▁लेखा	-8121
▁विलो	-8122
▁जनान्	-8123
▁मृताः	-8124
▁विस्फ	-8125
▁शासनं	-8126
▁एकान्त	-8127
▁विकासः	-8128
▁सन्तोष	-8129
▁अग्निर्	-8130
▁इत्येके	-8131
▁प्रतिगृह	-8132
▁प्राथमिक	-8133
▁श्रद्धया	-8134
DF	-8135
ri	-8136
▁z	-8137
शाल	-8138
▁ड्	-8139
▁तॆ	-8140
णस्य	-8141
भूतः	-8142
▁अरण	-8143
▁आवा	-8144
▁गूढ	-8145
▁रोह	-8146
▁शूर	-8147
▁संय	-8148
करोत्	-8149
पुस्त	-8150
▁गम्भ	-8151
▁मनस्	-8152
▁घण्टा	-8153
▁तूष्ण	-8154
▁नाराय	-8155
▁विलोक	-8156
▁अर्जुन	-8157
▁एकादशी	-8158
▁पुत्रे	-8159
▁प्रणाम	-8160
▁संक्रम	-8161
▁िष्यते	-8162
▁ेश्वरः	-8163
▁नास्तीति	-8164
▁मित्यादि	-8165
▁इन्द्रिया	-8166
नक	-8167
भ्	-8168
परे	-8169
ष्प	-8170
▁(3)	-8171
▁चलन	-8172
▁रेख	-8173
▁उत्थ	-8174
▁एताः	-8175
▁क्रय	-8176
▁पट्ट	-8177
▁यावद	-8178
▁सोमो	-8179
▁ऽन्त	-8180
इन्द्र	-8181
▁आरक्ष	-8182
▁कस्मा	-8183
▁भ्युप	-8184
▁ितुम्	-8185
▁क्षमता	-8186
▁निरस्त	-8187
▁मानवाः	-8188
▁विभाति	-8189
▁विमानं	-8190
▁शत्रुः	-8191
▁स्माकं	-8192
▁काङ्क्ष	-8193
▁ग्रन्थे	-8194
▁यथोक्तं	-8195
▁अधिसूचना	-8196
▁गृहपृष्ठ	-8197
▁प्रकाशित	-8198
▁वक्ष्यते	-8199
▁प्राप्ताः	-8200
▁साम्राज्य	-8201
मूल	-8202
▁De	-8203
▁लग	-8204
काणि	-8205
टिका	-8206
ब्रह	-8207
सप्त	-8208
स्रः	-8209
िकोण	-8210
▁तच्	-8211
▁गुणव	-8212
▁चिद्	-8213
▁तारा	-8214
▁तैलं	-8215
▁दूषण	-8216
▁धनेन	-8217
▁नयति	-8218
▁पाति	-8219
▁मय्य	-8220
▁मेवं	-8221
▁ाधार	-8222
मन्त्र	-8223
▁नियोज	-8224
▁भित्त	-8225
▁मादाय	-8226
▁मानसं	-8227
▁शतानि	-8228
▁मानस्य	-8229
▁रामस्य	-8230
▁शून्यं	-8231
▁सन्धिः	-8232
▁प्रचलति	-8233
▁कर्मचारी	-8234
▁शत्रूणां	-8235
▁सर्वात्म	-8236
ard	-8237
नाश	-8238
▁43	-8239
▁un	-8240
लिया	-8241
▁199	-8242
▁अद्व	-8243
▁दस्य	-8244
▁ब्रा	-8245
▁मेरो	-8246
▁चाप्य	-8247
▁ज्ञेय	-8248
▁काव्यं	-8249
▁छन्दसि	-8250
▁प्रावि	-8251
▁बाह्या	-8252
▁अप्रत्य	-8253
▁रक्षिता	-8254
▁दुर्लभम्	-8255
▁प्रशस्ति	-8256
▁पाकिस्तान	-8257
▁सम्भाषणम्	-8258
वह	-8259
नाद	-8260
लया	-8261
▁८५	-8262
दादि	-8263
माणा	-8264
वचने	-8265
▁लोभ	-8266
▁स्ख	-8267
▁१९२	-8268
िष्ये	-8269
▁अपने	-8270
▁दोषं	-8271
▁भवन्	-8272
▁सपत्	-8273
ब्ल्यू	-8274
श्नुते	-8275
▁जगतां	-8276
▁तस्यै	-8277
▁दत्ता	-8278
▁ददामि	-8279
▁दानेन	-8280
▁धाःगु	-8281
▁प्रवा	-8282
ज्यन्ते	-8283
▁पात्रं	-8284
▁पूर्णे	-8285
▁मैत्री	-8286
▁शानदार	-8287
▁सम्पर्	-8288
▁दक्षिणं	-8289
▁विद्युत	-8290
▁सूर्य्य	-8291
▁कार्येषु	-8292
▁स्थानेषु	-8293
▁ानुसारेण	-8294
▁केन्द्रीय	-8295
▁भविष्यतीति	-8296
ेना	-8297
▁ड़	-8298
पयति	-8299
▁तमु	-8300
▁मलं	-8301
▁वरो	-8302
▁वीत	-8303
▁हनु	-8304
▁हरः	-8305
▁िनी	-8306
▁जिते	-8307
▁त्यं	-8308
▁बाला	-8309
▁मृतः	-8310
▁हितः	-8311
▁हिरण	-8312
▁नद्यः	-8313
▁भिश्च	-8314
▁यज्ञा	-8315
▁रसायन	-8316
▁Online	-8317
▁बलवान्	-8318
▁विपक्ष	-8319
▁ग्रहणेन	-8320
▁पवित्रं	-8321
▁पूर्णतः	-8322
▁शान्तिः	-8323
▁श्रेणीः	-8324
▁विद्यन्ते	-8325
लक	-8326
▁ʻ	-8327
ड़े	-8328
ाप्	-8329
▁आइ	-8330
▁णो	-8331
▁शव	-8332
च्यत	-8333
ष्णा	-8334
▁खेद	-8335
▁भूः	-8336
▁युः	-8337
▁सुप	-8338
▁गीतं	-8339
▁स्वय	-8340
स्त्री	-8341
स्त्वं	-8342
▁तेष्व	-8343
▁द्रवि	-8344
▁संहित	-8345
▁समीपं	-8346
▁आदित्य	-8347
▁केचिद्	-8348
▁रिश्ते	-8349
▁लक्षणः	-8350
▁संयुगे	-8351
▁विधानतः	-8352
▁सिद्धिं	-8353
▁प्रजापतिः	-8354
▁प्रधानमन्त्रि	-8355
ील	-8356
:00	-8357
lok	-8358
कथं	-8359
ागत	-8360
▁तॊ	-8361
ोऽहं	-8362
▁जनं	-8363
▁नञ्	-8364
क्राम	-8365
सत्तम	-8366
▁असम्	-8367
▁चमत्	-8368
▁तन्व	-8369
▁पङ्क	-8370
▁स्थो	-8371
त्यन्त	-8372
फलकम्ः	-8373
▁चरितं	-8374
▁तन्नि	-8375
▁दूरतः	-8376
▁धन्या	-8377
▁मेदि०	-8378
▁राष्ट	-8379
▁व्याज	-8380
▁सद्यो	-8381
▁ान्तः	-8382
▁उदात्त	-8383
▁कस्मिं	-8384
▁चित्रे	-8385
▁त्विति	-8386
▁प्राणो	-8387
▁सम्बोध	-8388
▁सूर्या	-8389
▁अनुकूलन	-8390
▁द्विगुण	-8391
▁प्रयोगं	-8392
▁प्रवेशः	-8393
▁प्रेत्य	-8394
▁मण्डलम्	-8395
▁मृत्युं	-8396
▁प्रादुर्	-8397
ौक	-8398
गता	-8399
ड्ड	-8400
बर्	-8401
▁बृ	-8402
▁मश	-8403
▁९३	-8404
त्रय	-8405
न्नत	-8406
ीनाम	-8407
▁भरत	-8408
▁वतः	-8409
▁वाव	-8410
▁हतो	-8411
यन्ते	-8412
लिखित	-8413
ऽस्तु	-8414
▁भ्वा	-8415
▁वेदे	-8416
मात्रं	-8417
ान्तरण	-8418
▁उपदेश	-8419
▁कारणा	-8420
▁गुरोः	-8421
▁दुर्व	-8422
▁बाधते	-8423
▁रामाय	-8424
▁शोभते	-8425
▁श्रुते	-8426
▁िष्यति	-8427
▁ोऽभवत्	-8428
▁अव्यक्त	-8429
▁द्रव्या	-8430
▁मन्दिरं	-8431
▁शक्नोमि	-8432
▁सम्पाद्यताम्	-8433
av	-8434
ud	-8435
ङ्ख	-8436
विर	-8437
वीत	-8438
▁भण	-8439
▁मॉ	-8440
▁यह	-8441
िकार	-8442
▁भवा	-8443
▁रोद	-8444
▁वरण	-8445
▁एतां	-8446
▁कथित	-8447
▁कौशल	-8448
▁पृथग	-8449
▁बलिं	-8450
▁स्वत	-8451
▁भिधान	-8452
▁महर्ष	-8453
▁वक्ता	-8454
▁विभाज	-8455
▁सप्ता	-8456
क्षिप्त	-8457
सङ्ख्या	-8458
▁अभिवाद	-8459
▁उत्तरे	-8460
▁देव्या	-8461
▁द्वारे	-8462
▁नराधिप	-8463
▁पूर्वम	-8464
▁पृष्ठः	-8465
▁सप्तमे	-8466
▁जीवितम्	-8467
▁प्रयाति	-8468
▁प्रयोजक	-8469
▁महात्मा	-8470
▁यद्येवं	-8471
▁विज्ञात	-8472
▁समुद्रे	-8473
▁द्विगुणं	-8474
ग्ल	-8475
हेत	-8476
ायः	-8477
▁८१	-8478
बद्ध	-8479
ेतद्	-8480
▁धने	-8481
▁म्ब	-8482
▁ाम्	-8483
न्यथा	-8484
▁अम्ब	-8485
▁गौरव	-8486
▁तासु	-8487
▁दौर्	-8488
▁युतः	-8489
▁रोगी	-8490
▁वनम्	-8491
▁विषं	-8492
▁समयं	-8493
नार्थं	-8494
्याम्य	-8495
▁अवधार	-8496
▁एकाकी	-8497
▁दधाति	-8498
▁बुधैः	-8499
▁भयात्	-8500
▁भर्ता	-8501
▁व्याच	-8502
क्रियते	-8503
▁उत्तमः	-8504
▁कर्मसु	-8505
▁त्रिंश	-8506
▁परम्पर	-8507
▁यथावत्	-8508
▁अस्मात्	-8509
▁मुस्लिम	-8510
▁प्रकृतेः	-8511
▁मुक्त्वा	-8512
▁वृक्षस्य	-8513
ठी	-8514
ठे	-8515
ूण	-8516
रता	-8517
्रु	-8518
▁ओष	-8519
याति	-8520
श्यक	-8521
समये	-8522
ावली	-8523
▁गुड	-8524
▁बहू	-8525
▁जम्म	-8526
▁यान्	-8527
▁शिवा	-8528
▁आरभ्य	-8529
▁क्राम	-8530
▁चास्य	-8531
▁तत्तु	-8532
▁द्व्य	-8533
▁भक्षण	-8534
▁साहित	-8535
▁स्तोत	-8536
▁कार्यम	-8537
▁क्षणेन	-8538
▁ब्रूमः	-8539
▁स्तथैव	-8540
▁ाचार्य	-8541
▁ीकृत्य	-8542
▁विज्ञाप	-8543
▁साङ्ख्य	-8544
▁किञ्चिद्	-8545
▁नेवाःतय्	-8546
▁बुद्धिर्	-8547
▁श्राद्धं	-8548
▁श्रेष्ठः	-8549
मम	-8550
जान	-8551
वन्	-8552
▁51	-8553
▁ेष	-8554
▁०७	-8555
प्रि	-8556
ादान	-8557
्योः	-8558
▁नैष	-8559
▁यमु	-8560
▁याज	-8561
▁विं	-8562
▁हैं	-8563
तस्तु	-8564
भवात्	-8565
ाग्नि	-8566
▁जगतो	-8567
▁जीवे	-8568
▁निस्	-8569
▁परोप	-8570
▁पितर	-8571
▁भूतः	-8572
▁लेखन	-8573
▁श्ला	-8574
▁साकं	-8575
▁सुता	-8576
▁हेतो	-8577
त्त्वं	-8578
ब्रह्म	-8579
▁आन्तर	-8580
▁तुलसी	-8581
▁स्वां	-8582
▁हस्तं	-8583
▁हस्तौ	-8584
▁तृतीयः	-8585
▁विवरणः	-8586
▁शृणोति	-8587
▁श्रोतु	-8588
▁भवितुम्	-8589
▁ापेक्षा	-8590
▁तदनन्तरं	-8591
▁पूर्वस्य	-8592
▁विनश्यति	-8593
▁प्रतिनिधि	-8594
▁निवर्त्यताम्	-8595
um	-8596
छा	-8597
कला	-8598
रित	-8599
ाती	-8600
ामह	-8601
ासं	-8602
▁-1	-8603
▁0.	-8604
▁53	-8605
▁ab	-8606
▁तस	-8607
▁धम	-8608
ideo	-8609
कात्	-8610
धुना	-8611
मेकं	-8612
ीतले	-8613
र्ध्व	-8614
▁खर्च	-8615
▁मनसो	-8616
▁महद्	-8617
▁लिपि	-8618
▁शिशु	-8619
▁साहस	-8620
▁होता	-8621
▁ादिः	-8622
▁ार्ज	-8623
पूर्णा	-8624
▁धावति	-8625
▁शूद्र	-8626
▁सादृश	-8627
▁स्वपि	-8628
▁ऽग्नि	-8629
▁ऐतिहास	-8630
▁न्ह्या	-8631
▁चत्वारि	-8632
▁परिश्रम	-8633
▁मात्रम्	-8634
▁सम्पद्यते	-8635
▁प्रसिद्धम्	-8636
िह	-8637
-1-	-8638
own	-8639
तये	-8640
▁**	-8641
▁09	-8642
हिते	-8643
▁एम्	-8644
▁घटा	-8645
▁शशि	-8646
▁सखी	-8647
▁सतः	-8648
धातुक	-8649
▁दिवो	-8650
▁पादा	-8651
▁रुपए	-8652
▁रूपो	-8653
▁कष्टं	-8654
▁ग्रही	-8655
▁पुनरि	-8656
▁यज्ञो	-8657
▁यत्रा	-8658
▁स्वीय	-8659
▁चिन्तय	-8660
▁नमस्ते	-8661
▁पितुर्	-8662
▁श्रीकृ	-8663
▁सिंहास	-8664
▁स्वकीय	-8665
▁ानामपि	-8666
▁अनेकानि	-8667
▁अपेक्षा	-8668
▁वृष्टिः	-8669
▁द्वितीयो	-8670
▁विकल्पेन	-8671
▁निवृत्तिः	-8672
▁माश्रित्य	-8673
▁सिद्ध्यति	-8674
▁प्रातःकाले	-8675
br	-8676
ld	-8677
ैन	-8678
▁59	-8679
▁डॉ	-8680
▁बद	-8681
जन्म	-8682
ैतिक	-8683
▁12.	-8684
▁अधी	-8685
▁गरु	-8686
▁पास	-8687
▁मल्	-8688
▁2013	-8689
▁भजते	-8690
▁भुवः	-8691
▁मृतं	-8692
▁याता	-8693
▁ऽधिक	-8694
सम्पाद	-8695
▁अष्टा	-8696
▁दिनां	-8697
▁बहुषु	-8698
▁सुखेन	-8699
▁ध्वनिः	-8700
▁पुनस्त	-8701
▁रिक्ति	-8702
▁सूचनाः	-8703
▁ग्रामीण	-8704
▁भवितव्य	-8705
▁स्निग्ध	-8706
▁प्रीत्या	-8707
▁मुत्तमम्	-8708
ोच	-8709
▁°	-8710
ame	-8711
ook	-8712
▁my	-8713
▁भं	-8714
गतम्	-8715
लिका	-8716
▁णाम	-8717
▁युत	-8718
▁येँ	-8719
▁ास्	-8720
▁िकं	-8721
कुमार	-8722
ख्यां	-8723
▁कलाः	-8724
▁छम्ह	-8725
▁बाधा	-8726
▁ययुः	-8727
▁वित्	-8728
▁सुधा	-8729
▁स्तद	-8730
स्ट्रे	-8731
▁कथितः	-8732
▁पञ्चम	-8733
▁रश्मि	-8734
▁सवर्ण	-8735
▁ासीत्	-8736
▁ैस्तु	-8737
▁गुह्यं	-8738
▁नेपाली	-8739
▁न्यायः	-8740
▁भवेयुः	-8741
▁लिखितं	-8742
▁सर्वशः	-8743
▁ात्मनः	-8744
ान्त्रिक	-8745
▁कदाचिद्	-8746
▁क्षत्रि	-8747
▁त्वेऽपि	-8748
▁अनुच्छेद	-8749
▁न्यायाधी	-8750
▁प्रत्युवाच	-8751
ia	-8752
ain	-8753
चाः	-8754
परी	-8755
वीं	-8756
▁दव	-8757
▁वण	-8758
▁8.0	-8759
▁PDF	-8760
▁कित	-8761
▁कैव	-8762
▁तरः	-8763
▁नमा	-8764
▁मये	-8765
▁याइ	-8766
▁रसा	-8767
▁लला	-8768
▁उग्र	-8769
▁कमपि	-8770
▁तप्त	-8771
▁बुधः	-8772
▁भूतो	-8773
▁युयु	-8774
▁योगो	-8775
सिद्धि	-8776
▁आक्रम	-8777
▁घनत्व	-8778
▁जम्मू	-8779
▁निषेव	-8780
▁ममापि	-8781
▁विहार	-8782
▁सहितः	-8783
▁नियमेन	-8784
▁परिचयः	-8785
▁साध्यं	-8786
▁क्षिप्त	-8787
▁पितामहः	-8788
▁कस्मान्न	-8789
▁मनोरञ्जन	-8790
▁पुरस्कारः	-8791
▁प्रकृत्या	-8792
cd	-8793
लर	-8794
१६	-8795
धिर	-8796
ल्ड	-8797
वेन	-8798
▁ऽस	-8799
▁ाच	-8800
▁ेऽ	-8801
केगु	-8802
पक्व	-8803
▁--"	-8804
▁कतम	-8805
▁च्य	-8806
▁थुक	-8807
▁मयः	-8808
▁लॊक	-8809
▁शाय	-8810
▁आभार	-8811
▁क्षा	-8812
▁गर्ज	-8813
▁चाहं	-8814
▁तोयं	-8815
▁महीप	-8816
▁वादे	-8817
▁कारणे	-8818
▁धात्व	-8819
▁भद्रं	-8820
▁लिखति	-8821
▁वशात्	-8822
▁हविर्	-8823
ुमर्हसि	-8824
▁अन्तरा	-8825
▁रक्षतु	-8826
▁समन्वय	-8827
▁स्मरणं	-8828
▁स्युर्	-8829
▁पर्यन्त	-8830
▁छात्राणां	-8831
लने	-8832
▁वव	-8833
▁०८	-8834
र्षण	-8835
▁चरा	-8836
▁तोय	-8837
▁मरी	-8838
▁मिन	-8839
▁....	-8840
▁काये	-8841
▁तरुण	-8842
▁मग्न	-8843
▁यौवन	-8844
▁श्रौ	-8845
▁सुतं	-8846
▁२०१५	-8847
▁अग्रि	-8848
▁कर्मण	-8849
▁गतिर्	-8850
▁लक्षं	-8851
▁सुश्र	-8852
▁ोपदेश	-8853
▁ोऽत्र	-8854
▁किमिति	-8855
▁विक्री	-8856
▁साधनम्	-8857
▁कथयन्ति	-8858
ord	-8859
ुषे	-8860
▁se	-8861
▁इर	-8862
▁पक	-8863
▁बध	-8864
ateg	-8865
क्री	-8866
त्यः	-8867
परिष	-8868
▁येत	-8869
▁रसं	-8870
▁शरु	-8871
▁उकिं	-8872
▁कोपि	-8873
▁च्छि	-8874
▁तुमु	-8875
▁रचित	-8876
▁रीति	-8877
▁अत्यु	-8878
▁कुशलं	-8879
▁तिर्य	-8880
▁फिल्म	-8881
▁यूरोप	-8882
▁रहितः	-8883
▁वैराग	-8884
▁सुव्र	-8885
▁स्ततो	-8886
▁स्तद्	-8887
▁अन्यतर	-8888
▁कल्पते	-8889
▁पुंसां	-8890
▁विहितः	-8891
▁ात्मने	-8892
▁ज्योतिष	-8893
▁विष्णोः	-8894
▁सर्व्वे	-8895
▁तस्मिन्न	-8896
▁धर्मार्थ	-8897
▁राजनैतिक	-8898
▁संस्कृते	-8899
▁पर्यन्तम्	-8900
▁सर्वकार्य	-8901
.)	-8902
काय	-8903
घोष	-8904
धाव	-8905
बाद	-8906
बाध	-8907
मिष	-8908
▁ण्	-8909
▁९६	-8910
नगरे	-8911
बीसी	-8912
रूपा	-8913
र्मि	-8914
▁अपृ	-8915
▁इस्	-8916
▁पठे	-8917
▁सदस	-8918
▁ाना	-8919
निश्च	-8920
▁ऋत्व	-8921
▁कारी	-8922
▁त्ये	-8923
▁युधि	-8924
▁रसाय	-8925
▁शयनं	-8926
▁हताः	-8927
▁हारि	-8928
▁ation	-8929
▁तथेति	-8930
▁देवीं	-8931
▁राशिः	-8932
▁स्कूल	-8933
भाष्यम्	-8934
▁ख्यातः	-8935
▁ग्रहीत	-8936
▁ज्ञानम	-8937
▁परिश्र	-8938
▁श्लोकः	-8939
▁सर्वान	-8940
▁यज्ञस्य	-8941
▁सञ्चिका	-8942
▁भुङ्क्ते	-8943
▁राजस्थान	-8944
▁शब्दानां	-8945
▁कर्त्तव्य	-8946
▁विशिष्यते	-8947
योर	-8948
षेक	-8949
▁-'	-8950
▁खन	-8951
▁षे	-8952
▁स०	-8953
▁(--	-8954
▁अयो	-8955
▁गवा	-8956
▁धनि	-8957
▁पवन	-8958
▁पौर	-8959
▁फले	-8960
▁शरा	-8961
र्तुं	-8962
ानिति	-8963
▁आदाय	-8964
▁गुहा	-8965
▁नश्य	-8966
▁मज्ज	-8967
▁महेश	-8968
▁मासा	-8969
▁यातु	-8970
▁वाला	-8971
▁वाले	-8972
▁वेदि	-8973
▁सम्व	-8974
▁सवित	-8975
▁ोपरि	-8976
ोच्यते	-8977
▁क्रमे	-8978
▁क्रूर	-8979
▁दण्डं	-8980
▁निधाय	-8981
▁वदेत्	-8982
▁शक्ता	-8983
▁संदेश	-8984
▁सेवां	-8985
▁कदाचिद	-8986
▁गृहस्थ	-8987
▁प्रचोद	-8988
▁प्रोत्	-8989
▁राज्ञो	-8990
▁वायुना	-8991
▁पूज्यते	-8992
▁पृष्ठतः	-8993
▁यद्यप्य	-8994
▁रात्रिं	-8995
▁स्यास्य	-8996
▁ग्रीष्मे	-8997
▁प्राणान्	-8998
▁वर्तमाने	-8999
▁प्रसिद्धा	-9000
आं	-9001
ण्व	-9002
तरा	-9003
देन	-9004
रत्	-9005
ेते	-9006
▁Ex	-9007
ग्नः	-9008
ग्रा	-9009
श्यप	-9010
ितैः	-9011
▁काक	-9012
▁कौर	-9013
▁फलम	-9014
▁मरा	-9015
▁यता	-9016
वर्ति	-9017
▁चुना	-9018
▁नाशः	-9019
▁ममैव	-9020
▁युग्	-9021
▁येद्	-9022
▁श्वे	-9023
स्यापि	-9024
▁बाल्य	-9025
▁भगवता	-9026
▁सौभाग	-9027
▁अदृष्ट	-9028
▁तत्तत्	-9029
▁भूमिका	-9030
▁सांख्य	-9031
▁स्कन्द	-9032
▁द्रष्टा	-9033
▁प्रकरणं	-9034
▁यदुक्तं	-9035
▁विदूषकः	-9036
▁स्थाप्य	-9037
▁कार्यालय	-9038
▁व्यापारः	-9039
1_	-9040
pr	-9041
नास	-9042
निर	-9043
रोह	-9044
ुवा	-9045
▁57	-9046
▁IN	-9047
▁lo	-9048
▁फै	-9049
लोपः	-9050
वन्त	-9051
ानने	-9052
ाव्य	-9053
▁बाद	-9054
▁०२०	-9055
▁धारि	-9056
▁भवनं	-9057
▁विरह	-9058
▁निर्भ	-9059
▁रुचिः	-9060
▁विष्ट	-9061
▁स्वर्	-9062
▁ादीन्	-9063
▁ार्थो	-9064
मन्त्री	-9065
सम्पादन	-9066
▁अभिप्र	-9067
▁उच्चार	-9068
▁प्रज्ञ	-9069
▁मध्यमा	-9070
▁महादेव	-9071
▁रात्रे	-9072
▁स्वागत	-9073
▁हन्यते	-9074
▁त्यर्थः	-9075
▁ईश्वरस्य	-9076
▁करिष्यसि	-9077
▁त्रयाणां	-9078
▁प्रजापति	-9079
▁क्षेत्रेषु	-9080
art	-9081
जसा	-9082
तरे	-9083
पदी	-9084
लभा	-9085
▁UP	-9086
ग्नं	-9087
िनां	-9088
▁यदी	-9089
▁कथ्य	-9090
▁गिरा	-9091
▁गृहा	-9092
▁निजं	-9093
▁रञ्ज	-9094
▁र्थः	-9095
▁विषा	-9096
लिङ्गि	-9097
▁अभावः	-9098
▁काम्य	-9099
▁याश्च	-9100
▁समानं	-9101
▁ान्तं	-9102
▁किंचिद	-9103
▁ग्रहाः	-9104
▁चरित्र	-9105
▁नित्या	-9106
▁पाश्चा	-9107
▁भारतम्	-9108
▁रक्षां	-9109
▁विविधा	-9110
▁स्थानः	-9111
▁द्वारेण	-9112
▁पठित्वा	-9113
▁यायेमाः	-9114
▁लब्ध्वा	-9115
▁विद्वान	-9116
▁शक्तिर्	-9117
▁इच्छन्ति	-9118
▁ब्रह्मणः	-9119
▁यिष्यामि	-9120
▁व्यावहार	-9121
▁क्रियायाः	-9122
/)	-9123
ice	-9124
अनु	-9125
धाः	-9126
वति	-9127
▁अच	-9128
गणना	-9129
च्वन	-9130
सेना	-9131
▁Xxx	-9132
▁तल्	-9133
▁पदः	-9134
▁राह	-9135
▁वैव	-9136
▁चिन्	-9137
▁थुगु	-9138
▁पादप	-9139
▁पादे	-9140
▁भयान	-9141
▁मृता	-9142
▁व्री	-9143
▁संधि	-9144
▁२०२०	-9145
न्द्रा	-9146
ान्तरं	-9147
▁चूर्ण	-9148
▁भूतले	-9149
▁श्रीम	-9150
▁आरोग्य	-9151
▁इत्येष	-9152
▁ज्ञातं	-9153
▁पठ्यते	-9154
▁पदानां	-9155
▁पूर्वक	-9156
▁प्रायो	-9157
▁रक्षणे	-9158
▁वृद्धौ	-9159
▁सङ्ग्र	-9160
ित्यर्थः	-9161
▁उत्पन्न	-9162
▁विचारणा	-9163
▁सात्त्व	-9164
▁क्रियतां	-9165
▁प्रयत्नः	-9166
▁विधानसभा	-9167
▁स्वरूपम्	-9168
▁निश्चित्य	-9169
▁क्षेत्रज्ञ	-9170
-2-	-9171
ary	-9172
oun	-9173
धेन	-9174
▁प॒	-9175
ansl	-9176
▁कमा	-9177
▁यदु	-9178
▁राध	-9179
▁श्य	-9180
▁सुब	-9181
▁हरण	-9182
▁ीया	-9183
ज्येत	-9184
ष्टोम	-9185
▁Live	-9186
▁उपसं	-9187
▁तदहं	-9188
▁पशुः	-9189
▁पूजन	-9190
▁मिलि	-9191
▁मेने	-9192
▁वरम्	-9193
▁अयमेव	-9194
▁उपर्य	-9195
▁कारकः	-9196
▁मध्या	-9197
▁लब्धं	-9198
▁वितरण	-9199
▁स्फोट	-9200
▁हत्या	-9201
▁उत्साह	-9202
▁कामान्	-9203
▁प्रशंस	-9204
▁विहितं	-9205
▁सूचयति	-9206
▁सम्पर्क	-9207
▁प्रतिशतं	-9208
▁महत्त्वं	-9209
▁पाकिस्थान	-9210
▁प्रविष्टः	-9211
▁प्रसिद्धं	-9212
▁वर्षसहस्र	-9213
▁प्रतिवर्षं	-9214
▁अन्ताराष्ट्रिय	-9215
10	-9216
साः	-9217
▁रय	-9218
▁िण	-9219
▁९४	-9220
ग्धे	-9221
जनिक	-9222
वत्स	-9223
ृज्य	-9224
ेदार	-9225
▁जहि	-9226
▁निध	-9227
▁पृ०	-9228
▁रोम	-9229
्वात्	-9230
▁उपास	-9231
▁कठिन	-9232
▁गोचर	-9233
▁टेनि	-9234
▁धिया	-9235
▁नगरी	-9236
▁भवसि	-9237
▁रुक्	-9238
▁वञ्च	-9239
▁शल्य	-9240
▁शेते	-9241
ित्याह	-9242
▁पत्रे	-9243
▁भवामि	-9244
▁भेदाः	-9245
▁मांसं	-9246
▁विषाद	-9247
▁संस्म	-9248
▁सोऽयं	-9249
▁स्वाम	-9250
तिष्ठते	-9251
▁कृत्यं	-9252
▁ग्राहक	-9253
▁तादृशः	-9254
▁मुद्रण	-9255
▁वक्त्र	-9256
▁विप्रा	-9257
▁सूर्यं	-9258
▁अध्याये	-9259
▁तदुक्तं	-9260
▁बालानां	-9261
▁भवद्भिः	-9262
▁मासाद्य	-9263
▁कर्म्मणि	-9264
▁विशिष्टं	-9265
▁संबध्यते	-9266
▁सौन्दर्य	-9267
ort	-9268
नाव	-9269
मते	-9270
िनौ	-9271
▁==	-9272
▁me	-9273
▁उ०	-9274
द्धे	-9275
▁तदव	-9276
▁नोऽ	-9277
▁मैं	-9278
▁शिल	-9279
▁शौच	-9280
▁ीयं	-9281
शुद्ध	-9282
▁गेहे	-9283
▁त्वय	-9284
▁पिशा	-9285
▁श्रय	-9286
वृद्धि	-9287
▁अङ्गी	-9288
▁आकाशे	-9289
▁तेजसा	-9290
▁पर्जन	-9291
▁शुचिः	-9292
▁समासे	-9293
entence	-9294
▁ख्यातं	-9295
▁देवेषु	-9296
▁नद्याः	-9297
▁नपुंसक	-9298
▁निंतिं	-9299
▁पर्वतः	-9300
▁पुण्या	-9301
▁पुनर्व	-9302
▁भाषाया	-9303
▁सुरक्ष	-9304
▁वस्तुनि	-9305
▁शुभाशुभ	-9306
▁इत्यादयः	-9307
▁विश्वासः	-9308
▁परिवर्तते	-9309
▁पृष्ठभूमि	-9310
जल	-9311
तय	-9312
परः	-9313
ेतद	-9314
▁90	-9315
▁दब	-9316
▁मघ	-9317
▁वइ	-9318
पुनः	-9319
वदत्	-9320
▁राघ	-9321
▁वना	-9322
▁वेण	-9323
▁ितो	-9324
▁चारि	-9325
▁जिता	-9326
▁तत्स	-9327
▁भिस्	-9328
▁मनुज	-9329
▁यथात	-9330
▁लाभे	-9331
▁हरति	-9332
▁जलस्य	-9333
▁नियमो	-9334
▁ल्याः	-9335
▁शिशुः	-9336
▁सान्त	-9337
त्सर्वं	-9338
▁व्यस्त	-9339
▁स्रोतः	-9340
▁बुद्धिं	-9341
▁अधोलिखित	-9342
▁प्राप्तौ	-9343
▁मृत्युर्	-9344
▁क्षेत्रस्य	-9345
la	-9346
ंस	-9347
फा	-9348
णाय	-9349
निव	-9350
ृक्	-9351
▁नॊ	-9352
▁सथ	-9353
मन्य	-9354
▁(4)	-9355
▁For	-9356
वादने	-9357
▁Read	-9358
▁नापं	-9359
▁मन्म	-9360
▁स्ये	-9361
▁२००८	-9362
▁अपत्य	-9363
▁आगामि	-9364
▁क्षणा	-9365
▁जन्मा	-9366
▁दुर्ब	-9367
▁पूजनं	-9368
▁बुध्य	-9369
▁रूपां	-9370
▁श्रिय	-9371
▁षष्टि	-9372
▁साम्य	-9373
▁कृतज्ञ	-9374
▁भोजनम्	-9375
▁चलचित्र	-9376
▁भिद्यते	-9377
▁राज्ञां	-9378
▁वृत्तिं	-9379
▁क्रान्ति	-9380
▁अनुवर्तते	-9381
▁जनसङ्ख्या	-9382
▁योर्मध्ये	-9383
▁अप्रत्यक्ष	-9384
▁संस्कृतस्य	-9385
ूक	-9386
_1_	-9387
ापर	-9388
▁ly	-9389
जन्त	-9390
ट्रो	-9391
यमपि	-9392
▁तोष	-9393
▁लाः	-9394
▁वदि	-9395
▁सू०	-9396
त्याह	-9397
वाक्य	-9398
▁अकार	-9399
▁गामि	-9400
▁पण्य	-9401
▁परतो	-9402
▁वपुः	-9403
▁समाप	-9404
▁सलिल	-9405
▁स्थू	-9406
▁ोद्य	-9407
▁उद्यम	-9408
▁क्रतु	-9409
▁दत्तः	-9410
▁देवेन	-9411
▁देशीय	-9412
▁धत्ते	-9413
▁धिष्ठ	-9414
▁निधनं	-9415
▁वास्त	-9416
▁स्वाप	-9417
▁हृदया	-9418
▁ज्ञेयः	-9419
▁वृत्ते	-9420
▁ोत्तरं	-9421
▁प्रकाशन	-9422
▁प्रादेश	-9423
▁लक्ष्मी	-9424
▁समाख्या	-9425
▁सर्वमेव	-9426
▁इत्यर्थे	-9427
▁दत्तवान्	-9428
▁परिच्छेद	-9429
▁युष्मान्	-9430
▁वर्षाणां	-9431
▁स्वायत्त	-9432
▁सार्वजनिक	-9433
▁इत्यस्मिन्	-9434
तीः	-9435
▁56	-9436
▁ty	-9437
क्षत	-9438
न्यो	-9439
म्नि	-9440
▁ऋणं	-9441
▁गरि	-9442
▁घञ्	-9443
▁दम्	-9444
कृतम्	-9445
नानां	-9446
▁एकता	-9447
▁एतन्	-9448
▁निवि	-9449
▁शिवं	-9450
▁सद्य	-9451
▁सभ्य	-9452
▁हीनः	-9453
दिशेत्	-9454
▁अहमपि	-9455
▁करोड़	-9456
▁कृत्व	-9457
▁केवलः	-9458
▁भद्रा	-9459
▁वल्लभ	-9460
सूक्तिः	-9461
▁उच्चतम	-9462
▁उच्चैः	-9463
▁यद्यत्	-9464
▁विवाहः	-9465
▁स्वयां	-9466
▁गच्छेत्	-9467
▁तन्त्रं	-9468
▁यिष्यति	-9469
▁युद्धाय	-9470
▁संप्रति	-9471
▁निर्मिता	-9472
▁संवेदनशील	-9473
▁स्वाभाविक	-9474
१३	-9475
iki	-9476
नेः	-9477
ेनं	-9478
▁आल	-9479
▁िह	-9480
घातः	-9481
न्नड	-9482
म्भो	-9483
▁मम्	-9484
▁मूष	-9485
▁सु॒	-9486
▁हरं	-9487
▁्ये	-9488
▁आभास	-9489
▁आस्त	-9490
▁ऋषिः	-9491
▁गरीय	-9492
▁चानु	-9493
▁च्छा	-9494
▁जानु	-9495
▁पाठे	-9496
▁पापि	-9497
▁वाङ्	-9498
▁सव्य	-9499
▁ऽस्म	-9500
▁अधर्म	-9501
▁ज्ञाय	-9502
▁नियतं	-9503
▁बहुशः	-9504
▁मायां	-9505
▁सुकृत	-9506
▁ऽस्मा	-9507
क्षेत्र	-9508
▁कनिष्ठ	-9509
▁क्षुधा	-9510
▁गुजरात	-9511
▁ग्रस्त	-9512
▁पात्रे	-9513
▁मुक्तो	-9514
▁विवस्व	-9515
▁विसर्ज	-9516
▁गुणानां	-9517
▁चतुर्थं	-9518
▁विग्रहः	-9519
▁द्वेष्टि	-9520
▁प्रयुक्तः	-9521
खो	-9522
३०	-9523
▁►	-9524
ber	-9525
लाम	-9526
▁vs	-9527
षब्द	-9528
▁उक्	-9529
▁तोऽ	-9530
▁मयी	-9531
▁यमा	-9532
▁सवि	-9533
ग्रहं	-9534
▁करुण	-9535
▁कामि	-9536
▁क्षत	-9537
▁घृतं	-9538
▁पन्थ	-9539
▁बर्ह	-9540
▁बलम्	-9541
▁भागो	-9542
▁मुपा	-9543
▁यामः	-9544
▁राति	-9545
▁रामो	-9546
▁शतके	-9547
▁समाः	-9548
▁हन्य	-9549
▁हारी	-9550
▁ाङ्क	-9551
▁ेभ्य	-9552
▁आविष्	-9553
▁कथिता	-9554
▁स्येव	-9555
▁अन्त्य	-9556
▁चेष्टा	-9557
▁दाक्षि	-9558
▁मुख्यं	-9559
▁विवरणं	-9560
▁विस्मय	-9561
▁खोजषब्द	-9562
▁चक्षुर्	-9563
▁चन्द्रः	-9564
▁पत्राणि	-9565
▁भाषायाः	-9566
▁मन्त्रः	-9567
▁मातापित	-9568
▁शान्तिं	-9569
▁उद्देश्य	-9570
▁त्रैलोक्य	-9571
▁स्वीकृत्य	-9572
▁कार्यक्रमः	-9573
1.	-9574
rit	-9575
िणः	-9576
ोक्	-9577
▁75	-9578
▁अत्	-9579
▁अमु	-9580
▁एषु	-9581
▁कोण	-9582
▁छेद	-9583
▁थें	-9584
▁बैठ	-9585
▁आगमि	-9586
▁उपधा	-9587
▁ऊचुः	-9588
▁केशव	-9589
▁गुरू	-9590
▁घण्ट	-9591
▁जगती	-9592
▁जुगु	-9593
▁पल्ल	-9594
▁भवते	-9595
▁वःगु	-9596
▁वीरः	-9597
▁शीलं	-9598
▁सोमं	-9599
ाद्वीप	-9600
▁करोषि	-9601
▁चाक्ष	-9602
▁देवैः	-9603
▁द्वये	-9604
▁मनीषि	-9605
▁लब्धा	-9606
▁वाप्य	-9607
▁व्याध	-9608
▁सागरे	-9609
▁क्षणम्	-9610
▁नित्यम	-9611
▁पुरुषे	-9612
▁प्रताप	-9613
▁बहुविध	-9614
▁योगात्	-9615
▁हिन्दू	-9616
▁चतुर्थः	-9617
▁संख्याः	-9618
▁स्वभावः	-9619
▁ेत्यादि	-9620
▁आवश्यकम्	-9621
▁विश्वरूप	-9622
*}	-9623
म्र	-9624
शिव	-9625
▁९२	-9626
तःगु	-9627
सीति	-9628
▁Com	-9629
▁शहर	-9630
त्तमं	-9631
्याणि	-9632
▁आद्य	-9633
▁थ्यं	-9634
▁नवदि	-9635
▁महति	-9636
▁लिङ्	-9637
▁वाचो	-9638
▁हीति	-9639
▁जेतुं	-9640
▁तदिदं	-9641
▁परिषद	-9642
▁प्रको	-9643
▁रूपये	-9644
▁श्लाघ	-9645
▁साधुः	-9646
ुमर्हति	-9647
▁प्रागु	-9648
▁शिक्षक	-9649
▁पत्रकार	-9650
▁प्रान्त	-9651
▁भ्रान्त	-9652
▁विनाशाय	-9653
▁श्रुत्य	-9654
▁Sentence	-9655
▁ग्रहाणां	-9656
▁तत्पुरुष	-9657
▁विशिष्टा	-9658
▁शक्यन्ते	-9659
▁सर्वकर्म	-9660
▁कर्त्तव्यं	-9661
▁व्याख्यातम्	-9662
भग	-9663
करे	-9664
नेक	-9665
▁इट	-9666
र्धे	-9667
र्पण	-9668
▁pdf	-9669
▁तले	-9670
▁सोढ	-9671
कर्मा	-9672
र्म्म	-9673
▁करना	-9674
▁गङ्ग	-9675
▁तज्ज	-9676
▁तश्च	-9677
▁नैवं	-9678
▁प्र॒	-9679
▁यीशु	-9680
▁वल्ल	-9681
▁समाह	-9682
सन्धान	-9683
ामित्र	-9684
▁आयाति	-9685
▁इत्यम	-9686
▁कल्पे	-9687
▁जन्तु	-9688
▁टेनिस	-9689
▁ध्येय	-9690
▁परमां	-9691
▁पाखें	-9692
▁मामेव	-9693
▁रक्षो	-9694
▁विकृत	-9695
▁तीर्थं	-9696
▁दुर्बल	-9697
▁दूरस्थ	-9698
▁पुनर्ज	-9699
▁मन्दिर	-9700
▁संन्या	-9701
▁संस्कृ	-9702
▁सैन्यं	-9703
▁स्वस्त	-9704
▁जनार्दन	-9705
▁परिवर्ज	-9706
▁प्रेरणा	-9707
▁समृद्धि	-9708
▁उपलभ्यते	-9709
▁पश्यन्तु	-9710
▁भक्तानां	-9711
▁भविष्यत्	-9712
▁वर्गीकरण	-9713
▁विनियोगः	-9714
▁प्रशस्यते	-9715
▁महाराष्ट्र	-9716
०६	-9717
hap	-9718
ies	-9719
ink	-9720
जाप	-9721
ट्स	-9722
▁58	-9723
▁ाख	-9724
त्तं	-9725
ार्त	-9726
▁गणे	-9727
▁धमा	-9728
▁मदि	-9729
▁मीन	-9730
▁वाग	-9731
▁ाया	-9732
▁्यै	-9733
पदस्य	-9734
्यंति	-9735
▁आकार	-9736
▁कारे	-9737
▁गत्य	-9738
▁जाया	-9739
▁तसकं	-9740
▁तेषा	-9741
▁बन्द	-9742
▁रमते	-9743
▁रागः	-9744
▁आदर्श	-9745
▁कामना	-9746
▁किंतु	-9747
▁धयागु	-9748
▁फलप्र	-9749
▁आत्मने	-9750
▁उत्तमं	-9751
▁कुमारी	-9752
▁कोविड्	-9753
▁तद्धित	-9754
▁दुःखम्	-9755
▁प्रक्ष	-9756
▁भूतेषु	-9757
▁संदेहः	-9758
▁सन्देह	-9759
▁समारोह	-9760
▁अविद्या	-9761
▁पुत्रपौ	-9762
▁विषयेषु	-9763
▁शिक्षकः	-9764
▁सर्वासु	-9765
▁करिष्यते	-9766
▁पुत्रान्	-9767
▁सर्वोच्च	-9768
▁दारिद्र्य	-9769
▁पुरुषार्थ	-9770
▁सामान्येन	-9771
ey	-9772
ळ्	-9773
डाग	-9774
दां	-9775
ुप्	-9776
▁(7	-9777
▁70	-9778
▁व॒	-9779
▁०६	-9780
नीति	-9781
वात्	-9782
ीणां	-9783
▁मदन	-9784
▁यजु	-9785
▁वहे	-9786
▁विग	-9787
▁िति	-9788
ग्निः	-9789
रियां	-9790
र्च्य	-9791
ुत्तर	-9792
▁उड्ड	-9793
▁एमपी	-9794
▁कथनं	-9795
▁तवया	-9796
▁दासी	-9797
▁देशी	-9798
▁नियु	-9799
▁महिष	-9800
▁याहि	-9801
▁वाचः	-9802
▁हरित	-9803
▁गर्ने	-9804
▁घटादि	-9805
▁त्यपि	-9806
▁धन्यो	-9807
▁पूर्त	-9808
▁प्रीण	-9809
▁रहितं	-9810
▁विजयः	-9811
▁हस्तः	-9812
▁क्रोधः	-9813
▁पर्यटन	-9814
▁पितॄन्	-9815
▁प्रदाय	-9816
▁भिक्षा	-9817
▁सदस्यः	-9818
▁प्रियम्	-9819
▁वाक्येन	-9820
▁विराजते	-9821
▁शत्रून्	-9822
▁ानुसारं	-9823
▁निरन्तरं	-9824
▁निश्चितं	-9825
▁व्यवहारे	-9826
▁राष्ट्रपतिः	-9827
ूम	-9828
ूरु	-9829
▁(9	-9830
ङ्गम	-9831
वासी	-9832
व्यय	-9833
▁जया	-9834
▁तवम	-9835
▁दशर	-9836
▁ब्य	-9837
▁रोज	-9838
▁हनि	-9839
▁ादय	-9840
पन्ने	-9841
▁अर्च	-9842
▁कच्च	-9843
▁कारा	-9844
▁दृक्	-9845
▁माधव	-9846
▁मासः	-9847
▁समेत	-9848
▁कथमपि	-9849
▁नीतिः	-9850
▁नीयते	-9851
▁मरुतः	-9852
▁रुपेण	-9853
▁वर्तत	-9854
▁ऽभवत्	-9855
विज्ञान	-9856
▁एशियाई	-9857
▁विदितं	-9858
▁समर्था	-9859
▁अमेरिकी	-9860
▁चतुर्थी	-9861
▁दुष्प्र	-9862
▁निवेद्य	-9863
▁प्रधाना	-9864
▁व्यपदेश	-9865
▁सिद्धये	-9866
anslation	-9867
▁अस्मभ्यं	-9868
▁गमिष्यति	-9869
▁राजनीतिक	-9870
▁पुत्राणां	-9871
▁वाक्यार्थ	-9872
▁सर्वेभ्यः	-9873
▁साम्प्रतं	-9874
20	-9875
bs	-9876
लव	-9877
ोन	-9878
नुप	-9879
पूज	-9880
मोद	-9881
लनं	-9882
संग	-9883
▁लै	-9884
▁ेश	-9885
▁एन्	-9886
▁जन्	-9887
▁दिस	-9888
▁नैत	-9889
▁बजे	-9890
▁मुं	-9891
▁मेऽ	-9892
▁रजः	-9893
▁र्म	-9894
▁किशो	-9895
▁कृती	-9896
▁घोरं	-9897
▁दिशं	-9898
▁नीला	-9899
▁मातः	-9900
▁सुखम	-9901
▁ऽनेन	-9902
कर्तुं	-9903
व्यक्त	-9904
▁जापान	-9905
▁तय्सं	-9906
▁धनस्य	-9907
▁भगवतो	-9908
▁भोजने	-9909
▁वस्था	-9910
▁ोपयोग	-9911
वर्षाणि	-9912
ानुसारं	-9913
▁अगच्छत्	-9914
▁कल्याणं	-9915
▁गन्तव्य	-9916
▁गोविन्द	-9917
▁नारीणां	-9918
▁प्रभावं	-9919
▁ब्रवीमि	-9920
▁भवन्त्य	-9921
▁नवदिल्ली	-9922
▁प्रदर्शन	-9923
▁वर्णानां	-9924
▁संस्करणः	-9925
▁विद्यालयस्य	-9926
भवती	-9927
लाइन	-9928
ेतुः	-9929
्याद	-9930
▁तास	-9931
▁दवि	-9932
▁मौन	-9933
विश्य	-9934
ानाति	-9935
▁उन्म	-9936
▁गर्ह	-9937
▁ग्ने	-9938
▁तेति	-9939
▁धिक्	-9940
▁यत्न	-9941
▁लकार	-9942
▁हव्य	-9943
▁ाकार	-9944
hapter	-9945
▁असत्य	-9946
▁इदमेव	-9947
▁कुरुष	-9948
▁क्षेम	-9949
▁तद्धि	-9950
▁पितरः	-9951
▁पिबति	-9952
▁मैत्र	-9953
▁विराम	-9954
▁स्वनि	-9955
▁ेच्छा	-9956
▁ेनापि	-9957
व्याघ्र	-9958
▁अनित्य	-9959
▁कृतवती	-9960
▁ज्ञाता	-9961
▁दिनेषु	-9962
▁पूर्णः	-9963
▁पोर्नो	-9964
▁वृत्तौ	-9965
▁अर्थस्य	-9966
▁अवशिष्ट	-9967
▁करोतीति	-9968
▁पश्चिमा	-9969
▁विधिवत्	-9970
▁समाजस्य	-9971
▁सापेक्ष	-9972
▁सूचितम्	-9973
▁ैश्वर्य	-9974
▁जिज्ञासा	-9975
▁निरपेक्ष	-9976
▁प्रविवेश	-9977
▁विद्यात्	-9978
▁सार्द्धं	-9979
▁विद्यालयः	-9980
▁व्याख्यातः	-9981
▁विकिसूक्तिः	-9982
पार	-9983
्नु	-9984
▁65	-9985
▁भै	-9986
ङ्ग्	-9987
दन्त	-9988
धाने	-9989
्वाः	-9990
▁196	-9991
▁198	-9992
▁तथे	-9993
▁दे॒	-9994
▁म्य	-9995
च्युत	-9996
र्वेद	-9997
▁अतिथ	-9998
▁गणेश	-9999
▁जगदी	-10000
▁धियो	-10001
▁मृते	-10002
▁व्यं	-10003
▁सेट्	-10004
▁िभिः	-10005
ेन्द्र	-10006
▁किंचि	-10007
▁जनस्य	-10008
▁दुहित	-10009
▁धिकार	-10010
▁विधात	-10011
▁विभुः	-10012
▁वियोग	-10013
▁हेतवः	-10014
स्यन्ति	-10015
▁अद्यतन	-10016
▁करणीयः	-10017
▁जातवेद	-10018
▁पण्डित	-10019
▁पृष्टः	-10020
▁रूपस्य	-10021
▁व्यत्य	-10022
▁सभायां	-10023
▁कुर्याद	-10024
▁ाधिकारः	-10025
▁कृतकृत्य	-10026
▁समासाद्य	-10027
▁सर्वेऽपि	-10028
▁प्राधान्य	-10029
जर	-10030
ॉप	-10031
सुख	-10032
िन्	-10033
▁पः	-10034
▁रॊ	-10035
दाता	-10036
▁04:	-10037
▁All	-10038
▁You	-10039
▁तैर	-10040
▁वच्	-10041
▁संल	-10042
▁हम्	-10043
दिग्ध	-10044
▁करवा	-10045
▁पालय	-10046
▁भवने	-10047
▁महतः	-10048
▁मेति	-10049
▁विदध	-10050
▁साधक	-10051
चन्द्र	-10052
▁(--/)	-10053
▁आश्रय	-10054
▁द्वैत	-10055
▁धन्यं	-10056
▁बहून्	-10057
▁वक्ति	-10058
▁व्याह	-10059
▁हृष्ट	-10060
▁अदृश्य	-10061
▁निषेधः	-10062
▁भ्याम्	-10063
▁शरीरम्	-10064
▁सम्पदा	-10065
▁ाभिमुख	-10066
न्द्रिया	-10067
▁कर्त्ता	-10068
▁किंचिद्	-10069
▁कृत्रिम	-10070
▁तन्त्रे	-10071
▁दुर्लभः	-10072
▁पक्षस्य	-10073
▁प्रातर्	-10074
▁प्रतिभास	-10075
▁प्रयत्नं	-10076
▁राजपुत्र	-10077
ौप	-10078
दशः	-10079
भरण	-10080
▁एफ	-10081
▁ऑन	-10082
▁छं	-10083
▁नञ	-10084
क्यं	-10085
णादि	-10086
तिथि	-10087
रादि	-10088
वसाय	-10089
ुष्व	-10090
▁कोष	-10091
▁नुद	-10092
▁सहज	-10093
▁सुद	-10094
वृद्ध	-10095
व्यति	-10096
▁आरोप	-10097
▁कृतम	-10098
▁देहा	-10099
▁नराः	-10100
▁मेरु	-10101
▁हजार	-10102
प्रकाश	-10103
राजस्य	-10104
▁अनन्य	-10105
▁अन्वय	-10106
▁एवायं	-10107
▁त्यां	-10108
▁माहुः	-10109
▁सुराः	-10110
▁ाग्ने	-10111
ख्यानम्	-10112
भ्यन्तर	-10113
▁अनुवादः	-10114
▁ज्ञेयम्	-10115
▁निवेश्य	-10116
▁पुरुषाः	-10117
▁बाध्यते	-10118
▁भवत्याः	-10119
▁उपपद्यते	-10120
▁एतस्मात्	-10121
▁गन्तव्यं	-10122
▁मिलित्वा	-10123
▁सूत्राणि	-10124
▁पुरुषाणां	-10125
▁महत्त्वपूर्ण	-10126
चय	-10127
डल	-10128
बः	-10129
दिह	-10130
▁(←	-10131
घ्नं	-10132
ङ्गं	-10133
▁197	-10134
▁यैव	-10135
▁वचो	-10136
▁वशे	-10137
▁हते	-10138
▁हान	-10139
्याद्	-10140
▁अपां	-10141
▁अभयं	-10142
▁गिरः	-10143
▁यदपि	-10144
▁रज्ज	-10145
▁लाभं	-10146
▁खादति	-10147
▁द्रोण	-10148
▁पिष्ट	-10149
▁प्रसा	-10150
▁भाषया	-10151
▁शाब्द	-10152
▁अत्रैव	-10153
▁निशम्य	-10154
▁मूर्खः	-10155
▁वीर्यं	-10156
▁विशेषणं	-10157
▁शरीरस्य	-10158
▁दक्षिणेन	-10159
▁मन्दिरम्	-10160
▁विदित्वा	-10161
▁सर्वार्थ	-10162
▁अन्तर्जाल	-10163
▁युधिष्ठिर	-10164
▁समन्वितम्	-10165
▁विश्वामित्र	-10166
▁विश्वविद्यालये	-10167
ly	-10168
ायक	-10169
ासो	-10170
्यम	-10171
निति	-10172
▁ःथ्	-10173
▁अवय	-10174
▁एतत	-10175
▁गदा	-10176
▁नवे	-10177
▁लिए	-10178
▁पापे	-10179
▁भानु	-10180
▁मिता	-10181
▁मोदी	-10182
▁येति	-10183
▁वारा	-10184
▁शोभा	-10185
▁सुते	-10186
▁ाश्व	-10187
▁कन्नड	-10188
▁क्षमः	-10189
▁तद्वद	-10190
▁तीत्य	-10191
▁परिगण	-10192
▁मानम्	-10193
▁व्यसन	-10194
▁ःथ्द्य	-10195
▁परेषां	-10196
▁प्रभृत	-10197
▁भोक्ता	-10198
▁वसन्ति	-10199
▁श्रवणं	-10200
▁सिन्धु	-10201
▁कक्ष्या	-10202
▁त्वान्न	-10203
▁संबन्धि	-10204
▁प्रवृद्ध	-10205
ज्व	-10206
रोग	-10207
ावी	-10208
▁52	-10209
▁54	-10210
▁यण	-10211
▁सन	-10212
▁ेः	-10213
द्रं	-10214
ल्यं	-10215
शीति	-10216
▁पु॰	-10217
▁रेत	-10218
▁र्ण	-10219
क्रमं	-10220
त्पाद	-10221
▁इकाई	-10222
▁चलति	-10223
▁पाषा	-10224
▁भरतः	-10225
▁मधिक	-10226
▁यहां	-10227
▁रताः	-10228
▁रतिः	-10229
▁लिंग	-10230
▁शुक्	-10231
▁सुरु	-10232
▁हीना	-10233
दाहरणं	-10234
▁गीयते	-10235
▁जनयति	-10236
▁तरङ्ग	-10237
▁पुंसः	-10238
▁याम्य	-10239
▁वयस्य	-10240
▁संस्प	-10241
▁ाक्षर	-10242
▁ास्तु	-10243
ाम्यहम्	-10244
▁कीदृशी	-10245
▁ध्याना	-10246
▁पूजितः	-10247
▁लोकसभा	-10248
▁विधिर्	-10249
▁विश्वः	-10250
▁संख्ये	-10251
▁हितकाम	-10252
▁ोच्यते	-10253
▁एकवचनम्	-10254
▁पराक्रम	-10255
▁परिग्रह	-10256
▁प्रश्ने	-10257
▁प्राणाः	-10258
▁रुच्यते	-10259
▁वस्त्रं	-10260
▁विश्राम	-10261
▁विस्तृत	-10262
▁ान्तरेण	-10263
▁अन्तर्रा	-10264
▁क्षिप्रं	-10265
▁विस्तारः	-10266
▁संग्रामे	-10267
▁सूत्रस्य	-10268
▁स्वागतम्	-10269
▁नेपालभाषा	-10270
▁कुर्य्यात्	-10271
▁संस्कृतभाषा	-10272
ass	-10273
धुं	-10274
भवि	-10275
ामु	-10276
ेन्	-10277
▁3)	-10278
▁ic	-10279
कण्ठ	-10280
दीनि	-10281
मनाम	-10282
▁यज्	-10283
▁शिक	-10284
स्तदा	-10285
▁चरति	-10286
▁चेतन	-10287
▁ज्ञो	-10288
▁थाय्	-10289
▁नहिं	-10290
▁मनूत	-10291
▁मृगा	-10292
▁लिपा	-10293
▁वातः	-10294
▁Video	-10295
▁अद्भु	-10296
▁अपवाद	-10297
▁ग्रहो	-10298
▁ददातु	-10299
▁दिनेश	-10300
▁न्त्य	-10301
▁भूर्भ	-10302
▁वायुं	-10303
▁षष्ठे	-10304
ान्तरेण	-10305
▁आक्रमण	-10306
▁पीत्वा	-10307
▁योग्यं	-10308
▁लभन्ते	-10309
▁स्थायि	-10310
▁नान्यथा	-10311
▁पश्यामः	-10312
▁पुरुषेण	-10313
▁विदुषां	-10314
▁विद्यया	-10315
▁शाश्वतं	-10316
▁सर्व्वं	-10317
▁उत्पत्ति	-10318
▁कल्प्यते	-10319
▁त्यादिना	-10320
▁प्रकोष्ठ	-10321
▁वेबसाइटः	-10322
▁ेन्द्रिय	-10323
स्ट्रेलिया	-10324
▁निर्मितम्	-10325
▁कथयिष्यामि	-10326
▁विद्यार्थी	-10327
▁व्याख्यास्या	-10328
णक	-10329
क्ट	-10330
▁थी	-10331
क्रो	-10332
चितः	-10333
म्भः	-10334
ष्ठु	-10335
स्तर	-10336
ान्स	-10337
ालये	-10338
▁ऋते	-10339
▁कीट	-10340
▁घटे	-10341
▁लेन	-10342
▁वरी	-10343
▁सहा	-10344
▁हुं	-10345
▁िते	-10346
तंत्र	-10347
धानम्	-10348
विद्य	-10349
▁2012	-10350
▁धाये	-10351
▁पदवी	-10352
▁रोगः	-10353
श्रितः	-10354
▁अर्जु	-10355
▁कुष्ठ	-10356
▁क्षीण	-10357
▁धनानि	-10358
▁पतितं	-10359
▁पुच्छ	-10360
▁महिमा	-10361
▁लुब्ध	-10362
▁लेखाः	-10363
▁लेख्य	-10364
▁वन्दे	-10365
▁वर्णं	-10366
▁श्लेष	-10367
▁अकुर्व	-10368
▁नितरां	-10369
▁प्रियत	-10370
▁भक्ष्य	-10371
▁शून्ये	-10372
▁अतिशयेन	-10373
▁ऐश्वर्य	-10374
▁परिपक्व	-10375
▁रिपोर्ट	-10376
▁अध्यक्षः	-10377
▁दर्शितम्	-10378
▁प्रतिस्प	-10379
▁प्रभावेण	-10380
▁प्रसन्ना	-10381
▁युक्त्या	-10382
▁सर्वेषाम्	-10383
3.	-10384
II	-10385
XX	-10386
pt	-10387
चाल	-10388
झाव	-10389
▁es	-10390
itle	-10391
चक्र	-10392
पातः	-10393
प्रभ	-10394
श्वा	-10395
ादपि	-10396
▁जुष	-10397
▁पेन	-10398
▁वधू	-10399
▁ीयः	-10400
क्रोध	-10401
तव्यं	-10402
रोधेन	-10403
ैर्यं	-10404
▁कायः	-10405
▁घ्रा	-10406
▁दुने	-10407
▁पुलि	-10408
▁पृथु	-10409
▁बुभु	-10410
▁लोपो	-10411
▁विमु	-10412
▁ाम्य	-10413
रिक्तं	-10414
▁भगवद्	-10415
▁वर्यः	-10416
▁वृत्र	-10417
▁शय्या	-10418
▁सितम्	-10419
▁हेतवे	-10420
द्योगिक	-10421
ित्यादि	-10422
▁उत्सवः	-10423
▁ग्रामं	-10424
▁मुम्बई	-10425
▁यितुम्	-10426
▁रक्षित	-10427
▁विरोधे	-10428
▁Chapter	-10429
▁क्वचिद्	-10430
▁दर्शितं	-10431
▁रक्षणाय	-10432
▁विश्वतः	-10433
▁समाप्ता	-10434
▁सरस्वती	-10435
▁सम्बन्धो	-10436
▁सर्वमिदं	-10437
▁आगच्छन्ति	-10438
▁सम्बन्धित	-10439
▁पुरुषोत्तम	-10440
सै	-10441
ातं	-10442
्नी	-10443
▁ईष	-10444
▁थन	-10445
▁दॆ	-10446
▁ऽम	-10447
krit	-10448
load	-10449
द्वय	-10450
माला	-10451
मासे	-10452
म्ना	-10453
▁दिग	-10454
▁दुख	-10455
▁बां	-10456
▁भरे	-10457
▁म्̣	-10458
▁वनी	-10459
न्ध्र	-10460
योक्त	-10461
स्थाप	-10462
▁कयाः	-10463
▁कृद्	-10464
▁चरणं	-10465
▁पराश	-10466
▁यहाँ	-10467
▁हरिं	-10468
▁हिते	-10469
▁ऋत्वि	-10470
▁नार्थ	-10471
▁भक्तः	-10472
▁भाषिक	-10473
▁मुनयः	-10474
▁यूयम्	-10475
▁लङ्का	-10476
▁वेश्म	-10477
▁सनातन	-10478
ान्वितः	-10479
▁कर्तृत	-10480
▁कृतवान	-10481
▁तृष्णा	-10482
▁पत्रम्	-10483
▁प्रियो	-10484
▁आवृत्ति	-10485
▁कीर्त्त	-10486
▁क्रियया	-10487
▁प्रश्नं	-10488
▁यन्त्रं	-10489
▁लिप्यते	-10490
▁वर्जितः	-10491
▁स्थितिं	-10492
▁स्यान्न	-10493
▁व्यज्यते	-10494
▁संप्रसार	-10495
▁प्रतिषेधो	-10496
▁प्रेक्ष्य	-10497
ततः	-10498
दीय	-10499
पीड	-10500
महं	-10501
▁जञ	-10502
पाठः	-10503
ानाः	-10504
ितेः	-10505
▁अनव	-10506
▁जैन	-10507
▁तरे	-10508
▁पाट	-10509
▁येऽ	-10510
▁वपु	-10511
▁ुद्	-10512
त्मनः	-10513
देशिक	-10514
होत्र	-10515
िक्रम	-10516
▁चर्म	-10517
▁जनकः	-10518
▁पानं	-10519
▁भारी	-10520
▁भूया	-10521
▁रोहि	-10522
▁वयाः	-10523
त्तमाः	-10524
व्यापी	-10525
▁उक्ता	-10526
▁ग्रहा	-10527
▁ग्रहे	-10528
▁तदानी	-10529
▁तिरस्	-10530
▁दुर्म	-10531
▁परिणा	-10532
▁पशून्	-10533
▁मुहुः	-10534
▁सोऽहं	-10535
▁स्वकी	-10536
ऽस्मिन्	-10537
▁अपर्या	-10538
▁दिव्या	-10539
▁पापानि	-10540
▁भ्रष्ट	-10541
▁मर्हति	-10542
▁सुगन्ध	-10543
▁प्रागेव	-10544
▁मर्यादा	-10545
▁मिष्यते	-10546
▁ऐतिहासिक	-10547
▁युधिष्ठि	-10548
▁वृत्त्या	-10549
▁सङ्ग्राम	-10550
▁सर्वज्ञः	-10551
▁क्षेत्रम्	-10552
▁निपात्यते	-10553
▁करिष्यन्ति	-10554
▁मन्त्रिपरिष	-10555
यू	-10556
old	-10557
करा	-10558
पूर	-10559
▁ऊं	-10560
▁मॊ	-10561
चिता	-10562
ापति	-10563
▁अहः	-10564
▁धाय	-10565
▁पुल	-10566
▁शाक	-10567
▁ौषध	-10568
भूयते	-10569
ष्यसि	-10570
ान्ता	-10571
ुक्तः	-10572
▁आरोह	-10573
▁गावो	-10574
▁घटते	-10575
▁दृढं	-10576
▁नात्	-10577
▁न्तं	-10578
▁विनय	-10579
▁सेतु	-10580
संज्ञा	-10581
▁अधिकः	-10582
▁कामये	-10583
▁छन्दो	-10584
▁निःसं	-10585
▁पतिर्	-10586
▁भाषते	-10587
▁मोदते	-10588
▁वर्षः	-10589
▁व्यवह	-10590
प्रत्यय	-10591
▁अनुप्र	-10592
▁उपयोगं	-10593
▁कृष्णा	-10594
▁गच्छन्	-10595
▁पर्व्व	-10596
▁पश्यसि	-10597
▁प्रययौ	-10598
▁प्रष्ट	-10599
▁बहुवचन	-10600
▁स्नाना	-10601
▁ाद्याः	-10602
▁इन्द्रो	-10603
▁जिज्ञास	-10604
▁निरुद्ध	-10605
▁युक्ताः	-10606
▁शस्त्रं	-10607
▁सर्वासां	-10608
▁नियन्त्रण	-10609
▁समुद्रस्य	-10610
पट	-10611
सभ	-10612
जनं	-10613
▁qu	-10614
▁ए॒	-10615
▁कह	-10616
▁नख	-10617
▁शप	-10618
पिका	-10619
बलय्	-10620
भूषण	-10621
▁ISO	-10622
▁ago	-10623
▁अब्	-10624
▁चयन	-10625
▁चोप	-10626
▁तदे	-10627
▁न्ध	-10628
▁रथे	-10629
पत्रं	-10630
पद्ये	-10631
▁अवधि	-10632
▁तद्र	-10633
▁तमहं	-10634
▁प्रल	-10635
▁भूति	-10636
▁श्रृ	-10637
▁सुखा	-10638
▁ऽभ्य	-10639
▁२०१३	-10640
▁एतान्	-10641
▁कार्ष	-10642
▁ताम्र	-10643
▁पश्यत	-10644
▁भाण्ड	-10645
▁मुखेन	-10646
▁विद्ध	-10647
▁विभ्र	-10648
▁चित्वा	-10649
▁जातानि	-10650
▁तिस्रो	-10651
▁धृत्वा	-10652
▁नित्ये	-10653
▁पीडितः	-10654
▁प्रारं	-10655
▁मास्तु	-10656
▁ास्त्र	-10657
▁पद्धतिः	-10658
▁मित्राव	-10659
▁यस्माद्	-10660
▁वन्यजीव	-10661
▁श्रोत्र	-10662
▁समुद्रा	-10663
▁कदाचिदपि	-10664
▁निमन्त्र	-10665
▁भारतीयाः	-10666
▁माप्नोति	-10667
▁शास्त्रा	-10668
▁िष्यन्ति	-10669
मयः	-10670
ुस्	-10671
▁अघ	-10672
▁म०	-10673
रक्ष	-10674
▁आहो	-10675
▁कुट	-10676
▁खिल	-10677
▁तनू	-10678
▁मनू	-10679
▁मयू	-10680
▁िणः	-10681
भ्यास	-10682
▁अपरे	-10683
▁उज्ज	-10684
▁उभयं	-10685
▁च्वं	-10686
▁जुहु	-10687
▁नौका	-10688
▁पतित	-10689
▁भावी	-10690
▁भेषज	-10691
▁मत्त	-10692
▁मिथः	-10693
▁ोच्च	-10694
राज्ये	-10695
▁अनर्थ	-10696
▁इहापि	-10697
▁कृतां	-10698
▁गोपाल	-10699
▁चरेत्	-10700
▁नात्म	-10701
▁नितिं	-10702
▁यायेत	-10703
▁शक्यो	-10704
▁साधना	-10705
▁अभिगमन	-10706
▁बाह्ये	-10707
▁श्रुतौ	-10708
▁स्येति	-10709
▁कृतार्थ	-10710
▁त्रिगुण	-10711
▁प्राज्ञ	-10712
▁सृष्टिः	-10713
▁ात्मानं	-10714
▁निश्चयेन	-10715
▁प्रतिरोध	-10716
▁ब्रूयात्	-10717
▁समीक्ष्य	-10718
▁परिसन्धयः	-10719
▁प्रतियोगि	-10720
▁प्रपद्यते	-10721
▁मध्याह्ने	-10722
▁सम्बध्यते	-10723
translation	-10724
▁बुद्धिमान्	-10725
▁प्रतिषिध्यते	-10726
॒न	-10727
ूषा	-10728
▁गग	-10729
▁सध	-10730
▁िर	-10731
यन्त	-10732
युगे	-10733
▁14.	-10734
▁एक्	-10735
▁रजो	-10736
▁शंस	-10737
▁इंडि	-10738
▁कहीं	-10739
▁चितः	-10740
▁जगाद	-10741
▁धर्ष	-10742
▁निति	-10743
▁बहिर	-10744
▁मदीय	-10745
▁यात्	-10746
▁सुतो	-10747
पुस्तक	-10748
▁एकदेश	-10749
▁भक्ता	-10750
▁श्येन	-10751
▁समानः	-10752
▁सहयोग	-10753
▁सेवते	-10754
▁स्तां	-10755
▁ार्था	-10756
वृत्तिः	-10757
▁किमर्थ	-10758
▁दीर्घा	-10759
▁भक्तिः	-10760
▁वत्र्त	-10761
▁ेत्याह	-10762
काङ्क्षा	-10763
▁परमेष्ठ	-10764
▁ार्थस्य	-10765
▁कार्य्यं	-10766
▁पुस्तकम्	-10767
▁स्वरूपेण	-10768
▁द्रष्टुम्	-10769
▁पूर्वपक्ष	-10770
▁प्रत्ययेन	-10771
▁विचिन्त्य	-10772
▁ेत्यादिना	-10773
▁प्रकल्पयेत्	-10774
log	-10775
जनक	-10776
धरः	-10777
पुट	-10778
समु	-10779
▁(8	-10780
▁चत	-10781
▁डु	-10782
▁िम	-10783
▁ेद	-10784
नादि	-10785
नेगु	-10786
स्थो	-10787
ाहिक	-10788
▁अवत	-10789
▁गणा	-10790
▁मृद	-10791
▁वैय	-10792
▁संम	-10793
च्येत	-10794
दीर्घ	-10795
ान्तो	-10796
▁2011	-10797
▁अवसर	-10798
▁जायत	-10799
▁निवस	-10800
▁मुखः	-10801
▁मृषा	-10802
▁वाता	-10803
▁शश्व	-10804
▁ऽद्य	-10805
▁कुसुम	-10806
▁तद्भव	-10807
▁द्यूत	-10808
▁पारम्	-10809
▁यत्नः	-10810
▁संशयो	-10811
▁संसदि	-10812
▁सेनां	-10813
▁ाविति	-10814
▁अन्येन	-10815
▁पशूनां	-10816
▁पुनर्न	-10817
▁विज्ञा	-10818
▁स्पन्द	-10819
▁ान्तर्	-10820
▁उदाहरणं	-10821
▁ग्रन्था	-10822
▁दक्षिणो	-10823
▁पार्वती	-10824
▁संस्थया	-10825
▁सिंहस्य	-10826
▁अनिवार्य	-10827
▁दुर्घटना	-10828
▁द्विविधं	-10829
18	-10830
जत	-10831
केश	-10832
चीन	-10833
जते	-10834
▁te	-10835
▁आँ	-10836
▁षो	-10837
पीसी	-10838
र्षभ	-10839
सागर	-10840
▁दरॊ	-10841
▁नाः	-10842
▁पेय	-10843
▁मतु	-10844
▁मथा	-10845
▁मनस	-10846
▁वता	-10847
▁वेल	-10848
▁हूं	-10849
नक्ति	-10850
पिण्ड	-10851
▁काकः	-10852
▁किरण	-10853
▁त्रु	-10854
▁पादं	-10855
▁मन्थ	-10856
▁रूपम	-10857
▁लोपे	-10858
▁विदा	-10859
▁समनु	-10860
▁सायु	-10861
▁सुदृ	-10862
▁ावपि	-10863
▁आस्ते	-10864
▁केवला	-10865
▁तोऽपि	-10866
▁धीमहि	-10867
▁नामधे	-10868
▁परत्य	-10869
▁भार्ग	-10870
▁वाऽपि	-10871
▁व्यम्	-10872
▁कामयते	-10873
▁गृहस्य	-10874
▁तथोक्त	-10875
▁पर्वता	-10876
▁भूतकाल	-10877
▁योगिनः	-10878
▁वर्त्म	-10879
▁व्यर्थ	-10880
▁शुभकाम	-10881
▁स्थिरा	-10882
▁स्पेनि	-10883
▁अभिभाषण	-10884
▁त्यजेत्	-10885
▁देव्याः	-10886
▁इत्याद्य	-10887
▁उत्पद्यते	-10888
▁इत्यस्माद्	-10889
▁व्यावहारिक	-10890
डो	-10891
फे	-10892
--"	-10893
iew	-10894
कनं	-10895
णिं	-10896
मयं	-10897
ुषः	-10898
ुषि	-10899
▁इष	-10900
पराय	-10901
ष्णः	-10902
ष्या	-10903
स्टम	-10904
▁औरत	-10905
▁कल्	-10906
▁कास	-10907
▁रोध	-10908
▁वसे	-10909
▁ोऽथ	-10910
त्रयं	-10911
भ्यते	-10912
शुल्क	-10913
▁इण्ड	-10914
▁ऋषयः	-10915
▁तल्ल	-10916
▁मरणे	-10917
▁मर्म	-10918
▁रमणी	-10919
▁सच्च	-10920
▁सहैव	-10921
▁ात्र	-10922
▁क्रमो	-10923
▁गतेषु	-10924
▁गुरुं	-10925
▁नष्टं	-10926
▁लुप्त	-10927
▁वाचकः	-10928
▁वेदाः	-10929
▁सहभाग	-10930
शक्त्या	-10931
▁आत्मनि	-10932
▁तत्तद्	-10933
▁सूर्ये	-10934
▁लक्षयति	-10935
▁स्त्वया	-10936
▁स्थापनं	-10937
▁स्वधर्म	-10938
▁अन्योन्य	-10939
▁मातृभाषा	-10940
▁पुनर्जन्म	-10941
▁प्रदेशस्य	-10942
▁प्रविष्टा	-10943
▁स्थापयेत्	-10944
▁स्वेच्छया	-10945
▁पदार्थानां	-10946
ind	-10947
अभि	-10948
पाय	-10949
ल्ब	-10950
▁66	-10951
▁मग	-10952
▁८२	-10953
त्यै	-10954
ष्णं	-10955
▁500	-10956
▁तरो	-10957
▁वेन	-10958
▁संप	-10959
▁स्स	-10960
▁हल्	-10961
▁१०१	-10962
पित्त	-10963
विश्व	-10964
▁देय्	-10965
▁द्रौ	-10966
▁राहु	-10967
▁शिवे	-10968
▁सरला	-10969
▁सर्ज	-10970
▁हानं	-10971
▁ीयम्	-10972
▁ोद्ध	-10973
▁Categ	-10974
▁तावन्	-10975
▁धातवः	-10976
▁न्तर्	-10977
▁ब्रुव	-10978
▁विषयक	-10979
▁ाग्रे	-10980
anskrit	-10981
क्ष्यति	-10982
क्ष्यते	-10983
▁गृहेषु	-10984
▁तीर्थे	-10985
▁त्वान्	-10986
▁दुर्यो	-10987
▁शक्त्य	-10988
▁श्चेत्	-10989
▁हन्तुं	-10990
▁उदाहरणः	-10991
▁जीवन्ति	-10992
▁महाबाहो	-10993
▁मुक्तिं	-10994
▁विकल्पो	-10995
▁स्वीकार	-10996
▁ग्राह्यं	-10997
▁सम्भावना	-10998
▁साक्षरता	-10999
▁स्पष्टम्	-11000
▁क्रियन्ते	-11001
▁प्राणायाम	-11002
▁वक्ष्यमाण	-11003
▁सम्प्रदाय	-11004
ॉल	-11005
ast	-11006
गरे	-11007
ीत्	-11008
▁ex	-11009
▁अझ	-11010
▁शॊ	-11011
करणे	-11012
णिमा	-11013
ब्धे	-11014
राद्	-11015
षेधा	-11016
सम्म	-11017
ीर्य	-11018
्लाद	-11019
▁195	-11020
▁per	-11021
▁अजा	-11022
▁र्ह	-11023
▁ारा	-11024
▁ेणा	-11025
श्वास	-11026
हत्या	-11027
▁अपरः	-11028
▁एससी	-11029
▁पुना	-11030
▁मनोह	-11031
▁शिखा	-11032
▁हरुः	-11033
▁२०१६	-11034
▁किन्त	-11035
▁जज्ञे	-11036
▁नियाम	-11037
▁परत्र	-11038
▁परिचय	-11039
▁संहार	-11040
▁हीयते	-11041
ownload	-11042
श्वर्यं	-11043
▁अभिमान	-11044
▁अर्द्ध	-11045
▁अस्त्य	-11046
▁उत्थाय	-11047
▁निबोधत	-11048
▁पुराणे	-11049
▁बन्धुः	-11050
▁बाल्ये	-11051
▁राजस्य	-11052
▁श्रेयो	-11053
▁समस्तं	-11054
▁स्वादु	-11055
▁ोक्तम्	-11056
▁आन्तरिक	-11057
▁उत्तमम्	-11058
▁कुर्वते	-11059
▁निरीक्ष	-11060
▁निष्पाद	-11061
▁भवतीत्य	-11062
▁विभागेन	-11063
▁विवक्षा	-11064
▁स्वरूपे	-11065
▁अध्यात्म	-11066
▁पूर्वकम्	-11067
▁भूर्भुवः	-11068
▁विचक्षणः	-11069
▁विविधानि	-11070
▁क्रीडायां	-11071
▁प्रकर्षेण	-11072
▁प्रत्यक्षा	-11073
▁द्यावापृथिवी	-11074
कुम	-11075
▁.)	-11076
▁et	-11077
▁दँ	-11078
▁वट	-11079
गुरु	-11080
न्तन	-11081
सेवा	-11082
▁अलि	-11083
▁मिष	-11084
▁सतो	-11085
▁ाशु	-11086
▁िकः	-11087
▁ेयं	-11088
न्यत्	-11089
र्घ्य	-11090
विधिः	-11091
▁धुआं	-11092
▁नद्य	-11093
▁नासा	-11094
▁न्ती	-11095
▁पूरण	-11096
▁भारः	-11097
▁भृशं	-11098
▁महाव	-11099
▁मूले	-11100
▁रश्म	-11101
▁वइगु	-11102
▁स्मः	-11103
▁ोपाय	-11104
▁्यम्	-11105
▁एवमपि	-11106
▁त्रिः	-11107
▁निखिल	-11108
▁पर्यं	-11109
▁मभवत्	-11110
▁शिरसि	-11111
▁सम्रा	-11112
▁आईपीसी	-11113
▁एकाग्र	-11114
▁गायत्र	-11115
▁ग्रामः	-11116
▁त्वरित	-11117
▁पर्वते	-11118
▁पाण्डव	-11119
▁भिन्नः	-11120
▁सुष्ठु	-11121
▁िन्द्र	-11122
न्द्रियः	-11123
▁आचार्यः	-11124
▁आवश्यकः	-11125
▁इत्यमरः	-11126
▁प्रवेशे	-11127
▁मुक्तम्	-11128
▁समुद्री	-11129
▁ाध्यक्ष	-11130
▁प्राप्नो	-11131
▁स्त्रियं	-11132
▁क्रियताम्	-11133
▁प्रत्यभिज्ञा	-11134
छि	-11135
छु	-11136
२१	-11137
नाह	-11138
सीं	-11139
हन्	-11140
्र्	-11141
▁99	-11142
▁थो	-11143
भाषे	-11144
्र्य	-11145
▁आनु	-11146
▁घटक	-11147
▁तीर	-11148
▁यॊग	-11149
द्वयं	-11150
र्तते	-11151
▁आदित	-11152
▁कतमः	-11153
▁गाथा	-11154
▁टैगः	-11155
▁तीरे	-11156
▁पचति	-11157
▁विनो	-11158
▁सख्य	-11159
▁िकाः	-11160
भवन्ति	-11161
रात्रि	-11162
▁अक्षय	-11163
▁आवयोः	-11164
▁चेतसा	-11165
▁जातीय	-11166
▁ध्वंस	-11167
▁निराम	-11168
▁रुद्ध	-11169
▁शुष्क	-11170
▁सर्पि	-11171
▁साधने	-11172
▁स्वजन	-11173
च्चित्र	-11174
▁अप्रति	-11175
▁ज्ञाति	-11176
▁नीत्वा	-11177
▁भावस्य	-11178
▁भिन्ना	-11179
▁यथेष्ट	-11180
▁वरानने	-11181
▁विस्तर	-11182
▁स्थायी	-11183
▁स्वदेश	-11184
▁हेतुर्	-11185
▁कृच्छ्र	-11186
▁क्रीडति	-11187
▁गन्धर्व	-11188
▁वैराग्य	-11189
▁अब्रवीत्	-11190
▁गुणवत्ता	-11191
▁त्रिविधं	-11192
▁नौकरियां	-11193
▁सिद्धिर्	-11194
▁निवेशयेत्	-11195
▁प्रसज्येत	-11196
ंह	-11197
तॊ	-11198
मौ	-11199
ुण	-11200
॑त	-11201
५०	-11202
मनं	-11203
वाई	-11204
ांस	-11205
ुका	-11206
▁-2	-11207
▁68	-11208
▁मॆ	-11209
कोटि	-11210
ञ्चि	-11211
म्बा	-11212
ाल्य	-11213
▁ग्व	-11214
▁भवि	-11215
▁लयं	-11216
▁वैष	-11217
▁शते	-11218
▁सभी	-11219
अस्ति	-11220
तायाः	-11221
बन्धः	-11222
▁दाना	-11223
▁धाता	-11224
▁नर्त	-11225
▁मत्स	-11226
▁वंगु	-11227
▁सारः	-11228
▁ऽष्ट	-11229
▁ास्य	-11230
▁ोपाद	-11231
▁२०१४	-11232
▁अकर्म	-11233
▁अन्यं	-11234
▁अस्मै	-11235
▁इमानि	-11236
▁उपाधि	-11237
▁गात्र	-11238
▁त्रुट	-11239
▁नारदः	-11240
▁भूतम्	-11241
▁र्द्ध	-11242
▁व्यती	-11243
▁सकृत्	-11244
▁स्ताव	-11245
▁कश्मीर	-11246
▁धर्माः	-11247
▁सम्पत्	-11248
▁स्थावर	-11249
▁ादित्य	-11250
▁अव्ययम्	-11251
▁गुरुवार	-11252
▁जनानाम्	-11253
▁पृथिवीप	-11254
▁प्रथमम्	-11255
▁प्रयासः	-11256
▁विकल्पे	-11257
▁सप्ताहं	-11258
▁सम्भवतः	-11259
▁अपेक्षया	-11260
▁चन्द्रमा	-11261
▁दास्यामि	-11262
▁निगद्यते	-11263
▁भारतदेशे	-11264
▁सर्वकारस्य	-11265
▁सामान्यतया	-11266
ix	-11267
oc	-11268
ढं	-11269
▁Z	-11270
णिः	-11271
न्ट	-11272
लाल	-11273
▁बस	-11274
▁ैष	-11275
केतः	-11276
क्षः	-11277
गानि	-11278
दिदं	-11279
▁man	-11280
▁अमी	-11281
▁कोड	-11282
▁त्थ	-11283
▁दाः	-11284
▁दाम	-11285
▁मेद	-11286
▁लप्	-11287
▁लाव	-11288
▁वैर	-11289
चार्य	-11290
पन्नो	-11291
प्रिय	-11292
योग्य	-11293
▁गावः	-11294
▁मतिं	-11295
▁वध्य	-11296
▁शिशि	-11297
▁ाच्छ	-11298
▁िनां	-11299
स्फीति	-11300
▁years	-11301
▁कोऽयं	-11302
▁क्षिप	-11303
▁न्तरे	-11304
▁पुनरे	-11305
▁पूरुष	-11306
▁प्रौढ	-11307
▁बाध्य	-11308
▁युञ्ज	-11309
▁र्त्त	-11310
▁वनवास	-11311
▁वीक्ष	-11312
▁स्वेद	-11313
▁ाकारं	-11314
▁चैतन्य	-11315
▁जीवस्य	-11316
▁तत्क्ष	-11317
▁त्यागः	-11318
▁परिषद्	-11319
▁प्रणाल	-11320
▁भवत्या	-11321
▁यज्ञेन	-11322
▁वर्गःः	-11323
▁समक्षं	-11324
▁उच्चारण	-11325
▁युद्धम्	-11326
▁साक्षाद	-11327
▁सुषुप्त	-11328
▁सैनिकाः	-11329
▁कर्तव्यो	-11330
▁निर्मितं	-11331
▁विकिपीडि	-11332
▁तमवर्षस्य	-11333
▁प्रशस्तिः	-11334
▁सामर्थ्यं	-11335
▁पुरस्कृत्य	-11336
▁प्रतिषिद्ध	-11337
नत	-11338
०७	-11339
com	-11340
ist	-11341
िनं	-11342
▁ाण	-11343
धिका	-11344
येगु	-11345
स्वर	-11346
ुपरि	-11347
▁गौः	-11348
▁दलं	-11349
▁भवो	-11350
▁वशा	-11351
▁शृग	-11352
▁समन	-11353
▁समर	-11354
▁सरः	-11355
▁ाच्	-11356
ग्राह	-11357
स्वीर	-11358
ारण्य	-11359
▁अतस्	-11360
▁असति	-11361
▁इतेि	-11362
▁तमसा	-11363
▁त्य्	-11364
▁न्ये	-11365
▁भारं	-11366
▁यथाह	-11367
▁युता	-11368
▁रावण	-11369
▁वासं	-11370
▁शोभन	-11371
▁ष्व्	-11372
▁हंसः	-11373
▁अथापि	-11374
▁उद्यो	-11375
▁कियत्	-11376
▁डोमेन	-11377
▁दुकान	-11378
▁दुर्ज	-11379
▁द्रुत	-11380
▁नवीनं	-11381
▁मिष्ट	-11382
▁ार्थी	-11383
ुक्त्वा	-11384
▁इच्छसि	-11385
▁कारकम्	-11386
▁द्वारि	-11387
▁निरूपण	-11388
▁विषयम्	-11389
प्रेक्षा	-11390
▁आगतवान्	-11391
▁दरिद्रा	-11392
▁निर्वाह	-11393
▁पश्येत्	-11394
▁राजभाषा	-11395
▁व्यतिरे	-11396
▁स्वरूपा	-11397
▁उत्तिष्ठ	-11398
▁क्रियायां	-11399
▁प्रतिषेधे	-11400
ंत	-11401
ख्	-11402
ile	-11403
उगु	-11404
वर्	-11405
ोषण	-11406
▁av	-11407
▁bo	-11408
▁no	-11409
▁षट	-11410
▁ीत	-11411
▁८३	-11412
कामं	-11413
क्के	-11414
ण्डल	-11415
भ्रम	-11416
म्बू	-11417
येति	-11418
रूपे	-11419
वचनं	-11420
ांस्	-11421
ामपि	-11422
ोपाय	-11423
▁02:	-11424
▁05:	-11425
▁अये	-11426
▁भैर	-11427
▁मर्	-11428
▁यच्	-11429
▁रजत	-11430
▁१८८	-11431
त्तरे	-11432
▁sent	-11433
▁तयाः	-11434
▁धेहि	-11435
▁पापा	-11436
▁मारी	-11437
▁विशा	-11438
▁वृषभ	-11439
▁शिखर	-11440
युक्तः	-11441
सम्भाष	-11442
▁चुनाव	-11443
▁त्रिक	-11444
▁नद्या	-11445
▁फलेषु	-11446
▁भवेन्	-11447
▁भूगोल	-11448
▁भूमेः	-11449
▁सार्थ	-11450
▁ोत्तम	-11451
क्षाणां	-11452
▁अवकाशः	-11453
▁आत्मान	-11454
▁इत्येक	-11455
▁तदभावे	-11456
▁ब्रिटि	-11457
▁मंत्रि	-11458
▁यस्त्व	-11459
▁वस्त्व	-11460
▁संघर्ष	-11461
▁सांप्र	-11462
▁ात्मान	-11463
▁भाषितम्	-11464
▁वक्तुम्	-11465
▁समाधानं	-11466
▁स्पष्टं	-11467
▁अहोरात्र	-11468
▁कर्त्तरि	-11469
▁दक्षिणतः	-11470
▁वृत्तिर्	-11471
▁व्यक्तिः	-11472
▁शीघ्रमेव	-11473
▁संयुक्तः	-11474
▁स्थापितः	-11475
▁सर्वकारेण	-11476
▁अन्तरिक्षे	-11477
▁वस्तुतस्तु	-11478
यल	-11479
ॊर	-11480
०९	-11481
म्स	-11482
वोच	-11483
ृतो	-11484
▁(*	-11485
▁्स	-11486
कारक	-11487
नोति	-11488
माता	-11489
वतां	-11490
▁()?	-11491
▁अया	-11492
▁अवश	-11493
▁इनि	-11494
▁कोक	-11495
▁पठन	-11496
▁महः	-11497
▁यदृ	-11498
▁वरे	-11499
▁वाल	-11500
▁सुस	-11501
्यर्थ	-11502
▁ङ्गु	-11503
▁चरित	-11504
▁चान्	-11505
▁छाय्	-11506
▁जानि	-11507
▁दे॒व	-11508
▁मोहं	-11509
▁वामं	-11510
▁शयने	-11511
▁ामहे	-11512
▁२०००	-11513
न्याया	-11514
स्त्रि	-11515
ाम्यति	-11516
▁करणीय	-11517
▁तत्पर	-11518
▁तद्वा	-11519
▁पुण्ड	-11520
▁महात्	-11521
▁यथावद	-11522
▁वचनेन	-11523
▁समक्ष	-11524
▁ऽस्तु	-11525
प्रायेण	-11526
▁न्यस्य	-11527
▁भेदात्	-11528
▁राजकीय	-11529
▁ात्मनि	-11530
▁ानुकूल	-11531
▁ान्यपि	-11532
मिच्छामि	-11533
▁एतस्याः	-11534
▁दिनाङ्क	-11535
▁लिखितम्	-11536
▁सितम्बर	-11537
▁अध्यापकः	-11538
▁तस्मान्न	-11539
▁मनुष्याः	-11540
▁सायंकाले	-11541
▁कुत्रचित्	-11542
▁नोपपद्यते	-11543
▁प्रवृत्ते	-11544
▁निम्नलिखित	-11545
▁प्रतिगृह्य	-11546
▁प्रसङ्गात्	-11547
▁विज्ञानस्य	-11548
▁¦	-11549
-4-	-11550
तूह	-11551
▁>#	-11552
▁le	-11553
▁धः	-11554
जाति	-11555
निया	-11556
न्हु	-11557
▁III	-11558
▁con	-11559
▁जम्	-11560
▁ठक्	-11561
▁णम्	-11562
▁दिं	-11563
▁धूप	-11564
▁नीर	-11565
ग्रतः	-11566
ज्यम्	-11567
भावेन	-11568
ारभ्य	-11569
▁एकोन	-11570
▁जीवो	-11571
▁नैवा	-11572
▁ब्या	-11573
▁भट्ट	-11574
▁वालि	-11575
▁शीतल	-11576
▁सेयं	-11577
▁एतयोः	-11578
▁तदिति	-11579
▁तायां	-11580
▁दुःखा	-11581
▁पक्षं	-11582
▁पूरयत	-11583
▁प्रजन	-11584
▁प्रीय	-11585
▁मुखम्	-11586
▁मूलतः	-11587
▁वन्तं	-11588
▁संश्र	-11589
▁समस्य	-11590
▁स्नात	-11591
्रुत्वा	-11592
▁क्रिके	-11593
▁गृहीतः	-11594
▁ज्ञानी	-11595
▁तत्प्र	-11596
▁दीर्घो	-11597
▁मध्यमं	-11598
▁मध्यमे	-11599
▁विभागं	-11600
▁विशेषं	-11601
▁वीक्षण	-11602
▁ात्मनो	-11603
▁इत्यर्थ	-11604
▁दर्शनेन	-11605
▁निर्यात	-11606
▁निष्कास	-11607
▁भवेदिति	-11608
▁वस्तुनः	-11609
▁उद्दिश्य	-11610
▁कर्तृत्व	-11611
▁निमित्तम्	-11612
▁मुद्दिश्य	-11613
▁शास्त्रीय	-11614
▁प्रविशन्ति	-11615
▁बोधिसत्त्व	-11616
▁व्याख्यास्यामः	-11617
▁संप्रवक्ष्यामि	-11618
चत	-11619
तल	-11620
ife	-11621
ज्झ	-11622
तयः	-11623
दति	-11624
दरा	-11625
रीर	-11626
शयं	-11627
ोधन	-11628
▁TV	-11629
▁sp	-11630
▁एल	-11631
▁दइ	-11632
▁नई	-11633
▁िद	-11634
टीसी	-11635
यज्ञ	-11636
वाचक	-11637
श्री	-11638
▁कूल	-11639
▁तटे	-11640
▁तैव	-11641
▁बले	-11642
▁भरा	-11643
▁योध	-11644
▁रम्	-11645
▁वसो	-11646
▁संद	-11647
▁ऽयम	-11648
▁ाज्	-11649
धान्य	-11650
धिकृत	-11651
भारते	-11652
सारेण	-11653
हार्य	-11654
▁एतैः	-11655
▁करेण	-11656
▁कषाय	-11657
▁खोजः	-11658
▁गौतम	-11659
▁मित्	-11660
▁मिमं	-11661
▁यजेत	-11662
▁सुखे	-11663
▁स्थग	-11664
▁हेतौ	-11665
▁उपायः	-11666
▁एप्रि	-11667
▁तत्ते	-11668
▁नयेत्	-11669
▁नामकः	-11670
▁पितरो	-11671
▁मृत्त	-11672
▁रामेण	-11673
▁व्यवस	-11674
ध्यात्म	-11675
▁अपूर्व	-11676
▁काव्ये	-11677
▁नवीनतम	-11678
▁याज्ञव	-11679
▁व्यङ्ग	-11680
▁श्रुता	-11681
▁सुखिनः	-11682
▁चित्रम्	-11683
▁निरन्तर	-11684
▁विनिश्च	-11685
▁समुद्रः	-11686
▁अकुर्वन्	-11687
▁चित्राणि	-11688
▁प्रवेष्ट	-11689
▁विभागस्य	-11690
▁विवक्षित	-11691
▁श्रूयतां	-11692
▁द्वाभ्यां	-11693
▁निर्माणम्	-11694
▁प्रतिपादन	-11695
▁प्राप्नोत्	-11696
▁सर्वेषामेव	-11697
7.	-11698
मृ	-11699
-3-	-11700
नोः	-11701
श्ल	-11702
षट्	-11703
▁1,	-11704
ग्यं	-11705
नाया	-11706
युर्	-11707
▁कलश	-11708
▁तुष	-11709
▁माँ	-11710
▁ल्प	-11711
▁िणी	-11712
▁ोदय	-11713
▁१०८	-11714
▁१०९	-11715
पृथक्	-11716
र्वाद	-11717
ुष्यं	-11718
▁चिह्	-11719
▁जागर	-11720
▁त्यो	-11721
▁दस्त	-11722
▁पीछे	-11723
▁पोषण	-11724
▁र्वा	-11725
▁लङ्क	-11726
▁वासो	-11727
▁सिक्	-11728
▁ऽर्थ	-11729
▁ादिक	-11730
▁ानपि	-11731
▁आकर्ष	-11732
▁उदेति	-11733
▁कौतूह	-11734
▁क्वचि	-11735
▁क्षयः	-11736
▁चैत्र	-11737
▁दोषेण	-11738
▁धीमता	-11739
▁पाञ्च	-11740
▁पौत्र	-11741
▁मार्क	-11742
▁योगतः	-11743
▁वृन्द	-11744
▁सलिलं	-11745
▁स्वाह	-11746
▁अग्नेः	-11747
▁क्षणिक	-11748
▁गुमनाम	-11749
▁तथाऽपि	-11750
▁प्राणी	-11751
▁बहुभिः	-11752
▁भिन्नं	-11753
▁मध्यमः	-11754
▁श्रवणे	-11755
▁ाध्ययन	-11756
▁अवधारणा	-11757
▁क्षमस्व	-11758
▁तीक्ष्ण	-11759
▁दद्याद्	-11760
▁विक्षेप	-11761
▁संक्रमण	-11762
▁समुद्रं	-11763
▁सर्वैर्	-11764
▁सर्व्वा	-11765
▁स्थातुं	-11766
▁दिष्ट्या	-11767
▁प्रतीत्य	-11768
▁प्रार्थय	-11769
▁दृष्टवान्	-11770
▁निरीक्ष्य	-11771
▁प्रत्युत्	-11772
▁प्रमुच्यते	-11773
▁हितकाम्यया	-11774
▁प्राधान्येन	-11775
२२	-11776
▁×	-11777
चनः	-11778
दये	-11779
मसि	-11780
ीता	-11781
▁pr	-11782
▁अट	-11783
▁ईर	-11784
▁कश	-11785
भागः	-11786
सिंह	-11787
िकरण	-11788
▁(10	-11789
▁गया	-11790
▁जयं	-11791
▁नाह	-11792
▁पढ़	-11793
▁रिष	-11794
▁सतत	-11795
जातीय	-11796
देश्य	-11797
न्तुं	-11798
▁Indi	-11799
▁कर्क	-11800
▁चण्ड	-11801
▁चायं	-11802
▁चैवं	-11803
▁टङ्क	-11804
▁देशा	-11805
▁धनुः	-11806
▁नादि	-11807
▁परैः	-11808
▁पशुप	-11809
▁भुवन	-11810
▁मुखा	-11811
▁युते	-11812
▁शिथि	-11813
▁सकला	-11814
▁सुमह	-11815
पद्येत	-11816
ादीनां	-11817
ीर्यते	-11818
▁अपहरण	-11819
▁आंग्ल	-11820
▁उक्ते	-11821
▁कथितो	-11822
▁जातिः	-11823
▁त्रित	-11824
▁देशय्	-11825
▁पर्यट	-11826
▁भुञ्ज	-11827
▁वन्तो	-11828
▁समूहे	-11829
▁सहिता	-11830
▁कथयस्व	-11831
▁गृहाणि	-11832
▁चान्ये	-11833
▁मेदिनी	-11834
▁यत्किं	-11835
▁विकारः	-11836
▁विवादः	-11837
▁शत्रुं	-11838
▁शिष्यः	-11839
▁सङ्ख्य	-11840
भ्यन्तरे	-11841
▁अमेरिक्	-11842
▁कर्णाटक	-11843
▁कर्मभिः	-11844
▁तिष्ठन्	-11845
▁मात्मनः	-11846
▁योगिनां	-11847
▁विधानम्	-11848
▁श्रोतुं	-11849
▁ादीनाम्	-11850
▁आवाहयामि	-11851
▁ग्रन्थाः	-11852
▁ोत्पत्ति	-11853
▁निवेदयेत्	-11854
▁व्यवस्थित	-11855
▁संहितायां	-11856
▁शास्त्राणि	-11857
▁स्थापयित्वा	-11858
धम	-11859
वण	-11860
॑व	-11861
ics	-11862
कोष	-11863
तमो	-11864
हीन	-11865
▁Un	-11866
▁उ॒	-11867
▁णु	-11868
▁षी	-11869
...]	-11870
ङ्कर	-11871
र्तु	-11872
लब्ध	-11873
ागतः	-11874
▁आलो	-11875
▁उदय	-11876
▁एहि	-11877
▁कनक	-11878
▁जवा	-11879
▁भजे	-11880
▁मिद	-11881
स्तत्	-11882
ादेशे	-11883
▁केतु	-11884
▁गवेष	-11885
▁ग्रं	-11886
▁चीना	-11887
▁तवां	-11888
▁दानव	-11889
▁पटलः	-11890
▁पतये	-11891
▁मूला	-11892
▁यक्व	-11893
▁व्यु	-11894
▁सापि	-11895
र्घ्यं	-11896
्याणां	-11897
▁अरण्य	-11898
▁अस्ती	-11899
▁उत्सा	-11900
▁क्षोभ	-11901
▁गत्या	-11902
▁तदभाव	-11903
▁तुभ्य	-11904
▁त्रास	-11905
▁पवमान	-11906
▁बिचाः	-11907
▁विजयं	-11908
▁विप्ल	-11909
▁ष्यते	-11910
▁सत्यम	-11911
▁सम्मि	-11912
▁अग्रिम	-11913
▁उद्यान	-11914
▁एवंविध	-11915
▁तुल्या	-11916
▁प्रेषण	-11917
▁विभूति	-11918
▁सत्यपि	-11919
▁स्थाना	-11920
▁अन्यस्य	-11921
▁अवश्यम्	-11922
▁यथाकालं	-11923
▁यात्रां	-11924
▁वर्णनम्	-11925
▁विच्छेद	-11926
▁सम्भाषण	-11927
▁स्तुतिः	-11928
▁ऽस्माकं	-11929
सम्भाषणम्	-11930
▁संस्थानं	-11931
▁उपयुज्यते	-11932
▁सम्बद्धाः	-11933
▁प्रतिज्ञां	-11934
▁मुद्रास्फीति	-11935
AS	-11936
ठः	-11937
बह	-11938
ith	-11939
कुट	-11940
ढ्य	-11941
भवे	-11942
माव	-11943
राव	-11944
िती	-11945
िरे	-11946
ुषं	-11947
▁Qu	-11948
▁घ्	-11949
दासी	-11950
स्थः	-11951
▁Pro	-11952
▁जहा	-11953
▁दां	-11954
▁बिं	-11955
▁मतो	-11956
▁माप	-11957
▁रमा	-11958
▁लाई	-11959
▁वीज	-11960
▁सनि	-11961
▁सिर	-11962
▁हनू	-11963
▁१०२	-11964
ित्री	-11965
▁चिता	-11966
▁जग्म	-11967
▁तवैव	-11968
▁धीरः	-11969
▁पक्व	-11970
▁मितः	-11971
▁व्यू	-11972
▁शीलः	-11973
▁ष्टौ	-11974
▁सीति	-11975
▁होमः	-11976
▁ाप्त	-11977
ङ्ग्रे	-11978
स्तरां	-11979
▁अप्य्	-11980
▁उदासी	-11981
▁एकवचन	-11982
▁तदेवं	-11983
▁नूतनं	-11984
▁भूताः	-11985
▁युवती	-11986
▁संगीत	-11987
▁समीची	-11988
▁स्थाः	-11989
▁स्वया	-11990
▁एतावत्	-11991
▁कर्मणो	-11992
▁क्रियत	-11993
▁गम्भीर	-11994
▁गृहीतं	-11995
▁दर्शित	-11996
▁निवारण	-11997
▁मेवेति	-11998
▁स्थापन	-11999
▁अनुज्ञा	-12000
▁उदाहृतः	-12001
▁तूष्णीं	-12002
▁धातूनां	-12003
▁भावानां	-12004
▁मित्रम्	-12005
▁वर्षेषु	-12006
▁विप्राः	-12007
▁विश्वसि	-12008
▁कृष्णस्य	-12009
▁धर्माणां	-12010
▁निर्माता	-12011
▁लक्षणानि	-12012
▁चलच्चित्र	-12013
▁प्रोत्साह	-12014
▁विद्वांसः	-12015
▁पुत्रपौत्र	-12016
▁प्रतिष्ठान	-12017
▁स्वतन्त्रः	-12018
.-	-12019
_3	-12020
ya	-12021
तुर	-12022
पीठ	-12023
येद	-12024
ावः	-12025
▁1:	-12026
▁Cl	-12027
▁iv	-12028
▁लू	-12029
कान्	-12030
किया	-12031
क्सी	-12032
चारः	-12033
भवम्	-12034
▁अदा	-12035
▁उन्	-12036
▁उपर	-12037
▁कटा	-12038
▁नाऽ	-12039
▁परॊ	-12040
▁हूँ	-12041
कालीन	-12042
वन्ति	-12043
ृणोति	-12044
▁आश्व	-12045
▁ङ्गी	-12046
▁त्वः	-12047
▁धन्व	-12048
▁मधुम	-12049
▁रामं	-12050
▁वृतः	-12051
धातुके	-12052
▁कालम्	-12053
▁जानकी	-12054
▁निधिः	-12055
▁बन्धः	-12056
▁यमिति	-12057
▁समाया	-12058
▁सशक्त	-12059
▁ऽस्मि	-12060
▁ावसरे	-12061
ज्याःगु	-12062
▁गच्छतु	-12063
▁बध्यते	-12064
▁भवन्तं	-12065
▁राजानः	-12066
▁वैवस्व	-12067
▁इतस्ततः	-12068
▁पूजयेद्	-12069
▁रक्षितः	-12070
▁वैकल्पि	-12071
▁सत्यमेव	-12072
▁स्थानां	-12073
▁अधिकृत्य	-12074
▁अनुदात्त	-12075
▁नमोऽस्तु	-12076
▁प्रयोगेण	-12077
▁प्रसन्नः	-12078
▁वस्तूनां	-12079
▁न्यायाधीश	-12080
▁प्रत्ययाः	-12081
▁प्रादेशिक	-12082
▁प्राधान्यं	-12083
▁सर्वकार्येषु	-12084
▁आङ्ग्लभाषायां	-12085
घं	-12086
वल	-12087
कथा	-12088
विं	-12089
सय्	-12090
▁2:	-12091
▁No	-12092
▁sh	-12093
▁जठ	-12094
▁टो	-12095
करम्	-12096
तुर्	-12097
मस्य	-12098
मानि	-12099
राजः	-12100
स्थल	-12101
िन्य	-12102
▁01:	-12103
▁03:	-12104
▁13.	-12105
▁कपो	-12106
▁नभः	-12107
▁नवम	-12108
▁रथा	-12109
▁शशा	-12110
▁हास	-12111
▁ादा	-12112
कुण्ठ	-12113
क्तिक	-12114
भाषया	-12115
▁2008	-12116
▁अच्छ	-12117
▁तथाऽ	-12118
▁नाशं	-12119
▁बलीय	-12120
▁बालो	-12121
▁भूर्	-12122
▁मृत्	-12123
▁यजते	-12124
▁यदेव	-12125
▁वैरि	-12126
▁समयो	-12127
▁हृत्	-12128
▁२०१२	-12129
▁अपमान	-12130
▁कारकं	-12131
▁बरह्म	-12132
▁भर्तृ	-12133
▁मरुतो	-12134
▁ष्यति	-12135
▁अधिकम्	-12136
▁उपलभ्य	-12137
▁कृत्या	-12138
▁छात्रा	-12139
▁धारयति	-12140
▁प्रबोध	-12141
▁महासाग	-12142
▁विवेकः	-12143
▁व्यापि	-12144
▁शाश्वत	-12145
▁.......	-12146
▁चत्वारो	-12147
▁जीवानां	-12148
▁दर्शितः	-12149
▁क्षेत्रः	-12150
▁प्रधानम्	-12151
▁विशिष्टः	-12152
▁वृद्धिर्	-12153
▁अपर्याप्त	-12154
▁निर्वृत्त	-12155
▁पुरस्तात्	-12156
▁प्रचक्षते	-12157
▁प्रदेशेषु	-12158
▁विज्ञानम्	-12159
ip	-12160
खर	-12161
तप	-12162
सल	-12163
॒म	-12164
_3_	-12165
िने	-12166
▁Ch	-12167
▁थि	-12168
▁लृ	-12169
गुणा	-12170
दीया	-12171
न्स्	-12172
र्वे	-12173
▁धनी	-12174
▁पथे	-12175
▁सस्	-12176
▁सुध	-12177
▁सूप	-12178
▁हन्	-12179
यन्तु	-12180
▁ईशान	-12181
▁टाप्	-12182
▁त्यु	-12183
▁पुचः	-12184
▁यादव	-12185
▁वन्ध	-12186
युक्तं	-12187
▁क्रोश	-12188
▁गर्भं	-12189
▁निमेष	-12190
▁मनोरथ	-12191
▁महतां	-12192
▁मुत्स	-12193
▁योनिः	-12194
▁लाभाय	-12195
▁वणिक्	-12196
▁वन्तौ	-12197
▁श्रीः	-12198
▁सज्जन	-12199
▁ैरिति	-12200
▁कालिदा	-12201
▁नराणां	-12202
▁भक्तिं	-12203
▁भाग्यं	-12204
स्थानानि	-12205
▁दर्शयन्	-12206
▁प्रीतिः	-12207
▁ब्रुवन्	-12208
▁वय्कःया	-12209
▁वातावरण	-12210
▁सुग्रीव	-12211
▁तुम्हारे	-12212
▁प्रदीयते	-12213
▁भावार्थः	-12214
▁भुक्त्वा	-12215
▁भूतपूर्व	-12216
▁महोदयस्य	-12217
▁वाक्यस्य	-12218
▁स्थापयति	-12219
▁त्युच्यते	-12220
▁प्रश्नस्य	-12221
]/	-12222
ax	-12223
cs	-12224
कत	-12225
अयं	-12226
ञ्ञ	-12227
ाव्	-12228
ोषि	-12229
▁3-	-12230
▁Sy	-12231
▁co	-12232
▁im	-12233
त्तु	-12234
भागं	-12235
▁XXX	-12236
▁कृश	-12237
▁कोल	-12238
▁क्ङ	-12239
▁नवं	-12240
▁पिछ	-12241
▁पुष	-12242
▁फट्	-12243
▁बली	-12244
▁यूथ	-12245
▁रंग	-12246
▁शतक	-12247
च्छाद	-12248
दिशति	-12249
प्रथम	-12250
ह्यति	-12251
ांश्च	-12252
▁2009	-12253
▁More	-12254
▁कमला	-12255
▁जातौ	-12256
▁तमसो	-12257
▁बारे	-12258
▁बिया	-12259
▁मक्ष	-12260
▁लाभा	-12261
▁लेखक	-12262
▁लॊके	-12263
▁वराह	-12264
▁सुवि	-12265
▁ास्त	-12266
▁ीनां	-12267
स्थापन	-12268
▁अवधिः	-12269
▁आभासी	-12270
▁एतदपि	-12271
▁कर्णः	-12272
▁कुप्य	-12273
▁कुशलः	-12274
▁जानन्	-12275
▁दत्ते	-12276
▁वदिति	-12277
▁वैश्य	-12278
▁शारीर	-12279
▁सन्तो	-12280
▁सीतां	-12281
संस्करण	-12282
▁असिद्ध	-12283
▁अस्मत्	-12284
▁आत्मनो	-12285
▁कर्तुः	-12286
▁कारयति	-12287
▁क्षीरं	-12288
▁जित्वा	-12289
▁ज्वाला	-12290
▁तथाविध	-12291
▁तादृशी	-12292
▁त्येवं	-12293
▁पर्यवे	-12294
▁यस्माद	-12295
▁लेखनम्	-12296
▁वर्णाः	-12297
▁वृद्धो	-12298
▁सङ्केत	-12299
▁समानम्	-12300
▁चिन्तनं	-12301
▁दृष्टिं	-12302
▁संख्यां	-12303
▁प्रश्नाः	-12304
▁प्रारब्ध	-12305
▁समन्तात्	-12306
▁सम्पन्नः	-12307
▁प्रामाण्य	-12308
▁प्रसंस्करण	-12309
▁बहुव्रीहिः	-12310
ठन	-12311
िण	-12312
ity	-12313
ote	-12314
णित	-12315
युग	-12316
ूबर	-12317
▁4)	-12318
▁PM	-12319
▁ं८	-12320
न्यः	-12321
र्षं	-12322
ादयः	-12323
▁__2	-12324
▁ver	-12325
▁करौ	-12326
▁गगन	-12327
▁तथो	-12328
वर्ती	-12329
▁2010	-12330
▁इतना	-12331
▁देहो	-12332
▁नानि	-12333
▁निगद	-12334
▁न्तो	-12335
▁भीतः	-12336
▁भृगु	-12337
▁रम्भ	-12338
▁वदन्	-12339
▁सेवन	-12340
▁हितो	-12341
▁हृतं	-12342
न्द्रि	-12343
यविक्र	-12344
र्ध्वं	-12345
ान्तिक	-12346
▁[...]	-12347
▁अगच्छ	-12348
▁अतिशय	-12349
▁अष्टौ	-12350
▁बहुलं	-12351
▁ब्रह्	-12352
▁शिवाय	-12353
▁अभिमुख	-12354
▁दुर्गा	-12355
▁पृथक्त	-12356
▁युष्मद	-12357
▁व्यासः	-12358
▁समाप्य	-12359
▁समुद्ध	-12360
▁सुकृतं	-12361
▁गर्भवती	-12362
▁न्यसेत्	-12363
▁प्रथमतः	-12364
▁प्रारूप	-12365
▁मन्तरेण	-12366
▁मुत्पाद	-12367
▁योजयेत्	-12368
▁लक्ष्मण	-12369
▁वैचित्र	-12370
▁अनन्तरम्	-12371
▁मधिकृत्य	-12372
▁विज्ञेयः	-12373
▁इत्युक्तः	-12374
▁क्रयविक्र	-12375
▁परमेश्वरि	-12376
▁परमेश्वरम्	-12377
ET	-12378
ww	-12379
अन	-12380
fff	-12381
टिल	-12382
मभि	-12383
यने	-12384
राम	-12385
ल्फ	-12386
शंस	-12387
▁गन	-12388
गर्भ	-12389
धिपः	-12390
र्नि	-12391
ोऽयं	-12392
▁6.0	-12393
▁जटा	-12394
▁दर्	-12395
▁रसे	-12396
▁रोक	-12397
▁ल्ह	-12398
▁संभ	-12399
ुक्ति	-12400
▁अधिव	-12401
▁आसम्	-12402
▁एतेष	-12403
▁न्हि	-12404
▁मात्	-12405
▁राधा	-12406
▁रूपी	-12407
▁रोगा	-12408
▁लिसे	-12409
▁शतम्	-12410
▁ायां	-12411
र्यस्य	-12412
स्पर्श	-12413
▁अश्वः	-12414
▁अष्टम	-12415
▁खनेदु	-12416
▁गायति	-12417
▁घृतेन	-12418
▁तन्तु	-12419
▁धारणं	-12420
▁नन्दि	-12421
▁नमामि	-12422
▁मानवा	-12423
▁यशस्व	-12424
▁संकेत	-12425
▁सदृशः	-12426
▁साहसं	-12427
▁स्तोक	-12428
▁ान्वय	-12429
▁इंडियन	-12430
▁क्लिक्	-12431
▁च्छाया	-12432
▁दीर्घं	-12433
▁निन्दा	-12434
▁निसर्ग	-12435
▁नृत्यं	-12436
▁पतन्ति	-12437
▁प्रजां	-12438
▁मित्या	-12439
▁वृक्षं	-12440
▁शुक्रः	-12441
▁समीक्ष	-12442
▁स्मान्	-12443
▁अपश्यत्	-12444
▁अस्पताल	-12445
▁चिह्नित	-12446
▁दिसम्बर	-12447
▁निद्रां	-12448
▁प्रमाणा	-12449
▁वृत्तम्	-12450
▁शुश्रूष	-12451
▁सत्त्वा	-12452
▁सदस्याः	-12453
▁साधारणं	-12454
▁सुन्दरः	-12455
▁क्रियमाण	-12456
▁त्रिंशत्	-12457
▁महेश्वरः	-12458
▁स्थानात्	-12459
▁स्मर्यते	-12460
▁इत्युक्तं	-12461
▁पाश्चात्य	-12462
▁प्रतीक्षते	-12463
▁विप्रतिषेध	-12464
॑र	-12465
९०	-12466
इदं	-12467
मता	-12468
▁ll	-12469
▁wh	-12470
▁{*	-12471
▁गई	-12472
▁भॊ	-12473
तुम्	-12474
पराध	-12475
▁06:	-12476
▁xxx	-12477
▁अमर	-12478
▁कटु	-12479
▁जाह	-12480
▁तिङ	-12481
▁पथः	-12482
▁बधा	-12483
▁मनि	-12484
▁यसि	-12485
▁रेक	-12486
▁सहल	-12487
▁साई	-12488
▁ेते	-12489
ध्यति	-12490
नासिक	-12491
▁2000	-12492
▁उपाद	-12493
▁तयोर	-12494
▁पतेः	-12495
▁पुणे	-12496
▁भौति	-12497
▁मभ्य	-12498
▁राजः	-12499
▁ष्टा	-12500
▁ऽश्व	-12501
▁गन्धं	-12502
▁गर्भा	-12503
▁परमेश	-12504
▁परान्	-12505
▁पृथ्व	-12506
▁प्रलय	-12507
▁बन्धन	-12508
▁मत्तः	-12509
▁रावणः	-12510
▁गृहात्	-12511
▁ग्लानि	-12512
▁तत्राह	-12513
▁तद्वद्	-12514
▁त्यजति	-12515
▁नद्यां	-12516
▁निवसति	-12517
▁पिबेत्	-12518
▁मपेक्ष	-12519
▁मित्रे	-12520
▁मुख्यः	-12521
▁राज्ञे	-12522
▁वर्षशत	-12523
▁सामाना	-12524
▁हृदयेन	-12525
▁कुरुष्व	-12526
▁ज्योतिर	-12527
▁निर्गुण	-12528
▁प्रमुखः	-12529
▁मन्दिरे	-12530
▁मात्राः	-12531
▁मान्यता	-12532
▁मित्येव	-12533
▁शुद्धिः	-12534
▁स्वकर्म	-12535
▁स्वप्नं	-12536
▁राज्यानि	-12537
▁वर्ण्यते	-12538
▁व्याख्ये	-12539
▁स्वाध्याय	-12540
▁व्याख्यानं	-12541
▁प्रतिगृह्यताम्	-12542
बो	-12543
ऽह	-12544
्ण	-12545
जति	-12546
जाल	-12547
बार	-12548
ऽऽह	-12549
ातु	-12550
▁2-	-12551
▁tr	-12552
▁ङि	-12553
▁मख	-12554
द्यत	-12555
नन्द	-12556
ालाप	-12557
▁08:	-12558
▁15.	-12559
▁इहा	-12560
▁जनन	-12561
▁ण्व	-12562
▁परव	-12563
▁लेश	-12564
▁शुक	-12565
▁श्छ	-12566
▁हलः	-12567
चित्य	-12568
▁काली	-12569
▁णिच्	-12570
▁दशकं	-12571
▁दृशा	-12572
▁पशवः	-12573
▁पादो	-12574
▁लेखः	-12575
▁ल्यु	-12576
▁वृषा	-12577
▁ावधि	-12578
▁कर्णे	-12579
▁क्षणः	-12580
▁निदान	-12581
▁परायण	-12582
▁पिशाच	-12583
▁बहिष्	-12584
▁भद्रे	-12585
▁यौवने	-12586
▁सागरः	-12587
▁साध्व	-12588
▁साप्त	-12589
▁ऽर्थे	-12590
पेक्ष्य	-12591
▁ऊर्द्ध	-12592
▁कत्र्त	-12593
▁किलोमी	-12594
▁तुष्टि	-12595
▁दशलक्ष	-12596
▁पुत्रि	-12597
▁प्रदोष	-12598
▁ब्रूते	-12599
▁मानुषं	-12600
▁योग्यः	-12601
▁वादिनः	-12602
▁शासनम्	-12603
▁सन्तान	-12604
▁कुर्युः	-12605
▁तत्त्वा	-12606
▁त्वदीयं	-12607
▁द्रष्टु	-12608
▁पण्डितः	-12609
▁भुञ्जीत	-12610
▁विद्याल	-12611
▁शाश्वतः	-12612
▁सर्वदैव	-12613
▁सिद्धेः	-12614
▁सुवर्णं	-12615
▁प्रपद्ये	-12616
▁मन्त्राल	-12617
▁व्याघ्रः	-12618
▁संस्कारः	-12619
▁क्रियमाणे	-12620
▁गन्तव्यम्	-12621
▁व्याचष्टे	-12622
▁पूर्वोत्तर	-12623
▁प्रकाशितम्	-12624
▁प्रतिक्रिया	-12625
iz	-12626
ओं	-12627
डं	-12628
भृ	-12629
क्ख	-12630
द्ग	-12631
यस्	-12632
वतः	-12633
ांग	-12634
ेवल	-12635
▁[2	-12636
▁आठ	-12637
▁यस	-12638
कुत्	-12639
न्नि	-12640
पतिं	-12641
व्यव	-12642
ितेन	-12643
्यास	-12644
▁किस	-12645
▁जेत	-12646
▁ठञ्	-12647
▁थथे	-12648
▁पाः	-12649
▁योन	-12650
▁वैध	-12651
ज्ञाप	-12652
विध्य	-12653
श्वरं	-12654
सवर्ण	-12655
▁अनभि	-12656
▁आराध	-12657
▁किमा	-12658
▁दर्भ	-12659
▁भल्ल	-12660
▁वांछ	-12661
▁वासी	-12662
▁विश्	-12663
▁शस्य	-12664
▁सदनं	-12665
▁ेयुः	-12666
क्रमाः	-12667
मानन्द	-12668
▁किन्न	-12669
▁गर्भे	-12670
▁नुष्ठ	-12671
▁पुरतो	-12672
▁प्रसव	-12673
▁यन्ती	-12674
▁रुग्ण	-12675
▁शीतलं	-12676
▁समवेत	-12677
▁स्थाव	-12678
▁हरेत्	-12679
▁अचिन्त	-12680
▁अपूर्ण	-12681
▁करणीया	-12682
▁कालेषु	-12683
▁पुष्कर	-12684
▁प्रभूत	-12685
▁भूतस्य	-12686
▁मकरोत्	-12687
▁मिलियन	-12688
▁वहन्ति	-12689
▁विधेयक	-12690
▁विविधं	-12691
▁शक्तेः	-12692
▁परिमाणं	-12693
▁समर्पित	-12694
▁सुन्दरं	-12695
▁औद्योगिक	-12696
▁कर्त्तुं	-12697
▁तदुक्तम्	-12698
▁पार्थिवः	-12699
▁महाद्वीप	-12700
▁श्रुत्या	-12701
▁सौभाग्यं	-12702
▁कार्यविधि	-12703
▁ग्रन्थस्य	-12704
▁पृष्टवान्	-12705
▁विद्यमानं	-12706
▁भविष्यवाणी	-12707
▁प्रतिष्ठितम्	-12708
-'	-12709
मल	-12710
ळे	-12711
किन	-12712
देः	-12713
फ्त	-12714
रसि	-12715
॒र्	-12716
▁AP	-12717
▁कच	-12718
▁टन	-12719
चरम्	-12720
ज्यत	-12721
थ्यं	-12722
र्धं	-12723
र्वी	-12724
▁02.	-12725
▁नाड	-12726
▁पीय	-12727
▁पूत	-12728
▁वधे	-12729
▁वोढ	-12730
▁शपथ	-12731
▁ैनं	-12732
त्तमा	-12733
त्स्व	-12734
ष्टुं	-12735
▁अशोक	-12736
▁आयुध	-12737
▁आसीत	-12738
▁गानं	-12739
▁तिथौ	-12740
▁पृश्	-12741
▁भगवा	-12742
▁मंगल	-12743
▁मारो	-12744
▁वाची	-12745
▁वाहि	-12746
▁शुष्	-12747
▁हसति	-12748
▁ोऽसौ	-12749
स्याम्	-12750
▁अभिने	-12751
▁गार्ह	-12752
▁जात्य	-12753
▁प्रदं	-12754
▁भवत्व	-12755
▁वाराण	-12756
▁विशार	-12757
▁जानीमः	-12758
▁तत्परः	-12759
▁तस्वीर	-12760
▁दत्तम्	-12761
▁पर्य्य	-12762
▁पुत्रौ	-12763
▁शुद्धः	-12764
▁सञ्चार	-12765
▁समुदाह	-12766
▁हृदयम्	-12767
▁अभ्यासः	-12768
▁त्वामेव	-12769
▁दुःखिता	-12770
▁माहात्म	-12771
▁विषयान्	-12772
▁संग्रहः	-12773
▁सर्वस्व	-12774
▁सहस्रेण	-12775
▁स्पेनिश	-12776
▁क्रियाया	-12777
▁ग्रामस्य	-12778
▁चित्तस्य	-12779
▁पुनःपुनः	-12780
▁यास्यामि	-12781
▁कार्याणां	-12782
▁यथापूर्वं	-12783
▁शास्त्रस्य	-12784
▁सामानाधिकरण	-12785
▁वर्षसहस्राणि	-12786
30	-12787
_2	-12788
ge	-12789
मद	-12790
गतो	-12791
जां	-12792
मना	-12793
▁/1	-12794
▁ीः	-12795
चनां	-12796
निगु	-12797
स्तो	-12798
▁1.2	-12799
▁आति	-12800
▁आरु	-12801
▁ओषध	-12802
▁खरी	-12803
▁दथु	-12804
▁निभ	-12805
▁भयो	-12806
▁मसि	-12807
▁माष	-12808
▁वाथ	-12809
▁सुं	-12810
▁ीति	-12811
▁ुपा	-12812
▁ैषा	-12813
त्वाद	-12814
विषये	-12815
ापाकः	-12816
ुराणे	-12817
▁अकृत	-12818
▁कैके	-12819
▁त्वि	-12820
▁पाप्	-12821
▁बनाम	-12822
▁मध्व	-12823
▁मेवा	-12824
▁वरेण	-12825
▁समम्	-12826
▁सूचि	-12827
▁सोमा	-12828
▁ऽथवा	-12829
▁ीदृश	-12830
द्वारा	-12831
न्तर्य	-12832
स्रोतः	-12833
ावस्था	-12834
▁आहत्य	-12835
▁कारके	-12836
▁चेदपि	-12837
▁त्वमा	-12838
▁निषाद	-12839
▁पिहां	-12840
▁राघवः	-12841
▁विदित	-12842
▁सख्या	-12843
▁एतत्ते	-12844
▁दृश्यत	-12845
▁न्यस्त	-12846
▁पठितम्	-12847
▁यद्येव	-12848
▁विभज्य	-12849
▁श्लोके	-12850
▁संयुतः	-12851
▁समाधान	-12852
▁सौख्यं	-12853
▁स्मरति	-12854
▁ाधिकरण	-12855
▁उपयोक्त	-12856
▁नित्यशः	-12857
▁पूर्णम्	-12858
▁संपूज्य	-12859
▁अनुकूलता	-12860
▁अवश्यमेव	-12861
▁परिशिष्ट	-12862
▁भाषापाकः	-12863
▁भ्रान्ति	-12864
▁वर्जितम्	-12865
▁संयुक्ता	-12866
▁दुर्भाग्य	-12867
▁दृष्टिकोण	-12868
▁सर्वेक्षण	-12869
७०	-12870
▁ऩ	-12871
oem	-12872
ree	-12873
गमः	-12874
भुव	-12875
मेत	-12876
हते	-12877
िषे	-12878
॒ता	-12879
▁->	-12880
▁3:	-12881
▁Te	-12882
▁fr	-12883
▁ठ्	-12884
दीगु	-12885
र्षः	-12886
विषय	-12887
सर्प	-12888
▁अवे	-12889
▁आत्	-12890
▁कलह	-12891
▁जार	-12892
▁तरण	-12893
▁भेस	-12894
▁सुष	-12895
▁ैकं	-12896
▁१०३	-12897
▁११०	-12898
▁११८	-12899
क्षये	-12900
भिश्च	-12901
रन्ति	-12902
र्दूल	-12903
▁अप्व	-12904
▁खड्ग	-12905
▁णाम्	-12906
▁दहति	-12907
▁निश्	-12908
▁पितु	-12909
▁मितं	-12910
▁यदहं	-12911
▁यातः	-12912
▁लाघव	-12913
▁लाभो	-12914
▁विदु	-12915
▁वेला	-12916
▁शतेन	-12917
▁श्वो	-12918
▁सकार	-12919
▁हृद्	-12920
▁ऽहम्	-12921
▁ालये	-12922
▁ावयव	-12923
▁२०११	-12924
▁title	-12925
▁कारणम	-12926
▁कूर्म	-12927
▁कृतेन	-12928
▁कृषिः	-12929
▁कृष्ट	-12930
▁गानाः	-12931
▁तपस्व	-12932
▁नियोग	-12933
▁पीडित	-12934
▁पुरूष	-12935
▁प्राश	-12936
▁बहुना	-12937
▁भगवति	-12938
▁यस्ते	-12939
▁शक्यत	-12940
▁सस्ते	-12941
▁ानुभव	-12942
▁ोक्ति	-12943
▁ोत्सव	-12944
▁अभियान	-12945
▁अभीष्ट	-12946
▁किमिदं	-12947
▁क्त्वा	-12948
▁जग्राह	-12949
▁तथाप्य	-12950
▁तापमान	-12951
▁त्रिदश	-12952
▁नायिका	-12953
▁निग्रह	-12954
▁निपाति	-12955
▁परिचार	-12956
▁मुत्तर	-12957
▁विपुलं	-12958
▁शकुन्त	-12959
▁समुत्थ	-12960
▁कुर्व्व	-12961
▁दुर्लभा	-12962
▁बुध्यते	-12963
▁विषयस्य	-12964
▁वेदानां	-12965
▁संयुतम्	-12966
▁सन्निधौ	-12967
▁समुपस्थ	-12968
▁ज्ञापयति	-12969
▁प्रदानेन	-12970
▁ब्रह्मन्	-12971
▁रेस्तरां	-12972
▁चिन्तयेत्	-12973
▁प्रतिपाद्य	-12974
▁प्रयोजयेत्	-12975
▁व्यक्तित्व	-12976
कप	-12977
झा	-12978
ere	-12979
पाक	-12980
ल्स	-12981
वंक	-12982
ुषो	-12983
▁We	-12984
▁कब	-12985
▁धं	-12986
▁र॒	-12987
▁ौष	-12988
काशः	-12989
कूलं	-12990
च्वः	-12991
▁07:	-12992
▁Mar	-12993
▁min	-12994
▁आशु	-12995
▁आहु	-12996
▁तिः	-12997
▁नस्	-12998
▁फ्ल	-12999
▁रहः	-13000
▁वृण	-13001
▁शिब	-13002
▁सवे	-13003
▁ैका	-13004
▁५००	-13005
च्छसि	-13006
माणां	-13007
सर्जन	-13008
हितम्	-13009
▁post	-13010
▁अनार	-13011
▁असत्	-13012
▁इन्ध	-13013
▁एकां	-13014
▁गुणी	-13015
▁जज्ञ	-13016
▁तदीय	-13017
▁धीरो	-13018
▁नाडी	-13019
▁नीलं	-13020
▁पाठं	-13021
▁भयेन	-13022
▁मासं	-13023
▁मेधा	-13024
▁लेभे	-13025
▁वाचन	-13026
▁शर्क	-13027
▁शेषा	-13028
▁श्ले	-13029
▁स्रु	-13030
▁जपेत्	-13031
▁जायेत	-13032
▁धारणे	-13033
▁पल्लव	-13034
▁पुष्य	-13035
▁वादने	-13036
▁वाहनं	-13037
▁सुझाव	-13038
▁अद्भुत	-13039
▁अभिलाष	-13040
▁अर्हसि	-13041
▁उक्ताः	-13042
▁एकवारं	-13043
▁कस्याः	-13044
▁कामस्य	-13045
▁कारस्य	-13046
▁कालात्	-13047
▁तर्ह्य	-13048
▁प्राणे	-13049
▁रुद्रा	-13050
▁विकृति	-13051
▁शत्रवः	-13052
▁समासेन	-13053
▁स्तरीय	-13054
▁हवामहे	-13055
▁ानुवाद	-13056
▁अनुवर्त	-13057
▁उपयुज्य	-13058
▁दुष्कृत	-13059
▁देशानां	-13060
▁पत्न्या	-13061
▁यथाकामं	-13062
▁योगदानं	-13063
▁रात्र्य	-13064
▁वर्णस्य	-13065
▁विन्दति	-13066
▁सुनिश्च	-13067
▁Sanskrit	-13068
▁उपयोगिता	-13069
▁थज्याःगु	-13070
▁दृश्यमान	-13071
▁नित्यमेव	-13072
▁प्रकुर्व	-13073
▁प्रतीतिः	-13074
▁भवन्तीति	-13075
▁केन्द्रम्	-13076
▁सम्बन्धेन	-13077
▁क्षेत्राणि	-13078
▁निवर्तन्ते	-13079
cc	-13080
फि	-13081
खला	-13082
ट्ठ	-13083
नयन	-13084
फ्ट	-13085
ानम	-13086
ृणु	-13087
▁ुः	-13088
कोशः	-13089
ताया	-13090
देवं	-13091
द्रव	-13092
धारा	-13093
नाद्	-13094
पेपर	-13095
मध्य	-13096
ुम्न	-13097
॒त्र	-13098
▁(5)	-13099
▁ion	-13100
▁एवे	-13101
▁नरं	-13102
▁पला	-13103
▁बहव	-13104
▁रता	-13105
▁लिङ	-13106
नायां	-13107
व्रतः	-13108
▁अर्क	-13109
▁क्रू	-13110
▁चन्द	-13111
▁जुलै	-13112
▁तदिह	-13113
▁त्ति	-13114
▁पयसा	-13115
▁भूयि	-13116
▁यथाय	-13117
ख्यातं	-13118
न्यत्र	-13119
▁अङ्गु	-13120
▁इतीदं	-13121
▁कथंचन	-13122
▁तामेव	-13123
▁दानम्	-13124
▁परात्	-13125
▁पौर्ण	-13126
▁यत्नं	-13127
▁यमुना	-13128
▁सुखाय	-13129
▁स्त्य	-13130
▁अनेकाः	-13131
▁अन्यतम	-13132
▁अस्मद्	-13133
▁इङ्ग्ल	-13134
▁उल्लेख	-13135
▁ऑनलाइन	-13136
▁तृप्ति	-13137
▁निर्धन	-13138
▁नृणाम्	-13139
▁प्रहार	-13140
▁भाषासु	-13141
▁भूकम्प	-13142
▁मानसिक	-13143
▁विभागो	-13144
▁सप्तति	-13145
▁समासतः	-13146
▁स्वाभि	-13147
▁ोक्तिः	-13148
▁कांग्रे	-13149
▁प्रयोगा	-13150
▁प्रवेशं	-13151
▁भगवन्तं	-13152
▁भाष्यम्	-13153
▁विष्णुं	-13154
▁विसर्जन	-13155
▁निवसन्ति	-13156
▁प्रत्युप	-13157
▁मात्मानं	-13158
▁माध्यमिक	-13159
▁सम्बन्धे	-13160
▁ब्राह्मणः	-13161
▁सम्भवन्ति	-13162
▁कस्मिंश्चित्	-13163
15	-13164
सक	-13165
ीक	-13166
_2_	-13167
vii	-13168
तमे	-13169
▁88	-13170
▁el	-13171
मिसं	-13172
र्ड्	-13173
▁अका	-13174
▁गौण	-13175
▁दशक	-13176
▁पाच	-13177
▁मदा	-13178
▁महद	-13179
▁वदे	-13180
▁ष्ण	-13181
▁्यौ	-13182
त्मना	-13183
स्थां	-13184
▁ment	-13185
▁आज्य	-13186
▁किमी	-13187
▁जलेन	-13188
▁जाती	-13189
▁दूतः	-13190
▁न्यं	-13191
▁पीठं	-13192
▁प्रब	-13193
▁बिना	-13194
▁लघुः	-13195
▁वलोक	-13196
▁वाल्	-13197
▁विबु	-13198
▁सुसं	-13199
▁स्तौ	-13200
▁हीनो	-13201
▁ह्ये	-13202
▁ीत्य	-13203
त्रादि	-13204
श्चिद्	-13205
ृश्यते	-13206
्रियां	-13207
▁अनादि	-13208
▁किशोर	-13209
▁केन्द	-13210
▁गतानि	-13211
▁गुणेन	-13212
▁त्रिव	-13213
▁पताका	-13214
▁प्रणव	-13215
▁प्रवे	-13216
▁भागाः	-13217
▁यद्य्	-13218
▁श्रमः	-13219
▁संचार	-13220
▁सात्व	-13221
▁स्वम्	-13222
्यामीति	-13223
▁अर्थम्	-13224
▁ईश्वरं	-13225
▁कान्ति	-13226
▁ख्याते	-13227
▁न्यवेद	-13228
▁न्हूगु	-13229
▁पापस्य	-13230
▁महिलाः	-13231
▁यच्छति	-13232
▁वामदेव	-13233
▁शर्करा	-13234
▁श्रियं	-13235
▁समीपम्	-13236
▁स्तौति	-13237
▁ानन्तर	-13238
क्षेत्रे	-13239
▁अभिवादन	-13240
▁प्रसारण	-13241
▁बालिकाः	-13242
▁मन्त्रे	-13243
▁वनस्पति	-13244
▁वैकुण्ठ	-13245
▁साध्यते	-13246
▁स्कन्धे	-13247
▁इदानीमपि	-13248
▁गणतन्त्र	-13249
▁पृच्छामि	-13250
▁ब्रह्मणो	-13251
▁वर्तमानं	-13252
▁अभिप्रायः	-13253
▁परमात्मनः	-13254
▁मवाप्नोति	-13255
▁मार्गदर्श	-13256
▁वार्तालाप	-13257
▁विमुच्यते	-13258
▁संप्राप्त	-13259
▁यानाच्वंगु	-13260
▁प्रवर्तन्ते	-13261
▁विश्वविद्यालयः	-13262
ss	-13263
ढे	-13264
ूँ	-13265
ैं	-13266
॑ष	-13267
edia	-13268
भूते	-13269
मेवं	-13270
रुणा	-13271
ारोप	-13272
िकया	-13273
▁उमा	-13274
▁उरु	-13275
▁कील	-13276
▁भयम	-13277
▁भरण	-13278
▁हैव	-13279
त्त्र	-13280
न्वयः	-13281
मुख्य	-13282
ारोहण	-13283
ित्रे	-13284
▁कुला	-13285
▁कृतौ	-13286
▁क्तः	-13287
▁जित्	-13288
▁नदीं	-13289
▁परया	-13290
▁बोधः	-13291
▁भाक्	-13292
▁यागु	-13293
▁शुरु	-13294
▁सुचि	-13295
▁हरणं	-13296
▁ारोप	-13297
▁२०१९	-13298
गच्छति	-13299
ष्टुप्	-13300
साहस्र	-13301
▁इदमपि	-13302
▁उपसङ्	-13303
▁केचिद	-13304
▁गमनम्	-13305
▁तस्थौ	-13306
▁द्यां	-13307
▁धृतिः	-13308
▁प्रमे	-13309
▁मस्तु	-13310
▁रस्ति	-13311
▁लागिं	-13312
▁वन्ति	-13313
▁वृश्च	-13314
▁सृजति	-13315
▁सौख्य	-13316
▁स्याः	-13317
▁ाद्यं	-13318
▁ितवती	-13319
▁ईश्वरो	-13320
▁एकाधिक	-13321
▁ततस्ते	-13322
▁दृश्या	-13323
▁देशात्	-13324
▁न्यूना	-13325
▁पार्टी	-13326
▁यजमानः	-13327
▁संवर्ध	-13328
व्यवस्था	-13329
िष्यन्ति	-13330
▁पुण्डरी	-13331
▁विविधाः	-13332
▁स्वगृहं	-13333
▁स्वप्नः	-13334
▁आशीर्वाद	-13335
▁ग्राह्या	-13336
▁त्रिज्या	-13337
▁प्रत्याह	-13338
▁प्रसन्नो	-13339
▁मित्रस्य	-13340
▁सर्वाङ्ग	-13341
▁क्रीडन्ति	-13342
▁द्रष्टव्यः	-13343
▁भारतीयानां	-13344
▁प्रकीर्तितः	-13345
▁प्रतिपाद्यते	-13346
/-	-13347
4_	-13348
उन	-13349
नर	-13350
gle	-13351
दया	-13352
ाभि	-13353
ीतं	-13354
▁78	-13355
▁98	-13356
▁la	-13357
▁त॒	-13358
ङ्गु	-13359
येन्	-13360
▁अंत	-13361
▁कस्	-13362
▁दमन	-13363
▁मकर	-13364
▁महत	-13365
▁सिक	-13366
गुण्य	-13367
त्रेय	-13368
शीर्ष	-13369
▁उदार	-13370
▁गर्द	-13371
▁पीपी	-13372
▁ब्रव	-13373
▁माणव	-13374
▁शम्भ	-13375
▁शर्व	-13376
▁समाव	-13377
▁सामु	-13378
▁सितं	-13379
▁स्ती	-13380
▁ोत्स	-13381
क्ष्मा	-13382
क्ष्ये	-13383
्येतत्	-13384
▁आज्ञा	-13385
▁कृष्य	-13386
▁त्युप	-13387
▁धीयते	-13388
▁नामतः	-13389
▁न्यथा	-13390
▁भार्य	-13391
▁भोज्य	-13392
▁मायाम	-13393
▁मेतद्	-13394
▁म्रिय	-13395
▁यन्तः	-13396
▁र्थम्	-13397
▁विभेद	-13398
▁सत्तम	-13399
▁हेत्व	-13400
▁ोऽस्य	-13401
▁......	-13402
▁गुरुणा	-13403
▁चित्रा	-13404
▁जन्मना	-13405
▁निरर्थ	-13406
▁पदान्त	-13407
▁भीमसेन	-13408
▁मित्रः	-13409
▁योषितः	-13410
▁विवाहे	-13411
▁विष्णो	-13412
▁सुखस्य	-13413
▁ान्येव	-13414
न्नित्यं	-13415
▁कश्चिन्	-13416
▁दोषाणां	-13417
▁द्वयोर्	-13418
▁परस्परम	-13419
▁बिन्दुः	-13420
▁मन्त्रा	-13421
▁मीमांसा	-13422
▁विपर्यय	-13423
▁संवृत्त	-13424
▁समुच्चय	-13425
▁स्वप्नो	-13426
त्वाकर्षण	-13427
▁क्वचिदपि	-13428
▁प्रक्षेप	-13429
▁लभ्यन्ते	-13430
▁विज्ञेयं	-13431
▁व्याकरणं	-13432
▁स्वतंत्र	-13433
▁स्वामिन्	-13434
▁प्रतिपक्ष	-13435
▁परिवर्तनम्	-13436
▁प्रतिदिनम्	-13437
▁माप्नुयात्	-13438
▁सुप्रभातम्	-13439
▁चतुर्विंशति	-13440
▁विकिपीडियाः	-13441
▁स्त्रीलिङ्ग	-13442
▁गुरुत्वाकर्षण	-13443
ंग	-13444
मर	-13445
०८	-13446
_4_	-13447
ड़ी	-13448
सनं	-13449
▁62	-13450
▁En	-13451
▁Me	-13452
▁Tr	-13453
▁गभ	-13454
▁झा	-13455
▁दन	-13456
▁मभ	-13457
▁सस	-13458
क्षय	-13459
तात्	-13460
द्रो	-13461
भयोः	-13462
लादि	-13463
ितीय	-13464
ीप्स	-13465
▁Nar	-13466
▁ter	-13467
▁थ्य	-13468
▁दाश	-13469
▁भवद	-13470
▁रिक	-13471
▁वतो	-13472
▁वशं	-13473
▁वा॒	-13474
oldid	-13475
श्रेय	-13476
ुक्ते	-13477
▁अस्व	-13478
▁आपत्	-13479
▁कमलं	-13480
▁करम्	-13481
▁कुक्	-13482
▁खःसा	-13483
▁गुलि	-13484
▁चेन्	-13485
▁जिगी	-13486
▁तिरो	-13487
▁तिसृ	-13488
▁त्रे	-13489
▁दृग्	-13490
▁पीति	-13491
▁पीते	-13492
▁म्हि	-13493
▁यजति	-13494
▁रतिं	-13495
▁लिटि	-13496
▁वचनम	-13497
▁विदः	-13498
▁वेदः	-13499
▁सिता	-13500
▁ानभि	-13501
▁२००९	-13502
कर्ण्य	-13503
यत्नेन	-13504
संहिता	-13505
▁अच्छा	-13506
▁अथर्व	-13507
▁आभूषण	-13508
▁कथनम्	-13509
▁कल्पः	-13510
▁गृह्र	-13511
▁छिन्न	-13512
▁टक्के	-13513
▁देशाः	-13514
▁निराश	-13515
▁पदवीं	-13516
▁परलोक	-13517
▁पापेन	-13518
▁याचते	-13519
▁विधीय	-13520
▁संश्ल	-13521
▁सङ्घट	-13522
▁साभार	-13523
▁ऐन्द्र	-13524
▁कन्दुक	-13525
▁कान्ता	-13526
▁कुर्वा	-13527
▁जिल्ला	-13528
▁तज्ज्ञ	-13529
▁ततस्तु	-13530
▁त्यागे	-13531
▁द्रुतं	-13532
▁धीमान्	-13533
▁नेत्रा	-13534
▁पञ्चमी	-13535
▁पानीयं	-13536
▁मातृका	-13537
▁मित्रो	-13538
▁वह्निः	-13539
▁स्नातक	-13540
▁ाधिष्ठ	-13541
▁ाध्याय	-13542
▁कथयामास	-13543
▁चमत्कार	-13544
▁पिबन्ति	-13545
▁प्रदानं	-13546
▁विनियोग	-13547
▁विवरणम्	-13548
▁संख्यया	-13549
▁सन्देशः	-13550
▁स्वकीयं	-13551
▁ात्मिका	-13552
▁ाधिकरणे	-13553
▁Download	-13554
▁अद्यत्वे	-13555
▁उत्तीर्ण	-13556
▁कृत्स्नं	-13557
▁निर्माणे	-13558
▁पुष्पाणि	-13559
▁प्रत्ययं	-13560
▁मानचित्र	-13561
▁राज्येषु	-13562
▁विज्ञाने	-13563
▁विपर्यये	-13564
▁स्त्रीषु	-13565
▁परिच्छेदः	-13566
▁पूजयित्वा	-13567
▁प्रोक्ताः	-13568
▁विवर्जितः	-13569
▁कर्त्तव्यम्	-13570
▁मन्त्रिपरिषद्	-13571
मै	-13572
ace	-13573
ill	-13574
भयो	-13575
यसि	-13576
रिय	-13577
लना	-13578
▁Ab	-13579
क्षक	-13580
शियन	-13581
ष्ठं	-13582
▁App	-13583
▁one	-13584
▁एकै	-13585
▁जयो	-13586
▁प्स	-13587
▁यमं	-13588
▁ामः	-13589
▁िनो	-13590
मोक्ष	-13591
ित्ये	-13592
ूनाम्	-13593
▁अब्र	-13594
▁आलोक	-13595
▁दृढ़	-13596
▁न्नं	-13597
▁प्ला	-13598
▁मयैव	-13599
▁मेरा	-13600
▁युगं	-13601
▁यूरो	-13602
▁विचर	-13603
▁विही	-13604
▁व्रण	-13605
▁समता	-13606
▁ानेक	-13607
क्ष्वा	-13608
▁अग्नी	-13609
▁उपकार	-13610
▁काराः	-13611
▁दास्य	-13612
▁दैवतं	-13613
▁धूम्र	-13614
▁पालनं	-13615
▁फेब्र	-13616
▁मद्यं	-13617
▁महामु	-13618
▁मुनेः	-13619
▁रुचिक	-13620
▁विदां	-13621
▁विशां	-13622
▁हेतुर	-13623
द्यन्ते	-13624
स्मिन्न	-13625
▁अनन्तर	-13626
▁कर्मफल	-13627
▁त्राहि	-13628
▁दशवर्ष	-13629
▁दोषान्	-13630
▁धुंकाः	-13631
▁पाण्डु	-13632
▁पुराणं	-13633
▁प्रमाद	-13634
▁यास्तु	-13635
▁शिष्टा	-13636
▁सत्यां	-13637
प्राप्ति	-13638
▁अङ्गस्य	-13639
▁अन्यानि	-13640
▁आमन्त्र	-13641
▁ख्रीष्ट	-13642
▁निर्वाण	-13643
▁विपर्या	-13644
▁विश्वम्	-13645
▁व्यञ्जन	-13646
▁शिक्षणं	-13647
▁क्रुद्धः	-13648
▁ख्रीष्टा	-13649
▁गृह्णामि	-13650
▁प्रशान्त	-13651
▁प्रेक्षण	-13652
▁भवितव्यं	-13653
▁युक्तानि	-13654
▁संपद्यते	-13655
▁अनुसन्धान	-13656
▁छायाचित्र	-13657
▁समुदायस्य	-13658
▁प्राप्तवती	-13659
▁प्रार्थयते	-13660
▁भारतदेशस्य	-13661
▁स्त्रियाम्	-13662
▁प्रायश्चित्तं	-13663
▁स्वातन्त्र्यं	-13664
tt	-13665
झे	-13666
तै	-13667
िल	-13668
ays	-13669
ube	-13670
पां	-13671
फला	-13672
ोपा	-13673
्यौ	-13674
॑ति	-13675
▁$1	-13676
▁69	-13677
▁धौ	-13678
▁फी	-13679
▁षू	-13680
icle	-13681
क्रि	-13682
तीरे	-13683
दण्ड	-13684
दर्प	-13685
न्तम	-13686
स्यो	-13687
ासुर	-13688
्राज	-13689
▁कवच	-13690
▁काठ	-13691
▁क्क	-13692
▁गरी	-13693
▁धरे	-13694
▁पिप	-13695
▁पृत	-13696
▁बरा	-13697
▁बर्	-13698
▁भैष	-13699
▁रिज	-13700
▁वदा	-13701
▁सून	-13702
▁िन्	-13703
त्रिय	-13704
द्वार	-13705
र्त्य	-13706
ुक्ता	-13707
ेण्ड्	-13708
▁इमाः	-13709
▁औषधि	-13710
▁कमलः	-13711
▁खँय्	-13712
▁गणाः	-13713
▁ड्रा	-13714
▁तुर्	-13715
▁दथुइ	-13716
▁दशधा	-13717
▁नान्	-13718
▁निरव	-13719
▁प्लु	-13720
▁बालं	-13721
▁रयिं	-13722
▁वाति	-13723
▁विधं	-13724
▁ऽन्व	-13725
▁२०७५	-13726
▁२०७६	-13727
▁उचितं	-13728
▁ज्वरः	-13729
▁त्वन्	-13730
▁पितरौ	-13731
▁भीष्म	-13732
▁मानसः	-13733
▁मानाः	-13734
▁मिमां	-13735
▁यावता	-13736
▁वेद्य	-13737
▁श्रीर	-13738
▁सहस्त	-13739
▁सिञ्च	-13740
▁हन्तु	-13741
▁हेतुं	-13742
▁ादेर्	-13743
▁आग्नेय	-13744
▁इत्यतो	-13745
▁करोत्य	-13746
▁गरीयसी	-13747
▁गुणस्य	-13748
▁गृहिणी	-13749
▁चिन्तन	-13750
▁त्यनेन	-13751
▁दिनात्	-13752
▁नाम्नि	-13753
▁निर्वह	-13754
▁पृष्टो	-13755
▁महर्षि	-13756
▁विरोधी	-13757
▁शास्ति	-13758
▁संभवतः	-13759
▁समादाय	-13760
▁चन्द्रम	-13761
▁जन्मदिन	-13762
▁दातव्यं	-13763
▁द्रव्ये	-13764
▁द्वादशे	-13765
▁परिहरति	-13766
▁प्रचण्ड	-13767
▁वाञ्छति	-13768
▁स्योपरि	-13769
▁स्वनिगः	-13770
▁कर्तव्ये	-13771
▁प्रकाशकः	-13772
▁विशेषात्	-13773
▁विश्वानि	-13774
▁सम्पर्कः	-13775
▁सर्वकारः	-13776
▁इन्द्रस्य	-13777
▁वस्त्राणि	-13778
▁एवमुक्त्वा	-13779
▁संप्राप्ते	-13780
घु	-13781
ult	-13782
vie	-13783
गति	-13784
चरे	-13785
चिक	-13786
तुम	-13787
लाभ	-13788
शता	-13789
▁CO	-13790
▁आफ	-13791
गीता	-13792
तव्य	-13793
दिशि	-13794
मानु	-13795
लभ्य	-13796
व्रत	-13797
शयेन	-13798
▁7.0	-13799
▁अगर	-13800
▁आपण	-13801
▁आभि	-13802
▁कुछ	-13803
▁गोः	-13804
▁छेँ	-13805
▁दंश	-13806
▁नोद	-13807
▁पथा	-13808
▁यौग	-13809
▁लवण	-13810
▁वधं	-13811
भेदेन	-13812
श्चित	-13813
ारम्भ	-13814
▁गद्य	-13815
▁गिरे	-13816
▁तुरी	-13817
▁दशमे	-13818
▁दीपं	-13819
▁धत्त	-13820
▁धृति	-13821
▁नयने	-13822
▁बाधक	-13823
▁मृतो	-13824
▁मैथि	-13825
▁याथा	-13826
▁यिता	-13827
▁रियं	-13828
▁वीणा	-13829
▁श्रि	-13830
▁स्यू	-13831
▁होमं	-13832
▁ायुः	-13833
ोक्तम्	-13834
▁Shlok	-13835
▁अनेका	-13836
▁कुञ्ज	-13837
▁ग्रहं	-13838
▁जनेषु	-13839
▁दुःखी	-13840
▁नेतुं	-13841
▁प्यार	-13842
▁बिउगु	-13843
▁महाबल	-13844
▁लग्नं	-13845
▁विसृज	-13846
▁ेणापि	-13847
▁अनुगमन	-13848
▁असम्भव	-13849
▁उन्नति	-13850
▁ऋग्वेद	-13851
▁कारिणी	-13852
▁जानीहि	-13853
▁त्यत्र	-13854
▁नियमित	-13855
▁प्रतीय	-13856
▁योग्या	-13857
▁राममोह	-13858
▁वाक्यम	-13859
▁स्थिरी	-13860
▁हुत्वा	-13861
▁अन्यतमः	-13862
▁आवश्यकं	-13863
▁क्षमताः	-13864
▁चिन्त्य	-13865
▁द्वादशा	-13866
▁प्रकृतौ	-13867
▁प्रियतम	-13868
▁मुद्रां	-13869
▁सूच्यते	-13870
▁केन्द्रं	-13871
▁पूर्णतया	-13872
▁पूर्णिमा	-13873
▁मध्याह्न	-13874
▁सम्भवात्	-13875
▁विरुध्यते	-13876
▁वैशिष्ट्य	-13877
▁व्यक्तिगत	-13878
▁स्त्रियाः	-13879
▁निर्दिष्टः	-13880
▁पृथक्पृथक्	-13881
▁प्रचोदयात्	-13882
▁तच्छ्रुत्वा	-13883
▁तत्त्वज्ञान	-13884
▁भवितुमर्हति	-13885
▁स्वीक्रियते	-13886
▁अन्तर्भवन्ति	-13887
AT	-13888
लष	-13889
४०	-13890
जने	-13891
यर्	-13892
लोम	-13893
ैस्	-13894
▁HD	-13895
▁LI	-13896
▁id	-13897
▁{{	-13898
▁उठ	-13899
▁झट	-13900
▁मफ	-13901
कारा	-13902
क्स्	-13903
पुटः	-13904
र्गो	-13905
▁(12	-13906
▁करव	-13907
▁वते	-13908
▁वरद	-13909
संहार	-13910
समासः	-13911
स्ततो	-13912
ातीति	-13913
्वःगु	-13914
्वादि	-13915
▁अशेष	-13916
▁आगता	-13917
▁किति	-13918
▁क्रै	-13919
▁क्षौ	-13920
▁गिरी	-13921
▁तण्ड	-13922
▁तदभि	-13923
▁तदेक	-13924
▁देया	-13925
▁दैवी	-13926
▁नकार	-13927
▁निधन	-13928
▁पपात	-13929
▁मैसू	-13930
▁यूयम	-13931
▁रोजग	-13932
▁लभेत	-13933
▁वर्म	-13934
▁ोदाह	-13935
स्तत्र	-13936
ोऽस्मि	-13937
▁अनुमो	-13938
▁खण्डे	-13939
▁गच्छे	-13940
▁पक्षो	-13941
▁बालाः	-13942
▁मर्थं	-13943
▁माःगु	-13944
▁मारुत	-13945
▁मूत्र	-13946
▁यानां	-13947
▁यामपि	-13948
▁रूपाय	-13949
▁वायुर	-13950
▁शोचति	-13951
▁संशये	-13952
▁हविषा	-13953
▁अनुमति	-13954
▁करितां	-13955
▁ग्राहि	-13956
▁त्रिदि	-13957
▁निबद्ध	-13958
▁नेत्रं	-13959
▁पच्यते	-13960
▁प्रकटी	-13961
▁प्रव्र	-13962
▁भ्यश्च	-13963
▁महोदया	-13964
▁शुल्कं	-13965
▁सहकारि	-13966
▁स्मरन्	-13967
▁परिवारः	-13968
▁बुद्धेः	-13969
▁महोदयेन	-13970
▁मित्रेण	-13971
▁राक्षसा	-13972
▁वार्तिक	-13973
▁विंशतिः	-13974
▁वैदेशिक	-13975
▁सम्भवम्	-13976
▁सर्वोत्	-13977
▁स्यात्त	-13978
▁ग्राह्यः	-13979
▁तत्त्वम्	-13980
▁देवानाम्	-13981
▁यूपीएससी	-13982
▁सादृश्यं	-13983
▁सूक्ष्मं	-13984
▁परिवर्त्त	-13985
▁सर्वशक्ति	-13986
▁विद्यालयेषु	-13987
▁निर्मितमस्ति	-13988
og	-13989
॑म	-13990
चरः	-13991
चिः	-13992
रिव	-13993
साव	-13994
ेतौ	-13995
्ना	-13996
्नो	-13997
▁67	-13998
▁अण	-13999
▁ऋ०	-14000
▁छो	-14001
▁तह	-14002
▁सग	-14003
____	-14004
क्टर	-14005
धारय	-14006
नगरं	-14007
्वम्	-14008
▁उदी	-14009
▁कैल	-14010
▁पं॰	-14011
▁फेन	-14012
▁भृग	-14013
▁म्̇	-14014
▁यङ्	-14015
▁यतु	-14016
▁यमो	-14017
▁वदन	-14018
▁हाय	-14019
▁ोभय	-14020
मित्य	-14021
व्रता	-14022
▁Book	-14023
▁more	-14024
▁कवयः	-14025
▁चार्	-14026
▁द्धि	-14027
▁द्भु	-14028
▁परिक	-14029
▁पुल्	-14030
▁बधाई	-14031
▁महिल	-14032
▁विसृ	-14033
▁वैया	-14034
▁श्वर	-14035
▁संगण	-14036
▁स्यु	-14037
▁हृदा	-14038
▁ांशे	-14039
▁ैरेव	-14040
▁अभितः	-14041
▁अर्थो	-14042
▁आकाशः	-14043
▁उत्था	-14044
▁किसान	-14045
▁केवलम	-14046
▁क्षार	-14047
▁चेतसः	-14048
▁च्वना	-14049
▁जिह्व	-14050
▁दिशां	-14051
▁द्यौः	-14052
▁पाषाण	-14053
▁पुलिस	-14054
▁प्रवह	-14055
▁मतिर्	-14056
▁मन्तः	-14057
▁मिदम्	-14058
▁विधेः	-14059
▁शक्तो	-14060
▁शासने	-14061
▁अनुभवः	-14062
▁कथितम्	-14063
▁क्रन्द	-14064
▁क्षतिः	-14065
▁गतानां	-14066
▁जनताया	-14067
▁तद्विष	-14068
▁त्रयम्	-14069
▁दुर्भि	-14070
▁नित्यो	-14071
▁पङ्क्त	-14072
▁परिसमा	-14073
▁पर्युप	-14074
▁पुनराग	-14075
▁पूर्वी	-14076
▁प्राणं	-14077
▁मानुषी	-14078
▁मुनिना	-14079
▁मोक्षः	-14080
▁योगस्य	-14081
▁राज्या	-14082
▁सप्तमः	-14083
▁समागतः	-14084
▁हिमालय	-14085
▁त्रिभिः	-14086
▁धर्मज्ञ	-14087
▁प्रारंभ	-14088
▁मिच्छति	-14089
▁यस्येति	-14090
▁शतसहस्र	-14091
▁स्मृत्य	-14092
▁अभयारण्य	-14093
▁जनार्दनः	-14094
▁मुमुक्षु	-14095
▁सन्दर्भः	-14096
▁स्वामिनः	-14097
▁मन्दिरस्य	-14098
▁गृह्णीयात्	-14099
▁निर्दिश्यते	-14100
▁राष्ट्रभाषा	-14101
BC	-14102
ंअ	-14103
यै	-14104
फलः	-14105
लाह	-14106
विः	-14107
ादे	-14108
▁Be	-14109
▁il	-14110
▁vi	-14111
▁उस	-14112
▁िस	-14113
▁ुं	-14114
गच्छ	-14115
लिनी	-14116
ष्णि	-14117
सितं	-14118
ृम्भ	-14119
ैतत्	-14120
▁all	-14121
▁not	-14122
▁अमि	-14123
▁एकी	-14124
▁श्न	-14125
▁सुन	-14126
▁ानं	-14127
▁ासन	-14128
▁१८९	-14129
मानम्	-14130
्यामो	-14131
▁एनम्	-14132
▁चाटु	-14133
▁दबाव	-14134
▁पीठे	-14135
▁मताः	-14136
▁मयाः	-14137
▁योषि	-14138
▁वदसि	-14139
▁वनाः	-14140
▁विपण	-14141
▁वीरो	-14142
▁समीर	-14143
▁सहते	-14144
▁स्वम	-14145
▁हुता	-14146
▁ार्त	-14147
▁ासनं	-14148
▁२००६	-14149
यन्त्र	-14150
वासिनः	-14151
िकायाः	-14152
▁अस्थि	-14153
▁अस्मद	-14154
▁आगतम्	-14155
▁काश्च	-14156
▁कृषकः	-14157
▁गन्धः	-14158
▁घटिका	-14159
▁नीयम्	-14160
▁पत्ति	-14161
▁प्रवद	-14162
▁बभाषे	-14163
▁बृहद्	-14164
▁भाषणं	-14165
▁भाषित	-14166
▁मधुना	-14167
▁मातुल	-14168
▁योरपि	-14169
▁योश्च	-14170
▁यौवनं	-14171
▁रुधिर	-14172
▁लोकम्	-14173
▁वच्मि	-14174
▁शिरसा	-14175
▁शिशुं	-14176
▁शौर्य	-14177
▁संशयं	-14178
▁स्तरे	-14179
▁ह्ययं	-14180
▁ितानि	-14181
पेक्षया	-14182
▁अरण्ये	-14183
▁इस्लाम	-14184
▁उपासते	-14185
▁क्विप्	-14186
▁क्षत्र	-14187
▁क्षमां	-14188
▁तावदेव	-14189
▁तृतीयो	-14190
▁त्रुटि	-14191
▁दीप्ति	-14192
▁नास्ती	-14193
▁बाह्यं	-14194
▁मार्च्	-14195
▁राज्ञी	-14196
▁लिखेत्	-14197
▁वचनानि	-14198
▁विकारो	-14199
▁विनाशः	-14200
▁वैद्यः	-14201
▁शिष्या	-14202
▁सिद्धो	-14203
▁अधिकारि	-14204
▁आरभ्यते	-14205
▁एतदर्थं	-14206
▁गन्तुम्	-14207
▁दायित्व	-14208
▁दृष्ट्व	-14209
▁द्विजात	-14210
▁निर्मीत	-14211
▁पूर्वाह	-14212
▁प्रवेशो	-14213
▁विद्वद्	-14214
▁शरुत्वा	-14215
▁समागताः	-14216
▁स्फुटम्	-14217
▁ाधिकारि	-14218
▁िष्यामि	-14219
▁Category	-14220
▁तथात्वम्	-14221
▁दीर्घकाल	-14222
▁देशान्तर	-14223
▁राजमार्ग	-14224
▁संक्रमित	-14225
▁धर्मात्मा	-14226
▁प्रतिभूति	-14227
▁रक्षार्थं	-14228
▁सामान्यतो	-14229
▁तत्क्षणात्	-14230
▁प्रत्यक्षेण	-14231
▁प्राप्यन्ते	-14232
▁सर्वदेवानां	-14233
▁मुख्यमन्त्री	-14234
एँ	-14235
ऽन	-14236
थमं	-14237
नेट	-14238
हंस	-14239
ैनं	-14240
्यत	-14241
▁Le	-14242
▁we	-14243
▁एह	-14244
indi	-14245
दिनः	-14246
पदां	-14247
मिमं	-14248
▁10:	-14249
▁17.	-14250
▁Goo	-14251
▁दयो	-14252
▁नेद	-14253
▁पती	-14254
▁फिर	-14255
▁रथो	-14256
▁वैश	-14257
▁वोच	-14258
▁संध	-14259
▁१०७	-14260
क्षणा	-14261
वश्यक	-14262
▁अनौप	-14263
▁अस्थ	-14264
▁आशयः	-14265
▁करते	-14266
▁काशी	-14267
▁कूपे	-14268
▁कोणे	-14269
▁चेदं	-14270
▁पारम	-14271
▁म्या	-14272
▁वारे	-14273
▁विष्	-14274
▁वृणी	-14275
▁सभास	-14276
▁हर्य	-14277
▁ार्ण	-14278
▁ेष्ट	-14279
▁अथातो	-14280
▁आगताः	-14281
▁आस्था	-14282
▁कर्हि	-14283
▁घूर्ण	-14284
▁छन्दः	-14285
▁जीवन्	-14286
▁ज्याय	-14287
▁तुम्ह	-14288
▁त्वेव	-14289
▁दीप्य	-14290
▁मग्नि	-14291
▁यजेत्	-14292
▁रिपुः	-14293
▁वेत्थ	-14294
▁सेवेत	-14295
▁ुत्तर	-14296
▁अध्याप	-14297
▁करवाणि	-14298
▁चक्रुः	-14299
▁जर्मनी	-14300
▁ज्ञाते	-14301
▁तत्कथं	-14302
▁तिस्रः	-14303
▁त्वय्य	-14304
▁नानावि	-14305
▁पत्नीं	-14306
▁बन्धनं	-14307
▁महामते	-14308
▁मोक्षं	-14309
▁यत्त्व	-14310
▁यान्तु	-14311
▁युगपत्	-14312
▁रणनीति	-14313
▁वाच्यः	-14314
▁शक्ताः	-14315
▁सन्त्य	-14316
▁समर्पण	-14317
▁स्थिरं	-14318
▁ादीनाम	-14319
▁काश्मीर	-14320
▁जानकारी	-14321
▁त्वामहं	-14322
▁द्वात्र	-14323
▁धनधान्य	-14324
▁नेपाःया	-14325
▁पदार्थे	-14326
▁लिख्यते	-14327
▁शालायां	-14328
▁शीघ्रम्	-14329
▁साक्ष्य	-14330
▁सिद्ध्य	-14331
▁ान्वितः	-14332
▁अनुकूलित	-14333
▁अपृच्छत्	-14334
▁दरिद्रता	-14335
▁भविष्यतः	-14336
▁अमेरिकाया	-14337
▁तदनन्तरम्	-14338
▁दित्यर्थः	-14339
▁व्यावृत्त	-14340
▁अन्तरिक्षं	-14341
▁दृष्टान्तः	-14342
▁प्रकाश्यते	-14343
▁मन्त्राणां	-14344
▁इत्यभिधीयते	-14345
फी	-14346
वश	-14347
ाक	-14348
बाह	-14349
मती	-14350
ऽसि	-14351
▁Ed	-14352
▁up	-14353
▁ईं	-14354
▁उन	-14355
▁एड	-14356
,000	-14357
▁अनू	-14358
▁अपन	-14359
▁ओम्	-14360
▁गैर	-14361
▁जनय	-14362
▁द्द	-14363
▁नवी	-14364
▁फल्	-14365
▁वि॰	-14366
▁वीं	-14367
▁ऽनि	-14368
मानाः	-14369
िताम्	-14370
▁एकूण	-14371
▁गण्ड	-14372
▁चेतः	-14373
▁जितं	-14374
▁देहः	-14375
▁नेदं	-14376
▁पृथि	-14377
▁बहुल	-14378
▁भीति	-14379
▁रम्य	-14380
▁रस्य	-14381
▁रेतः	-14382
▁वदनं	-14383
▁वयस्	-14384
▁शीतं	-14385
▁शीला	-14386
▁हरिव	-14387
▁ार्य	-14388
▁ावेव	-14389
▁ाह्व	-14390
▁२०७४	-14391
▁अभावे	-14392
▁अवरोध	-14393
▁असमान	-14394
▁चंद्र	-14395
▁चात्म	-14396
▁चिरम्	-14397
▁चेतसि	-14398
▁तत्वं	-14399
▁न्तरं	-14400
▁पिप्प	-14401
▁पोस्ट	-14402
▁प्लुत	-14403
▁भाव्य	-14404
▁मन्दं	-14405
▁राजते	-14406
▁लकारः	-14407
▁लीयते	-14408
▁वश्यं	-14409
▁वह्नौ	-14410
▁विजयी	-14411
▁विदेह	-14412
▁शङ्कर	-14413
▁संक्र	-14414
▁स्वकं	-14415
▁हन्ता	-14416
▁ाश्रम	-14417
▁िष्ये	-14418
ान्यायं	-14419
▁अनेनैव	-14420
▁असमर्थ	-14421
▁कारिका	-14422
▁कोऽत्र	-14423
▁जन्मनः	-14424
▁जीविते	-14425
▁तुल्यः	-14426
▁दुष्टं	-14427
▁द्वीपे	-14428
▁ध्रुवा	-14429
▁नियमाः	-14430
▁भवेत्त	-14431
▁भुक्तं	-14432
▁मस्तके	-14433
▁महेश्व	-14434
▁मुष्टि	-14435
▁म्हिगः	-14436
▁यत्तत्	-14437
▁लक्षणो	-14438
▁श्रुतः	-14439
▁ष्विति	-14440
▁सपिण्ड	-14441
▁ुच्यते	-14442
न्द्रितः	-14443
▁एतादृशः	-14444
▁कारणानि	-14445
▁चिन्तया	-14446
▁पक्षिणः	-14447
▁पुत्राय	-14448
▁पेक्षया	-14449
▁प्रकाशं	-14450
▁प्रियाः	-14451
▁बालकस्य	-14452
▁भिधीयते	-14453
▁मिन्द्र	-14454
▁मृत्योः	-14455
▁विभक्तौ	-14456
▁समाप्तं	-14457
▁सान्त्व	-14458
▁सार्वभौ	-14459
▁उत्तराणि	-14460
▁कार्यकरण	-14461
▁कार्य्या	-14462
▁ज्येष्ठा	-14463
▁निःशुल्क	-14464
▁परिदृश्य	-14465
▁प्राणिनः	-14466
▁वास्तविक	-14467
▁विरोधात्	-14468
▁सूक्ष्मा	-14469
▁किञ्चिदपि	-14470
▁संज्ञायां	-14471
▁सम्पूर्णं	-14472
▁सिध्यन्ति	-14473
▁स्वर्गलोके	-14474
▁प्रतिष्ठिता	-14475
▁अन्तर्राष्ट्रिय	-14476
ळा	-14477
hab	-14478
ish	-14479
one	-14480
ong	-14481
जन्	-14482
पाट	-14483
भूः	-14484
सरण	-14485
िषि	-14486
▁5:	-14487
▁By	-14488
▁IP	-14489
▁खग	-14490
▁पॉ	-14491
▁ीर	-14492
ष्टौ	-14493
हारी	-14494
िक्स	-14495
▁pcs	-14496
▁tag	-14497
▁ंति	-14498
▁अली	-14499
▁ओली	-14500
▁जां	-14501
▁ततस	-14502
▁निद	-14503
▁पतन	-14504
▁पुच	-14505
▁भका	-14506
▁मती	-14507
▁येव	-14508
▁लयः	-14509
▁ल्व	-14510
▁सि०	-14511
ticle	-14512
ज्जीव	-14513
पूवंक	-14514
भाषिक	-14515
भृतां	-14516
स्वार	-14517
्वलय्	-14518
▁अनाम	-14519
▁आप्त	-14520
▁कण्ड	-14521
▁कुरू	-14522
▁घंटे	-14523
▁जवान	-14524
▁झीगु	-14525
▁तादृ	-14526
▁त्र्	-14527
▁द्धा	-14528
▁धुना	-14529
▁भागा	-14530
▁येना	-14531
▁स्टे	-14532
▁२००७	-14533
क्षेपः	-14534
मीडिया	-14535
विशेषण	-14536
ाम्यहं	-14537
▁अवसरः	-14538
▁उक्तो	-14539
▁कामाः	-14540
▁गोपाय	-14541
▁जिन्व	-14542
▁तदप्य	-14543
▁ताभिः	-14544
▁थुकिं	-14545
▁दलस्य	-14546
▁धीराः	-14547
▁निसें	-14548
▁पतितः	-14549
▁पूजये	-14550
▁प्रणा	-14551
▁भक्तं	-14552
▁भाषां	-14553
▁भ्राम	-14554
▁महत्त	-14555
▁मुवाच	-14556
▁वनेगु	-14557
▁व्यथा	-14558
▁व्यूह	-14559
▁सत्ये	-14560
▁सहकार	-14561
▁सूचित	-14562
▁स्वये	-14563
▁ाधिकं	-14564
ित्वात्	-14565
▁अविद्य	-14566
▁उभयत्र	-14567
▁कृष्णं	-14568
▁कृष्णो	-14569
▁क्वचिद	-14570
▁प्रच्छ	-14571
▁मूर्खा	-14572
▁यजन्ते	-14573
▁यद्यहं	-14574
▁राजानो	-14575
▁वक्तुम	-14576
▁संविदा	-14577
▁संसारः	-14578
▁सुव्रत	-14579
▁स्तीति	-14580
▁स्मर्त	-14581
▁ेतिहास	-14582
▁अध्यापक	-14583
▁कामानां	-14584
▁कृत्स्न	-14585
▁नैमित्त	-14586
▁रक्षणम्	-14587
▁लिङ्गम्	-14588
▁सकाशात्	-14589
▁समस्याः	-14590
▁सम्पादक	-14591
▁सुभाषित	-14592
▁ात्मकम्	-14593
▁ादिभ्यः	-14594
▁ान्तरम्	-14595
▁केन्द्रे	-14596
▁चिन्तयति	-14597
▁वार्षिको	-14598
▁प्रकाशयति	-14599
▁प्रार्थये	-14600
▁मन्त्रिणः	-14601
▁विकिमीडिया	-14602
दै	-14603
पल	-14604
▁›	-14605
..)	-14606
णीं	-14607
दाद	-14608
▁64	-14609
▁95	-14610
▁Mo	-14611
▁नल	-14612
▁न॒	-14613
जन्य	-14614
प्ते	-14615
प्लव	-14616
श्मी	-14617
▁pro	-14618
▁काे	-14619
▁टाइ	-14620
▁परभ	-14621
▁पीन	-14622
▁भौम	-14623
▁मृष	-14624
▁यवन	-14625
▁रणा	-14626
▁ाती	-14627
अग्ने	-14628
पार्श	-14629
स्पृह	-14630
स्यसे	-14631
स्रोत	-14632
▁असतो	-14633
▁आम्र	-14634
▁आर्त	-14635
▁कथया	-14636
▁केलि	-14637
▁गर्त	-14638
▁जान्	-14639
▁तडाग	-14640
▁धाम्	-14641
▁पातः	-14642
▁पेयं	-14643
▁फलेन	-14644
▁रविः	-14645
▁रोमा	-14646
▁शालि	-14647
▁शीतो	-14648
▁समया	-14649
▁ार्च	-14650
▁ीकृत	-14651
▁ीयाः	-14652
च्छेदक	-14653
णात्मक	-14654
्यामहे	-14655
▁अक्टो	-14656
▁चुम्ब	-14657
▁तस्तु	-14658
▁तावता	-14659
▁देशेन	-14660
▁धन्यः	-14661
▁निष्ट	-14662
▁न्तरा	-14663
▁पादेन	-14664
▁मदीयं	-14665
▁योजनं	-14666
▁रमणीय	-14667
▁वर्ते	-14668
▁वानरः	-14669
▁व्रते	-14670
▁साधकः	-14671
▁्यात्	-14672
त्त्वम्	-14673
▁अव्ययी	-14674
▁उत्तमा	-14675
▁उपग्रह	-14676
▁क्ङिति	-14677
▁नवम्बर	-14678
▁न्यूनं	-14679
▁पराजित	-14680
▁पूज्या	-14681
▁पूर्ति	-14682
▁पेट्रो	-14683
▁प्रवचन	-14684
▁भार्गव	-14685
▁मुद्दे	-14686
▁राजस्व	-14687
▁वासिनः	-14688
▁विरोधं	-14689
▁व्यसनं	-14690
▁शक्तिर	-14691
▁अस्मासु	-14692
▁कत्वात्	-14693
▁गायन्ति	-14694
▁तत्कर्म	-14695
▁धारयेत्	-14696
▁नुष्ठान	-14697
▁नृत्यति	-14698
▁पर्वताः	-14699
▁पृथिव्य	-14700
▁प्रक्रम	-14701
▁बोध्यम्	-14702
▁वर्षशतं	-14703
▁वृत्तिर	-14704
▁सप्तर्ष	-14705
▁सप्ताहे	-14706
▁सागरस्य	-14707
▁स्वरूपः	-14708
▁ान्तर्ग	-14709
▁अप्राप्त	-14710
▁अभिनन्दन	-14711
▁निमित्ता	-14712
▁प्रत्याय	-14713
▁प्रत्युत	-14714
▁प्रमाणतः	-14715
▁प्रयोज्य	-14716
▁विज्ञेयो	-14717
▁विस्तारं	-14718
▁स्मृत्वा	-14719
▁ान्तर्गत	-14720
▁पाठ्यक्रम	-14721
▁विद्यायाः	-14722
▁प्रजापतिर्	-14723
▁सम्प्राप्त	-14724
▁ध्यानाकर्षण	-14725
▁उपसङ्ख्यानम्	-14726
02	-14727
ST	-14728
ue	-14729
एफ	-14730
खन	-14731
लत	-14732
है	-14733
ऽव	-14734
गुन	-14735
वंश	-14736
शये	-14737
सरः	-14738
ाग्	-14739
ानन	-14740
ावन	-14741
ोटक	-14742
▁76	-14743
▁Or	-14744
▁आक	-14745
▁भ्	-14746
तेर्	-14747
द्वै	-14748
ध्यं	-14749
माणः	-14750
लम्भ	-14751
▁250	-14752
▁चरि	-14753
▁चौर	-14754
▁छाद	-14755
▁छिन	-14756
▁दृष	-14757
▁धाल	-14758
▁नैर	-14759
▁बार	-14760
▁लभे	-14761
▁ैवं	-14762
▁१५०	-14763
न्नाम	-14764
रूपम्	-14765
लम्बन	-14766
श्चिम	-14767
ेभ्यः	-14768
ोक्ता	-14769
▁अकाल	-14770
▁आर्ध	-14771
▁गेहं	-14772
▁फ्रे	-14773
▁महार	-14774
▁माणः	-14775
▁मिमी	-14776
▁रवेः	-14777
▁रिक्	-14778
▁रूपक	-14779
▁लघुक	-14780
▁लोचन	-14781
▁वेगः	-14782
▁संतु	-14783
▁संतो	-14784
▁सरोव	-14785
▁सारे	-14786
▁२००४	-14787
चक्ष्व	-14788
न्यासः	-14789
श्वरम्	-14790
▁आसमां	-14791
▁एकैकं	-14792
▁तथ्यं	-14793
▁निरुप	-14794
▁निहित	-14795
▁प्रसि	-14796
▁बिभ्र	-14797
▁भक्षय	-14798
▁मखिलं	-14799
▁मन्नं	-14800
▁मुग्ध	-14801
▁रक्षः	-14802
▁वायुम	-14803
▁सेवकः	-14804
निमित्त	-14805
प्रकृति	-14806
सम्पुटः	-14807
स्माभिः	-14808
▁अन्यैः	-14809
▁कैवल्य	-14810
▁गृहीता	-14811
▁जुइमाः	-14812
▁दुर्गे	-14813
▁धान्यं	-14814
▁पुत्रक	-14815
▁प्रकोप	-14816
▁विप्रः	-14817
▁विवाहं	-14818
▁शरीरेण	-14819
▁शिवस्य	-14820
▁श्रुणु	-14821
▁संरक्ष	-14822
▁संस्तु	-14823
▁समग्रं	-14824
▁समुचित	-14825
▁सामग्र	-14826
▁सूक्ष्	-14827
▁स्नेहः	-14828
▁ान्तरा	-14829
▁कीर्तिं	-14830
▁कीर्तिः	-14831
▁कौतूहलं	-14832
▁चारित्र	-14833
▁द्विर्व	-14834
▁न्ह्यसः	-14835
▁प्राजाप	-14836
▁मूल्यम्	-14837
▁युक्तेन	-14838
▁रात्राव	-14839
▁वक्त्रं	-14840
▁विमर्शः	-14841
▁शून्यता	-14842
▁सिंहासन	-14843
▁स्त्वां	-14844
▁स्फुरति	-14845
▁ित्यादि	-14846
▁इन्द्राय	-14847
▁जन्मभूमि	-14848
▁देवदत्तः	-14849
▁प्रकाशनं	-14850
▁प्रबुद्ध	-14851
▁भाषायाम्	-14852
▁व्यापारो	-14853
▁व्योम्नि	-14854
▁संवत्सरं	-14855
▁संस्थितः	-14856
▁आगमिष्यति	-14857
▁गृह्णन्ति	-14858
▁नास्त्येव	-14859
▁निर्देशकः	-14860
▁ब्राह्मणं	-14861
▁यथान्यायं	-14862
▁युष्माभिः	-14863
▁जुयाच्वंगु	-14864
▁स्वास्थ्यं	-14865
ep	-14866
चौ	-14867
ick	-14868
कित	-14869
राण	-14870
▁Gr	-14871
▁IV	-14872
▁घे	-14873
▁धव	-14874
▁नश	-14875
जीवि	-14876
ञ्जय	-14877
तेति	-14878
विवे	-14879
स्पद	-14880
ुवाच	-14881
ूयते	-14882
ोष्य	-14883
▁18.	-14884
▁अदि	-14885
▁आफ्	-14886
▁कण्	-14887
▁गमय	-14888
▁जेन	-14889
▁तदो	-14890
▁दि॒	-14891
▁नाल	-14892
▁बैं	-14893
▁यसे	-14894
▁याप	-14895
▁लट्	-14896
▁लोम	-14897
▁वस्	-14898
▁शर्	-14899
▁ीये	-14900
▁ोन्	-14901
क्ष्व	-14902
देवता	-14903
द्धुं	-14904
ल्बिष	-14905
श्रेण	-14906
्याम्	-14907
▁Exam	-14908
▁अरुण	-14909
▁आगमन	-14910
▁इमम्	-14911
▁उच्य	-14912
▁किमि	-14913
▁तनुं	-14914
▁तयैव	-14915
▁तिमि	-14916
▁न्यः	-14917
▁पारा	-14918
▁फलित	-14919
▁भावय	-14920
▁मनाः	-14921
▁मशीन	-14922
▁२०१७	-14923
दानन्द	-14924
नन्तरं	-14925
लम्ब्य	-14926
विष्टः	-14927
▁अनयोः	-14928
▁अव्य०	-14929
▁आकारः	-14930
▁आत्मन	-14931
▁आर्या	-14932
▁उपनिष	-14933
▁ओबीसी	-14934
▁कण्ठे	-14935
▁चर्या	-14936
▁दर्पण	-14937
▁नास्य	-14938
▁परितो	-14939
▁पितुर	-14940
▁पीयूष	-14941
▁पुंसि	-14942
▁पूजित	-14943
▁मुच्य	-14944
▁यस्मै	-14945
▁रसस्य	-14946
▁संभाष	-14947
▁सकर्म	-14948
▁सागरं	-14949
▁सीतया	-14950
▁स्तोम	-14951
▁अत्राह	-14952
▁देवेशि	-14953
▁न्यत्र	-14954
▁पश्यतु	-14955
▁पूजिता	-14956
▁प्रजनन	-14957
▁भवन्ती	-14958
▁मध्यतः	-14959
▁यययययय	-14960
▁वर्धनं	-14961
▁विध्वं	-14962
▁विनष्ट	-14963
▁विशाला	-14964
▁समर्थो	-14965
▁समाहित	-14966
▁सम्पदः	-14967
▁साम्यं	-14968
▁सृष्टा	-14969
▁ह्यस्व	-14970
▁ानुमान	-14971
▁अन्तरेण	-14972
▁अन्यच्च	-14973
▁ज्ञातम्	-14974
▁नाम्नां	-14975
▁निर्णये	-14976
▁नेपालय्	-14977
▁पूर्वपद	-14978
▁मन्त्रो	-14979
▁मुख्यतः	-14980
▁राक्षसः	-14981
▁वार्ताः	-14982
▁व्याधिः	-14983
▁सन्देहो	-14984
▁कक्षायां	-14985
▁निवृत्तौ	-14986
▁पक्षिणां	-14987
▁यथाक्रमं	-14988
▁वैश्वानर	-14989
▁ाधिकरणम्	-14990
▁ज्ञातवान्	-14991
▁धर्माधर्म	-14992
▁प्रतिबद्ध	-14993
▁रित्यर्थः	-14994
▁विद्यमानः	-14995
▁व्याप्तिः	-14996
▁आङ्ग्लभाषा	-14997
▁इत्यत्रापि	-14998
▁प्रार्थनां	-14999
▁स्पर्धायां	-15000
▁परिकीर्तितः	-15001
उत	-15002
जौ	-15003
yle	-15004
कुश	-15005
केत	-15006
कोश	-15007
जित	-15008
सरा	-15009
िकल	-15010
ुवे	-15011
▁::	-15012
▁cm	-15013
▁इल	-15014
▁इस	-15015
▁गॊ	-15016
▁व॑	-15017
काशं	-15018
क्कं	-15019
फलम्	-15020
भवन्	-15021
वायु	-15022
ायुः	-15023
▁194	-15024
▁300	-15025
▁अपः	-15026
▁आधि	-15027
▁उदक	-15028
▁एटल	-15029
▁गजः	-15030
▁तवे	-15031
▁दुह	-15032
▁पृष	-15033
▁यती	-15034
▁वधि	-15035
▁शला	-15036
▁शैव	-15037
▁सक्	-15038
▁िना	-15039
▁ोल्	-15040
काण्ड	-15041
त्म्य	-15042
साध्य	-15043
ामीति	-15044
ितस्य	-15045
ोपदेश	-15046
्रिका	-15047
▁आधिक	-15048
▁आसनं	-15049
▁कण्ट	-15050
▁क्रा	-15051
▁क्षं	-15052
▁दशां	-15053
▁दूतो	-15054
▁पाकः	-15055
▁ब्लॉ	-15056
▁भगवन	-15057
▁भागी	-15058
▁भीता	-15059
▁मनेन	-15060
▁मिसा	-15061
▁यतोऽ	-15062
▁यमेव	-15063
▁लण्ड	-15064
▁विलि	-15065
▁वीरा	-15066
▁साधय	-15067
▁हुतं	-15068
▁िष्ट	-15069
नात्मक	-15070
शिक्षण	-15071
स्वरूप	-15072
स्वीरः	-15073
ाराणां	-15074
ीतवान्	-15075
▁India	-15076
▁तदन्य	-15077
▁त्रये	-15078
▁द्रुम	-15079
▁नृत्त	-15080
▁नृपति	-15081
▁पक्षा	-15082
▁बालकं	-15083
▁मासाः	-15084
▁रोगाः	-15085
▁लिख्य	-15086
▁वनिता	-15087
▁वर्धय	-15088
▁विधवा	-15089
▁विधाः	-15090
▁विलास	-15091
▁विषयी	-15092
▁स्तरः	-15093
▁ाङ्गं	-15094
▁ीश्वर	-15095
▁ोपाधि	-15096
▁अग्रतः	-15097
▁अपवादः	-15098
▁कृतस्य	-15099
▁तन्नाम	-15100
▁दिनस्य	-15101
▁पाठात्	-15102
▁प्रभाग	-15103
▁प्रमेय	-15104
▁प्रीतो	-15105
▁प्रेम्	-15106
▁भित्ति	-15107
▁मन्यथा	-15108
▁मित्रा	-15109
▁रक्षकः	-15110
▁रात्री	-15111
▁शब्दैः	-15112
▁संभाषण	-15113
▁संलग्न	-15114
▁स्नेहं	-15115
▁स्पृहा	-15116
▁स्मृतौ	-15117
▁स्वयाः	-15118
▁ाभ्यास	-15119
▁अयोध्या	-15120
▁उल्लेखः	-15121
▁एकान्ते	-15122
▁कर्म्मा	-15123
▁तत्त्वे	-15124
▁दक्षिणः	-15125
▁परोपकार	-15126
▁प्रोक्ष	-15127
▁मनुष्यो	-15128
▁माचरेत्	-15129
▁वस्तुनो	-15130
▁स्मरामि	-15131
▁स्वीकरो	-15132
▁अन्तर्गत	-15133
▁अन्वेषणं	-15134
▁निर्धारण	-15135
▁परस्परवि	-15136
▁परस्मैपद	-15137
▁प्रतिनिध	-15138
▁मित्यत्र	-15139
▁वर्णितम्	-15140
▁वर्द्धते	-15141
▁विपर्ययः	-15142
▁वैकल्पिक	-15143
▁अनौपचारिक	-15144
▁चन्द्रमाः	-15145
▁देवदेवस्य	-15146
▁प्राङ्मुख	-15147
▁प्रारम्भः	-15148
▁मातापितरौ	-15149
▁विरुद्धम्	-15150
▁शस्त्राणि	-15151
▁द्विजोत्तम	-15152
▁सिद्धान्तः	-15153
▁व्युत्पत्ति	-15154
▁प्रतिपादितम्	-15155
▁रिक्तस्थानानि	-15156
ac	-15157
os	-15158
इव	-15159
ञि	-15160
ठ्	-15161
ack	-15162
ash	-15163
ser	-15164
दन्	-15165
मीक	-15166
ीनि	-15167
▁if	-15168
▁li	-15169
▁ro	-15170
▁चम	-15171
▁णौ	-15172
▁थं	-15173
क्या	-15174
दृक्	-15175
दृशं	-15176
भाति	-15177
ेश्च	-15178
▁__1	-15179
▁अफ्	-15180
▁इषु	-15181
▁कटि	-15182
▁जिग	-15183
▁जिव	-15184
▁तिं	-15185
▁थाः	-15186
▁दधे	-15187
▁देन	-15188
▁पीव	-15189
▁यिष	-15190
▁रास	-15191
▁लौह	-15192
▁ऽधि	-15193
▁ेद्	-15194
क्तम्	-15195
त्थाय	-15196
द्वये	-15197
ीयान्	-15198
▁1.1.	-15199
▁एसटी	-15200
▁कङ्क	-15201
▁जगन्	-15202
▁तप्य	-15203
▁देवय	-15204
▁नीया	-15205
▁पशवो	-15206
▁बङ्ग	-15207
▁भाग्	-15208
▁मयूर	-15209
▁मर्ष	-15210
▁महतो	-15211
▁मातर	-15212
▁यतते	-15213
▁यूनि	-15214
▁ललित	-15215
▁विभी	-15216
▁सीत्	-15217
▁स्पृ	-15218
▁ान्ध	-15219
▁२०१०	-15220
▁आदेशो	-15221
▁आविर्	-15222
▁कार्ड	-15223
▁क्रमं	-15224
▁ग्निः	-15225
▁चितवन	-15226
▁जनतां	-15227
▁देयम्	-15228
▁दैवेन	-15229
▁धृष्ट	-15230
▁निर्द	-15231
▁परन्त	-15232
▁पराजय	-15233
▁पर्यु	-15234
▁पापम्	-15235
▁बन्धो	-15236
▁भेषजं	-15237
▁युरोप	-15238
▁रज्जु	-15239
▁सर्वत	-15240
▁सुखाव	-15241
▁सुधार	-15242
▁ाध्या	-15243
▁ोऽयम्	-15244
▁्यादि	-15245
भारतस्य	-15246
▁उद्घोष	-15247
▁कुमारः	-15248
▁ख्यातो	-15249
▁चास्ति	-15250
▁च्वंगु	-15251
▁तस्मिं	-15252
▁धनवान्	-15253
▁धर्मतः	-15254
▁धैर्यं	-15255
▁परिक्र	-15256
▁पश्यतः	-15257
▁मोक्षो	-15258
▁विनिमय	-15259
▁वेदेषु	-15260
▁सञ्ज्ञ	-15261
▁समाश्र	-15262
▁सान्नि	-15263
शास्त्रं	-15264
स्त्रिंश	-15265
▁अनुबन्ध	-15266
▁आरोग्यं	-15267
▁एप्रिल्	-15268
▁कारागृह	-15269
▁किन्त्व	-15270
▁क्षीयते	-15271
▁डब्ल्यू	-15272
▁दरिद्रः	-15273
▁निर्णयं	-15274
▁पङ्क्ति	-15275
▁पुरोहित	-15276
▁मुमुक्ष	-15277
▁योजनानि	-15278
▁वैयाकरण	-15279
▁शाम्यति	-15280
▁स्वाधीन	-15281
▁ज्येष्ठः	-15282
▁तदुच्यते	-15283
▁निःश्रेय	-15284
▁पूर्वापर	-15285
▁मिच्छामि	-15286
▁मूर्ध्नि	-15287
▁यजमानस्य	-15288
▁योगविभाग	-15289
▁श्रोत्रं	-15290
▁सर्वाधिक	-15291
▁अत्युत्तम	-15292
▁निरूप्यते	-15293
▁पुस्तकालय	-15294
▁प्रतिपत्त	-15295
▁श्रीकृष्ण	-15296
▁संस्कृतम्	-15297
▁प्रतिष्ठां	-15298
▁वर्तमानस्य	-15299
▁स्पष्टीकरण	-15300
▁पुनरावृत्ति	-15301
एन	-15302
घन	-15303
वता	-15304
सर्	-15305
ुद्	-15306
ुषण	-15307
ैते	-15308
▁Pr	-15309
▁अ॑	-15310
▁षः	-15311
▁ऽय	-15312
▁्म	-15313
क्वः	-15314
ञ्चल	-15315
द्वे	-15316
पितृ	-15317
ान्द	-15318
ुण्य	-15319
▁150	-15320
▁छवि	-15321
▁भजन	-15322
▁मजि	-15323
▁यश्	-15324
त्रये	-15325
ल्लोक	-15326
विधान	-15327
ष्यत्	-15328
▁Slok	-15329
▁अण्ड	-15330
▁उच्छ	-15331
▁औषधं	-15332
▁कासा	-15333
▁क्रत	-15334
▁जप्त	-15335
▁जागृ	-15336
▁नर्थ	-15337
▁नीतः	-15338
▁नुम्	-15339
▁भग्न	-15340
▁रजनी	-15341
▁लागत	-15342
▁वराय	-15343
▁शिबि	-15344
▁ष्टि	-15345
▁ष्ठा	-15346
▁ष्वा	-15347
▁ादाव	-15348
क्रीडा	-15349
पश्चिम	-15350
ात्म्य	-15351
▁अथेहे	-15352
▁करणेन	-15353
▁गार्ग	-15354
▁देहली	-15355
▁नत्वा	-15356
▁नूनम्	-15357
▁पत्या	-15358
▁पाताल	-15359
▁बन्धं	-15360
▁भागेन	-15361
▁माल्य	-15362
▁याइगु	-15363
▁येषाम	-15364
▁लेखनं	-15365
▁वक्तु	-15366
▁वायोः	-15367
▁विनोद	-15368
▁सञ्जा	-15369
▁समभ्य	-15370
▁समर्च	-15371
▁ऽधुना	-15372
▁ाख्ये	-15373
▁ाच्या	-15374
▁अनिष्ट	-15375
▁दिष्टं	-15376
▁दुर्जन	-15377
▁दूषयति	-15378
▁न्यूनी	-15379
▁परिवेष	-15380
▁वितर्क	-15381
▁विहिता	-15382
▁शुल्कः	-15383
▁श्रोता	-15384
▁सक्रिय	-15385
▁सम्भवे	-15386
▁सुखानि	-15387
▁ार्द्ध	-15388
▁ोत्पाद	-15389
▁उपविश्य	-15390
▁एतादृशी	-15391
▁दर्शिता	-15392
▁प्रत्यग	-15393
▁भद्राणि	-15394
▁मनुष्ये	-15395
▁वेतनमान	-15396
▁व्यापाद	-15397
▁श्चित्त	-15398
▁चिन्तयन्	-15399
▁ज्ञानात्	-15400
▁द्राक्षा	-15401
▁व्यवसायी	-15402
▁सन्तुष्ट	-15403
▁चत्वारिंश	-15404
▁पर्याप्तं	-15405
▁वीर्यवान्	-15406
▁संक्षिप्त	-15407
▁सङ्ग्रामे	-15408
▁सम्बन्धमा	-15409
▁निर्दिष्टं	-15410
▁प्रतिबन्धक	-15411
▁सार्वधातुक	-15412
▁पुरुषोत्तमः	-15413
▁स्थानान्तरण	-15414
▁वर्तमानसूत्र	-15415
ळी	-15416
ूः	-15417
चान	-15418
धित	-15419
नाक	-15420
प्ट	-15421
राश	-15422
सुत	-15423
ुभौ	-15424
ेयर	-15425
ेवर	-15426
ॊधन	-15427
▁Vi	-15428
▁अि	-15429
▁ख़	-15430
▁फइ	-15431
प्रद	-15432
ातुं	-15433
▁ऋजु	-15434
▁गहन	-15435
▁गृण	-15436
▁चलं	-15437
▁धरि	-15438
▁धरो	-15439
▁निल	-15440
▁मुष	-15441
▁युध	-15442
▁रघु	-15443
▁शाह	-15444
गृहीत	-15445
र्पित	-15446
स्टिक	-15447
▁Love	-15448
▁type	-15449
▁एभिः	-15450
▁करीं	-15451
▁काम्	-15452
▁चारः	-15453
▁जिगु	-15454
▁ट्या	-15455
▁पितः	-15456
▁प्ले	-15457
▁बहती	-15458
▁मुखी	-15459
▁मृदा	-15460
▁यतस्	-15461
▁यद्ध	-15462
▁स्वक	-15463
▁स्व॒	-15464
▁ादेव	-15465
▁२००१	-15466
स्तात्	-15467
▁Hindi	-15468
▁अतीते	-15469
▁उपवास	-15470
▁उपायं	-15471
▁एकाकि	-15472
▁कथंया	-15473
▁केवलो	-15474
▁जागरू	-15475
▁तथागत	-15476
▁तदापि	-15477
▁त्पाद	-15478
▁त्राय	-15479
▁दीनां	-15480
▁धूर्त	-15481
▁ध्वम्	-15482
▁नाशाय	-15483
▁प्रणे	-15484
▁प्रथा	-15485
▁भाषणे	-15486
▁रत्नं	-15487
▁वैदेह	-15488
▁ह्यहं	-15489
▁ह्येष	-15490
▁ीकरणं	-15491
▁अधिष्ठ	-15492
▁काञ्चन	-15493
▁गच्छतः	-15494
▁चिह्नं	-15495
▁जातस्य	-15496
▁जीविका	-15497
▁देहिनः	-15498
▁नदीनां	-15499
▁निषेधा	-15500
▁भर्तुः	-15501
▁मह्यम्	-15502
▁विप्रो	-15503
▁विरोधा	-15504
▁व्रतम्	-15505
▁शस्यते	-15506
▁शान्तः	-15507
▁संसारं	-15508
▁सत्येन	-15509
▁सिद्धौ	-15510
▁सूक्तं	-15511
▁ाश्रयः	-15512
▁िष्यसि	-15513
▁ऋग्वेदः	-15514
▁गच्छामः	-15515
▁ध्यानम्	-15516
▁नान्यत्	-15517
▁निर्दोष	-15518
▁पराजितः	-15519
▁पृष्ठम्	-15520
▁महोत्सव	-15521
▁मूर्च्छ	-15522
▁यथेष्टं	-15523
▁वैश्विक	-15524
▁संपत्ति	-15525
▁सम्वन्ध	-15526
▁परित्याग	-15527
▁पुराणानि	-15528
▁प्रवर्तक	-15529
▁प्रसीदति	-15530
▁वातावरणं	-15531
▁सर्वधर्म	-15532
▁कर्तव्यता	-15533
▁प्रस्तावः	-15534
▁बहुव्रीहौ	-15535
▁विस्तीर्ण	-15536
▁स्वादिष्ट	-15537
▁कार्यकर्ता	-15538
▁क्रयविक्रय	-15539
▁नक्षत्राणि	-15540
▁प्रतिपत्ति	-15541
▁माहात्म्यं	-15542
▁स्वर्गादपि	-15543
▁इन्द्रियाणि	-15544
▁प्रत्ययान्त	-15545
▁प्रवर्त्तते	-15546
▁मित्युच्यते	-15547
▁प्राप्तवन्तः	-15548
▁चिह्नितपुस्तक	-15549
▁सम्प्रवक्ष्यामि	-15550
ms	-15551
फर	-15552
रम	-15553
िब	-15554
ृष	-15555
▁‖	-15556
रते	-15557
रिक	-15558
▁63	-15559
▁फॉ	-15560
▁ॊप	-15561
गादि	-15562
द्रु	-15563
म्हं	-15564
र्षु	-15565
▁Jan	-15566
▁Res	-15567
▁अञ्	-15568
▁इद्	-15569
▁गमे	-15570
▁पूष	-15571
▁भुं	-15572
▁वधः	-15573
▁सदन	-15574
▁सीम	-15575
▁ासु	-15576
▁ासौ	-15577
▁ोपे	-15578
▁१०५	-15579
▁१५१	-15580
▁१८६	-15581
कायां	-15582
न्तरा	-15583
पदानि	-15584
प्रेत	-15585
ब्धेः	-15586
▁क्षप	-15587
▁टीसी	-15588
▁तव्य	-15589
▁दद्य	-15590
▁द्यू	-15591
▁नातः	-15592
▁नाथः	-15593
▁नाशय	-15594
▁न्यु	-15595
▁पावक	-15596
▁पीड़	-15597
▁मुहु	-15598
▁रघुः	-15599
▁स्यो	-15600
ध्यात्	-15601
िकानां	-15602
▁आशीर्	-15603
▁इष्टं	-15604
▁कालीन	-15605
▁किंचन	-15606
▁चतुरः	-15607
▁देशम्	-15608
▁नामकं	-15609
▁निपुण	-15610
▁पठामि	-15611
▁बृहती	-15612
▁मुण्ड	-15613
▁मुदाह	-15614
▁यतोहि	-15615
▁रुप्य	-15616
▁वर्णो	-15617
▁विवेश	-15618
▁व्ययः	-15619
▁सहमति	-15620
▁स्वरा	-15621
श्यन्ति	-15622
ष्ट्रीय	-15623
▁अधिकाः	-15624
▁आकर्षण	-15625
▁आत्मना	-15626
▁गच्छसि	-15627
▁च्छन्द	-15628
▁ज्ञेयो	-15629
▁बान्धव	-15630
▁मृत्यो	-15631
▁यन्त्य	-15632
▁शुद्धा	-15633
▁संयोजक	-15634
▁समाधिः	-15635
▁समेत्य	-15636
▁सोमस्य	-15637
▁स्वरेण	-15638
▁इत्यन्त	-15639
▁कारागार	-15640
▁कार्त्त	-15641
▁गृहस्था	-15642
▁दास्यति	-15643
▁दूरदर्श	-15644
▁न्वितम्	-15645
▁परिहारः	-15646
▁मुद्रित	-15647
▁वर्गस्य	-15648
▁वृत्तेः	-15649
▁समस्यते	-15650
▁स्तुतिं	-15651
▁स्पष्टी	-15652
▁स्वस्थः	-15653
▁कस्यचिद्	-15654
▁काङ्क्षि	-15655
▁तत्त्वेन	-15656
▁देवेभ्यो	-15657
▁नियुक्तः	-15658
▁प्राज्ञः	-15659
▁विजानाति	-15660
▁व्यावर्त	-15661
▁श्रीमान्	-15662
▁संयुक्तो	-15663
▁सञ्चिकाः	-15664
▁स्थितस्य	-15665
▁ेश्वरस्य	-15666
▁प्रकृतिर्	-15667
▁प्रथमवारं	-15668
▁वृक्षाणां	-15669
▁निर्देशात्	-15670
▁विद्यार्थि	-15671
▁संवेदनशीलता	-15672
▁प्रकीर्तितम्	-15673
-"	-15674
अं	-15675
इड	-15676
ऊं	-15677
▁̄	-15678
fin	-15679
अधि	-15680
त्न	-15681
बुक	-15682
बुद	-15683
यैव	-15684
रतः	-15685
ल्ट	-15686
वात	-15687
शयो	-15688
सूय	-15689
▁तॄ	-15690
▁नट	-15691
▁नह	-15692
▁सज	-15693
▁ें	-15694
क्षो	-15695
गमनं	-15696
देवः	-15697
ष्मः	-15698
▁Jul	-15699
▁ind	-15700
▁आइत	-15701
▁खलः	-15702
▁गंध	-15703
▁गणं	-15704
▁छ्व	-15705
▁जपं	-15706
▁दरः	-15707
▁भाय	-15708
▁लड़	-15709
▁ासि	-15710
▁ाहु	-15711
▁११७	-15712
क्षरं	-15713
निवेश	-15714
रक्षण	-15715
वित्त	-15716
वृष्ट	-15717
हस्ते	-15718
▁कृणु	-15719
▁ख्रि	-15720
▁गर्ग	-15721
▁गीति	-15722
▁चोरः	-15723
▁जुहो	-15724
▁तिङ्	-15725
▁दरॊण	-15726
▁धिकं	-15727
▁पिपी	-15728
▁पूरा	-15729
▁मर्ह	-15730
▁मिनट	-15731
▁वषट्	-15732
▁विशद	-15733
▁वेद्	-15734
▁शेषो	-15735
▁ऽङ्ग	-15736
▁ऽसमि	-15737
▁ांशः	-15738
▁ालयं	-15739
द्यापि	-15740
पुराणे	-15741
▁अवस्थ	-15742
▁कश्यप	-15743
▁चन्दन	-15744
▁चिन्व	-15745
▁तपश्च	-15746
▁दुःखम	-15747
▁द्विग	-15748
▁धर्म्	-15749
▁धिकरण	-15750
▁नाटकं	-15751
▁नियमे	-15752
▁पुरीं	-15753
▁बर्हि	-15754
▁मधुरा	-15755
▁मरणम्	-15756
▁यमस्य	-15757
▁रुन्ध	-15758
▁विमुख	-15759
▁सत्रा	-15760
▁ोऽप्य	-15761
▁अष्टमे	-15762
▁इत्ययं	-15763
▁करणीयं	-15764
▁कारिणः	-15765
▁काश्यप	-15766
▁गोष्ठी	-15767
▁जनगणना	-15768
▁निवेशः	-15769
▁पादयोः	-15770
▁भक्ताः	-15771
▁भाषितं	-15772
▁भिन्ने	-15773
▁मङ्गलं	-15774
▁रूपिणी	-15775
▁विजानी	-15776
▁विधाने	-15777
▁विषयकः	-15778
▁व्रजति	-15779
▁शिल्पि	-15780
▁संयोगे	-15781
▁सद्भाव	-15782
▁सिस्टम	-15783
▁ेष्वेव	-15784
▁अन्येषु	-15785
▁अलङ्कार	-15786
▁असाधारण	-15787
▁कात्याय	-15788
▁ग्राम्य	-15789
▁तस्मादु	-15790
▁दुःखानि	-15791
▁पुष्टिं	-15792
▁भक्तिर्	-15793
▁भार्यया	-15794
▁विकल्पं	-15795
▁विमानेन	-15796
▁विशन्ति	-15797
▁सत्त्वे	-15798
▁समाप्ते	-15799
▁समुदायः	-15800
▁स्तिष्ठ	-15801
▁तन्मध्ये	-15802
▁तीर्थानि	-15803
▁त्रिविधा	-15804
▁धन्यवादः	-15805
▁निमित्ते	-15806
[...]
