<unk>	0
<s>	0
</s>	0
▁	-2.60584
।	-3.07025
ं	-3.84485
ः	-3.97192
॥	-4.57336
े	-4.64313
,	-4.64854
▁न	-4.69697
▁च	-4.862
-	-4.88062
म्	-4.91456
ा	-5.0429
.	-5.10947
ो	-5.15978
▁-	-5.27573
▁(	-5.36723
▁इति	-5.39355
)	-5.4019
स्य	-5.42727
▁"	-5.446
▁स	-5.45529
म	-5.62515
ाः	-5.84234
"	-5.8992
▁अ	-5.92903
▁वा	-5.94984
▁एव	-5.96391
ेन	-5.97748
▁तु	-5.99328
न	-6.14142
▁हि	-6.16733
ी	-6.18913
▁.	-6.1899
त	-6.21655
ति	-6.26314
या	-6.27621
ि	-6.31335
'	-6.34098
▁'	-6.34382
▁यथा	-6.36518
▁ते	-6.39671
क	-6.43582
▁भवति	-6.50955
ाय	-6.51973
स	-6.57207
ौ	-6.57273
ानां	-6.57566
?	-6.58839
तः	-6.59802
▁_	-6.61652
ानि	-6.62521
▁तथा	-6.62562
ते	-6.64752
ात्	-6.68682
ता	-6.68777
्	-6.69866
ैः	-6.70012
▁अपि	-6.70222
श्च	-6.71862
▁प्र	-6.72757
▁तस्य	-6.72842
▁किं	-6.7346
▁यदि	-6.7393
▁?	-6.77191
▁अस्ति	-6.78795
▁मे	-6.8047
▁प्रति	-6.80845
ेषु	-6.81067
▁सर्व	-6.82763
▁आ	-6.84098
▁मम	-6.85184
य	-6.85542
▁स्व	-6.87104
:	-6.88475
▁वि	-6.88703
र	-6.90162
ान्	-6.90351
अ	-6.9123
▁एवं	-6.942
▁तत्	-6.96503
व	-6.97995
▁पुनः	-6.98051
▁तत्र	-6.98394
▁सा	-6.98894
न्	-6.9918
र्	-7.01405
॒	-7.04148
ना	-7.05474
▁पर	-7.06646
▁नाम	-7.07332
स्	-7.09371
्य	-7.11255
▁वै	-7.13063
मा	-7.14713
▁यत्	-7.16809
▁सह	-7.17624
॑	-7.17672
ां	-7.21486
▁व	-7.21606
▁तदा	-7.2322
▁ततः	-7.23996
▁अथ	-7.24377
▁सु	-7.24603
ेण	-7.25024
ादि	-7.2531
मेव	-7.28816
त्	-7.2886
▁२	-7.30112
▁तेन	-7.30539
▁तव	-7.30571
/	-7.31131
▁य	-7.31388
पि	-7.31545
१	-7.31958
प	-7.32122
;	-7.3247
]	-7.33194
▁१	-7.3562
▁=	-7.36021
च	-7.36302
वि	-7.36566
ॊ	-7.37063
▁एक	-7.37086
स्तु	-7.38806
▁सः	-7.39696
▁सं	-7.39895
सि	-7.41416
▁मया	-7.42094
श	-7.42134
नि	-7.42195
ग	-7.42208
▁__	-7.42214
▁त	-7.42435
मिति	-7.42982
▁तं	-7.43503
▁तद्	-7.43506
तो	-7.43624
ेति	-7.43644
▁ये	-7.43779
▁[	-7.44017
▁!	-7.45018
द	-7.46277
▁कथं	-7.47099
s	-7.48957
२	-7.49049
▁अत्र	-7.50766
▁यो	-7.5113
!	-7.51553
तु	-7.52114
ु	-7.52542
▁मा	-7.54476
▁अहं	-7.54602
प्र	-7.55417
त्व	-7.55543
त्वं	-7.55804
ल	-7.57482
▁त्वं	-7.57666
▁कर्म	-7.59782
ये	-7.60999
सं	-7.61027
ज	-7.61138
य्	-7.62554
▁देव	-7.63112
▁यः	-7.63167
▁प	-7.63707
--	-7.63712
▁तद	-7.64469
▁परि	-7.64699
▁यत्र	-7.64854
▁ॐ	-7.64882
सु	-7.65205
▁उप	-7.65268
के	-7.66577
वा	-7.67488
▁आसीत्	-7.6783
▁हे	-7.67948
ह	-7.6833
न्ति	-7.6851
▁के	-7.68916
▁स्यात्	-7.6932
▁पूर्व	-7.70307
▁क	-7.70513
ने	-7.70615
▁३	-7.7143
यति	-7.71631
▁सर्वे	-7.71723
कः	-7.71802
▁अतः	-7.71832
०	-7.71925
▁धर्म	-7.71954
स्व	-7.7197
गु	-7.72097
▁यदा	-7.72972
▁--	-7.73654
का	-7.73943
▁या	-7.74808
योः	-7.74843
कं	-7.76019
▁नमः	-7.76051
▁सम	-7.76567
नं	-7.7915
यो	-7.79381
मपि	-7.80007
▁/	-7.80093
ऽ	-7.8061
▁नि	-7.82972
तां	-7.83099
भिः	-7.83138
▁करोति	-7.83307
थ	-7.83659
▁का	-7.83939
ै	-7.84329
▁ह	-7.85034
▁वर्ष	-7.85436
आ	-7.85752
ाणां	-7.86294
▁तेषां	-7.87432
▁अस्य	-7.87556
वान्	-7.87839
▁४	-7.88603
यां	-7.89714
्या	-7.90036
सा	-7.90317
▁तर्हि	-7.91078
▁इदं	-7.91178
▁भवेत्	-7.91366
ार्थ	-7.91462
त्वात्	-7.91903
▁गुण	-7.92776
▁इव	-7.93008
तया	-7.93157
▁वर्तते	-7.93307
__	-7.93534
▁सदा	-7.93709
ाद्	-7.94728
▁वयं	-7.94865
▁उ	-7.95278
ण	-7.95445
▁सन्ति	-7.96176
▁मां	-7.96335
ाद	-7.96572
ख	-7.97309
▁५	-7.97762
याः	-7.98048
▁दु	-7.98323
▁भविष्यति	-7.98326
से	-7.98865
▁*	-7.99525
▁अयं	-7.9965
द्	-8.00439
▁और	-8.00736
▁यस्य	-8.00933
▁विश्व	-8.01163
ान	-8.01472
▁वर्षे	-8.01727
३	-8.01781
▁1	-8.02026
ित	-8.02288
▁इह	-8.02721
+	-8.02784
▁प्रथम	-8.03408
इ	-8.0367
▁कृत्वा	-8.03708
ैव	-8.03811
▁इत्य	-8.04125
▁सर्वं	-8.0499
ैर्	-8.05797
▁केवलं	-8.06001
वत्	-8.06835
ती	-8.07001
ड	-8.0721
▁पद	-8.08262
▁येन	-8.08648
िक	-8.08672
▁+	-8.08773
▁नास्ति	-8.09228
▁कार्य	-8.09726
▁महा	-8.10118
भ	-8.10222
▁ततो	-8.10331
▁बहु	-8.10594
▁स्म	-8.1091
ञ्च	-8.11108
ब	-8.11294
▁भव	-8.11778
▁विना	-8.12266
▁६	-8.12456
▁अन्य	-8.1316
▁ज्ञान	-8.13432
▁यद्	-8.13657
▁विद्यते	-8.13843
▁अत	-8.14384
हि	-8.14501
▁किम्	-8.15344
▁एतत्	-8.15612
ट	-8.15785
▁देश	-8.1589
_	-8.15918
त्र	-8.16304
सी	-8.17388
यः	-8.17957
▁काल	-8.18095
४	-8.18308
स्त	-8.18465
यं	-8.18491
घ	-8.1874
त्य	-8.18892
▁राजा	-8.1951
ीय	-8.19853
▁द	-8.19875
▁दश	-8.20344
▁खः	-8.20369
को	-8.20938
▁इ	-8.21015
षु	-8.21247
▁अप	-8.2147
श्	-8.21603
▁परं	-8.21796
▁ए	-8.22242
रा	-8.22552
▁दृश्यते	-8.22602
मि	-8.22708
त्वेन	-8.22813
▁एष	-8.22824
▁मध्ये	-8.22927
▁काम	-8.23342
ला	-8.24094
▁दृष्ट्वा	-8.245
▁सर्वत्र	-8.24831
▁वेद	-8.25329
ोऽ	-8.25542
ार्थं	-8.25658
▁अभि	-8.25761
▁पुनर्	-8.26034
▁आह	-8.2616
च्	-8.26336
▁अनु	-8.26597
ोप	-8.26893
ेत	-8.27162
▁स्त्री	-8.27697
▁८	-8.2789
दि	-8.2796
▁जन	-8.27981
दा	-8.28307
▁पुत्र	-8.28337
▁भाषा	-8.28404
▁शब्द	-8.28932
▁सप्त	-8.29125
▁केवल	-8.29193
▁ख	-8.29714
▁2	-8.299
▁जन्म	-8.30166
▁अति	-8.30188
▁ग	-8.30323
िता	-8.30574
ाणि	-8.30589
ाव	-8.30708
वे	-8.31226
ोऽपि	-8.31392
कार	-8.31889
▁अर्थ	-8.32209
▁त्रि	-8.32283
▁लोक	-8.32463
्यते	-8.32547
ँ	-8.32708
नु	-8.32768
▁जल	-8.32869
▁अभवत्	-8.33233
▁शक्ति	-8.33263
न्ते	-8.33606
▁अन	-8.33626
पा	-8.34066
मान	-8.34176
▁पाप	-8.34236
रि	-8.34961
▁राज	-8.35051
रूप	-8.3517
भि	-8.3545
ेऽपि	-8.35735
▁१०	-8.36441
▁सामान्य	-8.36695
कर	-8.37169
ामि	-8.37255
▁संशयः	-8.37572
▁त्वया	-8.37627
भाव	-8.37643
▁कृत	-8.37834
हं	-8.38004
काल	-8.38018
▁पञ्च	-8.3842
▁र	-8.38618
▁को	-8.39568
▁चेत्	-8.39624
▁अस्मिन्	-8.39928
▁त्व	-8.4006
येत्	-8.4039
कर्म	-8.40401
▁यद	-8.4074
▁सूचना	-8.40881
▁इत्यादि	-8.41094
▁जायते	-8.41304
▁नो	-8.4131
▁भवन्ति	-8.41849
देव	-8.41906
पर	-8.41948
ितः	-8.4202
▁कृते	-8.42023
ई	-8.42547
▁ब	-8.4353
▁ह्य	-8.4363
▁कः	-8.43858
▁काले	-8.44252
▁3	-8.4427
▁तमे	-8.4445
उ	-8.4462
रूपेण	-8.45118
▁ज	-8.4543
▁अव	-8.45786
▁१९	-8.45875
▁गृह	-8.46091
▁फल	-8.462
परि	-8.46272
ायां	-8.46337
▁जीव	-8.46372
क्	-8.46456
▁अन्यथा	-8.46544
▁स्वयं	-8.46554
▁ना	-8.46686
▁शक्यते	-8.46712
िका	-8.46744
▁कार्यं	-8.46867
री	-8.47094
▁रे	-8.4721
मध्ये	-8.4726
▁७	-8.47268
ध	-8.47686
न्न	-8.47795
ष	-8.47977
ए	-8.48457
जन	-8.48475
ानाम्	-8.48533
▁नैव	-8.48873
▁तथापि	-8.49058
▁नित्यं	-8.49189
ेव	-8.49327
▁कु	-8.49408
काले	-8.49531
▁कि	-8.49647
▁भारत	-8.49742
ीं	-8.49792
प्रति	-8.49822
▁श	-8.50111
▁सुख	-8.50219
न्त	-8.50352
▁भाषण	-8.50864
्यं	-8.51359
▁पुं	-8.51854
▁दुःख	-8.52029
इति	-8.5211
▁अद्य	-8.52881
नाम	-8.53177
▁विषय	-8.53218
▁धन	-8.53506
५	-8.53628
▁प्राण	-8.53666
ाश्च	-8.53927
धर्म	-8.5409
ल्	-8.54169
तं	-8.54308
पद	-8.54476
▁अस्माकं	-8.54738
▁एकः	-8.54845
ैर	-8.55265
▁उत्तर	-8.55276
▁चैव	-8.55347
▁ई	-8.55466
▁किन्तु	-8.55547
▁राज्य	-8.55575
▁उच्यते	-8.55722
गुण	-8.56009
ङ्ग	-8.56263
न्तु	-8.56281
▁क्रियते	-8.56331
▁तस्मात्	-8.56429
▁एते	-8.56488
ैक	-8.5697
नां	-8.57286
यत्	-8.57286
त्वे	-8.57337
कम्	-8.57402
▁अथवा	-8.57707
माह	-8.58141
रो	-8.58142
▁निर्	-8.58519
▁कर	-8.58549
a	-8.58867
▁यतः	-8.58924
नः	-8.59036
यते	-8.59089
ज्ञान	-8.59634
रे	-8.59641
ट्	-8.5968
▁क्रिया	-8.59701
मे	-8.59948
▁जनाः	-8.60775
▁ऽ	-8.60891
यन्ति	-8.61032
▁भवतः	-8.61201
पूर्व	-8.61302
▁प्रश्न	-8.62061
णा	-8.62274
▁पृष्ठानि	-8.62391
द्य	-8.62459
▁कोई	-8.62475
▁श्री	-8.62515
▁()	-8.62655
▁परम	-8.62804
स्थ	-8.6285
▁मन	-8.62979
जा	-8.6316
i	-8.63379
▁भाव	-8.63523
मस्ति	-8.63575
॰	-8.63585
नी	-8.63739
▁पुरुष	-8.63766
▁इत्यस्य	-8.6401
▁नव	-8.6409
▁त्वां	-8.64326
▁९	-8.64385
▁नियम	-8.6443
धा	-8.64661
ङ	-8.6467
▁सत्य	-8.64839
▁छ	-8.649
▁पूर्वं	-8.6536
यात	-8.65663
चि	-8.65876
▁केन	-8.66138
▁लोके	-8.6619
मात्र	-8.66311
▁पुनर	-8.66386
▁5	-8.66434
ू	-8.66503
ात	-8.67159
त्वा	-8.6719
ले	-8.67205
देश	-8.6729
▁विशेष	-8.67431
▁११	-8.67703
▁कारण	-8.67991
▁प्राप्त	-8.68221
राज	-8.68231
▁4	-8.6839
शब्द	-8.68501
वती	-8.68584
ानु	-8.68965
▁भ	-8.69319
>	-8.69415
िः	-8.69462
▁तथैव	-8.69751
ष्ट	-8.69857
यन्	-8.69933
ितं	-8.7006
कृत	-8.70358
त्वम्	-8.7043
वः	-8.70478
▁अनुसंधान	-8.70496
▁भवान्	-8.70616
ादौ	-8.70623
▁तत	-8.70651
▁अधिक	-8.708
▁परीक्षा	-8.70809
▁भारतीय	-8.70858
▁पूर्ण	-8.70881
▁१२	-8.71176
न्य	-8.71244
ाद्य	-8.71412
प्य	-8.71831
रिति	-8.71862
▁पुरा	-8.71916
▁सर्वेषां	-8.72086
स्या	-8.72102
सः	-8.7237
▁द्वादश	-8.72557
लं	-8.73023
c	-8.73134
▁यावत्	-8.73339
▁व्य	-8.73568
▁पिता	-8.73572
ङ्	-8.7371
▁भावः	-8.73783
नो	-8.73792
▁२०	-8.73874
ेत्	-8.74041
▁वस्तु	-8.74089
▁वन	-8.74159
ाह	-8.74278
▁समा	-8.7435
▁सन्	-8.74363
▁१८	-8.74427
ली	-8.74907
▁प्राप्नोति	-8.75096
▁भगवान्	-8.753
▁सर्वदा	-8.75318
ेभ्यः	-8.75495
सम	-8.75645
मु	-8.75799
स्ते	-8.75829
तम	-8.76246
▁अनेन	-8.76256
▁गो	-8.76382
६	-8.76405
कि	-8.76416
▁खलु	-8.76438
गत	-8.76461
▁अधिकतम	-8.76505
फल	-8.76518
▁इदानीं	-8.77248
▁संस्कृत	-8.77373
मुप	-8.77399
▁कुर्वन्ति	-8.77513
▁घट	-8.7762
च्छ	-8.77653
▁इत्यर्थः	-8.77935
▁यज्ञ	-8.78446
▁ननु	-8.78613
ितम्	-8.78615
▁की	-8.79736
भूत	-8.79821
▁एषा	-8.79893
▁रस	-8.80046
▁माता	-8.80051
▁परा	-8.80135
▁द्वितीय	-8.80464
▁यत	-8.8077
▁शत	-8.80874
y	-8.8099
▁विद्या	-8.81121
▁अधिनियम	-8.81136
▁दोष	-8.81209
[	-8.81262
ाभ्यां	-8.81405
▁तस्मिन्	-8.81495
ताम्	-8.82182
धि	-8.82279
...	-8.82321
▁समुद्र	-8.82427
मी	-8.82483
ान्तर	-8.82592
▁सति	-8.8266
मिदं	-8.82703
▁संयुक्त	-8.82751
▁तम	-8.82847
पाद	-8.82858
▁8	-8.82895
व्य	-8.82903
▁सूर्य	-8.83085
▁फलं	-8.83094
कु	-8.83328
ापि	-8.83348
पी	-8.83651
▁चा	-8.83789
▁वेबसाइट	-8.84022
str	-8.84067
प्	-8.8436
८	-8.84672
▁शुभ	-8.84681
▁प्रा	-8.84956
▁गृहे	-8.8526
▁१५	-8.85262
बल	-8.85419
तीति	-8.85458
▁दिन	-8.85578
▁विकास	-8.85781
▁तौ	-8.85882
▁विषये	-8.86134
मन	-8.86152
▁द्वि	-8.86235
विशेष	-8.86288
णि	-8.86288
भेद	-8.86326
भ्य	-8.86462
▁ब्रह्म	-8.86476
सर्व	-8.86534
▁कारणं	-8.86553
वान	-8.86596
वर्ष	-8.86631
७	-8.86716
▁प्रत्य	-8.86896
ान्य	-8.86976
▁देवा	-8.86986
▁भू	-8.87281
▁19	-8.87401
स्ति	-8.87413
▁मनो	-8.87517
ात्म	-8.87769
ेऽ	-8.8777
▁ध	-8.87812
▁तां	-8.87998
देशे	-8.88009
▁भय	-8.8806
▁१४	-8.88653
▁श्रुत्वा	-8.88824
▁एका	-8.88868
ॆ	-8.88907
▁मुख्य	-8.88975
▁पी	-8.89005
विषये	-8.89369
दे	-8.8963
▁वर्ण	-8.89732
▁वर्तमान	-8.90136
▁कदाचित्	-8.90298
नम्	-8.9032
▁संख्या	-8.90409
▁त्वा	-8.90528
▁द्वारा	-8.90609
वर	-8.90716
▁यतो	-8.9083
▁1.	-8.9086
लोक	-8.91148
र्थ	-8.91171
▁है	-8.91473
▁शिव	-8.91517
र्न	-8.91656
▁कर्तुं	-8.92027
पु	-8.92149
▁#	-8.92269
▁प्रत्यक्ष	-8.924
ात्मा	-8.92452
ाम्	-8.92714
दु	-8.92784
▁दक्षिण	-8.92801
्यां	-8.92891
क्ष	-8.92955
भिर्	-8.92984
▁गुरु	-8.93001
▁यद्यपि	-8.93288
च्च	-8.93445
2	-8.93724
▁पा	-8.93742
▁लघु	-8.93749
▁अहम्	-8.9375
कार्य	-8.93808
हे	-8.93897
▁अध्ययन	-8.93906
रु	-8.93958
▁बल	-8.94021
▁वो	-8.94396
मनु	-8.9443
सम्बद्धानि	-8.9449
िनः	-8.94508
▁रूप	-8.94547
▁बाल	-8.94625
▁प्रातः	-8.94759
▁10	-8.94934
▁एत	-8.95023
▁क्वचित्	-8.9514
▁शत्रु	-8.952
▁समाचार	-8.95343
▁भाग	-8.95465
▁गत्वा	-8.95532
यत	-8.95636
▁नित्य	-8.95693
▁निज	-8.95859
स्थान	-8.96113
▁इयं	-8.96153
स्तथा	-8.96177
काः	-8.96211
▁गत	-8.96391
शक्ति	-8.96591
%	-8.96658
▁प्राप्य	-8.96791
▁6	-8.96794
▁>	-8.96823
▁पु	-8.96904
▁विधि	-8.9692
▁जनवरी	-8.97095
▁प्रजा	-8.97234
▁मु	-8.97441
▁भूत	-8.97495
तर	-8.97613
▁इत्यनेन	-8.97776
▁दृश्य	-8.97846
वेद	-8.97932
र्य	-8.98015
▁सोम	-8.98069
श्व	-8.98137
रूपं	-8.98607
▁रक्ष	-8.98912
▁राम	-8.98925
d	-8.98926
▁मयि	-8.9904
3	-8.99256
▁शरीर	-8.99331
ाभि	-8.99411
मिव	-8.99522
---	-8.99735
धन	-8.99747
▁विशेषतः	-8.99823
▁I	-8.99926
गा	-8.99954
▁विकल्प	-9.00206
▁भारतस्य	-9.00293
ग्	-9.00304
▁स्वप्न	-9.00411
▁7	-9.00498
▁पाद	-9.00534
▁...	-9.00575
▁विभाग	-9.00659
▁गतः	-9.00665
▁कुरु	-9.00737
▁वर	-9.00764
भव	-9.00899
विषय	-9.00938
▁संसार	-9.00976
भाग	-9.01011
▁राष्ट्र	-9.01017
▁यं	-9.01054
▁S	-9.01148
वाद	-9.01291
▁एषः	-9.01701
▁समान	-9.01714
द्ध	-9.01733
▁इत्येव	-9.01744
▁देशे	-9.01946
वर्ण	-9.02011
▁लाभ	-9.02088
लक्षण	-9.02318
▁सहस्र	-9.02368
पुत्र	-9.02394
S	-9.02417
९	-9.0242
दोष	-9.02789
▁एवम्	-9.0284
मन्त्र	-9.02893
▁देह	-9.02959
▁पृष्ठ	-9.02965
ज्ञ	-9.02973
▁तस्या	-9.03133
#	-9.03179
हा	-9.03291
▁कृतं	-9.03335
▁सर्वा	-9.03469
▁अयम्	-9.0404
वार	-9.04069
▁अर्थः	-9.0409
यु	-9.04108
मुच्यते	-9.04227
P	-9.04404
▁ल	-9.04408
▁पृथक्	-9.0489
▁एकं	-9.04958
यथा	-9.04981
काम	-9.05066
क्रम	-9.05119
▁१७	-9.0513
▁इत्यत्र	-9.0536
▁सर्व्व	-9.05403
▁अधिकार	-9.05724
वन	-9.05742
▁2.	-9.05759
▁देवता	-9.05787
1	-9.05787
▁आत्म	-9.05823
▁मित्र	-9.05966
योग	-9.06025
▁कृपया	-9.06081
▁ओ	-9.0657
▁मुक्त	-9.06647
योर्	-9.0667
▁मध्य	-9.06877
=	-9.06995
स्त्व	-9.07147
दान	-9.07159
▁सम्	-9.07297
▁समय	-9.07315
▁B	-9.07361
▁हृदय	-9.07438
▁हो	-9.07623
▁दृष्ट	-9.08229
▁मन्त्र	-9.08253
कारः	-9.08265
▁ज्ञानं	-9.08265
▁स्थान	-9.08282
ादीनां	-9.08761
▁एतद्	-9.08872
▁तेषु	-9.08906
▁शेष	-9.08939
▁पुण्य	-9.08994
▁यम	-9.09112
▁जगत्	-9.09278
▁परीक्षण	-9.09409
क्रिया	-9.0943
▁---	-9.09645
▁Home	-9.09652
रस	-9.09744
भेदे	-9.09752
भा	-9.09791
रेव	-9.0983
ेयं	-9.09933
▁पक्ष	-9.10014
▁क्व	-9.10087
*	-9.10098
▁विचार	-9.10148
▁दीर्घ	-9.1037
▁मनः	-9.10376
▁9	-9.10537
e	-9.10548
▁मूल	-9.10777
▁शुद्ध	-9.1083
▁रोग	-9.1111
स्यापि	-9.11256
▁ध्यान	-9.11265
जि	-9.11315
▁युद्ध	-9.11343
t	-9.11408
रं	-9.11447
▁पि	-9.1145
छ	-9.11462
▁प्रधान	-9.11505
▁कथा	-9.11697
पुरुष	-9.11751
भाषा	-9.11772
▁पश्यति	-9.11884
▁वापि	-9.12082
▁पाठ	-9.12194
▁मद	-9.12252
करण	-9.12347
▁न्याय	-9.12503
▁योग	-9.12628
भ्यः	-9.12702
लि	-9.12743
▁तर	-9.12774
वै	-9.12815
वद	-9.12888
सो	-9.13013
ानाम	-9.13027
▁क्षण	-9.13041
▁रात्रौ	-9.13054
▁विप्र	-9.13071
णं	-9.13074
▁१६	-9.13081
▁भवता	-9.13152
▁प्रमाण	-9.13207
ऽपि	-9.13224
▁थ्व	-9.13264
▁मनुष्य	-9.13375
▁पर्वत	-9.13391
ान्न	-9.13587
A	-9.13681
वास	-9.13707
▁हस्त	-9.13723
दिति	-9.14082
▁भविष्य	-9.14104
ओ	-9.14172
वी	-9.14258
▁कश्चित्	-9.1426
ग्र	-9.14267
चा	-9.14297
▁प्रकाश	-9.14367
▁अग्नि	-9.14426
▁वायु	-9.14805
▁<	-9.15026
▁प्रथमं	-9.15077
था	-9.15088
िन	-9.15312
▁यूयं	-9.15313
युक्त	-9.15352
▁याति	-9.15422
मय	-9.1546
यामि	-9.15601
सह	-9.15604
▁१३	-9.15635
▁दूर	-9.15699
▁कस्य	-9.15882
▁चापि	-9.15978
ड्	-9.16229
ोक्त	-9.16361
▁गच्छति	-9.1658
▁प्रकृति	-9.16586
णे	-9.1659
की	-9.16844
▁क्षेत्र	-9.1685
▁तिथि	-9.16856
ाऽ	-9.16858
▁स्वर्ग	-9.16888
▁वद	-9.16988
▁नृप	-9.17034
n	-9.17139
▁देवानां	-9.17269
▁वृक्ष	-9.17278
शत	-9.17291
ायाः	-9.17315
l	-9.17316
▁कुत्र	-9.17368
D	-9.17384
ाङ्ग	-9.17582
▁निर	-9.17646
िति	-9.17672
▁किमपि	-9.17838
▁गति	-9.17882
▁रथ	-9.17894
▁प्रिय	-9.17911
पक्ष	-9.17967
एक	-9.17969
▁इन्द्र	-9.18007
ात्मक	-9.1816
▁दिव्य	-9.18376
▁अनेक	-9.18468
▁परिभाषा	-9.18475
▁तस्याः	-9.18512
मास	-9.18712
▁तावत्	-9.18851
b	-9.18907
ळ	-9.18914
जी	-9.19173
दिन	-9.1943
▁त्रि०	-9.19467
टी	-9.19587
ैश्च	-9.19679
ुः	-9.19774
▁इदम्	-9.19822
ान्त	-9.19951
▁जा	-9.19952
▁भिन्न	-9.20143
▁रूपं	-9.20208
जल	-9.20218
▁चित्र	-9.20224
▁कुल	-9.20279
▁जलं	-9.20485
▁माया	-9.2052
▁दे	-9.20697
▁मह	-9.2075
▁भा	-9.20765
▁A	-9.20885
्वा	-9.20899
ाम	-9.20994
▁दिवस	-9.21009
▁कल्प	-9.21037
▁महत्	-9.21158
▁→	-9.21178
▁सो	-9.2123
▁गा	-9.21232
▁ला	-9.2151
फ	-9.21602
▁ता	-9.21617
पूर्ण	-9.21801
्यो	-9.21984
▁अमेरिका	-9.22038
▁मानव	-9.22123
▁तन्	-9.22182
▁कोऽपि	-9.22205
▁प्रतिशत	-9.22325
▁कदा	-9.22367
सौ	-9.22552
▁बुद्धि	-9.22748
शेष	-9.22748
गे	-9.22755
▁प्रायः	-9.22867
▁पश्य	-9.2287
▁विज्ञान	-9.22911
▁अधुना	-9.23013
▁तदेव	-9.23106
▁गते	-9.23112
ठ	-9.23117
▁उच्च	-9.23226
▁प्रयोग	-9.23257
ास्ते	-9.23667
▁प्रभाव	-9.23697
▁आसन्	-9.23715
ितुं	-9.23743
▁वीर	-9.2428
▁msg	-9.24437
द्वारा	-9.24598
▁कला	-9.24754
दश	-9.24834
▁मान	-9.24976
▁दण्ड	-9.25057
पुर	-9.25175
▁कृतम्	-9.25221
िनी	-9.25337
ाप	-9.2535
क्त	-9.25391
▁बि	-9.25455
▁उत्तम	-9.25799
ार्थः	-9.25894
लो	-9.25949
वां	-9.25969
मार्ग	-9.26136
▁शास्त्र	-9.26155
▁18	-9.26442
यितुं	-9.26453
▁पितृ	-9.2646
ुं	-9.26493
▁धारा	-9.26543
यम	-9.26669
B	-9.26771
विद्या	-9.26875
▁वय	-9.26992
▁देवी	-9.27026
स्तव	-9.27092
▁नगर	-9.27128
m	-9.27155
▁राज्यं	-9.27175
याम्	-9.27186
शब्दः	-9.27188
सार	-9.27358
मह	-9.27378
मेक	-9.27406
▁प्रत्यय	-9.27426
▁प्राप्ते	-9.276
▁सुखं	-9.27631
▁प्रशिक्षण	-9.27663
स्स	-9.27861
मूल	-9.27876
▁छुं	-9.27911
नेन	-9.27919
गृह	-9.28126
▁देवाः	-9.28139
जीव	-9.28294
▁C	-9.28477
▁शिक्षा	-9.28492
ञ्	-9.28634
▁पुरुषः	-9.28679
▁शृणु	-9.28701
षि	-9.28729
दी	-9.28744
▁कन्या	-9.28744
▁प्रवेश	-9.28755
▁विविध	-9.2887
▁किम	-9.29232
▁तो	-9.29234
▁किल	-9.29242
▁जातः	-9.29312
▁व्यक्ति	-9.29335
▁कृता	-9.29379
▁सत्यं	-9.29486
▁स्त्रियां	-9.29678
जं	-9.29797
▁अतो	-9.29823
ष्ठ	-9.29832
▁कुतः	-9.2996
कारण	-9.30013
चर	-9.30037
्याः	-9.3004
▁यद्य	-9.30093
कल	-9.30139
१०	-9.3017
▁कृष्ण	-9.30247
▁कृतः	-9.30296
▁करोमि	-9.30346
▁धनं	-9.30469
रः	-9.30519
5	-9.3056
▁अधि	-9.30704
निर्	-9.30773
▁भवतु	-9.30807
▁तृतीय	-9.30877
▁नु	-9.30906
▁•	-9.30907
ादयः	-9.30941
▁उक्त	-9.31031
▁द्वौ	-9.31046
▁२१	-9.31067
▁रुपये	-9.31069
तौ	-9.31115
▁तत्त्व	-9.31231
▁मध्यम	-9.31252
▁भेद	-9.31329
▁उपयोगकर्ता	-9.31417
▁तम्	-9.31613
▁सिद्ध	-9.31624
कल्प	-9.3181
भू	-9.31833
▁सर्वाणि	-9.31847
▁शीघ्रं	-9.31908
..	-9.31946
▁परिणाम	-9.31956
ास्ति	-9.32105
▁बाह्य	-9.32205
▁जाता	-9.32229
▁कालः	-9.3231
▁जय	-9.32368
गण	-9.32649
▁20	-9.32693
भय	-9.32907
ीनां	-9.33056
▁सूत्र	-9.33064
स्तत्र	-9.33185
▁तानि	-9.33281
▁हर	-9.33436
वचन	-9.33498
ाच्च	-9.33645
▁आस	-9.33842
▁कुर्यात्	-9.33885
▁इत	-9.34264
▁स्थित	-9.34287
▁मार्ग	-9.34371
मो	-9.34388
ेभ्यो	-9.34451
▁दिने	-9.34515
वाक्य	-9.34606
C	-9.34673
दर्शन	-9.34716
▁ग्रह	-9.349
▁व्यवसाय	-9.34913
गो	-9.34938
ेदं	-9.34942
मन्य	-9.34984
4	-9.35053
ार्थे	-9.35102
▁हरि	-9.3515
वत	-9.35245
मित्य	-9.3526
▁कम	-9.35306
याम	-9.35349
▁ईश्वर	-9.35371
स्था	-9.35398
समये	-9.35417
शः	-9.35542
ाहं	-9.35625
▁दुर्	-9.35733
▁२२	-9.35847
श्चैव	-9.35988
ृ	-9.36021
ण्	-9.36033
▁द्रव्य	-9.36101
▁परम्	-9.36154
सिद्ध	-9.36175
स्वरूप	-9.36217
िं	-9.36397
्व	-9.36425
0	-9.36462
▁कर्ता	-9.36486
▁पशु	-9.36534
▁$	-9.36551
▁३०	-9.36681
ेष	-9.3669
ेनैव	-9.36942
दं	-9.36968
्यन्ते	-9.37023
▁कथम्	-9.37063
▁क्रम	-9.37081
▁एतद	-9.37232
ग्रह	-9.37312
▁Tag	-9.37337
लिङ्ग	-9.37357
v	-9.37365
ादिषु	-9.37389
भिर	-9.37406
▁पृथिवी	-9.37443
दुःख	-9.37525
▁स्थाने	-9.37591
देह	-9.37599
▁गण	-9.37614
▁नदी	-9.37618
▁पाठः	-9.37621
▁हेतु	-9.38001
▁क्षमा	-9.38119
▁जानाति	-9.38144
▁पूजा	-9.38164
▁नेवाः	-9.382
al	-9.38261
▁उद्	-9.38342
▁वाक्य	-9.38425
▁&	-9.38467
▁तान्	-9.38483
▁कृषि	-9.38529
▁एतेन	-9.38569
ीकरण	-9.38663
व्या	-9.3867
ष्व	-9.38773
ोऽयं	-9.38829
्यः	-9.38867
त्त	-9.38979
▁वृद्ध	-9.39143
▁स्नेह	-9.39178
▁रात्रि	-9.39187
▁परन्तु	-9.39241
o	-9.39251
ार	-9.39335
▁उत	-9.39357
ेह	-9.39396
शास्त्र	-9.39478
▁{	-9.39483
वद्	-9.39484
मिह	-9.39596
कृत्	-9.39632
सुख	-9.39668
▁परे	-9.39679
▁प्रत्येकं	-9.39757
▁पृ	-9.39781
▁ध्वनि	-9.39788
ण्ड	-9.39814
▁पुष्प	-9.3997
साधन	-9.40015
M	-9.40031
▁दुष्ट	-9.40038
रुप	-9.40082
▁कल	-9.40203
वृत्त	-9.4022
▁वे	-9.4026
ेष्व	-9.40349
स्थाने	-9.40367
वन्तः	-9.40482
▁बहुधा	-9.40612
▁स्थिति	-9.40796
▁लक्षण	-9.40874
ाति	-9.40885
▁समस्त	-9.40969
▁वचनं	-9.41
ोऽहं	-9.41074
मानं	-9.41101
यै	-9.4121
सम्	-9.41233
▁स्थानं	-9.41271
▁12	-9.41404
स्र	-9.4142
▁सत्त्व	-9.41509
न्त्य	-9.41512
▁दैव	-9.41564
▁द्वे	-9.4162
शील	-9.41625
▁तस्माद	-9.41631
▁3.	-9.41677
▁ण	-9.41716
ेद्	-9.4174
िताः	-9.41792
विज्ञान	-9.41796
ज्ञानं	-9.41905
▁पार	-9.41922
यज्ञ	-9.42034
▁सेवा	-9.42098
▁देवि	-9.42123
▁//	-9.42144
▁प्रथमा	-9.42159
शु	-9.42333
▁गृहं	-9.42339
▁रु	-9.42383
▁शीत	-9.42438
स्तस्य	-9.42515
▁मोक्ष	-9.4255
जात	-9.42558
▁तस्मै	-9.42718
ेश्वर	-9.42772
▁कति	-9.43017
त्या	-9.43057
▁केन्द्र	-9.43102
उप	-9.43146
ाप्य	-9.43275
er	-9.43295
▁२५	-9.43295
▁उपरि	-9.43408
▁ज्या	-9.43442
पदं	-9.43524
▁दृढ	-9.43528
▁वने	-9.43596
▁11	-9.43603
डि	-9.43619
वो	-9.43623
नियम	-9.43678
▁स्वयम्	-9.43731
ेन्द्र	-9.4382
▁पश्चात्	-9.43829
वस्तु	-9.43966
मुख	-9.43968
▁ऐ	-9.44112
▁इत्यादिना	-9.44175
पत्र	-9.44251
▁दत्त	-9.44255
ास	-9.44274
▁मधु	-9.44395
▁उत्	-9.44448
▁मत	-9.44515
▁तया	-9.44541
▁सिंह	-9.44582
f	-9.44651
▁भयं	-9.44695
▁दा	-9.448
एव	-9.44818
▁सुर	-9.44882
शब्देन	-9.45126
चित्त	-9.45159
▁मृत्यु	-9.45187
▁लभते	-9.45257
▁अध्याय	-9.45262
▁प्रोक्तं	-9.45347
▁सदैव	-9.45365
तत्	-9.45403
▁तस्माद्	-9.45418
स्तदा	-9.4548
हर	-9.455
मभि	-9.45549
▁पदार्थ	-9.45598
▁अन्ये	-9.45675
▁शेषः	-9.45973
रोग	-9.46067
ांश	-9.46241
I	-9.46246
▁राजन्	-9.46277
▁जात	-9.46321
▁सम्भवति	-9.46358
▁येषां	-9.46405
▁ब्राह्मण	-9.4641
▁परस्पर	-9.46492
▁देहि	-9.46502
▁जप	-9.46536
ing	-9.46574
▁ददाति	-9.46593
▁परमं	-9.46612
▁पदं	-9.46652
▁घ	-9.4671
ग्रहणं	-9.46749
▁रक्त	-9.46806
कस्य	-9.46817
▁सम्यक्	-9.46828
▁फ	-9.46938
धर	-9.46951
▁हय	-9.46958
पन	-9.46967
कुल	-9.46982
▁पु०	-9.47028
▁कृतवान्	-9.47174
▁पे	-9.47187
▁पठ	-9.47237
▁अतीव	-9.47286
▁मोह	-9.47403
7	-9.47444
▁२४	-9.47533
▁15	-9.47555
ढ	-9.4768
प्राप्त	-9.4773
विधि	-9.47795
▁व्यायाम	-9.47803
▁धातु	-9.47855
षा	-9.47875
r	-9.47881
▁सूक्ष्म	-9.48025
▁पदे	-9.4811
▁प्रदेश	-9.48121
ायै	-9.48174
▁क्रीडा	-9.48184
ii	-9.48192
▁फरवरी	-9.48317
6	-9.48369
▁विकिपीडिया	-9.48449
ोत्तर	-9.48461
▁श्रुत	-9.48523
▁यानि	-9.48583
▁M	-9.48599
प्रत्यय	-9.48726
पति	-9.48749
▁सर्वेषु	-9.48766
मत	-9.48824
▁चित्त	-9.48876
हो	-9.49025
▁जानामि	-9.49032
▁योजना	-9.49094
शा	-9.49212
यित्वा	-9.49217
▁वृद्धि	-9.49288
कर्ता	-9.49367
▁जि	-9.4937
स्ट	-9.49409
ास्तु	-9.49412
▁स्थिर	-9.49427
▁लिङ्ग	-9.49433
▁२७	-9.49506
स्त्वं	-9.49515
▁दि	-9.49597
▁मृग	-9.49619
ाना	-9.49722
▁भगवन्	-9.49723
▁शा	-9.49786
ङ्क	-9.49833
१९	-9.49881
▁अल्प	-9.49887
▁पेपर	-9.49991
ीति	-9.50066
▁विशिष्ट	-9.50108
कृते	-9.50196
▁अग्ने	-9.50236
▁लिखित	-9.50245
ज्	-9.50278
किं	-9.50477
ेत्य	-9.505
मति	-9.50515
▁विष	-9.50526
▁चन्द्र	-9.50546
मात्रं	-9.50584
▁निर्णय	-9.50604
▁खेल	-9.50633
द्वि	-9.50684
महं	-9.50702
वं	-9.50735
▁विधीयते	-9.50782
▁यथ	-9.50799
▁शब्दः	-9.50861
▁बा	-9.50949
णी	-9.51008
नव	-9.51053
▁स्नान	-9.51098
▁क्रोध	-9.51113
▁उभय	-9.51246
विश्व	-9.51341
केन	-9.51424
▁कर्तव्यं	-9.51426
ादिति	-9.5153
▁मूल्य	-9.51549
▁जीवन	-9.51566
▁गर्भ	-9.51633
ञ्ज	-9.51645
▁शर	-9.51661
▁कथ्यते	-9.51699
▁अन्यत्र	-9.51712
दृष्ट	-9.51725
▁सुत	-9.51821
ार्थम्	-9.51824
▁कथय	-9.51833
क्क	-9.51884
▁सि	-9.51927
▁ग्रन्थ	-9.52078
▁विश्लेषण	-9.52088
महा	-9.52436
▁करिष्यामि	-9.52566
द्र	-9.52673
ॉ	-9.52796
▁कश्चन	-9.52816
संख्या	-9.5287
▁व्यवहार	-9.52891
▁पुर	-9.52993
▁सामाजिक	-9.53012
२०	-9.5302
▁स्थितः	-9.53173
्यै	-9.53205
▁२६	-9.53229
प्रत्ययः	-9.5339
▁अतीत	-9.53408
▁उवाच	-9.53486
▁सकल	-9.53519
भ्यां	-9.53531
▁इत्याह	-9.53543
▁भोग	-9.53613
फलं	-9.53701
▁भेदः	-9.53738
k	-9.53776
नगर	-9.53824
स्यैव	-9.53829
यम्	-9.53873
क्षण	-9.53876
▁मेरे	-9.54047
▁तिष्ठति	-9.54072
▁क्रि	-9.54105
▁दर्शयति	-9.54155
▁कथितं	-9.54175
दो	-9.54178
▁कर्मणि	-9.54185
हस्त	-9.54209
▁4.	-9.54218
▁बुद्ध	-9.54435
▁वर्ग	-9.5449
द्व	-9.54511
▁वह	-9.54553
▁कार	-9.54651
p	-9.54742
▁संशय	-9.54808
▁महान्	-9.5481
मुक्त	-9.54913
▁चेति	-9.54966
दत्त	-9.54995
▁प्रेम	-9.55004
दार	-9.55013
विशिष्ट	-9.55025
पे	-9.55035
▁पुत्रः	-9.5506
▁वत्स	-9.55189
▁वित्त	-9.55284
विध	-9.55373
▁दीप	-9.55409
र्व	-9.55409
वृत्ति	-9.55417
▁सम्पूर्ण	-9.55483
द्वय	-9.55536
कृतं	-9.55665
▁ऋण	-9.55698
ानन्द	-9.5577
▁आः	-9.55794
ष्	-9.55907
▁T	-9.55954
प्रयोग	-9.56138
▁मनसा	-9.56142
स्थानं	-9.5617
▁कर्ण	-9.56178
▁इष्ट	-9.56218
▁जूगु	-9.56275
▁भारते	-9.56277
▁विपरीत	-9.56282
▁इत्य्	-9.56342
सर	-9.56397
▁यथार्थ	-9.56457
प्रधान	-9.5647
▁भाग्य	-9.56476
▁अहो	-9.56502
▁पश्चिम	-9.56504
पात	-9.56583
▁मही	-9.56609
मध्य	-9.56661
}	-9.56697
▁नरः	-9.56725
▁नरक	-9.56786
तम्	-9.56799
चार	-9.56799
पत्य	-9.56803
00	-9.56837
िर	-9.56843
▁स्वरूप	-9.56925
१२	-9.56961
▁यु	-9.57016
धी	-9.57028
▁तदपि	-9.57088
▁पुन	-9.5726
▁मो	-9.5731
▁तच्च	-9.57319
टि	-9.57371
T	-9.57382
▁मृत	-9.57403
डी	-9.5741
ाया	-9.57543
▁किञ्चित्	-9.57599
तुं	-9.57602
१८	-9.57797
भार	-9.57823
▁मन्यते	-9.57867
▁स्याद	-9.57868
नीय	-9.5794
▁तात	-9.5798
व्	-9.58085
▁तुल्य	-9.58122
बन्ध	-9.58185
बि	-9.58278
ष्य	-9.58305
▁सव	-9.58392
▁हृदि	-9.5845
झ	-9.58465
▁काव्य	-9.58522
▁वयम्	-9.58538
▁विद्यमान	-9.58594
पाल	-9.58738
ल्ल	-9.5879
▁सी	-9.58807
▁सत्	-9.58814
▁रोचते	-9.58822
▁स्वाहा	-9.58941
योर	-9.58955
परा	-9.58988
त्रि	-9.59044
सां	-9.5909
▁मास	-9.59139
▁प्रवर्तते	-9.59142
▁हृदयं	-9.59184
िम	-9.59268
विभाग	-9.59303
▁एतस्य	-9.59323
▁रुद्र	-9.59392
▁प्रकृत	-9.59464
▁उत्पादन	-9.59588
▁भूमि	-9.59651
▁श्वेत	-9.59694
▁व्रत	-9.59708
▁छु	-9.59743
▁आकाश	-9.59774
▁P	-9.59809
वति	-9.59819
िष्यति	-9.59851
▁भक्त	-9.59906
▁द्विज	-9.60046
▁दुःखं	-9.60058
▁स्याद्	-9.60068
▁सौ	-9.60088
▁इतर	-9.60203
▁नर	-9.60204
▁समीक्षा	-9.60228
भिन्न	-9.60245
तत्त्व	-9.60275
कथा	-9.60413
▁विषयः	-9.60503
णां	-9.60538
▁एवम	-9.60547
▁धन्यवाद	-9.60549
त्येव	-9.60601
स्मिन्	-9.60625
▁चतुर्	-9.60643
▁मुक्ति	-9.60789
▁मत्	-9.6079
ाधिकार	-9.60792
▁..	-9.60819
ह्य	-9.60975
▁अन्त	-9.60996
▁कथ	-9.61041
ाश्रय	-9.61064
शब्दे	-9.61077
▁to	-9.61079
ाथ	-9.61086
्ये	-9.61171
▁ग्राम	-9.6118
▁वर्षा	-9.61193
रूपा	-9.61204
▁बहिः	-9.61322
त्थ	-9.61333
काय	-9.61342
नाय	-9.61407
▁मि	-9.61422
ed	-9.61458
▁वक्तव्यम्	-9.61491
टा	-9.61534
करं	-9.61571
▁समाज	-9.61589
▁गच्छ	-9.61666
मान्	-9.61739
ित्वा	-9.61837
िव	-9.61866
▁कार्यक्रम	-9.61878
▁साधु	-9.61992
▁14	-9.62014
▁प्रभो	-9.62016
8	-9.6203
▁अङ्ग	-9.62051
▁शक्य	-9.62329
स्त्रि	-9.62356
▁विवाह	-9.62469
ध्य	-9.62518
▁भ्रम	-9.62746
बोध	-9.6288
▁वदति	-9.62931
▁पत्र	-9.62936
▁वस्तुतः	-9.62974
▁आत्मा	-9.6298
▁समर्थ	-9.63326
▁नूतन	-9.63346
▁ऋ	-9.63485
तरं	-9.63487
▁एकादश	-9.63518
कृ	-9.63526
▁भक्ति	-9.63527
ासु	-9.63659
▁स्वभाव	-9.63678
▁हा	-9.63698
▁L	-9.63725
दः	-9.63748
▁नहि	-9.63819
▁कुरुते	-9.6386
धे	-9.63913
▁वरिष्ठ	-9.63914
▁प्रयोगः	-9.63918
र्ध	-9.64059
▁प्राचीन	-9.64073
▁लिखत	-9.64078
शि	-9.64082
▁व्यक्त	-9.64108
▁भगवान	-9.64118
9	-9.64266
▁सीता	-9.64294
▁श्लोक	-9.64318
ाधिक	-9.64351
भावेन	-9.64387
an	-9.64403
यि	-9.64641
▁साम	-9.64647
लाभ	-9.64717
▁साधन	-9.64721
▁ज्ञात्वा	-9.64742
स्त्र	-9.6475
न्तं	-9.64761
िनो	-9.64816
▁आदि	-9.64819
भ्यो	-9.64857
▁मनसि	-9.6511
ल्य	-9.65165
▁तृतीया	-9.65257
निमित्त	-9.6526
ादिकं	-9.65268
▁अस्तु	-9.65284
मित्र	-9.65301
िद	-9.65302
ाणाम्	-9.65322
▁तयोः	-9.6544
▁प्रतीयते	-9.65465
हु	-9.65545
▁अधोलिखित	-9.65735
सन्	-9.65751
▁अस्मि	-9.6577
▁G	-9.65772
वर्ग	-9.65835
▁ज्ञायते	-9.65839
पिं	-9.6587
▁अस	-9.65876
गम्य	-9.65878
▁कर्तव्य	-9.65887
मव	-9.65955
बी	-9.65973
ान्ते	-9.66006
भागे	-9.66066
▁बहवः	-9.66072
▁युक्त	-9.66084
ज्ञा	-9.66108
▁ज्ञात	-9.66181
▁पति	-9.66228
▁विष्णु	-9.66246
▁शोक	-9.66265
▁राग	-9.6636
▁दोषः	-9.66373
F	-9.66405
गतं	-9.66455
▁मात्रा	-9.66523
▁नाहं	-9.66549
▁अज	-9.66549
▁२३	-9.66679
▁मातृ	-9.66685
ामः	-9.66825
▁मत्स्य	-9.66839
▁ययौ	-9.66895
▁सततं	-9.66922
▁काय	-9.66936
▁स्वतः	-9.67059
▁विश्वं	-9.67215
▁एकदा	-9.67227
नाथ	-9.67236
▁मुख	-9.67339
भक्त	-9.6738
गति	-9.6747
▁अर्ध	-9.67541
ग्रहण	-9.67545
ादेव	-9.67608
▁यस्मिन्	-9.67675
यदि	-9.67677
▁भवन	-9.67683
▁२८	-9.67684
लु	-9.67695
▁आनन्द	-9.67714
सामान्य	-9.67728
भावः	-9.67779
तन्त्र	-9.67803
▁कदाचन	-9.67814
▁विरोध	-9.67829
▁विनाश	-9.67876
g	-9.67885
जः	-9.67994
▁प्रत्येक	-9.68007
तमे	-9.68134
▁तैः	-9.6839
▁साधारण	-9.68443
▁त्वमेव	-9.68486
विकल्प	-9.68572
न्तः	-9.68573
ीत	-9.68624
▁ङीप्	-9.68781
▁समास	-9.6879
▁समुदाय	-9.68807
▁प्रतिवेदन	-9.68999
▁वाक्यं	-9.69033
▁कर्तव्यम्	-9.69039
▁सम्बन्ध	-9.69108
▁लक्ष्य	-9.69126
र्ष	-9.69238
सन	-9.69388
▁अश्व	-9.69454
राज्य	-9.69469
१४	-9.69565
▁कथम	-9.69614
▁औ	-9.69708
▁वाम	-9.69717
प्रमाण	-9.69721
मात्रेण	-9.69739
क्षेप	-9.69752
गम	-9.6977
ुप	-9.698
१५	-9.69832
कार्यं	-9.69833
११	-9.69845
वाह	-9.69887
▁माम्	-9.69922
ाग्नि	-9.69935
▁n	-9.70126
▁षष्ठ	-9.70164
रू	-9.70198
तृ	-9.70212
▁E	-9.70263
दृश्य	-9.70296
▁चरण	-9.7038
▁सागर	-9.70398
तस्य	-9.70565
▁भोजन	-9.70661
▁व्यापार	-9.70695
रपि	-9.70753
ाऽऽ	-9.70888
▁अन्न	-9.7092
▁स्वयमेव	-9.70938
स्तद	-9.7094
▁रि	-9.70983
▁तत्रैव	-9.70994
ar	-9.71021
व्यापार	-9.71062
स्वभाव	-9.71069
▁दक्षिणा	-9.71098
▁प्रथमः	-9.71129
मयं	-9.71241
बा	-9.71288
िकं	-9.71294
▁धकाः	-9.71428
▁सर्वतः	-9.71437
▁आप	-9.71495
ाभाव	-9.71506
▁घोषणा	-9.71533
▁सदस्य	-9.71558
सू	-9.71607
▁of	-9.7162
यन	-9.71647
त्वम	-9.71686
्र	-9.71704
▁अन्वयः	-9.71705
▁इमे	-9.71787
▁सय	-9.71797
▁युद्धे	-9.71831
▁पार्थ	-9.71834
धार	-9.71872
▁कदापि	-9.72043
पाप	-9.72053
▁स्पष्ट	-9.7209
कम	-9.72101
▁शान्त	-9.72137
डा	-9.72165
▁प्रयोजनम्	-9.72168
बुद्धि	-9.72205
ादिना	-9.72206
▁देवः	-9.72216
जे	-9.72227
त्रय	-9.72303
▁प्रश्नः	-9.72351
▁दर्शन	-9.72393
▁वः	-9.72521
▁वस	-9.72541
▁17	-9.72718
▁त्वयि	-9.72733
▁त्वम्	-9.72739
▁झ	-9.72805
▁नाम्ना	-9.72867
▁शक्तिः	-9.72885
▁प्रधानमन्त्री	-9.72934
▁यच्च	-9.72958
▁षट्	-9.73005
▁जाति	-9.7313
▁कार्यम्	-9.73171
▁पूर्वोक्त	-9.73221
▁हृदये	-9.73265
▁शक्नोति	-9.73266
कृत्य	-9.73395
▁उदाहरण	-9.73504
०००	-9.73545
▁उद	-9.73567
▁करिष्यति	-9.73587
▁अस्याः	-9.73598
▁श्रद्धा	-9.73604
▁केचित्	-9.73607
▁उक्तं	-9.7377
ोऽस्ति	-9.73776
▁विमान	-9.73777
▁समये	-9.7378
▁D	-9.73785
त्रा	-9.73791
द्वयं	-9.73814
▁जग	-9.73852
र्वा	-9.73883
▁महिला	-9.73889
क्षेत्रे	-9.73891
▁आवेदन	-9.74061
▁स्वतन्त्र	-9.74089
▁क्रमेण	-9.741
▁नारी	-9.74152
शी	-9.7417
▁स्मर	-9.74193
▁पार्थिव	-9.74212
ञ	-9.74229
▁साक्षात्	-9.74328
▁13	-9.74354
स्म	-9.74357
मां	-9.74358
ज्य	-9.74403
▁MSS	-9.74446
▁से	-9.74462
▁शरणं	-9.74465
▁ज्येष्ठ	-9.74474
▁संस्थान	-9.74485
प्रकाश	-9.74497
▁थः	-9.74637
िना	-9.74675
क्र	-9.74729
▁तादृश	-9.7474
▁व्यवस्था	-9.74765
am	-9.74775
र्म	-9.74796
18	-9.7484
ाक्ष	-9.74988
▁उपाय	-9.75025
म्ह	-9.75109
संयुक्त	-9.7513
▁अन्तर्	-9.75238
▁अकरोत्	-9.75254
मर्थ	-9.75254
▁गज	-9.75264
अथ	-9.75277
हीन	-9.75381
▁पुस्तक	-9.75467
▁ऊ	-9.7548
कृता	-9.75558
10	-9.75642
▁यानाः	-9.7565
िर्	-9.75694
▁प्राधिकरण	-9.75789
िभिः	-9.75826
▁हित	-9.75864
▁जुइ	-9.75946
▁प्रतिदिनं	-9.75964
▁मन्द	-9.75976
▁रक्षा	-9.75995
शन	-9.7604
▁तप	-9.76054
▁सम्भव	-9.76071
▁सू	-9.76097
शो	-9.76197
ोक्तं	-9.76206
▁शान्ति	-9.76254
▁साध्य	-9.76301
▁जना	-9.76334
िकः	-9.76342
▁संस्करण	-9.76367
▁प्रभु	-9.76422
▁महत्वपूर्ण	-9.76431
प्रिय	-9.76509
▁यस्तु	-9.76614
▁कार्या	-9.76621
स्तेन	-9.76664
▁सुवर्ण	-9.76687
श्य	-9.76705
मेतत्	-9.76772
लः	-9.76834
▁श्र	-9.76849
ज़	-9.76864
▁l	-9.76921
दन्त	-9.7693
▁प्रसिद्ध	-9.76979
▁परिवार	-9.77053
हेतु	-9.77057
▁भार्या	-9.7707
▁स्वस्य	-9.77077
▁धर्मः	-9.771
▁16	-9.77104
ोऽस्मि	-9.77121
िन्	-9.77132
सेन	-9.77154
शे	-9.77168
▁भूत्वा	-9.77187
▁नात्र	-9.77226
राष्ट्र	-9.77242
▁स्पर्श	-9.77316
स्थित	-9.77511
सत्	-9.77559
▁मानुष	-9.77666
▁नाना	-9.77697
▁श्रेष्ठ	-9.77823
▁इतः	-9.77826
▁कृ	-9.77943
▁यात्रा	-9.78047
समा	-9.78126
ब्राह्मण	-9.78165
▁SF	-9.78173
▁इत्यपि	-9.78183
शरीर	-9.78253
▁ष	-9.78306
िनि	-9.78329
▁यू	-9.78385
▁चिन्ता	-9.78387
▁उक्तम्	-9.78392
न्ध	-9.78405
20	-9.7845
▁राष्ट्रिय	-9.7851
▁दान	-9.78543
न्ती	-9.78546
▁उत्तरः	-9.78565
▁स्वर	-9.78611
▁पत	-9.78623
िनां	-9.78655
▁न०	-9.78794
▁स्थिता	-9.78799
▁क्रीड	-9.78836
▁संसाधन	-9.78848
▁४०	-9.78871
परं	-9.78932
करः	-9.78942
▁कुत	-9.78989
ेन्द्रिय	-9.79014
वृद्ध	-9.79041
भेदेन	-9.79054
तव	-9.79073
िणी	-9.79097
ोर्	-9.79103
re	-9.79109
▁५०	-9.79151
▁खँ	-9.79178
१७	-9.79214
▁एम	-9.79251
▁गतिः	-9.79263
▁मासे	-9.79295
दण्ड	-9.793
ड़	-9.79325
न्द	-9.79375
▁मुनि	-9.79395
N	-9.79396
▁श्रुति	-9.79447
▁F	-9.7947
गृहे	-9.79485
▁संस्कार	-9.79557
स्तत्	-9.7956
▁इतिहास	-9.79564
▁ताः	-9.79578
ꣳ	-9.79669
करो	-9.79675
तत्र	-9.79737
िह	-9.79763
▁प्रीति	-9.798
▁कर्मणा	-9.79805
▁निषेध	-9.79853
▁दिनाङ्के	-9.7988
पक्षे	-9.79909
तथा	-9.79996
▁प्राह	-9.80021
▁पर्य	-9.80053
स्मि	-9.80054
वीर	-9.80055
त्स	-9.8012
▁वक्तुं	-9.80179
▁विश्वे	-9.80226
▁वचः	-9.80234
▁एतेषां	-9.80288
▁नील	-9.80311
दिने	-9.80328
ततः	-9.80332
सत्य	-9.8035
▁मन्ये	-9.80394
विद	-9.80442
ाई	-9.80485
त्वाद	-9.80602
▁पत्नी	-9.80726
▁तथ	-9.80742
▁२९	-9.80772
▁f	-9.80807
मम	-9.80813
ादेश	-9.80843
▁अग्रे	-9.80857
गर्भ	-9.80912
ितुम्	-9.80917
▁प्रकरण	-9.80972
दक्षिण	-9.8104
ज्ज	-9.81053
▁विशेषः	-9.81188
▁गृहीत्वा	-9.81192
▁यद्वा	-9.81216
▁कुमार	-9.81251
▁साहित्य	-9.8129
▁रामः	-9.81354
▁शि	-9.81381
सङ्ग	-9.81426
▁विशेषण	-9.81452
ेद	-9.81534
ाक्षर	-9.81766
▁समीपे	-9.81772
▁प्राक्	-9.81876
▁वृत्त	-9.81882
^	-9.82016
थे	-9.82102
▁केवलम्	-9.82103
▁युग	-9.82193
▁दया	-9.82259
▁इत्येतद्	-9.82286
▁बलं	-9.8234
शब्दस्य	-9.82436
▁जीवनं	-9.82478
अपि	-9.82487
नाश	-9.82503
▁व्या	-9.82574
देवता	-9.82633
राग	-9.82636
अप	-9.82639
▁स्वप्ने	-9.82697
▁कीदृश	-9.82775
भर	-9.82829
युक्तं	-9.8284
नित्य	-9.82913
x	-9.82994
▁मुद्रा	-9.83076
▁30	-9.8308
सूत्र	-9.83113
▁तिष्ठ	-9.8316
▁पीसी	-9.83229
रथ	-9.83335
▁अनुवाद	-9.83344
▁प्रकार	-9.83432
▁श्रूयते	-9.83448
▁किमर्थं	-9.83451
▁असि	-9.83488
च्या	-9.83586
▁थ	-9.83599
वल	-9.83608
ब्रह्म	-9.8369
▁नियत	-9.83691
▁सर्वान्	-9.83734
क्षय	-9.83781
हित	-9.83824
ग्रन्थ	-9.83845
▁मह्यं	-9.83846
▁वर्षाणि	-9.83886
दानं	-9.83917
▁सम्प्रति	-9.83939
E	-9.83953
नयन	-9.83964
iv	-9.83992
▁इच्छा	-9.84023
H	-9.84069
िषु	-9.84082
▁सभा	-9.84149
▁K	-9.84194
सहस्र	-9.84195
ैष	-9.84224
▁नेपाल	-9.84329
▁यज	-9.84333
मासस्य	-9.84366
w	-9.84383
▁शून्य	-9.84416
▁विधिः	-9.84439
च्छेद	-9.84452
▁नहीं	-9.84495
▁0	-9.84516
स्वर	-9.84657
स्त्री	-9.84662
▁एतादृश	-9.84754
रिव	-9.84755
▁नेत्र	-9.84778
भोग	-9.84834
प्रवेश	-9.84876
यान	-9.84888
▁वदन्ति	-9.84955
▁स्त्रीणां	-9.8497
▁सरकार	-9.84986
u	-9.85013
▁(=	-9.85017
रूपे	-9.85118
▁पातु	-9.85193
ितो	-9.85228
णो	-9.85233
दृष्ट्या	-9.85238
पथ	-9.85275
▁विभिन्न	-9.85352
▁दर	-9.85357
व्यवहार	-9.85401
▁स्नानं	-9.8546
▁वृत्ति	-9.85487
र्ह	-9.85491
िय	-9.85551
▁नै	-9.85574
▁कृपा	-9.85588
चित	-9.85608
ोच्यते	-9.85638
स्ता	-9.85675
मुख्य	-9.85676
▁ऽपि	-9.85733
▁परस्परं	-9.85752
भक्ति	-9.85845
▁प्रयोजन	-9.85923
▁मेघ	-9.85978
▁हरिः	-9.85982
र्द	-9.85983
▁लभ्यते	-9.86077
▁कारणम्	-9.86146
▁सकलं	-9.8617
▁संभव	-9.862
▁अन्तिम	-9.86291
▁पू	-9.86309
▁आर	-9.86376
▁३१	-9.86389
ऊ	-9.86396
▁स्वर्ण	-9.86411
मृत	-9.86625
ास्त	-9.8674
▁कश्चिद्	-9.86805
L	-9.86814
जाल	-9.86833
▁स्वा	-9.86858
▁करोतु	-9.8688
▁अह	-9.8694
▁स्मृतः	-9.86956
भ्र	-9.87022
▁बालकः	-9.87044
▁न्यून	-9.87106
निष्ठ	-9.87174
▁चतुर्थ	-9.87233
▁इत्यत	-9.87258
▁लाखों	-9.87283
▁अन्तः	-9.87291
▁गम्यते	-9.87326
प्रकार	-9.87332
ांश्च	-9.87396
जु	-9.8742
ुर	-9.87434
जन्म	-9.87455
▁विजय	-9.87565
क्षा	-9.8768
जय	-9.87692
▁इत्युक्ते	-9.87798
कला	-9.87836
व्रत	-9.87837
मेकं	-9.87884
▁स्वास्थ्य	-9.8789
▁विवेक	-9.87892
▁जान	-9.87938
धिक	-9.87987
मानः	-9.88021
लक्षणं	-9.88086
▁वृ	-9.88099
राम	-9.8816
▁केचन	-9.8816
▁V	-9.88166
रत	-9.88212
र्क	-9.88216
वध	-9.88219
U	-9.88228
▁हंस	-9.88234
ab	-9.88241
समय	-9.88241
व्यय	-9.88253
पूर्वं	-9.88265
▁गन्ध	-9.88331
▁निवृत्त	-9.88358
▁प्रत्ययः	-9.88428
संस्कृत	-9.88518
▁शासन	-9.88536
▁वचन	-9.88545
ऽऽ	-9.8856
▁सर्वस्य	-9.88638
णः	-9.88659
▁वार्ता	-9.88669
▁2019	-9.88696
भावे	-9.88723
भे	-9.88724
यस्य	-9.88771
पान	-9.88804
िते	-9.88814
▁षोडश	-9.88842
▁the	-9.88854
▁निर्वाचन	-9.88919
येत	-9.88926
▁दक्ष	-9.88972
▁द्वितीयं	-9.89042
▁सायं	-9.89051
कौ	-9.89233
क्ति	-9.89238
ेश	-9.89269
वृक्ष	-9.89305
▁समयः	-9.89367
देशस्य	-9.89374
पतिः	-9.89443
▁क्र	-9.89469
ट्ट	-9.89477
क्षेत्र	-9.89487
योग्य	-9.89508
चित्	-9.89543
▁भवतीति	-9.89594
▁शिष्य	-9.89596
▁अतएव	-9.8962
▁जले	-9.89621
रात्र	-9.89624
▁लब्ध	-9.89629
िणः	-9.89669
▁वर्धते	-9.89696
▁पक्षे	-9.89711
घात	-9.89767
▁एवमेव	-9.89872
वादी	-9.8989
▁वायुः	-9.89895
ादपि	-9.89899
▁निद्रा	-9.89903
▁शरीरं	-9.89911
शासन	-9.89934
श्र	-9.90003
सत्त्व	-9.90006
▁करे	-9.90058
अर्थ	-9.90089
न्या	-9.90245
▁खोज	-9.90289
भूता	-9.90344
▁चिद	-9.90345
▁करुणा	-9.9041
▁प्रविश्य	-9.90427
▁वर्गः	-9.90437
िष्यामि	-9.90481
भी	-9.90486
दर	-9.90504
▁द्वितीया	-9.90597
पुण्य	-9.90609
▁अधिकारी	-9.90688
▁पात	-9.90742
▁ऋत	-9.90765
व्यक्त	-9.9077
हृदय	-9.90773
यू	-9.90915
गः	-9.9093
▁शक्यं	-9.90947
▁दूरे	-9.90954
वृ	-9.90966
भवति	-9.9101
पृष्ठ	-9.91014
▁पश्यामि	-9.91037
▁संयोग	-9.91068
▁एस	-9.91121
▁याःगु	-9.91136
ad	-9.91208
व्यवस्था	-9.91259
धो	-9.91315
टे	-9.91353
तायाः	-9.91365
▁a	-9.91381
संस्कार	-9.91474
ाग्र	-9.91478
हार	-9.91514
▁आर्थिक	-9.91514
▁विस्तार	-9.91521
ेर	-9.91522
▁लि	-9.91545
▁अनुभव	-9.9155
नम	-9.91564
▁ततश्च	-9.91723
▁देशस्य	-9.91804
▁बोध	-9.91821
▁प्रमाणं	-9.91897
K	-9.9194
ासि	-9.9199
▁मूर्ख	-9.92002
विशेषः	-9.92017
▁शस्त्र	-9.92068
▁नीति	-9.92099
▁सरल	-9.92107
▁21	-9.92165
▁तर्क	-9.92198
▁अष्ट	-9.92212
▁लेख	-9.92379
र्च	-9.92449
▁सङ्ख्या	-9.92455
▁इत्	-9.92463
ोत्	-9.92501
▁व्यय	-9.92535
ही	-9.92539
▁भोजनं	-9.9254
ोदय	-9.92588
▁जक	-9.92599
▁अनन्त	-9.92607
▁अन्तर	-9.9262
▁इत्युक्त	-9.92652
षे	-9.9267
▁प्रतिष्ठा	-9.92724
en	-9.92824
मोह	-9.92836
प्रथम	-9.92855
ॅ	-9.92864
▁निमित्त	-9.92911
▁राष्ट्रीय	-9.92922
in	-9.92985
▁षड्	-9.93005
▁शुक्र	-9.93083
▁धीरे	-9.93241
नगरे	-9.9326
▁इत्युच्यते	-9.93263
ादित्य	-9.93278
▁पद्म	-9.93288
▁मुने	-9.93297
रत्न	-9.93329
चरण	-9.9338
▁इच्छति	-9.93385
▁इमं	-9.93401
माना	-9.93418
▁c	-9.93428
तद	-9.93529
14	-9.93534
ीयं	-9.93539
यात्रा	-9.93567
▁इत्येवं	-9.93671
क्स	-9.9374
▁ट	-9.93795
प्त	-9.93812
विचार	-9.93831
योजन	-9.93888
श्रुत	-9.93911
▁पवित्र	-9.9392
कथं	-9.93921
▁मरण	-9.93932
▁संस्कृति	-9.93932
तेन	-9.93967
मण्डल	-9.94002
▁विचित्र	-9.94007
मद	-9.9401
▁भो	-9.94078
▁प्रार्थना	-9.94105
▁प्रमुख	-9.94136
▁इत्यस्मात्	-9.94146
▁सुरक्षा	-9.94188
कर्ण	-9.94235
▁छात्राः	-9.9426
मना	-9.94272
▁रा	-9.94296
ोत्तम	-9.94346
▁त्रीणि	-9.9435
वाचक	-9.94379
लेख	-9.94459
ामहे	-9.9454
▁निष्	-9.94586
▁राक्षस	-9.94625
खण्ड	-9.94627
▁मित्रं	-9.94632
पर्यन्तं	-9.94658
▁उपयोग	-9.94661
म्ब	-9.9468
खा	-9.94725
कालः	-9.94773
▁2020	-9.94824
बर	-9.9487
▁गृहीत	-9.94878
संज्ञ	-9.94927
▁देवस्य	-9.94933
हिं	-9.94953
▁मर्त्य	-9.94967
▁३२	-9.95058
न्तर	-9.9506
भूतं	-9.95068
▁धारय	-9.95107
▁वज्र	-9.9514
▁सर्वाः	-9.95155
▁दक्षिणे	-9.95168
ाख्य	-9.95199
स्थे	-9.95246
▁बालक	-9.95251
▁वाच्य	-9.95274
ाकार	-9.95279
़	-9.95285
▁मिथ्या	-9.95338
▁अमरः	-9.95448
विधिः	-9.95455
▁तक	-9.95498
▁अत्यन्त	-9.95571
१६	-9.95574
चित्र	-9.95588
र्ग	-9.95598
रहित	-9.95601
▁अवदत्	-9.95616
12	-9.95652
▁तन्न	-9.95663
ताः	-9.95665
▁द्वार	-9.95731
▁भार	-9.95808
▁सर्वैः	-9.95839
▁तस्यां	-9.95847
ुर्	-9.9585
02	-9.9585
▁युगे	-9.95852
द्रव्य	-9.95853
▁अग्निः	-9.95881
▁धु	-9.95887
ितवान्	-9.95927
▁भूमौ	-9.95961
▁कर्माणि	-9.95973
▁N	-9.96005
▁सोऽ	-9.96033
स्ततः	-9.96085
प्राण	-9.96093
▁पर्यावरण	-9.96196
▁विभाषा	-9.962
▁ईश्वरः	-9.96214
रक्ष	-9.96259
▁करण	-9.96377
संज्ञा	-9.96389
▁में	-9.96398
▁पुरातन	-9.96408
-'	-9.96465
▁मूढ	-9.96495
ग्राम	-9.96511
▁विहाय	-9.96527
▁युद्धं	-9.96531
▁देवो	-9.96533
▁अक्षर	-9.96581
मित्यर्थः	-9.96587
▁सर्वथा	-9.96588
▁सहसा	-9.96614
G	-9.96666
▁जनः	-9.96717
तद्	-9.96779
कारस्य	-9.96812
मू	-9.9683
▁प्रोक्ता	-9.96949
▁संविधान	-9.96974
▁क्षम	-9.9698
▁पाक	-9.97077
ष्म	-9.97091
▁महोदय	-9.97103
▁भुवि	-9.97151
क्षर	-9.97152
▁अधो	-9.97186
मप्य	-9.97197
▁चीन	-9.97224
पदे	-9.97312
ध्व	-9.97395
ात्मना	-9.97423
त्वाद्	-9.97436
जन्य	-9.97482
▁राष्ट्रपति	-9.97488
▁प्रज्ञा	-9.97546
तीर्थ	-9.97644
चक्र	-9.97668
▁यस्मात्	-9.97677
▁प्रथमे	-9.9769
▁राज्ञः	-9.97788
▁प्राप्यते	-9.97815
▁आव	-9.97826
▁शु	-9.97943
▁जे	-9.97959
▁Answer	-9.97974
▁अपर	-9.97983
ीयः	-9.98024
ागम	-9.98165
३०	-9.98193
▁द्रष्टुं	-9.98201
विष	-9.98214
▁चित्	-9.9825
▁कालेन	-9.98267
▁स्वार्थ	-9.98345
क्षि	-9.98439
प्रा	-9.98471
२२	-9.9852
or	-9.98601
ादेः	-9.98686
▁बुध	-9.98707
▁अय	-9.98724
▁क्षेत्रे	-9.98732
▁कारयेत्	-9.98744
ाकाश	-9.98765
▁निश्चित	-9.9877
▁स्मृति	-9.98783
▁सेव	-9.98842
▁एतानि	-9.98879
्यु	-9.98893
दिश	-9.98932
R	-9.98935
▁सिध्यति	-9.98953
२१	-9.98972
▁वार्षिक	-9.99016
वन्	-9.99041
माण	-9.99044
▁इय	-9.99077
▁25	-9.99103
▁जीवति	-9.9911
▁दृष्टि	-9.99178
▁कुर्वन्	-9.99195
युद्ध	-9.99201
वर्त्त	-9.99235
▁भूय	-9.99297
▁कथयति	-9.99299
माप	-9.993
▁अवश्यं	-9.99302
▁३३	-9.99324
विष्ट	-9.99334
▁क्षय	-9.99334
ताप	-9.99349
▁त्यक्त्वा	-9.99377
▁अधिकरण	-9.99378
र्त	-9.99397
ाल	-9.99477
ज्या	-9.99535
▁लक्ष	-9.99611
ह्	-9.9963
▁दिवा	-9.99671
▁कल्याण	-9.99678
▁5.	-9.99698
▁यॊ	-9.99716
▁परस्परम्	-9.99727
▁आचार्य	-9.99741
दीप	-9.99763
र्थे	-9.99785
▁हेतुः	-9.99799
15	-9.99828
:-	-9.99831
▁p	-9.99858
▁गुणाः	-9.99893
▁सेना	-9.99898
▁अस्माभिः	-9.99925
सम्बन्ध	-9.99976
▁साल	-10
▁अभ्य	-10.0005
वश	-10.0006
तॊ	-10.0006
▁24	-10.0007
▁आधुनिक	-10.0007
रव	-10.0008
पते	-10.0009
▁क्ष	-10.0011
▁याये	-10.0016
▁स्वस्थ	-10.0017
लब्ध	-10.0025
▁वर्त	-10.0026
पाठ	-10.0034
पार	-10.0034
▁शीघ्र	-10.0035
▁वात	-10.0046
गता	-10.005
िष्यते	-10.0052
▁चकार	-10.0053
17	-10.0055
▁स्थितम्	-10.0056
ादयो	-10.0058
▁घटना	-10.0058
दूर	-10.0059
▁अध्यायः	-10.0066
▁विश	-10.0068
▁बभूव	-10.0068
▁2018	-10.0073
मथ	-10.0074
मत्र	-10.0076
▁=>	-10.0078
वेष	-10.0078
▁हिंसा	-10.008
कालं	-10.0087
▁पापं	-10.0088
▁संस्था	-10.009
▁तेषाम	-10.0097
र्ण	-10.0098
▁प्रोक्त	-10.01
▁बहूनि	-10.0105
▁समं	-10.0105
क्रमेण	-10.0106
▁त्वत्	-10.0106
सम्पादन	-10.0107
भेदः	-10.0107
▁Next	-10.0108
ब्	-10.0116
ान्तरे	-10.0118
लोके	-10.0127
▁अंश	-10.0132
▁षष्ठी	-10.0133
▁प्रजाः	-10.0134
ेषां	-10.0135
▁विभक्त	-10.0135
श्चापि	-10.0136
ात्मकं	-10.0141
▁विदेश	-10.0164
▁घन	-10.0164
▁व्याख्या	-10.0165
त्ति	-10.0168
▁अध्यक्ष	-10.017
▁सार	-10.0172
दौ	-10.0177
थि	-10.018
ेऽस्मिन्	-10.0181
▁सर्प	-10.0184
▁अण्	-10.0188
निर्देश	-10.019
▁नागरिक	-10.019
11	-10.0193
चे	-10.0193
बुद्ध	-10.0194
ऽत्र	-10.0202
▁तन्त्र	-10.0207
▁पच	-10.021
▁कर्म्म	-10.0216
▁प्रसन्न	-10.0222
मल	-10.0227
गुरु	-10.0231
स्तं	-10.0235
▁तमेव	-10.0235
ज्ञात	-10.024
▁गाय	-10.0243
▁विशाल	-10.0245
▁समाप्त	-10.0246
युग	-10.0246
▁समग्र	-10.0254
ेत्यर्थः	-10.0258
▁चक्र	-10.0259
W	-10.0259
▁नाटक	-10.0278
▁सौम्य	-10.0281
▁स्वं	-10.0285
▁गिरि	-10.0287
▁शक्र	-10.0293
वचनं	-10.0293
▁वेति	-10.0299
▁देशः	-10.0306
▁दिश	-10.0307
ास्	-10.0318
▁इद	-10.0318
ष्टा	-10.0323
यतः	-10.033
iii	-10.0331
धान	-10.0333
▁कारक	-10.0337
▁परमेश्वर	-10.0339
▁प्रकारेण	-10.034
चन	-10.0347
▁स्फुट	-10.0351
क्रान्त	-10.0354
▁प्राप्तवान्	-10.0358
यामास	-10.0359
▁मय	-10.0359
▁व्रज	-10.0363
▁इत्थं	-10.0364
▁करो	-10.0371
▁शूर	-10.0372
▁श्रम	-10.0377
१३	-10.038
ात्र	-10.0382
▁धाःसा	-10.0392
ीकृत	-10.0392
▁संभवति	-10.0399
ादिभिः	-10.0399
▁एषां	-10.0404
प्राप्ति	-10.0405
▁कुशल	-10.0412
ोऽसि	-10.0421
दीर्घ	-10.0422
▁प्रयत्न	-10.0426
जो	-10.0427
▁चतुर	-10.0429
▁दृष्टं	-10.0435
त्ता	-10.0439
मात्रे	-10.044
▁साथ	-10.0441
णु	-10.0451
▁तदाह	-10.0451
▁नृत्य	-10.0452
ीया	-10.0456
▁वह्नि	-10.0457
▁गिर	-10.0463
अहं	-10.0466
▁इदम	-10.0469
▁वाच	-10.047
विवेक	-10.0471
▁कर्तव्यः	-10.0476
कर्मणि	-10.0479
मुद	-10.048
▁व्याकरण	-10.0482
ादीनि	-10.0485
▁स्युः	-10.0486
ाचार्य	-10.0487
नाम्	-10.0498
▁जिला	-10.0498
▁द्वीप	-10.0505
पदार्थ	-10.0507
ात्मनः	-10.0514
▁क्रमशः	-10.0517
ाचार	-10.0525
▁लोका	-10.0526
विधान	-10.0528
▁कार्याणि	-10.0529
▁कष्ट	-10.0537
ालय	-10.0539
आर	-10.0542
ऋ	-10.0544
वर्तते	-10.0547
▁रत्न	-10.055
▁यत्न	-10.0554
▁गुरुः	-10.0558
▁विवाद	-10.0559
न्तो	-10.0563
▁पार्श्व	-10.0579
▁शक्त	-10.0581
▁पितुः	-10.0583
ैरपि	-10.0585
िण	-10.059
गते	-10.059
▁ड	-10.0593
▁m	-10.0595
न्यास	-10.0595
मते	-10.0601
सेवा	-10.0604
ेनापि	-10.0604
▁योग्य	-10.0604
ष्टि	-10.0606
▁दूत	-10.0617
▁प्रतिषेध	-10.062
डु	-10.0623
▁दिशि	-10.0628
▁अल	-10.0628
▁पुरुषो	-10.0633
▁नापि	-10.0638
▁पुरुषं	-10.064
▁अधिकं	-10.0641
२४	-10.0645
▁पुराण	-10.0645
▁बन्ध	-10.0652
▁कै	-10.0655
▁तद्यथा	-10.0659
ाधि	-10.066
धिकार	-10.0663
▁आवश्यकता	-10.0665
दिष्ट	-10.0667
भारत	-10.0677
स्थं	-10.0691
▁वध	-10.0696
▁दत्त्वा	-10.0699
देशः	-10.0701
ार्ह	-10.0702
▁अधिकृत	-10.0702
▁हर्ष	-10.0702
वह	-10.0706
विनाश	-10.0708
वित्	-10.0713
▁नष्ट	-10.0714
पो	-10.0716
▁सामान्यतः	-10.0717
मेत	-10.0718
▁होम	-10.0724
▁देवं	-10.0724
ोर	-10.0727
▁एको	-10.0731
▁लक्षणं	-10.0732
स्मान्	-10.0738
ांसि	-10.0738
▁एता	-10.074
ानन्तरं	-10.0741
▁अङ्क	-10.0749
▁दीन	-10.0751
▁अस्मान्	-10.0751
रण	-10.0753
ग्रे	-10.0753
▁कमल	-10.0761
युक्तः	-10.0764
विरुद्ध	-10.0767
प्स	-10.0768
▁परः	-10.0772
▁धर्मो	-10.0772
O	-10.0774
▁अग्र	-10.0779
धातु	-10.078
▁विरुद्ध	-10.0781
▁कुतो	-10.0783
▁कौ	-10.0784
यन्त्र	-10.0787
परम	-10.0791
मन्त	-10.0791
चन्द्र	-10.0796
ाधार	-10.0806
विहीन	-10.081
त्याग	-10.082
▁संबंधन	-10.0822
न्याय	-10.083
▁यथाशक्ति	-10.0831
्यम्	-10.0837
ग्रहणम्	-10.0837
▁दृश्यम्	-10.0841
▁मी	-10.0844
▁पिब	-10.0845
▁प्राप्ता	-10.0848
▁पठति	-10.0852
विधा	-10.0854
▁नामानि	-10.0855
▁साभारः	-10.0859
रोध	-10.086
कारी	-10.0865
▁चतुर्दश	-10.0872
▁जित	-10.0874
साध्य	-10.0876
▁दृश्यन्ते	-10.0876
▁अनन्तरं	-10.0878
▁३५	-10.0881
क्ष्य	-10.0884
▁सप्तदश	-10.0885
▁मरणं	-10.0891
कैः	-10.0893
▁कालं	-10.0895
रम	-10.09
विरोध	-10.0901
▁ततॊ	-10.0901
▁समर्थन	-10.0902
▁कामं	-10.0908
स्थिति	-10.0909
▁धूम	-10.0911
२७	-10.0913
▁टिप्पणियां	-10.0919
ल्प	-10.092
▁चल	-10.0924
▁इच्छामि	-10.0925
▁कश्चिद	-10.0925
13	-10.0926
▁विदुः	-10.0929
▁असौ	-10.0929
तुल्य	-10.0943
▁समर्पयामि	-10.0946
ीकृत्य	-10.0948
तिथि	-10.0952
सिद्धि	-10.0959
२५	-10.096
▁प्रवक्ष्यामि	-10.0972
▁यश्च	-10.0977
▁नान्य	-10.098
▁आय	-10.0982
त्रयं	-10.0984
▁रिक्त	-10.0987
भयं	-10.0995
▁३६	-10.0996
▁स्थिते	-10.0999
पय	-10.1003
▁भवती	-10.1004
तार	-10.1022
▁लक्ष्यते	-10.1024
▁वेत्ति	-10.1025
▁ध्वज	-10.1026
▁तीर्थ	-10.1026
▁स्थापय	-10.103
▁प्रवृत्ति	-10.103
▁घृत	-10.1032
▁उक्तः	-10.105
▁धार्मिक	-10.1051
▁पर्व	-10.1054
th	-10.1055
▁घर	-10.1056
ेय	-10.106
▁शतं	-10.1063
▁यशः	-10.1065
▁सम्प्र	-10.1066
▁यजमान	-10.1067
डे	-10.1069
क्षत	-10.1069
▁दृष्टा	-10.1075
▁श्रवण	-10.1079
राज्यस्य	-10.108
धीः	-10.1082
लक्ष	-10.1084
ची	-10.1086
▁स्वीकृत	-10.1088
▁स्तः	-10.1088
▁संरक्षण	-10.1091
यन्त	-10.1094
▁शब्दस्य	-10.1097
▁उत्पाद	-10.1102
▁भवतां	-10.1105
▁अभवन्	-10.1106
▁टी	-10.1106
▁त्वम	-10.1107
▁भवेद्	-10.1109
▁आधिकारिक	-10.1111
स्येति	-10.1112
यन्तु	-10.1112
▁दिवि	-10.1115
ऽन्य	-10.1116
▁फलम्	-10.1117
▁नाग	-10.112
▁शम	-10.1122
▁तदर्थ	-10.1122
▁निर्देश	-10.1123
▁मधुर	-10.1128
ेर्	-10.1128
▁सृष्टि	-10.1132
30	-10.1133
▁गुणा	-10.115
▁दर्शय	-10.1156
▁पुनरपि	-10.1158
▁सैन्य	-10.1159
▁रणे	-10.1159
बाल	-10.1159
▁उन्नत	-10.1164
केन्द्र	-10.1169
▁सम्बन्धि	-10.1172
▁तत्रापि	-10.1172
21	-10.1174
ऽनु	-10.1175
परः	-10.1176
जान	-10.1187
▁अधः	-10.1189
▁पुरतः	-10.1189
▁धा	-10.1194
द्वा	-10.1194
▁मद्	-10.1195
▁अभ्यास	-10.1201
▁ध्रुव	-10.1204
श्री	-10.1205
▁वरं	-10.1208
▁किंचित्	-10.1212
घ्न	-10.1213
▁संप्र	-10.1214
र्ज	-10.1219
ज्ञः	-10.1219
▁त्याग	-10.1219
क्षु	-10.122
▁b	-10.1222
▁इत्येतत्	-10.1223
ासन	-10.1231
वतां	-10.1234
बहु	-10.1235
▁कवि	-10.1236
as	-10.1237
तीत्य	-10.1238
▁दद्यात्	-10.1242
बाध	-10.1243
▁प्रवृत्त	-10.1245
▁समस्या	-10.1248
▁पूजां	-10.1249
ाण्य	-10.1257
▁युवा	-10.1259
it	-10.1265
द्वितीय	-10.1271
शब्दो	-10.1271
ाच	-10.1272
▁27	-10.1274
▁कालो	-10.1276
क्षित	-10.1277
▁पुत्रं	-10.1282
▁माम	-10.1287
▁सन्धि	-10.129
ोपरि	-10.1291
▁सूत	-10.1292
▁ओं	-10.1295
▁सर्वभूतेषु	-10.1295
भाष	-10.1295
▁क्षणं	-10.1305
वित्त	-10.1306
समुद्र	-10.1309
▁प्रसाद	-10.1309
अनु	-10.1316
▁ईश	-10.1317
16	-10.1318
▁निवेश	-10.1318
▁तेनैव	-10.1324
्स	-10.1327
50	-10.1331
रौ	-10.1338
युक्ते	-10.1338
▁मानवः	-10.1339
िस	-10.1339
▁दानं	-10.1347
▁स्थितिः	-10.1348
▁प्राकृत	-10.1359
ासी	-10.1362
▁विश्वविद्यालय	-10.1368
▁अपराध	-10.1372
▁भागः	-10.1374
▁अन्ते	-10.1375
▁४५	-10.1378
▁पंच	-10.1381
गी	-10.1388
▁सूत्रे	-10.1389
मर	-10.139
्यत	-10.1394
ऽभि	-10.1395
▁विश्वास	-10.1396
▁आगम	-10.1397
▁दीयते	-10.14
यद	-10.1407
▁केनापि	-10.1408
विश	-10.1409
▁गृह्यते	-10.141
शाला	-10.141
▁गुणः	-10.141
▁कर्तुम्	-10.1416
येन	-10.1418
▁जी	-10.1418
▁ऋतु	-10.1422
▁भाष्य	-10.1423
सहित	-10.1424
▁नगरे	-10.1428
मप	-10.1432
▁स्थापना	-10.1433
▁अर्थात्	-10.1433
युत	-10.1435
▁वेतन	-10.144
▁कर्तव्या	-10.1443
दुर्	-10.1445
०६	-10.1446
गर	-10.1452
वेग	-10.1454
तमः	-10.1455
ध्वं	-10.1456
प्रश्न	-10.1462
▁संवत्सर	-10.1462
▁क्लेश	-10.1468
योगेन	-10.1469
मस्य	-10.1472
▁विकार	-10.1475
स्तर	-10.1477
▁पूर्वेण	-10.148
▁बी	-10.1481
▁आदेश	-10.1482
ङि	-10.1483
स्तद्	-10.1487
ेक	-10.1491
▁मई	-10.1491
▁23	-10.1496
▁तीव्र	-10.1501
ष्ण	-10.1509
कारेण	-10.1509
्यादि	-10.1516
कट	-10.1517
▁पितामह	-10.1518
▁शिक्षण	-10.1521
--"	-10.1522
▁हत	-10.1526
▁तनु	-10.1528
$	-10.1529
▁क्ली	-10.1534
ाङ्क	-10.1536
तरा	-10.1543
▁अक्ष	-10.1549
तश्च	-10.1556
सप्त	-10.1559
▁विधिना	-10.156
२३	-10.1562
▁प्रकृतिः	-10.1563
शून्य	-10.1568
मासीत्	-10.1573
▁विधाय	-10.1575
▁Q	-10.1579
▁भवत्य	-10.1583
▁करि	-10.1588
▁भज	-10.1591
▁22	-10.1592
▁नूनं	-10.1593
▁मति	-10.1593
परीक्षा	-10.1597
ोपदेश	-10.1597
▁जनानां	-10.1599
चल	-10.1601
▁बीज	-10.1603
शुभ	-10.1605
िया	-10.1609
▁प्रीत	-10.1612
वीर्य	-10.1612
संख्य	-10.1613
▁नाश	-10.1618
संयोग	-10.1621
▁स्यादिति	-10.1623
▁डा	-10.1631
▁पृष्ठं	-10.1631
▁नाट्य	-10.1634
▁दर्श	-10.1636
गं	-10.1637
करणे	-10.1638
पुष्प	-10.1646
▁एस्	-10.1646
▁प्रस्तुत	-10.1646
सूर्य	-10.1647
▁स्मृतम्	-10.1651
▁नमो	-10.1651
ीर	-10.1654
V	-10.1655
भङ्ग	-10.1659
▁क्षेत्रं	-10.167
at	-10.1671
▁मण्डल	-10.1674
▁पट	-10.1674
▁लोकानां	-10.168
▁उत्सव	-10.1687
▁३७	-10.1688
▁आर्य	-10.1689
म्भ	-10.1692
▁निवेदन	-10.1693
▁प्रयत्नेन	-10.1694
▁यान्ति	-10.1695
ष्टु	-10.1698
ेयम्	-10.1699
यात्	-10.1701
▁सद	-10.1702
▁मृदु	-10.1703
▁जीवितं	-10.1706
भाषण	-10.171
▁भागे	-10.1714
स्यां	-10.1715
▁परिवर्तन	-10.1717
▁न्यायालय	-10.1722
▁राशि	-10.1724
▁उत्कृष्ट	-10.1726
काश	-10.1726
es	-10.1728
▁प्रभुः	-10.1731
मतः	-10.1731
ण्य	-10.1733
वृद्धि	-10.1734
ग्नि	-10.1736
दित्य	-10.1742
▁आदित्य	-10.1747
▁वक्ष्यामि	-10.1748
▁राज्ये	-10.1753
बद्ध	-10.1756
चरित	-10.1761
हत	-10.1766
▁यन्त्र	-10.1767
▁ध्यानं	-10.177
▁धन्य	-10.177
ा०	-10.1772
▁तपः	-10.1773
▁समूह	-10.1779
▁बु	-10.178
▁विद्वान्	-10.1782
शिव	-10.1788
यतु	-10.1795
मोक्ष	-10.1801
प्रत्य	-10.1802
▁(1)	-10.1803
▁महती	-10.1805
तुः	-10.1807
श्चा	-10.1807
▁रम	-10.1808
वेश	-10.1811
▁इन्द्रिय	-10.1811
▁तुभ्यं	-10.1811
▁←	-10.1812
▁जीवित	-10.1812
मनो	-10.1814
गन्ध	-10.1815
▁सुप्त	-10.1816
▁लग्न	-10.182
ार्ध	-10.1825
गतः	-10.1825
▁वस्त्र	-10.1826
▁प्रयुक्त	-10.1829
र्द्ध	-10.1832
विकार	-10.1834
स्मै	-10.184
▁रूपम्	-10.184
गच्छति	-10.1847
गृहं	-10.1849
▁भवः	-10.1852
▁संज्ञा	-10.1855
गमन	-10.1857
▁सप्तम	-10.1857
▁प्राप्तं	-10.1863
स्पर्श	-10.1866
▁यथाविधि	-10.1867
▁उपदेश	-10.1868
▁एन	-10.1869
▁कोप	-10.1869
▁स्मरण	-10.187
बीज	-10.1873
▁पुरुषस्य	-10.1881
गल	-10.1883
जनाः	-10.1886
st	-10.1887
ाश्रम	-10.189
हू	-10.1893
05	-10.1894
▁हन्ति	-10.1898
ेषा	-10.1905
▁चैक	-10.1906
▁हस्ते	-10.191
▁प्राग	-10.1914
ऽहं	-10.1916
▁युज्यते	-10.1916
तीव	-10.1921
▁वृष	-10.1923
ाख्या	-10.1927
▁मखु	-10.1928
तन	-10.1932
▁छि	-10.1934
ाभावात्	-10.1939
▁हां	-10.194
▁प्रभात	-10.1943
विधौ	-10.1945
▁भर	-10.1948
टो	-10.1949
▁स्था	-10.1955
▁सहाय	-10.1958
▁चिकित्सा	-10.1959
▁श्रुतिः	-10.196
▁रो	-10.1966
▁26	-10.1968
पाय	-10.1972
घट	-10.1978
▁सङ्ग	-10.1979
रति	-10.198
िष्ठ	-10.198
▁मनुः	-10.1983
ग्न	-10.1983
▁वर्ध	-10.1988
▁भक्त्या	-10.1988
भूमि	-10.1991
▁युव	-10.1991
▁जगति	-10.1993
▁कविता	-10.1994
प्रकृति	-10.1995
▁बे	-10.1997
स्त्य	-10.2006
▁तस्यैव	-10.2007
▁दुग्ध	-10.2011
प्प	-10.2013
रूपः	-10.2014
▁भ्रमण	-10.2015
दास	-10.2019
▁ह्रस्व	-10.2026
▁प्रयत्नतः	-10.2027
▁प्राप्तः	-10.2031
~	-10.2035
▁दिनानि	-10.2043
▁प्रयत	-10.2049
▁H	-10.205
▁पदार्थः	-10.2052
थः	-10.2052
▁खो	-10.2055
▁कट	-10.2056
25	-10.2058
▁अत्य	-10.2059
▁2021	-10.2065
▁निर्माण	-10.2065
▁प्रविष्ट	-10.2065
अन	-10.2067
करोति	-10.2067
शक्त	-10.2072
-"	-10.2073
ीः	-10.2073
धु	-10.2082
भवत्	-10.2085
ून	-10.209
▁आशा	-10.2098
▁जाने	-10.2101
▁पीठ	-10.2106
▁कोटि	-10.2113
वय	-10.2115
▁जाल	-10.2115
गोचर	-10.2119
▁द्वितीयः	-10.212
▁वानर	-10.212
▁तासां	-10.2123
न्स	-10.2124
▁तार	-10.2125
न्व	-10.2125
▁अन्यत्	-10.2127
▁सर्वम	-10.2129
गृहीत	-10.2132
▁आहार	-10.2136
▁अपना	-10.2137
न्द्र	-10.214
▁पुत्रो	-10.2145
▁उत्तरं	-10.2146
▁पृष्ट	-10.2149
साम	-10.2152
▁शैल	-10.2157
▁सफल	-10.2157
जनक	-10.2158
तमा	-10.2172
▁वर्षस्य	-10.2176
गच्छ	-10.2193
▁भवे	-10.2196
▁षड	-10.2197
▁सिद्धान्त	-10.2198
▁जगद्	-10.2199
संभव	-10.2202
▁वर्तन्ते	-10.2206
▁उपा	-10.2206
वस्था	-10.2206
▁प्रक्रिया	-10.2207
क्रिय	-10.2212
▁सुन्दर	-10.2217
▁पश्यन्ति	-10.2225
वाच्य	-10.2235
कोटि	-10.2241
▁प्रतिज्ञा	-10.2242
माने	-10.2243
सुर	-10.2252
▁भवन्तः	-10.2256
तस्	-10.2257
▁सुखम्	-10.2258
▁भविष्यन्ति	-10.2258
कथ	-10.2262
▁रति	-10.2262
रज	-10.2264
▁अद्यापि	-10.2264
▁लोकः	-10.2268
▁by	-10.2269
▁अवस्था	-10.227
ऽस्ति	-10.2272
▁धीर	-10.2272
▁सीमा	-10.2276
▁सचिव	-10.2276
द्द	-10.2277
मासे	-10.2288
▁वास	-10.2288
▁दिव	-10.2288
▁दो	-10.2294
भवन	-10.2295
मित	-10.23
▁राजनि०	-10.2302
▁वल	-10.2302
विषया	-10.2308
येद्	-10.2312
▁विशेषेण	-10.2314
साद	-10.232
कानां	-10.2326
▁औषध	-10.2333
▁मुहूर्त	-10.2335
▁रक्षति	-10.234
▁अन्त्य	-10.2342
▁कठिन	-10.2343
हन्	-10.2344
ा॒	-10.2345
धाय	-10.2348
▁हरेः	-10.2355
ाश्व	-10.2361
▁मानस	-10.2369
▁पतिः	-10.2373
▁उद्योग	-10.2374
▁घोर	-10.2376
ेष्ट	-10.238
▁भूयः	-10.2381
पञ्च	-10.2387
ादय	-10.2389
खिल	-10.239
रीत्या	-10.2393
पू	-10.2394
पर्वत	-10.2395
२८	-10.2396
▁मांस	-10.2396
ic	-10.2401
भु	-10.2407
वतः	-10.2407
कू	-10.2409
▁पुनर्निर्दिष्ट	-10.2422
हास	-10.2423
▁गोप	-10.2425
नर	-10.2426
▁देवताः	-10.2434
▁यात	-10.2434
▁तेषाम्	-10.2436
▁यव	-10.2438
विद्य	-10.244
स्थः	-10.2441
01	-10.2449
इन्द्र	-10.2455
अन्य	-10.2459
भोजन	-10.2459
मुद्	-10.246
मुक्तं	-10.246
▁नरकं	-10.2463
▁कक्षा	-10.2467
नय	-10.2468
▁अन्व	-10.2468
▁वसति	-10.2469
ध्र	-10.2474
▁ततस्त	-10.2475
▁वृद्धिः	-10.2475
▁दत्तं	-10.2476
▁परत	-10.2478
ग्रहणे	-10.2478
▁युष्माकं	-10.248
श्रम	-10.2481
ासीत्	-10.2482
ादेशः	-10.2484
▁निश्चय	-10.2487
▁विहित	-10.2488
▁चित्तं	-10.2489
▁गता	-10.2492
vi	-10.2494
वात	-10.2496
वादः	-10.2498
▁वरुण	-10.25
▁प्रेत	-10.2503
▁वेग	-10.2507
▁नारद	-10.2508
▁यया	-10.2515
प्रभाव	-10.2521
▁पूर्वे	-10.2521
▁विघ्न	-10.2523
▁दशम	-10.2523
मृत्यु	-10.2526
▁उपयोगः	-10.2531
कारक	-10.2531
▁व्याघ्र	-10.2532
ो॒	-10.2532
▁हिम	-10.2535
▁करिष्ये	-10.2541
हम्	-10.2544
वन्त	-10.2544
ानं	-10.2545
▁दैत्य	-10.2546
▁द्वितीये	-10.2546
दर्श	-10.2548
दाह	-10.2548
▁भारतं	-10.2553
▁भोः	-10.2558
▁आई	-10.2559
▁मल	-10.2563
▁प्रस्ताव	-10.2564
वायु	-10.2566
टक	-10.2566
▁वीर्य	-10.2568
▁तावद्	-10.2571
▁श्व	-10.2571
▁अहम	-10.2573
▁सम्बन्धी	-10.2573
मयः	-10.2574
):	-10.2579
24	-10.2581
▁मनु	-10.2584
त्वमेव	-10.2585
मन्	-10.2591
टः	-10.2591
वारं	-10.2591
▁अन्यः	-10.2591
▁कल्पित	-10.2595
▁निः	-10.2598
वर्त	-10.26
▁सौभाग्य	-10.2606
▁४१	-10.2607
▁धातुः	-10.2607
युः	-10.2608
लम्ब	-10.2609
▁पुनस्त	-10.2614
दिवस	-10.2615
िके	-10.2617
कारि	-10.2623
▁लाल	-10.2624
ुक्त	-10.2624
योगे	-10.2625
▁राष्ट्रे	-10.2626
०८	-10.2626
ाद्या	-10.2628
टन	-10.2628
msg	-10.2629
तोऽ	-10.263
▁वाक्	-10.2631
सर्प	-10.2635
तले	-10.2635
इत्य	-10.2642
▁लौकिक	-10.2642
दय	-10.2645
युक्ता	-10.2649
स्माकं	-10.2656
▁छात्र	-10.266
▁दृष्टः	-10.266
दल	-10.266
▁मङ्गल	-10.2661
धारा	-10.2661
ध्यान	-10.2662
रिय	-10.2665
▁भाति	-10.2667
▁प्राप्तुं	-10.2668
भागः	-10.2671
ध्या	-10.2672
▁भावना	-10.2677
▁सोऽपि	-10.2678
अभि	-10.2678
सङ्ख्या	-10.2683
▁नाभि	-10.2686
बु	-10.2693
▁Archives	-10.2693
▁एकम्	-10.2694
ाणाम	-10.2703
▁प्रियं	-10.2721
रक्षण	-10.2723
िदं	-10.2727
▁यश	-10.2727
22	-10.2732
▁आपः	-10.2733
▁खर	-10.2736
▁कानून	-10.2736
▁त्या	-10.2745
समर्थ	-10.2745
▁दर्शनं	-10.2753
श्चेति	-10.2754
▁अभाव	-10.2754
▁वी	-10.2754
ा॑	-10.276
▁शनैः	-10.2761
▁अतिथि	-10.2762
▁नारायण	-10.2762
▁अनुमान	-10.2766
पत्रं	-10.2769
▁ताप	-10.2777
▁पल	-10.2782
▁अ॒	-10.2784
▁ताव	-10.2785
ोदक	-10.2787
५०	-10.2789
▁सृष्ट	-10.2792
दन	-10.2794
▁दुगु	-10.2795
▁इच्छ	-10.2795
करणं	-10.2795
मै	-10.2796
▁अतिरिक्त	-10.2798
▁आगत	-10.2801
यमान	-10.2801
फि	-10.2803
योगः	-10.2804
▁त्रयः	-10.2805
ाभ्याम्	-10.2809
▁स्तम्भ	-10.2813
▁कार्य्य	-10.2815
भाज	-10.2815
▁व्यास	-10.2815
▁गुप्त	-10.2815
▁त्यज	-10.2817
▁सत्र	-10.2817
▁प्रिया	-10.2823
▁प्रो	-10.2823
ऽव	-10.2824
रेण	-10.2826
पेक्षा	-10.2844
▁सद्	-10.2848
▁ङीष्	-10.2849
▁एकस्मिन्	-10.285
▁जनसंख्या	-10.2855
▁लु	-10.2857
चु	-10.2858
▁प्रतिकूल	-10.2861
शक्तिः	-10.2868
▁उभौ	-10.2871
▁शुभा	-10.2873
▁भूतानि	-10.2875
▁एवा	-10.2876
माया	-10.288
▁प्रार्थय	-10.288
▁पञ्चदश	-10.288
र्त्त	-10.2885
▁मतम्	-10.2887
▁शीर्ष	-10.2888
▁स्वल्प	-10.2893
प्रदान	-10.2895
▁पिण्ड	-10.2906
▁अप्वः	-10.2908
▁सिद्धि	-10.2911
▁कीर्ति	-10.2921
▁स्वामी	-10.2923
ान्तरं	-10.2926
तिष्ठ	-10.2931
▁बलि	-10.2934
▁तत्व	-10.2935
▁धृत	-10.2944
▁कार्यालय	-10.2949
▁हितं	-10.2949
▁अवयव	-10.2953
▁द्विधा	-10.2953
मेति	-10.2954
तमं	-10.2957
▁जगतः	-10.2958
लाल	-10.2959
▁निहत	-10.2959
ैषा	-10.2961
क्षे	-10.2962
▁इदानीम्	-10.2962
फ़	-10.2962
एस	-10.2963
▁साक्षात्कार	-10.2965
्यर्थ	-10.2974
ायते	-10.2974
▁प्रशिक्षु	-10.2975
ेश्वरः	-10.2979
▁J	-10.2981
व्यतिरिक्त	-10.2986
प्रती	-10.2988
धः	-10.299
सृष्ट	-10.2998
▁न्यास	-10.2998
▁सम्बन्धः	-10.3
▁इन्	-10.3003
▁पुरस्कार	-10.3005
▁पूर्ववत्	-10.3009
ोद्	-10.3011
▁प्रयोजनं	-10.3011
भृत	-10.3013
ायाम्	-10.3016
सय	-10.302
▁संस्थिता	-10.3022
▁स्वार्थे	-10.303
▁प्रतिभा	-10.3033
▁दुर्ग	-10.3035
il	-10.3036
कर्तव्य	-10.3044
२९	-10.3045
र्वि	-10.3051
▁मार्गे	-10.3051
▁ददौ	-10.3054
णम्	-10.3062
ाब्द	-10.3062
▁पूज्य	-10.3063
समान	-10.3064
▁आयुः	-10.3068
▁पूर्वम्	-10.3069
िष	-10.307
▁जगाम	-10.307
नीति	-10.3072
पूजा	-10.3078
▁प्रदूषण	-10.3081
भिश्च	-10.3089
▁मै	-10.309
▁गृहाण	-10.3097
पालन	-10.3099
ासौ	-10.31
देशीय	-10.3102
▁स्तुति	-10.3103
भो	-10.3115
▁अमृत	-10.3115
▁वाहन	-10.3117
ुत्	-10.3118
नेत्र	-10.3121
▁भवन्तु	-10.3126
▁दिल्ली	-10.3135
ॐ	-10.3138
▁पृथिव्यां	-10.3139
सेना	-10.314
स्मा	-10.3142
▁पुण्यं	-10.3144
▁शरीरे	-10.3147
▁बाहु	-10.3149
▁निशा	-10.3149
याति	-10.3151
समन्वितः	-10.3157
▁एवेति	-10.3157
चिन्त्य	-10.3158
▁विस्मय	-10.3158
३२	-10.3161
▁समीप	-10.3161
▁एक्स	-10.3164
▁कुर्या	-10.3166
ur	-10.3167
▁अना	-10.3168
▁II	-10.3169
un	-10.3169
पल	-10.3172
दिव	-10.3174
▁कृत्य	-10.3175
भाग्य	-10.3179
पत	-10.318
▁आसन	-10.318
▁जानन्ति	-10.3181
▁आत्मानं	-10.3184
▁शोध	-10.3188
▁कथयामि	-10.3191
प्रसिद्ध	-10.3192
▁गीत	-10.3193
▁R	-10.3193
▁दानव	-10.3194
नात्	-10.3196
▁उदाहरणम्	-10.3204
▁सूर्यः	-10.3205
▁कर्तु	-10.3213
▁तावद	-10.3214
वता	-10.3215
▁वैज्ञानिक	-10.3218
▁पावन	-10.3225
▁चिरं	-10.3227
सत	-10.323
प्रयोजन	-10.323
▁संशोधन	-10.3231
▁शाखा	-10.3235
▁हन्त	-10.3244
जातीय	-10.3246
ौषध	-10.3247
ोऽप्य	-10.3253
विशेषण	-10.3253
ेन्	-10.3253
ीयते	-10.3255
▁सर	-10.3256
पुनः	-10.3258
▁एतदेव	-10.3259
▁नीच	-10.3261
▁पुस्तकं	-10.3262
▁2017	-10.3265
▁तू	-10.3265
यिष्यामि	-10.3266
लक्ष्य	-10.3268
नैव	-10.3271
▁विषम	-10.3279
शुद्ध	-10.328
ाभ्य	-10.3285
निर्माण	-10.3286
▁आवश्यक	-10.3286
▁मार	-10.3288
el	-10.3294
▁दिव्यं	-10.3294
सैन्य	-10.3296
▁in	-10.33
▁३४	-10.33
▁स्थूल	-10.3301
▁स्तुत	-10.3302
▁यत्तु	-10.3305
▁आधार	-10.3307
▁उष्ण	-10.331
▁मिश्र	-10.3313
मर्द	-10.3314
पाक	-10.3314
▁प्रण	-10.3319
▁संकल्प	-10.3319
म्बर	-10.3327
भुज	-10.3327
▁ददर्श	-10.3334
३१	-10.3337
▁जातं	-10.3338
्यताम्	-10.334
▁उत्तरम्	-10.3341
पर्य	-10.3342
शोभ	-10.3342
परे	-10.3346
अव	-10.3346
ास्य	-10.3347
▁प्रशस्त	-10.3351
z	-10.3353
▁दल	-10.3355
स्प	-10.3355
वर्ति	-10.3356
04	-10.3357
▁उपचार	-10.3357
रित	-10.3363
▁पार्श्वे	-10.3365
▁प्राग्	-10.3369
सुत	-10.3373
संबन्ध	-10.3377
▁वैदिक	-10.3379
२६	-10.3382
▁प्रजायते	-10.3382
▁करणीयम्	-10.339
▁इत्या	-10.3391
▁रण	-10.3391
▁कस्यचित्	-10.3398
▁इत्युक्त्वा	-10.3399
करी	-10.3401
▁चर्चा	-10.3401
▁न्यूनतम	-10.3402
श्रेष्ठ	-10.3403
▁४७	-10.3404
ाँ	-10.3406
▁यायेगु	-10.3406
सोम	-10.3407
▁अन्तरिक्ष	-10.3409
दूत	-10.341
▁स्वयम	-10.341
क्य	-10.3411
▁धर्मं	-10.3415
▁वृत्तिः	-10.342
▁धर	-10.3422
-2	-10.3428
▁सुखी	-10.3428
▁न्य	-10.343
▁अन्वेषण	-10.3431
वने	-10.3431
19	-10.3433
त्वस्य	-10.3433
▁तपसा	-10.3436
जाः	-10.3437
▁आन्दोलन	-10.3439
▁विद्यालय	-10.344
द्धि	-10.3443
▁भवितव्यम्	-10.3446
▁युक्तः	-10.3447
▁कपि	-10.3452
▁नेति	-10.3453
▁आरम्भ	-10.3453
ल्या	-10.3464
▁अभिव्यक्ति	-10.3464
▁विदेशी	-10.3465
03	-10.3466
▁तत्सर्वं	-10.3467
▁राजनीति	-10.3467
ैस्तु	-10.3469
र्भवति	-10.3476
▁अभिप्राय	-10.3476
वस	-10.3477
नौ	-10.3477
▁पूजित	-10.3482
वीत	-10.3482
थो	-10.3484
दृ	-10.3486
िकी	-10.3488
▁श्वः	-10.3491
बे	-10.3491
तय	-10.3492
▁धारणा	-10.3493
▁कोरोना	-10.3495
जर	-10.3499
▁महत्व	-10.3503
णीय	-10.3504
▁सलिल	-10.3504
▁क्या	-10.3505
पट	-10.3506
कान्	-10.3507
शिक्षा	-10.3508
गि	-10.351
▁वाच्यम्	-10.351
▁रचना	-10.3512
कण्ठ	-10.3513
रित्य	-10.3517
▁ऊर्ध्व	-10.3519
शस्त्र	-10.352
क्षम	-10.3521
मत्	-10.3527
▁ग्रीष्म	-10.3527
दृष्टि	-10.3528
▁विरासत	-10.3529
ैतत्	-10.3533
▁पदस्य	-10.3533
▁वाप	-10.3535
ायुध	-10.3535
गीत	-10.3536
Y	-10.3536
▁चिर	-10.3538
▁स्पेन	-10.3549
॒त	-10.3555
▁केशव	-10.3555
्त	-10.3556
▁मेष	-10.356
तरः	-10.3564
▁40	-10.3565
सागर	-10.3569
एं	-10.3569
▁िव	-10.357
कृष्ट	-10.3571
▁योगी	-10.3577
▁बुद्धिः	-10.3578
▁हल	-10.3585
▁कारणेन	-10.3586
म्य	-10.3587
▁दी	-10.3587
ावयव	-10.3592
▁मू	-10.3594
▁प्रणाली	-10.3597
▁परियोजना	-10.3598
▁बहूनां	-10.3601
ष्यति	-10.3602
▁उपलब्ध	-10.3606
वच	-10.3606
▁द्वन्द्व	-10.3608
वश्य	-10.3614
तुर्	-10.3623
वस्त्र	-10.3624
लक्षणा	-10.3626
▁४२	-10.3628
निर्मित	-10.363
क्षिप्त	-10.3633
सति	-10.3634
▁भग	-10.3635
ीश	-10.3636
वर्धन	-10.3637
▁पदम्	-10.3638
▁वदामि	-10.3638
३७	-10.3639
▁28	-10.364
वंश	-10.3644
स्मरण	-10.3646
िरे	-10.3647
▁५५	-10.3648
ुत्तर	-10.3653
▁त्यक्त	-10.3655
▁जातम्	-10.3659
us	-10.3663
न्यथा	-10.3664
मुक्ति	-10.3666
▁परति	-10.3666
▁देवान्	-10.3667
▁क्रमात्	-10.367
ग्रस्त	-10.3675
माला	-10.3675
कारो	-10.3678
▁सद्यः	-10.368
▁निर्णयः	-10.368
▁मुखं	-10.3681
साहित्य	-10.3682
▁धाव	-10.3688
पूर	-10.3688
▁संस्करणे	-10.369
▁क्य	-10.3692
हितं	-10.3694
▁अरे	-10.37
▁परमाणु	-10.3701
▁पठन	-10.3704
▁कुरुत	-10.3706
▁बहिर्	-10.3708
▁स्वातन्त्र्य	-10.3715
▁यावद्	-10.3721
▁द्रोण	-10.3721
▁दिवं	-10.3726
लक्षणम्	-10.3728
िकाः	-10.3733
ख्य	-10.3734
ोपाय	-10.3737
▁नायक	-10.3743
▁सर्ग	-10.3746
▁पुष्टि	-10.3746
on	-10.3748
सभा	-10.375
▁लोकं	-10.375
लय्	-10.3753
▁तन	-10.3756
▁दोषो	-10.3756
खे	-10.3758
▁तपो	-10.3762
▁अस्यां	-10.3763
▁मार्च	-10.3764
▁पै	-10.3764
▁मदु	-10.3767
▁गृहम्	-10.3767
▁शुभम्	-10.377
55	-10.3771
इगु	-10.3772
▁प्रतियोगिता	-10.3777
▁अर	-10.3779
जाति	-10.378
▁आर्	-10.3781
▁d	-10.3784
▁४४	-10.3785
काव्य	-10.3785
▁दास	-10.3788
▁गणित	-10.3788
▁सिद्धम्	-10.3789
▁हरे	-10.379
▁वंश	-10.379
▁अस्माकम्	-10.3791
▁आत्मनः	-10.3793
कारणं	-10.3794
▁ऊर्जा	-10.3796
▁प्रत्या	-10.3798
]]	-10.38
सहाय	-10.3803
▁जनता	-10.3804
▁संसारे	-10.3811
▁मं	-10.3812
▁जगद	-10.3813
▁शं	-10.3816
क्व	-10.3822
▁प्राणि	-10.3823
हम	-10.3824
प्राय	-10.383
▁कल्पना	-10.3831
-1	-10.3831
▁सूर्य्य	-10.3834
ैनं	-10.3835
▁यस्याः	-10.3837
ाश	-10.3838
क्षये	-10.384
स्थापन	-10.384
▁भव्य	-10.3844
जायते	-10.3845
▁इत्येत	-10.3847
स्तेषां	-10.3849
००	-10.3853
▁शुक्ल	-10.3854
वाहन	-10.3855
▁संवेदना	-10.3861
▁सम्यग्	-10.3863
▁रावण	-10.3864
▁संबन्ध	-10.3866
▁सती	-10.3868
ात्मकः	-10.387
षण	-10.387
▁प्रिये	-10.3871
जीवन	-10.3874
▁राजानं	-10.3875
▁यस्या	-10.3878
▁ऋषि	-10.3878
▁परितः	-10.3879
यिष्यति	-10.3884
रक्षा	-10.3885
ation	-10.3885
क्राम	-10.389
ाइ	-10.3892
ादिक	-10.3893
▁स्वीय	-10.3895
▁मतदान	-10.3896
▁गुह्य	-10.3901
▁निर्दिष्ट	-10.3905
▁छगू	-10.3906
▁शोभन	-10.3906
▁वसन्त	-10.3909
▁किंच	-10.3912
लोप	-10.3913
▁स्वाभाविक	-10.3915
▁उचित	-10.3916
▁नेता	-10.3928
▁वक्तव्य	-10.393
▁महता	-10.3934
ैन	-10.3936
पश्य	-10.3936
वर्षे	-10.3936
▁स्या	-10.3937
ोचित	-10.3937
क्रीडा	-10.3943
▁निवर्त	-10.3945
le	-10.3946
▁तत्काल	-10.3948
▁मृत्युः	-10.3948
▁लिख	-10.3952
▁वार	-10.3952
ारम्भ	-10.3955
▁प्राप्ति	-10.396
▁समाचरेत्	-10.3963
िप	-10.3964
रण्य	-10.3972
▁नगरं	-10.3974
▁पितॄणां	-10.3975
भूय	-10.3976
▁करणे	-10.3977
▁पण	-10.3983
ोभय	-10.3984
▁विश्वस्य	-10.3992
ात्मनि	-10.3995
मण्डले	-10.3997
दाता	-10.3998
▁O	-10.3998
र्थं	-10.3998
▁शुल्क	-10.4002
ान्वय	-10.4003
▁४९	-10.4007
४०	-10.4011
▁सम्मान	-10.4011
3.	-10.4016
▁उक्तवान्	-10.402
प्रदेश	-10.4021
स्ततो	-10.4026
▁कापि	-10.403
▁इमां	-10.403
भवेत्	-10.4032
त्सु	-10.4033
▁परिपूर्ण	-10.4037
▁परार्थ	-10.4039
▁पराजित	-10.404
ह्न	-10.4042
▁अन्या	-10.4043
धिकरण	-10.4046
▁बाण	-10.4046
▁दशा	-10.4046
▁महीयते	-10.405
▁स्वकीय	-10.4051
पर्यन्त	-10.4051
ेष्वपि	-10.4053
▁नवीन	-10.4053
▁रिपु	-10.4053
▁प्रतिषेधः	-10.4058
आई	-10.406
▁चर	-10.4066
▁प्रजानां	-10.4066
हन	-10.4067
रूपम्	-10.4067
▁दुर्बल	-10.4068
▁सङ्कल्प	-10.4069
▁परिमाण	-10.4069
▁निम्न	-10.407
ाभावे	-10.4072
▁विश्वा	-10.4072
▁६०	-10.4073
▁च्व	-10.4073
िल	-10.4075
मानो	-10.4077
मलं	-10.4077
▁१००	-10.4079
संस्था	-10.4083
▁तवा	-10.4083
▁ज्वर	-10.4085
▁रसायन	-10.4087
▁अव्यक्त	-10.4089
गू	-10.409
▁शङ्ख	-10.4091
माल	-10.4092
ात्मानं	-10.4093
▁वच	-10.4095
▁तदैव	-10.4095
▁उपकरण	-10.4099
▁एकेन	-10.4099
▁पवन	-10.4104
ि॒	-10.4108
▁निष्कर्ष	-10.4111
▁प्राप	-10.4112
▁यक्ष	-10.4113
▁एनं	-10.4115
▁लाख	-10.4116
▁पश्चाद्	-10.4118
ागार	-10.4118
▁50	-10.4121
यद्	-10.4123
िष्ये	-10.4128
भृ	-10.4128
▁सर्वभूतानां	-10.4129
त्रापि	-10.4131
▁पुमान्	-10.4136
▁शिला	-10.4141
▁जून	-10.4145
पद्य	-10.4147
▁केरल	-10.4152
ान्तं	-10.4155
▁मन्यन्ते	-10.4157
▁खल्व	-10.4158
मेन	-10.416
h	-10.4167
▁सन्ध्या	-10.4172
▁विद्यालये	-10.4176
मात्म	-10.4182
▁८०	-10.4183
मानुष	-10.4184
▁परस्य	-10.4192
गतो	-10.4194
▁विधा	-10.4195
▁त्वरित	-10.4197
म्̣	-10.4198
परिणाम	-10.4199
▁वय्कः	-10.4202
क्लेश	-10.4204
▁प्रतिमा	-10.4205
▁गमिष्यामि	-10.4208
▁एकस्य	-10.4208
▁आश्चर्य	-10.421
▁४८	-10.4218
▁समृद्ध	-10.422
▁मणि	-10.4224
▁डि	-10.4227
▁परिवर्त	-10.4228
यी	-10.423
▁अत्यधिक	-10.4231
▁ध्येय	-10.4233
▁मुदा	-10.4233
▁इयम्	-10.4234
▁X	-10.4236
वृत्तिः	-10.4236
▁अज्ञान	-10.4237
▁दिशः	-10.4238
वृत्तं	-10.4241
▁जातो	-10.4246
▁पृथिव्या	-10.4246
िणां	-10.4246
▁पुत्री	-10.4247
ीश्वर	-10.4247
▁ह्रीं	-10.4247
वश्यं	-10.4251
▁मूलं	-10.4251
▁नाव	-10.4252
▁सर्गः	-10.4253
▁गणना	-10.4257
हरि	-10.4261
49	-10.4265
यत्र	-10.4268
▁गताः	-10.4269
नाद	-10.4271
गाः	-10.4271
दैव	-10.4271
▁बालकाः	-10.4277
▁केश	-10.4285
विकास	-10.4286
▁राजधानी	-10.4288
भास	-10.4292
▁मारुत	-10.4293
▁आम	-10.4294
ग्राह्य	-10.4295
▁कुम्भ	-10.4298
तॆ	-10.4298
▁तृण	-10.4299
▁पृच्छ	-10.43
▁द्वयोः	-10.43
▁जरा	-10.4301
▁३८	-10.4302
पेक्ष	-10.4303
सम्म	-10.4303
▁कस्मात्	-10.4306
▁अथे	-10.431
▁प्रतिपद्यते	-10.431
▁शे	-10.4312
▁वक्तव्यः	-10.4312
▁साधक	-10.4315
▁पश्चिमे	-10.4316
यता	-10.4317
▁is	-10.4317
ावरण	-10.432
et	-10.4321
▁आङ्ग्ल	-10.4323
ेभ्य	-10.4323
▁re	-10.4324
दाय	-10.4325
ोदर	-10.4325
▁स्त्रियः	-10.4327
▁बद्ध	-10.4332
०७	-10.4338
▁वसु	-10.434
▁व्याधि	-10.4343
ताम	-10.4346
▁गतवान्	-10.4349
▁जाये	-10.4349
▁योनि	-10.4352
साधारण	-10.4358
जने	-10.4362
ch	-10.4363
यन्ते	-10.437
▁परमात्मा	-10.437
▁भूतानां	-10.4373
पिता	-10.4374
▁पूर्वमेव	-10.4381
▁भविता	-10.4383
सम्भव	-10.4385
▁पात्र	-10.4388
▁शाश्वत	-10.4389
▁अन्ध	-10.439
शोक	-10.4393
ri	-10.4395
▁ध्याय	-10.4395
&	-10.4395
पिण्ड	-10.4399
ol	-10.4399
▁वाणिज्य	-10.44
▁प्रशासन	-10.4402
▁वरद	-10.4402
▁कौन्तेय	-10.4403
▁श्याम	-10.4404
me	-10.4404
▁शिवः	-10.4407
▁विस्तरेण	-10.4412
▁वाचा	-10.4413
च्युत	-10.4414
र्य्य	-10.4414
▁पथि	-10.4417
▁दरिद्र	-10.4417
▁बहवो	-10.4427
23	-10.4427
▁दन्त	-10.4429
▁for	-10.443
तक	-10.443
व्र	-10.4434
समुदाय	-10.4435
र्या	-10.4436
निषेध	-10.4439
ऽप्य	-10.445
पुट	-10.445
▁श्राद्ध	-10.4451
▁शक्या	-10.4451
सत्तम	-10.4453
िष्ट	-10.4458
वयव	-10.4459
▁भरत	-10.4462
▁शरण	-10.4463
▁रूपेण	-10.4463
▁निवास	-10.4463
▁ले	-10.4465
वाक्यं	-10.4465
ुष	-10.4467
▁कद	-10.4468
▁अध्य	-10.4471
▁अव्यय	-10.4474
नत	-10.4474
▁प्रवाह	-10.4475
▁वय्क	-10.4475
ेयुः	-10.4476
५८	-10.4477
▁शक्नुवन्ति	-10.4477
संभवः	-10.4481
पूर्वक	-10.4481
▁द्विगुण	-10.4481
▁पुत्रा	-10.4489
▁सप्ताह	-10.4489
▁जू	-10.449
▁ह्र	-10.449
श्लेष	-10.4491
थ्	-10.4492
▁कविः	-10.4494
▁चात्र	-10.4496
▁शिक्ष	-10.4512
▁प्रणय	-10.452
▁महाराज	-10.4521
व्यपदेश	-10.4523
▁संघ	-10.4523
▁उपयोगी	-10.4523
▁छाया	-10.4524
वर्तत	-10.4525
ेऽप्य	-10.4526
▁तत्सम	-10.4533
▁@	-10.4534
▁सहज	-10.4538
ार्त	-10.455
स्थानम्	-10.455
▁(),	-10.455
▁गृह्णाति	-10.4551
▁देय	-10.4551
▁(2)	-10.4552
▁चेद	-10.4552
ियं	-10.4552
▁कतिपय	-10.4552
▁पाहि	-10.4555
४५	-10.4557
निरूपण	-10.4557
▁घण्टा	-10.4559
ग्ने	-10.456
▁तान	-10.4561
▁व्याप्त	-10.4562
द्या	-10.4565
हेतुः	-10.4567
▁समाहितः	-10.4569
▁शक	-10.457
▁५२	-10.4571
▁भगवतः	-10.4572
▁विधेय	-10.4573
श्लोक	-10.4573
▁एतच्च	-10.4578
▁तत्क्षण	-10.4578
▁स्थ	-10.4579
प्रकरणे	-10.4581
▁कस्यापि	-10.4583
▁श्रुतं	-10.4584
ऋत	-10.4585
▁पर्याय	-10.4586
▁स्वभावतः	-10.4588
विन्द	-10.4591
▁·	-10.4595
त्यपि	-10.4595
विंश	-10.4596
▁ब्रूहि	-10.4598
ार्य	-10.4601
▁शाक	-10.4602
▁प्रभावः	-10.4603
रात्रि	-10.4603
▁विद्युत	-10.4604
▁योऽ	-10.4604
पदेन	-10.4605
कृतः	-10.4606
यैव	-10.4606
▁स्वस्ति	-10.4606
पुस्तक	-10.4608
सीति	-10.4609
अत्र	-10.461
▁आगत्य	-10.4612
ल्व	-10.4614
प्रसाद	-10.4614
ॄ	-10.4614
▁अद	-10.4616
धौ	-10.4617
ाण	-10.4618
ेते	-10.462
र्प	-10.4624
श्रवण	-10.4625
▁शक्नुमः	-10.4625
ावपि	-10.4626
▁वृथा	-10.4629
▁काक	-10.463
ार्थी	-10.4631
ावस्था	-10.4631
▁पान	-10.4631
▁परो	-10.4634
यतीति	-10.4636
ष्टौ	-10.4638
रक्त	-10.4641
▁7.	-10.4643
▁अस्या	-10.4643
▁रेखा	-10.4644
न्तीति	-10.4644
▁४६	-10.4646
▁शक्यम्	-10.4648
▁प्रयुज्यते	-10.4648
ैर्न	-10.4649
वादने	-10.4649
दृक्	-10.4653
▁दुर	-10.4654
▁दोषा	-10.4655
लोचन	-10.4657
▁प्रतीत	-10.4661
▁भु	-10.4662
▁हिंस	-10.4663
▁चोर	-10.4669
नै	-10.467
▁त्य	-10.4674
▁निरा	-10.4677
येति	-10.468
▁युक्तं	-10.4682
पण	-10.4682
▁शर्म	-10.4685
▁महान	-10.4686
▁6.	-10.4688
▁Re	-10.4694
पूर्वकं	-10.4695
▁अवि	-10.4696
▁ततोऽ	-10.4705
▁प्रयच्छ	-10.4705
ज्वर	-10.4705
▁प्रकाशित	-10.4705
▁x	-10.4705
व्यं	-10.4707
▁त्रयोदश	-10.471
▁कुर्वन्तु	-10.4711
ोऽत्र	-10.4712
▁दिवसे	-10.4717
स्यति	-10.4718
रुण	-10.4724
▁तदनु	-10.4725
द्धा	-10.4727
जित	-10.473
कालिक	-10.4733
▁तिथिः	-10.4735
ापेक्षया	-10.4735
भाष्यम्	-10.4735
▁पदोन्नति	-10.4739
मया	-10.4739
नन्द	-10.474
▁राज्ञा	-10.4744
▁देवदत्त	-10.4749
भूते	-10.4749
र्थः	-10.4751
मुत्	-10.4752
▁परमार्थ	-10.4753
▁पाव	-10.4753
होम	-10.4754
दर्शनं	-10.4755
िष्यन्ति	-10.4755
ाभ्यास	-10.4757
गृह्य	-10.4758
ाविति	-10.4758
▁विगत	-10.4759
▁याग	-10.4759
▁वेदना	-10.4759
▁शाप	-10.476
वर्षाणि	-10.4767
ेच्छा	-10.4772
▁मतः	-10.4773
ातीत	-10.4773
मसि	-10.4774
▁रूपांतरण	-10.4776
▁लोपः	-10.478
र्जन	-10.4781
▁स्थितं	-10.4782
▁पुरो	-10.4782
▁अयम	-10.4784
मती	-10.4785
▁गच्छामि	-10.4785
स्क	-10.4786
▁नक्षत्र	-10.4787
▁विनि	-10.4788
▁विद्धि	-10.479
त्री	-10.4791
▁हास्य	-10.4794
▁श्रेय	-10.4795
▁कूप	-10.4796
राशि	-10.4799
▁वाग्	-10.4799
ुम	-10.4806
स्मात्	-10.481
▁वसिष्ठ	-10.4812
द्रव	-10.4815
पत्नी	-10.4817
▁सूक्त	-10.4819
ुद	-10.482
▁वास्तु	-10.4822
▁नृ	-10.4823
भावात्	-10.4827
ध्याय	-10.4828
मुद्रा	-10.4829
रय	-10.4829
भाष्य	-10.483
विधानं	-10.4831
▁तिल	-10.4831
▁सम्पन्न	-10.4833
शाल	-10.4837
५९	-10.4842
वेष्ट	-10.4843
▁प्रवर्त	-10.4843
मध्यम	-10.4844
ोऽध्यायः	-10.4847
अस्ति	-10.4849
पितृ	-10.4852
▁तै	-10.4852
ताल	-10.4854
तू	-10.4857
▁पो	-10.4858
योजित	-10.486
▁सार्ध	-10.4861
▁वक्तव्यं	-10.4861
ण्ण	-10.4863
पन्न	-10.4866
तनु	-10.4867
▁आज	-10.4875
▁वर्णन	-10.4877
40	-10.488
▁उपसर्ग	-10.4884
कृति	-10.4884
मित्याह	-10.4885
छि	-10.4886
▁ब्र	-10.4886
शिष्य	-10.4889
▁यथाक्रमम्	-10.4892
▁नियमः	-10.4893
सद्	-10.49
▁[[	-10.4902
▁जु	-10.4903
▁वया	-10.4905
▁भीत	-10.4905
▁स्वागत	-10.4908
▁निशि	-10.491
▁३९	-10.491
तये	-10.4911
▁भुक्त	-10.4913
▁सदृश	-10.4918
▁पीत	-10.4927
निर	-10.4928
वादि	-10.4931
ोत्सव	-10.4932
▁वयम	-10.4937
▁जिन	-10.4941
▁देशं	-10.4942
▁यावद	-10.4952
ास्मि	-10.4957
भावो	-10.4957
▁भवतो	-10.4958
निवारण	-10.4959
▁समवाय	-10.496
▁ठ	-10.496
▁एतौ	-10.4964
ीयम्	-10.4971
▁खण्ड	-10.4972
▁किञ्च	-10.4973
वेदन	-10.4973
▁उत्साह	-10.4974
▁परिसन्धि	-10.4975
स्नेह	-10.4985
▁तात्पर्य	-10.4986
▁पृष्ठे	-10.4986
▁स्तर	-10.4987
▁लेखन	-10.4989
▁पादौ	-10.4992
▁धर्म्म	-10.4997
ोक्तम्	-10.5001
▁५४	-10.5001
ावह	-10.5004
▁प्राप्तम्	-10.5007
▁रुचि	-10.5008
ऽस्य	-10.5009
नीया	-10.5009
▁कुर्मः	-10.501
▁मंत्र	-10.5014
▁कार्	-10.5028
▁अच्	-10.5031
५७	-10.5031
केश	-10.5032
भ्रम	-10.5032
द्वार	-10.5034
मूल्य	-10.5036
एवं	-10.5038
▁मन्	-10.504
ानी	-10.5041
ब्ध	-10.5042
▁देहे	-10.5045
▁धइगु	-10.5047
▁रहस्य	-10.5049
ाधिप	-10.505
▁प्राणिनां	-10.5051
▁सौर	-10.5051
▁जायन्ते	-10.5052
वचनम्	-10.5053
▁गच्छन्ति	-10.5055
▁पित्त	-10.5057
ोऽभवत्	-10.5059
▁तमः	-10.5063
मेध	-10.5065
▁प्रभव	-10.5066
▁be	-10.5068
छा	-10.5068
▁आगतः	-10.507
▁प्रतीक्षा	-10.507
▁विभो	-10.5071
▁विस्तृत	-10.5074
▁तस्मा	-10.5077
त्य्	-10.5079
टु	-10.508
▁दृष्टान्त	-10.5083
न्ये	-10.5083
▁क्षिप्र	-10.5087
▁इष्यते	-10.5089
ऽसौ	-10.509
▁विकृत	-10.509
लोपः	-10.5092
धारण	-10.5093
काण्ड	-10.5096
▁आश्रय	-10.5099
▁झी	-10.5101
सृ	-10.5103
परिवार	-10.5105
▁अत्यन्तं	-10.5105
ागत	-10.5108
se	-10.5109
▁परमात्म	-10.5116
▁जो	-10.5116
ैस्त	-10.5121
▁कह	-10.5121
३३	-10.5122
▁समाप्तम्	-10.5128
06	-10.5128
४९	-10.5139
ब्द	-10.5139
जीवित	-10.514
▁सर्वलोक	-10.514
निर्णय	-10.5142
वचने	-10.5144
▁कामः	-10.5144
▁स्तन	-10.5145
वाच	-10.5147
▁सूची	-10.5152
▁सुविधा	-10.5153
बार	-10.5155
▁कर्त्तव्य	-10.5157
▁गोल	-10.5158
▁लज्जा	-10.5159
▁नैक	-10.516
लय	-10.5161
▁मनुष्याणां	-10.5164
ोऽस्य	-10.5168
राव	-10.5169
९६	-10.5172
सामर्थ्य	-10.5176
▁ज्ञेयं	-10.5176
संसार	-10.5178
ऽथ	-10.5181
▁तद्धित	-10.5181
li	-10.5183
▁वैद्य	-10.5184
▁त्रय	-10.5185
▁हत्वा	-10.5186
यसि	-10.5186
▁५१	-10.5203
शू	-10.5203
▁त०	-10.5205
िश	-10.5207
द्वीप	-10.521
▁अथा	-10.5211
▁भाष	-10.5211
▁सृज	-10.5213
▁४३	-10.5213
▁सङ्	-10.5214
संज्ञक	-10.5214
▁अष्टादश	-10.5215
फलकम्ः	-10.5217
▁उपयुक्त	-10.5219
▁स्वधा	-10.5219
▁उपस्थित	-10.5219
समाज	-10.5222
▁पठन्ति	-10.5222
▁सरकारं	-10.5224
त्वादिति	-10.5225
धनं	-10.5226
▁उत्पन्न	-10.5228
यदा	-10.5236
कारणम्	-10.5236
साव	-10.5236
▁वाज	-10.5237
ाप्त	-10.5237
▁पीडा	-10.5238
युतं	-10.5239
▁शयन	-10.524
महे	-10.5242
ाख्यं	-10.5243
▁शिशु	-10.5246
मधि	-10.5248
ान्तः	-10.5249
समूह	-10.525
ra	-10.5251
26	-10.5252
▁७०	-10.5252
▁व्यवस्थापन	-10.5253
▁भुवन	-10.5255
▁जन्मनि	-10.5256
▁अर्हति	-10.5257
वाल	-10.5259
27	-10.5262
▁सम्यग	-10.5265
ियां	-10.5269
▁आगच्छति	-10.527
नेक	-10.5271
▁सत्ता	-10.5271
▁आदौ	-10.5271
▁भीम	-10.5272
मद्य	-10.5274
▁देयं	-10.5275
▁द्रष्टव्यम्	-10.5276
▁स्वरूपं	-10.5276
▁सर्वम्	-10.5277
४४	-10.5283
प्रयोगः	-10.5286
▁देवदेव	-10.5287
माता	-10.5291
स्तां	-10.5291
▁दृ	-10.5292
३९	-10.5293
▁तदर्थं	-10.5297
जन्त	-10.53
लिखित	-10.5301
▁अनेके	-10.5302
▁भा०	-10.5303
▁कोश	-10.5305
▁जननी	-10.5305
▁अर्जुन	-10.5305
▁कुटुम्ब	-10.5309
09	-10.5309
▁गङ्गा	-10.5315
नामा	-10.5316
▁गौरव	-10.5317
▁News	-10.5323
ुम्	-10.533
भवे	-10.5334
रन्	-10.5334
▁ईदृश	-10.5335
▁दूषण	-10.5337
▁वैश्वदेव	-10.5348
▁कफ	-10.5349
▁निरोध	-10.5351
▁छः	-10.5353
▁उदय	-10.5353
▁प्रगति	-10.5354
▁w	-10.5354
ायुष	-10.5362
प्रद	-10.5364
ाध्याय	-10.5365
▁इष	-10.5365
▁ध्यात्वा	-10.5367
कारं	-10.5368
ैत	-10.5369
▁पठित	-10.5369
▁बह	-10.5371
▁तत्त्वतः	-10.5375
▁प्रोक्तो	-10.5376
28	-10.5378
॑ः	-10.5379
चालन	-10.538
▁संपूर्ण	-10.538
पाट	-10.5393
प्रयत्न	-10.5395
▁तत्रा	-10.5396
▁चेद्	-10.5399
त्रे	-10.54
▁भवत	-10.5401
स्यास्य	-10.5401
▁मत्वा	-10.541
५५	-10.541
▁वाचं	-10.5411
▁दूरभाष	-10.5412
▁सूत्रेण	-10.5413
4.	-10.5413
▁भर्ती	-10.5415
▁इत्युक्तम्	-10.5417
▁पृथ्वी	-10.5418
▁नाथ	-10.542
ुक	-10.5421
▁तद्वत्	-10.5424
▁पालय	-10.5427
▁धातोः	-10.5432
ाने	-10.5432
रुच्यते	-10.5435
▁कां	-10.5436
▁व्यापक	-10.544
▁बाध	-10.544
तयः	-10.5442
▁तुष्ट	-10.5443
▁कार्यान्वयन	-10.5443
▁सार्धं	-10.5443
ाहार	-10.5447
्यौ	-10.5447
▁कथित	-10.5449
▁शुभे	-10.5451
▁शिरः	-10.5453
ak	-10.5456
▁तृतीये	-10.5457
न्यो	-10.5459
▁निष्ठा	-10.546
ख्यात	-10.5462
▁प्रासाद	-10.5463
मातर	-10.5465
▁निवर्तते	-10.5465
दू	-10.5466
तिर	-10.5471
▁35	-10.5477
३६	-10.5478
▁त्रिगुण	-10.5481
पश्चिम	-10.5482
▁न्ह्यः	-10.5482
दिनं	-10.5482
▁औसत	-10.5484
मयी	-10.5484
▁स्थल	-10.5489
▁जातु	-10.549
▁उभे	-10.549
▁विदित	-10.5492
व्यक्ति	-10.5493
लै	-10.5493
▁अ०	-10.5493
बू	-10.5494
कर्ष	-10.5495
▁दैवत	-10.5496
▁मौन	-10.5497
▁इं	-10.5498
▁प्राय	-10.5501
च्छ्र	-10.5501
ासः	-10.5502
प्रयुक्त	-10.5503
सिद्धिः	-10.5505
▁ऽहं	-10.5507
माप्नोति	-10.5507
प्रत्यक्ष	-10.5508
मन्व	-10.5511
युक्तो	-10.5516
▁भागं	-10.5518
ादीन्	-10.5519
ऐ	-10.5521
दुष्ट	-10.5521
मानेन	-10.5524
ब्रवी	-10.5528
कूट	-10.5536
▁शेषं	-10.5537
▁तेज	-10.554
शतं	-10.5541
▁सख्य	-10.5542
▁सनातनः	-10.5542
च्य	-10.5545
▁उगु	-10.5546
▁ङ	-10.5547
▁राय	-10.5547
कीर्ति	-10.5548
ro	-10.5549
▁जीर्ण	-10.555
वरी	-10.5554
08	-10.5554
समं	-10.5556
पृ	-10.5556
गुणं	-10.5557
▁पर्याप्त	-10.5557
▁भिक्षु	-10.5559
पीड	-10.5559
▁परमेश्वरः	-10.5561
र्हि	-10.5565
राज्ये	-10.5565
▁2016	-10.5567
यॊ	-10.5568
प्रदेशे	-10.5569
▁किमर्थम्	-10.5569
▁मूर्ति	-10.5578
पीठ	-10.5582
िनं	-10.5588
बलं	-10.5591
▁इमा	-10.5596
४८	-10.5599
▁राघव	-10.5601
ऽन	-10.5602
▁म्ह	-10.5603
▁पाश	-10.5605
▁सामर्थ्य	-10.5605
उच्चारण	-10.5609
▁पश्यत	-10.5611
गाय	-10.5612
▁म्रियते	-10.5612
दम्	-10.5613
la	-10.5616
▁सहित	-10.5616
य्य	-10.562
▁जुयाः	-10.5623
▁ऽयं	-10.5625
दै	-10.5626
▁↑	-10.5631
▁संहिता	-10.5633
ोदाहरण	-10.5642
समास	-10.5643
▁एतं	-10.5643
▁कर्तृ	-10.5651
लेन	-10.5651
▁भुज	-10.5652
▁कप	-10.5653
कृष्ण	-10.5654
▁दीर्घः	-10.5655
▁सहस्राणि	-10.5656
न्यस्य	-10.5661
▁प्रकल्प	-10.5662
ाभिधान	-10.5663
जायत	-10.5664
▁चाह	-10.5667
▁परित्यज्य	-10.5668
▁सज्ज	-10.5669
▁यान	-10.5675
ानामपि	-10.5675
▁अनित्य	-10.5676
▁दारिद्र्य	-10.5679
मार्गे	-10.568
स्तथैव	-10.568
क्रोध	-10.5683
▁त्वाम्	-10.5684
▁पाण्डव	-10.5684
ध्वनि	-10.5684
▁प्रणम्य	-10.5684
▁बृहत्	-10.5688
बन्धन	-10.5688
▁द्वेष	-10.5691
j	-10.5692
▁औपचारिक	-10.5692
▁क्रूर	-10.5694
त्त्व	-10.5694
ब्र	-10.5697
दृश	-10.5699
ay	-10.5699
नायक	-10.57
▁संयम	-10.5702
र्श	-10.5707
▁दुर्लभ	-10.5707
▁सञ्	-10.5708
भारतीय	-10.5708
भूत्	-10.5711
निष्ट	-10.5714
▁काचित्	-10.5715
▁क्षेत्रज्ञ	-10.572
▁त्वद्	-10.5727
▁उद्यम	-10.5729
▁US	-10.5729
▁सर्वकाम	-10.5739
▁विनय	-10.5741
मिमं	-10.5742
नू	-10.5743
वोच	-10.5747
भाषायां	-10.5751
▁प्रयच्छति	-10.5755
ऽर्थ	-10.5755
पात्र	-10.5756
ोद	-10.5757
निष्ठा	-10.5759
▁पुनरेव	-10.5764
सीत्	-10.5766
▁पाल	-10.5766
मादाय	-10.5769
परो	-10.5772
मुनि	-10.5778
▁करोतुः	-10.5778
▁पुरु	-10.5779
▁परस्मैपद	-10.5783
▁महाभाग	-10.5784
▁सेतु	-10.5784
फा	-10.5787
ाऽपि	-10.5787
ाध्ययन	-10.5789
स्थो	-10.579
ित्य	-10.5796
पः	-10.5798
▁सप्तमी	-10.5801
▁परमा	-10.5801
▁पूर्व्व	-10.5807
गव	-10.5807
सद	-10.5808
▁रवि	-10.5808
▁यत्नतः	-10.581
▁विशेषणम्	-10.5812
▁संवाद	-10.5813
▁वृष्टि	-10.5813
▁पुनश्च	-10.5815
▁भ्राता	-10.5817
हः	-10.582
ान्तर्गत	-10.5823
न्वय	-10.5824
▁क्षणे	-10.5827
▁खाद	-10.5827
राय	-10.5832
▁भोज	-10.5833
59	-10.5834
▁आरक्षण	-10.5834
29	-10.5836
▁32	-10.5837
▁प्रसिद्धः	-10.5837
ानुसारं	-10.5843
र्भव	-10.5844
▁प्रणव	-10.5845
▁जुल	-10.5846
▁योजन	-10.5848
▁29	-10.5848
▁कम्प	-10.585
▁तेऽ	-10.5852
▁विज्ञानं	-10.5853
मेवा	-10.5854
▁साक्षि	-10.5856
रुचि	-10.5857
▁अज्ञात	-10.5858
▁तवं	-10.5863
▁सम्मेलन	-10.5865
▁खाद्य	-10.5866
॑त	-10.587
▁नवम	-10.587
▁बत	-10.5871
▁निगम	-10.5872
तृतीय	-10.5874
तल	-10.5876
प्रसङ्ग	-10.5877
▁व्यर्थ	-10.5877
▁तद्व	-10.5877
▁क्षीर	-10.5879
▁श्रृणु	-10.5882
एत	-10.5884
लव	-10.5886
▁एकैक	-10.5887
रिया	-10.5888
ोद्भव	-10.5889
▁सन्तु	-10.589
तदा	-10.589
▁कर्	-10.5891
निमित्तं	-10.5894
▁जनपद	-10.5896
▁नृणां	-10.59
▁हानि	-10.5901
राजस्य	-10.5901
भावना	-10.5901
▁दाह	-10.5901
परिमाण	-10.5904
ब्ब	-10.5905
▁जानासि	-10.5906
▁५७	-10.5906
▁शब्दार्थ	-10.5912
▁खेद	-10.5914
▁सुलभ	-10.5915
ानपि	-10.5916
कल्पित	-10.5918
▁शङ्क	-10.5918
ह्र	-10.5919
▁इत्यादौ	-10.5923
भावा	-10.5924
स्वप्न	-10.5925
नस्य	-10.5926
▁क्षेम	-10.5929
ाभिमुख	-10.5929
▁याना	-10.593
योगी	-10.5934
▁अग्निं	-10.5936
ut	-10.5937
▁दह	-10.5937
▁शिष्ट	-10.5939
यर	-10.5939
महि	-10.5942
ā	-10.5942
▁सखि	-10.5942
ययौ	-10.5943
कान्त	-10.5943
▁सूच	-10.5944
▁सांख्य	-10.5944
चिद्	-10.5945
▁चत्वारः	-10.5947
▁स्थित्वा	-10.5947
▁सनातन	-10.5947
नियत	-10.5948
▁पूर्वा	-10.595
▁गर्व	-10.5956
▁प्रय	-10.5957
▁फलानि	-10.5957
मूर्ति	-10.596
यव	-10.5961
▁बालिका	-10.5961
विजय	-10.5966
▁अद्भुत	-10.5968
▁मतिः	-10.5968
▁नौ	-10.5978
▁सर्वतो	-10.598
स्वरूपं	-10.5983
▁Post	-10.5984
▁ग्राहक	-10.5985
वाय	-10.5987
हानि	-10.5991
ोपि	-10.5992
▁पश्चाद	-10.5992
▁प्राप्तिः	-10.5994
▁संबन्धः	-10.5996
▁यन्	-10.5996
चिन्तन	-10.5997
07	-10.5998
▁सर्वश्रेष्ठ	-10.5999
ार्थो	-10.5999
▁स्रोत	-10.5999
▁रङ्ग	-10.5999
तरे	-10.6
कानि	-10.6001
▁कृतार्थ	-10.6004
येगु	-10.6005
मण्डलं	-10.6006
▁प्रतिदिन	-10.6011
▁दू	-10.6012
▁निरस्त	-10.6013
▁दद	-10.6016
▁सन्देश	-10.6017
ैकं	-10.6018
▁हेतुना	-10.602
तेति	-10.602
▁स्वर्गं	-10.6021
▁कार्यः	-10.6022
भागं	-10.6023
▁दार	-10.6024
ir	-10.6025
ताया	-10.6027
र्ट	-10.6027
्यन्त	-10.6034
▁व्यवस्थित	-10.6035
▁विध	-10.6037
▁दम	-10.6038
प्रवृत्ति	-10.604
ॊप	-10.6042
▁जड	-10.6043
ाशु	-10.6045
▁सङ्गीत	-10.605
तप	-10.6056
▁निवृत्ति	-10.606
▁मितिः	-10.606
यितुम्	-10.6061
धर्मा	-10.6061
▁पुरः	-10.6061
त्वादि	-10.6061
▁भगवत्	-10.6062
सर्ग	-10.6069
▁प्रयुक्तम्	-10.6069
ोऽथ	-10.6069
लक	-10.6072
पीति	-10.6072
नदी	-10.6074
▁साध	-10.608
द्विज	-10.608
मणि	-10.6083
्यर्थं	-10.6086
ाभास	-10.6086
▁विज्ञायते	-10.6086
▁युक्ति	-10.6087
▁श्रोत्र	-10.609
▁कुर्व	-10.6094
▁अपा	-10.6096
7.	-10.6096
मेतद्	-10.6096
▁वारि	-10.6097
▁भूप	-10.6097
▁साङ्ख्य	-10.6098
▁गतौ	-10.6099
▁विद्यालयं	-10.61
नन्दन	-10.6101
विहित	-10.6102
वाम	-10.6103
निरोध	-10.6104
▁मात्र	-10.611
▁कष	-10.6111
योजक	-10.6112
मुत्तमम्	-10.6113
▁सावधान	-10.6116
32	-10.6117
▁ज्योतिष	-10.6118
▁सर्वज्ञ	-10.612
▁कन्	-10.6121
▁प्रथमो	-10.6123
▁समाधि	-10.6123
मिश्र	-10.6124
ेतर	-10.6125
ex	-10.6127
मानव	-10.6128
▁नरो	-10.6132
मार्गेण	-10.6136
▁साधनं	-10.614
▁भविष्यसि	-10.6143
▁अनि	-10.6143
▁31	-10.6143
▁याच	-10.6144
▁मन्दिर	-10.6144
▁पथ	-10.6145
निश	-10.6148
▁प्राधान्य	-10.6149
घन	-10.6152
सत्ता	-10.6152
▁इतिहासः	-10.6152
सिंह	-10.6155
▁पुस्तके	-10.6157
▁६५	-10.6158
▁ज्ञातुं	-10.6158
▁ट्र	-10.6158
45	-10.6159
योनि	-10.616
▁समर्पित	-10.6161
भविष्य	-10.6163
▁स्थापित	-10.6167
द्भुत	-10.6167
▁पितर	-10.6173
यस	-10.6177
नोति	-10.6177
▁चित्रं	-10.6178
सहस्राणि	-10.6179
▁रज	-10.6179
फ्	-10.6184
वार्ता	-10.6185
क्रीड	-10.6185
वरण	-10.6188
▁शक्यः	-10.6191
▁भण	-10.6192
रेक	-10.6195
पदम्	-10.62
ाव्	-10.6202
स्त्वया	-10.6202
▁हिन्दु	-10.6203
▁आद्य	-10.6209
▁विस्तर	-10.6211
ff	-10.6211
राज्यं	-10.6211
▁अहोरात्र	-10.6213
▁योग्यता	-10.6215
▁प्रत्यहं	-10.6215
ासो	-10.6219
जनानां	-10.622
▁जुइगु	-10.6225
▁प्रथ	-10.6227
श्न	-10.623
परिमित	-10.6232
▁सूर्यस्य	-10.6233
कालीन	-10.6236
▁एतेषु	-10.6237
▁स्वतन्त्रता	-10.6245
▁विक्रय	-10.6248
प्रवाह	-10.6249
▁मुनिः	-10.625
ानुभव	-10.6251
▁कुत्रापि	-10.6254
लू	-10.6257
5.	-10.626
▁साध्या	-10.6264
िष्य	-10.6264
▁नित्यम्	-10.6264
ानुप	-10.6267
सृज	-10.6271
▁७५	-10.6273
सुखं	-10.6274
रस्य	-10.6275
्नु	-10.6279
ाग्रे	-10.628
▁प्रतिभाति	-10.628
▁सैव	-10.628
▁शिक्षक	-10.628
▁समाप्ति	-10.6281
४६	-10.6282
▁कण्ठ	-10.6283
▁एवमुक्त	-10.6283
यथ	-10.6284
▁स्त्रिया	-10.6285
मस्तु	-10.6288
▁भूत्	-10.6289
▁राजपुत्र	-10.6289
लीन	-10.6291
▁अनुकूल	-10.6296
▁नराधिप	-10.6296
युज	-10.6299
सौख्य	-10.6301
हीनं	-10.6302
▁अध	-10.6306
मयो	-10.6306
▁शुभं	-10.6307
▁पुनरा	-10.6309
विभव	-10.6313
ानेन	-10.6313
िच	-10.6314
▁भाषाया	-10.6314
▁नन्व	-10.6315
▁दाता	-10.6316
▁रचित	-10.6318
▁तेजो	-10.6319
पराध	-10.632
▁गम	-10.6322
॒र	-10.6325
▁कृति	-10.6326
▁पुं॰	-10.6328
▁पित्रा	-10.6329
▁जुलाई	-10.6334
प्ल	-10.6334
▁कुर्वीत	-10.6335
▁कुश	-10.6336
▁Tags	-10.6337
थु	-10.6337
▁100	-10.634
▁पाणि	-10.634
मृग	-10.6341
ैश्वर्य	-10.6341
र्स	-10.6344
▁सादृश्य	-10.6345
▁दुर्लभं	-10.6347
वते	-10.6349
चेतन	-10.6352
▁५६	-10.6352
▁प्रातिपदिक	-10.6354
▁भयम्	-10.6355
▁आक्रमण	-10.6355
नया	-10.6355
▁दुष्	-10.6355
▁अत्रापि	-10.6357
▁नृपः	-10.6358
▁पृच्छति	-10.6358
ाशय	-10.6358
▁रुप	-10.6358
▁पाकिस्तान	-10.6359
राध	-10.636
▁परतः	-10.6363
▁शीतल	-10.6363
ैतद्	-10.6365
▁यथैव	-10.6365
▁यथोक्त	-10.6366
हल	-10.6367
▁यौ	-10.6375
▁अहमेव	-10.6376
°	-10.6378
विद्	-10.6378
▁तथ्य	-10.6378
▁प्रत्ययो	-10.6381
▁स्नात्वा	-10.6382
तुर	-10.6382
गतम्	-10.6384
कृतम्	-10.6386
मन्दिर	-10.6387
▁क्वापि	-10.6388
फु	-10.6388
▁कलौ	-10.6389
पद्यते	-10.639
्यतां	-10.6391
▁असम	-10.6392
▁स्वी	-10.6395
▁पूर	-10.6397
▁असत्य	-10.6399
ध्	-10.64
▁प्रव	-10.6408
▁शुचि	-10.6412
▁शव	-10.6414
संहिता	-10.6419
▁स्मृता	-10.642
हृत्य	-10.6421
▁मातुः	-10.6421
न्ना	-10.6423
▁संध्या	-10.6424
▁कार्ये	-10.6424
▁विकि	-10.6425
▁ख्याति	-10.6427
ारि	-10.6428
▁किञ्चिद	-10.6432
▁मित्राणि	-10.6435
देशं	-10.6436
ण्ट	-10.6438
शर	-10.6439
▁जाना	-10.644
कामा	-10.6441
ाम्य	-10.6445
▁बौद्ध	-10.6445
▁ज्योतिः	-10.6449
न्तरे	-10.6457
▁एकमेव	-10.6458
विप्र	-10.646
सव	-10.6463
चक्ष	-10.6464
ावधि	-10.6465
सम्भवः	-10.6469
▁लक्ष्मण	-10.6472
४७	-10.6472
54	-10.6474
▁पृथिवीं	-10.6474
▁समन्ततः	-10.6474
▁दाव	-10.6474
▁कन्यां	-10.6478
▁जितः	-10.6479
▁पत्रं	-10.648
मरण	-10.6481
▁वृद्धा	-10.6483
वशात्	-10.6488
▁आग	-10.6489
▁एतस्मिन्	-10.6498
ूं	-10.6499
▁स्मृताः	-10.6501
▁अप्र	-10.6505
▁प्रदेशः	-10.6506
▁पृथग्	-10.6507
▁अष्टम	-10.651
शं	-10.651
▁अपरं	-10.6512
ध्वन	-10.6515
भीत	-10.6517
▁>>	-10.652
चाल	-10.6521
▁संस्थाप्य	-10.6524
▁आचार	-10.6524
▁आपण	-10.6525
ष्ट्र	-10.6528
▁पयः	-10.6531
▁प्रकाशन	-10.6533
विष्णु	-10.6535
▁दूरं	-10.6538
ऽद्य	-10.6545
▁पौ	-10.6545
▁द्व	-10.6548
योर्मध्ये	-10.655
ानुमान	-10.6554
स्तो	-10.6555
▁विन	-10.6555
ल्ला	-10.6561
ma	-10.6567
पद्यत	-10.6568
मर्हति	-10.657
केत	-10.6573
▁छात्रः	-10.6574
▁विर	-10.6579
ent	-10.6584
मनुष्य	-10.6585
मिद	-10.6585
ासनं	-10.6588
▁यन्न	-10.6589
um	-10.659
मन्त्री	-10.659
▁शैली	-10.6591
▁प्रियः	-10.6593
▁ईशान	-10.6595
णाम्	-10.6597
▁अभिमान	-10.6597
नगरं	-10.6597
एम	-10.6597
▁मिल	-10.6598
मंत्र	-10.6598
तव्य	-10.6602
ालये	-10.6604
▁भौतिक	-10.6605
▁कक्ष	-10.6605
▁विकल्पः	-10.6605
▁प्राप्नुवन्ति	-10.6611
तरो	-10.6612
▁यज्ञे	-10.6613
ख्या	-10.6613
▁हिमालय	-10.6614
र्घ	-10.6616
▁व्योम	-10.6617
्योः	-10.6617
ग्ल	-10.6621
बुध	-10.6624
▁चेन्न	-10.6625
ैति	-10.6632
उत्	-10.6633
▁अनुप	-10.6633
फो	-10.6635
गार	-10.6638
▁धाम	-10.6639
▁आसान	-10.6639
52	-10.6642
सूक्ष्म	-10.6642
ोत्पत्ति	-10.6645
मण्डलस्य	-10.6645
मभ्य	-10.6646
▁स्वः	-10.6648
▁VERSE	-10.6648
▁भि	-10.6651
क्रु	-10.6651
िणो	-10.6653
▁५९	-10.6653
षी	-10.6654
▁वाक्ये	-10.6658
५३	-10.6666
ान्यपि	-10.667
च्छब्द	-10.667
▁लोकान्	-10.6671
्म	-10.6676
▁परिषद	-10.6677
मेवं	-10.6678
▁निन्द	-10.6679
्यति	-10.668
ऽप	-10.6681
ितानि	-10.6683
70	-10.6685
▁निहित	-10.6685
३५	-10.6687
▁इंद्र	-10.6691
41	-10.6698
▁धनम्	-10.6698
▁बहुल	-10.67
परम्परा	-10.6702
▁उद्यान	-10.6702
ोऽनु	-10.6705
ीष	-10.6706
रङ्ग	-10.6708
▁संसर्ग	-10.6709
▁अणु	-10.6709
2.	-10.6709
▁स्थितो	-10.671
भ्यास	-10.671
br	-10.6711
▁अर्थे	-10.6714
▁दास्य	-10.6716
▁समन्वय	-10.6716
्येत	-10.6718
▁माय	-10.6718
वनं	-10.6718
▁निर्माणं	-10.6719
▁रात	-10.672
▁तत्त्वं	-10.6721
▁भ्रातर	-10.6722
▁पूँजी	-10.6724
▁एतन्	-10.6729
▁वास्तव	-10.673
▁-'	-10.6731
कुशल	-10.6734
▁भी	-10.6737
वीं	-10.6737
ातिशय	-10.6737
दम	-10.6744
संस्थान	-10.6746
▁रोम	-10.675
विद्ध	-10.675
अन्त	-10.6752
▁श्रुतेः	-10.6754
▁कीदृशः	-10.6755
इदं	-10.6755
द्वयम्	-10.6756
▁वरः	-10.6756
ाधीन	-10.6757
्यू	-10.6758
▁स्मृतिः	-10.6758
▁केनचित्	-10.6759
▁स्थिताः	-10.6759
मण	-10.676
पर्यन्तम्	-10.6761
५१	-10.6762
▁इन्द्रः	-10.6763
दित	-10.6763
त्यर्थ	-10.6765
▁कीदृशं	-10.6767
अन्येषां	-10.6767
▁राज्यस्य	-10.6768
पुत्रः	-10.6768
तय्सं	-10.6771
▁विस्मृत	-10.6772
▁सन्तः	-10.6776
५२	-10.6779
▁लॊक	-10.6781
▁ज्योति	-10.6784
▁दत्वा	-10.6784
रचना	-10.6785
▁मूल्यं	-10.6787
ऩ	-10.6787
३८	-10.6788
▁विमल	-10.6789
▁मासि	-10.679
▁समरे	-10.6791
क्रियते	-10.6791
▁सुग्रीव	-10.6792
▁प्रचार	-10.6792
▁हरित	-10.6792
58	-10.6797
▁अद्यतन	-10.6798
हरण	-10.6802
▁तैल	-10.6806
ावेव	-10.6806
५४	-10.6807
गद	-10.6809
▁तट	-10.6811
▁खु	-10.6812
ादिः	-10.6812
▁भवत्येव	-10.6814
प्रतिषेध	-10.6815
इह	-10.6816
▁कथां	-10.6823
पत्ति	-10.6824
▁तदन्त	-10.6829
च्यते	-10.683
रम्	-10.683
▁हेम	-10.6831
▁थौं	-10.6834
▁प्रदत्त	-10.6835
योषित	-10.6835
द्भिः	-10.6836
▁प्रोक्तः	-10.6838
संस्थ	-10.6839
स्तम्भ	-10.684
वासी	-10.684
दद	-10.684
▁समर्थः	-10.6841
▁विचार्य	-10.6842
▁दग्ध	-10.6843
▁यच्छ	-10.6844
▁व्रजेत्	-10.6844
ीये	-10.6846
▁प्रमाद	-10.6847
तानि	-10.6849
▁करने	-10.6849
ोक्ति	-10.685
▁वनं	-10.685
न्त्या	-10.685
▁तदु	-10.6855
क्ख	-10.6855
▁संवत्सरे	-10.6857
▁परोक्ष	-10.6857
चिर	-10.6858
▁भास	-10.6858
सेव	-10.6858
▁ग्राह्य	-10.686
▁कृत्रिम	-10.686
है	-10.6861
▁समु	-10.6863
lo	-10.6864
▁ह्य्	-10.6865
द्वेष	-10.6868
▁यज्ञं	-10.6869
▁अगस्त	-10.6869
तीत्यर्थः	-10.6876
बंध	-10.6876
▁प्राथमिक	-10.6876
▁एति	-10.6878
राजा	-10.6878
ाहुः	-10.6882
▁जाय	-10.6882
▁क्षुद्र	-10.6882
तीत	-10.6883
निर्दिष्ट	-10.6883
▁सर्वनाम	-10.6884
मुखं	-10.6888
▁लोह	-10.689
▁पुष्ट	-10.6892
ेच्छ	-10.6894
no	-10.6894
जना	-10.6897
▁हित्वा	-10.6897
नीयं	-10.6897
▁विभक्तिः	-10.6898
▁देवतानां	-10.6898
▁दीक्षा	-10.69
▁चार	-10.6902
▁वैश्वानर	-10.6906
द्वारे	-10.6909
ानुकूल	-10.6911
६५	-10.6911
▁तयोर्	-10.6911
▁तत्पर	-10.6912
▁00:	-10.6912
▁नश्यति	-10.6913
ाम्यहम्	-10.6917
▁कुर्याद्	-10.6919
नादि	-10.692
पुराण	-10.6921
▁निर्देशः	-10.6923
ार्क	-10.6923
▁लक्षणम्	-10.6924
मानि	-10.6927
▁मार्गः	-10.6927
▁पप्रच्छ	-10.6927
▁प्रयोगशाला	-10.693
▁जनार्दन	-10.6931
ेरन्	-10.6933
भावं	-10.6935
सदृश	-10.6935
गौ	-10.6935
▁नोप	-10.6936
▁प्रदर्शित	-10.6936
द्यते	-10.6938
▁प्रवास	-10.694
▁हस	-10.694
५६	-10.6943
▁तुम	-10.6945
ce	-10.6948
▁पाय	-10.6948
िनाम्	-10.6952
57	-10.6953
▁पौर	-10.6954
▁k	-10.6955
▁प्रलय	-10.6955
▁वैर	-10.6956
▁पर्यन्तं	-10.6957
पुनर	-10.6957
लक्षणे	-10.6959
▁गवां	-10.6961
संपन्न	-10.6962
▁पथ्य	-10.6969
8.	-10.697
▁महाबलः	-10.697
ात्मने	-10.6972
▁वारं	-10.6973
▁परीणाम	-10.6974
▁शुभाशुभ	-10.6975
▁काम्य	-10.6975
▁मनुज	-10.6975
भद्र	-10.6978
सम्बद्ध	-10.6978
ास्पद	-10.6979
निश्चय	-10.698
▁प्रोवाच	-10.6982
▁शूल	-10.6984
▁पुत्रस्य	-10.699
॒न	-10.6992
▁पालन	-10.6994
मस	-10.6994
▁उद्देश्य	-10.6995
ात्मन	-10.7
ान्वितः	-10.7001
उत्तर	-10.7005
▁एकल	-10.7005
रिष्ट	-10.7007
पद्म	-10.7007
▁पुत्त्र	-10.701
▁निषिद्ध	-10.7014
यज	-10.7014
ार्द्ध	-10.7015
▁नेपाः	-10.7015
▁वं	-10.7016
प्रजा	-10.7021
त्वाच्च	-10.7022
▁प्रदर्शन	-10.7023
▁जन्तु	-10.7024
कारान्त	-10.7031
बाह्य	-10.7038
६९	-10.7039
स्माद	-10.704
▁करी	-10.7041
▁शील	-10.7043
रुद्ध	-10.7046
▁सामग्री	-10.7047
▁सुकृत	-10.705
▁कान्त	-10.7051
▁मदन	-10.7052
क्रमण	-10.7053
▁स्वर्गे	-10.7053
▁साक्षी	-10.7054
ितव्य	-10.7058
▁सूर्यो	-10.706
ीन	-10.7061
▁जाते	-10.7062
▁फोटो	-10.7062
▁फिल्म	-10.7063
त्याज्य	-10.7064
गुणा	-10.7065
जार	-10.7067
▁लङ्का	-10.7067
ात्मनो	-10.7068
▁संदेह	-10.7069
वु	-10.707
भविष्यति	-10.707
▁यथेष्ट	-10.7071
▁रात्रिः	-10.7072
▁भूयो	-10.7074
▁धीमतः	-10.7075
रणं	-10.7075
वल्लभ	-10.7076
▁स्वस्व	-10.7076
▁यौवन	-10.7077
मग्न	-10.7078
ओं	-10.7079
▁लोभ	-10.7079
तर्हि	-10.7081
क्त्वा	-10.7082
▁ताल	-10.7083
्येव	-10.7086
▁पर्यटन	-10.7087
मण्ड	-10.7088
▁युधिष्ठिर	-10.7089
कथन	-10.7091
नीयम्	-10.7093
▁In	-10.7094
ेत्यादि	-10.7096
कन्या	-10.7096
वक्त्र	-10.7097
▁Previous	-10.71
व्याधि	-10.7103
कुमार	-10.7104
▁आपो	-10.7105
▁तमस्य	-10.7108
▁पूजयेत्	-10.711
▁तोय	-10.7112
▁प्रार्थित	-10.7116
▁अधिसूचना	-10.7118
▁आसपास	-10.7118
▁पद्धति	-10.7119
▁अग	-10.7124
स्ती	-10.7124
▁होवाच	-10.7125
▁प्राणा	-10.7127
▁नेत्रे	-10.7128
मृ	-10.713
▁सैनिक	-10.7131
▁स्थानीय	-10.7132
▁एकान्त	-10.7134
प्रसङ्गः	-10.7135
▁वीक्ष्य	-10.7137
▁ऑ	-10.7138
▁आवां	-10.714
ित्व	-10.7142
साम्	-10.7143
31	-10.7146
प्लव	-10.7147
युज्य	-10.7148
▁आरम्भः	-10.7149
केवल	-10.7149
▁गुहा	-10.7149
ितौ	-10.7151
▁रचय	-10.7151
▁शिर	-10.7153
ाधिकरण	-10.7155
▁रथं	-10.7156
▁चक्षुः	-10.7161
रोह	-10.7162
्न	-10.7164
1.	-10.7165
▁अप्रैल	-10.7165
▁ऊर्ज	-10.7166
▁महत्त्वपूर्ण	-10.7167
▁टि	-10.7168
ीभूत	-10.717
▁हार	-10.7173
चिन्ता	-10.7174
▁केचिद्	-10.7174
४२	-10.7177
▁सतां	-10.7178
▁जिह्वा	-10.7181
▁तरुण	-10.7181
▁हीन	-10.7183
▁चित	-10.7185
भवः	-10.7187
▁हिरण्य	-10.7188
9.	-10.719
बलय्	-10.7191
▁गवा	-10.7196
बुद्धिः	-10.7197
▁अन्	-10.7197
▁लोकाः	-10.7197
देवः	-10.7198
▁धि	-10.7199
मानस	-10.72
ानुसारेण	-10.72
▁निर्गुण	-10.7202
▁अले	-10.7204
भया	-10.7208
▁निर्मिता	-10.7208
▁दिशो	-10.721
X	-10.7212
०५	-10.7212
▁साहाय्यं	-10.7212
▁ग्रहण	-10.7212
▁प्राकृतिक	-10.7213
▁शैक्षिक	-10.7213
▁खल	-10.7215
▁समुप	-10.7217
▁प्रपञ्च	-10.7217
56	-10.7217
विंशति	-10.7218
▁संदेश	-10.7224
▁भवितुं	-10.7228
▁कोऽ	-10.7229
विषयक	-10.7229
ैतद	-10.7231
▁स्वजन	-10.7232
▁विश्वरूप	-10.7233
▁दिक्	-10.7234
▁शिखर	-10.7237
▁०२	-10.7238
▁पुरोहित	-10.7238
33	-10.7243
48	-10.7244
▁अलं	-10.7248
ीत्	-10.7251
६७	-10.7253
▁छन्द	-10.7254
पच	-10.7257
▁कंस	-10.726
कर्तु	-10.726
च्छि	-10.726
▁भस्म	-10.7261
लभ्य	-10.7261
▁निर्यात	-10.7261
वर्	-10.7263
ांशु	-10.7264
▁विलोक्य	-10.7264
▁सहस्रशः	-10.7267
▁टे	-10.7268
दुर	-10.7268
▁काष्ठ	-10.727
नन्त	-10.7271
▁देवालय	-10.7273
▁स्पृश	-10.7275
युता	-10.7276
ta	-10.7277
▁गन्तुं	-10.7277
भेदा	-10.7278
▁ज्वल	-10.7278
▁मतं	-10.7281
स्तन	-10.7283
लौ	-10.7284
स्थितिः	-10.7286
▁श्रुतम्	-10.7286
▁जगत	-10.7293
▁रहस्यं	-10.7295
▁सुखदुःख	-10.7298
▁लवण	-10.7301
ैरेव	-10.7301
▁पराजय	-10.7304
▁स्तोत्र	-10.7304
▁दुख	-10.7308
▁प्रबन्ध	-10.7308
भुव	-10.7309
जातं	-10.731
▁दिग्	-10.7311
मानस्य	-10.7313
कै	-10.7316
६८	-10.7317
▁v	-10.7317
निवास	-10.732
▁जीवने	-10.7321
ान्वित	-10.7324
ेनेति	-10.7324
@	-10.7326
सेवित	-10.7327
७५	-10.733
णौ	-10.7331
भूतः	-10.7331
▁de	-10.7338
to	-10.7342
प्रभ	-10.7345
नाः	-10.7347
पुरुषः	-10.7351
▁शोच	-10.7353
▁अक	-10.7355
▁अथातः	-10.7355
हीना	-10.7356
▁प्रजापति	-10.7356
विधे	-10.7356
▁विपक्ष	-10.7357
वर्गः	-10.7358
▁खा	-10.7358
▁रूपाणि	-10.7359
▁समाप्तः	-10.7359
▁विक्रम	-10.7363
▁साक्षाद्	-10.7363
▁भाई	-10.7365
▁योगदानानि	-10.7365
▁सिंहः	-10.7368
▁मर	-10.737
कल्पना	-10.7373
मार	-10.7374
॒व	-10.7375
दपि	-10.7375
ष्यते	-10.7383
▁हृत	-10.7385
ाभावः	-10.7385
▁था	-10.7386
विषयं	-10.7386
▁प्राप्तो	-10.7387
▁The	-10.739
▁तथाच	-10.739
▁दक्षिणां	-10.7391
थ्य	-10.74
सीद	-10.74
▁जल्प	-10.74
इत	-10.7402
ज्ञेय	-10.7404
४१	-10.7406
▁सुतः	-10.7408
ूर	-10.7409
▁प्रह	-10.7413
भ्या	-10.7414
वर्तमान	-10.7414
लेप	-10.7416
▁तथाहि	-10.7417
@2	-10.7421
वासिनः	-10.7422
▁अभूत्	-10.7422
▁कानि	-10.7422
र्ड	-10.7423
पाणि	-10.7428
▁ऊर्ध्वं	-10.743
पीसी	-10.743
चो	-10.7431
▁वक्ष्ये	-10.7433
प्राप्तिः	-10.7435
त्वमिति	-10.7437
ग्रहणेन	-10.7438
▁द्र	-10.7439
▁शुक	-10.7439
तत	-10.7445
▁भूरि	-10.7446
▁उदा	-10.7447
वन्ति	-10.7447
भ्	-10.7448
ान्तरेण	-10.7453
लम्	-10.7453
ʼ	-10.7458
टर	-10.7459
▁पितरं	-10.7459
▁मन्यसे	-10.7461
कल्याण	-10.7465
▁स्पर्धा	-10.7466
▁क्रान्ति	-10.7467
▁सम्पादन	-10.7468
▁श्रु	-10.7472
▁उभ	-10.7473
▁सूत्रं	-10.7476
▁समूहः	-10.7476
▁एकत्र	-10.7477
▁W	-10.748
▁वृषभ	-10.7481
▁५३	-10.7483
ind	-10.7486
दर्शनात्	-10.7487
लाई	-10.7487
तर्क	-10.7488
▁त्रैलोक्य	-10.7496
ज्ञो	-10.7502
चिन्	-10.7503
ऽह	-10.7506
▁पादप	-10.7506
▁शुष्क	-10.751
श्रुति	-10.751
▁जापान	-10.7511
▁कस्मिन्	-10.7512
▁इलय्	-10.7514
▁लिङ्गं	-10.7515
▁उभयोः	-10.7516
स्पन्द	-10.7517
▁इट	-10.7518
पदा	-10.7518
▁धैर्य	-10.7519
▁शास्त्रं	-10.752
▁अपितु	-10.7521
ठा	-10.7522
ैस्	-10.7522
▁}	-10.7524
साहस्र	-10.7526
नित्यं	-10.7528
▁विद्यां	-10.7532
ादी	-10.7532
▁वर्द्ध	-10.7533
वचः	-10.7533
▁भक्षय	-10.7534
▁लाभः	-10.7535
रणे	-10.7536
▁सर्वभूत	-10.7538
▁ब्रह्माण्ड	-10.754
यन्तः	-10.754
हरे	-10.7542
स्वा	-10.7543
मिन्द्र	-10.7544
चः	-10.7544
▁भवत्	-10.7546
ीव	-10.7547
ाद्याः	-10.7548
जप	-10.7548
▁जायमान	-10.755
ादेशो	-10.7551
▁ज्ञानम्	-10.7553
भाषया	-10.7556
पुं	-10.7558
▁रक्षित	-10.756
▁राष्ट्रस्य	-10.7564
▁अकथयत्	-10.7565
▁उक्त्वा	-10.7567
तै	-10.7567
▁हु	-10.7567
▁ढ	-10.7568
▁इम	-10.7568
िकां	-10.7572
▁अनिवार्य	-10.7572
पत्	-10.7573
प्रकृत	-10.7573
▁भासते	-10.7576
तिरिक्त	-10.7579
पास	-10.7579
▁बालः	-10.758
ुत	-10.7583
▁अन्योन्य	-10.7588
विद्व	-10.7592
▁प्रविश	-10.7592
्यमान	-10.7592
वेध	-10.7593
▁भगिनी	-10.7594
६०	-10.7594
हर्ष	-10.7595
ot	-10.7595
▁मातरं	-10.7596
वेदि	-10.7596
▁एकवचन	-10.7597
▁धारण	-10.7599
ासुर	-10.76
नुप	-10.7603
तेः	-10.7605
▁व्रतं	-10.7606
▁किंचिद	-10.7608
▁धन्या	-10.761
ोऽसौ	-10.761
▁तमो	-10.7611
▁परामर्श	-10.7612
अयं	-10.7613
▁सातवां	-10.7613
▁अन्तर्जाल	-10.7614
▁यह	-10.7616
▁पश्यन्	-10.7616
▁ज्ञेया	-10.7618
सहितं	-10.7621
सिद्धान्त	-10.7625
चीन	-10.7626
▁आम्	-10.7629
▁दध	-10.7629
▁क्रय	-10.7629
७७	-10.763
ग्राह	-10.763
िन्या	-10.763
गिर	-10.7635
cd	-10.7638
ातुर	-10.7638
गज	-10.764
▁पराक्रम	-10.764
क्रमः	-10.764
▁चतुः	-10.7645
्येन	-10.7646
▁अच	-10.7647
▁गतिं	-10.7649
▁रिश्ते	-10.765
▁तदीय	-10.7652
▁श्रेयः	-10.7653
▁आन	-10.7653
▁माधव	-10.7654
▁हृ	-10.7654
▁वित्तं	-10.7657
तैल	-10.7666
▁जलम्	-10.7667
▁तूं	-10.7667
▁कलि	-10.7667
प्रतिषेधः	-10.7667
पां	-10.7668
सूचना	-10.7668
▁विभाव	-10.7669
▁वर्षाः	-10.7671
▁राष्ट्रं	-10.7671
ज्जन	-10.7672
ly	-10.7673
▁त्रिधा	-10.7674
▁भविष्यामि	-10.7678
शिर	-10.7678
्ता	-10.7679
▁क्त	-10.7683
▁वैशिष्ट्य	-10.7684
ha	-10.7684
▁तेजः	-10.7685
धातोः	-10.7686
गतिः	-10.769
▁अश	-10.7691
वन्तौ	-10.7692
▁अभय	-10.7696
सङ्घ	-10.7697
▁प्रमाणम्	-10.7697
▁वयसि	-10.7697
▁सहस्त्र	-10.77
ेऽहं	-10.77
▁किमु	-10.7703
रात्रे	-10.7705
३४	-10.7708
99	-10.7709
\	-10.771
▁वहति	-10.7713
स्यते	-10.7713
विषयः	-10.7714
▁६४	-10.7714
▁द्रव्यं	-10.7715
गतौ	-10.7715
वण	-10.7719
▁सखा	-10.7719
▁कृतवन्तः	-10.7719
▁आदेशः	-10.772
▁पूर्ब्ब	-10.7721
च्छा	-10.7722
▁श्रद्धया	-10.7724
▁सॊ	-10.7731
▁क्रियमाण	-10.7732
▁आद	-10.7732
▁अर्ह	-10.7733
तायां	-10.7734
▁पेश	-10.7735
▁वक्त्र	-10.7736
▁वामे	-10.7737
ारण्य	-10.7738
षो	-10.7739
▁त्रिषु	-10.7742
▁आग्नेय	-10.7743
▁याव	-10.7749
▁९०	-10.775
भिधान	-10.7752
▁वक्र	-10.7752
धम	-10.7753
बन्धु	-10.7755
▁कतम	-10.7756
ून्	-10.776
▁बन्धु	-10.776
माहात्म्य	-10.7761
▁(3)	-10.7762
▁टिप्पणी	-10.7762
स्ट्र	-10.7764
वरं	-10.7765
▁वक्ष्यति	-10.7767
▁सच	-10.7767
▁लो	-10.7768
▁भवितव्य	-10.7769
र्भ	-10.7774
▁सुता	-10.7774
▁SP	-10.7775
मीश्वर	-10.7777
▁भूषण	-10.7777
▁कथिता	-10.7777
▁कृष्णः	-10.7779
यतो	-10.778
▁सफलं	-10.7782
▁तृतीयं	-10.7784
वृष	-10.7788
खु	-10.7789
▁सत्यम्	-10.779
ोत्तरं	-10.779
▁इत्येके	-10.7792
▁परिश्रम	-10.7793
▁पुत्राः	-10.7794
मुत्तर	-10.7794
▁प्रकट	-10.7809
80	-10.7812
राणां	-10.7812
देवं	-10.7814
चरेत्	-10.7816
मेद	-10.7819
im	-10.7819
▁समुद्	-10.782
▁मुखे	-10.782
▁प्लव	-10.7821
लम्भ	-10.7821
▁प्रचलति	-10.7823
▁सन्न	-10.7824
▁निपात	-10.7824
▁ज्याझ्वः	-10.7824
▁गृहस्थ	-10.7826
पूजित	-10.7829
▁कर्त	-10.783
शंस	-10.7831
▁आश्रम	-10.7831
▁2015	-10.7832
मार्गः	-10.7834
ज्ञाय	-10.7836
▁जारी	-10.7837
कामः	-10.7839
धिकं	-10.7841
▁सूचित	-10.7842
▁जीवन्मुक्त	-10.7843
ावली	-10.7843
▁36	-10.7845
▁नन्द	-10.7847
प्रभृति	-10.7847
▁भवान	-10.7849
सम्पादक	-10.7851
▁स्वागतं	-10.7851
▁वृक्षाः	-10.7852
▁कर्मणः	-10.7854
धीर	-10.7854
▁एच	-10.7854
▁ध्रुवम्	-10.7855
वत्स	-10.7856
भिधीयते	-10.7857
▁g	-10.7859
ांतर	-10.786
▁दाय	-10.7861
▁निश्चयः	-10.7863
भावन	-10.7864
▁प्रायशः	-10.7866
▁तदानीं	-10.7868
▁स्तोम	-10.7869
▁इत्याख्य	-10.7869
साधनं	-10.787
▁गृहपृष्ठ	-10.7871
▁सन्त	-10.7873
लभ	-10.7874
▁कर्तरि	-10.7874
माश्रित्य	-10.7878
▁दातुं	-10.788
▁विष्णुः	-10.788
त्ते	-10.788
▁अनया	-10.7882
बाहु	-10.7882
▁प्रभाते	-10.7883
ोऽयम	-10.7883
घोष	-10.7883
▁युवां	-10.7884
▁शिल्प	-10.7884
दिव्य	-10.7885
ाध्य	-10.7886
लोभ	-10.7889
रस्ति	-10.789
▁स्निग्ध	-10.789
द्युति	-10.7891
▁पक्षि	-10.7894
▁उदक	-10.7895
▁मन्त्रि	-10.7896
▁वासुदेव	-10.7897
निधि	-10.7897
द्वादश	-10.7901
शक्य	-10.7902
▁विभव	-10.7904
▁कौशल	-10.7906
▁महि	-10.7907
निवेश	-10.791
▁अन्ततः	-10.791
▁नेवाःतय्	-10.7912
सूचक	-10.7916
▁8.	-10.7916
नन्तर	-10.7919
७८	-10.792
▁एवंविध	-10.7921
विस्तर	-10.7922
रतः	-10.7924
▁कदाचिद	-10.7925
▁विधान	-10.7925
▁गोत्र	-10.7925
सरण	-10.7927
▁तस्यापि	-10.7927
दृशा	-10.793
▁केषां	-10.7931
▁डे	-10.7932
▁प्रणाम	-10.7933
भूषण	-10.7934
▁भवेत	-10.7935
श्वा	-10.7936
▁घोष	-10.7944
▁शल्य	-10.7945
▁प्रविशति	-10.7947
ापेक्ष	-10.795
द्वै	-10.795
ण्व	-10.7951
योजना	-10.7952
जिन	-10.7953
्युप	-10.7953
ङ्गल	-10.7955
44	-10.7955
▁वचनम्	-10.7959
▁कथन	-10.7959
▁समावेश	-10.7961
▁शपथ	-10.7962
दृग्	-10.7963
▁गर	-10.7963
विज्ञानं	-10.7963
▁ताम	-10.7963
▁क्षीण	-10.7964
विभक्त	-10.7969
▁विद्य	-10.7973
ोच्च	-10.7974
िध	-10.7975
पुराणे	-10.7975
▁व्याख्यान	-10.7976
▁षष्टि	-10.7977
मुपा	-10.7978
मात्रम्	-10.798
▁दर्शित	-10.7981
▁विभागः	-10.7982
▁चाप्य	-10.7982
लेखा	-10.7982
म्̇	-10.7984
▁भवेद	-10.7984
ोपम	-10.7987
▁व्यव	-10.799
ापेक्षा	-10.7991
स्थितं	-10.7993
कोश	-10.7995
▁प्रधानं	-10.8
चतुष्टय	-10.8002
संग	-10.8002
कृत्वा	-10.8003
61	-10.8003
ोपयोग	-10.8004
▁लुक्	-10.8006
▁चयन	-10.8007
▁स्नात	-10.8008
▁प्रत्यक्षं	-10.8008
्यात्	-10.8011
ान्तिक	-10.8011
▁याम	-10.8013
ान्तर्	-10.8014
▁असुर	-10.8014
66	-10.8015
▁U	-10.8018
▁धाःगु	-10.802
▁इहैव	-10.8021
ामीति	-10.8022
▁कर्मचारी	-10.8023
▁कलह	-10.8024
ेणैव	-10.8024
▁सिद्धा	-10.8029
मण्डलम्	-10.8031
विलास	-10.8032
आदि	-10.8032
▁परम्परा	-10.8034
वृध	-10.8036
▁वितरण	-10.804
▁पूर्णं	-10.804
▁अरण्य	-10.804
कम्प	-10.8041
▁ही	-10.8041
▁विभक्ति	-10.8042
ार्था	-10.8042
▁मधुरं	-10.8043
ावर्त	-10.8044
▁देवानाम	-10.8044
▁दस	-10.8045
▁न्याय्य	-10.8047
▁कस्या	-10.8048
▁com	-10.8049
▁विशुद्ध	-10.8054
▁प्राज्ञ	-10.8055
७०	-10.8055
▁किञ्चन	-10.8064
दुर्ग	-10.8065
▁अर्च	-10.8067
SC	-10.8068
▁जर	-10.8068
शान्ति	-10.8069
▁ताम्	-10.807
▁जनक	-10.8071
▁शानदार	-10.8072
▁मेदि०	-10.8072
ात्मिका	-10.8073
मिष्ट	-10.8074
▁हविः	-10.8077
▁लेखकः	-10.8079
▁कस्मै	-10.8083
▁पठेत्	-10.8086
▁आहुः	-10.8087
▁सोमः	-10.8088
वसान	-10.809
भौ	-10.809
▁उग्र	-10.8091
रसि	-10.8092
▁कृपण	-10.8094
ट्ठ	-10.8094
धृत	-10.8095
▁हतः	-10.8095
▁भगव	-10.8096
-4	-10.8097
वक्ष्य	-10.8099
▁बिल	-10.81
▁प्रेषित	-10.8103
कोप	-10.8105
▁होता	-10.8108
▁भक्ष्य	-10.8111
▁देशकाल	-10.8112
साधक	-10.8113
▁पृथिव्याः	-10.8113
▁खग	-10.8117
दधे	-10.8117
मङ्ग	-10.812
हिंसा	-10.8121
विग्रह	-10.8121
▁तेभ्यः	-10.8123
यौ	-10.8123
▁त्वय	-10.8123
ैते	-10.8125
पत्राणि	-10.8128
चालक	-10.8131
ेत्याह	-10.8134
ितां	-10.8134
▁वाह	-10.8135
▁गुड	-10.8135
देवी	-10.8135
▁मुञ्च	-10.8135
64	-10.8135
▁धार	-10.8136
▁निश्चितम्	-10.8137
▁इदानी	-10.8137
▁दीप्त	-10.8137
▁यदिदं	-10.8138
तत्त्वं	-10.8139
वर्षसहस्राणि	-10.814
90	-10.814
"'	-10.814
कारे	-10.8141
वर्णा	-10.8142
ाष्ट	-10.8143
करा	-10.8144
▁पत्रिका	-10.8145
▁प्रेषय	-10.8148
शब्दात्	-10.8151
▁गतिम्	-10.8151
तयो	-10.8154
▁स्याम	-10.8155
लता	-10.8155
तस्तु	-10.8156
▁प्रतिपादित	-10.8156
िकायां	-10.8156
▁निखिल	-10.8157
▁प्रियतम	-10.816
▁हव	-10.816
▁हिताय	-10.8161
▁यादृश	-10.8163
मतो	-10.8167
मेतद	-10.8168
▁अन्नं	-10.817
ञ्छ	-10.8171
नेव	-10.8171
प्रियः	-10.8173
▁शूद्र	-10.8174
ध्वज	-10.8175
▁मनोरथ	-10.8176
▁रक्षिता	-10.8177
▁प्रवृत्तिः	-10.8177
▁शक्नोमि	-10.8179
▁संयुगे	-10.8184
▁पूजय	-10.8187
सन्ध्य	-10.8188
▁कव	-10.8189
ायन	-10.8189
▁t	-10.8192
one	-10.8197
दिवसे	-10.8197
खि	-10.8197
्ण	-10.8198
▁निधि	-10.82
-3	-10.8201
▁ज्ञेय	-10.8202
▁लभेत्	-10.8202
▁चक्षुषा	-10.8203
▁शङ्कर	-10.8204
▁नगरस्य	-10.8205
न्नि	-10.8205
51	-10.8206
▁सन्देहः	-10.8209
▁j	-10.821
कर्म्म	-10.8211
झा	-10.8211
मनः	-10.8212
▁द्विष	-10.8214
▁हिन्दी	-10.8215
▁मुद्रण	-10.8215
सङ्ख्य	-10.8218
▁ग्रामे	-10.8218
नक्षत्र	-10.8219
न्नं	-10.822
▁ज्ञानेन	-10.8221
▁सञ्चिका	-10.8225
▁सहस्रं	-10.8229
te	-10.8229
ास्त्र	-10.8232
हेतवे	-10.8233
ीश्वरः	-10.8233
भूति	-10.8236
▁वक्ष्यते	-10.8241
श्रय	-10.8243
िष्यत	-10.8243
▁कूट	-10.8243
65	-10.8247
ीन्	-10.8248
४३	-10.8249
▁पीडित	-10.825
कवि	-10.8254
धू	-10.8254
ावृत	-10.8254
वदन्	-10.8257
▁विभाति	-10.8257
०९	-10.826
▁सविता	-10.8261
भिष	-10.8261
▁अपेक्षित	-10.8261
रसः	-10.8267
७१	-10.8269
▁अकार	-10.8273
▁प्रदेशे	-10.8276
▁पूज	-10.8277
▁तस्वीर	-10.8277
बला	-10.8279
म्बु	-10.8281
▁गमन	-10.8281
▁मनुष्यः	-10.8284
▁नेपाली	-10.8287
व॑	-10.8292
▁एकाकी	-10.8293
▁प्राणः	-10.8296
शान	-10.8297
संग्रह	-10.8302
▁पृष्ठाना	-10.8304
▁देवेश	-10.8306
▁9.	-10.8308
▁७४	-10.8309
▁सम्मुख	-10.8309
▁फे	-10.8311
▁निर्मितः	-10.8312
वयं	-10.8313
▁स्वामिन	-10.8314
ब्रवीत्	-10.8315
ोऽहम	-10.8316
▁स्यान्	-10.8317
ीयाः	-10.8317
▁ज्योतिर्	-10.8322
▁अथो	-10.8322
स्तरीय	-10.8323
▁विशेष्य	-10.8324
ैकादश	-10.8324
▁स्प	-10.8327
ऽयं	-10.8327
▁पक्षः	-10.833
▁शेषे	-10.8333
▁अवश्य	-10.8333
▁यथोक्तं	-10.8334
रते	-10.8336
ew	-10.8338
▁कारणात्	-10.8338
ap	-10.8338
ड़ा	-10.8341
▁विराम	-10.8342
▁विद्यन्ते	-10.8345
तीरे	-10.8346
▁वामन	-10.835
▁ऐश्वर्य	-10.835
▁नैष	-10.835
युतः	-10.8352
▁इतो	-10.8352
▁तेरे	-10.8353
6.	-10.8354
▁धर्मेण	-10.8354
▁खर्च	-10.8355
▁पुष्य	-10.8356
▁बिन्दु	-10.8356
▁38	-10.8357
▁सम्पर्क	-10.8358
▁अदृष्ट	-10.8358
्य्	-10.8361
क्रमे	-10.8362
▁रेफ	-10.8364
फे	-10.8364
▁दुग्धं	-10.8365
▁रमणीय	-10.8365
रूपाणि	-10.8367
▁चेह	-10.8369
▁अवसर	-10.8369
जनित	-10.837
▁यत्ते	-10.8371
▁सन्देह	-10.8373
तरण	-10.8373
मासाद्य	-10.8377
देवा	-10.8377
▁दिल	-10.8378
▁व्यस्त	-10.8378
▁प्रकृते	-10.8379
▁वश	-10.8384
▁परां	-10.8384
▁युक्तम्	-10.8387
▁वस्तूनि	-10.8387
वर्यः	-10.8387
लिक	-10.8394
▁मुस्लिम	-10.8394
▁शत्रूणां	-10.8394
▁निवर्त्यताम्	-10.8395
▁वैभव	-10.8398
मानाः	-10.84
▁लक्ष्मी	-10.8402
▁भूमिं	-10.8403
वृष्टि	-10.8405
्याम्	-10.8405
▁साहस	-10.8406
गिरि	-10.8406
वाणी	-10.8406
▁विज्ञाय	-10.8407
ाश्रित	-10.8409
▁मायया	-10.8409
संवत्सर	-10.8411
त्यन्त	-10.8413
▁प्रायेण	-10.8416
▁सिद्धं	-10.8416
्रा	-10.8418
▁घटः	-10.842
शत्रु	-10.8421
र्यथा	-10.8422
▁६२	-10.8428
▁वाक्यार्थ	-10.8429
▁मैत्री	-10.8429
स्न	-10.8431
परिवर्तन	-10.8436
▁दिक्षु	-10.8436
▁आयु	-10.8444
▁चिन्तय	-10.8444
विशेषेण	-10.8446
▁छे	-10.8446
▁प्रेत्य	-10.8446
▁कुले	-10.8446
ेशे	-10.8448
▁ब्रूमः	-10.8449
क्रम्य	-10.8449
ाभ	-10.8451
ाचल	-10.8453
८९	-10.8455
स्मृति	-10.8455
▁स्कूल	-10.8458
47	-10.8458
कीर्ण	-10.8459
ात्मज	-10.8459
ार्थस्य	-10.8461
ानेक	-10.8463
तिष्ठत	-10.8463
अति	-10.8465
▁2014	-10.8466
लग्न	-10.8469
▁अप्य	-10.8469
▁वृक्षः	-10.8469
▁प्रकाशते	-10.847
रहितः	-10.8474
▁भृत्य	-10.8474
ानुवाद	-10.8475
▁हितम्	-10.848
▁प्रतिनिधि	-10.8481
ादीनाम	-10.8483
▁समिति	-10.8485
▁समर्थित	-10.8487
▁पुस्तकानि	-10.849
▁चान्य	-10.849
▁मन्त्री	-10.8491
पर्व	-10.8492
▁नेह	-10.8493
▁दुर्लभम्	-10.8494
लोड	-10.8495
▁परीक्ष	-10.8496
ादन्य	-10.8501
▁पञ्चम	-10.8501
▁उदात्त	-10.8502
त्यत्र	-10.8502
ate	-10.8502
▁यदु	-10.8503
35	-10.8503
▁त्वद	-10.8503
योज्य	-10.8504
▁Online	-10.8504
कर्मणा	-10.8504
द्यु	-10.8505
ांग	-10.8506
▁एकादशी	-10.8507
▁विद्युत्	-10.8507
पङ्क्ति	-10.8508
सर्वे	-10.8508
जुष	-10.851
न्योन्य	-10.8513
39	-10.8515
पुरा	-10.8516
ार्थक	-10.8516
तन्त्रे	-10.8516
▁समासः	-10.8519
▁अनेकानि	-10.852
▁पुस्तकालय	-10.8523
▁इत्यतः	-10.8524
▁चास्य	-10.8525
▁विवरणः	-10.8526
▁तत्तत्	-10.8528
सिद्धये	-10.853
परिहार	-10.8531
▁धान्य	-10.8535
प्रतीति	-10.8536
वार्षिक	-10.8537
मातृ	-10.8538
सत्यं	-10.8538
▁उपकार	-10.8543
विच्छेद	-10.8544
तेषां	-10.8544
▁क्षणात्	-10.8544
द्वन्द्व	-10.8545
तोऽपि	-10.8547
▁पयो	-10.8548
▁पण्य	-10.855
▁नयन	-10.8554
तान	-10.8558
▁रै	-10.8558
शिक्षण	-10.8559
▁यत्नेन	-10.856
▁द्विजाः	-10.856
▁इन	-10.856
▁आरभ्य	-10.856
▁न्ह्या	-10.8563
मांस	-10.8565
▁वर्षं	-10.8565
▁शुद्धं	-10.8566
▁यद्यप्य	-10.8566
मेष	-10.8568
चिकित्सा	-10.857
मूलं	-10.857
६१	-10.857
६३	-10.8571
पूज्य	-10.8571
स्थले	-10.8572
▁अस्मात्	-10.8572
रसा	-10.8578
शौच	-10.8584
न्ता	-10.8585
निरुद्ध	-10.8587
▁मृताः	-10.8588
▁यातु	-10.8589
▁श्रेणी	-10.8589
▁तुला	-10.8589
शक	-10.859
होरात्र	-10.8591
वर्तन	-10.8591
नाम्ना	-10.8592
▁नरके	-10.8598
स्थल	-10.8598
▁महात्मनः	-10.8599
▁बलवान्	-10.86
▁विज्ञात	-10.86
वृत्ते	-10.8601
▁भूमिः	-10.8602
▁अनुकूलन	-10.8607
▁बहुविध	-10.8608
दीय	-10.861
▁आवृत्ति	-10.8612
्द्य	-10.8615
जनं	-10.8616
ऽस्तु	-10.8617
प्रयोगे	-10.8618
▁सम्पद्यते	-10.8618
त्तु	-10.8619
▁ब्रह्मा	-10.862
▁दुर्घटना	-10.862
▁Ans	-10.862
पत्रे	-10.862
▁स्वामि	-10.8622
▁उच्चारण	-10.8622
▁आरोग्य	-10.8623
कृद्	-10.8624
▁भवितुम्	-10.8624
▁भविष्यतीति	-10.8624
सस्य	-10.8625
▁संग्रह	-10.8625
िणि	-10.8625
▁तद्वि	-10.8626
▁दृष्टम्	-10.8626
▁पूर्णतः	-10.8629
▁अध्ययनं	-10.863
शीर्ष	-10.8632
▁स्थानम्	-10.8634
हान	-10.8635
▁सखी	-10.8637
निवृत्ति	-10.8639
▁तत्स	-10.8641
मौ	-10.8643
▁पूत	-10.8643
up	-10.8643
ुत्तम	-10.8643
बो	-10.8649
▁कार्यो	-10.8649
▁शिरो	-10.865
ायुः	-10.865
धीयते	-10.865
▁फलकम्ः	-10.8651
ावा	-10.8653
ागमन	-10.8657
▁प्रयाति	-10.8657
▁प्रसिद्धा	-10.8658
▁अधिकारः	-10.8658
▁सतत	-10.8659
▁यय	-10.8659
तरङ्ग	-10.8659
ेना	-10.8661
▁०१	-10.8663
मुक्तम्	-10.8667
▁गां	-10.8667
येद	-10.8669
▁शब्दे	-10.8671
दुप	-10.8671
विस्तार	-10.8673
▁भ्रष्टाचार	-10.8674
योगात्	-10.8674
ter	-10.8677
▁पीतं	-10.8677
कत्व	-10.8677
तय्	-10.8678
▁प्रसार	-10.8678
▁सुरक्षित	-10.8681
ोक्ता	-10.8682
ित्यर्थः	-10.8683
▁हेतोः	-10.8683
▁८४	-10.8686
▁कालिदास	-10.8688
▁पा०	-10.8689
मोद	-10.869
▁क्ल	-10.869
▁माघ	-10.8691
▁प्यार	-10.8692
स्थिते	-10.8692
▁भगवता	-10.8693
▁जाताः	-10.8694
▁विवक्षित	-10.8695
कल्पन	-10.8698
▁गन्तव्य	-10.8698
▁मनसः	-10.8699
▁स्वय	-10.8705
▁दण्डः	-10.8705
द्यापि	-10.8713
▁रिक्ति	-10.8719
▁यमः	-10.8723
▁प्रद	-10.8727
▁समाहित	-10.8728
▁रुपए	-10.873
यिता	-10.8731
पतित	-10.8733
घ्र	-10.8733
▁पवमान	-10.8733
▁पय	-10.8734
▁निव	-10.8735
▁अहिंसा	-10.8735
निर्देशः	-10.8735
▁जीवे	-10.8735
दंश	-10.8738
▁रजत	-10.8739
▁हस्ति	-10.8741
प्राप्ते	-10.8741
ास्ता	-10.8744
▁छम्ह	-10.8744
▁इदानीम	-10.8744
अह	-10.8744
▁केचिद	-10.8744
एष	-10.8748
६२	-10.8748
▁10.	-10.8748
करे	-10.8749
ग्व	-10.8752
{	-10.8753
▁धर्मस्य	-10.8755
द्वारेण	-10.8755
▁विप	-10.8757
ant	-10.8758
▁तत्प्र	-10.8758
▁प्रशंसा	-10.8759
देय	-10.876
▁परमे	-10.876
▁तनय	-10.8764
ाणा	-10.8766
तारक	-10.8767
▁भे	-10.8768
हूत	-10.877
रिक	-10.877
विदः	-10.8773
दक्ष	-10.8775
▁दुष्कर	-10.8776
▁मद्य	-10.878
मुखः	-10.878
सान	-10.8783
सन्ध	-10.8784
▁घनत्व	-10.8787
▁प्रत्युवाच	-10.8787
▁ग्रामीण	-10.8791
▁सर्वपाप	-10.8791
भ्रष्ट	-10.8791
▁प्रेक्ष	-10.8793
कण	-10.8797
▁ध्रुवं	-10.8798
▁६१	-10.8798
कारकः	-10.8801
८०	-10.8806
समीपे	-10.8807
▁प्रतीति	-10.8807
▁तदनन्तरं	-10.881
▁प्रथित	-10.8811
हृत	-10.8815
▁१९७	-10.8816
चय	-10.8816
ञ्ञ	-10.8817
सारं	-10.8819
वधि	-10.8819
धीत	-10.8822
▁सङ्घ	-10.8825
▁यस्	-10.8825
▁वैष्णव	-10.8826
ितुम	-10.8831
पतेः	-10.8834
▁विरोधः	-10.8834
▁९५	-10.8834
▁यथावत्	-10.8836
ुवाच	-10.8837
▁अपने	-10.8839
▁करुण	-10.8839
▁सांस्कृतिक	-10.884
▁जुहोति	-10.8841
▁डी	-10.8842
▁शोभते	-10.8842
▁सिद्ध्यति	-10.8842
▁विराज	-10.8842
▁इती	-10.8843
▁वर्तमानः	-10.8844
भ्याम्	-10.8844
▁दिवः	-10.8846
▁छन्दसि	-10.8848
▁अन्वय	-10.8848
▁ददामि	-10.8849
▁दूरस्थ	-10.885
▁श्वास	-10.885
ूनां	-10.8852
त्वान्न	-10.8856
▁५८	-10.8858
▁द्यूत	-10.8859
▁ह्यः	-10.8861
▁व्यवस्थितः	-10.8863
▁पुरं	-10.8866
is	-10.8867
▁अल्	-10.8867
▁बै	-10.8869
मतिः	-10.887
द्रोह	-10.8871
▁पद्य	-10.8873
▁ग्रन्थः	-10.8873
▁नृपति	-10.8874
▁वासः	-10.8875
▁नायं	-10.8876
▁स्वात्म	-10.8877
▁योजनानां	-10.8878
▁शैक्षणिक	-10.8881
72	-10.8881
▁प्रतिष्ठित	-10.8883
▁कृश	-10.8887
▁स्तोत्रं	-10.8888
प्रवृत्त	-10.8889
▁शंस	-10.889
▁खड्ग	-10.8891
▁प्रातःकाले	-10.8891
न्तरं	-10.8892
▁बह्व	-10.8893
our	-10.8894
भावित	-10.8894
गमनं	-10.8894
▁सर्वशः	-10.8898
▁Live	-10.8899
ह्व	-10.89
▁अक्षय	-10.8902
▁परमो	-10.8903
▁शक्तः	-10.8905
▁वर्गीकरण	-10.8905
▁प्रभूत	-10.8906
▁पूजन	-10.8909
वेद्य	-10.8909
समाचार	-10.891
वर्ज	-10.8911
मिन	-10.8912
▁लम्ब	-10.8912
▁उकिं	-10.8912
सेवन	-10.8913
दुः	-10.8913
▁यादव	-10.8915
क्षिप	-10.892
▁एताः	-10.892
ाद्वा	-10.8924
▁टीका	-10.8925
▁पतित	-10.8925
34	-10.8931
विदां	-10.8932
पाश	-10.8933
J	-10.8935
▁कस्मान्न	-10.8937
पशु	-10.894
परिच्छेद	-10.8941
ेन्दु	-10.8941
▁किञ्चिद्	-10.8942
▁साधय	-10.8942
०२०	-10.8944
▁वाचक	-10.8947
॒र्	-10.8949
ाढ्य	-10.895
वादे	-10.895
▁क्रतु	-10.895
q	-10.895
▁प्रजापतिः	-10.8951
▁स्त्रियो	-10.8952
▁धी	-10.8954
▁अयि	-10.8955
▁स्कन्द	-10.8956
▁प्रकारः	-10.8956
▁लोकेषु	-10.8957
युक्तम्	-10.8957
▁अपत्य	-10.8958
68	-10.8959
▁शृणोति	-10.896
▁सखे	-10.896
स्पृश	-10.8961
ाकृति	-10.8962
द्वये	-10.8963
राजः	-10.8964
▁अधर्म	-10.8964
▁अवकाश	-10.8964
▁संन्यास	-10.8966
आप	-10.8969
विशेषे	-10.8969
▁पुरुषोत्तम	-10.897
रुह	-10.8971
▁सर्वदेव	-10.8973
▁राजन	-10.8974
▁सुभाषित	-10.8974
▁सोमो	-10.8975
▁मन्त्रेण	-10.8977
▁तस्मिन्न	-10.8977
द्रा	-10.898
▁क्षु	-10.8981
कार्याणि	-10.8982
▁गणेश	-10.8983
▁पृथु	-10.8983
▁सम्बद्ध	-10.8984
गोल	-10.8987
रह	-10.8987
सित	-10.8988
▁मुच्यते	-10.8989
▁श्रेणीः	-10.8989
▁द्रव	-10.8991
मात्रा	-10.8992
तुम	-10.8995
▁सम्भाषणम्	-10.8995
▁जगती	-10.8997
नल	-10.9
▁चक्रे	-10.9
विमान	-10.9
▁धर्मज्ञ	-10.9
▁पतति	-10.9001
▁संधि	-10.9003
र्पित	-10.9008
▁कृप	-10.9008
▁सत्या	-10.9008
निग्रह	-10.9011
▁रामस्य	-10.9014
▁करणं	-10.9015
घण्ट	-10.9015
▁यज्	-10.9016
यसे	-10.9016
▁प्रतिबन्ध	-10.9017
▁वर्षति	-10.9018
▁स्मृत	-10.9018
▁नीत	-10.902
46	-10.9022
दशा	-10.9022
रम्भ	-10.9023
ांस	-10.9024
गच्छत	-10.9024
पौ	-10.9025
वशं	-10.9026
▁ञ	-10.9027
व्रज	-10.9027
ग्रहः	-10.9027
स्यामि	-10.9029
याद	-10.903
▁भूमिका	-10.903
र्ति	-10.9031
तृप्त	-10.9032
दधाति	-10.9032
▁यस्यां	-10.9037
▁कथयन्ति	-10.9038
िंग	-10.9039
परम्	-10.9039
▁प्रकृत्या	-10.904
id	-10.9043
कर्त्ता	-10.9045
नुमान	-10.9047
अस्य	-10.9056
महो	-10.9059
र्षि	-10.9065
रहितं	-10.9065
गामिन	-10.9065
गुणः	-10.9066
▁कदाचिद्	-10.9067
ालङ्कार	-10.9067
▁कू	-10.9067
▁बलात्	-10.907
›	-10.907
and	-10.9073
रुद	-10.9075
▁विनश्यति	-10.9077
स्मित	-10.9077
▁अदृश्य	-10.9078
जम्	-10.908
▁गम्भीर	-10.9082
भवद्	-10.9083
▁क्रमः	-10.9083
ड्ड	-10.9083
▁नित्यम	-10.9085
sh	-10.9086
सन्धि	-10.9086
▁अस्त्र	-10.9086
▁समेत	-10.9087
ामृत	-10.9087
▁भक्ष	-10.9088
▁भवेयुः	-10.9089
रेखा	-10.909
▁शक्त्या	-10.9091
▁७६	-10.9093
ोपचार	-10.9095
▁रह	-10.9096
▁शब्दाः	-10.9097
▁यशो	-10.9097
▁बो	-10.9098
शास्त्रे	-10.9099
ाध्यक्ष	-10.9101
▁जन्मदिन	-10.9101
मृतं	-10.9101
▁कुपित	-10.9102
स्रव	-10.9102
▁बुधैः	-10.9103
धृ	-10.9105
हरं	-10.9107
ित्	-10.9107
ष्टं	-10.9107
▁गोविन्द	-10.9108
▁महद्	-10.9108
▁स्थावर	-10.9108
▁विवरण	-10.911
▁स्क	-10.9111
८५	-10.9112
ानन	-10.9113
पर्ण	-10.9113
द्विष	-10.9115
भोज	-10.9118
▁अपूर्व	-10.9119
▁गृह्य	-10.9121
▁h	-10.9121
▁ऐतिहासिक	-10.9121
नामक	-10.9122
माव	-10.9123
▁निस्	-10.9124
▁७१	-10.9126
▁निर्गत	-10.9127
क्तं	-10.9127
▁त्रिविध	-10.9128
क्ल	-10.9128
▁विदूषकः	-10.9129
▁स्फोट	-10.913
ment	-10.9132
निज	-10.9132
पथे	-10.9138
▁वृत्तं	-10.9141
▁लक्षणा	-10.9141
मता	-10.9142
संघ	-10.9143
▁विंशति	-10.9144
कोष	-10.9145
▁द्विजः	-10.9145
तिशय	-10.9146
▁समुचित	-10.9147
▁विपुल	-10.9147
ीकरणं	-10.9148
प्रकारेण	-10.9149
▁ऊँ	-10.9151
▁विदध	-10.9152
▁मज	-10.9152
देन	-10.9154
पट्ट	-10.9155
ज्वाल	-10.9156
▁दोषाः	-10.9159
ौघ	-10.9161
▁रत	-10.9162
र्नि	-10.9163
क्षेत्रं	-10.9165
ात्पर	-10.9168
िक्	-10.9171
▁सुव्रत	-10.9172
▁व्याप्ति	-10.9173
▁लक्ष्यं	-10.9176
▁शहर	-10.9177
75	-10.9177
६४	-10.9178
श्याम	-10.918
▁कथितः	-10.9182
नाग	-10.9183
▁सुहृद	-10.9183
त्यनेन	-10.9184
प्रक्रिया	-10.9185
॒द	-10.9185
▁सुन	-10.9186
धय	-10.9189
जाता	-10.9189
▁पूर्वपक्ष	-10.9189
हेतवः	-10.9189
ूक	-10.919
▁वचनात्	-10.9191
▁सित	-10.9195
▁६६	-10.9197
▁व्यतिरेक	-10.9197
▁२०१५	-10.9198
ीन्द्र	-10.92
क्षेत्रेषु	-10.9202
▁33	-10.9205
▁नद्यः	-10.9205
ाम्यहं	-10.9207
▁सुखद	-10.9208
▁यद्येवं	-10.9209
rd	-10.921
लज्ज	-10.9212
▁साम्य	-10.9213
▁खण्डः	-10.9215
▁राजस्थान	-10.9216
७४	-10.9218
गुरो	-10.9219
▁शीर्षक	-10.922
हते	-10.9221
दूषित	-10.9222
▁भजते	-10.9222
▁हस्तौ	-10.9222
सन्न	-10.9223
वाची	-10.9226
▁त्व्	-10.9228
▁तापमान	-10.9228
▁रोद	-10.9229
▁द्वारं	-10.9235
▁तन्व	-10.9237
ानेव	-10.9237
स्यात्	-10.9237
▁प्रयात	-10.9239
▁क्षयं	-10.924
▁प्रसव	-10.9241
न्थ	-10.9241
िणा	-10.9241
▁मासस्य	-10.9244
▁तन्मे	-10.9245
स्तम	-10.9246
लिपि	-10.9247
▁मनोरञ्जन	-10.9248
ायाम	-10.9248
▁अध्यापक	-10.9249
▁सम्भाषण	-10.925
▁निवेद्य	-10.9254
भाति	-10.9254
▁समागत	-10.9254
वाह्य	-10.9255
कृष्य	-10.9256
ह्म	-10.9259
कपाल	-10.9261
▁पित्र	-10.9262
▁स्तव	-10.9263
▁केन्द्रीय	-10.9264
▁महद	-10.9265
पदस्य	-10.9269
युते	-10.9271
▁योगः	-10.9271
▁नाति	-10.9273
▁मृत्	-10.9273
कोट	-10.9274
धूम	-10.9274
▁बाधते	-10.9275
▁प्रकृतिं	-10.9275
▁महादेव	-10.9279
▁छेँ	-10.9279
ोऽर्थ	-10.928
वच्च	-10.928
▁लग	-10.9281
मिष	-10.9281
त्वेऽपि	-10.9282
▁अजा	-10.9283
यामः	-10.9283
▁एतां	-10.9284
▁शक्तिं	-10.9284
▁माग	-10.9285
▁६८	-10.9286
▁गहन	-10.9286
▁तद्भव	-10.9288
ाद्वि	-10.9289
▁ग्रहणं	-10.929
▁द्व्य	-10.9292
▁तृप्ति	-10.9292
७६	-10.9293
▁हस्तेन	-10.9293
▁बहुषु	-10.9293
▁निरीक्षण	-10.9298
विना	-10.9301
▁बन	-10.9305
कृतिः	-10.9307
▁निंतिं	-10.9307
ानुग्रह	-10.9307
▁मृ	-10.9308
▁थुगु	-10.9309
▁तीक्ष्ण	-10.9309
▁पठित्वा	-10.9311
▁पुष्पं	-10.9314
दर्शने	-10.9314
संयुक्तं	-10.9315
रूपो	-10.9316
▁वातावरण	-10.9318
भाजन	-10.9319
पूरण	-10.9321
च्छाया	-10.9322
स्येव	-10.9325
▁सन्तोष	-10.9326
▁कीदृशी	-10.9326
▁रम्य	-10.9327
वन्तो	-10.9327
37	-10.9329
ty	-10.9331
विरोधः	-10.9331
▁वेदान्त	-10.9332
युग्म	-10.9334
▁इवा	-10.9334
पुनर्	-10.9335
▁पृ०	-10.9337
जनन	-10.9337
▁कर्मणां	-10.9338
शाख	-10.934
77	-10.9342
हरेत्	-10.9343
▁जाग	-10.9343
विभागे	-10.9346
योगतः	-10.9348
परित्याग	-10.9348
000	-10.935
▁विषाद	-10.9352
तमो	-10.9352
▁दत्ता	-10.9355
भूष	-10.9356
दूषण	-10.9357
▁मानवाः	-10.9358
भक्ष	-10.9359
ाट	-10.9359
व्यापक	-10.9361
पक्षस्य	-10.9363
▁वाद	-10.9365
९०	-10.9365
▁नास्तीति	-10.9366
वन्तं	-10.9367
▁तुलसी	-10.9367
त्यादि	-10.9368
▁भ्रष्ट	-10.9369
वत्सर	-10.9371
▁वर्त्तते	-10.9371
यान्	-10.9371
चिद	-10.9371
मात्मनः	-10.9372
▁गौर	-10.9372
फलम्	-10.9372
▁सूचयति	-10.9373
पाखें	-10.9373
▁ग्रीष्मे	-10.9375
▁बाल्य	-10.9375
▁मानसं	-10.9376
▁देहं	-10.9376
स्वी	-10.9377
▁पदानि	-10.9378
माध्यम	-10.9378
▁अतिशय	-10.9379
द्योत	-10.938
न्वित	-10.9381
माध्यमेन	-10.9385
▁03	-10.9387
ag	-10.9387
▁कर्तृत्व	-10.9392
▁नित्यः	-10.9392
▁एशिया	-10.9392
र्भवेत्	-10.9393
प्रयोजक	-10.9394
मन्द	-10.9396
▁अनन्य	-10.9397
मुद्दिश्य	-10.94
समो	-10.9401
संशय	-10.9401
निलय	-10.9402
स्ट्	-10.9404
▁तल	-10.9404
▁प्रदक्षिण	-10.9405
जज्ञ	-10.9405
सद्भाव	-10.9406
▁निरीक्ष	-10.9407
गन	-10.9408
ाधिकारः	-10.9408
▁आदाय	-10.941
▁तरि	-10.941
प्रसक्त	-10.941
▁ईश्वरस्य	-10.9411
धं	-10.9412
ड्र	-10.9412
▁समारोह	-10.9413
मुवाच	-10.9415
स्त्वां	-10.9421
ित्वं	-10.9424
थापि	-10.9425
▁मयूर	-10.9427
▁(4)	-10.9428
ात्मान	-10.9429
प्राप्य	-10.9432
ापर	-10.9433
बाद	-10.9433
▁सर्वां	-10.9436
▁Xxx	-10.9436
▁असमर्थ	-10.9437
▁कॊ	-10.9439
पाठः	-10.9439
▁तेभ्यो	-10.9439
▁स्युर्	-10.9439
▁इच्छन्ति	-10.9439
▁हानिः	-10.944
ुत्पन्न	-10.9441
परिग्रह	-10.9441
▁स्वे	-10.9442
चराचर	-10.9443
▁8.0	-10.9444
ाशन	-10.9445
▁समिध	-10.9446
▁मदीय	-10.945
▁गगन	-10.945
▁चेतन	-10.9451
▁खे	-10.9452
ार्चन	-10.9455
▁पुंसां	-10.9456
वित	-10.9456
व्रतः	-10.9461
शान्त	-10.9461
ूनि	-10.9462
▁शङ्का	-10.9462
▁वृद्धिं	-10.9463
निबन्धन	-10.9464
ाणं	-10.9465
▁रक्षतु	-10.9467
रुज	-10.9469
लित	-10.9469
विवाह	-10.947
▁पर्	-10.9471
▁पर्जन्य	-10.9472
०१	-10.9473
हेतोः	-10.9478
▁पुल	-10.9478
कर्मणः	-10.9483
ाभ्यन्तरे	-10.9484
▁वयो	-10.9485
▁अग्निर्	-10.9487
ion	-10.9488
▁बन्धन	-10.949
विघ्न	-10.9494
ोपेत	-10.9495
per	-10.9495
ेत्यादिना	-10.9496
ुच्यते	-10.9497
▁गोपाल	-10.9497
na	-10.9497
थाः	-10.9498
ाशा	-10.95
▁यजेत	-10.9501
ॆन	-10.9501
श्वास	-10.9501
देवस्य	-10.9506
▁विफल	-10.9506
जू	-10.9506
ैका	-10.9507
▁गुणैः	-10.9507
ैर्वि	-10.9508
▁एकदेश	-10.9509
▁प्रतिवर्षं	-10.9511
▁विलक्षण	-10.9512
▁मौ	-10.9512
अत	-10.9514
न्तम्	-10.952
▁संसद	-10.952
कामो	-10.9521
▁दीर्घकाल	-10.9522
ैवं	-10.9523
प्लुत	-10.9523
▁सज्जन	-10.9524
थी	-10.9525
ऽभवत्	-10.9528
▁सम्बन्धित	-10.9531
तीय	-10.9534
वाक्ये	-10.9535
▁तदुप	-10.9537
▁वायुर्	-10.9537
▁तादृशं	-10.9537
वदन	-10.9538
मात्मानं	-10.9538
निविष्ट	-10.9538
सचिव	-10.9539
▁प्रसूत	-10.9539
▁उत्तमः	-10.954
▁प्रापय	-10.954
▁ओज	-10.9541
▁कवचं	-10.9543
←	-10.9543
▁विद्वान	-10.9543
▁रू	-10.9544
▁हृष्ट	-10.9544
60	-10.9544
▁परिवर्तनं	-10.9549
▁चुनाव	-10.9549
▁रसोई	-10.955
पदानि	-10.9551
पानं	-10.9551
▁वयः	-10.9552
hi	-10.9552
युध	-10.9553
▁तकं	-10.9553
▁(1	-10.9553
विधिं	-10.9554
▁राजस	-10.9554
मनाः	-10.9554
▁व्याप्य	-10.9555
▁करिष्यसि	-10.9555
त्येवं	-10.9556
▁युधि	-10.9559
विद्यालय	-10.9559
▁कर्तुम	-10.956
▁२०२०	-10.9563
भिहित	-10.9566
्यन्तर	-10.9568
▁विस्मर	-10.9568
▁दशक	-10.9569
▁त्रयो	-10.9577
प्रस्थ	-10.958
ाधिकं	-10.9581
▁परिवर्तित	-10.9584
फला	-10.9584
िष्यसि	-10.9585
▁प्रकृतेः	-10.9585
वतो	-10.9586
▁पृष्ठतः	-10.9586
विह	-10.9586
▁सन्दर्भ	-10.9588
▁शुद्धि	-10.9588
▁नियन्त्रण	-10.959
▁प्रायश्चित्त	-10.9591
▁प्रदीप	-10.9591
नृत	-10.9593
दिग्ध	-10.9595
▁उत्तरे	-10.9596
प्सु	-10.9597
▁विमुक्त	-10.9601
▁उ०	-10.9602
▁उपाधि	-10.9603
▁सम्पत्ति	-10.9604
क्का	-10.9605
▁फा	-10.9607
▁द्विगुणं	-10.9608
▁पितामहः	-10.9609
▁लव	-10.961
▁आज्य	-10.9612
▁आङ्ग्लभाषाया	-10.9612
हीनः	-10.9615
▁तसक	-10.9619
स्थिता	-10.9619
▁चत्वारि	-10.962
▁पठ्यते	-10.962
▁मुक्तः	-10.9622
विरह	-10.9623
▁नमस्ते	-10.9624
▁साकं	-10.9624
▁गतो	-10.9625
▁निधाय	-10.9625
▁पुष्कर	-10.9627
॑र	-10.9627
▁सुखेन	-10.9627
▁इत्यादयः	-10.9627
▁किमिति	-10.9628
न्तर्	-10.963
▁कोष्ठ	-10.963
व्याख्या	-10.963
कार्ये	-10.9631
रसं	-10.9631
वृद्धिः	-10.9632
श्वर	-10.9633
वर्ध	-10.9636
यश्च	-10.9637
▁चाहं	-10.9637
शीत	-10.9638
▁जहि	-10.9641
शङ्क	-10.9641
▁पूज्यते	-10.9642
पतिं	-10.9644
▁सुरा	-10.9645
कर्तुं	-10.9651
▁वय्कःया	-10.9651
▁प्रारम्भ	-10.9651
प्रदाय	-10.9652
▁उच्चतम	-10.9654
▁प्रचलित	-10.9654
प्रीति	-10.9655
▁प्रयास	-10.9655
▁राध	-10.9656
▁चित्ते	-10.9658
रक	-10.966
याँ	-10.9662
माहुः	-10.9663
▁सुप्रभात	-10.9664
णाम	-10.9664
केगु	-10.9665
तीर	-10.9666
ाल्	-10.9668
▁निवेदित	-10.967
▁खोजषब्द	-10.9671
▁आगमन	-10.9672
लेश	-10.9675
रूप्य	-10.9676
▁अविद्या	-10.9682
त्यय	-10.9687
▁प्रत	-10.9688
▁संस्थायाः	-10.9688
▁भाषित	-10.9689
रॊ	-10.9689
हारी	-10.9689
▁दत्तवान्	-10.969
▁समीचीन	-10.9691
▁विल	-10.9694
कर्षण	-10.9695
man	-10.9695
ैक्य	-10.9695
चक्षते	-10.9695
▁प्रयोजक	-10.9695
एन	-10.9696
िकया	-10.9698
कदा	-10.9698
▁स्थाप्य	-10.9698
जनैः	-10.9699
▁अध्याये	-10.97
▁ममापि	-10.9703
▁जीवनस्य	-10.9705
▁जगतां	-10.9708
▁अप्रत्यक्ष	-10.9713
▁अयमेव	-10.9716
ms	-10.9717
▁इत्यस्मिन्	-10.972
▁निर्म	-10.9722
वेदना	-10.9723
ुभय	-10.9724
88	-10.9726
दोषः	-10.9727
७२	-10.9728
लङ्कृत	-10.973
योगो	-10.9731
▁भुङ्क्ते	-10.9733
चिह्न	-10.9735
गुप्त	-10.9736
बै	-10.9743
हरुः	-10.9743
▁नाप	-10.9744
िमा	-10.9745
गत्या	-10.9746
▁तत्तु	-10.9748
▁गुरोः	-10.9749
उद	-10.9753
व्यम्	-10.9756
▁निर्धन	-10.9757
संस्थित	-10.9761
▁अनुवर्तते	-10.9762
ेष्वेव	-10.9763
हुत	-10.9764
▁सर्वेषाम	-10.9768
नगरस्य	-10.9768
▁स्पृष्ट	-10.9773
ाच्	-10.9775
▁लिखति	-10.9776
स्थायि	-10.9778
▁गान	-10.9778
▁८६	-10.9779
०४	-10.9781
▁निष्फल	-10.9783
▁दिवो	-10.9783
मित्यत	-10.9783
यन्न	-10.9784
all	-10.9784
मिष्यते	-10.9784
स्मृत	-10.9785
▁९१	-10.9787
▁पक्षी	-10.9789
▁विमानं	-10.9793
▁जगतो	-10.9793
स्थिर	-10.9795
▁Sentence	-10.9796
दृश्यते	-10.9798
श्छ	-10.9798
▁लब्ध्वा	-10.9799
*}	-10.98
▁दद्या	-10.9801
▁पृष्ठभूमि	-10.9802
दृष्ट्वा	-10.9804
▁कूर्म	-10.9805
कर्त्र	-10.9806
▁ताभ्यां	-10.9807
▁शक्यन्ते	-10.9807
क्थ	-10.9807
av	-10.9808
▁विस्मित	-10.981
co	-10.9812
ne	-10.9812
▁दधि	-10.9813
▁धनेन	-10.9814
लिन	-10.9817
नुग्रह	-10.9818
▁भाष्ये	-10.9819
क्षरं	-10.982
▁पितुर्	-10.982
▁गिरा	-10.982
पेक्षया	-10.9821
ीणां	-10.9822
▁अहमपि	-10.9823
ज्ञाने	-10.9823
▁वृद्धः	-10.9826
om	-10.9826
क्रि	-10.9826
कुर	-10.9827
्यपि	-10.9829
ादे	-10.9829
विरोधि	-10.9829
▁घा	-10.983
▁पण्डित	-10.9831
भेदं	-10.9832
खल	-10.9834
▁प्रत्यये	-10.9834
▁मनुष्या	-10.9834
▁ऐक	-10.9836
मितः	-10.9841
इव	-10.9843
ेषाम	-10.9843
▁वाऽ	-10.9845
▁यदुक्तं	-10.9846
▁चेतना	-10.9846
ितम	-10.9847
▁सर्व्वे	-10.9848
ीत्य	-10.9848
▁जिं	-10.9849
वेति	-10.9849
▁युध्य	-10.985
▁सक्त	-10.9852
▁मनोहर	-10.9854
त्र्य	-10.9855
▁विचारणा	-10.9855
▁ममैव	-10.9856
▁भवन्त	-10.9856
९७	-10.9858
▁जम्मू	-10.9859
▁टेनिस	-10.9859
▁विसर्ग	-10.9859
वाक्	-10.986
▁गौतम	-10.986
८६	-10.9861
ल्यु	-10.9861
▁रुपं	-10.9863
गमे	-10.9864
▁विग्रह	-10.9864
▁निष	-10.9864
यण	-10.9865
दधि	-10.9866
मङ्गल	-10.9866
मन्थ	-10.9869
▁ऊचुः	-10.9869
▁स्वायत्त	-10.9869
▁स्वीकृत्य	-10.987
he	-10.987
▁राज्ञ	-10.9871
▁चिह्न	-10.9871
▁►	-10.9871
▁विधानेन	-10.9874
वर्षा	-10.9875
▁गूढ	-10.9875
▁विविधा	-10.9877
......	-10.9877
सदस्य	-10.9882
लाः	-10.9883
▁निर्मित	-10.9884
▁11.	-10.9884
मित्येव	-10.9884
▁हृद्य	-10.9888
▁इत्यर्थे	-10.9888
▁60	-10.9894
▁बहुवचन	-10.9894
ख्	-10.9896
▁कर्ष	-10.9897
▁स्वेन	-10.9898
लघु	-10.9899
न्ट	-10.9903
धरा	-10.9909
नृप	-10.9912
यस्व	-10.9914
ान्येव	-10.9917
▁प्रसीद	-10.9917
▁करना	-10.9917
▁मते	-10.9918
▁धरा	-10.9918
▁वृत्र	-10.9918
प्रतिष्ठ	-10.992
व्ह	-10.9921
▁हव्य	-10.9924
▁भवते	-10.9924
▁धयागु	-10.9927
▁नासीत्	-10.9927
▁अरुण	-10.9928
▁हजार	-10.9928
pr	-10.9929
▁बलिं	-10.9929
तस्त	-10.993
▁2013	-10.993
▁तदहं	-10.9932
ाण्ड	-10.9935
▁प्रसिद्धम्	-10.9936
िरिति	-10.9937
धत्त	-10.9937
ियो	-10.9938
वृत्त्या	-10.9941
▁समर्पय	-10.9942
▁ज्ञातव्य	-10.9947
जलं	-10.9948
▁वाञ्छ	-10.9949
०२	-10.9949
▁शय्या	-10.9951
सम्पत्	-10.9953
व्रतं	-10.9954
▁अपेक्षा	-10.9955
मिच्छ	-10.9955
नुभव	-10.9956
▁सू०	-10.9958
▁स्त्रिय	-10.9962
गणन	-10.9965
ca	-10.9967
मानम्	-10.997
सकाश	-10.9971
ध्वंस	-10.9973
▁पवित्रं	-10.9974
नील	-10.9976
चतुर्	-10.9976
नुकूल	-10.9978
लङ्कार	-10.998
रुष	-10.9981
दातु	-10.9981
▁अन्ताराष्ट्रिय	-10.9987
लोपे	-10.9989
▁व्याख्यातम्	-10.9989
▁परमाण	-10.9992
▁उपलभ्यते	-10.9993
कमल	-10.9995
▁बजे	-10.9995
▁भद्र	-10.9995
▁vs	-10.9995
यात्र	-10.9996
मर्थं	-11
शक्त्य	-11.0002
न्तौ	-11.0005
कूप	-11.001
संपद	-11.0013
▁पुट	-11.0014
▁महाबल	-11.0016
▁प्रस्थित	-11.0017
▁अस्त	-11.0019
▁विषयाः	-11.0022
▁संस्कृतं	-11.0024
▁०३	-11.0024
▁वाणी	-11.0026
त्तर	-11.0027
▁रूपये	-11.0028
ध्वम्	-11.0031
शम	-11.0031
<	-11.0031
▁ध्या	-11.0031
▁कलश	-11.0033
्वं	-11.0034
विदा	-11.0037
▁आयाति	-11.0037
▁34	-11.0038
७३	-11.0039
॒ह	-11.0042
रता	-11.0044
▁महत्त्व	-11.0047
भट	-11.0047
समेत	-11.0047
▁प्रबल	-11.005
▁निवेदय	-11.005
▁भीष्म	-11.0051
em	-11.0051
विभागः	-11.0053
▁Read	-11.0053
▁देय्	-11.0053
▁दुःखेन	-11.0054
साम्य	-11.0058
मये	-11.0058
भं	-11.0059
▁क्षुधा	-11.0059
▁द्रष्टा	-11.006
▁भर्त	-11.006
▁दयेक	-11.0064
▁असं	-11.0065
▁तैर्	-11.0069
▁पश्यन्तु	-11.0069
र्जित	-11.0069
▁स्वयां	-11.007
▁गृह्ण	-11.0071
ष्क	-11.0074
हाय	-11.0075
ादाव	-11.0077
शास्त्रं	-11.0078
ब्रू	-11.0078
▁तथागत	-11.0078
ाला	-11.0082
▁आदर्श	-11.0085
▁जीवनम्	-11.0085
शैल	-11.0086
करोत्	-11.0087
योगं	-11.009
▁सिंहासन	-11.0091
मनि	-11.0092
वरे	-11.0092
▁ऋग्वेद	-11.0092
if	-11.0094
मधु	-11.0096
विदित	-11.0097
मन्न	-11.0097
▁श्लोकः	-11.0101
▁सिद्धे	-11.0103
▁दैवं	-11.0103
▁हिन्दू	-11.0103
▁बहिर	-11.0104
▁त्रुटि	-11.0106
▁प्राणान्	-11.0106
▁देव्या	-11.0106
▁राति	-11.0107
▁बाला	-11.0109
▁पश्च	-11.0109
▁स्वच्छ	-11.011
▁कुर्याद	-11.0114
साक्षिण	-11.0114
ण्ड्	-11.0114
▁स्पर्ध	-11.0115
गान	-11.0118
विदो	-11.012
५००	-11.0121
ya	-11.0121
लिंग	-11.0121
खण्डे	-11.0121
▁दिनेश	-11.0122
▁विष्णोः	-11.0122
रूपिण	-11.0122
हाँ	-11.0125
ोन्नत	-11.0125
ोपाधि	-11.0127
वाद्य	-11.0129
त्येक	-11.0129
▁पूर्णा	-11.0129
▁संग	-11.0134
▁आईपी	-11.0134
▁04:	-11.0134
ण्या	-11.0135
पुरस्कार	-11.0136
38	-11.0137
रुपेण	-11.0138
▁लीला	-11.014
सुन्दर	-11.0141
▁हन्यते	-11.0142
▁स्वप	-11.0146
िष्	-11.0153
▁PDF	-11.0153
खन	-11.0155
स्पृह	-11.0157
वृत्तौ	-11.0158
▁भिक्षा	-11.016
▁कार्यस्य	-11.0161
टीसी	-11.0162
▁सार्वजनिक	-11.0164
ast	-11.0164
लाप	-11.0165
▁बालानां	-11.0165
▁अब	-11.0165
▁श्रेष्ठं	-11.0166
▁२०६	-11.0166
▁राज्ञो	-11.0168
छात्र	-11.0169
िकम्	-11.0169
शीलः	-11.017
ेहि	-11.017
▁समृद्धि	-11.0171
▁यस्त	-11.0172
▁अमर	-11.0172
पूर्ति	-11.0173
▁साक्षाद	-11.0173
▁तथाविध	-11.0174
▁दे॒व	-11.0175
▁७२	-11.0176
▁विकल्पेन	-11.0177
▁चैत	-11.0178
▁नवदिल्ली	-11.0179
सृत	-11.018
▁समाजे	-11.0181
▁करोड़	-11.0181
▁जीवितम्	-11.0184
छु	-11.0184
८१	-11.0185
भेदाः	-11.0186
द्रुम	-11.0187
शिख	-11.0187
▁शतक	-11.0188
वेन	-11.0189
विख्यात	-11.019
▁पोर्नो	-11.019
▁मुक्ता	-11.019
धर्म्म	-11.0191
▁अगच्छत्	-11.0194
कर्मणो	-11.0195
जगाम	-11.0195
युक्ति	-11.0197
र्पय	-11.0198
पृच्छ	-11.02
मात	-11.0201
यन्ती	-11.0203
▁तासु	-11.0203
ाभिप्राय	-11.0203
▁भाः	-11.0205
▁साक्ष्य	-11.0207
▁आशिष	-11.0207
गोत्र	-11.0208
यत्य	-11.0208
▁सर्वमेव	-11.0208
शयन	-11.0211
्री	-11.0212
हत्य	-11.0215
▁ताम्र	-11.0215
मुक्तः	-11.0216
▁कारय	-11.0218
▁सिन्धु	-11.0221
▁लय	-11.0222
भावि	-11.0222
भूमिः	-11.0222
▁स्यान्न	-11.0222
अस्मभ्यं	-11.0224
▁देशान्तर	-11.0229
▁शृण्व	-11.0231
ध्यक्ष	-11.0232
▁प्रज	-11.0233
पत्रिका	-11.0233
▁समुद	-11.0234
▁आश्रित	-11.0235
▁सर्वासु	-11.0235
ो॑	-11.0237
ाकारं	-11.0238
वगम्यते	-11.0239
स्तप	-11.0242
▁व्यतीत	-11.0244
▁विकिसूक्तिः	-11.0245
▁विनियोगः	-11.0245
▁संस्कृते	-11.0249
क्रीडायां	-11.0249
▁एषु	-11.025
▁छात्राणां	-11.0254
यनं	-11.0256
69	-11.0258
▁तृतीयः	-11.0261
▁मेरु	-11.0263
पुरं	-11.0263
भॊ	-11.0264
ेशः	-11.0267
▁विध्य	-11.0267
शित	-11.0267
भाव्य	-11.0267
नेतुं	-11.0267
▁मान्य	-11.0268
▁नय	-11.0268
▁रोज	-11.0269
पटल	-11.027
भूः	-11.0271
▁वक्ता	-11.0271
▁ब्रह्मणः	-11.0273
व्यवस्थित	-11.0274
▁चिद्	-11.0274
▁विनष्ट	-11.0274
▁अप्	-11.0274
िज	-11.0275
नार्थं	-11.0275
▁इत्यु	-11.0275
कां	-11.0275
स्रोत	-11.0276
▁तस्मान्न	-11.0279
▁आकार	-11.028
▁पतिं	-11.028
कार्यम्	-11.0281
▁ग्रहीत	-11.0283
विश्वविद्यालय	-11.0283
ञ्जन	-11.0285
▁No	-11.0285
▁तद्वद	-11.0285
मण्डप	-11.0287
▁सकला	-11.0287
▁सद्य	-11.0287
▁पृष्ठः	-11.029
▁37	-11.029
▁गर्ने	-11.0292
▁निश्चित्य	-11.0292
मर्याद	-11.0297
न्त्व	-11.0301
▁सुधा	-11.0302
स्तौ	-11.0303
तैव	-11.0303
▁वैश्य	-11.0303
▁जगन्	-11.0304
98	-11.0305
▁प्रतीक	-11.0308
माद	-11.0309
▁आरोप	-11.031
▁(--/)	-11.031
स्त्रिया	-11.0311
प्रे	-11.0311
वदत्	-11.0311
▁भयानक	-11.0312
▁धर्मे	-11.0314
▁संबध्यते	-11.0315
▁प्राणायाम	-11.0315
▁एल	-11.0316
▁एम्	-11.0318
▁०४	-11.0319
▁उच्चैः	-11.032
▁आरक्षक	-11.0321
▁उत्पत्ति	-11.0321
ाचरण	-11.0322
क्लिष्ट	-11.0323
स्त्वा	-11.0324
▁निधन	-11.0324
▁६७	-11.0325
प्रबन्ध	-11.0327
वारण	-11.0327
▁प्राप्ताः	-11.0329
भुक्त	-11.033
तिष्ठन्	-11.0332
▁तेषा	-11.0335
▁शो	-11.0335
सञ्ज्ञा	-11.0335
ive	-11.0336
▁श्रिय	-11.0336
बोधि	-11.0338
ांत	-11.0338
▁पूरयत	-11.0343
▁भानु	-11.0344
▁मनस	-11.0347
▁कीट	-11.0347
पतिर्	-11.0353
भारतस्य	-11.0359
▁पृथिव्य	-11.0362
रद	-11.0363
क्रन्द	-11.0363
ैता	-11.0365
▁वदेत्	-11.0366
श्रेणी	-11.0369
याग	-11.037
▁पूर्वम	-11.0372
▁महत्त्वं	-11.0373
▁भोज्य	-11.0375
भाक्	-11.0375
▁ज्ञानस्य	-11.0376
᳘	-11.0377
▁द्वेष्टि	-11.0379
हिता	-11.0379
▁वासव	-11.0381
कलन	-11.0381
ज्यते	-11.0383
॒म	-11.0384
▁लोप	-11.0385
▁भग्न	-11.0385
▁२००८	-11.0386
ष्टम	-11.0387
▁रिपोर्ट	-11.0388
वर्जितः	-11.039
पठ	-11.0391
▁दुः	-11.0391
▁सप्तमे	-11.0393
भवन्	-11.0394
▁बहुशः	-11.0395
तोष	-11.0396
वर्ती	-11.0396
मभवत्	-11.0397
▁सात	-11.0401
▁समुच्चय	-11.0404
निवृत्त	-11.0404
▁भवद्भिः	-11.0404
▁चलचित्र	-11.0404
▁साम्राज्य	-11.0404
जित्	-11.0405
॑व	-11.0406
प्रिया	-11.0407
▁कल्पते	-11.0408
ोत्पाद	-11.0408
▁आभार	-11.0409
▁शब्दा	-11.0409
▁यूप	-11.0409
▁पक्व	-11.041
कारणात्	-11.041
▁मामेव	-11.0412
▁ख्यातः	-11.0413
▁कृतानि	-11.0413
/1	-11.0415
▁युष्मान्	-11.0416
▁कोपि	-11.0417
▁Nepal	-11.042
▁प्रविष्टः	-11.0421
▁पृथग	-11.0422
स्वर्ग	-11.0425
वादिना	-11.0425
▁वृष्टिः	-11.0425
ोदित	-11.0427
▁कषाय	-11.0429
▁घञ्	-11.043
भट्ट	-11.043
मग्नि	-11.0431
▁रक्षणं	-11.0431
▁पातक	-11.0431
भिप्राय	-11.0432
▁व्यावहारिक	-11.0432
▁विधेयक	-11.0433
▁भौम	-11.0434
▁प्रतिवर्ष	-11.0435
मवाप्नोति	-11.0436
▁मलिन	-11.0437
युज्यते	-11.0437
विध्य	-11.0441
याज	-11.0442
▁भर्ता	-11.0443
▁भ्रातृ	-11.0444
▁मीन	-11.0446
पूर्वकम्	-11.0449
▁"'	-11.0449
▁वायुना	-11.045
प्रत्यये	-11.045
▁लोकस्य	-11.045
▁परी	-11.045
▁शत्रून्	-11.0451
लया	-11.0452
95	-11.0453
42	-11.0454
लोपो	-11.0455
▁तत्फल	-11.0455
वसु	-11.0455
सरः	-11.0455
▁ब्ल	-11.0456
ोद्धार	-11.0457
▁अग्रिम	-11.0457
्यम	-11.0457
दृष्टं	-11.0459
▁आवश्यकम्	-11.046
ान्ता	-11.0462
▁छेद	-11.0463
ारा	-11.0464
ोपकरण	-11.0464
क्श	-11.0467
पर्	-11.0469
ेन्न	-11.0471
▁एतान्	-11.0474
ाच्या	-11.0475
▁1.1	-11.0476
▁त्वाम	-11.0477
सूक्त	-11.0479
पूजन	-11.048
ृत	-11.0481
▁मर्यादा	-11.0482
▁उठ	-11.0482
क्या	-11.0482
त्मक	-11.0483
▁कार्यम	-11.0483
▁सहयोग	-11.0484
शय	-11.0484
भाषित	-11.0484
मान्य	-11.0486
स्थितः	-11.0487
बभूव	-11.0487
नेति	-11.0488
▁जयति	-11.0488
▁भद्रं	-11.0489
ल्ड	-11.0492
▁लेखा	-11.0492
चक्षुष	-11.0493
▁कोण	-11.0494
▁भक्षण	-11.0494
▁ल्याः	-11.0494
तेजस	-11.0499
▁मृतः	-11.05
वज्र	-11.0501
▁सूत्रम्	-11.0502
▁निर्भय	-11.0502
▁एवायं	-11.0504
वादिनः	-11.0505
▁संप्रति	-11.0506
कर्तृ	-11.0507
▁इदमेव	-11.0508
दाने	-11.0508
शेषं	-11.0508
ब्य	-11.0508
▁सम्भवः	-11.0509
पोषण	-11.0509
भ्युप	-11.0511
तर्पण	-11.0511
▁विद्यार्थी	-11.0511
▁सौन्दर्य	-11.0513
िकायाः	-11.0515
दिश्य	-11.0515
माचरेत्	-11.0516
▁क्रियतां	-11.0516
▁विव	-11.0517
▁दिवसः	-11.0518
▁संदेहः	-11.0518
▁परिवर्तते	-11.0522
परत्व	-11.0523
सङ्ग्रह	-11.0525
▁पर्ण	-11.0526
▁भूकम्प	-11.0526
▁भारी	-11.0527
गणे	-11.0527
ात्मकम्	-11.0528
विहार	-11.0528
भवान्	-11.0529
▁औं	-11.053
दह	-11.0531
▁शुच	-11.0531
▁कश्चि	-11.0532
र्यस्य	-11.0532
▁धीमता	-11.0536
▁राजनीतिक	-11.0539
साधु	-11.054
▁प्राणो	-11.054
▁लिपा	-11.0541
परीक्षण	-11.0541
▁लेखक	-11.0542
विधं	-11.0542
▁खादति	-11.0542
▁भुव	-11.0544
वासर	-11.0545
सम्मत	-11.0546
पर्याय	-11.0549
मतं	-11.0549
▁वयस्य	-11.0549
▁शत्रुः	-11.055
युव	-11.0552
६६	-11.0552
▁बाधक	-11.0553
▁सर्वार्थ	-11.0553
▁भवसि	-11.0555
▁or	-11.0555
मधुर	-11.0556
ूद	-11.0557
्यमाना	-11.0557
मिता	-11.056
नीयः	-11.0561
मेघ	-11.0561
▁द्रुत	-11.0562
द्वारं	-11.0563
समन्वितम्	-11.0565
▁वाच्यं	-11.0565
विमुक्त	-11.0566
हर्तु	-11.0567
▁दृष्टो	-11.0569
लुब्ध	-11.0569
कन	-11.0573
▁पूरण	-11.0573
व्यो	-11.0574
▁प्रतिपद	-11.0574
कार्य्य	-11.0574
ोक्तिः	-11.0575
▁शब्दो	-11.0575
रेख	-11.0579
▁श्राद्धं	-11.0579
▁मिलित्वा	-11.058
डो	-11.0583
▁दारुण	-11.0584
वर्णः	-11.0587
▁सार्द्धं	-11.0589
▁तदुक्तं	-11.059
फ्र	-11.0591
▁युद्धाय	-11.0591
▁मृत्युं	-11.0592
▁दर्पण	-11.0592
ाश्	-11.0593
ादिव	-11.0594
पत्न्य	-11.0595
ोऽन्य	-11.0597
▁क्रियाः	-11.0597
गन्	-11.0599
वर्णन	-11.06
ाभिः	-11.06
िन्द्र	-11.0601
▁तिष्ठन्ति	-11.0602
दृष्टे	-11.0602
▁यद्यत्	-11.0604
▁प्रामाण्य	-11.0608
▁क्रीत	-11.0612
बह	-11.0613
▁विवृत	-11.0614
▁न्यायाधीश	-11.0614
▁समाप्ता	-11.0614
भूतो	-11.0614
▁शान्तिः	-11.0615
भाषितम्	-11.0615
▁धम	-11.0616
मिमां	-11.0616
▁पते	-11.0617
मेवेति	-11.062
ीयन्ते	-11.0623
▁==	-11.0625
▁दशरथ	-11.0626
▁एतत	-11.0627
▁साम्प्रतं	-11.0627
▁आकाशे	-11.0628
▁पिबति	-11.0629
▁भूतले	-11.063
पतये	-11.0631
िको	-11.0633
▁कष्टं	-11.0633
▁शिशुः	-11.0634
प्रत्ययो	-11.0634
क्षणे	-11.0635
▁यदी	-11.0636
▁मेने	-11.0636
▁कनिष्ठ	-11.0637
ुव	-11.0638
▁अभावः	-11.0638
ुत्पत्ति	-11.0639
▁किंचिद्	-11.0641
▁चेत	-11.0641
▁हविर्	-11.0641
▁ययुः	-11.0643
▁प्रेरणा	-11.0649
▁न्हू	-11.065
स्माद्	-11.0651
▁गौण	-11.0651
लोकं	-11.0652
▁वाचि	-11.0652
▁सर्वेभ्यः	-11.0653
हृत्	-11.0653
सूत्रे	-11.0654
▁त्रयाणां	-11.0654
▁लता	-11.0654
▁चित्रे	-11.0655
▁परतो	-11.0655
▁प्रविवेश	-11.0657
ावर	-11.0658
▁व्याख्यातः	-11.0659
▁समुद्रे	-11.0659
▁अपवाद	-11.0662
▁कौतुक	-11.0662
▁श्रोतु	-11.0663
▁गात्र	-11.0663
पत्तेः	-11.0665
▁रघु	-11.0667
लेखन	-11.0669
▁गुह्यं	-11.0669
श्रिय	-11.0669
▁संस्	-11.067
▁श्रेष्ठः	-11.0673
तीनां	-11.0673
प्रीत	-11.0675
▁अनुवर्त	-11.0675
क्षीर	-11.0676
▁लभ	-11.0676
▁तेजसा	-11.0678
भाण्ड	-11.0683
▁वेदे	-11.0683
९१	-11.0684
▁संस्कृतिः	-11.0685
ज्ञापयति	-11.0686
▁सम्म	-11.0687
▁सोऽयं	-11.0688
स्तीति	-11.0689
नाशक	-11.0689
▁रक्षण	-11.0692
मिच्छामि	-11.0692
ङ्कार	-11.0694
तीह	-11.0694
▁करा	-11.0695
▁सर्वस्व	-11.0696
ss	-11.0698
▁कृत्स्न	-11.07
वाज	-11.0701
विन्यास	-11.0701
अधि	-11.0701
▁भिद्यते	-11.0704
क्ष्यते	-11.0706
▁वक्ष	-11.0708
९३	-11.0709
कूल	-11.0709
▁आलोक	-11.0709
अब्	-11.0709
स्ताव	-11.071
पत्रम्	-11.0712
▁बीजं	-11.0713
निरास	-11.0714
▁For	-11.0714
चतुर्थ	-11.0716
९९	-11.0716
▁स्थितौ	-11.0719
पीत	-11.072
▁दृश्यं	-11.0721
बालक	-11.0721
८८	-11.0721
▁पुरुषा	-11.0722
▁उपपद्यते	-11.0723
▁मरुतः	-11.0726
▁किमर्थ	-11.0727
ज्ञानम्	-11.0728
▁माला	-11.0729
ice	-11.073
▁विराजते	-11.0731
▁परिहार	-11.0731
युक्ताः	-11.0732
▁स्वाध्याय	-11.0734
▁द्विविध	-11.0735
संसर्ग	-11.0735
निति	-11.0736
▁काव्यं	-11.0737
ङ्गी	-11.074
▁इत्येक	-11.074
▁तथेति	-11.0741
परिषद	-11.0743
कृतो	-11.0745
लन	-11.0746
▁तवया	-11.0749
प्रकरण	-11.0752
▁दिनाङ्क	-11.0753
ers	-11.0754
▁संग्राम	-11.0755
▁सदस्यः	-11.0756
सप्ताह	-11.0757
@1	-11.0758
श्चेत्	-11.0759
ार्जित	-11.0759
▁दयित	-11.0762
७९	-11.0763
▁चतुर्थे	-11.0764
▁रोष	-11.0766
▁संस्कृतस्य	-11.0767
धाव	-11.0767
ादेर	-11.0769
▁भावे	-11.0769
स्मर	-11.0769
▁ज्ञेयः	-11.077
मित्	-11.0771
▁भवामि	-11.0773
तत्व	-11.0773
स्तरे	-11.0774
धुना	-11.0778
▁द्वय	-11.0782
translation	-11.0783
स्थाः	-11.0784
१०२	-11.0784
▁इकाई	-11.0784
मृते	-11.0785
▁व्याध	-11.0787
ष्यन्ति	-11.0787
▁एतस्मात्	-11.0788
▁प्रशस्यते	-11.0788
पित	-11.0789
नेह	-11.0791
▁समासाद्य	-11.0791
▁समे	-11.0792
▁विचारः	-11.0792
▁महति	-11.0792
▁दिशा	-11.0793
va	-11.0794
८२	-11.0797
▁सात्त्विक	-11.08
मनेन	-11.0801
▁my	-11.0804
औ	-11.0804
ाख्यान	-11.0805
रूप्यक	-11.0805
▁निरन्तर	-11.0806
▁sa	-11.0806
▁विद्यात्	-11.0806
▁छा	-11.0807
प्रण	-11.0808
पुत्रो	-11.0808
परिवर्त	-11.081
▁व्यसन	-11.0811
न्स्	-11.0812
हीं	-11.0814
▁भये	-11.0814
▁दृश्यमान	-11.0816
कुम्भ	-11.0821
▁मोदी	-11.0821
▁यस्त्व	-11.0821
▁निराश	-11.0825
▁विभा	-11.0826
▁वास्तविक	-11.0826
▁तेऽपि	-11.0827
▁ग्राह	-11.0827
ध्ययन	-11.0828
▁कथमपि	-11.0829
▁एके	-11.0829
▁यैः	-11.0829
▁आयोजन	-11.0831
ात्त	-11.0831
▁प्रौढ	-11.0832
▁उक्ते	-11.0832
▁विशिष्यते	-11.0836
यन्त्य	-11.0837
विपरीत	-11.0837
खो	-11.0837
▁उद्देश	-11.0837
्याय	-11.0838
ज्ञानस्य	-11.0838
बध	-11.0839
93	-11.0839
बलेन	-11.0841
मायु	-11.0844
67	-11.0849
▁दूरतः	-11.0849
▁तपस	-11.085
mo	-11.085
▁Chapter	-11.0853
▁कैवल्य	-11.0853
▁किलो	-11.0854
▁वाचो	-11.0858
योरपि	-11.086
ज्वल	-11.086
मन्दिरम्	-11.0861
▁रात्रिं	-11.0862
▁वृक्षस्य	-11.0863
▁कोविड्	-11.0864
भ्व	-11.0865
ागतः	-11.0865
di	-11.0866
▁अमेरिकी	-11.0867
ानुष्ठान	-11.0867
ारभ्य	-11.0867
श्रु	-11.0868
ix	-11.0868
ञि	-11.0868
वेक्ष	-11.087
▁आगच्छन्ति	-11.0872
लेख्य	-11.0872
▁चारु	-11.0875
हिते	-11.0876
▁उन्	-11.0877
qu	-11.0878
वृक्षे	-11.0878
संहार	-11.0881
▁असम्भव	-11.0881
▁सद्यो	-11.0881
ोर्ध्व	-11.0882
कर्त	-11.0884
▁कुर्य्यात्	-11.0885
मर्त्य	-11.0885
▁अर्क	-11.0885
▁शिवा	-11.0886
▁जयः	-11.0886
मुखे	-11.0886
▁दुष्कृत	-11.0888
र्थो	-11.0889
ाली	-11.0889
▁सूर	-11.089
दाम	-11.0891
नाव	-11.0892
▁कर्त्तव्यं	-11.0893
▁निष्क	-11.0893
▁दृष्टिः	-11.0894
ाशयः	-11.0897
रुच	-11.0898
▁प्रसङ्ग	-11.0899
▁संस्थित	-11.0899
▁मख	-11.09
स्तुति	-11.09
क्रय	-11.0902
▁विहितः	-11.0903
▁चतुर्विध	-11.0904
▁कृतो	-11.0905
स्थापित	-11.0907
तप्त	-11.0908
राह	-11.0909
ालयं	-11.0909
कार्यक्रम	-11.0911
▁पार्	-11.0913
▁नियमेन	-11.0914
▁लः	-11.0915
दस्य	-11.0916
▁डो	-11.0916
▁रुग्ण	-11.0918
ाष्टक	-11.0921
ाभरण	-11.0923
निपात	-11.0923
प्रतीकार	-11.0926
मास्थाय	-11.0928
▁करणीयः	-11.0928
ैषां	-11.0928
▁किंतु	-11.0928
विपर्यय	-11.0929
ढ़	-11.0931
क्ता	-11.0931
▁परलोक	-11.0931
63	-11.0932
लस	-11.0934
▁संकेत	-11.0937
▁सर्वेषाम्	-11.0937
▁संस्करणः	-11.0937
व्यथ	-11.0938
▁ग्रहः	-11.0939
▁ऐं	-11.0939
घु	-11.0939
ध्वा	-11.0946
▁शुचिः	-11.0949
हितः	-11.095
ाकाङ्क्ष	-11.0951
गान्	-11.0955
चेतसः	-11.0955
संरक्षण	-11.0955
मुच	-11.0956
▁दिनम्	-11.0956
▁भवतीत्य	-11.0958
▁सूचितम्	-11.0959
▁राजनैतिक	-11.096
▁कनक	-11.0961
▁पश्यामः	-11.0962
मूढ	-11.0964
▁सुभग	-11.0966
न्तरिक्ष	-11.0968
कॉ	-11.0968
कल्क	-11.0968
्वी	-11.0968
ाभवत्	-11.0969
लिप्त	-11.0969
▁चक्षु	-11.0972
▁परमां	-11.0972
▁क्षणेन	-11.0972
▁शयनं	-11.0973
▁ग्रहणम्	-11.0973
दृश्यत	-11.0974
िथ	-11.0976
शतक	-11.0977
समीप	-11.0977
भेदात्	-11.0978
कारिण	-11.0978
▁दय	-11.098
वादन	-11.0981
वर्धत	-11.0982
साधित	-11.0984
वनी	-11.0986
▁क्लीब	-11.0987
जग	-11.0989
धुर	-11.0989
देवानां	-11.099
▁सव्य	-11.0991
समवेत	-11.0993
▁तृ	-11.0996
▁वर्	-11.0996
▁पारं	-11.0998
समुद्भव	-11.0999
▁नाशय	-11.0999
रै	-11.0999
▁प्रवृद्ध	-11.0999
▁यमुना	-11.1001
स्कर	-11.1002
धान्य	-11.1002
बृ	-11.1006
▁त्र्य	-11.1006
किरण	-11.1007
▁सेट्	-11.1007
▁दृष्टे	-11.1007
▁यहां	-11.1007
ेदिति	-11.1007
▁कृतज्ञ	-11.1009
संचार	-11.1011
घृत	-11.1011
तन्त्रं	-11.1012
विधानम्	-11.1013
ैल	-11.1018
▁ऋणं	-11.1019
सते	-11.1022
▁दिनं	-11.1022
▁तादृशः	-11.1023
▁जहा	-11.1023
वयस्क	-11.1023
▁शौर्य	-11.1024
▁प्रदर्शय	-11.1024
हरति	-11.1024
वाप	-11.1024
▁कुलं	-11.1024
▁वराह	-11.1026
ादाय	-11.1027
तॄ	-11.1029
ष्ठा	-11.103
▁तत्राह	-11.103
▁प्रकाशः	-11.1034
▁विधिवत्	-11.1034
ST	-11.1035
दायक	-11.1038
▁अत्रैव	-11.104
▁शब्देन	-11.1041
de	-11.1042
▁तत्तद्	-11.1042
वाचि	-11.1044
९८	-11.1047
▁शक्ता	-11.1048
सम्पन्न	-11.1048
दत	-11.1048
▁तत्पुरुष	-11.105
र्षभ	-11.1051
▁वीक्ष	-11.1052
con	-11.1053
▁सर्वेऽपि	-11.1055
ारः	-11.1058
ीना	-11.106
▁रक्तं	-11.106
AP	-11.106
▁तैलं	-11.1062
सन्ति	-11.1063
▁ताड	-11.1063
▁मुम्बई	-11.1064
▁कर्मण्य	-11.1065
▁विश्वामित्र	-11.1066
▁भूगोल	-11.1066
▁पार्वती	-11.1066
दाः	-11.1068
दैवत	-11.1068
नानि	-11.1069
ावन	-11.107
▁कुशलं	-11.1071
शक्त्या	-11.1072
यितव्य	-11.1073
▁परिणामः	-11.1074
▁निरन्तरं	-11.1076
▁39	-11.1076
▁मत्त	-11.1077
्रे	-11.1077
▁----	-11.1078
▁निकट	-11.1078
सम्पुट	-11.1081
कश	-11.1082
▁मिलित	-11.1083
धेन	-11.1084
▁प्रययौ	-11.1085
वृतः	-11.1085
रूपस्य	-11.1085
त्म	-11.1086
मेय	-11.1087
▁जेतुं	-11.1087
व्याप्त	-11.1088
विभक्ति	-11.1089
वेत्	-11.1089
ज्ञानेन	-11.1089
▁क्षमता	-11.1091
▁स्कन्ध	-11.1091
गताः	-11.1094
▁चतुर्थं	-11.1098
चेष्टित	-11.1102
▁निष्पन्न	-11.1102
गोप	-11.1103
मत्य	-11.1104
शिखर	-11.1106
᳚	-11.111
षय	-11.111
घाट	-11.1111
संमत	-11.1112
ापह	-11.1112
लौकिक	-11.1112
रन	-11.1115
ल्लोक	-11.1116
प्रभावेण	-11.1117
ाभिमान	-11.1117
▁शासनं	-11.1121
लकार	-11.1121
ायत्त	-11.1122
प्रथ	-11.1122
हेतुत्व	-11.1126
णक	-11.1126
ड़ी	-11.1129
▁बुद्ध्या	-11.113
ीनाम्	-11.1132
वरा	-11.1134
ान्ध	-11.1134
▁मल्ल	-11.1135
▁अमेरिकाया	-11.1138
▁एशियाई	-11.1138
दिशि	-11.1139
▁कथयिष्यामि	-11.114
झे	-11.114
▁घटक	-11.1141
▁चमत्कार	-11.1147
ादिभ्यः	-11.1147
वदिति	-11.1148
जीवनं	-11.1148
▁लिए	-11.1149
▁अनन्तर	-11.1149
▁चाल	-11.1151
०१०	-11.1151
▁पु॰	-11.1152
▁गद	-11.1152
▁भृगु	-11.1154
▁माल	-11.1155
▁प्रतिबिम्ब	-11.1156
....	-11.1156
▁पीत्वा	-11.1156
▁निवेश्य	-11.1158
जस	-11.1159
शिक्ष	-11.1159
बाधित	-11.116
ित्र	-11.1162
▁नख	-11.1162
▁नियुक्त	-11.1162
प्रशस्तिः	-11.1162
▁कृतवती	-11.1164
▁प्रभृति	-11.1166
▁सादर	-11.1167
ुनि	-11.1168
धिकृत	-11.1171
▁कोष	-11.1171
घो	-11.1171
परायण	-11.1173
त्रं	-11.1175
▁वर्धमान	-11.1175
▁05:	-11.1178
दीन	-11.1178
टर्	-11.118
भृश	-11.1181
स्नान	-11.1182
रन्त	-11.1185
त्रिंशत्	-11.1186
गणित	-11.1186
▁अत्	-11.1186
▁दायित्व	-11.1187
▁संग्रामे	-11.1189
व्यवसाय	-11.1192
▁जनो	-11.1192
▁कामान्	-11.1196
पण्डित	-11.1197
▁चर्च	-11.1199
अमेरिक	-11.12
विचक्षण	-11.1201
▁वेदा	-11.1204
न्तम	-11.1207
▁~	-11.1207
▁निशम्य	-11.1208
▁नितरां	-11.1208
▁ब्रवीमि	-11.1208
▁फ़	-11.1208
▁परिसन्धयः	-11.1209
10.	-11.121
▁जनैः	-11.1211
▁ब्रा	-11.1212
▁क्षत्रिय	-11.1212
▁क्षिति	-11.1212
▁नारीणां	-11.1212
ेकादश	-11.1213
यत्न	-11.1214
▁यज्ञस्य	-11.1215
▁ददातु	-11.1216
स्थापक	-11.1218
▁कृत्व	-11.1218
▁अपर्याप्त	-11.1218
▁सदन	-11.1221
▁तदिदं	-11.1223
▁अधिका	-11.1223
▁कार्यकारण	-11.1224
▁तुरीय	-11.1226
क्रे	-11.1226
▁प्रातर्	-11.1227
मनीष	-11.1228
गेह	-11.1228
हता	-11.1228
तन्	-11.1228
व्याकरण	-11.1232
ग्रीव	-11.1232
▁स्वेद	-11.1233
अग्ने	-11.1234
▁सर्वो	-11.1236
▁स्थानानि	-11.1237
प्रमाणं	-11.124
हारः	-11.1242
▁ज्ञेयम्	-11.1243
▁प्रविष्टा	-11.1244
▁रोच	-11.1246
ङ्क्	-11.1247
▁यूयम्	-11.1247
निधान	-11.1248
▁दुने	-11.125
स्थापनं	-11.125
▁बन्द	-11.1255
अर	-11.1255
ाभ्या	-11.1255
प्रतिपत्ति	-11.1256
समाप्त	-11.1256
▁राहु	-11.1258
ावसरे	-11.1259
ार्थाय	-11.1261
▁विलम्ब	-11.1262
नाभ	-11.1264
कथनं	-11.1265
▁चौर	-11.1265
श्रुत्य	-11.1266
▁सै	-11.1267
▁तत्त	-11.1269
प्रतिष्ठा	-11.1271
प्रकरणम्	-11.1271
शत्	-11.1273
▁खं	-11.1274
सङ्कल्प	-11.1274
▁भगवतो	-11.1275
धातुः	-11.1278
▁कामये	-11.1279
▁७९	-11.1282
▁स०	-11.1283
ect	-11.1283
▁निपात्यते	-11.1284
▁कुण्ड	-11.1286
आत्म	-11.1288
▁पाताल	-11.1288
▁प्रागेव	-11.1288
विनिर्मुक्त	-11.129
▁अपरे	-11.129
▁देवेषु	-11.1293
▁All	-11.1294
▁सर्वासां	-11.1295
▁रुचिः	-11.1295
▁बाध्यते	-11.1296
▁निति	-11.1297
▁निर्मल	-11.1298
▁संक्रमण	-11.1298
ैर्वा	-11.1299
▁प्रणत	-11.1299
▁दक्षिणं	-11.1304
▁अनुदात्त	-11.1305
▁वर्तमानकाल	-11.1306
पेक्षित	-11.1307
▁घोरं	-11.1307
ीकरोति	-11.1309
▁तुल्यं	-11.1309
देशेषु	-11.1312
▁इहापि	-11.1315
ास्माकं	-11.1316
युर	-11.1316
वसित	-11.1317
वपुष	-11.1322
देक	-11.1323
भान	-11.1323
▁प्रतीक्ष	-11.1323
वचनेन	-11.1323
▁पृष्टः	-11.1325
हरणं	-11.1326
▁तयोर	-11.1326
▁अर्थं	-11.1327
श्राव	-11.1327
कुर्वत	-11.1328
71	-11.1334
ाधिपः	-11.1337
कर्मा	-11.1338
▁वाञ्छित	-11.1339
मादि	-11.1339
▁मृद	-11.1339
पद्धतिः	-11.134
▁बर्	-11.1341
▁नापं	-11.1341
देशिक	-11.1341
कुट	-11.1342
द्रि	-11.1343
▁गुरू	-11.1345
▁(*	-11.1345
न्यत्र	-11.1346
▁कुमारी	-11.1346
घटित	-11.1347
▁जाया	-11.1347
▁व्यभिचार	-11.1347
राज्ञ	-11.1348
▁रीति	-11.1348
ाज्य	-11.1353
प्रस्ताव	-11.1355
▁कारागार	-11.1355
▁पराभव	-11.1356
▁प्रतिषिध्यते	-11.1356
तारं	-11.1356
▁करोषि	-11.1356
▁व्याख्यात	-11.1357
▁लभन्ते	-11.1358
▁करिष्य	-11.136
श्चित्त	-11.136
ऽसि	-11.136
▁जीवः	-11.1362
▁प्रारब्ध	-11.1362
▁यहाँ	-11.1362
▁मातुल	-11.1363
त्रिंश	-11.1363
▁सक्रिय	-11.1363
▁सम्पद	-11.1364
नीत	-11.1365
भिमत	-11.1365
▁मैं	-11.1365
▁प्रतिशतं	-11.1366
भग	-11.1366
निसें	-11.1367
अहो	-11.137
▁चतुर्थः	-11.1371
▁रुधिर	-11.1372
वसति	-11.1372
गात्र	-11.1372
८४	-11.1372
▁येषु	-11.1374
▁तप्त	-11.1374
▁पुरुषार्थ	-11.1374
सदा	-11.138
ततो	-11.1382
▁विकासः	-11.1382
▁स्वधर्म	-11.1382
मुखा	-11.1383
▁वृक्षे	-11.1384
▁दव	-11.1385
▁सम्पाद्यताम्	-11.1386
९४	-11.1386
▁गतं	-11.1386
▁पावक	-11.1386
गीता	-11.1387
ोत्पन्न	-11.1388
▁गुह	-11.1388
र्ब	-11.1388
▁मुक्तिः	-11.1388
जिता	-11.1389
▁अवस्थित	-11.139
वियोग	-11.1396
ष्टे	-11.1396
पूर्त	-11.1402
▁शेते	-11.1403
स्तस्या	-11.1404
तटे	-11.1407
ाख्यात	-11.1409
निन्दित	-11.141
▁इत्युप	-11.141
ापराध	-11.1411
▁तापस	-11.1411
▁pdf	-11.1412
धाम	-11.1412
▁अशक्त	-11.1412
क्षयः	-11.1416
▁साधुः	-11.1417
ीयान्	-11.1418
त्रिक	-11.1419
भक्ता	-11.142
ायतन	-11.142
अग्नि	-11.1421
▁सवित	-11.1422
▁सवर्ण	-11.1422
ुक्तं	-11.1423
स्सर्व	-11.1423
ies	-11.1423
स्वास्थ्य	-11.1426
माप्नुयात्	-11.1427
▁निम्नलिखित	-11.1427
▁इत्यस्माद्	-11.143
▁धनुष	-11.143
▁योजय	-11.143
▁संघर्ष	-11.1431
ल्हा	-11.1432
व्यसन	-11.1433
▁and	-11.1433
▁द्यु	-11.1434
ाह्वय	-11.1434
अद्य	-11.1435
▁नरेन्द्र	-11.1436
ाची	-11.1438
▁हैं	-11.1438
▁कपिल	-11.1438
▁कामना	-11.144
▁इत्यर्थ	-11.144
▁तस्यै	-11.1442
सूत	-11.1442
संकल्प	-11.1443
--'	-11.1444
वकाश	-11.1445
पीडितः	-11.1445
रिष	-11.1445
कर्मक	-11.1446
▁भारतम्	-11.1447
▁सामान्यं	-11.1447
ge	-11.1448
▁मार्गेण	-11.1449
▁विदित्वा	-11.145
▁इनि	-11.1452
▁त्वेव	-11.1452
वर्षं	-11.1454
▁विधानं	-11.1454
बले	-11.1454
वतु	-11.1455
▁कल्प्यते	-11.1455
▁e	-11.1456
धर्मः	-11.1457
माःगु	-11.1457
निरत	-11.1458
▁अतिशयेन	-11.146
ैकदेश	-11.146
▁भावय	-11.1463
क्रो	-11.1463
▁सर्वमिदं	-11.1465
43	-11.1465
ध्रुव	-11.1466
▁12.	-11.147
▁अशक्य	-11.1471
स्तन्	-11.1471
▁सुदृढ	-11.1472
निबद्ध	-11.1472
▁तद्धि	-11.1476
▁मूर्खः	-11.1477
ग्रा	-11.1478
com	-11.1478
▁तावन्	-11.1479
ांशः	-11.148
ितव्यम्	-11.1483
मित्यादि	-11.1483
▁मय्य	-11.1483
▁तामस	-11.1484
▁निर्विकल्प	-11.1484
▁द्रष्टु	-11.1486
▁पित	-11.1487
ज्ञापय	-11.1487
▁महतः	-11.1488
▁मध्याह्ने	-11.149
▁क्रिय	-11.149
प्यते	-11.1491
▁अट	-11.1492
ुदाहरण	-11.1494
▁महात्मा	-11.1494
धरो	-11.1496
ऱ	-11.1497
ान्तरम्	-11.1497
▁अस्	-11.1498
ोऽव	-11.1498
▁पीडय	-11.1499
ज्ञाना	-11.1499
▁सेवक	-11.15
विभ्रम	-11.1501
▁sent	-11.1501
दृढ	-11.1502
ादेर्	-11.1502
▁यूयम	-11.1502
रक्षित	-11.1503
▁लिप्यते	-11.1503
▁धृत्वा	-11.1504
▁सरस्वती	-11.1504
79	-11.1504
ोपादान	-11.1505
प्रदा	-11.1506
पूजितः	-11.1506
▁दुर्जन	-11.1507
▁द्रष्टुम्	-11.1508
जितः	-11.1508
▁७३	-11.151
▁स्वां	-11.151
▁प्रक्रम	-11.1511
▁अचि	-11.1512
▁धन्यं	-11.1512
▁दासी	-11.1512
संहर	-11.1513
▁६३	-11.1514
विन	-11.1514
▁प्रेरित	-11.1516
▁विश्वासः	-11.1519
भिप्रेत	-11.1519
▁नगरी	-11.152
▁वर्तमाने	-11.152
मूर्त	-11.1521
वचनात्	-11.1522
ामो	-11.1524
▁जनयति	-11.1525
▁अभिगमन	-11.1526
रभ	-11.1526
▁करिष्यते	-11.1526
विक्रय	-11.1528
॑ण	-11.1529
▁पितरः	-11.1529
▁वन्यजीव	-11.1531
द्भव	-11.1532
बिन्दु	-11.1533
ाक्षि	-11.1535
▁निपुण	-11.1536
▁शिक्षकः	-11.1537
▁यस्मा	-11.1537
हर्ता	-11.1538
▁पुंसः	-11.1538
▁ऋषिः	-11.1539
गतिं	-11.1539
कुले	-11.154
▁संप्राप्त	-11.1541
च्छन्द	-11.1543
▁o	-11.1545
▁निश्चल	-11.1546
▁एन्	-11.1547
वधे	-11.155
▁रमते	-11.155
74	-11.1551
▁माध्यम	-11.1551
थवा	-11.1553
मानसः	-11.1553
िण्या	-11.1554
ग्निर्	-11.1556
निधिः	-11.1558
ब्ज	-11.1559
▁To	-11.1559
▁उदार	-11.156
▁शरीरम्	-11.1562
त्तं	-11.1563
घट्ट	-11.1567
sp	-11.1567
▁शाश्वतं	-11.1568
▁केतु	-11.1569
विवरण	-11.157
क्षो	-11.1571
▁प्रयोगे	-11.1571
प्रेम	-11.1572
▁इत्याद्य	-11.1574
▁८८	-11.1574
▁गरुड	-11.1576
▁मेदिनी	-11.1576
मुत्तम	-11.1577
▁सिद्धः	-11.1577
▁डॉ	-11.1578
▁तेष्व	-11.1578
ेतत्	-11.1579
माल्य	-11.1581
36	-11.1581
इम	-11.1581
▁नौका	-11.1582
भावस्य	-11.1583
माणः	-11.1585
पेक्ष्य	-11.1585
दर्शनम्	-11.1585
▁२०१३	-11.1586
प्रतिपादन	-11.1586
प्रत्ययेन	-11.1586
▁उत्तमं	-11.1587
स्मिन्न	-11.1588
ेष्य	-11.1588
भाषासु	-11.1589
स्थितौ	-11.1589
इक	-11.159
दृत	-11.159
▁पृथ	-11.1594
os	-11.1598
गन्तव्य	-11.1599
▁देवीं	-11.1601
▁भेषज	-11.1601
द्वारि	-11.1602
▁यथाह	-11.1602
▁सु॒	-11.1603
▁परेषां	-11.1604
र्व्व	-11.1604
ेणापि	-11.1604
▁आगच्छ	-11.1605
ैश	-11.1605
▁पक्षिण	-11.1605
▁शौच	-11.1605
क्री	-11.1606
▁ब्रूयात्	-11.1608
▁औप	-11.161
स्थानानि	-11.1611
कृष	-11.1611
▁न्यू	-11.1613
धर्ष	-11.1615
▁अनुवादः	-11.1616
लोचना	-11.1617
▁यक्व	-11.1618
▁सर्वान	-11.1622
▁बुद्धिर्	-11.1622
परायणः	-11.1623
घा	-11.1623
▁शोभा	-11.1624
▁नराः	-11.1625
▁कश्मीर	-11.1626
▁वाद्य	-11.1628
क़	-11.1629
▁धू	-11.163
ुत्थित	-11.1631
साध	-11.1631
प्रभव	-11.1631
जिह्व	-11.1634
न्यायेन	-11.1635
▁आयुध	-11.1635
समवाय	-11.1635
९२	-11.1636
टिक	-11.1636
▁व्यवहारः	-11.1636
यिक	-11.1637
▁अपां	-11.1637
परिभाषा	-11.1638
▁राज्ञां	-11.1638
▁द्वित्व	-11.164
▁तदभाव	-11.1642
-20	-11.1642
ऽधिक	-11.165
▁दरॊण	-11.1651
▁उत्थाय	-11.1652
श्लिष्ट	-11.1652
▁ग्रहाः	-11.1652
स्थितम्	-11.1652
▁गुणवत्ता	-11.1653
▁प्रकल्पयेत्	-11.1655
हेतौ	-11.1656
त्येष	-11.1657
▁अभिभाषण	-11.1657
▁आयात	-11.1658
पक्षः	-11.1658
सन्त	-11.1659
भ्रंश	-11.1659
▁गीतं	-11.166
▁चेष्टा	-11.166
सन्धिः	-11.1661
▁कदाचिदपि	-11.1661
▁पुरस्कारः	-11.1661
सर्वकार	-11.1662
▁कहीं	-11.1662
▁कालस्य	-11.1663
जौ	-11.1663
हङ्कार	-11.1663
व्यास	-11.1664
▁प्रशान्त	-11.1665
प्रदर्शन	-11.1666
ख्याति	-11.1666
▁गाथा	-11.1667
•	-11.1667
▁अपश्य	-11.1669
▁कृतवान	-11.167
▁तदेत	-11.167
ीत्यर्थः	-11.1672
▁तन्नि	-11.1673
विभेद	-11.1675
▁साहाय्य	-11.1676
89	-11.1681
त्युप	-11.1684
निष्प	-11.1685
लिं	-11.169
ीकर्तुं	-11.1692
87	-11.1693
▁उत्त	-11.1694
85	-11.1697
▁प्रभा	-11.1697
मूष	-11.1697
▁स्थानः	-11.1697
ातिरिक्त	-11.1698
एँ	-11.1699
लक्षणः	-11.1704
tr	-11.1705
प्रज्ञ	-11.1705
▁८७	-11.1706
शास्त्राणि	-11.1706
मनसा	-11.1707
पीडन	-11.1708
▁आदर	-11.1708
तॄणां	-11.1708
▁सुखम	-11.1709
श्चित्	-11.1711
भार्य	-11.1711
विक्रम	-11.1712
▁भरतः	-11.1712
विवाद	-11.1714
ीषु	-11.1714
▁नच	-11.1714
ीकृतः	-11.1714
मिच्छति	-11.1715
जुष्ट	-11.1715
▁अध्यक्षः	-11.1717
▁भवा	-11.1717
▁नान्यथा	-11.1719
▁खःसा	-11.1719
यानं	-11.1723
▁मर्	-11.1724
णिज	-11.1724
▁मित	-11.1724
▁आनय	-11.1725
▁दिना	-11.1725
▁नौकरियां	-11.1726
▁वक्ष्यमाण	-11.1727
▁उन्नति	-11.1727
▁शुभकामना	-11.1727
्तुं	-11.1728
नष्ट	-11.1728
▁क्षणिक	-11.1729
दव	-11.1729
▁रसः	-11.1729
▁अनुमति	-11.173
ाधिकरणम्	-11.173
दति	-11.173
चालित	-11.1731
▁2012	-11.1731
▁पूजनं	-11.1731
▁गतम्	-11.1733
▁म०	-11.1733
सहिता	-11.1734
प्रतीत	-11.1735
▁चैत्र	-11.1735
धेय	-11.1735
ऽभ्य	-11.1736
ादीनाम्	-11.1736
▁मुनयः	-11.1737
▁क्वचिद्	-11.1737
▁हता	-11.1737
मध्या	-11.1738
▁पश	-11.1738
▁कपाल	-11.174
शिष्ट	-11.1741
▁श्रोतव्य	-11.1743
▁स॒	-11.1744
न्यस्त	-11.1744
तुल	-11.1744
▁अभियान	-11.1744
▁वेगेन	-11.1745
▁भुवः	-11.1746
▁सेवन	-11.1746
▁कयाः	-11.1748
सञ्ज्ञ	-11.1748
▁पूर्वपद	-11.1748
ऽनेन	-11.1749
स्त्रा	-11.1749
सर्जन	-11.1751
▁शिखा	-11.1751
▁अभयं	-11.1753
▁वन्द	-11.1753
▁योध	-11.1755
▁परिशिष्ट	-11.1758
मार्ज	-11.176
कुर्वन्	-11.1762
▁तत्त्वज्ञान	-11.1763
्रि	-11.1764
▁प्रयुक्तः	-11.1766
▁२००	-11.1767
▁सोऽहं	-11.1767
▁महोदयः	-11.1767
गणः	-11.1769
▁सवन	-11.1769
दर्थ	-11.1769
विषयत्व	-11.1771
▁वणिज	-11.1773
शव	-11.1773
वृक्षः	-11.1775
▁क्षति	-11.1775
शब्दार्थ	-11.1776
व्याख्यान	-11.1777
सर्वं	-11.1777
लिखेत्	-11.1778
मूर्ध	-11.178
▁पाकिस्थान	-11.1784
▁उपयोगं	-11.1785
82	-11.1785
शेषतः	-11.1787
▁चतुर्थी	-11.1789
▁तनू	-11.1789
▁अझ	-11.179
▁बहून्	-11.179
▁गया	-11.179
▁याइ	-11.1791
ानन्तर	-11.1791
▁सामान्येन	-11.1792
▁राजान	-11.1793
▁दिव्या	-11.1794
▁द्वैत	-11.1795
विधिना	-11.1795
▁कल्पय	-11.1795
ूह	-11.1796
▁वन्य	-11.1797
तय्त	-11.1799
मिदम्	-11.1802
¦	-11.1803
डब्ल्यू	-11.1803
▁महाबाहो	-11.1803
▁ब्व	-11.1803
▁८९	-11.1803
▁ago	-11.1803
युद्धे	-11.1804
▁गाव	-11.1804
पूत	-11.1805
सामग्री	-11.1805
▁नास	-11.1806
▁शरणागत	-11.1808
▁स्वेच्छया	-11.1811
▁प्रभावित	-11.1812
▁आज्ञा	-11.1813
▁एकता	-11.1815
▁यत्त	-11.1815
▁अवधि	-11.1815
▁तच्	-11.1816
▁हताः	-11.1816
कृषि	-11.1816
दया	-11.1816
स्वतन्त्र	-11.1817
▁आत्मन	-11.1818
ट्र	-11.1819
▁42	-11.182
▁पुरे	-11.1821
▁निजं	-11.1822
स्फुर	-11.1824
▁समुत्पन्न	-11.1824
▁सर्वोत्तम	-11.1825
▁पूर्णे	-11.1826
मापन्न	-11.1827
स्वपि	-11.1829
निराकरण	-11.1829
▁धूप	-11.1832
द्रुत	-11.1832
बीजं	-11.1834
▁वैराग्य	-11.1839
वृत्तान्त	-11.184
शुद्धि	-11.184
कोविद	-11.1842
मुखी	-11.1843
▁भाषाः	-11.1843
▁पूरय	-11.1844
▁बाह	-11.1844
▁अब्रवीत्	-11.1845
ेऽथ	-11.1846
▁यॊग	-11.1846
बर्	-11.1849
▁मोद	-11.1852
गृ	-11.1853
ास्तथा	-11.1855
▁दुर्लभः	-11.1855
▁तेना	-11.1856
स्पृश्य	-11.1856
ऽति	-11.1858
▁आरब्ध	-11.1859
दिते	-11.186
▁Y	-11.1862
घोर	-11.1864
▁शश	-11.1866
वरुण	-11.1867
वर्य	-11.1868
▁विवरणं	-11.187
ee	-11.187
थाय्	-11.1871
यितु	-11.1872
▁लक्षित	-11.1872
त्रये	-11.1872
▁वसन्ति	-11.1874
बहि	-11.1874
▁परत्र	-11.1875
▁भवत्याः	-11.1876
▁श्रावय	-11.1877
स्ल	-11.1877
वतीं	-11.1878
▁यायेत	-11.1879
खर	-11.188
▁उत्पद्यते	-11.1881
▁गुणानां	-11.1881
▁years	-11.1881
पार्श्व	-11.1882
▁संप्रसारण	-11.1883
▁गुणान्	-11.1887
▁करिष्यन्ति	-11.1889
▁महाविद्यालय	-11.1889
▁अप्राप्त	-11.1891
रीश्वर	-11.1892
▁कश्च	-11.1892
▁वाक्यानि	-11.1892
▁पुत्रान्	-11.1893
▁गल	-11.1895
बिभ	-11.1896
▁तृष्णा	-11.1897
▁रूपे	-11.1897
▁प्रकृत्य	-11.1898
▁तथाऽ	-11.1901
चर्या	-11.1901
मन्तरेण	-11.1902
▁रक्षो	-11.1902
▁मंगल	-11.1902
▁जर्मन	-11.1904
▁त्रिरात्र	-11.1905
▁विचिन्त्य	-11.1905
णेन	-11.1908
▁प्रकृष्ट	-11.1908
▁दक्षिणेन	-11.1911
हृ	-11.1913
▁वाजिन	-11.1914
ोऽयम्	-11.1916
ब्राह्म	-11.1917
▁02:	-11.1918
76	-11.1918
▁पुनर्जन्म	-11.1919
▁भूम	-11.1919
▁निधनं	-11.1919
▁तवम	-11.192
चक्षु	-11.1921
▁संगीत	-11.1921
▁जगाद	-11.1922
78	-11.1923
युर्	-11.1927
खंड	-11.1927
▁टैगः	-11.1929
▁याम्य	-11.193
pl	-11.193
तन्मात्र	-11.1933
▁महात्मना	-11.1936
भ्रा	-11.1937
▁विश्राम	-11.1937
ाज्ञया	-11.1938
▁द्वितीयो	-11.194
▁चक्षुर्	-11.194
▁दुःखित	-11.1941
▁वाक्यम्	-11.1943
तृष्ण	-11.1944
▁सर्वज्ञः	-11.1944
ho	-11.1944
▁ग्राम्य	-11.1947
मुखेन	-11.1948
▁लाघव	-11.1949
दर्शित	-11.195
AT	-11.195
्ह	-11.195
▁शान्तिं	-11.1951
हन्ति	-11.1952
ry	-11.1954
▁प्रसिद्धं	-11.1954
ेच्च	-11.1955
▁वीज	-11.1955
ance	-11.1956
▁प्रसज्येत	-11.1957
▁अवशिष्ट	-11.1957
▁पशून्	-11.1957
▁इत्यमरः	-11.1957
▁दृष्टिकोण	-11.1958
▁स्पेनिश	-11.1958
ोऽभि	-11.1958
▁बरह्म	-11.196
▁घटते	-11.196
mp	-11.1961
▁जानकी	-11.1961
स्थापय	-11.1962
▁वस्तुतस्तु	-11.1963
▁सम्बध्यते	-11.1966
▁अक्	-11.1969
घातः	-11.197
दुःखं	-11.197
▁दोह	-11.1973
▁लक्षयति	-11.1973
▁सर्वाधिक	-11.1974
संपत्ति	-11.1974
ारं	-11.1976
▁कथाः	-11.1977
ाहुति	-11.1979
▁जीवा	-11.198
▁दुरित	-11.198
ेषण	-11.1982
▁सदस	-11.1984
ूप	-11.1985
▁भाव्य	-11.1986
▁राष्ट्रपतिः	-11.1986
▁सन्तान	-11.1987
▁ह्रद	-11.1988
▁स्वरित	-11.1992
▁चलन	-11.1994
▁संयोगः	-11.1995
▁जलाशय	-11.1996
▁उत्तरपद	-11.1996
नन्य	-11.1996
तमवर्षस्य	-11.1997
शालिन	-11.2002
स्फुट	-11.2005
▁स्वीकार	-11.2005
प्रोक्षण	-11.2005
पाद्य	-11.2006
▁एकवचनम्	-11.2006
सृष्टि	-11.2007
वस्थ	-11.2009
▁महत	-11.201
▁प्रसन्ना	-11.201
▁धावति	-11.2011
▁६९	-11.2013
▁कियत्	-11.2014
92	-11.2015
▁भारतीयाः	-11.2016
▁कमपि	-11.2017
62	-11.2018
▁नपुंसक	-11.2021
कौशल	-11.2022
▁सिद्धिः	-11.2023
मील	-11.2024
▁शकट	-11.2026
धरः	-11.2029
▁तोयं	-11.2029
अतः	-11.2029
ोऽहम्	-11.203
माद्य	-11.2031
▁मता	-11.2033
बाधा	-11.2034
▁चिकित्सक	-11.2034
▁घु	-11.2034
मुत	-11.2034
▁श्मशान	-11.2035
▁धुआं	-11.2035
ान्या	-11.2036
▁अव्ययम्	-11.2036
▁यज्ञो	-11.2036
▁पुरस्कृत्य	-11.2037
ानुगत	-11.2037
▁पापानि	-11.2038
▁सम्भावना	-11.2039
▁महेश्वर	-11.2039
▁करोतीति	-11.204
▁आगतवान्	-11.2045
▁अस्म	-11.2045
व्यः	-11.2045
ानीति	-11.2047
वासिन	-11.2047
86	-11.2047
वृत्तिर्	-11.2048
▁शून्यं	-11.205
▁आवयोः	-11.2051
कर्त्तरि	-11.2052
▁यजु	-11.2053
ow	-11.2054
▁मृषा	-11.2054
प्रसङ्गात्	-11.2054
▁पशुः	-11.2055
▁संपाद	-11.2056
श्रित	-11.2057
▁किशोर	-11.2057
▁वाप्य	-11.2059
त्राण	-11.2059
सङ्कट	-11.2059
▁रतः	-11.206
pe	-11.206
▁2)	-11.2061
रिह	-11.2061
ve	-11.2061
▁लिङ्	-11.2063
▁वरम्	-11.2065
▁रामो	-11.2065
▁विशद	-11.2067
▁तच्छ	-11.2071
न्मा	-11.2073
बिल	-11.2073
▁पितॄन्	-11.2073
▁नाह	-11.2075
53	-11.2075
▁मिथुन	-11.2076
माणा	-11.2076
षः	-11.2076
कृतौ	-11.2077
लस्य	-11.2078
गणाः	-11.2079
ोऽति	-11.2079
▁01	-11.208
▁प्रतिभास	-11.208
▁पोषण	-11.2081
त्ये	-11.2081
र्तु	-11.2084
▁व्यति	-11.2086
मेता	-11.2087
▁चित्वा	-11.2087
▁विषं	-11.2088
▁दशलक्ष	-11.2088
▁Al	-11.2089
भगव	-11.2089
▁द्यः	-11.209
▁व्यञ्जन	-11.209
मिदम	-11.2093
श्या	-11.2093
नियमः	-11.2094
▁विभज्य	-11.2096
युगे	-11.2097
वृति	-11.2097
▁प्रयोगो	-11.2099
स्वरुप	-11.2099
▁उत्सवः	-11.21
विप्लव	-11.21
▁चलति	-11.2103
▁समीक्ष्य	-11.2103
▁महिष	-11.2104
वन्ध	-11.2105
विवेश	-11.2106
सिद्धेः	-11.2106
द्यां	-11.2107
दोषेण	-11.2109
किल	-11.2109
▁ऋषयः	-11.2111
▁दुःखम्	-11.2112
▁पशूनां	-11.2114
▁आन्तरिक	-11.2114
▁आत्मनेपद	-11.2114
घर	-11.2114
▁शब्दं	-11.2116
▁आह्वान	-11.2116
त्यो	-11.2119
पीड्य	-11.212
॑ति	-11.2122
सम्बन्धेन	-11.2122
▁प्रयत्नं	-11.2122
▁९७	-11.2123
end	-11.2123
िला	-11.2124
▁द्विविधं	-11.2124
▁परोपकार	-11.2125
द्वे	-11.2127
ाधिक्य	-11.2127
▁प्रेरय	-11.2129
चिन्न	-11.2129
▁इच्छसि	-11.2129
▁प्रकरणम्	-11.213
कता	-11.2131
सक्त	-11.2132
द्भ	-11.2134
▁पत्न्या	-11.2136
चेष्ट	-11.2139
दिष्टं	-11.2143
शास	-11.2144
ताव	-11.2145
▁सूचनाः	-11.2145
ावतार	-11.2145
▁वःगु	-11.2149
८७	-11.2149
विभाषा	-11.2149
▁अपेक्षया	-11.2149
▁सेव्य	-11.2151
वासरे	-11.2152
ावश्यक	-11.2152
दासः	-11.2153
▁अध्यात्म	-11.2155
कुर्व	-11.2155
▁८१	-11.2156
पर्यंत	-11.2158
मुष्टि	-11.2158
वारि	-11.2159
प्रत्ययस्य	-11.2162
▁वाचः	-11.2162
॒ऽ	-11.2162
▁औरत	-11.2162
यान्तु	-11.2163
▁वदत	-11.2164
दष्ट	-11.2166
▁आस्ते	-11.2167
रात्रं	-11.2168
श्राद्ध	-11.217
ोवाच	-11.2172
विधानसभा	-11.2174
▁अर्थस्य	-11.2177
ैरिति	-11.2178
▁सामान्यतया	-11.2178
ाग्ने	-11.2179
मारुह्य	-11.218
ध्वस्त	-11.2181
▁त्वदीय	-11.2182
▁विवाहः	-11.2183
▁हन	-11.2183
▁सहैव	-11.2185
▁रुचिर	-11.2185
कीर्तन	-11.2186
▁लकार	-11.2188
▁स्वागतम्	-11.2189
▁प्रत्ययस्य	-11.2192
माश्रित	-11.2192
ुक्तम्	-11.2192
▁शतानि	-11.2193
▁दुर्योधन	-11.2193
▁बोधिसत्त्व	-11.2193
वस्तूनां	-11.2193
कारिणी	-11.2193
चरन्ति	-11.2194
▁रौद्र	-11.2195
▁गन्तव्यं	-11.2195
मेल	-11.2196
पातः	-11.2198
ाश्चर्य	-11.2198
▁नेतृत्व	-11.22
▁ठक्	-11.2202
73	-11.2204
साधने	-11.2205
▁अधीत	-11.2205
स्वरूपा	-11.2206
व॒	-11.2207
वृत्य	-11.2208
ts	-11.2212
पाच	-11.2212
▁उद्दिश्य	-11.2212
▁क्रोधः	-11.2213
व्यूह	-11.2213
▁कलाः	-11.2214
▁ःथ	-11.2217
पन्	-11.2217
▁मज्ज	-11.2219
९५	-11.222
▁विनिमय	-11.222
▁ग्रहाणां	-11.2221
▁शीघ्रमेव	-11.2221
▁ऊह	-11.2221
▁मिलियन	-11.2221
▁मन्दिरं	-11.2222
नद्य	-11.2222
ानो	-11.2225
सन्निधौ	-11.2225
▁पुत्रेण	-11.2225
▁चेष्ट	-11.2234
▁उपास	-11.2235
▁स्थापयेत्	-11.2235
▁कामयते	-11.2236
स्थि	-11.2238
▁यदपि	-11.2239
▁वक्ति	-11.2239
्यैव	-11.224
ङ्ख	-11.224
▁यदेव	-11.2243
रूढ	-11.2243
ृष	-11.2247
जानामि	-11.2248
१०३	-11.2248
▁कुसुम	-11.2249
▁मध्यं	-11.225
जगत्	-11.2254
न्नाम	-11.2255
ाञ्जलि	-11.2255
▁वन्दे	-11.2255
दीनां	-11.2255
▁कोड	-11.2256
चिदपि	-11.2258
वर्च	-11.2258
▁पचति	-11.2259
दर्शनेन	-11.2261
ग्निः	-11.2263
▁तन्मय	-11.2264
कारकम्	-11.2264
▁लुप्त	-11.2265
▁लघ	-11.2266
/2	-11.2266
▁समव	-11.227
फलानि	-11.2273
▁उदर	-11.2274
▁िन	-11.2274
▁क्रीडति	-11.2275
▁धीमहि	-11.2275
▁शक्	-11.2276
▁संप्रवक्ष्यामि	-11.2276
▁विप्रा	-11.2278
▁वर्त्तमान	-11.2279
दानम्	-11.228
मितं	-11.228
▁प्राप्नोत्	-11.2281
▁सायंकाले	-11.2281
▁मुद्रित	-11.2282
रप	-11.2282
▁इत्येते	-11.2283
▁जलस्य	-11.2283
▁अनुसन्धान	-11.2284
▁अमी	-11.2285
▁रामायण	-11.2287
▁विदुष	-11.2288
कास	-11.2288
▁स्वदेश	-11.2288
▁आगामि	-11.229
▁प्रविशन्ति	-11.2291
▁गुरुवार	-11.2292
▁तैर	-11.2293
▁विरह	-11.2293
▁जये	-11.2294
▁निश्चितं	-11.2295
▁अवकाशः	-11.2295
▁कुष्ठ	-11.2296
▁प्रपद्यते	-11.2296
शिला	-11.2297
▁पुत्रक	-11.2298
▁वेध	-11.2298
▁अस्मा	-11.2301
महर्षि	-11.2301
▁अकुर्वन्	-11.2302
वोचत्	-11.2302
▁उद्भव	-11.2303
▁मृता	-11.2304
▁कश	-11.2304
▁अन्तरिक्षे	-11.2304
▁असत्	-11.2305
▁ऋते	-11.2305
▁घृतं	-11.2307
▁De	-11.2307
्रियते	-11.2309
▁गन	-11.2309
देवताः	-11.231
षष्ठ	-11.2311
▁सुष्ठु	-11.2312
मृश	-11.2312
हत्या	-11.2313
▁इमानि	-11.2314
सम्बद्धाः	-11.2315
वर्षीय	-11.2315
▁दर्शनीय	-11.2317
क्तु	-11.2319
▁सुमह	-11.232
संश्रय	-11.232
▁समीपं	-11.232
▁स्थिरा	-11.2321
णाय	-11.2323
इन	-11.2324
▁वक्तु	-11.2325
▁थन	-11.2325
रेषा	-11.2326
उत	-11.2327
▁जानु	-11.2327
विज्ञेय	-11.2328
र्य्या	-11.233
▁विदुर	-11.2331
दग्ध	-11.2332
▁1)	-11.2333
▁उल्लेख	-11.2333
▁आवश्यकः	-11.2333
▁गी	-11.2334
▁निर्धारण	-11.2335
▁विजान	-11.2335
▁व्यक्तं	-11.2336
धीन	-11.2336
▁सम्भवतः	-11.2338
सर्व्व	-11.2338
स्पष्ट	-11.2341
महोदयः	-11.2343
निन्दा	-11.2344
इपिं	-11.2347
▁विद्यालयः	-11.2347
देवि	-11.2347
{*	-11.2351
▁वाव	-11.2352
वधान	-11.2352
मही	-11.2353
▁हितकाम्यया	-11.2354
▁निरर्थक	-11.2354
प्रदूषण	-11.2354
येवं	-11.2356
वर्द्ध	-11.2358
97	-11.2359
ग्ग	-11.236
पटु	-11.2361
॑ष	-11.2362
▁केवलम	-11.2363
▁नियतं	-11.2363
▁२०१६	-11.2364
▁ज्यो	-11.2364
▁बाल्ये	-11.2364
▁पूर्वोत्तर	-11.2365
दधा	-11.2367
▁२०१४	-11.2367
लक्ष्मी	-11.2368
सहस्रं	-11.2368
▁श्येन	-11.2368
वर्जन	-11.237
नीते	-11.2371
ख़	-11.2371
ङ्गुल	-11.2372
▁विजयः	-11.2373
त्तम	-11.2375
▁धत्ते	-11.2377
ीकृता	-11.2377
क्स्	-11.2378
दक्षिणा	-11.2379
धव	-11.238
▁बाधित	-11.2381
जनः	-11.2381
ज्ज्ञान	-11.2382
▁मातृभाषा	-11.2383
▁हन्तुं	-11.2384
ul	-11.2384
▁हतं	-11.2384
96	-11.2385
▁सुषुप्त	-11.2387
पेय	-11.2387
▁ज्ञातं	-11.239
स्वामिन	-11.2391
ti	-11.2392
▁निबोध	-11.2393
ान्नि	-11.2395
▁पराप्त	-11.2395
▁त्वर	-11.2397
▁एतयोः	-11.2397
ाद्यं	-11.2397
▁जैन	-11.2398
ear	-11.2398
वरः	-11.2401
▁पाथ	-11.2403
▁आयोजित	-11.2404
रश्म	-11.2405
▁कृच्छ्र	-11.2406
योजय	-11.2407
▁रोगी	-11.2407
ज्ञप्त	-11.2408
▁लभ्य	-11.241
पयति	-11.241
पृष्ट	-11.241
▁कान्ति	-11.2411
▁चाप	-11.2412
▁परस्परम	-11.2413
गर्त	-11.2414
▁निभा	-11.2414
▁समि	-11.2418
वक्तव्य	-11.2419
▁देवैः	-11.2419
तिष्ठति	-11.242
▁संभवः	-11.2421
येव	-11.2421
▁अस्मत्	-11.2423
▁गिरः	-11.2425
▁रथः	-11.2426
▁तमहं	-11.2427
दत्तं	-11.2427
▁कतमः	-11.2428
न्मह	-11.2429
बान्धव	-11.2429
प्रेरण	-11.2429
लॊक	-11.2429
परामर्श	-11.243
कष्ट	-11.243
▁समर	-11.243
कूगु	-11.2431
▁पाण्डु	-11.2432
युद्धं	-11.2433
सूची	-11.2434
▁सभी	-11.2434
तंत्र	-11.2434
▁भूर्भुवः	-11.2435
▁इस्लाम	-11.2435
▁याहि	-11.2436
क्रियायां	-11.2437
पत्त	-11.2438
op	-11.244
▁इन्द्रो	-11.244
िष्यामः	-11.244
काष्ठ	-11.2441
▁प्रकर्षेण	-11.2441
कक्ष	-11.2442
▁नीत्वा	-11.2444
र्जा	-11.2445
▁गावो	-11.2445
▁प्रकोष्ठ	-11.2445
IV	-11.2446
▁दुर्लभा	-11.2447
▁दिवाकर	-11.2448
टल	-11.2448
▁प्रताप	-11.2449
▁अध्यापकः	-11.245
क्षिपेत्	-11.245
नुदात्त	-11.2453
▁पुत्रे	-11.2453
▁चन्दन	-11.2456
▁समाजस्य	-11.2458
▁क्रियां	-11.2458
ोत्साह	-11.246
राष्ट्रिय	-11.2461
विभागेन	-11.2462
▁अकृत	-11.2463
प्रमत्त	-11.2463
संघात	-11.2464
▁परिचयः	-11.2464
▁दर्शितं	-11.2465
वर्त्तते	-11.2467
▁विश्वतः	-11.2467
▁रक्षां	-11.2468
धत्ते	-11.2469
▁चैतन्य	-11.2469
विशारद	-11.2471
▁उक्ता	-11.2471
ासक्त	-11.2472
▁ज्ञापक	-11.2473
र्ल	-11.2473
ेतिहास	-11.2474
प्रचार	-11.2478
▁वाले	-11.2478
▁दर्शितम्	-11.2479
धुंकाः	-11.2481
▁दर्प	-11.2482
▁कीर्तय	-11.2482
:00	-11.2486
▁वध्य	-11.2486
ेक्षण	-11.2487
प्रदेशस्य	-11.2489
शुचि	-11.249
कर्माणि	-11.2491
▁शिश	-11.2493
▁44	-11.2496
▁ख्या	-11.2496
मार्जन	-11.2496
▁जनान्	-11.2497
नाभि	-11.2498
गुणैः	-11.2498
दारु	-11.2499
ादा	-11.2499
मधिकृत्य	-11.25
ल्क	-11.2501
नुवाद	-11.2507
मुच्य	-11.2507
नगरम्	-11.2509
▁वाग	-11.2509
ङ्गं	-11.2511
काया	-11.2513
क्रोश	-11.2513
▁कार्यविधि	-11.2515
योश्च	-11.2516
▁परिदृश्य	-11.2517
▁आवाहयामि	-11.2517
▁वरानने	-11.2517
▁बिचाः	-11.2517
▁हृद	-11.2519
▁जानकारी	-11.2519
▁कुत्रचित्	-11.2521
▁नवीनतम	-11.2521
▁समाधान	-11.2522
भूमौ	-11.2522
▁भारतदेशे	-11.2523
▁स्फ	-11.2523
▁जुया	-11.2526
मन्तव्य	-11.2526
▁काला	-11.2526
▁नद्याः	-11.2527
पदी	-11.2529
स्तू	-11.2531
वृष्ट	-11.2531
केलि	-11.2532
▁समायात	-11.2534
▁मिथः	-11.2534
वाचिन	-11.2537
▁शिवं	-11.2538
▁सुखिनः	-11.2539
वेश्म	-11.2539
परोक्ष	-11.254
मेर	-11.2542
ीयत	-11.2542
▁कर्मण	-11.2545
▁ललित	-11.2546
▁᳚	-11.2547
यद्य	-11.2548
▁यज्ञः	-11.2548
▁अका	-11.255
वृष्ण	-11.2551
▁धेनु	-11.2552
▁ख्यातं	-11.2552
▁भावि	-11.2552
ाधम	-11.2557
▁08:	-11.2558
▁एतैः	-11.2558
▁अन्येन	-11.2558
नृत्य	-11.2559
ill	-11.2559
▁ददा	-11.256
▁व्याख्यास्यामः	-11.2561
▁जटा	-11.2562
▁ज्वलन	-11.2563
भेदो	-11.2563
विकरण	-11.2565
▁भगवा	-11.2566
▁उत्तमम्	-11.2567
▁धनानि	-11.2567
▁पौत्र	-11.2567
▁मास्तु	-11.2567
पस	-11.2569
प्रियं	-11.2572
ER	-11.2574
तरम्	-11.2575
▁क्षोभ	-11.2576
▁धनिक	-11.2578
हरा	-11.258
दृशे	-11.258
▁सेवते	-11.2582
नार्थ	-11.2582
▁परिचय	-11.2583
यमेव	-11.2584
▁शक्यो	-11.2584
बाह	-11.2584
▁45	-11.2587
ष्या	-11.2588
लिसे	-11.2589
ोक्ते	-11.259
शब्दं	-11.259
▁ब्रह्मण	-11.2592
ेतद्	-11.2592
सूत्रं	-11.2593
वत्या	-11.2594
▁ISO	-11.2595
ाभ्याम	-11.2595
▁एतस्याः	-11.2596
दत्तः	-11.2598
▁सर्वप्रथम	-11.2598
▁सर्वगत	-11.2598
▁अर्ज	-11.2599
याव	-11.26
▁प्रयत्नः	-11.2601
▁निगद्यते	-11.2601
मोचन	-11.2602
▁श्रूयतां	-11.2603
▁आचार्यः	-11.2603
▁काश्मीर	-11.2603
▁प्रहरी	-11.2606
धातूनां	-11.2606
भै	-11.2606
▁कपोत	-11.2607
▁दिनांक	-11.2607
▁अयोध्या	-11.2608
ज्ञाः	-11.2608
तदेव	-11.2609
निर्वाचन	-11.261
▁विरक्त	-11.261
▁भेदो	-11.261
▁कन्नड	-11.2611
व्यभिचार	-11.2611
▁नवीनं	-11.2612
▁प्रतिक्रिया	-11.2613
दुर्लभ	-11.2614
▁अभव	-11.2614
▁मोदते	-11.2617
▁उपयुज्यते	-11.2618
▁भृशं	-11.2618
▁निमित्तं	-11.2618
संयुतः	-11.262
▁नाद	-11.2621
व्यवधान	-11.2622
ातप	-11.2623
▁नारदः	-11.2625
▁आचर	-11.2627
रेणु	-11.2628
▁अभीष्ट	-11.2628
▁दूरी	-11.2629
क्षणं	-11.2629
गत्य	-11.2629
▁समयं	-11.263
▁विशेषो	-11.263
▁चिकित्स	-11.263
▁कया	-11.2633
▁वर्षेभ्यः	-11.2634
▁स्वत	-11.2637
टिका	-11.2641
▁उदाहरणः	-11.2641
१०५	-11.2643
▁विद्यालयस्य	-11.2644
छे	-11.2644
ारोहण	-11.2644
तर्फ	-11.2645
स्वामि	-11.2645
▁दिशं	-11.2645
विशेषात्	-11.2646
▁सिद्धिं	-11.2646
मार्गं	-11.2646
au	-11.2647
दृष्टिः	-11.2647
▁पश्यसि	-11.2648
र्मह	-11.2648
पोर्ट	-11.2649
तव्यम्	-11.2649
स्माक	-11.2649
▁तमसा	-11.2651
त्रैव	-11.2653
▁कर्णाटक	-11.2653
चारी	-11.2655
▁अपरः	-11.2655
▁प्राणाः	-11.2657
धात	-11.2657
ारोप	-11.2658
स्का	-11.2659
कालस्य	-11.266
▁पार्टी	-11.266
समीक्ष	-11.266
दँ	-11.266
लोल	-11.2661
पुरस्कृत	-11.2663
मन्त्रेण	-11.2663
ीकृतम्	-11.2664
▁सान्त्व	-11.2664
▁तादृशी	-11.2665
विदेश	-11.2667
▁सप्तम्या	-11.2667
▁पुनर्न	-11.2668
िने	-11.2672
▁अभी	-11.2673
गौरव	-11.2676
▁याचित	-11.2678
▁चतु	-11.2678
भूताः	-11.2681
ङ्गे	-11.2681
▁वर्धय	-11.2682
▁तारा	-11.2684
रामः	-11.2685
क्ट	-11.2685
▁तल्	-11.2687
शां	-11.2688
कर्तृक	-11.2689
सुतः	-11.269
▁पतन	-11.2691
▁न्यायेन	-11.2692
▁क्रियताम्	-11.2693
▁पुस्तकम्	-11.2693
भीति	-11.2693
पृथिवी	-11.2693
▁समानं	-11.2694
▁वनस्पति	-11.2695
▁वपुः	-11.2695
स्रा	-11.2696
ाल्प	-11.2696
षू	-11.2698
▁पश्येत्	-11.2698
पृष्ठे	-11.27
दायकः	-11.2701
र्चन	-11.2701
▁प्रीत्या	-11.2701
▁विशाख	-11.2702
▁प्रमा	-11.2703
ळा	-11.271
▁असति	-11.271
योग्यं	-11.2711
11.	-11.2712
▁तच	-11.2714
ितव्यं	-11.2715
▁इत्यनु	-11.2715
▁सत	-11.2715
▁९९	-11.2717
▁एवमपि	-11.2718
▁सेवां	-11.2719
▁इत्येतद	-11.272
गाढ	-11.2721
अमेरिका	-11.2722
कर्मभिः	-11.2723
मरा	-11.2723
▁वेबसाइटः	-11.2724
दनु	-11.2725
ाखिल	-11.2725
ानुग	-11.2728
कुलं	-11.2728
व्याप्य	-11.2732
षां	-11.2732
▁देख	-11.2732
गात्	-11.2732
▁नञ्	-11.2732
लिया	-11.2733
▁तदन्य	-11.2734
▁युवक	-11.2734
त्वमपि	-11.2735
ांशे	-11.2736
रहस्य	-11.2737
▁अन्तरा	-11.2737
▁जागृ	-11.2737
▁प्रवेशः	-11.2739
▁अनुकूलता	-11.274
▁एतावत्	-11.274
मागतः	-11.274
▁चलित	-11.2743
II	-11.2745
▁200	-11.2747
▁जिज्ञासा	-11.2748
▁अवधारणा	-11.2757
▁सुभाष	-11.2757
▁स्नातक	-11.276
ार्थम	-11.276
▁सर्वधर्म	-11.2761
▁विधानतः	-11.2762
▁प्रशंस	-11.2762
धारिण	-11.2764
०३	-11.2764
विशति	-11.2765
यर्	-11.2765
ाक्षी	-11.2766
▁कश्यप	-11.2768
▁गुमनाम	-11.2768
▁जिल्ला	-11.2769
सङ्गत	-11.2769
▁स्थापयित्वा	-11.2769
▁निवेदयेत्	-11.2769
ञ्जलि	-11.2769
▁48	-11.277
▁इतस्ततः	-11.2771
ci	-11.2773
▁बुद्धिमान्	-11.2773
हृष्ट	-11.2776
▁भाषिक	-11.2777
व्याहृत	-11.2777
▁श्रोतुं	-11.2777
जठर	-11.2778
मार्क	-11.2778
▁संलग्न	-11.2779
मायाति	-11.2781
वरि	-11.2784
न्नपि	-11.2786
▁घटे	-11.2787
▁प्रसारण	-11.2788
माग	-11.2788
ग्रं	-11.2789
▁शशि	-11.2789
▁गृ	-11.2791
▁बिम्ब	-11.2792
अप्य्	-11.2793
तरि	-11.2795
▁उदेति	-11.2797
दर्शक	-11.2798
▁तर्पय	-11.2798
▁वेतनमान	-11.2799
ाभ्यन्तर	-11.28
▁उदाहृतः	-11.2802
▁निर्माता	-11.2802
वाचकः	-11.2803
जीविका	-11.2804
▁बुधः	-11.2804
▁विपर्यय	-11.2805
ङ्गा	-11.2805
ऽग्नि	-11.2806
▁नोपपद्यते	-11.2807
रुन्ध	-11.2807
▁कटु	-11.2808
ाच्छ	-11.281
माणे	-11.281
पुरीष	-11.2812
▁निरामय	-11.2813
दानव	-11.2814
ालयः	-11.2815
▁मुग्ध	-11.2817
संबद्ध	-11.2817
▁जिज्ञास	-11.2818
▁श्रव	-11.2818
▁अघ	-11.2819
ङ्गि	-11.2822
प्रतिषेधे	-11.2823
SS	-11.2824
▁अनुभूत	-11.2824
शक्तेः	-11.2827
▁परेण	-11.2827
▁अर्द्ध	-11.2827
समासः	-11.2827
व्यापि	-11.2827
द्ब	-11.2827
गच्छन्ति	-11.283
▁अस्ती	-11.2831
ence	-11.2831
▁८५	-11.2832
वेक्ष्य	-11.2833
▁सत्त्वं	-11.2833
सीदति	-11.2834
▁मध्यमा	-11.2835
▁अभिमुख	-11.2837
मागता	-11.284
▁कर्मफल	-11.2841
करणम्	-11.2841
▁संशयो	-11.2842
ूल	-11.2844
▁वितर	-11.2845
संवेदन	-11.2846
▁युक्ता	-11.2846
▁विभु	-11.2846
▁उभयं	-11.2846
▁ध्वनिः	-11.2846
ity	-11.2847
▁जनि	-11.2848
चितः	-11.2849
सादृश्य	-11.2849
कवच	-11.2849
▁कार्यक्रमः	-11.285
वत्त्व	-11.285
▁गीयते	-11.2851
बन्धः	-11.2851
▁अहः	-11.2851
ील	-11.2852
▁मुद्रास्फीति	-11.2852
▁योगं	-11.2852
ादन	-11.2853
शालायां	-11.2853
▁यस्माद्	-11.2853
ूँ	-11.2853
▁अस्मै	-11.2853
▁राजकीय	-11.2854
▁नाक	-11.2855
▁वक्तुम्	-11.2855
▁विचर	-11.2856
▁घटादि	-11.2857
▁वर्णित	-11.2858
तान्त्रिक	-11.2858
81	-11.286
▁निवेशयेत्	-11.2861
ोद्देश	-11.2861
स्माभिः	-11.2861
▁त्वमपि	-11.2861
▁वैदेशिक	-11.2862
▁शिशिर	-11.2863
▁जाण	-11.2863
▁वर्धित	-11.2863
ेदम	-11.2864
प्रतिबन्ध	-11.2867
ग्निहोत्र	-11.2868
ाज्ञा	-11.2869
▁सोमं	-11.2869
वतार	-11.287
ालोक	-11.287
▁07.	-11.2872
▁शतके	-11.2872
सीमा	-11.2876
▁वइगु	-11.2876
कश्मीर	-11.2879
हविष	-11.288
मुक्त्वा	-11.288
ज्झ	-11.288
▁आईपीसी	-11.288
▁प्रयाण	-11.2884
▁महोत्सव	-11.2884
लोम	-11.2885
▁यस्माद	-11.2886
ान्यत्र	-11.2888
▁यत्नः	-11.2889
▁ततस्	-11.2891
▁तथाऽपि	-11.2892
प्रेक्ष	-11.2896
▁स्वादु	-11.2897
ाकुल	-11.2897
▁समाचर	-11.2898
स्कन्धे	-11.2898
▁पत्रकार	-11.2898
▁अधिकृत्य	-11.29
विविधानि	-11.29
▁सूचि	-11.29
श्म	-11.2902
▁भूतपूर्व	-11.2903
▁अथापि	-11.2907
तिर्	-11.2908
कुरु	-11.2908
ानल	-11.2908
▁प्रान्त	-11.2909
वाई	-11.291
तलं	-11.2912
इड	-11.2914
दहन	-11.2915
श्चन्द्र	-11.2915
ागतं	-11.2916
▁द्रुम	-11.2916
तिथौ	-11.2919
▁हानं	-11.2919
व्यवहित	-11.2919
▁02.	-11.2919
▁पाषाण	-11.292
▁आत्मनि	-11.2922
सहस्रेण	-11.2922
▁छन्दो	-11.2922
खिन्न	-11.2923
▁विकृति	-11.2923
▁असाधारण	-11.2924
वाचन	-11.2924
ष्टक	-11.2926
▁राजनि	-11.2927
मद्	-11.2927
▁धनु	-11.2928
शैली	-11.2929
पूर्वा	-11.293
▁80	-11.2931
▁काङ्क्ष	-11.2931
▁उदाहरणं	-11.2932
▁एकत्व	-11.2932
अहम्	-11.2933
पुत्रा	-11.2935
शूल	-11.2936
▁कुत्सित	-11.2936
▁प्रवर्तक	-11.2938
शृ	-11.2939
जिगीष	-11.2939
▁०९	-11.2939
वैचित्र्य	-11.2939
▁बहुना	-11.2939
▁दिष्ट्या	-11.2939
View	-11.2939
▁जाग्रत	-11.294
शाखा	-11.2941
नुद	-11.2942
नन्तरं	-11.2942
दलं	-11.2943
▁श्रुतौ	-11.2943
▁वत्सर	-11.2944
▁उत्तिष्ठ	-11.2952
निरपेक्ष	-11.2952
▁हीयते	-11.2952
▁भोक्ता	-11.2962
▁शरीरस्य	-11.2963
ासीत	-11.2966
पूवंक	-11.2967
▁पराशर	-11.2968
▁स्रोतः	-11.297
तज्ज्ञ	-11.297
▁बाधा	-11.297
▁प्रियम्	-11.2972
विश्वविद्यालयस्य	-11.2972
ाणी	-11.2973
ितवती	-11.2973
▁कल्याणं	-11.2975
▁01:	-11.2975
▁वर्णः	-11.2978
प्रार्थन	-11.2979
▁वर्णनं	-11.2979
स्वयं	-11.2979
ूयते	-11.298
प्रमाणेन	-11.298
मकरोत्	-11.2981
सङ्घटन	-11.2985
▁समुत्	-11.2986
प्रयोगेण	-11.2988
▁भविष्यत्	-11.2988
▁उदित	-11.2991
▁ज्याय	-11.2992
▁कौरव	-11.2993
▁46	-11.2994
ोषित	-11.2997
ग्रहो	-11.2997
▁प्रतियोगि	-11.2998
भवने	-11.3
चूर्ण	-11.3
संबन्धि	-11.3
▁कृताः	-11.3001
▁प्रयोज्य	-11.3003
ार्णव	-11.3003
▁मन्त्रं	-11.3004
.....	-11.3005
रूपक	-11.3006
युष्मा	-11.3007
▁न्यासः	-11.3007
▁यथाकालं	-11.3008
▁एताव	-11.3008
▁असत	-11.301
▁खोजः	-11.301
▁व्याप	-11.3011
▁द्रविण	-11.3013
▁किरण	-11.3015
▁नित्या	-11.3015
नुपलब्ध	-11.3016
योगा	-11.3016
लॉ	-11.3017
▁रुच	-11.3018
▁नायकः	-11.3018
▁गीता	-11.3019
AR	-11.3019
मयि	-11.302
▁समागम	-11.3022
▁[...]	-11.3024
▁मुहुः	-11.3024
▁सितम्बर	-11.3024
ग्रहे	-11.3026
भिधाय	-11.3026
▁यीशु	-11.3029
▁प्रतिपादन	-11.303
▁प्रसंस्करण	-11.303
यल	-11.3031
मिच्छसि	-11.3032
जह	-11.3033
हारे	-11.3034
▁महेश	-11.3035
ामास	-11.3035
दध	-11.3036
▁गमनं	-11.3036
विर	-11.3039
जागरण	-11.304
पत्तन	-11.3042
गमने	-11.3043
▁जीवन्ति	-11.3043
▁कन्य	-11.3044
▁शुभ्र	-11.3044
▁प्रेषण	-11.3045
▁राजभाषा	-11.3046
▁विदुषां	-11.3046
▁९३	-11.3046
ादारभ्य	-11.3047
▁लोको	-11.3048
▁पतितं	-11.305
▁मुदित	-11.305
यतां	-11.3053
▁परिपक्व	-11.3058
न्यः	-11.3058
ाग्रतः	-11.3058
▁न्हि	-11.3059
▁विहर	-11.3059
▁वीणा	-11.3059
भवतः	-11.3061
▁कर्तव्यो	-11.3061
▁अन्यस्य	-11.3066
▁नासा	-11.3068
०११	-11.3068
शीघ्र	-11.3069
क्रा	-11.3069
▁सिध्य	-11.307
ps	-11.3071
ङ्क्ष	-11.3072
ाब	-11.3072
मनन्त	-11.3074
▁भूतकाल	-11.3075
▁2011	-11.3075
८३	-11.3075
▁कन्दुक	-11.3076
बाण	-11.3077
▁रात्राव	-11.3079
▁मनसो	-11.308
▁सर्व्वं	-11.3081
कृपया	-11.3081
त्रितय	-11.3082
▁पूरित	-11.3082
ध्म	-11.3082
गणा	-11.3086
महिला	-11.3086
दृग	-11.3089
▁सूर्यं	-11.3089
ार्च	-11.309
▁पश्चिमा	-11.3091
हितार्थ	-11.3092
यत्त	-11.3094
▁९८	-11.3097
▁निबोधत	-11.3098
▁पोष	-11.3098
कुर्	-11.3099
▁नियमो	-11.3099
रियं	-11.3099
▁विस्तारः	-11.31
व्व	-11.31
▁लिङ	-11.3101
▁अयन	-11.3101
वस्त	-11.3103
ग्री	-11.3104
▁जनन	-11.3108
▁महात्मान	-11.3108
▁सुरु	-11.311
त्यर्थं	-11.3111
▁टाप्	-11.3111
महोदय	-11.3111
▁निराकृत	-11.3112
▁मुद्दा	-11.3112
▁खनेदु	-11.3114
र्वी	-11.3115
हनन	-11.3116
ारोग्य	-11.3117
▁व्युत्पत्ति	-11.3118
▁त्रिदिव	-11.3119
तृण	-11.3119
स्कन्ध	-11.312
▁एहि	-11.312
ेष्व्	-11.312
स्तान्	-11.312
▁त्रै	-11.3121
▁दास्यामि	-11.3122
▁स्मरणं	-11.3124
▁भूमेः	-11.3124
▁वस्तुनि	-11.3124
▁प्रज्ञ	-11.3126
ासने	-11.3127
▁मेधा	-11.3127
र्यो	-11.3129
▁पाठ्यक्रम	-11.313
▁शरण्य	-11.3132
▁जै	-11.3132
निष्	-11.3133
▁नीतिः	-11.3134
▁चूर्ण	-11.3134
▁अखिल	-11.3135
कटि	-11.3135
▁पलायन	-11.3136
▁प्रसारित	-11.3137
र्ज्ज	-11.3138
पूज	-11.3139
नामानि	-11.3142
▁व्रण	-11.3142
▁स्त्रियं	-11.3143
पती	-11.3143
▁स्ना	-11.3146
संवृत	-11.3147
▁यवन	-11.3147
▁43	-11.3149
मार्य	-11.3152
▁दृष्टवान्	-11.3153
▁दैवी	-11.3153
वर्म	-11.3153
▁वर्षाणां	-11.3153
▁भवत्या	-11.3155
▁पिशाच	-11.3155
स्तार	-11.3155
योग्या	-11.3155
नार	-11.3156
मुना	-11.3156
▁षष्ठे	-11.3157
भोः	-11.3158
संविद	-11.3158
प्रामाण्य	-11.3159
▁द्यावापृथिवी	-11.3161
]/	-11.3161
वर्गे	-11.3161
वायुः	-11.3163
फलप्रद	-11.3165
वप	-11.317
▁समाधानं	-11.317
प्रीण	-11.317
▁दुह	-11.3171
▁चन्द्रः	-11.3172
धर्माणां	-11.3173
स्तान	-11.3177
▁कमला	-11.3177
ज्ञानम	-11.3178
साधनम्	-11.3179
आश्व	-11.3179
▁गावः	-11.318
ig	-11.318
▁इतना	-11.3181
▁वितत	-11.3183
▁तस्मान्	-11.3183
लील	-11.3185
▁द्विजोत्तम	-11.3185
चिन्तय	-11.3186
संयुतम्	-11.3186
▁गन्धर्व	-11.3187
प्रसंग	-11.3191
▁कानन	-11.3191
▁दृढं	-11.3193
ाञ्	-11.3193
▁प्रत्ययार्थ	-11.3193
▁काकः	-11.3195
▁पुरुषाः	-11.3196
▁समी	-11.3197
कारिता	-11.3198
▁More	-11.3199
▁सन्निहित	-11.3199
तायै	-11.32
▁गमिष्यति	-11.32
ाध्याये	-11.3201
विवर्जितः	-11.3201
ळी	-11.3202
▁वेद्य	-11.3202
▁राजकुमार	-11.3203
▁पीछे	-11.3203
▁विभुः	-11.3204
▁हल्	-11.3204
▁क्लिक्	-11.3204
रूपता	-11.3209
▁द्रष्टव्य	-11.3209
कार्याणां	-11.3211
स्वामी	-11.3212
लप	-11.3213
त्विति	-11.3214
▁स्पष्टम्	-11.3214
ध्न	-11.3214
▁अभिनय	-11.3215
▁सर्वकार्येषु	-11.3215
भिद	-11.3217
ियन	-11.3218
▁श्रुते	-11.3218
प्रविष्ट	-11.3219
▁वैकल्पिक	-11.322
▁47	-11.322
लिका	-11.322
ात्तु	-11.3225
िभ्यः	-11.3225
पथं	-11.3226
▁सरस	-11.3226
▁प्रपद्ये	-11.3227
▁शक्तिर्	-11.3228
▁गौः	-11.3229
ुत्थान	-11.323
▁तदभावे	-11.3231
▁अवश्यम्	-11.3231
▁स्थले	-11.3231
▁लिखितं	-11.3231
▁कथयस्व	-11.3231
▁अपश्यत्	-11.3234
ोत्तरे	-11.3234
▁अपहरण	-11.3234
पा०	-11.3235
राणि	-11.3235
निदेश	-11.3237
▁रंग	-11.3237
▁प्रदोष	-11.3243
▁निरूपित	-11.3243
▁श्रेयो	-11.3243
न्हु	-11.3244
ायुर्	-11.3244
▁चन्द्रमा	-11.3244
ऽस्मि	-11.3244
▁सुराः	-11.3245
परिभाष	-11.3245
वर्द्धन	-11.3247
▁प्रपन्न	-11.3249
▁एतदपि	-11.3249
क्षेत्राणि	-11.325
▁परितो	-11.3251
भक्त्या	-11.3254
1.1	-11.3256
▁गोष्ठ	-11.3256
▁गच्छन्	-11.3256
भक्षण	-11.3259
▁भवि	-11.3259
91	-11.3259
देहि	-11.3259
शुल्क	-11.326
जात्य	-11.326
शाली	-11.326
▁सुप	-11.3261
▁प्रच	-11.3261
▁बान्धव	-11.3262
वशा	-11.3262
त्यज	-11.3264
रवि	-11.3264
वाला	-11.3265
टै	-11.3266
धेः	-11.3266
▁पुचः	-11.3266
▁सत्व	-11.3266
र्द्द	-11.3266
शालि	-11.3268
र्म्म	-11.3268
▁कथितो	-11.3268
ोट	-11.327
विरोधे	-11.3272
▁साक्षा	-11.3275
कुलीन	-11.3276
दशकं	-11.3278
▁शिवे	-11.3279
ध्वे	-11.3281
▁स्वरः	-11.3281
▁पुत्रपौत्र	-11.3285
▁असु	-11.3285
त्युच्यते	-11.3286
▁याज्ञवल्क्य	-11.3287
▁दबाव	-11.3287
▁An	-11.3289
Ch	-11.3289
खेल	-11.3289
▁वाऽपि	-11.3289
▁अनुच्छेद	-11.329
▁दण्डं	-11.329
▁भयावह	-11.329
र्जुन	-11.3291
ोष	-11.3291
▁बलेन	-11.3291
योऽ	-11.3292
न्यत्	-11.3292
प्रदानं	-11.3293
ाद्ध	-11.3296
▁अन्तर्गत	-11.3296
vii	-11.3296
▁२०००	-11.3297
▁क्रियायाः	-11.3298
१०७	-11.3298
▁निश्चयेन	-11.3299
▁पढ़	-11.3301
▁on	-11.3304
▁03:	-11.3307
▁सहस्राक्ष	-11.3309
▁ओली	-11.331
गेहं	-11.3311
पक	-11.3312
▁सहितः	-11.3312
▁प्रयोक्तव्य	-11.3313
▁07:	-11.3314
ाधान	-11.3314
▁पताका	-11.3315
संदेह	-11.3315
ass	-11.3316
बलात्	-11.3317
▁कृतम	-11.3317
क्ष्ण	-11.3319
प्रदेशेषु	-11.3319
▁भ्रान्त	-11.3321
शोधन	-11.3324
विशेषणं	-11.3324
न्यासः	-11.3324
ात्मानम	-11.3326
नुष्ठित	-11.3327
▁क्षमस्व	-11.3327
▁विग्रहः	-11.3327
ष्टादश	-11.3328
▁प्रतिपादय	-11.3331
ार्ति	-11.3331
▁अभिप्रेत	-11.3331
▁वइ	-11.3332
▁विदितं	-11.3333
▁विषयेषु	-11.3334
स्वीकार	-11.3334
ोष्ण	-11.3335
निव	-11.3337
ुदाहृत	-11.3339
नामधेय	-11.3339
▁अनादि	-11.3341
ाराधन	-11.3341
▁उत्तरा	-11.3342
स्योपरि	-11.3342
शरण	-11.3342
भिस्	-11.3344
▁अनुज्ञा	-11.3347
▁प्रचल	-11.3347
▁त्रिविधं	-11.3348
मांसं	-11.3348
राक्षस	-11.3348
▁याद	-11.3352
▁मरुतो	-11.3352
▁वनम्	-11.3353
▁विद्याधर	-11.3355
िणे	-11.3356
▁पुरुषेण	-11.3357
घातक	-11.3357
▁नहिं	-11.3358
▁मार्गं	-11.3358
द्रु	-11.3358
ादेक	-11.336
भवन्ति	-11.3361
▁भयात्	-11.3364
त्यादिना	-11.3364
भिद्य	-11.3365
णव	-11.3367
▁चान्ये	-11.3367
▁मातः	-11.3368
ज्जल	-11.3368
दिनानि	-11.3368
▁कौतूहल	-11.3369
▁पेय	-11.3372
▁विविक्त	-11.3373
▁धाये	-11.3374
ग्रास	-11.3374
▁पितरो	-11.3375
▁अस्पताल	-11.3376
लाभाय	-11.3376
▁उत्तीर्ण	-11.3377
▁नमोऽस्तु	-11.3377
महासागर	-11.3378
▁भविष्यवाणी	-11.3378
भीष्ट	-11.3378
होत्र	-11.3378
सत्व	-11.3379
▁तिस्रो	-11.3379
▁वरा	-11.338
उक्त	-11.3382
▁नमामि	-11.3385
दैत्य	-11.3387
▁ऐन्द्र	-11.3387
▁अनिल	-11.3389
लाय	-11.3389
प्रदानेन	-11.339
▁शै	-11.3391
यागु	-11.3392
▁06:	-11.3392
▁संक्रमित	-11.3394
वलय	-11.3396
लेपन	-11.3397
▁प्रबुद्ध	-11.3399
▁यतस्त	-11.3399
ine	-11.3401
▁देवेन	-11.3401
शृङ्ग	-11.3402
स्तिष्ठ	-11.3402
इन्	-11.3403
▁पुत्राणां	-11.3403
वधू	-11.3405
▁सरोवर	-11.3405
▁वृद्धौ	-11.3405
▁विभाजन	-11.3405
▁हतो	-11.3406
▁उपायः	-11.3407
क्लि	-11.3408
▁बस	-11.3412
गृह्णाति	-11.3412
ist	-11.3414
लीक	-11.3415
▁लागत	-11.3415
▁गद्य	-11.3416
▁श्रवणं	-11.3416
▁सरला	-11.3416
विशेषतः	-11.3417
मर्ष	-11.3417
वेल	-11.3418
▁सहकारि	-11.3422
टेन	-11.3422
भुक्ति	-11.3422
राष्ट्रीय	-11.3422
▁यदर्थ	-11.3423
योगिन	-11.3423
डर	-11.3423
धातो	-11.3424
▁म्हण	-11.3424
नाथः	-11.3424
ीकृतं	-11.3424
धित	-11.3425
▁कृष्णा	-11.3427
लिख्य	-11.3428
▁भ्रान्ति	-11.3431
▁रात्री	-11.3431
रात्रौ	-11.3433
धर्मेण	-11.3433
▁कासा	-11.3433
▁आसीत	-11.3435
▁समः	-11.3435
क्रियत	-11.3435
रीति	-11.3436
▁प्रातर	-11.3437
र्च्च	-11.3438
त्यनु	-11.344
ज्येष्ठ	-11.344
▁भेस	-11.3441
▁सन्तत	-11.3442
▁सर्वकाल	-11.3443
शिक्षक	-11.3443
▁आफ्	-11.3445
▁दधाति	-11.3446
▁सम्प्राप्त	-11.3446
स्वरूपेण	-11.3446
▁प्रतिपक्ष	-11.3448
▁समाप्य	-11.3449
▁संविद	-11.345
जनि	-11.3451
▁भरा	-11.3452
▁दस्य	-11.3453
ाधिकारी	-11.3454
बोध्य	-11.3454
मुच्च	-11.3456
शोच	-11.3456
दिल	-11.3457
नाप	-11.3457
पवाद	-11.3457
▁उपयुज्य	-11.346
▁प्लुत	-11.346
पद्यन्ते	-11.3463
_2_	-11.3464
केवलं	-11.3464
▁रक्षणे	-11.3465
▁ख्रीष्ट	-11.3466
तथोक्त	-11.3466
मैथुन	-11.3466
▁तुम्हारे	-11.3466
▁प्रतिगृह्यताम्	-11.3467
शोणित	-11.3467
ितेन	-11.3468
▁प्रादेशिक	-11.3468
गृह्णीयात्	-11.3468
▁व्यज्यते	-11.3469
ज्ञापन	-11.3469
▁द्वाभ्यां	-11.347
AS	-11.3472
▁अनन्तरम्	-11.3472
▁दुर्गा	-11.3473
▁आख्यात	-11.3475
लुक्	-11.3476
▁धाता	-11.3477
ुपरि	-11.3478
उद्	-11.3478
मायां	-11.3478
▁समुद्री	-11.3479
▁कण	-11.3479
र्थम्	-11.3481
प्रदः	-11.3481
▁हंसः	-11.3482
सवन	-11.3483
▁हविषा	-11.3483
▁सम्बोधन	-11.3484
दनं	-11.3485
हेतुक	-11.3487
▁द्विपद	-11.3487
संख्यया	-11.3487
संस्तुत	-11.3487
▁पटलः	-11.3488
▁बना	-11.3488
▁प्राश	-11.349
भिप्रायः	-11.3491
▁मूर्त	-11.3492
▁ऎ	-11.3494
गमः	-11.3494
एल	-11.3495
दोह	-11.3495
सम्बन्धि	-11.3495
▁अवरोध	-11.3496
मार्गण	-11.3497
धुन	-11.3499
ढु	-11.3499
ानुबन्ध	-11.3499
▁वैवस्वत	-11.35
पोह	-11.3501
वेश्य	-11.3501
दूरे	-11.3502
त्याह	-11.3503
ोपासन	-11.3503
प्रत्ययान्त	-11.3505
चलन	-11.3506
84	-11.3507
▁सुव	-11.3507
्वे	-11.3508
विंशतिः	-11.3508
▁अवधिः	-11.3509
▁Video	-11.351
प्रदं	-11.3511
प्रतिपादक	-11.3511
▁कृषक	-11.3512
▁व्यापारः	-11.3513
▁प्राधान्येन	-11.3513
ारूढ	-11.3516
▁लेखाः	-11.3516
▁वनवास	-11.3517
संज्ञित	-11.352
▁अधिकः	-11.3521
▁विद्वांस	-11.3521
▁इत्येष	-11.3526
IS	-11.3527
▁हूं	-11.3527
देशेन	-11.3527
▁दइ	-11.3527
▁अवतार	-11.3531
▁मानं	-11.3532
▁वामहस्त	-11.3533
भृत्य	-11.3533
ज्योतिष	-11.3535
▁उष	-11.3537
च्छु	-11.3537
▁सङ्केत	-11.3537
ाद्रि	-11.3538
महोदयस्य	-11.354
▁अनुबन्ध	-11.3541
▁वचो	-11.3543
▁चायं	-11.3544
सेवक	-11.3545
जाय	-11.3548
▁अमेरिकादेश	-11.3549
▁सम्बन्धमा	-11.3551
▁कृतकृत्य	-11.3551
▁केवला	-11.3552
▁पर्वतः	-11.3555
शास्त्रस्य	-11.3556
▁उद्घाटन	-11.3557
▁भाषापाकः	-11.3557
▁पिहां	-11.3557
ोत्कर्ष	-11.3559
▁मानसिक	-11.3559
▁पात्रं	-11.356
नृ	-11.356
▁इतेि	-11.3562
▁श्रावण	-11.3562
▁सार्थक	-11.3563
▁काशी	-11.3564
क्षी	-11.3564
▁पिबेत्	-11.3565
ेयः	-11.3565
ूगु	-11.3566
तव्यं	-11.3566
▁भवेदिति	-11.3567
▁बहव	-11.3567
षित	-11.3567
▁सर्वेषामेव	-11.3568
▁×	-11.3568
दिह	-11.3568
ात्स	-11.3569
कथय	-11.357
▁गुलि	-11.3571
▁कोल	-11.3572
▁उपग्रह	-11.3575
विश्वविद्यालये	-11.3576
निर्वाह	-11.3578
▁समक्षं	-11.3578
▁विस्तीर्ण	-11.3579
वेष्टित	-11.3579
मुह	-11.358
ाश्रयः	-11.3582
▁रामेण	-11.3582
▁प्रवि	-11.3583
▁वयाः	-11.3583
ान्नं	-11.3585
संगत	-11.3588
▁बृह	-11.3589
are	-11.359
ोत्पादन	-11.3591
मुपैति	-11.3592
वृत्तम्	-11.3594
▁तस्मिं	-11.3594
▁भोजनम्	-11.3595
वाप्त	-11.3597
डव	-11.3598
▁प्रारूप	-11.3598
ावृत्ति	-11.3598
हृद	-11.3599
रिक्त	-11.3599
▁साक्षरता	-11.3599
प्रत्या	-11.36
▁सूत्रस्य	-11.3601
सिक्त	-11.3601
पुरूष	-11.3603
थ्यं	-11.3604
निश्चित	-11.3605
Sh	-11.3606
▁विक	-11.3606
▁do	-11.3607
▁शुरु	-11.3607
▁संस्कृतभाषाया	-11.3607
▁वदन	-11.3608
कीर्त्य	-11.3609
▁जातानि	-11.3611
▁करणम्	-11.3611
▁मग	-11.3612
▁क्री	-11.3614
port	-11.3614
▁संक्षिप्त	-11.3615
▁भवन्तं	-11.3616
▁एज	-11.3617
▁दीर्घायु	-11.3618
मीश	-11.3619
सदृशं	-11.3621
ाङ्गुल	-11.3622
ितैः	-11.3622
धारय	-11.3623
म्बा	-11.3624
दृष्टान्त	-11.3625
▁भूतेषु	-11.3626
मत्त	-11.3626
▁परमेश्वरि	-11.3627
ज्ञात्वा	-11.3629
चिन्तयन्	-11.3631
शोषण	-11.3632
▁पदवी	-11.3632
▁शी	-11.3633
▁वरो	-11.3635
▁आहत्य	-11.3635
नास्ति	-11.3635
▁प्रजनन	-11.3636
▁इ॒	-11.3638
कलित	-11.364
वादिन	-11.364
▁केवलः	-11.364
स्त्विति	-11.3642
▁41	-11.3642
▁श्ल	-11.3643
▁भक्तानां	-11.3644
▁नीयते	-11.3644
देशात्	-11.3646
वाक्यानि	-11.3647
िषे	-11.3647
सम्भवात्	-11.3648
ल्स	-11.3649
▁इंडियन	-11.3649
▁पाश्चात्य	-11.3649
▁निःशुल्क	-11.3649
धातव	-11.365
कन्यका	-11.3651
▁वर्गे	-11.3651
▁कर्तृपद	-11.3652
▁पुनस्	-11.3652
▁किन्त्व	-11.3654
नाम्नि	-11.3654
युक्तेन	-11.3654
दिवसः	-11.3654
प्रसादेन	-11.3657
▁वु	-11.3659
▁प्रदीयते	-11.366
▁अवश्यमेव	-11.3661
पेत	-11.3661
▁परीक्षित	-11.3661
दिनम्	-11.3661
त्त्र	-11.3662
▁प्रयासः	-11.3663
नयोः	-11.3667
विवक्षा	-11.3667
▁चतुर्विंशति	-11.3668
ांशं	-11.3668
पुष्ट	-11.3669
काराः	-11.3669
बाहुल्य	-11.3669
कर्मसु	-11.3671
रास	-11.3672
▁प्रमोद	-11.3672
▁सुगम	-11.3672
▁फलित	-11.3675
▁पुनःपुनः	-11.3676
चाप	-11.3676
रसो	-11.3677
▁घोषित	-11.3679
▁एससी	-11.368
यापि	-11.3681
त्प	-11.3683
▁चेतसा	-11.3684
▁अष्टौ	-11.3685
▁मुख्यं	-11.3686
▁क्षिप	-11.3686
स्राव	-11.3688
मीमांसा	-11.3688
▁पूर्वज	-11.369
कान	-11.3691
परिधि	-11.3693
धिष्ठित	-11.3693
▁सथित	-11.3695
स्यूत	-11.3696
स्पर्शन	-11.3697
▁कच	-11.3697
▁वृत	-11.3697
पूजय	-11.37
माणं	-11.3701
हतं	-11.3701
▁गई	-11.3703
नयने	-11.3703
▁03.	-11.3704
कर्त्तु	-11.3705
▁उ॒	-11.3705
MS	-11.3706
▁चरित्र	-11.3707
भिमुख	-11.3707
▁Su	-11.3707
धरे	-11.3708
मन्त्रि	-11.3708
ish	-11.3708
▁तुष्टि	-11.3711
▁चक्रं	-11.3711
▁St	-11.3713
▁भ्राम	-11.3715
सारः	-11.3716
प्ति	-11.3717
श्चतुर्	-11.3718
▁प्रयोगं	-11.372
▁लक्षं	-11.372
वर्णनम्	-11.3722
▁हरिं	-11.3722
▁करणीया	-11.3724
▁शक्नु	-11.3725
रचन	-11.3725
▁नगरम्	-11.3727
डिया	-11.3728
क्रत	-11.373
युष्म	-11.3731
▁कृती	-11.3733
पौरुष	-11.3734
मित्यत्र	-11.3735
▁भवं	-11.3736
ऽन्त	-11.3738
▁विष्णो	-11.3738
श्चिद	-11.3739
स्वरेण	-11.3739
क्षमा	-11.3739
ेदानीं	-11.374
न्वितः	-11.3742
▁थज्याःगु	-11.3742
मन्नं	-11.3743
▁यायेमाः	-11.3743
संपर्क	-11.3743
Z	-11.3744
▁रतिः	-11.3744
▁आसम्	-11.3744
प्रसर	-11.3745
बन्धो	-11.3745
▁भवद्	-11.3746
▁रजो	-11.3746
सम्पर्क	-11.3746
देहं	-11.3747
स्मारक	-11.3748
सैनिक	-11.3748
ग्निं	-11.3748
कन्द	-11.3749
लान	-11.3749
▁७८	-11.3752
▁विरचित	-11.3752
ारे	-11.3752
▁अर्हसि	-11.3753
▁पाठे	-11.3753
▁नित्यशः	-11.3753
▁कान	-11.3753
▁पृष्टवान्	-11.3754
नून	-11.3754
▁भावार्थः	-11.3755
▁सपत्न	-11.3755
▁फट्	-11.3755
▁बहुभिः	-11.3756
ोदये	-11.3756
▁क्षर	-11.3756
हीनो	-11.3758
▁शिरसि	-11.3758
्येते	-11.376
बुध्य	-11.376
▁पशवः	-11.376
▁क्षणमात्र	-11.3761
जले	-11.3761
▁यथापूर्वं	-11.3761
▁मध	-11.3762
//	-11.3763
▁समन्तात्	-11.3763
न्यून	-11.3763
विधेय	-11.3764
तेऽ	-11.3767
▁उर	-11.3767
योग्यता	-11.3768
▁गायति	-11.3769
▁हम	-11.3771
▁बहुव्रीहिः	-11.3773
न्निव	-11.3773
▁त्रिकोण	-11.3773
लयः	-11.3774
▁अभिवादन	-11.3774
▁संवृत्त	-11.3775
▁दानेन	-11.3776
्यसे	-11.3777
वन्न	-11.3777
लीला	-11.3777
▁हत्या	-11.3777
ण्डि	-11.3778
▁स्वर्	-11.3778
ग्रन्थाः	-11.3778
मुपागत	-11.3779
▁जन्मना	-11.3781
ाश्रमं	-11.3781
▁वश्य	-11.3781
▁दद्याद्	-11.3782
▁चत्वार	-11.3782
▁नागर	-11.3784
समायुक्त	-11.3785
ाविष्ट	-11.3786
मुचित	-11.3788
कत्वात्	-11.3788
ायैव	-11.3789
▁दर्शनात्	-11.3792
गुणो	-11.3795
ुचित	-11.3795
▁वायुं	-11.3796
▁गानाः	-11.3797
पूर्य	-11.3801
॒ति	-11.3801
▁पादः	-11.3801
वर्जितम्	-11.3803
र्नाम	-11.3804
ाधिपत्य	-11.3804
▁पुरुषाणां	-11.3805
▁समापन	-11.3806
▁गतेषु	-11.3808
▁प्रहर	-11.3809
▁जायेत	-11.381
भारते	-11.3811
ऽन्यथा	-11.3811
▁जला	-11.3812
▁भाषते	-11.3812
दूषक	-11.3812
▁जह	-11.3813
सकल	-11.3814
ुपाय	-11.3815
॑म	-11.3816
ष्वपि	-11.3816
▁तज्ज्ञान	-11.3817
०१५	-11.3817
▁जीवस्य	-11.382
▁ज्ञाने	-11.3822
जागर	-11.3822
सिध्द	-11.3824
धिष्ठान	-11.3825
▁गृण	-11.3826
▁चापर	-11.3828
▁दविज	-11.383
यूथ	-11.383
ययुः	-11.3831
▁प्रात	-11.3831
ष्यामि	-11.3831
▁III	-11.3832
पवित्र	-11.3833
▁भुञ्जीत	-11.3835
▁दिसम्बर	-11.3835
मनुभव	-11.3835
हिंस	-11.3835
ान्ये	-11.3836
▁(5)	-11.3836
विल	-11.3838
ud	-11.3839
▁थथे	-11.384
यती	-11.384
सङ्	-11.384
बिउगु	-11.3841
▁संसदि	-11.3842
▁बाध्य	-11.3843
▁महिमा	-11.3843
▁ठञ्	-11.3843
▁मेरो	-11.3844
▁हृदयेन	-11.3845
रथं	-11.3845
मन्यथा	-11.3846
निहित	-11.3846
▁स्थलं	-11.3847
old	-11.3847
सृजत	-11.3847
▁डोमेन	-11.3847
न्येषां	-11.3847
चिता	-11.3847
▁स्मर्यते	-11.3848
▁प्रतिषेधो	-11.3848
न्नेव	-11.3848
▁राजानः	-11.3849
शोध	-11.3849
▁नराणां	-11.385
▁आभासी	-11.3851
▁निवसति	-11.3852
▁२०११	-11.3852
वह्नि	-11.3852
▁नूतनं	-11.3853
द्भवति	-11.3854
▁राममोहन	-11.3855
▁जज्ञे	-11.3855
▁म॒	-11.3855
भाषी	-11.3855
वल्	-11.3856
क्रियां	-11.3856
हौ	-11.386
देवाः	-11.3862
मथा	-11.3864
▁प्या	-11.3866
▁समर्पण	-11.3866
रहिता	-11.3866
▁सापेक्ष	-11.3867
▁इत्थ	-11.3868
▁मित्रम्	-11.3868
art	-11.3869
▁गेहे	-11.387
धावन	-11.3872
-19	-11.3873
द्योग	-11.3873
क्षयं	-11.3873
▁अस्मदीय	-11.3874
ोत्सवः	-11.3877
▁मरु	-11.3877
▁विदेह	-11.3877
वीक्षण	-11.3878
▁धया	-11.3878
▁कैः	-11.388
▁सर्वैर्	-11.3881
चिन्त	-11.3883
▁बलम्	-11.3884
ध्यात्म	-11.3884
हमेव	-11.3885
▁ध्वंस	-11.3886
भवं	-11.389
▁क्षत्र	-11.3891
वृन्द	-11.3891
▁मन्यु	-11.3893
र्मि	-11.3893
▁धिक्	-11.3894
भ्युपगम	-11.3894
दृष्टा	-11.3895
वांस	-11.3895
ठः	-11.3897
स्सा	-11.3897
▁पुण्या	-11.3898
सन्देश	-11.3899
ाधिकृत	-11.3899
▁भजे	-11.39
▁मलय	-11.3901
रुद्र	-11.3902
▁सार्व	-11.3906
▁विहितं	-11.3907
▁लब्धं	-11.3909
▁स्वकार्य	-11.3909
भार्या	-11.3911
▁सूप	-11.3912
िनौ	-11.3914
स्थितो	-11.3916
▁वंगु	-11.3917
ढा	-11.3917
▁ग्राह्या	-11.3921
मधुना	-11.3921
ग्य	-11.3921
▁मिसा	-11.3922
ग्राहक	-11.3923
वैर	-11.3924
विलक्षण	-11.3925
▁पठितम्	-11.3925
▁प्राति	-11.3925
मागम	-11.3925
सिद्धत्वात्	-11.3926
चित्रं	-11.3927
▁मेल	-11.3927
▁बैठक	-11.3929
ाख्ये	-11.3929
जातिः	-11.3929
Í	-11.3929
▁औद्योगिक	-11.3929
▁नामरूप	-11.393
च्छति	-11.393
ठे	-11.393
वैषम्य	-11.393
▁यन्म	-11.3931
प्रस्तुत	-11.3934
अङ्ग	-11.3934
न्त्र	-11.3934
▁प्राधान्यं	-11.3934
्मा	-11.3935
▁2009	-11.3936
▁समन्त	-11.3937
दीप्त	-11.3938
▁शास्त्रे	-11.3938
ानुरूप	-11.3938
यौवन	-11.394
▁संपूज्य	-11.3942
go	-11.3942
जन्मनि	-11.3943
▁आशु	-11.3943
भ्रान्त	-11.3943
स्तत्त्व	-11.3945
▁प्रस्तुति	-11.3946
र्चित	-11.3946
▁त्रिपुर	-11.3947
ालि	-11.3947
▁एमपी	-11.3948
▁चेदपि	-11.3948
▁शाश्वतः	-11.3948
कुसुम	-11.3951
▁ऋषय	-11.3951
माचर	-11.3951
कारा	-11.3951
ath	-11.3952
▁उपयोगिता	-11.3952
▁वेदाः	-11.3953
▁झा	-11.3954
▁देव्य	-11.3954
▁रसो	-11.3956
मीयते	-11.3957
भर्	-11.3958
▁धनस्य	-11.3958
▁प्रतिबन्धक	-11.3961
▁शस्त्रं	-11.3961
संहित	-11.3965
वृता	-11.3968
▁ऽथ	-11.3969
कस	-11.397
▁इत्युक्तः	-11.397
ळे	-11.3971
स्सु	-11.3972
ध्यते	-11.3973
प्ट	-11.3973
▁स्थापितः	-11.3979
▁९४	-11.398
पादे	-11.398
णात्	-11.3982
▁द्रक्ष्य	-11.3982
वसन्त	-11.3983
▁आकर्षण	-11.3986
ाङ्कित	-11.3987
▁स्मरन्	-11.3989
▁नरा	-11.3989
प्रतीक्ष	-11.3989
▁यज्ञेन	-11.3992
वारे	-11.3993
▁काञ्चन	-11.3993
▁चिकीर्ष	-11.3993
तय्गु	-11.3994
हार्य	-11.3994
रूपाय	-11.3995
▁जलद	-11.3995
ूर्	-11.3995
वचनानि	-11.3997
वर्तेत	-11.3997
▁इतीदं	-11.3998
त्यर्थः	-11.3999
▁कार्य्यं	-11.4
▁कर्म्मणि	-11.4
▁इकार	-11.4
▁समस्तं	-11.4001
▁रूक्ष	-11.4001
स्त्रय	-11.4003
▁शर्करा	-11.4004
▁संयत	-11.4005
ाऽहं	-11.4005
ुना	-11.4006
▁प्रवर	-11.4007
िणाम्	-11.4007
ऽस्मिन्	-11.4008
ia	-11.401
वानिति	-11.4011
▁प्रतिषिद्ध	-11.4013
▁आचरण	-11.4016
▁निश्	-11.4018
3.1	-11.4019
त्रयम्	-11.402
▁सम्प	-11.402
लुक	-11.402
भक्ष्य	-11.402
शास्त्रज्ञ	-11.4022
▁परिसर	-11.4022
▁मासिक	-11.4024
day	-11.4024
व्यञ्जन	-11.4024
▁गभीर	-11.4025
॑न्	-11.4025
फी	-11.4026
▁प्रार्थये	-11.4027
▁दुर्भाग्य	-11.4027
▁कूल	-11.4027
▁माष	-11.4028
▁कस्मा	-11.4029
▁दीर्घत्व	-11.403
वदति	-11.403
▁निवसन्ति	-11.4031
ननु	-11.4031
▁मुक्तिं	-11.4031
▁तथाप्य	-11.4034
▁स्पष्टं	-11.4035
स्वतः	-11.4036
▁व्यक्तित्व	-11.4036
▁ह्या	-11.4038
ादिवत्	-11.4038
▁२०१२	-11.404
ावे	-11.4041
नुभूयते	-11.4041
धर्मस्य	-11.4042
▁प्रतीक्षते	-11.4043
पद्	-11.4046
समाधि	-11.4046
▁क्रीडन्ति	-11.4048
▁जानन्	-11.4049
जातः	-11.405
धिकरणे	-11.4051
▁नित्ये	-11.4053
धारक	-11.4054
▁फलेषु	-11.4056
तयैव	-11.4057
▁१०८	-11.4058
कारणत्व	-11.4058
▁निर्वाण	-11.4058
▁निर्मितम्	-11.4059
▁ग्लानि	-11.4059
▁करणीय	-11.406
मिल	-11.406
कित	-11.4063
▁सदृशं	-11.4063
व्रता	-11.4063
ांस्तु	-11.4064
विश्वास	-11.4066
पीन	-11.4066
▁पितुर	-11.4066
▁विबुध	-11.4069
मस्तक	-11.407
स्तर्हि	-11.407
चत्वारिंश	-11.407
▁विप्राः	-11.4071
शिरा	-11.4071
नार्य	-11.4072
त्था	-11.4072
▁प्रथमम्	-11.4073
राज्यम्	-11.4074
लिख	-11.4075
▁भोक्ष्य	-11.4075
विविध	-11.4077
पीतये	-11.4078
▁कोऽयं	-11.4078
▁शिथिल	-11.4078
▁पंचम	-11.4078
▁झि	-11.4079
▁यावता	-11.4079
विभागस्य	-11.4079
▁एतत्ते	-11.408
▁अभिनन्दन	-11.4083
जानां	-11.4083
▁कुर्वते	-11.4084
वृत्तयः	-11.4086
▁तज्ज	-11.4087
२००	-11.4087
दानेन	-11.4088
▁प्रस्तर	-11.4089
▁भीता	-11.4089
ार्पण	-11.409
▁महतां	-11.409
▁अस्मद्	-11.409
रेष	-11.4092
कारिणः	-11.4094
▁धम्म	-11.4095
▁क्षमः	-11.4095
भिव्यक्त	-11.4095
▁समुद्रस्य	-11.4096
▁०५	-11.4098
रात	-11.4098
▁संहत	-11.41
▁विपद	-11.4103
▁भरे	-11.4104
▁सहितं	-11.4105
▁कृष्णस्य	-11.4106
ऽपर	-11.4108
▁जनय	-11.4108
▁रात्र्य	-11.4109
▁वट	-11.411
संयुक्ता	-11.4111
▁अनेकाः	-11.4113
▁यत्तत्	-11.4113
ेमे	-11.4114
ell	-11.4114
नित्यत्व	-11.4114
खेट	-11.4114
िन्द्रिय	-11.4115
▁विनियोग	-11.4116
▁अतस्त	-11.4117
▁वायव्य	-11.4117
▁शंकर	-11.4117
▁14.	-11.4118
ध्द	-11.4118
▁गुणो	-11.412
पङ्कज	-11.412
▁कस्मिंश्चित्	-11.4121
▁पुरस्तात्	-11.4121
oldid	-11.4121
▁प्रत्युत	-11.4121
काला	-11.4121
▁रणनीति	-11.4122
▁न्हापा	-11.4124
त्यादौ	-11.4124
▁विन्दति	-11.4125
निधे	-11.4127
▁तर्ह्य	-11.4127
▁विनाशाय	-11.4128
▁सर्वदैव	-11.4128
▁2008	-11.4128
▁परमेश्वरम्	-11.4129
ताडन	-11.4131
▁प्रतिपद्य	-11.4132
निवार्य	-11.4132
▁दीर्घा	-11.4133
▁2010	-11.4135
▁नये	-11.4136
▁सृ	-11.4137
विषम	-11.4137
▁हुत	-11.4137
द्राव	-11.4138
क्ष्यति	-11.4138
▁निरीक्ष्य	-11.4138
▁रक्षणीय	-11.4139
▁आपद	-11.4139
ापवाद	-11.4139
पद्येत	-11.4141
▁भोजने	-11.4142
▁एकवारं	-11.4142
Q	-11.4143
मैन	-11.4143
धर्मो	-11.4144
▁क्वचि	-11.4144
▁तद्वद्	-11.4146
स्पृष्ट	-11.4147
▁सम्भवन्ति	-11.4147
जरा	-11.4147
धारणा	-11.4148
▁जनकः	-11.4148
▁गदा	-11.4149
▁ऊन	-11.415
करम्	-11.4151
काणां	-11.4151
▁सत्यपि	-11.4152
▁तज्	-11.4152
िमे	-11.4157
कांक्ष	-11.4157
▁तद्ध	-11.4159
▁तदिह	-11.416
▁राज्ञे	-11.416
▁अपमान	-11.4161
रत्र	-11.4162
▁उस	-11.4162
रुक्त	-11.4164
ागमः	-11.4164
शते	-11.4164
लाभः	-11.4165
▁पन्थान	-11.4165
▁शस्त	-11.4165
जाना	-11.4166
पीडित	-11.4167
▁पृष	-11.4167
▁परिषद्	-11.4168
कोण	-11.4168
▁नभः	-11.4168
▁द्रष्ट	-11.417
यशस	-11.417
शुक्र	-11.4172
▁मूलतः	-11.4173
निश्चयः	-11.4174
सहस्त्र	-11.4176
ऽन्व	-11.4177
क्टर	-11.4179
▁जनताया	-11.4179
▁विपाक	-11.4181
विकल	-11.4181
▁वितर्क	-11.4182
▁श्रद्ध	-11.4182
हीति	-11.4185
उच्च	-11.4187
▁वर्षसहस्र	-11.4187
▁उत्स	-11.4188
सन्धान	-11.4189
▁सत्यमेव	-11.4194
▁अन्याय	-11.4195
▁अण	-11.4195
▁करोत्य	-11.4196
मस्माकं	-11.4197
▁ब्रूया	-11.4199
त्यु	-11.4199
▁हवामहे	-11.4199
सम्बन्धी	-11.4199
भागा	-11.4202
प्रकाशन	-11.4203
_4_	-11.4203
अधिक	-11.4203
▁औषधि	-11.4203
श्र्व	-11.4206
िए	-11.4208
▁संख्याः	-11.4208
बाई	-11.4209
प्रभा	-11.421
रुत	-11.421
▁यजते	-11.4211
ादुप	-11.4211
▁नीर	-11.4212
ालम्बन	-11.4213
-*	-11.4214
▁नतु	-11.4215
र्ड्	-11.4216
ोऽन	-11.4216
तत्परः	-11.4216
▁परिणत	-11.4217
▁सेनां	-11.4217
▁टक्के	-11.4218
सभ्यता	-11.4218
▁गमने	-11.4219
▁अद्वितीय	-11.422
वर्णस्य	-11.422
▁शाब्द	-11.422
▁नायिका	-11.422
▁धनधान्य	-11.4221
▁स्मृते	-11.4221
▁आशीर्वाद	-11.4221
▁रथे	-11.4222
▁यथाकामं	-11.4222
▁युरोप	-11.4222
पुंस	-11.4224
सप्तति	-11.4225
▁भुक्त्वा	-11.4226
साह	-11.4227
▁पुरतो	-11.4228
स्तथ	-11.4229
क्षं	-11.423
शून्ये	-11.423
परीत	-11.423
▁नेपाःया	-11.4231
▁हूँ	-11.4231
▁प्रतिपाद्यते	-11.4232
चारित्र	-11.4232
▁सदाचार	-11.4232
▁जनसङ्ख्या	-11.4232
गुरव	-11.4233
▁विद्यु	-11.4234
▁स्मरति	-11.4235
सै	-11.4235
▁सभायां	-11.4236
As	-11.4237
पित्त	-11.4238
▁मुमुक्षु	-11.4239
▁शृङ्ग	-11.4239
ऽधुना	-11.4241
▁भगवन्तं	-11.4243
ोपकार	-11.4243
▁निसर्ग	-11.4244
▁तोष	-11.4244
▁त्वन्	-11.4244
▁तवां	-11.4245
ियम	-11.4246
▁लट्	-11.425
..)	-11.425
▁at	-11.4251
रुध्य	-11.4252
▁कारणे	-11.4253
चरितं	-11.4257
माप्त	-11.4259
पाई	-11.426
योगस्य	-11.4263
▁विषयं	-11.4263
ोत्थित	-11.4265
परस्पर	-11.4265
ेश्वरस्य	-11.4266
भूयिष्ठ	-11.4267
दातव्य	-11.4267
▁ब्या	-11.4267
न्दो	-11.4268
शुद्धिः	-11.427
▁हसति	-11.4271
शीला	-11.4272
श्यते	-11.4273
विस्फोट	-11.4273
ड़े	-11.4277
▁परुष	-11.4277
याच्वंगु	-11.4278
नेता	-11.4279
▁विभूति	-11.4279
▁गृहेषु	-11.428
▁महाराष्ट्र	-11.4281
▁भद्रे	-11.4281
▁त्रास	-11.4284
▁यदहं	-11.4285
कर्तृत्व	-11.4285
▁अस्त्य	-11.4286
बहुल	-11.4286
▁त्वदीयं	-11.4287
▁सूर्योदय	-11.4287
ावास	-11.4288
▁प्रारंभ	-11.429
▁अशोक	-11.429
वर्तन्ते	-11.4293
पोष	-11.4293
भूतम्	-11.4293
जिज्ञास	-11.4293
▁पूजयेद्	-11.4294
▁दुःखिता	-11.4297
विज्ञाय	-11.4297
▁वीर्यं	-11.4297
रुत्	-11.4298
▁नयति	-11.4298
▁योगदानं	-11.4299
नेट	-11.4299
श्वान	-11.43
निल	-11.4301
▁वशे	-11.4301
सूत्रम्	-11.4304
▁उक्ताः	-11.4304
प्राप्तौ	-11.4305
स्त्येव	-11.4305
▁मध्यस्थ	-11.4306
ेच्छया	-11.4307
▁सागरे	-11.4308
व्यावृत्त	-11.431
वट	-11.431
ाऽभाव	-11.4311
ास्तीति	-11.4312
ासीन	-11.4313
▁केचि	-11.4315
▁title	-11.4316
wiki	-11.4316
▁ख्रीष्टाब्द	-11.4316
Exam	-11.4317
▁Nar	-11.4319
▁स्थातुं	-11.4319
▁इतरे	-11.4319
ायेति	-11.432
बुद्ध्या	-11.4321
▁पृच्छामि	-11.4322
स्थलं	-11.4322
▁सर्वशक्ति	-11.4323
▁वेब	-11.4323
▁ब्रूते	-11.4328
▁मध्याह्न	-11.4329
▁पुणे	-11.433
▁लब्धा	-11.433
▁त्रिज्या	-11.4331
गर्ज	-11.4331
▁प्रवर्त्त	-11.4332
▁बहुमत	-11.4334
▁तस्कर	-11.4335
▁व्याख्याता	-11.4337
▁निर्व	-11.4337
▁वसव	-11.4338
▁तवैव	-11.4338
▁आत्मनो	-11.4343
▁संभाषण	-11.4344
▁भूया	-11.4344
▁पयसा	-11.4345
▁पितु	-11.4345
▁पुरुषे	-11.4346
▁प्रथमतः	-11.4346
tion	-11.4347
▁अपूर्ण	-11.4348
▁वर्ण्यते	-11.4349
▁प्रतिष्ठितम्	-11.4349
▁मन्त्रिण	-11.435
▁काये	-11.435
ध्यवसाय	-11.435
कारिका	-11.4351
वन्द	-11.4352
काण्डे	-11.4354
▁सृष्टिः	-11.4356
चेतसा	-11.4357
▁प्रतिज्ञां	-11.4357
मन्तः	-11.4358
गृह्णा	-11.4358
▁युवान	-11.4358
AC	-11.4358
कुण्डल	-11.4359
क्षीयते	-11.4361
▁उपादान	-11.4361
▁त्वामेव	-11.4363
▁भागवत	-11.4364
▁महे	-11.4364
भाषत	-11.4366
▁मालव	-11.4366
▁चिन्तया	-11.4369
▁पदा	-11.437
लंकृत	-11.4371
▁भगवति	-11.4371
नेगु	-11.4371
▁तद्रूप	-11.4373
▁मकर	-11.4374
▁गच्छेत्	-11.4374
स्ताः	-11.4374
▁इत्युक्तं	-11.4375
▁प्रत्याहार	-11.4375
▁जन्मान्तर	-11.4375
पुरी	-11.4376
▁नित्यत्व	-11.4377
सल	-11.4377
कृपा	-11.4377
▁प्राप्नो	-11.4378
क्षौ	-11.4379
तीत्याह	-11.438
▁क्वचिद	-11.4381
▁व्यूह	-11.4383
▁अवा	-11.4385
▁सर्वोच्च	-11.4387
▁७७	-11.4387
वाँ	-11.4388
निदान	-11.439
ेंद्र	-11.439
▁मैत्र	-11.4392
सङ्घात	-11.4393
▁दक्षिणतः	-11.4395
सौभाग्य	-11.4398
घ्नं	-11.4399
किन्	-11.44
ट्स	-11.44
▁प्रमेय	-11.4401
▁वर्णानां	-11.4401
॑द	-11.4402
नीच	-11.4403
पंच	-11.4403
▁हरति	-11.4404
प्रपञ्च	-11.4405
▁पितृभ्य	-11.4407
प्युप	-11.4409
▁भारतदेश	-11.4409
ज्योतिः	-11.441
द्दश	-11.441
▁स्वभावः	-11.441
▁कमर	-11.4412
▁ठ्	-11.4412
▁अभ	-11.4414
▁ऑनलाइन	-11.4415
▁स्वनिगः	-11.4415
▁वार्तालाप	-11.4416
▁अष्टा	-11.4416
▁आकर्ष	-11.4416
▁स्तौति	-11.4417
▁स्थानेषु	-11.4417
ैरुप	-11.4417
गुल्म	-11.4417
▁यौवने	-11.4418
ज्याःगु	-11.4419
ेत्य्	-11.4419
प्रणाल	-11.442
▁वधू	-11.4422
▁समासे	-11.4427
▁आइ	-11.4427
हतः	-11.4428
▁प्रकाशितम्	-11.4429
▁भूम्या	-11.4429
▁सम्पदा	-11.4431
▁लिंग	-11.4432
भ्यन्तर	-11.4432
्येति	-11.4433
▁द्रष्टव्यः	-11.4433
त्रस्त	-11.4433
वदेव	-11.4435
कटाक्ष	-11.4436
▁आभूषण	-11.4436
▁तरी	-11.4436
▁अगर	-11.4436
▁कस्माद	-11.4437
▁व्याचष्टे	-11.4442
▁प्राप्तवती	-11.4442
▁वक्त	-11.4445
▁व्याघ्रः	-11.4448
▁किमिदं	-11.4448
▁जित्वा	-11.445
प्रहार	-11.4453
र्क्ष	-11.4453
सदृशः	-11.4455
▁अनुगमन	-11.4455
▁योषिता	-11.4456
चर्य	-11.4459
डल	-11.4459
ाधिकारे	-11.4461
जीवने	-11.4461
▁व्याज	-11.4461
▁लिप्	-11.4462
राट्	-11.4462
यानाच्वंगु	-11.4465
▁वायस	-11.4465
▁महेश्वरः	-11.4466
▁कुज	-11.4467
▁भवन्त्य	-11.4469
▁त्यजेत्	-11.4469
ान्तरा	-11.447
द्रव्यं	-11.4471
ेतद	-11.4471
▁दँ	-11.4471
धीते	-11.4471
मुष्य	-11.4474
मीह	-11.4476
▁विरुद्धं	-11.4476
भौतिक	-11.4477
▁साध्यते	-11.4478
▁लागिं	-11.4478
▁प्रख्यात	-11.4478
त्वान्	-11.4479
tu	-11.4479
▁कारयति	-11.448
विशन्ति	-11.4481
धारणं	-11.4482
नासिक	-11.4482
▁सञ्ज्ञा	-11.4482
सङ्गीत	-11.4482
▁अकाल	-11.4483
▁त्वामह	-11.4484
युक्तानि	-11.4485
▁त्यजति	-11.4486
▁जपेत्	-11.4487
ापयति	-11.4488
▁दीक्षित	-11.4488
जीवानां	-11.4489
कलाप	-11.4489
देवो	-11.449
क्ते	-11.449
समक्ष	-11.4492
▁आश	-11.4492
सज्ज	-11.4495
ामी	-11.4496
भूतानां	-11.4496
▁अरि	-11.4497
▁प्रतिदिनम्	-11.4498
▁कुर्युः	-11.4502
न्यतर	-11.4503
▁उमि	-11.4503
▁उल्	-11.4503
दि॒व	-11.4505
युगं	-11.4505
▁एकाधिक	-11.451
हण	-11.4511
संस्पर्श	-11.4512
▁उपधा	-11.4512
शार्दूल	-11.4512
पश्यत	-11.4513
कालात्	-11.4513
ru	-11.4514
▁रेस्तरां	-11.4515
▁गुरुत्वाकर्षण	-11.4515
▁सुझाव	-11.4515
वणिक्	-11.4515
सामीप्य	-11.4515
▁कठोर	-11.4515
▁अन्तर्भवन्ति	-11.4515
भिषिक्त	-11.4516
▁सूर्ये	-11.4516
सिद्धौ	-11.4516
▁प्रतिरोध	-11.4517
▁लेभे	-11.4517
▁मर्म	-11.4517
यॊग	-11.4518
▁२०७५	-11.4518
▁स्वैर	-11.4518
मन्यत	-11.4519
बद्धा	-11.4519
CO	-11.4521
▁चिन्तयेत्	-11.4522
▁समासतः	-11.4522
योगि	-11.4522
▁भार्गव	-11.4523
ाऽस्ति	-11.4524
▁तदुक्तम्	-11.4524
▁आवास	-11.4525
त्स्व	-11.4525
▁नेपालभाषा	-11.4525
मनस	-11.4525
▁घृतेन	-11.4525
▁प्रमाणेन	-11.4526
▁मनुष्याः	-11.4527
▁नष्टं	-11.4528
▁वासना	-11.453
ाधिकारिण	-11.453
▁जपे	-11.453
संभावन	-11.453
▁धियो	-11.4531
कीर्त	-11.4532
▁प्रतिष्ठिता	-11.4532
यान्ति	-11.4532
स्वरूपे	-11.4532
▁२०१९	-11.4532
▁विज्ञेयः	-11.4533
यक्ष	-11.4533
प्येवं	-11.4534
▁प्रवर्तन्ते	-11.4534
चेत	-11.4534
▁प्रचक्षते	-11.4535
▁मातृका	-11.4535
शाक	-11.4538
वर्त्म	-11.4538
▁कथंचन	-11.4541
तत्पुरुषः	-11.4541
▁भित्ति	-11.4543
▁नमस्	-11.4543
▁यानं	-11.4545
पृष्ठम्	-11.4545
▁भर्तृ	-11.4545
त्यस्य	-11.4546
▁मयैव	-11.4547
गुलि	-11.4547
मृज	-11.4548
▁वर्गःः	-11.4549
स्थानात्	-11.4549
▁कुत्स	-11.455
▁प्रमुच्यते	-11.4553
▁मध्यमः	-11.4553
▁तद्भाव	-11.4554
ानुसार	-11.4554
▁थें	-11.4556
श्श	-11.4557
न्तीं	-11.4557
भाषे	-11.4557
॒त्	-11.4558
र्थि	-11.4559
एफ	-11.456
वर्षस्य	-11.4561
ङग	-11.4562
ाज्	-11.4562
येयुः	-11.4562
ारब्ध	-11.4563
तुष्ट	-11.4564
लिप	-11.4564
▁सम्बन्धो	-11.4564
▁संगम	-11.4565
▁अन्धकार	-11.4565
वधारण	-11.4565
▁रावणः	-11.4565
▁बालिकाः	-11.4566
▁तमस	-11.4566
र्षे	-11.4566
विधानेन	-11.457
प्रणय	-11.457
▁स्वतन्त्रः	-11.4572
भागेन	-11.4572
०१३	-11.4573
नुमीयते	-11.4575
▁राघवः	-11.4575
▁ज्व	-11.4576
▁क्रियन्ते	-11.4576
ie	-11.4577
▁अधिकम्	-11.4577
हर्	-11.4581
होरा	-11.4582
ादिष्व	-11.4583
▁धीरः	-11.4584
▁अनर्थ	-11.4587
रेत	-11.4587
▁देवत	-11.4588
वासन	-11.459
▁सर्वेक्षण	-11.459
ारम्भः	-11.459
निर्मुक्त	-11.4592
पुत्रेण	-11.4593
▁सायक	-11.4593
धात्वर्थ	-11.4594
▁वाला	-11.4595
▁देशो	-11.4596
▁न्यसेत्	-11.4596
▁भावो	-11.4597
▁गायत्र	-11.4598
▁अद्यत्वे	-11.4598
▁भवन्	-11.4599
▁परित्यक्त	-11.4599
min	-11.4599
▁विशिष्टा	-11.4601
सर्ज	-11.4601
तिक्रम	-11.4602
▁दर्शितः	-11.4604
वार्य	-11.4604
▁उन्न	-11.4604
ज्यं	-11.4605
ink	-11.4607
पुन	-11.4612
▁प्रचोदयात्	-11.4616
▁क्रयविक्रय	-11.4616
▁संक्षेप	-11.4618
▁लॊके	-11.4618
▁नृणाम्	-11.4619
न्यू	-11.462
▁प्रयोजयेत्	-11.462
सम्बन्धः	-11.462
▁अम्ब	-11.4621
▁लेखनम्	-11.4621
▁परस्मै	-11.4621
▁मन्यमान	-11.4621
दंड	-11.4621
ावलोकन	-11.4622
▁आल	-11.4623
मीटर	-11.4623
▁उपन्यास	-11.4623
ेथ्	-11.4624
▁क्वचिदपि	-11.4624
▁स्वीक्रियते	-11.4626
▁पदेन	-11.4626
▁जुलै	-11.4626
यंत्र	-11.4627
▁निवर्तन्ते	-11.4628
पाखे	-11.4628
▁शत्र	-11.4628
▁गर्भवती	-11.4628
▁आशय	-11.463
ाङ्गं	-11.4631
हरु	-11.4631
दानी	-11.4632
कोट्य	-11.4634
▁प्रतिष्ठान	-11.4634
▁अन्यतमः	-11.4634
▁पिबन्ति	-11.4634
▁भारतीयानां	-11.4635
मेगु	-11.4635
रितं	-11.4636
▁बृहस्पति	-11.4636
▁परिहरति	-11.4636
००१	-11.4636
▁समीपस्थ	-11.4636
प्रापण	-11.4636
ासां	-11.464
15.	-11.4641
धिका	-11.4642
▁सप्ताहं	-11.4642
संसृष्ट	-11.4642
▁नानु	-11.4642
लङ्घन	-11.4643
चार्य	-11.4643
▁खँय्	-11.4644
▁परमात्मनः	-11.4644
▁भगवद्	-11.4644
ीदृश	-11.4644
ैतानि	-11.4645
विवेचन	-11.4646
▁तयाः	-11.4647
विरोधी	-11.4647
प्रार्थना	-11.4648
▁एवमुक्त्वा	-11.4649
प्रमुख	-11.4649
▁TV	-11.4649
-->	-11.465
▁मन्त्रिपरिषद्	-11.465
मभूत्	-11.4655
ard	-11.4655
▁विहार	-11.4655
शाप	-11.4656
नुमोद	-11.4657
▁प्रतिपन्न	-11.4657
▁पुरी	-11.4657
ृषि	-11.4659
▁पुनरावृत्ति	-11.466
वाप्य	-11.4661
▁इदमपि	-11.4661
यस्तु	-11.4662
वाट	-11.4662
बध्य	-11.4664
▁यद्य्	-11.4665
▁धनुः	-11.4668
बनाम	-11.467
ोत्तमः	-11.4672
▁येँ	-11.4672
▁विक्रिया	-11.4674
▁णिच्	-11.4676
▁Sa	-11.4676
संख्येय	-11.4677
▁मुद्र	-11.4677
पदवीं	-11.4678
▁८३	-11.4679
▁परिजन	-11.4681
▁हुं	-11.4681
-5	-11.4684
स्याप्य	-11.4685
कोष्ठ	-11.4688
ादिकम्	-11.4689
▁कस्याः	-11.469
चैतन्य	-11.469
▁भारतदेशस्य	-11.4691
दाव	-11.4691
▁स्थापयति	-11.4693
यित	-11.4694
कर्माण	-11.4694
मुक्तो	-11.4694
धारणे	-11.4695
ईश्वर	-11.4695
बोधन	-11.4695
संबन्धिन	-11.4695
▁साभार	-11.4696
▁मूक	-11.4698
▁९२	-11.4699
ाऽऽह	-11.4699
दीक्षा	-11.4699
ka	-11.4701
१०४	-11.4701
सलिल	-11.4703
कारके	-11.4704
संज्ञाया	-11.4705
▁निवेशन	-11.4705
ैकेन	-11.4707
वर्जिता	-11.4707
▁दीप्ति	-11.4707
▁आधि	-11.4708
▁कथयामास	-11.4708
▁फले	-11.471
जन्मनः	-11.4711
▁सर्वात्म	-11.4711
वली	-11.4711
▁जानीत	-11.4712
लृ	-11.4712
ेशन	-11.4713
▁उषा	-11.4713
▁चिन	-11.4715
▁नई	-11.4715
पश्यन्	-11.4715
न्नित्य	-11.4717
▁भारतवर्ष	-11.4717
▁प्रवर्तन	-11.4717
▁श्रुता	-11.4717
▁विवादः	-11.4717
▁बहि	-11.4718
नैमित्तिक	-11.4718
दैर्घ्य	-11.4718
कलत्र	-11.4718
▁प्रचण्ड	-11.4719
▁निर्मितमस्ति	-11.4721
▁निर्दिश्यते	-11.4721
▁ऋजु	-11.4721
रिच	-11.4722
----	-11.4722
▁जागर	-11.4723
नाशः	-11.4726
▁छाय्	-11.4727
कक्षा	-11.4728
क्ष्यामि	-11.4729
कत्वं	-11.4729
फ़्	-11.4729
स्तात	-11.4731
fi	-11.4732
▁वार्तिक	-11.4734
▁शिष्या	-11.4734
ाचार्यः	-11.4735
षष्टि	-11.4736
▁आप्त	-11.4737
विकि	-11.4738
▁उपविष्ट	-11.4739
मनसः	-11.474
वसे	-11.4742
स्तृतीय	-11.4744
ीनि	-11.4746
▁अधिष्ठान	-11.4748
भवता	-11.4748
▁प्राप्स्य	-11.4749
००५	-11.475
▁योगिनः	-11.4751
ुपादान	-11.4752
▁शिवाय	-11.4752
मतम्	-11.4753
दर्शी	-11.4753
▁यूरोप	-11.4755
कण्ड	-11.4756
▁विजित	-11.4756
गृहम्	-11.4756
वाग्	-11.4757
▁प्रथमवार	-11.4758
ूत	-11.4758
ार्ष	-11.4758
▁द्वाव	-11.4758
▁ततस्तु	-11.476
▁पोस्ट	-11.4762
▁अलि	-11.4763
लङ्क	-11.4763
▁तन्तु	-11.4763
▁विजयं	-11.4766
▁अभियुक्त	-11.4767
रूपी	-11.4768
निवृत्त्यर्थ	-11.4769
ुल	-11.477
शत्रू	-11.4771
क्षीण	-11.4772
IC	-11.4774
▁विद्म	-11.4777
ोदितम्	-11.4777
▁अस्मद	-11.4777
▁देशेषु	-11.4778
स्वातन्त्र्य	-11.4778
योनिः	-11.478
▁किञ्चि	-11.478
▁बुद्धिं	-11.4781
सुता	-11.4781
▁परमेश	-11.4782
स्मद्	-11.4782
BC	-11.4782
िभिर्	-11.4782
▁योद्धु	-11.4784
द्विप	-11.4785
▁सैनिकाः	-11.4785
▁पिष्ट	-11.4785
▁रास	-11.4785
न्यतम	-11.4788
ाक्षेप	-11.4789
मत्या	-11.4792
▁शुक्रः	-11.4792
वर्चस	-11.4793
खात	-11.4796
ादिभ्यो	-11.4796
जघान	-11.4796
ोऽप	-11.4797
▁मण्डले	-11.4797
नरः	-11.4799
▁धने	-11.4802
तनो	-11.4802
मित्युक्त	-11.4802
ग्ध	-11.4804
ागत्य	-11.4805
▁(19	-11.481
▁तत्कार्य	-11.4811
वर्ज्ज	-11.4811
सवर्ण	-11.4812
न्नृप	-11.4814
प्रतिहत	-11.4814
▁दिनेषु	-11.4814
vo	-11.4815
▁पदान्त	-11.4816
▁अभिप्रायः	-11.4817
▁येषा	-11.4818
▁परत्य	-11.4819
▁Shlok	-11.4821
ऌ	-11.4821
क्विप्	-11.4821
▁स्थगित	-11.4821
ब्रुव	-11.4821
▁शरुत्वा	-11.4822
दृशः	-11.4822
▁वीरः	-11.4822
▁भीमसेन	-11.4823
मिश्रित	-11.4824
▁नैवेद्य	-11.4825
▁प्रतिपाद्य	-11.4827
▁शीतलं	-11.4828
▁महोदया	-11.4829
▁सन्धिः	-11.4829
▁मेऽ	-11.483
भाषायाः	-11.483
रूपत्व	-11.4831
▁उत्थित	-11.4832
▁भगवन्त	-11.4833
▁आर्ष	-11.4833
▁समासेन	-11.4836
▁रेल	-11.4838
▁सम्भूत	-11.484
▁विचक्षणः	-11.4841
▁श्रीकृष्ण	-11.4844
▁योजयेत्	-11.4844
▁क्रियापद	-11.4844
▁मन्त्रालय	-11.4845
वापि	-11.4845
▁तदेक	-11.4847
▁निर्गम	-11.4848
▁वर्तमानसूत्र	-11.4848
ight	-11.485
▁एफ	-11.485
▁विकल्पो	-11.4851
▁११०	-11.4853
सदस्यःः	-11.4854
▁रूपक	-11.4855
तपः	-11.4855
▁नित्यमेव	-11.4857
ेष्यते	-11.4858
ever	-11.4858
▁पूरक	-11.486
विश्रान्त	-11.4864
परायणाः	-11.4865
वसर	-11.4865
▁पार्थिवः	-11.4866
▁तमसो	-11.4867
▁पतिता	-11.4867
प्रतिष्ठित	-11.4867
स्याऽ	-11.4868
माकाश	-11.4869
▁करौ	-11.487
▁माध्यमेन	-11.487
▁ऋ०	-11.4871
▁सम्पादित	-11.4872
यितुम	-11.4877
▁विशां	-11.4877
नायकः	-11.4878
▁प्रकटित	-11.4878
▁जनानाम्	-11.4878
पुष	-11.4878
▁Sanskrit	-11.4879
विनय	-11.488
वृत्तेः	-11.4882
यज्ञः	-11.4884
▁एद	-11.4884
सङ्केत	-11.4886
▁आरभ्यते	-11.4886
ैवेति	-11.4888
▁दोषं	-11.4889
▁दीर्घो	-11.4889
यन्तं	-11.489
पेश	-11.4893
संध्य	-11.4896
▁कर्मकर	-11.4897
पादयति	-11.4897
एषा	-11.4898
११७	-11.49
▁अनुचित	-11.49
संख्यात	-11.4902
▁जानीमः	-11.4902
योरेक	-11.4903
▁राजन्न	-11.4906
▁ततस्ते	-11.4906
हस्तं	-11.4909
▁उद्यत	-11.491
▁अनुग्रह	-11.4911
▁हरः	-11.4912
▁धेहि	-11.4912
du	-11.4912
मेध्य	-11.4913
कार्येषु	-11.4913
क्रान्ति	-11.4913
सूनु	-11.4913
▁सौवर्ण	-11.4914
iz	-11.4914
▁विपश्चित	-11.4915
भीरु	-11.4915
ूर्ध्व	-11.4916
कर्मणाम्	-11.4916
थेति	-11.4917
ाध	-11.4918
ुच्च	-11.4918
ुदक	-11.4918
ब्ल	-11.4921
▁वर्षान्त	-11.4921
नारायण	-11.4922
धार्मिक	-11.4922
▁अशुभ	-11.4922
सिंहः	-11.4922
लिप्स	-11.4923
▁अनिष्ट	-11.4923
कील	-11.4923
भूतानि	-11.4923
निर्णयः	-11.4923
▁स्वकीयं	-11.4925
नख	-11.4925
̄	-11.4925
▁कत्र्तव्य	-11.4925
▁तच्छ्रुत्वा	-11.4925
वगाह	-11.4925
न्मे	-11.4925
▁मारीच	-11.4925
▁अभयारण्य	-11.4925
▁द्राक्षा	-11.4926
पार्श्वे	-11.4926
▁सोम्य	-11.4927
्वैव	-11.4928
▁परित्यज	-11.4929
च्छत	-11.4929
द्विर्वचन	-11.4929
▁नद्य	-11.493
▁जनगणना	-11.4931
▁ग्राह्यं	-11.4931
व्यतिरेक	-11.4931
}}	-11.4931
मुल	-11.4932
स्सं	-11.4932
▁ईक्ष	-11.4933
त्वया	-11.4934
▁साहसं	-11.4934
▁सम्मिलित	-11.4934
▁संवेदनशीलता	-11.4934
▁ज्ञाता	-11.4935
थै	-11.4935
▁अपृच्छत्	-11.4935
रूपां	-11.4938
नाटक	-11.4938
▁रजनी	-11.4939
्महे	-11.4941
▁निषेधः	-11.4942
▁मध्यमं	-11.4943
▁मान्यता	-11.4943
ायात	-11.4943
▁मघ	-11.4944
▁कर्त्तुं	-11.4944
▁विरुध्यते	-11.4945
क्षिप्य	-11.4945
ure	-11.4945
भोक्त	-11.4945
▁सुप्रभातम्	-11.4945
▁51	-11.4945
ात्पूर्व	-11.4946
▁शनि	-11.4946
▁विकल	-11.4947
धिया	-11.4947
ाभिषेक	-11.4948
रित्यर्थः	-11.4948
भगवान्	-11.4949
▁तदिति	-11.495
▁आसीन	-11.495
▁$1	-11.4951
▁लाभे	-11.4951
[...]
