<unk>	0
<s>	0
</s>	0
▁।	-3.17902
ं	-3.70067
ः	-3.90165
े	-4.36904
▁न	-4.39357
ा	-4.51512
▁-	-4.59841
▁॥	-4.6197
▁च	-4.78015
म्	-4.93187
▁"	-5.00275
▁	-5.00447
ो	-5.00693
▁,	-5.10515
▁स	-5.22768
▁(	-5.36353
▁इति	-5.37091
।	-5.38795
▁.	-5.39456
स्य	-5.51933
.	-5.61366
ि	-5.65149
,	-5.66772
▁ः	-5.69435
▁वा	-5.71179
ी	-5.72103
▁अ	-5.74878
म	-5.7589
)	-5.77956
▁'	-5.80134
▁तु	-5.81665
-	-5.89698
▁एव	-5.9396
ेन	-5.99522
▁ं	-6.00697
▁ते	-6.0175
▁हि	-6.04487
ति	-6.05991
त	-6.07907
ाः	-6.0919
्	-6.11675
▁?	-6.22214
▁म	-6.24863
▁यथा	-6.28101
्य	-6.31734
▁प्र	-6.33286
न	-6.36704
क	-6.36858
▁वि	-6.43109
▁ा	-6.43552
▁म्	-6.44648
▁_	-6.44867
▁भवति	-6.46071
▁या	-6.48558
न्	-6.48976
▁व	-6.49001
र्	-6.51083
▁त	-6.52069
▁मे	-6.54485
या	-6.55123
ाय	-6.55705
▁तथा	-6.56098
ौ	-6.56385
▁आ	-6.57077
▁य	-6.57481
▁स्व	-6.59729
▁)	-6.6078
▁तस्य	-6.63476
▁प्रति	-6.63735
र	-6.65926
▁यदि	-6.67883
▁अपि	-6.68317
▁किं	-6.68559
▁स्य	-6.68681
ात्	-6.69301
▁सा	-6.732
▁सर्व	-6.73349
▁मा	-6.75078
▁तत्	-6.76817
ानि	-6.77535
ते	-6.77601
य	-6.77922
▁क	-6.78004
▁मम	-6.78819
▁अस्ति	-6.78867
▁नाम	-6.82628
ता	-6.83018
▁सु	-6.83149
स्	-6.83522
▁सं	-6.83995
त्	-6.86416
▁े	-6.86968
ानां	-6.87507
तः	-6.8887
॒	-6.89496
▁तत्र	-6.91158
व	-6.91735
▁!	-6.91806
ना	-6.91932
▁एवं	-6.92414
▁यत्	-6.92894
▁पर	-6.94609
▁र	-6.95358
▁पुनः	-6.95711
▁वै	-6.97757
▁त्वं	-6.9949
ेण	-7.01162
▁प	-7.01386
▁यो	-7.0139
▁ये	-7.02832
ल	-7.02849
▁ो	-7.03262
▁सह	-7.04159
द	-7.04587
ैः	-7.0603
ेषु	-7.06391
▁ऽ	-7.07996
स	-7.08839
॑	-7.09193
▁२	-7.11225
ान्	-7.12606
▁--	-7.12955
▁तं	-7.14332
▁१	-7.14338
▁तदा	-7.15261
प	-7.15311
▁श्च	-7.16524
▁ततः	-7.16757
▁/	-7.1824
▁तेन	-7.18272
▁नि	-7.19144
▁__	-7.19319
▁तव	-7.21098
▁के	-7.21651
▁अथ	-7.22152
श्च	-7.22516
▁[	-7.23186
▁तद्	-7.23304
▁का	-7.23526
▁ह	-7.25339
▁परि	-7.26015
▁=	-7.26412
▁सः	-7.26614
१	-7.27262
:	-7.28221
पि	-7.29308
ह	-7.29523
श	-7.29811
▁ता	-7.29929
▁देव	-7.30033
▁कर्म	-7.30153
०	-7.31259
▁एक	-7.31433
▁यः	-7.32394
▁द	-7.32628
ग	-7.34865
▁त्व	-7.34993
▁अत्र	-7.35867
२	-7.35934
▁मया	-7.36048
▁ना	-7.39901
▁कथं	-7.41201
गु	-7.41832
▁धर्म	-7.41918
▁पूर्व	-7.41958
द्	-7.42258
नि	-7.42946
▁३	-7.45795
थ	-7.47246
ु	-7.47361
'	-7.48477
ॊ	-7.48727
▁ति	-7.48763
ादि	-7.49288
▁हे	-7.50212
▁अहं	-7.50923
ित	-7.51109
▁+	-7.51262
▁उप	-7.51529
▁स्	-7.51928
मा	-7.51988
▁तद	-7.52334
ज	-7.52703
▁सम	-7.52946
▁श	-7.53837
▁उ	-7.54608
▁ि	-7.54853
?	-7.55193
▁यत्र	-7.55374
सि	-7.55477
▁देश	-7.56453
▁्	-7.56623
्या	-7.57373
तो	-7.57522
▁;	-7.57672
ण	-7.57806
▁गुण	-7.58082
न्ति	-7.58158
अ	-7.59881
िक	-7.59943
▁ॐ	-7.60642
▁४	-7.6065
वि	-7.61575
]	-7.61921
▁वर्ष	-7.62142
▁इ	-7.64336
▁स्यात्	-7.65142
▁सर्वे	-7.65909
▁र्	-7.66732
▁यदा	-7.66768
▁कः	-7.67184
▁आसीत्	-7.67902
▁५	-7.67912
▁पि	-7.69017
▁ज्ञान	-7.691
▁अतः	-7.69746
ट	-7.70398
s	-7.7052
▁पद	-7.70521
▁दु	-7.70585
▁काल	-7.71
त्र	-7.71356
▁स्तु	-7.72164
▁मध्ये	-7.73557
▁नमः	-7.7397
▁*	-7.73976
य्	-7.74047
▁करोति	-7.74716
▁को	-7.75288
ने	-7.76249
ीय	-7.7678
॥	-7.77622
▁ज	-7.77845
▁ग	-7.78282
▁ी	-7.78415
नं	-7.79304
त्य	-7.79505
ै	-7.79576
▁ए	-7.80016
▁तः	-7.80058
▁शब्द	-7.80739
▁भवेत्	-7.81351
▁तेषां	-7.81367
▁६	-7.81374
▁ैः	-7.83282
▁अस्य	-7.83751
भ	-7.83779
▁मां	-7.83853
▁महा	-7.83891
▁कार्य	-7.84001
च	-7.84265
▁भाव	-7.84407
▁वर्तते	-7.84499
▁तां	-7.84661
तु	-7.85148
▁यस्य	-7.85232
मेव	-7.85863
सु	-7.85898
ये	-7.85943
▁ानां	-7.86301
▁तर्हि	-7.86881
ष	-7.87896
ब	-7.88095
▁सदा	-7.88643
▁अनु	-7.88672
▁इदं	-7.88764
▁1	-7.89026
ैव	-7.89277
"	-7.8938
▁स्म	-7.89578
यति	-7.8979
▁इव	-7.89909
▁वयं	-7.89972
▁वर्षे	-7.90311
▁जन	-7.90343
▁ादि	-7.90529
▁येन	-7.91464
▁भविष्यति	-7.91477
▁राज	-7.91721
▁विश्व	-7.91912
३	-7.92123
▁८	-7.92144
▁दश	-7.92278
नु	-7.92319
▁यद्	-7.9248
▁अन्य	-7.92884
▁कृत	-7.93357
▁प्रथम	-7.93557
▁सन्ति	-7.9378
▁फल	-7.94244
▁:	-7.94263
▁भाषा	-7.94337
प्र	-7.94364
▁काले	-7.94433
▁ौ	-7.94454
/	-7.94891
क्	-7.95267
ेति	-7.95463
सं	-7.95815
▁भव	-7.95822
▁बहु	-7.95879
▁नो	-7.96007
▁त्रि	-7.9624
यां	-7.96829
▁ेति	-7.9706
▁इत्य	-7.97205
▁पुत्र	-7.97375
▁इह	-7.97392
४	-7.97435
▁अयं	-7.97526
▁ात्	-7.97719
▁अभि	-7.98404
▁कृत्वा	-7.98464
▁मेव	-7.9853
▁वेद	-7.98563
▁ेषु	-7.98699
▁ाय	-7.99018
▁और	-7.99064
▁ख	-7.99896
रा	-8.00253
का	-8.00588
ड	-8.00639
▁जल	-8.00958
▁ततो	-8.01554
▁विना	-8.01849
▁तो	-8.01877
▁नास्ति	-8.01939
▁सर्वं	-8.02066
▁ल	-8.02147
▁कर	-8.02205
स्तु	-8.02341
▁अर्थ	-8.02393
ख	-8.02673
▁काम	-8.03157
कार	-8.03179
▁केवलं	-8.03217
▁लोक	-8.03904
वान्	-8.03971
▁रूप	-8.04265
ल्	-8.04925
ध	-8.04968
▁सि	-8.05049
▁s	-8.0507
▁शक्ति	-8.05212
▁राजा	-8.05713
घ	-8.05802
▁पुनर्	-8.05972
▁छ	-8.06226
▁रे	-8.06324
▁ब	-8.0691
▁परं	-8.07292
▁ु	-8.07522
▁७	-8.07794
▁ाः	-8.07816
▁नु	-8.0813
ाणां	-8.08599
▁ण	-8.08655
कं	-8.08735
▁पाप	-8.08916
▁सप्त	-8.08956
▁विषय	-8.09353
▁एतत्	-8.09647
वा	-8.09808
▁तया	-8.09922
के	-8.10291
▁क्रिया	-8.10343
▁त्वा	-8.10658
▁विद्यते	-8.10979
▁यं	-8.11352
▁अव	-8.11409
▁स्त्री	-8.11513
▁मिति	-8.11769
▁जन्म	-8.11788
▁अत	-8.11996
ू	-8.12207
ेव	-8.1222
▁सामान्य	-8.12488
ाद्	-8.1249
▁केवल	-8.1298
▁2	-8.13155
▁किम्	-8.13225
▁नैव	-8.14069
▁भ	-8.14097
▁न्	-8.14235
▁ान्	-8.14911
▁पञ्च	-8.14983
▁अप	-8.15049
▁ई	-8.15187
भिः	-8.15335
▁धन	-8.15448
r	-8.15779
▁ध	-8.15923
▁तम	-8.15927
मिति	-8.16513
▁जीव	-8.16723
यः	-8.1679
▁ानि	-8.1704
i	-8.17184
▁एष	-8.17351
▁दृश्यते	-8.17404
▁खः	-8.17428
▁कृते	-8.1786
षु	-8.18177
▁गृह	-8.18322
रि	-8.18894
▁कु	-8.19045
▁अति	-8.19207
याः	-8.19241
सा	-8.1944
सी	-8.19629
त्व	-8.19709
च्	-8.19804
ती	-8.19814
▁दृष्ट्वा	-8.1987
▁यद	-8.20011
▁विशेष	-8.20186
▁सर्वत्र	-8.20269
▁तमे	-8.20336
▁आह	-8.20355
▁१०	-8.20568
▁दुःख	-8.20781
▁९	-8.21125
ला	-8.21491
ामि	-8.21846
ाणि	-8.22436
▁ह्य	-8.22676
श्	-8.22845
▁S	-8.22849
स्त	-8.22887
ार्थ	-8.22913
ष्ट	-8.2319
मि	-8.23529
▁ऽपि	-8.23529
▁तर	-8.23601
▁मु	-8.24155
ँ	-8.24269
▁दि	-8.24689
▁विषये	-8.24801
▁भाग	-8.24905
▁3	-8.2506
न्त	-8.25257
▁निर्	-8.25323
च्छ	-8.2543
से	-8.25451
▁...	-8.25664
▁कार्यं	-8.25866
▁सूचना	-8.26509
दा	-8.26574
५	-8.26583
ेत	-8.26623
▁स्थान	-8.26689
▁राज्य	-8.26887
िका	-8.27181
a	-8.2743
▁मन	-8.27532
▁गत	-8.27807
योः	-8.27854
▁मान	-8.28263
▁थ	-8.28406
▁त्य	-8.28972
्यते	-8.29494
▁पूर्ण	-8.29584
भि	-8.29737
▁कि	-8.29863
▁त्वया	-8.30181
िता	-8.30337
▁वस्तु	-8.30478
▁॒	-8.30648
▁ार्थ	-8.30897
इ	-8.3091
धि	-8.31397
▁जायते	-8.31465
▁समा	-8.31756
▁॑	-8.31896
▁वर्ण	-8.31997
▁पाद	-8.32207
1	-8.32434
▁पुरुष	-8.32474
▁अन	-8.32656
▁सुख	-8.32668
यो	-8.32716
लि	-8.32757
▁चेत्	-8.33265
▁अभवत्	-8.33387
▁संशयः	-8.33957
▁यज्ञ	-8.34054
▁व्य	-8.34292
वे	-8.3433
▁दोष	-8.34367
▁भारत	-8.34617
▁रस	-8.34808
__	-8.34862
▁केन	-8.35156
स्व	-8.35417
▁्य	-8.35584
▁इत्यादि	-8.35625
▁अस्मिन्	-8.35674
▁सत्य	-8.35967
▁यत	-8.36045
▁ला	-8.36088
▁यां	-8.3625
▁5	-8.36399
▁भि	-8.3654
▁योग	-8.36747
▁यतः	-8.36785
▁सम्	-8.36825
▁भाषण	-8.36965
▁भवन्ति	-8.37032
▁मपि	-8.38126
▁प्राण	-8.38156
▁भावः	-8.38206
▁वन	-8.38269
पा	-8.38448
रु	-8.38509
▁स्त	-8.38642
णा	-8.38745
▁प्राप्त	-8.38768
▁नित्यं	-8.3877
▁याः	-8.38835
▁विद्या	-8.39084
▁4	-8.39131
▁नियम	-8.39207
दि	-8.39332
▁स्वयं	-8.39519
▁8	-8.3973
▁बल	-8.39891
▁सन्	-8.40065
▁परा	-8.40361
ान	-8.40523
▁त्	-8.40539
८	-8.40612
▁संख्या	-8.40638
▁नव	-8.4109
कः	-8.41187
▁त्वात्	-8.41246
▁विधि	-8.4143
रे	-8.4148
ङ्ग	-8.41482
▁अद्य	-8.41735
▁द्वारा	-8.42365
ाव	-8.42583
▁प्रश्न	-8.42648
▁पूर्वं	-8.42932
▁११	-8.43186
▁जनाः	-8.43254
▁पुं	-8.43946
▁क्रियते	-8.44015
▁श्री	-8.44204
▁की	-8.44214
▁उत्तर	-8.44247
e	-8.44293
▁चा	-8.44389
▁यम	-8.44462
धा	-8.44919
▁कार	-8.4492
▁देशे	-8.45115
री	-8.45159
▁पुनर	-8.452
▁तथापि	-8.45329
येत्	-8.45671
▁अन्यथा	-8.45786
ाद	-8.46056
▁>	-8.46274
▁सूर्य	-8.46557
क्ष	-8.46655
▁दा	-8.46664
ट्	-8.46685
▁भूत	-8.46706
▁भेद	-8.46823
▁शक्यते	-8.46884
▁दे	-8.46976
▁ोप	-8.46984
मान	-8.47183
o	-8.47208
▁गो	-8.47227
▁अधिक	-8.47307
ङ्	-8.47323
▁विभाग	-8.47548
नी	-8.47586
▁तौ	-8.47685
▁वद	-8.47754
▁ेन	-8.47888
2	-8.48167
▁लोके	-8.48192
▁शत	-8.48213
▁कारण	-8.48257
▁१२	-8.48372
▁पा	-8.48422
▁भू	-8.48451
▁वर	-8.48488
▁एते	-8.48648
▁]	-8.48739
▁पक्ष	-8.48762
आ	-8.48809
६	-8.48868
▁रूपेण	-8.48934
▁ब्रह्म	-8.49279
न्ते	-8.49315
▁---	-8.49463
▁रूपं	-8.49535
▁संयुक्त	-8.49834
वत्	-8.50013
▁योः	-8.50053
▁चैव	-8.50081
ऽ	-8.50326
ोप	-8.50387
ैर्	-8.50476
▁तस्मात्	-8.50674
d	-8.50744
▁तत	-8.50801
▁पु	-8.50823
▁प्रा	-8.51313
▁परीक्षा	-8.51617
▁संस्कृत	-8.51981
▁मुख्य	-8.52039
▁एकः	-8.52333
--	-8.52569
▁सो	-8.53059
▁अस्माकं	-8.53236
▁मूल	-8.53401
▁फलं	-8.53766
▁समान	-8.53858
▁दिन	-8.53958
तां	-8.53962
▁कं	-8.53973
तया	-8.54009
मपि	-8.54031
७	-8.54101
▁उच्यते	-8.54181
च्च	-8.54213
▁ष	-8.54327
▁श्	-8.54369
▁किन्तु	-8.54414
▁भवतः	-8.5493
▁२०	-8.54968
ापि	-8.55165
▁भारतीय	-8.5547
▁ओ	-8.55486
▁१४	-8.55663
न्य	-8.55819
▁10	-8.55856
▁अथवा	-8.55891
कर	-8.5627
▁पी	-8.56553
▁रि	-8.56632
▁नित्य	-8.56928
▁त्वम्	-8.56954
▁शिव	-8.57141
▁इत्यस्य	-8.57247
3	-8.57249
▁ज्ञानं	-8.57755
▁#	-8.57882
▁मन्त्र	-8.57944
▁मि	-8.57994
▁हस्त	-8.58031
▁त्वेन	-8.58357
▁कृतं	-8.58558
▁परम	-8.58562
▁जा	-8.5876
▁वो	-8.59114
▁सोम	-8.59186
▁पिता	-8.5922
▁१८	-8.59297
९	-8.59327
▁6	-8.5962
t	-8.59742
▁दक्षिण	-8.5993
▁()	-8.60113
▁गृहे	-8.60573
▁द्वि	-8.60573
▁दृष्ट	-8.60655
चि	-8.60719
ए	-8.6073
▁भय	-8.60884
▁त्वां	-8.60908
▁द्वादश	-8.60939
▁कोई	-8.60982
▁लक्षण	-8.61035
▁पृष्ठानि	-8.61037
▁ॊ	-8.61046
▁क्षेत्र	-8.61121
▁१५	-8.61139
▁स्थ	-8.61417
▁रा	-8.61981
▁मनो	-8.6216
▁भवान्	-8.62209
▁न्य	-8.62354
▁वत्	-8.62379
▁पुरा	-8.62461
▁दृश्य	-8.62583
▁गण	-8.62613
▁हर	-8.62746
▁कुल	-8.62776
▁से	-8.62989
▁मुक्त	-8.63066
m	-8.63716
ितः	-8.63741
▁कथा	-8.63751
▁शरीर	-8.63844
▁सी	-8.6385
▁7	-8.63868
▁युक्त	-8.63896
॰	-8.64164
हं	-8.64418
▁देवा	-8.64531
▁देह	-8.64592
▁लाभ	-8.64693
▁समुद्र	-8.64697
▁शेष	-8.64727
▁तथैव	-8.64936
ई	-8.6528
▁ै	-8.66014
▁ाद	-8.66096
▁9	-8.66271
▁करण	-8.6645
▁प्रधान	-8.66731
▁१७	-8.66767
▁अनेन	-8.66922
▁A	-8.67146
▁प्रत्यय	-8.6733
4	-8.67644
▁I	-8.67835
▁अनुसंधान	-8.67945
c	-8.68033
▁प्रयोग	-8.68056
प्	-8.68089
▁यावत्	-8.68101
▁राम	-8.68236
र्थ	-8.6831
ङ	-8.68321
▁सर्वेषां	-8.68737
▁क्रम	-8.68797
▁कस्य	-8.68801
▁द्वितीय	-8.68856
▁गा	-8.68857
▁सति	-8.68976
▁राष्ट्र	-8.69269
▁कारणं	-8.69395
न्न	-8.69587
▁ननु	-8.69636
▁विज्ञान	-8.69668
▁देवता	-8.69681
▁यतो	-8.70345
▁वे	-8.70579
▁भगवान्	-8.70593
▁सूत्र	-8.70652
▁मात्र	-8.70828
▁प्रत्यक्ष	-8.7085
▁कुर्वन्ति	-8.70853
8	-8.70952
▁व्रत	-8.70969
▁गुरु	-8.71039
▁क्व	-8.71159
▁विकास	-8.71346
▁शुभ	-8.71414
यं	-8.71485
त्वात्	-8.71501
▁माता	-8.71888
ली	-8.71891
▁यात	-8.71989
▁मध्य	-8.72087
▁सहस्र	-8.72093
▁a	-8.72141
▁रु	-8.72165
▁19	-8.72196
▁विकल्प	-8.72204
▁शब्दः	-8.72249
▁1.	-8.72381
▁प्राप्नोति	-8.72841
▁एत	-8.72848
▁पाठ	-8.72874
▁कल्प	-8.72919
▁तस्मिन्	-8.73125
▁B	-8.73151
▁गतः	-8.73192
▁सर्वदा	-8.73199
▁शास्त्र	-8.73279
▁मार्ग	-8.73314
▁भिः	-8.73427
▁घट	-8.736
p	-8.73664
9	-8.73669
▁खलु	-8.737
ाह	-8.7374
▁मनु	-8.73903
▁मह	-8.74046
▁द्	-8.7405
▁वेबसाइट	-8.74072
▁ैव	-8.74133
▁इदानीं	-8.74206
▁गति	-8.74284
ेत्	-8.74349
▁अधिकतम	-8.74447
▁समय	-8.74517
▁स्वरूप	-8.74605
्वा	-8.74674
▁निज	-8.74679
▁घ	-8.7469
▁वर्तमान	-8.74923
▁१६	-8.74927
▁मित्र	-8.7495
हि	-8.75279
▁ग्रह	-8.75314
0	-8.7541
▁एषा	-8.75845
▁C	-8.75846
ज्	-8.75933
▁ैर्	-8.75966
▁सिद्ध	-8.7631
▁ाद्	-8.7633
▁है	-8.7635
र्य	-8.76462
▁कृता	-8.76484
उ	-8.76767
▁प्रकाश	-8.76791
▁इत्यर्थः	-8.76833
ोऽ	-8.76848
▁स्थाने	-8.76909
▁गु	-8.77021
▁भा	-8.77197
▁ित	-8.77255
▁य्	-8.77385
▁१३	-8.77399
▁पृष्ठ	-8.77405
▁रोग	-8.77472
तर	-8.77664
▁र्थ	-8.77695
▁विचार	-8.77724
भूत	-8.77737
▁ध्यान	-8.77776
▁एका	-8.77973
▁कर्तुं	-8.78004
जा	-8.7822
स्थ	-8.78394
▁ञ्च	-8.7841
▁रक्ष	-8.78467
▁क्षण	-8.7868
▁स्या	-8.78757
▁लघु	-8.78879
▁कला	-8.78955
y	-8.79128
यन्	-8.79219
▁स्वप्न	-8.79295
▁हृदय	-8.79363
रो	-8.79462
5	-8.79477
▁तम्	-8.79623
▁अधिनियम	-8.79682
▁बाल	-8.79761
मु	-8.80023
▁रथ	-8.80127
▁क्ष	-8.80156
▁तत्त्व	-8.80239
▁अग्नि	-8.80297
▁हो	-8.80536
▁हेतु	-8.80845
▁यति	-8.81127
द्य	-8.81206
▁प्रमाण	-8.81254
▁दान	-8.81604
▁स्थित	-8.81612
▁भिन्न	-8.81854
▁माया	-8.8197
▁सर्व्व	-8.81999
u	-8.82228
ाम	-8.82308
फ	-8.82546
ण्ड	-8.82645
▁मास	-8.82649
ञ्च	-8.82731
▁युद्ध	-8.82797
▁वाक्य	-8.82952
▁बुद्धि	-8.82977
▁पर्वत	-8.83053
▁प्रत्य	-8.8314
▁भविष्य	-8.83173
व्य	-8.83258
7	-8.83308
▁वृक्ष	-8.83511
▁द्रव्य	-8.83616
▁शत्रु	-8.83846
त्वं	-8.83893
लं	-8.83941
▁तस्या	-8.84083
न्द	-8.84221
जन	-8.84304
;	-8.84843
▁प्रजा	-8.84869
नः	-8.84896
▁अधिकार	-8.85269
▁गते	-8.85314
▁पुण्य	-8.85778
▁मध्यम	-8.85857
▁समाचार	-8.85859
▁ैक	-8.86039
▁प्रभाव	-8.86116
ानु	-8.86117
▁श्रुत्वा	-8.86131
▁संसार	-8.86207
भाव	-8.86313
▁व्या	-8.86583
▁जात	-8.86704
▁दर्शन	-8.87108
▁मुख	-8.87146
▁प्राप्य	-8.87277
▁कदाचित्	-8.87459
▁प्रातः	-8.87734
्यं	-8.8777
▁ार्थं	-8.87927
▁विप्र	-8.88195
ग्	-8.88201
▁अहम्	-8.88305
▁यद्यपि	-8.88404
▁न्याय	-8.8842
▁सर्वा	-8.88438
यते	-8.88439
स्ति	-8.88586
▁प्रवेश	-8.88624
तम	-8.88775
नां	-8.88787
पी	-8.88789
पर	-8.88847
▁शुद्ध	-8.88857
न्तु	-8.88891
▁जगत्	-8.88919
▁प्रकृति	-8.88924
ड्	-8.88962
▁जय	-8.89027
▁18	-8.8922
▁वीर	-8.89469
वती	-8.89519
▁नां	-8.89613
▁2.	-8.89646
▁आत्म	-8.89807
▁लिङ्ग	-8.89937
▁प्रिय	-8.89993
▁गत्वा	-8.90027
▁विशिष्ट	-8.90074
▁नगर	-8.90265
▁दण्ड	-8.90305
▁मयि	-8.90333
▁यु	-8.9038
▁ट	-8.90538
▁कम	-8.90611
▁फ	-8.90631
▁कुरु	-8.90695
▁पूजा	-8.90697
▁इयं	-8.90706
वान	-8.90826
▁इन्द्र	-8.90832
▁अध्ययन	-8.90908
िनः	-8.90987
▁विशेषतः	-8.91132
▁ग्राम	-8.91472
S	-8.91507
▁दिवस	-8.91542
▁पदं	-8.91852
▁गर्भ	-8.91913
ठ	-8.91922
ार्थं	-8.91931
▁तेषु	-8.9197
▁भारतस्य	-8.92344
▁कृतम्	-8.92374
▁क्वचित्	-8.92582
▁ाव	-8.93223
▁चित्र	-8.93264
▁जि	-8.9337
▁चित्त	-8.93538
▁गच्छति	-8.93576
▁वायु	-8.93577
▁मनुष्य	-8.93598
gst	-8.93629
ज्ञ	-8.93643
l	-8.93717
रिति	-8.94056
!	-8.94077
▁साधन	-8.94141
▁त्वे	-8.94152
n	-8.94157
▁हरि	-8.94162
ितं	-8.94171
▁मद	-8.94186
▁जनवरी	-8.94277
▁स्थानं	-8.9472
ळ	-8.95104
▁वृद्ध	-8.95105
▁याति	-8.95194
▁मत	-8.95255
▁न्त	-8.95361
▁कृष्ण	-8.955
▁स्वर्ग	-8.95812
▁कालः	-8.961
▁सम्बन्ध	-8.96144
▁दिने	-8.96202
दिति	-8.96207
▁तिथि	-8.9623
▁कर्ता	-8.96358
ध्य	-8.96519
▁कृपया	-8.96519
▁ोऽपि	-8.96544
▁दीर्घ	-8.96556
▁देवी	-8.96576
▁इत्यनेन	-8.96599
▁एतद्	-8.9663
▁मनः	-8.96635
▁ड	-8.96735
▁कृतः	-8.96834
▁१९	-8.96883
▁पुर	-8.96911
▁समये	-8.96935
▁कल	-8.97034
▁बा	-8.97379
▁बन्ध	-8.97696
▁उत्तम	-8.97808
कु	-8.97911
देश	-8.97984
▁बि	-8.98095
A	-8.98147
▁दत्त	-8.98254
▁परीक्षण	-8.98277
▁मानव	-8.98384
▁०	-8.98446
▁ऐ	-8.98527
▁ब्राह्मण	-8.98606
▁इत्यत्र	-8.98732
▁मृत	-8.98789
▁वर्ग	-8.98842
▁अनेक	-8.98858
नो	-8.9899
वः	-8.99027
▁वचन	-8.99233
▁वापि	-8.99318
▁एषः	-8.99363
▁भोग	-8.9943
मी	-8.99632
▁दिव्य	-8.99649
▁ज्या	-8.99731
▁<	-8.99816
▁ती	-8.99903
माह	-9.00247
▁इत्येव	-9.0029
▁नाश	-9.00318
▁ेण	-9.00346
भ्य	-9.00462
्यां	-9.00536
▁स्थिति	-9.00762
▁नृप	-9.00804
▁विष	-9.00829
▁तानि	-9.00849
▁निर	-9.00918
यन्ति	-9.01084
▁एवम्	-9.01188
ृ	-9.01329
▁अयम्	-9.01362
▁T	-9.01477
▁12	-9.01525
▁पे	-9.01579
▁मुप	-9.01724
▁शिक्षा	-9.01777
▁बाह्य	-9.01824
िति	-9.01886
▁अर्थः	-9.0213
वाद	-9.02131
▁पदार्थ	-9.02249
▁पत्र	-9.02276
▁इत	-9.02523
▁एकं	-9.02686
▁पृथक्	-9.02703
योग	-9.02714
▁P	-9.02735
ैक	-9.02817
▁पुष्प	-9.02843
▁किम	-9.02868
▁भवता	-9.02888
▁ानु	-9.02969
▁पितृ	-9.03011
ढ	-9.03025
▁३०	-9.032
▁धारा	-9.03296
▁कर्ण	-9.0333
तीति	-9.03343
णि	-9.03406
ायां	-9.03489
▁दुर्	-9.03605
▁वृत्त	-9.03611
▁देवानां	-9.03637
▁पश्य	-9.03704
ैर	-9.03807
▁प्रतिशत	-9.03818
D	-9.03854
▁परिणाम	-9.03897
▁व्यापार	-9.03907
▁२१	-9.03915
▁मोक्ष	-9.0402
▁विविध	-9.04182
▁लि	-9.04214
▁व्यक्ति	-9.0428
गत	-9.04473
▁ताम्	-9.04499
्व	-9.04808
▁थ्व	-9.0486
▁शा	-9.04868
▁विनाश	-9.04964
▁वचनं	-9.04987
▁मी	-9.0499
▁धातु	-9.05022
▁20	-9.05129
▁वृत्ति	-9.05154
▁11	-9.05493
▁सार	-9.05587
▁पश्यति	-9.05628
▁3.	-9.05677
▁त्र	-9.0571
▁तन्	-9.05817
रूप	-9.05864
▁रात्रौ	-9.06062
▁उत्	-9.06102
▁वान्	-9.06126
>	-9.06137
▁केन्द्र	-9.06228
▁उक्त	-9.06447
▁सौ	-9.06625
▁षु	-9.06687
▁यद्य	-9.06774
▁त्वम	-9.0688
▁पदे	-9.06904
▁राज्यं	-9.0691
▁स्वभाव	-9.06927
▁धि	-9.06934
ात्म	-9.07018
तं	-9.07079
▁15	-9.07261
ान्त	-9.07609
▁ानाम्	-9.07764
▁जलं	-9.07926
▁२२	-9.07951
▁व्यवहार	-9.07954
ुप	-9.08029
▁चरण	-9.08037
▁वने	-9.08049
▁कन्या	-9.08087
▁तावत्	-9.08092
▁दूर	-9.08125
णे	-9.08145
▁परिभाषा	-9.08181
g	-9.08259
▁महत्	-9.08515
▁सम्बद्धान	-9.08696
6	-9.08799
▁भक्ति	-9.08907
▁सिंह	-9.08936
▁c	-9.08972
▁n	-9.09047
b	-9.09193
▁Home	-9.09261
गा	-9.09325
▁सेवा	-9.09346
ेऽपि	-9.0943
▁सुखं	-9.09506
▁ईश्वर	-9.09535
▁b	-9.1027
▁उच्च	-9.10456
दु	-9.10483
▁तान्	-9.10501
▁कथय	-9.10601
प्य	-9.10825
▁२४	-9.10848
श्व	-9.1094
▁कर्मणि	-9.11024
▁तृतीय	-9.11029
▁शर	-9.11073
▁भेदः	-9.11112
षा	-9.11133
▁श्व	-9.11214
▁हा	-9.11314
▁गृहं	-9.11337
▁यूयं	-9.11376
▁परे	-9.11379
▁प्राप्ते	-9.11441
k	-9.11486
▁कोऽपि	-9.11589
▁शृणु	-9.11658
▁ष्ट	-9.11907
▁माह	-9.11936
ड़	-9.11976
▁निमित्त	-9.11984
को	-9.12009
▁तदेव	-9.12043
▁पुरुषः	-9.12088
यु	-9.12331
▁पति	-9.12383
पु	-9.12438
▁प्रथमं	-9.12511
हा	-9.12554
▁$	-9.12642
▁ग्रन्थ	-9.12657
▁जाता	-9.12664
▁जप	-9.12747
▁व्यक्त	-9.12749
वर	-9.12791
▁धनं	-9.12813
▁मूल्य	-9.12852
▁संभव	-9.12854
▁२५	-9.1286
▁रक्त	-9.12867
▁कदा	-9.12893
ॆ	-9.12973
▁चापि	-9.13011
▁सत्त्व	-9.13015
था	-9.13065
▁पार	-9.13123
▁कश्चित्	-9.13176
▁चन्द्र	-9.13502
▁क्षय	-9.13615
द्ध	-9.13626
▁तस्याः	-9.13669
▁E	-9.13707
▁अधि	-9.13731
▁परम्	-9.14034
ॉ	-9.14043
यत	-9.14045
▁14	-9.14126
दी	-9.14246
▁द्य	-9.1426
▁&	-9.14264
▁मृत्यु	-9.14418
देव	-9.14484
▁सत्यं	-9.14537
▁अमेरिका	-9.14721
यत्	-9.14859
▁किमपि	-9.14862
▁वह	-9.15028
▁ान	-9.1507
▁प्य	-9.1513
▁वः	-9.15285
▁इदम्	-9.15382
▁भाग्य	-9.15392
▁क्रीडा	-9.15582
शि	-9.1571
▁मोह	-9.15879
▁स्तथा	-9.15902
लोक	-9.16022
▁वृद्धि	-9.16027
नीय	-9.16249
परि	-9.16292
भिर्	-9.16389
▁D	-9.16414
▁उद्	-9.16416
▁l	-9.16431
▁प्रदेश	-9.16433
▁ms	-9.16448
v	-9.1647
वी	-9.16489
▁समस्त	-9.16493
ले	-9.16778
▁दैव	-9.16887
ण्	-9.16888
▁मस्ति	-9.16896
दे	-9.17134
▁ङ्ग	-9.17241
▁सुर	-9.17346
▁ऊ	-9.17353
C	-9.17608
▁प्रायः	-9.1763
ञ्	-9.17693
ास	-9.17751
▁स्नेह	-9.17795
▁कुत्र	-9.17861
▁मुच्यते	-9.17978
▁क्र	-9.18067
▁वाम	-9.18225
▁जातः	-9.18233
▁क्षमा	-9.1841
▁दीप	-9.18468
▁कम्	-9.18561
▁कृषि	-9.18564
▁दृढ	-9.18577
▁२७	-9.18699
▁२६	-9.1871
▁प्रकार	-9.18852
सः	-9.18988
▁व्यवस्था	-9.19152
▁पशु	-9.1922
ितम्	-9.19411
▁भूमि	-9.19417
▁नदी	-9.19485
▁अधुना	-9.19534
▁त्रि०	-9.19632
▁किल	-9.1978
▁→	-9.19842
ेष	-9.1992
ान्तर	-9.19938
▁समाज	-9.19956
▁राग	-9.19973
▁4.	-9.20018
▁प्रशिक्षण	-9.20034
▁स्वर	-9.20054
▁भार	-9.2018
▁संस्कार	-9.20208
▁बोध	-9.20219
▁भयं	-9.20261
▁ग्र	-9.2032
वास	-9.20432
P	-9.20481
▁देवाः	-9.20688
▁त्या	-9.20712
▁काय	-9.2073
पाद	-9.20771
ीकरण	-9.20877
छ	-9.21095
▁•	-9.21122
▁त्वमेव	-9.21165
▁िक	-9.21194
▁कृ	-9.21215
▁वर्षा	-9.21366
▁विरोध	-9.21389
▁धा	-9.21422
गुण	-9.21509
▁ले	-9.21603
▁पात	-9.21843
▁कर्तव्य	-9.219
▁तुल्य	-9.22068
णी	-9.22214
▁व्यवसाय	-9.22261
▁निर्णय	-9.22369
▁भक्त	-9.22722
▁आसन्	-9.22733
ार	-9.22993
▁बुद्ध	-9.22994
I	-9.2305
▁समर्थ	-9.23065
▁जाति	-9.23077
शा	-9.23161
▁विशेषः	-9.2317
▁द्वे	-9.23173
▁शीत	-9.233
▁क्षेत्रे	-9.2331
भव	-9.23464
त्त	-9.23587
▁..	-9.23592
र्ध	-9.23694
▁धर	-9.23704
▁ीय	-9.238
▁सम्भव	-9.23822
▁ाद्य	-9.23855
▁यन्	-9.23863
▁करोमि	-9.23921
▁स्त्रियां	-9.24021
▁श्रुत	-9.24109
▁रात्रि	-9.24132
▁प्रत्ययः	-9.24144
▁पृथिवी	-9.24288
▁भवतु	-9.24386
▁सत्	-9.24387
कि	-9.24447
▁जीवन	-9.24468
▁समुदाय	-9.24473
▁क्रमेण	-9.24573
▁ाभि	-9.24639
▁इतर	-9.24764
▁युग	-9.24786
▁पश्चिम	-9.24794
▁अतो	-9.24879
▁मृग	-9.24889
▁पृ	-9.24904
▁साधारण	-9.24915
▁ध्वनि	-9.24921
हर	-9.25001
▁हार	-9.25017
%	-9.252
▁द्वौ	-9.25279
▁शब्दस्य	-9.25346
▁रुप	-9.2536
▁स्था	-9.25366
णं	-9.25392
▁वर्त	-9.25595
नाम	-9.25606
▁विमान	-9.25735
▁कुतः	-9.25773
▁संस्करण	-9.25787
▁वाद	-9.25875
▁योजना	-9.25974
▁पाठः	-9.26034
▁ादौ	-9.26078
▁साम	-9.26097
▁आस	-9.26266
▁मुक्ति	-9.26368
कर्म	-9.26404
▁विष्णु	-9.26527
▁अस	-9.26527
नम्	-9.26622
▁राजन्	-9.26699
▁शि	-9.26737
क्र	-9.26757
▁सूक्ष्म	-9.26831
द्र	-9.26871
र्ज	-9.26872
▁श्लोक	-9.2696
▁f	-9.26982
▁२३	-9.26995
▁नर	-9.27209
▁कथम्	-9.27275
▁ऋ	-9.27437
ात	-9.2748
▁ताः	-9.27651
ञ्ज	-9.27684
त्या	-9.27774
सर	-9.27856
कम्	-9.27914
▁कुर्यात्	-9.27962
क्त	-9.28084
▁कथम	-9.28128
▁वय	-9.28169
▁लब्ध	-9.2824
▁ादीनां	-9.28277
▁मात्रा	-9.28303
ाई	-9.28351
▁लक्ष	-9.28398
▁छुं	-9.284
▁नेवाः	-9.28438
न्तर	-9.28661
वार	-9.2868
▁सर्वाणि	-9.28738
▁उभय	-9.28763
▁समास	-9.28904
▁M	-9.28914
सो	-9.28969
▁पुत्रः	-9.28976
▁चक्र	-9.29054
▁गन्ध	-9.29056
ात्मा	-9.29194
▁16	-9.29233
पद	-9.29238
▁शीघ्रं	-9.29464
लो	-9.29589
▁दुष्ट	-9.29609
जि	-9.29689
ग्र	-9.29708
▁चि	-9.29761
▁उपयोगकर्ता	-9.29761
▁रुपये	-9.29802
शु	-9.29814
गम	-9.29817
ेयं	-9.29908
▁स्थिर	-9.29916
ष्ठ	-9.29993
▁द्वय	-9.29995
▁मिदं	-9.30032
▁स्थितः	-9.30083
▁रो	-9.3011
▁//	-9.30116
दान	-9.30147
al	-9.30148
▁प्रथमा	-9.30152
▁संयोग	-9.30188
▁भ्रम	-9.30227
▁व्यय	-9.30237
▁निर्देश	-9.30301
ोऽपि	-9.30309
र्ष	-9.30327
▁झ	-9.30333
र्त	-9.30334
▁श्रेष्ठ	-9.30465
▁शस्त्र	-9.30514
▁तस्माद	-9.30526
▁17	-9.30532
राज	-9.30558
▁विजय	-9.30596
▁शान्त	-9.30767
यम	-9.30828
▁लिखित	-9.30864
▁विधिः	-9.31
▁परिवार	-9.31029
मन	-9.31037
▁पक्षे	-9.31086
▁संशय	-9.31116
▁Tag	-9.31117
▁देवि	-9.3116
▁{	-9.3117
▁जानाति	-9.31202
▁दल	-9.31211
▁ग्रहण	-9.31233
▁न्न	-9.31307
रण	-9.31332
▁13	-9.31359
युक्त	-9.31388
▁शासन	-9.31394
▁साध्य	-9.31564
▁विवाह	-9.31589
म्ह	-9.31628
▁विद्यमान	-9.31913
▁वित्त	-9.31939
▁कति	-9.31942
▁उत	-9.31959
▁प्रयोगः	-9.31964
▁देशः	-9.32024
▁२८	-9.32075
▁त्याग	-9.32084
▁शक्तिः	-9.32085
▁भगवन्	-9.32175
▁मत्	-9.32231
▁वश	-9.3224
ाभि	-9.32274
▁लक्षणं	-9.32353
▁तस्माद्	-9.32375
▁संस्थान	-9.32395
▁न्तर	-9.32402
▁क्रोध	-9.32466
▁क्त	-9.32542
▁मति	-9.32719
▁ज्ञात	-9.32881
▁d	-9.329
▁ैर	-9.33017
▁काव्य	-9.33021
▁यानि	-9.33134
▁स्नान	-9.33173
▁चर	-9.33209
▁लक्ष्य	-9.33223
▁मिव	-9.33444
▁दी	-9.33453
▁वी	-9.33543
म्ब	-9.3366
▁ष्व	-9.33664
▁कुशल	-9.33725
कारः	-9.33801
▁चार	-9.3381
मय	-9.33878
प्त	-9.33894
कृत	-9.33956
ीनां	-9.33966
▁तस्मै	-9.34027
▁G	-9.34033
▁0	-9.34044
▁स्थल	-9.34187
ीति	-9.34228
▁सागर	-9.34277
▁हं	-9.34321
▁ेभ्यः	-9.34481
बल	-9.34497
▁F	-9.34521
धी	-9.34679
▁वध	-9.34689
▁शब्देन	-9.34809
▁to	-9.34858
▁प्रेम	-9.34925
त्वे	-9.34962
f	-9.35287
शी	-9.35491
▁ग्रहणं	-9.35504
▁साहित्य	-9.35531
▁वाक्यं	-9.35579
▁शब्दे	-9.35716
▁यात्रा	-9.35819
▁तिष्ठति	-9.35832
▁विषयः	-9.35836
▁जे	-9.35838
▁मानुष	-9.35852
▁स्यापि	-9.35999
▁प्रत्येक	-9.36015
▁मधु	-9.36286
▁ू	-9.36307
▁येषां	-9.36322
▁सर	-9.36346
▁एतेन	-9.36435
E	-9.36517
▁दृष्टि	-9.36663
▁यते	-9.36735
▁विश्लेषण	-9.36739
▁परस्पर	-9.36776
▁देशस्य	-9.36909
▁पश्चात्	-9.36965
▁चतुर्	-9.36984
▁उपरि	-9.36993
▁स्पष्ट	-9.37001
▁ाभ्यां	-9.37187
▁शेषः	-9.37213
▁सम्पूर्ण	-9.37239
▁वत्स	-9.37288
▁विरुद्ध	-9.37288
▁यथार्थ	-9.37375
▁भवन	-9.37376
▁लभते	-9.37388
▁g	-9.37467
▁बहुधा	-9.37468
▁जी	-9.37532
▁स्वयम्	-9.37552
ुः	-9.37717
▁देहि	-9.37772
▁त्रय	-9.37826
▁विश	-9.37867
भा	-9.37881
+	-9.37929
▁सम्यक्	-9.37998
िन	-9.38127
▁स्ते	-9.38157
▁कारक	-9.38312
▁एतद	-9.38339
▁अन्ये	-9.3848
▁t	-9.38491
▁कृतवान्	-9.38538
▁30	-9.38607
▁विधीयते	-9.38634
▁परन्तु	-9.38644
▁मही	-9.38693
▁विपरीत	-9.38741
▁पठ	-9.38824
▁भोजन	-9.38846
यै	-9.38992
▁आकाश	-9.3902
▁मनसा	-9.39059
▁तैः	-9.39086
▁प्रत्येकं	-9.39116
▁विकिपीडिया	-9.39134
▁गृहीत	-9.39144
ादौ	-9.3918
▁साधु	-9.39317
चा	-9.39358
▁शोक	-9.39443
▁रक्षा	-9.3947
▁च्	-9.39496
▁इष्ट	-9.39528
त्वा	-9.39548
ित्वा	-9.39608
▁प्रयोजन	-9.39626
▁गता	-9.39695
▁जना	-9.39727
▁गच्छ	-9.39858
▁अध्याय	-9.39985
▁खेल	-9.40102
▁तिष्ठ	-9.40123
▁स्थिता	-9.40174
▁हित	-9.40187
▁दर	-9.40349
▁मासे	-9.40533
▁प्रोक्तं	-9.4054
▁व्यायाम	-9.40547
▁जानामि	-9.40566
▁औ	-9.40577
▁ँ	-9.40652
▁परमं	-9.40777
▁रण	-9.40802
▁आप	-9.40881
वन	-9.40896
▁पु०	-9.40957
काल	-9.41106
▁ऽहं	-9.41124
▁तन्त्र	-9.41177
▁नूतन	-9.41192
▁छु	-9.41195
▁अल्प	-9.41225
▁्या	-9.41319
▁ददाति	-9.41387
▁ाणां	-9.41489
मे	-9.41657
▁सामाजिक	-9.41705
▁हय	-9.41825
▁उदाहरण	-9.41843
▁रत्न	-9.41849
▁ाख्य	-9.41866
▁विवेक	-9.41907
▁मण्डल	-9.41944
▁राक्षस	-9.42041
▁संस्था	-9.42044
M	-9.4217
▁ान्तर	-9.42176
▁द्विज	-9.42213
▁सेना	-9.42328
▁सव	-9.42339
▁इत्यादिना	-9.42404
▁मुनि	-9.4241
चर	-9.4256
▁वर्गः	-9.42564
भाग	-9.42607
▁वाच्य	-9.42654
ष्ण	-9.42655
▁अतीत	-9.42665
▁चेति	-9.42673
▁अहो	-9.42751
▁स्पर्श	-9.42859
▁क्रि	-9.42935
▁विध	-9.42999
▁जाल	-9.43014
टी	-9.43069
शः	-9.43102
▁स्वीकृत	-9.43165
▁संज्ञा	-9.43228
▁च्छ	-9.43282
▁अग्ने	-9.43333
▁महान्	-9.43425
▁यन्त्र	-9.43468
▁आदि	-9.43505
▁नेत्र	-9.43529
▁लेख	-9.43561
▁नरः	-9.43589
▁मन्यते	-9.43607
▁द्वार	-9.43627
▁शिष्य	-9.4363
▁वृ	-9.43637
ानाम्	-9.43724
▁श्वेत	-9.43748
▁दिश	-9.43832
▁ज्ञ	-9.43856
▁कर्तव्यं	-9.43905
▁निषेध	-9.44033
▁पेपर	-9.44115
▁योग्य	-9.44242
िनी	-9.44262
▁वंश	-9.44326
ar	-9.44331
▁यन्ति	-9.44345
क्रम	-9.44438
▁वार	-9.44468
▁निर्माण	-9.44482
▁नीति	-9.44483
▁p	-9.44495
▁मन्द	-9.44518
▁आत्मा	-9.44625
▁ात्म	-9.44652
▁ऋण	-9.44653
▁दुःखं	-9.44892
र्ह	-9.4502
▁रुद्र	-9.45139
▁भगवान	-9.45165
▁प्रीति	-9.45245
▁सदैव	-9.45272
▁दूत	-9.45375
▁सू	-9.4548
▁टी	-9.45541
▁फरवरी	-9.45572
▁सम्भवति	-9.45732
▁कर्मणा	-9.45757
▁महिला	-9.45808
▁सर्वेषु	-9.45818
▁शील	-9.45832
▁हत	-9.45874
▁अतीव	-9.45957
▁रूपा	-9.46101
▁अन्त	-9.46102
▁स्वतन्त्र	-9.46201
▁विद	-9.46261
▁जूगु	-9.46289
▁समाप्त	-9.46329
▁विकार	-9.46487
▁शु	-9.4652
▁मय	-9.46575
▁हृदि	-9.4662
▁मुद्रा	-9.46638
▁महोदय	-9.4679
▁अन्यत्र	-9.46794
▁करिष्यामि	-9.46904
कल	-9.46911
▁पू	-9.46953
▁विशेषण	-9.46979
की	-9.47001
▁e	-9.47015
▁युक्तं	-9.47043
▁५०	-9.47044
B	-9.47068
ii	-9.4719
▁मानस	-9.47291
▁सकल	-9.47373
▁कारणम्	-9.47388
▁भारते	-9.47533
▁दोषः	-9.47558
▁मित	-9.47561
िण	-9.47589
▁नाम्ना	-9.47724
चार	-9.47786
▁मेरे	-9.47794
▁चिन्ता	-9.47826
▁कथितं	-9.47878
▁श्रम	-9.48008
▁m	-9.48018
▁दक्षिणा	-9.48087
ष्	-9.48132
▁नाथ	-9.48134
हे	-9.48316
▁२९	-9.4832
▁थः	-9.4837
सू	-9.48419
▁मरण	-9.48442
▁याम	-9.48458
▁कथ्यते	-9.48502
▁निवृत्त	-9.48641
▁मो	-9.48731
▁संबन्ध	-9.48733
▁दर्शयति	-9.48775
▁21	-9.48914
▁शून्य	-9.49014
▁३१	-9.49102
मो	-9.49199
▁तयोः	-9.49205
▁अन्तर	-9.49235
▁स्याद्	-9.4924
▁स्याद	-9.49257
ाप	-9.49258
▁इदम	-9.49455
▁o	-9.49477
▁रिति	-9.49487
▁मातृ	-9.49521
▁चतुर्थ	-9.49525
▁तदपि	-9.4958
an	-9.49587
तौ	-9.498
▁प्रसिद्ध	-9.49813
▁आर	-9.49832
▁भागे	-9.49843
▁भाष	-9.49897
▁तच्च	-9.49928
▁पत्नी	-9.49942
▁अन्तर्	-9.49958
र्व	-9.49968
▁हृदयं	-9.49968
माण	-9.5003
▁पुन	-9.50033
▁प्रतिषेध	-9.50042
▁दो	-9.50189
▁पत	-9.50212
▁बलं	-9.50212
रं	-9.50255
▁नील	-9.503
▁कार्यम्	-9.50426
▁ात्मक	-9.50443
▁श्र	-9.50475
▁होम	-9.50521
▁वाहन	-9.50549
▁ां	-9.50603
#	-9.50623
▁सदस्य	-9.50692
▁देवः	-9.50814
▁पार्थिव	-9.50889
▁तप	-9.50911
ात्मक	-9.51058
▁वदति	-9.51182
▁सृज	-9.51186
▁एता	-9.51202
▁मत्स्य	-9.51227
▁िन	-9.51232
▁पुराण	-9.51256
▁अङ्ग	-9.5127
धर	-9.51295
बा	-9.51343
▁यस्मिन्	-9.5145
▁करो	-9.51452
▁नै	-9.51469
▁ङ	-9.51712
▁पाक	-9.51719
▁४०	-9.51754
▁यॊ	-9.51902
जी	-9.51912
▁कश्चन	-9.51968
▁नाहं	-9.52035
▁पुस्तक	-9.52049
▁उवाच	-9.52054
▁जित	-9.52137
▁प्रयत्न	-9.52145
▁तृतीया	-9.52197
▁N	-9.52199
▁गतिः	-9.52207
गण	-9.52253
▁प्रभो	-9.52258
इति	-9.52273
चन	-9.52325
यितुं	-9.52334
▁सुवर्ण	-9.52402
श्र	-9.52406
▁इत्याह	-9.52439
▁24	-9.52444
▁तात	-9.5247
▁25	-9.52516
▁ऽप्य	-9.52572
▁सोऽ	-9.52621
रेव	-9.52652
ओ	-9.52653
▁ांश	-9.52692
ेभ्यः	-9.52769
स्ता	-9.52788
पे	-9.52852
▁ान्य	-9.52892
▁भ्य	-9.52919
▁सभा	-9.52935
पुर	-9.52994
ुं	-9.53011
▁सुत	-9.53087
▁अज	-9.53169
र्ण	-9.53185
▁सङ्ख्या	-9.53195
▁युद्धे	-9.53214
▁वास	-9.53235
▁ययौ	-9.53271
मस्ति	-9.53309
त्वेन	-9.53321
स्मिन्	-9.53344
▁प्रवर्तते	-9.53462
▁अश्व	-9.53581
▁प्रसाद	-9.53629
ुर	-9.53647
▁उपाय	-9.53655
▁ज्ञायते	-9.53672
▁स्वतः	-9.53711
▁राष्ट्रिय	-9.53716
ज्ञा	-9.53717
▁नरक	-9.5382
▁दक्ष	-9.53829
▁गुणा	-9.53856
▁कार्या	-9.53858
▁प्रकृत	-9.53875
वर्त	-9.53958
er	-9.53981
▁जग	-9.54015
▁वयम्	-9.54063
▁ाङ्ग	-9.54233
▁ज्ञात्वा	-9.54258
▁इत्य्	-9.54299
▁कृत्य	-9.54375
▁सय	-9.54379
रः	-9.54398
ितुं	-9.54421
क्क	-9.54429
▁स्तव	-9.54477
▁5.	-9.54489
▁प्रमुख	-9.5454
▁वचः	-9.54548
▁रोचते	-9.54581
▁भेदे	-9.546
▁वह्नि	-9.54678
▁एस	-9.54718
िना	-9.54746
मुप	-9.54768
ष्य	-9.54771
▁श्चैव	-9.54783
▁गम	-9.54938
▁स्वाहा	-9.54992
▁कुरुते	-9.55056
▁in	-9.55059
▁मन्ये	-9.55089
▁अस्मि	-9.55171
स्मै	-9.5519
धान	-9.55294
▁दानं	-9.55328
▁व्रज	-9.554
धिक	-9.55402
▁धर्मः	-9.5545
▁उत्पादन	-9.55452
हार	-9.55454
▁परिवर्तन	-9.55504
▁इत्युक्त	-9.55567
ाप्य	-9.55569
▁यस्तु	-9.55647
शन	-9.55676
▁V	-9.55757
▁किञ्चित्	-9.55797
▁विधान	-9.55854
▁खँ	-9.55917
▁स्वा	-9.55936
▁पथ	-9.56051
ाद्य	-9.56053
▁वार्ता	-9.56231
फल	-9.56243
▁बहिः	-9.56281
▁दन्त	-9.56292
▁यू	-9.56293
▁ादिषु	-9.56297
▁समं	-9.56301
ज्य	-9.5633
त्थ	-9.56348
▁वर्षाणि	-9.56373
▁काः	-9.56431
▁भवे	-9.5647
ीत	-9.56554
▁तीर्थ	-9.56664
िष	-9.5668
▁नहि	-9.56754
▁समीक्षा	-9.56872
▁कुमार	-9.56957
▁जीवित	-9.56995
▁मन्य	-9.57012
ेक	-9.57027
▁शक्य	-9.57027
h	-9.5703
▁कौ	-9.57057
▁मनसि	-9.57261
मित	-9.57273
▁गिरि	-9.57342
▁श्रुति	-9.57347
▁शान्ति	-9.57365
▁विस्तार	-9.57417
▁हेतुः	-9.57443
▁नाना	-9.57505
▁ैश्च	-9.57588
▁वरिष्ठ	-9.57727
▁षष्ठ	-9.57766
▁ज्येष्ठ	-9.57919
▁मित्य	-9.57937
झ	-9.57939
▁३३	-9.57965
▁समीपे	-9.58024
▁मानं	-9.58038
▁था	-9.58093
▁पार्थ	-9.58109
▁कार्यक्रम	-9.58114
व्	-9.58161
▁एतस्य	-9.58192
हित	-9.58246
▁डि	-9.58293
▁व्याख्या	-9.58382
▁यान	-9.58441
▁सुन्दर	-9.58457
▁षट्	-9.58488
▁अन्न	-9.58534
▁निर्दिष्ट	-9.58546
▁परः	-9.58561
▁जीवनं	-9.58571
▁अनुभव	-9.58669
▁नियत	-9.58701
▁व्याकरण	-9.58949
▁सिद्धि	-9.59002
▁प्रश्नः	-9.59062
▁बी	-9.59075
▁सीता	-9.59085
▁वज्र	-9.59095
षि	-9.59096
डि	-9.59128
▁सदृश	-9.59136
▁धन्यवाद	-9.59165
नेन	-9.59195
▁इतिहास	-9.59235
्यै	-9.59247
पात	-9.59272
▁दया	-9.59305
▁अभ्यास	-9.59308
▁आः	-9.59322
१०	-9.59382
▁भार्या	-9.59424
▁भिर्	-9.59533
पूर्व	-9.59567
सम	-9.59584
▁निद्रा	-9.59598
▁वस्तुतः	-9.59631
▁चिद	-9.59669
▁यज	-9.5967
▁नापि	-9.59806
▁यथ	-9.59809
▁वक्तव्यम्	-9.59862
िष्यति	-9.59925
▁केचित्	-9.59943
▁नगरे	-9.60065
▁करणे	-9.6008
ेदं	-9.60131
▁लिखत	-9.6014
▁बु	-9.60232
▁विद्यालय	-9.60234
▁ढ	-9.6034
▁चल	-9.60414
▁उद	-9.60429
▁हृदये	-9.60493
यामि	-9.60526
▁कमल	-9.60567
▁प्रकरण	-9.60579
▁३२	-9.60647
▁दर्श	-9.60732
▁शीघ्र	-9.60786
▁युक्तः	-9.60852
▁शुक्र	-9.60863
▁त्यज	-9.60964
▁वल	-9.60981
काले	-9.60987
▁प्रयोजनम्	-9.61102
▁एवम	-9.61102
▁अस्तु	-9.61117
वेद	-9.61132
▁मल	-9.61139
▁कल्याण	-9.61181
▁प्रतिभा	-9.61313
▁वती	-9.61384
▁ठ	-9.6143
▁L	-9.61604
▁पतिः	-9.61615
▁घोषणा	-9.61628
स्ट	-9.61635
▁बीज	-9.61638
▁प्राप्ति	-9.61663
▁नारी	-9.61702
▁साक्षात्	-9.61831
पत्र	-9.61861
▁श्रद्धा	-9.6204
ङ्क	-9.62084
▁माम्	-9.62096
▁क्	-9.62112
▁प्रतीयते	-9.62128
▁i	-9.62342
▁चित्	-9.62379
▁बालक	-9.6239
▁गज	-9.62443
▁री	-9.62481
सौ	-9.62573
▁आवेदन	-9.62604
L	-9.62632
▁कोटि	-9.62659
▁एकादश	-9.62769
रस	-9.62774
▁पद्म	-9.6283
▁ज्ञा	-9.62856
ह्य	-9.62879
▁मूर्ख	-9.62885
धे	-9.62925
▁स्मर	-9.62963
ांश	-9.63014
▁आनन्द	-9.63103
▁सततं	-9.63165
▁कै	-9.63207
▁K	-9.63337
▁भूता	-9.63368
ञ	-9.63371
ताम्	-9.63395
▁कदाचन	-9.63397
▁विश्वं	-9.63413
▁बहवः	-9.63443
▁स्वर्ण	-9.63476
िह	-9.63545
▁समूह	-9.63662
▁प्राचीन	-9.63712
▁नी	-9.63755
▁मेघ	-9.6377
▁स्थिते	-9.6379
▁प्रवृत्ति	-9.63813
▁तर्क	-9.63843
▁खण्ड	-9.63961
तृ	-9.64041
▁अष्ट	-9.64042
R	-9.64048
ास्ति	-9.64062
▁द्वीप	-9.64134
▁इच्छा	-9.64236
▁सहित	-9.64282
▁प्रवृत्त	-9.6438
▁यश्च	-9.64384
मुख	-9.64495
▁कर्तव्यम्	-9.64501
ब्	-9.6452
▁अर्ध	-9.6453
▁सहाय	-9.64593
▁तादृश	-9.64624
ल्ल	-9.64634
▁करिष्यति	-9.64642
▁घन	-9.64704
▁कल्पित	-9.64752
▁तत्रैव	-9.64773
▁वीर्य	-9.64784
▁नृत्य	-9.64886
▁एकदा	-9.64962
▁पर्व	-9.64965
▁23	-9.64996
हो	-9.65008
▁स्तत्र	-9.65031
▁स्त्व	-9.65054
▁वेग	-9.65058
▁कृपा	-9.65119
▁अह	-9.65129
▁यच्च	-9.65201
▁स्मृति	-9.65263
▁भूत्वा	-9.6529
▁यजमान	-9.65367
▁योनि	-9.65387
भिर	-9.65437
▁भागः	-9.65449
▁कालं	-9.65551
धार	-9.6557
▁कर्म्म	-9.65629
स्ते	-9.65646
▁विश्वविद्यालय	-9.65651
िर	-9.6566
नगर	-9.657
▁प्रथमः	-9.65739
ोक्त	-9.65758
▁हीन	-9.65776
प्रति	-9.65801
▁प्रमाणं	-9.65879
चित	-9.65953
▁कथ	-9.6596
▁सौभाग्य	-9.66018
▁पर्यावरण	-9.66019
▁नात्र	-9.66027
र्च	-9.66055
▁22	-9.66068
मात्र	-9.66068
▁भ्यः	-9.66073
▁भो	-9.66097
▁ोक्त	-9.66157
▁MS	-9.66229
विध	-9.66266
न्ध	-9.66268
▁याम्	-9.66401
वर्ष	-9.66531
क्स	-9.66557
▁पल	-9.6657
▁r	-9.66585
शत	-9.66644
▁सर्प	-9.66656
▁निर्वाचन	-9.66733
▁योर्	-9.66735
▁न्ते	-9.66833
वत	-9.6693
▁एम	-9.66988
▁प्रधानमन्त्री	-9.67024
▁स्ति	-9.6703
करण	-9.67054
▁दुर्ग	-9.67092
▁रति	-9.67116
▁स्तर	-9.67168
▁भर	-9.67176
▁स्मरण	-9.6722
▁पीठ	-9.673
▁राशि	-9.67332
▁रामः	-9.67388
▁णा	-9.67419
▁कृति	-9.6744
ेय	-9.67464
▁त्वयि	-9.67529
▁मूढ	-9.67536
▁स्वयमेव	-9.67597
▁ेश्वर	-9.67695
▁ङीप्	-9.67714
ाभ्यां	-9.67733
▁हिंसा	-9.67746
▁रूपम्	-9.6784
▁सैन्य	-9.67865
00	-9.68032
▁इतः	-9.68044
▁दास	-9.68068
▁समस्या	-9.68129
▁of	-9.68211
▁रूपे	-9.6842
▁ऽनु	-9.68427
▁सर्वान्	-9.6843
▁जले	-9.68435
▁संसाधन	-9.68441
▁तनु	-9.68508
▁प्रज्ञा	-9.68551
▁प्रतिवेदन	-9.6858
गे	-9.68606
वद	-9.6867
▁दिनाङ्के	-9.68677
▁सर्वतः	-9.6868
▁घृत	-9.68743
▁ष्ठ	-9.68748
▁धकाः	-9.68755
▁पूर्वोक्त	-9.68771
▁विश्वे	-9.68831
▁३५	-9.68842
मिदं	-9.68943
▁माण	-9.68979
▁वार्षिक	-9.68985
▁विदेश	-9.69073
▁पाल	-9.69086
काः	-9.69096
▁देवस्य	-9.69112
▁27	-9.69136
▁ाश्रय	-9.6943
याम	-9.69489
▁दार	-9.69534
▁करे	-9.69565
▁पीसी	-9.69573
व्या	-9.6971
▁इमे	-9.69721
▁४५	-9.69777
▁स्वास्थ्य	-9.698
▁डा	-9.69856
▁अन्वयः	-9.69908
▁लु	-9.6992
T	-9.69933
▁सङ्ग	-9.70023
▁स्वस्य	-9.70042
▁हर्ष	-9.70056
▁महत्वपूर्ण	-9.70105
▁ोऽयं	-9.70149
▁शक्नोति	-9.70301
▁जो	-9.70323
▁R	-9.70367
▁न्तु	-9.70391
▁कदापि	-9.70408
▁द्वितीया	-9.70422
टि	-9.70425
▁ादयः	-9.70459
▁मात्रं	-9.70532
▁ास्ते	-9.70543
सार	-9.70642
▁धी	-9.70675
तरं	-9.70753
▁जनानां	-9.70841
▁अस्याः	-9.70898
▁पर्यन्तं	-9.71046
ेन्द्र	-9.7112
▁अग्रे	-9.71155
▁न्यास	-9.71302
▁ॆ	-9.71359
ःगु	-9.71406
िव	-9.71419
..	-9.71472
▁३६	-9.71478
▁शक्त	-9.71515
▁वेति	-9.71692
पति	-9.71764
▁राष्ट्रीय	-9.718
वै	-9.71833
▁निश्चय	-9.71884
▁राज्ये	-9.71925
▁क्लेश	-9.71959
▁देवो	-9.72075
▁नेति	-9.72082
▁ोऽ	-9.72109
▁यानाः	-9.72122
यन्त	-9.72124
▁क्षम	-9.72143
▁वक्तुं	-9.72199
▁पण	-9.7224
▁शरणं	-9.72254
▁उक्तं	-9.72261
▁शिक्षण	-9.72343
▁कवि	-9.72359
▁प्रोक्ता	-9.72494
▁गमन	-9.72515
ज्ज	-9.72538
▁कर्माणि	-9.72582
▁तार	-9.7259
कृ	-9.72635
ीर	-9.72649
▁सम्बन्धि	-9.72657
▁भवतीति	-9.7266
▁दृष्टा	-9.72724
▁३७	-9.72755
▁प्रकारेण	-9.72771
वां	-9.72802
▁विभक्त	-9.72805
▁धु	-9.72817
▁घोर	-9.72847
▁प्राक्	-9.72904
▁कुत	-9.72977
▁26	-9.72979
लु	-9.73051
▁गतं	-9.7306
हु	-9.73062
दश	-9.73068
▁प्रतिदिनं	-9.73083
▁सरल	-9.73103
भाष	-9.73114
▁श्रवण	-9.73202
▁गम्यते	-9.73228
▁प्रस्ताव	-9.73282
▁वं	-9.73379
▁युद्धं	-9.73418
▁वायुः	-9.73441
▁विहित	-9.73458
▁द्र	-9.73515
वो	-9.73521
▁बद्ध	-9.73552
▁अल	-9.73614
▁लभ्यते	-9.73716
▁स्थितम्	-9.73831
▁भुज	-9.73919
सन	-9.73969
▁कुर्वन्	-9.73999
शो	-9.74022
▁जनः	-9.74082
▁स्वप्ने	-9.74096
▁प्राधिकरण	-9.7419
▁वृत्तिः	-9.74218
वाह	-9.74245
▁स्नानं	-9.74251
▁संरक्षण	-9.74277
▁तीति	-9.74332
▁वस	-9.74391
▁समयः	-9.74486
▁ओं	-9.74513
▁स्थितिः	-9.74539
▁प्रार्थना	-9.74579
w	-9.74598
▁दृश	-9.746
▁मतः	-9.74605
▁मंत्र	-9.74664
▁दूरे	-9.74733
▁गृहीत्वा	-9.74749
दिन	-9.7475
▁दध	-9.74823
▁हंस	-9.74907
िय	-9.7494
▁नयन	-9.74975
▁मै	-9.75077
▁मुने	-9.75111
तुं	-9.75169
▁अकरोत्	-9.75179
▁स्वार्थ	-9.75194
▁मू	-9.75238
▁भूमौ	-9.75319
▁प्रभु	-9.75322
▁k	-9.75493
▁संस्कृति	-9.75661
ट्ट	-9.75678
▁शब्दो	-9.75752
▁उक्तम्	-9.75772
▁मभि	-9.75782
▁स्वातन्त्र्य	-9.75824
▁ार्थे	-9.7586
▁ोत्तर	-9.75865
▁सूत्रे	-9.75882
▁मार्गे	-9.75953
▁सर्वस्य	-9.75983
यात	-9.75984
▁इत्यपि	-9.76048
▁जुइ	-9.76063
▁अभ्य	-9.76137
iv	-9.76155
▁सर्ग	-9.76167
▁प्राह	-9.7617
▁ताप	-9.76208
▁स्त्रीणां	-9.76233
ॅ	-9.76378
▁प्रसङ्ग	-9.76404
▁तू	-9.7644
▁यद्वा	-9.76453
▁शतं	-9.76458
▁तेषाम	-9.76461
तॊ	-9.7648
▁पर्य	-9.765
र्न	-9.76551
▁कृत्	-9.76565
स्स	-9.76614
▁िव	-9.7669
▁असि	-9.76716
▁सामर्थ्य	-9.76733
▁विभाषा	-9.7674
▁िका	-9.76753
▁शाश्वत	-9.76794
▁भास	-9.76984
▁घात	-9.76987
▁इत्येतद	-9.77002
▁ाच्च	-9.7702
▁उपा	-9.77025
शेष	-9.77089
ग्नि	-9.77118
▁सायं	-9.77123
▁भोजनं	-9.77231
▁नन्द	-9.77274
▁पवित्र	-9.77318
▁SF	-9.77328
क्ष्य	-9.77373
ेश्वर	-9.77386
▁लोप	-9.77418
▁दर्शनं	-9.77441
▁कार्याणि	-9.77507
▁चीन	-9.77531
▁ब्र	-9.77557
▁युगे	-9.77569
▁वरं	-9.77577
▁भज	-9.77612
स्थान	-9.77685
योर्	-9.77701
▁वद्	-9.77729
▁प्रतिष्ठा	-9.77743
▁व्याधि	-9.77769
ाल	-9.77774
यू	-9.77782
▁तक	-9.77807
▁सन्धि	-9.77863
x	-9.7802
N	-9.78081
▁उत्पाद	-9.781
▁सफल	-9.78116
▁णि	-9.78131
▁पच	-9.78157
स्र	-9.78174
▁सूत	-9.78218
▁निश्चित	-9.78254
▁एतेषां	-9.78261
▁हितं	-9.78383
▁साल	-9.78435
▁भु	-9.78497
रू	-9.78545
▁यम्	-9.78584
▁तमः	-9.78609
▁न्यून	-9.78656
▁सरकार	-9.78695
▁शे	-9.787
▁प्रयुक्त	-9.78714
▁निः	-9.78742
पक्ष	-9.78822
▁वाह	-9.78866
िणः	-9.78891
▁लग्न	-9.7901
▁कोप	-9.79041
ल्प	-9.79053
▁उत्तरः	-9.79061
▁नेपाल	-9.79101
▁लाल	-9.79153
▁प्रविश्य	-9.79157
▁किमर्थं	-9.79199
▁ज्वर	-9.79207
ान्य	-9.7923
▁कीर्ति	-9.79305
▁धूम	-9.79341
▁केश	-9.79359
▁प्रतिज्ञा	-9.79366
▁प्रविष्ट	-9.79387
▁विभिन्न	-9.79411
ष्व	-9.79426
▁नाभि	-9.79437
▁28	-9.7947
▁सम्प्रति	-9.79497
▁धन्य	-9.79501
▁शं	-9.79587
▁सूक्त	-9.79628
▁स्फुट	-9.79641
▁क्रीड	-9.79668
▁हरिः	-9.79744
▁वरुण	-9.79744
▁लोका	-9.7979
▁भावना	-9.79792
▁H	-9.79946
▁पितर	-9.79955
▁तमेव	-9.79965
▁लाखों	-9.79967
▁}	-9.79972
▁पातु	-9.79979
▁संविधान	-9.79987
▁सुरक्षा	-9.80004
▁मह्यं	-9.80012
▁हल	-9.80031
▁षष्ठी	-9.801
▁श्रूयते	-9.80135
▁आदेश	-9.80167
▁O	-9.80184
▁भुवि	-9.80197
विश	-9.80335
ुक	-9.8037
▁व्यास	-9.80411
▁ध्वज	-9.80414
▁दक्षिणे	-9.8043
▁बभूव	-9.80451
श्य	-9.80485
▁करोतु	-9.8051
▁प्रद	-9.80519
ण्य	-9.8052
▁ेत्य	-9.80545
▁न्ति	-9.80603
दृश	-9.80639
▁वात	-9.80655
▁सम्बद्ध	-9.80687
▁क्षीर	-9.80688
▁नहीं	-9.8075
▁सद्	-9.80798
▁अक्षर	-9.80846
▁राष्ट्रपति	-9.80868
▁नष्ट	-9.80871
▁विचित्र	-9.80946
▁शम	-9.8103
यान	-9.81048
▁बालकः	-9.81084
यि	-9.81125
िया	-9.81202
▁ुप	-9.81255
▁इय	-9.81295
▁अनुवाद	-9.81327
▁स्तदा	-9.81333
▁तत्व	-9.81336
▁षोडश	-9.81345
▁ऋत	-9.81345
▁गुणाः	-9.81379
▁स्यैव	-9.8142
धन	-9.81436
▁वदन्ति	-9.8146
म्भ	-9.81495
▁ीं	-9.81559
▁दृष्टं	-9.81617
▁2019	-9.81892
▁केवलम्	-9.81897
▁धार	-9.82007
▁मिथ्या	-9.82009
▁50	-9.82113
▁जान	-9.82119
▁निर्मित	-9.82121
▁पो	-9.82122
▁वर्धते	-9.82189
▁सिद्धान्त	-9.82203
▁परमेश्वर	-9.82259
▁सकलं	-9.82267
▁स्त्र	-9.82348
ाऽ	-9.82362
▁कश्चिद्	-9.82407
▁धर्मो	-9.82418
▁क्षेत्रं	-9.8248
वह	-9.82595
▁मार	-9.82623
ेषां	-9.82625
▁शरीरं	-9.82649
▁सत्र	-9.82676
▁अन्तः	-9.82714
▁मित्रं	-9.82727
▁तन्न	-9.82855
▁कट	-9.82871
॒त	-9.8288
▁स्तस्य	-9.8288
िणी	-9.82893
▁प्रत्या	-9.82904
▁गीत	-9.82935
▁करुणा	-9.82957
▁परिमाण	-9.82976
▁कीदृश	-9.83014
▁मद्	-9.83022
▁सृष्ट	-9.83054
▁देवं	-9.83072
▁विद्युत	-9.83085
▁अन्तिम	-9.83106
▁योजन	-9.83111
▁the	-9.83201
▁संवत्सर	-9.83244
▁धारण	-9.83253
▁फलम्	-9.83282
▁गुणः	-9.83288
▁परमा	-9.83313
▁पश्यामि	-9.83398
▁यै	-9.83412
▁रम	-9.83437
▁दय	-9.83439
यन	-9.83523
▁ाप	-9.83553
▁वानर	-9.83578
वर्ण	-9.8358
▁ऽन्य	-9.83615
▁आधार	-9.83627
▁अय	-9.83645
न्द्र	-9.83767
ाहं	-9.83809
▁द्वितीयं	-9.83849
▁अना	-9.8385
भ्यः	-9.83881
▁तवा	-9.83991
▁शक्र	-9.83997
भू	-9.84009
▁नामानि	-9.84045
▁नीत	-9.84051
▁भावे	-9.84061
▁शक्यं	-9.84106
▁लक्षणम्	-9.84127
▁अभाव	-9.84169
▁धृत	-9.84194
▁बुध	-9.8421
▁परस्परं	-9.84221
▁हन्त	-9.84293
▁व्याख्यान	-9.84384
▁म्ह	-9.84387
▁x	-9.84406
▁आव	-9.84422
▁मूर्ति	-9.84477
दं	-9.8452
▁न०	-9.84531
▁याःगु	-9.84744
▁स्मृतः	-9.84751
▁एतादृश	-9.84766
▁भाष्य	-9.84817
▁(=	-9.84865
बी	-9.84871
▁सन्देह	-9.84883
re	-9.84895
द्व	-9.849
▁कश्चिद	-9.85025
जीव	-9.8509
▁ग्रहणम्	-9.85103
▁स्तम्भ	-9.85104
▁इत्युक्ते	-9.85127
▁पंच	-9.85132
▁पार्श्व	-9.85139
ोर	-9.85192
▁प्रथमे	-9.85204
ेह	-9.85206
▁ताव	-9.85212
▁पट	-9.85244
वन्	-9.85275
धर्म	-9.85316
▁निवेश	-9.85317
▁लेखन	-9.8536
िम	-9.8548
▁जक	-9.85508
कुल	-9.8553
▁दिशि	-9.85596
गू	-9.85645
िद	-9.85702
▁नाटक	-9.8574
▁बाध	-9.85806
▁लय	-9.85808
▁इत्यत	-9.85855
▁निवास	-9.85865
सां	-9.85897
▁भवः	-9.85938
▁युव	-9.8595
▁अनन्त	-9.86011
▁मणि	-9.86082
▁पृष्ट	-9.86094
▁त्वत्	-9.86112
ध्व	-9.86163
▁प्राप्ता	-9.86175
▁ादिकं	-9.86198
▁भिर	-9.86205
▁एवमेव	-9.86251
▁2020	-9.86295
▁चरित	-9.86356
▁प्राप	-9.86391
▁क्षणं	-9.86406
▁यव	-9.86516
▁प्रक्रिया	-9.86531
सन्	-9.86566
▁अक्ष	-9.86596
▁नान्य	-9.86684
स्मि	-9.86699
▁ऋतु	-9.86727
▁वसु	-9.86839
वृत्त	-9.86865
▁आर्थिक	-9.86904
▁पुत्रा	-9.87001
▁केचन	-9.87029
▁is	-9.87034
▁प्राय	-9.87079
▁जु	-9.87116
▁छात्राः	-9.87154
▁क्ली	-9.87167
▁रहित	-9.87229
कार्य	-9.87251
▁कालो	-9.87277
ाङ्ग	-9.87282
कृत्	-9.87289
▁दशा	-9.87313
टा	-9.87404
▁वृत	-9.87409
णो	-9.87464
▁पात्र	-9.87513
▁पुरुषो	-9.87523
▁नीय	-9.87544
▁प्रिया	-9.87574
▁ेत	-9.87578
▁कष्ट	-9.87582
▁यस्मात्	-9.87587
▁y	-9.87748
ोच्यते	-9.8775
▁विवाद	-9.87755
▁संबंध	-9.87765
▁जनक	-9.878
▁क्य	-9.8782
दन	-9.87834
▁सृष्टि	-9.87981
▁रणे	-9.87981
▁विहाय	-9.88008
▁विशेषेण	-9.88026
▁अधो	-9.88043
▁ाग्नि	-9.88056
▁चकार	-9.88067
▁पिण्ड	-9.8807
▁खोज	-9.8813
▁2018	-9.88151
न्त्य	-9.88221
▁स्वस्थ	-9.88284
▁धारय	-9.88288
▁h	-9.88321
▁प्रवाह	-9.88338
▁व्याघ्र	-9.88349
मुक्त	-9.88618
▁ततश्च	-9.88685
▁स्वरूपं	-9.8872
र्द	-9.88755
▁जीवति	-9.88819
़	-9.88823
िनां	-9.88889
▁सचिव	-9.88926
पान	-9.88929
▁स्त्वं	-9.88939
▁संघ	-9.88984
▁राज्ञः	-9.88985
▁निवेदन	-9.89003
▁मुखं	-9.89004
▁40	-9.89013
▁नमो	-9.89081
▁मथ	-9.89109
▁भवती	-9.89122
▁आय	-9.89189
▁अतएव	-9.89204
▁प्रदान	-9.89238
▁मेष	-9.89242
▁इमं	-9.89296
▁इत्	-9.89322
▁कथन	-9.8939
▁पै	-9.894
▁धार्मिक	-9.89401
▁त्रीणि	-9.89406
▁पत्रं	-9.89425
०००	-9.89433
▁५५	-9.89441
▁वस्त्र	-9.89461
▁भवत्	-9.89527
▁विधिना	-9.89651
त्येव	-9.89683
▁ाणि	-9.89706
▁रेव	-9.8975
▁स्ता	-9.89799
▁आसन	-9.89805
▁गुरुः	-9.89812
पाल	-9.89869
पिं	-9.89871
▁षड्	-9.89904
▁अधिकारी	-9.89921
▁पाय	-9.89998
▁ध्रुव	-9.9003
▁सत्ता	-9.9012
▁जं	-9.90143
▁भी	-9.90158
धाय	-9.90162
▁नायक	-9.90198
▁प्रीत	-9.90201
▁पालन	-9.90213
▁वृद्धिः	-9.90226
▁शैल	-9.90234
▁त्यक्त्वा	-9.90263
▁निष्	-9.90341
▁धीरे	-9.90359
▁पृच्छ	-9.90403
▁चिकित्सा	-9.90461
▁आई	-9.90469
डा	-9.90473
▁पान	-9.90475
▁मांस	-9.90493
▁बे	-9.90619
▁४१	-9.90622
▁मरणं	-9.90641
▁दीन	-9.90643
▁तस्यां	-9.90658
▁उपयोग	-9.90669
▁स्थापित	-9.9072
▁भद्र	-9.90807
▁६०	-9.90827
सिद्ध	-9.90893
▁परो	-9.90894
▁सर्वाः	-9.90914
र्क	-9.90916
ज्ञान	-9.9097
▁हरे	-9.90989
▁३४	-9.91075
▁प्रसन्न	-9.91139
क्षा	-9.91144
वेश	-9.91195
म्य	-9.91242
▁४७	-9.91298
▁युवा	-9.91313
▁स्थापय	-9.91347
▁पूर्वा	-9.91356
▁कण्ठ	-9.9137
▁ग्राह्य	-9.91399
▁शूर	-9.91443
▁पुत्रो	-9.9158
▁आचार्य	-9.91586
▁सौम्य	-9.91616
▁रचना	-9.91681
▁ाधिकार	-9.91692
▁पदस्य	-9.9173
▁सर्वथा	-9.9175
▁न्यायालय	-9.9176
▁नागरिक	-9.91769
▁कल्पना	-9.9179
▁W	-9.91832
▁बाहु	-9.91835
▁सहसा	-9.91842
भार	-9.91856
▁कालेन	-9.91892
हत	-9.91897
मत	-9.91909
▁पुरुषं	-9.91916
▁नाग	-9.91922
▁दैवत	-9.91929
▁भोज	-9.91943
▁पदम्	-9.92037
▁जगद्	-9.92141
▁ईश्वरः	-9.92178
▁सङ्	-9.92204
▁मद्य	-9.92256
▁साधक	-9.9226
ह्	-9.92281
▁क्षर	-9.92287
▁कक्षा	-9.92371
▁अवि	-9.92419
▁पुरातन	-9.92422
यित्वा	-9.92459
▁करणं	-9.92468
भेद	-9.92471
▁पते	-9.92472
▁अङ्क	-9.92499
▁इत्येवं	-9.92503
▁शयन	-9.92509
▁श्रिय	-9.92575
▁पूजां	-9.92603
क्षि	-9.9267
▁अग्निः	-9.92674
▁बुद्धिः	-9.92696
्यु	-9.92707
▁अंश	-9.92723
▁खो	-9.9273
▁दिवा	-9.92822
▁अण्	-9.92832
▁इत्युच्यते	-9.92855
▁अत्यन्त	-9.92923
▁साथ	-9.92932
▁मिह	-9.92937
बु	-9.92965
▁सर्वैः	-9.92976
▁४९	-9.92989
षे	-9.93002
▁धातुः	-9.93065
यम्	-9.93165
▁यशः	-9.93167
▁४४	-9.93185
▁इच्छति	-9.93261
▁अधिकरण	-9.93276
▁द्ध	-9.93355
▁एन	-9.93373
▁इत्या	-9.93377
▁दू	-9.93377
▁ान्त	-9.93394
▁अध्यायः	-9.93459
▁पुरस्कार	-9.9349
▁कारयेत्	-9.93608
▁जातं	-9.93674
}	-9.93725
▁गम्य	-9.93738
▁%	-9.93743
▁दिव	-9.93801
▁अपर	-9.93855
▁सीमा	-9.93875
▁निरोध	-9.93927
▁घर	-9.93939
▁सप्तम	-9.94032
क्षण	-9.94035
O	-9.94117
▁योगी	-9.94149
▁इत्यस्मात्	-9.94159
▁प्राप्यते	-9.94302
▁धीर	-9.94312
▁४८	-9.94381
▁द्रष्टुं	-9.9439
▁एतानि	-9.94395
▁दशम	-9.94425
मूल	-9.94479
▁खर	-9.945
▁धिकार	-9.94511
▁नौ	-9.94521
▁मर	-9.9455
ुष	-9.94567
U	-9.9457
ed	-9.9458
▁द्वन्द्व	-9.94591
ालय	-9.94595
▁6.	-9.94609
▁गोप	-9.94646
▁देशं	-9.9465
▁उचित	-9.94669
▁गे	-9.94699
▁कारिण	-9.94702
▁टि	-9.94704
▁प्	-9.94731
ध्	-9.94757
▁संज्ञ	-9.94842
▁भावेन	-9.94901
▁योऽ	-9.94903
वद्	-9.94905
▁हन्ति	-9.94928
▁त्वाद	-9.94961
▁गोचर	-9.94981
▁कोश	-9.95007
in	-9.95057
▁पापं	-9.9506
iii	-9.95075
▁मव	-9.95087
▁अवदत्	-9.95139
▁दैत्य	-9.95239
▁हृत	-9.95286
▁अमरः	-9.9535
▁समग्र	-9.95365
▁भक्त्या	-9.9537
▁एको	-9.95381
माना	-9.95396
▁भूय	-9.95415
▁शीर्ष	-9.95488
▁शुल्क	-9.95489
्यन्ते	-9.955
am	-9.95585
▁विघ्न	-9.95594
▁अवस्था	-9.95611
▁धिक	-9.95631
▁इत्येत	-9.95742
▁विश्वास	-9.95745
▁छि	-9.95777
▁दीयते	-9.95796
▁अहम	-9.95802
▁प्रोक्त	-9.95813
▁प्रजाः	-9.95824
▁वाचक	-9.95833
▁द्वेष	-9.95834
▁त्यक्त	-9.95837
▁मधुर	-9.95879
▁स्थापना	-9.95898
en	-9.95903
▁दत्त्वा	-9.95975
▁दिनानि	-9.95995
▁दृष्ट्या	-9.96001
▁मिश्र	-9.96018
मध्ये	-9.96105
▁यान्ति	-9.96137
▁यामि	-9.9614
▁भवत्य	-9.96189
ेश	-9.96192
▁वर्ध	-9.96388
▁औषध	-9.96482
▁ितः	-9.96486
बन्ध	-9.96491
▁वृष	-9.96505
▁अग्र	-9.96507
▁प्रस्तुत	-9.96524
▁एकैक	-9.96543
भय	-9.9657
▁Next	-9.96609
▁लक्ष्यते	-9.96651
गृह	-9.96681
▁अध्यक्ष	-9.96683
▁समर्थन	-9.96702
न्ती	-9.96722
▁पुत्रं	-9.96766
▁तदर्थ	-9.96778
@	-9.96794
▁हु	-9.96804
▁टे	-9.96811
▁तीव्र	-9.96891
शब्द	-9.96891
▁४२	-9.96908
▁29	-9.96938
ms	-9.96938
▁शुभा	-9.96956
▁चिर	-9.96968
▁पितुः	-9.96973
▁अवश्यं	-9.97003
▁इत्थं	-9.97037
▁द्वयं	-9.9706
देशे	-9.97081
▁तदनु	-9.97108
▁नाप	-9.97111
▁सिध्यति	-9.97152
▁तदाह	-9.97187
▁कामं	-9.97199
ृत	-9.97262
▁कुतो	-9.97375
▁घटना	-9.97432
▁ात्मा	-9.97434
▁ऽथ	-9.97444
▁भवेद्	-9.97466
▁ताल	-9.97475
▁दरिद्र	-9.97488
▁कैः	-9.97554
▁मङ्गल	-9.97563
▁कार्यालय	-9.97566
▁जिला	-9.97608
▁मात्रेण	-9.97661
मह	-9.9769
मनु	-9.97739
▁अस्माभिः	-9.97766
र्म	-9.97812
▁रात्र	-9.97815
िष्यामि	-9.9796
▁पीत	-9.97989
▁स्ट	-9.98017
▁एषां	-9.98019
▁नाव	-9.98046
▁लक्षणा	-9.98089
▁ध्याय	-9.98115
▁कथयति	-9.98131
▁तथ	-9.98159
▁पुरुषस्य	-9.98232
▁ग्नि	-9.98243
▁स्युः	-9.98314
▁इद	-9.98317
पुत्र	-9.98341
▁स्थितं	-9.98391
▁Answer	-9.98438
▁आधुनिक	-9.98438
▁परस्परम्	-9.98446
दर	-9.98457
त्ता	-9.98533
▁re	-9.98543
▁कार्य्य	-9.98584
▁सम्बन्धी	-9.9865
▁ार्थम्	-9.98685
▁तेनैव	-9.98692
▁आशा	-9.98714
▁येत्	-9.98716
▁पञ्चम	-9.98743
लय्	-9.98757
▁शोध	-9.98823
▁विक्रम	-9.98909
▁रिक्त	-9.98919
▁बहूनि	-9.98927
▁वर्षस्य	-9.98999
▁गुप्त	-9.9904
▁विद्वान्	-9.99059
▁ली	-9.99103
▁प्रभुः	-9.99128
▁दाह	-9.99187
G	-9.99211
▁संकल्प	-9.99234
पेक्ष	-9.9926
▁दिवि	-9.9926
▁हस्ते	-9.99264
▁वेतन	-9.99344
▁निष्ठा	-9.99363
▁प्रतिषेधः	-9.99389
▁पुष्टि	-9.99391
le	-9.99414
▁युक्ता	-9.99438
▁समाधि	-9.99446
▁स्थानम्	-9.99452
▁मुदा	-9.99532
▁ताम	-9.99557
▁शिष्ट	-9.99577
वाक्य	-9.99624
▁ञ	-9.99667
डी	-9.99738
▁संभवति	-9.9974
F	-9.99825
िन्	-9.99913
ीयते	-9.99917
▁क्रमशः	-9.99921
▁मेक	-9.9997
▁विधा	-9.99991
▁अन्तरिक्ष	-9.99998
मान्	-10.0002
▁जन्य	-10.0002
विशेष	-10.0004
▁सप्ताह	-10.0006
मास	-10.0007
लक्षण	-10.0007
▁स्वं	-10.0011
▁लौकिक	-10.0013
▁४६	-10.0021
▁=>	-10.0025
ic	-10.0029
▁तपः	-10.003
▁स्मि	-10.0038
िर्	-10.0039
वचन	-10.0041
▁विधाय	-10.0041
▁अध्य	-10.0046
▁याग	-10.0049
▁दृष्टान्त	-10.005
▁स्तन	-10.0051
▁राय	-10.0052
▁नवीन	-10.0053
▁ेभ्यो	-10.0053
खा	-10.0053
▁अत्य	-10.0057
▁३८	-10.0059
▁कर्तव्यः	-10.0063
▁हानि	-10.0068
▁दुग्ध	-10.0069
▁ष्य	-10.0069
▁युज्यते	-10.0072
▁दृश्यम्	-10.0079
▁महता	-10.0086
▁मित्यर्थः	-10.0092
▁मर्थ	-10.0093
=	-10.0093
▁वाक्	-10.01
▁शाखा	-10.0101
▁परम्परा	-10.0102
▁प्रियं	-10.0103
▁करी	-10.0106
ग्रह	-10.0108
or	-10.0119
▁वैज्ञानिक	-10.0125
▁भूत्	-10.0125
▁प्राकृत	-10.0138
▁कामः	-10.0139
दार	-10.0142
▁पुट	-10.0143
▁ऽभि	-10.0146
▁चैक	-10.015
▁प्रदेशे	-10.015
▁सुप्त	-10.0151
▁नीच	-10.0152
▁असौ	-10.0154
▁वया	-10.0156
▁भ्रमण	-10.0158
▁स्रोत	-10.0158
स्प	-10.0161
▁तान	-10.0164
▁ऽव	-10.0165
▁प्राप्तिः	-10.0166
▁मिल	-10.0166
▁अपराध	-10.0167
▁रिपु	-10.0168
▁याये	-10.0169
रिय	-10.0169
▁विदुः	-10.0175
▁कर्तुम्	-10.0177
▁मर्त्य	-10.0179
▁आगम	-10.0179
▁गतौ	-10.0187
िष्	-10.0188
▁प्राप्तवान्	-10.0191
ुर्	-10.0202
▁कुम्भ	-10.0224
▁ऽयं	-10.0233
▁षि	-10.0233
▁आवश्यक	-10.0234
▁सेव	-10.0235
▁गताः	-10.0236
▁मुहूर्त	-10.0237
ॄ	-10.0241
▁पितामह	-10.0247
▁मूलं	-10.0247
ज़	-10.0254
ोत्तर	-10.0258
▁चित	-10.0263
▁अधिकृत	-10.0265
▁ाश्च	-10.0268
▁कू	-10.0268
▁विषम	-10.0268
▁अस्मान्	-10.0276
ऽपि	-10.0277
▁विज्ञानं	-10.0278
▁ध्य	-10.028
▁Q	-10.0281
▁धारणा	-10.0283
▁विशाल	-10.0284
▁दत्तं	-10.0285
▁पृष्ठं	-10.0286
▁प्रकृतिः	-10.0292
▁ही	-10.0292
▁कूप	-10.0295
▁ल्	-10.0298
▁प्रतीति	-10.0306
ur	-10.0308
जायते	-10.0309
▁यथाशक्ति	-10.0309
▁ऽऽ	-10.031
▁युत	-10.031
▁लोपः	-10.0312
▁प्रवक्ष्यामि	-10.0314
▁सामान्यतः	-10.0315
@1	-10.0315
▁जनार्दन	-10.0316
▁w	-10.0325
००	-10.0326
▁35	-10.0327
दो	-10.0328
▁प्राप्तः	-10.0331
▁दिष्ट	-10.0338
▁वैद्य	-10.034
▁प्रदूषण	-10.034
▁गृह्यते	-10.0343
▁वक्तव्य	-10.0344
▁अभिप्राय	-10.0352
▁मृदु	-10.0354
▁करि	-10.0358
▁7.	-10.0362
िनि	-10.0363
▁धातोः	-10.0365
तस्	-10.0367
▁लोकः	-10.0369
▁३९	-10.0369
▁सद	-10.037
स्मा	-10.0376
▁दिवसे	-10.0383
▁स्वामी	-10.0392
▁X	-10.0393
▁प्रयत्नेन	-10.0395
▁विश्वा	-10.0396
▁पूर्वेण	-10.0396
▁शरण	-10.0397
▁सहस्राणि	-10.0399
▁देवताः	-10.0403
▁एस्	-10.0405
▁लो	-10.0406
▁वसति	-10.0411
गो	-10.0411
▁आगत	-10.0413
▁मतम्	-10.0415
▁नारायण	-10.0415
नौ	-10.0416
▁धाःसा	-10.0417
▁५२	-10.0419
▁लोकानां	-10.0419
▁भाति	-10.0419
लः	-10.0422
▁में	-10.0422
मू	-10.0423
▁कार्ये	-10.0435
▁सम्बन्धः	-10.0436
काम	-10.0441
▁दद्यात्	-10.0442
▁दर्शय	-10.0444
▁क्या	-10.0445
▁ृ	-10.0446
▁नगरं	-10.0449
▁त्वाद्	-10.045
▁भग	-10.0452
at	-10.0454
टे	-10.0463
▁तन	-10.0466
_	-10.0467
▁पृथिव्या	-10.0469
▁तद्यथा	-10.047
▁राष्ट्रे	-10.0473
▁गौरव	-10.0473
▁रेखा	-10.0475
ाक्ष	-10.0486
▁आधिकारिक	-10.0487
▁सन्देश	-10.0489
▁दृश्यन्ते	-10.0496
▁प्राप्तं	-10.0498
क्षय	-10.0503
▁ध्यानं	-10.0503
▁समीप	-10.0507
ेऽ	-10.0508
▁तत्रापि	-10.0513
▁श्रुतिः	-10.0517
▁पुरतः	-10.0518
▁शोभन	-10.052
▁भूतानि	-10.0527
▁आवश्यकता	-10.053
▁पद्य	-10.0535
▁चतुर्दश	-10.0536
▁वारि	-10.0544
▁सम्पादन	-10.0548
▁योर	-10.0549
▁गणित	-10.0553
▁ादिति	-10.0556
ीश्वर	-10.0556
▁J	-10.0558
▁सामग्री	-10.0561
▁आरम्भ	-10.0562
वर्ग	-10.0562
▁प्रेत	-10.0565
▁सप्तदश	-10.0565
▁पूज्य	-10.0569
िभिः	-10.057
▁प्रशासन	-10.0571
▁निवृत्ति	-10.0572
▁बलि	-10.0576
▁जगति	-10.0577
▁पर्याय	-10.0581
▁सङ्कल्प	-10.0586
▁७०	-10.0587
▁जीवितं	-10.0592
तुः	-10.0595
▁भोः	-10.0598
▁यक्ष	-10.06
▁त्वादि	-10.0601
▁वेत्ति	-10.0602
▁तात्पर्य	-10.0611
▁साभारः	-10.0613
▁दद	-10.0616
▁पिब	-10.0616
▁कविता	-10.0617
▁32	-10.0619
▁सर्वकार	-10.062
▁पुनरपि	-10.062
▁क्रिय	-10.0621
▁वर्णन	-10.0622
▁अधः	-10.0633
▁व्यसन	-10.064
H	-10.064
▁स्वयम	-10.0641
▁सादृश्य	-10.0641
▁०३	-10.0643
▁गृह्य	-10.0643
▁स्तुति	-10.065
▁आर्य	-10.0652
भेदे	-10.0658
▁स्वस्ति	-10.0659
▁उन्नत	-10.066
▁नैक	-10.0666
▁साहस	-10.0667
▁आरब्ध	-10.0673
▁पूर्वे	-10.0673
▁यया	-10.0673
▁अन्ते	-10.068
▁चिन्तय	-10.0681
▁वर्तन्ते	-10.0682
▁नक्षत्र	-10.0686
पू	-10.0687
▁पठति	-10.0691
▁v	-10.0697
▁संवाद	-10.0698
▁शो	-10.0699
▁प्रयत	-10.0703
▁दृ	-10.0705
भागे	-10.0707
▁सम्पन्न	-10.0719
▁डी	-10.0721
▁ध्येय	-10.0725
▁शिशु	-10.0729
▁व्	-10.0731
▁षा	-10.0731
▁चिह्न	-10.0737
▁8.	-10.0738
▁काङ्क्ष	-10.0738
भ्र	-10.0738
▁प्रयोजनं	-10.0739
▁किंचित्	-10.0747
▁भवतां	-10.0752
▁केनापि	-10.0753
त्रय	-10.0755
▁पार्श्वे	-10.0757
▁अधिकं	-10.0758
▁दूषण	-10.0762
▁इमा	-10.0762
▁U	-10.0765
▁साक्षाद	-10.0767
▁अनन्तरं	-10.0767
येद्	-10.0771
▁परिवर्त	-10.0772
▁साक्षात्कार	-10.0775
▁अन्वेषण	-10.0775
▁ing	-10.0776
▁रवि	-10.0778
▁८०	-10.0779
il	-10.078
▁ाऽ	-10.0781
▁चोर	-10.0788
▁साधनं	-10.0793
प्स	-10.0793
▁निशा	-10.0793
शे	-10.0794
▁प्रारम्भ	-10.0797
▁नोप	-10.0799
▁ोऽस्ति	-10.081
▁कानून	-10.0812
वन्तः	-10.0814
▁द्रुत	-10.0815
▁करं	-10.0822
▁प्रयच्छ	-10.0823
दः	-10.0826
▁ार्थः	-10.0826
▁त्येव	-10.0828
पते	-10.0833
▁ङ्क	-10.084
▁दिति	-10.0841
▁मई	-10.0842
▁नूनं	-10.0842
▁शिला	-10.085
▁संस्थित	-10.0853
पन	-10.0855
▁संहिता	-10.0856
अथ	-10.086
▁मना	-10.0879
▁ईश	-10.0879
▁पुनरा	-10.088
▁ेऽपि	-10.0881
▁हां	-10.0892
▁धर्म्म	-10.0893
▁आहार	-10.0898
▁गृहम्	-10.0905
▁यन्त	-10.0907
▁ऽस्मिन्	-10.0908
▁ग्	-10.0912
▁भूतं	-10.0913
▁ह्रस्व	-10.0916
▁द्विगुण	-10.092
थ्	-10.0925
▁रङ्ग	-10.0925
▁तै	-10.0925
▁मन्त	-10.0929
▁प्रियः	-10.093
▁दोषा	-10.093
▁विद्य	-10.0936
▁प्रभात	-10.0936
▁समर्पयामि	-10.0941
▁कानि	-10.0941
▁उपदेश	-10.0942
▁इच्छामि	-10.0947
▁शीतल	-10.0949
▁रक्षण	-10.0955
ही	-10.0957
▁ट्र	-10.0958
▁भेदेन	-10.0959
▁ान्न	-10.0963
▁टिप्पणियां	-10.0966
▁लोकं	-10.0968
नाय	-10.0969
▁०२	-10.097
▁छात्र	-10.0972
▁अन्या	-10.0978
▁स्यादिति	-10.0981
▁व्याप्त	-10.0982
▁तस्यैव	-10.0989
▁प्रत्ययो	-10.0991
▁अर	-10.0992
▁सलिल	-10.0993
▁आदित्य	-10.0994
▁अपना	-10.1
▁वक्ष्यामि	-10.1001
▁मखु	-10.1002
▁चित्तं	-10.1008
▁वाक्ये	-10.101
▁५७	-10.1013
▁प्रदत्त	-10.102
▁स्वकीय	-10.102
▁उक्तः	-10.1027
▁चतुर	-10.1028
वल	-10.1029
▁विनि	-10.1034
▁वेदना	-10.1034
▁तृण	-10.104
▁योगः	-10.1046
▁प्राणि	-10.1052
▁रत	-10.1054
यथा	-10.1054
▁यत्न	-10.1056
▁विषया	-10.1057
▁सुखम्	-10.1059
▁इन्	-10.1067
▁परस्य	-10.1068
▁जगाम	-10.107
▁साम्य	-10.107
▁१९७	-10.1075
▁भागं	-10.1077
▁अभवन्	-10.1079
▁गान	-10.1081
▁५४	-10.1082
गर	-10.1084
▁क्षणे	-10.1084
युः	-10.1087
▁यस्या	-10.109
▁स्तेन	-10.1093
▁वाप	-10.1097
▁शेषं	-10.11
▁ग्राह	-10.1101
▁तुष्ट	-10.1104
▁जिन	-10.1107
▁रुचि	-10.1109
▁निर्णयः	-10.1111
शक्ति	-10.1112
िष्ठ	-10.1113
▁बहिर्	-10.1114
▁स्तः	-10.1114
▁यितुं	-10.1114
दृष्ट	-10.1115
[	-10.1116
ग्न	-10.1119
▁ह्र	-10.1124
▁ख्या	-10.1126
▁सर्वभूतेषु	-10.1126
▁देवदत्त	-10.1127
स्था	-10.1128
▁ायै	-10.1131
▁षड	-10.1131
▁उत्सव	-10.1131
▁सङ्घ	-10.1138
ष्म	-10.114
▁पदार्थः	-10.114
▁मानवः	-10.1141
▁बाण	-10.1142
नम	-10.1144
▁प्रिये	-10.1145
ण्ट	-10.1145
▁भे	-10.1145
▁2021	-10.1148
▁गिर	-10.1152
▁राज्यस्य	-10.1158
▁णां	-10.1159
▁ज्योतिष	-10.1161
▁देय	-10.1162
पो	-10.1172
भाषा	-10.1172
णां	-10.1172
▁दानव	-10.1176
▁बन्धन	-10.1177
▁कर्त्तव्य	-10.1179
▁समवाय	-10.118
▁पूर	-10.1181
ह्न	-10.1183
मासस्य	-10.1189
▁गतो	-10.119
दर्श	-10.1201
त्स	-10.1204
नाथ	-10.1207
▁ईदृश	-10.1208
▁भुवन	-10.1209
▁तासां	-10.1211
▁अन्यत्	-10.1211
▁इत्येतत्	-10.1213
▁II	-10.1222
▁इन्द्रिय	-10.1224
कट	-10.1226
जान	-10.1226
स्त्व	-10.1231
▁आर्	-10.1232
युत	-10.1233
▁प्रो	-10.1235
त्वम्	-10.1245
बर	-10.1246
▁खाद	-10.1253
▁तत्त्वं	-10.1254
▁प्रकाशित	-10.1254
धु	-10.1256
▁कर्तव्या	-10.1258
▁सख्य	-10.1258
▁जाने	-10.1262
▁de	-10.1262
▁चेत	-10.1268
▁शब्दार्थ	-10.1269
▁महती	-10.1281
▁पूर्वम्	-10.1283
▁मार्गः	-10.1283
▁कठिन	-10.1284
▁by	-10.1284
दृ	-10.1292
घात	-10.1294
▁भुक्त	-10.1297
▁be	-10.1302
▁विस्मय	-10.1307
वृ	-10.1308
▁जनपद	-10.1309
▁धान्य	-10.1311
▁व्यापक	-10.1313
▁ाम	-10.1314
▁स्मृतम्	-10.1315
क्रान्त	-10.1327
▁५९	-10.1328
▁निरा	-10.1334
▁चर्चा	-10.1343
▁प्रदर्शन	-10.1347
टक	-10.1354
ागत	-10.1356
▁तेऽ	-10.1357
▁पाणि	-10.1358
▁प्रतिमा	-10.136
▁पालय	-10.1362
िनो	-10.1365
▁नियमः	-10.1365
▁तुभ्यं	-10.1371
▁मनुः	-10.1372
▁यथाविधि	-10.1374
न्व	-10.1378
▁४३	-10.1379
▁भीत	-10.1382
भ्यां	-10.1382
▁पठन	-10.1383
गी	-10.1385
▁क्रमात्	-10.1387
▁स्थूल	-10.1387
न्तः	-10.1387
▁युक्ति	-10.1395
▁मयं	-10.1402
▁कान्त	-10.1403
▁भ्यां	-10.1407
▁अर्थात्	-10.1413
▁जर	-10.1414
▁किंच	-10.1415
▁पश्यन्ति	-10.1426
▁निष्ठ	-10.1436
दित	-10.1436
ैष	-10.1439
▁कर्तृ	-10.1441
ून	-10.1445
्र	-10.1449
▁संस्थिता	-10.1451
▁द्वितीये	-10.1452
▁स्त्रिया	-10.1453
▁चेद	-10.1455
▁माम	-10.1462
▁ाह	-10.1468
▁उत्कृष्ट	-10.1468
▁सम्मेलन	-10.1468
गल	-10.1469
▁पुरो	-10.147
▁निर्देशः	-10.147
थे	-10.147
▁विवक्षित	-10.1472
कारस्य	-10.1472
ार्थः	-10.1473
▁विहीन	-10.1478
▁तावद	-10.1478
▁पत्रिका	-10.148
▁खल	-10.1482
▁दोषो	-10.1483
▁"'	-10.1483
▁संशोधन	-10.1489
▁तावद्	-10.149
▁जाना	-10.1494
▁←	-10.1496
▁्यते	-10.1497
▁शी	-10.1497
▁पावन	-10.1503
▁वक्त्र	-10.1504
▁अन्व	-10.1505
▁पतित	-10.1506
▁७५	-10.1508
▁्र	-10.1513
▁31	-10.1513
▁दृष्टः	-10.1516
▁समेत	-10.1517
▁श्वः	-10.1518
▁विंशति	-10.152
▁द्व	-10.1521
▁सोऽपि	-10.1526
▁गोत्र	-10.1531
िताः	-10.1532
▁तल	-10.1535
▁र्य	-10.1537
▁द्वितीयः	-10.154
▁माला	-10.154
▁विधानं	-10.154
▁तैल	-10.1541
▁वत	-10.1551
▁परत	-10.1552
भ्यो	-10.1552
▁पाश	-10.1559
▁जगतः	-10.156
▁श्याम	-10.1564
▁गुह्य	-10.1569
▁नारद	-10.157
▁प्रयत्नतः	-10.157
कू	-10.1574
▁गोल	-10.1578
▁रक्षति	-10.1587
▁सित	-10.159
▁विष्ट	-10.1603
ing	-10.1604
▁योगे	-10.1612
▁५६	-10.1614
▁वसन्त	-10.1615
▁निगम	-10.1616
▁भविष्यन्ति	-10.1624
▁माल	-10.1624
▁भवन्तः	-10.1629
▁पराजित	-10.1634
▁स्तोत्र	-10.1637
▁यौवन	-10.1638
▁अन्त्य	-10.1641
▁तपसा	-10.1642
विष्ट	-10.1644
▁ेन्द्र	-10.1644
कल्प	-10.1645
ख्य	-10.1647
हिं	-10.1647
▁निम्न	-10.1649
▁प्राग्	-10.1651
▁कारः	-10.1655
ष्टा	-10.1658
▁बिन्दु	-10.1661
▁रज	-10.1664
▁गच्छन्ति	-10.1665
▁मदु	-10.1669
▁बह्व	-10.167
▁अतिथि	-10.1672
▁चेतन	-10.1676
जः	-10.1676
▁स्वामिन	-10.1686
तव्य	-10.1686
▁यौ	-10.1688
▁आन्दोलन	-10.1688
▁पर्याप्त	-10.1689
▁उद्योग	-10.1691
▁on	-10.1697
▁भूयः	-10.17
स्थित	-10.1701
ुत्तर	-10.1708
▁शोच	-10.1709
▁स्वाभाविक	-10.1716
ध्वं	-10.1717
▁जनसंख्या	-10.1717
▁पश्यत	-10.1717
▁मदीय	-10.1728
▁अतिरिक्त	-10.1729
▁कपि	-10.1729
▁आम	-10.1732
षण	-10.1735
ांसि	-10.1739
दिष्ट	-10.1746
क्षर	-10.1748
▁भूतानां	-10.1748
रात्र	-10.175
▁संभवः	-10.1751
▁अध	-10.1751
ासौ	-10.1755
▁दाता	-10.1755
▁जनता	-10.1756
▁निधन	-10.1757
▁दौ	-10.1761
ुक्त	-10.1763
▁नाट्य	-10.1772
▁सती	-10.1776
ोत्	-10.1776
ैन	-10.1776
▁शक्या	-10.1777
त्रा	-10.1781
▁प्रणय	-10.1783
▁कर्	-10.1783
▁द्विधा	-10.1783
▁वचनम्	-10.1784
▁विस्तर	-10.1791
▁ज्ञेय	-10.1792
▁प्रतीत	-10.1793
▁कुटुम्ब	-10.1799
ोऽहं	-10.1799
निर्दिष्टम्	-10.1802
पन्न	-10.1802
---	-10.1803
▁तपो	-10.1809
▁तेषाम्	-10.1813
▁मात्रे	-10.1817
▁शरीरे	-10.1817
▁सत्या	-10.182
द्वय	-10.1825
▁(1)	-10.1828
▁तमा	-10.183
▁६५	-10.1834
▁श्राद्ध	-10.1834
ab	-10.1834
▁खा	-10.1838
▁उत्तरं	-10.1843
▁ादिना	-10.1846
▁हरेः	-10.1848
▁रसायन	-10.1857
पत्य	-10.1863
▁देवान्	-10.1866
▁राजनीति	-10.1867
जु	-10.187
▁पवन	-10.1882
▁कुर्या	-10.1882
▁प्रव	-10.1885
ंग	-10.19
▁विभव	-10.1902
▁मेतत्	-10.1903
▁अद्यापि	-10.1909
▁फलानि	-10.1909
▁जरा	-10.191
▁लाख	-10.1911
▁प्रतिकूल	-10.1912
▁कूट	-10.1912
▁सम्भवः	-10.1914
▁हरण	-10.192
▁तथ्य	-10.1921
▁च्च	-10.1923
▁नृ	-10.1929
st	-10.1933
▁मत्र	-10.1935
▁यच्छ	-10.1935
▁सिद्धिः	-10.1937
ल्य	-10.1938
▁त्रयोदश	-10.1941
▁ितम्	-10.1941
▁१००	-10.1942
▁सुखदुःख	-10.1942
▁धर्मं	-10.1943
▁वृष्टि	-10.195
▁सुता	-10.1951
▁उष्ण	-10.1952
▁राज्ञ	-10.1956
▁सम्मान	-10.1956
▁सम्यग्	-10.1956
▁ऽस्ति	-10.1968
▁सम्पर्क	-10.1969
▁शिल्प	-10.1971
▁विधेय	-10.1976
चित्	-10.1976
▁महं	-10.1978
▁श्रय	-10.1984
▁:-	-10.1984
▁गृहाण	-10.1985
▁समृद्ध	-10.1987
▁भूषण	-10.1992
▁सर्वम	-10.2001
▁संदेह	-10.2007
▁परिहार	-10.2012
▁जगद	-10.2014
▁मन्त्री	-10.2017
▁अवयव	-10.2017
▁छाया	-10.2026
▁सुलभ	-10.203
▁अमृत	-10.2031
▁प्रतियोगिता	-10.2032
एस	-10.2036
▁वाचा	-10.2037
▁पृष्ठे	-10.204
▁वर्धन	-10.2049
मृत	-10.205
▁विद्यालये	-10.2052
▁योजय	-10.2052
▁मौन	-10.2057
▁नरकं	-10.2057
▁ेक	-10.206
▁खल्व	-10.2067
▁वरद	-10.2073
िल	-10.2074
▁रूपाणि	-10.2081
▁रित्य	-10.2084
▁वैदिक	-10.2084
▁रव	-10.2087
▁वन्तः	-10.2088
्रा	-10.2091
त्तम	-10.2092
▁इच्छ	-10.2093
▁अवसर	-10.2094
वाच	-10.2096
▁मते	-10.2097
सृ	-10.2101
▁काष्ठ	-10.2103
▁पुण्यं	-10.2108
▁an	-10.2109
ासन	-10.2109
▁प्रभव	-10.2111
वस	-10.2112
▁ात	-10.2116
▁राध	-10.212
▁५१	-10.212
▁वश्य	-10.2124
▁Re	-10.2132
▁युष्माकं	-10.2142
▁करा	-10.2143
▁यि	-10.2143
▁आग	-10.2144
▁भरत	-10.2157
▁पदा	-10.2164
▁िता	-10.2164
मार्ग	-10.2164
▁वाचि	-10.2168
▁ाधिक	-10.217
▁क्रियमाण	-10.2174
▁संसर्ग	-10.2176
▁शनैः	-10.2177
▁निमित्तं	-10.2178
पद्यते	-10.2178
▁वेष	-10.2178
▁गणना	-10.2179
▁जातम्	-10.218
यामास	-10.2184
▁परमार्थ	-10.2186
कारण	-10.2187
▁विरोधः	-10.2192
▁ऊर्जा	-10.2197
▁निरूपण	-10.22
▁@	-10.2201
ाधिक	-10.2209
▁ेव	-10.221
▁पठित	-10.2217
▁लकार	-10.2219
▁मार्गेण	-10.2219
लन	-10.2219
वति	-10.2232
▁^	-10.2233
▁युक्ते	-10.2234
मन्त्र	-10.2234
▁ख्य	-10.2234
ir	-10.2235
▁स्थितो	-10.2239
▁पित्त	-10.2243
▁मतिः	-10.2244
▁प्रवास	-10.2259
▁त्रयः	-10.2259
▁2017	-10.2259
॒र	-10.226
ाश्रम	-10.2261
▁वाणिज्य	-10.2261
▁शब्दा	-10.2261
मिव	-10.2262
र्प	-10.2263
▁अनुमान	-10.2264
▁वर्त्त	-10.2266
स्त्य	-10.2266
▁मुद	-10.2269
▁बहुवचन	-10.227
▁वाग्	-10.2273
▁तिर	-10.2273
▁एकस्मिन्	-10.2274
▁धाम	-10.2275
on	-10.2276
▁स्वल्प	-10.228
▁स्वी	-10.2282
▁कारणेन	-10.2284
▁ददौ	-10.2284
▁पुस्तकं	-10.2287
▁ागम	-10.2288
▁अ॒	-10.229
ाण	-10.2291
▁योग्यता	-10.2293
▁वास्तु	-10.2294
▁करिष्ये	-10.2299
▁लिख	-10.2301
▁एक्स	-10.2304
▁भवन्तु	-10.2307
▁मण्डले	-10.2308
व्यय	-10.2314
▁चिरं	-10.2319
िष्ट	-10.2322
▁ज्ञानम्	-10.2322
▁निष्कर्ष	-10.2328
थि	-10.2331
▁भारतं	-10.2339
▁अर्जुन	-10.2347
▁परियोजना	-10.2347
▁ज्ञानेन	-10.2348
▁पौ	-10.2349
▁राजनि०	-10.2349
▁घोष	-10.235
पथ	-10.2351
▁पूर्वमेव	-10.2354
▁ध्या	-10.2354
▁१९८	-10.2355
▁भौतिक	-10.2358
▁38	-10.2359
▁क्षीण	-10.2368
▁प्राप्तुं	-10.2371
et	-10.2372
ूष	-10.2374
▁कुर्व	-10.2382
▁उभौ	-10.2384
▁यस्	-10.2384
▁परार्थ	-10.2388
▁अन्यः	-10.2395
▁वारं	-10.2395
▁सूर्य्य	-10.2396
▁खु	-10.2401
▁गर	-10.2404
▁द्रोण	-10.2407
▁हेतोः	-10.2408
▁ादिभिः	-10.241
▁िण	-10.241
▁विदित	-10.2413
▁भावो	-10.2414
▁स्वार्थे	-10.242
▁द्रव	-10.2422
▁लॊक	-10.2425
▁देवदेव	-10.2425
▁जानन्ति	-10.2427
▁वयम	-10.2435
▁स्र	-10.2436
▁वनं	-10.2437
▁ानन्तरं	-10.244
▁तत्सर्वं	-10.2441
▁शंस	-10.2441
▁अव्यय	-10.2447
▁एकम्	-10.2456
▁तृ	-10.2457
▁रावण	-10.2459
▁शय	-10.2466
▁धाव	-10.2467
▁मृ	-10.2469
▁अयम	-10.247
▁कथयामि	-10.2476
▁शाप	-10.2478
हम्	-10.2483
▁हिरण्य	-10.2484
▁सूची	-10.2487
▁महाराज	-10.2494
▁ख्याति	-10.2496
▁j	-10.2498
ष्टि	-10.2501
▁ादपि	-10.2507
वश	-10.2508
▁उपयोगः	-10.2509
▁ीकरण	-10.2516
▁वेध	-10.252
▁केशव	-10.2524
प्प	-10.2525
ग्रे	-10.2527
ुम	-10.2527
▁ासी	-10.253
▁किञ्चिद	-10.2532
10	-10.2533
▁परिपूर्ण	-10.2533
▁परमाणु	-10.2534
▁प्रचार	-10.2535
▁शक	-10.2536
स्म	-10.2537
▁शूल	-10.254
▁पुत्री	-10.2541
▁चु	-10.2544
▁किञ्च	-10.2551
▁दह	-10.2555
थ्य	-10.2556
▁शुक्ल	-10.2557
▁श्वर	-10.2557
▁एकस्य	-10.2561
▁ासन	-10.2562
▁प्लव	-10.2567
▁आयुः	-10.2569
▁गृह्णाति	-10.2578
▁द्या	-10.2578
▁दिव्यं	-10.2581
▁नाम्	-10.2583
▁प्रजायते	-10.2585
मर	-10.2586
▁दम	-10.2588
▁सन्ध्या	-10.2588
▁पञ्चदश	-10.2592
पत्	-10.2593
जे	-10.2595
चु	-10.2595
ेभ्यो	-10.2595
▁आत्मानं	-10.2598
▁श्चापि	-10.2601
▁भव्य	-10.2605
▁दं	-10.2609
ꣳ	-10.261
▁दिक्	-10.2613
▁देहे	-10.2615
▁धैर्य	-10.2618
▁मासस्य	-10.262
▁त्त	-10.2621
▁ैस्	-10.2625
▁सुविधा	-10.2628
▁अनि	-10.2628
च्य	-10.2631
▁~	-10.2632
▁मन्त्रि	-10.2632
▁ज्य	-10.2635
▁दिग्	-10.2636
▁विदेशी	-10.2642
▁विस्तृत	-10.2648
▁तमो	-10.2648
▁न्यूनतम	-10.2651
▁चेष्ट	-10.2651
▁पूर्ववत्	-10.2652
▁जू	-10.2653
▁भृत्य	-10.2653
▁ण्य	-10.2657
▁प्रणाली	-10.2658
▁क्ल	-10.2659
▁ग्राहक	-10.2659
▁दुगु	-10.2665
▁जन्मनि	-10.2668
▁अष्टम	-10.2669
▁ोत्तम	-10.2671
तन	-10.2672
▁निर्गत	-10.2673
▁शाक	-10.2674
▁सम्म	-10.2675
▁ऑ	-10.2677
क्य	-10.2679
▁Archives	-10.2679
▁गमिष्यामि	-10.2681
▁ङीष्	-10.2681
▁व्याप्ति	-10.2681
▁समुद्	-10.2685
▁चित्रं	-10.2687
गमन	-10.2689
▁अथात	-10.2692
रक्ष	-10.2693
▁सक्त	-10.2695
▁or	-10.27
▁प्रकाशन	-10.27
K	-10.2702
▁धू	-10.2714
▁जातो	-10.2722
दिश	-10.2723
▁विकृत	-10.2724
रूपेण	-10.2727
▁सर्वलोक	-10.2734
▁शङ्ख	-10.2742
▁आद्य	-10.2742
▁लोभ	-10.2743
वं	-10.2744
▁देयं	-10.275
इगु	-10.2751
▁इदानीम्	-10.2751
▁सुखी	-10.2752
▁रू	-10.2755
नव	-10.2758
▁सिद्धम्	-10.2758
▁जननी	-10.2762
▁प्रेक्ष	-10.2767
▁तत्काल	-10.2769
▁९०	-10.277
▁दिल्ली	-10.2771
▁33	-10.2784
▁सद्यः	-10.2785
▁कविः	-10.2785
▁आपः	-10.2789
कम	-10.279
▁ऋषि	-10.279
▁कर्त	-10.2797
▁प्रार्थय	-10.2799
▁भ्यो	-10.2799
स्क	-10.28
ादेव	-10.2802
▁सङ्गीत	-10.2803
▁ऊर्ध्व	-10.2804
▁दीक्षा	-10.2805
▁प्रयोगे	-10.2805
▁क्षु	-10.2806
▁यित्वा	-10.2809
▁माधव	-10.281
्युप	-10.2815
जल	-10.2816
▁क्रान्ति	-10.2818
▁करणीयम्	-10.282
▁विल	-10.282
▁सूर्यः	-10.2823
▁कुरुत	-10.2826
▁बन्धु	-10.2828
▁चाल	-10.2828
▁प्रशिक्षु	-10.2833
▁दिशः	-10.2837
▁दग्ध	-10.2837
▁स्पेन	-10.2837
▁ददर्श	-10.2841
▁तय्	-10.2842
▁संवेदना	-10.2842
▁अधोलिखितान	-10.2843
▁तोय	-10.2844
▁अप्वः	-10.2846
▁एवेति	-10.2847
▁कारणात्	-10.2851
२०	-10.2853
▁पीडा	-10.2854
बोध	-10.286
▁च्छेद	-10.2861
भु	-10.2866
▁दुर्बल	-10.2867
जं	-10.2867
▁दिशा	-10.2868
▁आङ्ग्ल	-10.2871
▁भाषाया	-10.2874
▁ोदय	-10.2875
▁समु	-10.2881
▁शर्म	-10.2882
▁क्षित	-10.2887
▁सर्वनाम	-10.289
▁मनुज	-10.289
सङ्ग	-10.2891
▁धया	-10.2895
▁दित्य	-10.2903
▁रहस्य	-10.2906
▁कर्मणः	-10.2907
▁महत्व	-10.2907
▁डे	-10.2909
▁वाज	-10.2909
▁हुत	-10.291
वस्था	-10.2911
▁नाद	-10.2911
▁देव्या	-10.2923
▁दातव्य	-10.2929
षी	-10.2935
▁निकट	-10.2939
▁वदन	-10.2943
▁पयो	-10.2948
खे	-10.2954
▁यस्याः	-10.2954
▁मारुत	-10.2955
▁१९९	-10.2957
▁कर्तु	-10.2959
▁देशीय	-10.2961
▁पराजय	-10.2962
▁ाचार्य	-10.2964
▁वन्त	-10.2966
▁संयम	-10.2966
द्द	-10.297
▁वाच्यम्	-10.297
▁शिखर	-10.2972
▁दधि	-10.2983
▁ोऽहं	-10.2984
▁क्षत	-10.2984
बि	-10.2984
▁युक्तम्	-10.2987
▁्व	-10.2993
▁भ्र	-10.2998
▁यावद्	-10.2998
▁विशेषणम्	-10.2999
▁स्मृत	-10.2999
णः	-10.3001
तन्त्र	-10.3002
▁करः	-10.3005
▁तुम	-10.3005
▁रचित	-10.3009
▁क्रमः	-10.301
▁रोच	-10.3012
दत्त	-10.3015
▁परिश्रम	-10.3021
▁शुभम्	-10.3023
▁मन्यन्ते	-10.3029
▁त्वरित	-10.303
▁राजानं	-10.3033
▁पथि	-10.3033
▁तेजो	-10.3034
▁वैर	-10.3037
▁अच्	-10.3038
▁मासीत्	-10.3038
▁नियुक्त	-10.3039
▁एतदेव	-10.304
▁विभागः	-10.3041
▁क्षति	-10.3043
▁ादीनि	-10.3043
▁यायेगु	-10.3044
▁जून	-10.3047
▁भवितव्य	-10.3049
▁पृथिव्यां	-10.305
िरे	-10.305
ाम्यहम्	-10.3051
▁हम	-10.3051
▁राजधानी	-10.3053
▁प्रयोजक	-10.3058
▁अद	-10.306
▁ed	-10.3061
▁विनय	-10.3061
▁भवितव्यम्	-10.3061
▁परिषद	-10.3063
▁भयम्	-10.3072
विद	-10.3083
▁36	-10.3084
▁क्षेप	-10.3085
मना	-10.3086
▁वसिष्ठ	-10.3087
▁पुष्ट	-10.3089
▁वृत्तं	-10.3091
▁शुचि	-10.3094
▁37	-10.3096
▁दिवं	-10.3101
▁भक्षय	-10.3101
▁कृतो	-10.3104
▁शिक्ष	-10.3112
म्बर	-10.3117
▁for	-10.3117
▁उत्पन्न	-10.3118
▁महाभाग	-10.3119
▁तद्धित	-10.3119
▁ह्व	-10.3119
▁तिथिः	-10.3121
▁श्रुतं	-10.3125
▁उपचार	-10.3129
▁गच्छामि	-10.3131
▁निधि	-10.3134
▁कलह	-10.3138
▁श्रित	-10.3139
▁विश्वस्य	-10.3139
▁कथित	-10.314
▁ग्रीष्म	-10.314
ऊ	-10.3142
१२	-10.3149
▁विपुल	-10.3149
चः	-10.315
▁अरे	-10.3151
▁रोध	-10.3152
ri	-10.3154
▁अप्य	-10.3158
▁स्त्रियः	-10.3162
▁शुद्धि	-10.3164
▁हास्य	-10.3171
▁प्राग	-10.3173
▁बह	-10.3174
▁ज्योतिः	-10.3179
▁नेता	-10.318
▁मुखे	-10.3181
▁मार्च	-10.3182
ुवाच	-10.3182
▁वरः	-10.3188
▁स्वीय	-10.3189
▁सूत्रं	-10.3193
▁ात्मकं	-10.3194
▁उदाहरणम्	-10.3196
▁च्या	-10.3196
्याः	-10.3202
▁रह	-10.3204
ाश्रय	-10.3205
▁फ़	-10.3206
▁प्रजापति	-10.3209
▁पश्चिमे	-10.322
▁१९६	-10.322
▁भविता	-10.3225
▁गङ्गा	-10.3225
चे	-10.3229
▁उत्तरम्	-10.3229
▁थु	-10.3234
▁श्वास	-10.3234
▁परितः	-10.3234
▁अस्यां	-10.3235
▁यश	-10.3237
▁समागत	-10.3244
▁७४	-10.3246
▁पश्चाद्	-10.3247
▁पितॄणां	-10.3247
▁कस्यचित्	-10.3248
▁स्थे	-10.3253
ुद्	-10.3253
श्म	-10.3255
काश	-10.3255
▁निहित	-10.3266
▁नेह	-10.3269
▁ाख्या	-10.3274
वन्त	-10.3275
▁५८	-10.3277
▁मृत्युः	-10.3278
▁लभ्य	-10.3278
▁समाप्ति	-10.3278
▁विपर्यय	-10.3279
▁प्रार्थित	-10.3279
▁हिंस	-10.3282
▁शास्त्रं	-10.3283
▁इत्युक्त्वा	-10.3283
▁हिम	-10.3283
▁परमात्मा	-10.3285
▁ह्	-10.3288
▁ततस्त	-10.3295
▁साध्या	-10.3295
ितो	-10.3296
रत	-10.3297
▁भक्ष	-10.33
▁मतं	-10.3301
▁गतवान्	-10.3303
▁ब्व	-10.3304
▁प्रशस्त	-10.3308
▁अभिव्यक्ति	-10.3311
▁व्यव	-10.3311
▁बहूनां	-10.3312
▁स्थिताः	-10.3313
▁मतदान	-10.3314
पूर्ण	-10.3323
ित्यर्थः	-10.3324
घ्न	-10.3324
सह	-10.3328
▁स्प	-10.3329
▁ेत्यर्थः	-10.3332
▁सर्गः	-10.3337
राणां	-10.3337
▁संसारे	-10.3339
▁यन्न	-10.3342
▁पत्य	-10.3342
▁सन्तु	-10.3342
▁पृथ्वी	-10.3343
ss	-10.3349
@2	-10.335
▁अस्माकम्	-10.3352
ृष्ट	-10.3354
▁सम्पत्ति	-10.3356
▁वदामि	-10.336
▁प्रतिपद्यते	-10.3364
▁परोक्ष	-10.3371
▁विरासत	-10.3376
▁स्ततः	-10.3376
▁उद्यान	-10.3379
▁त्वद्	-10.3385
ल्या	-10.3392
▁सेन	-10.3395
ोऽध्यायः	-10.3398
▁जाते	-10.3402
▁भीम	-10.3403
ानाम	-10.3405
▁गल	-10.3408
▁आत्मनः	-10.3408
ोद्	-10.3409
▁कोरोना	-10.3409
▁भूमिः	-10.341
▁उपसर्ग	-10.3412
▁आक्रमण	-10.3416
▁द्वयोः	-10.3416
▁द्विष	-10.3417
▁प्राज्ञ	-10.3418
▁प्रयुज्यते	-10.3419
▁सर्वज्ञ	-10.342
▁पन	-10.3425
ची	-10.3433
द्वि	-10.3433
▁निवर्त	-10.3435
▁दुर्लभ	-10.3436
▁ाणाम्	-10.3445
▁पुमान्	-10.345
रित	-10.345
ाङ्क	-10.3451
▁वृक्षः	-10.3453
▁त्रयं	-10.3456
▁भस्म	-10.3457
▁पूर्व्व	-10.346
▁चक्षुष	-10.346
▁भवतो	-10.3461
▁एवा	-10.3461
▁छन्द	-10.3464
▁ानुसार	-10.3467
▁भृत	-10.3467
▁महान	-10.3469
▁अव्यक्त	-10.3472
व्रत	-10.3473
▁जाय	-10.3474
भारत	-10.3477
▁दाव	-10.3479
▁विशुद्ध	-10.3482
▁अस्या	-10.3485
▁कक्ष	-10.3487
▁तिस्र	-10.3488
▁कामा	-10.3488
▁एकेन	-10.3492
▁निशि	-10.3492
▁दाय	-10.3492
▁खेद	-10.3494
१८	-10.3494
▁५३	-10.3495
▁34	-10.3496
▁प्रण	-10.3499
न्तरिक्ष	-10.3502
▁तरुण	-10.3503
▁प्रायश्चित्त	-10.3508
▁परामर्श	-10.3509
▁विभक्ति	-10.3511
▁ब्रह्मण	-10.3518
दास	-10.3519
▁उपकरण	-10.3519
▁मप्य	-10.352
▁धे	-10.3522
▁धम	-10.3523
▁ऽत्र	-10.3527
▁कां	-10.353
१९	-10.3534
▁ग्रहणे	-10.3536
▁राज्ञा	-10.3538
कर्ता	-10.3539
▁ाग्र	-10.354
▁गतिं	-10.354
▁अन्यतम	-10.354
▁प्राणा	-10.3542
▁ब्रूहि	-10.3542
रोध	-10.3544
▁पक्षः	-10.3545
सत	-10.3549
तये	-10.3558
▁प्रजानां	-10.3558
▁शक्त्या	-10.3558
भो	-10.356
▁अन्ध	-10.3563
▁शतक	-10.3566
▁अप्र	-10.3571
▁सेवन	-10.3571
मृ	-10.3573
ैश्च	-10.3577
▁सदन	-10.3579
येगु	-10.3579
▁हिन्दु	-10.3579
▁प्रपञ्च	-10.358
▁ज्ञानस्य	-10.358
दोष	-10.3583
▁सहस्त्र	-10.3583
▁तृतीये	-10.3584
▁प्रकरणे	-10.3588
▁पय	-10.3589
▁साम्प्रत	-10.3596
▁प्रदेशः	-10.36
▁कापि	-10.3601
▁पुत्रस्य	-10.3604
▁वरा	-10.3608
▁पुत्त्र	-10.3609
▁घण्टा	-10.3609
▁प्रासाद	-10.3611
▁पदानि	-10.3611
▁स्वभावतः	-10.3613
▁पुरः	-10.3616
▁पुस्तके	-10.3617
▁क्षिप	-10.3618
ुच्यते	-10.3621
रति	-10.3623
▁यज्ञे	-10.3626
▁पाव	-10.3627
▁ङ्	-10.3632
▁भङ्ग	-10.3633
▁100	-10.3636
दय	-10.3639
▁काम्य	-10.3641
▁वृद्धा	-10.3643
मित्य	-10.3644
▁मातर	-10.3651
▁तत्सम	-10.3651
▁ज्योति	-10.3652
▁ादेः	-10.3652
▁कस्मात्	-10.3653
▁सुतः	-10.3656
त्यर्थ	-10.3662
▁प्रभावः	-10.3663
z	-10.3668
▁प्रतिवर्ष	-10.3669
▁तनय	-10.3672
▁जीवने	-10.3675
▁जनैः	-10.3675
▁निरूपित	-10.3676
▁केरल	-10.3677
▁समाचरेत्	-10.3678
खण्ड	-10.368
▁सर्वभूतानां	-10.3683
्स	-10.3683
▁वर्ति	-10.3685
▁9.	-10.3686
us	-10.3686
▁जनन	-10.3689
▁समाहितः	-10.3689
▁जाये	-10.3691
▁न्त्य	-10.3692
▁स्थानीय	-10.3692
▁माना	-10.3692
▁हेम	-10.3695
▁कस्यापि	-10.3697
▁समुप	-10.3698
▁क्षमता	-10.3699
▁पौर	-10.3702
मल	-10.3702
ीकृत	-10.3704
▁पेय	-10.3707
▁जितः	-10.3707
▁मूल्यं	-10.3709
▁सञ्चिका	-10.371
▁्यो	-10.3711
▁तदैव	-10.3712
दपि	-10.3712
ce	-10.3713
▁बालिका	-10.3713
▁वक्तव्यः	-10.3715
▁पण्डित	-10.3716
ऽहं	-10.3717
▁[[	-10.3719
शय	-10.3723
▁देवालय	-10.3723
▁अन्येषा	-10.3729
भृत	-10.3735
स्त्र	-10.3745
ry	-10.3746
▁बहवो	-10.3747
▁कह	-10.3747
▁com	-10.3752
साधन	-10.3754
▁प्रातिपदिक	-10.3755
▁घा	-10.3756
▁लाभः	-10.3757
▁इमां	-10.3766
▁बिल	-10.377
▁रूढ	-10.3775
ायाम्	-10.3776
▁युधिष्ठिर	-10.3778
▁प्राधान्य	-10.378
▁ल्य	-10.3781
▁u	-10.3781
▁उपलब्ध	-10.3781
लाप	-10.3782
▁लः	-10.3788
▁ज्ञेया	-10.3791
▁पृथग्	-10.3792
गम्य	-10.3794
▁संबन्धः	-10.3795
ब्ज	-10.3795
मन्य	-10.3795
शास्त्र	-10.3796
चाल	-10.3796
▁शैली	-10.3797
▁मन्त्रेण	-10.3798
▁अधोलिखित	-10.3801
▁प्रतीक्षा	-10.3802
▁श्चेति	-10.3805
▁इयम्	-10.381
▁शिवः	-10.3812
▁यावद	-10.3812
महे	-10.3814
▁एनं	-10.3815
▁पदेन	-10.3816
▁परति	-10.3817
र्ड	-10.3822
▁एकान्त	-10.3822
▁कौशल	-10.3823
▁मनुष्याणां	-10.3825
विषय	-10.3826
मति	-10.3827
▁वचनात्	-10.3828
▁कम्प	-10.383
▁बालकाः	-10.3834
▁भाज	-10.3839
▁शङ्क	-10.3845
▁शाला	-10.3845
ब्र	-10.3848
▁व्यतिरिक्त	-10.3848
▁प्रेषित	-10.3849
ादीनां	-10.3849
▁लोह	-10.3854
▁निर्माणं	-10.3855
▁निर्मा	-10.3857
▁तिल	-10.386
ate	-10.3862
▁गाय	-10.3867
▁कृषक	-10.3867
▁सम्पद	-10.3872
सर्व	-10.3875
▁सिद्धा	-10.3876
वारं	-10.3882
▁ाथ	-10.3883
▁वाद्य	-10.3891
▁विस्तरेण	-10.3892
▁भया	-10.3897
▁धनम्	-10.3898
▁धर्मा	-10.3898
▁अनुकूल	-10.3899
▁रात	-10.3899
ाहुः	-10.3901
भर	-10.3903
समा	-10.3903
▁वाच	-10.3904
▁प्रकृते	-10.3907
▁विमुक्त	-10.3907
▁सर्वतो	-10.391
▁यीशु	-10.3916
▁निवारण	-10.3916
▁ज़	-10.3917
▁योगेन	-10.3918
▁जीर्ण	-10.3918
▁ालय	-10.3919
▁दृष्टे	-10.3922
▁महीयते	-10.3922
▁जड	-10.3923
▁असम	-10.3925
येत	-10.3927
मन्	-10.3929
▁पोष	-10.3932
▁at	-10.3942
▁व्यवस्थित	-10.3944
▁घ्न	-10.3944
देह	-10.3945
▁भवेद	-10.3947
▁पूजन	-10.395
▁सावधान	-10.3951
▁ांश्च	-10.3953
▁भ्राता	-10.3953
▁झी	-10.3953
▁धो	-10.3953
▁जगत	-10.396
▁समुच्चय	-10.3961
▁विगत	-10.397
ाधि	-10.3973
▁खाद्य	-10.3974
राम	-10.3974
▁कुले	-10.3978
▁वादी	-10.3981
▁साक्षि	-10.3984
▁त्म	-10.399
▁गतम्	-10.399
▁इम	-10.3994
▁शिरः	-10.3994
भी	-10.3994
▁पादप	-10.3996
▁पूजित	-10.4003
▁शिक्षक	-10.4005
▁भावं	-10.401
▁मता	-10.401
▁शङ्का	-10.4011
▁व्योम	-10.4012
▁वैभव	-10.4015
▁रिव	-10.4016
▁ततोऽ	-10.4018
▁अत्यधिक	-10.4021
▁ह्रीं	-10.4023
▁10.	-10.4023
▁रूपः	-10.4025
▁सहज	-10.4026
▁६४	-10.4031
▁कुर्वन्तु	-10.4032
▁उक्तवान्	-10.4032
िदं	-10.4035
▁ज्	-10.4036
▁मन्	-10.4036
पत	-10.4037
▁अज्ञान	-10.4038
▁तपस	-10.4038
▁स्वागत	-10.404
वर्	-10.404
ादयः	-10.4041
पत्तेः	-10.4042
▁काश	-10.4043
▁दर्शनात्	-10.4043
▁चात्र	-10.4044
▁कान्	-10.4045
▁Post	-10.4056
▁वातावरण	-10.4056
▁चेद्	-10.4056
डु	-10.4056
▁न्या	-10.4059
▁सार्ध	-10.4063
▁क्षेम	-10.4063
▁सहस्रं	-10.4065
▁ततस्	-10.4072
▁ोपदेश	-10.4076
आर	-10.4079
▁शुभं	-10.4079
▁ज्ञेयं	-10.4085
▁क्ति	-10.4086
▁तट	-10.4086
▁सौर	-10.4087
▁बृहत्	-10.4088
▁प्रबन्ध	-10.4092
▁US	-10.4092
▁मौ	-10.4095
▁सहितं	-10.4104
▁नाति	-10.4107
▁ादयो	-10.411
ेनैव	-10.4111
▁पराक्रम	-10.4114
▁याव	-10.4114
▁काक	-10.4118
▁द्यु	-10.4123
▁प्रकल्प	-10.4124
▁स्वधा	-10.4128
▁गुणैः	-10.413
सत्	-10.4131
▁तत्क्षण	-10.4132
▁विकि	-10.4134
ाभाव	-10.4138
▁द्वारं	-10.4141
ानन्द	-10.4146
ङि	-10.4147
मद	-10.4149
▁हत्वा	-10.4152
▁इष	-10.4155
▁६८	-10.4156
es	-10.4161
▁बौद्ध	-10.4161
▁विद्धि	-10.4162
▁क्रतु	-10.4165
▁·	-10.4165
▁संग्रह	-10.4167
▁पाहि	-10.4173
▁अस्त्र	-10.4175
▁कप	-10.4176
▁(),	-10.4178
▁ोऽस्मि	-10.4184
▁भवं	-10.4188
▁स्वतन्त्रता	-10.4191
▁ध्व	-10.4196
▁विवरण	-10.4197
▁लक्ष्मी	-10.4197
▁याना	-10.4198
▁पदोन्नति	-10.4198
▁विग्रह	-10.4198
▁विधौ	-10.4198
▁नगरस्य	-10.4202
11	-10.4202
लोचन	-10.4202
▁वाचं	-10.4206
निर्	-10.4206
▁पेक्षा	-10.4207
▁सेतु	-10.421
▁भगवतः	-10.4215
▁भुव	-10.4216
▁ाभाव	-10.4221
र्स	-10.4221
▁त्वस्य	-10.4222
ैनं	-10.4223
▁विशेष्य	-10.4224
ब्ध	-10.4225
▁पादौ	-10.4229
▁शक्यम्	-10.4231
ā	-10.4233
ूप	-10.4238
▁प्राणिनां	-10.4239
▁धर्मेण	-10.424
▁जै	-10.4241
▁संपूर्ण	-10.4246
▁पित्रा	-10.4247
ूनां	-10.4247
▁पुरं	-10.4248
▁आज	-10.4251
तिष्ठ	-10.4252
▁विलक्षण	-10.4258
▁पद्धति	-10.4259
▁कृतार्थ	-10.4261
षित	-10.4261
▁ाहं	-10.4267
▁टा	-10.4268
▁रूपांतरण	-10.4269
▁कौन्तेय	-10.4269
भवत्	-10.4269
▁कतिपय	-10.427
▁साम्राज्य	-10.4272
▁कफ	-10.4272
▁शव	-10.4274
ाधिकार	-10.4276
िणां	-10.4276
▁प्राप्तम्	-10.428
ोऽत्र	-10.4285
▁सन्त	-10.4285
हू	-10.4286
▁उपयोगी	-10.4288
▁मातुः	-10.429
▁प्रभा	-10.4291
▁पयः	-10.4293
त्री	-10.4293
मेक	-10.4301
▁६६	-10.4303
▁आश्चर्य	-10.4305
▁नृपः	-10.4305
▁ाधार	-10.4305
▁तत्पर	-10.4306
▁जायन्ते	-10.4307
▁वृत्ते	-10.431
▁हृ	-10.4312
▁तरा	-10.4314
▁ऽन	-10.4316
▁48	-10.4317
▁लज्जा	-10.4318
▁ैत	-10.432
▁च्युत	-10.4328
रपि	-10.4334
▁वर्षं	-10.4335
▁भवान	-10.4337
▁45	-10.4338
▁वक्तव्यं	-10.4341
ेन्द्रिय	-10.4343
▁पुरुषोत्तम	-10.4343
▁वृथा	-10.4344
j	-10.4344
त्सु	-10.4345
िषु	-10.4347
▁सखि	-10.4348
▁श्रु	-10.4348
ादेश	-10.435
▁समूहः	-10.4351
▁त्रिगुण	-10.4353
▁60	-10.4355
▁मन्दिर	-10.4356
▁वु	-10.4356
▁al	-10.4357
▁44	-10.4358
ul	-10.436
वच	-10.4368
▁श्रोत्र	-10.4376
▁आरोग्य	-10.4377
V	-10.4378
▁विलम्ब	-10.4379
▁er	-10.438
▁विचार्य	-10.4381
▁ादित्य	-10.4383
▁पूत	-10.4388
▁पुनस्त	-10.4389
▁तमस्य	-10.4391
▁तदुप	-10.4392
पुरुष	-10.4396
▁लिंग	-10.44
▁प्रलय	-10.4401
▁षष्टि	-10.4404
▁ार्ह	-10.4406
▁वय्कः	-10.4408
१७	-10.4413
▁कुर्मः	-10.4413
▁भ्रष्ट	-10.4413
▁पूरण	-10.4415
अप	-10.4418
महं	-10.4419
▁ाण्य	-10.4419
▁ऽर्थ	-10.442
नय	-10.442
▁दिना	-10.4421
ay	-10.4422
▁39	-10.4428
▁ध्वन	-10.4428
धौ	-10.4429
▁७६	-10.4435
▁वय्क	-10.4435
▁क्षा	-10.4439
▁रम्य	-10.4441
र्ट	-10.4441
▁खिल	-10.4443
▁दीर्घः	-10.4444
▁कोऽ	-10.4447
▁News	-10.4451
यात्	-10.4451
तस्तु	-10.4452
▁परित्यज्य	-10.4457
▁सतां	-10.4457
▁सुहृद	-10.4464
पत्ति	-10.4464
▁वर्य	-10.4465
▁भाषित	-10.4467
▁७१	-10.4468
▁तच्छ	-10.447
▁अस्मा	-10.4471
▁लम्ब	-10.4474
▁मेकं	-10.448
▁सप्तमी	-10.4481
▁ाप्य	-10.4481
▁ार्ध	-10.4487
▁तदर्थं	-10.4487
वित्	-10.4493
▁भ्रातर	-10.4494
दर्शन	-10.4495
▁दीना	-10.4496
▁मुनिः	-10.4496
▁शुभे	-10.4499
▁रथं	-10.4499
नाश	-10.45
▁हृष्ट	-10.4501
▁यत्नतः	-10.4501
ान्न	-10.4502
▁देवानाम	-10.4503
▁माघ	-10.4508
▁६७	-10.4514
▁न्ह्या	-10.4515
▁ीश्वर	-10.4518
▁ज्वल	-10.4523
▁शक्नुवन्ति	-10.4523
▁क्षिप्र	-10.4527
▁किमु	-10.453
▁लता	-10.453
▁वन्	-10.4531
फ्	-10.4532
▁दीप्त	-10.4533
▁01	-10.4534
▁लव	-10.4535
▁ाश्रम	-10.4536
▁निन्द	-10.454
▁तद्व	-10.4546
०३	-10.4547
णु	-10.4551
▁हतः	-10.4553
▁विभो	-10.4553
▁काला	-10.4554
शील	-10.4556
ितुम्	-10.4558
▁वैश्वदेव	-10.4561
▁कुश	-10.4562
▁इती	-10.4562
▁सिंहः	-10.4569
▁उदय	-10.457
▁भक्ष्य	-10.4573
पतिः	-10.4574
▁तिष्ठत	-10.4574
▁धरा	-10.4575
▁धेनु	-10.4582
▁धान	-10.4586
मानं	-10.4587
▁),	-10.4588
20	-10.4589
▁स्थाप्य	-10.459
▁आगत्य	-10.4593
▁माय	-10.4594
▁रपि	-10.4595
हन	-10.4596
▁(2)	-10.4598
▁क्रूर	-10.4598
्रि	-10.4599
भे	-10.461
▁ऽसौ	-10.4617
▁कष	-10.462
▁द्रव्यं	-10.4625
▁स्त्रि	-10.4631
▁न्वित	-10.4632
▁शक्नुमः	-10.4635
▁श्रृणु	-10.4635
ra	-10.4635
▁विद्वांस	-10.4637
▁कर्ष	-10.4639
▁मानः	-10.4645
▁निश्चयः	-10.4645
▁गृहस्थ	-10.4648
▁वीक्ष्य	-10.465
▁स्थं	-10.465
▁च्व	-10.4651
▁ञ्	-10.4655
सेन	-10.4657
ैतत्	-10.4657
▁हितम्	-10.4658
▁लोकान्	-10.4659
▁अथे	-10.4661
▁श्रव	-10.4662
▁प्रयास	-10.4662
व्यक्त	-10.4665
▁नवम	-10.4668
▁लोचन	-10.4669
▁स्थले	-10.4671
▁यथाक्रमम्	-10.4672
▁2016	-10.4672
▁इष्यते	-10.4676
विष	-10.468
▁प्रत्यये	-10.4681
▁विकल्पः	-10.4681
र्थे	-10.4681
▁व्यवस्थापन	-10.4683
▁आदौ	-10.4684
▁एतौ	-10.4684
▁निवर्तते	-10.4685
▁समिति	-10.4686
▁तय	-10.4687
▁मत्वा	-10.4693
▁न्व	-10.4694
११	-10.4698
▁प्रमाद	-10.4703
धेय	-10.4708
▁ेष्व	-10.4709
▁तद्वत्	-10.4712
▁निर्मल	-10.4714
▁९५	-10.4715
▁दूरभाष	-10.4719
▁म्रियते	-10.4719
नयन	-10.4721
▁१९४	-10.4723
▁देहं	-10.4723
▁पथ्य	-10.4723
▁पूर्णा	-10.4727
▁ज्ञाने	-10.4727
▁मुक्तः	-10.4729
▁विधे	-10.4731
▁चयन	-10.4733
▁सर्वम्	-10.474
ान्तरे	-10.4744
▁ापि	-10.4746
सम्	-10.4746
▁पेश	-10.4751
ीन	-10.4751
▁साक्षी	-10.4753
▁सृ	-10.4755
▁भावा	-10.4757
▁शुक	-10.476
▁अष्टादश	-10.4761
▁पुरु	-10.4762
▁हेतुना	-10.4764
रुण	-10.4767
▁वृक्षे	-10.4774
▁वति	-10.4777
▁प्रसिद्धः	-10.478
▁सज्ज	-10.4782
▁उत्साह	-10.4785
लेख	-10.479
स्वर	-10.4792
▁अनित्य	-10.4796
ोदय	-10.4799
▁पाण्डव	-10.48
▁प्रभृति	-10.4803
▁स्थः	-10.4811
▁बिभ	-10.4811
▁बाला	-10.4811
मोह	-10.4812
यता	-10.4816
▁क्वचिद	-10.4817
▁स्थितौ	-10.482
▁दिनं	-10.482
▁दास्य	-10.4822
▁दारिद्र्य	-10.4822
▁भूयो	-10.4825
▁िद	-10.4825
▁समन्वय	-10.4826
▁ोऽसि	-10.4826
▁विख्यात	-10.4829
un	-10.483
▁ाभावे	-10.4831
▁लक्षित	-10.4831
▁प्रकर्ष	-10.4833
▁ग्रहः	-10.4834
जात	-10.4835
स्तथा	-10.4839
▁इत्यु	-10.484
▁मुद्	-10.4845
▁हिताय	-10.4845
▁प्रणव	-10.4847
▁पत्त	-10.485
▁ऊर्ज	-10.4851
▁जुल	-10.4858
▁ार	-10.4859
▁वेत्	-10.4861
▁अज्ञात	-10.4864
▁निवेदित	-10.4864
▁व्यतिरेक	-10.4865
▁६२	-10.4865
▁कारेण	-10.4865
▁क्षेत्रज्ञ	-10.4869
▁चेतना	-10.4872
▁ऽति	-10.4872
▁यज्ञं	-10.4876
▁ाधि	-10.4877
र्घ	-10.4877
▁उपयुक्त	-10.4878
▁भवत	-10.4878
▁बीजं	-10.4879
▁०१	-10.488
▁बत	-10.4884
▁त्यादि	-10.4886
▁प्रविश	-10.4888
▁कर्तृत्व	-10.4889
▁वाणी	-10.489
▁निहत	-10.4891
▁द्रष्टव्यम्	-10.4893
▁वैश्वानर	-10.4898
▁आश्रय	-10.4899
ad	-10.4902
▁विभक्तिः	-10.4902
०४	-10.4908
▁प्रणम्य	-10.491
▁विज्ञाय	-10.4916
मिह	-10.4919
▁टीका	-10.4923
▁साक्षिण	-10.4926
भोग	-10.4928
▁प्रतिबन्ध	-10.4929
▁गर्व	-10.493
ब्रवीत	-10.4934
▁पूर्ब्ब	-10.4937
▁औसत	-10.4938
ैषा	-10.4941
▁ऽहम	-10.4946
▁भगवत	-10.4946
▁ाक्षर	-10.4947
वर्तत	-10.4948
▁तव्य	-10.4949
ोपरि	-10.4951
▁संग	-10.4951
▁महत्त्व	-10.4952
▁जातु	-10.4953
▁हव	-10.4956
पर्य	-10.4957
▁उभे	-10.4959
ुल	-10.496
ूर	-10.4964
ut	-10.4964
▁गन्तुं	-10.4965
▁निपात	-10.4968
तुर	-10.497
▁विमल	-10.497
▁प्रयच्छति	-10.4972
▁समाप्तम्	-10.4982
▁त०	-10.4982
▁पाकिस्तान	-10.4982
▁समन्वितः	-10.4984
▁रचय	-10.4985
▁बलेन	-10.4986
▁एतच्च	-10.4986
▁यन्म	-10.4988
ोऽसौ	-10.4988
▁फोटो	-10.4991
▁संध्या	-10.4997
▁मूर्त	-10.4998
▁ित्य	-10.5002
▁मनसः	-10.5003
▁मुञ्च	-10.5004
ास्ते	-10.5007
▁ध्यात्व	-10.5009
▁वास्तव	-10.501
▁वरण	-10.5014
▁निरस्त	-10.5017
▁परमेश्वरः	-10.5019
▁माग	-10.5024
▁धर्मस्य	-10.5028
▁देशकाल	-10.5029
vi	-10.503
▁दूरं	-10.5031
विधि	-10.5035
▁न्द्र	-10.5038
▁मग्न	-10.5039
▁ितं	-10.504
▁विरह	-10.5041
क्ति	-10.5043
▁स्नात	-10.5044
▁नय	-10.5046
चय	-10.5049
ण्ण	-10.5051
▁प्रोक्तो	-10.5052
▁तदिद	-10.5052
▁सस्य	-10.5052
▁परिसन्धि	-10.5053
▁पश्यन्	-10.5055
▁In	-10.5056
▁थौं	-10.5056
▁लं	-10.5066
▁कार्	-10.5067
▁कन्	-10.5071
▁विषयं	-10.5072
▁प्रकारः	-10.5076
▁पर्यन्त	-10.5077
▁महो	-10.508
▁विद्यां	-10.5084
▁राघव	-10.5085
▁अपा	-10.5086
▁श्रुतेः	-10.509
▁व्यभिचार	-10.5091
▁नृणां	-10.5092
▁परिचय	-10.5093
▁रीत्या	-10.5094
▁निव	-10.5095
▁सिद्धं	-10.5097
▁भेषज	-10.5098
▁शल्य	-10.51
▁गमनं	-10.5104
▁तस्मा	-10.5104
▁न्ह्यः	-10.5104
▁दस	-10.5104
▁व्यर्थ	-10.5104
▁अर्हति	-10.5111
▁शास्त्रे	-10.5113
▁आगतः	-10.5117
▁व्याप्य	-10.5118
रेण	-10.5118
अहं	-10.5118
लब्ध	-10.5121
th	-10.5122
▁प्रगति	-10.5126
राज्यस्य	-10.5129
▁संप्र	-10.513
▁औपचारिक	-10.513
▁क्षिप्त	-10.5134
▁03	-10.5138
▁Y	-10.5139
ियं	-10.5141
▁अत्यन्तं	-10.5143
▁ताभ्या	-10.5145
▁कोण	-10.5146
ात्र	-10.5147
गतं	-10.5147
▁स्तेषां	-10.5148
▁कर्मणां	-10.5148
▁गात्र	-10.5148
▁०४	-10.5148
▁तत्त्वतः	-10.515
▁वाक्यार्थ	-10.515
▁ैश्वर्य	-10.5151
▁गुहा	-10.5152
▁प्रकरणम्	-10.5153
उप	-10.5158
र्त्त	-10.5158
▁स्याम	-10.5158
▁काण्ड	-10.5159
it	-10.5159
*	-10.5166
▁भा०	-10.5169
▁कार्यान्वयन	-10.517
▁लक्ष्मण	-10.517
▁भगवत्	-10.5171
▁पुरोहित	-10.5171
▁वेदितव्य	-10.5172
▁सार्धं	-10.5173
ाऽऽ	-10.5174
▁त्र्य	-10.5175
▁प्रदक्षिण	-10.5176
▁तेजः	-10.5176
▁चक्रे	-10.5177
▁णं	-10.518
▁ग्रामे	-10.518
▁अनेके	-10.518
योजन	-10.5181
▁पण्य	-10.5182
▁अलं	-10.5185
▁बहुल	-10.5185
▁आचार	-10.5187
बाध	-10.5187
▁६१	-10.5192
▁यशो	-10.5194
▁पठन्ति	-10.5195
▁विधानेन	-10.5198
▁ीया	-10.52
▁त्वाम्	-10.5201
▁दर्पण	-10.5201
▁८६	-10.5204
▁वक्र	-10.5206
र्ग	-10.521
▁क्षयं	-10.5211
▁स्मृतिः	-10.5212
▁नित्यम्	-10.5214
▁स्तोम	-10.5215
▁भूमिका	-10.5215
यॊ	-10.5216
▁ास्ति	-10.5216
▁भेदो	-10.5217
▁चिन्तित	-10.5219
▁47	-10.5221
▁पुल	-10.5222
▁स्तत्	-10.5224
▁वेश	-10.5224
वादने	-10.5228
▁नरो	-10.5233
▁आगच्छति	-10.5235
स्तव	-10.5235
लोप	-10.524
भ्	-10.524
▁त्वमपि	-10.5246
▁पुनस्	-10.5249
▁सरकारं	-10.525
▁दर्शित	-10.525
▁माध्यमेन	-10.5256
▁८४	-10.5256
यी	-10.5258
▁जल्प	-10.5259
स्तीति	-10.5261
▁दिनम्	-10.5266
▁भाई	-10.5269
ज्या	-10.5274
ष्ट्र	-10.5274
▁इत्युक्तम्	-10.528
▁स्पर्धा	-10.5285
प्रत्ययः	-10.5286
ासि	-10.5287
▁उदा	-10.5287
▁तमस	-10.5291
▁दिल	-10.5293
▁लवण	-10.5293
▁भक्षण	-10.5299
▁वितरण	-10.5301
च्युत	-10.5302
▁am	-10.5302
▁लिङ्गं	-10.5303
ान्ते	-10.5304
▁अव्य	-10.5306
▁ाति	-10.5308
▁दव	-10.5313
▁ोत्	-10.5313
०५	-10.5314
ीयन्ते	-10.5317
18	-10.5319
▁उपस्थित	-10.5321
साद	-10.5323
▁वाञ्छ	-10.5326
▁सनातन	-10.5327
↑	-10.5328
▁वस्तूनि	-10.5329
▁खे	-10.5329
▁कोष	-10.533
▁भर्ती	-10.5331
ch	-10.5331
▁अश	-10.5333
▁णो	-10.5333
गच्छ	-10.5337
▁राष्ट्रस्य	-10.534
ारभ्य	-10.5345
▁जीवा	-10.5346
▁शिरो	-10.5349
रण्य	-10.5355
▁संधि	-10.5358
▁ज्ञातव्य	-10.536
▁क्रियता	-10.5361
▁जिह्वा	-10.5361
हृ	-10.5362
▁प्ल	-10.5362
▁वक्ष	-10.5362
▁यथोक्त	-10.5363
एक	-10.5364
▁केतु	-10.5364
▁तप्त	-10.5364
▁विपक्ष	-10.5367
▁प्रामाण्य	-10.5368
▁सांख्य	-10.5369
▁स्यान्	-10.537
▁कार्यः	-10.5373
▁१९३	-10.5374
▁बला	-10.5374
▁किमर्थम्	-10.5375
राज्य	-10.5376
▁छः	-10.5376
ीव	-10.5376
▁यदु	-10.5377
▁आकार	-10.5378
▁चक्षुः	-10.538
W	-10.538
▁विज्ञायते	-10.538
▁शेषे	-10.5385
▁श्रेणी	-10.5387
▁कन्यां	-10.5389
शङ्क	-10.5397
▁भूरि	-10.5401
▁दुष्	-10.5401
▁जुयाः	-10.5403
▁कृत्रिम	-10.5408
▁तैर्	-10.541
▁आरक्षण	-10.541
▁युक्तो	-10.541
▁तुला	-10.5411
▁ाऽऽ	-10.5413
▁me	-10.5414
▁सन्तः	-10.5415
▁इत्यादौ	-10.5419
▁49	-10.5422
▁Tags	-10.5424
▁चत्वारः	-10.5424
▁मित्राणि	-10.5424
कर्तरि	-10.5425
मेध	-10.5426
▁ारम्भ	-10.543
▁क्रान्त	-10.5431
▁ल्या	-10.5433
▁मोद	-10.5436
▁पर्	-10.544
▁समासः	-10.5441
▁No	-10.5443
▁भूप	-10.5444
▁निर्मिता	-10.5444
▁st	-10.5445
पदं	-10.5446
▁पश्चाद	-10.5447
▁श्रोतु	-10.5447
▁तद्वद	-10.5449
▁सम्यग	-10.5454
▁तदु	-10.5455
▁सङ्ग्रह	-10.5456
▁अर्थे	-10.5458
▁ापेक्षया	-10.5461
▁मासि	-10.5462
▁ेद	-10.5468
पृ	-10.5469
▁चिन्त्य	-10.5469
▁कपाल	-10.5473
▁परिमित	-10.5476
▁अग्निं	-10.5479
▁संस्थ	-10.548
▁दर्शने	-10.5482
▁दुर	-10.5482
▁सैव	-10.5487
▁ज्ञातुं	-10.5489
▁निषिद्ध	-10.5489
▁सनातनः	-10.549
▁परस्मैपद	-10.5492
▁रमणीय	-10.5493
▁विमर्श	-10.5495
▁ळ	-10.5497
▁त्वदीय	-10.5497
च्छेद	-10.5499
▁विध्य	-10.5499
जो	-10.5499
▁विषयक	-10.5499
▁कस्मिन्	-10.5506
▁गां	-10.5507
▁उद्यम	-10.5509
▁आचर	-10.5511
▁भवा	-10.5515
▁ोत्सव	-10.5516
पय	-10.552
दिव	-10.552
▁स्थानानि	-10.552
▁एकल	-10.5521
▁स्वर्गं	-10.5522
तुर्	-10.5523
▁सूर्यस्य	-10.5523
▁निष	-10.5524
▁निति	-10.5527
▁शब्दाः	-10.5529
▁ऋषय	-10.553
▁प्रतिनिधि	-10.5532
▁सर्वश्रेष्ठ	-10.5533
▁यस्त	-10.5533
▁गगन	-10.5534
▁समर्पित	-10.5535
▁पर्ण	-10.5536
▁शाल	-10.5536
▁जानासि	-10.5538
▁ाभ्य	-10.5539
न्ता	-10.554
▁चाह	-10.554
▁रक्षित	-10.554
करं	-10.5545
ामहे	-10.5545
▁प्रसव	-10.5546
▁दुर्लभं	-10.5548
ंड	-10.5551
▁अद्भुत	-10.5552
▁पुनश्च	-10.5552
ak	-10.5554
▁रेफ	-10.5556
▁थे	-10.5558
▁६९	-10.5559
यर	-10.556
▁यन	-10.5561
कौ	-10.5562
▁एतं	-10.5562
▁स्तोत्रं	-10.5566
पण	-10.5569
▁]]	-10.5569
▁निवेदय	-10.557
▁लेखा	-10.5572
▁व्रजेत्	-10.5575
▁मल्ल	-10.5576
▁विद्व	-10.5578
▁अथा	-10.5579
▁सुरा	-10.5579
▁काचित्	-10.5581
▁परतः	-10.5602
भ्या	-10.5606
▁ान्वय	-10.5607
▁पेक्ष	-10.5608
▁विद्ध	-10.5608
▁संदेश	-10.5609
▁ऽस्य	-10.561
▁वैशिष्ट्य	-10.5612
▁पर्जन्य	-10.5612
ाग्नि	-10.5612
▁नराधिप	-10.5613
▁पतिं	-10.5613
ण्व	-10.5615
▁प्रथमो	-10.563
रुह्य	-10.5631
▁कुर्वीत	-10.5631
▁प्रज	-10.5635
▁चेन्न	-10.5635
▁ौषध	-10.5637
▁सिद्धे	-10.5638
▁भविष्यसि	-10.5641
▁कद	-10.5643
▁स्वया	-10.5644
▁निर्यात	-10.5644
▁ोक्तं	-10.5648
▁ितुं	-10.5652
▁तन्व	-10.5652
▁साङ्ख्य	-10.5653
▁रघु	-10.5653
▁प्रतिपादन	-10.5653
▁मदन	-10.5654
▁मनोरथ	-10.5655
▁पाखे	-10.5656
नू	-10.5656
▁अनुच्छेद	-10.5657
▁ꣳ	-10.5663
न्तं	-10.5664
▁गन्तव्य	-10.5666
▁राष्ट्रं	-10.5668
▁कल्पन	-10.5673
ाणाम्	-10.5674
▁स्मृता	-10.5674
▁हानिः	-10.5678
▁कलौ	-10.5682
▁अ०	-10.5682
▁रं	-10.5684
▁कालस्य	-10.5685
▁महे	-10.5687
▁र्ह	-10.5687
▁दित	-10.5689
▁रहस्यं	-10.569
▁तरि	-10.5693
▁माध्यम	-10.5693
▁उत्पत्ति	-10.5695
ागम	-10.5695
▁िनः	-10.5699
▁मस्य	-10.5699
च्या	-10.5706
▁वेदान्त	-10.5706
छा	-10.5707
▁समर्थः	-10.5708
▁अपत्य	-10.5708
▁स्थित्वा	-10.5709
▁इत्थ	-10.5712
▁ददा	-10.5712
▁शक्ता	-10.5712
▁खन	-10.5713
▁मान्	-10.5715
▁यथैव	-10.5722
▁एवमुक्त	-10.5723
वृत्ति	-10.5724
▁णे	-10.5727
▁रै	-10.5727
वस्थित	-10.5731
▁प्लुत	-10.5733
▁सङ्केत	-10.5736
न्यास	-10.5737
▁नेक	-10.5739
▁बिम्ब	-10.574
▁निर्धन	-10.5742
▁ब्रह्मा	-10.5745
▁रतः	-10.5746
▁प्रत्यहं	-10.5747
धिकार	-10.575
▁अहमेव	-10.5751
▁त्रा	-10.5753
▁मायया	-10.5754
▁चक्षुषा	-10.5756
as	-10.5758
ेच्छा	-10.5767
▁वृषभ	-10.5771
▁दिशो	-10.5773
▁कॊ	-10.5774
▁प्रान्त	-10.5777
लिङ्ग	-10.5778
▁बना	-10.5779
▁संवत्सरे	-10.5783
स्मान्	-10.5787
▁एच	-10.5788
▁िष्य	-10.5789
▁सन्दर्भ	-10.579
▁वासः	-10.5791
▁फलकम्ः	-10.5791
▁एकमेव	-10.5795
▁तयोर्	-10.5799
▁यय	-10.5801
▁वाक्यानि	-10.5801
▁पुत्राः	-10.5804
▁लोकाः	-10.5805
▁समावेश	-10.581
▁प्रयुक्तम्	-10.581
१५	-10.5814
▁प्रतिबिम्ब	-10.5819
फा	-10.5819
▁जुलाई	-10.582
▁मात्म	-10.5822
▁स्पृष्ट	-10.5823
▁प्रतिदिन	-10.5824
▁भूते	-10.5824
▁लङ्का	-10.5827
▁स्वामि	-10.5827
▁कुत्रापि	-10.5827
रोग	-10.5827
▁अन्	-10.5827
▁प्राकृतिक	-10.5828
▁ण्ड	-10.5836
▁लुक्	-10.5838
▁पावक	-10.584
▁सैनिक	-10.5842
▁जापान	-10.5847
▁छात्रः	-10.5852
॒व	-10.5854
▁मुक्ता	-10.5856
▁अणु	-10.5856
▁पतन	-10.5859
▁दृष्टिः	-10.5861
▁स्नात्वा	-10.5863
▁साहाय्यं	-10.5863
▁कस्या	-10.5863
▁विदुष	-10.587
▁संस्थायाः	-10.5871
▁रात्रिः	-10.5873
योर	-10.5873
▁योगं	-10.5875
ोऽस्मि	-10.5878
▁करोतुः	-10.5879
▁41	-10.5883
▁सुभाषित	-10.5885
▁कुर्याद्	-10.5886
▁विभागे	-10.5886
▁भान	-10.5891
▁गवां	-10.5892
▁ज्योतिर्	-10.5892
▁नेत्रे	-10.5898
▁गद	-10.5898
▁इतिहासः	-10.5898
▁सञ्	-10.5898
▁पुनरेव	-10.5899
▁चतुः	-10.5904
▁se	-10.5906
▁ाभावात्	-10.5908
▁सूर	-10.5909
▁जलम्	-10.5912
शान	-10.5913
▁अपरं	-10.5915
▁पृथिवीं	-10.5918
ऋ	-10.5921
▁प्रधानं	-10.5922
▁स्मिन्	-10.5924
स्ती	-10.5927
▁नैष	-10.5929
▁स्मृताः	-10.5931
▁ाद्या	-10.5932
▁विचारः	-10.5937
▁अपवाद	-10.5938
वाक	-10.594
▁विक्रय	-10.5941
प्रत्यय	-10.5944
▁भगव	-10.5944
▁वेदा	-10.5945
ाधिप	-10.5949
▁देवतानां	-10.5957
▁भवत्येव	-10.596
घ्र	-10.596
▁्यन्ते	-10.5964
दुप	-10.5965
▁तस्यापि	-10.597
▁ुद	-10.5973
▁सखी	-10.5978
छि	-10.5986
▁ास	-10.5987
▁त्रैलोक्य	-10.5988
सृज	-10.5991
▁पृच्छति	-10.5992
▁स्क	-10.5993
▁रोम	-10.5994
साम	-10.5994
▁कलि	-10.5997
li	-10.5998
▁ग्रन्थः	-10.5999
▁प्रशंसा	-10.6001
▁जन्तु	-10.6001
नेक	-10.6004
ाध्याय	-10.6005
▁रक्षिता	-10.6006
▁निरीक्षण	-10.6006
▁पूर्वक	-10.6009
▁व्यपदेश	-10.6011
तार	-10.6011
▁ीकृत	-10.6014
▁वहति	-10.6014
▁मण्डलं	-10.6014
▁रौ	-10.6015
▁ानुप	-10.6021
ff	-10.6025
नगरे	-10.6027
▁प्रतीक्ष	-10.6028
▁आपो	-10.6029
▁भगिनी	-10.6032
र्भ	-10.6033
▁रोह	-10.6037
▁शक्यः	-10.6038
▁करुण	-10.6038
▁सेवित	-10.6039
्यर्थ	-10.6039
▁बुद्ध्या	-10.6042
▁तेभ्यः	-10.6044
▁कुर्वत	-10.6045
▁चेह	-10.6046
▁प्रवृत्तिः	-10.6046
▁०५	-10.6047
▁पुरुषा	-10.6047
भास	-10.6047
▁पक्षि	-10.6052
▁विराम	-10.6052
▁ch	-10.6057
▁पक्व	-10.6059
▁जीवनस्य	-10.606
रथ	-10.6061
▁आसान	-10.6065
▁ईशान	-10.6068
ैरपि	-10.608
▁पुरी	-10.6082
▁ऋच	-10.6082
शासन	-10.6082
▁सञ्ज्ञा	-10.6083
▁मन्त्रिण	-10.6085
▁वेद्य	-10.6086
▁रीति	-10.6087
▁लभ	-10.6092
▁सन्तुष्ट	-10.6092
▁ितवान्	-10.6095
िष्यते	-10.6097
▁दत्वा	-10.6098
▁त्थ	-10.6104
▁करणम्	-10.6106
▁तदीय	-10.6109
▁लीला	-10.6111
▁):	-10.6112
▁महि	-10.6112
▁ान्तरं	-10.6114
▁ह्या	-10.6117
▁हिमालय	-10.6118
▁प्रयोगशाला	-10.6118
▁ब्रह्माण्ड	-10.6119
▁दुष्कृत	-10.6123
▁प्राप्तो	-10.6123
▁न्यायेन	-10.6124
▁स्वः	-10.6125
▁स्फोट	-10.6125
▁आपण	-10.6131
▁संज्ञक	-10.6132
▁कोष्ठ	-10.6134
▁42	-10.6137
▁न्याय्य	-10.6139
▁दुख	-10.6141
▁भासते	-10.6144
▁असत	-10.6144
▁्यः	-10.6144
▁निर्व	-10.6146
▁उच्चारण	-10.6146
▁कर्तुम	-10.6148
▁वित्तं	-10.6149
▁शङ्कर	-10.6149
▁हस्ति	-10.6152
▁तयो	-10.6153
▁सज्जन	-10.6156
सय	-10.6156
र्ति	-10.6156
▁समुत्	-10.6158
▁क्षुद्र	-10.6162
▁पर्यटन	-10.6162
▁विभाव	-10.6162
▁सूचित	-10.6162
▁बार	-10.6163
▁चान्य	-10.6164
▁समन्ततः	-10.6165
▁गुलि	-10.6166
▁55	-10.6167
▁>>	-10.6169
तप	-10.6169
र्पित	-10.617
▁७९	-10.6171
▁जुइगु	-10.6175
▁तत्रा	-10.6175
▁योजित	-10.6179
मर्थ	-10.6181
▁दन	-10.6182
▁श्रद्धया	-10.6183
▁यत्नेन	-10.6185
▁हित्वा	-10.6186
सद	-10.6189
▁भेदा	-10.6194
▁ात्मना	-10.6195
▁विद्	-10.6196
▁वयसि	-10.6196
▁राति	-10.6197
▁त्वमिति	-10.6198
▁सॊ	-10.6201
ल्लोक	-10.6203
▁वक्ता	-10.6205
▁संपद	-10.6206
▁तायाः	-10.6207
▁संस्थाप्य	-10.6208
▁दिक्षु	-10.621
▁मनस्	-10.6212
▁ानन्द	-10.6222
▁जायमान	-10.6222
▁कतम	-10.6225
▁ोदक	-10.6228
▁अभिमान	-10.6229
▁पूर्णं	-10.6232
▁पुं॰	-10.6233
▁गुड	-10.6234
चित्त	-10.6235
▁कुलं	-10.6241
▁ऋग्वेद	-10.6248
लक	-10.6249
▁प्रणाम	-10.6251
▁निरीक्ष	-10.6255
▁मन्यसे	-10.6256
▁अगस्त	-10.6256
▁र्थे	-10.6257
ेतुं	-10.626
▁परिग्रह	-10.6261
▁संहिताया	-10.6262
▁यज्	-10.6265
गः	-10.6268
▁९७	-10.6269
▁िनी	-10.627
▁अहोरात्र	-10.6272
▁भर्	-10.6272
▁शौच	-10.6275
▁फा	-10.6277
▁कृतानि	-10.628
▁स्तं	-10.6282
▁धाः	-10.6283
▁तदन्त	-10.6284
लाभ	-10.6284
▁वयो	-10.6285
दिने	-10.6286
त्ति	-10.6288
▁त्रिषु	-10.629
▁सौन्दर्य	-10.6291
▁वक्ष्ये	-10.6292
▁ाकाश	-10.6294
▁vi	-10.6307
▁मैत्री	-10.6308
्येव	-10.6312
▁मान्य	-10.6314
▁संख्य	-10.6315
▁महोदयः	-10.6315
▁मत्त	-10.6315
▁निरन्तर	-10.6317
▁sa	-10.6321
▁क्रय	-10.6323
▁आनय	-10.6323
▁समरे	-10.6324
▁्यां	-10.6325
▁अस्त	-10.6326
▁गौर	-10.6328
▁करणीय	-10.6331
▁शब्दं	-10.6332
▁सदस	-10.6333
▁प्राथमिक	-10.6335
▁सुग्रीव	-10.6335
▁नियन्त्रण	-10.6335
▁स्कूल	-10.6336
▁पौरुष	-10.6336
▁11.	-10.6336
▁हता	-10.6339
चक	-10.634
▁ब्रा	-10.6343
योज	-10.6344
तय्	-10.6344
▁ाङ्क	-10.6344
▁मुद्रण	-10.6347
▁नमस्	-10.6348
▁संस्कृते	-10.635
▁The	-10.6351
▁दिनाङ्क	-10.6351
न्थ	-10.6354
तीव	-10.6361
▁46	-10.6361
▁जनो	-10.6363
भक्त	-10.6364
▁चेष्टा	-10.6365
▁विश्वरूप	-10.6365
▁ह्य्	-10.637
१४	-10.6375
▁गच्छत	-10.6375
▁एति	-10.6378
ष्यन्ति	-10.6379
▁प्रमाणम्	-10.638
▁2015	-10.6381
▁सूर्यो	-10.6382
▁नेपाः	-10.6382
▁केनचित्	-10.6383
▁दिवसः	-10.6385
▁प्राप्नुवन्ति	-10.6386
▁08	-10.6388
ृषि	-10.6388
▁स्वर्गे	-10.6389
▁ऽप	-10.6391
▁ख्यात	-10.6397
ाकाश	-10.6398
▁२०६	-10.6402
र्द्ध	-10.6414
▁तत्पुरुष	-10.6417
▁तीत्य	-10.6418
िष्ठा	-10.6419
ha	-10.642
▁बर	-10.6423
▁स्निग्ध	-10.6424
▁समागम	-10.6424
▁वैष्णव	-10.6424
टन	-10.6429
▁मुक्तं	-10.6437
▁मानो	-10.6437
सहस्र	-10.6438
▁वाऽ	-10.644
▁निर्गुण	-10.644
चो	-10.644
▁एकवचन	-10.6441
▁इन्द्रः	-10.6444
▁चूर्ण	-10.645
▁शीर्षक	-10.6451
▁मानेन	-10.6459
कम्प	-10.6461
▁धन्या	-10.6463
▁द्विविध	-10.6464
▁वर्णः	-10.6465
▁मन्व	-10.6465
दूर	-10.6466
▁कण	-10.6468
▁रिपोर्ट	-10.6469
▁आम्	-10.647
▁८९	-10.6473
▁सन्न	-10.6474
▁भारतवर्ष	-10.6475
▁विहार	-10.6476
▁यैः	-10.648
▁भवितुं	-10.648
▁इतो	-10.6484
▁भवन्त	-10.6484
▁अचि	-10.6485
▁चतुर्विध	-10.6488
▁कीर्तित	-10.6491
▁वल्लभ	-10.6491
▁स्वे	-10.6493
▁कृपण	-10.6501
▁८८	-10.6503
▁७२	-10.6506
▁प्रेषय	-10.6508
▁९१	-10.6508
▁नन्व	-10.651
▁पीडित	-10.6511
▁प्रोक्तः	-10.6513
▁विस्मृत	-10.6514
▁महत्त्वपूर्ण	-10.6514
▁फिल्म	-10.6514
▁पुस्तकालय	-10.6515
▁सुकृत	-10.6515
▁समारोह	-10.6517
ामास	-10.6517
▁शक्तिं	-10.6518
▁कथिता	-10.6519
▁अद्यतन	-10.652
▁र्न	-10.6524
▁नश्यति	-10.6526
▁परां	-10.6526
▁व्याध	-10.6526
▁अजा	-10.6526
▁आवां	-10.6534
▁असत्य	-10.6534
▁जव	-10.6536
▁श्रुतम्	-10.6537
▁पूजयेत्	-10.6538
▁पृथ	-10.6541
▁पूँजी	-10.6542
▁प्रतिष्ठित	-10.6545
ार्थम्	-10.655
▁पूर्वकं	-10.655
▁वर्	-10.6551
ारम्भ	-10.6553
▁ट्	-10.6559
▁सौख्य	-10.6561
▁यथेष्ट	-10.6561
▁प्रशंस	-10.6563
▁----	-10.6565
▁गहन	-10.6567
नर	-10.657
▁मात	-10.6571
▁़	-10.6575
▁क्रियापद	-10.6576
▁वर्त्तते	-10.6576
▁तृतीयं	-10.6577
▁हव्य	-10.6579
▁करने	-10.6579
उच्चारण	-10.6581
रुप	-10.6581
▁िम	-10.6582
ांस	-10.6583
▁स्कन्ध	-10.6583
शंस	-10.6591
▁दुःखित	-10.6599
▁चिद्	-10.6599
श्रुत	-10.66
▁मातरं	-10.6602
▁क्षणात्	-10.6602
▁पप्रच्छ	-10.6604
▁आग्नेय	-10.6604
▁व्यञ्जन	-10.6606
▁शुष्क	-10.6606
▁तवं	-10.6606
▁महाबलः	-10.661
▁सै	-10.6613
धू	-10.6614
▁सूत्रम्	-10.6614
▁भाषायां	-10.6617
▁लेखकः	-10.662
ादित्य	-10.6623
तक	-10.6625
▁वामे	-10.6625
र्थं	-10.6628
रिव	-10.6629
मेर	-10.6631
▁जीवे	-10.6632
▁त्रिधा	-10.6635
▁कार्यस्य	-10.6636
▁चन्द्रमा	-10.6637
▁त्वद	-10.6638
▁तस्मिन्न	-10.664
▁भवन्	-10.6646
▁कृत्स्न	-10.6647
▁्त	-10.6647
▁भवद्	-10.6648
▁शुभाशुभ	-10.6649
▁प्रसिद्धा	-10.6649
▁प्रदर्शित	-10.6649
▁खग	-10.665
▁ंश	-10.665
▁रक्षक	-10.6651
▁गुणो	-10.6653
▁साध	-10.6654
▁फे	-10.6654
द्रु	-10.6655
▁कीदृशः	-10.6655
▁तीक्ष्ण	-10.6656
▁राजपुत्र	-10.6656
▁अग	-10.6658
▁यान्	-10.6658
▁यदुक्त	-10.666
▁मुपा	-10.6662
▁उद्देश्य	-10.6664
िज	-10.6664
▁कोड	-10.6665
▁निस्	-10.6666
▁मनस	-10.6666
▁सम्मत	-10.6667
▁समृद्धि	-10.6668
▁कषाय	-10.6669
▁विविधा	-10.6673
पूर	-10.6673
▁प्रती	-10.6675
न्यथा	-10.6676
▁भक्ता	-10.6679
▁उदक	-10.6679
▁माने	-10.668
न्वितः	-10.6682
▁धीः	-10.6683
▁प्रसार	-10.6684
▁तच्	-10.6684
▁वध्य	-10.6687
▁विह	-10.6687
▁समाहित	-10.6688
अपि	-10.6693
▁द्वैत	-10.6694
▁VERSE	-10.6695
▁अस्मभ्य	-10.6697
▁00:	-10.6697
▁चैतन्य	-10.6698
िप	-10.6701
▁क्रीत	-10.6701
ग्रहण	-10.6705
रिया	-10.6708
▁भाष्ये	-10.6709
▁भूमिं	-10.6711
▁परायण	-10.6712
▁सुधा	-10.6713
▁क्षि	-10.6715
श्न	-10.6716
▁उन्	-10.6723
ीत्	-10.6729
▁सत्यम्	-10.6734
▁परमे	-10.6737
▁ेदं	-10.674
▁हरित	-10.6746
▁गेह	-10.6746
▁कृतवन्तः	-10.6747
▁वत्सर	-10.6747
▁नपुंसक	-10.6749
कारी	-10.6752
▁गिरा	-10.6752
▁विरोधि	-10.6753
▁कलश	-10.6755
▁जनित	-10.6755
▁ध्रुवम्	-10.6759
▁मासा	-10.6759
▁कीदृशं	-10.6762
१६	-10.6763
▁प्रमाणेन	-10.6764
सम्पादन	-10.6765
▁वर्धय	-10.6767
▁विष्णुः	-10.6772
▁न्द	-10.6773
०२	-10.6774
▁रूपिण	-10.6776
▁पुस्तकानि	-10.6777
▁भये	-10.6781
▁विलोक्य	-10.6781
▁रसः	-10.6784
▁व्यस्त	-10.6785
▁अधिसूचना	-10.6787
▁उल्लेख	-10.6787
▁सांस्कृतिक	-10.6787
▁पुष्कर	-10.6787
▁ीत्यर्थः	-10.6787
▁सात	-10.6787
सित	-10.6789
ढ़	-10.6789
स्तथैव	-10.6791
▁वृक्षाः	-10.6793
ात्मानं	-10.6798
▁विसर्ग	-10.6798
ेष्व	-10.6803
टर	-10.6805
न्ट	-10.6805
▁दण्डः	-10.6806
▁कृताः	-10.6808
ध्द	-10.6812
▁अतिशय	-10.6812
ार्थे	-10.6813
▁७८	-10.6817
विश्व	-10.6823
▁भिक्षु	-10.6828
▁विन्द	-10.6829
▁मयी	-10.6829
▁सविता	-10.6832
▁अवशिष्ट	-10.6833
▁सातवां	-10.6834
▁यन्तु	-10.6834
▁शैक्षिक	-10.6834
▁सहस्रशः	-10.684
तीत	-10.6841
▁दत्ता	-10.6842
▁दक्षिणां	-10.6843
▁इंद्र	-10.6845
▁सेवक	-10.6845
▁तन्म	-10.6846
सुर	-10.6849
▁जनि	-10.6852
वाल	-10.6854
▁शः	-10.6854
▁जः	-10.6855
ुस्	-10.6856
▁श्रेयः	-10.6856
तीनां	-10.6857
▁संसद	-10.6858
▁छा	-10.6867
▁बुद्धे	-10.6868
मभि	-10.6878
▁वक्ष्यति	-10.688
▁द्यूत	-10.6881
▁होवाच	-10.6882
▁अले	-10.6886
▁तिष्ठन्ति	-10.6886
▁आशिष	-10.689
▁मधि	-10.6892
▁एल	-10.6899
▁व्यवहारः	-10.69
▁इदानीम	-10.6902
र्थः	-10.6902
ग्ने	-10.6903
य्य	-10.6903
▁आपद	-10.6905
▁ार्य	-10.6905
▁जाया	-10.6906
▁तेभ्यो	-10.6908
▁वासना	-10.6914
▁आद	-10.6914
▁ेष्वपि	-10.6915
▁वादन	-10.6915
▁पन्न	-10.6916
▁ग्रस्त	-10.6917
▁परीक्ष	-10.6919
पर्यन्त	-10.692
▁परमात्म	-10.6923
▁भानु	-10.6924
▁रिश्ते	-10.6926
▁वासुदेव	-10.6926
▁जीवन्मुक्त	-10.6927
▁परमाण	-10.6929
▁विशेषा	-10.6931
एम	-10.6934
▁मितिः	-10.6937
▁झा	-10.6939
▁००	-10.6941
▁हीना	-10.6944
▁पुरे	-10.6948
▁ामि	-10.6948
▁प्रतिपादित	-10.6948
▁बै	-10.6948
▁नायं	-10.695
ब्ब	-10.6951
जर	-10.6954
▁गुणान्	-10.696
ent	-10.6963
▁ाभ्याम्	-10.6963
लिका	-10.6964
द्दिश्य	-10.6966
बे	-10.6971
▁अप्रैल	-10.6974
▁धिया	-10.6974
▁ऽन्त	-10.6974
▁प्रोवाच	-10.6974
▁शूद्र	-10.6974
▁कारा	-10.6975
▁तस्	-10.6975
▁पृष्ठाना	-10.6976
▁ष्	-10.6979
▁निखिल	-10.698
▁लाग	-10.6982
▁प्रदीप	-10.6983
▁प्रत्यक्षं	-10.6984
▁तस्मान्	-10.6985
▁स्थापन	-10.6985
▁प्या	-10.6988
काय	-10.6991
▁विप	-10.6997
ग्ध	-10.6998
▁पालक	-10.6999
ह्व	-10.7
▁क्री	-10.7002
▁ध्वंस	-10.7005
▁एकत्र	-10.7007
▁दारुण	-10.7007
▁त्मक	-10.7007
▁नामा	-10.7007
▁यॊग	-10.7007
▁रजत	-10.7008
▁बाधित	-10.7015
▁भावि	-10.7017
▁सदस्यः	-10.7018
ादिति	-10.702
▁परीणाम	-10.702
▁क्षणिक	-10.7021
▁नेवाःतय्	-10.7021
▁तथाहि	-10.7022
▁स्कन्द	-10.7022
▁७३	-10.7024
मुच्यते	-10.7024
▁खण्डः	-10.7025
▁रुपं	-10.7027
▁निर्मितः	-10.7027
▁सखा	-10.7031
▁प्रभाते	-10.7031
▁हिन्दी	-10.7034
▁दातुं	-10.7034
▁किंचिद	-10.7043
▁अभूत्	-10.7045
▁धिकरण	-10.7045
▁शुद्धं	-10.7046
▁युध	-10.7048
दिवस	-10.7053
▁भवेत	-10.7055
▁यादृश	-10.7059
▁वियोग	-10.706
▁मार्गं	-10.7064
▁अवश्य	-10.7065
▁वर्द्ध	-10.7065
धः	-10.7067
▁पाकिस्थान	-10.7068
▁धीमतः	-10.7068
विभाग	-10.7072
▁Previous	-10.7075
▁तकं	-10.7075
▁न्ध	-10.7077
▁चाप	-10.7078
▁नामक	-10.7082
▁फु	-10.7083
▁स्मार	-10.709
▁यामास	-10.7093
▁no	-10.7094
▁भोज्य	-10.7094
▁कुण्ड	-10.7097
▁८७	-10.71
▁सार्द्ध	-10.71
▁विज्ञात	-10.7101
▁क्षिति	-10.7102
▁करिष्य	-10.7103
▁यह	-10.7106
तत्	-10.7106
॒म	-10.7106
▁नानु	-10.7108
▁कामो	-10.7108
▁शिर	-10.7109
पीड	-10.711
▁विशेषो	-10.7112
ोदर	-10.7113
▁सहयोग	-10.7115
▁निर्विकल्प	-10.7117
▁स्थावर	-10.7121
▁भौ	-10.7122
श्चित्	-10.7123
नत	-10.7123
▁िह	-10.7125
णम्	-10.7125
▁शन	-10.7125
ित्याह	-10.7125
▁SP	-10.7128
br	-10.7128
▁स्वजन	-10.7135
▁अकार	-10.7137
▁नगरी	-10.7139
▁दै	-10.7139
॑त	-10.714
▁७७	-10.7143
▁यतीति	-10.7151
▁वयः	-10.7152
▁पूर्वस्य	-10.7155
वस्तु	-10.7157
▁पा०	-10.716
▁कवचं	-10.7161
▁सखे	-10.7162
▁दशक	-10.7163
▁आसपास	-10.7163
▁व्यूह	-10.7164
▁तदानीं	-10.7165
▁कुपित	-10.717
▁संहत	-10.717
▁समाप्तः	-10.7175
कीर्ण	-10.7175
▁मुत्	-10.7176
▁लक्षणे	-10.7176
▁स्त्रियो	-10.7177
▁वीक्ष	-10.7178
▁शपथ	-10.7178
▁बालः	-10.7179
▁᳚	-10.7181
ाग्र	-10.7186
▁हस्तेन	-10.7186
▁प्रह	-10.7187
▁भविष्यामि	-10.7188
क्षु	-10.719
▁केचिद्	-10.7196
▁दुः	-10.7201
▁प्त	-10.7205
▁अनिवार्य	-10.7211
▁आगच्छ	-10.7212
▁आरम्भः	-10.7212
▁मधुरं	-10.7214
▁हविः	-10.7215
▁वायुर्	-10.7218
▁१९२	-10.7218
▁and	-10.7222
▁बाधा	-10.7222
हन्	-10.7223
▁प्रस्थित	-10.7226
▁विषयत्व	-10.7236
▁गि	-10.7236
▁९८	-10.7239
▁ऊँ	-10.7239
▁अपितु	-10.7244
▁९९	-10.7246
▁कीट	-10.7248
▁मज	-10.725
▁अर्ह	-10.7252
▁गतिम्	-10.7252
▁रोष	-10.7253
▁लेखक	-10.7254
▁चैत	-10.7255
▁महात्मनः	-10.7256
दू	-10.7262
▁जह	-10.7265
ग्नौ	-10.7265
▁उदात्त	-10.7267
▁ऽसि	-10.7267
▁टिप्पणी	-10.7274
▁प्रियतम	-10.7274
▁बुद्धिर्	-10.7277
▁as	-10.7277
पद्यत	-10.7281
▁प्रतीक	-10.7283
▁यावन्	-10.7283
▁पृथिव्याः	-10.7283
अव	-10.7284
▁स्वीकार	-10.7285
▁नाह	-10.7287
▁वर्णित	-10.7288
▁तृप्ति	-10.729
रेक	-10.7292
यज्ञ	-10.7292
▁पक्षी	-10.7293
▁गच्छे	-10.7295
▁आईपी	-10.7296
▁प्राणः	-10.7297
▁फि	-10.7298
▁प्रयोगो	-10.7299
▁वाक्यम्	-10.7301
▁आदेशः	-10.7301
▁र्ध	-10.7302
▁वर्णनं	-10.7306
लय	-10.7306
▁तारक	-10.7306
▁ऊर्ध्वं	-10.7306
सप्त	-10.7308
▁कृश	-10.731
▁मण्डलस्य	-10.731
▁वेष्ट	-10.7312
प्रद	-10.7314
▁उभयोः	-10.7315
▁गाः	-10.7316
▁सम्मुख	-10.7316
▁पूजय	-10.7318
हीन	-10.732
ार्ध	-10.7322
मव	-10.7325
▁द्वाव	-10.7325
▁अनुमति	-10.7328
▁भिधान	-10.7328
▁वीत	-10.7329
▁दिवः	-10.7329
क्ख	-10.733
०१	-10.733
ेयम्	-10.7331
▁धर्मज्ञ	-10.7332
▁कृप	-10.7333
15	-10.7334
कालं	-10.7336
▁त्री	-10.7336
▁द्वा	-10.7337
▁मलिन	-10.7337
परा	-10.7338
▁व्याख्यात	-10.7338
▁स्तद	-10.7342
▁शक्तः	-10.7344
▁बन	-10.7346
▁मरुत	-10.7348
डे	-10.7349
▁धुर	-10.735
▁अभय	-10.7351
▁प्रकाशः	-10.7351
▁विष्णो	-10.7352
▁वतां	-10.7353
▁समन्वित	-10.7353
▁यदिदं	-10.7353
▁कार्यो	-10.7355
ल्ला	-10.7356
▁2014	-10.7357
▁अन्तर्जाल	-10.7358
परं	-10.7358
▁en	-10.7359
ावली	-10.7359
▁स्वागतं	-10.736
▁सर्वपाप	-10.7363
▁०९	-10.7364
▁मनोहर	-10.7365
▁तर्पण	-10.7374
▁59	-10.7374
▁६३	-10.7376
▁गमने	-10.7378
▁णीय	-10.739
▁त्वाच्च	-10.7391
▁अर्च	-10.7395
▁जागृ	-10.7396
▁मीश्वर	-10.7397
दन्त	-10.74
▁केषां	-10.7402
▁क्षे	-10.7402
▁कर्मचारी	-10.7406
▁St	-10.7406
▁कृष्णः	-10.7407
▁योगदानानि	-10.7411
▁त्रयो	-10.7411
▁अन्योन्य	-10.7417
▁देवेश	-10.742
▁ानन्तर	-10.7421
▁जगती	-10.7425
▁सर्वभूत	-10.743
▁बन्द	-10.7431
▁आश्रित	-10.744
▁जाताः	-10.7443
▁अन्ततः	-10.7445
▁वादि	-10.7445
▁नरके	-10.7446
▁स्तद्	-10.7447
▁नृपति	-10.745
▁वणिज	-10.7456
▁गोविन्द	-10.7457
▁छे	-10.7462
▁लग	-10.7464
▁जला	-10.7469
▁पोषण	-10.7477
▁वृद्धिं	-10.7478
▁उग्र	-10.7478
▁प्रायेण	-10.7479
क्षेप	-10.748
▁सदृशं	-10.7481
▁शय्या	-10.7481
▁वेगेन	-10.7483
▁सम्बन्धित	-10.7483
▁प्रभूत	-10.7484
▁पतति	-10.7486
▁स्पृश	-10.7488
▁योजनानां	-10.7489
▁पूरित	-10.7493
▁वर्षाः	-10.7494
▁प्रकट	-10.7495
सभा	-10.7495
▁रेक	-10.75
ैतद्	-10.75
▁भ्रातृ	-10.7503
▁ेन्द्रिय	-10.7504
मेकं	-10.7504
▁साधय	-10.7504
ʼ	-10.7505
▁मुस्लिम	-10.7505
▁अकथयत्	-10.7505
▁सत	-10.7506
▁द्रुम	-10.7507
शाला	-10.7507
▁ावस्था	-10.7507
▁विषयाः	-10.7508
▁महाबाह	-10.7509
▁अन्नं	-10.7511
▁भाव्य	-10.7512
▁फ्र	-10.7513
▁जुहोति	-10.7514
▁शू	-10.7515
गि	-10.7515
▁ोपयोग	-10.7517
▁संवृत	-10.7517
▁अरण्य	-10.752
▁त्यर्थ	-10.7521
ेनापि	-10.7525
▁संपन्न	-10.7526
▁बाधक	-10.7527
धिकरण	-10.7528
▁ाना	-10.7528
▁एतस्मिन्	-10.753
▁पिं	-10.7532
▁दर्शनम्	-10.7532
▁मर्द	-10.7542
▁प्रयात	-10.7545
▁र्च	-10.7545
▁जीवनम्	-10.7547
▁चित्ते	-10.7548
ादेशः	-10.755
▁मप	-10.7551
▁ज्याझ्वः	-10.7555
▁कौतुक	-10.7555
▁पठेत्	-10.7561
▁उक्त्वा	-10.7563
▁संकेत	-10.7568
▁तूं	-10.7569
▁केषु	-10.757
णीय	-10.7572
▁सङ्ख्य	-10.7573
▁किरण	-10.7579
▁सर्वकाम	-10.7581
▁छेद	-10.7583
▁2)	-10.7586
॒ह	-10.7587
द्वार	-10.7587
ॄणां	-10.7588
▁तन्मे	-10.7589
गता	-10.7589
▁प्रकाशते	-10.7589
000	-10.7592
▁परमो	-10.7595
▁यत्ते	-10.7597
▁तेऽपि	-10.7598
▁जारी	-10.76
▁अनया	-10.76
▁co	-10.76
▁तेज	-10.76
न्या	-10.7604
▁भ्रष्टाचार	-10.7605
▁युता	-10.7609
▁लोकेषु	-10.7612
▁कर्मण	-10.7614
▁अथो	-10.7614
▁कुसुम	-10.7615
▁ैरपि	-10.7615
ोत्तम	-10.7615
हस्त	-10.7618
▁दोषाः	-10.7618
▁बो	-10.7621
▁त्रिविध	-10.7623
▁भग्न	-10.7628
▁अस्म	-10.7631
▁प्रविशति	-10.7635
▁कस्मै	-10.7643
se	-10.7645
चत	-10.765
▁पुष्य	-10.7651
▁इत्याख्य	-10.7653
▁दुर्घटना	-10.7655
▁शैक्षणिक	-10.7655
▁अहिंसा	-10.7655
▁योज्य	-10.7658
▁दाने	-10.7659
▁स्वस्व	-10.7659
▁लोकस्य	-10.766
▁दुष्कर	-10.7662
▁भ्यास	-10.7662
▁80	-10.7664
▁इहैव	-10.7665
न्तो	-10.7666
ध्या	-10.767
▁तेजसा	-10.7671
▁आरोप	-10.7671
▁वर्षशत	-10.7671
▁लभेत्	-10.7675
▁प्रय	-10.7676
भवति	-10.7676
▁उकि	-10.768
▁न्ती	-10.768
▁बान्धव	-10.7681
▁िताः	-10.7682
▁मिष्ट	-10.7683
▁युवां	-10.7688
▁प्रसूत	-10.769
▁उपकार	-10.7694
▁भिक्षा	-10.7694
▁पुष्पं	-10.7694
▁ाध्याय	-10.7698
▁द्विजाः	-10.7699
▁तुल्यं	-10.7699
वकाश	-10.7704
▁1)	-10.7705
▁आश्रम	-10.7706
▁पुत्रेण	-10.7706
▁हीनं	-10.7706
▁प्रेरय	-10.7708
▁कानां	-10.7708
ूत	-10.7709
▁समिध	-10.7711
▁ेह	-10.7711
▁सन्तान	-10.7714
▁सन्तोष	-10.7714
▁िर	-10.7717
▁चिन्तन	-10.7718
▁आहुः	-10.7719
▁नासीत्	-10.7719
▁प्रायशः	-10.772
▁येषु	-10.7725
▁द्रष्टा	-10.7728
▁इन	-10.7733
▁श्य	-10.7735
▁चास्य	-10.7736
▁व्यवस्थितः	-10.7738
▁मित्याह	-10.7741
▁नेपाली	-10.7742
राध	-10.7743
स्थाने	-10.7744
▁सत्तम	-10.7746
▁निश्चितम्	-10.7746
▁भावात्	-10.7749
ुत्पन्न	-10.7749
पदा	-10.775
चल	-10.7753
▁नित्यः	-10.7753
▁गम्भीर	-10.7756
\	-10.7756
▁ग्रामीण	-10.7756
▁निपुण	-10.7756
▁सुरक्षित	-10.7756
▁पवमान	-10.7756
▁हविर्	-10.7757
▁घटक	-10.7757
ta	-10.7758
हरण	-10.7758
पाठ	-10.7759
▁द्वयम्	-10.7764
▁चतुष्	-10.7765
ङ्गल	-10.7766
▁नास्तीति	-10.7766
ुद	-10.7767
▁गी	-10.7774
ाच्च	-10.7776
▁तरं	-10.778
▁गणेश	-10.778
▁समाप	-10.778
▁जाग	-10.7782
रव	-10.7786
nd	-10.7786
▁लक्ष्यं	-10.7787
्तुं	-10.779
▁च्छा	-10.7791
▁वर्जित	-10.7792
▁मुक्तिः	-10.7792
र्ज्ज	-10.7794
▁सहिता	-10.7796
इन्द्र	-10.7796
▁जये	-10.7797
स्माकं	-10.7799
▁ाकार	-10.7803
शक्त	-10.7804
▁कारि	-10.7805
▁पलाय	-10.7806
▁घटः	-10.7806
▁(3)	-10.7808
▁वाप्य	-10.7809
▁गृहपृष्ठ	-10.7809
▁महद्	-10.781
नन्द	-10.7812
▁इत्येके	-10.7813
यमेव	-10.7815
▁दृष्टम्	-10.7816
▁अनुप	-10.7821
▁तेरे	-10.7822
▁सवन	-10.7823
▁पृथिव्य	-10.7824
निश	-10.7826
▁ादीन्	-10.7829
▁वक्ष्यते	-10.7831
▁भागवत	-10.7832
▁यन्ते	-10.7832
▁तॆ	-10.7833
▁विभाति	-10.7837
▁नाम्न	-10.7837
▁शश	-10.7838
▁यस्यां	-10.7839
टो	-10.784
ानुसार	-10.7844
▁200	-10.7844
▁म॒	-10.7845
▁ताम्र	-10.7847
वयव	-10.7849
▁अयि	-10.7849
▁महद	-10.7853
▁स॒	-10.7854
▁पितुर्	-10.7854
ात्मनः	-10.7856
▁यस्त्व	-10.7858
▁ोदाहरण	-10.7858
▁शत्रूणां	-10.7859
▁z	-10.7859
▁us	-10.786
▁एकादशी	-10.786
विज्ञान	-10.786
▁विषाद	-10.7861
▁यदी	-10.7862
▁ुद्	-10.7864
▁राहु	-10.7864
▁वादः	-10.7864
▁विभ	-10.7865
▁क्रियाः	-10.7866
▁नगरम्	-10.7869
$	-10.7869
▁प्रचलति	-10.7869
▁प्यार	-10.7871
▁सिन्धु	-10.7873
▁समर्थित	-10.7874
▁मादाय	-10.7875
श्वर	-10.7875
▁स्माकं	-10.7875
▁द्व्य	-10.7876
▁प्रथित	-10.788
▁प्रेत्य	-10.788
▁नायकः	-10.788
▁जयति	-10.7881
िक्	-10.7882
न्नपि	-10.7882
▁गूढ	-10.7883
▁न्यासः	-10.7884
▁नद्य	-10.7885
▁तीर	-10.7886
त्यादिना	-10.7886
▁अदृश्य	-10.7887
हस	-10.7888
▁एवंविध	-10.7889
▁सीद	-10.7889
▁ध्रुवं	-10.7891
▁लङ्	-10.7892
समये	-10.7894
▁वर्षति	-10.7896
▁यादव	-10.7898
▁गन	-10.7901
▁जनान्	-10.7901
cd	-10.7902
▁दयित	-10.7903
▁्यं	-10.7903
▁लिपि	-10.7906
▁मनुष्यः	-10.7907
▁ान्ते	-10.7909
▁परेण	-10.791
▁विश्राम	-10.7911
▁गीता	-10.7915
▁ितुम्	-10.7915
▁वर्गे	-10.7915
▁ोद्	-10.7916
▁विज्ञेय	-10.7916
▁कृतिः	-10.7917
▁अप्	-10.792
▁त्रै	-10.7922
▁पीड	-10.7928
▁43	-10.7931
मेतत्	-10.7933
▁हन्य	-10.7936
▁ह्यः	-10.7938
▁छन्दसि	-10.7938
▁िष्यते	-10.7939
▁देख	-10.7941
ीकृत्य	-10.7944
▁थन	-10.7944
▁प्रकृत्या	-10.7945
▁देशो	-10.7945
१३	-10.7946
▁दृश्यं	-10.7947
▁स्वेद	-10.795
▁अपेक्षा	-10.7956
▁मानवाः	-10.7957
ड़ा	-10.7958
▁तारा	-10.7959
▁कारो	-10.7961
▁कदाचिद	-10.7961
▁यज्ञः	-10.7961
▁शानदार	-10.7962
▁क्षुधा	-10.7963
▁यमः	-10.7963
▁वाच्यं	-10.7964
▁शिखा	-10.7966
▁गणः	-10.7967
▁आयु	-10.7967
▁ोपाय	-10.7967
▁एकाकी	-10.7968
व्यं	-10.797
▁भविष्यतीति	-10.797
▁do	-10.7971
▁ददामि	-10.7971
▁जगतां	-10.7974
▁ानुसारेण	-10.7976
ष्यसि	-10.7976
▁नामधेय	-10.7977
▁शिख	-10.7978
▁शतानि	-10.7978
▁प्रमा	-10.7979
▁कालिक	-10.7979
लम्ब	-10.7979
▁दुःखेन	-10.7982
▁एकदेश	-10.7982
विधा	-10.7982
▁अब	-10.7984
▁रामस्य	-10.7985
▁रक्षणं	-10.7985
▁दुग्धं	-10.7986
▁केन्द्रीय	-10.7986
▁धर्मे	-10.799
▁गोपाल	-10.7991
स्फ	-10.7991
▁हत्या	-10.7992
▁भयात्	-10.7992
पाय	-10.7993
▁वृत्र	-10.7994
▁भौम	-10.7995
▁दूरस्थ	-10.7997
▁र्द्ध	-10.7999
▁वासव	-10.8
▁मेलन	-10.8001
तले	-10.8005
▁नख	-10.8007
▁प्रत्ययस्य	-10.8008
▁कृत्व	-10.801
विवेश	-10.8011
▁बहिर	-10.8013
▁पुना	-10.8014
▁कालिदास	-10.8014
▁Online	-10.8014
▁तस्वीर	-10.8014
टल	-10.8015
स्मिन्नेव	-10.8017
▁विद्यन्ते	-10.802
▁ाध्ययन	-10.802
▁दुर्लभम्	-10.8023
▁सम्भाषणम्	-10.8023
▁समर्पय	-10.8024
▁मेरो	-10.8026
▁दृष्टो	-10.8026
▁वचने	-10.8028
▁ma	-10.8029
▁अपने	-10.8034
▁एफ	-10.8035
फ़	-10.8035
▁चक्रं	-10.8037
▁असुर	-10.804
--"	-10.8046
ex	-10.8046
▁१९५	-10.8048
▁अल्	-10.8049
▁चलन	-10.805
फलकम्ः	-10.805
▁मृताः	-10.8052
▁प्रसङ्गः	-10.8054
▁पृथु	-10.8054
▁नित्यत्व	-10.8056
▁बलवान्	-10.8058
॑र	-10.8064
▁ऐश्वर्य	-10.8066
▁माहात्म्य	-10.8066
▁संयुगे	-10.8066
▁विदध	-10.8071
▁युतं	-10.8071
▁समाजे	-10.8076
ive	-10.8078
▁पह	-10.8082
नया	-10.8083
▁॰	-10.8083
प्नोति	-10.8083
एव	-10.8083
▁महात्मा	-10.8084
▁राज्यम्	-10.8084
▁आभार	-10.8086
▁ान्तरे	-10.8087
▁सुखा	-10.8088
जसा	-10.8089
▁रुच	-10.8092
▁स्थानेषु	-10.8092
▁अक्षय	-10.8093
ग्रतः	-10.8096
▁नित्यम	-10.8098
▁राजन	-10.8099
▁सोमः	-10.81
▁विधानतः	-10.8103
▁पूर्वपद	-10.8103
▁तादृशं	-10.8109
च्यते	-10.8109
▁गर्ज	-10.8109
▁पीतं	-10.8111
▁र्ष	-10.8112
▁परी	-10.8112
▁वीज	-10.8115
▁मुदित	-10.8118
▁मेदि०	-10.8119
▁केचिद	-10.812
पत्तौ	-10.8123
ies	-10.8123
▁मृता	-10.8123
▁ात्मकः	-10.8125
▁यथोक्तं	-10.8127
▁यानं	-10.8132
▁कार्येषु	-10.8133
▁भिश्च	-10.8135
▁सिद्धः	-10.8135
▁द्विजः	-10.8135
▁फलित	-10.8138
▁पुरुषार्थ	-10.8143
▁पूर्णतः	-10.8143
▁अनुकूलन	-10.8144
▁ग्रहणेन	-10.8153
▁जाग्रत	-10.8155
▁बहू	-10.816
▁ड्	-10.8161
▁ण्	-10.8161
▁त्विति	-10.8162
▁अपेक्षित	-10.8162
▁८१	-10.8162
▁मिम	-10.8162
▁ऎ	-10.8163
▁क्षये	-10.8168
▁बहुविध	-10.8168
▁ज्ञाना	-10.8169
▁यद्यप्य	-10.8172
▁प्रेरित	-10.8172
▁शक्नोमि	-10.8173
▁ोऽभवत्	-10.8173
▁दानेन	-10.8178
▁दूरतः	-10.8179
▁भवते	-10.818
ोदित	-10.818
▁शोभते	-10.818
▁भ्या	-10.8181
▁12.	-10.8181
▁कनिष्ठ	-10.8181
▁सम्पाद्यताम्	-10.8185
▁संस्कृतिः	-10.8185
▁सद्यो	-10.8189
▁स्वदेश	-10.8189
▁रसो	-10.8192
मत्	-10.8193
▁द्योत	-10.8193
कर्मण	-10.8199
हृत्य	-10.8201
▁बाधते	-10.8202
▁चतुर्थे	-10.8202
▁माप	-10.8206
▁विराज	-10.8206
▁भृश	-10.8207
▁अभव	-10.8207
▁भगवता	-10.8208
▁व्यक्तं	-10.8208
est	-10.8214
ख्	-10.8214
▁सम्प्र	-10.8214
चक्ष	-10.8214
▁८५	-10.8215
▁इल	-10.8219
▁औं	-10.822
▁ष्ण	-10.8221
▁९३	-10.8221
▁द्यः	-10.8222
▁खड्ग	-10.8225
▁विस्मित	-10.8227
▁यद्येवं	-10.8228
पद्यन्ते	-10.823
▁नद्यः	-10.823
ब्द	-10.8235
▁धनेन	-10.8236
▁घनत्व	-10.8242
▁खर्च	-10.8244
▁प्रथ	-10.8251
▁विधिं	-10.8252
▁स्वात्म	-10.8252
▁लिसे	-10.8254
▁प्रापय	-10.8254
▁राजस्थान	-10.8254
▁भर्ता	-10.8255
▁कार्यम	-10.8259
▁मकर	-10.8259
▁सम्प्रसारण	-10.826
▁नेव	-10.826
▁विरुद्धं	-10.8263
तत्त्व	-10.8265
▁प्रयाति	-10.8267
▁तृप्त	-10.8269
▁समे	-10.8269
▁समो	-10.8275
▁स्वेन	-10.8277
▁बाल्य	-10.8278
▁श्रेणीः	-10.8279
ीया	-10.828
▁रक्तं	-10.8281
पेक्ष्य	-10.8283
▁04	-10.8283
▁सूचक	-10.8284
▁अन्वय	-10.8285
▁धात	-10.8287
▁खं	-10.8294
▁रोगा	-10.8298
▁वामन	-10.8299
▁सतत	-10.83
▁बुधैः	-10.8302
▁ुत्तर	-10.8303
▁चेतसा	-10.831
▁दधाति	-10.8312
▁पित्र	-10.8314
▁सम्भाषण	-10.8315
▁यष्ट	-10.8316
▁सोमो	-10.8317
▁ज्ञानम	-10.8319
▁रण्य	-10.8319
▁गुरोः	-10.8327
▁वृद्धः	-10.833
▁अस्मात्	-10.833
▁प्रकृतिं	-10.833
▁मुक्त्वा	-10.8331
▁महाविद्यालय	-10.8332
▁ब्रूमः	-10.8333
▁नार्थ	-10.8334
▁निष्पन्न	-10.8334
▁चाप्य	-10.8337
▁स्यां	-10.8337
▁तैलं	-10.8338
▁ान्तर्गत	-10.8339
▁सत्वर	-10.834
न्स	-10.8342
▁कया	-10.8342
▁देय्	-10.8344
▁चिकीर्ष	-10.8345
▁संन्यास	-10.8345
▁स्वरः	-10.8345
▁न्यू	-10.8346
▁कंस	-10.8346
▁इत्यतः	-10.8346
पदे	-10.8347
▁वर्षीय	-10.8348
▁वृत्तान्त	-10.8348
बू	-10.835
▁आवृत्ति	-10.8351
▁तापमान	-10.8352
▁व्याज	-10.8353
▁अधिका	-10.8354
▁सव्य	-10.8356
कृता	-10.8356
▁महादेव	-10.8357
▁सेव्य	-10.8364
▁जगतो	-10.837
रूपं	-10.837
▁वर्तमानः	-10.8373
▁जने	-10.8375
▁किञ्चिद्	-10.8376
ैते	-10.8378
सुख	-10.8379
▁ेश्वरः	-10.8381
▁प्रचलित	-10.8382
▁अब्	-10.8384
▁निवर्त्यताम्	-10.8387
▁परिवर्तित	-10.8387
▁तुलसी	-10.8387
▁समुचित	-10.8388
▁मयूर	-10.8388
▁वर्षसहस्र	-10.8389
▁गुरू	-10.8391
▁भवितुम्	-10.8391
ैल	-10.8392
▁घु	-10.8392
▁कनक	-10.8393
▁दिव्या	-10.8394
▁भरा	-10.8394
▁शृणोति	-10.8394
चक्र	-10.8396
▁विनश्यति	-10.8397
▁प्रजापतिः	-10.84
▁दासी	-10.8401
▁इक	-10.8401
el	-10.8403
▁आरभ्य	-10.8407
▁चौर	-10.8408
▁मण्डलम्	-10.8411
▁कर्मसु	-10.8411
▁51	-10.8415
आई	-10.8418
▁क्राम	-10.8418
▁श्रुते	-10.842
▁सन्धिः	-10.8422
▁प्रयोक्त	-10.8422
▁सूचि	-10.8422
वृद्ध	-10.8423
▁वराह	-10.8423
ीणां	-10.8424
▁निदान	-10.8424
ड्ड	-10.8427
▁ीकृत्य	-10.843
▁०२०	-10.843
▁जिता	-10.8431
▁मानस्य	-10.8433
▁तस्यै	-10.8437
▁वच	-10.844
▁प्रवर्तक	-10.8441
क्ल	-10.8442
▁पोर्न	-10.8444
▁सकला	-10.8444
ऽऽ	-10.8445
▁चरित्र	-10.8446
▁सम्पद्यते	-10.845
▁ापेक्षा	-10.8451
▁05	-10.8451
▁गाथा	-10.8451
▁०७	-10.8452
▁पारं	-10.8453
▁अदृष्ट	-10.8453
धो	-10.8454
▁िष्यति	-10.8458
▁भोक्ता	-10.8459
्यताम्	-10.846
▁बक	-10.8462
ांश्च	-10.8463
▁चत्वारि	-10.8463
▁53	-10.8463
▁श्रेष्ठं	-10.8464
ियन	-10.8464
▁प्रतियोगि	-10.8467
▁सङ्गत	-10.8467
▁कृष्ट	-10.8468
▁यथावत्	-10.8473
▁चारु	-10.8475
▁शत्र	-10.8477
ाक्षर	-10.8477
लाल	-10.8478
▁तदनन्तरं	-10.8479
▁इत्याद्य	-10.8479
व्र	-10.8481
▁होता	-10.8482
▁अधिकारः	-10.8488
▁निष्क	-10.8489
▁जैन	-10.849
▁जीवितम्	-10.8491
▁श्रद्ध	-10.8492
▁भाः	-10.8492
▁लोको	-10.8493
▁त्रुटि	-10.8495
▁सार्वधातुक	-10.8495
▁माश्रित्य	-10.8495
▁सम्पादक	-10.8495
▁धावति	-10.8496
▁श्रीकृष्ण	-10.8496
▁कृच्छ्र	-10.8496
▁यजेत	-10.8496
▁निष्फल	-10.8497
▁सिंहासन	-10.8498
▁निरपेक्ष	-10.8498
▁रूपक	-10.8499
▁मन्त्रालय	-10.85
▁नितरा	-10.8501
कारान्त	-10.8501
▁th	-10.8503
वता	-10.8503
भ्यास	-10.8503
▁ज्ञः	-10.8503
▁कामना	-10.8503
▁ानामपि	-10.8504
▁रुपए	-10.8504
▁विद्वान	-10.8507
▁संयोगः	-10.8507
▁शक्तिर्	-10.8508
▁सिद्ध्यति	-10.851
सान	-10.8511
▁नमस्ते	-10.8511
▁देशान्तर	-10.8513
▁बहून्	-10.8515
17	-10.8519
▁हस्तौ	-10.8521
▁सर्वस्व	-10.8521
वतां	-10.8522
ास्मि	-10.8523
▁ाणाम	-10.8534
▁प्रातःकाले	-10.8536
▁क्षोभ	-10.8536
▁रोगी	-10.8538
▁मन्दिरं	-10.854
▁स्युर्	-10.8541
▁स्स	-10.8546
▁एशिया	-10.8548
▁सुखद	-10.8549
रणं	-10.855
▁महोत्सव	-10.8551
▁2013	-10.8551
▁तथागत	-10.8556
मानः	-10.8558
▁ra	-10.8558
यात्रा	-10.8561
▁रुद्ध	-10.8562
▁प्रक्रम	-10.8564
▁प्रीत्या	-10.8564
▁कश्च	-10.8567
▁अनेकानि	-10.8569
र्षि	-10.857
▁हास	-10.8574
▁कर्तार	-10.8578
▁२००	-10.8579
▁भजते	-10.8584
जय	-10.8585
▁सम्पदा	-10.8586
▁हतो	-10.8587
▁मनसो	-10.8587
▁मग	-10.859
▁महत	-10.8591
▁विक्री	-10.8591
महा	-10.8596
विर	-10.8597
▁१९१	-10.8598
▁प्रकृतेः	-10.86
▁मय्य	-10.86
▁शिवा	-10.86
▁पात्रं	-10.8601
▁बहुषु	-10.8602
▁मन्न	-10.8602
▁टो	-10.8604
ुभ	-10.8604
▁शृङ्ग	-10.8605
▁ऐतिहासिक	-10.8605
▁रश्मि	-10.8606
▁समीपं	-10.8606
▁निवेद्य	-10.8607
▁प्राप्ताः	-10.8607
▁प्रत्युवाच	-10.8608
▁जातीय	-10.8608
▁विनिमय	-10.8609
▁मुत्तमम्	-10.8609
धेः	-10.861
▁मुद्र	-10.861
▁my	-10.8612
▁क्षत्रिय	-10.8614
▁दे॒व	-10.8616
▁्याः	-10.8617
▁सत्त्वं	-10.8618
▁प्रज्ञ	-10.862
▁°	-10.8622
▁शोधन	-10.8626
जाल	-10.8626
▁गवा	-10.8628
▁कदाचिद्	-10.8635
▁ङि	-10.8637
▁ययुः	-10.8637
▁सप्तमे	-10.8637
▁भरण	-10.8638
टु	-10.8639
▁ादय	-10.8639
▁दीर्घकाल	-10.8642
▁बाद	-10.8644
वत्स	-10.8645
▁त्वेऽपि	-10.8646
दिशेत्	-10.8648
▁रिक्ति	-10.865
▁व्रण	-10.8651
▁िय	-10.8653
▁यूप	-10.8656
▁प्रवर्तन	-10.866
▁PDF	-10.8661
▁मनोरञ्जन	-10.8661
▁समीचीन	-10.8661
▁पार्टी	-10.8662
▁जन्मदिन	-10.8662
▁कस्मान्न	-10.8662
▁सर्वशः	-10.8662
▁महिमा	-10.8663
▁कृतकृत्य	-10.8664
▁Ans	-10.8664
▁द्वारे	-10.8665
▁त्वय	-10.8667
▁शतश	-10.8669
▁दिवो	-10.8671
▁मध्यं	-10.8672
▁02	-10.8674
▁आगमन	-10.8676
▁यजु	-10.8677
▁यता	-10.8677
▁अधर्म	-10.8677
▁योगिना	-10.8677
▁ैस्तु	-10.8677
▁परिणामः	-10.8678
ह्म	-10.8678
▁तयोर	-10.8682
▁वर्षाणा	-10.8683
▁ल्ल	-10.8684
▁संविद	-10.8685
▁भवेयुः	-10.8686
▁ात्मनः	-10.8688
▁स्थो	-10.8689
दुःख	-10.869
▁मामेव	-10.8692
▁अम्ब	-10.8692
▁विवरणः	-10.8692
▁शोभा	-10.8694
ूर्	-10.87
दध	-10.87
द्धा	-10.8701
ey	-10.8702
▁भूम	-10.8703
▁ासीत्	-10.8704
▁संस्	-10.8706
▁पातक	-10.8709
▁li	-10.8711
जातीय	-10.8713
▁देवेभ्य	-10.8714
कला	-10.8714
▁मध	-10.8716
▁प्रसिद्धम्	-10.8717
▁छात्राणां	-10.8724
▁उच्चतम	-10.8725
▁शान्तिः	-10.8728
▁पवित्रं	-10.8729
▁गृ	-10.8729
िध	-10.8729
▁मर्यादा	-10.8731
▁le	-10.8733
▁रात्रे	-10.8733
▁अध्ययनं	-10.8734
▁प्रताप	-10.8735
▁स्वाध्याय	-10.8735
चरण	-10.8736
▁निधाय	-10.8738
▁रुद	-10.8738
▁कव	-10.8743
▁द्विगुणं	-10.8744
▁तॊ	-10.8746
▁गीतं	-10.8747
माद	-10.8748
▁तनू	-10.8748
▁रक्षतु	-10.8749
ञ्जन	-10.8754
▁चतुष्टय	-10.8757
Y	-10.8761
▁युधि	-10.8761
धीत	-10.8762
वर्ति	-10.8762
▁वाला	-10.8768
▁भिप्राय	-10.8769
ुष्य	-10.877
▁न्यायाधीश	-10.8773
▁Live	-10.8774
▁प्रेषण	-10.8774
▁योध	-10.8775
▁वर्गीकरण	-10.878
▁लोकसभा	-10.878
▁२०१५	-10.878
▁ममापि	-10.8781
▁सुखेन	-10.8787
▁दैवं	-10.8787
▁शून्यं	-10.8788
▁बलिं	-10.8789
▁उपाधि	-10.879
▁विधिर्	-10.8791
▁पाच	-10.8793
राव	-10.8793
▁व्यप	-10.8794
केश	-10.8796
▁युतः	-10.8796
साध्य	-10.8799
▁वेदि	-10.88
धातु	-10.8805
▁याम्य	-10.8807
▁कथयन्ति	-10.8807
▁प्रवृत्ते	-10.8808
▁09	-10.8812
▁सर्वो	-10.8812
▁साक्ष्य	-10.8814
▁श्राद्धं	-10.8816
क्ष्म	-10.8817
▁ुक्त	-10.8818
यिष्यामि	-10.8819
क्राम	-10.8819
▁किमिति	-10.882
▁तद्भव	-10.8821
▁स्पर्ध	-10.8828
▁राजनैतिक	-10.883
▁कर्णाटक	-10.883
▁लाघव	-10.883
ञ्छ	-10.8831
▁०८	-10.8832
▁कृष्य	-10.8835
▁गं	-10.8835
▁सिर	-10.8837
स्थे	-10.8837
▁अवकाश	-10.8839
▁वैराग्य	-10.8839
▁ञ्ज	-10.8839
▁मानसं	-10.884
▁दायक	-10.8842
ेयुः	-10.8843
▁चित्रे	-10.8845
▁राज्ञो	-10.8845
▁प्रविष्टा	-10.8845
त्रि	-10.8847
▁पूर्वपक्ष	-10.8847
▁प्रयोक्तव्य	-10.8849
▁निष्कास	-10.8851
▁जाः	-10.8854
▁ऽग्नि	-10.8856
▁it	-10.8857
▁शहर	-10.8858
▁महेश्वर	-10.8861
▁ातिशय	-10.8862
▁वर्णा	-10.8866
▁कीदृशी	-10.8867
▁विकल्पेन	-10.8868
▁शशि	-10.8868
▁भुवः	-10.887
▁कारणत्व	-10.8873
सेवा	-10.8873
क्ट	-10.8876
▁विषयो	-10.8878
▁तत्तत्	-10.8881
▁भुङ्क्ते	-10.8886
▁विनष्ट	-10.8887
▁लिखति	-10.8889
▁वृष्टिः	-10.889
▁विशिष्यते	-10.8891
▁कल्पय	-10.8892
▁स्ततो	-10.8892
▁डो	-10.8893
फि	-10.8894
▁90	-10.8897
▁सत्व	-10.8898
▁चिन्त	-10.8898
▁नुद	-10.89
▁ग्रन्थे	-10.8904
▁प्राणो	-10.8907
▁कोपि	-10.8909
▁बस	-10.8911
▁भण	-10.8912
▁वता	-10.8913
▁तथेति	-10.8914
▁यूयम	-10.8914
धारण	-10.8916
▁कारित	-10.8921
▁यथाह	-10.8921
भाषया	-10.8921
▁जहि	-10.8921
▁वन्द	-10.8924
▁गः	-10.8929
निति	-10.8929
▁धन्व	-10.8931
▁सिद्धिं	-10.8931
▁कल्पते	-10.8931
▁यशस	-10.8931
▁रथः	-10.8931
स्त्वं	-10.8931
▁पर्यन्तम्	-10.8936
▁ation	-10.8937
▁पुंसां	-10.8938
▁ावयव	-10.8939
▁क्षणेन	-10.894
▁लीन	-10.8941
▁दायित्व	-10.8944
▁थि	-10.8944
▁निर्धारण	-10.8946
▁कर्त्ता	-10.8947
▁ग्रे	-10.8951
▁परिचयः	-10.8952
▁निवृत्तिः	-10.8954
पीसी	-10.8955
▁ल्प	-10.8955
▁हिन्दू	-10.8958
▁शास	-10.8959
▁विकल	-10.8962
▁आदाय	-10.8962
▁वदेत्	-10.8963
▁संहार	-10.8964
▁कथितः	-10.8965
▁सानु	-10.8966
िष्णु	-10.8966
▁समर्था	-10.8968
▁जात्य	-10.8972
माने	-10.8972
▁पूज्यते	-10.8973
▁कारी	-10.8977
र्म्म	-10.8977
▁जानु	-10.8979
▁वरो	-10.8979
▁वधू	-10.8987
कारक	-10.8987
▁पादः	-10.8988
माल	-10.8995
क्षे	-10.8996
▁याद	-10.8998
▁वर्ज	-10.8999
▁चुनाव	-10.9001
▁वाग	-10.9002
▁आरभ	-10.9002
▁सुभग	-10.9002
वगम्यते	-10.9004
▁ग्ल	-10.9006
हिक	-10.9007
▁स्थातु	-10.9008
▁मनुष्या	-10.9008
▁मज्ज	-10.9008
▁la	-10.9009
▁हन्	-10.901
▁इवा	-10.9011
▁९६	-10.9013
▁भूति	-10.9013
▁शुच	-10.9015
▁प्राणान्	-10.9015
▁कामान्	-10.9015
▁वायुना	-10.9017
▁संग्राम	-10.9017
▁रोज	-10.9019
▁विपाक	-10.902
▁सुव्रत	-10.902
▁गच्छन्	-10.9022
▁याचित	-10.9023
▁मलं	-10.9024
▁कूल	-10.9025
▁ाष्ट	-10.9026
▁जिं	-10.9029
▁पृष्ठतः	-10.9032
र्ब	-10.9032
▁धनुष	-10.9035
▁वैश्य	-10.9035
▁किलो	-10.9036
▁विवर्जित	-10.9039
▁जानन्	-10.904
▁कश्चि	-10.9041
▁मन्यु	-10.9042
▁भवेन्	-10.9042
दृश्य	-10.9043
▁काव्यं	-10.9043
▁ाप्त	-10.9044
▁सुप्रभात	-10.9044
्द्य	-10.9056
▁निरत	-10.9056
▁इत्येष	-10.9059
▁चलचित्र	-10.9059
▁भीष्म	-10.906
▁विदूषकः	-10.9061
▁करिष्यसि	-10.9066
▁श्रेय	-10.9066
▁पूर्वम	-10.9069
▁मेरु	-10.907
▁विक	-10.9071
▁ar	-10.9071
▁ग्रीष्मे	-10.9071
▁यद्यत्	-10.9072
▁त्रयाणां	-10.9073
▁मात्रम्	-10.9073
▁हन्यते	-10.9073
्यादि	-10.9074
▁विष्णोः	-10.9076
▁57	-10.9077
▁ाभ्यास	-10.9079
▁पृथग	-10.9079
▁निर्भय	-10.908
▁वस्तुनि	-10.9085
ान्यपि	-10.9086
12	-10.9087
▁विशेषे	-10.9089
रिष्ट	-10.909
▁विक्षेप	-10.909
▁धिक्	-10.909
▁जयः	-10.9091
▁त्याज्य	-10.9092
▁दृश्यमान	-10.9095
▁व्र	-10.9095
▁दुरित	-10.91
नन्त	-10.91
▁ादिक	-10.9102
X	-10.9107
▁णी	-10.911
तुम	-10.9117
मश्नुते	-10.9117
▁बृहस्पति	-10.9117
▁शब्दानां	-10.9118
▁गुह्यं	-10.9119
▁मिलित	-10.9121
▁हृद्य	-10.9123
दिश्यते	-10.9124
▁पठित्वा	-10.9124
गृहे	-10.9125
▁लब्ध्वा	-10.9125
▁द्वित्व	-10.9127
▁यायेमाः	-10.9128
▁मन्त्रं	-10.913
▁भवतीत्य	-10.913
▁सारं	-10.9132
ुदात्त	-10.9134
▁ज्ञाता	-10.9136
नृत	-10.9136
▁इच्छन्ति	-10.9137
▁पितामहः	-10.9138
▁मन्तव्य	-10.9139
▁वयस्य	-10.914
▁विलास	-10.9142
▁मयो	-10.9142
▁दर्प	-10.9143
ावस्था	-10.9143
▁भवसि	-10.9144
▁ेभ्य	-10.9146
प्ल	-10.9149
▁तत्तु	-10.9149
▁अध्यापक	-10.915
▁वेदन	-10.9151
▁वाले	-10.9152
▁प्रसीद	-10.9152
▁ऐं	-10.9153
मेय	-10.9154
▁ोत्पत्ति	-10.9159
▁अनन्य	-10.916
▁सम्प्राप्त	-10.9161
▁द्वारेण	-10.9162
▁विप्रा	-10.9162
▁ऽधिक	-10.9168
▁युध्य	-10.9168
▁पाण्डु	-10.9171
▁ख्यातः	-10.9173
ासीत्	-10.9174
▁Xxx	-10.9175
▁ललाट	-10.9175
▁कष्टं	-10.9176
▁तृष्णा	-10.9177
▁गौतम	-10.9177
▁रसोई	-10.9177
▁विधेयक	-10.9178
▁मृत्	-10.9178
▁यूरोप	-10.9179
▁२०२०	-10.9182
▁नये	-10.9184
▁पुरस्कारः	-10.9184
▁हृद	-10.9186
▁थुगु	-10.9186
▁पठ्यते	-10.9187
▁श्रेयस	-10.9188
▁वर्तत	-10.9188
द्भुत	-10.9194
▁असम्भव	-10.9194
जन्म	-10.9195
▁निग्रह	-10.9195
▁विचारणा	-10.9195
▁सर्वां	-10.9197
▁इत्यनु	-10.9198
▁पित	-10.92
▁पिष्ट	-10.9202
▁मीन	-10.9204
भाष्यम्	-10.9204
ानेन	-10.9207
▁तोयं	-10.9209
वादी	-10.9215
▁भिस्	-10.9216
▁कथाः	-10.9217
रिक	-10.9223
▁कुर्याद	-10.9223
▁ैषा	-10.9225
▁णः	-10.9228
▁बलात्	-10.923
ाशय	-10.9231
▁वनम्	-10.9231
▁समुद्रे	-10.9232
▁ममैव	-10.9232
▁निश्चित्य	-10.9233
▁समर्पण	-10.9234
▁अन्ताराष्ट्रिय	-10.9234
▁कस्मिंश्चि	-10.9236
नाह	-10.9236
▁यिष्यामि	-10.9237
▁बुधः	-10.9238
▁संख्याया	-10.9238
▁विफल	-10.9239
▁भ्रान्त	-10.924
▁परित्याग	-10.924
▁यातु	-10.9241
▁टैग	-10.9241
ग्राह	-10.9243
▁ैक्य	-10.9245
▁दूरी	-10.9246
▁इत्यस्मिन्	-10.9247
वश्यं	-10.9249
▁तेषा	-10.925
पाक	-10.9251
▁सूचयति	-10.9252
▁हिता	-10.9252
▁....	-10.9256
▁निषेव	-10.9257
▁भूतले	-10.9259
▁कानन	-10.9264
▁प्राति	-10.9264
्ण	-10.9265
▁हताः	-10.9269
मण्डल	-10.9269
▁श्रेष्ठः	-10.9272
मित्र	-10.9273
▁एतां	-10.9274
▁पङ्क्ति	-10.9274
▁वृद्धौ	-10.9276
▁कदाचि	-10.9277
▁पत्न्या	-10.9278
खिल	-10.9278
▁क्रु	-10.9281
ोऽयं	-10.9282
▁तामस	-10.9284
▁साधनम्	-10.9284
▁समः	-10.9285
थु	-10.9285
▁वादे	-10.9286
▁एकता	-10.9291
▁वर्धित	-10.9291
▁ेत्	-10.9292
▁तदहं	-10.9292
▁संबध्यते	-10.9293
▁सञ्जात	-10.9294
▁शत्रुः	-10.9295
▁त्यर्थः	-10.9295
▁प्रशान्त	-10.9296
▁ाल	-10.9296
▁र्व	-10.9297
▁कौरव	-10.9297
▁कर्म्मणि	-10.9298
▁ाभिधान	-10.9299
▁भवद्भिः	-10.93
▁रुज	-10.9302
▁ईश्वरस्य	-10.9306
▁गौ	-10.9307
▁06	-10.9307
▁नियमेन	-10.9309
▁दुरा	-10.9313
▁विवृत	-10.9314
▁घञ्	-10.9315
राष्ट्र	-10.9317
▁संयुक्तं	-10.9317
▁भावित	-10.9317
▁अत्	-10.9319
पट	-10.9322
वीर	-10.9322
▁तल्	-10.9322
▁श्लोकः	-10.9323
▁वार्तिक	-10.9323
▁मृतः	-10.9325
▁पन्था	-10.9327
▁ैष	-10.9329
▁पृ०	-10.9329
▁ग्रहाः	-10.9331
▁वय्कःया	-10.9332
30	-10.9333
▁दीर्घा	-10.9333
▁लेख्य	-10.9334
वात	-10.9335
▁क्रियायाः	-10.9336
▁शेते	-10.9336
▁यज्ञो	-10.9339
▁प्रेरणा	-10.934
▁परिच्छेद	-10.9341
▁आज्य	-10.9343
▁९४	-10.9346
▁नित्या	-10.9346
▁अमर	-10.9347
होरात्र	-10.9349
▁पृष्ठभूमि	-10.9353
▁टेनिस	-10.9353
▁मंगल	-10.9354
▁शौर्य	-10.9354
▁सोऽयं	-10.9355
▁दातु	-10.9356
▁व्यतीत	-10.9358
▁इत्यादयः	-10.9359
▁करना	-10.9362
▁चन्दन	-10.9362
▁कश	-10.9362
▁मेद	-10.9364
▁योगि	-10.9366
▁भवामि	-10.9369
▁राह	-10.937
▁==	-10.9371
▁चाहं	-10.9371
▁54	-10.9375
▁तदुक्तं	-10.9378
ध्यते	-10.9378
▁पूज	-10.938
▁परिवर्तते	-10.938
-1	-10.9383
▁इत्येक	-10.9383
▁लब्धा	-10.9384
▁बालानां	-10.9384
▁दिनेश	-10.9384
▁लिङ्	-10.9385
▁एम्	-10.9388
▁पास	-10.9392
▁ज्ञापक	-10.9392
▁क्रुद्ध	-10.9397
▁श्राव	-10.9398
▁प्रौढ	-10.9398
▁रहितः	-10.94
▁विकासः	-10.9401
▁सर्व्वे	-10.9403
^	-10.9404
▁एतन्	-10.9405
▁ऽभ्य	-10.9406
प्ति	-10.9408
ng	-10.9408
▁शाय	-10.9415
▁वाञ्छित	-10.9416
न्यसेत्	-10.9418
▁संस्कृतं	-10.9419
्रे	-10.942
प्लव	-10.942
▁क्ष्य	-10.9422
▁गेहे	-10.9423
▁प्रतिभास	-10.9424
▁भट्ट	-10.9425
▁स्वां	-10.9427
▁बुध्य	-10.943
हाँ	-10.9431
क्ता	-10.9436
▁ेष्ट	-10.9437
▁राजस	-10.9437
▁मध्यस्थ	-10.9438
▁पदानां	-10.944
▁रेत	-10.944
▁कोट	-10.9443
▁भर्तु	-10.9444
▁सिध्य	-10.9446
▁स्वरित	-10.9449
द्रव	-10.945
▁वित्	-10.9453
▁दृक्	-10.9454
हास	-10.9455
ययौ	-10.9461
▁सहितः	-10.9467
▁कन्द	-10.9469
▁प्रदर्शय	-10.947
▁रक्षणे	-10.947
▁विहितः	-10.9473
▁अप्रत्यक्ष	-10.9473
▁जनसङ्ख्या	-10.9473
▁अनुवर्तते	-10.9473
ैकं	-10.9474
▁(4)	-10.9474
▁योर्मध्ये	-10.9475
▁वतः	-10.9475
ाश्रित	-10.9477
▁हरति	-10.9477
०६	-10.9479
लिन	-10.9479
▁अनुज्ञा	-10.9479
▁२००८	-10.9479
▁तपस्	-10.948
▁(--	-10.948
▁स्वर्गलोक	-10.9481
▁भिद्यते	-10.9481
▁ब्रह्मणः	-10.9481
and	-10.9483
ुत्थान	-10.9484
▁योगो	-10.9488
▁सद्भाव	-10.9489
▁प्राप्नु	-10.949
▁प्रवृद्ध	-10.9493
▁मृत्युं	-10.9502
▁स्त्रिय	-10.9502
▁पूरयत	-10.9503
▁मरु	-10.9503
▁भाजन	-10.9504
ांग	-10.9505
▁पात्रे	-10.9506
▁र्थं	-10.9508
▁ानाम	-10.9508
▁उत्तरे	-10.951
▁रम्भ	-10.951
▁ह्रद	-10.9511
▁नद्याः	-10.9511
▁दोह	-10.9511
▁दुरात्म	-10.9511
ार्क	-10.9513
▁De	-10.9514
▁रुचिः	-10.9514
▁भूतो	-10.9521
▁For	-10.9525
▁प्रसारण	-10.9527
▁अविद्या	-10.9529
▁ाधिप	-10.953
▁उत्त	-10.9534
▁सार्वजनिक	-10.9534
▁पिशाच	-10.9534
▁स्वायत्त	-10.9534
▁हजार	-10.9534
▁निश्चल	-10.9535
पश्य	-10.9535
ावेव	-10.9536
▁वपुः	-10.9536
▁व्यु	-10.9537
नियम	-10.9539
▁लुप्त	-10.9542
▁गाव	-10.9547
▁गुजरात	-10.9547
▁ललित	-10.9549
नन्तरं	-10.9551
▁उ०	-10.9552
▁न्तर्	-10.9552
▁विनिर्	-10.9553
▁प्रवेशः	-10.9554
माला	-10.9554
▁आगामि	-10.9556
▁मख	-10.9556
▁युष्मान्	-10.9556
▁दत्तवान्	-10.9557
▁वर्तमानकाल	-10.9558
▁्यै	-10.9561
▁सू०	-10.9564
▁पाण	-10.9566
▁गौण	-10.9566
▁साहाय्य	-10.9567
▁शयनं	-10.9567
▁स्मरणं	-10.9568
▁रूपो	-10.957
पुं	-10.957
▁विभा	-10.9571
▁तृतीयः	-10.9572
▁ागत	-10.9573
▁धइ	-10.9575
कीर्त	-10.9577
la	-10.9582
▁राशिः	-10.9583
वृत	-10.9586
क्रिया	-10.9588
▁बाध्य	-10.959
▁un	-10.9591
▁मित्	-10.9591
▁व्यति	-10.9592
ट्ठ	-10.9593
▁परिशिष्ट	-10.9595
▁रुधिर	-10.9595
▁विद्यार्थी	-10.9595
▁प्राप्तौ	-10.9595
▁पुण्या	-10.9596
▁नियमो	-10.9597
ध्र	-10.9599
▁करोड़	-10.96
▁ध्वनिः	-10.9603
▁एतयो	-10.9606
िष्ये	-10.9609
▁वये	-10.9609
▁साधना	-10.9609
▁56	-10.961
▁तुष्टि	-10.961
▁प॒	-10.9612
▁गन्धर्व	-10.9615
▁कृती	-10.9615
▁गच्छेत्	-10.9616
ेहि	-10.9617
▁अहमपि	-10.9621
▁उत्तमः	-10.9621
▁महत्त्वं	-10.9622
▁जहा	-10.9632
▁70	-10.9632
योग्य	-10.9635
▁कृतज्ञ	-10.9638
▁ैन	-10.9643
▁त्वेव	-10.9643
▁ास्	-10.9644
▁कारं	-10.9646
ya	-10.9649
▁इत्यर्थे	-10.9649
▁उच्चैः	-10.965
ल्ड	-10.9654
सव	-10.9654
▁दूषित	-10.9657
▁द्वेष्टि	-10.9658
▁प्रतीय	-10.9658
▁मेने	-10.9661
▁कोविड्	-10.9661
▁कान्ति	-10.9662
▁बजे	-10.9664
करोति	-10.9665
▁भारी	-10.9665
ेशे	-10.9668
▁यथापूर्व	-10.9668
▁भेदं	-10.9668
▁चक्षु	-10.9669
▁किमर्थ	-10.967
▁कूर्म	-10.9671
न्वय	-10.9673
▁अकृत	-10.9676
▁संक्रमण	-10.9677
सन्ध	-10.9679
▁धत्ते	-10.968
▁पौत्र	-10.968
▁तसक	-10.9682
▁देवेषु	-10.9682
▁52	-10.9684
▁विजित	-10.9684
▁तापस	-10.9687
▁ऽस्म	-10.9688
ंतिं	-10.969
▁वाजिन	-10.9691
▁धूप	-10.9693
▁कश्मीर	-10.9693
▁क्षेत्रस्य	-10.9694
▁नुप	-10.9695
▁गर्	-10.9695
▁यिष्यति	-10.9696
▁ख्यातं	-10.9696
रज	-10.97
▁सर्वान	-10.9709
▁अभावः	-10.9709
स्माद	-10.971
▁स्वच्छ	-10.9711
ॐ	-10.9711
▁प्रकाशक	-10.9711
▁ब्द	-10.9712
▁कृद्	-10.9712
▁बाह	-10.9714
▁युद्धाय	-10.9716
▁व्यावहारिक	-10.9718
▁खोजषब्द	-10.9718
▁चमत्कार	-10.9718
▁भयानक	-10.9718
▁क्षणा	-10.9721
▁चर्च	-10.9722
▁तदन्य	-10.9725
भ्युपगम	-10.9728
▁vs	-10.9729
▁ाधिकरण	-10.9734
▁मुच्य	-10.9734
▁पूर्वो	-10.9735
कुर्वन्	-10.9736
मासाद्य	-10.9736
▁क्वाप	-10.9737
▁पत्राणि	-10.9737
▁शुचिः	-10.9737
▁ज्ञातु	-10.9737
▁संमत	-10.9738
▁मोहन	-10.9739
▁प्रमेय	-10.9741
▁प्रदा	-10.9746
▁चक्षुर्	-10.9748
▁प्रसर	-10.9748
▁महिष	-10.9748
▁संगत	-10.975
▁ध्र	-10.9751
▁याश्च	-10.9752
▁युः	-10.9752
▁आङ्ग्लभाषाया	-10.9759
प्ट	-10.9759
▁ज्ज	-10.9762
/)	-10.9765
पृष्ठ	-10.9769
▁बहुशः	-10.9775
▁धने	-10.9775
▁प्रवर	-10.9776
▁ल्याः	-10.9779
▁तेजस	-10.978
▁ऊचुः	-10.978
द्यु	-10.978
▁स्यादित्य	-10.9781
▁प्राणायाम	-10.9781
▁तथाविध	-10.9782
▁करोषि	-10.9783
▁ओज	-10.9784
▁चैत्र	-10.9785
▁तदभाव	-10.9787
कण्ठ	-10.9788
वाचक	-10.9788
▁स्यान्न	-10.9792
ाम्यहं	-10.9796
▁प्रस्थ	-10.9799
▁यमान	-10.98
▁वन्य	-10.9802
▁जीवः	-10.9806
▁ेत्यादि	-10.9807
▁सर्वमेव	-10.9808
▁रूपये	-10.9811
▁लिङ	-10.9811
▁प्रबल	-10.9812
▁्ये	-10.9812
▁कासा	-10.9817
▁यतस्त	-10.9822
▁स्वरूपम्	-10.9822
▁त्रास	-10.9823
▁रसा	-10.9824
▁ब्	-10.9824
▁तरङ्ग	-10.9825
▁भोजनम्	-10.9825
वेग	-10.9826
▁लिखितं	-10.9826
ice	-10.9826
▁थाय्	-10.9831
▁वितर	-10.9836
पराध	-10.9836
▁कुर	-10.9839
ारब्ध	-10.9842
▁Sentence	-10.9842
ाधम	-10.9842
*}	-10.9843
करोत्	-10.9849
▁तोष	-10.985
▁कॉ	-10.9851
कर्ष	-10.9852
▁जेतुं	-10.9852
▁शक्यन्ते	-10.9852
▁हरः	-10.9854
▁सुप्र	-10.9858
▁लिपा	-10.986
▁प्रातर्	-10.986
▁निवारय	-10.9862
▁विंश	-10.9863
▁मित्येव	-10.9864
▁ऽभवत्	-10.9865
▁पूष	-10.9865
▁प्रविष्टः	-10.9865
निव	-10.9869
ान्तिक	-10.9869
वसाय	-10.9869
▁भेदाः	-10.9869
ततः	-10.987
▁ग्रहाणां	-10.9871
▁ान्तं	-10.9871
▁अर्क	-10.9872
मती	-10.9873
प्यते	-10.9876
▁घटादि	-10.9877
▁विशद	-10.9877
▁परिसर	-10.9884
▁सुतं	-10.9884
▁समासे	-10.989
▁वर्धमान	-10.9892
▁अध्याये	-10.9892
▁शिशुः	-10.9894
▁अरुण	-10.9898
▁पूजनं	-10.9899
्यहं	-10.9901
▁साध्यं	-10.9902
▁पृष्ठः	-10.9902
▁नासा	-10.9903
▁रुग्ण	-10.9905
ऱ	-10.9905
▁सात्त्विक	-10.9905
▁सरस्वती	-10.9905
▁मिथुन	-10.9905
▁परतो	-10.9906
▁विश्वासः	-10.9907
▁प्रशस्यते	-10.9909
▁उपलभ्यते	-10.991
▁04:	-10.991
गार	-10.9913
▁तुरीय	-10.9914
ोन्नत	-10.9915
▁निभा	-10.992
▁उत्तरा	-10.992
▁न्यस्त	-10.9921
▁पश्यन्तु	-10.9924
▁निविष्ट	-10.9924
▁शकट	-10.9924
~	-10.9925
▁दृशा	-10.9927
▁हितार्थ	-10.9929
▁pdf	-10.9929
av	-10.993
▁प्रतिपद	-10.9932
▁स्रोतः	-10.9933
▁ादन्य	-10.9934
▁पत्रे	-10.9935
▁व्याख्यातम्	-10.9936
▁राज्ञां	-10.9937
▁संस्कृतस्य	-10.9937
▁आयाति	-10.9939
▁सद्य	-10.9939
▁एषु	-10.9941
▁क्लीब	-10.9942
▁हीति	-10.9942
▁विनाशाय	-10.9943
▁3-	-10.9945
▁प्रकरणं	-10.9946
▁घटित	-10.9946
▁वचो	-10.995
▁योगात्	-10.995
▁वर्तमाने	-10.9951
▁निवेश्य	-10.9951
ct	-10.9953
▁आकाशे	-10.9959
▁पदान्त	-10.9961
▁चिकित्सक	-10.9967
▁तन्तु	-10.9968
▁भक्तानां	-10.9968
▁पुत्रपौत्र	-10.9968
▁सम्प्रदाय	-10.9969
▁गतिर्	-10.9969
▁आवश्यकम्	-10.9969
▁पार्व	-10.9969
▁पाठ्यक्रम	-10.9969
▁विभज्य	-10.997
▁गुणानां	-10.9972
▁मर्म	-10.9972
▁वयव	-10.9973
▁शस्त	-10.9975
▁ज्ञेयः	-10.9978
▁लाभे	-10.9981
▁मयः	-10.9981
▁ार्थो	-10.9981
▁ाभिमुख	-10.9982
▁भवन्त्य	-10.9983
▁वेदे	-10.9983
गन	-10.9984
▁आइ	-10.9984
▁साधित	-10.9987
▁करिष्यते	-10.9989
ैत	-10.9989
▁58	-10.9991
▁समर	-10.9995
▁शतके	-10.9996
▁To	-10.9999
कृते	-11
▁अभ	-11.0001
▁आदर्श	-11.0002
▁सर्वासु	-11.0004
▁Le	-11.0004
▁वट	-11.0006
भूत्	-11.0006
▁विग्रहः	-11.001
▁वाचो	-11.0012
राय	-11.0015
▁प्रयत्नः	-11.0019
ूँ	-11.002
▁लक्षणः	-11.002
▁संपाद	-11.0021
भूय	-11.0021
▁औप	-11.0024
३०	-11.0026
▁भृ	-11.0026
▁रुचिर	-11.0027
हेतु	-11.0028
▁Nepal	-11.0029
▁स्येव	-11.003
▁शुश्रूष	-11.0032
▁इत्युप	-11.0033
ाकाङ्क्ष	-11.0033
▁तादृशः	-11.0035
तै	-11.0036
▁तथोक्त	-11.0037
जित	-11.0041
▁शता	-11.0041
▁महाबल	-11.0044
▁अधीत	-11.0046
▁विराजते	-11.0046
▁तत्राह	-11.0046
▁ha	-11.0049
▁वादिन	-11.005
▁च्छाया	-11.0051
▁सरस	-11.0051
▁मृत्युर्	-11.0052
▁पश्चिमा	-11.0052
▁ोद्भव	-11.0053
कारेण	-11.0054
▁धावन	-11.0055
▁कुमारी	-11.0055
▁जटा	-11.0057
tion	-11.0058
▁ऋषिः	-11.0061
▁निराश	-11.0063
▁प्रकृत्य	-11.0064
▁सुखम	-11.0067
▁ऽयम	-11.0067
▁तैर	-11.0068
▁षत्व	-11.0069
▁पत्ति	-11.007
▁यथे	-11.0075
▁गोष्ठ	-11.0075
▁जागरण	-11.0076
▁विद्यु	-11.0076
▁विनियोगः	-11.0078
▁विहितं	-11.0081
▁भूतेषु	-11.0082
ष्ठु	-11.0083
जज्ञे	-11.0084
▁मोदी	-11.009
▁िकं	-11.0094
▁मित्यादि	-11.0095
धिकृत्य	-11.0095
▁भारतम्	-11.0095
▁र्त्त	-11.0095
ून्	-11.0096
▁कैवल्य	-11.0096
▁विरचित	-11.0096
▁युग्म	-11.0097
क्व	-11.0097
नुसृत्य	-11.0098
▁एशियाई	-11.0098
▁अनुदात्त	-11.0099
▁कस्यचिद	-11.0099
▁अग्रिम	-11.0099
▁जलाशय	-11.0101
▁मांसं	-11.0102
▁दशरथ	-11.0102
▁गव	-11.0104
▁न्हू	-11.0105
▁वरम्	-11.0105
सर्प	-11.0105
▁स्पृ	-11.0111
▁गर्ने	-11.0113
देशस्य	-11.0114
सर्ग	-11.0114
▁समाधान	-11.012
▁गमिष्यति	-11.0121
▁अमेरिकी	-11.0122
▁करिष्याम	-11.0126
▁हसन्	-11.0128
▁देवैः	-11.0128
▁तद्धि	-11.0128
▁जिग	-11.013
▁प्रणम	-11.0132
▁घो	-11.0133
▁जार	-11.0133
▁जागर	-11.0133
▁सिद्धये	-11.0134
▁कुप्य	-11.0134
▁राजनीतिक	-11.0135
▁त्यपि	-11.0137
▁उठ	-11.0139
▁सर्वेषाम	-11.014
▁कथमपि	-11.0143
▁वपुष	-11.0144
ER	-11.0148
▁विवरणं	-11.0149
▁रुपेण	-11.015
▁चक्रु	-11.015
▁लू	-11.0151
▁श्लेष	-11.0152
व॑	-11.0156
▁धिप	-11.0159
चेत	-11.0159
▁नवदिल्ली	-11.0161
▁अगच्छत्	-11.0161
▁किशोर	-11.0161
▁आरक्षक	-11.0161
▁पुत्राणां	-11.0161
▁०६	-11.0162
▁लुब्ध	-11.0162
▁नारीणां	-11.0163
▁मङ्ग	-11.0163
▁ब्रवीमि	-11.0163
▁भूकम्प	-11.0164
▁संघर्ष	-11.0164
▁पुत्रे	-11.0165
▁सर्वेभ्यः	-11.0166
▁मेधा	-11.0167
▁इत्यस्माद	-11.0167
▁ta	-11.0168
▁भागो	-11.0169
▁विषयेषु	-11.017
खु	-11.017
▁न्यायः	-11.0171
▁हेतुत्व	-11.0173
▁याहि	-11.0175
▁उष	-11.018
▁विच्छेद	-11.0187
च्यन्ते	-11.0188
▁९२	-11.0188
▁ात्मने	-11.0188
▁णु	-11.0193
▁दिग	-11.0197
विद्या	-11.0198
▁भावय	-11.02
▁Se	-11.0201
ावरण	-11.0201
▁भीति	-11.0203
▁मैं	-11.0206
▁दशलक्ष	-11.0207
निर	-11.0207
▁कर्मण्य	-11.0209
▁खि	-11.021
▁तले	-11.021
कर्ण	-11.0212
▁ान्तः	-11.0213
ग्राम	-11.0215
▁प्रभावित	-11.0216
▁जनय	-11.0219
वध	-11.0219
▁पुत्रान्	-11.0221
pe	-11.0224
▁भगवतो	-11.0224
▁थें	-11.0225
▁पादे	-11.0225
▁विकृति	-11.0225
▁विकिसूक्तिः	-11.0226
▁प्रत्यभिज्ञा	-11.0226
▁विभूति	-11.0226
▁अपूर्व	-11.0228
▁नरेन्द्र	-11.023
▁करोतीति	-11.0231
▁रक्षसा	-11.0233
▁सु॒	-11.0233
▁डॉ	-11.0234
भक्ति	-11.0235
▁कारकः	-11.0236
ight	-11.0241
▁ऽनेन	-11.0241
▁मुखा	-11.0242
▁चतुर्थी	-11.0245
▁नौका	-11.0246
है	-11.0249
▁न्ता	-11.0253
▁कृतवती	-11.0256
▁सापेक्ष	-11.026
▁क्लिक	-11.0268
▁प्रदाय	-11.0269
▁किंतु	-11.027
▁एतदर्थ	-11.0273
▁विद्यात्	-11.0273
तमं	-11.0275
▁तत्फल	-11.0276
▁पिबति	-11.0287
युग	-11.0288
शिष	-11.0288
▁प्रसिद्धं	-11.0289
▁वैश्व	-11.029
▁रूपस्य	-11.0291
▁विस्तीर्ण	-11.0291
▁प्रतिषिद्ध	-11.0291
▁हेतवः	-11.0291
▁सङ्ग्राम	-11.0292
▁रामायण	-11.0292
▁विभाजन	-11.0293
▁वहे	-11.0293
▁निवस	-11.0295
ोऽप्य	-11.0297
कालीन	-11.0302
क्षिप्य	-11.0302
▁विरूप	-11.0302
▁Ma	-11.0303
▁हितः	-11.0306
▁सुश्रुत	-11.0307
▁धियो	-11.0309
▁कर्त्र	-11.031
मर्द	-11.0311
▁भूः	-11.0311
▁मस्त	-11.0316
▁वर्णानां	-11.0317
तू	-11.0319
▁िति	-11.0319
▁पट्ट	-11.032
▁कर्मफल	-11.0321
▁बोधि	-11.0321
▁नयति	-11.0323
▁सेट्	-11.0323
▁रात्रिं	-11.0323
▁प्रयुक्तः	-11.0325
▁सकाश	-11.0327
▁विद्यालयस्य	-11.0327
▁जिज्ञासा	-11.0328
▁वृत्तौ	-11.0329
किञ्चन	-11.033
▁मुक्तो	-11.0332
▁रक्षां	-11.0334
▁सूचितम्	-11.0336
लोपः	-11.0337
्टर	-11.034
▁रामो	-11.0341
ांशु	-11.0344
▁वाक्येन	-11.0345
▁ग्ने	-11.0345
▁शिक्षकः	-11.0345
यन्त्र	-11.0348
▁व्यापारः	-11.0351
▁दिनेषु	-11.0352
▁सागरे	-11.0354
▁ग्रा	-11.0354
▁समासाद्य	-11.0354
▁भै	-11.0362
▁ऊर्	-11.0364
▁हीनः	-11.0365
▁असमर्थ	-11.0368
ह्र	-11.0368
▁भवनं	-11.037
pr	-11.0374
ङ्घ	-11.0376
▁वृत्तिर्	-11.0376
क्ष्	-11.0378
▁उद्देश	-11.0378
ैतद	-11.0379
▁कृत्यं	-11.0379
▁मरुतः	-11.038
▁ब्रवी	-11.0381
▁हरी	-11.0383
16	-11.0385
ोक्ति	-11.0385
▁संगीत	-11.0385
▁All	-11.0387
▁ोत्तरं	-11.0388
▁किंचिद्	-11.0388
▁प्रयोगं	-11.039
▁निरन्तरं	-11.0391
वरी	-11.0396
▁ष्ठा	-11.0396
▁प्रतिपत्ति	-11.0399
▁षण	-11.0401
ञ्ञ	-11.0403
▁ज्ञातं	-11.0406
▁ऐक	-11.0408
▁pa	-11.0409
▁वनी	-11.041
▁वक्ति	-11.0411
▁वाव	-11.0412
▁75	-11.0419
▁व्याप	-11.042
←	-11.0421
᳘	-11.0423
▁विस्फोट	-11.0423
▁पशुः	-11.0423
▁नाशः	-11.0424
▁संदेहः	-11.0424
▁ly	-11.0427
▁मिलित्वा	-11.0427
▁स्त्रीलिङ्ग	-11.0428
▁वर्तन	-11.0428
▁प्रयाण	-11.043
▁दक्षिणं	-11.043
▁दर्शनीय	-11.0433
▁इट	-11.0434
सेना	-11.0434
▁कर्त्तव्यं	-11.0436
art	-11.0437
▁उपपद्यते	-11.0438
▁र्ण	-11.0438
▁प्रतिष्ठ	-11.0443
दै	-11.0443
▁समीक्ष्य	-11.0444
ितव्य	-11.0444
▁बाध्यते	-11.0445
▁कारणा	-11.0445
▁समाप्ता	-11.0446
▁कीर्तय	-11.0447
▁चिन्तया	-11.0449
▁क्षणम्	-11.0449
▁भ्याम्	-11.045
▁तेष्व	-11.045
▁मिता	-11.0451
▁सूत्राणि	-11.0451
▁फला	-11.0459
विषये	-11.0459
▁तये	-11.0463
ावपि	-11.0463
▁तावन्	-11.0465
क्रमण	-11.0466
▁ड़	-11.0467
▁माहुः	-11.0467
▁पूर्णे	-11.0468
▁पुरुषाणां	-11.047
▁विभुः	-11.0471
भूयते	-11.0473
टिका	-11.0474
▁ात्मज	-11.0476
▁नीयते	-11.0479
▁ाग्ने	-11.048
▁सभायां	-11.048
▁संग्रामे	-11.0483
▁नियोग	-11.0483
▁वाचः	-11.0485
▁अनन्तर	-11.0488
▁एवायं	-11.0489
▁वस्	-11.0489
▁वक्ष्यमाण	-11.049
▁धीमता	-11.049
▁विश्वामित्र	-11.049
▁निशम्य	-11.049
स्तदा	-11.049
▁कलाः	-11.0491
▁पार्वती	-11.0494
▁ाश्व	-11.0495
प्रथम	-11.0495
▁उपपद	-11.0496
▁विदित्वा	-11.0497
▁पाताल	-11.0498
▁निर्भर	-11.0499
▁सुप	-11.05
मार	-11.0503
दिश्य	-11.0505
▁जन्मना	-11.0506
▁्यमान	-11.0508
▁ऽद्य	-11.0509
▁उक्ते	-11.0511
ge	-11.0512
▁आयोजन	-11.0514
▁65	-11.0519
ादाय	-11.0522
▁अह्न	-11.0522
▁अर्ज	-11.0523
▁रक्षो	-11.0525
ुत्थित	-11.0527
▁केचि	-11.0538
▁पदवी	-11.0541
▁व्याख्यातः	-11.0543
▁देवेन	-11.0546
▁चोक्त	-11.0547
▁खादति	-11.0549
▁मिच्छ	-11.055
पल	-11.0552
▁परलोक	-11.0553
▁असं	-11.0554
▁ब्ल	-11.0556
▁भूगोल	-11.0557
▁कार्यक्रमः	-11.0557
▁प्रयोज्य	-11.0557
▁यमुना	-11.0557
▁जम्मू	-11.0557
▁पर्य्य	-11.0558
▁मातुल	-11.0558
▁महर्षि	-11.056
▁स्पन्द	-11.056
▁मुद्रित	-11.056
ऽभि	-11.0561
▁पुनरुक्त	-11.0562
▁तश्च	-11.0563
▁किन्	-11.0563
▁िभिः	-11.0564
▁लब्धं	-11.0564
▁वास्तविक	-11.0566
▁लिए	-11.0571
▁च्छि	-11.0571
ळी	-11.0572
▁भृगु	-11.0572
▁हैं	-11.0574
▁प्रसन्ना	-11.0575
▁यन्ती	-11.0575
▁प्रणत	-11.0576
ेतद	-11.0576
ण्ट्	-11.0577
नुकूल	-11.0578
वतः	-11.0578
▁एन्	-11.0579
▁रोप	-11.0581
▁शक्	-11.0581
▁वदत	-11.0582
▁सेवां	-11.0583
▁2-	-11.0584
▁करणीयः	-11.0584
▁नू	-11.0586
▁कुट	-11.0587
▁समन्वितम्	-11.0589
▁परेषां	-11.059
▁ज्ञेयम्	-11.0596
कूगु	-11.0598
▁समक्ष	-11.06
▁समयं	-11.06
▁स्वरूपा	-11.0609
▁वीणा	-11.0613
▁संज्ञित	-11.0614
▁त्वान्न	-11.0617
▁ic	-11.0621
▁भवि	-11.0624
▁मन्दिरम्	-11.0624
▁ान्वित	-11.0624
▁नञ्	-11.0624
▁प्रकृष्ट	-11.0625
▁चराचर	-11.0625
▁इकाई	-11.0626
▁di	-11.0628
▁व्यवहारे	-11.0628
तल	-11.063
▁यहां	-11.0631
▁दिवाकर	-11.0631
▁कुर्य्यात्	-11.0631
▁प्रणि	-11.0631
▁मध्यमा	-11.0632
▁समुत्पन्न	-11.0632
▁स्माभि	-11.0636
▁तवया	-11.0636
▁गीयते	-11.0638
▁प्रियम्	-11.0638
▁बध	-11.0639
▁प्रतिक्रिया	-11.0639
▁पुंसः	-11.0641
▁कारणे	-11.0643
▁पु॰	-11.0647
▁घृतं	-11.0648
▁कत्व	-11.0649
▁संगम	-11.0649
▁निर्माता	-11.065
ेष्यते	-11.0653
▁विदितं	-11.0655
▁संबन्धि	-11.0658
▁भूया	-11.0658
▁वृष्ट	-11.0659
▁भोजने	-11.0663
▁रजः	-11.0663
ादेशो	-11.0663
▁वसन्ति	-11.0663
▁लक	-11.0664
▁नियतं	-11.0665
▁आसीद	-11.0668
▁विवाहः	-11.0672
▁दीक्षित	-11.0672
▁भाषिक	-11.0674
▁विशिष्टा	-11.0674
▁कपिल	-11.0677
▁भवत्याः	-11.0679
▁ान्तरेण	-11.0679
प्रभ	-11.0681
▁चतुर्थः	-11.0686
▁एतस्मात	-11.0688
गृहीत	-11.0691
▁भ्राम	-11.0692
▁प्रकोष्ठ	-11.0692
▁विविक्त	-11.0693
▁गुणवत्ता	-11.0693
▁रुच्यते	-11.0694
▁लभन्ते	-11.0696
▁त्वन्	-11.0696
▁विदुषां	-11.0697
▁कथयिष्यामि	-11.0697
▁ददातु	-11.0699
▁्स	-11.0701
▁बलम्	-11.0702
▁गदा	-11.0705
▁वसान	-11.0706
▁पल्लव	-11.0706
▁सर्वार्थ	-11.0706
▁ातीत	-11.0706
▁जायत	-11.0707
▁नान्यथा	-11.0708
क़	-11.0708
▁मृषा	-11.071
▁यामः	-11.0712
▁महतः	-11.0717
▁स्थायि	-11.0717
▁दद्या	-11.0717
▁तन्त्रे	-11.0719
मात्रेण	-11.072
▁राष्ट्रपतिः	-11.072
▁यैव	-11.0721
▁स्वर्	-11.0723
▁गणे	-11.0723
▁कल्प्यते	-11.0726
▁शत्रू	-11.0728
▁हू	-11.0728
▁विद्यया	-11.0731
▁निर्दिश	-11.0732
निष्ठ	-11.0733
दृक्	-11.0733
▁ाज्	-11.0733
▁ोचित	-11.0734
▁स्वपि	-11.0734
५०	-11.0734
▁चलति	-11.0734
▁एकवचनम्	-11.0735
▁भगवद्	-11.0736
▁दर्शयन्	-11.0737
▁जनयति	-11.0737
▁शोष	-11.0739
विद्य	-11.0739
▁गृह्णा	-11.074
▁सामान्येन	-11.0741
▁न्यस्य	-11.0741
▁धनस्य	-11.0742
▁शालिन	-11.0742
बुध	-11.0743
▁निराकृत	-11.0743
▁निबन्धन	-11.0746
चन्द्र	-11.0746
▁वसन	-11.0748
▁धीन	-11.0748
िकया	-11.0749
▁हर्	-11.0751
▁पाठे	-11.0753
▁एतत	-11.0759
▁2012	-11.0762
▁परिपक्व	-11.0764
▁छिद्र	-11.0764
▁स्फुर	-11.0765
▁मुग्ध	-11.0765
▁प्रजापते	-11.0765
▁दुर्लभः	-11.0765
▁चतुर्थं	-11.0765
▁षे	-11.0766
▁धाये	-11.0767
▁पश्च	-11.0767
▁तत्त्वज्ञान	-11.0768
▁प्रभ	-11.0769
▁शक्तय	-11.0769
▁पूरक	-11.0771
▁मोच	-11.0771
▁कल्पे	-11.0773
▁द्वये	-11.0775
▁यदेव	-11.0775
च्छ्र	-11.0775
▁स्वागतम्	-11.0777
▁प्रत्ययार्थ	-11.0777
▁कुष्ठ	-11.0778
▁शान्तिं	-11.0778
▁निरास	-11.0781
▁सर्वेषाम्	-11.0785
▁प्राप्नोत्	-11.0786
▁इनि	-11.0787
▁ऋणं	-11.0788
▁गुरो	-11.0789
▁वर्त्तमान	-11.0789
▁लै	-11.0794
▁पुच्छ	-11.0795
रय	-11.0797
▁हल्	-11.0798
▁यस्माद	-11.0798
ाहार	-11.0799
▁सादर	-11.0803
▁अतिशयेन	-11.0806
▁ज्ञापय	-11.0806
बंध	-11.0808
▁थो	-11.0809
लप	-11.081
▁तन्मय	-11.0817
▁कथनं	-11.0817
▁ोद	-11.0818
▁कृष	-11.0818
▁मुत्तर	-11.0819
▁किर	-11.0819
▁नार्य	-11.082
▁विदा	-11.0821
पयेत्	-11.0822
▁स्थिरा	-11.0824
▁युक्त्या	-11.0825
▁निबोध	-11.0825
▁पश्यामः	-11.0826
▁मग्नि	-11.0828
▁गन्तव्यं	-11.0829
▁Chapter	-11.083
▁मुम्बई	-11.083
▁गरुड	-11.083
▁रहितं	-11.083
translation	-11.083
▁उक्थ	-11.0831
▁निर्वाण	-11.0831
▁तन्त्रं	-11.0832
▁कारागार	-11.0832
▁द्रविण	-11.0833
▁नराः	-11.0834
▁ज्वलन	-11.0836
▁विचक्षण	-11.0837
▁प्रणीत	-11.0837
▁जिज्ञास	-11.0838
ध्याय	-11.0839
▁सुना	-11.0839
▁अभयं	-11.0839
▁पुरुषेण	-11.0841
▁आज्ञा	-11.0841
▁आस्था	-11.0841
च्वन	-11.0842
▁सम्भावना	-11.0843
▁विश्वविद्यालये	-11.0844
▁गया	-11.0844
▁प्रभावेण	-11.0845
समास	-11.0845
▁ोभय	-11.0846
▁आगच्छन्ति	-11.0848
▁परत्व	-11.0848
▁ऽस्माक	-11.0849
▁हेतवे	-11.085
▁ब्रुवन्	-11.0851
▁प्राप्नो	-11.0851
tr	-11.0853
▁धर्ष	-11.0859
थुइ	-11.086
धुना	-11.0861
▁रताः	-11.0862
▁दक्षिणेन	-11.0865
ृच	-11.0866
▁नोक्त	-11.0866
▁सैन्यं	-11.0867
▁रक्षणाय	-11.0868
▁संविदा	-11.0869
स्तर	-11.0869
▁बर्	-11.0869
▁साव	-11.087
याद	-11.087
▁साधुः	-11.0873
▁निबन्ध	-11.0875
वीं	-11.0877
▁कुत्सित	-11.0879
▁सर्वमिदं	-11.0879
▁क्क	-11.0879
▁वर्चस	-11.088
▁वशी	-11.088
प्रयोग	-11.088
पवाद	-11.0883
युज	-11.0887
ाइट	-11.0887
▁दर्शितम्	-11.0891
▁निश्चितं	-11.0893
ापयति	-11.0894
▁कार्यार्थ	-11.0894
▁ोच्यते	-11.0897
▁अन्तरा	-11.0897
▁तादृशी	-11.0898
▁प्रतीत्य	-11.0898
▁......	-11.0899
▁संप्रसारण	-11.0899
▁मेदिनी	-11.0901
▁व्यज्यते	-11.0902
घट	-11.0902
▁परत्र	-11.0903
▁वेश्म	-11.0904
▁भूतः	-11.0905
▁ीयं	-11.0905
▁दुर्गा	-11.0906
▁लिप्यते	-11.0907
▁नवम्बर	-11.0908
▁निन्दा	-11.0908
विवेक	-11.0909
▁ाभिप्राय	-11.0911
▁ाधिकारः	-11.0912
▁गृह्ण	-11.0913
▁दण्डं	-11.0914
▁ागार	-11.0914
▁यहाँ	-11.0916
▁ानुकूल	-11.0917
▁वन्दे	-11.0918
▁गृण	-11.092
▁mo	-11.0921
▁हस्तं	-11.0925
▁आलोक	-11.0925
▁पाट	-11.0927
▁वइ	-11.0929
▁जगन्	-11.0929
▁यूयम्	-11.0929
▁सुराः	-11.0931
▁तरी	-11.0931
गन्ध	-11.0931
▁पितरः	-11.0935
ल्व	-11.094
स्त्रि	-11.094
▁जर्मन	-11.0942
▁उदार	-11.0942
▁सत्कार	-11.0944
▁पृष्टः	-11.0945
▁निर्मितम्	-11.0945
▁विहर	-11.0947
▁उत्तरपद	-11.0948
13	-11.0949
▁तिलक	-11.0951
▁शीलं	-11.0951
▁द्युति	-11.0954
▁कन्य	-11.0956
▁अवधि	-11.0956
to	-11.0956
▁ावधि	-11.0956
व्ह	-11.0957
मयं	-11.0962
▁प्रेक्ष्य	-11.0962
▁दुने	-11.0962
▁अस्ती	-11.0964
▁गमिष्य	-11.0965
▁अपां	-11.0967
▁त्युक्त	-11.0967
▁ष्वि	-11.0968
अह	-11.0969
▁रास	-11.0969
▁अपर्याप्त	-11.0969
▁मुहुः	-11.097
▁यितुम्	-11.0971
तिरिक्त	-11.0972
▁निपात्यते	-11.0974
वोचत्	-11.0974
▁धनानि	-11.0976
▁प्रागेव	-11.0976
▁करिष्यन्ति	-11.0977
▁त्रिरात्र	-11.0978
▁सुगन्ध	-11.098
▁पशून्	-11.098
▁उद्धृत	-11.0983
▁रंग	-11.0984
▁तरण	-11.0985
▁ास्तु	-11.0985
▁तीर्थं	-11.0989
▁प्रारब्ध	-11.0989
युर	-11.099
▁तर्पय	-11.099
▁मुनयः	-11.0993
प्रिय	-11.0998
▁इत्यर्थ	-11.0998
▁ज्ञानिन	-11.0998
▁ज्ञो	-11.0998
द्भिः	-11.1001
▁लस	-11.1002
क्षेत्र	-11.1003
▁मिष्यते	-11.1004
▁स्रव	-11.1005
▁जगाद	-11.1005
▁भागिन	-11.101
सङ्	-11.1011
▁ca	-11.1012
▁पूजितः	-11.1014
मन्त	-11.1014
▁सायक	-11.1016
▁गिरः	-11.1016
▁देव्य	-11.1016
▁वर्त्म	-11.1018
ेष्यति	-11.1021
▁द्वितीयो	-11.1021
▁मूत्र	-11.1021
▁अपरे	-11.1024
ारिक	-11.1025
▁तथो	-11.1027
▁षष्ट	-11.1028
▁स०	-11.1028
▁ेत्याह	-11.103
▁प्रयुज्य	-11.1031
▁र्थः	-11.1031
▁याइ	-11.1031
▁णाम	-11.1033
▁मर्हति	-11.1033
▁ोक्ते	-11.1034
▁भवने	-11.1034
ब्रह्म	-11.1035
▁भ्व	-11.1038
▁वनस्पति	-11.104
▁तपस्विन	-11.1041
▁कृतवान	-11.1041
सम्म	-11.1041
▁अपहरण	-11.1044
▁सर्वासां	-11.1046
ानन	-11.1048
▁निरुद्ध	-11.1049
▁दत्तः	-11.105
▁द्भुत	-11.1051
पाट	-11.1052
▁गरि	-11.1052
▁विरक्त	-11.1055
▁आयुध	-11.1058
▁मोदते	-11.106
▁प्रययौ	-11.1061
्यर्थं	-11.1062
▁एतान्	-11.1062
▁गू	-11.1064
सीत्	-11.1064
याय	-11.1064
याच्वंगु	-11.1066
▁चन्द्रः	-11.1067
▁क्षप	-11.1068
▁कृष्णा	-11.1069
▁हृत्	-11.1071
ूगु	-11.1071
▁हृद्	-11.1072
▁समायात	-11.1072
▁किमिद	-11.1073
▁वृत्त्या	-11.1073
▁तरु	-11.1076
▁वदन्	-11.1076
▁मभ्य	-11.1077
▁विज्ञ	-11.1078
▁क्षत्र	-11.1078
▁पश्यसि	-11.1082
साव	-11.1082
▁विश्वतः	-11.1083
▁आवा	-11.1083
AT	-11.1085
▁भजन	-11.1085
▁स्वाद	-11.1088
▁वव	-11.1089
▁विद्यालयः	-11.109
युद्ध	-11.1092
ताप	-11.1093
▁सप्तति	-11.1093
▁भाषते	-11.1095
▁श्रुत्य	-11.1096
▁वरी	-11.1096
▁क्रियाया	-11.1101
▁कामये	-11.1104
▁विश्	-11.1107
▁गुरव	-11.1107
▁कण्टक	-11.1111
मध्य	-11.1111
▁वन्यजीव	-11.1111
▁भ्रान्ति	-11.1111
▁विश्वसि	-11.1111
▁ago	-11.1111
▁ISO	-11.1112
▁संयुत	-11.1115
▁२०१३	-11.1116
ीन्द्र	-11.1117
▁धृत्वा	-11.1117
▁सोऽहं	-11.1119
▁कार्यकारण	-11.1119
▁po	-11.1119
▁कदाचिदपि	-11.112
▁पूजिता	-11.1121
▁समि	-11.1121
▁युज्य	-11.1122
▁नीतिः	-11.1126
▁गावो	-11.1126
▁भाण्ड	-11.1126
▁पुरुषाः	-11.1128
▁पर्वतः	-11.1129
▁कन्दुक	-11.1129
ूनि	-11.113
▁पतिर्	-11.1132
▁शोभ	-11.1133
▁युज	-11.1133
▁अनुवादः	-11.1134
▁शक्नु	-11.1137
▁ाशय	-11.1137
▁उक्ता	-11.1138
▁काये	-11.1138
▁िष्यन्ति	-11.1138
ाचार्य	-11.1139
▁यस्माद्	-11.1139
ोदक	-11.1142
▁प्रसारित	-11.1143
▁सुषुप्त	-11.1146
▁पटल	-11.1146
▁भरतः	-11.1147
स्ट्र	-11.1148
▁जानत	-11.1148
age	-11.1149
ऽनु	-11.1151
▁क्रमे	-11.1153
▁शत्रो	-11.1154
▁२०७	-11.1155
▁दुर्लभा	-11.1155
क्रम्य	-11.1158
▁हृदया	-11.1159
▁विजयः	-11.1164
▁घटते	-11.1164
ti	-11.1166
▁क्रोधः	-11.1166
▁तोऽ	-11.1172
▁धारिण	-11.1172
क्तु	-11.1172
ग्व	-11.1174
der	-11.1175
▁विस्मर	-11.1176
▁05:	-11.1177
▁शरीरम्	-11.1178
▁तमहं	-11.1179
▁वर्जितः	-11.118
▁जनाना	-11.1181
▁दुःखम्	-11.1181
▁माप्नोति	-11.1181
दर्थ	-11.1182
▁परिसन्धयः	-11.1182
▁श्मशान	-11.1182
▁पाषाण	-11.1182
▁उत्थाय	-11.1182
▁छन्दो	-11.1182
▁परिभाष	-11.1183
▁लौ	-11.1183
माता	-11.1184
▁षी	-11.1184
▁प्रतिषिध्यते	-11.1184
▁सहकारि	-11.1185
द्यापि	-11.1185
०७	-11.1186
▁बुद्धिमान्	-11.1187
.04	-11.1187
रसि	-11.1189
▁ब्रूयात्	-11.1191
वु	-11.1194
▁धाता	-11.1194
केत	-11.1194
▁निवेशन	-11.1195
▁चरेत्	-11.1195
▁Su	-11.1195
▁ाक्ष	-11.1198
▁सम्बध्यते	-11.1198
▁सङ्गम	-11.12
▁तत्तद्	-11.1202
▁पापानि	-11.1204
▁जम्	-11.1206
▁न्हि	-11.1209
▁भीता	-11.1209
▁हरिण	-11.1209
रत्न	-11.121
▁प्रतिरोध	-11.121
▁ास्त्र	-11.1211
▁अमी	-11.1216
▁स्वभावः	-11.1216
▁अभियान	-11.1217
▁झि	-11.1218
▁सम्पत्	-11.122
▁कल्याणं	-11.122
▁वर्यः	-11.1223
▁चलित	-11.1225
vii	-11.1226
▁निन्दित	-11.1226
सम्पुट	-11.1226
▁प्रपद्यते	-11.1226
▁जनस्य	-11.1228
▁उन्नति	-11.1228
▁शाख	-11.1229
▁इहापि	-11.1229
▁3)	-11.1231
▁ज्ञापन	-11.1233
▁धनिक	-11.1235
▁धन्यं	-11.1237
▁मातः	-11.1237
▁ब्रू	-11.1237
▁लेखाः	-11.1238
▁संवित्	-11.124
वर्षाणि	-11.1241
▁घटे	-11.1241
▁सम्ब	-11.1242
▁उपयुज्य	-11.1243
व्याघ्र	-11.1243
▁रागः	-11.1244
्रियते	-11.1247
▁एड	-11.1249
▁अमेरिकाया	-11.125
▁वारण	-11.1252
▁बोधिसत्त्व	-11.1254
▁धर्मार्थ	-11.1255
मुद	-11.1256
▁कहीं	-11.1257
▁विपद	-11.1257
▁प्रकल्पयेत्	-11.1258
▁समवेत	-11.126
ाभ्यन्तरे	-11.1264
▁श्रोतव्य	-11.1264
भावे	-11.1266
विकल्प	-11.1266
▁दुर्जन	-11.1266
▁विचिन्त्य	-11.1269
▁दुःखिता	-11.1272
▁सर्वोत्तम	-11.1272
▁वृत्तिं	-11.1275
▁दर्शितं	-11.1275
▁श्रुतौ	-11.1276
▁उदर	-11.1277
▁मिथः	-11.1278
▁यायेत	-11.1281
▁ेत्यादिना	-11.1282
▁च्वना	-11.1282
▁मध्याह्ने	-11.1283
▁निश्चयेन	-11.1284
▁शासक	-11.1285
ान्वित	-11.1287
▁भिन्ना	-11.1287
▁षष्ठे	-11.129
▁सेवते	-11.1291
ुष्ट	-11.1291
▁रिप	-11.1291
▁he	-11.1291
▁फलप्रद	-11.1293
▁आख्या	-11.1294
▁विरोधे	-11.1295
▁तवम	-11.1297
▁श्येन	-11.1298
-3-	-11.1298
▁वशे	-11.1301
तर्हि	-11.1302
▁प्रहर	-11.1303
▁इतीद	-11.1303
▁शरद	-11.1303
▁अशक्त	-11.1305
ादयो	-11.1307
▁वृक्षा	-11.131
▁ात्मानं	-11.1312
▁निश	-11.1313
▁अवस्थित	-11.1318
▁विधानसभा	-11.132
▁शौ	-11.1321
▁निर्गम	-11.1322
▁विशिष्टं	-11.1325
▁उ॒	-11.1327
▁सन्निहित	-11.1327
▁भूर्	-11.1328
▁पशूनां	-11.1328
▁व्युत्पत्ति	-11.1329
▁2011	-11.1329
▁द्रष्टुम्	-11.1332
▁दीप्ति	-11.1332
▁आदर	-11.1334
01	-11.1334
▁शृण्व	-11.1336
▁चिन्	-11.1336
▁मूर्खः	-11.1338
▁निर्वाह	-11.1343
▁समाहार	-11.1345
▁तदि	-11.1346
▁ऋते	-11.1346
▁रजो	-11.1347
▁संस्थया	-11.1353
पदि	-11.1354
▁अलि	-11.1354
▁कृत्या	-11.1356
▁पुत्रक	-11.1357
▁अङ्गुल	-11.1357
▁वासर	-11.1358
▁क्षमः	-11.136
▁मापन्न	-11.1361
ङ्ख	-11.1361
▁मलय	-11.1363
▁प्राप्नुया	-11.1364
▁ानुरूप	-11.1365
▁एकत्व	-11.1366
▁मोहित	-11.1367
▁कञ्च	-11.1368
ाचार	-11.1369
क्स्	-11.1369
▁et	-11.1374
▁उत्सवः	-11.1374
▁मृद	-11.1374
▁02.	-11.1375
▁मास्तु	-11.1375
▁कर्मणो	-11.1378
ly	-11.138
▁संसदि	-11.1382
▁कुण्डल	-11.1383
अभि	-11.1384
▁ाविति	-11.1384
▁स्वरूपेण	-11.1385
▁वार्य	-11.1386
▁कृतम	-11.1386
▁८२	-11.1386
▁त्त्व	-11.1387
▁ग्रहो	-11.1388
▁ीत	-11.1388
▁शून्ये	-11.1388
▁अध्यक्षः	-11.1389
▁रूपम	-11.1389
▁दीर्घत्व	-11.1393
▁संस्करणः	-11.1394
धिकृत	-11.1394
▁निषेधः	-11.1397
▁An	-11.1399
▁शुभकामना	-11.1399
▁धीमहि	-11.14
▁परोपकार	-11.14
▁कयाः	-11.1401
▁पतितं	-11.1401
▁अभिभाषण	-11.1401
▁कपोत	-11.1403
▁यात्र	-11.1404
▁शरणागत	-11.1405
▁सर्वज्ञः	-11.1405
गृह्य	-11.1405
▁मनीष	-11.1406
प्लुत	-11.1406
▁उत्पद्यते	-11.1407
▁ग्राम्य	-11.1407
▁त्यजेत्	-11.1407
▁रिक्तस्थान	-11.1407
▁अस्थि	-11.1408
▁टङ्क	-11.1409
▁सञ्चार	-11.141
▁go	-11.141
▁दिशं	-11.1411
▁भूतकाल	-11.1412
ाचल	-11.1414
▁काश्मीर	-11.1417
▁येत	-11.1417
▁प्राणाः	-11.1419
▁ठक्	-11.1419
▁ाण	-11.1422
▁फलम	-11.1424
ण्ड्	-11.1425
▁त्रिदिव	-11.1428
▁कामयते	-11.1432
▁भारतीयाः	-11.1432
▁पीडितः	-11.1436
▁तमसा	-11.1436
▁परीक्षित	-11.1437
दण्ड	-11.1437
▁ल्व	-11.1438
▁भरे	-11.1439
▁कक्ष्या	-11.144
▁min	-11.1443
▁प्रपन्न	-11.1446
स्मर	-11.1449
ण्ठ	-11.1449
▁प्रधानमन्त्रिण	-11.145
▁वस्त्रं	-11.1452
कर्षण	-11.1453
बार	-11.1454
▁गुह	-11.1454
बद्ध	-11.1455
▁मन्थ	-11.1455
▁भगवा	-11.1458
▁पाति	-11.1458
▁इत्यभि	-11.1459
▁द्रा	-11.146
▁भावी	-11.1462
ेष्वेव	-11.1463
व्व	-11.1463
▁राव	-11.1463
▁जनताया	-11.1466
▁आस्ते	-11.1468
ारोह	-11.147
ग्ग	-11.147
▁नुष्ठान	-11.1473
▁स्वेच्छया	-11.1473
▁त्रिकोण	-11.1473
▁निम्नलिखित	-11.1473
▁लेप	-11.1473
अनु	-11.1474
▁रौद्र	-11.1475
▁मातृभाषा	-11.1475
▁Vi	-11.1476
▁पुनर्जन्म	-11.1477
▁sent	-11.1478
▁भजे	-11.1478
▁एतस्या	-11.1479
▁दिनांक	-11.1479
यव	-11.148
▁अनुवृत्ति	-11.148
▁स्थापयेत्	-11.148
▁अट	-11.148
▁नीर	-11.1482
▁मध्व	-11.1483
▁त्ति	-11.1485
र्मि	-11.1486
▁पराभव	-11.1489
▁पत्रम्	-11.1489
▁मण्डप	-11.149
▁अरि	-11.1491
िक्षेप	-11.1493
▁तिष्ठन्	-11.1493
▁नेतृत्व	-11.1494
▁स्वाप	-11.1495
▁वीरः	-11.1495
▁ोऽथ	-11.1496
▁लक्षयति	-11.1497
▁लेश	-11.1497
▁विनियोग	-11.1497
▁चेन्	-11.1502
▁सम्भूत	-11.1503
▁1.1	-11.1503
दुर	-11.1506
▁रतिः	-11.1506
▁ानुभव	-11.1507
▁प्रतिपन्न	-11.1508
▁तोऽपि	-11.1511
▁प्रियो	-11.1511
▁यण	-11.1514
ागार	-11.1516
▁समुद्रस्य	-11.1517
▁पद्धतिः	-11.1518
▁स्येति	-11.1521
▁स्वधर्म	-11.1522
▁बली	-11.1523
▁वाऽपि	-11.153
.02	-11.1531
iz	-11.1532
▁श्रवणं	-11.1534
▁गुर	-11.1534
▁पक्षिण	-11.1535
▁ावपि	-11.1536
▁स्त्वया	-11.1537
▁ब्या	-11.1538
▁जुया	-11.1539
va	-11.154
▁प्रतिष्ठान	-11.154
▁14.	-11.1541
खल	-11.1543
लक्ष	-11.1544
▁योगिनः	-11.1544
ेरन्	-11.1544
▁विस्तारः	-11.1547
▁दृष्टिकोण	-11.1547
▁साक्षरता	-11.1547
▁स्मृते	-11.1549
▁जानकी	-11.155
प्रवक्ष्यामि	-11.1551
▁वीर्यं	-11.1551
इपिं	-11.1552
▁स्नातक	-11.1552
▁ेश	-11.1553
▁स्पर्शन	-11.1553
ात्मना	-11.1553
▁छिन्न	-11.1554
▁आत्मन	-11.1555
▁सञ्ज्ञ	-11.1555
▁क्रियन्ते	-11.1558
▁कश्चिन्	-11.1559
▁तज्ज	-11.1559
▁मुह	-11.156
▁विद्याधर	-11.156
▁पदार्थानां	-11.156
▁यक्व	-11.1564
▁शिरस	-11.1564
▁क्षार	-11.1567
▁02:	-11.1568
▁पङ्क	-11.157
▁ुत्	-11.1572
▁अप्राप्त	-11.1574
▁चिन्तयन्	-11.1575
यस	-11.1578
▁प्रसिद्धि	-11.1579
नोति	-11.1585
▁केषा	-11.1585
त्तर	-11.1585
:00	-11.1586
▁तस्मान्न	-11.1587
▁66	-11.1589
ळ्	-11.1589
▁ाद्याः	-11.1589
▁पारि	-11.1592
ास्यामि	-11.1592
▁सक्रिय	-11.1593
▁शास्त्रीय	-11.1596
▁सर्वगत	-11.1597
ाणाम	-11.1597
▁पूर्ति	-11.1597
▁हुं	-11.1603
▁सर्वाधिक	-11.1605
▁नाभ	-11.1606
▁सवर्ण	-11.1607
पीएस	-11.161
▁विभु	-11.1611
लम्भ	-11.1614
▁प्रशम	-11.1614
▁वादिना	-11.1616
▁पुस्तकम्	-11.1619
▁द्यावापृथिवी	-11.1622
▁भूर्भुवः	-11.1622
▁संलग्न	-11.1622
▁इस्लाम	-11.1622
▁स्पेनिश	-11.1622
▁सर्वदेव	-11.1622
▁धातवः	-11.1622
▁व्यत्यय	-11.1622
▁भर्तृ	-11.1623
▁कुर्वाण	-11.1625
▁आन्तरिक	-11.1625
▁अवधारणा	-11.1625
▁शतसहस्र	-11.1625
▁२०१६	-11.1626
▁मूर्	-11.1628
▁ेऽ	-11.163
▁त्राण	-11.1632
▁एहि	-11.1633
ज्झ	-11.1633
▁स्वादु	-11.1635
▁शकुन	-11.1636
▁एससी	-11.1636
▁योग्या	-11.1636
▁यथातथ	-11.1636
▁घोषित	-11.1638
ाध्यक्ष	-11.1638
▁श्चेत्	-11.1641
▁कथमि	-11.1642
नित्यं	-11.1642
▁हते	-11.1643
▁यशस्	-11.1643
▁Rea	-11.1645
▁कियत्	-11.1646
▁निबोधत	-11.1646
▁लज्ज	-11.1647
▁हीयते	-11.1649
▁वोच	-11.1649
▁प्राश	-11.1653
▁सन्नि	-11.1654
▁गतेषु	-11.1654
▁क्रीडायां	-11.1655
▁ड्र	-11.1656
▁ऽस्या	-11.1657
कारिण	-11.1659
▁पुरुषे	-11.166
नर्थ	-11.1662
▁देशिक	-11.1665
▁ष्टु	-11.1665
▁ाग्रे	-11.1665
▁ोत्थ	-11.1665
▁ायुध	-11.1667
▁महात्मना	-11.167
▁es	-11.1673
▁हूं	-11.1674
▁मुखेन	-11.1675
▁लोपे	-11.1675
▁त्रिंश	-11.1679
▁रुष	-11.168
ity	-11.168
▁संवेदन	-11.1686
▁ितो	-11.1686
ासीत	-11.1689
▁जीवन्ति	-11.1689
जायत	-11.169
▁१०१	-11.1694
▁अस्मत्	-11.1694
▁दुर्योधन	-11.1697
▁यथोचित	-11.1697
▁दरॊण	-11.1697
▁धुआं	-11.1697
▁राजकीय	-11.1697
▁इत्यमरः	-11.1697
▁स्थैर्य	-11.1697
▁वितर्क	-11.1697
▁सुव	-11.17
स्मात्	-11.1701
▁आईपीसी	-11.1702
▁सहैव	-11.1703
▁कल्क	-11.1703
▁खःसा	-11.1705
▁विभेद	-11.1705
▁निबद्ध	-11.1705
▁इत्यन्त	-11.1705
▁िणी	-11.1707
▁भूतपूर्व	-11.1707
▁विद्म	-11.1707
▁िन्द्र	-11.1713
▁ष्टि	-11.1713
▁Al	-11.1713
र्वा	-11.1714
प्राप्ति	-11.1715
▁प्रहार	-11.1717
भिगमन	-11.172
▁तज्	-11.172
र्श	-11.1721
▁आत्मनि	-11.1722
▁द्विविधं	-11.1725
हर्ष	-11.1726
▁कवे	-11.1726
▁दर्भ	-11.1727
-2-	-11.1727
▁कच	-11.1728
▁उभयत्र	-11.1729
▁मृते	-11.1729
▁गद्य	-11.1732
▁जनकः	-11.1736
▁वइगु	-11.1738
▁मभवत्	-11.1738
▁यवन	-11.1739
▁पूरय	-11.1739
▁हन्तुं	-11.1741
▁हरुः	-11.1743
▁शक्त्य	-11.1745
▁विदुर	-11.1747
▁दइ	-11.1747
▁गृहेषु	-11.1752
०९	-11.1755
▁आयात	-11.1756
▁बहि	-11.1758
भौ	-11.1759
▁वेला	-11.1762
मिष	-11.1764
ard	-11.1764
▁यच्	-11.1765
प्ता	-11.1766
▁ाध्यक्ष	-11.1766
▁एतै	-11.1769
▁अयन	-11.1771
▁नौकरियां	-11.1773
▁वरानने	-11.1773
वचनं	-11.1773
▁फ्रान्स	-11.1775
▁स्थायी	-11.1775
ाहुर्	-11.1776
वतिष्ठते	-11.1776
▁अब्रवीत्	-11.1776
मुवाच	-11.1776
▁भित्ति	-11.1777
▁अझ	-11.1777
▁आत्मनेपद	-11.1779
▁पार्	-11.178
▁निवेशयेत्	-11.1782
▁पीत्व	-11.1782
▁आवयोः	-11.1783
▁ाश्रित	-11.1783
▁अतस्	-11.1783
गद	-11.1784
प्सु	-11.1784
वशात्	-11.1785
▁नीत्वा	-11.1786
▁हानं	-11.1786
▁विशेषणं	-11.1786
विधान	-11.1788
▁ार्थस्य	-11.1788
ज्वल	-11.1789
▁प्रदेशस्य	-11.179
▁दमन	-11.1793
मर्हति	-11.1793
▁ोदित	-11.1793
▁मातृका	-11.1793
ence	-11.1794
▁क्रोश	-11.1795
▁पूर्वकम्	-11.1797
▁बाल्ये	-11.1803
▁८३	-11.1804
▁परिकीर्तित	-11.1804
▁ाशु	-11.1805
▁परमात्मन	-11.1805
▁अन्यस्य	-11.1807
▁धीत	-11.181
▁िष्यत	-11.1813
तान्त्रिक	-11.1821
▁वनवास	-11.183
▁दृश्यत	-11.183
अस्ति	-11.1831
▁क्रियताम्	-11.1836
▁मिष	-11.1837
▁विचक्षणः	-11.1842
▁नरा	-11.1844
वेक्ष्य	-11.1845
ET	-11.1848
▁युञ्ज	-11.185
▁निगद्यते	-11.185
▁ाधीन	-11.1851
▁व्यथ	-11.1851
▁आह्वान	-11.1851
दूत	-11.1853
हरेत्	-11.1855
कथा	-11.1855
▁एमपी	-11.1856
▁घटा	-11.1856
▁२०१४	-11.1858
▁तीरे	-11.186
▁गुरुवार	-11.186
▁दँ	-11.1861
▁मानम्	-11.1862
▁क्रमण	-11.1864
▁कोल	-11.1867
▁पचति	-11.1868
▁स्थापनं	-11.1868
▁क्षेत्रम्	-11.187
▁कुर्वते	-11.187
▁68	-11.1871
▁संयोजन	-11.1873
▁दास्यामि	-11.1873
▁कवय	-11.1878
▁कमला	-11.1882
▁क्रीडति	-11.1883
▁अपेक्षया	-11.1885
▁आयुष	-11.1886
सेव	-11.189
▁सार्व	-11.1892
▁सामान्यतया	-11.1892
▁उपयोगं	-11.1893
▁इमानि	-11.1894
▁भर्त्त	-11.1895
▁तथे	-11.1897
बुद्ध	-11.19
▁सृष्टिः	-11.1902
▁द्विजोत्तम	-11.1902
▁जीवस्य	-11.1904
▁समनु	-11.1905
गति	-11.1905
▁सप्तम्या	-11.1907
▁पानं	-11.1908
▁नेच्छ	-11.1909
चिन्त्य	-11.1914
▁ऊह	-11.1914
कृत्य	-11.1918
▁२०००	-11.1919
▁सरला	-11.1919
▁महेश	-11.192
मासे	-11.192
▁म्हण	-11.1921
▁सम्भवतः	-11.1923
▁शिक्षित	-11.1926
▁निरर्थक	-11.1926
ack	-11.1927
▁अहः	-11.1927
▁पूरुष	-11.1927
▁years	-11.1927
▁व्यवस्थाप	-11.1928
▁निराकरण	-11.1928
▁मिलियन	-11.1928
▁पाठशाला	-11.1929
▁अभी	-11.1931
▁शिशिर	-11.1931
ite	-11.1932
▁शिष्या	-11.1932
▁बंध	-11.1933
▁संभाषण	-11.1933
ुपैति	-11.1934
▁उदित	-11.1935
▁चतुर्विंशति	-11.1935
▁इत्येते	-11.1937
▁धम्म	-11.1938
▁भ्	-11.1938
▁युवक	-11.1938
नै	-11.1938
▁सिता	-11.1938
▁वृक	-11.194
▁पुरस्कृत्य	-11.1943
▁कोऽयं	-11.1945
संभव	-11.1945
क्षम	-11.1946
▁रञ्ज	-11.1947
▁यिता	-11.1948
▁शशा	-11.195
▁लङ्घ	-11.1951
ारोग्य	-11.1951
▁sh	-11.1953
▁ोक्तम्	-11.1953
▁भारतदेशे	-11.1956
िमं	-11.1957
▁िणः	-11.1958
▁Z	-11.196
▁उपासन	-11.1961
▁परिचित	-11.1962
▁तमवर्षस्य	-11.1962
स्तस्य	-11.1966
▁man	-11.1966
▁रथे	-11.1966
▁प्रातर	-11.1967
▁काकः	-11.1968
▁सुते	-11.197
▁सैनिकाः	-11.1971
▁सभी	-11.1975
▁अप्रति	-11.1975
▁युक्ताः	-11.1978
▁शिश	-11.1978
भूम	-11.1979
▁शक्यो	-11.198
▁स्पष्टम्	-11.1981
▁परिषद्	-11.1981
▁चिकित्सित	-11.1982
▁यत्नः	-11.1984
▁पताका	-11.1988
▁ज्वाला	-11.199
▁वप	-11.1994
▁दर्	-11.1997
▁ग्राह्या	-11.1997
▁तर्ज	-11.1998
तिक्रम्य	-11.1998
▁धनु	-11.1999
▁पत्	-11.2001
▁मॆ	-11.2002
▁श्रोता	-11.2003
▁गुमनाम	-11.2003
▁डोमेन	-11.2004
▁मूर्ध्न	-11.2004
▁बरह्म	-11.2004
▁उत्तिष्ठ	-11.2007
▁नायिका	-11.2007
▁इतेि	-11.2009
▁याज	-11.2011
ार्जन	-11.2013
▁आगतवान्	-11.2014
▁राजभाषा	-11.2015
▁स्त्रियं	-11.2015
▁औरत	-11.2017
▁इच्छसि	-11.2017
▁न्द्रिय	-11.2018
▁श्रेयो	-11.2018
▁पश्येत्	-11.2019
▁परीत	-11.2019
▁त्राय	-11.2019
▁वर्म	-11.2023
▁वसत	-11.2023
▁मन्त्रः	-11.2026
▁ात्मिका	-11.2026
▁जायेत	-11.2027
▁योग्यं	-11.2029
▁समीपस्थ	-11.2029
▁दद्याद्	-11.203
ation	-11.203
जिन	-11.2032
▁अग्नय	-11.2033
▁अध्यात्म	-11.2033
▁तीर्थे	-11.2033
त्याग	-11.2034
▁वस्था	-11.2035
▁विन्यास	-11.2035
▁चानु	-11.2037
▁खात	-11.2037
▁अव्ययम्	-11.2038
▁श्रुता	-11.204
तोऽ	-11.204
▁श्रावण	-11.2042
▁स्त्वा	-11.2044
▁टन	-11.2044
▁मरणे	-11.2046
▁रक्ष्य	-11.2046
▁भृशं	-11.2046
निपात	-11.2049
▁विहिता	-11.205
▁चिकित्स	-11.2053
▁सतः	-11.2055
▁पुराणे	-11.2055
▁विपश्चि	-11.2058
▁प्रशस्तिः	-11.2062
▁ल्हा	-11.2063
▁वयाः	-11.2067
▁सेनाया	-11.2069
▁साधव	-11.2075
▁लोहित	-11.2075
▁सम्बोधन	-11.2078
क्रियया	-11.2078
▁शृगाल	-11.2082
▁असाधारण	-11.2082
▁सरोवर	-11.2082
▁पराशर	-11.2082
ादय	-11.2082
▁कार्तिक	-11.2082
▁कर्त्तरि	-11.2083
▁१९०	-11.2086
▁शैत्य	-11.2086
▁ीयम्	-11.2087
▁अर्द्ध	-11.2089
▁ात्र	-11.2089
▁धेहि	-11.2089
तीर्य	-11.2093
▁खान	-11.2093
▁परिदृश्य	-11.2093
वित्त	-11.2094
पुण्य	-11.2097
ञ्जल	-11.2099
▁शीघ्रमेव	-11.2101
▁निरुक्त	-11.2101
▁अनुसन्धान	-11.2103
▁दैवी	-11.2103
▁माष	-11.2104
▁चिता	-11.2105
ish	-11.2107
▁एवमपि	-11.2108
▁कार्य्यं	-11.2108
▁पीडिता	-11.2109
▁१८८	-11.2112
▁समुद्री	-11.2116
▁वासिन	-11.2117
▁हसित	-11.2118
▁अंत	-11.2119
देवता	-11.2121
▁प्रसक्त	-11.2124
▁सर्वकारेण	-11.2125
▁मानि	-11.2125
▁समव	-11.2127
▁मूक	-11.2127
▁बन्धुः	-11.2128
त्वाद	-11.2128
▁कतमः	-11.2132
▁शमन	-11.2133
▁अका	-11.2133
▁चालक	-11.2133
क्षत	-11.2136
▁हेत्व	-11.2137
▁प्रसज्ये	-11.2137
▁ध्वं	-11.2138
९०	-11.2141
▁मौल	-11.2145
▁पञ्चाश	-11.2147
▁ष्व्	-11.2149
▁परुष	-11.2149
▁तदेक	-11.215
▁रिष्ट	-11.215
▁अथापि	-11.2153
▁त्स	-11.2153
▁त्रिविधं	-11.2154
▁99	-11.2155
शार्दूल	-11.216
▁शर्करा	-11.216
▁कश्यप	-11.216
▁नियामक	-11.2161
▁काञ्चन	-11.2161
▁सितम्बर	-11.2161
▁नोपपद्यते	-11.2162
▁भयावह	-11.2162
निर्देश	-11.2162
▁कुत्रचित्	-11.2163
▁सायंकाले	-11.2163
त्रिंश	-11.2164
▁वाचकः	-11.2164
▁उद्भव	-11.2165
▁श्ल	-11.2166
▁व्याकुल	-11.2166
▁मधुम	-11.2167
▁शाब्द	-11.2167
▁यस	-11.2167
▁वक्तुम्	-11.2169
पद्य	-11.2169
▁लघ	-11.217
▁ग्रहे	-11.2171
▁यदर्थ	-11.2172
▁त्तम	-11.2172
▁स्पर्धाया	-11.2172
▁ईक्ष	-11.2173
ोपाय	-11.2176
▁संशयो	-11.2177
▁भूष	-11.2178
▁अपश्य	-11.2178
▁धत्त	-11.2178
▁निमेष	-11.2179
▁भवत्या	-11.218
▁ग्रहीतु	-11.2181
▁सर्वैर्	-11.2182
▁गृहस्य	-11.2188
ार्पण	-11.2189
ोद्धार	-11.219
-4-	-11.2191
पूज्य	-11.2191
▁ञ्जन	-11.2193
▁हेतुर्	-11.2194
▁वदन्त	-11.2195
▁सवित	-11.2197
▁मासिक	-11.2206
▁पश	-11.2206
▁गावः	-11.2206
यैव	-11.2207
ागतम्	-11.2212
▁समक्षं	-11.2215
▁द्वारि	-11.2217
▁शरण्य	-11.2217
▁ास्त	-11.222
▁प्रतिबन्धक	-11.2222
▁रक्षितु	-11.2224
▁दक्षिणतः	-11.2226
द्वा	-11.2229
प्रकार	-11.2231
▁असति	-11.2231
▁मानसिक	-11.2232
▁परिणत	-11.2234
▁करणीया	-11.2239
ास्त्र	-11.224
ृष	-11.2241
▁हविषा	-11.2241
▁सङ्कट	-11.2242
▁¦	-11.2242
▁भाषितम्	-11.2242
▁III	-11.2243
▁सुदृढ	-11.2244
ance	-11.2244
▁स्तां	-11.2244
▁मुद्दिश्य	-11.2244
▁भूमेः	-11.2245
▁आनीत	-11.2245
नेगु	-11.2247
▁कार्यविधि	-11.2248
▁तदभावे	-11.2249
▁भवेदिति	-11.225
▁प्रविशन्ति	-11.225
द्भ	-11.2251
▁पश्चा	-11.2251
▁पादुक	-11.2253
▁षू	-11.2253
▁वयस्क	-11.2254
▁(*	-11.2256
▁साक्षा	-11.2257
▁स्मृत्य	-11.2258
▁ाच्	-11.2259
▁अन्तरिक्षे	-11.2259
▁ात्मनो	-11.226
▁यन्त्रं	-11.2261
▁इकार	-11.2262
ix	-11.2263
▁िनां	-11.2265
▁क्षी	-11.2265
▁नहिं	-11.2267
▁ात्मनि	-11.2267
▁शुभ्र	-11.227
▁प्रयासः	-11.2271
ुच्य	-11.2272
▁जुष्ट	-11.2272
▁वस्तुनः	-11.2273
▁चर्म	-11.2274
मेतद	-11.2276
▁उत्तमम्	-11.2279
▁गौः	-11.2279
▁भक्तः	-11.2279
▁रात्री	-11.2281
दल	-11.2287
▁विकल्पो	-11.2288
▁व्याख्यास्यामः	-11.2288
ाब्द	-11.2289
▁करॊ	-11.2293
▁त्वान्	-11.2294
▁प्रत्याय	-11.2295
र्चि	-11.2297
▁सुतो	-11.2303
▁त्यन्त	-11.2311
▁ज्योतिर	-11.2313
▁पूर्वोत्तर	-11.2313
▁मनू	-11.2315
च्वंगु	-11.2316
स्मीति	-11.2317
▁15.	-11.2317
▁श्रवणे	-11.2318
▁कतर	-11.232
▁500	-11.2321
▁श्रूयतां	-11.2321
▁ेयं	-11.2321
▁ाकारं	-11.2322
▁TV	-11.2322
▁सर्वेषामेव	-11.2324
संज्ञा	-11.2324
▁नवीनतम	-11.2325
▁प्रत्याहार	-11.2326
▁तन्मात्र	-11.2326
▁रिष	-11.2326
▁रजस	-11.2327
▁सूप	-11.2328
यसे	-11.2329
▁च्छन्द	-11.2329
▁ीयः	-11.2329
▁निरामय	-11.233
▁क्लिष्ट	-11.233
▁ानुवाद	-11.2332
वेदन	-11.2334
▁ामहे	-11.2335
▁भट	-11.2335
▁जया	-11.2336
▁दर्शक	-11.234
▁द्रष्टु	-11.2341
▁योषिता	-11.2344
▁चोप	-11.2346
▁चित्राणि	-11.2346
त्मक	-11.2347
▁आवश्यकः	-11.2349
नन्दन	-11.235
▁निहन्	-11.2353
▁su	-11.2354
▁fa	-11.2354
▁तदिह	-11.2355
▁ज्यो	-11.2357
▁हेतौ	-11.2358
▁अपरः	-11.2359
▁ब्राह्म	-11.2361
दीप	-11.2361
▁कारे	-11.2362
▁दुह	-11.2364
▁अवकाशः	-11.2365
ुत्पत्ति	-11.2366
ँय्	-11.2368
▁क्रियायां	-11.2368
▁दयेक	-11.2371
▁निलय	-11.2372
▁यितु	-11.2375
▁गोप्य	-11.2375
▁येति	-11.2377
मिच्छामि	-11.2377
▁भेदात्	-11.2377
शुद्ध	-11.2377
▁पाठ्य	-11.2377
▁दर्शयितु	-11.238
▁करोत्य	-11.2386
▁समाधानं	-11.2387
▁शित	-11.2389
▁उर	-11.2391
▁न्ह्य	-11.2393
ध्याप	-11.2394
▁बिया	-11.2395
▁08:	-11.2395
ेन्स	-11.2396
▁मूलतः	-11.2397
▁ह्येष	-11.2399
▁कौतूहल	-11.24
▁हितकाम्यया	-11.24
▁अयोध्या	-11.24
▁पीछे	-11.24
▁जानकारी	-11.2401
स्पर्श	-11.2402
▁सुभाष	-11.2402
▁एज	-11.2403
▁विनोद	-11.2403
▁तज्ज्ञान	-11.2405
श्लेष	-11.2406
▁डु	-11.241
▁क्षमस्व	-11.2411
▁जानीत	-11.2413
▁द्धा	-11.2414
▁छ्य	-11.2415
▁खने	-11.2416
▁तस्कर	-11.2417
▁ग्राह्यं	-11.2419
▁नास्त्य	-11.242
▁उदेति	-11.242
▁कायः	-11.2422
▁विवक्षा	-11.2422
▁वचनेन	-11.2423
▁ऽस्तु	-11.2423
▁आचार्यः	-11.2424
▁नारदः	-11.2427
▁प्रमुच्यते	-11.2431
ष्क	-11.2434
▁द्धि	-11.2434
▁निरीक्ष्य	-11.2434
▁रूक्ष	-11.2434
▁अध्यापकः	-11.2436
ृत्य	-11.2436
▁अनादि	-11.2438
▁पराध	-11.2438
▁वेदाः	-11.2442
▁्यम्	-11.2444
▁दृष्टवान्	-11.2445
▁सुखिनः	-11.2446
▁संप्राप्त	-11.2448
▁१०९	-11.2448
▁ष्टा	-11.245
▁रोद	-11.2451
▁यष्टि	-11.2451
▁शत्रून	-11.2452
▁महाराष्ट्र	-11.2453
▁यस्मा	-11.2454
▁१०८	-11.2454
▁योजक	-11.2455
▁धृति	-11.2456
▁तथाऽपि	-11.2457
▁ठ्	-11.2459
▁प्राधान्येन	-11.246
▁अनव	-11.2461
▁स्तुत्य	-11.2461
हङ्कार	-11.2465
▁अभ्या	-11.2465
▁यत्त्व	-11.2468
▁रेल	-11.2468
▁द्वाभ्यां	-11.2469
▁कारकम्	-11.2472
▁वायस	-11.2473
▁पेन	-11.2477
ेष्य	-11.248
lu	-11.2481
▁ानुमान	-11.2481
▁आवाहयामि	-11.2482
▁शिथिल	-11.2482
▁आंग्ल	-11.2482
▁अमेरिक्क	-11.2482
▁द्वै	-11.2482
▁यशस्विन	-11.2482
▁पर्व्वत	-11.2482
▁स्थापयित्वा	-11.2485
▁निवेदयेत्	-11.2485
चेतन	-11.2486
▁समापन	-11.2486
▁मती	-11.2486
ष्टादश	-11.2488
ऽस्ति	-11.2488
▁प्रदर्श्य	-11.249
▁×	-11.249
▁तज्ज्ञ	-11.2491
▁सोपान	-11.2491
▁अमेरिक	-11.2492
▁युष्माक	-11.2494
सम्भाषणम्	-11.2495
▁शंकर	-11.2497
▁पढ़	-11.2497
▁ादीनाम्	-11.25
▁त्य्	-11.2504
ie	-11.2505
▁प्रतिषेधे	-11.2508
▁अनुकूलता	-11.2509
▁प्रारूप	-11.2509
▁ानपि	-11.251
▁नष्टं	-11.2514
▁प्रतिष्ठिता	-11.2514
▁शास्त्राणि	-11.2515
▁कर्मकर	-11.2521
स्तद	-11.2524
▁दाम	-11.2525
ज्यते	-11.2526
ऽत्र	-11.2526
▁स्मरन्	-11.2529
▁ज्ञाति	-11.2532
▁गंध	-11.2535
▁काशी	-11.2539
▁वृद्धिर्	-11.254
▁Ch	-11.2544
▁जुष	-11.2544
▁दर्शनेन	-11.2546
▁ोदर	-11.2547
▁दहन	-11.2549
▁जाग्र	-11.2551
▁ङ्गुल	-11.2553
पालन	-11.2554
▁प्रार्थये	-11.2558
▁मुद्रास्फीति	-11.2564
▁ad	-11.2564
▁You	-11.2564
▁बिचाः	-11.2564
पितॄन्	-11.2564
श्छ	-11.2564
▁प्रवचन	-11.2565
▁जिल्ला	-11.2566
▁अभीष्ट	-11.2566
▁दोषेण	-11.2566
AR	-11.2567
▁इदानी	-11.2567
▁राजस्य	-11.2568
▁रात्र्य	-11.2568
▁क्लि	-11.2574
▁तायां	-11.2576
▁काचिद	-11.2577
▁उपयुज्यते	-11.2581
▁वेतनमान	-11.2581
▁67	-11.2585
▁69	-11.2587
▁प्रस्तर	-11.2588
▁क्षणमात्र	-11.2589
▁योगतः	-11.2589
▁लाइ	-11.259
ित्यत	-11.2596
▁अनुसार	-11.2597
▁यथाकालं	-11.2598
▁घटिका	-11.2601
▁नागर	-11.2605
▁पितरो	-11.2606
▁तटे	-11.2607
विश्य	-11.2607
▁पतये	-11.2608
▁किस	-11.261
▁01:	-11.2611
गीता	-11.2613
शाली	-11.2616
▁अपरा	-11.2622
▁प्रीण	-11.2624
▁द्रष्टव्य	-11.2626
▁ःथ	-11.2627
भुज	-11.2627
▁प्रहरी	-11.263
▁अभिमुख	-11.2634
सूत्र	-11.2637
▁कर्मभिः	-11.2637
ादेः	-11.2638
▁पलायन	-11.264
▁अप्व	-11.264
▁स्थानि	-11.2641
▁माँ	-11.2642
▁चान्ये	-11.2642
▁गृहाणि	-11.2642
▁निल	-11.2642
▁चलच्चित्र	-11.2646
▁शिबिर	-11.2646
▁वैदेशिक	-11.2646
▁मात्मनः	-11.2647
▁राजकुमार	-11.2648
▁द्वयोर्	-11.2649
▁समुद्भव	-11.2649
▁मुक्तम्	-11.2652
▁वृष्ण	-11.2653
▁मेधाव	-11.2654
▁कथितो	-11.2655
▁व्यम्	-11.2655
▁पूजये	-11.2655
▁लिखितम्	-11.2657
▁साधने	-11.266
क्रीडा	-11.2663
भिधीयते	-11.2663
▁पठितु	-11.2663
ोऽर्थ	-11.2665
▁निष्ट	-11.2668
▁सम्बद्धाः	-11.2669
▁विज्ञानस्य	-11.2669
▁पित्र्य	-11.267
▁एतावत्	-11.267
स्तम	-11.2671
▁नीला	-11.2672
ip	-11.2676
▁प्रतीकार	-11.2677
▁रात्राव	-11.268
▁per	-11.2682
▁पुनर्न	-11.2683
▁बृह	-11.2684
▁राक्षसा	-11.2686
▁ग्रन्थाः	-11.2687
_1_	-11.2687
▁सत्यपि	-11.2689
▁अवश्यम्	-11.269
▁अखिल	-11.2691
▁मनुष्याः	-11.2691
▁ष्यते	-11.2692
तःगु	-11.2695
ाज्ञया	-11.2697
▁बद	-11.2698
▁तुल्या	-11.2699
▁सपत्न	-11.27
▁मन्त्रिणा	-11.2702
▁अनिल	-11.2703
▁लाई	-11.2703
ध्न	-11.2703
ङ्गुल	-11.2704
▁सप्ताहं	-11.2705
▁निर्दिश्य	-11.2708
▁योषित	-11.2708
लू	-11.2709
▁धातूनां	-11.2714
▁लोम	-11.2717
▁युद्धम्	-11.2718
▁धनुः	-11.272
▁ll	-11.272
येद	-11.2723
▁उदाहरणः	-11.2725
▁याज्ञवल्क्य	-11.273
▁वैकल्पिक	-11.273
▁प्रादेशिक	-11.273
▁समानाधिकरण	-11.273
▁नमोऽस्तु	-11.273
▁वस्तूनां	-11.273
▁तर्ह्य	-11.273
▁ार्जित	-11.273
▁इतस्ततः	-11.2731
▁तद्वि	-11.2732
▁चार्य	-11.2733
▁दैन्य	-11.2733
▁प्रवर्तन्त	-11.2734
▁सर्वकार्येषु	-11.2736
▁पूजयेद्	-11.2737
▁मुष्टि	-11.2738
▁मये	-11.2738
▁प्रक्रियाया	-11.2739
▁हूँ	-11.2742
▁बध्यते	-11.2743
▁बिउ	-11.2745
क्रियते	-11.2747
▁व्योम्न	-11.2748
▁उपग्रह	-11.2749
▁मेवेति	-11.2751
▁वसो	-11.2751
स्रोत	-11.2754
▁चायं	-11.2758
▁निर्माणम्	-11.2758
▁करौ	-11.2759
▁ओषधी	-11.2761
▁उभ	-11.2762
▁उभयोर	-11.2763
▁गच्छतु	-11.2766
▁स्वरुप	-11.2766
▁रक्षणीय	-11.2766
॑ण	-11.2767
ाख्यान	-11.2768
▁नुसार	-11.2768
▁पत्रकार	-11.2768
▁संपत्ति	-11.2769
संख्य	-11.2769
▁ष्टौ	-11.2769
▁उदाहृतः	-11.2772
ाच्वंगु	-11.2773
▁जानि	-11.2774
ष्प	-11.2774
▁गामिन	-11.2775
▁राजानः	-11.2777
▁कवच	-11.2778
▁वर्तेत	-11.2778
▁चत्वार	-11.2778
संयुक्त	-11.2785
▁लम्बन	-11.2786
▁रित	-11.2788
▁धर्माणां	-11.2791
▁प्रयुक्ता	-11.2792
▁ावसरे	-11.2793
ाची	-11.2796
▁ऽस्मि	-11.2797
▁.....	-11.2797
▁तूष्णीं	-11.2798
▁श्रोत	-11.2798
▁प्रोक्षण	-11.2798
▁१०२	-11.2798
▁पुरस्कृत	-11.2799
▁प्रपद्ये	-11.2799
▁समाप्य	-11.28
▁पूर्वज	-11.2801
▁पटलः	-11.2801
▁सत्यमेव	-11.2804
▁बहुभि	-11.2804
▁ाच्छ	-11.2804
▁समाख्यात	-11.2806
▁प्रचक्षते	-11.2814
▁पुरस्तात्	-11.2814
▁प्रेरक	-11.2814
▁आयोजित	-11.2814
▁तिरिक्त	-11.2814
▁भैरव	-11.2814
▁लप्स्य	-11.2815
▁वामहस्त	-11.2816
▁2008	-11.2816
ोऽसि	-11.2816
▁निष्प	-11.2817
▁अच्छ	-11.2818
▁प्रकोप	-11.282
▁यात्	-11.2821
▁२०१२	-11.2823
▁अनुभूत	-11.2824
▁निर्वृत्त	-11.2825
▁दंश	-11.2825
्येतत्	-11.2826
▁चारिण	-11.2826
▁वन्दन	-11.2826
▁वर्णनम्	-11.2827
▁घृण	-11.2827
▁03:	-11.2828
▁So	-11.283
_3_	-11.283
▁गव्य	-11.2831
▁पुणे	-11.2833
▁लक्षणानि	-11.2833
▁अधिकृत्य	-11.2838
▁प्रतिपत्	-11.2839
▁दीर्घो	-11.284
▁गत्य	-11.2842
▁वस्त्व	-11.2844
▁स्थापितः	-11.2845
▁निमित्तम्	-11.2846
▁वृषा	-11.2847
▁श्रे	-11.2849
▁लृ	-11.2851
▁लयं	-11.2852
▁प्रवेशे	-11.2855
▁युते	-11.2855
▁व्याहृत	-11.2856
▁करेण	-11.2862
▁प्रबोध	-11.2862
▁पराप्त	-11.2863
▁तवैव	-11.2863
▁्यर्थ	-11.2864
06	-11.2864
▁ग्रन्थि	-11.2865
▁आफ्	-11.2867
नृ	-11.2867
▁समाचर	-11.2868
▁सुरभि	-11.287
ृणो	-11.2875
▁यजते	-11.2876
▁आवृत	-11.2877
▁चत्वारो	-11.2881
▁ध्वा	-11.2884
▁म०	-11.2885
▁िकाः	-11.2885
▁विधानम्	-11.2887
▁हृदयेन	-11.2888
▁ाभ्यन्तर	-11.2889
▁सर्वाङ्ग	-11.289
▁नभः	-11.2891
▁बालो	-11.2892
▁नामकः	-11.2893
▁िन्	-11.2893
ख्यात	-11.2894
▁वसे	-11.2895
▁प्रदेशेषु	-11.2896
▁ावृत	-11.2898
▁वैवस्वत	-11.2898
▁संक्षिप्त	-11.2898
▁तुम्हारे	-11.2898
▁2:	-11.2898
▁वक्तु	-11.2899
▁India	-11.2899
▁वणिक्	-11.2899
▁समूहे	-11.2899
▁प्रदीयत	-11.2899
▁प्रचुर	-11.2899
िटी	-11.2899
▁विशाख	-11.2899
▁जञा	-11.2899
▁प्रारंभ	-11.29
▁दर्शिता	-11.2902
▁भुक्त्वा	-11.2903
▁ह्रास	-11.2904
▁सहस्राक्ष	-11.2904
▁त्युच्यते	-11.2905
▁ष्यति	-11.2908
▁मारण	-11.2908
▁हंसः	-11.2909
▁कन्नड	-11.2911
▁गत्या	-11.2913
▁धूम्र	-11.2913
▁Be	-11.2913
▁भावार्थः	-11.2913
▁कोविद	-11.2915
▁ग्लानि	-11.2915
▁2000	-11.2916
▁प्रबुद्ध	-11.2918
▁यथासंभव	-11.2919
▁तथाप्य	-11.292
▁समता	-11.2921
▁धारयति	-11.2923
▁प्रायो	-11.2924
▁ैरिति	-11.2927
▁शिवाय	-11.2927
सत्तम	-11.2929
▁शून्यता	-11.293
▁मृति	-11.2934
▁पर्या	-11.2934
▁भाक्	-11.2935
ड़ी	-11.2935
▁पितु	-11.2936
▁वृण	-11.2936
▁1:	-11.2937
▁वन्तं	-11.2939
▁जाण	-11.2939
▁वन्तौ	-11.294
▁भावस्य	-11.2945
्यन्तर	-11.2948
▁्यु	-11.2952
▁भोक्त	-11.2953
पुट	-11.2954
.01	-11.2956
▁तमवर्ष	-11.2958
▁वर्च	-11.296
▁युगल	-11.2968
▁बर्हि	-11.2969
▁भावानां	-11.297
▁ान्तर्	-11.2971
▁संचार	-11.2971
▁ोपेत	-11.2971
▁गमय	-11.2972
▁प्रतिपाद्य	-11.2972
ord	-11.2974
▁ादेर	-11.2977
पद्येत	-11.2979
▁हार्द	-11.2979
▁कारिका	-11.2982
▁जातवेद	-11.2982
▁प्रतिपद्य	-11.2983
▁XXX	-11.2984
▁प्रसंस्करण	-11.2984
▁आभासी	-11.2984
▁तप्य	-11.2984
▁More	-11.2984
▁युरोप	-11.2985
▁सूच्य	-11.2986
▁2009	-11.2986
▁उरु	-11.2987
▁भोक्ष्य	-11.2987
▁यत्कृत	-11.2988
▁पतिता	-11.2989
▁तदुभय	-11.299
▁सामर्थ्यं	-11.2991
समय	-11.2992
▁राधा	-11.2993
अयं	-11.2993
▁स्थापयति	-11.2993
▁सार्थक	-11.2994
▁समन्तात्	-11.2995
▁वर्द्धन	-11.2998
▁अनुबन्ध	-11.2998
▁धारित	-11.2999
▁तरो	-11.2999
▁प्राणी	-11.3
▁तदव	-11.3001
ाद्या	-11.3003
▁सर्वात्म	-11.3004
▁भूतम्	-11.3004
रुद्ध	-11.3004
▁पस	-11.3005
▁वक्त	-11.3006
▁फट्	-11.3007
धृत	-11.3007
▁धरि	-11.3007
पीतये	-11.3008
▁तुलना	-11.3008
▁वासो	-11.3009
▁अन्तर्गत	-11.301
गच्छति	-11.3011
ुष्	-11.3012
हुत	-11.3012
पुराणे	-11.3015
▁पीडय	-11.3017
▁काव्ये	-11.3017
▁मुखम्	-11.3017
▁यात्रिक	-11.3017
॒ता	-11.3019
द्योत	-11.3022
▁ावरण	-11.3024
▁सेवाया	-11.3025
▁विदेह	-11.3029
▁शीला	-11.3029
▁जलद	-11.303
▁एतदपि	-11.3035
▁वधे	-11.3041
▁मेध	-11.3042
▁व्यथा	-11.3044
झा	-11.3048
▁श्या	-11.3048
▁मन्यमान	-11.3048
▁कारयति	-11.3048
ात्मनि	-11.305
▁प्स	-11.3051
▁चित्रम्	-11.3057
▁तथाऽ	-11.3059
ेऽस्मिन्	-11.3059
▁साहस्र	-11.3062
▁बहव	-11.3063
मुन	-11.3064
▁वर्षेषु	-11.3065
▁हारिण	-11.3066
▁पुचः	-11.3068
▁ऽष्ट	-11.3069
▁ap	-11.307
▁भुञ्जीत	-11.307
▁[...]	-11.307
पाश्चात्य	-11.307
▁पुनरावृत्ति	-11.3071
▁अशक्य	-11.3071
▁प्रजनन	-11.3071
▁व्यवधान	-11.3072
पूवंक	-11.3073
▁2010	-11.3073
▁UP	-11.3073
▁पर्यंत	-11.3075
▁योजयेत्	-11.3075
▁मन्तरेण	-11.3078
▁PM	-11.3078
▁पिपास	-11.3078
.03	-11.3078
▁13.	-11.308
▁लङ्कार	-11.3081
▁ऽध्याय	-11.3081
▁गायक	-11.3083
वाणी	-11.3083
▁ठा	-11.3083
▁मुमुक्षु	-11.3085
▁गर्भवती	-11.3085
▁सिद्धिर्	-11.3086
ect	-11.3087
▁विप्लव	-11.3094
▁सत्त्वा	-11.31
स्थल	-11.31
▁मुत्पाद	-11.31
▁प्रत्ययाः	-11.31
▁लाभाय	-11.3101
श्रव	-11.3102
▁अच्छा	-11.3103
▁भास्कर	-11.3103
स्वरूप	-11.3105
▁नाडी	-11.3106
स्त्विति	-11.3111
▁िण्य	-11.3113
▁चालित	-11.3113
▁पृष	-11.3116
संख्या	-11.3116
▁असिद्ध	-11.3118
फर	-11.3118
▁त्यो	-11.312
▁07:	-11.3121
▁बहुव्रीहिः	-11.3123
▁माल्य	-11.3125
▁सन्तत	-11.3128
▁खोजः	-11.3128
▁भूषित	-11.313
▁स्नाय	-11.3131
▁यमिति	-11.3132
▁मानुषी	-11.3138
▁चितः	-11.3139
▁परैः	-11.314
▁येँ	-11.314
▁मैत्र	-11.3146
स्तत्र	-11.3146
▁अष्टौ	-11.3146
▁उपर	-11.3146
▁ऽश्व	-11.3148
क्रिय	-11.3152
▁वसव	-11.3153
▁जातौ	-11.3153
▁ख्रीष्ट	-11.3157
▁अस्पताल	-11.3157
▁इंडियन	-11.3157
▁भार्गव	-11.3157
▁स्वाधीन	-11.3157
▁दबाव	-11.3157
▁रज्जु	-11.3157
▁दिसम्बर	-11.3157
▁प्रमोद	-11.3157
▁जठर	-11.3157
▁प्रस्थान	-11.3157
▁प्रसंग	-11.3158
▁खनेदु	-11.3158
▁सङ्घटन	-11.3158
▁खिन्न	-11.316
▁फलक	-11.3162
▁मुद्दा	-11.3164
▁जन्मान्तर	-11.3164
▁अनन्तरम्	-11.3165
▁अवरोध	-11.3165
▁संस्कृतभाषाया	-11.3167
▁व्याख्याता	-11.3167
▁नमामि	-11.3167
▁निसर्ग	-11.3168
▁रहिता	-11.3168
▁अपश्यत्	-11.3169
▁त्रिंशत्	-11.3169
▁इतना	-11.3169
▁स्तोक	-11.317
▁स्मर्यते	-11.3171
▁रक्षितः	-11.3175
धत्ते	-11.3179
▁प्रतीक्षते	-11.3181
सर्वं	-11.3182
ेतौ	-11.3182
टाप्	-11.3183
अन	-11.3183
▁ब्य	-11.3183
▁ve	-11.3183
▁तिष्ठन्त	-11.3183
▁लभे	-11.3185
ain	-11.3185
▁जन्त	-11.3188
इदं	-11.3191
▁निपातन	-11.3195
▁ज्ञाय	-11.3197
▁भवन्तं	-11.3199
▁कुत्स	-11.3202
▁कान्ता	-11.3202
▁प्रस्तुति	-11.3208
▁चालन	-11.321
▁पतन्ति	-11.3212
▁सन्तो	-11.3213
▁ज्ञानी	-11.3214
▁विप्राः	-11.3215
▁हनन	-11.3216
पीति	-11.3217
▁र्क	-11.3221
▁स्तरीय	-11.3222
▁लॊके	-11.3223
▁परमेश्वरि	-11.3227
वंगु	-11.3227
भ्रम	-11.3227
देय	-11.3228
ant	-11.3233
▁निश्	-11.3234
▁अवधिः	-11.3235
▁सूचय	-11.3235
▁दृष	-11.3243
▁अनर्थ	-11.3243
▁राजनि	-11.3243
▁वायव्य	-11.3244
▁xxx	-11.3245
▁क्रयविक्रय	-11.3245
▁व्याख्येय	-11.3245
▁अभिवादन	-11.3245
▁चाक्षुष	-11.3245
▁धनधान्य	-11.3245
▁प्रतिगृह्यताम्	-11.3245
▁निर्णीत	-11.3245
▁तल्लक्षण	-11.3245
▁ेते	-11.3246
▁उत्तीर्ण	-11.3246
▁जितेन्द्रिय	-11.3246
▁व्यवहित	-11.3247
▁सिद्ध्य	-11.3249
▁निवेशित	-11.3251
▁पिबेत्	-11.3251
▁कुरुष्व	-11.3251
जनक	-11.3252
ऽब्रवीत्	-11.3253
▁पयसा	-11.3257
▁दर्शितः	-11.326
▁नेपालभाषा	-11.3263
पार	-11.3264
▁त्यागः	-11.3264
▁शुरु	-11.3265
▁Com	-11.3266
स्पृश	-11.3267
▁Co	-11.3267
▁ेष	-11.3267
▁स्तुतिः	-11.3267
पच	-11.3268
▁मान्यता	-11.3269
▁विक्रिया	-11.3269
▁वितत	-11.3269
▁छात्रा	-11.3269
▁ओली	-11.3271
▁निधिः	-11.3272
▁मीमांसा	-11.3274
▁{*	-11.3274
▁निवसति	-11.3276
▁पिहा	-11.3279
विन्द	-11.3281
र्व्व	-11.3283
▁निदेशक	-11.3284
▁द्विपद	-11.3284
▁िष्ट	-11.3284
ागत्य	-11.3287
▁त्रितय	-11.3288
▁व्यो	-11.3291
▁गायति	-11.3292
.05	-11.3293
▁वर्ण्यते	-11.3295
▁नाशय	-11.3295
२५	-11.3296
तॄणां	-11.3296
▁वाची	-11.3296
योनि	-11.3298
▁पुरीष	-11.3299
▁लेखनम्	-11.3301
▁भवित	-11.3301
▁गई	-11.3305
▁पितुर	-11.3307
▁विवादः	-11.3308
▁प्रत्ययान्त	-11.3308
▁सदस्याः	-11.3309
▁वृध	-11.331
▁आख्यात	-11.331
▁रूपी	-11.3312
▁परस्परम	-11.3316
▁क्रमो	-11.3317
▁सिन्ध	-11.3319
प्राप्त	-11.3319
▁आसीत	-11.332
▁परिभाषित	-11.3322
▁ार्द्ध	-11.3323
▁स्वकर्म	-11.3323
▁समीर	-11.3325
▁ोपम	-11.3328
▁एतावत	-11.3328
भृतां	-11.3329
▁धनुर्	-11.333
वोच	-11.3331
▁विद्यार्थि	-11.3333
▁व्याचष्टे	-11.3333
▁गभीर	-11.3333
▁योद्धु	-11.3333
▁ददृशु	-11.3334
▁संक्रमित	-11.3334
▁निवार्य	-11.3338
▁you	-11.334
मानस	-11.334
▁निर्जित	-11.334
▁व्यवहर	-11.3342
▁णिच्	-11.3343
▁सर्वदैव	-11.3345
▁हाय	-11.3345
▁ुत्तम	-11.3348
▁श्रान्त	-11.3348
▁विभ्रम	-11.335
▁आशु	-11.3351
▁दारु	-11.3351
▁प्राधान्यं	-11.3352
▁ठञ्	-11.3353
सागर	-11.3356
स्त्री	-11.3357
▁स्तस्या	-11.3361
परायण	-11.3363
▁सीति	-11.3365
▁लौह	-11.3365
▁नुवाद	-11.3365
यिष्यति	-11.3367
▁ितुम	-11.337
▁बहुना	-11.3372
द्वारा	-11.3373
▁वाक्यस्य	-11.3375
▁अस्मद्	-11.3377
▁प्रथमतः	-11.338
▁प्रदोष	-11.3381
▁अध्व	-11.3383
▁तत्ते	-11.3384
ाऽपि	-11.3389
▁परमेश्वरम्	-11.3391
▁नाल	-11.3393
▁तद्रूप	-11.3398
▁अकर	-11.3399
▁विचर	-11.3399
▁तैव	-11.3401
जीवन	-11.3401
▁भिहित	-11.3402
▁आम्र	-11.3403
▁सर्वकाल	-11.3404
▁मन्दिरे	-11.3404
▁किञ्चि	-11.3404
मोक्ष	-11.3406
▁पीन	-11.3406
▁थथ	-11.3411
▁विज्ञेयः	-11.3412
▁न्वय	-11.3416
▁ाचार	-11.3417
क्षिप	-11.3418
▁युवती	-11.3418
▁चिन्तनं	-11.3419
▁Pro	-11.3422
▁औद्योगिक	-11.3422
▁निःशुल्क	-11.3422
▁प्रश्नाः	-11.3423
▁भॊ	-11.3423
▁सामान	-11.3423
▁भविष्यवाणी	-11.3424
▁कीर्तन	-11.3424
▁धारयन्	-11.3427
▁केनचिद	-11.3428
▁धीरः	-11.3428
▁सूर्योदय	-11.3428
▁पूर्त	-11.3431
▁ब्रूते	-11.3431
▁ग्रास	-11.3431
▁कुर्युः	-11.3431
हल	-11.3431
▁अङ्गी	-11.3432
▁विनायक	-11.3435
▁अभिनय	-11.3435
▁शक्तेः	-11.3436
▁सन्ध्य	-11.3436
▁पृष्टवान्	-11.3437
▁लागत	-11.3437
▁द्विवचन	-11.3437
▁ोक्ति	-11.3438
▁पूज्या	-11.3439
▁नामरूप	-11.344
▁एकवार	-11.344
▁तेजस्व	-11.3443
▁ग्रन्थस्य	-11.3444
▁मतो	-11.3444
▁११०	-11.3447
▁मेतद्	-11.3448
▁पशवः	-11.3449
माप्नोति	-11.3449
▁शिक्षाया	-11.3452
▁द्रष्ट	-11.3452
▁अपरि	-11.3453
भाति	-11.3455
▁महाद्वीप	-11.3456
▁बोधक	-11.3456
त्स्व	-11.3457
▁वृद्धो	-11.3457
रङ्ग	-11.3459
▁धर्माः	-11.3459
▁तदुक्तम्	-11.346
▁निमित्ता	-11.3461
▁कुण	-11.3462
▁निवसन्त	-11.3462
▁सृष्टा	-11.3462
▁वक्तुम	-11.3463
०८	-11.3465
▁तमु	-11.3466
▁1.1.	-11.3467
ादिषु	-11.3468
कास	-11.3468
▁ष्टम	-11.3469
▁निधान	-11.347
▁महेश्वरः	-11.3471
▁कम्पनी	-11.3473
▁मध्याह्न	-11.3477
▁यितव्य	-11.3477
▁पुरतो	-11.3479
▁कथाया	-11.348
▁र्वा	-11.348
▁त्यक्तु	-11.3481
प्रत्य	-11.3481
▁पथे	-11.3483
▁ho	-11.3483
▁नद्यां	-11.3483
▁दीक्ष	-11.3484
▁श्रृ	-11.3484
भावेन	-11.3485
▁सापि	-11.3485
ast	-11.3487
▁वहन्ति	-11.3487
▁अपेक्ष	-11.349
▁गन्तव्यम्	-11.349
▁पितृभ्य	-11.3492
▁राज्यानि	-11.3493
▁ro	-11.3494
▁यौवने	-11.3497
येमाः	-11.3507
▁दुष्टा	-11.3509
मुत्	-11.3511
്	-11.3513
▁सामानाधिकरण्य	-11.3513
▁उद्घाटन	-11.3513
▁वैचित्र्य	-11.3513
▁अपूर्ण	-11.3513
स्तत्	-11.3513
▁तिथौ	-11.3513
▁थज्याः	-11.3513
▁निश्च	-11.3514
▁गृहीतः	-11.3516
▁not	-11.3516
▁य॒	-11.3516
▁सर्वोच्च	-11.3517
▁पुनःपुनः	-11.3517
वाप्नुयात्	-11.3518
ीभूत	-11.3519
▁ब्रूया	-11.3524
▁रेषा	-11.3524
▁किन्त्व	-11.3525
▁वधि	-11.3525
▁AP	-11.3527
ग्नय	-11.3529
चिन्तयत्	-11.353
▁Li	-11.3532
▁ab	-11.3532
▁हसति	-11.3533
▁छन्दस	-11.3533
वदत्	-11.3535
▁प्रसन्नः	-11.3535
▁गृहात्	-11.3536
▁छेँ	-11.3537
▁ीनां	-11.3538
▁अशोक	-11.3539
▁गन्तु	-11.354
▁अधम	-11.3543
याँ	-11.3543
▁पूर्	-11.3548
▁शतेन	-11.3549
▁छत्र	-11.3549
▁कर्तुः	-11.3554
▁अवतार	-11.3556
▁अस्त्य	-11.3558
▁धौ	-11.356
▁सुकृतं	-11.3562
वण	-11.3564
▁औषधि	-11.3564
▁मित्रम्	-11.3565
▁वर्षसहस्राणि	-11.3567
▁शक्यत	-11.3567
▁हैव	-11.3568
▁प्रतिष्ठितम्	-11.3568
दैव	-11.3573
▁ेयुः	-11.3575
▁कस्मा	-11.3576
▁कर्षण	-11.358
▁प्रकृतय	-11.3582
सोम	-11.3584
▁प्रकाशितम्	-11.3588
▁शैव	-11.3593
▁चर्या	-11.3595
▁मीना	-11.3596
▁अये	-11.3596
ment	-11.3597
▁उस	-11.36
त्रिक	-11.3602
▁दुर्भाग्य	-11.3603
चरित	-11.3604
▁भाषापाकः	-11.3604
▁कैकेय	-11.3604
▁छायाचित्र	-11.3604
▁नैवेद्य	-11.3604
▁नुकूल	-11.3604
▁गान्धि	-11.3605
▁श्रुत्या	-11.3606
▁ताडन	-11.3607
▁द्वापर	-11.3608
र्च्य	-11.3608
▁निषाद	-11.3609
ेदानीं	-11.3609
▁भीकर	-11.3613
▁रता	-11.3614
▁वादिनः	-11.3615
▁त्वामेव	-11.3616
▁ऽथवा	-11.3616
▁कार्याणां	-11.3618
▁नित्यशः	-11.3618
▁प्रश्नस्य	-11.3619
▁वृतः	-11.3621
▁असत्	-11.3622
▁मुद्ग	-11.3624
▁निरु	-11.3624
▁सर्वेक्षण	-11.3624
▁कर्त्तुं	-11.3624
▁ीदृश	-11.3624
▁कार्यकरण	-11.3625
ाभावात्	-11.3625
▁तदेतद	-11.3628
ाइन	-11.3628
▁चेदपि	-11.3629
▁धार्य	-11.3633
िन्या	-11.3635
▁कालीन	-11.3636
▁ापेक्ष	-11.3637
▁रूपाय	-11.3639
▁लुक	-11.364
▁िस	-11.364
▁सहस्रेण	-11.364
▁अभिप्रेत	-11.3641
तुमर्हसि	-11.3642
▁आत्मनो	-11.3642
▁तिक्त	-11.3644
▁पन्थान	-11.3644
विस्तर	-11.3647
▁जानीमः	-11.3648
ine	-11.365
▁मजू	-11.3652
▁अकाल	-11.3657
▁बृ	-11.3657
▁हार्य	-11.3657
▁मृष	-11.3657
▁सफलता	-11.3662
▁4)	-11.3663
▁ऊन	-11.3663
▁संघात	-11.3663
▁बहुलं	-11.3665
गुरु	-11.3668
▁ऽर्थे	-11.3668
यितुम्	-11.3672
▁आरोह	-11.3672
▁कर्माण	-11.3673
▁na	-11.3675
▁लट्	-11.3676
▁प्रत्युत	-11.3677
येवं	-11.368
िदानीं	-11.3681
▁सरः	-11.3682
▁रमण	-11.3684
▁नियमित	-11.3684
▁हविष्	-11.3684
ुरु	-11.3689
▁अभिनन्दन	-11.3691
▁सम्पन्नः	-11.3691
▁गुणैर्	-11.3693
▁विषयान्	-11.3694
ुत्त	-11.3695
wiki	-11.3695
▁title	-11.3695
▁रेस्तरां	-11.3695
▁परिष्कृत	-11.3695
▁र्जुन	-11.3695
▁इतरेतर	-11.3695
▁सन्निधौ	-11.3696
▁परिजन	-11.3696
▁प्रयोजयेत्	-11.3696
यमिति	-11.3697
▁तपोधन	-11.3697
▁पुरूष	-11.3699
▁समुदाहृत	-11.37
▁चक्षुर	-11.37
चिर	-11.3701
▁जग्राह	-11.3702
▁संश्रय	-11.3703
▁देया	-11.3704
▁चिन्तयेत्	-11.3705
▁**	-11.3705
▁२०११	-11.3706
६०	-11.3706
▁शै	-11.3709
▁त्वामह	-11.3713
▁क्त्वा	-11.3713
▁देही	-11.3715
▁युष्मा	-11.3716
▁हिंसाया	-11.3716
ादारभ्य	-11.3716
▁धनी	-11.3717
▁ताडय	-11.3718
▁हलि	-11.3718
साहस्र	-11.3719
▁कन्यका	-11.3722
▁भोक्तु	-11.3722
▁व्यक्तित्व	-11.3723
▁दाश	-11.3724
▁बोध्य	-11.3724
▁बुध्यते	-11.3726
क्रोध	-11.3727
▁भेस	-11.3728
▁ज्ञापयति	-11.373
▁त्मान	-11.3731
भावि	-11.3732
▁वर्जितम्	-11.3735
▁आचरण	-11.3737
▁भ्रू	-11.3738
▁यदहं	-11.3741
▁गच्छन्त	-11.3743
▁मालव	-11.3743
▁नवति	-11.3743
▁संख्ये	-11.3746
▁स्मरति	-11.3748
▁हूय	-11.3748
▁मत्तः	-11.3751
▁ध्वस्त	-11.3751
▁इन्दु	-11.3753
ST	-11.3753
▁नीया	-11.3753
▁वेब	-11.3753
50	-11.3753
▁मिन्द्र	-11.3756
विरोध	-11.3758
▁िच्छ	-11.3759
▁११८	-11.376
▁तुर्य	-11.3761
▁रुह	-11.3763
▁ऩ	-11.3763
▁श्रावय	-11.3765
ङ्गिरस	-11.3765
▁जित्	-11.3765
▁आर्ष	-11.3765
ैस्	-11.3767
देक	-11.3767
▁िनो	-11.3768
▁भीतः	-11.3769
▁दहति	-11.3769
▁72	-11.3769
थापि	-11.3769
▁तन्नाम	-11.377
▁परित्यज	-11.377
▁आसम्	-11.3776
▁ऽहम्	-11.3779
▁इरा	-11.378
▁3:	-11.378
▁पंचम	-11.3784
▁आधि	-11.3787
शङ्क्याह	-11.3787
▁गानाः	-11.3787
▁सुनिश्चित	-11.3788
▁सुझाव	-11.3788
▁post	-11.3788
▁आयुर्वेद	-11.3788
▁स्मित	-11.3788
▁कठोर	-11.3788
▁हवामहे	-11.3788
▁संयुतम्	-11.3789
▁िकाया	-11.379
▁यथाकामं	-11.379
▁शत्रवः	-11.379
▁लेभे	-11.3791
▁संक्षेप	-11.3791
▁पोस्ट	-11.3792
▁भद्रे	-11.3793
▁निवर्तन्ते	-11.3794
▁Sanskrit	-11.3794
▁ुपा	-11.3795
निर्माण	-11.3796
▁अर्हसि	-11.3798
▁अनुगमन	-11.3799
▁उपयोगिता	-11.3799
▁५००	-11.3801
▁कुज	-11.3802
▁वर्णाः	-11.3802
▁१०३	-11.3802
▁सन्धान	-11.3802
▁ाहार	-11.3804
▁फेन	-11.3804
▁एकादेश	-11.3804
▁el	-11.3806
▁विनिर्मुक्त	-11.3806
लेखा	-11.3806
▁जपेत्	-11.3807
▁समायुक्त	-11.3808
▁अभेद	-11.381
▁विभाष	-11.381
▁भवन्तीति	-11.3811
ऩ	-11.3812
▁ex	-11.3813
▁ारोप	-11.3813
▁शास्त्रज्ञ	-11.3813
▁सिद्धेः	-11.3814
▁नमस्कार	-11.3817
▁संभाव	-11.3818
▁शुद्धिः	-11.3822
▁भूम्या	-11.3822
▁१५०	-11.3823
▁स्वच्छता	-11.3824
▁बैठक	-11.3828
▁बहुमत	-11.3828
मेतद्	-11.383
▁ैकादश	-11.383
▁क्षेत्राणि	-11.3831
▁उमा	-11.3833
ेदम	-11.3833
▁संकट	-11.3834
▁अपमान	-11.3835
▁चिन	-11.3835
log	-11.3835
▁विन्दति	-11.3836
▁मयैव	-11.3838
▁पठितम्	-11.3838
तिथि	-11.3841
▁सथित	-11.3841
▁मिद	-11.3842
▁प्रतीच	-11.3842
▁मकार	-11.3844
▁साई	-11.3848
▁दृग्	-11.3852
▁रावणः	-11.3854
▁नित्यमेव	-11.3858
▁सम्बन्धमा	-11.386
न्हु	-11.386
ash	-11.3863
▁संयुतः	-11.3865
▁पण्डितः	-11.3866
२९	-11.3868
▁ैकदेश	-11.3869
▁कालात्	-11.3872
▁म्बर	-11.3873
▁सम्पादय	-11.3874
वश्यमेव	-11.3875
ूरु	-11.3875
▁अनू	-11.3876
▁नेपाःया	-11.3877
▁दिष्ट्य	-11.3878
▁वृत्तम्	-11.3878
..)	-11.3879
▁भविष्यत्	-11.388
▁प्रत्यु	-11.3881
▁ऑनलाइन	-11.3881
▁न्हापा	-11.3881
▁नृणाम्	-11.3881
▁राममोहन	-11.3881
▁कांग्रेस	-11.3881
▁पठत	-11.3882
▁श्लेष्म	-11.3882
▁(5)	-11.3883
ोऽस्ति	-11.3883
ास्यसि	-11.3883
▁मूर्च्छ	-11.3885
▁अस्मदीय	-11.3887
▁ाश्चर्य	-11.3888
▁पुरस्ताद	-11.3888
▁ततस्ते	-11.3889
▁दविज	-11.3889
▁जुलै	-11.3891
▁शासनम्	-11.3892
▁माध्यमिक	-11.3893
▁प्व	-11.3893
▁ऋजु	-11.3898
▁सर्वप्रथम	-11.3898
▁ित्व	-11.39
▁प्रत्युप	-11.3904
▁यसि	-11.3904
▁धृ	-11.3904
ांस्	-11.3905
▁te	-11.3907
▁आकर्षण	-11.3909
महि	-11.391
▁येषाम	-11.3912
ादपि	-11.3914
▁एतत्ते	-11.3915
▁ष्टक	-11.3915
▁रय	-11.3915
▁दशकं	-11.3916
▁निपातित	-11.3916
▁संजात	-11.392
▁मात्मानं	-11.3921
पेक्षते	-11.3922
▁कथंचन	-11.3922
▁सहायक	-11.3922
▁ऐन्द्र	-11.3924
▁सम्भवन्ति	-11.3925
रित्य	-11.3925
स्यापि	-11.3926
▁न्यथा	-11.3929
▁आशय	-11.3932
▁शक्तिर	-11.3932
▁पठन्	-11.3932
▁पुत्रौ	-11.3933
▁ion	-11.3933
▁नेतार	-11.3934
यितु	-11.3936
ादेर्	-11.3936
▁उषा	-11.3937
सल	-11.3939
▁यन्त्य	-11.3941
▁वाचन	-11.3943
▁आसीन	-11.3945
▁आहुत	-11.3947
▁चापर	-11.3947
▁काया	-11.3948
▁छ्र	-11.3948
▁छ्व	-11.3949
▁नियमार्थ	-11.3952
▁लभेत	-11.3958
▁गायत्र	-11.3958
▁अस्माकम	-11.3963
▁शास्त	-11.3964
ोऽनु	-11.3966
▁त्तर	-11.3966
▁नाशक	-11.3967
नर्थक	-11.3967
▁समासतः	-11.3969
▁सुगम	-11.3972
▁हेतुर	-11.3973
▁चित्तस्य	-11.3974
_2_	-11.3974
Í	-11.3976
▁वैकुण्ठ	-11.3976
▁मृत्तिका	-11.3976
▁निर्धारित	-11.3976
▁स्तौति	-11.3976
कूट	-11.3976
▁वार्तालाप	-11.3977
▁लंका	-11.3978
▁हेय	-11.3978
▁ताडित	-11.3979
▁आवास	-11.3979
▁गणतन्त्र	-11.3981
▁उपादान	-11.3981
▁जाव	-11.3981
क्षेत्रे	-11.3981
▁तीव	-11.3982
▁संवेदनशीलता	-11.3982
▁समस्ता	-11.3983
IT	-11.3983
▁वञ्च	-11.3984
25	-11.3984
▁एवैन	-11.3985
▁केवलम	-11.3986
▁वामदेव	-11.3987
▁पृच्छामि	-11.3988
षध	-11.3988
▁उपन्यास	-11.3988
▁काशिका	-11.3991
▁यस्ते	-11.3991
ाख्य	-11.3991
▁नृत	-11.3992
▁प्रतिबद्ध	-11.3993
▁युवति	-11.3994
▁मवाप्नोति	-11.3994
▁योगदानं	-11.3996
▁यथासंख्य	-11.3997
▁विबुध	-11.3998
▁महात्मान	-11.3999
▁हारीत	-11.4
▁नेष्ट	-11.4
▁समाध	-11.4003
▁यावता	-11.4007
▁वच्म	-11.4008
▁88	-11.4009
पृच्छ	-11.4009
▁विमुच्यते	-11.4016
▁प्राप्तु	-11.4018
▁ग्या	-11.4018
२७	-11.4019
▁शालि	-11.4021
▁भुक्ति	-11.4024
▁सूद	-11.4028
▁ध्ययन	-11.4028
▁अन्यतर	-11.4029
▁सस्ते	-11.4029
▁ज्येष्ठा	-11.403
भया	-11.403
▁ङित्	-11.4032
▁तत्परः	-11.4034
▁भक्षित	-11.4037
▁अन्धकार	-11.4039
▁संग्रहः	-11.404
▁Me	-11.4041
▁नाक	-11.4045
▁भवत्व	-11.4045
▁उर्व	-11.4047
▁शयान	-11.4048
▁ालये	-11.4048
▁ment	-11.405
▁मित्रो	-11.4051
▁ोक्ता	-11.4052
▁यच्छति	-11.4055
दित्	-11.4057
▁कारणम	-11.4058
▁मधुरा	-11.4062
▁पाथ	-11.4065
▁ज्वलित	-11.4067
▁थुकि	-11.4068
▁प्रकीर्तितः	-11.4071
▁रणनीति	-11.4071
▁ोपादान	-11.4071
▁तर्फ	-11.4071
▁नपुंसकलिङ्ग	-11.4071
▁आशीर्वाद	-11.4072
▁विकसित	-11.4072
▁स्वगृहं	-11.4072
▁भीषण	-11.4073
▁पोत	-11.4073
▁बाहुल्य	-11.4073
▁पत्या	-11.4073
oldi	-11.4074
▁दीपक	-11.4074
▁भोक्तव्य	-11.4078
▁हाल	-11.4078
▁ज्योतिषा	-11.4079
▁त्रिज्या	-11.408
ूणां	-11.408
▁भगवन्तं	-11.4081
▁२०१९	-11.4083
▁तस्थौ	-11.4083
▁प्रतिपाद्यते	-11.4084
▁विपर्यये	-11.4084
▁राज्ञी	-11.4085
▁पशू	-11.4085
▁प्रत्याह	-11.4086
▁राघवः	-11.4086
▁Po	-11.409
▁नन्दन	-11.409
त्पद्यते	-11.4091
▁ितवती	-11.4091
▁77	-11.4094
▁$1	-11.4094
▁साध्यते	-11.4095
▁क्रीडन्ति	-11.4096
▁सभाया	-11.4096
▁Sh	-11.4096
▁पश्व	-11.4099
▁ोक्तिः	-11.4101
▁एकाधिक	-11.4102
▁मतिर्	-11.4104
▁मिच्छन्	-11.4106
ia	-11.4107
▁La	-11.4107
▁शोषण	-11.4109
वाक्	-11.4109
▁बिना	-11.4111
▁मेऽ	-11.4112
▁उद्यत	-11.4112
▁धेय	-11.4113
▁वाङ्	-11.4113
▁प्रापण	-11.4114
▁दीर्घायु	-11.4114
▁श्रिता	-11.4115
▁साभार	-11.4118
▁आत्मानम	-11.4122
▁वर्षान्त	-11.4123
▁यूनि	-11.4124
▁स्माकम	-11.4125
▁ri	-11.4126
भ्यस्त	-11.4131
▁we	-11.4134
▁वासी	-11.4139
▁निरुप	-11.414
▁परीक्ष्य	-11.4141
▁लिप्त	-11.4142
▁हान	-11.4146
▁न्तिक	-11.4146
22	-11.415
nal	-11.4151
▁लोड	-11.4152
भिश्च	-11.4153
▁अनेकाः	-11.4156
▁मित्रस्य	-11.4159
▁णाम्	-11.4161
▁भूतस्य	-11.4162
▁१८९	-11.4162
वंश	-11.4163
▁किलोमीटर	-11.4167
▁गुरुत्वाकर्षण	-11.4167
▁अधिष्ठान	-11.4167
▁काश्यप	-11.4167
▁परित्यक्त	-11.4167
▁ादेश	-11.4168
▁भीमसेन	-11.4168
▁नद्या	-11.4169
▁ख्यान	-11.417
▁एसटी	-11.4172
▁प्रेष्य	-11.4172
▁सौवर्ण	-11.4173
▁लभ्यन्ते	-11.4174
▁िन्या	-11.4174
▁फ्ल	-11.4176
▁संयोजक	-11.4178
▁घ्राण	-11.4179
नुमीयते	-11.4179
▁वल्	-11.418
▁साध्व	-11.4181
▁प्रसन्नो	-11.4181
▁तूर्ण	-11.4181
▁तावदेव	-11.4183
▁डब्ल्यू	-11.4184
▁क्वचिदपि	-11.4184
▁माप्नुयात्	-11.4187
▁धुंका	-11.4188
▁रभ	-11.4188
▁प्रकटित	-11.4188
▁ान्येव	-11.419
▁रेण	-11.4191
▁नागा	-11.4192
न्यत्रापि	-11.4192
▁98	-11.4193
▁रस्ति	-11.4193
▁78	-11.4194
द्यते	-11.4195
▁यतस्	-11.4195
▁पकार	-11.4197
▁कर्तृपद	-11.4197
ांतर	-11.4199
मृत्यु	-11.4199
▁क्रियेत	-11.42
▁प्रक्षेप	-11.4202
▁कार्ड	-11.4202
▁येव	-11.4207
▁यत्तद	-11.4207
▁मिसा	-11.4208
▁पटु	-11.4209
▁परजा	-11.4211
▁मुत्तम	-11.4211
▁अन्तर्राष्ट्र	-11.4212
▁प्रविधि	-11.4212
▁झल	-11.4213
वाहन	-11.422
▁ऋतव	-11.4221
यज	-11.4221
_4_	-11.4222
ग्रस्त	-11.4222
▁परस्मै	-11.4223
▁संवृत्त	-11.4225
▁महोदया	-11.4226
▁सृजति	-11.4227
▁ओषध	-11.4228
ग्निहोत्र	-11.4232
▁प्रतिपक्ष	-11.4234
▁वण	-11.4235
▁दोषाणां	-11.4235
▁विरोधी	-11.4236
▁परमात्मनः	-11.4238
ाख्या	-11.4242
▁मुल	-11.4243
माप	-11.4244
▁स्कन्धे	-11.4244
▁कारये	-11.4245
▁प्रणाल	-11.4248
▁यदेत	-11.4249
ोभय	-11.4249
▁Sa	-11.425
▁निष्क्रम	-11.425
qu	-11.425
▁वसा	-11.4251
▁हठ	-11.4253
मुक्त्वा	-11.4255
ीयेत	-11.4255
वशिष्यते	-11.4257
▁समीपम्	-11.4257
▁लागिं	-11.4263
▁Download	-11.4264
▁उपसङ्ख्यान	-11.4264
▁वैषम्य	-11.4264
▁टक्के	-11.4264
▁उत्थित	-11.4265
▁याचते	-11.4265
लिटि	-11.4265
▁बृहद्	-11.4266
▁उत्तरप्रदेश	-11.4266
ाभिषेक	-11.4266
▁मानचित्र	-11.4266
▁धीमान्	-11.4267
▁परत्य	-11.4267
▁मनोरम	-11.4269
▁कथयामास	-11.4269
▁उपधा	-11.4269
▁Nar	-11.4269
▁आभूषण	-11.427
▁ोच्च	-11.427
▁पूर्वापर	-11.4271
तृष्ण	-11.4272
▁ter	-11.4273
▁मन्त्रिपरिषद्	-11.4273
▁समादाय	-11.4273
▁२००९	-11.4274
▁मिश्रण	-11.4275
▁आकर्ष	-11.4275
▁छाय्	-11.4276
▁तद्ध	-11.4276
▁स्वामिन्	-11.4281
▁तिसृ	-11.4284
▁पिबन्ति	-11.4284
▁सुधार	-11.4284
▁गतानि	-11.4286
▁पीति	-11.4286
रक्त	-11.4286
▁चरन्	-11.4288
▁सुप्रभातम्	-11.4288
▁विरम	-11.4289
▁स्वामित्व	-11.4293
▁्यौ	-11.4293
▁सोम्य	-11.4293
▁64	-11.4293
▁ख्याते	-11.4294
▁पूजयित्व	-11.4294
सामान्य	-11.4295
▁संख्यया	-11.4295
▁मस्तक	-11.4296
▁63	-11.4296
▁दम्पत	-11.4298
▁नृपते	-11.4299
▁धीयते	-11.4302
▁दत्तम्	-11.4303
▁करिता	-11.4303
काण्ड	-11.4305
▁छल	-11.4305
▁दर्शिन	-11.4305
▁द्रष्टव्यः	-11.4306
▁माद्य	-11.4308
▁भोग्य	-11.431
▁कटि	-11.4311
▁उक्ताः	-11.4313
▁स्तप	-11.4315
▁धृतिः	-11.4315
▁भारतदेश	-11.4321
▁ित्युक्त	-11.4321
गिर	-11.4323
▁क्रियत	-11.4323
▁रजनी	-11.4323
▁व्यवस्थाया	-11.4324
▁तावता	-11.4324
त्यु	-11.4325
शास	-11.4326
▁रयि	-11.4327
▁स्मारक	-11.4328
▁सवाल	-11.4329
▁अध्वर	-11.4335
▁प्रतिदिनम्	-11.4335
▁रूप्यकाण	-11.4337
▁महासागर	-11.434
▁भाष्यम्	-11.4341
▁स्त्रीषु	-11.4343
▁अञ्	-11.4346
▁प्रार्थन	-11.4347
मर्हसि	-11.435
▁पत्यु	-11.435
▁सूच	-11.4352
▁शनि	-11.4352
▁शृण्वन्	-11.4355
्रीड	-11.4356
▁गाढ	-11.4356
▁श्वो	-11.4357
▁पौर्णमास	-11.4362
▁विपर्यास	-11.4362
▁ख्रीष्टाब्द	-11.4362
▁प्रतिपादक	-11.4363
▁द्राक्षा	-11.4363
▁मस्तिष्क	-11.4363
▁य॒ज्ञ	-11.4364
▁व्रीह	-11.4365
▁त्राहि	-11.4366
▁दृढ़	-11.4368
▁हीनो	-11.4369
▁सर्जन	-11.4369
▁चन्द्रमस	-11.437
▁गृह्णामि	-11.437
▁दानी	-11.4371
▁im	-11.4372
▁रहः	-11.4377
▁सुखाय	-11.4377
▁संबद्ध	-11.4378
▁तच्छ्रुत्व	-11.4379
▁र्य्य	-11.4379
▁अनिष्ट	-11.4379
▁तद्भाव	-11.438
▁अगर	-11.4383
▁धारणे	-11.4383
▁शर्व	-11.4385
▁विशां	-11.4387
▁ोऽस्य	-11.4387
▁lo	-11.4388
▁देहली	-11.4389
▁सदाचार	-11.4389
▁वनिता	-11.439
▁स्थापिता	-11.4392
▁चोदय	-11.4396
▁हन्तु	-11.4399
▁प्रार्थयते	-11.4399
ave	-11.44
sion	-11.4401
▁ीभूत	-11.4403
▁मिश्रित	-11.4403
▁योषितः	-11.4403
▁शृण	-11.4405
▁भारतदेशस्य	-11.4406
ीथी	-11.4408
▁यजति	-11.4409
सह्य	-11.4409
▁सेनापति	-11.441
▁ानेक	-11.4412
मणि	-11.4412
▁र्चन	-11.4417
▁ne	-11.4422
▁होत्र	-11.4423
▁one	-11.4431
▁रमा	-11.4431
▁मघ	-11.4434
▁श्रीमत	-11.4442
▁तुभ्यम	-11.4446
▁पत्तन	-11.4447
▁येऽ	-11.4449
▁निर्मी	-11.4457
ember	-11.4461
▁स्वनिगः	-11.4461
▁निर्वाचित	-11.4461
▁प्रचण्ड	-11.4461
▁व्यङ्ग्य	-11.4461
▁मफु	-11.4461
▁धिष्ठित	-11.4461
▁विवरणम्	-11.4462
▁ोत्पन्न	-11.4462
▁ग्व	-11.4463
▁गरीयसी	-11.4464
▁२०७६	-11.4464
▁२०७५	-11.4465
▁हस्ताक्षर	-11.4465
▁धयादी	-11.4465
▁ाधिकरणे	-11.4465
▁गोपनीय	-11.4466
▁श्रीराम	-11.4467
▁कूटस्थ	-11.447
िणाम्	-11.4471
▁हर्तु	-11.4471
▁प्रवर्तित	-11.4471
वच्च	-11.4472
▁सिस्टम	-11.4472
▁पृथक्त्व	-11.4472
▁समुदित	-11.4473
▁विधय	-11.4473
▁वस्त्राणि	-11.4474
▁गृहिणी	-11.4475
▁भ्रात	-11.4476
▁संभाव्य	-11.4477
▁चान्द्र	-11.4477
भिमत	-11.4477
▁आगता	-11.4477
▁त्यनेन	-11.4478
▁धर्मशास्त्र	-11.4479
▁गमनम्	-11.4479
ादीनि	-11.4479
▁जीविका	-11.4479
▁प्रेय	-11.448
ित्यनेन	-11.448
▁परिहरति	-11.4482
▁ानभि	-11.4483
▁साधूना	-11.4483
▁पाद्य	-11.4485
दाता	-11.4485
▁अनुचित	-11.4486
लभ	-11.4486
मप्य	-11.4487
▁प्रेरण	-11.4487
▁Lo	-11.4489
▁निष्कल	-11.4491
▁पानीयं	-11.4491
मात्म	-11.4492
▁ायां	-11.4493
दापयेत्	-11.4497
▁वर्जन	-11.4497
प्रकाश	-11.4498
▁मिमां	-11.4501
old	-11.4503
▁योजनीय	-11.4505
▁मीरा	-11.4505
▁सिञ्च	-11.4508
▁वयस	-11.4509
▁शृ	-11.451
▁प्रकृतिर्	-11.451
▁मसि	-11.4511
▁आप्त	-11.4512
▁द्रोह	-11.4514
▁प्राची	-11.4518
▁चिन्तयत	-11.4519
▁वाञ्छति	-11.452
▁गुरुत्व	-11.4521
▁मृद्	-11.4523
▁चोदित	-11.4524
▁तदप्य	-11.4532
▁कर्त्तव्यम्	-11.4532
▁त्यु	-11.4532
▁स्वैर	-11.4535
▁पितरौ	-11.4535
▁वक्ष्याम	-11.4539
▁कृतौ	-11.4542
24	-11.4547
▁शास्ति	-11.4548
▁वीक्षण	-11.4548
बाल	-11.4549
▁बालिकाः	-11.4549
▁परान्	-11.4549
▁अन्तिक	-11.4552
▁नाम्नि	-11.4555
▁भागाः	-11.4557
▁विसर्जन	-11.4557
▁गैर	-11.4557
दिशि	-11.4557
वर्ज	-11.4557
▁भूमे	-11.4561
▁Shlok	-11.4561
▁अन्तर्भवन्ति	-11.4561
▁मैथिल	-11.4561
▁प्रचोदयात्	-11.4561
▁पृथक्पृथक्	-11.4562
▁स्वीक्रियते	-11.4562
▁पूर्णिमा	-11.4563
▁मित्युक्त	-11.4565
▁संरचना	-11.4566
▁ान्विता	-11.4566
▁ka	-11.4566
▁ार्त	-11.4567
▁con	-11.4568
▁भवितुमर्हति	-11.4568
▁संभवतः	-11.4569
वाप्नोति	-11.457
▁हुत्वा	-11.457
▁विरुध्यते	-11.4571
▁ानुगुण	-11.4573
▁व्यक्तिगत	-11.4575
▁युक्तानि	-11.4578
▁वृन्द	-11.4578
▁सूच्यते	-11.4579
▁परिशील	-11.4581
▁62	-11.4582
▁बदर	-11.4583
▁कुछ	-11.4587
▁जानीहि	-11.4592
स्ततः	-11.4593
ऽस्तु	-11.4594
दाह	-11.4598
स्कर	-11.4599
▁परिच्छेदः	-11.4599
▁पीपी	-11.46
सङ्ख्य	-11.46
▁कथनम्	-11.4608
▁पूर्णतया	-11.4608
▁पर्यु	-11.4608
▁विवर्जितः	-11.461
▁समन्त	-11.461
▁व्यध	-11.461
▁थ्	-11.4612
सम्भव	-11.4612
▁जीवन्	-11.4614
▁शप	-11.4615
▁संप्राप्ते	-11.4617
▁स्त्रियाम्	-11.4625
▁लोल	-11.4629
▁रियं	-11.463
▁कस्याः	-11.4631
चीन	-11.4631
▁ास्पद	-11.4632
तूनां	-11.4636
▁ाह्न	-11.4637
▁पदवीं	-11.4638
▁यूथ	-11.4638
▁कातर	-11.4639
यल	-11.464
▁हृदा	-11.4642
▁अङ्गस्य	-11.4644
▁वमन	-11.4644
▁राजस्व	-11.4645
▁नेतर	-11.4647
ित्त्वा	-11.4648
▁परिवर्तनम्	-11.4648
▁10:	-11.4651
वृध	-11.4651
▁दे॒वा	-11.4652
▁युष्म	-11.4652
▁यानाच्वं	-11.4654
▁शारीर	-11.4658
▁प्रकृतौ	-11.4658
बीज	-11.4659
▁ायुः	-11.4661
▁मिदम	-11.4661
▁यूपीएससी	-11.4662
▁सम्मिलित	-11.4662
▁जनगणना	-11.4662
▁मस्तु	-11.4662
▁रोजगार	-11.4662
▁निष्क्रिय	-11.4663
▁स्थगित	-11.4663
शित	-11.4663
▁घूर्ण	-11.4663
▁जगदीश्वर	-11.4664
▁निर्मितमस्ति	-11.4666
ood	-11.4666
▁धात्वर्थ	-11.4667
▁विवेचन	-11.4668
▁HD	-11.4668
▁परिवर्त्त	-11.4669
▁त्यत्र	-11.4671
▁मनन	-11.4672
▁प्रमाणपत्र	-11.4672
▁तान्य	-11.4672
▁बृहत्तम	-11.4673
▁णत्व	-11.4675
▁सम्भवात्	-11.4676
▁अनुग्रह	-11.4678
▁सङ्घात	-11.4679
▁कुर्वन्त	-11.4679
▁07	-11.468
निश्चय	-11.4682
▁दृश्येत	-11.4686
वतार	-11.4687
▁गै	-11.4688
▁विधवा	-11.4689
▁कालान्तरे	-11.4689
▁79	-11.4689
▁यत्तत्	-11.469
▁दिनात्	-11.4691
▁क्रुद्धः	-11.4691
▁भूयिष्ठ	-11.4691
▁समासान्त	-11.4692
▁पच्यते	-11.4693
<	-11.4696
▁विलोक	-11.4697
▁89	-11.4697
ोपदेश	-11.4699
▁चरम	-11.4702
▁ार्चन	-11.4703
▁व्यापि	-11.4706
06:	-11.4706
▁न्योन्य	-11.4708
▁सर्वशक्ति	-11.4708
▁अस्मद	-11.4709
▁दष्ट	-11.471
▁निरय	-11.471
▁भ्यश्च	-11.4714
▁रयिं	-11.4718
▁पपात	-11.472
▁एतादृशी	-11.4726
▁तस्त	-11.4727
▁विद्यालयेषु	-11.4728
▁केलि	-11.4736
▁पता	-11.4738
िङ्ग्	-11.474
▁मार्क	-11.4745
▁(12	-11.4746
▁माःगु	-11.4747
▁शोचति	-11.4747
▁किमी	-11.4748
शाल	-11.4748
बन्धन	-11.4748
▁धारक	-11.4752
▁भिक्ष	-11.4753
▁त्येष	-11.4754
▁जागरित	-11.4758
▁महानगर	-11.476
▁मर्ष	-11.4763
▁ाष्टक	-11.4764
▁अद्वितीय	-11.4764
▁अभयारण्य	-11.4764
▁दुर्भिक्ष	-11.4764
▁पुलिस	-11.4764
▁विकरण	-11.4764
▁सम्भावित	-11.4765
▁कत्र्तव्य	-11.4765
▁हिमाचल	-11.4765
▁संगणक	-11.4765
▁more	-11.4765
▁ादीनाम	-11.4765
▁चारित्र	-11.4766
▁बधाई	-11.4766
▁द्यौः	-11.4767
▁पाया	-11.4768
▁राष्ट्रभाषा	-11.4771
▁गृह्णीयात्	-11.4771
▁किसान	-11.4772
▁मृत्यो	-11.4774
▁मधुना	-11.4774
ोत्सव	-11.4775
▁विविधाः	-11.4775
▁देवानाम्	-11.4777
▁क्रन्द	-11.4779
▁दि॒व	-11.4781
▁उपविष्ट	-11.4785
▁रुचिकर	-11.4786
▁पृष्टो	-11.4787
▁पङ्कज	-11.479
▁चार्	-11.4791
▁सुरु	-11.4791
▁अनुवाक	-11.4791
▁पत्न्य	-11.4796
▁कृत्स्नं	-11.4796
▁पूजनीय	-11.4797
औ	-11.4799
▁मिच्छति	-11.4799
▁मित्रेण	-11.4801
▁भूपते	-11.4802
▁ैरेव	-11.4803
▁इत्यादीन	-11.4806
▁ोत्पाद	-11.4807
▁नियम्य	-11.4807
▁विशेषात्	-11.4809
▁मेरा	-11.4809
▁विशारद	-11.4811
▁q	-11.4816
ारिणी	-11.4817
▁कारस्य	-11.4819
▁मागध	-11.4819
▁वायुर	-11.4822
▁प्रोक्ष	-11.4824
र्चयेत्	-11.4824
▁रुक्म	-11.4824
▁विदां	-11.4824
▁ऋ०	-11.4824
▁रोमा	-11.4824
जस	-11.4826
▁म्̇	-11.4827
▁लिखे	-11.483
▁यत्फल	-11.4832
ऽव	-11.4833
▁मर्त	-11.4833
▁प्राचा	-11.4833
▁इङ्ग	-11.4837
▁au	-11.4839
▁सर्वेश्वर	-11.484
▁{{	-11.4842
▁मृज	-11.4843
पेक्षया	-11.4844
न्तोदात्त	-11.4845
सहित	-11.4849
घाट	-11.485
▁न्यूना	-11.485
▁यदाह	-11.4853
▁एकादश्या	-11.4853
ङ्क्ष	-11.4859
▁दान्त	-11.4861
हनि	-11.4862
▁कल्प्य	-11.4865
▁शक्यम	-11.4866
▁गृहीता	-11.4866
▁दैर्घ्य	-11.4867
▁मुख्यमन्त्री	-11.4867
▁महाकाव्य	-11.4867
▁कौशिक	-11.4867
▁क्विप्	-11.4867
▁उपासते	-11.4867
▁ट्रम्प	-11.4867
▁बभाषे	-11.4867
▁सम्पादित	-11.4868
▁मारीच	-11.4868
▁Category	-11.4868
▁प्रतिभूति	-11.4868
▁युयुध	-11.4868
▁सभ्यता	-11.4868
▁त्रिभिः	-11.4869
▁मिदम्	-11.4869
▁दूरदर्शन	-11.4871
▁all	-11.4871
जानीयात्	-11.4872
ायुष	-11.4873
▁गणाः	-11.4874
▁दिनत्रय	-11.4876
▁बिहार	-11.4876
▁२००६	-11.4879
▁राजमार्ग	-11.488
▁निर्मुक्त	-11.488
▁विश्लेष	-11.4881
▁कारागृह	-11.4881
▁सर्वदेवानां	-11.4882
▁ind	-11.4883
▁निःस्व	-11.4884
▁शची	-11.4885
▁धृष्ट	-11.4886
▁विश्वानि	-11.4886
▁मील	-11.4889
मालोक्य	-11.489
▁रक्षार्थं	-11.4891
▁fi	-11.4891
▁पश्याम	-11.4891
▁पीते	-11.4892
ेत्यर्थः	-11.4893
▁आरभ्यते	-11.4894
भेदेन	-11.4895
▁्यात्	-11.4896
▁घातक	-11.4897
▁प्राप्यन्ते	-11.4899
▁तत्क्षणात्	-11.4904
▁गायत्री	-11.4904
भोज	-11.4906
▁लिखेत्	-11.4907
▁यस्येति	-11.4911
दायक	-11.4912
▁कुर्य्या	-11.4913
सत्त्व	-11.492
▁योरपि	-11.4923
▁तथात्वम्	-11.4925
▁ब्रुव	-11.4925
▁एकाह	-11.4928
▁ur	-11.4931
वर्ती	-11.4932
▁सफला	-11.4933
▁प्रेक्षण	-11.4936
▁अनृत	-11.4937
▁इत्यतो	-11.4938
▁लिस	-11.4938
▁बद्धा	-11.4938
▁मार्च्	-11.4941
▁प्रथमवार	-11.4941
▁व्यावृत्त	-11.4943
▁समागताः	-11.4944
ातीत	-11.4947
▁साधो	-11.4947
▁वल्ल	-11.4947
▁गन्तुम्	-11.4951
ताल	-11.4951
चिन्न	-11.4955
▁चेतसः	-11.4955
▁250	-11.4956
▁कोणे	-11.4957
▁वन्ति	-11.496
▁वत्या	-11.4961
▁61	-11.4966
▁पती	-11.4966
▁Video	-11.4967
▁id	-11.4968
▁ह्यय	-11.4968
▁चतुर्णा	-11.497
▁अपृच्छत्	-11.4971
▁करवाणि	-11.4972
▁अवलोकन	-11.4972
▁यातायात	-11.4972
▁द्वात्रिंश	-11.4972
▁श्रुणु	-11.4972
ङ्गुष्ठ	-11.4973
▁महामते	-11.4973
▁ब्रिटिश	-11.4974
प्रधान	-11.4975
▁गतिविधि	-11.4976
▁गंगा	-11.4978
▁इत्यभिधीयते	-11.4978
▁प्रवर्त्त	-11.4979
सत्य	-11.498
▁चिति	-11.4981
▁त्मना	-11.4983
पुराण	-11.4983
▁सेवेत	-11.4988
▁अनुकूलित	-11.4988
▁नानाविध	-11.4988
▁लिख्यते	-11.4989
▁सहायता	-11.499
▁श्वसन	-11.4991
▁दित्यर्थः	-11.4993
▁विरल	-11.4995
▁मित्यत	-11.4997
▁सर्वकार्य	-11.4997
▁व्यवस्थिता	-11.4997
▁तदभि	-11.5001
▁अभियुक्त	-11.5002
एन	-11.5003
▁कथितम्	-11.5005
▁आर्या	-11.5006
▁अलङ्कार	-11.5006
▁वचनानि	-11.5008
▁प्रकाश्यते	-11.5009
रुत्वा	-11.5016
▁मद्र	-11.5018
▁सामान्यतो	-11.502
▁जर्मनी	-11.5021
▁रेल्	-11.5021
▁तदनन्तरम्	-11.5021
▁दरिद्रता	-11.5022
▁यजेत्	-11.5023
▁द्विप	-11.5024
▁शक्तो	-11.5026
राग	-11.5026
▁कवयः	-11.5028
▁ामृत	-11.5036
▁गतानां	-11.5036
▁१०७	-11.5036
▁ायतन	-11.5041
▁दशाह	-11.5045
▁निरूपय	-11.5047
▁अमेरिकादेश	-11.5048
▁ाभिध	-11.5048
विदो	-11.5049
▁निदेश	-11.5053
चिका	-11.5055
▁पेक्षित	-11.5055
▁खुल	-11.5057
▁गर्न	-11.5061
▁प्रत्यव	-11.5062
▁घर्म	-11.5062
▁प्रसूति	-11.5068
▁ितानि	-11.507
युष	-11.507
यन्तु	-11.5073
वाई	-11.5075
▁सार्वभौम	-11.5077
▁म्हिगः	-11.5077
ever	-11.5077
▁परिस्थिति	-11.5077
▁वह्नौ	-11.5077
▁एकूण	-11.5077
▁त्रिविधा	-11.5077
▁type	-11.5077
▁पिप्पल	-11.5077
▁सपिण्ड	-11.5077
▁जुह्व	-11.5078
तन्द्रितः	-11.5078
▁परम्पराया	-11.5079
▁चिकित्सालय	-11.5079
▁२०७४	-11.5082
▁युवान	-11.5082
▁बुद्धिर	-11.5084
▁मुसल	-11.5086
▁शिरसा	-11.5086
▁सिध्यन्ति	-11.5086
▁निर्वृत	-11.5086
▁ौघ	-11.5087
▁कृणु	-11.5089
▁भीष्ट	-11.509
▁व्ह	-11.5092
▁ाकृति	-11.5094
▁चंद्र	-11.5096
▁लीयते	-11.5098
▁वाह्य	-11.5104
▁समाजवाद	-11.5105
▁सूनु	-11.5107
▁मल्लि	-11.5108
▁सहमति	-11.5111
▁अग्निहोत्र	-11.5111
▁संज्ञायां	-11.5113
त्युक्तम्	-11.5113
▁हविष	-11.5115
▁प्राणिनः	-11.5115
त्प्रेक्षा	-11.5117
▁काश्या	-11.5121
▁अनुभूति	-11.5122
▁भविष्यतः	-11.5124
▁छवि	-11.5125
▁चेतसि	-11.5126
▁कार्य्या	-11.5126
कथं	-11.5128
▁sp	-11.5129
▁मिमी	-11.513
▁जन्मनः	-11.5131
▁थ्यं	-11.5131
▁ऐक्य	-11.5133
▁इषु	-11.5133
▁अरण्ये	-11.5135
▁उत्तराणि	-11.5137
▁तत्कार्य	-11.5138
▁गण्ड	-11.5138
▁ाधिपति	-11.5138
▁पुच	-11.5139
▁सकृद	-11.5139
▁शालायां	-11.5145
▁उपक्रम	-11.5145
▁भवद	-11.5146
▁एद	-11.5147
▁पूजार्थ	-11.5149
▁विरज	-11.5155
▁दधान	-11.5159
वासिनः	-11.516
▁तत्कथं	-11.5161
▁विभक्तौ	-11.5161
▁नभस	-11.5163
▁बध्न	-11.5164
▁5:	-11.5164
▁विश्रम	-11.5165
▁भिधीयते	-11.5166
▁पालि	-11.5167
प्युप	-11.5169
▁िंग	-11.5172
▁िष्ये	-11.5173
वीर्य	-11.5174
▁कीर्त्ति	-11.5175
▁क्रीडन	-11.5178
▁यूपी	-11.518
▁विवर	-11.518
ुदाहृत	-11.5181
▁इस	-11.5181
▁आगतम्	-11.5182
▁िष्यामि	-11.5182
▁pcs	-11.5183
▁विकिमीडिया	-11.5183
▁शोणित	-11.5183
▁घंटे	-11.5183
▁निर्वर्त	-11.5184
▁मशीन	-11.5184
▁पेक्षया	-11.5185
॒ऽ	-11.5186
▁तत्कर्म	-11.5187
▁बलिदान	-11.5187
▁आर्द्र	-11.5187
▁जवान	-11.5187
▁उत्तरत	-11.5188
▁प्रमत्त	-11.5189
▁चतस्र	-11.5189
▁ेतिहास	-11.519
▁आसा	-11.519
▁प्रसृत	-11.5191
▁चिंतय	-11.5192
▁कनीय	-11.5196
▁२००७	-11.5196
▁जिन्व	-11.5196
▁यजन्ते	-11.5198
▁वर्जिता	-11.5198
▁आशयः	-11.5199
▁ालङ्कार	-11.5199
▁View	-11.52
▁विरोधात्	-11.5202
▁अधर	-11.5202
▁ावतार	-11.5206
▁पूर्वत्र	-11.5207
दूर्ध्व	-11.5208
▁By	-11.5208
▁स्त्य	-11.521
▁यद्यहं	-11.5211
▁बृहती	-11.5211
▁इद्	-11.5211
▁भूल	-11.5211
▁पद्धत	-11.5211
▁ादिभ्यः	-11.5212
▁पयस	-11.5214
ill	-11.5216
▁युगपद	-11.5217
▁निसें	-11.5219
▁मस्तके	-11.522
स्का	-11.5221
▁ऋक्ष	-11.5221
▁शांति	-11.5223
पश्चिम	-11.5223
▁रेणु	-11.5224
▁दध्य	-11.5228
▁अगस्त्य	-11.5228
▁राजानो	-11.5228
▁द्देश	-11.523
▁विपत्ति	-11.5231
▁हृता	-11.5232
▁ण्या	-11.5233
▁मोड	-11.5234
अग्ने	-11.5234
▁ध्यायन्	-11.5238
जीवित	-11.524
▁सर्वात्मक	-11.524
▁प्रकाशयति	-11.5241
▁स्विद	-11.5241
▁ाढ्य	-11.5242
▁कटु	-11.5246
▁परिधि	-11.5251
▁कोट्य	-11.5251
▁संयुता	-11.5251
▁वतो	-11.5254
▁उमि	-11.5259
▁सन्दर्भः	-11.5259
▁तस्मि	-11.5259
ावृत	-11.526
▁्यादि	-11.5261
▁अन्वेष	-11.5262
▁कुरू	-11.5262
▁एनम्	-11.5263
उत	-11.5263
▁अप्प	-11.5265
ेथ्	-11.5265
ाचरेत्	-11.5267
▁स्फुटम्	-11.5267
▁फैल	-11.5267
का०	-11.5268
▁दर्द	-11.5269
ट्रो	-11.5274
योजक	-11.5277
वसर	-11.5279
▁वारुण	-11.5285
▁प्रचल	-11.5285
▁bo	-11.5287
▁सन्दिग्ध	-11.5291
▁क्ङिति	-11.5291
▁निर्विघ्न	-11.5291
▁pro	-11.5291
▁ध्यानाकर्षण	-11.5291
▁अभिषेक	-11.5291
▁तडाग	-11.5291
▁सङ्गणक	-11.5291
▁परिकल्पित	-11.5291
▁अर्घ्य	-11.5291
▁मृत्योः	-11.5291
▁भयङ्कर	-11.5292
▁विनिर्मित	-11.5293
▁कङ्क	-11.5293
▁शृङ्गार	-11.5293
▁Jan	-11.5294
▁रेलवे	-11.5294
▁मुद्दे	-11.5294
▁सङ्घर्ष	-11.5294
▁चुम्ब	-11.5294
▁स्मृत्वा	-11.5296
▁प्रयाग	-11.5297
▁कितव	-11.5297
▁आगताः	-11.5297
▁लिट	-11.5297
▁उकार	-11.5297
शेखर	-11.5298
रीर	-11.5298
▁भाय	-11.53
▁धीराः	-11.5303
▁गजा	-11.5303
नुमान	-11.5304
▁इत्युत्तर	-11.5304
▁पानीय	-11.5304
▁व्यवसायी	-11.5304
▁काराः	-11.5305
▁17.	-11.5307
▁शङ्कित	-11.5307
▁धारयेत्	-11.5311
▁कर्मधारय	-11.5312
▁प्रमथ	-11.5314
▁300	-11.5316
मूर्त	-11.5317
▁95	-11.5317
▁मोदि	-11.5321
▁अस्मासु	-11.5323
▁87	-11.5324
▁कारणानि	-11.5326
▁दंड	-11.5326
▁ान्वितः	-11.5327
▁गायन्ति	-11.5329
▁ततस	-11.5331
▁गर्त	-11.5336
▁हर्ता	-11.5339
▁तनो	-11.5339
▁वर्षाकाल	-11.534
▁ापत्ति	-11.5341
▁सर्वभाव	-11.5344
▁त्रिदश	-11.5345
▁कलत्र	-11.5349
▁›	-11.5349
▁स्तान	-11.5353
▁आयोग	-11.5353
▁करते	-11.5353
ुपसर्ग	-11.5356
▁परदेश	-11.536
▁विद्यायाः	-11.5362
▁च्छ्र	-11.5363
▁वि॰	-11.5366
▁श्रौ	-11.5368
▁अयुक्त	-11.5369
▁उदाहरणार्थ	-11.5374
▁On	-11.5375
▁विजयी	-11.5375
▁स्त्रय	-11.5375
▁बोध्यम्	-11.5376
▁वसेत्	-11.5377
▁टु	-11.5378
ज्वर	-11.5382
▁किति	-11.5383
▁पक्षिणः	-11.5383
▁विकारो	-11.5385
▁योजनाया	-11.5386
▁mi	-11.5389
▁बलिन	-11.5392
▁प्रवृत्ता	-11.5393
लङ्कार	-11.5393
▁अरब	-11.5394
▁उन्न	-11.5394
▁परतर	-11.5397
▁ताभिः	-11.5398
▁भिमत	-11.5398
உ	-11.5399
▁प्राजापत्य	-11.5399
▁ऊर्द्ध्व	-11.5399
▁द्विर्वचन	-11.5399
▁यथान्यायं	-11.5399
झ्वलय्	-11.5399
▁जन्मभूमि	-11.5399
▁मुनीश्वर	-11.54
▁प्रसू	-11.54
▁कामरूप	-11.54
▁जङ्गम	-11.54
▁मखिलं	-11.54
▁जुयाच्वंगु	-11.54
▁एकीकृत	-11.54
ाभास	-11.54
▁न्ह्यसः	-11.5401
▁जुइमाः	-11.5401
▁प्राचीना	-11.5402
▁आसमां	-11.5402
▁इन्धन	-11.5402
▁आगमिष्यति	-11.5402
▁द्युलोक	-11.5403
▁निशाचर	-11.5403
▁युष्माभिः	-11.5403
ऽप	-11.5403
▁ष्म	-11.5403
▁चिंता	-11.5405
▁समाविष्ट	-11.5409
▁पिङ्गल	-11.541
▁नास्त्येव	-11.5411
▁२००४	-11.5412
▁सि०	-11.5413
▁भूपाल	-11.5413
▁रवेः	-11.5414
▁/1	-11.5415
▁Or	-11.5416
▁सोमवार	-11.5418
▁अंग	-11.5418
▁सभापति	-11.5418
▁उच्चार	-11.5418
▁लेन	-11.5419
▁ऽधि	-11.5419
▁76	-11.542
धायि	-11.5421
▁संस्तुत	-11.5421
▁उपधाया	-11.5422
▁चिरम्	-11.5422
▁गृह्णन्ति	-11.5423
▁निर्देशकः	-11.5423
ट्स	-11.5426
निकृष्ट	-11.5426
▁नान्यत्	-11.543
▁विज्ञेयो	-11.5431
▁सागरस्य	-11.5431
▁यतु	-11.5435
ऋत	-11.5436
▁गुणित	-11.5438
िंग	-11.544
र्भव	-11.544
▁इलय	-11.5441
व्यापार	-11.5442
कर्तृ	-11.5442
▁150	-11.5442
▁निगू	-11.5445
▁नृत्यति	-11.5446
co	-11.5448
ऽऽह	-11.5449
▁प्राप्स्यस	-11.5449
▁प्रमाणतः	-11.5451
कुर	-11.5454
▁तदर्ध	-11.5454
▁शीघ्रम्	-11.5455
▁कर्तव्यम	-11.5458
▁िकी	-11.5459
▁स्तीति	-11.5462
▁देवराज	-11.5462
▁वारय	-11.5463
ानपि	-11.5464
und	-11.5464
▁सम्प	-11.5467
▁वनाः	-11.5467
तीह	-11.5467
▁दातार	-11.5468
कृति	-11.5468
जू	-11.5473
▁स्वकार्य	-11.5473
▁सुप्	-11.5473
▁त्र्	-11.5475
▁अवद	-11.548
one	-11.5485
▁रक्षणम्	-11.5485
▁पाठक	-11.5486
त्युक्त्वा	-11.5487
संपूज्य	-11.5488
▁कस्मि	-11.5489
▁पीडन	-11.5491
▁परशु	-11.5491
भृ	-11.5498
▁निद्र	-11.5501
तीर्थ	-11.5501
▁इत्येषा	-11.5503
▁कत्वात्	-11.5503
▁आसन्न	-11.5504
▁राजते	-11.5506
▁ानुगत	-11.5506
▁इमि	-11.5507
▁प्रतिहत	-11.5509
▁ओबीसी	-11.5509
▁पुरुषर्षभ	-11.5509
▁मैथुन	-11.5509
▁पीयूष	-11.5509
▁संसृष्ट	-11.5509
▁1.2.	-11.5509
▁माणवक	-11.551
▁आराधन	-11.5511
▁ह्येव	-11.5511
▁धर्माधर्म	-11.5511
▁सकर्मक	-11.5512
र्भवेत्	-11.5512
▁कटाक्ष	-11.5512
▁शराब	-11.5512
▁ॊप	-11.5512
किनारे	-11.5513
▁यथाक्रमं	-11.5513
▁धाल	-11.5513
▁उपलब्धि	-11.5514
▁IV	-11.5514
▁यययययय	-11.5515
▁कृतयुग	-11.5515
▁विलय	-11.5517
▁२०१७	-11.5517
▁गोपा	-11.552
▁पक्षिणां	-11.5521
▁दिस	-11.5521
▁कोरिया	-11.5521
संहरति	-11.5523
▁न्यत्र	-11.5525
▁चेता	-11.5525
▁भृग	-11.5528
▁छाद	-11.5529
वसाने	-11.5529
▁ैश्	-11.5529
▁मुनी	-11.5531
▁भूतल	-11.5531
▁प्रख्यात	-11.5533
▁कक्षायां	-11.5533
ear	-11.5533
▁इत्यत्रापि	-11.5535
▁कुतस्	-11.5537
▁कामानां	-11.5538
ुभय	-11.5538
दधाति	-11.5538
▁अनागत	-11.5538
▁ज्ञातवान्	-11.5539
▁मुखी	-11.5539
दँ	-11.554
▁तयैव	-11.5542
ell	-11.5544
▁विशेषज्ञ	-11.5547
▁तद्विषय	-11.5548
▁सीतया	-11.5551
▁एवास्य	-11.5553
च्छब्द	-11.5553
▁स्थापयाम	-11.5553
द्युम्न	-11.5554
▁हरय	-11.5554
ेतानि	-11.5556
igi	-11.5557
▁प्रवर्तय	-11.556
▁निपत	-11.5564
▁१०५	-11.5565
▁कित्	-11.5565
▁महतो	-11.5566
▁सीताया	-11.5567
ाञ्जलि	-11.5568
▁धुना	-11.5571
▁हर्य	-11.5571
▁गुरुर्	-11.5573
▁पीना	-11.5575
ाभ्याम्	-11.5575
▁अनयोः	-11.5576
▁ह्यस्व	-11.5576
▁धरती	-11.5578
▁पश्यतु	-11.5581
▁अन्यच्च	-11.5582
▁सर्वधर्म	-11.5582
इव	-11.5582
▁शठ	-11.5584
समीप	-11.5586
▁शरीरेण	-11.5587
▁कृषी	-11.5589
▁देवेशि	-11.5591
▁त्वेक	-11.5591
▁विलस	-11.5593
▁परिहर	-11.5593
▁मार्ज	-11.5594
▁संतत	-11.5597
▁As	-11.5598
ृद्ध	-11.5598
▁प्रत्यागत	-11.5599
▁श्लाघ्य	-11.5602
▁इन्द्राय	-11.5602
▁द्विविधा	-11.5605
ास्पद	-11.5608
▁नग्न	-11.5609
▁व्यावर्त	-11.561
▁ह्म	-11.5612
▁शान	-11.5612
▁मन्म	-11.5612
▁सर्वकर्म	-11.5613
ाविति	-11.5617
▁कर्त्तु	-11.5618
▁बलात्कार	-11.5618
▁अनौपचारिक	-11.562
▁नैमित्तिक	-11.562
▁प्रवेष्टु	-11.562
▁मातापितरौ	-11.562
▁प्रातःसवन	-11.562
▁संपर्क	-11.562
▁द्रष्टव्या	-11.5621
▁प्राङ्मुख	-11.5621
SSC	-11.5621
▁निवृत्तौ	-11.5621
▁आधिक्य	-11.5621
▁स्पृहा	-11.5622
▁सुरूप	-11.5622
▁मन्वन्तर	-11.5623
▁सन्त्य	-11.5625
▁सर्वोत्कृष्ट	-11.5625
▁युवराज	-11.5625
▁नृत्त	-11.5625
▁देवासुर	-11.5626
▁रमेश	-11.5626
▁घण्ट	-11.5626
▁ोपाधि	-11.5628
▁प्रेम्ण	-11.5629
▁ाधिपत्य	-11.563
▁so	-11.5631
▁नुरोध	-11.5631
▁कुलीन	-11.5631
▁सन्तति	-11.5632
-->	-11.5634
▁उद्धरण	-11.5638
▁स्मरामि	-11.5639
▁ाधिकरणम्	-11.5639
▁पूर्वार्ध	-11.564
▁्ट	-11.564
▁माचरेत्	-11.564
▁ऎव	-11.5641
▁नियमाः	-11.5641
▁cm	-11.5641
▁भगवन	-11.5646
▁वासिनः	-11.5646
▁शस्त्राणि	-11.5646
▁योगदान	-11.5646
वर्य	-11.5648
▁निर्द्	-11.5648
▁वर्द्धते	-11.5648
▁ऋकार	-11.565
▁ाखिल	-11.5652
▁मित्यत्र	-11.5653
▁वस्तुनो	-11.5656
▁भूतानाम	-11.5657
▁मानिन	-11.5658
▁पर्वताः	-11.5661
▁ऽनय	-11.5661
▁गर्ग	-11.5662
▁ध्याये	-11.5662
▁भाषायाम्	-11.5664
▁विदार	-11.5665
▁तस्मिंस्	-11.567
▁ब्रिट	-11.567
भिन्न	-11.5671
▁स्मृतौ	-11.5671
फ्र	-11.5674
▁मन्यथा	-11.5676
▁मण्ड	-11.5679
▁एकस्या	-11.5683
ैस्तु	-11.5684
▁नुमान	-11.5689
▁मध्यतः	-11.569
▁भक्तिर्	-11.5692
▁त्वरा	-11.5693
▁४००	-11.5693
▁भवाम	-11.5697
श्र्व	-11.5697
▁अस्तित्व	-11.5702
वाप्	-11.5711
▁िणा	-11.5715
▁मारित	-11.5721
चरन्ति	-11.5723
बभूव	-11.5726
[...]
