{
  "version": "1.0",
  "truncation": null,
  "padding": null,
  "added_tokens": [
    {
      "id": 0,
      "content": "[UNK]",
      "single_word": false,
      "lstrip": false,
      "rstrip": false,
      "normalized": false,
      "special": true
    },
    {
      "id": 1,
      "content": "[CLS]",
      "single_word": false,
      "lstrip": false,
      "rstrip": false,
      "normalized": false,
      "special": true
    },
    {
      "id": 2,
      "content": "[SEP]",
      "single_word": false,
      "lstrip": false,
      "rstrip": false,
      "normalized": false,
      "special": true
    },
    {
      "id": 3,
      "content": "[PAD]",
      "single_word": false,
      "lstrip": false,
      "rstrip": false,
      "normalized": false,
      "special": true
    },
    {
      "id": 4,
      "content": "[MASK]",
      "single_word": false,
      "lstrip": false,
      "rstrip": false,
      "normalized": false,
      "special": true
    }
  ],
  "normalizer": {
    "type": "Sequence",
    "normalizers": [
      {
        "type": "NFKC"
      },
      {
        "type": "Lowercase"
      }
    ]
  },
  "pre_tokenizer": {
    "type": "Whitespace"
  },
  "post_processor": null,
  "decoder": {
    "type": "WordPiece",
    "prefix": "##",
    "cleanup": true
  },
  "model": {
    "type": "WordPiece",
    "unk_token": "[UNK]",
    "continuing_subword_prefix": "##",
    "max_input_chars_per_word": 100,
    "vocab": {
      "[UNK]": 0,
      "[CLS]": 1,
      "[SEP]": 2,
      "[PAD]": 3,
      "[MASK]": 4,
      "!": 5,
      "\"": 6,
      "#": 7,
      "$": 8,
      "%": 9,
      "&": 10,
      "'": 11,
      "(": 12,
      ")": 13,
      "*": 14,
      "+": 15,
      ",": 16,
      "-": 17,
      ".": 18,
      "/": 19,
      "0": 20,
      "1": 21,
      "2": 22,
      "3": 23,
      "4": 24,
      "5": 25,
      "6": 26,
      "7": 27,
      "8": 28,
      "9": 29,
      ":": 30,
      ";": 31,
      "<": 32,
      "=": 33,
      ">": 34,
      "?": 35,
      "@": 36,
      "[": 37,
      "\\": 38,
      "]": 39,
      "^": 40,
      "_": 41,
      "a": 42,
      "b": 43,
      "c": 44,
      "d": 45,
      "e": 46,
      "f": 47,
      "g": 48,
      "h": 49,
      "i": 50,
      "j": 51,
      "k": 52,
      "l": 53,
      "m": 54,
      "n": 55,
      "o": 56,
      "p": 57,
      "q": 58,
      "r": 59,
      "s": 60,
      "t": 61,
      "u": 62,
      "v": 63,
      "w": 64,
      "x": 65,
      "y": 66,
      "z": 67,
      "{": 68,
      "}": 69,
      "~": 70,
      "¡": 71,
      "¢": 72,
      "£": 73,
      "¤": 74,
      "¥": 75,
      "¦": 76,
      "§": 77,
      "©": 78,
      "¬": 79,
      "®": 80,
      "°": 81,
      "±": 82,
      "¶": 83,
      "·": 84,
      "¿": 85,
      "×": 86,
      "ß": 87,
      "à": 88,
      "á": 89,
      "â": 90,
      "ã": 91,
      "ä": 92,
      "å": 93,
      "æ": 94,
      "ç": 95,
      "è": 96,
      "é": 97,
      "ê": 98,
      "ë": 99,
      "ì": 100,
      "í": 101,
      "î": 102,
      "ï": 103,
      "ð": 104,
      "ñ": 105,
      "ò": 106,
      "ó": 107,
      "ô": 108,
      "õ": 109,
      "ö": 110,
      "÷": 111,
      "ø": 112,
      "ù": 113,
      "ú": 114,
      "û": 115,
      "ü": 116,
      "ý": 117,
      "þ": 118,
      "ÿ": 119,
      "ā": 120,
      "ă": 121,
      "ą": 122,
      "ć": 123,
      "ĉ": 124,
      "ċ": 125,
      "č": 126,
      "ē": 127,
      "ĕ": 128,
      "ė": 129,
      "ę": 130,
      "ě": 131,
      "ğ": 132,
      "ī": 133,
      "į": 134,
      "ı": 135,
      "ķ": 136,
      "ł": 137,
      "ń": 138,
      "ŋ": 139,
      "ō": 140,
      "ŏ": 141,
      "œ": 142,
      "ř": 143,
      "ś": 144,
      "ş": 145,
      "š": 146,
      "ť": 147,
      "ū": 148,
      "ů": 149,
      "ų": 150,
      "ż": 151,
      "ž": 152,
      "ƒ": 153,
      "ư": 154,
      "ǀ": 155,
      "ǁ": 156,
      "ǒ": 157,
      "ǔ": 158,
      "ȧ": 159,
      "ȩ": 160,
      "ȯ": 161,
      "ɑ": 162,
      "ɒ": 163,
      "ɔ": 164,
      "ə": 165,
      "ɛ": 166,
      "ɜ": 167,
      "ɡ": 168,
      "ɪ": 169,
      "ʁ": 170,
      "ʃ": 171,
      "ʈ": 172,
      "ʉ": 173,
      "ʊ": 174,
      "ʋ": 175,
      "ʌ": 176,
      "ʏ": 177,
      "ʒ": 178,
      "ʟ": 179,
      "ʻ": 180,
      "ʼ": 181,
      "ʿ": 182,
      "ˆ": 183,
      "ˈ": 184,
      "ˌ": 185,
      "ˎ": 186,
      "ː": 187,
      "ˑ": 188,
      "́": 189,
      "̃": 190,
      "̄": 191,
      "̆": 192,
      "̇": 193,
      "̈": 194,
      "̊": 195,
      "̍": 196,
      "̐": 197,
      "̕": 198,
      "̖": 199,
      "̠": 200,
      "̣": 201,
      "̥": 202,
      "̧": 203,
      "̪": 204,
      "̶": 205,
      "ά": 206,
      "ή": 207,
      "α": 208,
      "β": 209,
      "δ": 210,
      "ε": 211,
      "ζ": 212,
      "η": 213,
      "θ": 214,
      "ι": 215,
      "κ": 216,
      "μ": 217,
      "ν": 218,
      "ο": 219,
      "π": 220,
      "ρ": 221,
      "ς": 222,
      "σ": 223,
      "τ": 224,
      "φ": 225,
      "χ": 226,
      "ψ": 227,
      "ω": 228,
      "ό": 229,
      "а": 230,
      "б": 231,
      "в": 232,
      "г": 233,
      "д": 234,
      "е": 235,
      "ж": 236,
      "з": 237,
      "и": 238,
      "й": 239,
      "к": 240,
      "л": 241,
      "м": 242,
      "н": 243,
      "о": 244,
      "п": 245,
      "р": 246,
      "с": 247,
      "т": 248,
      "у": 249,
      "ф": 250,
      "х": 251,
      "ц": 252,
      "ч": 253,
      "ш": 254,
      "щ": 255,
      "ы": 256,
      "ь": 257,
      "э": 258,
      "ю": 259,
      "я": 260,
      "ё": 261,
      "є": 262,
      "і": 263,
      "ї": 264,
      "ј": 265,
      "ў": 266,
      "ҫ": 267,
      "ү": 268,
      "ә": 269,
      "ө": 270,
      "ա": 271,
      "ե": 272,
      "կ": 273,
      "հ": 274,
      "ն": 275,
      "ր": 276,
      "ւ": 277,
      "ַ": 278,
      "א": 279,
      "ב": 280,
      "ג": 281,
      "ד": 282,
      "ה": 283,
      "ו": 284,
      "ט": 285,
      "י": 286,
      "כ": 287,
      "ל": 288,
      "ם": 289,
      "מ": 290,
      "ן": 291,
      "נ": 292,
      "ס": 293,
      "ע": 294,
      "ף": 295,
      "פ": 296,
      "צ": 297,
      "ק": 298,
      "ר": 299,
      "ש": 300,
      "ת": 301,
      "ײ": 302,
      "؞": 303,
      "ء": 304,
      "آ": 305,
      "أ": 306,
      "إ": 307,
      "ئ": 308,
      "ا": 309,
      "ب": 310,
      "ة": 311,
      "ت": 312,
      "ج": 313,
      "ح": 314,
      "خ": 315,
      "د": 316,
      "ذ": 317,
      "ر": 318,
      "ز": 319,
      "س": 320,
      "ش": 321,
      "ص": 322,
      "ط": 323,
      "ع": 324,
      "غ": 325,
      "ف": 326,
      "ق": 327,
      "ك": 328,
      "ل": 329,
      "م": 330,
      "ن": 331,
      "ه": 332,
      "و": 333,
      "ى": 334,
      "ي": 335,
      "ً": 336,
      "ُ": 337,
      "ِ": 338,
      "٫": 339,
      "٬": 340,
      "ٰ": 341,
      "ٹ": 342,
      "ټ": 343,
      "پ": 344,
      "چ": 345,
      "ڌ": 346,
      "ک": 347,
      "ڪ": 348,
      "گ": 349,
      "ں": 350,
      "ڼ": 351,
      "ھ": 352,
      "ہ": 353,
      "ۂ": 354,
      "ۆ": 355,
      "ۇ": 356,
      "ی": 357,
      "۔": 358,
      "ە": 359,
      "ܐ": 360,
      "ܒ": 361,
      "ܕ": 362,
      "ܘ": 363,
      "ܚ": 364,
      "ܛ": 365,
      "ܟ": 366,
      "ܠ": 367,
      "ܣ": 368,
      "ܦ": 369,
      "ܪ": 370,
      "ܬ": 371,
      "ँ": 372,
      "ं": 373,
      "ः": 374,
      "ऄ": 375,
      "अ": 376,
      "आ": 377,
      "इ": 378,
      "ई": 379,
      "उ": 380,
      "ऊ": 381,
      "ऋ": 382,
      "ऌ": 383,
      "ऍ": 384,
      "ऎ": 385,
      "ए": 386,
      "ऐ": 387,
      "ऑ": 388,
      "ऒ": 389,
      "ओ": 390,
      "औ": 391,
      "क": 392,
      "ख": 393,
      "ग": 394,
      "घ": 395,
      "ङ": 396,
      "च": 397,
      "छ": 398,
      "ज": 399,
      "झ": 400,
      "ञ": 401,
      "ट": 402,
      "ठ": 403,
      "ड": 404,
      "ढ": 405,
      "ण": 406,
      "त": 407,
      "थ": 408,
      "द": 409,
      "ध": 410,
      "न": 411,
      "ऩ": 412,
      "प": 413,
      "फ": 414,
      "ब": 415,
      "भ": 416,
      "म": 417,
      "य": 418,
      "र": 419,
      "ऱ": 420,
      "ल": 421,
      "ळ": 422,
      "ऴ": 423,
      "व": 424,
      "श": 425,
      "ष": 426,
      "स": 427,
      "ह": 428,
      "ऺ": 429,
      "ऻ": 430,
      "़": 431,
      "ऽ": 432,
      "ा": 433,
      "ि": 434,
      "ी": 435,
      "ु": 436,
      "ू": 437,
      "ृ": 438,
      "ॄ": 439,
      "ॅ": 440,
      "ॆ": 441,
      "े": 442,
      "ै": 443,
      "ॉ": 444,
      "ॊ": 445,
      "ो": 446,
      "ौ": 447,
      "्": 448,
      "ॐ": 449,
      "॑": 450,
      "॒": 451,
      "॓": 452,
      "॔": 453,
      "ॠ": 454,
      "ॡ": 455,
      "ॢ": 456,
      "।": 457,
      "॥": 458,
      "०": 459,
      "१": 460,
      "२": 461,
      "३": 462,
      "४": 463,
      "५": 464,
      "६": 465,
      "७": 466,
      "८": 467,
      "९": 468,
      "॰": 469,
      "ॱ": 470,
      "ॵ": 471,
      "ॺ": 472,
      "ॼ": 473,
      "ॾ": 474,
      "ॿ": 475,
      "ং": 476,
      "আ": 477,
      "ই": 478,
      "উ": 479,
      "এ": 480,
      "ক": 481,
      "খ": 482,
      "গ": 483,
      "ঘ": 484,
      "চ": 485,
      "ছ": 486,
      "জ": 487,
      "ট": 488,
      "ঠ": 489,
      "ড": 490,
      "ঢ": 491,
      "ণ": 492,
      "ত": 493,
      "থ": 494,
      "দ": 495,
      "ধ": 496,
      "ন": 497,
      "প": 498,
      "ব": 499,
      "ম": 500,
      "য": 501,
      "র": 502,
      "ল": 503,
      "ষ": 504,
      "স": 505,
      "হ": 506,
      "়": 507,
      "া": 508,
      "ি": 509,
      "ী": 510,
      "ু": 511,
      "ৃ": 512,
      "ে": 513,
      "ো": 514,
      "্": 515,
      "০": 516,
      "৩": 517,
      "৭": 518,
      "ৰ": 519,
      "ৱ": 520,
      "৷": 521,
      "ਂ": 522,
      "ਅ": 523,
      "ਇ": 524,
      "ਊ": 525,
      "ਏ": 526,
      "ਕ": 527,
      "ਖ": 528,
      "ਗ": 529,
      "ਜ": 530,
      "ਟ": 531,
      "ਡ": 532,
      "ਣ": 533,
      "ਤ": 534,
      "ਦ": 535,
      "ਨ": 536,
      "ਪ": 537,
      "ਬ": 538,
      "ਮ": 539,
      "ਰ": 540,
      "ਲ": 541,
      "ਸ": 542,
      "਼": 543,
      "ਾ": 544,
      "ਿ": 545,
      "ੀ": 546,
      "ੁ": 547,
      "ੂ": 548,
      "ੇ": 549,
      "ੋ": 550,
      "੍": 551,
      "ੰ": 552,
      "ੱ": 553,
      "ં": 554,
      "ઃ": 555,
      "અ": 556,
      "આ": 557,
      "ઈ": 558,
      "ઉ": 559,
      "એ": 560,
      "ઓ": 561,
      "ક": 562,
      "ખ": 563,
      "ગ": 564,
      "ચ": 565,
      "છ": 566,
      "જ": 567,
      "ઝ": 568,
      "ઞ": 569,
      "ટ": 570,
      "ઠ": 571,
      "ડ": 572,
      "ણ": 573,
      "ત": 574,
      "થ": 575,
      "દ": 576,
      "ધ": 577,
      "ન": 578,
      "પ": 579,
      "ફ": 580,
      "બ": 581,
      "ભ": 582,
      "મ": 583,
      "ય": 584,
      "ર": 585,
      "લ": 586,
      "ળ": 587,
      "વ": 588,
      "શ": 589,
      "ષ": 590,
      "સ": 591,
      "હ": 592,
      "઼": 593,
      "ા": 594,
      "િ": 595,
      "ી": 596,
      "ુ": 597,
      "ૂ": 598,
      "ૃ": 599,
      "ે": 600,
      "ો": 601,
      "્": 602,
      "ૐ": 603,
      "ૠ": 604,
      "૦": 605,
      "૧": 606,
      "૨": 607,
      "૩": 608,
      "૪": 609,
      "૫": 610,
      "૬": 611,
      "૭": 612,
      "૮": 613,
      "૯": 614,
      "ଃ": 615,
      "ଆ": 616,
      "ଓ": 617,
      "କ": 618,
      "ଖ": 619,
      "ଡ": 620,
      "ତ": 621,
      "ପ": 622,
      "ଭ": 623,
      "ର": 624,
      "ଲ": 625,
      "଼": 626,
      "ା": 627,
      "ି": 628,
      "େ": 629,
      "୍": 630,
      "ୟ": 631,
      "அ": 632,
      "ஆ": 633,
      "இ": 634,
      "உ": 635,
      "எ": 636,
      "ஐ": 637,
      "க": 638,
      "ச": 639,
      "ஜ": 640,
      "ட": 641,
      "ண": 642,
      "த": 643,
      "ந": 644,
      "ன": 645,
      "ப": 646,
      "ம": 647,
      "ய": 648,
      "ர": 649,
      "ற": 650,
      "ல": 651,
      "ள": 652,
      "ழ": 653,
      "வ": 654,
      "ஶ": 655,
      "ஷ": 656,
      "ஸ": 657,
      "ஹ": 658,
      "ா": 659,
      "ி": 660,
      "ீ": 661,
      "ு": 662,
      "ூ": 663,
      "ெ": 664,
      "ே": 665,
      "ை": 666,
      "ொ": 667,
      "ோ": 668,
      "்": 669,
      "ం": 670,
      "అ": 671,
      "ఉ": 672,
      "ఎ": 673,
      "ఓ": 674,
      "క": 675,
      "చ": 676,
      "జ": 677,
      "డ": 678,
      "త": 679,
      "ద": 680,
      "ధ": 681,
      "న": 682,
      "ప": 683,
      "ఫ": 684,
      "భ": 685,
      "మ": 686,
      "య": 687,
      "ర": 688,
      "ల": 689,
      "వ": 690,
      "శ": 691,
      "ష": 692,
      "స": 693,
      "హ": 694,
      "ా": 695,
      "ి": 696,
      "ు": 697,
      "ె": 698,
      "ే": 699,
      "ై": 700,
      "ో": 701,
      "్": 702,
      "ಂ": 703,
      "ಃ": 704,
      "ಅ": 705,
      "ಇ": 706,
      "ಉ": 707,
      "ಎ": 708,
      "ಕ": 709,
      "ಗ": 710,
      "ಚ": 711,
      "ಜ": 712,
      "ಟ": 713,
      "ಠ": 714,
      "ಡ": 715,
      "ತ": 716,
      "ದ": 717,
      "ನ": 718,
      "ಪ": 719,
      "ಬ": 720,
      "ಭ": 721,
      "ಮ": 722,
      "ಯ": 723,
      "ರ": 724,
      "ಲ": 725,
      "ಳ": 726,
      "ವ": 727,
      "ಶ": 728,
      "ಸ": 729,
      "ಹ": 730,
      "ಾ": 731,
      "ಿ": 732,
      "ೀ": 733,
      "ು": 734,
      "ೂ": 735,
      "ೃ": 736,
      "ೆ": 737,
      "ೇ": 738,
      "ೊ": 739,
      "ೋ": 740,
      "್": 741,
      "೦": 742,
      "೧": 743,
      "೨": 744,
      "೩": 745,
      "೪": 746,
      "ೲ": 747,
      "ം": 748,
      "അ": 749,
      "ആ": 750,
      "ഇ": 751,
      "ഈ": 752,
      "ഉ": 753,
      "എ": 754,
      "ക": 755,
      "ഖ": 756,
      "ഗ": 757,
      "ങ": 758,
      "ച": 759,
      "ഛ": 760,
      "ജ": 761,
      "ഞ": 762,
      "ട": 763,
      "ഠ": 764,
      "ണ": 765,
      "ത": 766,
      "ഥ": 767,
      "ദ": 768,
      "ധ": 769,
      "ന": 770,
      "പ": 771,
      "ബ": 772,
      "ഭ": 773,
      "മ": 774,
      "യ": 775,
      "ര": 776,
      "റ": 777,
      "ല": 778,
      "ള": 779,
      "ഴ": 780,
      "വ": 781,
      "ശ": 782,
      "ഷ": 783,
      "സ": 784,
      "ഹ": 785,
      "ാ": 786,
      "ി": 787,
      "ീ": 788,
      "ു": 789,
      "ൂ": 790,
      "ൃ": 791,
      "െ": 792,
      "േ": 793,
      "ൈ": 794,
      "ൊ": 795,
      "ോ": 796,
      "്": 797,
      "ൻ": 798,
      "ർ": 799,
      "ൽ": 800,
      "ൾ": 801,
      "ක": 802,
      "ග": 803,
      "ත": 804,
      "ද": 805,
      "න": 806,
      "ප": 807,
      "ම": 808,
      "ය": 809,
      "ල": 810,
      "ව": 811,
      "ශ": 812,
      "ස": 813,
      "්": 814,
      "ා": 815,
      "ි": 816,
      "ො": 817,
      "ค": 818,
      "ง": 819,
      "ด": 820,
      "ต": 821,
      "น": 822,
      "บ": 823,
      "พ": 824,
      "ฟ": 825,
      "ม": 826,
      "ร": 827,
      "ห": 828,
      "อ": 829,
      "ฮ": 830,
      "ั": 831,
      "า": 832,
      "ิ": 833,
      "ี": 834,
      "เ": 835,
      "โ": 836,
      "่": 837,
      "้": 838,
      "་": 839,
      "།": 840,
      "༔": 841,
      "༡": 842,
      "༣": 843,
      "༨": 844,
      "ཁ": 845,
      "ག": 846,
      "ང": 847,
      "ཊ": 848,
      "ཐ": 849,
      "ན": 850,
      "པ": 851,
      "བ": 852,
      "མ": 853,
      "ཚ": 854,
      "ཝ": 855,
      "ཟ": 856,
      "ཡ": 857,
      "ལ": 858,
      "ཥ": 859,
      "ས": 860,
      "ཧ": 861,
      "ཱ": 862,
      "ི": 863,
      "ུ": 864,
      "ྀ": 865,
      "ྒ": 866,
      "ྥ": 867,
      "ྨ": 868,
      "ྭ": 869,
      "ྱ": 870,
      "ྲ": 871,
      "ླ": 872,
      "၊": 873,
      "ა": 874,
      "გ": 875,
      "დ": 876,
      "ე": 877,
      "ვ": 878,
      "ზ": 879,
      "თ": 880,
      "ი": 881,
      "ლ": 882,
      "ნ": 883,
      "რ": 884,
      "ს": 885,
      "უ": 886,
      "ც": 887,
      "ჱ": 888,
      "ᄉ": 889,
      "ᄌ": 890,
      "ᅩ": 891,
      "ᆬ": 892,
      "ሉ": 893,
      "ሕ": 894,
      "ሩ": 895,
      "በ": 896,
      "ብ": 897,
      "ቮ": 898,
      "እ": 899,
      "ኳ": 900,
      "ዝ": 901,
      "ገ": 902,
      "ጻ": 903,
      "ፂ": 904,
      "ፃ": 905,
      "፪": 906,
      "ᒃ": 907,
      "ᒄ": 908,
      "ᒎ": 909,
      "ᓚ": 910,
      "ᗢ": 911,
      "ᘏ": 912,
      "ᚨ": 913,
      "ᚩ": 914,
      "ᚻ": 915,
      "ᚾ": 916,
      "ᛁ": 917,
      "ᛋ": 918,
      "ᛏ": 919,
      "ᛖ": 920,
      "ᛗ": 921,
      "ᛚ": 922,
      "ᛞ": 923,
      "᛫": 924,
      "ᭅ": 925,
      "᭠": 926,
      "᭭": 927,
      "ᮩ": 928,
      "᮰": 929,
      "ᱧ": 930,
      "᳒": 931,
      "᳖": 932,
      "᳘": 933,
      "᳚": 934,
      "ᳪ": 935,
      "ᳬ": 936,
      "᳭": 937,
      "ᳲ": 938,
      "ᴀ": 939,
      "ᴇ": 940,
      "ḍ": 941,
      "ḏ": 942,
      "ḥ": 943,
      "ḩ": 944,
      "ṁ": 945,
      "ṃ": 946,
      "ṅ": 947,
      "ṇ": 948,
      "ṛ": 949,
      "ṝ": 950,
      "ṣ": 951,
      "ṭ": 952,
      "ắ": 953,
      "ế": 954,
      "ệ": 955,
      "ủ": 956,
      "ἀ": 957,
      "ὁ": 958,
      "ὕ": 959,
      "ὸ": 960,
      "ῖ": 961,
      "‐": 962,
      "‒": 963,
      "―": 964,
      "‖": 965,
      "†": 966,
      "‡": 967,
      "•": 968,
      "‰": 969,
      "′": 970,
      "‹": 971,
      "›": 972,
      "※": 973,
      "⁄": 974,
      "₩": 975,
      "€": 976,
      "₹": 977,
      "⃣": 978,
      "←": 979,
      "↑": 980,
      "→": 981,
      "↓": 982,
      "↔": 983,
      "↕": 984,
      "↗": 985,
      "↩": 986,
      "↲": 987,
      "⇄": 988,
      "⇏": 989,
      "⇒": 990,
      "⇔": 991,
      "∅": 992,
      "∆": 993,
      "∈": 994,
      "−": 995,
      "∕": 996,
      "∖": 997,
      "∙": 998,
      "√": 999,
      "∝": 1000,
      "∠": 1001,
      "∩": 1002,
      "∫": 1003,
      "∴": 1004,
      "∵": 1005,
      "≈": 1006,
      "≍": 1007,
      "≠": 1008,
      "≡": 1009,
      "≤": 1010,
      "≥": 1011,
      "≦": 1012,
      "⊂": 1013,
      "⊃": 1014,
      "⊕": 1015,
      "⋆": 1016,
      "⋙": 1017,
      "⏳": 1018,
      "▀": 1019,
      "▁": 1020,
      "■": 1021,
      "□": 1022,
      "▪": 1023,
      "▲": 1024,
      "△": 1025,
      "▶": 1026,
      "▷": 1027,
      "►": 1028,
      "▼": 1029,
      "◄": 1030,
      "◆": 1031,
      "◇": 1032,
      "◉": 1033,
      "◊": 1034,
      "◌": 1035,
      "◎": 1036,
      "●": 1037,
      "◦": 1038,
      "☀": 1039,
      "☁": 1040,
      "★": 1041,
      "☆": 1042,
      "☑": 1043,
      "☘": 1044,
      "☝": 1045,
      "☰": 1046,
      "☸": 1047,
      "☹": 1048,
      "☺": 1049,
      "♀": 1050,
      "♂": 1051,
      "♈": 1052,
      "♉": 1053,
      "♡": 1054,
      "♣": 1055,
      "♥": 1056,
      "♦": 1057,
      "♫": 1058,
      "♻": 1059,
      "⚏": 1060,
      "⚕": 1061,
      "⚡": 1062,
      "⚪": 1063,
      "⚫": 1064,
      "⛅": 1065,
      "⛈": 1066,
      "⛳": 1067,
      "⛹": 1068,
      "✅": 1069,
      "✌": 1070,
      "✍": 1071,
      "✒": 1072,
      "✓": 1073,
      "✔": 1074,
      "✖": 1075,
      "✥": 1076,
      "✦": 1077,
      "✧": 1078,
      "✨": 1079,
      "✪": 1080,
      "✳": 1081,
      "✴": 1082,
      "✹": 1083,
      "✺": 1084,
      "✼": 1085,
      "✿": 1086,
      "❁": 1087,
      "❇": 1088,
      "❌": 1089,
      "❍": 1090,
      "❑": 1091,
      "❗": 1092,
      "❣": 1093,
      "❤": 1094,
      "❯": 1095,
      "➖": 1096,
      "➛": 1097,
      "➜": 1098,
      "➞": 1099,
      "➡": 1100,
      "➢": 1101,
      "➤": 1102,
      "➥": 1103,
      "➦": 1104,
      "➧": 1105,
      "➨": 1106,
      "⟶": 1107,
      "⟷": 1108,
      "⠀": 1109,
      "⦁": 1110,
      "⭐": 1111,
      "⭕": 1112,
      "、": 1113,
      "。": 1114,
      "〈": 1115,
      "《": 1116,
      "》": 1117,
      "「": 1118,
      "」": 1119,
      "【": 1120,
      "】": 1121,
      "あ": 1122,
      "い": 1123,
      "う": 1124,
      "お": 1125,
      "か": 1126,
      "が": 1127,
      "き": 1128,
      "く": 1129,
      "け": 1130,
      "げ": 1131,
      "ご": 1132,
      "さ": 1133,
      "ざ": 1134,
      "し": 1135,
      "す": 1136,
      "た": 1137,
      "だ": 1138,
      "ち": 1139,
      "っ": 1140,
      "つ": 1141,
      "て": 1142,
      "で": 1143,
      "と": 1144,
      "ど": 1145,
      "な": 1146,
      "に": 1147,
      "の": 1148,
      "は": 1149,
      "ひ": 1150,
      "ま": 1151,
      "み": 1152,
      "む": 1153,
      "め": 1154,
      "も": 1155,
      "ゃ": 1156,
      "や": 1157,
      "よ": 1158,
      "ら": 1159,
      "る": 1160,
      "れ": 1161,
      "を": 1162,
      "ん": 1163,
      "ア": 1164,
      "ィ": 1165,
      "イ": 1166,
      "エ": 1167,
      "オ": 1168,
      "ク": 1169,
      "グ": 1170,
      "コ": 1171,
      "シ": 1172,
      "ジ": 1173,
      "ス": 1174,
      "ズ": 1175,
      "セ": 1176,
      "ゼ": 1177,
      "ソ": 1178,
      "タ": 1179,
      "チ": 1180,
      "ッ": 1181,
      "ツ": 1182,
      "テ": 1183,
      "デ": 1184,
      "ト": 1185,
      "ナ": 1186,
      "ネ": 1187,
      "ノ": 1188,
      "バ": 1189,
      "パ": 1190,
      "ヒ": 1191,
      "ピ": 1192,
      "プ": 1193,
      "ボ": 1194,
      "ポ": 1195,
      "マ": 1196,
      "ャ": 1197,
      "ョ": 1198,
      "ラ": 1199,
      "リ": 1200,
      "ル": 1201,
      "ロ": 1202,
      "ン": 1203,
      "・": 1204,
      "ー": 1205,
      "一": 1206,
      "七": 1207,
      "三": 1208,
      "上": 1209,
      "不": 1210,
      "与": 1211,
      "世": 1212,
      "中": 1213,
      "为": 1214,
      "义": 1215,
      "习": 1216,
      "乱": 1217,
      "了": 1218,
      "事": 1219,
      "二": 1220,
      "于": 1221,
      "互": 1222,
      "五": 1223,
      "亦": 1224,
      "京": 1225,
      "亲": 1226,
      "人": 1227,
      "介": 1228,
      "从": 1229,
      "仕": 1230,
      "代": 1231,
      "份": 1232,
      "休": 1233,
      "伟": 1234,
      "位": 1235,
      "何": 1236,
      "余": 1237,
      "作": 1238,
      "你": 1239,
      "使": 1240,
      "依": 1241,
      "修": 1242,
      "個": 1243,
      "倒": 1244,
      "健": 1245,
      "僕": 1246,
      "元": 1247,
      "入": 1248,
      "全": 1249,
      "八": 1250,
      "六": 1251,
      "其": 1252,
      "具": 1253,
      "円": 1254,
      "册": 1255,
      "决": 1256,
      "出": 1257,
      "切": 1258,
      "划": 1259,
      "列": 1260,
      "利": 1261,
      "别": 1262,
      "到": 1263,
      "副": 1264,
      "加": 1265,
      "助": 1266,
      "化": 1267,
      "北": 1268,
      "十": 1269,
      "卍": 1270,
      "卐": 1271,
      "南": 1272,
      "印": 1273,
      "叉": 1274,
      "反": 1275,
      "发": 1276,
      "口": 1277,
      "句": 1278,
      "可": 1279,
      "各": 1280,
      "合": 1281,
      "同": 1282,
      "名": 1283,
      "后": 1284,
      "吗": 1285,
      "吥": 1286,
      "吸": 1287,
      "告": 1288,
      "员": 1289,
      "和": 1290,
      "咒": 1291,
      "哉": 1292,
      "哥": 1293,
      "哲": 1294,
      "哷": 1295,
      "唯": 1296,
      "喝": 1297,
      "嘅": 1298,
      "器": 1299,
      "四": 1300,
      "因": 1301,
      "図": 1302,
      "固": 1303,
      "国": 1304,
      "國": 1305,
      "地": 1306,
      "域": 1307,
      "堂": 1308,
      "報": 1309,
      "境": 1310,
      "增": 1311,
      "声": 1312,
      "处": 1313,
      "复": 1314,
      "外": 1315,
      "多": 1316,
      "夜": 1317,
      "夢": 1318,
      "大": 1319,
      "天": 1320,
      "奖": 1321,
      "奪": 1322,
      "好": 1323,
      "如": 1324,
      "威": 1325,
      "婆": 1326,
      "孕": 1327,
      "字": 1328,
      "存": 1329,
      "学": 1330,
      "安": 1331,
      "官": 1332,
      "定": 1333,
      "宦": 1334,
      "寝": 1335,
      "尊": 1336,
      "小": 1337,
      "少": 1338,
      "尔": 1339,
      "尼": 1340,
      "属": 1341,
      "岂": 1342,
      "工": 1343,
      "师": 1344,
      "席": 1345,
      "常": 1346,
      "年": 1347,
      "广": 1348,
      "应": 1349,
      "废": 1350,
      "度": 1351,
      "康": 1352,
      "廬": 1353,
      "异": 1354,
      "引": 1355,
      "弥": 1356,
      "当": 1357,
      "影": 1358,
      "彼": 1359,
      "得": 1360,
      "徹": 1361,
      "忘": 1362,
      "念": 1363,
      "性": 1364,
      "惑": 1365,
      "意": 1366,
      "愛": 1367,
      "感": 1368,
      "憶": 1369,
      "成": 1370,
      "我": 1371,
      "戻": 1372,
      "所": 1373,
      "执": 1374,
      "投": 1375,
      "摩": 1376,
      "收": 1377,
      "改": 1378,
      "政": 1379,
      "故": 1380,
      "效": 1381,
      "整": 1382,
      "文": 1383,
      "新": 1384,
      "方": 1385,
      "无": 1386,
      "日": 1387,
      "时": 1388,
      "星": 1389,
      "是": 1390,
      "显": 1391,
      "普": 1392,
      "晴": 1393,
      "更": 1394,
      "書": 1395,
      "最": 1396,
      "月": 1397,
      "有": 1398,
      "朝": 1399,
      "期": 1400,
      "杂": 1401,
      "東": 1402,
      "果": 1403,
      "某": 1404,
      "染": 1405,
      "查": 1406,
      "栄": 1407,
      "格": 1408,
      "械": 1409,
      "梵": 1410,
      "检": 1411,
      "模": 1412,
      "権": 1413,
      "機": 1414,
      "款": 1415,
      "止": 1416,
      "此": 1417,
      "母": 1418,
      "比": 1419,
      "民": 1420,
      "氣": 1421,
      "永": 1422,
      "求": 1423,
      "汇": 1424,
      "没": 1425,
      "泊": 1426,
      "流": 1427,
      "消": 1428,
      "添": 1429,
      "灭": 1430,
      "然": 1431,
      "熟": 1432,
      "父": 1433,
      "牙": 1434,
      "猫": 1435,
      "现": 1436,
      "班": 1437,
      "球": 1438,
      "理": 1439,
      "生": 1440,
      "用": 1441,
      "由": 1442,
      "疆": 1443,
      "痛": 1444,
      "発": 1445,
      "發": 1446,
      "白": 1447,
      "的": 1448,
      "益": 1449,
      "直": 1450,
      "相": 1451,
      "知": 1452,
      "研": 1453,
      "破": 1454,
      "祖": 1455,
      "离": 1456,
      "秘": 1457,
      "程": 1458,
      "稱": 1459,
      "究": 1460,
      "立": 1461,
      "章": 1462,
      "第": 1463,
      "答": 1464,
      "简": 1465,
      "类": 1466,
      "紅": 1467,
      "素": 1468,
      "終": 1469,
      "続": 1470,
      "網": 1471,
      "繁": 1472,
      "维": 1473,
      "者": 1474,
      "而": 1475,
      "肉": 1476,
      "能": 1477,
      "自": 1478,
      "花": 1479,
      "若": 1480,
      "英": 1481,
      "茶": 1482,
      "葬": 1483,
      "薩": 1484,
      "處": 1485,
      "蛟": 1486,
      "蝶": 1487,
      "衆": 1488,
      "行": 1489,
      "表": 1490,
      "西": 1491,
      "见": 1492,
      "观": 1493,
      "视": 1494,
      "觉": 1495,
      "解": 1496,
      "言": 1497,
      "記": 1498,
      "訳": 1499,
      "試": 1500,
      "語": 1501,
      "論": 1502,
      "讓": 1503,
      "计": 1504,
      "讨": 1505,
      "许": 1506,
      "论": 1507,
      "话": 1508,
      "语": 1509,
      "说": 1510,
      "诸": 1511,
      "贪": 1512,
      "越": 1513,
      "足": 1514,
      "身": 1515,
      "車": 1516,
      "转": 1517,
      "辦": 1518,
      "达": 1519,
      "过": 1520,
      "运": 1521,
      "返": 1522,
      "追": 1523,
      "通": 1524,
      "逝": 1525,
      "進": 1526,
      "遣": 1527,
      "那": 1528,
      "都": 1529,
      "释": 1530,
      "量": 1531,
      "金": 1532,
      "鉄": 1533,
      "错": 1534,
      "长": 1535,
      "間": 1536,
      "间": 1537,
      "闻": 1538,
      "阿": 1539,
      "除": 1540,
      "陸": 1541,
      "障": 1542,
      "雨": 1543,
      "電": 1544,
      "靈": 1545,
      "非": 1546,
      "面": 1547,
      "韩": 1548,
      "音": 1549,
      "響": 1550,
      "願": 1551,
      "页": 1552,
      "须": 1553,
      "颂": 1554,
      "飞": 1555,
      "飲": 1556,
      "首": 1557,
      "龙": 1558,
      "꣡": 1559,
      "꣢": 1560,
      "꣣": 1561,
      "꣫": 1562,
      "꣯": 1563,
      "ꣲ": 1564,
      "ꣳ": 1565,
      "가": 1566,
      "간": 1567,
      "감": 1568,
      "개": 1569,
      "게": 1570,
      "고": 1571,
      "공": 1572,
      "과": 1573,
      "교": 1574,
      "국": 1575,
      "금": 1576,
      "급": 1577,
      "기": 1578,
      "깨": 1579,
      "나": 1580,
      "낱": 1581,
      "냐": 1582,
      "녹": 1583,
      "는": 1584,
      "니": 1585,
      "다": 1586,
      "달": 1587,
      "대": 1588,
      "더": 1589,
      "동": 1590,
      "두": 1591,
      "듬": 1592,
      "따": 1593,
      "뜨": 1594,
      "라": 1595,
      "락": 1596,
      "레": 1597,
      "력": 1598,
      "로": 1599,
      "름": 1600,
      "리": 1601,
      "만": 1602,
      "말": 1603,
      "망": 1604,
      "맵": 1605,
      "몸": 1606,
      "못": 1607,
      "뭐": 1608,
      "민": 1609,
      "받": 1610,
      "발": 1611,
      "백": 1612,
      "번": 1613,
      "법": 1614,
      "봇": 1615,
      "브": 1616,
      "비": 1617,
      "사": 1618,
      "산": 1619,
      "상": 1620,
      "서": 1621,
      "성": 1622,
      "세": 1623,
      "수": 1624,
      "술": 1625,
      "쉬": 1626,
      "슈": 1627,
      "스": 1628,
      "승": 1629,
      "시": 1630,
      "신": 1631,
      "아": 1632,
      "어": 1633,
      "없": 1634,
      "에": 1635,
      "염": 1636,
      "영": 1637,
      "예": 1638,
      "완": 1639,
      "외": 1640,
      "요": 1641,
      "우": 1642,
      "운": 1643,
      "월": 1644,
      "위": 1645,
      "을": 1646,
      "음": 1647,
      "의": 1648,
      "이": 1649,
      "인": 1650,
      "임": 1651,
      "입": 1652,
      "있": 1653,
      "자": 1654,
      "적": 1655,
      "전": 1656,
      "절": 1657,
      "정": 1658,
      "조": 1659,
      "좀": 1660,
      "주": 1661,
      "중": 1662,
      "증": 1663,
      "지": 1664,
      "째": 1665,
      "청": 1666,
      "크": 1667,
      "키": 1668,
      "탄": 1669,
      "탑": 1670,
      "터": 1671,
      "트": 1672,
      "특": 1673,
      "팅": 1674,
      "파": 1675,
      "하": 1676,
      "학": 1677,
      "한": 1678,
      "함": 1679,
      "합": 1680,
      "허": 1681,
      "효": 1682,
      "히": 1683,
      "힌": 1684,
      "힘": 1685,
      "︎": 1686,
      "️": 1687,
      "�": 1688,
      "𑆤": 1689,
      "𑌏": 1690,
      "𑌥": 1691,
      "𑌫": 1692,
      "𑌮": 1693,
      "𑌸": 1694,
      "𑐎": 1695,
      "𑐕": 1696,
      "𑐫": 1697,
      "𑐮": 1698,
      "𑐰": 1699,
      "𑐴": 1700,
      "𑐵": 1701,
      "𑑀": 1702,
      "𑑂": 1703,
      "𑑄": 1704,
      "𑑅": 1705,
      "🅰": 1706,
      "🇦": 1707,
      "🇮": 1708,
      "🇱": 1709,
      "🇳": 1710,
      "🇵": 1711,
      "🇸": 1712,
      "🇹": 1713,
      "🇺": 1714,
      "🌀": 1715,
      "🌃": 1716,
      "🌄": 1717,
      "🌅": 1718,
      "🌈": 1719,
      "🌉": 1720,
      "🌍": 1721,
      "🌎": 1722,
      "🌏": 1723,
      "🌖": 1724,
      "🌙": 1725,
      "🌛": 1726,
      "🌝": 1727,
      "🌞": 1728,
      "🌟": 1729,
      "🌠": 1730,
      "🌰": 1731,
      "🌱": 1732,
      "🌴": 1733,
      "🌷": 1734,
      "🌸": 1735,
      "🌹": 1736,
      "🌺": 1737,
      "🌻": 1738,
      "🌼": 1739,
      "🌿": 1740,
      "🍀": 1741,
      "🍁": 1742,
      "🍃": 1743,
      "🍋": 1744,
      "🍥": 1745,
      "🍾": 1746,
      "🎂": 1747,
      "🎃": 1748,
      "🎉": 1749,
      "🎊": 1750,
      "🎋": 1751,
      "🎎": 1752,
      "🎓": 1753,
      "🎖": 1754,
      "🎤": 1755,
      "🎯": 1756,
      "🎵": 1757,
      "🎶": 1758,
      "🎼": 1759,
      "🏀": 1760,
      "🏃": 1761,
      "🏏": 1762,
      "🏠": 1763,
      "🏮": 1764,
      "🏷": 1765,
      "🏹": 1766,
      "🏻": 1767,
      "🏽": 1768,
      "🐕": 1769,
      "🐙": 1770,
      "🐯": 1771,
      "👆": 1772,
      "👇": 1773,
      "👈": 1774,
      "👉": 1775,
      "👌": 1776,
      "👍": 1777,
      "👏": 1778,
      "👞": 1779,
      "👣": 1780,
      "👦": 1781,
      "👧": 1782,
      "👨": 1783,
      "👩": 1784,
      "👫": 1785,
      "👱": 1786,
      "👴": 1787,
      "💄": 1788,
      "💏": 1789,
      "💐": 1790,
      "💑": 1791,
      "💓": 1792,
      "💔": 1793,
      "💕": 1794,
      "💖": 1795,
      "💗": 1796,
      "💘": 1797,
      "💚": 1798,
      "💛": 1799,
      "💝": 1800,
      "💠": 1801,
      "💥": 1802,
      "💦": 1803,
      "💧": 1804,
      "💫": 1805,
      "💮": 1806,
      "💰": 1807,
      "💱": 1808,
      "💵": 1809,
      "📂": 1810,
      "📌": 1811,
      "📎": 1812,
      "📏": 1813,
      "📕": 1814,
      "📖": 1815,
      "📚": 1816,
      "📝": 1817,
      "📢": 1818,
      "📣": 1819,
      "📰": 1820,
      "📱": 1821,
      "📳": 1822,
      "📸": 1823,
      "📺": 1824,
      "🔅": 1825,
      "🔊": 1826,
      "🔍": 1827,
      "🔐": 1828,
      "🔔": 1829,
      "🔗": 1830,
      "🔟": 1831,
      "🔥": 1832,
      "🔰": 1833,
      "🔱": 1834,
      "🔶": 1835,
      "🔷": 1836,
      "🔸": 1837,
      "🔹": 1838,
      "🔺": 1839,
      "🔻": 1840,
      "🕉": 1841,
      "🕔": 1842,
      "🖊": 1843,
      "🖱": 1844,
      "🗃": 1845,
      "🗒": 1846,
      "🗣": 1847,
      "🗳": 1848,
      "😀": 1849,
      "😂": 1850,
      "😃": 1851,
      "😄": 1852,
      "😅": 1853,
      "😇": 1854,
      "😉": 1855,
      "😊": 1856,
      "😌": 1857,
      "😍": 1858,
      "😎": 1859,
      "😒": 1860,
      "😔": 1861,
      "😘": 1862,
      "😜": 1863,
      "😝": 1864,
      "😞": 1865,
      "😡": 1866,
      "😢": 1867,
      "😩": 1868,
      "😳": 1869,
      "🙁": 1870,
      "🙂": 1871,
      "🙅": 1872,
      "🙆": 1873,
      "🙌": 1874,
      "🙍": 1875,
      "🙎": 1876,
      "🙏": 1877,
      "🚑": 1878,
      "🚩": 1879,
      "🚷": 1880,
      "🛑": 1881,
      "🛡": 1882,
      "🤔": 1883,
      "🤗": 1884,
      "🤝": 1885,
      "🤦": 1886,
      "🤩": 1887,
      "🤪": 1888,
      "🤲": 1889,
      "🥀": 1890,
      "🥂": 1891,
      "🥇": 1892,
      "🥰": 1893,
      "🦂": 1894,
      "🧐": 1895,
      "🧜": 1896,
      "🩸": 1897,
      "🪔": 1898,
      "##h": 1899,
      "##l": 1900,
      "##्": 1901,
      "##व": 1902,
      "##ि": 1903,
      "##ष": 1904,
      "##त": 1905,
      "##ा": 1906,
      "##i": 1907,
      "##n": 1908,
      "##च": 1909,
      "##प": 1910,
      "##द": 1911,
      "##_": 1912,
      "##९": 1913,
      "##;": 1914,
      "##a": 1915,
      "##y": 1916,
      "##s": 1917,
      "##o": 1918,
      "##w": 1919,
      "##श": 1920,
      "##र": 1921,
      "##9": 1922,
      "##5": 1923,
      "##ह": 1924,
      "##उ": 1925,
      "##ḥ": 1926,
      "##j": 1927,
      "##p": 1928,
      "##e": 1929,
      "##g": 1930,
      "##r": 1931,
      "##k": 1932,
      "##ऽ": 1933,
      "##य": 1934,
      "##म": 1935,
      "##ॐ": 1936,
      "##ज": 1937,
      "##ो": 1938,
      "##v": 1939,
      "##ी": 1940,
      "##ट": 1941,
      "##ँ": 1942,
      "##क": 1943,
      "##x": 1944,
      "##७": 1945,
      "##८": 1946,
      "##z": 1947,
      "##थ": 1948,
      "##े": 1949,
      "##न": 1950,
      "##ू": 1951,
      "##ः": 1952,
      "##छ": 1953,
      "##c": 1954,
      "##b": 1955,
      "##̇": 1956,
      "##d": 1957,
      "##u": 1958,
      "##t": 1959,
      "##स": 1960,
      "##)": 1961,
      "##亲": 1962,
      "##和": 1963,
      "##祖": 1964,
      "##国": 1965,
      "##в": 1966,
      "##а": 1967,
      "##л": 1968,
      "##и": 1969,
      "##,": 1970,
      "##ं": 1971,
      "##ड": 1972,
      "##झ": 1973,
      "##ै": 1974,
      "##ृ": 1975,
      "##ध": 1976,
      "##इ": 1977,
      "##f": 1978,
      "##ந": 1979,
      "##ण": 1980,
      "##ṁ": 1981,
      "##ग": 1982,
      "##ळ": 1983,
      "##ल": 1984,
      "##ौ": 1985,
      "##4": 1986,
      "##m": 1987,
      "##ಿ": 1988,
      "##ु": 1989,
      "##6": 1990,
      "##3": 1991,
      "##ख": 1992,
      "##1": 1993,
      "##ओ": 1994,
      "##ʟ": 1995,
      "##ᴇ": 1996,
      "##ᴀ": 1997,
      "##ത": 1998,
      "##꣡": 1999,
      "##अ": 2000,
      "##ए": 2001,
      "##ब": 2002,
      "##ა": 2003,
      "##რ": 2004,
      "##დ": 2005,
      "##8": 2006,
      "##2": 2007,
      "##0": 2008,
      "##ॉ": 2009,
      "##०": 2010,
      "##ठ": 2011,
      "##ई": 2012,
      "##२": 2013,
      "##ā": 2014,
      "##ɜ": 2015,
      "##३": 2016,
      "##५": 2017,
      "##ˈ": 2018,
      "##ː": 2019,
      "##भ": 2020,
      "##४": 2021,
      "##q": 2022,
      "##☝": 2023,
      "##ై": 2024,
      "##़": 2025,
      "##:": 2026,
      "##?": 2027,
      "##ॄ": 2028,
      "##ц": 2029,
      "##ь": 2030,
      "##ञ": 2031,
      "##7": 2032,
      "##ꣳ": 2033,
      "##̪": 2034,
      "##ə": 2035,
      "##॒": 2036,
      "##%": 2037,
      "##॑": 2038,
      "##ढ": 2039,
      "##ı": 2040,
      "##>": 2041,
      "##.": 2042,
      "##á": 2043,
      "##天": 2044,
      "##堂": 2045,
      "##更": 2046,
      "##伟": 2047,
      "##б": 2048,
      "##р": 2049,
      "##ജ": 2050,
      "##१": 2051,
      "##घ": 2052,
      "##т": 2053,
      "##६": 2054,
      "##í": 2055,
      "##八": 2056,
      "##ê": 2057,
      "##💏": 2058,
      "##ற": 2059,
      "##і": 2060,
      "##о": 2061,
      "##д": 2062,
      "##ॊ": 2063,
      "##ñ": 2064,
      "##ش": 2065,
      "##'": 2066,
      "##ó": 2067,
      "##ü": 2068,
      "##~": 2069,
      "##而": 2070,
      "##ú": 2071,
      "##+": 2072,
      "##!": 2073,
      "##ж": 2074,
      "##н": 2075,
      "##ω": 2076,
      "##є": 2077,
      "##τ": 2078,
      "##±": 2079,
      "##雨": 2080,
      "##자": 2081,
      "##ॆ": 2082,
      "##я": 2083,
      "##ห": 2084,
      "##า": 2085,
      "##ï": 2086,
      "##ऋ": 2087,
      "##ऌ": 2088,
      "##ऍ": 2089,
      "##ऎ": 2090,
      "##-": 2091,
      "##ੱ": 2092,
      "##ਕ": 2093,
      "##*": 2094,
      "##й": 2095,
      "##п": 2096,
      "##️": 2097,
      "##⃣": 2098,
      "##ƒ": 2099,
      "##有": 2100,
      "##ી": 2101,
      "##॥": 2102,
      "##ɑ": 2103,
      "##फ": 2104,
      "##þ": 2105,
      "##ū": 2106,
      "##ङ": 2107,
      "##ī": 2108,
      "##।": 2109,
      "##᳚": 2110,
      "##м": 2111,
      "##é": 2112,
      "##ρ": 2113,
      "##χ": 2114,
      "##ι": 2115,
      "##μ": 2116,
      "##程": 2117,
      "##া": 2118,
      "##ন": 2119,
      "##划": 2120,
      "##ν": 2121,
      "##ദ": 2122,
      "##\"": 2123,
      "###": 2124,
      "##🙏": 2125,
      "##]": 2126,
      "##晴": 2127,
      "##ら": 2128,
      "##し": 2129,
      "##か": 2130,
      "##î": 2131,
      "##ン": 2132,
      "##デ": 2133,
      "##ས": 2134,
      "##ങ": 2135,
      "##냐": 2136,
      "##щ": 2137,
      "##⭐": 2138,
      "##आ": 2139,
      "##ع": 2140,
      "##ب": 2141,
      "##د": 2142,
      "##语": 2143,
      "##ള": 2144,
      "##신": 2145,
      "##중": 2146,
      "##입": 2147,
      "##니": 2148,
      "##ו": 2149,
      "##ט": 2150,
      "##ل": 2151,
      "##ا": 2152,
      "##е": 2153,
      "##ፂ": 2154,
      "##х": 2155,
      "##у": 2156,
      "##习": 2157,
      "##咒": 2158,
      "##能": 2159,
      "##成": 2160,
      "##果": 2161,
      "##ऐ": 2162,
      "##ě": 2163,
      "##ॅ": 2164,
      "##월": 2165,
      "##ṣ": 2166,
      "##ર": 2167,
      "##生": 2168,
      "##亦": 2169,
      "##立": 2170,
      "##っ": 2171,
      "##て": 2172,
      "##き": 2173,
      "##ʒ": 2174,
      "##ɛ": 2175,
      "##த": 2176,
      "##ɪ": 2177,
      "##ರ": 2178,
      "##ಳ": 2179,
      "##σ": 2180,
      "##య": 2181,
      "##ం": 2182,
      "##ō": 2183,
      "##汇": 2184,
      "##ા": 2185,
      "##ە": 2186,
      "##و": 2187,
      "##ی": 2188,
      "##ق": 2189,
      "##ي": 2190,
      "##음": 2191,
      "##하": 2192,
      "##기": 2193,
      "##ನ": 2194,
      "##者": 2195,
      "##观": 2196,
      "##何": 2197,
      "##为": 2198,
      "##📺": 2199,
      "##切": 2200,
      "##具": 2201,
      "##倒": 2202,
      "##义": 2203,
      "##ł": 2204,
      "##י": 2205,
      "##利": 2206,
      "##🌹": 2207,
      "##{": 2208,
      "##◆": 2209,
      "##ய": 2210,
      "##ṭ": 2211,
      "##إ": 2212,
      "##ك": 2213,
      "##=": 2214,
      "##ś": 2215,
      "##ప": 2216,
      "##న": 2217,
      "##存": 2218,
      "##废": 2219,
      "##讨": 2220,
      "##论": 2221,
      "##月": 2222,
      "##′": 2223,
      "##ک": 2224,
      "##ø": 2225,
      "##พ": 2226,
      "##疆": 2227,
      "##维": 2228,
      "##¦": 2229,
      "##ጻ": 2230,
      "##ი": 2231,
      "##გ": 2232,
      "##უ": 2233,
      "##ᘏ": 2234,
      "##ᗢ": 2235,
      "##引": 2236,
      "##一": 2237,
      "##к": 2238,
      "##事": 2239,
      "##處": 2240,
      "##ત": 2241,
      "##お": 2242,
      "##あ": 2243,
      "##め": 2244,
      "##פ": 2245,
      "##🏻": 2246,
      "##ด": 2247,
      "##과": 2248,
      "##🌺": 2249,
      "##&": 2250,
      "##г": 2251,
      "##ऊ": 2252,
      "##ت": 2253,
      "##운": 2254,
      "##이": 2255,
      "##ز": 2256,
      "##ॡ": 2257,
      "##ച": 2258,
      "##ì": 2259,
      "##ž": 2260,
      "##は": 2261,
      "##よ": 2262,
      "##う": 2263,
      "##ご": 2264,
      "##ю": 2265,
      "##ы": 2266,
      "##ر": 2267,
      "##ح": 2268,
      "##م": 2269,
      "##с": 2270,
      "##영": 2271,
      "##상": 2272,
      "##自": 2273,
      "##知": 2274,
      "##故": 2275,
      "##ṛ": 2276,
      "##ʊ": 2277,
      "##ة": 2278,
      "##ס": 2279,
      "##¤": 2280,
      "##à": 2281,
      "##@": 2282,
      "##가": 2283,
      "##ラ": 2284,
      "##ー": 2285,
      "##テ": 2286,
      "##リ": 2287,
      "##ズ": 2288,
      "##名": 2289,
      "##č": 2290,
      "##પ": 2291,
      "##增": 2292,
      "##ه": 2293,
      "##യ": 2294,
      "##ി": 2295,
      "##語": 2296,
      "##게": 2297,
      "##দ": 2298,
      "##ш": 2299,
      "##ો": 2300,
      "##ʼ": 2301,
      "##ট": 2302,
      "##👉": 2303,
      "##ಾ": 2304,
      "##ಮ": 2305,
      "##ব": 2306,
      "##ء": 2307,
      "##ن": 2308,
      "##バ": 2309,
      "##ッ": 2310,
      "##ク": 2311,
      "##げ": 2312,
      "##つ": 2313,
      "##ә": 2314,
      "##ہ": 2315,
      "##セ": 2316,
      "##イ": 2317,
      "##ö": 2318,
      "##[": 2319,
      "##六": 2320,
      "##い": 2321,
      "##ま": 2322,
      "##す": 2323,
      "##●": 2324,
      "##ව": 2325,
      "##ǁ": 2326,
      "##吸": 2327,
      "##收": 2328,
      "##哉": 2329,
      "##婆": 2330,
      "##薩": 2331,
      "##哷": 2332,
      "##那": 2333,
      "##休": 2334,
      "##ல": 2335,
      "##😳": 2336,
      "##ײ": 2337,
      "##ַ": 2338,
      "##â": 2339,
      "##😄": 2340,
      "##な": 2341,
      "##通": 2342,
      "##话": 2343,
      "##ኳ": 2344,
      "##ր": 2345,
      "##ե": 2346,
      "##ւ": 2347,
      "##ա": 2348,
      "##য": 2349,
      "##়": 2350,
      "##키": 2351,
      "##낱": 2352,
      "##말": 2353,
      "##사": 2354,
      "##ą": 2355,
      "##ş": 2356,
      "##ˆ": 2357,
      "##ف": 2358,
      "##ת": 2359,
      "##金": 2360,
      "##ん": 2361,
      "##ര": 2362,
      "##ř": 2363,
      "##/": 2364,
      "##س": 2365,
      "##许": 2366,
      "##彼": 2367,
      "##域": 2368,
      "##稱": 2369,
      "##得": 2370,
      "##显": 2371,
      "##•": 2372,
      "##ṇ": 2373,
      "##ฮ": 2374,
      "##ם": 2375,
      "##当": 2376,
      "##💑": 2377,
      "##ɒ": 2378,
      "##入": 2379,
      "##🌄": 2380,
      "##ர": 2381,
      "##む": 2382,
      "##作": 2383,
      "##二": 2384,
      "##册": 2385,
      "##可": 2386,
      "##口": 2387,
      "##哥": 2388,
      "##ગ": 2389,
      "##ཁ": 2390,
      "##의": 2391,
      "##ç": 2392,
      "##ऩ": 2393,
      "##用": 2394,
      "##期": 2395,
      "##間": 2396,
      "##›": 2397,
      "##π": 2398,
      "##ô": 2399,
      "##シ": 2400,
      "##ョ": 2401,
      "##만": 2402,
      "##간": 2403,
      "##ч": 2404,
      "##ન": 2405,
      "##৷": 2406,
      "##œ": 2407,
      "##వ": 2408,
      "##త": 2409,
      "##ҫ": 2410,
      "##け": 2411,
      "##ē": 2412,
      "##전": 2413,
      "##히": 2414,
      "##➧": 2415,
      "##æ": 2416,
      "##余": 2417,
      "##我": 2418,
      "##贪": 2419,
      "##ג": 2420,
      "##→": 2421,
      "##ר": 2422,
      "##જ": 2423,
      "##સ": 2424,
      "##ð": 2425,
      "##ॢ": 2426,
      "##ῖ": 2427,
      "##于": 2428,
      "##答": 2429,
      "##ܘ": 2430,
      "##ܠ": 2431,
      "##ܦ": 2432,
      "##ܐ": 2433,
      "##ư": 2434,
      "##ತ": 2435,
      "##发": 2436,
      "##音": 2437,
      "##ზ": 2438,
      "##চ": 2439,
      "##క": 2440,
      "##ắ": 2441,
      "##쉬": 2442,
      "##시": 2443,
      "##ä": 2444,
      "##ط": 2445,
      "##🏽": 2446,
      "##થ": 2447,
      "##꣢": 2448,
      "##ম": 2449,
      "##←": 2450,
      "##ṃ": 2451,
      "##ど": 2452,
      "##叉": 2453,
      "##ى": 2454,
      "##چ": 2455,
      "##지": 2456,
      "##ę": 2457,
      "##使": 2458,
      "##દ": 2459,
      "##ɔ": 2460,
      "##ʏ": 2461,
      "##ᄌ": 2462,
      "##}": 2463,
      "##ப": 2464,
      "##대": 2465,
      "##못": 2466,
      "##깨": 2467,
      "##는": 2468,
      "##ḍ": 2469,
      "##॓": 2470,
      "##处": 2471,
      "##ऱ": 2472,
      "##整": 2473,
      "##年": 2474,
      "##の": 2475,
      "##影": 2476,
      "##響": 2477,
      "##さ": 2478,
      "##😍": 2479,
      "##മ": 2480,
      "##ャ": 2481,
      "##정": 2482,
      "##한": 2483,
      "##る": 2484,
      "##ਟ": 2485,
      "##ত": 2486,
      "##ჱ": 2487,
      "##ᛋ": 2488,
      "##گ": 2489,
      "##হ": 2490,
      "##ক": 2491,
      "##🌷": 2492,
      "##く": 2493,
      "##함": 2494,
      "##α": 2495,
      "##κ": 2496,
      "##ά": 2497,
      "##韩": 2498,
      "##民": 2499,
      "##ன": 2500,
      "##ה": 2501,
      "##🖊": 2502,
      "##🌙": 2503,
      "##進": 2504,
      "##康": 2505,
      "##ள": 2506,
      "##ু": 2507,
      "##$": 2508,
      "##互": 2509,
      "##相": 2510,
      "##杂": 2511,
      "##乱": 2512,
      "##✓": 2513,
      "##수": 2514,
      "##증": 2515,
      "##ŋ": 2516,
      "##ק": 2517,
      "##白": 2518,
      "##猫": 2519,
      "##所": 2520,
      "##复": 2521,
      "##须": 2522,
      "##째": 2523,
      "##ળ": 2524,
      "##ખ": 2525,
      "##ς": 2526,
      "##障": 2527,
      "##染": 2528,
      "##હ": 2529,
      "##ુ": 2530,
      "##외": 2531,
      "##🇮": 2532,
      "##🇳": 2533,
      "##学": 2534,
      "##ф": 2535,
      "##≍": 2536,
      "##^": 2537,
      "##的": 2538,
      "##父": 2539,
      "##ന": 2540,
      "##終": 2541,
      "##電": 2542,
      "##車": 2543,
      "##ṅ": 2544,
      "##错": 2545,
      "##書": 2546,
      "##😞": 2547,
      "##<": 2548,
      "##ऄ": 2549,
      "##০": 2550,
      "##৩": 2551,
      "##代": 2552,
      "##十": 2553,
      "##ம": 2554,
      "##ئ": 2555,
      "##依": 2556,
      "##诸": 2557,
      "##φ": 2558,
      "##ܒ": 2559,
      "##ܛ": 2560,
      "##从": 2561,
      "##身": 2562,
      "##ય": 2563,
      "##િ": 2564,
      "##地": 2565,
      "##ć": 2566,
      "##വ": 2567,
      "##א": 2568,
      "##や": 2569,
      "##👈": 2570,
      "##灭": 2571,
      "##常": 2572,
      "##如": 2573,
      "##类": 2574,
      "##ర": 2575,
      "##益": 2576,
      "##转": 2577,
      "##应": 2578,
      "##▼": 2579,
      "##·": 2580,
      "##ക": 2581,
      "##威": 2582,
      "##れ": 2583,
      "##✍": 2584,
      "##首": 2585,
      "##席": 2586,
      "##飞": 2587,
      "##衆": 2588,
      "##發": 2589,
      "##願": 2590,
      "##ે": 2591,
      "##ॿ": 2592,
      "##ස": 2593,
      "##ක": 2594,
      "##星": 2595,
      "##백": 2596,
      "##😊": 2597,
      "##ದ": 2598,
      "##ཊ": 2599,
      "##૦": 2600,
      "##解": 2601,
      "##新": 2602,
      "##安": 2603,
      "##্": 2604,
      "##⠀": 2605,
      "##༨": 2606,
      "##×": 2607,
      "##૪": 2608,
      "##ڪ": 2609,
      "##į": 2610,
      "##ೋ": 2611,
      "##다": 2612,
      "##£": 2613,
      "##无": 2614,
      "##异": 2615,
      "##过": 2616,
      "##同": 2617,
      "##ʋ": 2618,
      "##°": 2619,
      "##에": 2620,
      "##ル": 2621,
      "##औ": 2622,
      "##ܣ": 2623,
      "##ಕ": 2624,
      "##봇": 2625,
      "##ל": 2626,
      "##è": 2627,
      "##因": 2628,
      "##性": 2629,
      "##决": 2630,
      "##定": 2631,
      "##パ": 2632,
      "##続": 2633,
      "##繁": 2634,
      "##栄": 2635,
      "##效": 2636,
      "##터": 2637,
      "##레": 2638,
      "##서": 2639,
      "##📰": 2640,
      "##运": 2641,
      "##行": 2642,
      "##检": 2643,
      "##查": 2644,
      "##ᳲ": 2645,
      "##름": 2646,
      "##್": 2647,
      "##อ": 2648,
      "##ต": 2649,
      "##朝": 2650,
      "##🍃": 2651,
      "##量": 2652,
      "##颂": 2653,
      "##ല": 2654,
      "##ક": 2655,
      "##ο": 2656,
      "##≥": 2657,
      "##🎉": 2658,
      "##🍾": 2659,
      "##❌": 2660,
      "##ಪ": 2661,
      "##ಹ": 2662,
      "##õ": 2663,
      "##ȧ": 2664,
      "##‹": 2665,
      "##⚕": 2666,
      "##ȯ": 2667,
      "##介": 2668,
      "##発": 2669,
      "##を": 2670,
      "##ᳬ": 2671,
      "##آ": 2672,
      "##ే": 2673,
      "##ὕ": 2674,
      "##η": 2675,
      "##급": 2676,
      "##એ": 2677,
      "##与": 2678,
      "##声": 2679,
      "##属": 2680,
      "##э": 2681,
      "##з": 2682,
      "##宦": 2683,
      "##ऴ": 2684,
      "##ફ": 2685,
      "##(": 2686,
      "##觉": 2687,
      "##言": 2688,
      "##💮": 2689,
      "##ᄉ": 2690,
      "##세": 2691,
      "##🎶": 2692,
      "##京": 2693,
      "##都": 2694,
      "##θ": 2695,
      "##ٹ": 2696,
      "##합": 2697,
      "##吥": 2698,
      "##૧": 2699,
      "##ਣ": 2700,
      "##蝶": 2701,
      "##葬": 2702,
      "##花": 2703,
      "##ע": 2704,
      "##ב": 2705,
      "##ਲ": 2706,
      "##ý": 2707,
      "##ੇ": 2708,
      "##球": 2709,
      "##ち": 2710,
      "##ゃ": 2711,
      "##ɡ": 2712,
      "##√": 2713,
      "##¢": 2714,
      "##🔐": 2715,
      "##ো": 2716,
      "##গ": 2717,
      "##🔥": 2718,
      "##陸": 2719,
      "##了": 2720,
      "##达": 2721,
      "##各": 2722,
      "##别": 2723,
      "##브": 2724,
      "##라": 2725,
      "##뜨": 2726,
      "##리": 2727,
      "##성": 2728,
      "##듬": 2729,
      "##ᛁ": 2730,
      "##ᛞ": 2731,
      "##ᛖ": 2732,
      "##ಟ": 2733,
      "##💔": 2734,
      "##ই": 2735,
      "##ė": 2736,
      "##印": 2737,
      "##度": 2738,
      "##জ": 2739,
      "##世": 2740,
      "##间": 2741,
      "##ଡ": 2742,
      "##מ": 2743,
      "##ד": 2744,
      "##ש": 2745,
      "##ス": 2746,
      "##🚩": 2747,
      "##合": 2748,
      "##ᚻ": 2749,
      "##ᚩ": 2750,
      "##ᛗ": 2751,
      "##チ": 2752,
      "##コ": 2753,
      "##マ": 2754,
      "##比": 2755,
      "##其": 2756,
      "##민": 2757,
      "##反": 2758,
      "##意": 2759,
      "##ೇ": 2760,
      "##스": 2761,
      "##크": 2762,
      "##份": 2763,
      "##報": 2764,
      "##告": 2765,
      "##ூ": 2766,
      "##句": 2767,
      "##中": 2768,
      "##ן": 2769,
      "##ල": 2770,
      "##ද": 2771,
      "##ය": 2772,
      "##说": 2773,
      "##ც": 2774,
      "##ვ": 2775,
      "##ე": 2776,
      "##ნ": 2777,
      "##ṝ": 2778,
      "##국": 2779,
      "##不": 2780,
      "##念": 2781,
      "##长": 2782,
      "##ಗ": 2783,
      "##ਸ": 2784,
      "##工": 2785,
      "##师": 2786,
      "##此": 2787,
      "##遣": 2788,
      "##除": 2789,
      "##理": 2790,
      "##ண": 2791,
      "##்": 2792,
      "##교": 2793,
      "##ቮ": 2794,
      "##ト": 2795,
      "##ۇ": 2796,
      "##🌞": 2797,
      "##非": 2798,
      "##龙": 2799,
      "##弥": 2800,
      "##ട": 2801,
      "##ዝ": 2802,
      "##ብ": 2803,
      "##岂": 2804,
      "##ア": 2805,
      "##ジ": 2806,
      "##ὸ": 2807,
      "##요": 2808,
      "##ں": 2809,
      "##ʌ": 2810,
      "##ʃ": 2811,
      "##나": 2812,
      "##ி": 2813,
      "##\\": 2814,
      "##청": 2815,
      "##が": 2816,
      "##💫": 2817,
      "##ج": 2818,
      "##❤": 2819,
      "##尔": 2820,
      "##破": 2821,
      "##位": 2822,
      "##格": 2823,
      "##研": 2824,
      "##究": 2825,
      "##¬": 2826,
      "##᳘": 2827,
      "##𑐴": 2828,
      "##॰": 2829,
      "##逝": 2830,
      "##孕": 2831,
      "##팅": 2832,
      "##්": 2833,
      "##ಭ": 2834,
      "##ף": 2835,
      "##ذ": 2836,
      "##好": 2837,
      "##å": 2838,
      "##款": 2839,
      "##인": 2840,
      "##ј": 2841,
      "##泊": 2842,
      "##્": 2843,
      "##ۆ": 2844,
      "##加": 2845,
      "##返": 2846,
      "##た": 2847,
      "##ऑ": 2848,
      "##然": 2849,
      "##ੋ": 2850,
      "##で": 2851,
      "##广": 2852,
      "##ǔ": 2853,
      "##ᛚ": 2854,
      "##时": 2855,
      "##表": 2856,
      "##是": 2857,
      "##闻": 2858,
      "##ロ": 2859,
      "##境": 2860,
      "##ಂ": 2861,
      "##👌": 2862,
      "##政": 2863,
      "##官": 2864,
      "##员": 2865,
      "##♀": 2866,
      "##술": 2867,
      "##器": 2868,
      "##人": 2869,
      "##두": 2870,
      "##어": 2871,
      "##로": 2872,
      "##ீ": 2873,
      "##章": 2874,
      "##消": 2875,
      "##ё": 2876,
      "##み": 2877,
      "##止": 2878,
      "##ॺ": 2879,
      "##ૠ": 2880,
      "##வ": 2881,
      "##國": 2882,
      "##ڌ": 2883,
      "##出": 2884,
      "##文": 2885,
      "##କ": 2886,
      "##仕": 2887,
      "##少": 2888,
      "##ሩ": 2889,
      "##મ": 2890,
      "##小": 2891,
      "##吗": 2892,
      "##ʁ": 2893,
      "##탄": 2894,
      "##력": 2895,
      "##적": 2896,
      "##ৰ": 2897,
      "##🇵": 2898,
      "##💛": 2899,
      "##ボ": 2900,
      "##页": 2901,
      "##پ": 2902,
      "##茶": 2903,
      "##ひ": 2904,
      "##と": 2905,
      "##。": 2906,
      "##ീ": 2907,
      "##械": 2908,
      "##్": 2909,
      "##ʉ": 2910,
      "##כ": 2911,
      "##ལ": 2912,
      "##📸": 2913,
      "##ਮ": 2914,
      "##ã": 2915,
      "##🤲": 2916,
      "##個": 2917,
      "##ᭅ": 2918,
      "##‡": 2919,
      "##೨": 2920,
      "##೪": 2921,
      "##락": 2922,
      "##忘": 2923,
      "##記": 2924,
      "##憶": 2925,
      "##염": 2926,
      "##δ": 2927,
      "##ḏ": 2928,
      "##ഭ": 2929,
      "##्य": 2930,
      "##्र": 2931,
      "##्त": 2932,
      "##्व": 2933,
      "प्र": 2934,
      "##र्": 2935,
      "##ति": 2936,
      "वि": 2937,
      "##त्": 2938,
      "्य": 2939,
      "##ान": 2940,
      "##ार": 2941,
      "##्ष": 2942,
      "म्": 2943,
      "ान": 2944,
      "्र": 2945,
      "##ित": 2946,
      "##ां": 2947,
      "##ष्": 2948,
      "##म्": 2949,
      "स्य": 2950,
      "ते": 2951,
      "##त्र": 2952,
      "स्": 2953,
      "##न्": 2954,
      "नि": 2955,
      "वा": 2956,
      "##क्ष": 2957,
      "##र्व": 2958,
      "ित": 2959,
      "##द्": 2960,
      "र्": 2961,
      "सं": 2962,
      "##ाम": 2963,
      "पर": 2964,
      "##क्त": 2965,
      "पु": 2966,
      "##ृत": 2967,
      "##्च": 2968,
      "्व": 2969,
      "##्या": 2970,
      "##था": 2971,
      "न्त": 2972,
      "भव": 2973,
      "त्व": 2974,
      "मा": 2975,
      "##ेव": 2976,
      "ाः": 2977,
      "सम": 2978,
      "इति": 2979,
      "या": 2980,
      "##त्य": 2981,
      "ति": 2982,
      "ेन": 2983,
      "##स्त": 2984,
      "##ते": 2985,
      "रा": 2986,
      "##ष्ट": 2987,
      "सर्व": 2988,
      "##स्": 2989,
      "ाद": 2990,
      "##पि": 2991,
      "भा": 2992,
      "##न्त": 2993,
      "एव": 2994,
      "क्ष": 2995,
      "न्": 2996,
      "यो": 2997,
      "तु": 2998,
      "स्व": 2999,
      "सा": 3000,
      "##स्य": 3001,
      "कर": 3002,
      "##्ञ": 3003,
      "स्त": 3004,
      "##या": 3005,
      "कार": 3006,
      "##र्थ": 3007,
      "का": 3008,
      "##द्ध": 3009,
      "त्": 3010,
      "सु": 3011,
      "ाय": 3012,
      "ात्": 3013,
      "त्र": 3014,
      "##ना": 3015,
      "मु": 3016,
      "हि": 3017,
      "##मा": 3018,
      "##ेश": 3019,
      "##दा": 3020,
      "वर्": 3021,
      "##िक": 3022,
      "िक": 3023,
      "कि": 3024,
      "व्य": 3025,
      "##ात": 3026,
      "पू": 3027,
      "अन": 3028,
      "्या": 3029,
      "यु": 3030,
      "ार": 3031,
      "ना": 3032,
      "इत्य": 3033,
      "दि": 3034,
      "स्थ": 3035,
      "ेष": 3036,
      "##तः": 3037,
      "पा": 3038,
      "ज्ञ": 3039,
      "ता": 3040,
      "क्र": 3041,
      "##्न": 3042,
      "##र्म": 3043,
      "कु": 3044,
      "ये": 3045,
      "देव": 3046,
      "ाण": 3047,
      "##मि": 3048,
      "श्र": 3049,
      "##्छ": 3050,
      "ानि": 3051,
      "भू": 3052,
      "यद": 3053,
      "पि": 3054,
      "##त्त": 3055,
      "मह": 3056,
      "यथा": 3057,
      "ाप": 3058,
      "राज": 3059,
      "मे": 3060,
      "दृ": 3061,
      "कृत": 3062,
      "ष्": 3063,
      "प्रति": 3064,
      "द्व": 3065,
      "एक": 3066,
      "गु": 3067,
      "##ूप": 3068,
      "मान": 3069,
      "##यं": 3070,
      "##ेष": 3071,
      "परि": 3072,
      "##ेद": 3073,
      "विश": 3074,
      "ानां": 3075,
      "ङ्": 3076,
      "पुन": 3077,
      "ाव": 3078,
      "वर": 3079,
      "##िय": 3080,
      "##स्ति": 3081,
      "सह": 3082,
      "श्च": 3083,
      "दु": 3084,
      "##ष्ठ": 3085,
      "तथा": 3086,
      "ग्र": 3087,
      "तद": 3088,
      "भि": 3089,
      "##ेत": 3090,
      "नु": 3091,
      "##द्य": 3092,
      "##ाय": 3093,
      "तत्": 3094,
      "काल": 3095,
      "्वा": 3096,
      "##ङ्": 3097,
      "ेण": 3098,
      "##श्च": 3099,
      "सि": 3100,
      "##ता": 3101,
      "##भा": 3102,
      "##श्य": 3103,
      "ेव": 3104,
      "त्य": 3105,
      "सू": 3106,
      "##ीय": 3107,
      "##ान्": 3108,
      "##द्र": 3109,
      "तः": 3110,
      "देश": 3111,
      "ार्थ": 3112,
      "भवति": 3113,
      "ेषु": 3114,
      "ां": 3115,
      "िन": 3116,
      "रूप": 3117,
      "##च्छ": 3118,
      "यति": 3119,
      "रि": 3120,
      "ाह": 3121,
      "##ब्": 3122,
      "रु": 3123,
      "##ोक": 3124,
      "##रण": 3125,
      "वै": 3126,
      "##ेन": 3127,
      "वर्ष": 3128,
      "ादि": 3129,
      "ान्": 3130,
      "िः": 3131,
      "##ीत": 3132,
      "कथ": 3133,
      "मन": 3134,
      "उप": 3135,
      "पुर": 3136,
      "##ृह": 3137,
      "्त": 3138,
      "किं": 3139,
      "र्थ": 3140,
      "ाल": 3141,
      "पूर्व": 3142,
      "ैः": 3143,
      "##ध्य": 3144,
      "न्य": 3145,
      "तस्य": 3146,
      "यत्": 3147,
      "शि": 3148,
      "ान्त": 3149,
      "ेत": 3150,
      "सम्": 3151,
      "##भि": 3152,
      "मि": 3153,
      "गृह": 3154,
      "ीय": 3155,
      "भाष": 3156,
      "त्त": 3157,
      "जन": 3158,
      "पद": 3159,
      "प्रा": 3160,
      "भाव": 3161,
      "द्": 3162,
      "##यो": 3163,
      "##ास": 3164,
      "योग": 3165,
      "ास": 3166,
      "र्त": 3167,
      "एत": 3168,
      "अपि": 3169,
      "##न्द": 3170,
      "विष": 3171,
      "##ैव": 3172,
      "ोऽ": 3173,
      "यदि": 3174,
      "विध": 3175,
      "कृ": 3176,
      "##र्ण": 3177,
      "नाम": 3178,
      "कर्म": 3179,
      "##यः": 3180,
      "##्ड": 3181,
      "##त्व": 3182,
      "##्प": 3183,
      "##ाद": 3184,
      "##ाल": 3185,
      "तत्र": 3186,
      "ाम": 3187,
      "लोक": 3188,
      "रो": 3189,
      "##ब्द": 3190,
      "लि": 3191,
      "वृत": 3192,
      "धिक": 3193,
      "याम": 3194,
      "कल": 3195,
      "धर्म": 3196,
      "को": 3197,
      "अस्ति": 3198,
      "न्ति": 3199,
      "मम": 3200,
      "वृ": 3201,
      "्म": 3202,
      "ज्ञान": 3203,
      "##न्ध": 3204,
      "##ाः": 3205,
      "##र्श": 3206,
      "गुण": 3207,
      "जी": 3208,
      "##भव": 3209,
      "##्ल": 3210,
      "शब्द": 3211,
      "िद": 3212,
      "कार्य": 3213,
      "एवं": 3214,
      "बह": 3215,
      "##ये": 3216,
      "स्म": 3217,
      "##ीर": 3218,
      "ष्ट": 3219,
      "ात": 3220,
      "##न्न": 3221,
      "अध": 3222,
      "अह": 3223,
      "न्त्र": 3224,
      "वृत्त": 3225,
      "##िष्": 3226,
      "अथ": 3227,
      "##ङ्ग": 3228,
      "शु": 3229,
      "दृष्ट": 3230,
      "तम": 3231,
      "ेति": 3232,
      "व्या": 3233,
      "ाप्त": 3234,
      "पुनः": 3235,
      "के": 3236,
      "##ुत": 3237,
      "मित": 3238,
      "ाणि": 3239,
      "अनु": 3240,
      "निर्": 3241,
      "त्वं": 3242,
      "ती": 3243,
      "मध्य": 3244,
      "जीव": 3245,
      "धन": 3246,
      "##व्य": 3247,
      "गत": 3248,
      "फल": 3249,
      "भूत": 3250,
      "##मान": 3251,
      "##न्ति": 3252,
      "द्य": 3253,
      "तव": 3254,
      "ेश": 3255,
      "ुक्त": 3256,
      "भाग": 3257,
      "यां": 3258,
      "##्ज": 3259,
      "ुर": 3260,
      "##ञ्च": 3261,
      "##कृत": 3262,
      "##क्य": 3263,
      "##प्त": 3264,
      "विद्य": 3265,
      "पुत्र": 3266,
      "##ुष": 3267,
      "##ाह": 3268,
      "युक्त": 3269,
      "##र्ग": 3270,
      "ाध": 3271,
      "यः": 3272,
      "##वि": 3273,
      "दर्श": 3274,
      "अस": 3275,
      "अप": 3276,
      "मू": 3277,
      "ैव": 3278,
      "##ज्ञ": 3279,
      "वेद": 3280,
      "महा": 3281,
      "##क्": 3282,
      "्थ": 3283,
      "वे": 3284,
      "कर्त": 3285,
      "ततः": 3286,
      "लक्ष": 3287,
      "भार": 3288,
      "विशेष": 3289,
      "##ोत": 3290,
      "समा": 3291,
      "##नि": 3292,
      "्मि": 3293,
      "ित्": 3294,
      "पृ": 3295,
      "रक्ष": 3296,
      "िर": 3297,
      "वस": 3298,
      "तेन": 3299,
      "िति": 3300,
      "##्यं": 3301,
      "##गु": 3302,
      "##भ्य": 3303,
      "##तो": 3304,
      "दश": 3305,
      "त्रि": 3306,
      "सिद्ध": 3307,
      "विश्व": 3308,
      "तस्": 3309,
      "तदा": 3310,
      "ाग": 3311,
      "ङ्ग": 3312,
      "्मिन्": 3313,
      "दी": 3314,
      "वर्त": 3315,
      "ग्रह": 3316,
      "##्वर": 3317,
      "सः": 3318,
      "क्त": 3319,
      "शक्त": 3320,
      "कल्प": 3321,
      "आस": 3322,
      "##का": 3323,
      "तो": 3324,
      "##हि": 3325,
      "चित": 3326,
      "करो": 3327,
      "स्थित": 3328,
      "##ेत्": 3329,
      "चि": 3330,
      "द्वि": 3331,
      "##चन": 3332,
      "##कार": 3333,
      "न्द्र": 3334,
      "शा": 3335,
      "##त्तर": 3336,
      "दिन": 3337,
      "##ुं": 3338,
      "##ख्य": 3339,
      "##मन": 3340,
      "दृश्य": 3341,
      "दे": 3342,
      "वान्": 3343,
      "न्ते": 3344,
      "##्म": 3345,
      "दान": 3346,
      "ाच": 3347,
      "क्षि": 3348,
      "करण": 3349,
      "तद्": 3350,
      "केव": 3351,
      "योज": 3352,
      "बहु": 3353,
      "्त्र": 3354,
      "पी": 3355,
      "क्रम": 3356,
      "केवल": 3357,
      "्यते": 3358,
      "धार": 3359,
      "##भाव": 3360,
      "िय": 3361,
      "िं": 3362,
      "ला": 3363,
      "तेष": 3364,
      "अन्य": 3365,
      "ेः": 3366,
      "ोप": 3367,
      "##प्र": 3368,
      "मेव": 3369,
      "##त्वा": 3370,
      "वन": 3371,
      "ाणां": 3372,
      "िव": 3373,
      "ने": 3374,
      "क्रिय": 3375,
      "भेद": 3376,
      "बल": 3377,
      "यामि": 3378,
      "##ती": 3379,
      "##्याय": 3380,
      "##दं": 3381,
      "जात": 3382,
      "प्रथ": 3383,
      "##ोध": 3384,
      "ानु": 3385,
      "कथं": 3386,
      "च्छ": 3387,
      "##रे": 3388,
      "##तु": 3389,
      "पित": 3390,
      "ात्र": 3391,
      "ोक्त": 3392,
      "स्तु": 3393,
      "याः": 3394,
      "हित": 3395,
      "तं": 3396,
      "न्न": 3397,
      "ापि": 3398,
      "##ोष": 3399,
      "बु": 3400,
      "्ल": 3401,
      "मया": 3402,
      "र्व": 3403,
      "िण": 3404,
      "पुरुष": 3405,
      "सुख": 3406,
      "वर्ण": 3407,
      "न्द": 3408,
      "प्रथम": 3409,
      "री": 3410,
      "##च्य": 3411,
      "अव": 3412,
      "सो": 3413,
      "वाद": 3414,
      "काम": 3415,
      "अत्र": 3416,
      "दू": 3417,
      "जा": 3418,
      "ामि": 3419,
      "##ेण": 3420,
      "राष्ट": 3421,
      "स्थान": 3422,
      "साध": 3423,
      "दुः": 3424,
      "##्यते": 3425,
      "अभि": 3426,
      "कारण": 3427,
      "##्नि": 3428,
      "नम": 3429,
      "##गर": 3430,
      "्प": 3431,
      "हं": 3432,
      "##ीत्": 3433,
      "जल": 3434,
      "न्व": 3435,
      "##रु": 3436,
      "अहं": 3437,
      "##ण्ड": 3438,
      "##ेक": 3439,
      "--": 3440,
      "वद": 3441,
      "भविष्": 3442,
      "सप्त": 3443,
      "##ीन": 3444,
      "वचन": 3445,
      "##चार": 3446,
      "एष": 3447,
      "सम्प": 3448,
      "भाषा": 3449,
      "मो": 3450,
      "##योग": 3451,
      "तर": 3452,
      "विषय": 3453,
      "##वा": 3454,
      "ेऽ": 3455,
      "र्म": 3456,
      "अत": 3457,
      "राज्य": 3458,
      "कः": 3459,
      "रण": 3460,
      "हर": 3461,
      "पूज": 3462,
      "##ृद": 3463,
      "##थि": 3464,
      "निर": 3465,
      "ितः": 3466,
      "र्तते": 3467,
      "जग": 3468,
      "परम": 3469,
      "ार्": 3470,
      "अर्थ": 3471,
      "भारत": 3472,
      "##ष्य": 3473,
      "ुं": 3474,
      "तर्": 3475,
      "ष्ठ": 3476,
      "भो": 3477,
      "##यम": 3478,
      "मां": 3479,
      "्ब": 3480,
      "रस": 3481,
      "##ेय": 3482,
      "तया": 3483,
      "य्": 3484,
      "गच्छ": 3485,
      "मत": 3486,
      "भ्य": 3487,
      "गो": 3488,
      "##र्य": 3489,
      "ृष्ठ": 3490,
      "ाक्ष": 3491,
      "भिः": 3492,
      "चा": 3493,
      "तां": 3494,
      "शत": 3495,
      "##वस": 3496,
      "ध्य": 3497,
      "मध्ये": 3498,
      "वत्": 3499,
      "दा": 3500,
      "यत्र": 3501,
      "शी": 3502,
      "नो": 3503,
      "दुःख": 3504,
      "श्व": 3505,
      "हे": 3506,
      "##ानि": 3507,
      "ेत्": 3508,
      "सौ": 3509,
      "िश": 3510,
      "्यात्": 3511,
      "ात्म": 3512,
      "##स्तु": 3513,
      "ालय": 3514,
      "पश्य": 3515,
      "##सा": 3516,
      "दोष": 3517,
      "लक्षण": 3518,
      "नं": 3519,
      "शक्ति": 3520,
      "ाश": 3521,
      "पे": 3522,
      "्न": 3523,
      "नी": 3524,
      "काले": 3525,
      "मूल": 3526,
      "क्षिण": 3527,
      "तस": 3528,
      "##न्म": 3529,
      "तस्मा": 3530,
      "धिकार": 3531,
      "मात्र": 3532,
      "ाक": 3533,
      "से": 3534,
      "यम": 3535,
      "भग": 3536,
      "##ित्य": 3537,
      "##र्त": 3538,
      "वार": 3539,
      "विना": 3540,
      "िका": 3541,
      "यदा": 3542,
      "सर्वे": 3543,
      "##ृश": 3544,
      "अतः": 3545,
      "येत्": 3546,
      "्रि": 3547,
      "ब्र": 3548,
      "उत्तर": 3549,
      "पञ्च": 3550,
      "आसीत्": 3551,
      "हृद": 3552,
      "्यं": 3553,
      "वृद्ध": 3554,
      "धि": 3555,
      "कदा": 3556,
      "हेत": 3557,
      "करोति": 3558,
      "क्षेत": 3559,
      "ैक": 3560,
      "संस": 3561,
      "धा": 3562,
      "्ध": 3563,
      "्रह": 3564,
      "योः": 3565,
      "विक": 3566,
      "्यां": 3567,
      "##देश": 3568,
      "बुद्ध": 3569,
      "क्व": 3570,
      "##यु": 3571,
      "ुप": 3572,
      "बाल": 3573,
      "##ङ्क": 3574,
      "मिति": 3575,
      "ाद्": 3576,
      "माण": 3577,
      "श्रुत": 3578,
      "ैर्": 3579,
      "शक्य": 3580,
      "सद": 3581,
      "##पर": 3582,
      "नमः": 3583,
      "तेषां": 3584,
      "मय": 3585,
      "िता": 3586,
      "वाक्य": 3587,
      "मान्य": 3588,
      "िह": 3589,
      "त्स": 3590,
      "__": 3591,
      "च्च": 3592,
      "िम": 3593,
      "पक्ष": 3594,
      "ेभ्य": 3595,
      "भक्त": 3596,
      "िल": 3597,
      "शर": 3598,
      "यस": 3599,
      "मुख": 3600,
      "अन्त": 3601,
      "कुर्व": 3602,
      "##रा": 3603,
      "भवेत्": 3604,
      "राम": 3605,
      "ण्ड": 3606,
      "##त्प": 3607,
      "ास्": 3608,
      "संश": 3609,
      "क्षण": 3610,
      "ीति": 3611,
      "परा": 3612,
      "ास्ति": 3613,
      "्त्री": 3614,
      "व्र": 3615,
      "सी": 3616,
      "प्राण": 3617,
      "पूर्ण": 3618,
      "मुक्त": 3619,
      "इत": 3620,
      "नगर": 3621,
      "यं": 3622,
      "##स्र": 3623,
      "सर्वं": 3624,
      "दत्त": 3625,
      "बन्ध": 3626,
      "जन्म": 3627,
      "रे": 3628,
      "तथ": 3629,
      "ान्तर": 3630,
      "स्प": 3631,
      "##्यात": 3632,
      "्ट": 3633,
      "पर्य": 3634,
      "ज्ञात": 3635,
      "ाभ": 3636,
      "##ून": 3637,
      "अग": 3638,
      "अस्य": 3639,
      "तर्हि": 3640,
      "शेष": 3641,
      "##काश": 3642,
      "सूच": 3643,
      "र्ष": 3644,
      "जाय": 3645,
      "ित्य": 3646,
      "##ान्त": 3647,
      "दर्शन": 3648,
      "ेक": 3649,
      "यस्य": 3650,
      "एवम": 3651,
      "भय": 3652,
      "पाप": 3653,
      "्री": 3654,
      "स्कृत": 3655,
      "भगव": 3656,
      "इदं": 3657,
      "घट": 3658,
      "##षे": 3659,
      "द्र": 3660,
      "चर": 3661,
      "परं": 3662,
      "ीन": 3663,
      "नव": 3664,
      "निव": 3665,
      "##यन": 3666,
      "्यक्त": 3667,
      "सहस्र": 3668,
      "त्यय": 3669,
      "ज्ज": 3670,
      "चार": 3671,
      "सत्य": 3672,
      "ित्व": 3673,
      "शास्त": 3674,
      "##दि": 3675,
      "ाभि": 3676,
      "यज्ञ": 3677,
      "ेषां": 3678,
      "विधि": 3679,
      "यन्ति": 3680,
      "##च्च": 3681,
      "वाच": 3682,
      "क्": 3683,
      "हस्त": 3684,
      "सदा": 3685,
      "नर": 3686,
      "ाना": 3687,
      "्वर": 3688,
      "साम": 3689,
      "वास": 3690,
      "वयं": 3691,
      "यत": 3692,
      "र्ज": 3693,
      "नां": 3694,
      "ले": 3695,
      "्मा": 3696,
      "वय": 3697,
      "पुं": 3698,
      "इह": 3699,
      "किम": 3700,
      "पाठ": 3701,
      "र्थः": 3702,
      "प्रिय": 3703,
      "##न्तु": 3704,
      "इव": 3705,
      "यू": 3706,
      "की": 3707,
      "णा": 3708,
      "मार्ग": 3709,
      "ञ्च": 3710,
      "पठ": 3711,
      "मास": 3712,
      "##धान": 3713,
      "म्ब": 3714,
      "सन्ति": 3715,
      "ेत्य": 3716,
      "##र्ष": 3717,
      "नियम": 3718,
      "अयं": 3719,
      "्रह्म": 3720,
      "व्याप": 3721,
      "यद्": 3722,
      "विद": 3723,
      "प्य": 3724,
      "वर्षे": 3725,
      "गण": 3726,
      "यात": 3727,
      "मित्र": 3728,
      "पुनर्": 3729,
      "##माण": 3730,
      "सेव": 3731,
      "र्ध": 3732,
      "त्त्व": 3733,
      "शिक्ष": 3734,
      "ततो": 3735,
      "और": 3736,
      "ञ्ज": 3737,
      "येन": 3738,
      "पुनर": 3739,
      "वाह": 3740,
      "धान": 3741,
      "ह्य": 3742,
      "देह": 3743,
      "ङ्क": 3744,
      "द्ध": 3745,
      "ेय": 3746,
      "ंत": 3747,
      "ेद": 3748,
      "##िर": 3749,
      "भ्र": 3750,
      "##ीं": 3751,
      "तत": 3752,
      "्रा": 3753,
      "ाम्": 3754,
      "त्या": 3755,
      "##थाप": 3756,
      "्यक्ष": 3757,
      "ानाम": 3758,
      "##त्तम": 3759,
      "ेश्वर": 3760,
      "##णा": 3761,
      "ल्": 3762,
      "मी": 3763,
      "विभा": 3764,
      "यत्न": 3765,
      "िनः": 3766,
      "केवलं": 3767,
      "ृत्वा": 3768,
      "काश": 3769,
      "यित": 3770,
      "##णु": 3771,
      "ध्व": 3772,
      "शुभ": 3773,
      "वक्त": 3774,
      "मृत": 3775,
      "चित्र": 3776,
      "##दृश": 3777,
      "्वि": 3778,
      "न्याय": 3779,
      "ख्यात": 3780,
      "ान्य": 3781,
      "##ब्ध": 3782,
      "##स्थ": 3783,
      "र्य": 3784,
      "हार": 3785,
      "्रश": 3786,
      "वस्तु": 3787,
      "नः": 3788,
      "िर्": 3789,
      "षु": 3790,
      "पाद": 3791,
      "्रिया": 3792,
      "तिष्ठ": 3793,
      "सूर्य": 3794,
      "चतु": 3795,
      "ाश्च": 3796,
      "कृति": 3797,
      "ीक्ष": 3798,
      "न्तु": 3799,
      "एतत्": 3800,
      "ैर": 3801,
      "ज्य": 3802,
      "रीक्ष": 3803,
      "सन्": 3804,
      "मुद्र": 3805,
      "वक्ष": 3806,
      "्बन्ध": 3807,
      "ंग": 3808,
      "्रिय": 3809,
      "स्न": 3810,
      "सार": 3811,
      "मपि": 3812,
      "शिष्ट": 3813,
      "जायते": 3814,
      "पुरा": 3815,
      "न्तर": 3816,
      "प्राप": 3817,
      "लेख": 3818,
      "्यु": 3819,
      "ाट": 3820,
      "##यत": 3821,
      "्रश्न": 3822,
      "शरीर": 3823,
      "वर्ग": 3824,
      "स्ति": 3825,
      "वीर": 3826,
      "्थान": 3827,
      "##श्वर": 3828,
      "कुल": 3829,
      "ाप्य": 3830,
      "स्या": 3831,
      "ेष्ठ": 3832,
      "##कं": 3833,
      "विर": 3834,
      "द्वित": 3835,
      "##नु": 3836,
      "हेतु": 3837,
      "निष्": 3838,
      "वेश": 3839,
      "ितम्": 3840,
      "दैव": 3841,
      "ग्रहण": 3842,
      "पृथ": 3843,
      "##ग्": 3844,
      "ण्": 3845,
      "िद्या": 3846,
      "गम": 3847,
      "यथ": 3848,
      "सूत्र": 3849,
      "लो": 3850,
      "रथ": 3851,
      "पेक्ष": 3852,
      "दूर": 3853,
      "सर": 3854,
      "नित्य": 3855,
      "ीत": 3856,
      "##णि": 3857,
      "विभाग": 3858,
      "चल": 3859,
      "धात": 3860,
      "्रकाश": 3861,
      "राजा": 3862,
      "नृ": 3863,
      "##वत्": 3864,
      "किम्": 3865,
      "आत्": 3866,
      "श्री": 3867,
      "्ञ": 3868,
      "बा": 3869,
      "न्यथा": 3870,
      "गुरु": 3871,
      "लिख": 3872,
      "ेह": 3873,
      "तप": 3874,
      "##्यास": 3875,
      "ल्ल": 3876,
      "कदाच": 3877,
      "##वी": 3878,
      "िष": 3879,
      "ुम": 3880,
      "न्ध": 3881,
      "यते": 3882,
      "्रष्ट": 3883,
      "सङ्ग": 3884,
      "सम्भव": 3885,
      "स्याः": 3886,
      "##ख्या": 3887,
      "##वर": 3888,
      "##er": 3889,
      "म्भ": 3890,
      "ल्प": 3891,
      "था": 3892,
      "दुर्": 3893,
      "यन्त": 3894,
      "ुल": 3895,
      "योजन": 3896,
      "ेक्ष": 3897,
      "खः": 3898,
      "##ज्य": 3899,
      "मध": 3900,
      "ूर्ण": 3901,
      "अद्य": 3902,
      "एते": 3903,
      "विषये": 3904,
      "वल": 3905,
      "##षेध": 3906,
      "त्वया": 3907,
      "िक्ष": 3908,
      "ग्न": 3909,
      "हृदय": 3910,
      "त्वेन": 3911,
      "सोम": 3912,
      "कश्च": 3913,
      "##st": 3914,
      "ज्ञा": 3915,
      "##करण": 3916,
      "वत": 3917,
      "रात्र": 3918,
      "स्त्र": 3919,
      "जना": 3920,
      "ाई": 3921,
      "वृक्ष": 3922,
      "कौ": 3923,
      "वायु": 3924,
      "करिष्": 3925,
      "##ष्ण": 3926,
      "ृत्य": 3927,
      "्रत्य": 3928,
      "सृ": 3929,
      "ऽपि": 3930,
      "लाभ": 3931,
      "देशे": 3932,
      "िप": 3933,
      "ाभाव": 3934,
      "ेऽपि": 3935,
      "सूचना": 3936,
      "रुप": 3937,
      "गति": 3938,
      "्रे": 3939,
      "युद्ध": 3940,
      "ुम्": 3941,
      "##ैः": 3942,
      "उक्त": 3943,
      "ध्याय": 3944,
      "दिश": 3945,
      "##क्र": 3946,
      "िष्ठ": 3947,
      "##िप": 3948,
      "ास्त": 3949,
      "विचार": 3950,
      "प्रत": 3951,
      "समु": 3952,
      "पात": 3953,
      "तिप": 3954,
      "पत्र": 3955,
      "विधान": 3956,
      "पर्व": 3957,
      "्रम": 3958,
      "दाह": 3959,
      "ोर": 3960,
      "कृते": 3961,
      "तमे": 3962,
      "साधन": 3963,
      "शुद्ध": 3964,
      "अभव": 3965,
      "ेभ्यः": 3966,
      "यतः": 3967,
      "दीर्": 3968,
      "पुण": 3969,
      "धु": 3970,
      "ेर": 3971,
      "##ंश": 3972,
      "नीय": 3973,
      "शाल": 3974,
      "जीवन": 3975,
      "कुरु": 3976,
      "दीर्घ": 3977,
      "मण्ड": 3978,
      "स्मृत": 3979,
      "##षण": 3980,
      "हत": 3981,
      "णां": 3982,
      "व्यवस": 3983,
      "मनो": 3984,
      "यान": 3985,
      "्याः": 3986,
      "##हित": 3987,
      "मुप": 3988,
      "पाल": 3989,
      "पार": 3990,
      "शास": 3991,
      "श्ल": 3992,
      "्ण": 3993,
      "अति": 3994,
      "हो": 3995,
      "ोः": 3996,
      "##दश": 3997,
      "नन्त": 3998,
      "पति": 3999,
      "ुस्त": 4000,
      "ाऽ": 4001,
      "भाषण": 4002,
      "ट्": 4003,
      "श्य": 4004,
      "विव": 4005,
      "समान": 4006,
      "्नो": 4007,
      "ुः": 4008,
      "यन्": 4009,
      "्वरूप": 4010,
      "देवता": 4011,
      "केन": 4012,
      "ारत": 4013,
      "अधिक": 4014,
      "मुख्य": 4015,
      "ंद": 4016,
      "सन्न": 4017,
      "ार्थं": 4018,
      "ंस": 4019,
      "ोद": 4020,
      "त्थ": 4021,
      "ित्यं": 4022,
      "जान": 4023,
      "शृ": 4024,
      "१०": 4025,
      "ार्यं": 4026,
      "म्ह": 4027,
      "ीयते": 4028,
      "अभवत्": 4029,
      "in": 4030,
      "मृ": 4031,
      "व्यं": 4032,
      "्तमान": 4033,
      "वो": 4034,
      "संभव": 4035,
      "##जन": 4036,
      "बी": 4037,
      "्नोति": 4038,
      "इद": 4039,
      "लोके": 4040,
      "संय": 4041,
      "गमन": 4042,
      "चिन्त": 4043,
      "दिवस": 4044,
      "##त्न": 4045,
      "लिङ्ग": 4046,
      "्स": 4047,
      "इच्छ": 4048,
      "##ुव": 4049,
      "ित्वा": 4050,
      "हिं": 4051,
      "व्रत": 4052,
      "()": 4053,
      "अल": 4054,
      "ंक": 4055,
      "र्च": 4056,
      "तुल": 4057,
      "्क": 4058,
      "रूपं": 4059,
      "शान्त": 4060,
      "व्यव": 4061,
      "संशयः": 4062,
      "च्यते": 4063,
      "्वप": 4064,
      "वर्ध": 4065,
      "लय": 4066,
      "वान": 4067,
      "शिव": 4068,
      "भिन्न": 4069,
      "ारतीय": 4070,
      "्यो": 4071,
      "रूपेण": 4072,
      "..": 4073,
      "ुह": 4074,
      "मित्य": 4075,
      "जि": 4076,
      "शक": 4077,
      "व्यम्": 4078,
      "चेत्": 4079,
      "स्वयं": 4080,
      "त्वम": 4081,
      "भूमि": 4082,
      "कथय": 4083,
      "तिश": 4084,
      "सति": 4085,
      "दीप": 4086,
      "ुस्तक": 4087,
      "ंश": 4088,
      "##जा": 4089,
      "नेन": 4090,
      "धिकरण": 4091,
      "बोध": 4092,
      "्माकं": 4093,
      "णि": 4094,
      "पुण्य": 4095,
      "##चि": 4096,
      "वक्ष्": 4097,
      "मल": 4098,
      "युग": 4099,
      "्वार": 4100,
      "संप": 4101,
      "मेर": 4102,
      "दिष्ट": 4103,
      "##नां": 4104,
      "ग्राम": 4105,
      "नान": 4106,
      "नम्": 4107,
      "##पत": 4108,
      "जनाः": 4109,
      "्वप्न": 4110,
      "वह": 4111,
      "सुर": 4112,
      "ताम्": 4113,
      "##वरी": 4114,
      "##ुः": 4115,
      "ंख्या": 4116,
      "धी": 4117,
      "तस्या": 4118,
      "ानाम्": 4119,
      "रोग": 4120,
      "ांश": 4121,
      "ne": 4122,
      "तथापि": 4123,
      "##षा": 4124,
      "खल": 4125,
      "्रं": 4126,
      "स्मा": 4127,
      "पश्च": 4128,
      "पद्य": 4129,
      "िन्द": 4130,
      "र्ह": 4131,
      "्वारा": 4132,
      "##हं": 4133,
      "##तम": 4134,
      "दार": 4135,
      "र्क": 4136,
      "##om": 4137,
      "्रन्": 4138,
      "तिथि": 4139,
      "माता": 4140,
      "नुष्य": 4141,
      "लभ": 4142,
      "वध": 4143,
      "क्ल": 4144,
      "ेवं": 4145,
      "क्ति": 4146,
      "धर": 4147,
      "मण्डल": 4148,
      "##त्स": 4149,
      "ताम": 4150,
      "्वर्ग": 4151,
      "युत": 4152,
      "स्तुत": 4153,
      "##र्प": 4154,
      "स्फ": 4155,
      "गर्": 4156,
      "नय": 4157,
      "रस्": 4158,
      "ध्यान": 4159,
      "तल": 4160,
      "श्रम": 4161,
      "फलं": 4162,
      "ाङ्ग": 4163,
      "मित्त": 4164,
      "गृहे": 4165,
      "एकः": 4166,
      "द्वार": 4167,
      "सुत": 4168,
      "कस्य": 4169,
      "नैव": 4170,
      "वां": 4171,
      "##िल": 4172,
      "विरोध": 4173,
      "स्र": 4174,
      "ाया": 4175,
      "वश्य": 4176,
      "क्षय": 4177,
      "ग्नि": 4178,
      "िष्": 4179,
      "त्वा": 4180,
      "त्वां": 4181,
      "चक्ष": 4182,
      "किञ्च": 4183,
      "##यम्": 4184,
      "##्नु": 4185,
      "िष्ट": 4186,
      "मन्य": 4187,
      "रस्पर": 4188,
      "्रन्थ": 4189,
      "त्रय": 4190,
      "वः": 4191,
      "सिं": 4192,
      "##ीप": 4193,
      "न्तर्": 4194,
      "पूर": 4195,
      "वती": 4196,
      "यज": 4197,
      "ित्त": 4198,
      "दध": 4199,
      "िश्च": 4200,
      "##गत": 4201,
      "वन्त": 4202,
      "अस्": 4203,
      "्रात": 4204,
      "वात": 4205,
      "ादौ": 4206,
      "ुर्": 4207,
      "मधु": 4208,
      "उत्प": 4209,
      "सम्ब": 4210,
      "समय": 4211,
      "जगत": 4212,
      "ादन": 4213,
      "्वादश": 4214,
      "िभा": 4215,
      "बाह": 4216,
      "ध्ययन": 4217,
      "न्वित": 4218,
      "आप": 4219,
      "शत्र": 4220,
      "दाहरण": 4221,
      "ब्": 4222,
      "उच्च": 4223,
      "ोष": 4224,
      "अग्नि": 4225,
      "##षु": 4226,
      "चतुर्": 4227,
      "प्रे": 4228,
      "ादेश": 4229,
      "िताः": 4230,
      "तथैव": 4231,
      "र्प": 4232,
      "तृत": 4233,
      "मद": 4234,
      "ुन": 4235,
      "हीन": 4236,
      "मानव": 4237,
      "कम": 4238,
      "स्क": 4239,
      "##धा": 4240,
      "गव": 4241,
      "कृत्य": 4242,
      "ात्मक": 4243,
      "शासन": 4244,
      "भाग्य": 4245,
      "लघ": 4246,
      "सभा": 4247,
      "ाद्य": 4248,
      "कृष्ण": 4249,
      "संव": 4250,
      "पूजा": 4251,
      "तृतीय": 4252,
      "उद": 4253,
      "त्प": 4254,
      "भूय": 4255,
      "हरि": 4256,
      "ग्": 4257,
      "िन्तु": 4258,
      "द्वय": 4259,
      "ागत": 4260,
      "दाय": 4261,
      "याति": 4262,
      "अथवा": 4263,
      "क्वच": 4264,
      "चित्त": 4265,
      "मै": 4266,
      "्रभाव": 4267,
      "शो": 4268,
      "दण्ड": 4269,
      "एतद": 4270,
      "सिंह": 4271,
      "माप्त": 4272,
      "र्व्व": 4273,
      "##or": 4274,
      "्रव्य": 4275,
      "अनेक": 4276,
      "##स्था": 4277,
      "सन्ध": 4278,
      "्थि": 4279,
      "नृप": 4280,
      "व्यवह": 4281,
      "भु": 4282,
      "विज": 4283,
      "ीड": 4284,
      "विष्ट": 4285,
      "कला": 4286,
      "रित": 4287,
      "दद": 4288,
      "ेष्व": 4289,
      "िस": 4290,
      "##on": 4291,
      "रम": 4292,
      "##ar": 4293,
      "भवतः": 4294,
      "कृतं": 4295,
      "दित": 4296,
      "ta": 4297,
      "संसार": 4298,
      "##घ्र": 4299,
      "ुच्य": 4300,
      "जु": 4301,
      "ज्ञेय": 4302,
      "कथा": 4303,
      "ईश्वर": 4304,
      "ृत्यु": 4305,
      "मनु": 4306,
      "नन्तर": 4307,
      "कन": 4308,
      "##ूल": 4309,
      "माह": 4310,
      "ग्राह": 4311,
      "रिक्त": 4312,
      "ित्र": 4313,
      "सक": 4314,
      "विकास": 4315,
      "ीकरण": 4316,
      "नै": 4317,
      "ितं": 4318,
      "न्ह": 4319,
      "ितव्य": 4320,
      "त्क": 4321,
      "दात": 4322,
      "##विध": 4323,
      "ाण्ड": 4324,
      "##म्भ": 4325,
      "गृहीत": 4326,
      "छा": 4327,
      "व्यय": 4328,
      "सङ्क": 4329,
      "##ष्टि": 4330,
      "त्म": 4331,
      "एस": 4332,
      "##स्मा": 4333,
      "पितृ": 4334,
      "कोई": 4335,
      "मेरिक": 4336,
      "आत्म": 4337,
      "गतः": 4338,
      "ैत": 4339,
      "ननु": 4340,
      "भवान्": 4341,
      "है": 4342,
      "नाश": 4343,
      "ज्योत": 4344,
      "ुर्या": 4345,
      "चैव": 4346,
      "पिता": 4347,
      "दर": 4348,
      "ास्य": 4349,
      "नाय": 4350,
      "मात": 4351,
      "्रयोग": 4352,
      "क्री": 4353,
      "पत": 4354,
      "िद्": 4355,
      "िभ": 4356,
      "्थाप": 4357,
      "वर्ज": 4358,
      "ख्य": 4359,
      "संग": 4360,
      "याम्": 4361,
      "पर्वत": 4362,
      "िख": 4363,
      "##श्": 4364,
      "ti": 4365,
      "न्म": 4366,
      "ायं": 4367,
      "नन्द": 4368,
      "पश्चा": 4369,
      "चे": 4370,
      "##इट": 4371,
      "्रत": 4372,
      "योगः": 4373,
      "ेल": 4374,
      "##es": 4375,
      "शील": 4376,
      "ें": 4377,
      "तादृश": 4378,
      "ों": 4379,
      "्रमाण": 4380,
      "शत्रु": 4381,
      "स्मि": 4382,
      "संधान": 4383,
      "निज": 4384,
      "तेज": 4385,
      "स्वा": 4386,
      "ादिना": 4387,
      "ोऽपि": 4388,
      "ाधार": 4389,
      "द्विज": 4390,
      "नेव": 4391,
      "शै": 4392,
      "समर्थ": 4393,
      "दानीं": 4394,
      "ीत्य": 4395,
      "दिव्य": 4396,
      "ुत्वा": 4397,
      "ii": 4398,
      "११": 4399,
      "महो": 4400,
      "्रातः": 4401,
      "##वाद": 4402,
      "स्याद": 4403,
      "अनेन": 4404,
      "मध्यम": 4405,
      "्यः": 4406,
      "्ञान": 4407,
      "्रकृत": 4408,
      "##ष्प": 4409,
      "रव": 4410,
      "्ड": 4411,
      "समास": 4412,
      "कर्ता": 4413,
      "योजना": 4414,
      "ज्ञाय": 4415,
      "उभ": 4416,
      "िनी": 4417,
      "हम": 4418,
      "टी": 4419,
      "कीर": 4420,
      "राग": 4421,
      "##ञ्ज": 4422,
      "सर्वा": 4423,
      "##ष्म": 4424,
      "िया": 4425,
      "नेप": 4426,
      "लब्ध": 4427,
      "त्येक": 4428,
      "मस्ति": 4429,
      "यय": 4430,
      "ताप": 4431,
      "लोप": 4432,
      "्वभाव": 4433,
      "तिषेध": 4434,
      "परमा": 4435,
      "श्चि": 4436,
      "यितुं": 4437,
      "सत": 4438,
      "ीर": 4439,
      "िभाषा": 4440,
      "म्य": 4441,
      "ात्रा": 4442,
      "यावत्": 4443,
      "संस्": 4444,
      "ारण": 4445,
      "स्मर": 4446,
      "लघु": 4447,
      "राज्ञ": 4448,
      "गर्भ": 4449,
      "ोत्तर": 4450,
      "ियां": 4451,
      "ुट": 4452,
      "त्ति": 4453,
      "वश्यक": 4454,
      "बि": 4455,
      "ाति": 4456,
      "ुक": 4457,
      "कीर्त": 4458,
      "क्षत": 4459,
      "ङ्ख्य": 4460,
      "बालक": 4461,
      "रिण": 4462,
      "धिकतम": 4463,
      "्ति": 4464,
      "विन": 4465,
      "ार्या": 4466,
      "बाध": 4467,
      "प्रद": 4468,
      "क्षम": 4469,
      "कम्": 4470,
      "गवान्": 4471,
      "भयं": 4472,
      "एका": 4473,
      "छात्र": 4474,
      "मुच्य": 4475,
      "धीय": 4476,
      "शः": 4477,
      "्यपि": 4478,
      "ूल": 4479,
      "प्रव": 4480,
      "ऋत": 4481,
      "प्रजा": 4482,
      "सेवा": 4483,
      "वश": 4484,
      "अधि": 4485,
      "कट": 4486,
      "शं": 4487,
      "कर्ण": 4488,
      "यिष्": 4489,
      "सम्भ": 4490,
      "##रि": 4491,
      "क्षिप": 4492,
      "ग्री": 4493,
      "ितु": 4494,
      "रुद्ध": 4495,
      "जय": 4496,
      "स्नान": 4497,
      "्थित": 4498,
      "लम्": 4499,
      "रुण": 4500,
      "ात्मन": 4501,
      "खलु": 4502,
      "गता": 4503,
      "##ियम": 4504,
      "स्त्व": 4505,
      "रक्त": 4506,
      "रोह": 4507,
      "रक्षा": 4508,
      "श्चिम": 4509,
      "बसा": 4510,
      "ताव": 4511,
      "बसाइट": 4512,
      "विप्र": 4513,
      "ाह्म": 4514,
      "तीति": 4515,
      "नद": 4516,
      "ोध": 4517,
      "र्वदा": 4518,
      "च्": 4519,
      "ाहं": 4520,
      "नीति": 4521,
      "न्त्य": 4522,
      "सागर": 4523,
      "सन्द": 4524,
      "मोह": 4525,
      "्द": 4526,
      "उत्तम": 4527,
      "यसि": 4528,
      "जित": 4529,
      "वाम": 4530,
      "कारणं": 4531,
      "युज्य": 4532,
      "भोग": 4533,
      "मूल्य": 4534,
      "धातु": 4535,
      "ुव": 4536,
      "ीप": 4537,
      "ितुं": 4538,
      "##श्व": 4539,
      "ेयं": 4540,
      "ूढ": 4541,
      "किंच": 4542,
      "ैन": 4543,
      "आर": 4544,
      "पुष्प": 4545,
      "ीक्षण": 4546,
      "पृथक्": 4547,
      "्यू": 4548,
      "ीकृत": 4549,
      "श्रित": 4550,
      "युष्म": 4551,
      "्च": 4552,
      "भास": 4553,
      "मुनि": 4554,
      "भिर्": 4555,
      "माचार": 4556,
      "कथम": 4557,
      "पान": 4558,
      "गृह्य": 4559,
      "स्थाप": 4560,
      "##द्रा": 4561,
      "कन्या": 4562,
      "सकल": 4563,
      "क्रीड": 4564,
      "र्तुं": 4565,
      "आह": 4566,
      "कोऽ": 4567,
      "कृष": 4568,
      "रत": 4569,
      "मोक्ष": 4570,
      "रोध": 4571,
      "सै": 4572,
      "िनियम": 4573,
      "प्": 4574,
      "रति": 4575,
      "षष्ठ": 4576,
      "िच्छ": 4577,
      "वत्स": 4578,
      "ेतत्": 4579,
      "ृथि": 4580,
      "ृथिवी": 4581,
      "त्तम": 4582,
      "ूर्व": 4583,
      "्यन्त": 4584,
      "देवा": 4585,
      "उपयोग": 4586,
      "दिने": 4587,
      "र्त्त": 4588,
      "र्द्ध": 4589,
      "युध": 4590,
      "ाम्य": 4591,
      "सर्ग": 4592,
      "ेद्": 4593,
      "स्वी": 4594,
      "निष्क": 4595,
      "स्वत": 4596,
      "मूर्": 4597,
      "योर्": 4598,
      "कारक": 4599,
      "सहित": 4600,
      "यतो": 4601,
      "रिव": 4602,
      "##ेषण": 4603,
      "ज्या": 4604,
      "पत्त": 4605,
      "्वी": 4606,
      "कृप": 4607,
      "तिह": 4608,
      "गन्ध": 4609,
      "ूत": 4610,
      "##्ण": 4611,
      "तौ": 4612,
      "न्यास": 4613,
      "ेर्": 4614,
      "पण": 4615,
      "ेम": 4616,
      "र्मित": 4617,
      "तन्": 4618,
      "विविध": 4619,
      "िर्ण": 4620,
      "वच": 4621,
      "यच्छ": 4622,
      "र्ग": 4623,
      "##ज्": 4624,
      "रण्य": 4625,
      "भक्ति": 4626,
      "ेट": 4627,
      "िर्णय": 4628,
      "विस": 4629,
      "श्": 4630,
      "क्षर": 4631,
      "मिदं": 4632,
      "तय": 4633,
      "न्तः": 4634,
      "ीनां": 4635,
      "ोट": 4636,
      "वाच्य": 4637,
      "तुर्थ": 4638,
      "्यम": 4639,
      "्रति": 4640,
      "समये": 4641,
      "क्ष्य": 4642,
      "पाय": 4643,
      "ाथ": 4644,
      "ार्त": 4645,
      "२०": 4646,
      "कुत्र": 4647,
      "st": 4648,
      "खे": 4649,
      "ड़": 4650,
      "ोक्तं": 4651,
      "घ्न": 4652,
      "ध्र": 4653,
      "ोल": 4654,
      "प्राय": 4655,
      "ेतन": 4656,
      "पीड": 4657,
      "गन्त": 4658,
      "प्त": 4659,
      "ूप": 4660,
      "धीयते": 4661,
      "तुल्य": 4662,
      "त्मान": 4663,
      "षध": 4664,
      "िक्षा": 4665,
      "ाख्य": 4666,
      "ाह्मण": 4667,
      "१२": 4668,
      "र्श": 4669,
      "सैन": 4670,
      "रिणाम": 4671,
      "स्वर": 4672,
      "जगत्": 4673,
      "re": 4674,
      "िनां": 4675,
      "यि": 4676,
      "्वः": 4677,
      "न्नत": 4678,
      "th": 4679,
      "निध": 4680,
      "अहम्": 4681,
      "तक": 4682,
      "चन": 4683,
      "त्वम्": 4684,
      "त्यज": 4685,
      "ान्न": 4686,
      "प्रभ": 4687,
      "वेदन": 4688,
      "रोप": 4689,
      "भ्यास": 4690,
      "ाइ": 4691,
      "कृता": 4692,
      "ोम": 4693,
      "्था": 4694,
      "गा": 4695,
      "यै": 4696,
      "शीत": 4697,
      "शिष्य": 4698,
      "एषा": 4699,
      "विद्व": 4700,
      "कालः": 4701,
      "िरि": 4702,
      "स्थल": 4703,
      "श्चित": 4704,
      "घोष": 4705,
      "राश": 4706,
      "विंश": 4707,
      "पत्न": 4708,
      "शङ्क": 4709,
      "१५": 4710,
      "ुग्": 4711,
      "र्न": 4712,
      "दिक": 4713,
      "चक्र": 4714,
      "तन": 4715,
      "स्पृ": 4716,
      "चरण": 4717,
      "ङ्घ": 4718,
      "पदं": 4719,
      "तीय": 4720,
      "यद्य": 4721,
      "ार्ध": 4722,
      "##डा": 4723,
      "्ञानं": 4724,
      "वी": 4725,
      "ील": 4726,
      "वित्त": 4727,
      "मयि": 4728,
      "तू": 4729,
      "पौ": 4730,
      "दृढ": 4731,
      "अग्न": 4732,
      "रल": 4733,
      "टि": 4734,
      "ुद्ध": 4735,
      "वसाय": 4736,
      "संज्ञ": 4737,
      "राय": 4738,
      "ाक्षा": 4739,
      "इयं": 4740,
      "पश": 4741,
      "व्यः": 4742,
      "गृहं": 4743,
      "च्छेद": 4744,
      "मौ": 4745,
      "##le": 4746,
      "ात्रि": 4747,
      "10": 4748,
      "्रधान": 4749,
      "समाज": 4750,
      "णु": 4751,
      "परे": 4752,
      "देवी": 4753,
      "on": 4754,
      "िन्त": 4755,
      "धनं": 4756,
      "जीवित": 4757,
      "क्स": 4758,
      "an": 4759,
      "वरण": 4760,
      "नीत": 4761,
      "##ra": 4762,
      "्यर्थ": 4763,
      "ेतद": 4764,
      "नुक": 4765,
      "तिहास": 4766,
      "िखित": 4767,
      "ेख": 4768,
      "साध्य": 4769,
      "काव्य": 4770,
      "त्सव": 4771,
      "ताः": 4772,
      "वर्षा": 4773,
      "vi": 4774,
      "ूगु": 4775,
      "संख्य": 4776,
      "जप": 4777,
      "पुरस्": 4778,
      "विप": 4779,
      "ष्व": 4780,
      "विनाश": 4781,
      "गत्वा": 4782,
      "##str": 4783,
      "ददा": 4784,
      "जनवरी": 4785,
      "देय": 4786,
      "त्याग": 4787,
      "किल": 4788,
      "अस्म": 4789,
      "सत्": 4790,
      "ष्णु": 4791,
      "##ज्ञा": 4792,
      "रच": 4793,
      "वर्तन": 4794,
      "तान": 4795,
      "sg": 4796,
      "त्ययः": 4797,
      "बाह्य": 4798,
      "बुध": 4799,
      "िन्": 4800,
      "सन": 4801,
      "ूर्त": 4802,
      "षि": 4803,
      "्रीडा": 4804,
      "मनः": 4805,
      "ुक्ति": 4806,
      "ाड": 4807,
      "दीनां": 4808,
      "पृथि": 4809,
      "sgstr": 4810,
      "श्रव": 4811,
      "ेभ्यो": 4812,
      "पुराण": 4813,
      "मर": 4814,
      "अङ्ग": 4815,
      "तान्": 4816,
      "शून": 4817,
      "उद्": 4818,
      "एषः": 4819,
      "ुद": 4820,
      "भवत्": 4821,
      "स्ट": 4822,
      "यॊ": 4823,
      "पृथिव": 4824,
      "कारः": 4825,
      "मान्": 4826,
      "केच": 4827,
      "्रवि": 4828,
      "काय": 4829,
      "संशय": 4830,
      "पाक": 4831,
      "पथ": 4832,
      "भवन": 4833,
      "स्थिर": 4834,
      "दार्थ": 4835,
      "ोत्तम": 4836,
      "नाथ": 4837,
      "धृत": 4838,
      "ौर": 4839,
      "खण्ड": 4840,
      "िदं": 4841,
      "्धानि": 4842,
      "मस": 4843,
      "र्द": 4844,
      "सम्बद": 4845,
      "र्देश": 4846,
      "त्मन": 4847,
      "एकं": 4848,
      "दास": 4849,
      "निवेश": 4850,
      "हा": 4851,
      "ृत": 4852,
      "्थाने": 4853,
      "कृपया": 4854,
      "धेय": 4855,
      "##ध्": 4856,
      "थित": 4857,
      "नृत": 4858,
      "पुंस": 4859,
      "tag": 4860,
      "भर": 4861,
      "मानस": 4862,
      "्पष्ट": 4863,
      "शंस": 4864,
      "र्ण": 4865,
      "गृह्ण": 4866,
      "िभि": 4867,
      "स्स": 4868,
      "श्लोक": 4869,
      "कति": 4870,
      "श्वास": 4871,
      "ुप्त": 4872,
      "सोऽ": 4873,
      "सव": 4874,
      "ैश्च": 4875,
      "##re": 4876,
      "ट्ट": 4877,
      "योग्य": 4878,
      "स्मै": 4879,
      "ुत्प": 4880,
      "रूपा": 4881,
      "भ्यः": 4882,
      "ाश्र": 4883,
      "सेना": 4884,
      "शून्य": 4885,
      "कोट": 4886,
      "##दय": 4887,
      "ष्ण": 4888,
      "णं": 4889,
      "नदी": 4890,
      "अर्थः": 4891,
      "नुकूल": 4892,
      "्ष": 4893,
      "मन्त": 4894,
      "सृज": 4895,
      "धारा": 4896,
      "चक्षु": 4897,
      "संस्थ": 4898,
      "र्ता": 4899,
      "्य्य": 4900,
      "विमान": 4901,
      "तीर्थ": 4902,
      "ेस": 4903,
      "साद": 4904,
      "चार्य": 4905,
      "ंश्च": 4906,
      "घात": 4907,
      "वापि": 4908,
      "##मे": 4909,
      "##ome": 4910,
      "अभ": 4911,
      "ोड": 4912,
      "ाधिक": 4913,
      "ोण": 4914,
      "यम्": 4915,
      "एम": 4916,
      "ाप्ते": 4917,
      "्ज": 4918,
      "कुश": 4919,
      "मनस": 4920,
      "ब्रवी": 4921,
      "यात्": 4922,
      "अयम्": 4923,
      "म्प": 4924,
      "विजय": 4925,
      "यश": 4926,
      "तार": 4927,
      "ज्ञाप": 4928,
      "्राम": 4929,
      "##कर": 4930,
      "वने": 4931,
      "सुखं": 4932,
      "##ss": 4933,
      "ातु": 4934,
      "षड": 4935,
      "संक": 4936,
      "ण्ट": 4937,
      "भी": 4938,
      "लन": 4939,
      "तिशत": 4940,
      "##्नो": 4941,
      "पिं": 4942,
      "बहू": 4943,
      "पशु": 4944,
      "षा": 4945,
      "nt": 4946,
      "se": 4947,
      "गौ": 4948,
      "संप्र": 4949,
      "्ये": 4950,
      "क्रोध": 4951,
      "भ्यां": 4952,
      "ब्रू": 4953,
      "ायन": 4954,
      "ात्मा": 4955,
      "सत्यं": 4956,
      "कीदृश": 4957,
      "१४": 4958,
      "सदस्य": 4959,
      "ीश्वर": 4960,
      "##ट्": 4961,
      "त्वे": 4962,
      "ाःगु": 4963,
      "मुदा": 4964,
      "श्रोत": 4965,
      "दीय": 4966,
      "्रीय": 4967,
      "हिम": 4968,
      "ैष": 4969,
      "योर": 4970,
      "शृणु": 4971,
      "पल": 4972,
      "##al": 4973,
      "समर्प": 4974,
      "er": 4975,
      "कर्ष": 4976,
      "तेऽ": 4977,
      "##an": 4978,
      "न्यून": 4979,
      "li": 4980,
      "आई": 4981,
      "भक्ष": 4982,
      "ाकार": 4983,
      "्छ": 4984,
      "िश्चय": 4985,
      "ंच": 4986,
      "समस्त": 4987,
      "दिव": 4988,
      "पो": 4989,
      "िष्य": 4990,
      "ाधारण": 4991,
      "थ्व": 4992,
      "्रविश": 4993,
      "च्व": 4994,
      "ैल": 4995,
      "कृतम्": 4996,
      "ग्रे": 4997,
      "िणः": 4998,
      "ज्व": 4999,
      "न्दर": 5000,
      "विष्य": 5001,
      "ध्वनि": 5002,
      "्रथ": 5003,
      "पितु": 5004,
      "वन्तः": 5005,
      "दुष्ट": 5006,
      "दन्त": 5007,
      "ीण": 5008,
      "ैस्": 5009,
      "्पर्श": 5010,
      "न्वय": 5011,
      "...": 5012,
      "महोदय": 5013,
      "्येव": 5014,
      "ौक": 5015,
      "नाम्": 5016,
      "##at": 5017,
      "कुम": 5018,
      "शब्दः": 5019,
      "िकि": 5020,
      "श्रू": 5021,
      "ाश्रय": 5022,
      "िन्न": 5023,
      "कृतः": 5024,
      "ासन": 5025,
      "भागे": 5026,
      "शोभ": 5027,
      "---": 5028,
      "मृग": 5029,
      "ेच्छ": 5030,
      "प्ल": 5031,
      "र्माण": 5032,
      "न्तं": 5033,
      "ष्ठा": 5034,
      "िकित्": 5035,
      "जाल": 5036,
      "तेषु": 5037,
      "लम्ब": 5038,
      "ल्या": 5039,
      "तावत्": 5040,
      "home": 5041,
      "ंत्र": 5042,
      "हल": 5043,
      "्यत": 5044,
      "मातृ": 5045,
      "नेवाः": 5046,
      "विवाह": 5047,
      "भगवत": 5048,
      "यन": 5049,
      "रह": 5050,
      "तीव": 5051,
      "प्रच": 5052,
      "क्ष्म": 5053,
      "पदे": 5054,
      "धानम": 5055,
      "परीत": 5056,
      "परिप": 5057,
      "रिद्र": 5058,
      "भाष्य": 5059,
      "ातर": 5060,
      "वचनं": 5061,
      "तेषाम": 5062,
      "तपस": 5063,
      "ुत": 5064,
      "स्था": 5065,
      "खिल": 5066,
      "िग": 5067,
      "ाच्च": 5068,
      "परः": 5069,
      "ताल": 5070,
      "ंगु": 5071,
      "नुभव": 5072,
      "यौ": 5073,
      "ुरुष": 5074,
      "एन": 5075,
      "रज": 5076,
      "बीज": 5077,
      "हां": 5078,
      "##सार": 5079,
      "निष": 5080,
      "करणे": 5081,
      "ायाम": 5082,
      "मोद": 5083,
      "रणं": 5084,
      "संब": 5085,
      "स्ता": 5086,
      "सीद": 5087,
      "कुमार": 5088,
      "अप्र": 5089,
      "पक्षे": 5090,
      "व्रज": 5091,
      "दन": 5092,
      "ुण": 5093,
      "िणी": 5094,
      "ह्र": 5095,
      "तिं": 5096,
      "त्मनः": 5097,
      "ीर्ण": 5098,
      "्यास": 5099,
      "भ्रम": 5100,
      "तच्च": 5101,
      "लु": 5102,
      "ेन्द": 5103,
      "१८": 5104,
      "मानुष": 5105,
      "शाला": 5106,
      "ुर्ल": 5107,
      "##ce": 5108,
      "##िका": 5109,
      "गम्य": 5110,
      "ुरुषः": 5111,
      "ात्रौ": 5112,
      "किमपि": 5113,
      "ोच": 5114,
      "विहित": 5115,
      "्रतीत": 5116,
      "ुर्लभ": 5117,
      "वण": 5118,
      "##ेह": 5119,
      "रिति": 5120,
      "लभ्य": 5121,
      "िद्ध": 5122,
      "्ह": 5123,
      "मेक": 5124,
      "निवार": 5125,
      "ालन": 5126,
      "धो": 5127,
      "रहित": 5128,
      "प्रभु": 5129,
      "म्बर": 5130,
      "बद्ध": 5131,
      "श्वर": 5132,
      "युव": 5133,
      "िनो": 5134,
      "ासु": 5135,
      "ल्क": 5136,
      "to": 5137,
      "दल": 5138,
      "नाग": 5139,
      "मूर्त": 5140,
      "##कृ": 5141,
      "्य्": 5142,
      "देवाः": 5143,
      "कथित": 5144,
      "यूयं": 5145,
      "चु": 5146,
      "िला": 5147,
      "हिंसा": 5148,
      "ासि": 5149,
      "भवता": 5150,
      "जलं": 5151,
      "िनि": 5152,
      "##योज": 5153,
      "ास्ते": 5154,
      "ञ्": 5155,
      "##िया": 5156,
      "##ूह": 5157,
      "अहो": 5158,
      "ंड": 5159,
      "्ग": 5160,
      "म्प्र": 5161,
      "्यायः": 5162,
      "बहव": 5163,
      "स्नेह": 5164,
      "ोह": 5165,
      "पितर": 5166,
      "भ्रात": 5167,
      "पन्न": 5168,
      "ीश": 5169,
      "समूह": 5170,
      "१३": 5171,
      "गमि": 5172,
      "द्भ": 5173,
      "पीस": 5174,
      "वस्था": 5175,
      "परम्": 5176,
      "याव": 5177,
      "भोजन": 5178,
      "विनि": 5179,
      "ायक": 5180,
      "पृच्छ": 5181,
      "्याम्": 5182,
      "ar": 5183,
      "्यै": 5184,
      "मांस": 5185,
      "ि॒": 5186,
      "वेग": 5187,
      "कै": 5188,
      "शस्त": 5189,
      "##सि": 5190,
      "दृश": 5191,
      "ाहु": 5192,
      "पार्श": 5193,
      "ीता": 5194,
      "रक्षण": 5195,
      "्रथमा": 5196,
      "de": 5197,
      "त्वाद": 5198,
      "देवः": 5199,
      "ानाति": 5200,
      "नू": 5201,
      "म्र": 5202,
      "निषेध": 5203,
      "चापि": 5204,
      "इदम्": 5205,
      "शोक": 5206,
      "िच": 5207,
      "िथ": 5208,
      "ेदं": 5209,
      "दुर": 5210,
      "रुत": 5211,
      "नेत": 5212,
      "वित्र": 5213,
      "स्कार": 5214,
      "द्यो": 5215,
      "साधु": 5216,
      "त्पाद": 5217,
      "विवेक": 5218,
      "ीडिया": 5219,
      "ध्या": 5220,
      "ेरे": 5221,
      "तीक्ष": 5222,
      "माया": 5223,
      "जुइ": 5224,
      "हन्त": 5225,
      "व्यति": 5226,
      "वाहन": 5227,
      "दं": 5228,
      "भज": 5229,
      "ंतर": 5230,
      "उभय": 5231,
      "नार": 5232,
      "हर्ष": 5233,
      "ृष्टि": 5234,
      "ायः": 5235,
      "न्यते": 5236,
      "नून": 5237,
      "रम्भ": 5238,
      "ग्ध": 5239,
      "िह्": 5240,
      "विधिः": 5241,
      "्ना": 5242,
      "स्तर": 5243,
      "ृण": 5244,
      "विकार": 5245,
      "त्वार": 5246,
      "गाम": 5247,
      "रुचि": 5248,
      "हित्य": 5249,
      "मही": 5250,
      "ययौ": 5251,
      "द्वीप": 5252,
      "ब्द": 5253,
      "ष्य": 5254,
      "स्तथा": 5255,
      "तोऽ": 5256,
      "te": 5257,
      "अतो": 5258,
      "तश्च": 5259,
      "विता": 5260,
      "अक": 5261,
      "आग": 5262,
      "ाञ्च": 5263,
      "वयव": 5264,
      "ाणाम": 5265,
      "ाधि": 5266,
      "र्मणि": 5267,
      "्थानं": 5268,
      "्थिति": 5269,
      "अष्ट": 5270,
      "स्तार": 5271,
      "कृषि": 5272,
      "धू": 5273,
      "दिश्य": 5274,
      "वंश": 5275,
      "भिर": 5276,
      "ांस": 5277,
      "निष्प": 5278,
      "ेन्": 5279,
      "करोमि": 5280,
      "गमिष्": 5281,
      "कारि": 5282,
      "अहम": 5283,
      "चित्": 5284,
      "ंध": 5285,
      "मिव": 5286,
      "मव": 5287,
      "१७": 5288,
      "राजन्": 5289,
      "तयो": 5290,
      "निश": 5291,
      "क्षे": 5292,
      "अधु": 5293,
      "कोऽपि": 5294,
      "अधुना": 5295,
      "र्मणा": 5296,
      "आकाश": 5297,
      "भृत": 5298,
      "संयोग": 5299,
      "तय्": 5300,
      "भीत": 5301,
      "१६": 5302,
      "याये": 5303,
      "निरूप": 5304,
      "मरण": 5305,
      "ाये": 5306,
      "भूत्": 5307,
      "समीप": 5308,
      "द्यु": 5309,
      "##li": 5310,
      "मेत": 5311,
      "्भ": 5312,
      "मीक्ष": 5313,
      "नेपाल": 5314,
      "प्स": 5315,
      "तानि": 5316,
      "१९": 5317,
      "##ou": 5318,
      "वाप": 5319,
      "दित्य": 5320,
      "एकाद": 5321,
      "नेत्र": 5322,
      "िमर्थ": 5323,
      "एकादश": 5324,
      "तम्": 5325,
      "्लव": 5326,
      "ंब": 5327,
      "भेदे": 5328,
      "तर्क": 5329,
      "नियत": 5330,
      "वीर्य": 5331,
      "भवतु": 5332,
      "मिल": 5333,
      "धारण": 5334,
      "विकिप": 5335,
      "्रमेण": 5336,
      "tion": 5337,
      "सान": 5338,
      "माल": 5339,
      "प्रेम": 5340,
      "पीसी": 5341,
      "क्षमा": 5342,
      "द्वौ": 5343,
      "ावरण": 5344,
      "उत": 5345,
      "ाला": 5346,
      "कारेण": 5347,
      "द्म": 5348,
      "ण्ठ": 5349,
      "सित": 5350,
      "तुष्ट": 5351,
      "ाप्नु": 5352,
      "ेते": 5353,
      "्याप": 5354,
      "ामह": 5355,
      "ापित": 5356,
      "भाति": 5357,
      "माम": 5358,
      "ायत": 5359,
      "णीय": 5360,
      "नयन": 5361,
      "्त्व": 5362,
      "र्ध्व": 5363,
      "जानी": 5364,
      "चिर": 5365,
      "त्री": 5366,
      "ागम": 5367,
      "क्तम्": 5368,
      "गोप": 5369,
      "रिवार": 5370,
      "ध्रुव": 5371,
      "एतद्": 5372,
      "कुशल": 5373,
      "गिर": 5374,
      "वस्त": 5375,
      "स्मरण": 5376,
      "दूत": 5377,
      "देवि": 5378,
      "समाध": 5379,
      "हिन्द": 5380,
      "ाचीन": 5381,
      "सच": 5382,
      "चीन": 5383,
      "हन": 5384,
      "ादयः": 5385,
      "कुतः": 5386,
      "कल्पन": 5387,
      "जातः": 5388,
      "##ha": 5389,
      "##त्म": 5390,
      "ाक्षस": 5391,
      "थ्य": 5392,
      "सञ्च": 5393,
      "महत्": 5394,
      "सदृश": 5395,
      "शैल": 5396,
      "ीघ्र": 5397,
      "ोग": 5398,
      "गते": 5399,
      "सूत": 5400,
      "णाम": 5401,
      "्स्": 5402,
      "त्वाम": 5403,
      "रत्न": 5404,
      "तस्म": 5405,
      "माणं": 5406,
      "िभिः": 5407,
      "स्ते": 5408,
      "व्याध": 5409,
      "शू": 5410,
      "नुवाद": 5411,
      "ोश": 5412,
      "ाचार": 5413,
      "छुं": 5414,
      "ोर्": 5415,
      "ीघ्रं": 5416,
      "ाङ्क": 5417,
      "राध": 5418,
      "कू": 5419,
      "िस्": 5420,
      "त्रा": 5421,
      "थु": 5422,
      "प्रेष": 5423,
      "्तव्य": 5424,
      "ःगु": 5425,
      "महत्व": 5426,
      "लाख": 5427,
      "इदम": 5428,
      "यस्मा": 5429,
      "नरः": 5430,
      "सफ": 5431,
      "न्यो": 5432,
      "श्रवण": 5433,
      "मन्द": 5434,
      "ारं": 5435,
      "पतिः": 5436,
      "चय": 5437,
      "त्कार": 5438,
      "ृप": 5439,
      "स्तोत": 5440,
      "पेपर": 5441,
      "ऋण": 5442,
      "ाज": 5443,
      "##ीम": 5444,
      "ार्द": 5445,
      "नित": 5446,
      "िना": 5447,
      "ऽऽ": 5448,
      "शक्नो": 5449,
      "प्रो": 5450,
      "न्ती": 5451,
      "उपरि": 5452,
      "तस्मै": 5453,
      "णम्": 5454,
      "तात": 5455,
      "िम्": 5456,
      "त्स्य": 5457,
      "आः": 5458,
      "ाभिः": 5459,
      "क्षेप": 5460,
      "ृश": 5461,
      "्यम्": 5462,
      "केवलम": 5463,
      "माज": 5464,
      "नत": 5465,
      "ाकृत": 5466,
      "ुष": 5467,
      "##am": 5468,
      "ष्ठित": 5469,
      "श्वेत": 5470,
      "ोत्प": 5471,
      "ेवम": 5472,
      "राशि": 5473,
      "अज": 5474,
      "षट्": 5475,
      "शीघ्र": 5476,
      "ेना": 5477,
      "विंशत": 5478,
      "माः": 5479,
      "धाव": 5480,
      "हुत": 5481,
      "##ृति": 5482,
      "्थापन": 5483,
      "al": 5484,
      "्मृति": 5485,
      "क्क": 5486,
      "ख्यान": 5487,
      "ारद": 5488,
      "ुध्य": 5489,
      "रुपये": 5490,
      "ान्ते": 5491,
      "भारते": 5492,
      "दात्त": 5493,
      "सञ्ज": 5494,
      "ासीत्": 5495,
      "डि": 5496,
      "बृह": 5497,
      "आसन्": 5498,
      "पराध": 5499,
      "यामः": 5500,
      "शक्नु": 5501,
      "ुत्तर": 5502,
      "नील": 5503,
      "धाय": 5504,
      "ार्य": 5505,
      "पिब": 5506,
      "लं": 5507,
      "काः": 5508,
      "सरकार": 5509,
      "रायण": 5510,
      "महिल": 5511,
      "नायक": 5512,
      "खेल": 5513,
      "दो": 5514,
      "सर्प": 5515,
      "कस्मा": 5516,
      "##ुम": 5517,
      "क्रमण": 5518,
      "जापत": 5519,
      "भिष": 5520,
      "श्रूय": 5521,
      "##ve": 5522,
      "्विन": 5523,
      "णे": 5524,
      "दक": 5525,
      "िट": 5526,
      "ितुम्": 5527,
      "वम": 5528,
      "दूषण": 5529,
      "ेष्ट": 5530,
      "्रपत": 5531,
      "ावन": 5532,
      "ःस": 5533,
      "ुरत": 5534,
      "गर": 5535,
      "ामः": 5536,
      "मः": 5537,
      "ांत": 5538,
      "पत्नी": 5539,
      "ारि": 5540,
      "कथम्": 5541,
      "ज़": 5542,
      "रवरी": 5543,
      "्यमान": 5544,
      "निग": 5545,
      "िशि": 5546,
      "वाचक": 5547,
      "ानामि": 5548,
      "िभक्त": 5549,
      "ञ्छ": 5550,
      "हय": 5551,
      "िमान": 5552,
      "याच": 5553,
      "त्रैव": 5554,
      "धिकं": 5555,
      "अग्ने": 5556,
      "कप": 5557,
      "्रद्ध": 5558,
      "त्ता": 5559,
      "ुह्य": 5560,
      "रब्ध": 5561,
      "##di": 5562,
      "साक्ष": 5563,
      "जनक": 5564,
      "यमेव": 5565,
      "ददाति": 5566,
      "यस्": 5567,
      "क्तं": 5568,
      "देहि": 5569,
      "जाता": 5570,
      "म्न": 5571,
      "ष्म": 5572,
      "ान्ति": 5573,
      "तृ": 5574,
      "एवा": 5575,
      "सतत": 5576,
      "्ता": 5577,
      "ामय": 5578,
      "जगद": 5579,
      "प्रेर": 5580,
      "ाग्नि": 5581,
      "्लेषण": 5582,
      "सैन्य": 5583,
      "वद्": 5584,
      "परमं": 5585,
      "महिला": 5586,
      "ह्नि": 5587,
      "मुह": 5588,
      "भगवन्": 5589,
      "स्रोत": 5590,
      "मार": 5591,
      "शोध": 5592,
      "हानि": 5593,
      "ोय": 5594,
      "द्वे": 5595,
      "हंस": 5596,
      "वारं": 5597,
      "योक्त": 5598,
      "र्जन": 5599,
      "ानन्द": 5600,
      "इतर": 5601,
      "गतिः": 5602,
      "गीत": 5603,
      "भुज": 5604,
      "##se": 5605,
      "गुणा": 5606,
      "नृत्य": 5607,
      "निष्ठ": 5608,
      "येष": 5609,
      "गज": 5610,
      "ूर": 5611,
      "ेयु": 5612,
      "कम्प": 5613,
      "रू": 5614,
      "सिध्": 5615,
      "समं": 5616,
      "सम्म": 5617,
      "मानि": 5618,
      "कथन": 5619,
      "भगवान": 5620,
      "रेव": 5621,
      "विभ": 5622,
      "ानाः": 5623,
      "शिख": 5624,
      "शीर्ष": 5625,
      "सृष्ट": 5626,
      "घन": 5627,
      "ेप": 5628,
      "संभ": 5629,
      "भद्र": 5630,
      "त्सर": 5631,
      "दय": 5632,
      "िध": 5633,
      "ाकरण": 5634,
      "ाटक": 5635,
      "ल्याण": 5636,
      "न्दिर": 5637,
      "ाज्ञ": 5638,
      "ुद्रा": 5639,
      "ूर्वक": 5640,
      "२१": 5641,
      "म्यक्": 5642,
      "यती": 5643,
      "िल्ल": 5644,
      "एतेन": 5645,
      "मधुर": 5646,
      "यास": 5647,
      "कृत्": 5648,
      "सन्त": 5649,
      "अन्व": 5650,
      "मासे": 5651,
      "रन्तु": 5652,
      "करोत्": 5653,
      "ासां": 5654,
      "लिखित": 5655,
      "लभते": 5656,
      "योगी": 5657,
      "दूष": 5658,
      "चाल": 5659,
      "ण्व": 5660,
      "दानं": 5661,
      "बहुधा": 5662,
      "्रौ": 5663,
      "नुमान": 5664,
      "तामह": 5665,
      "द्यः": 5666,
      "सप्तम": 5667,
      "ंस्": 5668,
      "ाता": 5669,
      "्वयम्": 5670,
      "होम": 5671,
      "ादिषु": 5672,
      "न्यत्": 5673,
      "ामहे": 5674,
      "11": 5675,
      "वया": 5676,
      "वाचन": 5677,
      "द्वेष": 5678,
      "योजनम": 5679,
      "नाना": 5680,
      "इत्यस": 5681,
      "शुक्र": 5682,
      "येषां": 5683,
      "##म्म": 5684,
      "ुगु": 5685,
      "त्यु": 5686,
      "पराज": 5687,
      "माजिक": 5688,
      "तैः": 5689,
      "##ch": 5690,
      "स्वात": 5691,
      "रिष्": 5692,
      "ङ्ग्ल": 5693,
      "अतीत": 5694,
      "थार्थ": 5695,
      "ोच्य": 5696,
      "पात्र": 5697,
      "पुरो": 5698,
      "तिशय": 5699,
      "ुग्ध": 5700,
      "मुदाय": 5701,
      "ूक्त": 5702,
      "चो": 5703,
      "नया": 5704,
      "युवा": 5705,
      "न्वयः": 5706,
      "कोटि": 5707,
      "ूतन": 5708,
      "इष्ट": 5709,
      "नौ": 5710,
      "रङ्ग": 5711,
      "ल्य": 5712,
      "्येन": 5713,
      "वैश्व": 5714,
      "रामः": 5715,
      "धीर": 5716,
      "त्य्": 5717,
      "ार्थः": 5718,
      "रिक्ष": 5719,
      "ाग्र": 5720,
      "रात": 5721,
      "माना": 5722,
      "रुद्र": 5723,
      "ृती": 5724,
      "ोन": 5725,
      "म्म": 5726,
      "्मान्": 5727,
      "चं": 5728,
      "दः": 5729,
      "ेतस": 5730,
      "भाषित": 5731,
      "ंस्था": 5732,
      "हरे": 5733,
      "शाख": 5734,
      "##in": 5735,
      "डा": 5736,
      "रद": 5737,
      "व्यम": 5738,
      "ान्ध": 5739,
      "यव": 5740,
      "स्पत": 5741,
      "ंट": 5742,
      "्यस": 5743,
      "मनसा": 5744,
      "दद्या": 5745,
      "भौ": 5746,
      "ीष": 5747,
      "तमः": 5748,
      "क्रमः": 5749,
      "तै": 5750,
      "नष्ट": 5751,
      "रेत्": 5752,
      "ासाद": 5753,
      "धिकृत": 5754,
      "द्धत": 5755,
      "ंज": 5756,
      "तुर": 5757,
      "ऽप": 5758,
      "##la": 5759,
      "यास्": 5760,
      "्युप": 5761,
      "स्माक": 5762,
      "//": 5763,
      "संघ": 5764,
      "थितं": 5765,
      "पचार": 5766,
      "ारम्भ": 5767,
      "ार्ह": 5768,
      "र्पण": 5769,
      "णः": 5770,
      "ाब्द": 5771,
      "ानन": 5772,
      "ङ्गल": 5773,
      "नेक": 5774,
      "नक": 5775,
      "्वाह": 5776,
      "यमान": 5777,
      "िस्त": 5778,
      "श्चन": 5779,
      "पृष्ट": 5780,
      "वर्णन": 5781,
      "यश्च": 5782,
      "होत": 5783,
      "ीम": 5784,
      "दिनं": 5785,
      "पट": 5786,
      "ुद्": 5787,
      "वतां": 5788,
      "तिपाद": 5789,
      "the": 5790,
      "िथ्य": 5791,
      "ेड": 5792,
      "ुम्ब": 5793,
      "मृद": 5794,
      "र्या": 5795,
      "ाध्य": 5796,
      "ङ्कार": 5797,
      "आगच्छ": 5798,
      "ुष्टि": 5799,
      "ुञ्ज": 5800,
      "में": 5801,
      "लिप": 5802,
      "न्दो": 5803,
      "घटना": 5804,
      "20": 5805,
      "दौ": 5806,
      "भात": 5807,
      "भूम": 5808,
      "नल": 5809,
      "ेषा": 5810,
      "ापं": 5811,
      "दुर्ग": 5812,
      "सक्त": 5813,
      "ुवि": 5814,
      "##स्मि": 5815,
      "दिना": 5816,
      "शतं": 5817,
      "of": 5818,
      "्याम": 5819,
      "योनि": 5820,
      "यानि": 5821,
      "षम": 5822,
      "२२": 5823,
      "ितो": 5824,
      "्थिव": 5825,
      "ृष्ट": 5826,
      "क्ष्": 5827,
      "पूज्य": 5828,
      "ाकं": 5829,
      "्यापक": 5830,
      "no": 5831,
      "घव": 5832,
      "तन्न": 5833,
      "विः": 5834,
      "ङ्क्ष": 5835,
      "अन्ये": 5836,
      "po": 5837,
      "हीं": 5838,
      "परत": 5839,
      "अल्प": 5840,
      "त्रिक": 5841,
      "ूनां": 5842,
      "टे": 5843,
      "म्यते": 5844,
      "ार्ज": 5845,
      "मग": 5846,
      "वाल": 5847,
      "ाहित": 5848,
      "हिता": 5849,
      "वचः": 5850,
      "##ुख": 5851,
      "धन्य": 5852,
      "शौ": 5853,
      "ing": 5854,
      "मभि": 5855,
      "ल्व": 5856,
      "हव": 5857,
      "##ad": 5858,
      "निब": 5859,
      "श्रेय": 5860,
      "णिज": 5861,
      "हृत": 5862,
      "रोतु": 5863,
      "ष्ठान": 5864,
      "्नात": 5865,
      "ुया": 5866,
      "ोक्ष": 5867,
      "योगं": 5868,
      "वसर": 5869,
      "्रीति": 5870,
      "रपि": 5871,
      "ीह": 5872,
      "ार्च": 5873,
      "ोज": 5874,
      "रिक": 5875,
      "लित": 5876,
      "सते": 5877,
      "्येय": 5878,
      "्यवाद": 5879,
      "ेषाम": 5880,
      "12": 5881,
      "जाः": 5882,
      "वसन्त": 5883,
      "िवर्त": 5884,
      "गत्य": 5885,
      "मयः": 5886,
      "आदेश": 5887,
      "ची": 5888,
      "क्रि": 5889,
      "दम": 5890,
      "ाब": 5891,
      "३०": 5892,
      "णी": 5893,
      "ुने": 5894,
      "महान्": 5895,
      "ावि": 5896,
      "ागर": 5897,
      "or": 5898,
      "ंभ": 5899,
      "ह्न": 5900,
      "स्यां": 5901,
      "भ्यो": 5902,
      "भूव": 5903,
      "परिच": 5904,
      "ांस्": 5905,
      "र्थ्य": 5906,
      "ग्ने": 5907,
      "ित्तं": 5908,
      "ैत्य": 5909,
      "भवन्त": 5910,
      "खाद": 5911,
      "प्रेत": 5912,
      "पु०": 5913,
      "त्मा": 5914,
      "येद्": 5915,
      "ण्य": 5916,
      "रय": 5917,
      "ाषण": 5918,
      "लिखत": 5919,
      "श्न": 5920,
      "्रू": 5921,
      "जनस": 5922,
      "सफल": 5923,
      "सहाय": 5924,
      "्रयोज": 5925,
      "ाँ": 5926,
      "द्युत": 5927,
      "ार्व": 5928,
      "दुष्": 5929,
      "ार्थन": 5930,
      "be": 5931,
      "थ्यते": 5932,
      "ास्तु": 5933,
      "ामक": 5934,
      "णाम्": 5935,
      "ेि": 5936,
      "ोद्": 5937,
      "्यौ": 5938,
      "भवत": 5939,
      "प्राग": 5940,
      "घ्र": 5941,
      "ीं": 5942,
      "ृपा": 5943,
      "श्वत": 5944,
      "न्धन": 5945,
      "घृ": 5946,
      "भवत्य": 5947,
      "हिः": 5948,
      "चेष्ट": 5949,
      "ऽन": 5950,
      "ाभ्य": 5951,
      "##il": 5952,
      "श्रय": 5953,
      "ाहुः": 5954,
      "रां": 5955,
      "२५": 5956,
      "विदेश": 5957,
      "##ेषु": 5958,
      "यस्तु": 5959,
      "द्देश": 5960,
      "िदम": 5961,
      "ित्यम": 5962,
      "परो": 5963,
      "नरक": 5964,
      "ीपे": 5965,
      "टिप": 5966,
      "हम्": 5967,
      "विन्द": 5968,
      "्तु": 5969,
      "ातुः": 5970,
      "ञ्जन": 5971,
      "आम": 5972,
      "तॄ": 5973,
      "लाल": 5974,
      "15": 5975,
      "स्तद": 5976,
      "श्चर": 5977,
      "ुक्तं": 5978,
      "यया": 5979,
      "ृदि": 5980,
      "ोभ": 5981,
      "भवन्": 5982,
      "ास्थ": 5983,
      "न्ध्य": 5984,
      "दानीम": 5985,
      "ब्ध": 5986,
      "ोधन": 5987,
      "िन्ता": 5988,
      "स्ताव": 5989,
      "छु": 5990,
      "द्यते": 5991,
      "चते": 5992,
      "शरण": 5993,
      "##vi": 5994,
      "वादी": 5995,
      "्मात्": 5996,
      "दति": 5997,
      "तिक": 5998,
      "वयम्": 5999,
      "संद": 6000,
      "ाक्षर": 6001,
      "द्रव": 6002,
      "िषु": 6003,
      "्यध": 6004,
      "विषयः": 6005,
      "िब": 6006,
      "्रेण": 6007,
      "याद": 6008,
      "भाज": 6009,
      "सन्नि": 6010,
      "ज्वल": 6011,
      "द्योग": 6012,
      "यतीति": 6013,
      "वज्": 6014,
      "##it": 6015,
      "पतित": 6016,
      "टिप्": 6017,
      "्ली": 6018,
      "ोदय": 6019,
      "भ्यं": 6020,
      "प्रीत": 6021,
      "ैवं": 6022,
      "तयोः": 6023,
      "माम्": 6024,
      "ीव": 6025,
      "क्षी": 6026,
      "वदत्": 6027,
      "यितुम": 6028,
      "सुप": 6029,
      "महत": 6030,
      "ामिन": 6031,
      "आत्मा": 6032,
      "ुक्": 6033,
      "अवि": 6034,
      "नहि": 6035,
      "्वज": 6036,
      "पीत": 6037,
      "पुल": 6038,
      "माप": 6039,
      "पार्थ": 6040,
      "ादिति": 6041,
      "कमल": 6042,
      "कं": 6043,
      "ृद्ध": 6044,
      "ृष": 6045,
      "जमान": 6046,
      "हृ": 6047,
      "वृष": 6048,
      "्वाहा": 6049,
      "्रकरण": 6050,
      "अन्तर": 6051,
      "्रमण": 6052,
      "रित्य": 6053,
      "ेन्न": 6054,
      "दिल": 6055,
      "यामास": 6056,
      "ष्टम": 6057,
      "र्षिक": 6058,
      "र्य्य": 6059,
      "क्तिः": 6060,
      "ङ्क्": 6061,
      "शयन": 6062,
      "साह": 6063,
      "ाय्": 6064,
      "कुट": 6065,
      "ततस्": 6066,
      "तन्म": 6067,
      "ासी": 6068,
      "्वस्थ": 6069,
      "पाश": 6070,
      "क्रमा": 6071,
      "र्थक": 6072,
      "खो": 6073,
      "ग्निः": 6074,
      "उत्स": 6075,
      "ावद्": 6076,
      "तले": 6077,
      "अश्व": 6078,
      "भयो": 6079,
      "्वयो": 6080,
      "ेतु": 6081,
      "्राक्": 6082,
      "यी": 6083,
      "नाव": 6084,
      "नाहं": 6085,
      "िक्षु": 6086,
      "च्या": 6087,
      "ुत्स": 6088,
      "तिः": 6089,
      "ार्थे": 6090,
      "वादः": 6091,
      "ाम्ना": 6092,
      "ंज्ञा": 6093,
      "द्या": 6094,
      "कोप": 6095,
      "जाति": 6096,
      "सन्धि": 6097,
      "ृतीया": 6098,
      "ंति": 6099,
      "षां": 6100,
      "वाय": 6101,
      "्युत": 6102,
      "योऽ": 6103,
      "जिन": 6104,
      "नारी": 6105,
      "नस्": 6106,
      "lo": 6107,
      "॒व": 6108,
      "ीनि": 6109,
      "ाधिप": 6110,
      "नसि": 6111,
      "##lo": 6112,
      "ेतद्": 6113,
      "ाध्यम": 6114,
      "सय": 6115,
      "२४": 6116,
      "्राव": 6117,
      "आगत": 6118,
      "डी": 6119,
      "ीया": 6120,
      "स्वतः": 6121,
      "दक्ष": 6122,
      "धीन": 6123,
      "रॊ": 6124,
      "ोजन": 6125,
      "युः": 6126,
      "वचनम्": 6127,
      "्वीकृ": 6128,
      "ार्ता": 6129,
      "ा॒": 6130,
      "ग्रत": 6131,
      "्रदेश": 6132,
      "हाय": 6133,
      "ेशस्य": 6134,
      "ans": 6135,
      "िड": 6136,
      "तीत": 6137,
      "वेष": 6138,
      "ूष": 6139,
      "पदेश": 6140,
      "्याद": 6141,
      "टल": 6142,
      "रतः": 6143,
      "्रस्य": 6144,
      "न्तो": 6145,
      "तीत्य": 6146,
      "तावद": 6147,
      "चेत": 6148,
      "ेगु": 6149,
      "विम": 6150,
      "लोक्य": 6151,
      "्मिक": 6152,
      "ीनाम": 6153,
      "स्मिन": 6154,
      "18": 6155,
      "टन": 6156,
      "ूरे": 6157,
      "ाधान": 6158,
      "कर्तृ": 6159,
      "िश्र": 6160,
      "िषद": 6161,
      "शिय": 6162,
      "्यस्त": 6163,
      "्रुव": 6164,
      "्वर्ण": 6165,
      "िदित": 6166,
      "दन्ति": 6167,
      "सख": 6168,
      "ावध": 6169,
      "रन्": 6170,
      "हरण": 6171,
      "तरं": 6172,
      "धुन": 6173,
      "्तुतः": 6174,
      "भवे": 6175,
      "ातव्य": 6176,
      "बलव": 6177,
      "बलं": 6178,
      "ाकि": 6179,
      "केश": 6180,
      "##त्रे": 6181,
      "ारा": 6182,
      "इम": 6183,
      "ीरे": 6184,
      "दशम": 6185,
      "त्मक": 6186,
      "ाहृत": 6187,
      "केत": 6188,
      "कान्त": 6189,
      "सद्": 6190,
      "जनः": 6191,
      "िद्य": 6192,
      "##्रम": 6193,
      "ाण्य": 6194,
      "ाधन": 6195,
      "sh": 6196,
      "sa": 6197,
      "नग": 6198,
      "ुड": 6199,
      "२७": 6200,
      "धौ": 6201,
      "ेज": 6202,
      "ंसि": 6203,
      "हु": 6204,
      "ाद्ध": 6205,
      "वाक्": 6206,
      "्फ": 6207,
      "२६": 6208,
      "िकी": 6209,
      "र्त्य": 6210,
      "अय": 6211,
      "ीर्त": 6212,
      "ादिक": 6213,
      "नुसार": 6214,
      "र्थे": 6215,
      "ामं": 6216,
      "ातुं": 6217,
      "यच्च": 6218,
      "##en": 6219,
      "मीर": 6220,
      "ानव": 6221,
      "तोष": 6222,
      "उपा": 6223,
      "ङ्के": 6224,
      "ुख": 6225,
      "क्रय": 6226,
      "्ती": 6227,
      "अस्मि": 6228,
      "य्य": 6229,
      "्षे": 6230,
      "ताया": 6231,
      "वलोक": 6232,
      "यतु": 6233,
      "श्यं": 6234,
      "ष्टि": 6235,
      "वप": 6236,
      "ूट": 6237,
      "##ञ्": 6238,
      "्यसे": 6239,
      "अन्न": 6240,
      "जं": 6241,
      "सप": 6242,
      "र्म्म": 6243,
      "गताः": 6244,
      "आदि": 6245,
      "नात": 6246,
      "॒त": 6247,
      "याग": 6248,
      "ार्थय": 6249,
      "अच": 6250,
      "चम": 6251,
      "धिय": 6252,
      "्प्र": 6253,
      "ःसा": 6254,
      "ुज": 6255,
      "ोचन": 6256,
      "ायश": 6257,
      "द्भि": 6258,
      "बहि": 6259,
      "न्तरं": 6260,
      "यन्ते": 6261,
      "मस्या": 6262,
      "पते": 6263,
      "र्भ": 6264,
      "सर्वम": 6265,
      "कालं": 6266,
      "्वम": 6267,
      "रुष": 6268,
      "14": 6269,
      "रन्त": 6270,
      "िद्रा": 6271,
      "िक्": 6272,
      "आद": 6273,
      "वीन": 6274,
      "न्नं": 6275,
      "नोप": 6276,
      "तत्प": 6277,
      "ोक्ता": 6278,
      "्वमेव": 6279,
      "तियोग": 6280,
      "िशु": 6281,
      "हृदये": 6282,
      "न्तरे": 6283,
      "मेध": 6284,
      "पुनरा": 6285,
      "विधा": 6286,
      "मिम": 6287,
      "चः": 6288,
      "थि": 6289,
      "मथ": 6290,
      "करं": 6291,
      "तित": 6292,
      "ाका": 6293,
      "##येत्": 6294,
      "ीप्": 6295,
      "पलब्ध": 6296,
      "अश": 6297,
      "ारी": 6298,
      "्मत": 6299,
      "इगु": 6300,
      "णम": 6301,
      "णित": 6302,
      "ीयम्": 6303,
      "ग्रहः": 6304,
      "दया": 6305,
      "ाख्या": 6306,
      "तिथ": 6307,
      "कीय": 6308,
      "स्वप": 6309,
      "मग्र": 6310,
      "हस्य": 6311,
      "विल": 6312,
      "ावय": 6313,
      "ावल": 6314,
      "कारिण": 6315,
      "पह": 6316,
      "रन": 6317,
      "षभ": 6318,
      "ाष": 6319,
      "ीक": 6320,
      "न्थ": 6321,
      "द्रु": 6322,
      "युगे": 6323,
      "com": 6324,
      "गार": 6325,
      "एतस्य": 6326,
      "हितं": 6327,
      "इत्या": 6328,
      "्थापय": 6329,
      "चिक": 6330,
      "मद्": 6331,
      "वसत": 6332,
      "कव": 6333,
      "##us": 6334,
      "नुः": 6335,
      "याना": 6336,
      "त्कृ": 6337,
      "मणि": 6338,
      "नार्थ": 6339,
      "ोऽयं": 6340,
      "ेक्षा": 6341,
      "रिय": 6342,
      "वन्ति": 6343,
      "##ws": 6344,
      "वाज": 6345,
      "रोच": 6346,
      "िवः": 6347,
      "ाभार": 6348,
      "नमस्": 6349,
      "ितुम": 6350,
      "पत्य": 6351,
      "्थं": 6352,
      "ृत्व": 6353,
      "ेध": 6354,
      "्योत": 6355,
      "त्रयो": 6356,
      "ीयः": 6357,
      "जे": 6358,
      "जले": 6359,
      "us": 6360,
      "ध्यते": 6361,
      "हता": 6362,
      "ूम": 6363,
      "ादेव": 6364,
      "अत्य": 6365,
      "चना": 6366,
      "्नि": 6367,
      "नास्त": 6368,
      "्परा": 6369,
      "ुद्धे": 6370,
      "्श": 6371,
      "ाहि": 6372,
      "नद्य": 6373,
      "प्रम": 6374,
      "्वस्य": 6375,
      "यात्र": 6376,
      "्याद्": 6377,
      "अग्र": 6378,
      "is": 6379,
      "रेक": 6380,
      "्यव": 6381,
      "भूष": 6382,
      "वेत्त": 6383,
      "गच्छत": 6384,
      "ाशय": 6385,
      "णो": 6386,
      "धम": 6387,
      "ायां": 6388,
      "द्भव": 6389,
      "वसु": 6390,
      "हत्य": 6391,
      "##ro": 6392,
      "द्वै": 6393,
      "िशेषण": 6394,
      "ोक": 6395,
      "प्रती": 6396,
      "र्शित": 6397,
      "हती": 6398,
      "##xt": 6399,
      "स्तदा": 6400,
      "भोज": 6401,
      "रभ्य": 6402,
      "भावे": 6403,
      "यस्या": 6404,
      "for": 6405,
      "ॊक": 6406,
      "णत": 6407,
      "ापर": 6408,
      "मानः": 6409,
      "चै": 6410,
      "वस्थ": 6411,
      "शन": 6412,
      "ादक": 6413,
      "धारय": 6414,
      "िरिति": 6415,
      "न०": 6416,
      "ियः": 6417,
      "वानर": 6418,
      "ma": 6419,
      "्स्य": 6420,
      "तुः": 6421,
      "दिवा": 6422,
      "रुणा": 6423,
      "्मान": 6424,
      "वादन": 6425,
      "सारं": 6426,
      "णोत": 6427,
      "पय": 6428,
      "हन्ति": 6429,
      "तीयं": 6430,
      "दास्": 6431,
      "धान्य": 6432,
      "ोपि": 6433,
      "नैः": 6434,
      "शे": 6435,
      "ाङ्": 6436,
      "्भव": 6437,
      "न्तत": 6438,
      "िरे": 6439,
      "तरण": 6440,
      "मति": 6441,
      "ाघ": 6442,
      "तिल": 6443,
      "कुर्य": 6444,
      "निवेद": 6445,
      "ारणम्": 6446,
      "ःश": 6447,
      "हू": 6448,
      "ुचि": 6449,
      "ेष्": 6450,
      "ab": 6451,
      "करोत": 6452,
      "ातन": 6453,
      "शस": 6454,
      "परिह": 6455,
      "र्थं": 6456,
      "शुभा": 6457,
      "र्घ": 6458,
      "त्रै": 6459,
      "ारु": 6460,
      "ाऽऽ": 6461,
      "mss": 6462,
      "रभ": 6463,
      "वं": 6464,
      "ाख": 6465,
      "पम": 6466,
      "ालिका": 6467,
      "दशा": 6468,
      "ाग्": 6469,
      "खर": 6470,
      "२३": 6471,
      "समुद": 6472,
      "इच्छा": 6473,
      "दिकं": 6474,
      "ूय": 6475,
      "युष": 6476,
      "न्यद": 6477,
      "िंश": 6478,
      "नानां": 6479,
      "बर": 6480,
      "हद": 6481,
      "ूक": 6482,
      "मन्ये": 6483,
      "रौ": 6484,
      "ोत": 6485,
      "विह": 6486,
      "स्तव": 6487,
      "ङ्ख": 6488,
      "स्थाय": 6489,
      "en": 6490,
      "क्यं": 6491,
      "भ्यते": 6492,
      "ारः": 6493,
      "भावना": 6494,
      "धिना": 6495,
      "्राज": 6496,
      "शव": 6497,
      "ेता": 6498,
      "ाय्य": 6499,
      "ीमा": 6500,
      "्राह": 6501,
      "निम": 6502,
      "ितर": 6503,
      "नन": 6504,
      "यर": 6505,
      "िन्य": 6506,
      "िरस": 6507,
      "दीन": 6508,
      "रचित": 6509,
      "तत्व": 6510,
      "ाज्य": 6511,
      "कारा": 6512,
      "मेष": 6513,
      "जो": 6514,
      "थमे": 6515,
      "यान्त": 6516,
      "तिर": 6517,
      "रिप": 6518,
      "स्वयम": 6519,
      "्मे": 6520,
      "ह्यं": 6521,
      "तुम": 6522,
      "्याज": 6523,
      "रूपम्": 6524,
      "हिंस": 6525,
      "प्रस": 6526,
      "क्तुं": 6527,
      "iii": 6528,
      "बृ": 6529,
      "वरं": 6530,
      "लय्": 6531,
      "णाल": 6532,
      "ीच": 6533,
      "ोत्स": 6534,
      "ात्पर": 6535,
      "त्रं": 6536,
      "तमस": 6537,
      "रीय": 6538,
      "्णव": 6539,
      "तृप": 6540,
      "मं": 6541,
      "मागत": 6542,
      "दाव": 6543,
      "sf": 6544,
      "वयम": 6545,
      "धारणा": 6546,
      "ेखा": 6547,
      "ह्व": 6548,
      "सात": 6549,
      "साल": 6550,
      "ावह": 6551,
      "गुणं": 6552,
      "##ed": 6553,
      "करणीय": 6554,
      "त्कृत": 6555,
      "्द्व": 6556,
      "थः": 6557,
      "लक": 6558,
      "वयो": 6559,
      "ऽहं": 6560,
      "ेहि": 6561,
      "्मार": 6562,
      "्बद्ध": 6563,
      "िहित": 6564,
      "ल्पित": 6565,
      "्षेप": 6566,
      "ानत": 6567,
      "एकस": 6568,
      "निधि": 6569,
      "त्रीण": 6570,
      "िस्तर": 6571,
      "ुग": 6572,
      "ृत्": 6573,
      "्वै": 6574,
      "येत": 6575,
      "िंत": 6576,
      "17": 6577,
      "प्रय": 6578,
      "छे": 6579,
      "द्वन": 6580,
      "िवं": 6581,
      "श्यति": 6582,
      "पस": 6583,
      "ुच": 6584,
      "५०": 6585,
      "्रुत": 6586,
      "तद्व": 6587,
      "13": 6588,
      "रक": 6589,
      "याज": 6590,
      "अना": 6591,
      "कवि": 6592,
      "मद्य": 6593,
      "प्रह": 6594,
      "श्रु": 6595,
      "ान्तः": 6596,
      "रः": 6597,
      "देशी": 6598,
      "शिल": 6599,
      "िरः": 6600,
      "ास्म": 6601,
      "त्मना": 6602,
      "ीः": 6603,
      "ुष्": 6604,
      "sp": 6605,
      "कत्व": 6606,
      "मतः": 6607,
      "२८": 6608,
      "गतं": 6609,
      "da": 6610,
      "भवद": 6611,
      "न्स": 6612,
      "धेन": 6613,
      "पकार": 6614,
      "त्वद": 6615,
      "दुष": 6616,
      "ायु": 6617,
      "जायत": 6618,
      "चरित": 6619,
      "कूल": 6620,
      "्याय": 6621,
      "ताद": 6622,
      "त्ते": 6623,
      "णना": 6624,
      "ीद": 6625,
      "माद": 6626,
      "क्षित": 6627,
      "स्तन": 6628,
      "येक": 6629,
      "मिथ": 6630,
      "िर्व": 6631,
      "ालक": 6632,
      "bo": 6633,
      "गन": 6634,
      "मप": 6635,
      "ादान": 6636,
      "त्तर": 6637,
      "ङ्गा": 6638,
      "अण": 6639,
      "कान": 6640,
      "ऽथ": 6641,
      "ाणी": 6642,
      "तोः": 6643,
      "इतः": 6644,
      "काच": 6645,
      "ामी": 6646,
      "समाप": 6647,
      "लाप": 6648,
      "श्लेष": 6649,
      "ीर्ति": 6650,
      "na": 6651,
      "##स्म": 6652,
      "क्षा": 6653,
      "दयो": 6654,
      "नयत": 6655,
      "ुध": 6656,
      "ver": 6657,
      "नपि": 6658,
      "इमे": 6659,
      "चतुर": 6660,
      "30": 6661,
      "्रण": 6662,
      "ापन": 6663,
      "ावर": 6664,
      "िद्धि": 6665,
      "सर्वो": 6666,
      "शिश": 6667,
      "वेति": 6668,
      "िशा": 6669,
      "तये": 6670,
      "मिन": 6671,
      "र्धा": 6672,
      "nd": 6673,
      "वेष्ट": 6674,
      "ियन्त": 6675,
      "ध्यात": 6676,
      "पश्यत": 6677,
      "पेत": 6678,
      "र्याय": 6679,
      "ुतो": 6680,
      "र्ट": 6681,
      "ुरो": 6682,
      "कक्ष": 6683,
      "चेद": 6684,
      "येद": 6685,
      "ऽस्मि": 6686,
      "ूह": 6687,
      "ोजनं": 6688,
      "क्य": 6689,
      "दिति": 6690,
      "दनु": 6691,
      "िमा": 6692,
      "्यता": 6693,
      "ादश": 6694,
      "नापि": 6695,
      "देशः": 6696,
      "र्थम्": 6697,
      "वित्": 6698,
      "्रिक": 6699,
      "्वया": 6700,
      "अनन्त": 6701,
      "त्त्र": 6702,
      "्पेन": 6703,
      "णय": 6704,
      "ानम": 6705,
      "ानं": 6706,
      "शब्दे": 6707,
      "do": 6708,
      "ही": 6709,
      "नुप": 6710,
      "ोषित": 6711,
      "ात्य": 6712,
      "ाने": 6713,
      "जन्य": 6714,
      "्मित": 6715,
      "ाचा": 6716,
      "४०": 6717,
      "विच": 6718,
      "ुक्ते": 6719,
      "ादित": 6720,
      "ईश": 6721,
      "िवेद": 6722,
      "चैत": 6723,
      "मात्म": 6724,
      "ेवस्य": 6725,
      "गृ": 6726,
      "प्रण": 6727,
      "करे": 6728,
      "न्ह्य": 6729,
      "्भू": 6730,
      "ट्र": 6731,
      "यण": 6732,
      "तिपद": 6733,
      "ड्": 6734,
      "ृणु": 6735,
      "्रम्": 6736,
      "काक": 6737,
      "श्याम": 6738,
      "यशः": 6739,
      "नभ": 6740,
      "णाय": 6741,
      "शम": 6742,
      "िग्": 6743,
      "ैर्य": 6744,
      "्वत्": 6745,
      "नुम": 6746,
      "ाहम": 6747,
      "्तते": 6748,
      "ायण": 6749,
      "महं": 6750,
      "लिं": 6751,
      "्चा": 6752,
      "by": 6753,
      "यत्य": 6754,
      "ेषाम्": 6755,
      "्यति": 6756,
      "िश्व": 6757,
      "ीत्या": 6758,
      "रितः": 6759,
      "घर": 6760,
      "घु": 6761,
      "षण": 6762,
      "्यग्": 6763,
      "त्तिः": 6764,
      "गि": 6765,
      "##ck": 6766,
      "यैव": 6767,
      "ली": 6768,
      "निश्च": 6769,
      "नाद": 6770,
      "इत्यत": 6771,
      "नुज": 6772,
      "र्यय": 6773,
      "्ताह": 6774,
      "##xx": 6775,
      "न्नि": 6776,
      "्यादि": 6777,
      "गुह": 6778,
      "र्थन": 6779,
      "्मय": 6780,
      "la": 6781,
      "जः": 6782,
      "16": 6783,
      "अभ्य": 6784,
      "ामा": 6785,
      "्यथा": 6786,
      "्रव": 6787,
      "वदत": 6788,
      "णव": 6789,
      "्पन्न": 6790,
      "रेल": 6791,
      "(=": 6792,
      "मते": 6793,
      "सेन": 6794,
      "टु": 6795,
      "ीन्": 6796,
      "ेस्": 6797,
      "ानन्त": 6798,
      "रोम": 6799,
      "िर्न": 6800,
      "ेच": 6801,
      "ादर": 6802,
      "ातक": 6803,
      "21": 6804,
      "iv": 6805,
      "लः": 6806,
      "्यप": 6807,
      "एतस": 6808,
      "ेऽस": 6809,
      "ोग्य": 6810,
      "ेनापि": 6811,
      "19": 6812,
      "खँ": 6813,
      "ायो": 6814,
      "महे": 6815,
      "पठन": 6816,
      "ni": 6817,
      "यत्त": 6818,
      "ुवन": 6819,
      "रयेत्": 6820,
      "जनन": 6821,
      "विधं": 6822,
      "next": 6823,
      "गान": 6824,
      "ार्ग": 6825,
      "ुच्छ": 6826,
      "ुषु": 6827,
      "ादु": 6828,
      "३१": 6829,
      "ारक": 6830,
      "ियन": 6831,
      "जन्": 6832,
      "तमा": 6833,
      "कोर": 6834,
      "वन्द": 6835,
      "िज": 6836,
      "्वे": 6837,
      "रणे": 6838,
      "धिप": 6839,
      "्धि": 6840,
      "िल्": 6841,
      "िवेदन": 6842,
      "णीत": 6843,
      "ुत्": 6844,
      "मृत्य": 6845,
      "इमं": 6846,
      "मयं": 6847,
      "ोद्ध": 6848,
      "##ri": 6849,
      "न्दस": 6850,
      "पठित": 6851,
      "्कः": 6852,
      "##me": 6853,
      "तिर्": 6854,
      "दिवि": 6855,
      "ङ्का": 6856,
      "द्ग": 6857,
      "दस": 6858,
      "धव": 6859,
      "धया": 6860,
      "ानुप": 6861,
      "्धित": 6862,
      "वु": 6863,
      "ुस": 6864,
      "ौन": 6865,
      "योगे": 6866,
      "द्यान": 6867,
      "च्छा": 6868,
      "्युः": 6869,
      "लाय": 6870,
      "्वान": 6871,
      "go": 6872,
      "फु": 6873,
      "ीष्": 6874,
      "्ख": 6875,
      "२९": 6876,
      "##णां": 6877,
      "द्यम": 6878,
      "वेद्": 6879,
      "णक": 6880,
      "शश": 6881,
      "मुखं": 6882,
      "आव": 6883,
      "जक": 6884,
      "टर": 6885,
      "मख": 6886,
      "व्": 6887,
      "ुत्तम": 6888,
      "ृग": 6889,
      "श्चैव": 6890,
      "ुरा": 6891,
      "्रसार": 6892,
      "िमुख": 6893,
      "नाम्न": 6894,
      "भवः": 6895,
      "त्वत्": 6896,
      "्त्वं": 6897,
      "पं": 6898,
      "ृह": 6899,
      "ालो": 6900,
      "तमो": 6901,
      "नेति": 6902,
      "ायाः": 6903,
      "answ": 6904,
      "es": 6905,
      "भूतं": 6906,
      "nce": 6907,
      "वीत": 6908,
      "र्षि": 6909,
      "र्ब": 6910,
      "लिन": 6911,
      "दव": 6912,
      "शल": 6913,
      "हुः": 6914,
      "्घ": 6915,
      "्रज्ञ": 6916,
      "िते": 6917,
      "तन्त": 6918,
      "##te": 6919,
      "वदन": 6920,
      "हस्ते": 6921,
      "आज": 6922,
      "यक्ष": 6923,
      "र्जा": 6924,
      "्यधिक": 6925,
      "ङि": 6926,
      "ीर्य": 6927,
      "इत्": 6928,
      "तिभा": 6929,
      "नाः": 6930,
      "कर्मण": 6931,
      "pd": 6932,
      "टक": 6933,
      "ोषण": 6934,
      "पास": 6935,
      "ऽप्य": 6936,
      "नाभ": 6937,
      "तदु": 6938,
      "लह": 6939,
      "िरं": 6940,
      "वार्त": 6941,
      "25": 6942,
      "जह": 6943,
      "पै": 6944,
      "ून": 6945,
      "ृष्ण": 6946,
      "ानक": 6947,
      "जेत": 6948,
      "बे": 6949,
      "ानी": 6950,
      "्रस": 6951,
      "निप": 6952,
      "द्द": 6953,
      "विकि": 6954,
      "ट्य": 6955,
      "ीट": 6956,
      "र्हि": 6957,
      "स्तेन": 6958,
      "पदा": 6959,
      "शय": 6960,
      "वस्व": 6961,
      "्ट्र": 6962,
      "मुपा": 6963,
      "=>": 6964,
      "वग": 6965,
      "िधान": 6966,
      "ितम": 6967,
      "fi": 6968,
      "स्तान": 6969,
      "तमेव": 6970,
      "ुल्": 6971,
      "िपु": 6972,
      "##ate": 6973,
      "co": 6974,
      "si": 6975,
      "ोत्र": 6976,
      "३२": 6977,
      "##ti": 6978,
      "जन्त": 6979,
      "थात": 6980,
      "पन": 6981,
      "ासस्य": 6982,
      "चिद": 6983,
      "बलि": 6984,
      "ध्वन": 6985,
      "ओं": 6986,
      "ृज": 6987,
      "##ge": 6988,
      "र्गत": 6989,
      "निरा": 6990,
      "िन्दु": 6991,
      "ारित": 6992,
      "श्चा": 6993,
      "रूपे": 6994,
      "ियो": 6995,
      "्रस्त": 6996,
      "्तरि": 6997,
      "ङ्गत": 6998,
      "्भाव": 6999,
      "ानीं": 7000,
      "तुर्": 7001,
      "त्येव": 7002,
      "ाचर": 7003,
      "ाशु": 7004,
      "ऋष": 7005,
      "तरे": 7006,
      "द्यत": 7007,
      "्तिक": 7008,
      "ध्": 7009,
      "पः": 7010,
      "वाक": 7011,
      "ादृश": 7012,
      "न्यू": 7013,
      "ङ्गम": 7014,
      "शाक": 7015,
      "षित": 7016,
      "्वस्त": 7017,
      "्वती": 7018,
      "ाहस": 7019,
      "त्सम": 7020,
      "वोच": 7021,
      "ज्": 7022,
      "िज्ञा": 7023,
      "प्रश": 7024,
      "वाण": 7025,
      "मेद": 7026,
      "त्यम": 7027,
      "करणं": 7028,
      "ed": 7029,
      "मत्": 7030,
      "शित": 7031,
      "हति": 7032,
      "वेदना": 7033,
      "ि॑": 7034,
      "ुब": 7035,
      "ु॒": 7036,
      "निर्व": 7037,
      "्वल": 7038,
      "ष्टा": 7039,
      "ष्टु": 7040,
      "द्विष": 7041,
      "pdf": 7042,
      "्वय": 7043,
      "वधि": 7044,
      "आत": 7045,
      "रेण": 7046,
      "ष्कर": 7047,
      "ासो": 7048,
      "्णो": 7049,
      "अक्ष": 7050,
      "गस्त": 7051,
      "भृ": 7052,
      "तुष्": 7053,
      "कुत": 7054,
      "ाणा": 7055,
      "ावित": 7056,
      "ाक्षि": 7057,
      "भवती": 7058,
      "वैर": 7059,
      "ाज्ये": 7060,
      "लाः": 7061,
      "ा॑": 7062,
      "ियं": 7063,
      "्रयः": 7064,
      "मेन": 7065,
      "ावर्त": 7066,
      "ष्टक": 7067,
      "ियोग": 7068,
      "ियत": 7069,
      "ादप": 7070,
      "su": 7071,
      "नता": 7072,
      "तिष": 7073,
      "मन्व": 7074,
      "िवास": 7075,
      "me": 7076,
      "ाष्ट": 7077,
      "क्षः": 7078,
      "व्यप": 7079,
      "करणम्": 7080,
      "post": 7081,
      "ch": 7082,
      "di": 7083,
      "कैः": 7084,
      "ादय": 7085,
      "कानि": 7086,
      "प्प": 7087,
      "रस्य": 7088,
      "ाच्छ": 7089,
      "ारे": 7090,
      "ाश्व": 7091,
      "ap": 7092,
      "दत": 7093,
      "ूत्रे": 7094,
      "नामा": 7095,
      "गोल": 7096,
      "िर्वि": 7097,
      "ाफ": 7098,
      "स्तत्": 7099,
      "ाव्य": 7100,
      "ावृत": 7101,
      "ातं": 7102,
      "िगम": 7103,
      "िश्वस": 7104,
      "यन्न": 7105,
      "्वद": 7106,
      "##chi": 7107,
      "दह": 7108,
      "यन्तु": 7109,
      "ूं": 7110,
      "्रेषु": 7111,
      "संह": 7112,
      "ारम": 7113,
      "वपु": 7114,
      "ex": 7115,
      "थन": 7116,
      "बं": 7117,
      "ावक": 7118,
      "ख्या": 7119,
      "भुव": 7120,
      "ययु": 7121,
      "सां": 7122,
      "्यद": 7123,
      "ायम": 7124,
      "तदर्थ": 7125,
      "रुच": 7126,
      "तमं": 7127,
      "ाप्ता": 7128,
      "वयस": 7129,
      "जन्मन": 7130,
      "ri": 7131,
      "बन": 7132,
      "भया": 7133,
      "मज": 7134,
      "ुना": 7135,
      "प्रयत": 7136,
      "वाग्": 7137,
      "ावद": 7138,
      "्रीण": 7139,
      "pa": 7140,
      "pre": 7141,
      "गन्": 7142,
      "चक": 7143,
      "थाः": 7144,
      "३३": 7145,
      "्यहं": 7146,
      "archi": 7147,
      "ca": 7148,
      "यान्": 7149,
      "वन्तु": 7150,
      "##ear": 7151,
      "व्यो": 7152,
      "ततॊ": 7153,
      "तावत": 7154,
      "ूर्ति": 7155,
      "कश": 7156,
      "वाद्य": 7157,
      "्धार": 7158,
      "स्तः": 7159,
      "वृष्ट": 7160,
      "ुरू": 7161,
      "अपर": 7162,
      "िन्तय": 7163,
      "अब": 7164,
      "ेयम्": 7165,
      "तीये": 7166,
      "xxx": 7167,
      "धाम": 7168,
      "ोऽध": 7169,
      "दशक": 7170,
      "द्धि": 7171,
      "्थिता": 7172,
      "्रकार": 7173,
      "अनुप": 7174,
      "रेत": 7175,
      "कोष": 7176,
      "तवा": 7177,
      "वर्तत": 7178,
      "यंत": 7179,
      "24": 7180,
      "र्स": 7181,
      "un": 7182,
      "ves": 7183,
      "तीर": 7184,
      "पना": 7185,
      "ुस्": 7186,
      "ुत्त": 7187,
      "राह": 7188,
      "त्तु": 7189,
      "धिं": 7190,
      "जू": 7191,
      "क्षु": 7192,
      "िके": 7193,
      "नास": 7194,
      "नुव": 7195,
      "र्थी": 7196,
      "ासा": 7197,
      "ाभिर": 7198,
      "गिन": 7199,
      "ty": 7200,
      "सरे": 7201,
      "असौ": 7202,
      "क्या": 7203,
      "ूषण": 7204,
      "वाः": 7205,
      "मानो": 7206,
      "गतो": 7207,
      "ेदन": 7208,
      "चौ": 7209,
      "ाचि": 7210,
      "ुचित": 7211,
      "चन्द": 7212,
      "थो": 7213,
      "्वद्": 7214,
      "तिमा": 7215,
      "मुद": 7216,
      "पाणि": 7217,
      "्तव": 7218,
      "शिर": 7219,
      "योगि": 7220,
      "ोऽहं": 7221,
      "कृष्ट": 7222,
      "्मद": 7223,
      "अभिव": 7224,
      "news": 7225,
      "्र्": 7226,
      "##ma": 7227,
      "विरा": 7228,
      "राव": 7229,
      "कथयत": 7230,
      "्टर": 7231,
      "यथो": 7232,
      "ुलि": 7233,
      "जै": 7234,
      "जरा": 7235,
      "य्या": 7236,
      "षी": 7237,
      "िक्त": 7238,
      "िङ्ग": 7239,
      "शिष": 7240,
      "तत्रा": 7241,
      "डु": 7242,
      "ृच्छ": 7243,
      "िवाद": 7244,
      "ज्जा": 7245,
      "पत्ति": 7246,
      "जव": 7247,
      "्यनु": 7248,
      "ाद्या": 7249,
      "समाच": 7250,
      "वनं": 7251,
      "गद्": 7252,
      "##sc": 7253,
      "्यान": 7254,
      "ाल्": 7255,
      "िहत": 7256,
      "रस्त": 7257,
      "रत्व": 7258,
      "ानेन": 7259,
      "्वेष": 7260,
      "िनाम": 7261,
      "ra": 7262,
      "ेब": 7263,
      "दर्शय": 7264,
      "यिक": 7265,
      "ाग्न": 7266,
      "्ञा": 7267,
      "ीला": 7268,
      "ुभ": 7269,
      "माग": 7270,
      "्तरे": 7271,
      "त्सु": 7272,
      "्भूत": 7273,
      "्रु": 7274,
      "नात्": 7275,
      "ेशव": 7276,
      "िरो": 7277,
      "यूय": 7278,
      "डो": 7279,
      "ष्यते": 7280,
      "निय": 7281,
      "तिस": 7282,
      "ारस्य": 7283,
      "तवं": 7284,
      "नान्य": 7285,
      "भे": 7286,
      "ममा": 7287,
      "जाग": 7288,
      "ुमु": 7289,
      "नगरे": 7290,
      "गल": 7291,
      "##de": 7292,
      "##ter": 7293,
      "रमण": 7294,
      "रवि": 7295,
      "रकं": 7296,
      "सवि": 7297,
      "निर्म": 7298,
      "्रक्ष": 7299,
      "ad": 7300,
      "नयो": 7301,
      "धुना": 7302,
      "तायाः": 7303,
      "कन्": 7304,
      "नश्च": 7305,
      "मना": 7306,
      "ानो": 7307,
      "एको": 7308,
      "वर्य": 7309,
      "सरस": 7310,
      "थे": 7311,
      "रते": 7312,
      "न्तरा": 7313,
      "मेवा": 7314,
      "जार": 7315,
      "थवा": 7316,
      "##च्": 7317,
      "ज्ञः": 7318,
      "ेवा": 7319,
      "ंह": 7320,
      "थां": 7321,
      "श्म": 7322,
      "ुधा": 7323,
      "ोज्य": 7324,
      "कारो": 7325,
      "बहुव": 7326,
      "ुष्क": 7327,
      "ूर्": 7328,
      "्ठ": 7329,
      "्रभ": 7330,
      "्वो": 7331,
      "नाभि": 7332,
      "ाहार": 7333,
      "िदेश": 7334,
      "up": 7335,
      "कच": 7336,
      "्तृत": 7337,
      "मई": 7338,
      "िध्य": 7339,
      "ातम्": 7340,
      "केन्द": 7341,
      "ीतं": 7342,
      "नेपा": 7343,
      "त्तमम": 7344,
      "वति": 7345,
      "सुन": 7346,
      "अनि": 7347,
      "ाप्र": 7348,
      "ीयत": 7349,
      "शर्": 7350,
      "िगु": 7351,
      "ुष्ट": 7352,
      "३५": 7353,
      "ष्टं": 7354,
      "जस": 7355,
      "दां": 7356,
      "यह": 7357,
      "ह्": 7358,
      "्येत": 7359,
      "निः": 7360,
      "तिदि": 7361,
      "रास": 7362,
      "ङ्गी": 7363,
      "्ट्": 7364,
      "तिदिन": 7365,
      "खा": 7366,
      "भिक्ष": 7367,
      "वेदित": 7368,
      "मला": 7369,
      "23": 7370,
      "लङ्": 7371,
      "हास": 7372,
      "ूनि": 7373,
      "्यग": 7374,
      "स्यते": 7375,
      "न्ता": 7376,
      "कारी": 7377,
      "ंविध": 7378,
      "स्यु": 7379,
      "िकाः": 7380,
      "्रिये": 7381,
      "श्यन्": 7382,
      "्वाद": 7383,
      "पुरु": 7384,
      "ियम": 7385,
      "र्मः": 7386,
      "इन": 7387,
      "कार्": 7388,
      "ेशे": 7389,
      "वेद्य": 7390,
      "धरा": 7391,
      "वयः": 7392,
      "ुते": 7393,
      "मिष": 7394,
      "लोका": 7395,
      "िणां": 7396,
      "नोर": 7397,
      "ेके": 7398,
      "ार्गे": 7399,
      "गाः": 7400,
      "पां": 7401,
      "िप्र": 7402,
      "ेषण": 7403,
      "ितिः": 7404,
      "कस": 7405,
      "लास": 7406,
      "ीस": 7407,
      "ीते": 7408,
      "रार्थ": 7409,
      "तुं": 7410,
      "ारभ": 7411,
      "ालि": 7412,
      "रोद": 7413,
      "असि": 7414,
      "ित्रा": 7415,
      "मता": 7416,
      "ूद": 7417,
      "क्षणे": 7418,
      "27": 7419,
      "उत्": 7420,
      "मक": 7421,
      "मस्य": 7422,
      "षाद": 7423,
      "्वाम": 7424,
      "नाप": 7425,
      "तात्": 7426,
      "कलि": 7427,
      "त्याः": 7428,
      "थ्": 7429,
      "ौम": 7430,
      "३६": 7431,
      "न्ये": 7432,
      "ासः": 7433,
      "भ्यु": 7434,
      "दै": 7435,
      "्व्व": 7436,
      "ेदना": 7437,
      "श्यम": 7438,
      "ve": 7439,
      "्वन": 7440,
      "कादश": 7441,
      "मेल": 7442,
      "वन्य": 7443,
      "र्गः": 7444,
      "नश्य": 7445,
      "िघ": 7446,
      "महि": 7447,
      "मिह": 7448,
      "50": 7449,
      "ng": 7450,
      "आश": 7451,
      "लेन": 7452,
      "्यभ": 7453,
      "्रेय": 7454,
      "्मी": 7455,
      "कर्तु": 7456,
      "आसन": 7457,
      "नेह": 7458,
      "धिः": 7459,
      "यतन": 7460,
      "दिक्": 7461,
      "गे": 7462,
      "पृष्ठ": 7463,
      "बला": 7464,
      "(?": 7465,
      "22": 7466,
      "्व्": 7467,
      "मुन": 7468,
      "हस": 7469,
      "ेयम": 7470,
      "##ly": 7471,
      "ष्टय": 7472,
      "खु": 7473,
      "३७": 7474,
      "भवान": 7475,
      "करः": 7476,
      "मर्": 7477,
      "िङ्": 7478,
      "ीज": 7479,
      "्येण": 7480,
      "समी": 7481,
      "यस्व": 7482,
      "न्धः": 7483,
      "धः": 7484,
      "वीं": 7485,
      "ान्व": 7486,
      "तदान": 7487,
      "रम्य": 7488,
      "द्याव": 7489,
      "ंस्त": 7490,
      "इन्द": 7491,
      "नस": 7492,
      "लयं": 7493,
      "न्दा": 7494,
      "कर्मक": 7495,
      "यमाण": 7496,
      "सज": 7497,
      "हान": 7498,
      "रुद": 7499,
      "षाण": 7500,
      "ध्याप": 7501,
      "्प्रत": 7502,
      "्रीत": 7503,
      "ायेत": 7504,
      "ापय": 7505,
      "असम": 7506,
      "चिन्": 7507,
      "्वामि": 7508,
      "mo": 7509,
      "४५": 7510,
      "्रो": 7511,
      "तुक": 7512,
      "ध्वं": 7513,
      "कारय": 7514,
      "्वाव": 7515,
      "ाशा": 7516,
      "आचार": 7517,
      "सत्व": 7518,
      "##ct": 7519,
      "त्र्य": 7520,
      "िक्रम": 7521,
      "येऽ": 7522,
      "ार्ष": 7523,
      "क्षणा": 7524,
      "बंध": 7525,
      "आय": 7526,
      "पच": 7527,
      "िरण": 7528,
      "िकः": 7529,
      "व्याख": 7530,
      "गू": 7531,
      "मर्थ": 7532,
      "लल": 7533,
      "सल": 7534,
      "ियोज": 7535,
      "ितौ": 7536,
      "साथ": 7537,
      "फलम": 7538,
      "्र्य": 7539,
      "साव": 7540,
      "ुरु": 7541,
      "यमः": 7542,
      "आत्मन": 7543,
      "ंबन्ध": 7544,
      "कश्": 7545,
      "्यत्व": 7546,
      "ंर": 7547,
      "ेधा": 7548,
      "असत": 7549,
      "ाकर": 7550,
      "स्माद": 7551,
      "थैव": 7552,
      "रश्": 7553,
      "हर्": 7554,
      "वतो": 7555,
      "्गु": 7556,
      "्रद": 7557,
      "सूर": 7558,
      "ित्यत": 7559,
      "उभौ": 7560,
      "verse": 7561,
      "tra": 7562,
      "you": 7563,
      "सभ": 7564,
      "्यक": 7565,
      "्यस्य": 7566,
      "त्वर": 7567,
      "्वाभ": 7568,
      "ात्व": 7569,
      "ुश": 7570,
      "्रास": 7571,
      "तस्थ": 7572,
      "ाक्रम": 7573,
      "िष्ठि": 7574,
      "26": 7575,
      "40": 7576,
      "खन": 7577,
      "ृता": 7578,
      "स्ना": 7579,
      "पुष्ट": 7580,
      "त्यां": 7581,
      "्लभ": 7582,
      "र्याद": 7583,
      "हत्": 7584,
      "्यन": 7585,
      "माय": 7586,
      "युर्": 7587,
      "्मु": 7588,
      "आपः": 7589,
      "हन्": 7590,
      "िवि": 7591,
      "ान्द": 7592,
      "्हा": 7593,
      "मम्": 7594,
      "तैर": 7595,
      "year": 7596,
      "कया": 7597,
      "दयः": 7598,
      "सस्य": 7599,
      "मुद्": 7600,
      "त्यम्": 7601,
      "अधो": 7602,
      "ाप्ति": 7603,
      "वादे": 7604,
      "्ने": 7605,
      "्नु": 7606,
      "वय्": 7607,
      "ीडा": 7608,
      "्रभात": 7609,
      "##ta": 7610,
      "स्याम": 7611,
      "्व्य": 7612,
      "सुरा": 7613,
      "अधः": 7614,
      "अवस": 7615,
      "िमत": 7616,
      "ाणिन": 7617,
      "अस्या": 7618,
      "ग्ल": 7619,
      "मत्त": 7620,
      "वाग": 7621,
      "र्ल": 7622,
      "भिध": 7623,
      "ुरं": 7624,
      "##si": 7625,
      "िपत": 7626,
      "##कः": 7627,
      "ाकम": 7628,
      "स्तू": 7629,
      "ागं": 7630,
      "नमो": 7631,
      "ीका": 7632,
      "र्यु": 7633,
      "मस्त": 7634,
      "यल": 7635,
      "हवि": 7636,
      "पर्या": 7637,
      "ताभ": 7638,
      "भाव्य": 7639,
      "ासक": 7640,
      "लप": 7641,
      "लग": 7642,
      "याय": 7643,
      "नाक": 7644,
      "ापद": 7645,
      "कथ्य": 7646,
      "लोच": 7647,
      "तपः": 7648,
      "च्य": 7649,
      "भर्त": 7650,
      "ाव्": 7651,
      "कलं": 7652,
      "न्दन": 7653,
      "ीक्षा": 7654,
      "le": 7655,
      "अव्य": 7656,
      "ेग": 7657,
      "४१": 7658,
      "ुरः": 7659,
      "छग": 7660,
      "नह": 7661,
      "##cs": 7662,
      "त्वय": 7663,
      "त्रु": 7664,
      "ारय": 7665,
      "क्रे": 7666,
      "ावत": 7667,
      "वत्सर": 7668,
      "उत्त": 7669,
      "सीत": 7670,
      "्येक": 7671,
      "क्षते": 7672,
      "उपस": 7673,
      "ान्ता": 7674,
      "र्वा": 7675,
      "रैः": 7676,
      "वेत": 7677,
      "ऽस्ति": 7678,
      "ुष्ठ": 7679,
      "मार्थ": 7680,
      "त्यं": 7681,
      "रिश्": 7682,
      "ीयस": 7683,
      "नीया": 7684,
      "िष्ठत": 7685,
      "एनं": 7686,
      "gh": 7687,
      "खि": 7688,
      "जयत": 7689,
      "फा": 7690,
      "फे": 7691,
      "रग": 7692,
      "लिय": 7693,
      "्यया": 7694,
      "भूता": 7695,
      "िष्यत": 7696,
      "cha": 7697,
      "खं": 7698,
      "बध": 7699,
      "रत्": 7700,
      "लस": 7701,
      "म्ना": 7702,
      "स्त्य": 7703,
      "हिर": 7704,
      "्मुख": 7705,
      "ाविश": 7706,
      "्भवति": 7707,
      "छः": 7708,
      "रीर": 7709,
      "ात्त": 7710,
      "शुक": 7711,
      "वारि": 7712,
      "्रिम": 7713,
      "णात्": 7714,
      "णार्थ": 7715,
      "थापि": 7716,
      "ज्यते": 7717,
      "माच": 7718,
      "िकरण": 7719,
      "रिया": 7720,
      "ाले": 7721,
      "(),": 7722,
      "्तीति": 7723,
      "लता": 7724,
      "ौर्": 7725,
      "्षु": 7726,
      "६०": 7727,
      "ेने": 7728,
      "देशक": 7729,
      "व्याः": 7730,
      "नरे": 7731,
      "वच्छ": 7732,
      "्यत्": 7733,
      "ेनैव": 7734,
      "्मण": 7735,
      "धनम्": 7736,
      "तवे": 7737,
      "नेय": 7738,
      "्सु": 7739,
      "ददौ": 7740,
      "ऽन्य": 7741,
      "कह": 7742,
      "ऽस": 7743,
      "४२": 7744,
      "ानर": 7745,
      "दिस": 7746,
      "प्रज": 7747,
      "ाल्य": 7748,
      "भावो": 7749,
      "ाच्व": 7750,
      "म्या": 7751,
      "शान": 7752,
      "िचार": 7753,
      "तिम्": 7754,
      "ामन": 7755,
      "28": 7756,
      "लना": 7757,
      "लिक": 7758,
      "ीना": 7759,
      "ीत्वा": 7760,
      "ेदि": 7761,
      "किन": 7762,
      "नुष": 7763,
      "कालि": 7764,
      "छगू": 7765,
      "ous": 7766,
      "छन्द": 7767,
      "तति": 7768,
      "पयो": 7769,
      "ीयं": 7770,
      "्राय": 7771,
      "त्प्र": 7772,
      "क्रो": 7773,
      "द्धर": 7774,
      "निस": 7775,
      "करि": 7776,
      "्मः": 7777,
      "िरा": 7778,
      "शीर्": 7779,
      "ीर्ष": 7780,
      "भवेद": 7781,
      "ादिन": 7782,
      "ान्स": 7783,
      "तवान्": 7784,
      "्यासः": 7785,
      "वेदा": 7786,
      "स्पर्": 7787,
      "खोज": 7788,
      "mb": 7789,
      "ns": 7790,
      "ंप": 7791,
      "रं": 7792,
      "लव": 7793,
      "िङ": 7794,
      "ोई": 7795,
      "्त्त": 7796,
      "परिव": 7797,
      "त्तत्": 7798,
      "ास्व": 7799,
      "ासिक": 7800,
      "र्तु": 7801,
      "ोऽस्म": 7802,
      "्पद": 7803,
      "्टि": 7804,
      "ूच": 7805,
      "्यश्च": 7806,
      "्याक": 7807,
      "ावे": 7808,
      "मधि": 7809,
      "उच्य": 7810,
      "ाजन": 7811,
      "न्तिक": 7812,
      "भवं": 7813,
      "नाह": 7814,
      "येण": 7815,
      "ामेव": 7816,
      "wor": 7817,
      "कष": 7818,
      "छि": 7819,
      "जर": 7820,
      "ेभ": 7821,
      "ताक": 7822,
      "ंका": 7823,
      "ृद": 7824,
      "त्पर": 7825,
      "त्र्": 7826,
      "भावेन": 7827,
      "ाची": 7828,
      "िणा": 7829,
      "रतो": 7830,
      "लम": 7831,
      "िदा": 7832,
      "गतम": 7833,
      "ाकृ": 7834,
      "ेहे": 7835,
      "्सर": 7836,
      "स्कर": 7837,
      "mi": 7838,
      "डे": 7839,
      "ीदृश": 7840,
      "५५": 7841,
      "ददात": 7842,
      "३४": 7843,
      "्वये": 7844,
      "ाहे": 7845,
      "िमु": 7846,
      "ki": 7847,
      "wi": 7848,
      "काला": 7849,
      "ाध्या": 7850,
      "थौ": 7851,
      "पप": 7852,
      "४४": 7853,
      "ावः": 7854,
      "मयत": 7855,
      "we": 7856,
      "शयः": 7857,
      "र्मन": 7858,
      "ायस": 7859,
      "त्यव": 7860,
      "यत्प": 7861,
      "एतं": 7862,
      "अथे": 7863,
      "्त्रि": 7864,
      "िवेश": 7865,
      "िंशति": 7866,
      "ंख्य": 7867,
      "इन्": 7868,
      "िञ्च": 7869,
      "३८": 7870,
      "८०": 7871,
      "धिर्": 7872,
      "्राणि": 7873,
      "्कर": 7874,
      "षे": 7875,
      "ृच": 7876,
      "तेना": 7877,
      "वाऽ": 7878,
      "वरः": 7879,
      "ेल्": 7880,
      "जितः": 7881,
      "pro": 7882,
      "विष्": 7883,
      "्येष": 7884,
      "स्यात": 7885,
      "िकं": 7886,
      "रमत": 7887,
      "read": 7888,
      "एस्": 7889,
      "जत": 7890,
      "र्भव": 7891,
      "ाद्व": 7892,
      "दिग": 7893,
      "ुरक्ष": 7894,
      "ाश्": 7895,
      "ामास": 7896,
      "मरा": 7897,
      "ुन्": 7898,
      "ुदा": 7899,
      "न्ना": 7900,
      "live": 7901,
      "qu": 7902,
      "नच": 7903,
      "रै": 7904,
      "हः": 7905,
      "्याच": 7906,
      "पिन": 7907,
      "ामो": 7908,
      "ाट्": 7909,
      "यद्यप": 7910,
      "pi": 7911,
      "कर्": 7912,
      "कां": 7913,
      "किस": 7914,
      "्बु": 7915,
      "चाप": 7916,
      "ंस्कृ": 7917,
      "रके": 7918,
      "अ०": 7919,
      "यमन": 7920,
      "हस्र": 7921,
      "माव": 7922,
      "क्षाद": 7923,
      "न्यव": 7924,
      "र्ति": 7925,
      "##dia": 7926,
      "कतम": 7927,
      "पत्": 7928,
      "लीन": 7929,
      "ऽयं": 7930,
      "ोवि": 7931,
      "द्ब": 7932,
      "विषा": 7933,
      "च्चार": 7934,
      "##ut": 7935,
      "्वेद": 7936,
      "ारो": 7937,
      "एतौ": 7938,
      "कस्मि": 7939,
      "त०": 7940,
      "स्वस": 7941,
      "नादि": 7942,
      "कल्पय": 7943,
      "ाचित": 7944,
      "्लि": 7945,
      "चत": 7946,
      "छेद": 7947,
      "##ci": 7948,
      "्वत": 7949,
      "तिप्र": 7950,
      "न्मा": 7951,
      "ण्या": 7952,
      "मयो": 7953,
      "तेः": 7954,
      "न्तम्": 7955,
      "सुम": 7956,
      "ंरक्ष": 7957,
      "यङ": 7958,
      "##as": 7959,
      "्याल": 7960,
      "येति": 7961,
      "विधीय": 7962,
      "तस्मि": 7963,
      "रीति": 7964,
      "रितं": 7965,
      "vii": 7966,
      "am": 7967,
      "ाक्": 7968,
      ">>": 7969,
      "कण": 7970,
      "जते": 7971,
      "४७": 7972,
      "भवेत": 7973,
      "मुक": 7974,
      "र्थत": 7975,
      "भार्य": 7976,
      "धिर": 7977,
      "द्धय": 7978,
      "्ड्": 7979,
      "बत": 7980,
      "लश": 7981,
      "ावा": 7982,
      "ाधित": 7983,
      "mp": 7984,
      "टा": 7985,
      "फि": 7986,
      "ोस": 7987,
      "७०": 7988,
      "##ld": 7989,
      "प्रवर": 7990,
      "पूजय": 7991,
      "आदौ": 7992,
      "तना": 7993,
      "रमा": 7994,
      "ुद्र": 7995,
      "िताय": 7996,
      "तिक्र": 7997,
      "वरा": 7998,
      "ष्टे": 7999,
      "ोपा": 8000,
      "द्रि": 8001,
      "्वरः": 8002,
      "्विध": 8003,
      "कृतिः": 8004,
      "आयु": 8005,
      "मीत": 8006,
      "रब": 8007,
      "प्रि": 8008,
      "##भाष": 8009,
      "रिभाष": 8010,
      "भोः": 8011,
      "ंम": 8012,
      "न्या": 8013,
      "र्यात": 8014,
      "४८": 8015,
      "इत्यु": 8016,
      "ावस्थ": 8017,
      "विक्र": 8018,
      "िपा": 8019,
      "म्पाद": 8020,
      "as": 8021,
      "्यथ": 8022,
      "ागा": 8023,
      "थाप": 8024,
      "्येवं": 8025,
      "कत": 8026,
      "गः": 8027,
      "भान": 8028,
      "मिक": 8029,
      "लौ": 8030,
      "४६": 8031,
      "५२": 8032,
      "५१": 8033,
      "त्रे": 8034,
      "ावन्": 8035,
      "्वादि": 8036,
      "देशो": 8037,
      "ीणां": 8038,
      "्तरेण": 8039,
      "mor": 8040,
      "णन": 8041,
      "दाम": 8042,
      "यमा": 8043,
      "रेष": 8044,
      "्वेन": 8045,
      "अण्": 8046,
      "previ": 8047,
      "35": 8048,
      "उगु": 8049,
      "्यार": 8050,
      "ायै": 8051,
      "ालये": 8052,
      "माणा": 8053,
      "ro": 8054,
      "टित": 8055,
      "मक्ष": 8056,
      "४९": 8057,
      "न्तम": 8058,
      "स्तक": 8059,
      "काश्": 8060,
      "िप्": 8061,
      "ायात": 8062,
      "san": 8063,
      "ंन": 8064,
      "चस": 8065,
      "ड्य": 8066,
      "तस्त": 8067,
      "##सत": 8068,
      "राति": 8069,
      "भा०": 8070,
      "ावना": 8071,
      "ेशन": 8072,
      "्लो": 8073,
      "दोषा": 8074,
      "रप": 8075,
      "सत्त": 8076,
      "सान्": 8077,
      "ुप्र": 8078,
      "##ll": 8079,
      "र्यव": 8080,
      "तानां": 8081,
      "my": 8082,
      "औसत": 8083,
      "सना": 8084,
      "ेत्रे": 8085,
      "ोति": 8086,
      "प्रात": 8087,
      "विज्ञ": 8088,
      "्रित": 8089,
      "कृत्व": 8090,
      "चिन": 8091,
      "all": 8092,
      "चाय": 8093,
      "षाय": 8094,
      "वाव": 8095,
      "िक्षे": 8096,
      "धृ": 8097,
      "ुश्च": 8098,
      "क्रु": 8099,
      "मिद": 8100,
      "्विप": 8101,
      "ुखे": 8102,
      "ूत्र": 8103,
      "ैश": 8104,
      "##ok": 8105,
      "कारं": 8106,
      "ायि": 8107,
      "किन्": 8108,
      "ालयः": 8109,
      "त्तद": 8110,
      "न्दु": 8111,
      "्रमः": 8112,
      "वह्न": 8113,
      "शब्": 8114,
      "ऽनु": 8115,
      "्रेष": 8116,
      "शेषे": 8117,
      "पद्यत": 8118,
      "स्रो": 8119,
      "ार्यम": 8120,
      "नत्व": 8121,
      "्ते": 8122,
      "सुद": 8123,
      "धुर": 8124,
      "nep": 8125,
      "ाषा": 8126,
      "ब्रा": 8127,
      "हारः": 8128,
      "शिक": 8129,
      "ऽव": 8130,
      "५४": 8131,
      "स्यैव": 8132,
      "त्रो": 8133,
      "अध्या": 8134,
      "ाधा": 8135,
      "म्बन": 8136,
      "उभे": 8137,
      "िच्": 8138,
      "पेन": 8139,
      "फो": 8140,
      "मिका": 8141,
      "यस्त": 8142,
      "##ya": 8143,
      "दिद": 8144,
      "ष्ट्र": 8145,
      "्ला": 8146,
      "्षप": 8147,
      "32": 8148,
      "ju": 8149,
      "गाय": 8150,
      "४३": 8151,
      "ासव": 8152,
      "श्वस": 8153,
      "ूर्णा": 8154,
      "निपात": 8155,
      "ादा": 8156,
      "ायन्त": 8157,
      "मिश": 8158,
      "ेशान": 8159,
      "तरा": 8160,
      "नरो": 8161,
      "अरे": 8162,
      "तत्त": 8163,
      "मभ": 8164,
      "रता": 8165,
      "वत्त": 8166,
      "##wn": 8167,
      "ायय": 8168,
      "त्ये": 8169,
      "लिङ": 8170,
      "्टी": 8171,
      "##ame": 8172,
      "cd": 8173,
      "णिक": 8174,
      "नस्त": 8175,
      "ुता": 8176,
      "ृत्त": 8177,
      "##ff": 8178,
      "##ms": 8179,
      "याद्": 8180,
      "ुरी": 8181,
      "रसं": 8182,
      "यसे": 8183,
      "सनं": 8184,
      "so": 8185,
      "इट": 8186,
      "बध्": 8187,
      "ृद्": 8188,
      "३९": 8189,
      "्यानि": 8190,
      "तिम": 8191,
      "सुस": 8192,
      "न्दि": 8193,
      "कानां": 8194,
      "शब्दा": 8195,
      "at": 8196,
      "fa": 8197,
      "धे": 8198,
      "ष्प": 8199,
      "ुर्य": 8200,
      "श्वा": 8201,
      "्तित": 8202,
      "vie": 8203,
      "nepal": 8204,
      "तकं": 8205,
      "सीत्": 8206,
      "िकस": 8207,
      "पाः": 8208,
      "तमु": 8209,
      "ङ्ग्": 8210,
      "क्ता": 8211,
      "ृष्टः": 8212,
      "अथा": 8213,
      "ठत": 8214,
      "वित": 8215,
      "स्थि": 8216,
      "परिस": 8217,
      "िनं": 8218,
      "तरी": 8219,
      "सामान": 8220,
      "and": 8221,
      "रयि": 8222,
      "ख्यं": 8223,
      "मभ्य": 8224,
      "संध": 8225,
      "महान": 8226,
      "ान्तं": 8227,
      "कलौ": 8228,
      "चिद्": 8229,
      "धाना": 8230,
      "दनं": 8231,
      "थाप्य": 8232,
      "wh": 8233,
      "##ir": 8234,
      "माने": 8235,
      "्रहः": 8236,
      "ba": 8237,
      "ीत्": 8238,
      "ापा": 8239,
      "त्यभि": 8240,
      "ातय": 8241,
      "्लोक": 8242,
      "con": 8243,
      "he": 8244,
      "ka": 8245,
      "प्न": 8246,
      "शाय": 8247,
      "ीभ": 8248,
      "्राद": 8249,
      "ादे": 8250,
      "पाध": 8251,
      "ाणं": 8252,
      "मेति": 8253,
      "्वाः": 8254,
      "मने": 8255,
      "त्तः": 8256,
      "ामे": 8257,
      "ाधी": 8258,
      "िवा": 8259,
      "तरो": 8260,
      "मतं": 8261,
      "res": 8262,
      "अम": 8263,
      "नध": 8264,
      "्रोत": 8265,
      "ायव": 8266,
      "क्रमे": 8267,
      "र्षण": 8268,
      "रथं": 8269,
      "१००": 8270,
      "र्पय": 8271,
      "अन्वय": 8272,
      "more": 8273,
      "ag": 8274,
      "ठा": 8275,
      "यसा": 8276,
      "्वस": 8277,
      "स्वं": 8278,
      "त्यक्": 8279,
      "हात्म": 8280,
      "29": 8281,
      "ुन्द": 8282,
      "स्वाम": 8283,
      "िलि": 8284,
      "रमो": 8285,
      "इमा": 8286,
      "कित": 8287,
      "चर्य": 8288,
      "लर": 8289,
      "ह्या": 8290,
      "५७": 8291,
      "जने": 8292,
      "ाम्न": 8293,
      "ृतं": 8294,
      "शां": 8295,
      "षः": 8296,
      "६५": 8297,
      "्यान्": 8298,
      "ुरे": 8299,
      "वर्णा": 8300,
      "िलो": 8301,
      "मखु": 8302,
      "तश": 8303,
      "लये": 8304,
      "शद": 8305,
      "##वान": 8306,
      "##et": 8307,
      "िकाय": 8308,
      "ोनि": 8309,
      "्यवस": 8310,
      "ितार": 8311,
      "्वं": 8312,
      "यद्व": 8313,
      "नुत": 8314,
      "(.": 8315,
      "31": 8316,
      "खी": 8317,
      "दपि": 8318,
      "पद्": 8319,
      "लान": 8320,
      "िगत": 8321,
      "वरी": 8322,
      "ोऽस": 8323,
      "घा": 8324,
      "तस्तु": 8325,
      "रती": 8326,
      "ाभव": 8327,
      "प्रभा": 8328,
      "ानीय": 8329,
      "माध": 8330,
      "स्तं": 8331,
      "न्नः": 8332,
      "रणी": 8333,
      "हरत": 8334,
      "्योग": 8335,
      "onli": 8336,
      "ght": 8337,
      "िद्र": 8338,
      "संत": 8339,
      "देवं": 8340,
      "िपी": 8341,
      "तकाल": 8342,
      "वये": 8343,
      "ऽत्र": 8344,
      "५६": 8345,
      "दिः": 8346,
      "शुच": 8347,
      "##ory": 8348,
      "ुसं": 8349,
      "br": 8350,
      "अध्य": 8351,
      "ूण": 8352,
      "िदान": 8353,
      "रस्व": 8354,
      "दाप": 8355,
      "सदस": 8356,
      "em": 8357,
      "थी": 8358,
      "लद": 8359,
      "षो": 8360,
      "ेत्त": 8361,
      "ैस": 8362,
      "##ver": 8363,
      "पुष": 8364,
      "नाट": 8365,
      "मनं": 8366,
      "्तौ": 8367,
      "न्नम": 8368,
      "िष्टं": 8369,
      "tu": 8370,
      "vs": 8371,
      "जून": 8372,
      "ृक्ष": 8373,
      "##sk": 8374,
      "गुर": 8375,
      "रिच": 8376,
      "ामस": 8377,
      "र्षे": 8378,
      "विभाष": 8379,
      "ान्ये": 8380,
      "sen": 8381,
      "भ्": 8382,
      "रम्": 8383,
      "वन्": 8384,
      "ानन्": 8385,
      "त्यपि": 8386,
      "करोम": 8387,
      "तरः": 8388,
      "्येति": 8389,
      "cu": 8390,
      "धत": 8391,
      "धस": 8392,
      "पध": 8393,
      "रान": 8394,
      "नोति": 8395,
      "ोषि": 8396,
      "पपद": 8397,
      "ac": 8398,
      "##os": 8399,
      "त्रव": 8400,
      "युज": 8401,
      "्थम": 8402,
      "द्विग": 8403,
      "िवार": 8404,
      "्राप": 8405,
      "्यतां": 8406,
      "्यतीत": 8407,
      "गदा": 8408,
      "नरा": 8409,
      "ृतः": 8410,
      "विति": 8411,
      "त्तो": 8412,
      "गतौ": 8413,
      "इक": 8414,
      "लाम": 8415,
      "ुका": 8416,
      "##ps": 8417,
      "##pe": 8418,
      "त्रास": 8419,
      "ियन्": 8420,
      "रसि": 8421,
      "रस्या": 8422,
      "तके": 8423,
      "कद": 8424,
      "कान्": 8425,
      "दीर": 8426,
      "मश": 8427,
      "मण": 8428,
      "लै": 8429,
      "५९": 8430,
      "##th": 8431,
      "्वयं": 8432,
      "याप": 8433,
      "ादृ": 8434,
      "रिष": 8435,
      "lin": 8436,
      "यावत": 8437,
      "त्राण": 8438,
      "ारिण": 8439,
      "years": 8440,
      "ce": 8441,
      "तयः": 8442,
      "रमाण": 8443,
      "याण": 8444,
      "au": 8445,
      "रान्": 8446,
      "षं": 8447,
      "ून्": 8448,
      "्यैः": 8449,
      "्रः": 8450,
      "्यास्": 8451,
      "ाप्तं": 8452,
      "च्छत": 8453,
      "मृता": 8454,
      "तूं": 8455,
      "ऊँ": 8456,
      "डल": 8457,
      "येव": 8458,
      "##fe": 8459,
      "ानम्": 8460,
      "ारम्": 8461,
      "वादि": 8462,
      "मदु": 8463,
      "ुगे": 8464,
      "तते": 8465,
      "पथि": 8466,
      "्वेत": 8467,
      "तिद": 8468,
      "ाच्": 8469,
      "िष्णु": 8470,
      "िभिर": 8471,
      "िधाय": 8472,
      "ग्व": 8473,
      "ेमा": 8474,
      "ौत": 8475,
      "विद्": 8476,
      "भिव": 8477,
      "ागि": 8478,
      "यानं": 8479,
      "ुनि": 8480,
      "स्वार": 8481,
      "िकर": 8482,
      "नुद": 8483,
      "ित्रे": 8484,
      "ाजि": 8485,
      "##lok": 8486,
      "॒र": 8487,
      "प्रवि": 8488,
      "कृतम": 8489,
      "पदि": 8490,
      "अथो": 8491,
      "चितं": 8492,
      "ाशन": 8493,
      "ुद्द": 8494,
      "एति": 8495,
      "ृति": 8496,
      "##fi": 8497,
      "्रै": 8498,
      "निह": 8499,
      "निर्ण": 8500,
      "याल": 8501,
      "ारस": 8502,
      "तस्यै": 8503,
      "जनं": 8504,
      "अनुव": 8505,
      "्ले": 8506,
      "न्दे": 8507,
      "समुद्": 8508,
      "जानाम": 8509,
      "ृताः": 8510,
      "man": 8511,
      "men": 8512,
      "नये": 8513,
      "सैव": 8514,
      "विस्त": 8515,
      "ामर": 8516,
      "िरस्": 8517,
      "ाकु": 8518,
      "स्याप": 8519,
      "ूयते": 8520,
      "्रसाद": 8521,
      "बर्": 8522,
      "वत्य": 8523,
      "िती": 8524,
      "मानं": 8525,
      "ीये": 8526,
      "ैवा": 8527,
      "ाच्य": 8528,
      "माणे": 8529,
      "day": 8530,
      "प्नोत": 8531,
      "pm": 8532,
      "sc": 8533,
      "आर्": 8534,
      "गद": 8535,
      "वता": 8536,
      "ुङ": 8537,
      "ुर्व": 8538,
      "ुमन": 8539,
      "ौद": 8540,
      "विदा": 8541,
      "याश्च": 8542,
      "स्तम": 8543,
      "ाप्नो": 8544,
      "राजस": 8545,
      "रुक्": 8546,
      "जनय": 8547,
      "भावि": 8548,
      "फला": 8549,
      "ित्स": 8550,
      "न्नो": 8551,
      "va": 8552,
      "आभ": 8553,
      "लङ्क": 8554,
      "्रज": 8555,
      "द्धा": 8556,
      "उन्": 8557,
      "गाद": 8558,
      "ठी": 8559,
      "ाङ": 8560,
      "ूव": 8561,
      "७५": 8562,
      "ानीम": 8563,
      "निद्र": 8564,
      "रुः": 8565,
      "ात्रं": 8566,
      "ततस्त": 8567,
      "थौं": 8568,
      "पयः": 8569,
      "ावत्": 8570,
      "्मश": 8571,
      "down": 8572,
      "भेदा": 8573,
      "कस्": 8574,
      "िथि": 8575,
      "िज्": 8576,
      "संन": 8577,
      "पाव": 8578,
      "नुस": 8579,
      "ूर्वं": 8580,
      "वपि": 8581,
      "षस": 8582,
      "ाठ": 8583,
      "ूज्य": 8584,
      "९०": 8585,
      "सिन": 8586,
      "तीक": 8587,
      "जाप": 8588,
      "्बा": 8589,
      "ाद्वि": 8590,
      "38": 8591,
      "अर्": 8592,
      "विक्": 8593,
      "्यन्": 8594,
      "्यैव": 8595,
      "समे": 8596,
      "ष्क": 8597,
      "ावस": 8598,
      "सहस": 8599,
      "्तन": 8600,
      "जीवत": 8601,
      "ुपा": 8602,
      "पाठः": 8603,
      "जाना": 8604,
      "वहार": 8605,
      "षिण": 8606,
      "अच्": 8607,
      "्ट्रे": 8608,
      "ct": 8609,
      "उदा": 8610,
      "तमि": 8611,
      "रद्": 8612,
      "५३": 8613,
      "ानय": 8614,
      "श्रा": 8615,
      "ामु": 8616,
      "्मत्": 8617,
      "द्यां": 8618,
      "भ्याम": 8619,
      "##ess": 8620,
      "िष्ये": 8621,
      "खान": 8622,
      "नप": 8623,
      "६४": 8624,
      "##ls": 8625,
      "समर": 8626,
      "स्ती": 8627,
      "blo": 8628,
      "sy": 8629,
      "ंक्": 8630,
      "६१": 8631,
      "्यज": 8632,
      "राल": 8633,
      "स्तत": 8634,
      "दिर": 8635,
      "र्वी": 8636,
      "36": 8637,
      "टेन": 8638,
      "शप": 8639,
      "ह्ण": 8640,
      "नाति": 8641,
      "स्थे": 8642,
      "ार्थि": 8643,
      "र्वि": 8644,
      "रीणां": 8645,
      "वक्तु": 8646,
      "ूर्वप": 8647,
      "उन": 8648,
      "गय": 8649,
      "बस": 8650,
      "ीणा": 8651,
      "ूया": 8652,
      "भवा": 8653,
      "तिग": 8654,
      "पा०": 8655,
      "कुर": 8656,
      "्मणि": 8657,
      "लाक": 8658,
      "परमे": 8659,
      "िलक": 8660,
      "अले": 8661,
      "आपो": 8662,
      "धै": 8663,
      "ृष्": 8664,
      "्म्म": 8665,
      "्रेत": 8666,
      "स्यं": 8667,
      "ितानि": 8668,
      "समः": 8669,
      "ादः": 8670,
      "क्षस": 8671,
      "ापी": 8672,
      "ावान": 8673,
      "विकल": 8674,
      "र्धन": 8675,
      "्रियत": 8676,
      "्त्वा": 8677,
      "gra": 8678,
      "mar": 8679,
      "per": 8680,
      "नान्": 8681,
      "नकार": 8682,
      "रार": 8683,
      "रीत": 8684,
      "ाज्ञा": 8685,
      "प्रार": 8686,
      "ानित": 8687,
      "ेवल": 8688,
      "ेव्य": 8689,
      "तमान": 8690,
      "मोऽ": 8691,
      "गी": 8692,
      "मरु": 8693,
      "यैः": 8694,
      "ृते": 8695,
      "##va": 8696,
      "व्ये": 8697,
      "शात्": 8698,
      "धिष्ठ": 8699,
      "्टम": 8700,
      "्माद्": 8701,
      "ारणे": 8702,
      "्यताम": 8703,
      "comme": 8704,
      "rit": 8705,
      "ठे": 8706,
      "पस्थ": 8707,
      "संर": 8708,
      "मातु": 8709,
      "राण": 8710,
      "ायते": 8711,
      "दाश": 8712,
      "्नुव": 8713,
      "्धव": 8714,
      "र्जित": 8715,
      "कन्य": 8716,
      "ुदाय": 8717,
      "bu": 8718,
      "ci": 8719,
      "ms": 8720,
      "vo": 8721,
      "अर": 8722,
      "णौ": 8723,
      "##gi": 8724,
      "विष्ण": 8725,
      "ाप्": 8726,
      "भिज": 8727,
      "रिस": 8728,
      "वसि": 8729,
      "र्वान": 8730,
      "ष्ठी": 8731,
      "ेक्ष्": 8732,
      "्जु": 8733,
      "ीर्": 8734,
      "यथाव": 8735,
      "्तं": 8736,
      "मिच्छ": 8737,
      "new": 8738,
      "ंघ": 8739,
      "िपर": 8740,
      "७१": 8741,
      "##थे": 8742,
      "करा": 8743,
      "यत्क": 8744,
      "ासत": 8745,
      "कल्य": 8746,
      "sente": 8747,
      "cate": 8748,
      "sm": 8749,
      "टः": 8750,
      "सती": 8751,
      "िव्य": 8752,
      "िज्ञ": 8753,
      "ुक्ष": 8754,
      "##lu": 8755,
      "वितु": 8756,
      "परव": 8757,
      "ध्ये": 8758,
      "nsla": 8759,
      "ha": 8760,
      "min": 8761,
      "आच": 8762,
      "णेन": 8763,
      "ुभि": 8764,
      "योन": 8765,
      "पृ०": 8766,
      "वनी": 8767,
      "it": 8768,
      "name": 8769,
      "मकर": 8770,
      "षद": 8771,
      "हतः": 8772,
      "ीम्": 8773,
      "ुष्प": 8774,
      "ोन्": 8775,
      "##bs": 8776,
      "वार्ष": 8777,
      "ावो": 8778,
      "्म्य": 8779,
      "्विज": 8780,
      "pr": 8781,
      "par": 8782,
      "tv": 8783,
      "पन्": 8784,
      "मङ्ग": 8785,
      "्द्य": 8786,
      "##ru": 8787,
      "##tle": 8788,
      "ानवा": 8789,
      "ान्म": 8790,
      "ेऽप": 8791,
      "ान्यत": 8792,
      "ूर्णम": 8793,
      "one": 8794,
      "अयि": 8795,
      "33": 8796,
      "ट्व": 8797,
      "टिक": 8798,
      "वेव": 8799,
      "वप्र": 8800,
      "६२": 8801,
      "विवा": 8802,
      "्य्या": 8803,
      "न्था": 8804,
      "ारव": 8805,
      "ज्ञे": 8806,
      "ालं": 8807,
      "िरु": 8808,
      "यत्रा": 8809,
      "िशो": 8810,
      "्टो": 8811,
      "्राण": 8812,
      "र्हत": 8813,
      "णाद": 8814,
      "रश": 8815,
      "रया": 8816,
      "व्व": 8817,
      "९१": 8818,
      "##__": 8819,
      "ानः": 8820,
      "ितां": 8821,
      "्वां": 8822,
      "यातः": 8823,
      "वरो": 8824,
      "्वाक": 8825,
      "लिङ्": 8826,
      "तरि": 8827,
      "र्षत": 8828,
      "्विद": 8829,
      "रवे": 8830,
      "गात्": 8831,
      "load": 8832,
      "मत्स": 8833,
      "वत्व": 8834,
      "८४": 8835,
      "िकम": 8836,
      "ावृ": 8837,
      "ास्या": 8838,
      "ाक्र": 8839,
      "ण्डल": 8840,
      "्कि": 8841,
      "100": 8842,
      "pter": 8843,
      "जम्": 8844,
      "फ्": 8845,
      "लाद": 8846,
      "ीकर": 8847,
      "ूता": 8848,
      "्का": 8849,
      "७४": 8850,
      "राः": 8851,
      "क्षति": 8852,
      "पदम": 8853,
      "ासीत": 8854,
      "अनुस": 8855,
      "नानु": 8856,
      "सने": 8857,
      "34": 8858,
      "ंव": 8859,
      "उ०": 8860,
      "राक": 8861,
      "राकृत": 8862,
      "्याव": 8863,
      "लात्": 8864,
      "घटः": 8865,
      "त्पद": 8866,
      "यिन": 8867,
      "तादृ": 8868,
      "60": 8869,
      "nu": 8870,
      "दर्थ": 8871,
      "ुजा": 8872,
      "७६": 8873,
      "ानुग": 8874,
      "वदन्": 8875,
      "्बि": 8876,
      "्धर": 8877,
      "िहा": 8878,
      "िप्प": 8879,
      "book": 8880,
      "et": 8881,
      "ho": 8882,
      "पयोग": 8883,
      "स०": 8884,
      "सॊ": 8885,
      "िमि": 8886,
      "ृक्": 8887,
      "्क्ष": 8888,
      "संवि": 8889,
      "भिप्र": 8890,
      "सू०": 8891,
      "अलं": 8892,
      "मर्ह": 8893,
      "37": 8894,
      "bi": 8895,
      "fe": 8896,
      "औं": 8897,
      "भस": 8898,
      "६६": 8899,
      "##ry": 8900,
      "##da": 8901,
      "दिषु": 8902,
      "मनी": 8903,
      "पादन": 8904,
      "यनं": 8905,
      "ृतिः": 8906,
      "आध": 8907,
      "आङ": 8908,
      "मत्व": 8909,
      "वन्न": 8910,
      "शन्": 8911,
      "ेक्": 8912,
      "्देश": 8913,
      "५८": 8914,
      "##फ्": 8915,
      "म्पत": 8916,
      "सर्वक": 8917,
      "सुव": 8918,
      "वेब": 8919,
      "हितः": 8920,
      "कश्चि": 8921,
      "ाऽपि": 8922,
      "चेह": 8923,
      "एता": 8924,
      "थय": 8925,
      "प्नु": 8926,
      "ुष्म": 8927,
      "ेका": 8928,
      "निषे": 8929,
      "एतत": 8930,
      "लाग": 8931,
      "्नव": 8932,
      "वल्": 8933,
      "जिं": 8934,
      "्ञानम": 8935,
      "्तिका": 8936,
      "यादी": 8937,
      "app": 8938,
      "ठन्": 8939,
      "णत्व": 8940,
      "रव्य": 8941,
      "लस्य": 8942,
      "ाक्य": 8943,
      "परित": 8944,
      "त्वन": 8945,
      "तिनि": 8946,
      "कारे": 8947,
      "अपा": 8948,
      "िवस": 8949,
      "माणम": 8950,
      "हारे": 8951,
      "ोगी": 8952,
      "ऋणं": 8953,
      "ृह्य": 8954,
      "ंख": 8955,
      "गां": 8956,
      "षव": 8957,
      "षयः": 8958,
      "हात": 8959,
      "##ur": 8960,
      "समव": 8961,
      "भिस": 8962,
      "ीयो": 8963,
      "ामान्": 8964,
      "िरत": 8965,
      "एषु": 8966,
      "्नाम": 8967,
      "मीक": 8968,
      "जुल": 8969,
      "ियाः": 8970,
      "iso": 8971,
      "र्वाण": 8972,
      "ja": 8973,
      "ly": 8974,
      "ंय": 8975,
      "यार": 8976,
      "ूग": 8977,
      "्द्र": 8978,
      "६८": 8979,
      "७२": 8980,
      "मिष्य": 8981,
      "वर्ति": 8982,
      "रीष": 8983,
      "वचनम": 8984,
      "ary": 8985,
      "्यामि": 8986,
      "(←": 8987,
      "hi": 8988,
      "तह": 8989,
      "िभ्य": 8990,
      "ूज": 8991,
      "्दि": 8992,
      "्यात": 8993,
      "तिव": 8994,
      "भाः": 8995,
      "सिध": 8996,
      "ाली": 8997,
      "ामत": 8998,
      "ैन्य": 8999,
      "ke": 9000,
      "वेन": 9001,
      "##be": 9002,
      "्मनि": 9003,
      "्रियं": 9004,
      "ंग्र": 9005,
      "ुल्य": 9006,
      "ुनः": 9007,
      "्रतिप": 9008,
      "िचा": 9009,
      "view": 9010,
      "ठ्": 9011,
      "ुत्र": 9012,
      "८६": 9013,
      "्यद्": 9014,
      "ितत": 9015,
      "संहित": 9016,
      "याणां": 9017,
      "येषु": 9018,
      "तदप": 9019,
      "ार्थम": 9020,
      "ात्रे": 9021,
      "र्वत": 9022,
      "stu": 9023,
      "ृषि": 9024,
      "##deo": 9025,
      "नतु": 9026,
      "यर्": 9027,
      "ुष्य": 9028,
      "परस": 9029,
      "्वरा": 9030,
      "धने": 9031,
      "रसः": 9032,
      "अधिका": 9033,
      "ृतवान": 9034,
      "्गुण": 9035,
      "ss": 9036,
      "ऐं": 9037,
      "तान्त": 9038,
      "लयः": 9039,
      "वते": 9040,
      "वाम्": 9041,
      "ादो": 9042,
      "न्यत": 9043,
      "गृहम": 9044,
      "योगा": 9045,
      "title": 9046,
      "शून्": 9047,
      "उव": 9048,
      "तट": 9049,
      "हण": 9050,
      "निद": 9051,
      "ितप": 9052,
      "संख": 9053,
      "एके": 9054,
      "्वात्": 9055,
      "ाहा": 9056,
      "तवम": 9057,
      "िभे": 9058,
      "र्गम": 9059,
      "ोजनम्": 9060,
      "goo": 9061,
      "hd": 9062,
      "केषु": 9063,
      "ङी": 9064,
      "जयः": 9065,
      "यक्त": 9066,
      "यङ्": 9067,
      "िचि": 9068,
      "ुभ्य": 9069,
      "ुध्": 9070,
      "्क्": 9071,
      "र्मा": 9072,
      "ापक": 9073,
      "न्यः": 9074,
      "न्यं": 9075,
      "र्तृ": 9076,
      "वृक": 9077,
      "ाचक": 9078,
      "इदान": 9079,
      "अल्": 9080,
      "ुनर्": 9081,
      "01": 9082,
      "80": 9083,
      "ol": 9084,
      "दम्": 9085,
      "रत्य": 9086,
      "वतु": 9087,
      "##ga": 9088,
      "्वन्त": 9089,
      "ादी": 9090,
      "न्मन": 9091,
      "िशब्द": 9092,
      "जानात": 9093,
      "पश्चि": 9094,
      "ste": 9095,
      "प्ति": 9096,
      "video": 9097,
      "क्यम": 9098,
      "्रादि": 9099,
      "ुनर्न": 9100,
      "cle": 9101,
      "ख्याय": 9102,
      "छत": 9103,
      "थै": 9104,
      "वना": 9105,
      "याभ": 9106,
      "योद": 9107,
      "ाणः": 9108,
      "एकल": 9109,
      "ाहर": 9110,
      "्रहण": 9111,
      "च्चा": 9112,
      "िर्भ": 9113,
      "दृशा": 9114,
      "sansk": 9115,
      "ga": 9116,
      "गप": 9117,
      "##co": 9118,
      "स्यत": 9119,
      "तिन": 9120,
      "विशत": 9121,
      "रथः": 9122,
      "ind": 9123,
      "म्पन": 9124,
      "ाषाया": 9125,
      "bha": 9126,
      "ip": 9127,
      "ph": 9128,
      "ख्": 9129,
      "गभ": 9130,
      "दप": 9131,
      "धस्": 9132,
      "ाते": 9133,
      "ेयः": 9134,
      "९५": 9135,
      "ष्मा": 9136,
      "रिष्य": 9137,
      "ेशं": 9138,
      "रसन": 9139,
      "ृशं": 9140,
      "रियां": 9141,
      "mn": 9142,
      "अः": 9143,
      "इय": 9144,
      "पग": 9145,
      "शति": 9146,
      "ातः": 9147,
      "ीरा": 9148,
      "ूक्ष": 9149,
      "॑त": 9150,
      "्यप्र": 9151,
      "मार्": 9152,
      "क्षं": 9153,
      "िकार": 9154,
      "ेतुः": 9155,
      "हतं": 9156,
      "india": 9157,
      "ख्ये": 9158,
      "pra": 9159,
      "जहि": 9160,
      "टत": 9161,
      "ह्म": 9162,
      "##na": 9163,
      "भाई": 9164,
      "स्वक": 9165,
      "ेशि": 9166,
      "ेशः": 9167,
      "्ध्व": 9168,
      "क्तिं": 9169,
      "दने": 9170,
      "ago": 9171,
      "गात": 9172,
      "थप": 9173,
      "देन": 9174,
      "मन्": 9175,
      "िसा": 9176,
      "प्रमा": 9177,
      "्वश": 9178,
      "्तर": 9179,
      "जनो": 9180,
      "ामपि": 9181,
      "रीक": 9182,
      "स्रा": 9183,
      "ीडिय": 9184,
      "्षिप": 9185,
      "son": 9186,
      "इष": 9187,
      "थम": 9188,
      "दाः": 9189,
      "वत्र": 9190,
      "रिग": 9191,
      "त्तान": 9192,
      "िरी": 9193,
      "दाने": 9194,
      "िभाष": 9195,
      "यासः": 9196,
      "अं": 9197,
      "तद्ध": 9198,
      "ोस्": 9199,
      "##tt": 9200,
      "निन": 9201,
      "वाणि": 9202,
      "्वह": 9203,
      "सुभ": 9204,
      "्याह": 9205,
      "परिभ": 9206,
      "life": 9207,
      "ru": 9208,
      "टो": 9209,
      "ठं": 9210,
      "लत": 9211,
      "लिका": 9212,
      "ृतो": 9213,
      "ैस्त": 9214,
      "ोरा": 9215,
      "्यत्र": 9216,
      "द्यं": 9217,
      "िष्क": 9218,
      "त्काल": 9219,
      "sta": 9220,
      "्ह्य": 9221,
      "भये": 9222,
      "वीय": 9223,
      "ोत्त": 9224,
      "६३": 9225,
      "रादि": 9226,
      "उपर": 9227,
      "्टे": 9228,
      "ेकं": 9229,
      "तपो": 9230,
      "िसं": 9231,
      "ब्दे": 9232,
      "48": 9233,
      "नति": 9234,
      "नक्": 9235,
      "रयः": 9236,
      "लेश": 9237,
      "स्यै": 9238,
      "र्मि": 9239,
      "तिवि": 9240,
      "त्रम्": 9241,
      "ासर": 9242,
      "वसन": 9243,
      "िणे": 9244,
      "रीं": 9245,
      "ाभ्या": 9246,
      "्युर": 9247,
      "र्णम": 9248,
      "रह्म": 9249,
      "ुतं": 9250,
      "45": 9251,
      "यवि": 9252,
      "षाम": 9253,
      "राधा": 9254,
      "िकल": 9255,
      "ादिव": 9256,
      "्मम": 9257,
      "ष्टो": 9258,
      "न्धे": 9259,
      "रयति": 9260,
      "fr": 9261,
      "उक्": 9262,
      "दभ": 9263,
      "नश": 9264,
      "बभ": 9265,
      "##ची": 9266,
      "##mi": 9267,
      "समाह": 9268,
      "स्वर्": 9269,
      "प्यत": 9270,
      "्रियम": 9271,
      "मैं": 9272,
      "रहः": 9273,
      "39": 9274,
      "gu": 9275,
      "इतो": 9276,
      "ऋच": 9277,
      "धाः": 9278,
      "ूना": 9279,
      "ोष्": 9280,
      "नुर": 9281,
      "िरूप": 9282,
      "वसा": 9283,
      "ुणे": 9284,
      "सखि": 9285,
      "सखा": 9286,
      "==": 9287,
      "du": 9288,
      "lt": 9289,
      "र्वर": 9290,
      "ुवा": 9291,
      "ोस्त": 9292,
      "६९": 9293,
      "##mp": 9294,
      "्रध": 9295,
      "निस्": 9296,
      "कित्": 9297,
      "ष्ट्य": 9298,
      "तरत": 9299,
      "्कृ": 9300,
      "्तिः": 9301,
      "user": 9302,
      "pie": 9303,
      "44": 9304,
      "fu": 9305,
      "गवा": 9306,
      "नन्": 9307,
      "७९": 9308,
      "याऽ": 9309,
      "क्षो": 9310,
      "परिष": 9311,
      "गृहा": 9312,
      "्मणा": 9313,
      "िदि": 9314,
      "अनुम": 9315,
      "तीनां": 9316,
      "वेण": 9317,
      "त्याह": 9318,
      "िपू": 9319,
      "()?": 9320,
      "love": 9321,
      "ृहीत": 9322,
      "type": 9323,
      "धित": 9324,
      "सतः": 9325,
      "परस्": 9326,
      "ात्प": 9327,
      "मानम": 9328,
      "्वास": 9329,
      "गृह्": 9330,
      "अवश्य": 9331,
      "ीरं": 9332,
      "exam": 9333,
      "bh": 9334,
      "घो": 9335,
      "लया": 9336,
      "षत्": 9337,
      "८१": 9338,
      "##ca": 9339,
      "ान्या": 9340,
      "तेति": 9341,
      "त्राय": 9342,
      "ाह्य": 9343,
      "ाके": 9344,
      "सखे": 9345,
      "page": 9346,
      "ll": 9347,
      "mu": 9348,
      "sou": 9349,
      "उक": 9350,
      "त्न": 9351,
      "ालव": 9352,
      "्मन्": 9353,
      "ागः": 9354,
      "्टा": 9355,
      "##ill": 9356,
      "िबन्ध": 9357,
      "कर्मा": 9358,
      "41": 9359,
      "42": 9360,
      "गस्": 9361,
      "ऽभि": 9362,
      "##ds": 9363,
      "्वप्र": 9364,
      "मनुष": 9365,
      "न्येन": 9366,
      "तमम्": 9367,
      "ुरूप": 9368,
      "वदन्त": 9369,
      "रसा": 9370,
      "र्यः": 9371,
      "िक्षण": 9372,
      "कैक": 9373,
      "रम्पर": 9374,
      "nar": 9375,
      "ढा": 9376,
      "िये": 9377,
      "राप": 9378,
      "राणां": 9379,
      "स्वाह": 9380,
      "तास": 9381,
      "रिज": 9382,
      "ेशा": 9383,
      "बुद": 9384,
      "्रीम": 9385,
      "धानं": 9386,
      "विवे": 9387,
      "nts": 9388,
      "्रवण": 9389,
      "mber": 9390,
      "gory": 9391,
      "ठन": 9392,
      "दये": 9393,
      "नत्": 9394,
      "बज": 9395,
      "मवि": 9396,
      "६७": 9397,
      "८७": 9398,
      "##ni": 9399,
      "िकां": 9400,
      "्याख": 9401,
      "युर": 9402,
      "देवत": 9403,
      "वरे": 9404,
      "ग्रा": 9405,
      "ासेन": 9406,
      "क्ताः": 9407,
      "जगा": 9408,
      "्मास": 9409,
      "ञ्चित": 9410,
      "ुवन्त": 9411,
      "##ree": 9412,
      "कवच": 9413,
      "पस्": 9414,
      "मस्म": 9415,
      "शस्य": 9416,
      "ोज्": 9417,
      "##bc": 9418,
      "निवा": 9419,
      "तिरि": 9420,
      "सुग": 9421,
      "भिन": 9422,
      "नुग": 9423,
      "ीयान": 9424,
      "पदम्": 9425,
      "कथ्यत": 9426,
      "43": 9427,
      "bar": 9428,
      "nal": 9429,
      "sk": 9430,
      "अद": 9431,
      "नोत": 9432,
      "यव्य": 9433,
      "रश्च": 9434,
      "सर्": 9435,
      "ार्श": 9436,
      "##ys": 9437,
      "##wi": 9438,
      "्रय": 9439,
      "दिष्": 9440,
      "पाण": 9441,
      "रूपम": 9442,
      "ासं": 9443,
      "भागः": 9444,
      "िषि": 9445,
      "hin": 9446,
      "थास": 9447,
      "नई": 9448,
      "षत": 9449,
      "ाज्": 9450,
      "ीग": 9451,
      "ूपत": 9452,
      "ृश्य": 9453,
      "्यस्": 9454,
      "न्तस्": 9455,
      "साप": 9456,
      "पादा": 9457,
      "्तस्य": 9458,
      "मित्": 9459,
      "दर्शि": 9460,
      "शक्यत": 9461,
      "त्स्व": 9462,
      "ायाम्": 9463,
      "ers": 9464,
      "्गव": 9465,
      "वद्भ": 9466,
      "रिक्": 9467,
      "mon": 9468,
      "op": 9469,
      "अझ": 9470,
      "वव": 9471,
      "्वन्": 9472,
      "ेनो": 9473,
      "रात्म": 9474,
      "सुन्": 9475,
      "कुत्": 9476,
      "जनी": 9477,
      "पदः": 9478,
      "भाग्": 9479,
      "योजय": 9480,
      "्विष": 9481,
      "स्मात": 9482,
      "िसम": 9483,
      "्रतिम": 9484,
      "प्रमु": 9485,
      "ुग्र": 9486,
      "fff": 9487,
      "गित": 9488,
      "जया": 9489,
      "लङ": 9490,
      "िषे": 9491,
      "याक": 9492,
      "ारिक": 9493,
      "ाणस": 9494,
      "ाहन": 9495,
      "र्थव": 9496,
      "गतम्": 9497,
      "च्छि": 9498,
      "हरः": 9499,
      "द्धो": 9500,
      "ंशय": 9501,
      "द्दे": 9502,
      "्तेन": 9503,
      "इदानी": 9504,
      "टव": 9505,
      "रर": 9506,
      "्हि": 9507,
      "्जा": 9508,
      "योप": 9509,
      "नाया": 9510,
      "्तुं": 9511,
      "त्त्य": 9512,
      "अवश": 9513,
      "शृण": 9514,
      "ारणम": 9515,
      "२००": 9516,
      "rep": 9517,
      "ुण्य": 9518,
      "ोके": 9519,
      "link": 9520,
      "fffद": 9521,
      "ge": 9522,
      "डव": 9523,
      "रतम": 9524,
      "७३": 9525,
      "्वपि": 9526,
      "आसीत": 9527,
      "भ्यत": 9528,
      "विदु": 9529,
      "्थानम": 9530,
      "ूर्वा": 9531,
      "कस्या": 9532,
      "ःप": 9533,
      "आका": 9534,
      "तच्": 9535,
      "ोहि": 9536,
      "##is": 9537,
      "्यल": 9538,
      "्वध": 9539,
      "याता": 9540,
      "इत्यन": 9541,
      "तीं": 9542,
      "धिग": 9543,
      "ूचना": 9544,
      "46": 9545,
      "cm": 9546,
      "आन": 9547,
      "आम्": 9548,
      "भित": 9549,
      "मये": 9550,
      "हतो": 9551,
      "ार्म": 9552,
      "ेद्य": 9553,
      "तिब": 9554,
      "स्तथ": 9555,
      "र्तित": 9556,
      "ेश्": 9557,
      "िहार": 9558,
      "नैष": 9559,
      "sty": 9560,
      "्षी": 9561,
      "sec": 9562,
      "जस्": 9563,
      "लब": 9564,
      "वक": 9565,
      "ाञ्": 9566,
      "९३": 9567,
      "न्तव": 9568,
      "हितम": 9569,
      "घटे": 9570,
      "येवं": 9571,
      "dy": 9572,
      "her": 9573,
      "रयो": 9574,
      "्न्": 9575,
      "्दश": 9576,
      "८८": 9577,
      "ितस्": 9578,
      "पुष्": 9579,
      "तिज्ञ": 9580,
      "रिंश": 9581,
      "नवर": 9582,
      "वर्गः": 9583,
      "िष्ठा": 9584,
      "47": 9585,
      "ya": 9586,
      "गस": 9587,
      "डॉ": 9588,
      "म०": 9589,
      "यमि": 9590,
      "शस्": 9591,
      "ोमि": 9592,
      "ानप": 9593,
      "परिक": 9594,
      "पुस्त": 9595,
      "परिण": 9596,
      "तवन": 9597,
      "िवे": 9598,
      "भगवा": 9599,
      "िग्र": 9600,
      "ोगा": 9601,
      "यवे": 9602,
      "लाना": 9603,
      "[।": 9604,
      "des": 9605,
      "wa": 9606,
      "ऋ०": 9607,
      "दन्": 9608,
      "##ke": 9609,
      "त्युत": 9610,
      "िमे": 9611,
      "##sta": 9612,
      "ort": 9613,
      "##ith": 9614,
      "log": 9615,
      "सभी": 9616,
      ".)": 9617,
      "02": 9618,
      "edi": 9619,
      "pcs": 9620,
      "खत": 9621,
      "देष": 9622,
      "रष": 9623,
      "शम्": 9624,
      "ुमा": 9625,
      "ोव": 9626,
      "विवर": 9627,
      "म्भव": 9628,
      "तेर": 9629,
      "ितव": 9630,
      "परन्त": 9631,
      "माक": 9632,
      "त्यो": 9633,
      "त्यक": 9634,
      "यैर": 9635,
      "gi": 9636,
      "दस्": 9637,
      "भिय": 9638,
      "मब": 9639,
      "यच्": 9640,
      "ीतो": 9641,
      "ेवत": 9642,
      "कामा": 9643,
      "रेस": 9644,
      "see": 9645,
      "्येते": 9646,
      "deos": 9647,
      "not": 9648,
      "थं": 9649,
      "थिक": 9650,
      "##sa": 9651,
      "्रमा": 9652,
      "ासस": 9653,
      "्मरण": 9654,
      "ागे": 9655,
      "नीं": 9656,
      "यतां": 9657,
      "ment": 9658,
      "jan": 9659,
      "पर्": 9660,
      "मस्": 9661,
      "यकार": 9662,
      "ुश्": 9663,
      "स्यान": 9664,
      "राया": 9665,
      "िकम्": 9666,
      "भूः": 9667,
      "दुप": 9668,
      "ासम": 9669,
      "तीन": 9670,
      "गणः": 9671,
      "##ard": 9672,
      "##did": 9673,
      "पयति": 9674,
      "oldid": 9675,
      "49": 9676,
      "fo": 9677,
      "अकर": 9678,
      "बो": 9679,
      "यट": 9680,
      "िश्य": 9681,
      "८९": 9682,
      "##sh": 9683,
      "माध्य": 9684,
      "देवान": 9685,
      "िने": 9686,
      "शास्": 9687,
      "्तिन": 9688,
      "्रतिज": 9689,
      "ूपे": 9690,
      "गौः": 9691,
      "viii": 9692,
      "->": 9693,
      "ble": 9694,
      "gen": 9695,
      "pu": 9696,
      "गई": 9697,
      "मर्त": 9698,
      "रजा": 9699,
      "वस्": 9700,
      "षय": 9701,
      "िष्ण": 9702,
      "ोदा": 9703,
      "विं": 9704,
      "्यये": 9705,
      "तेत": 9706,
      "याया": 9707,
      "ारयत": 9708,
      "ल्पा": 9709,
      "दाहर": 9710,
      "धीः": 9711,
      "shlok": 9712,
      "मर्थं": 9713,
      "blog": 9714,
      "51": 9715,
      "are": 9716,
      "date": 9717,
      "tes": 9718,
      "देत": 9719,
      "यका": 9720,
      "षन्": 9721,
      "िर्म": 9722,
      "प्रकृ": 9723,
      "्वर्य": 9724,
      "ज्ञो": 9725,
      "ताय": 9726,
      "देवद": 9727,
      "्वाप": 9728,
      "ालः": 9729,
      "ष्टः": 9730,
      "ुवत": 9731,
      "अभ्या": 9732,
      "ुतम्": 9733,
      "्मानं": 9734,
      "पंच": 9735,
      "55": 9736,
      "jo": 9737,
      "ऐस": 9738,
      "कॊ": 9739,
      "थथे": 9740,
      "नस्य": 9741,
      "रेय": 9742,
      "वौ": 9743,
      "९९": 9744,
      "ितान": 9745,
      "साक": 9746,
      "स्तस": 9747,
      "द्वा": 9748,
      "त्यः": 9749,
      "ाती": 9750,
      "जीवि": 9751,
      "पृष": 9752,
      "वसे": 9753,
      "्पित": 9754,
      "र्यम": 9755,
      "ारणं": 9756,
      "arti": 9757,
      "िस्ता": 9758,
      "spe": 9759,
      "hindi": 9760,
      "cla": 9761,
      "भक": 9762,
      "रध": 9763,
      "ल्यं": 9764,
      "८५": 9765,
      "स्वय": 9766,
      "ामग": 9767,
      "रोज": 9768,
      "र्वभ": 9769,
      "यिष्य": 9770,
      "ter": 9771,
      "यक": 9772,
      "८३": 9773,
      "ितृ": 9774,
      "श्रद्": 9775,
      "ेव्": 9776,
      "पादित": 9777,
      "भुक्": 9778,
      "वशा": 9779,
      "हूं": 9780,
      "ess": 9781,
      "gle": 9782,
      "थक": 9783,
      "रपत": 9784,
      "वज": 9785,
      "सङ्": 9786,
      "७७": 9787,
      "प्रग": 9788,
      "ितस्य": 9789,
      "रात्": 9790,
      "त्यत": 9791,
      "प्राध": 9792,
      "अप्": 9793,
      "वेदि": 9794,
      "चिता": 9795,
      "तर्ह": 9796,
      "क्षणं": 9797,
      "्षय": 9798,
      "sea": 9799,
      "file": 9800,
      "थें": 9801,
      "style": 9802,
      "03": 9803,
      "अचि": 9804,
      "ऋते": 9805,
      "तच": 9806,
      "ल्म": 9807,
      "सक्": 9808,
      "सवा": 9809,
      "ूर्य": 9810,
      "्यच": 9811,
      "्यह": 9812,
      "्रस्थ": 9813,
      "त्रः": 9814,
      "ादिस": 9815,
      "न्यस्": 9816,
      "ङ्गि": 9817,
      "िणाम": 9818,
      "्नप": 9819,
      "त्सं": 9820,
      "यितु": 9821,
      "्रियः": 9822,
      "inf": 9823,
      "षाम्": 9824,
      "बजे": 9825,
      "bal": 9826,
      "उष": 9827,
      "थत": 9828,
      "रप्र": 9829,
      "ुणा": 9830,
      "ोक्": 9831,
      "##hi": 9832,
      "##खः": 9833,
      "्र्या": 9834,
      "समि": 9835,
      "ारस्": 9836,
      "त्यन": 9837,
      "रुध": 9838,
      "फले": 9839,
      "वनम": 9840,
      "ण्डा": 9841,
      "औरत": 9842,
      "्राची": 9843,
      "्रतिब": 9844,
      "age": 9845,
      "nc": 9846,
      "ure": 9847,
      "तभ": 9848,
      "पभ": 9849,
      "पयेत्": 9850,
      "बन्": 9851,
      "वइ": 9852,
      "षट": 9853,
      "िहि": 9854,
      "ो॒": 9855,
      "्तः": 9856,
      "्णा": 9857,
      "९७": 9858,
      "९४": 9859,
      "##धि": 9860,
      "##ft": 9861,
      "्रप": 9862,
      "भवित": 9863,
      "याइ": 9864,
      "तिभ": 9865,
      "येना": 9866,
      "ङ्गे": 9867,
      "क्तः": 9868,
      "ततस": 9869,
      "ुला": 9870,
      "लभत": 9871,
      "बद्धा": 9872,
      "अमी": 9873,
      "tube": 9874,
      "rs": 9875,
      "ंसा": 9876,
      "एहि": 9877,
      "बद": 9878,
      "वट": 9879,
      "वतः": 9880,
      "ोऽस्त": 9881,
      "तरस": 9882,
      "वारे": 9883,
      "शेषतः": 9884,
      "ुह्": 9885,
      "net": 9886,
      "ित्रं": 9887,
      "ूल्": 9888,
      "्यवह": 9889,
      "**": 9890,
      "53": 9891,
      "70": 9892,
      "डन": 9893,
      "पान्": 9894,
      "लप्र": 9895,
      "हते": 9896,
      "ुमान": 9897,
      "९२": 9898,
      "स्वि": 9899,
      "व्यत": 9900,
      "नात्म": 9901,
      "ालस": 9902,
      "जनि": 9903,
      "ातृ": 9904,
      "ेशी": 9905,
      "यित्व": 9906,
      "वचो": 9907,
      "यशो": 9908,
      "por": 9909,
      "अती": 9910,
      "षेण": 9911,
      "हुव": 9912,
      "ेश्य": 9913,
      "ोवा": 9914,
      "ौव": 9915,
      "७८": 9916,
      "८२": 9917,
      "ानाय": 9918,
      "कास": 9919,
      "क्रा": 9920,
      "तदन": 9921,
      "भावा": 9922,
      "अहः": 9923,
      "र्मु": 9924,
      "्टिक": 9925,
      "वाना": 9926,
      "रमेश": 9927,
      "वशे": 9928,
      "्थितः": 9929,
      "पला": 9930,
      "श्वरः": 9931,
      "्गान": 9932,
      "ृष्टा": 9933,
      "ीवन": 9934,
      "रुषः": 9935,
      "fir": 9936,
      "्तरः": 9937,
      "kha": 9938,
      "with": 9939,
      "अये": 9940,
      "घञ्": 9941,
      "णाः": 9942,
      "तॊ": 9943,
      "दइ": 9944,
      "यजन": 9945,
      "लका": 9946,
      "##ne": 9947,
      "्रिका": 9948,
      "याकरण": 9949,
      "साम्": 9950,
      "ायुः": 9951,
      "एकम": 9952,
      "सि०": 9953,
      "त्रिण": 9954,
      "भगवन": 9955,
      "र्यो": 9956,
      "्ञात": 9957,
      "ंशत": 9958,
      "अभय": 9959,
      "ट्रि": 9960,
      "ट्रे": 9961,
      "from": 9962,
      "edit": 9963,
      "slok": 9964,
      "बद्": 9965,
      "भः": 9966,
      "भरे": 9967,
      "ुषे": 9968,
      "्भि": 9969,
      "्क्र": 9970,
      "९८": 9971,
      "##ty": 9972,
      "्वान्": 9973,
      "रुत्व": 9974,
      "मिता": 9975,
      "रथे": 9976,
      "comp": 9977,
      "uni": 9978,
      "sloka": 9979,
      "59": 9980,
      "cal": 9981,
      "htt": 9982,
      "rre": 9983,
      "जम": 9984,
      "णश": 9985,
      "धते": 9986,
      "प्यते": 9987,
      "फट्": 9988,
      "यता": 9989,
      "यून": 9990,
      "ऽसि": 9991,
      "देवो": 9992,
      "भिधा": 9993,
      "द्ये": 9994,
      "िरम": 9995,
      "क्त्य": 9996,
      "िण्": 9997,
      "निवृत": 9998,
      "र्णे": 9999
    }
  }
}