<unk>	0
<s>	0
</s>	0
्य	-0
्र	-1
▁स	-2
्त	-3
▁प	-4
्व	-5
▁व	-6
▁।	-7
▁त	-8
▁क	-9
ान	-10
ति	-11
▁अ	-12
र्	-13
▁न	-14
म्	-15
▁म	-16
ित	-17
▁प्र	-18
▁य	-19
त्	-20
▁द	-21
्या	-22
ार	-23
▁भ	-24
▁च	-25
ां	-26
▁वि	-27
▁इ	-28
क्	-29
न्	-30
▁श	-31
ते	-32
स्य	-33
मा	-34
ष्	-35
या	-36
स्त	-37
न्त	-38
क्ष	-39
स्	-40
▁ए	-41
▁ज	-42
त्र	-43
▁॥	-44
र्व	-45
रा	-46
द्	-47
ना	-48
▁ह	-49
▁ग	-50
वि	-51
था	-52
क्त	-53
ेन	-54
▁आ	-55
ेव	-56
त्य	-57
ाद	-58
तः	-59
▁-	-60
पि	-61
िक	-62
ाय	-63
ाम	-64
्च	-65
▁उ	-66
त्त	-67
ाः	-68
ष्ट	-69
▁पर	-70
प्र	-71
▁ब	-72
▁(	-73
▁नि	-74
▁पु	-75
ाव	-76
ेष	-77
▁र	-78
▁इति	-79
नि	-80
ाल	-81
र्थ	-82
▁"	-83
▁सं	-84
मि	-85
▁ल	-86
दा	-87
्वा	-88
दि	-89
यो	-90
▁सर्व	-91
▁ध	-92
द्ध	-93
ता	-94
▁भव	-95
▁एव	-96
र्त	-97
▁वा	-98
ेश	-99
्ञ	-100
▁स्	-101
्यते	-102
▁स्व	-103
ङ्	-104
ान्	-105
ाप	-106
ृत	-107
श्च	-108
यं	-109
्यं	-110
ये	-111
▁अन	-112
भि	-113
ानि	-114
▁रा	-115
ास	-116
▁सम	-117
िं	-118
रण	-119
र्म	-120
नं	-121
▁तु	-122
ात	-123
रि	-124
्रि	-125
रु	-126
▁१	-127
ज्ञ	-128
▁.	-129
कार	-130
नः	-131
्ये	-132
यः	-133
सं	-134
ने	-135
▁सु	-136
ाग	-137
च्	-138
न्द	-139
रो	-140
रे	-141
ाण	-142
ती	-143
▁प्रति	-144
न्ति	-145
र्ष	-146
ुः	-147
ेद	-148
त्व	-149
ल्	-150
▁हि	-151
ष्ठ	-152
मान	-153
▁सा	-154
च्छ	-155
ुक्त	-156
स्ति	-157
मे	-158
▁पू	-159
ानां	-160
ैव	-161
तो	-162
ूप	-163
▁यथा	-164
द्य	-165
▁कु	-166
िव	-167
ाह	-168
र्ण	-169
▁इत्य	-170
▁ते	-171
▁_	-172
ात्	-173
धि	-174
स्थ	-175
तु	-176
गु	-177
▁कार	-178
ीय	-179
▁त्व	-180
ान्त	-181
भव	-182
नु	-183
ब्	-184
▁२	-185
▁'	-186
का	-187
▁मह	-188
कं	-189
सि	-190
श्व	-191
▁द्व	-192
मु	-193
▁ख	-194
▁देव	-195
ेण	-196
कः	-197
ाष	-198
ोऽ	-199
व्य	-200
हं	-201
लं	-202
रं	-203
्री	-204
ङ्ग	-205
ैः	-206
धिक	-207
स्या	-208
ितः	-209
▁क्	-210
▁तथा	-211
ेषु	-212
द्व	-213
सा	-214
▁उप	-215
▁1	-216
री	-217
मः	-218
र्ग	-219
ृष्ट	-220
भाव	-221
▁कि	-222
स्तु	-223
ृश	-224
देश	-225
के	-226
▁सम्	-227
ष्य	-228
प्त	-229
त्या	-230
वा	-231
तं	-232
िः	-233
▁भवति	-234
ुं	-235
▁मे	-236
रः	-237
णं	-238
क्र	-239
ृह	-240
▁राज	-241
िता	-242
▁कथ	-243
ण्	-244
नो	-245
▁श्र	-246
ग्	-247
कृ	-248
▁क्ष	-249
र्य	-250
सी	-251
न्ध	-252
▁सह	-253
न्य	-254
द्र	-255
▁मा	-256
हि	-257
योग	-258
▁किं	-259
▁यो	-260
ध्य	-261
▁स्थ	-262
ेत	-263
▁परि	-264
▁2	-265
स्व	-266
▁एक	-267
स्मा	-268
पु	-269
ग्र	-270
▁कृ	-271
ोप	-272
▁वै	-273
नी	-274
▁गु	-275
▁दु	-276
ञ्च	-277
भू	-278
रूप	-279
ितं	-280
▁व्य	-281
ानं	-282
▁?	-283
▁मु	-284
▁ना	-285
▁सू	-286
णा	-287
▁अपि	-288
दं	-289
न्न	-290
मेव	-291
▁तत्	-292
भ्य	-293
▁समा	-294
▁यदि	-295
ला	-296
▁प्राप	-297
▁तस्य	-298
▁एत	-299
त्वा	-300
▁तद	-301
▁स्त	-302
▁विश	-303
▁अनु	-304
र्श	-305
▁पूर्व	-306
चित	-307
▁पृ	-308
ुद्ध	-309
याः	-310
ब्द	-311
क्षण	-312
ीव	-313
▁अप	-314
स्मि	-315
ल्प	-316
लो	-317
▁अस्ति	-318
▁भू	-319
▁तत्र	-320
▁वर्ष	-321
पू	-322
वृ	-323
ित्य	-324
▁कृत	-325
नम्	-326
▁ज्ञ	-327
लि	-328
तिः	-329
श्र	-330
ेत्	-331
▁एवं	-332
▁फ	-333
--	-334
धान	-335
सु	-336
▁दि	-337
चार	-338
कृत	-339
ण्ड	-340
▁प्रा	-341
▁घ	-342
▁बह	-343
द्या	-344
▁वृ	-345
श्य	-346
▁पा	-347
▁मम	-348
शि	-349
▁छ	-350
ानु	-351
मं	-352
यति	-353
न्ते	-354
▁अथ	-355
▁पुनः	-356
च्च	-357
▁नाम	-358
णि	-359
ितम्	-360
ेति	-361
नां	-362
▁३	-363
ादि	-364
भाष	-365
वान्	-366
ोष	-367
प्	-368
ले	-369
▁भार	-370
्ज	-371
स्म	-372
र्ध	-373
▁यत्	-374
र्ज	-375
▁के	-376
चि	-377
▁अव	-378
काल	-379
▁प्रत्य	-380
▁व्या	-381
श्	-382
▁कर्त	-383
पद	-384
यम्	-385
▁पुन	-386
भाग	-387
करण	-388
्यां	-389
न्त्र	-390
ीं	-391
▁गृह	-392
▁लो	-393
क्षा	-394
त्स	-395
यम	-396
▁काल	-397
ाना	-398
ित्र	-399
▁या	-400
्रिय	-401
क्ति	-402
ाणि	-403
ेषां	-404
त्म	-405
ीत	-406
..	-407
पाद	-408
णे	-409
रुष	-410
▁अन्य	-411
र्थः	-412
ख्या	-413
ान्य	-414
न्म	-415
क्षि	-416
पा	-417
न्द्र	-418
▁तदा	-419
तां	-420
▁स्म	-421
वे	-422
धा	-423
▁कर्म	-424
▁स्या	-425
भिः	-426
युक्त	-427
न्तु	-428
▁प्रथ	-429
स्त्र	-430
▁४	-431
यु	-432
सः	-433
▁शि	-434
▁अधिक	-435
▁तव	-436
▁दृष्ट	-437
णां	-438
ुप	-439
य्	-440
▁ग्र	-441
से	-442
▁वर्त	-443
▁यु	-444
ामि	-445
▁भाष	-446
▁सि	-447
कु	-448
स्था	-449
▁जन	-450
ित्त	-451
▁को	-452
पर	-453
▁ततः	-454
वर्त	-455
ह्	-456
णः	-457
म्ब	-458
देव	-459
▁का	-460
ध्या	-461
मो	-462
▁सः	-463
▁=	-464
वृत्त	-465
▁करो	-466
▁विष	-467
▁शु	-468
▁तेन	-469
ूल	-470
स्मिन्	-471
दी	-472
▁ये	-473
▁हे	-474
र्थं	-475
जन	-476
▁कार्य	-477
▁क्र	-478
▁देश	-479
▁केव	-480
षु	-481
▁जीव	-482
सम	-483
दे	-484
वाद	-485
काश	-486
▁५	-487
▁[	-488
▁विश्व	-489
▁प्राप्त	-490
विष्य	-491
▁पुत्र	-492
▁__	-493
मिति	-494
योः	-495
▁उत्त	-496
को	-497
भा	-498
▁अभि	-499
ोक्त	-500
वः	-501
▁धर्म	-502
▁ति	-503
ारा	-504
त्त्व	-505
▁दे	-506
िका	-507
ायां	-508
ीति	-509
हे	-510
▁बहु	-511
ज्य	-512
स्र	-513
▁तं	-514
च्यते	-515
दान	-516
कम्	-517
▁!	-518
▁अत्र	-519
▁विक	-520
रम्	-521
ट्	-522
▁साम	-523
▁3	-524
▁लि	-525
यि	-526
तम	-527
▁ब्र	-528
▁इत्या	-529
ख्य	-530
▁भग	-531
क्य	-532
▁ऽ	-533
नेन	-534
प्य	-535
क्षे	-536
▁औ	-537
प्रति	-538
▁त्रि	-539
▁मन	-540
▁एष	-541
▁मया	-542
बन्ध	-543
▁दृश	-544
ध्ये	-545
▁कथं	-546
दु	-547
पी	-548
ित्	-549
मपि	-550
हार	-551
▁विशेष	-552
सार	-553
्रिया	-554
▁भविष्य	-555
ली	-556
माण	-557
शा	-558
▁ई	-559
▁ष	-560
▁/	-561
▁भाव	-562
ोध	-563
ज्ञान	-564
धु	-565
▁त्वं	-566
▁चि	-567
शः	-568
ोग	-569
▁स्वा	-570
यित	-571
नाः	-572
येत्	-573
▁जग	-574
▁अहं	-575
पे	-576
िते	-577
ष्ण	-578
यां	-579
सीत्	-580
▁ट	-581
परि	-582
▁पुरुष	-583
▁,	-584
चित्	-585
विध	-586
तम्	-587
हो	-588
्याः	-589
्यामि	-590
जा	-591
▁सप्त	-592
▁--	-593
मी	-594
वेद	-595
▁द्र	-596
विष	-597
▁६	-598
ष्ट्र	-599
▁यः	-600
▁समु	-601
ऽपि	-602
▁थ	-603
▁विद	-604
▁सुख	-605
▁संस्	-606
ुःख	-607
▁अन्त	-608
्वं	-609
सू	-610
▁ऋ	-611
▁पृथ	-612
▁20	-613
००	-614
धार	-615
सम्	-616
त्वं	-617
▁सर्वे	-618
शब्द	-619
▁दिव	-620
▁मृ	-621
ङ्क	-622
▁रूप	-623
्यो	-624
विश	-625
▁तर्	-626
▁वे	-627
दृश	-628
▁श्रु	-629
ाने	-630
▁गुण	-631
▁शब्द	-632
▁यत्र	-633
▁पद	-634
▁पी	-635
▁दू	-636
▁दी	-637
▁ॐ	-638
▁द्वि	-639
व्या	-640
णम्	-641
ग्रह	-642
ायते	-643
त्रं	-644
▁निर्	-645
न्या	-646
ञ्ज	-647
काः	-648
िताः	-649
▁मि	-650
▁परा	-651
चन	-652
▁तद्	-653
▁आसीत्	-654
▁पित	-655
दर्श	-656
▁पृष्ठ	-657
▁अतः	-658
▁यदा	-659
▁हृ	-660
यत्	-661
सिद्ध	-662
▁काम	-663
▁दश	-664
ताः	-665
र्या	-666
धे	-667
वी	-668
गम	-669
वेश	-670
चना	-671
षे	-672
ाणां	-673
न्व	-674
▁बाल	-675
▁दर्श	-676
्यः	-677
▁त्र	-678
▁कदा	-679
ोद	-680
यते	-681
वार	-682
▁८	-683
शु	-684
लः	-685
▁ने	-686
स्ते	-687
हा	-688
ीयते	-689
▁व्यव	-690
कि	-691
▁4	-692
त्रे	-693
▁नमः	-694
▁चा	-695
▁सो	-696
शी	-697
▁योग	-698
ग्नि	-699
▁S	-700
ोः	-701
योज	-702
त्प	-703
▁की	-704
णी	-705
▁स्यात्	-706
भेद	-707
तया	-708
▁शा	-709
ैक	-710
▁७	-711
▁मां	-712
▁तस्मा	-713
▁विना	-714
त्रा	-715
ात्म	-716
▁जा	-717
▁चतु	-718
क्रम	-719
▁मान	-720
कर्म	-721
▁अति	-722
▁भाग	-723
पूर्व	-724
स्प	-725
कर्त	-726
भ्यः	-727
▁करोति	-728
▁पि	-729
कृति	-730
▁विद्या	-731
▁२०	-732
रव	-733
्यम्	-734
▁ला	-735
__	-736
ातु	-737
er	-738
र्ह	-739
▁वेद	-740
षि	-741
▁संश	-742
▁रु	-743
सह	-744
▁यद	-745
र्मा	-746
ज्ज	-747
▁तेषां	-748
▁स्था	-749
▁लोक	-750
श्चि	-751
▁१९	-752
▁एते	-753
▁5	-754
in	-755
▁अस्य	-756
म्भ	-757
▁स्प	-758
वास	-759
▁परी	-760
▁रे	-761
की	-762
▁उक्त	-763
न्तः	-764
▁द्वित	-765
▁सिद्ध	-766
▁भारत	-767
▁इदं	-768
▁भगव	-769
सो	-770
▁तर्हि	-771
▁पठ	-772
नाम	-773
ोऽपि	-774
▁पञ्च	-775
▁सदा	-776
यन	-777
्ल	-778
द्वि	-779
▁तस्या	-780
▁अह	-781
▁मू	-782
▁वर्तते	-783
रणं	-784
व्यं	-785
▁*	-786
र्द	-787
▁स्त्री	-788
▁दक्षि	-789
▁दुःख	-790
st	-791
र्घ	-792
▁वद	-793
▁0	-794
▁वयं	-795
▁अत	-796
ितो	-797
▁ततो	-798
▁रक्ष	-799
▁आग	-800
ोज	-801
र्प	-802
धः	-803
▁शक	-804
लोक	-805
▁भवेत्	-806
▁सन्ति	-807
▁आह	-808
भवत्	-809
वर्ष	-810
▁A	-811
राज	-812
वाच	-813
▁कुर्व	-814
ुव	-815
▁ज्ञान	-816
▁वर्षे	-817
▁जु	-818
मुख	-819
▁क्षे	-820
▁ड	-821
लम्	-822
ारः	-823
▁गच्छ	-824
र्भ	-825
▁इव	-826
▁सर्वं	-827
▁भविष्यति	-828
▁और	-829
र्थे	-830
▁अस्मा	-831
स्थान	-832
धी	-833
▁अयं	-834
▁राष्ट्र	-835
▁दोष	-836
▁पाप	-837
पूर्ण	-838
▁यद्य	-839
गृह	-840
क्ष्य	-841
नोति	-842
ताम्	-843
▁९	-844
ेश्व	-845
▁सत्य	-846
ेः	-847
▁जान	-848
त्वात्	-849
िर	-850
▁+	-851
व्यम्	-852
तीति	-853
हः	-854
an	-855
▁क्रिय	-856
▁प्रथम	-857
ादश	-858
ाम्	-859
मानं	-860
▁आस	-861
▁प्राण	-862
▁इह	-863
▁तथ	-864
▁वी	-865
▁भ्र	-866
▁तत	-867
तिं	-868
▁कृत्वा	-869
णो	-870
दाह	-871
▁शी	-872
▁नो	-873
▁केवलं	-874
भाषा	-875
▁यस्य	-876
▁साध	-877
▁रि	-878
कारः	-879
ेक	-880
ज्ञा	-881
▁वक्त	-882
वाह	-883
▁परिव	-884
▁नृ	-885
ोच	-886
▁क्व	-887
▁जन्म	-888
▁वाय	-889
▁प्रज	-890
▁पश्य	-891
▁उत्	-892
ण्य	-893
▁ऊ	-894
▁१०	-895
▁याव	-896
पाल	-897
ंश	-898
▁ओ	-899
थि	-900
ुम्	-901
▁सद	-902
कल्प	-903
मन	-904
ब्र	-905
मास	-906
▁सामान्य	-907
on	-908
▁घट	-909
म्य	-910
▁कल	-911
▁परम	-912
पः	-913
प्रत्य	-914
▁इत्यादि	-915
▁परं	-916
ar	-917
ैर	-918
▁पुं	-919
▁विध	-920
▁येन	-921
▁वृद्ध	-922
▁मो	-923
00	-924
र्था	-925
ारी	-926
प्राप	-927
▁प्रि	-928
न्तं	-929
हित	-930
ारं	-931
लु	-932
▁नास्ति	-933
▁पूर्ण	-934
रस्य	-935
ाये	-936
त्ति	-937
▁जल	-938
▁मनु	-939
भ्या	-940
▁अधि	-941
▁T	-942
▁रात्र	-943
▁प्रश्	-944
▁करि	-945
▁फल	-946
▁वर्ण	-947
माह	-948
▁विद्यते	-949
▁खः	-950
▁वस्तु	-951
्याय	-952
गत	-953
ह्म	-954
▁हृद	-955
▁जि	-956
▁महा	-957
्रीड	-958
र्च	-959
्यु	-960
▁किम्	-961
भ्यां	-962
रेण	-963
▁अस	-964
ष्म	-965
यस्य	-966
▁बुद्ध	-967
▁मध्य	-968
कल	-969
मात्र	-970
▁I	-971
▁वाच	-972
िति	-973
▁नव	-974
▁सौ	-975
▁प्राप्	-976
वर्ण	-977
घ्र	-978
ष्टा	-979
en	-980
▁नं	-981
▁पूज	-982
▁धन	-983
▁मध्ये	-984
िकं	-985
ारि	-986
वत्	-987
▁मुक्त	-988
▁पाठ	-989
क्षु	-990
गुण	-991
▁पुरा	-992
▁बि	-993
र्वि	-994
or	-995
माः	-996
यत	-997
▁कर	-998
▁ताव	-999
याम	-1000
▁नित	-1001
ञ्	-1002
र्न	-1003
जः	-1004
तर	-1005
फल	-1006
▁समी	-1007
शं	-1008
▁प्रभ	-1009
सर्व	-1010
at	-1011
दाय	-1012
थं	-1013
विशेष	-1014
▁यज्ञ	-1015
▁प्रस	-1016
तन्त्र	-1017
▁दृश्यते	-1018
▁से	-1019
▁अर्थ	-1020
वस	-1021
यामि	-1022
▁प्रकाश	-1023
▁भि	-1024
▁भाषा	-1025
▁लिख	-1026
▁प्रती	-1027
ृण	-1028
काले	-1029
▁6	-1030
साध	-1031
▁ले	-1032
▁राजा	-1033
▁कल्प	-1034
गे	-1035
यन्ति	-1036
नम	-1037
▁मित्र	-1038
▁सर	-1039
ीया	-1040
शो	-1041
ही	-1042
▁गो	-1043
ादृश	-1044
▁शरी	-1045
▁दृष्ट्वा	-1046
▁जात	-1047
▁शुभ	-1048
लभ	-1049
▁श्री	-1050
्म	-1051
धिः	-1052
▁ः	-1053
णाम	-1054
▁प्रे	-1055
▁ह्य	-1056
▁यू	-1057
▁शक्त	-1058
▁सर्वत्र	-1059
▁कः	-1060
▁एतत्	-1061
नस्य	-1062
टि	-1063
वं	-1064
▁चे	-1065
भूत	-1066
्यू	-1067
मुक्त	-1068
काम	-1069
दिति	-1070
नाय	-1071
▁m	-1072
ड्	-1073
परा	-1074
▁क्रिया	-1075
▁युद्ध	-1076
▁सम्ब	-1077
ुम	-1078
▁201	-1079
▁यथ	-1080
भवति	-1081
▁नग	-1082
▁अध	-1083
▁मूल	-1084
ष्यति	-1085
es	-1086
ब्ध	-1087
▁पाद	-1088
कर	-1089
ान्व	-1090
▁8	-1091
ानाम्	-1092
▁शत्र	-1093
ची	-1094
डि	-1095
▁शक्ति	-1096
▁शेष	-1097
तेन	-1098
ायं	-1099
▁प्रयोग	-1100
▁मास	-1101
न्नि	-1102
ष्यामि	-1103
om	-1104
▁सूर्य	-1105
षा	-1106
▁पुर	-1107
▁अभवत्	-1108
समा	-1109
सौ	-1110
▁आव	-1111
▁तम	-1112
ात्र	-1113
▁पश	-1114
▁स्थाप	-1115
▁पृथिव	-1116
टी	-1117
▁बल	-1118
▁युक्त	-1119
▁गुरु	-1120
▁लक्ष	-1121
▁यद्	-1122
स्त्व	-1123
▁११	-1124
▁०	-1125
▁सेव	-1126
▁काले	-1127
▁निष्	-1128
दः	-1129
ष्टं	-1130
विद्या	-1131
▁यज	-1132
प्राप्त	-1133
▁()	-1134
शत	-1135
▁तृत	-1136
▁इदान	-1137
पो	-1138
रिति	-1139
देशे	-1140
▁केवल	-1141
▁मनो	-1142
राः	-1143
▁स्थान	-1144
▁t	-1145
▁इच्छ	-1146
यात्	-1147
ड़	-1148
▁संशयः	-1149
त्वेन	-1150
▁अध्य	-1151
ैत	-1152
▁भूत	-1153
▁शिव	-1154
यन्	-1155
▁त्य	-1156
▁राज्य	-1157
▁कृते	-1158
▁प्रोक्त	-1159
ित्वा	-1160
▁ऐ	-1161
▁हो	-1162
लक्षण	-1163
▁त्वया	-1164
ायः	-1165
▁नित्य	-1166
जि	-1167
▁नः	-1168
▁P	-1169
▁नैव	-1170
▁अग्नि	-1171
▁उपयोग	-1172
▁सहस्र	-1173
येन	-1174
रोध	-1175
▁भा	-1176
▁वच	-1177
ाद्य	-1178
जं	-1179
▁उभ	-1180
धर्म	-1181
▁सी	-1182
करो	-1183
▁चिन्त	-1184
▁M	-1185
▁जायते	-1186
▁ता	-1187
पति	-1188
दृष्ट	-1189
रम	-1190
▁विभ	-1191
▁अध्या	-1192
.1	-1193
ित्या	-1194
त्वे	-1195
▁आत्म	-1196
▁भवन्ति	-1197
ृत्य	-1198
▁कार्यं	-1199
▁किम	-1200
▁विद्य	-1201
▁भेद	-1202
▁कुरु	-1203
▁अद्य	-1204
तेः	-1205
▁तमे	-1206
स्मै	-1207
▁कारण	-1208
ार्थ	-1209
▁पे	-1210
▁अस्मिन्	-1211
▁धी	-1212
▁दत्त	-1213
▁स्वयं	-1214
कस्य	-1215
▁7	-1216
वती	-1217
दू	-1218
न्थ	-1219
al	-1220
वच	-1221
▁C	-1222
निर्	-1223
▁क्रीड	-1224
▁सूचना	-1225
▁व्र	-1226
▁विप	-1227
ल्ल	-1228
जी	-1229
याम्	-1230
▁इद	-1231
ादी	-1232
ानाम	-1233
▁N	-1234
मां	-1235
▁निर्व	-1236
दश	-1237
▁शत	-1238
▁भारती	-1239
▁शक्यते	-1240
मू	-1241
▁प्रधान	-1242
स्याः	-1243
र्गः	-1244
मित्त	-1245
नानि	-1246
▁नित्यं	-1247
▁केन	-1248
▁लभ	-1249
रति	-1250
त्मा	-1251
▁अन्यथा	-1252
▁दीर्घ	-1253
दौ	-1254
ोत्त	-1255
▁संस्कृत	-1256
▁बा	-1257
▁चेत्	-1258
▁पर्व	-1259
मुप	-1260
▁तथापि	-1261
रस	-1262
ेवं	-1263
▁मात	-1264
▁कश्च	-1265
भार	-1266
ासु	-1267
नियम	-1268
▁एकः	-1269
▁निश्च	-1270
शेष	-1271
मन्त	-1272
हु	-1273
▁नी	-1274
▁आर	-1275
देशः	-1276
▁ब्रह्म	-1277
▁हस्त	-1278
▁नर	-1279
जे	-1280
▁कौ	-1281
ेष्ठ	-1282
बल	-1283
जीव	-1284
्वे	-1285
ag	-1286
िकः	-1287
▁गण	-1288
▁१२	-1289
▁स्वी	-1290
हास	-1291
टे	-1292
▁विव	-1293
पृ	-1294
▁धार	-1295
नग	-1296
▁वार	-1297
▁उत्तर	-1298
▁प्रण	-1299
▁चैव	-1300
पुत्र	-1301
▁शो	-1302
▁विज्ञ	-1303
गः	-1304
ान्ति	-1305
▁दुर्	-1306
्रा	-1307
▁१८	-1308
भु	-1309
वर्तते	-1310
पुरुष	-1311
▁स्वप्	-1312
भ्यो	-1313
▁करण	-1314
र्क	-1315
वान	-1316
वां	-1317
▁पुनर	-1318
▁क्षेत्र	-1319
ान्न	-1320
▁अस्माकं	-1321
ष्यते	-1322
क्षः	-1323
ii	-1324
साम	-1325
▁ज्ञात	-1326
नाम्	-1327
▁यतः	-1328
▁विचार	-1329
▁लेख	-1330
रूपेण	-1331
▁विज	-1332
▁क्रियते	-1333
▁उच्यते	-1334
▁किन्तु	-1335
द्रा	-1336
▁स्वर्ग	-1337
▁तो	-1338
▁ध्य	-1339
ह्य	-1340
यात	-1341
▁मृत्य	-1342
▁शक्	-1343
▁ग्रह	-1344
▁प्रवि	-1345
▁H	-1346
▁यत	-1347
भावः	-1348
धिकार	-1349
▁B	-1350
लय	-1351
इति	-1352
▁ध्व	-1353
गो	-1354
▁साक्ष	-1355
▁पूर्वं	-1356
मह	-1357
ेय	-1358
▁जनाः	-1359
▁वर्तमान	-1360
▁विकल्प	-1361
ेऽ	-1362
▁किञ्च	-1363
▁एका	-1364
▁वाम	-1365
▁गत	-1366
▁अथवा	-1367
क्तं	-1368
मनु	-1369
्वः	-1370
ष्या	-1371
तोऽ	-1372
▁१५	-1373
▁पुस्त	-1374
यितुं	-1375
मव	-1376
▁दक्षिण	-1377
▁भाषण	-1378
मेर	-1379
▁10	-1380
दत्त	-1381
▁भवतः	-1382
तुं	-1383
्वि	-1384
न्ना	-1385
▁पार	-1386
▁विषय	-1387
▁सम्बन्ध	-1388
इट	-1389
खि	-1390
निक	-1391
रूपं	-1392
ापि	-1393
कृत्य	-1394
▁दृश्य	-1395
ाहं	-1396
▁न्या	-1397
व्यः	-1398
त्वम्	-1399
▁इत्युक्त	-1400
भ्र	-1401
▁पश्च	-1402
र्द्ध	-1403
वृत्ति	-1404
▁9	-1405
ग्ने	-1406
पं	-1407
▁सव	-1408
▁रुप	-1409
्ड	-1410
मेत	-1411
ल्य	-1412
▁कोई	-1413
▁पृष्ठानि	-1414
▁ईश्व	-1415
▁उच्च	-1416
▁त्वां	-1417
▁वृत्त	-1418
शास	-1419
▁निय	-1420
▁बाह	-1421
घु	-1422
▁लोके	-1423
मिदं	-1424
्येत	-1425
क्रिया	-1426
▁तिष्ठ	-1427
▁न्	-1428
स्थाप	-1429
पद्यते	-1430
पत्त	-1431
वो	-1432
▁मार्ग	-1433
▁नियम	-1434
रू	-1435
▁मन्त्र	-1436
▁वस	-1437
▁प्रव	-1438
▁भु	-1439
▁अत्य	-1440
वेदन	-1441
गण	-1442
▁हरि	-1443
▁परमा	-1444
संधान	-1445
▁चित्र	-1446
▁ङ	-1447
▁विधि	-1448
▁कार्या	-1449
▁तप	-1450
क्षं	-1451
म्म	-1452
▁शू	-1453
▁तां	-1454
▁समुद्र	-1455
it	-1456
पर्य	-1457
शक्त	-1458
▁कृप	-1459
च्छति	-1460
बि	-1461
▁शीघ्र	-1462
▁वन	-1463
कर्ष	-1464
▁उद्	-1465
द्धि	-1466
...	-1467
ादेश	-1468
चर	-1469
मार	-1470
▁अती	-1471
न्तरं	-1472
▁योज	-1473
▁दृ	-1474
मित्य	-1475
▁माता	-1476
शास्त्र	-1477
▁इत	-1478
▁s	-1479
िनः	-1480
▁तत्त्व	-1481
▁रस	-1482
▁मुख	-1483
▁झ	-1484
कूल	-1485
▁वेब	-1486
यौ	-1487
ाला	-1488
▁>	-1489
▁उदाह	-1490
कार्य	-1491
▁वर	-1492
▁विप्र	-1493
▁विभाग	-1494
बुद्ध	-1495
▁निर्म	-1496
▁L	-1497
▁भावः	-1498
▁कम	-1499
धिकरण	-1500
सां	-1501
ैर्	-1502
▁प्रातः	-1503
स्मात्	-1504
▁तथैव	-1505
▁इत्यस्य	-1506
मार्ग	-1507
▁स्मृ	-1508
▁विस्त	-1509
▁लाभ	-1510
▁पुनर्	-1511
▁संयुक्त	-1512
▁अनुसंधान	-1513
▁शास्त्र	-1514
ज्यते	-1515
चित्र	-1516
▁बु	-1517
नात्	-1518
▁मधु	-1519
भवः	-1520
▁सन्	-1521
▁तद्व	-1522
iv	-1523
▁पर्य	-1524
▁अन्व	-1525
▁भक्त	-1526
दिष्ट	-1527
शे	-1528
हम्	-1529
▁प्रार्थ	-1530
हृ	-1531
ुत	-1532
ाया	-1533
▁सर्वेषां	-1534
नीय	-1535
▁पदा	-1536
केन	-1537
▁भवान्	-1538
▁त्वा	-1539
▁रो	-1540
▁अनेन	-1541
▁सुर	-1542
▁यं	-1543
▁सङ्	-1544
साइट	-1545
त्रि	-1546
▁क्षण	-1547
▁उद	-1548
ज्ञः	-1549
कर्ता	-1550
मम्	-1551
▁इन्द्र	-1552
१०	-1553
ित्व	-1554
रुद्ध	-1555
▁द्रष्ट	-1556
▁सूत्र	-1557
यी	-1558
20	-1559
ितानि	-1560
▁विषये	-1561
▁दैव	-1562
▁दिन	-1563
▁प्रकृति	-1564
ृतं	-1565
तन	-1566
ों	-1567
▁विकास	-1568
▁निर	-1569
थः	-1570
▁भारतीय	-1571
▁प्राप्नोति	-1572
िके	-1573
थे	-1574
▁संसार	-1575
बा	-1576
▁सम्य	-1577
▁द्वादश	-1578
ुर	-1579
▁शुद्ध	-1580
▁पिता	-1581
मानः	-1582
▁सति	-1583
▁प्रयोज	-1584
▁परिवर्त	-1585
िकी	-1586
▁गति	-1587
मस्ति	-1588
ेष्व	-1589
▁है	-1590
लिख	-1591
▁१४	-1592
ाण्ड	-1593
न्त्य	-1594
पार	-1595
▁तत्त	-1596
▁मुख्य	-1597
▁खलु	-1598
स्तथा	-1599
▁अम	-1600
▁फलं	-1601
▁इत्येत	-1602
ेषण	-1603
▁श्	-1604
▁ननु	-1605
▁वेबसाइट	-1606
▁विह	-1607
▁इदानीं	-1608
गा	-1609
▁कुर्या	-1610
▁ज्यो	-1611
▁विनि	-1612
▁कुर्वन्ति	-1613
▁सिं	-1614
षेध	-1615
प्रि	-1616
▁सर्वदा	-1617
ध्यते	-1618
▁शक्य	-1619
लक्ष	-1620
यित्वा	-1621
▁1.	-1622
ृणु	-1623
▁इत्यर्थः	-1624
▁विकि	-1625
▁विष्ण	-1626
▁परीक्षा	-1627
दो	-1628
▁सर्वा	-1629
शक्ति	-1630
▁कस्य	-1631
▁द्विती	-1632
▁समाप्त	-1633
▁स्न	-1634
भी	-1635
▁ि	-1636
▁वो	-1637
सङ्ग	-1638
▁अमेर	-1639
दपि	-1640
▁चित्त	-1641
▁दा	-1642
वरी	-1643
▁सम्बद्ध	-1644
re	-1645
स्ट	-1646
हू	-1647
षां	-1648
▁तस्मात्	-1649
कम	-1650
च्य	-1651
▁अधिकतम	-1652
▁प्रमाण	-1653
▁जू	-1654
बी	-1655
मेण	-1656
▁19	-1657
मान्	-1658
▁प्रश्न	-1659
२०	-1660
सहस्र	-1661
ेक्ष	-1662
▁...	-1663
ितवान्	-1664
▁तौ	-1665
▁भी	-1666
कृतं	-1667
▁b	-1668
▁वर्ध	-1669
▁साह	-1670
कथ	-1671
---	-1672
िकाः	-1673
म्ह	-1674
▁प्रयत्	-1675
▁पुष्	-1676
▁संख्या	-1677
▁p	-1678
जात	-1679
ान्तर	-1680
▁प्रसिद्ध	-1681
ऽऽ	-1682
▁रोग	-1683
▁भगवान्	-1684
str	-1685
▁कारणं	-1686
धं	-1687
ाग्र	-1688
▁गृहे	-1689
▁अधिनियम	-1690
▁प्रच	-1691
▁D	-1692
▁ग्राम	-1693
le	-1694
कृते	-1695
कारेण	-1696
कारं	-1697
शिष्ट	-1698
▁आप	-1699
न्दि	-1700
am	-1701
कू	-1702
व्र	-1703
▁प्रय	-1704
▁सार	-1705
ou	-1706
व्यव	-1707
र्थम्	-1708
▁यतो	-1709
▁भवे	-1710
▁१७	-1711
▁c	-1712
स्यापि	-1713
▁यावत्	-1714
▁१३	-1715
ृहं	-1716
ध्व	-1717
ाह्म	-1718
▁देवा	-1719
▁#	-1720
भे	-1721
ानी	-1722
बोध	-1723
धुना	-1724
निः	-1725
ितुं	-1726
खा	-1727
▁नू	-1728
्याव	-1729
च्छेद	-1730
दोष	-1731
▁पति	-1732
▁ण	-1733
दिश	-1734
ूनां	-1735
वै	-1736
सम्ब	-1737
घ्	-1738
युः	-1739
स्यां	-1740
ic	-1741
दुःख	-1742
▁तस्मिन्	-1743
र्ति	-1744
▁सङ्ग	-1745
सङ्	-1746
टा	-1747
तौ	-1748
विधि	-1749
सर्ग	-1750
-1	-1751
ाग्	-1752
▁ती	-1753
▁दण्ड	-1754
मध्ये	-1755
जो	-1756
संस्	-1757
▁एवम्	-1758
ारो	-1759
▁पव	-1760
विधान	-1761
▁विशि	-1762
▁समान	-1763
▁हर	-1764
▁महि	-1765
▁V	-1766
गी	-1767
तुः	-1768
▁पितृ	-1769
▁उत्पाद	-1770
▁वाक्य	-1771
▁१६	-1772
▁वृक्ष	-1773
▁श्रुत्वा	-1774
▁सक	-1775
▁सोम	-1776
▁गम	-1777
प्रयोग	-1778
टः	-1779
▁भोज	-1780
▁छात्र	-1781
लिङ्ग	-1782
▁द्वारा	-1783
▁समाचार	-1784
स्पर	-1785
▁शै	-1786
▁हेतु	-1787
पदं	-1788
न्तर	-1789
▁पक्ष	-1790
▁कर्तुं	-1791
ीः	-1792
▁दूर	-1793
▁प्रशि	-1794
ान्ते	-1795
मन्त्र	-1796
▁नै	-1797
नौ	-1798
भय	-1799
भास	-1800
▁न्यू	-1801
षण	-1802
▁एषा	-1803
▁त्या	-1804
क्ष्यामि	-1805
▁नु	-1806
▁लघु	-1807
▁लक्षण	-1808
▁पाल	-1809
▁श्व	-1810
ed	-1811
१९	-1812
▁कश्चि	-1813
दार	-1814
ष्मा	-1815
खे	-1816
ोत	-1817
▁प्रभाव	-1818
▁निर्ण	-1819
sg	-1820
▁निरा	-1821
संख्या	-1822
▁यद्यपि	-1823
ायु	-1824
ग्रे	-1825
▁अहम्	-1826
▁देशे	-1827
▁चन्द्र	-1828
▁नार	-1829
▁व्याख्या	-1830
माणं	-1831
▁निः	-1832
ाद्	-1833
▁षष्ठ	-1834
▁पश्चि	-1835
यान	-1836
sgstr	-1837
▁एकं	-1838
▁गि	-1839
▁परम्	-1840
▁बी	-1841
▁स्फ	-1842
▁f	-1843
न्नं	-1844
पत्र	-1845
स्थित	-1846
त्ते	-1847
▁धात	-1848
त्प्र	-1849
त्यं	-1850
▁---	-1851
▁इयं	-1852
▁कथा	-1853
▁कदाचित्	-1854
▁कृता	-1855
पेक्ष	-1856
▁कृतं	-1857
▁अग	-1858
न्ती	-1859
भक्त	-1860
ष्टः	-1861
ष्टि	-1862
▁प्रवेश	-1863
त्ता	-1864
वद	-1865
भावे	-1866
▁सम्बद्धानि	-1867
▁वाक	-1868
▁धन्य	-1869
▁वायु	-1870
मुच्यते	-1871
ome	-1872
▁गतः	-1873
चा	-1874
पिं	-1875
र्वा	-1876
▁सन्द	-1877
▁गत्वा	-1878
पक्ष	-1879
पात	-1880
▁जनवरी	-1881
▁उदाहरण	-1882
▁समर्थ	-1883
▁वय	-1884
वत्स	-1885
▁क्वचित्	-1886
▁मद	-1887
गं	-1888
ion	-1889
▁मै	-1890
▁अनि	-1891
▁अनेक	-1892
▁एषः	-1893
समु	-1894
▁ज्ञानं	-1895
▁अष्ट	-1896
▁a	-1897
▁d	-1898
साय	-1899
ेषाम	-1900
▁(1	-1901
रक्ष	-1902
ज्ञानं	-1903
▁द्वितीय	-1904
बु	-1905
▁मयि	-1906
▁अस्म	-1907
स्तं	-1908
विभाग	-1909
▁प्रत्यक्ष	-1910
मौ	-1911
स्ता	-1912
▁2.	-1913
▁परस्पर	-1914
▁विशेषतः	-1915
▁R	-1916
▁)	-1917
▁पौ	-1918
▁पत्र	-1919
नन्द	-1920
▁इत्येव	-1921
ेवाः	-1922
▁अक्ष	-1923
▁भारतस्य	-1924
▁सोऽ	-1925
र्म्म	-1926
▁आवश्य	-1927
▁11	-1928
पित	-1929
▁सम्प	-1930
▁चल	-1931
▁विविध	-1932
सेन	-1933
्रियां	-1934
▁अर्थः	-1935
ारे	-1936
▁मं	-1937
त्थ	-1938
▁मी	-1939
▁उद्य	-1940
▁प्राप्य	-1941
घा	-1942
हस्य	-1943
▁कति	-1944
▁इत्यनेन	-1945
करणे	-1946
ैश्च	-1947
तस्य	-1948
▁अवि	-1949
is	-1950
मेन	-1951
विषय	-1952
ताम	-1953
▁सै	-1954
वन्तः	-1955
माय	-1956
फलं	-1957
योजन	-1958
साधन	-1959
▁n	-1960
किं	-1961
▁गौ	-1962
▁तर	-1963
▁प्रत्या	-1964
ागर	-1965
▁राम	-1966
▁प्राय	-1967
.0	-1968
र्त्त	-1969
▁पृथक्	-1970
राज्य	-1971
ादौ	-1972
▁स्य	-1973
▁हिं	-1974
▁अयम्	-1975
११	-1976
वन	-1977
ान्तः	-1978
ासि	-1979
▁अज	-1980
विषये	-1981
ent	-1982
न्तो	-1983
▁कीदृश	-1984
▁पार्थ	-1985
▁यान	-1986
▁प्रतिष्ठ	-1987
माद	-1988
श्रु	-1989
ेत्य	-1990
▁भूमि	-1991
▁ध्यान	-1992
करणं	-1993
▁श्रेष्ठ	-1994
रुण	-1995
लेख	-1996
▁दान	-1997
▁इत्यत्र	-1998
▁प्रो	-1999
तेषु	-2000
▁12	-2001
▁सत	-2002
स्स	-2003
▁मनः	-2004
भः	-2005
गतं	-2006
न्धि	-2007
मात्	-2008
न्दु	-2009
▁जी	-2010
क्ष्म	-2011
▁कृपया	-2012
एव	-2013
▁मनुष्य	-2014
▁सर्व्व	-2015
कारण	-2016
सेव	-2017
नापि	-2018
ध्	-2019
▁खे	-2020
▁पं	-2021
मति	-2022
ारु	-2023
▁क्रि	-2024
ोर	-2025
नव	-2026
▁अङ्ग	-2027
▁तेषु	-2028
मत	-2029
▁Tag	-2030
हर	-2031
▁ददा	-2032
ाव्य	-2033
प्रा	-2034
▁थ्व	-2035
▁बन्ध	-2036
▁<	-2037
वाः	-2038
त्तर	-2039
▁विद्व	-2040
िकित्	-2041
▁रूपं	-2042
▁प्रथमं	-2043
सृ	-2044
ष्व	-2045
चित्त	-2046
स्क	-2047
▁लु	-2048
ीप	-2049
▁मत	-2050
ृतम्	-2051
▁जना	-2052
▁ज्योति	-2053
नाश	-2054
▁अव्य	-2055
▁नेवाः	-2056
षः	-2057
दिना	-2058
▁Home	-2059
▁कर्ण	-2060
कृतिः	-2061
▁कुत्र	-2062
लस्य	-2063
▁वह	-2064
▁उत्स	-2065
वृद्ध	-2066
शाल	-2067
▁वापि	-2068
ुक्तं	-2069
▁मन्त	-2070
▁शान्त	-2071
▁बुद्धि	-2072
lo	-2073
▁स्र	-2074
मय	-2075
▁अधो	-2076
▁भवित	-2077
▁भो	-2078
ज्	-2079
दृ	-2080
सन्ध	-2081
▁ज्व	-2082
▁पश्यति	-2083
ायै	-2084
डिया	-2085
यमेव	-2086
ितां	-2087
▁वर्ग	-2088
▁E	-2089
स्त्य	-2090
स्वरूप	-2091
रुप	-2092
▁Ne	-2093
▁शृणु	-2094
ेयं	-2095
▁केन्द्र	-2096
चः	-2097
ानाति	-2098
▁याति	-2099
ष्ये	-2100
▁क्रम	-2101
▁O	-2102
िंश	-2103
भेदे	-2104
▁अधिकार	-2105
रात्र	-2106
▁रात्रौ	-2107
▁विज्ञान	-2108
लाः	-2109
▁स्थि	-2110
▁सम्प्र	-2111
▁प्रवर्त	-2112
हिता	-2113
णाम्	-2114
मम	-2115
▁ज्या	-2116
इगु	-2117
▁बृह	-2118
▁परीक्षण	-2119
चे	-2120
नया	-2121
ेदं	-2122
माना	-2123
▁प्रया	-2124
▁तस्याः	-2125
▁देह	-2126
▁ङी	-2127
▁हित	-2128
▁परमेश्व	-2129
रणे	-2130
▁व्यक्त	-2131
१२	-2132
▁न्याय	-2133
▁शत्रु	-2134
▁शिक्ष	-2135
सर	-2136
▁दृढ	-2137
▁गा	-2138
▁नम	-2139
▁गच्छति	-2140
▁जलं	-2141
▁निज	-2142
▁न्य	-2143
प्प	-2144
▁सां	-2145
कृता	-2146
लये	-2147
ब्दा	-2148
▁ब्रू	-2149
▁सृष्ट	-2150
मिव	-2151
▁चापि	-2152
▁यूयं	-2153
▁द्विज	-2154
▁लिङ्ग	-2155
▁देवानां	-2156
कौ	-2157
्यात्	-2158
▁मण्ड	-2159
पदा	-2160
▁२००	-2161
▁कृष्ण	-2162
▁निवेद	-2163
▁देवता	-2164
▁पार्	-2165
तिक	-2166
▁अप्र	-2167
बं	-2168
▁याः	-2169
िको	-2170
▁पुण्य	-2171
▁G	-2172
स्तस्य	-2173
▁तादृश	-2174
योर	-2175
सुख	-2176
गतः	-2177
▁धर्मा	-2178
ग्ध	-2179
ेकं	-2180
▁वित्त	-2181
लोप	-2182
रेत्	-2183
वर	-2184
▁भय	-2185
लम्ब	-2186
▁अथा	-2187
▁धनं	-2188
ch	-2189
▁ख्या	-2190
▁तया	-2191
▁रोच	-2192
▁किमपि	-2193
१५	-2194
▁$	-2195
▁15	-2196
▁अना	-2197
▁गृही	-2198
ौक	-2199
▁18	-2200
न्यं	-2201
▁नृप	-2202
▁आद	-2203
विक	-2204
लोके	-2205
▁प्रश	-2206
▁पत	-2207
▁ग्रन्थ	-2208
डा	-2209
▁टि	-2210
▁विश्वा	-2211
▁प्रतिदि	-2212
▁इदम्	-2213
्रियते	-2214
▁घोष	-2215
▁चक्र	-2216
▁स्तु	-2217
▁ठ	-2218
▁त्रि०	-2219
▁प्रथमा	-2220
्येन	-2221
ad	-2222
नय	-2223
▁कर्त्त	-2224
▁शीत	-2225
रिक्त	-2226
साद	-2227
▁समर्प	-2228
ीयम्	-2229
▁गते	-2230
▁ग्राह	-2231
राष्ट्र	-2232
▁यत्त	-2233
▁कश्चित्	-2234
्रे	-2235
▁वः	-2236
ीनां	-2237
ंस	-2238
टो	-2239
टक	-2240
ाप्	-2241
ग्री	-2242
▁अध्ययन	-2243
▁प्रवृत्त	-2244
ीर	-2245
▁→	-2246
द्द	-2247
हां	-2248
▁राज्यं	-2249
▁रम	-2250
प्रभ	-2251
▁सुखं	-2252
वण	-2253
▁माम	-2254
क्स	-2255
ाप्य	-2256
▁कृतम्	-2257
भिर	-2258
▁सम्भव	-2259
ण्ठ	-2260
ाय्	-2261
▁अश्व	-2262
मण्ड	-2263
▁msgstr	-2264
as	-2265
▁शास	-2266
▁कोऽपि	-2267
▁दिने	-2268
कारस्य	-2269
कृष्ट	-2270
▁प्रायः	-2271
हितः	-2272
▁द्वे	-2273
▁परिणाम	-2274
▁ह्र	-2275
राणां	-2276
▁कालः	-2277
स्थाने	-2278
विंश	-2279
▁तिथि	-2280
▁याये	-2281
▁देवाः	-2282
▁सूच	-2283
▁अधुना	-2284
▁कन्या	-2285
षी	-2286
▁तै	-2287
▁कृतः	-2288
▁माया	-2289
▁व्यवहार	-2290
ायत	-2291
ासी	-2292
▁तम्	-2293
▁पुरुषः	-2294
he	-2295
िन	-2296
▁हा	-2297
.2	-2298
▁स्थित	-2299
पत्	-2300
माज	-2301
िनी	-2302
सत	-2303
▁देहि	-2304
▁इत्यु	-2305
▁विवाह	-2306
▁विस्म	-2307
न्नः	-2308
माने	-2309
▁मत्	-2310
देह	-2311
▁श्रद्ध	-2312
१४	-2313
▁ं	-2314
▁वने	-2315
▁२५	-2316
ज्ञात	-2317
त्वाद	-2318
▁सत्यं	-2319
यय	-2320
▁स्तो	-2321
धारण	-2322
स्तव	-2323
स्ताव	-2324
१८	-2325
ङ्के	-2326
मन्य	-2327
▁अहो	-2328
र्यं	-2329
▁पाव	-2330
भिप्र	-2331
▁स्वभाव	-2332
स्थानं	-2333
ाहि	-2334
▁आकाश	-2335
▁प्रतिपाद	-2336
▁स्वतन्त्र	-2337
ाले	-2338
▁२२	-2339
ष्ट्रिय	-2340
कारि	-2341
▁मुनि	-2342
शय	-2343
▁गोप	-2344
कानां	-2345
त्त्वं	-2346
भागे	-2347
il	-2348
▁रथ	-2349
र्हि	-2350
वर्ज	-2351
▁निवेश	-2352
ूनि	-2353
▁दै	-2354
▁F	-2355
्येण	-2356
▁नेपाल	-2357
ून	-2358
ट्ट	-2359
वादः	-2360
▁छुं	-2361
हिं	-2362
▁साक्षात्	-2363
मित	-2364
राय	-2365
▁वित	-2366
▁जातः	-2367
▁o	-2368
ing	-2369
तरं	-2370
पृष्ठ	-2371
ce	-2372
ूह	-2373
▁l	-2374
मात्म	-2375
ेतुः	-2376
▁मिथ	-2377
▁स्वयम्	-2378
▁तुल	-2379
▁प्री	-2380
▁{	-2381
परी	-2382
▁अभ	-2383
▁महोद	-2384
▁धि	-2385
▁इतिहास	-2386
स्तत्र	-2387
vi	-2388
▁एतद	-2389
▁२१	-2390
▁कुतः	-2391
▁संप्र	-2392
▁तृ	-2393
▁धा	-2394
र्भव	-2395
▁प्राप्ते	-2396
▁चेत	-2397
▁वार्त	-2398
धानं	-2399
▁अतो	-2400
धनं	-2401
ान्तं	-2402
यामास	-2403
▁स्त्रियां	-2404
पुर	-2405
विधा	-2406
▁कुश	-2407
▁स्थाने	-2408
गति	-2409
नुव	-2410
पञ्च	-2411
स्यते	-2412
▁भवता	-2413
ानुसार	-2414
▁•	-2415
▁आसन्	-2416
▁व्यक्ति	-2417
ाद्व	-2418
▁सन्त	-2419
▁करोमि	-2420
पूज	-2421
शब्दः	-2422
▁कर्तव्य	-2423
▁सत्	-2424
चिन्त	-2425
▁तानि	-2426
योऽ	-2427
▁द्वौ	-2428
▁मन्य	-2429
▁त्यक्त	-2430
▁आः	-2431
▁देवी	-2432
▁यम	-2433
▁रक्त	-2434
लेश	-2435
▁तू	-2436
▁प्रदेश	-2437
लव	-2438
▁U	-2439
श्यं	-2440
मन्त्री	-2441
यव	-2442
▁भवतु	-2443
▁अन्ये	-2444
▁शीघ्रं	-2445
ताव	-2446
च्छि	-2447
ोऽयं	-2448
पुं	-2449
ादिति	-2450
▁रुपये	-2451
त्पाद	-2452
▁कू	-2453
▁पदं	-2454
▁दिना	-2455
▁मूर्	-2456
एस	-2457
नैः	-2458
▁परे	-2459
स्थितः	-2460
पक	-2461
▁दुर्लभ	-2462
▁सर्वाणि	-2463
▁शरीर	-2464
मतः	-2465
▁धू	-2466
▁प्रतिशत	-2467
कृतः	-2468
▁कं	-2469
हितं	-2470
िकम्	-2471
▁गृह्	-2472
निष्ठ	-2473
▁स्थानं	-2474
दय	-2475
१७	-2476
धिप	-2477
तिष्ठ	-2478
▁आचार	-2479
▁कथम्	-2480
रवरी	-2481
▁विश्ल	-2482
ञ्छ	-2483
मूल	-2484
रणम्	-2485
ाम्य	-2486
डी	-2487
रत	-2488
नतः	-2489
स्त्वं	-2490
▁३०	-2491
संज्ञ	-2492
▁विदेश	-2493
योक्त	-2494
▁प्रदर्श	-2495
▁तदेव	-2496
▁मानु	-2497
▁तावत्	-2498
▁प्रशिक्षण	-2499
नाव	-2500
रित	-2501
▁अं	-2502
▁प्राची	-2503
▁..	-2504
▁कुल	-2505
▁श्रू	-2506
▁परिभाषा	-2507
राणि	-2508
▁गृहं	-2509
▁&	-2510
येत	-2511
क्ष्	-2512
▁पाठः	-2513
मृ	-2514
-2	-2515
▁ध्र	-2516
१३	-2517
▁इं	-2518
योगः	-2519
▁तद्य	-2520
यथा	-2521
▁14	-2522
णेन	-2523
▁किल	-2524
टु	-2525
ारम्भ	-2526
▁सम्पाद	-2527
▁स्वरूप	-2528
यनं	-2529
▁विर	-2530
क्षेप	-2531
ग्न	-2532
ांश	-2533
▁इत्	-2534
▁गाय	-2535
▁विन	-2536
कानि	-2537
्याम	-2538
तीत्य	-2539
▁संस्था	-2540
राग	-2541
कालं	-2542
▁धारा	-2543
▁समास	-2544
स्मिन्न	-2545
▁टी	-2546
▁मौ	-2547
▁लाख	-2548
जु	-2549
▁२४	-2550
स्वा	-2551
▁भर्त	-2552
▁राक्ष	-2553
▁प्रकृत	-2554
▁उपयोगकर्ता	-2555
▁भोग	-2556
▁उपरि	-2557
▁वचनं	-2558
▁नाम्	-2559
ाभि	-2560
श्चैव	-2561
▁श्रो	-2562
▁मृत्यु	-2563
त्तम	-2564
▁शब्दः	-2565
▁प्रयुक्त	-2566
धात	-2567
ीकरण	-2568
▁उत्प	-2569
▁स्ने	-2570
▁वह्	-2571
▁विकिपी	-2572
हन	-2573
क्तिः	-2574
म्प	-2575
न्दो	-2576
▁गन्ध	-2577
रोग	-2578
स्फ	-2579
▁कर्ता	-2580
▁क्रोध	-2581
ीयः	-2582
▁सच	-2583
▁नदी	-2584
▁भयं	-2585
ब्रवी	-2586
विद	-2587
वाक्य	-2588
लन	-2589
▁जाय	-2590
▁जानाति	-2591
धाय	-2592
मात्रं	-2593
पाठ	-2594
द्यः	-2595
▁प्ल	-2596
ोक्तं	-2597
प्रथ	-2598
दात्त	-2599
▁पूजा	-2600
▁ब्राह्म	-2601
▁प्रत्येकं	-2602
नात	-2603
पाप	-2604
▁धातु	-2605
▁लब्ध	-2606
▁दिव्य	-2607
ानः	-2608
ृति	-2609
▁An	-2610
ष्टे	-2611
स्ती	-2612
स्थि	-2613
▁प्रिय	-2614
▁पृथिवी	-2615
"।	-2616
▁ममा	-2617
▁प्रत्यय	-2618
▁]	-2619
▁जाता	-2620
▁मातृ	-2621
स्त्रि	-2622
▁परन्तु	-2623
भोग	-2624
▁मानव	-2625
▁समाज	-2626
▁प्राग	-2627
ेह	-2628
साह	-2629
पद्य	-2630
विः	-2631
▁२६	-2632
▁२७	-2633
▁पदे	-2634
▁युव	-2635
▁जगत्	-2636
▁तद्वि	-2637
▁कव	-2638
▁आयु	-2639
▁देवि	-2640
▁पृष्ट	-2641
निमित्त	-2642
भं	-2643
▁विरा	-2644
▁पात	-2645
▁समय	-2646
▁जाग	-2647
▁वत्स	-2648
▁अमेरिका	-2649
ार्थं	-2650
ुट	-2651
दानं	-2652
भिन्न	-2653
▁दुष्	-2654
स्माकं	-2655
▁तः	-2656
गच्छ	-2657
▁//	-2658
बद्ध	-2659
▁चक्षु	-2660
ामः	-2661
▁चर	-2662
▁मय	-2663
भ्यं	-2664
विश्व	-2665
करोत्	-2666
्यताम्	-2667
▁तन्	-2668
्येष्ठ	-2669
▁निमित्त	-2670
▁व्यवसाय	-2671
▁यश	-2672
▁क्षि	-2673
ादीनां	-2674
पदे	-2675
▁बाध	-2676
▁सदस्य	-2677
▁संभव	-2678
▁निवृत्त	-2679
ृतः	-2680
मस्य	-2681
▁परमं	-2682
कुर्व	-2683
िकल्प	-2684
▁कला	-2685
▁मृत	-2686
दक्षि	-2687
▁चिकित्	-2688
et	-2689
ीन	-2690
लेन	-2691
▁कै	-2692
१६	-2693
ीयं	-2694
्यादि	-2695
▁स्त्रि	-2696
▁तस्मै	-2697
षं	-2698
भूव	-2699
▁यौ	-2700
▁पत्	-2701
▁शिक्षा	-2702
▁पो	-2703
▁अल्प	-2704
▁स्थिति	-2705
▁पुण	-2706
मिच्छ	-2707
ay	-2708
वाय	-2709
हीं	-2710
ेषा	-2711
कारे	-2712
▁प्रक	-2713
उप	-2714
ामी	-2715
▁बहि	-2716
▁शेषः	-2717
▁स्पष्ट	-2718
▁समस्त	-2719
दम्	-2720
▁दिवस	-2721
भावात्	-2722
कैः	-2723
▁अश	-2724
ादेव	-2725
भाग्य	-2726
▁अर्था	-2727
ेर	-2728
ेते	-2729
रक्षण	-2730
ात्मा	-2731
ab	-2732
▁पूर	-2733
त्रापि	-2734
▁शस्त्र	-2735
▁खोज	-2736
▁प्रोक्तं	-2737
▁सम्पूर्ण	-2738
णु	-2739
▁अल	-2740
ेषाम्	-2741
▁महत्व	-2742
▁थः	-2743
▁न्ह	-2744
त्येव	-2745
▁बहुधा	-2746
ख्यान	-2747
▁एतेन	-2748
▁लभते	-2749
क्षेत्र	-2750
दिव	-2751
यतु	-2752
▁उत	-2753
हस्त	-2754
धिष्ठ	-2755
देशस्य	-2756
बाह	-2757
▁ब्रह्	-2758
रात्	-2759
हेतु	-2760
▁महत्	-2761
▁कर्मा	-2762
▁न्याया	-2763
स्तदा	-2764
▁सदैव	-2765
▁पीड	-2766
▁क्षु	-2767
▁भक्ष	-2768
▁इत्यादिना	-2769
▁सृ	-2770
▁स्याद	-2771
र्हति	-2772
दयः	-2773
▁13	-2774
▁भ्रम	-2775
▁पिब	-2776
▁वास	-2777
▁येषां	-2778
खण्ड	-2779
▁निक	-2780
▁पु०	-2781
▁वरि	-2782
▁पुत्रः	-2783
▁सम्भवति	-2784
▁आश्र	-2785
▁अभ्या	-2786
▁इदानी	-2787
▁ददाति	-2788
▁तान्	-2789
कारो	-2790
▁प्राणि	-2791
▁शं	-2792
श्चा	-2793
▁हरे	-2794
▁भेदः	-2795
▁यानि	-2796
21	-2797
न्ये	-2798
समये	-2799
▁सर्वेषु	-2800
▁3.	-2801
▁एस	-2802
र्नि	-2803
तायाः	-2804
▁राज्ञ	-2805
सद	-2806
धातु	-2807
ष्टो	-2808
▁जूगु	-2809
ोऽहं	-2810
▁एवा	-2811
▁युग	-2812
▁वय्	-2813
घट	-2814
ोड	-2815
करं	-2816
काय	-2817
ितम	-2818
यन्त	-2819
संयुक्त	-2820
थाः	-2821
▁तच्च	-2822
द्वारा	-2823
▁जानामि	-2824
▁कृतवान्	-2825
ot	-2826
▁पुरस्	-2827
▁फरवरी	-2828
नीं	-2829
ख्ये	-2830
भूमि	-2831
▁जुइ	-2832
गुणं	-2833
▁ग्री	-2834
▁ज्ञे	-2835
SS	-2836
▁भज	-2837
▁चेति	-2838
▁अग्ने	-2839
▁इत्याह	-2840
▁गर्भ	-2841
श्रेष्ठ	-2842
चिद	-2843
वचन	-2844
▁भारते	-2845
▁17	-2846
प्ति	-2847
▁गन्त	-2848
▁पेपर	-2849
▁वृद्धि	-2850
पाः	-2851
स्यति	-2852
्यस्य	-2853
▁क्षमा	-2854
▁पार्श्व	-2855
स्थं	-2856
▁केश	-2857
▁प्रजाप	-2858
याय	-2859
▁चै	-2860
▁विमान	-2861
▁स्थितः	-2862
प्स	-2863
▁ध्वनि	-2864
▁सत्त्व	-2865
यिष्यामि	-2866
▁कर्तव्यं	-2867
क्षते	-2868
▁विधीयते	-2869
▁शृ	-2870
चेत	-2871
▁अभ्य	-2872
▁तृतीय	-2873
▁अतीव	-2874
स्मान्	-2875
पत	-2876
ालि	-2877
▁हृदय	-2878
▁परस्प	-2879
▁कर्मणि	-2880
मप	-2881
करः	-2882
नानां	-2883
▁प्रह	-2884
प्रकाश	-2885
ूढ	-2886
प्तं	-2887
ारण	-2888
▁दो	-2889
▁एतद्	-2890
विज्ञान	-2891
ाली	-2892
▁आई	-2893
▁सामाज	-2894
ितौ	-2895
▁अय	-2896
▁चत्व	-2897
▁रात्रि	-2898
लयः	-2899
▁कथ्यते	-2900
णाति	-2901
▁नाय	-2902
▁कुर्यात्	-2903
भो	-2904
▁चु	-2905
क्रमः	-2906
ङ्ग्ल	-2907
ान्तरे	-2908
▁त्वम्	-2909
▁भक्ति	-2910
▁ताप	-2911
▁विवे	-2912
▁वैश्व	-2913
ासा	-2914
▁२३	-2915
ज्या	-2916
सप्त	-2917
▁उत्तम	-2918
▁पुष्प	-2919
▁अस्मि	-2920
▁विधान	-2921
रौ	-2922
ध्यायः	-2923
▁करिष्यामि	-2924
▁नरः	-2925
ग्राम	-2926
▁दुःखं	-2927
दिने	-2928
▁कथितं	-2929
▁तिष्ठति	-2930
ol	-2931
अनु	-2932
घात	-2933
▁हृदि	-2934
▁भिन्न	-2935
▁विषयः	-2936
▁निवर्त	-2937
▁विकिपीडिया	-2938
ग्राह	-2939
▁मेरे	-2940
▁सञ्च	-2941
ितानां	-2942
▁युष्मा	-2943
▁मरु	-2944
ान्या	-2945
▁अन्यत्र	-2946
▁षड	-2947
▁परिच	-2948
▁टिप्प	-2949
▁दर्शयति	-2950
धन	-2951
रां	-2952
ेनैव	-2953
ैर्य	-2954
▁उवाच	-2955
चिद्	-2956
वादि	-2957
▁पश्चात्	-2958
ादु	-2959
र्थो	-2960
▁ताम	-2961
कृतम्	-2962
▁नाट	-2963
धीयते	-2964
ऽहं	-2965
पुरा	-2966
ासां	-2967
सूत्र	-2968
▁विपरी	-2969
▁सम्यक्	-2970
जाः	-2971
▁थु	-2972
▁तन्म	-2973
षो	-2974
▁साव	-2975
▁संस्थ	-2976
▁शुक्र	-2977
दिन	-2978
रोप	-2979
भूतं	-2980
▁अने	-2981
▁नाश	-2982
us	-2983
न्ने	-2984
▁कीर्त	-2985
वत	-2986
िना	-2987
▁शोभ	-2988
स्त्री	-2989
▁मध्यम	-2990
ष्यन्ति	-2991
▁में	-2992
▁वाद	-2993
▁देवः	-2994
ग्रहणं	-2995
ितु	-2996
▁खँ	-2997
ार्त	-2998
स्ततः	-2999
▁प्रेष	-3000
▁हृदयं	-3001
द्ग	-3002
न्यः	-3003
्यति	-3004
▁खेल	-3005
▁धाः	-3006
ग्रहः	-3007
▁सङ्क	-3008
▁पर्या	-3009
ज़	-3010
▁तदपि	-3011
▁नारी	-3012
▁इत्य्	-3013
▁तृतीया	-3014
▁स्वप्न	-3015
el	-3016
यॊ	-3017
▁मूर्ख	-3018
प्रत्ययः	-3019
▁ज्येष्ठ	-3020
रेव	-3021
▁एम	-3022
षेधः	-3023
सस्य	-3024
▁द्वार	-3025
▁आत्मा	-3026
▁उपा	-3027
▁कश्चन	-3028
▁विश्वं	-3029
▁जे	-3030
▁रज	-3031
▁एवम	-3032
▁यात	-3033
▁बो	-3034
ङ्गु	-3035
▁पशु	-3036
क्षणं	-3037
▁मन्यते	-3038
माव	-3039
▁वयम्	-3040
▁विशिष्ट	-3041
एक	-3042
धिकं	-3043
ालं	-3044
न्द्रिय	-3045
▁पार्थिव	-3046
id	-3047
मेक	-3048
▁२८	-3049
ानेन	-3050
दृश्य	-3051
▁4.	-3052
च्वं	-3053
▁कृष	-3054
▁व्रज	-3055
▁प्राह	-3056
पन्न	-3057
मध्य	-3058
पूर्वं	-3059
▁दुर्ग	-3060
▁दुष्ट	-3061
▁w	-3062
▁योजना	-3063
▁प्रयोगः	-3064
▁विश्लेषण	-3065
ह्व	-3066
ाद्ध	-3067
▁काय	-3068
न्तम्	-3069
शब्दे	-3070
▁सायं	-3071
भूत्	-3072
र्थी	-3073
▁मनसा	-3074
▁नोप	-3075
श्यति	-3076
▁प्रजा	-3077
भौ	-3078
न्यो	-3079
ाश्च	-3080
▁रोचते	-3081
▁किञ्चि	-3082
▁सन्ध	-3083
▁प्रवर्तते	-3084
▁चो	-3085
द्वा	-3086
▁X	-3087
णस्य	-3088
▁कान	-3089
▁गमि	-3090
▁दद्या	-3091
▁प्रविश	-3092
तानां	-3093
▁समये	-3094
शब्देन	-3095
▁पाण्ड	-3096
▁पुनरा	-3097
▁सिध्य	-3098
ाता	-3099
च्छा	-3100
▁सुवर्ण	-3101
▁संस्करण	-3102
लयं	-3103
कृत्	-3104
▁साधु	-3105
सम्बन्ध	-3106
▁अभिप्र	-3107
▁दोषः	-3108
▁ध्रुव	-3109
गता	-3110
चतु	-3111
मिह	-3112
▁16	-3113
त्री	-3114
िकां	-3115
▁विम	-3116
सन	-3117
ॄणां	-3118
▁प्रकरण	-3119
संभव	-3120
▁to	-3121
च्या	-3122
मेति	-3123
▁दरि	-3124
खं	-3125
▁v	-3126
वर्ग	-3127
▁मन्त्रि	-3128
▁च्	-3129
ख्यं	-3130
▁धु	-3131
च्छ्र	-3132
▁ध्या	-3133
▁बहिः	-3134
सम्पाद	-3135
▁किञ्चित्	-3136
▁प्रत्येक	-3137
▁वक्तव्यम्	-3138
कता	-3139
कथं	-3140
ज्र	-3141
याति	-3142
ृत्त	-3143
▁200	-3144
द्यते	-3145
▁पदार्थ	-3146
▁धन्यवाद	-3147
खु	-3148
सति	-3149
भिर्	-3150
▁प्रथमः	-3151
▁शक्तिः	-3152
हति	-3153
▁भौ	-3154
द्भव	-3155
क्षित	-3156
▁वदति	-3157
कार्यं	-3158
▁धर्मः	-3159
जान	-3160
लित	-3161
सन्	-3162
बन्धः	-3163
▁कल्या	-3164
▁स्मृत	-3165
▁यथार्थ	-3166
▁यॊ	-3167
र्जु	-3168
ल्या	-3169
▁उभय	-3170
▁स्वं	-3171
▁कुरुते	-3172
द्भु	-3173
▁नहि	-3174
▁मृग	-3175
▁विच	-3176
षध	-3177
शील	-3178
▁शर	-3179
▁बोध	-3180
▁वेत	-3181
▁विधे	-3182
▁वस्तुतः	-3183
▁दात	-3184
▁एकादश	-3185
▁वाक्यं	-3186
ें	-3187
स्थे	-3188
निश्च	-3189
▁माम्	-3190
▁निरूप	-3191
लब्	-3192
▁हं	-3193
▁अस्तु	-3194
▁अध्याय	-3195
▁स्पर्श	-3196
हम	-3197
तमः	-3198
स्तीति	-3199
▁स्वतः	-3200
▁निर्वा	-3201
▁व्यायाम	-3202
गि	-3203
▁वं	-3204
▁हु	-3205
ित्वं	-3206
▁विष्णु	-3207
जल	-3208
०२	-3209
राध	-3210
▁Ans	-3211
▁खाद	-3212
▁वरिष्ठ	-3213
▁द्वितीया	-3214
▁सभ	-3215
तानि	-3216
ात्मक	-3217
▁मात्र	-3218
ासं	-3219
▁सय	-3220
▁नाहं	-3221
▁विश्र	-3222
▁निर्देश	-3223
गमन	-3224
▁दिश	-3225
▁आगच्छ	-3226
तोः	-3227
▁तन	-3228
▁ताः	-3229
▁तात	-3230
▁ययौ	-3231
सम्भव	-3232
▁सुन्द	-3233
▁त्वमेव	-3234
नाद	-3235
क्ते	-3236
▁सार्व	-3237
मात्रेण	-3238
ec	-3239
शू	-3240
पीड	-3241
▁जप	-3242
जग	-3243
गू	-3244
लाय	-3245
ृद्ध	-3246
वस्तु	-3247
▁प्रयु	-3248
▁शाश्व	-3249
▁ज्ञायते	-3250
▁ज्ञात्वा	-3251
रीं	-3252
भाति	-3253
ल्ली	-3254
▁कुत	-3255
▁तयोः	-3256
▁सेवा	-3257
▁K	-3258
नीति	-3259
▁महान्	-3260
दत्	-3261
परं	-3262
▁अर्ध	-3263
▁अन्तः	-3264
▁वर्गः	-3265
▁पवित्र	-3266
त्तु	-3267
▁अधोलिख	-3268
▁प्रतीयते	-3269
),	-3270
टं	-3271
▁नवी	-3272
▁इष्ट	-3273
▁विक्र	-3274
▁अनुकूल	-3275
▁संवत्स	-3276
तृ	-3277
लय्	-3278
▁उन्न	-3279
▁बहवः	-3280
▁प्रश्नः	-3281
▁J	-3282
▁मनसि	-3283
▁सततं	-3284
▁द्रव्य	-3285
क्क	-3286
वाक	-3287
स्वी	-3288
▁तैः	-3289
▁अभव	-3290
▁पराज	-3291
▁मोक्ष	-3292
चं	-3293
द्भ	-3294
त्ये	-3295
र्थिक	-3296
▁नान्य	-3297
सव	-3298
▁वक्ष	-3299
▁राजन्	-3300
थो	-3301
रणः	-3302
मादि	-3303
em	-3304
द्म	-3305
ृता	-3306
विष्ट	-3307
▁एतादृश	-3308
रतः	-3309
ेशः	-3310
मानु	-3311
र्मि	-3312
▁वान	-3313
भावेन	-3314
▁यच्च	-3315
▁भगवन्	-3316
▁कार्यम्	-3317
विधं	-3318
▁आरम्	-3319
▁व्यापार	-3320
नै	-3321
चक्र	-3322
वादी	-3323
▁इतर	-3324
बर	-3325
▁आत्	-3326
▁छन्द	-3327
▁त्री	-3328
▁विनाश	-3329
०००	-3330
न्तरे	-3331
▁ऊर्ज	-3332
▁मुद्र	-3333
▁कर्तव्यम्	-3334
ूष	-3335
वारं	-3336
हारः	-3337
▁प्रमुख	-3338
▁म्	-3339
▁स्ना	-3340
पय	-3341
शतं	-3342
▁नगर	-3343
▁क्षी	-3344
▁रुद्र	-3345
▁स्वाहा	-3346
ण्ट	-3347
रेक	-3348
▁इतः	-3349
▁मर्त	-3350
▁सिंह	-3351
भ्याम्	-3352
▁सामाजिक	-3353
ायाः	-3354
▁भगवान	-3355
गतम्	-3356
▁वीर	-3357
▁साग	-3358
रिक्ष	-3359
▁कृषि	-3360
▁ङीप्	-3361
▁सर्वतः	-3362
▁स्वर्ण	-3363
▁विरुद्ध	-3364
▁२९	-3365
नादि	-3366
भूता	-3367
▁एको	-3368
लोक्य	-3369
▁स्नान	-3370
▁विशेषः	-3371
फ्	-3372
्यव	-3373
त्याः	-3374
कुल	-3375
▁अक	-3376
▁लोप	-3377
▁हृदये	-3378
र्ट	-3379
शयः	-3380
मानो	-3381
▁एकदा	-3382
्यन्ते	-3383
महं	-3384
कालः	-3385
▁प्रत्यु	-3386
.3	-3387
▁स्मर	-3388
▁एतस्य	-3389
▁निह	-3390
▁त्यज	-3391
▁पुरो	-3392
ैल	-3393
▁of	-3394
▁परः	-3395
▁तत्रैव	-3396
▁प्रीति	-3397
xt	-3398
ूं	-3399
पतिः	-3400
▁तदु	-3401
▁उक्तं	-3402
▁वार्ष	-3403
नुवन्ति	-3404
▁प्रयोजनम्	-3405
चनं	-3406
ीये	-3407
▁लिखत	-3408
▁अन्वयः	-3409
▁अस्याः	-3410
▁स्वप्ने	-3411
सर्ज	-3412
▁धाव	-3413
्येति	-3414
▁मुक्ति	-3415
▁स्वयमेव	-3416
धो	-3417
तीं	-3418
ाति	-3419
▁छु	-3420
▁इमे	-3421
▁ऽपि	-3422
ेश्वर	-3423
▁तन्त्र	-3424
विव	-3425
▁तेज	-3426
ेभ्यः	-3427
मभि	-3428
▁स्क	-3429
▁तद्ध	-3430
▁धकाः	-3431
ौं	-3432
ामु	-3433
ूर्ण	-3434
▁सात	-3435
प्रधान	-3436
▁दरिद्र	-3437
▁न०	-3438
▁नाव	-3439
न्द्रिया	-3440
ig	-3441
३०	-3442
▁कदापि	-3443
▁क्रमेण	-3444
▁सर्वभूत	-3445
चरेत्	-3446
▁ऑ	-3447
▁अद	-3448
▁५०	-3449
▁कोऽ	-3450
▁सकल	-3451
▁समं	-3452
माश्र	-3453
▁उत्तरः	-3454
ादयः	-3455
▁आदि	-3456
सै	-3457
स्तो	-3458
स्थः	-3459
ादिव	-3460
▁लाग	-3461
भारः	-3462
▁विद्यु	-3463
▁करिष्यति	-3464
▁प्रधानमन्त्री	-3465
दति	-3466
रण्य	-3467
▁नाप	-3468
▁गतिः	-3469
▁त्वयि	-3470
▁मत्स्य	-3471
▁यस्मिन्	-3472
▁शक्नोति	-3473
नीयं	-3474
द्योग	-3475
हुः	-3476
पक्षे	-3477
▁शक्र	-3478
▁शरणं	-3479
क्व	-3480
तमे	-3481
▁25	-3482
▁बलं	-3483
▁अन्ति	-3484
▁अग्र	-3485
▁विदु	-3486
▁विधिः	-3487
द्यु	-3488
स्तद	-3489
▁२०७	-3490
योजना	-3491
▁प्रस्तु	-3492
धौ	-3493
▁विरो	-3494
▁मन्द	-3495
▁आनन्द	-3496
▁नृत्य	-3497
▁वर्षा	-3498
▁मिथ्या	-3499
▁वस्त्र	-3500
थ्	-3501
योर्	-3502
▁MSS	-3503
▁परो	-3504
▁यस्तु	-3505
▁सन्नि	-3506
▁प्रतियोग	-3507
धाव	-3508
....	-3509
प्यते	-3510
▁पीसी	-3511
▁यानाः	-3512
▁तस्माद	-3513
▁युद्धे	-3514
▁प्रतिवेदन	-3515
लां	-3516
्यै	-3517
पर्व	-3518
पत्ति	-3519
▁पित्र	-3520
वृत्तिः	-3521
xx	-3522
निय	-3523
याव	-3524
▁भे	-3525
▁तिथ	-3526
▁योऽ	-3527
निर्म	-3528
स्यैव	-3529
मित्या	-3530
▁प्रतिदिनं	-3531
ws	-3532
▁दास	-3533
ित्यं	-3534
▁प्रत्ययः	-3535
राम	-3536
▁जय	-3537
▁रामः	-3538
▁कदाचन	-3539
▁प्रभो	-3540
▁प्रेम	-3541
▁रक्षा	-3542
▁समुदाय	-3543
ून्	-3544
▁नीति	-3545
ादिषु	-3546
▁क्षम	-3547
▁अकरोत्	-3548
▁श्रुति	-3549
ate	-3550
शङ्क	-3551
ान्ध	-3552
कीर्त	-3553
चितम्	-3554
र्हसि	-3555
▁वृष्ट	-3556
▁महत्वपूर्ण	-3557
तत्	-3558
▁पंच	-3559
▁भविष	-3560
ालः	-3561
▁हय	-3562
▁वचः	-3563
▁अग्रे	-3564
▁30	-3565
▁मोह	-3566
विचार	-3567
▁द्वा	-3568
▁भद्र	-3569
▁पिताम	-3570
▁शक्नु	-3571
▁कर्म्म	-3572
ढ़	-3573
▁W	-3574
तय्	-3575
ध्वं	-3576
ारूप	-3577
▁मार	-3578
▁विश्वे	-3579
ित्यर्थः	-3580
कां	-3581
क्षी	-3582
त्पत्त	-3583
▁हिन्द	-3584
▁उक्तम्	-3585
ap	-3586
त्यु	-3587
देशं	-3588
▁संस	-3589
क्रमण	-3590
▁अद्या	-3591
▁अनन्त	-3592
▁भूत्वा	-3593
५०	-3594
त्सर्व	-3595
▁कुर्य	-3596
▁श्वेत	-3597
un	-3598
सिं	-3599
श्वा	-3600
▁निग	-3601
ation	-3602
च्वंगु	-3603
▁जीवनं	-3604
▁समीक्षा	-3605
▁नाग	-3606
क्रीड	-3607
▁निर्ध	-3608
▁बाह्य	-3609
वद्	-3610
ाल्	-3611
ेनि	-3612
जन्म	-3613
करोति	-3614
ङ्कार	-3615
▁साध्य	-3616
त्यर्थः	-3617
▁इत्यपि	-3618
क्ता	-3619
त्त्र	-3620
▁सेना	-3621
त्यादि	-3622
▁SF	-3623
ङ्गल	-3624
▁केचित्	-3625
क्षेत्रे	-3626
ग्रन्थ	-3627
▁21	-3628
▁ही	-3629
द्वार	-3630
▁जाति	-3631
▁समीपे	-3632
▁प्रकल्प	-3633
लिं	-3634
▁था	-3635
▁पर्वत	-3636
ब्रवीत्	-3637
▁केवलम्	-3638
▁वक्तुं	-3639
▁राष्ट्रिय	-3640
:-	-3641
ितेन	-3642
▁पर्याव	-3643
▁व्यवस्था	-3644
ांत	-3645
न्नो	-3646
▁पक्षे	-3647
ब्राह्म	-3648
▁स्वस्य	-3649
ग्व	-3650
द्यो	-3651
र्दश	-3652
ैरपि	-3653
▁त्रयो	-3654
▁नात्र	-3655
▁दिनाङ्के	-3656
▁भ्रात	-3657
▁मूल्य	-3658
▁संयोग	-3659
▁यन्त्र	-3660
णाः	-3661
▁डि	-3662
शाला	-3663
▁यद्वा	-3664
प्रसङ्ग	-3665
▁प्राधिकरण	-3666
प्रे	-3667
▁कारणम्	-3668
▁वर्षाणि	-3669
र्ब	-3670
▁४०	-3671
ानुप	-3672
▁कथय	-3673
▁बुध	-3674
दिश्य	-3675
द्वित	-3676
स्तेन	-3677
▁गिरि	-3678
▁निम्	-3679
▁खु	-3680
ार्य	-3681
▁स्वे	-3682
ेश्वरः	-3683
▁मन्ये	-3684
▁एतेषां	-3685
▁कठ	-3686
पुस्त	-3687
येति	-3688
▁आधार	-3689
मानस्य	-3690
▁शब्दा	-3691
-'	-3692
18	-3693
सभा	-3694
ासते	-3695
ानन्द	-3696
▁शङ्क	-3697
▁भाग्य	-3698
▁मन्दि	-3699
▁सार्ध	-3700
▁पूर्वोक्त	-3701
र्ड	-3702
▁षट्	-3703
▁सज्ज	-3704
ब्रह्म	-3705
▁काव्य	-3706
▁अ॒	-3707
▁चरण	-3708
▁जले	-3709
▁घोषणा	-3710
कथा	-3711
न्ता	-3712
▁स्नानं	-3713
ro	-3714
पथ	-3715
ाणी	-3716
▁पच	-3717
कर्ण	-3718
लयस्य	-3719
▁यस्या	-3720
▁गृहीत्वा	-3721
शुद्ध	-3722
▁ऊर्ध	-3723
न्द्रि	-3724
▁साहित्य	-3725
▁तेऽ	-3726
प्रती	-3727
▁मासे	-3728
ैष	-3729
राव	-3730
▁(2	-3731
ज्ञाप	-3732
▁देवं	-3733
▁शुभा	-3734
▁अनुभव	-3735
▁शय	-3736
▁मेघ	-3737
▁निरी	-3738
ान्तरं	-3739
▁सरकार	-3740
▁स्नेह	-3741
-"	-3742
घ्न	-3743
▁नौ	-3744
▁परस्परं	-3745
.4	-3746
अथ	-3747
नीया	-3748
▁दीप	-3749
▁षोड	-3750
▁हरिः	-3751
▁तेषाम	-3752
▁अपेक्ष	-3753
▁देशस्य	-3754
▁किमर्थं	-3755
▁स्वास्थ	-3756
▁द्वितीयं	-3757
लब्ध	-3758
▁चाल	-3759
▁विश्वविद्या	-3760
10	-3761
ङ्घ	-3762
▁३२	-3763
रूपे	-3764
▁असं	-3765
▁खण्ड	-3766
▁सकलं	-3767
▁समयः	-3768
प्रमाण	-3769
चाल	-3770
लिक	-3771
ैवं	-3772
श्मी	-3773
▁निर्ग	-3774
▁श्रूयते	-3775
-3	-3776
▁गी	-3777
ोपरि	-3778
युक्तं	-3779
▁रक्षण	-3780
▁मनुष्या	-3781
्वी	-3782
रुणा	-3783
▁असि	-3784
▁याच	-3785
समन्व	-3786
▁मह्यं	-3787
▁शीर्ष	-3788
प्रत्यय	-3789
▁संसाधन	-3790
▁सम्प्रति	-3791
▁(=	-3792
▁ऋष	-3793
ष्टु	-3794
▁करे	-3795
▁भूप	-3796
▁वायुः	-3797
▁ु	-3798
ानो	-3799
परम्	-3800
मानि	-3801
मानम्	-3802
▁नहीं	-3803
नार्थं	-3804
▁प्रथमे	-3805
▁सर्वाः	-3806
पर्यन्तं	-3807
▁स्त्रीणां	-3808
पौ	-3809
तमं	-3810
▁तार	-3811
▁वृष	-3812
त्यां	-3813
लक्षणं	-3814
▁न्यून	-3815
ल्क	-3816
▁जनः	-3817
▁तदि	-3818
▁वाह	-3819
ग्रहण	-3820
▁एताव	-3821
▁क्ली	-3822
▁शरीरं	-3823
▁समन्व	-3824
ear	-3825
▁आच	-3826
ष्यसि	-3827
▁लभ्यते	-3828
▁वदन्ति	-3829
रूपा	-3830
▁तदनु	-3831
▁देशः	-3832
▁प्रमाणं	-3833
रत्	-3834
रीय	-3835
गृहे	-3836
▁माल	-3837
▁समीप	-3838
युक्तः	-3839
स्थिति	-3840
▁एवमेव	-3841
▁बालकः	-3842
▁श्लोक	-3843
अव	-3844
गल	-3845
iii	-3846
▁साल	-3847
▁विरोध	-3848
भाषण	-3849
भूति	-3850
स्मिं	-3851
▁अनुवाद	-3852
▁प्रतिनि	-3853
▁निश	-3854
▁वचन	-3855
गृह्य	-3856
ितस्य	-3857
दन	-3858
गते	-3859
▁ईश	-3860
व्ये	-3861
▁प्रकार	-3862
▁g	-3863
माणे	-3864
▁भुव	-3865
▁आङ्ग्ल	-3866
▁स्मृतः	-3867
ह्न	-3868
▁खल	-3869
येद्	-3870
▁चेद	-3871
▁मरण	-3872
▁समू	-3873
ितुम्	-3874
▁दूरे	-3875
▁परमाण	-3876
▁लाखों	-3877
▁प्रसार	-3878
ur	-3879
तप	-3880
प्रदेश	-3881
अप	-3882
ोट	-3883
▁पथ	-3884
ज्ञे	-3885
क्षत्र	-3886
▁प्रयोजन	-3887
▁क्षेत्रे	-3888
and	-3889
यतः	-3890
▁24	-3891
▁In	-3892
▁in	-3893
▁दर	-3894
▁शौ	-3895
क्तः	-3896
्यता	-3897
व्यति	-3898
ul	-3899
▁शङ्	-3900
नात्म	-3901
विकल्प	-3902
▁गम्यते	-3903
चिः	-3904
त्था	-3905
माप्	-3906
▁राग	-3907
ाग्नि	-3908
▁मुद्रा	-3909
▁३३	-3910
नाया	-3911
ैश्व	-3912
यिष्यति	-3913
▁उत्पादन	-3914
▁h	-3915
wer	-3916
दिक	-3917
क्षर	-3918
▁साम्	-3919
▁सन्तु	-3920
ir	-3921
ut	-3922
हेत	-3923
▁2019	-3924
▁कालं	-3925
▁समुप	-3926
▁शक्यं	-3927
दिश्यते	-3928
▁भवतीति	-3929
▁मात्रा	-3930
मत्	-3931
▁ऋण	-3932
काङ्	-3933
र्मु	-3934
मासस्य	-3935
ुक्तम्	-3936
▁क्रीडा	-3937
▁नाम्ना	-3938
▁पश्चिम	-3939
▁स्वामि	-3940
▁इत्येवं	-3941
▁सर्वान्	-3942
▁स्वातन्त्र	-3943
▁कन	-3944
▁दद	-3945
भावो	-3946
▁अन्न	-3947
▁भोजनं	-3948
क्रान्त	-3949
▁तस्यां	-3950
▁प्राक्	-3951
▁ब्रह्मा	-3952
▁संस्थान	-3953
भयं	-3954
ेऽपि	-3955
क्रमे	-3956
मेतत्	-3957
▁करोतु	-3958
▁बलि	-3959
द्वयं	-3960
चल	-3961
विर	-3962
▁युष्म	-3963
▁Q	-3964
मिक	-3965
शरी	-3966
गुरु	-3967
▁सदृश	-3968
▁ज्ञाप	-3969
▁व्यति	-3970
▁परीक्ष	-3971
▁प्रसाद	-3972
▁मित्रं	-3973
▁इत्येतद्	-3974
अपि	-3975
बाध	-3976
ादिक	-3977
▁बभूव	-3978
▁युद्धं	-3979
▁वर्धते	-3980
▁वृत्ति	-3981
पुन	-3982
न्मा	-3983
▁शरण	-3984
▁३१	-3985
त्य्	-3986
मुत्त	-3987
▁कृष्	-3988
▁पापं	-3989
▁महिला	-3990
▁पश्यामि	-3991
▁प्रतिषेध	-3992
पृथ	-3993
मयं	-3994
देवं	-3995
स्ये	-3996
दीनां	-3997
▁2020	-3998
▁नागर	-3999
दिष्टम्	-4000
▁प्रशास	-4001
▁प्राधान	-4002
▁रत्	-4003
▁देवो	-4004
▁अग्निः	-4005
▁परित्य	-4006
▁सम्भाव	-4007
राज्यस्य	-4008
क्ल	-4009
प्तः	-4010
सत्त्व	-4011
खः	-4012
धू	-4013
बे	-4014
सक	-4015
॑ः	-4016
ताया	-4017
▁इत्यत	-4018
▁राजनि	-4019
▁देवस्य	-4020
मुद	-4021
वति	-4022
ानम्	-4023
ामहे	-4024
▁विल	-4025
▁याःगु	-4026
२२	-4027
▁गर्	-4028
▁दया	-4029
▁यद्व	-4030
टर	-4031
निर	-4032
नाति	-4033
▁मिल	-4034
▁महान	-4035
▁पक्षि	-4036
▁व्याप	-4037
साः	-4038
▁योजन	-4039
▁पत्नी	-4040
▁हेतुः	-4041
▁भार्या	-4042
▁सर्वस्य	-4043
ताप	-4044
बहु	-4045
माप	-4046
्यौ	-4047
▁ची	-4048
्तते	-4049
▁कां	-4050
▁शोध	-4051
▁संघ	-4052
▁ततश्च	-4053
▁रहस्य	-4054
▁Y	-4055
ans	-4056
द्भिः	-4057
यन्ते	-4058
▁गुणा	-4059
▁संस्कृति	-4060
महो	-4061
कत्व	-4062
▁इमं	-4063
▁शून्य	-4064
▁राष्ट्रीय	-4065
ाऽ	-4066
ive	-4067
मेकं	-4068
▁१९९	-4069
▁युगे	-4070
यितुम्	-4071
▁नेत्र	-4072
निर्देश	-4073
हत	-4074
हृद	-4075
ामिति	-4076
▁मुने	-4077
▁व्यु	-4078
▁हन्त	-4079
▁आवेदन	-4080
▁ईश्वरः	-4081
▁अधिकारी	-4082
रथ	-4083
रपि	-4084
▁आय	-4085
भेदः	-4086
▁दुः	-4087
▁वसु	-4088
▁शिश	-4089
▁समि	-4090
▁श्रेण	-4091
▁सर्वो	-4092
▁सर्वैः	-4093
गाः	-4094
नाथ	-4095
नन्त	-4096
कर्मा	-4097
द्रूप	-4098
ाणाम्	-4099
▁समन्त	-4100
▁इच्छति	-4101
▁स्मृति	-4102
▁कार्यक्रम	-4103
▁इत्युच्यते	-4104
२१	-4105
रिव	-4106
ङ्गं	-4107
▁हर्ष	-4108
▁महारा	-4109
▁तत्प्र	-4110
रात	-4111
र्म्	-4112
▁नान	-4113
▁छात्राः	-4114
महि	-4115
लया	-4116
ण्या	-4117
ध्यं	-4118
▁भूमौ	-4119
ोऽस्ति	-4120
तार	-4121
ष्ठा	-4122
हारे	-4123
▁मूढ	-4124
रात्म	-4125
विरोध	-4126
▁तीर्थ	-4127
▁निवार	-4128
▁कर्माणि	-4129
▁राष्ट्रपति	-4130
ृते	-4131
मर्श	-4132
▁वां	-4133
▁गुणाः	-4134
▁कर्मणा	-4135
िनां	-4136
▁धया	-4137
▁उद्ध	-4138
▁धीरे	-4139
▁संबं	-4140
स्पर्श	-4141
▁त्रीणि	-4142
▁लक्षणं	-4143
▁सर्वथा	-4144
▁ओं	-4145
▁बे	-4146
शिया	-4147
▁माय	-4148
▁अमरः	-4149
▁हानि	-4150
व्यक्ति	-4151
▁ली	-4152
क्रि	-4153
भावि	-4154
▁अतएव	-4155
▁गुणः	-4156
▁जानी	-4157
▁वय्कः	-4158
▁चतुर्थ	-4159
▁स्थिता	-4160
▁सूक्ष्म	-4161
दम	-4162
दैव	-4163
कारी	-4164
गम्य	-4165
▁म्ह	-4166
युद्ध	-4167
▁केचन	-4168
▁दक्षिणे	-4169
▁इत्यस्मात्	-4170
ङि	-4171
४०	-4172
ोत्स	-4173
वचनम्	-4174
प्रवेश	-4175
▁शिष्य	-4176
भग	-4177
ost	-4178
मान्त	-4179
▁पातु	-4180
▁यश्च	-4181
▁परमात्म	-4182
15	-4183
▁३६	-4184
गन्ध	-4185
त्सु	-4186
ाप्त	-4187
▁क्त	-4188
▁गता	-4189
▁कामं	-4190
▁अवदत्	-4191
▁प्रजाः	-4192
▁लक्ष्य	-4193
न्दा	-4194
▁आसी	-4195
चिदपि	-4196
▁वज्र	-4197
▁दृष्टं	-4198
▁शान्ति	-4199
▁अध्यायः	-4200
▁निर्माण	-4201
ff	-4202
स्रो	-4203
▁एषां	-4204
▁प्रस्ताव	-4205
▁Ar	-4206
▁खो	-4207
▁हन	-4208
त्याह	-4209
संख्य	-4210
▁तुल्य	-4211
ज्ञां	-4212
▁त्वाम	-4213
▁स्थितम्	-4214
im	-4215
शुभ	-4216
▁डा	-4217
पदम्	-4218
▁the	-4219
▁तेना	-4220
▁भुवि	-4221
▁प्रात	-4222
▁वह्नि	-4223
▁राज्ञः	-4224
▁सर्वभू	-4225
तरा	-4226
भाज	-4227
स्यं	-4228
▁च्व	-4229
हूर्त	-4230
▁जीवन	-4231
▁पाकि	-4232
कार्या	-4233
▁सङ्ख्या	-4234
▁प्राप्यते	-4235
थु	-4236
कम्ः	-4237
प्या	-4238
भावं	-4239
▁गुह	-4240
▁मही	-4241
जायते	-4242
विस्त	-4243
ेक्षा	-4244
▁प्रशं	-4245
▁यस्मा	-4246
▁द्रष्टुं	-4247
वश	-4248
ज्व	-4249
ादे	-4250
▁23	-4251
मेवं	-4252
ीव्र	-4253
भेदेन	-4254
▁पुरुषं	-4255
▁दक्षिणा	-4256
फ़	-4257
दित	-4258
ापु	-4259
▁पट	-4260
▁आधु	-4261
▁ततोऽ	-4262
शब्दस्य	-4263
▁Answer	-4264
▁II	-4265
ादिकं	-4266
▁अधिकं	-4267
▁अवश्यं	-4268
ac	-4269
आई	-4270
आर	-4271
ter	-4272
ादपि	-4273
▁शतं	-4274
▁सृज	-4275
्येते	-4276
▁एतानि	-4277
▁गुरुः	-4278
▁जीवति	-4279
▁आर्थिक	-4280
▁परस्परम्	-4281
डे	-4282
▁घो	-4283
▁दूष	-4284
विधिः	-4285
षिद्ध	-4286
▁वेति	-4287
▁प्राचीन	-4288
ov	-4289
॒व	-4290
म्र	-4291
ावा	-4292
▁यी	-4293
लानि	-4294
▁कपि	-4295
वित्त	-4296
▁दिवा	-4297
▁श्राद्ध	-4298
▁सिध्यति	-4299
▁काव	-4300
▁नमो	-4301
▁अस्या	-4302
धिकारिक	-4303
श्चित्त	-4304
▁प्रविश्य	-4305
िनि	-4306
▁तक	-4307
▁रच	-4308
▁लॊ	-4309
▁३५	-4310
योगे	-4311
श्वर	-4312
करणम्	-4313
सर्वं	-4314
▁तस्माद्	-4315
000	-4316
गेन	-4317
पते	-4318
▁छि	-4319
▁चार	-4320
ान्नि	-4321
▁2018	-4322
▁लज्ज	-4323
▁विभाषा	-4324
▁विशेषण	-4325
लाई	-4326
वन्त	-4327
▁वर्ज	-4328
व्यक्त	-4329
▁पुत्रं	-4330
▁अस्माभिः	-4331
▁पर्यावरण	-4332
ेष्ट	-4333
▁सहाय	-4334
▁कालेन	-4335
विशिष्ट	-4336
▁प्रकारेण	-4337
tr	-4338
▁्	-4339
ैति	-4340
▁जक	-4341
▁३७	-4342
ज्ञो	-4343
दर्शन	-4344
ादेशः	-4345
▁परिभाष	-4346
-4	-4347
od	-4348
▁=>	-4349
ज्यो	-4350
▁भवः	-4351
▁संग	-4352
प्रश्	-4353
प्राण	-4354
▁Next	-4355
▁अतीत	-4356
▁व्याघ्र	-4357
ासः	-4358
▁चौ	-4359
▁बै	-4360
▁लघ	-4361
यमपि	-4362
ास्व	-4363
▁कक्ष	-4364
▁दानं	-4365
▁प्रद	-4366
▁निषेध	-4367
▁प्रचल	-4368
▁रूपेण	-4369
▁उत्तरा	-4370
शिव	-4371
च्यु	-4372
णोति	-4373
प्ता	-4374
▁चर्च	-4375
▁बहूनि	-4376
▁विहाय	-4377
▁षष्ठी	-4378
▁त्यक्त्वा	-4379
ak	-4380
ूत	-4381
ेयः	-4382
र्यः	-4383
▁नरक	-4384
विंशति	-4385
▁अन्तर	-4386
▁विभक्त	-4387
▁इत्युक्ते	-4388
०३	-4389
ष्प	-4390
▁णि	-4391
पचार	-4392
▁असम	-4393
▁वरं	-4394
दीर्घ	-4395
▁भागः	-4396
विशेषः	-4397
▁कथयति	-4398
▁पृच्छ	-4399
▁विचित्र	-4400
.)	-4401
ik	-4402
▁ढ	-4403
बाल	-4404
तश्च	-4405
विरो	-4406
▁भवन	-4407
ोत्तर	-4408
लभ्यते	-4409
▁वाञ्छ	-4410
ER	-4411
कीय	-4412
▁03	-4413
ावपि	-4414
▁इती	-4415
▁चित्	-4416
▁नगरे	-4417
▁भवती	-4418
▁प्राति	-4419
▁कर्तव्यः	-4420
गृहं	-4421
ब्दं	-4422
विद्य	-4423
ादिना	-4424
▁हिंसा	-4425
▁संविधान	-4426
▁कार्याणि	-4427
एं	-4428
चो	-4429
त्यः	-4430
ोन्न	-4431
▁मति	-4432
▁यां	-4433
▁अनुप	-4434
▁सहसा	-4435
▁इत्थं	-4436
▁राज्ये	-4437
पन	-4438
ैन	-4439
ोपा	-4440
र्धा	-4441
▁साथ	-4442
श्वरः	-4443
▁तात्	-4444
▁साहाय	-4445
▁वक्ष्य	-4446
ेशे	-4447
स्थो	-4448
च्छत्	-4449
धर्मा	-4450
▁यात्र	-4451
▁महत्त्व	-4452
▁सम्बन्धि	-4453
्यम	-4454
▁४५	-4455
वर्ध	-4456
▁प्रभु	-4457
▁रिक्त	-4458
▁संशोध	-4459
कान्	-4460
▁मदु	-4461
▁अपरि	-4462
▁स्थिर	-4463
▁विभिन्न	-4464
लाभ	-4465
▁27	-4466
दण्ड	-4467
ितैः	-4468
▁मिश्र	-4469
▁दृष्टि	-4470
▁नामानि	-4471
▁प्राप्तवान्	-4472
२४	-4473
▁(3	-4474
▁तवा	-4475
मित्र	-4476
▁भागे	-4477
▁परिवार	-4478
मोह	-4479
यमा	-4480
ेवा	-4481
रूपः	-4482
र्मः	-4483
▁स्वः	-4484
▁विवाद	-4485
▁संभवति	-4486
▁अधोलिखितानि	-4487
चु	-4488
ूर	-4489
नगर	-4490
्रो	-4491
▁भर	-4492
नीयः	-4493
▁चकार	-4494
▁नाना	-4495
▁भोजन	-4496
पुरुषः	-4497
▁पितुः	-4498
▁माध्य	-4499
▁स्युः	-4500
▁स्थिते	-4501
▁k	-4502
याद	-4503
▁गिर	-4504
▁फलम्	-4505
▁मरणं	-4506
▁निर्णय	-4507
व्यवस्था	-4508
सहस्राणि	-4509
2.	-4510
50	-4511
▁अथे	-4512
▁क्षणं	-4513
▁श्रुत	-4514
▁शब्दस्य	-4515
▁टे	-4516
दूषण	-4517
▁निष	-4518
भक्ति	-4519
्यामः	-4520
▁साधन	-4521
▁धर्मो	-4522
▁भवतां	-4523
▁क्रमशः	-4524
च्व	-4525
स्न	-4526
▁अवस	-4527
क्रिय	-4528
व्याः	-4529
▁उपाय	-4530
▁दिशि	-4531
▁परिह	-4532
▁मेदि	-4533
पत्तिः	-4534
बुद्धि	-4535
▁कारयेत्	-4536
गर	-4537
लाप	-4538
▁फि	-4539
▁अण्	-4540
▁उल्	-4541
▁भुक्त	-4542
▁स्थितिः	-4543
▁प्रयोक्त	-4544
▁प्रोक्ता	-4545
ङ्गा	-4546
ज्यं	-4547
▁याद	-4548
स्तान	-4549
▁त्रै	-4550
एम	-4551
णाय	-4552
मता	-4553
सत्त	-4554
▁नेत	-4555
वेदना	-4556
▁सचिव	-4557
▁दृश्यम्	-4558
▁व्यवस्थाप	-4559
▁त्	-4560
चितं	-4561
▁तमेव	-4562
▁उक्तः	-4563
▁पूजां	-4564
विरुद्ध	-4565
▁पुनर्निर्	-4566
▁सामान्यतः	-4567
घव	-4568
बलः	-4569
▁घन	-4570
च्छया	-4571
णियां	-4572
▁व्यो	-4573
कलं	-4574
पान	-4575
पास	-4576
▁पीठ	-4577
▁दिनानि	-4578
▁साभारः	-4579
ाणं	-4580
भागः	-4581
व्यो	-4582
श्रय	-4583
▁नरा	-4584
▁यशः	-4585
▁रणे	-4586
▁शिख	-4587
तत्त्व	-4588
▁अवश्य	-4589
▁प्रवृत्ति	-4590
11	-4591
परे	-4592
ृत्व	-4593
▁आदेश	-4594
▁व्रत	-4595
क्रम्य	-4596
साव	-4597
सुर	-4598
▁नय	-4599
▁पै	-4600
नगरे	-4601
▁क्ल	-4602
▁गाव	-4603
ध्याय	-4604
र्भवति	-4605
संबन्ध	-4606
▁धार्म	-4607
▁तद्यथा	-4608
▁दत्त्वा	-4609
▁क्षेत्रं	-4610
भोज	-4611
▁26	-4612
गृह्	-4613
तेति	-4614
दन्त	-4615
भूतः	-4616
▁याम	-4617
नीयम्	-4618
ान्ये	-4619
्याम्	-4620
▁तर्क	-4621
चन्द्र	-4622
▁अनन्तरं	-4623
चने	-4624
रोऽ	-4625
▁गे	-4626
पीसी	-4627
पुनः	-4628
▁असौ	-4629
मानाः	-4630
▁पठति	-4631
स्थिते	-4632
▁धर्मं	-4633
▁प्रेर	-4634
▁सिद्धि	-4635
ess	-4636
ैकं	-4637
ङ्गः	-4638
ांसि	-4639
ीर्ण	-4640
▁कोप	-4641
▁वात	-4642
▁संब	-4643
यन्त्र	-4644
▁इत्ये	-4645
▁कुमार	-4646
▁पुरुषो	-4647
▁सूत्रे	-4648
▁परिसन्ध	-4649
▁सुरक्षा	-4650
▁लक्ष्यते	-4651
av	-4652
परः	-4653
संयु	-4654
▁ततॊ	-4655
र्थाः	-4656
▁जिला	-4657
▁मानवः	-4658
केन्द्र	-4659
▁अमेरिक	-4660
▁दृश्यन्ते	-4661
दाः	-4662
साग	-4663
यज्ञ	-4664
लोकं	-4665
साम्	-4666
▁विदुः	-4667
परिवर्त	-4668
▁जनार्द	-4669
▁संबंधनं	-4670
▁प्रवक्ष्यामि	-4671
डः	-4672
निष	-4673
श्रम	-4674
▁वस्त	-4675
▁संयु	-4676
भविष्य	-4677
▁क्लेश	-4678
▁स्फुट	-4679
▁प्राप्तं	-4680
▁टिप्पणियां	-4681
▁5.	-4682
क्षुः	-4683
▁नापि	-4684
▁निवस	-4685
सिद्धि	-4686
▁आधुनिक	-4687
▁स्तम्भ	-4688
▁इच्छामि	-4689
▁समर्पयामि	-4690
लक	-4691
भावा	-4692
▁सुत	-4693
▁क्वा	-4694
▁सनात	-4695
▁स्तः	-4696
▁ईश्वर	-4697
▁भोक्त	-4698
▁पुस्तक	-4699
▁पृष्ठं	-4700
▁प्रयच्छ	-4701
क्षो	-4702
चारि	-4703
ष्ठं	-4704
ष्यं	-4705
▁एता	-4706
▁धेन	-4707
सूचना	-4708
▁कोरो	-4709
▁द्रु	-4710
मात्रे	-4711
ब्ब	-4712
रोह	-4713
▁पय	-4714
कारा	-4715
ानाः	-4716
▁सद्	-4717
कृतिक	-4718
▁हिमा	-4719
▁पात्र	-4720
▁रूपम्	-4721
▁योगदान	-4722
▁पूर्वेण	-4723
टन	-4724
अहं	-4725
थैव	-4726
मयः	-4727
▁प्	-4728
ादिः	-4729
्रीं	-4730
▁अधः	-4731
▁कवि	-4732
▁लोकः	-4733
▁जनानां	-4734
▁वेत्ति	-4735
▁प्रकृतिः	-4736
मै	-4737
सभ	-4738
र्षे	-4739
▁जाल	-4740
▁वया	-4741
न्यथा	-4742
▁पतिः	-4743
▁दीयते	-4744
▁उत्तरं	-4745
▁समस्या	-4746
▁अस्मान्	-4747
▁नास	-4748
▁नूत	-4749
भ्युप	-4750
▁कुतो	-4751
▁त्वम	-4752
▁अन्यः	-4753
▁हस्ते	-4754
@1	-4755
्यत	-4756
▁22	-4757
निर्ण	-4758
▁बद्ध	-4759
▁दर्शन	-4760
▁पुरतः	-4761
▁स्मरण	-4762
▁पुनरपि	-4763
▁तत्रापि	-4764
▁यथाशक्ति	-4765
त्क	-4766
िकार	-4767
ैर्व	-4768
▁परिष	-4769
▁स्वर	-4770
▁अवस्था	-4771
▁ध्यानं	-4772
▁पुनर्व	-4773
▁अध्यक्ष	-4774
▁y	-4775
मते	-4776
रोः	-4777
▁रण	-4778
चारः	-4779
रादि	-4780
▁अप्	-4781
क्षणे	-4782
▁अन्ध	-4783
▁घटना	-4784
संज्ञा	-4785
ोऽस्मि	-4786
▁वीर्य	-4787
▁प्राप्तः	-4788
यदि	-4789
▁रू	-4790
नाभि	-4791
▁धृत	-4792
▁भूय	-4793
▁कृत्	-4794
धर	-4795
समी	-4796
▁दह	-4797
ङ्गे	-4798
▁जाने	-4799
ापेक्ष	-4800
▁महात्म	-4801
सय	-4802
माग	-4803
ऽनु	-4804
धाति	-4805
पत्य	-4806
मानेन	-4807
▁कालो	-4808
▁वाक्	-4809
भाषायां	-4810
स्तेषां	-4811
जय	-4812
▁े	-4813
ives	-4814
▁तपः	-4815
▁सीता	-4816
क्रमेण	-4817
▁प्रभुः	-4818
▁सर्वभूतेषु	-4819
॒त	-4820
०५	-4821
ine	-4822
धिं	-4823
हीन	-4824
िया	-4825
सदृश	-4826
▁सेन	-4827
▁वन्द	-4828
▁अन्ते	-4829
▁अभवन्	-4830
▁तयो	-4831
▁दिवि	-4832
सङ्ख्या	-4833
ानन्तरं	-4834
▁गृह्यते	-4835
▁आधिकारिक	-4836
त्तं	-4837
माणा	-4838
▁यूप	-4839
वर्षे	-4840
शब्दा	-4841
▁कष्ट	-4842
▁भवेद	-4843
▁पुराण	-4844
▁भारतं	-4845
▁द्वितीयः	-4846
ow	-4847
जाल	-4848
ाहे	-4849
▁तवं	-4850
▁तदाह	-4851
प्रयोज	-4852
▁केनापि	-4853
▁कर्तुम्	-4854
▁वार्षिक	-4855
२७	-4856
श्त	-4857
▁आन	-4858
▁सख	-4859
▁संह	-4860
▁हां	-4861
ांश्च	-4862
▁पुष्ट	-4863
मन्त्रि	-4864
▁सामर्थ	-4865
▁अर	-4866
त्तः	-4867
नुते	-4868
म्बु	-4869
टुम्ब	-4870
▁एकम्	-4871
▁प्रम	-4872
▁तेनैव	-4873
▁निद्र	-4874
▁यान्ति	-4875
▁प्रसन्न	-4876
▁←	-4877
ष्क	-4878
▁मई	-4879
च्चार	-4880
▁जीवितं	-4881
▁Re	-4882
पर्या	-4883
▁नेति	-4884
▁अन्या	-4885
▁प्रदत्त	-4886
िक्र	-4887
▁धनु	-4888
कर्षण	-4889
पत्रं	-4890
▁अस्त	-4891
▁यात्रा	-4892
दृष्ट्या	-4893
▁वर्षस्य	-4894
संश	-4895
ालय	-4896
दात्	-4897
स्वं	-4898
देवता	-4899
▁नाभि	-4900
▁पाणि	-4901
▁सञ्ज	-4902
▁देवताः	-4903
▁वैज्ञान	-4904
०४	-4905
▁(4	-4906
निर्व	-4907
▁निपा	-4908
▁नूनं	-4909
▁हन्ति	-4910
र्मध्ये	-4911
▁युज्यते	-4912
▁लोकानां	-4913
▁संरक्षण	-4914
बो	-4915
२५	-4916
गर्भ	-4917
मुखं	-4918
वचनं	-4919
▁ईदृश	-4920
▁विधाय	-4921
▁सैन्य	-4922
स्थानम्	-4923
▁पूर्वा	-4924
▁अर्थात्	-4925
▁स्मृतम्	-4926
▁स्यादिति	-4927
ers	-4928
कला	-4929
यैव	-4930
▁रह	-4931
▁तन्न	-4932
▁स्यु	-4933
▁धाःसा	-4934
▁भवत्य	-4935
▁पूर्वे	-4936
▁पदार्थः	-4937
खिल	-4938
सत्	-4939
विवे	-4940
▁केर	-4941
▁यति	-4942
▁साय	-4943
बिम्ब	-4944
मुख्य	-4945
▁Arch	-4946
▁पद्ध	-4947
▁आन्दो	-4948
▁संभाव	-4949
▁साधारण	-4950
▁श्रुतिः	-4951
▁वक्ष्यामि	-4952
तीय	-4953
श्री	-4954
स्यो	-4955
▁आवि	-4956
▁शिर	-4957
द्याः	-4958
साध्य	-4959
▁समग्र	-4960
▁संकल्प	-4961
▁द्वितीये	-4962
7.	-4963
ऽव	-4964
२३	-4965
कान	-4966
देवः	-4967
र्षि	-4968
ीकृत	-4969
▁चैत	-4970
मानां	-4971
ान्यं	-4972
▁अपरा	-4973
भाषणम्	-4974
र्थस्य	-4975
ारिद्र	-4976
▁कान्त	-4977
▁दत्तं	-4978
▁वृद्धिः	-4979
▁उत्कृष्ट	-4980
शौ	-4981
सन्त	-4982
▁वाप	-4983
▁द्रो	-4984
▁मनुः	-4985
ाभ्यां	-4986
िकायाः	-4987
ानुसारं	-4988
नत	-4989
जम्	-4990
▁फो	-4991
ग्धं	-4992
▁(1)	-4993
▁याना	-4994
▁श्रव	-4995
▁हितं	-4996
▁दर्शनं	-4997
▁पुत्रो	-4998
--"	-4999
अभि	-5000
सान	-5001
मासे	-5002
सत्य	-5003
▁भूम	-5004
▁रवि	-5005
▁जगति	-5006
▁तुभ्यं	-5007
▁प्रियं	-5008
▁विपर्य	-5009
19	-5010
टिक	-5011
▁कष	-5012
▁समुद	-5013
▁गृह्ण	-5014
▁सुखम्	-5015
िनो	-5016
इत्य	-5017
ञ्जन	-5018
▁अग्	-5019
▁लोकं	-5020
ीयन्ते	-5021
▁पूज्य	-5022
ग्रहणम्	-5023
संस्कृत	-5024
▁विशेषेण	-5025
▁ब्राह्मण	-5026
मेल	-5027
श्छ	-5028
सें	-5029
यामः	-5030
▁एस्	-5031
▁चैक	-5032
▁नपुं	-5033
▁नूतन	-5034
▁ह्या	-5035
ान्तरा	-5036
▁तीव्र	-5037
▁धातुः	-5038
▁श्राव	-5039
क्रियते	-5040
▁भक्त्या	-5041
▁विद्यमान	-5042
os	-5043
गोच	-5044
▁केचि	-5045
▁ध्ये	-5046
▁पुनरु	-5047
▁यस्मात्	-5048
▁विस्तार	-5049
▁e	-5050
धेन	-5051
रन्	-5052
लिः	-5053
वम्	-5054
▁मानुष	-5055
if	-5056
तमा	-5057
दूष	-5058
धीः	-5059
रणा	-5060
▁भृ	-5061
▁2021	-5062
▁स्पृश	-5063
▁देवदत्त	-5064
▁सर्वलोक	-5065
▁वर्तन्ते	-5066
▁प्रयत्नेन	-5067
ew	-5068
जाति	-5069
द्रु	-5070
▁कौश	-5071
▁वरा	-5072
क्षिक	-5073
दित्य	-5074
▁कानि	-5075
▁ब्रि	-5076
श्चापि	-5077
▁विवेक	-5078
सामान्य	-5079
▁अधिकृत	-5080
▁चित्तं	-5081
▁विधिना	-5082
▁संस्कार	-5083
▁प्रयत्नतः	-5084
▁re	-5085
योगं	-5086
सेना	-5087
▁चाप	-5088
▁भोः	-5089
ाद्या	-5090
▁नरकं	-5091
▁दृष्टः	-5092
▁प्राप्ता	-5093
▁निर्दिष्ट	-5094
ंग	-5095
इन	-5096
▁01	-5097
▁स॒	-5098
▁४७	-5099
र्ता	-5100
स्तां	-5101
▁श्लो	-5102
गम्यते	-5103
नुयात्	-5104
▁तासां	-5105
▁मध्या	-5106
▁यथाविधि	-5107
th	-5108
रुः	-5109
▁छे	-5110
▁कूप	-5111
▁मखु	-5112
▁माह	-5113
▁१९७	-5114
▁वेतन	-5115
▁तन्नि	-5116
▁महोदय	-5117
▁पूर्वम्	-5118
▁-'	-5119
▁ऋतु	-5120
▁सूर	-5121
▁क्री	-5122
▁क्लि	-5123
▁भूयः	-5124
पेक्षा	-5125
▁पश्यन्ति	-5126
▁स्वास्थ्य	-5127
तै	-5128
तॊ	-5129
ध्र	-5130
ायो	-5131
▁by	-5132
ौद्ध	-5133
▁रति	-5134
▁सत्त	-5135
▁भवन्तः	-5136
▁युक्तः	-5137
▁चिकित्स	-5138
):	-5139
12	-5140
डु	-5141
यू	-5142
लै	-5143
▁दौ	-5144
▁३४	-5145
ारोह	-5146
▁चित	-5147
▁लाल	-5148
कृतेः	-5149
स्तत्	-5150
▁कम्प	-5151
▁परिण	-5152
▁स्वि	-5153
▁हरेः	-5154
क्रमम्	-5155
▁स्याद्	-5156
▁मुहूर्त	-5157
मित्यर्थः	-5158
▁विद्वान्	-5159
▁प्रक्रिया	-5160
मोद	-5161
ाह्	-5162
▁री	-5163
▁५५	-5164
क्यं	-5165
स्वभाव	-5166
▁प्रभात	-5167
▁चतुर्दश	-5168
17	-5169
um	-5170
नार	-5171
▁द्	-5172
▁भाति	-5173
▁राशि	-5174
श्चर्य	-5175
▁पिण्ड	-5176
व्यापार	-5177
▁उद्योग	-5178
▁अत्यन्त	-5179
▁अद्यापि	-5180
▁एवमुक्त	-5181
▁व्याकरण	-5182
▁भविष्यन्ति	-5183
14	-5184
मया	-5185
▁िव	-5186
न्दः	-5187
▁पोष	-5188
▁लौक	-5189
▁बहुव	-5190
▁लोका	-5191
▁वाणि	-5192
संस्था	-5193
▁चतुर्	-5194
▁शरीरे	-5195
▁उपयोगः	-5196
▁रक्षति	-5197
▁समृद्ध	-5198
▁किंचित्	-5199
येण	-5200
त्वम	-5201
ानीं	-5202
▁अपना	-5203
▁युवा	-5204
▁योगी	-5205
कर्मणि	-5206
▁कर्तृ	-5207
▁राजनि०	-5208
▁प्रविष्ट	-5209
▁फ़	-5210
विति	-5211
▁परत	-5212
▁जातं	-5213
▁सर्ग	-5214
कर्त्त	-5215
मासीत्	-5216
▁इच्छा	-5217
▁प्रास	-5218
▁परस्मै	-5219
्ह	-5220
मन्	-5221
यसि	-5222
द्वै	-5223
स्वि	-5224
▁पदम्	-5225
दर्शनं	-5226
प्रकार	-5227
▁सोऽपि	-5228
▁इत्येतत्	-5229
,"	-5230
पाय	-5231
▁28	-5232
▁सप	-5233
▁सफ	-5234
दिनं	-5235
वित्	-5236
▁आपः	-5237
ज्ञाय	-5238
ार्थः	-5239
▁देशं	-5240
▁संशय	-5241
स्येति	-5242
▁सन्दे	-5243
▁सुभाष	-5244
▁तेषाम्	-5245
▁सूर्यः	-5246
ोऽध्यायः	-5247
▁प्रार्थना	-5248
बह	-5249
शै	-5250
▁गज	-5251
▁जो	-5252
पराय	-5253
रूपि	-5254
▁ट्र	-5255
योगेन	-5256
▁त्वर	-5257
भिधीयते	-5258
▁निर्वि	-5259
▁पुण्यं	-5260
▁करिष्ये	-5261
▁सम्बन्धः	-5262
मना	-5263
ऽप्य	-5264
▁ज्वल	-5265
कर्तुं	-5266
शक्तिः	-5267
▁तस्यैव	-5268
▁वृत्तिः	-5269
▁प्रारम्भ	-5270
महा	-5271
ेना	-5272
▁50	-5273
एससी	-5274
ङ्का	-5275
भूते	-5276
▁यौव	-5277
▁वंश	-5278
▁सन्न	-5279
▁नाराय	-5280
▁प्रयोजनं	-5281
▁युष्माकं	-5282
▁सम्बन्धी	-5283
ore	-5284
काव	-5285
पीठ	-5286
्य्	-5287
▁St	-5288
▁४८	-5289
द्वय	-5290
▁पूँ	-5291
▁सभा	-5292
▁दक्ष	-5293
प्रभाव	-5294
ेन्द्र	-5295
व्यवहार	-5296
▁बुद्धिः	-5297
▁स्वीकृत	-5298
▁राष्ट्रे	-5299
घोष	-5300
भूष	-5301
▁(?	-5302
ाधिक	-5303
्याद	-5304
▁याग	-5305
त्रयं	-5306
शब्दो	-5307
▁मतम्	-5308
पत्तेः	-5309
▁गृहीत	-5310
▁प्रदा	-5311
▁मार्गे	-5312
केश	-5313
दीप	-5314
▁On	-5315
▁हल	-5316
▁४४	-5317
जनाः	-5318
माया	-5319
▁तनु	-5320
▁समव	-5321
पचारिक	-5322
▁४९	-5323
ल्यं	-5324
▁बीज	-5325
यन्तु	-5326
योज्य	-5327
▁तर्प	-5328
▁सत्व	-5329
▁सर्प	-5330
▁सर्वम	-5331
स्थितम्	-5332
▁भूतानि	-5333
▁साक्षि	-5334
▁ा	-5335
▁आं	-5336
द्रो	-5337
▁अंश	-5338
▁१००	-5339
▁अर्जु	-5340
▁त्रयः	-5341
▁दिव्यं	-5342
प्रसिद्ध	-5343
▁पुरुषस्य	-5344
तव	-5345
सनं	-5346
गृही	-5347
दक्षिण	-5348
▁नेपाः	-5349
▁श्रवण	-5350
▁राजधान	-5351
▁संबन्ध	-5352
▁सर्वम्	-5353
प्रतिषेध	-5354
▁प्राप्तुं	-5355
di	-5356
तथा	-5357
▁जगतः	-5358
▁त्वद	-5359
▁दुगु	-5360
न्तीति	-5361
▁एवेति	-5362
▁Archives	-5363
ृथ	-5364
२८	-5365
३१	-5366
तुम्	-5367
▁शृण	-5368
माध्य	-5369
▁मुखं	-5370
▁शनैः	-5371
णार्थं	-5372
▁अप्वः	-5373
▁विकार	-5374
▁निर्या	-5375
▁विवक्ष	-5376
▁02	-5377
▁खि	-5378
▁३८	-5379
ङ्गी	-5380
ग्निः	-5381
भिश्च	-5382
वर्षं	-5383
▁तच्छ	-5384
▁नामा	-5385
▁मृदु	-5386
▁विंश	-5387
स्मान्न	-5388
▁40	-5389
जायत	-5390
▁यया	-5391
▁वणि	-5392
मोक्ष	-5393
▁नगरं	-5394
त्यन्त	-5395
प्रभात	-5396
▁निवास	-5397
▁प्रसू	-5398
▁चिन्ता	-5399
▁आवश्यकता	-5400
16	-5401
पट	-5402
ूय	-5403
ूर्व	-5404
▁उभौ	-5405
▁तान	-5406
सृष्ट	-5407
▁प्या	-5408
▁कर्तव्या	-5409
▁जनसंख्या	-5410
२६	-5411
▁४६	-5412
माता	-5413
ष्णु	-5414
सन्द	-5415
▁तुम	-5416
▁मेष	-5417
भिधान	-5418
▁आयुः	-5419
▁कण्ठ	-5420
▁लक्ष्म	-5421
▁सूर्या	-5422
प्राप्ति	-5423
▁कश्चिद्	-5424
ाश	-5425
॒ः	-5426
our	-5427
केत	-5428
धेः	-5429
न्वि	-5430
▁अपर	-5431
▁माग	-5432
विक्र	-5433
ासीत्	-5434
▁पण्ड	-5435
स्थिता	-5436
▁स्वल्प	-5437
▁पुस्तकं	-5438
9.	-5439
तिथ	-5440
तीव	-5441
पदः	-5442
ादः	-5443
गुणा	-5444
ोत्तम	-5445
▁विधिव	-5446
▁युक्तं	-5447
▁संज्ञा	-5448
▁इदानीम्	-5449
▁उत्तरम्	-5450
ालो	-5451
पश्य	-5452
सम्म	-5453
▁च्छ	-5454
▁2017	-5455
▁कामः	-5456
▁ङीष्	-5457
▁मनोर	-5458
▁षोडश	-5459
इन्द्र	-5460
ध्यक्ष	-5461
▁विराज	-5462
▁स्वार्थे	-5463
▁पृथिव्यां	-5464
गतो	-5465
चरण	-5466
जार	-5467
श्ल	-5468
र्ना	-5469
▁आशी	-5470
▁रसो	-5471
▁सफल	-5472
क्राम	-5473
▁वसति	-5474
स्माद्	-5475
प्रकृति	-5476
स्थिताः	-5477
▁दृष्टा	-5478
▁स्वामी	-5479
३२	-5480
थवा	-5481
नयः	-5482
यिता	-5483
▁क्य	-5484
▁शोच	-5485
नार्थ	-5486
याणां	-5487
र्थाय	-5488
▁एक्स	-5489
▁चिरं	-5490
▁मूलं	-5491
र्यस्य	-5492
िकायां	-5493
▁पार्व	-5494
▁पुरात	-5495
▁अध्याप	-5496
▁शिक्षण	-5497
▁दद्यात्	-5498
▁निर्णयः	-5499
▁स्वार्थ	-5500
दै	-5501
ous	-5502
भृत	-5503
महे	-5504
▁इन्	-5505
▁ददौ	-5506
▁सलि	-5507
ेभ्यो	-5508
▁द्यु	-5509
▁रसाय	-5510
रात्रे	-5511
▁गृहम्	-5512
▁अन्यत्	-5513
▁द्वन्द	-5514
30	-5515
कुश	-5516
पुः	-5517
दासी	-5518
▁कथम	-5519
▁तपो	-5520
▁सीत	-5521
द्देश	-5522
नन्तरं	-5523
▁चेष्ट	-5524
▁प्रार	-5525
▁नक्षत्र	-5526
नेक	-5527
▁तमः	-5528
तस्तु	-5529
निवास	-5530
पदस्य	-5531
योग्य	-5532
रित्य	-5533
▁एशिया	-5534
▁विन्द	-5535
▁नागरिक	-5536
▁उदाहरणम्	-5537
फु	-5538
िम	-5539
सूच	-5540
निष्	-5541
लोपः	-5542
क्षां	-5543
▁कोटि	-5544
च्छेदः	-5545
यात्रा	-5546
▁अन्यो	-5547
▁आत्मानं	-5548
▁परिकल्प	-5549
▁सर्वनाम	-5550
रूपम्	-5551
श्चेति	-5552
▁यत्तु	-5553
▁सादृश	-5554
▁कथयामि	-5555
▁न्ह्यः	-5556
▁जानन्ति	-5557
▁दारिद्र	-5558
▁स्त्रिया	-5559
▁प्रशिक्षु	-5560
गौ	-5561
▁x	-5562
जाप	-5563
निं	-5564
▁४१	-5565
वतां	-5566
सम्प	-5567
ोऽसि	-5568
▁मतः	-5569
▁सती	-5570
▁आयोज	-5571
▁उपयु	-5572
▁नवीन	-5573
▁परति	-5574
▁रुचि	-5575
सामर्थ	-5576
▁विभाव	-5577
▁प्रिया	-5578
▁भवन्तु	-5579
▁कुर्वन्	-5580
▁सुखदुःख	-5581
'।	-5582
5.	-5583
SC	-5584
मल	-5585
ण्व	-5586
य्य	-5587
सिक	-5588
▁आश	-5589
▁यव	-5590
▁मोद	-5591
सिष्ठ	-5592
▁बाहु	-5593
▁श्वः	-5594
स्थितं	-5595
▁गृहाण	-5596
▁न्ह्य	-5597
▁पदस्य	-5598
ताल	-5599
माल	-5600
▁शकु	-5601
प्रयत्	-5602
▁प्राव	-5603
▁देवदेव	-5604
▁एकस्मिन्	-5605
SE	-5606
क्ट	-5607
र्स	-5608
सृज	-5609
िणी	-5610
▁पद्	-5611
नित्य	-5612
▁रचना	-5613
▁वेदा	-5614
प्रयोगः	-5615
▁अन्तिम	-5616
▁प्रतिषेधः	-5617
मनो	-5618
▁रौ	-5619
▁३९	-5620
▁मेन	-5621
क्ष्ण	-5622
न्यास	-5623
▁तत्व	-5624
▁ददर्श	-5625
▁श्रेय	-5626
▁यस्याः	-5627
कट	-5628
यता	-5629
काशः	-5630
▁पीत	-5631
▁छाया	-5632
▁पुरु	-5633
श्चित्	-5634
्यर्थं	-5635
▁कानून	-5636
▁प्राणा	-5637
▁करणीयम्	-5638
▁अतिरिक्त	-5639
▁प्रजायते	-5640
भवे	-5641
ादा	-5642
यितु	-5643
ष्टौ	-5644
चनात्	-5645
दात्म	-5646
निवार	-5647
▁विधा	-5648
▁परिकी	-5649
▁संज्ञ	-5650
▁यायेगु	-5651
▁स्वच्छ	-5652
▁तत्सर्वं	-5653
▁पृथिव्या	-5654
करा	-5655
घाट	-5656
हाँ	-5657
ाणाम	-5658
▁चिद	-5659
msgstr	-5660
▁कुम्भ	-5661
▁नियमः	-5662
▁अस्यां	-5663
▁प्रवाह	-5664
▁सर्वदेव	-5665
▁भवितव्यम्	-5666
नेः	-5667
पदेश	-5668
▁कुम	-5669
▁पलाय	-5670
▁सुहृ	-5671
▁जातम्	-5672
▁शुभम्	-5673
▁सत्या	-5674
निर्माण	-5675
पेक्षया	-5676
लक्षणम्	-5677
▁द्विधा	-5678
▁मृत्युः	-5679
▁पार्श्वे	-5680
3.	-5681
वंश	-5682
ादयो	-5683
▁गीत	-5684
▁षड्	-5685
स्थाय	-5686
▁करणे	-5687
न्यस्य	-5688
▁कदाचि	-5689
▁तत्रा	-5690
▁सद्यः	-5691
▁कल्याण	-5692
▁निद्रा	-5693
▁वाच्यम्	-5694
ub	-5695
भर	-5696
सित	-5697
्यक	-5698
वश्य	-5699
▁अरे	-5700
▁गताः	-5701
वृद्धि	-5702
स्यामि	-5703
▁दैत्य	-5704
▁विदेशी	-5705
▁संस्करणे	-5706
ेदः	-5707
गमनं	-5708
ारोप	-5709
▁नील	-5710
▁आवाह	-5711
▁शिवः	-5712
▁सुखी	-5713
▁जिज्ञ	-5714
▁शक्नो	-5715
▁बहूनां	-5716
▁बहुव्री	-5717
▁सर्वपाप	-5718
▁सिद्धम्	-5719
भूय	-5720
ल्म	-5721
▁डो	-5722
▁६०	-5723
जस्य	-5724
प्रश	-5725
यतां	-5726
▁शाल	-5727
ान्तु	-5728
▁दर्प	-5729
▁दिवं	-5730
मुक्तं	-5731
▁परितः	-5732
▁योग्य	-5733
▁इत्युप	-5734
▁विलम्ब	-5735
प्रत्यक्ष	-5736
@2	-5737
वय	-5738
२९	-5739
ततः	-5740
मेष	-5741
▁र्	-5742
▁५४	-5743
भागं	-5744
▁नरो	-5745
कारणं	-5746
तोऽपि	-5747
▁नष्ट	-5748
▁यच्छ	-5749
▁यन्म	-5750
▁प्रिये	-5751
▁स्थितं	-5752
नुप	-5753
धिका	-5754
म्बर	-5755
ादशी	-5756
▁Pre	-5757
▁चाह	-5758
▁दाय	-5759
ुक्तः	-5760
▁दोषो	-5761
▁पितु	-5762
▁वदामि	-5763
▁अस्माकम्	-5764
▁पूर्ववत्	-5765
4.	-5766
▁जन्	-5767
▁ताल	-5768
▁वाऽ	-5769
वृक्ष	-5770
ाद्वि	-5771
▁दिवसे	-5772
▁पित्त	-5773
▁बौद्ध	-5774
▁अधिकरण	-5775
▁आत्मनः	-5776
▁सङ्कल्प	-5777
▁सौभाग्य	-5778
:4	-5779
टेन	-5780
▁is	-5781
▁चन	-5782
प्रस	-5783
▁रेल	-5784
▁हेत	-5785
विनाश	-5786
ान्तो	-5787
▁संवि	-5788
▁प्रमा	-5789
▁पुनर्ज	-5790
▁राजानं	-5791
▁संस्थाप	-5792
:0	-5793
केव	-5794
धाः	-5795
वीं	-5796
संह	-5797
ापा	-5798
▁फे	-5799
केषु	-5800
ष्ठे	-5801
्यया	-5802
▁for	-5803
▁१९८	-5804
ोक्तम्	-5805
▁मार्च	-5806
▁संसारे	-5807
▁विद्यालये	-5808
जनं	-5809
तये	-5810
▁ऋत	-5811
▁८०	-5812
परिष	-5813
पार्	-5814
मेवा	-5815
र्कः	-5816
लभ्य	-5817
▁100	-5818
▁एनं	-5819
▁नौक	-5820
दानीं	-5821
प्तिः	-5822
वार्त	-5823
सन्नि	-5824
स्पति	-5825
्वात्	-5826
परिणाम	-5827
ेष्वपि	-5828
▁क्रुद्ध	-5829
]]	-5830
art	-5831
भवं	-5832
ाती	-5833
िती	-5834
▁गं	-5835
दीयं	-5836
भाषत	-5837
▁रोज	-5838
▁अङ्क	-5839
▁इमां	-5840
▁देहे	-5841
▁भागं	-5842
विधानं	-5843
विवर्ज	-5844
स्त्रं	-5845
▁चान्य	-5846
▁वैद्य	-5847
▁ह्रस्व	-5848
▁सामग्री	-5849
8.	-5850
oo	-5851
कव	-5852
छे	-5853
▁ञ	-5854
पूर	-5855
बलं	-5856
कोटि	-5857
चारी	-5858
ेयुः	-5859
प्रथम	-5860
स्यसि	-5861
ितवती	-5862
▁श्वा	-5863
▁कारणेन	-5864
▁राक्षस	-5865
▁विरासत	-5866
प्राप्ते	-5867
▁कुटुम्ब	-5868
▁परिपूर्ण	-5869
▁सर्वेषाम	-5870
ant	-5871
मृत	-5872
ङ्कः	-5873
यादि	-5874
वचने	-5875
▁(),	-5876
▁कूट	-5877
▁छगू	-5878
▁नन्व	-5879
▁पश्ये	-5880
▁साधार	-5881
▁इत्यनु	-5882
▁उद्देश	-5883
▁कार्यः	-5884
▁चतुर्व	-5885
▁सङ्ग्र	-5886
अति	-5887
करे	-5888
तेऽ	-5889
देन	-5890
ासौ	-5891
▁एन	-5892
खिलं	-5893
चनम्	-5894
वत्त	-5895
हिते	-5896
▁जला	-5897
ैस्तु	-5898
▁जाये	-5899
▁दिशः	-5900
गच्छति	-5901
▁कक्षा	-5902
▁तस्मि	-5903
▁प्रभा	-5904
भिप्राय	-5905
ान्तरेण	-5906
▁दिल्ली	-5907
▁प्रभावः	-5908
▁विश्वस्य	-5909
शन	-5910
ुद	-5911
▁मल	-5912
्येक	-5913
चार्य	-5914
निवेश	-5915
▁आर्य	-5916
▁कापि	-5917
▁नामः	-5918
▁लोपः	-5919
ोन्नति	-5920
▁कार्त	-5921
▁प्राथ	-5922
▁शक्या	-5923
▁निवेदन	-5924
▁ग्रीष्म	-5925
▁पितॄणां	-5926
▁कस्यचित्	-5927
▁निष्कर्ष	-5928
▁समाचरेत्	-5929
▁j	-5930
मनं	-5931
ीयत	-5932
▁क्या	-5933
ानामपि	-5934
वर्षस्य	-5935
▁श्रुतं	-5936
▁साम्प्र	-5937
▁स्वरूपं	-5938
▁@	-5939
न्स	-5940
ाहः	-5941
▁दार	-5942
▁भृश	-5943
तीनां	-5944
राज्ये	-5945
▁चेन्न	-5946
▁तिथिः	-5947
▁द्वेष	-5948
▁वास्त	-5949
▁सर्गः	-5950
▁महीयते	-5951
▁विपरीत	-5952
▁भूतानां	-5953
▁युधिष्ठ	-5954
▁प्रजानां	-5955
है	-5956
तुम	-5957
▁४३	-5958
कम्प	-5959
▁माध	-5960
▁साद	-5961
▁ताम्	-5962
▁मातु	-5963
प्रदान	-5964
▁एतदेव	-5965
▁कृत्य	-5966
▁सप्तम	-5967
स्थितिः	-5968
ान्वितः	-5969
▁समुच्च	-5970
▁क्रमात्	-5971
▁उक्तवान्	-5972
▁स्त्रियः	-5973
▁गमिष्यामि	-5974
४७	-5975
वते	-5976
ेशं	-5977
▁५७	-5978
ence	-5979
मुखः	-5980
वसाय	-5981
▁अयम	-5982
▁करा	-5983
योरपि	-5984
शिक्ष	-5985
▁इयम्	-5986
▁किमु	-5987
▁द्यो	-5988
▁महती	-5989
▁हिंस	-5990
ात्मकं	-5991
▁कार्ये	-5992
▁वक्तव्यः	-5993
▁अन्तरिक्ष	-5994
▁सर्वभूतानां	-5995
तद	-5996
दर	-5997
नक	-5998
▁छः	-5999
ुपरि	-6000
िताम्	-6001
▁आहार	-6002
वर्त्त	-6003
▁तत्क्षण	-6004
▁मन्यन्ते	-6005
युग	-6006
लाल	-6007
सीद	-6008
ैनं	-6009
▁४२	-6010
द्धा	-6011
नामा	-6012
हानि	-6013
▁काश	-6014
▁हंस	-6015
क्रोध	-6016
▁किंच	-6017
▁कृति	-6018
▁जगाम	-6019
▁तपसा	-6020
▁दन्त	-6021
▁परमे	-6022
▁शेषं	-6023
न्याया	-6024
▁निम्न	-6025
▁ह्रीं	-6026
▁सप्तदश	-6027
▁प्रदूषण	-6028
▁स्वस्ति	-6029
क्थ	-6030
हरण	-6031
प्रण	-6032
ल्लभ	-6033
ादेः	-6034
▁अकथ	-6035
▁आम्	-6036
न्नाः	-6037
▁कविः	-6038
▁वन्य	-6039
▁समाप	-6040
▁निन्द	-6041
▁निर्ज	-6042
▁बालकाः	-6043
▁निर्वाचन	-6044
▁कार्यान्व	-6045
▁r	-6046
ंति	-6047
वेन	-6048
▁योष	-6049
यतीति	-6050
▁तदैव	-6051
▁सुरा	-6052
▁हस्ति	-6053
▁द्वयोः	-6054
त्यादिना	-6055
▁गृह्णाति	-6056
कास	-6057
धुं	-6058
ब्दे	-6059
मुद्र	-6060
्यतां	-6061
समुद्र	-6062
▁जाग्र	-6063
▁स्पर्ध	-6064
प्रतिष्ठ	-6065
▁पश्चिमे	-6066
▁प्रतिपद्यते	-6067
मेध	-6068
वेष	-6069
▁>>	-6070
▁०३	-6071
जन्य	-6072
प्ते	-6073
ल्पि	-6074
स्तः	-6075
▁पाय	-6076
स्थां	-6077
▁Post	-6078
▁आह्व	-6079
▁एकेन	-6080
▁बह्व	-6081
▁श्रि	-6082
ावस्था	-6083
▁प्रकट	-6084
▁स्पेन	-6085
सम्पादन	-6086
▁तृतीये	-6087
▁प्रस्त	-6088
▁परमात्मा	-6089
▁पूर्वमेव	-6090
▁प्राप्नो	-6091
▁अभिव्यक्ति	-6092
६०	-6093
परो	-6094
▁गृ	-6095
अन्त	-6096
वस्य	-6097
स्ने	-6098
्रिक	-6099
▁औषध	-6100
▁सरल	-6101
विन्द	-6102
स्ततो	-6103
स्मरण	-6104
▁महाम	-6105
▁संदे	-6106
ग्रहणे	-6107
पुत्रः	-6108
युक्ते	-6109
▁वास्तु	-6110
▁न्यूनतम	-6111
▁स्थापना	-6112
वक्ष्यामि	-6113
▁इत्युक्त्वा	-6114
मद	-6115
करि	-6116
य्त	-6117
▁आज	-6118
पितृ	-6119
सङ्क	-6120
सीति	-6121
▁असु	-6122
▁बिभ	-6123
▁शाप	-6124
तवान्	-6125
पिण्ड	-6126
▁अभाव	-6127
राजस्य	-6128
▁कौन्ते	-6129
▁पुत्रा	-6130
णौ	-6131
पां	-6132
▁कप	-6133
कूगु	-6134
ञ्चि	-6135
दिवस	-6136
ैर्न	-6137
▁भया	-6138
▁शोक	-6139
▁स्ट	-6140
▁ऽहं	-6141
ोपदेश	-6142
▁जातो	-6143
▁अनेके	-6144
रेन्द्र	-6145
▁ब्रूहि	-6146
▁समाहितः	-6147
▁स्यात्त	-6148
▁प्राप्ति	-6149
▁विज्ञानं	-6150
]।	-6151
रज	-6152
्रं	-6153
▁पण	-6154
▁मज	-6155
मायु	-6156
येगु	-6157
शासन	-6158
ाक्ष	-6159
ख्यां	-6160
▁एकैक	-6161
▁शुभे	-6162
▁सुषु	-6163
▁अध्यय	-6164
▁अपश्य	-6165
▁एकस्य	-6166
▁एतच्च	-6167
▁कर्तु	-6168
▁गतवान्	-6169
▁शक्यम्	-6170
▁शक्नुवन्ति	-6171
▁·	-6172
रैः	-6173
▁वल	-6174
दाता	-6175
▁चिर	-6176
▁हवि	-6177
▁सत्र	-6178
▁सस्य	-6179
ख्यातं	-6180
द्रव्य	-6181
▁पूँजी	-6182
▁भगवतः	-6183
फो	-6184
नोप	-6185
विज	-6186
▁दं	-6187
नेति	-6188
लेखः	-6189
▁आर्	-6190
▁जाप	-6191
▁दशा	-6192
ज्ञया	-6193
▁निष्ठ	-6194
▁देवान्	-6195
▁रूपांत	-6196
▁सम्मान	-6197
▁कस्यापि	-6198
▁प्रकीर्त	-6199
▁स्वभावतः	-6200
▁प्राप्तम्	-6201
▁प्रयुज्यते	-6202
दास	-6203
ment	-6204
अन्य	-6205
षेधे	-6206
▁विपु	-6207
त्वाद्	-6208
पदार्थ	-6209
ादिभिः	-6210
▁सन्धि	-6211
त्पत्ति	-6212
प्रदेशे	-6213
▁प्रवास	-6214
▁संवेदना	-6215
▁ऎ	-6216
सरे	-6217
▁शे	-6218
चितः	-6219
▁एतं	-6220
▁वनं	-6221
निरूप	-6222
भ्यते	-6223
▁गर्व	-6224
▁चात्र	-6225
▁सैनिक	-6226
ाप्नोति	-6227
▁सर्वतो	-6228
▁प्रकृते	-6229
▁शक्नुमः	-6230
▁वक्तव्यं	-6231
नाग	-6232
प्ल	-6233
क्रो	-6234
पदेन	-6235
पद्ध	-6236
▁वाज	-6237
▁पितॄ	-6238
▁वृथा	-6239
▁सङ्घ	-6240
रात्रं	-6241
ादित्य	-6242
▁त्याग	-6243
▁मुञ्च	-6244
▁वर्षं	-6245
▁श्रोत	-6246
▁गच्छामि	-6247
▁सर्वकाम	-6248
चौ	-6249
▁[[	-6250
गुणः	-6251
▁(2)	-6252
▁दये	-6253
▁नां	-6254
▁पेश	-6255
संयोग	-6256
हितम्	-6257
▁पाहि	-6258
ष्यामः	-6259
िकानां	-6260
दृश्यते	-6261
परीक्षा	-6262
▁उपयोगी	-6263
▁पृष्ठे	-6264
▁गच्छन्ति	-6265
▁कुर्वन्तु	-6266
ht	-6267
अन	-6268
रिया	-6269
र्जन	-6270
कत्वं	-6271
▁समाग	-6272
क्ष्मी	-6273
▁क्षणे	-6274
▁साध्या	-6275
▁अत्यन्तं	-6276
खो	-6277
est	-6278
्वल	-6279
सारं	-6280
▁आरोग	-6281
▁देयं	-6282
▁पारि	-6283
्यार्थ	-6284
▁विजान	-6285
▁जन्मनि	-6286
▁श्रद्धा	-6287
▁चिकित्सा	-6288
▁परियोजना	-6289
'-	-6290
नर	-6291
▁(6	-6292
▁जै	-6293
▁५६	-6294
▁७०	-6295
धारा	-6296
विना	-6297
ोऽनु	-6298
▁जून	-6299
त्रेण	-6300
ादीनि	-6301
▁अतिश	-6302
▁आगतः	-6303
▁पुरः	-6304
▁सुलभ	-6305
धिकारः	-6306
▁आगत्य	-6307
▁आरब्ध	-6308
▁शत्रू	-6309
▁विद्धि	-6310
▁सरकारं	-6311
13	-6312
तीः	-6313
मात	-6314
रता	-6315
▁पल	-6316
▁लं	-6317
र्यो	-6318
▁जुया	-6319
▁मुदा	-6320
परिवार	-6321
▁धातोः	-6322
▁दीर्घः	-6323
▁पुमान्	-6324
▁वर्त्त	-6325
▁विस्तरेण	-6326
5)	-6327
ip	-6328
सीं	-6329
▁st	-6330
▁अच	-6331
▁औष	-6332
तात्	-6333
त्वि	-6334
विधः	-6335
्याह	-6336
▁1.1	-6337
▁अभी	-6338
▁एतौ	-6339
▁यदु	-6340
ग्निं	-6341
शीर्ष	-6342
▁गौरव	-6343
▁पादौ	-6344
▁प्रप	-6345
▁व्यय	-6346
▁श्रम	-6347
▁पत्रं	-6348
▁समाना	-6349
▁सिन्ध	-6350
स्यास्य	-6351
▁संग्राम	-6352
▁प्रातिपद	-6353
▁यथाक्रमम्	-6354
ओं	-6355
ब्ल	-6356
▁६५	-6357
सेत्	-6358
▁अच्	-6359
▁ययय	-6360
स्वप्	-6361
ान्ता	-6362
▁कृपा	-6363
▁निरु	-6364
ानुकूल	-6365
▁करुणा	-6366
क्ष्यते	-6367
▁सप्ताह	-6368
▁परम्परा	-6369
▁प्राणिनां	-6370
1.	-6371
कत	-6372
ँय्	-6373
बीज	-6374
▁29	-6375
मत्र	-6376
▁तमि	-6377
▁बाण	-6378
क्लेश	-6379
त्तरं	-6380
लानां	-6381
ैर्वि	-6382
दिष्टं	-6383
ित्याह	-6384
▁साधनं	-6385
▁तदर्थं	-6386
▁वय्कलं	-6387
प्रतिपाद	-6388
▁सहस्राणि	-6389
वाम	-6390
िवी	-6391
ऽत्र	-6392
ैस्त	-6393
▁वयम	-6394
▁समे	-6395
क्षणः	-6396
▁पद्म	-6397
▁कुर्मः	-6398
▁चित्रं	-6399
▁ज्ञेयं	-6400
▁कस्मात्	-6401
▁विद्यालय	-6402
▁समाप्तम्	-6403
ep	-6404
ly	-6405
▁}	-6406
धीन	-6407
समं	-6408
ांस	-6409
ावे	-6410
▁32	-6411
▁अ०	-6412
ग्रा	-6413
त्यो	-6414
ब्धः	-6415
यश्च	-6416
शाली	-6417
▁पयो	-6418
▁ऽयं	-6419
क्षया	-6420
▁खल्व	-6421
▁धइगु	-6422
▁वरुण	-6423
▁वाचं	-6424
▁स्फु	-6425
प्रसाद	-6426
र्द्धं	-6427
सम्बद्ध	-6428
▁अग्निं	-6429
▁अन्वेष	-6430
▁कल्पना	-6431
प्रवृत्त	-6432
▁जायन्ते	-6433
▁मनुष्याणां	-6434
▁त०	-6435
▁हस	-6436
ादान	-6437
▁इहा	-6438
पश्चि	-6439
ष्टुं	-6440
▁शुभं	-6441
रीत्या	-6442
▁ग्रन्	-6443
▁भावना	-6444
▁सर्वः	-6445
▁सौम्य	-6446
ान्तर्ग	-6447
▁इष्यते	-6448
▁कोरोना	-6449
▁पुरस्कार	-6450
▁लिखितानां	-6451
खल	-6452
४५	-6453
कोप	-6454
गोल	-6455
वात	-6456
ैते	-6457
▁35	-6458
▁US	-6459
च्छे	-6460
भ्यास	-6461
वानां	-6462
▁मतिः	-6463
▁रिपो	-6464
▁समूह	-6465
ध्याये	-6466
श्नुते	-6467
साधारण	-6468
▁उपचार	-6469
▁दुग्ध	-6470
▁भाष्य	-6471
▁मुच्यते	-6472
▁पदोन्नति	-6473
▁प्रत्ययो	-6474
▁संस्थिता	-6475
▁प्राप्तिः	-6476
▁सम्प्रसार	-6477
विश्वविद्या	-6478
एवं	-6479
णीय	-6480
▁कट	-6481
▁५९	-6482
तत्र	-6483
प्लु	-6484
मुद्	-6485
श्मीर	-6486
ङ्क्ते	-6487
ोच्यते	-6488
▁तत्त्वं	-6489
▁स्वर्गं	-6490
▁प्रजापति	-6491
▁सुप्रभात	-6492
▁पृष्ठानां	-6493
:5	-6494
डो	-6495
जना	-6496
लाष	-6497
▁Al	-6498
तिथि	-6499
दीनि	-6500
भ्रम	-6501
र्भु	-6502
वाणी	-6503
▁भेष	-6504
ख्यानं	-6505
त्वस्य	-6506
म्यहम्	-6507
्याःगु	-6508
▁द्विव	-6509
▁वाताव	-6510
▁संयोज	-6511
▁हत्वा	-6512
पूर्वकं	-6513
स्वरूपं	-6514
ऽस्मिन्	-6515
▁अन्तरि	-6516
▁पठन्ति	-6517
▁प्रियः	-6518
▁सार्धं	-6519
▁स्वस्थ	-6520
▁क्षिप्र	-6521
▁राजनीति	-6522
▁संपूर्ण	-6523
▁सन्ध्या	-6524
oc	-6525
pr	-6526
३३	-6527
राश	-6528
▁6.	-6529
पातः	-6530
माणः	-6531
विधौ	-6532
स्ट्	-6533
▁अर्	-6534
▁आदौ	-6535
मिश्र	-6536
▁तदेत	-6537
शस्त्र	-6538
▁मत्वा	-6539
निवृत्त	-6540
▁अर्हति	-6541
▁प्रथमो	-6542
▁श्रृणु	-6543
▁आगच्छति	-6544
▁प्रज्ञा	-6545
▁सन्दर्भ	-6546
▁परमेश्वरः	-6547
▁प्रतिबन्ध	-6548
▁द्रष्टव्यम्	-6549
ृतो	-6550
▁04	-6551
▁आम	-6552
▁इय	-6553
▁कद	-6554
▁टै	-6555
▁७५	-6556
व्रत	-6557
ालये	-6558
▁करव	-6559
▁ग्ल	-6560
▁भा०	-6561
त्यते	-6562
ानिति	-6563
▁News	-6564
▁शिरः	-6565
▁परस्य	-6566
▁विहित	-6567
▁सूक्त	-6568
▁स्रोत	-6569
परम्परा	-6570
▁तत्काल	-6571
▁त्वाम्	-6572
▁हिन्दी	-6573
▁इत्युक्तम्	-6574
▁प्रायश्चित्त	-6575
फे	-6576
जने	-6577
▁अफ	-6578
▁घर	-6579
क्षय	-6580
ङ्कु	-6581
▁दुर	-6582
▁पथि	-6583
▁वरः	-6584
त्साह	-6585
पुण्य	-6586
▁करुण	-6587
▁कर्ष	-6588
▁जुहो	-6589
क्ष्या	-6590
युक्ता	-6591
▁द्वीप	-6592
▁शब्दे	-6593
न्मुक्त	-6594
संस्कार	-6595
ुमर्हसि	-6596
▁स्तुति	-6597
▁धार्मिक	-6598
▁विमुक्त	-6599
▁तत्त्वतः	-6600
ंद	-6601
ाइ	-6602
समय	-6603
ानव	-6604
ब्धा	-6605
रहित	-6606
ालयः	-6607
▁गुज	-6608
▁थौं	-6609
▁माघ	-6610
▁यथे	-6611
▁वर्	-6612
पद्यत	-6613
प्रिय	-6614
भाषया	-6615
यात्म	-6616
ऽस्ति	-6617
ित्रं	-6618
▁कालि	-6619
▁तुम्	-6620
▁बहवो	-6621
▁मुनी	-6622
▁जीर्ण	-6623
▁मूर्त	-6624
▁सनातनः	-6625
▁सूत्रेण	-6626
प्री	-6627
र्धं	-6628
▁ऋषि	-6629
▁एके	-6630
▁गतौ	-6631
▁चाय	-6632
▁चोद	-6633
▁जित	-6634
▁राव	-6635
ज्ञाः	-6636
्यानि	-6637
▁कारक	-6638
▁तदन्त	-6639
▁भविता	-6640
▁संपाद	-6641
वर्षाणि	-6642
सिद्धिः	-6643
▁करोतुः	-6644
▁संहिता	-6645
▁सम्यग्	-6646
▁प्रोक्तो	-6647
▁विशेषणम्	-6648
▁प्रसिद्धः	-6649
).	-6650
तथ	-6651
देः	-6652
लास	-6653
सञ्	-6654
ुर्	-6655
▁धर	-6656
ायेत	-6657
▁अभय	-6658
▁रुच	-6659
▁प्रौ	-6660
▁वारं	-6661
▁श्वे	-6662
न्यत्र	-6663
▁फलानि	-6664
क्षिप्त	-6665
▁पञ्चदश	-6666
▁प्रणाली	-6667
▁निवर्तते	-6668
▁परिसन्धिं	-6669
छि	-6670
थी	-6671
वतः	-6672
▁५२	-6673
अत्र	-6674
भारत	-6675
भूषण	-6676
ाण्य	-6677
ितया	-6678
▁उगु	-6679
▁तज्	-6680
▁ताद	-6681
▁मद्	-6682
▁वाव	-6683
द्विष	-6684
भवेत्	-6685
विश्य	-6686
संभवः	-6687
▁अहिं	-6688
▁उपास	-6689
▁ज्ञा	-6690
▁शिशु	-6691
▁साङ्	-6692
त्मानं	-6693
निर्मा	-6694
▁भर्ती	-6695
▁यज्ञं	-6696
▁पर्यन्तं	-6697
6.	-6698
४१	-6699
योप	-6700
ेनं	-6701
द्वी	-6702
▁ताड	-6703
ञ्जीत	-6704
▁थःगु	-6705
▁भवतो	-6706
ञ्चित्	-6707
मार्गे	-6708
▁अक्षर	-6709
▁जुयाः	-6710
▁स्त्र	-6711
▁साक्षा	-6712
भ्यन्तरे	-6713
▁परमार्थ	-6714
▁संबन्धः	-6715
▁स्वात्म	-6716
▁किमर्थम्	-6717
II	-6718
ड़ा	-6719
जन्त	-6720
त्रय	-6721
द्भि	-6722
ात्त	-6723
्योः	-6724
▁पान	-6725
क्षये	-6726
त्तमः	-6727
त्थाय	-6728
पत्नी	-6729
ोऽप्य	-6730
▁जननी	-6731
▁जातु	-6732
▁नृपः	-6733
▁भयम्	-6734
▁महाव	-6735
▁रिपु	-6736
शिक्षा	-6737
▁अद्भु	-6738
▁धारणा	-6739
▁सरस्व	-6740
त्सर्वं	-6741
▁मार्गः	-6742
ब्राह्मण	-6743
▁पुस्तके	-6744
▁राज्यस्य	-6745
pe	-6746
ud	-6747
व्	-6748
▁↑	-6749
नैव	-6750
पनं	-6751
▁Ch	-6752
▁हू	-6753
▁५१	-6754
क्षत	-6755
राजः	-6756
राशि	-6757
शत्र	-6758
▁अलं	-6759
▁उभे	-6760
▁धना	-6761
दाहरण	-6762
▁किलो	-6763
▁दूरं	-6764
▁परतः	-6765
ुच्यते	-6766
▁एकमेव	-6767
▁किंचि	-6768
पार्श्व	-6769
▁पितामह	-6770
▁वाक्ये	-6771
▁ध्यात्वा	-6772
:2	-6773
ory	-6774
▁दध	-6775
जीवि	-6776
द्रं	-6777
द्वे	-6778
मप्य	-6779
ल्ला	-6780
▁हार	-6781
▁आवेद	-6782
▁जितः	-6783
▁वारि	-6784
▁शर्म	-6785
▁स्नि	-6786
▁अर्थे	-6787
▁गुप्त	-6788
▁जीवित	-6789
प्राप्य	-6790
▁कन्यां	-6791
▁कश्चिद	-6792
▁यत्नतः	-6793
▁प्रदेशः	-6794
▁विकल्पः	-6795
▁साक्षात्कार	-6796
तीत	-6797
माच	-6798
ेश्च	-6799
▁आशि	-6800
▁मनी	-6801
▁सैव	-6802
अस्ति	-6803
▁पर्ज	-6804
▁शक्यः	-6805
च्यन्ते	-6806
▁अज्ञान	-6807
▁वसिष्ठ	-6808
▁म्रियते	-6809
▁लक्षणम्	-6810
▁प्रतिकूल	-6811
०६	-6812
४९	-6813
▁छा	-6814
घातः	-6815
सर्प	-6816
▁औसत	-6817
यात्र	-6818
▁2016	-6819
▁सागर	-6820
लक्षणा	-6821
संहिता	-6822
▁ब्रुव	-6823
▁मितिः	-6824
चिन्त्य	-6825
ितमस्ति	-6826
▁दूरभाष	-6827
▁अत्यधिक	-6828
▁इतिहासः	-6829
▁पृथिवीं	-6830
▁प्रयच्छति	-6831
▁"'	-6832
▁07	-6833
पाठः	-6834
लिया	-6835
स्वर	-6836
▁कवच	-6837
कुमार	-6838
▁चतुः	-6839
▁धनम्	-6840
▁पप्र	-6841
▁सूची	-6842
क्षणिक	-6843
▁विधेय	-6844
स्त्वया	-6845
▁रूपांतरण	-6846
कै	-6847
टल	-6848
षट्	-6849
▁00	-6850
▁नच	-6851
र्घट	-6852
▁अथो	-6853
▁कथां	-6854
▁महता	-6855
प्नोति	-6856
▁उपकरण	-6857
▁मुनिः	-6858
▁सुप्त	-6859
▁ऊर्ध्व	-6860
▁पुत्री	-6861
▁मूल्यं	-6862
▁व्याधि	-6863
▁अन्तर्ज	-6864
▁विद्यालयं	-6865
ड्ड	-6866
तरे	-6867
दृढ	-6868
▁यि	-6869
दुर्	-6870
रामि	-6871
ापृथ	-6872
▁आया	-6873
▁रथं	-6874
▁वरु	-6875
▁सोप	-6876
वर्ति	-6877
▁उष्ण	-6878
▁दोषा	-6879
▁विरु	-6880
▁सीमा	-6881
▁गुह्य	-6882
▁ज्याझ	-6883
▁वेदित	-6884
कत्वात्	-6885
शक्त्या	-6886
▁आदित्य	-6887
▁चत्वारः	-6888
▁नित्यम्	-6889
▁व्याख्यान	-6890
मिद	-6891
हरे	-6892
▁वश	-6893
▁शम	-6894
ज्ञं	-6895
त्तो	-6896
मर्थ	-6897
ाःगु	-6898
▁पता	-6899
▁शाख	-6900
कर्तृ	-6901
गृहीत	-6902
र्यथा	-6903
▁मस्त	-6904
▁मुमु	-6905
▁यत्न	-6906
विशेषण	-6907
▁नृणां	-6908
▁प्रेत	-6909
▁उपसर्ग	-6910
▁जानासि	-6911
▁इत्यादौ	-6912
▁स्थिताः	-6913
४२	-6914
ह्र	-6915
ागु	-6916
▁(.	-6917
▁चीन	-6918
▁हिम	-6919
ादेशे	-6920
▁अपरं	-6921
▁त्रय	-6922
▁वासु	-6923
▁सुतः	-6924
▁आचार्य	-6925
▁राज्ञा	-6926
▁इन्द्रः	-6927
▁ज्योतिः	-6928
▁परिकीर्त	-6929
▁प्रयुक्तम्	-6930
संग	-6931
ाव्	-6932
िंग	-6933
केगु	-6934
ष्ठी	-6935
▁घृत	-6936
▁मतं	-6937
▁हेम	-6938
vious	-6939
मूर्त	-6940
फलकम्ः	-6941
▁अगस्त	-6942
▁अवलोक	-6943
▁निबोध	-6944
▁स्थूल	-6945
▁प्रतिभा	-6946
▁स्पृष्ट	-6947
▁निर्देशः	-6948
▁विद्यार्थ	-6949
▁सर्वश्रेष्ठ	-6950
लौ	-6951
वित	-6952
▁झी	-6953
▁नीच	-6954
▁यन्	-6955
▁सूत	-6956
▁क्रय	-6957
▁दाता	-6958
कत्वेन	-6959
स्तथैव	-6960
स्तात्	-6961
ित्वात्	-6962
▁काचित्	-6963
▁भ्राता	-6964
▁वार्ता	-6965
तीत्यर्थः	-6966
▁स्थित्वा	-6967
▁सिद्धान्त	-6968
३७	-6969
५७	-6970
ard	-6971
देक	-6972
शता	-6973
▁खं	-6974
▁गग	-6975
कुरु	-6976
समान	-6977
सुखं	-6978
ेद्य	-6979
ग्रहे	-6980
धारणा	-6981
वासरे	-6982
हेतुः	-6983
▁शासन	-6984
▁सतां	-6985
▁मण्डल	-6986
रुच्यते	-6987
▁अष्टादश	-6988
▁ज्ञातुं	-6989
▁ज्ञानम्	-6990
▁विद्यां	-6991
▁तस्मिन्न	-6992
▁निर्माणं	-6993
▁शास्त्रं	-6994
▁परित्यज्य	-6995
▁विज्ञायते	-6996
ऽन	-6997
०७	-6998
ावः	-6999
ञ्चन	-7000
प्लव	-7001
मन्व	-7002
▁अस्	-7003
▁कम्	-7004
▁तिल	-7005
▁दशम	-7006
▁मणि	-7007
▁वेश	-7008
▁१९६	-7009
▁गान्	-7010
▁स्रो	-7011
त्वमेव	-7012
्राज्य	-7013
▁काराग	-7014
▁कुण्ड	-7015
▁कुरुत	-7016
▁प्रवे	-7017
▁मतदान	-7018
▁मातुः	-7019
▁राजनी	-7020
स्थानानि	-7021
▁त्रयोदश	-7022
▁दुर्लभं	-7023
▁प्राकृत	-7024
▁भविष्यसि	-7025
▁प्रतिज्ञा	-7026
▁कार्यान्वयन	-7027
ङः	-7028
▁on	-7029
घ्नं	-7030
ङ्ग्	-7031
च्चि	-7032
पेत्	-7033
▁भास	-7034
▁शता	-7035
पूज्य	-7036
▁उचित	-7037
▁गतिं	-7038
▁ध्वज	-7039
▁नेता	-7040
▁पुं॰	-7041
▁मारु	-7042
▁लाभः	-7043
▁एतेषु	-7044
▁विसर्ज	-7045
▁स्थानि	-7046
मुत्तमम्	-7047
▁तात्पर्य	-7048
99	-7049
यद	-7050
ain	-7051
शाः	-7052
line	-7053
गन्त	-7054
पूजा	-7055
श्मि	-7056
मुत्स	-7057
मृत्य	-7058
स्ताः	-7059
▁भूयो	-7060
▁महास	-7061
▁विवि	-7062
▁सकाश	-7063
सम्भवः	-7064
▁जुइगु	-7065
▁त्वत्	-7066
▁रिश्त	-7067
▁ग्रीष्	-7068
▁सप्तमी	-7069
▁सूत्रं	-7070
▁हिन्दु	-7071
▁प्रामाण	-7072
▁प्रत्यहं	-7073
▁सूर्यस्य	-7074
ks	-7075
भुव	-7076
लोच	-7077
ामा	-7078
▁08	-7079
ीयाः	-7080
▁खने	-7081
▁सरो	-7082
▁सर्	-7083
▁Tags	-7084
▁नन्द	-7085
जनानां	-7086
▁संरक्ष	-7087
▁सृष्टि	-7088
ानुसारेण	-7089
▁कुत्रापि	-7090
▁प्रतिभाति	-7091
चिव	-7092
तेि	-7093
दां	-7094
नोऽ	-7095
रिः	-7096
िणः	-7097
णामः	-7098
दस्य	-7099
देशो	-7100
ानपि	-7101
ृतिः	-7102
▁इका	-7103
▁घात	-7104
▁नाथ	-7105
▁पयः	-7106
काण्ड	-7107
ज्जीव	-7108
यन्तः	-7109
ृद्धि	-7110
▁कोवि	-7111
▁चतुर	-7112
▁विभो	-7113
धिकरणे	-7114
▁कीदृशं	-7115
▁ग्रहणं	-7116
▁छात्रः	-7117
▁प्रतिप	-7118
▁समर्थः	-7119
▁अत्रापि	-7120
▁स्मृताः	-7121
▁प्राप्नु	-7122
▁प्रतियोगिता	-7123
ड़े	-7124
tion	-7125
▁com	-7126
▁कलौ	-7127
▁ख्री	-7128
▁संनि	-7129
विभक्त	-7130
▁आरम्भ	-7131
▁जुलाई	-7132
▁द्याव	-7133
▁अदृष्ट	-7134
▁कीदृशः	-7135
▁भिक्षु	-7136
▁विभागः	-7137
▁चतुर्वि	-7138
▁पृच्छति	-7139
▁विशुद्ध	-7140
मथ	-7141
वेः	-7142
हनि	-7143
ेण्	-7144
▁सॊ	-7145
ंद्र	-7146
ग्वि	-7147
माम्	-7148
वक्त	-7149
▁जुल	-7150
न्त्व	-7151
र्ध्व	-7152
ानस्य	-7153
▁नानु	-7154
▁पूर्	-7155
▁यथैव	-7156
क्षणम्	-7157
▁व्रतं	-7158
▁सन्तः	-7159
▁सिंहः	-7160
▁स्वाय	-7161
▁क्वापि	-7162
▁पूर्णं	-7163
▁रात्रिः	-7164
▁स्मृतिः	-7165
५५	-7166
ail	-7167
पाक	-7168
भया	-7169
राच	-7170
▁or	-7171
▁फु	-7172
क्रमं	-7173
चेष्ट	-7174
द्यां	-7175
सन्ति	-7176
▁चानु	-7177
▁जीवने	-7178
▁नाट्य	-7179
▁देशकाल	-7180
▁वैश्वान	-7181
▁नियन्त्र	-7182
▁मित्राणि	-7183
▁इन्द्रिया	-7184
op	-7185
३६	-7186
४८	-7187
ेद्	-7188
णात्	-7189
▁आगम	-7190
▁शोष	-7191
तय्सं	-7192
त्र्त	-7193
विषया	-7194
ीयतां	-7195
▁बालः	-7196
उच्चार	-7197
▁आग्ने	-7198
▁उत्था	-7199
▁तत्सम	-7200
▁परमाणु	-7201
▁पुनश्च	-7202
▁वर्द्ध	-7203
▁सावधान	-7204
▁वाणिज्य	-7205
▁समन्ततः	-7206
▁प्रोक्तः	-7207
▁राष्ट्रं	-7208
▁विभक्तिः	-7209
आं	-7210
तरः	-7211
▁जर	-7212
▁००	-7213
ायोग	-7214
▁एति	-7215
▁शान	-7216
सूर्य	-7217
िकस्य	-7218
▁व्यप	-7219
▁लोकाः	-7220
▁परिश्र	-7221
▁द्रव्यं	-7222
▁स्नात्वा	-7223
9)	-7224
df	-7225
ey	-7226
यै	-7227
समू	-7228
िनं	-7229
▁कॉ	-7230
▁डी	-7231
▁लव	-7232
ण्यं	-7233
मिमं	-7234
ाङ्ग	-7235
ृताः	-7236
▁अहम	-7237
▁धाम	-7238
▁न्त	-7239
च्छाद	-7240
▁तेजो	-7241
▁ददृश	-7242
▁दारु	-7243
ज्ञाना	-7244
मार्गः	-7245
▁ध्याय	-7246
▁विदूष	-7247
भाष्यम्	-7248
मात्रम्	-7249
मार्गेण	-7250
साहित्य	-7251
ित्यादि	-7252
ैश्वर्य	-7253
▁अस्त्र	-7254
▁प्राणः	-7255
▁वर्षाः	-7256
▁पुत्रस्य	-7257
_1	-7258
:00	-7259
णीं	-7260
दया	-7261
▁05	-7262
▁Sh	-7263
नेषु	-7264
सेवा	-7265
हीनं	-7266
▁VER	-7267
म्बर्	-7268
यिष्य	-7269
▁क्षय	-7270
▁जन्त	-7271
▁दुरा	-7272
▁परां	-7273
▁मधुर	-7274
▁शैली	-7275
चिकित्	-7276
त्पन्न	-7277
▁अतिथि	-7278
▁तुष्ट	-7279
▁उद्घाट	-7280
▁कृत्रि	-7281
▁स्थितो	-7282
उच्चारणः	-7283
▁कुर्वीत	-7284
▁प्रकर्ष	-7285
▁प्राप्नुवन्ति	-7286
वता	-7287
शोभ	-7288
मुखे	-7289
▁अले	-7290
▁करु	-7291
▁भवं	-7292
क्षाः	-7293
नायां	-7294
रक्षा	-7295
श्रेण	-7296
स्पृश	-7297
▁गङ्ग	-7298
▁नाति	-7299
▁निशा	-7300
▁भूत्	-7301
▁VERSE	-7302
▁कस्या	-7303
▁तदर्थ	-7304
▁प्रणि	-7305
षिध्यते	-7306
▁सहस्रं	-7307
▁औपचारिक	-7308
▁श्रुतेः	-7309
▁दक्षिणां	-7310
age	-7311
सने	-7312
ासो	-7313
▁अः	-7314
▁तय	-7315
ावली	-7316
क्ष्व	-7317
ध्ययन	-7318
न्यां	-7319
▁द्वै	-7320
▁समरे	-7321
कारणम्	-7322
पूर्ति	-7323
ान्यपि	-7324
▁मान्य	-7325
▁यजमान	-7326
▁कृत्स्	-7327
▁शक्तिं	-7328
▁स्मृता	-7329
▁नियुक्त	-7330
▁वैशिष्ट	-7331
▁न्यायालय	-7332
▁संवत्सरे	-7333
▁प्रत्यक्षं	-7334
ऽथ	-7335
शान	-7336
शिख	-7337
ऽभि	-7338
▁कफ	-7339
यत्य	-7340
वासी	-7341
▁सखि	-7342
▁इतरे	-7343
▁गवां	-7344
▁नमस्	-7345
▁मद्य	-7346
▁मासि	-7347
▁ह्य्	-7348
▁अपराध	-7349
▁अष्टा	-7350
▁मुम्ब	-7351
▁लिङ्गं	-7352
▁समर्थन	-7353
▁सूर्यो	-7354
▁अन्तारा	-7355
▁उपयुक्त	-7356
▁प्रदेशे	-7357
योर्मध्ये	-7358
ृष	-7359
ॊप	-7360
५६	-7361
येद	-7362
सकं	-7363
ातं	-7364
▁36	-7365
▁ad	-7366
▁शश	-7367
▁५८	-7368
क्स्	-7369
धिपः	-7370
पिता	-7371
ष्ठः	-7372
▁एकल	-7373
▁ब्व	-7374
कृष्ण	-7375
▁गणना	-7376
▁तदुप	-7377
▁प्रत	-7378
▁पक्षः	-7379
▁यत्कि	-7380
ितवन्तः	-7381
ुमर्हति	-7382
▁रूपाणि	-7383
▁समाश्र	-7384
▁सुग्री	-7385
▁स्वस्व	-7386
▁अभिप्राय	-7387
कोऽ	-7388
वन्	-7389
▁घृ	-7390
▁तट	-7391
फलम्	-7392
वादे	-7393
स्यः	-7394
▁नाद	-7395
▁नैत	-7396
▁पाश	-7397
▁संव	-7398
द्वेष	-7399
येत्त	-7400
▁ह्यः	-7401
सङ्ग्र	-7402
िकीर्ष	-7403
▁एकत्र	-7404
▁ब्रवी	-7405
▁यज्ञे	-7406
▁वचनम्	-7407
▁समूहः	-7408
स्माभिः	-7409
▁महाबलः	-7410
माप्नोति	-7411
▁प्रतिमा	-7412
▁प्रपञ्च	-7413
▁व्रजेत्	-7414
▁स्वर्गे	-7415
दव	-7416
५९	-7417
ide	-7418
तैः	-7419
दीर	-7420
लाम	-7421
हते	-7422
▁हव	-7423
भेदा	-7424
▁तमा	-7425
▁फ्र	-7426
स्थाः	-7427
ानन्त	-7428
ोक्ता	-7429
▁जलम्	-7430
▁योनि	-7431
▁श्रे	-7432
द्वन्द	-7433
▁कविता	-7434
▁तमस्य	-7435
▁परिष्	-7436
▁प्रभव	-7437
▁आरम्भः	-7438
▁तृतीयं	-7439
▁नश्यति	-7440
▁विज्ञे	-7441
▁निषिद्ध	-7442
▁प्रधानं	-7443
▁अन्येषां	-7444
▁देवतानां	-7445
"'	-7446
घो	-7447
जां	-7448
सद्	-7449
ोधन	-7450
▁7.	-7451
ह्वा	-7452
िभिः	-7453
▁करी	-7454
▁तमो	-7455
▁नैक	-7456
▁पाक	-7457
▁वृह	-7458
काणां	-7459
द्वीप	-7460
▁आसान	-7461
▁योगः	-7462
▁सम्व	-7463
▁वित्तं	-7464
▁हित्वा	-7465
मिच्छामि	-7466
▁एतस्मिन्	-7467
डं	-7468
५१	-7469
ver	-7470
खें	-7471
चुः	-7472
मये	-7473
▁हत	-7474
मासी	-7475
▁आचर	-7476
▁चिं	-7477
▁रुद	-7478
शान्त	-7479
▁भस्म	-7480
▁सोमः	-7481
ज्ञाने	-7482
▁समाधि	-7483
▁स्वयम	-7484
▁कृष्णः	-7485
▁गन्तुं	-7486
▁पृथ्वी	-7487
शास्त्रं	-7488
शास्त्रे	-7489
▁प्रबन्ध	-7490
▁प्रोवाच	-7491
▁श्रुतम्	-7492
▁समाप्तः	-7493
ha	-7494
up	-7495
एत	-7496
०९	-7497
चाः	-7498
जति	-7499
मतं	-7500
▁नभ	-7501
▁बर	-7502
▁५३	-7503
वस्त	-7504
स्लि	-7505
ाच्च	-7506
▁अश्	-7507
▁कोट	-7508
▁घटः	-7509
▁दाव	-7510
▁निं	-7511
▁भाई	-7512
मन्दि	-7513
ितान्	-7514
▁मांस	-7515
▁लम्ब	-7516
प्रियः	-7517
▁चक्षुः	-7518
▁नेत्रे	-7519
▁रहस्यं	-7520
▁वृक्षः	-7521
▁हेतुना	-7522
▁व्याप्त	-7523
▁Previous	-7524
घं	-7525
भृ	-7526
४४	-7527
ies	-7528
नाह	-7529
षम्	-7530
ानग	-7531
▁दय	-7532
▁दस	-7533
▁नद	-7534
▁लः	-7535
▁आशा	-7536
▁सुभ	-7537
▁हतः	-7538
ग्रहं	-7539
द्वये	-7540
न्येन	-7541
संसार	-7542
▁यूपी	-7543
▁शुल्	-7544
▁धीमतः	-7545
▁मर्या	-7546
▁अज्ञात	-7547
▁आरक्षण	-7548
▁आवश्यक	-7549
▁कार्यो	-7550
▁पित्रा	-7551
▁साहाय्यं	-7552
ra	-7553
मस	-7554
ary	-7555
करी	-7556
कुम	-7557
क्ख	-7558
दाव	-7559
दुः	-7560
ेता	-7561
कामा	-7562
द्दे	-7563
मुखी	-7564
वाचक	-7565
स्रः	-7566
तायां	-7567
▁आवां	-7568
▁जनता	-7569
▁जर्म	-7570
▁निशि	-7571
▁अहमेव	-7572
▁आदेशः	-7573
▁ग्रही	-7574
▁दत्वा	-7575
▁दिष्ट	-7576
▁सवर्ण	-7577
▁होवाच	-7578
▁अन्तर्	-7579
▁कर्मणः	-7580
▁सत्यम्	-7581
भिप्रायः	-7582
▁ऊर्ध्वं	-7583
▁पप्रच्छ	-7584
▁स्थानम्	-7585
यतो	-7586
▁be	-7587
तस्त	-7588
वाचि	-7589
ान्स	-7590
ैर्म	-7591
▁गतं	-7592
पात्र	-7593
स्वतः	-7594
▁करणं	-7595
▁तेजः	-7596
▁दिक्	-7597
प्रवाह	-7598
▁अथातः	-7599
▁ऊर्जा	-7600
▁मंत्र	-7601
क्षिप्य	-7602
व्यमिति	-7603
▁मासस्य	-7604
▁केनचित्	-7605
▁निश्चयः	-7606
▁परामर्श	-7607
▁पुत्राः	-7608
▁महत्त्वपूर्ण	-7609
ठा	-7610
लम	-7611
कोष	-7612
तिर	-7613
ेदे	-7614
्ति	-7615
ight	-7616
▁२०६	-7617
माःगु	-7618
सृत्य	-7619
▁तथाच	-7620
▁वाहन	-7621
▁हविष	-7622
सहस्रं	-7623
स्थितौ	-7624
▁अपितु	-7625
▁पितरं	-7626
▁विषया	-7627
▁तद्वत्	-7628
▁भवितुं	-7629
▁सर्वां	-7630
▁कौन्तेय	-7631
▁प्राप्तो	-7632
▁द्यावापृथ	-7633
▁विश्वविद्यालय	-7634
qu	-7635
ुक	-7636
▁i	-7637
ord	-7638
धेय	-7639
लाघ	-7640
विं	-7641
▁घु	-7642
द्धे	-7643
युतं	-7644
रचना	-7645
विकि	-7646
▁कन्	-7647
▁षण्	-7648
मादाय	-7649
स्तम्	-7650
▁बोधि	-7651
▁सफलं	-7652
▁आसपास	-7653
▁ततस्त	-7654
▁तथाहि	-7655
▁पाठ्य	-7656
▁प्रयत	-7657
ष्टाचार	-7658
▁कीर्ति	-7659
▁अध्ययनं	-7660
▁राजधानी	-7661
▁विप्रति	-7662
▁सहस्रशः	-7663
फि	-7664
दूर	-7665
हरं	-7666
हाय	-7667
▁31	-7668
▁इ॒	-7669
▁वध	-7670
ears	-7671
▁इवा	-7672
▁तूं	-7673
▁नाह	-7674
▁बहू	-7675
विधाः	-7676
▁जल्प	-7677
▁फोटो	-7678
कर्म्म	-7679
▁अत्या	-7680
▁कतिपय	-7681
▁अनिवार	-7682
▁तस्मान्	-7683
▁परीणामः	-7684
▁प्रख्या	-7685
▁मनुष्यः	-7686
▁विष्णुः	-7687
DF	-7688
ia	-7689
हौ	-7690
४६	-7691
५२	-7692
ast	-7693
जते	-7694
नाप	-7695
पदी	-7696
ामे	-7697
▁७६	-7698
काशं	-7699
सञ्च	-7700
ह्ने	-7701
▁अचि	-7702
▁अमु	-7703
▁धरण	-7704
▁वेग	-7705
▁शंस	-7706
तिहास	-7707
पदानि	-7708
व्याप	-7709
ान्वि	-7710
▁अर्ह	-7711
▁परमो	-7712
▁शुचि	-7713
क्षितः	-7714
ित्वेन	-7715
▁आक्रम	-7716
▁भूमिः	-7717
▁साक्षी	-7718
▁प्रमाणम्	-7719
▁योगदानानि	-7720
▁राष्ट्रस्य	-7721
बः	-7722
वल	-7723
मेय	-7724
हिः	-7725
ोर्	-7726
अधिक	-7727
कामः	-7728
व्यय	-7729
▁आपो	-7730
▁गां	-7731
▁लग्	-7732
▁वत्	-7733
▁सकृ	-7734
साधनं	-7735
▁ऋग्व	-7736
▁त्वि	-7737
▁निगम	-7738
▁पुरं	-7739
▁मार्	-7740
▁मुखे	-7741
▁वहति	-7742
▁सानु	-7743
▁क्रमः	-7744
▁उपलब्ध	-7745
▁नगरस्य	-7746
▁वृत्तं	-7747
▁शुद्धं	-7748
▁श्रेयः	-7749
▁संवेदन	-7750
▁सदस्यः	-7751
निमित्तं	-7752
▁वक्ष्ये	-7753
▁सहस्त्र	-7754
▁ब्रह्माण्ड	-7755
:3	-7756
log	-7757
lok	-7758
मेः	-7759
संप	-7760
▁38	-7761
▁8.	-7762
▁IS	-7763
▁रं	-7764
कामं	-7765
गामि	-7766
सङ्घ	-7767
▁आसन	-7768
▁भवत	-7769
▁होम	-7770
कृतेन	-7771
▁कुले	-7772
▁स्थल	-7773
▁तावद्	-7774
▁भगिनी	-7775
▁युवां	-7776
▁वसन्त	-7777
▁व्यभि	-7778
▁समासः	-7779
प्रार्थ	-7780
▁संसर्ग	-7781
▁सिद्धं	-7782
▁अन्वेषण	-7783
▁शैक्षिक	-7784
▁संस्थाप्य	-7785
7)	-7786
नू	-7787
इदं	-7788
डाग	-7789
धरः	-7790
धिव	-7791
गतिः	-7792
डियो	-7793
तःगु	-7794
मतिः	-7795
▁इदम	-7796
क्षरं	-7797
▁ऐश्व	-7798
▁दिशो	-7799
▁मल्ल	-7800
▁यीशु	-7801
▁रत्न	-7802
देवस्य	-7803
न्यासः	-7804
वृत्तं	-7805
▁अन्नं	-7806
▁अभूत्	-7807
▁उभयोः	-7808
▁देवेश	-7809
▁समवाय	-7810
▁मन्यसे	-7811
▁मर्त्य	-7812
▁महाबाह	-7813
▁प्रणम्य	-7814
▁युक्तम्	-7815
पठ	-7816
वह	-7817
गमः	-7818
ग्म	-7819
ञ्ञ	-7820
▁th	-7821
▁इन	-7822
▁उष	-7823
तिम्	-7824
र्थक	-7825
र्धे	-7826
▁अपा	-7827
▁कात	-7828
▁दीन	-7829
▁भीत	-7830
▁रेफ	-7831
▁रोद	-7832
ञ्जलि	-7833
र्तुं	-7834
वृष्ट	-7835
▁इलय्	-7836
▁करने	-7837
▁देहं	-7838
▁रङ्ग	-7839
▁वाजि	-7840
व्यानि	-7841
▁खाद्य	-7842
▁दुर्व	-7843
▁भासते	-7844
▁मातरं	-7845
▁विवरण	-7846
▁शिष्ट	-7847
क्ष्यति	-7848
त्वाच्च	-7849
▁अकथयत्	-7850
▁क्षिति	-7851
▁विरोधः	-7852
▁स्यान्	-7853
कार्येषु	-7854
▁अधिकारः	-7855
▁भवत्येव	-7856
▁मन्त्री	-7857
▁स्वागतं	-7858
▁प्रतीक्ष	-7859
▁वर्तमानः	-7860
▁कार्यकारण	-7861
br	-7862
de	-7863
ie	-7864
०८	-7865
pal	-7866
टर्	-7867
ऽऽह	-7868
▁६८	-7869
नगरं	-7870
माला	-7871
युगे	-7872
रोधः	-7873
र्षः	-7874
वहार	-7875
षेधा	-7876
ाद्र	-7877
ामपि	-7878
ैरेव	-7879
ोपाय	-7880
▁अधी	-7881
▁अल्	-7882
▁तृण	-7883
▁पते	-7884
▁यमः	-7885
▁वपु	-7886
पुरस्	-7887
ब्रुव	-7888
▁हिरण	-7889
धिकारि	-7890
▁मधुरं	-7891
▁स्मार	-7892
▁धर्मेण	-7893
▁संध्या	-7894
▁सातवां	-7895
▁हिरण्य	-7896
▁आश्चर्य	-7897
▁क्रान्त	-7898
▁पश्चाद्	-7899
▁वृक्षाः	-7900
▁स्तोत्र	-7901
▁परमेश्वर	-7902
यर	-7903
३८	-7904
oun	-7905
▁SP	-7906
पश्च	-7907
बीसी	-7908
म्या	-7909
▁आरा	-7910
कालिक	-7911
ष्याः	-7912
स्माद	-7913
ुत्वा	-7914
▁जाते	-7915
▁द्यू	-7916
▁पञ्ज	-7917
▁वयसि	-7918
ज्योति	-7919
विश्वा	-7920
ानुष्ठ	-7921
▁भूमिं	-7922
▁वाच्य	-7923
▁अन्तरा	-7924
▁फलकम्ः	-7925
त्वादिति	-7926
समन्वितः	-7927
▁ध्रुवम्	-7928
▁भविष्यामि	-7929
▁व्यवस्थापन	-7930
',	-7931
जेन	-7932
ताय	-7933
▁ओष	-7934
▁डे	-7935
भवन्	-7936
▁अक्	-7937
▁जम्	-7938
▁जरा	-7939
▁सवि	-7940
कल्या	-7941
चक्षु	-7942
त्वार	-7943
वादने	-7944
साधार	-7945
▁गणित	-7946
दृष्टि	-7947
▁जाताः	-7948
▁मूर्ध	-7949
▁युध्य	-7950
▁स्वकी	-7951
ज्यन्ते	-7952
स्यन्ति	-7953
▁ज्ञानि	-7954
▁ज्ञेया	-7955
▁त्रिषु	-7956
▁लोकान्	-7957
▁समावेश	-7958
▁सूक्ष्	-7959
▁उक्त्वा	-7960
▁वीक्ष्य	-7961
▁कृतवन्तः	-7962
ठी	-7963
५८	-7964
ist	-7965
कोट	-7966
तिश	-7967
दिह	-7968
पुट	-7969
मनि	-7970
ालन	-7971
ैवा	-7972
निरा	-7973
सितं	-7974
▁राय	-7975
भूताः	-7976
मुवाच	-7977
यार्थ	-7978
वर्गः	-7979
सर्वे	-7980
ोऽत्र	-7981
▁इत्थ	-7982
▁शेषे	-7983
त्तमम्	-7984
▁गतिम्	-7985
▁तत्तु	-7986
▁दण्डः	-7987
▁दुर्य	-7988
▁निरोध	-7989
▁वेदना	-7990
▁उत्साह	-7991
▁कर्तरि	-7992
▁दुर्घट	-7993
▁परिपाल	-7994
ेत्यर्थः	-7995
▁तस्यापि	-7996
▁निश्चित	-7997
▁सर्वज्ञ	-7998
प्राप्तिः	-7999
▁ज्याझ्वः	-8000
▁	-8001
्	-8002
ा	-8003
त	-8004
र	-8005
ि	-8006
य	-8007
न	-8008
व	-8009
स	-8010
म	-8011
े	-8012
क	-8013
प	-8014
ं	-8015
द	-8016
ः	-8017
ु	-8018
।	-8019
ष	-8020
श	-8021
ो	-8022
ह	-8023
च	-8024
भ	-8025
ी	-8026
ल	-8027
ग	-8028
ध	-8029
अ	-8030
ण	-8031
ज	-8032
थ	-8033
ृ	-8034
-	-8035
ू	-8036
इ	-8037
ब	-8038
.	-8039
ट	-8040
ै	-8041
॥	-8042
ए	-8043
,	-8044
ख	-8045
आ	-8046
"	-8047
उ	-8048
ञ	-8049
ौ	-8050
१	-8051
(	-8052
ऽ	-8053
)	-8054
०	-8055
ड	-8056
ङ	-8057
२	-8058
_	-8059
ठ	-8060
छ	-8061
'	-8062
1	-8063
e	-8064
घ	-8065
a	-8066
2	-8067
0	-8068
?	-8069
i	-8070
फ	-8071
s	-8072
३	-8073
o	-8074
४	-8075
t	-8076
५	-8077
r	-8078
n	-8079
॒	-8080
९	-8081
६	-8082
७	-8083
८	-8084
3	-8085
ई	-8086
/	-8087
:	-8088
4	-8089
l	-8090
5	-8091
ॊ	-8092
॑	-8093
!	-8094
m	-8095
d	-8096
8	-8097
9	-8098
c	-8099
S	-8100
6	-8101
7	-8102
=	-8103
[	-8104
g	-8105
]	-8106
u	-8107
h	-8108
ँ	-8109
p	-8110
;	-8111
ढ	-8112
y	-8113
+	-8114
औ	-8115
ऋ	-8116
v	-8117
A	-8118
I	-8119
़	-8120
*	-8121
b	-8122
ॐ	-8123
T	-8124
f	-8125
P	-8126
C	-8127
ओ	-8128
>	-8129
k	-8130
ऊ	-8131
N	-8132
w	-8133
झ	-8134
E	-8135
M	-8136
D	-8137
B	-8138
x	-8139
R	-8140
L	-8141
॰	-8142
H	-8143
#	-8144
ऐ	-8145
O	-8146
F	-8147
ळ	-8148
ॆ	-8149
V	-8150
ॉ	-8151
G	-8152
U	-8153
@	-8154
ॄ	-8155
%	-8156
$	-8157
{	-8158
<	-8159
}	-8160
X	-8161
K	-8162
&	-8163
W	-8164
•	-8165
→	-8166
j	-8167
J	-8168
Y	-8169
z	-8170
ऑ	-8171
Q	-8172
~	-8173
ꣳ	-8174
ॅ	-8175
←	-8176
^	-8177
q	-8178
̣	-8179
·	-8180
ऎ	-8181
ā	-8182
᳚	-8183
↑	-8184
°	-8185
ʻ	-8186
ऩ	-8187
ʼ	-8188
̇	-8189
\	-8190
Z	-8191
›	-8192
►	-8193
ऱ	-8194
᳘	-8195
×	-8196
¦	-8197
്	-8198
Í	-8199
ऌ	-8200
̄	-8201
̐	-8202
ॠ	-8203
உ	-8204
о	-8205
÷	-8206
‖	-8207
️	-8208
а	-8209
−	-8210
ḥ	-8211
●	-8212
🙏	-8213
€	-8214
Ś	-8215
ર	-8216
்	-8217
ū	-8218
≤	-8219
ऍ	-8220
્	-8221
́	-8222
ا	-8223
е	-8224
н	-8225
¬	-8226
ॢ	-8227
ા	-8228
р	-8229
ऴ	-8230
л	-8231
₹	-8232
ü	-8233
т	-8234
৷	-8235
и	-8236
Ø	-8237
é	-8238
σ	-8239
ə	-8240
ന	-8241
√	-8242
ī	-8243
£	-8244
с	-8245
👉	-8246
꣢	-8247
ś	-8248
в	-8249
ل	-8250
ക	-8251
ṣ	-8252
д	-8253
★	-8254
ન	-8255
ാ	-8256
‐	-8257
ь	-8258
॓	-8259
ી	-8260
≥	-8261
◆	-8262
ம	-8263
✔	-8264
ત	-8265
ி	-8266
ー	-8267
꣣	-8268
ે	-8269
ா	-8270
ി	-8271
ં	-8272
મ	-8273
த	-8274
ു	-8275
‡	-8276
⇒	-8277
❍	-8278
🔊	-8279
á	-8280
î	-8281
¥	-8282
ñ	-8283
¢	-8284
ن	-8285
꣡	-8286
ó	-8287
Ž	-8288
ர	-8289
🙂	-8290
©	-8291
м	-8292
ത	-8293
⁄	-8294
🇳	-8295
🪔	-8296
§	-8297
у	-8298
я	-8299
ر	-8300
م	-8301
ي	-8302
ऄ	-8303
જ	-8304
ો	-8305
ṇ	-8306
і	-8307
【	-8308
🇮	-8309
ˆ	-8310
к	-8311
་	-8312
🚩	-8313
ı	-8314
🌷	-8315
б	-8316
й	-8317
ऺ	-8318
್	-8319
】	-8320
¤	-8321
ç	-8322
í	-8323
̥	-8324
ક	-8325
ய	-8326
ര	-8327
വ	-8328
語	-8329
🌹	-8330
ு	-8331
י	-8332
વ	-8333
ப	-8334
வ	-8335
♦	-8336
Î	-8337
ː	-8338
г	-8339
з	-8340
্	-8341
આ	-8342
∕	-8343
à	-8344
è	-8345
ˈ	-8346
പ	-8347
া	-8348
સ	-8349
ം	-8350
ട	-8351
െ	-8352
ᳪ	-8353
Ó	-8354
د	-8355
س	-8356
க	-8357
ந	-8358
❌	-8359
®	-8360
п	-8361
ц	-8362
ऒ	-8363
ন	-8364
ன	-8365
ನ	-8366
യ	-8367
✅	-8368
ع	-8369
ه	-8370
ತ	-8371
ങ	-8372
മ	-8373
ṭ	-8374
い	-8375
ö	-8376
х	-8377
ی	-8378
ত	-8379
પ	-8380
બ	-8381
ல	-8382
ಾ	-8383
ṛ	-8384
†	-8385
ィ	-8386
🔥	-8387
â	-8388
ɪ	-8389
ب	-8390
ऻ	-8391
ি	-8392
હ	-8393
ರ	-8394
അ	-8395
‹	-8396
⇄	-8397
✍	-8398
🛑	-8399
ú	-8400
ɑ	-8401
С	-8402
ж	-8403
ו	-8404
র	-8405
ગ	-8406
్	-8407
ಿ	-8408
ച	-8409
ല	-8410
᳭	-8411
ン	-8412
🌺	-8413
¡	-8414
±	-8415
ï	-8416
ş	-8417
̊	-8418
μ	-8419
ы	-8420
॔	-8421
િ	-8422
⋙	-8423
■	-8424
▲	-8425
❑	-8426
🌞	-8427
📖	-8428
Ï	-8429
ã	-8430
ł	-8431
š	-8432
̈	-8433
М	-8434
و	-8435
ܘ	-8436
ॡ	-8437
ম	-8438
એ	-8439
છ	-8440
ય	-8441
ು	-8442
ദ	-8443
ോ	-8444
၊	-8445
✓	-8446
❤	-8447
➧	-8448
🏻	-8449
🕉	-8450
α	-8451
Б	-8452
ت	-8453
ু	-8454
ದ	-8455
ṃ	-8456
′	-8457
∠	-8458
◎	-8459
ヒ	-8460
一	-8461
语	-8462
ê	-8463
ʊ	-8464
ю	-8465
ה	-8466
ى	-8467
ک	-8468
ক	-8469
দ	-8470
૧	-8471
அ	-8472
ి	-8473
ಂ	-8474
ಲ	-8475
ണ	-8476
ള	-8477
❯	-8478
。	-8479
し	-8480
の	-8481
デ	-8482
マ	-8483
🌸	-8484
💐	-8485
😂	-8486
¶	-8487
Þ	-8488
İ	-8489
ʃ	-8490
̃	-8491
ч	-8492
א	-8493
ב	-8494
য	-8495
ુ	-8496
ం	-8497
న	-8498
ర	-8499
ಸ	-8500
ᄌ	-8501
ḍ	-8502
ṁ	-8503
◉	-8504
◌	-8505
☝	-8506
➡	-8507
図	-8508
大	-8509
書	-8510
月	-8511
À	-8512
È	-8513
̶	-8514
Х	-8515
щ	-8516
ר	-8517
ش	-8518
ব	-8519
ল	-8520
স	-8521
ে	-8522
ટ	-8523
શ	-8524
ழ	-8525
ಕ	-8526
ಗ	-8527
ವ	-8528
೦	-8529
റ	-8530
േ	-8531
▶	-8532
◦	-8533
☆	-8534
⭐	-8535
か	-8536
ラ	-8537
增	-8538
전	-8539
💮	-8540
🔱	-8541
😊	-8542
Æ	-8543
Ç	-8544
Ü	-8545
ý	-8546
ē	-8547
Š	-8548
ɛ	-8549
П	-8550
ט	-8551
ס	-8552
ॿ	-8553
আ	-8554
ো	-8555
ਕ	-8556
થ	-8557
દ	-8558
ળ	-8559
ட	-8560
ண	-8561
ெ	-8562
య	-8563
వ	-8564
ు	-8565
ಡ	-8566
ಯ	-8567
ೆ	-8568
ശ	-8569
സ	-8570
ൊ	-8571
∆	-8572
▪	-8573
♂	-8574
♥	-8575
お	-8576
つ	-8577
テ	-8578
余	-8579
名	-8580
音	-8581
다	-8582
🔹	-8583
Ê	-8584
æ	-8585
ĉ	-8586
ō	-8587
ž	-8588
̧	-8589
θ	-8590
π	-8591
В	-8592
Д	-8593
Т	-8594
є	-8595
מ	-8596
ء	-8597
ح	-8598
ز	-8599
ق	-8600
گ	-8601
ܬ	-8602
উ	-8603
হ	-8604
ਾ	-8605
ણ	-8606
ભ	-8607
எ	-8608
ற	-8609
ோ	-8610
త	-8611
మ	-8612
ా	-8613
ಳ	-8614
എ	-8615
ധ	-8616
∴	-8617
す	-8618
な	-8619
パ	-8620
ル	-8621
年	-8622
行	-8623
꣯	-8624
사	-8625
🌻	-8626
🌿	-8627
🍃	-8628
🔅	-8629
Û	-8630
Ā	-8631
Œ	-8632
Ş	-8633
ż	-8634
ǁ	-8635
ˌ	-8636
ς	-8637
φ	-8638
Ј	-8639
А	-8640
Н	-8641
Р	-8642
ш	-8643
э	-8644
ל	-8645
ة	-8646
ف	-8647
ہ	-8648
۔	-8649
ە	-8650
জ	-8651
থ	-8652
প	-8653
়	-8654
ਰ	-8655
ੀ	-8656
અ	-8657
ઉ	-8658
ି	-8659
ಪ	-8660
ಮ	-8661
ೀ	-8662
ഗ	-8663
ജ	-8664
ഷ	-8665
ས	-8666
ა	-8667
ṅ	-8668
‒	-8669
⇔	-8670
∫	-8671
⋆	-8672
▼	-8673
♀	-8674
⛳	-8675
✳	-8676
❇	-8677
あ	-8678
く	-8679
シ	-8680
ズ	-8681
ネ	-8682
亦	-8683
知	-8684
음	-8685
🌄	-8686
🍁	-8687
📚	-8688
🔗	-8689
🔶	-8690
😀	-8691
😃	-8692
😎	-8693
😞	-8694
😢	-8695
Ì	-8696
Ð	-8697
ß	-8698
ä	-8699
ì	-8700
ô	-8701
ø	-8702
ę	-8703
Ō	-8704
œ	-8705
ƒ	-8706
ǀ	-8707
ʒ	-8708
̕	-8709
Δ	-8710
Ι	-8711
ή	-8712
β	-8713
ι	-8714
ρ	-8715
Ц	-8716
Э	-8717
ї	-8718
פ	-8719
ئ	-8720
ك	-8721
ܐ	-8722
ܒ	-8723
ܛ	-8724
ܦ	-8725
ܪ	-8726
গ	-8727
ধ	-8728
ਲ	-8729
ધ	-8730
ફ	-8731
લ	-8732
ૐ	-8733
૦	-8734
૪	-8735
இ	-8736
ஜ	-8737
ள	-8738
ஶ	-8739
ஷ	-8740
ொ	-8741
క	-8742
ల	-8743
స	-8744
ആ	-8745
ഇ	-8746
ഉ	-8747
ഞ	-8748
්	-8749
།	-8750
᳖	-8751
―	-8752
‰	-8753
※	-8754
≍	-8755
⏳	-8756
◄	-8757
♣	-8758
⛅	-8759
➛	-8760
➢	-8761
➤	-8762
た	-8763
っ	-8764
て	-8765
と	-8766
ッ	-8767
リ	-8768
不	-8769
义	-8770
亲	-8771
人	-8772
何	-8773
僕	-8774
十	-8775
可	-8776
国	-8777
如	-8778
尔	-8779
应	-8780
彼	-8781
愛	-8782
我	-8783
故	-8784
无	-8785
氣	-8786
的	-8787
觉	-8788
試	-8789
论	-8790
靈	-8791
기	-8792
낱	-8793
니	-8794
말	-8795
세	-8796
위	-8797
이	-8798
키	-8799
하	-8800
👇	-8801
👌	-8802
🔍	-8803
😜	-8804
😡	-8805
😳	-8806
¿	-8807
Á	-8808
Â	-8809
Ã	-8810
Ö	-8811
ð	-8812
ò	-8813
õ	-8814
ć	-8815
č	-8816
ě	-8817
ğ	-8818
į	-8819
ř	-8820
Ÿ	-8821
ɔ	-8822
ɜ	-8823
ʁ	-8824
ʏ	-8825
Ψ	-8826
δ	-8827
η	-8828
κ	-8829
ν	-8830
ο	-8831
τ	-8832
З	-8833
И	-8834
Й	-8835
О	-8836
У	-8837
ג	-8838
ש	-8839
ת	-8840
آ	-8841
إ	-8842
ج	-8843
پ	-8844
چ	-8845
ܣ	-8846
ং	-8847
ট	-8848
ৰ	-8849
ৱ	-8850
ਮ	-8851
ਸ	-8852
ੋ	-8853
੍	-8854
ઃ	-8855
ચ	-8856
ઞ	-8857
ડ	-8858
ષ	-8859
૯	-8860
ஸ	-8861
ீ	-8862
ே	-8863
భ	-8864
ಉ	-8865
ಎ	-8866
ಚ	-8867
ಬ	-8868
ಶ	-8869
ಹ	-8870
೨	-8871
ഈ	-8872
ബ	-8873
ീ	-8874
ർ	-8875
ൾ	-8876
ක	-8877
ය	-8878
ව	-8879
ා	-8880
ි	-8881
ག	-8882
ུ	-8883
გ	-8884
ზ	-8885
ი	-8886
ᄉ	-8887
ᅩ	-8888
ጻ	-8889
ᛁ	-8890
ᛖ	-8891
ᴇ	-8892
Ṛ	-8893
Ủ	-8894
⃣	-8895
↔	-8896
∈	-8897
≈	-8898
◇	-8899
☀	-8900
✥	-8901
✴	-8902
❁	-8903
➜	-8904
う	-8905
き	-8906
だ	-8907
ま	-8908
ら	-8909
る	-8910
を	-8911
ア	-8912
コ	-8913
ス	-8914
タ	-8915
チ	-8916
ト	-8917
为	-8918
京	-8919
作	-8920
依	-8921
反	-8922
因	-8923
意	-8924
成	-8925
所	-8926
新	-8927
期	-8928
果	-8929
格	-8930
梵	-8931
機	-8932
母	-8933
比	-8934
生	-8935
用	-8936
痛	-8937
発	-8938
相	-8939
者	-8940
能	-8941
自	-8942
薩	-8943
说	-8944
诸	-8945
通	-8946
遣	-8947
释	-8948
量	-8949
間	-8950
非	-8951
颂	-8952
대	-8953
발	-8954
브	-8955
요	-8956
합	-8957
𑑂	-8958
🇵	-8959
🌉	-8960
🌙	-8961
🌟	-8962
🌱	-8963
🍀	-8964
👫	-8965
💕	-8966
🔐	-8967
🔔	-8968
🔸	-8969
😉	-8970
😍	-8971
🤝	-8972
Å	-8973
Ò	-8974
Ú	-8975
ù	-8976
ą	-8977
Ċ	-8978
ė	-8979
ŋ	-8980
ư	-8981
ǒ	-8982
ǔ	-8983
ɒ	-8984
ɡ	-8985
̆	-8986
ά	-8987
ε	-8988
χ	-8989
ό	-8990
І	-8991
К	-8992
Ф	-8993
Ю	-8994
Я	-8995
ф	-8996
ј	-8997
ү	-8998
ם	-8999
ן	-9000
נ	-9001
ע	-9002
ק	-9003
أ	-9004
ص	-9005
ط	-9006
غ	-9007
ً	-9008
٬	-9009
ڪ	-9010
ۆ	-9011
ۇ	-9012
ܠ	-9013
ॾ	-9014
ই	-9015
খ	-9016
ঘ	-9017
চ	-9018
ছ	-9019
ী	-9020
ਅ	-9021
ਗ	-9022
ਤ	-9023
ਨ	-9024
ਪ	-9025
ਬ	-9026
਼	-9027
ਿ	-9028
ੇ	-9029
ੱ	-9030
ઈ	-9031
ઓ	-9032
ઠ	-9033
઼	-9034
ૂ	-9035
૨	-9036
૫	-9037
ଆ	-9038
ଓ	-9039
ଡ	-9040
ପ	-9041
ର	-9042
ଲ	-9043
଼	-9044
ା	-9045
ஆ	-9046
ச	-9047
అ	-9048
డ	-9049
ద	-9050
ప	-9051
శ	-9052
ె	-9053
ಃ	-9054
ಭ	-9055
ೇ	-9056
೪	-9057
ഛ	-9058
ഥ	-9059
ഭ	-9060
ഹ	-9061
ൂ	-9062
ൈ	-9063
ൻ	-9064
ൽ	-9065
ද	-9066
ස	-9067
น	-9068
ิ	-9069
ང	-9070
ཐ	-9071
པ	-9072
མ	-9073
ཡ	-9074
ལ	-9075
ཧ	-9076
ཱ	-9077
ྥ	-9078
ླ	-9079
ᆬ	-9080
ሕ	-9081
ብ	-9082
ዝ	-9083
ᛋ	-9084
ᛚ	-9085
᛫	-9086
᭭	-9087
ᳲ	-9088
ḏ	-9089
ṝ	-9090
ắ	-9091
Ἀ	-9092
∅	-9093
≠	-9094
≡	-9095
≦	-9096
▷	-9097
◊	-9098
☑	-9099
☘	-9100
☰	-9101
♡	-9102
♫	-9103
⚫	-9104
✌	-9105
✒	-9106
✧	-9107
✨	-9108
✺	-9109
❣	-9110
➥	-9111
⦁	-9112
、	-9113
《	-9114
》	-9115
「	-9116
」	-9117
が	-9118
さ	-9119
に	-9120
ひ	-9121
み	-9122
む	-9123
め	-9124
も	-9125
や	-9126
よ	-9127
ん	-9128
ジ	-9129
バ	-9130
プ	-9131
ボ	-9132
ロ	-9133
・	-9134
三	-9135
上	-9136
了	-9137
事	-9138
于	-9139
五	-9140
从	-9141
代	-9142
伟	-9143
修	-9144
全	-9145
八	-9146
六	-9147
具	-9148
切	-9149
加	-9150
北	-9151
卐	-9152
印	-9153
各	-9154
合	-9155
吗	-9156
员	-9157
和	-9158
哲	-9159
哷	-9160
地	-9161
堂	-9162
声	-9163
外	-9164
天	-9165
奪	-9166
好	-9167
婆	-9168
存	-9169
安	-9170
小	-9171
尼	-9172
广	-9173
度	-9174
异	-9175
当	-9176
整	-9177
方	-9178
显	-9179
普	-9180
晴	-9181
更	-9182
有	-9183
東	-9184
械	-9185
此	-9186
泊	-9187
然	-9188
猫	-9189
球	-9190
理	-9191
由	-9192
白	-9193
益	-9194
研	-9195
祖	-9196
程	-9197
立	-9198
第	-9199
素	-9200
而	-9201
许	-9202
身	-9203
都	-9204
间	-9205
页	-9206
首	-9207
감	-9208
공	-9209
교	-9210
급	-9211
두	-9212
듬	-9213
라	-9214
로	-9215
리	-9216
민	-9217
비	-9218
서	-9219
성	-9220
슈	-9221
신	-9222
아	-9223
어	-9224
영	-9225
예	-9226
완	-9227
의	-9228
인	-9229
좀	-9230
주	-9231
학	-9232
한	-9233
히	-9234
𑐎	-9235
𑐕	-9236
𑐫	-9237
𑐮	-9238
𑐴	-9239
𑐵	-9240
𑑄	-9241
𑑅	-9242
🇦	-9243
🇺	-9244
🌈	-9245
🌏	-9246
🌼	-9247
🍥	-9248
🎉	-9249
🎖	-9250
🎯	-9251
🐯	-9252
👈	-9253
👍	-9254
👏	-9255
👨	-9256
👩	-9257
👴	-9258
💄	-9259
💏	-9260
💔	-9261
💛	-9262
💥	-9263
📌	-9264
📎	-9265
📝	-9266
📰	-9267
🔰	-9268
😄	-9269
😅	-9270
😒	-9271
😘	-9272
🙍	-9273
🥀	-9274
🥇	-9275
🩸	-9276
É	-9277
Ë	-9278
Õ	-9279
å	-9280
ë	-9281
û	-9282
þ	-9283
ÿ	-9284
ă	-9285
ĕ	-9286
Ę	-9287
Ī	-9288
Ķ	-9289
ń	-9290
Ŏ	-9291
ŏ	-9292
ť	-9293
Ů	-9294
ų	-9295
Ż	-9296
Ǒ	-9297
ȧ	-9298
Ȩ	-9299
ȯ	-9300
ʈ	-9301
ʉ	-9302
ʋ	-9303
ʌ	-9304
ʟ	-9305
ʿ	-9306
ˎ	-9307
ˑ	-9308
̍	-9309
̖	-9310
̠	-9311
̪	-9312
Ά	-9313
Κ	-9314
Μ	-9315
Ο	-9316
Σ	-9317
Φ	-9318
Ω	-9319
ζ	-9320
ω	-9321
Е	-9322
Л	-9323
Ч	-9324
ё	-9325
ў	-9326
ҫ	-9327
ә	-9328
Ө	-9329
Ե	-9330
Կ	-9331
Հ	-9332
ա	-9333
ե	-9334
ն	-9335
ր	-9336
ւ	-9337
ַ	-9338
ד	-9339
כ	-9340
ף	-9341
צ	-9342
ײ	-9343
؞	-9344
خ	-9345
ذ	-9346
ُ	-9347
ِ	-9348
٫	-9349
ٰ	-9350
ٹ	-9351
ټ	-9352
ڌ	-9353
ں	-9354
ڼ	-9355
ھ	-9356
ۂ	-9357
ܕ	-9358
ܚ	-9359
ܟ	-9360
ॱ	-9361
ॵ	-9362
ॺ	-9363
ॼ	-9364
এ	-9365
ঠ	-9366
ড	-9367
ঢ	-9368
ণ	-9369
ষ	-9370
ৃ	-9371
০	-9372
৩	-9373
৭	-9374
ਂ	-9375
ਇ	-9376
ਊ	-9377
ਏ	-9378
ਖ	-9379
ਜ	-9380
ਟ	-9381
ਡ	-9382
ਣ	-9383
ਦ	-9384
ੁ	-9385
ੂ	-9386
ੰ	-9387
ખ	-9388
ઝ	-9389
ૃ	-9390
ૠ	-9391
૩	-9392
૬	-9393
૭	-9394
૮	-9395
ଃ	-9396
କ	-9397
ଖ	-9398
ତ	-9399
ଭ	-9400
େ	-9401
୍	-9402
ୟ	-9403
ஐ	-9404
ஹ	-9405
ூ	-9406
ை	-9407
ఉ	-9408
ఎ	-9409
ఓ	-9410
చ	-9411
జ	-9412
ధ	-9413
ఫ	-9414
ష	-9415
హ	-9416
ే	-9417
ై	-9418
ో	-9419
ಅ	-9420
ಇ	-9421
ಜ	-9422
ಟ	-9423
ಠ	-9424
ೂ	-9425
ೃ	-9426
ೊ	-9427
ೋ	-9428
೧	-9429
೩	-9430
ೲ	-9431
ഖ	-9432
ഠ	-9433
ഴ	-9434
ൃ	-9435
ග	-9436
ත	-9437
න	-9438
ප	-9439
ම	-9440
ල	-9441
ශ	-9442
ො	-9443
ค	-9444
ง	-9445
ด	-9446
ต	-9447
บ	-9448
พ	-9449
ฟ	-9450
ม	-9451
ร	-9452
ห	-9453
อ	-9454
ฮ	-9455
ั	-9456
า	-9457
ี	-9458
เ	-9459
โ	-9460
่	-9461
้	-9462
༔	-9463
༡	-9464
༣	-9465
༨	-9466
ཁ	-9467
ཊ	-9468
ན	-9469
བ	-9470
ཚ	-9471
ཝ	-9472
ཟ	-9473
ཥ	-9474
ི	-9475
ྀ	-9476
ྒ	-9477
ྨ	-9478
ྭ	-9479
ྱ	-9480
ྲ	-9481
დ	-9482
ე	-9483
ვ	-9484
თ	-9485
ლ	-9486
ნ	-9487
რ	-9488
ს	-9489
უ	-9490
ც	-9491
ሉ	-9492
ሩ	-9493
በ	-9494
ቮ	-9495
እ	-9496
ኳ	-9497
ገ	-9498
ፂ	-9499
ፃ	-9500
፪	-9501
ᒃ	-9502
ᒄ	-9503
ᒎ	-9504
ᓚ	-9505
ᗢ	-9506
ᘏ	-9507
ᚨ	-9508
ᚩ	-9509
ᚻ	-9510
ᚾ	-9511
ᛏ	-9512
ᛗ	-9513
ᛞ	-9514
ᭅ	-9515
᭠	-9516
ᮩ	-9517
᮰	-9518
ᱧ	-9519
Ჱ	-9520
᳒	-9521
ᳬ	-9522
ᴀ	-9523
Ḩ	-9524
ế	-9525
ệ	-9526
ὁ	-9527
ὕ	-9528
ὸ	-9529
ῖ	-9530
₩	-9531
↓	-9532
↕	-9533
↗	-9534
↩	-9535
↲	-9536
⇏	-9537
∖	-9538
∙	-9539
∝	-9540
∩	-9541
∵	-9542
⊂	-9543
⊃	-9544
⊕	-9545
▀	-9546
□	-9547
△	-9548
☁	-9549
☸	-9550
☹	-9551
☺	-9552
♈	-9553
♉	-9554
♻	-9555
⚏	-9556
⚕	-9557
⚡	-9558
⚪	-9559
⛈	-9560
⛹	-9561
✖	-9562
✦	-9563
✪	-9564
✹	-9565
✼	-9566
✿	-9567
❗	-9568
➖	-9569
➞	-9570
➦	-9571
➨	-9572
⟶	-9573
⟷	-9574
⠀	-9575
⭕	-9576
〈	-9577
け	-9578
げ	-9579
ご	-9580
ざ	-9581
ち	-9582
で	-9583
ど	-9584
は	-9585
ゃ	-9586
れ	-9587
イ	-9588
エ	-9589
オ	-9590
ク	-9591
グ	-9592
セ	-9593
ゼ	-9594
ソ	-9595
ツ	-9596
ナ	-9597
ノ	-9598
ピ	-9599
ポ	-9600
ャ	-9601
ョ	-9602
七	-9603
与	-9604
世	-9605
中	-9606
习	-9607
乱	-9608
二	-9609
互	-9610
介	-9611
仕	-9612
份	-9613
休	-9614
位	-9615
你	-9616
使	-9617
個	-9618
倒	-9619
健	-9620
元	-9621
入	-9622
其	-9623
円	-9624
册	-9625
决	-9626
出	-9627
划	-9628
列	-9629
利	-9630
别	-9631
到	-9632
副	-9633
助	-9634
化	-9635
卍	-9636
南	-9637
叉	-9638
发	-9639
口	-9640
句	-9641
同	-9642
后	-9643
吥	-9644
吸	-9645
告	-9646
咒	-9647
哉	-9648
哥	-9649
唯	-9650
喝	-9651
嘅	-9652
器	-9653
四	-9654
固	-9655
國	-9656
域	-9657
報	-9658
境	-9659
处	-9660
复	-9661
多	-9662
夜	-9663
夢	-9664
奖	-9665
威	-9666
孕	-9667
字	-9668
学	-9669
官	-9670
定	-9671
宦	-9672
寝	-9673
尊	-9674
少	-9675
属	-9676
岂	-9677
工	-9678
师	-9679
席	-9680
常	-9681
废	-9682
康	-9683
廬	-9684
引	-9685
弥	-9686
影	-9687
得	-9688
徹	-9689
忘	-9690
念	-9691
性	-9692
惑	-9693
感	-9694
憶	-9695
戻	-9696
执	-9697
投	-9698
摩	-9699
收	-9700
改	-9701
政	-9702
效	-9703
文	-9704
日	-9705
时	-9706
星	-9707
是	-9708
最	-9709
朝	-9710
杂	-9711
某	-9712
染	-9713
查	-9714
栄	-9715
检	-9716
模	-9717
権	-9718
款	-9719
止	-9720
民	-9721
永	-9722
求	-9723
汇	-9724
没	-9725
流	-9726
消	-9727
添	-9728
灭	-9729
熟	-9730
父	-9731
牙	-9732
现	-9733
班	-9734
疆	-9735
發	-9736
直	-9737
破	-9738
离	-9739
秘	-9740
稱	-9741
究	-9742
章	-9743
答	-9744
简	-9745
类	-9746
紅	-9747
終	-9748
続	-9749
網	-9750
繁	-9751
维	-9752
肉	-9753
花	-9754
若	-9755
英	-9756
茶	-9757
葬	-9758
處	-9759
蛟	-9760
蝶	-9761
衆	-9762
表	-9763
西	-9764
见	-9765
观	-9766
视	-9767
解	-9768
言	-9769
記	-9770
訳	-9771
論	-9772
讓	-9773
计	-9774
讨	-9775
话	-9776
贪	-9777
越	-9778
足	-9779
車	-9780
转	-9781
辦	-9782
达	-9783
过	-9784
运	-9785
返	-9786
追	-9787
逝	-9788
進	-9789
那	-9790
金	-9791
鉄	-9792
错	-9793
长	-9794
闻	-9795
阿	-9796
除	-9797
陸	-9798
障	-9799
雨	-9800
電	-9801
面	-9802
韩	-9803
響	-9804
願	-9805
须	-9806
飞	-9807
飲	-9808
龙	-9809
꣫	-9810
ꣲ	-9811
가	-9812
간	-9813
개	-9814
게	-9815
고	-9816
과	-9817
국	-9818
금	-9819
깨	-9820
나	-9821
냐	-9822
녹	-9823
는	-9824
달	-9825
더	-9826
동	-9827
따	-9828
뜨	-9829
락	-9830
레	-9831
력	-9832
름	-9833
만	-9834
망	-9835
맵	-9836
몸	-9837
못	-9838
뭐	-9839
받	-9840
백	-9841
번	-9842
법	-9843
봇	-9844
산	-9845
상	-9846
수	-9847
술	-9848
쉬	-9849
스	-9850
승	-9851
시	-9852
없	-9853
에	-9854
염	-9855
외	-9856
우	-9857
운	-9858
월	-9859
을	-9860
임	-9861
입	-9862
있	-9863
자	-9864
적	-9865
절	-9866
정	-9867
조	-9868
중	-9869
증	-9870
지	-9871
째	-9872
청	-9873
크	-9874
탄	-9875
탑	-9876
터	-9877
트	-9878
특	-9879
팅	-9880
파	-9881
함	-9882
허	-9883
효	-9884
힌	-9885
힘	-9886
︎	-9887
𑆤	-9888
𑌏	-9889
𑌥	-9890
𑌫	-9891
𑌮	-9892
𑌸	-9893
𑐰	-9894
𑑀	-9895
🅰	-9896
🇱	-9897
🇸	-9898
🇹	-9899
🌀	-9900
🌃	-9901
🌅	-9902
🌍	-9903
🌎	-9904
🌖	-9905
🌛	-9906
🌝	-9907
🌠	-9908
🌰	-9909
🌴	-9910
🍋	-9911
🍾	-9912
🎂	-9913
🎃	-9914
🎊	-9915
🎋	-9916
🎎	-9917
🎓	-9918
🎤	-9919
🎵	-9920
🎶	-9921
🎼	-9922
🏀	-9923
🏃	-9924
🏏	-9925
🏠	-9926
🏮	-9927
🏷	-9928
🏹	-9929
🏽	-9930
🐕	-9931
🐙	-9932
👆	-9933
👞	-9934
👣	-9935
👦	-9936
👧	-9937
👱	-9938
💑	-9939
💓	-9940
💖	-9941
💗	-9942
💘	-9943
💚	-9944
💝	-9945
💠	-9946
💦	-9947
💧	-9948
💫	-9949
💰	-9950
💱	-9951
💵	-9952
📂	-9953
📏	-9954
📕	-9955
📢	-9956
📣	-9957
📱	-9958
📳	-9959
📸	-9960
📺	-9961
🔟	-9962
🔷	-9963
🔺	-9964
🔻	-9965
🕔	-9966
🖊	-9967
🖱	-9968
🗃	-9969
🗒	-9970
🗣	-9971
🗳	-9972
😇	-9973
😌	-9974
😔	-9975
😝	-9976
😩	-9977
🙁	-9978
🙅	-9979
🙆	-9980
🙌	-9981
🙎	-9982
🚑	-9983
🚷	-9984
🛡	-9985
🤔	-9986
🤗	-9987
🤦	-9988
🤩	-9989
🤪	-9990
🤲	-9991
🥂	-9992
🥰	-9993
🦂	-9994
🧐	-9995
🧜	-9996
