<unk>	0
<s>	0
</s>	0
▁	-2.41093
।	-3.38632
ं	-3.61755
ः	-3.72194
े	-4.27117
ा	-4.46842
म्	-4.64087
म	-4.71421
॥	-4.8895
▁न	-4.90583
,	-4.95611
ो	-4.97449
▁च	-5.0553
त	-5.09958
-	-5.12086
न	-5.1641
▁अ	-5.20491
स्य	-5.23989
.	-5.28913
▁स	-5.3374
व	-5.37729
ति	-5.42021
क	-5.45305
ी	-5.55119
य	-5.55439
र	-5.58152
▁-	-5.61395
▁(	-5.62621
ि	-5.63755
▁प्र	-5.64124
)	-5.67174
स	-5.70294
▁इति	-5.71174
या	-5.75935
▁"	-5.77112
▁वि	-5.78175
ेन	-5.79958
ाः	-5.80321
ता	-5.83438
ल	-5.84845
▁आ	-5.90492
ते	-5.93851
प	-5.99477
्य	-6.00245
तः	-6.01198
ौ	-6.02386
ना	-6.03839
▁वा	-6.04283
न्	-6.09624
र्	-6.09717
▁एव	-6.12889
"	-6.15113
वि	-6.16731
मा	-6.21373
▁तु	-6.23614
त्	-6.24638
▁क	-6.24963
ाय	-6.25059
ह	-6.26088
द	-6.27019
नि	-6.31967
च	-6.32839
ग	-6.36022
ानि	-6.36208
▁सर्व	-6.3652
▁स्व	-6.37077
श	-6.37465
ज	-6.38221
प्र	-6.39136
▁हि	-6.39849
▁सं	-6.40521
ात्	-6.42655
्	-6.43825
अ	-6.49137
स्	-6.49154
पि	-6.49357
▁यथा	-6.50108
क्ष	-6.52566
ानां	-6.53528
ु	-6.53699
'	-6.5691
त्र	-6.56923
▁.	-6.57527
स्त	-6.58076
▁त	-6.58674
श्च	-6.59795
थ	-6.61382
॒	-6.63166
सि	-6.63798
▁नि	-6.65513
ण	-6.66394
▁व	-6.6827
▁'	-6.68366
▁सा	-6.69634
▁प्रति	-6.70506
तु	-6.71044
ष	-6.71281
वा	-6.71592
▁सु	-6.72248
▁पर	-6.72462
रा	-6.73656
ट	-6.73787
ने	-6.74775
ेषु	-6.75392
▁य	-6.75727
▁ते	-6.77044
तो	-6.78645
गु	-6.80642
▁प	-6.80651
नं	-6.81249
ान्	-6.8134
िक	-6.81742
ैः	-6.82078
▁भवति	-6.83604
०	-6.84539
▁तथा	-6.84928
ेण	-6.86018
द्	-6.86665
न्ति	-6.87678
ै	-6.87967
?	-6.888
▁मे	-6.89957
▁श	-6.90059
मान	-6.90823
▁तत्	-6.91
ां	-6.91052
:	-6.91366
ये	-6.92124
सं	-6.93325
का	-6.93569
▁_	-6.93985
भ	-6.94334
▁किं	-6.94622
▁एक	-6.94663
ष्ट	-6.96323
ित	-6.97838
▁उप	-6.98347
कार	-6.99688
▁तस्य	-6.99858
ू	-6.99894
ला	-7.00438
स्तु	-7.00487
▁अपि	-7.00667
s	-7.00869
ार्थ	-7.00945
रि	-7.0126
▁इ	-7.01281
्या	-7.02003
सा	-7.02112
▁यदि	-7.02976
ादि	-7.04145
त्य	-7.04907
▁मा	-7.05148
▁परि	-7.0531
मेव	-7.05417
॑	-7.05753
रु	-7.05854
नु	-7.06354
ड	-7.06589
क्	-7.06666
भाव	-7.06677
▁वै	-7.08742
कः	-7.09774
▁अस्ति	-7.10374
त्व	-7.10465
▁?	-7.10826
ध	-7.11004
▁उ	-7.1135
▁मम	-7.14553
हि	-7.15557
रे	-7.15628
सु	-7.15646
▁ग	-7.1624
ॊ	-7.16511
▁द	-7.16821
▁सह	-7.17561
▁सम	-7.1807
ख	-7.19028
दा	-7.19076
ीय	-7.19266
ोऽ	-7.19775
१	-7.19956
देश	-7.20004
ेति	-7.20122
▁देव	-7.20609
ैव	-7.20695
्यते	-7.20958
▁ज	-7.21412
▁भव	-7.2154
स्व	-7.21781
▁तत्र	-7.22424
▁ह	-7.23502
e	-7.23878
यो	-7.245
▁एवं	-7.25611
के	-7.26194
▁पुनः	-7.28507
ृ	-7.2858
धि	-7.28607
ब	-7.28754
▁नाम	-7.298
ाव	-7.30348
▁तद	-7.30429
स्थ	-7.30662
▁यत्	-7.30676
ती	-7.31357
सी	-7.325
▁इत्य	-7.32791
ान	-7.33031
इ	-7.33118
वे	-7.33522
▁पूर्व	-7.33746
मि	-7.33811
दि	-7.33968
लि	-7.34147
तां	-7.34733
भि	-7.35171
कं	-7.37571
▁२	-7.37597
रो	-7.3813
यः	-7.38514
द्य	-7.38741
▁भ	-7.38761
देव	-7.38866
ाणि	-7.38934
से	-7.39366
रूप	-7.39512
न्य	-7.40217
▁अथ	-7.40286
▁तद्	-7.40302
घ	-7.40689
ोप	-7.41057
▁ए	-7.41731
ल्	-7.42876
युक्त	-7.43592
a	-7.43865
ामि	-7.44402
ऽ	-7.4447
/	-7.44692
यं	-7.44855
री	-7.45744
त्त	-7.45774
▁तदा	-7.45934
]	-7.46198
यति	-7.46472
▁१	-7.46494
▁कार्य	-7.46856
र्थ	-7.47048
श्	-7.47067
णा	-7.47705
▁का	-7.47946
२	-7.48051
न्न	-7.4874
मे	-7.4894
i	-7.49063
य्	-7.49073
व्य	-7.4917
▁तव	-7.49294
ाद	-7.49432
▁अनु	-7.50132
▁कर्म	-7.51149
नी	-7.52477
मिति	-7.52726
पद	-7.53003
▁ब	-7.53263
▁धर्म	-7.53491
पर	-7.53719
भव	-7.54246
o	-7.54488
▁पा	-7.54618
पा	-7.55025
▁जन	-7.55068
त्वा	-7.56025
ेत	-7.561
▁ततः	-7.56135
▁प्रा	-7.56139
न्त	-7.56267
कृत	-7.56462
▁तेन	-7.57081
▁कृत	-7.57454
िता	-7.57723
ेत्	-7.57803
र्य	-7.59118
आ	-7.59444
▁ल	-7.59494
▁=	-7.59797
त्वं	-7.59876
ाणां	-7.60514
्व	-7.60552
योग	-7.6106
काल	-7.62309
न्द	-7.6256
तम	-7.62632
d	-7.62783
जन	-7.62931
;	-7.63168
▁निर्	-7.63301
▁अन्य	-7.6405
धा	-7.64734
वान्	-7.64958
t	-7.64964
न्ते	-7.65087
प्य	-7.65187
▁[	-7.65875
▁विश्व	-7.66273
च्छ	-7.66407
क्रम	-7.66949
ङ्	-7.67015
परि	-7.67091
३	-7.67188
मु	-7.67379
गत	-7.67493
▁महा	-7.68015
िका	-7.68729
▁पुत्र	-7.68834
▁र	-7.69037
तर	-7.69262
p	-7.69845
क्त	-7.70117
कर	-7.70446
्यं	-7.70604
ितः	-7.7067
▁अव	-7.70898
ए	-7.71187
▁प्रथम	-7.71374
ानु	-7.7159
▁__	-7.7199
ापि	-7.72149
्वा	-7.72562
वत्	-7.73313
▁या	-7.73651
▁प्राप्त	-7.73901
▁मया	-7.73929
ध्य	-7.73937
▁कु	-7.7415
▁अत्र	-7.74964
पाद	-7.75229
ँ	-7.75412
स्था	-7.75469
--	-7.75681
▁ख	-7.76037
ान्त	-7.76084
▁त्व	-7.7609
लोक	-7.7611
मी	-7.76204
द्र	-7.76363
▁दु	-7.766
▁गुण	-7.76747
ग्	-7.77014
ज्ञ	-7.77214
तं	-7.77301
▁सम्	-7.77628
ेव	-7.77885
▁एत	-7.78
योः	-7.78048
▁कथं	-7.78073
जा	-7.78103
▁!	-7.78208
ण्ड	-7.78588
9	-7.78713
स्या	-7.78718
▁अभि	-7.78988
▁मह	-7.79323
भेद	-7.79342
भिः	-7.79531
4	-7.80147
ङ्ग	-7.80285
▁वर्ष	-7.80472
वाद	-7.80674
ाह	-7.80724
वचन	-7.80731
!	-7.8151
भूत	-7.81529
वृत्त	-7.81648
▁समा	-7.81661
मपि	-7.81761
▁अप	-7.82097
l	-7.82181
▁के	-7.82182
भ्य	-7.8297
▁बहु	-7.83674
▁यो	-7.83763
यां	-7.83885
ज्ञान	-7.84098
▁गृह	-7.8549
▁अहं	-7.855
▁पद	-7.85533
लक्षण	-7.85533
शा	-7.85662
को	-7.85785
▁ये	-7.86207
ायां	-7.86787
▁काल	-7.87324
ले	-7.8753
शि	-7.87679
तया	-7.87801
मुख	-7.8781
ठ	-7.87911
था	-7.8807
c	-7.88198
▁त्रि	-7.88243
3	-7.88866
▁पुरुष	-7.89089
▁हे	-7.89179
▁लोक	-7.89428
वी	-7.90075
m	-7.90356
श्व	-7.90639
▁तं	-7.90715
वार	-7.908
ैक	-7.90912
▁सः	-7.91109
y	-7.91396
फ	-7.91513
▁सुख	-7.91969
ञ्च	-7.91986
▁धन	-7.92032
हा	-7.92176
▁जल	-7.92671
करण	-7.92788
कर्म	-7.92983
प्	-7.93061
दु	-7.93319
ट्	-7.94759
▁ना	-7.94899
ितम्	-7.94942
2	-7.95093
ितं	-7.95538
प्त	-7.96219
स्थान	-7.9627
पूर्व	-7.96292
▁त्वं	-7.96423
नम्	-7.96466
▁ॐ	-7.96758
चार	-7.96806
पु	-7.97197
1	-7.97542
▁यत्र	-7.97808
हार	-7.9786
गुण	-7.98131
▁छ	-7.98387
n	-7.98496
ली	-7.98702
च्	-7.98703
ात्म	-7.9878
▁सन्	-7.98991
णि	-7.99296
▁आसीत्	-7.99434
5	-7.99597
याः	-7.99807
▁स्यात्	-7.99909
ैर्	-8.00312
रण	-8.00398
चि	-8.00433
न्तु	-8.00712
▁राज	-8.0078
हित	-8.01234
वर्त	-8.01237
त्या	-8.019
▁अस्य	-8.01927
▁३	-8.02248
नो	-8.02312
उ	-8.02844
▁यदा	-8.02888
हं	-8.03151
▁भू	-8.03197
प्रति	-8.03265
▁--	-8.03356
▁४	-8.03377
कि	-8.03403
ेऽ	-8.03433
▁उत्तर	-8.03733
▁काम	-8.04065
िः	-8.04355
▁दश	-8.04394
▁सर्वे	-8.04583
▁देश	-8.04668
▁ध	-8.04938
येत्	-8.04992
ष्ठ	-8.05054
ीत	-8.05264
स्थित	-8.05768
ई	-8.05862
▁२०	-8.06025
▁जा	-8.06249
द्ध	-8.06334
ष्य	-8.06386
▁पु	-8.06713
कु	-8.06733
▁शब्द	-8.07101
सम	-8.07305
▁अतः	-8.07419
िर	-8.07429
मय	-8.07474
वर्ष	-8.07481
▁नमः	-8.07884
रः	-8.07905
▁सप्त	-8.08178
वः	-8.08494
फल	-8.08795
रं	-8.08825
वेद	-8.09436
गा	-8.09552
लं	-8.09618
S	-8.09618
दिन	-8.09682
नाम	-8.09707
च्च	-8.09707
b	-8.09717
▁अन	-8.10172
▁को	-8.10231
वन	-8.10241
__	-8.10467
▁परम	-8.10791
▁व्य	-8.10899
त्वात्	-8.11105
विध	-8.1127
राज	-8.11316
ाद्	-8.11376
_	-8.11421
▁यस्य	-8.11422
वास	-8.11442
▁/	-8.11771
▁भारत	-8.11828
यु	-8.11886
मात्र	-8.11954
ञ्ज	-8.1219
श्र	-8.12251
ग्र	-8.12315
स्म	-8.12429
क्र	-8.12635
8	-8.12715
g	-8.12724
क्ष्य	-8.13319
दर्शन	-8.13472
सः	-8.13615
नः	-8.13695
धार	-8.13773
ान्तर	-8.13786
▁अर्थ	-8.14023
▁मु	-8.14051
स्त्र	-8.14522
▁स्थित	-8.14647
दे	-8.14751
षु	-8.14798
▁वेद	-8.14901
▁ऽ	-8.15091
▁यः	-8.15257
▁करोति	-8.15857
योजन	-8.15918
▁कि	-8.15951
u	-8.1604
धी	-8.16723
▁जीव	-8.16871
▁शि	-8.17099
ध्व	-8.17102
षा	-8.1716
क्षा	-8.17393
▁घ	-8.17404
शब्द	-8.17535
ज्ञा	-8.17642
पी	-8.17916
▁चा	-8.17978
▁दृष्ट	-8.18218
कम्	-8.1838
▁तेषां	-8.18679
कार्य	-8.19382
तीति	-8.19536
४	-8.19681
बल	-8.19744
▁रक्ष	-8.19853
दश	-8.19876
6	-8.19954
ाभि	-8.20082
भक्त	-8.20089
▁उक्त	-8.20156
दान	-8.20203
धर्म	-8.20457
लो	-8.20709
▁कर	-8.20826
▁सदा	-8.20863
▁राज्य	-8.21064
f	-8.21392
▁1	-8.21606
▁ज्ञान	-8.2167
दी	-8.21883
ाप	-8.22076
मो	-8.22107
▁प्राण	-8.22123
▁इदं	-8.22141
सू	-8.22273
▁तर्हि	-8.22292
▁ऋ	-8.22371
स्ति	-8.22456
मुक्त	-8.22716
▁भवेत्	-8.22724
▁पठ	-8.22829
▁दा	-8.22882
▁दिन	-8.23186
मनु	-8.23206
k	-8.23374
चर	-8.23388
ढ	-8.23493
▁इह	-8.23535
▁५	-8.23559
▁जात	-8.23593
▁इव	-8.2416
भाग	-8.24392
ार	-8.24617
षि	-8.25108
▁जान	-8.25251
▁पुनर	-8.25336
वर	-8.25436
ालय	-8.25682
णे	-8.25794
▁पञ्च	-8.25885
वेश	-8.25911
चित	-8.26422
भा	-8.26641
▁केवल	-8.27051
गम	-8.27145
▁4	-8.27311
▁वर्तते	-8.27409
हर	-8.27766
▁१९	-8.28022
▁सत्य	-8.28083
▁वयं	-8.28154
▁दुःख	-8.28275
▁और	-8.28568
▁पुनर्	-8.28731
▁विशेष	-8.2894
नीय	-8.28941
▁उद्	-8.29123
▁जन्म	-8.29199
ज्ज	-8.29234
िष्य	-8.29258
स्ता	-8.29303
मन	-8.29307
▁सन्ति	-8.29532
h	-8.29568
भी	-8.29735
▁भविष्यति	-8.29788
▁*	-8.29832
▁सामान्य	-8.29995
यत्	-8.30152
नेन	-8.30178
▁मां	-8.30206
▁यद	-8.30249
भाष	-8.30332
▁शक्ति	-8.3035
न्द्र	-8.30364
▁द्वितीय	-8.30556
चित्	-8.30946
▁स्थान	-8.30977
D	-8.31213
▁अयं	-8.31839
▁विषय	-8.32423
▁वर्षे	-8.32516
तृ	-8.32585
+	-8.32742
ार्थं	-8.32743
E	-8.33232
▁पाप	-8.33372
छ	-8.33774
शो	-8.33809
▁फल	-8.33829
▁राष्ट्र	-8.34027
ोक्त	-8.3419
ङ्क	-8.34235
▁यद्	-8.34355
यत	-8.3439
▁८	-8.34523
ाद्य	-8.34703
▁दोष	-8.34733
▁कृत्वा	-8.3474
सर्व	-8.34741
की	-8.34955
▁ह्य	-8.34986
स्त्व	-8.3504
र्ह	-8.35048
▁पुर	-8.35098
र्च	-8.35181
मुप	-8.35286
र्ष	-8.35305
यम	-8.35423
▁भाषा	-8.35468
ास	-8.35492
▁अत	-8.35659
ुः	-8.35712
▁६	-8.35881
िनः	-8.35884
धु	-8.35912
▁श्र	-8.36037
▁कर्तव्य	-8.36102
वर्ग	-8.36108
क्षण	-8.36356
▁3	-8.36358
7	-8.36469
देशे	-8.36487
▁आह	-8.36524
ल्य	-8.36952
यते	-8.37213
ोऽपि	-8.3723
यन्	-8.37767
टी	-8.38096
▁सूर्य	-8.3845
▁विना	-8.38465
▁केवलं	-8.38621
▁प्रत्य	-8.38662
ग्रहण	-8.38915
र्व	-8.38984
ग्रह	-8.39145
णं	-8.3926
▁येन	-8.39276
▁भाव	-8.39309
ज्	-8.39411
ान्य	-8.39487
गृह	-8.39656
सौ	-8.39912
हे	-8.39937
▁मन	-8.40036
▁स्त्री	-8.40075
ाति	-8.40158
>	-8.4022
पत्र	-8.40318
ड्	-8.40343
▁एतत्	-8.40473
▁5	-8.40542
▁नास्ति	-8.40691
दिति	-8.40903
हु	-8.41156
▁वय	-8.41299
▁१०	-8.41529
ेऽपि	-8.41692
▁20	-8.41782
दर्श	-8.41942
▁+	-8.42174
v	-8.42226
▁कारण	-8.42402
पो	-8.42489
शः	-8.42733
▁ततो	-8.42792
▁रे	-8.42823
त्वेन	-8.42927
▁वर	-8.43097
विषय	-8.4312
िन	-8.43473
ष्ण	-8.43623
र्म	-8.4382
सो	-8.43924
व्या	-8.4395
▁घट	-8.44056
▁अति	-8.44099
▁ओ	-8.44125
वृत्ति	-8.44167
▁भा	-8.44386
भाषा	-8.44447
▁उत्	-8.44586
वती	-8.44768
0	-8.44853
वर्ण	-8.44871
ुष	-8.44937
ायाः	-8.4516
▁विद्यते	-8.45182
कू	-8.45213
▁परा	-8.45314
काः	-8.45384
ैर	-8.45386
काले	-8.45479
ङ	-8.45537
जि	-8.45759
▁बल	-8.45913
ञ्	-8.45945
बोध	-8.45969
▁पुं	-8.46023
ध्या	-8.46116
N	-8.46288
दू	-8.463
▁एष	-8.46333
ुप	-8.46348
▁शुभ	-8.46384
कृ	-8.46529
समा	-8.4657
▁बाल	-8.46615
▁पी	-8.46638
टि	-8.4669
▁स्म	-8.4699
मू	-8.47174
पय	-8.47406
▁दूर	-8.4743
▁व्या	-8.47453
िय	-8.47456
P	-8.47468
मृ	-8.47534
सम्	-8.47551
▁किम्	-8.47566
▁प्रश्न	-8.47654
▁सिद्ध	-8.47663
▁भय	-8.47698
यात	-8.48232
पाल	-8.48305
C	-8.48483
▁ई	-8.48528
स्मा	-8.48603
▁राजा	-8.48763
धान	-8.48787
▁सू	-8.48814
स्मिन्	-8.49035
▁S	-8.49064
गण	-8.4929
वस	-8.49319
▁द्वि	-8.49553
▁सर्वं	-8.49592
धन	-8.49597
▁अधिक	-8.49757
र्ण	-8.49947
सार	-8.50067
r	-8.50181
▁क्रिया	-8.50393
काम	-8.50446
ब्	-8.5053
ल्ल	-8.50554
▁रूप	-8.50971
▁शत	-8.50976
▁पूर्ण	-8.50984
▁खः	-8.51025
॰	-8.51048
विशेष	-8.51081
देह	-8.51288
तिष्ठ	-8.51472
▁गो	-8.5155
ar	-8.51553
कल्प	-8.51569
A	-8.51571
▁ब्रह्म	-8.51793
सर	-8.51848
▁अद्य	-8.51961
त्वम्	-8.52118
▁भविष्य	-8.52122
पत्	-8.52133
▁यज्ञ	-8.52248
कल	-8.52418
भय	-8.52515
▁प्रिय	-8.52812
▁पाठ	-8.5284
मध्ये	-8.53
ीयते	-8.53228
▁हृदय	-8.53929
▁दृश्यते	-8.53966
▁गत	-8.54278
▁देवा	-8.54356
▁जि	-8.54559
द्व	-8.54736
▁वर्ण	-8.54812
▁पृष्ठ	-8.54908
▁पश्य	-8.54992
साधन	-8.54997
विधान	-8.55003
भू	-8.55039
श्य	-8.5529
▁सर्वत्र	-8.55364
लु	-8.55415
▁दृष्ट्वा	-8.55637
सन्	-8.55645
ज्य	-8.55687
पति	-8.5569
नां	-8.55947
वो	-8.55962
शु	-8.55988
▁दक्षिण	-8.55997
▁विधि	-8.56014
▁दृश्य	-8.56091
जु	-8.56103
▁नियम	-8.56411
वद	-8.567
▁श्री	-8.56762
शी	-8.56869
▁भाग	-8.56883
म्ब	-8.56922
▁मि	-8.56965
त्वे	-8.57341
in	-8.57596
शत	-8.57749
दृ	-8.58144
▁शक्य	-8.58196
पुत्र	-8.5822
▁परं	-8.58243
▁विद्या	-8.58343
▁मित्र	-8.58389
विधि	-8.58482
▁मध्ये	-8.58539
तौ	-8.58621
▁2	-8.58862
वान	-8.59361
ेष	-8.59414
▁नित्य	-8.59529
▁तम	-8.59637
▁मत	-8.59738
▁दि	-8.59768
▁शरीर	-8.59915
रूपेण	-8.60257
भोज	-8.60257
णां	-8.60316
बन्ध	-8.6037
▁भूत	-8.60394
▁हस्त	-8.60499
मित्य	-8.60507
▁क्षेत्र	-8.60709
दृश	-8.60728
▁ऊ	-8.60802
स्वरूप	-8.60951
काश	-8.61003
मन्त्र	-8.61123
न्तर	-8.61294
ात्मक	-8.61341
र्ज	-8.6137
er	-8.61479
▁संस्कृत	-8.61605
▁प्रजा	-8.61607
ाश्च	-8.61633
मह	-8.61733
दिश	-8.61913
ीं	-8.62028
ताम्	-8.62064
लिङ्ग	-8.62213
▁युद्ध	-8.62351
on	-8.62688
तुं	-8.62805
▁A	-8.62972
न्ध	-8.62998
यन्ति	-8.63018
्यां	-8.63072
मृत	-8.63153
▁वाक्य	-8.63216
द्वि	-8.63326
▁गा	-8.63486
सिद्ध	-8.63731
भ्र	-8.64087
▁इत	-8.64184
▁सर्वा	-8.64209
सर्ग	-8.64214
क्षय	-8.64302
शक्ति	-8.64324
▁सोम	-8.64429
युग	-8.64465
▁तप	-8.645
...	-8.64594
क्ति	-8.64657
▁योग	-8.64736
▁तन्	-8.64847
ाऽ	-8.64857
पत्ति	-8.65039
यम्	-8.65051
an	-8.65133
▁अभवत्	-8.65166
युः	-8.65199
द्वय	-8.65339
T	-8.65416
पूर्ण	-8.65501
त्थ	-8.6551
▁क्षण	-8.65767
्यो	-8.65775
ेन्द्र	-8.65814
▁बि	-8.65934
▁गुरु	-8.66013
रिति	-8.66069
▁राम	-8.66092
लब्ध	-8.66113
ळ	-8.66183
रुण	-8.66228
निर्	-8.66451
ेभ्यः	-8.66545
त्स	-8.66611
क्षु	-8.66643
्यन्ते	-8.6667
डि	-8.66697
▁वद	-8.66761
स्ते	-8.66993
O	-8.67042
माह	-8.67151
ड़	-8.67373
▁सूचना	-8.67516
वै	-8.67675
जीव	-8.67698
I	-8.67816
यौ	-8.68012
जात	-8.68204
▁केन	-8.68257
▁निष्	-8.68283
बा	-8.68378
रुप	-8.6841
डा	-8.68438
▁संशयः	-8.68456
▁अस्मिन्	-8.68482
w	-8.68537
▁७	-8.68649
दं	-8.68672
▁इत्यादि	-8.68808
णी	-8.68905
▁फ	-8.68928
व्रत	-8.68928
▁तमे	-8.68954
ेश्वर	-8.69036
रात्र	-8.69036
रूपं	-8.69082
विद	-8.69161
क्रिया	-8.69239
▁त्वया	-8.6927
▁शिव	-8.69299
▁तृतीय	-8.69478
यि	-8.6948
▁प्रोक्त	-8.69515
ानाम्	-8.69544
पुरुष	-8.69565
क्रिय	-8.69797
रस	-8.69801
▁शेष	-8.69839
▁वाच	-8.69867
ण्	-8.6995
▁इच्छ	-8.69993
५	-8.70084
खा	-8.70097
्ये	-8.70201
ात	-8.70235
स्मि	-8.70242
▁स्मृत	-8.70321
भगव	-8.70441
▁प्रयोग	-8.70597
चा	-8.70603
[	-8.70635
▁सेव	-8.70681
कारः	-8.70713
ह्य	-8.70813
ॆ	-8.70883
▁चेत्	-8.70936
▁स्ना	-8.71022
▁उद	-8.71034
▁शा	-8.7131
▁कृ	-8.7147
मास	-8.71492
▁पि	-8.71554
▁अग्नि	-8.71698
हो	-8.71724
ॉ	-8.71926
पन्न	-8.71971
ीर	-8.72039
व्यक्त	-8.72062
वह	-8.72106
िताः	-8.72153
▁दुर्	-8.7256
▁सूत्र	-8.72883
धिक	-8.72907
▁लि	-8.72972
पक्ष	-8.73209
▁काले	-8.73288
ेश	-8.73296
कट	-8.73446
यन	-8.73459
त्रय	-8.73627
▁भवन्ति	-8.73657
ेषां	-8.73903
▁नव	-8.7401
ाई	-8.7409
▁गति	-8.74363
ाया	-8.74554
▁()	-8.7461
ाभ्यां	-8.74656
▁गच्छ	-8.74721
▁अस	-8.7476
▁नैव	-8.74818
▁मन्त्र	-8.74835
*	-8.74918
▁तत	-8.74968
▁वस्तु	-8.75541
श्रम	-8.75559
▁वृ	-8.7559
▁स्वयं	-8.75702
▁९	-8.75786
मण्डल	-8.75811
पण	-8.75834
▁मनो	-8.75844
कारण	-8.75977
▁क्रीड	-8.75997
ुक्त	-8.76026
र्न	-8.76027
▁नो	-8.76066
or	-8.761
▁8	-8.76208
▁कृते	-8.76209
▁जायते	-8.76262
▁श्रुत	-8.76623
▁प्रकाश	-8.767
सम्भव	-8.76843
▁वायु	-8.76941
मार्ग	-8.76978
R	-8.77211
ष्	-8.77223
ादौ	-8.77353
पुर	-8.77398
माण	-8.77428
धे	-8.77475
भार	-8.77694
त्रा	-8.77698
▁हो	-8.77802
धातु	-8.78041
दत्त	-8.7823
▁निर	-8.78294
ऽपि	-8.78296
धर	-8.78325
▁अन्यथा	-8.78377
दर	-8.78551
ागत	-8.78558
▁शक्यते	-8.78563
विरोध	-8.78793
गमन	-8.78837
तन्त्र	-8.78922
ष्टा	-8.78955
▁आस	-8.79008
▁गण	-8.79152
८	-8.79244
▁एका	-8.79279
▁प्रमाण	-8.79509
▁पक्ष	-8.79597
ण्य	-8.79759
१७	-8.79938
▁हरि	-8.80005
▁अधिकार	-8.80016
बुद्ध	-8.80053
शक्त	-8.8009
झ	-8.80116
ाप्य	-8.80174
ोत्	-8.80357
ीति	-8.80648
▁भारतीय	-8.80817
वाच	-8.8083
क्षि	-8.80924
मस्ति	-8.81042
▁तथापि	-8.81084
▁हर	-8.81085
ाहं	-8.81094
▁यद्य	-8.81102
▁किम	-8.81131
जी	-8.81159
ह्	-8.81253
▁अन्त	-8.8142
तार	-8.81449
कर्ता	-8.81527
▁कथय	-8.81575
इति	-8.81609
▁दीर्घ	-8.81621
थि	-8.8167
x	-8.8168
पात	-8.82119
याम	-8.82134
=	-8.82177
▁नित्यं	-8.82193
विश	-8.82307
V	-8.8237
वर्ध	-8.82574
शास्त्र	-8.82635
टे	-8.82755
▁भाषण	-8.82844
▁वस	-8.82955
संभव	-8.83191
▁6	-8.83221
सां	-8.83307
▁कार्यं	-8.83563
▁समुद्र	-8.83663
न्व	-8.83684
▁नर	-8.83709
▁स्वर्ग	-8.83728
चित्र	-8.83773
▁प्रत्यय	-8.8384
र्त	-8.83893
स्र	-8.84155
पे	-8.8417
▁मद	-8.84337
र्त्त	-8.84359
▁परस्पर	-8.84512
▁प्रकृति	-8.84603
दाय	-8.84632
ीनां	-8.84698
मत	-8.85083
रक्षण	-8.8513
ैत	-8.85205
दो	-8.85273
▁वर्तमान	-8.85297
निमित्त	-8.85711
मन्य	-8.85746
▁मनुष्य	-8.85822
वाह	-8.85991
वाक्य	-8.86025
शासन	-8.86028
00	-8.86105
दृष्ट	-8.86131
गच्छ	-8.86269
G	-8.8631
रू	-8.8646
▁अस्माकं	-8.86496
बि	-8.86515
प्रा	-8.86594
श्रेष्ठ	-8.86647
गे	-8.86664
भाग्य	-8.86779
िनी	-8.86911
वां	-8.8711
▁उच्यते	-8.8714
▁क्रियते	-8.87155
▁किन्तु	-8.87219
15	-8.8722
▁एषा	-8.87346
ग्न	-8.87361
▁सहस्र	-8.87412
ख्यात	-8.8744
ाभाव	-8.87593
मूल	-8.87624
भिर्	-8.8765
ज्ञेय	-8.87654
शेष	-8.87751
▁चैव	-8.87781
al	-8.87843
भु	-8.87926
राष्ट्र	-8.87987
▁तस्मात्	-8.87996
ीकरण	-8.88076
ाण	-8.88084
▁मुख्य	-8.88097
हीन	-8.88102
▁११	-8.8817
्र	-8.88172
कृत्य	-8.88257
मल	-8.88291
▁लेख	-8.88354
▁एते	-8.88385
▁वन	-8.88483
▁तस्या	-8.88497
▁रस	-8.88518
▁कथ	-8.88596
स्प	-8.88621
ग्राह	-8.88696
▁स्वप्न	-8.88784
▁दिव	-8.88905
प्राप्त	-8.88951
योर्	-8.8897
12	-8.88979
▁नगर	-8.89137
▁ऐ	-8.89148
द्वार	-8.89151
लभ	-8.89202
▁वृक्ष	-8.89614
ात्मा	-8.89615
▁अथवा	-8.89627
दार	-8.89659
यन्त	-8.89746
▁धा	-8.89755
▁अनेक	-8.89832
▁देवता	-8.89872
मति	-8.89899
भो	-8.9003
तत्	-8.90208
णु	-8.9079
चल	-8.90791
▁मार्ग	-8.90843
▁पुन	-8.90912
दृश्य	-8.90928
▁यत	-8.90978
▁विचार	-8.91113
प्रयत्न	-8.91131
F	-8.91136
वृत	-8.91238
▁जनाः	-8.91283
कुर्व	-8.91398
सह	-8.91405
▁10	-8.91515
हत	-8.91555
जे	-8.91563
िना	-8.91691
यथा	-8.91697
18	-8.91803
▁समय	-8.91866
ितव्य	-8.919
द्वा	-8.9195
णो	-8.91976
कृति	-8.92018
विधा	-8.92159
11	-8.92169
▁शु	-8.92221
मिदं	-8.92224
▁यतः	-8.92348
पेक्ष	-8.9235
▁द्वादश	-8.92678
ज्या	-8.92728
स्ट	-8.92822
नाश	-8.92837
न्त्य	-8.9302
▁इत्युक्त	-8.93051
▁कल्प	-8.93096
▁इत्यस्य	-8.93116
▁प्रण	-8.93144
१३	-8.9327
▁मानव	-8.93308
▁भवतः	-8.93325
▁प्राप्य	-8.93559
शय	-8.93798
re	-8.93805
▁पाद	-8.93827
िद	-8.93841
पद्यते	-8.93869
▁देह	-8.93871
▁कोई	-8.93938
ल्प	-8.94011
U	-8.94092
च्य	-8.94117
▁अह	-8.94125
▁पृष्ठानि	-8.94183
▁ध्यान	-8.94368
▁सौ	-8.94392
▁जीवन	-8.9445
▁ईश्वर	-8.94452
नाय	-8.94497
▁अध	-8.94556
▁पुण्य	-8.94868
ामः	-8.94979
रोह	-8.95083
▁हेतु	-8.95129
भिन्न	-8.95137
▁माता	-8.95192
र्द्ध	-8.95332
▁तस्मिन्	-8.95358
रेण	-8.9537
▁I	-8.95374
पदं	-8.95476
▁कल	-8.95493
निर्देश	-8.95558
सभा	-8.95666
▁विकल्प	-8.9575
नगर	-8.95862
स्क	-8.95928
द्या	-8.96305
मोह	-8.9641
▁मूल	-8.96478
▁B	-8.96502
ाङ्ग	-8.96599
▁जग	-8.96769
▁इत्येव	-8.96935
▁यथ	-8.96944
समीप	-8.97032
्यम्	-8.97046
ग्नि	-8.97099
तव्य	-8.97197
शील	-8.97223
ांश	-8.97259
ष्टि	-8.97307
▁१८	-8.97346
▁P	-8.9737
व्	-8.97617
यामि	-8.97709
ेष्व	-8.97749
▁एकः	-8.97766
▁पुस्तक	-8.97777
▁पार	-8.97861
▁त्वां	-8.97982
िष्यामि	-8.9819
कर्तु	-8.98249
ानाम	-8.9826
ुत्	-8.98289
▁की	-8.98432
▁ला	-8.98562
गो	-8.98566
र्ध	-8.98599
भोग	-8.98614
ोत्तर	-8.9872
त्रि	-8.98748
लिखित	-8.98947
राग	-8.98964
शङ्क	-8.99034
पर्य	-8.99223
दीप	-8.99255
दोष	-8.99335
▁परीक्षा	-8.99384
▁समान	-8.99459
्याः	-8.99563
..	-8.99582
धारण	-8.99586
मुद	-8.99779
प्रतिषेध	-8.9979
६	-8.9985
▁लोके	-9.00012
दय	-9.00018
▁समर्थ	-9.00244
विशिष्ट	-9.0033
17	-9.00606
▁कुरु	-9.00708
व्यय	-9.00727
▁कथित	-9.00771
▁है	-9.00862
ित्वा	-9.00889
गर्भ	-9.00919
कुल	-9.01026
▁तथैव	-9.01113
ेत्य	-9.01146
▁१२	-9.01301
▁C	-9.01318
कर्ण	-9.01347
भवति	-9.01355
षे	-9.01447
▁बुद्धि	-9.01585
14	-9.01682
कस्य	-9.0172
खे	-9.01786
▁प्रधान	-9.01877
▁अनुसंधान	-9.01886
ध्र	-9.01966
बुध	-9.01985
▁मृत	-9.01997
es	-9.0205
▁प्रातः	-9.0208
▁लाभ	-9.02133
मुद्	-9.0225
▁भवान्	-9.02268
िष्यति	-9.02309
▁सम्बन्ध	-9.02337
ेद	-9.02365
▁प्रत्येक	-9.02454
▁प्रत्यक्ष	-9.02523
लोप	-9.02544
रित	-9.02574
न्यास	-9.02645
भास	-9.02724
M	-9.0278
▁पुरा	-9.02807
र्द	-9.0286
विद्य	-9.03022
▁बा	-9.03128
ख्या	-9.03466
▁भवे	-9.03509
िष	-9.03512
▁वक्तव्य	-9.03573
कृता	-9.03574
दुःख	-9.03603
▁सर्वेषां	-9.03616
▁पूर्वं	-9.03709
१०	-9.03787
▁1.	-9.03839
▁संसार	-9.0387
▁पर्य	-9.03879
्यु	-9.04077
वश	-9.04112
यान	-9.04112
▁अनेन	-9.04192
संख्या	-9.042
स्तथा	-9.04286
चक्र	-9.04309
▁औ	-9.04358
▁क्व	-9.04373
▁कस्य	-9.04421
व्यवहार	-9.04437
▁ग्रह	-9.04445
▁चित्र	-9.04752
ाख्य	-9.04872
▁बह	-9.04876
▁प्रभाव	-9.04879
▁यावत्	-9.04948
H	-9.04956
▁पिता	-9.05053
ञ	-9.05058
▁इन्द्र	-9.05131
▁न्याय	-9.05184
ीकृत	-9.05204
र्क	-9.05276
▁7	-9.05349
▁सर्व्व	-9.0539
▁दिश	-9.05408
भ्या	-9.05453
स्थाने	-9.05473
सिद्धि	-9.05572
स्मात्	-9.05622
सत्त्व	-9.05643
▁हा	-9.05771
राज्य	-9.06023
▁T	-9.0603
▁शत्रु	-9.061
नाम्	-9.06102
न्नि	-9.06185
▁विकास	-9.06252
हृत	-9.06522
प्रती	-9.06588
▁नृप	-9.06634
चिद	-9.06652
▁प्राप्नोति	-9.0666
▁भगवान्	-9.06674
---	-9.06718
▁तत्त्व	-9.06721
▁भावः	-9.06731
७	-9.06738
▁दत्त	-9.06779
▁मध्य	-9.068
सागर	-9.0681
ओ	-9.06847
योग्य	-9.06921
पथ	-9.06999
▁वेबसाइट	-9.07034
दन	-9.07038
त्येव	-9.07088
यितुं	-9.07237
▁प्रकृत	-9.07344
▁दिव्य	-9.07487
च्छेद	-9.07515
जान	-9.07529
बी	-9.07548
▁संयुक्त	-9.07571
▁अधिकतम	-9.07746
▁यु	-9.07782
▁खलु	-9.0787
▁सर्वदा	-9.07881
जः	-9.07957
्यू	-9.08099
B	-9.08122
▁उत्तम	-9.08184
▁L	-9.08241
ितुं	-9.0827
स्वभाव	-9.0827
▁मृत्यु	-9.08287
▁इदानीं	-9.08331
ाम्य	-9.08435
▁आत्म	-9.08734
▁यू	-9.08737
रण्य	-9.08797
▁उच्च	-9.08842
▁कुर्वन्ति	-9.08868
मान्	-9.08897
सृज	-9.08924
महा	-9.08939
प्रत्यय	-9.08963
▁कृष्ण	-9.08985
ुर	-9.09008
प्रयोग	-9.09113
९	-9.0919
▁शास्त्र	-9.09211
कर्ष	-9.09366
▁इत्यर्थः	-9.09373
▁वृद्ध	-9.0946
ख्य	-9.09525
▁त्वा	-9.09525
▁१५	-9.09608
भवत्	-9.09631
ेयं	-9.09739
हू	-9.09919
▁विष	-9.09965
साध्य	-9.09998
क्षित	-9.10022
पन	-9.10052
▁समाप्त	-9.1023
▁मुक्त	-9.10244
मानं	-9.10268
चन	-9.10358
▁ग्राम	-9.10365
२०	-9.10409
▁विभाग	-9.1042
बु	-9.10486
▁यज	-9.10547
टा	-9.10551
षण	-9.10584
मुच्यते	-9.10606
३०	-9.10606
घात	-9.10642
भ्यः	-9.10667
मेक	-9.10706
▁झ	-9.10765
▁अधि	-9.10777
ेद्	-9.10891
वश्य	-9.10929
ष्व	-9.11046
▁रथ	-9.11047
▁लघु	-9.11139
▁पू	-9.11178
थु	-9.11185
▁मास	-9.11316
▁M	-9.11477
▁अध्ययन	-9.11607
क्ष्म	-9.11666
विभाग	-9.1168
▁उभय	-9.11705
रोध	-9.11716
%	-9.11749
▁पितृ	-9.11751
क्री	-9.11788
ाधि	-9.11858
▁विप्र	-9.11977
▁छात्र	-9.12068
यात्	-9.12176
वद्	-9.12346
मोक्ष	-9.12525
प्रिय	-9.12575
▁अधिनियम	-9.12613
ाधिकार	-9.12705
सद	-9.12891
▁पूजा	-9.13011
$	-9.13107
▁ताव	-9.1311
क्षेप	-9.13305
न्तः	-9.13371
▁राज्ञ	-9.13377
str	-9.13504
तन	-9.13519
निर्णय	-9.13563
▁दे	-9.13657
ताप	-9.138
▁ज्ञात	-9.13882
16	-9.13958
▁द्विज	-9.14006
ाधिक	-9.14077
ायै	-9.1415
it	-9.1418
▁ननु	-9.14248
गन्ध	-9.14377
▁संख्या	-9.14524
परिणाम	-9.14625
जो	-9.14638
भ्रम	-9.14663
▁फलं	-9.1476
▁आप	-9.14995
पूर	-9.15109
िनां	-9.15119
▁पर्वत	-9.15138
व्यापार	-9.1517
गति	-9.15358
▁मध्यम	-9.15377
▁आगत	-9.15486
▁सत्	-9.15715
▁यतो	-9.15837
▁परिवर्त	-9.15946
ैष	-9.1596
विद्या	-9.16034
यॊ	-9.16174
नित्य	-9.162
L	-9.1642
▁समास	-9.16423
▁19	-9.16543
थ्य	-9.16589
वक्ष्य	-9.16659
धृत	-9.16746
स्स	-9.16812
▁>	-9.16812
निर्माण	-9.16829
{	-9.16921
स्तव	-9.16923
▁प्रसिद्ध	-9.16995
ूनां	-9.17223
दौ	-9.17391
साध	-9.17461
स्थापन	-9.1759
धाय	-9.17677
व्यवस्था	-9.17739
००	-9.17789
▁भवता	-9.17962
▁अध्याय	-9.18
ची	-9.18048
▁उदाहरण	-9.18124
▁चित्त	-9.18197
▁बालक	-9.18268
13	-9.18303
▁सकल	-9.18343
गृहीत	-9.18551
म्ह	-9.18993
केन	-9.19049
विशेषण	-9.1905
▁कथा	-9.19063
▁गृहे	-9.19167
त्वम	-9.19168
पान	-9.19293
▁दिवस	-9.193
पद्य	-9.19407
▁चतुर्	-9.19467
संशय	-9.19531
फु	-9.19546
निर्मित	-9.19608
▁द्वारा	-9.19613
▁दैव	-9.19668
स्यापि	-9.19699
१९	-9.19708
st	-9.19947
व्याख्या	-9.20007
▁कारणं	-9.20013
शाल	-9.20026
▁श्रुत्वा	-9.2011
▁दण्ड	-9.20175
राम	-9.20184
▁निज	-9.20197
भे	-9.20274
संबन्ध	-9.20284
युत	-9.20311
२२	-9.20418
▁उपयोग	-9.20429
विषये	-9.20437
दध	-9.20507
▁जगत्	-9.20532
िण	-9.20737
गता	-9.20771
निश्चित	-9.20799
▁कुल	-9.21026
त्याग	-9.21176
▁विषये	-9.2141
▁रोग	-9.21465
वर्तते	-9.215
न्या	-9.2154
ज्योति	-9.21564
लम्ब	-9.21669
▁समाचार	-9.21676
लेख	-9.21782
▁कदाचित्	-9.21957
रति	-9.22162
ार्थः	-9.22173
ब्राह्मण	-9.22217
▁विज्ञान	-9.22363
िर्	-9.22376
विष्ट	-9.22388
कृत्	-9.22426
▁कर्तुं	-9.22444
ोत्तम	-9.22538
रक्ष	-9.22568
en	-9.22664
्यमान	-9.22811
▁विविध	-9.22849
िते	-9.22904
धेय	-9.2307
▁१४	-9.23173
रेव	-9.23222
▁वाम	-9.23341
am	-9.23418
ीश्वर	-9.23548
युज्य	-9.23563
▁सुर	-9.23596
वन्तः	-9.23668
काय	-9.23679
▁मै	-9.238
भुव	-9.23862
▁अपर	-9.23943
न्वय	-9.2407
ही	-9.24159
▁पदार्थ	-9.24187
समये	-9.24282
▁पृथक्	-9.2429
चिन्तय	-9.24308
ुर्	-9.24319
म्भ	-9.24321
▁पृ	-9.24353
▁2.	-9.24426
दपि	-9.24625
▁भूमि	-9.24655
#	-9.24678
निष्ठ	-9.24679
▁यद्यपि	-9.24692
▁वृद्धि	-9.25106
▁अहम्	-9.2512
▁...	-9.2515
भागे	-9.25156
msg	-9.25178
▁षष्ठ	-9.25214
शू	-9.25221
वल	-9.25246
▁सिंह	-9.25259
प्स	-9.25273
चरण	-9.25303
▁अन्तर्	-9.25318
▁#	-9.25354
धू	-9.25451
▁कन्या	-9.25489
िष्ठ	-9.2557
लय	-9.2575
ितो	-9.25794
ह्व	-9.25865
सम्बद्धानि	-9.25903
च्छा	-9.25913
▁चन्द्र	-9.25934
▁शुद्ध	-9.25934
ादीनां	-9.25962
▁शीत	-9.26061
क्स	-9.26092
गीत	-9.26223
▁कुत्र	-9.26263
नन्तर	-9.26286
शब्दः	-9.26319
वृ	-9.26427
जय	-9.26447
▁पत	-9.26451
ाऽऽ	-9.26461
▁सो	-9.26541
▁क्वचित्	-9.26565
सङ्ग	-9.26566
मुत्	-9.26584
पते	-9.26629
मध्य	-9.2671
▁इत्येत	-9.26772
क्क	-9.268
खण्ड	-9.26853
ान्न	-9.27136
}	-9.27146
पतिः	-9.272
▁गत्वा	-9.27374
जल	-9.27395
▁वो	-9.27596
२५	-9.27757
▁तथ	-9.27799
२४	-9.27972
▁पश्चिम	-9.28
▁प्रवेश	-9.28118
न्तं	-9.28126
देशस्य	-9.28148
विनाश	-9.28226
20	-9.28227
▁तिथि	-9.28259
सुख	-9.28273
▁जनवरी	-9.28314
▁सति	-9.28321
वच	-9.28455
वर्त्त	-9.28581
le	-9.28609
भेदे	-9.28681
▁इयं	-9.28726
योर	-9.28738
at	-9.28894
हेतु	-9.28959
▁पृथिवी	-9.29069
शून्य	-9.29077
ेभ्यो	-9.29101
▁अमेरिका	-9.29252
चाल	-9.29294
हस्त	-9.29335
▁यश	-9.29346
कारेण	-9.29363
▁इत्यनेन	-9.29397
स्थल	-9.29439
दिष्ट	-9.29478
रथ	-9.29523
▁वीर	-9.29685
▁चतुर्थ	-9.29701
िष्यते	-9.29902
्यर्थ	-9.29949
ग्रे	-9.29958
भाष्य	-9.30093
▁मयि	-9.30102
▁रात्रि	-9.30125
भिर	-9.30161
प्रकार	-9.3027
मिव	-9.30333
ट्ट	-9.30401
पुराण	-9.30505
न्ती	-9.30543
ायाम्	-9.30626
▁यम	-9.30631
▁इत्यत्र	-9.30783
तीर्थ	-9.30825
▁भूय	-9.3086
नाथ	-9.3087
स्मान्	-9.30885
ब्रू	-9.31013
शान्त	-9.31082
ास्ति	-9.31261
▁विशेषतः	-9.31297
▁विद्यालय	-9.31338
ग्राम	-9.3138
ज्ञात	-9.31385
▁भारतस्य	-9.31619
किं	-9.31701
मुद्र	-9.31739
परा	-9.31846
हितं	-9.31875
ार्ध	-9.31905
क्रान्त	-9.3194
ेषा	-9.31951
ed	-9.31959
▁आवश्यक	-9.32276
सहस्र	-9.32306
गू	-9.3242
▁मुनि	-9.32483
ेनैव	-9.32528
बद्ध	-9.32536
सूत्र	-9.32559
नीति	-9.32577
भर	-9.3262
ऋ	-9.32654
दीय	-9.32681
भौ	-9.32705
▁ग्रन्थ	-9.32805
यित्वा	-9.3285
हन	-9.32948
ासन	-9.3305
पत्य	-9.33115
▁महत्	-9.33154
▁एतद	-9.33373
तद	-9.33376
▁सूच	-9.33536
सुर	-9.33607
▁तौ	-9.33614
िभिः	-9.33631
त्री	-9.33655
गी	-9.33727
प्रत्य	-9.33825
तुर	-9.3392
is	-9.34052
िणी	-9.3411
▁करो	-9.34113
▁नरक	-9.3429
मन्त	-9.34336
ुद	-9.34415
विज्ञान	-9.34444
ब्र	-9.34581
५०	-9.34616
▁स्मर	-9.34639
पर्व	-9.34808
ic	-9.34852
@	-9.34861
ग्ल	-9.34922
10	-9.34958
▁एषः	-9.34961
दास	-9.34973
२७	-9.34975
ोऽयं	-9.35013
भृ	-9.35057
दानं	-9.35108
क्य	-9.35205
▁करिष्य	-9.35244
▁बाध	-9.35323
श्रुत	-9.35354
▁स्थिति	-9.35414
रोग	-9.3543
▁व्यक्ति	-9.35443
▁माया	-9.35447
भारत	-9.35474
दन्त	-9.35604
K	-9.3561
निश्चय	-9.35632
यू	-9.35787
्युप	-9.35804
▁शरण	-9.35907
▁जय	-9.35927
▁अयम्	-9.35973
▁कीदृश	-9.3601
▁स्त्रिय	-9.36101
िणः	-9.3611
ाश्रय	-9.36205
कारक	-9.36327
महोदय	-9.36463
र्ग	-9.36477
स्पर्श	-9.3652
डी	-9.36569
नियम	-9.36573
▁१६	-9.36605
ोद्	-9.36743
▁गतः	-9.36762
पूज	-9.36767
▁निरा	-9.36779
न्ता	-9.3685
साधारण	-9.36853
▁कृपया	-9.36921
▁याना	-9.36924
&	-9.36971
▁नै	-9.36994
ण्ट	-9.37154
तुर्	-9.37182
यात्रा	-9.37231
▁---	-9.37366
▁सङ्	-9.37537
▁सम्प्र	-9.37605
▁द्रव्य	-9.37669
गम्य	-9.37671
पश्य	-9.378
जाल	-9.37868
णीय	-9.37941
▁शृणु	-9.38074
दानी	-9.38121
▁धीर	-9.38166
▁थ्व	-9.38184
▁कला	-9.38646
▁प्रदेश	-9.3865
▁मूल्य	-9.387
यन्त्र	-9.38781
▁ज्ञानं	-9.38787
▁अङ्ग	-9.3883
चिद्	-9.3884
दृष्टि	-9.38924
▁अग्र	-9.39005
संयोग	-9.3902
W	-9.39095
स्मै	-9.39195
च्छि	-9.39244
द्धि	-9.3927
▁विनि	-9.39299
तोऽ	-9.39416
िनो	-9.39431
▁मरण	-9.39466
▁Tag	-9.39469
▁आत्मा	-9.39627
▁प्रतिशत	-9.39667
चु	-9.39671
खिल	-9.39764
ब्ध	-9.39788
वध	-9.39833
ैश्च	-9.39913
बीज	-9.39916
ादयः	-9.39929
▁परीक्षण	-9.3994
कर्मणि	-9.39991
▁पुष्प	-9.39992
तद्	-9.40057
▁अर्थः	-9.40102
स्तर	-9.40211
▁याये	-9.40317
घट	-9.4036
शिष्ट	-9.40377
लित	-9.40431
कुमार	-9.40452
क्रमेण	-9.40463
▁पे	-9.4049
न्तो	-9.40586
व्रज	-9.40629
२६	-9.40882
वृत्तिः	-9.40981
▁एतद्	-9.41029
विष	-9.41049
▁नेवाः	-9.411
पट	-9.4113
▁क्षम	-9.41249
▁Home	-9.41265
विरुद्ध	-9.41369
▁समाज	-9.4149
स्नेह	-9.41493
▁बाह्य	-9.41498
as	-9.41718
ोऽहं	-9.41775
ह्र	-9.41804
पीड	-9.42055
निर्दिष्ट	-9.42269
▁कवि	-9.42499
▁<	-9.42501
•	-9.42609
▁तेषु	-9.42622
२८	-9.42692
समूह	-9.42764
करणे	-9.42764
▁शर	-9.42872
X	-9.429
vi	-9.4294
जन्म	-9.42951
भृत	-9.43074
▁वर्षा	-9.43186
त्त्व	-9.43198
तीत्य	-9.43287
क्रमण	-9.43381
ल्या	-9.43476
क्षेत्र	-9.43499
रुचि	-9.43555
ुत्तर	-9.43631
▁याव	-9.43658
भिप्राय	-9.43668
तिरिक्त	-9.43708
संज्ञ	-9.43721
▁पश्यति	-9.43721
द्यु	-9.43803
नन्द	-9.43858
पृष्ठ	-9.43909
▁रात्रौ	-9.4392
युध	-9.43922
ारम्भ	-9.43939
ाङ्क	-9.44139
स्मरण	-9.44305
रह	-9.44371
▁जीवित	-9.44416
नू	-9.44439
ितुम्	-9.44494
र्जन	-9.44506
▁देवी	-9.44512
्यै	-9.44524
ग्ने	-9.44576
प्रद	-9.44748
ह्न	-9.44774
ad	-9.44817
मर्थ	-9.44865
ितवान्	-9.44905
्यादि	-9.44928
▁मर्	-9.44993
▁रम	-9.45031
सङ्ख्या	-9.45049
मोद	-9.45114
▁परमेश्वर	-9.45123
स्त्य	-9.4516
▁मनः	-9.45189
स्तस्य	-9.45233
▁किल	-9.45393
१८	-9.45517
सृष्ट	-9.45519
ैन	-9.45521
द्द	-9.45595
ट्र	-9.45649
पञ्च	-9.45724
पृच्छ	-9.4575
११	-9.4575
ास्ते	-9.4585
▁जगत	-9.45944
▁इतर	-9.46072
निषेध	-9.46075
्येत	-9.46078
▁कश्चित्	-9.46102
पक्षे	-9.46145
रिय	-9.46292
गृह्य	-9.46309
▁गच्छति	-9.46429
िह	-9.46498
▁दृढ	-9.46531
▁विष्णु	-9.46558
▁यूयं	-9.4656
क्ल	-9.46589
रहित	-9.46645
▁वापि	-9.46671
दुर्	-9.46697
प्रदेश	-9.4674
दद	-9.46741
पू	-9.46796
ऽहं	-9.4689
स्वर	-9.46919
▁तावत्	-9.4692
▁समस्त	-9.47068
एव	-9.47095
जायते	-9.4725
विवेक	-9.47362
शाला	-9.47376
संस्कार	-9.47425
ध्याय	-9.47449
द्रु	-9.47481
कीर्ति	-9.47506
लाभ	-9.4776
विंशति	-9.47963
वन्त	-9.47984
प्रत्ययः	-9.48068
▁संस्करण	-9.4808
१२	-9.48092
▁याति	-9.48151
पार्श्व	-9.48193
▁तादृश	-9.48233
→	-9.48277
▁भवन्त	-9.48458
▁पृथ	-9.48481
▁देवानां	-9.48555
महं	-9.48556
एक	-9.48608
▁स्पष्ट	-9.4871
शन	-9.4876
द्वीप	-9.48847
प्राप्ति	-9.48961
▁पशु	-9.48969
१५	-9.49082
शिर	-9.49114
▁द्वे	-9.49209
▁परिभाषा	-9.49503
साहित्य	-9.49759
▁किमपि	-9.49788
▁मधु	-9.49806
▁आसन्	-9.49829
भूत्	-9.49932
▁भगवन्	-9.49933
ज्ञाय	-9.49951
ाधिप	-9.50009
वेग	-9.50052
ोदय	-9.50441
▁इदम्	-9.50642
▁चापि	-9.50702
तत्त्व	-9.50883
दक्षिण	-9.50934
पात्र	-9.50947
ासीत्	-9.5109
ेदं	-9.51272
▁कदा	-9.51302
छि	-9.51328
▁त्रि०	-9.51535
वस्तु	-9.51563
il	-9.51588
ुक	-9.51593
पाप	-9.51758
▁न्यून	-9.51782
न्तरिक्ष	-9.51827
दित्य	-9.51909
मभि	-9.52036
▁श्लोक	-9.52061
▁जुइ	-9.52064
करो	-9.52082
र्हि	-9.522
▁जाता	-9.52248
ce	-9.5234
▁दुर्लभ	-9.52385
षी	-9.52427
▁अश्व	-9.52594
ानुसार	-9.52836
गल	-9.5294
कर्म्म	-9.53029
▁तस्याः	-9.53072
पृ	-9.53091
उप	-9.53129
ाग्र	-9.53146
वंश	-9.53265
धाव	-9.53325
समुदाय	-9.53348
पूज्य	-9.53348
केश	-9.53382
लभ्यते	-9.53389
३१	-9.5341
मिच्छ	-9.53575
▁पृथिव्या	-9.53901
▁स्थिर	-9.53996
भूमि	-9.54126
▁अधुना	-9.54293
▁विजय	-9.54319
र्वा	-9.54372
▁क्रि	-9.54381
वाहन	-9.54391
▁कोऽपि	-9.54433
पदा	-9.54494
वीर्य	-9.54495
सम्बन्ध	-9.54654
▁प्रायः	-9.5466
कम्प	-9.5467
खि	-9.54921
१४	-9.54947
ज़	-9.54969
प्रसाद	-9.54983
▁प्रभु	-9.54985
कुशल	-9.55095
▁व्यवसाय	-9.55161
▁ध्वनि	-9.5531
राध	-9.5543
गर	-9.55523
सत्य	-9.5554
j	-9.55597
▁तदेव	-9.55604
हृद	-9.55649
21	-9.55784
▁तेषाम	-9.55851
▁नदी	-9.55892
▁रज	-9.55901
▁3.	-9.55965
ाब्द	-9.55966
▁यत्न	-9.55994
कर्तृ	-9.55997
२९	-9.56041
▁धारा	-9.56176
▁जप	-9.5618
▁विवाह	-9.56222
शैल	-9.56289
विश्व	-9.56321
हर्ष	-9.56343
न्याय	-9.56369
रत्न	-9.5646
▁सदस्य	-9.56566
30	-9.5658
25	-9.56586
तये	-9.56603
स्त्रि	-9.56609
वृद्ध	-9.56686
सहित	-9.56797
राशि	-9.56873
▁गते	-9.56912
▁विमान	-9.56917
मुन	-9.57042
▁स्वतन्त्र	-9.57091
लय्	-9.5711
स्तत्र	-9.57114
३२	-9.57174
द्वारा	-9.57238
▁काव्य	-9.57343
▁आकाश	-9.57658
विकिपीडिया	-9.57711
ाच्च	-9.57819
▁नेपाल	-9.57893
▁तान्	-9.58025
▁श्रुति	-9.58088
ष्टु	-9.58135
▁मृग	-9.58319
ष्म	-9.58335
▁मुक्ति	-9.58415
ing	-9.58471
पाक	-9.58774
▁न्ह्य	-9.58797
वर्जित	-9.58921
▁प्रशिक्षण	-9.58924
स्थिति	-9.58928
तर्क	-9.58943
जित	-9.58965
स्थापित	-9.59089
ुच्यते	-9.59193
संज्ञा	-9.5921
योजय	-9.59262
▁स्वयम्	-9.59515
ादिषु	-9.59529
▁एकादश	-9.59605
फ्	-9.59666
▁युव	-9.59712
▁योजना	-9.59775
▁इतिहास	-9.59785
चित्त	-9.59825
ित्यर्थः	-9.59844
▁छुं	-9.5992
विकल्प	-9.59944
▁व्यव	-9.60093
भाषण	-9.60132
ङि	-9.60204
निपात	-9.60321
वृष	-9.6038
▁मही	-9.60394
शब्देन	-9.60452
क्षेत्रे	-9.60628
▁कृतम्	-9.60826
▁स्त्रियां	-9.60849
ou	-9.60862
भाज	-9.61055
क्रय	-9.61077
िणा	-9.61113
निधि	-9.61156
प्रमाण	-9.61158
यमान	-9.61221
चिन्	-9.61273
विपरीत	-9.61275
▁तै	-9.61311
बर	-9.61342
▁करोमि	-9.61357
▁भ्रात	-9.61489
▁आगच्छ	-9.61499
ाक्षर	-9.61536
▁मातृ	-9.6154
प्रकाश	-9.61572
ागम	-9.61631
▁चिर	-9.61771
दूषण	-9.61882
▁द्वौ	-9.61908
बुद्धि	-9.6192
▁भज	-9.61993
▁सप्तम	-9.62109
▁प्रथमा	-9.62239
▁वत्स	-9.62552
मांस	-9.62576
़	-9.62582
दै	-9.62654
▁रुपये	-9.6269
▁दुष्ट	-9.62708
▁कृषि	-9.62742
▁वने	-9.62876
द्वै	-9.62941
▁लिखत	-9.62985
कीर्त	-9.62986
प्प	-9.62988
▁उपयोगकर्ता	-9.63044
▁राजन्	-9.6312
▁विदेश	-9.63171
पाय	-9.63191
▁भवतु	-9.63202
दिव	-9.63232
ाशय	-9.63256
▁कुत	-9.63296
भूता	-9.63344
us	-9.63363
▁पूजय	-9.63576
यज्ञ	-9.63583
ाध्याय	-9.63632
ra	-9.63763
▁क्रोध	-9.63869
▁शान्ति	-9.63955
यामास	-9.63955
िष्	-9.63977
ङ्गल	-9.63998
ात्मनः	-9.64035
स्रोत	-9.64064
▁उपरि	-9.64097
▁कुर्वन्	-9.64122
24	-9.64142
▁प्रत्या	-9.64229
सदृश	-9.64263
▁देहि	-9.64312
▁कुतः	-9.6439
च्या	-9.64404
तिथि	-9.64437
त्यर्थ	-9.64652
बाध	-9.64712
▁कै	-9.64725
et	-9.64809
▁सर्वाणि	-9.64909
▁शीघ्रं	-9.65008
भुज	-9.65045
संख्य	-9.65054
सैन्य	-9.65155
बृह	-9.65204
सर्प	-9.65438
▁कुर्यात्	-9.65502
▁कथम्	-9.65607
सप्त	-9.65738
वरण	-9.65876
दिवस	-9.66115
पाठ	-9.66323
▁सरकार	-9.66629
श्चैव	-9.66692
▁स्वीकृत	-9.66886
▁साधु	-9.66964
ग्ध	-9.66979
शीर्ष	-9.67049
छा	-9.67056
▁प्रवर्त	-9.67056
प्ल	-9.67057
▁तस्माद	-9.67138
▁भर्त	-9.6721
संयुक्त	-9.67226
घ्न	-9.67229
▁पितर	-9.67297
▁पश्चात्	-9.673
पेक्षा	-9.67302
ान्वित	-9.67414
▁तानि	-9.67513
▁कार्	-9.67521
▁शीघ्र	-9.67558
वेष	-9.67604
थ्	-9.6766
50	-9.67689
प्रथम	-9.67805
ामहे	-9.67871
पत्त	-9.67894
▁कुर्या	-9.67898
ऽनु	-9.68024
▁कथम	-9.68033
▁दक्षिणा	-9.68143
घु	-9.68218
कल्याण	-9.68289
१६	-9.68385
वादी	-9.68416
ऊ	-9.68478
▁राक्षस	-9.68535
कथा	-9.68667
मन्दिर	-9.68706
वार्ता	-9.68721
सीद	-9.68738
कैः	-9.68765
ol	-9.68773
ाधिकरण	-9.68876
शब्दस्य	-9.69083
मिह	-9.69124
J	-9.69131
वृक्ष	-9.69134
नगरे	-9.69187
िषु	-9.69438
▁प्रसन्न	-9.6946
ग्रन्थ	-9.69469
जग	-9.69475
▁क्षमा	-9.69486
▁स्याद	-9.69515
साद	-9.69544
ुत्तम	-9.69547
इगु	-9.69605
तरा	-9.69617
वस्त्र	-9.69636
वर्षाणि	-9.69639
दुर	-9.69662
▁धन्य	-9.69776
मित्र	-9.69837
▁प्रकरण	-9.69952
ज्वल	-9.69989
▁इदम	-9.70032
▁द्रष्टु	-9.70149
त्वाद	-9.7049
त्रापि	-9.70531
▁इष्ट	-9.7056
▁ऋण	-9.70606
स्तदा	-9.70676
भाषित	-9.7072
फ़	-9.70784
स्माकं	-9.70857
▁स्वार्थ	-9.70857
el	-9.70862
युद्ध	-9.71008
▁प्रयुक्त	-9.71087
कोटि	-9.71164
रित्य	-9.71332
▁परन्तु	-9.71363
भद्र	-9.7149
स्मृति	-9.71655
▁पृष्ट	-9.71697
▁खाद	-9.71761
02	-9.71769
क्षिप	-9.7179
पर्यन्तं	-9.71797
▁श्वेत	-9.71817
▁दर्शय	-9.71838
▁बहुधा	-9.72069
शुद्ध	-9.72069
▁आत्मन	-9.72392
प्रसङ्ग	-9.72497
ii	-9.72498
▁अन्न	-9.72555
▁//	-9.72676
च्छ्र	-9.72683
शिख	-9.72687
▁प्राचीन	-9.72728
▁देय	-9.72994
ेन्द्रिय	-9.73218
▁अतीत	-9.73224
▁एतेन	-9.73388
ab	-9.73464
प्यते	-9.73475
न्यथा	-9.73501
▁गाय	-9.73521
▁आदि	-9.73621
वृद्धि	-9.73653
th	-9.73679
01	-9.73751
३३	-9.73755
रक्षित	-9.73808
ur	-9.73844
म्बर	-9.7397
▁तस्मै	-9.74048
नायक	-9.74152
अह	-9.74158
▁निवर्त	-9.74263
ch	-9.74419
▁विश्लेषण	-9.74437
▁पेपर	-9.74439
▁परमात्म	-9.74569
▁पिब	-9.74706
विश्वविद्यालय	-9.74836
▁अल्प	-9.74857
▁सम्यक्	-9.74861
ानन्द	-9.74934
Y	-9.74969
▁कार्यक्रम	-9.75043
ब्रह्म	-9.75081
संस्कृत	-9.75181
23	-9.75409
▁विद्यमान	-9.75549
दूर	-9.7562
19	-9.75642
03	-9.75664
ण्व	-9.7578
▁खेल	-9.75785
▁सम्पूर्ण	-9.75787
▁तस्मा	-9.75836
धिकार	-9.75861
▁लभते	-9.75972
▁इत्यादिना	-9.75994
▁इमा	-9.76043
▁अभ्य	-9.76134
वर्ज	-9.76212
▁अन्तर	-9.76246
हरण	-9.76307
शिक्षण	-9.76547
▁दुष्	-9.76567
वार्षिक	-9.76601
व्याप्त	-9.76761
▁यथार्थ	-9.76815
▁सदैव	-9.76855
पद्म	-9.76862
प्रधान	-9.76904
▁देवि	-9.76905
द्भव	-9.76957
जीवन	-9.76959
नयन	-9.77007
▁एतस्य	-9.77088
▁करणीय	-9.77106
०४	-9.77205
▁प्रविष्ट	-9.77284
पराध	-9.77318
z	-9.77404
विकार	-9.77481
▁धारय	-9.77515
▁ददाति	-9.7755
▁हव	-9.77644
ay	-9.77712
रङ्ग	-9.77763
पीठ	-9.77779
कृष्ट	-9.77895
▁प्रतिभा	-9.77975
▁सम्भवति	-9.7803
▁येषां	-9.78115
चेतन	-9.78264
▁तस्माद्	-9.7837
▁नूतन	-9.78375
▁कदाचि	-9.78447
मंत्र	-9.7846
न्वित	-9.78461
▁पु०	-9.78476
▁करोतु	-9.78584
शोभ	-9.78651
३६	-9.78688
▁अतीव	-9.78718
▁व्यायाम	-9.78887
▁जूगु	-9.78922
मिश्र	-9.78972
संहिता	-9.79043
▁महिला	-9.79077
▁कृतवान्	-9.79126
विचार	-9.79169
7.	-9.79175
भ्यास	-9.7925
▁भगवान	-9.79266
▁सफल	-9.7938
विस्तर	-9.7939
▁फरवरी	-9.79478
▁जानामि	-9.79635
▁सञ्	-9.79696
▁वय्क	-9.79831
ादित्य	-9.79953
▁अग्ने	-9.80017
6.	-9.80031
▁मूर्ख	-9.80321
गोल	-9.8035
▁अत्यन्त	-9.80378
३५	-9.80437
ाणाम्	-9.80438
▁धन्यवाद	-9.8051
▁अन्यत्र	-9.80597
▁नृत्य	-9.80598
चेष्ट	-9.80676
्यताम्	-9.80724
बहु	-9.80841
▁थः	-9.80983
▁छन्द	-9.81066
कथं	-9.81084
ाग्नि	-9.81092
गद	-9.81119
प्रतीक्ष	-9.81213
▁विधीयते	-9.81323
प्लव	-9.81484
स्पर्ध	-9.815
मासस्य	-9.81634
ऽन्य	-9.81667
्रियते	-9.81777
ाहुः	-9.81792
27	-9.81801
▁हृ	-9.81874
दल	-9.82017
▁इत्याह	-9.82174
ात्मना	-9.82282
▁भवत्य	-9.82482
▁त्यज	-9.82514
राज्यस्य	-9.82572
शोध	-9.82713
व्र	-9.82756
त्याह	-9.82773
▁तच्च	-9.82835
▁नारी	-9.82836
▁मात्रा	-9.82974
तायाः	-9.83089
▁कथ्यते	-9.83094
▁पच	-9.83348
३७	-9.83477
▁हृदि	-9.83596
श्वास	-9.83815
श्रु	-9.83895
▁करिष्यामि	-9.83937
▁श्रेय	-9.8407
▁तिष्ठति	-9.84231
ुष्क	-9.84316
▁कश्चन	-9.84317
ot	-9.84481
सामर्थ्य	-9.84512
▁प्रेम	-9.84522
घोष	-9.84606
ro	-9.84643
पुट	-9.84879
आई	-9.85059
▁शुक्र	-9.85141
▁सीता	-9.85158
४५	-9.85161
प्रेक्ष	-9.85169
▁गोप	-9.85308
▁उवाच	-9.85311
कर्त	-9.85355
22	-9.85456
सङ्घ	-9.85475
मूढ	-9.85518
मनस	-9.85526
▁दर्शयति	-9.85616
वाचक	-9.85685
ाश्रित	-9.85807
▁नील	-9.85903
लग्न	-9.8591
▁मनसा	-9.86051
▁जगद	-9.86058
▁मेरे	-9.86332
▁रुद्र	-9.86341
ाप्नोति	-9.86348
सहस्राणि	-9.86503
▁महान्	-9.86696
▁यस्मिन्	-9.86877
▁रिक्त	-9.87114
▁इय	-9.87174
▁व्याख्यात	-9.87256
ुवाच	-9.87311
योनि	-9.87429
बभूव	-9.87519
ोच्यते	-9.87587
▁खँ	-9.87593
▁अहो	-9.87618
हृदय	-9.87639
ri	-9.87764
▁ज्येष्ठ	-9.8778
▁प्रीति	-9.87817
▁उत्पाद	-9.87835
▁अस्मि	-9.87875
26	-9.8794
लाल	-9.88
▁कमल	-9.88017
▁मन्	-9.88042
वृष्ट	-9.88079
कल्पित	-9.88198
▁अनुभव	-9.88238
ोत्सव	-9.88286
▁अनुकूल	-9.88394
▁to	-9.88433
निवास	-9.88433
निर्वाचन	-9.88587
▁हय	-9.88631
ादिकं	-9.88638
भूय	-9.88656
▁हिंसा	-9.8866
▁युवा	-9.88695
०००	-9.88864
चत्वार	-9.89001
▁पार्थिव	-9.89005
▁मन्यते	-9.8901
▁किञ्चित्	-9.89177
बाहु	-9.89261
शास	-9.89292
भुक्त	-9.89333
विन्द	-9.89363
▁इत्य्	-9.89418
▁मधुर	-9.8955
माध्यम	-9.89614
▁याच	-9.89629
क्लेश	-9.89667
सक्त	-9.89751
योजक	-9.89891
व्यवस्थित	-9.89968
▁तदपि	-9.90037
श्चित्	-9.90252
▁छु	-9.90376
▁रोचते	-9.90396
▁स्वाहा	-9.90496
un	-9.90512
मात्रेण	-9.90589
▁सरल	-9.91014
पालन	-9.91151
पुरस्कार	-9.91222
▁तदर्थ	-9.91308
व्याघ्र	-9.9152
विंश	-9.91606
▁प्रवर्तते	-9.91634
▁अनुवाद	-9.91661
▁सुवर्ण	-9.91744
▁प्रयच्छ	-9.91883
▁दर्शित	-9.91955
शंस	-9.92023
विभक्ति	-9.92037
ऽथ	-9.92038
न्तर्	-9.92071
▁उत्पादन	-9.92113
▁ईश	-9.92302
पीए	-9.92345
▁सायं	-9.92375
om	-9.92399
सृत	-9.92419
▁मत्स्य	-9.92472
▁घोषणा	-9.92489
▁बलि	-9.92567
II	-9.92598
कण्ठ	-9.92604
▁केचित्	-9.92615
▁बहिः	-9.92718
४१	-9.92729
कारिण	-9.92821
28	-9.92897
स्तीति	-9.92973
▁दुर्ग	-9.93061
▁दरिद्र	-9.93082
▁नाना	-9.93136
फ्र	-9.93143
घ्र	-9.93146
▁प्रतिष्ठा	-9.93152
▁पार्	-9.93156
योज्य	-9.93208
▁षड्	-9.93295
त्रिंश	-9.93324
▁मन्द	-9.93383
भूति	-9.93431
ha	-9.93479
सम्पादन	-9.9348
स्तोत्र	-9.93515
▁समीक्षा	-9.93525
करोति	-9.93697
तरण	-9.93698
भ्यन्तर	-9.9386
04	-9.93924
▁प्रभो	-9.94003
स्पृश	-9.94056
▁यजमान	-9.94065
▁कुरुते	-9.94148
चरित	-9.94181
बन्धन	-9.94265
०८	-9.94266
ज्वर	-9.94274
▁एन	-9.94425
भविष्य	-9.94525
स्वास्थ्य	-9.94535
▁तात	-9.94587
▁स्याद्	-9.94594
▁क्ली	-9.94661
युर्	-9.94697
६०	-9.94699
▁Re	-9.94699
▁वदति	-9.94706
▁वस्तुतः	-9.94947
रचना	-9.94992
▁नियत	-9.94998
कल्पना	-9.94998
शुल्क	-9.9505
▁वरिष्ठ	-9.95072
शोधन	-9.95212
दर्भ	-9.95264
▁ज्ञात्वा	-9.95332
iv	-9.95441
पूजित	-9.95474
▁विवरण	-9.95487
३८	-9.95603
08	-9.95702
ॄ	-9.95821
संघ	-9.95847
द्रव्य	-9.95972
४७	-9.95981
▁षट्	-9.96014
पिण्ड	-9.96079
सम्पन्न	-9.96085
05	-9.96092
कथन	-9.9613
▁अर्ध	-9.96352
▁ज्ञायते	-9.96388
▁मनसि	-9.96412
३४	-9.96478
गृ	-9.96714
७०	-9.96737
▁साक्षात्	-9.96805
०९	-9.96819
स्माद्	-9.96853
▁शाश्वत	-9.97015
▁प्रतीयते	-9.97017
ाचार्य	-9.97055
द्भुत	-9.97078
कोश	-9.9708
▁राष्ट्रपति	-9.97081
▁प्रविश	-9.97089
योजित	-9.97106
ात्मानं	-9.97158
▁अधोलिखित	-9.97167
▁आगम	-9.97228
३९	-9.97398
प्राण	-9.9742
▁बहवः	-9.97432
Q	-9.97501
५५	-9.97504
▁सततं	-9.97539
स्तम्भ	-9.97592
▁मद्	-9.97651
▁कृपा	-9.97665
सामान्य	-9.97673
▁गिरि	-9.97689
७५	-9.97717
▁संस्कृति	-9.97786
▁संवत्सर	-9.97837
▁आवेदन	-9.97865
युष्म	-9.97995
▁तयोः	-9.98298
साहस	-9.98314
▁वह्नि	-9.98351
८०	-9.9839
प्रतियोगि	-9.98419
निष्	-9.98568
▁एतादृश	-9.98695
ण्ण	-9.98808
ent	-9.98911
▁कदाचन	-9.99048
▁आनन्द	-9.99185
▁खोज	-9.99266
पेक्षया	-9.99275
▁महत्त्व	-9.99349
▁आरम्भ	-9.99362
07	-9.99391
▁अभ्यास	-9.99467
४९	-9.99513
४८	-9.99545
▁प्राकृत	-9.99582
परिषद	-9.99601
४४	-9.9972
▁पंच	-9.99744
ोऽस्ति	-9.99749
लोचन	-9.99839
▁त्वत्	-9.99876
▁स्वागत	-9.99996
४२	-10.0007
कर्षण	-10.0013
ब्रवी	-10.0018
बर्	-10.0019
▁पूर्वोक्त	-10.0025
▁एकदा	-10.003
मुख्य	-10.0034
मेतत्	-10.0036
▁ङीप्	-10.0039
▁जुल	-10.004
▁श्रद्धा	-10.0049
प्रभ	-10.0055
▁प्रतिवेदन	-10.0057
ive	-10.0064
▁प्रतिज्ञा	-10.0064
ऽभि	-10.0066
सिंह	-10.0067
श्लेष	-10.007
समृद्ध	-10.0077
ोदित	-10.0084
युष्मा	-10.0085
~	-10.0091
▁यच्च	-10.0091
▁हंस	-10.0093
५९	-10.0095
प्रसारण	-10.0106
▁गृह्ण	-10.0119
▁मिथ्या	-10.0126
भवेत्	-10.0144
कोण	-10.0149
हास	-10.0153
ब्रवीत्	-10.0155
▁स्वर्ण	-10.0174
▁नाम्ना	-10.0187
ꣳ	-10.0195
विघ्न	-10.0197
मातर	-10.0197
▁of	-10.0198
वाञ्छ	-10.0218
चक्षु	-10.0224
▁पीत	-10.0228
▁अन्वयः	-10.0233
▁स्वयमेव	-10.0249
च्वंगु	-10.0265
▁चिन्ता	-10.027
रुद्ध	-10.027
▁निद्रा	-10.0271
बै	-10.0283
दीक्ष	-10.029
▁तत्रैव	-10.032
▁आचार्य	-10.0321
समाहित	-10.0321
▁धकाः	-10.0323
ढ़	-10.0339
40	-10.0355
▁अक्षर	-10.0366
▁कर्त्तव्य	-10.0372
▁धूम	-10.0377
▁कदापि	-10.0381
▁प्रधानमन्त्री	-10.0389
▁इमे	-10.0401
वाणी	-10.0403
नृत	-10.0405
भोक्त	-10.0406
भूषण	-10.0432
शुभ	-10.0434
▁त्वयि	-10.0446
▁प्राक्	-10.0448
०५	-10.0452
▁शक्नोति	-10.0461
परम्परा	-10.0462
▁प्रार्थय	-10.0464
चेतस	-10.0464
ोऽस्मि	-10.0464
र्जुन	-10.0467
विद्व	-10.0494
वादिन	-10.0496
em	-10.0498
र्जित	-10.0511
▁शक्नु	-10.0515
▁प्रभात	-10.0516
▁शक्र	-10.0522
ावस्था	-10.053
▁ततस्त	-10.053
क्लि	-10.053
▁करिष्यति	-10.0541
मेध	-10.0542
ाणाम	-10.0548
कूट	-10.0554
29	-10.0555
▁राजान	-10.0568
स्वातन्त्र्य	-10.0569
▁अध्यक्ष	-10.0571
०६	-10.0574
▁मन्ये	-10.0577
▁दुग्ध	-10.0577
क्षिप्त	-10.0588
५२	-10.059
चक्षुष	-10.0604
▁MSS	-10.0606
▁ग्रीष्म	-10.0606
▁द्रष्टव्य	-10.0606
संग	-10.0612
समर्थ	-10.0612
५७	-10.0614
ate	-10.0632
तैल	-10.0644
श्राद्ध	-10.0645
बाल	-10.0659
सन्न	-10.0676
▁भार्या	-10.0677
▁अकरोत्	-10.0679
सचिव	-10.0682
५१	-10.0687
मूर्ति	-10.0732
ॅ	-10.0753
▁महत्वपूर्ण	-10.0753
बध्यते	-10.0759
▁जाग	-10.0781
▁प्राधिकरण	-10.0789
शरीर	-10.0822
च्युत	-10.0836
वेष्ट	-10.0838
▁पितामह	-10.0843
▁वचः	-10.0857
०७	-10.0859
▁विद्यु	-10.0864
▁भूत्वा	-10.0904
दर्प	-10.0913
द्वेष	-10.0916
▁दिनाङ्के	-10.0921
▁नवीन	-10.0961
द्वितीय	-10.0977
▁विश्वास	-10.0979
▁SF	-10.0985
यितु	-10.0994
प्रशंस	-10.1005
▁संसाधन	-10.1008
४६	-10.1011
▁खु	-10.1015
▁मुद्रा	-10.1015
चिन्त्य	-10.1018
▁त्रयो	-10.1031
वक्तु	-10.1032
प्रशस्त	-10.1032
ऑ	-10.1034
गोचर	-10.1054
गन्तव्य	-10.1055
▁वक्तुं	-10.1058
प्नो	-10.1063
७४	-10.1072
▁पर्यावरण	-10.1072
निवृत्ति	-10.1073
स्माद	-10.1079
▁अनन्त	-10.1091
पर्यन्त	-10.11
५६	-10.1112
श्याम	-10.1132
▁यद्वा	-10.1137
▁व्याकरण	-10.114
▁प्रस्तुत	-10.1155
ैरपि	-10.1161
▁पित्र	-10.1161
←	-10.1168
र्पित	-10.1177
मन्त्रिण	-10.1179
ul	-10.118
▁गृहीत्वा	-10.1193
▁शिशु	-10.1204
▁एतेषां	-10.1205
▁औषध	-10.1208
अमेरिक	-10.1218
▁उन्नत	-10.123
द्वन्द्व	-10.1246
प्रदान	-10.1269
▁इत्येतद्	-10.127
ir	-10.1273
ावह	-10.1274
बहू	-10.1305
09	-10.1317
धार्मिक	-10.1344
^	-10.1363
परिमाण	-10.1385
सर्वकार	-10.1425
सम्बद्ध	-10.1442
▁किमर्थं	-10.1443
▁पतित	-10.1446
श्रेणी	-10.1448
06	-10.1458
▁समस्या	-10.1458
▁ऊर्ध्व	-10.1462
▁इन्द्रिय	-10.1471
जायत	-10.1473
▁शयन	-10.1478
▁द्विगुण	-10.1482
▁सृष्टि	-10.1506
▁गुह्य	-10.1507
७६	-10.1509
▁श्रूयते	-10.1519
तेजस	-10.1529
▁सम्बन्धि	-10.1542
पीडित	-10.1576
▁नहीं	-10.1588
com	-10.159
▁स्त्रीणां	-10.1593
दीप्त	-10.1596
▁मह्यं	-10.16
▁करुणा	-10.1605
▁अधिकृत	-10.1611
सूचना	-10.1631
▁चिकित्स	-10.164
भिधीयते	-10.1643
ादीनि	-10.1643
निरोध	-10.166
▁योगदान	-10.1679
▁वेतन	-10.1691
त्यादिना	-10.1692
▁वदन्ति	-10.1696
२००	-10.1696
▁प्रकाशित	-10.17
▁ततश्च	-10.1718
९०	-10.1734
साहाय्य	-10.1744
▁उत्सव	-10.1749
५४	-10.1755
श्राव	-10.1763
संयुत	-10.1764
दृष्ट्या	-10.1767
द्योत	-10.1773
ध्यापक	-10.179
▁विभिन्न	-10.1792
35	-10.1801
▁लाखों	-10.1805
▁अन्तिम	-10.1816
पश्चा	-10.1849
ब्रुव	-10.1849
सत्तम	-10.1878
▁In	-10.188
and	-10.1891
▁कारय	-10.1898
▁घोर	-10.1906
सत्ता	-10.1908
▁गम्यते	-10.1911
भिधान	-10.1913
५८	-10.1919
▁सनातन	-10.1931
दीर्घ	-10.1934
▁एताव	-10.1935
▁किञ्चिद	-10.1941
▁कश्चिद्	-10.1955
६५	-10.196
▁वानर	-10.1968
▁षोडश	-10.1971
बन्धु	-10.1972
▁2019	-10.1975
▁केचन	-10.2002
▁the	-10.2047
पुण्य	-10.2065
प्रश्न	-10.2076
मुहूर्त	-10.2078
▁पश्चाद	-10.2078
ow	-10.2083
प्रतिष्ठित	-10.2115
▁निम्न	-10.2119
▁2020	-10.2124
▁अतएव	-10.2125
▁वर्धते	-10.2128
▁रहस्य	-10.2132
पूजन	-10.214
▁त्यक्त	-10.2179
▁पश्यामि	-10.2194
▁प्रविश्य	-10.2217
लौकिक	-10.2225
ग्रीव	-10.2229
ॐ	-10.4065
q	-10.4263
औ	-10.4568
̣	-10.636
·	-10.669
<	-10.6966
ऎ	-10.7276
ā	-10.7348
ऐ	-10.7793
᳚	-10.8013
↑	-10.8443
°	-10.9539
ऩ	-10.9948
ʼ	-11.062
̇	-11.062
\	-11.0871
Z	-11.0973
›	-11.2232
►	-11.2833
ऱ	-11.302
᳘	-11.3538
×	-11.4369
¦	-11.4964
്	-11.6627
Í	-11.7091
ऌ	-11.7982
̄	-11.8086
ॠ	-11.8514
உ	-11.8514
о	-11.8848
÷	-11.9076
️	-11.931
−	-11.955
а	-11.955
ḥ	-11.9672
●	-11.9795
🙏	-11.9795
€	-12.0842
Ś	-12.1121
ર	-12.1121
்	-12.1264
ū	-12.1409
≤	-12.1556
ऍ	-12.1857
્	-12.2011
ا	-12.2167
́	-12.2167
е	-12.2326
(	-12.2579
н	-12.2651
ા	-12.2818
ॢ	-12.2818
¬	-12.2818
ऴ	-12.2987
р	-12.2987
л	-12.316
₹	-12.316
ü	-12.3514
т	-12.3514
৷	-12.3514
и	-12.3696
Ø	-12.3881
σ	-12.3881
é	-12.3881
ə	-12.4262
ന	-12.4262
√	-12.4458
ī	-12.4658
£	-12.4862
👉	-12.507
с	-12.507
꣢	-12.55
ക	-12.5723
ś	-12.5723
ل	-12.5723
ṣ	-12.5723
в	-12.5723
★	-12.6182
д	-12.6182
ാ	-12.642
ન	-12.642
‐	-12.642
ી	-12.6664
ь	-12.6664
॓	-12.6664
≥	-12.6664
◆	-12.6664
ம	-12.6914
✔	-12.6914
ி	-12.7171
ત	-12.7171
꣣	-12.7434
ー	-12.7434
ா	-12.7704
ે	-12.7704
ി	-12.7704
ു	-12.7982
த	-12.7982
‡	-12.7982
⇒	-12.7982
🔊	-12.7982
ં	-12.7982
મ	-12.7982
á	-12.8268
î	-12.8268
¥	-12.8562
ñ	-12.8562
¢	-12.8865
ن	-12.8865
꣡	-12.8865
Ž	-12.9177
ர	-12.9177
ó	-12.9177
🙂	-12.9177
⁄	-12.95
🇳	-12.95
©	-12.95
м	-12.95
ത	-12.95
🪔	-12.95
§	-12.9833
ر	-12.9833
م	-12.9833
ऄ	-12.9833
ો	-12.9833
ṇ	-12.9833
я	-12.9833
ي	-12.9833
જ	-12.9833
у	-12.9833
【	-13.0178
і	-13.0178
་	-13.0535
ˆ	-13.0535
к	-13.0535
🚩	-13.0535
ı	-13.0906
🌷	-13.0906
б	-13.129
ऺ	-13.129
】	-13.129
й	-13.129
್	-13.129
ய	-13.169
¤	-13.169
ç	-13.169
í	-13.169
̥	-13.169
ક	-13.169
語	-13.169
🌹	-13.169
ര	-13.169
വ	-13.169
ு	-13.2107
வ	-13.2542
ப	-13.2542
י	-13.2542
વ	-13.2542
આ	-13.2996
Î	-13.2996
з	-13.2996
ː	-13.2996
г	-13.2996
্	-13.2996
ˈ	-13.3472
è	-13.3472
à	-13.3472
പ	-13.3472
െ	-13.3972
ട	-13.3972
া	-13.3972
સ	-13.3972
ം	-13.3972
ᳪ	-13.3972
க	-13.4499
Ó	-13.4499
س	-13.4499
ந	-13.4499
❌	-13.4499
د	-13.4499
ц	-13.5054
ऒ	-13.5054
ன	-13.5054
യ	-13.5054
✅	-13.5054
®	-13.5054
ন	-13.5054
п	-13.5054
ನ	-13.5054
ങ	-13.5642
ع	-13.5643
ه	-13.5643
ṭ	-13.5643
ತ	-13.5643
മ	-13.5643
い	-13.5643
ত	-13.6268
ல	-13.6268
ö	-13.6268
પ	-13.6268
બ	-13.6268
ی	-13.6268
ಾ	-13.6268
ṛ	-13.6268
†	-13.6268
🔥	-13.6268
х	-13.6268
ɪ	-13.6934
ب	-13.6934
✍	-13.6934
ರ	-13.6934
⇄	-13.6934
🛑	-13.6934
ऻ	-13.6934
ি	-13.6934
‹	-13.6934
â	-13.6934
હ	-13.6934
അ	-13.6934
ン	-13.7648
ગ	-13.7648
ú	-13.7648
᳭	-13.7648
ж	-13.7648
র	-13.7648
్	-13.7648
ಿ	-13.7648
ല	-13.7648
🌺	-13.7648
ച	-13.7648
ɑ	-13.7649
С	-13.7649
ו	-13.7649
¡	-13.8418
±	-13.8418
ï	-13.8418
̊	-13.8418
μ	-13.8418
ы	-13.8418
⋙	-13.8418
■	-13.8418
▲	-13.8418
❑	-13.8418
📖	-13.8418
ş	-13.8418
॔	-13.8418
િ	-13.8418
🌞	-13.8418
છ	-13.9251
ು	-13.9251
🕉	-13.9251
š	-13.9251
̈	-13.9251
એ	-13.9251
ോ	-13.9251
Ï	-13.9251
ã	-13.9251
و	-13.9251
ܘ	-13.9251
ॡ	-13.9251
ય	-13.9251
၊	-13.9251
✓	-13.9251
❤	-13.9251
➧	-13.9251
ദ	-13.9251
ł	-13.9251
🏻	-13.9251
ম	-13.9251
М	-13.9251
ヒ	-14.016
ṃ	-14.016
ت	-14.016
α	-14.016
′	-14.016
∠	-14.016
◎	-14.016
Б	-14.016
ದ	-14.016
ু	-14.016
一	-14.016
语	-14.016
デ	-14.116
ണ	-14.116
ک	-14.116
૧	-14.116
அ	-14.116
ʊ	-14.116
の	-14.116
ê	-14.116
ה	-14.116
ى	-14.116
ক	-14.116
ಂ	-14.116
❯	-14.116
マ	-14.116
🌸	-14.116
💐	-14.116
ള	-14.116
😂	-14.116
ి	-14.116
ю	-14.116
দ	-14.116
し	-14.116
。	-14.116
ಲ	-14.116
ુ	-14.2271
¶	-14.2271
ṁ	-14.2271
◌	-14.2271
Þ	-14.2271
ʃ	-14.2271
̃	-14.2271
ᄌ	-14.2271
ḍ	-14.2271
◉	-14.2271
☝	-14.2271
➡	-14.2271
図	-14.2271
書	-14.2271
月	-14.2271
ಸ	-14.2271
大	-14.2271
İ	-14.2271
ч	-14.2271
ం	-14.2271
ב	-14.2271
য	-14.2271
న	-14.2271
ర	-14.2271
א	-14.2271
ટ	-14.3521
േ	-14.3521
ল	-14.3521
À	-14.3521
ழ	-14.3521
增	-14.3521
È	-14.3521
ش	-14.3521
ব	-14.3521
ে	-14.3521
શ	-14.3521
ವ	-14.3521
▶	-14.3521
◦	-14.3521
☆	-14.3521
⭐	-14.3521
か	-14.3521
ラ	-14.3521
전	-14.3521
💮	-14.3521
🔱	-14.3521
😊	-14.3521
ಗ	-14.3521
റ	-14.3521
̶	-14.3521
Х	-14.3521
щ	-14.3521
স	-14.3521
ר	-14.3521
ಕ	-14.3521
೦	-14.3521
ɛ	-14.495
আ	-14.495
ൊ	-14.495
Æ	-14.495
ē	-14.495
ட	-14.495
ண	-14.495
ெ	-14.495
∆	-14.495
余	-14.495
音	-14.495
ý	-14.495
П	-14.495
ॿ	-14.495
ు	-14.495
ಯ	-14.495
▪	-14.495
♂	-14.495
♥	-14.495
つ	-14.495
テ	-14.495
다	-14.495
🔹	-14.495
Ç	-14.495
Ü	-14.495
ো	-14.495
થ	-14.495
ળ	-14.495
య	-14.495
వ	-14.495
ೆ	-14.495
സ	-14.495
名	-14.495
Š	-14.495
ט	-14.495
ס	-14.495
ਕ	-14.495
ശ	-14.495
દ	-14.495
お	-14.495
ಡ	-14.495
🌿	-14.6616
В	-14.6616
ܬ	-14.6616
ભ	-14.6616
사	-14.6616
Т	-14.6616
є	-14.6616
ز	-14.6616
ق	-14.6616
ਾ	-14.6616
ણ	-14.6616
எ	-14.6616
ற	-14.6616
త	-14.6616
ಳ	-14.6616
æ	-14.6616
ĉ	-14.6616
ž	-14.6616
̧	-14.6616
θ	-14.6616
π	-14.6616
מ	-14.6616
ء	-14.6616
ح	-14.6616
گ	-14.6616
উ	-14.6616
మ	-14.6616
എ	-14.6616
∴	-14.6616
な	-14.6616
パ	-14.6616
ル	-14.6616
行	-14.6616
🍃	-14.6616
🔅	-14.6616
Ê	-14.6616
ō	-14.6616
Д	-14.6616
ோ	-14.6616
꣯	-14.6616
🌻	-14.6616
す	-14.6617
ധ	-14.6617
年	-14.6617
হ	-14.6617
ా	-14.6617
ა	-14.8616
ネ	-14.8616
ˌ	-14.8616
ഷ	-14.8616
А	-14.8616
ל	-14.8616
ಪ	-14.8616
ಮ	-14.8616
🌄	-14.8616
😃	-14.8616
۔	-14.8616
⛳	-14.8616
Ā	-14.8616
Ş	-14.8616
ǁ	-14.8616
ς	-14.8616
ш	-14.8616
ة	-14.8616
ف	-14.8616
ہ	-14.8616
জ	-14.8616
ઉ	-14.8616
ି	-14.8616
ഗ	-14.8616
ജ	-14.8616
‒	-14.8616
⇔	-14.8616
⋆	-14.8616
▼	-14.8616
♀	-14.8616
✳	-14.8616
❇	-14.8616
く	-14.8616
ズ	-14.8616
知	-14.8616
음	-14.8616
📚	-14.8616
🔗	-14.8616
🔶	-14.8616
😀	-14.8616
😎	-14.8616
😞	-14.8616
😢	-14.8616
Û	-14.8616
Œ	-14.8616
φ	-14.8616
Ј	-14.8616
∫	-14.8616
🍁	-14.8616
Н	-14.8616
Р	-14.8616
ە	-14.8616
ਰ	-14.8616
ੀ	-14.8616
અ	-14.8616
ས	-14.8616
あ	-14.8616
ṅ	-14.8617
ż	-14.8617
থ	-14.8617
亦	-14.8617
ೀ	-14.8617
প	-14.8617
়	-14.8617
シ	-14.8617
э	-14.8617
ʒ	-15.1116
ഇ	-15.1116
લ	-15.1116
క	-15.1116
Ì	-15.1116
ї	-15.1116
ફ	-15.1116
ഉ	-15.1116
ä	-15.1116
ì	-15.1116
ô	-15.1116
̕	-15.1116
פ	-15.1116
ஶ	-15.1116
ஷ	-15.1116
ொ	-15.1116
と	-15.1116
无	-15.1116
ß	-15.1116
ஜ	-15.1116
―	-15.1116
⏳	-15.1116
😳	-15.1116
ø	-15.1116
ę	-15.1116
Ō	-15.1116
œ	-15.1116
ƒ	-15.1116
ǀ	-15.1116
Δ	-15.1116
Ι	-15.1116
β	-15.1116
Э	-15.1116
ك	-15.1116
ܐ	-15.1116
ܒ	-15.1116
ܛ	-15.1116
ܪ	-15.1116
গ	-15.1116
ਲ	-15.1116
ૐ	-15.1116
૦	-15.1116
૪	-15.1116
ள	-15.1116
ల	-15.1116
්	-15.1116
།	-15.1116
‰	-15.1116
※	-15.1116
≍	-15.1116
◄	-15.1116
♣	-15.1116
⛅	-15.1116
➛	-15.1116
➢	-15.1116
➤	-15.1116
ッ	-15.1116
义	-15.1116
人	-15.1116
何	-15.1116
僕	-15.1116
可	-15.1116
应	-15.1116
愛	-15.1116
氣	-15.1116
觉	-15.1116
靈	-15.1116
기	-15.1116
낱	-15.1116
니	-15.1116
말	-15.1116
세	-15.1116
위	-15.1116
이	-15.1116
키	-15.1116
하	-15.1116
👇	-15.1116
👌	-15.1116
🔍	-15.1116
😡	-15.1116
ή	-15.1116
Ц	-15.1116
᳖	-15.1116
十	-15.1116
ι	-15.1116
ρ	-15.1116
ئ	-15.1116
ܦ	-15.1116
ધ	-15.1116
இ	-15.1116
ആ	-15.1116
っ	-15.1116
て	-15.1116
不	-15.1116
如	-15.1116
我	-15.1116
故	-15.1116
的	-15.1116
😜	-15.1116
Ð	-15.1117
た	-15.1117
స	-15.1117
彼	-15.1117
论	-15.1117
ধ	-15.1117
試	-15.1117
ഞ	-15.1117
亲	-15.1117
国	-15.1117
尔	-15.1117
リ	-15.1117
ུ	-15.445
ಚ	-15.445
ർ	-15.445
ɔ	-15.445
ɜ	-15.445
У	-15.445
ג	-15.445
ৱ	-15.445
ષ	-15.445
ബ	-15.445
გ	-15.445
ი	-15.445
합	-15.445
Á	-15.445
č	-15.445
ř	-15.445
ਸ	-15.445
ઞ	-15.445
ஸ	-15.445
ಶ	-15.445
↔	-15.445
因	-15.445
相	-15.445
¿	-15.445
ò	-15.445
И	-15.445
భ	-15.445
≈	-15.445
☀	-15.445
京	-15.445
👫	-15.445
Â	-15.445
Ã	-15.445
ć	-15.445
ě	-15.445
ğ	-15.445
į	-15.445
Ÿ	-15.445
ʏ	-15.445
Ψ	-15.445
δ	-15.445
ν	-15.445
τ	-15.445
Й	-15.445
О	-15.445
ש	-15.445
ת	-15.445
آ	-15.445
ج	-15.445
پ	-15.445
چ	-15.445
ܣ	-15.445
ট	-15.445
ৰ	-15.445
ੋ	-15.445
੍	-15.445
ઃ	-15.445
૯	-15.445
ீ	-15.445
ே	-15.445
ಉ	-15.445
ಎ	-15.445
೨	-15.445
ഈ	-15.445
ീ	-15.445
ൾ	-15.445
ක	-15.445
ය	-15.445
ව	-15.445
ා	-15.445
ි	-15.445
ზ	-15.445
ᄉ	-15.445
ᅩ	-15.445
ጻ	-15.445
ᛁ	-15.445
ᛖ	-15.445
ᴇ	-15.445
Ṛ	-15.445
Ủ	-15.445
⃣	-15.445
∈	-15.445
◇	-15.445
✥	-15.445
✴	-15.445
❁	-15.445
➜	-15.445
き	-15.445
だ	-15.445
る	-15.445
ア	-15.445
コ	-15.445
ス	-15.445
タ	-15.445
チ	-15.445
ト	-15.445
为	-15.445
作	-15.445
依	-15.445
反	-15.445
成	-15.445
所	-15.445
新	-15.445
果	-15.445
格	-15.445
機	-15.445
生	-15.445
痛	-15.445
発	-15.445
者	-15.445
自	-15.445
诸	-15.445
通	-15.445
遣	-15.445
释	-15.445
量	-15.445
颂	-15.445
대	-15.445
브	-15.445
요	-15.445
𑑂	-15.445
🇵	-15.445
🌉	-15.445
🌟	-15.445
🍀	-15.445
🔐	-15.445
🔔	-15.445
🔸	-15.445
😉	-15.445
🤝	-15.445
💕	-15.445
õ	-15.445
κ	-15.445
ং	-15.445
ડ	-15.445
발	-15.445
🌙	-15.445
😍	-15.445
ð	-15.445
ο	-15.445
إ	-15.445
ਮ	-15.445
ચ	-15.445
ಬ	-15.445
ಹ	-15.445
ག	-15.445
を	-15.445
意	-15.445
能	-15.445
🌱	-15.445
Ö	-15.445
η	-15.445
ま	-15.445
期	-15.445
说	-15.445
間	-15.445
非	-15.445
З	-15.445
ら	-15.445
用	-15.445
う	-15.445
比	-15.445
ʁ	-15.445
梵	-15.445
薩	-15.445
母	-15.445
ཧ	-15.9449
ྥ	-15.9449
པ	-15.9449
ང	-15.945
ɒ	-15.945
ਨ	-15.945
ഥ	-15.945
第	-15.945
首	-15.945
감	-15.945
🐯	-15.945
ė	-15.945
ɡ	-15.945
ਪ	-15.945
਼	-15.945
అ	-15.945
శ	-15.945
ಭ	-15.945
ೇ	-15.945
ᆬ	-15.945
」	-15.945
に	-15.945
了	-15.945
哲	-15.945
ା	-15.945
∅	-15.945
や	-15.945
・	-15.945
北	-15.945
東	-15.945
研	-15.945
공	-15.945
두	-15.945
로	-15.945
🌼	-15.945
👏	-15.945
👩	-15.945
📝	-15.945
Å	-15.945
Ò	-15.945
ù	-15.945
ą	-15.945
Ċ	-15.945
ŋ	-15.945
ư	-15.945
ǒ	-15.945
̆	-15.945
ά	-15.945
χ	-15.945
ό	-15.945
К	-15.945
Я	-15.945
ј	-15.945
ם	-15.945
ן	-15.945
ע	-15.945
ק	-15.945
ص	-15.945
ً	-15.945
٬	-15.945
ڪ	-15.945
ۆ	-15.945
ॾ	-15.945
ই	-15.945
ঘ	-15.945
চ	-15.945
ছ	-15.945
ী	-15.945
ਗ	-15.945
ਤ	-15.945
ਿ	-15.945
ੇ	-15.945
ੱ	-15.945
ઈ	-15.945
ઓ	-15.945
ઠ	-15.945
઼	-15.945
ૂ	-15.945
૨	-15.945
૫	-15.945
ଆ	-15.945
ଓ	-15.945
ଡ	-15.945
ଲ	-15.945
଼	-15.945
ஆ	-15.945
డ	-15.945
ద	-15.945
ె	-15.945
ಃ	-15.945
೪	-15.945
ഛ	-15.945
ൈ	-15.945
ൻ	-15.945
ൽ	-15.945
ද	-15.945
ස	-15.945
น	-15.945
ิ	-15.945
ཐ	-15.945
ཡ	-15.945
ལ	-15.945
ཱ	-15.945
ླ	-15.945
ሕ	-15.945
ብ	-15.945
ዝ	-15.945
ᛋ	-15.945
ᛚ	-15.945
᛫	-15.945
ᳲ	-15.945
ḏ	-15.945
ṝ	-15.945
ắ	-15.945
Ἀ	-15.945
≠	-15.945
≡	-15.945
≦	-15.945
▷	-15.945
◊	-15.945
☑	-15.945
☘	-15.945
☰	-15.945
♡	-15.945
♫	-15.945
⚫	-15.945
✌	-15.945
✒	-15.945
✧	-15.945
✺	-15.945
❣	-15.945
➥	-15.945
⦁	-15.945
、	-15.945
《	-15.945
》	-15.945
「	-15.945
が	-15.945
さ	-15.945
ひ	-15.945
み	-15.945
む	-15.945
め	-15.945
よ	-15.945
ん	-15.945
ジ	-15.945
プ	-15.945
ボ	-15.945
三	-15.945
上	-15.945
事	-15.945
五	-15.945
从	-15.945
代	-15.945
修	-15.945
全	-15.945
八	-15.945
加	-15.945
卐	-15.945
印	-15.945
各	-15.945
合	-15.945
吗	-15.945
员	-15.945
地	-15.945
奪	-15.945
好	-15.945
安	-15.945
小	-15.945
广	-15.945
度	-15.945
当	-15.945
方	-15.945
显	-15.945
普	-15.945
有	-15.945
械	-15.945
然	-15.945
猫	-15.945
球	-15.945
理	-15.945
由	-15.945
益	-15.945
程	-15.945
立	-15.945
素	-15.945
而	-15.945
许	-15.945
身	-15.945
都	-15.945
页	-15.945
교	-15.945
급	-15.945
듬	-15.945
라	-15.945
리	-15.945
민	-15.945
비	-15.945
서	-15.945
성	-15.945
슈	-15.945
신	-15.945
아	-15.945
어	-15.945
영	-15.945
예	-15.945
완	-15.945
의	-15.945
인	-15.945
좀	-15.945
주	-15.945
학	-15.945
한	-15.945
히	-15.945
𑐎	-15.945
𑐕	-15.945
𑐫	-15.945
𑐴	-15.945
𑐵	-15.945
𑑄	-15.945
𑑅	-15.945
🇦	-15.945
🇺	-15.945
🌏	-15.945
🍥	-15.945
🎉	-15.945
👈	-15.945
👍	-15.945
👨	-15.945
👴	-15.945
💄	-15.945
💏	-15.945
💔	-15.945
💛	-15.945
💥	-15.945
📌	-15.945
📎	-15.945
📰	-15.945
🔰	-15.945
😄	-15.945
😘	-15.945
🙍	-15.945
🥇	-15.945
🩸	-15.945
Ú	-15.945
ǔ	-15.945
᭭	-15.945
🎯	-15.945
ε	-15.945
І	-15.945
Ф	-15.945
Ю	-15.945
ф	-15.945
ү	-15.945
ط	-15.945
غ	-15.945
ܠ	-15.945
ਬ	-15.945
ପ	-15.945
ச	-15.945
ప	-15.945
ഭ	-15.945
མ	-15.945
✨	-15.945
于	-15.945
六	-15.945
具	-15.945
切	-15.945
声	-15.945
外	-15.945
异	-15.945
𑐮	-15.945
🌈	-15.945
🎖	-15.945
😒	-15.945
🥀	-15.945
أ	-15.945
ۇ	-15.945
খ	-15.945
ਅ	-15.945
ର	-15.945
ൂ	-15.945
も	-15.945
哷	-15.945
存	-15.945
尼	-15.945
此	-15.945
泊	-15.945
白	-15.945
间	-15.945
😅	-15.945
ഹ	-15.945
晴	-15.945
נ	-15.945
バ	-15.945
ロ	-15.945
伟	-15.945
和	-15.945
堂	-15.945
天	-15.945
婆	-15.945
整	-15.945
更	-15.945
祖	-15.945
ィ	-16.9443
∕	-16.9444
♦	-16.9445
🇮	-16.9446
❍	-16.9447
‖	-16.9448
ŏ	-16.9449
ན	-16.9449
ྒ	-16.9449
̐	-16.9449
დ	-16.945
ვ	-16.945
რ	-16.945
ც	-16.945
副	-16.945
ʋ	-16.945
ʌ	-16.945
Е	-16.945
ذ	-16.945
ਜ	-16.945
ੰ	-16.945
ઝ	-16.945
ಅ	-16.945
ಟ	-16.945
თ	-16.945
ს	-16.945
互	-16.945
嘅	-16.945
性	-16.945
永	-16.945
続	-16.945
肉	-16.945
见	-16.945
解	-16.945
达	-16.945
Ī	-16.945
ť	-16.945
ў	-16.945
ਦ	-16.945
✼	-16.945
⭕	-16.945
中	-16.945
介	-16.945
句	-16.945
哉	-16.945
弥	-16.945
简	-16.945
힌	-16.945
🎎	-16.945
🎓	-16.945
🏹	-16.945
📳	-16.945
🕔	-16.945
þ	-16.945
É	-16.945
Õ	-16.945
å	-16.945
ë	-16.945
û	-16.945
ÿ	-16.945
ă	-16.945
Ķ	-16.945
ń	-16.945
Ŏ	-16.945
Ů	-16.945
ų	-16.945
Ǒ	-16.945
ȧ	-16.945
Ȩ	-16.945
ȯ	-16.945
ʈ	-16.945
ʉ	-16.945
ʟ	-16.945
ˎ	-16.945
ˑ	-16.945
̍	-16.945
̖	-16.945
̠	-16.945
̪	-16.945
Ά	-16.945
Κ	-16.945
Μ	-16.945
Ο	-16.945
Σ	-16.945
Φ	-16.945
Ω	-16.945
ω	-16.945
Ч	-16.945
ё	-16.945
ә	-16.945
Ө	-16.945
Ե	-16.945
Կ	-16.945
Հ	-16.945
ա	-16.945
ե	-16.945
ն	-16.945
ր	-16.945
ւ	-16.945
ַ	-16.945
ד	-16.945
כ	-16.945
ף	-16.945
צ	-16.945
ײ	-16.945
؞	-16.945
خ	-16.945
ُ	-16.945
ِ	-16.945
٫	-16.945
ٰ	-16.945
ٹ	-16.945
ټ	-16.945
ڌ	-16.945
ں	-16.945
ھ	-16.945
ۂ	-16.945
ܕ	-16.945
ܟ	-16.945
ॱ	-16.945
ॵ	-16.945
ॺ	-16.945
ॼ	-16.945
এ	-16.945
ঠ	-16.945
ড	-16.945
ঢ	-16.945
ণ	-16.945
ষ	-16.945
০	-16.945
৩	-16.945
৭	-16.945
ਂ	-16.945
ਇ	-16.945
ਏ	-16.945
ਖ	-16.945
ਟ	-16.945
ਡ	-16.945
ਣ	-16.945
ੁ	-16.945
ੂ	-16.945
ખ	-16.945
ૃ	-16.945
ૠ	-16.945
૩	-16.945
૬	-16.945
૭	-16.945
૮	-16.945
ଃ	-16.945
କ	-16.945
ଖ	-16.945
ତ	-16.945
ଭ	-16.945
େ	-16.945
ୟ	-16.945
ஐ	-16.945
ஹ	-16.945
ூ	-16.945
ை	-16.945
ఓ	-16.945
చ	-16.945
జ	-16.945
ధ	-16.945
ఫ	-16.945
ష	-16.945
ే	-16.945
ై	-16.945
ో	-16.945
ಜ	-16.945
ೂ	-16.945
ೃ	-16.945
ೊ	-16.945
ೋ	-16.945
೧	-16.945
೩	-16.945
ೲ	-16.945
ഖ	-16.945
ഴ	-16.945
ൃ	-16.945
ග	-16.945
ත	-16.945
න	-16.945
ප	-16.945
ම	-16.945
ල	-16.945
ො	-16.945
ค	-16.945
ง	-16.945
ด	-16.945
ต	-16.945
บ	-16.945
พ	-16.945
ฟ	-16.945
ม	-16.945
ร	-16.945
ห	-16.945
อ	-16.945
ฮ	-16.945
ั	-16.945
า	-16.945
ี	-16.945
เ	-16.945
โ	-16.945
่	-16.945
้	-16.945
༔	-16.945
༡	-16.945
༣	-16.945
༨	-16.945
ཁ	-16.945
ཊ	-16.945
བ	-16.945
ཚ	-16.945
ཝ	-16.945
ཥ	-16.945
ི	-16.945
ྀ	-16.945
ྨ	-16.945
ྭ	-16.945
ྱ	-16.945
ე	-16.945
ლ	-16.945
ნ	-16.945
უ	-16.945
ሉ	-16.945
ሩ	-16.945
በ	-16.945
ቮ	-16.945
እ	-16.945
ኳ	-16.945
ገ	-16.945
ፂ	-16.945
ፃ	-16.945
፪	-16.945
ᒃ	-16.945
ᒄ	-16.945
ᒎ	-16.945
ᓚ	-16.945
ᗢ	-16.945
ᘏ	-16.945
ᚨ	-16.945
ᚩ	-16.945
ᚻ	-16.945
ᚾ	-16.945
ᛏ	-16.945
ᛗ	-16.945
ᛞ	-16.945
ᭅ	-16.945
᮰	-16.945
ᱧ	-16.945
Ჱ	-16.945
ᳬ	-16.945
ᴀ	-16.945
Ḩ	-16.945
ế	-16.945
ệ	-16.945
ὁ	-16.945
ὸ	-16.945
ῖ	-16.945
₩	-16.945
↓	-16.945
↗	-16.945
↩	-16.945
↲	-16.945
⇏	-16.945
∖	-16.945
∙	-16.945
∝	-16.945
∩	-16.945
∵	-16.945
⊂	-16.945
⊃	-16.945
⊕	-16.945
▀	-16.945
□	-16.945
△	-16.945
☁	-16.945
☸	-16.945
☹	-16.945
☺	-16.945
♈	-16.945
♉	-16.945
♻	-16.945
⚏	-16.945
⚕	-16.945
⚡	-16.945
⚪	-16.945
⛈	-16.945
⛹	-16.945
✖	-16.945
✦	-16.945
✪	-16.945
✹	-16.945
✿	-16.945
❗	-16.945
➖	-16.945
➞	-16.945
➦	-16.945
➨	-16.945
⟶	-16.945
⟷	-16.945
⠀	-16.945
〈	-16.945
け	-16.945
げ	-16.945
ち	-16.945
で	-16.945
ど	-16.945
ゃ	-16.945
れ	-16.945
イ	-16.945
エ	-16.945
オ	-16.945
ク	-16.945
セ	-16.945
ソ	-16.945
ツ	-16.945
ナ	-16.945
ノ	-16.945
ピ	-16.945
ポ	-16.945
ャ	-16.945
七	-16.945
与	-16.945
习	-16.945
乱	-16.945
二	-16.945
仕	-16.945
份	-16.945
休	-16.945
位	-16.945
你	-16.945
使	-16.945
個	-16.945
倒	-16.945
健	-16.945
元	-16.945
入	-16.945
其	-16.945
円	-16.945
册	-16.945
决	-16.945
出	-16.945
列	-16.945
别	-16.945
到	-16.945
助	-16.945
化	-16.945
卍	-16.945
南	-16.945
叉	-16.945
发	-16.945
口	-16.945
同	-16.945
后	-16.945
吥	-16.945
吸	-16.945
告	-16.945
哥	-16.945
唯	-16.945
喝	-16.945
器	-16.945
四	-16.945
固	-16.945
國	-16.945
域	-16.945
報	-16.945
境	-16.945
处	-16.945
复	-16.945
多	-16.945
夜	-16.945
夢	-16.945
奖	-16.945
威	-16.945
字	-16.945
学	-16.945
官	-16.945
定	-16.945
宦	-16.945
属	-16.945
工	-16.945
师	-16.945
席	-16.945
常	-16.945
康	-16.945
廬	-16.945
引	-16.945
影	-16.945
得	-16.945
徹	-16.945
忘	-16.945
惑	-16.945
感	-16.945
憶	-16.945
执	-16.945
投	-16.945
收	-16.945
改	-16.945
政	-16.945
效	-16.945
日	-16.945
星	-16.945
是	-16.945
最	-16.945
朝	-16.945
杂	-16.945
某	-16.945
染	-16.945
查	-16.945
栄	-16.945
检	-16.945
模	-16.945
権	-16.945
款	-16.945
止	-16.945
民	-16.945
求	-16.945
汇	-16.945
没	-16.945
流	-16.945
消	-16.945
添	-16.945
灭	-16.945
熟	-16.945
父	-16.945
牙	-16.945
现	-16.945
發	-16.945
离	-16.945
秘	-16.945
稱	-16.945
究	-16.945
章	-16.945
答	-16.945
类	-16.945
終	-16.945
網	-16.945
繁	-16.945
花	-16.945
若	-16.945
英	-16.945
葬	-16.945
處	-16.945
蛟	-16.945
蝶	-16.945
衆	-16.945
表	-16.945
西	-16.945
观	-16.945
视	-16.945
言	-16.945
記	-16.945
訳	-16.945
論	-16.945
讓	-16.945
讨	-16.945
话	-16.945
贪	-16.945
越	-16.945
足	-16.945
車	-16.945
转	-16.945
辦	-16.945
运	-16.945
返	-16.945
追	-16.945
進	-16.945
金	-16.945
鉄	-16.945
错	-16.945
长	-16.945
闻	-16.945
除	-16.945
陸	-16.945
障	-16.945
雨	-16.945
電	-16.945
韩	-16.945
響	-16.945
願	-16.945
须	-16.945
飞	-16.945
飲	-16.945
龙	-16.945
꣫	-16.945
ꣲ	-16.945
가	-16.945
간	-16.945
개	-16.945
게	-16.945
고	-16.945
과	-16.945
국	-16.945
금	-16.945
깨	-16.945
나	-16.945
냐	-16.945
녹	-16.945
는	-16.945
달	-16.945
더	-16.945
동	-16.945
따	-16.945
뜨	-16.945
락	-16.945
레	-16.945
력	-16.945
름	-16.945
만	-16.945
망	-16.945
맵	-16.945
몸	-16.945
못	-16.945
뭐	-16.945
받	-16.945
백	-16.945
번	-16.945
법	-16.945
봇	-16.945
상	-16.945
수	-16.945
술	-16.945
쉬	-16.945
스	-16.945
승	-16.945
시	-16.945
없	-16.945
에	-16.945
염	-16.945
외	-16.945
우	-16.945
운	-16.945
월	-16.945
을	-16.945
임	-16.945
입	-16.945
있	-16.945
자	-16.945
적	-16.945
절	-16.945
정	-16.945
조	-16.945
중	-16.945
증	-16.945
지	-16.945
째	-16.945
청	-16.945
크	-16.945
탄	-16.945
탑	-16.945
터	-16.945
트	-16.945
특	-16.945
팅	-16.945
파	-16.945
함	-16.945
허	-16.945
효	-16.945
힘	-16.945
︎	-16.945
𑆤	-16.945
𑌏	-16.945
𑌥	-16.945
𑌫	-16.945
𑌮	-16.945
𑌸	-16.945
𑐰	-16.945
𑑀	-16.945
🅰	-16.945
🇱	-16.945
🇸	-16.945
🇹	-16.945
🌀	-16.945
🌅	-16.945
🌎	-16.945
🌖	-16.945
🌛	-16.945
🌝	-16.945
🌠	-16.945
🌰	-16.945
🌴	-16.945
🍾	-16.945
🎂	-16.945
🎃	-16.945
🎊	-16.945
🎋	-16.945
🎤	-16.945
🎵	-16.945
🎶	-16.945
🎼	-16.945
🏀	-16.945
🏃	-16.945
🏏	-16.945
🏠	-16.945
🏮	-16.945
🏷	-16.945
🏽	-16.945
🐕	-16.945
🐙	-16.945
👆	-16.945
👞	-16.945
👣	-16.945
👦	-16.945
👧	-16.945
💑	-16.945
💓	-16.945
💖	-16.945
💗	-16.945
💘	-16.945
💚	-16.945
💝	-16.945
💠	-16.945
💦	-16.945
💧	-16.945
💫	-16.945
💰	-16.945
💱	-16.945
💵	-16.945
📂	-16.945
📏	-16.945
📕	-16.945
📢	-16.945
📣	-16.945
📱	-16.945
📸	-16.945
📺	-16.945
🔟	-16.945
🔷	-16.945
🔺	-16.945
🔻	-16.945
🖊	-16.945
🖱	-16.945
🗒	-16.945
🗳	-16.945
😇	-16.945
😌	-16.945
😔	-16.945
😝	-16.945
😩	-16.945
🙁	-16.945
🙅	-16.945
🙆	-16.945
🙌	-16.945
🙎	-16.945
🚑	-16.945
🚷	-16.945
🛡	-16.945
🤔	-16.945
🤗	-16.945
🤦	-16.945
🤪	-16.945
🤲	-16.945
🥂	-16.945
🥰	-16.945
🦂	-16.945
🧐	-16.945
🧜	-16.945
ζ	-16.945
Ë	-16.945
ĕ	-16.945
Ż	-16.945
ʿ	-16.945
ڼ	-16.945
᳒	-16.945
↕	-16.945
划	-16.945
计	-16.945
🌃	-16.945
🌍	-16.945
🍋	-16.945
👱	-16.945
🗃	-16.945
🗣	-16.945
🤩	-16.945
Ę	-16.945
Л	-16.945
ҫ	-16.945
ܚ	-16.945
ৃ	-16.945
ਊ	-16.945
୍	-16.945
ఉ	-16.945
ఎ	-16.945
ಠ	-16.945
ഠ	-16.945
ශ	-16.945
ྲ	-16.945
᭠	-16.945
ὕ	-16.945
世	-16.945
利	-16.945
咒	-16.945
尊	-16.945
岂	-16.945
念	-16.945
戻	-16.945
文	-16.945
班	-16.945
疆	-16.945
直	-16.945
破	-16.945
紅	-16.945
维	-16.945
茶	-16.945
过	-16.945
산	-16.945
హ	-16.945
ಇ	-16.945
ᮩ	-16.945
ご	-16.945
ざ	-16.945
は	-16.945
ゼ	-16.945
ョ	-16.945
孕	-16.945
寝	-16.945
少	-16.945
废	-16.945
时	-16.945
阿	-16.945
面	-16.945
ʻ	-16.945
ཟ	-16.945
グ	-16.945
摩	-16.945
逝	-16.945
那	-16.945
