{
  "version": "1.0",
  "truncation": null,
  "padding": null,
  "added_tokens": [
    {
      "id": 0,
      "content": "[UNK]",
      "single_word": false,
      "lstrip": false,
      "rstrip": false,
      "normalized": false,
      "special": true
    },
    {
      "id": 1,
      "content": "[CLS]",
      "single_word": false,
      "lstrip": false,
      "rstrip": false,
      "normalized": false,
      "special": true
    },
    {
      "id": 2,
      "content": "[SEP]",
      "single_word": false,
      "lstrip": false,
      "rstrip": false,
      "normalized": false,
      "special": true
    },
    {
      "id": 3,
      "content": "[PAD]",
      "single_word": false,
      "lstrip": false,
      "rstrip": false,
      "normalized": false,
      "special": true
    },
    {
      "id": 4,
      "content": "[MASK]",
      "single_word": false,
      "lstrip": false,
      "rstrip": false,
      "normalized": false,
      "special": true
    }
  ],
  "normalizer": {
    "type": "Sequence",
    "normalizers": [
      {
        "type": "NFKC"
      },
      {
        "type": "Lowercase"
      }
    ]
  },
  "pre_tokenizer": {
    "type": "Whitespace"
  },
  "post_processor": null,
  "decoder": {
    "type": "WordPiece",
    "prefix": "##",
    "cleanup": true
  },
  "model": {
    "type": "WordPiece",
    "unk_token": "[UNK]",
    "continuing_subword_prefix": "##",
    "max_input_chars_per_word": 100,
    "vocab": {
      "[UNK]": 0,
      "[CLS]": 1,
      "[SEP]": 2,
      "[PAD]": 3,
      "[MASK]": 4,
      "!": 5,
      "\"": 6,
      "#": 7,
      "$": 8,
      "%": 9,
      "&": 10,
      "'": 11,
      "(": 12,
      ")": 13,
      "*": 14,
      "+": 15,
      ",": 16,
      "-": 17,
      ".": 18,
      "/": 19,
      "0": 20,
      "1": 21,
      "2": 22,
      "3": 23,
      "4": 24,
      "5": 25,
      "6": 26,
      "7": 27,
      "8": 28,
      "9": 29,
      ":": 30,
      ";": 31,
      "<": 32,
      "=": 33,
      ">": 34,
      "?": 35,
      "@": 36,
      "[": 37,
      "\\": 38,
      "]": 39,
      "^": 40,
      "_": 41,
      "a": 42,
      "b": 43,
      "c": 44,
      "d": 45,
      "e": 46,
      "f": 47,
      "g": 48,
      "h": 49,
      "i": 50,
      "j": 51,
      "k": 52,
      "l": 53,
      "m": 54,
      "n": 55,
      "o": 56,
      "p": 57,
      "q": 58,
      "r": 59,
      "s": 60,
      "t": 61,
      "u": 62,
      "v": 63,
      "w": 64,
      "x": 65,
      "y": 66,
      "z": 67,
      "{": 68,
      "}": 69,
      "~": 70,
      "¡": 71,
      "¢": 72,
      "£": 73,
      "¤": 74,
      "¥": 75,
      "¦": 76,
      "§": 77,
      "©": 78,
      "¬": 79,
      "®": 80,
      "°": 81,
      "±": 82,
      "¶": 83,
      "·": 84,
      "¿": 85,
      "×": 86,
      "ß": 87,
      "à": 88,
      "á": 89,
      "â": 90,
      "ã": 91,
      "ä": 92,
      "å": 93,
      "æ": 94,
      "ç": 95,
      "è": 96,
      "é": 97,
      "ê": 98,
      "ë": 99,
      "ì": 100,
      "í": 101,
      "î": 102,
      "ï": 103,
      "ð": 104,
      "ñ": 105,
      "ò": 106,
      "ó": 107,
      "ô": 108,
      "õ": 109,
      "ö": 110,
      "÷": 111,
      "ø": 112,
      "ù": 113,
      "ú": 114,
      "û": 115,
      "ü": 116,
      "ý": 117,
      "þ": 118,
      "ÿ": 119,
      "ā": 120,
      "ă": 121,
      "ą": 122,
      "ć": 123,
      "ĉ": 124,
      "ċ": 125,
      "č": 126,
      "ē": 127,
      "ĕ": 128,
      "ė": 129,
      "ę": 130,
      "ě": 131,
      "ğ": 132,
      "ī": 133,
      "į": 134,
      "ı": 135,
      "ķ": 136,
      "ł": 137,
      "ń": 138,
      "ŋ": 139,
      "ō": 140,
      "ŏ": 141,
      "œ": 142,
      "ř": 143,
      "ś": 144,
      "ş": 145,
      "š": 146,
      "ť": 147,
      "ū": 148,
      "ů": 149,
      "ų": 150,
      "ż": 151,
      "ž": 152,
      "ƒ": 153,
      "ư": 154,
      "ǀ": 155,
      "ǁ": 156,
      "ǒ": 157,
      "ǔ": 158,
      "ȧ": 159,
      "ȩ": 160,
      "ȯ": 161,
      "ɑ": 162,
      "ɒ": 163,
      "ɔ": 164,
      "ə": 165,
      "ɛ": 166,
      "ɜ": 167,
      "ɡ": 168,
      "ɪ": 169,
      "ʁ": 170,
      "ʃ": 171,
      "ʈ": 172,
      "ʉ": 173,
      "ʊ": 174,
      "ʋ": 175,
      "ʌ": 176,
      "ʏ": 177,
      "ʒ": 178,
      "ʟ": 179,
      "ʻ": 180,
      "ʼ": 181,
      "ʿ": 182,
      "ˆ": 183,
      "ˈ": 184,
      "ˌ": 185,
      "ˎ": 186,
      "ː": 187,
      "ˑ": 188,
      "́": 189,
      "̃": 190,
      "̄": 191,
      "̆": 192,
      "̇": 193,
      "̈": 194,
      "̊": 195,
      "̍": 196,
      "̐": 197,
      "̕": 198,
      "̖": 199,
      "̠": 200,
      "̣": 201,
      "̥": 202,
      "̧": 203,
      "̪": 204,
      "̶": 205,
      "ά": 206,
      "ή": 207,
      "α": 208,
      "β": 209,
      "δ": 210,
      "ε": 211,
      "ζ": 212,
      "η": 213,
      "θ": 214,
      "ι": 215,
      "κ": 216,
      "μ": 217,
      "ν": 218,
      "ο": 219,
      "π": 220,
      "ρ": 221,
      "ς": 222,
      "σ": 223,
      "τ": 224,
      "φ": 225,
      "χ": 226,
      "ψ": 227,
      "ω": 228,
      "ό": 229,
      "а": 230,
      "б": 231,
      "в": 232,
      "г": 233,
      "д": 234,
      "е": 235,
      "ж": 236,
      "з": 237,
      "и": 238,
      "й": 239,
      "к": 240,
      "л": 241,
      "м": 242,
      "н": 243,
      "о": 244,
      "п": 245,
      "р": 246,
      "с": 247,
      "т": 248,
      "у": 249,
      "ф": 250,
      "х": 251,
      "ц": 252,
      "ч": 253,
      "ш": 254,
      "щ": 255,
      "ы": 256,
      "ь": 257,
      "э": 258,
      "ю": 259,
      "я": 260,
      "ё": 261,
      "є": 262,
      "і": 263,
      "ї": 264,
      "ј": 265,
      "ў": 266,
      "ҫ": 267,
      "ү": 268,
      "ә": 269,
      "ө": 270,
      "ա": 271,
      "ե": 272,
      "կ": 273,
      "հ": 274,
      "ն": 275,
      "ր": 276,
      "ւ": 277,
      "ַ": 278,
      "א": 279,
      "ב": 280,
      "ג": 281,
      "ד": 282,
      "ה": 283,
      "ו": 284,
      "ט": 285,
      "י": 286,
      "כ": 287,
      "ל": 288,
      "ם": 289,
      "מ": 290,
      "ן": 291,
      "נ": 292,
      "ס": 293,
      "ע": 294,
      "ף": 295,
      "פ": 296,
      "צ": 297,
      "ק": 298,
      "ר": 299,
      "ש": 300,
      "ת": 301,
      "ײ": 302,
      "؞": 303,
      "ء": 304,
      "آ": 305,
      "أ": 306,
      "إ": 307,
      "ئ": 308,
      "ا": 309,
      "ب": 310,
      "ة": 311,
      "ت": 312,
      "ج": 313,
      "ح": 314,
      "خ": 315,
      "د": 316,
      "ذ": 317,
      "ر": 318,
      "ز": 319,
      "س": 320,
      "ش": 321,
      "ص": 322,
      "ط": 323,
      "ع": 324,
      "غ": 325,
      "ف": 326,
      "ق": 327,
      "ك": 328,
      "ل": 329,
      "م": 330,
      "ن": 331,
      "ه": 332,
      "و": 333,
      "ى": 334,
      "ي": 335,
      "ً": 336,
      "ُ": 337,
      "ِ": 338,
      "٫": 339,
      "٬": 340,
      "ٰ": 341,
      "ٹ": 342,
      "ټ": 343,
      "پ": 344,
      "چ": 345,
      "ڌ": 346,
      "ک": 347,
      "ڪ": 348,
      "گ": 349,
      "ں": 350,
      "ڼ": 351,
      "ھ": 352,
      "ہ": 353,
      "ۂ": 354,
      "ۆ": 355,
      "ۇ": 356,
      "ی": 357,
      "۔": 358,
      "ە": 359,
      "ܐ": 360,
      "ܒ": 361,
      "ܕ": 362,
      "ܘ": 363,
      "ܚ": 364,
      "ܛ": 365,
      "ܟ": 366,
      "ܠ": 367,
      "ܣ": 368,
      "ܦ": 369,
      "ܪ": 370,
      "ܬ": 371,
      "ँ": 372,
      "ं": 373,
      "ः": 374,
      "ऄ": 375,
      "अ": 376,
      "आ": 377,
      "इ": 378,
      "ई": 379,
      "उ": 380,
      "ऊ": 381,
      "ऋ": 382,
      "ऌ": 383,
      "ऍ": 384,
      "ऎ": 385,
      "ए": 386,
      "ऐ": 387,
      "ऑ": 388,
      "ऒ": 389,
      "ओ": 390,
      "औ": 391,
      "क": 392,
      "ख": 393,
      "ग": 394,
      "घ": 395,
      "ङ": 396,
      "च": 397,
      "छ": 398,
      "ज": 399,
      "झ": 400,
      "ञ": 401,
      "ट": 402,
      "ठ": 403,
      "ड": 404,
      "ढ": 405,
      "ण": 406,
      "त": 407,
      "थ": 408,
      "द": 409,
      "ध": 410,
      "न": 411,
      "ऩ": 412,
      "प": 413,
      "फ": 414,
      "ब": 415,
      "भ": 416,
      "म": 417,
      "य": 418,
      "र": 419,
      "ऱ": 420,
      "ल": 421,
      "ळ": 422,
      "ऴ": 423,
      "व": 424,
      "श": 425,
      "ष": 426,
      "स": 427,
      "ह": 428,
      "ऺ": 429,
      "ऻ": 430,
      "़": 431,
      "ऽ": 432,
      "ा": 433,
      "ि": 434,
      "ी": 435,
      "ु": 436,
      "ू": 437,
      "ृ": 438,
      "ॄ": 439,
      "ॅ": 440,
      "ॆ": 441,
      "े": 442,
      "ै": 443,
      "ॉ": 444,
      "ॊ": 445,
      "ो": 446,
      "ौ": 447,
      "्": 448,
      "ॐ": 449,
      "॑": 450,
      "॒": 451,
      "॓": 452,
      "॔": 453,
      "ॠ": 454,
      "ॡ": 455,
      "ॢ": 456,
      "।": 457,
      "॥": 458,
      "०": 459,
      "१": 460,
      "२": 461,
      "३": 462,
      "४": 463,
      "५": 464,
      "६": 465,
      "७": 466,
      "८": 467,
      "९": 468,
      "॰": 469,
      "ॱ": 470,
      "ॵ": 471,
      "ॺ": 472,
      "ॼ": 473,
      "ॾ": 474,
      "ॿ": 475,
      "ং": 476,
      "আ": 477,
      "ই": 478,
      "উ": 479,
      "এ": 480,
      "ক": 481,
      "খ": 482,
      "গ": 483,
      "ঘ": 484,
      "চ": 485,
      "ছ": 486,
      "জ": 487,
      "ট": 488,
      "ঠ": 489,
      "ড": 490,
      "ঢ": 491,
      "ণ": 492,
      "ত": 493,
      "থ": 494,
      "দ": 495,
      "ধ": 496,
      "ন": 497,
      "প": 498,
      "ব": 499,
      "ম": 500,
      "য": 501,
      "র": 502,
      "ল": 503,
      "ষ": 504,
      "স": 505,
      "হ": 506,
      "়": 507,
      "া": 508,
      "ি": 509,
      "ী": 510,
      "ু": 511,
      "ৃ": 512,
      "ে": 513,
      "ো": 514,
      "্": 515,
      "০": 516,
      "৩": 517,
      "৭": 518,
      "ৰ": 519,
      "ৱ": 520,
      "৷": 521,
      "ਂ": 522,
      "ਅ": 523,
      "ਇ": 524,
      "ਊ": 525,
      "ਏ": 526,
      "ਕ": 527,
      "ਖ": 528,
      "ਗ": 529,
      "ਜ": 530,
      "ਟ": 531,
      "ਡ": 532,
      "ਣ": 533,
      "ਤ": 534,
      "ਦ": 535,
      "ਨ": 536,
      "ਪ": 537,
      "ਬ": 538,
      "ਮ": 539,
      "ਰ": 540,
      "ਲ": 541,
      "ਸ": 542,
      "਼": 543,
      "ਾ": 544,
      "ਿ": 545,
      "ੀ": 546,
      "ੁ": 547,
      "ੂ": 548,
      "ੇ": 549,
      "ੋ": 550,
      "੍": 551,
      "ੰ": 552,
      "ੱ": 553,
      "ં": 554,
      "ઃ": 555,
      "અ": 556,
      "આ": 557,
      "ઈ": 558,
      "ઉ": 559,
      "એ": 560,
      "ઓ": 561,
      "ક": 562,
      "ખ": 563,
      "ગ": 564,
      "ચ": 565,
      "છ": 566,
      "જ": 567,
      "ઝ": 568,
      "ઞ": 569,
      "ટ": 570,
      "ઠ": 571,
      "ડ": 572,
      "ણ": 573,
      "ત": 574,
      "થ": 575,
      "દ": 576,
      "ધ": 577,
      "ન": 578,
      "પ": 579,
      "ફ": 580,
      "બ": 581,
      "ભ": 582,
      "મ": 583,
      "ય": 584,
      "ર": 585,
      "લ": 586,
      "ળ": 587,
      "વ": 588,
      "શ": 589,
      "ષ": 590,
      "સ": 591,
      "હ": 592,
      "઼": 593,
      "ા": 594,
      "િ": 595,
      "ી": 596,
      "ુ": 597,
      "ૂ": 598,
      "ૃ": 599,
      "ે": 600,
      "ો": 601,
      "્": 602,
      "ૐ": 603,
      "ૠ": 604,
      "૦": 605,
      "૧": 606,
      "૨": 607,
      "૩": 608,
      "૪": 609,
      "૫": 610,
      "૬": 611,
      "૭": 612,
      "૮": 613,
      "૯": 614,
      "ଃ": 615,
      "ଆ": 616,
      "ଓ": 617,
      "କ": 618,
      "ଖ": 619,
      "ଡ": 620,
      "ତ": 621,
      "ପ": 622,
      "ଭ": 623,
      "ର": 624,
      "ଲ": 625,
      "଼": 626,
      "ା": 627,
      "ି": 628,
      "େ": 629,
      "୍": 630,
      "ୟ": 631,
      "அ": 632,
      "ஆ": 633,
      "இ": 634,
      "உ": 635,
      "எ": 636,
      "ஐ": 637,
      "க": 638,
      "ச": 639,
      "ஜ": 640,
      "ட": 641,
      "ண": 642,
      "த": 643,
      "ந": 644,
      "ன": 645,
      "ப": 646,
      "ம": 647,
      "ய": 648,
      "ர": 649,
      "ற": 650,
      "ல": 651,
      "ள": 652,
      "ழ": 653,
      "வ": 654,
      "ஶ": 655,
      "ஷ": 656,
      "ஸ": 657,
      "ஹ": 658,
      "ா": 659,
      "ி": 660,
      "ீ": 661,
      "ு": 662,
      "ூ": 663,
      "ெ": 664,
      "ே": 665,
      "ை": 666,
      "ொ": 667,
      "ோ": 668,
      "்": 669,
      "ం": 670,
      "అ": 671,
      "ఉ": 672,
      "ఎ": 673,
      "ఓ": 674,
      "క": 675,
      "చ": 676,
      "జ": 677,
      "డ": 678,
      "త": 679,
      "ద": 680,
      "ధ": 681,
      "న": 682,
      "ప": 683,
      "ఫ": 684,
      "భ": 685,
      "మ": 686,
      "య": 687,
      "ర": 688,
      "ల": 689,
      "వ": 690,
      "శ": 691,
      "ష": 692,
      "స": 693,
      "హ": 694,
      "ా": 695,
      "ి": 696,
      "ు": 697,
      "ె": 698,
      "ే": 699,
      "ై": 700,
      "ో": 701,
      "్": 702,
      "ಂ": 703,
      "ಃ": 704,
      "ಅ": 705,
      "ಇ": 706,
      "ಉ": 707,
      "ಎ": 708,
      "ಕ": 709,
      "ಗ": 710,
      "ಚ": 711,
      "ಜ": 712,
      "ಟ": 713,
      "ಠ": 714,
      "ಡ": 715,
      "ತ": 716,
      "ದ": 717,
      "ನ": 718,
      "ಪ": 719,
      "ಬ": 720,
      "ಭ": 721,
      "ಮ": 722,
      "ಯ": 723,
      "ರ": 724,
      "ಲ": 725,
      "ಳ": 726,
      "ವ": 727,
      "ಶ": 728,
      "ಸ": 729,
      "ಹ": 730,
      "ಾ": 731,
      "ಿ": 732,
      "ೀ": 733,
      "ು": 734,
      "ೂ": 735,
      "ೃ": 736,
      "ೆ": 737,
      "ೇ": 738,
      "ೊ": 739,
      "ೋ": 740,
      "್": 741,
      "೦": 742,
      "೧": 743,
      "೨": 744,
      "೩": 745,
      "೪": 746,
      "ೲ": 747,
      "ം": 748,
      "അ": 749,
      "ആ": 750,
      "ഇ": 751,
      "ഈ": 752,
      "ഉ": 753,
      "എ": 754,
      "ക": 755,
      "ഖ": 756,
      "ഗ": 757,
      "ങ": 758,
      "ച": 759,
      "ഛ": 760,
      "ജ": 761,
      "ഞ": 762,
      "ട": 763,
      "ഠ": 764,
      "ണ": 765,
      "ത": 766,
      "ഥ": 767,
      "ദ": 768,
      "ധ": 769,
      "ന": 770,
      "പ": 771,
      "ബ": 772,
      "ഭ": 773,
      "മ": 774,
      "യ": 775,
      "ര": 776,
      "റ": 777,
      "ല": 778,
      "ള": 779,
      "ഴ": 780,
      "വ": 781,
      "ശ": 782,
      "ഷ": 783,
      "സ": 784,
      "ഹ": 785,
      "ാ": 786,
      "ി": 787,
      "ീ": 788,
      "ു": 789,
      "ൂ": 790,
      "ൃ": 791,
      "െ": 792,
      "േ": 793,
      "ൈ": 794,
      "ൊ": 795,
      "ോ": 796,
      "്": 797,
      "ൻ": 798,
      "ർ": 799,
      "ൽ": 800,
      "ൾ": 801,
      "ක": 802,
      "ග": 803,
      "ත": 804,
      "ද": 805,
      "න": 806,
      "ප": 807,
      "ම": 808,
      "ය": 809,
      "ල": 810,
      "ව": 811,
      "ශ": 812,
      "ස": 813,
      "්": 814,
      "ා": 815,
      "ි": 816,
      "ො": 817,
      "ค": 818,
      "ง": 819,
      "ด": 820,
      "ต": 821,
      "น": 822,
      "บ": 823,
      "พ": 824,
      "ฟ": 825,
      "ม": 826,
      "ร": 827,
      "ห": 828,
      "อ": 829,
      "ฮ": 830,
      "ั": 831,
      "า": 832,
      "ิ": 833,
      "ี": 834,
      "เ": 835,
      "โ": 836,
      "่": 837,
      "้": 838,
      "་": 839,
      "།": 840,
      "༔": 841,
      "༡": 842,
      "༣": 843,
      "༨": 844,
      "ཁ": 845,
      "ག": 846,
      "ང": 847,
      "ཊ": 848,
      "ཐ": 849,
      "ན": 850,
      "པ": 851,
      "བ": 852,
      "མ": 853,
      "ཚ": 854,
      "ཝ": 855,
      "ཟ": 856,
      "ཡ": 857,
      "ལ": 858,
      "ཥ": 859,
      "ས": 860,
      "ཧ": 861,
      "ཱ": 862,
      "ི": 863,
      "ུ": 864,
      "ྀ": 865,
      "ྒ": 866,
      "ྥ": 867,
      "ྨ": 868,
      "ྭ": 869,
      "ྱ": 870,
      "ྲ": 871,
      "ླ": 872,
      "၊": 873,
      "ა": 874,
      "გ": 875,
      "დ": 876,
      "ე": 877,
      "ვ": 878,
      "ზ": 879,
      "თ": 880,
      "ი": 881,
      "ლ": 882,
      "ნ": 883,
      "რ": 884,
      "ს": 885,
      "უ": 886,
      "ც": 887,
      "ჱ": 888,
      "ᄉ": 889,
      "ᄌ": 890,
      "ᅩ": 891,
      "ᆬ": 892,
      "ሉ": 893,
      "ሕ": 894,
      "ሩ": 895,
      "በ": 896,
      "ብ": 897,
      "ቮ": 898,
      "እ": 899,
      "ኳ": 900,
      "ዝ": 901,
      "ገ": 902,
      "ጻ": 903,
      "ፂ": 904,
      "ፃ": 905,
      "፪": 906,
      "ᒃ": 907,
      "ᒄ": 908,
      "ᒎ": 909,
      "ᓚ": 910,
      "ᗢ": 911,
      "ᘏ": 912,
      "ᚨ": 913,
      "ᚩ": 914,
      "ᚻ": 915,
      "ᚾ": 916,
      "ᛁ": 917,
      "ᛋ": 918,
      "ᛏ": 919,
      "ᛖ": 920,
      "ᛗ": 921,
      "ᛚ": 922,
      "ᛞ": 923,
      "᛫": 924,
      "ᭅ": 925,
      "᭠": 926,
      "᭭": 927,
      "ᮩ": 928,
      "᮰": 929,
      "ᱧ": 930,
      "᳒": 931,
      "᳖": 932,
      "᳘": 933,
      "᳚": 934,
      "ᳪ": 935,
      "ᳬ": 936,
      "᳭": 937,
      "ᳲ": 938,
      "ᴀ": 939,
      "ᴇ": 940,
      "ḍ": 941,
      "ḏ": 942,
      "ḥ": 943,
      "ḩ": 944,
      "ṁ": 945,
      "ṃ": 946,
      "ṅ": 947,
      "ṇ": 948,
      "ṛ": 949,
      "ṝ": 950,
      "ṣ": 951,
      "ṭ": 952,
      "ắ": 953,
      "ế": 954,
      "ệ": 955,
      "ủ": 956,
      "ἀ": 957,
      "ὁ": 958,
      "ὕ": 959,
      "ὸ": 960,
      "ῖ": 961,
      "‐": 962,
      "‒": 963,
      "―": 964,
      "‖": 965,
      "†": 966,
      "‡": 967,
      "•": 968,
      "‰": 969,
      "′": 970,
      "‹": 971,
      "›": 972,
      "※": 973,
      "⁄": 974,
      "₩": 975,
      "€": 976,
      "₹": 977,
      "⃣": 978,
      "←": 979,
      "↑": 980,
      "→": 981,
      "↓": 982,
      "↔": 983,
      "↕": 984,
      "↗": 985,
      "↩": 986,
      "↲": 987,
      "⇄": 988,
      "⇏": 989,
      "⇒": 990,
      "⇔": 991,
      "∅": 992,
      "∆": 993,
      "∈": 994,
      "−": 995,
      "∕": 996,
      "∖": 997,
      "∙": 998,
      "√": 999,
      "∝": 1000,
      "∠": 1001,
      "∩": 1002,
      "∫": 1003,
      "∴": 1004,
      "∵": 1005,
      "≈": 1006,
      "≍": 1007,
      "≠": 1008,
      "≡": 1009,
      "≤": 1010,
      "≥": 1011,
      "≦": 1012,
      "⊂": 1013,
      "⊃": 1014,
      "⊕": 1015,
      "⋆": 1016,
      "⋙": 1017,
      "⏳": 1018,
      "▀": 1019,
      "▁": 1020,
      "■": 1021,
      "□": 1022,
      "▪": 1023,
      "▲": 1024,
      "△": 1025,
      "▶": 1026,
      "▷": 1027,
      "►": 1028,
      "▼": 1029,
      "◄": 1030,
      "◆": 1031,
      "◇": 1032,
      "◉": 1033,
      "◊": 1034,
      "◌": 1035,
      "◎": 1036,
      "●": 1037,
      "◦": 1038,
      "☀": 1039,
      "☁": 1040,
      "★": 1041,
      "☆": 1042,
      "☑": 1043,
      "☘": 1044,
      "☝": 1045,
      "☰": 1046,
      "☸": 1047,
      "☹": 1048,
      "☺": 1049,
      "♀": 1050,
      "♂": 1051,
      "♈": 1052,
      "♉": 1053,
      "♡": 1054,
      "♣": 1055,
      "♥": 1056,
      "♦": 1057,
      "♫": 1058,
      "♻": 1059,
      "⚏": 1060,
      "⚕": 1061,
      "⚡": 1062,
      "⚪": 1063,
      "⚫": 1064,
      "⛅": 1065,
      "⛈": 1066,
      "⛳": 1067,
      "⛹": 1068,
      "✅": 1069,
      "✌": 1070,
      "✍": 1071,
      "✒": 1072,
      "✓": 1073,
      "✔": 1074,
      "✖": 1075,
      "✥": 1076,
      "✦": 1077,
      "✧": 1078,
      "✨": 1079,
      "✪": 1080,
      "✳": 1081,
      "✴": 1082,
      "✹": 1083,
      "✺": 1084,
      "✼": 1085,
      "✿": 1086,
      "❁": 1087,
      "❇": 1088,
      "❌": 1089,
      "❍": 1090,
      "❑": 1091,
      "❗": 1092,
      "❣": 1093,
      "❤": 1094,
      "❯": 1095,
      "➖": 1096,
      "➛": 1097,
      "➜": 1098,
      "➞": 1099,
      "➡": 1100,
      "➢": 1101,
      "➤": 1102,
      "➥": 1103,
      "➦": 1104,
      "➧": 1105,
      "➨": 1106,
      "⟶": 1107,
      "⟷": 1108,
      "⠀": 1109,
      "⦁": 1110,
      "⭐": 1111,
      "⭕": 1112,
      "、": 1113,
      "。": 1114,
      "〈": 1115,
      "《": 1116,
      "》": 1117,
      "「": 1118,
      "」": 1119,
      "【": 1120,
      "】": 1121,
      "あ": 1122,
      "い": 1123,
      "う": 1124,
      "お": 1125,
      "か": 1126,
      "が": 1127,
      "き": 1128,
      "く": 1129,
      "け": 1130,
      "げ": 1131,
      "ご": 1132,
      "さ": 1133,
      "ざ": 1134,
      "し": 1135,
      "す": 1136,
      "た": 1137,
      "だ": 1138,
      "ち": 1139,
      "っ": 1140,
      "つ": 1141,
      "て": 1142,
      "で": 1143,
      "と": 1144,
      "ど": 1145,
      "な": 1146,
      "に": 1147,
      "の": 1148,
      "は": 1149,
      "ひ": 1150,
      "ま": 1151,
      "み": 1152,
      "む": 1153,
      "め": 1154,
      "も": 1155,
      "ゃ": 1156,
      "や": 1157,
      "よ": 1158,
      "ら": 1159,
      "る": 1160,
      "れ": 1161,
      "を": 1162,
      "ん": 1163,
      "ア": 1164,
      "ィ": 1165,
      "イ": 1166,
      "エ": 1167,
      "オ": 1168,
      "ク": 1169,
      "グ": 1170,
      "コ": 1171,
      "シ": 1172,
      "ジ": 1173,
      "ス": 1174,
      "ズ": 1175,
      "セ": 1176,
      "ゼ": 1177,
      "ソ": 1178,
      "タ": 1179,
      "チ": 1180,
      "ッ": 1181,
      "ツ": 1182,
      "テ": 1183,
      "デ": 1184,
      "ト": 1185,
      "ナ": 1186,
      "ネ": 1187,
      "ノ": 1188,
      "バ": 1189,
      "パ": 1190,
      "ヒ": 1191,
      "ピ": 1192,
      "プ": 1193,
      "ボ": 1194,
      "ポ": 1195,
      "マ": 1196,
      "ャ": 1197,
      "ョ": 1198,
      "ラ": 1199,
      "リ": 1200,
      "ル": 1201,
      "ロ": 1202,
      "ン": 1203,
      "・": 1204,
      "ー": 1205,
      "一": 1206,
      "七": 1207,
      "三": 1208,
      "上": 1209,
      "不": 1210,
      "与": 1211,
      "世": 1212,
      "中": 1213,
      "为": 1214,
      "义": 1215,
      "习": 1216,
      "乱": 1217,
      "了": 1218,
      "事": 1219,
      "二": 1220,
      "于": 1221,
      "互": 1222,
      "五": 1223,
      "亦": 1224,
      "京": 1225,
      "亲": 1226,
      "人": 1227,
      "介": 1228,
      "从": 1229,
      "仕": 1230,
      "代": 1231,
      "份": 1232,
      "休": 1233,
      "伟": 1234,
      "位": 1235,
      "何": 1236,
      "余": 1237,
      "作": 1238,
      "你": 1239,
      "使": 1240,
      "依": 1241,
      "修": 1242,
      "個": 1243,
      "倒": 1244,
      "健": 1245,
      "僕": 1246,
      "元": 1247,
      "入": 1248,
      "全": 1249,
      "八": 1250,
      "六": 1251,
      "其": 1252,
      "具": 1253,
      "円": 1254,
      "册": 1255,
      "决": 1256,
      "出": 1257,
      "切": 1258,
      "划": 1259,
      "列": 1260,
      "利": 1261,
      "别": 1262,
      "到": 1263,
      "副": 1264,
      "加": 1265,
      "助": 1266,
      "化": 1267,
      "北": 1268,
      "十": 1269,
      "卍": 1270,
      "卐": 1271,
      "南": 1272,
      "印": 1273,
      "叉": 1274,
      "反": 1275,
      "发": 1276,
      "口": 1277,
      "句": 1278,
      "可": 1279,
      "各": 1280,
      "合": 1281,
      "同": 1282,
      "名": 1283,
      "后": 1284,
      "吗": 1285,
      "吥": 1286,
      "吸": 1287,
      "告": 1288,
      "员": 1289,
      "和": 1290,
      "咒": 1291,
      "哉": 1292,
      "哥": 1293,
      "哲": 1294,
      "哷": 1295,
      "唯": 1296,
      "喝": 1297,
      "嘅": 1298,
      "器": 1299,
      "四": 1300,
      "因": 1301,
      "図": 1302,
      "固": 1303,
      "国": 1304,
      "國": 1305,
      "地": 1306,
      "域": 1307,
      "堂": 1308,
      "報": 1309,
      "境": 1310,
      "增": 1311,
      "声": 1312,
      "处": 1313,
      "复": 1314,
      "外": 1315,
      "多": 1316,
      "夜": 1317,
      "夢": 1318,
      "大": 1319,
      "天": 1320,
      "奖": 1321,
      "奪": 1322,
      "好": 1323,
      "如": 1324,
      "威": 1325,
      "婆": 1326,
      "孕": 1327,
      "字": 1328,
      "存": 1329,
      "学": 1330,
      "安": 1331,
      "官": 1332,
      "定": 1333,
      "宦": 1334,
      "寝": 1335,
      "尊": 1336,
      "小": 1337,
      "少": 1338,
      "尔": 1339,
      "尼": 1340,
      "属": 1341,
      "岂": 1342,
      "工": 1343,
      "师": 1344,
      "席": 1345,
      "常": 1346,
      "年": 1347,
      "广": 1348,
      "应": 1349,
      "废": 1350,
      "度": 1351,
      "康": 1352,
      "廬": 1353,
      "异": 1354,
      "引": 1355,
      "弥": 1356,
      "当": 1357,
      "影": 1358,
      "彼": 1359,
      "得": 1360,
      "徹": 1361,
      "忘": 1362,
      "念": 1363,
      "性": 1364,
      "惑": 1365,
      "意": 1366,
      "愛": 1367,
      "感": 1368,
      "憶": 1369,
      "成": 1370,
      "我": 1371,
      "戻": 1372,
      "所": 1373,
      "执": 1374,
      "投": 1375,
      "摩": 1376,
      "收": 1377,
      "改": 1378,
      "政": 1379,
      "故": 1380,
      "效": 1381,
      "整": 1382,
      "文": 1383,
      "新": 1384,
      "方": 1385,
      "无": 1386,
      "日": 1387,
      "时": 1388,
      "星": 1389,
      "是": 1390,
      "显": 1391,
      "普": 1392,
      "晴": 1393,
      "更": 1394,
      "書": 1395,
      "最": 1396,
      "月": 1397,
      "有": 1398,
      "朝": 1399,
      "期": 1400,
      "杂": 1401,
      "東": 1402,
      "果": 1403,
      "某": 1404,
      "染": 1405,
      "查": 1406,
      "栄": 1407,
      "格": 1408,
      "械": 1409,
      "梵": 1410,
      "检": 1411,
      "模": 1412,
      "権": 1413,
      "機": 1414,
      "款": 1415,
      "止": 1416,
      "此": 1417,
      "母": 1418,
      "比": 1419,
      "民": 1420,
      "氣": 1421,
      "永": 1422,
      "求": 1423,
      "汇": 1424,
      "没": 1425,
      "泊": 1426,
      "流": 1427,
      "消": 1428,
      "添": 1429,
      "灭": 1430,
      "然": 1431,
      "熟": 1432,
      "父": 1433,
      "牙": 1434,
      "猫": 1435,
      "现": 1436,
      "班": 1437,
      "球": 1438,
      "理": 1439,
      "生": 1440,
      "用": 1441,
      "由": 1442,
      "疆": 1443,
      "痛": 1444,
      "発": 1445,
      "發": 1446,
      "白": 1447,
      "的": 1448,
      "益": 1449,
      "直": 1450,
      "相": 1451,
      "知": 1452,
      "研": 1453,
      "破": 1454,
      "祖": 1455,
      "离": 1456,
      "秘": 1457,
      "程": 1458,
      "稱": 1459,
      "究": 1460,
      "立": 1461,
      "章": 1462,
      "第": 1463,
      "答": 1464,
      "简": 1465,
      "类": 1466,
      "紅": 1467,
      "素": 1468,
      "終": 1469,
      "続": 1470,
      "網": 1471,
      "繁": 1472,
      "维": 1473,
      "者": 1474,
      "而": 1475,
      "肉": 1476,
      "能": 1477,
      "自": 1478,
      "花": 1479,
      "若": 1480,
      "英": 1481,
      "茶": 1482,
      "葬": 1483,
      "薩": 1484,
      "處": 1485,
      "蛟": 1486,
      "蝶": 1487,
      "衆": 1488,
      "行": 1489,
      "表": 1490,
      "西": 1491,
      "见": 1492,
      "观": 1493,
      "视": 1494,
      "觉": 1495,
      "解": 1496,
      "言": 1497,
      "記": 1498,
      "訳": 1499,
      "試": 1500,
      "語": 1501,
      "論": 1502,
      "讓": 1503,
      "计": 1504,
      "讨": 1505,
      "许": 1506,
      "论": 1507,
      "话": 1508,
      "语": 1509,
      "说": 1510,
      "诸": 1511,
      "贪": 1512,
      "越": 1513,
      "足": 1514,
      "身": 1515,
      "車": 1516,
      "转": 1517,
      "辦": 1518,
      "达": 1519,
      "过": 1520,
      "运": 1521,
      "返": 1522,
      "追": 1523,
      "通": 1524,
      "逝": 1525,
      "進": 1526,
      "遣": 1527,
      "那": 1528,
      "都": 1529,
      "释": 1530,
      "量": 1531,
      "金": 1532,
      "鉄": 1533,
      "错": 1534,
      "长": 1535,
      "間": 1536,
      "间": 1537,
      "闻": 1538,
      "阿": 1539,
      "除": 1540,
      "陸": 1541,
      "障": 1542,
      "雨": 1543,
      "電": 1544,
      "靈": 1545,
      "非": 1546,
      "面": 1547,
      "韩": 1548,
      "音": 1549,
      "響": 1550,
      "願": 1551,
      "页": 1552,
      "须": 1553,
      "颂": 1554,
      "飞": 1555,
      "飲": 1556,
      "首": 1557,
      "龙": 1558,
      "꣡": 1559,
      "꣢": 1560,
      "꣣": 1561,
      "꣫": 1562,
      "꣯": 1563,
      "ꣲ": 1564,
      "ꣳ": 1565,
      "가": 1566,
      "간": 1567,
      "감": 1568,
      "개": 1569,
      "게": 1570,
      "고": 1571,
      "공": 1572,
      "과": 1573,
      "교": 1574,
      "국": 1575,
      "금": 1576,
      "급": 1577,
      "기": 1578,
      "깨": 1579,
      "나": 1580,
      "낱": 1581,
      "냐": 1582,
      "녹": 1583,
      "는": 1584,
      "니": 1585,
      "다": 1586,
      "달": 1587,
      "대": 1588,
      "더": 1589,
      "동": 1590,
      "두": 1591,
      "듬": 1592,
      "따": 1593,
      "뜨": 1594,
      "라": 1595,
      "락": 1596,
      "레": 1597,
      "력": 1598,
      "로": 1599,
      "름": 1600,
      "리": 1601,
      "만": 1602,
      "말": 1603,
      "망": 1604,
      "맵": 1605,
      "몸": 1606,
      "못": 1607,
      "뭐": 1608,
      "민": 1609,
      "받": 1610,
      "발": 1611,
      "백": 1612,
      "번": 1613,
      "법": 1614,
      "봇": 1615,
      "브": 1616,
      "비": 1617,
      "사": 1618,
      "산": 1619,
      "상": 1620,
      "서": 1621,
      "성": 1622,
      "세": 1623,
      "수": 1624,
      "술": 1625,
      "쉬": 1626,
      "슈": 1627,
      "스": 1628,
      "승": 1629,
      "시": 1630,
      "신": 1631,
      "아": 1632,
      "어": 1633,
      "없": 1634,
      "에": 1635,
      "염": 1636,
      "영": 1637,
      "예": 1638,
      "완": 1639,
      "외": 1640,
      "요": 1641,
      "우": 1642,
      "운": 1643,
      "월": 1644,
      "위": 1645,
      "을": 1646,
      "음": 1647,
      "의": 1648,
      "이": 1649,
      "인": 1650,
      "임": 1651,
      "입": 1652,
      "있": 1653,
      "자": 1654,
      "적": 1655,
      "전": 1656,
      "절": 1657,
      "정": 1658,
      "조": 1659,
      "좀": 1660,
      "주": 1661,
      "중": 1662,
      "증": 1663,
      "지": 1664,
      "째": 1665,
      "청": 1666,
      "크": 1667,
      "키": 1668,
      "탄": 1669,
      "탑": 1670,
      "터": 1671,
      "트": 1672,
      "특": 1673,
      "팅": 1674,
      "파": 1675,
      "하": 1676,
      "학": 1677,
      "한": 1678,
      "함": 1679,
      "합": 1680,
      "허": 1681,
      "효": 1682,
      "히": 1683,
      "힌": 1684,
      "힘": 1685,
      "︎": 1686,
      "️": 1687,
      "�": 1688,
      "𑆤": 1689,
      "𑌏": 1690,
      "𑌥": 1691,
      "𑌫": 1692,
      "𑌮": 1693,
      "𑌸": 1694,
      "𑐎": 1695,
      "𑐕": 1696,
      "𑐫": 1697,
      "𑐮": 1698,
      "𑐰": 1699,
      "𑐴": 1700,
      "𑐵": 1701,
      "𑑀": 1702,
      "𑑂": 1703,
      "𑑄": 1704,
      "𑑅": 1705,
      "🅰": 1706,
      "🇦": 1707,
      "🇮": 1708,
      "🇱": 1709,
      "🇳": 1710,
      "🇵": 1711,
      "🇸": 1712,
      "🇹": 1713,
      "🇺": 1714,
      "🌀": 1715,
      "🌃": 1716,
      "🌄": 1717,
      "🌅": 1718,
      "🌈": 1719,
      "🌉": 1720,
      "🌍": 1721,
      "🌎": 1722,
      "🌏": 1723,
      "🌖": 1724,
      "🌙": 1725,
      "🌛": 1726,
      "🌝": 1727,
      "🌞": 1728,
      "🌟": 1729,
      "🌠": 1730,
      "🌰": 1731,
      "🌱": 1732,
      "🌴": 1733,
      "🌷": 1734,
      "🌸": 1735,
      "🌹": 1736,
      "🌺": 1737,
      "🌻": 1738,
      "🌼": 1739,
      "🌿": 1740,
      "🍀": 1741,
      "🍁": 1742,
      "🍃": 1743,
      "🍋": 1744,
      "🍥": 1745,
      "🍾": 1746,
      "🎂": 1747,
      "🎃": 1748,
      "🎉": 1749,
      "🎊": 1750,
      "🎋": 1751,
      "🎎": 1752,
      "🎓": 1753,
      "🎖": 1754,
      "🎤": 1755,
      "🎯": 1756,
      "🎵": 1757,
      "🎶": 1758,
      "🎼": 1759,
      "🏀": 1760,
      "🏃": 1761,
      "🏏": 1762,
      "🏠": 1763,
      "🏮": 1764,
      "🏷": 1765,
      "🏹": 1766,
      "🏻": 1767,
      "🏽": 1768,
      "🐕": 1769,
      "🐙": 1770,
      "🐯": 1771,
      "👆": 1772,
      "👇": 1773,
      "👈": 1774,
      "👉": 1775,
      "👌": 1776,
      "👍": 1777,
      "👏": 1778,
      "👞": 1779,
      "👣": 1780,
      "👦": 1781,
      "👧": 1782,
      "👨": 1783,
      "👩": 1784,
      "👫": 1785,
      "👱": 1786,
      "👴": 1787,
      "💄": 1788,
      "💏": 1789,
      "💐": 1790,
      "💑": 1791,
      "💓": 1792,
      "💔": 1793,
      "💕": 1794,
      "💖": 1795,
      "💗": 1796,
      "💘": 1797,
      "💚": 1798,
      "💛": 1799,
      "💝": 1800,
      "💠": 1801,
      "💥": 1802,
      "💦": 1803,
      "💧": 1804,
      "💫": 1805,
      "💮": 1806,
      "💰": 1807,
      "💱": 1808,
      "💵": 1809,
      "📂": 1810,
      "📌": 1811,
      "📎": 1812,
      "📏": 1813,
      "📕": 1814,
      "📖": 1815,
      "📚": 1816,
      "📝": 1817,
      "📢": 1818,
      "📣": 1819,
      "📰": 1820,
      "📱": 1821,
      "📳": 1822,
      "📸": 1823,
      "📺": 1824,
      "🔅": 1825,
      "🔊": 1826,
      "🔍": 1827,
      "🔐": 1828,
      "🔔": 1829,
      "🔗": 1830,
      "🔟": 1831,
      "🔥": 1832,
      "🔰": 1833,
      "🔱": 1834,
      "🔶": 1835,
      "🔷": 1836,
      "🔸": 1837,
      "🔹": 1838,
      "🔺": 1839,
      "🔻": 1840,
      "🕉": 1841,
      "🕔": 1842,
      "🖊": 1843,
      "🖱": 1844,
      "🗃": 1845,
      "🗒": 1846,
      "🗣": 1847,
      "🗳": 1848,
      "😀": 1849,
      "😂": 1850,
      "😃": 1851,
      "😄": 1852,
      "😅": 1853,
      "😇": 1854,
      "😉": 1855,
      "😊": 1856,
      "😌": 1857,
      "😍": 1858,
      "😎": 1859,
      "😒": 1860,
      "😔": 1861,
      "😘": 1862,
      "😜": 1863,
      "😝": 1864,
      "😞": 1865,
      "😡": 1866,
      "😢": 1867,
      "😩": 1868,
      "😳": 1869,
      "🙁": 1870,
      "🙂": 1871,
      "🙅": 1872,
      "🙆": 1873,
      "🙌": 1874,
      "🙍": 1875,
      "🙎": 1876,
      "🙏": 1877,
      "🚑": 1878,
      "🚩": 1879,
      "🚷": 1880,
      "🛑": 1881,
      "🛡": 1882,
      "🤔": 1883,
      "🤗": 1884,
      "🤝": 1885,
      "🤦": 1886,
      "🤩": 1887,
      "🤪": 1888,
      "🤲": 1889,
      "🥀": 1890,
      "🥂": 1891,
      "🥇": 1892,
      "🥰": 1893,
      "🦂": 1894,
      "🧐": 1895,
      "🧜": 1896,
      "🩸": 1897,
      "🪔": 1898,
      "##ि": 1899,
      "##द": 1900,
      "##्": 1901,
      "##व": 1902,
      "##ा": 1903,
      "##न": 1904,
      "##ु": 1905,
      "##त": 1906,
      "##ग": 1907,
      "##र": 1908,
      "##ष": 1909,
      "##य": 1910,
      "##म": 1911,
      "##ह": 1912,
      "##ं": 1913,
      "##स": 1914,
      "##े": 1915,
      "##ध": 1916,
      "##ब": 1917,
      "##क": 1918,
      "##थ": 1919,
      "##e": 1920,
      "##l": 1921,
      "##t": 1922,
      "##s": 1923,
      "##ज": 1924,
      "##ी": 1925,
      "##भ": 1926,
      "##प": 1927,
      "##ङ": 1928,
      "##ै": 1929,
      "##ो": 1930,
      "##ट": 1931,
      "##ण": 1932,
      "##॒": 1933,
      "##॑": 1934,
      "##ः": 1935,
      "##ल": 1936,
      "##ू": 1937,
      "##ृ": 1938,
      "##ौ": 1939,
      "##च": 1940,
      "##श": 1941,
      "##छ": 1942,
      "##ॄ": 1943,
      "##०": 1944,
      "##ओ": 1945,
      "##ॊ": 1946,
      "##ड": 1947,
      "##ॅ": 1948,
      "##अ": 1949,
      "##a": 1950,
      "##d": 1951,
      "##ऽ": 1952,
      "##उ": 1953,
      "##ख": 1954,
      "##ꣳ": 1955,
      "##y": 1956,
      "##घ": 1957,
      "##६": 1958,
      "##i": 1959,
      "##r": 1960,
      "##ँ": 1961,
      "##ळ": 1962,
      "##h": 1963,
      "##फ": 1964,
      "##़": 1965,
      "##z": 1966,
      "##ठ": 1967,
      "##इ": 1968,
      "##झ": 1969,
      "##u": 1970,
      "##ञ": 1971,
      "##0": 1972,
      "##4": 1973,
      "##n": 1974,
      "##m": 1975,
      "##k": 1976,
      "##v": 1977,
      "##8": 1978,
      "##c": 1979,
      "##ई": 1980,
      "##ऩ": 1981,
      "##p": 1982,
      "##१": 1983,
      "##३": 1984,
      "##९": 1985,
      "##x": 1986,
      "##o": 1987,
      "##॓": 1988,
      "##ʼ": 1989,
      "##२": 1990,
      "##염": 1991,
      "##😞": 1992,
      "##४": 1993,
      "##८": 1994,
      "##ê": 1995,
      "##ř": 1996,
      "##į": 1997,
      "##ढ": 1998,
      "##م": 1999,
      "##و": 2000,
      "##ا": 2001,
      "##ً": 2002,
      "##_": 2003,
      "##५": 2004,
      "##5": 2005,
      "##2": 2006,
      "##7": 2007,
      "##3": 2008,
      "##ए": 2009,
      "##9": 2010,
      "##)": 2011,
      "##📢": 2012,
      "##b": 2013,
      "##ர": 2014,
      "##ு": 2015,
      "##க": 2016,
      "##ி": 2017,
      "##ல": 2018,
      "##்": 2019,
      "##७": 2020,
      "##া": 2021,
      "##1": 2022,
      "##份": 2023,
      "##報": 2024,
      "##告": 2025,
      "##w": 2026,
      "##:": 2027,
      "##ॉ": 2028,
      "##j": 2029,
      "##ऴ": 2030,
      "##🔐": 2031,
      "##த": 2032,
      "##ா": 2033,
      "##ய": 2034,
      "##ɡ": 2035,
      "##ɑ": 2036,
      "##ː": 2037,
      "##ə": 2038,
      "##᳘": 2039,
      "##आ": 2040,
      "##}": 2041,
      "##-": 2042,
      "##ï": 2043,
      "##о": 2044,
      "##д": 2045,
      "##ŋ": 2046,
      "##ऍ": 2047,
      "##ś": 2048,
      "##ऱ": 2049,
      "##ॆ": 2050,
      "##᳚": 2051,
      "##ˆ": 2052,
      "##f": 2053,
      "##હ": 2054,
      "##ી": 2055,
      "##α": 2056,
      "##κ": 2057,
      "##ά": 2058,
      "##6": 2059,
      "##🙏": 2060,
      "##р": 2061,
      "##ч": 2062,
      "##е": 2063,
      "##т": 2064,
      "##и": 2065,
      "##ā": 2066,
      "##ṣ": 2067,
      "##̄": 2068,
      "##ં": 2069,
      "##સ": 2070,
      "##્": 2071,
      "##ક": 2072,
      "##ૃ": 2073,
      "##ત": 2074,
      "##મ": 2075,
      "##ા": 2076,
      "##ل": 2077,
      "##ر": 2078,
      "##ح": 2079,
      "##ي": 2080,
      "##̇": 2081,
      "##̐": 2082,
      "##ş": 2083,
      "##ऊ": 2084,
      "##京": 2085,
      "##ம": 2086,
      "##ழ": 2087,
      "##ഥ": 2088,
      "##മ": 2089,
      "##ാ": 2090,
      "##ക": 2091,
      "##ട": 2092,
      "##്": 2093,
      "##െ": 2094,
      "##'": 2095,
      "##í": 2096,
      "##é": 2097,
      "##औ": 2098,
      "##{": 2099,
      "##g": 2100,
      "##а": 2101,
      "##щ": 2102,
      "##н": 2103,
      "##%": 2104,
      "##?": 2105,
      "##가": 2106,
      "##(": 2107,
      "##യ": 2108,
      "##ു": 2109,
      "##х": 2110,
      "##у": 2111,
      "##л": 2112,
      "##ь": 2113,
      "##я": 2114,
      "##@": 2115,
      "##ऺ": 2116,
      "##ય": 2117,
      "##ર": 2118,
      "##ī": 2119,
      "##꣡": 2120,
      "##꣢": 2121,
      "##ऋ": 2122,
      "##ऐ": 2123,
      "##ʉ": 2124,
      "##ñ": 2125,
      "##金": 2126,
      "##]": 2127,
      "##>": 2128,
      "##î": 2129,
      "##꣣": 2130,
      "##ੋ": 2131,
      "##ਕ": 2132,
      "##q": 2133,
      "##к": 2134,
      "##ї": 2135,
      "##с": 2136,
      "##ା": 2137,
      "##ୟ": 2138,
      "##।": 2139,
      "##æ": 2140,
      "##வ": 2141,
      "##ப": 2142,
      "##ோ": 2143,
      "##ര": 2144,
      "##ം": 2145,
      "##ഭ": 2146,
      "##ി": 2147,
      "##ച": 2148,
      "##ത": 2149,
      "##ю": 2150,
      "##б": 2151,
      "##в": 2152,
      "##ે": 2153,
      "##û": 2154,
      "##백": 2155,
      "##ب": 2156,
      "##ن": 2157,
      "##ه": 2158,
      "##ز": 2159,
      "##ی": 2160,
      "##.": 2161,
      "##作": 2162,
      "##错": 2163,
      "##义": 2164,
      "##名": 2165,
      "##á": 2166,
      "##划": 2167,
      "##ó": 2168,
      "##â": 2169,
      "##ා": 2170,
      "##ස": 2171,
      "##🌹": 2172,
      "##🍃": 2173,
      "##ൊ": 2174,
      "##േ": 2175,
      "##ണ": 2176,
      "##ങ": 2177,
      "##ൽ": 2178,
      "##ü": 2179,
      "##ḥ": 2180,
      "##ž": 2181,
      "###": 2182,
      "##ॿ": 2183,
      "##г": 2184,
      "##ᳪ": 2185,
      "##᳭": 2186,
      "##ಿ": 2187,
      "##ರ": 2188,
      "##್": 2189,
      "##ಯ": 2190,
      "##ಸ": 2191,
      "##ತ": 2192,
      "##ು": 2193,
      "##ư": 2194,
      "##̪": 2195,
      "##ણ": 2196,
      "##ુ": 2197,
      "##వ": 2198,
      "##త": 2199,
      "##۔": 2200,
      "##ऌ": 2201,
      "##¤": 2202,
      "##м": 2203,
      "##د": 2204,
      "##ہ": 2205,
      "##િ": 2206,
      "##ધ": 2207,
      "##ı": 2208,
      "##ொ": 2209,
      "##ட": 2210,
      "##ன": 2211,
      "##ை": 2212,
      "##続": 2213,
      "##繁": 2214,
      "##栄": 2215,
      "##/": 2216,
      "##🇳": 2217,
      "##ُ": 2218,
      "##ع": 2219,
      "##ഛ": 2220,
      "##ന": 2221,
      "##ോ": 2222,
      "##두": 2223,
      "##어": 2224,
      "##બ": 2225,
      "##ই": 2226,
      "##ō": 2227,
      "##ý": 2228,
      "##꣯": 2229,
      "##і": 2230,
      "##ū": 2231,
      "##́": 2232,
      "##ו": 2233,
      "##ג": 2234,
      "##發": 2235,
      "##音": 2236,
      "##ெ": 2237,
      "##*": 2238,
      "##ʊ": 2239,
      "##થ": 2240,
      "##냐": 2241,
      "##ᱧ": 2242,
      "##,": 2243,
      "##灭": 2244,
      "##常": 2245,
      "##如": 2246,
      "##类": 2247,
      "##ט": 2248,
      "##ዝ": 2249,
      "##ብ": 2250,
      "##尊": 2251,
      "##龙": 2252,
      "##首": 2253,
      "##页": 2254,
      "##게": 2255,
      "##\"": 2256,
      "##ɜ": 2257,
      "##à": 2258,
      "##ભ": 2259,
      "##̣": 2260,
      "##行": 2261,
      "##工": 2262,
      "##程": 2263,
      "##师": 2264,
      "##ॐ": 2265,
      "##入": 2266,
      "##è": 2267,
      "##ρ": 2268,
      "##ι": 2269,
      "##σ": 2270,
      "##τ": 2271,
      "##ό": 2272,
      "##ς": 2273,
      "##한": 2274,
      "##민": 2275,
      "##국": 2276,
      "##ন": 2277,
      "##ॢ": 2278,
      "##ṭ": 2279,
      "##弥": 2280,
      "##š": 2281,
      "##ನ": 2282,
      "##ಗ": 2283,
      "##ೆ": 2284,
      "##二": 2285,
      "##册": 2286,
      "##因": 2287,
      "##性": 2288,
      "##决": 2289,
      "##定": 2290,
      "##י": 2291,
      "##ר": 2292,
      "##📰": 2293,
      "##ƒ": 2294,
      "##ള": 2295,
      "##•": 2296,
      "##ḍ": 2297,
      "##ർ": 2298,
      "##ྲ": 2299,
      "##ྭ": 2300,
      "##🚩": 2301,
      "##신": 2302,
      "##중": 2303,
      "##입": 2304,
      "##니": 2305,
      "##다": 2306,
      "##જ": 2307,
      "##ಂ": 2308,
      "##ಕ": 2309,
      "##ೃ": 2310,
      "##þ": 2311,
      "##°": 2312,
      "##ン": 2313,
      "##バ": 2314,
      "##ッ": 2315,
      "##ク": 2316,
      "##ṇ": 2317,
      "##ক": 2318,
      "##ু": 2319,
      "##র": 2320,
      "##ಶ": 2321,
      "##ಬ": 2322,
      "##з": 2323,
      "##ò": 2324,
      "##宦": 2325,
      "##一": 2326,
      "##ャ": 2327,
      "##😳": 2328,
      "##ö": 2329,
      "##õ": 2330,
      "##生": 2331,
      "##亦": 2332,
      "##成": 2333,
      "##立": 2334,
      "##ન": 2335,
      "##尔": 2336,
      "##破": 2337,
      "##依": 2338,
      "##故": 2339,
      "##ē": 2340,
      "##̃": 2341,
      "##봇": 2342,
      "##이": 2343,
      "##ྱ": 2344,
      "##ྀ": 2345,
      "##్": 2346,
      "##೦": 2347,
      "##ζ": 2348,
      "##ɛ": 2349,
      "##ɪ": 2350,
      "##ʃ": 2351,
      "##お": 2352,
      "##あ": 2353,
      "##め": 2354,
      "##ල": 2355,
      "##ද": 2356,
      "##ව": 2357,
      "##ය": 2358,
      "##ි": 2359,
      "##ஷ": 2360,
      "##ˈ": 2361,
      "##ц": 2362,
      "##й": 2363,
      "##🖊": 2364,
      "##[": 2365,
      "##ऎ": 2366,
      "##!": 2367,
      "##സ": 2368,
      "##政": 2369,
      "##官": 2370,
      "##员": 2371,
      "##ല": 2372,
      "##പ": 2373,
      "##ک": 2374,
      "##ಳ": 2375,
      "##چ": 2376,
      "##ಾ": 2377,
      "##ಮ": 2378,
      "##વ": 2379,
      "##ળ": 2380,
      "##య": 2381,
      "##ి": 2382,
      "##న": 2383,
      "##చ": 2384,
      "##ో": 2385,
      "##দ": 2386,
      "##্": 2387,
      "##ধ": 2388,
      "##ৃ": 2389,
      "##ত": 2390,
      "##ি": 2391,
      "##ฟ": 2392,
      "##ั": 2393,
      "##ง": 2394,
      "##逝": 2395,
      "##孕": 2396,
      "##전": 2397,
      "##히": 2398,
      "##💮": 2399,
      "##🌄": 2400,
      "##உ": 2401,
      "##ો": 2402,
      "##⭐": 2403,
      "##🔥": 2404,
      "##ṝ": 2405,
      "##대": 2406,
      "##합": 2407,
      "##ো": 2408,
      "##গ": 2409,
      "##ق": 2410,
      "##ة": 2411,
      "##;": 2412,
      "##ಪ": 2413,
      "##ಹ": 2414,
      "##ಃ": 2415,
      "##ක": 2416,
      "##්": 2417,
      "##ත": 2418,
      "##ܘ": 2419,
      "##ܠ": 2420,
      "##ܦ": 2421,
      "##ܐ": 2422,
      "##~": 2423,
      "##ശ": 2424,
      "##੍": 2425,
      "##ਰ": 2426,
      "##ੀ": 2427,
      "##ਤ": 2428,
      "##ਮ": 2429,
      "##إ": 2430,
      "##س": 2431,
      "##加": 2432,
      "##つ": 2433,
      "##ج": 2434,
      "##ボ": 2435,
      "##ト": 2436,
      "##に": 2437,
      "##よ": 2438,
      "##る": 2439,
      "##ദ": 2440,
      "##ഹ": 2441,
      "##𑑂": 2442,
      "##𑐫": 2443,
      "##𑐵": 2444,
      "##𑐎": 2445,
      "##𑑅": 2446,
      "##ॠ": 2447,
      "##️": 2448,
      "##📸": 2449,
      "##য": 2450,
      "##ã": 2451,
      "##ṃ": 2452,
      "##ಟ": 2453,
      "##쉬": 2454,
      "##시": 2455,
      "##ł": 2456,
      "##🌺": 2457,
      "##ജ": 2458,
      "##¬": 2459,
      "##✨": 2460,
      "##ম": 2461,
      "##😃": 2462,
      "##ん": 2463,
      "##と": 2464,
      "##ೀ": 2465,
      "##ਂ": 2466,
      "##ਡ": 2467,
      "##ṅ": 2468,
      "##χ": 2469,
      "##μ": 2470,
      "##ή": 2471,
      "##δ": 2472,
      "##η": 2473,
      "##ஶ": 2474,
      "##×": 2475,
      "##互": 2476,
      "##相": 2477,
      "##杂": 2478,
      "##乱": 2479,
      "##💏": 2480,
      "##॔": 2481,
      "##름": 2482,
      "##®": 2483,
      "##ж": 2484,
      "##ç": 2485,
      "##ಲ": 2486,
      "##ந": 2487,
      "##ᛋ": 2488,
      "##<": 2489,
      "##기": 2490,
      "##ズ": 2491,
      "##ー": 2492,
      "##語": 2493,
      "##ડ": 2494,
      "##క": 2495,
      "##ష": 2496,
      "##ర": 2497,
      "##ం": 2498,
      "##♀": 2499,
      "##ס": 2500,
      "##ף": 2501,
      "##ى": 2502,
      "##਼": 2503,
      "##ਣ": 2504,
      "##ཁ": 2505,
      "##ུ": 2506,
      "##མ": 2507,
      "##👍": 2508,
      "##হ": 2509,
      "##ে": 2510,
      "##っ": 2511,
      "##て": 2512,
      "##き": 2513,
      "##👨": 2514,
      "##👩": 2515,
      "##👧": 2516,
      "##୍": 2517,
      "##ର": 2518,
      "##ତ": 2519,
      "##ି": 2520,
      "##ଭ": 2521,
      "##使": 2522,
      "##φ": 2523,
      "##פ": 2524,
      "##学": 2525,
      "##ô": 2526,
      "##়": 2527,
      "##ء": 2528,
      "##個": 2529,
      "##জ": 2530,
      "##ش": 2531,
      "##œ": 2532,
      "##😂": 2533,
      "##뜨": 2534,
      "##리": 2535,
      "##🌿": 2536,
      "##🕉": 2537,
      "##ீ": 2538,
      "##ð": 2539,
      "##ت": 2540,
      "##ắ": 2541,
      "##😘": 2542,
      "##🤲": 2543,
      "##ದ": 2544,
      "##\\": 2545,
      "##ੱ": 2546,
      "##ṛ": 2547,
      "##ள": 2548,
      "##থ": 2549,
      "##ॼ": 2550,
      "##す": 2551,
      "##ú": 2552,
      "##ٰ": 2553,
      "##വ": 2554,
      "##ా": 2555,
      "##జ": 2556,
      "##ә": 2557,
      "##ల": 2558,
      "##స": 2559,
      "##自": 2560,
      "##能": 2561,
      "##知": 2562,
      "##ॾ": 2563,
      "##习": 2564,
      "##ే": 2565,
      "##డ": 2566,
      "##ె": 2567,
      "##ʒ": 2568,
      "##不": 2569,
      "##念": 2570,
      "##长": 2571,
      "##觉": 2572,
      "##ഴ": 2573,
      "##ગ": 2574,
      "##ઉ": 2575,
      "##ො": 2576,
      "##ම": 2577,
      "##ഗ": 2578,
      "##ऻ": 2579,
      "##ì": 2580,
      "##ኳ": 2581,
      "##🏻": 2582,
      "##꣫": 2583,
      "##=": 2584,
      "##ω": 2585,
      "##け": 2586,
      "##$": 2587,
      "##事": 2588,
      "##п": 2589,
      "##ğ": 2590,
      "##+": 2591,
      "##ప": 2592,
      "##パ": 2593,
      "##な": 2594,
      "##语": 2595,
      "##॰": 2596,
      "##ጻ": 2597,
      "##康": 2598,
      "##ы": 2599,
      "##通": 2600,
      "##書": 2601,
      "##了": 2602,
      "##达": 2603,
      "##各": 2604,
      "##别": 2605,
      "##૦": 2606,
      "##➧": 2607,
      "##你": 2608,
      "##忘": 2609,
      "##記": 2610,
      "##憶": 2611,
      "##ਸ": 2612,
      "##ਾ": 2613,
      "##ਲ": 2614,
      "##し": 2615,
      "##い": 2616,
      "##ண": 2617,
      "##ট": 2618,
      "##蝶": 2619,
      "##葬": 2620,
      "##花": 2621,
      "##于": 2622,
      "##彼": 2623,
      "##答": 2624,
      "##લ": 2625,
      "##ઃ": 2626,
      "##款": 2627,
      "##પ": 2628,
      "##處": 2629,
      "##ቮ": 2630,
      "##处": 2631,
      "##ร": 2632,
      "##บ": 2633,
      "##อ": 2634,
      "##ต": 2635,
      "##శ": 2636,
      "##ષ": 2637,
      "##ટ": 2638,
      "##᳖": 2639,
      "##০": 2640,
      "##৩": 2641,
      "##ų": 2642,
      "##̖": 2643,
      "##ä": 2644,
      "##叉": 2645,
      "##ڪ": 2646,
      "##એ": 2647,
      "##ۆ": 2648,
      "##૨": 2649,
      "##面": 2650,
      "##存": 2651,
      "##废": 2652,
      "##讨": 2653,
      "##论": 2654,
      "##พ": 2655,
      "##ิ": 2656,
      "##่": 2657,
      "##ม": 2658,
      "##ൂ": 2659,
      "##←": 2660,
      "##ʟ": 2661,
      "##ᴇ": 2662,
      "##ᴀ": 2663,
      "##位": 2664,
      "##格": 2665,
      "##ת": 2666,
      "##雨": 2667,
      "##ი": 2668,
      "##გ": 2669,
      "##უ": 2670,
      "##ა": 2671,
      "##מ": 2672,
      "##ק": 2673,
      "##ד": 2674,
      "##ש": 2675,
      "##̥": 2676,
      "##റ": 2677,
      "##无": 2678,
      "##可": 2679,
      "##💰": 2680,
      "##π": 2681,
      "##ῖ": 2682,
      "##た": 2683,
      "##く": 2684,
      "##ك": 2685,
      "##ઞ": 2686,
      "##从": 2687,
      "##身": 2688,
      "##月": 2689,
      "##음": 2690,
      "##械": 2691,
      "##人": 2692,
      "##ફ": 2693,
      "##声": 2694,
      "##应": 2695,
      "##增": 2696,
      "##广": 2697,
      "##世": 2698,
      "##间": 2699,
      "##所": 2700,
      "##许": 2701,
      "##ᛏ": 2702,
      "##ᚻ": 2703,
      "##ᛖ": 2704,
      "##ᚩ": 2705,
      "##ᛗ": 2706,
      "##ِ": 2707,
      "##ై": 2708,
      "##吥": 2709,
      "##ே": 2710,
      "##ཊ": 2711,
      "##େ": 2712,
      "##ଖ": 2713,
      "##କ": 2714,
      "##ଃ": 2715,
      "##ল": 2716,
      "##む": 2717,
      "##א": 2718,
      "##נ": 2719,
      "##ב": 2720,
      "##ה": 2721,
      "##ɔ": 2722,
      "##ʏ": 2723,
      "##ড": 2724,
      "##→": 2725,
      "##🤩": 2726,
      "##有": 2727,
      "##何": 2728,
      "##果": 2729,
      "##⛳": 2730,
      "##ྨ": 2731,
      "##ི": 2732,
      "##ས": 2733,
      "##🎼": 2734,
      "##ɒ": 2735,
      "##청": 2736,
      "##하": 2737,
      "##э": 2738,
      "##ù": 2739,
      "##만": 2740,
      "##간": 2741,
      "##疆": 2742,
      "##维": 2743,
      "##ং": 2744,
      "##স": 2745,
      "##染": 2746,
      "##余": 2747,
      "##我": 2748,
      "##而": 2749,
      "##贪": 2750,
      "##🎉": 2751,
      "##🍾": 2752,
      "##ಡ": 2753,
      "##째": 2754,
      "##మ": 2755,
      "##ᆬ": 2756,
      "##ں": 2757,
      "##ഷ": 2758,
      "##💔": 2759,
      "##🎶": 2760,
      "##술": 2761,
      "##탄": 2762,
      "##력": 2763,
      "##적": 2764,
      "##인": 2765,
      "##ǔ": 2766,
      "##✓": 2767,
      "##印": 2768,
      "##度": 2769,
      "##ব": 2770,
      "##理": 2771,
      "##ପ": 2772,
      "##≍": 2773,
      "##ী": 2774,
      "##દ": 2775,
      "##ȧ": 2776,
      "##チ": 2777,
      "##コ": 2778,
      "##マ": 2779,
      "##რ": 2780,
      "##დ": 2781,
      "##ც": 2782,
      "##ვ": 2783,
      "##ლ": 2784,
      "##地": 2785,
      "##😍": 2786,
      "##운": 2787,
      "##🏽": 2788,
      "##ზ": 2789,
      "##是": 2790,
      "##闻": 2791,
      "##遣": 2792,
      "##ط": 2793,
      "##ف": 2794,
      "##発": 2795,
      "##の": 2796,
      "##仕": 2797,
      "##方": 2798,
      "##ூ": 2799,
      "##·": 2800,
      "##팅": 2801,
      "##🇹": 2802,
      "##🇦": 2803,
      "##🇺": 2804,
      "##🇵": 2805,
      "##🇱": 2806,
      "##🇸": 2807,
      "##婆": 2808,
      "##薩": 2809,
      "##哷": 2810,
      "##那": 2811,
      "##摩": 2812,
      "##&": 2813,
      "##😇": 2814,
      "##💗": 2815,
      "##כ": 2816,
      "##ן": 2817,
      "##ל": 2818,
      "##ൻ": 2819,
      "##🏹": 2820,
      "##泊": 2821,
      "##수": 2822,
      "##증": 2823,
      "##઼": 2824,
      "##ૂ": 2825,
      "##ণ": 2826,
      "##ÿ": 2827,
      "##が": 2828,
      "##ܣ": 2829,
      "##ܬ": 2830,
      "##🌞": 2831,
      "##¡": 2832,
      "##ധ": 2833,
      "##🌈": 2834,
      "##є": 2835,
      "##ṁ": 2836,
      "##亲": 2837,
      "##和": 2838,
      "##祖": 2839,
      "##国": 2840,
      "##比": 2841,
      "##天": 2842,
      "##堂": 2843,
      "##更": 2844,
      "##伟": 2845,
      "##大": 2846,
      "##খ": 2847,
      "##প": 2848,
      "##−": 2849,
      "##を": 2850,
      "##🌍": 2851,
      "##گ": 2852,
      "##ٹ": 2853,
      "##ḏ": 2854,
      "##ע": 2855,
      "##ě": 2856,
      "##❤": 2857,
      "##✍": 2858,
      "##ൃ": 2859,
      "##ు": 2860,
      "##ద": 2861,
      "##ീ": 2862,
      "##హ": 2863,
      "##ઈ": 2864,
      "##𑐰": 2865,
      "##𑐴": 2866,
      "##𑑄": 2867,
      "##者": 2868,
      "##观": 2869,
      "##为": 2870,
      "##의": 2871,
      "##ル": 2872,
      "##ڌ": 2873,
      "##💑": 2874,
      "##🇮": 2875,
      "##ჱ": 2876,
      "##日": 2877,
      "##지": 2878,
      "##ೊ": 2879,
      "##ҫ": 2880,
      "##💫": 2881,
      "##ষ": 2882,
      "##શ": 2883,
      "##‡": 2884,
      "##障": 2885,
      "##显": 2886,
      "##চ": 2887,
      "##ખ": 2888,
      "##ラ": 2889,
      "##ス": 2890,
      "##৷": 2891,
      "##ם": 2892,
      "##白": 2893,
      "##猫": 2894,
      "##ऄ": 2895,
      "##ছ": 2896,
      "##效": 2897,
      "##브": 2898,
      "##사": 2899,
      "##ഞ": 2900,
      "##や": 2901,
      "##키": 2902,
      "##낱": 2903,
      "##말": 2904,
      "##🎓": 2905,
      "##ವ": 2906,
      "##ᭅ": 2907,
      "##ø": 2908,
      "##ੰ": 2909,
      "##ਜ": 2910,
      "##ਬ": 2911,
      "##함": 2912,
      "##😄": 2913,
      "##📺": 2914,
      "##ß": 2915,
      "##ᄉ": 2916,
      "##세": 2917,
      "##引": 2918,
      "##ൾ": 2919,
      "##̶": 2920,
      "##げ": 2921,
      "##ら": 2922,
      "##八": 2923,
      "##ଡ": 2924,
      "##଼": 2925,
      "##ଆ": 2926,
      "##ൈ": 2927,
      "##ȯ": 2928,
      "##೨": 2929,
      "##೪": 2930,
      "##ऑ": 2931,
      "##ш": 2932,
      "##å": 2933,
      "##√": 2934,
      "##汇": 2935,
      "##星": 2936,
      "##ė": 2937,
      "##晴": 2938,
      "##か": 2939,
      "##セ": 2940,
      "##イ": 2941,
      "##的": 2942,
      "##父": 2943,
      "##ķ": 2944,
      "##🗃": 2945,
      "##岂": 2946,
      "##ν": 2947,
      "##ഠ": 2948,
      "##☝": 2949,
      "##ε": 2950,
      "##ὸ": 2951,
      "##ア": 2952,
      "##ジ": 2953,
      "##᮰": 2954,
      "##정": 2955,
      "##ο": 2956,
      "##ླ": 2957,
      "##ང": 2958,
      "##ྒ": 2959,
      "##ན": 2960,
      "##れ": 2961,
      "##ऒ": 2962,
      "##代": 2963,
      "##十": 2964,
      "##國": 2965,
      "##ચ": 2966,
      "##说": 2967,
      "##反": 2968,
      "##ど": 2969,
      "##口": 2970,
      "##哥": 2971,
      "##§": 2972,
      "##复": 2973,
      "##须": 2974,
      "##发": 2975,
      "##🤪": 2976,
      "##⃣": 2977,
      "##ئ": 2978,
      "##외": 2979,
      "##♥": 2980,
      "##᳒": 2981,
      "##᭭": 2982,
      "##域": 2983,
      "##稱": 2984,
      "##异": 2985,
      "##过": 2986,
      "##同": 2987,
      "##威": 2988,
      "##ˎ": 2989,
      "##ॡ": 2990,
      "##🌷": 2991,
      "##進": 2992,
      "##ј": 2993,
      "##ذ": 2994,
      "##衆": 2995,
      "##非": 2996,
      "##ロ": 2997,
      "##リ": 2998,
      "##ゼ": 2999,
      "##シ": 3000,
      "##ョ": 3001,
      "##影": 3002,
      "##響": 3003,
      "##休": 3004,
      "##み": 3005,
      "##さ": 3006,
      "##못": 3007,
      "##깨": 3008,
      "##는": 3009,
      "##ę": 3010,
      "##👈": 3011,
      "##当": 3012,
      "##🥀": 3013,
      "##ፂ": 3014,
      "##ബ": 3015,
      "##터": 3016,
      "##레": 3017,
      "##서": 3018,
      "##ま": 3019,
      "##خ": 3020,
      "##ഖ": 3021,
      "##う": 3022,
      "##少": 3023,
      "##寝": 3024,
      "##ё": 3025,
      "##ற": 3026,
      "##句": 3027,
      "##中": 3028,
      "##用": 3029,
      "##期": 3030,
      "##間": 3031,
      "##班": 3032,
      "##牙": 3033,
      "##교": 3034,
      "##得": 3035,
      "##에": 3036,
      "##^": 3037,
      "##《": 3038,
      "##ੇ": 3039,
      "##성": 3040,
      "##ೇ": 3041,
      "##ಚ": 3042,
      "##整": 3043,
      "##年": 3044,
      "##时": 3045,
      "##表": 3046,
      "##ე": 3047,
      "##ნ": 3048,
      "##ć": 3049,
      "##ŏ": 3050,
      "##월": 3051,
      "##小": 3052,
      "##吗": 3053,
      "##此": 3054,
      "##除": 3055,
      "##ń": 3056,
      "##૧": 3057,
      "##益": 3058,
      "##转": 3059,
      "##介": 3060,
      "##¢": 3061,
      "##요": 3062,
      "##ᄌ": 3063,
      "##●": 3064,
      "##ஹ": 3065,
      "##라": 3066,
      "##آ": 3067,
      "##้": 3068,
      "##น": 3069,
      "##ห": 3070,
      "##า": 3071,
      "##ஸ": 3072,
      "##ʌ": 3073,
      "##ᚾ": 3074,
      "##ᛁ": 3075,
      "##ᛞ": 3076,
      "##然": 3077,
      "##ઠ": 3078,
      "##೧": 3079,
      "##θ": 3080,
      "##ధ": 3081,
      "##意": 3082,
      "##与": 3083,
      "##属": 3084,
      "##ಭ": 3085,
      "##ܒ": 3086,
      "##ܛ": 3087,
      "##⚕": 3088,
      "##出": 3089,
      "##具": 3090,
      "##デ": 3091,
      "##ィ": 3092,
      "##切": 3093,
      "##倒": 3094,
      "##ὕ": 3095,
      "##解": 3096,
      "##新": 3097,
      "##安": 3098,
      "##全": 3099,
      "##ۂ": 3100,
      "##ལ": 3101,
      "##到": 3102,
      "##好": 3103,
      "##⠀": 3104,
      "##诸": 3105,
      "##💛": 3106,
      "##ਿ": 3107,
      "##ਖ": 3108,
      "##ˌ": 3109,
      "##終": 3110,
      "##電": 3111,
      "##車": 3112,
      "##球": 3113,
      "##ち": 3114,
      "##ゃ": 3115,
      "##ਨ": 3116,
      "##ײ": 3117,
      "##ַ": 3118,
      "##ệ": 3119,
      "##ྥ": 3120,
      "##་": 3121,
      "##返": 3122,
      "##量": 3123,
      "##颂": 3124,
      "##器": 3125,
      "##ۇ": 3126,
      "##غ": 3127,
      "##ە": 3128,
      "##č": 3129,
      "##스": 3130,
      "##크": 3131,
      "##트": 3132,
      "##로": 3133,
      "##茶": 3134,
      "##ひ": 3135,
      "##ਟ": 3136,
      "##ȩ": 3137,
      "##咒": 3138,
      "##ᛚ": 3139,
      "##韩": 3140,
      "##民": 3141,
      "##利": 3142,
      "##༨": 3143,
      "##′": 3144,
      "##پ": 3145,
      "##陸": 3146,
      "##六": 3147,
      "##章": 3148,
      "##消": 3149,
      "##化": 3150,
      "##吸": 3151,
      "##收": 3152,
      "##境": 3153,
      "##文": 3154,
      "##ৱ": 3155,
      "##আ": 3156,
      "##😅": 3157,
      "##ր": 3158,
      "##ե": 3159,
      "##ւ": 3160,
      "##ա": 3161,
      "##ն": 3162,
      "##朝": 3163,
      "##과": 3164,
      "##€": 3165,
      "##ǒ": 3166,
      "##̠": 3167,
      "##̍": 3168,
      "##言": 3169,
      "##ೋ": 3170,
      "##급": 3171,
      "##ʋ": 3172,
      "##ॺ": 3173,
      "##ૠ": 3174,
      "##ཱ": 3175,
      "##は": 3176,
      "##ご": 3177,
      "##ざ": 3178,
      "##자": 3179,
      "##席": 3180,
      "##飞": 3181,
      "##运": 3182,
      "##检": 3183,
      "##查": 3184,
      "##ʁ": 3185,
      "##ৰ": 3186,
      "##ᘏ": 3187,
      "##ᗢ": 3188,
      "##ą": 3189,
      "##ф": 3190,
      "##其": 3191,
      "##止": 3192,
      "##🤝": 3193,
      "##哉": 3194,
      "##ሩ": 3195,
      "##ೂ": 3196,
      "##テ": 3197,
      "##락": 3198,
      "##願": 3199,
      "##研": 3200,
      "##究": 3201,
      "##영": 3202,
      "##상": 3203,
      "##𑑀": 3204,
      "##合": 3205,
      "##ഈ": 3206,
      "##나": 3207,
      "##ੁ": 3208,
      "##ੂ": 3209,
      "##ด": 3210,
      "##ี": 3211,
      "##्य": 3212,
      "##्र": 3213,
      "##्त": 3214,
      "##र्": 3215,
      "##ति": 3216,
      "##्व": 3217,
      "##ान": 3218,
      "प्र": 3219,
      "##म्": 3220,
      "##त्": 3221,
      "##ित": 3222,
      "वि": 3223,
      "##्या": 3224,
      "##ार": 3225,
      "##ां": 3226,
      "##न्": 3227,
      "##्ष": 3228,
      "##ते": 3229,
      "##ष्": 3230,
      "##न्त": 3231,
      "##स्य": 3232,
      "##क्ष": 3233,
      "##त्र": 3234,
      "##द्": 3235,
      "##या": 3236,
      "##स्": 3237,
      "##र्व": 3238,
      "##मा": 3239,
      "पर": 3240,
      "नि": 3241,
      "##स्त": 3242,
      "##था": 3243,
      "##क्त": 3244,
      "##ाम": 3245,
      "##ेव": 3246,
      "##ेन": 3247,
      "सं": 3248,
      "##त्य": 3249,
      "##तः": 3250,
      "##पि": 3251,
      "##ाय": 3252,
      "पु": 3253,
      "##ाः": 3254,
      "##िक": 3255,
      "स्": 3256,
      "##्च": 3257,
      "वा": 3258,
      "भव": 3259,
      "##ष्ट": 3260,
      "##ना": 3261,
      "##दि": 3262,
      "स्व": 3263,
      "इति": 3264,
      "##ृत": 3265,
      "##ाव": 3266,
      "##ेष": 3267,
      "सर्व": 3268,
      "##दा": 3269,
      "##र्थ": 3270,
      "##ाल": 3271,
      "त्व": 3272,
      "एव": 3273,
      "##द्ध": 3274,
      "##र्त": 3275,
      "##्ञ": 3276,
      "##ाद": 3277,
      "सम": 3278,
      "मा": 3279,
      "##ेश": 3280,
      "##त्त": 3281,
      "रा": 3282,
      "##ता": 3283,
      "अन": 3284,
      "##मि": 3285,
      "तु": 3286,
      "##्यते": 3287,
      "##ङ्": 3288,
      "##ान्": 3289,
      "##नि": 3290,
      "प्रा": 3291,
      "##यो": 3292,
      "##्यं": 3293,
      "##यं": 3294,
      "सा": 3295,
      "सु": 3296,
      "कि": 3297,
      "##्वा": 3298,
      "स्त": 3299,
      "##रण": 3300,
      "##्रि": 3301,
      "##ये": 3302,
      "##रा": 3303,
      "##र्म": 3304,
      "पू": 3305,
      "प्रति": 3306,
      "##नं": 3307,
      "कार": 3308,
      "ते": 3309,
      "##ानि": 3310,
      "हि": 3311,
      "मु": 3312,
      "##वि": 3313,
      "##भि": 3314,
      "यो": 3315,
      "##ात": 3316,
      "##नः": 3317,
      "##रु": 3318,
      "##्ये": 3319,
      "वर्": 3320,
      "कु": 3321,
      "##यः": 3322,
      "##प्त": 3323,
      "##न्द": 3324,
      "द्व": 3325,
      "ना": 3326,
      "##ने": 3327,
      "##श्च": 3328,
      "##च्": 3329,
      "विश": 3330,
      "##न्ति": 3331,
      "यथा": 3332,
      "मह": 3333,
      "##ुः": 3334,
      "##ल्": 3335,
      "देव": 3336,
      "##ेद": 3337,
      "##रो": 3338,
      "##ास": 3339,
      "##ष्ठ": 3340,
      "##ज्ञ": 3341,
      "##ती": 3342,
      "##रे": 3343,
      "##रि": 3344,
      "##स्ति": 3345,
      "##धि": 3346,
      "स्थ": 3347,
      "क्ष": 3348,
      "दि": 3349,
      "##ूप": 3350,
      "परि": 3351,
      "इत्य": 3352,
      "श्र": 3353,
      "सम्": 3354,
      "एक": 3355,
      "##ैव": 3356,
      "पा": 3357,
      "मे": 3358,
      "भा": 3359,
      "##च्छ": 3360,
      "##नु": 3361,
      "या": 3362,
      "यु": 3363,
      "##तो": 3364,
      "##कार": 3365,
      "##द्य": 3366,
      "##ीय": 3367,
      "##ात्": 3368,
      "दृ": 3369,
      "##ब्": 3370,
      "##भा": 3371,
      "##ेण": 3372,
      "##ानां": 3373,
      "##हं": 3374,
      "##णि": 3375,
      "राज": 3376,
      "व्य": 3377,
      "##ेत": 3378,
      "तथा": 3379,
      "##वा": 3380,
      "म्": 3381,
      "उप": 3382,
      "गु": 3383,
      "##्रा": 3384,
      "अध": 3385,
      "##लं": 3386,
      "सह": 3387,
      "##मान": 3388,
      "##ग्": 3389,
      "ज्ञ": 3390,
      "भू": 3391,
      "##ोक": 3392,
      "##ण्": 3393,
      "##रं": 3394,
      "##सि": 3395,
      "##गु": 3396,
      "भवति": 3397,
      "##ष्य": 3398,
      "कथ": 3399,
      "##ुं": 3400,
      "##णं": 3401,
      "##िता": 3402,
      "कृत": 3403,
      "##षा": 3404,
      "कृ": 3405,
      "##णा": 3406,
      "##िः": 3407,
      "सू": 3408,
      "##ितः": 3409,
      "##का": 3410,
      "##ङ्ग": 3411,
      "##व्य": 3412,
      "##मे": 3413,
      "तद": 3414,
      "वै": 3415,
      "##प्र": 3416,
      "पूर्व": 3417,
      "दु": 3418,
      "विद": 3419,
      "##ान्त": 3420,
      "##सा": 3421,
      "##कं": 3422,
      "##ृह": 3423,
      "##री": 3424,
      "स्य": 3425,
      "##मः": 3426,
      "तत्": 3427,
      "समा": 3428,
      "##्री": 3429,
      "##भव": 3430,
      "किं": 3431,
      "पृ": 3432,
      "तस्य": 3433,
      "##श्य": 3434,
      "##चि": 3435,
      "##ला": 3436,
      "##तं": 3437,
      "##क्": 3438,
      "##प्": 3439,
      "मि": 3440,
      "सि": 3441,
      "##रः": 3442,
      "ति": 3443,
      "--": 3444,
      "##न्ध": 3445,
      "##सी": 3446,
      "##ेषु": 3447,
      "##हि": 3448,
      "##र्ण": 3449,
      "को": 3450,
      "##त्या": 3451,
      "यदि": 3452,
      "##ैः": 3453,
      "मन": 3454,
      "जन": 3455,
      "अपि": 3456,
      "##तु": 3457,
      "शि": 3458,
      "काल": 3459,
      "##र्श": 3460,
      "##ानं": 3461,
      "अनु": 3462,
      "##न्न": 3463,
      "एत": 3464,
      "##स्मा": 3465,
      "##र्ग": 3466,
      "नाम": 3467,
      "रूप": 3468,
      "##्रह": 3469,
      "##नां": 3470,
      "##ुक्त": 3471,
      "##दं": 3472,
      "व्या": 3473,
      "का": 3474,
      "के": 3475,
      "तत्र": 3476,
      "##कः": 3477,
      "##भाव": 3478,
      "मध": 3479,
      "##ण्ड": 3480,
      "अस्ति": 3481,
      "##ितं": 3482,
      "##स्थ": 3483,
      "प्रत्य": 3484,
      "##ेत्": 3485,
      "##णां": 3486,
      "##र्य": 3487,
      "वर्ष": 3488,
      "##ब्द": 3489,
      "अप": 3490,
      "##क्र": 3491,
      "##ल्प": 3492,
      "देश": 3493,
      "##स्तु": 3494,
      "##ीव": 3495,
      "##स्या": 3496,
      "यत्": 3497,
      "वृ": 3498,
      "##त्व": 3499,
      "##ञ्च": 3500,
      "बह": 3501,
      "कर्त": 3502,
      "मम": 3503,
      "एवं": 3504,
      "गृह": 3505,
      "##क्ति": 3506,
      "विष": 3507,
      "##देश": 3508,
      "##योग": 3509,
      "भाव": 3510,
      "##स्मि": 3511,
      "स्या": 3512,
      "कर्म": 3513,
      "##सं": 3514,
      "##्यः": 3515,
      "##क्षण": 3516,
      "भार": 3517,
      "##ृत्त": 3518,
      "##कृ": 3519,
      "अथ": 3520,
      "शु": 3521,
      "##तिः": 3522,
      "##क्षा": 3523,
      "##नी": 3524,
      "श्च": 3525,
      "##न्य": 3526,
      "पुनः": 3527,
      "##ित्य": 3528,
      "##धान": 3529,
      "क्र": 3530,
      "ये": 3531,
      "##र्ष": 3532,
      "वर्त": 3533,
      "स्म": 3534,
      "##नम्": 3535,
      "दृष्ट": 3536,
      "##लि": 3537,
      "त्वं": 3538,
      "##श्व": 3539,
      "##त्म": 3540,
      "##्म": 3541,
      "शब्द": 3542,
      "##चार": 3543,
      "##षु": 3544,
      "##याः": 3545,
      "पुन": 3546,
      "ता": 3547,
      "मान": 3548,
      "ाद": 3549,
      "##्रिय": 3550,
      "लोक": 3551,
      "##नो": 3552,
      "अव": 3553,
      "##ितम्": 3554,
      "##न्ते": 3555,
      "##ीत": 3556,
      "##यम": 3557,
      "##धा": 3558,
      "तदा": 3559,
      "##द्र": 3560,
      "चि": 3561,
      "मू": 3562,
      "लि": 3563,
      "##्यो": 3564,
      "##ुप": 3565,
      "##णे": 3566,
      "##यति": 3567,
      "##वान्": 3568,
      "##ित्र": 3569,
      "##के": 3570,
      "जीव": 3571,
      "धर्म": 3572,
      "तं": 3573,
      "तेन": 3574,
      "##ेषां": 3575,
      "प्रव": 3576,
      "विशेष": 3577,
      "सः": 3578,
      "र्": 3579,
      "तव": 3580,
      "पद": 3581,
      "##च्च": 3582,
      "##प्य": 3583,
      "प्रथ": 3584,
      "पुत्र": 3585,
      "##्यां": 3586,
      "##ोष": 3587,
      "प्राप्त": 3588,
      "##यम्": 3589,
      "निर्": 3590,
      "भि": 3591,
      "##कृत": 3592,
      "##न्त्र": 3593,
      "संस्": 3594,
      "ततः": 3595,
      "करो": 3596,
      "साध": 3597,
      "##्ल": 3598,
      "##त्वा": 3599,
      "##्ज": 3600,
      "अधिक": 3601,
      "__": 3602,
      "##र्थः": 3603,
      "साम": 3604,
      "अन्य": 3605,
      "##ित्त": 3606,
      "##ख्या": 3607,
      "##मं": 3608,
      "निव": 3609,
      "कार्य": 3610,
      "विश्व": 3611,
      "पि": 3612,
      "वे": 3613,
      "योग": 3614,
      "जा": 3615,
      "##मेव": 3616,
      "##क्षि": 3617,
      "##भू": 3618,
      "##ले": 3619,
      "दे": 3620,
      "##ामि": 3621,
      "##िका": 3622,
      "##ीं": 3623,
      "##रुष": 3624,
      "##िष्य": 3625,
      "##न्द्र": 3626,
      "##णः": 3627,
      "##ोप": 3628,
      "प्रश": 3629,
      "त्रि": 3630,
      "विक": 3631,
      "##स्मिन्": 3632,
      "##स्म": 3633,
      "यः": 3634,
      "ने": 3635,
      "##ाह": 3636,
      "केव": 3637,
      "सो": 3638,
      "##ृश": 3639,
      "बहु": 3640,
      "अभि": 3641,
      "##ाना": 3642,
      "तद्": 3643,
      "##श्र": 3644,
      "##पाद": 3645,
      "##न्तु": 3646,
      "उत्त": 3647,
      "##करण": 3648,
      "##से": 3649,
      "##ऽपि": 3650,
      "##द्धि": 3651,
      "##मु": 3652,
      "##धिक": 3653,
      "त्य": 3654,
      "हे": 3655,
      "दर्श": 3656,
      "गुण": 3657,
      "##पा": 3658,
      "##वः": 3659,
      "##ीति": 3660,
      "##त्स": 3661,
      "रो": 3662,
      "द्र": 3663,
      "दी": 3664,
      "भग": 3665,
      "शा": 3666,
      "अत्र": 3667,
      "##काश": 3668,
      "##र्थं": 3669,
      "##जा": 3670,
      "न्": 3671,
      "ला": 3672,
      "##थि": 3673,
      "बु": 3674,
      "##वे": 3675,
      "पी": 3676,
      "##न्म": 3677,
      "##सः": 3678,
      "##ारा": 3679,
      "मया": 3680,
      "##भाग": 3681,
      "##रूप": 3682,
      "समु": 3683,
      "कथं": 3684,
      "भविष्य": 3685,
      "##रम्": 3686,
      "जग": 3687,
      "भाग": 3688,
      "##स्व": 3689,
      "##पद": 3690,
      "त्र": 3691,
      "द्वि": 3692,
      "##च्यते": 3693,
      "##भिः": 3694,
      "20": 3695,
      "##य्": 3696,
      "इत्या": 3697,
      "चा": 3698,
      "सुख": 3699,
      "मृ": 3700,
      "रि": 3701,
      "##जन": 3702,
      "दश": 3703,
      "रु": 3704,
      "दू": 3705,
      "ग्र": 3706,
      "सप्त": 3707,
      "ज्ञान": 3708,
      "व्यव": 3709,
      "न्त": 3710,
      "२०": 3711,
      "ादि": 3712,
      "##ट्": 3713,
      "पुरुष": 3714,
      "काम": 3715,
      "अहं": 3716,
      "शक": 3717,
      "##ान्य": 3718,
      "##ध्य": 3719,
      "##शि": 3720,
      "##्रिया": 3721,
      "##सीत्": 3722,
      "##स्त्र": 3723,
      "हृ": 3724,
      "भो": 3725,
      "श्रु": 3726,
      "तर्": 3727,
      "##मो": 3728,
      "##तां": 3729,
      "##ायां": 3730,
      "##पु": 3731,
      "##त्त्व": 3732,
      "ग्रह": 3733,
      "सम्ब": 3734,
      "##त्रा": 3735,
      "अन्त": 3736,
      "##चन": 3737,
      "##ग्र": 3738,
      "##ंश": 3739,
      "पित": 3740,
      "स्थान": 3741,
      "स्था": 3742,
      "##चित्": 3743,
      "##येत्": 3744,
      "भाष": 3745,
      "##म्ब": 3746,
      "##ोध": 3747,
      "##माण": 3748,
      "##..": 3749,
      "स्तु": 3750,
      "प्रय": 3751,
      "सर्वे": 3752,
      "##्याय": 3753,
      "##्यामि": 3754,
      "यद": 3755,
      "रे": 3756,
      "की": 3757,
      "##वाद": 3758,
      "##ङ्क": 3759,
      "##हार": 3760,
      "##ख्य": 3761,
      "फल": 3762,
      "क्षे": 3763,
      "##दान": 3764,
      "युक्त": 3765,
      "##पू": 3766,
      "##ुःख": 3767,
      "पृष्ठ": 3768,
      "##पे": 3769,
      "यत्र": 3770,
      "##र्ध": 3771,
      "वेद": 3772,
      "##सु": 3773,
      "लक्ष": 3774,
      "विध": 3775,
      "##काल": 3776,
      "नो": 3777,
      "##तम्": 3778,
      "##ष्ट्र": 3779,
      "##ज्य": 3780,
      "मो": 3781,
      "यदा": 3782,
      "भेद": 3783,
      "मां": 3784,
      "कः": 3785,
      "##सार": 3786,
      "स्प": 3787,
      "##श्चि": 3788,
      "##ेति": 3789,
      "अह": 3790,
      "बाल": 3791,
      "##िते": 3792,
      "##ष्ण": 3793,
      "नु": 3794,
      "##शः": 3795,
      "##भ्य": 3796,
      "वृत्त": 3797,
      "महा": 3798,
      "चतु": 3799,
      "स्यात्": 3800,
      "सिद्ध": 3801,
      "##दी": 3802,
      "विद्या": 3803,
      "१०": 3804,
      "वद": 3805,
      "##नेन": 3806,
      "अतः": 3807,
      "##वी": 3808,
      "विना": 3809,
      "आसीत्": 3810,
      "एष": 3811,
      "##ली": 3812,
      "१९": 3813,
      "कदा": 3814,
      "उत्": 3815,
      "##कम्": 3816,
      "##तम": 3817,
      "तः": 3818,
      "वी": 3819,
      "##यि": 3820,
      "##यु": 3821,
      "##णी": 3822,
      "##्याः": 3823,
      "##ायते": 3824,
      "##र्ज": 3825,
      "##्न": 3826,
      "गच्छ": 3827,
      "तस्मा": 3828,
      "नं": 3829,
      "मनु": 3830,
      "##णम्": 3831,
      "सद": 3832,
      "##ोक्त": 3833,
      "##षे": 3834,
      "##ग्नि": 3835,
      "##स्र": 3836,
      "जान": 3837,
      "मध्ये": 3838,
      "परी": 3839,
      "दुःख": 3840,
      "##्वं": 3841,
      "गो": 3842,
      "शी": 3843,
      "##योः": 3844,
      "रक्ष": 3845,
      "परा": 3846,
      "नमः": 3847,
      "##त्रं": 3848,
      "करोति": 3849,
      "तो": 3850,
      "##स्था": 3851,
      "स्वा": 3852,
      "संश": 3853,
      "अति": 3854,
      "##पी": 3855,
      "पञ्च": 3856,
      "##ीयते": 3857,
      "##ज्ञा": 3858,
      "ात्": 3859,
      "भारत": 3860,
      "जि": 3861,
      "प्रस": 3862,
      "कर": 3863,
      "दक्षि": 3864,
      "न्य": 3865,
      "##चना": 3866,
      "##युक्त": 3867,
      "त्वा": 3868,
      "तां": 3869,
      "द्वित": 3870,
      "##षि": 3871,
      "विधि": 3872,
      "ले": 3873,
      "##स्प": 3874,
      "##म्य": 3875,
      "स्त्री": 3876,
      "ैः": 3877,
      "तेषां": 3878,
      "कल्प": 3879,
      "##गर": 3880,
      "करण": 3881,
      "##त्रे": 3882,
      "राष्ट्र": 3883,
      "दृश": 3884,
      "##क्षे": 3885,
      "ोऽ": 3886,
      "आग": 3887,
      "प्रि": 3888,
      "अस्य": 3889,
      "यस्य": 3890,
      "धन": 3891,
      "वाक": 3892,
      "सत्य": 3893,
      "भवेत्": 3894,
      "ानां": 3895,
      "वर्तते": 3896,
      "ाय": 3897,
      "कुर्व": 3898,
      "सदा": 3899,
      "कल": 3900,
      "##हे": 3901,
      "दिव": 3902,
      "##ञ्ज": 3903,
      "दोष": 3904,
      "एते": 3905,
      "क्रिय": 3906,
      "पठ": 3907,
      "इदं": 3908,
      "वर्षे": 3909,
      "तर्हि": 3910,
      "##ताः": 3911,
      "##वर्त": 3912,
      "जु": 3913,
      "जल": 3914,
      "्य": 3915,
      "उक्त": 3916,
      "ततो": 3917,
      "इह": 3918,
      "वयं": 3919,
      "जात": 3920,
      "भगव": 3921,
      "सौ": 3922,
      "येन": 3923,
      "विज्ञ": 3924,
      "##िताः": 3925,
      "##लः": 3926,
      "भाषा": 3927,
      "वाच": 3928,
      "##र्या": 3929,
      "आह": 3930,
      "जन्म": 3931,
      "भ्र": 3932,
      "##शा": 3933,
      "##er": 3934,
      "बि": 3935,
      "हेत": 3936,
      "##मपि": 3937,
      "सन्": 3938,
      "भविष्यति": 3939,
      "ाव": 3940,
      "आव": 3941,
      "##ारि": 3942,
      "काले": 3943,
      "नृ": 3944,
      "##न्व": 3945,
      "तस्या": 3946,
      "सन्ति": 3947,
      "पाद": 3948,
      "घट": 3949,
      "क्रिया": 3950,
      "वर्ण": 3951,
      "वक्त": 3952,
      "शक्ति": 3953,
      "ेति": 3954,
      "##यित": 3955,
      "मेव": 3956,
      "##यन": 3957,
      "##ारः": 3958,
      "इव": 3959,
      "ोप": 3960,
      "प्रथम": 3961,
      "अत": 3962,
      "वाय": 3963,
      "पश्य": 3964,
      "अयं": 3965,
      "ाः": 3966,
      "प्रयोग": 3967,
      "वस्तु": 3968,
      "सर्वं": 3969,
      "##धे": 3970,
      "##ीन": 3971,
      "तम": 3972,
      "प्रती": 3973,
      "##लोक": 3974,
      "हृद": 3975,
      "##कृति": 3976,
      "मध्य": 3977,
      "सी": 3978,
      "##ानु": 3979,
      "##णो": 3980,
      "##ल्य": 3981,
      "##श्": 3982,
      "परं": 3983,
      "आस": 3984,
      "और": 3985,
      "प्रद": 3986,
      "अस्मा": 3987,
      "तत": 3988,
      "पे": 3989,
      "पश": 3990,
      "##ादश": 3991,
      "##ारं": 3992,
      "बा": 3993,
      "पूज": 3994,
      "नः": 3995,
      "ानु": 3996,
      "ेषु": 3997,
      "ार्थ": 3998,
      "मार्ग": 3999,
      "##ितो": 4000,
      "सामान्य": 4001,
      "यं": 4002,
      "यद्य": 4003,
      "रात्र": 4004,
      "##विध": 4005,
      "##ण्य": 4006,
      "कृत्वा": 4007,
      "##ष्टा": 4008,
      "##योज": 4009,
      "क्व": 4010,
      "##न्तः": 4011,
      "भूत": 4012,
      "##भाष": 4013,
      "अस": 4014,
      "तथ": 4015,
      "विषय": 4016,
      "##भवत्": 4017,
      "##्छ": 4018,
      "##दे": 4019,
      "ब्रह": 4020,
      "प्रकाश": 4021,
      "शेष": 4022,
      "##व्यं": 4023,
      "ष्": 4024,
      "##क्रम": 4025,
      "यज्ञ": 4026,
      "##म्भ": 4027,
      "##्राह": 4028,
      "मुक्त": 4029,
      "पाठ": 4030,
      "नी": 4031,
      "नव": 4032,
      "##काः": 4033,
      "##मिति": 4034,
      "सेव": 4035,
      "बल": 4036,
      "##पत्त": 4037,
      "केवलं": 4038,
      "##र्घ": 4039,
      "##यते": 4040,
      "राज्य": 4041,
      "याव": 4042,
      "प्रभ": 4043,
      "##द्या": 4044,
      "अधि": 4045,
      "##भ्यः": 4046,
      "दा": 4047,
      "##नोति": 4048,
      "पाप": 4049,
      "ताव": 4050,
      "नित": 4051,
      "पुनर्": 4052,
      "##देव": 4053,
      "##कु": 4054,
      "अर्थ": 4055,
      "ती": 4056,
      "नास्ति": 4057,
      "##ारी": 4058,
      "परम": 4059,
      "पुं": 4060,
      "##िति": 4061,
      "समी": 4062,
      "मुख": 4063,
      "ात्म": 4064,
      "यद्": 4065,
      "##रणं": 4066,
      "##लो": 4067,
      "करि": 4068,
      "##कि": 4069,
      "...": 4070,
      "वच": 4071,
      "केन": 4072,
      "हस्त": 4073,
      "पुरा": 4074,
      "##र्प": 4075,
      "##यां": 4076,
      "प्रे": 4077,
      "इत्यादि": 4078,
      "याः": 4079,
      "ह्य": 4080,
      "शक्त": 4081,
      "हो": 4082,
      "क्री": 4083,
      "##ुर": 4084,
      "युद्ध": 4085,
      "गत": 4086,
      "पुर": 4087,
      "##व्यम्": 4088,
      "भु": 4089,
      "10": 4090,
      "कर्": 4091,
      "धात": 4092,
      "तप": 4093,
      "मिति": 4094,
      "##ूल": 4095,
      "नैव": 4096,
      "श्व": 4097,
      "##सो": 4098,
      "##st": 4099,
      "##र्ह": 4100,
      "##ेः": 4101,
      "##ेक": 4102,
      "शरी": 4103,
      "##ुर्": 4104,
      "लिख": 4105,
      "विव": 4106,
      "स्थाप": 4107,
      "केवल": 4108,
      "त्": 4109,
      "धार": 4110,
      "चे": 4111,
      "खः": 4112,
      "धी": 4113,
      "विद्यते": 4114,
      "व्र": 4115,
      "##गः": 4116,
      "प्रक": 4117,
      "पूर्ण": 4118,
      "##बन्ध": 4119,
      "##हः": 4120,
      "यू": 4121,
      "कृते": 4122,
      "राजा": 4123,
      "चिन्त": 4124,
      "किम्": 4125,
      "कारण": 4126,
      "##ुम्": 4127,
      "शुभ": 4128,
      "११": 4129,
      "प्राप्": 4130,
      "##ृष्ट": 4131,
      "सर": 4132,
      "##ाये": 4133,
      "##मी": 4134,
      "##भाषा": 4135,
      "##न्या": 4136,
      "ानि": 4137,
      "सर्वा": 4138,
      "##द्व": 4139,
      "एतत्": 4140,
      "##हा": 4141,
      "##ोः": 4142,
      "शत": 4143,
      "गण": 4144,
      "विप": 4145,
      "##दाह": 4146,
      "##गम": 4147,
      "##क्ष्य": 4148,
      "तया": 4149,
      "##व्या": 4150,
      "विभ": 4151,
      "201": 4152,
      "##गे": 4153,
      "लक्षण": 4154,
      "से": 4155,
      "यज": 4156,
      "##धः": 4157,
      "दृश्यते": 4158,
      "दत्त": 4159,
      "निष्": 4160,
      "तमे": 4161,
      "पृथ": 4162,
      "ान्": 4163,
      "##को": 4164,
      "दिन": 4165,
      "त्या": 4166,
      "सूर्य": 4167,
      "निर्व": 4168,
      "##तिं": 4169,
      "दृश्य": 4170,
      "##ोद": 4171,
      "वर": 4172,
      "गुरु": 4173,
      "क्रम": 4174,
      "पर्य": 4175,
      "दृष्ट्वा": 4176,
      "मनो": 4177,
      "##न्तं": 4178,
      "राम": 4179,
      "विषये": 4180,
      "यां": 4181,
      "दुर्": 4182,
      "##ुना": 4183,
      "##टि": 4184,
      "श्री": 4185,
      "##पर": 4186,
      "##घ्र": 4187,
      "##ज्ज": 4188,
      "ध्व": 4189,
      "मित्र": 4190,
      "द्": 4191,
      "##तर": 4192,
      "##स्ते": 4193,
      "कार्यं": 4194,
      "विभाग": 4195,
      "वस": 4196,
      "सर्वत्र": 4197,
      "शत्र": 4198,
      "तृत": 4199,
      "पृथि": 4200,
      "##कारः": 4201,
      "ान": 4202,
      "ऽपि": 4203,
      "वृद्ध": 4204,
      "ध्य": 4205,
      "---": 4206,
      "वन": 4207,
      "क्रीड": 4208,
      "वार": 4209,
      "##हित": 4210,
      "निर": 4211,
      "प्रवि": 4212,
      "पर्व": 4213,
      "##यन्": 4214,
      "प्रधान": 4215,
      "##वं": 4216,
      "वह": 4217,
      "##लय": 4218,
      "##जः": 4219,
      "##ड्": 4220,
      "##धार": 4221,
      "##ष्यामि": 4222,
      "गम": 4223,
      "रुप": 4224,
      "मन्त्र": 4225,
      "नित्य": 4226,
      "विद्य": 4227,
      "##__": 4228,
      "##रेण": 4229,
      "पक्ष": 4230,
      "यथ": 4231,
      "##मानं": 4232,
      "कौ": 4233,
      "कं": 4234,
      "ब्र": 4235,
      "##शी": 4236,
      "##णु": 4237,
      "१२": 4238,
      "लेख": 4239,
      "तिष्ठ": 4240,
      "अग्नि": 4241,
      "##र्द": 4242,
      "##ar": 4243,
      "##णाम": 4244,
      "नर": 4245,
      "निश्च": 4246,
      "ब्रह्म": 4247,
      "संस्कृत": 4248,
      "##दिति": 4249,
      "##भ्यां": 4250,
      "##on": 4251,
      "न्या": 4252,
      "##वाच": 4253,
      "##िं": 4254,
      "प्राय": 4255,
      "सम्भव": 4256,
      "##ुम": 4257,
      "स्वरूप": 4258,
      "##पाल": 4259,
      "##लु": 4260,
      "१८": 4261,
      "##्यम्": 4262,
      "##ब्ध": 4263,
      "विचार": 4264,
      "ान्त": 4265,
      "##ून": 4266,
      "कश्चि": 4267,
      "त्वया": 4268,
      "##तीति": 4269,
      "##ैक": 4270,
      "ज्ञात": 4271,
      "मूल": 4272,
      "सम्बन्ध": 4273,
      "##पः": 4274,
      "##an": 4275,
      "रस": 4276,
      "यत": 4277,
      "पुनर": 4278,
      "जायते": 4279,
      "##यात्": 4280,
      "आत्म": 4281,
      "शृ": 4282,
      "संव": 4283,
      "सङ्": 4284,
      "##ेश्व": 4285,
      "##दृश": 4286,
      "छा": 4287,
      "##ैर्": 4288,
      "इदान": 4289,
      "लभ": 4290,
      "अभवत्": 4291,
      "##शु": 4292,
      "प्रोक्त": 4293,
      "मात्र": 4294,
      "संशयः": 4295,
      "##ात्म": 4296,
      "क्षेत्र": 4297,
      "अध्य": 4298,
      "नियम": 4299,
      "तत्त्व": 4300,
      "##in": 4301,
      "यतः": 4302,
      "इच्छ": 4303,
      "शास्त्र": 4304,
      "##ाने": 4305,
      "दीर्घ": 4306,
      "अद्य": 4307,
      "च्छ": 4308,
      "अभ": 4309,
      "कुरु": 4310,
      "##गत": 4311,
      "##िर": 4312,
      "किम": 4313,
      "##वरी": 4314,
      "भारती": 4315,
      "भावः": 4316,
      "##वार": 4317,
      "##माः": 4318,
      "१५": 4319,
      "संयुक्त": 4320,
      "उभ": 4321,
      "()": 4322,
      "निय": 4323,
      "अस्मिन्": 4324,
      "चेत्": 4325,
      "नग": 4326,
      "विकल्प": 4327,
      "##थं": 4328,
      "##ष्टं": 4329,
      "मी": 4330,
      "##तया": 4331,
      "##नाम्": 4332,
      "पूर्वं": 4333,
      "नित्यं": 4334,
      "भवन्ति": 4335,
      "सूचना": 4336,
      "आर": 4337,
      "उपयोग": 4338,
      "मपि": 4339,
      "##ग्रह": 4340,
      "##हो": 4341,
      "##en": 4342,
      "देशे": 4343,
      "##ापि": 4344,
      "##ादृश": 4345,
      "##कर": 4346,
      "##om": 4347,
      "##र्भ": 4348,
      "##यामि": 4349,
      "##वत्": 4350,
      "लाभ": 4351,
      "##क्षु": 4352,
      "भक्त": 4353,
      "##ञ्": 4354,
      "##ेय": 4355,
      "द्विती": 4356,
      "मात": 4357,
      "स्वयं": 4358,
      "उत्तर": 4359,
      "ित": 4360,
      "##र्था": 4361,
      "##िकं": 4362,
      "पदा": 4363,
      "संख्या": 4364,
      "इद": 4365,
      "तर": 4366,
      "##र्च": 4367,
      "विज": 4368,
      "मद": 4369,
      "##रोध": 4370,
      "स्वी": 4371,
      "##डि": 4372,
      "निम": 4373,
      "एका": 4374,
      "##्राणि": 4375,
      "##ताम्": 4376,
      "##ायं": 4377,
      "योज": 4378,
      "योः": 4379,
      "बाह": 4380,
      "##र्थे": 4381,
      "द्वारा": 4382,
      "त्वात्": 4383,
      "मास": 4384,
      "##ित्वा": 4385,
      "प्राण": 4386,
      "हरि": 4387,
      "##ैर": 4388,
      "जनाः": 4389,
      "##or": 4390,
      "शो": 4391,
      "प्रण": 4392,
      "पुस्त": 4393,
      "मण्ड": 4394,
      "in": 4395,
      "##पूर्ण": 4396,
      "वो": 4397,
      "बुद्ध": 4398,
      "##सिद्ध": 4399,
      "सहस्र": 4400,
      "##लभ": 4401,
      "मृत्य": 4402,
      "ेन": 4403,
      "विह": 4404,
      "सव": 4405,
      "कम": 4406,
      "मन्त": 4407,
      "कस्य": 4408,
      "##याम": 4409,
      "सुर": 4410,
      "क्रियते": 4411,
      "संस्थ": 4412,
      "##ध्या": 4413,
      "##मुख": 4414,
      "लोके": 4415,
      "##गा": 4416,
      "तथापि": 4417,
      "धि": 4418,
      "स्वप्": 4419,
      "बन्ध": 4420,
      "##ंस": 4421,
      "चित्त": 4422,
      "##की": 4423,
      "##म्म": 4424,
      "स्वर्ग": 4425,
      "रूपं": 4426,
      "##स्मै": 4427,
      "उच्च": 4428,
      "ङ्": 4429,
      "एकः": 4430,
      "##ीनां": 4431,
      "अन्यथा": 4432,
      "सङ्ग": 4433,
      "तौ": 4434,
      "19": 4435,
      "##वो": 4436,
      "शक्यते": 4437,
      "ms": 4438,
      "##ित्": 4439,
      "क्षण": 4440,
      "वर्तमान": 4441,
      "##ान्ति": 4442,
      "प्रदेश": 4443,
      "कार्या": 4444,
      "प्रज": 4445,
      "गा": 4446,
      "##टी": 4447,
      "##श्वर": 4448,
      "##ड़": 4449,
      "गति": 4450,
      "रूपेण": 4451,
      "१४": 4452,
      "सक": 4453,
      "##पति": 4454,
      "परस्प": 4455,
      "विस्त": 4456,
      "##न्थ": 4457,
      "चैव": 4458,
      "प्रभाव": 4459,
      "लो": 4460,
      "निर्म": 4461,
      "फलं": 4462,
      "दैव": 4463,
      "##द्रा": 4464,
      "श्": 4465,
      "##es": 4466,
      "##ुत": 4467,
      "पाल": 4468,
      "भी": 4469,
      "चित्र": 4470,
      "समुद्र": 4471,
      "विशि": 4472,
      "भाषण": 4473,
      "दान": 4474,
      "##at": 4475,
      "द्य": 4476,
      "वृक्ष": 4477,
      "बी": 4478,
      "पति": 4479,
      "##ज्": 4480,
      "दक्षिण": 4481,
      "ज्ञानं": 4482,
      "साह": 4483,
      "व्याप": 4484,
      "##यन्ति": 4485,
      "धर्": 4486,
      "प्रमाण": 4487,
      "##ाला": 4488,
      "उद्": 4489,
      "त्वम्": 4490,
      "भवतः": 4491,
      "लघ": 4492,
      "ाभि": 4493,
      "वर्ध": 4494,
      "सूत्र": 4495,
      "प्रश्न": 4496,
      "##ेदन": 4497,
      "##ेष्ठ": 4498,
      "अस्माकं": 4499,
      "क्ल": 4500,
      "संभव": 4501,
      "पश्च": 4502,
      "वाम": 4503,
      "##त्तर": 4504,
      "##ष्यति": 4505,
      "##त्तम": 4506,
      "कृतं": 4507,
      "साक्ष": 4508,
      "##भूत": 4509,
      "उच्यते": 4510,
      "##ुष": 4511,
      "##००": 4512,
      "##मेर": 4513,
      "किन्तु": 4514,
      "शक्": 4515,
      "बुद्धि": 4516,
      "किञ्च": 4517,
      "##च्य": 4518,
      "परीक्षा": 4519,
      "##दः": 4520,
      "तस्मात्": 4521,
      "१७": 4522,
      "परिवर्त": 4523,
      "मं": 4524,
      "माता": 4525,
      "##र्ता": 4526,
      "अथवा": 4527,
      "##शो": 4528,
      "ज्यो": 4529,
      "##ूत": 4530,
      "##ह्य": 4531,
      "त्वेन": 4532,
      "ष्ट": 4533,
      "प्रवर्त": 4534,
      "प्रयोज": 4535,
      "प्रार्थ": 4536,
      "##पं": 4537,
      "सिं": 4538,
      "सम्प": 4539,
      "नै": 4540,
      "त्वां": 4541,
      "यात": 4542,
      "वाक्य": 4543,
      "पिता": 4544,
      "##चित": 4545,
      "##त्वं": 4546,
      "##ष्यते": 4547,
      "पत्र": 4548,
      "##स्याः": 4549,
      "चर": 4550,
      "प्रवृत्त": 4551,
      "भारतीय": 4552,
      "गृहे": 4553,
      "##क्तं": 4554,
      "##ृत्य": 4555,
      "वर्षा": 4556,
      "##पो": 4557,
      "विनि": 4558,
      "##ष्टि": 4559,
      "ग्राम": 4560,
      "भय": 4561,
      "##मास": 4562,
      "##िक्": 4563,
      "शू": 4564,
      "इत्युक्त": 4565,
      "यतो": 4566,
      "##्वे": 4567,
      "##यत्": 4568,
      "प्रकृति": 4569,
      "प्रत्यय": 4570,
      "##्रु": 4571,
      "##वाह": 4572,
      "##ेवं": 4573,
      "##तेः": 4574,
      "विप्र": 4575,
      "प्रजा": 4576,
      "हर": 4577,
      "विकास": 4578,
      "इन्द्र": 4579,
      "कोई": 4580,
      "भवान्": 4581,
      "11": 4582,
      "पृष्ठानि": 4583,
      "सति": 4584,
      "१३": 4585,
      "##त्मा": 4586,
      "परमा": 4587,
      "अत्य": 4588,
      "पुष्": 4589,
      "सम्बद्ध": 4590,
      "अमेर": 4591,
      "##सू": 4592,
      "12": 4593,
      "स्न": 4594,
      "शीघ्र": 4595,
      "दूर": 4596,
      "द्वादश": 4597,
      "##इट": 4598,
      "..": 4599,
      "धा": 4600,
      "##जं": 4601,
      "विष्ण": 4602,
      "संसार": 4603,
      "दण्ड": 4604,
      "अन्व": 4605,
      "१६": 4606,
      "परम्": 4607,
      "##हास": 4608,
      "र्थ": 4609,
      "कथा": 4610,
      "है": 4611,
      "##दाय": 4612,
      "कृप": 4613,
      "##ग्ने": 4614,
      "वय": 4615,
      "समाप्त": 4616,
      "इत्यस्य": 4617,
      "अती": 4618,
      "गि": 4619,
      "##ष्या": 4620,
      "प्रातः": 4621,
      "##टे": 4622,
      "##ल्ल": 4623,
      "भवे": 4624,
      "ii": 4625,
      "इत": 4626,
      "जी": 4627,
      "तथैव": 4628,
      "पार": 4629,
      "देवा": 4630,
      "कृता": 4631,
      "##ag": 4632,
      "मुख्य": 4633,
      "##भ्यो": 4634,
      "##संधान": 4635,
      "अनेन": 4636,
      "उद": 4637,
      "वेब": 4638,
      "उदाह": 4639,
      "शुद्ध": 4640,
      "शै": 4641,
      "कारणं": 4642,
      "प्रयत्": 4643,
      "an": 4644,
      "##ारो": 4645,
      "ननु": 4646,
      "निमित्त": 4647,
      "##पद्यते": 4648,
      "शब्दः": 4649,
      "रोग": 4650,
      "वत्": 4651,
      "अनुसंधान": 4652,
      "##स्मात्": 4653,
      "विकि": 4654,
      "प्रकार": 4655,
      "##ष्टः": 4656,
      "यम": 4657,
      "महि": 4658,
      "द्रष्ट": 4659,
      "##त्वात्": 4660,
      "प्रवेश": 4661,
      "सर्वेषां": 4662,
      "तद्व": 4663,
      "ज्ञा": 4664,
      "कम्": 4665,
      "गृ": 4666,
      "यावत्": 4667,
      "तृती": 4668,
      "रथ": 4669,
      "निर्ण": 4670,
      "##दु": 4671,
      "मित्य": 4672,
      "##धन": 4673,
      "भिः": 4674,
      "स्फ": 4675,
      "##व्यः": 4676,
      "श्ल": 4677,
      "##धी": 4678,
      "प्रसिद्ध": 4679,
      "गतः": 4680,
      "##ेषा": 4681,
      "पव": 4682,
      "रह": 4683,
      "##जे": 4684,
      "लिङ्ग": 4685,
      "सोम": 4686,
      "मै": 4687,
      "##खा": 4688,
      "##ष्म": 4689,
      "समान": 4690,
      "प्रत्यक्ष": 4691,
      "##षेध": 4692,
      "##ेषण": 4693,
      "भूमि": 4694,
      "कुर्वन्ति": 4695,
      "सै": 4696,
      "स्मृ": 4697,
      "तृ": 4698,
      "##शत": 4699,
      "भगवान्": 4700,
      "पितृ": 4701,
      "सम्य": 4702,
      "य्": 4703,
      "दो": 4704,
      "##टा": 4705,
      "कुर्या": 4706,
      "##नियम": 4707,
      "##ष्ठा": 4708,
      "वेबसा": 4709,
      "स्थित": 4710,
      "तन्": 4711,
      "स्वभाव": 4712,
      "तस्मिन्": 4713,
      "तम्": 4714,
      "##यत": 4715,
      "अधिकतम": 4716,
      "प्राप्नोति": 4717,
      "##चर": 4718,
      "विज्ञान": 4719,
      "##वर्ष": 4720,
      "अध्या": 4721,
      "गते": 4722,
      "नगर": 4723,
      "##ोऽ": 4724,
      "अक": 4725,
      "##al": 4726,
      "खलु": 4727,
      "पात": 4728,
      "सर्वदा": 4729,
      "इदानीं": 4730,
      "ैर्": 4731,
      "ां": 4732,
      "##शे": 4733,
      "##न्तरं": 4734,
      "स्थाने": 4735,
      "##नाम": 4736,
      "##र्क": 4737,
      "वेबसाइट": 4738,
      "शिव": 4739,
      "भोज": 4740,
      "##गृह": 4741,
      "##त्ता": 4742,
      "अम": 4743,
      "मत": 4744,
      "ne": 4745,
      "##तन्त्र": 4746,
      "##ीर": 4747,
      "मृत": 4748,
      "हा": 4749,
      "शास": 4750,
      "चन्द्र": 4751,
      "##लम्": 4752,
      "ग्रन्थ": 4753,
      "निवृत्त": 4754,
      "निः": 4755,
      "नां": 4756,
      "##वती": 4757,
      "##ज्यते": 4758,
      "##न्तर": 4759,
      "ैक": 4760,
      "इत्यर्थः": 4761,
      "##धिकार": 4762,
      "18": 4763,
      "विर": 4764,
      "##्येत": 4765,
      "15": 4766,
      "##ितुं": 4767,
      "##्नि": 4768,
      "देवता": 4769,
      "निर्देश": 4770,
      "आद": 4771,
      "कर्तुं": 4772,
      "ञ्च": 4773,
      "##कूल": 4774,
      "##पादन": 4775,
      "मित": 4776,
      "देह": 4777,
      "##ज्ञान": 4778,
      "##र्ति": 4779,
      "##खि": 4780,
      "सूच": 4781,
      "समाचार": 4782,
      "सेन": 4783,
      "##वास": 4784,
      "त्वे": 4785,
      "##धिः": 4786,
      "न्याय": 4787,
      "पत": 4788,
      "##साय": 4789,
      "लघु": 4790,
      "एषा": 4791,
      "पश्चि": 4792,
      "मन्य": 4793,
      "आप": 4794,
      "##प्रति": 4795,
      "अधिनियम": 4796,
      "##िनः": 4797,
      "यति": 4798,
      "##लन": 4799,
      "##याम्": 4800,
      "वः": 4801,
      "##रुद्ध": 4802,
      "नाम्": 4803,
      "ख्या": 4804,
      "गौ": 4805,
      "##वां": 4806,
      "##मां": 4807,
      "समर्थ": 4808,
      "संस्था": 4809,
      "चक्र": 4810,
      "चेत": 4811,
      "##ध्यते": 4812,
      "##भ्या": 4813,
      "मत्": 4814,
      "व्याख्या": 4815,
      "##जी": 4816,
      "विधान": 4817,
      "इत्येत": 4818,
      "द्वितीय": 4819,
      "पौ": 4820,
      "शब्": 4821,
      "पीड": 4822,
      "##गी": 4823,
      "##माह": 4824,
      "पर्या": 4825,
      "याम": 4826,
      "ज्व": 4827,
      "##शं": 4828,
      "षष्ठ": 4829,
      "चिक": 4830,
      "माह": 4831,
      "##रिति": 4832,
      "##्राह्म": 4833,
      "लु": 4834,
      "##00": 4835,
      "##जो": 4836,
      "व्यवहार": 4837,
      "सन्द": 4838,
      "ार्थं": 4839,
      "ाद्": 4840,
      "##जि": 4841,
      "शान्त": 4842,
      "हेतु": 4843,
      "प्रकृ": 4844,
      "स्मृत": 4845,
      "क्त": 4846,
      "पदं": 4847,
      "मय": 4848,
      "प्रो": 4849,
      "##तेन": 4850,
      "यान": 4851,
      "मुनि": 4852,
      "##पत्ति": 4853,
      "अहम्": 4854,
      "##सौ": 4855,
      "व्यवस्था": 4856,
      "##कर्म": 4857,
      "प्रमा": 4858,
      "##नाय": 4859,
      "प्रकरण": 4860,
      "##ाद्य": 4861,
      "ग्राह": 4862,
      "प्राप": 4863,
      "क्रि": 4864,
      "नार": 4865,
      "केन्द्र": 4866,
      "##ोत": 4867,
      "##निक": 4868,
      "##धिकरण": 4869,
      "श्रुत्वा": 4870,
      "दद": 4871,
      "मार": 4872,
      "हं": 4873,
      "##च्छति": 4874,
      "प्रशि": 4875,
      "##काले": 4876,
      "##ग्ध": 4877,
      "प्रत्या": 4878,
      "एवम्": 4879,
      "##यितुं": 4880,
      "##न्धि": 4881,
      "##ूगु": 4882,
      "दिने": 4883,
      "खो": 4884,
      "पं": 4885,
      "स्र": 4886,
      "प्राप्य": 4887,
      "यय": 4888,
      "प्रच": 4889,
      "प्रयो": 4890,
      "क्": 4891,
      "##ूनां": 4892,
      "शरीर": 4893,
      "यद्यपि": 4894,
      "##नस्य": 4895,
      "##स्मान्": 4896,
      "##str": 4897,
      "श्रेष्ठ": 4898,
      "अष्ट": 4899,
      "नेव": 4900,
      "##नीय": 4901,
      "re": 4902,
      "ध्यान": 4903,
      "ैव": 4904,
      "##सर्ग": 4905,
      "कालः": 4906,
      "कदाचित्": 4907,
      "वित्त": 4908,
      "सां": 4909,
      "##वान": 4910,
      "वृद्धि": 4911,
      "एकं": 4912,
      "इयं": 4913,
      "सन्त": 4914,
      "स्थानं": 4915,
      "व्यक्त": 4916,
      "राज्ञ": 4917,
      "खे": 4918,
      "गत्वा": 4919,
      "##न्दि": 4920,
      "ज्योति": 4921,
      "ब्राह्म": 4922,
      "मयि": 4923,
      "कला": 4924,
      "##it": 4925,
      "मधु": 4926,
      "कृतम्": 4927,
      "तेषु": 4928,
      "कुल": 4929,
      "##ारे": 4930,
      "विल": 4931,
      "##णाम्": 4932,
      "जना": 4933,
      "विशेषतः": 4934,
      "हित": 4935,
      "विद्व": 4936,
      "##ग्रे": 4937,
      "##ाद्": 4938,
      "##गो": 4939,
      "कृतः": 4940,
      "##्वः": 4941,
      "भारतस्य": 4942,
      "मुप": 4943,
      "क्षि": 4944,
      "कव": 4945,
      "##राज": 4946,
      "२०१": 4947,
      "##ूष": 4948,
      "याति": 4949,
      "रम": 4950,
      "##ुत्": 4951,
      "##शेष": 4952,
      "कर्त्त": 4953,
      "मनः": 4954,
      "##दिष्ट": 4955,
      "##त्रि": 4956,
      "प्ल": 4957,
      "निरा": 4958,
      "जनवरी": 4959,
      "चै": 4960,
      "मनुष्य": 4961,
      "क्वचित्": 4962,
      "अक्ष": 4963,
      "नाश": 4964,
      "संब": 4965,
      "२१": 4966,
      "##नात्": 4967,
      "अनेक": 4968,
      "माया": 4969,
      "##ासु": 4970,
      "प्रश्": 4971,
      "##पेक्ष": 4972,
      "गच्छति": 4973,
      "तै": 4974,
      "विविध": 4975,
      "पृथक्": 4976,
      "##नाः": 4977,
      "##हम्": 4978,
      "14": 4979,
      "उदाहरण": 4980,
      "##कर्ता": 4981,
      "##gstr": 4982,
      "##द्धा": 4983,
      "##ान्तर": 4984,
      "msgstr": 4985,
      "vi": 4986,
      "सृष्ट": 4987,
      "पुण्य": 4988,
      "कति": 4989,
      "सम्बद्धानि": 4990,
      "##स्ट": 4991,
      "स्थि": 4992,
      "##द्यो": 4993,
      "बोध": 4994,
      "एषः": 4995,
      "समये": 4996,
      "सत्": 4997,
      "अर्थः": 4998,
      "##क्ष्यामि": 4999,
      "पार्थ": 5000,
      "##मन्त": 5001,
      "##ावि": 5002,
      "विम": 5003,
      "सृ": 5004,
      "ोऽपि": 5005,
      "##हर": 5006,
      "भ्य": 5007,
      "३०": 5008,
      "tag": 5009,
      "समय": 5010,
      "वाद": 5011,
      "कृपया": 5012,
      "इत्यनेन": 5013,
      "ज्या": 5014,
      "##पन्": 5015,
      "छात्र": 5016,
      "जगत्": 5017,
      "सर्व्व": 5018,
      "परिणाम": 5019,
      "इत्": 5020,
      "वापि": 5021,
      "मानव": 5022,
      "आवश्य": 5023,
      "##le": 5024,
      "पूजा": 5025,
      "वास": 5026,
      "##गं": 5027,
      "##त्ते": 5028,
      "वाह": 5029,
      "##चिद": 5030,
      "तिथि": 5031,
      "##ome": 5032,
      "कर्ता": 5033,
      "चल": 5034,
      "इत्येव": 5035,
      "तानि": 5036,
      "कू": 5037,
      "ही": 5038,
      "##ou": 5039,
      "वीर": 5040,
      "अयम्": 5041,
      "महोद": 5042,
      "काव": 5043,
      "सत्त्व": 5044,
      "२२": 5045,
      "धन्य": 5046,
      "##कर्ष": 5047,
      "प्राच": 5048,
      "ददा": 5049,
      "##िके": 5050,
      "th": 5051,
      "##मान्": 5052,
      "##पन": 5053,
      "शिक्ष": 5054,
      "##ानाम्": 5055,
      "नम": 5056,
      "वने": 5057,
      "सङ्क": 5058,
      "अङ्ग": 5059,
      "२५": 5060,
      "सोऽ": 5061,
      "श्लोक": 5062,
      "सत": 5063,
      "राज्यं": 5064,
      "वान्": 5065,
      "धनं": 5066,
      "विच": 5067,
      "स्थिति": 5068,
      "बृह": 5069,
      "जलं": 5070,
      "इत्यत्र": 5071,
      "हृदय": 5072,
      "नाय": 5073,
      "##ष्व": 5074,
      "##कृत्य": 5075,
      "##बु": 5076,
      "प्रिय": 5077,
      "ध्या": 5078,
      "काय": 5079,
      "मिथ": 5080,
      "ताम्": 5081,
      "##काम": 5082,
      "अनि": 5083,
      "वार्त": 5084,
      "##गुण": 5085,
      "##यित्वा": 5086,
      "##वेश": 5087,
      "प्रया": 5088,
      "##वन": 5089,
      "परे": 5090,
      "वचनं": 5091,
      "##ोर": 5092,
      "##ेषाम": 5093,
      "दृढ": 5094,
      "गृह्": 5095,
      "टी": 5096,
      "##कस्य": 5097,
      "प्रत्ययः": 5098,
      "##ंसा": 5099,
      "देवानां": 5100,
      "शृणु": 5101,
      "विशिष्ट": 5102,
      "##ृतं": 5103,
      "निवेश": 5104,
      "##िकी": 5105,
      "मूर्": 5106,
      "भ्रम": 5107,
      "शिक्षा": 5108,
      "घोष": 5109,
      "निज": 5110,
      "नृप": 5111,
      "##िकः": 5112,
      "##न्दु": 5113,
      "##ग्न": 5114,
      "पत्": 5115,
      "पदे": 5116,
      "सुखं": 5117,
      "वृत्ति": 5118,
      "एवम": 5119,
      "परीक्षण": 5120,
      "थ्व": 5121,
      "गृहं": 5122,
      "##ारण": 5123,
      "समास": 5124,
      "##ादि": 5125,
      "##पन्न": 5126,
      "भवित": 5127,
      "##लिख": 5128,
      "प्रथमं": 5129,
      "अव्य": 5130,
      "##स्यां": 5131,
      "तादृश": 5132,
      "##ion": 5133,
      "ज्ञे": 5134,
      "कीदृश": 5135,
      "पश्यति": 5136,
      "तू": 5137,
      "दै": 5138,
      "अधो": 5139,
      "टि": 5140,
      "##iv": 5141,
      "दिना": 5142,
      "शत्रु": 5143,
      "शीत": 5144,
      "##भिर्": 5145,
      "भूम": 5146,
      "रात्रौ": 5147,
      "##सम": 5148,
      "संवि": 5149,
      "home": 5150,
      "वचन": 5151,
      "षु": 5152,
      "मस्ति": 5153,
      "भे": 5154,
      "##षां": 5155,
      "२४": 5156,
      "व्यक्ति": 5157,
      "कीर्त": 5158,
      "17": 5159,
      "ह्र": 5160,
      "##यी": 5161,
      "विश्वा": 5162,
      "नेवाः": 5163,
      "सुव": 5164,
      "बाध": 5165,
      "13": 5166,
      "रू": 5167,
      "गृहीत": 5168,
      "लोप": 5169,
      "##ic": 5170,
      "द्वे": 5171,
      "##च्छेद": 5172,
      "ानाम्": 5173,
      "##am": 5174,
      "अधिकार": 5175,
      "ोक्त": 5176,
      "पुरुषः": 5177,
      "कुत्र": 5178,
      "कृष्ण": 5179,
      "निवर्त": 5180,
      "मौ": 5181,
      "भेदः": 5182,
      "परमेश्व": 5183,
      "जाय": 5184,
      "स्त्रिय": 5185,
      "##सां": 5186,
      "ङी": 5187,
      "भयं": 5188,
      "तावत्": 5189,
      "##स्ता": 5190,
      "लब्ध": 5191,
      "तस्याः": 5192,
      "अतो": 5193,
      "##दश": 5194,
      "ध्वनि": 5195,
      "त्वम": 5196,
      "##विद्या": 5197,
      "धारा": 5198,
      "शब्दा": 5199,
      "अग": 5200,
      "प्री": 5201,
      "भिन्न": 5202,
      "भक्ति": 5203,
      "रक्त": 5204,
      "निवेद": 5205,
      "गर्भ": 5206,
      "ेण": 5207,
      "समू": 5208,
      "प्रथमा": 5209,
      "सत्यं": 5210,
      "to": 5211,
      "##िन": 5212,
      "##्याह": 5213,
      "रोच": 5214,
      "गन्ध": 5215,
      "प्रकृत": 5216,
      "चार": 5217,
      "सार": 5218,
      "वायु": 5219,
      "ताः": 5220,
      "ोत्": 5221,
      "##न्त्य": 5222,
      "तुल": 5223,
      "##र्णं": 5224,
      "स्त्रि": 5225,
      "कर्ण": 5226,
      "तान्": 5227,
      "##सर": 5228,
      "##डिया": 5229,
      "##तन": 5230,
      "ब्रू": 5231,
      "संयोग": 5232,
      "कुश": 5233,
      "नौ": 5234,
      "कर्मणि": 5235,
      "प्रयुक्त": 5236,
      "धर्मा": 5237,
      "जाना": 5238,
      "##सह": 5239,
      "##रणे": 5240,
      "ष्व": 5241,
      "अहो": 5242,
      "देवी": 5243,
      "चापि": 5244,
      "तन्त्र": 5245,
      "समर्प": 5246,
      "स्तो": 5247,
      "##प्प": 5248,
      "यूयं": 5249,
      "##ितवान्": 5250,
      "कोऽपि": 5251,
      "देवाः": 5252,
      "संस्करण": 5253,
      "ाश्र": 5254,
      "##थे": 5255,
      "द्विज": 5256,
      "धू": 5257,
      "विन": 5258,
      "##माना": 5259,
      "शं": 5260,
      "एतद्": 5261,
      "अज": 5262,
      "रूपा": 5263,
      "##दृ": 5264,
      "भर": 5265,
      "##डा": 5266,
      "साधन": 5267,
      "अश्व": 5268,
      "##टः": 5269,
      "विदेश": 5270,
      "##स्थान": 5271,
      "साक्षात्": 5272,
      "सिद्धि": 5273,
      "कर्तव्य": 5274,
      "पुरु": 5275,
      "आन": 5276,
      "त्त": 5277,
      "##हू": 5278,
      "##परा": 5279,
      "##लये": 5280,
      "एतद": 5281,
      "दिवस": 5282,
      "धिक": 5283,
      "##रेत्": 5284,
      "पो": 5285,
      "पाव": 5286,
      "पूर": 5287,
      "इदम्": 5288,
      "तन": 5289,
      "मोक्ष": 5290,
      "कश्चित्": 5291,
      "pr": 5292,
      "##मानः": 5293,
      "##टक": 5294,
      "अध्ययन": 5295,
      "कै": 5296,
      "री": 5297,
      "२७": 5298,
      "##ष्ये": 5299,
      "कन्या": 5300,
      "##पात": 5301,
      "संज्ञ": 5302,
      "##वृत्त": 5303,
      "भवता": 5304,
      "##श्वरः": 5305,
      "##भेद": 5306,
      "##चिद्": 5307,
      "प्रत्ये": 5308,
      "##रम्भ": 5309,
      "देहि": 5310,
      "##येन": 5311,
      "##ष्ट्रिय": 5312,
      "किमपि": 5313,
      "ैर": 5314,
      "विवे": 5315,
      "गोप": 5316,
      "##ent": 5317,
      "यौ": 5318,
      "वं": 5319,
      "##हु": 5320,
      "##ध्": 5321,
      "##भु": 5322,
      "ेत्य": 5323,
      "##फल": 5324,
      "जातः": 5325,
      "##तौ": 5326,
      "##दिश": 5327,
      "प्राप्ते": 5328,
      "ताम": 5329,
      "प्य": 5330,
      "वित": 5331,
      "स्तथा": 5332,
      "##कारं": 5333,
      "माल": 5334,
      "२६": 5335,
      "##खे": 5336,
      "पुरस्": 5337,
      "०१": 5338,
      "##ध्ये": 5339,
      "##न्ती": 5340,
      "संबन्ध": 5341,
      "प्रतिपाद": 5342,
      "वत्स": 5343,
      "##ानी": 5344,
      "परिभाषा": 5345,
      "दास": 5346,
      "युग": 5347,
      "पृथिवी": 5348,
      "विरुद्ध": 5349,
      "दिव्य": 5350,
      "##रुण": 5351,
      "उत्तम": 5352,
      "२००": 5353,
      "प्रायः": 5354,
      "गाय": 5355,
      "समस्त": 5356,
      "स्ने": 5357,
      "त्यक्त": 5358,
      "नदी": 5359,
      "विरोध": 5360,
      "स्वर": 5361,
      "निर्वा": 5362,
      "सेवा": 5363,
      "16": 5364,
      "##्रे": 5365,
      "##तुः": 5366,
      "द्वार": 5367,
      "##पूर्व": 5368,
      "पदार्थ": 5369,
      "यन्": 5370,
      "यॊ": 5371,
      "विशेषः": 5372,
      "सदस्य": 5373,
      "मुच्यते": 5374,
      "प्रतिदि": 5375,
      "##युः": 5376,
      "st": 5377,
      "कश्च": 5378,
      "श्रव": 5379,
      "##हिता": 5380,
      "याये": 5381,
      "शर": 5382,
      "##ितानि": 5383,
      "समन्व": 5384,
      "मुक्ति": 5385,
      "##यमेव": 5386,
      "जुइ": 5387,
      "अना": 5388,
      "स्वतन्त्र": 5389,
      "व्यति": 5390,
      "मातृ": 5391,
      "ar": 5392,
      "आकाश": 5393,
      "पाठः": 5394,
      "##धं": 5395,
      "##चा": 5396,
      "##परि": 5397,
      "अधुना": 5398,
      "त्रि०": 5399,
      "अमेरिका": 5400,
      "##त्यं": 5401,
      "##बल": 5402,
      "##त्वे": 5403,
      "गे": 5404,
      "विस्म": 5405,
      "द्रव्य": 5406,
      "##ीः": 5407,
      "क्रोध": 5408,
      "क्रीडा": 5409,
      "तत्त": 5410,
      "वां": 5411,
      "ाभाव": 5412,
      "##ष्मा": 5413,
      "देशः": 5414,
      "##ादेश": 5415,
      "##घा": 5416,
      "त्वमेव": 5417,
      "नेपाल": 5418,
      "व्यवसाय": 5419,
      "ग्रहण": 5420,
      "##पृ": 5421,
      "##ऽऽ": 5422,
      "##ासि": 5423,
      "##दो": 5424,
      "द्वौ": 5425,
      "##ंग": 5426,
      "वर्ग": 5427,
      "##ों": 5428,
      "पुत्रः": 5429,
      "##हां": 5430,
      "ोद": 5431,
      "२३": 5432,
      "##्वि": 5433,
      "निरूप": 5434,
      "शय": 5435,
      "##बि": 5436,
      "स्मर": 5437,
      "##र्द्ध": 5438,
      "वर्ज": 5439,
      "सम्पाद": 5440,
      "अश": 5441,
      "##्मा": 5442,
      "देशस्य": 5443,
      "##प्ति": 5444,
      "202": 5445,
      "्या": 5446,
      "##मन": 5447,
      "स्वयम्": 5448,
      "स्त्रियां": 5449,
      "##ाय्": 5450,
      "दात": 5451,
      "##मात्र": 5452,
      "आसन्": 5453,
      "##तिक": 5454,
      "##क्षित": 5455,
      "##ङ्ग्": 5456,
      "##ुक्तं": 5457,
      "गन्त": 5458,
      "प्रदर्श": 5459,
      "अथा": 5460,
      "एवा": 5461,
      "महत्": 5462,
      "करोमि": 5463,
      "सामा": 5464,
      "क्षेत्रे": 5465,
      "##शक्ति": 5466,
      "विमान": 5467,
      "प्रतिशत": 5468,
      "दुर्लभ": 5469,
      "##क्ष्म": 5470,
      "तदेव": 5471,
      "मध्यम": 5472,
      "##ce": 5473,
      "भवतु": 5474,
      "कुतः": 5475,
      "विश्ल": 5476,
      "निर्मा": 5477,
      "##ुच्यते": 5478,
      "क्रमेण": 5479,
      "##पिं": 5480,
      "##ण्ठ": 5481,
      "समाज": 5482,
      "ली": 5483,
      "हु": 5484,
      "##चः": 5485,
      "शब्दस्य": 5486,
      "भर्त": 5487,
      "थः": 5488,
      "ध्रु": 5489,
      "वस्त": 5490,
      "पार्श": 5491,
      "तृतीय": 5492,
      "इतिहास": 5493,
      "किल": 5494,
      "शक्य": 5495,
      "##गण": 5496,
      "शक्तिः": 5497,
      "धातु": 5498,
      "राक्ष": 5499,
      "ादौ": 5500,
      "च्": 5501,
      "भोग": 5502,
      "पक्षे": 5503,
      "##ूनि": 5504,
      "प्रस्त": 5505,
      "विरो": 5506,
      "जाता": 5507,
      "आचार": 5508,
      "स्पर्श": 5509,
      "प्रशिक्षण": 5510,
      "मति": 5511,
      "ान्य": 5512,
      "एस": 5513,
      "भास": 5514,
      "छुं": 5515,
      "विधिः": 5516,
      "केश": 5517,
      "संर": 5518,
      "##प्राय": 5519,
      "आः": 5520,
      "##धु": 5521,
      "अन्ये": 5522,
      "बहि": 5523,
      "श्रू": 5524,
      "विनाश": 5525,
      "30": 5526,
      "खण्ड": 5527,
      "०२": 5528,
      "स्थितः": 5529,
      "कथम्": 5530,
      "on": 5531,
      "पल": 5532,
      "##मात्": 5533,
      "##रिक्त": 5534,
      "बो": 5535,
      "ाद्य": 5536,
      "माम": 5537,
      "##ब्र": 5538,
      "लक्षणं": 5539,
      "विभक्त": 5540,
      "आई": 5541,
      "##दर्श": 5542,
      "सिंह": 5543,
      "विकिपी": 5544,
      "चरण": 5545,
      "##क्य": 5546,
      "शीघ्रं": 5547,
      "##िकाः": 5548,
      "राजन्": 5549,
      "शब्दे": 5550,
      "कुर्यात्": 5551,
      "सम्प्र": 5552,
      "ादीनां": 5553,
      "रिति": 5554,
      "स्ते": 5555,
      "प्रतिष्ठ": 5556,
      "विषयः": 5557,
      "प्रयोगः": 5558,
      "उत": 5559,
      "सर्वाणि": 5560,
      "##वाः": 5561,
      "मूल्य": 5562,
      "भक्ष": 5563,
      "देवि": 5564,
      "शङ्क": 5565,
      "वात": 5566,
      "स्वप्न": 5567,
      "कवि": 5568,
      "//": 5569,
      "चत्व": 5570,
      "२८": 5571,
      "मोह": 5572,
      "मिदं": 5573,
      "##साधन": 5574,
      "##देशे": 5575,
      "यानि": 5576,
      "कुम": 5577,
      "पुष्प": 5578,
      "प्राणि": 5579,
      "एकादश": 5580,
      "लाख": 5581,
      "रुपये": 5582,
      "जाल": 5583,
      "रक्षा": 5584,
      "##ान्ते": 5585,
      "##सेन": 5586,
      "##ङ्के": 5587,
      "परस्पर": 5588,
      "सभ": 5589,
      "सन्ध": 5590,
      "##ृतः": 5591,
      "युव": 5592,
      "उपरि": 5593,
      "##न्दो": 5594,
      "उपा": 5595,
      "इं": 5596,
      "##प्रा": 5597,
      "क्षु": 5598,
      "दुष्": 5599,
      "स्त्व": 5600,
      "वर्गः": 5601,
      "काः": 5602,
      "##ृता": 5603,
      "देवः": 5604,
      "न्याया": 5605,
      "जानाति": 5606,
      "सर्ग": 5607,
      "##मिदं": 5608,
      "##योर्": 5609,
      "जय": 5610,
      "स्क": 5611,
      "##ष्टे": 5612,
      "##ष्टो": 5613,
      "सदृश": 5614,
      "पृथिव": 5615,
      "##as": 5616,
      "सहस": 5617,
      "स्याद": 5618,
      "शोभ": 5619,
      "वाक्यं": 5620,
      "अस्म": 5621,
      "अग्ने": 5622,
      "पथ": 5623,
      "रात्रि": 5624,
      "परो": 5625,
      "निह": 5626,
      "##त्राणि": 5627,
      "क्षमा": 5628,
      "##ट्ट": 5629,
      "25": 5630,
      "धु": 5631,
      "रज": 5632,
      "##यात": 5633,
      "स्ना": 5634,
      "##वच": 5635,
      "##स्त्य": 5636,
      "##न्द्रिय": 5637,
      "शब्देन": 5638,
      "दुर्ग": 5639,
      "यते": 5640,
      "शक्नु": 5641,
      "##दार": 5642,
      "##षण": 5643,
      "##र्थम्": 5644,
      "दर्शन": 5645,
      "कर्मा": 5646,
      "##रवरी": 5647,
      "ग्रहणं": 5648,
      "ग्री": 5649,
      "##ेदं": 5650,
      "शेषः": 5651,
      "कर्म्म": 5652,
      "पुण": 5653,
      "उपयोगकर्ता": 5654,
      "यश": 5655,
      "वश": 5656,
      "ेभ्यः": 5657,
      "भज": 5658,
      "पर्वत": 5659,
      "उभय": 5660,
      "##ed": 5661,
      "21": 5662,
      "##ch": 5663,
      "तस्मै": 5664,
      "##ग्री": 5665,
      "##धानं": 5666,
      "दिश": 5667,
      "क्षम": 5668,
      "पिब": 5669,
      "अवि": 5670,
      "परः": 5671,
      "##त्ति": 5672,
      "महत्व": 5673,
      "मन्त्रि": 5674,
      "सञ्च": 5675,
      "##टु": 5676,
      "प्रार": 5677,
      "##न्नं": 5678,
      "##देशः": 5679,
      "आयु": 5680,
      "सद्": 5681,
      "स्पष्ट": 5682,
      "योजना": 5683,
      "प्": 5684,
      "##वन्तः": 5685,
      "##ad": 5686,
      "##र्न": 5687,
      "##न्ना": 5688,
      "परमं": 5689,
      "ज्ये": 5690,
      "हरे": 5691,
      "स्यापि": 5692,
      "तिष्ठति": 5693,
      "हवि": 5694,
      "##टो": 5695,
      "##सत": 5696,
      "##विधा": 5697,
      "नीति": 5698,
      "दीप": 5699,
      "ाधिक": 5700,
      "कृत्": 5701,
      "गी": 5702,
      "नहि": 5703,
      "येषां": 5704,
      "##ाली": 5705,
      "योग्य": 5706,
      "दुःखं": 5707,
      "तैः": 5708,
      "##पुरुष": 5709,
      "व्रज": 5710,
      "ाभ्यां": 5711,
      "##ुद्ध": 5712,
      "प्रत्येकं": 5713,
      "##मेन": 5714,
      "##ान्व": 5715,
      "पश्चात्": 5716,
      "अप्र": 5717,
      "##सम्": 5718,
      "##पर्य": 5719,
      "अल्प": 5720,
      "गमि": 5721,
      "##ृति": 5722,
      "##्यात्": 5723,
      "एतेन": 5724,
      "मरु": 5725,
      "लभते": 5726,
      "उद्य": 5727,
      "##भार": 5728,
      "मासे": 5729,
      "बहुधा": 5730,
      "##पत्": 5731,
      "##िद": 5732,
      "##सन": 5733,
      "तस्माद्": 5734,
      "कल्या": 5735,
      "विक्र": 5736,
      "संक": 5737,
      "न्यू": 5738,
      "##क्षेप": 5739,
      "al": 5740,
      "po": 5741,
      "गता": 5742,
      "रत्": 5743,
      "अपे": 5744,
      "धाव": 5745,
      "##ीप": 5746,
      "नरः": 5747,
      "##सर्व": 5748,
      "##ूर": 5749,
      "##र्वि": 5750,
      "श्रो": 5751,
      "संस्कार": 5752,
      "अभ्या": 5753,
      "वरि": 5754,
      "कृतवान्": 5755,
      "##बा": 5756,
      "परन्तु": 5757,
      "विधीयते": 5758,
      "चेति": 5759,
      "दार": 5760,
      "मन्दि": 5761,
      "कृषि": 5762,
      "विपरी": 5763,
      "##ह्": 5764,
      "ाणां": 5765,
      "##वद": 5766,
      "स्वाह": 5767,
      "उत्पाद": 5768,
      "मृत्यु": 5769,
      "समं": 5770,
      "ईश्वर": 5771,
      "कोऽ": 5772,
      "प्रधानमन्त": 5773,
      "प्रोक्तं": 5774,
      "सामाज": 5775,
      "भौ": 5776,
      "मण्डल": 5777,
      "३१": 5778,
      "उत्स": 5779,
      "##गतं": 5780,
      "##हीं": 5781,
      "##ानाम": 5782,
      "भवती": 5783,
      "व्यवस्थ": 5784,
      "नूत": 5785,
      "न्व": 5786,
      "यन्त्र": 5787,
      "धर्मः": 5788,
      "एम": 5789,
      "वान": 5790,
      "जानामि": 5791,
      "खेल": 5792,
      "se": 5793,
      "जाति": 5794,
      "##पय": 5795,
      "##त्री": 5796,
      "मानुष": 5797,
      "##ंशति": 5798,
      "##lo": 5799,
      "ऽहं": 5800,
      "##्यति": 5801,
      "##क्षते": 5802,
      "पु०": 5803,
      "मिव": 5804,
      "भाग्य": 5805,
      "पुरुषो": 5806,
      "24": 5807,
      "पद्": 5808,
      "रक्षण": 5809,
      "कर्तव्यं": 5810,
      "शे": 5811,
      "शस्त्र": 5812,
      "दुष्ट": 5813,
      "ल्": 5814,
      "नगरे": 5815,
      "पुस्तक": 5816,
      "शोक": 5817,
      "##धनं": 5818,
      "चतुर्": 5819,
      "ददाति": 5820,
      "५०": 5821,
      "योजन": 5822,
      "200": 5823,
      "व्यापार": 5824,
      "##पदं": 5825,
      "युक्तं": 5826,
      "दोषः": 5827,
      "is": 5828,
      "##क्ता": 5829,
      "सेना": 5830,
      "माय": 5831,
      "यन्ति": 5832,
      "इत्यादिना": 5833,
      "##षः": 5834,
      "##रिक्ष": 5835,
      "मनसा": 5836,
      "भारते": 5837,
      "िक": 5838,
      "##तेषु": 5839,
      "वैश्व": 5840,
      "२९": 5841,
      "प्रह": 5842,
      "##ीयम्": 5843,
      "नारी": 5844,
      "चित": 5845,
      "फरवरी": 5846,
      "##ैत": 5847,
      "##भूव": 5848,
      "पेपर": 5849,
      "##वर": 5850,
      "तेज": 5851,
      "de": 5852,
      "जे": 5853,
      "बलं": 5854,
      "##यव": 5855,
      "##धाय": 5856,
      "संग": 5857,
      "##दिना": 5858,
      "##विधि": 5859,
      "##रोत्": 5860,
      "साव": 5861,
      "स्मा": 5862,
      "राग": 5863,
      "शुक्र": 5864,
      "विश्वविद्या": 5865,
      "वेत": 5866,
      "मन्यते": 5867,
      "वर्त्त": 5868,
      "भगवन्": 5869,
      "ष्ठ": 5870,
      "अस्मि": 5871,
      "डि": 5872,
      "संस": 5873,
      "##रणम्": 5874,
      "##धिप": 5875,
      "न्ह": 5876,
      "समुदाय": 5877,
      "चतुर्थ": 5878,
      "आश्र": 5879,
      "चाल": 5880,
      "शाल": 5881,
      "##पद्य": 5882,
      "##्येण": 5883,
      "इदानी": 5884,
      "बलि": 5885,
      "वक्ष": 5886,
      "परिच": 5887,
      "##वाय": 5888,
      "##न्तो": 5889,
      "संघ": 5890,
      "##मय": 5891,
      "सर्वेषु": 5892,
      "विशेषण": 5893,
      "संवत्स": 5894,
      "विकिपीडिया": 5895,
      "नेत": 5896,
      "ताप": 5897,
      "प्रेम": 5898,
      "आदि": 5899,
      "यि": 5900,
      "संज्ञा": 5901,
      "वंश": 5902,
      "नाट": 5903,
      "of": 5904,
      "अं": 5905,
      "##ामः": 5906,
      "में": 5907,
      "कथम": 5908,
      "##कू": 5909,
      "सुन्द": 5910,
      "##येत": 5911,
      "सदैव": 5912,
      "हृदयं": 5913,
      "प्रेष": 5914,
      "अय": 5915,
      "आत्मा": 5916,
      "चक्षु": 5917,
      "##ुट": 5918,
      "##ृद्ध": 5919,
      "##म्ह": 5920,
      "स्मि": 5921,
      "कारणम्": 5922,
      "मेरे": 5923,
      "सम्भवति": 5924,
      "आरो": 5925,
      "##लिङ्ग": 5926,
      "##वन्ति": 5927,
      "अतीव": 5928,
      "थु": 5929,
      "प्रसङ्ग": 5930,
      "सम्यक्": 5931,
      "ान्व": 5932,
      "##्रियते": 5933,
      "जूगु": 5934,
      "##वम्": 5935,
      "प्रयोजन": 5936,
      "अभ्य": 5937,
      "ांश": 5938,
      "००": 5939,
      "४०": 5940,
      "##स्यते": 5941,
      "भागे": 5942,
      "अर्था": 5943,
      "वय्": 5944,
      "##षी": 5945,
      "##ातु": 5946,
      "इत्याह": 5947,
      "हृदि": 5948,
      "सन्नि": 5949,
      "##ेषाम्": 5950,
      "कार्यम्": 5951,
      "गिरि": 5952,
      "ममा": 5953,
      "##जीव": 5954,
      "कथितं": 5955,
      "करिष्यामि": 5956,
      "##िनी": 5957,
      "युष्मा": 5958,
      "the": 5959,
      "##पित": 5960,
      "##इगु": 5961,
      "##त्वेन": 5962,
      "धन्यवाद": 5963,
      "##षध": 5964,
      "पुरो": 5965,
      "##नतः": 5966,
      "प्रतिषेध": 5967,
      "व्रत": 5968,
      "00": 5969,
      "##भो": 5970,
      "तृतीया": 5971,
      "तच्च": 5972,
      "##दौ": 5973,
      "गतिः": 5974,
      "##बर": 5975,
      "तयोः": 5976,
      "##हृ": 5977,
      "##ित्व": 5978,
      "मात्रा": 5979,
      "ादी": 5980,
      "भेदे": 5981,
      "णि": 5982,
      "वज": 5983,
      "स्नान": 5984,
      "##se": 5985,
      "नाहं": 5986,
      "दाय": 5987,
      "धाः": 5988,
      "मानं": 5989,
      "सय": 5990,
      "##भास": 5991,
      "##ून्": 5992,
      "##il": 5993,
      "##माय": 5994,
      "भवत्य": 5995,
      "स्वं": 5996,
      "कथ्यते": 5997,
      "जीवन": 5998,
      "दर्शयति": 5999,
      "##र्हति": 6000,
      "विश्लेषण": 6001,
      "इत्ये": 6002,
      "##ोड": 6003,
      "##लाः": 6004,
      "##ची": 6005,
      "मुद्रा": 6006,
      "स्ति": 6007,
      "तदपि": 6008,
      "##शिष्ट": 6009,
      "##भ्यं": 6010,
      "त्यज": 6011,
      "##मस्ति": 6012,
      "##बी": 6013,
      "कालं": 6014,
      "रण": 6015,
      "पाण्ड": 6016,
      "अन्यत्र": 6017,
      "अद": 6018,
      "डा": 6019,
      "##ाणां": 6020,
      "##चं": 6021,
      "महान्": 6022,
      "पश्चिम": 6023,
      "पत्नी": 6024,
      "निर्माण": 6025,
      "टिप्प": 6026,
      "कां": 6027,
      "##बोध": 6028,
      "भाष्य": 6029,
      "##च्छा": 6030,
      "सङ्ख्या": 6031,
      "पार्थि": 6032,
      "दानं": 6033,
      "कथय": 6034,
      "सूक्ष्म": 6035,
      "पराज": 6036,
      "संयु": 6037,
      "माध्य": 6038,
      "##प्नोति": 6039,
      "वदति": 6040,
      "##कल": 6041,
      "वार्ष": 6042,
      "स्वामि": 6043,
      "##राणां": 6044,
      "परिवार": 6045,
      "##त्वम्": 6046,
      "साधु": 6047,
      "विश्वं": 6048,
      "मृग": 6049,
      "गर्": 6050,
      "दद्या": 6051,
      "##श्यं": 6052,
      "माम्": 6053,
      "##ासन": 6054,
      "मर्त": 6055,
      "सायं": 6056,
      "परिव": 6057,
      "प्रीति": 6058,
      "##स्क": 6059,
      "##धर्म": 6060,
      "##पक": 6061,
      "##शय": 6062,
      "नृत्य": 6063,
      "दर": 6064,
      "वध": 6065,
      "वयम्": 6066,
      "##निर्": 6067,
      "स्याद्": 6068,
      "##र्वा": 6069,
      "पूर्": 6070,
      "समीप": 6071,
      "उवाच": 6072,
      "निग": 6073,
      "स्वतः": 6074,
      "सर्वकार": 6075,
      "त्री": 6076,
      "यस्तु": 6077,
      "बाह्य": 6078,
      "लौ": 6079,
      "##वेद": 6080,
      "##खः": 6081,
      "मुद्र": 6082,
      "##लित": 6083,
      "यथार्थ": 6084,
      "व्यायाम": 6085,
      "##श्म": 6086,
      "दरि": 6087,
      "यस्मिन्": 6088,
      "##राणि": 6089,
      "साहित्य": 6090,
      "##यामास": 6091,
      "##ज्ञः": 6092,
      "क्षी": 6093,
      "विरा": 6094,
      "गुणा": 6095,
      "प्रश्नः": 6096,
      "कश्चन": 6097,
      "नय": 6098,
      "बे": 6099,
      "##नानि": 6100,
      "प्रतियोग": 6101,
      "तस्माद": 6102,
      "ययौ": 6103,
      "कुत": 6104,
      "इत्य्": 6105,
      "अध्याय": 6106,
      "##कृतं": 6107,
      "हेतुः": 6108,
      "##िको": 6109,
      "प्रसाद": 6110,
      "प्रवर्तते": 6111,
      "तात": 6112,
      "##पक्ष": 6113,
      "##एस": 6114,
      "राष्ट्रिय": 6115,
      "एको": 6116,
      "अभाव": 6117,
      "हन्त": 6118,
      "ऽनु": 6119,
      "३२": 6120,
      "सार्व": 6121,
      "ज्ञायते": 6122,
      "चो": 6123,
      "##ित्या": 6124,
      "भवि": 6125,
      "योऽ": 6126,
      "सिध्य": 6127,
      "सामाजिक": 6128,
      "खँ": 6129,
      "तार": 6130,
      "##रस्य": 6131,
      "##्यु": 6132,
      "प्रतिव": 6133,
      "वचः": 6134,
      "युद्धे": 6135,
      "विकार": 6136,
      "##ामी": 6137,
      "##ान्न": 6138,
      "अस्तु": 6139,
      "ाङ्ग": 6140,
      "##ay": 6141,
      "##दात्त": 6142,
      "याम्": 6143,
      "तिथ": 6144,
      "सामर्थ": 6145,
      "ज्ञात्वा": 6146,
      "कुरुते": 6147,
      "काव्य": 6148,
      "22": 6149,
      "प्रमुख": 6150,
      "हिंसा": 6151,
      "##प्तं": 6152,
      "सहाय": 6153,
      "श्चैव": 6154,
      "छु": 6155,
      "मन्द": 6156,
      "##गतः": 6157,
      "##पतिः": 6158,
      "##फलं": 6159,
      "दृष्टि": 6160,
      "वह्नि": 6161,
      "रोचते": 6162,
      "##ञ्छ": 6163,
      "##द्यः": 6164,
      "लङ्": 6165,
      "०३": 6166,
      "##घ्न": 6167,
      "##थः": 6168,
      "##रात्र": 6169,
      "जीवनं": 6170,
      "श्रुति": 6171,
      "अन्तर्": 6172,
      "प्रथमः": 6173,
      "ब्राह्मण": 6174,
      "आवश्यक": 6175,
      "३३": 6176,
      "##साह": 6177,
      "##भाग्य": 6178,
      "जानी": 6179,
      "तीर्थ": 6180,
      "##्वी": 6181,
      "सर्वो": 6182,
      "किञ्चित्": 6183,
      "इतर": 6184,
      "मुद्": 6185,
      "बहिः": 6186,
      "युक्तः": 6187,
      "स्नेह": 6188,
      "हानि": 6189,
      "##केन": 6190,
      "##ातन्त्र": 6191,
      "##ङ्ग्ल": 6192,
      "##ासा": 6193,
      "ादिषु": 6194,
      "वर्षाणि": 6195,
      "स्वाहा": 6196,
      "करु": 6197,
      "जप": 6198,
      "ताल": 6199,
      "##ख्ये": 6200,
      "कृत्य": 6201,
      "अन्तः": 6202,
      "कान": 6203,
      "नोप": 6204,
      "##सृ": 6205,
      "देवं": 6206,
      "सङ्घ": 6207,
      "नापि": 6208,
      "संस्थान": 6209,
      "दं": 6210,
      "शोध": 6211,
      "यात्रा": 6212,
      "भागः": 6213,
      "ऽप्य": 6214,
      "तुल्य": 6215,
      "सभा": 6216,
      "##्याम": 6217,
      "##िकल्प": 6218,
      "##रणा": 6219,
      "##भिर": 6220,
      "मनसि": 6221,
      "पशु": 6222,
      "ैश्च": 6223,
      "##लयः": 6224,
      "अनुवाद": 6225,
      "प्रत्येक": 6226,
      "समीपे": 6227,
      "ज्येष्ठ": 6228,
      "षट्": 6229,
      "ीय": 6230,
      "##्यताम्": 6231,
      "##भागे": 6232,
      "सम्पूर्ण": 6233,
      "बुध": 6234,
      "खाद": 6235,
      "नवी": 6236,
      "##ुन": 6237,
      "कारि": 6238,
      "23": 6239,
      "याच": 6240,
      "##कम": 6241,
      "पतिः": 6242,
      "वती": 6243,
      "ुप": 6244,
      "प्राह": 6245,
      "##ासां": 6246,
      "शीर्ष": 6247,
      "अल": 6248,
      "उन्न": 6249,
      "नू": 6250,
      "भ्रात": 6251,
      "अस्त": 6252,
      "शौ": 6253,
      "रुद्र": 6254,
      "no": 6255,
      "पट": 6256,
      "यम्": 6257,
      "अने": 6258,
      "कन": 6259,
      "##रण्य": 6260,
      "स्थिता": 6261,
      "सूर": 6262,
      "पूर्वा": 6263,
      "न्यून": 6264,
      "शून्य": 6265,
      "##्राणां": 6266,
      "व्याकरण": 6267,
      "जाग": 6268,
      "##षेधः": 6269,
      "यत्त": 6270,
      "##मित": 6271,
      "वस्तुतः": 6272,
      "हृदये": 6273,
      "श्वेत": 6274,
      "मिथ्या": 6275,
      "यश्च": 6276,
      "##राः": 6277,
      "मूढ": 6278,
      "प्रयोजनम्": 6279,
      "अनुभव": 6280,
      "##त्रापि": 6281,
      "वक्तव्यम्": 6282,
      "ans": 6283,
      "छन्द": 6284,
      "षड": 6285,
      "भगवान": 6286,
      "द्वितीया": 6287,
      "दह": 6288,
      "##दत्त": 6289,
      "##पाः": 6290,
      "करणे": 6291,
      "##त्थ": 6292,
      "माद": 6293,
      "##ायत": 6294,
      "न्ते": 6295,
      "वरिष्ठ": 6296,
      "27": 6297,
      "##तत्": 6298,
      "##भय": 6299,
      "मत्स्य": 6300,
      "प्रमाणं": 6301,
      "##पुं": 6302,
      "निरी": 6303,
      "श्रम": 6304,
      "प्रयु": 6305,
      "लक्ष्म": 6306,
      "ाप": 6307,
      "##ान्तः": 6308,
      "शाश्व": 6309,
      "नाम्ना": 6310,
      "मङ्ग": 6311,
      "दक्षिणा": 6312,
      "पंच": 6313,
      "अर्ध": 6314,
      "##रात्": 6315,
      "हय": 6316,
      "ाह": 6317,
      "##यय": 6318,
      "महत्त्व": 6319,
      "त्म": 6320,
      "##स्यति": 6321,
      "साध्य": 6322,
      "भोजन": 6323,
      "पवित्र": 6324,
      "01": 6325,
      "जनः": 6326,
      "##णाति": 6327,
      "विश्वे": 6328,
      "रामः": 6329,
      "दिवा": 6330,
      "शिश": 6331,
      "स्त्र": 6332,
      "##येद्": 6333,
      "देवो": 6334,
      "##माने": 6335,
      "गृहा": 6336,
      "पुरुषा": 6337,
      "विभा": 6338,
      "मन्ये": 6339,
      "प्रतीयते": 6340,
      "ब्रह्मा": 6341,
      "बद्ध": 6342,
      "स्थिते": 6343,
      "सततं": 6344,
      "03": 6345,
      "गतं": 6346,
      "##भ्र": 6347,
      "##र्ट": 6348,
      "##ब्रवी": 6349,
      "करे": 6350,
      "##डी": 6351,
      "##क्षर": 6352,
      "##ेश्वर": 6353,
      "##भः": 6354,
      "पीसी": 6355,
      "त्रयो": 6356,
      "विष्णु": 6357,
      "प्रतिभा": 6358,
      "सर्वभूत": 6359,
      "श्रेण": 6360,
      "बहवः": 6361,
      "##ख्यान": 6362,
      "स्वप्ने": 6363,
      "en": 6364,
      "पच": 6365,
      "भ्यः": 6366,
      "##साद": 6367,
      "राज्ये": 6368,
      "##प्स": 6369,
      "##ॄणां": 6370,
      "##त्मानं": 6371,
      "रूपे": 6372,
      "वृष": 6373,
      "कर्तव्यम्": 6374,
      "गृही": 6375,
      "##वर्तते": 6376,
      "इतः": 6377,
      "यच्च": 6378,
      "ऽन": 6379,
      "महिला": 6380,
      "नमो": 6381,
      "ीं": 6382,
      "##ct": 6383,
      "ङ्ग": 6384,
      "अधोलिख": 6385,
      "ch": 6386,
      "जले": 6387,
      "पद्ध": 6388,
      "##दुःख": 6389,
      "##मत": 6390,
      "##र्थिक": 6391,
      "at": 6392,
      "com": 6393,
      "राव": 6394,
      "प्रस्तु": 6395,
      "मात्रं": 6396,
      "योर्": 6397,
      "मेघ": 6398,
      "दया": 6399,
      "द्वा": 6400,
      "प्रसार": 6401,
      "निषेध": 6402,
      "रूपम्": 6403,
      "तत्रैव": 6404,
      "तन्म": 6405,
      "मल": 6406,
      "३५": 6407,
      "श्रा": 6408,
      "आरम्भ": 6409,
      "चित्": 6410,
      "नेति": 6411,
      "प्रभो": 6412,
      "करिष्यति": 6413,
      "विवाह": 6414,
      "एकदा": 6415,
      "कर्मणा": 6416,
      "देवस्य": 6417,
      "गुणः": 6418,
      "भूत्वा": 6419,
      "##द्योग": 6420,
      "02": 6421,
      "26": 6422,
      "ओं": 6423,
      "ाम": 6424,
      "##तुं": 6425,
      "##चित्र": 6426,
      "स्तत्र": 6427,
      "अपरा": 6428,
      "मूर्त": 6429,
      "चिन्ता": 6430,
      "##ख्यं": 6431,
      "निक": 6432,
      "मिश्र": 6433,
      "अनुकूल": 6434,
      "वस्त्र": 6435,
      "##वन्": 6436,
      "संप्र": 6437,
      "लक्ष्य": 6438,
      "इमे": 6439,
      "##तरं": 6440,
      "##क्रमण": 6441,
      "प्राप्नु": 6442,
      "निर्ग": 6443,
      "परिस": 6444,
      "स्वास्थ": 6445,
      "४५": 6446,
      "##भे": 6447,
      "साद": 6448,
      "##रू": 6449,
      "##यस्य": 6450,
      "एतस्य": 6451,
      "दूष": 6452,
      "##गमन": 6453,
      "अन्वयः": 6454,
      "पर्याव": 6455,
      "साल": 6456,
      "##ल्ली": 6457,
      "खोज": 6458,
      "tr": 6459,
      "नात्र": 6460,
      "##कृते": 6461,
      "सृज": 6462,
      "नाव": 6463,
      "मतः": 6464,
      "##वस": 6465,
      "##टर": 6466,
      "सम्बन्धि": 6467,
      "आगच्छ": 6468,
      "##पत्तिः": 6469,
      "तस्मि": 6470,
      "भवन": 6471,
      "सर्वतः": 6472,
      "कोटि": 6473,
      "२०७": 6474,
      "##शास्त्र": 6475,
      "छि": 6476,
      "सर्वान्": 6477,
      "पूर्वोक्त": 6478,
      "पीठ": 6479,
      "लिखत": 6480,
      "अन्ति": 6481,
      "शतं": 6482,
      "प्रधानमन्त्री": 6483,
      "इष्ट": 6484,
      "##ध्याय": 6485,
      "##स्यं": 6486,
      "त्वाद": 6487,
      "ङीप्": 6488,
      "##ायै": 6489,
      "त्वयि": 6490,
      "सामान": 6491,
      "बीज": 6492,
      "स्वयमेव": 6493,
      "एतादृश": 6494,
      "भिर्": 6495,
      "##्वंगु": 6496,
      "युद्धं": 6497,
      "##प्ता": 6498,
      "पिताम": 6499,
      "उक्तं": 6500,
      "चु": 6501,
      "##लयं": 6502,
      "##र्जन": 6503,
      "समीक्षा": 6504,
      "तेषाम": 6505,
      "घोषणा": 6506,
      "अस्याः": 6507,
      "णा": 6508,
      "सना": 6509,
      "३६": 6510,
      "##रेव": 6511,
      "##ेह": 6512,
      "##कृष्ट": 6513,
      "पक्षि": 6514,
      "कृष": 6515,
      "वायुः": 6516,
      "स्वे": 6517,
      "समयः": 6518,
      "शब्दो": 6519,
      "न्तु": 6520,
      "प्रविश": 6521,
      "प्रतिवेदन": 6522,
      "तमः": 6523,
      "धकाः": 6524,
      "वरं": 6525,
      "शान्ति": 6526,
      "म्ह": 6527,
      "शिष्य": 6528,
      "भावे": 6529,
      "कदाचन": 6530,
      "मरण": 6531,
      "शङ्": 6532,
      "सज्ज": 6533,
      "##्येन": 6534,
      "##टन": 6535,
      "दिनाङ्के": 6536,
      "असि": 6537,
      "कक्ष": 6538,
      "राशि": 6539,
      "खु": 6540,
      "ादयः": 6541,
      "रच": 6542,
      "ाति": 6543,
      "##ात्मा": 6544,
      "जनानां": 6545,
      "अभव": 6546,
      "ास्ते": 6547,
      "३७": 6548,
      "##दन": 6549,
      "##क्षणं": 6550,
      "निवार": 6551,
      "ोऽयं": 6552,
      "पर्यन्तं": 6553,
      "##ate": 6554,
      "कठ": 6555,
      "##दय": 6556,
      "स्वस्य": 6557,
      "##संख्या": 6558,
      "वेति": 6559,
      "कदापि": 6560,
      "न०": 6561,
      "##ऽहं": 6562,
      "##कालं": 6563,
      "वृत्तिः": 6564,
      "शक्नोति": 6565,
      "शरणं": 6566,
      "विभाषा": 6567,
      "##न्ता": 6568,
      "संसाधन": 6569,
      "देशं": 6570,
      "स्थितिः": 6571,
      "सुत": 6572,
      "अन्तर": 6573,
      "मनोर": 6574,
      "स्नानं": 6575,
      "us": 6576,
      "तदि": 6577,
      "नक्ष": 6578,
      "सम्म": 6579,
      "राष्ट्रीय": 6580,
      "##लोके": 6581,
      "यानाः": 6582,
      "धर": 6583,
      "नाना": 6584,
      "वसु": 6585,
      "##पान": 6586,
      "कृति": 6587,
      "दक्ष": 6588,
      "विभि": 6589,
      "विवाद": 6590,
      "प्रस्ताव": 6591,
      "अग्रे": 6592,
      "त्रा": 6593,
      "प्रसन्न": 6594,
      "तद्य": 6595,
      "रवि": 6596,
      "शन": 6597,
      "दर्शनं": 6598,
      "श्रुत": 6599,
      "क्लेश": 6600,
      "प्रवृत्ति": 6601,
      "सुवर्ण": 6602,
      "टे": 6603,
      "बभूव": 6604,
      "##रपि": 6605,
      "##हितः": 6606,
      "स्वातन्त्र": 6607,
      "उत्तरः": 6608,
      "वक्तुं": 6609,
      "50": 6610,
      "तीति": 6611,
      "द्या": 6612,
      "##वचन": 6613,
      "##ab": 6614,
      "##खु": 6615,
      "योनि": 6616,
      "अग्र": 6617,
      "दध": 6618,
      "नान्य": 6619,
      "मभि": 6620,
      "साग": 6621,
      "स्थितम्": 6622,
      "तत्रा": 6623,
      "शुभा": 6624,
      "दूरे": 6625,
      "ार्थे": 6626,
      "प्रकारेण": 6627,
      "प्रतिदिनं": 6628,
      "भद्र": 6629,
      "##सभा": 6630,
      "##त्यर्थः": 6631,
      "##ान्तं": 6632,
      "सीता": 6633,
      "प्राचीन": 6634,
      "कर्माणि": 6635,
      "हार": 6636,
      "##ूं": 6637,
      "##ाम्य": 6638,
      "भवतीति": 6639,
      "हिन्द": 6640,
      "##पुत्र": 6641,
      "स्मृति": 6642,
      "केचित्": 6643,
      "be": 6644,
      "चक्ष": 6645,
      "or": 6646,
      "##वृ": 6647,
      "##ोर्": 6648,
      "निम्": 6649,
      "प्राक्": 6650,
      "##ित्स": 6651,
      "##धीयते": 6652,
      "##खं": 6653,
      "कुर्य": 6654,
      "उपाय": 6655,
      "मार्गे": 6656,
      "गम्यते": 6657,
      "साम्": 6658,
      "##रेक": 6659,
      "कृष्": 6660,
      "आनन्द": 6661,
      "iv": 6662,
      "खि": 6663,
      "##ws": 6664,
      "भवः": 6665,
      "न्न": 6666,
      "गृहीत्वा": 6667,
      "दौ": 6668,
      "युगे": 6669,
      "दृष्टं": 6670,
      "प्राप्ति": 6671,
      "##देह": 6672,
      "लभ्यते": 6673,
      "भोजनं": 6674,
      "लं": 6675,
      "साय": 6676,
      "िष्य": 6677,
      "ेष्व": 6678,
      "##च्छि": 6679,
      "युष्म": 6680,
      "न्ति": 6681,
      "for": 6682,
      "हितं": 6683,
      "ऽव": 6684,
      "##ल्क": 6685,
      "सरकार": 6686,
      "जं": 6687,
      "##श्यति": 6688,
      "संस्कृति": 6689,
      "वेग": 6690,
      "वीर्य": 6691,
      "प्रकल्प": 6692,
      "अध्यक्ष": 6693,
      "सकल": 6694,
      "वज्र": 6695,
      "मव": 6696,
      "शक्र": 6697,
      "##लव": 6698,
      "उपल": 6699,
      "उक्तम्": 6700,
      "28": 6701,
      "प्राग": 6702,
      "क्षेत्रं": 6703,
      "निर्णय": 6704,
      "ऋण": 6705,
      "जो": 6706,
      "तीव": 6707,
      "##vi": 6708,
      "प्राधान": 6709,
      "स्तम्भ": 6710,
      "##गुणं": 6711,
      "धीम": 6712,
      "सचि": 6713,
      "##दत्": 6714,
      "मुने": 6715,
      "नेत्र": 6716,
      "##लोक्य": 6717,
      "शरीरं": 6718,
      "दल": 6719,
      "श्रद्ध": 6720,
      "हरिः": 6721,
      "अकरोत्": 6722,
      "ग्": 6723,
      "भुक्त": 6724,
      "सन्तु": 6725,
      "##स्माकं": 6726,
      "##भूत्": 6727,
      "भूमौ": 6728,
      "षोड": 6729,
      "##ग्य": 6730,
      "##थ्": 6731,
      "पाणि": 6732,
      "यद्वा": 6733,
      "मित्रं": 6734,
      "इत्यपि": 6735,
      "तदनु": 6736,
      "उत्पादन": 6737,
      "iii": 6738,
      "दरिद्र": 6739,
      "घन": 6740,
      "भया": 6741,
      "लॊ": 6742,
      "०४": 6743,
      "वादि": 6744,
      "स्त्रीणां": 6745,
      "ाग": 6746,
      "##xt": 6747,
      "##क्तिः": 6748,
      "प्रथमे": 6749,
      "आश": 6750,
      "च्व": 6751,
      "दुः": 6752,
      "हर्ष": 6753,
      "ाच्च": 6754,
      "##क्ष्": 6755,
      "प्रतिष्ठा": 6756,
      "नागर": 6757,
      "पृच्छ": 6758,
      "##ङ्कार": 6759,
      "द्वितीयं": 6760,
      "##ध्यायः": 6761,
      "भूप": 6762,
      "##पत्र": 6763,
      "गुणाः": 6764,
      "दक्षिणे": 6765,
      "अग्निः": 6766,
      "अन्न": 6767,
      "ोत्त": 6768,
      "परमाण": 6769,
      "सर्वस्य": 6770,
      "sf": 6771,
      "गं": 6772,
      "ची": 6773,
      "चौ": 6774,
      "##तोः": 6775,
      "धर्मो": 6776,
      "सैन्य": 6777,
      "ऊर्ध": 6778,
      "##ज़": 6779,
      "कार्याणि": 6780,
      "li": 6781,
      "तमेव": 6782,
      "ऽथ": 6783,
      "##स्त्व": 6784,
      "सार्ध": 6785,
      "नाथ": 6786,
      "राजनी": 6787,
      "प्राणा": 6788,
      "##कृता": 6789,
      "भार्या": 6790,
      "खल": 6791,
      "ाश्च": 6792,
      "प्राधिकरण": 6793,
      "##किं": 6794,
      "केवलम्": 6795,
      "##सति": 6796,
      "##लय्": 6797,
      "स्तव": 6798,
      "बालकः": 6799,
      "एतेषां": 6800,
      "प्रेर": 6801,
      "किमर्थं": 6802,
      "तात्": 6803,
      "##ांश": 6804,
      "##थाः": 6805,
      "सागर": 6806,
      "कर्तृ": 6807,
      "लिखित": 6808,
      "र्त": 6809,
      "४१": 6810,
      "##पते": 6811,
      "फलम्": 6812,
      "आम": 6813,
      "गज": 6814,
      "चर्च": 6815,
      "ाभ्या": 6816,
      "##चरेत्": 6817,
      "##शाला": 6818,
      "##ानः": 6819,
      "स्थिर": 6820,
      "##र्हसि": 6821,
      "सकलं": 6822,
      "वद्": 6823,
      "निष्ठ": 6824,
      "तुम": 6825,
      "महारा": 6826,
      "कार्यक्रम": 6827,
      "प्रक्रिया": 6828,
      "यी": 6829,
      "विश्र": 6830,
      "##िष्यति": 6831,
      "१९९": 6832,
      "प्रविश्य": 6833,
      "चिकित्स": 6834,
      "do": 6835,
      "##्स": 6836,
      "##िकम्": 6837,
      "क्षणं": 6838,
      "सम्प्रति": 6839,
      "मनुष्या": 6840,
      "##यनं": 6841,
      "##सन्": 6842,
      "##ेयं": 6843,
      "##ितु": 6844,
      "##ाले": 6845,
      "महान": 6846,
      "भावा": 6847,
      "महत्वपूर्ण": 6848,
      "##ण्व": 6849,
      "##ूह": 6850,
      "##दिश्य": 6851,
      "अनन्त": 6852,
      "श्रृ": 6853,
      "शिख": 6854,
      "पुनरा": 6855,
      "ानुसार": 6856,
      "कानि": 6857,
      "याद": 6858,
      "रेव": 6859,
      "##प्यते": 6860,
      "त्वर": 6861,
      "मह्यं": 6862,
      "सम्भाव": 6863,
      "भुवि": 6864,
      "श्रूयते": 6865,
      "लाखों": 6866,
      "तद्ध": 6867,
      "तन्न": 6868,
      "नद": 6869,
      "नम्": 6870,
      "##ूढ": 6871,
      "वाञ्छ": 6872,
      "##ृतम्": 6873,
      "सर्वाः": 6874,
      "मही": 6875,
      "पुत्रा": 6876,
      "lo": 6877,
      "नन्द": 6878,
      "िन": 6879,
      "##दात्": 6880,
      "पुत्रं": 6881,
      "परस्परं": 6882,
      "कस्या": 6883,
      "मद्": 6884,
      "##is": 6885,
      "##स्तं": 6886,
      "स्यैव": 6887,
      "पुरुषं": 6888,
      "पापं": 6889,
      "अ॒": 6890,
      "तनु": 6891,
      "नहीं": 6892,
      "र्च": 6893,
      "##िना": 6894,
      "##ितौ": 6895,
      "तेऽ": 6896,
      "द्रु": 6897,
      "मासस्य": 6898,
      "इत्येतद्": 6899,
      "आङ्ग्ल": 6900,
      "तक": 6901,
      "##xx": 6902,
      "निष": 6903,
      "समि": 6904,
      "स्तदा": 6905,
      "##भवः": 6906,
      "शक्यं": 6907,
      "करिष्य": 6908,
      "विद्यमान": 6909,
      "स्वरूपं": 6910,
      "ान्तर": 6911,
      "नान": 6912,
      "##षो": 6913,
      "##फ्": 6914,
      "वदन्ति": 6915,
      "इच्छा": 6916,
      "नगरं": 6917,
      "कपि": 6918,
      "तय": 6919,
      "ेत्या": 6920,
      "##स्तव": 6921,
      "##्वास": 6922,
      "##ङ्गा": 6923,
      "सन्धि": 6924,
      "ऽन्य": 6925,
      "##प्नु": 6926,
      "##श्रेष्ठ": 6927,
      "कामं": 6928,
      "प्रिया": 6929,
      "याना": 6930,
      "साक्षि": 6931,
      "सूत्रे": 6932,
      "नामानि": 6933,
      "##यिष्यामि": 6934,
      "लक्षणम्": 6935,
      "##लयस्य": 6936,
      "गौर": 6937,
      "तवा": 6938,
      "वेश": 6939,
      "##ह्न": 6940,
      "##ur": 6941,
      "कालो": 6942,
      "रिक्त": 6943,
      "2019": 6944,
      "गतो": 6945,
      "##न्यं": 6946,
      "##जु": 6947,
      "पाकि": 6948,
      "त्रै": 6949,
      "पुराण": 6950,
      "वर्धते": 6951,
      "अध्यायः": 6952,
      "ईश": 6953,
      "पय": 6954,
      "नाग": 6955,
      "मिल": 6956,
      "2020": 6957,
      "ग्नि": 6958,
      "करोतु": 6959,
      "मुखं": 6960,
      "सुरक्षा": 6961,
      "श्राद्ध": 6962,
      "पीत": 6963,
      "स्वर्ण": 6964,
      "परमात्म": 6965,
      "##ितां": 6966,
      "फि": 6967,
      "व्": 6968,
      "वाक्": 6969,
      "रुचि": 6970,
      "तस्यां": 6971,
      "षष्ठी": 6972,
      "यै": 6973,
      "##भारः": 6974,
      "विवा": 6975,
      "भवद्": 6976,
      "पश्यामि": 6977,
      "त्याग": 6978,
      "##ग्रहः": 6979,
      "40": 6980,
      "ईश्व": 6981,
      "ऋष": 6982,
      "धेन": 6983,
      "ाग्नि": 6984,
      "##हम": 6985,
      "व्यो": 6986,
      "__१": 6987,
      "गुरुः": 6988,
      "स्मृतः": 6989,
      "घो": 6990,
      "पै": 6991,
      "पाय": 6992,
      "पत्रं": 6993,
      "लाल": 6994,
      "ाऽ": 6995,
      "स्वस्थ": 6996,
      "##ण्ट": 6997,
      "संशोध": 6998,
      "04": 6999,
      "अद्या": 7000,
      "पत्त": 7001,
      "भृ": 7002,
      "मथ": 7003,
      "पदम्": 7004,
      "ग्रहणम्": 7005,
      "##ब्रवीत्": 7006,
      "sp": 7007,
      "यस्या": 7008,
      "वल": 7009,
      "िका": 7010,
      "भूता": 7011,
      "करणं": 7012,
      "दिनानि": 7013,
      "विवेक": 7014,
      "भ्या": 7015,
      "एवमेव": 7016,
      "स्तस्य": 7017,
      "शिर": 7018,
      "दृष्टा": 7019,
      "कुर्वन्": 7020,
      "याःगु": 7021,
      "साहाय": 7022,
      "(=": 7023,
      "था": 7024,
      "##दम्": 7025,
      "##व्र": 7026,
      "त्वत्": 7027,
      "समुप": 7028,
      "##ेतु": 7029,
      "विधाय": 7030,
      "आवेदन": 7031,
      "ब्": 7032,
      "##दम": 7033,
      "विपर्य": 7034,
      "ेत": 7035,
      "##de": 7036,
      "दिशि": 7037,
      "##कारस्य": 7038,
      "एताव": 7039,
      "कश्चिद्": 7040,
      "अतीत": 7041,
      "गृह्ण": 7042,
      "भ्रा": 7043,
      "हीन": 7044,
      "नामा": 7045,
      "ादिकं": 7046,
      "राष्ट्रपति": 7047,
      "बै": 7048,
      "५५": 7049,
      "##क्ते": 7050,
      "प्राति": 7051,
      "भूय": 7052,
      "स्मरण": 7053,
      "तर्क": 7054,
      "ed": 7055,
      "अर्ज": 7056,
      "वचना": 7057,
      "##ौं": 7058,
      "स्त्वं": 7059,
      "तदु": 7060,
      "धीरे": 7061,
      "चकार": 7062,
      "ाणि": 7063,
      "##कर्त": 7064,
      "##ांत": 7065,
      "निश": 7066,
      "निद्रा": 7067,
      "पुत्रो": 7068,
      "पोष": 7069,
      "यामि": 7070,
      "रति": 7071,
      "हन": 7072,
      "४७": 7073,
      "रणे": 7074,
      "##ीकरण": 7075,
      "##न्नः": 7076,
      "पूजां": 7077,
      "वृद्धिः": 7078,
      "धार्म": 7079,
      "by": 7080,
      "आर्थिक": 7081,
      "यस्मात्": 7082,
      "##वारं": 7083,
      "नाभि": 7084,
      "श्रद्धा": 7085,
      "साधारण": 7086,
      "बुद्धिः": 7087,
      "इम": 7088,
      "ितः": 7089,
      "प्रप": 7090,
      "संह": 7091,
      "##धिष्ठ": 7092,
      "इत्येवं": 7093,
      "धर्मं": 7094,
      "छात्राः": 7095,
      "पर्यावरण": 7096,
      "३४": 7097,
      "परित्य": 7098,
      "##ing": 7099,
      "तच्छ": 7100,
      "मणि": 7101,
      "मरणं": 7102,
      "ास": 7103,
      "##रति": 7104,
      "पात्र": 7105,
      "दुग्ध": 7106,
      "जातं": 7107,
      "राज्यस्य": 7108,
      "दोषा": 7109,
      "मेष": 7110,
      "प्रज्ञा": 7111,
      "समन्त": 7112,
      "परिष": 7113,
      "2018": 7114,
      "ईश्वरः": 7115,
      "##--": 7116,
      "##विष": 7117,
      "इत्यत": 7118,
      "जीवति": 7119,
      "क्ली": 7120,
      "##योगः": 7121,
      "विशेषेण": 7122,
      "संशय": 7123,
      "राज्ञः": 7124,
      "संबं": 7125,
      "मूर्ख": 7126,
      "इमं": 7127,
      "कान्त": 7128,
      "##di": 7129,
      "कालेन": 7130,
      "##कृतिः": 7131,
      "धातुः": 7132,
      "कौश": 7133,
      "##गू": 7134,
      "##ही": 7135,
      "##जग": 7136,
      "##ायण": 7137,
      "पिण्ड": 7138,
      "कामः": 7139,
      "##विधं": 7140,
      "मुहू": 7141,
      "योगी": 7142,
      "##मुच्यते": 7143,
      "इन्द": 7144,
      "तयो": 7145,
      "लज्ज": 7146,
      "िव": 7147,
      "##मार्ग": 7148,
      "##ादौ": 7149,
      "##राज्य": 7150,
      "कुतो": 7151,
      "महाब": 7152,
      "ततश्च": 7153,
      "रं": 7154,
      "##ध्व": 7155,
      "##च्वंगु": 7156,
      "##एव": 7157,
      "चिर": 7158,
      "निवास": 7159,
      "##त्राणां": 7160,
      "धृत": 7161,
      "४९": 7162,
      "क्षय": 7163,
      "##ात्मक": 7164,
      "##ive": 7165,
      "विभिन्न": 7166,
      "29": 7167,
      "##गतम्": 7168,
      "##et": 7169,
      "##लक्षण": 7170,
      "अधिकारी": 7171,
      "परीक्ष": 7172,
      "संविधान": 7173,
      "जर": 7174,
      "##वद्": 7175,
      "##विश": 7176,
      "पूर्वे": 7177,
      "प्रत्यु": 7178,
      "ण्": 7179,
      "##न्तम्": 7180,
      "स्वः": 7181,
      "##ालय": 7182,
      "##स्माद्": 7183,
      "त्रीणि": 7184,
      "सञ्": 7185,
      "##रुप": 7186,
      "पदस्य": 7187,
      "द्रो": 7188,
      "स्फुट": 7189,
      "अण्": 7190,
      "##ीयः": 7191,
      "##प्ते": 7192,
      "श्रे": 7193,
      "##श्रम": 7194,
      "एषां": 7195,
      "विहाय": 7196,
      "प्रजाः": 7197,
      "आदेश": 7198,
      "क्य": 7199,
      "##wer": 7200,
      "सर्वम": 7201,
      "हिंस": 7202,
      "शिक्षण": 7203,
      "लोकः": 7204,
      "दशा": 7205,
      "sh": 7206,
      "करं": 7207,
      "जक": 7208,
      "वन्द": 7209,
      "ष्य": 7210,
      "##ap": 7211,
      "##क्षं": 7212,
      "गृह्य": 7213,
      "प्रदूष": 7214,
      "त्यक्त्वा": 7215,
      "ऋत": 7216,
      "##र्णा": 7217,
      "सर्वथा": 7218,
      "साथ": 7219,
      "कृपा": 7220,
      "##सीद": 7221,
      "यजमान": 7222,
      "चिकित्": 7223,
      "कण्ठ": 7224,
      "ऽऽ": 7225,
      "४२": 7226,
      "४४": 7227,
      "##वर्ण": 7228,
      "##पत्य": 7229,
      "स्थितं": 7230,
      "अतएव": 7231,
      "सर्वैः": 7232,
      "सात": 7233,
      "राजनि": 7234,
      "##ग्राम": 7235,
      "टा": 7236,
      "##्येति": 7237,
      "तद्वि": 7238,
      "अंश": 7239,
      "धया": 7240,
      "##मति": 7241,
      "सुहृ": 7242,
      "यशः": 7243,
      "वक्ष्य": 7244,
      "४८": 7245,
      "##वत": 7246,
      "##ादेव": 7247,
      "शास्त": 7248,
      "शील": 7249,
      "##न्तरे": 7250,
      "##िक्र": 7251,
      "विषया": 7252,
      "विस्तार": 7253,
      "आय": 7254,
      "दय": 7255,
      "##ेनि": 7256,
      "केचन": 7257,
      "द्यो": 7258,
      "नरा": 7259,
      "##ेष्व": 7260,
      "द्वन्द": 7261,
      "लोकं": 7262,
      "मूलं": 7263,
      "घटना": 7264,
      "##नम": 7265,
      "##थम": 7266,
      "द्वयं": 7267,
      "##प्रे": 7268,
      "भावेन": 7269,
      "दाह": 7270,
      "फो": 7271,
      "##करो": 7272,
      "जीवित": 7273,
      "विधिना": 7274,
      "संरक्षण": 7275,
      "कैः": 7276,
      "घात": 7277,
      "जै": 7278,
      "इत्युच्यते": 7279,
      "##कृत्": 7280,
      "प्राप्तं": 7281,
      "तर्प": 7282,
      "विचित्र": 7283,
      "६०": 7284,
      "##दानं": 7285,
      "साभारः": 7286,
      "##रात": 7287,
      "त्रय": 7288,
      "इच्छति": 7289,
      "##त्तमम्": 7290,
      "वार्ता": 7291,
      "वार्षिक": 7292,
      "05": 7293,
      "ऽभि": 7294,
      "सम्पादन": 7295,
      "युवा": 7296,
      "व्यप": 7297,
      "कल्याण": 7298,
      "सर्प": 7299,
      "##ृश्य": 7300,
      "पराम": 7301,
      "सहसा": 7302,
      "प्राप्तः": 7303,
      "चतुर्द": 7304,
      "प्रोक्ता": 7305,
      "कत": 7306,
      "हन्ति": 7307,
      "दिति": 7308,
      "प्राप्ता": 7309,
      "भोः": 7310,
      "प्रियं": 7311,
      "द्रष्टुं": 7312,
      "पातु": 7313,
      "अमरः": 7314,
      "##धुनिक": 7315,
      "32": 7316,
      "##स्तीति": 7317,
      "##ब्ब": 7318,
      "पृष्ट": 7319,
      "एतानि": 7320,
      "##शिया": 7321,
      "##ञ्जन": 7322,
      "विज्ञानं": 7323,
      "चेष्ट": 7324,
      "प्राप्यते": 7325,
      "विधा": 7326,
      "##्यादि": 7327,
      "संभाव": 7328,
      "इत्यस्मात्": 7329,
      "##रीं": 7330,
      "चिद": 7331,
      "द्यु": 7332,
      "##सहस्र": 7333,
      "यान्ति": 7334,
      "सुप्र": 7335,
      "दिवि": 7336,
      "रुच": 7337,
      "##म्बर": 7338,
      "०५": 7339,
      "##र्ड": 7340,
      "श्राव": 7341,
      "वृष्ट": 7342,
      "पृष्ठं": 7343,
      "ार्थम्": 7344,
      "इत्युक्ते": 7345,
      "##कीय": 7346,
      "##र्मा": 7347,
      "माध": 7348,
      "वर्षस्य": 7349,
      "कल्पना": 7350,
      "हस्ते": 7351,
      "निष्क": 7352,
      "next": 7353,
      "##ढ़": 7354,
      "संहिता": 7355,
      "अवदत्": 7356,
      "तदाह": 7357,
      "##पदे": 7358,
      "ात्मक": 7359,
      "वय्कः": 7360,
      "फ़": 7361,
      "ित्य": 7362,
      "##ेशः": 7363,
      "न्तर": 7364,
      "##कृतिक": 7365,
      "भक्त्या": 7366,
      "इत्थं": 7367,
      "गाव": 7368,
      "ध्ये": 7369,
      "येत्": 7370,
      "वया": 7371,
      "##थाय": 7372,
      "व्याघ्र": 7373,
      "स्थानम्": 7374,
      "##शील": 7375,
      "कर्ष": 7376,
      "घा": 7377,
      "जन्": 7378,
      "दीयते": 7379,
      "वत": 7380,
      "वरा": 7381,
      "गुह": 7382,
      "दृष्ट्या": 7383,
      "अवश्यं": 7384,
      "ज्ञाप": 7385,
      "समूह": 7386,
      "सत्या": 7387,
      "##यान": 7388,
      "##भौ": 7389,
      "कार्ये": 7390,
      "स्थल": 7391,
      "ात्मा": 7392,
      "दत्त्वा": 7393,
      "पृथिव्या": 7394,
      "##दृश्य": 7395,
      "मुहूर्त": 7396,
      "ap": 7397,
      "go": 7398,
      "प्रतिनि": 7399,
      "प्रतिषेधः": 7400,
      "सम्भाष": 7401,
      "भावना": 7402,
      "अधिकं": 7403,
      "दत्तं": 7404,
      "कारयेत्": 7405,
      "कर्तव्यः": 7406,
      "भागं": 7407,
      "##पुर": 7408,
      "पितुः": 7409,
      "लक्ष्यते": 7410,
      "ध्यानं": 7411,
      "प्रार्थना": 7412,
      "35": 7413,
      "ञ्ज": 7414,
      "रित्य": 7415,
      "ार्थः": 7416,
      "##धौ": 7417,
      "##जात": 7418,
      "देवताः": 7419,
      "मानस": 7420,
      "ग्रन्": 7421,
      "प्रभुः": 7422,
      "श्रवण": 7423,
      "answer": 7424,
      "षड्": 7425,
      "सत्त": 7426,
      "द्वेष": 7427,
      "फलकम्": 7428,
      "##गृह्य": 7429,
      "प्रकृतिः": 7430,
      "निन्द": 7431,
      "वाणि": 7432,
      "यात्र": 7433,
      "स्युः": 7434,
      "##कृतः": 7435,
      "सौभाग्य": 7436,
      "तपः": 7437,
      "यथोक्त": 7438,
      "मात्रेण": 7439,
      "परस्परम्": 7440,
      "परम्परा": 7441,
      "##दिष्टम्": 7442,
      "पार्श्व": 7443,
      "सिध्यति": 7444,
      "गताः": 7445,
      "३८": 7446,
      "४६": 7447,
      "##षं": 7448,
      "भूतं": 7449,
      "##ुक्तम्": 7450,
      "##भूति": 7451,
      "अस्माभिः": 7452,
      "गीत": 7453,
      "दन्त": 7454,
      "रौ": 7455,
      "परिभाष": 7456,
      "जिला": 7457,
      "राक्षस": 7458,
      "विपरीत": 7459,
      "te": 7460,
      "धनु": 7461,
      "पण्ड": 7462,
      "शून": 7463,
      "५२": 7464,
      "##गल": 7465,
      "##ेर्": 7466,
      "##क्रमः": 7467,
      "##श्रु": 7468,
      "विवरण": 7469,
      "सम्बन्धी": 7470,
      "तेनैव": 7471,
      "दृश्यम्": 7472,
      "स्वास्थ्य": 7473,
      "गिर": 7474,
      "ेभ्यो": 7475,
      "भवत्": 7476,
      "नरक": 7477,
      "धूम": 7478,
      "वारि": 7479,
      "##यौ": 7480,
      "समस्या": 7481,
      "##ज्ञात": 7482,
      "प्राप्तिः": 7483,
      "प्रदेशे": 7484,
      "एता": 7485,
      "##ायन": 7486,
      "##र्थी": 7487,
      "स्तः": 7488,
      "सम्बन्धः": 7489,
      "दैत्य": 7490,
      "er": 7491,
      "pd": 7492,
      "ाचार": 7493,
      "३९": 7494,
      "##भी": 7495,
      "##us": 7496,
      "##ितुम्": 7497,
      "बहूनि": 7498,
      "##हारः": 7499,
      "दिवसे": 7500,
      "विद्वान्": 7501,
      "##ir": 7502,
      "व्युत्": 7503,
      "दुरा": 7504,
      "संभवति": 7505,
      "संकल्प": 7506,
      "फलकम्ः": 7507,
      "07": 7508,
      "श्रोत": 7509,
      "समुद्": 7510,
      "राष्ट्रे": 7511,
      "प्रभु": 7512,
      "अर": 7513,
      "कष": 7514,
      "कष्ट": 7515,
      "लव": 7516,
      "लक्षणा": 7517,
      "क्रमशः": 7518,
      "बाहु": 7519,
      "लोपः": 7520,
      "co": 7521,
      "un": 7522,
      "रचना": 7523,
      "##रस": 7524,
      "##मू": 7525,
      "##ांसि": 7526,
      "योगः": 7527,
      "समुद": 7528,
      "पुरुषस्य": 7529,
      "स्वीकृत": 7530,
      "लौक": 7531,
      "=>": 7532,
      "आम्": 7533,
      "धृ": 7534,
      "मना": 7535,
      "##हति": 7536,
      "##ङि": 7537,
      "##ण्या": 7538,
      "हिं": 7539,
      "कथयति": 7540,
      "मदु": 7541,
      "उद्ध": 7542,
      "##ें": 7543,
      "##ष्टु": 7544,
      "##णियां": 7545,
      "वैद": 7546,
      "अन्तरिक्ष": 7547,
      "ानाम": 7548,
      "ing": 7549,
      "उल्": 7550,
      "एस्": 7551,
      "छे": 7552,
      "नपुं": 7553,
      "शता": 7554,
      "##रीय": 7555,
      "##र्षा": 7556,
      "##स्फ": 7557,
      "भवतां": 7558,
      "मेदि": 7559,
      "युज्यते": 7560,
      "समाग": 7561,
      "साधार": 7562,
      "साधनं": 7563,
      "शेषं": 7564,
      "शासन": 7565,
      ":-": 7566,
      "ad": 7567,
      "it": 7568,
      "सत्ता": 7569,
      "निपा": 7570,
      "सुम": 7571,
      "व्यय": 7572,
      "प्रिये": 7573,
      "असौ": 7574,
      "द्ध": 7575,
      "मित्यर्थः": 7576,
      "\"'": 7577,
      "च्च": 7578,
      "यया": 7579,
      "यूप": 7580,
      "##सङ्": 7581,
      "##ङ्गु": 7582,
      "वैज्ञान": 7583,
      "कर्तुम्": 7584,
      "##ध्यक्ष": 7585,
      "गतौ": 7586,
      "डी": 7587,
      "##धर": 7588,
      "##ig": 7589,
      "महो": 7590,
      "महात्म": 7591,
      "प्रयच्छ": 7592,
      "क्वा": 7593,
      "चेद": 7594,
      "८०": 7595,
      "##शतं": 7596,
      "##स्स": 7597,
      "##ेतत्": 7598,
      "सप्ताह": 7599,
      "विवक्ष": 7600,
      "इती": 7601,
      "कूप": 7602,
      "कक्षा": 7603,
      "शम": 7604,
      "##टं": 7605,
      "विदुः": 7606,
      "लोका": 7607,
      "प्राप्तवान्": 7608,
      "धातोः": 7609,
      "अन्ते": 7610,
      "आच": 7611,
      "आधार": 7612,
      "मतम्": 7613,
      "हां": 7614,
      "ऽयं": 7615,
      "ोद्": 7616,
      "##करः": 7617,
      "##ान्तरे": 7618,
      "अवश्य": 7619,
      "जीवितं": 7620,
      "श्रुतिः": 7621,
      "मोद": 7622,
      "##चिदपि": 7623,
      "धे": 7624,
      "##कानां": 7625,
      "अवस्था": 7626,
      "##स्वी": 7627,
      "प्रयोजनं": 7628,
      "##धिकारिक": 7629,
      "प्रचल": 7630,
      "bo": 7631,
      "अयम": 7632,
      "अस्मान्": 7633,
      "आधुनिक": 7634,
      "सर्वभू": 7635,
      "समे": 7636,
      "सामान्यतः": 7637,
      "##ans": 7638,
      "चित्तं": 7639,
      "रत्न": 7640,
      "चिकित्सा": 7641,
      "नाद": 7642,
      "कारा": 7643,
      "पूर्वम्": 7644,
      "पूर्वेण": 7645,
      "ादिति": 7646,
      "नूतन": 7647,
      "ध्याय": 7648,
      "यथाशक्ति": 7649,
      "भूत्": 7650,
      "प्रवक्ष्यामि": 7651,
      "प्रियः": 7652,
      "नियमः": 7653,
      "उच्चार": 7654,
      "महोदय": 7655,
      "##दिश्यते": 7656,
      "दर्प": 7657,
      "सख": 7658,
      "हू": 7659,
      "##ज्या": 7660,
      "##र्धा": 7661,
      "माण": 7662,
      "मुद": 7663,
      "भाति": 7664,
      "तदन": 7665,
      "तत्सर्व": 7666,
      "काङ्": 7667,
      "गृह्यते": 7668,
      "##नीं": 7669,
      "##णोति": 7670,
      "छाया": 7671,
      "जनार्द": 7672,
      "वेतन": 7673,
      "ver": 7674,
      "आधिकारिक": 7675,
      "ग्रा": 7676,
      "रसो": 7677,
      "सस्य": 7678,
      "##ूर्ण": 7679,
      "कुम्भ": 7680,
      "लोकानां": 7681,
      "पुनर्निर्": 7682,
      "तत्त्वं": 7683,
      "प्रयत्नेन": 7684,
      "##धातु": 7685,
      "माग": 7686,
      "##प्तः": 7687,
      "द्वय": 7688,
      "##रोप": 7689,
      "चतुर्वि": 7690,
      "जाने": 7691,
      "वाच्य": 7692,
      "विद्यु": 7693,
      "##वृत्ति": 7694,
      "अन्ध": 7695,
      "इन्": 7696,
      "##व्ये": 7697,
      "गुरो": 7698,
      "##त्याः": 7699,
      "##खिल": 7700,
      "सहस्राणि": 7701,
      "लम्ब": 7702,
      "विस": 7703,
      "अथे": 7704,
      "##भेदे": 7705,
      "५७": 7706,
      "##॒व": 7707,
      "##॒त": 7708,
      "##चनं": 7709,
      "स्ट": 7710,
      "##विष्ट": 7711,
      "अधः": 7712,
      "गृहम्": 7713,
      "समुत्": 7714,
      "दद्यात्": 7715,
      "पान": 7716,
      "प्या": 7717,
      "##ut": 7718,
      "वाप": 7719,
      "कारः": 7720,
      "इत्यु": 7721,
      "##कारण": 7722,
      "तत्रापि": 7723,
      "योगि": 7724,
      "स्पृश": 7725,
      "त्वाद्": 7726,
      "भूतानि": 7727,
      "यथे": 7728,
      "करुणा": 7729,
      "अधोलिखितानि": 7730,
      "तद्यथा": 7731,
      "pdf": 7732,
      "मई": 7733,
      "स्थितो": 7734,
      "##क्स": 7735,
      "##भावे": 7736,
      "योगदान": 7737,
      "उक्तः": 7738,
      "मार्गः": 7739,
      "##पत्तेः": 7740,
      "पुरतः": 7741,
      "दृश्यन्ते": 7742,
      "अद्": 7743,
      "पण": 7744,
      "सन्न": 7745,
      "##्रो": 7746,
      "मिच्छ": 7747,
      "##श्वर्य": 7748,
      "जगति": 7749,
      "08": 7750,
      "##ul": 7751,
      "मानवः": 7752,
      "सामग्री": 7753,
      "उत्तरं": 7754,
      "प्रकी": 7755,
      "भवेद्": 7756,
      "कुमार": 7757,
      "पद्म": 7758,
      "तत्व": 7759,
      "##शब्द": 7760,
      "##घात": 7761,
      "वेत्ति": 7762,
      "पदार्थः": 7763,
      "निम्न": 7764,
      "णां": 7765,
      "##याय": 7766,
      "अन्यः": 7767,
      "मनुः": 7768,
      "उत्तरा": 7769,
      "पुनरपि": 7770,
      "सङ्कल्प": 7771,
      "post": 7772,
      "xxx": 7773,
      "७०": 7774,
      "##ीया": 7775,
      "##नीया": 7776,
      "बौ": 7777,
      "##रौ": 7778,
      "##हन": 7779,
      "##भं": 7780,
      "##लोप": 7781,
      "##द्द": 7782,
      "क्षणे": 7783,
      "प्रत्ययो": 7784,
      "दृष्टः": 7785,
      "सुखम्": 7786,
      "पठति": 7787,
      "निर्णयः": 7788,
      "असं": 7789,
      "ऋतु": 7790,
      "मयं": 7791,
      "अनन्तरं": 7792,
      "मुत्": 7793,
      "वर्तन्ते": 7794,
      "पार्श्वे": 7795,
      "ेऽपि": 7796,
      "##ामहे": 7797,
      "ततॊ": 7798,
      "तीव्र": 7799,
      "##हुः": 7800,
      "##र्त्त": 7801,
      "##चारिक": 7802,
      "योगे": 7803,
      "##त्सु": 7804,
      "द्वितीयः": 7805,
      "प्रारम्भ": 7806,
      "अस्या": 7807,
      "डो": 7808,
      "तमा": 7809,
      "हत": 7810,
      "##ेद्": 7811,
      "##करं": 7812,
      "##ear": 7813,
      "##पदा": 7814,
      "किंचित्": 7815,
      "जिह": 7816,
      "वाक्ये": 7817,
      "नील": 7818,
      "केनापि": 7819,
      "आया": 7820,
      "औप": 7821,
      "##ष्यं": 7822,
      "##२०": 7823,
      "##र्हि": 7824,
      "##ायु": 7825,
      "हिम": 7826,
      "देवे": 7827,
      "देवदेव": 7828,
      "भेदेन": 7829,
      "यितुं": 7830,
      "सलि": 7831,
      "##क्व": 7832,
      "प्रम": 7833,
      "स्वामी": 7834,
      "प्रतिज्ञा": 7835,
      "दुर": 7836,
      "व्याधि": 7837,
      "स्वाभाव": 7838,
      "ोऽस्ति": 7839,
      "am": 7840,
      "वनं": 7841,
      "##शक्त": 7842,
      "नियुक्त": 7843,
      "तपो": 7844,
      "arch": 7845,
      "दारि": 7846,
      "स्तेन": 7847,
      "कोरो": 7848,
      "भारतं": 7849,
      "समुच्च": 7850,
      "##पृष्ठ": 7851,
      "नूनं": 7852,
      "तान": 7853,
      "ऽप": 7854,
      "५४": 7855,
      "##लम्ब": 7856,
      "मात्म": 7857,
      "तुम्": 7858,
      "महं": 7859,
      "तस्यैव": 7860,
      "अधिकृत": 7861,
      "31": 7862,
      "ऽस्मिन्": 7863,
      "४३": 7864,
      "##न्दा": 7865,
      "हिमा": 7866,
      "##नीयं": 7867,
      "ब्रवी": 7868,
      "आर्": 7869,
      "५१": 7870,
      "##दपि": 7871,
      "##ेर": 7872,
      "##पत": 7873,
      "##ान्ध": 7874,
      "वर्षं": 7875,
      "तवं": 7876,
      "किञ्चि": 7877,
      "##कर्षण": 7878,
      "एन": 7879,
      "##ानो": 7880,
      "देवत": 7881,
      "##क्ल": 7882,
      "जनता": 7883,
      "इच्छामि": 7884,
      "समर्पयामि": 7885,
      "संबंधनं": 7886,
      "पारि": 7887,
      "##्यै": 7888,
      "##न्दन": 7889,
      "स्यादिति": 7890,
      "##योजना": 7891,
      "श्वः": 7892,
      "अर्थात्": 7893,
      "टिप्पणियां": 7894,
      "नेन": 7895,
      "मद्य": 7896,
      "वक्ष्यामि": 7897,
      "##ter": 7898,
      "त्वाम": 7899,
      "केर": 7900,
      "्यते": 7901,
      "इदम": 7902,
      "सैनिक": 7903,
      "चीन": 7904,
      "राय": 7905,
      "सती": 7906,
      "विभाव": 7907,
      "वर्द्ध": 7908,
      "##च्छत्": 7909,
      "##कार्य": 7910,
      "वैद्य": 7911,
      "द्वितीये": 7912,
      "मंत्र": 7913,
      "निर्देशः": 7914,
      "ज्वल": 7915,
      "प्रयोक्त": 7916,
      "आवि": 7917,
      "गम्य": 7918,
      "जला": 7919,
      "५९": 7920,
      "मिह": 7921,
      "अनुप": 7922,
      "काश": 7923,
      "प्रभात": 7924,
      "एशिया": 7925,
      "करः": 7926,
      "##हत": 7927,
      "मात्रे": 7928,
      "अन्यो": 7929,
      "प्रात": 7930,
      "##ल्म": 7931,
      "एकम्": 7932,
      "##हिं": 7933,
      "१९७": 7934,
      "शरीरे": 7935,
      "2021": 7936,
      "ex": 7937,
      "तमो": 7938,
      "प्रभा": 7939,
      "विधानं": 7940,
      "स्वार्थ": 7941,
      "अङ्क": 7942,
      "##मार": 7943,
      "प्रग": 7944,
      "प्रदा": 7945,
      "विज्ञा": 7946,
      "परत": 7947,
      "##लिं": 7948,
      "सृष्टि": 7949,
      "अभवन्": 7950,
      "सर्वभूतेषु": 7951,
      "धना": 7952,
      "पत्य": 7953,
      "मखु": 7954,
      "यव": 7955,
      "ासी": 7956,
      "##ैल": 7957,
      "##र्जा": 7958,
      "प्रदान": 7959,
      "प्रतिबन्ध": 7960,
      "##वादी": 7961,
      "दाव": 7962,
      "ाभ्य": 7963,
      "##धो": 7964,
      "ायै": 7965,
      "##द्वि": 7966,
      "आवश्यकता": 7967,
      "आन्दो": 7968,
      "तासां": 7969,
      "भ्यां": 7970,
      "विन्द": 7971,
      "##दिन": 7972,
      "##योजन": 7973,
      "संवेद": 7974,
      "संभवः": 7975,
      "अमेरिक": 7976,
      "इत्येतत्": 7977,
      "पुरस्कार": 7978,
      "पुण्यं": 7979,
      "पते": 7980,
      "यच्छ": 7981,
      "##ve": 7982,
      "दोषो": 7983,
      "ईदृश": 7984,
      "र्य": 7985,
      "ाऽऽ": 7986,
      "##चे": 7987,
      "कारक": 7988,
      "महती": 7989,
      "##ब्धा": 7990,
      "निमित्तं": 7991,
      "स्मृतम्": 7992,
      "स्रोत": 7993,
      "कूट": 7994,
      "चतुर्दश": 7995,
      "06": 7996,
      "भावो": 7997,
      "ताड": 7998,
      "##ess": 7999,
      "),": 8000,
      "गद": 8001,
      "परस्य": 8002,
      "##ेतुं": 8003,
      "भावं": 8004,
      "##रूपं": 8005,
      ".....": 8006,
      "जू": 8007,
      "ाश": 8008,
      "७५": 8009,
      "##यतु": 8010,
      "##क्तः": 8011,
      "संवाद": 8012,
      "क्रमात्": 8013,
      "निर्वाचन": 8014,
      "आपः": 8015,
      "५६": 8016,
      "##नया": 8017,
      "विंश": 8018,
      "संख्य": 8019,
      "तुभ्यं": 8020,
      "##र्मः": 8021,
      "विशाल": 8022,
      "यथाविधि": 8023,
      "सम्मे": 8024,
      "प्रशास": 8025,
      "##षिद्ध": 8026,
      "अपेक्ष": 8027,
      "स॒": 8028,
      "ह्री": 8029,
      "##चितं": 8030,
      "वाज": 8031,
      "स्वि": 8032,
      "स्त्रिया": 8033,
      "सहित": 8034,
      "##ुपा": 8035,
      "सोऽपि": 8036,
      "जगतः": 8037,
      "पश्यन्ति": 8038,
      "##वचनम्": 8039,
      "ोत्तर": 8040,
      "##राष्ट्र": 8041,
      "योर": 8042,
      "##च्छया": 8043,
      "देहे": 8044,
      "ब्रु": 8045,
      "सम्भवः": 8046,
      "अचि": 8047,
      "रङ्ग": 8048,
      "ात": 8049,
      "##डे": 8050,
      "समग्र": 8051,
      "भूयः": 8052,
      "ज्ञानम्": 8053,
      "ितम्": 8054,
      "##ैर्य": 8055,
      "##घ्": 8056,
      "##तुम्": 8057,
      "वेदा": 8058,
      "विवर्ज": 8059,
      "स्थापना": 8060,
      "वसति": 8061,
      "##लभ्यते": 8062,
      "as": 8063,
      "ट्र": 8064,
      "##व्": 8065,
      "भवन्तः": 8066,
      "##कारि": 8067,
      "राजधान": 8068,
      "रक्षति": 8069,
      "##टुम्ब": 8070,
      "sa": 8071,
      "पुनरु": 8072,
      "सनात": 8073,
      "क्या": 8074,
      "जित": 8075,
      "ब्रि": 8076,
      "हल": 8077,
      "##समा": 8078,
      "प्रबन्ध": 8079,
      "राघ": 8080,
      "##न्नति": 8081,
      "भोक्त": 8082,
      "वचनम्": 8083,
      "प्रयत्नतः": 8084,
      "आईपी": 8085,
      "हरेः": 8086,
      "दित्य": 8087,
      "##ैष": 8088,
      "भाज": 8089,
      "सिद्धिः": 8090,
      "ततोऽ": 8091,
      "2017": 8092,
      "नरकं": 8093,
      "६५": 8094,
      "भवं": 8095,
      "सुभाष": 8096,
      "देवान्": 8097,
      "##क्रमे": 8098,
      "भविष्यन्ति": 8099,
      "अहम": 8100,
      "गच्छन्ति": 8101,
      "धारणा": 8102,
      "##ine": 8103,
      "शोच": 8104,
      "कम्प": 8105,
      "##ives": 8106,
      "नीत": 8107,
      "वारं": 8108,
      "ेश्वर": 8109,
      "##द्यते": 8110,
      "##ुक": 8111,
      "सर्वलोक": 8112,
      "देवदत्त": 8113,
      "उपस्थ": 8114,
      "##पुरा": 8115,
      "१००": 8116,
      "आं": 8117,
      "तज्": 8118,
      "सफ": 8119,
      "हंस": 8120,
      "##हितं": 8121,
      "राश": 8122,
      "##मेति": 8123,
      "युक्ता": 8124,
      "विरोधः": 8125,
      "सत्व": 8126,
      "अपरि": 8127,
      "अभिप्राय": 8128,
      "जिज्ञ": 8129,
      "वाक्या": 8130,
      "भूतानां": 8131,
      "सूर्यः": 8132,
      "मण्डले": 8133,
      "धाःसा": 8134,
      "ab": 8135,
      "करी": 8136,
      "ाधि": 8137,
      "##रां": 8138,
      "समवाय": 8139,
      "तिल": 8140,
      "जनसंख्या": 8141,
      "रेखा": 8142,
      "पृष्ठे": 8143,
      "दाता": 8144,
      "विभागः": 8145,
      "##पेक्षया": 8146,
      "षोडश": 8147,
      "br": 8148,
      "up": 8149,
      "आयुः": 8150,
      "घृ": 8151,
      "तेषाम्": 8152,
      "मतिः": 8153,
      "##ल्ला": 8154,
      "##व्यक्ति": 8155,
      "अवस": 8156,
      "निर्दिष्ट": 8157,
      "अन्यत्": 8158,
      "त्रयः": 8159,
      "ादिना": 8160,
      "सिद्धान्त": 8161,
      "दिव्यं": 8162,
      "असम": 8163,
      "हम": 8164,
      "##गि": 8165,
      "परमे": 8166,
      "समृद्ध": 8167,
      "मुदा": 8168,
      "मेक": 8169,
      "प्रविष्ट": 8170,
      "पित्त": 8171,
      "लः": 8172,
      "वन्तः": 8173,
      "कुटुम्ब": 8174,
      "एक्स": 8175,
      "पार्व": 8176,
      "##कारे": 8177,
      "बहुव": 8178,
      "ज्ञानेन": 8179,
      "फलानि": 8180,
      "##धारण": 8181,
      "पुस्तकं": 8182,
      "चित्रं": 8183,
      "आसी": 8184,
      "सञ्ज": 8185,
      "प्रस्थ": 8186,
      "त्वद": 8187,
      "द्विधा": 8188,
      "विद्यालये": 8189,
      "33": 8190,
      "आर्य": 8191,
      "र्ष": 8192,
      "वसि": 8193,
      "##विशेष": 8194,
      "##धाति": 8195,
      "मांस": 8196,
      "##स्रो": 8197,
      "व्रतं": 8198,
      "मन्त्री": 8199,
      "##ation": 8200,
      "प्रदूषण": 8201,
      "ऽस्ति": 8202,
      "अभिन": 8203,
      "अत्यन्त": 8204,
      "अद्यापि": 8205,
      "अच्": 8206,
      "गव": 8207,
      "##तिष्ठ": 8208,
      "प्रसू": 8209,
      "जातम्": 8210,
      "पार्थिव": 8211,
      "38": 8212,
      "मते": 8213,
      "वयम": 8214,
      "सर्वनाम": 8215,
      "अन्या": 8216,
      "प्रामाण": 8217,
      "परिण": 8218,
      "##करणं": 8219,
      "सुखदुःख": 8220,
      "मृदु": 8221,
      "उभौ": 8222,
      "सम्यग्": 8223,
      "विलम्ब": 8224,
      "विदेशी": 8225,
      "नवीन": 8226,
      "वरः": 8227,
      "##ck": 8228,
      "##ff": 8229,
      "परस्मै": 8230,
      "वास्तु": 8231,
      "##ेदः": 8232,
      "##क्रम्य": 8233,
      "##कुल": 8234,
      "100": 8235,
      "अन्तिम": 8236,
      "ग्ल": 8237,
      "##्ति": 8238,
      "##मिव": 8239,
      "कुण्ड": 8240,
      "भूष": 8241,
      "चिरं": 8242,
      "##धिकं": 8243,
      "जगाम": 8244,
      "सीमा": 8245,
      "धारण": 8246,
      "news": 8247,
      "pre": 8248,
      "च्या": 8249,
      "ध्वं": 8250,
      "भ्यो": 8251,
      "निर्या": 8252,
      "पूज्य": 8253,
      "श्रेय": 8254,
      "एकेन": 8255,
      "सूत्रं": 8256,
      "##र्षि": 8257,
      "##हारे": 8258,
      "कारणेन": 8259,
      "ह्रस्व": 8260,
      "तस्मान्": 8261,
      "पेश": 8262,
      "हव": 8263,
      "##मन्": 8264,
      "द्वीप": 8265,
      "सम्मान": 8266,
      "पाक": 8267,
      "क्रमः": 8268,
      "रूपाणि": 8269,
      "युष्माकं": 8270,
      "शनैः": 8271,
      "अरे": 8272,
      "ेन्द्र": 8273,
      "##मत्": 8274,
      "##लिक": 8275,
      "वाचि": 8276,
      "##दिः": 8277,
      "पदो": 8278,
      "जगद्": 8279,
      "सन्दे": 8280,
      "यन्त": 8281,
      "विहित": 8282,
      "पुत्त": 8283,
      "##दिव": 8284,
      "स्वस्ति": 8285,
      "##ण्ण": 8286,
      "व्याप्त": 8287,
      "तावद्": 8288,
      "नगरस्य": 8289,
      "विमुक्त": 8290,
      "दारिद्र": 8291,
      "अर्": 8292,
      "नरो": 8293,
      "मस्त": 8294,
      "निष्ठा": 8295,
      "रूपः": 8296,
      "मूर्ति": 8297,
      "जुल": 8298,
      "शास्त्रं": 8299,
      "सचिव": 8300,
      "चोद": 8301,
      "णं": 8302,
      "ायु": 8303,
      "संसर्ग": 8304,
      "पुष्ट": 8305,
      "वासि": 8306,
      "सर्वम्": 8307,
      "मेतत्": 8308,
      "युक्ति": 8309,
      "मधुर": 8310,
      "##्यायां": 8311,
      "स्वार्थे": 8312,
      "मार्गेण": 8313,
      "पक्षः": 8314,
      "चत्वारि": 8315,
      "षि": 8316,
      "निरोध": 8317,
      "##ेवा": 8318,
      "##त्तः": 8319,
      "करिष्ये": 8320,
      "नुप": 8321,
      "नैक": 8322,
      "वल्": 8323,
      "##न्ये": 8324,
      "##भवति": 8325,
      "उपयोगः": 8326,
      "हस्ति": 8327,
      "स्वल्प": 8328,
      "पूँ": 8329,
      "सिन्ध": 8330,
      "##क्रान्त": 8331,
      "वृत्तं": 8332,
      "१९४": 8333,
      "१९८": 8334,
      "विज्ञे": 8335,
      "ददौ": 8336,
      "मतं": 8337,
      "सर्": 8338,
      "भवन्तु": 8339,
      "राजन": 8340,
      "ज्ञाना": 8341,
      "पूर्वमेव": 8342,
      "अपना": 8343,
      "प्राप्तुं": 8344,
      "##भूमि": 8345,
      "ज्ञाने": 8346,
      "रेल": 8347,
      "विद्यालय": 8348,
      "ानन्तरं": 8349,
      "नागरिक": 8350,
      "archives": 8351,
      "ऊर्ज": 8352,
      "##चो": 8353,
      "स्तं": 8354,
      "कृतो": 8355,
      "निवेदन": 8356,
      "दीन": 8357,
      "##पेक्षा": 8358,
      "पेक्ष": 8359,
      "सन्दर्भ": 8360,
      "mo": 8361,
      "खं": 8362,
      "यस्त": 8363,
      "रघ": 8364,
      "##रन्": 8365,
      "##र्यं": 8366,
      "निरु": 8367,
      "##स्तान": 8368,
      "एकस्य": 8369,
      "पिं": 8370,
      "सम्पन्न": 8371,
      "भेदा": 8372,
      "राजनि०": 8373,
      "37": 8374,
      "गतिं": 8375,
      "तस्": 8376,
      "##पथ": 8377,
      "दिशः": 8378,
      "समाधि": 8379,
      "ादिभिः": 8380,
      "आगत": 8381,
      "तिथिः": 8382,
      "उदा": 8383,
      "गर्व": 8384,
      "मज": 8385,
      "मेन": 8386,
      "##ीर्ण": 8387,
      "साक्षा": 8388,
      "##ीयन्ते": 8389,
      "हेतोः": 8390,
      "विधे": 8391,
      "जानन्ति": 8392,
      "तपसा": 8393,
      "ध्वज": 8394,
      "यौव": 8395,
      "कविः": 8396,
      "ग्रीष्म": 8397,
      "कानून": 8398,
      "नष्ट": 8399,
      "यस्याः": 8400,
      "ुत्": 8401,
      "##सक": 8402,
      "##्यस्य": 8403,
      "ादपि": 8404,
      "देयं": 8405,
      "श्रुतं": 8406,
      "सिद्धम्": 8407,
      "अतिरिक्त": 8408,
      "तत्सर्वं": 8409,
      "36": 8410,
      "su": 8411,
      "##दिने": 8412,
      "##्रियः": 8413,
      "कथयामि": 8414,
      "##भावः": 8415,
      "##श्रित्य": 8416,
      "जातो": 8417,
      "कप": 8418,
      "मत्र": 8419,
      "##सङ्ग": 8420,
      "प्रचार": 8421,
      "एकस्मिन्": 8422,
      "नेपाः": 8423,
      "##कुर्व": 8424,
      "अक्षर": 8425,
      "साक्षात्कार": 8426,
      "पुनर्निर्दिष्टम्": 8427,
      "तय्": 8428,
      "ावि": 8429,
      "##ल्या": 8430,
      "##श्त": 8431,
      "##ितम": 8432,
      "##निष्ठ": 8433,
      "इत्याद": 8434,
      "सुखी": 8435,
      "क्लि": 8436,
      "पित्र": 8437,
      "हस": 8438,
      "##िया": 8439,
      "##मनु": 8440,
      "##माद": 8441,
      "एवेति": 8442,
      "शिवः": 8443,
      "श्चापि": 8444,
      "प्रजायते": 8445,
      "प्राची": 8446,
      "गृह्णाति": 8447,
      "एवमुक्त": 8448,
      "न्यूनतम": 8449,
      "(?": 8450,
      "आत्मानं": 8451,
      "शरण": 8452,
      "दुगु": 8453,
      "##लाई": 8454,
      "वेदना": 8455,
      "वृक्षः": 8456,
      "वाहन": 8457,
      "तमि": 8458,
      "फे": 8459,
      "##मित्त": 8460,
      "मुञ्च": 8461,
      "सूक्त": 8462,
      "पूर्ववत्": 8463,
      "कोवि": 8464,
      "कर्तव्या": 8465,
      "युक्तम्": 8466,
      "जन्मनि": 8467,
      "09": 8468,
      "आज": 8469,
      "९०": 8470,
      "प्रवाह": 8471,
      "पुष्टि": 8472,
      "स्तन": 8473,
      "यथाक्रम": 8474,
      "##स्थि": 8475,
      "प्रयोगे": 8476,
      "ात्मकं": 8477,
      "मृत्युः": 8478,
      "अप्": 8479,
      "चैक": 8480,
      "भयम्": 8481,
      "यित्वा": 8482,
      "सद्यः": 8483,
      "ह्या": 8484,
      "हिता": 8485,
      "विघ्न": 8486,
      "प्रत्यये": 8487,
      "अपर": 8488,
      "##लेख": 8489,
      "शुभम्": 8490,
      "ङीष्": 8491,
      "गमिष्यामि": 8492,
      "५८": 8493,
      "##दर": 8494,
      "##ध्वं": 8495,
      "निशा": 8496,
      "##ादी": 8497,
      "स्थिताः": 8498,
      "विषयं": 8499,
      "विश्वस्य": 8500,
      "युक्ते": 8501,
      "##सारं": 8502,
      "##श्चित्": 8503,
      "मुखे": 8504,
      "##न्यास": 8505,
      "लाभः": 8506,
      "##ष्यामः": 8507,
      "इदानीम्": 8508,
      "धाम": 8509,
      "वन्य": 8510,
      "##च्या": 8511,
      "समव": 8512,
      "समाना": 8513,
      "अप्वः": 8514,
      "विधेय": 8515,
      "सरल": 8516,
      "चैत": 8517,
      "स्कन्ध": 8518,
      "पृथिव्यां": 8519,
      "यत्तु": 8520,
      "प्रातिपद": 8521,
      "आशी": 8522,
      "##em": 8523,
      "पुरः": 8524,
      "व्यभि": 8525,
      "कर्मणः": 8526,
      "उत्तरम्": 8527,
      "##त्सव": 8528,
      "१९५": 8529,
      "करणीयम्": 8530,
      "कारणात्": 8531,
      "अभ्यास": 8532,
      "माः": 8533,
      "सप": 8534,
      "मार्च": 8535,
      "##तीत": 8536,
      "##भवं": 8537,
      "कोप": 8538,
      "व्याख्यान": 8539,
      "##भूतं": 8540,
      "वाच्यम्": 8541,
      "मूल्यं": 8542,
      "प्रभावः": 8543,
      "प्रयत्न": 8544,
      "भूमिः": 8545,
      "ददर्श": 8546,
      "गान्": 8547,
      "चान": 8548,
      "जितः": 8549,
      "पथि": 8550,
      "##ोट": 8551,
      "##॑ः": 8552,
      "##्रं": 8553,
      "##स्ये": 8554,
      "परति": 8555,
      "संप्रा": 8556,
      "स्वच्छ": 8557,
      "कार्यः": 8558,
      "भूते": 8559,
      "##क्क": 8560,
      "विशेषणम्": 8561,
      "त्रयं": 8562,
      "दूत": 8563,
      "होम": 8564,
      "शुभं": 8565,
      "सहस्रं": 8566,
      "संसारे": 8567,
      "प्रशिक्षु": 8568,
      "न्ह्यः": 8569,
      "तात्पर्य": 8570,
      "बौद्ध": 8571,
      "वश्य": 8572,
      "शस्त": 8573,
      "##ाया": 8574,
      "##परं": 8575,
      "##डः": 8576,
      "##र्थो": 8577,
      "सुतः": 8578,
      "पूर्वो": 8579,
      "बिभ": 8580,
      "ज्योतिः": 8581,
      "गृहाण": 8582,
      "बहुव्री": 8583,
      "ऋषि": 8584,
      "जाये": 8585,
      "५३": 8586,
      "##शन": 8587,
      "सर्वेषाम": 8588,
      "##लाप": 8589,
      "अधिकरण": 8590,
      "ोऽहं": 8591,
      "प्रकट": 8592,
      "प्रायश्च": 8593,
      "##ारोह": 8594,
      "शब्दं": 8595,
      "##ग्व": 8596,
      "संनि": 8597,
      "##िकां": 8598,
      "मानः": 8599,
      "सप्ता": 8600,
      "निर्वि": 8601,
      "अस्यां": 8602,
      "शः": 8603,
      "षा": 8604,
      "ान्न": 8605,
      "##भात": 8606,
      "##ik": 8607,
      "विद्": 8608,
      "विराज": 8609,
      "परितः": 8610,
      "परिमाण": 8611,
      "न्ह्य": 8612,
      "प्रदेशः": 8613,
      "तृतीये": 8614,
      "कृत्स्": 8615,
      "घर": 8616,
      "नन्व": 8617,
      "भृश": 8618,
      "वेष": 8619,
      "ाध": 8620,
      "७१": 8621,
      "##क्रिया": 8622,
      "सुषु": 8623,
      "राजानं": 8624,
      "मन्व": 8625,
      "भिर": 8626,
      "यज्ञं": 8627,
      "पश्चिमे": 8628,
      "भवितव्यम्": 8629,
      "सर्गः": 8630,
      "34": 8631,
      "वरुण": 8632,
      "##इन": 8633,
      "##ष्क": 8634,
      "निब": 8635,
      "स्वयम": 8636,
      "मासीत्": 8637,
      "प्राग्": 8638,
      "जननी": 8639,
      "एतदेव": 8640,
      "##ामिति": 8641,
      "स्तुति": 8642,
      "##ैरपि": 8643,
      "निवृत्ति": 8644,
      "मन्यन्ते": 8645,
      "उदाहरणम्": 8646,
      "यायेगु": 8647,
      "दारु": 8648,
      "ादीनि": 8649,
      "छः": 8650,
      "पयो": 8651,
      "पद्य": 8652,
      "७४": 8653,
      "तुं": 8654,
      "दिष्ट": 8655,
      "दिनं": 8656,
      "--\"": 8657,
      "१९६": 8658,
      "स्त्रियः": 8659,
      "केत": 8660,
      "ज़": 8661,
      "##ताम": 8662,
      "##जाः": 8663,
      "##परः": 8664,
      "##म्प": 8665,
      "वाग्": 8666,
      "वादी": 8667,
      "मार्": 8668,
      "सुरा": 8669,
      "सूत": 8670,
      "मनी": 8671,
      "जनक": 8672,
      "प्रवास": 8673,
      "ग्रहणे": 8674,
      "न्यास": 8675,
      "आशा": 8676,
      "जने": 8677,
      "##ित्वं": 8678,
      "विपु": 8679,
      "##निः": 8680,
      "##तोऽ": 8681,
      "उपचार": 8682,
      "गुह्य": 8683,
      "तत्क्षण": 8684,
      "गच्छामि": 8685,
      "मारु": 8686,
      "०९": 8687,
      "##पनं": 8688,
      "##एं": 8689,
      "##ालन": 8690,
      "महाम": 8691,
      "पाश": 8692,
      "त्रिंश": 8693,
      "स्पेन": 8694,
      "प्रतीति": 8695,
      "शुभे": 8696,
      "संस्थिता": 8697,
      "##पयति": 8698,
      "##चने": 8699,
      "##क्षिक": 8700,
      "##मादि": 8701,
      "##स्तथा": 8702,
      "##ताप": 8703,
      "तेजो": 8704,
      "पुत्रस्य": 8705,
      "चतुर": 8706,
      "निर्माणं": 8707,
      "##श्मीर": 8708,
      "औषध": 8709,
      "बं": 8710,
      "माव": 8711,
      "##सव": 8712,
      "##कलं": 8713,
      "##पुः": 8714,
      "##ैति": 8715,
      "##खण्ड": 8716,
      "विवि": 8717,
      "पुरं": 8718,
      "योष": 8719,
      "स्थं": 8720,
      "विद्यां": 8721,
      "शुच": 8722,
      "श्चा": 8723,
      "जीवने": 8724,
      "प्रथमो": 8725,
      "जाग्र": 8726,
      "सप्तम": 8727,
      "स्पर्ध": 8728,
      "यज्ञे": 8729,
      "आत्मनः": 8730,
      "विजय": 8731,
      "स्रो": 8732,
      "verse": 8733,
      "ma": 8734,
      "इतो": 8735,
      "धनम्": 8736,
      "ार": 8737,
      "##सन्ध": 8738,
      "##कौ": 8739,
      "##ीयं": 8740,
      "नाति": 8741,
      "##ासते": 8742,
      "##कारी": 8743,
      "##वादि": 8744,
      "बह्व": 8745,
      "रुद": 8746,
      "पितॄणां": 8747,
      "अस्माकम्": 8748,
      "यावद्": 8749,
      "गान": 8750,
      "##गाः": 8751,
      "##मुप": 8752,
      "##लिः": 8753,
      "निधि": 8754,
      "स्ततः": 8755,
      "कुले": 8756,
      "दिल्ली": 8757,
      "तदुप": 8758,
      "पदेन": 8759,
      "हेम": 8760,
      "दिवं": 8761,
      "हस्ता": 8762,
      "गतवान्": 8763,
      "असु": 8764,
      "यस्": 8765,
      "रथं": 8766,
      "ाधिकार": 8767,
      "ों": 8768,
      "##नुते": 8769,
      "बहूनां": 8770,
      "स्मार": 8771,
      "देहं": 8772,
      "प्रशंस": 8773,
      "शक्या": 8774,
      "सिद्धा": 8775,
      "पुस्तके": 8776,
      "पश्चाद्": 8777,
      "नमस्": 8778,
      "ेत्यर्थः": 8779,
      "संबन्धः": 8780,
      "ाभावे": 8781,
      "##एससी": 8782,
      "साम्प्र": 8783,
      "संवेदना": 8784,
      "दिक्": 8785,
      "शर्म": 8786,
      "ाग्र": 8787,
      "ाख्य": 8788,
      "प्रतिपद्यते": 8789,
      "परियोजना": 8790,
      "उपसर्ग": 8791,
      "कापि": 8792,
      "दशम": 8793,
      "कीर्ति": 8794,
      "वदामि": 8795,
      "निष्कर्ष": 8796,
      "संस्करणे": 8797,
      "year": 8798,
      "एनं": 8799,
      "धान": 8800,
      "ाणाम्": 8801,
      "६४": 8802,
      "प्रेत": 8803,
      "##्यामः": 8804,
      "कार्त": 8805,
      "सहितं": 8806,
      "##सें": 8807,
      "पितॄ": 8808,
      "पित्रा": 8809,
      "पश्ये": 8810,
      "पुरात": 8811,
      "कमल": 8812,
      "परमात्मा": 8813,
      "सन्देश": 8814,
      "प्रकृते": 8815,
      "विश्वविद्यालय": 8816,
      "विरासत": 8817,
      "प्रतियोगिता": 8818,
      "44": 8819,
      "गतम्": 8820,
      "दये": 8821,
      "ाधिकरण": 8822,
      "##ol": 8823,
      "##्वल": 8824,
      "##मिच्छ": 8825,
      "हिन्दु": 8826,
      "##विंश": 8827,
      "द्वयोः": 8828,
      "##ेण्": 8829,
      "उपे": 8830,
      "विदुष": 8831,
      "चिह्न": 8832,
      "जुया": 8833,
      "कस्यचित्": 8834,
      "शक्नो": 8835,
      "कुशल": 8836,
      "बहिर्": 8837,
      "प्रयुज्यते": 8838,
      "45": 8839,
      "you": 8840,
      "आहार": 8841,
      "इमां": 8842,
      "ितं": 8843,
      "संग्राम": 8844,
      "पुमान्": 8845,
      "सुभ": 8846,
      "##्येक": 8847,
      "द्वारं": 8848,
      "भूयो": 8849,
      "अवकाश": 8850,
      "पदानि": 8851,
      "नेता": 8852,
      "द्रव्यं": 8853,
      "वक्तव्यः": 8854,
      "कश्चिद": 8855,
      "परामर्श": 8856,
      "वसिष्ठ": 8857,
      "me": 8858,
      "आश्च": 8859,
      "करा": 8860,
      "गङ्गा": 8861,
      "घृत": 8862,
      "यक्ष": 8863,
      "##तय्": 8864,
      "##पयेत्": 8865,
      "##re": 8866,
      "परिकी": 8867,
      "##विंशति": 8868,
      "##रुः": 8869,
      "स्थे": 8870,
      "अप्य": 8871,
      "शुद्धि": 8872,
      "विभक्ति": 8873,
      "धार्मिक": 8874,
      "ag": 8875,
      "जून": 8876,
      "०६": 8877,
      "##ver": 8878,
      "##्ता": 8879,
      "##ाल्": 8880,
      "माना": 8881,
      "पुत्री": 8882,
      "नृपः": 8883,
      "प्रतीक्ष": 8884,
      "गणित": 8885,
      "प्रायश्चित्त": 8886,
      "##लक": 8887,
      "##डु": 8888,
      "मातु": 8889,
      "##श्चा": 8890,
      "स्थः": 8891,
      "युधिष्ठ": 8892,
      "समाहितः": 8893,
      "##त्मक": 8894,
      "ज्ञानस्य": 8895,
      "उत्कृष्ट": 8896,
      "मुक्तः": 8897,
      "चेन्न": 8898,
      "प्रजानां": 8899,
      "शैल": 8900,
      "ब्रूहि": 8901,
      "39": 8902,
      "नया": 8903,
      "##पास": 8904,
      "संदे": 8905,
      "मुन": 8906,
      "महे": 8907,
      "जनैः": 8908,
      "उद्देश": 8909,
      "स्वभावतः": 8910,
      "प्रकरणे": 8911,
      "प्रपञ्च": 8912,
      "इयम्": 8913,
      "पता": 8914,
      "फु": 8915,
      "##मुक्त": 8916,
      "##कैः": 8917,
      "##्यू": 8918,
      "प्रौ": 8919,
      "द्वी": 8920,
      "द्वै": 8921,
      "शुचि": 8922,
      "ादेः": 8923,
      "यद्व": 8924,
      "सौम्य": 8925,
      "गणना": 8926,
      "दीर्घः": 8927,
      "विकल्पः": 8928,
      "किञ्चिद": 8929,
      "विप्रति": 8930,
      "48": 8931,
      "[[": 8932,
      "le": 8933,
      "वपु": 8934,
      "सरो": 8935,
      "##th": 8936,
      "##णेन": 8937,
      "प्रतिवर्ष": 8938,
      "तदैव": 8939,
      "नामः": 8940,
      "बहवो": 8941,
      "##पाप": 8942,
      "##रूपेण": 8943,
      "ानुप": 8944,
      "tags": 8945,
      "##सहस": 8946,
      "बोधि": 8947,
      "सर्वभूतानां": 8948,
      "वाणिज्य": 8949,
      "sent": 8950,
      "जः": 8951,
      "ाष्ट": 8952,
      "##जायते": 8953,
      "##फ़": 8954,
      "##याद्": 8955,
      "पराय": 8956,
      "परिकल्प": 8957,
      "भविता": 8958,
      "सुलभ": 8959,
      "समाचरेत्": 8960,
      "##न्यो": 8961,
      "शक्तिं": 8962,
      "वनस्प": 8963,
      "##र्थाः": 8964,
      "कस्यापि": 8965,
      "भेष": 8966,
      "सफल": 8967,
      "ाहं": 8968,
      "##दृष्ट": 8969,
      "##लां": 8970,
      "##न्तरम्": 8971,
      "सर्वतो": 8972,
      "पा०": 8973,
      "श्चेति": 8974,
      "योगेन": 8975,
      "जुहो": 8976,
      "सूची": 8977,
      "सहस्रा": 8978,
      "परमाणु": 8979,
      "कस्मात्": 8980,
      "सत्र": 8981,
      "ह्": 8982,
      "ाख्या": 8983,
      "िता": 8984,
      "##एम": 8985,
      "प्राव": 8986,
      "##न्ने": 8987,
      "##त्येव": 8988,
      "##त्तमः": 8989,
      "दिग्": 8990,
      "काष्ठ": 8991,
      "प्राप्तम्": 8992,
      "ग्रहः": 8993,
      "मन्त्रेण": 8994,
      "यथो": 8995,
      "]]": 8996,
      "वु": 8997,
      "हतः": 8998,
      "##मध्ये": 8999,
      "निबन्ध": 9000,
      "इत्यभि": 9001,
      "##सिं": 9002,
      "साम्रा": 9003,
      "बालकाः": 9004,
      "सिद्धं": 9005,
      "ततस्त": 9006,
      "परिवर्तन": 9007,
      "शैली": 9008,
      "कविता": 9009,
      "ज्ञेयं": 9010,
      "पितामह": 9011,
      "हिन्दी": 9012,
      "वचनात्": 9013,
      "भस्म": 9014,
      "ऽत्र": 9015,
      "६८": 9016,
      "##स्ती": 9017,
      "##दास": 9018,
      "कथां": 9019,
      "त्र्य": 9020,
      "सिंहः": 9021,
      "मनुष्याणां": 9022,
      "कट": 9023,
      "गां": 9024,
      "छगू": 9025,
      "मयो": 9026,
      "प्राद": 9027,
      "##्येते": 9028,
      "पार्": 9029,
      "शिला": 9030,
      "शिरः": 9031,
      "तेना": 9032,
      "योगं": 9033,
      "नियन्त्र": 9034,
      "द्यावा": 9035,
      "कोरोना": 9036,
      "खा": 9037,
      "माला": 9038,
      "ापि": 9039,
      "##दोष": 9040,
      "##तार": 9041,
      "##यन्ते": 9042,
      "##el": 9043,
      "##शङ्क": 9044,
      "प्रदी": 9045,
      "सर्वज्ञ": 9046,
      "इत्यनु": 9047,
      "मेकं": 9048,
      "उपयु": 9049,
      "क्रुद्ध": 9050,
      "अतिथि": 9051,
      "प्राप्नो": 9052,
      "ांश्च": 9053,
      "रहित": 9054,
      "०७": 9055,
      "##तमः": 9056,
      "##तमं": 9057,
      "संपाद": 9058,
      "##र्थि": 9059,
      "किलो": 9060,
      "मुनी": 9061,
      "महीयते": 9062,
      "क्रान्त": 9063,
      "निर्मित": 9064,
      "इत्युक्त्वा": 9065,
      "समूहः": 9066,
      "भ्राता": 9067,
      "ह्रीं": 9068,
      "कद": 9069,
      "कान्": 9070,
      "वति": 9071,
      "शोष": 9072,
      "##गम्य": 9073,
      "##चल": 9074,
      "भवतो": 9075,
      "##ालं": 9076,
      "परिह": 9077,
      "##कारेण": 9078,
      "रिपु": 9079,
      "##चनाः": 9080,
      "वाचं": 9081,
      "(),": 9082,
      "मुनिः": 9083,
      "नाट्य": 9084,
      ">>": 9085,
      "अब": 9086,
      "आयोज": 9087,
      "ऊर्जा": 9088,
      "टै": 9089,
      "पयः": 9090,
      "बान्ध": 9091,
      "ेव": 9092,
      "ैस्": 9093,
      "राज्ञा": 9094,
      "##ज्ञानं": 9095,
      "##मेध": 9096,
      "विशेषा": 9097,
      "दर्शनात्": 9098,
      "गुणैः": 9099,
      "वक्तव्यं": 9100,
      "शक्त्या": 9101,
      "गमन": 9102,
      "न्यायालय": 9103,
      "माध्यम": 9104,
      "०००": 9105,
      "##वस्था": 9106,
      "##गरे": 9107,
      "##्रियं": 9108,
      "ादयो": 9109,
      "##ोपरि": 9110,
      "कुर्वन्तु": 9111,
      "उक्तवान्": 9112,
      "भगवतः": 9113,
      "##हाँ": 9114,
      "onl": 9115,
      "वाताव": 9116,
      "दधि": 9117,
      "वरु": 9118,
      "सतां": 9119,
      "विचि": 9120,
      "भवेद": 9121,
      "##येण": 9122,
      "पूर्णं": 9123,
      "गुप्त": 9124,
      "धर्मेण": 9125,
      "अभिव्यक्ति": 9126,
      "रिपो": 9127,
      "दूरं": 9128,
      "शक्यम्": 9129,
      "वाचक": 9130,
      "तमस्य": 9131,
      "नारद": 9132,
      "पलाय": 9133,
      "स्वातन्त्र्य": 9134,
      "-'": 9135,
      "कफ": 9136,
      "धुं": 9137,
      "मर्या": 9138,
      "सकाश": 9139,
      "##वति": 9140,
      "##ह्व": 9141,
      "प्रणि": 9142,
      "संयोज": 9143,
      "मेत": 9144,
      "तदर्थं": 9145,
      "कालि": 9146,
      "केचि": 9147,
      "कर्तुम": 9148,
      "पञ्चा": 9149,
      "पादौ": 9150,
      "विस्तरेण": 9151,
      "ग्राह्य": 9152,
      "राजनीति": 9153,
      "##ांतरण": 9154,
      "कस्मि": 9155,
      "हत्वा": 9156,
      "ाल": 9157,
      "##जार": 9158,
      "विद्धि": 9159,
      "##ावे": 9160,
      "वर्णः": 9161,
      "कर्तु": 9162,
      "विधौ": 9163,
      "ोऽस्मि": 9164,
      "##धेय": 9165,
      "इन्द्रः": 9166,
      "लिङ्गं": 9167,
      "रूढ": 9168,
      "नौक": 9169,
      "प्रकीर्त": 9170,
      "):": 9171,
      "60": 9172,
      "जन्त": 9173,
      "वन्त": 9174,
      "##य्य": 9175,
      "त्वस्य": 9176,
      "परिष्": 9177,
      "पाहि": 9178,
      "चिं": 9179,
      "##मुद": 9180,
      "त्येव": 9181,
      "चात्र": 9182,
      "##पूर्णं": 9183,
      "अतिश": 9184,
      "सरस्व": 9185,
      "अग्निं": 9186,
      "अस्": 9187,
      "एतं": 9188,
      "ऽति": 9189,
      "६६": 9190,
      "७६": 9191,
      "##लक्ष": 9192,
      "##निष": 9193,
      "इत्युप": 9194,
      "##ब्धः": 9195,
      "धर्मस्य": 9196,
      "गोच": 9197,
      "राष्ट्रं": 9198,
      "नियमा": 9199,
      "सूत्रेण": 9200,
      "विद्वां": 9201,
      "पदोन्नति": 9202,
      "पूँजी": 9203,
      "अक्": 9204,
      "उष्ण": 9205,
      "दस": 9206,
      "##शास": 9207,
      "विषा": 9208,
      "##माणे": 9209,
      "निद्र": 9210,
      "##ावपि": 9211,
      "##तीं": 9212,
      "स्थले": 9213,
      "##मेक": 9214,
      "##प्रत्य": 9215,
      "किंच": 9216,
      "आह्व": 9217,
      "अर्थे": 9218,
      "निश्चित": 9219,
      "निश्चयः": 9220,
      "संवेदन": 9221,
      "उपयोगी": 9222,
      "##हरति": 9223,
      "pro": 9224,
      "आचार्य": 9225,
      "प्राणिनां": 9226,
      "live": 9227,
      "डे": 9228,
      "मप्य": 9229,
      "रपि": 9230,
      "ाथ": 9231,
      "्यः": 9232,
      "##विक": 9233,
      "##भुत": 9234,
      "##णाः": 9235,
      "##आर": 9236,
      "##्यन्ते": 9237,
      "##मिह": 9238,
      "क्षयं": 9239,
      "##च्छ्र": 9240,
      "रूपांतरण": 9241,
      "दृष्टान्त": 9242,
      "मानु": 9243,
      "शाख": 9244,
      "कौन्ते": 9245,
      "मातुः": 9246,
      "प्रणाली": 9247,
      "सङ्गीत": 9248,
      "प्रसिद्धः": 9249,
      "##च्छेदः": 9250,
      "qu": 9251,
      "भङ्ग": 9252,
      "##ज्यं": 9253,
      "प्रकारः": 9254,
      "##त्र्त": 9255,
      "कोट": 9256,
      "##न्नेव": 9257,
      "व्याव": 9258,
      "वृक्षे": 9259,
      "##र्थाय": 9260,
      "सङ्ग्रह": 9261,
      "बीजं": 9262,
      "परमेश्वर": 9263,
      "जायन्ते": 9264,
      "योग्यता": 9265,
      "संशोधन": 9266,
      "असा": 9267,
      "इन्द्रिय": 9268,
      "कन्": 9269,
      "चतुः": 9270,
      "ैत": 9271,
      "६२": 9272,
      "##लेन": 9273,
      "##्यया": 9274,
      "##याद": 9275,
      "एकैक": 9276,
      "उपकरण": 9277,
      "गुज": 9278,
      "##प्रदेश": 9279,
      "वृथा": 9280,
      "नेह": 9281,
      "न्द": 9282,
      "सप्तमी": 9283,
      "वर्णन": 9284,
      "पत्रिका": 9285,
      "##पन्नः": 9286,
      "सुप्रभात": 9287,
      "चाह": 9288,
      "तट": 9289,
      "मप": 9290,
      "६१": 9291,
      "६७": 9292,
      "प्रधानं": 9293,
      "परां": 9294,
      "निबोध": 9295,
      "माघ": 9296,
      "कुर्मः": 9297,
      "नाप": 9298,
      "महता": 9299,
      "कार्यान्व": 9300,
      "त्वाम्": 9301,
      "भुव": 9302,
      "##ेश्वरः": 9303,
      "स्वर्गं": 9304,
      "प्लव": 9305,
      "अनेके": 9306,
      "कन्यां": 9307,
      "मत्वा": 9308,
      "हितम्": 9309,
      "##पौ": 9310,
      "##ूय": 9311,
      "##नाति": 9312,
      "वृक्षा": 9313,
      "##संस्": 9314,
      "शकु": 9315,
      "वेदित": 9316,
      "शास्त्रे": 9317,
      "नियत": 9318,
      "परमार्थ": 9319,
      "मवा": 9320,
      "सीत": 9321,
      "##व्याः": 9322,
      "##सेत्": 9323,
      "स्नि": 9324,
      "##न्दः": 9325,
      "क्षीर": 9326,
      "एकमेव": 9327,
      "##स्थाने": 9328,
      "कर्मणां": 9329,
      "दर्शने": 9330,
      "भेदो": 9331,
      "स्पृष्ट": 9332,
      "चेद्": 9333,
      "विश्वास": 9334,
      "विभक्तिः": 9335,
      "परित्यज्य": 9336,
      "अलं": 9337,
      "तरि": 9338,
      "##थैव": 9339,
      "त्वद्": 9340,
      "किमु": 9341,
      "यत्नतः": 9342,
      "नीच": 9343,
      "सदस्यः": 9344,
      "गीता": 9345,
      "##भोग": 9346,
      "अफ": 9347,
      "ण्य": 9348,
      "धो": 9349,
      "मानि": 9350,
      "##ैकं": 9351,
      "##चेत": 9352,
      "##नेक": 9353,
      "##ज्ञां": 9354,
      "कामा": 9355,
      "बलेन": 9356,
      "रहस्य": 9357,
      "##न्धिं": 9358,
      "क्षिप्र": 9359,
      "शक्नुवन्ति": 9360,
      "यस्मा": 9361,
      "##चित्त": 9362,
      "##स्यसि": 9363,
      "##ृत्व": 9364,
      "सर्वः": 9365,
      "कुलं": 9366,
      "मेध": 9367,
      "चतुष्ट": 9368,
      "आगत्य": 9369,
      "पृथग्": 9370,
      "गमनं": 9371,
      "भ्रमण": 9372,
      "सन्ध्या": 9373,
      "वैश्वदेव": 9374,
      "आदेशः": 9375,
      "तरं": 9376,
      "पङ्": 9377,
      "पतिं": 9378,
      "याय": 9379,
      "ऽसौ": 9380,
      "९५": 9381,
      "##ैश्च": 9382,
      "वास्तव": 9383,
      "समृ": 9384,
      "प्रासाद": 9385,
      "प्रतिकूल": 9386,
      "व्यस": 9387,
      "मितिः": 9388,
      "एतौ": 9389,
      "लोकान्": 9390,
      "विज्ञाय": 9391,
      "आदौ": 9392,
      "41": 9393,
      "आरा": 9394,
      "त०": 9395,
      "ेक": 9396,
      "##sc": 9397,
      "##र्मध्ये": 9398,
      "##ब्दे": 9399,
      "##ृत्ति": 9400,
      "क्रो": 9401,
      "निर्दि": 9402,
      "##भूता": 9403,
      "##स्वि": 9404,
      "##म्बर्": 9405,
      "महाभाग": 9406,
      "वीक्ष्य": 9407,
      "##यितुम्": 9408,
      "ग्रामे": 9409,
      "परमेश्वरः": 9410,
      "शक्नुमः": 9411,
      "चर्चा": 9412,
      "श्रृणु": 9413,
      "इष्यते": 9414,
      "प्त": 9415,
      "फा": 9416,
      "मघ": 9417,
      "मान्": 9418,
      "##नौ": 9419,
      "विख्या": 9420,
      "निशि": 9421,
      "पुरी": 9422,
      "##ेशे": 9423,
      "सुविधा": 9424,
      "##राग": 9425,
      "स्थानि": 9426,
      "तिर": 9427,
      "##स्थे": 9428,
      "अपा": 9429,
      "##पदम्": 9430,
      "2016": 9431,
      "निवर्तते": 9432,
      "वैश्वान": 9433,
      "यथाक्रमम्": 9434,
      "49": 9435,
      "म्रियते": 9436,
      "वेत्": 9437,
      "वर्य": 9438,
      "सखि": 9439,
      "पर्याय": 9440,
      "पुट": 9441,
      "प्राकृत": 9442,
      "गुणो": 9443,
      "##षेधे": 9444,
      "पाठ्य": 9445,
      "नित्यम्": 9446,
      "उद्घा": 9447,
      "अत्यन्तं": 9448,
      "यास": 9449,
      "सैव": 9450,
      "६९": 9451,
      "##ंद": 9452,
      "##ानम्": 9453,
      "##ानीं": 9454,
      "##ार्य": 9455,
      "समः": 9456,
      "कारेण": 9457,
      "दिनम्": 9458,
      "##वाणी": 9459,
      "##मेय": 9460,
      "स्यान्": 9461,
      "समासः": 9462,
      "कोश": 9463,
      "शिल्प": 9464,
      "कार्": 9465,
      "##भावात्": 9466,
      "##स्थितः": 9467,
      "##र्षे": 9468,
      "साध्या": 9469,
      "त्रया": 9470,
      "मुक्तं": 9471,
      "सरकारं": 9472,
      "शत्रू": 9473,
      "आरब्ध": 9474,
      "बन्धु": 9475,
      "साक्षी": 9476,
      "प्रजापति": 9477,
      "स्मृतिः": 9478,
      "स्थितौ": 9479,
      "सम्प्रसार": 9480,
      "##पुरुषः": 9481,
      "all": 9482,
      "खल्व": 9483,
      "आन्दोलन": 9484,
      "कॉ": 9485,
      "झी": 9486,
      "यित": 9487,
      "वन्": 9488,
      "ाक्ष": 9489,
      "ाप्य": 9490,
      "िनः": 9491,
      "८६": 9492,
      "##कथं": 9493,
      "##ित्यं": 9494,
      "##स्त्रि": 9495,
      "प्रतिमा": 9496,
      "हिरण्य": 9497,
      "गुणं": 9498,
      "##व्यो": 9499,
      "##वादः": 9500,
      "ोऽसि": 9501,
      "आगतः": 9502,
      "ावस्था": 9503,
      "शेषे": 9504,
      "प्रभृति": 9505,
      "विचारः": 9506,
      "समाप्तम्": 9507,
      "हिताय": 9508,
      ".)": 9509,
      "अ०": 9510,
      "आचर": 9511,
      "नयन": 9512,
      "यन्न": 9513,
      "शंस": 9514,
      "ऽस्य": 9515,
      "##दाः": 9516,
      "##मान्त": 9517,
      "##ग्नी": 9518,
      "मनसः": 9519,
      "व्यास": 9520,
      "##ञ्चन": 9521,
      "मानो": 9522,
      "वाचा": 9523,
      "तावद": 9524,
      "समन्वितः": 9525,
      "वैज्ञानिक": 9526,
      "42": 9527,
      "47": 9528,
      "my": 9529,
      "औष": 9530,
      "८४": 9531,
      "विंशति": 9532,
      "##ारु": 9533,
      "स्वाद": 9534,
      "स्वात्म": 9535,
      "भा०": 9536,
      "उपयुक्त": 9537,
      "मूर्ध": 9538,
      "##भूय": 9539,
      "बलात्": 9540,
      "##ence": 9541,
      "##ेयुः": 9542,
      "and": 9543,
      "द्रष्टव्यम्": 9544,
      "समर्थन": 9545,
      "गन्तुं": 9546,
      "भ्रातृ": 9547,
      "वृत": 9548,
      "##िणी": 9549,
      "##ज्ञे": 9550,
      "शिष्ट": 9551,
      "अपह": 9552,
      "शब्दाः": 9553,
      "पृष्ठानां": 9554,
      "जातु": 9555,
      "उभे": 9556,
      "आरभ": 9557,
      "##वासरे": 9558,
      "##बिम्ब": 9559,
      "मङ्गल": 9560,
      "सार्धं": 9561,
      "##सहस्राणि": 9562,
      "औसत": 9563,
      "केषु": 9564,
      "रसः": 9565,
      "ार्": 9566,
      "##बे": 9567,
      "परतः": 9568,
      "संग्रह": 9569,
      "वाऽ": 9570,
      "साङ्": 9571,
      "तदर्थ": 9572,
      "अपश्य": 9573,
      "श्रुतेः": 9574,
      "प्रयच्छति": 9575,
      "प्रोक्तो": 9576,
      "अभी": 9577,
      "स्फुर": 9578,
      "##पन्ना": 9579,
      "##ादेशः": 9580,
      "वय्कलं": 9581,
      "पूर्ब्ब": 9582,
      "भृत्य": 9583,
      "ार्ध": 9584,
      "्यं": 9585,
      "##ंद्र": 9586,
      "##टिक": 9587,
      "##ृते": 9588,
      "##चुः": 9589,
      "समर्थः": 9590,
      "तेजः": 9591,
      "मुमु": 9592,
      "विशुद्ध": 9593,
      "क्षो": 9594,
      "दिवः": 9595,
      "##ेतं": 9596,
      "एतच्च": 9597,
      "मध्याह": 9598,
      "प्रत्यया": 9599,
      "वृष्टि": 9600,
      "धर्मे": 9601,
      "युक्तो": 9602,
      "त्वादिति": 9603,
      "आगम": 9604,
      "प्रकरणम्": 9605,
      "##पद्यत": 9606,
      "प्रस्तुत": 9607,
      "la": 9608,
      "इय": 9609,
      "जर्म": 9610,
      "धान्य": 9611,
      "धइगु": 9612,
      "नये": 9613,
      "लभ्य": 9614,
      "सन्तः": 9615,
      "विभव": 9616,
      "विमो": 9617,
      "एवै": 9618,
      "##मानो": 9619,
      "काला": 9620,
      "कालस्य": 9621,
      "देशकाल": 9622,
      "भिक्ष": 9623,
      "वेष्ट": 9624,
      "१९३": 9625,
      "जलम्": 9626,
      "प्रदत्त": 9627,
      "अन्वेष": 9628,
      "तद्वत्": 9629,
      "विचक्षण": 9630,
      "ध्यात्वा": 9631,
      "रूपि": 9632,
      "स्तोत्र": 9633,
      "पृथिवीं": 9634,
      "लिखितानां": 9635,
      "चोर": 9636,
      "ट्": 9637,
      "ताद": 9638,
      "थौं": 9639,
      "रतः": 9640,
      "सॊ": 9641,
      "ोक्तं": 9642,
      "प्रसीद": 9643,
      "##स्ततः": 9644,
      "##कारो": 9645,
      "तत्काल": 9646,
      "दीक्ष": 9647,
      "विद्यालयं": 9648,
      "क्रियां": 9649,
      "सूर्यस्य": 9650,
      "च्छि": 9651,
      "अकथ": 9652,
      "चक्रे": 9653,
      "read": 9654,
      "विरोधि": 9655,
      "अर्हति": 9656,
      "इमा": 9657,
      "ज्": 9658,
      "दः": 9659,
      "##्ने": 9660,
      "मासि": 9661,
      "वैशिष्ट": 9662,
      "जन्य": 9663,
      "अनुमान": 9664,
      "काण्ड": 9665,
      "लोकाः": 9666,
      "पुत्राः": 9667,
      "ग्रे": 9668,
      "##म्बु": 9669,
      "##दीयं": 9670,
      "्यां": 9671,
      "नृणां": 9672,
      "तत्त्वतः": 9673,
      "अभय": 9674,
      "इत्युक्तम्": 9675,
      "प्रत्ययस्य": 9676,
      "##ous": 9677,
      "बृहत्": 9678,
      "रीत्या": 9679,
      "पद्धति": 9680,
      "व्यभिचार": 9681,
      "ख्य": 9682,
      "गग": 9683,
      "जरा": 9684,
      "बर": 9685,
      "मः": 9686,
      "०८": 9687,
      "##सान": 9688,
      "##परे": 9689,
      "##च्व": 9690,
      "वासः": 9691,
      "##त्तो": 9692,
      "स्ता": 9693,
      "स्तेषां": 9694,
      "देवेश": 9695,
      "##काङ्": 9696,
      "##साम्": 9697,
      "भिक्षु": 9698,
      "##पाठ": 9699,
      "१९१": 9700,
      "ततस्": 9701,
      "रात्रिः": 9702,
      "##भाषत": 9703,
      "##गम्यते": 9704,
      "पृथ्वी": 9705,
      "प्रणम्य": 9706,
      "परिवर्तनं": 9707,
      "सम्प्रा": 9708,
      "ग्रन्थः": 9709,
      "ख्याति": 9710,
      "विधानेन": 9711,
      "पीडा": 9712,
      "औपचारिक": 9713,
      "अर्थं": 9714,
      "शान": 9715,
      "##दात्म": 9716,
      "त्वमपि": 9717,
      "प्राथम": 9718,
      "भाई": 9719,
      "अथो": 9720,
      "दृष्टिः": 9721,
      "जाते": 9722,
      "जागर": 9723,
      "##ञ्जीत": 9724,
      "पठन्ति": 9725,
      "प्रदक्षि": 9726,
      "कुरुत": 9727,
      "##प्नुयात्": 9728,
      "कार्यान्वयन": 9729,
      "मर": 9730,
      "मन्": 9731,
      "वणि": 9732,
      "##चितम्": 9733,
      "निगम": 9734,
      "किय": 9735,
      "##रोह": 9736,
      "##रिव": 9737,
      "कृताः": 9738,
      "निर्भ": 9739,
      "कार्य्य": 9740,
      "राष्ट्रस्य": 9741,
      "आगच्छति": 9742,
      "अत्यधिक": 9743,
      "दूरभाष": 9744,
      "बृहस्प": 9745,
      "##बुद्ध": 9746,
      "स्तोत्रं": 9747,
      "स्वतन्त्रता": 9748,
      "चत्वारः": 9749,
      "माध्यमेन": 9750,
      "55": 9751,
      "अष्टा": 9752,
      "आशि": 9753,
      "उगु": 9754,
      "णे": 9755,
      "फ्र": 9756,
      "भीत": 9757,
      "शाला": 9758,
      "सानु": 9759,
      "##ठा": 9760,
      "मेल": 9761,
      "याग": 9762,
      "शिरो": 9763,
      "भ्रष्टा": 9764,
      "##धेः": 9765,
      "शृङ्ग": 9766,
      "##शुभ": 9767,
      "मण्डलं": 9768,
      "##ड़ा": 9769,
      "दण्डः": 9770,
      "##गृहे": 9771,
      "दुर्लभं": 9772,
      "चक्षुः": 9773,
      "खाद्य": 9774,
      "तल": 9775,
      "तरु": 9776,
      "पप्र": 9777,
      "ास्ति": 9778,
      "ीकरण": 9779,
      "##वते": 9780,
      "वर्ति": 9781,
      "कदाचि": 9782,
      "जुयाः": 9783,
      "र्थे": 9784,
      "क्रियाः": 9785,
      "वित्तं": 9786,
      "अथातः": 9787,
      "वस्तूनि": 9788,
      "सनातनः": 9789,
      "इन": 9790,
      "कपाल": 9791,
      "गः": 9792,
      "गल": 9793,
      "चाय": 9794,
      "मर्द": 9795,
      "शनि": 9796,
      "सित": 9797,
      "ाध्य": 9798,
      "##गता": 9799,
      "##ावा": 9800,
      "वर्गे": 9801,
      "व्यञ्ज": 9802,
      "रिश्त": 9803,
      "दिवसः": 9804,
      "पेक्षा": 9805,
      "ान्तरं": 9806,
      "ज्ञातुं": 9807,
      "किमर्थम्": 9808,
      "##ore": 9809,
      "धर्म्म": 9810,
      "प्रत्यक्षं": 9811,
      "मतदान": 9812,
      "मित्राणि": 9813,
      "भर्ती": 9814,
      "थःगु": 9815,
      "हानिः": 9816,
      "आत्": 9817,
      "जल्प": 9818,
      "द्रा": 9819,
      "ारम्भ": 9820,
      "##यमा": 9821,
      "##मह": 9822,
      "भवत": 9823,
      "##नाथ": 9824,
      "##ालि": 9825,
      "##रेन्द्र": 9826,
      "क्षति": 9827,
      "क्षिति": 9828,
      "युध्य": 9829,
      "शक्यः": 9830,
      "सदस": 9831,
      "विज्ञायते": 9832,
      "विभागे": 9833,
      "रहस्यं": 9834,
      "इतिहासः": 9835,
      "ऊर्ध्व": 9836,
      "46": 9837,
      "आवाह": 9838,
      "नानु": 9839,
      "यशो": 9840,
      "ऽह": 9841,
      "##भृत": 9842,
      "तुष्ट": 9843,
      "प्राणः": 9844,
      "दिल": 9845,
      "##ष्यन्ति": 9846,
      "कृत्रि": 9847,
      "जनो": 9848,
      "अपरं": 9849,
      "इत्यादौ": 9850,
      "स्थानानि": 9851,
      "रेफ": 9852,
      "आरक्षण": 9853,
      "##खिलं": 9854,
      "ज्वर": 9855,
      "अष्टादश": 9856,
      "द्वन्द्व": 9857,
      "कॊ": 9858,
      "घु": 9859,
      "रः": 9860,
      "ाधिप": 9861,
      "ापेक्षया": 9862,
      "##साम": 9863,
      "##कूगु": 9864,
      "##्यर्थं": 9865,
      "सर्वदेव": 9866,
      "कार्यो": 9867,
      "##ल्पि": 9868,
      "दिशो": 9869,
      "करोतुः": 9870,
      "शाखा": 9871,
      "हेतुना": 9872,
      "मार्गं": 9873,
      "भुज": 9874,
      "ितुं": 9875,
      "विमर्श": 9876,
      "श्रेणी": 9877,
      "##राज्यस्य": 9878,
      "फोटो": 9879,
      "राजधानी": 9880,
      "एति": 9881,
      "रत": 9882,
      "##स्तस्य": 9883,
      "जानासि": 9884,
      "तृतीयं": 9885,
      "संबन्धि": 9886,
      "भाष्यम्": 9887,
      "परिसन्धिं": 9888,
      "##च्छिन्न": 9889,
      "वैदिक": 9890,
      "गाः": 9891,
      "बला": 9892,
      "यैः": 9893,
      "शश": 9894,
      "##दित": 9895,
      "##यिष्यति": 9896,
      "##कां": 9897,
      "##थम्": 9898,
      "##ँय्": 9899,
      "सर्वश्रेष्ठ": 9900,
      "##ालः": 9901,
      "##रात्रे": 9902,
      "##रिया": 9903,
      "उपदेश": 9904,
      "##र्गत": 9905,
      "##स्थं": 9906,
      "##क्षणिक": 9907,
      "पुनश्च": 9908,
      "प्राप्तो": 9909,
      "गुणव": 9910,
      "##पदः": 9911,
      "कुर्वीत": 9912,
      "##ल्यू": 9913,
      "आसन": 9914,
      "लेखा": 9915,
      "प्रवृत्तिः": 9916,
      "व्यवस्थापन": 9917,
      "छात्रः": 9918,
      "##पृथि": 9919,
      "नक्षत्र": 9920,
      "ol": 9921,
      "अन्": 9922,
      "दम": 9923,
      "पां": 9924,
      "श्वा": 9925,
      "##यर": 9926,
      "##im": 9927,
      "##र्स": 9928,
      "पराव": 9929,
      "संयम": 9930,
      "##र्थक": 9931,
      "माने": 9932,
      "ाद्या": 9933,
      "##कम्प": 9934,
      "तमवर्ष": 9935,
      "##भाषण": 9936,
      "vii": 9937,
      "व्रजेत्": 9938,
      "सावधान": 9939,
      "द्योत": 9940,
      "अवा": 9941,
      "अग्न": 9942,
      "चक": 9943,
      "ाख्यं": 9944,
      "##ंस्": 9945,
      "विग्रह": 9946,
      "##ङ्क्ते": 9947,
      "परिहार": 9948,
      "परिपूर्ण": 9949,
      "##ीयत": 9950,
      "अवलोक": 9951,
      "__२": 9952,
      "देय": 9953,
      "##न्मुक्त": 9954,
      "भविष्यसि": 9955,
      "करणम्": 9956,
      "कलौ": 9957,
      "विचार्य": 9958,
      "धर्मि": 9959,
      "ध्रुव": 9960,
      "चक्षुषा": 9961,
      "शङ्ख": 9962,
      "con": 9963,
      "ज्य": 9964,
      "तये": 9965,
      "वये": 9966,
      "सान्": 9967,
      "सोप": 9968,
      "ह्यः": 9969,
      "८९": 9970,
      "##वक्ष्यामि": 9971,
      "##चु": 9972,
      "##ड्य": 9973,
      "##ak": 9974,
      "##आई": 9975,
      "##ानेन": 9976,
      "विभू": 9977,
      "नाटक": 9978,
      "स्थूल": 9979,
      "पाखे": 9980,
      "काचित्": 9981,
      "शाप": 9982,
      "गोष्ठ": 9983,
      "पुरस्त": 9984,
      "भीम": 9985,
      "शुद्धं": 9986,
      "प्रयुक्तम्": 9987,
      "संवत्सरे": 9988,
      "मर्त्य": 9989,
      "सामर्थ्य": 9990,
      "sc": 9991,
      "गवां": 9992,
      "##महे": 9993,
      "##सरे": 9994,
      "##कानि": 9995,
      "विरु": 9996,
      "##माणं": 9997,
      "संच": 9998,
      "वासु": 9999
    }
  }
}