<unk>	0
<s>	0
</s>	0
▁स	-0
▁ा	-1
्य	-2
▁त	-3
▁प	-4
▁व	-5
्र	-6
▁क	-7
▁म	-8
▁न	-9
▁।	-10
्त	-11
▁य	-12
▁े	-13
▁ि	-14
र्	-15
▁ं	-16
▁द	-17
▁अ	-18
▁ः	-19
्व	-20
▁र	-21
▁भ	-22
▁श	-23
▁प्र	-24
ति	-25
▁च	-26
▁वि	-27
▁ो	-28
▁ज	-29
▁-	-30
▁ग	-31
त्	-32
▁्य	-33
▁ह	-34
▁्	-35
ान	-36
▁इ	-37
▁ी	-38
▁ल	-39
ष्	-40
ार	-41
▁म्	-42
▁ान	-43
▁ु	-44
▁ध	-45
्ष	-46
▁॥	-47
▁्र	-48
▁ए	-49
ित	-50
▁,	-51
ां	-52
▁.	-53
▁ब	-54
म्	-55
▁स्य	-56
▁र्	-57
▁ते	-58
▁आ	-59
▁स्	-60
न्	-61
▁"	-62
▁नि	-63
▁वा	-64
र्व	-65
▁ित	-66
ृत	-67
क्ष	-68
द्	-69
त्र	-70
▁सं	-71
ाम	-72
▁उ	-73
▁पर	-74
्ति	-75
था	-76
▁पु	-77
्च	-78
▁्व	-79
्या	-80
ष्ट	-81
▁भव	-82
▁(	-83
▁ै	-84
▁ण	-85
▁त्व	-86
▁मा	-87
क्त	-88
ेव	-89
▁ाः	-90
▁सम	-91
▁१	-92
▁इति	-93
▁या	-94
▁ति	-95
▁ेन	-96
त्य	-97
ते	-98
▁रा	-99
▁सर्व	-100
स्	-101
पि	-102
▁ाद	-103
▁भा	-104
▁एव	-105
▁न्त	-106
▁न्	-107
▁यो	-108
▁तु	-109
▁स्व	-110
▁क्ष	-111
▁सा	-112
स्य	-113
▁कर	-114
्ञ	-115
या	-116
▁'	-117
ङ्	-118
▁कार	-119
र्थ	-120
▁२	-121
▁_	-122
▁का	-123
▁)	-124
द्ध	-125
▁त्	-126
▁1	-127
▁स्त	-128
▁सु	-129
न्त	-130
▁ाय	-131
▁ख	-132
▁ू	-133
▁ात्	-134
▁त्र	-135
ना	-136
▁मु	-137
▁हि	-138
मा	-139
▁०	-140
ेश	-141
दा	-142
▁वर्	-143
▁िक	-144
▁कि	-145
िक	-146
▁व्य	-147
▁पू	-148
▁पा	-149
तः	-150
स्त	-151
▁अन	-152
▁ना	-153
▁्या	-154
▁यु	-155
▁ष	-156
▁ार	-157
▁ता	-158
▁इत्य	-159
▁दि	-160
▁ौ	-161
▁स्थ	-162
▁ेष	-163
▁ज्ञ	-164
▁क्र	-165
्न	-166
र्म	-167
▁कु	-168
▁2	-169
▁?	-170
▁देव	-171
▁ाण	-172
▁ये	-173
▁्त	-174
मि	-175
▁श्र	-176
्छ	-177
▁ानि	-178
ष्ठ	-179
▁भू	-180
▁ऽ	-181
▁यद	-182
▁पि	-183
त्त	-184
▁मह	-185
▁यथा	-186
▁ाप	-187
▁ृ	-188
▁0	-189
▁राज	-190
▁मे	-191
▁दृ	-192
▁ट	-193
▁कृत	-194
▁प्रति	-195
▁द्व	-196
▁घ	-197
▁अस	-198
▁एक	-199
ात	-200
▁गु	-201
▁थ	-202
ूप	-203
यं	-204
▁मान	-205
ेष	-206
▁परि	-207
ेद	-208
▁३	-209
▁विश	-210
▁फ	-211
▁ानां	-212
▁ङ्	-213
▁पुन	-214
▁ाव	-215
▁वर	-216
िय	-217
▁सह	-218
▁श्च	-219
▁दु	-220
▁तथा	-221
▁ग्र	-222
▁ास	-223
▁तद	-224
▁भि	-225
▁४	-226
ेत	-227
▁नु	-228
द्य	-229
ाय	-230
▁तत्	-231
▁काल	-232
▁्वा	-233
▁ेण	-234
श्च	-235
▁सि	-236
भा	-237
श्य	-238
▁ेव	-239
▁त्य	-240
▁सू	-241
ीय	-242
ान्	-243
द्र	-244
▁तः	-245
▁देश	-246
▁५	-247
▁ार्थ	-248
▁भवति	-249
▁ेषु	-250
▁ां	-251
▁िन	-252
▁रूप	-253
च्छ	-254
▁यति	-255
▁रि	-256
▁ाह	-257
ब्	-258
▁रु	-259
ोक	-260
ेन	-261
रण	-262
▁वै	-263
ता	-264
▁वर्ष	-265
▁ादि	-266
▁ान्	-267
▁॒	-268
▁िः	-269
ीत	-270
▁कथ	-271
▁मन	-272
▁पुर	-273
▁उप	-274
ृह	-275
▁किं	-276
▁र्थ	-277
▁ाल	-278
▁पूर्व	-279
▁ैः	-280
ध्य	-281
▁न्य	-282
▁तस्य	-283
▁यत्	-284
▁शि	-285
▁ेत	-286
▁सम्	-287
भि	-288
▁मि	-289
▁गृह	-290
▁ीय	-291
▁ड	-292
▁९	-293
▁भाष	-294
▁जन	-295
▁पद	-296
▁ान्त	-297
▁प्रा	-298
▁भाव	-299
यो	-300
▁द्	-301
▁3	-302
▁योग	-303
▁/	-304
▁६	-305
ञ्च	-306
ास	-307
▁एत	-308
▁अपि	-309
▁छ	-310
न्द	-311
▁विष	-312
▁र्त	-313
ैव	-314
▁ोऽ	-315
▁यदि	-316
▁:	-317
▁विध	-318
▁कृ	-319
▁७	-320
र्ण	-321
यः	-322
▁नाम	-323
▁८	-324
▁कर्म	-325
्ड	-326
्प	-327
ाद	-328
ाल	-329
▁तत्र	-330
▁ाम	-331
▁लोक	-332
▁शक	-333
▁रो	-334
ब्द	-335
▁न्ति	-336
▁लि	-337
▁वृत	-338
▁धिक	-339
▁याम	-340
▁कल	-341
▁त्त	-342
▁धर्म	-343
▁को	-344
▁अस्ति	-345
▁वृ	-346
▁्म	-347
▁ज्ञान	-348
न्ध	-349
▁मम	-350
र्श	-351
ाः	-352
▁!	-353
▁गुण	-354
भव	-355
क्	-356
▁जी	-357
्ल	-358
▁गत	-359
▁शब्द	-360
ये	-361
▁ात	-362
▁िद	-363
▁4	-364
▁कार्य	-365
▁एवं	-366
▁बह	-367
▁स्म	-368
▁॑	-369
ीर	-370
▁ष्ट	-371
न्न	-372
▁अध	-373
▁अह	-374
▁न्त्र	-375
▁वृत्त	-376
िष्	-377
ङ्ग	-378
▁शु	-379
▁दृष्ट	-380
▁5	-381
▁ेति	-382
▁तम	-383
▁व्या	-384
▁ृत	-385
▁पुनः	-386
▁के	-387
ुत	-388
▁अथ	-389
▁मित	-390
▁ाणि	-391
▁अनु	-392
▁निर्	-393
▁त्वं	-394
▁ती	-395
्वा	-396
▁मध्य	-397
▁जीव	-398
▁धन	-399
▁ाप्त	-400
व्य	-401
▁फल	-402
▁भूत	-403
मान	-404
न्ति	-405
▁द्य	-406
ाह	-407
▁ेश	-408
▁तव	-409
▁भाग	-410
▁यां	-411
्ज	-412
▁ुर	-413
कृत	-414
प्त	-415
▁विद्य	-416
वि	-417
▁पुत्र	-418
ुष	-419
▁[	-420
▁युक्त	-421
र्ग	-422
▁ाध	-423
▁दर्श	-424
▁ॊ	-425
▁अप	-426
▁मू	-427
▁ैव	-428
ज्ञ	-429
▁वेद	-430
▁महा	-431
▁यः	-432
▁्थ	-433
▁कर्त	-434
▁वे	-435
▁ततः	-436
▁भार	-437
▁विशेष	-438
नि	-439
▁=	-440
▁लक्ष	-441
ोत	-442
▁समा	-443
▁्मि	-444
▁ित्	-445
▁पृ	-446
▁s	-447
्यं	-448
▁रक्ष	-449
▁िर	-450
▁वस	-451
▁तेन	-452
▁िति	-453
गु	-454
भ्य	-455
▁त्रि	-456
▁दश	-457
▁ुक्त	-458
▁सिद्ध	-459
▁विश्व	-460
▁तस्	-461
▁9	-462
▁तदा	-463
तो	-464
▁ाग	-465
▁ङ्ग	-466
▁्मिन्	-467
▁दी	-468
▁ग्रह	-469
▁8	-470
्वर	-471
▁कल्प	-472
▁वर्त	-473
▁आस	-474
हि	-475
का	-476
▁सः	-477
▁तो	-478
▁चित	-479
▁ई	-480
▁करो	-481
▁स्थित	-482
ेत्	-483
▁चि	-484
▁6	-485
▁द्वि	-486
चन	-487
कार	-488
▁न्द्र	-489
▁शा	-490
त्तर	-491
▁दिन	-492
ुं	-493
मन	-494
ख्य	-495
▁दृश्य	-496
▁दे	-497
▁वान्	-498
▁न्ते	-499
▁7	-500
▁दान	-501
▁ाच	-502
▁क्षि	-503
▁करण	-504
▁जा	-505
▁तद्	-506
▁केव	-507
▁योज	-508
▁बहु	-509
▁्त्र	-510
▁पी	-511
▁क्रम	-512
▁केवल	-513
▁्यते	-514
▁धार	-515
भाव	-516
▁n	-517
▁िय	-518
▁]	-519
▁िं	-520
▁ला	-521
▁तेष	-522
▁अन्य	-523
▁ेः	-524
▁ोप	-525
प्र	-526
▁मेव	-527
▁ाणां	-528
▁िव	-529
▁ने	-530
▁वन	-531
▁क्रिय	-532
▁भेद	-533
▁बल	-534
▁यामि	-535
्याय	-536
दं	-537
▁ञ	-538
▁प्रथ	-539
ोध	-540
▁ानु	-541
▁कथं	-542
रे	-543
▁च्छ	-544
तु	-545
▁पित	-546
▁ात्र	-547
▁ोक्त	-548
▁स्तु	-549
▁याः	-550
▁t	-551
▁हित	-552
▁न्न	-553
▁ापि	-554
ोष	-555
▁बु	-556
▁्ल	-557
▁मया	-558
▁िण	-559
▁पुरुष	-560
▁तं	-561
▁सुख	-562
▁वर्ण	-563
▁औ	-564
▁र्व	-565
▁न्द	-566
▁प्रथम	-567
▁+	-568
▁री	-569
च्य	-570
▁;	-571
▁अव	-572
▁सो	-573
▁ऋ	-574
▁वाद	-575
▁काम	-576
▁अत्र	-577
▁दू	-578
▁ामि	-579
ेण	-580
▁दा	-581
▁राष्ट	-582
▁स्थान	-583
▁साध	-584
▁दुः	-585
्यते	-586
▁अभि	-587
्म	-588
▁कारण	-589
्नि	-590
गर	-591
▁नम	-592
▁्प	-593
ीत्	-594
▁हं	-595
▁जल	-596
ती	-597
▁न्व	-598
रु	-599
▁अहं	-600
ण्ड	-601
▁क्	-602
ेक	-603
▁वद	-604
▁--	-605
▁भविष्	-606
▁सप्त	-607
ीन	-608
चार	-609
▁वचन	-610
वा	-611
▁सम्प	-612
▁भाषा	-613
योग	-614
▁मो	-615
▁जात	-616
▁तर	-617
▁विषय	-618
▁एष	-619
▁ेऽ	-620
▁र्म	-621
ष्ण	-622
▁राज्य	-623
▁रण	-624
▁S	-625
▁अत	-626
▁हर	-627
▁पूज	-628
▁कः	-629
ृद	-630
थि	-631
▁निर	-632
▁ितः	-633
▁र्तते	-634
▁जग	-635
▁परम	-636
▁मत	-637
▁ार्	-638
▁अर्थ	-639
▁भारत	-640
ष्य	-641
▁ुं	-642
▁तर्	-643
▁क्त	-644
▁ष्ठ	-645
यम	-646
▁मां	-647
▁्ब	-648
▁भो	-649
ेय	-650
▁रस	-651
▁तया	-652
▁*	-653
▁य्	-654
▁गच्छ	-655
▁भ्य	-656
र्य	-657
▁गो	-658
▁ृष्ठ	-659
▁ाक्ष	-660
▁भिः	-661
▁चा	-662
▁तां	-663
वस	-664
▁शत	-665
▁ध्य	-666
▁मध्ये	-667
▁वत्	-668
▁यत्र	-669
▁्रा	-670
▁शी	-671
▁दुःख	-672
▁नो	-673
ानि	-674
▁ेत्	-675
▁सौ	-676
▁िश	-677
▁्यात्	-678
सा	-679
▁ठ	-680
▁ात्म	-681
स्तु	-682
▁ालय	-683
▁पश्य	-684
▁a	-685
▁हे	-686
▁ॐ	-687
▁ाक	-688
▁दोष	-689
▁लक्षण	-690
▁नं	-691
▁शक्ति	-692
▁ाश	-693
▁पे	-694
▁्न	-695
▁नी	-696
▁श्व	-697
▁काले	-698
▁मूल	-699
▁क्षिण	-700
न्म	-701
▁तस	-702
▁तस्मा	-703
▁धिकार	-704
▁मात्र	-705
▁से	-706
▁वाक	-707
▁यम	-708
ित्य	-709
▁भग	-710
▁वार	-711
▁िका	-712
▁विना	-713
▁यदा	-714
▁सर्वे	-715
ृश	-716
▁अतः	-717
▁ँ	-718
▁येत्	-719
▁्रि	-720
▁ब्र	-721
▁उत्तर	-722
▁पञ्च	-723
▁आसीत्	-724
▁हृद	-725
▁्यं	-726
▁वृद्ध	-727
▁कदा	-728
▁हेत	-729
▁धि	-730
▁करोति	-731
▁क्षेत	-732
▁ैक	-733
▁संस	-734
▁धा	-735
▁्ध	-736
▁्रह	-737
▁योः	-738
▁विक	-739
▁्यां	-740
देश	-741
▁बुद्ध	-742
▁m	-743
यु	-744
▁क्व	-745
▁i	-746
पर	-747
▁बाल	-748
ङ्क	-749
▁मिति	-750
▁ाद्	-751
▁माण	-752
▁श्रुत	-753
▁ओ	-754
▁ैर्	-755
▁ुप	-756
▁शक्य	-757
▁सद	-758
▁A	-759
▁नमः	-760
▁तेषां	-761
▁मय	-762
▁िता	-763
▁वाक्य	-764
▁मान्य	-765
▁िह	-766
▁त्स	-767
▁च्च	-768
▁िम	-769
▁__	-770
▁पक्ष	-771
▁ेभ्य	-772
▁िल	-773
▁शर	-774
▁यस	-775
▁मुख	-776
रा	-777
▁अन्त	-778
▁कुर्व	-779
▁भवेत्	-780
▁राम	-781
▁ण्ड	-782
त्प	-783
▁ास्	-784
▁संश	-785
▁क्षण	-786
▁e	-787
▁ीति	-788
▁परा	-789
▁ास्ति	-790
▁्त्री	-791
▁व्र	-792
▁प्राण	-793
▁पूर्ण	-794
▁सी	-795
▁मुक्त	-796
▁नगर	-797
▁इत	-798
स्र	-799
▁सर्वं	-800
षे	-801
▁दत्त	-802
▁बन्ध	-803
▁जन्म	-804
▁यं	-805
▁तथ	-806
▁ान्तर	-807
▁रे	-808
्यात	-809
▁स्प	-810
▁्ट	-811
▁पर्य	-812
▁ज्ञात	-813
▁ाभ	-814
ून	-815
▁अग	-816
▁अस्य	-817
▁तर्हि	-818
▁शेष	-819
काश	-820
▁सूच	-821
▁जाय	-822
▁ित्य	-823
ान्त	-824
▁दर्शन	-825
▁ेक	-826
▁यस्य	-827
▁तत	-828
▁एवम	-829
▁भय	-830
▁पाप	-831
▁्री	-832
▁स्कृत	-833
▁भगव	-834
▁इदं	-835
▁घट	-836
▁द्र	-837
▁चर	-838
▁परं	-839
▁ीन	-840
▁था	-841
▁निव	-842
यन	-843
▁सहस्र	-844
▁्यक्त	-845
▁नव	-846
▁त्यय	-847
▁ज्ज	-848
▁चार	-849
▁सत्य	-850
दि	-851
▁शास्त	-852
▁ाभि	-853
▁यज्ञ	-854
▁ेषां	-855
▁विधि	-856
▁यन्ति	-857
▁c	-858
च्च	-859
▁ऊ	-860
▁वाच	-861
▁र्ष	-862
र्त	-863
▁हस्त	-864
ष्म	-865
▁यत	-866
▁सदा	-867
▁नर	-868
▁I	-869
▁ाना	-870
▁्वर	-871
▁साम	-872
▁वास	-873
▁वयं	-874
▁र्ज	-875
▁नां	-876
▁ले	-877
▁्मा	-878
▁वय	-879
▁पुं	-880
▁किम	-881
▁पाठ	-882
▁र्थः	-883
▁प्रिय	-884
न्तु	-885
▁o	-886
▁इव	-887
▁की	-888
▁यू	-889
▁णा	-890
▁मार्ग	-891
▁ञ्च	-892
▁पठ	-893
▁इह	-894
▁मास	-895
धान	-896
▁म्ब	-897
▁सन्ति	-898
▁ेत्य	-899
र्ष	-900
▁नियम	-901
▁अयं	-902
▁झ	-903
▁्रह्म	-904
▁T	-905
▁व्याप	-906
▁>	-907
▁यद्	-908
▁विद	-909
▁प्य	-910
▁वर्षे	-911
▁गण	-912
▁यात	-913
▁मित्र	-914
▁पुनर्	-915
माण	-916
▁सेव	-917
▁र्ध	-918
▁त्त्व	-919
▁शिक्ष	-920
▁ततो	-921
▁ञ्ज	-922
▁और	-923
▁येन	-924
▁पुनर	-925
▁वाह	-926
▁धान	-927
▁ह्य	-928
▁देह	-929
▁ङ्क	-930
▁द्ध	-931
▁ेय	-932
▁ंत	-933
▁ेद	-934
ीं	-935
▁भ्र	-936
▁ाम्	-937
थाप	-938
▁त्या	-939
▁ानाम	-940
▁्यक्ष	-941
णा	-942
त्तम	-943
▁ेश्वर	-944
▁ल्	-945
▁यत्न	-946
▁विभा	-947
▁िनः	-948
▁केवलं	-949
▁मी	-950
▁ढ	-951
▁ृत्वा	-952
त्व	-953
▁ीत	-954
▁P	-955
▁काश	-956
▁यित	-957
▁शुभ	-958
▁वक्त	-959
▁मृत	-960
▁चित्र	-961
दृश	-962
▁्वि	-963
▁न्याय	-964
▁ख्यात	-965
▁ान्य	-966
ब्ध	-967
स्थ	-968
▁र्य	-969
▁हार	-970
िर	-971
▁्रश	-972
▁वस्तु	-973
▁िर्	-974
▁़	-975
▁षु	-976
▁ध्व	-977
▁पाद	-978
▁्रिया	-979
▁तिष्ठ	-980
▁सूर्य	-981
▁चतु	-982
▁ाश्च	-983
▁कृति	-984
▁ीक्ष	-985
▁न्तु	-986
▁एतत्	-987
▁r	-988
▁ैर	-989
▁ज्य	-990
▁रीक्ष	-991
▁सन्	-992
▁मुद्र	-993
▁्बन्ध	-994
▁ंग	-995
▁्रिय	-996
▁स्न	-997
▁सार	-998
▁मपि	-999
▁शिष्ट	-1000
▁जायते	-1001
▁पुरा	-1002
▁न्तर	-1003
▁प्राप	-1004
▁लेख	-1005
▁्यु	-1006
यत	-1007
▁ाट	-1008
▁्रश्न	-1009
▁शरीर	-1010
▁वर्ग	-1011
कं	-1012
▁स्ति	-1013
▁वीर	-1014
▁्थान	-1015
श्वर	-1016
▁कुल	-1017
▁ाप्य	-1018
▁स्या	-1019
नु	-1020
▁ेष्ठ	-1021
▁विर	-1022
▁द्वित	-1023
▁हेतु	-1024
▁निष्	-1025
▁वेश	-1026
▁ितम्	-1027
▁दैव	-1028
▁ग्रहण	-1029
▁पृथ	-1030
▁ुक	-1031
ग्	-1032
▁िद्या	-1033
▁ण्	-1034
▁गम	-1035
▁यथ	-1036
▁सूत्र	-1037
▁लो	-1038
▁रथ	-1039
▁पेक्ष	-1040
▁दूर	-1041
▁सर	-1042
▁नित्य	-1043
▁b	-1044
णि	-1045
▁विभाग	-1046
▁चल	-1047
▁धात	-1048
▁मस	-1049
▁्रकाश	-1050
▁राजा	-1051
▁नृ	-1052
वत्	-1053
▁ुत	-1054
▁किम्	-1055
▁आत्	-1056
▁श्री	-1057
▁्ञ	-1058
▁नः	-1059
▁बा	-1060
▁न्यथा	-1061
▁गुरु	-1062
▁लिख	-1063
▁ेह	-1064
्यास	-1065
▁ल्ल	-1066
▁तप	-1067
▁कदाच	-1068
वी	-1069
▁िष	-1070
▁ुम	-1071
▁न्ध	-1072
▁यते	-1073
▁ङ	-1074
▁्रष्ट	-1075
▁सङ्ग	-1076
▁सम्भव	-1077
▁स्याः	-1078
▁C	-1079
ख्या	-1080
वर	-1081
▁म्भ	-1082
▁ल्प	-1083
▁दुर्	-1084
▁यन्त	-1085
▁ुल	-1086
▁योजन	-1087
▁भक्त	-1088
ज्य	-1089
▁खः	-1090
▁मध	-1091
▁ूर्ण	-1092
▁l	-1093
▁अद्य	-1094
▁एते	-1095
▁विषये	-1096
▁वल	-1097
षेध	-1098
▁त्वया	-1099
▁िक्ष	-1100
▁ग्न	-1101
▁हृदय	-1102
▁त्वेन	-1103
▁सोम	-1104
▁कश्च	-1105
▁ज्ञा	-1106
▁M	-1107
करण	-1108
▁वत	-1109
▁रात्र	-1110
▁स्त्र	-1111
▁ाई	-1112
▁जना	-1113
▁वृक्ष	-1114
▁वायु	-1115
▁करिष्	-1116
▁कौ	-1117
▁ृत्य	-1118
▁्रत्य	-1119
▁सृ	-1120
▁ऽपि	-1121
▁लाभ	-1122
▁देशे	-1123
▁िप	-1124
▁ाभाव	-1125
▁d	-1126
▁N	-1127
▁ेऽपि	-1128
▁सूचना	-1129
▁रुप	-1130
▁गति	-1131
▁्रे	-1132
▁युद्ध	-1133
▁ुम्	-1134
▁p	-1135
ैः	-1136
▁शक्त	-1137
▁उक्त	-1138
▁दिश	-1139
▁ध्याय	-1140
▁िष्ठ	-1141
िप	-1142
▁ेक्ष	-1143
▁ास्त	-1144
▁विचार	-1145
▁प्रत	-1146
▁समु	-1147
▁v	-1148
▁पात	-1149
▁तिप	-1150
▁पत्र	-1151
▁विधान	-1152
st	-1153
▁पर्व	-1154
▁्रम	-1155
▁दाह	-1156
▁ोर	-1157
▁कृते	-1158
क्र	-1159
▁तमे	-1160
▁साधन	-1161
▁ष्ण	-1162
▁शुद्ध	-1163
▁#	-1164
▁अभव	-1165
▁ेभ्यः	-1166
▁यतः	-1167
▁दीर्	-1168
▁पुण	-1169
▁धु	-1170
▁ेर	-1171
ंश	-1172
▁नीय	-1173
▁शाल	-1174
▁जीवन	-1175
▁कुरु	-1176
▁दीर्घ	-1177
▁मण्ड	-1178
▁स्मृत	-1179
षण	-1180
▁हत	-1181
▁णां	-1182
▁व्यवस	-1183
▁मनो	-1184
▁यान	-1185
▁्याः	-1186
▁ऐ	-1187
▁्ण	-1188
हित	-1189
▁मुप	-1190
दश	-1191
▁पाल	-1192
▁पार	-1193
▁शास	-1194
▁श्ल	-1195
क्ष्	-1196
▁अति	-1197
▁ोः	-1198
▁नन्त	-1199
▁पति	-1200
▁ुस्त	-1201
▁हो	-1202
▁ाऽ	-1203
▁भाषण	-1204
▁श्य	-1205
er	-1206
▁ट्	-1207
▁विव	-1208
▁्नो	-1209
▁समान	-1210
▁ुः	-1211
▁यन्	-1212
▁्वरूप	-1213
▁देवता	-1214
▁केन	-1215
▁ारत	-1216
▁अधिक	-1217
▁मुख्य	-1218
▁ंद	-1219
▁सन्न	-1220
▁ार्थं	-1221
▁ंस	-1222
▁ोद	-1223
▁त्थ	-1224
▁ित्यं	-1225
▁जान	-1226
▁शृ	-1227
▁B	-1228
▁ार्यं	-1229
▁म्ह	-1230
▁ीयते	-1231
▁अभवत्	-1232
▁१०	-1233
▁मृ	-1234
▁व्यं	-1235
▁्तमान	-1236
जन	-1237
▁संभव	-1238
▁्नोति	-1239
▁बी	-1240
▁इद	-1241
▁वो	-1242
▁लोके	-1243
▁संय	-1244
▁गमन	-1245
▁चिन्त	-1246
▁दिवस	-1247
त्न	-1248
▁लिङ्ग	-1249
▁्स	-1250
ुव	-1251
▁इच्छ	-1252
▁ित्वा	-1253
▁हिं	-1254
▁व्रत	-1255
▁()	-1256
▁अल	-1257
▁ंक	-1258
▁र्च	-1259
▁तुल	-1260
▁्क	-1261
▁रूपं	-1262
▁शान्त	-1263
▁व्यव	-1264
▁संशयः	-1265
▁्वप	-1266
▁च्यते	-1267
▁वर्ध	-1268
▁लय	-1269
▁वान	-1270
▁शिव	-1271
▁भिन्न	-1272
▁ारतीय	-1273
▁्यो	-1274
▁रूपेण	-1275
▁ुह	-1276
▁मित्य	-1277
▁व्यम्	-1278
▁चेत्	-1279
▁स्वयं	-1280
▁त्वम	-1281
▁भूमि	-1282
▁कथय	-1283
▁जि	-1284
▁तिश	-1285
▁दीप	-1286
▁सति	-1287
▁ुस्तक	-1288
▁ंश	-1289
जा	-1290
▁ळ	-1291
▁नेन	-1292
▁धिकरण	-1293
▁बोध	-1294
▁्माकं	-1295
▁णि	-1296
चि	-1297
▁पुण्य	-1298
▁वक्ष्	-1299
▁मल	-1300
▁युग	-1301
▁्वार	-1302
▁मेर	-1303
▁संप	-1304
▁दिष्ट	-1305
नां	-1306
▁ग्राम	-1307
▁नान	-1308
▁नम्	-1309
▁ीर	-1310
पत	-1311
▁जनाः	-1312
▁्वप्न	-1313
वरी	-1314
▁सुर	-1315
▁ताम्	-1316
▁क्ति	-1317
ुः	-1318
▁वह	-1319
▁ंख्या	-1320
▁धी	-1321
▁तस्या	-1322
▁ानाम्	-1323
▁रोग	-1324
▁पत	-1325
▁ांश	-1326
▁तथापि	-1327
षा	-1328
▁खल	-1329
▁्रं	-1330
▁स्मा	-1331
▁पश्च	-1332
हं	-1333
▁H	-1334
▁पद्य	-1335
▁िन्द	-1336
▁र्ह	-1337
▁्वारा	-1338
▁दार	-1339
▁र्क	-1340
▁्रन्	-1341
▁तिथि	-1342
▁माता	-1343
▁नुष्य	-1344
▁लभ	-1345
▁वध	-1346
▁क्ल	-1347
▁ेवं	-1348
▁धर	-1349
▁मण्डल	-1350
त्स	-1351
▁ताम	-1352
▁्वर्ग	-1353
▁युत	-1354
▁स्तुत	-1355
र्प	-1356
▁स्फ	-1357
▁गर्	-1358
om	-1359
▁नय	-1360
▁रस्	-1361
▁ध्यान	-1362
▁तल	-1363
▁फलं	-1364
▁श्रम	-1365
▁ाङ्ग	-1366
▁मित्त	-1367
▁गृहे	-1368
▁एकः	-1369
▁द्वार	-1370
▁सुत	-1371
▁नैव	-1372
▁कस्य	-1373
िल	-1374
▁वां	-1375
▁विरोध	-1376
▁स्र	-1377
▁f	-1378
▁ाया	-1379
▁क्षय	-1380
▁वश्य	-1381
▁ग्नि	-1382
▁त्वा	-1383
▁त्वां	-1384
तम	-1385
▁चक्ष	-1386
▁किञ्च	-1387
यम्	-1388
्नु	-1389
▁मन्य	-1390
▁िष्ट	-1391
▁रस्पर	-1392
▁्रन्थ	-1393
▁त्रय	-1394
▁सिं	-1395
ीप	-1396
▁पूर	-1397
▁न्तर्	-1398
▁वती	-1399
▁यज	-1400
गत	-1401
▁..	-1402
▁ित्त	-1403
▁दध	-1404
▁िश्च	-1405
▁वन्त	-1406
▁अस्	-1407
▁वात	-1408
▁ादौ	-1409
▁ुर्	-1410
▁वः	-1411
▁मधु	-1412
▁उत्प	-1413
▁सम्ब	-1414
▁जगत	-1415
▁समय	-1416
▁ॆ	-1417
▁ादन	-1418
▁्वादश	-1419
▁िभा	-1420
▁बाह	-1421
▁ध्ययन	-1422
▁न्वित	-1423
▁g	-1424
▁शत्र	-1425
▁दाहरण	-1426
▁L	-1427
▁ब्	-1428
▁आप	-1429
▁ोष	-1430
▁उच्च	-1431
▁D	-1432
षु	-1433
▁अग्नि	-1434
▁चतुर्	-1435
▁प्रे	-1436
▁ादेश	-1437
▁तथैव	-1438
▁िताः	-1439
▁र्प	-1440
▁तृत	-1441
▁मद	-1442
▁ुन	-1443
▁हीन	-1444
▁मानव	-1445
धा	-1446
▁स्क	-1447
▁गव	-1448
▁कृत्य	-1449
▁ात्मक	-1450
▁शासन	-1451
▁भाग्य	-1452
▁लघ	-1453
▁सभा	-1454
ष्प	-1455
▁ाद्य	-1456
▁कृष्ण	-1457
▁संव	-1458
▁पूजा	-1459
▁तृतीय	-1460
▁उद	-1461
▁कम	-1462
▁त्प	-1463
▁भूय	-1464
▁हरि	-1465
▁ग्	-1466
▁िन्तु	-1467
▁ॉ	-1468
▁द्वय	-1469
▁ागत	-1470
▁दाय	-1471
▁अथवा	-1472
▁याति	-1473
▁क्वच	-1474
▁चित्त	-1475
▁्रभाव	-1476
▁मै	-1477
▁शो	-1478
▁एतद	-1479
▁दण्ड	-1480
▁सिंह	-1481
▁माप्त	-1482
▁र्व्व	-1483
▁अनेक	-1484
▁्रव्य	-1485
स्था	-1486
▁सन्ध	-1487
▁नृप	-1488
▁्थि	-1489
▁व्यवह	-1490
▁भु	-1491
▁विज	-1492
▁ीड	-1493
▁विष्ट	-1494
▁कला	-1495
▁रित	-1496
▁ेष्व	-1497
▁िस	-1498
▁दद	-1499
▁रम	-1500
▁भवतः	-1501
▁कृतं	-1502
or	-1503
▁दित	-1504
▁संसार	-1505
घ्र	-1506
▁ुच्य	-1507
▁ज्ञेय	-1508
▁कथा	-1509
▁िष्	-1510
▁जु	-1511
▁ईश्वर	-1512
▁ृत्यु	-1513
▁मनु	-1514
▁नन्तर	-1515
ूल	-1516
▁कन	-1517
▁माह	-1518
▁ग्राह	-1519
▁रिक्त	-1520
▁ित्र	-1521
▁सक	-1522
▁विकास	-1523
▁ीकरण	-1524
▁नै	-1525
▁न्ह	-1526
▁ितं	-1527
▁ितव्य	-1528
▁त्क	-1529
विध	-1530
▁ाण्ड	-1531
म्भ	-1532
▁गृहीत	-1533
▁व्यय	-1534
ष्टि	-1535
▁सङ्क	-1536
▁त्म	-1537
स्मा	-1538
▁छा	-1539
▁एस	-1540
▁पितृ	-1541
▁कोई	-1542
▁मेरिक	-1543
▁आत्म	-1544
on	-1545
▁गतः	-1546
▁ैत	-1547
▁ननु	-1548
▁भवान्	-1549
ar	-1550
▁है	-1551
▁नाश	-1552
▁ज्योत	-1553
▁ुर्या	-1554
▁चैव	-1555
▁पिता	-1556
▁ास्य	-1557
▁नाय	-1558
▁दर	-1559
▁मात	-1560
▁्रयोग	-1561
▁क्री	-1562
▁िद्	-1563
▁िभ	-1564
▁्थाप	-1565
▁वर्ज	-1566
▁ख्य	-1567
▁संग	-1568
▁याम्	-1569
▁पर्वत	-1570
श्	-1571
▁िख	-1572
▁न्म	-1573
▁ायं	-1574
▁नन्द	-1575
▁पश्चा	-1576
इट	-1577
▁चे	-1578
▁्रत	-1579
▁योगः	-1580
es	-1581
▁ेल	-1582
▁शील	-1583
▁ें	-1584
▁तादृश	-1585
▁ों	-1586
▁्रमाण	-1587
▁शत्रु	-1588
▁स्मि	-1589
▁संधान	-1590
▁निज	-1591
▁तेज	-1592
▁स्वा	-1593
▁ोऽपि	-1594
▁ादिना	-1595
▁ाधार	-1596
▁द्विज	-1597
▁शै	-1598
▁नेव	-1599
▁समर्थ	-1600
▁दानीं	-1601
▁ीत्य	-1602
▁दिव्य	-1603
▁ुत्वा	-1604
णु	-1605
▁महो	-1606
▁्रातः	-1607
वाद	-1608
▁स्याद	-1609
▁अनेन	-1610
▁मध्यम	-1611
▁त्ति	-1612
▁्यः	-1613
▁्ञान	-1614
▁११	-1615
▁्रकृत	-1616
▁रव	-1617
▁्ड	-1618
▁R	-1619
▁समास	-1620
▁कर्ता	-1621
▁योजना	-1622
▁ज्ञाय	-1623
▁उभ	-1624
▁िनी	-1625
▁टी	-1626
▁हम	-1627
▁कीर	-1628
▁राग	-1629
ञ्ज	-1630
▁सर्वा	-1631
▁िया	-1632
▁नेप	-1633
▁लब्ध	-1634
▁त्येक	-1635
▁मस्ति	-1636
▁ताप	-1637
▁यय	-1638
▁लोप	-1639
▁तिषेध	-1640
▁्वभाव	-1641
▁परमा	-1642
▁श्चि	-1643
▁यितुं	-1644
▁िभाषा	-1645
▁म्य	-1646
▁सत	-1647
▁ात्रा	-1648
▁यावत्	-1649
▁ारण	-1650
▁संस्	-1651
▁स्मर	-1652
▁लघु	-1653
▁गर्भ	-1654
▁राज्ञ	-1655
▁ियां	-1656
▁ोत्तर	-1657
▁ुट	-1658
▁वश्यक	-1659
▁बि	-1660
▁ाति	-1661
▁कीर्त	-1662
▁क्षत	-1663
▁ङ्ख्य	-1664
▁बालक	-1665
▁रिण	-1666
▁धिकतम	-1667
▁बाध	-1668
▁विन	-1669
▁ार्या	-1670
▁क्षम	-1671
▁प्रद	-1672
▁कम्	-1673
▁गवान्	-1674
▁एका	-1675
▁भयं	-1676
▁छात्र	-1677
▁मुच्य	-1678
▁धीय	-1679
▁्यपि	-1680
▁ूल	-1681
▁प्रव	-1682
▁शः	-1683
▁प्रजा	-1684
▁सेवा	-1685
▁अधि	-1686
▁कट	-1687
▁वश	-1688
▁कर्ण	-1689
▁यिष्	-1690
▁सम्भ	-1691
रि	-1692
▁क्षिप	-1693
▁ti	-1694
▁ऋत	-1695
▁ग्री	-1696
▁ितु	-1697
▁रुद्ध	-1698
▁स्नान	-1699
▁्थित	-1700
▁रुण	-1701
▁लम्	-1702
▁खलु	-1703
▁ात्मन	-1704
▁गता	-1705
ियम	-1706
▁जय	-1707
▁शं	-1708
▁स्त्व	-1709
▁रक्त	-1710
▁रोह	-1711
▁रक्षा	-1712
▁श्चिम	-1713
साइट	-1714
▁ताव	-1715
▁बसाइट	-1716
▁V	-1717
▁तीति	-1718
▁ाह्म	-1719
▁विप्र	-1720
▁नद	-1721
▁ोध	-1722
▁र्वदा	-1723
▁ाहं	-1724
▁नीति	-1725
▁च्	-1726
▁सागर	-1727
▁न्त्य	-1728
▁सन्द	-1729
▁@	-1730
▁मोह	-1731
▁भक	-1732
▁्द	-1733
▁यसि	-1734
▁उत्तम	-1735
▁जित	-1736
▁वाम	-1737
▁कारणं	-1738
▁युज्य	-1739
▁भोग	-1740
▁मूल्य	-1741
▁धातु	-1742
▁ुव	-1743
▁ीप	-1744
▁ितुं	-1745
श्व	-1746
▁ेयं	-1747
ag	-1748
▁ूढ	-1749
▁किंच	-1750
▁ैन	-1751
▁पुष्प	-1752
▁ीक्षण	-1753
▁पृथक्	-1754
▁्यू	-1755
▁ीकृत	-1756
▁आर	-1757
▁श्रित	-1758
▁युष्म	-1759
▁्च	-1760
▁भास	-1761
▁मुनि	-1762
▁भिर्	-1763
▁कथम	-1764
▁माचार	-1765
▁पान	-1766
▁गृह्य	-1767
▁स्थाप	-1768
▁E	-1769
द्रा	-1770
▁सकल	-1771
▁कन्या	-1772
▁क्रीड	-1773
▁र्तुं	-1774
▁आह	-1775
▁कोऽ	-1776
▁कृष	-1777
▁रत	-1778
▁मोक्ष	-1779
▁रोध	-1780
▁सै	-1781
▁िनियम	-1782
▁रति	-1783
▁प्	-1784
▁षष्ठ	-1785
▁िच्छ	-1786
▁वत्स	-1787
▁ेतत्	-1788
थिवी	-1789
▁ृथिवी	-1790
▁त्तम	-1791
▁देवा	-1792
▁ूर्व	-1793
▁उपयोग	-1794
▁्यन्त	-1795
▁दिने	-1796
▁र्त्त	-1797
▁युध	-1798
▁र्द्ध	-1799
▁ाम्य	-1800
▁ेद्	-1801
▁सर्ग	-1802
▁स्वी	-1803
▁निष्क	-1804
▁in	-1805
▁मूर्	-1806
▁स्वत	-1807
▁कारक	-1808
▁योर्	-1809
▁सहित	-1810
▁यतो	-1811
▁रिव	-1812
ेषण	-1813
▁कृप	-1814
▁्वी	-1815
▁ज्या	-1816
▁तिह	-1817
्ण	-1818
▁ूत	-1819
▁गन्ध	-1820
▁ेर्	-1821
▁न्यास	-1822
▁ेम	-1823
▁र्मित	-1824
▁तन्	-1825
▁विविध	-1826
▁पण	-1827
▁िर्ण	-1828
▁ित्व	-1829
ज्	-1830
▁र्ग	-1831
▁यच्छ	-1832
▁रण्य	-1833
▁भक्ति	-1834
▁ेट	-1835
▁िर्णय	-1836
▁तौ	-1837
▁विस	-1838
▁क्षर	-1839
▁मिदं	-1840
▁तय	-1841
▁श्	-1842
▁न्तः	-1843
▁॰	-1844
▁ीनां	-1845
▁ोट	-1846
▁वाच्य	-1847
▁वच	-1848
▁तुर्थ	-1849
▁्यम	-1850
▁समये	-1851
▁्रति	-1852
▁क्ष्य	-1853
▁पाय	-1854
▁ाथ	-1855
▁ार्त	-1856
▁कुत्र	-1857
▁ड़	-1858
▁खे	-1859
▁ोक्तं	-1860
▁घ्न	-1861
▁ोल	-1862
▁ध्र	-1863
▁पीड	-1864
▁ेतन	-1865
▁प्राय	-1866
▁ूप	-1867
▁गन्त	-1868
▁धीयते	-1869
▁तुल्य	-1870
▁त्मान	-1871
▁षध	-1872
▁२०	-1873
▁िक्षा	-1874
▁ाख्य	-1875
▁ाह्मण	-1876
▁र्श	-1877
▁सैन	-1878
▁रिणाम	-1879
▁स्वर	-1880
▁जगत्	-1881
▁िनां	-1882
▁्वः	-1883
▁न्नत	-1884
▁१२	-1885
▁यि	-1886
▁निध	-1887
▁अहम्	-1888
▁तक	-1889
▁$	-1890
▁चन	-1891
▁त्वम्	-1892
▁्ति	-1893
▁त्यज	-1894
▁ान्न	-1895
▁प्रभ	-1896
▁वेदन	-1897
▁रोप	-1898
▁ाइ	-1899
▁कृता	-1900
▁भ्यास	-1901
▁ोम	-1902
▁्था	-1903
▁शीत	-1904
▁गा	-1905
▁यै	-1906
▁शिष्य	-1907
▁{	-1908
▁एषा	-1909
▁विद्व	-1910
▁कालः	-1911
▁िरि	-1912
▁स्थल	-1913
▁श्चित	-1914
▁घोष	-1915
▁राश	-1916
▁विंश	-1917
▁पत्न	-1918
▁शङ्क	-1919
▁ुग्	-1920
▁र्न	-1921
▁दिक	-1922
▁चक्र	-1923
▁स्पृ	-1924
▁तन	-1925
▁ङ्घ	-1926
▁चरण	-1927
▁<	-1928
▁पदं	-1929
डा	-1930
▁तीय	-1931
▁यद्य	-1932
▁ार्ध	-1933
▁१५	-1934
▁्ञानं	-1935
▁ील	-1936
▁वित्त	-1937
▁वी	-1938
▁मयि	-1939
▁दृढ	-1940
▁पौ	-1941
▁अग्न	-1942
▁तू	-1943
▁रल	-1944
▁वसाय	-1945
▁ुद्ध	-1946
▁टि	-1947
▁राय	-1948
▁संज्ञ	-1949
▁ाक्षा	-1950
▁इयं	-1951
▁गृहं	-1952
▁व्यः	-1953
▁च्छेद	-1954
▁पश	-1955
▁मौ	-1956
▁ात्रि	-1957
▁समाज	-1958
▁्रधान	-1959
▁णु	-1960
▁परे	-1961
▁देवी	-1962
▁G	-1963
▁धनं	-1964
▁िन्त	-1965
▁क्स	-1966
▁जीवित	-1967
▁वरण	-1968
▁नीत	-1969
▁ेतद	-1970
▁्यर्थ	-1971
▁नुक	-1972
▁तिहास	-1973
▁िखित	-1974
▁ेख	-1975
▁साध्य	-1976
▁त्सव	-1977
▁काव्य	-1978
▁ताः	-1979
▁वर्षा	-1980
▁ूगु	-1981
▁संख्य	-1982
▁पुरस्	-1983
▁जप	-1984
▁विप	-1985
str	-1986
▁ष्व	-1987
▁विनाश	-1988
▁O	-1989
▁गत्वा	-1990
▁ददा	-1991
▁U	-1992
▁देय	-1993
▁जनवरी	-1994
▁त्याग	-1995
▁किल	-1996
▁अस्म	-1997
ज्ञा	-1998
▁सत्	-1999
▁ष्णु	-2000
▁रच	-2001
▁वर्तन	-2002
▁तान	-2003
▁त्ययः	-2004
le	-2005
▁बाह्य	-2006
▁बुध	-2007
▁िन्	-2008
▁10	-2009
▁सन	-2010
▁्रीडा	-2011
▁sg	-2012
▁षि	-2013
▁मनः	-2014
▁ुक्ति	-2015
▁ाड	-2016
▁दीनां	-2017
ra	-2018
▁पृथि	-2019
▁sgstr	-2020
▁श्रव	-2021
▁पुराण	-2022
▁ेभ्यो	-2023
▁मर	-2024
▁अङ्ग	-2025
▁तान्	-2026
▁शून	-2027
▁उद्	-2028
▁एषः	-2029
▁ुद	-2030
▁भवत्	-2031
▁स्ट	-2032
▁यॊ	-2033
▁पृथिव	-2034
▁केच	-2035
▁कारः	-2036
▁मान्	-2037
▁काय	-2038
▁प्त	-2039
▁संशय	-2040
▁्रवि	-2041
▁पाक	-2042
मे	-2043
▁पथ	-2044
▁भवन	-2045
▁दार्थ	-2046
▁स्थिर	-2047
▁ोत्तम	-2048
▁नाथ	-2049
▁ौर	-2050
▁धृत	-2051
▁िदं	-2052
▁खण्ड	-2053
▁्धानि	-2054
▁र्द	-2055
▁सम्बद	-2056
▁एकं	-2057
▁त्मन	-2058
▁र्देश	-2059
▁ूर	-2060
▁दास	-2061
▁निवेश	-2062
▁कृपया	-2063
▁्थाने	-2064
ध्	-2065
▁धेय	-2066
▁थित	-2067
▁नृत	-2068
▁पुंस	-2069
▁मानस	-2070
▁्पष्ट	-2071
▁हा	-2072
▁शंस	-2073
▁र्ण	-2074
▁गृह्ण	-2075
▁िभि	-2076
▁स्स	-2077
▁श्लोक	-2078
▁कति	-2079
▁श्वास	-2080
▁सोऽ	-2081
▁ुप्त	-2082
▁सव	-2083
▁ट्ट	-2084
▁ैश्च	-2085
▁भर	-2086
▁स्मै	-2087
▁योग्य	-2088
▁k	-2089
▁भ्यः	-2090
▁रूपा	-2091
▁ुत्प	-2092
▁सेना	-2093
▁ाश्र	-2094
▁शून्य	-2095
दय	-2096
▁कोट	-2097
ha	-2098
▁णं	-2099
▁नदी	-2100
▁अर्थः	-2101
▁नुकूल	-2102
▁्ष	-2103
▁सृज	-2104
▁मन्त	-2105
▁धारा	-2106
▁चक्षु	-2107
▁र्ता	-2108
▁संस्थ	-2109
▁्य्य	-2110
▁तीर्थ	-2111
▁विमान	-2112
▁ेस	-2113
▁साद	-2114
▁चार्य	-2115
▁ंश्च	-2116
▁घात	-2117
▁वापि	-2118
ome	-2119
▁अभ	-2120
▁ोड	-2121
▁ाधिक	-2122
▁ोण	-2123
▁यम्	-2124
▁ाप्ते	-2125
▁्ज	-2126
▁कुश	-2127
▁मनस	-2128
▁ब्रवी	-2129
▁एम	-2130
▁यात्	-2131
▁म्प	-2132
▁अयम्	-2133
▁विजय	-2134
▁तार	-2135
कर	-2136
▁यश	-2137
▁}	-2138
▁ज्ञाप	-2139
▁्राम	-2140
▁वने	-2141
▁सुखं	-2142
▁ातु	-2143
▁षड	-2144
▁ण्ट	-2145
▁संक	-2146
▁w	-2147
re	-2148
▁भी	-2149
▁लन	-2150
▁तिशत	-2151
्नो	-2152
▁पशु	-2153
▁पिं	-2154
▁बहू	-2155
▁षा	-2156
▁गौ	-2157
▁संप्र	-2158
▁्ये	-2159
▁ब्रू	-2160
▁क्रोध	-2161
▁भ्यां	-2162
ट्	-2163
▁ायन	-2164
▁कीदृश	-2165
▁सत्यं	-2166
▁ात्मा	-2167
▁सदस्य	-2168
▁त्वे	-2169
▁मुदा	-2170
▁ाःगु	-2171
▁श्रोत	-2172
▁ीश्वर	-2173
al	-2174
▁दीय	-2175
▁हिम	-2176
▁्रीय	-2177
▁ैष	-2178
▁योर	-2179
▁शृणु	-2180
▁पल	-2181
▁ष्	-2182
▁समर्प	-2183
▁कर्ष	-2184
▁तेऽ	-2185
▁न्यून	-2186
▁Ne	-2187
▁्छ	-2188
▁भक्ष	-2189
▁ाकार	-2190
▁िश्चय	-2191
▁ंच	-2192
▁दिव	-2193
▁समस्त	-2194
▁पो	-2195
▁िष्य	-2196
▁ाधारण	-2197
▁थ्व	-2198
▁्रविश	-2199
▁F	-2200
▁आई	-2201
▁ैल	-2202
▁च्व	-2203
▁िणः	-2204
▁ग्रे	-2205
▁कृतम्	-2206
▁ज्व	-2207
▁न्दर	-2208
▁१४	-2209
▁ध्वनि	-2210
▁विष्य	-2211
▁्रथ	-2212
▁पितु	-2213
▁वन्तः	-2214
▁दुष्ट	-2215
▁दन्त	-2216
▁ीण	-2217
▁ैस्	-2218
▁्पर्श	-2219
▁...	-2220
▁न्वय	-2221
▁महोदय	-2222
▁्येव	-2223
▁ौक	-2224
▁नाम्	-2225
he	-2226
▁कुम	-2227
▁शब्दः	-2228
▁Tag	-2229
▁िकि	-2230
▁श्रू	-2231
▁ाश्रय	-2232
▁nt	-2233
▁कृतः	-2234
▁िन्न	-2235
▁शोभ	-2236
▁ासन	-2237
▁भागे	-2238
▁ii	-2239
▁---	-2240
▁मृग	-2241
▁ेच्छ	-2242
▁प्ल	-2243
▁न्तं	-2244
▁ष्ठा	-2245
▁र्माण	-2246
▁िकित्	-2247
▁जाल	-2248
▁तेषु	-2249
▁लम्ब	-2250
▁ल्या	-2251
▁तावत्	-2252
▁ंत्र	-2253
▁हल	-2254
▁्यत	-2255
▁मातृ	-2256
▁नेवाः	-2257
▁विवाह	-2258
▁भगवत	-2259
▁यन	-2260
▁रह	-2261
▁तीव	-2262
▁पदे	-2263
▁धानम	-2264
▁प्रच	-2265
▁क्ष्म	-2266
▁परिप	-2267
▁परीत	-2268
▁रिद्र	-2269
▁ातर	-2270
▁वचनं	-2271
▁भाष्य	-2272
▁तपस	-2273
▁तेषाम	-2274
▁&	-2275
▁स्था	-2276
▁िग	-2277
▁खिल	-2278
▁ाच्च	-2279
▁ताल	-2280
▁परः	-2281
▁ंगु	-2282
▁नुभव	-2283
▁ुरुष	-2284
▁er	-2285
▁बीज	-2286
▁रज	-2287
सार	-2288
▁यौ	-2289
▁निष	-2290
▁हां	-2291
▁करणे	-2292
▁एन	-2293
▁मोद	-2294
▁रणं	-2295
▁ायाम	-2296
▁संब	-2297
▁स्ता	-2298
▁सीद	-2299
▁कुमार	-2300
▁अप्र	-2301
▁व्रज	-2302
▁पक्षे	-2303
▁दन	-2304
▁Home	-2305
▁ुण	-2306
▁िणी	-2307
▁तिं	-2308
▁ह्र	-2309
▁त्मनः	-2310
▁भ्रम	-2311
▁ीर्ण	-2312
▁्यास	-2313
▁तच्च	-2314
▁लु	-2315
▁शाला	-2316
▁ुर्ल	-2317
▁ेन्द	-2318
▁मानुष	-2319
िका	-2320
▁गम्य	-2321
▁ुरुषः	-2322
▁किमपि	-2323
▁ात्रौ	-2324
▁ोच	-2325
▁विहित	-2326
▁ुर्लभ	-2327
▁्रतीत	-2328
ेह	-2329
▁वण	-2330
▁रिति	-2331
▁्ह	-2332
▁१८	-2333
▁लभ्य	-2334
▁िद्ध	-2335
▁मेक	-2336
▁निवार	-2337
▁ालन	-2338
कृ	-2339
▁धो	-2340
▁रहित	-2341
▁प्रभु	-2342
an	-2343
▁म्बर	-2344
▁बद्ध	-2345
▁युव	-2346
▁िनो	-2347
▁श्वर	-2348
▁ल्क	-2349
▁ासु	-2350
▁दल	-2351
▁नाग	-2352
▁मूर्त	-2353
▁्य्	-2354
▁कथित	-2355
▁यूयं	-2356
▁देवाः	-2357
▁िला	-2358
▁हिंसा	-2359
▁चु	-2360
▁ासि	-2361
▁भवता	-2362
▁जलं	-2363
योज	-2364
▁िनि	-2365
▁ास्ते	-2366
ूह	-2367
िया	-2368
▁ञ्	-2369
▁अहो	-2370
▁पत्त	-2371
▁ंड	-2372
▁्ग	-2373
▁बहव	-2374
▁म्प्र	-2375
▁स्नेह	-2376
▁्यायः	-2377
▁ोह	-2378
▁पितर	-2379
▁भ्रात	-2380
▁ीश	-2381
▁पन्न	-2382
▁समूह	-2383
▁गमि	-2384
▁द्भ	-2385
▁पीस	-2386
▁याव	-2387
▁परम्	-2388
▁वस्था	-2389
सि	-2390
▁भोजन	-2391
▁१३	-2392
▁विनि	-2393
▁ायक	-2394
▁पृच्छ	-2395
▁्याम्	-2396
▁्यै	-2397
▁मांस	-2398
▁ि॒	-2399
▁वेग	-2400
▁शस्त	-2401
▁कै	-2402
▁दृश	-2403
▁ाहु	-2404
▁पार्श	-2405
ce	-2406
▁ीता	-2407
▁रक्षण	-2408
▁्रथमा	-2409
▁u	-2410
▁देवः	-2411
▁त्वाद	-2412
▁ानाति	-2413
▁म्र	-2414
▁इदम्	-2415
▁चापि	-2416
▁निषेध	-2417
▁िच	-2418
▁िथ	-2419
▁दुर	-2420
▁रुत	-2421
▁शोक	-2422
▁ेदं	-2423
▁नू	-2424
▁नेत	-2425
▁वित्र	-2426
▁स्कार	-2427
▁द्यो	-2428
▁साधु	-2429
▁त्पाद	-2430
▁•	-2431
▁विवेक	-2432
▁ीडिया	-2433
▁ेरे	-2434
▁ध्या	-2435
▁तीक्ष	-2436
te	-2437
▁जुइ	-2438
▁माया	-2439
▁1.	-2440
▁वाहन	-2441
▁हन्त	-2442
▁व्यति	-2443
▁ंतर	-2444
▁उभय	-2445
▁नार	-2446
▁दं	-2447
▁भज	-2448
▁ायः	-2449
▁हर्ष	-2450
▁न्यते	-2451
▁ृष्टि	-2452
▁ग्ध	-2453
▁नून	-2454
▁रम्भ	-2455
▁िह्	-2456
▁विधिः	-2457
▁्ना	-2458
▁स्तर	-2459
▁ृण	-2460
▁त्वार	-2461
▁विकार	-2462
▁गाम	-2463
▁रुचि	-2464
▁हित्य	-2465
▁मही	-2466
▁ययौ	-2467
▁ब्द	-2468
▁द्वीप	-2469
▁ष्य	-2470
▁स्तथा	-2471
▁तोऽ	-2472
▁अतो	-2473
▁तश्च	-2474
▁विता	-2475
▁वयव	-2476
▁ाञ्च	-2477
▁अक	-2478
▁आग	-2479
▁ाणाम	-2480
▁ाधि	-2481
▁र्मणि	-2482
▁्थानं	-2483
▁्थिति	-2484
▁अष्ट	-2485
▁कृषि	-2486
▁स्तार	-2487
▁धू	-2488
▁दिश्य	-2489
▁भिर	-2490
▁वंश	-2491
▁ांस	-2492
▁निष्प	-2493
▁ेन्	-2494
▁करोमि	-2495
▁गमिष्	-2496
▁अहम	-2497
▁कारि	-2498
▁चित्	-2499
in	-2500
▁ंध	-2501
▁मिव	-2502
▁मव	-2503
▁राजन्	-2504
▁तयो	-2505
▁निश	-2506
▁अधु	-2507
▁क्षे	-2508
▁कोऽपि	-2509
▁अधुना	-2510
▁१७	-2511
▁र्मणा	-2512
▁आकाश	-2513
▁→	-2514
▁भृत	-2515
▁संयोग	-2516
▁तय्	-2517
en	-2518
▁भीत	-2519
▁याये	-2520
▁निरूप	-2521
▁१६	-2522
▁मरण	-2523
▁ाये	-2524
▁भूत्	-2525
ou	-2526
▁द्यु	-2527
▁समीप	-2528
▁मेत	-2529
▁्भ	-2530
▁प्स	-2531
▁नेपाल	-2532
▁मीक्ष	-2533
▁वाप	-2534
▁तानि	-2535
ादश	-2536
▁एकादश	-2537
▁दित्य	-2538
▁नेत्र	-2539
▁िमर्थ	-2540
▁तम्	-2541
▁्लव	-2542
▁ंब	-2543
▁तर्क	-2544
▁भेदे	-2545
▁नियत	-2546
▁१९	-2547
▁वीर्य	-2548
▁मिल	-2549
▁tion	-2550
▁धारण	-2551
▁भवतु	-2552
▁विकिप	-2553
▁्रमेण	-2554
▁माल	-2555
▁सान	-2556
▁पीसी	-2557
▁प्रेम	-2558
▁द्वौ	-2559
▁ावरण	-2560
▁क्षमा	-2561
▁ाला	-2562
▁ण्ठ	-2563
▁द्म	-2564
▁कारेण	-2565
हे	-2566
▁सित	-2567
▁तुष्ट	-2568
▁ाप्नु	-2569
▁ेते	-2570
▁्याप	-2571
▁ापित	-2572
▁भाति	-2573
▁माम	-2574
▁ायत	-2575
▁णीय	-2576
▁नयन	-2577
▁जानी	-2578
▁र्ध्व	-2579
▁चिर	-2580
▁गोप	-2581
▁ागम	-2582
▁त्री	-2583
▁क्तम्	-2584
▁ध्रुव	-2585
▁रिवार	-2586
▁एतद्	-2587
▁कुशल	-2588
▁गिर	-2589
▁दूत	-2590
▁वस्त	-2591
▁स्मरण	-2592
▁देवि	-2593
▁समाध	-2594
▁ाचीन	-2595
▁हिन्द	-2596
hi	-2597
▁सच	-2598
▁चीन	-2599
▁कुतः	-2600
▁जातः	-2601
▁ादयः	-2602
▁कल्पन	-2603
त्म	-2604
▁ाक्षस	-2605
▁थ्य	-2606
▁शैल	-2607
▁महत्	-2608
▁सञ्च	-2609
▁सदृश	-2610
▁ोग	-2611
▁ीघ्र	-2612
▁गते	-2613
▁सूत	-2614
▁हन	-2615
▁णाम	-2616
▁्स्	-2617
▁त्वाम	-2618
▁रत्न	-2619
▁तस्म	-2620
▁माणं	-2621
▁िभिः	-2622
▁स्ते	-2623
▁व्याध	-2624
▁शू	-2625
▁नुवाद	-2626
▁ोश	-2627
▁ाचार	-2628
▁छुं	-2629
▁ोर्	-2630
▁ीघ्रं	-2631
▁राध	-2632
▁ाङ्क	-2633
▁कू	-2634
▁िस्	-2635
▁त्रा	-2636
▁थु	-2637
▁दात	-2638
▁प्रेष	-2639
▁्तव्य	-2640
▁ःगु	-2641
▁इदम	-2642
▁लाख	-2643
▁महत्व	-2644
▁नरः	-2645
▁यस्मा	-2646
▁सफ	-2647
▁न्यो	-2648
▁श्रवण	-2649
▁ारं	-2650
▁पतिः	-2651
▁मन्द	-2652
▁चय	-2653
▁त्कार	-2654
▁ृप	-2655
▁पेपर	-2656
▁स्तोत	-2657
▁ाज	-2658
ीम	-2659
▁ार्द	-2660
▁ऋण	-2661
▁नित	-2662
▁िना	-2663
▁ऽऽ	-2664
▁शक्नो	-2665
▁उपरि	-2666
▁न्ती	-2667
▁प्रो	-2668
▁तस्मै	-2669
▁णम्	-2670
▁तात	-2671
▁िम्	-2672
▁त्स्य	-2673
▁ाभिः	-2674
li	-2675
▁क्षेप	-2676
▁ृश	-2677
▁्यम्	-2678
▁केवलम	-2679
▁माज	-2680
▁नत	-2681
▁ुष	-2682
▁ाकृत	-2683
▁श्वेत	-2684
▁ष्ठित	-2685
▁ेवम	-2686
▁राशि	-2687
▁ोत्प	-2688
▁षट्	-2689
▁शीघ्र	-2690
▁ेना	-2691
▁विंशत	-2692
▁धाव	-2693
▁माः	-2694
ृति	-2695
▁अज	-2696
▁हुत	-2697
▁्थापन	-2698
▁्मृति	-2699
▁क्क	-2700
▁ख्यान	-2701
▁ारद	-2702
▁ुध्य	-2703
▁रुपये	-2704
▁दात्त	-2705
▁भारते	-2706
▁ान्ते	-2707
▁सञ्ज	-2708
▁ासीत्	-2709
▁आः	-2710
▁बृह	-2711
▁आसन्	-2712
▁पराध	-2713
▁यामः	-2714
▁शक्नु	-2715
▁डि	-2716
▁नील	-2717
▁ुत्तर	-2718
▁धाय	-2719
▁पिब	-2720
▁ार्य	-2721
▁काः	-2722
▁सरकार	-2723
▁उत	-2724
▁लं	-2725
▁रायण	-2726
▁ूर्त	-2727
▁खेल	-2728
▁नायक	-2729
▁महिल	-2730
▁सर्प	-2731
ुम	-2732
▁जापत	-2733
▁कस्मा	-2734
▁क्रमण	-2735
▁भिष	-2736
▁श्रूय	-2737
▁्विन	-2738
▁दक	-2739
▁िट	-2740
▁ितुम्	-2741
▁on	-2742
▁णे	-2743
▁वम	-2744
▁दूषण	-2745
▁दो	-2746
▁ावन	-2747
▁ेष्ट	-2748
▁्रपत	-2749
▁ःस	-2750
▁ुरत	-2751
▁2.	-2752
▁गर	-2753
▁ामः	-2754
▁वक्ष	-2755
▁An	-2756
▁ांत	-2757
▁पत्नी	-2758
▁ारि	-2759
▁कथम्	-2760
▁ज़	-2761
▁निग	-2762
▁िशि	-2763
▁रवरी	-2764
▁वाचक	-2765
▁ानामि	-2766
▁िभक्त	-2767
▁्यमान	-2768
▁मः	-2769
▁ञ्छ	-2770
▁याच	-2771
▁धिकं	-2772
▁िमान	-2773
▁अग्ने	-2774
▁त्रैव	-2775
▁कप	-2776
▁हय	-2777
▁त्ता	-2778
▁ुह्य	-2779
▁्रद्ध	-2780
▁रब्ध	-2781
▁जनक	-2782
▁यमेव	-2783
▁ददाति	-2784
▁साक्ष	-2785
▁यस्	-2786
▁क्तं	-2787
▁जाता	-2788
▁देहि	-2789
▁म्न	-2790
▁ष्म	-2791
▁ान्ति	-2792
▁एवा	-2793
▁सतत	-2794
▁जगद	-2795
▁ामय	-2796
▁प्रेर	-2797
▁सैन्य	-2798
▁ाग्नि	-2799
▁्लेषण	-2800
▁तृ	-2801
▁वद्	-2802
▁परमं	-2803
▁महिला	-2804
▁मुह	-2805
▁ह्नि	-2806
▁भगवन्	-2807
▁स्रोत	-2808
▁ोय	-2809
▁मार	-2810
▁शोध	-2811
▁हंस	-2812
▁द्वे	-2813
▁वारं	-2814
▁हानि	-2815
▁र्जन	-2816
▁योक्त	-2817
am	-2818
▁इतर	-2819
▁गतिः	-2820
▁ानन्द	-2821
▁गीत	-2822
▁भुज	-2823
▁गुणा	-2824
▁नृत्य	-2825
▁येष	-2826
▁निष्ठ	-2827
▁K	-2828
▁गज	-2829
▁ेयु	-2830
▁कम्प	-2831
▁रू	-2832
▁सिध्	-2833
▁समं	-2834
▁सम्म	-2835
▁कथन	-2836
▁मानि	-2837
▁भगवान	-2838
▁रेव	-2839
▁विभ	-2840
▁शिख	-2841
▁ानाः	-2842
▁शीर्ष	-2843
▁सृष्ट	-2844
▁घन	-2845
▁ेप	-2846
▁संभ	-2847
▁त्सर	-2848
▁भद्र	-2849
▁िध	-2850
▁ाटक	-2851
▁ाकरण	-2852
▁ल्याण	-2853
▁दय	-2854
▁न्दिर	-2855
di	-2856
▁ाज्ञ	-2857
▁ुद्रा	-2858
▁ूर्वक	-2859
▁म्यक्	-2860
▁%	-2861
▁यती	-2862
▁िल्ल	-2863
▁एतेन	-2864
▁मधुर	-2865
▁यास	-2866
▁कृत्	-2867
▁२१	-2868
▁अन्व	-2869
▁मासे	-2870
▁सन्त	-2871
▁करोत्	-2872
▁रन्तु	-2873
▁लभते	-2874
▁ासां	-2875
▁लिखित	-2876
▁दूष	-2877
▁योगी	-2878
▁चाल	-2879
▁ण्व	-2880
▁दानं	-2881
▁बहुधा	-2882
▁्रौ	-2883
▁तामह	-2884
▁नुमान	-2885
▁द्यः	-2886
▁सप्तम	-2887
▁ंस्	-2888
▁होम	-2889
▁ाता	-2890
▁्वयम्	-2891
▁ामहे	-2892
▁न्यत्	-2893
▁ादिषु	-2894
▁वया	-2895
▁नाना	-2896
▁वाचन	-2897
▁द्वेष	-2898
▁योजनम	-2899
▁इत्यस	-2900
▁येषां	-2901
▁शुक्र	-2902
म्म	-2903
▁ुगु	-2904
▁त्यु	-2905
▁पराज	-2906
▁माजिक	-2907
▁तैः	-2908
▁अतीत	-2909
▁रिष्	-2910
▁ङ्ग्ल	-2911
▁थार्थ	-2912
▁स्वात	-2913
▁तिशय	-2914
▁पुरो	-2915
▁ुग्ध	-2916
▁ोच्य	-2917
▁पात्र	-2918
▁मुदाय	-2919
▁ूक्त	-2920
▁चो	-2921
▁नया	-2922
▁कोटि	-2923
▁युवा	-2924
▁न्वयः	-2925
▁ूतन	-2926
▁ल्य	-2927
▁इष्ट	-2928
▁रङ्ग	-2929
▁रामः	-2930
▁्येन	-2931
▁वैश्व	-2932
▁धीर	-2933
▁त्य्	-2934
▁ाग्र	-2935
▁रिक्ष	-2936
▁ार्थः	-2937
▁नौ	-2938
▁रात	-2939
▁माना	-2940
▁रुद्र	-2941
▁11	-2942
▁ोन	-2943
▁म्म	-2944
▁ृती	-2945
▁्मान्	-2946
▁चं	-2947
▁दः	-2948
▁ेतस	-2949
▁भाषित	-2950
▁ंस्था	-2951
▁शाख	-2952
▁हरे	-2953
▁रद	-2954
▁व्यम	-2955
▁ान्ध	-2956
▁स्पत	-2957
▁ंट	-2958
▁यव	-2959
▁्यस	-2960
▁मनसा	-2961
▁दद्या	-2962
▁ne	-2963
▁डा	-2964
▁ीष	-2965
▁तमः	-2966
▁क्रमः	-2967
▁भौ	-2968
▁द्धत	-2969
▁नष्ट	-2970
▁रेत्	-2971
▁ासाद	-2972
▁धिकृत	-2973
▁ंज	-2974
▁तुर	-2975
▁ऽप	-2976
▁यास्	-2977
▁्युप	-2978
▁स्माक	-2979
▁संघ	-2980
▁थितं	-2981
▁पचार	-2982
▁र्पण	-2983
▁ार्ह	-2984
▁ारम्भ	-2985
▁W	-2986
▁//	-2987
▁नेक	-2988
▁ानन	-2989
▁ङ्गल	-2990
▁ाब्द	-2991
▁णः	-2992
▁नक	-2993
▁्वाह	-2994
▁यमान	-2995
▁श्चन	-2996
▁िस्त	-2997
▁पृष्ट	-2998
▁वर्णन	-2999
▁ीम	-3000
▁होत	-3001
▁	-3002
्	-3003
ा	-3004
त	-3005
र	-3006
ि	-3007
य	-3008
न	-3009
व	-3010
स	-3011
म	-3012
े	-3013
क	-3014
प	-3015
ं	-3016
द	-3017
ः	-3018
ु	-3019
।	-3020
ष	-3021
श	-3022
ो	-3023
ह	-3024
च	-3025
भ	-3026
ी	-3027
ल	-3028
ग	-3029
ध	-3030
अ	-3031
ण	-3032
ज	-3033
थ	-3034
ृ	-3035
-	-3036
ू	-3037
इ	-3038
ब	-3039
.	-3040
ट	-3041
ै	-3042
॥	-3043
ए	-3044
,	-3045
ख	-3046
आ	-3047
"	-3048
उ	-3049
ञ	-3050
ौ	-3051
१	-3052
(	-3053
ऽ	-3054
)	-3055
०	-3056
ड	-3057
ङ	-3058
२	-3059
_	-3060
ठ	-3061
छ	-3062
'	-3063
1	-3064
e	-3065
घ	-3066
a	-3067
2	-3068
0	-3069
?	-3070
i	-3071
फ	-3072
s	-3073
३	-3074
o	-3075
४	-3076
t	-3077
५	-3078
r	-3079
n	-3080
॒	-3081
९	-3082
६	-3083
७	-3084
८	-3085
3	-3086
ई	-3087
/	-3088
:	-3089
4	-3090
l	-3091
5	-3092
ॊ	-3093
॑	-3094
!	-3095
m	-3096
d	-3097
8	-3098
9	-3099
c	-3100
S	-3101
6	-3102
7	-3103
=	-3104
[	-3105
g	-3106
]	-3107
u	-3108
h	-3109
ँ	-3110
p	-3111
;	-3112
ढ	-3113
y	-3114
+	-3115
औ	-3116
ऋ	-3117
v	-3118
A	-3119
I	-3120
़	-3121
*	-3122
b	-3123
ॐ	-3124
T	-3125
f	-3126
P	-3127
C	-3128
ओ	-3129
>	-3130
k	-3131
ऊ	-3132
N	-3133
w	-3134
झ	-3135
E	-3136
M	-3137
D	-3138
B	-3139
x	-3140
R	-3141
L	-3142
॰	-3143
H	-3144
#	-3145
ऐ	-3146
O	-3147
F	-3148
ळ	-3149
ॆ	-3150
V	-3151
ॉ	-3152
G	-3153
U	-3154
@	-3155
ॄ	-3156
%	-3157
$	-3158
{	-3159
<	-3160
}	-3161
X	-3162
K	-3163
&	-3164
W	-3165
•	-3166
→	-3167
j	-3168
J	-3169
Y	-3170
z	-3171
ऑ	-3172
Q	-3173
~	-3174
ꣳ	-3175
ॅ	-3176
←	-3177
^	-3178
q	-3179
̣	-3180
·	-3181
ऎ	-3182
ā	-3183
᳚	-3184
↑	-3185
°	-3186
ʻ	-3187
ऩ	-3188
ʼ	-3189
̇	-3190
\	-3191
Z	-3192
›	-3193
►	-3194
ऱ	-3195
᳘	-3196
×	-3197
¦	-3198
്	-3199
Í	-3200
ऌ	-3201
̄	-3202
̐	-3203
ॠ	-3204
உ	-3205
о	-3206
÷	-3207
‖	-3208
️	-3209
а	-3210
−	-3211
ḥ	-3212
●	-3213
🙏	-3214
€	-3215
Ś	-3216
ર	-3217
்	-3218
ū	-3219
≤	-3220
ऍ	-3221
્	-3222
́	-3223
ا	-3224
е	-3225
н	-3226
¬	-3227
ॢ	-3228
ા	-3229
р	-3230
ऴ	-3231
л	-3232
₹	-3233
ü	-3234
т	-3235
৷	-3236
и	-3237
Ø	-3238
é	-3239
σ	-3240
ə	-3241
ന	-3242
√	-3243
ī	-3244
£	-3245
с	-3246
👉	-3247
꣢	-3248
ś	-3249
в	-3250
ل	-3251
ക	-3252
ṣ	-3253
д	-3254
★	-3255
ન	-3256
ാ	-3257
‐	-3258
ь	-3259
॓	-3260
ી	-3261
≥	-3262
◆	-3263
ம	-3264
✔	-3265
ત	-3266
ி	-3267
ー	-3268
꣣	-3269
ે	-3270
ா	-3271
ി	-3272
ં	-3273
મ	-3274
த	-3275
ു	-3276
‡	-3277
⇒	-3278
❍	-3279
🔊	-3280
á	-3281
î	-3282
¥	-3283
ñ	-3284
¢	-3285
ن	-3286
꣡	-3287
ó	-3288
Ž	-3289
ர	-3290
🙂	-3291
©	-3292
м	-3293
ത	-3294
⁄	-3295
🇳	-3296
🪔	-3297
§	-3298
у	-3299
я	-3300
ر	-3301
م	-3302
ي	-3303
ऄ	-3304
જ	-3305
ો	-3306
ṇ	-3307
і	-3308
【	-3309
🇮	-3310
ˆ	-3311
к	-3312
་	-3313
🚩	-3314
ı	-3315
🌷	-3316
б	-3317
й	-3318
ऺ	-3319
್	-3320
】	-3321
¤	-3322
ç	-3323
í	-3324
̥	-3325
ક	-3326
ய	-3327
ര	-3328
വ	-3329
語	-3330
🌹	-3331
ு	-3332
י	-3333
વ	-3334
ப	-3335
வ	-3336
♦	-3337
Î	-3338
ː	-3339
г	-3340
з	-3341
্	-3342
આ	-3343
∕	-3344
à	-3345
è	-3346
ˈ	-3347
പ	-3348
া	-3349
સ	-3350
ം	-3351
ട	-3352
െ	-3353
ᳪ	-3354
Ó	-3355
د	-3356
س	-3357
க	-3358
ந	-3359
❌	-3360
®	-3361
п	-3362
ц	-3363
ऒ	-3364
ন	-3365
ன	-3366
ನ	-3367
യ	-3368
✅	-3369
ع	-3370
ه	-3371
ತ	-3372
ങ	-3373
മ	-3374
ṭ	-3375
い	-3376
ö	-3377
х	-3378
ی	-3379
ত	-3380
પ	-3381
બ	-3382
ல	-3383
ಾ	-3384
ṛ	-3385
†	-3386
ィ	-3387
🔥	-3388
â	-3389
ɪ	-3390
ب	-3391
ऻ	-3392
ি	-3393
હ	-3394
ರ	-3395
അ	-3396
‹	-3397
⇄	-3398
✍	-3399
🛑	-3400
ú	-3401
ɑ	-3402
С	-3403
ж	-3404
ו	-3405
র	-3406
ગ	-3407
్	-3408
ಿ	-3409
ച	-3410
ല	-3411
᳭	-3412
ン	-3413
🌺	-3414
¡	-3415
±	-3416
ï	-3417
ş	-3418
̊	-3419
μ	-3420
ы	-3421
॔	-3422
િ	-3423
⋙	-3424
■	-3425
▲	-3426
❑	-3427
🌞	-3428
📖	-3429
Ï	-3430
ã	-3431
ł	-3432
š	-3433
̈	-3434
М	-3435
و	-3436
ܘ	-3437
ॡ	-3438
ম	-3439
એ	-3440
છ	-3441
ય	-3442
ು	-3443
ദ	-3444
ോ	-3445
၊	-3446
✓	-3447
❤	-3448
➧	-3449
🏻	-3450
🕉	-3451
α	-3452
Б	-3453
ت	-3454
ু	-3455
ದ	-3456
ṃ	-3457
′	-3458
∠	-3459
◎	-3460
ヒ	-3461
一	-3462
语	-3463
ê	-3464
ʊ	-3465
ю	-3466
ה	-3467
ى	-3468
ک	-3469
ক	-3470
দ	-3471
૧	-3472
அ	-3473
ి	-3474
ಂ	-3475
ಲ	-3476
ണ	-3477
ള	-3478
❯	-3479
。	-3480
し	-3481
の	-3482
デ	-3483
マ	-3484
🌸	-3485
💐	-3486
😂	-3487
¶	-3488
Þ	-3489
İ	-3490
ʃ	-3491
̃	-3492
ч	-3493
א	-3494
ב	-3495
য	-3496
ુ	-3497
ం	-3498
న	-3499
ర	-3500
ಸ	-3501
ᄌ	-3502
ḍ	-3503
ṁ	-3504
◉	-3505
◌	-3506
☝	-3507
➡	-3508
図	-3509
大	-3510
書	-3511
月	-3512
À	-3513
È	-3514
̶	-3515
Х	-3516
щ	-3517
ר	-3518
ش	-3519
ব	-3520
ল	-3521
স	-3522
ে	-3523
ટ	-3524
શ	-3525
ழ	-3526
ಕ	-3527
ಗ	-3528
ವ	-3529
೦	-3530
റ	-3531
േ	-3532
▶	-3533
◦	-3534
☆	-3535
⭐	-3536
か	-3537
ラ	-3538
增	-3539
전	-3540
💮	-3541
🔱	-3542
😊	-3543
Æ	-3544
Ç	-3545
Ü	-3546
ý	-3547
ē	-3548
Š	-3549
ɛ	-3550
П	-3551
ט	-3552
ס	-3553
ॿ	-3554
আ	-3555
ো	-3556
ਕ	-3557
થ	-3558
દ	-3559
ળ	-3560
ட	-3561
ண	-3562
ெ	-3563
య	-3564
వ	-3565
ు	-3566
ಡ	-3567
ಯ	-3568
ೆ	-3569
ശ	-3570
സ	-3571
ൊ	-3572
∆	-3573
▪	-3574
♂	-3575
♥	-3576
お	-3577
つ	-3578
テ	-3579
余	-3580
名	-3581
音	-3582
다	-3583
🔹	-3584
Ê	-3585
æ	-3586
ĉ	-3587
ō	-3588
ž	-3589
̧	-3590
θ	-3591
π	-3592
В	-3593
Д	-3594
Т	-3595
є	-3596
מ	-3597
ء	-3598
ح	-3599
ز	-3600
ق	-3601
گ	-3602
ܬ	-3603
উ	-3604
হ	-3605
ਾ	-3606
ણ	-3607
ભ	-3608
எ	-3609
ற	-3610
ோ	-3611
త	-3612
మ	-3613
ా	-3614
ಳ	-3615
എ	-3616
ധ	-3617
∴	-3618
す	-3619
な	-3620
パ	-3621
ル	-3622
年	-3623
行	-3624
꣯	-3625
사	-3626
🌻	-3627
🌿	-3628
🍃	-3629
🔅	-3630
Û	-3631
Ā	-3632
Œ	-3633
Ş	-3634
ż	-3635
ǁ	-3636
ˌ	-3637
ς	-3638
φ	-3639
Ј	-3640
А	-3641
Н	-3642
Р	-3643
ш	-3644
э	-3645
ל	-3646
ة	-3647
ف	-3648
ہ	-3649
۔	-3650
ە	-3651
জ	-3652
থ	-3653
প	-3654
়	-3655
ਰ	-3656
ੀ	-3657
અ	-3658
ઉ	-3659
ି	-3660
ಪ	-3661
ಮ	-3662
ೀ	-3663
ഗ	-3664
ജ	-3665
ഷ	-3666
ས	-3667
ა	-3668
ṅ	-3669
‒	-3670
⇔	-3671
∫	-3672
⋆	-3673
▼	-3674
♀	-3675
⛳	-3676
✳	-3677
❇	-3678
あ	-3679
く	-3680
シ	-3681
ズ	-3682
ネ	-3683
亦	-3684
知	-3685
음	-3686
🌄	-3687
🍁	-3688
📚	-3689
🔗	-3690
🔶	-3691
😀	-3692
😃	-3693
😎	-3694
😞	-3695
😢	-3696
Ì	-3697
Ð	-3698
ß	-3699
ä	-3700
ì	-3701
ô	-3702
ø	-3703
ę	-3704
Ō	-3705
œ	-3706
ƒ	-3707
ǀ	-3708
ʒ	-3709
̕	-3710
Δ	-3711
Ι	-3712
ή	-3713
β	-3714
ι	-3715
ρ	-3716
Ц	-3717
Э	-3718
ї	-3719
פ	-3720
ئ	-3721
ك	-3722
ܐ	-3723
ܒ	-3724
ܛ	-3725
ܦ	-3726
ܪ	-3727
গ	-3728
ধ	-3729
ਲ	-3730
ધ	-3731
ફ	-3732
લ	-3733
ૐ	-3734
૦	-3735
૪	-3736
இ	-3737
ஜ	-3738
ள	-3739
ஶ	-3740
ஷ	-3741
ொ	-3742
క	-3743
ల	-3744
స	-3745
ആ	-3746
ഇ	-3747
ഉ	-3748
ഞ	-3749
්	-3750
།	-3751
᳖	-3752
―	-3753
‰	-3754
※	-3755
≍	-3756
⏳	-3757
◄	-3758
♣	-3759
⛅	-3760
➛	-3761
➢	-3762
➤	-3763
た	-3764
っ	-3765
て	-3766
と	-3767
ッ	-3768
リ	-3769
不	-3770
义	-3771
亲	-3772
人	-3773
何	-3774
僕	-3775
十	-3776
可	-3777
国	-3778
如	-3779
尔	-3780
应	-3781
彼	-3782
愛	-3783
我	-3784
故	-3785
无	-3786
氣	-3787
的	-3788
觉	-3789
試	-3790
论	-3791
靈	-3792
기	-3793
낱	-3794
니	-3795
말	-3796
세	-3797
위	-3798
이	-3799
키	-3800
하	-3801
👇	-3802
👌	-3803
🔍	-3804
😜	-3805
😡	-3806
😳	-3807
¿	-3808
Á	-3809
Â	-3810
Ã	-3811
Ö	-3812
ð	-3813
ò	-3814
õ	-3815
ć	-3816
č	-3817
ě	-3818
ğ	-3819
į	-3820
ř	-3821
Ÿ	-3822
ɔ	-3823
ɜ	-3824
ʁ	-3825
ʏ	-3826
Ψ	-3827
δ	-3828
η	-3829
κ	-3830
ν	-3831
ο	-3832
τ	-3833
З	-3834
И	-3835
Й	-3836
О	-3837
У	-3838
ג	-3839
ש	-3840
ת	-3841
آ	-3842
إ	-3843
ج	-3844
پ	-3845
چ	-3846
ܣ	-3847
ং	-3848
ট	-3849
ৰ	-3850
ৱ	-3851
ਮ	-3852
ਸ	-3853
ੋ	-3854
੍	-3855
ઃ	-3856
ચ	-3857
ઞ	-3858
ડ	-3859
ષ	-3860
૯	-3861
ஸ	-3862
ீ	-3863
ே	-3864
భ	-3865
ಉ	-3866
ಎ	-3867
ಚ	-3868
ಬ	-3869
ಶ	-3870
ಹ	-3871
೨	-3872
ഈ	-3873
ബ	-3874
ീ	-3875
ർ	-3876
ൾ	-3877
ක	-3878
ය	-3879
ව	-3880
ා	-3881
ි	-3882
ག	-3883
ུ	-3884
გ	-3885
ზ	-3886
ი	-3887
ᄉ	-3888
ᅩ	-3889
ጻ	-3890
ᛁ	-3891
ᛖ	-3892
ᴇ	-3893
Ṛ	-3894
Ủ	-3895
⃣	-3896
↔	-3897
∈	-3898
≈	-3899
◇	-3900
☀	-3901
✥	-3902
✴	-3903
❁	-3904
➜	-3905
う	-3906
き	-3907
だ	-3908
ま	-3909
ら	-3910
る	-3911
を	-3912
ア	-3913
コ	-3914
ス	-3915
タ	-3916
チ	-3917
ト	-3918
为	-3919
京	-3920
作	-3921
依	-3922
反	-3923
因	-3924
意	-3925
成	-3926
所	-3927
新	-3928
期	-3929
果	-3930
格	-3931
梵	-3932
機	-3933
母	-3934
比	-3935
生	-3936
用	-3937
痛	-3938
発	-3939
相	-3940
者	-3941
能	-3942
自	-3943
薩	-3944
说	-3945
诸	-3946
通	-3947
遣	-3948
释	-3949
量	-3950
間	-3951
非	-3952
颂	-3953
대	-3954
발	-3955
브	-3956
요	-3957
합	-3958
𑑂	-3959
🇵	-3960
🌉	-3961
🌙	-3962
🌟	-3963
🌱	-3964
🍀	-3965
👫	-3966
💕	-3967
🔐	-3968
🔔	-3969
🔸	-3970
😉	-3971
😍	-3972
🤝	-3973
Å	-3974
Ò	-3975
Ú	-3976
ù	-3977
ą	-3978
Ċ	-3979
ė	-3980
ŋ	-3981
ư	-3982
ǒ	-3983
ǔ	-3984
ɒ	-3985
ɡ	-3986
̆	-3987
ά	-3988
ε	-3989
χ	-3990
ό	-3991
І	-3992
К	-3993
Ф	-3994
Ю	-3995
Я	-3996
ф	-3997
ј	-3998
ү	-3999
ם	-4000
ן	-4001
נ	-4002
ע	-4003
ק	-4004
أ	-4005
ص	-4006
ط	-4007
غ	-4008
ً	-4009
٬	-4010
ڪ	-4011
ۆ	-4012
ۇ	-4013
ܠ	-4014
ॾ	-4015
ই	-4016
খ	-4017
ঘ	-4018
চ	-4019
ছ	-4020
ী	-4021
ਅ	-4022
ਗ	-4023
ਤ	-4024
ਨ	-4025
ਪ	-4026
ਬ	-4027
਼	-4028
ਿ	-4029
ੇ	-4030
ੱ	-4031
ઈ	-4032
ઓ	-4033
ઠ	-4034
઼	-4035
ૂ	-4036
૨	-4037
૫	-4038
ଆ	-4039
ଓ	-4040
ଡ	-4041
ପ	-4042
ର	-4043
ଲ	-4044
଼	-4045
ା	-4046
ஆ	-4047
ச	-4048
అ	-4049
డ	-4050
ద	-4051
ప	-4052
శ	-4053
ె	-4054
ಃ	-4055
ಭ	-4056
ೇ	-4057
೪	-4058
ഛ	-4059
ഥ	-4060
ഭ	-4061
ഹ	-4062
ൂ	-4063
ൈ	-4064
ൻ	-4065
ൽ	-4066
ද	-4067
ස	-4068
น	-4069
ิ	-4070
ང	-4071
ཐ	-4072
པ	-4073
མ	-4074
ཡ	-4075
ལ	-4076
ཧ	-4077
ཱ	-4078
ྥ	-4079
ླ	-4080
ᆬ	-4081
ሕ	-4082
ብ	-4083
ዝ	-4084
ᛋ	-4085
ᛚ	-4086
᛫	-4087
᭭	-4088
ᳲ	-4089
ḏ	-4090
ṝ	-4091
ắ	-4092
Ἀ	-4093
∅	-4094
≠	-4095
≡	-4096
≦	-4097
▷	-4098
◊	-4099
☑	-4100
☘	-4101
☰	-4102
♡	-4103
♫	-4104
⚫	-4105
✌	-4106
✒	-4107
✧	-4108
✨	-4109
✺	-4110
❣	-4111
➥	-4112
⦁	-4113
、	-4114
《	-4115
》	-4116
「	-4117
」	-4118
が	-4119
さ	-4120
に	-4121
ひ	-4122
み	-4123
む	-4124
め	-4125
も	-4126
や	-4127
よ	-4128
ん	-4129
ジ	-4130
バ	-4131
プ	-4132
ボ	-4133
ロ	-4134
・	-4135
三	-4136
上	-4137
了	-4138
事	-4139
于	-4140
五	-4141
从	-4142
代	-4143
伟	-4144
修	-4145
全	-4146
八	-4147
六	-4148
具	-4149
切	-4150
加	-4151
北	-4152
卐	-4153
印	-4154
各	-4155
合	-4156
吗	-4157
员	-4158
和	-4159
哲	-4160
哷	-4161
地	-4162
堂	-4163
声	-4164
外	-4165
天	-4166
奪	-4167
好	-4168
婆	-4169
存	-4170
安	-4171
小	-4172
尼	-4173
广	-4174
度	-4175
异	-4176
当	-4177
整	-4178
方	-4179
显	-4180
普	-4181
晴	-4182
更	-4183
有	-4184
東	-4185
械	-4186
此	-4187
泊	-4188
然	-4189
猫	-4190
球	-4191
理	-4192
由	-4193
白	-4194
益	-4195
研	-4196
祖	-4197
程	-4198
立	-4199
第	-4200
素	-4201
而	-4202
许	-4203
身	-4204
都	-4205
间	-4206
页	-4207
首	-4208
감	-4209
공	-4210
교	-4211
급	-4212
두	-4213
듬	-4214
라	-4215
로	-4216
리	-4217
민	-4218
비	-4219
서	-4220
성	-4221
슈	-4222
신	-4223
아	-4224
어	-4225
영	-4226
예	-4227
완	-4228
의	-4229
인	-4230
좀	-4231
주	-4232
학	-4233
한	-4234
히	-4235
𑐎	-4236
𑐕	-4237
𑐫	-4238
𑐮	-4239
𑐴	-4240
𑐵	-4241
𑑄	-4242
𑑅	-4243
🇦	-4244
🇺	-4245
🌈	-4246
🌏	-4247
🌼	-4248
🍥	-4249
🎉	-4250
🎖	-4251
🎯	-4252
🐯	-4253
👈	-4254
👍	-4255
👏	-4256
👨	-4257
👩	-4258
👴	-4259
💄	-4260
💏	-4261
💔	-4262
💛	-4263
💥	-4264
📌	-4265
📎	-4266
📝	-4267
📰	-4268
🔰	-4269
😄	-4270
😅	-4271
😒	-4272
😘	-4273
🙍	-4274
🥀	-4275
🥇	-4276
🩸	-4277
É	-4278
Ë	-4279
Õ	-4280
å	-4281
ë	-4282
û	-4283
þ	-4284
ÿ	-4285
ă	-4286
ĕ	-4287
Ę	-4288
Ī	-4289
Ķ	-4290
ń	-4291
Ŏ	-4292
ŏ	-4293
ť	-4294
Ů	-4295
ų	-4296
Ż	-4297
Ǒ	-4298
ȧ	-4299
Ȩ	-4300
ȯ	-4301
ʈ	-4302
ʉ	-4303
ʋ	-4304
ʌ	-4305
ʟ	-4306
ʿ	-4307
ˎ	-4308
ˑ	-4309
̍	-4310
̖	-4311
̠	-4312
̪	-4313
Ά	-4314
Κ	-4315
Μ	-4316
Ο	-4317
Σ	-4318
Φ	-4319
Ω	-4320
ζ	-4321
ω	-4322
Е	-4323
Л	-4324
Ч	-4325
ё	-4326
ў	-4327
ҫ	-4328
ә	-4329
Ө	-4330
Ե	-4331
Կ	-4332
Հ	-4333
ա	-4334
ե	-4335
ն	-4336
ր	-4337
ւ	-4338
ַ	-4339
ד	-4340
כ	-4341
ף	-4342
צ	-4343
ײ	-4344
؞	-4345
خ	-4346
ذ	-4347
ُ	-4348
ِ	-4349
٫	-4350
ٰ	-4351
ٹ	-4352
ټ	-4353
ڌ	-4354
ں	-4355
ڼ	-4356
ھ	-4357
ۂ	-4358
ܕ	-4359
ܚ	-4360
ܟ	-4361
ॱ	-4362
ॵ	-4363
ॺ	-4364
ॼ	-4365
এ	-4366
ঠ	-4367
ড	-4368
ঢ	-4369
ণ	-4370
ষ	-4371
ৃ	-4372
০	-4373
৩	-4374
৭	-4375
ਂ	-4376
ਇ	-4377
ਊ	-4378
ਏ	-4379
ਖ	-4380
ਜ	-4381
ਟ	-4382
ਡ	-4383
ਣ	-4384
ਦ	-4385
ੁ	-4386
ੂ	-4387
ੰ	-4388
ખ	-4389
ઝ	-4390
ૃ	-4391
ૠ	-4392
૩	-4393
૬	-4394
૭	-4395
૮	-4396
ଃ	-4397
କ	-4398
ଖ	-4399
ତ	-4400
ଭ	-4401
େ	-4402
୍	-4403
ୟ	-4404
ஐ	-4405
ஹ	-4406
ூ	-4407
ை	-4408
ఉ	-4409
ఎ	-4410
ఓ	-4411
చ	-4412
జ	-4413
ధ	-4414
ఫ	-4415
ష	-4416
హ	-4417
ే	-4418
ై	-4419
ో	-4420
ಅ	-4421
ಇ	-4422
ಜ	-4423
ಟ	-4424
ಠ	-4425
ೂ	-4426
ೃ	-4427
ೊ	-4428
ೋ	-4429
೧	-4430
೩	-4431
ೲ	-4432
ഖ	-4433
ഠ	-4434
ഴ	-4435
ൃ	-4436
ග	-4437
ත	-4438
න	-4439
ප	-4440
ම	-4441
ල	-4442
ශ	-4443
ො	-4444
ค	-4445
ง	-4446
ด	-4447
ต	-4448
บ	-4449
พ	-4450
ฟ	-4451
ม	-4452
ร	-4453
ห	-4454
อ	-4455
ฮ	-4456
ั	-4457
า	-4458
ี	-4459
เ	-4460
โ	-4461
่	-4462
้	-4463
༔	-4464
༡	-4465
༣	-4466
༨	-4467
ཁ	-4468
ཊ	-4469
ན	-4470
བ	-4471
ཚ	-4472
ཝ	-4473
ཟ	-4474
ཥ	-4475
ི	-4476
ྀ	-4477
ྒ	-4478
ྨ	-4479
ྭ	-4480
ྱ	-4481
ྲ	-4482
დ	-4483
ე	-4484
ვ	-4485
თ	-4486
ლ	-4487
ნ	-4488
რ	-4489
ს	-4490
უ	-4491
ც	-4492
ሉ	-4493
ሩ	-4494
በ	-4495
ቮ	-4496
እ	-4497
ኳ	-4498
ገ	-4499
ፂ	-4500
ፃ	-4501
፪	-4502
ᒃ	-4503
ᒄ	-4504
ᒎ	-4505
ᓚ	-4506
ᗢ	-4507
ᘏ	-4508
ᚨ	-4509
ᚩ	-4510
ᚻ	-4511
ᚾ	-4512
ᛏ	-4513
ᛗ	-4514
ᛞ	-4515
ᭅ	-4516
᭠	-4517
ᮩ	-4518
᮰	-4519
ᱧ	-4520
Ჱ	-4521
᳒	-4522
ᳬ	-4523
ᴀ	-4524
Ḩ	-4525
ế	-4526
ệ	-4527
ὁ	-4528
ὕ	-4529
ὸ	-4530
ῖ	-4531
₩	-4532
↓	-4533
↕	-4534
↗	-4535
↩	-4536
↲	-4537
⇏	-4538
∖	-4539
∙	-4540
∝	-4541
∩	-4542
∵	-4543
⊂	-4544
⊃	-4545
⊕	-4546
▀	-4547
□	-4548
△	-4549
☁	-4550
☸	-4551
☹	-4552
☺	-4553
♈	-4554
♉	-4555
♻	-4556
⚏	-4557
⚕	-4558
⚡	-4559
⚪	-4560
⛈	-4561
⛹	-4562
✖	-4563
✦	-4564
✪	-4565
✹	-4566
✼	-4567
✿	-4568
❗	-4569
➖	-4570
➞	-4571
➦	-4572
➨	-4573
⟶	-4574
⟷	-4575
⠀	-4576
⭕	-4577
〈	-4578
け	-4579
げ	-4580
ご	-4581
ざ	-4582
ち	-4583
で	-4584
ど	-4585
は	-4586
ゃ	-4587
れ	-4588
イ	-4589
エ	-4590
オ	-4591
ク	-4592
グ	-4593
セ	-4594
ゼ	-4595
ソ	-4596
ツ	-4597
ナ	-4598
ノ	-4599
ピ	-4600
ポ	-4601
ャ	-4602
ョ	-4603
七	-4604
与	-4605
世	-4606
中	-4607
习	-4608
乱	-4609
二	-4610
互	-4611
介	-4612
仕	-4613
份	-4614
休	-4615
位	-4616
你	-4617
使	-4618
個	-4619
倒	-4620
健	-4621
元	-4622
入	-4623
其	-4624
円	-4625
册	-4626
决	-4627
出	-4628
划	-4629
列	-4630
利	-4631
别	-4632
到	-4633
副	-4634
助	-4635
化	-4636
卍	-4637
南	-4638
叉	-4639
发	-4640
口	-4641
句	-4642
同	-4643
后	-4644
吥	-4645
吸	-4646
告	-4647
咒	-4648
哉	-4649
哥	-4650
唯	-4651
喝	-4652
嘅	-4653
器	-4654
四	-4655
固	-4656
國	-4657
域	-4658
報	-4659
境	-4660
处	-4661
复	-4662
多	-4663
夜	-4664
夢	-4665
奖	-4666
威	-4667
孕	-4668
字	-4669
学	-4670
官	-4671
定	-4672
宦	-4673
寝	-4674
尊	-4675
少	-4676
属	-4677
岂	-4678
工	-4679
师	-4680
席	-4681
常	-4682
废	-4683
康	-4684
廬	-4685
引	-4686
弥	-4687
影	-4688
得	-4689
徹	-4690
忘	-4691
念	-4692
性	-4693
惑	-4694
感	-4695
憶	-4696
戻	-4697
执	-4698
投	-4699
摩	-4700
收	-4701
改	-4702
政	-4703
效	-4704
文	-4705
日	-4706
时	-4707
星	-4708
是	-4709
最	-4710
朝	-4711
杂	-4712
某	-4713
染	-4714
查	-4715
栄	-4716
检	-4717
模	-4718
権	-4719
款	-4720
止	-4721
民	-4722
永	-4723
求	-4724
汇	-4725
没	-4726
流	-4727
消	-4728
添	-4729
灭	-4730
熟	-4731
父	-4732
牙	-4733
现	-4734
班	-4735
疆	-4736
發	-4737
直	-4738
破	-4739
离	-4740
秘	-4741
稱	-4742
究	-4743
章	-4744
答	-4745
简	-4746
类	-4747
紅	-4748
終	-4749
続	-4750
網	-4751
繁	-4752
维	-4753
肉	-4754
花	-4755
若	-4756
英	-4757
茶	-4758
葬	-4759
處	-4760
蛟	-4761
蝶	-4762
衆	-4763
表	-4764
西	-4765
见	-4766
观	-4767
视	-4768
解	-4769
言	-4770
記	-4771
訳	-4772
論	-4773
讓	-4774
计	-4775
讨	-4776
话	-4777
贪	-4778
越	-4779
足	-4780
車	-4781
转	-4782
辦	-4783
达	-4784
过	-4785
运	-4786
返	-4787
追	-4788
逝	-4789
進	-4790
那	-4791
金	-4792
鉄	-4793
错	-4794
长	-4795
闻	-4796
阿	-4797
除	-4798
陸	-4799
障	-4800
雨	-4801
電	-4802
面	-4803
韩	-4804
響	-4805
願	-4806
须	-4807
飞	-4808
飲	-4809
龙	-4810
꣫	-4811
ꣲ	-4812
가	-4813
간	-4814
개	-4815
게	-4816
고	-4817
과	-4818
국	-4819
금	-4820
깨	-4821
나	-4822
냐	-4823
녹	-4824
는	-4825
달	-4826
더	-4827
동	-4828
따	-4829
뜨	-4830
락	-4831
레	-4832
력	-4833
름	-4834
만	-4835
망	-4836
맵	-4837
몸	-4838
못	-4839
뭐	-4840
받	-4841
백	-4842
번	-4843
법	-4844
봇	-4845
산	-4846
상	-4847
수	-4848
술	-4849
쉬	-4850
스	-4851
승	-4852
시	-4853
없	-4854
에	-4855
염	-4856
외	-4857
우	-4858
운	-4859
월	-4860
을	-4861
임	-4862
입	-4863
있	-4864
자	-4865
적	-4866
절	-4867
정	-4868
조	-4869
중	-4870
증	-4871
지	-4872
째	-4873
청	-4874
크	-4875
탄	-4876
탑	-4877
터	-4878
트	-4879
특	-4880
팅	-4881
파	-4882
함	-4883
허	-4884
효	-4885
힌	-4886
힘	-4887
︎	-4888
𑆤	-4889
𑌏	-4890
𑌥	-4891
𑌫	-4892
𑌮	-4893
𑌸	-4894
𑐰	-4895
𑑀	-4896
🅰	-4897
🇱	-4898
🇸	-4899
🇹	-4900
🌀	-4901
🌃	-4902
🌅	-4903
🌍	-4904
🌎	-4905
🌖	-4906
🌛	-4907
🌝	-4908
🌠	-4909
🌰	-4910
🌴	-4911
🍋	-4912
🍾	-4913
🎂	-4914
🎃	-4915
🎊	-4916
🎋	-4917
🎎	-4918
🎓	-4919
🎤	-4920
🎵	-4921
🎶	-4922
🎼	-4923
🏀	-4924
🏃	-4925
🏏	-4926
🏠	-4927
🏮	-4928
🏷	-4929
🏹	-4930
🏽	-4931
🐕	-4932
🐙	-4933
👆	-4934
👞	-4935
👣	-4936
👦	-4937
👧	-4938
👱	-4939
💑	-4940
💓	-4941
💖	-4942
💗	-4943
💘	-4944
💚	-4945
💝	-4946
💠	-4947
💦	-4948
💧	-4949
💫	-4950
💰	-4951
💱	-4952
💵	-4953
📂	-4954
📏	-4955
📕	-4956
📢	-4957
📣	-4958
📱	-4959
📳	-4960
📸	-4961
📺	-4962
🔟	-4963
🔷	-4964
🔺	-4965
🔻	-4966
🕔	-4967
🖊	-4968
🖱	-4969
🗃	-4970
🗒	-4971
🗣	-4972
🗳	-4973
😇	-4974
😌	-4975
😔	-4976
😝	-4977
😩	-4978
🙁	-4979
🙅	-4980
🙆	-4981
🙌	-4982
🙎	-4983
🚑	-4984
🚷	-4985
🛡	-4986
🤔	-4987
🤗	-4988
🤦	-4989
🤩	-4990
🤪	-4991
🤲	-4992
🥂	-4993
🥰	-4994
🦂	-4995
🧐	-4996
