{
  "version": "1.0",
  "truncation": null,
  "padding": null,
  "added_tokens": [
    {
      "id": 0,
      "content": "[UNK]",
      "single_word": false,
      "lstrip": false,
      "rstrip": false,
      "normalized": false,
      "special": true
    },
    {
      "id": 1,
      "content": "[CLS]",
      "single_word": false,
      "lstrip": false,
      "rstrip": false,
      "normalized": false,
      "special": true
    },
    {
      "id": 2,
      "content": "[SEP]",
      "single_word": false,
      "lstrip": false,
      "rstrip": false,
      "normalized": false,
      "special": true
    },
    {
      "id": 3,
      "content": "[PAD]",
      "single_word": false,
      "lstrip": false,
      "rstrip": false,
      "normalized": false,
      "special": true
    },
    {
      "id": 4,
      "content": "[MASK]",
      "single_word": false,
      "lstrip": false,
      "rstrip": false,
      "normalized": false,
      "special": true
    }
  ],
  "normalizer": {
    "type": "Sequence",
    "normalizers": [
      {
        "type": "NFKC"
      },
      {
        "type": "Lowercase"
      }
    ]
  },
  "pre_tokenizer": {
    "type": "Whitespace"
  },
  "post_processor": null,
  "decoder": {
    "type": "WordPiece",
    "prefix": "##",
    "cleanup": true
  },
  "model": {
    "type": "WordPiece",
    "unk_token": "[UNK]",
    "continuing_subword_prefix": "##",
    "max_input_chars_per_word": 100,
    "vocab": {
      "[UNK]": 0,
      "[CLS]": 1,
      "[SEP]": 2,
      "[PAD]": 3,
      "[MASK]": 4,
      "!": 5,
      "\"": 6,
      "#": 7,
      "$": 8,
      "%": 9,
      "&": 10,
      "'": 11,
      "(": 12,
      ")": 13,
      "*": 14,
      "+": 15,
      ",": 16,
      "-": 17,
      ".": 18,
      "/": 19,
      "0": 20,
      "1": 21,
      "2": 22,
      "3": 23,
      "4": 24,
      "5": 25,
      "6": 26,
      "7": 27,
      "8": 28,
      "9": 29,
      ":": 30,
      ";": 31,
      "<": 32,
      "=": 33,
      ">": 34,
      "?": 35,
      "@": 36,
      "[": 37,
      "\\": 38,
      "]": 39,
      "^": 40,
      "_": 41,
      "a": 42,
      "b": 43,
      "c": 44,
      "d": 45,
      "e": 46,
      "f": 47,
      "g": 48,
      "h": 49,
      "i": 50,
      "j": 51,
      "k": 52,
      "l": 53,
      "m": 54,
      "n": 55,
      "o": 56,
      "p": 57,
      "q": 58,
      "r": 59,
      "s": 60,
      "t": 61,
      "u": 62,
      "v": 63,
      "w": 64,
      "x": 65,
      "y": 66,
      "z": 67,
      "{": 68,
      "}": 69,
      "~": 70,
      "¡": 71,
      "¢": 72,
      "£": 73,
      "¤": 74,
      "¥": 75,
      "¦": 76,
      "§": 77,
      "©": 78,
      "¬": 79,
      "®": 80,
      "°": 81,
      "±": 82,
      "¶": 83,
      "·": 84,
      "¿": 85,
      "×": 86,
      "ß": 87,
      "à": 88,
      "á": 89,
      "â": 90,
      "ã": 91,
      "ä": 92,
      "å": 93,
      "æ": 94,
      "ç": 95,
      "è": 96,
      "é": 97,
      "ê": 98,
      "ë": 99,
      "ì": 100,
      "í": 101,
      "î": 102,
      "ï": 103,
      "ð": 104,
      "ñ": 105,
      "ò": 106,
      "ó": 107,
      "ô": 108,
      "õ": 109,
      "ö": 110,
      "÷": 111,
      "ø": 112,
      "ù": 113,
      "ú": 114,
      "û": 115,
      "ü": 116,
      "ý": 117,
      "þ": 118,
      "ÿ": 119,
      "ā": 120,
      "ă": 121,
      "ą": 122,
      "ć": 123,
      "ĉ": 124,
      "ċ": 125,
      "č": 126,
      "ē": 127,
      "ĕ": 128,
      "ė": 129,
      "ę": 130,
      "ě": 131,
      "ğ": 132,
      "ī": 133,
      "į": 134,
      "ı": 135,
      "ķ": 136,
      "ł": 137,
      "ń": 138,
      "ŋ": 139,
      "ō": 140,
      "ŏ": 141,
      "œ": 142,
      "ř": 143,
      "ś": 144,
      "ş": 145,
      "š": 146,
      "ť": 147,
      "ū": 148,
      "ů": 149,
      "ų": 150,
      "ż": 151,
      "ž": 152,
      "ƒ": 153,
      "ư": 154,
      "ǀ": 155,
      "ǁ": 156,
      "ǒ": 157,
      "ǔ": 158,
      "ȧ": 159,
      "ȩ": 160,
      "ȯ": 161,
      "ɑ": 162,
      "ɒ": 163,
      "ɔ": 164,
      "ə": 165,
      "ɛ": 166,
      "ɜ": 167,
      "ɡ": 168,
      "ɪ": 169,
      "ʁ": 170,
      "ʃ": 171,
      "ʈ": 172,
      "ʉ": 173,
      "ʊ": 174,
      "ʋ": 175,
      "ʌ": 176,
      "ʏ": 177,
      "ʒ": 178,
      "ʟ": 179,
      "ʻ": 180,
      "ʼ": 181,
      "ʿ": 182,
      "ˆ": 183,
      "ˈ": 184,
      "ˌ": 185,
      "ˎ": 186,
      "ː": 187,
      "ˑ": 188,
      "́": 189,
      "̃": 190,
      "̄": 191,
      "̆": 192,
      "̇": 193,
      "̈": 194,
      "̊": 195,
      "̍": 196,
      "̐": 197,
      "̕": 198,
      "̖": 199,
      "̠": 200,
      "̣": 201,
      "̥": 202,
      "̧": 203,
      "̪": 204,
      "̶": 205,
      "ά": 206,
      "ή": 207,
      "α": 208,
      "β": 209,
      "δ": 210,
      "ε": 211,
      "ζ": 212,
      "η": 213,
      "θ": 214,
      "ι": 215,
      "κ": 216,
      "μ": 217,
      "ν": 218,
      "ο": 219,
      "π": 220,
      "ρ": 221,
      "ς": 222,
      "σ": 223,
      "τ": 224,
      "φ": 225,
      "χ": 226,
      "ψ": 227,
      "ω": 228,
      "ό": 229,
      "а": 230,
      "б": 231,
      "в": 232,
      "г": 233,
      "д": 234,
      "е": 235,
      "ж": 236,
      "з": 237,
      "и": 238,
      "й": 239,
      "к": 240,
      "л": 241,
      "м": 242,
      "н": 243,
      "о": 244,
      "п": 245,
      "р": 246,
      "с": 247,
      "т": 248,
      "у": 249,
      "ф": 250,
      "х": 251,
      "ц": 252,
      "ч": 253,
      "ш": 254,
      "щ": 255,
      "ы": 256,
      "ь": 257,
      "э": 258,
      "ю": 259,
      "я": 260,
      "ё": 261,
      "є": 262,
      "і": 263,
      "ї": 264,
      "ј": 265,
      "ў": 266,
      "ҫ": 267,
      "ү": 268,
      "ә": 269,
      "ө": 270,
      "ա": 271,
      "ե": 272,
      "կ": 273,
      "հ": 274,
      "ն": 275,
      "ր": 276,
      "ւ": 277,
      "ַ": 278,
      "א": 279,
      "ב": 280,
      "ג": 281,
      "ד": 282,
      "ה": 283,
      "ו": 284,
      "ט": 285,
      "י": 286,
      "כ": 287,
      "ל": 288,
      "ם": 289,
      "מ": 290,
      "ן": 291,
      "נ": 292,
      "ס": 293,
      "ע": 294,
      "ף": 295,
      "פ": 296,
      "צ": 297,
      "ק": 298,
      "ר": 299,
      "ש": 300,
      "ת": 301,
      "ײ": 302,
      "؞": 303,
      "ء": 304,
      "آ": 305,
      "أ": 306,
      "إ": 307,
      "ئ": 308,
      "ا": 309,
      "ب": 310,
      "ة": 311,
      "ت": 312,
      "ج": 313,
      "ح": 314,
      "خ": 315,
      "د": 316,
      "ذ": 317,
      "ر": 318,
      "ز": 319,
      "س": 320,
      "ش": 321,
      "ص": 322,
      "ط": 323,
      "ع": 324,
      "غ": 325,
      "ف": 326,
      "ق": 327,
      "ك": 328,
      "ل": 329,
      "م": 330,
      "ن": 331,
      "ه": 332,
      "و": 333,
      "ى": 334,
      "ي": 335,
      "ً": 336,
      "ُ": 337,
      "ِ": 338,
      "٫": 339,
      "٬": 340,
      "ٰ": 341,
      "ٹ": 342,
      "ټ": 343,
      "پ": 344,
      "چ": 345,
      "ڌ": 346,
      "ک": 347,
      "ڪ": 348,
      "گ": 349,
      "ں": 350,
      "ڼ": 351,
      "ھ": 352,
      "ہ": 353,
      "ۂ": 354,
      "ۆ": 355,
      "ۇ": 356,
      "ی": 357,
      "۔": 358,
      "ە": 359,
      "ܐ": 360,
      "ܒ": 361,
      "ܕ": 362,
      "ܘ": 363,
      "ܚ": 364,
      "ܛ": 365,
      "ܟ": 366,
      "ܠ": 367,
      "ܣ": 368,
      "ܦ": 369,
      "ܪ": 370,
      "ܬ": 371,
      "ँ": 372,
      "ं": 373,
      "ः": 374,
      "ऄ": 375,
      "अ": 376,
      "आ": 377,
      "इ": 378,
      "ई": 379,
      "उ": 380,
      "ऊ": 381,
      "ऋ": 382,
      "ऌ": 383,
      "ऍ": 384,
      "ऎ": 385,
      "ए": 386,
      "ऐ": 387,
      "ऑ": 388,
      "ऒ": 389,
      "ओ": 390,
      "औ": 391,
      "क": 392,
      "ख": 393,
      "ग": 394,
      "घ": 395,
      "ङ": 396,
      "च": 397,
      "छ": 398,
      "ज": 399,
      "झ": 400,
      "ञ": 401,
      "ट": 402,
      "ठ": 403,
      "ड": 404,
      "ढ": 405,
      "ण": 406,
      "त": 407,
      "थ": 408,
      "द": 409,
      "ध": 410,
      "न": 411,
      "ऩ": 412,
      "प": 413,
      "फ": 414,
      "ब": 415,
      "भ": 416,
      "म": 417,
      "य": 418,
      "र": 419,
      "ऱ": 420,
      "ल": 421,
      "ळ": 422,
      "ऴ": 423,
      "व": 424,
      "श": 425,
      "ष": 426,
      "स": 427,
      "ह": 428,
      "ऺ": 429,
      "ऻ": 430,
      "़": 431,
      "ऽ": 432,
      "ा": 433,
      "ि": 434,
      "ी": 435,
      "ु": 436,
      "ू": 437,
      "ृ": 438,
      "ॄ": 439,
      "ॅ": 440,
      "ॆ": 441,
      "े": 442,
      "ै": 443,
      "ॉ": 444,
      "ॊ": 445,
      "ो": 446,
      "ौ": 447,
      "्": 448,
      "ॐ": 449,
      "॑": 450,
      "॒": 451,
      "॓": 452,
      "॔": 453,
      "ॠ": 454,
      "ॡ": 455,
      "ॢ": 456,
      "।": 457,
      "॥": 458,
      "०": 459,
      "१": 460,
      "२": 461,
      "३": 462,
      "४": 463,
      "५": 464,
      "६": 465,
      "७": 466,
      "८": 467,
      "९": 468,
      "॰": 469,
      "ॱ": 470,
      "ॵ": 471,
      "ॺ": 472,
      "ॼ": 473,
      "ॾ": 474,
      "ॿ": 475,
      "ং": 476,
      "আ": 477,
      "ই": 478,
      "উ": 479,
      "এ": 480,
      "ক": 481,
      "খ": 482,
      "গ": 483,
      "ঘ": 484,
      "চ": 485,
      "ছ": 486,
      "জ": 487,
      "ট": 488,
      "ঠ": 489,
      "ড": 490,
      "ঢ": 491,
      "ণ": 492,
      "ত": 493,
      "থ": 494,
      "দ": 495,
      "ধ": 496,
      "ন": 497,
      "প": 498,
      "ব": 499,
      "ম": 500,
      "য": 501,
      "র": 502,
      "ল": 503,
      "ষ": 504,
      "স": 505,
      "হ": 506,
      "়": 507,
      "া": 508,
      "ি": 509,
      "ী": 510,
      "ু": 511,
      "ৃ": 512,
      "ে": 513,
      "ো": 514,
      "্": 515,
      "০": 516,
      "৩": 517,
      "৭": 518,
      "ৰ": 519,
      "ৱ": 520,
      "৷": 521,
      "ਂ": 522,
      "ਅ": 523,
      "ਇ": 524,
      "ਊ": 525,
      "ਏ": 526,
      "ਕ": 527,
      "ਖ": 528,
      "ਗ": 529,
      "ਜ": 530,
      "ਟ": 531,
      "ਡ": 532,
      "ਣ": 533,
      "ਤ": 534,
      "ਦ": 535,
      "ਨ": 536,
      "ਪ": 537,
      "ਬ": 538,
      "ਮ": 539,
      "ਰ": 540,
      "ਲ": 541,
      "ਸ": 542,
      "਼": 543,
      "ਾ": 544,
      "ਿ": 545,
      "ੀ": 546,
      "ੁ": 547,
      "ੂ": 548,
      "ੇ": 549,
      "ੋ": 550,
      "੍": 551,
      "ੰ": 552,
      "ੱ": 553,
      "ં": 554,
      "ઃ": 555,
      "અ": 556,
      "આ": 557,
      "ઈ": 558,
      "ઉ": 559,
      "એ": 560,
      "ઓ": 561,
      "ક": 562,
      "ખ": 563,
      "ગ": 564,
      "ચ": 565,
      "છ": 566,
      "જ": 567,
      "ઝ": 568,
      "ઞ": 569,
      "ટ": 570,
      "ઠ": 571,
      "ડ": 572,
      "ણ": 573,
      "ત": 574,
      "થ": 575,
      "દ": 576,
      "ધ": 577,
      "ન": 578,
      "પ": 579,
      "ફ": 580,
      "બ": 581,
      "ભ": 582,
      "મ": 583,
      "ય": 584,
      "ર": 585,
      "લ": 586,
      "ળ": 587,
      "વ": 588,
      "શ": 589,
      "ષ": 590,
      "સ": 591,
      "હ": 592,
      "઼": 593,
      "ા": 594,
      "િ": 595,
      "ી": 596,
      "ુ": 597,
      "ૂ": 598,
      "ૃ": 599,
      "ે": 600,
      "ો": 601,
      "્": 602,
      "ૐ": 603,
      "ૠ": 604,
      "૦": 605,
      "૧": 606,
      "૨": 607,
      "૩": 608,
      "૪": 609,
      "૫": 610,
      "૬": 611,
      "૭": 612,
      "૮": 613,
      "૯": 614,
      "ଃ": 615,
      "ଆ": 616,
      "ଓ": 617,
      "କ": 618,
      "ଖ": 619,
      "ଡ": 620,
      "ତ": 621,
      "ପ": 622,
      "ଭ": 623,
      "ର": 624,
      "ଲ": 625,
      "଼": 626,
      "ା": 627,
      "ି": 628,
      "େ": 629,
      "୍": 630,
      "ୟ": 631,
      "அ": 632,
      "ஆ": 633,
      "இ": 634,
      "உ": 635,
      "எ": 636,
      "ஐ": 637,
      "க": 638,
      "ச": 639,
      "ஜ": 640,
      "ட": 641,
      "ண": 642,
      "த": 643,
      "ந": 644,
      "ன": 645,
      "ப": 646,
      "ம": 647,
      "ய": 648,
      "ர": 649,
      "ற": 650,
      "ல": 651,
      "ள": 652,
      "ழ": 653,
      "வ": 654,
      "ஶ": 655,
      "ஷ": 656,
      "ஸ": 657,
      "ஹ": 658,
      "ா": 659,
      "ி": 660,
      "ீ": 661,
      "ு": 662,
      "ூ": 663,
      "ெ": 664,
      "ே": 665,
      "ை": 666,
      "ொ": 667,
      "ோ": 668,
      "்": 669,
      "ం": 670,
      "అ": 671,
      "ఉ": 672,
      "ఎ": 673,
      "ఓ": 674,
      "క": 675,
      "చ": 676,
      "జ": 677,
      "డ": 678,
      "త": 679,
      "ద": 680,
      "ధ": 681,
      "న": 682,
      "ప": 683,
      "ఫ": 684,
      "భ": 685,
      "మ": 686,
      "య": 687,
      "ర": 688,
      "ల": 689,
      "వ": 690,
      "శ": 691,
      "ష": 692,
      "స": 693,
      "హ": 694,
      "ా": 695,
      "ి": 696,
      "ు": 697,
      "ె": 698,
      "ే": 699,
      "ై": 700,
      "ో": 701,
      "్": 702,
      "ಂ": 703,
      "ಃ": 704,
      "ಅ": 705,
      "ಇ": 706,
      "ಉ": 707,
      "ಎ": 708,
      "ಕ": 709,
      "ಗ": 710,
      "ಚ": 711,
      "ಜ": 712,
      "ಟ": 713,
      "ಠ": 714,
      "ಡ": 715,
      "ತ": 716,
      "ದ": 717,
      "ನ": 718,
      "ಪ": 719,
      "ಬ": 720,
      "ಭ": 721,
      "ಮ": 722,
      "ಯ": 723,
      "ರ": 724,
      "ಲ": 725,
      "ಳ": 726,
      "ವ": 727,
      "ಶ": 728,
      "ಸ": 729,
      "ಹ": 730,
      "ಾ": 731,
      "ಿ": 732,
      "ೀ": 733,
      "ು": 734,
      "ೂ": 735,
      "ೃ": 736,
      "ೆ": 737,
      "ೇ": 738,
      "ೊ": 739,
      "ೋ": 740,
      "್": 741,
      "೦": 742,
      "೧": 743,
      "೨": 744,
      "೩": 745,
      "೪": 746,
      "ೲ": 747,
      "ം": 748,
      "അ": 749,
      "ആ": 750,
      "ഇ": 751,
      "ഈ": 752,
      "ഉ": 753,
      "എ": 754,
      "ക": 755,
      "ഖ": 756,
      "ഗ": 757,
      "ങ": 758,
      "ച": 759,
      "ഛ": 760,
      "ജ": 761,
      "ഞ": 762,
      "ട": 763,
      "ഠ": 764,
      "ണ": 765,
      "ത": 766,
      "ഥ": 767,
      "ദ": 768,
      "ധ": 769,
      "ന": 770,
      "പ": 771,
      "ബ": 772,
      "ഭ": 773,
      "മ": 774,
      "യ": 775,
      "ര": 776,
      "റ": 777,
      "ല": 778,
      "ള": 779,
      "ഴ": 780,
      "വ": 781,
      "ശ": 782,
      "ഷ": 783,
      "സ": 784,
      "ഹ": 785,
      "ാ": 786,
      "ി": 787,
      "ീ": 788,
      "ു": 789,
      "ൂ": 790,
      "ൃ": 791,
      "െ": 792,
      "േ": 793,
      "ൈ": 794,
      "ൊ": 795,
      "ോ": 796,
      "്": 797,
      "ൻ": 798,
      "ർ": 799,
      "ൽ": 800,
      "ൾ": 801,
      "ක": 802,
      "ග": 803,
      "ත": 804,
      "ද": 805,
      "න": 806,
      "ප": 807,
      "ම": 808,
      "ය": 809,
      "ල": 810,
      "ව": 811,
      "ශ": 812,
      "ස": 813,
      "්": 814,
      "ා": 815,
      "ි": 816,
      "ො": 817,
      "ค": 818,
      "ง": 819,
      "ด": 820,
      "ต": 821,
      "น": 822,
      "บ": 823,
      "พ": 824,
      "ฟ": 825,
      "ม": 826,
      "ร": 827,
      "ห": 828,
      "อ": 829,
      "ฮ": 830,
      "ั": 831,
      "า": 832,
      "ิ": 833,
      "ี": 834,
      "เ": 835,
      "โ": 836,
      "่": 837,
      "้": 838,
      "་": 839,
      "།": 840,
      "༔": 841,
      "༡": 842,
      "༣": 843,
      "༨": 844,
      "ཁ": 845,
      "ག": 846,
      "ང": 847,
      "ཊ": 848,
      "ཐ": 849,
      "ན": 850,
      "པ": 851,
      "བ": 852,
      "མ": 853,
      "ཚ": 854,
      "ཝ": 855,
      "ཟ": 856,
      "ཡ": 857,
      "ལ": 858,
      "ཥ": 859,
      "ས": 860,
      "ཧ": 861,
      "ཱ": 862,
      "ི": 863,
      "ུ": 864,
      "ྀ": 865,
      "ྒ": 866,
      "ྥ": 867,
      "ྨ": 868,
      "ྭ": 869,
      "ྱ": 870,
      "ྲ": 871,
      "ླ": 872,
      "၊": 873,
      "ა": 874,
      "გ": 875,
      "დ": 876,
      "ე": 877,
      "ვ": 878,
      "ზ": 879,
      "თ": 880,
      "ი": 881,
      "ლ": 882,
      "ნ": 883,
      "რ": 884,
      "ს": 885,
      "უ": 886,
      "ც": 887,
      "ჱ": 888,
      "ᄉ": 889,
      "ᄌ": 890,
      "ᅩ": 891,
      "ᆬ": 892,
      "ሉ": 893,
      "ሕ": 894,
      "ሩ": 895,
      "በ": 896,
      "ብ": 897,
      "ቮ": 898,
      "እ": 899,
      "ኳ": 900,
      "ዝ": 901,
      "ገ": 902,
      "ጻ": 903,
      "ፂ": 904,
      "ፃ": 905,
      "፪": 906,
      "ᒃ": 907,
      "ᒄ": 908,
      "ᒎ": 909,
      "ᓚ": 910,
      "ᗢ": 911,
      "ᘏ": 912,
      "ᚨ": 913,
      "ᚩ": 914,
      "ᚻ": 915,
      "ᚾ": 916,
      "ᛁ": 917,
      "ᛋ": 918,
      "ᛏ": 919,
      "ᛖ": 920,
      "ᛗ": 921,
      "ᛚ": 922,
      "ᛞ": 923,
      "᛫": 924,
      "ᭅ": 925,
      "᭠": 926,
      "᭭": 927,
      "ᮩ": 928,
      "᮰": 929,
      "ᱧ": 930,
      "᳒": 931,
      "᳖": 932,
      "᳘": 933,
      "᳚": 934,
      "ᳪ": 935,
      "ᳬ": 936,
      "᳭": 937,
      "ᳲ": 938,
      "ᴀ": 939,
      "ᴇ": 940,
      "ḍ": 941,
      "ḏ": 942,
      "ḥ": 943,
      "ḩ": 944,
      "ṁ": 945,
      "ṃ": 946,
      "ṅ": 947,
      "ṇ": 948,
      "ṛ": 949,
      "ṝ": 950,
      "ṣ": 951,
      "ṭ": 952,
      "ắ": 953,
      "ế": 954,
      "ệ": 955,
      "ủ": 956,
      "ἀ": 957,
      "ὁ": 958,
      "ὕ": 959,
      "ὸ": 960,
      "ῖ": 961,
      "‐": 962,
      "‒": 963,
      "―": 964,
      "‖": 965,
      "†": 966,
      "‡": 967,
      "•": 968,
      "‰": 969,
      "′": 970,
      "‹": 971,
      "›": 972,
      "※": 973,
      "⁄": 974,
      "₩": 975,
      "€": 976,
      "₹": 977,
      "⃣": 978,
      "←": 979,
      "↑": 980,
      "→": 981,
      "↓": 982,
      "↔": 983,
      "↕": 984,
      "↗": 985,
      "↩": 986,
      "↲": 987,
      "⇄": 988,
      "⇏": 989,
      "⇒": 990,
      "⇔": 991,
      "∅": 992,
      "∆": 993,
      "∈": 994,
      "−": 995,
      "∕": 996,
      "∖": 997,
      "∙": 998,
      "√": 999,
      "∝": 1000,
      "∠": 1001,
      "∩": 1002,
      "∫": 1003,
      "∴": 1004,
      "∵": 1005,
      "≈": 1006,
      "≍": 1007,
      "≠": 1008,
      "≡": 1009,
      "≤": 1010,
      "≥": 1011,
      "≦": 1012,
      "⊂": 1013,
      "⊃": 1014,
      "⊕": 1015,
      "⋆": 1016,
      "⋙": 1017,
      "⏳": 1018,
      "▀": 1019,
      "▁": 1020,
      "■": 1021,
      "□": 1022,
      "▪": 1023,
      "▲": 1024,
      "△": 1025,
      "▶": 1026,
      "▷": 1027,
      "►": 1028,
      "▼": 1029,
      "◄": 1030,
      "◆": 1031,
      "◇": 1032,
      "◉": 1033,
      "◊": 1034,
      "◌": 1035,
      "◎": 1036,
      "●": 1037,
      "◦": 1038,
      "☀": 1039,
      "☁": 1040,
      "★": 1041,
      "☆": 1042,
      "☑": 1043,
      "☘": 1044,
      "☝": 1045,
      "☰": 1046,
      "☸": 1047,
      "☹": 1048,
      "☺": 1049,
      "♀": 1050,
      "♂": 1051,
      "♈": 1052,
      "♉": 1053,
      "♡": 1054,
      "♣": 1055,
      "♥": 1056,
      "♦": 1057,
      "♫": 1058,
      "♻": 1059,
      "⚏": 1060,
      "⚕": 1061,
      "⚡": 1062,
      "⚪": 1063,
      "⚫": 1064,
      "⛅": 1065,
      "⛈": 1066,
      "⛳": 1067,
      "⛹": 1068,
      "✅": 1069,
      "✌": 1070,
      "✍": 1071,
      "✒": 1072,
      "✓": 1073,
      "✔": 1074,
      "✖": 1075,
      "✥": 1076,
      "✦": 1077,
      "✧": 1078,
      "✨": 1079,
      "✪": 1080,
      "✳": 1081,
      "✴": 1082,
      "✹": 1083,
      "✺": 1084,
      "✼": 1085,
      "✿": 1086,
      "❁": 1087,
      "❇": 1088,
      "❌": 1089,
      "❍": 1090,
      "❑": 1091,
      "❗": 1092,
      "❣": 1093,
      "❤": 1094,
      "❯": 1095,
      "➖": 1096,
      "➛": 1097,
      "➜": 1098,
      "➞": 1099,
      "➡": 1100,
      "➢": 1101,
      "➤": 1102,
      "➥": 1103,
      "➦": 1104,
      "➧": 1105,
      "➨": 1106,
      "⟶": 1107,
      "⟷": 1108,
      "⠀": 1109,
      "⦁": 1110,
      "⭐": 1111,
      "⭕": 1112,
      "、": 1113,
      "。": 1114,
      "〈": 1115,
      "《": 1116,
      "》": 1117,
      "「": 1118,
      "」": 1119,
      "【": 1120,
      "】": 1121,
      "あ": 1122,
      "い": 1123,
      "う": 1124,
      "お": 1125,
      "か": 1126,
      "が": 1127,
      "き": 1128,
      "く": 1129,
      "け": 1130,
      "げ": 1131,
      "ご": 1132,
      "さ": 1133,
      "ざ": 1134,
      "し": 1135,
      "す": 1136,
      "た": 1137,
      "だ": 1138,
      "ち": 1139,
      "っ": 1140,
      "つ": 1141,
      "て": 1142,
      "で": 1143,
      "と": 1144,
      "ど": 1145,
      "な": 1146,
      "に": 1147,
      "の": 1148,
      "は": 1149,
      "ひ": 1150,
      "ま": 1151,
      "み": 1152,
      "む": 1153,
      "め": 1154,
      "も": 1155,
      "ゃ": 1156,
      "や": 1157,
      "よ": 1158,
      "ら": 1159,
      "る": 1160,
      "れ": 1161,
      "を": 1162,
      "ん": 1163,
      "ア": 1164,
      "ィ": 1165,
      "イ": 1166,
      "エ": 1167,
      "オ": 1168,
      "ク": 1169,
      "グ": 1170,
      "コ": 1171,
      "シ": 1172,
      "ジ": 1173,
      "ス": 1174,
      "ズ": 1175,
      "セ": 1176,
      "ゼ": 1177,
      "ソ": 1178,
      "タ": 1179,
      "チ": 1180,
      "ッ": 1181,
      "ツ": 1182,
      "テ": 1183,
      "デ": 1184,
      "ト": 1185,
      "ナ": 1186,
      "ネ": 1187,
      "ノ": 1188,
      "バ": 1189,
      "パ": 1190,
      "ヒ": 1191,
      "ピ": 1192,
      "プ": 1193,
      "ボ": 1194,
      "ポ": 1195,
      "マ": 1196,
      "ャ": 1197,
      "ョ": 1198,
      "ラ": 1199,
      "リ": 1200,
      "ル": 1201,
      "ロ": 1202,
      "ン": 1203,
      "・": 1204,
      "ー": 1205,
      "一": 1206,
      "七": 1207,
      "三": 1208,
      "上": 1209,
      "不": 1210,
      "与": 1211,
      "世": 1212,
      "中": 1213,
      "为": 1214,
      "义": 1215,
      "习": 1216,
      "乱": 1217,
      "了": 1218,
      "事": 1219,
      "二": 1220,
      "于": 1221,
      "互": 1222,
      "五": 1223,
      "亦": 1224,
      "京": 1225,
      "亲": 1226,
      "人": 1227,
      "介": 1228,
      "从": 1229,
      "仕": 1230,
      "代": 1231,
      "份": 1232,
      "休": 1233,
      "伟": 1234,
      "位": 1235,
      "何": 1236,
      "余": 1237,
      "作": 1238,
      "你": 1239,
      "使": 1240,
      "依": 1241,
      "修": 1242,
      "個": 1243,
      "倒": 1244,
      "健": 1245,
      "僕": 1246,
      "元": 1247,
      "入": 1248,
      "全": 1249,
      "八": 1250,
      "六": 1251,
      "其": 1252,
      "具": 1253,
      "円": 1254,
      "册": 1255,
      "决": 1256,
      "出": 1257,
      "切": 1258,
      "划": 1259,
      "列": 1260,
      "利": 1261,
      "别": 1262,
      "到": 1263,
      "副": 1264,
      "加": 1265,
      "助": 1266,
      "化": 1267,
      "北": 1268,
      "十": 1269,
      "卍": 1270,
      "卐": 1271,
      "南": 1272,
      "印": 1273,
      "叉": 1274,
      "反": 1275,
      "发": 1276,
      "口": 1277,
      "句": 1278,
      "可": 1279,
      "各": 1280,
      "合": 1281,
      "同": 1282,
      "名": 1283,
      "后": 1284,
      "吗": 1285,
      "吥": 1286,
      "吸": 1287,
      "告": 1288,
      "员": 1289,
      "和": 1290,
      "咒": 1291,
      "哉": 1292,
      "哥": 1293,
      "哲": 1294,
      "哷": 1295,
      "唯": 1296,
      "喝": 1297,
      "嘅": 1298,
      "器": 1299,
      "四": 1300,
      "因": 1301,
      "図": 1302,
      "固": 1303,
      "国": 1304,
      "國": 1305,
      "地": 1306,
      "域": 1307,
      "堂": 1308,
      "報": 1309,
      "境": 1310,
      "增": 1311,
      "声": 1312,
      "处": 1313,
      "复": 1314,
      "外": 1315,
      "多": 1316,
      "夜": 1317,
      "夢": 1318,
      "大": 1319,
      "天": 1320,
      "奖": 1321,
      "奪": 1322,
      "好": 1323,
      "如": 1324,
      "威": 1325,
      "婆": 1326,
      "孕": 1327,
      "字": 1328,
      "存": 1329,
      "学": 1330,
      "安": 1331,
      "官": 1332,
      "定": 1333,
      "宦": 1334,
      "寝": 1335,
      "尊": 1336,
      "小": 1337,
      "少": 1338,
      "尔": 1339,
      "尼": 1340,
      "属": 1341,
      "岂": 1342,
      "工": 1343,
      "师": 1344,
      "席": 1345,
      "常": 1346,
      "年": 1347,
      "广": 1348,
      "应": 1349,
      "废": 1350,
      "度": 1351,
      "康": 1352,
      "廬": 1353,
      "异": 1354,
      "引": 1355,
      "弥": 1356,
      "当": 1357,
      "影": 1358,
      "彼": 1359,
      "得": 1360,
      "徹": 1361,
      "忘": 1362,
      "念": 1363,
      "性": 1364,
      "惑": 1365,
      "意": 1366,
      "愛": 1367,
      "感": 1368,
      "憶": 1369,
      "成": 1370,
      "我": 1371,
      "戻": 1372,
      "所": 1373,
      "执": 1374,
      "投": 1375,
      "摩": 1376,
      "收": 1377,
      "改": 1378,
      "政": 1379,
      "故": 1380,
      "效": 1381,
      "整": 1382,
      "文": 1383,
      "新": 1384,
      "方": 1385,
      "无": 1386,
      "日": 1387,
      "时": 1388,
      "星": 1389,
      "是": 1390,
      "显": 1391,
      "普": 1392,
      "晴": 1393,
      "更": 1394,
      "書": 1395,
      "最": 1396,
      "月": 1397,
      "有": 1398,
      "朝": 1399,
      "期": 1400,
      "杂": 1401,
      "東": 1402,
      "果": 1403,
      "某": 1404,
      "染": 1405,
      "查": 1406,
      "栄": 1407,
      "格": 1408,
      "械": 1409,
      "梵": 1410,
      "检": 1411,
      "模": 1412,
      "権": 1413,
      "機": 1414,
      "款": 1415,
      "止": 1416,
      "此": 1417,
      "母": 1418,
      "比": 1419,
      "民": 1420,
      "氣": 1421,
      "永": 1422,
      "求": 1423,
      "汇": 1424,
      "没": 1425,
      "泊": 1426,
      "流": 1427,
      "消": 1428,
      "添": 1429,
      "灭": 1430,
      "然": 1431,
      "熟": 1432,
      "父": 1433,
      "牙": 1434,
      "猫": 1435,
      "现": 1436,
      "班": 1437,
      "球": 1438,
      "理": 1439,
      "生": 1440,
      "用": 1441,
      "由": 1442,
      "疆": 1443,
      "痛": 1444,
      "発": 1445,
      "發": 1446,
      "白": 1447,
      "的": 1448,
      "益": 1449,
      "直": 1450,
      "相": 1451,
      "知": 1452,
      "研": 1453,
      "破": 1454,
      "祖": 1455,
      "离": 1456,
      "秘": 1457,
      "程": 1458,
      "稱": 1459,
      "究": 1460,
      "立": 1461,
      "章": 1462,
      "第": 1463,
      "答": 1464,
      "简": 1465,
      "类": 1466,
      "紅": 1467,
      "素": 1468,
      "終": 1469,
      "続": 1470,
      "網": 1471,
      "繁": 1472,
      "维": 1473,
      "者": 1474,
      "而": 1475,
      "肉": 1476,
      "能": 1477,
      "自": 1478,
      "花": 1479,
      "若": 1480,
      "英": 1481,
      "茶": 1482,
      "葬": 1483,
      "薩": 1484,
      "處": 1485,
      "蛟": 1486,
      "蝶": 1487,
      "衆": 1488,
      "行": 1489,
      "表": 1490,
      "西": 1491,
      "见": 1492,
      "观": 1493,
      "视": 1494,
      "觉": 1495,
      "解": 1496,
      "言": 1497,
      "記": 1498,
      "訳": 1499,
      "試": 1500,
      "語": 1501,
      "論": 1502,
      "讓": 1503,
      "计": 1504,
      "讨": 1505,
      "许": 1506,
      "论": 1507,
      "话": 1508,
      "语": 1509,
      "说": 1510,
      "诸": 1511,
      "贪": 1512,
      "越": 1513,
      "足": 1514,
      "身": 1515,
      "車": 1516,
      "转": 1517,
      "辦": 1518,
      "达": 1519,
      "过": 1520,
      "运": 1521,
      "返": 1522,
      "追": 1523,
      "通": 1524,
      "逝": 1525,
      "進": 1526,
      "遣": 1527,
      "那": 1528,
      "都": 1529,
      "释": 1530,
      "量": 1531,
      "金": 1532,
      "鉄": 1533,
      "错": 1534,
      "长": 1535,
      "間": 1536,
      "间": 1537,
      "闻": 1538,
      "阿": 1539,
      "除": 1540,
      "陸": 1541,
      "障": 1542,
      "雨": 1543,
      "電": 1544,
      "靈": 1545,
      "非": 1546,
      "面": 1547,
      "韩": 1548,
      "音": 1549,
      "響": 1550,
      "願": 1551,
      "页": 1552,
      "须": 1553,
      "颂": 1554,
      "飞": 1555,
      "飲": 1556,
      "首": 1557,
      "龙": 1558,
      "꣡": 1559,
      "꣢": 1560,
      "꣣": 1561,
      "꣫": 1562,
      "꣯": 1563,
      "ꣲ": 1564,
      "ꣳ": 1565,
      "가": 1566,
      "간": 1567,
      "감": 1568,
      "개": 1569,
      "게": 1570,
      "고": 1571,
      "공": 1572,
      "과": 1573,
      "교": 1574,
      "국": 1575,
      "금": 1576,
      "급": 1577,
      "기": 1578,
      "깨": 1579,
      "나": 1580,
      "낱": 1581,
      "냐": 1582,
      "녹": 1583,
      "는": 1584,
      "니": 1585,
      "다": 1586,
      "달": 1587,
      "대": 1588,
      "더": 1589,
      "동": 1590,
      "두": 1591,
      "듬": 1592,
      "따": 1593,
      "뜨": 1594,
      "라": 1595,
      "락": 1596,
      "레": 1597,
      "력": 1598,
      "로": 1599,
      "름": 1600,
      "리": 1601,
      "만": 1602,
      "말": 1603,
      "망": 1604,
      "맵": 1605,
      "몸": 1606,
      "못": 1607,
      "뭐": 1608,
      "민": 1609,
      "받": 1610,
      "발": 1611,
      "백": 1612,
      "번": 1613,
      "법": 1614,
      "봇": 1615,
      "브": 1616,
      "비": 1617,
      "사": 1618,
      "산": 1619,
      "상": 1620,
      "서": 1621,
      "성": 1622,
      "세": 1623,
      "수": 1624,
      "술": 1625,
      "쉬": 1626,
      "슈": 1627,
      "스": 1628,
      "승": 1629,
      "시": 1630,
      "신": 1631,
      "아": 1632,
      "어": 1633,
      "없": 1634,
      "에": 1635,
      "염": 1636,
      "영": 1637,
      "예": 1638,
      "완": 1639,
      "외": 1640,
      "요": 1641,
      "우": 1642,
      "운": 1643,
      "월": 1644,
      "위": 1645,
      "을": 1646,
      "음": 1647,
      "의": 1648,
      "이": 1649,
      "인": 1650,
      "임": 1651,
      "입": 1652,
      "있": 1653,
      "자": 1654,
      "적": 1655,
      "전": 1656,
      "절": 1657,
      "정": 1658,
      "조": 1659,
      "좀": 1660,
      "주": 1661,
      "중": 1662,
      "증": 1663,
      "지": 1664,
      "째": 1665,
      "청": 1666,
      "크": 1667,
      "키": 1668,
      "탄": 1669,
      "탑": 1670,
      "터": 1671,
      "트": 1672,
      "특": 1673,
      "팅": 1674,
      "파": 1675,
      "하": 1676,
      "학": 1677,
      "한": 1678,
      "함": 1679,
      "합": 1680,
      "허": 1681,
      "효": 1682,
      "히": 1683,
      "힌": 1684,
      "힘": 1685,
      "︎": 1686,
      "️": 1687,
      "�": 1688,
      "𑆤": 1689,
      "𑌏": 1690,
      "𑌥": 1691,
      "𑌫": 1692,
      "𑌮": 1693,
      "𑌸": 1694,
      "𑐎": 1695,
      "𑐕": 1696,
      "𑐫": 1697,
      "𑐮": 1698,
      "𑐰": 1699,
      "𑐴": 1700,
      "𑐵": 1701,
      "𑑀": 1702,
      "𑑂": 1703,
      "𑑄": 1704,
      "𑑅": 1705,
      "🅰": 1706,
      "🇦": 1707,
      "🇮": 1708,
      "🇱": 1709,
      "🇳": 1710,
      "🇵": 1711,
      "🇸": 1712,
      "🇹": 1713,
      "🇺": 1714,
      "🌀": 1715,
      "🌃": 1716,
      "🌄": 1717,
      "🌅": 1718,
      "🌈": 1719,
      "🌉": 1720,
      "🌍": 1721,
      "🌎": 1722,
      "🌏": 1723,
      "🌖": 1724,
      "🌙": 1725,
      "🌛": 1726,
      "🌝": 1727,
      "🌞": 1728,
      "🌟": 1729,
      "🌠": 1730,
      "🌰": 1731,
      "🌱": 1732,
      "🌴": 1733,
      "🌷": 1734,
      "🌸": 1735,
      "🌹": 1736,
      "🌺": 1737,
      "🌻": 1738,
      "🌼": 1739,
      "🌿": 1740,
      "🍀": 1741,
      "🍁": 1742,
      "🍃": 1743,
      "🍋": 1744,
      "🍥": 1745,
      "🍾": 1746,
      "🎂": 1747,
      "🎃": 1748,
      "🎉": 1749,
      "🎊": 1750,
      "🎋": 1751,
      "🎎": 1752,
      "🎓": 1753,
      "🎖": 1754,
      "🎤": 1755,
      "🎯": 1756,
      "🎵": 1757,
      "🎶": 1758,
      "🎼": 1759,
      "🏀": 1760,
      "🏃": 1761,
      "🏏": 1762,
      "🏠": 1763,
      "🏮": 1764,
      "🏷": 1765,
      "🏹": 1766,
      "🏻": 1767,
      "🏽": 1768,
      "🐕": 1769,
      "🐙": 1770,
      "🐯": 1771,
      "👆": 1772,
      "👇": 1773,
      "👈": 1774,
      "👉": 1775,
      "👌": 1776,
      "👍": 1777,
      "👏": 1778,
      "👞": 1779,
      "👣": 1780,
      "👦": 1781,
      "👧": 1782,
      "👨": 1783,
      "👩": 1784,
      "👫": 1785,
      "👱": 1786,
      "👴": 1787,
      "💄": 1788,
      "💏": 1789,
      "💐": 1790,
      "💑": 1791,
      "💓": 1792,
      "💔": 1793,
      "💕": 1794,
      "💖": 1795,
      "💗": 1796,
      "💘": 1797,
      "💚": 1798,
      "💛": 1799,
      "💝": 1800,
      "💠": 1801,
      "💥": 1802,
      "💦": 1803,
      "💧": 1804,
      "💫": 1805,
      "💮": 1806,
      "💰": 1807,
      "💱": 1808,
      "💵": 1809,
      "📂": 1810,
      "📌": 1811,
      "📎": 1812,
      "📏": 1813,
      "📕": 1814,
      "📖": 1815,
      "📚": 1816,
      "📝": 1817,
      "📢": 1818,
      "📣": 1819,
      "📰": 1820,
      "📱": 1821,
      "📳": 1822,
      "📸": 1823,
      "📺": 1824,
      "🔅": 1825,
      "🔊": 1826,
      "🔍": 1827,
      "🔐": 1828,
      "🔔": 1829,
      "🔗": 1830,
      "🔟": 1831,
      "🔥": 1832,
      "🔰": 1833,
      "🔱": 1834,
      "🔶": 1835,
      "🔷": 1836,
      "🔸": 1837,
      "🔹": 1838,
      "🔺": 1839,
      "🔻": 1840,
      "🕉": 1841,
      "🕔": 1842,
      "🖊": 1843,
      "🖱": 1844,
      "🗃": 1845,
      "🗒": 1846,
      "🗣": 1847,
      "🗳": 1848,
      "😀": 1849,
      "😂": 1850,
      "😃": 1851,
      "😄": 1852,
      "😅": 1853,
      "😇": 1854,
      "😉": 1855,
      "😊": 1856,
      "😌": 1857,
      "😍": 1858,
      "😎": 1859,
      "😒": 1860,
      "😔": 1861,
      "😘": 1862,
      "😜": 1863,
      "😝": 1864,
      "😞": 1865,
      "😡": 1866,
      "😢": 1867,
      "😩": 1868,
      "😳": 1869,
      "🙁": 1870,
      "🙂": 1871,
      "🙅": 1872,
      "🙆": 1873,
      "🙌": 1874,
      "🙍": 1875,
      "🙎": 1876,
      "🙏": 1877,
      "🚑": 1878,
      "🚩": 1879,
      "🚷": 1880,
      "🛑": 1881,
      "🛡": 1882,
      "🤔": 1883,
      "🤗": 1884,
      "🤝": 1885,
      "🤦": 1886,
      "🤩": 1887,
      "🤪": 1888,
      "🤲": 1889,
      "🥀": 1890,
      "🥂": 1891,
      "🥇": 1892,
      "🥰": 1893,
      "🦂": 1894,
      "🧐": 1895,
      "🧜": 1896,
      "🩸": 1897,
      "🪔": 1898,
      "##र": 1899,
      "##्": 1900,
      "##ग": 1901,
      "##ा": 1902,
      "##न": 1903,
      "##ि": 1904,
      "##ी": 1905,
      "##क": 1906,
      "##ष": 1907,
      "##त": 1908,
      "##व": 1909,
      "##म": 1910,
      "##े": 1911,
      "##ढ": 1912,
      "##ं": 1913,
      "##उ": 1914,
      "##श": 1915,
      "##ब": 1916,
      "##ल": 1917,
      "##ः": 1918,
      "##ू": 1919,
      "##ण": 1920,
      "##य": 1921,
      "##ै": 1922,
      "##ह": 1923,
      "##ु": 1924,
      "##प": 1925,
      "##द": 1926,
      "##भ": 1927,
      "##ो": 1928,
      "##ऽ": 1929,
      "##स": 1930,
      "##ज": 1931,
      "##ञ": 1932,
      "##ध": 1933,
      "##च": 1934,
      "##छ": 1935,
      "##घ": 1936,
      "##ड": 1937,
      "##फ": 1938,
      "##ृ": 1939,
      "##अ": 1940,
      "##ट": 1941,
      "##a": 1942,
      "##c": 1943,
      "##k": 1944,
      "##e": 1945,
      "##r": 1946,
      "##ख": 1947,
      "##ौ": 1948,
      "##ठ": 1949,
      "##ङ": 1950,
      "##थ": 1951,
      "##इ": 1952,
      "##_": 1953,
      "##ए": 1954,
      "##ँ": 1955,
      "##ओ": 1956,
      "##ई": 1957,
      "##ॆ": 1958,
      "##४": 1959,
      "##२": 1960,
      "##१": 1961,
      "##ळ": 1962,
      "##l": 1963,
      "##h": 1964,
      "##o": 1965,
      "##d": 1966,
      "##ॊ": 1967,
      "##५": 1968,
      "##८": 1969,
      "##॑": 1970,
      "##4": 1971,
      "##9": 1972,
      "##8": 1973,
      "##॒": 1974,
      "##n": 1975,
      "##t": 1976,
      "##s": 1977,
      "##m": 1978,
      "##p": 1979,
      "##i": 1980,
      "##ॢ": 1981,
      "##j": 1982,
      "##़": 1983,
      "##झ": 1984,
      "##g": 1985,
      "##b": 1986,
      "##३": 1987,
      "##९": 1988,
      "##̐": 1989,
      "##̄": 1990,
      "##0": 1991,
      "##2": 1992,
      "##1": 1993,
      "##5": 1994,
      "##०": 1995,
      "##६": 1996,
      "##u": 1997,
      "##w": 1998,
      "##f": 1999,
      "##ऍ": 2000,
      "##ऊ": 2001,
      "##6": 2002,
      "##'": 2003,
      "##\"": 2004,
      "##७": 2005,
      "##3": 2006,
      "##7": 2007,
      "##v": 2008,
      "##y": 2009,
      "##z": 2010,
      "##ॉ": 2011,
      "##ऋ": 2012,
      "##᳚": 2013,
      "##ॅ": 2014,
      "##आ": 2015,
      "##ॐ": 2016,
      "##̇": 2017,
      "##.": 2018,
      "##/": 2019,
      "##உ": 2020,
      "##~": 2021,
      "##^": 2022,
      "##x": 2023,
      "##ോ": 2024,
      "##ക": 2025,
      "##ു": 2026,
      "##ന": 2027,
      "##്": 2028,
      "##q": 2029,
      "##ऴ": 2030,
      "##ā": 2031,
      "##ḥ": 2032,
      "##᳘": 2033,
      "##੍": 2034,
      "##ਰ": 2035,
      "##ੀ": 2036,
      "##ਤ": 2037,
      "##ਮ": 2038,
      "##ર": 2039,
      "##૦": 2040,
      "##ю": 2041,
      "##р": 2042,
      "##ь": 2043,
      "##м": 2044,
      "##а": 2045,
      "##ꣳ": 2046,
      "##¬": 2047,
      "##ʊ": 2048,
      "##ɡ": 2049,
      "##ɑ": 2050,
      "##ː": 2051,
      "##ə": 2052,
      "##ി": 2053,
      "##ശ": 2054,
      "##വ": 2055,
      "##ാ": 2056,
      "##സ": 2057,
      "##ം": 2058,
      "##ṣ": 2059,
      "##ऱ": 2060,
      "##গ": 2061,
      "##切": 2062,
      "##具": 2063,
      "##倒": 2064,
      "##义": 2065,
      "##́": 2066,
      "##ॄ": 2067,
      "##$": 2068,
      "##е": 2069,
      "##н": 2070,
      "##т": 2071,
      "##я": 2072,
      "##б": 2073,
      "##,": 2074,
      "##<": 2075,
      "##ऐ": 2076,
      "##%": 2077,
      "##ೊ": 2078,
      "##ಡ": 2079,
      "##ಗ": 2080,
      "##ು": 2081,
      "##)": 2082,
      "##음": 2083,
      "##하": 2084,
      "##기": 2085,
      "##晴": 2086,
      "##ら": 2087,
      "##し": 2088,
      "##か": 2089,
      "##っ": 2090,
      "##た": 2091,
      "##で": 2092,
      "##す": 2093,
      "##̥": 2094,
      "##ৰ": 2095,
      "##>": 2096,
      "##;": 2097,
      "##і": 2098,
      "##л": 2099,
      "##д": 2100,
      "##ʼ": 2101,
      "##ऩ": 2102,
      "##¤": 2103,
      "##=": 2104,
      "##േ": 2105,
      "##ര": 2106,
      "##॓": 2107,
      "##о": 2108,
      "##ы": 2109,
      "##й": 2110,
      "##衆": 2111,
      "##ऑ": 2112,
      "##-": 2113,
      "##औ": 2114,
      "##解": 2115,
      "##的": 2116,
      "##新": 2117,
      "##安": 2118,
      "##全": 2119,
      "##ṇ": 2120,
      "##ೇ": 2121,
      "##ದ": 2122,
      "##[": 2123,
      "##:": 2124,
      "##&": 2125,
      "##ع": 2126,
      "##م": 2127,
      "##ر": 2128,
      "##ū": 2129,
      "##।": 2130,
      "##æ": 2131,
      "##ং": 2132,
      "##ল": 2133,
      "##ா": 2134,
      "##ல": 2135,
      "##்": 2136,
      "##க": 2137,
      "##ு": 2138,
      "##ட": 2139,
      "##ி": 2140,
      "##ɛ": 2141,
      "##ˈ": 2142,
      "##사": 2143,
      "##합": 2144,
      "##니": 2145,
      "##다": 2146,
      "##ೀ": 2147,
      "##ಲ": 2148,
      "##á": 2149,
      "##̣": 2150,
      "##ऺ": 2151,
      "##!": 2152,
      "##꣡": 2153,
      "##꣢": 2154,
      "##ਸ": 2155,
      "##਼": 2156,
      "##ਾ": 2157,
      "##ਕ": 2158,
      "##ਲ": 2159,
      "##š": 2160,
      "##õ": 2161,
      "##ī": 2162,
      "##ા": 2163,
      "##ં": 2164,
      "##ચ": 2165,
      "##મ": 2166,
      "##ો": 2167,
      "##ർ": 2168,
      "##മ": 2169,
      "##ങ": 2170,
      "##ൾ": 2171,
      "##세": 2172,
      "##요": 2173,
      "##ి": 2174,
      "##న": 2175,
      "##ు": 2176,
      "##మ": 2177,
      "##つ": 2178,
      "##ע": 2179,
      "##ב": 2180,
      "##ר": 2181,
      "##י": 2182,
      "##ת": 2183,
      "##+": 2184,
      "##ജ": 2185,
      "##く": 2186,
      "##ü": 2187,
      "##탄": 2188,
      "##력": 2189,
      "##적": 2190,
      "##인": 2191,
      "##ṃ": 2192,
      "##️": 2193,
      "##⃣": 2194,
      "##름": 2195,
      "##?": 2196,
      "##ṛ": 2197,
      "##ê": 2198,
      "##ã": 2199,
      "##ˆ": 2200,
      "##à": 2201,
      "##è": 2202,
      "##🏽": 2203,
      "##ಾ": 2204,
      "##ಮ": 2205,
      "##ನ": 2206,
      "##🔐": 2207,
      "##}": 2208,
      "##꣣": 2209,
      "##]": 2210,
      "##라": 2211,
      "##ц": 2212,
      "##к": 2213,
      "##ñ": 2214,
      "##ö": 2215,
      "##ભ": 2216,
      "##ય": 2217,
      "##ણ": 2218,
      "##્": 2219,
      "##ற": 2220,
      "##த": 2221,
      "##ர": 2222,
      "##ൊ": 2223,
      "##പ": 2224,
      "##и": 2225,
      "##ل": 2226,
      "##ح": 2227,
      "##ي": 2228,
      "##î": 2229,
      "##щ": 2230,
      "##þ": 2231,
      "##백": 2232,
      "##异": 2233,
      "##过": 2234,
      "##果": 2235,
      "##同": 2236,
      "##ன": 2237,
      "##வ": 2238,
      "##ய": 2239,
      "##ו": 2240,
      "##ג": 2241,
      "##汇": 2242,
      "##త": 2243,
      "##ర": 2244,
      "##ా": 2245,
      "##జ": 2246,
      "##ো": 2247,
      "##া": 2248,
      "##ন": 2249,
      "##্": 2250,
      "##দ": 2251,
      "##ś": 2252,
      "##🌍": 2253,
      "##સ": 2254,
      "##ત": 2255,
      "##ৱ": 2256,
      "##ি": 2257,
      "##আ": 2258,
      "##ম": 2259,
      "##ব": 2260,
      "##ু": 2261,
      "##د": 2262,
      "##ى": 2263,
      "##𑑂": 2264,
      "##𑐰": 2265,
      "##𑐴": 2266,
      "##𑑄": 2267,
      "##ا": 2268,
      "##ك": 2269,
      "##ė": 2270,
      "##ó": 2271,
      "##比": 2272,
      "##度": 2273,
      "##其": 2274,
      "##余": 2275,
      "##ഭ": 2276,
      "##ദ": 2277,
      "##യ": 2278,
      "##་": 2279,
      "##ν": 2280,
      "##ഠ": 2281,
      "##ണ": 2282,
      "##ང": 2283,
      "##ས": 2284,
      "##ہ": 2285,
      "##و": 2286,
      "##ی": 2287,
      "##ۂ": 2288,
      "##い": 2289,
      "##॥": 2290,
      "##*": 2291,
      "##♥": 2292,
      "##с": 2293,
      "##в": 2294,
      "##•": 2295,
      "##婆": 2296,
      "##薩": 2297,
      "##哷": 2298,
      "##那": 2299,
      "##摩": 2300,
      "##ത": 2301,
      "##ള": 2302,
      "##ീ": 2303,
      "##ب": 2304,
      "##ن": 2305,
      "##ه": 2306,
      "##ṭ": 2307,
      "##į": 2308,
      "##િ": 2309,
      "##ધ": 2310,
      "##ગ": 2311,
      "##ળ": 2312,
      "##ெ": 2313,
      "##ਨ": 2314,
      "##❤": 2315,
      "##ē": 2316,
      "##ऎ": 2317,
      "##у": 2318,
      "##ч": 2319,
      "##款": 2320,
      "##్": 2321,
      "##ద": 2322,
      "##ధ": 2323,
      "##£": 2324,
      "##🙂": 2325,
      "##ȩ": 2326,
      "##ಯ": 2327,
      "##ಕ": 2328,
      "##신": 2329,
      "##중": 2330,
      "##입": 2331,
      "##📺": 2332,
      "##ੋ": 2333,
      "##ਣ": 2334,
      "##ı": 2335,
      "##ཊ": 2336,
      "##尔": 2337,
      "##破": 2338,
      "##依": 2339,
      "##故": 2340,
      "##œ": 2341,
      "##ರ": 2342,
      "##ಿ": 2343,
      "##ೆ": 2344,
      "##ж": 2345,
      "##ല": 2346,
      "##റ": 2347,
      "##μ": 2348,
      "##代": 2349,
      "##十": 2350,
      "##国": 2351,
      "##ల": 2352,
      "##ప": 2353,
      "##ž": 2354,
      "##৷": 2355,
      "##语": 2356,
      "##ز": 2357,
      "##ל": 2358,
      "##א": 2359,
      "##מ": 2360,
      "##ન": 2361,
      "##ç": 2362,
      "##ধ": 2363,
      "##ৃ": 2364,
      "##ত": 2365,
      "##ḍ": 2366,
      "##х": 2367,
      "##。": 2368,
      "##ક": 2369,
      "##ી": 2370,
      "##െ": 2371,
      "##ऌ": 2372,
      "##ॱ": 2373,
      "##ǁ": 2374,
      "##খ": 2375,
      "##প": 2376,
      "##য": 2377,
      "##়": 2378,
      "##ટ": 2379,
      "##ൃ": 2380,
      "##ധ": 2381,
      "##🇳": 2382,
      "##★": 2383,
      "##·": 2384,
      "##פ": 2385,
      "##ט": 2386,
      "##發": 2387,
      "##音": 2388,
      "##હ": 2389,
      "##ે": 2390,
      "##{": 2391,
      "##í": 2392,
      "##😃": 2393,
      "##終": 2394,
      "##電": 2395,
      "##車": 2396,
      "##◆": 2397,
      "##ロ": 2398,
      "##ー": 2399,
      "##バ": 2400,
      "##リ": 2401,
      "##ゼ": 2402,
      "##シ": 2403,
      "##ョ": 2404,
      "##ン": 2405,
      "##の": 2406,
      "##影": 2407,
      "##響": 2408,
      "##୍": 2409,
      "##ର": 2410,
      "##ତ": 2411,
      "##ି": 2412,
      "##ଭ": 2413,
      "##ା": 2414,
      "##ம": 2415,
      "##ᳪ": 2416,
      "##س": 2417,
      "##ت": 2418,
      "##习": 2419,
      "##র": 2420,
      "##む": 2421,
      "##ഗ": 2422,
      "##\\": 2423,
      "##🇮": 2424,
      "##然": 2425,
      "##地": 2426,
      "##지": 2427,
      "##う": 2428,
      "##少": 2429,
      "##寝": 2430,
      "##て": 2431,
      "##な": 2432,
      "##あ": 2433,
      "##п": 2434,
      "##ú": 2435,
      "##ॠ": 2436,
      "##💮": 2437,
      "##॔": 2438,
      "##🌹": 2439,
      "##械": 2440,
      "##人": 2441,
      "##é": 2442,
      "##ᛏ": 2443,
      "##ᚻ": 2444,
      "##ᛖ": 2445,
      "##ᚩ": 2446,
      "##ᛗ": 2447,
      "##ق": 2448,
      "##آ": 2449,
      "##ྨ": 2450,
      "##ི": 2451,
      "##−": 2452,
      "##ੁ": 2453,
      "##ੂ": 2454,
      "##ş": 2455,
      "##京": 2456,
      "##್": 2457,
      "##ತ": 2458,
      "##ಃ": 2459,
      "##×": 2460,
      "##᳭": 2461,
      "##ኳ": 2462,
      "##都": 2463,
      "##ே": 2464,
      "###": 2465,
      "##ந": 2466,
      "##ொ": 2467,
      "##ள": 2468,
      "##ோ": 2469,
      "##我": 2470,
      "##而": 2471,
      "##贪": 2472,
      "##±": 2473,
      "##ý": 2474,
      "##ɔ": 2475,
      "##ʏ": 2476,
      "##ʃ": 2477,
      "##🙏": 2478,
      "##💰": 2479,
      "##▼": 2480,
      "##所": 2481,
      "##说": 2482,
      "##相": 2483,
      "##反": 2484,
      "##💫": 2485,
      "##ą": 2486,
      "##ක": 2487,
      "##්": 2488,
      "##ත": 2489,
      "##ි": 2490,
      "##ය": 2491,
      "##성": 2492,
      "##듬": 2493,
      "##೧": 2494,
      "##೨": 2495,
      "##ಸ": 2496,
      "##브": 2497,
      "##뜨": 2498,
      "##리": 2499,
      "##அ": 2500,
      "##ப": 2501,
      "##作": 2502,
      "##复": 2503,
      "##须": 2504,
      "##г": 2505,
      "##᳖": 2506,
      "##八": 2507,
      "##ō": 2508,
      "##ł": 2509,
      "##પ": 2510,
      "##થ": 2511,
      "##ס": 2512,
      "##ם": 2513,
      "##ï": 2514,
      "##ષ": 2515,
      "##增": 2516,
      "##理": 2517,
      "##😞": 2518,
      "##ף": 2519,
      "##گ": 2520,
      "##ལ": 2521,
      "##ζ": 2522,
      "##ι": 2523,
      "##ò": 2524,
      "##🔥": 2525,
      "##ண": 2526,
      "##ડ": 2527,
      "##ṁ": 2528,
      "##金": 2529,
      "##ൈ": 2530,
      "##🍀": 2531,
      "##ᄉ": 2532,
      "##是": 2533,
      "##闻": 2534,
      "##遣": 2535,
      "##ಂ": 2536,
      "##咒": 2537,
      "##能": 2538,
      "##成": 2539,
      "##হ": 2540,
      "##ᘏ": 2541,
      "##ᗢ": 2542,
      "##ę": 2543,
      "##ച": 2544,
      "##✍": 2545,
      "##ǒ": 2546,
      "##ʿ": 2547,
      "##બ": 2548,
      "##̖": 2549,
      "##¢": 2550,
      "##ً": 2551,
      "##ì": 2552,
      "##年": 2553,
      "##月": 2554,
      "##ే": 2555,
      "##ス": 2556,
      "##パ": 2557,
      "##ླ": 2558,
      "##ܘ": 2559,
      "##ܒ": 2560,
      "##ܛ": 2561,
      "##య": 2562,
      "##ऄ": 2563,
      "##句": 2564,
      "##中": 2565,
      "##ҫ": 2566,
      "##ஷ": 2567,
      "##加": 2568,
      "##一": 2569,
      "##障": 2570,
      "##为": 2571,
      "##显": 2572,
      "##者": 2573,
      "##哉": 2574,
      "##🚩": 2575,
      "##₹": 2576,
      "##ട": 2577,
      "##👉": 2578,
      "##🏻": 2579,
      "##೦": 2580,
      "##ɪ": 2581,
      "##ј": 2582,
      "##😡": 2583,
      "##વ": 2584,
      "##觉": 2585,
      "##言": 2586,
      "##✨": 2587,
      "##亦": 2588,
      "##无": 2589,
      "##可": 2590,
      "##知": 2591,
      "##ೃ": 2592,
      "##з": 2593,
      "##←": 2594,
      "##発": 2595,
      "##仕": 2596,
      "##方": 2597,
      "##ে": 2598,
      "##ᆬ": 2599,
      "##☝": 2600,
      "##′": 2601,
      "##页": 2602,
      "##面": 2603,
      "##存": 2604,
      "##废": 2605,
      "##讨": 2606,
      "##论": 2607,
      "##通": 2608,
      "##ྥ": 2609,
      "##ུ": 2610,
      "##💕": 2611,
      "##使": 2612,
      "##🌈": 2613,
      "##ٹ": 2614,
      "##→": 2615,
      "##ൂ": 2616,
      "##ഷ": 2617,
      "##ൻ": 2618,
      "##༨": 2619,
      "##🌿": 2620,
      "##স": 2621,
      "##꣯": 2622,
      "##ṝ": 2623,
      "##ྱ": 2624,
      "##ྀ": 2625,
      "##六": 2626,
      "##不": 2627,
      "##念": 2628,
      "##长": 2629,
      "##📰": 2630,
      "##ć": 2631,
      "##క": 2632,
      "##ష": 2633,
      "##వ": 2634,
      "##ం": 2635,
      "##了": 2636,
      "##达": 2637,
      "##各": 2638,
      "##别": 2639,
      "##자": 2640,
      "##ø": 2641,
      "##ô": 2642,
      "##行": 2643,
      "##工": 2644,
      "##程": 2645,
      "##师": 2646,
      "##॰": 2647,
      "##と": 2648,
      "##ਬ": 2649,
      "##લ": 2650,
      "##け": 2651,
      "##π": 2652,
      "##引": 2653,
      "##何": 2654,
      "##ト": 2655,
      "##《": 2656,
      "##ắ": 2657,
      "##ᱧ": 2658,
      "##게": 2659,
      "##০": 2660,
      "##৩": 2661,
      "##â": 2662,
      "##ḏ": 2663,
      "##ઈ": 2664,
      "##청": 2665,
      "##∆": 2666,
      "##ä": 2667,
      "##ુ": 2668,
      "##🥀": 2669,
      "##θ": 2670,
      "##⭐": 2671,
      "##休": 2672,
      "##み": 2673,
      "##さ": 2674,
      "##દ": 2675,
      "##ʒ": 2676,
      "##ɜ": 2677,
      "##蝶": 2678,
      "##葬": 2679,
      "##花": 2680,
      "##č": 2681,
      "##ଡ": 2682,
      "##଼": 2683,
      "##ଆ": 2684,
      "##જ": 2685,
      "##ک": 2686,
      "##ِ": 2687,
      "##得": 2688,
      "##ഹ": 2689,
      "##כ": 2690,
      "##ן": 2691,
      "##ф": 2692,
      "##®": 2693,
      "##🤲": 2694,
      "##ᛋ": 2695,
      "##શ": 2696,
      "##お": 2697,
      "##め": 2698,
      "##≍": 2699,
      "##૪": 2700,
      "##한": 2701,
      "##민": 2702,
      "##국": 2703,
      "##ഥ": 2704,
      "##(": 2705,
      "##ร": 2706,
      "##บ": 2707,
      "##อ": 2708,
      "##ต": 2709,
      "##ř": 2710,
      "##宦": 2711,
      "##𑑀": 2712,
      "##스": 2713,
      "##크": 2714,
      "##트": 2715,
      "##어": 2716,
      "##로": 2717,
      "##🍃": 2718,
      "##格": 2719,
      "##터": 2720,
      "##레": 2721,
      "##서": 2722,
      "##许": 2723,
      "##彼": 2724,
      "##从": 2725,
      "##返": 2726,
      "##ʟ": 2727,
      "##ᴇ": 2728,
      "##ᴀ": 2729,
      "##韩": 2730,
      "##民": 2731,
      "##ÿ": 2732,
      "##ூ": 2733,
      "##ૃ": 2734,
      "##ƒ": 2735,
      "##수": 2736,
      "##증": 2737,
      "##ઃ": 2738,
      "##弥": 2739,
      "##α": 2740,
      "##ῖ": 2741,
      "##가": 2742,
      "##૧": 2743,
      "##†": 2744,
      "##전": 2745,
      "##히": 2746,
      "##►": 2747,
      "##@": 2748,
      "##ȧ": 2749,
      "##ફ": 2750,
      "##ṅ": 2751,
      "##を": 2752,
      "##ր": 2753,
      "##ե": 2754,
      "##ւ": 2755,
      "##ա": 2756,
      "##ն": 2757,
      "##̪": 2758,
      "##ஸ": 2759,
      "##√": 2760,
      "##⇒": 2761,
      "##😳": 2762,
      "##꣫": 2763,
      "##ሩ": 2764,
      "##ğ": 2765,
      "##ف": 2766,
      "##🤪": 2767,
      "##ї": 2768,
      "##락": 2769,
      "##급": 2770,
      "##ழ": 2771,
      "##ক": 2772,
      "##ά": 2773,
      "##は": 2774,
      "##よ": 2775,
      "##ご": 2776,
      "##ざ": 2777,
      "##ま": 2778,
      "##એ": 2779,
      "##থ": 2780,
      "##ॼ": 2781,
      "##意": 2782,
      "##語": 2783,
      "##書": 2784,
      "##ʉ": 2785,
      "##ʁ": 2786,
      "##ˌ": 2787,
      "##量": 2788,
      "##颂": 2789,
      "##❌": 2790,
      "##💐": 2791,
      "##ಠ": 2792,
      "##ബ": 2793,
      "##ە": 2794,
      "##ج": 2795,
      "##ں": 2796,
      "##出": 2797,
      "##因": 2798,
      "##ಳ": 2799,
      "##ೂ": 2800,
      "##ପ": 2801,
      "##ஶ": 2802,
      "##到": 2803,
      "##好": 2804,
      "##ਿ": 2805,
      "##ॡ": 2806,
      "##ư": 2807,
      "##ಶ": 2808,
      "##ಬ": 2809,
      "##此": 2810,
      "##除": 2811,
      "##ń": 2812,
      "##➧": 2813,
      "##于": 2814,
      "##身": 2815,
      "##生": 2816,
      "##ð": 2817,
      "##ீ": 2818,
      "##의": 2819,
      "##願": 2820,
      "##ア": 2821,
      "##ジ": 2822,
      "##ɒ": 2823,
      "##ệ": 2824,
      "##ഖ": 2825,
      "##ॿ": 2826,
      "##止": 2827,
      "##😘": 2828,
      "##西": 2829,
      "##班": 2830,
      "##牙": 2831,
      "##🕔": 2832,
      "##ě": 2833,
      "##话": 2834,
      "##ૂ": 2835,
      "##ˎ": 2836,
      "##઼": 2837,
      "##영": 2838,
      "##상": 2839,
      "##స": 2840,
      "##ୟ": 2841,
      "##章": 2842,
      "##消": 2843,
      "##化": 2844,
      "##吸": 2845,
      "##收": 2846,
      "##😄": 2847,
      "##ಪ": 2848,
      "##ಹ": 2849,
      "##ཱ": 2850,
      "##🏀": 2851,
      "##🏹": 2852,
      "##ャ": 2853,
      "##ۆ": 2854,
      "##ი": 2855,
      "##გ": 2856,
      "##უ": 2857,
      "##ა": 2858,
      "##🖊": 2859,
      "##೪": 2860,
      "##首": 2861,
      "##席": 2862,
      "##飞": 2863,
      "##运": 2864,
      "##检": 2865,
      "##查": 2866,
      "##员": 2867,
      "##永": 2868,
      "##続": 2869,
      "##繁": 2870,
      "##栄": 2871,
      "##げ": 2872,
      "##만": 2873,
      "##간": 2874,
      "##ё": 2875,
      "##球": 2876,
      "##研": 2877,
      "##究": 2878,
      "##日": 2879,
      "##大": 2880,
      "##利": 2881,
      "##ऒ": 2882,
      "##合": 2883,
      "##灭": 2884,
      "##常": 2885,
      "##如": 2886,
      "##类": 2887,
      "##错": 2888,
      "##名": 2889,
      "##ഈ": 2890,
      "##ρ": 2891,
      "##χ": 2892,
      "##ή": 2893,
      "##δ": 2894,
      "##η": 2895,
      "##ς": 2896,
      "##ઞ": 2897,
      "##ੱ": 2898,
      "##ਖ": 2899,
      "##å": 2900,
      "##є": 2901,
      "##τ": 2902,
      "##إ": 2903,
      "##✓": 2904,
      "##立": 2905,
      "##有": 2906,
      "##ק": 2907,
      "##当": 2908,
      "##𑐫": 2909,
      "##𑐵": 2910,
      "##𑐎": 2911,
      "##𑑅": 2912,
      "##ස": 2913,
      "##월": 2914,
      "##用": 2915,
      "##期": 2916,
      "##間": 2917,
      "##ה": 2918,
      "##政": 2919,
      "##官": 2920,
      "##📸": 2921,
      "##ط": 2922,
      "##ة": 2923,
      "##🌞": 2924,
      "##ボ": 2925,
      "##ッ": 2926,
      "##に": 2927,
      "##る": 2928,
      "##§": 2929,
      "##키": 2930,
      "##낱": 2931,
      "##말": 2932,
      "##ë": 2933,
      "##😂": 2934,
      "##益": 2935,
      "##境": 2936,
      "##چ": 2937,
      "##♀": 2938,
      "##ખ": 2939,
      "##🎼": 2940,
      "##ฮ": 2941,
      "##ิ": 2942,
      "##น": 2943,
      "##ด": 2944,
      "##ี": 2945,
      "##亲": 2946,
      "##和": 2947,
      "##祖": 2948,
      "##天": 2949,
      "##堂": 2950,
      "##更": 2951,
      "##伟": 2952,
      "##ラ": 2953,
      "##テ": 2954,
      "##ィ": 2955,
      "##승": 2956,
      "##ù": 2957,
      "##ш": 2958,
      "##⠀": 2959,
      "##술": 2960,
      "##૨": 2961,
      "##学": 2962,
      "##함": 2963,
      "##̶": 2964,
      "##父": 2965,
      "##👈": 2966,
      "##ऻ": 2967,
      "##声": 2968,
      "##应": 2969,
      "##广": 2970,
      "##ル": 2971,
      "##ὕ": 2972,
      "##κ": 2973,
      "##ை": 2974,
      "##염": 2975,
      "##ż": 2976,
      "##ವ": 2977,
      "##划": 2978,
      "##ፂ": 2979,
      "##🕉": 2980,
      "##ײ": 2981,
      "##ַ": 2982,
      "##ড": 2983,
      "##位": 2984,
      "##জ": 2985,
      "##خ": 2986,
      "##ڌ": 2987,
      "##ʌ": 2988,
      "##᮰": 2989,
      "##ල": 2990,
      "##ද": 2991,
      "##ව": 2992,
      "##ஹ": 2993,
      "##ై": 2994,
      "##ŏ": 2995,
      "##ế": 2996,
      "##事": 2997,
      "##‐": 2998,
      "##ె": 2999,
      "##డ": 3000,
      "##🐯": 3001,
      "##ী": 3002,
      "##🤩": 3003,
      "##교": 3004,
      "##̃": 3005,
      "##🌙": 3006,
      "##小": 3007,
      "##吗": 3008,
      "##େ": 3009,
      "##ଖ": 3010,
      "##କ": 3011,
      "##ଃ": 3012,
      "##ഛ": 3013,
      "##😅": 3014,
      "##ズ": 3015,
      "##ቮ": 3016,
      "##逝": 3017,
      "##孕": 3018,
      "##ß": 3019,
      "##°": 3020,
      "##が": 3021,
      "##ᛚ": 3022,
      "##💛": 3023,
      "##ཁ": 3024,
      "##མ": 3025,
      "##效": 3026,
      "##û": 3027,
      "##⛳": 3028,
      "##э": 3029,
      "##ഞ": 3030,
      "##ೋ": 3031,
      "##ん": 3032,
      "##ُ": 3033,
      "##ೲ": 3034,
      "##냐": 3035,
      "##🇹": 3036,
      "##🇦": 3037,
      "##🇺": 3038,
      "##🇵": 3039,
      "##🇱": 3040,
      "##🇸": 3041,
      "##›": 3042,
      "##デ": 3043,
      "##ྲ": 3044,
      "##ྭ": 3045,
      "##🌷": 3046,
      "##白": 3047,
      "##猫": 3048,
      "##答": 3049,
      "##외": 3050,
      "##나": 3051,
      "##域": 3052,
      "##稱": 3053,
      "##᳒": 3054,
      "##᭭": 3055,
      "##ট": 3056,
      "##ಟ": 3057,
      "##发": 3058,
      "##入": 3059,
      "##♡": 3060,
      "##ŋ": 3061,
      "##ܣ": 3062,
      "##ܦ": 3063,
      "##ܬ": 3064,
      "##ܐ": 3065,
      "##染": 3066,
      "##ち": 3067,
      "##ゃ": 3068,
      "##€": 3069,
      "##個": 3070,
      "##ǔ": 3071,
      "##¦": 3072,
      "##🔱": 3073,
      "##🎶": 3074,
      "##ئ": 3075,
      "##ছ": 3076,
      "##რ": 3077,
      "##დ": 3078,
      "##ც": 3079,
      "##ვ": 3080,
      "##ლ": 3081,
      "##운": 3082,
      "##이": 3083,
      "##🗃": 3084,
      "##處": 3085,
      "##岂": 3086,
      "##观": 3087,
      "##ጻ": 3088,
      "##茶": 3089,
      "##ひ": 3090,
      "##●": 3091,
      "##星": 3092,
      "##ᚾ": 3093,
      "##ᛁ": 3094,
      "##ᛞ": 3095,
      "##≥": 3096,
      "##國": 3097,
      "##尊": 3098,
      "##龙": 3099,
      "##쉬": 3100,
      "##시": 3101,
      "##👩": 3102,
      "##🎓": 3103,
      "##ش": 3104,
      "##互": 3105,
      "##杂": 3106,
      "##乱": 3107,
      "##ා": 3108,
      "##進": 3109,
      "##😍": 3110,
      "##أ": 3111,
      "##팅": 3112,
      "##自": 3113,
      "##陸": 3114,
      "##ઠ": 3115,
      "##👌": 3116,
      "##φ": 3117,
      "##や": 3118,
      "##整": 3119,
      "##时": 3120,
      "##间": 3121,
      "##表": 3122,
      "##处": 3123,
      "##চ": 3124,
      "##ό": 3125,
      "##ο": 3126,
      "##ੰ": 3127,
      "##ਜ": 3128,
      "##ე": 3129,
      "##ნ": 3130,
      "##ზ": 3131,
      "##ء": 3132,
      "##🎉": 3133,
      "##🍾": 3134,
      "##ᄌ": 3135,
      "##器": 3136,
      "##雨": 3137,
      "##▶": 3138,
      "##¡": 3139,
      "##대": 3140,
      "##못": 3141,
      "##깨": 3142,
      "##는": 3143,
      "##‹": 3144,
      "##ಭ": 3145,
      "##에": 3146,
      "##پ": 3147,
      "##吥": 3148,
      "##疆": 3149,
      "##维": 3150,
      "##ᭅ": 3151,
      "##😊": 3152,
      "##ൽ": 3153,
      "##🌺": 3154,
      "##ই": 3155,
      "##ᳬ": 3156,
      "##英": 3157,
      "##ྒ": 3158,
      "##ན": 3159,
      "##性": 3160,
      "##决": 3161,
      "##定": 3162,
      "##ķ": 3163,
      "##👨": 3164,
      "##👧": 3165,
      "##👇": 3166,
      "##ȯ": 3167,
      "##𑐕": 3168,
      "##💠": 3169,
      "##セ": 3170,
      "##イ": 3171,
      "##을": 3172,
      "##你": 3173,
      "##忘": 3174,
      "##記": 3175,
      "##憶": 3176,
      "##അ": 3177,
      "##タ": 3178,
      "##チ": 3179,
      "##コ": 3180,
      "##マ": 3181,
      "##봇": 3182,
      "##ઉ": 3183,
      "##ۇ": 3184,
      "##غ": 3185,
      "##👍": 3186,
      "##ಚ": 3187,
      "##れ": 3188,
      "##🌄": 3189,
      "##非": 3190,
      "##ә": 3191,
      "##ॾ": 3192,
      "##ω": 3193,
      "##转": 3194,
      "##ਂ": 3195,
      "##ਡ": 3196,
      "##̠": 3197,
      "##̍": 3198,
      "##印": 3199,
      "##⚕": 3200,
      "##ʋ": 3201,
      "##พ": 3202,
      "##่": 3203,
      "##ม": 3204,
      "##้": 3205,
      "##ห": 3206,
      "##า": 3207,
      "##🤝": 3208,
      "##ذ": 3209,
      "##泊": 3210,
      "##叉": 3211,
      "##‡": 3212,
      "##చ": 3213,
      "##ో": 3214,
      "##份": 3215,
      "##報": 3216,
      "##告": 3217,
      "##ষ": 3218,
      "##과": 3219,
      "##σ": 3220,
      "##째": 3221,
      "##き": 3222,
      "##💔": 3223,
      "##హ": 3224,
      "##두": 3225,
      "##ε": 3226,
      "##ὸ": 3227,
      "##康": 3228,
      "##朝": 3229,
      "##🍁": 3230,
      "##נ": 3231,
      "##ჱ": 3232,
      "##ฟ": 3233,
      "##ั": 3234,
      "##ง": 3235,
      "##ד": 3236,
      "##ש": 3237,
      "##ੇ": 3238,
      "##💑": 3239,
      "##円": 3240,
      "##介": 3241,
      "##🎖": 3242,
      "##ど": 3243,
      "##ų": 3244,
      "##ٰ": 3245,
      "##ク": 3246,
      "##与": 3247,
      "##属": 3248,
      "##ॺ": 3249,
      "##ૠ": 3250,
      "##😇": 3251,
      "##💗": 3252,
      "##文": 3253,
      "##北": 3254,
      "##శ": 3255,
      "##ਟ": 3256,
      "##۔": 3257,
      "##世": 3258,
      "##ዝ": 3259,
      "##ብ": 3260,
      "##威": 3261,
      "##📢": 3262,
      "##ڪ": 3263,
      "##ণ": 3264,
      "##ഴ": 3265,
      "##정": 3266,
      "##口": 3267,
      "##哥": 3268,
      "##ො": 3269,
      "##ම": 3270,
      "##ᳲ": 3271,
      "##诸": 3272,
      "##二": 3273,
      "##册": 3274,
      "##☘": 3275,
      "##💏": 3276,
      "##ܠ": 3277,
      "##्य": 3278,
      "##्र": 3279,
      "##्त": 3280,
      "##्व": 3281,
      "##ान": 3282,
      "##ति": 3283,
      "##र्": 3284,
      "##म्": 3285,
      "##ित": 3286,
      "प्र": 3287,
      "##त्": 3288,
      "##्या": 3289,
      "##ार": 3290,
      "##ां": 3291,
      "वि": 3292,
      "##क्": 3293,
      "##न्": 3294,
      "##ते": 3295,
      "##स्य": 3296,
      "##मा": 3297,
      "##ष्": 3298,
      "##या": 3299,
      "##स्त": 3300,
      "##न्त": 3301,
      "##क्ष": 3302,
      "##स्": 3303,
      "##त्र": 3304,
      "##र्व": 3305,
      "##द्": 3306,
      "##ना": 3307,
      "##िक": 3308,
      "##ेन": 3309,
      "##था": 3310,
      "##ाद": 3311,
      "##ेव": 3312,
      "##क्त": 3313,
      "##ाम": 3314,
      "##त्य": 3315,
      "##तः": 3316,
      "##ाय": 3317,
      "##पि": 3318,
      "##वि": 3319,
      "पर": 3320,
      "##ाः": 3321,
      "##्च": 3322,
      "##त्त": 3323,
      "##ाव": 3324,
      "##ष्ट": 3325,
      "नि": 3326,
      "पु": 3327,
      "##ेष": 3328,
      "##प्र": 3329,
      "इति": 3330,
      "सं": 3331,
      "##ाल": 3332,
      "##र्थ": 3333,
      "##नि": 3334,
      "##मि": 3335,
      "सर्व": 3336,
      "##दा": 3337,
      "##्वा": 3338,
      "##यो": 3339,
      "##दि": 3340,
      "भव": 3341,
      "##द्ध": 3342,
      "##ता": 3343,
      "वा": 3344,
      "एव": 3345,
      "##र्त": 3346,
      "##ेश": 3347,
      "##्ञ": 3348,
      "स्": 3349,
      "स्व": 3350,
      "##्यते": 3351,
      "##ाप": 3352,
      "##ङ्": 3353,
      "##ान्": 3354,
      "##ृत": 3355,
      "##रा": 3356,
      "##श्च": 3357,
      "अन": 3358,
      "##यं": 3359,
      "##्यं": 3360,
      "##ये": 3361,
      "##ास": 3362,
      "##ानि": 3363,
      "##भि": 3364,
      "सम": 3365,
      "##िं": 3366,
      "##रण": 3367,
      "##र्म": 3368,
      "##नं": 3369,
      "रा": 3370,
      "तु": 3371,
      "##ात": 3372,
      "##्रि": 3373,
      "##ुर": 3374,
      "##ज्ञ": 3375,
      "##नः": 3376,
      "##्ये": 3377,
      "##कार": 3378,
      "##यः": 3379,
      "##ने": 3380,
      "##ाग": 3381,
      "##रि": 3382,
      "##च्": 3383,
      "##न्द": 3384,
      "प्रति": 3385,
      "##ुः": 3386,
      "सु": 3387,
      "##सं": 3388,
      "##ाण": 3389,
      "##ती": 3390,
      "##न्ति": 3391,
      "##ेद": 3392,
      "##र्ष": 3393,
      "सा": 3394,
      "##रे": 3395,
      "हि": 3396,
      "##रो": 3397,
      "##ल्": 3398,
      "##त्व": 3399,
      "पू": 3400,
      "##ुक्त": 3401,
      "##ष्ठ": 3402,
      "##ानां": 3403,
      "##च्छ": 3404,
      "##स्ति": 3405,
      "##ैव": 3406,
      "##मान": 3407,
      "यथा": 3408,
      "##ेत": 3409,
      "##ूप": 3410,
      "##िव": 3411,
      "##द्य": 3412,
      "ते": 3413,
      "##ाह": 3414,
      "इत्य": 3415,
      "##तो": 3416,
      "##र्ण": 3417,
      "अध": 3418,
      "##ात्": 3419,
      "त्व": 3420,
      "कार": 3421,
      "मह": 3422,
      "एक": 3423,
      "##ीय": 3424,
      "##ान्त": 3425,
      "##मे": 3426,
      "##स्थ": 3427,
      "विश": 3428,
      "देव": 3429,
      "##ब्": 3430,
      "द्व": 3431,
      "##भव": 3432,
      "##गु": 3433,
      "##सि": 3434,
      "##नु": 3435,
      "##रु": 3436,
      "##िः": 3437,
      "##ेण": 3438,
      "##ोऽ": 3439,
      "##ाष": 3440,
      "श्र": 3441,
      "##लं": 3442,
      "##कं": 3443,
      "##हं": 3444,
      "##मु": 3445,
      "##ङ्ग": 3446,
      "क्": 3447,
      "उप": 3448,
      "##ैः": 3449,
      "##ुं": 3450,
      "##व्य": 3451,
      "तथा": 3452,
      "##स्या": 3453,
      "##ितः": 3454,
      "##रं": 3455,
      "##ेषु": 3456,
      "कु": 3457,
      "सम्": 3458,
      "##का": 3459,
      "##र्ग": 3460,
      "##भाव": 3461,
      "कि": 3462,
      "##ृष्ट": 3463,
      "##न्ध": 3464,
      "##द्व": 3465,
      "##री": 3466,
      "##सा": 3467,
      "##ृश": 3468,
      "##स्तु": 3469,
      "##मः": 3470,
      "राज": 3471,
      "##ष्य": 3472,
      "##कः": 3473,
      "मे": 3474,
      "##प्त": 3475,
      "भवति": 3476,
      "##देश": 3477,
      "##क्र": 3478,
      "कथ": 3479,
      "क्ष": 3480,
      "##ृह": 3481,
      "##णं": 3482,
      "##िता": 3483,
      "##तं": 3484,
      "##ण्": 3485,
      "##वा": 3486,
      "मा": 3487,
      "सह": 3488,
      "##त्या": 3489,
      "##नो": 3490,
      "##ग्": 3491,
      "##रः": 3492,
      "##के": 3493,
      "यो": 3494,
      "किं": 3495,
      "##द्र": 3496,
      "##सी": 3497,
      "स्थ": 3498,
      "##कृ": 3499,
      "परि": 3500,
      "##तु": 3501,
      "##ग्र": 3502,
      "##न्य": 3503,
      "##योग": 3504,
      "कृ": 3505,
      "--": 3506,
      "##हि": 3507,
      "##ोप": 3508,
      "वै": 3509,
      "##स्मा": 3510,
      "सू": 3511,
      "व्य": 3512,
      "मु": 3513,
      "ना": 3514,
      "अपि": 3515,
      "##र्श": 3516,
      "##ञ्च": 3517,
      "##र्य": 3518,
      "##धि": 3519,
      "##ितं": 3520,
      "तत्": 3521,
      "##नी": 3522,
      "##ानं": 3523,
      "समा": 3524,
      "यदि": 3525,
      "##्री": 3526,
      "एत": 3527,
      "स्त": 3528,
      "##न्न": 3529,
      "##दं": 3530,
      "##णा": 3531,
      "##मेव": 3532,
      "अप": 3533,
      "तस्य": 3534,
      "##भू": 3535,
      "##भ्य": 3536,
      "दु": 3537,
      "##ीव": 3538,
      "प्राप": 3539,
      "तद": 3540,
      "अनु": 3541,
      "पूर्व": 3542,
      "##स्व": 3543,
      "पृ": 3544,
      "##ला": 3545,
      "##त्वा": 3546,
      "##ुद्ध": 3547,
      "##ल्प": 3548,
      "भू": 3549,
      "##याः": 3550,
      "##ब्द": 3551,
      "##रूप": 3552,
      "अस्ति": 3553,
      "##क्षण": 3554,
      "##स्मि": 3555,
      "##चित": 3556,
      "वर्ष": 3557,
      "तत्र": 3558,
      "ज्ञ": 3559,
      "##लो": 3560,
      "##ध्य": 3561,
      "कृत": 3562,
      "दि": 3563,
      "##ित्य": 3564,
      "##नम्": 3565,
      "एवं": 3566,
      "##तिः": 3567,
      "पा": 3568,
      "##ृत्त": 3569,
      "##ेत्": 3570,
      "##लि": 3571,
      "प्रा": 3572,
      "##श्व": 3573,
      "##धान": 3574,
      "बह": 3575,
      "##चार": 3576,
      "##ण्ड": 3577,
      "विद": 3578,
      "##श्र": 3579,
      "##ुप": 3580,
      "मम": 3581,
      "##कृत": 3582,
      "अथ": 3583,
      "गु": 3584,
      "##पू": 3585,
      "##श्य": 3586,
      "अव": 3587,
      "##ादि": 3588,
      "##त्स": 3589,
      "भार": 3590,
      "नाम": 3591,
      "प्रत्य": 3592,
      "पुनः": 3593,
      "##यति": 3594,
      "##न्ते": 3595,
      "##ेति": 3596,
      "##च्च": 3597,
      "##ितम्": 3598,
      "##नां": 3599,
      "##मं": 3600,
      "##शि": 3601,
      "##्यां": 3602,
      "##ोष": 3603,
      "##्ज": 3604,
      "##वान्": 3605,
      "व्या": 3606,
      "के": 3607,
      "##र्ध": 3608,
      "यत्": 3609,
      "##र्ज": 3610,
      "##धिक": 3611,
      "##स्म": 3612,
      "##णि": 3613,
      "कर्त": 3614,
      "काल": 3615,
      "##ले": 3616,
      "##प्": 3617,
      "लो": 3618,
      "पुन": 3619,
      "##चि": 3620,
      "गृह": 3621,
      "##ीं": 3622,
      "##भाष": 3623,
      "या": 3624,
      "##यम्": 3625,
      "##श्": 3626,
      "##न्त्र": 3627,
      "##यम": 3628,
      "##काल": 3629,
      "##क्षा": 3630,
      "##ित्र": 3631,
      "##करण": 3632,
      "##ीत": 3633,
      "अन्य": 3634,
      "##भाग": 3635,
      "##ाना": 3636,
      "##ुव": 3637,
      "##पद": 3638,
      "##्रिय": 3639,
      "##ेषां": 3640,
      "##ाणि": 3641,
      "##त्म": 3642,
      "##र्थः": 3643,
      "##णे": 3644,
      "कर्म": 3645,
      "##ख्या": 3646,
      "##क्ति": 3647,
      "##ान्य": 3648,
      "स्म": 3649,
      "तदा": 3650,
      "##न्म": 3651,
      "##क्षि": 3652,
      "##पाद": 3653,
      "##न्द्र": 3654,
      "वृ": 3655,
      "प्रथ": 3656,
      "भाष": 3657,
      "स्या": 3658,
      "ग्र": 3659,
      "शि": 3660,
      "##तां": 3661,
      "##भिः": 3662,
      "प्रव": 3663,
      "अधिक": 3664,
      "तव": 3665,
      "##ानु": 3666,
      "जन": 3667,
      "##ामि": 3668,
      "सि": 3669,
      "##धा": 3670,
      "##स्त्र": 3671,
      "दृष्ट": 3672,
      "##युक्त": 3673,
      "##न्तु": 3674,
      "को": 3675,
      "वर्त": 3676,
      "##पर": 3677,
      "ततः": 3678,
      "##पु": 3679,
      "का": 3680,
      "##बन्ध": 3681,
      "##णां": 3682,
      "ति": 3683,
      "##ित्त": 3684,
      "##सु": 3685,
      "देश": 3686,
      "सः": 3687,
      "विष": 3688,
      "##सः": 3689,
      "##य्": 3690,
      "##ह्": 3691,
      "##स्था": 3692,
      "##णः": 3693,
      "##्वं": 3694,
      "तेन": 3695,
      "शु": 3696,
      "करो": 3697,
      "##ुरु": 3698,
      "ये": 3699,
      "क्र": 3700,
      "जीव": 3701,
      "##से": 3702,
      "केव": 3703,
      "कार्य": 3704,
      "##ूल": 3705,
      "##स्मिन्": 3706,
      "##वे": 3707,
      "##र्थं": 3708,
      "अभि": 3709,
      "उत्त": 3710,
      "##मो": 3711,
      "पुत्र": 3712,
      "##िका": 3713,
      "##पा": 3714,
      "प्राप्त": 3715,
      "##यु": 3716,
      "##काश": 3717,
      "##विष्य": 3718,
      "__": 3719,
      "धर्म": 3720,
      "##देव": 3721,
      "##दी": 3722,
      "##ायां": 3723,
      "##योः": 3724,
      "##षु": 3725,
      "##ोक्त": 3726,
      "अत्र": 3727,
      "##जन": 3728,
      "साम": 3729,
      "##ारा": 3730,
      "तं": 3731,
      "##मिति": 3732,
      "ब्र": 3733,
      "##ीति": 3734,
      "लि": 3735,
      "##्यो": 3736,
      "##वाद": 3737,
      "विश्व": 3738,
      "##दे": 3739,
      "##म्ब": 3740,
      "विक": 3741,
      "##च्यते": 3742,
      "भग": 3743,
      "मन": 3744,
      "इत्या": 3745,
      "##दान": 3746,
      "यु": 3747,
      "एष": 3748,
      "##सम": 3749,
      "##स्र": 3750,
      "##को": 3751,
      "##कम्": 3752,
      "##रुष": 3753,
      "##ट्": 3754,
      "त्रि": 3755,
      "##यि": 3756,
      "##तम": 3757,
      "##कु": 3758,
      "दृश": 3759,
      "##रम्": 3760,
      "विशेष": 3761,
      "कथं": 3762,
      "निव": 3763,
      "मया": 3764,
      "##नेन": 3765,
      "भाव": 3766,
      "##ित्": 3767,
      "##्याः": 3768,
      "20": 3769,
      "##ख्य": 3770,
      "##ोध": 3771,
      "##भा": 3772,
      "##प्य": 3773,
      "##मपि": 3774,
      "##क्षे": 3775,
      "##ध्ये": 3776,
      "भविष्य": 3777,
      "त्वं": 3778,
      "अहं": 3779,
      "##क्य": 3780,
      "##हार": 3781,
      "##्रिया": 3782,
      "चि": 3783,
      "##माण": 3784,
      "##विध": 3785,
      "##सार": 3786,
      "##ली": 3787,
      "स्वा": 3788,
      "२०": 3789,
      "##वः": 3790,
      "दे": 3791,
      "जग": 3792,
      "पुरुष": 3793,
      "##ज्य": 3794,
      "##शा": 3795,
      "##ोग": 3796,
      "##..": 3797,
      "##शः": 3798,
      "##नाः": 3799,
      "##यित": 3800,
      "अन्त": 3801,
      "##येत्": 3802,
      "##ज्ञान": 3803,
      "##्याय": 3804,
      "यः": 3805,
      "##पी": 3806,
      "बहु": 3807,
      "सप्त": 3808,
      "द्र": 3809,
      "##िते": 3810,
      "##प्रति": 3811,
      "##सीत्": 3812,
      "##ष्ण": 3813,
      "संस्": 3814,
      "हे": 3815,
      "##्यामि": 3816,
      "##चित्": 3817,
      "##ङ्क": 3818,
      "समु": 3819,
      "रूप": 3820,
      "पृथ": 3821,
      "सुख": 3822,
      "##तम्": 3823,
      "शब्द": 3824,
      "दिव": 3825,
      "पी": 3826,
      "##ष्ट्र": 3827,
      "पद": 3828,
      "##ऽपि": 3829,
      "##ुःख": 3830,
      "अह": 3831,
      "##त्त्व": 3832,
      "सर्वे": 3833,
      "वे": 3834,
      "साध": 3835,
      "##जा": 3836,
      "गुण": 3837,
      "##ृत्य": 3838,
      "##सम्": 3839,
      "तर्": 3840,
      "##ग्रह": 3841,
      "मि": 3842,
      "दी": 3843,
      "##पे": 3844,
      "दू": 3845,
      "##मी": 3846,
      "यत्र": 3847,
      "श्रु": 3848,
      "##ोः": 3849,
      "द्वि": 3850,
      "##विष": 3851,
      "##ोद": 3852,
      "##ाने": 3853,
      "##द्या": 3854,
      "निर्": 3855,
      "##त्वं": 3856,
      "##ृद": 3857,
      "पित": 3858,
      "##ायते": 3859,
      "##णम्": 3860,
      "##दृश": 3861,
      "तद्": 3862,
      "यदा": 3863,
      "##त्रं": 3864,
      "##ञ्ज": 3865,
      "विध": 3866,
      "पृष्ठ": 3867,
      "अतः": 3868,
      "त्र": 3869,
      "##यां": 3870,
      "##िताः": 3871,
      "आसीत्": 3872,
      "काम": 3873,
      "दश": 3874,
      "##चन": 3875,
      "##परि": 3876,
      "##काः": 3877,
      "##विश": 3878,
      "##षे": 3879,
      "##शब्द": 3880,
      "##हे": 3881,
      "बाल": 3882,
      "१९": 3883,
      "##सू": 3884,
      "१०": 3885,
      "सो": 3886,
      "दर्श": 3887,
      "कदा": 3888,
      "व्यव": 3889,
      "##दर्श": 3890,
      "##्यः": 3891,
      "योग": 3892,
      "##चना": 3893,
      "##ाणां": 3894,
      "##ताः": 3895,
      "आव": 3896,
      "##सिद्ध": 3897,
      "##गम": 3898,
      "##त्प": 3899,
      "ने": 3900,
      "चा": 3901,
      "##व्या": 3902,
      "##ीयते": 3903,
      "##लः": 3904,
      "##स्ते": 3905,
      "##er": 3906,
      "शा": 3907,
      "##न्व": 3908,
      "नमः": 3909,
      "अति": 3910,
      "यद": 3911,
      "भाग": 3912,
      "की": 3913,
      "##यते": 3914,
      "##त्रे": 3915,
      "मान": 3916,
      "##ग्नि": 3917,
      "तस्मा": 3918,
      "पि": 3919,
      "जा": 3920,
      "मां": 3921,
      "##धार": 3922,
      "##न्या": 3923,
      "##योज": 3924,
      "##यत्": 3925,
      "##णी": 3926,
      "##वी": 3927,
      "##शी": 3928,
      "स्यात्": 3929,
      "विना": 3930,
      "##ात्म": 3931,
      "##ैक": 3932,
      "##तया": 3933,
      "##हा": 3934,
      "##भेद": 3935,
      "ला": 3936,
      "वेद": 3937,
      "##त्रा": 3938,
      "##भ्यः": 3939,
      "करोति": 3940,
      "##रव": 3941,
      "संश": 3942,
      "##क्रम": 3943,
      "##र्ह": 3944,
      "स्प": 3945,
      "स्था": 3946,
      "लोक": 3947,
      "अस्य": 3948,
      "##्यम्": 3949,
      "##कृति": 3950,
      "भारत": 3951,
      "##__": 3952,
      "इदं": 3953,
      "एते": 3954,
      "रु": 3955,
      "##्ल": 3956,
      "रे": 3957,
      "परी": 3958,
      "##कर्त": 3959,
      "तेषां": 3960,
      "##ज्ज": 3961,
      "उक्त": 3962,
      "द्वित": 3963,
      "##दु": 3964,
      "##र्मा": 3965,
      "सिद्ध": 3966,
      "पञ्च": 3967,
      "##स्प": 3968,
      "##श्चि": 3969,
      "भगव": 3970,
      "##ेः": 3971,
      "स्त्री": 3972,
      "##वृत्त": 3973,
      "आह": 3974,
      "मू": 3975,
      "##म्भ": 3976,
      "दक्षि": 3977,
      "##षि": 3978,
      "##शु": 3979,
      "विव": 3980,
      "तर्हि": 3981,
      "विद्या": 3982,
      "पठ": 3983,
      "फल": 3984,
      "शक": 3985,
      "अत": 3986,
      "दुःख": 3987,
      "चतु": 3988,
      "##कर्म": 3989,
      "सदा": 3990,
      "वयं": 3991,
      "आग": 3992,
      "##िर": 3993,
      "##न्तः": 3994,
      "तस्या": 3995,
      "##ोऽपि": 3996,
      "##ारः": 3997,
      "##िति": 3998,
      "ततो": 3999,
      "##रणं": 4000,
      "वर्तते": 4001,
      "वद": 4002,
      "##ोज": 4003,
      "##ारं": 4004,
      "रक्ष": 4005,
      "##कि": 4006,
      "##वर्त": 4007,
      "##व्यं": 4008,
      "##र्द": 4009,
      "##यन": 4010,
      "##ीर": 4011,
      "ज्ञान": 4012,
      "क्षे": 4013,
      "अयं": 4014,
      "##र्घ": 4015,
      "सन्ति": 4016,
      "##ितो": 4017,
      "इव": 4018,
      "जु": 4019,
      "राष्ट्र": 4020,
      "##र्प": 4021,
      "भवेत्": 4022,
      "##सह": 4023,
      "##ातु": 4024,
      "यद्य": 4025,
      "इह": 4026,
      "##ध्या": 4027,
      "##पूर्व": 4028,
      "अस्मा": 4029,
      "कुर्व": 4030,
      "सत्य": 4031,
      "##भवत्": 4032,
      "##की": 4033,
      "##नाम": 4034,
      "सर्वं": 4035,
      "वर्षे": 4036,
      "गच्छ": 4037,
      "दोष": 4038,
      "और": 4039,
      "##st": 4040,
      "भविष्यति": 4041,
      "प्रथम": 4042,
      "पाप": 4043,
      "##लोक": 4044,
      "आस": 4045,
      "##र्थे": 4046,
      "##वाच": 4047,
      "जान": 4048,
      "##ेश्व": 4049,
      "##र्भ": 4050,
      "##द्वि": 4051,
      "##क्ष्य": 4052,
      "##ाम्": 4053,
      "##सो": 4054,
      "##नोति": 4055,
      "यस्य": 4056,
      "##मुख": 4057,
      "##ृण": 4058,
      "##ताम्": 4059,
      "भ्र": 4060,
      "##in": 4061,
      "##धे": 4062,
      "प्राण": 4063,
      "##स्थान": 4064,
      "क्रिय": 4065,
      "जल": 4066,
      "##व्यम्": 4067,
      "शी": 4068,
      "##त्वात्": 4069,
      "नो": 4070,
      "परिव": 4071,
      "अस": 4072,
      "##तीति": 4073,
      "तथ": 4074,
      "तत": 4075,
      "##ेक": 4076,
      "मो": 4077,
      "केवलं": 4078,
      "वाय": 4079,
      "##ादश": 4080,
      "सद": 4081,
      "##हः": 4082,
      "##मानं": 4083,
      "##ुम्": 4084,
      "क्व": 4085,
      "##पूर्ण": 4086,
      "कृत्वा": 4087,
      "जन्म": 4088,
      "##दाह": 4089,
      "उत्": 4090,
      "सामान्य": 4091,
      "प्रज": 4092,
      "वक्त": 4093,
      "##ैर": 4094,
      "कल": 4095,
      "पश्य": 4096,
      "याव": 4097,
      "##ाया": 4098,
      "पुं": 4099,
      "##गृह": 4100,
      "वृद्ध": 4101,
      "##राज": 4102,
      "##ब्ध": 4103,
      "घट": 4104,
      "परम": 4105,
      "...": 4106,
      "##कारः": 4107,
      "##हो": 4108,
      "येन": 4109,
      "##ीन": 4110,
      "वर्ण": 4111,
      "##an": 4112,
      "इत्यादि": 4113,
      "प्रि": 4114,
      "नग": 4115,
      "##ाये": 4116,
      "परं": 4117,
      "पूर्ण": 4118,
      "##वर्ष": 4119,
      "##थि": 4120,
      "जि": 4121,
      "अधि": 4122,
      "##ोच": 4123,
      "##ुम": 4124,
      "रात्र": 4125,
      "हृद": 4126,
      "नव": 4127,
      "##पाल": 4128,
      "##तिं": 4129,
      "##ारी": 4130,
      "नास्ति": 4131,
      "##ंश": 4132,
      "##म्य": 4133,
      "##पः": 4134,
      "##र्था": 4135,
      "##ारि": 4136,
      "केवल": 4137,
      "मनु": 4138,
      "कर": 4139,
      "##न्तं": 4140,
      "प्रश्": 4141,
      "##ण्य": 4142,
      "महा": 4143,
      "मध्य": 4144,
      "सौ": 4145,
      "वस्तु": 4146,
      "११": 4147,
      "बुद्ध": 4148,
      "करि": 4149,
      "##ar": 4150,
      "##माह": 4151,
      "किम्": 4152,
      "मध्ये": 4153,
      "विद्यते": 4154,
      "खः": 4155,
      "धन": 4156,
      "यज्ञ": 4157,
      "ब्रह्": 4158,
      "वाच": 4159,
      "##िकं": 4160,
      "##तर": 4161,
      "10": 4162,
      "##भ्या": 4163,
      "पाठ": 4164,
      "##ाप्त": 4165,
      "पूज": 4166,
      "##हित": 4167,
      "##on": 4168,
      "##मन": 4169,
      "##र्च": 4170,
      "##कर": 4171,
      "##भ्यां": 4172,
      "मुक्त": 4173,
      "अर्थ": 4174,
      "बि": 4175,
      "नं": 4176,
      "परा": 4177,
      "##ष्म": 4178,
      "##रेण": 4179,
      "प्राप्": 4180,
      "ले": 4181,
      "##लु": 4182,
      "##घ्र": 4183,
      "##गत": 4184,
      "##ब्र": 4185,
      "##रिक": 4186,
      "मास": 4187,
      "##वेद": 4188,
      "##भाषा": 4189,
      "201": 4190,
      "##ुना": 4191,
      "##मास": 4192,
      "##ष्टा": 4193,
      "भि": 4194,
      "##्म": 4195,
      "प्रभ": 4196,
      "प्रस": 4197,
      "नित": 4198,
      "##en": 4199,
      "##गुण": 4200,
      "##ज्ञा": 4201,
      "ताव": 4202,
      "##्यु": 4203,
      "---": 4204,
      "प्रकाश": 4205,
      "सर": 4206,
      "पुरा": 4207,
      "##माः": 4208,
      "##मात्र": 4209,
      "मित्र": 4210,
      "##धः": 4211,
      "यू": 4212,
      "##कल": 4213,
      "##at": 4214,
      "##वास": 4215,
      "समी": 4216,
      "##जः": 4217,
      "##साध": 4218,
      "प्रती": 4219,
      "लिख": 4220,
      "कल्प": 4221,
      "गो": 4222,
      "दृश्यते": 4223,
      "##ञ्": 4224,
      "राजा": 4225,
      "##्यू": 4226,
      "##ीया": 4227,
      "शुभ": 4228,
      "जात": 4229,
      "##र्वि": 4230,
      "##यत": 4231,
      "क्री": 4232,
      "##शं": 4233,
      "##ीम": 4234,
      "शरी": 4235,
      "कः": 4236,
      "##पत्त": 4237,
      "##र्न": 4238,
      "शक्त": 4239,
      "##दाय": 4240,
      "##तन्त्र": 4241,
      "हेत": 4242,
      "पुर": 4243,
      "एतत्": 4244,
      "क्रिया": 4245,
      "##यामि": 4246,
      "नः": 4247,
      "मूल": 4248,
      "##वत्": 4249,
      "दृष्ट्वा": 4250,
      "##ादृश": 4251,
      "ह्य": 4252,
      "##कल्प": 4253,
      "##यन्ति": 4254,
      "सर्वत्र": 4255,
      "##फल": 4256,
      "##es": 4257,
      "त्य": 4258,
      "##ेय": 4259,
      "निर": 4260,
      "युद्ध": 4261,
      "##लय": 4262,
      "बल": 4263,
      "यथ": 4264,
      "पाद": 4265,
      "१२": 4266,
      "##गे": 4267,
      "भाषा": 4268,
      "कुर": 4269,
      "##लभ": 4270,
      "##काले": 4271,
      "##वर्ण": 4272,
      "##शो": 4273,
      "##थं": 4274,
      "##ड्": 4275,
      "##नम": 4276,
      "शक्ति": 4277,
      "शेष": 4278,
      "रि": 4279,
      "##टि": 4280,
      "##क्षु": 4281,
      "##णाम": 4282,
      "##रस्य": 4283,
      "शत्र": 4284,
      "##or": 4285,
      "प्रे": 4286,
      "सूर्य": 4287,
      "प्रयोग": 4288,
      "से": 4289,
      "##ष्यति": 4290,
      "पश": 4291,
      "##नाय": 4292,
      "##धी": 4293,
      "पुनर": 4294,
      "सेव": 4295,
      "##ान्व": 4296,
      "##विशेष": 4297,
      "राज्य": 4298,
      "##ानाम्": 4299,
      "अग्नि": 4300,
      "##्ह": 4301,
      "##भूत": 4302,
      "मृ": 4303,
      "##मुक्त": 4304,
      "##ायं": 4305,
      "चे": 4306,
      "तम": 4307,
      "युक्त": 4308,
      "##om": 4309,
      "##नस्य": 4310,
      "पृथिव": 4311,
      "##षा": 4312,
      "यज": 4313,
      "भा": 4314,
      "##डि": 4315,
      "##दिति": 4316,
      "स्थान": 4317,
      "तृत": 4318,
      "स्थाप": 4319,
      "१८": 4320,
      "काले": 4321,
      "निष्": 4322,
      "##याम": 4323,
      "यद्": 4324,
      "##भवति": 4325,
      "##ष्यामि": 4326,
      "लक्ष": 4327,
      "इदान": 4328,
      "##काम": 4329,
      "##न्नि": 4330,
      "मनो": 4331,
      "##प्रत्य": 4332,
      "अभवत्": 4333,
      "भूत": 4334,
      "शिव": 4335,
      "##ात्र": 4336,
      "##वृ": 4337,
      "कृते": 4338,
      "##्वे": 4339,
      "वृत्त": 4340,
      "हो": 4341,
      "आर": 4342,
      "इच्छ": 4343,
      "##ायः": 4344,
      "वी": 4345,
      "##ड़": 4346,
      "आत्म": 4347,
      "सहस्र": 4348,
      "ता": 4349,
      "अध्य": 4350,
      "राम": 4351,
      "उभ": 4352,
      "नृ": 4353,
      "##णो": 4354,
      "वच": 4355,
      "किम": 4356,
      "नित्य": 4357,
      "##वार": 4358,
      "##बद्ध": 4359,
      "##ष्टं": 4360,
      "()": 4361,
      "त्वया": 4362,
      "नर": 4363,
      "१५": 4364,
      "##स्त्व": 4365,
      "##ाद्य": 4366,
      "संशयः": 4367,
      "विभ": 4368,
      "उपयोग": 4369,
      "सम्बन्ध": 4370,
      "##त्वेन": 4371,
      "##ाध": 4372,
      "##ित्वा": 4373,
      "##ैत": 4374,
      "नैव": 4375,
      "सुर": 4376,
      "प्रोक्त": 4377,
      "अद्य": 4378,
      "##००": 4379,
      "चिन्त": 4380,
      "कुरु": 4381,
      "भेद": 4382,
      "##दः": 4383,
      "सी": 4384,
      "##यात्": 4385,
      "इद": 4386,
      "##टी": 4387,
      "ग्रह": 4388,
      "##प्राप्त": 4389,
      "जायते": 4390,
      "##यन्": 4391,
      "अस्मिन्": 4392,
      "तमे": 4393,
      "विद्य": 4394,
      "##पो": 4395,
      "##शत": 4396,
      "मध": 4397,
      "##जं": 4398,
      "##ादी": 4399,
      "##लक्षण": 4400,
      "भारती": 4401,
      "कारण": 4402,
      "व्र": 4403,
      "कार्यं": 4404,
      "##सौ": 4405,
      "##तेन": 4406,
      "भवन्ति": 4407,
      "##ित्या": 4408,
      "शत": 4409,
      "सूचना": 4410,
      "दत्त": 4411,
      "स्वयं": 4412,
      "मात": 4413,
      "##तेः": 4414,
      "##त्वे": 4415,
      "##चर": 4416,
      "पे": 4417,
      "##करो": 4418,
      "##स्मै": 4419,
      "क्रीड": 4420,
      "##पति": 4421,
      "निर्व": 4422,
      "संस्कृत": 4423,
      "दीर्घ": 4424,
      "##ार्थ": 4425,
      "##देशे": 4426,
      "##ोत्त": 4427,
      "केन": 4428,
      "##न्थ": 4429,
      "पर्व": 4430,
      "प्रधान": 4431,
      "कौ": 4432,
      "उत्तर": 4433,
      "##वं": 4434,
      "##ानाम": 4435,
      "विज": 4436,
      "मार्ग": 4437,
      "नित्यं": 4438,
      "##ुत": 4439,
      "##ल्ल": 4440,
      "एकः": 4441,
      "उच्च": 4442,
      "ब्रह्म": 4443,
      "सव": 4444,
      "हस्त": 4445,
      "##दृष्ट": 4446,
      "तथापि": 4447,
      "##कस्य": 4448,
      "##्यात्": 4449,
      "##िकः": 4450,
      "गण": 4451,
      "निश्च": 4452,
      "वार": 4453,
      "शक्यते": 4454,
      "अन्यथा": 4455,
      "##धर्म": 4456,
      "लभ": 4457,
      "##मित्त": 4458,
      "दिन": 4459,
      "चेत्": 4460,
      "##विद्या": 4461,
      "##बल": 4462,
      "##स्याः": 4463,
      "कश्च": 4464,
      "विप": 4465,
      "##ेवं": 4466,
      "##समा": 4467,
      "..": 4468,
      "##al": 4469,
      "नी": 4470,
      "समुद्र": 4471,
      "लेख": 4472,
      "##मुप": 4473,
      "धार": 4474,
      "##निर्": 4475,
      "करण": 4476,
      "##मव": 4477,
      "##रोध": 4478,
      "विज्ञ": 4479,
      "##नियम": 4480,
      "ms": 4481,
      "१४": 4482,
      "स्वी": 4483,
      "स्वर्ग": 4484,
      "प्रण": 4485,
      "##ेष्ठ": 4486,
      "क्षेत्र": 4487,
      "शो": 4488,
      "##जि": 4489,
      "स्वप्": 4490,
      "19": 4491,
      "दुर्": 4492,
      "##शेष": 4493,
      "##हास": 4494,
      "##त्मा": 4495,
      "##ाहं": 4496,
      "##देशः": 4497,
      "##मन्त": 4498,
      "विचार": 4499,
      "##ान्न": 4500,
      "चैव": 4501,
      "##दौ": 4502,
      "##ीः": 4503,
      "##दश": 4504,
      "विषय": 4505,
      "अस्माकं": 4506,
      "यतः": 4507,
      "##वती": 4508,
      "तो": 4509,
      "##ान्ति": 4510,
      "वर": 4511,
      "##म्म": 4512,
      "ध्य": 4513,
      "##गः": 4514,
      "उच्यते": 4515,
      "##भ्यो": 4516,
      "ज्ञात": 4517,
      "##ेऽ": 4518,
      "ध्व": 4519,
      "किन्तु": 4520,
      "दक्षिण": 4521,
      "##ष्यते": 4522,
      "##वेश": 4523,
      "मृत्य": 4524,
      "##टे": 4525,
      "पुस्त": 4526,
      "क्रियते": 4527,
      "##क्षः": 4528,
      "यत": 4529,
      "##साय": 4530,
      "वर्तमान": 4531,
      "साक्ष": 4532,
      "इन्द्र": 4533,
      "भाषण": 4534,
      "विकल्प": 4535,
      "वाम": 4536,
      "##दू": 4537,
      "एका": 4538,
      "पूर्वं": 4539,
      "जनाः": 4540,
      "प्रवि": 4541,
      "##्रा": 4542,
      "गत": 4543,
      "##जी": 4544,
      "शक्": 4545,
      "अथवा": 4546,
      "वस": 4547,
      "##हर": 4548,
      "##र्क": 4549,
      "वन": 4550,
      "##न्ना": 4551,
      "##ag": 4552,
      "अमे": 4553,
      "वर्ग": 4554,
      "##येन": 4555,
      "##जीव": 4556,
      "भवतः": 4557,
      "चित्र": 4558,
      "पार": 4559,
      "लघ": 4560,
      "##्वि": 4561,
      "किञ्च": 4562,
      "##सर्व": 4563,
      "दृश्य": 4564,
      "न्या": 4565,
      "ईश्व": 4566,
      "तत्त": 4567,
      "##रिति": 4568,
      "##भावः": 4569,
      "बाह": 4570,
      "##विक": 4571,
      "##्वः": 4572,
      "##यस्य": 4573,
      "मुख": 4574,
      "रुप": 4575,
      "##ापि": 4576,
      "१७": 4577,
      "##मां": 4578,
      "नियम": 4579,
      "मन्त्र": 4580,
      "इत्युक्त": 4581,
      "हरि": 4582,
      "##द्भ": 4583,
      "पश्च": 4584,
      "##्ड": 4585,
      "##यात": 4586,
      "अत्य": 4587,
      "##्येत": 4588,
      "##यितुं": 4589,
      "शू": 4590,
      "१३": 4591,
      "कोई": 4592,
      "त्वां": 4593,
      "##मार्ग": 4594,
      "##वच": 4595,
      "##नाम्": 4596,
      "##धिकार": 4597,
      "##िनः": 4598,
      "तप": 4599,
      "##व्यः": 4600,
      "##रूपेण": 4601,
      "तिष्ठ": 4602,
      "##ष्या": 4603,
      "निय": 4604,
      "##00": 4605,
      "कृप": 4606,
      "लोके": 4607,
      "##रम": 4608,
      "विधि": 4609,
      "11": 4610,
      "##र्द्ध": 4611,
      "##ग्ने": 4612,
      "##इट": 4613,
      "##तोऽ": 4614,
      "पृष्ठानि": 4615,
      "तां": 4616,
      "##ादेश": 4617,
      "##वान": 4618,
      "श्री": 4619,
      "##दत्त": 4620,
      "##मिदं": 4621,
      "##ल्य": 4622,
      "##जे": 4623,
      "संयुक्त": 4624,
      "कम": 4625,
      "माता": 4626,
      "प्रवर्त": 4627,
      "परमा": 4628,
      "##it": 4629,
      "कार्या": 4630,
      "##कृत्य": 4631,
      "##पद्यते": 4632,
      "भक्त": 4633,
      "दृ": 4634,
      "##खि": 4635,
      "अती": 4636,
      "शीघ्र": 4637,
      "अम": 4638,
      "##निक": 4639,
      "##ासु": 4640,
      "विभाग": 4641,
      "योज": 4642,
      "##संधान": 4643,
      "शृण": 4644,
      "गुर": 4645,
      "१६": 4646,
      "##क्षं": 4647,
      "##द्रा": 4648,
      "इत": 4649,
      "त्वा": 4650,
      "##स्थाप": 4651,
      "##त्वम्": 4652,
      "उदाह": 4653,
      "##हेत": 4654,
      "उद्": 4655,
      "अन्व": 4656,
      "##च्छति": 4657,
      "##पं": 4658,
      "##ही": 4659,
      "12": 4660,
      "##गो": 4661,
      "उद": 4662,
      "प्रातः": 4663,
      "रो": 4664,
      "वेब": 4665,
      "शास्त्र": 4666,
      "विप्र": 4667,
      "यं": 4668,
      "लाभ": 4669,
      "##कर्ष": 4670,
      "##शक्त": 4671,
      "##शास": 4672,
      "##पुत्र": 4673,
      "निर्म": 4674,
      "पर्य": 4675,
      "विस्त": 4676,
      "भावः": 4677,
      "अभ": 4678,
      "इत्यस्य": 4679,
      "##ुध": 4680,
      "##कूल": 4681,
      "ii": 4682,
      "##न्तरं": 4683,
      "भवान्": 4684,
      "भारतीय": 4685,
      "स्मृ": 4686,
      "दैव": 4687,
      "अनुसंधान": 4688,
      "तद्व": 4689,
      "##वो": 4690,
      "तथैव": 4691,
      "##गण": 4692,
      "##साम": 4693,
      "##द्धि": 4694,
      "##ान्तर": 4695,
      "##सां": 4696,
      "अनेन": 4697,
      "प्रार्थ": 4698,
      "##मनु": 4699,
      "##मार": 4700,
      "पदा": 4701,
      "##क्रिया": 4702,
      "पुनर्": 4703,
      "क्षण": 4704,
      "##ैर्": 4705,
      "सर्वेषां": 4706,
      "सूत्र": 4707,
      "##धिकरण": 4708,
      "##पर्य": 4709,
      "##मित्य": 4710,
      "पिता": 4711,
      "##तन": 4712,
      "##यौ": 4713,
      "##ज्यते": 4714,
      "अध्या": 4715,
      "##ाला": 4716,
      "##शास्त्र": 4717,
      "सङ्": 4718,
      "प्रकृति": 4719,
      "##भवः": 4720,
      "##र्या": 4721,
      "##ुरुष": 4722,
      "ज्यो": 4723,
      "श्": 4724,
      "विषये": 4725,
      "विकास": 4726,
      "गति": 4727,
      "##नात्": 4728,
      "भु": 4729,
      "##ष्टः": 4730,
      "शुद्ध": 4731,
      "##शे": 4732,
      "##बुद्ध": 4733,
      "वेबसा": 4734,
      "##स्मात्": 4735,
      "##बि": 4736,
      "##पुर": 4737,
      "संसार": 4738,
      "##ेक्ष": 4739,
      "##लम्": 4740,
      "##मू": 4741,
      "##हु": 4742,
      "द्रष्ट": 4743,
      "##नीय": 4744,
      "द्वादश": 4745,
      "विकि": 4746,
      "परिवर्त": 4747,
      "##वां": 4748,
      "धात": 4749,
      "प्रयोज": 4750,
      "है": 4751,
      "##रूपं": 4752,
      "सति": 4753,
      "हृ": 4754,
      "##ित्व": 4755,
      "साह": 4756,
      "हर": 4757,
      "सम्य": 4758,
      "इदानीं": 4759,
      "ननु": 4760,
      "सिं": 4761,
      "परीक्षा": 4762,
      "दा": 4763,
      "##ृतं": 4764,
      "##ितानि": 4765,
      "अधिकतम": 4766,
      "चित्त": 4767,
      "इत्येत": 4768,
      "##बोध": 4769,
      "##रुद्ध": 4770,
      "##वस": 4771,
      "##कर्ता": 4772,
      "##मस्ति": 4773,
      "##ज्ञः": 4774,
      "प्राप्नोति": 4775,
      "विनि": 4776,
      "##याम्": 4777,
      "फलं": 4778,
      "##ची": 4779,
      "विष्ण": 4780,
      "##ाण्ड": 4781,
      "समाप्त": 4782,
      "##थः": 4783,
      "##न्दि": 4784,
      "वेबसाइट": 4785,
      "##मम्": 4786,
      "##ेष्व": 4787,
      "##मह": 4788,
      "##ों": 4789,
      "##भार": 4790,
      "##मानः": 4791,
      "##पृ": 4792,
      "##कार्य": 4793,
      "खलु": 4794,
      "कस्य": 4795,
      "##परा": 4796,
      "##भ्र": 4797,
      "##स्तथा": 4798,
      "##ोत": 4799,
      "##न्त्य": 4800,
      "##ेषण": 4801,
      "सर्वदा": 4802,
      "कुर्वन्ति": 4803,
      "##िके": 4804,
      "वो": 4805,
      "द्विती": 4806,
      "विह": 4807,
      "##षेध": 4808,
      "जू": 4809,
      "प्रमाण": 4810,
      "मुख्य": 4811,
      "इत्यर्थः": 4812,
      "स्न": 4813,
      "##थे": 4814,
      "संख्या": 4815,
      "##मेत": 4816,
      "ग्राम": 4817,
      "##सर्ग": 4818,
      "सम्बद्ध": 4819,
      "सर्वा": 4820,
      "##यित्वा": 4821,
      "##केन": 4822,
      "रोग": 4823,
      "प्रश्न": 4824,
      "##हम्": 4825,
      "पुष्": 4826,
      "##चित्र": 4827,
      "##ह्य": 4828,
      "सार": 4829,
      "तस्मात्": 4830,
      "##लिख": 4831,
      "वर्ध": 4832,
      "##ic": 4833,
      "तौ": 4834,
      "##च्य": 4835,
      "गुरु": 4836,
      "दूर": 4837,
      "##वरी": 4838,
      "15": 4839,
      "गृहे": 4840,
      "भगवान्": 4841,
      "##व्यव": 4842,
      "##पार": 4843,
      "##ed": 4844,
      "##ितवान्": 4845,
      "प्रयत्": 4846,
      "यतो": 4847,
      "श्व": 4848,
      "##लक्ष": 4849,
      "आप": 4850,
      "प्रसिद्ध": 4851,
      "##्याव": 4852,
      "अधिनियम": 4853,
      "कारणं": 4854,
      "तत्त्व": 4855,
      "##नानि": 4856,
      "समान": 4857,
      "देशे": 4858,
      "नू": 4859,
      "##यी": 4860,
      "सङ्ग": 4861,
      "##स्ट": 4862,
      "प्रच": 4863,
      "##िकी": 4864,
      "प्रय": 4865,
      "##ाग्र": 4866,
      "##ऽऽ": 4867,
      "पव": 4868,
      "पक्ष": 4869,
      "##ग्ध": 4870,
      "##ुक": 4871,
      "देवा": 4872,
      "##गा": 4873,
      "महि": 4874,
      "सोम": 4875,
      "##त्रि": 4876,
      "##र्ति": 4877,
      "##शक्ति": 4878,
      "त्या": 4879,
      "प्रवृत्त": 4880,
      "यावत्": 4881,
      "##कृतं": 4882,
      "पति": 4883,
      "##षां": 4884,
      "##दपि": 4885,
      "##str": 4886,
      "शै": 4887,
      "##प्रि": 4888,
      "समाचार": 4889,
      "18": 4890,
      "विशि": 4891,
      "##am": 4892,
      "रस": 4893,
      "##कारं": 4894,
      "##कारेण": 4895,
      "##ोर": 4896,
      "##ाह्म": 4897,
      "##सङ्ग": 4898,
      "दण्ड": 4899,
      "##ou": 4900,
      "##ृहं": 4901,
      "##स्यापि": 4902,
      "तस्मिन्": 4903,
      "वृक्ष": 4904,
      "ne": 4905,
      "##ूनां": 4906,
      "##ितुं": 4907,
      "अहम्": 4908,
      "##कृते": 4909,
      "शक्य": 4910,
      "##र्थम्": 4911,
      "बी": 4912,
      "तर": 4913,
      "वाक्य": 4914,
      "भवे": 4915,
      "पितृ": 4916,
      "न्यू": 4917,
      "##च्छेद": 4918,
      "स्य": 4919,
      "छात्र": 4920,
      "उत्पाद": 4921,
      "एवम्": 4922,
      "भोज": 4923,
      "नै": 4924,
      "##ारो": 4925,
      "मद": 4926,
      "##स्पर": 4927,
      "##त्ति": 4928,
      "##सहस्र": 4929,
      "गम": 4930,
      "##िकाः": 4931,
      "लक्षण": 4932,
      "##जात": 4933,
      "##घ्": 4934,
      "अग": 4935,
      "##दिष्ट": 4936,
      "द्वारा": 4937,
      "##स्यां": 4938,
      "एषा": 4939,
      "प्रशि": 4940,
      "युव": 4941,
      "पाल": 4942,
      "पश्चि": 4943,
      "श्रुत्वा": 4944,
      "##मेण": 4945,
      "##ाग्": 4946,
      "in": 4947,
      "षष्ठ": 4948,
      "##निः": 4949,
      "##दिश": 4950,
      "निवेद": 4951,
      "चन्द्र": 4952,
      "##le": 4953,
      "पत्र": 4954,
      "यद्यपि": 4955,
      "##युः": 4956,
      "प्रभाव": 4957,
      "एकं": 4958,
      "##कम": 4959,
      "##iv": 4960,
      "##तौ": 4961,
      "कथा": 4962,
      "##भे": 4963,
      "नार": 4964,
      "मै": 4965,
      "सक": 4966,
      "##यान": 4967,
      "इयं": 4968,
      "##टः": 4969,
      "कर्तुं": 4970,
      "##टा": 4971,
      "अज": 4972,
      "निः": 4973,
      "अनि": 4974,
      "##ान्ते": 4975,
      "##खा": 4976,
      "निर्ण": 4977,
      "गि": 4978,
      "अस्म": 4979,
      "ती": 4980,
      "##क्तं": 4981,
      "##िक्त": 4982,
      "परम्": 4983,
      "कश्चि": 4984,
      "##न्तर": 4985,
      "##षण": 4986,
      "##विधान": 4987,
      "स्फ": 4988,
      "वाक": 4989,
      "न्ह": 4990,
      "सन्द": 4991,
      "##दोष": 4992,
      "##विधि": 4993,
      "##कू": 4994,
      "##माणं": 4995,
      "२०१": 4996,
      "##र्त्त": 4997,
      "अष्ट": 4998,
      "##दो": 4999
    }
  }
}