<unk>	0
<s>	0
</s>	0
▁	-2.58881
।	-3.12449
ं	-3.78052
ः	-3.87424
े	-4.53035
॥	-4.62763
,	-4.70033
▁न	-4.72677
म्	-4.8426
ा	-4.87254
▁च	-4.90107
-	-4.92378
ो	-5.07226
.	-5.15531
स्य	-5.31584
▁-	-5.33079
▁(	-5.41671
▁स	-5.42209
▁इति	-5.44801
)	-5.44953
म	-5.46505
▁"	-5.49784
ाः	-5.76509
▁अ	-5.76872
ेन	-5.89454
"	-5.94668
▁वा	-5.98047
न	-5.99668
▁एव	-6.00722
ी	-6.01206
▁तु	-6.04083
त	-6.05078
ति	-6.09207
या	-6.18252
ि	-6.19807
▁हि	-6.22082
▁.	-6.24859
क	-6.25674
▁यथा	-6.36821
'	-6.38725
▁'	-6.39968
स	-6.40455
ते	-6.42671
ाय	-6.44176
▁ते	-6.46609
तः	-6.47431
▁प्र	-6.4925
ौ	-6.50491
ानि	-6.51809
ानां	-6.53061
ता	-6.54093
▁भवति	-6.56396
ात्	-6.62643
्	-6.64057
?	-6.64155
र	-6.66525
▁_	-6.66726
▁आ	-6.66957
▁तथा	-6.67242
य	-6.6796
▁वि	-6.69021
ैः	-6.70299
श्च	-6.71512
अ	-6.73045
▁सर्व	-6.74266
ेषु	-6.74421
▁अपि	-6.75721
▁स्व	-6.76423
न्	-6.7746
▁तस्य	-6.77549
▁प्रति	-6.78627
▁यदि	-6.78807
▁किं	-6.78915
्य	-6.79115
व	-6.80569
▁?	-6.82751
▁मे	-6.82818
▁अस्ति	-6.8424
ना	-6.85501
र्	-6.86127
:	-6.86255
ान्	-6.87638
॒	-6.88265
▁मम	-6.90428
▁तत्	-6.97721
मा	-6.98763
▁एवं	-6.99593
स्	-7.00368
त्	-7.00931
▁सा	-7.01179
▁तत्र	-7.0285
▁पुनः	-7.03557
▁पर	-7.03891
▁सु	-7.08488
प	-7.09144
ां	-7.10367
▁नाम	-7.10763
॑	-7.11007
▁व	-7.11884
▁सं	-7.1286
नि	-7.13139
▁वै	-7.13394
ेण	-7.14112
च	-7.15907
▁यत्	-7.16219
श	-7.1664
पि	-7.1753
▁सह	-7.1772
वि	-7.19476
ादि	-7.20774
द	-7.22457
▁य	-7.22773
ग	-7.24302
१	-7.27167
▁तदा	-7.27794
मेव	-7.28486
सि	-7.29367
▁एक	-7.29419
▁ततः	-7.29556
▁अथ	-7.29664
तो	-7.2977
▁तव	-7.32327
प्र	-7.32371
ज	-7.33216
▁तेन	-7.33254
ॊ	-7.33758
▁२	-7.34303
]	-7.34769
तु	-7.34866
▁१	-7.35193
/	-7.35395
स्तु	-7.35962
ल	-7.36056
ु	-7.36845
;	-7.36981
▁त	-7.37732
▁परि	-7.38704
त्व	-7.40606
▁=	-7.41467
ेति	-7.42534
ये	-7.4285
०	-7.44058
सं	-7.44116
ह	-7.44587
▁तद्	-7.44626
मिति	-7.44864
▁__	-7.4566
▁क	-7.46048
न्ति	-7.46516
s	-7.47008
▁मया	-7.4757
▁सः	-7.48177
▁[	-7.48708
▁प	-7.4929
वा	-7.49468
▁ये	-7.49701
▁मा	-7.49864
▁तं	-7.49965
२	-7.50458
▁!	-7.50549
▁अत्र	-7.51409
▁कथं	-7.52634
▁उप	-7.53058
▁देव	-7.53335
▁यो	-7.54107
का	-7.5506
के	-7.56043
▁तद	-7.56155
त्वं	-7.5636
!	-7.56868
ने	-7.58139
सु	-7.58473
▁पूर्व	-7.58506
▁नि	-7.58657
स्व	-7.58694
▁अहं	-7.59055
▁कर्म	-7.60488
यति	-7.61291
कः	-7.61382
नं	-7.61538
▁सम	-7.61732
गु	-7.62021
य्	-7.63275
▁त्वं	-7.63864
्या	-7.65589
ार्थ	-7.67093
सा	-7.67221
▁धर्म	-7.67784
--	-7.6803
यो	-7.68411
ण	-7.68435
भिः	-7.68582
थ	-7.6861
▁के	-7.69357
कं	-7.6955
▁ॐ	-7.70317
▁यत्र	-7.70527
योः	-7.70602
▁यः	-7.71222
▁हे	-7.71683
तां	-7.72821
आ	-7.73088
▁आसीत्	-7.73258
▁स्यात्	-7.73628
▁या	-7.74169
ै	-7.7445
ऽ	-7.74823
वान्	-7.75329
यां	-7.75613
ित	-7.76158
▁ह	-7.76201
ाणां	-7.76541
▁का	-7.76682
▁३	-7.76989
▁सर्वे	-7.77496
▁अतः	-7.77517
▁उ	-7.77868
▁यदा	-7.78647
▁--	-7.78956
द्	-7.80615
मपि	-7.81361
▁नमः	-7.8137
ाद	-7.82098
भ	-7.82296
ैव	-7.82419
ख	-7.83117
ान	-7.83167
त्र	-7.84133
▁/	-7.84328
यः	-7.84757
▁वर्ष	-7.84877
तया	-7.86648
ब	-7.87076
ड	-7.87394
िक	-7.88218
याः	-7.88637
▁करोति	-7.88818
▁दु	-7.89014
__	-7.89953
ाद्	-7.90455
▁गुण	-7.90791
से	-7.91155
ट	-7.91278
इ	-7.92005
हि	-7.92306
▁तेषां	-7.9294
त्वात्	-7.93022
रा	-7.93508
▁अस्य	-7.93768
▁अन्य	-7.94307
▁४	-7.94332
▁भव	-7.95235
त्य	-7.95246
▁1	-7.95264
▁भवेत्	-7.95431
ञ्च	-7.95947
ोप	-7.96214
स्त	-7.96315
कार	-7.96531
▁तर्हि	-7.96569
▁इदं	-7.96645
▁इत्य	-7.96802
ती	-7.97265
▁प्रथम	-7.97895
▁वर्तते	-7.98769
▁महा	-7.99182
▁विश्व	-7.99235
▁इव	-7.99309
▁सदा	-7.99534
वत्	-7.99558
▁वयं	-8.00412
ीय	-8.00568
▁ग	-8.0168
▁सन्ति	-8.01818
घ	-8.02305
दा	-8.02383
▁मां	-8.02447
▁द	-8.02862
मि	-8.03303
▁कार्य	-8.03346
▁५	-8.03477
▁वेद	-8.03785
▁भविष्यति	-8.03787
▁इ	-8.03851
ोऽ	-8.03918
ैर्	-8.04519
३	-8.04832
▁*	-8.04986
▁यस्य	-8.05129
▁अयं	-8.05239
▁पद	-8.05839
▁बहु	-8.06128
▁और	-8.06161
▁इह	-8.06343
ष	-8.06541
नु	-8.06805
▁वर्षे	-8.07015
यं	-8.07465
ला	-8.07534
▁ज्ञान	-8.07635
सी	-8.0806
+	-8.08099
▁यद्	-8.08568
दि	-8.08779
▁कृत्वा	-8.0917
▁अनु	-8.09676
▁देश	-8.09782
वे	-8.0989
ाव	-8.10201
श्	-8.10345
िता	-8.11366
▁केवलं	-8.11564
▁सर्वं	-8.11648
ेत	-8.1167
▁येन	-8.11794
ाणि	-8.12162
▁अभि	-8.12319
्यते	-8.12554
भि	-8.12751
▁ए	-8.13256
▁काल	-8.13301
काल	-8.13683
को	-8.13691
▁विना	-8.1398
न्ते	-8.13996
▁पुत्र	-8.14085
मान	-8.14107
ामि	-8.14201
▁+	-8.14319
▁त्रि	-8.14745
▁नास्ति	-8.14774
▁ततो	-8.14961
षु	-8.15031
▁श	-8.15344
▁काम	-8.15403
रि	-8.15685
▁स्म	-8.15957
▁१९	-8.16094
▁जन	-8.16341
कर	-8.16354
ँ	-8.16535
▁६	-8.17402
▁अव	-8.17478
▁ख	-8.177
▁अर्थ	-8.17725
ध	-8.1777
येत्	-8.17958
_	-8.18137
▁जल	-8.18152
▁अत	-8.18454
ितः	-8.18965
▁विद्यते	-8.19283
▁केवल	-8.19293
▁सप्त	-8.19599
▁जीव	-8.19647
्यं	-8.1965
४	-8.20083
री	-8.20106
▁दश	-8.20581
▁शब्द	-8.20629
▁किम्	-8.20969
त्वेन	-8.2102
▁एतत्	-8.21155
पा	-8.21249
कर्म	-8.21507
▁ज	-8.22206
भाव	-8.2233
▁अप	-8.22458
▁लोक	-8.22905
िका	-8.23115
क्	-8.23226
जन	-8.23243
▁ब	-8.24099
च्	-8.24132
▁भाषा	-8.24253
ङ्ग	-8.24631
हं	-8.24912
▁राजा	-8.25091
▁राज	-8.25637
▁एष	-8.25648
ई	-8.2584
▁पाप	-8.25847
▁खः	-8.26349
ार्थं	-8.26604
देव	-8.26845
▁कृत	-8.26996
परि	-8.27871
▁अन	-8.28066
▁दृश्यते	-8.28075
ल्	-8.28081
▁स्त्री	-8.28133
▁सर्वत्र	-8.28194
▁अति	-8.28223
▁परं	-8.28595
▁पुनर्	-8.28814
▁मध्ये	-8.28996
▁गृह	-8.2905
रूप	-8.29087
गुण	-8.29752
▁दृष्ट्वा	-8.29851
▁शक्ति	-8.3009
▁आह	-8.30127
▁र	-8.30143
▁यद	-8.30191
▁त्व	-8.30278
▁जन्म	-8.30487
न्तु	-8.308
▁८	-8.30853
पर	-8.31053
▁निर्	-8.31489
ेऽपि	-8.31575
धा	-8.31577
ोऽपि	-8.32373
▁कि	-8.3251
ए	-8.33038
▁सामान्य	-8.33361
▁2	-8.33911
न्त	-8.34262
▁भाव	-8.34588
ेत्	-8.34707
▁धन	-8.34775
▁१०	-8.35097
न्न	-8.35127
ेव	-8.35207
▁3	-8.36159
▁ह्य	-8.36326
च्छ	-8.36382
न्य	-8.36394
मे	-8.36657
प्रति	-8.36671
धर्म	-8.36855
▁उत्तर	-8.36982
रे	-8.36983
ाह	-8.37108
▁कु	-8.3715
ष्ट	-8.37325
पूर्व	-8.37385
▁पञ्च	-8.37632
ायां	-8.37868
▁क्रिया	-8.38373
उ	-8.38477
▁अभवत्	-8.38674
▁सुख	-8.3885
रु	-8.38991
▁को	-8.39287
▁फल	-8.39657
ीं	-8.398
▁सूचना	-8.39832
स्थ	-8.40606
ैक	-8.41523
▁दुःख	-8.41727
▁त्वया	-8.42704
▁संशयः	-8.42832
ट्	-8.42971
नः	-8.43003
a	-8.43168
▁ऽ	-8.43623
▁कर	-8.43786
▁भारत	-8.43895
पद	-8.43901
▁रे	-8.4396
▁विषय	-8.44148
काले	-8.4416
तं	-8.44191
ानु	-8.44309
▁चेत्	-8.4445
▁अस्मिन्	-8.44848
▁इत्यादि	-8.44899
देश	-8.45177
णा	-8.45972
ितम्	-8.46041
नाम	-8.46074
▁ना	-8.46234
मध्ये	-8.4625
▁राज्य	-8.46612
▁नो	-8.46747
नी	-8.47031
जा	-8.47189
▁भवन्ति	-8.47385
▁जायते	-8.47397
रो	-8.47484
▁प्रश्न	-8.47645
▁छ	-8.47826
▁कृते	-8.48186
▁पुं	-8.48771
माह	-8.49549
▁स्वयं	-8.49588
ितं	-8.49668
चि	-8.49812
यत्	-8.49824
ङ्	-8.50064
▁तमे	-8.50118
यन्	-8.50143
नां	-8.50248
▁काले	-8.503
रूपेण	-8.50454
भूत	-8.50692
▁७	-8.50805
ानाम्	-8.51309
▁प्राण	-8.51398
ज्ञान	-8.51524
ाश्च	-8.51757
▁अन्यथा	-8.51842
▁नैव	-8.51873
ाद्य	-8.51946
ङ	-8.52047
▁नियम	-8.52099
▁शक्यते	-8.52163
स्या	-8.52415
ैर	-8.52553
ू	-8.52611
धि	-8.52631
▁मन	-8.52808
मु	-8.52983
▁कार्यं	-8.53125
▁अद्य	-8.53206
त्वा	-8.53368
▁कः	-8.53997
▁भाषण	-8.54009
y	-8.54103
▁पूर्ण	-8.54114
प्य	-8.54132
i	-8.54417
>	-8.54431
॰	-8.54515
▁तथापि	-8.54583
ली	-8.54658
पाद	-8.55011
कम्	-8.55027
५	-8.55173
▁नित्यं	-8.55177
इति	-8.55541
▁ई	-8.55639
शब्द	-8.55768
त्वे	-8.55828
▁वर्ण	-8.5585
c	-8.55919
र्थ	-8.56099
▁पुनर	-8.56253
▁विशेष	-8.56324
▁शत	-8.56369
वती	-8.56497
द्य	-8.56644
ात	-8.57239
च्च	-8.57361
▁सत्य	-8.57649
व्य	-8.57743
▁कारण	-8.57907
फल	-8.58253
▁श्री	-8.58337
▁प्रा	-8.58672
र्य	-8.5868
राज	-8.58715
रिति	-8.58921
▁भ	-8.58929
▁समा	-8.58983
त्वम्	-8.59163
▁पुरुष	-8.59324
यन्ति	-8.59434
सम	-8.59448
▁वस्तु	-8.59566
▁चैव	-8.59811
▁अधिक	-8.59883
िः	-8.59966
▁अस्माकं	-8.60131
मात्र	-8.60284
गत	-8.60303
▁सम्	-8.60582
▁द्वि	-8.60593
▁एते	-8.6073
यते	-8.60935
▁किन्तु	-8.60987
▁उच्यते	-8.61003
वर	-8.61301
तम	-8.6153
▁एकः	-8.61774
▁वन	-8.61794
यात	-8.61838
कृत	-8.61852
▁क्रियते	-8.61872
▁तस्मात्	-8.61911
▁परम	-8.62073
वर्ष	-8.62754
▁अथवा	-8.6296
▁5	-8.62973
मस्ति	-8.63035
▁नव	-8.6312
सः	-8.63514
कि	-8.63738
▁सूर्य	-8.64021
▁()	-8.6432
भाग	-8.64538
▁4	-8.64568
▁दक्षिण	-8.64656
▁सोम	-8.64787
▁यत	-8.6481
लं	-8.65073
ेभ्यः	-8.65104
▁ध	-8.65268
ले	-8.65328
▁इत्यस्य	-8.65491
▁यतः	-8.65497
क्ष	-8.65873
▁व्य	-8.65979
भेद	-8.66038
वः	-8.66048
ठ	-8.66167
▁९	-8.66214
दे	-8.66323
▁जनाः	-8.66416
पी	-8.66614
णि	-8.66669
▁२०	-8.66738
▁भवतः	-8.66769
▁पा	-8.67137
स्ति	-8.67554
e	-8.67678
▁कोई	-8.67706
स्ते	-8.67753
▁पृष्ठानि	-8.67836
बल	-8.67995
ापि	-8.68359
▁केन	-8.68982
▁गो	-8.69099
दु	-8.69128
▁११	-8.69212
मुप	-8.69267
वान	-8.69308
नम्	-8.69368
▁ल	-8.69548
ान्तर	-8.69626
मी	-8.69739
▁चा	-8.69922
▁त्वां	-8.6995
▁घट	-8.69951
भ्य	-8.70012
▁रस	-8.70014
▁शिव	-8.70035
▁यज्ञ	-8.70142
ेऽ	-8.70149
ताम्	-8.70155
द्ध	-8.70286
प्	-8.70353
▁भू	-8.70458
▁प्राप्त	-8.7051
[	-8.70825
▁द्वादश	-8.70881
▁प्रत्य	-8.70962
ात्म	-8.71203
▁पाद	-8.71341
▁मुख्य	-8.71372
तर	-8.71503
वर्ण	-8.71543
▁१८	-8.71806
▁१२	-8.72274
▁समान	-8.72277
▁पूर्वं	-8.72357
▁रक्ष	-8.72464
कु	-8.7259
▁नित्य	-8.72708
▁लोके	-8.73154
▁भारतीय	-8.73503
▁परा	-8.73622
▁दोष	-8.73913
▁तत	-8.74133
ाभि	-8.74264
लि	-8.74656
िनः	-8.74839
तीति	-8.74914
▁परीक्षा	-8.74966
d	-8.7511
▁मित्र	-8.75134
नो	-8.75173
▁तथैव	-8.75175
६	-8.75301
▁ब्रह्म	-8.75925
▁अनुसंधान	-8.75928
विशेष	-8.76148
▁भवान्	-8.76156
▁विधि	-8.76727
्यां	-8.7683
▁संस्कृत	-8.76915
▁मनो	-8.76986
▁समुद्र	-8.77013
ाभ्यां	-8.77167
गा	-8.77326
▁सर्वेषां	-8.7753
▁पुरा	-8.77674
▁सन्	-8.77711
श्व	-8.77794
मन	-8.7791
विषय	-8.77929
सर्व	-8.77969
▁पु	-8.78034
▁ओ	-8.78064
ादौ	-8.7817
८	-8.78391
▁यावत्	-8.78402
o	-8.78421
पुत्र	-8.78726
वाद	-8.78779
▁पिता	-8.79233
हा	-8.79297
ान्य	-8.79518
▁तम	-8.79565
▁बल	-8.79939
▁विद्या	-8.80111
▁दिन	-8.8034
▁प्राप्नोति	-8.80343
हे	-8.80372
▁सर्वदा	-8.80569
▁भावः	-8.80576
▁भगवान्	-8.80849
▁वेबसाइट	-8.80999
भव	-8.8105
▁8	-8.81265
▁अनेन	-8.81284
▁दृश्य	-8.81381
▁पी	-8.81498
▁विकास	-8.8152
▁खलु	-8.81623
योग	-8.81629
स्त्व	-8.81632
▁योग	-8.81778
लोक	-8.81879
▁अधिकतम	-8.81947
▁है	-8.81972
▁क्षेत्र	-8.82018
िन	-8.82201
▁एत	-8.82311
मनु	-8.82475
▁इदानीं	-8.82752
ॆ	-8.82829
ग्	-8.82993
▁कुर्वन्ति	-8.83229
▁भाग	-8.83288
ज्ञ	-8.83363
▁इत्यर्थः	-8.83381
▁शुभ	-8.83499
S	-8.83667
कार्य	-8.83735
करण	-8.83929
▁ननु	-8.83959
मिदं	-8.83996
▁गत	-8.84093
▁द्वितीय	-8.842
2	-8.8455
क्रम	-8.84561
▁देवा	-8.84634
लक्षण	-8.84682
▁की	-8.84714
स्थान	-8.84927
▁ला	-8.84939
यु	-8.851
▁एषा	-8.85254
ढ	-8.85285
▁संयुक्त	-8.85524
▁१५	-8.85556
▁मह	-8.85842
ाङ्ग	-8.85852
▁पाठ	-8.85959
▁माता	-8.85989
▁जा	-8.86072
कारः	-8.86102
काः	-8.86124
▁अधिनियम	-8.86436
यत	-8.86484
▁मु	-8.86535
पु	-8.86687
▁भय	-8.86767
▁गुरु	-8.87007
▁तस्मिन्	-8.87135
क्त	-8.87247
र्न	-8.8746
धन	-8.87696
वार	-8.88014
▁संख्या	-8.88137
...	-8.88154
सो	-8.88496
देशे	-8.88614
▁बाल	-8.887
पुरुष	-8.88763
str	-8.88773
७	-8.88863
D	-8.89205
▁19	-8.89251
भिर्	-8.89333
गण	-8.89402
ृ	-8.89629
युक्त	-8.89706
जीव	-8.89724
▁S	-8.89831
मुच्यते	-8.89902
▁फलं	-8.89961
▁आत्म	-8.90049
▁सति	-8.90076
▁मध्यम	-8.90134
P	-8.90181
वेद	-8.90203
▁भूत	-8.90255
पक्ष	-8.90421
▁निज	-8.90633
▁1.	-8.90728
---	-8.91036
%	-8.91186
ष्ठ	-8.91372
▁पर्वत	-8.91583
▁लघु	-8.91846
ोक्त	-8.91848
▁हस्त	-8.92027
▁गृहे	-8.9205
▁विषये	-8.92124
▁तौ	-8.92216
▁यम	-8.92463
▁मूल	-8.92465
ग्र	-8.92513
रस	-8.92547
▁१४	-8.92562
▁कारणं	-8.92664
▁मन्त्र	-8.92799
▁एका	-8.92881
ाप	-8.92887
वद	-8.93094
▁सर्व्व	-8.93258
▁प्रजा	-8.93305
ात्मा	-8.93336
▁श्रुत्वा	-8.9395
▁प्रातः	-8.94005
वास	-8.94064
चा	-8.94091
स्तथा	-8.94111
ाम्	-8.94123
▁रूप	-8.94178
▁स्थान	-8.94193
शेष	-8.94309
शक्ति	-8.94359
▁रथ	-8.9462
▁लाभ	-8.94657
क्रिया	-8.94773
विषये	-8.94809
▁वद	-8.94884
रः	-8.94939
▁हर	-8.95098
▁शरीर	-8.95197
▁वर्तमान	-8.95299
▁स्वप्न	-8.95349
1	-8.95362
ान्त	-8.95484
▁भविष्य	-8.95484
्वा	-8.95507
▁मध्य	-8.95537
सर	-8.95658
▁कदाचित्	-8.95752
णे	-8.95833
▁शत्रु	-8.95947
▁द्वारा	-8.9619
▁कुरु	-8.96389
ञ्ज	-8.96408
▁तां	-8.96433
▁6	-8.96828
▁प्रत्यक्ष	-8.96836
▁7	-8.96856
वै	-8.96946
रूपं	-8.9697
दिन	-8.96998
ळ	-8.97021
▁यतो	-8.97071
▁पि	-8.97251
वन	-8.97281
दान	-8.97426
t	-8.97435
▁विकल्प	-8.97492
▁कर्तुं	-8.97507
षा	-8.9753
▁#	-8.97635
▁त्वा	-8.97719
▁राष्ट्र	-8.97824
मिव	-8.97866
▁दीर्घ	-8.97877
▁10	-8.97884
l	-8.97974
न्द	-8.98079
ाऽ	-8.98149
▁पुण्य	-8.98499
द्र	-8.9851
▁वो	-8.98604
की	-8.98606
▁तर	-8.98613
▁यद्यपि	-8.98738
्व	-8.98813
पुर	-8.98821
A	-8.9886
▁अध्ययन	-8.98965
वी	-8.98973
काम	-8.99083
ुः	-8.99092
▁सहस्र	-8.99247
गृह	-8.9934
▁दृष्ट	-8.99356
मास	-8.99407
▁अहम्	-8.99441
▁हृदय	-8.99566
मन्त्र	-8.99622
▁समय	-8.99855
सम्बद्धानि	-8.99946
#	-9.00037
▁ध्यान	-9.00122
▁प्रधान	-9.00325
रं	-9.00336
था	-9.0048
▁देवता	-9.0055
▁क्वचित्	-9.00633
फ	-9.00726
▁समाचार	-9.00971
▁क्व	-9.00976
n	-9.00997
▁गत्वा	-9.00999
जि	-9.01029
९	-9.01039
▁वर	-9.01148
त्त	-9.01404
ेयं	-9.01589
भा	-9.01591
मय	-9.01692
3	-9.01738
▁विभाग	-9.01742
▁अनेक	-9.018
▁इयं	-9.01808
▁पृष्ठ	-9.01882
▁कथा	-9.02045
यम	-9.02154
▁कल्प	-9.02406
▁जनवरी	-9.02529
▁प्राप्य	-9.02551
निर्	-9.0293
▁इत्यनेन	-9.03014
ितुं	-9.03048
िनी	-9.03127
ड्	-9.03163
▁भा	-9.03293
▁सर्वा	-9.03542
▁गण	-9.03756
▁न्याय	-9.03781
▁निर	-9.03789
▁I	-9.03822
b	-9.03916
▁नगर	-9.04029
▁>	-9.04071
▁१७	-9.04298
▁जगत्	-9.04339
▁प्रवेश	-9.04507
▁मयि	-9.0452
ात्मक	-9.04575
ाम	-9.04585
ण्ड	-9.04597
सिद्ध	-9.04701
▁वायु	-9.04769
पूर्ण	-9.04836
▁हरि	-9.0484
सार	-9.04872
▁पृथक्	-9.04981
▁विचार	-9.05017
▁B	-9.05059
▁देह	-9.05188
▁विशेषतः	-9.05328
▁पक्ष	-9.05391
f	-9.05419
णं	-9.05459
▁क्षण	-9.0553
ायाः	-9.05548
al	-9.05628
िति	-9.05652
▁राम	-9.05652
▁तस्या	-9.05716
दश	-9.05739
▁...	-9.05802
▁युद्ध	-9.05815
▁१६	-9.05946
छ	-9.06065
▁अधिकार	-9.0608
भाषा	-9.06122
▁भारतस्य	-9.06198
▁2.	-9.06282
▁रोग	-9.06363
▁संसार	-9.06475
▁कृष्ण	-9.0672
गे	-9.06778
M	-9.07026
▁इत्येव	-9.07038
▁मानव	-9.07122
▁विप्र	-9.07152
▁गच्छ	-9.07213
दोष	-9.07328
ान्न	-9.07334
शत	-9.07346
▁इत्यत्र	-9.07358
▁गतः	-9.07432
जी	-9.07602
ानाम	-9.07609
▁एषः	-9.07653
णी	-9.07661
्यो	-9.07667
▁एतद्	-9.07897
योर्	-9.08034
▁इन्द्र	-9.08042
▁देशे	-9.08238
▁मुक्त	-9.08311
▁उत्तम	-9.08592
मित्य	-9.08602
▁स्वर्ग	-9.08697
▁पठ	-9.08702
ादीनां	-9.08739
जल	-9.08924
▁अयम्	-9.09277
▁दुर्	-9.09363
m	-9.09369
▁मनुष्य	-9.09512
सम्	-9.09553
टी	-9.09601
▁एवम्	-9.09632
▁दूर	-9.09911
▁प्रिय	-9.10131
यथा	-9.10212
B	-9.10327
▁प्रकृति	-9.1033
▁प्रकाश	-9.10342
्याः	-9.10387
चर	-9.10493
ञ्	-9.10594
▁कृतं	-9.10616
▁प्रयोग	-9.1078
▁अर्थः	-9.10855
▁किम	-9.11354
▁कृपया	-9.1152
स्तव	-9.11525
मो	-9.11607
▁प्रत्यय	-9.11611
▁इत	-9.11703
▁दण्ड	-9.11768
C	-9.11854
▁उक्त	-9.11998
दिति	-9.12018
*	-9.12185
दी	-9.12236
=	-9.12346
▁गति	-9.12483
धी	-9.12525
▁हो	-9.12547
मानं	-9.12605
▁यं	-9.12684
▁एकं	-9.12699
▁दे	-9.12795
▁वीर	-9.12988
▁वृक्ष	-9.13206
▁चित्र	-9.13224
मार्ग	-9.13243
▁अग्नि	-9.13293
▁शुद्ध	-9.13294
▁प्रमाण	-9.13391
ुं	-9.13595
▁१३	-9.13636
कल	-9.13899
▁कुल	-9.13938
स्स	-9.14101
▁बि	-9.14113
▁प्रतिशत	-9.14167
▁मद	-9.14168
ाहं	-9.1419
▁A	-9.14338
सह	-9.14346
▁तेषु	-9.14524
वचन	-9.14682
▁कला	-9.14735
रेव	-9.14752
▁पितृ	-9.14775
▁परीक्षण	-9.1485
द्वय	-9.14977
▁ऊ	-9.15037
▁Home	-9.15079
▁दिव्य	-9.15086
शा	-9.15091
▁माया	-9.15161
▁ज्ञानं	-9.15171
स्यापि	-9.15231
▁पश्य	-9.15464
ेश्वर	-9.15669
▁तन्	-9.15692
भ्यः	-9.15736
▁9	-9.1574
भेदे	-9.15785
▁---	-9.15866
▁अधि	-9.15953
नेन	-9.15971
ओ	-9.16074
▁<	-9.16537
▁शेष	-9.16579
शः	-9.16662
▁मनः	-9.16748
यामि	-9.16797
सौ	-9.16859
▁घ	-9.16904
देह	-9.17017
▁कृता	-9.17087
▁ता	-9.17402
कृत्	-9.17411
भय	-9.17477
ास्ति	-9.17484
▁प्रभाव	-9.17554
याम्	-9.1758
▁पश्यति	-9.17632
ांश	-9.1778
▁ऐ	-9.17875
पाल	-9.17888
4	-9.17903
▁उत्	-9.17934
▁वापि	-9.18022
▁शास्त्र	-9.18255
मेक	-9.18272
स्र	-9.18297
▁थ्व	-9.18323
▁यद्य	-9.18331
यितुं	-9.18358
▁बुद्धि	-9.18527
▁रात्रौ	-9.18537
मूल	-9.18585
गो	-9.18664
▁श्रुत	-9.18734
▁भवता	-9.18789
षि	-9.18798
कुल	-9.18982
ीनां	-9.19032
हस्त	-9.19156
न्त्य	-9.19168
▁शृणु	-9.19267
▁C	-9.19296
▁देवी	-9.19365
र्व	-9.194
्यन्ते	-9.19427
▁नृप	-9.19429
दुःख	-9.19445
ीकरण	-9.19462
▁समस्त	-9.19672
▁कश्चित्	-9.19709
▁विज्ञान	-9.19901
ार	-9.20019
▁सो	-9.20076
▁मास	-9.20092
▁तावत्	-9.20135
▁यूयं	-9.20287
▁कस्य	-9.20336
▁वाक्य	-9.20478
▁विविध	-9.20491
▁ग्राम	-9.20547
दत्त	-9.20595
ज्	-9.20605
िताः	-9.20685
▁मार्ग	-9.20733
r	-9.2077
▁सुर	-9.20816
ऽपि	-9.20925
▁ईश्वर	-9.20934
मह	-9.20947
ण्	-9.20976
▁महत्	-9.21068
वत	-9.21202
▁उच्च	-9.2126
▁याति	-9.21279
नियम	-9.21434
▁चापि	-9.2161
ष्व	-9.21676
ध्य	-9.21709
▁प्रथमं	-9.21713
▁गा	-9.21736
एक	-9.21795
मन्य	-9.21905
ञ	-9.22047
स्वरूप	-9.22239
▁सि	-9.22308
▁आस	-9.22396
▁तिथि	-9.22439
▁बाह्य	-9.2249
▁तृतीय	-9.22518
▁गच्छति	-9.2254
▁देवानां	-9.22688
र्ह	-9.22754
▁कुत्र	-9.22831
▁दृढ	-9.22871
दं	-9.22963
▁किमपि	-9.23311
▁क्रम	-9.23355
▁उद्	-9.23368
लो	-9.2338
ैश्च	-9.2341
v	-9.23447
वां	-9.23485
ार्थः	-9.23688
टि	-9.23731
ेत्य	-9.23901
▁पशु	-9.23903
▁परिभाषा	-9.2412
दृष्ट	-9.24219
शास्त्र	-9.243
▁दिवस	-9.2452
▁तस्याः	-9.24598
वाक्य	-9.24651
▁वृद्ध	-9.24722
िं	-9.24828
▁त्रि०	-9.24963
वर्ग	-9.24965
▁वय	-9.25027
विद्या	-9.2513
▁इदम्	-9.25307
स्था	-9.2544
▁ग्रह	-9.25495
नीय	-9.25521
भू	-9.25612
विधि	-9.25787
तौ	-9.25826
▁भिन्न	-9.25869
हर	-9.25912
ग्रह	-9.25915
6	-9.25948
मत	-9.26018
▁विशिष्ट	-9.26267
शी	-9.26385
▁पूजा	-9.26401
मुख	-9.26444
डि	-9.26543
स्ट	-9.26601
▁→	-9.2661
p	-9.26646
कल्प	-9.26679
्यः	-9.26709
ेदं	-9.26728
▁चन्द्र	-9.26743
ाति	-9.2675
▁रूपं	-9.26854
ाप्य	-9.26892
यम्	-9.2692
ास	-9.2711
▁कदा	-9.27187
k	-9.27206
शु	-9.27223
▁भेद	-9.27332
स्मिन्	-9.27355
पात	-9.2744
▁जलं	-9.27478
▁जय	-9.27569
▁भक्ति	-9.27658
▁कोऽपि	-9.27678
ाश्रय	-9.27699
▁अमेरिका	-9.27821
▁मान	-9.27856
▁दत्त	-9.27961
कारण	-9.28042
त्या	-9.28076
▁अधुना	-9.28185
िर	-9.28196
ास्ते	-9.28209
सां	-9.28257
▁सेवा	-9.28447
▁उभय	-9.28528
साधन	-9.28591
▁प्रायः	-9.28667
▁तदेव	-9.2877
तम्	-9.28942
ेन्द्र	-9.28973
वृत्त	-9.28992
5	-9.29124
ल्ल	-9.29134
▁गर्भ	-9.29205
▁गते	-9.29224
्ये	-9.29227
ादयः	-9.2925
▁शर	-9.29333
▁जात	-9.29475
▁पुन	-9.29504
▁पृथिवी	-9.29548
भिर	-9.29553
ज्ञा	-9.29585
▁आसन्	-9.2964
संख्या	-9.29654
▁तत्त्व	-9.29662
जात	-9.29797
▁सिद्ध	-9.29799
▁msg	-9.29905
१०	-9.30004
▁कल	-9.30033
▁सूत्र	-9.30099
द्वारा	-9.30121
▁लिखित	-9.30153
ोत्तर	-9.30265
ेद्	-9.30458
यज्ञ	-9.30479
▁हेतु	-9.30489
र्ष	-9.30492
दर्शन	-9.30557
▁मृत्यु	-9.30572
गम	-9.30662
▁पुर	-9.30806
▁पत	-9.30886
वो	-9.30891
नाथ	-9.31011
▁व्यक्ति	-9.31111
▁ध्वनि	-9.31142
शब्दः	-9.31167
▁M	-9.3123
ग्रहणं	-9.31252
रोग	-9.31254
▁कृतम्	-9.31386
मुक्त	-9.31414
शि	-9.31491
डी	-9.3154
ोऽहं	-9.31564
ेनैव	-9.31678
शील	-9.31727
▁ण	-9.31748
▁विवाह	-9.31832
▁शा	-9.3188
▁धारा	-9.31893
ॉ	-9.31942
▁बा	-9.31997
▁P	-9.31999
चार	-9.32025
क्षण	-9.32057
पत्र	-9.32079
▁ज्ञात	-9.32184
दार	-9.32223
▁यथ	-9.32296
त्येव	-9.3232
▁18	-9.32435
▁सिंह	-9.32452
ाच्च	-9.32471
▁वाम	-9.32579
▁रु	-9.3259
ित्वा	-9.32841
▁प्रशिक्षण	-9.3311
▁पार	-9.33228
▁प्राप्ते	-9.33343
▁पदार्थ	-9.33348
▁छुं	-9.33449
er	-9.33558
▁अङ्ग	-9.33574
▁20	-9.33584
वद्	-9.33587
▁शिक्षा	-9.33606
..	-9.33628
▁देवाः	-9.33632
द्वि	-9.33666
▁कन्या	-9.33731
▁वे	-9.33734
रुप	-9.33796
▁राज्यं	-9.33853
स्तत्र	-9.33932
ाया	-9.33957
▁सत्त्व	-9.33965
विज्ञान	-9.34106
लिङ्ग	-9.34112
पदं	-9.34115
शब्देन	-9.34161
घात	-9.3425
▁सुखं	-9.34261
ेष	-9.34285
तत्	-9.34312
क्षेप	-9.34495
▁जातः	-9.34519
व्या	-9.34726
▁किल	-9.34965
▁द्रव्य	-9.34981
त्रा	-9.35003
दिष्ट	-9.35061
धर	-9.35092
▁नेवाः	-9.35233
0	-9.35344
▁अतो	-9.35502
▁स्त्रियां	-9.35526
▁पुरुषः	-9.35558
पे	-9.35567
▁तया	-9.3574
ाधिकार	-9.35759
र्म	-9.35817
▁कुतः	-9.35825
▁फ	-9.35833
▁भवतु	-9.35839
▁सत्यं	-9.3586
हो	-9.35936
थे	-9.35955
▁दैव	-9.35999
▁करोमि	-9.3604
▁२१	-9.36078
वं	-9.36173
ोऽयं	-9.3631
झ	-9.3634
▁•	-9.36352
▁ग्रन्थ	-9.36374
पति	-9.36382
▁द्वौ	-9.36499
▁रुपये	-9.36507
▁परिणाम	-9.36512
धे	-9.36599
लाभ	-9.36663
नगर	-9.36695
▁पू	-9.36716
▁चित्त	-9.36722
गतं	-9.36733
वन्तः	-9.36764
ष्य	-9.36779
▁उपयोगकर्ता	-9.36839
वस्तु	-9.36954
▁कर्ण	-9.37068
सुख	-9.37079
▁T	-9.3709
विश्व	-9.37091
▁नु	-9.37141
▁कृतः	-9.37324
▁सर्वाणि	-9.37389
▁दि	-9.37406
ार्थे	-9.37423
▁कथ	-9.3747
▁शीत	-9.37515
▁स्थित	-9.37554
ेष्व	-9.37626
जं	-9.37812
▁जाता	-9.37823
▁जप	-9.3795
ङ्क	-9.37965
▁धनं	-9.37968
▁सत्	-9.38
▁शीघ्रं	-9.38033
ाना	-9.38144
7	-9.38288
▁तस्माद	-9.38389
▁विजय	-9.38401
ादिषु	-9.38491
20	-9.38563
▁प्रथमा	-9.38637
T	-9.38649
▁कथम्	-9.38694
▁12	-9.38727
▁मोक्ष	-9.38749
I	-9.38763
ीति	-9.389
ेभ्यो	-9.3896
मिह	-9.39052
विध	-9.39073
१९	-9.39089
an	-9.3915
▁तो	-9.39194
▁कति	-9.39244
क्क	-9.39248
चित्त	-9.39309
▁दिने	-9.39413
प्रत्यय	-9.39463
▁कुर्यात्	-9.39506
स्थाने	-9.39519
ष्	-9.39521
याम	-9.39551
▁तानि	-9.39565
▁विष	-9.39581
क्षय	-9.39624
▁कालः	-9.39693
▁11	-9.39924
वाह	-9.39933
▁परे	-9.40119
▁दा	-9.40213
▁स्थिति	-9.4023
▁व्यवसाय	-9.40323
▁पुष्प	-9.40335
नाय	-9.40453
शो	-9.40466
▁मूल्य	-9.40481
मति	-9.40531
▁क्रोध	-9.40566
लः	-9.40637
▁तम्	-9.40651
▁जि	-9.40719
तृ	-9.40845
▁व्यक्त	-9.40874
▁नर	-9.40901
स्त्र	-9.4093
समये	-9.41108
फलं	-9.41117
ज्ञानं	-9.41173
▁इतर	-9.41178
श्चैव	-9.4141
▁पे	-9.41523
▁दीप	-9.41544
कस्य	-9.41691
▁$	-9.41753
▁कर्ता	-9.41756
▁&	-9.41793
▁२२	-9.41823
किं	-9.41899
माण	-9.41917
▁मोह	-9.41918
▁रात्रि	-9.41972
▁श्र	-9.41995
▁वह	-9.42122
▁क्षमा	-9.42174
▁३०	-9.4233
यित्वा	-9.42374
▁नदी	-9.42467
▁इष्ट	-9.42482
▁एतद	-9.42606
▁मि	-9.42613
▁उदाहरण	-9.42667
र्ध	-9.42679
तरं	-9.42686
9	-9.42733
▁Tag	-9.42764
▁परम्	-9.42808
▁कम	-9.42907
ामः	-9.42951
▁क्रि	-9.42986
्यै	-9.43075
▁शि	-9.43145
त्थ	-9.43159
▁धातु	-9.43163
नव	-9.43236
▁२५	-9.43241
कृतं	-9.43278
▁राक्षस	-9.4339
महं	-9.43524
▁दुष्ट	-9.43526
▁3.	-9.4369
स्मि	-9.43733
▁मृग	-9.43877
g	-9.43923
िह	-9.43979
▁स्थाने	-9.44009
ar	-9.44011
वृत्ति	-9.44013
▁ऋ	-9.44028
▁कृषि	-9.44069
▁वस	-9.44175
▁तान्	-9.44182
▁जानाति	-9.44227
▁एतेन	-9.44239
बोध	-9.44252
▁पाठः	-9.44332
le	-9.44353
▁रक्त	-9.44522
कृ	-9.44624
▁पश्चिम	-9.44676
▁स्नेह	-9.44715
▁{	-9.44735
▁परन्तु	-9.44748
ेह	-9.44748
बा	-9.44799
पन	-9.44825
चित	-9.44857
▁कथय	-9.44864
हत	-9.44903
▁ज्या	-9.44988
▁उपरि	-9.4499
▁अस	-9.45023
सू	-9.45031
महा	-9.45069
तस्य	-9.45112
▁मत	-9.45153
▁पृ	-9.45154
यि	-9.45217
or	-9.45265
यै	-9.4545
▁प्रत्येक	-9.45464
रोध	-9.45549
िम	-9.45696
00	-9.45703
नाश	-9.45718
▁विकिपीडिया	-9.45719
▁मधु	-9.45738
▁बहुधा	-9.45758
▁उत	-9.45816
▁प्रत्येकं	-9.45828
▁द्वे	-9.45861
▁G	-9.45876
दो	-9.459
▁श्लोक	-9.45956
कर्ता	-9.46141
▁कर्तव्य	-9.46202
ादिति	-9.46245
▁आप	-9.46287
पत्य	-9.46332
L	-9.46341
▁साधन	-9.46411
▁वर्ग	-9.46411
▁वने	-9.4644
िनो	-9.46516
▁व्यापार	-9.46747
▁लक्षण	-9.46757
▁वचनं	-9.46834
▁विष्णु	-9.46886
ाख्य	-9.46927
मभि	-9.4708
▁मो	-9.47106
उप	-9.47147
कृते	-9.47215
▁व्यवहार	-9.47258
भागे	-9.47294
मान्	-9.47374
ड़	-9.4738
ार्थम्	-9.47404
गम्य	-9.47511
ing	-9.47521
▁//	-9.47577
▁कार	-9.47612
▁परस्पर	-9.47635
▁तस्मै	-9.47643
▁देहि	-9.47674
▁अल्प	-9.47829
विभाग	-9.4787
स्तस्य	-9.47891
स्त्वं	-9.47912
▁स्थानं	-9.47939
▁देवि	-9.48091
▁केन्द्र	-9.48111
▁सागर	-9.48205
रात्र	-9.48211
▁अन्ये	-9.48222
▁भगवन्	-9.48307
२०	-9.48527
w	-9.48531
प्राप्त	-9.48532
भार	-9.4861
G	-9.48669
ाभाव	-9.48762
▁स्वयम्	-9.48795
▁चतुर्	-9.48943
तुं	-9.49061
▁आकाश	-9.49118
▁सम्यक्	-9.49267
ायै	-9.49281
एव	-9.49313
ed	-9.49385
लु	-9.49487
▁इत्यादिना	-9.49513
जः	-9.49597
▁काय	-9.49692
▁पश्चात्	-9.4978
▁आत्मा	-9.49853
िय	-9.50007
▁मृत	-9.50029
▁अध्याय	-9.5006
▁कार्यक्रम	-9.50074
▁गृहं	-9.50108
▁विमान	-9.50138
▁सम्पूर्ण	-9.50181
िष्यति	-9.50237
निमित्त	-9.50252
▁तस्माद्	-9.50269
व्	-9.5034
▁विद्यमान	-9.50355
▁योजना	-9.50378
▁मुक्ति	-9.50458
▁लब्ध	-9.50495
ास्तु	-9.50504
केन	-9.50512
▁भाग्य	-9.50533
▁लेख	-9.50536
▁काव्य	-9.50572
▁लभते	-9.50674
प्रयोग	-9.50694
▁सदैव	-9.5083
ुप	-9.50836
▁भयं	-9.50873
▁प्रोक्तं	-9.50918
▁यथार्थ	-9.50982
रूपा	-9.51082
▁पेपर	-9.51123
ीत	-9.51202
▁क्रीड	-9.51438
▁लिङ्ग	-9.51457
सूत्र	-9.51486
▁वर्षा	-9.51509
नम	-9.51545
ह्य	-9.51585
▁स्वरूप	-9.51602
िव	-9.51651
▁प्रदेश	-9.51674
▁वृद्धि	-9.51705
▁शेषः	-9.51726
▁राजन्	-9.51768
▁सम्भवति	-9.51835
द्व	-9.51876
भ्यां	-9.5194
▁सूक्ष्म	-9.51959
स्तदा	-9.5198
▁ब्राह्मण	-9.51997
▁येषां	-9.52065
गति	-9.52083
▁यु	-9.52086
▁15	-9.52127
▁सव	-9.52174
▁प्रेम	-9.52273
णः	-9.52314
▁दर्शन	-9.52488
▁पु०	-9.52516
▁ददाति	-9.52528
▁क्ष	-9.52541
राष्ट्र	-9.526
▁कृतवान्	-9.52642
मात्रं	-9.52685
▁नूतन	-9.52721
▁झ	-9.52723
▁परमं	-9.52732
▁अतीव	-9.52763
टा	-9.52768
ग्रहण	-9.52837
मित	-9.52873
त्स	-9.52893
▁स्वर	-9.53013
▁स्पष्ट	-9.53043
बन्ध	-9.53046
धार	-9.53126
▁भोग	-9.53199
▁तप	-9.53215
र्द	-9.53216
▁व्यायाम	-9.53245
▁संशय	-9.53252
पिं	-9.53279
▁२४	-9.53335
▁स्नान	-9.53385
▁स्थिर	-9.53443
प्रिय	-9.53486
N	-9.5349
िना	-9.53527
▁हय	-9.53572
ii	-9.53624
भिन्न	-9.53685
▁साम	-9.5371
ाधिक	-9.53722
▁फरवरी	-9.53751
▁भक्त	-9.53791
▁सुत	-9.5388
ीयते	-9.53928
मव	-9.53997
१८	-9.5407
▁समर्थ	-9.54087
▁खेल	-9.54111
▁क्रीडा	-9.54146
▁व्रत	-9.54165
▁भगवान	-9.54168
▁पदे	-9.54222
▁धन्यवाद	-9.54303
वति	-9.54354
ल्य	-9.54419
विचार	-9.54426
▁मुख	-9.54453
▁जानामि	-9.5451
▁पदं	-9.54549
▁सर्वेषु	-9.54558
▁स्वभाव	-9.5457
▁यानि	-9.54613
▁अग्ने	-9.54629
डा	-9.54739
ज्य	-9.54887
E	-9.54893
व्यय	-9.5493
त्रि	-9.54953
शन	-9.54957
▁बुद्ध	-9.55162
राम	-9.55231
मध्य	-9.55492
न्ध	-9.55618
प्रकाश	-9.55664
▁समास	-9.55667
गी	-9.55815
▁सौ	-9.55818
▁२७	-9.55819
हार	-9.55981
▁प्रकृत	-9.56066
परा	-9.56079
▁4.	-9.56105
▁L	-9.56217
▁विधीयते	-9.56244
प्रत्ययः	-9.56308
▁जीवन	-9.56346
तन्त्र	-9.56374
▁अतीत	-9.5652
ेश	-9.56559
▁श्रेष्ठ	-9.56578
भ्यो	-9.56679
▁नहि	-9.56721
▁कथ्यते	-9.56741
▁वित्त	-9.56842
▁शान्त	-9.56858
▁महान्	-9.5686
स्त्रि	-9.56863
▁वत्स	-9.56865
णो	-9.56952
▁अन्यत्र	-9.56977
स्वर	-9.57023
स्यैव	-9.57062
न्तं	-9.57082
न्ती	-9.57084
▁सी	-9.57125
ोदय	-9.57146
▁निर्णय	-9.57292
▁हृदि	-9.57314
▁भ्रम	-9.57462
▁विश्लेषण	-9.57528
▁कर्तव्यं	-9.57569
िनि	-9.57577
▁करिष्यामि	-9.57607
▁रि	-9.57624
सन्	-9.57678
▁गृहीत	-9.57761
▁मत्	-9.57769
श्य	-9.57796
▁तथ	-9.5784
१२	-9.5787
▁अज	-9.57896
करं	-9.57953
स्थानं	-9.57995
ज्ज	-9.58002
▁शब्दः	-9.58125
▁श्वेत	-9.58131
▁२६	-9.5815
न्तः	-9.582
▁कश्चन	-9.58285
▁सामाजिक	-9.58455
िनां	-9.58468
समा	-9.58579
राज्य	-9.58635
▁राग	-9.58639
▁नील	-9.58642
भक्त	-9.58716
संभव	-9.58751
▁मात्रा	-9.58759
प्रधान	-9.58818
▁मेरे	-9.58881
▁अश्व	-9.58907
▁उवाच	-9.58917
▁कथितं	-9.58995
▁दर्शयति	-9.59103
▁इत्याह	-9.59159
▁सकल	-9.59179
िभिः	-9.59261
क्स	-9.59284
रथ	-9.59388
▁स्थितः	-9.5939
बि	-9.59398
▁विनाश	-9.59468
▁व्या	-9.59544
▁इत्युक्त	-9.59578
ताः	-9.59637
▁कर्मणि	-9.59723
▁भवन	-9.59731
हु	-9.59787
र्वा	-9.59819
▁भेदः	-9.59851
मथ	-9.59951
▁मही	-9.5997
हृदय	-9.59989
ेय	-9.60042
मित्र	-9.60079
क्षा	-9.60125
दौ	-9.602
ग्रन्थ	-9.60236
▁समाज	-9.60242
▁मुनि	-9.6028
र्ण	-9.60289
िद	-9.60308
दिश	-9.60341
विशिष्ट	-9.60357
णां	-9.60362
▁भोजन	-9.6045
जन्म	-9.60496
▁तिष्ठति	-9.60527
▁शीघ्र	-9.60606
▁E	-9.60681
▁चेति	-9.60781
▁जान	-9.60783
बी	-9.60814
▁भारते	-9.60873
▁तिष्ठ	-9.60947
▁मनसा	-9.60981
ोत्तम	-9.60982
▁अनुभव	-9.60989
▁प्रसन्न	-9.61
▁तुल्य	-9.61043
▁तच्च	-9.6113
ितो	-9.61279
▁ऋण	-9.61353
▁स्याद	-9.61359
िर्	-9.61397
ेद	-9.61402
काय	-9.61494
▁साधु	-9.61522
ान्ते	-9.6153
▁निषेध	-9.61536
at	-9.61554
कृत्य	-9.61559
ाथ	-9.61636
बुद्धि	-9.61652
▁पर्य	-9.61663
▁विपरीत	-9.6173
▁जूगु	-9.61863
▁इत्य्	-9.61903
ाग्नि	-9.61904
▁रुद्र	-9.61952
u	-9.61963
}	-9.62005
सहस्र	-9.62063
▁समुदाय	-9.62076
▁नरक	-9.62077
पथ	-9.62107
भोग	-9.62129
▁तदपि	-9.62157
▁से	-9.62165
चक्र	-9.62211
▁अहो	-9.62264
तत्त्व	-9.62318
F	-9.62354
▁एवम	-9.62434
▁उपाय	-9.62498
▁मन्यते	-9.62519
▁नरः	-9.62538
▁वृ	-9.62555
म्ह	-9.62611
ादेव	-9.62684
in	-9.62745
▁स्वतन्त्र	-9.62761
मृत	-9.62764
दर	-9.62834
▁मरण	-9.62839
▁दान	-9.62847
▁ज्येष्ठ	-9.62878
चन	-9.62934
▁अस्मि	-9.62972
▁किञ्चित्	-9.62987
▁पुत्रः	-9.63024
▁करण	-9.63025
▁औ	-9.63066
देवता	-9.63107
ानन्द	-9.63146
स्ता	-9.63149
▁रक्षा	-9.63206
▁कथम	-9.63208
ध्व	-9.63233
▁प्रीति	-9.63257
▁n	-9.63395
▁पार्थिव	-9.63465
्र	-9.63513
▁यस्मिन्	-9.63514
▁थः	-9.63612
ष्टा	-9.63612
साध्य	-9.63678
दः	-9.6369
10	-9.63694
▁आदि	-9.63833
ाल	-9.63843
िणी	-9.63904
▁महिला	-9.64004
स्थित	-9.64029
▁स्वाहा	-9.64058
on	-9.64061
दय	-9.64061
क्रान्त	-9.64099
रू	-9.6416
▁वयम्	-9.64206
▁तात	-9.64208
योर	-9.64282
▁रोचते	-9.64283
क्रिय	-9.64364
am	-9.6442
▁..	-9.64435
यन	-9.64443
िष्ठ	-9.64464
8	-9.64493
▁स्मर	-9.64566
▁प्रवर्तते	-9.64572
ितुम्	-9.64597
न्व	-9.64687
वृद्ध	-9.64729
ोत्	-9.64741
▁13	-9.64855
ैष	-9.64885
▁एतस्य	-9.64907
क्षेत्र	-9.64918
िष	-9.64932
▁उत्पादन	-9.64969
ाई	-9.65082
en	-9.65113
त्वम	-9.65139
ादिकं	-9.65197
ग्राम	-9.65294
▁अभ्य	-9.65314
re	-9.65322
षे	-9.65329
भृत	-9.65346
▁शिष्य	-9.65373
▁छु	-9.65398
▁द्विज	-9.6545
▁हृदयं	-9.65452
पान	-9.65456
▁मन्द	-9.65536
▁भूमि	-9.65576
▁दुःखं	-9.65589
▁हा	-9.65602
▁अन्त	-9.65626
विकल्प	-9.65647
▁17	-9.65676
तव	-9.65698
▁सुवर्ण	-9.6576
▁गन्ध	-9.65769
▁शक्य	-9.65782
▁नीति	-9.65836
▁समीक्षा	-9.65863
ब्	-9.65899
▁पत्र	-9.65983
शे	-9.66057
▁स्याद्	-9.66075
यदि	-9.66113
▁अष्ट	-9.66206
ुर्	-9.66207
▁नाश	-9.66251
▁चक्र	-9.66255
▁घोषणा	-9.66341
▁to	-9.66342
▁युक्त	-9.66358
ाश्रम	-9.66393
शब्दे	-9.66466
▁प्रभो	-9.66473
कथा	-9.66481
▁बहिः	-9.66488
▁आव	-9.66581
▁प्राचीन	-9.66725
▁चतुर्थ	-9.66842
सन	-9.66863
ाणाम्	-9.66875
चित्र	-9.66883
ासु	-9.66959
▁वक्तव्यम्	-9.67035
जे	-9.67135
योग्य	-9.67228
मात्रेण	-9.67271
क्षर	-9.6728
▁प्रकरण	-9.67307
खण्ड	-9.67344
भावः	-9.6736
▁निमित्त	-9.67407
▁विषयः	-9.67468
व्यवहार	-9.67523
▁नियत	-9.67637
▁जग	-9.67658
▁विस्तार	-9.67703
▁अह	-9.67792
कार्यं	-9.67846
▁मत्स्य	-9.67931
विष	-9.6797
ुर	-9.67972
िकः	-9.68064
ोर्	-9.68082
▁कृ	-9.68127
हित	-9.68291
▁वस्तुतः	-9.68348
▁स्वा	-9.68401
भावेन	-9.6842
▁मानुष	-9.68447
म्भ	-9.68495
▁वदति	-9.68572
▁कुरुते	-9.68607
पते	-9.68611
▁मातृ	-9.68694
पतिः	-9.68752
▁कुत	-9.68753
ेर	-9.68781
पाप	-9.68793
▁यजमान	-9.68816
▁वरिष्ठ	-9.6885
▁निष्	-9.68864
▁साध्य	-9.68867
▁एकादश	-9.68888
▁साधारण	-9.68895
▁जे	-9.69119
▁लिखत	-9.69157
ार्ध	-9.69192
▁यात्रा	-9.69234
▁परिवार	-9.69295
ाक्ष	-9.69315
यू	-9.69427
▁लि	-9.69458
▁दूत	-9.69489
दन्त	-9.69534
दृश्य	-9.69542
भावे	-9.6957
िकं	-9.69709
▁मनसि	-9.69738
▁14	-9.69767
▁पुस्तक	-9.6977
x	-9.6979
क्र	-9.69805
युद्ध	-9.69925
▁लक्ष्य	-9.69929
▁सीता	-9.6994
▁तृतीया	-9.69944
जय	-9.69949
न्यास	-9.69968
ास्त	-9.69974
बुद्ध	-9.69989
▁सेना	-9.70006
वल	-9.70016
वृ	-9.70017
ऊ	-9.7003
▁अन्तर्	-9.70128
िणः	-9.70146
ादेश	-9.70195
रपि	-9.70204
▁ज्ञात्वा	-9.70204
स्म	-9.70221
परं	-9.7027
विष्ट	-9.70317
ाग्र	-9.70407
▁प्रयोगः	-9.70425
▁आगत	-9.70428
ेषां	-9.70437
▁N	-9.70538
न्तर	-9.70608
▁क्षम	-9.70664
िन्	-9.70709
तथा	-9.70754
▁न्यून	-9.70798
ल्प	-9.70826
▁सू	-9.70848
▁प्रतीयते	-9.70912
▁अन्न	-9.70914
▁कल्याण	-9.70933
▁नाहं	-9.70976
▁अधोलिखित	-9.70983
▁तयोः	-9.70983
▁आः	-9.70997
विश	-9.71012
▁पुराण	-9.71124
▁बालक	-9.71225
▁वर्ध	-9.71304
कट	-9.71305
▁ज्ञायते	-9.71311
▁प्रयोजन	-9.71343
▁शुक्र	-9.71371
▁भार	-9.71391
▁अस्तु	-9.71398
र्थे	-9.71422
व्यापार	-9.71422
पक्षे	-9.71446
▁पति	-9.71494
रूपे	-9.71495
र्ज	-9.71515
▁बहवः	-9.71538
▁स्वतः	-9.71577
म्ब	-9.71734
ात्र	-9.71762
▁इतिहास	-9.71923
लोके	-9.71938
▁शोक	-9.71964
सत्त्व	-9.71982
११	-9.71991
▁सततं	-9.72014
१४	-9.72044
र्त	-9.7209
मना	-9.72092
गच्छ	-9.72129
बर	-9.72157
वह	-9.72205
▁अर्ध	-9.72241
▁२३	-9.72242
प्रकार	-9.72251
दन	-9.72299
▁विरोध	-9.72311
▁साक्षात्	-9.72349
दृश	-9.7235
िते	-9.72393
त्रय	-9.72401
▁ययौ	-9.7255
▁रा	-9.7258
ाऽऽ	-9.72588
ग्न	-9.72656
▁आनन्द	-9.72673
▁नै	-9.72715
प्रमाण	-9.7274
▁एकदा	-9.72768
भूता	-9.72783
▁विहित	-9.72804
▁कदाचन	-9.72845
▁अभ्यास	-9.72855
▁दोषः	-9.72874
हम्	-9.7288
18	-9.72921
▁सम्भव	-9.72929
सामान्य	-9.7298
▁लक्ष	-9.73071
▁क्र	-9.73073
मयं	-9.73084
तमे	-9.73122
▁अन्तर	-9.73143
कम	-9.73189
स्तद	-9.73305
ादिना	-9.73348
▁श्रवण	-9.73351
द्वयं	-9.73359
▁प्रसिद्ध	-9.73373
▁कार्या	-9.73399
करः	-9.73431
▁हंस	-9.73457
▁खोज	-9.73543
▁वह्नि	-9.73543
▁जाति	-9.73593
१५	-9.73626
▁षट्	-9.73705
हेतु	-9.73771
ाचार्य	-9.73845
कारस्य	-9.7389
िषु	-9.74055
रण	-9.74122
वश	-9.74205
▁ङीप्	-9.74208
▁पूर्वोक्त	-9.74209
▁तैः	-9.74221
▁त्वमेव	-9.74225
▁विश्वं	-9.74261
श्र	-9.74382
▁प्रतिवेदन	-9.74436
▁राष्ट्रिय	-9.74457
▁जुइ	-9.74464
ितवान्	-9.7449
१७	-9.74511
▁संभव	-9.74564
शासन	-9.74567
▁D	-9.74611
▁स्वर्ण	-9.74641
▁सम्बन्ध	-9.74736
▁कर्तव्यम्	-9.74754
▁भूय	-9.74913
▁उद	-9.74924
िष्यामि	-9.74967
ज़	-9.7499
▁वृत्ति	-9.75031
ब्रह्म	-9.75035
मर्थ	-9.75041
▁षष्ठ	-9.75112
वर्त	-9.75116
कला	-9.7512
गृहे	-9.75156
अथ	-9.75173
▁शु	-9.75209
▁२८	-9.75335
▁यत्न	-9.75348
ोच्यते	-9.75406
▁साहित्य	-9.75418
▁स्वीकृत	-9.75452
▁वाक्यं	-9.75498
थि	-9.75504
रहित	-9.75512
▁मूर्ख	-9.75524
iv	-9.75722
ꣳ	-9.75764
▁of	-9.75908
कृता	-9.75991
▁श्रद्धा	-9.75993
▁प्रमुख	-9.76011
▁चरण	-9.76079
▁यू	-9.76102
पो	-9.76111
तद	-9.76117
12	-9.76201
H	-9.76236
तेन	-9.76261
▁समाप्त	-9.76269
▁त्याग	-9.76275
▁यच्च	-9.76317
ामहे	-9.76318
स्वभाव	-9.7636
▁स्वयमेव	-9.76374
चित्	-9.76411
▁समये	-9.76445
▁क्रमेण	-9.76476
▁तत्रैव	-9.76504
▁l	-9.76518
▁f	-9.76578
यान	-9.76634
▁पार्थ	-9.76636
युक्तं	-9.76691
सेन	-9.76704
▁निद्रा	-9.76748
▁अन्वयः	-9.76781
▁माम्	-9.76813
@	-9.76819
▁प्रयोजनम्	-9.76823
▁धकाः	-9.76873
र्क	-9.7688
▁सदस्य	-9.7693
ागम	-9.76954
▁व्यवस्था	-9.76987
दर्श	-9.77031
भूतं	-9.77036
▁शस्त्र	-9.77129
दक्षिण	-9.77204
ष्टु	-9.77252
जाल	-9.77262
मानः	-9.77303
▁सरकार	-9.77351
लेख	-9.77366
क्षेत्रे	-9.7739
सत्य	-9.77481
▁कदापि	-9.7749
▁वर्गः	-9.7752
▁इमे	-9.77563
श्रुत	-9.77566
द्रव्य	-9.7758
▁सर्वतः	-9.77622
▁तीर्थ	-9.77661
समय	-9.77691
राग	-9.77784
द्वा	-9.7783
▁युग	-9.77844
▁नाम्ना	-9.77879
दिने	-9.77894
▁हित	-9.77945
▁युद्धे	-9.78052
▁त्वयि	-9.78198
15	-9.78207
▁सभा	-9.78233
▁हृदये	-9.78307
दानं	-9.78325
ोऽस्ति	-9.78364
▁प्रधानमन्त्री	-9.78372
घ्न	-9.78373
▁करिष्यति	-9.78395
▁संस्थान	-9.7841
▁शक्नोति	-9.78445
▁नारी	-9.78533
▁प्रश्नः	-9.78565
पृष्ठ	-9.78627
▁धन्य	-9.78672
वीर	-9.78713
मन्त	-9.78767
▁दक्षिणा	-9.78781
▁प्रथमः	-9.78788
०००	-9.78873
मासस्य	-9.78899
▁इतः	-9.78903
लम्ब	-9.79018
विद	-9.79042
▁V	-9.79044
▁केचित्	-9.7906
निर्माण	-9.79063
ष्म	-9.79155
हीन	-9.79174
योजन	-9.79279
▁अस्याः	-9.79324
रव	-9.79327
▁0	-9.79327
ध्याय	-9.79362
जु	-9.79375
मेतत्	-9.79475
▁सय	-9.7952
स्तेन	-9.79535
▁आवेदन	-9.79561
▁कार्यम्	-9.7968
▁F	-9.79686
संयुक्त	-9.79699
ोक्तं	-9.79781
त्वाद	-9.79805
▁MSS	-9.79873
01	-9.79875
▁स्मरण	-9.79894
▁थ	-9.79946
▁शक्तिः	-9.79972
ग्रे	-9.79999
प्राण	-9.80019
टे	-9.8002
सत्	-9.8002
▁अग्रे	-9.80022
▁तादृश	-9.8007
ष्टि	-9.8009
दण्ड	-9.80147
▁प्रभु	-9.80151
प्रा	-9.802
१६	-9.802
लय	-9.80212
▁शरणं	-9.80265
प्रथम	-9.80301
▁उक्तं	-9.80316
्यु	-9.80385
भी	-9.80422
क्ति	-9.80582
▁विशेषण	-9.80655
▁अकरोत्	-9.80695
▁कीर्ति	-9.80719
धान	-9.80763
सङ्ग	-9.80834
▁नेत्र	-9.80837
ादित्य	-9.80849
▁यस्तु	-9.80855
ब्राह्मण	-9.80966
नित्य	-9.80988
▁ष	-9.81009
प्त	-9.81047
▁श्रुति	-9.81162
ोऽस्मि	-9.81186
▁यानाः	-9.81246
▁वृत्त	-9.81246
▁प्राधिकरण	-9.81261
ॅ	-9.81341
▁धीर	-9.81349
मां	-9.81356
▁प्रतिदिनं	-9.81473
स्तत्	-9.81473
▁संस्करण	-9.81498
▁विरुद्ध	-9.81576
▁बोध	-9.81585
भ्र	-9.81638
▁विश्वे	-9.8166
▁एस	-9.81694
▁शक्त	-9.81777
िण	-9.81833
▁महत्वपूर्ण	-9.81865
▁देवः	-9.81893
कैः	-9.81922
़	-9.8196
ाधि	-9.82059
▁शान्ति	-9.82074
तद्	-9.82103
-1	-9.82135
ad	-9.82195
▁गज	-9.82276
▁इत्यत	-9.82349
▁प्रवृत्त	-9.82368
▁कुर्वन्	-9.82453
निर्देश	-9.82548
▁कौ	-9.82555
च्युत	-9.82559
▁भार्या	-9.82569
र्च	-9.82582
▁स्पर्श	-9.82625
रिय	-9.82689
भाष	-9.82735
दिवस	-9.82769
ेन्द्रिय	-9.82776
भे	-9.82787
करो	-9.82796
भो	-9.82806
खा	-9.82823
गता	-9.82889
ततः	-9.82896
यन्त	-9.82905
▁त्वम्	-9.8292
▁नाना	-9.83028
▁नात्र	-9.83083
▁यज	-9.83163
वेश	-9.83168
▁भूत्वा	-9.83173
▁16	-9.8321
ैन	-9.8321
▁मनु	-9.83267
दूर	-9.83395
सम्बन्ध	-9.83427
शरीर	-9.8347
मम	-9.83502
ीकृत	-9.8352
▁SF	-9.83604
धिकार	-9.83624
ट्ट	-9.83645
कर्ण	-9.83648
तुः	-9.83676
ग्रहणम्	-9.83706
▁इत्यपि	-9.83733
▁चिन्ता	-9.83916
च्या	-9.83931
O	-9.83953
▁धर्मः	-9.83979
व्यवस्था	-9.83993
ेर्	-9.84011
▁उत्पाद	-9.84032
▁कमल	-9.84107
▁४०	-9.84111
मोह	-9.84124
भेदेन	-9.8414
जीवन	-9.84175
▁वक्तुं	-9.84229
▁उक्तम्	-9.84237
▁कृपा	-9.84288
▁नष्ट	-9.84299
▁इच्छा	-9.843
▁दिनाङ्के	-9.84349
▁जना	-9.84369
गोचर	-9.84374
▁पत्नी	-9.8443
▁संसाधन	-9.84473
व्रत	-9.8452
गः	-9.84638
▁मन्ये	-9.84652
▁खँ	-9.84654
नाम्	-9.84682
as	-9.84706
न्या	-9.84756
स्थे	-9.84778
▁प्राह	-9.84819
▁संस्कार	-9.84832
ात्मना	-9.84846
ोर	-9.84911
▁मेघ	-9.84929
▁धा	-9.84934
▁५०	-9.84952
▁दर्शय	-9.84969
▁प्रोक्ता	-9.85038
मू	-9.85054
▁सुन्दर	-9.85122
रम	-9.85177
▁जीवित	-9.85191
रत	-9.8521
R	-9.85213
तत्र	-9.85227
▁दक्ष	-9.85319
▁स्वस्य	-9.85367
्यम्	-9.85408
ालय	-9.85444
त्याग	-9.85488
विरुद्ध	-9.85511
अप	-9.85534
▁रामः	-9.85571
विधान	-9.8561
नयन	-9.85616
▁स्थिता	-9.8563
▁स्थापित	-9.85647
स्मै	-9.85651
▁गृहीत्वा	-9.85708
▁एतेषां	-9.8572
▁गतिः	-9.85726
वादी	-9.85736
▁यद्वा	-9.8575
▁पर्यावरण	-9.85765
▁बाध	-9.85794
▁वचः	-9.85799
▁कुशल	-9.85801
ीयं	-9.8588
वन्	-9.86078
स्त्य	-9.86092
▁रति	-9.86162
▁कर्मणा	-9.86167
गर्भ	-9.86311
▁त्वत्	-9.86378
▁मुद्रा	-9.86414
▁दया	-9.86423
▁विकार	-9.86424
▁उत्तरः	-9.86431
▁मासे	-9.86455
▁वः	-9.86462
▁कुमार	-9.86482
▁सद	-9.865
स्यां	-9.86516
▁एम	-9.86579
K	-9.86605
तॊ	-9.86622
धिक	-9.86668
▁न०	-9.86704
माना	-9.86771
▁प्राक्	-9.86823
युग	-9.86837
र्ग	-9.86845
▁व्याकरण	-9.86859
संबन्ध	-9.86926
सप्त	-9.86989
14	-9.87015
11	-9.8702
प्रयोजन	-9.87021
▁धारय	-9.8714
▁षड्	-9.87195
कौ	-9.87207
▁स्वप्ने	-9.87265
▁इत्	-9.87323
ाधार	-9.87325
▁सोऽ	-9.87327
गर	-9.87347
▁दुर्ग	-9.87359
▁२९	-9.87411
▁श्रम	-9.8742
माप	-9.87424
^	-9.87443
कालः	-9.87463
▁समीपे	-9.87522
भर	-9.87612
▁व्रज	-9.8764
शब्दस्य	-9.87643
▁कीदृश	-9.87661
सिद्धि	-9.87704
▁इय	-9.8771
संस्कृत	-9.87724
च्छेद	-9.87749
▁पच	-9.87792
▁इत्येत	-9.87848
▁समस्या	-9.87866
यतः	-9.87873
▁इत्येतद्	-9.87887
वंश	-9.87926
▁शासन	-9.87939
▁अन्तः	-9.8795
▁सर्वान्	-9.87994
वेग	-9.8801
▁द्वार	-9.88015
▁अल	-9.88083
ाण्य	-9.88109
पर्यन्तं	-9.88116
▁दर	-9.88213
▁असि	-9.88244
जन्य	-9.88259
तायाः	-9.88303
▁सेव	-9.88307
तप	-9.8832
▁केवलम्	-9.88358
U	-9.88392
येत	-9.88398
पू	-9.88407
▁विशेषः	-9.88441
अपि	-9.8846
गुरु	-9.88545
रक्ष	-9.88568
सिंह	-9.88585
▁आर	-9.88598
▁अनुवाद	-9.88599
वात	-9.88851
▁पीसी	-9.8888
▁श्रूयते	-9.88884
ग्नि	-9.88899
▁किमर्थं	-9.88925
मुद	-9.88929
▁जीवनं	-9.88932
▁गिर	-9.8904
ांश्च	-9.89052
▁नेपाल	-9.89055
ाक्षर	-9.89059
ाकाश	-9.8906
सभा	-9.89082
पाठ	-9.89101
यामास	-9.89154
▁सम्प्रति	-9.89155
धो	-9.89171
ही	-9.89181
▁चल	-9.89186
▁वज्र	-9.89196
णु	-9.89202
ार्ह	-9.89258
दृष्ट्या	-9.89266
▁मह्यं	-9.89318
▁नृत्य	-9.89453
▁निवृत्त	-9.89465
नर	-9.89513
▁बलं	-9.89513
▁शून्य	-9.89558
ab	-9.89561
णीय	-9.89562
ेक	-9.89569
संज्ञ	-9.89614
▁c	-9.89634
चरित	-9.89675
ारम्भ	-9.89683
▁गिरि	-9.89735
▁स्फुट	-9.89787
▁विवाद	-9.89888
प्स	-9.89909
तन	-9.89921
▁नहीं	-9.89927
▁वर्षाणि	-9.90074
न्तो	-9.90089
निष्ठ	-9.90094
वेष	-9.90096
▁एतादृश	-9.90103
▁अत्य	-9.90123
▁दृष्टि	-9.90129
मुख्य	-9.90184
▁स्नानं	-9.9019
चे	-9.90235
▁द्वितीया	-9.90238
िष्यते	-9.9025
प्रवेश	-9.90258
▁इच्छ	-9.90273
भक्ति	-9.90342
▁(=	-9.90397
ch	-9.9041
▁स्त्रीणां	-9.90411
▁वदन्ति	-9.90469
▁K	-9.90495
▁निर्दिष्ट	-9.90513
टक	-9.9059
ह्	-9.90643
स्त्री	-9.90711
▁पातु	-9.90763
▁विभिन्न	-9.90828
▁30	-9.90835
▁ताः	-9.9085
फ़	-9.90887
२१	-9.90912
▁विदेश	-9.90929
▁धु	-9.90982
नगरे	-9.91023
वृक्ष	-9.91233
▁ऽपि	-9.91278
व्यक्त	-9.91464
▁परस्परं	-9.91536
पूर्वं	-9.91576
▁ऋत	-9.9161
▁सृष्टि	-9.91623
▁अपर	-9.91656
त्ति	-9.91683
▁अन्तिम	-9.91727
चेतन	-9.91741
ऋ	-9.91776
▁सकलं	-9.91795
▁लभ्यते	-9.91842
▁मद्	-9.91897
▁विधिः	-9.91916
▁३१	-9.91918
▁प्रकार	-9.91936
्यत	-9.91943
02	-9.91957
ाकार	-9.91966
विनाश	-9.91973
▁शक्र	-9.91983
वध	-9.92
~	-9.92061
▁मिथ्या	-9.92065
गृहीत	-9.9208
▁कै	-9.92089
▁करोतु	-9.92132
▁वचन	-9.92184
▁अय	-9.92198
ुक	-9.92228
▁सप्तम	-9.9224
▁कारणम्	-9.92342
▁अक्षर	-9.92464
▁लाखों	-9.92469
▁भवे	-9.92497
्यमान	-9.92511
मण्डल	-9.92517
यस्य	-9.92538
▁कश्चिद्	-9.92589
▁याच	-9.926
सेवा	-9.92646
h	-9.92651
▁बुध	-9.92662
▁गम्यते	-9.92742
▁त्यज	-9.92744
धाय	-9.92749
द्द	-9.92751
रिव	-9.92793
ic	-9.92827
▁जले	-9.9287
देशस्य	-9.929
पन्न	-9.92968
रत्न	-9.93029
▁स्मृतः	-9.93119
हिं	-9.93157
▁हरिः	-9.93174
▁वानर	-9.93178
मल	-9.93198
२२	-9.93271
▁होम	-9.93306
ताप	-9.93308
▁बालकः	-9.93317
▁स्वास्थ्य	-9.93349
मेकं	-9.93424
ाचार	-9.93454
लक्षणं	-9.93454
▁2019	-9.93533
▁केचन	-9.93621
युत	-9.93639
▁दरिद्र	-9.9364
विधा	-9.93648
▁सायं	-9.93677
W	-9.9385
जायते	-9.93908
▁इत्युक्ते	-9.93951
पल	-9.93965
कारेण	-9.93977
राज्यस्य	-9.93981
▁सैन्य	-9.93982
▁पृष्ट	-9.93991
▁विवेक	-9.94015
वृद्धि	-9.9405
▁विभक्त	-9.94059
▁मर्त्य	-9.94124
काश	-9.94146
ाङ्क	-9.94205
▁वार्ता	-9.94263
▁ततश्च	-9.9427
▁the	-9.94278
▁षोडश	-9.9428
पदे	-9.94311
▁d	-9.94317
पत	-9.94323
▁निर्वाचन	-9.94376
सृ	-9.94536
ुत्	-9.94552
▁समयः	-9.94679
▁राष्ट्रीय	-9.94691
▁भो	-9.9471
ाण	-9.94742
बद्ध	-9.94803
मद	-9.9485
▁संस्था	-9.94851
▁कार्य्य	-9.94879
▁स्वार्थ	-9.94889
दुर्	-9.94898
कालं	-9.94911
रज	-9.9494
▁रज	-9.94953
ान्तरे	-9.94976
▁द्वितीयं	-9.94997
विशेषण	-9.95026
▁अतएव	-9.95047
बाध	-9.95061
▁भवतीति	-9.95097
▁भज	-9.95117
▁परमेश्वर	-9.95121
तीत्य	-9.95121
▁H	-9.95192
▁क्ली	-9.95197
▁राष्ट्रपति	-9.95237
▁वर्धते	-9.95264
▁करुणा	-9.9529
संज्ञा	-9.95312
पय	-9.95327
▁एवमेव	-9.95335
▁संयोग	-9.95364
▁2020	-9.95391
▁पद्म	-9.95422
▁स्मृति	-9.95447
गल	-9.95529
मेत	-9.95553
▁प्रत्ययः	-9.95579
▁मल	-9.95747
ादपि	-9.95765
पुण्य	-9.95817
ल्या	-9.95918
ासि	-9.95938
▁मण्डल	-9.9594
▁अधो	-9.95977
▁b	-9.95983
▁यन्त्र	-9.95989
अर्थ	-9.9604
पण	-9.96131
▁अधिकारी	-9.96182
▁शरीरं	-9.96195
ऽऽ	-9.96229
प्रश्न	-9.96305
il	-9.96402
पदार्थ	-9.96449
▁प्रविश्य	-9.96486
मप्य	-9.96496
▁पश्यामि	-9.96502
▁चिद	-9.96503
th	-9.96528
▁सरल	-9.9653
त्ता	-9.96548
un	-9.9657
३०	-9.96573
▁पक्षे	-9.96622
भु	-9.96635
▁सर्वस्य	-9.96641
▁एन	-9.96649
जान	-9.96663
▁शक्यं	-9.96685
▁प्रतिज्ञा	-9.967
संस्कार	-9.96784
कू	-9.96819
▁याःगु	-9.96846
हू	-9.96884
▁वायुः	-9.96939
▁आर्थिक	-9.96952
▁वात	-9.96956
॒त	-9.96957
वर्त्त	-9.96975
▁a	-9.96978
समास	-9.97051
▁एको	-9.97166
▁भोजनं	-9.97315
▁स्था	-9.97372
▁मुने	-9.97406
युक्ता	-9.97411
▁कृत्य	-9.97432
▁आय	-9.97499
▁दूरे	-9.9752
चरण	-9.97533
▁करे	-9.97603
▁प्रज्ञा	-9.97722
न्द्र	-9.97744
▁गीत	-9.97745
▁सङ्ख्या	-9.97778
त्वाद्	-9.97838
विशेषः	-9.97839
▁प्रमाणं	-9.97935
13	-9.97956
▁मधुर	-9.97965
▁दिवा	-9.97979
es	-9.98036
▁सूत	-9.98063
▁अनन्त	-9.98099
▁देशस्य	-9.98129
इत्य	-9.98168
▁21	-9.9819
▁समूह	-9.98197
शाला	-9.98203
क्षि	-9.98252
▁m	-9.98267
ीया	-9.98269
▁षष्ठी	-9.9838
यात्रा	-9.98653
▁सौभाग्य	-9.98666
▁इत्युच्यते	-9.98697
▁तर्क	-9.98723
गमन	-9.98735
▁जक	-9.98903
▁प्रतिष्ठा	-9.98916
भारत	-9.98925
▁इच्छति	-9.98929
▁वर्त	-9.98951
थः	-9.98956
तीर्थ	-9.98958
▁इमं	-9.98963
Y	-9.98967
ेनापि	-9.98982
▁वार्षिक	-9.99022
क्षित	-9.99043
क्रमेण	-9.99056
ास्	-9.99182
▁विचित्र	-9.99192
मस्य	-9.99236
र्द्ध	-9.99257
ष्ण	-9.99287
१३	-9.99364
▁पात	-9.99371
दीप	-9.99377
▁साल	-9.99429
▁छात्राः	-9.99442
▁इत्येवं	-9.99443
▁धीरे	-9.99495
▁व्यय	-9.99518
कथ	-9.99522
▁इत्यस्मात्	-9.99575
वाचक	-9.99644
▁तेषाम	-9.99671
▁सुरक्षा	-9.99708
एस	-9.99714
▁सहित	-9.99735
▁वरुण	-9.99745
ज्या	-9.99756
▁त्रीणि	-9.99777
▁वाच	-9.9978
▁निः	-9.99826
▁ट	-9.99835
▁प्रार्थना	-9.99852
▁छात्र	-9.99929
स्ततः	-9.99933
▁पवित्र	-9.9994
कथं	-9.99947
▁धूम	-9.99954
▁निर्देश	-9.99955
भवति	-9.99981
it	-10.0002
▁आर्य	-10.0006
ुत्तर	-10.0007
▁उपयोग	-10.0016
सागर	-10.0018
▁कवि	-10.0019
▁सर्वथा	-10.0029
▁प्रयत	-10.0031
ासौ	-10.0034
▁वस्त्र	-10.0039
▁आसन	-10.004
▁सार	-10.0042
शक्त	-10.0045
▁करो	-10.0053
पूजा	-10.0055
▁वाच्य	-10.0063
विधिः	-10.0065
▁संस्कृति	-10.0069
-'	-10.008
तुर्	-10.0081
सूर्य	-10.0085
हन	-10.0085
▁अग्निः	-10.0086
▁युद्धं	-10.0092
ा॒	-10.0094
▁तन्न	-10.0094
▁३२	-10.0094
▁अमरः	-10.0099
जो	-10.0099
यमान	-10.0101
घट	-10.0101
हुत	-10.0104
▁अवदत्	-10.0104
▁आदेश	-10.0105
शुभ	-10.0105
▁अत्यन्त	-10.0106
▁राशि	-10.0111
▁चीन	-10.0113
▁शम	-10.0119
▁विहाय	-10.012
सुर	-10.0128
▁एता	-10.0129
मूल्य	-10.0132
ाध्याय	-10.0134
▁आचार्य	-10.0137
▁प्रविष्ट	-10.014
ादयो	-10.0141
▁भूमौ	-10.0142
▁विभाषा	-10.0143
21	-10.0145
ग्राह	-10.0154
मतः	-10.0155
ोदक	-10.0156
ख्य	-10.0156
ष्यति	-10.0157
▁उचित	-10.016
विवेक	-10.0161
युक्तः	-10.0163
स्तं	-10.0165
रित्य	-10.0165
▁युगे	-10.0167
▁सर्वैः	-10.0168
▁ततस्त	-10.0175
ैत	-10.0178
क्षिप्त	-10.0179
30	-10.0182
▁पुरातन	-10.0184
दिव	-10.0185
▁देवो	-10.0187
▁महोदय	-10.0193
▁देवस्य	-10.0193
मित्यर्थः	-10.0195
▁तस्यां	-10.0202
▁वाहन	-10.0215
19	-10.0216
प्रसङ्ग	-10.0217
प्राप्ति	-10.0217
▁सहसा	-10.0224
▁कर्माणि	-10.0224
▁ताव	-10.023
17	-10.0236
▁संविधान	-10.0238
यन्ते	-10.0239
क्षु	-10.024
दित्य	-10.0243
▁मूढ	-10.0245
:-	-10.0246
भुज	-10.0248
▁टी	-10.0254
िके	-10.0256
श्चा	-10.0256
▁प्रवृत्ति	-10.0259
सम्भव	-10.0259
▁भुवि	-10.0263
येन	-10.0268
▁पाक	-10.0268
▁पो	-10.0269
▁मित्रं	-10.027
▁कारक	-10.0275
▁दक्षिणे	-10.0275
▁हिंसा	-10.028
▁ईश्वरः	-10.0281
स्थं	-10.0281
▁प्रस्ताव	-10.0284
धातु	-10.0286
▁J	-10.0289
▁बभूव	-10.0292
▁सर्प	-10.0297
आर	-10.0298
▁सर्वाः	-10.0304
गतः	-10.0307
▁तू	-10.0308
▁कर्म्म	-10.031
▁यस्मात्	-10.0311
ेष्ट	-10.0311
ोदर	-10.0311
वारं	-10.0313
▁तक	-10.0317
▁लिख	-10.0319
▁प्राप्यते	-10.0325
वित्त	-10.0329
युक्ते	-10.0335
▁जनः	-10.0335
▁सप्ताह	-10.0338
▁Answer	-10.034
ासन	-10.0346
त्सु	-10.0347
▁दर्श	-10.0347
▁दृष्टा	-10.0351
▁कार्	-10.0357
हास	-10.0358
पाय	-10.0361
▁बन्ध	-10.0367
यॊ	-10.0369
▁हर्ष	-10.0373
▁याये	-10.0374
गृ	-10.038
▁विश	-10.0387
ात्मकं	-10.0389
हन्	-10.0389
ादेः	-10.0391
▁निवेश	-10.0393
▁राज्ञः	-10.0395
रति	-10.0403
▁द्रष्टुं	-10.0406
▁अधिकरण	-10.041
▁अण्	-10.0412
▁चतुर्दश	-10.0414
▁वर्णन	-10.0415
▁नमो	-10.0415
▁व्याघ्र	-10.0416
▁कारयेत्	-10.042
वचनं	-10.0421
ध्वं	-10.0423
▁बु	-10.0425
▁कालेन	-10.0428
▁तन्त्र	-10.0435
▁रत्न	-10.0436
यद	-10.0437
▁निवेदन	-10.0439
▁सिध्यति	-10.0443
राशि	-10.0443
यात्	-10.0445
▁एतानि	-10.0447
२४	-10.0452
ङि	-10.0456
▁पंच	-10.0456
▁हल	-10.0457
संयोग	-10.046
नय	-10.0465
▁गुणाः	-10.0466
▁मै	-10.0471
तरा	-10.0474
ाच	-10.0475
ांसि	-10.0475
▁श्व	-10.0478
ुक्त	-10.0481
▁त्यक्त्वा	-10.0482
▁अवश्यं	-10.0482
▁कथयति	-10.0485
▁निश्चित	-10.0485
-2	-10.0492
तिथि	-10.0499
शोभ	-10.05
ादय	-10.0503
▁प्रथमे	-10.051
▁जीवति	-10.051
▁स्वस्थ	-10.051
▁अध्यायः	-10.051
▁इद	-10.0511
▁वीर्य	-10.0518
ेऽस्मिन्	-10.0518
▁कव	-10.0518
▁प्रोक्त	-10.0521
▁प्रवर्त	-10.0524
▁३३	-10.0525
▁5.	-10.0526
▁परस्परम्	-10.0531
▁सृज	-10.0538
परम	-10.0539
▁अस्माभिः	-10.0544
▁प्रीत	-10.0548
२७	-10.0548
लब्ध	-10.0549
▁आधुनिक	-10.055
▁एकैक	-10.0556
गते	-10.0561
▁चित्	-10.0561
▁क्षय	-10.0562
▁उपा	-10.0566
▁न्यास	-10.0568
ुष	-10.0573
▁समं	-10.0574
ीश्वर	-10.0574
▁योग्य	-10.0577
▁हत	-10.0581
शङ्क	-10.059
ेत्यर्थः	-10.0592
▁25	-10.0602
▁जगद्	-10.0606
▁हेतुः	-10.061
▁2018	-10.0617
परे	-10.0617
ची	-10.062
▁घटना	-10.0623
▁अंश	-10.0624
▁=>	-10.0625
रेण	-10.0625
ादीनि	-10.0626
▁वध	-10.0631
सम्पादन	-10.0632
▁स्थितम्	-10.0633
ह्र	-10.0633
मनस	-10.064
तार	-10.064
▁क्षेत्रे	-10.0645
▁बहूनि	-10.0645
श्चापि	-10.0645
▁Next	-10.0652
्यर्थ	-10.0652
ण्य	-10.0662
जाति	-10.0662
▁में	-10.0664
▁24	-10.0667
▁मय	-10.0668
िष्य	-10.0673
▁चकार	-10.0673
भास	-10.0673
तश्च	-10.0675
दीर्घ	-10.0676
स्थल	-10.0682
▁जित	-10.0687
ेभ्य	-10.0689
▁परिवर्तन	-10.0689
कानां	-10.0691
डु	-10.0692
ागत	-10.0697
पार	-10.0699
▁पर्व	-10.0699
▁अध्यक्ष	-10.0704
भेदः	-10.0705
ैनं	-10.0707
▁कुर्व	-10.0712
सहित	-10.0716
०५	-10.0717
▁समग्र	-10.0717
सृष्ट	-10.0724
ानी	-10.0729
भौ	-10.0731
▁शूर	-10.0733
चन्द्र	-10.0734
▁नागरिक	-10.0734
▁संरक्षण	-10.0735
णम्	-10.0738
स्येति	-10.0739
मर	-10.0748
वित्	-10.0751
सर्प	-10.0753
्स	-10.0753
ोपरि	-10.0755
▁सर	-10.0762
धः	-10.0762
यन्त्र	-10.0765
भाषित	-10.0769
अनु	-10.0769
▁चतुर	-10.0769
पूर	-10.0773
▁सृष्ट	-10.0773
युज्य	-10.0778
भोजन	-10.078
▁लु	-10.0782
▁विशाल	-10.0789
०९	-10.0791
▁प्रजाः	-10.0798
मत्र	-10.0801
ह्न	-10.0802
ीयः	-10.0803
लभ	-10.0804
▁गोप	-10.0806
▁इदम	-10.081
▁यॊ	-10.0812
▁p	-10.0812
न्याय	-10.0817
युः	-10.082
ात्मनः	-10.0821
▁नाटक	-10.0821
▁सौम्य	-10.0827
म्बर	-10.0827
▁प्राप्ता	-10.0827
▁तदाह	-10.0827
▁तमेव	-10.0828
ोपदेश	-10.083
ादेशः	-10.083
बहु	-10.0831
▁मानस	-10.0833
दै	-10.0835
सय	-10.084
V	-10.0844
श्री	-10.0844
▁गाय	-10.0847
▁आधार	-10.085
सत	-10.0851
प्ल	-10.0856
योगे	-10.0865
बाल	-10.0865
योगेन	-10.0867
स्थिति	-10.087
ादिभिः	-10.0871
▁पापं	-10.0873
iii	-10.0874
▁ग्राह्य	-10.0877
तमा	-10.0885
▁भवती	-10.089
▁प्रकारेण	-10.089
▁सङ्ग	-10.0892
▁औषध	-10.0893
▁व्याख्या	-10.0895
▁अक्ष	-10.0899
लभ्य	-10.0902
▁प्राप्तवान्	-10.0903
स्मान्	-10.0905
▁त्यक्त	-10.0905
भाज	-10.0911
▁इत्थं	-10.0917
▁चिन्तय	-10.0919
▁सन्धि	-10.0929
▁वेति	-10.0929
▁सम्प्र	-10.0934
▁धाःसा	-10.0935
तस्	-10.0935
▁साथ	-10.0943
नाद	-10.0945
▁नायक	-10.0948
▁मी	-10.095
प्रती	-10.0952
▁संभवति	-10.0955
वाहन	-10.096
▁वृष	-10.0967
▁संप्र	-10.0967
▁गुणा	-10.097
खिल	-10.0977
▁कश्चिद	-10.0989
▁व्यास	-10.0991
▁आवश्यक	-10.0997
▁स्युः	-10.0998
वर्तते	-10.0998
कर्मणि	-10.0998
त्रयं	-10.0999
▁एषां	-10.1003
st	-10.1005
▁धर	-10.1005
ा॑	-10.101
▁पै	-10.101
ोद्	-10.1011
▁सदृश	-10.1013
ोऽसि	-10.1014
▁प्रतिषेध	-10.1021
२८	-10.1025
मुद्	-10.1029
ज्ञात	-10.1031
अहं	-10.1034
▁दो	-10.1034
▁पतित	-10.1034
समान	-10.1036
▁प्रयत्न	-10.1037
▁पितुः	-10.1038
▁नान्य	-10.1044
▁घन	-10.1046
ऽत्र	-10.1047
▁युव	-10.1052
ैरपि	-10.1059
▁क्रमशः	-10.106
▁दशम	-10.1061
▁पाल	-10.1062
▁आशा	-10.1066
रक्षण	-10.1069
रक्त	-10.1069
▁जिला	-10.1074
ज्ञः	-10.1075
▁दिश	-10.108
▁गुरुः	-10.1086
▁कार्याणि	-10.109
मात्रे	-10.1094
▁कष्ट	-10.1106
ेषा	-10.1108
व्र	-10.111
▁रिक्त	-10.1112
▁दृष्टं	-10.1112
▁पार्श्व	-10.1115
▁निर्माण	-10.1119
दल	-10.1123
मते	-10.1124
▁चिर	-10.1125
▁ड	-10.1125
▁द्वीप	-10.1126
गृहं	-10.1128
▁विनि	-10.1128
रौ	-10.113
्यादि	-10.1137
गच्छति	-10.1138
साद	-10.1139
▁कर्तव्यः	-10.114
धु	-10.1143
▁अङ्क	-10.1147
प्रत्य	-10.1152
▁देशः	-10.1157
तव्य	-10.1158
▁भवत्य	-10.1162
प्रकृति	-10.1162
लोप	-10.1166
टो	-10.1169
क्षत	-10.1173
▁ऋतु	-10.1178
▁लोका	-10.1189
▁अग्र	-10.1189
vi	-10.1191
योजित	-10.1196
▁स्थल	-10.1196
विन्द	-10.1197
▁भाष्य	-10.1198
▁तद्यथा	-10.1199
▁दीन	-10.12
निर्णय	-10.12
विद्य	-10.1202
▁क्षीर	-10.1202
हम	-10.1207
माने	-10.1209
▁खु	-10.121
▁धर्मो	-10.1223
िया	-10.1225
▁अ॒	-10.1226
भङ्ग	-10.1238
भिधीयते	-10.1241
▁दत्त्वा	-10.1243
▁अभाव	-10.1244
सदृश	-10.1244
@1	-10.1245
प्रदेश	-10.1247
▁अधिकृत	-10.1248
▁नापि	-10.1251
▁पुरुषो	-10.1258
--"	-10.1259
परीक्षा	-10.1266
▁सहाय	-10.127
▁अपराध	-10.1273
नौ	-10.1273
चु	-10.1275
प्प	-10.1278
▁सामान्यतः	-10.1279
मन्	-10.1279
मासे	-10.1279
▁आवश्यकता	-10.128
ऽन्य	-10.1282
▁ईश	-10.1282
▁त्या	-10.1283
▁रो	-10.1283
▁भाष	-10.1286
▁भीत	-10.1286
६९	-10.1286
▁दिशि	-10.1287
▁अस्मान्	-10.129
▁भर	-10.1291
वृत	-10.1294
कोटि	-10.1298
धीः	-10.1298
संख्य	-10.1301
▁अभिप्राय	-10.1301
न्स	-10.1303
तोऽ	-10.1307
▁ओं	-10.1316
05	-10.1321
पुष्प	-10.1323
50	-10.1323
मोक्ष	-10.1333
▁लक्षणं	-10.1335
केश	-10.1335
▁त्वम	-10.1348
वु	-10.1353
▁सूक्त	-10.1353
भूमि	-10.1358
माया	-10.1358
▁पुरुषं	-10.1361
▁रावण	-10.1363
▁संबंधन	-10.1366
▁दैत्य	-10.1367
▁सप्तदश	-10.1369
डे	-10.137
साम	-10.1376
▁यथाशक्ति	-10.1377
▁व्याधि	-10.1377
▁समर्थन	-10.138
विहीन	-10.1381
२५	-10.1381
ीकृत्य	-10.1386
ायुध	-10.1388
▁वी	-10.1388
▁रम	-10.139
कारी	-10.1391
▁समीप	-10.1394
▁पिब	-10.1396
▁बी	-10.1399
▁अधिकं	-10.1399
▁मरणं	-10.14
भवत्	-10.1402
चिन्त्य	-10.1408
▁साभारः	-10.1409
▁मति	-10.141
▁सम्बन्धि	-10.1414
न्ये	-10.1415
▁३५	-10.1417
प्रभाव	-10.1417
▁मू	-10.1417
षण	-10.1419
▁दृश्यन्ते	-10.1422
▁पठति	-10.1424
मरण	-10.1424
विरोध	-10.1426
वय	-10.1428
and	-10.1433
▁अनन्तरं	-10.1433
वश्य	-10.1436
▁प्रवक्ष्यामि	-10.1436
भयं	-10.1439
▁नामानि	-10.1442
ाख्या	-10.1444
दास	-10.1445
▁विदुः	-10.1446
ऽनु	-10.1447
▁ततॊ	-10.1448
▁दद	-10.145
वतां	-10.1457
▁दृश्यम्	-10.1458
लक्ष	-10.146
▁कुतो	-10.1461
▁टिप्पणियां	-10.1462
कृष्ट	-10.1465
▁प्रयुक्त	-10.1465
▁इच्छामि	-10.147
क्षम	-10.1471
क्ष्य	-10.1472
ून	-10.1475
धौ	-10.1479
ासी	-10.1482
▁स्वातन्त्र्य	-10.1484
▁माम	-10.1487
▁समर्पयामि	-10.1489
देशः	-10.1489
ानन्तरं	-10.1499
▁स्थिते	-10.1501
▁असौ	-10.1501
तुल्य	-10.1502
▁यश्च	-10.1503
4.	-10.1505
▁युवा	-10.1511
▁महता	-10.1518
वीर्य	-10.1518
▁वास	-10.1523
फि	-10.1526
वस्था	-10.1531
खे	-10.1536
परः	-10.1536
यन्तु	-10.1542
▁कोटि	-10.155
स्क	-10.1552
▁घृत	-10.1557
et	-10.1563
ध्र	-10.1565
द्या	-10.1567
▁वेत्ति	-10.1568
ादिक	-10.1569
▁लक्ष्यते	-10.1577
▁अन्तरिक्ष	-10.1579
पुस्तक	-10.1582
▁दिवि	-10.1585
▁शाश्वत	-10.159
▁नाग	-10.159
▁कानून	-10.1594
▁23	-10.1607
▁जी	-10.1608
▁अन्वेषण	-10.161
▁षड	-10.1611
▁स्तुति	-10.1612
स्प	-10.1616
मण्डले	-10.1619
ीर	-10.1619
▁कार्यालय	-10.1636
ेयम्	-10.1638
ख्या	-10.1638
म्य	-10.1639
केन्द्र	-10.1641
▁मं	-10.1646
वाच्य	-10.1647
▁यशः	-10.1652
द्यु	-10.1654
▁आधिकारिक	-10.1654
ra	-10.1655
▁ध्वज	-10.1655
पाक	-10.1658
▁आरम्भ	-10.166
▁स्थापय	-10.1661
▁धार्मिक	-10.1662
▁अभवन्	-10.1663
▁पीत	-10.1665
▁३६	-10.1665
▁तदर्थ	-10.1672
तीव	-10.1673
▁स्वकीय	-10.1674
▁सद्	-10.1681
▁स्तः	-10.1682
▁भवेद्	-10.169
ाभावात्	-10.1697
प्लुत	-10.1698
▁प्रार्थय	-10.17
▁तार	-10.1701
▁भवतां	-10.1701
▁स्त्रिया	-10.1705
बु	-10.1707
करोति	-10.1707
▁तवा	-10.1709
▁पुनरपि	-10.171
▁उन्नत	-10.1711
▁अपना	-10.1713
▁पुरतः	-10.1713
▁पूजां	-10.1718
तले	-10.1721
▁किंचित्	-10.1722
ाश	-10.1722
▁तत्रापि	-10.1723
आई	-10.1724
▁शब्दस्य	-10.1728
स्तो	-10.1729
▁ध्रुव	-10.173
चल	-10.174
वृत्तिः	-10.174
04	-10.174
▁सङ्	-10.1742
गन्ध	-10.1744
▁कामं	-10.1749
▁यात	-10.1751
▁उक्तः	-10.1752
क्षे	-10.1752
▁शिक्षण	-10.1752
वाल	-10.1754
र्या	-10.1755
०६	-10.1758
तिष्ठ	-10.1766
िकाः	-10.1771
▁फलम्	-10.1772
वस	-10.1772
▁सिद्धि	-10.1775
अन	-10.1786
▁अधः	-10.1787
धिकरण	-10.1788
स्मा	-10.1789
▁दद्यात्	-10.179
▁घर	-10.1791
येद्	-10.1794
श्रेष्ठ	-10.1795
द्वितीय	-10.1797
▁कालं	-10.1797
▁लग्न	-10.1804
िस	-10.1805
▁इत्या	-10.1805
करणे	-10.1814
▁अना	-10.1814
▁दीयते	-10.1815
र्थं	-10.1817
▁खो	-10.182
▁इत्येतत्	-10.182
संस्थ	-10.1825
▁स्थापना	-10.1827
▁न्यायालय	-10.1828
▁27	-10.1831
ो॒	-10.1833
रित	-10.1833
▁विश्वविद्यालय	-10.1834
▁सर्वभूतेषु	-10.1838
▁भक्षय	-10.184
▁आगम	-10.1844
समुद्र	-10.1845
भावो	-10.1849
विधानं	-10.1851
समर्थ	-10.1854
▁देवं	-10.1867
▁तेनैव	-10.1867
ावह	-10.187
25	-10.1872
समूह	-10.1872
मै	-10.1874
▁प्रसाद	-10.1875
▁पाण्डव	-10.1878
कोष	-10.1881
▁चैक	-10.1888
जनक	-10.1892
▁दर्शित	-10.1897
▁पात्र	-10.1901
शिख	-10.1902
▁स्वं	-10.1902
र्ड	-10.1902
येति	-10.1903
▁रणे	-10.1903
भूत्	-10.1909
▁सत्र	-10.1915
भाषण	-10.1916
▁शोध	-10.1917
▁गृह्यते	-10.1918
ाश्व	-10.1921
भृ	-10.1922
▁W	-10.1923
द्वार	-10.1924
▁कल्पित	-10.1927
▁प्राकृत	-10.1933
वच	-10.1934
थो	-10.1934
ुद	-10.1937
३१	-10.194
ऽव	-10.1941
▁शिशु	-10.1943
▁बालिका	-10.1948
ऽभि	-10.1954
▁केनापि	-10.1954
▁डा	-10.1959
स्तेषां	-10.1959
▁कालो	-10.196
▁एस्	-10.1961
▁गम	-10.1962
▁कर्तुम्	-10.1964
मुत्	-10.1965
तये	-10.1967
▁वरं	-10.1973
▁४५	-10.198
▁जाल	-10.1981
▁वेतन	-10.1986
मप	-10.1987
इन्द्र	-10.1987
▁स्थितिः	-10.1987
▁सुप्त	-10.199
पर्य	-10.1993
▁अर्थात्	-10.1994
▁संवत्सर	-10.1997
तमं	-10.1999
▁अहम	-10.2002
२३	-10.2007
िल	-10.2008
▁सूत्रे	-10.2011
ासीत्	-10.2012
▁ह्र	-10.2013
▁प्राय	-10.2015
X	-10.2018
ेन्	-10.2019
शब्दो	-10.2019
▁क्लेश	-10.2019
्म	-10.2029
16	-10.2029
▁पुष्टि	-10.203
ऽहं	-10.2032
▁अन्ते	-10.2033
ोत्सव	-10.2033
टः	-10.2035
द्रव	-10.2038
▁मानवः	-10.204
▁मई	-10.2041
डो	-10.2042
ा०	-10.2046
गतम्	-10.2054
▁पूर्वेण	-10.2057
▁ईदृश	-10.2059
तमः	-10.206
▁परः	-10.2062
$	-10.2062
▁नाट्य	-10.2075
▁बे	-10.2077
पद्य	-10.2083
जातीय	-10.2084
▁शुल्क	-10.2085
शून्य	-10.209
महे	-10.2091
▁विश्वास	-10.2092
▁शतं	-10.2093
▁कुर्या	-10.2095
यतु	-10.2096
स्थापन	-10.2098
गं	-10.2103
त्त्व	-10.2109
▁मिश्र	-10.2109
२६	-10.2111
us	-10.2111
▁22	-10.2117
▁तीव्र	-10.2117
ाहुः	-10.2119
मासीत्	-10.212
ात्मनि	-10.2121
▁तनु	-10.2122
▁पर्याय	-10.2122
▁शयन	-10.2123
▁संज्ञा	-10.2127
3.	-10.2128
ायाम्	-10.213
▁प्रयत्नेन	-10.213
▁दानं	-10.2131
▁नूनं	-10.2137
▁पितामह	-10.214
▁विधाय	-10.2143
▁बीज	-10.2144
भद्र	-10.2145
ध्या	-10.2146
▁क्षणं	-10.2146
▁प्रभुः	-10.2147
▁उत्सव	-10.2153
ब्ध	-10.2156
ाभ्य	-10.2157
▁दुग्ध	-10.2161
▁मार	-10.2162
▁प्रदत्त	-10.2162
▁शिला	-10.2165
ेते	-10.2165
▁भागः	-10.2168
▁स्यादिति	-10.2168
नैव	-10.217
▁कर्तव्या	-10.2172
तय	-10.2173
▁नगरे	-10.2176
▁एवा	-10.2179
▁Q	-10.2179
▁विधिना	-10.2181
▁वक्तव्य	-10.2188
▁वक्ष्यामि	-10.2188
ाइ	-10.2189
मार्गेण	-10.219
▁बह	-10.2197
▁राज्ये	-10.2201
शू	-10.2204
▁जनानां	-10.2208
▁पुत्रं	-10.2216
▁पट	-10.2218
ol	-10.2224
स्पर्श	-10.2226
▁अन्व	-10.2226
ानं	-10.2227
▁प्रकृतिः	-10.2228
निश	-10.2228
▁स्मृतम्	-10.2231
ात्मानं	-10.2241
जाः	-10.2242
▁लोकानां	-10.2242
▁प्राग्	-10.2245
▁ठ	-10.2248
▁प्रस्तुत	-10.2252
▁O	-10.2252
सिद्धिः	-10.2253
स्तर	-10.2253
मनो	-10.2253
▁मृदु	-10.2257
▁वैज्ञानिक	-10.2257
▁तपः	-10.226
वीत	-10.2268
प्रसारण	-10.2268
▁उत्कृष्ट	-10.2269
▁पृष्ठं	-10.227
ur	-10.2275
लोचन	-10.2278
▁इन्द्रिय	-10.2281
ाणाम	-10.2283
धारा	-10.2286
ज्ञापय	-10.2288
वर्धन	-10.2288
देशीय	-10.2291
▁गृहाण	-10.2293
▁आदित्य	-10.2294
स्तद्	-10.2299
ान्वय	-10.2303
▁प्रो	-10.2306
▁गुणः	-10.231
el	-10.231
वाचि	-10.2311
se	-10.2311
-"	-10.2312
ह्व	-10.2318
थु	-10.2321
▁रिपु	-10.2322
▁विद्वान्	-10.2325
न्तरिक्ष	-10.2328
योगः	-10.2329
▁पुरुषस्य	-10.2331
▁पूज्य	-10.2339
विकार	-10.2339
▁प्राग	-10.2344
▁(1)	-10.2346
न्वय	-10.2348
▁डि	-10.235
▁प्रक्रिया	-10.2353
एत	-10.2353
▁यश	-10.2353
▁तुभ्यं	-10.2355
▁←	-10.236
संभवः	-10.2363
▁करि	-10.2365
▁जगद	-10.2369
र्वि	-10.2371
कारो	-10.2371
▁महती	-10.2372
▁जीवितं	-10.2375
▁कक्षा	-10.238
लय्	-10.2383
▁इमा	-10.2383
ोपाय	-10.2387
वायु	-10.2388
बीज	-10.2388
शिव	-10.2391
▁३७	-10.2394
▁मांस	-10.2395
▁नृ	-10.2396
▁नाव	-10.2398
▁शोभन	-10.2399
▁प्रभात	-10.2404
▁यान्ति	-10.2408
▁यथाविधि	-10.2417
येगु	-10.2423
्नु	-10.2429
जनाः	-10.2431
▁समुप	-10.2431
नात्	-10.2437
वयव	-10.2437
▁उपदेश	-10.2438
वतः	-10.2441
▁स्वस्ति	-10.2442
ूनां	-10.2446
▁हन्त	-10.2447
पत्रं	-10.245
थ्	-10.245
▁रूपम्	-10.245
▁ज्वर	-10.2451
▁चिकित्सा	-10.2452
▁ह्रस्व	-10.2462
45	-10.2465
सति	-10.2466
▁मखु	-10.2471
▁ध्यानं	-10.2475
दाय	-10.2476
वेध	-10.2476
कारक	-10.2487
वन्त	-10.249
भूय	-10.2491
साहित्य	-10.2494
मोद	-10.2498
▁खर	-10.2499
सैन्य	-10.2501
▁सम्पन्न	-10.2503
स्थः	-10.2504
▁प्राप्तं	-10.2505
▁हस्ते	-10.2512
▁26	-10.2514
पूज	-10.2515
▁सर्वम	-10.2521
ोऽध्यायः	-10.2523
▁2021	-10.2524
विधौ	-10.2531
▁निश्चय	-10.2531
▁भ्रमण	-10.2538
▁देवदत्त	-10.2538
कारि	-10.254
५०	-10.2542
▁श्रुतिः	-10.2547
िप	-10.2548
z	-10.2549
▁जगति	-10.2556
▁नीच	-10.2557
▁हन्ति	-10.256
▁जू	-10.256
▁तस्यैव	-10.2561
▁क्षेत्रं	-10.2561
▁स्वयम	-10.2561
▁कविता	-10.2561
िकी	-10.2564
24	-10.2567
▁हृ	-10.257
▁प्रयत्नतः	-10.2571
▁हव	-10.2571
▁निशा	-10.2575
ौषध	-10.2576
▁युज्यते	-10.2577
▁व्याख्यान	-10.2578
▁भक्त्या	-10.2579
वता	-10.2581
श्रु	-10.2581
▁अर	-10.2583
▁रण	-10.2583
निरूपण	-10.2584
परिणाम	-10.2584
▁पीठ	-10.2585
▁उष्ण	-10.2586
▁पृथिव्या	-10.2589
ावस्था	-10.2589
▁आहार	-10.259
▁हां	-10.2591
निर्मित	-10.2591
▁वैद्य	-10.2599
▁वर्षस्य	-10.2601
भविष्य	-10.2605
▁मदु	-10.2607
करणं	-10.261
मर्द	-10.2611
▁देय	-10.2612
▁दिनानि	-10.2617
ाभ्याम्	-10.2619
टन	-10.2624
▁मन्	-10.2624
द्धि	-10.2639
▁दू	-10.2642
कृति	-10.2644
मृत्यु	-10.2644
▁चोर	-10.2644
र्श	-10.2645
छा	-10.2648
ऽथ	-10.2649
८९	-10.2651
▁प्रकाशित	-10.2655
▁मनुः	-10.2661
लिंग	-10.2662
ation	-10.2664
यिष्यामि	-10.2664
▁लाल	-10.2664
▁ब्र	-10.2667
▁राघव	-10.2667
▁तासां	-10.2668
▁पश्यन्ति	-10.2671
षी	-10.2675
अन्य	-10.268
याद	-10.2685
ोद	-10.2688
▁चर	-10.2688
पदेन	-10.2689
▁प्राप्तः	-10.2693
▁दल	-10.2693
३२	-10.2694
ीश	-10.2694
संहार	-10.2694
ैश्वर्य	-10.2695
वादि	-10.2696
▁by	-10.2699
▁छि	-10.27
▁केश	-10.27
▁ध्येय	-10.27
▁भागे	-10.2706
▁संकल्प	-10.2707
ta	-10.2709
▁शुभा	-10.2711
▁निरा	-10.2713
ावरण	-10.2715
अभि	-10.2722
पञ्च	-10.2726
▁पदार्थः	-10.2729
ग्ने	-10.2729
▁जाने	-10.2736
्यन्त	-10.2737
▁शैल	-10.2738
माला	-10.2739
िरे	-10.2739
▁अध्य	-10.2741
▁कोप	-10.2741
ायते	-10.2742
▁प्रिया	-10.2746
▁वर्तन्ते	-10.2746
▁सिद्धान्त	-10.2748
▁चेत	-10.2749
▁तदनु	-10.2749
▁पञ्चम	-10.275
्यसे	-10.2752
▁द्वितीयः	-10.2754
▁शरण	-10.2759
रूपः	-10.276
त्वमेव	-10.2764
▁आङ्ग्ल	-10.2766
निषेध	-10.2771
▁आन्दोलन	-10.2778
▁प्रत्या	-10.2779
ि॒	-10.278
▁अवस्था	-10.2784
सेना	-10.2787
▁अन्यत्	-10.2798
▁लेखन	-10.2799
िदं	-10.28
▁दी	-10.2802
▁पुत्रो	-10.2802
▁सीमा	-10.2807
▁सचिव	-10.2808
▁भविष्यन्ति	-10.2809
▁अद्यापि	-10.2811
▁पल	-10.2812
क्रम्य	-10.2815
▁सफल	-10.2827
▁यच्छ	-10.2828
अव	-10.2832
पुट	-10.2833
र्थः	-10.2835
बे	-10.284
माल	-10.2843
▁राजनि०	-10.2845
▁उद्योग	-10.2849
्यताम्	-10.285
०८	-10.2851
र्त्त	-10.2853
▁रुप	-10.2853
ार्थी	-10.2857
▁देवताः	-10.2857
दाह	-10.2858
नू	-10.2863
▁तपो	-10.2863
भाग्य	-10.2863
▁लाख	-10.2864
करा	-10.2864
र्जन	-10.2864
विषया	-10.2865
-3	-10.2865
▁४१	-10.2869
▁शिक्ष	-10.287
▁विशेषेण	-10.287
▁भवन्तः	-10.2871
पात्र	-10.2873
्युप	-10.2876
कीर्ति	-10.2877
क्षिप	-10.2879
मात्म	-10.2881
▁मुहूर्त	-10.2881
▁कठिन	-10.2885
41	-10.2887
▁प्राधान्य	-10.289
७८	-10.2895
▁बलि	-10.2897
▁भोः	-10.2901
मेति	-10.2903
▁विधा	-10.2903
दधाति	-10.2904
यद्	-10.2905
▁नाभि	-10.2908
▁दत्तं	-10.2908
वते	-10.2909
▁घोर	-10.2911
दूत	-10.2911
▁सुखम्	-10.2912
भागः	-10.2915
ग्रहणे	-10.2917
▁नारद	-10.2919
▁भवः	-10.2919
रुण	-10.2921
▁रक्षति	-10.2922
▁हु	-10.2931
▁छन्द	-10.2933
गद	-10.2934
▁हरेः	-10.2939
वादः	-10.2946
▁अवसर	-10.2949
▁अन्त्य	-10.2949
03	-10.2961
22	-10.2963
▁पुनर्निर्दिष्ट	-10.2964
प्रभृति	-10.2965
रीत्या	-10.2968
▁द्विगुण	-10.297
ियं	-10.2972
गू	-10.2982
▁तेषाम्	-10.2985
▁कूप	-10.2991
▁खाद	-10.2995
वसान	-10.2999
▁आई	-10.3005
पर्वत	-10.3006
39	-10.3008
ताम	-10.301
सत्तम	-10.3011
▁श्रिय	-10.3013
कोप	-10.3014
▁प्रारम्भ	-10.3016
▁पुनस्त	-10.3019
नै	-10.3021
▁प्रेत	-10.3023
कण्ठ	-10.3023
▁युष्माकं	-10.3023
▁स्मृत	-10.3025
त्यर्थ	-10.3029
रुचि	-10.3031
▁वंश	-10.3035
▁नरकं	-10.3037
▁वसति	-10.3038
धम	-10.304
▁दिव	-10.3041
शंस	-10.3042
▁वरद	-10.3047
एं	-10.3047
▁कट	-10.3048
मुक्तं	-10.3052
हितं	-10.3052
ापेक्ष	-10.3054
▁स्वाभाविक	-10.3058
▁भूयः	-10.3058
लाल	-10.306
▁उत्तरं	-10.306
▁विघ्न	-10.3063
▁दृष्टान्त	-10.3066
पेक्षा	-10.3067
भवन	-10.3074
▁राष्ट्रे	-10.3075
नृत	-10.3079
▁भि	-10.308
माता	-10.3082
▁सामर्थ्य	-10.3082
नायक	-10.3083
▁पुरस्कार	-10.3083
ोऽप्य	-10.3089
▁परिवर्त	-10.3097
▁उपयोगः	-10.31
सम्म	-10.3101
७७	-10.3103
रात्रे	-10.3104
९७	-10.3109
क्य	-10.311
क्राम	-10.311
▁तावद्	-10.3115
▁द्वितीये	-10.3119
):	-10.312
दृ	-10.3122
नीति	-10.3124
▁सम्बन्धी	-10.3125
दू	-10.3126
▁प्रियं	-10.313
स्यति	-10.3132
▁वृद्धिः	-10.3133
ri	-10.3137
सीद	-10.3139
▁w	-10.3146
वने	-10.3147
८८	-10.3151
शक्तिः	-10.3152
ावपि	-10.3152
लेखा	-10.3153
▁चित्तं	-10.3158
वेष्ट	-10.316
msg	-10.316
▁लोकः	-10.3165
दिनं	-10.3165
जायत	-10.3173
ब्रुव	-10.3175
▁क्य	-10.3178
ॄ	-10.3179
ाँ	-10.3179
▁भावना	-10.3181
▁यया	-10.3182
सुत	-10.3185
नन्द	-10.3186
▁लौकिक	-10.319
▁वल	-10.3193
कान्	-10.3193
रक	-10.3194
▁मिल	-10.3194
त्रापि	-10.3195
ितव्य	-10.3197
तप्त	-10.3199
मातर	-10.32
स्माकं	-10.32
्यर्थं	-10.3203
▁महान	-10.3203
▁शक्या	-10.3204
श्रम	-10.3204
तीर	-10.3205
ाब्द	-10.3207
▁मङ्गल	-10.3207
▁मंत्र	-10.3208
गमनं	-10.3209
्त	-10.3209
▁भोज	-10.3211
▁प्राप्तुं	-10.3212
ध्यान	-10.3213
द्योत	-10.3216
▁विकृत	-10.3217
▁करिष्ये	-10.3219
श्चेति	-10.3219
▁दुर	-10.322
▁अतिथि	-10.3221
मयः	-10.3222
३७	-10.3223
37	-10.3226
▁श्रेय	-10.3233
▁Archives	-10.3236
ाद्या	-10.3236
तक	-10.3236
▁बहिर्	-10.3237
पत्तेः	-10.3238
▁मतम्	-10.3238
▁धातुः	-10.3245
23	-10.3247
▁सोऽपि	-10.3251
▁तात्पर्य	-10.3253
▁हिम	-10.3254
रिष्ट	-10.326
▁अतिरिक्त	-10.3261
▁अव्यय	-10.3262
ऽस्ति	-10.3263
कर्ष	-10.3265
▁परत	-10.3265
▁Re	-10.3271
▁विश्वा	-10.3274
ेश्वरः	-10.3274
ir	-10.3275
सङ्ख्या	-10.328
▁पूर	-10.3281
▁R	-10.3281
००	-10.3282
▁भाति	-10.3283
मेध	-10.3283
पुं	-10.3283
▁प्रतिभा	-10.3286
▁धृत	-10.3287
80	-10.329
ाम्यहम्	-10.3292
▁धाव	-10.3301
ान्तरं	-10.3304
▁नारायण	-10.3304
ान्तं	-10.3304
विहित	-10.3308
▁प्रतिकूल	-10.3309
▁जनसंख्या	-10.3309
ैति	-10.3314
वादने	-10.3315
भाव्य	-10.3316
▁पतिः	-10.3318
पेक्ष	-10.3318
हल	-10.332
▁समाधि	-10.3321
▁संबन्ध	-10.3321
▁सन्ध्या	-10.3322
▁एकस्मिन्	-10.3324
मसि	-10.3327
▁शनैः	-10.3327
▁हरे	-10.333
गृह्य	-10.333
चाल	-10.3333
ाहार	-10.3333
▁भारतं	-10.3339
ाभ्यास	-10.3339
▁एक्स	-10.334
▁कपि	-10.3341
▁उभौ	-10.3346
▁वाक्	-10.3347
प्रदान	-10.335
▁वसु	-10.3351
▁गता	-10.3351
▁शीतल	-10.3352
▁सम्बन्धः	-10.3357
▁स्तम्भ	-10.3363
▁गुप्त	-10.3364
▁यव	-10.3364
▁त्रयः	-10.3366
रोह	-10.3371
▁अमृत	-10.3372
▁दृष्टः	-10.3376
▁अनुमान	-10.3377
▁अर्जुन	-10.3379
ण्ट	-10.338
▁निर्मित	-10.3382
६३	-10.3384
शुद्धि	-10.3384
▁वेग	-10.3389
लोपः	-10.3391
▁ङीष्	-10.3391
▁म्ह	-10.3399
िणां	-10.3399
▁अवयव	-10.34
त्वस्य	-10.34
केवल	-10.3404
▁अवि	-10.3404
▁रचना	-10.3408
44	-10.3409
दृक्	-10.3409
प्रभ	-10.3416
हानि	-10.3417
▁पञ्चदश	-10.3418
▁ताप	-10.342
ोचित	-10.3425
▁भग	-10.3431
गाः	-10.3432
क्रोध	-10.3433
▁जगतः	-10.3434
भवेत्	-10.3434
48	-10.3436
▁द्विधा	-10.3439
श्न	-10.3439
▁दास	-10.3439
▁2017	-10.344
▁आपः	-10.3442
▁कर्त्तव्य	-10.3443
हृद	-10.3443
▁स्वल्प	-10.3445
▁ततोऽ	-10.3455
पद्यते	-10.3458
▁ऊर्जा	-10.3459
रण्य	-10.3463
▁सम्यग्	-10.3465
नीया	-10.3466
▁प्रयोजनं	-10.3468
▁दर्शनं	-10.3469
▁विध	-10.3473
ऽप्य	-10.3475
▁अप्वः	-10.3476
▁पिण्ड	-10.3476
विधे	-10.3478
योनि	-10.3478
▁भूतानि	-10.3479
▁स्वामी	-10.3482
▁निहत	-10.3482
्येन	-10.3484
ुम	-10.3485
▁परमार्थ	-10.3489
भिश्च	-10.3491
भावात्	-10.3491
▁पर्याप्त	-10.3491
▁शुक्ल	-10.3494
▁द्रव	-10.3498
शस्त्र	-10.35
▁साक्षात्कार	-10.3509
▁प्रशिक्षु	-10.3517
▁शीर्ष	-10.3518
▁इदानीम्	-10.3518
गव	-10.3519
▁एकम्	-10.3521
भक्ष	-10.3522
जने	-10.3526
▁पूर्वे	-10.3526
क्व	-10.3527
व्यतिरिक्त	-10.3529
▁स्या	-10.3532
भ्या	-10.3532
ग्रस्त	-10.3537
▁आयुः	-10.3544
हरण	-10.3551
शौच	-10.3557
▁निम्न	-10.356
▁निवर्त	-10.3562
वृत्ते	-10.3562
▁विवक्षित	-10.3562
रुद	-10.3564
तरः	-10.3565
भ्यास	-10.3567
▁पूर्ववत्	-10.3567
ुम्	-10.3573
▁चेद	-10.3576
करी	-10.3579
शय	-10.3581
▁in	-10.3582
८७	-10.3584
▁स्पृश	-10.3585
तू	-10.3585
कर्तव्य	-10.3586
पद्यत	-10.3586
ैषा	-10.3587
▁पृच्छ	-10.3589
समन्वितः	-10.3589
नेत्र	-10.359
ीयम्	-10.3591
▁मौन	-10.3591
सृज	-10.3593
हः	-10.3594
▁स्थ	-10.3596
्यू	-10.3596
वेदन	-10.3601
योजक	-10.3602
▁शाक	-10.3607
▁ददौ	-10.3608
मानो	-10.3608
▁रह	-10.361
▁तत्व	-10.3611
▁सुकृत	-10.3614
▁निष्कर्ष	-10.3617
मती	-10.3618
▁दुगु	-10.3619
▁स्वार्थे	-10.3619
र्स	-10.3622
▁वार	-10.3624
मूर्त	-10.3628
▁प्रदूषण	-10.363
९४	-10.3637
शिष्य	-10.3638
▁जगाम	-10.3641
▁क्ल	-10.3645
▁रवि	-10.3646
▁ज्योति	-10.3653
८१	-10.3655
जर	-10.3656
श्लेष	-10.3658
साधारण	-10.3659
▁कथयामि	-10.3659
▁श्रोत्र	-10.366
ॐ	-10.3661
▁शिष्ट	-10.3666
गि	-10.3666
४०	-10.3667
॒र	-10.3668
प्रसिद्ध	-10.3669
निर	-10.3669
▁संस्थिता	-10.3671
यता	-10.3677
▁दिल्ली	-10.3678
▁हितं	-10.3679
▁भवन्तु	-10.368
▁एकस्य	-10.3683
▁अन्यः	-10.3688
रूढ	-10.3688
निमित्तं	-10.3688
ार्त	-10.3689
▁आत्मानं	-10.3693
ावली	-10.3697
▁सुलभ	-10.3702
याति	-10.3704
▁विस्मय	-10.3704
५७	-10.3704
▁मार्गे	-10.3705
ay	-10.3705
यत्र	-10.3706
पदा	-10.3708
▁एवेति	-10.3718
▁ङ	-10.3722
▁जानन्ति	-10.3723
मयी	-10.3724
दाता	-10.3727
▁धारणा	-10.373
j	-10.373
▁क्या	-10.373
२९	-10.3734
मेर	-10.3735
तोष	-10.374
यी	-10.3741
▁पृथिव्यां	-10.3742
वर्षाणि	-10.3742
हत्या	-10.3746
▁सुखदुःख	-10.3749
▁प्राप	-10.375
▁कुम्भ	-10.3752
पालन	-10.3754
▁नेता	-10.3756
▁साहस	-10.3761
▁कर्	-10.3767
▁शाखा	-10.3767
घु	-10.3769
राह	-10.3774
▁मदीय	-10.3774
९९	-10.3774
वर्ति	-10.3774
▁संशोधन	-10.378
▁II	-10.378
▁सञ्	-10.3782
दम्	-10.3783
विंश	-10.3784
▁शरीरे	-10.3785
मणि	-10.3786
▁विषम	-10.3786
▁योऽ	-10.3788
▁भुवन	-10.3793
▁स्तुत	-10.3794
▁बाहु	-10.3805
७९	-10.3806
पुनः	-10.3806
शतं	-10.3807
▁एतदेव	-10.3807
▁मन्दिर	-10.3812
र्य्य	-10.3812
ex	-10.3812
५५	-10.3814
▁उदाहरणम्	-10.3817
▁पावन	-10.3818
▁तान	-10.3828
▁उद्यम	-10.383
▁पूजित	-10.383
दर्शनात्	-10.3831
नन्तर	-10.3832
र्भवति	-10.3833
िश	-10.3835
लक्ष्य	-10.3835
ेयुः	-10.3841
▁स्थूल	-10.3847
िनं	-10.3849
तुर	-10.385
मन्व	-10.3851
▁न्यूनतम	-10.3853
▁गृह्ण	-10.3858
▁आगच्छ	-10.3858
▁पुण्यं	-10.3859
▁तावद	-10.386
▁चिरं	-10.3861
▁उपचार	-10.3862
▁स्वी	-10.3863
ro	-10.3863
शुद्ध	-10.3864
स्मरण	-10.3872
▁पालन	-10.3873
▁विप	-10.3874
▁जनार्दन	-10.3874
▁रक्षित	-10.3877
▁इन्	-10.388
न्यस्य	-10.388
लक्षणा	-10.388
कालिक	-10.3881
गीत	-10.3881
▁ददर्श	-10.3881
मुक्ति	-10.3882
▁प्राप्ति	-10.3883
लक	-10.3883
रात्रि	-10.3885
नया	-10.3887
▁पुस्तकं	-10.3888
▁यत्तु	-10.3889
▁सन्देश	-10.3891
ल्व	-10.3892
▁पूर्वम्	-10.3892
ऽन	-10.3893
▁दन्त	-10.3893
▁पुत्रा	-10.3895
▁पाव	-10.39
▁शे	-10.3901
▁प्रशस्त	-10.3904
▁३४	-10.3904
▁ब्रह्मण	-10.391
ैस्तु	-10.3914
▁प्राणि	-10.3918
▁तपसा	-10.3921
च्छा	-10.3922
▁वैदिक	-10.3922
▁साध	-10.3923
लू	-10.3924
▁पार्श्वे	-10.3925
▁जरा	-10.3929
ैतत्	-10.393
▁दोषा	-10.3931
ak	-10.3937
▁प्रजायते	-10.3938
हृत	-10.3938
ेष्य	-10.3938
▁कस्यचित्	-10.3941
▁इत्युक्त्वा	-10.3944
▁दिव्यं	-10.3944
▁विदेशी	-10.3944
िष्	-10.3947
▁यायेगु	-10.3952
उत्	-10.3953
▁करणीयम्	-10.3954
▁दानव	-10.3962
▁स्पेन	-10.3963
ent	-10.3967
▁कर्तु	-10.3968
ात्मज	-10.3969
माध्यम	-10.3969
47	-10.3971
सोम	-10.3972
▁कृत्स्न	-10.3972
वचनम्	-10.3973
कानि	-10.3975
▁चर्चा	-10.3976
ागार	-10.3976
चालन	-10.3976
पश्य	-10.3979
निवारण	-10.3982
त्य्	-10.3994
▁प्रण	-10.3995
▁कल्पना	-10.3996
▁संघ	-10.4004
▁अभिव्यक्ति	-10.4007
ब्द	-10.4009
मृ	-10.4009
▁तत्सर्वं	-10.4012
▁केशव	-10.4015
▁राजनीति	-10.4017
▁भवितव्यम्	-10.4017
प्राय	-10.4019
शिक्षा	-10.4019
▁जनपद	-10.4019
पिण्ड	-10.4021
▁मर	-10.4022
▁वया	-10.4024
शिष्ट	-10.4026
▁मुदा	-10.4026
९३	-10.4027
ेहि	-10.4027
▁सुखी	-10.4027
७३	-10.4029
▁उत्तरम्	-10.4036
▁निर्णयः	-10.4037
म्̣	-10.4037
▁गङ्गा	-10.4037
४५	-10.4038
▁कोरोना	-10.4038
▁उत्पन्न	-10.404
बान्धव	-10.404
▁ग्रीष्म	-10.404
९८	-10.4045
▁ऊर्ध्व	-10.4048
▁निगम	-10.4048
▁सलिल	-10.4051
शान	-10.4052
९६	-10.4052
▁क्रमात्	-10.4056
्येत	-10.4062
त्यत्र	-10.4062
ज्वल	-10.4062
▁रसायन	-10.4063
▁जातं	-10.4064
▁राज्ञ	-10.4065
▁वाच्यम्	-10.4066
ध्वन	-10.4066
▁पालय	-10.4066
वर्षे	-10.4067
▁विरासत	-10.4071
▁कप	-10.4072
▁जो	-10.4073
प्रयत्न	-10.4073
इगु	-10.4074
▁सूर्यः	-10.4078
तयः	-10.408
श्रवण	-10.408
▁पठन	-10.4081
न्तीति	-10.4086
▁विर	-10.4089
▁40	-10.4093
ावधि	-10.4096
▁नेति	-10.4096
▁४७	-10.41
यिष्यति	-10.4102
धनं	-10.4102
धू	-10.4103
▁बहूनां	-10.4105
▁विद्यालय	-10.4106
▁बहुल	-10.4107
▁संवेदना	-10.4113
▁वाप	-10.4114
▁स्तन	-10.4124
मया	-10.4126
र्हि	-10.4126
कूल	-10.4129
ाधिप	-10.4129
कपाल	-10.413
जित	-10.4132
li	-10.4132
त्री	-10.4138
ोभय	-10.4139
▁प्रणाली	-10.414
सद्	-10.4142
है	-10.4144
▁कारणेन	-10.4146
ासः	-10.4147
▁स्प	-10.4147
८५	-10.4147
▁श्वः	-10.4148
मनुष्य	-10.4149
▁कुरुत	-10.4152
▁आक्रमण	-10.4152
▁सादृश्य	-10.4154
▁त्रयोदश	-10.4155
चिर	-10.4155
क्रमण	-10.4155
वस्त्र	-10.4155
▁उपलब्ध	-10.4155
▁प्रकल्प	-10.4156
▁सद्यः	-10.4156
▁परियोजना	-10.4158
शक	-10.416
न्यथा	-10.416
ण्ण	-10.4163
द्वीप	-10.4165
55	-10.4166
▁यस्या	-10.4174
▁मेष	-10.4174
्यति	-10.4179
दृष्टि	-10.4181
ब्र	-10.4181
▁योगी	-10.4182
स्थानम्	-10.4185
▁वदामि	-10.4186
▁तिल	-10.4188
▁यक्ष	-10.4192
@2	-10.4195
जीवित	-10.4197
र्प	-10.4202
▁युक्तः	-10.4202
▁कण्ठ	-10.4203
द्धा	-10.4204
▁हिंस	-10.4205
▁यौवन	-10.4205
▁पदस्य	-10.4206
च्छ्र	-10.4212
▁विवरण	-10.4213
▁भुज	-10.4215
▁कह	-10.4218
प्रशंस	-10.4221
▁अस्माकम्	-10.4222
जन्त	-10.4225
▁४२	-10.4235
▁गृहम्	-10.4237
▁जनता	-10.4241
▁28	-10.4241
पिता	-10.4243
क्रीडा	-10.4243
▁तत्काल	-10.4244
बू	-10.4247
▁द्वन्द्व	-10.4247
▁परमाणु	-10.4249
▁प्रतियोगिता	-10.4249
वचने	-10.425
▁संस्करणे	-10.4253
ावयव	-10.4258
▁बुद्धिः	-10.4258
दित	-10.4264
लक्षणम्	-10.4264
▁पुरो	-10.4264
▁जातम्	-10.4265
▁पराजित	-10.4265
कारं	-10.4266
▁द्रोण	-10.4266
▁वृत्तिः	-10.4267
▁सती	-10.4272
49	-10.4273
▁उद्यान	-10.4277
स्ततो	-10.4279
▁परमात्म	-10.4283
ce	-10.4283
गुलि	-10.4286
▁तस्मा	-10.4289
▁रक्षण	-10.4291
▁दिवं	-10.4291
▁यावद्	-10.4294
▁दशा	-10.4294
ेतर	-10.4296
ैर्न	-10.4296
बर्	-10.4297
भूतः	-10.4302
घन	-10.4302
▁द्व	-10.4304
रङ्ग	-10.4305
ाधिकरण	-10.4306
रतः	-10.4306
▁मार्च	-10.4309
पट	-10.4309
▁देवान्	-10.431
ात्मकः	-10.4315
&	-10.4315
महि	-10.4317
▁अष्टम	-10.4317
▁५५	-10.4318
रूपम्	-10.4319
▁ऑ	-10.4321
मग्न	-10.4324
▁शं	-10.4327
वेद्य	-10.433
रक्षा	-10.433
सहाय	-10.4335
नेक	-10.4335
▁द्विविध	-10.4335
व्यं	-10.4336
घ्र	-10.4337
वाच	-10.4339
भाजन	-10.4344
]]	-10.4346
ार्य	-10.4352
▁दोषो	-10.4353
कारणं	-10.4354
योगं	-10.4356
▁अस्यां	-10.4358
▁िव	-10.436
▁किंच	-10.4361
वर्गः	-10.4362
▁शुभम्	-10.4364
▁आत्मनः	-10.4364
केत	-10.4365
ूँ	-10.4365
निवेश	-10.4366
▁अरे	-10.4368
▁सर्ग	-10.4369
▁भवितव्य	-10.4371
▁सिद्धम्	-10.4371
▁शोच	-10.4374
▁पूजय	-10.4377
किरण	-10.4381
तल	-10.4382
▁पदम्	-10.4382
▁संसारे	-10.4383
त्वादि	-10.4384
च्य	-10.4387
५९	-10.4391
▁परति	-10.4392
फा	-10.4393
▁न्य	-10.4393
▁शील	-10.4394
कुरु	-10.4394
▁सूर्य्य	-10.4394
▁X	-10.4395
▁महत्व	-10.4396
गतो	-10.4397
स्थिता	-10.4397
काव्य	-10.4398
▁त्य	-10.4399
▁च्व	-10.4401
▁तथ्य	-10.4402
▁मुखं	-10.4403
मूर्ति	-10.4404
▁ऋषि	-10.4407
▁महि	-10.4408
त्यन्त	-10.4408
▁तै	-10.4408
ानेन	-10.4411
भावित	-10.4414
▁भु	-10.4414
नस्य	-10.4414
जार	-10.4415
▁४४	-10.4416
९२	-10.4417
ेऽप्य	-10.4417
▁जु	-10.442
पक्व	-10.4424
▁re	-10.4426
▁परार्थ	-10.4427
▁आर्	-10.4428
नाः	-10.443
▁राजानं	-10.443
परिमित	-10.4431
▁बन्धु	-10.4437
▁मतदान	-10.4438
▁परिपूर्ण	-10.4438
तॆ	-10.4438
▁गुह्य	-10.4438
▁यस्याः	-10.4442
यथ	-10.4443
▁योजन	-10.4444
▁छगू	-10.4449
▁दैवत	-10.4454
क्ख	-10.4456
▁व्यवस्थित	-10.4464
▁द्रुत	-10.4466
46	-10.4469
ोपि	-10.4469
ीभूत	-10.4471
शाल	-10.448
चो	-10.4483
ion	-10.4492
३३	-10.4496
▁वाग्	-10.4501
▁धर्मं	-10.4501
▁दुर्बल	-10.4502
राव	-10.4505
▁50	-10.4506
▁निवास	-10.4508
▁समाचरेत्	-10.4508
विकास	-10.4511
वृत्तं	-10.4512
▁शर्म	-10.4517
सव	-10.4517
▁गणित	-10.4517
▁पितॄणां	-10.4518
▁शङ्ख	-10.4519
▁अश	-10.4521
▁सौर	-10.4536
▁प्रिये	-10.4542
पश्चिम	-10.4542
▁ज्वल	-10.4549
▁भर्त	-10.455
संस्था	-10.4555
त्रे	-10.4557
रास	-10.4559
य्य	-10.4561
ान्वित	-10.4563
▁सम्मान	-10.4565
ायुष	-10.4566
▁परितः	-10.4566
▁पश्चाद्	-10.4567
पर्यन्त	-10.4567
▁उक्तवान्	-10.4568
पूर्वक	-10.4569
▁ट्र	-10.4572
ञ्जन	-10.4577
तन्	-10.4585
दुर	-10.4585
▁जून	-10.4585
▁परिमाण	-10.4586
▁नवीन	-10.4589
▁सख्य	-10.459
र्ट	-10.459
▁८०	-10.4591
४४	-10.4594
▁विद्यालये	-10.4595
▁महीयते	-10.4595
▁पण	-10.4599
▁पितर	-10.46
▁भव्य	-10.461
ेष्वपि	-10.4611
▁कुटुम्ब	-10.4612
मित्याह	-10.4612
क्षये	-10.4612
▁प्रजानां	-10.4612
िष्ये	-10.4613
▁मणि	-10.4613
▁वसन्त	-10.4613
▁कापि	-10.4614
मलं	-10.4617
माद	-10.4618
संग	-10.4619
चिन्	-10.462
▁सङ्कल्प	-10.4621
▁तदैव	-10.4623
भूते	-10.4623
प्लव	-10.4624
▁पृथ्वी	-10.4624
ानुकूल	-10.4625
कृतः	-10.4631
▁सत्ता	-10.4631
▁विश्वस्य	-10.4632
▁योनि	-10.4632
▁स्वीय	-10.4633
▁प्रतिमा	-10.4634
51	-10.4634
पः	-10.4636
ाभावे	-10.4636
िष्यन्ति	-10.4637
▁प्रतिषेधः	-10.4639
संज्ञक	-10.4641
▁प्रभव	-10.4642
स्थो	-10.4642
▁अव्यक्त	-10.4643
शित	-10.4643
▁बाण	-10.4645
▁अन्या	-10.4645
दैव	-10.4645
▁उपकरण	-10.4647
▁विन	-10.4653
▁मृत्युः	-10.4655
-4	-10.4655
मुद्र	-10.4656
रिया	-10.4659
▁तत्क्षण	-10.466
ध्	-10.4664
▁हिरण्य	-10.4668
▁अपा	-10.4668
▁इमां	-10.4668
▁पवन	-10.4669
मत्	-10.4675
▁सर्वभूतानां	-10.4675
▁करणे	-10.4681
▁पुमान्	-10.4681
विमुक्त	-10.4682
2.	-10.4682
तर्क	-10.4685
▁सामग्री	-10.4689
▁यीशु	-10.4694
▁आश्चर्य	-10.4694
▁केरल	-10.4695
▁इं	-10.4697
त्यपि	-10.4698
ाष्ट	-10.4699
▁खल्व	-10.4701
▁मन्यन्ते	-10.4702
▁१००	-10.4707
्यौ	-10.471
साहाय्य	-10.4713
▁अध	-10.4716
▁६०	-10.4716
धिकं	-10.4717
चिन्तित	-10.4717
▁परमा	-10.4718
रुद्ध	-10.4719
पाट	-10.4725
मानुष	-10.4726
▁अयम	-10.4728
शास्त्रे	-10.4728
▁सज्ज	-10.473
ख्यात	-10.4734
क्लेश	-10.4736
गिर	-10.4737
व्रज	-10.4741
राज्ये	-10.4742
ाध्ययन	-10.4742
▁यान	-10.4742
42	-10.4743
▁पण्डित	-10.4744
▁स्त्रियः	-10.4745
▁एकेन	-10.4746
पितृ	-10.4748
४९	-10.4754
▁कृषक	-10.4756
▁ध्याय	-10.4758
▁४९	-10.4758
सेव	-10.4759
वर्तत	-10.4761
धत्ते	-10.4762
▁वच	-10.4763
गुणा	-10.4763
धारण	-10.4765
▁युधिष्ठिर	-10.4765
▁समृद्ध	-10.4768
▁एनं	-10.4772
यज	-10.4774
▁विपर्यय	-10.4777
ha	-10.4778
▁अत्यधिक	-10.4781
सञ्ज्ञा	-10.4781
रणे	-10.4784
27	-10.4785
▁वय्कः	-10.4786
▁तन	-10.4789
▁ह्रीं	-10.4795
कालीन	-10.4798
▁पठित	-10.4799
मध्यम	-10.48
▁त्वरित	-10.48
सन्तुष्ट	-10.4802
▁आग	-10.4805
▁पूर्वमेव	-10.4806
▁द्वयोः	-10.4807
▁आरब्ध	-10.4807
वासी	-10.4807
शोक	-10.4812
▁इयम्	-10.4812
५६	-10.4814
॒न	-10.4817
▁सर्गः	-10.4817
श्रय	-10.4817
▁लोकं	-10.482
▁गणना	-10.482
▁द्वेष	-10.4821
वश्यं	-10.4822
▁अथा	-10.4822
▁प्रशासन	-10.4824
ीयन्ते	-10.4825
४८	-10.4826
▁दिशः	-10.4826
▁राजधानी	-10.4832
ित्	-10.4834
▁रचित	-10.4838
विरह	-10.4839
▁भिक्षु	-10.4841
▁नगरं	-10.4841
▁गमिष्यामि	-10.4842
▁तृण	-10.4843
परिवर्तन	-10.4843
▁बालकाः	-10.4844
▁मारुत	-10.4844
३६	-10.4845
्यात्	-10.4845
me	-10.4851
ैते	-10.4851
▁कस्मात्	-10.4851
7.	-10.4852
▁पथ	-10.4853
▁for	-10.4855
▁U	-10.4855
यौ	-10.4856
तीत	-10.4857
स्थले	-10.4859
पोषण	-10.4859
▁प्रतिपद्यते	-10.4859
ललित	-10.486
द्वै	-10.4861
▁ज्ञेय	-10.4867
▁दध	-10.4867
ताल	-10.4867
गन	-10.4868
ष्टौ	-10.4869
कल्पन	-10.4872
योज्य	-10.4872
राय	-10.4878
▁समागत	-10.4882
शिर	-10.4884
▁जातो	-10.4886
क्री	-10.4891
ीव	-10.4891
▁अन्ध	-10.4894
भुव	-10.4896
▁गतवान्	-10.4898
ग्राह्य	-10.4899
▁साधक	-10.4902
▁गौरव	-10.4907
दर्शनं	-10.4907
ैस्त	-10.4908
▁जाये	-10.4909
ान्तः	-10.4917
▁क्षति	-10.4917
▁100	-10.4917
न्ना	-10.4917
च्यते	-10.4917
▁आम	-10.4917
थ्य	-10.4927
▁वक्तव्यः	-10.4928
▁भविता	-10.4928
▁कद	-10.4929
▁x	-10.4929
▁तुष्ट	-10.493
स्वा	-10.4934
▁स्रोत	-10.4939
न्वित	-10.4939
पीति	-10.4942
शास	-10.4942
08	-10.4944
▁पुत्री	-10.4945
▁वाणिज्य	-10.4945
▁कौन्तेय	-10.4946
लिखित	-10.4947
▁प्रव	-10.4947
▁सूच	-10.4951
▁भूतानां	-10.4952
▁अथे	-10.4952
पृच्छ	-10.4954
▁विस्तरेण	-10.4955
समुदाय	-10.4957
▁श्याम	-10.4961
▁परमात्मा	-10.4963
▁अरण्य	-10.4963
▁संदेह	-10.4966
ित्य	-10.497
▁न्ह्या	-10.497
बन्धन	-10.4971
देय	-10.4975
▁पश्चिमे	-10.4977
▁पराजय	-10.4978
▁बहवो	-10.4979
▁अज्ञान	-10.498
हर्ष	-10.4983
▁श्राद्ध	-10.4984
ैकं	-10.4988
हरि	-10.4988
▁पथि	-10.4989
▁हिन्दी	-10.4991
▁पौ	-10.4991
सामर्थ्य	-10.4993
▁बह्व	-10.4995
▁वय्क	-10.4999
▁दुर्लभ	-10.4999
▁is	-10.5002
▁गताः	-10.5002
प्यते	-10.5002
साव	-10.5004
च्छि	-10.5014
▁प्रणय	-10.5014
ष्ट्र	-10.5015
▁भौतिक	-10.5017
▁परस्य	-10.5019
▁शक्नुवन्ति	-10.502
िष्ट	-10.502
भाष्यम्	-10.502
पूर्वकं	-10.5021
▁निष्ठा	-10.5022
▁कथित	-10.5025
▁सर्वलोक	-10.5026
भाष्य	-10.5026
▁एकान्त	-10.5031
लै	-10.5034
▁वाज	-10.5036
9.	-10.5036
पत्नी	-10.5043
पत्ति	-10.5046
▁वाचा	-10.5049
▁पित्र	-10.5049
▁सर्वतो	-10.5049
▁सर्वज्ञ	-10.505
▁7.	-10.506
06	-10.5063
▁उपयोगी	-10.5069
▁प्रवाह	-10.5073
निश्चय	-10.5074
रुच	-10.5076
▁महाराज	-10.5077
रय	-10.5078
▁घण्टा	-10.5078
▁एतच्च	-10.5078
▁(),	-10.5079
ाशु	-10.508
▁रूपेण	-10.508
ितानि	-10.5083
तिर	-10.5083
▁धैर्य	-10.5084
मिश्र	-10.5085
▁6.	-10.5086
पराध	-10.5086
▁याग	-10.5086
▁तेऽ	-10.5087
ाविति	-10.509
▁ले	-10.509
मधि	-10.5092
▁३८	-10.5094
▁युक्ति	-10.5094
▁(2)	-10.5094
▁कतिपय	-10.5095
ऋत	-10.5096
um	-10.5096
ma	-10.5096
रन्	-10.5096
व्यपदेश	-10.5097
▁मनुज	-10.5097
▁योजय	-10.5098
▁हिन्दु	-10.5099
सङ्केत	-10.5099
▁भवन्त	-10.51
▁भरत	-10.51
▁छाया	-10.5102
यैव	-10.5103
▁प्रयुज्यते	-10.5106
चेष्ट	-10.5108
▁दुष्	-10.5108
▁४८	-10.5108
▁गृह्णाति	-10.5108
कर्मणा	-10.511
नामा	-10.5112
▁खण्ड	-10.5113
▁जनक	-10.5113
▁सहज	-10.5113
द्रुम	-10.5117
▁पाहि	-10.5117
श्लोक	-10.5117
वाय	-10.5118
pr	-10.5119
▁मूलं	-10.5119
ोऽत्र	-10.512
▁कविः	-10.5123
▁तद्व	-10.5124
▁समाहितः	-10.5125
एम	-10.5127
प्रसाद	-10.5128
▁किञ्च	-10.5134
प्रद	-10.5135
▁कस्यापि	-10.5135
▁विधेय	-10.5136
▁स्वभावतः	-10.5138
▁व्याप्त	-10.5138
▁·	-10.5139
▁ब्रूहि	-10.5143
यतीति	-10.5145
श्रद्ध	-10.5145
▁चात्र	-10.5149
र्पित	-10.5152
ालये	-10.5154
वाणी	-10.5155
पुरुषः	-10.5158
▁हानि	-10.516
ज्वर	-10.516
▁रेखा	-10.5161
▁वयम	-10.5163
्येव	-10.5163
▁अनि	-10.5164
सीति	-10.5165
बुध	-10.5166
मानेन	-10.5166
▁शक्नुमः	-10.5168
ाख्यान	-10.5169
वाक्यं	-10.5169
▁रचय	-10.5171
▁वृथा	-10.5173
▁तत्सम	-10.5174
▁आगत्य	-10.5177
▁प्रेषित	-10.518
हेतुः	-10.5182
▁भगवतः	-10.5183
▁तत्रा	-10.5184
भ्रम	-10.5185
09	-10.5188
▁अस्या	-10.5196
योजय	-10.5199
▁वास्तु	-10.5201
▁५२	-10.5202
▁अनुकूल	-10.5206
▁७०	-10.5207
▁शक्यम्	-10.5211
विषयक	-10.5214
ण्व	-10.5215
▁गच्छामि	-10.5218
युतं	-10.5218
▁पित्त	-10.5218
लाप	-10.522
५८	-10.522
स्रोत	-10.5224
▁अच्	-10.5226
स्नेह	-10.5227
तदा	-10.5229
28	-10.5232
चिद्	-10.5235
▁समु	-10.5238
वोच	-10.5239
रस्य	-10.5242
▁इती	-10.5244
च्छब्द	-10.5255
▁तट	-10.5257
अत्र	-10.5258
सर्ग	-10.5259
▁कुर्वन्तु	-10.526
रणं	-10.526
र्षे	-10.5261
▁खल	-10.5263
▁प्रतीत	-10.5264
मांस	-10.5264
भग	-10.5265
▁व्योम	-10.5268
ितौ	-10.527
ानुसारं	-10.5273
▁प्रयच्छ	-10.5274
दद	-10.5274
▁[[	-10.5278
▁पदोन्नति	-10.5282
लेन	-10.5284
▁सन्देह	-10.5292
▁बद्ध	-10.5292
▁कथन	-10.5292
ोऽयम	-10.5294
संसार	-10.5295
युक्तो	-10.5296
माध्यमेन	-10.5299
बाद	-10.5301
ध्वंस	-10.5301
न्यो	-10.5304
र्भव	-10.531
▁प्रभावः	-10.531
▁शिवः	-10.5313
िकां	-10.5313
▁काक	-10.5315
▁माधव	-10.5317
▁सार्ध	-10.5317
▁रूपांतरण	-10.5318
40	-10.5319
▁असम	-10.532
तनु	-10.5321
ेच्छ	-10.5322
ुत्पन्न	-10.5324
२००	-10.5325
▁सावधान	-10.5326
▁स्तोत्र	-10.5329
▁विलम्ब	-10.5335
भवद्	-10.5335
६०	-10.5336
▁विद्धि	-10.5338
विह	-10.5339
▁हार	-10.5339
खि	-10.534
द्वैत	-10.5343
्ण	-10.5347
सक्त	-10.5348
▁तिथिः	-10.5348
▁शङ्क	-10.5351
न्यस्त	-10.5355
▁वसिष्ठ	-10.5356
▁दिवसे	-10.5357
▁आरोग्य	-10.5357
स्मात्	-10.536
▁हास्य	-10.5364
ोदित	-10.5364
चः	-10.5365
ापेक्षया	-10.5366
▁प्रविश	-10.5369
▁नक्षत्र	-10.5369
कृष्य	-10.5371
ऽसौ	-10.5371
▁नियुक्त	-10.5371
न्तरे	-10.5372
▁नोप	-10.5373
मन्त्रिण	-10.5374
▁पुरु	-10.5374
▁सञ्चिका	-10.5374
ादी	-10.5376
▁राज्ञा	-10.5377
ानन	-10.5381
▁०२	-10.5382
▁४६	-10.5383
८२	-10.5386
▁शक	-10.5387
्यतां	-10.5389
दम	-10.5389
भाषत	-10.5391
क्रु	-10.5394
᳚	-10.5395
▁श्रृणु	-10.5395
ोदाहरण	-10.5395
5.	-10.5396
26	-10.5397
▁सम्पर्क	-10.5398
प्रकरणे	-10.5399
यितुम्	-10.5399
▁श्रुतं	-10.5403
▁पुनरा	-10.5405
▁विपुल	-10.5406
अस्ति	-10.5406
ब्रवी	-10.5411
योगी	-10.5411
▁त्वद्	-10.5412
भाषायां	-10.5412
सेवन	-10.542
ut	-10.542
पदम्	-10.5421
▁विगत	-10.5422
▁जाना	-10.5422
प्रयोगे	-10.5422
▁कम्प	-10.5424
▁दृ	-10.5425
▁शिल्प	-10.5426
▁नैक	-10.5426
▁वेदना	-10.5427
▁भुक्त	-10.543
▁स्थितं	-10.5431
▁उपसर्ग	-10.5432
▁स्वागत	-10.5432
मुनि	-10.5433
▁यथाक्रमम्	-10.5434
कथन	-10.5434
▁प्रेक्ष	-10.5435
४६	-10.5436
▁ताल	-10.5436
मद्य	-10.5437
▁पृथग्	-10.544
ीन	-10.5444
▁नियमः	-10.5445
भावं	-10.5447
▁याव	-10.5449
निवास	-10.545
ेच्छा	-10.5451
होम	-10.5453
ताया	-10.5454
र्भ	-10.5461
०७	-10.5462
▁तपस	-10.5462
ोक्तम्	-10.5465
सहितं	-10.5467
मर्हति	-10.5471
विद्ध	-10.5474
▁शाप	-10.5475
▁निवृत्ति	-10.5476
फो	-10.5479
▁प्राणिनां	-10.548
▁वक्तव्यं	-10.5481
▁विद्युत	-10.5482
कृतिः	-10.5482
ऐ	-10.5484
▁युक्तं	-10.5486
▁आज	-10.5486
▁५१	-10.5487
॑त	-10.5488
ग्रा	-10.549
▁भास	-10.5492
▁कस्या	-10.5497
▁स्तर	-10.5499
निरोध	-10.55
भावा	-10.5501
▁जर	-10.5501
पद्यन्ते	-10.5502
▁दह	-10.5504
द्रा	-10.5507
छि	-10.551
▁समवाय	-10.551
ारि	-10.5513
▁उत्साह	-10.5513
कर्षण	-10.5513
▁भवतो	-10.5515
सङ्ग्रह	-10.552
▁परिसन्धि	-10.5521
▁तरुण	-10.5522
टु	-10.5522
ायन	-10.5526
कृतम्	-10.5526
▁जिन	-10.5528
४२	-10.5528
▁एतौ	-10.5529
▁३९	-10.5529
यसि	-10.5529
▁झी	-10.5531
ातीत	-10.5533
प्रयोगः	-10.5534
िणो	-10.5535
समीप	-10.5538
लिपि	-10.5539
▁भवान	-10.5539
▁धर्म्म	-10.5544
नाग	-10.5547
लव	-10.5553
▁कुर्मः	-10.5554
▁सम्मेलन	-10.5555
▁लोपः	-10.5556
▁अद	-10.5556
गुणं	-10.5557
▁कलह	-10.5561
▁पश्यत	-10.5562
▁मुञ्च	-10.5571
ाभास	-10.5572
▁५४	-10.5573
▁यावद	-10.5574
▁इष	-10.5575
▁विभो	-10.5576
▁पादौ	-10.5577
▁कष	-10.5578
बार	-10.5578
ाऽपि	-10.558
ानामपि	-10.5581
भवे	-10.5582
धाव	-10.5583
०४	-10.5583
वृष	-10.5585
▁करिष्य	-10.5587
ोऽभवत्	-10.5588
वन्द	-10.5589
वत्सर	-10.559
▁धइगु	-10.559
▁बिन्दु	-10.5592
तय्सं	-10.5593
स्तां	-10.5593
तानि	-10.5594
क्रमे	-10.5597
▁जायन्ते	-10.5597
विल	-10.56
▁प्राप्तम्	-10.5601
▁निशि	-10.5604
विस्तर	-10.5606
▁मनुष्याणां	-10.5607
▁स्वधा	-10.5611
▁रहस्य	-10.5614
▁स्वामिन	-10.5615
कारणम्	-10.5617
लीन	-10.5617
एवं	-10.5617
▁विस्तृत	-10.5619
▁त्वद	-10.562
गौ	-10.5623
वल्लभ	-10.5624
▁आद्य	-10.5625
▁मूर्ति	-10.5628
▁परो	-10.5629
▁क्षिप्र	-10.5629
प्रजा	-10.5631
ओं	-10.5631
▁भीम	-10.5632
कुशल	-10.5633
▁इष्यते	-10.5633
▁निकट	-10.5634
▁ज्ञेया	-10.5636
दुः	-10.5637
▁गच्छन्ति	-10.5637
▁रुचि	-10.5641
▁आश्रय	-10.5644
▁लज्जा	-10.5649
▁पृष्ठे	-10.5653
यदा	-10.5654
▁मद्य	-10.5654
त्वादिति	-10.5654
▁जुल	-10.5657
परिवार	-10.5657
काण्ड	-10.5659
▁प्राज्ञ	-10.566
प्रकृत	-10.5662
फु	-10.5665
भारतीय	-10.5667
विमर्श	-10.5667
ोऽस्य	-10.5667
▁काष्ठ	-10.5667
टर	-10.5668
▁देहे	-10.5668
▁मतः	-10.567
▁अत्यन्तं	-10.5672
निष्ठा	-10.5672
ाशय	-10.5675
▁देयं	-10.5675
ार्द्ध	-10.5677
▁ऊर्ज	-10.5682
▁लॊक	-10.5684
▁प्रकट	-10.5685
तरे	-10.5689
जप	-10.5697
▁बहुवचन	-10.5698
स्वरूपं	-10.57
ल्ला	-10.5702
▁धान्य	-10.5705
▁शेषं	-10.5711
▁सुविधा	-10.5715
्न	-10.5717
▁सूची	-10.5718
im	-10.572
कारिण	-10.572
ाध्य	-10.572
ाप्त	-10.5727
▁समाप्तम्	-10.5728
सद	-10.5728
मीश्वर	-10.5729
▁be	-10.573
र्षि	-10.574
▁हत्वा	-10.574
स्यास्य	-10.574
ैस्	-10.5742
वरण	-10.5742
५१	-10.5748
ादीन्	-10.5748
फलकम्ः	-10.5748
▁व्यसन	-10.5749
रुच्यते	-10.575
▁प्रतीक्षा	-10.5751
ास्त्र	-10.5751
नोति	-10.5753
मातृ	-10.5754
▁उपस्थित	-10.5756
क्तं	-10.5758
▁किमु	-10.5761
▁अष्टादश	-10.5763
समाज	-10.5763
राजस्य	-10.5764
विद्	-10.5767
▁कोश	-10.5768
▁पठन्ति	-10.577
बलं	-10.5774
000	-10.5777
▁क्षीण	-10.5778
32	-10.5782
रसः	-10.5782
▁अनेके	-10.5782
▁कफ	-10.5782
ā	-10.5785
▁तद्धित	-10.5787
▁संपूर्ण	-10.5788
la	-10.579
▁देवदेव	-10.5792
मन्त्री	-10.5796
▁राय	-10.5798
राध	-10.5799
▁ज्ञेयं	-10.5799
▁विधान	-10.5799
कश	-10.5799
माप्नोति	-10.5802
▁अर्हति	-10.5802
▁सम्यग	-10.5803
▁कर्तृ	-10.5804
▁उपयुक्त	-10.5806
▁US	-10.5806
▁त०	-10.5808
धर्मा	-10.5808
▁t	-10.581
मत्त	-10.5813
श्वर	-10.5813
र्ब	-10.5817
संशय	-10.5818
▁प्रतिनिधि	-10.582
▁द्रष्टव्यम्	-10.5821
▁गोल	-10.5822
▁४३	-10.5823
▁दार	-10.5824
कश्मीर	-10.5824
भ्	-10.5825
ter	-10.5829
▁वैश्वदेव	-10.5829
▁जननी	-10.5832
▁आगच्छति	-10.5832
▁आदौ	-10.5832
▁जगत	-10.5836
हते	-10.5839
▁पूर्वा	-10.5841
पीड	-10.5841
▁जन्मनि	-10.5845
▁चेन्न	-10.5846
▁व्यवस्थापन	-10.5847
▁पीडा	-10.5851
रम्भ	-10.5852
▁सरकारं	-10.5853
कण	-10.5856
▁भा०	-10.5857
पुराण	-10.5858
▁तमः	-10.5858
▁क्षु	-10.5859
▁माघ	-10.5861
▁नौ	-10.5861
▁तदर्थं	-10.5864
धृ	-10.5864
▁News	-10.5867
▁v	-10.5869
कारे	-10.5869
▁पुरुषोत्तम	-10.587
▁आगतः	-10.5871
०२	-10.5872
िध	-10.5872
▁दास्य	-10.5873
युध	-10.5873
धुना	-10.5874
43	-10.5874
▁उदय	-10.5885
न्नि	-10.5885
प्रयुक्त	-10.5886
दानी	-10.5887
▁दूषण	-10.5887
पृ	-10.5889
मार्गे	-10.5896
▁बहुविध	-10.5897
राज्यं	-10.5897
नत	-10.5899
४७	-10.5899
▁भाषाया	-10.5901
बाधित	-10.5903
▁वातावरण	-10.5905
07	-10.5911
▁ढ	-10.5911
ff	-10.5913
▁सर्वपाप	-10.5915
सीत्	-10.5915
▁सर्वभूत	-10.5919
▁प्रगति	-10.5919
▁भवत	-10.5924
धृत	-10.5925
धीन	-10.5926
▁तत्त्वतः	-10.5926
▁त्रय	-10.593
ul	-10.593
▁ध्यात्वा	-10.5932
मभ्य	-10.5934
ाधीन	-10.5934
क्त्वा	-10.5934
दर्प	-10.5937
▁प्रोक्तो	-10.5938
प्रतिपादन	-10.5938
पां	-10.5939
▁तद्वत्	-10.594
▁व्यव	-10.594
नन्त	-10.5941
▁रत	-10.5941
स्कन्ध	-10.5943
6.	-10.5946
मुद्रा	-10.5947
मेवा	-10.5948
सत्ता	-10.5954
प्रतिषेध	-10.5957
ाध्यक्ष	-10.5958
तिरिक्त	-10.5958
▁सूत्रेण	-10.5961
▁देशं	-10.5965
▁दूरभाष	-10.5968
▁भी	-10.5968
▁g	-10.5968
▁पृथ	-10.597
▁भर्ती	-10.5972
निवृत्त	-10.5974
गाय	-10.5974
संस्थान	-10.5974
ly	-10.5975
राजा	-10.5977
29	-10.5982
▁धातोः	-10.5984
फ्	-10.5984
▁कार्यान्वयन	-10.5985
्यम	-10.5986
▁सार्धं	-10.5989
ow	-10.599
▁यन्म	-10.5992
प्रत्यक्ष	-10.5993
▁h	-10.5994
▁सन्दर्भ	-10.5998
श्म	-10.6002
▁जाय	-10.6002
▁निरोध	-10.6002
▁स्वरूपं	-10.6005
ास्मि	-10.6006
▁प्रायश्चित्त	-10.6007
▁प्रासाद	-10.601
ोऽथ	-10.6011
३९	-10.6011
▁धि	-10.6012
सर्वकार	-10.6012
व्यथ	-10.6013
▁निवर्तते	-10.6018
ाश्रित	-10.6018
िनाम्	-10.6019
▁शिरः	-10.6019
▁@	-10.6019
वरं	-10.6024
▁वाचं	-10.6026
▁औसत	-10.6027
मेष	-10.6029
no	-10.6031
वरी	-10.6036
प्रभा	-10.6037
▁व्यापक	-10.6038
▁इत्युक्तम्	-10.6039
जनानां	-10.6043
▁बृहत्	-10.6045
▁त्रिगुण	-10.6046
ाख्यं	-10.6051
पाणि	-10.6052
▁चेद्	-10.6054
दुष्ट	-10.6056
ॊप	-10.6057
▁जातु	-10.6058
▁भगव	-10.606
ुवाच	-10.6061
स्ती	-10.6062
▁शुभे	-10.6063
शिक्षण	-10.6065
▁मत्वा	-10.6066
▁विदित	-10.6066
कल्पना	-10.607
▁उभे	-10.6071
▁न्ह्यः	-10.6074
▁प्रतीति	-10.6078
▁जीर्ण	-10.6078
▁कौशल	-10.6079
▁35	-10.6081
▁प्रकृते	-10.6082
▁अप्र	-10.6085
स्मृति	-10.609
▁ऽहं	-10.6092
धीत	-10.6094
द्रि	-10.6097
नगरं	-10.61
▁सनातनः	-10.6103
मेतद्	-10.6104
कूट	-10.6106
▁2016	-10.611
रॊ	-10.6111
▁उगु	-10.6112
▁तृतीये	-10.6115
▁किमर्थम्	-10.6115
पत्	-10.6119
त्विति	-10.612
▁याना	-10.6121
▁बौद्ध	-10.6124
ेतत्	-10.6124
sh	-10.6126
ेनेति	-10.6128
▁शुचि	-10.6131
ञ्छ	-10.6133
सहस्राणि	-10.6134
पीठ	-10.6135
ुत	-10.6137
▁विशेषणम्	-10.6137
उच्चारण	-10.6141
दपि	-10.6142
▁नन्व	-10.6146
युज	-10.6147
▁क्षेत्रज्ञ	-10.6153
▁गृह्य	-10.6156
▁कामः	-10.6158
▁विक्रम	-10.6158
मानव	-10.616
▁म्रियते	-10.616
६२	-10.6161
▁पुनश्च	-10.6161
▁प्रार्थित	-10.6162
▁सत्या	-10.6164
▁संहिता	-10.6165
स्यामि	-10.6167
ग्ल	-10.6169
िच	-10.6169
हरति	-10.617
▁सर्वकाम	-10.6171
▁↑	-10.6174
सङ्ख्य	-10.6175
▁जुयाः	-10.6176
कृष्ण	-10.6177
▁पाश	-10.6183
हृत्य	-10.6185
▁आन	-10.6186
ाभिधान	-10.6187
▁परमेश्वरः	-10.6187
▁एतन्	-10.6188
सरण	-10.6196
व्यक्ति	-10.6197
नादि	-10.6199
▁सेतु	-10.6201
▁ऽयं	-10.6202
▁नाथ	-10.6202
▁संवाद	-10.6203
मतिः	-10.6204
▁नमस्	-10.6204
▁संस्थित	-10.6205
ot	-10.6208
▁परित्यज्य	-10.6212
स्तथैव	-10.6213
प्रदेशे	-10.6216
▁दारिद्र्य	-10.6218
ीये	-10.6219
कत्व	-10.622
▁पान	-10.622
▁इन	-10.6224
वनं	-10.6227
ोऽर्थ	-10.6227
▁अनित्य	-10.6228
▁यत्नतः	-10.623
क्रियते	-10.623
मार	-10.6231
देशेषु	-10.6233
ऽस्य	-10.6234
त्यनेन	-10.6236
▁औपचारिक	-10.6236
भर्	-10.6236
▁क्रूर	-10.624
६५	-10.624
▁प्रय	-10.6242
▁भ्राता	-10.6245
▁क्षेम	-10.6246
नीयम्	-10.6246
ध्वनि	-10.6246
▁सुहृद	-10.6249
▁प्रणम्य	-10.6251
▁त्रिविध	-10.6252
पौ	-10.6253
ांग	-10.6253
▁सहस्राणि	-10.6256
▁काचित्	-10.626
▁संयम	-10.6261
सन्ध	-10.6264
▁त्वाम्	-10.6271
सूचना	-10.6272
३८	-10.6272
▁निर्गत	-10.6272
ान्तर्गत	-10.6272
्रा	-10.6273
तीत्यर्थः	-10.6274
बलेन	-10.6275
हूत	-10.6277
▁यन्न	-10.628
भावना	-10.6284
वर्जित	-10.6288
योषित	-10.6288
विद्यालय	-10.6289
ानपि	-10.6291
▁पौर	-10.6292
विजय	-10.6294
▁खेद	-10.6294
▁प्रयच्छति	-10.6299
▁सन्तु	-10.6302
▁ग्रहण	-10.6303
नीयं	-10.6306
▁खाद्य	-10.6307
▁निरूपित	-10.6308
परिग्रह	-10.6308
्ता	-10.6308
8.	-10.631
▁पुनरेव	-10.6315
▁अ०	-10.6316
मादाय	-10.6316
बाहु	-10.6316
साम्	-10.6317
▁वैर	-10.6318
▁महाभाग	-10.6319
पर्व	-10.6322
जग	-10.6322
▁परस्मैपद	-10.6325
िज	-10.6329
▁गर्व	-10.6331
स्नान	-10.6331
त्मक	-10.6332
▁सखि	-10.6334
त्वमपि	-10.6334
▁निन्द	-10.6334
▁कां	-10.6341
यस	-10.6344
दासी	-10.6351
तर्हि	-10.6356
ोपम	-10.6357
▁करोतुः	-10.636
▁29	-10.6361
▁छः	-10.6361
पुत्रः	-10.6363
ासो	-10.6363
विहार	-10.6364
यव	-10.637
om	-10.6375
▁टे	-10.6375
धिया	-10.6375
ऽह	-10.6376
ात्मन	-10.6376
▁सप्तमी	-10.6376
ावृत	-10.6376
▁साक्षि	-10.6377
▁दाता	-10.6378
▁कन्	-10.6379
▁संबन्धः	-10.6381
ययौ	-10.6382
▁चाह	-10.6382
ार्थो	-10.6382
▁आरक्षण	-10.6382
५२	-10.6384
७२	-10.6384
चेतसा	-10.6386
तेति	-10.6388
▁पूर्व्व	-10.6388
ाम्य	-10.6389
७५	-10.639
मंत्र	-10.6393
भागं	-10.6395
तृतीय	-10.6395
▁भागं	-10.6398
कृद्	-10.64
▁In	-10.6401
▁वारि	-10.6404
▁सनातन	-10.6405
▁प्रणव	-10.6408
▁अज्ञात	-10.6408
क्रुद्ध	-10.6409
▁कृति	-10.6409
▁चत्वारः	-10.641
▁पित्रा	-10.6411
चारिण	-10.6415
अन्त	-10.6417
ावेव	-10.642
विंशति	-10.6421
59	-10.6423
▁वृष्टि	-10.6425
▁प्रवास	-10.6425
▁एकल	-10.6427
श्रुति	-10.6428
॑र	-10.643
▁शूल	-10.6431
▁उष	-10.6431
▁किञ्चिद	-10.6434
प्रकरणम्	-10.6435
साक्षिण	-10.6435
▁गान	-10.6436
निरपेक्ष	-10.6437
▁इत्थ	-10.6441
मिमं	-10.6442
▁दीर्घः	-10.6443
▁नृणां	-10.6443
कर्मसु	-10.6446
तृप्त	-10.6449
नदी	-10.645
ब्ब	-10.6451
▁जानासि	-10.6451
परिमाण	-10.6453
८०	-10.6453
▁आकार	-10.6454
न्यायेन	-10.6456
▁सर्वम्	-10.6458
▁प्रसिद्धः	-10.6463
स्वप्न	-10.6465
चक्षुष	-10.6467
▁इत्यादौ	-10.6468
गीता	-10.6468
▁व्यर्थ	-10.6469
ङ्गल	-10.6471
लम्	-10.6476
यानं	-10.6477
▁ब्व	-10.6482
ाभिमुख	-10.6482
मुपा	-10.6482
भया	-10.6487
नियत	-10.6487
▁32	-10.6488
▁सांख्य	-10.6488
ोद्भव	-10.6488
भावि	-10.6491
▁स्थित्वा	-10.6491
▁जड	-10.6493
70	-10.6493
ोऽनु	-10.6497
▁शब्दार्थ	-10.6497
▁एतं	-10.6502
संवाद	-10.6505
ाने	-10.6505
नेव	-10.6506
▁विनय	-10.6507
▁ग्राहक	-10.6512
▁क्षमता	-10.6512
▁अद्भुत	-10.6516
समं	-10.6517
वर्	-10.6523
▁Post	-10.6527
सङ्घ	-10.6527
▁पर्जन्य	-10.6528
▁पश्चाद	-10.6528
चिन्तन	-10.6532
स्वीकार	-10.6533
▁अनुच्छेद	-10.6534
तयो	-10.6536
चक्ष	-10.6539
प्रत्ययस्य	-10.654
▁सर्वश्रेष्ठ	-10.6546
▁नवम	-10.6546
▁पाणि	-10.6549
▁de	-10.655
▁प्रतिदिन	-10.655
99	-10.6552
मण्डलं	-10.6553
वाम	-10.6554
▁दाह	-10.6555
▁भवत्	-10.6557
▁विज्ञानं	-10.6557
न्नं	-10.6559
▁पुस्तके	-10.656
ध्वज	-10.6563
भिष	-10.6564
द्वेष	-10.6564
▁भूप	-10.6568
भान	-10.6569
▁साङ्ख्य	-10.657
निष्ट	-10.6571
our	-10.6572
is	-10.6573
रेक	-10.6573
▁त्वय	-10.6574
▁क्षणे	-10.6574
▁निरस्त	-10.6574
▁हेतुना	-10.6574
पास	-10.6577
▁दीक्षा	-10.6577
▁तदन्त	-10.6578
दातु	-10.6578
दर्शने	-10.658
▁कृतार्थ	-10.658
▁फलानि	-10.6581
न्तर्	-10.6584
▁चित्रं	-10.6584
▁प्राप्तिः	-10.6588
यर	-10.659
▁अग्निं	-10.6592
परो	-10.6592
कोण	-10.6594
निष्	-10.6594
▁अस्त्र	-10.6599
▁सङ्गीत	-10.66
1.	-10.6601
भूति	-10.6601
▁तैल	-10.6601
औ	-10.6603
ate	-10.6604
मिच्छ	-10.6608
▁प्रदक्षिण	-10.6609
द्भुत	-10.6613
प्रवृत्ति	-10.6614
▁विद्य	-10.6617
▁तोय	-10.6618
▁सच	-10.6621
मृग	-10.6625
▁दिक्	-10.6628
कल्पित	-10.6629
▁कानि	-10.6629
योर्मध्ये	-10.663
षो	-10.6631
रता	-10.6631
ात्मने	-10.6631
▁क्रान्ति	-10.6632
स्त्वया	-10.6632
▁विज्ञायते	-10.6632
लित	-10.6636
90	-10.6637
योजना	-10.6639
▁प्रयुक्तम्	-10.6639
ानन्तर	-10.6642
व्यञ्जन	-10.6643
▁रेफ	-10.6645
द्विज	-10.6648
▁नन्द	-10.6653
पोष	-10.6654
ानुभव	-10.6655
▁मितिः	-10.6656
रिष	-10.6663
▁इंद्र	-10.6664
▁उभ	-10.6664
▁विद्यालयं	-10.6664
सम्मत	-10.6665
ेऽहं	-10.6667
वर्णन	-10.6669
▁तेज	-10.6669
श्रव	-10.6672
मुत्तमम्	-10.6673
lo	-10.6675
▁गतौ	-10.6675
लौ	-10.6676
▁५७	-10.6677
▁ज्योतिष	-10.6679
मानस	-10.6679
देशं	-10.6681
ोऽसौ	-10.6683
▁दिशा	-10.6683
दोह	-10.6683
ऽर्थ	-10.6684
िमा	-10.6688
ीष	-10.6692
ियां	-10.6692
▁भयम्	-10.6695
जिन	-10.6695
ऽसि	-10.6697
▁भविष्यसि	-10.6699
प्रकरण	-10.67
▁चतुः	-10.67
कुसुम	-10.6701
▁विशेष्य	-10.6703
▁रघु	-10.6704
भ्रा	-10.6706
▁समर्पित	-10.6706
देवं	-10.671
▁भस्म	-10.671
ादीनाम	-10.6711
▁अपवाद	-10.6712
स्थिर	-10.6712
मिष	-10.6713
▁31	-10.6717
▁पुं॰	-10.6718
चूर्ण	-10.6719
विद्व	-10.6723
कम्प	-10.6724
▁देशकाल	-10.6726
ेशे	-10.6726
तैल	-10.6727
▁तेजो	-10.6728
वन्ति	-10.6732
▁रोच	-10.6732
ादिः	-10.6739
▁बत	-10.6743
▁प्रह	-10.6744
मानस्य	-10.6748
▁अहोरात्र	-10.6748
▁निवेदय	-10.6749
धार्य	-10.6757
शान्त	-10.676
चीन	-10.6762
िष्यसि	-10.6763
णाम्	-10.6763
वरा	-10.6764
▁प्रत्यहं	-10.6764
विषयं	-10.6764
▁रङ्ग	-10.6766
▁निर्धन	-10.6767
▁ज्ञातुं	-10.6767
वार्ता	-10.6768
▁स्वर्गं	-10.677
ैतद्	-10.6771
वक्ष्य	-10.6771
मयो	-10.6774
ाव्	-10.6775
क्रीड	-10.6775
▁मतिः	-10.6778
दँ	-10.6779
▁विकि	-10.6779
वाक्यानि	-10.6781
व॑	-10.6782
नन्दन	-10.6782
▁तदु	-10.6782
▁प्रथमो	-10.6783
▁योग्यता	-10.6784
▁ब्रह्मा	-10.6784
tr	-10.6784
▁परम्परा	-10.6784
▁६५	-10.6786
प्सु	-10.6787
चय	-10.6787
▁भृत्य	-10.6788
८३	-10.6788
मस्तु	-10.6788
▁हेम	-10.6789
<	-10.679
॑ः	-10.6792
▁तत्पर	-10.6794
कान्त	-10.6795
▁कुत्रापि	-10.6798
▁एतेषु	-10.6799
▁विक्रय	-10.6799
▁भगवत्	-10.68
स्फुर	-10.68
▁भण	-10.68
▁इतिहासः	-10.6801
व्यूह	-10.6802
▁निवेदित	-10.6803
▁यथोक्त	-10.6803
▁सार्व	-10.6803
प्रवाह	-10.6804
▁इत्युप	-10.6804
▁इदानी	-10.6805
मेतद	-10.6805
▁शिक्षक	-10.6806
इव	-10.6807
▁Tags	-10.6808
▁शक्यः	-10.6808
▁साध्या	-10.6808
▁साम्य	-10.6809
ितां	-10.681
ियो	-10.6811
52	-10.6813
कै	-10.6818
तेजस	-10.6821
▁प्रथ	-10.6821
▁अपत्य	-10.6821
▁एवमुक्त	-10.6822
▁जुइगु	-10.6826
युक्तम्	-10.6826
तिशय	-10.683
▁प्रतिभाति	-10.683
▁देवानाम	-10.6831
७०	-10.6835
कीर्ण	-10.6835
▁नराधिप	-10.6839
स्पन्द	-10.6841
▁स्वतन्त्रता	-10.6842
▁समाप्ति	-10.6845
मन्दिर	-10.6846
गमने	-10.6847
पतेः	-10.685
▁यथैव	-10.685
सौख्य	-10.6851
स्मित	-10.6854
प्रेषण	-10.6854
देवा	-10.6854
▁तत्प्र	-10.6855
▁मीन	-10.6857
क्षिप्य	-10.6857
निपात	-10.6858
न्त्या	-10.6859
विक्रम	-10.6862
चक्षु	-10.6863
ासनं	-10.6864
धं	-10.6865
विभव	-10.6868
त्रिंश	-10.687
▁कोऽ	-10.6872
▁पुरः	-10.6874
तुम	-10.6874
▁जुलाई	-10.6877
▁७५	-10.6879
▁लक्ष्मण	-10.6879
▁कुर्वीत	-10.6879
▁रात	-10.6882
मुखं	-10.6885
▁साधनं	-10.6886
▁पुल	-10.6888
▁प्रदेशः	-10.689
▁मौ	-10.6893
मरा	-10.6895
▁राजपुत्र	-10.6895
▁सूर्यस्य	-10.6895
लम्भ	-10.6896
▁नरो	-10.6902
रसा	-10.6902
▁पाकिस्तान	-10.6905
▁मज	-10.6906
ऽप	-10.6908
हीनं	-10.6908
▁प्रातिपदिक	-10.691
▁पृच्छति	-10.691
मग्नि	-10.691
▁कान	-10.6911
सुखं	-10.6912
गार	-10.6916
मनीष	-10.6916
▁लोह	-10.6918
▁सैव	-10.6918
▁अत्रापि	-10.6919
▁मातुः	-10.692
°	-10.692
▁उत्पत्ति	-10.6922
▁दाव	-10.6922
▁स्नात्वा	-10.6923
▁अहमेव	-10.6924
▁यदु	-10.6924
▁आद	-10.6926
कामा	-10.6926
▁तवं	-10.6927
क्रोश	-10.6929
▁अन्	-10.6929
बहू	-10.6929
मृतं	-10.6929
▁क्वापि	-10.693
▁आचार	-10.693
▁प्राणा	-10.6931
▁नीत	-10.6935
भिहित	-10.6936
▁परिश्रम	-10.6936
▁दुर्लभं	-10.6938
▁विस्तर	-10.6938
ामृत	-10.6942
महो	-10.6944
▁कलौ	-10.6949
ार्था	-10.6952
कारान्त	-10.6953
▁खा	-10.6953
स्ट्र	-10.6954
"'	-10.6959
विषयत्व	-10.696
54	-10.6961
भिक्ष	-10.6964
▁नित्यम्	-10.6964
▁मुनिः	-10.6965
दृग्	-10.6968
▁संध्या	-10.6975
बहि	-10.6976
▁ख्याति	-10.6977
थाय्	-10.6978
संहिता	-10.6984
ैक्य	-10.6986
▁मित्राणि	-10.6986
र्घ	-10.699
▁असत्य	-10.6995
▁मात्र	-10.6996
६८	-10.6998
ृष	-10.7001
▁नेपाः	-10.7005
िन्या	-10.7007
▁नृपः	-10.7012
▁निर्म	-10.7015
विष्णु	-10.702
▁समन्ततः	-10.702
इत	-10.702
▁अनुप	-10.7022
▁शुभं	-10.7022
ारा	-10.7025
ाणा	-10.7027
वक्तु	-10.703
▁स्मृता	-10.703
▁प्रद	-10.7031
भवन्	-10.7032
▁एकमेव	-10.7035
३५	-10.7039
मुन	-10.7047
ोऽहम	-10.7048
▁परतः	-10.7048
वशात्	-10.705
मेवं	-10.7052
▁देव्या	-10.7053
पुत्रेण	-10.7054
िकायां	-10.7054
▁निर्माणं	-10.7055
तरो	-10.7055
तिष्ठत	-10.7056
लोम	-10.7057
ङ्गी	-10.7057
द्वारे	-10.7059
पेक्ष्य	-10.7061
▁स्थिताः	-10.7061
दुप	-10.7062
▁प्रत्ययो	-10.7063
▁>>	-10.7064
▁संस्थाप्य	-10.7072
विप्र	-10.7073
ानुमान	-10.7073
क्रमः	-10.7075
▁कन्यां	-10.7075
▁ईशान	-10.7076
रसि	-10.7077
▁प्रसूत	-10.7082
ाण्ड	-10.7082
▁आपण	-10.7082
मण्डलस्य	-10.7082
▁दम	-10.7083
▁कार्ये	-10.7083
▁एतस्मिन्	-10.7084
॑व	-10.7086
▁स्मृताः	-10.7088
द्वयम्	-10.7089
▁भवेद	-10.7091
द्वन्द्व	-10.7091
▁रम्य	-10.7092
▁गवा	-10.7092
▁वश	-10.7093
▁हस	-10.7094
▁त्रयो	-10.7095
ाज्ञा	-10.7096
प्राप्य	-10.7096
ानुप	-10.7096
यान्	-10.7097
मण	-10.7101
कर्तु	-10.7102
▁कार्यः	-10.7102
ित्व	-10.7104
घोष	-10.7104
ख्	-10.7105
▁महत्त्व	-10.7107
तत	-10.7109
▁समन्वय	-10.711
▁अभिमान	-10.7112
्योः	-10.7112
पर्यन्तम्	-10.7115
जव	-10.7116
ामास	-10.7116
ाग्रे	-10.7117
▁वास्तव	-10.7118
og	-10.7118
हीति	-10.712
॒र्	-10.7121
▁कक्ष	-10.7122
५३	-10.7122
▁वरः	-10.7123
चैतन्य	-10.7124
he	-10.7125
ूर	-10.7126
▁ज्योतिः	-10.7127
▁-'	-10.7133
▁कूट	-10.7135
▁सर्वनाम	-10.7136
ीन्	-10.7138
▁जितः	-10.7139
श्वा	-10.7139
▁प्रेषय	-10.714
▁प्रकाशन	-10.7143
▁शैली	-10.7144
ड़े	-10.7144
▁पयः	-10.7147
▁क्रियापद	-10.7147
सम्भवः	-10.7149
▁वाक्ये	-10.715
भ्युप	-10.7151
▁५६	-10.7151
मानि	-10.7152
▁गगन	-10.7154
▁अपरं	-10.7155
▁प्राप्नुवन्ति	-10.7156
▁हिमालय	-10.7158
▁परिषद	-10.7161
▁धनम्	-10.7163
ाल्	-10.7164
ग्व	-10.7172
स्माद	-10.7172
▁पृथिवीं	-10.7173
युर्	-10.7174
सूक्ष्म	-10.7174
हाय	-10.7174
58	-10.7174
विख्यात	-10.7178
दधे	-10.7179
▁कुश	-10.7183
दूषित	-10.7187
▁गर	-10.7188
▁लोकान्	-10.7188
ोत्पत्ति	-10.7189
▁VERSE	-10.7191
ान्यपि	-10.7193
53	-10.7194
▁समुद्	-10.7196
▁आसान	-10.7196
▁ज्ञातव्य	-10.7198
▁पत्रं	-10.7201
लिख	-10.7201
▁श्रुतेः	-10.7202
पद्म	-10.7202
▁पर्यटन	-10.7204
▁विभक्तिः	-10.7204
रह	-10.7205
▁शंस	-10.7209
स्थितिः	-10.7211
br	-10.7212
id	-10.7213
भीत	-10.7217
▁किंचिद	-10.7219
राणां	-10.7219
▁विमल	-10.7221
▁प्रदर्शन	-10.7222
लग्न	-10.7222
ment	-10.7225
प्रताप	-10.7227
▁यौ	-10.7227
श्राव	-10.723
▁धाम	-10.723
57	-10.7231
▁हृत	-10.7232
▁मन्त्रि	-10.7233
▁मूल्यं	-10.7233
शमन	-10.7233
▁विविधा	-10.724
िष्यत	-10.7241
वर्तन	-10.7245
परम्परा	-10.7246
▁छात्रः	-10.725
५४	-10.7257
वेदि	-10.7258
॒व	-10.7259
वण	-10.726
॒म	-10.7261
▁दूरं	-10.7264
▁उन्	-10.7264
लाई	-10.7266
बला	-10.7266
▁अणु	-10.7266
▁भे	-10.7266
▁संसर्ग	-10.7268
विभक्ति	-10.7268
ज्ञेय	-10.727
रिक	-10.7271
▁पूँजी	-10.7272
▁k	-10.7275
प्रतिपत्ति	-10.7275
रचना	-10.7275
▁पश्यन्	-10.7275
ारण्य	-10.7277
द्भिः	-10.7281
सुषुप्त	-10.7285
ात्मनो	-10.7285
ित्वं	-10.7287
▁यज्ञे	-10.7287
▁व्रजेत्	-10.7289
इदं	-10.7292
ष्टं	-10.7292
ऽद्य	-10.7296
▁केनचित्	-10.7299
बध्यते	-10.7303
पुरी	-10.7303
भ्रान्त	-10.7309
▁वृद्धा	-10.7311
विभागे	-10.7319
णौ	-10.7321
▁प्रचार	-10.7322
▁दत्वा	-10.7323
ान्वितः	-10.7324
णाम	-10.7325
तेषां	-10.7326
▁अगस्त	-10.7326
एफ	-10.7328
ादेशो	-10.7329
ऩ	-10.7329
तै	-10.7331
▁निहित	-10.7331
ेन्न	-10.7331
▁सुग्रीव	-10.7335
शर	-10.7336
३४	-10.7337
▁भूत्	-10.7342
▁अद्यतन	-10.7344
▁०३	-10.7345
ant	-10.7345
▁अर्थे	-10.7345
▁टि	-10.7347
▁प्रियः	-10.7349
▁विकल्पः	-10.735
वधि	-10.735
▁कीदृशः	-10.7352
▁भवत्येव	-10.7353
▁कीदृशं	-10.7354
▁दिग्	-10.7355
त्येक	-10.7356
वाक्	-10.7363
वासरे	-10.7363
▁समरे	-10.7364
मिष्ट	-10.7369
▁प्रमाद	-10.737
चराचर	-10.7373
सर्जन	-10.7376
▁प्राथमिक	-10.7376
▁थौं	-10.7377
▁भ्रातर	-10.7378
▁व्याख्यात	-10.7378
ातिशय	-10.7381
▁जन्तु	-10.7381
अन्येषां	-10.7382
▁स्मृतिः	-10.7384
▁सन्तः	-10.7386
स्तम्भ	-10.7388
व्याज	-10.7389
ोक्ति	-10.739
▁तत्त्वं	-10.7394
▁वर्	-10.7394
▁स्थितो	-10.7398
इह	-10.7398
माव	-10.7399
▁गोत्र	-10.7399
पुनर	-10.74
▁केचिद	-10.7402
शृङ्ग	-10.7403
▁कृत्रिम	-10.7406
▁हित्वा	-10.741
िंग	-10.7411
▁संवत्सरे	-10.7412
शीर्ष	-10.7412
▁करने	-10.7413
जिज्ञास	-10.7413
ड़ा	-10.7418
जनं	-10.7419
हरे	-10.7419
▁त्वर	-10.742
▁पुत्रस्य	-10.7421
ितुम	-10.7421
लक्षणे	-10.7423
▁रिपोर्ट	-10.7423
ag	-10.7423
▁स्वस्व	-10.7423
स्तम	-10.7424
▁नश्यति	-10.7424
▁प्रोक्तः	-10.7425
▁क्षुद्र	-10.7426
उत्तर	-10.7428
ाश्	-10.7431
ुदाहरण	-10.7432
ो॑	-10.7433
धर्ष	-10.7434
▁मासि	-10.7434
▁ह्य्	-10.7434
न्तरं	-10.7435
ण्या	-10.7435
ोच्च	-10.7435
▁जहा	-10.7436
संघ	-10.7436
▁देवतानां	-10.7437
▁रोम	-10.7438
ोत्तरं	-10.7438
दाने	-10.7439
बंध	-10.744
▁प्रदर्शित	-10.744
▁प्रबन्ध	-10.7444
▁५९	-10.7446
प्रज्ञ	-10.7447
▁सुभाषित	-10.7449
श्चित्	-10.745
निर्दिष्ट	-10.7451
▁वैश्वानर	-10.7451
कुट	-10.7452
ार्क	-10.7454
▁00:	-10.7454
▁पुष्ट	-10.7454
▁विचार्य	-10.7457
▁गमन	-10.7459
प्रमेय	-10.7462
त्वमिति	-10.7464
त्वाच्च	-10.7464
▁प्रदर्शय	-10.7469
▁पप्रच्छ	-10.747
▁दग्ध	-10.747
▁प्रलय	-10.747
33	-10.7473
▁द्रष्टु	-10.7473
▁सन्न	-10.7475
▁डे	-10.7475
▁पयो	-10.7477
ीणां	-10.7478
खल	-10.7479
▁प्रयोगशाला	-10.7481
▁यशो	-10.7482
संपन्न	-10.7487
चेष्टित	-10.7488
ग्नौ	-10.7488
पीसी	-10.7488
तिष्ठति	-10.7489
▁गुहा	-10.7492
दीनां	-10.7493
▁गौर	-10.7499
▁कुर्याद्	-10.7501
परिच्छेद	-10.7505
७१	-10.7506
सम्बद्ध	-10.7511
▁अच	-10.7514
विभक्त	-10.7515
▁लक्षणम्	-10.7516
▁परीणाम	-10.7517
▁धेनु	-10.7517
भिधान	-10.7517
▁शुभाशुभ	-10.7517
▁आचर	-10.7519
▁उल्लेख	-10.7519
▁श्रद्धया	-10.752
स्न	-10.752
स्तन	-10.7521
हृ	-10.7521
थी	-10.7521
प्रसङ्गः	-10.7524
वधू	-10.7524
J	-10.7524
▁प्रोवाच	-10.7527
ष्यते	-10.7528
▁महाबलः	-10.7529
▁इन्द्रः	-10.7531
▁तयोर्	-10.7532
ास्पद	-10.7533
▁10.	-10.7537
▁पूजयेत्	-10.7538
▁समर्थः	-10.7539
▁गवां	-10.7539
▁चेह	-10.754
▁उद्देश्य	-10.7541
ap	-10.7541
ढ़	-10.7545
युज्यते	-10.7545
अग्नि	-10.7549
वादन	-10.7557
ानुसारेण	-10.7557
▁पुत्त्र	-10.7558
याज	-10.7558
शासक	-10.7558
▁निषिद्ध	-10.7558
▁मदन	-10.7559
भेदो	-10.7561
हत्य	-10.7563
▁लङ्का	-10.7564
▁फिल्म	-10.7564
ैतद	-10.7569
▁सतां	-10.757
▁एति	-10.7571
▁कलि	-10.7573
▁विस्मृत	-10.7573
मुच्य	-10.7576
▁चान्य	-10.7578
▁निर्देशः	-10.7578
स्तप	-10.7579
▁पथ्य	-10.7579
▁शव	-10.758
▁परोक्ष	-10.758
▁com	-10.758
त्याज्य	-10.7582
्य्	-10.7583
▁चक्षुः	-10.7583
सूक्त	-10.7584
वार्षिक	-10.7585
▁जीवने	-10.7586
▁निर्मिता	-10.7587
▁हव्य	-10.7588
४१	-10.759
▁सखा	-10.7592
te	-10.7592
श्रित	-10.7593
चालक	-10.7594
▁राध	-10.7596
चिन्ता	-10.7598
▁पद्धति	-10.7599
बाह्य	-10.76
ेत्यादि	-10.7602
▁तच्छ	-10.7603
जातं	-10.7607
ब्ज	-10.7607
▁फोटो	-10.7608
▁निरन्तर	-10.7609
ागमन	-10.761
▁कथां	-10.761
नुकूल	-10.7611
one	-10.7613
स्माभिः	-10.7613
▁यथेष्ट	-10.7614
▁निष	-10.7618
▁धीमतः	-10.7619
▁साक्षी	-10.7621
▁वाचक	-10.7622
31	-10.7629
▁मृद	-10.763
▁भेषज	-10.7631
वार्तिक	-10.7632
वक्त्र	-10.7632
▁साहाय्यं	-10.7635
द्यते	-10.7635
▁उच्चारण	-10.7636
कुमार	-10.7639
▁चार	-10.7641
पाच	-10.7642
▁Previous	-10.7643
▁लोभ	-10.7644
▁विशुद्ध	-10.7645
दानेन	-10.7646
व्याधि	-10.7648
मूत्र	-10.7652
▁यस्त	-10.7657
वीं	-10.7658
▁भूयो	-10.7659
देवः	-10.7659
▁आसपास	-10.7661
▁अधिसूचना	-10.7661
मिद	-10.7666
▁होवाच	-10.7667
जना	-10.7668
▁No	-10.7669
लक्ष्म	-10.7669
६१	-10.7674
▁काम्य	-10.7675
गुरो	-10.7675
▁लवण	-10.7676
▁सैनिक	-10.7677
▁तत्त	-10.7679
कन्या	-10.768
यसे	-10.7681
▁माय	-10.7684
वृष्टि	-10.7685
ाशयः	-10.7685
▁वं	-10.7687
साहस्र	-10.7687
ाभावः	-10.7688
ावा	-10.7688
▁स्थानीय	-10.769
▁वीक्ष्य	-10.7691
नृप	-10.7692
८६	-10.7693
दर्शनम्	-10.7695
ैरेव	-10.7695
ेरन्	-10.7697
मेय	-10.7697
भवः	-10.7699
▁संविद	-10.7699
▁ताम	-10.7699
▁पर्यन्तं	-10.7705
▁वैभव	-10.7706
ज्ञो	-10.7707
▁दिशो	-10.7707
▁अप्रैल	-10.7708
▁रात्रिः	-10.7708
▁महत्त्वपूर्ण	-10.7709
▁आवां	-10.7712
▁नेत्रे	-10.7712
ऽस्तु	-10.7712
▁यज्ञं	-10.7713
लोकं	-10.7716
▁विश्वरूप	-10.7718
तिष्ठन्	-10.7718
भविष्यति	-10.7719
६७	-10.7719
क्षोभ	-10.772
▁निर्यात	-10.772
▁मार्गः	-10.7725
▁आपो	-10.7727
▁तमस्य	-10.773
▁रथं	-10.7732
▁करी	-10.7741
▁स्वजन	-10.7743
नामधेय	-10.7749
▁सूत्रं	-10.775
बलय्	-10.7752
वसर	-10.7753
ङ्ख	-10.7755
▁शैक्षिक	-10.7756
▁दुष्कृत	-10.7758
युता	-10.7759
▁भारतवर्ष	-10.776
▁प्रजापति	-10.7761
▁स्वर्गे	-10.7761
▁जिह्वा	-10.7764
मण्ड	-10.7765
ाकृति	-10.777
ब्य	-10.7771
▁प्रपञ्च	-10.7773
▁विपक्ष	-10.7774
मूर्ध	-10.7775
ind	-10.7775
▁जाते	-10.7776
भरण	-10.7776
▁हीन	-10.7776
▁पुरोहित	-10.7777
▁भवितुं	-10.7777
साधु	-10.7779
▁केचिद्	-10.7779
टीसी	-10.778
४३	-10.7782
▁रै	-10.7782
प्रान्त	-10.7784
▁धारण	-10.7787
ीयाः	-10.779
मुदित	-10.7793
▁शिखर	-10.7793
▁राज्यस्य	-10.7793
यिता	-10.7793
▁आरम्भः	-10.7794
▁प्राकृतिक	-10.7794
दीन	-10.7794
▁निर्गुण	-10.7803
▁सिंहः	-10.7805
▁विलोक्य	-10.7807
खु	-10.7807
▁भूरि	-10.7808
धीर	-10.7809
न्ट	-10.7812
▁सहस्रशः	-10.7812
निरत	-10.7812
थवा	-10.7814
▁सूर्यो	-10.7815
तायां	-10.7816
▁परीक्ष	-10.7817
▁दुख	-10.7821
वदन्	-10.7824
ाम्यहं	-10.7828
56	-10.7828
भट	-10.7829
▁कथिता	-10.783
ोत्पाद	-10.7831
▁कान्त	-10.7833
॒द	-10.7834
प्रदाय	-10.7835
▁पत्रिका	-10.7835
जह	-10.784
art	-10.784
▁देवालय	-10.7841
मिता	-10.7843
▁समूहः	-10.7844
वधान	-10.7847
पूर्ति	-10.7849
चरेत्	-10.785
▁विद्वांस	-10.785
ेत्याह	-10.7852
▁साक्षाद्	-10.7853
▁९०	-10.7854
▁उदा	-10.7856
▁रहस्यं	-10.7857
▁कंस	-10.7857
बुद्धिः	-10.7859
up	-10.7859
धय	-10.786
▁इम	-10.7866
▁लोकाः	-10.7867
विभागः	-10.7868
जनन	-10.7869
ेणैव	-10.7869
▁वनं	-10.787
ूप	-10.7871
▁प्लव	-10.7873
गतिः	-10.7874
लेप	-10.7876
०३	-10.7879
▁संदेश	-10.7879
वर्तमान	-10.7881
▁आपद	-10.7882
▁वृषभ	-10.7885
दर्थ	-10.7889
वर्य	-10.7891
▁गन्तुं	-10.7892
तीरे	-10.7894
ासुर	-10.7895
त्ते	-10.7896
बृह	-10.7898
भेदा	-10.7898
▁हरित	-10.7901
▁गतिं	-10.7904
▁संग्रह	-10.7905
▁अले	-10.7906
▁अथातः	-10.7906
▁प्रतीक्ष	-10.7912
▁जापान	-10.7916
▁योगदानानि	-10.7916
▁भाई	-10.7918
▁रूपाणि	-10.7923
ावश्यक	-10.7924
▁पुट	-10.7924
वच्च	-10.7928
गच्छत	-10.7929
▁आयु	-10.793
▁The	-10.7931
▁जाग	-10.7932
व्याख्या	-10.7934
बाधा	-10.794
▁वारं	-10.7941
पूर्वकम्	-10.7946
▁राष्ट्रस्य	-10.7947
सन्तान	-10.7947
▁पावक	-10.7948
काश्मीर	-10.7952
▁जल्प	-10.7953
स्थि	-10.7953
▁ब्रह्माण्ड	-10.7955
हीना	-10.7955
वासिनः	-10.7956
वसु	-10.7958
▁श्रुतम्	-10.7959
▁दक्षिणां	-10.7959
▁शिर	-10.7964
▁स्पर्धा	-10.7965
ज्जन	-10.7967
कल्याण	-10.7969
लुप्त	-10.7971
ाढ्य	-10.7971
क्ल	-10.7972
▁परमाण	-10.7973
पच	-10.7975
नुप	-10.7977
स्ट्	-10.7977
नित्यं	-10.7977
निवृत्ति	-10.7979
भाषया	-10.7982
▁वक्ष्ये	-10.7986
▁सज्जन	-10.7986
▁चयन	-10.7986
वर्षेभ्यः	-10.7988
▁लाभः	-10.7994
▁ऊर्ध्वं	-10.7994
▁लकार	-10.7996
▁अभूत्	-10.7996
वादिन	-10.7996
ीत्	-10.7996
७६	-10.7998
ान्तरेण	-10.7999
ʼ	-10.8001
▁कस्मिन्	-10.8002
▁भगिनी	-10.8003
ीकरणं	-10.8005
▁अभव	-10.8005
▁मन्यसे	-10.8006
▁तथाहि	-10.8009
ग्रहणेन	-10.801
ty	-10.8012
▁आम्	-10.8013
▁१९७	-10.8015
▁मतं	-10.8016
ान्तिक	-10.8021
▁तेजः	-10.8022
▁शक्ता	-10.8022
युक्ति	-10.8026
दशा	-10.8027
▁प्रस्थित	-10.8027
▁द्रव्यं	-10.8031
ew	-10.8031
▁सम्पादन	-10.8031
म्बु	-10.8033
ाभवत्	-10.8034
प्राप्तिः	-10.8035
वासना	-10.8039
योगात्	-10.804
▁त्रैलोक्य	-10.8041
▁8.	-10.8042
▁वहति	-10.8046
▁तथाच	-10.8046
▁अभय	-10.805
▁शुष्क	-10.8053
▁आरोप	-10.8057
▁५३	-10.8059
▁इलय्	-10.806
मात्रम्	-10.8062
▁उभयोः	-10.8062
▁स्थाप्य	-10.8064
▁वर्द्ध	-10.8066
मुक्त्वा	-10.807
सन्धान	-10.807
▁प्राप्तो	-10.8071
महेश्वर	-10.8071
ष्टम	-10.808
▁पितरं	-10.8082
ाचल	-10.8084
संग्रह	-10.8085
▁एकत्र	-10.8085
शतक	-10.8085
यश्च	-10.8093
सन्न	-10.8096
▁जायमान	-10.8099
▁समाप्तः	-10.8099
गमः	-10.81
▁अकथयत्	-10.8101
▁रिश्ते	-10.8101
सारं	-10.8103
▁}	-10.8106
न्यत्	-10.8106
▁उक्त्वा	-10.8113
▁प्रयास	-10.8115
दृशा	-10.8118
कोट	-10.8119
▁अपितु	-10.8123
▁अनिवार्य	-10.8123
मेद	-10.8126
▁बाला	-10.8126
▁भासते	-10.8127
▁कोड	-10.8128
▁अन्योन्य	-10.8131
ातुर	-10.8131
लिका	-10.8133
स्थिते	-10.8135
राज्ञ	-10.8138
ांतर	-10.8139
▁आदेशः	-10.814
प्रमाणेन	-10.8145
ीत्य	-10.8145
६४	-10.8147
▁विभाव	-10.8151
दुर्ग	-10.8152
▁निर्मल	-10.8153
▁अन्तर्जाल	-10.8153
▁लिङ्गं	-10.8154
▁मातरं	-10.8155
▁सातवां	-10.8156
▁एच	-10.8158
▁शुक	-10.816
रभ	-10.816
सृत	-10.8161
▁परामर्श	-10.8161
ुक्तं	-10.8164
गेह	-10.8165
मिन्द्र	-10.8166
रस्ति	-10.8166
▁स्तोम	-10.8166
द्वये	-10.8167
पतये	-10.8167
बाह	-10.817
▁एकवचन	-10.817
▁अलं	-10.8171
दर्शित	-10.8172
सिद्धान्त	-10.8172
ावर्त	-10.8173
धेय	-10.8174
चरित्र	-10.8177
ms	-10.8179
▁युध्य	-10.8181
रुष	-10.8182
▁सर्वेषाम	-10.8183
▁सम्बन्धित	-10.8183
▁स्वय	-10.8184
ापेक्षा	-10.8185
▁पादप	-10.8187
▁sa	-10.8188
क्षणं	-10.8188
▁एताव	-10.819
अयं	-10.8192
कुर	-10.8193
जू	-10.8196
कवि	-10.8199
्याम्	-10.8199
cd	-10.82
▁अनुमति	-10.8202
वृत्तान्त	-10.8205
स्थितं	-10.8205
▁पाय	-10.8207
▁चतुर्विध	-10.821
ांशु	-10.8211
▁पराक्रम	-10.8212
यतो	-10.8218
ूं	-10.8219
मेलन	-10.8223
▁वैशिष्ट्य	-10.8224
वत्स	-10.8226
▁अग	-10.8227
एससी	-10.8227
विपाक	-10.8227
धातोः	-10.8228
निधि	-10.8229
ुभय	-10.8229
▁भविष्यामि	-10.8232
यन्तः	-10.8233
▁असुर	-10.8236
द्युति	-10.8236
कथय	-10.8237
▁सहस्त्र	-10.8241
▁सुतः	-10.8246
मार्गः	-10.8247
▁वयसि	-10.8248
वचः	-10.8249
ुव	-10.8251
िणा	-10.8252
\	-10.8252
प्रतिषेधः	-10.8252
-20	-10.8254
▁2015	-10.8256
आत्म	-10.8257
वन्तौ	-10.8257
▁तदीय	-10.8259
दिशि	-10.826
शान्ति	-10.8262
र्ति	-10.8263
▁कृतवन्तः	-10.8264
▁j	-10.8267
संस्थित	-10.8267
▁पूर्ब्ब	-10.8268
नल	-10.827
▁क्रियमाण	-10.827
ञ्जय	-10.8272
▁विद्यां	-10.8273
वियोग	-10.8275
तरङ्ग	-10.8276
▁क्रय	-10.8278
▁तुम	-10.8282
▁आग्नेय	-10.8282
त्तर	-10.8284
▁श्रेयः	-10.8284
▁वित्तं	-10.8284
ाणं	-10.8286
▁त्रिधा	-10.8289
▁वक्त्र	-10.8289
▁SP	-10.8289
▁अर्ह	-10.8291
ल्लोक	-10.8292
▁जाग्रत	-10.8292
▁प्रमाणम्	-10.8292
तरण	-10.8293
०१	-10.8294
▁त्रिषु	-10.8296
बन्धु	-10.8296
मूलं	-10.8301
लज्ज	-10.8303
कर्मणो	-10.8303
▁ज्याझ्वः	-10.8303
▁पाकिस्थान	-10.8303
माहात्म्य	-10.8304
▁जीवन्मुक्त	-10.8304
▁(3)	-10.8305
लोभ	-10.8305
▁टिप्पणी	-10.8305
hi	-10.8305
▁व्रतं	-10.8307
▁बिल	-10.8307
ca	-10.8308
गतौ	-10.8308
ामीति	-10.8309
▁वक्ष्यति	-10.831
SC	-10.8313
▁प्रणाम	-10.8313
ss	-10.8314
चलन	-10.8317
वगम्यते	-10.8318
वाक्येन	-10.8321
कामो	-10.8321
▁मृ	-10.8323
सम्पन्न	-10.8324
▁पक्षि	-10.8325
▁सिध्य	-10.8325
ड्र	-10.8326
▁इट	-10.8327
▁चाप्य	-10.8327
▁भूषण	-10.833
वट	-10.8331
नाप	-10.8332
▁ज्ञानम्	-10.8332
सन्धिः	-10.8333
प्रवृत्त	-10.8335
▁वृक्षाः	-10.8337
▁इ॒	-10.8339
कृत्वा	-10.8341
लता	-10.8342
झा	-10.8345
ाश्चर्य	-10.8346
▁गृहस्थ	-10.8348
ाद्याः	-10.8349
ात्मानम	-10.835
चिद	-10.8352
Z	-10.8355
▁वासुदेव	-10.8355
▁इत्येके	-10.8356
वदन	-10.836
०२०	-10.8365
शाली	-10.8366
सम्पादक	-10.8367
दर्शक	-10.8368
▁६४	-10.8371
▁प्रचलति	-10.8371
▁यह	-10.8373
शीत	-10.8376
लिन	-10.8376
▁कतम	-10.8377
▁तूं	-10.8378
▁आश्रम	-10.8378
▁सन्त	-10.8379
▁जारी	-10.838
▁महत	-10.8381
▁सफलं	-10.8383
▁बालः	-10.8385
निविष्ट	-10.8388
भयात्	-10.8388
▁सङ्घ	-10.8388
▁फे	-10.8389
सेवित	-10.839
वेति	-10.8396
्रे	-10.8396
▁चन्द्रमा	-10.8397
मानाः	-10.8399
▁शास्त्रं	-10.8399
▁स्वात्म	-10.8399
▁प्रापय	-10.8401
▁आशय	-10.8403
ाभ्यन्तरे	-10.8404
ूनि	-10.8404
man	-10.8405
▁तमो	-10.8408
▁ध्रुवम्	-10.8409
▁तदानीं	-10.8409
▁इत्याख्य	-10.8409
▁स्याम	-10.8409
▁पद्य	-10.841
▁प्रायशः	-10.841
ल्हा	-10.8412
▁स्वागतं	-10.8412
मन्यु	-10.8413
▁राष्ट्रं	-10.8413
र्नि	-10.8416
▁गृहपृष्ठ	-10.8416
▁कर्तरि	-10.8417
▁भक्ष्य	-10.8421
भूष	-10.8423
ज्ञाने	-10.8424
संवेदन	-10.8426
▁36	-10.8428
तॄ	-10.8429
na	-10.843
ूद	-10.8431
▁दातुं	-10.8432
▁9.	-10.8432
ीश्वरः	-10.8433
▁प्रशंसा	-10.8435
द्वादश	-10.8435
▁स्निग्ध	-10.8435
ायतन	-10.8439
▁सूचित	-10.8441
▁कर्मणः	-10.8442
▁प्रभाते	-10.8443
तोऽपि	-10.8444
माश्रित्य	-10.8445
▁नेवाःतय्	-10.8446
फे	-10.8446
▁तत्स	-10.8449
मुत्तर	-10.8449
९०	-10.845
▁माल	-10.8451
ानुरूप	-10.8452
▁सॊ	-10.8454
नुमान	-10.8454
▁विभव	-10.8455
▁Nepal	-10.8458
नगरम्	-10.8458
▁वक्र	-10.8461
▁अन्ततः	-10.8462
▁साधय	-10.8464
लिक	-10.8465
▁निव	-10.8465
▁तनय	-10.8466
विज्ञानं	-10.8467
▁हतः	-10.8468
टिक	-10.8473
▁सत्यम्	-10.8474
भूषण	-10.8476
▁जलम्	-10.8477
▁यादृश	-10.8478
पत्राणि	-10.8479
▁वर्षाः	-10.8479
▁युवां	-10.848
▁पेय	-10.848
▁केषां	-10.8481
▁होता	-10.8482
रश्मि	-10.8482
▁पेश	-10.8487
▁एवंविध	-10.8489
कीर्त	-10.849
स्थायी	-10.8491
एन	-10.8492
▁कृपण	-10.8492
विधानतः	-10.8493
विलास	-10.8493
▁तस्यापि	-10.8493
▁किञ्चन	-10.8496
▁शल्य	-10.8498
▁प्रविशति	-10.8498
ऎ	-10.8499
पानं	-10.85
▁शपथ	-10.8501
न्ता	-10.8501
स्मर	-10.8501
ृत	-10.8505
वर्णा	-10.8505
सूचक	-10.8506
कवच	-10.8507
ानुग	-10.8508
ाट	-10.8509
पूजित	-10.851
▁समावेश	-10.8511
▁स्क	-10.8511
समर्पण	-10.8511
61	-10.8511
शक्त्या	-10.8512
पेक्षया	-10.8514
▁दस	-10.8514
▁पुत्राः	-10.8516
मिल	-10.8516
▁निश्चयः	-10.8519
ह्म	-10.8521
वृध	-10.8522
▁उदक	-10.8522
गन्	-10.8523
करे	-10.8525
per	-10.8525
▁संसद	-10.8526
ध्ययन	-10.8527
स्मिन्न	-10.8529
शक्य	-10.8529
▁तृतीयं	-10.853
ोपेत	-10.8531
▁अनया	-10.8531
ारोप	-10.8533
त्रास	-10.8534
ठा	-10.8534
व्यसन	-10.8537
▁वामे	-10.8537
ाधम	-10.8538
घो	-10.8538
चतुष्टय	-10.8541
म्̇	-10.8541
▁अर्च	-10.8542
▁दिल	-10.8542
ोपयोग	-10.8542
भोज	-10.8546
र्व्व	-10.8549
ैता	-10.855
गोप	-10.855
गणन	-10.8551
गमे	-10.8552
वेक्ष्य	-10.8552
युतः	-10.8552
प्रक्रिया	-10.8553
गज	-10.8555
▁मुखे	-10.8555
दिव्य	-10.8555
▁योगदान	-10.8558
६६	-10.8558
टल	-10.8559
▁परिचय	-10.8559
ऽयं	-10.856
▁लुक्	-10.856
भारतस्य	-10.8561
▁शूद्र	-10.8563
▁धाःगु	-10.8564
कदा	-10.8565
▁मुद्रण	-10.8565
▁कर्मचारी	-10.8566
निग्रह	-10.8568
▁कर्त	-10.8568
जुष	-10.8568
ज्वाल	-10.8568
ार्थक	-10.857
▁उदात्त	-10.8573
स्यते	-10.8574
▁इहैव	-10.8575
▁षष्टि	-10.8575
av	-10.8577
▁यत्ते	-10.858
▁सर्वदेव	-10.8582
▁उपधा	-10.8585
min	-10.8587
▁चैत	-10.8589
▁अपेक्षा	-10.8589
▁प्रतिपादित	-10.8591
पत्रे	-10.8592
तन्त्रे	-10.8594
▁इदानीम	-10.8594
पर्याय	-10.8595
मुखः	-10.8597
▁वितरण	-10.8597
साधनं	-10.8598
▁बहिर	-10.86
यितव्य	-10.86
▁घोष	-10.86
रूपक	-10.8601
स्तौ	-10.8602
ग्रहः	-10.8604
pl	-10.861
निश्चित	-10.8612
कोश	-10.8612
ट्ठ	-10.8614
▁मेदि०	-10.8615
▁शानदार	-10.8615
▁रसोई	-10.8615
विग्रह	-10.8616
ess	-10.8616
सन्ध्य	-10.8616
▁नैष	-10.8618
रुह	-10.8618
ार्चन	-10.8618
ार्जित	-10.8618
ात्मिका	-10.8619
▁पक्षः	-10.8621
▁हविः	-10.8623
▁शङ्कर	-10.8623
ाद्वि	-10.8625
▁था	-10.8625
▁देय्	-10.8625
राजः	-10.863
▁आहुः	-10.8634
▁कस्मै	-10.8635
सम्पदा	-10.8636
आदि	-10.864
वदत्	-10.8641
▁नाप	-10.8642
दधि	-10.8644
▁लेखकः	-10.8644
ादेर	-10.8644
ूक	-10.8648
▁नेह	-10.8648
▁पठेत्	-10.8649
▁ग्रामे	-10.8651
▁कदाचिद	-10.8652
कर्म्म	-10.8652
▁विष्णुः	-10.8653
घण्ट	-10.8658
भिद्य	-10.8659
▁न्याय्य	-10.8661
त्तु	-10.8663
▁नयन	-10.8664
▁उग्र	-10.8664
▁प्रत्यक्षं	-10.8667
विषयः	-10.8667
▁तस्वीर	-10.8668
ायाम	-10.8669
▁पीडित	-10.8672
कॉ	-10.8673
▁०४	-10.8673
▁आल	-10.8674
साधक	-10.8677
पौत्र	-10.868
▁निखिल	-10.8681
चक्षते	-10.8681
▁तेभ्यः	-10.8682
▁गुड	-10.8686
▁निपात	-10.8686
लिसे	-10.8687
▁सिद्धा	-10.8688
तान	-10.8688
▁अहिंसा	-10.869
▁यदिदं	-10.8692
कामः	-10.8694
▁अकार	-10.8694
▁निश्चितम्	-10.8696
▁कृष्णः	-10.8697
ाभिमान	-10.8698
▁मधुरं	-10.8699
ास्ता	-10.87
वर्षसहस्राणि	-10.8702
▁तद्वि	-10.8704
धरा	-10.8706
ुक्तम्	-10.8706
युर	-10.8708
▁प्रियतम	-10.8708
▁मनोरथ	-10.8709
ूयते	-10.8714
▁प्रत	-10.8718
▁नाति	-10.8719
स्ताव	-10.872
▁मनसः	-10.8722
▁शक्नोमि	-10.8722
▁चक्षुषा	-10.8722
▁भवेत	-10.8722
▁निधि	-10.8724
ित्र	-10.8726
▁वचनम्	-10.8726
▁ही	-10.8728
शतानि	-10.8729
▁संयुगे	-10.873
▁स्ना	-10.8733
▁यज्	-10.8734
35	-10.8737
मण्डलम्	-10.8737
वेक्ष	-10.8739
64	-10.874
▁सदस	-10.874
योगि	-10.8741
भज	-10.8745
देवी	-10.8747
▁श्वास	-10.8748
महोत्सव	-10.8749
दिवसे	-10.875
दानव	-10.8754
to	-10.8755
▁पृथिव्याः	-10.8756
de	-10.8757
विदा	-10.8759
▁नौका	-10.876
ैका	-10.8761
▁अजा	-10.8761
स्वी	-10.8762
ज्ञाय	-10.8762
▁हिताय	-10.8765
ान्तर्	-10.8765
▁खग	-10.8767
▁लभेत्	-10.8772
विरचित	-10.8774
▁अप्य	-10.8774
▁गतिम्	-10.8775
हेतवे	-10.8776
66	-10.8777
ण्डि	-10.8784
▁वक्ष्यते	-10.8787
▁समिति	-10.8787
ानुवाद	-10.8789
ेक्षण	-10.8789
▁धन्या	-10.8789
गोत्र	-10.879
पतन	-10.8796
मभवत्	-10.8799
शब्दात्	-10.8804
▁कर्ष	-10.8805
▁सित	-10.8805
▁कर्तुम	-10.8805
कृच्छ्र	-10.8805
मङ्ग	-10.8807
▁विभाति	-10.881
ादन्य	-10.8812
रूपाणि	-10.8812
▁अन्नं	-10.8813
▁विराम	-10.8813
श्छ	-10.8815
▁दधि	-10.8815
रद	-10.8816
▁समासः	-10.8816
▁अपेक्षित	-10.882
मुक्तः	-10.8821
▁यस्	-10.8821
लस	-10.8823
▁द्व्य	-10.8825
मासाद्य	-10.8826
पतिं	-10.8826
प्रस्थ	-10.8826
▁सविता	-10.8827
▁नेपाली	-10.8827
ैर्वि	-10.8828
स्थायि	-10.8829
▁प्रवृत्तिः	-10.8829
र्यस्य	-10.8829
▁दीप्त	-10.8831
बृ	-10.8834
ोन्नत	-10.8837
गर्ज	-10.8838
▁एकाकी	-10.8838
▁चित	-10.8838
दध	-10.884
स्थापित	-10.8841
▁दुःखित	-10.8842
र्जुन	-10.8842
ैकादश	-10.8842
ोऽन्य	-10.8844
▁सुता	-10.8845
▁देवेश	-10.8845
▁स्नात	-10.8848
निष्पन्न	-10.885
▁तन्व	-10.8851
मिन	-10.8854
हान	-10.8854
▁सन्देहः	-10.8854
98	-10.8856
▁ददा	-10.8857
व्रण	-10.8857
▁प्रधानं	-10.8858
स्थितः	-10.8859
येद	-10.8862
यण	-10.8863
▁विभागः	-10.8865
▁नगरस्य	-10.8868
हारी	-10.8869
स्तरीय	-10.8869
तत्त्वं	-10.8871
▁ज्योतिर्	-10.8874
▁अवश्य	-10.8874
▁ज्ञानेन	-10.8874
िन्द्र	-10.8874
▁अस्त	-10.8879
प्रदा	-10.888
▁ब्रा	-10.888
▁वाञ्छ	-10.8881
▁अथो	-10.8881
दर्भ	-10.8882
▁ऐश्वर्य	-10.8883
ाद्वा	-10.8883
▁2014	-10.8885
▁विद्यन्ते	-10.8887
प्रियः	-10.8887
▁तस्मिन्न	-10.8887
स्माद्	-10.8888
तस्त	-10.889
मर्ष	-10.8892
▁७४	-10.8894
▁खर्च	-10.8894
▁यथोक्तं	-10.8895
वर्यः	-10.8895
▁सम्मुख	-10.8895
नक्षत्र	-10.8895
▁विभक्ति	-10.8897
भाषिक	-10.8897
▁इवा	-10.8898
सवन	-10.8902
▁धर्मेण	-10.8904
तस्तु	-10.8904
▁शिरो	-10.8907
▁द्विष	-10.8907
▁पुस्तकालय	-10.8907
ानेक	-10.8909
▁रमणीय	-10.8909
65	-10.891
स्कर	-10.8911
कर्मक	-10.8912
ाला	-10.8915
▁ऊँ	-10.8916
▁लो	-10.8916
▁विद्युत्	-10.8916
पुराणे	-10.8916
▁सव्य	-10.8917
▁प्रदेशे	-10.8918
▁शेषे	-10.8921
ीकर्तुं	-10.8922
ब्रवीत्	-10.8922
▁अदृष्ट	-10.8926
मानम्	-10.8927
▁पलाय	-10.893
ोक्ता	-10.8933
मर्थं	-10.8934
गच्छेत्	-10.8934
▁कारणात्	-10.8934
▁रक्षिता	-10.8934
युते	-10.8935
▁वस्तूनि	-10.8935
▁मुस्लिम	-10.8937
▁शत्रूणां	-10.8937
▁निवर्त्यताम्	-10.8937
▁व्यस्त	-10.8938
▁तेरे	-10.8939
▁श्रु	-10.894
विकल	-10.8943
▁विज्ञाय	-10.8945
ध्म	-10.8948
गिरि	-10.8948
ऽनेन	-10.8948
▁प्रसार	-10.8949
▁याम	-10.895
ेषाम	-10.895
वर्तिन	-10.8953
▁ध्या	-10.8953
सभायां	-10.8954
▁मायया	-10.8954
▁लक्ष्मी	-10.8956
▁दुग्धं	-10.8956
▁पुष्य	-10.8956
वत्या	-10.8957
फ्र	-10.8958
शत्रु	-10.8961
रेत	-10.8961
संवत्सर	-10.8962
▁प्रायेण	-10.8963
▁शृण्व	-10.8965
भ्याम्	-10.8966
होरात्र	-10.8966
नन्तरं	-10.8967
भागी	-10.8967
▁38	-10.8968
यत्न	-10.897
अह	-10.8971
विशेषेण	-10.8974
em	-10.8975
▁एशिया	-10.8982
ून्	-10.8984
हिंसा	-10.8987
तय्	-10.899
ार्थस्य	-10.8992
▁ब्रूमः	-10.8992
प्रीत	-10.8992
सरः	-10.8992
▁असं	-10.8993
वृद्धिः	-10.8994
ब्रू	-10.8995
▁भूमिं	-10.8996
▁स्कूल	-10.8996
▁स्यान्	-10.8997
▁निर्व	-10.8997
ya	-10.9
▁रयि	-10.9
▁निरीक्ष	-10.9001
▁वाक्यार्थ	-10.9001
ध्द	-10.9002
यूरोप	-10.9002
▁मैत्री	-10.9003
परिहार	-10.9004
▁तुला	-10.9004
स्येव	-10.9004
नार	-10.9008
▁दव	-10.9009
ित्यर्थः	-10.9013
▁उपकार	-10.9014
शर्	-10.9015
कार्ये	-10.9017
चिन्तय	-10.9021
▁प्रेत्य	-10.9023
मितः	-10.9024
▁क्रीत	-10.9026
पुरा	-10.9028
प्रतिष्ठा	-10.9029
मन्त्रालय	-10.903
▁निर्मितः	-10.9031
लङ्	-10.9033
श्रोत	-10.9036
न्यत्र	-10.9036
▁सूर	-10.9037
▁यद्यप्य	-10.9038
भीष्ट	-10.9038
सत्यं	-10.904
्वी	-10.904
▁प्रकाशते	-10.9041
बोधन	-10.9041
▁दुष्कर	-10.9041
▁इतो	-10.9042
▁व्याध	-10.9042
▁पुस्तकानि	-10.9044
▁Online	-10.9046
हाँ	-10.9049
प्रतीति	-10.9051
ष्ठा	-10.9053
न्योन्य	-10.9054
▁वणिज	-10.9054
पङ्क्ति	-10.9055
▁ब्रिट	-10.9055
▁धू	-10.9056
▁सम्पत्ति	-10.9056
▁विदध	-10.9058
र्यथा	-10.9058
भाति	-10.9058
▁दुर्लभम्	-10.9059
भॊ	-10.906
▁फा	-10.9061
हिता	-10.9061
▁एकादशी	-10.9062
वृतः	-10.9062
▁मनुष्यः	-10.9063
साम्य	-10.9066
सिद्धये	-10.9066
लोड	-10.9066
दीय	-10.907
त्वान्न	-10.9074
iz	-10.9076
सर्वे	-10.9076
▁कामये	-10.9077
▁बन्धन	-10.9077
ेन्दु	-10.9079
चिकित्सा	-10.9082
सदस्य	-10.9082
▁पृष्ठाना	-10.9083
ांस	-10.9084
िकया	-10.9087
पदस्य	-10.9088
मनः	-10.9088
▁अनेकानि	-10.909
▁दिवः	-10.9092
भूमिः	-10.9092
हर्तु	-10.9094
वयं	-10.9094
▁रोद	-10.9095
▁क्षणात्	-10.9095
िणि	-10.91
▁तत्तत्	-10.91
▁आरभ्य	-10.91
▁हितम्	-10.9101
▁परमो	-10.9101
▁ऐतिहासिक	-10.9102
▁सहस्रं	-10.9102
गन्धर्व	-10.9104
मुक्तम्	-10.9104
▁महात्मनः	-10.9105
▁दिक्षु	-10.9106
▁सत्वर	-10.9106
हरं	-10.9109
▁चास्य	-10.911
्ह	-10.9112
प्रीत्या	-10.9113
▁सतत	-10.9114
▁द्विजाः	-10.9115
▁चेतना	-10.9116
क्रियया	-10.9119
▁सिद्धं	-10.9121
रितं	-10.9123
विच्छेद	-10.9123
▁श्रेणी	-10.9124
चरति	-10.9127
▁वामन	-10.9127
वन्तं	-10.9127
स्थानेषु	-10.913
▁अस्मात्	-10.913
जागर	-10.9131
▁तद्भव	-10.9132
▁पुरं	-10.9133
ड्ड	-10.9134
॑ति	-10.9134
▁७१	-10.9135
▁यत्नेन	-10.9137
▁पय	-10.9138
▁पूर्णं	-10.9139
▁समेत	-10.914
्याय	-10.9141
रते	-10.9144
▁समुद	-10.9144
▁विज्ञात	-10.9145
कर्तार	-10.9146
▁धर्मस्य	-10.915
▁कू	-10.9151
िकायाः	-10.9154
▁बलवान्	-10.9154
ers	-10.9155
स्थापय	-10.9156
गताः	-10.9157
▁कालिदास	-10.9157
अधि	-10.9158
▁Ans	-10.9158
▁दुर्घटना	-10.9158
qu	-10.9159
व्यम्	-10.916
अति	-10.916
▁सम्पद्यते	-10.9161
भट्ट	-10.9162
▁राहु	-10.9162
पूरित	-10.9162
निरुद्ध	-10.9162
▁नरके	-10.9168
▁भवितुम्	-10.917
▁भविष्यतीति	-10.917
चरन्ति	-10.9171
▁मृताः	-10.9171
▁टीका	-10.9174
▁अनुकूलन	-10.9174
स्मृत्य	-10.9176
नाम्ना	-10.9177
तर्पण	-10.9181
▁कार्यो	-10.9181
ल्यु	-10.9181
▁प्राणः	-10.9182
▁मर्	-10.9183
▁६१	-10.9183
त्वेऽपि	-10.9184
▁वर्षं	-10.9186
स्तोत्र	-10.9188
▁अधर्म	-10.919
विस्तार	-10.919
▁युक्तम्	-10.9191
▁समर्थित	-10.9198
▁विभा	-10.9198
वर्षा	-10.9199
ालङ्कार	-10.9199
▁सखी	-10.92
जानन्	-10.92
यस्व	-10.92
शास्त्रं	-10.9206
▁फलकम्ः	-10.921
एष	-10.921
▁प्रयाति	-10.921
▁प्यार	-10.9212
द्यापि	-10.9213
▁अपने	-10.9213
क्षत्र	-10.9213
प्राप्ते	-10.9214
▁सखे	-10.9216
▁विदुष	-10.9216
▁भ्रष्टाचार	-10.9216
श्वास	-10.9217
▁पूजन	-10.9219
भावन	-10.9219
लुब्ध	-10.9221
▁रू	-10.9221
▁निर्विकल्प	-10.9222
▁विवरणः	-10.9223
रहितः	-10.9223
▁ददामि	-10.9223
▁पूर्णतः	-10.9224
शोधन	-10.9224
▁सुरक्षित	-10.9225
▁गन्तव्य	-10.9226
ies	-10.9226
▁स्तोत्रं	-10.9228
▁रजत	-10.9229
▁६२	-10.923
▁प्रकारः	-10.9231
▁पण्य	-10.9231
ज्यते	-10.9232
नीत	-10.9232
नीयः	-10.9234
ापर	-10.9234
▁व्याप	-10.9236
▁हेतोः	-10.9237
▁इत्यतः	-10.9238
▁करणीय	-10.9239
▁समुच्चय	-10.924
▁आवृत्ति	-10.9241
▁अल्	-10.9244
▁रिक्ति	-10.9244
▁मन्त्री	-10.9247
विधं	-10.9248
तैव	-10.9252
▁दाय	-10.9253
धेन	-10.9253
▁नद्य	-10.9254
▁यातु	-10.9257
68	-10.9257
चर्या	-10.9259
वर्ज	-10.9261
▁कुले	-10.9264
विवाह	-10.9265
▁सुन	-10.9265
▁पृथग	-10.9266
▁अध्ययनं	-10.9267
▁समाहित	-10.9267
देन	-10.9268
▁शुद्धं	-10.9269
कन्दुक	-10.927
▁श्रीकृष्ण	-10.9272
श्चतुर्	-10.9273
▁हृष्ट	-10.9274
▁रुपए	-10.9275
ैकेन	-10.9275
गामिन	-10.9277
▁परमे	-10.9279
धीयते	-10.928
▁दृष्टम्	-10.9281
पदानि	-10.9281
प्रतियोगि	-10.9281
▁शब्दाः	-10.9282
संस्कृति	-10.9286
मुन्	-10.9288
▁पा०	-10.9288
▁वृक्षः	-10.9288
फला	-10.9288
वित	-10.9289
द्वारेण	-10.929
▁क्षिति	-10.9291
▁छम्ह	-10.9292
शालिन	-10.9293
▁कृश	-10.9296
▁प्रसिद्धा	-10.9297
विना	-10.9299
ाभ्या	-10.9301
कार्याणि	-10.9302
िनौ	-10.9302
ुत्तम	-10.9303
▁समर्पय	-10.9304
ळी	-10.9304
द्विष	-10.9305
▁आनय	-10.9306
ण्ड्	-10.931
वर्त्म	-10.9311
तीनां	-10.9314
▁वाऽ	-10.9315
▁घटः	-10.9315
सान	-10.9318
▁नपुंसक	-10.9319
ितम	-10.932
ानो	-10.932
यन्ती	-10.932
जीवनं	-10.932
विवर्जित	-10.9321
भित्त	-10.9322
भ्रष्ट	-10.9322
बोधि	-10.9322
ञ्ञ	-10.9323
▁पवमान	-10.9324
वादे	-10.9324
विश्वास	-10.9325
▁यथावत्	-10.9325
▁प्रत्युवाच	-10.9328
विनिमय	-10.9328
▁घनत्व	-10.9329
72	-10.9334
▁८४	-10.9335
धरः	-10.9336
ागतः	-10.9336
▁ग्रामीण	-10.9339
▁भूमिः	-10.934
▁कृप	-10.934
क़	-10.9341
्द्य	-10.9342
▁परां	-10.9342
पूज्य	-10.9343
▁प्रातःकाले	-10.9343
▁सोमः	-10.9344
ात्पर	-10.9344
▁दशक	-10.9345
रुज	-10.9346
भाषितम्	-10.9349
च्छाया	-10.9349
ूह	-10.935
▁मता	-10.9356
▁आईपी	-10.936
{	-10.936
▁तदनन्तरं	-10.9361
पेक्षित	-10.9361
▁दूरस्थ	-10.9363
कारकः	-10.9363
▁भगवता	-10.9363
लिङ	-10.9366
मेल	-10.9368
ूल	-10.9368
▁वैष्णव	-10.937
▁ध्रुवं	-10.9372
ोपचार	-10.9373
तारक	-10.9373
▁जाताः	-10.9373
एँ	-10.9374
▁निस्	-10.9377
शीला	-10.9378
▁जुहोति	-10.9384
▁यय	-10.9384
▁सांस्कृतिक	-10.9385
▁अधिकारः	-10.9385
▁सिद्ध्यति	-10.9386
▁शोभते	-10.9386
▁नृपति	-10.9386
▁पतति	-10.9388
▁प्रथित	-10.9391
▁पीतं	-10.9391
लन	-10.9395
▁तदुप	-10.9396
▁छन्दसि	-10.9396
प्राप्तौ	-10.9399
द्भव	-10.9401
सर्वस्व	-10.9402
▁क्षयं	-10.9405
तुल	-10.9406
▁द्यूत	-10.9407
▁यादव	-10.9407
▁अक्षय	-10.9407
थापि	-10.9408
ee	-10.9412
द्रोह	-10.9413
भूः	-10.9413
विदां	-10.9413
वर्ती	-10.9415
▁शब्दे	-10.9416
रक्षित	-10.9417
ज्ञप्त	-10.9418
ig	-10.9419
निर्देशः	-10.9423
हिंस	-10.9425
▁शैक्षणिक	-10.9425
▁अदृश्य	-10.9425
▁योजनानां	-10.9428
मतो	-10.9429
▁किञ्चिद्	-10.943
▁स्थानम्	-10.9431
ोऽव	-10.9431
▁स्वामि	-10.9431
शाख	-10.9435
पुरस्कार	-10.9435
▁प्रतिष्ठित	-10.9437
रेखा	-10.9438
▁अन्वय	-10.9438
▁विराज	-10.9439
धारित	-10.944
प्रतिषिद्ध	-10.944
▁Live	-10.9441
समाचार	-10.9445
▁प्रयोक्तव्य	-10.9446
मनाः	-10.9447
समीपे	-10.9447
सञ्चार	-10.9447
▁वर्गीकरण	-10.9451
स्पृश	-10.9452
▁खड्ग	-10.9453
पल्लव	-10.9455
▁अस्मा	-10.9455
पत्त	-10.9455
पथे	-10.9456
▁विरोधः	-10.9456
▁चक्रे	-10.9457
▁उकिं	-10.9461
▁प्रकृत्या	-10.9463
▁सर्वशः	-10.9463
▁स्थावर	-10.9463
यन्त्य	-10.9464
▁आभार	-10.9472
वत्त्व	-10.9473
▁कस्मान्न	-10.9477
▁बै	-10.948
▁क्रतु	-10.9481
७४	-10.9483
▁1.1	-10.9484
फलम्	-10.9486
▁हस्ति	-10.9486
▁नायं	-10.9487
परायण	-10.9487
मित्युक्त	-10.9493
▁यजु	-10.9494
न्तौ	-10.9495
q	-10.9495
वन्तो	-10.9496
वाला	-10.9496
▁ददृश	-10.9498
▁रुग्ण	-10.9499
प्रेक्ष्य	-10.95
त्युप	-10.95
▁गोविन्द	-10.9501
▁अवकाश	-10.9502
▁स्कन्द	-10.9504
▁गां	-10.9504
▁शृणोति	-10.9504
▁व्यवस्थितः	-10.9509
▁गहन	-10.951
▁यूयम	-10.9512
ीकृता	-10.9513
▁हस्तेन	-10.9517
▁प्रजापतिः	-10.9518
▁सम्बद्ध	-10.9518
च्छु	-10.952
▁गणेश	-10.952
क्ष्यामि	-10.952
पठ	-10.9522
दंश	-10.9524
ेष्यते	-10.9524
वकाश	-10.9525
पाश	-10.9526
मात्रा	-10.9526
/1	-10.9526
शत्	-10.9527
ट्र	-10.953
योगतः	-10.9531
ध्यक्ष	-10.9531
शस्त	-10.9532
बभूव	-10.9533
गोल	-10.9533
विदः	-10.9533
ेतद्	-10.9533
नद्य	-10.9535
▁लक्षणा	-10.9535
▁वर्तमानः	-10.9536
योगो	-10.9537
▁लोकेषु	-10.9537
पतिर्	-10.9538
कर्त्ता	-10.9539
▁अपूर्व	-10.9541
▁करुण	-10.9542
▁९५	-10.9543
▁दण्डः	-10.9543
बो	-10.9544
▁कर्मणां	-10.9545
▁सम्भाषणम्	-10.9549
ावर	-10.955
▁श्रेणीः	-10.9553
▁मृत्	-10.9554
सङ्गत	-10.9555
ुत्पत्ति	-10.9556
▁साक्षाद	-10.9556
जनित	-10.9557
▁हविर्	-10.9558
▁पृथु	-10.9559
▁प्रतिबन्ध	-10.956
व्यास	-10.956
धव	-10.9561
लोपे	-10.9562
▁स्त्रियो	-10.9562
पशु	-10.9565
▁संधि	-10.9567
▁धर्मज्ञ	-10.9567
▁भूमिका	-10.957
▁अयि	-10.9572
▁जगती	-10.9574
▁पानीय	-10.9575
दक्ष	-10.9576
्यन्तर	-10.9578
▁संन्यास	-10.9579
ist	-10.9582
९५	-10.9582
▁नित्यम	-10.9583
क्षेत्रं	-10.9584
सङ्	-10.9586
▁अत्	-10.9587
पट्ट	-10.959
▁वासः	-10.959
▁कथयन्ति	-10.9591
च्छति	-10.9592
दाम	-10.9592
▁५८	-10.9592
▁रामस्य	-10.9598
पश्यन्	-10.9598
पत्रिका	-10.9598
▁महादेव	-10.9603
▁स्वदेश	-10.9604
शव	-10.9605
▁जन्मदिन	-10.9609
▁क्षणिक	-10.9612
मश्नुते	-10.9612
गणित	-10.9613
›	-10.9613
▁(1	-10.9613
▁विश्राम	-10.9614
▁दद्या	-10.9619
फी	-10.9621
वाद्य	-10.9623
भ्युपगम	-10.9623
▁विनश्यति	-10.9624
मापन्न	-10.9625
▁गम्भीर	-10.9627
▁व्याप्ति	-10.9629
▁एताः	-10.9629
ात्मान	-10.9629
हन्ति	-10.963
णाय	-10.9631
▁वक्ष	-10.9634
दैवत	-10.9635
▁०१	-10.9636
▁देहं	-10.9637
मूढ	-10.9644
▁भवेयुः	-10.9644
▁सद्यो	-10.9645
▁कुपित	-10.9645
ज्ञापक	-10.9647
▁यस्यां	-10.9647
▁तृप्ति	-10.9647
ऽधिक	-10.9647
आप	-10.9648
▁व्यप	-10.9649
▁लम्ब	-10.9649
▁बुधैः	-10.9649
परम्	-10.965
▁बलात्	-10.965
▁शक्तः	-10.9651
▁शशि	-10.9652
ST	-10.9653
प्ट	-10.9654
वर्षीय	-10.9654
▁सुमह	-10.9656
परित्याग	-10.9656
देक	-10.9656
▁छे	-10.9659
र्जित	-10.9661
va	-10.9664
कार्येषु	-10.9664
▁घा	-10.9664
▁बहून्	-10.9665
ुद्ध	-10.9665
विद्यया	-10.9666
परोक्ष	-10.9667
▁वर्षति	-10.9669
75	-10.967
▁स्फोट	-10.9671
▁विदूषकः	-10.9672
पतित	-10.9672
ामो	-10.9675
धारिण	-10.9675
▁ग्रन्थः	-10.9677
est	-10.9678
▁लोप	-10.9678
▁भगवत	-10.9683
पर्ण	-10.9683
▁हानिः	-10.9685
वाह्य	-10.9686
धिष्ठित	-10.9687
▁राजन	-10.9689
वशं	-10.969
जाता	-10.9692
▁समुचित	-10.9692
प्रकारेण	-10.9693
▁मन्त्रेण	-10.9694
▁माला	-10.9698
स्पष्ट	-10.9702
▁कदाचिद्	-10.9703
कार्यम्	-10.9703
ग्री	-10.9705
प्रबन्ध	-10.9705
उद	-10.9706
स्तान	-10.9708
▁प्रभूत	-10.9709
▁सन्तोष	-10.9709
कर्माणि	-10.9711
▁महेश	-10.9716
क्स्	-10.9717
प्रतिपक्ष	-10.9719
▁सुधा	-10.972
ायुः	-10.9722
निबन्धन	-10.9723
▁सुव्रत	-10.9728
pe	-10.9731
▁पार्टी	-10.9732
▁पूर्वपक्ष	-10.9732
त्युच्यते	-10.9732
हेतवः	-10.9733
▁द्विजोत्तम	-10.9733
देवस्य	-10.9735
पद्	-10.9735
▁शक्त्या	-10.9736
▁२०१५	-10.9741
▁कृतकृत्य	-10.9742
▁विषाद	-10.9744
साई	-10.9745
▁वचनात्	-10.9747
नार्थं	-10.9748
ाली	-10.9749
मित्येव	-10.9749
▁यद्येवं	-10.9752
सन्धि	-10.9753
णेन	-10.9758
▁शङ्का	-10.976
▁इत्येष	-10.9762
िक्	-10.9762
भिधेय	-10.9764
▁प्रतिबिम्ब	-10.9765
▁शहर	-10.9765
▁शीर्षक	-10.9765
श्याम	-10.9766
▁द्विजः	-10.9768
▁कदाचि	-10.9769
भार्य	-10.977
▁गल	-10.9771
▁राजस्थान	-10.9771
▁यमः	-10.9773
▁सम्भाषण	-10.9775
▁तापमान	-10.9776
प्रतिपत्	-10.9781
निज	-10.9782
▁भजते	-10.9782
▁तन्मे	-10.9783
ोषित	-10.9784
▁सुखद	-10.9788
con	-10.9789
▁अध्यापक	-10.979
▁मनोरञ्जन	-10.9791
स्रव	-10.9794
ग्निः	-10.9794
वेन	-10.9794
▁भिक्षा	-10.9795
ज्जा	-10.9796
ard	-10.9796
15.	-10.9797
34	-10.9798
▁कथितः	-10.9798
▁परिवर्तनं	-10.98
व्ह	-10.98
▁हस्तौ	-10.98
ालयं	-10.9802
▁निवेद्य	-10.9802
▁प्रसव	-10.9804
निर्धारण	-10.9806
▁De	-10.9807
वाची	-10.9808
▁केन्द्रीय	-10.9809
38	-10.981
ौघ	-10.981
नामक	-10.981
▁वर्षसहस्र	-10.9811
दर्शिन	-10.9811
▁सिर	-10.9812
तथोक्त	-10.9815
क्ष्म	-10.9818
याग	-10.9819
विमान	-10.9819
वरे	-10.982
▁व्यतिरेक	-10.982
ताव	-10.9821
संरक्षण	-10.9821
▁लक्ष्यं	-10.9821
▁त्व्	-10.9823
▁प्रयात	-10.9823
▁खण्डः	-10.9826
▁सोमो	-10.9826
विघ्न	-10.9827
▁दोषाः	-10.9827
साधनम्	-10.983
रहितं	-10.983
तारं	-10.9831
▁निरीक्षण	-10.9833
▁बन	-10.9834
ीन्द्र	-10.9836
ाच्	-10.9836
व्यापक	-10.9838
▁8.0	-10.9838
हरेत्	-10.9839
समागम	-10.9839
त्तं	-10.9842
कर्म्मणि	-10.9842
ाधिकारः	-10.9843
कर्मणः	-10.9844
▁बहुषु	-10.9844
भाषायाः	-10.9845
मित्यत	-10.9845
हौ	-10.9847
▁निंतिं	-10.985
▁थुगु	-10.985
विशेषे	-10.9851
▁वायुर्	-10.9851
▁33	-10.9851
वतु	-10.9853
▁मल्ल	-10.9853
▁बाधते	-10.9854
▁पश्च	-10.9855
▁पठित्वा	-10.9857
▁समिध	-10.9858
▁विंशति	-10.9858
▁जर्मन	-10.9859
प्रकर्ष	-10.9862
िकम्	-10.9862
दायक	-10.9862
केगु	-10.9862
मुग्ध	-10.9863
77	-10.9864
खो	-10.9866
ितव्यं	-10.9866
युग्म	-10.9867
पूरण	-10.9867
ानुग्रह	-10.9867
गान	-10.9868
भास्कर	-10.9869
▁नद्यः	-10.9869
▁वेदान्त	-10.9872
न्तम्	-10.9873
दूषण	-10.9874
सम्पत्	-10.9875
▁वृत्तं	-10.9876
all	-10.9876
▁वदन	-10.9876
▁७६	-10.9876
पुनर्	-10.9877
▁पर्	-10.9877
प्रयोजक	-10.9879
▁अनन्य	-10.9881
▁वयो	-10.9881
सत्व	-10.9882
ीषु	-10.9882
तमो	-10.9882
if	-10.9884
तव्यं	-10.9884
▁कीदृशी	-10.9884
▁स्युर्	-10.9887
मन्तव्य	-10.9887
धूम	-10.9893
ेशः	-10.9894
स्त्वां	-10.9895
▁सुरा	-10.9896
॑ष	-10.9897
▁ग्रीष्मे	-10.99
▁महद्	-10.9901
्वं	-10.9901
शैल	-10.9903
रूपो	-10.9903
समाधान	-10.9904
विरोधः	-10.9907
▁पृ०	-10.9907
▁गोपाल	-10.9908
▁नास्तीति	-10.9908
▁तुलसी	-10.991
▁छेँ	-10.9914
मात्मनः	-10.9915
▁सूचयति	-10.9917
वाप्य	-10.9917
▁कर्तृत्व	-10.9917
op	-10.9919
अब्	-10.9919
किञ्चि	-10.9921
▁विद्वान	-10.9922
▁वर्त्तते	-10.9922
▁पुंसां	-10.9923
पाखें	-10.9924
▁आगामि	-10.9925
▁ह्यः	-10.9929
र्भवेत्	-10.993
▁अतिशय	-10.9931
िष्यामः	-10.9933
▁स्वप	-10.9936
▁विव	-10.9937
मन्द	-10.9939
▁भ्रष्ट	-10.9941
▁येषा	-10.9942
▁जगतां	-10.9943
▁अम्ब	-10.9945
त्यादि	-10.9947
▁द्वारं	-10.9949
▁बो	-10.9949
▁मेरो	-10.995
क्षेत्रेषु	-10.9951
मुद्दिश्य	-10.9952
▁समारोह	-10.9953
ci	-10.9954
हता	-10.9954
मिच्छामि	-10.9956
गुणः	-10.9957
▁मानवाः	-10.9957
जज्ञ	-10.9959
माःगु	-10.996
▁एकदेश	-10.996
▁एतां	-10.9962
शीलः	-10.9962
▁पूत	-10.9967
तेऽ	-10.9967
निलय	-10.9968
▁जीवनस्य	-10.9969
▁आदाय	-10.997
▁मयूर	-10.997
▁(4)	-10.9971
सित	-10.9972
विविक्त	-10.9972
रक्षक	-10.9972
देशिक	-10.9972
▁03	-10.9973
ुल	-10.9974
▁पुष्पं	-10.998
वारि	-10.9982
धिकृत	-10.9986
ुत्थान	-10.9986
पाठः	-10.9986
▁इच्छन्ति	-10.9987
लेश	-10.999
▁कवचं	-10.999
क्ता	-10.9991
वादिनः	-10.9992
ल्ड	-10.9993
▁६६	-10.9993
60	-10.9993
लकार	-10.9996
▁असमर्थ	-10.9997
सद्भाव	-10.9998
▁माग	-10.9999
यान्ति	-11
परिभाष	-11
िने	-11.0004
्यपि	-11.0006
पूर्त	-11.0007
▁एल	-11.0007
वाक्ये	-11.0008
हेतोः	-11.001
▁करणं	-11.0013
▁परी	-11.0014
पिशाच	-11.0014
▁तेभ्यो	-11.0018
▁तीक्ष्ण	-11.0018
di	-11.0018
▁सर्वां	-11.0019
▁इत्यस्मिन्	-11.0021
मतं	-11.0023
जनैः	-11.0025
गत्या	-11.0025
संवृत	-11.0025
्रियते	-11.0026
त्र्य	-11.0026
संयुक्तं	-11.0027
च्छन्द	-11.0027
▁क्रमः	-11.003
▁सहयोग	-11.0033
▁रक्षतु	-11.0035
भूतो	-11.0037
▁ईश्वरस्य	-11.0039
▁पदानि	-11.0041
व्रतः	-11.0044
लङ्घ	-11.0045
▁प्रकृतिं	-11.0045
बध	-11.0046
88	-11.0047
त्यजेत्	-11.005
▁पूर्णा	-11.0051
▁महद	-11.0051
राज्यम्	-11.0052
▁अग्निर्	-11.0053
॒ह	-11.0053
भै	-11.0054
▁लग	-11.0057
▁न्यू	-11.0058
▁प्रतिवर्षं	-11.0059
मुवाच	-11.006
न्थ	-11.0062
वक्ता	-11.0063
▁यजेत	-11.0063
क्का	-11.0064
ङ्क्ष	-11.0065
▁इत्यु	-11.0066
▁६८	-11.0066
▁कश्चि	-11.0067
घाट	-11.0068
▁मानसं	-11.0068
ानेव	-11.007
स्तू	-11.0071
याँ	-11.0071
▁अनुवर्त	-11.0072
क्रान्ति	-11.0072
चत्वार	-11.0073
रेल	-11.0073
प्रसक्त	-11.0073
←	-11.0074
▁मामेव	-11.0079
ाशा	-11.0079
▁विलक्षण	-11.008
ान्ता	-11.0082
सचिव	-11.0085
व्व	-11.0086
प्रीति	-11.0087
▁कॊ	-11.0089
▁बाल्य	-11.0091
▁चुनाव	-11.0093
▁स्त्रिय	-11.0095
▁प्रदीप	-11.0098
▁दीर्घकाल	-11.0103
$1	-11.0103
▁त्रै	-11.0104
▁करिष्यसि	-11.0105
▁व्याप्य	-11.0105
तीय	-11.0106
▁अधिका	-11.0106
▁२०२०	-11.0108
▁वाद्य	-11.0108
▁सवित	-11.011
ष्या	-11.011
▁आङ्ग्लभाषाया	-11.0111
▁अप्	-11.0114
▁शो	-11.0114
मध्यस्थ	-11.0118
प्रेम	-11.0118
......	-11.0119
▁वृद्धिं	-11.012
▁चित्ते	-11.012
पती	-11.0127
▁युधि	-11.0127
ऽभवत्	-11.0127
▁दत्ता	-11.0127
र्जा	-11.0128
निमेष	-11.0129
▁तादृशं	-11.013
▁उपाधि	-11.0131
ेत्यादिना	-11.0134
▁नियन्त्रण	-11.0137
क्या	-11.0137
▁तदेत	-11.0142
▁वक्ता	-11.0142
▁थन	-11.0144
▁गुणैः	-11.0144
ॆन	-11.0145
हितः	-11.0146
तंत्र	-11.0149
दीक्षित	-11.0149
▁पृष्ठतः	-11.015
भीष	-11.0151
▁चत्वारि	-11.0151
ाकुल	-11.0152
दिग्ध	-11.0152
त्रये	-11.0152
▁समीचीन	-11.0152
▁वय्कःया	-11.0154
▁भागवत	-11.0154
यामः	-11.0155
दनु	-11.0163
पक्षस्य	-11.0163
▁200	-11.0164
▁जहि	-11.0166
ँय्	-11.0167
▁तसक	-11.0168
▁निधाय	-11.017
▁पुष्कर	-11.0171
▁इत्यादयः	-11.0172
▁पठ्यते	-11.0173
ष्क	-11.0178
▁प्राप्स्य	-11.0179
▁ओज	-11.018
मात्मानं	-11.018
ोद्देश	-11.0181
500	-11.0181
द्रु	-11.0182
▁प्रसीद	-11.0182
▁सम्प्राप्त	-11.0182
▁Xxx	-11.0183
▁तकं	-11.0183
▁तुम्ह	-11.0184
वेश्म	-11.0185
▁९१	-11.0188
▁नमस्ते	-11.0189
▁किमिति	-11.0189
▁पूज्यते	-11.0195
वृत्त्या	-11.0197
▁पितामहः	-11.0201
▁सुप्रभात	-11.0202
▁कोष्ठ	-11.0202
▁शतक	-11.0203
कृष	-11.0203
▁साकं	-11.0204
ापत्ति	-11.0204
▁उच्चतम	-11.0204
थाः	-11.0205
ज्ञानेन	-11.0205
समीक्ष	-11.0205
कर्तुं	-11.0206
ञि	-11.0207
▁अमर	-11.0208
▁उ०	-11.0208
▁प्रतिपादय	-11.0209
एमपी	-11.0209
ne	-11.0209
कुले	-11.021
▁भूया	-11.021
▁वृत्र	-11.0213
▁अचि	-11.0214
▁खोजषब्द	-11.0214
▁क्षत्रिय	-11.0215
▁सू०	-11.0217
▁मासस्य	-11.0221
गान्	-11.0222
▁प्रकृतेः	-11.0224
साध	-11.0225
मुच्च	-11.0226
▁स्यादित्य	-11.0226
प्रतिष्ठ	-11.0227
▁आज्य	-11.0231
▁विफल	-11.0232
▁विग्रह	-11.0232
ारभ्य	-11.0238
▁फलित	-11.0238
▁संस्थायाः	-11.0239
▁दत्तवान्	-11.024
▁गिरा	-11.0242
स्मृत	-11.0244
▁यथाह	-11.0245
टर्	-11.0245
स्वपि	-11.025
▁प्रचलित	-11.025
नगरस्य	-11.025
▁विच	-11.025
वतो	-11.0251
▁सुखेन	-11.0257
▁त्वाम	-11.0257
ान्ध	-11.0257
माहुः	-11.0258
गुप्त	-11.0258
▁ममापि	-11.0258
▁कारय	-11.0263
▁अप्रत्यक्ष	-11.0263
▁द्विगुणं	-11.0263
द्ग	-11.0264
लया	-11.0264
ज्जीव	-11.0267
विध्य	-11.0268
▁अयमेव	-11.0269
दिश्य	-11.0275
व्याख्यान	-11.0275
▁ममैव	-11.0276
▁भुङ्क्ते	-11.0276
▁प्रयोजक	-11.0277
▁यदुक्तं	-11.028
व्रतं	-11.0281
चिह्न	-11.0281
▁तत्तु	-11.0282
▁अविद्या	-11.0283
▁अरुण	-11.0284
योगिन	-11.0286
▁ब्ल	-11.0287
हीनः	-11.0287
निद्र	-11.0288
▁सम्प	-11.0291
वृत्तौ	-11.0293
▁कूर्म	-11.0294
▁अध्याये	-11.0295
यिक	-11.0296
▁गुरोः	-11.0297
ry	-11.0298
कुर्व	-11.0299
्यमाना	-11.0301
युक्ताः	-11.0302
प्रतिषेधे	-11.0303
▁पुनर्न	-11.0304
निर्भर	-11.0306
पर्	-11.0311
वादिना	-11.0312
हरुः	-11.0312
▁अनुवर्तते	-11.0313
माल्य	-11.0313
▁परिवर्तित	-11.0313
▁चाहं	-11.0314
▁कृत्व	-11.0314
प्रत्या	-11.0316
ांत	-11.0317
▁राति	-11.0319
▁धनेन	-11.0319
▁द्रष्टा	-11.0319
लङ्कृत	-11.0325
▁60	-11.0327
▁सै	-11.0327
दृष्ट्वा	-11.0328
ेष्वेव	-11.033
▁भुव	-11.0331
दृश्यते	-11.0333
कण्टक	-11.0335
▁पृष्ठभूमि	-11.0337
▁पुरुषा	-11.0338
▁Sentence	-11.0339
वेदना	-11.034
क्षरं	-11.0341
{*	-11.0341
नुभव	-11.0341
छु	-11.0343
*}	-11.0343
▁निष्फल	-11.0345
मनेन	-11.0345
द्ब	-11.0346
क्रे	-11.0347
▁तरि	-11.0348
▁भाः	-11.0348
▁प्राप्नु	-11.0353
▁शक्यन्ते	-11.0353
▁पितुर्	-11.0354
▁ऋग्वेद	-11.0354
▁लिखति	-11.0354
विधिना	-11.0354
sp	-11.0356
नुग्रह	-11.0361
▁विस्मित	-11.0363
▁ताभ्यां	-11.0363
यितु	-11.0367
त्तम	-11.0368
विभूति	-11.0369
क्रि	-11.0371
▁अहमपि	-11.0373
▁सेवक	-11.0373
ाभिप्राय	-11.0375
चतुर्	-11.0376
वनी	-11.0377
स्तान्	-11.0378
मितं	-11.0378
▁लब्ध्वा	-11.0379
▁11.	-11.0381
योरपि	-11.0382
▁विचारणा	-11.0385
यन्न	-11.0386
▁दिवो	-11.0387
▁वयः	-11.0387
प्रभु	-11.0389
न्यून	-11.039
्रि	-11.039
वारण	-11.0395
न्त्व	-11.0396
▁पक्षी	-11.0401
ऱ	-11.0401
▁कोविड्	-11.0401
▁जम्मू	-11.0402
▁चिह्न	-11.0402
▁टेनिस	-11.0402
▁गौतम	-11.0404
▁मनोहर	-11.0404
ान्येव	-11.0406
शिक्षित	-11.0409
दोषः	-11.041
ार्णव	-11.0411
▁स्वायत्त	-11.0414
▁►	-11.0414
बीसी	-11.0418
मन्थ	-11.0418
▁विसर्ग	-11.0418
An	-11.0419
▁ऊचुः	-11.0419
भिधाय	-11.0419
▁तदहं	-11.0419
▁उपेक्ष	-11.042
मङ्गल	-11.0425
कर्त्र	-11.0426
मिष्यते	-11.0426
▁ताम्र	-11.0428
नेतुं	-11.0428
र्चित	-11.0429
मुखे	-11.0436
▁विधानेन	-11.0439
स्त्वा	-11.044
▁वितर	-11.0442
९१	-11.0444
वर्जितः	-11.0445
विरोधि	-11.0446
षष्टि	-11.0446
▁कोण	-11.0447
▁स्वीकृत्य	-11.045
▁प्या	-11.045
वरि	-11.0451
विपर्यय	-11.0452
८४	-11.0452
▁उत्तमः	-11.0453
▁आगमन	-11.0454
त्यादिना	-11.0455
bo	-11.0457
▁अब	-11.0457
▁तल	-11.0459
र्थो	-11.0461
चतुर्थ	-11.0463
निर्गम	-11.0463
▁बना	-11.0464
पाठ्यक्रम	-11.0465
▁Read	-11.0466
▁यद्यत्	-11.0466
▁2013	-11.0468
सौभाग्य	-11.0469
वर्तेत	-11.0469
▁कौरव	-11.047
▁भवते	-11.047
द्युम्न	-11.0471
ह्या	-11.0474
▁इत्यर्थे	-11.0474
▁हजार	-11.0474
नाव	-11.0475
ight	-11.0476
▁धयागु	-11.0477
भुक्त	-11.0477
ाकारं	-11.0478
कमल	-11.0478
ाधिकं	-11.048
▁नित्यः	-11.0481
ix	-11.0481
▁जगतो	-11.0482
▁राजस	-11.0483
▁नासीत्	-11.0484
▁अस्म	-11.0487
ाज्य	-11.0487
▁शय्या	-11.0488
क्षीर	-11.0489
ध्वा	-11.0491
टिका	-11.0491
▁स्पृष्ट	-11.0492
▁पक्व	-11.0492
ुपाय	-11.0495
▁सिंहासन	-11.0497
▁मनुष्या	-11.0497
▁हृद्य	-11.0498
▁मते	-11.0498
्तुं	-11.05
छात्र	-11.0503
त्रैव	-11.0503
▁बन्द	-11.0503
TV	-11.0505
▁गतो	-11.0507
क्षणे	-11.0509
▁तथागत	-11.0515
खण्डे	-11.0515
▁सिद्धे	-11.0515
▁प्रत्यये	-11.0515
मन्न	-11.052
▁गूढ	-11.0522
▁प्रसिद्धम्	-11.0522
इक	-11.0523
▁इत्याद्य	-11.0523
बै	-11.0524
▁उत्त	-11.0525
▁बलिं	-11.0527
▁करना	-11.0527
लेखन	-11.0528
▁निश्	-11.0528
ni	-11.0529
५००	-11.0529
▁अन्ताराष्ट्रिय	-11.0529
ादाव	-11.0531
▁बृहस्पति	-11.0532
क्थ	-11.0535
▁विस्मर	-11.0536
▁महाबल	-11.0537
▁उपलभ्यते	-11.0538
▁vs	-11.054
ार्च	-11.054
▁बजे	-11.0542
तीह	-11.0542
ध्न	-11.0542
▁विष्णोः	-11.0544
▁आत्मन	-11.0548
▁मुक्तः	-11.0549
लघु	-11.055
▁तस्मान्	-11.0551
▁प्रतीक	-11.0551
प्रतिपन्न	-11.0553
व्यो	-11.0555
ञ्जलि	-11.0555
▁भाष्ये	-11.0556
वज्र	-11.0556
▁लव	-11.0557
▁पवित्रं	-11.0558
सम्प्रदाय	-11.0558
▁अपश्य	-11.0558
▁हिन्दू	-11.056
▁दयेक	-11.0563
विष्णो	-11.0565
ह्ल	-11.0566
os	-11.0567
▁खे	-11.0568
▁त्रुटि	-11.0569
▁पूर्वम	-11.057
▁व्याख्यातम्	-11.0576
▁वायव	-11.0578
▁उत्तरे	-11.058
नित्यत्व	-11.058
पत्रम्	-11.0582
मन्त्रेण	-11.0582
ण्ट्	-11.0583
▁रूपये	-11.0585
समेत	-11.0586
श्रान्त	-11.0587
ीत्यर्थः	-11.0587
माणः	-11.0588
▁आयाति	-11.0589
▁यदी	-11.0589
लोपो	-11.0589
▁८६	-11.059
▁रुपं	-11.059
रूप्यक	-11.059
10.	-11.0592
मुक्तो	-11.0593
▁भीष्म	-11.0594
ice	-11.0595
ाशन	-11.0597
वाप	-11.0598
विनय	-11.06
िको	-11.0601
करोत्	-11.0601
▁निश्चित्य	-11.0603
▁सर्व्वे	-11.0603
सै	-11.0604
▁क्षुधा	-11.0604
नुपलब्ध	-11.0606
▁इरा	-11.0606
प्रयाण	-11.0607
▁यतस्त	-11.0608
रूपिण	-11.0609
पुच्छ	-11.0611
▁मेरु	-11.0612
निव	-11.0613
▁योगः	-11.0613
▁साम्राज्य	-11.0617
निर्वाण	-11.0618
मधु	-11.0618
▁पश्यन्तु	-11.0619
▁कलश	-11.0623
हृष्ट	-11.0625
प्रदर्शन	-11.0627
▁आदर्श	-11.0627
ालोक	-11.0628
▁मुक्ता	-11.0629
टै	-11.0631
▁जिं	-11.0631
क्रीडायां	-11.0631
▁सूत्रम्	-11.0633
▁तावन्	-11.0634
ग्ग	-11.0635
भिप्रेत	-11.0636
कूप	-11.0636
प्रणीत	-11.0637
रै	-11.0639
ज्ञाना	-11.0641
▁किलो	-11.0642
▁जागृ	-11.0642
ापयति	-11.0642
धियो	-11.0644
भवान्	-11.0648
ासीन	-11.0649
प्रत्यये	-11.0651
सुन्दर	-11.0652
ीनाम्	-11.0654
प्रत्ययो	-11.0655
▁सार्वजनिक	-11.0657
विशारद	-11.0657
▁नास	-11.0657
▁त्र्य	-11.0658
जगाम	-11.0658
▁भ्रात	-11.0663
ायत्त	-11.0665
▁वृद्धः	-11.0665
इपिं	-11.0666
धर्म्म	-11.0668
▁विमानं	-11.0669
▁लीला	-11.0669
लिया	-11.0672
▁प्राणान्	-11.0673
▁विषयाः	-11.0674
▁तैर्	-11.0676
▁04:	-11.0676
दिह	-11.0678
▁जैन	-11.068
सवर्ण	-11.068
▁दुःखेन	-11.068
▁हन्यते	-11.0681
▁विभु	-11.0683
▁दिनेश	-11.0684
▁जीवनम्	-11.0686
▁स्वच्छ	-11.0686
▁ऐक	-11.0687
त्यय	-11.0692
ारे	-11.0693
69	-11.0694
▁स्यान्न	-11.0696
▁भग्न	-11.0697
संज्ञित	-11.0698
▁PDF	-11.0698
▁स्वेन	-11.0699
▁वैश्य	-11.07
▁शत्रव	-11.0701
पत्न्य	-11.0701
रुपेण	-11.0702
कर्तृ	-11.0703
र्पय	-11.0705
▁स्वयां	-11.0706
ill	-11.0708
ाचरण	-11.071
खन	-11.0713
▁दिवसः	-11.0713
नील	-11.0714
▁समृद्धि	-11.0716
▁नख	-11.0717
घर	-11.0718
mo	-11.0718
र्थि	-11.0721
▁स्पर्ध	-11.0721
▁नवदिल्ली	-11.0722
▁पोर्नो	-11.0722
विस्तीर्ण	-11.0722
द्वारं	-11.0724
पात्रे	-11.0725
▁करोड़	-11.0725
▁आशिष	-11.0727
▁प्रणम	-11.0728
भृत्य	-11.0728
ज्ञानस्य	-11.0728
▁बालानां	-11.0728
र्मि	-11.0728
मेवेति	-11.0731
ence	-11.0732
ध्वम्	-11.0735
मोहन	-11.0736
▁दे॒व	-11.0737
▁आरक्षक	-11.0737
जगत्	-11.0739
▁अगच्छत्	-11.074
बह	-11.0741
ैल	-11.0742
▁विकल्पेन	-11.0745
पिष्ट	-11.0745
ER	-11.0745
▁सकला	-11.0745
ोपाधि	-11.0746
ावस्थाया	-11.0746
भक्ता	-11.0746
ारः	-11.0747
लप	-11.0748
▁जवा	-11.0748
▁साक्ष्य	-11.0751
ाप्नोति	-11.0751
सकाश	-11.0751
षट्	-11.0752
▁पाण्डु	-11.0754
्यैव	-11.0754
विश्रुत	-11.0756
निवृत्तिः	-11.0756
्री	-11.0756
▁सुश्रुत	-11.0756
▁प्रबल	-11.0759
ऽति	-11.076
95	-11.0761
▁तस्मान्न	-11.0761
कृतो	-11.0762
▁तासु	-11.0762
▁भौम	-11.0767
▁सिन्धु	-11.0767
मये	-11.0768
▁जगन्	-11.0771
▁स्फ	-11.0773
▁व्यतीत	-11.0774
स्पृह	-11.0775
युक्त्या	-11.0775
क्ट	-11.0776
क्ष्यते	-11.0778
सन्ति	-11.078
विदो	-11.0781
लॉ	-11.0782
▁संस्कृते	-11.0784
ुच्यते	-11.0784
▁आश्रित	-11.0785
विदित	-11.0786
▁देशान्तर	-11.0786
निबन्ध	-11.0786
ष्यन्ति	-11.0787
▁विकिसूक्तिः	-11.0787
▁सर्वासु	-11.0788
प्रण	-11.0791
▁कासा	-11.0793
छे	-11.0794
दिनाङ्क	-11.0794
▁भरा	-11.0795
अस्मभ्यं	-11.0795
▁34	-11.0795
▁प्राति	-11.0797
धत्त	-11.0797
▁निधन	-11.0798
समो	-11.08
▁छात्राणां	-11.08
ॄणां	-11.08
▁तत्फल	-11.08
▁विनियोगः	-11.0802
व्यवस्थित	-11.0803
ितव्यम्	-11.0803
शक्त्य	-11.0804
विश्वविद्यालय	-11.0806
▁सर्वमेव	-11.0806
▁समाजे	-11.0806
UP	-11.0809
स्त्रिया	-11.081
▁यूप	-11.0812
ध्यास	-11.0814
विश्	-11.0817
उद्	-11.0817
▁हिंसाया	-11.0817
▁दैवं	-11.0818
▁वदेत्	-11.082
फलप्रद	-11.0821
संसदि	-11.0821
हनि	-11.0822
▁एषु	-11.0822
दह	-11.0822
▁तथाविध	-11.0823
▁तेषा	-11.0823
▁विनष्ट	-11.0824
▁ज्याय	-11.0825
गत्य	-11.0827
▁संस्कृतं	-11.0827
न्नपि	-11.0828
▁धरा	-11.0828
▁रोज	-11.0828
▁भद्रं	-11.0828
दत	-11.0828
योश्च	-11.0829
विवरण	-11.0834
मण्डप	-11.0836
न्तम	-11.0837
▁भानु	-11.084
▁यस्त्व	-11.084
भीति	-11.0841
पटल	-11.0842
▁आसीद	-11.0842
▁जीवितम्	-11.0843
▁दर्पण	-11.0846
▁तेजसा	-11.0846
रूप्य	-11.0849
▁शुच	-11.085
ive	-11.0853
▁(--/)	-11.0853
ालयः	-11.0854
▁भयानक	-11.0855
▁प्राणायाम	-11.0858
▁गर्ने	-11.0859
▁भर्ता	-11.086
मर्याद	-11.0866
▁संबध्यते	-11.0867
विन्यास	-11.0867
कक्ष	-11.0868
गृह्णा	-11.0868
▁उच्चैः	-11.0869
क्लिष्ट	-11.0872
ङ्क्	-11.0875
भेदाः	-11.0879
पुत्रो	-11.0879
जलं	-11.0885
▁तद्वद	-11.0885
▁महात्मा	-11.0887
ud	-11.0887
▁ग्रहीत	-11.0892
स्का	-11.0893
श्रेणी	-11.0899
भृश	-11.0902
क्रन्द	-11.0904
ात्मकम्	-11.0909
▁श्रोतु	-11.091
ितेन	-11.0911
▁कीट	-11.0911
वाप्त	-11.0912
▁प्रतिपद	-11.0919
▁व्यावहारिक	-11.0919
᳘	-11.0919
com	-11.0919
कार्य्य	-11.0922
▁----	-11.0922
▁द्वेष्टि	-11.0922
ाच्या	-11.0925
स्वर्ग	-11.0925
▁औं	-11.0926
▁श्लोकः	-11.0927
▁२००८	-11.0928
िन्द्रिय	-11.0929
कारणात्	-11.0931
बध्य	-11.0933
यष्ट	-11.0934
मील	-11.0935
▁घञ्	-11.0943
▁प्रतिवर्ष	-11.0943
मान्य	-11.0944
▁बहुशः	-11.0945
▁कार्यस्य	-11.0945
सूत्राणि	-11.0947
शयन	-11.095
▁ख्यातः	-11.0951
▁राज्ञो	-11.0952
ज्ञानम्	-11.0955
भिमत	-11.0955
संयुत	-11.0958
▁भवद्भिः	-11.0959
▁युष्मान्	-11.0961
दिश्यते	-11.0962
ेदिति	-11.0963
▁संप्रति	-11.0968
जनि	-11.0969
▁६७	-11.0969
सदन	-11.097
मनि	-11.0971
यत्य	-11.0972
नेता	-11.0972
▁भक्षण	-11.0972
ect	-11.0973
▁चलचित्र	-11.0973
व्यापी	-11.0974
▁ज्ञातु	-11.0975
▁दयित	-11.0975
▁संस्कृतिः	-11.0976
भिप्राय	-11.0977
▁विधेयक	-11.0978
▁७२	-11.0984
▁पूरयत	-11.0985
▁कुर्याद	-11.0986
▁कषाय	-11.0987
समन्वितम्	-11.0987
▁उठ	-11.0987
▁निष्क	-11.0987
पोर्ट	-11.0988
▁शत्रून्	-11.0989
▁वासव	-11.099
▁सद्य	-11.0991
▁प्राप्ताः	-11.0991
▁कोपि	-11.0991
तान्त्रिक	-11.0991
वृति	-11.0996
▁अग्रिम	-11.0997
पवित्र	-11.0998
▁वृष्टिः	-11.1
मवाप्नोति	-11.1001
द्वे	-11.1004
▁कल्पते	-11.1004
▁मर्यादा	-11.1005
भाक्	-11.1005
क्षेपण	-11.1008
II	-11.1008
न्तरा	-11.1008
ावसरे	-11.1009
▁भ्रातृ	-11.101
▁व्यवस्थाप	-11.1011
श्चेत्	-11.1011
ज्ञापन	-11.1011
▁जै	-11.1012
▁श्रेष्ठं	-11.1013
ष्टव्य	-11.1014
▁भोज्य	-11.1015
▁महत्त्वं	-11.1018
▁एतान्	-11.1019
▁वायुना	-11.1019
co	-11.102
▁शत्र	-11.1021
वोचत्	-11.1022
धृति	-11.1023
मधुर	-11.1027
भगव	-11.1027
चिंत	-11.1027
▁किमर्थ	-11.103
महर्षि	-11.1032
▁कृतानि	-11.1037
ोद्धार	-11.1037
▁पारं	-11.104
▁छेद	-11.1043
▁शक्नु	-11.1043
▁ब्रह्मणः	-11.1045
विक्षेप	-11.1046
▁भवेन्	-11.1046
तव्यम्	-11.1047
व॒	-11.1047
▁इदमेव	-11.105
▁वाणी	-11.105
▁मलिन	-11.1052
धन्व	-11.1052
▁विद्यार्थी	-11.1054
▁सार्द्धं	-11.1056
मुह	-11.1056
▁भिद्यते	-11.1056
▁क्रियतां	-11.1056
▁नेपालभाषा	-11.1057
▁एवायं	-11.1058
्छ	-11.1058
▁सौन्दर्य	-11.1058
▁पर्ण	-11.1059
▁निर्भय	-11.1059
▁सप्तमे	-11.106
माचरेत्	-11.106
दृष्टे	-11.1062
लङ्कार	-11.1064
ोपकरण	-11.1065
▁आवश्यकम्	-11.1066
▁भूकम्प	-11.1067
परीक्षण	-11.1068
धित	-11.1069
▁ल्याः	-11.1069
▁राजनीतिक	-11.1074
▁तृतीयः	-11.1075
क्रो	-11.1075
कन्द	-11.1078
▁वध्य	-11.1078
▁मरुतः	-11.1079
▁पतिं	-11.1079
▁पृष्ठः	-11.1085
▁धीमता	-11.1085
▁स्वाध्याय	-11.1086
छिन्न	-11.1087
वर्ध	-11.1087
ast	-11.1088
न्स्	-11.1091
▁दिनम्	-11.1099
र्ड्	-11.11
भूताः	-11.11
▁चिद्	-11.1101
न्मुख	-11.1104
▁खादति	-11.1104
▁जयति	-11.1104
ादिव	-11.1106
▁निवारय	-11.1106
▁दूरतः	-11.1109
सर्वकारेण	-11.1109
रप	-11.1109
▁लिपा	-11.1111
▁संग्राम	-11.1114
▁समुत्	-11.1115
वेत्	-11.1115
नाभ	-11.112
Video	-11.1121
रन्त	-11.1122
परिष्कृत	-11.1124
▁मिलित्वा	-11.1124
जित्	-11.1125
▁पृथिव्य	-11.1126
▁दारुण	-11.1126
ारोग्य	-11.1128
नेह	-11.1128
तत्व	-11.1129
▁उद्धर	-11.1129
प्रिया	-11.113
सर्ज	-11.1131
मेघ	-11.1132
▁दशरथ	-11.1134
▁कार्यम	-11.1136
▁प्रेरणा	-11.1137
▁तदुक्तं	-11.1138
▁भये	-11.114
▁सक्त	-11.114
ैर्वा	-11.114
संपद	-11.1141
वृक्षे	-11.1141
▁द्रक्ष्य	-11.1142
परत्व	-11.1142
▁युद्धाय	-11.1144
▁भवसि	-11.1144
हीं	-11.1146
▁प्रविष्टः	-11.1147
ho	-11.1148
▁श्राद्धं	-11.1149
क्तु	-11.1149
वर्च	-11.115
▁तिष्ठन्ति	-11.115
विन	-11.1153
मिमां	-11.1153
▁मान्य	-11.1153
ोक्तिः	-11.1155
▁विवृत	-11.1157
सहस्रं	-11.1157
▁प्रामाण्य	-11.1159
त्रिंशत्	-11.1159
▁औप	-11.1161
▁सर्वार्थ	-11.1162
शूल	-11.1162
▁प्रौढ	-11.1164
▁कनिष्ठ	-11.1165
▁==	-11.1166
▁परिवर्तते	-11.1166
श्रिय	-11.1167
िण्या	-11.1167
▁वयस्य	-11.1172
▁विचारः	-11.1174
गंध	-11.1176
क्रियायां	-11.1178
▁संदेहः	-11.1178
▁भारी	-11.1181
▁पिबति	-11.1182
▁मेने	-11.1184
▁भूतले	-11.1184
क्श	-11.1185
▁वाच्यं	-11.1188
▁विशिष्यते	-11.119
१०२	-11.1192
▁न्हू	-11.1195
क्षिपेत्	-11.1195
सपत्न	-11.1195
▁गौण	-11.1196
▁त्रयाणां	-11.1197
क्षार	-11.1197
वृत्तिर्	-11.1198
रुत	-11.12
▁विध्य	-11.1201
पदवी	-11.1201
तृष्ण	-11.1201
▁प्रविवेश	-11.1203
▁२०६	-11.1203
परिवर्त	-11.1204
▁कनक	-11.1204
कुर्वत	-11.1207
ाधान	-11.1208
▁कौतुक	-11.1211
निधान	-11.1212
▁सम्भवः	-11.1213
▁पूरण	-11.1213
67	-11.1214
▁तस्यै	-11.1214
वस्त	-11.1221
▁चारु	-11.1222
▁इत्येक	-11.1222
वर्म	-11.1222
▁लोकस्य	-11.1223
▁परिहार	-11.1224
▁सर्वेभ्यः	-11.1225
▁प्राणो	-11.1226
▁तत्पुरुष	-11.1226
▁ययुः	-11.1226
यतां	-11.1226
▁कष्टं	-11.1227
▁शान्तिः	-11.1229
दग्ध	-11.123
▁ज्ञानस्य	-11.123
वाञ्छ	-11.1231
दव	-11.1235
▁रक्षणं	-11.1235
र्ज्ज	-11.1236
▁गुह्यं	-11.124
▁विदुर	-11.1241
ालि	-11.1241
▁गात्र	-11.1246
▁आज्ञा	-11.1247
▁शक्	-11.1247
दया	-11.1248
संसर्ग	-11.1248
पितामह	-11.1248
ाङ्गुल	-11.125
▁For	-11.1251
▁आकाशे	-11.1254
▁पातक	-11.1255
▁सात्त्विक	-11.1257
निदान	-11.1258
▁किंचिद्	-11.126
भाण्ड	-11.1261
▁सोऽयं	-11.1262
ity	-11.1263
▁परतो	-11.1265
स्थानानि	-11.1266
ऽभ्य	-11.1266
▁उपपद्यते	-11.1272
ान्तरम्	-11.1273
र्य्या	-11.1276
▁विराजते	-11.1277
परिषद	-11.1277
▁कुलं	-11.1278
▁वराह	-11.128
▁न्यायाधीश	-11.1281
युद्धे	-11.1281
सप्ताह	-11.1282
▁वीक्ष	-11.1282
ानुसार	-11.1283
दुह	-11.1283
▁स्थितौ	-11.1285
कूगु	-11.1285
षय	-11.1285
ru	-11.1287
▁सदस्यः	-11.129
ुना	-11.129
बालक	-11.1291
▁तथेति	-11.1293
वाज	-11.1294
सल	-11.1296
▁बीजं	-11.13
▁एतत	-11.1301
▁मृतः	-11.1305
त्स्व	-11.1306
शिला	-11.1306
▁St	-11.131
दृष्टं	-11.131
कलन	-11.1312
वृक्षः	-11.1314
▁साम्प्रतं	-11.1314
▁पन्था	-11.1318
स्तीति	-11.1319
त्त्र	-11.1319
नेति	-11.1319
▁भवतीत्य	-11.1322
▁रीति	-11.1323
कथित	-11.1324
translation	-11.1326
▁इकाई	-11.1326
संमत	-11.1327
जानीहि	-11.1328
▁आयोजन	-11.1328
▁राजनैतिक	-11.1328
दीप्त	-11.1329
▁भवामि	-11.1329
▁जेतुं	-11.133
▁एतस्मात्	-11.1331
▁प्रशस्यते	-11.1332
▁व्याख्यातः	-11.1334
संहितायां	-11.1334
पातः	-11.1335
▁एम्	-11.1336
चिन्न	-11.1337
▁मोदी	-11.1339
संयोजन	-11.1339
हेतुत्व	-11.1343
जिह्व	-11.1343
▁समासाद्य	-11.1343
▁आलोक	-11.1345
गौरव	-11.1349
▁सुभग	-11.135
वलय	-11.135
▁my	-11.1351
क्षी	-11.1351
ाष्टक	-11.1355
हृत्	-11.1355
युष्म	-11.1356
▁शत्रुः	-11.1356
▁अभावः	-11.1356
कुम्भ	-11.1359
र्मह	-11.136
तॄणां	-11.136
पूजन	-11.1362
▁शब्दो	-11.1362
ाची	-11.1364
नाशक	-11.1367
▁महाराष्ट्र	-11.1368
्येते	-11.1369
▁वास्तविक	-11.1369
▁कर्क	-11.137
युव	-11.1375
ोऽहम्	-11.1375
▁शिशुः	-11.1376
....	-11.138
विपरीत	-11.138
जस	-11.1383
▁कथमपि	-11.1385
ैषां	-11.1386
संख्यात	-11.1386
वचनेन	-11.1387
▁संस्कृतस्य	-11.1387
लेख्य	-11.1387
▁तेऽपि	-11.1387
रुत्	-11.1387
ts	-11.1391
▁समाप्ता	-11.1395
▁उद्देश	-11.1395
▁Chapter	-11.1396
▁कैवल्य	-11.1396
▁शौर्य	-11.1396
▁बाधक	-11.1396
▁रोष	-11.1396
▁विद्यात्	-11.1396
ङ्कार	-11.1399
AP	-11.1399
यात्र	-11.14
▁दृश्यमान	-11.1407
स्तन्	-11.1408
रन	-11.1409
श्या	-11.1409
▁अमेरिकी	-11.1409
स्तरे	-11.1409
ाकाङ्क्ष	-11.1411
सूत्रे	-11.1411
▁जनसङ्ख्या	-11.1412
धान्य	-11.1413
▁लता	-11.1413
▁चित्रे	-11.1413
ापह	-11.1414
▁लेखक	-11.1415
सहिता	-11.1416
ीकृतः	-11.1417
स्थाः	-11.1418
कर्त	-11.1419
▁आगच्छन्ति	-11.1419
िथ	-11.1419
क्रत	-11.1421
ाध्याये	-11.1423
हरणं	-11.1423
au	-11.1423
खर	-11.1424
93	-11.1425
▁तत्तद्	-11.1426
विभेद	-11.1428
मर्त्य	-11.1432
ासक्त	-11.1435
न्मह	-11.1437
▁कुर्य्यात्	-11.1439
कार्यक्रम	-11.144
धिका	-11.1441
०१०	-11.1442
▁तवया	-11.1444
ोर्ध्व	-11.1444
पत्तन	-11.1445
▁मृत्युं	-11.1445
▁असम्भव	-11.1447
▁ज्ञेयः	-11.1448
घृत	-11.1455
▁वाचो	-11.1455
▁समुद्रे	-11.1456
कारिणी	-11.1458
▁महति	-11.1458
प्रविष्ट	-11.146
▁सात	-11.146
▁क्लीब	-11.1462
द्भ	-11.1463
▁क्षणेन	-11.1464
बन्धः	-11.1466
प्रवर्तन	-11.1466
▁अत्रैव	-11.1467
लृ	-11.1468
▁चेष्टा	-11.1468
युगे	-11.147
▁काव्यं	-11.147
▁मख	-11.1471
मास्थाय	-11.1472
▁चिकित्स	-11.1472
प्रतीकार	-11.1473
▁प्रचल	-11.1474
▁स्वगृह	-11.1474
▁यैः	-11.1476
▁निति	-11.1479
इन	-11.1479
र्वी	-11.1483
▁सर्वेषाम्	-11.1484
▁अक्	-11.1488
ादिभ्यः	-11.1489
▁अर्क	-11.1489
मत्य	-11.1492
जानाति	-11.1495
▁प्रवृद्ध	-11.1497
▁संकेत	-11.1499
▁अशक्त	-11.1499
ावकाश	-11.1499
▁वृक्षस्य	-11.15
समुद्भव	-11.1502
तय्त	-11.1502
क्रय	-11.1505
न्यु	-11.1506
धर्माणां	-11.1507
सितं	-11.1507
ृषि	-11.1509
▁सूचितम्	-11.1511
▁चतुर्थे	-11.1512
कल्क	-11.1512
▁रात्रिं	-11.1514
▁पश्यामः	-11.1516
वयस्क	-11.1523
रिच	-11.1526
▁दृष्टो	-11.1527
रेख	-11.1529
▁श्रेष्ठः	-11.1529
▁सेट्	-11.153
लोल	-11.153
▁संपाद	-11.1531
▁निराश	-11.1532
हर्ता	-11.1533
▁उपयुज्य	-11.1536
संचार	-11.154
साक्षरता	-11.154
▁पुरुषार्थ	-11.154
प्रहार	-11.1541
▁कृतज्ञ	-11.1541
समवेत	-11.1542
▁दायित्व	-11.1544
▁पार्	-11.1545
ृणु	-11.1545
▁यमुना	-11.1546
वरुण	-11.155
▁स्त्रीलिङ्ग	-11.1552
▁शुचिः	-11.1552
▁यहां	-11.1552
▁संस्करणः	-11.1553
▁किंतु	-11.1553
र्तु	-11.1553
▁कर्त्तव्यं	-11.1554
▁दिव्या	-11.1555
वपुः	-11.1555
ानुष्ठान	-11.1557
पत्तौ	-11.1561
लिप्त	-11.1564
भेदात्	-11.1566
ुपरि	-11.1568
वाई	-11.157
पेक्षते	-11.1571
▁धाये	-11.1574
▁धिक्	-11.1575
चेतसः	-11.1576
▁दुरात्म	-11.1578
सोपान	-11.1579
तन्त्रं	-11.158
36	-11.1582
▁प्रज	-11.1583
▁नियमेन	-11.1586
ुनि	-11.1586
निष	-11.1586
▁ताड	-11.1587
▁परलोक	-11.1588
वदिति	-11.1591
▁परमां	-11.1592
▁दृष्टिः	-11.1594
ाज्	-11.1594
पङ्क	-11.1595
▁करणीयः	-11.1596
▁विधिवत्	-11.1597
हिते	-11.1599
ीयत	-11.1599
ड़ी	-11.1601
देवानां	-11.1604
▁दिनाङ्क	-11.1604
निरास	-11.1605
प्राणि	-11.1606
सन्त	-11.1607
▁मुम्बई	-11.1607
▁विश्वामित्र	-11.1609
▁पार्वती	-11.1609
▁प्राप्नो	-11.1611
▁भूगोल	-11.1612
स्थापक	-11.1612
स्सर्व	-11.1612
89	-11.1613
शंक	-11.1613
मन्दिरम्	-11.1613
वृष्ट	-11.1614
ैश	-11.1617
▁उक्ते	-11.1622
63	-11.1623
सम्पुट	-11.1624
मन्यत	-11.1626
▁ऋणं	-11.1627
ष्टादश	-11.1628
▁सर्वेऽपि	-11.1628
नृ	-11.1629
संहर	-11.1631
ve	-11.1633
ङ्गि	-11.1634
▁प्रययौ	-11.1634
र्क्ष	-11.1637
वप	-11.1638
▁घटक	-11.1638
मायु	-11.1639
समक्ष	-11.1642
▁तादृशः	-11.1642
लौकिक	-11.1644
त्रिक	-11.1645
ूर्ध्व	-11.1648
▁स्वेद	-11.1651
▁चर्च	-11.1652
शिया	-11.1653
ान्यथा	-11.1654
▁मिलित	-11.1654
वर्षशत	-11.1654
ोऽभि	-11.1655
end	-11.1656
धुर	-11.1659
▁तैलं	-11.1659
धरो	-11.166
रूपस्य	-11.166
र्षभ	-11.166
ीकृतम्	-11.1662
नार्य	-11.1663
▁जनो	-11.1665
हारे	-11.1666
▁कर्मण्य	-11.1667
व्याप्त	-11.1668
▁शेते	-11.1668
भ्व	-11.1669
▁सादर	-11.1672
▁बक	-11.1673
▁अमेरिकाया	-11.1675
▁रुधिर	-11.1679
इड	-11.1681
द्वारि	-11.1682
▁एशियाई	-11.1682
वसे	-11.1682
▁पुत्रपौत्र	-11.1682
▁कथयिष्यामि	-11.1684
अमेरिक	-11.1685
विद्युत	-11.1686
वशा	-11.1686
अङ्गुल	-11.1688
▁लिए	-11.1692
▁चमत्कार	-11.1692
त्राण	-11.1693
▁बुद्धिर्	-11.1695
वधे	-11.1695
▁अका	-11.1695
स्थितम्	-11.17
ार्थाय	-11.1701
▁पु॰	-11.1701
येवं	-11.1702
▁शयनं	-11.1702
स्तुति	-11.1704
त्याह	-11.1706
▁पीत्वा	-11.1706
▁यूयम्	-11.1706
▁वायव्य	-11.1707
ti	-11.1707
प्रशस्तिः	-11.1708
▁भृगु	-11.1709
दृश्यत	-11.171
स्पृष्ट	-11.1711
▁कृतवती	-11.1715
▁05:	-11.1717
र्षयः	-11.1719
शुल्क	-11.1721
व्यवसाय	-11.1723
▁तत्राह	-11.1725
हरी	-11.1725
▁व्यति	-11.1726
▁बुद्ध्या	-11.1726
विधानम्	-11.1727
हारः	-11.1727
▁संग्रामे	-11.1729
प्रभावेण	-11.173
सह्य	-11.1731
व्यापि	-11.1732
▁कुप्य	-11.1734
पण्डित	-11.1735
▁निरन्तरं	-11.1736
पौरुष	-11.1738
▁कामना	-11.1738
वासर	-11.1741
बुध्य	-11.1741
वधारण	-11.1746
व्याकरण	-11.1748
अग्ने	-11.175
×	-11.175
▁परिसन्धयः	-11.175
समाप्त	-11.175
▁निशम्य	-11.1751
▁परिणामः	-11.1751
विचक्षण	-11.1751
▁ब्रवीमि	-11.1751
▁नितरां	-11.1751
वायुः	-11.1753
करॊ	-11.1753
नुष्ठान	-11.1754
▁नारीणां	-11.1755
प्रमाणं	-11.1756
सप्तति	-11.1761
ेकादश	-11.1761
▁अपर्याप्त	-11.1763
निर्वाह	-11.1765
ine	-11.1765
शिखर	-11.1766
▁ददातु	-11.1766
▁कार्यकारण	-11.1769
ास्तथा	-11.1769
स्माक	-11.1771
शिक्ष	-11.1771
ाग्ने	-11.1771
▁वाञ्छित	-11.1772
ग्निर्	-11.1772
▁अखिल	-11.1773
गणाः	-11.1773
▁तुरीय	-11.1774
प्रथ	-11.1775
मुखी	-11.1775
▁वर्तमानकाल	-11.1777
शब्दानां	-11.1777
▁जयः	-11.1781
▁अनन्तर	-11.1781
वर्चस	-11.1781
▁रक्तं	-11.1783
सम्पत्ति	-11.1784
▁तदिदं	-11.1788
ैकदेश	-11.1788
तोय	-11.1789
त्था	-11.179
वदेव	-11.1791
संख्याया	-11.1792
वर्धत	-11.1793
▁वर्धमान	-11.1793
▁निवेश्य	-11.1794
फलानि	-11.1795
▁कृतो	-11.1796
▁शासनं	-11.1796
सेवक	-11.1798
▁वाजिन	-11.1798
▁षत्व	-11.1799
▁प्रवि	-11.1803
ोऽग्नि	-11.1804
▁स्वधर्म	-11.1805
▁अपरे	-11.1805
न्नाम	-11.1806
सङ्कल्प	-11.1808
▁वेगेन	-11.1812
अद्य	-11.1814
ष्वपि	-11.1814
ुच्च	-11.1816
नाभि	-11.1817
▁दृष्टे	-11.1819
दष्ट	-11.1819
▁कामान्	-11.1822
▁चौर	-11.1822
▁सुखम	-11.1824
जिगीष	-11.1825
▁जनैः	-11.1825
▁उद्धृत	-11.1825
जिता	-11.1826
▁All	-11.1826
मुच	-11.1827
▁निपात्यते	-11.1827
माश्रित	-11.1828
कुर्वन्ति	-11.1828
ादाय	-11.1828
▁दुने	-11.1829
्ने	-11.183
▁कालस्य	-11.1832
नुसार	-11.1832
▁सर्वासां	-11.1832
mp	-11.1833
▁प्रागेव	-11.1833
▁बस	-11.1833
▁पाताल	-11.1833
▁बाध्यते	-11.1835
द्युत	-11.1836
▁ज्ञेयम्	-11.1838
▁अपहरण	-11.1838
▁कुशलं	-11.1838
▁तथाऽ	-11.1839
▁संक्रमण	-11.1843
॒त्य	-11.1843
हंस	-11.1843
ीदृश	-11.1843
▁केचि	-11.1844
▁मातुल	-11.1845
विनिर्मुक्त	-11.1848
ीकरोति	-11.1849
तरि	-11.185
ाधिकरणे	-11.185
द्योग	-11.1851
यागु	-11.1852
प्रणाल	-11.1852
▁अनुदात्त	-11.1853
शृ	-11.1855
▁समन्त	-11.1855
▁विहितः	-11.1857
▁12.	-11.1859
श्रृ	-11.186
वसन्त	-11.1861
▁इहापि	-11.1862
▁पित	-11.1862
रीश्वर	-11.1863
शेषतः	-11.1863
▁प्रकाशः	-11.1865
धाम	-11.1867
मुखा	-11.1869
गुणैः	-11.187
▁पश	-11.1872
▁तामस	-11.1874
▁ग्रहः	-11.1876
टेन	-11.1881
साम्राज्य	-11.1882
▁(*	-11.1883
ादृत	-11.1883
लुक	-11.1883
▁स्थानानि	-11.1884
चित्राणि	-11.1885
▁घोरं	-11.1885
▁रुचिः	-11.1887
झे	-11.189
▁पराभव	-11.1891
प्रस्ताव	-11.1891
ङ्गुल	-11.1893
ाख्यात	-11.1895
▁लभन्ते	-11.1896
ाक्षि	-11.1897
▁कारागार	-11.1898
▁प्रतिषिध्यते	-11.1899
▁व्यभिचार	-11.1899
▁करोषि	-11.19
ग्रीव	-11.19
श्चित्त	-11.19
▁दशलक्ष	-11.1905
सत्कार	-11.1905
स्थापनं	-11.1905
वतिष्ठते	-11.1906
▁प्रातर्	-11.1907
▁यहाँ	-11.1907
▁प्रारब्ध	-11.1907
निधे	-11.1909
भावस्य	-11.1909
ोत्पन्न	-11.1912
▁सक्रिय	-11.1915
▁सरस्वती	-11.1916
गात्र	-11.1918
▁चतुर्थं	-11.1919
निसें	-11.1919
ान्नि	-11.1921
वृत्य	-11.1922
71	-11.1924
74	-11.1925
▁देवेषु	-11.1926
मुत्तम	-11.1929
▁यज्ञस्य	-11.1929
▁धनुष	-11.1929
सञ्ज्ञ	-11.193
मनसा	-11.193
▁अपरा	-11.1931
निवार्य	-11.1931
मृते	-11.1933
▁गाथा	-11.1935
▁प्रणत	-11.1935
▁सम्पाद्यताम्	-11.1936
ास्माकं	-11.1936
पृष्ट	-11.1937
भजन	-11.1938
धातुः	-11.1939
न्दो	-11.1941
▁कुण्ड	-11.1943
यमेव	-11.1944
वसति	-11.1947
▁व्यवहारः	-11.1948
▁शश्व	-11.1949
▁तुल्यं	-11.1951
▁जाया	-11.1951
▁सु॒	-11.1952
▁लिङ्	-11.1953
अहो	-11.1954
▁इत्यर्थ	-11.1956
वृत्तम्	-11.1957
▁भुवः	-11.1957
स्वास्थ्य	-11.1957
▁अपमान	-11.196
▁भूम	-11.196
▁pdf	-11.1961
वचनात्	-11.1961
न्मा	-11.1963
▁तन्नि	-11.1965
▁तापस	-11.1966
▁प्रशान्त	-11.1966
जितः	-11.1967
वेला	-11.1968
▁तिस्र	-11.1968
▁कुमारी	-11.1969
ग्राहक	-11.1969
माप्नुयात्	-11.1969
▁नापं	-11.197
▁निम्नलिखित	-11.197
▁लघ	-11.1971
विवाद	-11.1971
--'	-11.1972
▁तल्	-11.1972
▁इत्यस्माद्	-11.1974
राट्	-11.1975
▁तयोर	-11.1975
79	-11.1975
▁नरेन्द्र	-11.1976
▁ऐं	-11.1978
पद्धतिः	-11.1981
▁कल्पय	-11.1982
गुरव	-11.1983
शालायां	-11.1983
▁यथातथ	-11.1985
ादेर्	-11.1986
लिट	-11.1987
▁लक्षित	-11.1987
जौ	-11.199
ाभरण	-11.1992
▁सुदृढ	-11.1993
▁कपिल	-11.1995
स्थितौ	-11.1996
▁कल्प्यते	-11.1997
चालित	-11.1997
स्तस्या	-11.1998
▁विदित्वा	-11.1998
▁गुरू	-11.1999
तदेव	-11.2
णक	-11.2001
▁यस्मा	-11.2002
▁गुह	-11.2003
▁अतिशयेन	-11.2004
▁गुणान्	-11.2005
▁तदभाव	-11.2005
संकल्प	-11.2007
तीर्ण	-11.2009
ज्झ	-11.201
ध्रुव	-11.2012
▁तद्धि	-11.2013
▁पीडय	-11.2018
▁उ॒	-11.2019
सायक	-11.202
दूरे	-11.202
▁अशक्य	-11.2022
▁संप्राप्त	-11.2022
▁सर्वमिदं	-11.2023
ेंद्र	-11.2025
श्रुत्य	-11.2025
दृष	-11.2026
▁निश्चल	-11.2027
▁त्वेव	-11.2027
धावन	-11.2029
ोपादान	-11.203
ोऽस्माकं	-11.2035
▁पक्षिण	-11.2037
▁याइ	-11.2038
78	-11.2039
▁झा	-11.2043
▁sent	-11.2044
स्थैर्य	-11.2047
▁मध्याह्ने	-11.2047
▁धृत्वा	-11.2047
ुचित	-11.2047
▁लिप्यते	-11.2047
दृढ	-11.2049
▁तेष्व	-11.2051
tion	-11.2052
▁कृतवान	-11.2052
▁षण्	-11.2053
▁वन्यजीव	-11.2053
च्छन्न	-11.2055
▁येषु	-11.2056
▁सवर्ण	-11.2056
ष्यामि	-11.206
▁अवस्थित	-11.206
विक्रय	-11.2062
▁संघर्ष	-11.2064
बिन्दु	-11.2065
▁प्रेरित	-11.2066
▁प्रविष्टा	-11.2069
निबद्ध	-11.2071
पीत	-11.2072
साधित	-11.2073
ततो	-11.2074
▁विरूप	-11.2075
IS	-11.2076
विभ्रम	-11.2078
▁अभिगमन	-11.2081
▁भगवतो	-11.2083
▁बिम्ब	-11.2083
फ़्	-11.2083
कोणे	-11.2083
योऽ	-11.2084
▁निपुण	-11.2085
भारते	-11.2085
▁कश्च	-11.2086
ाभ्याम	-11.2087
शाप	-11.2087
▁करिष्यते	-11.2089
ख्याति	-11.2089
▁पुंसः	-11.209
विधिर्	-11.209
भाषासु	-11.2094
▁दुर्जन	-11.2094
▁द्रष्टुम्	-11.2094
घट्ट	-11.2095
ीयान्	-11.2096
▁इनि	-11.2096
▁जनयति	-11.2098
णिज	-11.2099
ge	-11.2102
िला	-11.2104
मित्यादि	-11.2104
▁नराः	-11.2106
क्षीण	-11.2107
मानसः	-11.2107
प्रसन्न	-11.2107
▁प्रत्यभिज्ञा	-11.2108
▁रमते	-11.2108
ाहुर्	-11.211
age	-11.2111
लील	-11.2111
▁संस्	-11.2112
पीडितः	-11.2112
▁पृष्टः	-11.2113
दृत	-11.2113
▁रक्षसा	-11.2117
▁साधुः	-11.2117
निन्दित	-11.2117
▁विश्वासः	-11.2118
▁मेदिनी	-11.2119
▁गरुड	-11.212
▁डॉ	-11.2122
▁शिक्षकः	-11.2123
▁ऋषिः	-11.2124
वसित	-11.2124
▁उदार	-11.2126
जितेन्द्रिय	-11.2129
दिल	-11.2129
▁चैत्र	-11.2129
▁२०१३	-11.2129
ुत्थित	-11.213
▁परिशिष्ट	-11.2132
▁विद्म	-11.2134
▁मैं	-11.2134
गन्तव्य	-11.2135
र्म्म	-11.2138
▁समि	-11.2138
▁तनू	-11.2139
▁यक्व	-11.2139
पूरुष	-11.2141
82	-11.2143
वर्धित	-11.2145
▁ग्रहाः	-11.2145
राष्ट्रिय	-11.2146
▁वाक्यम्	-11.2147
हङ्कार	-11.2147
पश्चा	-11.2149
वपुष	-11.2149
भैरव	-11.2151
चिन्त	-11.2152
97	-11.2152
▁परेषां	-11.2159
त्यज	-11.2159
पहृत	-11.2162
ादीनाम्	-11.2162
▁धूप	-11.2163
▁मुक्तिः	-11.2164
▁वृक्षे	-11.2164
कुत्सित	-11.2166
▁जनि	-11.2168
▁नाशय	-11.2168
ाम्बु	-11.2171
मस्तक	-11.2172
▁असत	-11.2172
▁वदत	-11.2172
किल	-11.2174
समवाय	-11.2174
▁प्रक्रम	-11.2175
रिह	-11.2175
85	-11.2176
घटित	-11.2179
▁ज्व	-11.2179
▁धावति	-11.2181
ांशः	-11.2181
एल	-11.2184
87	-11.2184
▁सर्वान	-11.2185
62	-11.2185
▁ब्रूयात्	-11.2187
देवि	-11.2187
शास्त्राणि	-11.2188
▁मय्य	-11.2189
ग्य	-11.2189
▁पितरः	-11.219
वन्ध	-11.219
न्तःकरण	-11.219
काया	-11.2193
ारूढ	-11.2193
▁दरॊण	-11.2193
▁उत्थाय	-11.2194
▁गुणवत्ता	-11.2194
श्लिष्ट	-11.2195
▁मंगल	-11.2195
सृष्टि	-11.2195
▁चतुर्थः	-11.2197
▁दिना	-11.2198
•	-11.2199
▁प्रकल्पयेत्	-11.22
▁अभिभाषण	-11.2202
▁आयुध	-11.2202
भ्रंश	-11.2204
▁कदाचिदपि	-11.2206
▁भारतम्	-11.2207
▁कहीं	-11.2208
▁महतः	-11.221
महासागर	-11.221
त्येष	-11.221
▁नवम्बर	-11.2212
AT	-11.2214
▁शरीरम्	-11.2215
▁राज्ञां	-11.2216
du	-11.2216
पयति	-11.2216
▁शोभा	-11.2217
मिदम	-11.2218
▁सुगन्ध	-11.2219
मीश	-11.222
▁वर्तमाने	-11.2221
युष्मा	-11.2223
ाऽऽह	-11.2223
हेतौ	-11.2224
सङ्गम	-11.2225
ेणापि	-11.2227
▁एन्	-11.2229
ज्ज्ञान	-11.2232
▁अनुवादः	-11.2232
बिभ	-11.2235
ाञ्जलि	-11.2236
▁उपास	-11.2237
▁शिवा	-11.2238
परायणः	-11.2239
विभागेन	-11.224
दति	-11.2248
दधा	-11.2248
तटे	-11.2248
ातिरिक्त	-11.2253
ाधिकरणम्	-11.2255
▁चक्षुर्	-11.2255
▁मूर्खः	-11.2256
▁भवत्याः	-11.2256
दातव्य	-11.2257
▁तद्ध	-11.2257
परिचित	-11.2258
दिते	-11.2258
ोऽयम्	-11.2258
▁पुरे	-11.2258
लिखेत्	-11.226
▁उन्नति	-11.2261
मार्ज	-11.2262
▁तोयं	-11.2264
ावन	-11.2266
▁श्रोतव्य	-11.2268
▁नौकरियां	-11.2269
▁शुभकामना	-11.2269
निधिः	-11.2269
▁वक्ष्यमाण	-11.227
▁कश्चिन्	-11.2271
द्राव	-11.2271
▁मृषा	-11.2275
▁2012	-11.2275
सदा	-11.2275
शब्दार्थ	-11.2275
▁पुरस्कारः	-11.2276
▁मुनयः	-11.228
Ch	-11.2281
सामग्री	-11.2281
यल	-11.2283
ance	-11.2285
ॊक्त	-11.2286
पूजितः	-11.2286
समन्विता	-11.2287
परिचय	-11.2288
▁शिखा	-11.2288
सृज्य	-11.2288
▁आफ्	-11.2288
स्वरुप	-11.2291
तन्मात्र	-11.2291
▁अट	-11.2292
▁पूजनं	-11.2296
जुष्ट	-11.2297
ितवती	-11.2302
▁नान्यथा	-11.2303
▁स्मरन्	-11.2304
ानुबन्ध	-11.2306
▁भरतः	-11.2306
▁राजान	-11.2308
▁तत्त्वज्ञान	-11.2309
▁शाश्वतं	-11.231
▁कर्मण	-11.2312
▁खःसा	-11.2316
भवन्ति	-11.2317
ङ्कुर	-11.2318
पीडन	-11.2318
▁अध्यक्षः	-11.232
वनस्पत	-11.2323
कक्ष्या	-11.2326
▁Al	-11.2328
▁आदर	-11.2329
▁आयात	-11.2329
▁सर्वोत्तम	-11.2329
▁म०	-11.233
ोपकार	-11.2332
▁प्राप्नोत्	-11.2332
माणा	-11.2333
माद्य	-11.2336
स्वतन्त्र	-11.2337
▁अभयं	-11.2338
ांशे	-11.2339
ाभिषेक	-11.234
परिभाषा	-11.2341
▁सेव्य	-11.2342
▁अझ	-11.2343
ानुगत	-11.2344
निराकरण	-11.2345
¦	-11.2345
डब्ल्यू	-11.2345
▁महाबाहो	-11.2345
षित	-11.2346
▁ago	-11.2346
पीतये	-11.2347
▁शरणागत	-11.2349
सूत	-11.2353
go	-11.2354
▁स्वेच्छया	-11.2355
ान्विता	-11.2355
मध्या	-11.2355
बोधक	-11.2355
▁समुत्पन्न	-11.2356
▁क्वचिद्	-11.2361
मूष	-11.2362
▁सोऽहं	-11.2364
ाहुति	-11.2365
▁To	-11.2366
▁सिद्धः	-11.2366
/2	-11.2368
▁भोक्ता	-11.2368
▁वन्दे	-11.2368
प्रभव	-11.2368
प्रत्ययेन	-11.2369
कोविद	-11.2373
▁अभियान	-11.2375
▁वन्य	-11.2376
▁अपां	-11.2377
मिदम्	-11.2378
▁अवधि	-11.2378
▁जटा	-11.2378
▁उपयोगं	-11.2379
▁विशद	-11.2381
पार्श्व	-11.2384
▁महोदयः	-11.2386
▁शकट	-11.2386
▁म्हण	-11.2386
ाधिपः	-11.2386
▁कयाः	-11.2387
▁जलाशय	-11.2387
कृषि	-11.2389
▁वैराग्य	-11.2389
▁मलय	-11.239
नर्थक	-11.2391
▁चतुर्थी	-11.2392
विनोद	-11.2394
चिदपि	-11.2394
▁अब्रवीत्	-11.2395
▁सर्वाधिक	-11.2396
▁महाविद्यालय	-11.2397
▁दुरित	-11.2397
सिद्ध्य	-11.2399
कारिणः	-11.24
ाक्षी	-11.24
73	-11.2403
बीजं	-11.2404
▁सामान्येन	-11.2407
▁त्रिरात्र	-11.2411
धारय	-11.2411
▁तृष्णा	-11.2414
प्रेक्ष	-11.2418
नुकम्प	-11.2418
पीए	-11.2418
▁अवधारणा	-11.2418
▁यावन्	-11.242
रोहति	-11.2422
▁टैगः	-11.2422
तमवर्षस्य	-11.2423
▁years	-11.2424
▁विप्रा	-11.2424
कुर्वन्	-11.2425
▁उत्पद्यते	-11.2425
▁हताः	-11.2425
▁पुनर्जन्म	-11.2427
पादन	-11.2427
▁उक्थ	-11.2428
▁महात्मना	-11.2428
परिणत	-11.2429
ाज्ञया	-11.2429
लोचना	-11.2431
चेत	-11.2435
▁धन्यं	-11.2437
जात्य	-11.2437
▁प्रयुक्तः	-11.2437
ेषण	-11.2438
▁यायेत	-11.2438
वच्छिन्न	-11.2438
वसन	-11.2439
▁करिष्यन्ति	-11.2439
▁वसन्ति	-11.2439
▁पितॄन्	-11.2439
▁दिनं	-11.244
AR	-11.2444
णात्	-11.2444
खंड	-11.2446
▁पुत्रान्	-11.2446
॑ण	-11.2447
▁संप्रसारण	-11.2448
▁पारि	-11.2449
धार्मिक	-11.2449
▁समीक्ष्य	-11.245
पित्त	-11.2451
मन्तरेण	-11.2452
व्याकुल	-11.2454
ब्राह्म	-11.2454
▁यॊग	-11.2454
विकृत	-11.2455
मुखेन	-11.2456
ेऽथ	-11.2456
▁02:	-11.2456
स्पृश्य	-11.2459
▁वःगु	-11.2461
▁विचिन्त्य	-11.2462
▁संगीत	-11.2464
▁ह्रद	-11.2465
शास्त्रस्य	-11.2469
▁प्रकृष्ट	-11.2469
▁गोष्ठ	-11.2469
नन्य	-11.247
▁गीतं	-11.247
ग्रतः	-11.247
घोर	-11.2471
कथनं	-11.2474
कलाप	-11.2476
76	-11.2476
▁गुणानां	-11.2476
▁स्वरित	-11.2478
वस्थ	-11.2479
▁उपपद	-11.2479
▁जगाद	-11.2482
▁विजित	-11.2483
रूपी	-11.2485
▁दुर्लभः	-11.2486
▁निधनं	-11.2486
स्ल	-11.2486
मागतः	-11.2487
भ्रू	-11.2489
मिच्छति	-11.249
▁अवशिष्ट	-11.2491
▁प्रधानमन्त्रिण	-11.2494
दासः	-11.2496
▁लाघव	-11.2496
कांक्ष	-11.2498
▁प्रभावित	-11.2498
▁प्रसज्येत	-11.25
▁पशून्	-11.25
▁इत्यमरः	-11.25
▁स्पेनिश	-11.2501
भ्यर्च्य	-11.2501
▁दृष्टिकोण	-11.2501
सहस्रेण	-11.2502
▁यथोचित	-11.2502
▁बरह्म	-11.2502
▁वस्तुतस्तु	-11.2503
निरुक्त	-11.2503
▁सम्बध्यते	-11.2503
क्षयः	-11.2504
ip	-11.2506
▁जानकी	-11.2507
▁योध	-11.2509
पर्व्वत	-11.2509
नियामक	-11.251
▁हतं	-11.2512
:00	-11.2513
प्रवर्तक	-11.2513
ापराध	-11.2514
सार्वधातुक	-11.2514
ध्यापक	-11.2516
हरा	-11.2516
ाह्वय	-11.2516
▁अप्राप्त	-11.252
▁शै	-11.2521
ानीति	-11.2522
स्फुट	-11.2522
▁लक्षयति	-11.2523
नाच्वंगु	-11.2524
लक्षित	-11.2526
der	-11.2527
कौशल	-11.2527
संज्ञाया	-11.2528
▁श्रोता	-11.2528
▁स्वां	-11.2532
▁मग	-11.2532
ालम्बन	-11.2539
▁परत्र	-11.2539
मित्	-11.254
ितैः	-11.2547
कारकम्	-11.2548
▁क्वचि	-11.2551
हय	-11.2552
▁शान्तिं	-11.2553
▁दूरी	-11.2554
▁वीज	-11.2556
रेषा	-11.2558
प्रसङ्गात्	-11.2558
भिप्रायेण	-11.2559
▁न्हि	-11.256
▁श्रावय	-11.256
▁एकवचनम्	-11.2561
▁जये	-11.2561
निष्प	-11.2561
प्रदः	-11.2562
संपत्ति	-11.2564
इम	-11.2565
▁घटते	-11.2565
मुत	-11.2565
निहित	-11.2566
si	-11.2569
▁महिष	-11.2571
86	-11.2571
तज्ज्ञ	-11.2572
▁कियत्	-11.2573
क्लि	-11.2573
▁श्मशान	-11.2578
▁धुआं	-11.2578
▁पुरस्कृत्य	-11.2579
▁समीपं	-11.258
चिन्तयत्	-11.2581
▁2)	-11.2584
▁गाव	-11.2584
▁करोतीति	-11.2584
बिल	-11.2585
ओषधी	-11.2586
ऽथवा	-11.2588
▁याम्य	-11.2588
▁सर्वज्ञः	-11.2589
▁याहि	-11.2591
▁करोम्य	-11.2594
ोपलभ्यते	-11.2594
▁मुद्रित	-11.2595
कर्त्तरि	-11.2595
▁आगतवान्	-11.2598
सिद्धेः	-11.2599
प्रस्तुत	-11.26
▁आवयोः	-11.26
▁किशोर	-11.2603
सङ्कट	-11.2603
▁सम्भावना	-11.2604
▁एकता	-11.2606
▁भारतीयाः	-11.2607
प्रोक्षण	-11.2607
▁अर्द्ध	-11.2608
नास्ति	-11.2608
शैत्य	-11.2608
स्वरूपा	-11.2615
▁चिकित्सक	-11.2616
गामी	-11.2616
▁द्वित्व	-11.2616
क्षो	-11.2617
▁कमपि	-11.2619
ावतार	-11.2622
▁मिथुन	-11.2622
▁अव्ययम्	-11.2623
▁वाले	-11.2625
ऽग्नि	-11.2628
▁सर्वधर्म	-11.2631
▁उत्तरपद	-11.2632
▁पूरय	-11.2632
▁प्रसिद्धं	-11.2634
चिता	-11.2635
▁विवरणं	-11.2638
कुण्डल	-11.2638
▁संयोगः	-11.2639
॒ऽ	-11.2641
▁विभज्य	-11.2643
ie	-11.2643
▁रुचिर	-11.2645
▁राष्ट्रपतिः	-11.2646
▁पापानि	-11.2646
मुक	-11.2647
ang	-11.2648
▁शून्यं	-11.2651
र्चन	-11.2654
प्रतीत	-11.2655
भुवन	-11.2655
क्षमा	-11.2656
शार्दूल	-11.2657
▁साम्प्रत	-11.2657
▁पशूनां	-11.2657
▁आत्मनेपद	-11.2657
मार्क	-11.2659
▁रामो	-11.266
▁आह्वान	-11.266
▁दक्षिणेन	-11.266
▁आन्तरिक	-11.2663
96	-11.2663
सम्बन्धेन	-11.2664
▁प्रकृत्य	-11.2664
▁मृता	-11.2666
ल्लि	-11.2669
▁निर्धार	-11.267
▁परोपकार	-11.267
▁प्रतिभास	-11.2671
▁ऋषयः	-11.2672
▁त्वन्	-11.2672
नेगु	-11.2672
द्रुत	-11.2673
▁मनसो	-11.2674
▁पत्न्या	-11.2675
▁प्रेरय	-11.2675
ाधिक्य	-11.2675
१०३	-11.2676
▁सुरु	-11.2677
▁चलति	-11.268
▁द्वितीयो	-11.2681
रश्म	-11.2682
त्यर्थं	-11.2683
▁इच्छसि	-11.2683
र्ल	-11.2683
भूर्	-11.2685
ीकृतं	-11.2687
पूत	-11.2687
▁प्रतिगृह्य	-11.2688
िभ्यः	-11.2688
▁आनीत	-11.2689
▁शुन	-11.2691
▁रोगी	-11.2692
▁तन्मय	-11.2693
ैरिति	-11.2696
▁उत्सवः	-11.2697
▁द्यः	-11.2697
पीड्य	-11.2699
श्राद्ध	-11.2701
▁Se	-11.2702
वलोक्य	-11.2703
▁अध्यात्म	-11.2704
न्यतर	-11.2706
▁अपेक्षया	-11.2707
ादिष्व	-11.2708
नष्ट	-11.2709
पर्यंत	-11.2709
▁प्रयोगो	-11.2711
▁प्रयत्नं	-11.2714
▁प्राच्य	-11.2714
▁जनान्	-11.2718
▁नद्याः	-11.2719
▁त्वदीय	-11.2723
▁वरम्	-11.2723
▁रक्षो	-11.2724
कत्वं	-11.2727
मुष्टि	-11.2728
लयः	-11.2728
समाधि	-11.2728
स्रा	-11.2731
▁सामान्यतया	-11.2731
▁गया	-11.2732
विप्लव	-11.2734
▁दुर्योधन	-11.2736
▁बोधिसत्त्व	-11.2736
▁मज्ज	-11.2736
वस्तूनां	-11.2736
▁सुष्ठु	-11.2737
▁रौद्र	-11.2737
▁हता	-11.2738
▁मिलियन	-11.2738
▁हृद्	-11.2739
▁ठक्	-11.2741
▁नेतृत्व	-11.2742
स्योपरि	-11.2745
▁अप्व	-11.2745
▁स्वागतम्	-11.2746
▁स्थापयेत्	-11.2746
भूषित	-11.2748
▁परिचयः	-11.2749
ोवाच	-11.2749
ace	-11.2749
ुमर्हसि	-11.275
वन्न	-11.275
▁यज्ञो	-11.275
स्त्रा	-11.275
चेता	-11.275
रोपण	-11.2752
▁तैर	-11.2753
स्मिन्नेव	-11.2755
▁सुप	-11.2755
▁आस्ते	-11.2756
▁गन्तव्यं	-11.2759
दोषेण	-11.2759
दीक्ष	-11.2763
लान	-11.2764
▁पाह	-11.2768
▁उद्दिश्य	-11.2769
जानामि	-11.277
▁चित्वा	-11.277
▁ग्रहाणां	-11.2771
सन्निधौ	-11.2772
कृतौ	-11.2773
षष्ठ	-11.2773
प्रमत्त	-11.2773
▁शीघ्रमेव	-11.2776
ध्वस्त	-11.2777
▁सहैव	-11.2778
▁अधीत	-11.2779
पद्येत	-11.278
▁पूर्वपद	-11.278
ार्पण	-11.2781
लोहित	-11.2784
मारुह्य	-11.2785
▁कामयते	-11.2785
हनन	-11.2787
▁ग्राम्य	-11.2787
xxx	-11.279
▁वक्ति	-11.2793
विभाषा	-11.2794
▁तच्	-11.2795
द्यां	-11.2795
पिपास	-11.2795
डव	-11.2796
▁औरत	-11.2799
▁दिवाकर	-11.2803
ोत्साह	-11.2804
पालिका	-11.2804
स्त्विति	-11.2805
वेश्य	-11.2805
विवेश	-11.2808
▁स्थिरा	-11.2809
हेत्व	-11.2809
▁इत्यनु	-11.2809
▁पाथ	-11.2812
ोऽन	-11.2815
विज्ञेय	-11.2815
92	-11.2815
▁संप्रवक्ष्यामि	-11.2816
▁कया	-11.2816
▁धीमहि	-11.2819
▁अनुसन्धान	-11.2821
▁वाप्य	-11.2822
▁हन्तुं	-11.2822
▁वर्त्तमान	-11.2823
▁सायंकाले	-11.2824
▁यदपि	-11.2825
मार्जन	-11.2828
स्कन्धे	-11.2831
▁पचति	-11.2831
▁जिज्ञासा	-11.2832
गच्छन्ति	-11.2834
▁रामायण	-11.2834
दर्शनेन	-11.2835
94	-11.2836
प्रचार	-11.2837
मुञ्च	-11.2838
▁परस्परम	-11.2839
AS	-11.2839
▁गुरुवार	-11.284
▁प्रविशन्ति	-11.2841
▁(8	-11.2841
ानभि	-11.2842
संघात	-11.2844
tu	-11.2845
▁कुष्ठ	-11.2846
▁अकुर्वन्	-11.285
पेय	-11.2851
यशस्विन	-11.2851
युगल	-11.2851
मागम	-11.2851
कत्वात्	-11.2852
मृश	-11.2854
रवि	-11.2854
▁प्रपद्यते	-11.2856
▁उदर	-11.2856
▁आयोजित	-11.2858
▁सभी	-11.2864
▁अवकाशः	-11.2865
ज्योति	-11.2866
▁दर्शनीय	-11.2867
विदेश	-11.2868
▁क्रीडति	-11.2868
▁वाचः	-11.287
▁तदन्य	-11.287
▁इमानि	-11.2873
सम्बद्धाः	-11.2874
▁उद्भव	-11.2875
मेता	-11.2877
▁ज्यो	-11.2879
ov	-11.2881
▁यदेव	-11.2881
▁सर्वकर्म	-11.2881
▁अमी	-11.2882
कास	-11.2883
ट्स	-11.2883
तिक्रम	-11.2884
षू	-11.2885
प्रदूषण	-11.2886
ील	-11.2887
चष्टे	-11.2887
ia	-11.289
ऽऽत्म	-11.289
महोदयः	-11.2892
▁व्युत्	-11.2892
भिस्	-11.2893
▁घृतं	-11.2895
▁हितकाम्यया	-11.2897
चलच्चित्र	-11.2897
▁निरर्थक	-11.2897
▁सम्भवतः	-11.2898
ps	-11.2899
मुह्य	-11.2902
▁निभा	-11.2904
▁मन्दिरं	-11.2905
माणे	-11.2906
प्नो	-11.2906
▁निश्चितं	-11.2908
▁२०१६	-11.2908
▁२०१४	-11.291
▁भावय	-11.2914
▁अरि	-11.2914
▁अभी	-11.2915
▁उत्स	-11.2915
▁ततस्	-11.2919
समुत्थ	-11.2919
▁श्येन	-11.292
यान्तु	-11.2922
▁विजान	-11.2923
सर्व्व	-11.2926
▁पूर्वोत्तर	-11.2927
▁मातृभाषा	-11.2932
▁बाल्ये	-11.2935
लॊक	-11.2936
ass	-11.2937
▁पराप्त	-11.2937
▁द्विविधं	-11.2939
वक्तव्य	-11.294
▁विद्यालयः	-11.2941
▁अन्तरिक्षे	-11.2944
_3_	-11.2946
▁निबोध	-11.2948
संश्रय	-11.295
▁एतयोः	-11.2952
▁अंत	-11.2952
लक्ष्मी	-11.2954
ear	-11.2959
शत्रू	-11.296
▁समर	-11.296
कीर्तन	-11.2961
▁यस्माद	-11.2961
परामर्श	-11.2961
▁भगवा	-11.2964
सूची	-11.2966
▁इन्द	-11.2971
▁इत्यन्त	-11.2976
शुचि	-11.2978
▁भूर्भुवः	-11.2978
▁इस्लाम	-11.2978
▁ISO	-11.2978
▁प्रकर्षेण	-11.2979
रज्जु	-11.2979
▁साक्षा	-11.2979
मधिकृत्य	-11.298
ख़	-11.2981
नृत्य	-11.2982
▁धर्मार्थ	-11.2984
वर्द्ध	-11.2984
उत	-11.2984
इन्	-11.2985
▁नीत्वा	-11.2987
▁तमहं	-11.2987
▁परेण	-11.2989
▁गावो	-11.2989
चर्य	-11.2989
चारी	-11.299
▁अस्मत्	-11.299
▁प्रकोष्ठ	-11.299
यशस	-11.2991
मिच्छसि	-11.2991
देशात्	-11.2992
नुदात्त	-11.2992
भक्त्या	-11.2993
णव	-11.2996
काष्ठ	-11.2996
▁आख्या	-11.2997
रेच	-11.2998
da	-11.3002
▁कतमः	-11.3005
वर्त्तते	-11.301
▁कुर्य्या	-11.3015
▁भवन्त्य	-11.3017
▁अध्यापकः	-11.3019
▁चाप	-11.3023
▁प्रतिक्रिया	-11.3026
▁सहकारि	-11.3028
पश्चात्	-11.3029
▁जुया	-11.3029
हारिण	-11.303
▁You	-11.3031
वर्जन	-11.3032
▁कान्ति	-11.3032
▁ऋते	-11.3036
▁अर्थस्य	-11.3036
▁देवैः	-11.3038
संविद	-11.3039
ेदम	-11.304
ेतिहास	-11.304
▁समाजस्य	-11.3041
केलि	-11.3042
ल्स	-11.3045
समाश्रित	-11.3045
पटु	-11.3045
▁उक्ता	-11.3047
निन्दा	-11.3048
गर्त	-11.3049
▁Su	-11.3051
भूमौ	-11.3051
**	-11.3053
▁पश्चिमा	-11.3053
भ्यस्त	-11.3054
शोच	-11.3056
▁आवाहयामि	-11.306
▁वरानने	-11.306
▁बिचाः	-11.306
▁द्यावापृथिवी	-11.306
संगत	-11.3062
▁जानकारी	-11.3062
पन्	-11.3063
▁कार्यविधि	-11.3064
पुरीष	-11.3064
▁कुत्रचित्	-11.3064
▁नवीनतम	-11.3065
स्वामिन	-11.3067
निल	-11.3067
प्रेरण	-11.3069
ाधिकारी	-11.3069
दानम्	-11.307
पुरस्कृत	-11.307
▁समायात	-11.3072
शिबिर	-11.3077
वणिक्	-11.3078
▁आवश्यकः	-11.3081
▁ःथ	-11.3083
पूजय	-11.3085
rd	-11.3085
▁मिथ	-11.3086
नीते	-11.3087
दन्ति	-11.3088
▁परिदृश्य	-11.3089
अह्न	-11.309
▁सुखिनः	-11.3091
▁विश्वतः	-11.3091
▁कर्णाटक	-11.3091
कर्तृक	-11.3092
हण	-11.3092
▁भारतदेशे	-11.3094
▁कन्नड	-11.3095
▁08:	-11.3097
▁ख्यातं	-11.31
१०५	-11.31
ाखिल	-11.3104
▁व्याख्यास्यामः	-11.3107
▁हरिण	-11.3108
वृष्ण	-11.3112
▁सर्वप्रथम	-11.3114
IV	-11.3123
्याद्	-11.3123
▁पश्येत्	-11.3127
▁एतैः	-11.3127
ार्ति	-11.3133
म्बा	-11.3133
स्वामि	-11.3133
▁चिकीर्ष	-11.3134
कुश	-11.3134
▁दुर्लभा	-11.3138
निर्वाचन	-11.3141
पञ्चाश	-11.3142
ल्क	-11.3142
▁असाधारण	-11.3142
ोऽति	-11.3143
▁अयोध्या	-11.3143
▁निगद्यते	-11.3144
▁समाख्यात	-11.3144
व्यभिचार	-11.3145
दारु	-11.3145
▁श्रूयतां	-11.3146
▁मोदते	-11.3146
▁सेवते	-11.3148
▁दर्शितम्	-11.3149
▁कपोत	-11.3149
▁स्रोतः	-11.315
तर्फ	-11.315
▁दिनांक	-11.3151
▁निर्माता	-11.3151
धातूनां	-11.3151
दुर्लभ	-11.3151
द्भवति	-11.3152
▁असत्	-11.3153
▁एतस्याः	-11.3155
▁चिन्तया	-11.3156
मोचन	-11.3156
▁मास्तु	-11.3157
निरीक्ष्य	-11.3158
▁कीर्तय	-11.3158
त्यु	-11.3158
दक्षिणा	-11.3159
मौल	-11.316
श्लेष्म	-11.3162
▁भृशं	-11.3164
▁घटादि	-11.3164
ादन	-11.3165
▁प्रहरी	-11.3168
▁उपयुज्यते	-11.3171
▁जलस्य	-11.3173
गणे	-11.3175
रेणु	-11.3175
▁त्रिदिव	-11.3175
व्यवधान	-11.318
माग	-11.318
▁मिथः	-11.318
दृशे	-11.3183
▁भजे	-11.3184
आदेश	-11.3186
वासिन	-11.3187
ाऽभाव	-11.3188
▁नवीनं	-11.3188
त्यनु	-11.3189
▁विरक्त	-11.3191
▁धनिक	-11.3191
यद्य	-11.3192
▁शक्यो	-11.3192
विकरण	-11.3194
▁धनानि	-11.3194
पदी	-11.3194
▁अभीष्ट	-11.3194
चिन्तयन्	-11.3195
वत्सल	-11.3197
कटि	-11.3199
▁विद्यालयस्य	-11.3201
शास्त्रज्ञ	-11.3203
▁पश्यसि	-11.3203
गणा	-11.3204
▁सान्त्व	-11.3208
▁आत्मनि	-11.3209
▁पुत्रक	-11.3209
▁गिरः	-11.3209
फर	-11.3211
▁प्रसन्ना	-11.3212
जागरण	-11.3212
्वैव	-11.3212
▁प्रयत्नः	-11.3212
81	-11.3215
पृथिवी	-11.3218
हन्ता	-11.3218
▁नारदः	-11.322
रिष्यति	-11.3223
विशेषात्	-11.3224
राष्ट्रीय	-11.3225
स्माभिर	-11.3226
▁शृगाल	-11.3226
कष्ट	-11.3229
▁तादृशी	-11.3229
▁सूचि	-11.3229
▁आईपीसी	-11.3231
सीमा	-11.3233
दायकः	-11.3234
दृष्टिः	-11.3234
▁क्रियताम्	-11.3234
साधने	-11.3237
अपेक्ष	-11.3239
दिवा	-11.3239
▁इत्येतद	-11.3239
▁आचार्यः	-11.3241
ोत्तरे	-11.3241
▁काङ्क्ष	-11.3242
ारोहण	-11.3243
भिद	-11.3245
गात्	-11.3245
पश्यति	-11.3246
स्मिन	-11.3246
▁वनस्पति	-11.3249
▁रात्र्य	-11.3251
ासने	-11.3251
▁विशाख	-11.3252
son	-11.3256
ga	-11.3257
मनन्त	-11.3259
are	-11.326
▁निर्दिश	-11.3261
▁कमला	-11.3262
अमेरिका	-11.3264
▁अस्ती	-11.3265
▁धनु	-11.3265
गाढ	-11.3266
▁युष्मद	-11.327
विधानसभा	-11.327
▁दिशं	-11.3272
▁एवमपि	-11.3272
रुन्ध	-11.3273
व्याप्य	-11.3273
संयुतः	-11.3274
ाहृत	-11.3275
ूगु	-11.3277
▁इन्द्रो	-11.3277
ुपपद्यते	-11.3278
▁स्वादु	-11.3279
▁ह्येष	-11.3279
रुह्य	-11.3279
▁ऊह	-11.328
sk	-11.3284
तृण	-11.3287
सूर	-11.329
▁उत्तमम्	-11.3292
▁अनुकूलता	-11.3296
▁युवक	-11.3296
विंशतिः	-11.33
▁सुभाष	-11.33
नेट	-11.3301
11.	-11.3304
प्रदेशस्य	-11.3307
▁गुमनाम	-11.331
▁कश्यप	-11.3311
वापि	-11.3312
▁सप्तम्या	-11.3313
▁अकृत	-11.3313
▁स्थापयित्वा	-11.3313
▁पुस्तकम्	-11.3313
▁इतस्ततः	-11.3314
▁निवेदयेत्	-11.3315
▁स्नातक	-11.3316
▁तर्पय	-11.3317
▁जिल्ला	-11.3317
▁बुद्धिमान्	-11.3317
▁देख	-11.332
▁इडा	-11.3321
ारोह	-11.3321
भवतः	-11.3323
▁पदान्त	-11.3325
ायैव	-11.3325
सुतः	-11.3326
▁अर्ज	-11.3326
ीक्रियते	-11.3326
वलि	-11.3327
▁विद्यु	-11.3327
▁संलग्न	-11.3327
व्याहृत	-11.3329
▁अन्येन	-11.333
▁वक्तुम्	-11.3333
▁बर्हि	-11.3334
▁प्राणाः	-11.3336
कीर्त्य	-11.3338
रहस्य	-11.3341
▁उदेति	-11.3342
▁असति	-11.3342
▁तमसा	-11.3342
विशति	-11.3343
▁वेतनमान	-11.3344
जठर	-11.3344
हविष	-11.3346
▁प्रयोज्य	-11.3346
▁हल्	-11.3346
od	-11.3347
▁श्रोतुं	-11.3347
नुवाद	-11.3347
▁सिद्धिं	-11.3349
▁नोपपद्यते	-11.3349
▁भ्राम	-11.3353
गमनम्	-11.3353
Sh	-11.3356
मागता	-11.3356
act	-11.3356
▁उदाहृतः	-11.3357
▁एतावत्	-11.3357
▁दर्शितं	-11.3357
▁निरामय	-11.336
शोष	-11.3363
दिनानि	-11.3364
▁कटु	-11.3366
अप्य्	-11.3367
धेनु	-11.337
▁अपरः	-11.3371
त्पाद	-11.3372
सादृश्य	-11.3372
षामपि	-11.3374
▁वपु	-11.3375
▁वाव	-11.3377
▁पुनरु	-11.338
पृष्ठे	-11.3381
काराः	-11.3382
▁विहर	-11.3383
▁ओष	-11.339
ुध्द	-11.3393
न्मे	-11.3393
Sanskrit	-11.3395
▁मुद्रास्फीति	-11.3395
▁पत्रकार	-11.3395
▁राजकीय	-11.3396
प्रदं	-11.3396
शक्तेः	-11.3399
▁शिशिर	-11.34
कल्	-11.3402
तायै	-11.3402
ाभ्यन्तर	-11.3405
पूवंक	-11.3406
▁वैदेशिक	-11.3407
▁निवेशयेत्	-11.3407
तलं	-11.3408
प्रतिबन्ध	-11.341
▁2011	-11.341
तिथौ	-11.3412
▁मेधा	-11.3413
▁07.	-11.3414
▁गच्छन्	-11.3416
िणाम्	-11.3417
▁01:	-11.3417
प्रार्थन	-11.3419
श्चन्द्र	-11.3419
▁अभिमुख	-11.342
मयि	-11.3421
खिन्न	-11.3421
ग्निहोत्र	-11.3422
▁वइगु	-11.3422
▁राजनि	-11.3424
▁तच	-11.3424
कारिता	-11.3425
▁अघ	-11.343
▁तथाऽपि	-11.3431
▁अनुभूत	-11.3432
सीदति	-11.3434
▁विष्ण	-11.3437
००३	-11.3441
▁अधिकृत्य	-11.3442
वेशन	-11.3444
▁तथाप्य	-11.3446
०११	-11.3449
▁नञ्	-11.345
हितार्थ	-11.345
▁तारा	-11.3451
मायाति	-11.3452
संबद्ध	-11.3455
क्रा	-11.3456
▁अस्मै	-11.3456
शुद्धिः	-11.346
▁प्रार्थ्य	-11.3462
व्यवहित	-11.3465
▁02.	-11.3467
शैली	-11.3468
91	-11.3469
▁इत्येते	-11.347
▁शतके	-11.3471
▁भूतपूर्व	-11.3471
घटिका	-11.3472
▁उल्	-11.3472
▁अथापि	-11.3474
प्युप	-11.3475
द्देव	-11.3476
▁हानं	-11.3477
पीएससी	-11.3479
1.1	-11.3479
View	-11.3482
▁संशयो	-11.3482
▁जञा	-11.3482
▁ज्वलन	-11.3482
वैचित्र्य	-11.3482
भूव	-11.3483
▁यस्माद्	-11.3483
िणे	-11.3483
प्रचुर	-11.3484
▁ऐन्द्र	-11.3484
विभुः	-11.3486
▁प्रातर	-11.3486
मृष्ट	-11.3487
धारणे	-11.3487
▁संरक्ष	-11.3488
भौतिक	-11.3488
ल्लिङ्ग	-11.3489
र्द्द	-11.349
▁He	-11.349
नीक	-11.3491
ग्ध	-11.3495
भूद्	-11.3496
ादुप	-11.3496
▁विदुषां	-11.3496
निर्णीत	-11.3497
▁दिष्ट्या	-11.3499
जीविका	-11.3501
▁समाचर	-11.3502
▁समाधानं	-11.3504
▁बुधः	-11.3506
ानल	-11.3506
स्वरेण	-11.3506
आश्व	-11.3508
▁पराशर	-11.3508
शाखा	-11.3508
तिलक	-11.3509
▁हीयते	-11.3511
िभिर्	-11.3512
अहम्	-11.3512
लिख्य	-11.3513
कालात्	-11.3513
▁समव	-11.3515
पूर्य	-11.3515
व्रता	-11.3516
▁बहुना	-11.3523
▁मिसा	-11.3525
मृध	-11.3525
मकरोत्	-11.3529
▁श्रुतौ	-11.3529
यती	-11.3532
ीकरणम्	-11.3532
ादेक	-11.3533
▁करोत्य	-11.3534
सृजत	-11.3537
▁अन्तरा	-11.3538
सङ्घटन	-11.3538
▁अयन	-11.3541
स्त्रय	-11.3541
▁ईक्ष	-11.3542
▁अपूर्ण	-11.3543
करुण	-11.3547
▁सर्वगत	-11.3549
▁नीर	-11.3549
▁लागत	-11.3549
सम्बन्धि	-11.355
IC	-11.3555
ळा	-11.3555
ल्ब	-11.3555
.....	-11.3556
दशकं	-11.3558
श्वमेध	-11.356
▁यथाकालं	-11.356
▁दस्य	-11.3562
चत्वारिंश	-11.3564
▁हाल	-11.3566
वर्जितम्	-11.3566
wiki	-11.3566
▁[...]	-11.3566
जन्मनि	-11.3566
▁मुहुः	-11.3567
▁सितम्बर	-11.3567
शीघ्र	-11.3567
cc	-11.3567
शोध	-11.3568
▁सन्निहित	-11.3568
▁पीछे	-11.3569
मीमांसा	-11.3571
सून	-11.3573
▁प्रसंस्करण	-11.3574
ण्डी	-11.3575
चिकित्सित	-11.3577
fi	-11.358
ai	-11.358
▁गदा	-11.3583
Q	-11.3584
▁नासा	-11.3584
▁उत्तिष्ठ	-11.3584
▁निराकृत	-11.3587
स्वयं	-11.3587
पंच	-11.359
▁द्रष्टव्य	-11.3592
येव	-11.3592
ियन	-11.3592
▁राजभाषा	-11.3594
कृपया	-11.36
शकुन	-11.3602
नुष	-11.3605
▁शरीरस्य	-11.3606
पादयति	-11.3607
▁वृद्धौ	-11.3608
त्युत्तर	-11.3614
न्यतम	-11.3615
महोदय	-11.3615
विश्वविद्यालयस्य	-11.3616
ादारभ्य	-11.3617
▁उदित	-11.3617
प्रयोगेण	-11.3617
न्तःपुर	-11.3619
समुच्चय	-11.3619
▁भूतकाल	-11.362
महिला	-11.3624
न्धकार	-11.3624
पृथक्	-11.3625
मन्त्रि	-11.3626
योग्या	-11.3627
▁श्ल	-11.3628
वतार	-11.3628
यमर्थः	-11.3628
▁स्तुत्य	-11.363
भि॒	-11.3632
▁जीवन्ति	-11.3634
▁वीणा	-11.3638
▁शुभ्र	-11.3641
मब्रवीत्	-11.3643
▁खने	-11.3644
▁निबोधत	-11.3645
▁जाण	-11.3645
बोध्य	-11.3648
भूतानि	-11.365
स्तार	-11.3652
▁वैकल्पिक	-11.3653
▁टाप्	-11.3654
▁मुद्दा	-11.3655
▁खनेदु	-11.3655
भिमुख	-11.3656
भिप्रायः	-11.3657
▁प्रियम्	-11.3657
न्वितः	-11.3658
वेव	-11.366
▁व्युत्पत्ति	-11.3661
▁दास्यामि	-11.3662
धरे	-11.3663
▁चलित	-11.3666
स्सु	-11.3666
रात्रौ	-11.3667
▁रात्राव	-11.3667
▁मजू	-11.367
▁भूमेः	-11.3671
▁छन्दो	-11.3677
▁पुत्राणां	-11.3678
॑द	-11.368
ेष्व्	-11.3682
निश्चयः	-11.3683
दृग	-11.3684
▁विकस	-11.3686
सभायाः	-11.3688
प्रामाण्य	-11.3692
▁यशस्	-11.3693
▁महात्मान	-11.3693
भोक्त	-11.3694
▁एहि	-11.3697
रूपता	-11.37
▁दृष्टवान्	-11.3702
]/	-11.3703
_2_	-11.3705
ग्रास	-11.3706
ैरुप	-11.3708
कार्याणां	-11.3708
त्रितय	-11.3711
रचन	-11.3712
▁गरि	-11.3715
ातप	-11.3715
राया	-11.3715
▁प्रसारित	-11.3716
EN	-11.3718
▁प्रपन्न	-11.3719
▁वर्षाणां	-11.372
▁स्त्रियं	-11.3722
ान्यत्र	-11.3724
मही	-11.3725
ायुर्	-11.3726
नून	-11.3727
न्निति	-11.3728
धुंकाः	-11.3729
वसो	-11.373
▁अहः	-11.3731
देशेन	-11.3733
श्चिद	-11.3734
स्तत्त्व	-11.3734
भ्युदय	-11.3735
वेल	-11.3741
▁न्ह्य	-11.3741
साह	-11.3741
▁यवन	-11.3741
▁More	-11.3742
▁क्लिक्	-11.3742
▁विपद	-11.3742
पाठक	-11.3743
स्वामी	-11.3743
▁गमिष्यति	-11.3744
मुना	-11.3745
▁सर्वात्म	-11.3745
▁गावः	-11.3746
▁राजकुमार	-11.3746
▁यययय	-11.3748
▁प्रत्ययार्थ	-11.3748
▁संक्रमित	-11.3748
सम्ब	-11.375
▁यूपी	-11.3754
-19	-11.3754
▁अभिनय	-11.3757
▁शक्तिर्	-11.3757
भक्षण	-11.3758
दलं	-11.3759
▁सर्वकार्येषु	-11.3759
▁भवत्या	-11.376
नुद	-11.3761
भोक्तु	-11.3763
मंत्री	-11.3763
▁इतना	-11.3763
दहन	-11.3763
विविध	-11.3765
रोद्ध	-11.3767
भिनन्द	-11.377
संयुतम्	-11.3773
कुलीन	-11.3773
जानां	-11.3774
नाच्वन	-11.3774
भवता	-11.3774
द्दश	-11.3775
पेत	-11.3775
वानिति	-11.3778
नुत्तम	-11.3779
▁अवश्यम्	-11.3783
▁कथयस्व	-11.3785
▁गौः	-11.3786
▁अपश्यत्	-11.3786
रेष	-11.3786
▁अभिप्रेत	-11.3788
धातो	-11.3788
ans	-11.3788
▁शरण्य	-11.3789
श्यते	-11.3791
बलात्	-11.3791
स्त्राणि	-11.3792
▁रंग	-11.3792
▁दैवी	-11.3793
ज्जल	-11.3795
शालि	-11.3796
▁समर्था	-11.3797
▁एतदपि	-11.3799
संबन्धि	-11.3799
ाग्रतः	-11.38
▁२०००	-11.3802
कर्माण	-11.3802
नामानि	-11.3804
▁पताका	-11.3806
बाण	-11.3806
▁सहस्राक्ष	-11.3809
पवाद	-11.3811
▁तदभावे	-11.3811
▁भूतेषु	-11.3812
▁पात्रं	-11.3812
क्षते	-11.3815
▁03:	-11.3817
▁अमेरिकादेश	-11.3818
१०७	-11.3819
▁प्रपद्ये	-11.382
चाक्षुष	-11.3821
त्सर्वं	-11.3822
ात्तु	-11.3823
हर्	-11.3825
▁पुचः	-11.3826
राक्षस	-11.3828
▁काकः	-11.3828
▁कौतूहल	-11.3829
▁याज्ञवल्क्य	-11.3829
सामानाधिकरण्य	-11.3829
▁व्याख्येय	-11.3829
▁दबाव	-11.383
▁वाऽपि	-11.383
▁प्रदोष	-11.383
▁सरोवर	-11.383
नेय	-11.3833
धातव	-11.3834
▁भयावह	-11.3835
▁लभे	-11.3835
▁कर्तव्यो	-11.3835
न्नेव	-11.384
▁पढ़	-11.3841
vii	-11.3842
वर्द्धन	-11.3843
सदनं	-11.3844
पा०	-11.3844
संदेह	-11.3848
SS	-11.385
नुवर्त	-11.3851
ह्वय	-11.3851
▁07:	-11.3853
▁निश्चयेन	-11.3853
वाचकः	-11.3854
▁भ्रान्ति	-11.3855
▁अन्तर्गत	-11.3856
प्रीण	-11.3857
ज्ञाप्य	-11.3858
खेल	-11.3859
वाहिक	-11.3859
प्रिये	-11.3862
ह्रियते	-11.3864
पण्य	-11.3864
84	-11.3866
▁ओली	-11.3868
▁मरुतो	-11.3871
प्रसंग	-11.3871
बिम्ब	-11.3873
विविधानि	-11.3874
▁क्षमस्व	-11.388
▁वितत	-11.3881
वाचन	-11.3881
▁वचो	-11.3883
नुष्ठित	-11.3886
▁कुत्स	-11.3886
ासीत	-11.3886
पुंस	-11.3887
▁पुरुषाः	-11.3888
lu	-11.3888
भाषे	-11.3889
▁गद्य	-11.3889
अङ्ग	-11.3889
▁श्रेयो	-11.3889
शोषण	-11.389
ुदाहृत	-11.3891
▁पुरुषेण	-11.3892
▁स्पष्टम्	-11.3893
निभ	-11.3897
क्ष्ण	-11.3898
यित	-11.39
भिधा	-11.39
व्यतिरेक	-11.3901
युक्तेन	-11.3902
दैत्य	-11.3905
▁विदितं	-11.3907
▁येँ	-11.3908
सम्मेलन	-11.3909
▁विग्रहः	-11.391
▁विचर	-11.3911
रुद्र	-11.3912
▁विद्याधर	-11.3913
गुजरात	-11.3914
▁विनिर्	-11.3915
▁अनादि	-11.3915
▁नास्त्य	-11.3915
▁चान्ये	-11.3916
▁सुराः	-11.3917
ोऽन्त	-11.3918
▁सन्तत	-11.3918
ेदानीं	-11.3918
▁अस्पताल	-11.3919
▁आसीत	-11.3919
▁नमोऽस्तु	-11.392
▁विवस्वत	-11.392
▁उत्तीर्ण	-11.392
▁भविष्यवाणी	-11.3922
क्षेत्राणि	-11.3922
विवर्जितः	-11.3923
ददाति	-11.3924
▁लेखाः	-11.3924
▁विषयेषु	-11.3924
ऽस्मि	-11.3925
▁06:	-11.3929
ब्ल	-11.3929
▁म्रिय	-11.393
ज्योतिष	-11.3931
▁नमामि	-11.3932
ऽन्व	-11.3933
उक्त	-11.3934
चुम्ब	-11.3935
▁धाता	-11.3937
नुभूयते	-11.3937
युक्तानि	-11.3938
▁तस्मिं	-11.3938
गृह्णाति	-11.3942
न्त्येव	-11.3943
▁षष्ठे	-11.3947
ote	-11.395
शरण	-11.395
धारक	-11.3951
जातयः	-11.3952
भाषी	-11.3953
▁पलायन	-11.3955
पनिषद	-11.3956
प्रदानेन	-11.3956
▁सरस	-11.396
लाभाय	-11.3962
वारित	-11.3964
बन्धो	-11.3966
विश्य	-11.3968
▁Sa	-11.3969
▁वइ	-11.3969
येमाः	-11.3972
स्वरूपेण	-11.3974
ज्येष्ठ	-11.3977
क्रियत	-11.3977
न्हु	-11.3978
लेपन	-11.3978
प्रत्ययान्त	-11.3978
▁पाठशाला	-11.3979
▁कथितो	-11.398
वाचिन	-11.398
▁अनिल	-11.3981
पातक	-11.3981
करोमि	-11.3981
कलित	-11.3986
ोपासन	-11.3987
▁तज्ज	-11.3988
योग्यता	-11.3988
शुक्र	-11.3988
शिक्षक	-11.399
ध्वे	-11.3992
▁प्रबुद्ध	-11.3994
विवक्ष	-11.3996
भाष्ये	-11.3996
धर्मेण	-11.3999
ोष्ण	-11.4
▁दीर्घायु	-11.4002
▁भेस	-11.4003
▁कार्यकर्ता	-11.4006
▁ख्रीष्ट	-11.4008
്	-11.4009
गृह्णीयात्	-11.4009
मैथुन	-11.4009
▁तुम्हारे	-11.4009
गेहं	-11.401
▁प्रतिगृह्यताम्	-11.4011
कौशिक	-11.4011
शोणित	-11.4011
▁प्रादेशिक	-11.4012
▁व्यज्यते	-11.4012
▁सर्वेषामेव	-11.4013
▁द्वाभ्यां	-11.4014
न्तोदात्त	-11.4015
संख्यया	-11.4015
▁नाक	-11.4015
बद्धा	-11.4017
▁अनन्तरम्	-11.4019
▁रात्री	-11.4019
▁समाप्य	-11.4021
{{	-11.4021
▁वामहस्त	-11.4021
▁सुनिश्चित	-11.4023
▁हविषा	-11.4026
मार्य	-11.4026
▁तिस्रो	-11.4026
प्रदेशेषु	-11.4027
तनो	-11.4028
▁प्रतिपद्य	-11.4029
▁गेहे	-11.4029
▁अवरोध	-11.4029
▁सम्बोधन	-11.403
कक्षा	-11.4031
▁पटलः	-11.4034
▁यदर्थ	-11.4034
प्रदानं	-11.4037
▁दविज	-11.4038
स्तिष्ठ	-11.4038
विशेषतः	-11.4039
▁जन्मना	-11.4044
▁त्रिविधं	-11.4045
र्नाम	-11.4048
▁सम्बन्धमा	-11.4049
विरोधे	-11.405
भवने	-11.4052
▁मर्म	-11.4054
मित्यत्र	-11.4054
▁इकार	-11.4059
मारभ्य	-11.4059
▁कन्य	-11.4064
प्रतिपादक	-11.4064
वर्धय	-11.4068
यमाण	-11.4068
▁वनवास	-11.4069
भुक्ति	-11.4072
हार्य	-11.4072
मुपागत	-11.4074
▁अवधिः	-11.4075
▁सरला	-11.4078
वच्छेदक	-11.408
च्छिष्ट	-11.408
ीयेत	-11.4081
▁मातः	-11.4081
▁बहव	-11.4083
स्याप्य	-11.4083
ाकाङ्क्षा	-11.4085
ग्रहो	-11.4087
मांसं	-11.4089
००४	-11.4091
▁अवतार	-11.4092
हेतुक	-11.4092
▁हूं	-11.4093
जरा	-11.4096
▁मनू	-11.4097
थै	-11.4097
▁अनुज्ञा	-11.4098
॒ण	-11.4098
▁अतस्त	-11.4099
▁उद्घाटन	-11.41
पुरूष	-11.41
▁भाषापाकः	-11.41
हारि	-11.41
▁पिहां	-11.41
nd	-11.4102
ोत्कर्ष	-11.4102
▁इतेि	-11.4103
▁अनुबन्ध	-11.4103
स्राव	-11.4104
न्ड	-11.4105
नाम्नि	-11.4107
ish	-11.4108
▁पितरो	-11.4108
▁श्रावण	-11.4109
▁भवेदिति	-11.4113
ाधिकृत	-11.4113
ुषित	-11.4113
मन्यथा	-11.4114
▁प्राधान्येन	-11.4116
▁समुद्री	-11.4117
▁यत्तद	-11.4119
▁पिबेत्	-11.4119
क्यू	-11.4121
▁उपग्रह	-11.4121
▁समक्षं	-11.4123
स्यूत	-11.4123
दिशति	-11.4124
▁सार्थक	-11.4125
ययुः	-11.4127
▁III	-11.4127
होरा	-11.4129
तय्गु	-11.4129
स्थितो	-11.4129
ाल्प	-11.413
▁अस्थि	-11.413
▁रामेण	-11.4132
▁काशी	-11.4133
▁देव्य	-11.4133
मवाप	-11.4133
निदेश	-11.4134
▁मानसिक	-11.4135
संख्येय	-11.4135
तिथ्य	-11.4137
▁शुरु	-11.4138
▁संक्षिप्त	-11.4138
▁चायं	-11.4143
त्वाभाव	-11.4144
▁द्विपद	-11.4144
port	-11.4147
ook	-11.4148
संस्तुत	-11.4151
tic	-11.4151
मुपैति	-11.4152
दृष्टान्त	-11.4152
र्च्च	-11.4159
▁दइ	-11.4159
▁वंगु	-11.4162
ृणोति	-11.4166
योगस्य	-11.4166
स्सा	-11.4168
न्त्र	-11.4171
सिद्धत्वात्	-11.4171
महोदयस्य	-11.4171
िष्याम	-11.4171
▁फ्रान्स	-11.4171
▁14.	-11.4172
मार्गण	-11.4172
▁संस्कृतभाषाया	-11.4173
लुक्	-11.4175
रूपिणी	-11.4178
▁वैश्व	-11.4178
होत्र	-11.4181
ुद्देश	-11.4185
याप	-11.4185
▁यथापूर्वं	-11.4186
▁अशोक	-11.4187
ितुमर्ह	-11.4187
▁तुलना	-11.4187
▁परमेश्वरि	-11.4189
ुग्र	-11.419
▁इंडियन	-11.4191
▁पाश्चात्य	-11.4191
▁डोमेन	-11.4191
▁प्रजनन	-11.4192
▁निःशुल्क	-11.4192
सम्भवात्	-11.4192
▁अभिलाष	-11.4193
पदवीं	-11.4193
क्यं	-11.4193
अध्वर	-11.4194
श्रेयस	-11.4194
०१५	-11.4195
कन्यका	-11.4196
▁किन्त्व	-11.4198
▁कर्तृपद	-11.4199
ाविष्ट	-11.42
▁परिहर	-11.4201
▁कोल	-11.4201
▁प्रारूप	-11.4201
AL	-11.4202
▁अस्त्य	-11.4203
▁भक्तानां	-11.4203
▁अवश्यमेव	-11.4204
पराजित	-11.4204
वार्य	-11.4205
▁जातानि	-11.4205
▁आहत्य	-11.4206
▁प्रदीयते	-11.4207
▁सर्वैर्	-11.4207
ज्ञात्वा	-11.4208
▁सर्वकाल	-11.4212
▁चतुर्विंशति	-11.4212
▁भावार्थः	-11.4217
▁पुनःपुनः	-11.4217
▁(19	-11.4217
भिव्यक्त	-11.4219
▁अनू	-11.4219
सिध्द	-11.4221
ाराधन	-11.4221
चोदित	-11.4223
धिष्ठान	-11.4223
ञ्जल	-11.4225
▁03.	-11.4226
कुर्	-11.4226
▁सूत्रस्य	-11.4227
जहार	-11.4227
प्रसादेन	-11.4228
▁इल	-11.4228
न्निव	-11.423
▁पूर्वज	-11.4232
बाहुल्य	-11.4235
▁भोजनम्	-11.4236
▁वरो	-11.4237
▁मृत्युर्	-11.4239
▁प्रमोद	-11.424
कर्त्तु	-11.4247
वेष्टित	-11.4249
ादिवत्	-11.425
▁समी	-11.425
श्श	-11.4253
▁सथित	-11.4255
सारण	-11.4259
▁आख्यात	-11.4261
▁उरु	-11.4262
कीर्त्त	-11.4263
▁रक्षणे	-11.4266
ुपदिश्यते	-11.4266
▁घोषित	-11.4269
त्यादौ	-11.4269
ोत्पादन	-11.4271
▁अष्टौ	-11.4271
▁तमस	-11.4274
सम्पर्क	-11.4278
MS	-11.4278
▁सुगम	-11.428
▁गई	-11.428
सैनिक	-11.428
//	-11.4281
ष्ट्वा	-11.4281
▁थज्याःगु	-11.4285
कांग्रेस	-11.4286
संपर्क	-11.4286
▁यायेमाः	-11.4287
▁तुष्टि	-11.4288
स्मारक	-11.429
थेति	-11.429
मीर	-11.4291
AC	-11.4292
विश्वविद्यालये	-11.4292
वृन्द	-11.4293
वशिष्यते	-11.4295
ाधिपति	-11.4295
▁प्रहर	-11.4297
▁अर्हसि	-11.4297
▁नित्यशः	-11.4302
▁क्षणमात्र	-11.4302
▁फट्	-11.4303
▁पृष्टवान्	-11.4304
▁शिरसि	-11.4304
पुष्ट	-11.4308
वृता	-11.4309
▁समन्तात्	-11.4309
भार्या	-11.431
▁विनाशाय	-11.431
मन्नं	-11.4311
▁प्रयासः	-11.4312
▁अभिवादन	-11.4312
▁पशवः	-11.4316
मनुभव	-11.4318
ाधिपत्य	-11.4319
ांस्तु	-11.4321
चेतस	-11.4322
ागत्य	-11.4325
धुन	-11.4325
old	-11.4326
▁बहुव्रीहिः	-11.4328
▁बहुभिः	-11.4328
टीका	-11.433
ललाट	-11.4334
▁आप्त	-11.4334
▁गायति	-11.4336
हीनो	-11.4341
ध्यात्म	-11.4344
गाल	-11.4345
मीटर	-11.435
डिया	-11.4355
रिक्त	-11.4355
श्लाघ	-11.4356
दूषक	-11.4359
▁Pro	-11.436
ाऽहं	-11.436
▁तज्ज्ञान	-11.4361
▁पुरुषाणां	-11.4363
ात्पूर्व	-11.4366
▁गानाः	-11.4369
▁व्यवहर	-11.4369
▁परीक्षित	-11.4372
▁एड	-11.4372
▁समापन	-11.4373
धुंकूगु	-11.4373
देहि	-11.4374
▁कृती	-11.4375
16.	-11.4375
▁ऋतव	-11.4378
बिउगु	-11.4378
▁भुञ्जीत	-11.4378
▁आभासी	-11.4378
▁दिसम्बर	-11.4378
▁शर्करा	-11.4378
▁दद्याद्	-11.4379
▁वयाः	-11.4379
▁(5)	-11.4379
▁राममोहन	-11.4379
▁एज	-11.438
▁काञ्चन	-11.4381
चाप	-11.4381
ित्यादि	-11.4382
▁तह	-11.4384
▁मासिक	-11.4385
▁थथे	-11.4385
▁ठञ्	-11.4385
▁नागर	-11.4386
▁गतेषु	-11.4391
स्कृत	-11.4393
भिज्ञ	-11.4394
वद्भाव	-11.4394
पीडा	-11.4395
▁२०११	-11.4395
नयने	-11.4396
▁स्मर्यते	-11.4396
▁निवसति	-11.4397
▁प्रत्याहार	-11.4398
▁जज्ञे	-11.4398
पङ्कज	-11.4398
वह्नि	-11.4399
पुन	-11.44
ध्यते	-11.44
घातक	-11.4401
स्पर्शन	-11.4402
मीति	-11.4404
▁भवन्तं	-11.4405
ऽन्यथा	-11.4407
धारणा	-11.4409
बद	-11.441
विवक्षा	-11.4411
▁वितर्क	-11.4412
पोह	-11.4413
संहित	-11.4413
▁विनियोग	-11.4416
▁अस्मदीय	-11.4418
दोल	-11.4418
▁नराणां	-11.4418
ज्योतिः	-11.4418
दिक्षु	-11.4419
भागेन	-11.4419
▁चापर	-11.442
▁राजानः	-11.442
त्रयम्	-11.4421
वेदी	-11.4424
वचनानि	-11.4424
▁जलद	-11.4425
▁हृदयेन	-11.4425
▁जायेत	-11.4425
cl	-11.4426
Re	-11.4429
मासी	-11.443
ाद्रि	-11.443
सकल	-11.443
लीला	-11.4431
ढु	-11.4431
भूतानां	-11.4433
▁सदाचार	-11.4437
▁हनिष्य	-11.4438
ml	-11.4439
न्नित्य	-11.4439
▁उपासन	-11.4443
योनिः	-11.4446
कर्मधारय	-11.4448
▁बलीय	-11.4451
bs	-11.4452
स्वरूपे	-11.4454
▁प्रस्तुति	-11.4462
▁विदेह	-11.4465
▁यत्तत्	-11.4465
०१३	-11.4466
▁नामरूप	-11.4469
Í	-11.4472
▁औद्योगिक	-11.4472
कारणत्व	-11.4472
वैषम्य	-11.4472
ाभिलाष	-11.4473
▁बैठक	-11.4474
व्यङ्ग्य	-11.4475
▁इतीदं	-11.4475
ेत्य्	-11.4476
▁प्राश	-11.4477
न्येषां	-11.4478
▁अभिनन्दन	-11.448
ऽन्त	-11.4481
▁ऋषय	-11.4482
▁2009	-11.4482
रञ्जन	-11.4487
ाऽस्ति	-11.4488
यौवन	-11.4488
▁संपूज्य	-11.4488
▁नीयते	-11.4491
▁आसम्	-11.4493
नर्त	-11.4494
▁अस्माकम	-11.4497
▁चेदपि	-11.4497
▁आशु	-11.4497
▁उपयोगिता	-11.4499
▁रजो	-11.4499
विधेय	-11.4499
वीक्षण	-11.45
सिक्त	-11.4501
प्रोक्त	-11.4504
▁भद्रे	-11.4506
स्त्येव	-11.4506
IP	-11.4508
ath	-11.4509
जोष	-11.451
प्रतीक्ष	-11.451
▁सर्वदैव	-11.4513
▁त्रिपुर	-11.4513
वाहक	-11.4516
▁पठितम्	-11.4516
▁पुरतो	-11.4519
विलक्षण	-11.4519
वाहित	-11.4525
्महे	-11.4525
ell	-11.4529
सन्देश	-11.453
CO	-11.453
_4_	-11.4531
▁अन्याय	-11.4535
▁प्रतिबन्धक	-11.4535
तत्पर	-11.4536
लाइन	-11.4539
जीवानां	-11.4539
ics	-11.454
▁करणीया	-11.4542
▁प्रत्युत	-11.4544
▁यज्ञेन	-11.4545
▁कच	-11.4545
शिरा	-11.4545
ावृत्ति	-11.4546
▁सूप	-11.4553
▁आकर्षण	-11.4555
परिधि	-11.4557
वदति	-11.4559
▁संवृत्त	-11.4559
मागत्य	-11.456
कृपा	-11.4561
वल्	-11.4563
ष्टक	-11.4564
▁रूक्ष	-11.4566
Download	-11.4567
▁गभीर	-11.4567
▁निवसन्ति	-11.4567
▁अधम	-11.4568
हिताय	-11.457
यूथ	-11.457
▁दुर्भाग्य	-11.4571
ata	-11.4575
समायुक्त	-11.4577
▁तज्	-11.4579
▁इङ्ग	-11.458
▁व्यक्तित्व	-11.4581
▁आचरण	-11.4583
▁२०१२	-11.4585
प्ति	-11.4585
िङ्ग्	-11.4586
गन्तुं	-11.4588
खात	-11.459
▁वक्तुम	-11.4591
day	-11.4592
स्तर्हि	-11.4598
▁प्रतीक्षते	-11.4599
▁स्वकार्य	-11.4602
▁शरद	-11.4602
▁यावता	-11.4603
▁उभयत्र	-11.4604
▁पितुर	-11.4606
▁क्रीडन्ति	-11.4608
▁ग्लानि	-11.4608
जाना	-11.4608
ादिभ्यो	-11.4614
यितुम	-11.4618
अन्तर	-11.4618
लभ्यते	-11.463
▁स्थानान्तर	-11.4636
▁भवि	-11.4636
ाधिकारिण	-11.4637
▁कोऽयं	-11.4637
सुता	-11.4638
▁भोक्ष्य	-11.4642
वृत्	-11.4645
नुज्ञात	-11.4645
▁प्रतिषेधो	-11.4646
▁फलेषु	-11.4646
कुच	-11.4646
हमेव	-11.4646
ाङ्कित	-11.4647
▁पुनस्	-11.4651
▁कस्मा	-11.4652
▁माष	-11.4653
▁प्रस्तर	-11.4654
........	-11.4655
▁परत्य	-11.4656
माचर	-11.4657
दिशेत्	-11.4662
भक्ष्य	-11.4662
▁कस्मिंश्चित्	-11.4663
▁न्हापा	-11.4663
रुक्त	-11.4663
▁पुरस्तात्	-11.4663
oldid	-11.4664
▁तर्ह्य	-11.4664
▁रणनीति	-11.4665
ङ्गुष्ठ	-11.4665
▁शंकर	-11.4665
▁इतरेतर	-11.4666
▁कुर्वते	-11.4667
कीर्त्ति	-11.4668
▁दुर्गा	-11.4668
▁विन्दति	-11.467
▁2008	-11.4674
▁विबुध	-11.4674
ोद्यान	-11.4675
विज्ञाय	-11.4679
▁2010	-11.4681
▁मुमुक्षु	-11.4686
▁अस्मद्	-11.4689
▁पृष	-11.469
रूपाय	-11.469
▁मेऽ	-11.4691
▁ब्रूया	-11.4692
मग्र्य	-11.4692
तयैव	-11.4693
▁एकवारं	-11.4693
▁दीर्घत्व	-11.4694
▁जनताया	-11.4695
यक्ष	-11.4698
▁सम्भवन्ति	-11.4701
चारित्र	-11.4702
सहस्त्र	-11.4702
यंत्र	-11.4703
चर्म	-11.4709
ग्रन्थाः	-11.471
रूपत्व	-11.4713
खेट	-11.4715
▁विप्राः	-11.4715
ास्तीति	-11.4715
▁तदिह	-11.4718
▁साम्न	-11.4719
रायण	-11.4719
▁निर्मितम्	-11.472
▁एतत्ते	-11.4722
▁परिषद्	-11.4723
सिद्धौ	-11.4727
उच्च	-11.4728
▁करू	-11.4728
▁रक्षणीय	-11.4731
र्लोक	-11.4733
▁पूजयेद्	-11.4734
▁नभः	-11.4735
कण्ड	-11.4735
▁परमेश्वरम्	-11.4739
▁सत्यपि	-11.4739
ापवाद	-11.474
रुध्य	-11.474
▁तद्वद्	-11.4744
▁मातृका	-11.4746
pt	-11.4749
▁वक्त	-11.475
▁तरी	-11.4753
▁यजते	-11.4754
माप्त	-11.4755
डल	-11.4755
-*	-11.4755
न्मूल	-11.4755
▁सत्यमेव	-11.4756
▁औषधि	-11.4757
vo	-11.4757
मस्माकं	-11.4758
▁अनेकाः	-11.4758
पीडित	-11.476
ताडन	-11.476
Category	-11.476
▁टक्के	-11.476
धिप	-11.4761
▁भरे	-11.4761
नाल	-11.4761
▁आशीर्वाद	-11.4763
▁धनधान्य	-11.4764
▁यथाकामं	-11.4765
▁परुष	-11.4765
▁शाब्द	-11.4766
▁युरोप	-11.4766
००२	-11.4766
..)	-11.4768
▁भुक्त्वा	-11.4769
सभ्यता	-11.4771
पितरौ	-11.4771
▁नेपाःया	-11.4772
▁नायिका	-11.4774
mi	-11.4774
▁सूर्योदय	-11.4775
▁प्रतिपाद्यते	-11.4776
नीगु	-11.4776
क्षौ	-11.4778
पञ्चम	-11.4779
याच्वंगु	-11.478
▁अद्वितीय	-11.478
▁मूलतः	-11.478
▁हविष्	-11.4783
अश्व	-11.4784
पुनर्भव	-11.4786
तनय	-11.4788
कर्तृत्व	-11.4791
▁द्रष्ट	-11.4792
बाई	-11.4793
▁निसर्ग	-11.4794
-5	-11.4794
भूयिष्ठ	-11.4795
▁महेश्वरः	-11.4795
व्यावृत्त	-11.4796
परस्पर	-11.4797
सम्बन्धी	-11.4799
▁१०८	-11.4799
भूमे	-11.48
फ्रे	-11.4801
▁पंचम	-11.4801
▁भगवन्तं	-11.4801
▁परितो	-11.4801
धृष्ट	-11.4803
व्हा	-11.4803
▁लट्	-11.4804
ोत्थित	-11.4807
▁बहुमत	-11.4817
नुभूय	-11.4817
श्र्व	-11.4817
▁धया	-11.4819
▁स्मरति	-11.482
▁ग्राह्या	-11.482
▁प्रारंभ	-11.4827
▁क्वचिद	-11.4828
▁हसति	-11.4828
श्वान	-11.4835
▁यदहं	-11.4836
▁पन्थान	-11.4836
बहुल	-11.4837
विभागस्य	-11.4837
विस्फोट	-11.4838
▁फै	-11.4838
3.1	-11.4839
▁तद्रूप	-11.4841
भ्यन्तर	-11.4843
मधुना	-11.4846
त्यधिक	-11.4847
वारे	-11.4847
▁त्वदीयं	-11.4847
धीना	-11.4848
कारिका	-11.4851
▁मध्याह्न	-11.4854
प्रकाशन	-11.4856
▁title	-11.4858
▁ख्रीष्टाब्द	-11.4859
Exam	-11.4859
▁कैकेय	-11.4859
विपर्यास	-11.4859
▁आयुर्वेद	-11.4859
बुद्ध्या	-11.486
रहिता	-11.4861
ेच्छया	-11.4861
जुगुप्स	-11.4862
▁स्थातुं	-11.4863
▁प्रार्थये	-11.4864
▁you	-11.4866
दर्शि	-11.4868
▁पृच्छामि	-11.4868
थान	-11.4871
▁ब्रूते	-11.4871
नुवाक	-11.4871
ऽश्व	-11.4873
▁हनू	-11.4873
ेश्वरस्य	-11.4873
लंकृत	-11.4874
▁मैत्र	-11.4874
धारणं	-11.4874
▁त्रिज्या	-11.4875
▁मध	-11.4875
अधिक	-11.4875
प्रतिहत	-11.4878
▁कृष्णस्य	-11.4879
▁पुणे	-11.488
गन्ता	-11.4882
ैवेति	-11.4882
▁तस्कर	-11.4884
▁Le	-11.4886
▁Nar	-11.4886
ES	-11.4889
▁सर्वशक्ति	-11.4889
न्तां	-11.4891
च्व	-11.4892
▁संभाषण	-11.4893
▁उमा	-11.4893
▁स्वाधीन	-11.4893
ood	-11.4894
धूत	-11.4894
▁कथयामास	-11.4894
▁पयसा	-11.4897
▁गृहेषु	-11.4898
ोऽप	-11.4899
ध्यवसाय	-11.4901
▁प्रतिष्ठितम्	-11.4902
▁प्रवर्त्त	-11.4903
▁विक्रिया	-11.4904
▁त्वामेव	-11.4906
▁राज्ञे	-11.4907
▁उपादान	-11.491
मुष्य	-11.4915
ऽधुना	-11.4915
▁एकाधिक	-11.4916
▁भारतदेश	-11.4917
विषम	-11.4917
▁वर्ण्यते	-11.4918
As	-11.4918
▁कर्मकर	-11.4919
▁जन्मान्तर	-11.4919
▁तवैव	-11.4921
काण्डे	-11.4922
स्थौ	-11.4923
प्रसर	-11.4924
वृत्तयः	-11.4925
ावलि	-11.493
प्रवास	-11.4936
▁वशे	-11.4938
▁प्रतिष्ठान	-11.4942
रत्र	-11.4943
▁आसीन	-11.4946
मिते	-11.4946
प्रपञ्च	-11.4947
-8	-11.4947
▁अलि	-11.4949
▁तदेक	-11.4949
▁पितु	-11.4949
1.2	-11.4951
▁आम्र	-11.4952
▁भूम्या	-11.4953
▁भगवति	-11.4955
▁ऑनलाइन	-11.4957
▁बुभुक्ष	-11.4957
▁स्वनिगः	-11.4957
▁भार्गव	-11.4958
▁post	-11.4958
तुष्ट	-11.4958
▁व्याचष्टे	-11.4958
ारब्ध	-11.4959
▁वार्तालाप	-11.4959
▁लप्स्य	-11.4959
सङ्घात	-11.496
गुल्म	-11.496
▁स्तौति	-11.4961
▁वृक	-11.4961
ऽपर	-11.4966
शून्ये	-11.4966
ka	-11.4966
▁उक्ताः	-11.4967
फू	-11.4969
▁दीप्ति	-11.4971
मारब्ध	-11.4972
ज्याःगु	-11.4973
▁समीपस्थ	-11.4974
परीक्ष	-11.4974
▁भीकर	-11.4976
▁आकर्ष	-11.4977
▁आभूषण	-11.4982
कटाक्ष	-11.4982
▁सर्वोच्च	-11.4984
▁जपेत्	-11.4984
▁वदन्त	-11.4988
तिरेक	-11.4988
स्तथ	-11.4988
▁पितृभ्य	-11.4988
▁प्राप्तवती	-11.499
माकाश	-11.4991
वांस	-11.4995
ुद्य	-11.4996
ार्द्र	-11.4997
▁द्रष्टव्यः	-11.4997
आयुष	-11.4998
▁किमिदं	-11.4998
▁योषिता	-11.5001
▁प्रथमतः	-11.5001
ासन्	-11.5002
▁गायत्र	-11.5004
ng	-11.5005
▁मालव	-11.5009
विशन्ति	-11.501
▁जित्वा	-11.5011
शीर	-11.5014
धीय	-11.5015
ह्यते	-11.5015
सङ्गीत	-11.5016
नीच	-11.5017
तत्परः	-11.5017
▁आत्मनो	-11.5018
सत्र	-11.5019
वर्णनम्	-11.5021
तीत्याह	-11.5021
▁संगम	-11.5026
ादिकम्	-11.5027
▁मकर	-11.5027
▁वायस	-11.5028
▁लागिं	-11.5031
▁अनुगमन	-11.5031
र्वै	-11.5032
▁साध्यते	-11.5033
▁लिप्	-11.5033
▁दक्षिणतः	-11.5037
▁अगर	-11.5038
वानसि	-11.5038
▁युवान	-11.5039
▁प्रतिदिनम्	-11.5041
ितवन्तः	-11.5043
▁कारयति	-11.5044
▁गर्न	-11.5045
▁आरभत	-11.5047
च्यव	-11.5049
परीत	-11.505
्वःगु	-11.5052
यानाच्वंगु	-11.5054
▁ऑफ	-11.5054
▁प्रकाशितम्	-11.5055
▁कुर्युः	-11.5056
▁प्रतिष्ठिता	-11.5056
▁गुरुत्वाकर्षण	-11.5057
▁रेस्तरां	-11.5057
▁सुझाव	-11.5057
क्टर	-11.5058
जृम्भ	-11.5058
सामीप्य	-11.5058
▁अन्तर्भवन्ति	-11.5058
▁कठोर	-11.5058
धात्वर्थ	-11.5058
भिषिक्त	-11.5059
ite	-11.506
▁लेभे	-11.506
▁२०७५	-11.5062
संधान	-11.5063
▁त्वामह	-11.5063
स्थानात्	-11.5064
▁घृतेन	-11.5065
००५	-11.5065
डाल	-11.5066
तडाग	-11.5067
▁त्यजति	-11.5067
▁चिन्तयेत्	-11.5068
च्छद	-11.507
▁कुज	-11.507
▁तदिद	-11.507
धीते	-11.5071
येयुः	-11.5071
▁तदुक्तम्	-11.5072
तद्धित	-11.5073
▁अन्यतमः	-11.5073
विरोधी	-11.5073
वर्तन्ते	-11.5074
दिक्	-11.5075
▁आवेद	-11.5075
▁समासतः	-11.5076
प्रणय	-11.5077
▁प्रख्यात	-11.5077
▁विज्ञेयः	-11.5078
▁२०१९	-11.5078
लाया	-11.5078
▁कुर्वाण	-11.508
ानुगुण	-11.5081
▁योगदानं	-11.5084
नैतिक	-11.5084
▁प्रवर्तन्ते	-11.5086
▁प्रचक्षते	-11.5087
विधानेन	-11.5089
णीया	-11.5089
▁निरुप	-11.5089
▁स्मृते	-11.5091
▁उपन्यास	-11.5091
प्येवं	-11.5093
▁ठ्	-11.5095
▁मयैव	-11.5095
दाव	-11.5096
▁कथंचन	-11.5096
संस्पर्श	-11.5096
▁स्वैर	-11.5104
नुमीयते	-11.5105
ावलोकन	-11.5105
▁परित्यक्त	-11.5105
श्रू	-11.5107
▁वेब	-11.5107
धियः	-11.5108
▁परमेश	-11.5109
दि॒व	-11.5111
पश्यत	-11.5115
स्वातन्त्र्य	-11.5116
▁जनय	-11.5119
तत्पुरुषः	-11.512
कोट्य	-11.5121
संयुक्ता	-11.5121
विभा	-11.5121
ग्रि	-11.5124
किन्	-11.5124
यानस्य	-11.5124
▁युञ्ज	-11.5126
4.1	-11.5128
ink	-11.5131
नाम्नः	-11.5132
▁सम्बन्धो	-11.5133
▁मस्त	-11.5138
▁अन्धकार	-11.5138
ूनाम्	-11.5138
पाई	-11.5139
ुपसर्ग	-11.5142
लङ्घन	-11.5142
▁अद्यत्वे	-11.5144
यॊग	-11.5146
ash	-11.5146
प्रापण	-11.5147
कलत्र	-11.5147
प्येक	-11.5148
nt	-11.5149
विवेचन	-11.515
▁सर्वेक्षण	-11.5153
▁मन्यमान	-11.5155
▁वसव	-11.5155
▁सामान	-11.5157
▁आवास	-11.5157
▁चत्वारो	-11.5157
▁मनुष्याः	-11.5157
▁प्रचोदयात्	-11.5158
▁क्रयविक्रय	-11.5159
▁नृणाम्	-11.5159
▁प्रयोजयेत्	-11.5161
वर्णस्य	-11.5163
पताक	-11.5163
ever	-11.5164
चार्य	-11.5164
कोष्ठ	-11.5165
▁अनुग्रह	-11.5165
▁यौवने	-11.5166
▁योजयेत्	-11.5167
▁प्रमुच्यते	-11.5168
▁क्वचिदपि	-11.5168
▁प्रात	-11.5168
पाखे	-11.5169
▁जुलै	-11.5171
कार्षी	-11.5171
पीन	-11.5172
▁स्वीक्रियते	-11.5174
▁निवर्तन्ते	-11.5174
तमिळ	-11.5174
तेजो	-11.5175
▁गर्भवती	-11.5177
▁वन्दन	-11.5178
युतम्	-11.5181
न्यू	-11.5182
वाट	-11.5182
▁पिबन्ति	-11.5182
▁परस्मै	-11.5182
स्फ	-11.5183
▁दुःखिता	-11.5184
IT	-11.5185
तादृश	-11.5189
▁खँय्	-11.5189
▁परमात्मनः	-11.519
ेत्युक्त	-11.519
चतुर	-11.5193
वस्थिता	-11.5195
▁मन्त्रिपरिषद्	-11.5195
जन्मनः	-11.5195
▁भारतीयानां	-11.5196
संभावन	-11.5196
तीव्र	-11.5196
▁आधि	-11.5198
▁संक्षेप	-11.5199
▁निहन्	-11.52
▁परिहरति	-11.52
MP	-11.52
ैतानि	-11.5201
राशी	-11.5201
प्रमुख	-11.5202
▁तद्भाव	-11.5202
AN	-11.5206
तपस्विन	-11.5208
▁Vi	-11.5209
▁इदमपि	-11.5209
▁कमर	-11.5211
▁पूरक	-11.5211
▁अनर्थ	-11.5212
▁एवमुक्त्वा	-11.5212
▁भगवद्	-11.5213
देष्ट	-11.5214
▁पुनरावृत्ति	-11.5214
प्रार्थना	-11.5216
संध्य	-11.5217
यथार्थ	-11.5217
रिष्यते	-11.5224
ईश्वर	-11.5226
-->	-11.5228
मीयते	-11.5229
चकित	-11.5229
▁साभार	-11.523
▁ङित्	-11.5235
सलिल	-11.5238
▁भारतदेशस्य	-11.5243
▁लॊके	-11.5244
हरु	-11.5244
▁धनुः	-11.5244
कारिणा	-11.5244
▁लेखनम्	-11.5247
▁स्थापयति	-11.5251
विशुद्ध	-11.5251
▁यद्य्	-11.5252
लिप्स	-11.5253
बीर	-11.5254
वसाय	-11.5255
विकसित	-11.5255
ub	-11.5256
ूर्ज	-11.5257
पालकः	-11.5258
स्थानि	-11.5259
▁शक्यत	-11.5259
नैमित्तिक	-11.526
▁प्रचण्ड	-11.5261
▁मैथिल	-11.5261
दैर्घ्य	-11.5261
तथ्य	-11.5262
▁छाय्	-11.5263
न्यतरस्याम्	-11.5264
ber	-11.5265
▁ऋजु	-11.5265
ऋष	-11.5266
वैर	-11.5266
▁निर्मितमस्ति	-11.5266
लघुकथा	-11.5266
▁निर्दिश्यते	-11.5268
दंड	-11.5269
भि॑	-11.5272
योरेक	-11.5274
मुचित	-11.5275
tor	-11.5276
सज्ज	-11.5277
ास्वाद	-11.5278
त्रस्त	-11.5279
मृज	-11.528
ङग	-11.5284
▁अनुसार	-11.5284
▁जानीत	-11.5284
▁तत्कार्य	-11.5284
▁११०	-11.5289
र्देव	-11.529
▁णिच्	-11.5291
मालोक्य	-11.5292
अध	-11.5293
po	-11.5294
▁उपविष्ट	-11.5295
▁किस	-11.5295
▁अधिष्ठान	-11.5296
संशयम्	-11.53
स्तृतीय	-11.5302
▁सवाल	-11.5304
पदेश	-11.5309
भिर्न	-11.531
▁ततस्तु	-11.5311
▁योगिनः	-11.5313
भीरु	-11.5314
मुल	-11.5317
▁परिजन	-11.5319
▁शिवाय	-11.5319
▁पोस्ट	-11.5323
निवृत्त्यर्थ	-11.5325
▁हसन्	-11.5327
ave	-11.5328
मिन्	-11.533
डर	-11.5331
▁नियोग	-11.5332
१०४	-11.5332
▁वशी	-11.5334
▁सैनिकाः	-11.5334
जघान	-11.5336
▁भद्रा	-11.5337
समाप्ति	-11.5338
वाँ	-11.5339
AM	-11.5339
मत्या	-11.5343
▁कस्माद	-11.5345
च्छाद	-11.535
▁प्रतिपाद्य	-11.5356
तूष्णीं	-11.5357
बर्ह	-11.5363
ऌ	-11.5364
▁Shlok	-11.5364
▁सम्मिलित	-11.5364
क्विप्	-11.5364
▁स्थगित	-11.5364
▁शरुत्वा	-11.5365
ure	-11.5365
निर्मुक्त	-11.5366
▁भीमसेन	-11.5367
▁आह्वय	-11.5367
▁नैवेद्य	-11.5367
▁उत्थित	-11.5367
११७	-11.5368
ीयताम्	-11.537
▁अस्मद	-11.5371
वर्ज्ज	-11.5375
लिप	-11.5376
▁पुरस्ताद	-11.5376
ान्वितम्	-11.5376
ुपादान	-11.5378
BC	-11.5379
विकि	-11.538
दर्शी	-11.5381
मीह	-11.5383
००१	-11.5383
su	-11.5385
▁विचक्षणः	-11.5386
▁वर्तमानसूत्र	-11.5387
द्विध	-11.5388
माविश	-11.5389
राण	-11.5389
▁एतत्सर्व	-11.5389
लङ्क	-11.5391
पुष	-11.5392
tra	-11.5393
▁घातय	-11.5395
ON	-11.5395
▁आरभ्यते	-11.5396
▁स्वकर्म	-11.5399
▁समासेन	-11.54
▁अभियुक्त	-11.5401
वाग्	-11.5401
नासिक	-11.5403
▁सम्पादित	-11.5404
▁गोपनीय	-11.5405
याने	-11.5407
▁अन्यतर	-11.5408
▁महोदया	-11.541
नुमोद	-11.5411
▁सर्वाङ्ग	-11.5411
दलस्य	-11.5413
नुसारेण	-11.5414
CE	-11.5414
▁विशां	-11.5418
विषाण	-11.5419
▁तमसो	-11.542
▁प्रथमवार	-11.542
fl	-11.5421
sc	-11.5422
परायणाः	-11.5423
महिमान	-11.5428
ैर्युक्त	-11.543
▁जनानाम्	-11.5431
प्रतिष्ठित	-11.5432
विवर्ध	-11.5434
िष्यन्	-11.5434
▁वालि	-11.5434
रित्यर्थः	-11.5436
स्तात	-11.5436
▁नित्यमेव	-11.5436
▁अन्तिक	-11.5437
विरा	-11.5437
एषा	-11.5439
▁अनुचित	-11.5442
▁भीता	-11.5443
०१८	-11.5443
▁लब्धा	-11.5447
▁सौवर्ण	-11.5447
▁आवृत	-11.5451
▁द्राक्षा	-11.5452
वर्जिता	-11.5453
RE	-11.5458
निगम	-11.5458
भाषिण	-11.5459
ङ्गार	-11.546
साहस	-11.5461
परिश्रम	-11.5464
▁ऋ०	-11.5465
दर्शयितु	-11.5465
̄	-11.5468
▁XXX	-11.5468
▁कत्र्तव्य	-11.5468
▁तच्छ्रुत्वा	-11.5468
▁अपृच्छत्	-11.5468
▁अभयारण्य	-11.5468
▁मारीच	-11.5468
▁य॒ज्ञ	-11.547
▁भगवन्त	-11.5471
नारायण	-11.5472
ऽभवन्	-11.5474
}}	-11.5474
द्विर्वचन	-11.5474
प्येत	-11.5474
कारके	-11.5477
▁संवेदनशीलता	-11.5479
मिय	-11.5481
भगवान्	-11.5481
▁श्रीराम	-11.5482
▁जानीमः	-11.5485
▁व्याख्याता	-11.5486
▁अनिष्ट	-11.5487
मेगु	-11.5488
पार्श्वे	-11.5488
▁कर्त्तुं	-11.5488
▁मान्यता	-11.5488
वली	-11.5491
▁विरुध्यते	-11.5492
▁रजनी	-11.5493
मुष	-11.5496
▁सुप्रभातम्	-11.5497
ोदितम्	-11.5499
नाटक	-11.5505
वगाह	-11.5506
▁भवित	-11.5507
▁करौ	-11.5507
▁बलिन	-11.5507
प्रतीतेः	-11.5508
▁केनचिद	-11.5508
ानुराग	-11.5508
▁अशुभ	-11.5512
▁ऊन	-11.5512
साक्षि	-11.5512
स्मद्	-11.5513
▁चक्षुर	-11.5513
▁सम्पादय	-11.5514
▁विपश्चित	-11.5515
▁शून्यता	-11.5515
ोद्योग	-11.5522
▁तदिति	-11.5522
▁जनगणना	-11.5522
वृत्तिर	-11.5524
▁उद्यत	-11.5525
[...]
