<unk>	0
<s>	0
</s>	0
▁स	-0
▁ा	-1
्य	-2
▁त	-3
▁प	-4
▁व	-5
्र	-6
▁क	-7
▁म	-8
▁न	-9
▁।	-10
्त	-11
▁य	-12
▁े	-13
▁ि	-14
र्	-15
▁ं	-16
▁द	-17
▁अ	-18
▁ः	-19
्व	-20
▁र	-21
▁भ	-22
▁श	-23
▁प्र	-24
ति	-25
▁च	-26
▁वि	-27
▁ो	-28
▁ज	-29
▁-	-30
▁ग	-31
त्	-32
▁्य	-33
▁ह	-34
▁्	-35
ान	-36
▁इ	-37
▁ी	-38
▁ल	-39
ष्	-40
ार	-41
▁म्	-42
▁ान	-43
▁ु	-44
▁ध	-45
्ष	-46
▁॥	-47
▁्र	-48
▁ए	-49
ित	-50
▁,	-51
ां	-52
▁.	-53
▁ब	-54
म्	-55
▁स्य	-56
▁र्	-57
▁ते	-58
▁आ	-59
▁स्	-60
न्	-61
▁"	-62
▁नि	-63
▁वा	-64
र्व	-65
▁ित	-66
ृत	-67
क्ष	-68
द्	-69
त्र	-70
▁सं	-71
ाम	-72
▁उ	-73
▁पर	-74
्ति	-75
था	-76
▁पु	-77
्च	-78
▁्व	-79
्या	-80
ष्ट	-81
▁भव	-82
▁(	-83
▁ै	-84
▁ण	-85
▁त्व	-86
▁मा	-87
क्त	-88
ेव	-89
▁ाः	-90
▁सम	-91
▁१	-92
▁इति	-93
▁या	-94
▁ति	-95
▁ेन	-96
त्य	-97
ते	-98
▁रा	-99
▁सर्व	-100
स्	-101
पि	-102
▁ाद	-103
▁भा	-104
▁एव	-105
▁न्त	-106
▁न्	-107
▁यो	-108
▁तु	-109
▁स्व	-110
▁क्ष	-111
▁सा	-112
स्य	-113
▁कर	-114
्ञ	-115
या	-116
▁'	-117
ङ्	-118
▁कार	-119
र्थ	-120
▁२	-121
▁_	-122
▁का	-123
▁)	-124
द्ध	-125
▁त्	-126
▁1	-127
▁स्त	-128
▁सु	-129
न्त	-130
▁ाय	-131
▁ख	-132
▁ू	-133
▁ात्	-134
▁त्र	-135
ना	-136
▁मु	-137
▁हि	-138
मा	-139
▁०	-140
ेश	-141
दा	-142
▁वर्	-143
▁िक	-144
▁कि	-145
िक	-146
▁व्य	-147
▁पू	-148
▁पा	-149
तः	-150
स्त	-151
▁अन	-152
▁ना	-153
▁्या	-154
▁यु	-155
▁ष	-156
▁ार	-157
▁ता	-158
▁इत्य	-159
▁दि	-160
▁ौ	-161
▁स्थ	-162
▁ेष	-163
▁ज्ञ	-164
▁क्र	-165
्न	-166
र्म	-167
▁कु	-168
▁2	-169
▁?	-170
▁देव	-171
▁ाण	-172
▁ये	-173
▁्त	-174
मि	-175
▁श्र	-176
्छ	-177
▁ानि	-178
ष्ठ	-179
▁भू	-180
▁ऽ	-181
▁यद	-182
▁पि	-183
त्त	-184
▁मह	-185
▁यथा	-186
▁ाप	-187
▁ृ	-188
▁0	-189
▁राज	-190
▁मे	-191
▁दृ	-192
▁ट	-193
▁कृत	-194
▁प्रति	-195
▁द्व	-196
▁घ	-197
▁अस	-198
▁एक	-199
ात	-200
▁गु	-201
▁थ	-202
ूप	-203
यं	-204
▁मान	-205
ेष	-206
▁परि	-207
ेद	-208
▁३	-209
▁विश	-210
▁फ	-211
▁ानां	-212
▁ङ्	-213
▁पुन	-214
▁ाव	-215
▁वर	-216
िय	-217
▁सह	-218
▁श्च	-219
▁दु	-220
▁तथा	-221
▁ग्र	-222
▁ास	-223
▁तद	-224
▁भि	-225
▁४	-226
ेत	-227
▁नु	-228
द्य	-229
ाय	-230
▁तत्	-231
▁काल	-232
▁्वा	-233
▁ेण	-234
श्च	-235
▁सि	-236
भा	-237
श्य	-238
▁ेव	-239
▁त्य	-240
▁सू	-241
ीय	-242
ान्	-243
द्र	-244
▁तः	-245
▁देश	-246
▁५	-247
▁ार्थ	-248
▁भवति	-249
▁ेषु	-250
▁ां	-251
▁िन	-252
▁रूप	-253
च्छ	-254
▁यति	-255
▁रि	-256
▁ाह	-257
ब्	-258
▁रु	-259
ोक	-260
ेन	-261
रण	-262
▁वै	-263
ता	-264
▁वर्ष	-265
▁ादि	-266
▁ान्	-267
▁॒	-268
▁िः	-269
ीत	-270
▁कथ	-271
▁मन	-272
▁पुर	-273
▁उप	-274
ृह	-275
▁किं	-276
▁र्थ	-277
▁ाल	-278
▁पूर्व	-279
▁ैः	-280
ध्य	-281
▁न्य	-282
▁तस्य	-283
▁यत्	-284
▁शि	-285
▁ेत	-286
▁सम्	-287
भि	-288
▁मि	-289
▁गृह	-290
▁ीय	-291
▁ड	-292
▁९	-293
▁भाष	-294
▁जन	-295
▁पद	-296
▁ान्त	-297
▁प्रा	-298
▁भाव	-299
यो	-300
▁द्	-301
▁3	-302
▁योग	-303
▁/	-304
▁६	-305
ञ्च	-306
ास	-307
▁एत	-308
▁अपि	-309
▁छ	-310
न्द	-311
▁विष	-312
▁र्त	-313
ैव	-314
▁ोऽ	-315
▁यदि	-316
▁:	-317
▁विध	-318
▁कृ	-319
▁७	-320
र्ण	-321
यः	-322
▁नाम	-323
▁८	-324
▁कर्म	-325
्ड	-326
्प	-327
ाद	-328
ाल	-329
▁तत्र	-330
▁ाम	-331
▁लोक	-332
▁शक	-333
▁रो	-334
ब्द	-335
▁न्ति	-336
▁लि	-337
▁वृत	-338
▁धिक	-339
▁याम	-340
▁कल	-341
▁त्त	-342
▁धर्म	-343
▁को	-344
▁अस्ति	-345
▁वृ	-346
▁्म	-347
▁ज्ञान	-348
न्ध	-349
▁मम	-350
र्श	-351
ाः	-352
▁!	-353
▁गुण	-354
भव	-355
क्	-356
▁जी	-357
्ल	-358
▁गत	-359
▁शब्द	-360
ये	-361
▁ात	-362
▁िद	-363
▁4	-364
▁कार्य	-365
▁एवं	-366
▁बह	-367
▁स्म	-368
▁॑	-369
ीर	-370
▁ष्ट	-371
न्न	-372
▁अध	-373
▁अह	-374
▁न्त्र	-375
▁वृत्त	-376
िष्	-377
ङ्ग	-378
▁शु	-379
▁दृष्ट	-380
▁5	-381
▁ेति	-382
▁तम	-383
▁व्या	-384
▁ृत	-385
▁पुनः	-386
▁के	-387
ुत	-388
▁अथ	-389
▁मित	-390
▁ाणि	-391
▁अनु	-392
▁निर्	-393
▁त्वं	-394
▁ती	-395
्वा	-396
▁मध्य	-397
▁जीव	-398
▁धन	-399
▁ाप्त	-400
व्य	-401
▁फल	-402
▁भूत	-403
मान	-404
न्ति	-405
▁द्य	-406
ाह	-407
▁ेश	-408
▁तव	-409
▁भाग	-410
▁यां	-411
्ज	-412
▁ुर	-413
कृत	-414
प्त	-415
▁विद्य	-416
वि	-417
▁पुत्र	-418
ुष	-419
▁[	-420
▁युक्त	-421
र्ग	-422
▁ाध	-423
▁दर्श	-424
▁ॊ	-425
▁अप	-426
▁मू	-427
▁ैव	-428
ज्ञ	-429
▁वेद	-430
▁महा	-431
▁यः	-432
▁्थ	-433
▁कर्त	-434
▁वे	-435
▁ततः	-436
▁भार	-437
▁विशेष	-438
नि	-439
▁=	-440
▁लक्ष	-441
ोत	-442
▁समा	-443
▁्मि	-444
▁ित्	-445
▁पृ	-446
▁s	-447
्यं	-448
▁रक्ष	-449
▁िर	-450
▁वस	-451
▁तेन	-452
▁िति	-453
गु	-454
भ्य	-455
▁त्रि	-456
▁दश	-457
▁ुक्त	-458
▁सिद्ध	-459
▁विश्व	-460
▁तस्	-461
▁9	-462
▁तदा	-463
तो	-464
▁ाग	-465
▁ङ्ग	-466
▁्मिन्	-467
▁दी	-468
▁ग्रह	-469
▁8	-470
्वर	-471
▁कल्प	-472
▁वर्त	-473
▁आस	-474
हि	-475
का	-476
▁सः	-477
▁तो	-478
▁चित	-479
▁ई	-480
▁करो	-481
▁स्थित	-482
ेत्	-483
▁चि	-484
▁6	-485
▁द्वि	-486
चन	-487
कार	-488
▁न्द्र	-489
▁शा	-490
त्तर	-491
▁दिन	-492
ुं	-493
मन	-494
ख्य	-495
▁दृश्य	-496
▁दे	-497
▁वान्	-498
▁न्ते	-499
▁7	-500
▁दान	-501
▁ाच	-502
▁क्षि	-503
▁करण	-504
▁जा	-505
▁तद्	-506
▁केव	-507
▁योज	-508
▁बहु	-509
▁्त्र	-510
▁पी	-511
▁क्रम	-512
▁केवल	-513
▁्यते	-514
▁धार	-515
भाव	-516
▁n	-517
▁िय	-518
▁]	-519
▁िं	-520
▁ला	-521
▁तेष	-522
▁अन्य	-523
▁ेः	-524
▁ोप	-525
प्र	-526
▁मेव	-527
▁ाणां	-528
▁िव	-529
▁ने	-530
▁वन	-531
▁क्रिय	-532
▁भेद	-533
▁बल	-534
▁यामि	-535
्याय	-536
दं	-537
▁ञ	-538
▁प्रथ	-539
ोध	-540
▁ानु	-541
▁कथं	-542
रे	-543
▁च्छ	-544
तु	-545
▁पित	-546
▁ात्र	-547
▁ोक्त	-548
▁स्तु	-549
▁याः	-550
▁t	-551
▁हित	-552
▁न्न	-553
▁ापि	-554
ोष	-555
▁बु	-556
▁्ल	-557
▁मया	-558
▁िण	-559
▁पुरुष	-560
▁तं	-561
▁सुख	-562
▁वर्ण	-563
▁औ	-564
▁र्व	-565
▁न्द	-566
▁प्रथम	-567
▁+	-568
▁री	-569
च्य	-570
▁;	-571
▁अव	-572
▁सो	-573
▁ऋ	-574
▁वाद	-575
▁काम	-576
▁अत्र	-577
▁दू	-578
▁ामि	-579
ेण	-580
▁दा	-581
▁राष्ट	-582
▁स्थान	-583
▁साध	-584
▁दुः	-585
्यते	-586
▁अभि	-587
्म	-588
▁कारण	-589
्नि	-590
गर	-591
▁नम	-592
▁्प	-593
ीत्	-594
▁हं	-595
▁जल	-596
ती	-597
▁न्व	-598
रु	-599
▁अहं	-600
ण्ड	-601
▁क्	-602
ेक	-603
▁वद	-604
▁--	-605
▁भविष्	-606
▁सप्त	-607
ीन	-608
चार	-609
▁वचन	-610
वा	-611
▁सम्प	-612
▁भाषा	-613
योग	-614
▁मो	-615
▁जात	-616
▁तर	-617
▁विषय	-618
▁एष	-619
▁ेऽ	-620
▁र्म	-621
ष्ण	-622
▁राज्य	-623
▁रण	-624
▁S	-625
▁अत	-626
▁हर	-627
▁पूज	-628
▁कः	-629
ृद	-630
थि	-631
▁निर	-632
▁ितः	-633
▁र्तते	-634
▁जग	-635
▁परम	-636
▁मत	-637
▁ार्	-638
▁अर्थ	-639
▁भारत	-640
ष्य	-641
▁ुं	-642
▁तर्	-643
▁क्त	-644
▁ष्ठ	-645
यम	-646
▁मां	-647
▁्ब	-648
▁भो	-649
ेय	-650
▁रस	-651
▁तया	-652
▁*	-653
▁य्	-654
▁गच्छ	-655
▁भ्य	-656
र्य	-657
▁गो	-658
▁ृष्ठ	-659
▁ाक्ष	-660
▁भिः	-661
▁चा	-662
▁तां	-663
वस	-664
▁शत	-665
▁ध्य	-666
▁मध्ये	-667
▁वत्	-668
▁यत्र	-669
▁्रा	-670
▁शी	-671
▁दुःख	-672
▁नो	-673
ानि	-674
▁ेत्	-675
▁सौ	-676
▁िश	-677
▁्यात्	-678
सा	-679
▁ठ	-680
▁ात्म	-681
स्तु	-682
▁ालय	-683
▁पश्य	-684
▁a	-685
▁हे	-686
▁ॐ	-687
▁ाक	-688
▁दोष	-689
▁लक्षण	-690
▁नं	-691
▁शक्ति	-692
▁ाश	-693
▁पे	-694
▁्न	-695
▁नी	-696
▁श्व	-697
▁काले	-698
▁मूल	-699
▁क्षिण	-700
न्म	-701
▁तस	-702
▁तस्मा	-703
▁धिकार	-704
▁मात्र	-705
▁से	-706
▁वाक	-707
▁यम	-708
ित्य	-709
▁भग	-710
▁वार	-711
▁िका	-712
▁विना	-713
▁यदा	-714
▁सर्वे	-715
ृश	-716
▁अतः	-717
▁ँ	-718
▁येत्	-719
▁्रि	-720
▁ब्र	-721
▁उत्तर	-722
▁पञ्च	-723
▁आसीत्	-724
▁हृद	-725
▁्यं	-726
▁वृद्ध	-727
▁कदा	-728
▁हेत	-729
▁धि	-730
▁करोति	-731
▁क्षेत	-732
▁ैक	-733
▁संस	-734
▁धा	-735
▁्ध	-736
▁्रह	-737
▁योः	-738
▁विक	-739
▁्यां	-740
देश	-741
▁बुद्ध	-742
▁m	-743
यु	-744
▁क्व	-745
▁i	-746
पर	-747
▁बाल	-748
ङ्क	-749
▁मिति	-750
▁ाद्	-751
▁माण	-752
▁श्रुत	-753
▁ओ	-754
▁ैर्	-755
▁ुप	-756
▁शक्य	-757
▁सद	-758
▁A	-759
▁नमः	-760
▁तेषां	-761
▁मय	-762
▁िता	-763
▁वाक्य	-764
▁मान्य	-765
▁िह	-766
▁त्स	-767
▁च्च	-768
▁िम	-769
▁__	-770
▁पक्ष	-771
▁ेभ्य	-772
▁िल	-773
▁शर	-774
▁यस	-775
▁मुख	-776
रा	-777
▁अन्त	-778
▁कुर्व	-779
▁भवेत्	-780
▁राम	-781
▁ण्ड	-782
त्प	-783
▁ास्	-784
▁संश	-785
▁क्षण	-786
▁e	-787
▁ीति	-788
▁परा	-789
▁ास्ति	-790
▁्त्री	-791
▁व्र	-792
▁प्राण	-793
▁पूर्ण	-794
▁सी	-795
▁मुक्त	-796
▁नगर	-797
▁इत	-798
स्र	-799
▁सर्वं	-800
षे	-801
▁दत्त	-802
▁बन्ध	-803
▁जन्म	-804
▁यं	-805
▁तथ	-806
▁ान्तर	-807
▁रे	-808
्यात	-809
▁स्प	-810
▁्ट	-811
▁पर्य	-812
▁ज्ञात	-813
▁ाभ	-814
ून	-815
▁अग	-816
▁अस्य	-817
▁तर्हि	-818
▁शेष	-819
काश	-820
▁सूच	-821
▁जाय	-822
▁ित्य	-823
ान्त	-824
▁दर्शन	-825
▁ेक	-826
▁यस्य	-827
▁तत	-828
▁एवम	-829
▁भय	-830
▁पाप	-831
▁्री	-832
▁स्कृत	-833
▁भगव	-834
▁इदं	-835
▁घट	-836
▁द्र	-837
▁चर	-838
▁परं	-839
▁ीन	-840
▁था	-841
▁निव	-842
यन	-843
▁सहस्र	-844
▁्यक्त	-845
▁नव	-846
▁त्यय	-847
▁ज्ज	-848
▁चार	-849
▁सत्य	-850
दि	-851
▁शास्त	-852
▁ाभि	-853
▁यज्ञ	-854
▁ेषां	-855
▁विधि	-856
▁यन्ति	-857
▁c	-858
च्च	-859
▁ऊ	-860
▁वाच	-861
▁र्ष	-862
र्त	-863
▁हस्त	-864
ष्म	-865
▁यत	-866
▁सदा	-867
▁नर	-868
▁I	-869
▁ाना	-870
▁्वर	-871
▁साम	-872
▁वास	-873
▁वयं	-874
▁र्ज	-875
▁नां	-876
▁ले	-877
▁्मा	-878
▁वय	-879
▁पुं	-880
▁किम	-881
▁पाठ	-882
▁र्थः	-883
▁प्रिय	-884
न्तु	-885
▁o	-886
▁इव	-887
▁की	-888
▁यू	-889
▁णा	-890
▁मार्ग	-891
▁ञ्च	-892
▁पठ	-893
▁इह	-894
▁मास	-895
धान	-896
▁म्ब	-897
▁सन्ति	-898
▁ेत्य	-899
र्ष	-900
▁नियम	-901
▁अयं	-902
▁झ	-903
▁्रह्म	-904
▁T	-905
▁व्याप	-906
▁>	-907
▁यद्	-908
▁विद	-909
▁प्य	-910
▁वर्षे	-911
▁गण	-912
▁यात	-913
▁मित्र	-914
▁पुनर्	-915
माण	-916
▁सेव	-917
▁र्ध	-918
▁त्त्व	-919
▁शिक्ष	-920
▁ततो	-921
▁ञ्ज	-922
▁और	-923
▁येन	-924
▁पुनर	-925
▁वाह	-926
▁धान	-927
▁ह्य	-928
▁देह	-929
▁ङ्क	-930
▁द्ध	-931
▁ेय	-932
▁ंत	-933
▁ेद	-934
ीं	-935
▁भ्र	-936
▁ाम्	-937
थाप	-938
▁त्या	-939
▁ानाम	-940
▁्यक्ष	-941
णा	-942
त्तम	-943
▁ेश्वर	-944
▁ल्	-945
▁यत्न	-946
▁विभा	-947
▁िनः	-948
▁केवलं	-949
▁मी	-950
▁ढ	-951
▁ृत्वा	-952
त्व	-953
▁ीत	-954
▁P	-955
▁काश	-956
▁यित	-957
▁शुभ	-958
▁वक्त	-959
▁मृत	-960
▁चित्र	-961
दृश	-962
▁्वि	-963
▁न्याय	-964
▁ख्यात	-965
▁ान्य	-966
ब्ध	-967
स्थ	-968
▁र्य	-969
▁हार	-970
िर	-971
▁्रश	-972
▁वस्तु	-973
▁िर्	-974
▁़	-975
▁षु	-976
▁ध्व	-977
▁पाद	-978
▁्रिया	-979
▁तिष्ठ	-980
▁सूर्य	-981
▁चतु	-982
▁ाश्च	-983
▁कृति	-984
▁ीक्ष	-985
▁न्तु	-986
▁एतत्	-987
▁r	-988
▁ैर	-989
▁ज्य	-990
▁रीक्ष	-991
▁सन्	-992
▁मुद्र	-993
▁्बन्ध	-994
▁ंग	-995
▁्रिय	-996
▁स्न	-997
▁सार	-998
▁मपि	-999
▁शिष्ट	-1000
▁जायते	-1001
▁पुरा	-1002
▁न्तर	-1003
▁प्राप	-1004
▁लेख	-1005
▁्यु	-1006
यत	-1007
▁ाट	-1008
▁्रश्न	-1009
▁शरीर	-1010
▁वर्ग	-1011
कं	-1012
▁स्ति	-1013
▁वीर	-1014
▁्थान	-1015
श्वर	-1016
▁कुल	-1017
▁ाप्य	-1018
▁स्या	-1019
नु	-1020
▁ेष्ठ	-1021
▁विर	-1022
▁द्वित	-1023
▁हेतु	-1024
▁निष्	-1025
▁वेश	-1026
▁ितम्	-1027
▁दैव	-1028
▁ग्रहण	-1029
▁पृथ	-1030
▁ुक	-1031
ग्	-1032
▁िद्या	-1033
▁ण्	-1034
▁गम	-1035
▁यथ	-1036
▁सूत्र	-1037
▁लो	-1038
▁रथ	-1039
▁पेक्ष	-1040
▁दूर	-1041
▁सर	-1042
▁नित्य	-1043
▁b	-1044
णि	-1045
▁विभाग	-1046
▁चल	-1047
▁धात	-1048
▁मस	-1049
▁्रकाश	-1050
▁राजा	-1051
▁नृ	-1052
वत्	-1053
▁ुत	-1054
▁किम्	-1055
▁आत्	-1056
▁श्री	-1057
▁्ञ	-1058
▁नः	-1059
▁बा	-1060
▁न्यथा	-1061
▁गुरु	-1062
▁लिख	-1063
▁ेह	-1064
्यास	-1065
▁ल्ल	-1066
▁तप	-1067
▁कदाच	-1068
वी	-1069
▁िष	-1070
▁ुम	-1071
▁न्ध	-1072
▁यते	-1073
▁ङ	-1074
▁्रष्ट	-1075
▁सङ्ग	-1076
▁सम्भव	-1077
▁स्याः	-1078
▁C	-1079
ख्या	-1080
वर	-1081
▁म्भ	-1082
▁ल्प	-1083
▁दुर्	-1084
▁यन्त	-1085
▁ुल	-1086
▁योजन	-1087
▁भक्त	-1088
ज्य	-1089
▁खः	-1090
▁मध	-1091
▁ूर्ण	-1092
▁l	-1093
▁अद्य	-1094
▁एते	-1095
▁विषये	-1096
▁वल	-1097
षेध	-1098
▁त्वया	-1099
▁िक्ष	-1100
▁ग्न	-1101
▁हृदय	-1102
▁त्वेन	-1103
▁सोम	-1104
▁कश्च	-1105
▁ज्ञा	-1106
▁M	-1107
करण	-1108
▁वत	-1109
▁रात्र	-1110
▁स्त्र	-1111
▁ाई	-1112
▁जना	-1113
▁वृक्ष	-1114
▁वायु	-1115
▁करिष्	-1116
▁कौ	-1117
▁ृत्य	-1118
▁्रत्य	-1119
▁सृ	-1120
▁ऽपि	-1121
▁लाभ	-1122
▁देशे	-1123
▁िप	-1124
▁ाभाव	-1125
▁d	-1126
▁N	-1127
▁ेऽपि	-1128
▁सूचना	-1129
▁रुप	-1130
▁गति	-1131
▁्रे	-1132
▁युद्ध	-1133
▁ुम्	-1134
▁p	-1135
ैः	-1136
▁शक्त	-1137
▁उक्त	-1138
▁दिश	-1139
▁ध्याय	-1140
▁िष्ठ	-1141
िप	-1142
▁ेक्ष	-1143
▁ास्त	-1144
▁विचार	-1145
▁प्रत	-1146
▁समु	-1147
▁v	-1148
▁पात	-1149
▁तिप	-1150
▁पत्र	-1151
▁विधान	-1152
st	-1153
▁पर्व	-1154
▁्रम	-1155
▁दाह	-1156
▁ोर	-1157
▁कृते	-1158
क्र	-1159
▁तमे	-1160
▁साधन	-1161
▁ष्ण	-1162
▁शुद्ध	-1163
▁#	-1164
▁अभव	-1165
▁ेभ्यः	-1166
▁यतः	-1167
▁दीर्	-1168
▁पुण	-1169
▁धु	-1170
▁ेर	-1171
ंश	-1172
▁नीय	-1173
▁शाल	-1174
▁जीवन	-1175
▁कुरु	-1176
▁दीर्घ	-1177
▁मण्ड	-1178
▁स्मृत	-1179
षण	-1180
▁हत	-1181
▁णां	-1182
▁व्यवस	-1183
▁मनो	-1184
▁यान	-1185
▁्याः	-1186
▁ऐ	-1187
▁्ण	-1188
हित	-1189
▁मुप	-1190
दश	-1191
▁पाल	-1192
▁पार	-1193
▁शास	-1194
▁श्ल	-1195
क्ष्	-1196
▁अति	-1197
▁ोः	-1198
▁नन्त	-1199
▁पति	-1200
▁ुस्त	-1201
▁हो	-1202
▁ाऽ	-1203
▁भाषण	-1204
▁श्य	-1205
er	-1206
▁ट्	-1207
▁विव	-1208
▁्नो	-1209
▁समान	-1210
▁ुः	-1211
▁यन्	-1212
▁्वरूप	-1213
▁देवता	-1214
▁केन	-1215
▁ारत	-1216
▁अधिक	-1217
▁मुख्य	-1218
▁ंद	-1219
▁सन्न	-1220
▁ार्थं	-1221
▁ंस	-1222
▁ोद	-1223
▁त्थ	-1224
▁ित्यं	-1225
▁जान	-1226
▁शृ	-1227
▁B	-1228
▁ार्यं	-1229
▁म्ह	-1230
▁ीयते	-1231
▁अभवत्	-1232
▁१०	-1233
▁मृ	-1234
▁व्यं	-1235
▁्तमान	-1236
जन	-1237
▁संभव	-1238
▁्नोति	-1239
▁बी	-1240
▁इद	-1241
▁वो	-1242
▁लोके	-1243
▁संय	-1244
▁गमन	-1245
▁चिन्त	-1246
▁दिवस	-1247
त्न	-1248
▁लिङ्ग	-1249
▁्स	-1250
ुव	-1251
▁इच्छ	-1252
▁ित्वा	-1253
▁हिं	-1254
▁व्रत	-1255
▁()	-1256
▁अल	-1257
▁ंक	-1258
▁र्च	-1259
▁तुल	-1260
▁्क	-1261
▁रूपं	-1262
▁शान्त	-1263
▁व्यव	-1264
▁संशयः	-1265
▁्वप	-1266
▁च्यते	-1267
▁वर्ध	-1268
▁लय	-1269
▁वान	-1270
▁शिव	-1271
▁भिन्न	-1272
▁ारतीय	-1273
▁्यो	-1274
▁रूपेण	-1275
▁ुह	-1276
▁मित्य	-1277
▁व्यम्	-1278
▁चेत्	-1279
▁स्वयं	-1280
▁त्वम	-1281
▁भूमि	-1282
▁कथय	-1283
▁जि	-1284
▁तिश	-1285
▁दीप	-1286
▁सति	-1287
▁ुस्तक	-1288
▁ंश	-1289
जा	-1290
▁ळ	-1291
▁नेन	-1292
▁धिकरण	-1293
▁बोध	-1294
▁्माकं	-1295
▁णि	-1296
चि	-1297
▁पुण्य	-1298
▁वक्ष्	-1299
▁मल	-1300
▁युग	-1301
▁्वार	-1302
▁मेर	-1303
▁संप	-1304
▁दिष्ट	-1305
नां	-1306
▁ग्राम	-1307
▁नान	-1308
▁नम्	-1309
▁ीर	-1310
पत	-1311
▁जनाः	-1312
▁्वप्न	-1313
वरी	-1314
▁सुर	-1315
▁ताम्	-1316
▁क्ति	-1317
ुः	-1318
▁वह	-1319
▁ंख्या	-1320
▁धी	-1321
▁तस्या	-1322
▁ानाम्	-1323
▁रोग	-1324
▁पत	-1325
▁ांश	-1326
▁तथापि	-1327
षा	-1328
▁खल	-1329
▁्रं	-1330
▁स्मा	-1331
▁पश्च	-1332
हं	-1333
▁H	-1334
▁पद्य	-1335
▁िन्द	-1336
▁र्ह	-1337
▁्वारा	-1338
▁दार	-1339
▁र्क	-1340
▁्रन्	-1341
▁तिथि	-1342
▁माता	-1343
▁नुष्य	-1344
▁लभ	-1345
▁वध	-1346
▁क्ल	-1347
▁ेवं	-1348
▁धर	-1349
▁मण्डल	-1350
त्स	-1351
▁ताम	-1352
▁्वर्ग	-1353
▁युत	-1354
▁स्तुत	-1355
र्प	-1356
▁स्फ	-1357
▁गर्	-1358
om	-1359
▁नय	-1360
▁रस्	-1361
▁ध्यान	-1362
▁तल	-1363
▁फलं	-1364
▁श्रम	-1365
▁ाङ्ग	-1366
▁मित्त	-1367
▁गृहे	-1368
▁एकः	-1369
▁द्वार	-1370
▁सुत	-1371
▁नैव	-1372
▁कस्य	-1373
िल	-1374
▁वां	-1375
▁विरोध	-1376
▁स्र	-1377
▁f	-1378
▁ाया	-1379
▁क्षय	-1380
▁वश्य	-1381
▁ग्नि	-1382
▁त्वा	-1383
▁त्वां	-1384
तम	-1385
▁चक्ष	-1386
▁किञ्च	-1387
यम्	-1388
्नु	-1389
▁मन्य	-1390
▁िष्ट	-1391
▁रस्पर	-1392
▁्रन्थ	-1393
▁त्रय	-1394
▁सिं	-1395
ीप	-1396
▁पूर	-1397
▁न्तर्	-1398
▁वती	-1399
▁यज	-1400
गत	-1401
▁..	-1402
▁ित्त	-1403
▁दध	-1404
▁िश्च	-1405
▁वन्त	-1406
▁अस्	-1407
▁वात	-1408
▁ादौ	-1409
▁ुर्	-1410
▁वः	-1411
▁मधु	-1412
▁उत्प	-1413
▁सम्ब	-1414
▁जगत	-1415
▁समय	-1416
▁ॆ	-1417
▁ादन	-1418
▁्वादश	-1419
▁िभा	-1420
▁बाह	-1421
▁ध्ययन	-1422
▁न्वित	-1423
▁g	-1424
▁शत्र	-1425
▁दाहरण	-1426
▁L	-1427
▁ब्	-1428
▁आप	-1429
▁ोष	-1430
▁उच्च	-1431
▁D	-1432
षु	-1433
▁अग्नि	-1434
▁चतुर्	-1435
▁प्रे	-1436
▁ादेश	-1437
▁तथैव	-1438
▁िताः	-1439
▁र्प	-1440
▁तृत	-1441
▁मद	-1442
▁ुन	-1443
▁हीन	-1444
▁मानव	-1445
धा	-1446
▁स्क	-1447
▁गव	-1448
▁कृत्य	-1449
▁ात्मक	-1450
▁शासन	-1451
▁भाग्य	-1452
▁लघ	-1453
▁सभा	-1454
ष्प	-1455
▁ाद्य	-1456
▁कृष्ण	-1457
▁संव	-1458
▁पूजा	-1459
▁तृतीय	-1460
▁उद	-1461
▁कम	-1462
▁त्प	-1463
▁भूय	-1464
▁हरि	-1465
▁ग्	-1466
▁िन्तु	-1467
▁ॉ	-1468
▁द्वय	-1469
▁ागत	-1470
▁दाय	-1471
▁अथवा	-1472
▁याति	-1473
▁क्वच	-1474
▁चित्त	-1475
▁्रभाव	-1476
▁मै	-1477
▁शो	-1478
▁एतद	-1479
▁दण्ड	-1480
▁सिंह	-1481
▁माप्त	-1482
▁र्व्व	-1483
▁अनेक	-1484
▁्रव्य	-1485
स्था	-1486
▁सन्ध	-1487
▁नृप	-1488
▁्थि	-1489
▁व्यवह	-1490
▁भु	-1491
▁विज	-1492
▁ीड	-1493
▁विष्ट	-1494
▁कला	-1495
▁रित	-1496
▁ेष्व	-1497
▁िस	-1498
▁दद	-1499
▁रम	-1500
▁भवतः	-1501
▁कृतं	-1502
or	-1503
▁दित	-1504
▁संसार	-1505
घ्र	-1506
▁ुच्य	-1507
▁ज्ञेय	-1508
▁कथा	-1509
▁िष्	-1510
▁जु	-1511
▁ईश्वर	-1512
▁ृत्यु	-1513
▁मनु	-1514
▁नन्तर	-1515
ूल	-1516
▁कन	-1517
▁माह	-1518
▁ग्राह	-1519
▁रिक्त	-1520
▁ित्र	-1521
▁सक	-1522
▁विकास	-1523
▁ीकरण	-1524
▁नै	-1525
▁न्ह	-1526
▁ितं	-1527
▁ितव्य	-1528
▁त्क	-1529
विध	-1530
▁ाण्ड	-1531
म्भ	-1532
▁गृहीत	-1533
▁व्यय	-1534
ष्टि	-1535
▁सङ्क	-1536
▁त्म	-1537
स्मा	-1538
▁छा	-1539
▁एस	-1540
▁पितृ	-1541
▁कोई	-1542
▁मेरिक	-1543
▁आत्म	-1544
on	-1545
▁गतः	-1546
▁ैत	-1547
▁ननु	-1548
▁भवान्	-1549
ar	-1550
▁है	-1551
▁नाश	-1552
▁ज्योत	-1553
▁ुर्या	-1554
▁चैव	-1555
▁पिता	-1556
▁ास्य	-1557
▁नाय	-1558
▁दर	-1559
▁मात	-1560
▁्रयोग	-1561
▁क्री	-1562
▁िद्	-1563
▁िभ	-1564
▁्थाप	-1565
▁वर्ज	-1566
▁ख्य	-1567
▁संग	-1568
▁याम्	-1569
▁पर्वत	-1570
श्	-1571
▁िख	-1572
▁न्म	-1573
▁ायं	-1574
▁नन्द	-1575
▁पश्चा	-1576
इट	-1577
▁चे	-1578
▁्रत	-1579
▁योगः	-1580
es	-1581
▁ेल	-1582
▁शील	-1583
▁ें	-1584
▁तादृश	-1585
▁ों	-1586
▁्रमाण	-1587
▁शत्रु	-1588
▁स्मि	-1589
▁संधान	-1590
▁निज	-1591
▁तेज	-1592
▁स्वा	-1593
▁ोऽपि	-1594
▁ादिना	-1595
▁ाधार	-1596
▁द्विज	-1597
▁शै	-1598
▁नेव	-1599
▁समर्थ	-1600
▁दानीं	-1601
▁ीत्य	-1602
▁दिव्य	-1603
▁ुत्वा	-1604
णु	-1605
▁महो	-1606
▁्रातः	-1607
वाद	-1608
▁स्याद	-1609
▁अनेन	-1610
▁मध्यम	-1611
▁त्ति	-1612
▁्यः	-1613
▁्ञान	-1614
▁११	-1615
▁्रकृत	-1616
▁रव	-1617
▁्ड	-1618
▁R	-1619
▁समास	-1620
▁कर्ता	-1621
▁योजना	-1622
▁ज्ञाय	-1623
▁उभ	-1624
▁िनी	-1625
▁टी	-1626
▁हम	-1627
▁कीर	-1628
▁राग	-1629
ञ्ज	-1630
▁सर्वा	-1631
▁िया	-1632
▁नेप	-1633
▁लब्ध	-1634
▁त्येक	-1635
▁मस्ति	-1636
▁ताप	-1637
▁यय	-1638
▁लोप	-1639
▁तिषेध	-1640
▁्वभाव	-1641
▁परमा	-1642
▁श्चि	-1643
▁यितुं	-1644
▁िभाषा	-1645
▁म्य	-1646
▁सत	-1647
▁ात्रा	-1648
▁यावत्	-1649
▁ारण	-1650
▁संस्	-1651
▁स्मर	-1652
▁लघु	-1653
▁गर्भ	-1654
▁राज्ञ	-1655
▁ियां	-1656
▁ोत्तर	-1657
▁ुट	-1658
▁वश्यक	-1659
▁बि	-1660
▁ाति	-1661
▁कीर्त	-1662
▁क्षत	-1663
▁ङ्ख्य	-1664
▁बालक	-1665
▁रिण	-1666
▁धिकतम	-1667
▁बाध	-1668
▁विन	-1669
▁ार्या	-1670
▁क्षम	-1671
▁प्रद	-1672
▁कम्	-1673
▁गवान्	-1674
▁एका	-1675
▁भयं	-1676
▁छात्र	-1677
▁मुच्य	-1678
▁धीय	-1679
▁्यपि	-1680
▁ूल	-1681
▁प्रव	-1682
▁शः	-1683
▁प्रजा	-1684
▁सेवा	-1685
▁अधि	-1686
▁कट	-1687
▁वश	-1688
▁कर्ण	-1689
▁यिष्	-1690
▁सम्भ	-1691
रि	-1692
▁क्षिप	-1693
▁ti	-1694
▁ऋत	-1695
▁ग्री	-1696
▁ितु	-1697
▁रुद्ध	-1698
▁स्नान	-1699
▁्थित	-1700
▁रुण	-1701
▁लम्	-1702
▁खलु	-1703
▁ात्मन	-1704
▁गता	-1705
ियम	-1706
▁जय	-1707
▁शं	-1708
▁स्त्व	-1709
▁रक्त	-1710
▁रोह	-1711
▁रक्षा	-1712
▁श्चिम	-1713
साइट	-1714
▁ताव	-1715
▁बसाइट	-1716
▁V	-1717
▁तीति	-1718
▁ाह्म	-1719
▁विप्र	-1720
▁नद	-1721
▁ोध	-1722
▁र्वदा	-1723
▁ाहं	-1724
▁नीति	-1725
▁च्	-1726
▁सागर	-1727
▁न्त्य	-1728
▁सन्द	-1729
▁@	-1730
▁मोह	-1731
▁भक	-1732
▁्द	-1733
▁यसि	-1734
▁उत्तम	-1735
▁जित	-1736
▁वाम	-1737
▁कारणं	-1738
▁युज्य	-1739
▁भोग	-1740
▁मूल्य	-1741
▁धातु	-1742
▁ुव	-1743
▁ीप	-1744
▁ितुं	-1745
श्व	-1746
▁ेयं	-1747
ag	-1748
▁ूढ	-1749
▁किंच	-1750
▁ैन	-1751
▁पुष्प	-1752
▁ीक्षण	-1753
▁पृथक्	-1754
▁्यू	-1755
▁ीकृत	-1756
▁आर	-1757
▁श्रित	-1758
▁युष्म	-1759
▁्च	-1760
▁भास	-1761
▁मुनि	-1762
▁भिर्	-1763
▁कथम	-1764
▁माचार	-1765
▁पान	-1766
▁गृह्य	-1767
▁स्थाप	-1768
▁E	-1769
द्रा	-1770
▁सकल	-1771
▁कन्या	-1772
▁क्रीड	-1773
▁र्तुं	-1774
▁आह	-1775
▁कोऽ	-1776
▁कृष	-1777
▁रत	-1778
▁मोक्ष	-1779
▁रोध	-1780
▁सै	-1781
▁िनियम	-1782
▁रति	-1783
▁प्	-1784
▁षष्ठ	-1785
▁िच्छ	-1786
▁वत्स	-1787
▁ेतत्	-1788
थिवी	-1789
▁ृथिवी	-1790
▁त्तम	-1791
▁देवा	-1792
▁ूर्व	-1793
▁उपयोग	-1794
▁्यन्त	-1795
▁दिने	-1796
▁र्त्त	-1797
▁युध	-1798
▁र्द्ध	-1799
▁ाम्य	-1800
▁ेद्	-1801
▁सर्ग	-1802
▁स्वी	-1803
▁निष्क	-1804
▁in	-1805
▁मूर्	-1806
▁स्वत	-1807
▁कारक	-1808
▁योर्	-1809
▁सहित	-1810
▁यतो	-1811
▁रिव	-1812
ेषण	-1813
▁कृप	-1814
▁्वी	-1815
▁ज्या	-1816
▁तिह	-1817
्ण	-1818
▁ूत	-1819
▁गन्ध	-1820
▁ेर्	-1821
▁न्यास	-1822
▁ेम	-1823
▁र्मित	-1824
▁तन्	-1825
▁विविध	-1826
▁पण	-1827
▁िर्ण	-1828
▁ित्व	-1829
ज्	-1830
▁र्ग	-1831
▁यच्छ	-1832
▁रण्य	-1833
▁भक्ति	-1834
▁ेट	-1835
▁िर्णय	-1836
▁तौ	-1837
▁विस	-1838
▁क्षर	-1839
▁मिदं	-1840
▁तय	-1841
▁श्	-1842
▁न्तः	-1843
▁॰	-1844
▁ीनां	-1845
▁ोट	-1846
▁वाच्य	-1847
▁वच	-1848
▁तुर्थ	-1849
▁्यम	-1850
▁समये	-1851
▁्रति	-1852
▁क्ष्य	-1853
▁पाय	-1854
▁ाथ	-1855
▁ार्त	-1856
▁कुत्र	-1857
▁ड़	-1858
▁खे	-1859
▁ोक्तं	-1860
▁घ्न	-1861
▁ोल	-1862
▁ध्र	-1863
▁पीड	-1864
▁ेतन	-1865
▁प्राय	-1866
▁ूप	-1867
▁गन्त	-1868
▁धीयते	-1869
▁तुल्य	-1870
▁त्मान	-1871
▁षध	-1872
▁२०	-1873
▁िक्षा	-1874
▁ाख्य	-1875
▁ाह्मण	-1876
▁र्श	-1877
▁सैन	-1878
▁रिणाम	-1879
▁स्वर	-1880
▁जगत्	-1881
▁िनां	-1882
▁्वः	-1883
▁न्नत	-1884
▁१२	-1885
▁यि	-1886
▁निध	-1887
▁अहम्	-1888
▁तक	-1889
▁$	-1890
▁चन	-1891
▁त्वम्	-1892
▁्ति	-1893
▁त्यज	-1894
▁ान्न	-1895
▁प्रभ	-1896
▁वेदन	-1897
▁रोप	-1898
▁ाइ	-1899
▁कृता	-1900
▁भ्यास	-1901
▁ोम	-1902
▁्था	-1903
▁शीत	-1904
▁गा	-1905
▁यै	-1906
▁शिष्य	-1907
▁{	-1908
▁एषा	-1909
▁विद्व	-1910
▁कालः	-1911
▁िरि	-1912
▁स्थल	-1913
▁श्चित	-1914
▁घोष	-1915
▁राश	-1916
▁विंश	-1917
▁पत्न	-1918
▁शङ्क	-1919
▁ुग्	-1920
▁र्न	-1921
▁दिक	-1922
▁चक्र	-1923
▁स्पृ	-1924
▁तन	-1925
▁ङ्घ	-1926
▁चरण	-1927
▁<	-1928
▁पदं	-1929
डा	-1930
▁तीय	-1931
▁यद्य	-1932
▁ार्ध	-1933
▁१५	-1934
▁्ञानं	-1935
▁ील	-1936
▁वित्त	-1937
▁वी	-1938
▁मयि	-1939
▁दृढ	-1940
▁पौ	-1941
▁अग्न	-1942
▁तू	-1943
▁रल	-1944
▁वसाय	-1945
▁ुद्ध	-1946
▁टि	-1947
▁राय	-1948
▁संज्ञ	-1949
▁ाक्षा	-1950
▁इयं	-1951
▁गृहं	-1952
▁व्यः	-1953
▁च्छेद	-1954
▁पश	-1955
▁मौ	-1956
▁ात्रि	-1957
▁समाज	-1958
▁्रधान	-1959
▁णु	-1960
▁परे	-1961
▁देवी	-1962
▁G	-1963
▁धनं	-1964
▁िन्त	-1965
▁क्स	-1966
▁जीवित	-1967
▁वरण	-1968
▁नीत	-1969
▁ेतद	-1970
▁्यर्थ	-1971
▁नुक	-1972
▁तिहास	-1973
▁िखित	-1974
▁ेख	-1975
▁साध्य	-1976
▁त्सव	-1977
▁काव्य	-1978
▁ताः	-1979
▁वर्षा	-1980
▁ूगु	-1981
▁संख्य	-1982
▁पुरस्	-1983
▁जप	-1984
▁विप	-1985
str	-1986
▁ष्व	-1987
▁विनाश	-1988
▁O	-1989
▁गत्वा	-1990
▁ददा	-1991
▁U	-1992
▁देय	-1993
▁जनवरी	-1994
▁त्याग	-1995
▁किल	-1996
▁अस्म	-1997
ज्ञा	-1998
▁सत्	-1999
▁ष्णु	-2000
▁रच	-2001
▁वर्तन	-2002
▁तान	-2003
▁त्ययः	-2004
le	-2005
▁बाह्य	-2006
▁बुध	-2007
▁िन्	-2008
▁10	-2009
▁सन	-2010
▁्रीडा	-2011
▁sg	-2012
▁षि	-2013
▁मनः	-2014
▁ुक्ति	-2015
▁ाड	-2016
▁दीनां	-2017
ra	-2018
▁पृथि	-2019
▁sgstr	-2020
▁श्रव	-2021
▁पुराण	-2022
▁ेभ्यो	-2023
▁मर	-2024
▁अङ्ग	-2025
▁तान्	-2026
▁शून	-2027
▁उद्	-2028
▁एषः	-2029
▁ुद	-2030
▁भवत्	-2031
▁स्ट	-2032
▁यॊ	-2033
▁पृथिव	-2034
▁केच	-2035
▁कारः	-2036
▁मान्	-2037
▁काय	-2038
▁प्त	-2039
▁संशय	-2040
▁्रवि	-2041
▁पाक	-2042
मे	-2043
▁पथ	-2044
▁भवन	-2045
▁दार्थ	-2046
▁स्थिर	-2047
▁ोत्तम	-2048
▁नाथ	-2049
▁ौर	-2050
▁धृत	-2051
▁िदं	-2052
▁खण्ड	-2053
▁्धानि	-2054
▁र्द	-2055
▁सम्बद	-2056
▁एकं	-2057
▁त्मन	-2058
▁र्देश	-2059
▁ूर	-2060
▁दास	-2061
▁निवेश	-2062
▁कृपया	-2063
▁्थाने	-2064
ध्	-2065
▁धेय	-2066
▁थित	-2067
▁नृत	-2068
▁पुंस	-2069
▁मानस	-2070
▁्पष्ट	-2071
▁हा	-2072
▁शंस	-2073
▁र्ण	-2074
▁गृह्ण	-2075
▁िभि	-2076
▁स्स	-2077
▁श्लोक	-2078
▁कति	-2079
▁श्वास	-2080
▁सोऽ	-2081
▁ुप्त	-2082
▁सव	-2083
▁ट्ट	-2084
▁ैश्च	-2085
▁भर	-2086
▁स्मै	-2087
▁योग्य	-2088
▁k	-2089
▁भ्यः	-2090
▁रूपा	-2091
▁ुत्प	-2092
▁सेना	-2093
▁ाश्र	-2094
▁शून्य	-2095
दय	-2096
▁कोट	-2097
ha	-2098
▁णं	-2099
▁नदी	-2100
▁अर्थः	-2101
▁नुकूल	-2102
▁्ष	-2103
▁सृज	-2104
▁मन्त	-2105
▁धारा	-2106
▁चक्षु	-2107
▁र्ता	-2108
▁संस्थ	-2109
▁्य्य	-2110
▁तीर्थ	-2111
▁विमान	-2112
▁ेस	-2113
▁साद	-2114
▁चार्य	-2115
▁ंश्च	-2116
▁घात	-2117
▁वापि	-2118
ome	-2119
▁अभ	-2120
▁ोड	-2121
▁ाधिक	-2122
▁ोण	-2123
▁यम्	-2124
▁ाप्ते	-2125
▁्ज	-2126
▁कुश	-2127
▁मनस	-2128
▁ब्रवी	-2129
▁एम	-2130
▁यात्	-2131
▁म्प	-2132
▁अयम्	-2133
▁विजय	-2134
▁तार	-2135
कर	-2136
▁यश	-2137
▁}	-2138
▁ज्ञाप	-2139
▁्राम	-2140
▁वने	-2141
▁सुखं	-2142
▁ातु	-2143
▁षड	-2144
▁ण्ट	-2145
▁संक	-2146
▁w	-2147
re	-2148
▁भी	-2149
▁लन	-2150
▁तिशत	-2151
्नो	-2152
▁पशु	-2153
▁पिं	-2154
▁बहू	-2155
▁षा	-2156
▁गौ	-2157
▁संप्र	-2158
▁्ये	-2159
▁ब्रू	-2160
▁क्रोध	-2161
▁भ्यां	-2162
ट्	-2163
▁ायन	-2164
▁कीदृश	-2165
▁सत्यं	-2166
▁ात्मा	-2167
▁सदस्य	-2168
▁त्वे	-2169
▁मुदा	-2170
▁ाःगु	-2171
▁श्रोत	-2172
▁ीश्वर	-2173
al	-2174
▁दीय	-2175
▁हिम	-2176
▁्रीय	-2177
▁ैष	-2178
▁योर	-2179
▁शृणु	-2180
▁पल	-2181
▁ष्	-2182
▁समर्प	-2183
▁कर्ष	-2184
▁तेऽ	-2185
▁न्यून	-2186
▁Ne	-2187
▁्छ	-2188
▁भक्ष	-2189
▁ाकार	-2190
▁िश्चय	-2191
▁ंच	-2192
▁दिव	-2193
▁समस्त	-2194
▁पो	-2195
▁िष्य	-2196
▁ाधारण	-2197
▁थ्व	-2198
▁्रविश	-2199
▁F	-2200
▁आई	-2201
▁ैल	-2202
▁च्व	-2203
▁िणः	-2204
▁ग्रे	-2205
▁कृतम्	-2206
▁ज्व	-2207
▁न्दर	-2208
▁१४	-2209
▁ध्वनि	-2210
▁विष्य	-2211
▁्रथ	-2212
▁पितु	-2213
▁वन्तः	-2214
▁दुष्ट	-2215
▁दन्त	-2216
▁ीण	-2217
▁ैस्	-2218
▁्पर्श	-2219
▁...	-2220
▁न्वय	-2221
▁महोदय	-2222
▁्येव	-2223
▁ौक	-2224
▁नाम्	-2225
he	-2226
▁कुम	-2227
▁शब्दः	-2228
▁Tag	-2229
▁िकि	-2230
▁श्रू	-2231
▁ाश्रय	-2232
▁nt	-2233
▁कृतः	-2234
▁िन्न	-2235
▁शोभ	-2236
▁ासन	-2237
▁भागे	-2238
▁ii	-2239
▁---	-2240
▁मृग	-2241
▁ेच्छ	-2242
▁प्ल	-2243
▁न्तं	-2244
▁ष्ठा	-2245
▁र्माण	-2246
▁िकित्	-2247
▁जाल	-2248
▁तेषु	-2249
▁लम्ब	-2250
▁ल्या	-2251
▁तावत्	-2252
▁ंत्र	-2253
▁हल	-2254
▁्यत	-2255
▁मातृ	-2256
▁नेवाः	-2257
▁विवाह	-2258
▁भगवत	-2259
▁यन	-2260
▁रह	-2261
▁तीव	-2262
▁पदे	-2263
▁धानम	-2264
▁प्रच	-2265
▁क्ष्म	-2266
▁परिप	-2267
▁परीत	-2268
▁रिद्र	-2269
▁ातर	-2270
▁वचनं	-2271
▁भाष्य	-2272
▁तपस	-2273
▁तेषाम	-2274
▁&	-2275
▁स्था	-2276
▁िग	-2277
▁खिल	-2278
▁ाच्च	-2279
▁ताल	-2280
▁परः	-2281
▁ंगु	-2282
▁नुभव	-2283
▁ुरुष	-2284
▁er	-2285
▁बीज	-2286
▁रज	-2287
सार	-2288
▁यौ	-2289
▁निष	-2290
▁हां	-2291
▁करणे	-2292
▁एन	-2293
▁मोद	-2294
▁रणं	-2295
▁ायाम	-2296
▁संब	-2297
▁स्ता	-2298
▁सीद	-2299
▁कुमार	-2300
▁अप्र	-2301
▁व्रज	-2302
▁पक्षे	-2303
▁दन	-2304
▁Home	-2305
▁ुण	-2306
▁िणी	-2307
▁तिं	-2308
▁ह्र	-2309
▁त्मनः	-2310
▁भ्रम	-2311
▁ीर्ण	-2312
▁्यास	-2313
▁तच्च	-2314
▁लु	-2315
▁शाला	-2316
▁ुर्ल	-2317
▁ेन्द	-2318
▁मानुष	-2319
िका	-2320
▁गम्य	-2321
▁ुरुषः	-2322
▁किमपि	-2323
▁ात्रौ	-2324
▁ोच	-2325
▁विहित	-2326
▁ुर्लभ	-2327
▁्रतीत	-2328
ेह	-2329
▁वण	-2330
▁रिति	-2331
▁्ह	-2332
▁१८	-2333
▁लभ्य	-2334
▁िद्ध	-2335
▁मेक	-2336
▁निवार	-2337
▁ालन	-2338
कृ	-2339
▁धो	-2340
▁रहित	-2341
▁प्रभु	-2342
an	-2343
▁म्बर	-2344
▁बद्ध	-2345
▁युव	-2346
▁िनो	-2347
▁श्वर	-2348
▁ल्क	-2349
▁ासु	-2350
▁दल	-2351
▁नाग	-2352
▁मूर्त	-2353
▁्य्	-2354
▁कथित	-2355
▁यूयं	-2356
▁देवाः	-2357
▁िला	-2358
▁हिंसा	-2359
▁चु	-2360
▁ासि	-2361
▁भवता	-2362
▁जलं	-2363
योज	-2364
▁िनि	-2365
▁ास्ते	-2366
ूह	-2367
िया	-2368
▁ञ्	-2369
▁अहो	-2370
▁पत्त	-2371
▁ंड	-2372
▁्ग	-2373
▁बहव	-2374
▁म्प्र	-2375
▁स्नेह	-2376
▁्यायः	-2377
▁ोह	-2378
▁पितर	-2379
▁भ्रात	-2380
▁ीश	-2381
▁पन्न	-2382
▁समूह	-2383
▁गमि	-2384
▁द्भ	-2385
▁पीस	-2386
▁याव	-2387
▁परम्	-2388
▁वस्था	-2389
सि	-2390
▁भोजन	-2391
▁१३	-2392
▁विनि	-2393
▁ायक	-2394
▁पृच्छ	-2395
▁्याम्	-2396
▁्यै	-2397
▁मांस	-2398
▁ि॒	-2399
▁वेग	-2400
▁शस्त	-2401
▁कै	-2402
▁दृश	-2403
▁ाहु	-2404
▁पार्श	-2405
ce	-2406
▁ीता	-2407
▁रक्षण	-2408
▁्रथमा	-2409
▁u	-2410
▁देवः	-2411
▁त्वाद	-2412
▁ानाति	-2413
▁म्र	-2414
▁इदम्	-2415
▁चापि	-2416
▁निषेध	-2417
▁िच	-2418
▁िथ	-2419
▁दुर	-2420
▁रुत	-2421
▁शोक	-2422
▁ेदं	-2423
▁नू	-2424
▁नेत	-2425
▁वित्र	-2426
▁स्कार	-2427
▁द्यो	-2428
▁साधु	-2429
▁त्पाद	-2430
▁•	-2431
▁विवेक	-2432
▁ीडिया	-2433
▁ेरे	-2434
▁ध्या	-2435
▁तीक्ष	-2436
te	-2437
▁जुइ	-2438
▁माया	-2439
▁1.	-2440
▁वाहन	-2441
▁हन्त	-2442
▁व्यति	-2443
▁ंतर	-2444
▁उभय	-2445
▁नार	-2446
▁दं	-2447
▁भज	-2448
▁ायः	-2449
▁हर्ष	-2450
▁न्यते	-2451
▁ृष्टि	-2452
▁ग्ध	-2453
▁नून	-2454
▁रम्भ	-2455
▁िह्	-2456
▁विधिः	-2457
▁्ना	-2458
▁स्तर	-2459
▁ृण	-2460
▁त्वार	-2461
▁विकार	-2462
▁गाम	-2463
▁रुचि	-2464
▁हित्य	-2465
▁मही	-2466
▁ययौ	-2467
▁ब्द	-2468
▁द्वीप	-2469
▁ष्य	-2470
▁स्तथा	-2471
▁तोऽ	-2472
▁अतो	-2473
▁तश्च	-2474
▁विता	-2475
▁वयव	-2476
▁ाञ्च	-2477
▁अक	-2478
▁आग	-2479
▁ाणाम	-2480
▁ाधि	-2481
▁र्मणि	-2482
▁्थानं	-2483
▁्थिति	-2484
▁अष्ट	-2485
▁कृषि	-2486
▁स्तार	-2487
▁धू	-2488
▁दिश्य	-2489
▁भिर	-2490
▁वंश	-2491
▁ांस	-2492
▁निष्प	-2493
▁ेन्	-2494
▁करोमि	-2495
▁गमिष्	-2496
▁अहम	-2497
▁कारि	-2498
▁चित्	-2499
in	-2500
▁ंध	-2501
▁मिव	-2502
▁मव	-2503
▁राजन्	-2504
▁तयो	-2505
▁निश	-2506
▁अधु	-2507
▁क्षे	-2508
▁कोऽपि	-2509
▁अधुना	-2510
▁१७	-2511
▁र्मणा	-2512
▁आकाश	-2513
▁→	-2514
▁भृत	-2515
▁संयोग	-2516
▁तय्	-2517
en	-2518
▁भीत	-2519
▁याये	-2520
▁निरूप	-2521
▁१६	-2522
▁मरण	-2523
▁ाये	-2524
▁भूत्	-2525
ou	-2526
▁द्यु	-2527
▁समीप	-2528
▁मेत	-2529
▁्भ	-2530
▁प्स	-2531
▁नेपाल	-2532
▁मीक्ष	-2533
▁वाप	-2534
▁तानि	-2535
ादश	-2536
▁एकादश	-2537
▁दित्य	-2538
▁नेत्र	-2539
▁िमर्थ	-2540
▁तम्	-2541
▁्लव	-2542
▁ंब	-2543
▁तर्क	-2544
▁भेदे	-2545
▁नियत	-2546
▁१९	-2547
▁वीर्य	-2548
▁मिल	-2549
▁tion	-2550
▁धारण	-2551
▁भवतु	-2552
▁विकिप	-2553
▁्रमेण	-2554
▁माल	-2555
▁सान	-2556
▁पीसी	-2557
▁प्रेम	-2558
▁द्वौ	-2559
▁ावरण	-2560
▁क्षमा	-2561
▁ाला	-2562
▁ण्ठ	-2563
▁द्म	-2564
▁कारेण	-2565
हे	-2566
▁सित	-2567
▁तुष्ट	-2568
▁ाप्नु	-2569
▁ेते	-2570
▁्याप	-2571
▁ापित	-2572
▁भाति	-2573
▁माम	-2574
▁ायत	-2575
▁णीय	-2576
▁नयन	-2577
▁जानी	-2578
▁र्ध्व	-2579
▁चिर	-2580
▁गोप	-2581
▁ागम	-2582
▁त्री	-2583
▁क्तम्	-2584
▁ध्रुव	-2585
▁रिवार	-2586
▁एतद्	-2587
▁कुशल	-2588
▁गिर	-2589
▁दूत	-2590
▁वस्त	-2591
▁स्मरण	-2592
▁देवि	-2593
▁समाध	-2594
▁ाचीन	-2595
▁हिन्द	-2596
hi	-2597
▁सच	-2598
▁चीन	-2599
▁कुतः	-2600
▁जातः	-2601
▁ादयः	-2602
▁कल्पन	-2603
त्म	-2604
▁ाक्षस	-2605
▁थ्य	-2606
▁शैल	-2607
▁महत्	-2608
▁सञ्च	-2609
▁सदृश	-2610
▁ोग	-2611
▁ीघ्र	-2612
▁गते	-2613
▁सूत	-2614
▁हन	-2615
▁णाम	-2616
▁्स्	-2617
▁त्वाम	-2618
▁रत्न	-2619
▁तस्म	-2620
▁माणं	-2621
▁िभिः	-2622
▁स्ते	-2623
▁व्याध	-2624
▁शू	-2625
▁नुवाद	-2626
▁ोश	-2627
▁ाचार	-2628
▁छुं	-2629
▁ोर्	-2630
▁ीघ्रं	-2631
▁राध	-2632
▁ाङ्क	-2633
▁कू	-2634
▁िस्	-2635
▁त्रा	-2636
▁थु	-2637
▁दात	-2638
▁प्रेष	-2639
▁्तव्य	-2640
▁ःगु	-2641
▁इदम	-2642
▁लाख	-2643
▁महत्व	-2644
▁नरः	-2645
▁यस्मा	-2646
▁सफ	-2647
▁न्यो	-2648
▁श्रवण	-2649
▁ारं	-2650
▁पतिः	-2651
▁मन्द	-2652
▁चय	-2653
▁त्कार	-2654
▁ृप	-2655
▁पेपर	-2656
▁स्तोत	-2657
▁ाज	-2658
ीम	-2659
▁ार्द	-2660
▁ऋण	-2661
▁नित	-2662
▁िना	-2663
▁ऽऽ	-2664
▁शक्नो	-2665
▁उपरि	-2666
▁न्ती	-2667
▁प्रो	-2668
▁तस्मै	-2669
▁णम्	-2670
▁तात	-2671
▁िम्	-2672
▁त्स्य	-2673
▁ाभिः	-2674
li	-2675
▁क्षेप	-2676
▁ृश	-2677
▁्यम्	-2678
▁केवलम	-2679
▁माज	-2680
▁नत	-2681
▁ुष	-2682
▁ाकृत	-2683
▁श्वेत	-2684
▁ष्ठित	-2685
▁ेवम	-2686
▁राशि	-2687
▁ोत्प	-2688
▁षट्	-2689
▁शीघ्र	-2690
▁ेना	-2691
▁विंशत	-2692
▁धाव	-2693
▁माः	-2694
ृति	-2695
▁अज	-2696
▁हुत	-2697
▁्थापन	-2698
▁्मृति	-2699
▁क्क	-2700
▁ख्यान	-2701
▁ारद	-2702
▁ुध्य	-2703
▁रुपये	-2704
▁दात्त	-2705
▁भारते	-2706
▁ान्ते	-2707
▁सञ्ज	-2708
▁ासीत्	-2709
▁आः	-2710
▁बृह	-2711
▁आसन्	-2712
▁पराध	-2713
▁यामः	-2714
▁शक्नु	-2715
▁डि	-2716
▁नील	-2717
▁ुत्तर	-2718
▁धाय	-2719
▁पिब	-2720
▁ार्य	-2721
▁काः	-2722
▁सरकार	-2723
▁उत	-2724
▁लं	-2725
▁रायण	-2726
▁ूर्त	-2727
▁खेल	-2728
▁नायक	-2729
▁महिल	-2730
▁सर्प	-2731
ुम	-2732
▁जापत	-2733
▁कस्मा	-2734
▁क्रमण	-2735
▁भिष	-2736
▁श्रूय	-2737
▁्विन	-2738
▁दक	-2739
▁िट	-2740
▁ितुम्	-2741
▁on	-2742
▁णे	-2743
▁वम	-2744
▁दूषण	-2745
▁दो	-2746
▁ावन	-2747
▁ेष्ट	-2748
▁्रपत	-2749
▁ःस	-2750
▁ुरत	-2751
▁2.	-2752
▁गर	-2753
▁ामः	-2754
▁वक्ष	-2755
▁An	-2756
▁ांत	-2757
▁पत्नी	-2758
▁ारि	-2759
▁कथम्	-2760
▁ज़	-2761
▁निग	-2762
▁िशि	-2763
▁रवरी	-2764
▁वाचक	-2765
▁ानामि	-2766
▁िभक्त	-2767
▁्यमान	-2768
▁मः	-2769
▁ञ्छ	-2770
▁याच	-2771
▁धिकं	-2772
▁िमान	-2773
▁अग्ने	-2774
▁त्रैव	-2775
▁कप	-2776
▁हय	-2777
▁त्ता	-2778
▁ुह्य	-2779
▁्रद्ध	-2780
▁रब्ध	-2781
▁जनक	-2782
▁यमेव	-2783
▁ददाति	-2784
▁साक्ष	-2785
▁यस्	-2786
▁क्तं	-2787
▁जाता	-2788
▁देहि	-2789
▁म्न	-2790
▁ष्म	-2791
▁ान्ति	-2792
▁एवा	-2793
▁सतत	-2794
▁जगद	-2795
▁ामय	-2796
▁प्रेर	-2797
▁सैन्य	-2798
▁ाग्नि	-2799
▁्लेषण	-2800
▁तृ	-2801
▁वद्	-2802
▁परमं	-2803
▁महिला	-2804
▁मुह	-2805
▁ह्नि	-2806
▁भगवन्	-2807
▁स्रोत	-2808
▁ोय	-2809
▁मार	-2810
▁शोध	-2811
▁हंस	-2812
▁द्वे	-2813
▁वारं	-2814
▁हानि	-2815
▁र्जन	-2816
▁योक्त	-2817
am	-2818
▁इतर	-2819
▁गतिः	-2820
▁ानन्द	-2821
▁गीत	-2822
▁भुज	-2823
▁गुणा	-2824
▁नृत्य	-2825
▁येष	-2826
▁निष्ठ	-2827
▁K	-2828
▁गज	-2829
▁ेयु	-2830
▁कम्प	-2831
▁रू	-2832
▁सिध्	-2833
▁समं	-2834
▁सम्म	-2835
▁कथन	-2836
▁मानि	-2837
▁भगवान	-2838
▁रेव	-2839
▁विभ	-2840
▁शिख	-2841
▁ानाः	-2842
▁शीर्ष	-2843
▁सृष्ट	-2844
▁घन	-2845
▁ेप	-2846
▁संभ	-2847
▁त्सर	-2848
▁भद्र	-2849
▁िध	-2850
▁ाटक	-2851
▁ाकरण	-2852
▁ल्याण	-2853
▁दय	-2854
▁न्दिर	-2855
di	-2856
▁ाज्ञ	-2857
▁ुद्रा	-2858
▁ूर्वक	-2859
▁म्यक्	-2860
▁%	-2861
▁यती	-2862
▁िल्ल	-2863
▁एतेन	-2864
▁मधुर	-2865
▁यास	-2866
▁कृत्	-2867
▁२१	-2868
▁अन्व	-2869
▁मासे	-2870
▁सन्त	-2871
▁करोत्	-2872
▁रन्तु	-2873
▁लभते	-2874
▁ासां	-2875
▁लिखित	-2876
▁दूष	-2877
▁योगी	-2878
▁चाल	-2879
▁ण्व	-2880
▁दानं	-2881
▁बहुधा	-2882
▁्रौ	-2883
▁तामह	-2884
▁नुमान	-2885
▁द्यः	-2886
▁सप्तम	-2887
▁ंस्	-2888
▁होम	-2889
▁ाता	-2890
▁्वयम्	-2891
▁ामहे	-2892
▁न्यत्	-2893
▁ादिषु	-2894
▁वया	-2895
▁नाना	-2896
▁वाचन	-2897
▁द्वेष	-2898
▁योजनम	-2899
▁इत्यस	-2900
▁येषां	-2901
▁शुक्र	-2902
म्म	-2903
▁ुगु	-2904
▁त्यु	-2905
▁पराज	-2906
▁माजिक	-2907
▁तैः	-2908
▁अतीत	-2909
▁रिष्	-2910
▁ङ्ग्ल	-2911
▁थार्थ	-2912
▁स्वात	-2913
▁तिशय	-2914
▁पुरो	-2915
▁ुग्ध	-2916
▁ोच्य	-2917
▁पात्र	-2918
▁मुदाय	-2919
▁ूक्त	-2920
▁चो	-2921
▁नया	-2922
▁कोटि	-2923
▁युवा	-2924
▁न्वयः	-2925
▁ूतन	-2926
▁ल्य	-2927
▁इष्ट	-2928
▁रङ्ग	-2929
▁रामः	-2930
▁्येन	-2931
▁वैश्व	-2932
▁धीर	-2933
▁त्य्	-2934
▁ाग्र	-2935
▁रिक्ष	-2936
▁ार्थः	-2937
▁नौ	-2938
▁रात	-2939
▁माना	-2940
▁रुद्र	-2941
▁11	-2942
▁ोन	-2943
▁म्म	-2944
▁ृती	-2945
▁्मान्	-2946
▁चं	-2947
▁दः	-2948
▁ेतस	-2949
▁भाषित	-2950
▁ंस्था	-2951
▁शाख	-2952
▁हरे	-2953
▁रद	-2954
▁व्यम	-2955
▁ान्ध	-2956
▁स्पत	-2957
▁ंट	-2958
▁यव	-2959
▁्यस	-2960
▁मनसा	-2961
▁दद्या	-2962
▁ne	-2963
▁डा	-2964
▁ीष	-2965
▁तमः	-2966
▁क्रमः	-2967
▁भौ	-2968
▁द्धत	-2969
▁नष्ट	-2970
▁रेत्	-2971
▁ासाद	-2972
▁धिकृत	-2973
▁ंज	-2974
▁तुर	-2975
▁ऽप	-2976
▁यास्	-2977
▁्युप	-2978
▁स्माक	-2979
▁संघ	-2980
▁थितं	-2981
▁पचार	-2982
▁र्पण	-2983
▁ार्ह	-2984
▁ारम्भ	-2985
▁W	-2986
▁//	-2987
▁नेक	-2988
▁ानन	-2989
▁ङ्गल	-2990
▁ाब्द	-2991
▁णः	-2992
▁नक	-2993
▁्वाह	-2994
▁यमान	-2995
▁श्चन	-2996
▁िस्त	-2997
▁पृष्ट	-2998
▁वर्णन	-2999
▁ीम	-3000
▁होत	-3001
▁दिनं	-3002
▁यश्च	-3003
▁पट	-3004
▁ुद्	-3005
▁वतां	-3006
▁तिपाद	-3007
▁िथ्य	-3008
▁ेड	-3009
▁ुम्ब	-3010
▁तै	-3011
▁मृद	-3012
▁र्या	-3013
▁ाध्य	-3014
▁आगच्छ	-3015
▁ङ्कार	-3016
▁में	-3017
▁लिप	-3018
▁घटना	-3019
▁न्दो	-3020
▁ुञ्ज	-3021
▁ुष्टि	-3022
▁दौ	-3023
▁भात	-3024
▁भूम	-3025
▁नल	-3026
▁ापं	-3027
▁ेषा	-3028
▁दुर्ग	-3029
स्मि	-3030
▁शतं	-3031
▁ुवि	-3032
▁दिना	-3033
▁सक्त	-3034
▁योनि	-3035
▁्याम	-3036
▁X	-3037
▁षम	-3038
▁ितो	-3039
▁यानि	-3040
▁्थिव	-3041
▁ाकं	-3042
▁क्ष्	-3043
▁ृष्ट	-3044
▁पूज्य	-3045
▁्यापक	-3046
▁घव	-3047
▁विः	-3048
▁तन्न	-3049
▁्त्व	-3050
▁अन्ये	-3051
▁ङ्क्ष	-3052
▁x	-3053
▁परत	-3054
▁हीं	-3055
▁अल्प	-3056
▁त्रिक	-3057
▁२२	-3058
▁ूनां	-3059
▁to	-3060
▁टे	-3061
▁ार्ज	-3062
▁म्यते	-3063
▁st	-3064
▁मग	-3065
▁वचः	-3066
▁वाल	-3067
▁हिता	-3068
▁ाहित	-3069
ुख	-3070
▁धन्य	-3071
▁हव	-3072
▁णिज	-3073
▁निब	-3074
▁मभि	-3075
▁ल्व	-3076
▁श्रेय	-3077
▁हृत	-3078
▁रोतु	-3079
▁्नात	-3080
▁ष्ठान	-3081
▁शौ	-3082
▁वसर	-3083
▁ुया	-3084
▁योगं	-3085
▁ोक्ष	-3086
▁्रीति	-3087
▁ीह	-3088
▁रपि	-3089
▁ार्च	-3090
▁ोज	-3091
▁रिक	-3092
▁लित	-3093
▁सते	-3094
▁ेषाम	-3095
▁्येय	-3096
▁्यवाद	-3097
▁जाः	-3098
▁वसन्त	-3099
▁िवर्त	-3100
▁गत्य	-3101
▁मयः	-3102
▁आदेश	-3103
▁क्रि	-3104
la	-3105
▁20	-3106
▁दम	-3107
▁ाब	-3108
▁णी	-3109
▁ुने	-3110
▁ची	-3111
▁ागर	-3112
▁ावि	-3113
▁महान्	-3114
▁ंभ	-3115
▁ह्न	-3116
▁भ्यो	-3117
▁स्यां	-3118
▁भूव	-3119
▁ग्ने	-3120
▁परिच	-3121
▁ांस्	-3122
▁र्थ्य	-3123
▁ित्तं	-3124
ve	-3125
▁ैत्य	-3126
▁भवन्त	-3127
▁खाद	-3128
▁पु०	-3129
▁त्मा	-3130
▁येद्	-3131
▁प्रेत	-3132
▁रय	-3133
▁ण्य	-3134
▁ाषण	-3135
▁लिखत	-3136
▁जनस	-3137
▁श्न	-3138
▁सफल	-3139
▁्रू	-3140
▁सहाय	-3141
▁३०	-3142
▁्रयोज	-3143
▁ाँ	-3144
▁द्युत	-3145
▁दुष्	-3146
▁ार्व	-3147
▁ार्थन	-3148
▁J	-3149
▁ामक	-3150
▁णाम्	-3151
▁थ्यते	-3152
▁ास्तु	-3153
▁ेि	-3154
▁भवत	-3155
▁ोद्	-3156
▁्यौ	-3157
▁प्राग	-3158
▁ीं	-3159
▁घ्र	-3160
▁ृपा	-3161
▁न्धन	-3162
▁श्वत	-3163
ea	-3164
▁12	-3165
▁घृ	-3166
▁हिः	-3167
▁चेष्ट	-3168
▁भवत्य	-3169
▁ऽन	-3170
▁ing	-3171
▁श्रय	-3172
▁ाभ्य	-3173
▁ाहुः	-3174
▁रां	-3175
ेषु	-3176
▁विदेश	-3177
▁िदम	-3178
▁द्देश	-3179
▁यस्तु	-3180
▁ित्यम	-3181
▁२५	-3182
▁नरक	-3183
▁परो	-3184
▁ीपे	-3185
▁टिप	-3186
▁हम्	-3187
▁्तु	-3188
▁ञ्जन	-3189
▁ातुः	-3190
▁विन्द	-3191
▁लाल	-3192
▁तॄ	-3193
▁श्चर	-3194
▁स्तद	-3195
▁ुक्तं	-3196
▁ोभ	-3197
▁यया	-3198
▁ृदि	-3199
▁भवन्	-3200
▁ास्थ	-3201
▁आम	-3202
▁ब्ध	-3203
▁ोधन	-3204
▁दानीम	-3205
▁न्ध्य	-3206
▁स्ताव	-3207
▁िन्ता	-3208
▁द्यते	-3209
▁चते	-3210
▁शरण	-3211
▁वादी	-3212
▁्मात्	-3213
▁तिक	-3214
▁दति	-3215
▁वयम्	-3216
▁छु	-3217
▁संद	-3218
▁िषु	-3219
▁द्रव	-3220
▁ाक्षर	-3221
▁्यध	-3222
▁विषयः	-3223
il	-3224
▁िब	-3225
▁भाज	-3226
▁याद	-3227
▁ज्वल	-3228
▁्रेण	-3229
▁सन्नि	-3230
▁द्योग	-3231
▁यतीति	-3232
▁वज्	-3233
▁टिप्	-3234
▁पतित	-3235
▁te	-3236
▁ोदय	-3237
▁्ली	-3238
▁ैवं	-3239
▁तयोः	-3240
▁भ्यं	-3241
▁प्रीत	-3242
▁माम्	-3243
▁ीव	-3244
▁क्षी	-3245
▁वदत्	-3246
▁यितुम	-3247
▁महत	-3248
▁सुप	-3249
▁ामिन	-3250
▁आत्मा	-3251
▁ुक्	-3252
▁अवि	-3253
▁नहि	-3254
▁्वज	-3255
▁पीत	-3256
▁पुल	-3257
▁माप	-3258
▁पार्थ	-3259
▁कमल	-3260
▁ादिति	-3261
▁ृद्ध	-3262
▁ृष	-3263
▁हृ	-3264
▁वृष	-3265
▁जमान	-3266
▁्वाहा	-3267
▁्रकरण	-3268
▁15	-3269
▁्रमण	-3270
▁अन्तर	-3271
us	-3272
▁दिल	-3273
▁ेन्न	-3274
▁यामास	-3275
▁रित्य	-3276
▁ष्टम	-3277
▁क्तिः	-3278
▁र्य्य	-3279
▁र्षिक	-3280
▁ङ्क्	-3281
▁कुट	-3282
▁शयन	-3283
▁साह	-3284
▁ाय्	-3285
▁ततस्	-3286
▁ासी	-3287
▁तन्म	-3288
▁पाश	-3289
▁र्थक	-3290
▁क्रमा	-3291
▁्वस्थ	-3292
▁ॄ	-3293
▁ग्निः	-3294
▁खो	-3295
▁तले	-3296
▁उत्स	-3297
▁ावद्	-3298
▁भयो	-3299
▁ेतु	-3300
▁अश्व	-3301
▁्वयो	-3302
▁्राक्	-3303
▁नाव	-3304
▁नाहं	-3305
▁िक्षु	-3306
▁तिः	-3307
▁च्या	-3308
▁वादः	-3309
▁ुत्स	-3310
▁ाम्ना	-3311
▁ार्थे	-3312
▁कोप	-3313
▁जाति	-3314
▁द्या	-3315
▁ंज्ञा	-3316
▁सन्धि	-3317
▁ृतीया	-3318
▁ंति	-3319
▁वाय	-3320
▁षां	-3321
▁जिन	-3322
▁योऽ	-3323
▁नारी	-3324
▁्युत	-3325
▁vi	-3326
▁कं	-3327
▁नस्	-3328
lo	-3329
▁यी	-3330
▁॒व	-3331
▁ीनि	-3332
▁ाधिप	-3333
▁नसि	-3334
▁ेतद्	-3335
▁ाध्यम	-3336
▁्राव	-3337
▁आगत	-3338
▁ीया	-3339
▁स्वतः	-3340
▁रॊ	-3341
▁सय	-3342
▁धीन	-3343
▁युः	-3344
▁ोजन	-3345
▁दक्ष	-3346
▁डी	-3347
▁वचनम्	-3348
▁ार्ता	-3349
▁्वीकृ	-3350
▁ा॒	-3351
▁ग्रत	-3352
▁्रदेश	-3353
▁हाय	-3354
▁ेशस्य	-3355
SS	-3356
▁िड	-3357
▁ूष	-3358
▁२४	-3359
▁तीत	-3360
▁वेष	-3361
▁पदेश	-3362
vi	-3363
▁्याद	-3364
▁टल	-3365
▁रतः	-3366
▁तावद	-3367
▁न्तो	-3368
▁तीत्य	-3369
▁्रस्य	-3370
▁चेत	-3371
▁विम	-3372
▁ेगु	-3373
▁ीनाम	-3374
▁्मिक	-3375
▁लोक्य	-3376
▁स्मिन	-3377
▁िषद	-3378
▁ूरे	-3379
▁ाधान	-3380
▁िश्र	-3381
▁कर्तृ	-3382
▁टन	-3383
▁शिय	-3384
▁िदित	-3385
▁्रुव	-3386
▁्यस्त	-3387
▁्वर्ण	-3388
▁सख	-3389
▁ावध	-3390
▁दन्ति	-3391
▁तरं	-3392
▁धुन	-3393
▁रन्	-3394
▁हरण	-3395
▁्तुतः	-3396
▁बलं	-3397
▁बलव	-3398
▁भवे	-3399
▁ाकि	-3400
▁ातव्य	-3401
त्रे	-3402
▁केश	-3403
▁ारा	-3404
▁दशम	-3405
▁ीरे	-3406
▁त्मक	-3407
▁y	-3408
▁इम	-3409
▁ाहृत	-3410
▁केत	-3411
▁जनः	-3412
▁सद्	-3413
▁कान्त	-3414
्रम	-3415
▁In	-3416
▁ाधन	-3417
▁ाण्य	-3418
▁िद्य	-3419
▁नग	-3420
▁ुड	-3421
▁धौ	-3422
▁ेज	-3423
▁ंसि	-3424
▁वाक्	-3425
▁ाद्ध	-3426
▁ऑ	-3427
▁्फ	-3428
▁२७	-3429
▁िकी	-3430
▁र्त्य	-3431
▁हु	-3432
▁Ans	-3433
▁ामं	-3434
▁र्थे	-3435
▁ातुं	-3436
▁ादिक	-3437
▁नुसार	-3438
▁de	-3439
▁यच्च	-3440
▁तोष	-3441
▁मीर	-3442
▁ानव	-3443
▁अय	-3444
▁उपा	-3445
▁ङ्के	-3446
▁18	-3447
▁ुख	-3448
▁्ती	-3449
▁क्रय	-3450
▁अस्मि	-3451
▁२६	-3452
▁य्य	-3453
▁्षे	-3454
▁ताया	-3455
▁वलोक	-3456
▁यतु	-3457
▁श्यं	-3458
▁ष्टि	-3459
ञ्	-3460
▁वप	-3461
▁ूट	-3462
▁्यसे	-3463
च्	-3464
▁अन्न	-3465
▁गताः	-3466
▁र्म्म	-3467
▁सप	-3468
▁॒त	-3469
▁आदि	-3470
▁नात	-3471
▁याग	-3472
▁ार्थय	-3473
▁चम	-3474
▁धिय	-3475
▁्प्र	-3476
▁जं	-3477
▁ुज	-3478
▁ःसा	-3479
▁बहि	-3480
▁ायश	-3481
▁ोचन	-3482
▁द्भि	-3483
▁न्तरं	-3484
▁मस्या	-3485
▁यन्ते	-3486
▁पते	-3487
▁र्भ	-3488
▁कालं	-3489
▁सर्वम	-3490
▁or	-3491
▁रुष	-3492
▁्वम	-3493
▁िक्	-3494
▁रन्त	-3495
▁िद्रा	-3496
▁आद	-3497
▁नोप	-3498
▁वीन	-3499
▁न्नं	-3500
▁तत्प	-3501
▁ोक्ता	-3502
▁्वमेव	-3503
it	-3504
▁िशु	-3505
▁तियोग	-3506
▁हृदये	-3507
▁मेध	-3508
▁विधा	-3509
▁न्तरे	-3510
▁पुनरा	-3511
▁ोक	-3512
▁मिम	-3513
▁थि	-3514
▁मथ	-3515
▁करं	-3516
▁तित	-3517
येत्	-3518
▁ाका	-3519
▁ीप्	-3520
▁पलब्ध	-3521
▁of	-3522
▁ारी	-3523
▁्मत	-3524
▁चः	-3525
▁णम	-3526
▁इगु	-3527
▁णित	-3528
▁ीयम्	-3529
▁ग्रहः	-3530
▁अश	-3531
▁तिथ	-3532
▁दया	-3533
▁ाख्या	-3534
▁कीय	-3535
▁स्वप	-3536
ay	-3537
▁मग्र	-3538
▁विल	-3539
▁ावय	-3540
▁ावल	-3541
▁हस्य	-3542
▁कारिण	-3543
▁14	-3544
▁पह	-3545
▁रन	-3546
▁षभ	-3547
▁ाष	-3548
▁ीक	-3549
▁न्थ	-3550
▁द्रु	-3551
▁युगे	-3552
▁गार	-3553
▁हितं	-3554
▁इत्या	-3555
▁एतस्य	-3556
▁्थापय	-3557
▁चिक	-3558
▁मद्	-3559
▁वसत	-3560
▁कव	-3561
▁नुः	-3562
▁त्कृ	-3563
▁याना	-3564
▁मणि	-3565
▁ोऽयं	-3566
▁नार्थ	-3567
▁ेक्षा	-3568
▁रिय	-3569
▁वाज	-3570
▁वन्ति	-3571
▁रोच	-3572
▁िवः	-3573
▁ाभार	-3574
▁नमस्	-3575
▁ितुम	-3576
▁्थं	-3577
▁पत्य	-3578
▁ेध	-3579
▁ीयः	-3580
▁ृत्व	-3581
▁्योत	-3582
▁त्रयो	-3583
▁जले	-3584
▁ूम	-3585
▁हता	-3586
▁ादेव	-3587
▁ध्यते	-3588
▁चना	-3589
▁्नि	-3590
▁अत्य	-3591
▁्परा	-3592
▁नास्त	-3593
▁ुद्धे	-3594
▁्श	-3595
▁ाहि	-3596
▁नद्य	-3597
▁प्रम	-3598
▁्वस्य	-3599
▁जे	-3600
▁ऽस	-3601
▁अग्र	-3602
▁यात्र	-3603
▁्याद्	-3604
▁भूष	-3605
▁रेक	-3606
▁ाशय	-3607
▁्यव	-3608
▁गच्छत	-3609
▁वेत्त	-3610
▁धम	-3611
▁वसु	-3612
▁द्भव	-3613
▁ायां	-3614
▁णो	-3615
▁द्वै	-3616
▁हत्य	-3617
▁िशेषण	-3618
▁प्रती	-3619
▁र्शित	-3620
▁भोज	-3621
▁हती	-3622
▁स्तदा	-3623
▁भावे	-3624
▁रभ्य	-3625
▁यस्या	-3626
▁ॊक	-3627
▁णत	-3628
▁ापर	-3629
▁मानः	-3630
▁चै	-3631
▁शन	-3632
▁ादक	-3633
▁धारय	-3634
▁वस्थ	-3635
▁िरिति	-3636
▁न०	-3637
▁ियः	-3638
▁वानर	-3639
▁तुः	-3640
▁दिवा	-3641
▁रुणा	-3642
▁वादन	-3643
▁सारं	-3644
▁्मान	-3645
▁्स्य	-3646
▁णोत	-3647
▁तीयं	-3648
▁दास्	-3649
▁धान्य	-3650
▁हन्ति	-3651
et	-3652
▁पय	-3653
▁ोपि	-3654
▁नैः	-3655
▁ाङ्	-3656
▁िरे	-3657
▁्भव	-3658
▁न्तत	-3659
▁ाघ	-3660
▁तरण	-3661
▁तिल	-3662
▁मति	-3663
▁कुर्य	-3664
▁निवेद	-3665
▁ारणम्	-3666
xt	-3667
▁ःश	-3668
▁शे	-3669
▁ुचि	-3670
▁ेष्	-3671
▁हू	-3672
▁ातन	-3673
▁करोत	-3674
▁h	-3675
▁शस	-3676
▁परिह	-3677
▁र्थं	-3678
▁शुभा	-3679
▁र्घ	-3680
▁ारु	-3681
▁ाऽऽ	-3682
▁त्रै	-3683
▁रभ	-3684
▁ाख	-3685
▁पम	-3686
▁MSS	-3687
▁दशा	-3688
▁ाग्	-3689
▁ालिका	-3690
▁दिकं	-3691
▁समुद	-3692
▁इच्छा	-3693
▁खर	-3694
▁ूय	-3695
▁युष	-3696
▁िंश	-3697
▁न्यद	-3698
▁नानां	-3699
▁बर	-3700
▁हद	-3701
▁ूक	-3702
▁मन्ये	-3703
▁रौ	-3704
▁वं	-3705
▁ोत	-3706
▁ङ्ख	-3707
▁विह	-3708
▁स्तव	-3709
▁स्थाय	-3710
▁२३	-3711
▁ारः	-3712
▁क्यं	-3713
▁धिना	-3714
▁्राज	-3715
▁भावना	-3716
▁भ्यते	-3717
ws	-3718
▁ेता	-3719
▁ाय्य	-3720
▁शव	-3721
▁निम	-3722
▁ितर	-3723
▁ीमा	-3724
▁्राह	-3725
▁यर	-3726
▁दीन	-3727
▁िरस	-3728
▁रचित	-3729
▁िन्य	-3730
▁नन	-3731
▁मेष	-3732
▁कारा	-3733
▁तत्व	-3734
▁ाज्य	-3735
▁तिर	-3736
▁थमे	-3737
▁रिप	-3738
▁यान्त	-3739
▁्मे	-3740
▁स्वयम	-3741
▁तुम	-3742
▁हिंस	-3743
▁ह्यं	-3744
▁्याज	-3745
▁रूपम्	-3746
▁Y	-3747
▁प्रस	-3748
▁क्तुं	-3749
▁लय्	-3750
▁वरं	-3751
▁ीच	-3752
▁णाल	-3753
▁तमस	-3754
▁त्रं	-3755
▁ोत्स	-3756
▁ात्पर	-3757
▁3.	-3758
▁तृप	-3759
▁रीय	-3760
▁्णव	-3761
▁II	-3762
▁जो	-3763
▁बृ	-3764
▁दाव	-3765
▁मागत	-3766
▁वयम	-3767
▁ेखा	-3768
▁धारणा	-3769
ro	-3770
▁मं	-3771
▁सात	-3772
▁साल	-3773
▁ह्व	-3774
▁ावह	-3775
▁गुणं	-3776
▁SF	-3777
▁करणीय	-3778
▁al	-3779
▁्द्व	-3780
▁त्कृत	-3781
▁वयो	-3782
▁ऽहं	-3783
▁ेहि	-3784
▁िहित	-3785
▁्मार	-3786
▁्षेप	-3787
▁ल्पित	-3788
▁्बद्ध	-3789
▁थः	-3790
▁लक	-3791
▁एकस	-3792
▁ानत	-3793
▁निधि	-3794
▁त्रीण	-3795
▁िस्तर	-3796
▁ुग	-3797
▁ृत्	-3798
▁्वै	-3799
▁येत	-3800
▁िंत	-3801
▁प्रय	-3802
▁िवं	-3803
▁द्वन	-3804
▁श्यति	-3805
▁छे	-3806
▁पस	-3807
▁तद्व	-3808
▁्रुत	-3809
▁रक	-3810
▁याज	-3811
ri	-3812
▁4.	-3813
▁अना	-3814
▁कवि	-3815
▁प्रह	-3816
▁मद्य	-3817
▁श्रु	-3818
▁ान्तः	-3819
▁रः	-3820
▁शिल	-3821
▁िरः	-3822
▁देशी	-3823
▁ास्म	-3824
▁त्मना	-3825
▁ीः	-3826
▁५०	-3827
▁ुष्	-3828
▁गतं	-3829
▁मतः	-3830
▁कत्व	-3831
▁न्स	-3832
▁भवद	-3833
▁17	-3834
▁दुष	-3835
▁धेन	-3836
▁त्वद	-3837
▁पकार	-3838
▁ायु	-3839
▁चरित	-3840
▁जायत	-3841
▁कूल	-3842
▁ताद	-3843
▁त्ते	-3844
▁्याय	-3845
▁Q	-3846
▁ीद	-3847
▁णना	-3848
▁माद	-3849
▁२८	-3850
▁मिथ	-3851
▁येक	-3852
▁स्तन	-3853
▁क्षित	-3854
▁ालक	-3855
▁िर्व	-3856
▁गन	-3857
▁मप	-3858
▁ङ्गा	-3859
▁त्तर	-3860
▁ादान	-3861
▁अण	-3862
▁कान	-3863
▁तोः	-3864
▁ाणी	-3865
▁ऽथ	-3866
▁इतः	-3867
▁काच	-3868
▁लाप	-3869
▁ामी	-3870
▁समाप	-3871
▁ꣳ	-3872
▁13	-3873
▁श्लेष	-3874
▁ीर्ति	-3875
स्म	-3876
▁क्षा	-3877
▁ुध	-3878
▁दयो	-3879
▁नयत	-3880
▁नपि	-3881
▁इमे	-3882
▁चतुर	-3883
▁ापन	-3884
▁ावर	-3885
▁्रण	-3886
▁िद्धि	-3887
▁शिश	-3888
▁िशा	-3889
▁वेति	-3890
▁सर्वो	-3891
▁तये	-3892
▁मिन	-3893
▁र्धा	-3894
▁वेष्ट	-3895
▁ियन्त	-3896
▁ध्यात	-3897
▁पश्यत	-3898
▁the	-3899
▁पेत	-3900
▁र्ट	-3901
▁ुतो	-3902
▁ुरो	-3903
▁र्याय	-3904
▁चेद	-3905
▁येद	-3906
▁कक्ष	-3907
▁ॅ	-3908
▁ूह	-3909
▁ोजनं	-3910
▁ऽस्मि	-3911
▁30	-3912
▁क्य	-3913
▁दिति	-3914
▁दनु	-3915
▁ादश	-3916
▁िमा	-3917
▁देशः	-3918
▁नापि	-3919
▁्यता	-3920
▁र्थम्	-3921
▁वित्	-3922
▁्पेन	-3923
▁्रिक	-3924
▁्वया	-3925
▁अनन्त	-3926
▁त्त्र	-3927
ed	-3928
▁णय	-3929
▁ानं	-3930
▁ानम	-3931
▁शब्दे	-3932
▁ही	-3933
▁नुप	-3934
▁ोषित	-3935
▁^	-3936
▁ुच	-3937
▁ाचा	-3938
▁ाने	-3939
▁जन्य	-3940
▁ात्य	-3941
▁्मित	-3942
▁विच	-3943
▁ुक्ते	-3944
▁es	-3945
▁ादित	-3946
▁चैत	-3947
▁िवेद	-3948
▁~	-3949
▁ईश	-3950
▁४०	-3951
▁मात्म	-3952
▁ेवस्य	-3953
▁करे	-3954
▁्भू	-3955
▁प्रण	-3956
▁न्ह्य	-3957
▁ट्र	-3958
▁तिपद	-3959
▁गृ	-3960
▁यण	-3961
▁काक	-3962
▁यशः	-3963
▁ृणु	-3964
▁्रम्	-3965
▁श्याम	-3966
▁ड्	-3967
▁शम	-3968
▁णाय	-3969
▁नुम	-3970
▁ाहम	-3971
▁िग्	-3972
▁ैर्य	-3973
▁्तते	-3974
▁्वत्	-3975
▁नभ	-3976
▁महं	-3977
▁लिं	-3978
▁ायण	-3979
▁्चा	-3980
▁यत्य	-3981
▁ेषाम्	-3982
▁रितः	-3983
▁्यति	-3984
▁ीत्या	-3985
▁षण	-3986
▁्यग्	-3987
▁त्तिः	-3988
▁घर	-3989
▁घु	-3990
▁गि	-3991
▁नाद	-3992
▁नुज	-3993
▁यैव	-3994
▁र्यय	-3995
▁्ताह	-3996
▁इत्यत	-3997
▁निश्च	-3998
▁(1	-3999
▁ली	-4000
▁गुह	-4001
▁्मय	-4002
▁न्नि	-4003
▁र्थन	-4004
▁्यादि	-4005
ec	-4006
▁वदत	-4007
▁ामा	-4008
▁्रव	-4009
▁अभ्य	-4010
▁्यथा	-4011
▁जः	-4012
▁णव	-4013
▁रेल	-4014
▁्पन्न	-4015
▁(=	-4016
▁मते	-4017
▁सेन	-4018
▁ीन्	-4019
▁ेस्	-4020
▁रोम	-4021
▁िर्न	-4022
▁ानन्त	-4023
▁ar	-4024
▁टु	-4025
▁ातक	-4026
▁ादर	-4027
▁एतस	-4028
▁ेऽस	-4029
▁्यप	-4030
▁ोग्य	-4031
▁ेनापि	-4032
▁पठन	-4033
▁महे	-4034
▁ायो	-4035
▁खँ	-4036
▁ुवन	-4037
▁यत्त	-4038
▁जनन	-4039
▁विधं	-4040
▁रयेत्	-4041
▁गान	-4042
▁ादु	-4043
▁ुषु	-4044
▁ार्ग	-4045
▁ुच्छ	-4046
▁16	-4047
▁लः	-4048
▁ारक	-4049
▁ियन	-4050
▁३१	-4051
▁कोर	-4052
▁जन्	-4053
▁तमा	-4054
▁िज	-4055
▁धिप	-4056
▁रणे	-4057
▁िल्	-4058
▁्धि	-4059
▁्वे	-4060
▁वन्द	-4061
▁िवेदन	-4062
at	-4063
oo	-4064
▁19	-4065
▁Ar	-4066
▁इमं	-4067
▁णीत	-4068
▁ुत्	-4069
▁मृत्य	-4070
▁मयं	-4071
▁्कः	-4072
▁न्दस	-4073
▁पठित	-4074
▁ोद्ध	-4075
▁द्ग	-4076
▁Next	-4077
▁ङ्का	-4078
▁तिर्	-4079
▁दिवि	-4080
▁धव	-4081
▁धया	-4082
▁21	-4083
▁ानुप	-4084
▁्धित	-4085
▁वु	-4086
▁ुस	-4087
▁ौन	-4088
▁च्छा	-4089
▁योगे	-4090
▁्युः	-4091
▁द्यान	-4092
▁दस	-4093
▁लाय	-4094
▁्वान	-4095
णां	-4096
▁फु	-4097
▁्ख	-4098
▁ीष्	-4099
▁द्यम	-4100
▁वेद्	-4101
ck	-4102
▁णक	-4103
▁शश	-4104
▁मुखं	-4105
▁आव	-4106
▁जक	-4107
▁टर	-4108
▁मख	-4109
▁व्	-4110
▁ृग	-4111
▁ुरा	-4112
▁श्चैव	-4113
▁ुत्तम	-4114
▁२९	-4115
▁िमुख	-4116
▁नाम्न	-4117
▁्रसार	-4118
▁भवः	-4119
▁त्वत्	-4120
▁्त्वं	-4121
▁तमो	-4122
▁ालो	-4123
▁नेति	-4124
▁ायाः	-4125
▁भूतं	-4126
▁Li	-4127
▁ृह	-4128
▁वीत	-4129
▁र्षि	-4130
▁पं	-4131
▁र्ब	-4132
▁लिन	-4133
▁दव	-4134
▁्घ	-4135
▁हुः	-4136
▁िते	-4137
▁Answ	-4138
▁्रज्ञ	-4139
▁शल	-4140
▁वदन	-4141
▁तन्त	-4142
▁हस्ते	-4143
se	-4144
▁यक्ष	-4145
▁र्जा	-4146
▁्यधिक	-4147
▁ङि	-4148
▁ीर्य	-4149
▁Po	-4150
▁आज	-4151
▁इत्	-4152
▁नाः	-4153
▁तिभा	-4154
▁कर्मण	-4155
▁j	-4156
▁टक	-4157
▁पास	-4158
▁ोषण	-4159
▁ऽप्य	-4160
▁तदु	-4161
▁नाभ	-4162
▁लह	-4163
▁िरं	-4164
▁िश्व	-4165
▁वार्त	-4166
▁पै	-4167
▁ून	-4168
▁ानक	-4169
▁ृष्ण	-4170
▁अच	-4171
▁जेत	-4172
▁द्द	-4173
▁निप	-4174
▁ानी	-4175
▁्रस	-4176
▁विकि	-4177
▁बे	-4178
▁ीट	-4179
▁ट्य	-4180
▁र्हि	-4181
▁स्तेन	-4182
▁Vi	-4183
▁nd	-4184
▁जह	-4185
▁शय	-4186
▁nce	-4187
▁पदा	-4188
▁मुपा	-4189
▁वस्व	-4190
▁्ट्र	-4191
▁=>	-4192
▁वग	-4193
▁ितम	-4194
▁िधान	-4195
▁ेच	-4196
▁िपु	-4197
▁ुल्	-4198
▁तमेव	-4199
▁स्तान	-4200
▁ोत्र	-4201
▁पन	-4202
▁चिद	-4203
▁थात	-4204
▁बलि	-4205
▁जन्त	-4206
▁ध्वन	-4207
▁ासस्य	-4208
▁ृज	-4209
▁निरा	-4210
▁र्गत	-4211
▁िन्दु	-4212
me	-4213
▁३२	-4214
▁रूपे	-4215
▁श्चा	-4216
▁ारित	-4217
▁ियो	-4218
▁ङ्गत	-4219
▁्तरि	-4220
▁्रस्त	-4221
▁्भाव	-4222
▁25	-4223
▁ाचर	-4224
▁ाशु	-4225
▁तुर्	-4226
▁ानीं	-4227
▁त्येव	-4228
▁ऋष	-4229
▁तरे	-4230
▁द्यत	-4231
▁्तिक	-4232
▁ध्	-4233
▁शाक	-4234
▁ङ्गम	-4235
▁न्यू	-4236
▁ादृश	-4237
▁पः	-4238
▁वोच	-4239
▁षित	-4240
▁ाहस	-4241
▁त्सम	-4242
▁्वती	-4243
▁्वस्त	-4244
▁मेद	-4245
▁वाण	-4246
▁करणं	-4247
▁त्यम	-4248
▁प्रश	-4249
▁िज्ञा	-4250
▁ज्	-4251
▁मत्	-4252
▁शित	-4253
▁हति	-4254
▁वेदना	-4255
▁ि॑	-4256
▁ुब	-4257
▁ु॒	-4258
▁्वल	-4259
▁ष्टा	-4260
▁ष्टु	-4261
▁द्विष	-4262
▁निर्व	-4263
▁ओं	-4264
▁वधि	-4265
▁्वय	-4266
▁आत	-4267
▁रेण	-4268
▁ासो	-4269
▁्णो	-4270
▁ष्कर	-4271
▁भृ	-4272
▁iii	-4273
▁कुत	-4274
▁ाणा	-4275
▁अक्ष	-4276
▁गस्त	-4277
▁तुष्	-4278
▁ावित	-4279
▁ाक्षि	-4280
▁वैर	-4281
▁भवती	-4282
▁ाज्ये	-4283
▁ा॑	-4284
▁मेन	-4285
▁लाः	-4286
▁ियं	-4287
▁ष्टक	-4288
▁्रयः	-4289
▁ावर्त	-4290
▁com	-4291
▁ियत	-4292
▁ियोग	-4293
▁ादप	-4294
ate	-4295
▁तिष	-4296
▁नता	-4297
▁मन्व	-4298
▁िवास	-4299
▁क्षः	-4300
▁व्यप	-4301
▁ाष्ट	-4302
▁करणम्	-4303
▁कैः	-4304
▁ादय	-4305
▁प्प	-4306
▁ारे	-4307
▁कानि	-4308
▁रस्य	-4309
▁ाच्छ	-4310
▁ाश्व	-4311
▁दत	-4312
▁गोल	-4313
▁नामा	-4314
▁िर्वि	-4315
▁ूत्रे	-4316
▁ाफ	-4317
▁ातं	-4318
▁िगम	-4319
▁ावृत	-4320
▁ाव्य	-4321
▁स्तत्	-4322
▁िश्वस	-4323
chi	-4324
▁्वद	-4325
▁यन्न	-4326
▁ूं	-4327
▁वपु	-4328
▁संह	-4329
▁ारम	-4330
▁यन्तु	-4331
▁्रेषु	-4332
▁ावक	-4333
ti	-4334
▁बं	-4335
▁तमं	-4336
▁भुव	-4337
▁ययु	-4338
▁रुच	-4339
▁वयस	-4340
▁सां	-4341
▁ायम	-4342
▁्यद	-4343
▁ख्या	-4344
▁जन्मन	-4345
▁तदर्थ	-4346
▁ाप्ता	-4347
▁दह	-4348
▁बन	-4349
▁मज	-4350
▁भया	-4351
▁ावद	-4352
▁ुना	-4353
▁वाग्	-4354
▁्रीण	-4355
▁प्रयत	-4356
▁चक	-4357
▁थन	-4358
▁गन्	-4359
▁थाः	-4360
▁्यहं	-4361
ear	-4362
▁ततॊ	-4363
▁तावत	-4364
▁यान्	-4365
▁व्यो	-4366
▁वन्तु	-4367
▁ूर्ति	-4368
▁कश	-4369
▁्धार	-4370
▁वाद्य	-4371
ll	-4372
▁३३	-4373
▁अपर	-4374
▁ुरू	-4375
▁स्तः	-4376
▁वृष्ट	-4377
▁िन्तय	-4378
▁तीये	-4379
▁ेयम्	-4380
ad	-4381
▁for	-4382
▁दशक	-4383
▁धाम	-4384
▁ोऽध	-4385
▁द्धि	-4386
▁्थिता	-4387
▁अब	-4388
▁अनुप	-4389
▁्रकार	-4390
▁lo	-4391
▁कोष	-4392
▁तवा	-4393
▁यंत	-4394
▁रेत	-4395
▁वर्तत	-4396
▁re	-4397
▁र्स	-4398
▁li	-4399
▁ves	-4400
▁तीर	-4401
▁धिं	-4402
▁पना	-4403
▁राह	-4404
▁ुस्	-4405
▁त्तु	-4406
▁ुत्त	-4407
▁ab	-4408
▁जू	-4409
▁गिन	-4410
▁नास	-4411
▁नुव	-4412
▁ासा	-4413
▁िके	-4414
▁क्षु	-4415
▁र्थी	-4416
▁ाभिर	-4417
▁असौ	-4418
▁सरे	-4419
▁No	-4420
▁na	-4421
▁गतो	-4422
▁वाः	-4423
▁ूषण	-4424
▁ेदन	-4425
▁क्या	-4426
▁मानो	-4427
▁an	-4428
▁ाचि	-4429
▁ुचित	-4430
▁चौ	-4431
▁मुद	-4432
▁शिर	-4433
▁्तव	-4434
▁्मद	-4435
▁अभिव	-4436
▁चन्द	-4437
▁तिमा	-4438
▁पाणि	-4439
▁योगि	-4440
▁ोऽहं	-4441
▁्वद्	-4442
▁कृष्ट	-4443
▁यथो	-4444
▁राव	-4445
▁ुलि	-4446
▁्टर	-4447
▁्र्	-4448
▁कथयत	-4449
▁विरा	-4450
▁जै	-4451
▁जरा	-4452
▁शिष	-4453
▁य्या	-4454
▁िक्त	-4455
▁िङ्ग	-4456
▁तत्रा	-4457
▁डु	-4458
▁षी	-4459
▁ज्जा	-4460
▁िवाद	-4461
▁ृच्छ	-4462
▁पत्ति	-4463
▁जव	-4464
▁थो	-4465
▁वनं	-4466
▁समाच	-4467
▁्यनु	-4468
▁ाद्या	-4469
▁गद्	-4470
▁ाल्	-4471
▁िहत	-4472
▁्यान	-4473
▁रत्व	-4474
▁रस्त	-4475
▁ानेन	-4476
▁िनाम	-4477
▁्वेष	-4478
▁←	-4479
▁ेब	-4480
▁Archi	-4481
▁दर्शय	-4482
▁24	-4483
▁यिक	-4484
▁ीला	-4485
▁्ञा	-4486
▁ाग्न	-4487
▁5.	-4488
▁en	-4489
▁ुभ	-4490
▁माग	-4491
▁त्सु	-4492
▁्तरे	-4493
▁्भूत	-4494
▁iv	-4495
▁यूय	-4496
▁िरो	-4497
▁ेशव	-4498
▁्रु	-4499
▁नात्	-4500
▁डो	-4501
▁तवं	-4502
▁तिस	-4503
▁निय	-4504
▁नान्य	-4505
▁ष्यते	-4506
▁ारस्य	-4507
▁ng	-4508
▁भे	-4509
▁जाग	-4510
▁ममा	-4511
▁ुमु	-4512
▁नगरे	-4513
▁On	-4514
▁se	-4515
▁गल	-4516
▁रमण	-4517
▁St	-4518
▁रकं	-4519
▁रवि	-4520
▁सवि	-4521
▁निर्म	-4522
▁by	-4523
▁्रक्ष	-4524
▁नयो	-4525
▁धुना	-4526
▁तायाः	-4527
▁एको	-4528
▁कन्	-4529
▁मना	-4530
▁सरस	-4531
▁ानो	-4532
▁नश्च	-4533
▁वर्य	-4534
▁थे	-4535
▁रते	-4536
▁मेवा	-4537
▁न्तरा	-4538
▁जार	-4539
▁थवा	-4540
▁ेवा	-4541
▁ज्ञः	-4542
▁ंह	-4543
▁थां	-4544
▁श्म	-4545
▁ुधा	-4546
▁कारो	-4547
▁बहुव	-4548
▁ुष्क	-4549
▁ोज्य	-4550
▁्ठ	-4551
▁ूर्	-4552
▁्रभ	-4553
▁्वो	-4554
▁नाभि	-4555
▁ाहार	-4556
▁िदेश	-4557
ER	-4558
▁कच	-4559
▁्तृत	-4560
▁ीतं	-4561
▁ातम्	-4562
▁िध्य	-4563
▁केन्द	-4564
ter	-4565
▁ni	-4566
▁(1)	-4567
▁नेपा	-4568
▁त्तमम	-4569
▁अनि	-4570
▁वति	-4571
▁सुन	-4572
▁ीयत	-4573
▁ाप्र	-4574
as	-4575
कः	-4576
▁ed	-4577
▁मई	-4578
▁शर्	-4579
▁िगु	-4580
▁ष्टं	-4581
▁ुष्ट	-4582
दिन	-4583
▁जस	-4584
▁ह्	-4585
▁३५	-4586
▁दां	-4587
▁निः	-4588
▁रास	-4589
▁्ट्	-4590
▁ङ्गी	-4591
▁्येत	-4592
▁तिदिन	-4593
▁खा	-4594
▁मला	-4595
▁भिक्ष	-4596
▁वेदित	-4597
▁लङ्	-4598
▁हास	-4599
▁ूनि	-4600
▁्यग	-4601
▁कारी	-4602
▁न्ता	-4603
▁स्यते	-4604
▁ंविध	-4605
▁स्यु	-4606
▁िकाः	-4607
▁श्यन्	-4608
▁्रिये	-4609
▁ियम	-4610
▁पुरु	-4611
▁र्मः	-4612
▁्वाद	-4613
▁यह	-4614
▁ेशे	-4615
▁कार्	-4616
▁वेद्य	-4617
▁ns	-4618
▁धरा	-4619
▁नोर	-4620
▁मिष	-4621
▁वयः	-4622
▁ुते	-4623
▁ेके	-4624
▁लोका	-4625
▁िणां	-4626
▁ार्गे	-4627
▁th	-4628
▁इन	-4629
▁गाः	-4630
▁पां	-4631
▁ेषण	-4632
▁ितिः	-4633
▁िप्र	-4634
▁कस	-4635
▁ीस	-4636
▁असि	-4637
▁तुं	-4638
▁रोद	-4639
▁लास	-4640
▁ारभ	-4641
▁ालि	-4642
▁ीते	-4643
▁रार्थ	-4644
▁ित्रा	-4645
▁be	-4646
▁ूद	-4647
▁मता	-4648
▁क्षणे	-4649
▁23	-4650
▁उत्	-4651
▁कलि	-4652
▁नाप	-4653
▁षाद	-4654
▁तात्	-4655
▁मस्य	-4656
▁्वाम	-4657
▁त्याः	-4658
▁थ्	-4659
▁ौम	-4660
▁३६	-4661
▁ासः	-4662
▁न्ये	-4663
▁भ्यु	-4664
▁दै	-4665
▁मक	-4666
▁श्यम	-4667
▁ेदना	-4668
▁्व्व	-4669
▁मेल	-4670
▁्वन	-4671
▁कादश	-4672
▁र्गः	-4673
▁वन्य	-4674
▁no	-4675
▁िघ	-4676
▁महि	-4677
▁मिह	-4678
▁नश्य	-4679
▁Pre	-4680
▁आसन	-4681
▁धिः	-4682
▁नेह	-4683
▁यतन	-4684
▁लेन	-4685
▁्मी	-4686
▁्यभ	-4687
▁दिक्	-4688
▁्रेय	-4689
▁कर्तु	-4690
▁आश	-4691
▁बला	-4692
▁पृष्ठ	-4693
▁(?	-4694
▁27	-4695
▁मुन	-4696
▁्व्	-4697
▁(2	-4698
▁गे	-4699
▁हस	-4700
▁ेयम	-4701
▁ष्टय	-4702
▁Re	-4703
▁खु	-4704
▁करः	-4705
▁भवान	-4706
▁ीज	-4707
▁मर्	-4708
▁समी	-4709
▁िङ्	-4710
▁न्धः	-4711
▁यस्व	-4712
▁्येण	-4713
▁धः	-4714
▁३७	-4715
▁वीं	-4716
▁तदान	-4717
▁रम्य	-4718
▁ान्व	-4719
▁द्याव	-4720
ma	-4721
▁नस	-4722
▁लयं	-4723
▁ंस्त	-4724
▁इन्द	-4725
xx	-4726
▁ty	-4727
▁न्दा	-4728
▁कर्मक	-4729
▁50	-4730
▁ri	-4731
▁सज	-4732
▁रुद	-4733
▁षाण	-4734
▁हान	-4735
▁यमाण	-4736
▁ध्याप	-4737
▁्प्रत	-4738
▁22	-4739
▁असम	-4740
▁ापय	-4741
▁चिन्	-4742
▁ायेत	-4743
▁्रीत	-4744
▁्वामि	-4745
▁तुक	-4746
▁्रो	-4747
▁ध्वं	-4748
▁४५	-4749
▁ाशा	-4750
▁कारय	-4751
▁्वाव	-4752
▁बंध	-4753
▁येऽ	-4754
▁आचार	-4755
▁सत्व	-4756
▁ार्ष	-4757
▁क्षणा	-4758
▁त्र्य	-4759
▁िक्रम	-4760
si	-4761
▁आय	-4762
▁िकः	-4763
▁िरण	-4764
▁व्याख	-4765
▁गू	-4766
▁लल	-4767
▁सल	-4768
▁फलम	-4769
▁साथ	-4770
▁ितौ	-4771
▁मर्थ	-4772
▁ियोज	-4773
▁यमः	-4774
▁साव	-4775
▁ुरु	-4776
▁्र्य	-4777
▁ंबन्ध	-4778
▁आत्मन	-4779
▁पच	-4780
▁कश्	-4781
▁्ता	-4782
▁्यत्व	-4783
ir	-4784
▁ंर	-4785
▁असत	-4786
▁ाकर	-4787
▁ेधा	-4788
▁स्माद	-4789
▁थैव	-4790
▁रश्	-4791
▁हर्	-4792
▁उभौ	-4793
▁वतो	-4794
▁सूर	-4795
▁्गु	-4796
▁्रद	-4797
▁ित्यत	-4798
▁सभ	-4799
▁्यक	-4800
▁त्वर	-4801
▁्वाभ	-4802
▁्यस्य	-4803
ow	-4804
▁ुश	-4805
▁तस्थ	-4806
▁ात्व	-4807
▁्रास	-4808
▁ाक्रम	-4809
▁िष्ठि	-4810
▁̣	-4811
▁खन	-4812
▁्लभ	-4813
▁स्ना	-4814
▁त्यां	-4815
▁पुष्ट	-4816
▁र्याद	-4817
▁आपः	-4818
▁माय	-4819
▁हत्	-4820
▁्मु	-4821
▁्यन	-4822
▁युर्	-4823
▁हन्	-4824
▁िवि	-4825
▁्हा	-4826
▁ान्द	-4827
▁तैर	-4828
▁मम्	-4829
▁is	-4830
▁अधो	-4831
▁कया	-4832
▁दयः	-4833
▁वय्	-4834
▁ीडा	-4835
▁्नु	-4836
▁्ने	-4837
▁मुद्	-4838
▁वादे	-4839
▁सस्य	-4840
▁त्यम्	-4841
▁ाप्ति	-4842
▁्रभात	-4843
▁अधः	-4844
▁अवस	-4845
▁िमत	-4846
▁सुरा	-4847
▁्व्य	-4848
▁स्याम	-4849
▁ाणिन	-4850
▁अस्या	-4851
▁40	-4852
▁ग्ल	-4853
▁भिध	-4854
▁र्ल	-4855
▁वाग	-4856
▁ुरं	-4857
▁मत्त	-4858
▁26	-4859
▁िपत	-4860
de	-4861
▁ाकम	-4862
▁नमो	-4863
▁ागं	-4864
▁स्तू	-4865
▁ीका	-4866
▁र्यु	-4867
▁यल	-4868
▁ताभ	-4869
▁हवि	-4870
▁ासक	-4871
▁मस्त	-4872
▁पर्या	-4873
▁भाव्य	-4874
▁US	-4875
▁लग	-4876
▁लप	-4877
▁तपः	-4878
▁नाक	-4879
▁याय	-4880
▁लोच	-4881
▁ापद	-4882
▁कथ्य	-4883
▁कलं	-4884
▁च्य	-4885
▁ाव्	-4886
▁न्दन	-4887
▁भर्त	-4888
▁िष्ण	-4889
▁ीक्षा	-4890
नः	-4891
ead	-4892
▁ेग	-4893
▁४१	-4894
▁ुरः	-4895
▁अव्य	-4896
▁·	-4897
▁नह	-4898
▁ारय	-4899
▁ावत	-4900
▁क्रे	-4901
▁त्रु	-4902
▁त्वय	-4903
▁वत्सर	-4904
ly	-4905
▁छग	-4906
▁उपस	-4907
▁सीत	-4908
▁उत्त	-4909
▁र्वा	-4910
▁्येक	-4911
▁क्षते	-4912
▁ान्ता	-4913
▁एनं	-4914
▁रैः	-4915
▁वेत	-4916
▁ीयस	-4917
▁त्यं	-4918
▁नीया	-4919
▁रिश्	-4920
▁ुष्ठ	-4921
▁मार्थ	-4922
▁ऽस्ति	-4923
▁िष्ठत	-4924
▁खि	-4925
▁फे	-4926
▁रग	-4927
▁जयत	-4928
▁लिय	-4929
▁भूता	-4930
▁्यया	-4931
▁िष्यत	-4932
▁sa	-4933
▁फा	-4934
▁बध	-4935
▁रत्	-4936
▁हिर	-4937
▁म्ना	-4938
▁ाविश	-4939
▁्मुख	-4940
▁स्त्य	-4941
▁्भवति	-4942
ch	-4943
▁लस	-4944
▁रीर	-4945
▁शुक	-4946
▁णात्	-4947
▁थापि	-4948
▁वारि	-4949
▁ात्त	-4950
▁्रिम	-4951
▁णार्थ	-4952
▁(),	-4953
▁माच	-4954
▁ाले	-4955
▁रिया	-4956
▁िकरण	-4957
▁ज्यते	-4958
▁्तीति	-4959
▁खं	-4960
▁लता	-4961
▁ेने	-4962
▁ौर्	-4963
▁्षु	-4964
▁देशक	-4965
▁व्याः	-4966
अथ	-4967
▁तवे	-4968
▁ददौ	-4969
▁नरे	-4970
▁नेय	-4971
▁्मण	-4972
▁्सु	-4973
▁Post	-4974
▁धनम्	-4975
▁वच्छ	-4976
▁ऽन्य	-4977
▁ेनैव	-4978
▁्यत्	-4979
▁६०	-4980
▁दिस	-4981
▁ानर	-4982
▁प्रज	-4983
▁भावो	-4984
▁ाच्व	-4985
▁ाल्य	-4986
▁शान	-4987
▁ामन	-4988
▁तिम्	-4989
▁म्या	-4990
▁िचार	-4991
SE	-4992
ff	-4993
▁ous	-4994
▁किन	-4995
▁छगू	-4996
▁नुष	-4997
▁लना	-4998
▁लिक	-4999
▁ीना	-5000
▁ेदि	-5001
▁कालि	-5002
▁ीत्वा	-5003
▁४२	-5004
▁तति	-5005
▁पयो	-5006
▁ीयं	-5007
▁क्रो	-5008
▁छन्द	-5009
▁द्धर	-5010
▁्राय	-5011
▁त्प्र	-5012
▁ऎ	-5013
▁करि	-5014
▁निस	-5015
▁िरा	-5016
▁्मः	-5017
▁शीर्	-5018
▁भवेद	-5019
▁ादिन	-5020
▁ान्स	-5021
▁ीर्ष	-5022
▁तवान्	-5023
▁्यासः	-5024
▁खोज	-5025
▁वेदा	-5026
▁स्पर्	-5027
▁28	-5028
▁ंप	-5029
▁छः	-5030
▁िङ	-5031
▁ोई	-5032
▁्टि	-5033
▁्पद	-5034
▁परिव	-5035
▁र्तु	-5036
▁ासिक	-5037
▁ास्व	-5038
▁्त्त	-5039
▁्रात	-5040
▁त्तत्	-5041
▁ोऽस्म	-5042
▁लव	-5043
▁ूच	-5044
▁मधि	-5045
▁ावे	-5046
▁्याक	-5047
▁्यश्च	-5048
▁ve	-5049
▁नाह	-5050
▁भवं	-5051
▁येण	-5052
▁ाजन	-5053
▁News	-5054
▁उच्य	-5055
▁ामेव	-5056
▁न्तिक	-5057
▁कष	-5058
▁जर	-5059
▁रं	-5060
▁ेभ	-5061
▁ताक	-5062
▁ृद	-5063
▁ंका	-5064
▁ाची	-5065
▁िणा	-5066
▁त्पर	-5067
▁त्र्	-5068
▁भावेन	-5069
▁छि	-5070
▁लम	-5071
▁गतम	-5072
▁रतो	-5073
▁ाकृ	-5074
▁िदा	-5075
▁ेहे	-5076
▁्सर	-5077
▁स्कर	-5078
▁ददात	-5079
▁ीदृश	-5080
▁५५	-5081
▁ाहे	-5082
▁िमु	-5083
▁्वये	-5084
ess	-5085
▁डे	-5086
▁३४	-5087
▁काला	-5088
▁ाध्या	-5089
▁ta	-5090
▁थौ	-5091
▁पप	-5092
▁मयत	-5093
▁ावः	-5094
▁४४	-5095
▁अथे	-5096
▁एतं	-5097
▁शयः	-5098
▁ायस	-5099
▁त्यव	-5100
▁यत्प	-5101
▁र्मन	-5102
▁िवेश	-5103
▁िंशति	-5104
▁्त्रि	-5105
SC	-5106
▁३८	-5107
▁इन्	-5108
▁्कर	-5109
▁ंख्य	-5110
▁धिर्	-5111
▁िञ्च	-5112
▁्राणि	-5113
▁षे	-5114
▁ृच	-5115
▁वरः	-5116
▁वाऽ	-5117
▁ेल्	-5118
▁जितः	-5119
▁तेना	-5120
cs	-5121
▁रमत	-5122
▁िकं	-5123
▁विष्	-5124
▁्येष	-5125
▁स्यात	-5126
▁जत	-5127
▁८०	-5128
▁एस्	-5129
▁दिग	-5130
▁ाश्	-5131
▁र्भव	-5132
▁ाद्व	-5133
▁ामास	-5134
▁ुरक्ष	-5135
▁मरा	-5136
▁ुदा	-5137
▁ुन्	-5138
▁न्ना	-5139
▁gh	-5140
▁रै	-5141
▁हः	-5142
▁(2)	-5143
▁पिन	-5144
▁ाट्	-5145
▁ामो	-5146
▁्याच	-5147
▁यद्यप	-5148
▁᳚	-5149
▁कर्	-5150
▁कां	-5151
▁किस	-5152
▁चाप	-5153
▁रके	-5154
▁्बु	-5155
▁ंस्कृ	-5156
▁नच	-5157
▁माव	-5158
▁यमन	-5159
▁न्यव	-5160
▁र्ति	-5161
▁हस्र	-5162
▁क्षाद	-5163
▁कतम	-5164
▁द्ब	-5165
▁पत्	-5166
▁लीन	-5167
▁ऽयं	-5168
▁ोवि	-5169
▁विषा	-5170
▁च्चार	-5171
▁एतौ	-5172
▁ारो	-5173
▁्वेद	-5174
▁त०	-5175
▁्लि	-5176
▁नादि	-5177
▁स्वस	-5178
▁ाचित	-5179
▁कल्पय	-5180
▁कस्मि	-5181
▁चत	-5182
▁छेद	-5183
▁्वत	-5184
▁न्मा	-5185
▁तिप्र	-5186
▁ag	-5187
▁po	-5188
▁अ०	-5189
▁तेः	-5190
▁मयो	-5191
▁सुम	-5192
▁ण्या	-5193
▁ंरक्ष	-5194
▁न्तम्	-5195
dia	-5196
▁कह	-5197
▁यङ	-5198
▁येति	-5199
▁रितं	-5200
▁रीति	-5201
▁्याल	-5202
▁तस्मि	-5203
▁विधीय	-5204
▁↑	-5205
▁tra	-5206
▁ाक्	-5207
▁>>	-5208
▁ca	-5209
▁कण	-5210
▁The	-5211
▁जते	-5212
▁धिर	-5213
▁मुक	-5214
▁्ड्	-5215
▁द्धय	-5216
▁भवेत	-5217
▁र्थत	-5218
▁भार्य	-5219
▁कत	-5220
▁बत	-5221
▁लश	-5222
▁ावा	-5223
▁ाधित	-5224
ore	-5225
▁IS	-5226
▁टा	-5227
▁ोस	-5228
▁आदौ	-5229
▁पूजय	-5230
▁प्रवर	-5231
ld	-5232
▁फि	-5233
▁तना	-5234
▁रमा	-5235
▁वरा	-5236
▁ोपा	-5237
▁द्रि	-5238
▁ष्टे	-5239
▁िताय	-5240
▁ुद्र	-5241
▁्वरः	-5242
▁्विध	-5243
▁कृतिः	-5244
▁तिक्र	-5245
भाष	-5246
▁रब	-5247
▁४७	-5248
▁आयु	-5249
▁भोः	-5250
▁मीत	-5251
▁प्रि	-5252
▁रिभाष	-5253
▁ंम	-5254
▁िपा	-5255
▁न्या	-5256
▁इत्यु	-5257
▁म्पाद	-5258
▁र्यात	-5259
▁विक्र	-5260
▁ावस्थ	-5261
▁si	-5262
▁४८	-5263
▁थाप	-5264
▁ागा	-5265
▁्यथ	-5266
▁्येवं	-5267
▁५२	-5268
▁भान	-5269
▁मिक	-5270
▁त्रे	-5271
▁देशो	-5272
▁ावन्	-5273
▁ीणां	-5274
▁्तरेण	-5275
▁्वादि	-5276
▁ra	-5277
▁णन	-5278
▁लौ	-5279
▁५१	-5280
▁अण्	-5281
▁दाम	-5282
▁यमा	-5283
▁रेष	-5284
▁्वेन	-5285
सत	-5286
▁ad	-5287
▁४६	-5288
▁उगु	-5289
▁ायै	-5290
▁माणा	-5291
▁ालये	-5292
▁्यार	-5293
▁do	-5294
▁sh	-5295
▁गः	-5296
▁टित	-5297
▁िप्	-5298
▁काश्	-5299
▁न्तम	-5300
▁मक्ष	-5301
▁स्तक	-5302
▁ायात	-5303
ut	-5304
▁ंन	-5305
▁चस	-5306
▁४९	-5307
▁ड्य	-5308
▁भा०	-5309
▁ेशन	-5310
▁्लो	-5311
▁तस्त	-5312
▁दोषा	-5313
▁राति	-5314
▁ावना	-5315
▁35	-5316
▁रप	-5317
▁र्यव	-5318
▁सत्त	-5319
▁सान्	-5320
▁ुप्र	-5321
▁तानां	-5322
▁औसत	-5323
▁चिन	-5324
▁सना	-5325
▁ोति	-5326
▁्रित	-5327
▁कृत्व	-5328
▁प्रात	-5329
▁विज्ञ	-5330
▁ेत्रे	-5331
▁७०	-5332
▁चाय	-5333
▁वाव	-5334
▁षाय	-5335
▁Previ	-5336
▁िक्षे	-5337
▁Se	-5338
▁मिद	-5339
▁ुखे	-5340
▁क्रु	-5341
▁ुश्च	-5342
▁्विप	-5343
..	-5344
▁धृ	-5345
▁ैश	-5346
▁ायि	-5347
▁कारं	-5348
▁किन्	-5349
▁त्तद	-5350
▁न्दु	-5351
▁वह्न	-5352
▁ालयः	-5353
▁ूत्र	-5354
▁्रमः	-5355
▁शब्	-5356
▁ऽनु	-5357
▁शेषे	-5358
▁स्रो	-5359
▁्रेष	-5360
▁पद्यत	-5361
▁ार्यम	-5362
▁धुर	-5363
▁सुद	-5364
▁नत्व	-5365
▁ाषा	-5366
▁ब्रा	-5367
▁हारः	-5368
▁ऽव	-5369
▁उभे	-5370
▁शिक	-5371
▁ाधा	-5372
▁िच्	-5373
▁त्रो	-5374
▁म्बन	-5375
▁अध्या	-5376
▁स्यैव	-5377
▁फो	-5378
▁VER	-5379
▁दिद	-5380
▁पेन	-5381
▁्ला	-5382
▁्षप	-5383
▁मिका	-5384
▁यस्त	-5385
▁ष्ट्र	-5386
▁pd	-5387
▁गाय	-5388
▁ासव	-5389
▁श्वस	-5390
▁निपात	-5391
▁ूर्णा	-5392
▁५४	-5393
▁तरा	-5394
▁नरो	-5395
▁मिश	-5396
▁ादा	-5397
▁ेशान	-5398
▁ायन्त	-5399
▁४३	-5400
▁अरे	-5401
▁रता	-5402
▁लिङ	-5403
▁ायय	-5404
▁्टी	-5405
▁तत्त	-5406
▁त्ये	-5407
▁वत्त	-5408
ss	-5409
▁(3	-5410
▁णिक	-5411
▁यसे	-5412
▁रसं	-5413
▁सनं	-5414
▁ुता	-5415
▁ुरी	-5416
▁नस्त	-5417
▁याद्	-5418
ct	-5419
pal	-5420
▁मभ	-5421
▁तिम	-5422
▁बध्	-5423
▁सुस	-5424
▁ृद्	-5425
▁न्दि	-5426
▁कानां	-5427
▁शब्दा	-5428
▁्यानि	-5429
▁धे	-5430
▁ष्प	-5431
▁श्वा	-5432
▁ुर्य	-5433
▁्तित	-5434
▁32	-5435
▁३९	-5436
▁तकं	-5437
▁तमु	-5438
▁पाः	-5439
▁िकस	-5440
▁क्ता	-5441
▁ङ्ग्	-5442
▁सीत्	-5443
▁ृष्टः	-5444
pe	-5445
▁ठत	-5446
▁अथा	-5447
▁तरी	-5448
▁रयि	-5449
▁वित	-5450
▁िनं	-5451
▁परिस	-5452
▁स्थि	-5453
▁सामान	-5454
▁कलौ	-5455
▁दनं	-5456
▁संध	-5457
▁ख्यं	-5458
▁चिद्	-5459
▁धाना	-5460
▁मभ्य	-5461
▁महान	-5462
▁थाप्य	-5463
▁ान्तं	-5464
un	-5465
▁माने	-5466
▁्रहः	-5467
▁VERSE	-5468
pp	-5469
▁bo	-5470
▁इट	-5471
▁ातय	-5472
▁ापा	-5473
▁ीत्	-5474
▁्लोक	-5475
▁त्यभि	-5476
▁6.	-5477
▁la	-5478
▁ीभ	-5479
▁Cha	-5480
▁तरो	-5481
▁पाध	-5482
▁प्न	-5483
▁मतं	-5484
▁मने	-5485
▁शाय	-5486
▁ाणं	-5487
▁ादे	-5488
▁ाधी	-5489
▁ामे	-5490
▁िवा	-5491
▁त्तः	-5492
▁मेति	-5493
▁्राद	-5494
▁्वाः	-5495
▁ʻ	-5496
▁नध	-5497
▁रथं	-5498
▁ायव	-5499
▁१००	-5500
▁र्पय	-5501
▁र्षण	-5502
▁्रोत	-5503
▁अन्वय	-5504
▁क्रमे	-5505
▁De	-5506
▁Lo	-5507
▁अम	-5508
▁ठा	-5509
▁pdf	-5510
▁यसा	-5511
▁्वस	-5512
▁स्वं	-5513
▁त्यक्	-5514
▁हात्म	-5515
▁रमो	-5516
▁िलि	-5517
▁ुन्द	-5518
▁स्वाम	-5519
▁लर	-5520
▁५७	-5521
▁इमा	-5522
▁कित	-5523
▁जने	-5524
▁ृतं	-5525
▁चर्य	-5526
▁ह्या	-5527
▁ाम्न	-5528
ory	-5529
▁६५	-5530
▁मखु	-5531
▁शां	-5532
▁िलो	-5533
▁ुरे	-5534
▁वर्णा	-5535
▁्यान्	-5536
वान	-5537
▁To	-5538
▁ma	-5539
▁तश	-5540
▁शद	-5541
▁लये	-5542
▁िकाय	-5543
▁fi	-5544
▁ki	-5545
▁षः	-5546
▁नुत	-5547
▁ोनि	-5548
▁्वं	-5549
▁यद्व	-5550
▁ितार	-5551
▁्यवस	-5552
▁खी	-5553
▁दपि	-5554
▁पद्	-5555
▁लान	-5556
▁वरी	-5557
▁िगत	-5558
▁ोऽस	-5559
▁q	-5560
▁ऩ	-5561
▁29	-5562
▁घा	-5563
▁ght	-5564
▁माध	-5565
▁रणी	-5566
▁रती	-5567
▁हरत	-5568
▁ाभव	-5569
▁न्नः	-5570
▁स्तं	-5571
▁ानीय	-5572
▁्योग	-5573
▁तस्तु	-5574
▁प्रभा	-5575
▁(.	-5576
▁31	-5577
▁SP	-5578
▁संत	-5579
▁िपी	-5580
▁तकाल	-5581
▁देवं	-5582
▁िद्र	-5583
▁z	-5584
▁दिः	-5585
▁वये	-5586
▁शुच	-5587
▁ुसं	-5588
▁ऽत्र	-5589
th	-5590
▁ूण	-5591
▁५६	-5592
▁दाप	-5593
▁सदस	-5594
▁अध्य	-5595
▁रस्व	-5596
▁िदान	-5597
▁लद	-5598
▁ैस	-5599
▁नाट	-5600
▁पुष	-5601
▁मनं	-5602
▁्तौ	-5603
▁न्नम	-5604
▁ेत्त	-5605
▁िष्टं	-5606
▁La	-5607
▁un	-5608
▁थी	-5609
▁गुर	-5610
▁जून	-5611
▁रिच	-5612
▁ामस	-5613
▁र्षे	-5614
▁ृक्ष	-5615
▁विभाष	-5616
▁ान्ये	-5617
ver	-5618
▁भ्	-5619
▁षो	-5620
▁तरः	-5621
▁रम्	-5622
▁वन्	-5623
▁करोम	-5624
▁ानन्	-5625
▁Nepal	-5626
▁त्यपि	-5627
▁्येति	-5628
ci	-5629
▁धत	-5630
▁धस	-5631
▁पध	-5632
▁पपद	-5633
▁रान	-5634
▁ोषि	-5635
▁नोति	-5636
ta	-5637
▁युज	-5638
▁्थम	-5639
▁त्रव	-5640
▁िवार	-5641
▁्राप	-5642
▁द्विग	-5643
▁्यतां	-5644
▁्यतीत	-5645
DF	-5646
ms	-5647
▁Ex	-5648
ears	-5649
▁गतौ	-5650
▁गदा	-5651
▁नरा	-5652
▁ृतः	-5653
▁त्तो	-5654
▁विति	-5655
▁̇	-5656
▁di	-5657
▁तके	-5658
▁रसि	-5659
▁लाम	-5660
▁ुका	-5661
▁ियन्	-5662
▁त्रास	-5663
▁रस्या	-5664
▁7.	-5665
▁मण	-5666
▁मश	-5667
▁लै	-5668
▁दीर	-5669
▁याप	-5670
▁रिष	-5671
▁ादृ	-5672
▁कान्	-5673
▁यावत	-5674
▁ारिण	-5675
▁्वयं	-5676
▁त्राण	-5677
▁Sh	-5678
▁इक	-5679
▁कद	-5680
▁५९	-5681
▁तयः	-5682
▁याण	-5683
▁रमाण	-5684
▁ʼ	-5685
▁षं	-5686
▁San	-5687
▁तूं	-5688
▁ून्	-5689
▁्रः	-5690
▁च्छत	-5691
▁मृता	-5692
▁रान्	-5693
▁्यैः	-5694
▁ाप्तं	-5695
▁्यास्	-5696
▁डल	-5697
▁मदु	-5698
▁येव	-5699
▁ुगे	-5700
▁Onli	-5701
▁वादि	-5702
▁ानम्	-5703
▁ारम्	-5704
lok	-5705
▁cd	-5706
▁mb	-5707
▁तते	-5708
▁तिद	-5709
▁पथि	-5710
▁ाच्	-5711
▁िधाय	-5712
▁िभिर	-5713
▁्वेत	-5714
▁िष्णु	-5715
▁\	-5716
▁ौत	-5717
▁(3)	-5718
▁vii	-5719
▁ग्व	-5720
▁भिव	-5721
▁ागि	-5722
▁ेमा	-5723
▁यानं	-5724
▁विद्	-5725
▁ch	-5726
▁नुद	-5727
▁ाजि	-5728
▁िकर	-5729
▁ुनि	-5730
▁स्वार	-5731
▁ित्रे	-5732
▁॒र	-5733
▁PDF	-5734
▁ver	-5735
▁अथो	-5736
▁पदि	-5737
▁ाशन	-5738
▁कृतम	-5739
▁चितं	-5740
▁ुद्द	-5741
▁प्रवि	-5742
▁(4	-5743
▁एति	-5744
▁जनं	-5745
▁निह	-5746
▁याल	-5747
▁ारस	-5748
▁ृति	-5749
▁्रै	-5750
▁्ले	-5751
▁अनुव	-5752
▁न्दे	-5753
▁ृताः	-5754
▁जानाम	-5755
▁तस्यै	-5756
▁निर्ण	-5757
▁समुद्	-5758
ya	-5759
▁UP	-5760
▁नये	-5761
▁सैव	-5762
▁ाकु	-5763
▁ामर	-5764
▁िरस्	-5765
▁ूयते	-5766
▁विस्त	-5767
▁स्याप	-5768
▁्रसाद	-5769
sk	-5770
सः	-5771
ame	-5772
▁बर्	-5773
▁िती	-5774
▁ीये	-5775
▁ैवा	-5776
▁माणे	-5777
▁मानं	-5778
▁वत्य	-5779
▁ाच्य	-5780
▁प्नोत	-5781
▁us	-5782
▁गद	-5783
▁ुङ	-5784
▁ौद	-5785
▁आर्	-5786
▁जनय	-5787
▁फला	-5788
▁वता	-5789
▁ुमन	-5790
▁न्नो	-5791
▁भावि	-5792
▁राजस	-5793
▁रुक्	-5794
▁विदा	-5795
▁स्तम	-5796
▁ित्स	-5797
▁ुर्व	-5798
▁ृत्त	-5799
▁याश्च	-5800
▁ाप्नो	-5801
▁आभ	-5802
▁्रज	-5803
▁द्धा	-5804
▁लङ्क	-5805
os	-5806
▁Ma	-5807
▁ठी	-5808
▁ाङ	-5809
▁ूव	-5810
▁You	-5811
▁उन्	-5812
▁गाद	-5813
▁थौं	-5814
▁रुः	-5815
▁Read	-5816
▁ानीम	-5817
▁ततस्त	-5818
▁निद्र	-5819
▁ात्रं	-5820
▁IN	-5821
▁पयः	-5822
▁्मश	-5823
▁भेदा	-5824
▁ावत्	-5825
ook	-5826
▁Su	-5827
▁कस्	-5828
▁नुस	-5829
▁पाव	-5830
▁संन	-5831
▁िज्	-5832
▁िथि	-5833
▁ूर्वं	-5834
▁°	-5835
▁षस	-5836
▁ाठ	-5837
▁९०	-5838
▁जाप	-5839
▁तीक	-5840
▁वपि	-5841
▁सिन	-5842
▁्बा	-5843
▁ूज्य	-5844
▁ाद्वि	-5845
ew	-5846
▁co	-5847
▁७५	-5848
▁अच्	-5849
▁अर्	-5850
▁षिण	-5851
▁ष्क	-5852
▁समे	-5853
▁सहस	-5854
▁ावस	-5855
▁ुपा	-5856
▁्तन	-5857
▁जाना	-5858
▁जीवत	-5859
▁पाठः	-5860
▁वहार	-5861
▁विक्	-5862
▁्यन्	-5863
▁्यैव	-5864
▁्ट्रे	-5865
ub	-5866
▁५३	-5867
▁उदा	-5868
▁तमि	-5869
▁रद्	-5870
▁ानय	-5871
▁ामु	-5872
▁श्रा	-5873
▁्मत्	-5874
▁द्यां	-5875
▁भ्याम	-5876
▁िष्ये	-5877
own	-5878
▁नप	-5879
▁६४	-5880
▁खान	-5881
▁समर	-5882
▁स्ती	-5883
▁38	-5884
▁Sen	-5885
▁ंक्	-5886
▁दिर	-5887
▁राल	-5888
▁्यज	-5889
▁र्वी	-5890
▁स्तत	-5891
▁टेन	-5892
▁ह्ण	-5893
▁नाति	-5894
▁र्वि	-5895
▁स्थे	-5896
▁रीणां	-5897
▁वक्तु	-5898
▁ार्थि	-5899
▁ूर्वप	-5900
▁36	-5901
▁ha	-5902
▁गय	-5903
▁अले	-5904
▁आपो	-5905
▁कुर	-5906
▁तिग	-5907
▁पा०	-5908
▁भवा	-5909
▁लाक	-5910
▁िलक	-5911
▁ीणा	-5912
▁ूया	-5913
▁परमे	-5914
▁्मणि	-5915
▁ex	-5916
▁धै	-5917
▁६१	-5918
▁समः	-5919
▁ादः	-5920
▁ापी	-5921
▁ृष्	-5922
▁क्षस	-5923
▁र्धन	-5924
▁विकल	-5925
▁स्यं	-5926
▁ावान	-5927
▁्म्म	-5928
▁्रेत	-5929
▁ितानि	-5930
▁्त्वा	-5931
▁्रियत	-5932
▁Di	-5933
▁उन	-5934
▁शप	-5935
▁wor	-5936
▁मोऽ	-5937
▁रार	-5938
▁रीत	-5939
▁ेवल	-5940
▁तमान	-5941
▁नकार	-5942
▁नान्	-5943
▁ानित	-5944
▁ेव्य	-5945
▁प्रार	-5946
▁ाज्ञा	-5947
fe	-5948
▁Pi	-5949
▁sp	-5950
▁गी	-5951
▁मरु	-5952
▁यैः	-5953
▁ृते	-5954
▁्टम	-5955
▁व्ये	-5956
▁शात्	-5957
▁ारणे	-5958
▁धिष्ठ	-5959
▁्माद्	-5960
▁्यताम	-5961
ps	-5962
▁me	-5963
▁Com	-5964
▁Xxx	-5965
▁दाश	-5966
▁राण	-5967
▁संर	-5968
▁्धव	-5969
▁कन्य	-5970
▁पस्थ	-5971
▁मातु	-5972
▁ायते	-5973
▁ुदाय	-5974
▁्नुव	-5975
▁र्जित	-5976
▁अर	-5977
▁बस	-5978
▁भिज	-5979
▁रिस	-5980
▁वसि	-5981
▁ाप्	-5982
▁्जु	-5983
▁ष्ठी	-5984
▁र्वान	-5985
▁विष्ण	-5986
▁ेक्ष्	-5987
va	-5988
▁ठे	-5989
▁यक	-5990
▁ीर्	-5991
▁्तं	-5992
▁Live	-5993
▁यथाव	-5994
▁मिच्छ	-5995
थे	-5996
▁›	-5997
▁ंघ	-5998
▁७१	-5999
▁and	-6000
▁करा	-6001
▁ासत	-6002
▁िपर	-6003
▁कल्य	-6004
▁यत्क	-6005
▁Sa	-6006
▁ऊँ	-6007
▁टः	-6008
▁णौ	-6009
▁परव	-6010
▁सती	-6011
▁nsla	-6012
▁ध्ये	-6013
▁वितु	-6014
▁िज्ञ	-6015
▁िव्य	-6016
▁ुक्ष	-6017
__	-6018
▁आच	-6019
▁णेन	-6020
▁पृ०	-6021
▁योन	-6022
▁वनी	-6023
▁ुभि	-6024
▁षद	-6025
▁मकर	-6026
▁हतः	-6027
▁ावो	-6028
▁ीम्	-6029
▁ोन्	-6030
▁ुष्प	-6031
▁्म्य	-6032
▁्विज	-6033
▁वार्ष	-6034
▁अयि	-6035
▁पन्	-6036
▁ेऽप	-6037
▁मङ्ग	-6038
▁ानवा	-6039
▁ान्म	-6040
▁्द्य	-6041
▁ान्यत	-6042
▁ूर्णम	-6043
▁33	-6044
▁टिक	-6045
▁वेव	-6046
▁ारव	-6047
▁ालं	-6048
▁िरु	-6049
▁िशो	-6050
▁्टो	-6051
▁ज्ञे	-6052
▁न्था	-6053
▁र्हत	-6054
▁वप्र	-6055
▁विवा	-6056
▁्राण	-6057
▁यत्रा	-6058
▁्य्या	-6059
▁►	-6060
▁8.	-6061
▁रश	-6062
▁९१	-6063
▁णाद	-6064
▁तरि	-6065
▁रया	-6066
▁रवे	-6067
▁वरो	-6068
▁व्व	-6069
▁ानः	-6070
▁गात्	-6071
▁यातः	-6072
▁र्षत	-6073
▁लिङ्	-6074
▁ितां	-6075
▁्वां	-6076
▁्वाक	-6077
▁्विद	-6078
▁६२	-6079
▁८४	-6080
▁(4)	-6081
▁100	-6082
▁ावृ	-6083
▁िकम	-6084
▁्कि	-6085
▁ण्डल	-6086
▁मत्स	-6087
▁वत्व	-6088
▁ाक्र	-6089
▁ास्या	-6090
art	-6091
▁फ्	-6092
▁७४	-6093
▁For	-6094
▁men	-6095
▁जम्	-6096
▁पदम	-6097
▁राः	-6098
▁लाद	-6099
▁सने	-6100
▁ीकर	-6101
▁ूता	-6102
▁्का	-6103
▁अनुस	-6104
▁नानु	-6105
▁ासीत	-6106
▁Sente	-6107
▁क्षति	-6108
ru	-6109
▁ंव	-6110
▁rit	-6111
▁घटः	-6112
▁यिन	-6113
▁राक	-6114
▁तादृ	-6115
▁त्पद	-6116
▁लात्	-6117
▁्याव	-6118
▁राकृत	-6119
▁vs	-6120
▁उ०	-6121
▁७६	-6122
▁िहा	-6123
▁ुजा	-6124
▁्धर	-6125
▁्बि	-6126
▁दर्थ	-6127
▁वदन्	-6128
▁ानुग	-6129
▁िप्प	-6130
ls	-6131
mp	-6132
▁सॊ	-6133
▁अलं	-6134
▁सू०	-6135
▁िमि	-6136
▁ृक्	-6137
▁पयोग	-6138
▁मर्ह	-6139
▁संवि	-6140
▁्क्ष	-6141
▁भिप्र	-6142
ry	-6143
▁34	-6144
▁औं	-6145
▁भस	-6146
▁स०	-6147
▁मनी	-6148
▁यनं	-6149
▁pter	-6150
▁दिषु	-6151
▁पादन	-6152
▁ृतिः	-6153
lu	-6154
फ्	-6155
▁60	-6156
▁आध	-6157
▁चेह	-6158
▁वेब	-6159
▁शन्	-6160
▁सुव	-6161
▁ेक्	-6162
▁मत्व	-6163
▁म्पत	-6164
▁वन्न	-6165
▁हितः	-6166
▁ाऽपि	-6167
▁्देश	-6168
▁कश्चि	-6169
▁सर्वक	-6170
gi	-6171
age	-6172
▁37	-6173
▁Mo	-6174
▁आङ	-6175
▁थय	-6176
▁एतत	-6177
▁एता	-6178
▁जिं	-6179
▁लाग	-6180
▁वल्	-6181
▁ेका	-6182
▁्नव	-6183
▁निषे	-6184
▁प्नु	-6185
▁यादी	-6186
▁ुष्म	-6187
▁्ञानम	-6188
▁्तिका	-6189
da	-6190
▁Me	-6191
▁५८	-6192
▁अपा	-6193
▁ऋणं	-6194
▁ठन्	-6195
▁िवस	-6196
▁ोगी	-6197
▁load	-6198
▁कारे	-6199
▁णत्व	-6200
▁तिनि	-6201
▁त्वन	-6202
▁परित	-6203
▁माणम	-6204
▁रव्य	-6205
▁लस्य	-6206
▁हारे	-6207
▁ृह्य	-6208
▁ंख	-6209
▁षव	-6210
▁६६	-6211
▁All	-6212
▁एषु	-6213
▁गां	-6214
▁जुल	-6215
▁भिस	-6216
▁मीक	-6217
▁षयः	-6218
▁समव	-6219
▁हात	-6220
▁िरत	-6221
▁ीयो	-6222
▁ियाः	-6223
▁्नाम	-6224
▁र्वाण	-6225
▁ामान्	-6226
ey	-6227
▁Da	-6228
▁my	-6229
▁ंय	-6230
▁ूग	-6231
▁६८	-6232
▁यार	-6233
▁रीष	-6234
▁वचनम	-6235
▁्द्र	-6236
▁मिष्य	-6237
▁वर्ति	-6238
▁्यामि	-6239
▁(←	-6240
▁ूज	-6241
▁७२	-6242
▁ary	-6243
▁तिव	-6244
▁भाः	-6245
▁सिध	-6246
▁ामत	-6247
▁ाली	-6248
▁्दि	-6249
▁िभ्य	-6250
▁ैन्य	-6251
▁्यात	-6252
▁वेन	-6253
▁िचा	-6254
▁ुनः	-6255
▁ंग्र	-6256
▁ुल्य	-6257
▁्मनि	-6258
▁्रतिप	-6259
▁्रियं	-6260
▁wi	-6261
▁ठ्	-6262
▁तदप	-6263
▁ितत	-6264
▁ृषि	-6265
▁येषु	-6266
▁र्वत	-6267
▁ुत्र	-6268
▁्यद्	-6269
▁याणां	-6270
▁संहित	-6271
▁ात्रे	-6272
▁ार्थम	-6273
XX	-6274
▁at	-6275
▁धने	-6276
▁नतु	-6277
▁परस	-6278
▁यर्	-6279
▁रसः	-6280
▁ुष्य	-6281
▁्गुण	-6282
▁्वरा	-6283
▁अधिका	-6284
▁ृतवान	-6285
▁᳘	-6286
▁तह	-6287
▁८६	-6288
▁लयः	-6289
▁वते	-6290
▁ादो	-6291
▁गृहम	-6292
▁न्यत	-6293
▁योगा	-6294
▁वाम्	-6295
▁शून्	-6296
▁तान्त	-6297
mi	-6298
▁ऱ	-6299
▁Go	-6300
▁VI	-6301
▁उव	-6302
▁तट	-6303
▁हण	-6304
▁ISO	-6305
▁एके	-6306
▁तवम	-6307
▁निद	-6308
▁संख	-6309
▁ाहा	-6310
▁ितप	-6311
▁िभे	-6312
▁र्गम	-6313
▁ोजनम्	-6314
▁्वात्	-6315
▁ङी	-6316
▁अल्	-6317
▁जयः	-6318
▁यङ्	-6319
▁वृक	-6320
▁ाचक	-6321
▁ापक	-6322
▁िचि	-6323
▁ुध्	-6324
▁्क्	-6325
▁इदान	-6326
▁केषु	-6327
▁न्यं	-6328
▁न्यः	-6329
▁र्तृ	-6330
▁र्मा	-6331
▁ुनर्	-6332
▁ुभ्य	-6333
▁ऐं	-6334
▁दम्	-6335
▁वतु	-6336
▁ादी	-6337
▁Cate	-6338
▁क्यम	-6339
▁न्मन	-6340
▁प्ति	-6341
▁रत्य	-6342
▁जानात	-6343
▁पश्चि	-6344
▁िशब्द	-6345
▁ुनर्न	-6346
▁्रादि	-6347
▁्वन्त	-6348
ur	-6349
▁ct	-6350
▁छत	-6351
▁थै	-6352
▁एकल	-6353
▁याभ	-6354
▁योद	-6355
▁वना	-6356
▁ाणः	-6357
▁ाहर	-6358
▁च्चा	-6359
▁दृशा	-6360
▁िर्भ	-6361
▁्रहण	-6362
▁ख्याय	-6363
▁गप	-6364
▁तिन	-6365
▁रथः	-6366
▁म्पन	-6367
▁विशत	-6368
▁स्यत	-6369
▁ाषाया	-6370
▁mp	-6371
▁ख्	-6372
▁गभ	-6373
▁दप	-6374
▁९५	-6375
▁धस्	-6376
▁रसन	-6377
▁ाते	-6378
▁ृशं	-6379
▁ेयः	-6380
▁ेशं	-6381
▁ष्मा	-6382
▁रियां	-6383
▁रिष्य	-6384
▁01	-6385
▁1)	-6386
▁2)	-6387
▁इय	-6388
▁पग	-6389
▁॑त	-6390
▁min	-6391
▁शति	-6392
▁हतं	-6393
▁ातः	-6394
▁ीरा	-6395
▁क्षं	-6396
▁ख्ये	-6397
▁मार्	-6398
▁िकार	-6399
▁ूक्ष	-6400
▁ेतुः	-6401
▁्यप्र	-6402
eb	-6403
▁Te	-6404
▁अः	-6405
▁टत	-6406
▁जहि	-6407
▁दने	-6408
▁पु॰	-6409
▁भाई	-6410
▁ह्म	-6411
▁ेशः	-6412
▁ेशि	-6413
▁स्वक	-6414
▁्ध्व	-6415
▁क्तिं	-6416
bs	-6417
fi	-6418
ink	-6419
▁गात	-6420
▁जनो	-6421
▁देन	-6422
▁मन्	-6423
▁रीक	-6424
▁िसा	-6425
▁्तर	-6426
▁्वश	-6427
▁स्रा	-6428
▁ामपि	-6429
▁ीडिय	-6430
▁्षिप	-6431
▁प्रमा	-6432
▁80	-6433
▁ol	-6434
▁इष	-6435
▁थप	-6436
▁थम	-6437
▁ago	-6438
▁दाः	-6439
▁रिग	-6440
▁िरी	-6441
▁दाने	-6442
▁यासः	-6443
▁वत्र	-6444
▁िभाष	-6445
▁त्तान	-6446
▁ce	-6447
▁Pro	-6448
▁निन	-6449
▁सुभ	-6450
▁ोस्	-6451
▁्वह	-6452
▁तद्ध	-6453
▁परिभ	-6454
▁वाणि	-6455
▁्याह	-6456
▁as	-6457
▁अं	-6458
▁लत	-6459
▁ृतो	-6460
▁ोरा	-6461
▁द्यं	-6462
▁लिका	-6463
▁िष्क	-6464
▁ैस्त	-6465
▁्ह्य	-6466
▁त्काल	-6467
▁्यत्र	-6468
ची	-6469
▁fa	-6470
▁ka	-6471
▁ठं	-6472
▁६३	-6473
▁उपर	-6474
▁तपो	-6475
▁भये	-6476
▁वीय	-6477
▁िसं	-6478
▁ेकं	-6479
▁्टे	-6480
▁ब्दे	-6481
▁रादि	-6482
▁ोत्त	-6483
ho	-6484
▁go	-6485
▁III	-6486
▁cle	-6487
▁ट्व	-6488
▁नक्	-6489
▁नति	-6490
▁रयः	-6491
▁रीं	-6492
▁लेश	-6493
▁वसन	-6494
▁ासर	-6495
▁िणे	-6496
▁ुतं	-6497
▁तिवि	-6498
▁रह्म	-6499
▁र्णम	-6500
▁र्मि	-6501
▁स्यै	-6502
▁्युर	-6503
▁त्रम्	-6504
▁ाभ्या	-6505
▁×	-6506
▁(5	-6507
▁48	-6508
▁qu	-6509
▁टो	-6510
▁यवि	-6511
▁षाम	-6512
▁ामह	-6513
▁िकल	-6514
▁्मम	-6515
▁न्धे	-6516
▁रयति	-6517
▁राधा	-6518
▁ष्टो	-6519
▁ादिव	-6520
▁India	-6521
▁9.	-6522
▁va	-6523
▁दभ	-6524
▁नश	-6525
▁बभ	-6526
▁per	-6527
▁उक्	-6528
▁मैं	-6529
▁रहः	-6530
▁प्यत	-6531
▁समाह	-6532
▁years	-6533
▁स्वर्	-6534
▁्रियम	-6535
▁45	-6536
▁ऋच	-6537
▁इतो	-6538
▁धाः	-6539
▁नुर	-6540
▁वसा	-6541
▁सखा	-6542
▁सखि	-6543
▁ुणे	-6544
▁ूना	-6545
▁ोष्	-6546
▁िरूप	-6547
▁et	-6548
▁६९	-6549
▁तरत	-6550
▁ुवा	-6551
▁्कृ	-6552
▁्रध	-6553
▁कित्	-6554
▁निस्	-6555
▁र्वर	-6556
▁ोस्त	-6557
▁्तिः	-6558
▁ष्ट्य	-6559
BC	-6560
ni	-6561
tle	-6562
▁==	-6563
▁he	-6564
▁७९	-6565
▁()?	-6566
▁गवा	-6567
▁नन्	-6568
▁याऽ	-6569
▁वेण	-6570
▁िदि	-6571
▁िपू	-6572
▁अनुम	-6573
▁क्षो	-6574
▁गृहा	-6575
▁परिष	-6576
▁ृहीत	-6577
▁्मणा	-6578
▁तीनां	-6579
▁त्याह	-6580
ca	-6581
▁¦	-6582
▁39	-6583
▁Si	-6584
▁da	-6585
▁em	-6586
▁धित	-6587
▁सतः	-6588
▁ीरं	-6589
▁गृह्	-6590
▁परस्	-6591
▁मानम	-6592
▁ात्प	-6593
▁्वास	-6594
▁अवश्य	-6595
AS	-6596
▁Co	-6597
▁घो	-6598
▁man	-6599
▁लया	-6600
▁षत्	-6601
▁सखे	-6602
▁ाके	-6603
▁तेति	-6604
▁ाह्य	-6605
▁त्राय	-6606
▁ान्या	-6607
deo	-6608
ill	-6609
▁TV	-6610
▁su	-6611
▁उक	-6612
▁८१	-6613
▁त्न	-6614
▁ागः	-6615
▁ालव	-6616
▁्टा	-6617
▁्मन्	-6618
▁कर्मा	-6619
▁िबन्ध	-6620
▁44	-6621
▁Qu	-6622
▁कैक	-6623
▁गस्	-6624
▁रसा	-6625
▁ऽभि	-6626
▁तमम्	-6627
▁मनुष	-6628
▁र्यः	-6629
▁ुरूप	-6630
▁न्येन	-6631
▁रम्पर	-6632
▁वदन्त	-6633
▁िक्षण	-6634
▁्वप्र	-6635
ET	-6636
ga	-6637
ge	-6638
मम	-6639
▁41	-6640
▁तास	-6641
▁बुद	-6642
▁राप	-6643
▁रिज	-6644
▁िये	-6645
▁ेशा	-6646
▁mber	-6647
▁धानं	-6648
▁विवे	-6649
▁्रवण	-6650
▁्रीम	-6651
▁राणां	-6652
▁स्वाह	-6653
▁42	-6654
▁Ab	-6655
▁mi	-6656
▁ठन	-6657
▁ढा	-6658
▁बज	-6659
▁८७	-6660
▁con	-6661
▁कवच	-6662
▁जगा	-6663
▁दये	-6664
▁नत्	-6665
▁मवि	-6666
▁युर	-6667
▁वरे	-6668
▁gory	-6669
▁ग्रा	-6670
▁देवत	-6671
▁ासेन	-6672
▁िकां	-6673
▁्मास	-6674
▁्याख	-6675
▁क्ताः	-6676
▁ञ्चित	-6677
▁ुवन्त	-6678
▁Z	-6679
▁६७	-6680
▁नुग	-6681
▁पस्	-6682
▁भिन	-6683
▁सुग	-6684
▁ृता	-6685
▁ोज्	-6686
▁तिरि	-6687
▁निवा	-6688
▁पदम्	-6689
▁मस्म	-6690
▁शस्य	-6691
▁ीयान	-6692
▁कथ्यत	-6693
▁mo	-6694
▁अद	-6695
▁you	-6696
▁नोत	-6697
▁पाण	-6698
▁सर्	-6699
▁ासं	-6700
▁िषि	-6701
▁्रय	-6702
▁दिष्	-6703
▁भागः	-6704
▁यव्य	-6705
▁रश्च	-6706
▁रूपम	-6707
▁ार्श	-6708
▁ीर्त	-6709
▁43	-6710
▁Sy	-6711
▁षत	-6712
▁ीग	-6713
▁nts	-6714
▁थास	-6715
▁साप	-6716
▁ाज्	-6717
▁ूपत	-6718
▁्गव	-6719
▁पादा	-6720
▁मित्	-6721
▁रिक्	-6722
▁वद्भ	-6723
▁ृश्य	-6724
▁्यस्	-6725
▁Sansk	-6726
▁त्स्व	-6727
▁दर्शि	-6728
▁न्तस्	-6729
▁शक्यत	-6730
▁ायाम्	-6731
▁्तस्य	-6732
▁अझ	-6733
▁वव	-6734
▁जनी	-6735
▁पदः	-6736
▁िसम	-6737
▁ेनो	-6738
▁More	-6739
▁कुत्	-6740
▁भाग्	-6741
▁योजय	-6742
▁सुन्	-6743
▁ुग्र	-6744
▁्वन्	-6745
▁्विष	-6746
▁प्रमु	-6747
▁रात्म	-6748
▁स्मात	-6749
▁्रतिम	-6750
▁le	-6751
▁लङ	-6752
▁ंशय	-6753
▁गित	-6754
▁जया	-6755
▁याक	-6756
▁हरः	-6757
▁ाणस	-6758
▁ाहन	-6759
▁िषे	-6760
▁गतम्	-6761
▁च्छि	-6762
▁द्दे	-6763
▁द्धो	-6764
▁र्थव	-6765
▁ारिक	-6766
▁्तेन	-6767
▁इदानी	-6768
▁Ju	-6769
▁ro	-6770
▁टव	-6771
▁रर	-6772
▁XXX	-6773
▁fff	-6774
▁nal	-6775
▁अवश	-6776
▁योप	-6777
▁शृण	-6778
▁ोके	-6779
▁्जा	-6780
▁्हि	-6781
▁२००	-6782
▁नाया	-6783
▁ारणम	-6784
▁ुण्य	-6785
▁्तुं	-6786
▁त्त्य	-6787
ree	-6788
▁डव	-6789
▁७३	-6790
▁gra	-6791
▁रतम	-6792
▁Down	-6793
▁आसीत	-6794
▁भ्यत	-6795
▁विदु	-6796
▁्वपि	-6797
▁कस्या	-6798
▁ूर्वा	-6799
▁्थानम	-6800
wi	-6801
ard	-6802
▁CO	-6803
▁Wi	-6804
▁am	-6805
▁ःप	-6806
▁आका	-6807
▁तच्	-6808
▁तीं	-6809
▁धिग	-6810
▁ोहि	-6811
▁्यल	-6812
▁्वध	-6813
▁याता	-6814
▁ूचना	-6815
▁इत्यन	-6816
▁Bo	-6817
▁lt	-6818
▁ers	-6819
▁आम्	-6820
▁तिब	-6821
▁नैष	-6822
▁भित	-6823
▁मये	-6824
▁हतो	-6825
▁ेश्	-6826
▁्षी	-6827
▁स्तथ	-6828
▁ार्म	-6829
▁िहार	-6830
▁ेद्य	-6831
▁र्तित	-6832
▁്	-6833
▁46	-6834
▁IP	-6835
▁ST	-6836
▁br	-6837
▁लब	-6838
▁वक	-6839
▁10.	-6840
▁घटे	-6841
▁जस्	-6842
▁ाञ्	-6843
▁न्तव	-6844
▁येवं	-6845
▁हितम	-6846
▁नई	-6847
▁८८	-6848
▁९३	-6849
▁नवर	-6850
▁रयो	-6851
▁्दश	-6852
▁्न्	-6853
▁पुष्	-6854
▁रिंश	-6855
▁ितस्	-6856
▁तिज्ञ	-6857
▁वर्गः	-6858
▁िष्ठा	-6859
▁En	-6860
▁गस	-6861
▁डॉ	-6862
▁म०	-6863
▁Mar	-6864
▁तवन	-6865
▁यमि	-6866
▁यवे	-6867
▁शस्	-6868
▁ानप	-6869
▁िवे	-6870
▁ोगा	-6871
▁ोमि	-6872
▁परिक	-6873
▁परिण	-6874
▁भगवा	-6875
▁लाना	-6876
▁िग्र	-6877
▁title	-6878
▁पुस्त	-6879
ays	-6880
▁[।	-6881
▁दन्	-6882
▁सभी	-6883
▁िमे	-6884
▁त्युत	-6885
AT	-6886
ke	-6887
tt	-6888
▁आन	-6889
▁रष	-6890
▁ोव	-6891
▁ort	-6892
▁pro	-6893
▁तेर	-6894
▁देष	-6895
▁माक	-6896
▁यैर	-6897
▁शम्	-6898
▁ितव	-6899
▁ुमा	-6900
▁त्यक	-6901
▁त्यो	-6902
▁म्भव	-6903
▁विवर	-6904
▁परन्त	-6905
co	-6906
ith	-6907
▁47	-6908
▁Mi	-6909
▁खत	-6910
▁मब	-6911
▁(5)	-6912
▁दस्	-6913
▁भिय	-6914
▁यच्	-6915
▁रेस	-6916
▁ीतो	-6917
▁ेवत	-6918
▁Exam	-6919
▁deos	-6920
▁कामा	-6921
▁्येते	-6922
yle	-6923
▁So	-6924
▁pr	-6925
▁App	-6926
▁थिक	-6927
▁नीं	-6928
▁ागे	-6929
▁ासस	-6930
▁post	-6931
▁यतां	-6932
▁्मरण	-6933
▁्रमा	-6934
did	-6935
▁02	-6936
▁ss	-6937
▁थं	-6938
▁गणः	-6939
▁तीन	-6940
▁दुप	-6941
▁पर्	-6942
▁भूः	-6943
▁मस्	-6944
▁ासम	-6945
▁ुश्	-6946
▁पयति	-6947
▁यकार	-6948
▁राया	-6949
▁िकम्	-6950
▁oldid	-6951
▁स्यान	-6952
धि	-6953
▁Ta	-6954
▁बो	-6955
▁यट	-6956
▁Res	-6957
▁अकर	-6958
▁गौः	-6959
▁िने	-6960
▁ूपे	-6961
▁Book	-6962
▁शास्	-6963
▁िश्य	-6964
▁्तिन	-6965
▁देवान	-6966
▁माध्य	-6967
▁्रतिज	-6968
na	-6969
खः	-6970
▁->	-6971
▁Ap	-6972
▁Fi	-6973
▁षय	-6974
▁८९	-6975
▁Hin	-6976
▁Nar	-6977
▁तेत	-6978
▁धीः	-6979
▁रजा	-6980
▁वस्	-6981
▁विं	-6982
▁ोदा	-6983
▁दाहर	-6984
▁मर्त	-6985
▁याया	-6986
▁ल्पा	-6987
▁ारयत	-6988
▁्यये	-6989
▁मर्थं	-6990
log	-6991
▁/1	-6992
▁IV	-6993
▁PM	-6994
▁sm	-6995
▁गई	-6996
▁ताय	-6997
▁देत	-6998
▁पंच	-6999
▁यका	-7000
▁षन्	-7001
▁ालः	-7002
▁ुवत	-7003
▁ज्ञो	-7004
▁देवद	-7005
▁ष्टः	-7006
▁िर्म	-7007
▁ुतम्	-7008
▁्वाप	-7009
▁अभ्या	-7010
▁प्रकृ	-7011
▁्मानं	-7012
▁्वर्य	-7013
▁49	-7014
▁HD	-7015
▁ऐस	-7016
▁कॊ	-7017
▁९९	-7018
▁थथे	-7019
▁पृष	-7020
▁रेय	-7021
▁वसे	-7022
▁साक	-7023
▁ाती	-7024
▁जीवि	-7025
▁त्यः	-7026
▁द्वा	-7027
▁नस्य	-7028
▁र्यम	-7029
▁स्तस	-7030
▁ारणं	-7031
▁ितान	-7032
▁्पित	-7033
▁Shlok	-7034
▁िस्ता	-7035
ube	-7036
▁3)	-7037
▁51	-7038
▁fr	-7039
▁रोज	-7040
▁ामग	-7041
▁र्वभ	-7042
▁ल्यं	-7043
▁स्वय	-7044
▁यिष्य	-7045
el	-7046
dit	-7047
▁(6	-7048
▁Bu	-7049
▁LI	-7050
▁it	-7051
▁ll	-7052
▁८५	-7053
▁ble	-7054
▁tes	-7055
▁xxx	-7056
▁पं॰	-7057
▁वशा	-7058
▁हूं	-7059
▁ितृ	-7060
▁ेव्	-7061
▁ment	-7062
▁more	-7063
▁भुक्	-7064
▁पादित	-7065
▁श्रद्	-7066
hat	-7067
sta	-7068
▁AP	-7069
▁Us	-7070
▁ba	-7071
▁रध	-7072
▁वज	-7073
▁वौ	-7074
▁Goo	-7075
▁bar	-7076
▁ste	-7077
▁अप्	-7078
▁थें	-7079
▁रपत	-7080
▁सङ्	-7081
▁्षय	-7082
▁चिता	-7083
▁तर्ह	-7084
▁त्यत	-7085
▁प्रग	-7086
▁रात्	-7087
▁वेदि	-7088
▁Video	-7089
▁क्षणं	-7090
▁प्राध	-7091
▁ितस्य	-7092
ds	-7093
▁̄	-7094
▁55	-7095
▁Sp	-7096
▁hi	-7097
▁ya	-7098
▁ऋ०	-7099
▁७७	-7100
▁८३	-7101
▁अचि	-7102
▁ऋते	-7103
▁बजे	-7104
▁ल्म	-7105
▁सक्	-7106
▁सवा	-7107
▁्नप	-7108
▁्यच	-7109
▁्यह	-7110
▁View	-7111
▁ङ्गि	-7112
▁त्रः	-7113
▁त्सं	-7114
▁यितु	-7115
▁षाम्	-7116
▁ादिस	-7117
▁िणाम	-7118
▁ूर्य	-7119
▁न्यस्	-7120
▁्रस्थ	-7121
▁्रियः	-7122
▁Í	-7123
▁̐	-7124
hed	-7125
▁vo	-7126
▁उष	-7127
▁तच	-7128
▁थक	-7129
▁थत	-7130
▁Wor	-7131
▁gle	-7132
▁औरत	-7133
▁फले	-7134
▁रुध	-7135
▁वनम	-7136
▁समि	-7137
▁ुणा	-7138
▁ोक्	-7139
▁ण्डा	-7140
▁त्यन	-7141
▁रप्र	-7142
▁ारस्	-7143
▁comme	-7144
▁्रतिब	-7145
▁्राची	-7146
▁्र्या	-7147
▁Le	-7148
▁SC	-7149
▁dy	-7150
▁तभ	-7151
▁पभ	-7152
▁वइ	-7153
▁षट	-7154
▁ो॒	-7155
▁९४	-7156
▁९७	-7157
▁अमी	-7158
▁ततस	-7159
▁तिभ	-7160
▁बन्	-7161
▁याइ	-7162
▁लभत	-7163
▁िहि	-7164
▁ुला	-7165
▁्णा	-7166
▁्तः	-7167
▁्रप	-7168
▁क्तः	-7169
▁ङ्गे	-7170
▁भवित	-7171
▁येना	-7172
▁पयेत्	-7173
▁बद्धा	-7174
▁bi	-7175
▁cu	-7176
▁बद	-7177
▁वट	-7178
▁ंसा	-7179
▁एहि	-7180
▁तरस	-7181
▁वतः	-7182
▁ुह्	-7183
▁ूल्	-7184
▁वारे	-7185
▁्यवह	-7186
▁शेषतः	-7187
▁ित्रं	-7188
▁ोऽस्त	-7189
▁ऌ	-7190
▁உ	-7191
▁53	-7192
▁Al	-7193
▁IC	-7194
▁ci	-7195
▁Jan	-7196
▁pcs	-7197
▁जनि	-7198
▁यशो	-7199
▁वचो	-7200
▁हते	-7201
▁ातृ	-7202
▁ालस	-7203
▁ेशी	-7204
▁्ते	-7205
▁पान्	-7206
▁लप्र	-7207
▁व्यत	-7208
▁स्वि	-7209
▁ुमान	-7210
▁नात्म	-7211
▁यित्व	-7212
▁**	-7213
▁-1	-7214
▁03	-7215
▁By	-7216
▁ly	-7217
▁nu	-7218
▁डन	-7219
▁ौव	-7220
▁९२	-7221
▁ure	-7222
▁अती	-7223
▁अहः	-7224
▁कास	-7225
▁तदन	-7226
▁पला	-7227
▁वशे	-7228
▁षेण	-7229
▁हुव	-7230
▁ीवन	-7231
▁ोवा	-7232
▁क्रा	-7233
▁भावा	-7234
▁रमेश	-7235
▁रुषः	-7236
▁र्मु	-7237
▁वाना	-7238
▁ाक्य	-7239
▁ानाय	-7240
▁ेश्य	-7241
▁्गान	-7242
▁्टिक	-7243
▁्तरः	-7244
▁श्वरः	-7245
▁ृष्टा	-7246
▁्थितः	-7247
▁तॊ	-7248
▁दइ	-7249
▁७८	-7250
▁८२	-7251
▁11.	-7252
▁ंशत	-7253
▁अभय	-7254
▁अये	-7255
▁एकम	-7256
▁घञ्	-7257
▁णाः	-7258
▁यजन	-7259
▁लका	-7260
▁सि०	-7261
▁type	-7262
▁ट्रि	-7263
▁ट्रे	-7264
▁भगवन	-7265
▁र्यो	-7266
▁साम्	-7267
▁ायुः	-7268
▁्ञात	-7269
▁त्रिण	-7270
▁याकरण	-7271
▁्रिका	-7272
ES	-7273
ere	-7274
▁70	-7275
▁Cu	-7276
▁fu	-7277
▁९८	-7278
loka	-7279
▁Stu	-7280
▁tag	-7281
▁बद्	-7282
▁भरे	-7283
▁रथे	-7284
▁ुषे	-7285
▁्भि	-7286
▁मिता	-7287
▁्क्र	-7288
▁Hindi	-7289
▁रुत्व	-7290
▁्वान्	-7291
▁ॠ	-7292
▁As	-7293
▁जम	-7294
▁णश	-7295
▁भः	-7296
▁Con	-7297
▁are	-7298
▁rre	-7299
▁धते	-7300
▁फट्	-7301
▁यता	-7302
▁यून	-7303
▁ऽसि	-7304
▁िण्	-7305
▁िरम	-7306
▁णीया	-7307
▁देवो	-7308
▁द्ये	-7309
▁भिधा	-7310
▁र्णे	-7311
▁Sloka	-7312
▁क्त्य	-7313
▁निवृत	-7314
▁प्यते	-7315
gy	-7316
▁$1	-7317
▁Au	-7318
▁फर	-7319
▁Day	-7320
▁sta	-7321
▁टाद	-7322
▁पुस	-7323
▁यने	-7324
▁रयं	-7325
▁षड्	-7326
▁हिल	-7327
▁िजा	-7328
▁्जी	-7329
▁्तम	-7330
▁त्रप	-7331
▁सुखम	-7332
▁अर्था	-7333
▁ग्रहा	-7334
ft	-7335
▁‖	-7336
▁ःख	-7337
▁एच	-7338
▁bha	-7339
▁एम्	-7340
▁णात	-7341
▁धिम	-7342
▁मुत	-7343
▁िसर	-7344
▁ृणा	-7345
▁्बर	-7346
▁दिता	-7347
▁यापि	-7348
▁र्थम	-7349
▁र्वै	-7350
▁्पत्	-7351
▁प्रदा	-7352
▁श्चात	-7353
▁्त्वम	-7354
▁÷	-7355
eta	-7356
our	-7357
▁59	-7358
▁Ba	-7359
▁Ca	-7360
▁MP	-7361
▁cm	-7362
▁ृभ	-7363
▁ged	-7364
▁mon	-7365
▁जति	-7366
▁तश्	-7367
▁रमे	-7368
▁वम्	-7369
▁हलः	-7370
▁ैका	-7371
▁्यश	-7372
▁२०६	-7373
▁User	-7374
▁ण्डि	-7375
▁न्ने	-7376
▁साइट	-7377
▁्तये	-7378
▁यमिति	-7379
▁वानां	-7380
▁स्मान	-7381
▁तग	-7382
▁दँ	-7383
▁धय	-7384
▁ऽह	-7385
▁ीए	-7386
▁उपय	-7387
▁केष	-7388
▁दाद	-7389
▁नाच	-7390
▁राद	-7391
▁Love	-7392
▁बहून	-7393
▁ष्ठे	-7394
▁सामा	-7395
▁सुप्	-7396
▁ितेन	-7397
▁्युद	-7398
▁कारणम	-7399
▁त्राप	-7400
cc	-7401
ori	-7402
▁(9	-7403
▁90	-7404
▁Ti	-7405
▁up	-7406
▁Ver	-7407
▁bal	-7408
▁des	-7409
▁तनं	-7410
▁धिष	-7411
▁नर्	-7412
▁नवा	-7413
▁यमं	-7414
▁रसो	-7415
▁वरु	-7416
▁शत्	-7417
▁ोग्	-7418
▁ोऽप	-7419
▁्नः	-7420
▁तदेव	-7421
▁तेषा	-7422
▁दार्	-7423
▁पादय	-7424
▁भावन	-7425
▁ाविध	-7426
▁्थ्य	-7427
▁्मुक	-7428
▁द्याप	-7429
vo	-7430
हर	-7431
▁आशा	-7432
▁चान	-7433
▁नरं	-7434
▁मिं	-7435
▁रवा	-7436
▁रैर	-7437
▁वाथ	-7438
▁ऽसौ	-7439
▁ागु	-7440
▁ानद	-7441
▁ोदि	-7442
▁Life	-7443
▁ness	-7444
▁कीर्	-7445
▁प्यन	-7446
▁म्पा	-7447
▁रिणा	-7448
▁रियं	-7449
▁वसन्	-7450
▁विशि	-7451
▁ेनाप	-7452
▁मन्यत	-7453
▁र्तुम	-7454
IT	-7455
fo	-7456
▁(7	-7457
▁2:	-7458
▁Ni	-7459
▁pa	-7460
▁यप	-7461
▁वभ	-7462
▁०२	-7463
▁९६	-7464
▁Apr	-7465
▁New	-7466
▁One	-7467
▁new	-7468
▁आफ्	-7469
▁नभः	-7470
▁पमा	-7471
▁भिप	-7472
▁यिष	-7473
▁वेक	-7474
▁ाणम	-7475
▁िजन	-7476
▁ुणः	-7477
▁arti	-7478
▁धात्	-7479
▁रदेश	-7480
▁रियम	-7481
▁िभाव	-7482
▁कुरुत	-7483
CT	-7484
ata	-7485
▁54	-7486
▁Ad	-7487
▁Pa	-7488
▁कय	-7489
▁मच	-7490
▁सस	-7491
▁200	-7492
▁day	-7493
▁not	-7494
▁thi	-7495
▁अगर	-7496
▁भुत	-7497
▁रवी	-7498
▁वि॰	-7499
▁शना	-7500
▁साइ	-7501
▁viii	-7502
▁गुणव	-7503
▁गृही	-7504
▁तवान	-7505
▁ध्वा	-7506
▁प्ता	-7507
▁रयत्	-7508
▁र्द्	-7509
▁ुज्य	-7510
▁्रवेश	-7511
लि	-7512
▁56	-7513
▁Be	-7514
▁Ro	-7515
▁we	-7516
▁इं	-7517
▁मॆ	-7518
▁sec	-7519
▁अपः	-7520
▁जयं	-7521
▁ननि	-7522
▁रदा	-7523
▁रुम	-7524
▁रुव	-7525
▁लवा	-7526
▁हीत	-7527
▁ाइट	-7528
▁ुरि	-7529
▁१०९	-7530
▁िभाग	-7531
▁्तान	-7532
▁्रयो	-7533
▁्वरस	-7534
▁चितम्	-7535
Ns	-7536
VE	-7537
उत	-7538
▁(8	-7539
▁so	-7540
▁नञ	-7541
▁पव	-7542
▁यच	-7543
▁षक	-7544
▁अत्	-7545
▁मुच	-7546
▁मूह	-7547
▁येँ	-7548
▁रनि	-7549
▁लात	-7550
▁ापत	-7551
▁ेरि	-7552
▁ेवे	-7553
▁्गल	-7554
▁्तप	-7555
▁्त्	-7556
▁्रक	-7557
▁with	-7558
▁अभवत	-7559
▁न्यन	-7560
▁रदान	-7561
▁र्वे	-7562
▁ात्स	-7563
▁्यने	-7564
▁प्रयु	-7565
▁रान्त	-7566
ty	-7567
vy	-7568
ww	-7569
तं	-7570
eri	-7571
▁tu	-7572
▁भं	-7573
lass	-7574
▁गोः	-7575
▁छकः	-7576
▁ति०	-7577
▁पसर	-7578
▁रिह	-7579
▁लभा	-7580
▁ावप	-7581
▁्द्	-7582
▁्वग	-7583
▁तितः	-7584
▁तिष्	-7585
▁दृष्	-7586
▁रुत्	-7587
▁स्तो	-7588
▁्तुम	-7589
▁Comme	-7590
▁वान्त	-7591
▁ष्यन्	-7592
▁●	-7593
▁gi	-7594
▁12.	-7595
▁SSC	-7596
▁one	-7597
▁res	-7598
▁ted	-7599
▁कमा	-7600
▁ठ्य	-7601
▁मोक	-7602
▁हसि	-7603
▁िकत	-7604
▁ुञ्	-7605
▁्गत	-7606
▁्मर	-7607
▁्यङ	-7608
▁दृश्	-7609
▁नेषु	-7610
▁मादि	-7611
▁र्वश	-7612
▁विन्	-7613
▁्ययः	-7614
▁्याग	-7615
▁कदाचि	-7616
▁प्राच	-7617
▁वत्या	-7618
ood	-7619
▁RT	-7620
▁gu	-7621
▁एं	-7622
▁लज	-7623
▁सङ	-7624
▁pra	-7625
▁ंवा	-7626
▁नमन	-7627
▁रण्	-7628
▁संज	-7629
▁समन	-7630
▁हुं	-7631
▁ीतः	-7632
▁ृश्	-7633
▁ेवी	-7634
▁्पत	-7635
▁from	-7636
▁name	-7637
▁news	-7638
▁ष्यत	-7639
▁िमित	-7640
▁्यभि	-7641
▁्यसि	-7642
AR	-7643
id	-7644
▁🙏	-7645
▁rn	-7646
▁खग	-7647
▁ऽत	-7648
▁Por	-7649
▁htt	-7650
▁ंदे	-7651
▁करौ	-7652
▁भाय	-7653
▁माँ	-7654
▁यक्	-7655
▁यश्	-7656
▁लिए	-7657
▁ापु	-7658
▁ितै	-7659
▁ूलं	-7660
▁दन्य	-7661
▁दाना	-7662
▁प्तं	-7663
▁भावस	-7664
▁रायः	-7665
▁स्का	-7666
▁त्वात	-7667
▁िर्वा	-7668
mo	-7669
▁ND	-7670
▁ml	-7671
▁mm	-7672
▁उपद	-7673
▁ओम्	-7674
▁चका	-7675
▁तिय	-7676
▁धर्	-7677
▁रोक	-7678
▁वदे	-7679
▁वरि	-7680
▁षम्	-7681
▁सहि	-7682
▁ूपा	-7683
▁्तक	-7684
▁१०८	-7685
▁तुम्	-7686
▁यक्त	-7687
▁ायस्	-7688
▁ावाद	-7689
▁िर्ग	-7690
▁्वना	-7691
▁्वयम	-7692
▁्वरे	-7693
▁त्तरं	-7694
▁परमेश	-7695
▁यस्मि	-7696
AM	-7697
so	-7698
इह	-7699
ong	-7700
▁52	-7701
▁Un	-7702
▁आं	-7703
▁कछ	-7704
▁टस	-7705
▁तज	-7706
▁(6)	-7707
▁(9)	-7708
▁एन्	-7709
▁जां	-7710
▁ञात	-7711
▁नवं	-7712
▁नूत	-7713
▁पेश	-7714
▁शया	-7715
▁ुप्	-7716
▁११०	-7717
▁तद्य	-7718
▁दानी	-7719
▁राणि	-7720
▁र्शन	-7721
▁विश्	-7722
▁स्यो	-7723
▁ादीन	-7724
▁ामस्	-7725
▁गम्यत	-7726
▁तन्ते	-7727
▁नान्त	-7728
▁संवत्	-7729
ST	-7730
my	-7731
▁€	-7732
▁57	-7733
▁Na	-7734
▁Ra	-7735
▁ry	-7736
▁500	-7737
▁org	-7738
▁कोड	-7739
▁ठञ्	-7740
▁सा०	-7741
▁हिन	-7742
▁िखि	-7743
▁िश्	-7744
▁ुपर	-7745
▁ेतो	-7746
▁्टव	-7747
▁्पृ	-7748
▁Tube	-7749
▁त्ती	-7750
▁रुद्	-7751
▁र्णं	-7752
▁र्ये	-7753
▁ष्ठं	-7754
▁सङ्ख	-7755
▁्योप	-7756
▁निर्द	-7757
▁यक्ति	-7758
▁्त्रे	-7759
▁्याये	-7760
ic	-7761
दृ	-7762
all	-7763
▁-2	-7764
▁61	-7765
▁65	-7766
▁75	-7767
▁EN	-7768
▁Ka	-7769
▁du	-7770
▁(7)	-7771
▁age	-7772
▁bec	-7773
▁nda	-7774
▁गजः	-7775
▁टिः	-7776
▁पथः	-7777
▁मंत	-7778
▁यमु	-7779
▁रजः	-7780
▁रिद	-7781
▁रुक	-7782
▁वरू	-7783
▁सेत	-7784
▁िकृ	-7785
▁१९७	-7786
▁link	-7787
▁द्रो	-7788
▁रुपय	-7789
▁र्तव	-7790
▁िचित	-7791
▁्तत्र	-7792
▁्पद्य	-7793
▁்	-7794
▁ho	-7795
▁nc	-7796
▁ru	-7797
▁पज	-7798
▁ुय	-7799
▁ृथ	-7800
▁०१	-7801
▁all	-7802
▁cha	-7803
▁nti	-7804
▁दिं	-7805
▁दृष	-7806
▁धिन	-7807
▁वाभ	-7808
▁विग	-7809
▁विघ	-7810
▁षणा	-7811
▁हूँ	-7812
▁िंच	-7813
▁िरू	-7814
▁ैश्	-7815
▁१०१	-7816
▁read	-7817
▁भूते	-7818
▁र्जि	-7819
▁विमु	-7820
▁व्यस	-7821
▁्रत्	-7822
▁ृश्यत	-7823
▁्माणि	-7824
pa	-7825
लः	-7826
▁≤	-7827
ara	-7828
oun	-7829
ाना	-7830
▁rc	-7831
▁ई०	-7832
▁ए॒	-7833
▁इनि	-7834
▁घटक	-7835
▁छवि	-7836
▁तुष	-7837
▁दर्	-7838
▁येय	-7839
▁रये	-7840
▁ातव	-7841
▁ाभा	-7842
▁ामम	-7843
▁ुदे	-7844
▁्णि	-7845
▁्मन	-7846
▁कीदृ	-7847
▁ज्यो	-7848
▁धीयत	-7849
▁प्तः	-7850
▁प्या	-7851
▁भ्या	-7852
▁सारे	-7853
▁सूचन	-7854
▁ियाय	-7855
▁िशेष	-7856
▁िस्थ	-7857
▁्तां	-7858
▁्यवि	-7859
▁क्तिर	-7860
▁क्षणम	-7861
▁देवस्	-7862
▁ाधिका	-7863
▁ार्यः	-7864
sa	-7865
▁MS	-7866
▁gn	-7867
▁यञ	-7868
▁adj	-7869
▁sou	-7870
▁कुछ	-7871
▁घटं	-7872
▁दिप	-7873
▁निक	-7874
▁पुच	-7875
▁लवि	-7876
▁हाः	-7877
▁ाण्	-7878
▁ाशक	-7879
▁ोचत	-7880
▁्थः	-7881
▁्मो	-7882
▁११८	-7883
▁Blog	-7884
▁word	-7885
▁देशं	-7886
▁यर्थ	-7887
▁रणीय	-7888
▁ेष्य	-7889
▁्यकर	-7890
▁्यप्	-7891
▁्याश	-7892
▁्रती	-7893
▁Years	-7894
▁तेभ्य	-7895
▁साहित	-7896
टः	-7897
तव	-7898
▁Ś	-7899
ews	-7900
ind	-7901
tra	-7902
▁/2	-7903
▁04	-7904
▁3:	-7905
▁My	-7906
▁Op	-7907
▁Vo	-7908
▁ja	-7909
▁छं	-7910
▁न॰	-7911
▁वब	-7912
▁कछु	-7913
▁जपं	-7914
▁जाम	-7915
▁दधि	-7916
▁मतम	-7917
▁रक्	-7918
▁रिश	-7919
▁लाव	-7920
▁वहे	-7921
▁वैः	-7922
▁िरन	-7923
▁ेषः	-7924
▁्पि	-7925
▁tter	-7926
▁ङ्गं	-7927
▁त्कर	-7928
▁र्नि	-7929
▁्मणः	-7930
▁्रश्	-7931
▁्स्व	-7932
▁दुःखं	-7933
▁ब्राह	-7934
▁समन्व	-7935
ka	-7936
ॉप	-7937
▁ર	-7938
ama	-7939
▁08	-7940
▁ईं	-7941
▁टप	-7942
▁णप	-7943
▁षज	-7944
▁हौ	-7945
▁Gen	-7946
▁ess	-7947
▁ind	-7948
▁थाऽ	-7949
▁धनी	-7950
▁नेष	-7951
▁न्क	-7952
▁ऽहम	-7953
▁ापू	-7954
▁िषा	-7955
▁ेशो	-7956
▁ैन्	-7957
▁कुमा	-7958
▁पृथक	-7959
▁रित्	-7960
▁र्थो	-7961
▁र्मण	-7962
▁वस्य	-7963
▁वामि	-7964
▁विशे	-7965
▁ांश्	-7966
▁ाजान	-7967
▁िपात	-7968
▁्यतः	-7969
▁करोतु	-7970
▁त्याश	-7971
▁ष्टिः	-7972
▁समस्य	-7973
▁ुज्यत	-7974
▁्तन्त	-7975
▁́	-7976
▁્	-7977
bsp	-7978
ine	-7979
rea	-7980
use	-7981
▁,,	-7982
▁58	-7983
▁Bh	-7984
▁उस	-7985
▁कफ	-7986
▁क॰	-7987
▁बै	-7988
▁ुइ	-7989
▁Off	-7990
▁can	-7991
▁rce	-7992
▁ऋतं	-7993
▁थेन	-7994
▁समो	-7995
▁हस्	-7996
▁्मं	-7997
▁्षि	-7998
▁Date	-7999
▁gram	-8000
▁ther	-8001
▁ण्यं	-8002
▁श्रो	-8003
▁सात्	-8004
▁ृतम्	-8005
▁्धान	-8006
▁्विक	-8007
▁Books	-8008
▁प्रणा	-8009
▁ष्टम्	-8010
▁ितवान	-8011
ba	-8012
ली	-8013
▁Ha	-8014
▁NE	-8015
▁SE	-8016
▁Up	-8017
▁mn	-8018
▁mu	-8019
▁धं	-8020
▁नज	-8021
▁पक	-8022
▁॑न	-8023
▁www	-8024
▁इमौ	-8025
▁चन्	-8026
▁चर्	-8027
▁तटे	-8028
▁तरम	-8029
▁दत्	-8030
▁बली	-8031
▁भवि	-8032
▁यज्	-8033
▁यमो	-8034
▁रुर	-8035
▁सतो	-8036
▁ोत्	-8037
▁्च्	-8038
▁्जय	-8039
▁्ज्	-8040
▁्सि	-8041
▁bels	-8042
▁says	-8043
▁ंसार	-8044
▁दित्	-8045
▁धाने	-8046
▁न्यथ	-8047
▁न्यस	-8048
▁पित्	-8049
▁प्रब	-8050
▁ब्दः	-8051
▁र्गे	-8052
▁विस्	-8053
▁ारणा	-8054
▁िरोध	-8055
▁्मृत	-8056
▁्ययन	-8057
▁्रां	-8058
▁्वित	-8059
▁म्भवत	-8060
IC	-8061
TC	-8062
ky	-8063
alk	-8064
▁4)	-8065
▁एल	-8066
▁खद	-8067
▁तब	-8068
▁Pie	-8069
▁Sea	-8070
▁छाय	-8071
▁बकः	-8072
▁भिक	-8073
▁वतन	-8074
▁सरः	-8075
▁िव्	-8076
▁ूयत	-8077
▁्ह्	-8078
▁July	-8079
▁nbsp	-8080
▁दीना	-8081
▁देशा	-8082
▁नानि	-8083
▁म्पर	-8084
▁वानि	-8085
▁सम्य	-8086
▁ादिभ	-8087
▁ापत्	-8088
▁्याण	-8089
▁style	-8090
▁क्षत्	-8091
▁च्छन्	-8092
▁परिणा	-8093
▁रस्तु	-8094
▁ाक्यं	-8095
एष	-8096
▁ऍ	-8097
int	-8098
▁-)	-8099
▁Ga	-8100
▁pm	-8101
▁गै	-8102
▁टं	-8103
▁द०	-8104
▁व०	-8105
▁Pra	-8106
▁box	-8107
▁ऐसे	-8108
▁काद	-8109
▁गरे	-8110
▁चाह	-8111
▁पता	-8112
▁भस्	-8113
▁रिध	-8114
▁वकर	-8115
▁वि०	-8116
▁ीवा	-8117
▁्दी	-8118
▁्सं	-8119
▁Year	-8120
▁down	-8121
▁कृष्	-8122
▁क्तु	-8123
▁चारण	-8124
▁ज्यं	-8125
▁त्स्	-8126
▁द्रे	-8127
▁मिष्	-8128
▁रतिक	-8129
▁हार्	-8130
▁ीवित	-8131
▁्थात	-8132
▁्न्य	-8133
▁्यमा	-8134
▁्रवर	-8135
▁Verse	-8136
▁र्यते	-8137
.)	-8138
AN	-8139
ON	-8140
ali	-8141
are	-8142
▁1:	-8143
▁2-	-8144
▁ON	-8145
▁ms	-8146
▁ख॰	-8147
▁लच	-8148
▁॒न	-8149
▁Man	-8150
▁May	-8151
▁doc	-8152
▁ऐसा	-8153
▁भूप	-8154
▁मीप	-8155
▁मूढ	-8156
▁वनि	-8157
▁ीयम	-8158
▁ुतम	-8159
▁ुषा	-8160
▁ूतः	-8161
▁ेदे	-8162
▁ोमा	-8163
▁्ठः	-8164
▁१०३	-8165
▁तिस्	-8166
▁निका	-8167
▁न्यम	-8168
▁प्री	-8169
▁ाणान	-8170
▁िर्य	-8171
▁्तिं	-8172
▁्पति	-8173
▁्वात	-8174
▁त्तिर	-8175
▁धर्मा	-8176
▁पाद्य	-8177
▁लोकान	-8178
AL	-8179
iz	-8180
▁−	-8181
▁AM	-8182
▁खस	-8183
▁झी	-8184
▁14.	-8185
▁BBC	-8186
▁Kha	-8187
▁VII	-8188
▁var	-8189
▁गणे	-8190
▁टम्	-8191
▁ठक्	-8192
▁णस्	-8193
▁दाच	-8194
▁नो॑	-8195
▁महः	-8196
▁यवा	-8197
▁रणा	-8198
▁लां	-8199
▁वजन	-8200
▁हाण	-8201
▁हेि	-8202
▁िञ्	-8203
▁िपद	-8204
▁्चि	-8205
▁्शन	-8206
▁तास्	-8207
▁द्धं	-8208
▁म्मा	-8209
▁वकार	-8210
▁िरुद	-8211
▁Piece	-8212
▁मानस्	-8213
▁विषया	-8214
▁्याना	-8215
▁ऴ	-8216
▁ॢ	-8217
▁₹	-8218
▁Sc	-8219
▁तॆ	-8220
▁न॒	-8221
▁ृक	-8222
lock	-8223
▁();	-8224
▁son	-8225
▁आगे	-8226
▁ऊर्	-8227
▁काण	-8228
▁गनं	-8229
▁गरि	-8230
▁ताह	-8231
▁धमा	-8232
▁मपर	-8233
▁शते	-8234
▁शात	-8235
▁शेत	-8236
▁्रग	-8237
▁page	-8238
▁ज्यत	-8239
▁ध्यत	-8240
▁प्ये	-8241
▁सिद्	-8242
▁ाप्न	-8243
▁ाहरण	-8244
▁्जित	-8245
▁्देव	-8246
▁्रिप	-8247
▁्रेर	-8248
▁्वाच	-8249
▁्विग	-8250
▁Class	-8251
▁भाषाय	-8252
▁वास्त	-8253
▁िद्यत	-8254
▁िनिर्	-8255
▁्यमेव	-8256
du	-8257
ily	-8258
▁UN	-8259
▁ga	-8260
▁ऊं	-8261
▁दग	-8262
▁भद	-8263
▁२ः	-8264
▁adv	-8265
▁rep	-8266
▁ओली	-8267
▁चलं	-8268
▁डलर	-8269
▁णार	-8270
▁दयत	-8271
▁नोऽ	-8272
▁य्क	-8273
▁वधा	-8274
▁सक०	-8275
▁सिक	-8276
▁ाचन	-8277
▁ुभा	-8278
▁ुसा	-8279
▁ोऽन	-8280
▁text	-8281
▁नामि	-8282
▁मुत्	-8283
▁म्ये	-8284
▁युत्	-8285
▁वृत्	-8286
▁ानान	-8287
▁्तार	-8288
▁द्रिय	-8289
▁र्यक्	-8290
▁ानात्	-8291
▁ान्त्	-8292
▁ुक्तम	-8293
▁्यवस्	-8294
▁ey	-8295
▁घ्	-8296
▁Gra	-8297
▁Rep	-8298
▁___	-8299
▁ard	-8300
▁अचः	-8301
▁आशु	-8302
▁इकः	-8303
▁गम्	-8304
▁घटन	-8305
▁जये	-8306
▁जयो	-8307
▁टान	-8308
▁भवो	-8309
▁ययय	-8310
▁रपा	-8311
▁राच	-8312
▁रोऽ	-8313
▁लट्	-8314
▁वक्	-8315
▁वधं	-8316
▁वाध	-8317
▁षमा	-8318
▁ुरस	-8319
▁्जल	-8320
▁्तो	-8321
▁्दे	-8322
▁्पा	-8323
▁्यय	-8324
▁५००	-8325
▁LIVE	-8326
▁UPSC	-8327
▁edia	-8328
▁shed	-8329
▁कृतव	-8330
▁च्छे	-8331
▁रिमा	-8332
▁र्ते	-8333
▁र्मे	-8334
▁ाराय	-8335
▁िदिन	-8336
▁ून्य	-8337
▁्तिम	-8338
▁थिव्य	-8339
▁धर्मः	-8340
▁बन्धः	-8341
▁्रतिष	-8342
dy	-8343
एव	-8344
ङि	-8345
ूर	-8346
ace	-8347
ark	-8348
rou	-8349
▁68	-8350
▁69	-8351
▁72	-8352
▁99	-8353
▁ac	-8354
▁ix	-8355
▁nf	-8356
▁ny	-8357
▁ञः	-8358
▁ठः	-8359
irst	-8360
▁See	-8361
▁Top	-8362
▁Tra	-8363
▁Web	-8364
▁ect	-8365
▁old	-8366
▁गवि	-8367
▁ते॒	-8368
▁दद्	-8369
▁दुग	-8370
▁मदः	-8371
▁मूर	-8372
▁वभा	-8373
▁वमन	-8374
▁शक्	-8375
▁Page	-8376
▁णादि	-8377
▁पयाम	-8378
▁ब्रह	-8379
▁िपूर	-8380
▁त्क्ष	-8381
▁लक्ष्	-8382
▁्टव्य	-8383
ण्	-8384
▁Ø	-8385
der	-8386
▁06	-8387
▁AT	-8388
▁Ci	-8389
▁Ko	-8390
▁ak	-8391
▁kg	-8392
▁sy	-8393
▁ओम	-8394
▁गं	-8395
▁नॊ	-8396
▁Sep	-8397
▁Sou	-8398
▁bet	-8399
▁ऋचः	-8400
▁गुल	-8401
▁चाद	-8402
▁टीम	-8403
▁बिल	-8404
▁रणः	-8405
▁वयि	-8406
▁शूर	-8407
▁हरौ	-8408
▁ाषि	-8409
▁ुज्	-8410
▁१२३	-8411
▁१५०	-8412
▁form	-8413
▁this	-8414
▁केचि	-8415
▁न्वि	-8416
▁यताम	-8417
▁ह्यत	-8418
▁ालस्	-8419
▁ुणान	-8420
▁उदाहर	-8421
▁त्तमा	-8422
▁राधिक	-8423
RO	-8424
no	-8425
to	-8426
अत	-8427
▁ા	-8428
▁05	-8429
▁1,	-8430
▁63	-8431
▁Ki	-8432
▁We	-8433
▁fe	-8434
▁ge	-8435
▁jo	-8436
▁जड	-8437
▁Key	-8438
▁Ori	-8439
▁mNs	-8440
▁ter	-8441
▁तका	-8442
▁पथा	-8443
▁रथम	-8444
▁रेम	-8445
▁ारू	-8446
▁िधि	-8447
▁ेया	-8448
▁्गो	-8449
▁१०२	-8450
▁१०५	-8451
▁११७	-8452
▁Movi	-8453
▁Name	-8454
▁Piec	-8455
▁rics	-8456
▁view	-8457
▁work	-8458
▁नाधि	-8459
▁नेवा	-8460
▁मोक्	-8461
▁रुषा	-8462
▁र्णन	-8463
▁वत्प	-8464
▁वितः	-8465
▁शक्न	-8466
▁शेषः	-8467
▁ापयत	-8468
▁April	-8469
▁दुर्ल	-8470
▁रदर्श	-8471
▁¬	-8472
▁σ	-8473
▁Am	-8474
▁CH	-8475
▁PC	-8476
▁bu	-8477
▁ev	-8478
▁ew	-8479
▁उच	-8480
ानां	-8481
▁Abb	-8482
▁Cli	-8483
▁Glo	-8484
▁nik	-8485
▁आसी	-8486
▁ऋतौ	-8487
▁एंव	-8488
▁खलः	-8489
▁चरे	-8490
▁नमस	-8491
▁राभ	-8492
▁वच्	-8493
▁वधे	-8494
▁शये	-8495
▁षार	-8496
▁ूतं	-8497
▁१०७	-8498
▁mple	-8499
▁जस्य	-8500
▁त्यै	-8501
▁न्धा	-8502
▁पर्श	-8503
▁र्गा	-8504
▁वदेव	-8505
▁्योऽ	-8506
▁्रमे	-8507
▁Insta	-8508
▁Origi	-8509
▁कारस्	-8510
▁णानां	-8511
▁र्याण	-8512
▁सम्यक	-8513
▁सर्वै	-8514
▁्रतिव	-8515
EE	-8516
OS	-8517
lf	-8518
sh	-8519
खे	-8520
sti	-8521
▁Ly	-8522
▁Pr	-8523
▁km	-8524
▁om	-8525
▁टम	-8526
▁हक	-8527
▁ऽय	-8528
▁े॒	-8529
▁(8)	-8530
▁150	-8531
▁Ste	-8532
▁add	-8533
▁pla	-8534
▁अन्	-8535
▁आवे	-8536
▁गथे	-8537
▁चये	-8538
▁तवि	-8539
▁मलं	-8540
▁रिः	-8541
▁रैव	-8542
▁वरय	-8543
▁सनि	-8544
▁िंस	-8545
▁ुपस	-8546
▁ोऽभ	-8547
▁्तू	-8548
▁्दा	-8549
▁्भक	-8550
▁्वव	-8551
▁१६२	-8552
▁४००	-8553
▁Upda	-8554
▁file	-8555
▁gori	-8556
▁द्धे	-8557
▁द्यप	-8558
▁भागा	-8559
▁युक्	-8560
▁िकृत	-8561
▁िक्र	-8562
▁्मस्	-8563
▁प्रकर	-8564
▁ुच्यत	-8565
▁्तुम्	-8566
AC	-8567
SL	-8568
do	-8569
vu	-8570
▁62	-8571
▁AW	-8572
▁Ja	-8573
▁rs	-8574
▁वथ	-8575
▁षर	-8576
▁Jun	-8577
▁bra	-8578
▁ere	-8579
▁ndi	-8580
▁net	-8581
▁ऋतु	-8582
▁कता	-8583
▁ञान	-8584
▁दधे	-8585
▁नखः	-8586
▁नश्	-8587
▁भिम	-8588
▁रभु	-8589
▁रसे	-8590
▁रेर	-8591
▁वमे	-8592
▁ावश	-8593
▁ुषस	-8594
▁्पर	-8595
▁Info	-8596
▁Offi	-8597
▁unfi	-8598
▁दप्र	-8599
▁धिष्	-8600
▁न्त्	-8601
▁रियो	-8602
▁लोकस	-8603
▁स्मृ	-8604
▁ानुष	-8605
▁ुक्र	-8606
▁्वाय	-8607
▁तायां	-8608
▁महत्त	-8609
▁स्तीत	-8610
▁िञ्चि	-8611
▁्सर्व	-8612
ID	-8613
IS	-8614
ङः	-8615
▁√	-8616
PSC	-8617
▁4:	-8618
▁64	-8619
▁67	-8620
▁AR	-8621
▁Mb	-8622
▁RE	-8623
▁bh	-8624
▁उठ	-8625
▁ओज	-8626
▁ऽभ	-8627
▁13.	-8628
▁15.	-8629
▁INR	-8630
▁fil	-8631
▁stu	-8632
▁अकः	-8633
▁घटो	-8634
▁छेँ	-8635
▁जनम	-8636
▁जपे	-8637
▁धत्	-8638
▁धना	-8639
▁पम्	-8640
▁भजे	-8641
▁माघ	-8642
▁माश	-8643
▁रदे	-8644
▁हैं	-8645
▁िवर	-8646
▁ूपं	-8647
▁्ग्	-8648
▁११९	-8649
▁very	-8650
▁मिन्	-8651
▁रिका	-8652
▁र्भा	-8653
▁विचा	-8654
▁ष्या	-8655
▁ालिक	-8656
वः	-8657
low	-8658
▁07	-8659
▁5:	-8660
▁66	-8661
▁pi	-8662
▁सब	-8663
mail	-8664
▁300	-8665
▁AWB	-8666
▁Cou	-8667
▁God	-8668
▁end	-8669
▁rch	-8670
▁sha	-8671
▁ved	-8672
▁एतन	-8673
▁नो॒	-8674
▁मनू	-8675
▁याह	-8676
▁युक	-8677
▁लक्	-8678
▁वैत	-8679
▁शनम	-8680
▁हलि	-8681
▁हाप	-8682
▁िको	-8683
▁१३०	-8684
▁१५९	-8685
▁Ques	-8686
▁क्षक	-8687
▁दस्त	-8688
▁ब्रव	-8689
▁भिक्	-8690
▁वज्ञ	-8691
▁विदि	-8692
▁ूल्य	-8693
▁्ततः	-8694
▁्यून	-8695
▁story	-8696
▁ष्यति	-8697
▁स्माभ	-8698
▁ार्थस	-8699
▁िध्यत	-8700
▁ृद्धि	-8701
▁्युत्	-8702
pi	-8703
▁£	-8704
usi	-8705
▁3-	-8706
▁AL	-8707
▁CG	-8708
▁He	-8709
▁ju	-8710
▁nm	-8711
▁ऎव	-8712
▁डः	-8713
▁व॒	-8714
▁Acc	-8715
▁And	-8716
▁IAS	-8717
▁app	-8718
▁pre	-8719
▁see	-8720
▁कपि	-8721
▁टना	-8722
▁नवे	-8723
▁रंग	-8724
▁रप्	-8725
▁रवौ	-8726
▁वदा	-8727
▁शनं	-8728
▁साय	-8729
▁ामव	-8730
▁ासय	-8731
▁ुमर	-8732
▁्जन	-8733
▁्धस	-8734
▁१०४	-8735
▁१३९	-8736
▁year	-8737
▁करणा	-8738
▁त्रम	-8739
▁न्यप	-8740
▁पाद्	-8741
▁बुद्	-8742
▁मात्	-8743
▁याणा	-8744
▁यामा	-8745
▁र्तन	-8746
▁र्वो	-8747
▁िपीड	-8748
▁्यर्	-8749
▁जयेत्	-8750
▁दुक्त	-8751
▁द्ध्य	-8752
▁यास्त	-8753
▁िश्वा	-8754
IN	-8755
ze	-8756
टि	-8757
बर	-8758
ati	-8759
▁.)	-8760
▁/>	-8761
▁88	-8762
▁ER	-8763
▁Ms	-8764
▁Ty	-8765
▁dj	-8766
▁नष	-8767
▁17.	-8768
▁ref	-8769
▁shi	-8770
▁अयम	-8771
▁एषो	-8772
▁ए॒ष	-8773
▁तथै	-8774
▁तिज	-8775
▁दमः	-8776
▁दरः	-8777
▁धन्	-8778
▁धाल	-8779
▁पुः	-8780
▁यतॊ	-8781
▁रथो	-8782
▁सिर	-8783
▁हैव	-8784
▁ुखा	-8785
▁ेषि	-8786
▁्गं	-8787
▁्चर	-8788
▁३००	-8789
▁Dece	-8790
▁ever	-8791
▁थ्या	-8792
▁द्रा	-8793
▁धिका	-8794
▁रकरण	-8795
▁रतिम	-8796
▁रष्ट	-8797
▁र्धत	-8798
▁श्रे	-8799
▁स्ये	-8800
▁्वदा	-8801
▁Inter	-8802
▁किन्त	-8803
DE	-8804
wa	-8805
धं	-8806
▁꣢	-8807
and	-8808
ort	-8809
out	-8810
row	-8811
▁6:	-8812
▁Hi	-8813
▁au	-8814
▁xx	-8815
▁फइ	-8816
▁Eng	-8817
▁cal	-8818
▁ंशो	-8819
▁उकी	-8820
▁एदं	-8821
▁खने	-8822
▁नञः	-8823
▁मतो	-8824
▁रिन	-8825
▁ाब्	-8826
▁ाष्	-8827
▁िधा	-8828
▁िवत	-8829
▁ोकं	-8830
▁१८६	-8831
▁२५०	-8832
▁File	-8833
▁Link	-8834
▁edit	-8835
▁कस्म	-8836
▁क्नो	-8837
▁दोषः	-8838
▁रामे	-8839
▁र्दे	-8840
▁र्षं	-8841
▁ामन्	-8842
▁िद्व	-8843
▁्रमु	-8844
▁श्वस्	-8845
eo	-8846
fa	-8847
sc	-8848
ent	-8849
one	-8850
▁1-	-8851
▁87	-8852
▁98	-8853
▁CL	-8854
▁gt	-8855
▁आ०	-8856
▁इण	-8857
▁्ः	-8858
▁०३	-8859
▁Red	-8860
▁Sex	-8861
▁nci	-8862
▁ons	-8863
▁अधा	-8864
▁एकत	-8865
▁कप्	-8866
▁चयन	-8867
▁ते॑	-8868
▁मश्	-8869
▁यकर	-8870
▁यसं	-8871
▁रतं	-8872
▁वैश	-8873
▁शशी	-8874
▁ाजस	-8875
▁ुषं	-8876
▁ेवि	-8877
▁्नी	-8878
▁्वृ	-8879
▁Edit	-8880
▁Resu	-8881
▁ause	-8882
▁book	-8883
▁stra	-8884
▁त्था	-8885
▁त्वस	-8886
▁दृशः	-8887
▁द्यन	-8888
▁मृत्	-8889
▁श्यत	-8890
▁ावात	-8891
▁िगृह	-8892
▁्रीड	-8893
▁World	-8894
▁उच्यत	-8895
▁त्तरा	-8896
▁त्रेण	-8897
▁न्तरम	-8898
▁्रतिद	-8899
AP	-8900
EN	-8901
bo	-8902
▁৷	-8903
▁ക	-8904
ass	-8905
nxx	-8906
ont	-8907
▁1/	-8908
▁AN	-8909
▁Ho	-8910
▁Nu	-8911
▁Of	-8912
▁PO	-8913
▁fo	-8914
▁ाञ	-8915
▁250	-8916
▁Sha	-8917
▁ber	-8918
▁ंश्	-8919
▁अज्	-8920
▁करी	-8921
▁खबर	-8922
▁दलं	-8923
▁निं	-8924
▁भवथ	-8925
▁षास	-8926
▁हरी	-8927
▁ातो	-8928
▁ासे	-8929
▁ितस	-8930
▁ोषा	-8931
▁्म्	-8932
▁१५१	-8933
▁Revi	-8934
▁less	-8935
▁life	-8936
▁user	-8937
▁ंहित	-8938
▁काशि	-8939
▁णस्य	-8940
▁तीर्	-8941
▁त्तस	-8942
▁त्रौ	-8943
▁दात्	-8944
▁स्फु	-8945
▁्तमः	-8946
▁्तिस	-8947
▁्नोत	-8948
▁्मात	-8949
▁्याभ	-8950
▁्रक्	-8951
▁ृष्टं	-8952
▁्येषु	-8953
gh	-8954
io	-8955
qu	-8956
सं	-8957
▁ന	-8958
▁ാ	-8959
▁‐	-8960
▁★	-8961
ala	-8962
ash	-8963
eci	-8964
▁.:	-8965
▁09	-8966
▁76	-8967
▁81	-8968
▁84	-8969
▁85	-8970
▁Gu	-8971
▁Is	-8972
▁TO	-8973
▁if	-8974
▁sū	-8975
▁ur	-8976
▁ऐन	-8977
▁ऑफ	-8978
▁औष	-8979
▁Bha	-8980
▁Bot	-8981
▁Dai	-8982
▁Pri	-8983
▁dog	-8984
▁get	-8985
▁nge	-8986
▁pri	-8987
▁uni	-8988
▁अम्	-8989
▁उषा	-8990
▁एकॊ	-8991
▁गमा	-8992
▁गाव	-8993
▁जेठ	-8994
▁दनि	-8995
▁मदं	-8996
▁लङि	-8997
▁वाश	-8998
▁हरं	-8999
▁ऽदय	-9000
▁ुण्	-9001
▁ुलं	-9002
▁ूति	-9003
▁ेच्	-9004
▁ोटि	-9005
▁ोधि	-9006
▁्वौ	-9007
▁्हस	-9008
▁११६	-9009
▁Porn	-9010
▁djvu	-9011
▁कुर्	-9012
▁नुमा	-9013
▁रमित	-9014
▁राणा	-9015
▁रिता	-9016
▁र्थि	-9017
▁र्यत	-9018
▁लिखि	-9019
▁्रदे	-9020
▁March	-9021
▁्याणि	-9022
ED	-9023
के	-9024
ठः	-9025
▁️	-9026
▁👉	-9027
ank	-9028
▁")	-9029
▁71	-9030
▁Do	-9031
▁Dr	-9032
▁IT	-9033
▁Sm	-9034
▁os	-9035
▁pp	-9036
▁ब०	-9037
▁हह	-9038
amil	-9039
▁Ele	-9040
▁Feb	-9041
▁Twi	-9042
▁Uni	-9043
▁ple	-9044
▁who	-9045
▁अक०	-9046
▁अतॊ	-9047
▁तदो	-9048
▁थान	-9049
▁दना	-9050
▁रकम	-9051
▁रणस	-9052
▁रमन	-9053
▁वंग	-9054
▁वधः	-9055
▁शीर	-9056
▁शेन	-9057
▁सुं	-9058
▁हौं	-9059
▁ादं	-9060
▁्दन	-9061
▁Janu	-9062
▁Open	-9063
▁क्तो	-9064
▁तरम्	-9065
▁द्धः	-9066
▁वार्	-9067
▁विधे	-9068
▁श्ये	-9069
▁िनिर	-9070
▁ुमार	-9071
▁्रिव	-9072
▁views	-9073
▁यायाः	-9074
▁स्यास	-9075
▁िष्टम	-9076
▁्त्या	-9077
AD	-9078
EM	-9079
RL	-9080
go	-9081
hy	-9082
उप	-9083
▁≥	-9084
▁◆	-9085
▁✔	-9086
▁"'	-9087
▁#~	-9088
▁$2	-9089
▁AB	-9090
▁Jo	-9091
▁Mu	-9092
▁nk	-9093
▁nn	-9094
▁sc	-9095
▁अङ	-9096
▁उ॒	-9097
roup	-9098
▁***	-9099
▁>>>	-9100
▁Xvi	-9101
▁chd	-9102
▁ths	-9103
▁करु	-9104
▁कीं	-9105
▁छिं	-9106
▁तसा	-9107
▁दुई	-9108
▁धलः	-9109
▁बले	-9110
▁रमप	-9111
▁रिर	-9112
▁ऽयम	-9113
▁ोधा	-9114
▁्णः	-9115
▁्तत	-9116
▁्धा	-9117
▁१२२	-9118
▁१३४	-9119
▁२०८	-9120
▁also	-9121
▁back	-9122
▁ntry	-9123
▁कृपय	-9124
▁तीयत	-9125
▁त्त्	-9126
▁पूर्	-9127
▁वप्न	-9128
▁विका	-9129
▁विरु	-9130
▁शुक्	-9131
▁षितं	-9132
▁ामान	-9133
▁ेत्र	-9134
▁्ताः	-9135
▁्तात	-9136
▁्रस्	-9137
▁द्यपि	-9138
▁ध्यति	-9139
▁रणात्	-9140
▁र्यस्	-9141
▁ष्टान	-9142
▁सुवर्	-9143
▁ृह्यत	-9144
▁्रतीक	-9145
AG	-9146
rd	-9147
▁ન	-9148
AME	-9149
etu	-9150
ita	-9151
ord	-9152
▁89	-9153
▁95	-9154
▁Ch	-9155
▁IM	-9156
▁NC	-9157
▁SI	-9158
▁lu	-9159
▁vk	-9160
▁ःक	-9161
▁इस	-9162
▁Rec	-9163
▁Sky	-9164
▁air	-9165
▁bad	-9166
▁ome	-9167
▁qua	-9168
▁इद्	-9169
▁गलत	-9170
▁धनु	-9171
▁धिव	-9172
▁पेण	-9173
▁ययो	-9174
▁लत्	-9175
▁षकः	-9176
▁हयं	-9177
▁हाद	-9178
▁ेदय	-9179
▁ोका	-9180
▁्धन	-9181
▁्धे	-9182
▁्पन	-9183
▁्मह	-9184
▁Prev	-9185
▁comp	-9186
▁here	-9187
▁logy	-9188
▁love	-9189
▁nset	-9190
▁दृशं	-9191
▁ायन्	-9192
▁्पन्	-9193
▁्मना	-9194
▁Daily	-9195
▁https	-9196
▁sūtra	-9197
▁प्रयो	-9198
▁भारती	-9199
▁रस्ता	-9200
▁ान्वि	-9201
▁ृत्ति	-9202
▁ेवाना	-9203
▁ત	-9204
▁꣣	-9205
▁-"	-9206
▁73	-9207
▁CT	-9208
▁NT	-9209
▁Pl	-9210
▁[1	-9211
▁um	-9212
▁अघ	-9213
▁एप	-9214
▁गह	-9215
▁ग॰	-9216
▁छ्	-9217
▁IND	-9218
▁IST	-9219
▁ईशः	-9220
▁एतु	-9221
▁चरा	-9222
▁चलन	-9223
▁छगु	-9224
▁तता	-9225
▁तनु	-9226
▁तवर	-9227
▁नका	-9228
▁नमा	-9229
▁पसः	-9230
▁पाई	-9231
▁भम्	-9232
▁यङि	-9233
▁यण्	-9234
▁रवर	-9235
▁र्ख	-9236
▁वशी	-9237
▁शता	-9238
▁सौः	-9239
▁हवं	-9240
▁ऽपय	-9241
▁्दत	-9242
▁२०१	-9243
▁Comp	-9244
▁Time	-9245
▁कप्र	-9246
▁कात्	-9247
▁रकृत	-9248
▁वासि	-9249
▁वेबस	-9250
▁श्लो	-9251
▁ह्ये	-9252
▁ितवा	-9253
▁िस्म	-9254
▁्त्य	-9255
▁्माण	-9256
▁्रवी	-9257
▁्रूय	-9258
▁्रेक	-9259
▁्वतो	-9260
▁Media	-9261
▁प्तिः	-9262
▁्यस्म	-9263
WS	-9264
nd	-9265
चा	-9266
▁ü	-9267
▁ா	-9268
ars	-9269
▁(-	-9270
▁(:	-9271
▁74	-9272
▁Va	-9273
▁[]	-9274
▁im	-9275
▁ow	-9276
▁rd	-9277
▁sk	-9278
▁आल	-9279
▁च॑	-9280
▁त॰	-9281
▁न॑	-9282
▁यग	-9283
▁वॊ	-9284
▁ृढ	-9285
▁400	-9286
▁Oct	-9287
▁Sam	-9288
▁Sli	-9289
▁Tit	-9290
▁ger	-9291
▁imp	-9292
▁kip	-9293
▁ncy	-9294
▁ssi	-9295
▁इष्	-9296
▁इित	-9297
▁कधं	-9298
▁कौन	-9299
▁थना	-9300
▁दूध	-9301
▁मतौ	-9302
▁शके	-9303
▁सखी	-9304
▁ाजा	-9305
▁ानग	-9306
▁ाहृ	-9307
▁िदु	-9308
▁ुतः	-9309
▁ेऽन	-9310
▁्जि	-9311
▁्रल	-9312
▁१२०	-9313
▁NAME	-9314
▁Test	-9315
▁ndir	-9316
▁that	-9317
▁will	-9318
▁आश्र	-9319
▁तिका	-9320
▁त्रक	-9321
▁नप्र	-9322
▁राक्	-9323
▁्ञाप	-9324
▁निमित	-9325
▁न्यान	-9326
▁ाज्यं	-9327
▁ानानि	-9328
▁्येषा	-9329
Hz	-9330
PS	-9331
UR	-9332
bu	-9333
by	-9334
▁॓	-9335
▁ં	-9336
▁ી	-9337
▁ു	-9338
▁⇒	-9339
▁❍	-9340
▁🔊	-9341
aya	-9342
▁0.	-9343
▁82	-9344
▁Ru	-9345
▁SB	-9346
▁SS	-9347
▁[2	-9348
▁[3	-9349
▁cf	-9350
▁pt	-9351
▁py	-9352
▁wa	-9353
▁za	-9354
▁नट	-9355
▁Dec	-9356
▁Thi	-9357
▁UTC	-9358
▁ors	-9359
▁आखः	-9360
▁आहो	-9361
▁णमो	-9362
▁थःत	-9363
▁पञ्	-9364
▁पीठ	-9365
▁भते	-9366
▁मजू	-9367
▁मदन	-9368
▁रयत	-9369
▁वचि	-9370
▁वशं	-9371
▁वैद	-9372
▁षिप	-9373
▁सहः	-9374
▁ाणे	-9375
▁ुच्	-9376
▁ुधि	-9377
▁ूते	-9378
▁ृदय	-9379
▁्कु	-9380
▁्बन	-9381
▁१२१	-9382
▁१२८	-9383
▁१३२	-9384
▁१३७	-9385
▁१५६	-9386
▁Busi	-9387
▁Type	-9388
▁live	-9389
▁याने	-9390
▁र्त्	-9391
▁ष्ठः	-9392
▁िवाह	-9393
▁िसर्	-9394
▁ुर्म	-9395
▁्रद्	-9396
▁्षत्	-9397
▁Click	-9398
▁Title	-9399
▁त्याद	-9400
▁न्तरि	-9401
▁ुक्ता	-9402
▁्रहणं	-9403
▁्राप्	-9404
OL	-9405
br	-9406
js	-9407
छा	-9408
▁મ	-9409
▁‡	-9410
▁,"	-9411
▁XI	-9412
▁_"	-9413
▁ec	-9414
▁एफ	-9415
▁कब	-9416
▁छ॰	-9417
▁बच	-9418
▁म॰	-9419
▁स॒	-9420
▁िञ	-9421
▁०४	-9422
▁Ali	-9423
▁Pla	-9424
▁any	-9425
▁avy	-9426
▁sea	-9427
▁आङः	-9428
▁कुः	-9429
▁चेन	-9430
▁जगौ	-9431
▁ततं	-9432
▁दग्	-9433
▁भदौ	-9434
▁मनि	-9435
▁मेश	-9436
▁यकः	-9437
▁रशि	-9438
▁रूय	-9439
▁वलं	-9440
▁वृ०	-9441
▁शमं	-9442
▁समौ	-9443
▁ादस	-9444
▁ियु	-9445
▁ुभू	-9446
▁ुमि	-9447
▁Line	-9448
▁Part	-9449
▁date	-9450
▁http	-9451
▁nger	-9452
▁stem	-9453
▁णानि	-9454
▁न्ध्	-9455
▁वृक्	-9456
▁ष्ठि	-9457
▁ामित	-9458
▁िनिय	-9459
▁्ग्र	-9460
▁्तिर	-9461
▁्पूर	-9462
▁्रमि	-9463
▁Style	-9464
▁posts	-9465
▁भूतान	-9466
RE	-9467
थं	-9468
पा	-9469
▁த	-9470
▁ി	-9471
cie	-9472
▁5)	-9473
▁78	-9474
▁86	-9475
▁CN	-9476
▁HT	-9477
▁PS	-9478
▁Ri	-9479
▁Rs	-9480
▁TH	-9481
▁[5	-9482
▁el	-9483
▁च॒	-9484
▁यब	-9485
▁1.1	-9486
▁Gre	-9487
▁Nov	-9488
▁cro	-9489
▁etc	-9490
▁exp	-9491
▁lar	-9492
▁ndo	-9493
▁out	-9494
▁rda	-9495
▁tor	-9496
▁अञ्	-9497
▁चले	-9498
▁जसि	-9499
▁तमन	-9500
▁तहत	-9501
▁पश्	-9502
▁मप्	-9503
▁रजो	-9504
▁रणम	-9505
▁रिम	-9506
▁वा॒	-9507
▁शप्	-9508
▁ऽसय	-9509
▁ाशि	-9510
▁ुभ्	-9511
▁ोतु	-9512
▁ोऽय	-9513
▁्छि	-9514
▁्पु	-9515
▁Here	-9516
▁myma	-9517
▁डिया	-9518
▁रकार	-9519
▁रिस्	-9520
▁ादिष	-9521
▁ारते	-9522
▁block	-9523
▁inter	-9524
▁त्रस्	-9525
▁त्रान	-9526
▁त्रिय	-9527
▁्यनेन	-9528
DO	-9529
ts	-9530
वन	-9531
▁¥	-9532
pee	-9533
▁"।	-9534
▁(।	-9535
▁77	-9536
▁AC	-9537
▁BC	-9538
▁IB	-9539
▁ke	-9540
▁ऊह	-9541
▁कक	-9542
▁ठि	-9543
▁णस	-9544
▁०५	-9545
▁18.	-9546
▁19.	-9547
▁20.	-9548
▁Quo	-9549
▁Shu	-9550
▁Sta	-9551
▁Tri	-9552
▁cam	-9553
▁chi	-9554
▁exa	-9555
▁les	-9556
▁nic	-9557
▁ser	-9558
▁sti	-9559
▁अणि	-9560
▁इट्	-9561
▁ऋचा	-9562
▁गत्	-9563
▁टेः	-9564
▁ठित	-9565
▁तेण	-9566
▁न्प	-9567
▁पका	-9568
▁पेय	-9569
▁बभौ	-9570
▁सरल	-9571
▁सस्	-9572
▁ाध्	-9573
▁ूजा	-9574
▁ृतम	-9575
▁ेचि	-9576
▁ेशय	-9577
▁ेशस	-9578
▁्पे	-9579
▁Koha	-9580
▁Mean	-9581
▁Rejs	-9582
▁only	-9583
▁चितम	-9584
▁थितः	-9585
▁नुवा	-9586
▁मर्प	-9587
▁रयन्	-9588
▁र्यं	-9589
▁शिक्	-9590
▁हत्व	-9591
▁िधीय	-9592
▁ुकूल	-9593
▁ेदान	-9594
▁ोक्य	-9595
▁्टम्	-9596
▁्यमु	-9597
▁क्वचि	-9598
▁नाङ्क	-9599
▁निवर्	-9600
▁प्रस्	-9601
▁लभ्यत	-9602
▁िप्रत	-9603
▁िर्मि	-9604
▁्ट्रि	-9605
▁्तिर्	-9606
za	-9607
▁î	-9608
▁🙂	-9609
eak	-9610
ers	-9611
▁91	-9612
▁94	-9613
▁96	-9614
▁AI	-9615
▁CD	-9616
▁Ed	-9617
▁Fa	-9618
▁LE	-9619
▁MB	-9620
▁Or	-9621
▁Ve	-9622
▁Yo	-9623
▁ऊन	-9624
▁ज॰	-9625
▁डय	-9626
▁Bla	-9627
▁Exp	-9628
▁Tec	-9629
▁lts	-9630
▁ngu	-9631
▁red	-9632
▁vya	-9633
▁wat	-9634
▁अदः	-9635
▁अधम	-9636
▁अमि	-9637
▁अलि	-9638
▁इटि	-9639
▁कहं	-9640
▁कहे	-9641
▁गणं	-9642
▁गमय	-9643
▁गये	-9644
▁जूं	-9645
▁तप्	-9646
▁नि०	-9647
▁परॊ	-9648
▁भचा	-9649
▁मवा	-9650
▁शा०	-9651
▁हल्	-9652
▁हैः	-9653
▁ुमत	-9654
▁ुषो	-9655
▁ैक्	-9656
▁्चन	-9657
▁्पक	-9658
▁Xnxx	-9659
▁blog	-9660
▁fuck	-9661
▁mean	-9662
▁part	-9663
▁time	-9664
▁त्रस	-9665
▁ध्यम	-9666
▁न्धि	-9667
▁रतस्	-9668
▁विदे	-9669
▁षितः	-9670
▁सहस्	-9671
▁ारती	-9672
▁िधिः	-9673
▁ुरात	-9674
▁्यती	-9675
▁्वनि	-9676
▁about	-9677
▁verse	-9678
▁क्त्व	-9679
▁पीडिय	-9680
▁िद्धा	-9681
▁ूर्वो	-9682
▁्याकर	-9683
LI	-9684
ML	-9685
pg	-9686
sp	-9687
wo	-9688
ञि	-9689
टो	-9690
▁ி	-9691
▁ṣ	-9692
▁🪔	-9693
ena	-9694
▁',	-9695
▁93	-9696
▁GB	-9697
▁SA	-9698
▁od	-9699
▁उः	-9700
▁एः	-9701
▁रङ	-9702
▁लख	-9703
▁24.	-9704
▁800	-9705
▁Bea	-9706
▁Chi	-9707
▁Shi	-9708
▁aut	-9709
▁big	-9710
▁fli	-9711
▁gov	-9712
▁ils	-9713
▁key	-9714
▁met	-9715
▁rec	-9716
▁अजः	-9717
▁इञ्	-9718
▁उलि	-9719
▁उ॒त	-9720
▁एङः	-9721
▁कौ०	-9722
▁गहि	-9723
▁चङि	-9724
▁चलो	-9725
▁टाः	-9726
▁तल्	-9727
▁धाइ	-9728
▁पवन	-9729
▁पसं	-9730
▁भगो	-9731
▁मनॊ	-9732
▁मसं	-9733
▁महद	-9734
▁रीड	-9735
▁वधो	-9736
▁वरद	-9737
▁शि०	-9738
▁हाम	-9739
▁ेनै	-9740
▁्बल	-9741
▁्सा	-9742
▁Ever	-9743
▁Song	-9744
▁Unit	-9745
▁data	-9746
▁free	-9747
▁your	-9748
▁क्तम	-9749
▁ट्वा	-9750
▁नमित	-9751
▁यावा	-9752
▁रास्	-9753
▁र्थय	-9754
▁र्य्	-9755
▁लानि	-9756
▁िगुण	-9757
▁्दान	-9758
▁्मिन	-9759
▁्यधि	-9760
▁onses	-9761
▁चिकित	-9762
▁द्यन्	-9763
▁र्शनं	-9764
▁व्यक्	-9765
▁ाप्तम	-9766
▁्त्वे	-9767
▁्येतद	-9768
EC	-9769
ki	-9770
su	-9771
we	-9772
एक	-9773
को	-9774
▁©	-9775
▁ā	-9776
▁꣡	-9777
▁79	-9778
▁CP	-9779
▁El	-9780
▁IL	-9781
▁Ku	-9782
▁Th	-9783
▁UK	-9784
▁[.	-9785
▁dd	-9786
▁op	-9787
▁rm	-9788
▁ओह	-9789
▁थग	-9790
▁यध	-9791
▁०८	-9792
▁Net	-9793
▁Tru	-9794
▁Ved	-9795
▁[3]	-9796
▁est	-9797
▁has	-9798
▁log	-9799
▁web	-9800
▁zed	-9801
▁अद्	-9802
▁अमे	-9803
▁इते	-9804
▁औषध	-9805
▁कत्	-9806
▁करत	-9807
▁खरं	-9808
▁खरः	-9809
▁गजं	-9810
▁तज्	-9811
▁तोत	-9812
▁दवि	-9813
▁धनम	-9814
▁नभो	-9815
▁नलं	-9816
▁पेप	-9817
▁बाद	-9818
▁भगं	-9819
▁मेघ	-9820
▁यवस	-9821
▁सञ्	-9822
▁समस	-9823
▁ाख्	-9824
▁ानस	-9825
▁ोगे	-9826
▁्तृ	-9827
▁्दं	-9828
▁१०६	-9829
▁desi	-9830
▁step	-9831
▁talk	-9832
▁गमिष	-9833
▁त्तं	-9834
▁त्तव	-9835
▁द्रस	-9836
▁द्वी	-9837
▁नुसं	-9838
▁नोत्	-9839
▁पस्य	-9840
▁प्नो	-9841
▁म्पू	-9842
▁रातर	-9843
▁र्वं	-9844
▁र्व्	-9845
▁श्रि	-9846
▁संयु	-9847
▁स्वम	-9848
▁िकल्	-9849
▁िबन्	-9850
▁िषयः	-9851
▁्रान	-9852
▁Apply	-9853
▁Septe	-9854
▁doggy	-9855
▁यमाना	-9856
DM	-9857
HO	-9858
bi	-9859
cu	-9860
ep	-9861
ia	-9862
pt	-9863
▁ऄ	-9864
▁【	-9865
irm	-9866
▁7:	-9867
▁Br	-9868
▁ID	-9869
▁KB	-9870
▁LO	-9871
▁OF	-9872
▁SO	-9873
▁Wo	-9874
▁cc	-9875
▁dB	-9876
▁ko	-9877
▁pl	-9878
▁चछ	-9879
▁प०	-9880
▁भन	-9881
earn	-9882
▁Bhā	-9883
▁Bro	-9884
▁ING	-9885
▁ION	-9886
▁Set	-9887
▁TeX	-9888
▁__"	-9889
▁ara	-9890
▁bir	-9891
▁kha	-9892
▁nam	-9893
▁ond	-9894
▁quo	-9895
▁say	-9896
▁tru	-9897
▁अभी	-9898
▁आचा	-9899
▁इको	-9900
▁ऐसी	-9901
▁कटं	-9902
▁कमर	-9903
▁जपो	-9904
▁थाय	-9905
▁थिन	-9906
▁दिष	-9907
▁पीई	-9908
▁फोन	-9909
▁मेण	-9910
▁यदे	-9911
▁यहं	-9912
▁रकर	-9913
▁हयः	-9914
▁िदे	-9915
▁िषय	-9916
▁ैत्	-9917
▁्चय	-9918
▁्छे	-9919
▁्फु	-9920
▁्रष	-9921
▁Tech	-9922
▁dele	-9923
▁क्ये	-9924
▁गान्	-9925
▁ज्ज्	-9926
▁वारा	-9927
▁वेश्	-9928
▁श्या	-9929
▁ानस्	-9930
▁्भवत	-9931
▁ndows	-9932
▁rched	-9933
▁अन्यथ	-9934
▁तद्वि	-9935
▁दक्षि	-9936
▁्पत्त	-9937
ml	-9938
ām	-9939
ळे	-9940
शं	-9941
▁§	-9942
▁ś	-9943
ath	-9944
dio	-9945
ing	-9946
ायत	-9947
▁5-	-9948
▁BS	-9949
▁Fe	-9950
▁Lu	-9951
▁OS	-9952
▁Pu	-9953
▁ap	-9954
▁il	-9955
▁अ॰	-9956
▁आइ	-9957
▁आए	-9958
▁गए	-9959
▁घे	-9960
▁ञो	-9961
▁Bra	-9962
▁Ind	-9963
▁Now	-9964
▁OEM	-9965
▁Sec	-9966
▁[5]	-9967
▁cer	-9968
▁ent	-9969
▁jpg	-9970
▁sex	-9971
▁tta	-9972
▁val	-9973
▁अजा	-9974
▁अनं	-9975
▁अहॊ	-9976
▁आयः	-9977
▁इक्	-9978
▁ऊपर	-9979
▁एफ्	-9980
▁ऑफ्	-9981
▁कटे	-9982
▁गरा	-9983
▁घनं	-9984
▁थमा	-9985
▁थार	-9986
▁पदस	-9987
▁यणः	-9988
▁शका	-9989
▁िधी	-9990
▁ीदृ	-9991
▁ुति	-9992
▁्गा	-9993
▁्सम	-9994
▁१५७	-9995
▁१९१	-9996
▁१९३	-9997
▁२६९	-9998
▁Bhāg	-9999
▁good	-10000
▁hows	-10001
▁ress	-10002
▁क्तव	-10003
▁च्यत	-10004
▁नाद्	-10005
▁निन्	-10006
▁रिये	-10007
▁र्था	-10008
▁ानाद	-10009
▁्छेद	-10010
▁्रार	-10011
▁email	-10012
▁first	-10013
▁किंचि	-10014
▁तित्व	-10015
▁यायां	-10016
▁यार्थ	-10017
▁ादीना	-10018
▁िष्या	-10019
▁्माभि	-10020
CC	-10021
LE	-10022
MP	-10023
be	-10024
zy	-10025
ऊँ	-10026
ञः	-10027
▁ો	-10028
▁ம	-10029
▁ത	-10030
▁་	-10031
▁🇮	-10032
ght	-10033
ini	-10034
ror	-10035
yan	-10036
▁-.	-10037
▁2/	-10038
▁CE	-10039
▁CS	-10040
▁Cy	-10041
▁JP	-10042
▁LL	-10043
▁NO	-10044
▁_)	-10045
▁ck	-10046
▁uk	-10047
▁xi	-10048
▁अि	-10049
▁चथ	-10050
▁जट	-10051
▁णद	-10052
▁भई	-10053
▁१ः	-10054
eath	-10055
▁25.	-10056
▁38]	-10057
▁Geo	-10058
▁Inc	-10059
▁boy	-10060
▁cti	-10061
▁ngh	-10062
▁ori	-10063
▁par	-10064
▁ram	-10065
▁sun	-10066
▁tal	-10067
▁ven	-10068
▁ंधा	-10069
▁आये	-10070
▁उसे	-10071
▁ऋणी	-10072
▁खगः	-10073
▁चैष	-10074
▁झीत	-10075
▁नसा	-10076
▁पलं	-10077
▁भयम	-10078
▁वसो	-10079
▁शार	-10080
▁शॉप	-10081
▁सिद	-10082
▁हेः	-10083
▁ारप	-10084
▁ितय	-10085
▁ृशा	-10086
▁ोगि	-10087
▁्मक	-10088
▁१५२	-10089
▁Deta	-10090
▁Free	-10091
▁like	-10092
▁many	-10093
▁pers	-10094
▁चारि	-10095
▁तियो	-10096
▁त्यर	-10097
▁त्वप	-10098
▁नुष्	-10099
▁न्मु	-10100
▁श्वं	-10101
▁ियते	-10102
▁्ट्व	-10103
▁्वतः	-10104
▁First	-10105
▁Press	-10106
▁व्याय	-10107
▁्ञायत	-10108
▁्द्रा	-10109
▁्यापि	-10110
▁्रान्	-10111
TS	-10112
ja	-10113
xi	-10114
अप	-10115
भो	-10116
▁¢	-10117
▁ऺ	-10118
▁ે	-10119
mes	-10120
▁-3	-10121
▁3,	-10122
▁8:	-10123
▁9)	-10124
▁9:	-10125
▁CM	-10126
▁EC	-10127
▁Fr	-10128
▁RI	-10129
▁bj	-10130
▁id	-10131
▁Śi	-10132
▁आठ	-10133
▁घः	-10134
▁००	-10135
▁1.2	-10136
▁Eco	-10137
▁Son	-10138
▁URL	-10139
▁USD	-10140
▁[1]	-10141
▁ful	-10142
▁gen	-10143
▁ges	-10144
▁hel	-10145
▁our	-10146
▁rma	-10147
▁rus	-10148
▁ंग्	-10149
▁अझं	-10150
▁अथव	-10151
▁अपो	-10152
▁अयः	-10153
▁आपि	-10154
▁इहि	-10155
▁ईशे	-10156
▁उभा	-10157
▁कोः	-10158
▁चास	-10159
▁नरम	-10160
▁न॑ः	-10161
▁यवं	-10162
▁रभव	-10163
▁वरम	-10164
▁वो॒	-10165
▁शसि	-10166
▁शाः	-10167
▁साः	-10168
▁िकव	-10169
▁िशय	-10170
▁ीनं	-10171
▁ुकू	-10172
▁्थन	-10173
▁्ध्	-10174
▁्रन	-10175
▁११३	-10176
▁१९२	-10177
▁८००	-10178
▁Late	-10179
▁NEWS	-10180
▁Resp	-10181
▁Sama	-10182
▁airs	-10183
▁body	-10184
▁have	-10185
▁reta	-10186
▁test	-10187
▁तादि	-10188
▁नुवर	-10189
▁यत्व	-10190
▁यावर	-10191
▁रविश	-10192
▁रस्थ	-10193
▁वादश	-10194
▁ृह्ण	-10195
▁्ययो	-10196
▁्वम्	-10197
▁Engli	-10198
▁Story	-10199
▁board	-10200
▁क्षाय	-10201
▁नुसंध	-10202
▁याद्य	-10203
▁श्यते	-10204
▁िकारि	-10205
▁ुर्वि	-10206
OO	-10207
gu	-10208
अव	-10209
दे	-10210
मं	-10211
▁ñ	-10212
▁̥	-10213
▁в	-10214
▁с	-10215
▁್	-10216
▁🌷	-10217
ari	-10218
lot	-10219
lut	-10220
oot	-10221
vel	-10222
▁"%	-10223
▁'।	-10224
▁(0	-10225
▁2,	-10226
▁4-	-10227
▁83	-10228
▁92	-10229
▁DR	-10230
▁DV	-10231
▁SU	-10232
▁dh	-10233
▁ku	-10234
▁ob	-10235
▁इल	-10236
▁उर	-10237
▁जौ	-10238
▁यड	-10239
▁यॆ	-10240
▁शठ	-10241
▁षन	-10242
ster	-10243
▁26.	-10244
▁CGL	-10245
▁Fil	-10246
▁Mon	-10247
▁Ref	-10248
▁Sun	-10249
▁Ter	-10250
▁[2]	-10251
▁ean	-10252
▁ear	-10253
▁eri	-10254
▁ert	-10255
▁mes	-10256
▁mil	-10257
▁rya	-10258
▁उमा	-10259
▁ऋणे	-10260
▁कदम	-10261
▁कमे	-10262
▁कलम	-10263
▁घोर	-10264
▁चत्	-10265
▁दक्	-10266
▁दवे	-10267
▁नलः	-10268
▁पचा	-10269
▁बने	-10270
▁भरा	-10271
▁भा॰	-10272
▁भूल	-10273
▁योत	-10274
▁शयत	-10275
▁षेध	-10276
▁सता	-10277
▁ुःख	-10278
▁ूत्	-10279
▁्थे	-10280
▁्वच	-10281
▁११५	-10282
▁१२९	-10283
▁१४४	-10284
▁१६१	-10285
▁१७८	-10286
▁६००	-10287
▁Data	-10288
▁Only	-10289
▁Plus	-10290
▁Poli	-10291
▁Your	-10292
▁come	-10293
▁filt	-10294
▁firm	-10295
▁home	-10296
▁noun	-10297
▁resp	-10298
▁revi	-10299
▁ंवत्	-10300
▁करणम	-10301
▁ञ्चि	-10302
▁दाति	-10303
▁पात्	-10304
▁मासा	-10305
▁र्णः	-10306
▁र्दि	-10307
▁हिला	-10308
▁िनाश	-10309
▁्राग	-10310
▁Apple	-10311
▁group	-10312
▁क्षात	-10313
▁त्यान	-10314
▁वादित	-10315
▁विस्म	-10316
▁ानस्य	-10317
▁ामर्थ	-10318
▁्रेष्	-10319
CL	-10320
Ha	-10321
ux	-10322
डे	-10323
शो	-10324
सु	-10325
▁Ž	-10326
▁ˆ	-10327
▁л	-10328
▁ய	-10329
▁ு	-10330
▁🚩	-10331
ATE	-10332
DEO	-10333
ool	-10334
per	-10335
ves	-10336
▁AD	-10337
▁AF	-10338
▁Ke	-10339
▁TR	-10340
▁cy	-10341
▁db	-10342
▁mA	-10343
▁pe	-10344
▁ps	-10345
▁अफ	-10346
▁ऎं	-10347
▁तध	-10348
▁थल	-10349
▁रट	-10350
▁हँ	-10351
▁०७	-10352
▁21.	-10353
▁Add	-10354
▁Air	-10355
▁Any	-10356
▁Lin	-10357
▁bro	-10358
▁rge	-10359
▁rth	-10360
▁tus	-10361
▁अणु	-10362
▁अय्	-10363
▁अहह	-10364
▁आधा	-10365
▁आसु	-10366
▁इंच	-10367
▁एल्	-10368
▁ओजः	-10369
▁कटु	-10370
▁खोई	-10371
▁गती	-10372
▁चाथ	-10373
▁डित	-10374
▁थमं	-10375
▁धनि	-10376
▁नरॊ	-10377
▁पयु	-10378
▁भीः	-10379
▁मदो	-10380
▁मरे	-10381
▁यदु	-10382
▁यप्	-10383
▁याध	-10384
▁रब्	-10385
▁लस्	-10386
▁वृद	-10387
▁षते	-10388
▁हलं	-10389
▁होद	-10390
▁िरप	-10391
▁ुदि	-10392
▁्वभ	-10393
▁्षत	-10394
▁१४०	-10395
▁१९५	-10396
▁१९६	-10397
▁Abla	-10398
▁Gita	-10399
▁Inde	-10400
▁NDLI	-10401
▁comm	-10402
▁गस्य	-10403
▁ज्ये	-10404
▁तरिक	-10405
▁त्पु	-10406
▁ध्यय	-10407
▁नियो	-10408
▁न्वे	-10409
▁रेषु	-10410
▁वृद्	-10411
▁व्यक	-10412
▁्तेष	-10413
▁्यश्	-10414
▁State	-10415
▁VIDEO	-10416
▁conte	-10417
▁त्यत्	-10418
▁त्यया	-10419
▁द्वाद	-10420
▁ष्ट्व	-10421
▁िकाया	-10422
▁ूर्वम	-10423
BS	-10424
Np	-10425
TP	-10426
um	-10427
▁¤	-10428
▁વ	-10429
▁♦	-10430
asy	-10431
min	-10432
▁*।	-10433
▁5,	-10434
▁6-	-10435
▁At	-10436
▁BR	-10437
▁Bg	-10438
▁EX	-10439
▁IO	-10440
▁IR	-10441
▁PP	-10442
▁Ph	-10443
▁SH	-10444
▁[4	-10445
▁mG	-10446
▁mr	-10447
▁pM	-10448
▁pu	-10449
▁कभ	-10450
▁घ॰	-10451
▁बः	-10452
▁बढ	-10453
▁य॒	-10454
▁रख	-10455
▁वष	-10456
▁शङ	-10457
▁़ा	-10458
▁ीघ	-10459
▁५ः	-10460
ours	-10461
reak	-10462
▁108	-10463
▁120	-10464
▁Aff	-10465
▁Age	-10466
▁Ten	-10467
▁ale	-10468
▁cri	-10469
▁ele	-10470
▁mar	-10471
▁nes	-10472
▁ord	-10473
▁sto	-10474
▁way	-10475
▁अने	-10476
▁आतो	-10477
▁ऊती	-10478
▁एचः	-10479
▁एसो	-10480
▁कटः	-10481
▁कफे	-10482
▁काप	-10483
▁कोण	-10484
▁खरे	-10485
▁गले	-10486
▁गहन	-10487
▁चने	-10488
▁जकं	-10489
▁जाई	-10490
▁णैः	-10491
▁तपॊ	-10492
▁ताश	-10493
▁तृभ	-10494
▁थक्	-10495
▁दुख	-10496
▁धरे	-10497
▁नमि	-10498
▁नयः	-10499
▁पटः	-10500
▁पटे	-10501
▁पणः	-10502
▁पया	-10503
▁पर०	-10504
▁यनि	-10505
▁हरो	-10506
▁हेम	-10507
▁ऽतर	-10508
▁ीव्	-10509
▁ृशः	-10510
▁्रच	-10511
▁्श्	-10512
▁्सव	-10513
▁१११	-10514
▁१३५	-10515
▁१७४	-10516
▁१७७	-10517
▁१८५	-10518
▁३६०	-10519
▁June	-10520
▁Over	-10521
▁Port	-10522
▁Scie	-10523
▁This	-10524
▁VIII	-10525
▁gust	-10526
▁lock	-10527
▁mark	-10528
▁mind	-10529
▁move	-10530
▁nder	-10531
▁nyms	-10532
▁rrow	-10533
▁said	-10534
▁tics	-10535
▁tube	-10536
▁ward	-10537
▁what	-10538
▁तद्द	-10539
▁त्पत	-10540
▁त्यभ	-10541
▁दिभि	-10542
▁दिव्	-10543
▁नास्	-10544
▁पदान	-10545
▁परिम	-10546
▁यस्म	-10547
▁र्णा	-10548
▁वाहा	-10549
▁ह्मण	-10550
▁िर्ज	-10551
▁्नित	-10552
▁्रयत	-10553
▁mster	-10554
▁त्तम्	-10555
▁त्युप	-10556
▁लानां	-10557
▁स्तम्	-10558
▁्त्र्	-10559
.।	-10560
AY	-10561
GC	-10562
IL	-10563
ME	-10564
lk	-10565
ال	-10566
ठे	-10567
▁Î	-10568
▁આ	-10569
▁ક	-10570
▁ர	-10571
▁வ	-10572
▁ര	-10573
▁∕	-10574
▁🌹	-10575
asa	-10576
now	-10577
▁(→	-10578
▁*)	-10579
▁5%	-10580
▁6)	-10581
▁8,	-10582
▁CB	-10583
▁PH	-10584
▁Tv	-10585
▁Vs	-10586
▁aH	-10587
▁ff	-10588
▁hd	-10589
▁ji	-10590
▁rt	-10591
▁ts	-10592
▁छह	-10593
▁झा	-10594
▁डं	-10595
▁ड॰	-10596
▁भत	-10597
▁वड	-10598
each	-10599
▁11,	-10600
▁16.	-10601
▁18,	-10602
▁Ben	-10603
▁Des	-10604
▁Dra	-10605
▁Fra	-10606
▁Log	-10607
▁Per	-10608
▁ari	-10609
▁der	-10610
▁lti	-10611
▁nue	-10612
▁ory	-10613
▁ंहि	-10614
▁आमि	-10615
▁आसय	-10616
▁इदा	-10617
▁उतो	-10618
▁कल्	-10619
▁गमः	-10620
▁जगह	-10621
▁जहौ	-10622
▁जाण	-10623
▁जिउ	-10624
▁णिन	-10625
▁थिर	-10626
▁दधा	-10627
▁पपौ	-10628
▁पेक	-10629
▁पैक	-10630
▁बलम	-10631
▁बीत	-10632
▁यकि	-10633
▁यञ्	-10634
▁रवं	-10635
▁रहो	-10636
▁लटि	-10637
▁वसः	-10638
▁वोक	-10639
▁शने	-10640
▁षष्	-10641
▁षेत	-10642
▁सूं	-10643
▁हये	-10644
▁हाव	-10645
▁ापे	-10646
▁ालम	-10647
▁ुवर	-10648
▁ेदः	-10649
▁्डि	-10650
▁१३१	-10651
▁१५८	-10652
▁१८८	-10653
▁१८९	-10654
▁१९९	-10655
▁Geni	-10656
▁Syno	-10657
▁What	-10658
▁demy	-10659
▁flix	-10660
▁mail	-10661
▁ster	-10662
▁द्रं	-10663
▁यादि	-10664
▁याभि	-10665
▁रिद्	-10666
▁वागत	-10667
▁शिष्	-10668
▁ैश्व	-10669
▁्छन्	-10670
▁्नेह	-10671
▁्येऽ	-10672
▁्रोक	-10673
▁Start	-10674
▁video	-10675
▁त्सर्	-10676
▁द्धम्	-10677
▁वीकृत	-10678
▁सर्वश	-10679
▁ुद्धि	-10680
▁ृत्या	-10681
▁्प्रा	-10682
MC	-10683
MS	-10684
ji	-10685
sy	-10686
य्	-10687
सो	-10688
▁т	-10689
▁্	-10690
▁പ	-10691
▁⁄	-10692
▁🇳	-10693
ANS	-10694
VID	-10695
rie	-10696
sty	-10697
▁#1	-10698
▁-*	-10699
▁8-	-10700
▁97	-10701
▁AU	-10702
▁Bi	-10703
▁Du	-10704
▁ES	-10705
▁GO	-10706
▁OM	-10707
▁WM	-10708
▁hu	-10709
▁ir	-10710
▁js	-10711
▁rg	-10712
▁wo	-10713
▁{.	-10714
▁इध	-10715
▁उं	-10716
▁उण	-10717
▁गट	-10718
▁च०	-10719
▁झन	-10720
▁टै	-10721
▁नए	-10722
luts	-10723
ther	-10724
▁Ana	-10725
▁Blu	-10726
▁Not	-10727
▁OBC	-10728
▁PRO	-10729
▁bea	-10730
▁mas	-10731
▁tax	-10732
▁अजो	-10733
▁आङि	-10734
▁आङ्	-10735
▁आनय	-10736
▁आप्	-10737
▁ऋचो	-10738
▁एतच	-10739
▁एनी	-10740
▁कदे	-10741
▁कमी	-10742
▁किः	-10743
▁गैर	-10744
▁घटा	-10745
▁घरे	-10746
▁चोर	-10747
▁छिः	-10748
▁तव॒	-10749
▁तें	-10750
▁दयं	-10751
▁दुत	-10752
▁नवः	-10753
▁नौः	-10754
▁पनि	-10755
▁पॉप	-10756
▁मिस	-10757
▁यपि	-10758
▁रतौ	-10759
▁रिं	-10760
▁शरं	-10761
▁सएव	-10762
▁सचा	-10763
▁सदः	-10764
▁सवं	-10765
▁सोई	-10766
▁ातम	-10767
▁ाधु	-10768
▁ितक	-10769
▁िनम	-10770
▁िपक	-10771
▁ेतव	-10772
▁ेपा	-10773
▁्पण	-10774
▁्वक	-10775
▁११४	-10776
▁१२५	-10777
▁१४८	-10778
▁१७५	-10779
▁Digi	-10780
▁Last	-10781
▁Real	-10782
▁Solu	-10783
▁Step	-10784
▁dash	-10785
▁ersi	-10786
▁fail	-10787
▁foll	-10788
▁kind	-10789
▁list	-10790
▁pass	-10791
▁यप्र	-10792
▁ल्पन	-10793
▁वेषु	-10794
▁षिता	-10795
▁िताम	-10796
▁ुत्व	-10797
▁ुर्ग	-10798
▁ुवन्	-10799
▁्ज्ञ	-10800
▁्ताम	-10801
▁्यक्	-10802
▁्रेम	-10803
▁्वर्	-10804
▁Ameri	-10805
▁Linux	-10806
▁Never	-10807
▁Other	-10808
▁Reply	-10809
▁Views	-10810
▁archi	-10811
▁space	-10812
▁world	-10813
▁तिस्त	-10814
▁त्तस्	-10815
▁द्यात	-10816
▁रोक्त	-10817
▁र्वम्	-10818
▁र्शयत	-10819
IR	-10820
hu	-10821
py	-10822
छि	-10823
जु	-10824
ठन	-10825
नो	-10826
▁ç	-10827
▁ˈ	-10828
▁જ	-10829
▁ப	-10830
▁ം	-10831
▁വ	-10832
▁െ	-10833
▁ᳪ	-10834
AST	-10835
eni	-10836
hen	-10837
oms	-10838
orn	-10839
pha	-10840
▁#2	-10841
▁'"	-10842
▁(*	-10843
▁."	-10844
▁00	-10845
▁Ac	-10846
▁Ce	-10847
▁Ei	-10848
▁Hd	-10849
▁IF	-10850
▁It	-10851
▁PN	-10852
▁VS	-10853
▁ic	-10854
▁ph	-10855
▁xy	-10856
▁औँ	-10857
▁छन	-10858
▁नथ	-10859
▁फी	-10860
▁बम	-10861
▁ाि	-10862
▁ैद	-10863
▁०६	-10864
▁३ः	-10865
▁28.	-10866
▁Cri	-10867
▁Dan	-10868
▁Dri	-10869
▁ENG	-10870
▁Jul	-10871
▁Pat	-10872
▁Vol	-10873
▁Yes	-10874
▁bot	-10875
▁che	-10876
▁emp	-10877
▁ext	-10878
▁iOS	-10879
▁ics	-10880
▁kam	-10881
▁nch	-10882
▁nds	-10883
▁ndu	-10884
▁nty	-10885
▁que	-10886
▁ret	-10887
▁san	-10888
▁whi	-10889
▁अजय	-10890
▁अरु	-10891
▁अली	-10892
▁आपे	-10893
▁इडा	-10894
▁इथं	-10895
▁इषे	-10896
▁ऋक्	-10897
▁एच्	-10898
▁ए॒व	-10899
▁कवर	-10900
▁छान	-10901
▁जपः	-10902
▁तनौ	-10903
▁तरह	-10904
▁तैं	-10905
▁तोर	-10906
▁नञ्	-10907
▁पीर	-10908
▁फिर	-10909
▁बैक	-10910
▁मीन	-10911
▁मे॒	-10912
▁यमे	-10913
▁यौन	-10914
▁रमः	-10915
▁रिभ	-10916
▁वदि	-10917
▁शवः	-10918
▁सही	-10919
▁साग	-10920
▁ामप	-10921
▁िमन	-10922
▁िशत	-10923
▁्ठि	-10924
▁्प्	-10925
▁्भु	-10926
▁१७९	-10927
▁१८०	-10928
▁१८३	-10929
▁१९०	-10930
▁Gyan	-10931
▁Head	-10932
▁Less	-10933
▁Noun	-10934
▁Quiz	-10935
▁Reco	-10936
▁Star	-10937
▁Talk	-10938
▁cate	-10939
▁defi	-10940
▁late	-10941
▁ntra	-10942
▁over	-10943
▁upda	-10944
▁verb	-10945
▁क्तस	-10946
▁द्दि	-10947
▁भविष	-10948
▁रहस्	-10949
▁राज्	-10950
▁लाया	-10951
▁ल्पे	-10952
▁श्यन	-10953
▁षत्र	-10954
▁समस्	-10955
▁ाराः	-10956
▁ाषाय	-10957
▁ासस्	-10958
▁्करण	-10959
▁्बन्	-10960
▁्लेष	-10961
▁Speci	-10962
▁रत्या	-10963
▁ाधिकर	-10964
ne	-10965
od	-10966
zi	-10967
अं	-10968
आः	-10969
जि	-10970
जे	-10971
यि	-10972
वे	-10973
षः	-10974
सह	-10975
॒थ	-10976
१४	-10977
▁ó	-10978
▁સ	-10979
▁க	-10980
▁ട	-10981
eac	-10982
ste	-10983
unt	-10984
▁-'	-10985
▁-:	-10986
▁AS	-10987
▁CC	-10988
▁DE	-10989
▁DU	-10990
▁Fu	-10991
▁GS	-10992
▁Hz	-10993
▁IA	-10994
▁SL	-10995
▁hy	-10996
▁ld	-10997
▁tr	-10998
▁अट	-10999
▁इः	-11000
▁ओर	-11001
▁क०	-11002
▁छप	-11003
▁भ॰	-11004
▁ऽग	-11005
stro	-11006
▁(10	-11007
▁1.5	-11008
▁10)	-11009
▁10,	-11010
▁27,	-11011
▁600	-11012
▁ACT	-11013
▁Bio	-11014
▁Can	-11015
▁Cra	-11016
▁EUR	-11017
▁IPC	-11018
▁Inf	-11019
▁LLM	-11020
▁Mac	-11021
▁Max	-11022
▁Men	-11023
▁Old	-11024
▁SBI	-11025
▁Tax	-11026
▁WHO	-11027
▁aly	-11028
▁eve	-11029
▁glo	-11030
▁kal	-11031
▁mum	-11032
▁pus	-11033
▁sen	-11034
▁sms	-11035
▁tha	-11036
▁tic	-11037
▁tip	-11038
▁tri	-11039
▁अग्	-11040
▁अघं	-11041
▁अचो	-11042
▁आरे	-11043
▁इणः	-11044
▁इये	-11045
▁इषं	-11046
▁उपक	-11047
▁उप॑	-11048
▁ओशो	-11049
▁कोश	-11050
▁गठन	-11051
▁गतॊ	-11052
▁जडः	-11053
▁जयी	-11054
▁टैग	-11055
▁ती०	-11056
▁धवन	-11057
▁नगद	-11058
▁नमु	-11059
▁नुभ	-11060
▁पशव	-11061
▁पौष	-11062
▁बस्	-11063
▁बाः	-11064
▁भूख	-11065
▁मज्	-11066
▁माई	-11067
▁मौन	-11068
▁यमौ	-11069
▁या०	-11070
▁रजत	-11071
▁रसम	-11072
▁लकः	-11073
▁लबः	-11074
▁लोड	-11075
▁वचॊ	-11076
▁शहर	-11077
▁षति	-11078
▁सकं	-11079
▁सरो	-11080
▁सेः	-11081
▁ामध	-11082
▁ाह्	-11083
▁ाऽप	-11084
▁ूयं	-11085
▁ेतत	-11086
▁ोगो	-11087
▁ोलि	-11088
▁्तै	-11089
▁्रर	-11090
▁१४१	-11091
▁१९८	-11092
▁२०७	-11093
▁Arti	-11094
▁Back	-11095
▁CTET	-11096
▁Defi	-11097
▁Face	-11098
▁Indi	-11099
▁LESS	-11100
▁Loca	-11101
▁Manu	-11102
▁Mood	-11103
▁Nove	-11104
▁Rock	-11105
▁Work	-11106
▁Yoga	-11107
▁cros	-11108
▁days	-11109
▁even	-11110
▁face	-11111
▁tell	-11112
▁चिकि	-11113
▁जनान	-11114
▁ट्री	-11115
▁त्वि	-11116
▁थिता	-11117
▁द्धम	-11118
▁पेक्	-11119
▁यार्	-11120
▁येषा	-11121
▁रियत	-11122
▁्मनः	-11123
▁्युक	-11124
▁्रवा	-11125
▁्वचि	-11126
▁Black	-11127
▁Febru	-11128
▁Movie	-11129
▁error	-11130
▁newwi	-11131
▁words	-11132
▁परस्प	-11133
▁ब्देन	-11134
▁िशेषे	-11135
▁ुत्रः	-11136
▁ुत्रा	-11137
▁ुष्मा	-11138
▁्रथमं	-11139
--	-11140
6.	-11141
ek	-11142
fs	-11143
ok	-11144
op	-11145
vt	-11146
ऊ०	-11147
धे	-11148
हा	-11149
▁Ó	-11150
▁з	-11151
▁ऒ	-11152
▁া	-11153
▁ḥ	-11154
▁✅	-11155
ー語	-11156
ity	-11157
lag	-11158
uni	-11159
▁1।	-11160
▁4,	-11161
▁7)	-11162
▁7,	-11163
▁8)	-11164
▁BL	-11165
▁ET	-11166
▁Eg	-11167
▁FA	-11168
▁Hu	-11169
▁IX	-11170
▁MA	-11171
▁RA	-11172
▁TC	-11173
▁VP	-11174
▁Wa	-11175
▁XP	-11176
▁Ye	-11177
▁[6	-11178
▁[?	-11179
▁ai	-11180
▁cs	-11181
▁ep	-11182
▁yo	-11183
▁आओ	-11184
▁एई	-11185
▁एट	-11186
▁जब	-11187
▁भल	-11188
▁यभ	-11189
▁ॐय	-11190
ouse	-11191
▁102	-11192
▁128	-11193
▁23.	-11194
▁Act	-11195
▁Bir	-11196
▁DVD	-11197
▁How	-11198
▁IPA	-11199
▁OFF	-11200
▁Pho	-11201
▁Whi	-11202
▁Who	-11203
▁acc	-11204
▁don	-11205
▁era	-11206
▁goo	-11207
▁kta	-11208
▁lle	-11209
▁mer	-11210
▁nta	-11211
▁rea	-11212
▁rna	-11213
▁sts	-11214
▁use	-11215
▁ंभव	-11216
▁अछा	-11217
▁अजं	-11218
▁अट्	-11219
▁अरं	-11220
▁इटः	-11221
▁उषः	-11222
▁ऋचि	-11223
▁ऋतः	-11224
▁ऋषि	-11225
▁एवे	-11226
▁कूप	-11227
▁क्न	-11228
▁खरो	-11229
▁खां	-11230
▁खुप	-11231
▁घनः	-11232
▁ठति	-11233
▁डिय	-11234
▁ढक्	-11235
▁तहि	-11236
▁थलि	-11237
▁ददे	-11238
▁दधौ	-11239
▁दोन	-11240
▁धूम	-11241
▁नतं	-11242
▁नवी	-11243
▁न॒ः	-11244
▁बजट	-11245
▁मदे	-11246
▁रथा	-11247
▁रीम	-11248
▁लभे	-11249
▁वरौ	-11250
▁वेः	-11251
▁वोत	-11252
▁शत०	-11253
▁शाह	-11254
▁षस्	-11255
▁साई	-11256
▁हलो	-11257
▁ीडि	-11258
▁ीवि	-11259
▁ेवः	-11260
▁ोषः	-11261
▁१४९	-11262
▁१८१	-11263
▁Beau	-11264
▁Easy	-11265
▁MPSC	-11266
▁Main	-11267
▁Mark	-11268
▁Remo	-11269
▁Soft	-11270
▁Team	-11271
▁caus	-11272
▁done	-11273
▁fact	-11274
▁ngle	-11275
▁rces	-11276
▁retu	-11277
▁sawi	-11278
▁some	-11279
▁spee	-11280
▁tree	-11281
▁अमेर	-11282
▁गत्व	-11283
▁त्यध	-11284
▁त्यप	-11285
▁धार्	-11286
▁ध्रु	-11287
▁पादि	-11288
▁प्ते	-11289
▁प्रध	-11290
▁प्रप	-11291
▁म्भा	-11292
▁वेत्	-11293
▁ात्क	-11294
▁ारये	-11295
▁ावस्	-11296
▁्वमि	-11297
▁Block	-11298
▁COVID	-11299
▁Conti	-11300
▁Times	-11301
▁image	-11302
▁links	-11303
▁state	-11304
▁म्पूर	-11305
▁यवस्थ	-11306
▁संस्क	-11307
▁्याया	-11308
3.	-11309
4.	-11310
LL	-11311
UM	-11312
ju	-11313
pm	-11314
rs	-11315
ढ़	-11316
▁®	-11317
▁è	-11318
▁б	-11319
▁യ	-11320
▁❌	-11321
aga	-11322
ami	-11323
ask	-11324
clu	-11325
ina	-11326
ins	-11327
ted	-11328
▁/3	-11329
▁9,	-11330
▁<<	-11331
▁Bs	-11332
▁Em	-11333
▁Hy	-11334
▁IQ	-11335
▁TI	-11336
▁VT	-11337
▁iP	-11338
▁ŚB	-11339
▁ال	-11340
▁आँ	-11341
▁एह	-11342
▁खम	-11343
▁जइ	-11344
▁तइ	-11345
▁फं	-11346
▁भॊ	-11347
▁रघ	-11348
▁०९	-11349
▁४ः	-11350
addy	-11351
ages	-11352
eave	-11353
ubli	-11354
▁110	-11355
▁125	-11356
▁19,	-11357
▁22.	-11358
▁27.	-11359
▁37.	-11360
▁Ari	-11361
▁Brh	-11362
▁Cal	-11363
▁Dar	-11364
▁Exa	-11365
▁Hal	-11366
▁Rām	-11367
▁She	-11368
▁Slo	-11369
▁TER	-11370
▁[4]	-11371
▁aga	-11372
▁clo	-11373
▁cut	-11374
▁dom	-11375
▁fit	-11376
▁mal	-11377
▁mic	-11378
▁non	-11379
▁off	-11380
▁pic	-11381
▁ral	-11382
▁tel	-11383
▁ten	-11384
▁tty	-11385
▁two	-11386
▁vil	-11387
▁अथः	-11388
▁अनत	-11389
▁अबु	-11390
▁अमः	-11391
▁असे	-11392
▁इनः	-11393
▁इमि	-11394
▁ईश्	-11395
▁ऋणः	-11396
▁ऋतव	-11397
▁ओफ्	-11398
▁कडा	-11399
▁कहि	-11400
▁गणा	-11401
▁गुम	-11402
▁चिं	-11403
▁झलि	-11404
▁टॉप	-11405
▁तजि	-11406
▁तमम	-11407
▁तमॊ	-11408
▁तों	-11409
▁दले	-11410
▁नवि	-11411
▁नीच	-11412
▁परौ	-11413
▁पाथ	-11414
▁बैठ	-11415
▁मङ्	-11416
▁मदद	-11417
▁मनौ	-11418
▁ययि	-11419
▁रमु	-11420
▁लगे	-11421
▁विअ	-11422
▁विय	-11423
▁शपथ	-11424
▁शमः	-11425
▁शरः	-11426
▁सवे	-11427
▁सहे	-11428
▁ाऽस	-11429
▁िध्	-11430
▁ुंस	-11431
▁ुषः	-11432
▁ेहा	-11433
▁्गे	-11434
▁्मस	-11435
▁्षन	-11436
▁१२७	-11437
▁१४३	-11438
▁१६३	-11439
▁१६९	-11440
▁१७३	-11441
▁१७६	-11442
▁१८४	-11443
▁१९४	-11444
▁३७०	-11445
▁DRDO	-11446
▁IBPS	-11447
▁Veda	-11448
▁Word	-11449
▁deri	-11450
▁fire	-11451
▁need	-11452
▁nter	-11453
▁thou	-11454
▁tice	-11455
▁ttle	-11456
▁ware	-11457
▁ंयोग	-11458
▁काना	-11459
▁च्छन	-11460
▁ज्यम	-11461
▁निपा	-11462
▁मुक्	-11463
▁यित्	-11464
▁रथमं	-11465
▁रवीत	-11466
▁विधी	-11467
▁सैन्	-11468
▁िपत्	-11469
▁िरिक	-11470
▁ृदये	-11471
▁्तद्	-11472
▁्याध	-11473
▁्षम्	-11474
▁Crazy	-11475
▁ccess	-11476
▁hours	-11477
▁nepal	-11478
▁speak	-11479
▁सप्ता	-11480
▁िष्टा	-11481
▁्तात्	-11482
▁्यावर	-11483
▁्रुति	-11484
"।	-11485
7.	-11486
As	-11487
Bo	-11488
GT	-11489
JP	-11490
Li	-11491
Ls	-11492
TV	-11493
UE	-11494
UT	-11495
wn	-11496
ys	-11497
ओं	-11498
कम	-11499
चः	-11500
छः	-11501
ञो	-11502
ठं	-11503
ड्	-11504
शि	-11505
▁ন	-11506
▁બ	-11507
▁ந	-11508
▁ṇ	-11509
▁ィ	-11510
ERT	-11511
ast	-11512
irl	-11513
ler	-11514
lly	-11515
omo	-11516
ond	-11517
ora	-11518
ven	-11519
▁$3	-11520
▁-4	-11521
▁-5	-11522
▁-6	-11523
▁BE	-11524
▁CI	-11525
▁CR	-11526
▁EV	-11527
▁Ek	-11528
▁FR	-11529
▁Im	-11530
▁OR	-11531
▁RO	-11532
▁XX	-11533
▁Yu	-11534
▁bb	-11535
▁cl	-11536
▁dr	-11537
▁ia	-11538
▁ib	-11539
▁jl	-11540
▁इ॒	-11541
▁उ॰	-11542
▁ऎष	-11543
▁ऐश	-11544
▁कॉ	-11545
▁ङ॰	-11546
▁छो	-11547
▁झू	-11548
▁टू	-11549
▁डट	-11550
▁द॰	-11551
▁भण	-11552
▁हइ	-11553
▁िे	-11554
▁ुञ	-11555
▁८ः	-11556
usic	-11557
▁(15	-11558
▁1/2	-11559
▁129	-11560
▁144	-11561
▁2.1	-11562
▁23,	-11563
▁3.1	-11564
▁35.	-11565
▁700	-11566
▁APK	-11567
▁Alt	-11568
▁Ama	-11569
▁Edu	-11570
▁IES	-11571
▁Jio	-11572
▁Lok	-11573
▁Mer	-11574
▁PhD	-11575
▁SCR	-11576
▁TET	-11577
▁Wel	-11578
▁als	-11579
▁cat	-11580
▁dec	-11581
▁dra	-11582
▁ern	-11583
▁fie	-11584
▁gar	-11585
▁let	-11586
▁lli	-11587
▁lor	-11588
▁mGs	-11589
▁nya	-11590
▁ore	-11591
▁ows	-11592
▁pta	-11593
▁reg	-11594
▁rse	-11595
▁rve	-11596
▁set	-11597
▁tch	-11598
▁अंश	-11599
▁अनः	-11600
▁आसं	-11601
▁इतॊ	-11602
▁उखे	-11603
▁उठे	-11604
▁उभ०	-11605
▁उरु	-11606
▁ऊनं	-11607
▁ओजो	-11608
▁कटौ	-11609
▁कवा	-11610
▁कात	-11611
▁गणक	-11612
▁गया	-11613
▁गरम	-11614
▁घटत	-11615
▁घोः	-11616
▁छति	-11617
▁जडं	-11618
▁तटं	-11619
▁तवत	-11620
▁तव॑	-11621
▁ता०	-11622
▁तुन	-11623
▁तॆन	-11624
▁परी	-11625
▁पृ॰	-11626
▁फरक	-11627
▁फलन	-11628
▁बलः	-11629
▁बार	-11630
▁बा०	-11631
▁भजन	-11632
▁भीम	-11633
▁माष	-11634
▁यूं	-11635
▁राई	-11636
▁रीण	-11637
▁लटः	-11638
▁वश्	-11639
▁शची	-11640
▁शपे	-11641
▁शमु	-11642
▁शा॰	-11643
▁सफू	-11644
▁सवः	-11645
▁होः	-11646
▁िधं	-11647
▁ुखं	-11648
▁ृतव	-11649
▁्के	-11650
▁्छा	-11651
▁११२	-11652
▁१४२	-11653
▁१५५	-11654
▁१७२	-11655
▁२०२	-11656
▁ィー語	-11657
▁Alot	-11658
▁BrhU	-11659
▁Comm	-11660
▁DUCT	-11661
▁Good	-11662
▁HTML	-11663
▁ISRO	-11664
▁Rama	-11665
▁auto	-11666
▁cent	-11667
▁ecti	-11668
▁enti	-11669
▁ghts	-11670
▁lord	-11671
▁omes	-11672
▁span	-11673
▁stic	-11674
▁तिपा	-11675
▁थितम	-11676
▁यतिर	-11677
▁युच्	-11678
▁राची	-11679
▁र्मो	-11680
▁र्वस	-11681
▁ुर्द	-11682
▁्तम्	-11683
▁्वाग	-11684
▁्वाण	-11685
▁Astro	-11686
▁Board	-11687
▁Paper	-11688
▁Short	-11689
▁nsclu	-11690
▁प्रदर	-11691
▁समुदा	-11692
▁ुक्तो	-11693
▁्तान्	-11694
▁्येष्	-11695
$1	-11696
2.	-11697
OR	-11698
PF	-11699
kh	-11700
ku	-11701
wk	-11702
yo	-11703
ठा	-11704
तौ	-11705
लं	-11706
वह	-11707
ॐॐ	-11708
१५	-11709
▁ऻ	-11710
▁ি	-11711
▁അ	-11712
▁മ	-11713
▁†	-11714
▁⇄	-11715
▁🔥	-11716
▁🛑	-11717
agi	-11718
ary	-11719
del	-11720
hal	-11721
tem	-11722
▁++	-11723
▁/-	-11724
▁2।	-11725
▁6,	-11726
▁BH	-11727
▁Bv	-11728
▁GI	-11729
▁Ge	-11730
▁MO	-11731
▁OP	-11732
▁Rv	-11733
▁bl	-11734
▁dv	-11735
▁pc	-11736
▁tt	-11737
▁wh	-11738
▁yu	-11739
▁zi	-11740
▁ऊर	-11741
▁ऐप	-11742
▁ओप	-11743
▁ङे	-11744
▁छै	-11745
▁पड	-11746
▁ब॰	-11747
▁सथ	-11748
▁हट	-11749
▁ह॒	-11750
erma	-11751
▁(-)	-11752
▁--)	-11753
▁10%	-11754
▁20,	-11755
▁21,	-11756
▁24,	-11757
▁26,	-11758
▁28,	-11759
▁33.	-11760
▁900	-11761
▁ALL	-11762
▁ANI	-11763
▁Aug	-11764
▁But	-11765
▁Ear	-11766
▁Fou	-11767
▁Get	-11768
▁ICC	-11769
▁PAR	-11770
▁PHP	-11771
▁Pay	-11772
▁Ubu	-11773
▁ani	-11774
▁ast	-11775
▁bel	-11776
▁bje	-11777
▁bla	-11778
▁but	-11779
▁gni	-11780
▁lla	-11781
▁nNs	-11782
▁ney	-11783
▁nga	-11784
▁nom	-11785
▁ntu	-11786
▁oft	-11787
▁own	-11788
▁pur	-11789
▁rev	-11790
▁sam	-11791
▁tam	-11792
▁was	-11793
▁अथ०	-11794
▁अमा	-11795
▁अलः	-11796
▁आतः	-11797
▁आमं	-11798
▁आवः	-11799
▁इवे	-11800
▁इषः	-11801
▁ईति	-11802
▁ईया	-11803
▁एष॒	-11804
▁ऑटो	-11805
▁ऑफ़	-11806
▁कलश	-11807
▁खम्	-11808
▁खेद	-11809
▁गजे	-11810
▁गौण	-11811
▁घटी	-11812
▁घने	-11813
▁चरम	-11814
▁चु०	-11815
▁जवे	-11816
▁झन्	-11817
▁ञाय	-11818
▁ञेय	-11819
▁तून	-11820
▁दमन	-11821
▁दलः	-11822
▁दश्	-11823
▁नद्	-11824
▁पणं	-11825
▁पशौ	-11826
▁पूः	-11827
▁बात	-11828
▁बिन	-11829
▁मवः	-11830
▁महल	-11831
▁मैच	-11832
▁यदी	-11833
▁यमी	-11834
▁ययन	-11835
▁यिद	-11836
▁रखे	-11837
▁रमस	-11838
▁रोः	-11839
▁लवः	-11840
▁लेष	-11841
▁लोभ	-11842
▁वो॑	-11843
▁शतृ	-11844
▁शपो	-11845
▁शमे	-11846
▁शरद	-11847
▁शवं	-11848
▁सनः	-11849
▁सोच	-11850
▁हतॊ	-11851
▁िमप	-11852
▁ीकृ	-11853
▁ूजय	-11854
▁ृच्	-11855
▁्थ्	-11856
▁्नत	-11857
▁्पं	-11858
▁१३८	-11859
▁१४६	-11860
▁१४७	-11861
▁१६८	-11862
▁१८२	-11863
▁२०५	-11864
▁२२०	-11865
▁२७१	-11866
▁३५०	-11867
▁७००	-11868
▁Dasa	-11869
▁Dati	-11870
▁Dave	-11871
▁Fore	-11872
▁Form	-11873
▁Half	-11874
▁Jobs	-11875
▁Reac	-11876
▁Retu	-11877
▁Sele	-11878
▁Size	-11879
▁UPBo	-11880
▁cams	-11881
▁flow	-11882
▁help	-11883
▁note	-11884
▁ount	-11885
▁peri	-11886
▁take	-11887
▁कोऽप	-11888
▁तद्भ	-11889
▁तरस्	-11890
▁त्तत	-11891
▁त्यस	-11892
▁थानं	-11893
▁दान्	-11894
▁युज्	-11895
▁रद्ध	-11896
▁रुषो	-11897
▁र्वद	-11898
▁श्चै	-11899
▁ारान	-11900
▁ाविष	-11901
▁ाष्य	-11902
▁िपाद	-11903
▁ीर्थ	-11904
▁्रणा	-11905
▁्रयु	-11906
▁्वता	-11907
▁Appli	-11908
▁Dasta	-11909
▁Drive	-11910
▁Elect	-11911
▁Evere	-11912
▁Group	-11913
▁Nehal	-11914
▁Smart	-11915
▁death	-11916
▁fucks	-11917
▁learn	-11918
▁क्षस्	-11919
▁तुर्व	-11920
▁त्वान	-11921
▁भावात	-11922
▁मनुष्	-11923
▁याख्य	-11924
▁स्तस्	-11925
▁ात्वा	-11926
▁ित्ता	-11927
▁िस्था	-11928
▁ुद्धा	-11929
▁्याप्	-11930
5.	-11931
FE	-11932
II	-11933
Is	-11934
LY	-11935
US	-11936
fn	-11937
fu	-11938
im	-11939
rl	-11940
खं	-11941
णी	-11942
तै	-11943
वो	-11944
सू	-11945
▁à	-11946
▁â	-11947
▁র	-11948
▁ல	-11949
▁ತ	-11950
▁᳭	-11951
▁】	-11952
AGE	-11953
SLV	-11954
arm	-11955
ice	-11956
ild	-11957
▁""	-11958
▁-8	-11959
▁/4	-11960
▁7-	-11961
▁Ag	-11962
▁BI	-11963
▁DI	-11964
▁EM	-11965
▁MI	-11966
▁Os	-11967
▁PL	-11968
▁Pt	-11969
▁SD	-11970
▁SN	-11971
▁SR	-11972
▁Tu	-11973
▁UT	-11974
▁[7	-11975
▁[8	-11976
▁[9	-11977
▁^^	-11978
▁av	-11979
▁cv	-11980
▁ef	-11981
▁np	-11982
▁ze	-11983
▁ःग	-11984
▁ऊच	-11985
▁एश	-11986
▁ऑन	-11987
▁ओः	-11988
▁घं	-11989
▁चव	-11990
▁दब	-11991
▁लट	-11992
▁षह	-11993
essa	-11994
orse	-11995
reat	-11996
ssay	-11997
▁(20	-11998
▁--,	-11999
▁1/3	-12000
▁101	-12001
▁105	-12002
▁118	-12003
▁140	-12004
▁32.	-12005
▁34.	-12006
▁36.	-12007
▁40.	-12008
▁47.	-12009
▁ABC	-12010
▁ATE	-12011
▁Aca	-12012
▁Che	-12013
▁Cor	-12014
▁Dha	-12015
▁ECT	-12016
▁HER	-12017
▁Jap	-12018
▁Jou	-12019
▁Let	-12020
▁Pur	-12021
▁UGC	-12022
▁WMF	-12023
▁[6]	-12024
▁ali	-12025
▁bej	-12026
▁bus	-12027
▁cla	-12028
▁dep	-12029
▁eat	-12030
▁elf	-12031
▁ews	-12032
▁fla	-12033
▁mNp	-12034
▁mit	-12035
▁nde	-12036
▁nia	-12037
▁nse	-12038
▁ren	-12039
▁ric	-12040
▁rum	-12041
▁ume	-12042
▁wea	-12043
▁अघि	-12044
▁अया	-12045
▁असु	-12046
▁आयं	-12047
▁आया	-12048
▁आसत	-12049
▁इथि	-12050
▁इदो	-12051
▁ईशो	-12052
▁उप०	-12053
▁उमि	-12054
▁ऊहः	-12055
▁ऋजु	-12056
▁एङ्	-12057
▁एसी	-12058
▁ऐस्	-12059
▁कूट	-12060
▁कोइ	-12061
▁खेन	-12062
▁खोल	-12063
▁गेम	-12064
▁चरं	-12065
▁छंद	-12066
▁छता	-12067
▁छा०	-12068
▁जाइ	-12069
▁जिक	-12070
▁तेल	-12071
▁दवा	-12072
▁धका	-12073
▁नञा	-12074
▁नवम	-12075
▁पटं	-12076
▁पेज	-12077
▁पोत	-12078
▁बहस	-12079
▁भगत	-12080
▁भौम	-12081
▁मईः	-12082
▁मखं	-12083
▁मगर	-12084
▁मग्	-12085
▁मोत	-12086
▁रतस	-12087
▁रथी	-12088
▁रेड	-12089
▁वडा	-12090
▁वेऽ	-12091
▁शठः	-12092
▁शुं	-12093
▁सचु	-12094
▁सहो	-12095
▁सू॰	-12096
▁हणं	-12097
▁हाँ	-12098
▁हाई	-12099
▁ऽनघ	-12100
▁ोधः	-12101
▁्नं	-12102
▁्शि	-12103
▁१२४	-12104
▁१३३	-12105
▁१६६	-12106
▁१७०	-12107
▁२०३	-12108
▁Bulk	-12109
▁CHSL	-12110
▁Dark	-12111
▁Deva	-12112
▁HTTP	-12113
▁King	-12114
▁Octo	-12115
▁Pura	-12116
▁Univ	-12117
▁best	-12118
▁bile	-12119
▁bird	-12120
▁fore	-12121
▁gets	-12122
▁ghty	-12123
▁info	-12124
▁know	-12125
▁onli	-12126
▁poli	-12127
▁reli	-12128
▁well	-12129
▁अनुभ	-12130
▁तप्र	-12131
▁ताना	-12132
▁थाने	-12133
▁म्प्	-12134
▁यतीत	-12135
▁याश्	-12136
▁रणेन	-12137
▁रतिज	-12138
▁रथमा	-12139
▁रसाद	-12140
▁श्वव	-12141
▁ानमा	-12142
▁ितीय	-12143
▁्कर्	-12144
▁्नान	-12145
▁्रहा	-12146
▁्रह्	-12147
▁्रिं	-12148
▁्वयः	-12149
▁Dance	-12150
▁Engla	-12151
▁Essay	-12152
▁Germa	-12153
▁Index	-12154
▁Infla	-12155
▁Insti	-12156
▁Prava	-12157
▁Resou	-12158
▁Tamil	-12159
▁break	-12160
▁class	-12161
▁famil	-12162
▁forms	-12163
▁light	-12164
▁never	-12165
▁parti	-12166
▁place	-12167
▁start	-12168
▁under	-12169
▁नमन्त	-12170
▁राप्न	-12171
▁रिवर्	-12172
▁ष्यसि	-12173
▁ूर्वे	-12174
AK	-12175
SA	-12176
dd	-12177
gg	-12178
ko	-12179
rt	-12180
vā	-12181
ye	-12182
अध	-12183
ठ्	-12184
णं	-12185
पी	-12186
भू	-12187
वच	-12188
२०	-12189
▁¡	-12190
▁á	-12191
▁̊	-12192
▁С	-12193
▁г	-12194
▁ن	-12195
▁॔	-12196
▁ગ	-12197
▁પ	-12198
▁હ	-12199
▁్	-12200
▁ರ	-12201
▁ಾ	-12202
▁ಿ	-12203
▁ങ	-12204
▁⋙	-12205
▁■	-12206
▁▲	-12207
▁✍	-12208
▁❑	-12209
▁📖	-12210
ICK	-12211
ady	-12212
cho	-12213
dic	-12214
ese	-12215
kes	-12216
ove	-12217
tml	-12218
tro	-12219
▁).	-12220
▁Av	-12221
▁BP	-12222
▁Bf	-12223
▁DO	-12224
▁ED	-12225
▁FM	-12226
▁Fo	-12227
▁GE	-12228
▁GP	-12229
▁IE	-12230
▁LP	-12231
▁MC	-12232
▁NG	-12233
▁PT	-12234
▁SK	-12235
▁TS	-12236
▁Xx	-12237
▁]।	-12238
▁_।	-12239
▁ip	-12240
▁kh	-12241
▁ks	-12242
▁oc	-12243
▁vy	-12244
▁एड	-12245
▁कई	-12246
▁झ॰	-12247
▁ञ॰	-12248
▁णर	-12249
▁तँ	-12250
▁लँ	-12251
▁लॉ	-12252
▁स॰	-12253
▁৷৷	-12254
▁நம	-12255
essi	-12256
ount	-12257
▁(*)	-12258
▁(0)	-12259
▁1.3	-12260
▁10:	-12261
▁11)	-12262
▁113	-12263
▁123	-12264
▁13,	-12265
▁14:	-12266
▁17,	-12267
▁2.2	-12268
▁29,	-12269
▁30.	-12270
▁302	-12271
▁31.	-12272
▁50%	-12273
▁75.	-12274
▁API	-12275
▁Ang	-12276
▁Asi	-12277
▁BJP	-12278
▁Dut	-12279
▁Fri	-12280
▁GHz	-12281
▁GST	-12282
▁IPL	-12283
▁Imp	-12284
▁Map	-12285
▁NCE	-12286
▁ODM	-12287
▁Par	-12288
▁Pow	-12289
▁Smr	-12290
▁TOP	-12291
▁Use	-12292
▁XII	-12293
▁ain	-12294
▁amp	-12295
▁avi	-12296
▁awk	-12297
▁bri	-12298
▁ces	-12299
▁cou	-12300
▁del	-12301
▁dur	-12302
▁exc	-12303
▁ffi	-12304
▁gal	-12305
▁gna	-12306
▁god	-12307
▁hav	-12308
▁len	-12309
▁ler	-12310
▁may	-12311
▁ned	-12312
▁rra	-12313
▁sed	-12314
▁spa	-12315
▁tab	-12316
▁top	-12317
▁try	-12318
▁uli	-12319
▁und	-12320
▁wal	-12321
▁war	-12322
▁yes	-12323
▁ंबन	-12324
▁अनो	-12325
▁अलग	-12326
▁अ॒थ	-12327
▁आने	-12328
▁आशय	-12329
▁आसि	-12330
▁ईशु	-12331
▁उरः	-12332
▁एकु	-12333
▁एतः	-12334
▁एपी	-12335
▁एषि	-12336
▁एेन	-12337
▁ओपन	-12338
▁कहो	-12339
▁काङ	-12340
▁खरि	-12341
▁खास	-12342
▁खोप	-12343
▁गजा	-12344
▁गजो	-12345
▁गधे	-12346
▁घाः	-12347
▁चैक	-12348
▁छपु	-12349
▁जगे	-12350
▁जसः	-12351
▁जैन	-12352
▁तक्	-12353
▁ताँ	-12354
▁थाक	-12355
▁दण्	-12356
▁धरि	-12357
▁धूप	-12358
▁नथी	-12359
▁नुय	-12360
▁नूं	-12361
▁पटक	-12362
▁पटो	-12363
▁पठ्	-12364
▁पथे	-12365
▁पहः	-12366
▁बढी	-12367
▁ममः	-12368
▁यूप	-12369
▁रहा	-12370
▁लप्	-12371
▁वशः	-12372
▁वसं	-12373
▁शतक	-12374
▁षाः	-12375
▁सं०	-12376
▁सया	-12377
▁सहज	-12378
▁सौर	-12379
▁हया	-12380
▁हवा	-12381
▁ाशे	-12382
▁ीसी	-12383
▁ूपम	-12384
▁ोकस	-12385
▁ोऽत	-12386
▁्ठा	-12387
▁्णस	-12388
▁्नम	-12389
▁१३६	-12390
▁१४५	-12391
▁१५३	-12392
▁१७१	-12393
▁२०४	-12394
▁२१५	-12395
▁२२५	-12396
▁२७४	-12397
▁२८०	-12398
▁७५०	-12399
▁९००	-12400
▁Bank	-12401
▁Case	-12402
▁Draw	-12403
▁From	-12404
▁Gold	-12405
▁Jana	-12406
▁List	-12407
▁Lord	-12408
▁Road	-12409
▁Sove	-12410
▁Tree	-12411
▁Welc	-12412
▁XXXX	-12413
▁deli	-12414
▁diff	-12415
▁exam	-12416
▁flag	-12417
▁font	-12418
▁jobs	-12419
▁just	-12420
▁logi	-12421
▁mina	-12422
▁moon	-12423
▁onse	-12424
▁play	-12425
▁real	-12426
▁reco	-12427
▁rela	-12428
▁resu	-12429
▁ript	-12430
▁song	-12431
▁supp	-12432
▁visi	-12433
▁ways	-12434
▁week	-12435
▁क्त्	-12436
▁क्नु	-12437
▁तिप्	-12438
▁तृती	-12439
▁तोऽस	-12440
▁दिश्	-12441
▁नक्ष	-12442
▁नित्	-12443
▁निरू	-12444
▁नुया	-12445
▁न्द्	-12446
▁बाह्	-12447
▁ब्दा	-12448
▁माजि	-12449
▁म्यक	-12450
▁यवाद	-12451
▁रभात	-12452
▁र्तय	-12453
▁र्यक	-12454
▁वात्	-12455
▁श्वे	-12456
▁हिन्	-12457
▁ेरिक	-12458
▁्ध्य	-12459
▁्माभ	-12460
▁्रदर	-12461
▁्सर्	-12462
▁Brows	-12463
▁Daddy	-12464
▁Educa	-12465
▁Learn	-12466
▁Space	-12467
▁Stori	-12468
▁Under	-12469
▁White	-12470
▁empty	-12471
▁means	-12472
▁quali	-12473
▁sansk	-12474
▁watch	-12475
▁water	-12476
▁अध्यय	-12477
▁द्धान	-12478
▁यन्त्	-12479
▁्युक्	-12480
▁्रेक्	-12481
/1	-12482
8.	-12483
9.	-12484
DC	-12485
DS	-12486
QL	-12487
Vi	-12488
bt	-12489
nu	-12490
of	-12491
нд	-12492
आई	-12493
ऋ०	-12494
खा	-12495
टे	-12496
डी	-12497
दु	-12498
१०	-12499
७०	-12500
▁Ï	-12501
▁š	-12502
▁̈	-12503
▁М	-12504
▁ত	-12505
▁છ	-12506
▁િ	-12507
▁ು	-12508
▁ച	-12509
▁ല	-12510
▁ോ	-12511
▁၊	-12512
▁‹	-12513
▁🌺	-12514
▁🕉	-12515
asi	-12516
eat	-12517
fau	-12518
ffe	-12519
ilk	-12520
ilo	-12521
oud	-12522
qui	-12523
ssi	-12524
vid	-12525
▁,;	-12526
▁-7	-12527
▁AK	-12528
▁BB	-12529
▁DM	-12530
▁FL	-12531
▁GN	-12532
▁HI	-12533
▁Id	-12534
▁JU	-12535
▁NA	-12536
▁RN	-12537
▁Tn	-12538
▁fy	-12539
▁mk	-12540
▁ot	-12541
▁px	-12542
▁sq	-12543
▁td	-12544
▁tv	-12545
▁зн	-12546
▁इथ	-12547
▁ईय	-12548
▁उल	-12549
▁ऊढ	-12550
▁ङौ	-12551
▁झं	-12552
▁ञं	-12553
▁ट॰	-12554
▁ढः	-12555
▁ढ॰	-12556
▁त॑	-12557
▁म॒	-12558
▁र०	-12559
▁शब	-12560
▁हथ	-12561
▁ऽध	-12562
▁0.5	-12563
▁103	-12564
▁109	-12565
▁114	-12566
▁12,	-12567
▁13:	-12568
▁15,	-12569
▁177	-12570
▁180	-12571
▁29.	-12572
▁30%	-12573
▁31,	-12574
▁40%	-12575
▁5.1	-12576
▁BhG	-12577
▁Eka	-12578
▁Fut	-12579
▁Hel	-12580
▁Hen	-12581
▁Ice	-12582
▁Leg	-12583
▁PCS	-12584
▁PRE	-12585
▁PSC	-12586
▁Poe	-12587
▁RIT	-12588
▁Rat	-12589
▁SER	-12590
▁Ser	-12591
▁Ski	-12592
▁Sto	-12593
▁Twe	-12594
▁Vib	-12595
▁Vid	-12596
▁__:	-12597
▁ass	-12598
▁den	-12599
▁die	-12600
▁dio	-12601
▁dir	-12602
▁dis	-12603
▁dou	-12604
▁dri	-12605
▁gue	-12606
▁how	-12607
▁kti	-12608
▁lam	-12609
▁lan	-12610
▁mad	-12611
▁map	-12612
▁med	-12613
▁ora	-12614
▁pho	-12615
▁pli	-12616
▁raj	-12617
▁ron	-12618
▁rpm	-12619
▁sin	-12620
▁sis	-12621
▁sty	-12622
▁ura	-12623
▁xHa	-12624
▁xii	-12625
▁ंचि	-12626
▁ंवि	-12627
▁अकं	-12628
▁अधर	-12629
▁अवः	-12630
▁आगम	-12631
▁आपण	-12632
▁आव्	-12633
▁इच्	-12634
▁इटो	-12635
▁इतौ	-12636
▁इथे	-12637
▁इहो	-12638
▁इ॒ह	-12639
▁उसी	-12640
▁ऋषे	-12641
▁एधि	-12642
▁एवः	-12643
▁एव॒	-12644
▁कतः	-12645
▁कळे	-12646
▁कवय	-12647
▁कवे	-12648
▁कहै	-12649
▁केण	-12650
▁कौं	-12651
▁खगे	-12652
▁खुद	-12653
▁गणो	-12654
▁ग्य	-12655
▁चरः	-12656
▁चलः	-12657
▁चेव	-12658
▁जलन	-12659
▁जाव	-12660
▁जेन	-12661
▁तैल	-12662
▁दमो	-12663
▁दसु	-12664
▁दोः	-12665
▁धरत	-12666
▁धा०	-12667
▁नटः	-12668
▁नतः	-12669
▁नलो	-12670
▁पती	-12671
▁पवि	-12672
▁बचत	-12673
▁बैग	-12674
▁भगः	-12675
▁भटः	-12676
▁मका	-12677
▁मणौ	-12678
▁मील	-12679
▁मोड	-12680
▁मोर	-12681
▁यञि	-12682
▁यना	-12683
▁ययः	-12684
▁यूँ	-12685
▁यॆन	-12686
▁रमं	-12687
▁रवण	-12688
▁ववव	-12689
▁वसव	-12690
▁वहः	-12691
▁वा०	-12692
▁वै॒	-12693
▁शपि	-12694
▁सज्	-12695
▁सवन	-12696
▁हवः	-12697
▁हसः	-12698
▁होइ	-12699
▁ादत	-12700
▁ाशः	-12701
▁िजय	-12702
▁िथ्	-12703
▁िदप	-12704
▁ृप्	-12705
▁ोकः	-12706
▁्टस	-12707
▁्णु	-12708
▁्णे	-12709
▁्पय	-12710
▁१२६	-12711
▁१६४	-12712
▁२४०	-12713
▁CBSE	-12714
▁Elec	-12715
▁Hima	-12716
▁Maha	-12717
▁PAGE	-12718
▁Para	-12719
▁Pass	-12720
▁Play	-12721
▁Proc	-12722
▁SANS	-12723
▁Visi	-12724
▁cont	-12725
▁doct	-12726
▁does	-12727
▁erse	-12728
▁fied	-12729
▁fool	-12730
▁head	-12731
▁html	-12732
▁indi	-12733
▁kill	-12734
▁long	-12735
▁prop	-12736
▁shou	-12737
▁size	-12738
▁ज्यस	-12739
▁णान्	-12740
▁त्वत	-12741
▁धस्य	-12742
▁धानि	-12743
▁निमि	-12744
▁म्यत	-12745
▁याकर	-12746
▁यानम	-12747
▁युष्	-12748
▁रम्प	-12749
▁रस्क	-12750
▁वेषा	-12751
▁ष्ठत	-12752
▁सार्	-12753
▁िषेध	-12754
▁ैर्व	-12755
▁्रसन	-12756
▁Birth	-12757
▁Front	-12758
▁Japan	-12759
▁Level	-12760
▁MPPSC	-12761
▁NCERT	-12762
▁Publi	-12763
▁UPPSC	-12764
▁admin	-12765
▁every	-12766
▁gmail	-12767
▁money	-12768
▁month	-12769
▁pussy	-12770
▁right	-12771
▁servi	-12772
▁stars	-12773
▁versi	-12774
▁जनाना	-12775
▁त्राः	-12776
▁र्थान	-12777
▁र्वतः	-12778
▁ूर्वस	-12779
▁्तरम्	-12780
▁्याधि	-12781
).	-12782
1.	-12783
BE	-12784
DP	-12785
FC	-12786
NL	-12787
PC	-12788
RC	-12789
ai	-12790
fy	-12791
hn	-12792
ks	-12793
mu	-12794
āl	-12795
ер	-12796
ङो	-12797
णे	-12798
भर	-12799
ळा	-12800
वं	-12801
हो	-12802
ूट	-12803
११	-12804
▁ã	-12805
▁μ	-12806
▁п	-12807
▁ع	-12808
▁ম	-12809
▁ય	-12810
▁ನ	-12811
▁∠	-12812
▁ヒ	-12813
ASA	-12814
OOK	-12815
ada	-12816
ani	-12817
ero	-12818
mit	-12819
mon	-12820
ppy	-12821
▁'.	-12822
▁BG	-12823
▁Bk	-12824
▁DL	-12825
▁Dy	-12826
▁EL	-12827
▁GF	-12828
▁Gi	-12829
▁HC	-12830
▁IG	-12831
▁Il	-12832
▁JO	-12833
▁MM	-12834
▁NI	-12835
▁OL	-12836
▁Ob	-12837
▁Oc	-12838
▁TT	-12839
▁YO	-12840
▁Ya	-12841
▁_*	-12842
▁gg	-12843
▁gr	-12844
▁gy	-12845
▁io	-12846
▁kA	-12847
▁kb	-12848
▁kv	-12849
▁mg	-12850
▁nU	-12851
▁oh	-12852
▁rb	-12853
▁ue	-12854
▁ye	-12855
▁yi	-12856
▁ऊध	-12857
▁ऋ॰	-12858
▁खव	-12859
▁च॰	-12860
▁ञि	-12861
▁णल	-12862
▁तऽ	-12863
▁फट	-12864
▁मए	-12865
▁र॰	-12866
▁व॑	-12867
▁सॅ	-12868
▁७ः	-12869
▁✔️	-12870
▁ヒン	-12871
assi	-12872
ream	-12873
▁"%1	-12874
▁111	-12875
▁112	-12876
▁11:	-12877
▁188	-12878
▁2.0	-12879
▁2.3	-12880
▁2.4	-12881
▁2.5	-12882
▁2/1	-12883
▁2/3	-12884
▁22,	-12885
▁38.	-12886
▁51.	-12887
▁68.	-12888
▁Ara	-12889
▁Ass	-12890
▁CDS	-12891
▁Clo	-12892
▁Die	-12893
▁Dil	-12894
▁Emp	-12895
▁End	-12896
▁FAQ	-12897
▁Hot	-12898
▁IEE	-12899
▁Ira	-12900
▁Les	-12901
▁Loc	-12902
▁MOQ	-12903
▁NET	-12904
▁Our	-12905
▁Phy	-12906
▁Sla	-12907
▁Sol	-12908
▁THE	-12909
▁Try	-12910
▁Two	-12911
▁Wat	-12912
▁[7]	-12913
▁[8]	-12914
▁[9]	-12915
▁__*	-12916
▁art	-12917
▁ask	-12918
▁bhu	-12919
▁css	-12920
▁dev	-12921
▁dge	-12922
▁dha	-12923
▁dro	-12924
▁eps	-12925
▁eva	-12926
▁exi	-12927
▁faq	-12928
▁fra	-12929
▁hip	-12930
▁ill	-12931
▁jiz	-12932
▁job	-12933
▁kHz	-12934
▁lly	-12935
▁lth	-12936
▁mfn	-12937
▁nsa	-12938
▁nsi	-12939
▁ode	-12940
▁rat	-12941
▁rry	-12942
▁too	-12943
▁tou	-12944
▁twi	-12945
▁tya	-12946
▁unt	-12947
▁zon	-12948
▁अनघ	-12949
▁असः	-12950
▁असा	-12951
▁आगः	-12952
▁आजं	-12953
▁आजौ	-12954
▁आमः	-12955
▁आरं	-12956
▁इणो	-12957
▁इतं	-12958
▁इर्	-12959
▁इषा	-12960
▁ईजे	-12961
▁ईट्	-12962
▁उदः	-12963
▁उदु	-12964
▁ऋतो	-12965
▁एकै	-12966
▁कतं	-12967
▁कनि	-12968
▁खूप	-12969
▁गधा	-12970
▁गवय	-12971
▁घना	-12972
▁चला	-12973
▁चाः	-12974
▁छन्	-12975
▁छैन	-12976
▁जदि	-12977
▁जीत	-12978
▁जौं	-12979
▁ठार	-12980
▁तदे	-12981
▁दनम	-12982
▁दवौ	-12983
▁दाई	-12984
▁नंः	-12985
▁नवो	-12986
▁नसं	-12987
▁नेम	-12988
▁पणो	-12989
▁पथो	-12990
▁पये	-12991
▁पवत	-12992
▁पा॰	-12993
▁पी०	-12994
▁फीस	-12995
▁बको	-12996
▁बचन	-12997
▁बीच	-12998
▁भरः	-12999
▁भरत	-13000
▁मखे	-13001
▁मचा	-13002
▁यचा	-13003
▁यवः	-13004
▁यशॊ	-13005
▁यो॒	-13006
▁रखो	-13007
▁रङ्	-13008
▁रोड	-13009
▁रोल	-13010
▁वषे	-13011
▁वहत	-13012
▁शनौ	-13013
▁शशि	-13014
▁शाद	-13015
▁शीघ	-13016
▁शूल	-13017
▁षण्	-13018
▁सतक	-13019
▁सदन	-13020
▁सयं	-13021
▁सरक	-13022
▁सहा	-13023
▁सह्	-13024
▁सिव	-13025
▁सेट	-13026
▁सौं	-13027
▁हठः	-13028
▁होई	-13029
▁ेणा	-13030
▁्चक	-13031
▁१५४	-13032
▁१६०	-13033
▁२२२	-13034
▁२२४	-13035
▁२३०	-13036
▁३०४	-13037
▁Anti	-13038
▁BOOK	-13039
▁COMP	-13040
▁Code	-13041
▁Coll	-13042
▁Copy	-13043
▁Desi	-13044
▁Disc	-13045
▁Four	-13046
▁Gala	-13047
▁Govt	-13048
▁HERE	-13049
▁Indo	-13050
▁Item	-13051
▁Lock	-13052
▁Muni	-13053
▁NDTV	-13054
▁PART	-13055
▁Pali	-13056
▁Pict	-13057
▁Plan	-13058
▁Save	-13059
▁Skip	-13060
▁Temp	-13061
▁Unic	-13062
▁Vish	-13063
▁aupa	-13064
▁bank	-13065
▁bili	-13066
▁coll	-13067
▁crea	-13068
▁frie	-13069
▁iPho	-13070
▁jlsi	-13071
▁land	-13072
▁make	-13073
▁masc	-13074
▁modi	-13075
▁ndar	-13076
▁orga	-13077
▁rain	-13078
▁rmal	-13079
▁rsha	-13080
▁soft	-13081
▁vert	-13082
▁when	-13083
▁काया	-13084
▁क्ते	-13085
▁घ्रं	-13086
▁तमस्	-13087
▁थास्	-13088
▁थिवी	-13089
▁भाष्	-13090
▁भिन्	-13091
▁मिश्	-13092
▁रतीय	-13093
▁रापि	-13094
▁र्तम	-13095
▁र्वम	-13096
▁र्शि	-13097
▁वभाव	-13098
▁ष्टत	-13099
▁स्यस	-13100
▁स्वे	-13101
▁ाग्य	-13102
▁िहास	-13103
▁ीयस्	-13104
▁ीर्घ	-13105
▁ेवाः	-13106
▁्दिश	-13107
▁्नस्	-13108
▁CLICK	-13109
▁Death	-13110
▁Every	-13111
▁SANSK	-13112
▁Samvi	-13113
▁Sloga	-13114
▁above	-13115
▁daily	-13116
▁films	-13117
▁heart	-13118
▁media	-13119
▁pages	-13120
▁point	-13121
▁prese	-13122
▁sluts	-13123
▁small	-13124
▁speci	-13125
▁teach	-13126
▁three	-13127
▁आवश्य	-13128
▁ञायते	-13129
▁त्यनु	-13130
▁त्येत	-13131
▁ब्रह्	-13132
▁म्बन्	-13133
▁यास्य	-13134
▁र्वेष	-13135
▁वितीय	-13136
▁संरक्	-13137
▁सामाज	-13138
▁ार्यस	-13139
▁िश्चि	-13140
),	-13141
20	-13142
Ap	-13143
EP	-13144
GS	-13145
IA	-13146
NS	-13147
RA	-13148
UP	-13149
lt	-13150
ng	-13151
nx	-13152
ny	-13153
ol	-13154
oz	-13155
zo	-13156
ль	-13157
ऋत	-13158
गे	-13159
छे	-13160
दो	-13161
रो	-13162
॑व	-13163
३०	-13164
▁д	-13165
▁ॡ	-13166
▁ু	-13167
▁એ	-13168
▁அ	-13169
▁ன	-13170
▁ి	-13171
▁ಲ	-13172
▁ണ	-13173
▁◎	-13174
▁✓	-13175
▁❤	-13176
▁❯	-13177
▁🌞	-13178
▁🌸	-13179
▁💐	-13180
▁😂	-13181
ENT	-13182
TET	-13183
att	-13184
atu	-13185
bli	-13186
bot	-13187
eas	-13188
iti	-13189
lea	-13190
oma	-13191
qua	-13192
red	-13193
trl	-13194
usb	-13195
vie	-13196
▁'*	-13197
▁),	-13198
▁AV	-13199
▁Aa	-13200
▁Ak	-13201
▁Az	-13202
▁CA	-13203
▁DF	-13204
▁GM	-13205
▁MY	-13206
▁Mp	-13207
▁PI	-13208
▁Pe	-13209
▁RC	-13210
▁SM	-13211
▁Sr	-13212
▁TE	-13213
▁UC	-13214
▁WW	-13215
▁Zo	-13216
▁aa	-13217
▁ds	-13218
▁ea	-13219
▁gb	-13220
▁mā	-13221
▁nl	-13222
▁nz	-13223
▁ou	-13224
▁ox	-13225
▁rr	-13226
▁ón	-13227
▁आक	-13228
▁इच	-13229
▁इज	-13230
▁ईत	-13231
▁उध	-13232
▁एब	-13233
▁एि	-13234
▁खू	-13235
▁गग	-13236
▁ग०	-13237
▁ङं	-13238
▁टय	-13239
▁मघ	-13240
▁शच	-13241
▁षू	-13242
▁सँ	-13243
eace	-13244
mile	-13245
ound	-13246
▁-->	-13247
▁-10	-13248
▁11-	-13249
▁115	-13250
▁117	-13251
▁119	-13252
▁12%	-13253
▁12-	-13254
▁121	-13255
▁145	-13256
▁16,	-13257
▁172	-13258
▁175	-13259
▁179	-13260
▁20%	-13261
▁208	-13262
▁3.3	-13263
▁320	-13264
▁350	-13265
▁39.	-13266
▁41.	-13267
▁48.	-13268
▁5.2	-13269
▁60%	-13270
▁750	-13271
▁80.	-13272
▁Adv	-13273
▁Alb	-13274
▁Art	-13275
▁Bar	-13276
▁CIS	-13277
▁Cam	-13278
▁Den	-13279
▁Don	-13280
▁ICE	-13281
▁INE	-13282
▁ISS	-13283
▁JPY	-13284
▁Jay	-13285
▁MTS	-13286
▁Mad	-13287
▁Māl	-13288
▁PNG	-13289
▁RES	-13290
▁SCH	-13291
▁SSL	-13292
▁Sir	-13293
▁Sri	-13294
▁TCD	-13295
▁UPD	-13296
▁Val	-13297
▁__'	-13298
▁act	-13299
▁ano	-13300
▁ben	-13301
▁bli	-13302
▁cap	-13303
▁cli	-13304
▁cum	-13305
▁dai	-13306
▁ded	-13307
▁els	-13308
▁eye	-13309
▁fNs	-13310
▁few	-13311
▁ffe	-13312
▁fix	-13313
▁flu	-13314
▁ham	-13315
▁ins	-13316
▁nAs	-13317
▁nar	-13318
▁nna	-13319
▁obs	-13320
▁ols	-13321
▁pat	-13322
▁qui	-13323
▁rga	-13324
▁ria	-13325
▁run	-13326
▁sna	-13327
▁ssa	-13328
▁tak	-13329
▁tro	-13330
▁usa	-13331
▁uti	-13332
▁vel	-13333
▁vid	-13334
▁yer	-13335
▁अटि	-13336
▁अथॊ	-13337
▁अमर	-13338
▁अाः	-13339
▁आट्	-13340
▁आते	-13341
▁आपॊ	-13342
▁आमा	-13343
▁आवह	-13344
▁इङो	-13345
▁इला	-13346
▁ईशा	-13347
▁ईसा	-13348
▁उतः	-13349
▁उदय	-13350
▁ऊचे	-13351
▁एतꣳ	-13352
▁एदे	-13353
▁एना	-13354
▁औषत	-13355
▁कफं	-13356
▁कहा	-13357
▁काइ	-13358
▁कॉम	-13359
▁गईं	-13360
▁गजल	-13361
▁गवे	-13362
▁गौ०	-13363
▁घाव	-13364
▁चोः	-13365
▁छगः	-13366
▁जडो	-13367
▁जनौ	-13368
▁जलद	-13369
▁जला	-13370
▁टन्	-13371
▁टिम	-13372
▁तथो	-13373
▁तुत	-13374
▁ददत	-13375
▁दमे	-13376
▁दशे	-13377
▁दश॒	-13378
▁दुं	-13379
▁दूं	-13380
▁दें	-13381
▁नः॑	-13382
▁नदि	-13383
▁नाङ	-13384
▁पच्	-13385
▁पतन	-13386
▁पीओ	-13387
▁पूत	-13388
▁पूव	-13389
▁फक्	-13390
▁बता	-13391
▁भौं	-13392
▁मती	-13393
▁मतॊ	-13394
▁मधौ	-13395
▁मरि	-13396
▁मूक	-13397
▁मू०	-13398
▁मृड	-13399
▁मैक	-13400
▁यमस	-13401
▁रसद	-13402
▁रहण	-13403
▁रीव	-13404
▁रैक	-13405
▁लभ्	-13406
▁लयो	-13407
▁वनो	-13408
▁वलव	-13409
▁वाई	-13410
▁वेह	-13411
▁शनि	-13412
▁शु०	-13413
▁समॊ	-13414
▁हनः	-13415
▁हैक	-13416
▁ावं	-13417
▁िखत	-13418
▁िभ्	-13419
▁ीश्	-13420
▁ेवो	-13421
▁्ष्	-13422
▁१८७	-13423
▁२३२	-13424
▁२३४	-13425
▁२४३	-13426
▁३२०	-13427
▁३६५	-13428
▁४२०	-13429
▁४५०	-13430
▁Assi	-13431
▁Best	-13432
▁Blue	-13433
▁Buck	-13434
▁Ctrl	-13435
▁Exce	-13436
▁FAST	-13437
▁Fire	-13438
▁Foru	-13439
▁Hack	-13440
▁LIFE	-13441
▁Left	-13442
▁Lege	-13443
▁MBBS	-13444
▁Meta	-13445
▁NASA	-13446
▁Proj	-13447
▁READ	-13448
▁Rela	-13449
▁Sara	-13450
▁Unca	-13451
▁Vaca	-13452
▁Wild	-13453
▁With	-13454
▁ages	-13455
▁bear	-13456
▁boli	-13457
▁ddhi	-13458
▁ende	-13459
▁fear	-13460
▁ffix	-13461
▁fter	-13462
▁full	-13463
▁gift	-13464
▁husb	-13465
▁lace	-13466
▁last	-13467
▁lpha	-13468
▁maps	-13469
▁meta	-13470
▁mill	-13471
▁minu	-13472
▁ncer	-13473
▁nsLi	-13474
▁nsar	-13475
▁once	-13476
▁open	-13477
▁pics	-13478
▁quot	-13479
▁regi	-13480
▁soul	-13481
▁stru	-13482
▁temp	-13483
▁true	-13484
▁univ	-13485
▁xnxx	-13486
▁ंशयः	-13487
▁किमप	-13488
▁ट्या	-13489
▁तोत्	-13490
▁थानम	-13491
▁धान्	-13492
▁पयेत	-13493
▁माचा	-13494
▁माद्	-13495
▁रभाव	-13496
▁रिवा	-13497
▁वचित	-13498
▁ह्मा	-13499
▁ानुस	-13500
▁िविध	-13501
▁ृतीय	-13502
▁ेदित	-13503
▁्तिप	-13504
▁्थम्	-13505
▁्राध	-13506
▁्वज्	-13507
▁Green	-13508
▁House	-13509
▁Missi	-13510
▁Music	-13511
▁Samaj	-13512
▁Share	-13513
▁Sluts	-13514
▁Termi	-13515
▁Words	-13516
▁front	-13517
▁horse	-13518
▁messa	-13519
▁order	-13520
▁press	-13521
▁stems	-13522
▁still	-13523
▁tices	-13524
▁websi	-13525
▁works	-13526
▁क्यते	-13527
▁ग्रन्	-13528
▁दिनाङ	-13529
▁र्वन्	-13530
▁ष्याम	-13531
▁साधार	-13532
▁ात्रम	-13533
▁ार्ये	-13534
▁्योति	-13535
▁्राणा	-13536
▁्रुत्	-13537
/-	-13538
BA	-13539
CH	-13540
DI	-13541
Ds	-13542
EG	-13543
In	-13544
Ip	-13545
MW	-13546
OC	-13547
RI	-13548
SO	-13549
UI	-13550
bl	-13551
cy	-13552
gs	-13553
is	-13554
po	-13555
pu	-13556
wd	-13557
ай	-13558
ро	-13559
इव	-13560
ओम	-13561
जय	-13562
जो	-13563
तप	-13564
नं	-13565
नव	-13566
मो	-13567
यू	-13568
सी	-13569
▁±	-13570
▁ö	-13571
▁̃	-13572
▁Б	-13573
▁م	-13574
▁ক	-13575
▁૧	-13576
▁ಂ	-13577
▁ಸ	-13578
▁ള	-13579
▁′	-13580
▁◉	-13581
▁◌	-13582
▁➡	-13583
▁➧	-13584
▁図	-13585
▁大	-13586
ARC	-13587
ana	-13588
box	-13589
fig	-13590
lia	-13591
mal	-13592
ors	-13593
ous	-13594
rit	-13595
tto	-13596
ामि	-13597
▁(!	-13598
▁($	-13599
▁):	-13600
▁+1	-13601
▁-0	-13602
▁-9	-13603
▁-।	-13604
▁9-	-13605
▁::	-13606
▁<!	-13607
▁BA	-13608
▁Cl	-13609
▁DC	-13610
▁DY	-13611
▁FS	-13612
▁GK	-13613
▁JE	-13614
▁LA	-13615
▁Mk	-13616
▁OB	-13617
▁OK	-13618
▁OT	-13619
▁PA	-13620
▁RP	-13621
▁RS	-13622
▁SV	-13623
▁TA	-13624
▁TF	-13625
▁UI	-13626
▁XY	-13627
▁dg	-13628
▁hp	-13629
▁ky	-13630
▁lp	-13631
▁oC	-13632
▁oj	-13633
▁sn	-13634
▁sw	-13635
▁ut	-13636
▁आफ	-13637
▁इड	-13638
▁ईद	-13639
▁उम	-13640
▁उ॑	-13641
▁एइ	-13642
▁एय	-13643
▁कठ	-13644
▁थर	-13645
▁थू	-13646
▁धप	-13647
▁प॰	-13648
▁बक	-13649
▁भै	-13650
▁मट	-13651
▁यऽ	-13652
▁रछ	-13653
▁रड	-13654
▁हड	-13655
▁६ः	-13656
▁図書	-13657
oshi	-13658
▁//)	-13659
▁106	-13660
▁116	-13661
▁124	-13662
▁134	-13663
▁136	-13664
▁139	-13665
▁14,	-13666
▁15%	-13667
▁157	-13668
▁160	-13669
▁164	-13670
▁184	-13671
▁18:	-13672
▁190	-13673
▁197	-13674
▁201	-13675
▁210	-13676
▁330	-13677
▁365	-13678
▁4.1	-13679
▁4.8	-13680
▁46.	-13681
▁50.	-13682
▁56.	-13683
▁ANS	-13684
▁APP	-13685
▁Bet	-13686
▁Buy	-13687
▁CAD	-13688
▁CAP	-13689
▁CLO	-13690
▁Cat	-13691
▁Def	-13692
▁Del	-13693
▁Eve	-13694
▁Ext	-13695
▁Fit	-13696
▁IEC	-13697
▁IIT	-13698
▁Ita	-13699
▁JEE	-13700
▁Kar	-13701
▁Ken	-13702
▁LED	-13703
▁Mik	-13704
▁Nav	-13705
▁ONL	-13706
▁PSJ	-13707
▁REC	-13708
▁Rig	-13709
▁SET	-13710
▁SIT	-13711
▁SSS	-13712
▁Vya	-13713
▁Www	-13714
▁XHa	-13715
▁aff	-13716
▁amo	-13717
▁aro	-13718
▁asp	-13719
▁bit	-13720
▁dry	-13721
▁ema	-13722
▁esa	-13723
▁fan	-13724
▁flo	-13725
▁hea	-13726
▁ina	-13727
▁inf	-13728
▁its	-13729
▁kes	-13730
▁kra	-13731
▁kya	-13732
▁lia	-13733
▁mAp	-13734
▁mpi	-13735
▁mps	-13736
▁nau	-13737
▁nky	-13738
▁nli	-13739
▁num	-13740
▁pal	-13741
▁pam	-13742
▁phi	-13743
▁phy	-13744
▁pow	-13745
▁psi	-13746
▁pti	-13747
▁ras	-13748
▁she	-13749
▁sla	-13750
▁ssy	-13751
▁sub	-13752
▁swa	-13753
▁tex	-13754
▁tin	-13755
▁tog	-13756
▁tte	-13757
▁ufy	-13758
▁ury	-13759
▁wan	-13760
▁अजू	-13761
▁अणः	-13762
▁अदो	-13763
▁अयो	-13764
▁असं	-13765
▁आयो	-13766
▁आलि	-13767
▁आसा	-13768
▁आहः	-13769
▁इण्	-13770
▁इता	-13771
▁इदि	-13772
▁इळा	-13773
▁ईशं	-13774
▁उण्	-13775
▁उपज	-13776
▁ऊने	-13777
▁ऊरू	-13778
▁एकश	-13779
▁एवच	-13780
▁ओतः	-13781
▁औङः	-13782
▁कतर	-13783
▁कपः	-13784
▁कफो	-13785
▁करम	-13786
▁कलः	-13787
▁का०	-13788
▁कुं	-13789
▁कुण	-13790
▁कृश	-13791
▁केः	-13792
▁केप	-13793
▁कैव	-13794
▁खना	-13795
▁खूब	-13796
▁गणौ	-13797
▁गतव	-13798
▁गमे	-13799
▁गय्	-13800
▁गरी	-13801
▁गलं	-13802
▁चएव	-13803
▁चक्	-13804
▁चाई	-13805
▁चेक	-13806
▁छुट	-13807
▁छेन	-13808
▁छ्ः	-13809
▁जमा	-13810
▁जिव	-13811
▁झूठ	-13812
▁टच्	-13813
▁टी०	-13814
▁ठञि	-13815
▁डट्	-13816
▁डॉ०	-13817
▁ततश	-13818
▁तदः	-13819
▁तने	-13820
▁तयत	-13821
▁तरौ	-13822
▁तलं	-13823
▁तेथ	-13824
▁दबू	-13825
▁धम्	-13826
▁धरः	-13827
▁नको	-13828
▁नखं	-13829
▁नशे	-13830
▁नि॒	-13831
▁नीर	-13832
▁पंप	-13833
▁पठि	-13834
▁पप्	-13835
▁परक	-13836
▁पिउ	-13837
▁पिव	-13838
▁पैर	-13839
▁बनि	-13840
▁बनो	-13841
▁बरु	-13842
▁बाई	-13843
▁बाण	-13844
▁भजत	-13845
▁भिं	-13846
▁मठे	-13847
▁मण्	-13848
▁मरौ	-13849
▁मिँ	-13850
▁यग्	-13851
▁यथे	-13852
▁याश	-13853
▁रहे	-13854
▁राष	-13855
▁रैम	-13856
▁रोष	-13857
▁लयस	-13858
▁लाइ	-13859
▁वटं	-13860
▁वटः	-13861
▁वटे	-13862
▁वदः	-13863
▁वदथ	-13864
▁वलो	-13865
▁वहि	-13866
▁वह्	-13867
▁वोः	-13868
▁शमी	-13869
▁शैव	-13870
▁सका	-13871
▁सतं	-13872
▁सथं	-13873
▁सफा	-13874
▁सभे	-13875
▁सिउ	-13876
▁सिच	-13877
▁सीः	-13878
▁हकः	-13879
▁हून	-13880
▁हों	-13881
▁होय	-13882
▁ऽति	-13883
▁िमर	-13884
▁िवृ	-13885
▁ीवत	-13886
▁्तय	-13887
▁्दो	-13888
▁१६५	-13889
▁२१४	-13890
▁२१६	-13891
▁२१८	-13892
▁२३५	-13893
▁२४५	-13894
▁२७५	-13895
▁३७२	-13896
▁४८०	-13897
▁४८१	-13898
▁६५०	-13899
▁ヒンデ	-13900
▁Asia	-13901
▁BSNL	-13902
▁Cent	-13903
▁City	-13904
▁Deut	-13905
▁Film	-13906
▁Full	-13907
▁GATE	-13908
▁Inte	-13909
▁Jame	-13910
▁Lice	-13911
▁Lite	-13912
▁Naya	-13913
▁POST	-13914
▁Pers	-13915
▁Pics	-13916
▁Pref	-13917
▁Rena	-13918
▁Repu	-13919
▁Seri	-13920
▁Stre	-13921
▁Tait	-13922
▁UNIT	-13923
▁Will	-13924
▁Xfig	-13925
▁acco	-13926
▁army	-13927
▁auth	-13928
▁card	-13929
▁case	-13930
▁cook	-13931
▁cted	-13932
▁dhya	-13933
▁docs	-13934
▁engi	-13935
▁essi	-13936
▁fall	-13937
▁four	-13938
▁gari	-13939
▁give	-13940
▁hold	-13941
▁jour	-13942
▁lakh	-13943
▁lice	-13944
▁look	-13945
▁mbay	-13946
▁nces	-13947
▁para	-13948
▁save	-13949
▁vern	-13950
▁vili	-13951
▁wait	-13952
▁अस्त	-13953
▁एवम्	-13954
▁करणी	-13955
▁कस्त	-13956
▁किञ्	-13957
▁ग्रन	-13958
▁छामि	-13959
▁टव्य	-13960
▁णाना	-13961
▁ण्ये	-13962
▁तदपि	-13963
▁दस्य	-13964
▁नृत्	-13965
▁नेत्	-13966
▁प्रक	-13967
▁भावः	-13968
▁माकं	-13969
▁यमस्	-13970
▁रतिस	-13971
▁रसन्	-13972
▁रोक्	-13973
▁वमेव	-13974
▁वोक्	-13975
▁श्यक	-13976
▁ायत्	-13977
▁िकास	-13978
▁िर्द	-13979
▁ोजना	-13980
▁्ठित	-13981
▁्दिष	-13982
▁्नतः	-13983
▁्रष्	-13984
▁्राक	-13985
▁्रैव	-13986
▁्रोध	-13987
▁्वाध	-13988
▁्वीप	-13989
▁About	-13990
▁Admin	-13991
▁Alpha	-13992
▁Break	-13993
▁Busty	-13994
▁Earth	-13995
▁Enter	-13996
▁Explo	-13997
▁FASTA	-13998
▁Great	-13999
▁Money	-14000
▁Purch	-14001
▁Sessi	-14002
▁Staff	-14003
▁Stand	-14004
▁Teach	-14005
▁audio	-14006
▁birth	-14007
▁cause	-14008
▁earth	-14009
▁faith	-14010
▁insta	-14011
▁mbers	-14012
▁mmary	-14013
▁print	-14014
▁short	-14015
▁stand	-14016
▁stics	-14017
▁wards	-14018
▁ंस्कर	-14019
▁प्रज्	-14020
▁मिन्न	-14021
▁सन्दे	-14022
▁ुर्वन	-14023
▁्रतिभ	-14024
6+	-14025
BI	-14026
EL	-14027
FA	-14028
UC	-14029
UG	-14030
WD	-14031
WN	-14032
bn	-14033
ee	-14034
kr	-14035
lb	-14036
lc	-14037
ue	-14038
ul	-14039
yn	-14040
अच	-14041
कु	-14042
जं	-14043
डि	-14044
तत	-14045
दः	-14046
नई	-14047
बल	-14048
री	-14049
ले	-14050
शः	-14051
हत	-14052
ॉट	-14053
ॉन	-14054
१२	-14055
२ः	-14056
२४	-14057
२८	-14058
॰॰	-14059
ரி	-14060
▁¶	-14061
▁À	-14062
▁È	-14063
▁İ	-14064
▁̶	-14065
▁Х	-14066
▁м	-14067
▁দ	-14068
▁ল	-14069
▁স	-14070
▁ে	-14071
▁ટ	-14072
▁શ	-14073
▁ુ	-14074
▁ழ	-14075
▁న	-14076
▁ర	-14077
▁ದ	-14078
▁ವ	-14079
▁೦	-14080
▁ദ	-14081
▁റ	-14082
▁േ	-14083
▁▶	-14084
▁◦	-14085
▁☆	-14086
▁🔱	-14087
CTV	-14088
NAY	-14089
ane	-14090
emy	-14091
ons	-14092
psc	-14093
que	-14094
quo	-14095
ron	-14096
sse	-14097
vek	-14098
vir	-14099
wad	-14100
yam	-14101
▁"॥	-14102
▁(%	-14103
▁6।	-14104
▁8।	-14105
▁AG	-14106
▁BD	-14107
▁Cr	-14108
▁EO	-14109
▁Eu	-14110
▁GA	-14111
▁If	-14112
▁JN	-14113
▁Ji	-14114
▁KG	-14115
▁KH	-14116
▁LC	-14117
▁MD	-14118
▁NP	-14119
▁Ox	-14120
▁Py	-14121
▁RG	-14122
▁SG	-14123
▁Sw	-14124
▁TP	-14125
▁UA	-14126
▁Ul	-14127
▁Vy	-14128
▁XC	-14129
▁XL	-14130
▁[*	-14131
▁[:	-14132
▁]]	-14133
▁_'	-14134
▁_.	-14135
▁ay	-14136
▁bf	-14137
▁bv	-14138
▁dc	-14139
▁fG	-14140
▁gm	-14141
▁kā	-14142
▁lb	-14143
▁lf	-14144
▁mt	-14145
▁ov	-14146
▁oz	-14147
▁pā	-14148
▁ui	-14149
▁zo	-14150
▁ли	-14151
▁ту	-14152
▁ःः	-14153
▁अा	-14154
▁आउ	-14155
▁इछ	-14156
▁ऊ॒	-14157
▁एज	-14158
▁एध	-14159
▁खण	-14160
▁ग़	-14161
▁छौ	-14162
▁जज	-14163
▁झः	-14164
▁झल	-14165
▁डच	-14166
▁तउ	-14167
▁ध॒	-14168
▁नइ	-14169
▁पढ	-14170
▁मफ	-14171
▁मॉ	-14172
▁रफ	-14173
▁षप	-14174
▁षष	-14175
▁सग	-14176
▁सघ	-14177
▁सट	-14178
▁सड	-14179
▁हठ	-14180
▁ूु	-14181
▁ैि	-14182
▁આજ	-14183
▁છે	-14184
▁🇮🇳	-14185
ourt	-14186
rown	-14187
▁'$1	-14188
▁())	-14189
▁(18	-14190
▁(24	-14191
▁-11	-14192
▁-12	-14193
▁-13	-14194
▁-15	-14195
▁104	-14196
▁126	-14197
▁12:	-14198
▁130	-14199
▁133	-14200
▁14-	-14201
▁15:	-14202
▁165	-14203
▁16:	-14204
▁182	-14205
▁187	-14206
▁19)	-14207
▁192	-14208
▁19:	-14209
▁203	-14210
▁220	-14211
▁260	-14212
▁30,	-14213
▁4.5	-14214
▁43.	-14215
▁451	-14216
▁60.	-14217
▁618	-14218
▁63.	-14219
▁69.	-14220
▁720	-14221
▁74.	-14222
▁76.	-14223
▁90%	-14224
▁ABS	-14225
▁AST	-14226
▁AUD	-14227
▁Als	-14228
▁BET	-14229
▁Bad	-14230
▁Bag	-14231
▁CAT	-14232
▁CET	-14233
▁CHA	-14234
▁CIT	-14235
▁COP	-14236
▁Cle	-14237
▁Cro	-14238
▁DDE	-14239
▁Dis	-14240
▁ECG	-14241
▁ENC	-14242
▁EPF	-14243
▁EWS	-14244
▁Emo	-14245
▁FOR	-14246
▁Fla	-14247
▁Fli	-14248
▁GEN	-14249
▁GIF	-14250
▁Hub	-14251
▁IME	-14252
▁JPG	-14253
▁Kat	-14254
▁LDC	-14255
▁LIC	-14256
▁Lib	-14257
▁Mak	-14258
▁PED	-14259
▁PGT	-14260
▁Pgs	-14261
▁Pun	-14262
▁Rem	-14263
▁Ren	-14264
▁SAN	-14265
▁SEL	-14266
▁SQL	-14267
▁STO	-14268
▁Sax	-14269
▁TAG	-14270
▁Tam	-14271
▁Tez	-14272
▁Tha	-14273
▁Thu	-14274
▁Tre	-14275
▁USA	-14276
▁VPN	-14277
▁XML	-14278
▁ail	-14279
▁ama	-14280
▁ava	-14281
▁bhā	-14282
▁blu	-14283
▁bun	-14284
▁car	-14285
▁ced	-14286
▁cie	-14287
▁dBm	-14288
▁edi	-14289
▁ege	-14290
▁egu	-14291
▁ery	-14292
▁esh	-14293
▁fal	-14294
▁fle	-14295
▁gri	-14296
▁ink	-14297
▁kim	-14298
▁lay	-14299
▁lbs	-14300
▁loc	-14301
▁lta	-14302
▁mIs	-14303
▁mLs	-14304
▁mom	-14305
▁nas	-14306
▁nat	-14307
▁nel	-14308
▁obj	-14309
▁orn	-14310
▁ost	-14311
▁plu	-14312
▁put	-14313
▁rba	-14314
▁rds	-14315
▁ris	-14316
▁rol	-14317
▁rot	-14318
▁ses	-14319
▁sil	-14320
▁sma	-14321
▁spo	-14322
▁sql	-14323
▁sup	-14324
▁sur	-14325
▁tre	-14326
▁ual	-14327
▁ust	-14328
▁vas	-14329
▁vec	-14330
▁vet	-14331
▁voi	-14332
▁win	-14333
▁xvi	-14334
▁yal	-14335
▁yam	-14336
▁yet	-14337
▁ंयु	-14338
▁ंयो	-14339
▁अंक	-14340
▁अंत	-14341
▁अङि	-14342
▁अतर	-14343
▁अते	-14344
▁अद०	-14345
▁आता	-14346
▁आवा	-14347
▁आसव	-14348
▁आहर	-14349
▁इती	-14350
▁इतु	-14351
▁इषु	-14352
▁इस्	-14353
▁इहा	-14354
▁ईत्	-14355
▁उवन	-14356
▁उव्	-14357
▁ऊठ्	-14358
▁ऊहो	-14359
▁ऋषी	-14360
▁एकच	-14361
▁एतँ	-14362
▁एतथ	-14363
▁एतो	-14364
▁एत्	-14365
▁एनः	-14366
▁ओके	-14367
▁कठः	-14368
▁कफि	-14369
▁कबः	-14370
▁कभी	-14371
▁कलय	-14372
▁काई	-14373
▁कुन	-14374
▁कूं	-14375
▁कोल	-14376
▁खगं	-14377
▁खञ्	-14378
▁खयं	-14379
▁खय्	-14380
▁खश्	-14381
▁गाई	-14382
▁गीः	-14383
▁घञि	-14384
▁घडे	-14385
▁घनो	-14386
▁घृत	-14387
▁ङस्	-14388
▁चनं	-14389
▁छलं	-14390
▁जेल	-14391
▁जैव	-14392
▁जॉन	-14393
▁ठीक	-14394
▁डति	-14395
▁ढञ्	-14396
▁णप्	-14397
▁णमा	-14398
▁तकः	-14399
▁तनू	-14400
▁तरल	-14401
▁तौल	-14402
▁दंश	-14403
▁दरी	-14404
▁दिए	-14405
▁दिभ	-14406
▁दुइ	-14407
▁देः	-14408
▁देइ	-14409
▁धरो	-14410
▁धीं	-14411
▁नगः	-14412
▁नयं	-14413
▁नेट	-14414
▁नैं	-14415
▁पठे	-14416
▁पाच	-14417
▁बचं	-14418
▁बचे	-14419
▁बलौ	-14420
▁बहन	-14421
▁बुँ	-14422
▁भयउ	-14423
▁भरं	-14424
▁भरि	-14425
▁भोर	-14426
▁मनन	-14427
▁मु०	-14428
▁मे॑	-14429
▁मैव	-14430
▁यकं	-14431
▁यमप	-14432
▁यवन	-14433
▁यवह	-14434
▁रघु	-14435
▁रष्	-14436
▁रहत	-14437
▁रुं	-14438
▁रुस	-14439
▁लवो	-14440
▁लाई	-14441
▁लुँ	-14442
▁वचस	-14443
▁वयꣳ	-14444
▁शठो	-14445
▁शपः	-14446
▁शमन	-14447
▁शमय	-14448
▁शरि	-14449
▁शरी	-14450
▁शशः	-14451
▁शशक	-14452
▁शाप	-14453
▁शौच	-14454
▁षये	-14455
▁सनम	-14456
▁सबै	-14457
▁सवर	-14458
▁साफ	-14459
▁सिट	-14460
▁सीट	-14461
▁सुः	-14462
▁सॅम	-14463
▁हयो	-14464
▁हहह	-14465
▁हाथ	-14466
▁हाभ	-14467
▁हीह	-14468
▁हुँ	-14469
▁ऽतो	-14470
▁ातस	-14471
▁िंह	-14472
▁िनत	-14473
▁ुपद	-14474
▁ृतस	-14475
▁ेपर	-14476
▁्गि	-14477
▁्ण्	-14478
▁्शय	-14479
▁्हत	-14480
▁१६७	-14481
▁२१०	-14482
▁२१२	-14483
▁२१३	-14484
▁२२६	-14485
▁२४१	-14486
▁२५४	-14487
▁२५६	-14488
▁२६०	-14489
▁२६८	-14490
▁२९५	-14491
▁४६०	-14492
▁४७१	-14493
▁५५०	-14494
▁॰॰॰	-14495
▁வரி	-14496
▁Anil	-14497
▁Arya	-14498
▁Bala	-14499
▁Bill	-14500
▁CCTV	-14501
▁Colo	-14502
▁DOWN	-14503
▁Dire	-14504
▁Divi	-14505
▁Even	-14506
▁Game	-14507
▁Geet	-14508
▁IOCL	-14509
▁Idea	-14510
▁Like	-14511
▁Look	-14512
▁Maay	-14513
▁Mari	-14514
▁Medi	-14515
▁Mini	-14516
▁Morn	-14517
▁Once	-14518
▁Orga	-14519
▁Osma	-14520
▁PSLV	-14521
▁Rato	-14522
▁Safe	-14523
▁Saya	-14524
▁Self	-14525
▁Sept	-14526
▁Seve	-14527
▁Side	-14528
▁Soci	-14529
▁Sola	-14530
▁Spee	-14531
▁TRUE	-14532
▁Text	-14533
▁True	-14534
▁UNES	-14535
▁UPSS	-14536
▁Udit	-14537
▁Xbox	-14538
▁Xxnx	-14539
▁admi	-14540
▁ball	-14541
▁blow	-14542
▁care	-14543
▁cast	-14544
▁ched	-14545
▁dark	-14546
▁ddha	-14547
▁dead	-14548
▁deta	-14549
▁deva	-14550
▁erty	-14551
▁hand	-14552
▁jizz	-14553
▁kali	-14554
▁ksha	-14555
▁lled	-14556
▁male	-14557
▁miss	-14558
▁ndra	-14559
▁ngal	-14560
▁ngry	-14561
▁nsli	-14562
▁obso	-14563
▁perf	-14564
▁piec	-14565
▁ppli	-14566
▁roid	-14567
▁room	-14568
▁ruit	-14569
▁side	-14570
▁site	-14571
▁stan	-14572
▁stre	-14573
▁symp	-14574
▁toms	-14575
▁uses	-14576
▁wall	-14577
▁wind	-14578
▁छात्	-14579
▁तिहा	-14580
▁थात्	-14581
▁थिते	-14582
▁भाव्	-14583
▁यवस्	-14584
▁राद्	-14585
▁र्गं	-14586
▁र्श्	-14587
▁शान्	-14588
▁षाणा	-14589
▁ष्ट्	-14590
▁स्ने	-14591
▁ामर्	-14592
▁्तुत	-14593
▁्यमे	-14594
▁्रशस	-14595
▁्वमा	-14596
▁Blogg	-14597
▁Conce	-14598
▁Creat	-14599
▁Diego	-14600
▁Forum	-14601
▁Hence	-14602
▁Hindu	-14603
▁Likes	-14604
▁Lives	-14605
▁Order	-14606
▁Print	-14607
▁Provi	-14608
▁Skype	-14609
▁Terms	-14610
▁Third	-14611
▁UPTET	-14612
▁Water	-14613
▁Websi	-14614
▁child	-14615
▁clear	-14616
▁drink	-14617
▁field	-14618
▁helps	-14619
▁house	-14620
▁menti	-14621
▁model	-14622
▁nzler	-14623
▁ressi	-14624
▁sente	-14625
▁ंस्का	-14626
▁पश्यन	-14627
▁र्वस्	-14628
▁शब्दस	-14629
▁िप्रा	-14630
▁्तवान	-14631
,"	-14632
10	-14633
FT	-14634
HT	-14635
IM	-14636
KH	-14637
LC	-14638
MR	-14639
NA	-14640
OM	-14641
PE	-14642
bd	-14643
sm	-14644
tc	-14645
tu	-14646
yu	-14647
zz	-14648
ка	-14649
рь	-14650
цо	-14651
لا	-14652
يا	-14653
अन	-14654
आं	-14655
आप	-14656
इत	-14657
इस	-14658
और	-14659
कि	-14660
दन	-14661
धन	-14662
धी	-14663
पद	-14664
व्	-14665
सौ	-14666
▁Æ	-14667
▁Þ	-14668
▁é	-14669
▁ş	-14670
▁Š	-14671
▁ʃ	-14672
▁е	-14673
▁н	-14674
▁о	-14675
▁ч	-14676
▁ה	-14677
▁س	-14678
▁আ	-14679
▁য	-14680
▁ட	-14681
▁ெ	-14682
▁ం	-14683
▁ు	-14684
▁ಕ	-14685
▁ಗ	-14686
▁ಡ	-14687
▁ಯ	-14688
▁ೆ	-14689
▁ശ	-14690
▁സ	-14691
▁ൊ	-14692
▁∆	-14693
▁▪	-14694
▁♂	-14695
▁♥	-14696
▁。	-14697
▁の	-14698
▁マ	-14699
▁月	-14700
▁🔹	-14701
▁😊	-14702
ラー	-14703
ACK	-14704
ALL	-14705
EST	-14706
ISA	-14707
TCH	-14708
ber	-14709
era	-14710
ffi	-14711
gel	-14712
ham	-14713
hta	-14714
iao	-14715
ley	-14716
ona	-14717
ubs	-14718
vec	-14719
yām	-14720
▁"*	-14721
▁"-	-14722
▁#3	-14723
▁%1	-14724
▁')	-14725
▁('	-14726
▁+2	-14727
▁.।	-14728
▁/)	-14729
▁1"	-14730
▁1;	-14731
▁3%	-14732
▁=1	-14733
▁@@	-14734
▁AA	-14735
▁AO	-14736
▁BO	-14737
▁BY	-14738
▁DD	-14739
▁EE	-14740
▁Er	-14741
▁Ey	-14742
▁FI	-14743
▁FX	-14744
▁GR	-14745
▁Gr	-14746
▁HO	-14747
▁LG	-14748
▁LY	-14749
▁Lt	-14750
▁MK	-14751
▁MT	-14752
▁MW	-14753
▁Mv	-14754
▁OW	-14755
▁SW	-14756
▁Sk	-14757
▁TM	-14758
▁TN	-14759
▁UE	-14760
▁UV	-14761
▁WP	-14762
▁XN	-14763
▁XV	-14764
▁ax	-14765
▁ft	-14766
▁ie	-14767
▁je	-14768
▁lg	-14769
▁lk	-14770
▁mc	-14771
▁nj	-14772
▁nv	-14773
▁sd	-14774
▁ul	-14775
▁zz	-14776
▁~~	-14777
▁śa	-14778
▁см	-14779
▁अँ	-14780
▁आख	-14781
▁आि	-14782
▁ईः	-14783
▁ईष	-14784
▁ऊत	-14785
▁ऊॅ	-14786
▁ऎक	-14787
▁ओघ	-14788
▁औऱ	-14789
▁खङ	-14790
▁गइ	-14791
▁घि	-14792
▁ङः	-14793
▁चण	-14794
▁जॄ	-14795
▁झे	-14796
▁ठ॰	-14797
▁डर	-14798
▁ढं	-14799
▁ढे	-14800
▁ढो	-14801
▁नण	-14802
▁पॄ	-14803
▁लड	-14804
▁लृ	-14805
▁वॉ	-14806
▁ṇa	-14807
▁ṣa	-14808
▁ṣṭ	-14809
ラーテ	-14810
eart	-14811
leep	-14812
omme	-14813
rish	-14814
ruit	-14815
weet	-14816
▁(%)	-14817
▁().	-14818
▁-14	-14819
▁-18	-14820
▁02.	-14821
▁08.	-14822
▁1-2	-14823
▁1..	-14824
▁1.0	-14825
▁1.4	-14826
▁1.8	-14827
▁1.9	-14828
▁1/1	-14829
▁10-	-14830
▁107	-14831
▁131	-14832
▁135	-14833
▁14)	-14834
▁141	-14835
▁149	-14836
▁181	-14837
▁191	-14838
▁194	-14839
▁2-3	-14840
▁20)	-14841
▁204	-14842
▁238	-14843
▁240	-14844
▁25%	-14845
▁3.4	-14846
▁30।	-14847
▁325	-14848
▁370	-14849
▁377	-14850
▁4.2	-14851
▁44.	-14852
▁450	-14853
▁507	-14854
▁55.	-14855
▁58.	-14856
▁67.	-14857
▁77.	-14858
▁95%	-14859
▁99%	-14860
▁AIR	-14861
▁ART	-14862
▁ATM	-14863
▁Acu	-14864
▁Alo	-14865
▁Anu	-14866
▁Avi	-14867
▁Bee	-14868
▁Box	-14869
▁COM	-14870
▁CON	-14871
▁Cap	-14872
▁Dog	-14873
▁Dun	-14874
▁EOS	-14875
▁Ent	-14876
▁Exc	-14877
▁FIR	-14878
▁FOL	-14879
▁Fed	-14880
▁Fer	-14881
▁Fix	-14882
▁Hyp	-14883
▁IAL	-14884
▁INC	-14885
▁INS	-14886
▁IRC	-14887
▁IVE	-14888
▁Ima	-14889
▁Jhe	-14890
▁LOG	-14891
▁MCQ	-14892
▁Med	-14893
▁Nii	-14894
▁Non	-14895
▁ONE	-14896
▁Ora	-14897
▁PLU	-14898
▁PSI	-14899
▁Pet	-14900
▁Qui	-14901
▁Ret	-14902
▁Rus	-14903
▁SAR	-14904
▁SMS	-14905
▁SON	-14906
▁SUP	-14907
▁Spe	-14908
▁TOC	-14909
▁Una	-14910
▁Vai	-14911
▁aav	-14912
▁ans	-14913
▁ase	-14914
▁bag	-14915
▁cas	-14916
▁cor	-14917
▁dil	-14918
▁din	-14919
▁dow	-14920
▁dua	-14921
▁dut	-14922
▁ees	-14923
▁ens	-14924
▁fut	-14925
▁gon	-14926
▁gre	-14927
▁had	-14928
▁han	-14929
▁her	-14930
▁his	-14931
▁hma	-14932
▁hra	-14933
▁hur	-14934
▁joy	-14935
▁kar	-14936
▁ken	-14937
▁lec	-14938
▁led	-14939
▁lin	-14940
▁mbs	-14941
▁mir	-14942
▁nap	-14943
▁ner	-14944
▁nth	-14945
▁nut	-14946
▁peo	-14947
▁php	-14948
▁pit	-14949
▁por	-14950
▁rap	-14951
▁rip	-14952
▁ros	-14953
▁sss	-14954
▁sya	-14955
▁tat	-14956
▁twe	-14957
▁une	-14958
▁uri	-14959
▁vie	-14960
▁vis	-14961
▁wei	-14962
▁xml	-14963
▁zen	-14964
▁अजि	-14965
▁अटक	-14966
▁अटल	-14967
▁अतं	-14968
▁अतस	-14969
▁अप॒	-14970
▁अरब	-14971
▁अरि	-14972
▁अवा	-14973
▁असय	-14974
▁असो	-14975
▁आङो	-14976
▁आछे	-14977
▁आणि	-14978
▁आना	-14979
▁आनि	-14980
▁आभा	-14981
▁आमे	-14982
▁आशत	-14983
▁आशी	-14984
▁इञः	-14985
▁इधर	-14986
▁इरा	-14987
▁इलं	-14988
▁इहे	-14989
▁इ॑व	-14990
▁ईम्	-14991
▁ईहा	-14992
▁उधर	-14993
▁उभ॰	-14994
▁उसि	-14995
▁ऊढः	-14996
▁ऊहा	-14997
▁ऋषभ	-14998
▁एदु	-14999
▁एवन	-15000
▁एवो	-15001
▁एशे	-15002
▁ऐतु	-15003
▁ऐलः	-15004
▁ओर्	-15005
▁ओवन	-15006
▁ओस्	-15007
▁कतु	-15008
▁कदर	-15009
▁कनक	-15010
▁कनो	-15011
▁करू	-15012
▁कलह	-15013
▁कसा	-15014
▁कीः	-15015
▁केस	-15016
▁खँत	-15017
▁खतम	-15018
▁खनः	-15019
▁खनी	-15020
▁खयि	-15021
▁खरी	-15022
▁खल्	-15023
▁गंध	-15024
▁गगन	-15025
▁गदो	-15026
▁गुः	-15027
▁गेन	-15028
▁घटौ	-15029
▁घन्	-15030
▁घा॒	-15031
▁घेः	-15032
▁ङयि	-15033
▁चयः	-15034
▁चिज	-15035
▁चीज	-15036
▁छखे	-15037
▁छठा	-15038
▁छधी	-15039
▁छहः	-15040
▁जटा	-15041
▁जलः	-15042
▁जली	-15043
▁जवः	-15044
▁जै०	-15045
▁टक्	-15046
▁ठेव	-15047
▁डाई	-15048
▁णचः	-15049
▁णच्	-15050
▁णलः	-15051
▁णेव	-15052
▁तंव	-15053
▁तटः	-15054
▁ततौ	-15055
▁तदि	-15056
▁तदू	-15057
▁तमू	-15058
▁तरु	-15059
▁तवद	-15060
▁तुभ	-15061
▁तुह	-15062
▁तेच	-15063
▁तौर	-15064
▁थनं	-15065
▁थपे	-15066
▁थयत	-15067
▁थाई	-15068
▁दकं	-15069
▁दतं	-15070
▁दमं	-15071
▁दशः	-15072
▁दश॑	-15073
▁दसि	-15074
▁दीव	-15075
▁दुह	-15076
▁देई	-15077
▁धूं	-15078
▁नचि	-15079
▁नञो	-15080
▁नतो	-15081
▁नमे	-15082
▁नैक	-15083
▁पचि	-15084
▁पतः	-15085
▁पथं	-15086
▁पदक	-15087
▁पदो	-15088
▁पयस	-15089
▁पिच	-15090
▁पीन	-15091
▁पू०	-15092
▁पेट	-15093
▁पौः	-15094
▁फणी	-15095
▁फेन	-15096
▁बढे	-15097
▁बधे	-15098
▁बाघ	-15099
▁बिइ	-15100
▁बिए	-15101
▁बीस	-15102
▁बुक	-15103
▁बेद	-15104
▁बैच	-15105
▁भयौ	-15106
▁भरण	-15107
▁भर्	-15108
▁भू०	-15109
▁भैः	-15110
▁मंच	-15111
▁मदम	-15112
▁मधे	-15113
▁मफु	-15114
▁मलः	-15115
▁मले	-15116
▁मीः	-15117
▁मुझ	-15118
▁मेँ	-15119
▁यतौ	-15120
▁यवो	-15121
▁रथॊ	-15122
▁रपः	-15123
▁रफी	-15124
▁रभा	-15125
▁रुख	-15126
▁रेन	-15127
▁लङः	-15128
▁लब्	-15129
▁लवण	-15130
▁लिग	-15131
▁लुक	-15132
▁लोग	-15133
▁वका	-15134
▁वरॊ	-15135
▁वलम	-15136
▁ववौ	-15137
▁वें	-15138
▁शकः	-15139
▁शती	-15140
▁शमो	-15141
▁शरा	-15142
▁शवो	-15143
▁षयो	-15144
▁षात	-15145
▁सतह	-15146
▁सदै	-15147
▁सनत	-15148
▁समझ	-15149
▁सि॰	-15150
▁सैष	-15151
▁सोः	-15152
▁स॒ह	-15153
▁हतौ	-15154
▁हमः	-15155
▁हवे	-15156
▁हसन	-15157
▁हुआ	-15158
▁ऽधि	-15159
▁िबन	-15160
▁िवक	-15161
▁ोच्	-15162
▁ोपद	-15163
▁्कन	-15164
▁्गी	-15165
▁्टु	-15166
▁्डल	-15167
▁२२८	-15168
▁२२९	-15169
▁२३६	-15170
▁२३७	-15171
▁२३९	-15172
▁२४८	-15173
▁२५२	-15174
▁२७०	-15175
▁२७८	-15176
▁३०५	-15177
▁३०६	-15178
▁३०८	-15179
▁३१०	-15180
▁३१७	-15181
▁३१८	-15182
▁३३६	-15183
▁३३७	-15184
▁३४२	-15185
▁३८०	-15186
▁३८८	-15187
▁४१०	-15188
▁४३४	-15189
▁४८४	-15190
▁४८९	-15191
▁४९९	-15192
▁५१८	-15193
▁Acti	-15194
▁Also	-15195
▁Cash	-15196
▁Cast	-15197
▁Come	-15198
▁Dead	-15199
▁ECTS	-15200
▁ENCY	-15201
▁ERRE	-15202
▁East	-15203
▁Edga	-15204
▁Ekla	-15205
▁FREE	-15206
▁Fina	-15207
▁Help	-15208
▁Hema	-15209
▁ICER	-15210
▁IONS	-15211
▁Inst	-15212
▁Inve	-15213
▁Just	-15214
▁Kiss	-15215
▁LOAD	-15216
▁MENT	-15217
▁Maxi	-15218
▁Mill	-15219
▁Mode	-15220
▁Move	-15221
▁NEET	-15222
▁PREF	-15223
▁Paki	-15224
▁Poet	-15225
▁Pola	-15226
▁Prof	-15227
▁RPSC	-15228
▁Rece	-15229
▁Savi	-15230
▁Shop	-15231
▁TERM	-15232
▁West	-15233
▁Wind	-15234
▁Xiao	-15235
▁beau	-15236
▁been	-15237
▁bene	-15238
▁chat	-15239
▁dies	-15240
▁dire	-15241
▁dist	-15242
▁erti	-15243
▁fate	-15244
▁ffee	-15245
▁foot	-15246
▁gain	-15247
▁game	-15248
▁heal	-15249
▁inde	-15250
▁inva	-15251
▁inve	-15252
▁keep	-15253
▁lady	-15254
▁line	-15255
▁magi	-15256
▁main	-15257
▁mbai	-15258
▁most	-15259
▁navy	-15260
▁nced	-15261
▁ndav	-15262
▁ndia	-15263
▁ndow	-15264
▁near	-15265
▁nges	-15266
▁nice	-15267
▁nner	-15268
▁omit	-15269
▁pack	-15270
▁past	-15271
▁ples	-15272
▁plus	-15273
▁pref	-15274
▁proc	-15275
▁reci	-15276
▁rest	-15277
▁rets	-15278
▁ribu	-15279
▁rich	-15280
▁rnal	-15281
▁root	-15282
▁rses	-15283
▁shya	-15284
▁slow	-15285
▁star	-15286
▁stri	-15287
▁task	-15288
▁thus	-15289
▁tory	-15290
▁tram	-15291
▁ured	-15292
▁vers	-15293
▁warn	-15294
▁whom	-15295
▁wife	-15296
▁лицо	-15297
▁चास्	-15298
▁तव्य	-15299
▁थस्य	-15300
▁थाना	-15301
▁नार्	-15302
▁पलब्	-15303
▁भाषि	-15304
▁रतिप	-15305
▁रतीत	-15306
▁राकृ	-15307
▁रिणः	-15308
▁र्णय	-15309
▁र्शय	-15310
▁वाच्	-15311
▁वानु	-15312
▁स्कृ	-15313
▁स्त्	-15314
▁िंचि	-15315
▁िंशत	-15316
▁ुतिः	-15317
▁ुवर्	-15318
▁ेश्व	-15319
▁्पर्	-15320
▁्रदा	-15321
▁्शित	-15322
▁マラーテ	-15323
▁Close	-15324
▁Conte	-15325
▁Email	-15326
▁Emoji	-15327
▁Filed	-15328
▁Frame	-15329
▁Gener	-15330
▁Happy	-15331
▁Heart	-15332
▁Indep	-15333
▁Jansa	-15334
▁Juice	-15335
▁Leave	-15336
▁Motto	-15337
▁Poems	-15338
▁Preli	-15339
▁Proce	-15340
▁Repli	-15341
▁Resea	-15342
▁Sanch	-15343
▁Shift	-15344
▁Tense	-15345
▁Vibhi	-15346
▁XXXXX	-15347
▁appli	-15348
▁appro	-15349
▁bhyām	-15350
▁books	-15351
▁consi	-15352
▁defau	-15353
▁dream	-15354
▁essay	-15355
▁force	-15356
▁found	-15357
▁gawad	-15358
▁gener	-15359
▁justi	-15360
▁mount	-15361
▁moved	-15362
▁prati	-15363
▁provi	-15364
▁repli	-15365
▁reply	-15366
▁river	-15367
▁samsk	-15368
▁smile	-15369
▁termi	-15370
▁times	-15371
▁vense	-15372
▁कारणा	-15373
▁क्षया	-15374
▁धानमन	-15375
▁माश्र	-15376
▁याप्त	-15377
▁विशिष	-15378
▁सर्व्	-15379
▁ुद्धं	-15380
▁्यार्	-15381
▁्रयुक	-15382
.:	-15383
/5	-15384
:-	-15385
An	-15386
HS	-15387
IE	-15388
RP	-15389
SI	-15390
SP	-15391
TI	-15392
To	-15393
VS	-15394
hm	-15395
jo	-15396
ns	-15397
ot	-15398
ph	-15399
ui	-15400
ий	-15401
ло	-15402
ць	-15403
או	-15404
هر	-15405
आर	-15406
ऊं	-15407
एम	-15408
गो	-15409
छं	-15410
ढ्	-15411
ने	-15412
नौ	-15413
पं	-15414
बि	-15415
मी	-15416
यी	-15417
रत	-15418
ला	-15419
वद	-15420
हम	-15421
ोस	-15422
१८	-15423
२२	-15424
२६	-15425
ᄌᄌ	-15426
▁Ç	-15427
▁Ê	-15428
▁í	-15429
▁ï	-15430
▁ĉ	-15431
▁ə	-15432
▁̧	-15433
▁В	-15434
▁Д	-15435
▁Т	-15436
▁ב	-15437
▁ب	-15438
▁ܬ	-15439
▁ॿ	-15440
▁উ	-15441
▁ਾ	-15442
▁ણ	-15443
▁થ	-15444
▁દ	-15445
▁ભ	-15446
▁ળ	-15447
▁எ	-15448
▁ண	-15449
▁ோ	-15450
▁మ	-15451
▁వ	-15452
▁ా	-15453
▁എ	-15454
▁ധ	-15455
▁∴	-15456
▁お	-15457
▁꣯	-15458
▁전	-15459
▁🌻	-15460
▁🌿	-15461
▁🔅	-15462
ール	-15463
Ada	-15464
ING	-15465
ULL	-15466
ans	-15467
ats	-15468
ils	-15469
iny	-15470
les	-15471
lid	-15472
lka	-15473
osh	-15474
osp	-15475
ral	-15476
thy	-15477
und	-15478
нді	-15479
▁"$	-15480
▁#6	-15481
▁#8	-15482
▁#☝	-15483
▁';	-15484
▁(,	-15485
▁*-	-15486
▁1॥	-15487
▁1⁄	-15488
▁2%	-15489
▁5।	-15490
▁8%	-15491
▁AE	-15492
▁Aw	-15493
▁BF	-15494
▁BK	-15495
▁CF	-15496
▁CV	-15497
▁DJ	-15498
▁Dj	-15499
▁EG	-15500
▁FD	-15501
▁JS	-15502
▁KN	-15503
▁LM	-15504
▁MF	-15505
▁NM	-15506
▁NN	-15507
▁Ok	-15508
▁PE	-15509
▁PR	-15510
▁RR	-15511
▁RY	-15512
▁TW	-15513
▁UL	-15514
▁Ur	-15515
▁VC	-15516
▁VN	-15517
▁],	-15518
▁af	-15519
▁ah	-15520
▁aq	-15521
▁cg	-15522
▁cn	-15523
▁cz	-15524
▁eg	-15525
▁ek	-15526
▁iq	-15527
▁lm	-15528
▁lz	-15529
▁mL	-15530
▁nx	-15531
▁nā	-15532
▁oi	-15533
▁tn	-15534
▁uz	-15535
▁}}	-15536
▁अख	-15537
▁अॅ	-15538
▁अ॒	-15539
▁इञ	-15540
▁इि	-15541
▁ईह	-15542
▁ऋं	-15543
▁ऋि	-15544
▁ऐव	-15545
▁खइ	-15546
▁ख०	-15547
▁ग॒	-15548
▁चट	-15549
▁चद	-15550
▁चू	-15551
▁जद	-15552
▁णड	-15553
▁णथ	-15554
▁णै	-15555
▁तई	-15556
▁त॒	-15557
▁तꣳ	-15558
▁नड	-15559
▁नॄ	-15560
▁पॉ	-15561
▁फै	-15562
▁फॉ	-15563
▁बव	-15564
▁बॉ	-15565
▁मङ	-15566
▁मड	-15567
▁यँ	-15568
▁य॑	-15569
▁य॰	-15570
▁लइ	-15571
▁लई	-15572
▁शह	-15573
▁षल	-15574
▁सꣳ	-15575
▁िि	-15576
▁ॐइ	-15577
▁३ि	-15578
anfu	-15579
indi	-15580
liss	-15581
ould	-15582
▁#3.	-15583
▁$1"	-15584
▁(12	-15585
▁(17	-15586
▁(21	-15587
▁(30	-15588
▁(6.	-15589
▁(:)	-15590
▁(=)	-15591
▁--*	-15592
▁04,	-15593
▁132	-15594
▁138	-15595
▁142	-15596
▁147	-15597
▁152	-15598
▁155	-15599
▁159	-15600
▁16)	-15601
▁174	-15602
▁17:	-15603
▁18%	-15604
▁189	-15605
▁193	-15606
▁199	-15607
▁2.6	-15608
▁2.7	-15609
▁2.8	-15610
▁209	-15611
▁21)	-15612
▁25,	-15613
▁299	-15614
▁3.2	-15615
▁360	-15616
▁380	-15617
▁4-5	-15618
▁4.3	-15619
▁420	-15620
▁4__	-15621
▁52.	-15622
▁59.	-15623
▁6.1	-15624
▁639	-15625
▁65.	-15626
▁6__	-15627
▁75%	-15628
▁88.	-15629
▁89.	-15630
▁8__	-15631
▁98%	-15632
▁999	-15633
▁ANA	-15634
▁AND	-15635
▁AUS	-15636
▁Aut	-15637
▁BAR	-15638
▁BAS	-15639
▁Bec	-15640
▁Ber	-15641
▁CAR	-15642
▁Car	-15643
▁Cen	-15644
▁Cla	-15645
▁Dro	-15646
▁ECO	-15647
▁ENT	-15648
▁Fan	-15649
▁GBP	-15650
▁GDP	-15651
▁GMT	-15652
▁GOL	-15653
▁Gho	-15654
▁Gla	-15655
▁HIN	-15656
▁Heb	-15657
▁IAF	-15658
▁ICO	-15659
▁ICT	-15660
▁IFS	-15661
▁IGR	-15662
▁INT	-15663
▁ITI	-15664
▁ITY	-15665
▁Jor	-15666
▁LSO	-15667
▁Lau	-15668
▁Law	-15669
▁Los	-15670
▁MAT	-15671
▁MSC	-15672
▁MSW	-15673
▁Mas	-15674
▁Min	-15675
▁Mun	-15676
▁NAC	-15677
▁NDA	-15678
▁NEP	-15679
▁NOT	-15680
▁NOW	-15681
▁Nir	-15682
▁PCR	-15683
▁PER	-15684
▁POT	-15685
▁PWD	-15686
▁Peo	-15687
▁Pic	-15688
▁Qua	-15689
▁RAL	-15690
▁RAS	-15691
▁RFC	-15692
▁RTE	-15693
▁RTI	-15694
▁Rev	-15695
▁SEP	-15696
▁Sad	-15697
▁Sai	-15698
▁Say	-15699
▁Sil	-15700
▁Sin	-15701
▁Sti	-15702
▁Tan	-15703
▁Tau	-15704
▁Tay	-15705
▁Thy	-15706
▁Tor	-15707
▁Var	-15708
▁Vis	-15709
▁XIV	-15710
▁ace	-15711
▁ada	-15712
▁alp	-15713
▁alt	-15714
▁apa	-15715
▁ati	-15716
▁bey	-15717
▁bow	-15718
▁bru	-15719
▁cow	-15720
▁cra	-15721
▁cup	-15722
▁cus	-15723
▁dit	-15724
▁ell	-15725
▁eng	-15726
▁eti	-15727
▁fAp	-15728
▁fAs	-15729
▁fNp	-15730
▁fen	-15731
▁fps	-15732
▁gat	-15733
▁ggy	-15734
▁gif	-15735
▁got	-15736
▁ide	-15737
▁jet	-15738
▁kia	-15739
▁kla	-15740
▁kno	-15741
▁kon	-15742
▁lba	-15743
▁ley	-15744
▁low	-15745
▁lpa	-15746
▁lty	-15747
▁lve	-15748
▁mAs	-15749
▁mat	-15750
▁max	-15751
▁mli	-15752
▁mni	-15753
▁mod	-15754
▁ngi	-15755
▁nka	-15756
▁oli	-15757
▁omy	-15758
▁pdu	-15759
▁pes	-15760
▁png	-15761
▁rav	-15762
▁rer	-15763
▁rly	-15764
▁rri	-15765
▁rro	-15766
▁rup	-15767
▁rva	-15768
▁sac	-15769
▁sci	-15770
▁sco	-15771
▁sey	-15772
▁shu	-15773
▁sia	-15774
▁sky	-15775
▁sni	-15776
▁str	-15777
▁tee	-15778
▁tho	-15779
▁tos	-15780
▁ums	-15781
▁unc	-15782
▁xVi	-15783
▁ंवे	-15784
▁अचा	-15785
▁अणौ	-15786
▁अथं	-15787
▁अपन	-15788
▁अपु	-15789
▁अपे	-15790
▁अमू	-15791
▁अरः	-15792
▁अव्	-15793
▁अशी	-15794
▁अहँ	-15795
▁अहु	-15796
▁अिप	-15797
▁आँट	-15798
▁आजु	-15799
▁आटः	-15800
▁आटि	-15801
▁आद्	-15802
▁आपं	-15803
▁आभर	-15804
▁आलम	-15805
▁आलु	-15806
▁आहे	-15807
▁इअं	-15808
▁इतत	-15809
▁इदु	-15810
▁इमम	-15811
▁इमु	-15812
▁इम्	-15813
▁इयु	-15814
▁इवन	-15815
▁इश्	-15816
▁इसी	-15817
▁ईय्	-15818
▁ईशत	-15819
▁उञः	-15820
▁उदि	-15821
▁ऊना	-15822
▁ऊहे	-15823
▁ऋग्	-15824
▁ऋषय	-15825
▁एंड	-15826
▁एङि	-15827
▁एमि	-15828
▁एला	-15829
▁एषॊ	-15830
▁एसा	-15831
▁ऐशा	-15832
▁ओदन	-15833
▁कक्	-15834
▁कथि	-15835
▁कथ्	-15836
▁कदं	-15837
▁कमः	-15838
▁कयं	-15839
▁कहत	-15840
▁कुह	-15841
▁कृ॰	-15842
▁कोए	-15843
▁खगो	-15844
▁खयः	-15845
▁खरा	-15846
▁खुल	-15847
▁गच्	-15848
▁गदे	-15849
▁गयो	-15850
▁ग़म	-15851
▁गौर	-15852
▁घरं	-15853
▁घरः	-15854
▁घास	-15855
▁घुम	-15856
▁ङसि	-15857
▁चिच	-15858
▁चुप	-15859
▁चौर	-15860
▁छूट	-15861
▁जटी	-15862
▁जपि	-15863
▁जयॊ	-15864
▁जाओ	-15865
▁जुन	-15866
▁जेव	-15867
▁झयः	-15868
▁झूम	-15869
▁ञपि	-15870
▁टण्	-15871
▁टेप	-15872
▁ठञो	-15873
▁ठाव	-15874
▁ठोस	-15875
▁डबल	-15876
▁ड्ड	-15877
▁णत्	-15878
▁णेः	-15879
▁णो॒	-15880
▁तुए	-15881
▁तैस	-15882
▁त्ँ	-15883
▁थस्	-15884
▁दम॒	-15885
▁दशो	-15886
▁दहन	-15887
▁दहि	-15888
▁दीक	-15889
▁दृह	-15890
▁देस	-15891
▁दोउ	-15892
▁धटः	-15893
▁धणी	-15894
▁धनः	-15895
▁धुम	-15896
▁नखे	-15897
▁नटे	-15898
▁नना	-15899
▁नमॊ	-15900
▁नष्	-15901
▁नही	-15902
▁नि॰	-15903
▁नीम	-15904
▁नुं	-15905
▁नृं	-15906
▁नेः	-15907
▁नोट	-15908
▁पठत	-15909
▁पणे	-15910
▁पनः	-15911
▁पिर	-15912
▁प॒थ	-15913
▁फलः	-15914
▁फिट	-15915
▁फूल	-15916
▁बंद	-15917
▁बधः	-15918
▁बरस	-15919
▁बिउ	-15920
▁बोस	-15921
▁भने	-15922
▁भाप	-15923
▁भॊः	-15924
▁मदत	-15925
▁मदा	-15926
▁मध्	-15927
▁मरत	-15928
▁महँ	-15929
▁मा०	-15930
▁मेः	-15931
▁मैन	-15932
▁मौत	-15933
▁यतं	-15934
▁यथ्	-15935
▁यवौ	-15936
▁येई	-15937
▁यो३	-15938
▁रघौ	-15939
▁रहस	-15940
▁रहि	-15941
▁रिट	-15942
▁रेफ	-15943
▁लखं	-15944
▁लवं	-15945
▁लॉस	-15946
▁लोः	-15947
▁वतं	-15948
▁वनॆ	-15949
▁वमि	-15950
▁वली	-15951
▁वहु	-15952
▁वीप	-15953
▁वेध	-15954
▁वैष	-15955
▁शरो	-15956
▁शेप	-15957
▁षतः	-15958
▁सदत	-15959
▁सपा	-15960
▁सभय	-15961
▁समत	-15962
▁सरं	-15963
▁सेम	-15964
▁सों	-15965
▁हठं	-15966
▁हरा	-15967
▁हुई	-15968
▁्चत	-15969
▁्णं	-15970
▁्धः	-15971
▁्नस	-15972
▁्पू	-15973
▁्षम	-15974
▁ॐॐॐ	-15975
▁१०ः	-15976
▁२०९	-15977
▁२१७	-15978
▁२२३	-15979
▁२३८	-15980
▁२४२	-15981
▁२४४	-15982
▁२४९	-15983
▁२५९	-15984
▁२६१	-15985
▁२७२	-15986
▁२९८	-15987
▁३०१	-15988
▁३११	-15989
▁३१२	-15990
▁३३३	-15991
▁३४८	-15992
▁३५९	-15993
▁३६३	-15994
▁३८४	-15995
▁४१९	-15996
▁४३७	-15997
▁४४१	-15998
▁४४६	-15999
▁४४९	-16000
▁४७७	-16001
▁४९०	-16002
▁५२०	-16003
▁५२४	-16004
▁५२७	-16005
▁५५९	-16006
▁५७४	-16007
▁५७६	-16008
▁५८०	-16009
▁७७६	-16010
▁८२०	-16011
▁९५०	-16012
▁ATCH	-16013
▁Admi	-16014
▁Agni	-16015
▁Apps	-16016
▁Beli	-16017
▁Bhag	-16018
▁Brea	-16019
▁Brok	-16020
▁Bull	-16021
▁Cali	-16022
▁Cart	-16023
▁Chri	-16024
▁Cook	-16025
▁Coro	-16026
▁Crea	-16027
▁Deli	-16028
▁Desk	-16029
▁Dyna	-16030
▁Eter	-16031
▁FOLL	-16032
▁Feat	-16033
▁Feed	-16034
▁Food	-16035
▁Frie	-16036
▁GSLV	-16037
▁Girl	-16038
▁Govi	-16039
▁Gram	-16040
▁Hard	-16041
▁High	-16042
▁Holy	-16043
▁ICAR	-16044
▁IEEE	-16045
▁IPCC	-16046
▁Iraq	-16047
▁Kali	-16048
▁Know	-16049
▁Lady	-16050
▁Lelu	-16051
▁Luck	-16052
▁MSME	-16053
▁Mara	-16054
▁Mart	-16055
▁Math	-16056
▁Mike	-16057
▁Mind	-16058
▁Miss	-16059
▁Park	-16060
▁REAK	-16061
▁Rank	-16062
▁SELF	-16063
▁Safa	-16064
▁Sala	-16065
▁Sate	-16066
▁Scho	-16067
▁Sexy	-16068
▁Silk	-16069
▁Slow	-16070
▁Some	-16071
▁Symp	-16072
▁They	-16073
▁UIIC	-16074
▁When	-16075
▁XVII	-16076
▁Yogi	-16077
▁acti	-16078
▁assi	-16079
▁avec	-16080
▁berg	-16081
▁bots	-16082
▁call	-16083
▁chet	-16084
▁chla	-16085
▁cold	-16086
▁demo	-16087
▁desc	-16088
▁dest	-16089
▁devo	-16090
▁divi	-16091
▁duty	-16092
▁eAda	-16093
▁each	-16094
▁ears	-16095
▁ensi	-16096
▁fair	-16097
▁favo	-16098
▁feed	-16099
▁fort	-16100
▁half	-16101
▁happ	-16102
▁hard	-16103
▁hide	-16104
▁hist	-16105
▁ibps	-16106
▁kmal	-16107
▁lour	-16108
▁mast	-16109
▁mics	-16110
▁mode	-16111
▁mome	-16112
▁mory	-16113
▁ncel	-16114
▁ndam	-16115
▁nded	-16116
▁ndey	-16117
▁ndhi	-16118
▁nomy	-16119
▁pali	-16120
▁prai	-16121
▁pray	-16122
▁ques	-16123
▁reas	-16124
▁redi	-16125
▁reme	-16126
▁reni	-16127
▁rict	-16128
▁rise	-16129
▁rror	-16130
▁rule	-16131
▁rved	-16132
▁rver	-16133
▁same	-16134
▁scie	-16135
▁show	-16136
▁spok	-16137
▁sses	-16138
▁stha	-16139
▁than	-16140
▁tomo	-16141
▁tori	-16142
▁tors	-16143
▁tour	-16144
▁unit	-16145
▁upsc	-16146
▁urse	-16147
▁uter	-16148
▁vari	-16149
▁vels	-16150
▁vict	-16151
▁wood	-16152
▁yoga	-16153
▁ंशति	-16154
▁चत्व	-16155
▁चार्	-16156
▁चेति	-16157
▁णप्र	-16158
▁तमित	-16159
▁तिश्	-16160
▁तिषे	-16161
▁तीया	-16162
▁देवस	-16163
▁देशस	-16164
▁मेरि	-16165
▁युद्	-16166
▁रपति	-16167
▁रसिद	-16168
▁रीष्	-16169
▁साक्	-16170
▁स्वभ	-16171
▁ावेन	-16172
▁िमन्	-16173
▁ियमा	-16174
▁िरित	-16175
▁ुर्भ	-16176
▁्तिव	-16177
▁्थाः	-16178
▁्धस्	-16179
▁्निर	-16180
▁्रया	-16181
▁Ashta	-16182
▁BLAST	-16183
▁Bliss	-16184
▁Calcu	-16185
▁Commi	-16186
▁Conta	-16187
▁Covid	-16188
▁Crime	-16189
▁Drink	-16190
▁Dunia	-16191
▁Entry	-16192
▁Intro	-16193
▁Kolka	-16194
▁Krish	-16195
▁Legal	-16196
▁Libre	-16197
▁Model	-16198
▁MuniN	-16199
▁Pages	-16200
▁Porno	-16201
▁Preci	-16202
▁Price	-16203
▁Prose	-16204
▁Radio	-16205
▁Samsk	-16206
▁Sande	-16207
▁Santa	-16208
▁Speak	-16209
▁UKPSC	-16210
▁UNNAY	-16211
▁Vedas	-16212
▁Vedic	-16213
▁ameri	-16214
▁black	-16215
▁bunal	-16216
▁close	-16217
▁cloud	-16218
▁crick	-16219
▁desti	-16220
▁dildo	-16221
▁enemy	-16222
▁entry	-16223
▁files	-16224
▁grams	-16225
▁hindi	-16226
▁kanfu	-16227
▁limit	-16228
▁lover	-16229
▁music	-16230
▁nders	-16231
▁permi	-16232
▁previ	-16233
▁price	-16234
▁resea	-16235
▁shell	-16236
▁stick	-16237
▁third	-16238
▁where	-16239
▁yours	-16240
▁कत्वा	-16241
▁त्राद	-16242
▁त्रिव	-16243
▁द्विव	-16244
▁यत्ने	-16245
▁यन्तं	-16246
▁यन्तर	-16247
▁योगकर	-16248
▁वर्षस	-16249
▁सिध्य	-16250
▁स्येत	-16251
▁स्वप्	-16252
▁ार्यक	-16253
▁ित्या	-16254
▁िपरीत	-16255
▁िर्दे	-16256
▁ुरुषो	-16257
▁्थस्य	-16258
▁्यतिर	-16259
▁्यामः	-16260
▁्रतीय	-16261
#~	-16262
$2	-16263
):	-16264
.2	-16265
.6	-16266
.8	-16267
.9	-16268
21	-16269
50	-16270
90	-16271
>#	-16272
CI	-16273
CP	-16274
FF	-16275
GA	-16276
HA	-16277
HF	-16278
He	-16279
KE	-16280
My	-16281
No	-16282
PI	-16283
PM	-16284
PO	-16285
PR	-16286
RD	-16287
RS	-16288
TB	-16289
TH	-16290
UL	-16291
VP	-16292
dc	-16293
hd	-16294
mb	-16295
mg	-16296
nk	-16297
pc	-16298
tU	-16299
up	-16300
wD	-16301
{?	-16302
āt	-16303
āḥ	-16304
ан	-16305
ва	-16306
кр	-16307
но	-16308
ол	-16309
ст	-16310
хо	-16311
دى	-16312
अ०	-16313
ऋण	-16314
खौ	-16315
छु	-16316
जः	-16317
जी	-16318
ञं	-16319
टन	-16320
टा	-16321
दद	-16322
धु	-16323
फल	-16324
फा	-16325
बी	-16326
बे	-16327
मः	-16328
यह	-16329
रं	-16330
वत	-16331
शॄ	-16332
शे	-16333
हन	-16334
।।	-16335
१९	-16336
५०	-16337
ṇu	-16338
▁Û	-16339
▁ý	-16340
▁Ā	-16341
▁ū	-16342
▁ż	-16343
▁ž	-16344
▁ɪ	-16345
▁ˌ	-16346
▁θ	-16347
▁φ	-16348
▁Ј	-16349
▁А	-16350
▁Н	-16351
▁Р	-16352
▁ж	-16353
▁и	-16354
▁מ	-16355
▁ا	-16356
▁ش	-16357
▁ک	-16358
▁থ	-16359
▁প	-16360
▁ਰ	-16361
▁ੀ	-16362
▁અ	-16363
▁ઉ	-16364
▁ି	-16365
▁ற	-16366
▁ೀ	-16367
▁ഗ	-16368
▁ഷ	-16369
▁ḍ	-16370
▁‒	-16371
▁⇔	-16372
▁∫	-16373
▁⋆	-16374
▁⛳	-16375
▁✳	-16376
▁❇	-16377
▁か	-16378
▁ネ	-16379
▁一	-16380
▁增	-16381
▁年	-16382
▁🍁	-16383
▁🍃	-16384
▁🏻	-16385
▁📚	-16386
▁🔗	-16387
▁🔶	-16388
▁😀	-16389
▁😃	-16390
▁😎	-16391
▁😢	-16392
OOD	-16393
UCN	-16394
UMX	-16395
amp	-16396
ams	-16397
ang	-16398
bha	-16399
cci	-16400
die	-16401
eld	-16402
hil	-16403
hli	-16404
ili	-16405
izu	-16406
jha	-16407
ner	-16408
omb	-16409
psu	-16410
ram	-16411
ser	-16412
stu	-16413
лья	-16414
▁";	-16415
▁'-	-16416
▁(/	-16417
▁+3	-16418
▁-,	-16419
▁3।	-16420
▁4।	-16421
▁6%	-16422
▁9।	-16423
▁@:	-16424
▁AZ	-16425
▁Ao	-16426
▁BN	-16427
▁BU	-16428
▁Bj	-16429
▁CW	-16430
▁DA	-16431
▁Db	-16432
▁Dt	-16433
▁EK	-16434
▁Ec	-16435
▁Ep	-16436
▁Ev	-16437
▁FO	-16438
▁Fl	-16439
▁HP	-16440
▁HS	-16441
▁Ib	-16442
▁JI	-16443
▁Je	-16444
▁KL	-16445
▁KM	-16446
▁MH	-16447
▁NH	-16448
▁NZ	-16449
▁Nm	-16450
▁Oh	-16451
▁Om	-16452
▁PG	-16453
▁Pc	-16454
▁SY	-16455
▁Sb	-16456
▁TY	-16457
▁TÜ	-16458
▁Uṇ	-16459
▁VW	-16460
▁WI	-16461
▁Xq	-16462
▁Zu	-16463
▁cr	-16464
▁dn	-16465
▁eG	-16466
▁ei	-16467
▁ez	-16468
▁iz	-16469
▁jn	-16470
▁kt	-16471
▁rk	-16472
▁tz	-16473
▁tā	-16474
▁vu	-16475
▁vā	-16476
▁wk	-16477
▁wn	-16478
▁{{	-16479
▁çe	-16480
▁आा	-16481
▁इ०	-16482
▁उख	-16483
▁ऌं	-16484
▁ए०	-16485
▁ऑल	-16486
▁कउ	-16487
▁कॆ	-16488
▁खय	-16489
▁खै	-16490
▁खौ	-16491
▁गछ	-16492
▁गथ	-16493
▁गॄ	-16494
▁घौ	-16495
▁ङा	-16496
▁चऽ	-16497
▁छक	-16498
▁छठ	-16499
▁छय	-16500
▁झि	-16501
▁डै	-16502
▁णभ	-16503
▁ण॑	-16504
▁तण	-16505
▁थव	-16506
▁नँ	-16507
▁नऊ	-16508
▁नऽ	-16509
▁फत	-16510
▁भट	-16511
▁लण	-16512
▁लू	-16513
▁वू	-16514
▁शफ	-16515
▁शॄ	-16516
▁श०	-16517
▁हए	-16518
▁िा	-16519
▁ुि	-16520
▁९ः	-16521
▁என	-16522
▁എന	-16523
▁✳️	-16524
▁❇️	-16525
▁ネパ	-16526
ール語	-16527
elvi	-16528
ircu	-16529
lood	-16530
uspi	-16531
vetU	-16532
▁($1	-16533
▁(19	-16534
▁(23	-16535
▁--"	-16536
▁/16	-16537
▁000	-16538
▁06,	-16539
▁1-3	-16540
▁1.6	-16541
▁122	-16542
▁137	-16543
▁148	-16544
▁153	-16545
▁154	-16546
▁156	-16547
▁167	-16548
▁168	-16549
▁17)	-16550
▁171	-16551
▁173	-16552
▁186	-16553
▁195	-16554
▁21-	-16555
▁211	-16556
▁221	-16557
▁225	-16558
▁228	-16559
▁232	-16560
▁268	-16561
▁280	-16562
▁295	-16563
▁2:-	-16564
▁3.0	-16565
▁307	-16566
▁317	-16567
▁318	-16568
▁373	-16569
▁382	-16570
▁3__	-16571
▁4.7	-16572
▁4.9	-16573
▁444	-16574
▁467	-16575
▁480	-16576
▁5.5	-16577
▁53.	-16578
▁57.	-16579
▁598	-16580
▁599	-16581
▁61.	-16582
▁7.2	-16583
▁8-9	-16584
▁82.	-16585
▁850	-16586
▁90°	-16587
▁9__	-16588
▁AAP	-16589
▁AFC	-16590
▁ARE	-16591
▁ARS	-16592
▁Ach	-16593
▁Ada	-16594
▁Aga	-16595
▁Ank	-16596
▁Ast	-16597
▁Aus	-16598
▁Ave	-16599
▁BCE	-16600
▁BSC	-16601
▁BTC	-16602
▁Bre	-16603
▁Bug	-16604
▁Bus	-16605
▁CLA	-16606
▁CPI	-16607
▁CPU	-16608
▁Cho	-16609
▁Cre	-16610
▁DNS	-16611
▁Deb	-16612
▁Dev	-16613
▁ERS	-16614
▁ESP	-16615
▁EXP	-16616
▁Ema	-16617
▁Eth	-16618
▁Eye	-16619
▁Flu	-16620
▁GOD	-16621
▁GOR	-16622
▁Gau	-16623
▁Gro	-16624
▁HCF	-16625
▁Hea	-16626
▁Her	-16627
▁ICA	-16628
▁IPS	-16629
▁Ide	-16630
▁Ine	-16631
▁JOD	-16632
▁Jha	-16633
▁Jim	-16634
▁Job	-16635
▁KHz	-16636
▁Kni	-16637
▁LAN	-16638
▁LCM	-16639
▁LTS	-16640
▁Low	-16641
▁Ltd	-16642
▁MAX	-16643
▁MER	-16644
▁MHz	-16645
▁MSN	-16646
▁Met	-16647
▁Mil	-16648
▁NiD	-16649
▁OBJ	-16650
▁ODF	-16651
▁Out	-16652
▁Own	-16653
▁PID	-16654
▁PPP	-16655
▁Pan	-16656
▁Pap	-16657
▁Pix	-16658
▁PwD	-16659
▁Ram	-16660
▁Ray	-16661
▁SAM	-16662
▁SEC	-16663
▁SEM	-16664
▁SEO	-16665
▁SOC	-16666
▁STU	-16667
▁Sat	-16668
▁Sci	-16669
▁Sco	-16670
▁Sem	-16671
▁Slu	-16672
▁Tou	-16673
▁Tut	-16674
▁UTF	-16675
▁VIP	-16676
▁Vik	-16677
▁War	-16678
▁Way	-16679
▁Wei	-16680
▁Why	-16681
▁Wra	-16682
▁XVi	-16683
▁XYZ	-16684
▁Zog	-16685
▁__.	-16686
▁abc	-16687
▁aca	-16688
▁ach	-16689
▁aha	-16690
▁aid	-16691
▁ala	-16692
▁alo	-16693
▁ame	-16694
▁api	-16695
▁arg	-16696
▁arm	-16697
▁bao	-16698
▁bat	-16699
▁bee	-16700
▁beg	-16701
▁bhi	-16702
▁bio	-16703
▁bjp	-16704
▁bor	-16705
▁bou	-16706
▁bre	-16707
▁cmo	-16708
▁cru	-16709
▁dau	-16710
▁div	-16711
▁dor	-16712
▁dub	-16713
▁duc	-16714
▁ego	-16715
▁eli	-16716
▁ems	-16717
▁erm	-16718
▁exe	-16719
▁fGs	-16720
▁fav	-16721
▁fer	-16722
▁fig	-16723
▁fri	-16724
▁fry	-16725
▁gli	-16726
▁gor	-16727
▁gsm	-16728
▁har	-16729
▁hei	-16730
▁hot	-16731
▁hrs	-16732
▁iff	-16733
▁ila	-16734
▁ire	-16735
▁iso	-16736
▁kaH	-16737
▁kaḥ	-16738
▁kkr	-16739
▁lau	-16740
▁lik	-16741
▁lka	-16742
▁lon	-16743
▁lus	-16744
▁lya	-16745
▁maj	-16746
▁mln	-16747
▁nLs	-16748
▁nfo	-16749
▁nis	-16750
▁nix	-16751
▁now	-16752
▁nsf	-16753
▁ock	-16754
▁oil	-16755
▁ole	-16756
▁oms	-16757
▁ona	-16758
▁ony	-16759
▁opp	-16760
▁osi	-16761
▁pen	-16762
▁pie	-16763
▁pot	-16764
▁req	-16765
▁rid	-16766
▁rop	-16767
▁rou	-16768
▁row	-16769
▁sca	-16770
▁sch	-16771
▁sel	-16772
▁sem	-16773
▁sep	-16774
▁sic	-16775
▁slo	-16776
▁slu	-16777
▁spe	-16778
▁ssc	-16779
▁swi	-16780
▁taa	-16781
▁tas	-16782
▁thu	-16783
▁tti	-16784
▁tur	-16785
▁uir	-16786
▁urs	-16787
▁vad	-16788
▁via	-16789
▁vos	-16790
▁wel	-16791
▁wid	-16792
▁wyn	-16793
▁zar	-16794
▁Вер	-16795
▁ندى	-16796
▁ंभा	-16797
▁अअं	-16798
▁अकु	-16799
▁अङ्	-16800
▁अझै	-16801
▁अपी	-16802
▁अप॑	-16803
▁अयन	-16804
▁अयु	-16805
▁अवं	-16806
▁अवे	-16807
▁असर	-16808
▁अहा	-16809
▁आँख	-16810
▁आजि	-16811
▁आटो	-16812
▁आनः	-16813
▁आमु	-16814
▁आयत	-16815
▁आरा	-16816
▁आसः	-16817
▁आहं	-16818
▁आहि	-16819
▁इङ्	-16820
▁इतस	-16821
▁इथम	-16822
▁इना	-16823
▁इयः	-16824
▁इयत	-16825
▁ईयर	-16826
▁ईर्	-16827
▁ईशॊ	-16828
▁उजं	-16829
▁उठा	-16830
▁उति	-16831
▁उमर	-16832
▁उमे	-16833
▁उषो	-16834
▁उस्	-16835
▁ऋचं	-16836
▁ऋचौ	-16837
▁ऌट्	-16838
▁ऎकॊ	-16839
▁एआई	-16840
▁एक॒	-16841
▁एने	-16842
▁एषं	-16843
▁एसई	-16844
▁ऐच्	-16845
▁ओकः	-16846
▁औम्	-16847
▁कंस	-16848
▁कटि	-16849
▁कणे	-16850
▁कफः	-16851
▁कले	-16852
▁कवन	-16853
▁कवी	-16854
▁कषे	-16855
▁कसम	-16856
▁कही	-16857
▁किच	-16858
▁किर	-16859
▁कुच	-16860
▁कें	-16861
▁कैफ	-16862
▁कों	-16863
▁कोउ	-16864
▁कोच	-16865
▁खच्	-16866
▁खपत	-16867
▁खर्	-16868
▁खले	-16869
▁खलो	-16870
▁खाय	-16871
▁खुश	-16872
▁गनः	-16873
▁गरं	-16874
▁गहो	-16875
▁गुड	-16876
▁गूह	-16877
▁गैस	-16878
▁घरि	-16879
▁घरी	-16880
▁घेत	-16881
▁ङेः	-16882
▁चली	-16883
▁चुः	-16884
▁च॒न	-16885
▁छतं	-16886
▁छदः	-16887
▁छाई	-16888
▁छाप	-16889
▁जतन	-16890
▁जनॊ	-16891
▁जयम	-16892
▁जरः	-16893
▁जाए	-16894
▁जुं	-16895
▁जूँ	-16896
▁जेण	-16897
▁टकं	-16898
▁टसट	-16899
▁टीन	-16900
▁ठच्	-16901
▁ठञः	-16902
▁डेढ	-16903
▁तएव	-16904
▁ततम	-16905
▁ततु	-16906
▁तधा	-16907
▁तनम	-16908
▁तमॆ	-16909
▁तयं	-16910
▁तरफ	-16911
▁तलब	-16912
▁तवः	-16913
▁तवै	-16914
▁तषा	-16915
▁तसय	-16916
▁तहं	-16917
▁तहः	-16918
▁ताꣳ	-16919
▁तुज	-16920
▁तूँ	-16921
▁तोच	-16922
▁दंड	-16923
▁दतो	-16924
▁दशं	-16925
▁दसं	-16926
▁दुक	-16927
▁दे०	-16928
▁धयन	-16929
▁नः॒	-16930
▁नटी	-16931
▁नतौ	-16932
▁नदे	-16933
▁नप्	-16934
▁नमत	-16935
▁नैन	-16936
▁पक्	-16937
▁पढ़	-16938
▁पतत	-16939
▁पतौ	-16940
▁पने	-16941
▁पले	-16942
▁पशू	-16943
▁पसो	-16944
▁पीक	-16945
▁पृच	-16946
▁फलै	-16947
▁बकं	-16948
▁बना	-16949
▁बलो	-16950
▁बिं	-16951
▁बेन	-16952
▁ब्व	-16953
▁भगे	-16954
▁भलो	-16955
▁भुः	-16956
▁भू॰	-16957
▁भृश	-16958
▁भेष	-16959
▁मखन	-16960
▁मठः	-16961
▁मथा	-16962
▁ममर	-16963
▁मलो	-16964
▁मवल	-16965
▁मसः	-16966
▁मसि	-16967
▁मिय	-16968
▁मीं	-16969
▁मीट	-16970
▁मैः	-16971
▁मोप	-16972
▁यजत	-16973
▁यतम	-16974
▁यतश	-16975
▁यधा	-16976
▁यपर	-16977
▁यलं	-16978
▁यिः	-16979
▁यों	-16980
▁रका	-16981
▁रचय	-16982
▁रचि	-16983
▁रजस	-16984
▁रजॊ	-16985
▁रभ्	-16986
▁रवः	-16987
▁रहं	-16988
▁रेप	-16989
▁रोई	-16990
▁लघौ	-16991
▁लाज	-16992
▁लुं	-16993
▁लोट	-16994
▁वः॒	-16995
▁वगु	-16996
▁वटो	-16997
▁वधू	-16998
▁वप्	-16999
▁वा॑	-17000
▁विण	-17001
▁वेि	-17002
▁वैध	-17003
▁व॑ः	-17004
▁शनै	-17005
▁शवा	-17006
▁शीश	-17007
▁शुद	-17008
▁शॉट	-17009
▁षठा	-17010
▁षढ्	-17011
▁सं॰	-17012
▁सके	-17013
▁सखं	-17014
▁सगं	-17015
▁सडक	-17016
▁सदी	-17017
▁सदो	-17018
▁समम	-17019
▁सयन	-17020
▁सवण	-17021
▁साच	-17022
▁सीं	-17023
▁सुक	-17024
▁सूप	-17025
▁सोथ	-17026
▁हनन	-17027
▁हना	-17028
▁हला	-17029
▁हशि	-17030
▁हि॒	-17031
▁हेड	-17032
▁हेय	-17033
▁ािप	-17034
▁िलए	-17035
▁ीतम	-17036
▁ुपप	-17037
▁ुशल	-17038
▁ेषत	-17039
▁्घा	-17040
▁्डे	-17041
▁्थव	-17042
▁्दः	-17043
▁्षर	-17044
▁ॠतु	-17045
▁०७४	-17046
▁१९ः	-17047
▁२११	-17048
▁२१९	-17049
▁२३१	-17050
▁२४७	-17051
▁२५५	-17052
▁२५८	-17053
▁२६३	-17054
▁२६५	-17055
▁२८५	-17056
▁२८७	-17057
▁२९२	-17058
▁३०९	-17059
▁३१५	-17060
▁३१९	-17061
▁३२५	-17062
▁३२६	-17063
▁३२७	-17064
▁३२८	-17065
▁३३०	-17066
▁३३२	-17067
▁३३८	-17068
▁३४०	-17069
▁३७१	-17070
▁३७४	-17071
▁३७९	-17072
▁३९६	-17073
▁४२१	-17074
▁४२५	-17075
▁४२७	-17076
▁४३३	-17077
▁४६७	-17078
▁४६९	-17079
▁४८७	-17080
▁४९१	-17081
▁५१९	-17082
▁५३१	-17083
▁५४३	-17084
▁५४४	-17085
▁५४९	-17086
▁५५१	-17087
▁५५३	-17088
▁५५५	-17089
▁६४३	-17090
▁६६५	-17091
▁६८०	-17092
▁६८४	-17093
▁६९१	-17094
▁७४९	-17095
▁७५९	-17096
▁७६६	-17097
▁७६८	-17098
▁७९३	-17099
▁८१४	-17100
▁८४४	-17101
▁८७६	-17102
▁९१५	-17103
▁९२०	-17104
▁९९४	-17105
▁Advi	-17106
▁Aqua	-17107
▁Arju	-17108
▁Aust	-17109
▁BPSC	-17110
▁Baby	-17111
▁Beat	-17112
▁Bird	-17113
▁CAPF	-17114
▁Capi	-17115
▁Card	-17116
▁Cata	-17117
▁Chat	-17118
▁Coco	-17119
▁Darb	-17120
▁Debt	-17121
▁Defe	-17122
▁Devi	-17123
▁Dist	-17124
▁Drea	-17125
▁EPFO	-17126
▁EXAM	-17127
▁Effe	-17128
▁Enep	-17129
▁FAQs	-17130
▁Fear	-17131
▁Five	-17132
▁Flag	-17133
▁Fort	-17134
▁GOLD	-17135
▁Gadi	-17136
▁Gane	-17137
▁Gene	-17138
▁Hair	-17139
▁Hand	-17140
▁Heal	-17141
▁Hell	-17142
▁Host	-17143
▁IANS	-17144
▁IUCN	-17145
▁Indu	-17146
▁Into	-17147
▁JPEG	-17148
▁Jain	-17149
▁John	-17150
▁Join	-17151
▁LATE	-17152
▁LOGY	-17153
▁Lies	-17154
▁Logo	-17155
▁Lond	-17156
▁Lovy	-17157
▁MARC	-17158
▁Mate	-17159
▁Mens	-17160
▁Midd	-17161
▁NTPC	-17162
▁NTSC	-17163
▁NTSE	-17164
▁Nara	-17165
▁Navi	-17166
▁Nick	-17167
▁ONLY	-17168
▁OPEN	-17169
▁Opti	-17170
▁POTD	-17171
▁Pare	-17172
▁Path	-17173
▁Peri	-17174
▁Plea	-17175
▁Poem	-17176
▁Poll	-17177
▁Poly	-17178
▁Posi	-17179
▁Pune	-17180
▁RESU	-17181
▁RIES	-17182
▁Redu	-17183
▁Regi	-17184
▁Rema	-17185
▁Remi	-17186
▁Rese	-17187
▁Resi	-17188
▁Reta	-17189
▁SGGS	-17190
▁SITE	-17191
▁SONG	-17192
▁Sank	-17193
▁Says	-17194
▁Seto	-17195
▁Show	-17196
▁Slot	-17197
▁Solv	-17198
▁Spic	-17199
▁Spok	-17200
▁Stra	-17201
▁TAGS	-17202
▁Tatt	-17203
▁Tele	-17204
▁Tick	-17205
▁Vall	-17206
▁Vani	-17207
▁Vehi	-17208
▁Very	-17209
▁Voca	-17210
▁Volu	-17211
▁Writ	-17212
▁Zone	-17213
▁advo	-17214
▁anyo	-17215
▁athy	-17216
▁bala	-17217
▁base	-17218
▁beat	-17219
▁begi	-17220
▁beli	-17221
▁bhwi	-17222
▁bill	-17223
▁blue	-17224
▁bold	-17225
▁brok	-17226
▁came	-17227
▁camp	-17228
▁city	-17229
▁clos	-17230
▁cums	-17231
▁deep	-17232
▁dete	-17233
▁dget	-17234
▁disp	-17235
▁effe	-17236
▁ersa	-17237
▁eter	-17238
▁evil	-17239
▁eyes	-17240
▁fame	-17241
▁fice	-17242
▁fier	-17243
▁find	-17244
▁fine	-17245
▁five	-17246
▁fold	-17247
▁ford	-17248
▁fulf	-17249
▁gall	-17250
▁gene	-17251
▁gold	-17252
▁gran	-17253
▁grou	-17254
▁hant	-17255
▁hear	-17256
▁hope	-17257
▁hurt	-17258
▁ital	-17259
▁jain	-17260
▁kbps	-17261
▁lake	-17262
▁lati	-17263
▁made	-17264
▁mbly	-17265
▁meas	-17266
▁medi	-17267
▁meet	-17268
▁mens	-17269
▁menu	-17270
▁milk	-17271
▁monk	-17272
▁mpri	-17273
▁ndom	-17274
▁next	-17275
▁ngth	-17276
▁ngua	-17277
▁njay	-17278
▁nsac	-17279
▁null	-17280
▁obta	-17281
▁onds	-17282
▁ordi	-17283
▁osed	-17284
▁poly	-17285
▁poor	-17286
▁port	-17287
▁rcle	-17288
▁rder	-17289
▁rece	-17290
▁rema	-17291
▁roll	-17292
▁rote	-17293
▁rray	-17294
▁scho	-17295
▁sdom	-17296
▁sics	-17297
▁sile	-17298
▁sonu	-17299
▁stry	-17300
▁subp	-17301
▁tale	-17302
▁tena	-17303
▁tted	-17304
▁tyam	-17305
▁ubli	-17306
▁ures	-17307
▁vaca	-17308
▁vivo	-17309
▁xiii	-17310
▁एतेष	-17311
▁तत्क	-17312
▁तित्	-17313
▁तोऽप	-17314
▁दद्य	-17315
▁पुत्	-17316
▁यमित	-17317
▁यस्थ	-17318
▁याधि	-17319
▁रन्थ	-17320
▁रमात	-17321
▁रसार	-17322
▁राष्	-17323
▁र्णि	-17324
▁र्ध्	-17325
▁र्वव	-17326
▁वाद्	-17327
▁वेष्	-17328
▁संभा	-17329
▁साहि	-17330
▁हुधा	-17331
▁ाजिक	-17332
▁ानमन	-17333
▁ारेण	-17334
▁िशिष	-17335
▁ेशस्	-17336
▁्ख्य	-17337
▁्ताय	-17338
▁्यज्	-17339
▁्यसं	-17340
▁्रजा	-17341
▁्राः	-17342
▁्ववि	-17343
▁Arrow	-17344
▁BOOKS	-17345
▁Blast	-17346
▁Condi	-17347
▁Daini	-17348
▁Famil	-17349
▁HINDI	-17350
▁Heave	-17351
▁Hours	-17352
▁INDIA	-17353
▁INSAT	-17354
▁Image	-17355
▁Komme	-17356
▁Loksa	-17357
▁Party	-17358
▁Peace	-17359
▁Priva	-17360
▁Rupee	-17361
▁Sanma	-17362
▁Selec	-17363
▁Shank	-17364
▁SvetU	-17365
▁Tezos	-17366
▁Unaca	-17367
▁Volvo	-17368
▁XNUMX	-17369
▁blast	-17370
▁bless	-17371
▁broad	-17372
▁brows	-17373
▁certa	-17374
▁conce	-17375
▁crime	-17376
▁demon	-17377
▁disco	-17378
▁event	-17379
▁extra	-17380
▁fever	-17381
▁fruit	-17382
▁glass	-17383
▁great	-17384
▁heave	-17385
▁index	-17386
▁intro	-17387
▁joint	-17388
▁level	-17389
▁metal	-17390
▁movie	-17391
▁party	-17392
▁passi	-17393
▁peace	-17394
▁preme	-17395
▁publi	-17396
▁serva	-17397
▁smart	-17398
▁store	-17399
▁stori	-17400
▁table	-17401
▁white	-17402
▁would	-17403
▁अमेरि	-17404
▁प्रवा	-17405
▁प्रशा	-17406
▁यात्म	-17407
▁राक्ष	-17408
▁विरुद	-17409
▁ाचित्	-17410
▁ावृत्	-17411
▁िद्वा	-17412
▁िर्मा	-17413
▁ुष्या	-17414
▁्थितं	-17415
▁्वार्	-17416
▁ネパール語	-17417
%,	-17418
',	-17419
++	-17420
.,	-17421
.4	-17422
.7	-17423
//	-17424
/3	-17425
18	-17426
AU	-17427
BD	-17428
BL	-17429
Be	-17430
GB	-17431
Ga	-17432
IU	-17433
JS	-17434
MI	-17435
NE	-17436
OG	-17437
OT	-17438
On	-17439
PP	-17440
Pa	-17441
TA	-17442
VI	-17443
Ws	-17444
XT	-17445
YK	-17446
YU	-17447
df	-17448
dh	-17449
dʒ	-17450
ef	-17451
ez	-17452
gn	-17453
hl	-17454
hə	-17455
if	-17456
ix	-17457
je	-17458
jy	-17459
kc	-17460
mm	-17461
pl	-17462
rk	-17463
rī	-17464
rə	-17465
tp	-17466
zm	-17467
īt	-17468
ın	-17469
[...]
