<unk>	0
<s>	0
</s>	0
▁।	-3.36223
▁ं	-3.82391
▁ः	-3.88943
▁स	-4.24331
▁ा	-4.24682
▁न	-4.37287
▁े	-4.43109
▁-	-4.4971
▁प्र	-4.62179
▁प	-4.62312
▁क	-4.62855
▁म	-4.78722
▁च	-4.81192
▁अ	-4.84391
▁॥	-4.8819
▁म्	-4.89115
▁ो	-4.93265
▁त	-4.96496
▁,	-4.98422
▁.	-5.05285
त	-5.12969
▁व	-5.14941
▁"	-5.22483
▁ि	-5.27182
▁वि	-5.27764
▁स्य	-5.31129
▁द	-5.33387
▁ी	-5.40656
▁ते	-5.45191
▁्य	-5.51234
▁र	-5.57659
▁श	-5.59647
▁आ	-5.61896
▁(	-5.61951
▁इति	-5.62143
▁ाः	-5.64116
▁य	-5.65471
▁ेन	-5.69294
▁्	-5.76675
▁भ	-5.79494
▁ज	-5.8461
▁'	-5.92259
▁ग	-5.93095
▁ल	-5.94388
▁१	-5.94471
▁नि	-5.95955
▁वा	-5.98454
▁)	-5.98964
▁सं	-6.02911
▁सर्व	-6.04179
▁ब	-6.07098
▁तु	-6.07145
▁०	-6.11448
▁_	-6.12351
▁उ	-6.16576
▁ह	-6.18131
▁ति	-6.20441
▁ित	-6.21995
▁२	-6.22265
▁एव	-6.2277
ा	-6.24504
▁स्व	-6.25257
▁हि	-6.25406
▁इत्य	-6.25965
▁1	-6.26946
प	-6.29048
▁ौ	-6.29325
▁त्व	-6.295
▁?	-6.31466
स	-6.31992
▁ु	-6.32343
▁ात्	-6.33827
▁सा	-6.3399
▁ानि	-6.34942
▁या	-6.35395
▁सम	-6.3716
▁यथा	-6.40493
्य	-6.41112
▁इ	-6.43171
य	-6.44062
▁0	-6.44998
▁प्रति	-6.45979
▁ण	-6.48676
▁सु	-6.50229
▁पि	-6.512
▁िक	-6.51547
▁ाय	-6.53216
▁2	-6.53871
▁परि	-6.54173
▁ानां	-6.54233
न	-6.54699
म	-6.56306
व	-6.59576
क	-6.63962
▁्र	-6.65649
▁ध	-6.6854
▁ेण	-6.69046
▁तत्	-6.70569
▁मा	-6.71916
▁पर	-6.71962
▁तः	-6.72975
▁भवति	-6.73778
▁ेषु	-6.73868
▁मे	-6.74592
▁यति	-6.74801
▁त्	-6.75461
▁३	-6.76155
▁तथा	-6.7651
▁देव	-6.77641
▁िः	-6.78849
▁तद	-6.79208
▁ान्	-6.8072
.	-6.8138
▁पूर्व	-6.81922
▁ैः	-6.82194
्	-6.82575
▁॒	-6.83093
▁ऽ	-6.83256
▁व्य	-6.83365
▁वै	-6.83758
▁४	-6.84755
▁स्	-6.85265
▁तस्य	-6.85569
र	-6.90575
▁५	-6.9061
▁र्	-6.90849
▁एक	-6.91486
द	-6.91532
▁श्च	-6.92053
▁्वा	-6.92602
▁किं	-6.93062
)	-6.93688
▁	-6.94584
▁अपि	-6.94799
▁भव	-6.9558
▁त्र	-6.95805
▁ेव	-6.96772
▁ता	-6.97159
▁९	-6.97462
▁यदि	-6.9763
▁:	-6.9766
▁ख	-6.99934
▁उप	-7.00755
▁कार	-7.0177
▁न्ति	-7.0234
▁/	-7.02399
▁नाम	-7.03031
▁देश	-7.03092
▁ना	-7.03231
▁धर्म	-7.03779
▁अस्ति	-7.04309
▁ए	-7.04436
▁ार्थ	-7.04502
▁तत्र	-7.04958
ं	-7.05295
▁कर्म	-7.05671
▁ादि	-7.06375
▁ज्ञान	-7.06665
ि	-7.07255
▁सह	-7.07416
▁यत्	-7.0797
▁मम	-7.08006
▁ये	-7.08678
▁!	-7.08752
▁६	-7.08858
▁८	-7.1085
▁७	-7.10916
▁ाद	-7.1122
▁ां	-7.11497
▁निर्	-7.11882
▁कार्य	-7.12211
▁्या	-7.12757
▁एवं	-7.12824
▁भाव	-7.13197
▁॑	-7.13622
▁कृत	-7.15472
▁न्त्र	-7.16403
▁वृत्त	-7.1657
▁वर्ष	-7.1676
।	-7.17326
▁दृष्ट	-7.17593
▁3	-7.17658
▁राज	-7.17789
▁ेति	-7.18227
▁ान	-7.18946
▁पुनः	-7.1906
▁ाणि	-7.20306
▁त्वं	-7.2092
▁अनु	-7.22284
▁गुण	-7.23014
▁थ	-7.23284
▁शब्द	-7.25367
▁पद	-7.26061
▁काल	-7.26185
▁ष	-7.26625
▁यो	-7.27051
ग	-7.27609
▁यां	-7.27691
▁जन	-7.27826
▁रा	-7.28373
▁ोऽ	-7.29061
▁भूत	-7.29329
▁विद्य	-7.29977
▁पुत्र	-7.3045
▁स्थ	-7.30771
▁का	-7.30782
▁4	-7.31502
▁ीय	-7.31573
▁युक्त	-7.31982
▁न्	-7.32456
▁द्वि	-7.32524
▁त्रि	-7.33106
▁5	-7.33153
▁ॊ	-7.33208
्व	-7.33797
▁के	-7.33971
▁[	-7.33986
▁महा	-7.34458
▁यः	-7.34962
▁रूप	-7.35025
▁ततः	-7.36263
▁लोक	-7.3654
▁यद	-7.37206
ष्ट	-7.37279
▁विशेष	-7.37292
▁ित्	-7.38761
▁तेन	-7.38786
▁ाप्त	-7.40651
▁व्या	-7.41104
▁ट	-7.41381
▁सिद्ध	-7.42281
▁धन	-7.4235
▁विश्व	-7.42382
▁गत	-7.42644
▁तदा	-7.43147
▁्मिन्	-7.43242
▁अथ	-7.44353
▁=	-7.44713
▁तव	-7.44965
▁िति	-7.45575
▁श्र	-7.45748
▁ैव	-7.45758
▁क्ष	-7.46143
ह	-7.46224
▁स्त	-7.46475
▁फ	-7.46523
▁ाह	-7.47627
▁न्त	-7.47701
▁घ	-7.48002
▁स्थित	-7.48087
▁सः	-7.48225
▁ष्ट	-7.48337
▁9	-7.48868
▁ाव	-7.49169
▁न्द्र	-7.49218
प्र	-7.49967
▁वान्	-7.50616
▁दृश्य	-7.5082
▁ड	-7.5106
▁कर	-7.51323
▁कु	-7.51735
▁न्ते	-7.51967
▁8	-7.52566
ो	-7.52649
▁वर	-7.52828
▁तद्	-7.52838
▁योग	-7.53091
▁ेत	-7.53492
▁्यते	-7.54687
▁छ	-7.5469
▁]	-7.55169
▁फल	-7.55487
▁दश	-7.55496
▁ान्त	-7.56227
▁ेः	-7.57369
▁ाणां	-7.57555
▁मेव	-7.57767
▁क्रिय	-7.57836
▁नु	-7.58115
▁अस	-7.58624
▁ै	-7.58679
▁यामि	-7.58907
▁ुक्त	-7.59311
▁ानु	-7.59574
▁अप	-7.59751
,	-7.59845
▁र्थ	-7.60302
▁कथं	-7.60337
▁कर्त	-7.60357
ध	-7.60518
▁6	-7.60564
▁ू	-7.60722
▁7	-7.6108
▁स्तु	-7.61536
▁याः	-7.62314
▁ापि	-7.62581
▁ोप	-7.62951
▁मु	-7.63345
▁कल्प	-7.63528
ाप	-7.6366
▁पुरुष	-7.64019
▁मया	-7.64196
क्ष	-7.64596
▁तं	-7.653
▁प्रथम	-7.65359
▁+	-7.65525
▁बहु	-7.66428
▁;	-7.66673
▁मान	-7.67441
▁वेद	-7.67451
▁अव	-7.67598
▁ामि	-7.67622
▁अत्र	-7.6799
▁काम	-7.68076
▁स्थान	-7.68473
▁ार	-7.68728
▁अन्य	-7.68753
ः	-7.68829
▁अभि	-7.69679
▁वर्त	-7.71681
▁लि	-7.72057
▁अहं	-7.72699
ण	-7.7304
▁को	-7.73241
▁भाग	-7.73362
च	-7.73363
▁समा	-7.73675
▁भेद	-7.73809
▁क्रम	-7.74099
▁भाषा	-7.74353
▁भविष्	-7.74416
▁भू	-7.74621
▁सप्त	-7.74699
▁ङ्ग	-7.74995
▁सम्प	-7.75326
▁विषय	-7.75933
र्	-7.76147
▁िं	-7.7679
े	-7.77132
▁गु	-7.77457
▁राज्य	-7.77811
▁वर्ण	-7.77823
▁जीव	-7.78372
▁र्तते	-7.78962
▁ितः	-7.79174
▁कः	-7.79705
▁भारत	-7.79896
▁प्रा	-7.79931
▁बल	-7.80071
▁ुं	-7.80362
▁न्य	-7.80609
▁रक्ष	-7.8113
▁क्र	-7.8122
▁भि	-7.81503
ल	-7.81723
▁्व	-7.82238
▁तया	-7.82621
▁गच्छ	-7.82633
▁ेत्	-7.82985
▁ृष्ठ	-7.83036
▁य्	-7.83154
▁भिः	-7.835
▁तां	-7.83765
▁तो	-7.84056
▁मध्ये	-7.84076
▁*	-7.84159
▁दुःख	-7.85371
▁यत्र	-7.85608
▁पु	-7.8575
▁्यात्	-7.86238
▁हे	-7.86682
▁ालय	-7.86694
▁सौ	-7.86886
▁गृह	-7.86898
▁सि	-7.87281
ीक्ष	-7.87294
▁सुख	-7.87343
▁ॐ	-7.87387
▁िद	-7.87992
▁अन	-7.88029
▁लक्षण	-7.88252
▁दिन	-7.88739
▁शक्ति	-7.88941
▁हं	-7.89214
▁्त	-7.89484
▁ई	-7.90216
▁काले	-7.90536
▁क्षिण	-7.90769
▁वे	-7.90783
▁द्	-7.91262
▁धिकार	-7.91368
▁तस्मा	-7.91479
▁मात्र	-7.91486
▁नं	-7.91837
▁जात	-7.93191
▁अतः	-7.93548
▁ँ	-7.93625
▁सर्वे	-7.93649
▁येत्	-7.93695
▁िका	-7.93701
▁यदा	-7.93706
▁क्षे	-7.93957
▁एत	-7.94111
▁दोष	-7.94232
▁िता	-7.94438
▁उत्तर	-7.94452
▁वन	-7.94524
▁आसीत्	-7.94584
▁पञ्च	-7.94799
▁वृद्ध	-7.94997
▁ैक	-7.95332
▁करोति	-7.9568
▁्यं	-7.95801
्ल	-7.9597
▁व्यव	-7.96332
▁योः	-7.96979
▁यस्य	-7.97061
▁जन्म	-7.97248
▁पश्य	-7.97456
▁्यां	-7.9754
▁--	-7.97674
ु	-7.9771
▁बुद्ध	-7.97717
▁विध	-7.98189
▁ाद्	-7.9823
▁गो	-7.98947
▁करण	-7.9922
▁मिति	-7.99337
▁अध	-7.99487
▁मह	-7.99563
▁ैर्	-7.99819
▁श्रुत	-7.99856
न्द	-8.00739
▁पी	-8.00753
▁नमः	-8.00759
▁तेषां	-8.00881
ी	-8.01195
▁पर्य	-8.01326
▁वाक्य	-8.01437
▁ोक्त	-8.01622
▁मत	-8.01687
▁ुप	-8.0179
▁मान्य	-8.01959
▁च्छ	-8.01972
▁निर	-8.02213
▁शक्य	-8.02492
▁कारण	-8.0293
▁दु	-8.03028
▁परम	-8.03337
▁रि	-8.03423
▁भवेत्	-8.03623
▁ण्ड	-8.03914
▁__	-8.04067
▁अर्थ	-8.04324
▁मां	-8.04369
▁न्न	-8.04748
▁ीति	-8.05068
▁ास्ति	-8.05172
▁्त्री	-8.05262
▁रे	-8.05538
▁पूर्ण	-8.05679
▁शत	-8.05773
▁मुक्त	-8.05794
▁प्राण	-8.05812
▁नगर	-8.05822
ुर्व	-8.05867
▁तम	-8.06091
▁दर्श	-8.0675
▁नो	-8.06763
▁सू	-8.06778
▁दत्त	-8.068
▁सर्वं	-8.06924
▁ान्तर	-8.07432
▁पुनर	-8.07694
▁यं	-8.08054
▁जल	-8.08224
▁बन्ध	-8.08305
▁स्म	-8.08607
▁ज्ञात	-8.08618
▁तर्हि	-8.08632
▁जा	-8.0879
च्छ	-8.08949
▁अस्य	-8.09015
▁त्वा	-8.0905
▁अत	-8.09058
▁दर्शन	-8.10462
▁शेष	-8.1131
▁स्कृत	-8.11318
▁ग्रह	-8.11387
▁र्व	-8.1154
▁भय	-8.11606
▁एवम	-8.11687
▁इदं	-8.11817
▁च्च	-8.12091
॥	-8.12314
▁त्यय	-8.12493
▁पाप	-8.12909
▁परं	-8.12926
▁सहस्र	-8.12937
▁्यक्त	-8.13048
▁रस	-8.13072
▁वत्	-8.13373
▁मुख	-8.14032
▁िन	-8.14083
▁यज्ञ	-8.14087
▁ेषां	-8.14167
▁यन्ति	-8.1452
श	-8.1499
▁सदा	-8.1573
▁वयं	-8.1609
▁नां	-8.16904
▁चा	-8.17262
▁वास	-8.17756
i	-8.17895
▁र्थः	-8.18068
▁प्रिय	-8.18313
▁ओ	-8.18496
▁वचन	-8.18623
▁इह	-8.1921
▁मार्ग	-8.19279
▁धा	-8.19347
▁ञ्च	-8.19723
त्प	-8.19786
▁यद्	-8.19846
▁चर	-8.19889
▁सन्ति	-8.19979
▁इव	-8.20017
या	-8.20262
▁नियम	-8.20299
▁अयं	-8.2052
▁ह्य	-8.20544
▁मन	-8.20666
▁ेत्य	-8.2067
▁वद	-8.20892
▁्रह्म	-8.21043
िक्ष	-8.21413
▁यात	-8.21596
▁अन्त	-8.21614
▁पा	-8.22316
▁तर	-8.22377
▁नव	-8.22383
▁वर्षे	-8.22451
▁से	-8.2257
▁मित्र	-8.22665
▁धार	-8.22766
▁हित	-8.22803
▁येन	-8.22844
▁पुनर्	-8.22923
▁ऊ	-8.22969
▁पाठ	-8.23233
▁रु	-8.23508
▁झ	-8.23771
▁ज्ज	-8.23796
▁दान	-8.23974
▁त्त्व	-8.24098
▁वाद	-8.24278
▁ततो	-8.24297
▁यत	-8.24871
▁िह	-8.24893
▁ठ	-8.25012
▁देह	-8.25879
▁क्षण	-8.2598
▁गण	-8.26129
▁साम	-8.26263
▁पाद	-8.26273
▁वस	-8.26283
▁और	-8.26952
▁ृ	-8.27065
▁यम	-8.27102
▁ेश्वर	-8.27125
▁विना	-8.27194
▁राम	-8.27632
▁वार	-8.27665
▁केवलं	-8.27738
▁िनः	-8.27781
▁ेक	-8.27839
▁्यक्ष	-8.27853
▁ाभ	-8.27903
▁यत्न	-8.28088
▁ृत्वा	-8.28123
▁ज्ञ	-8.28268
▁धि	-8.28401
▁ात्म	-8.28503
▁हस्त	-8.28558
▁कि	-8.286
▁सन्	-8.28737
▁शुभ	-8.28783
▁काश	-8.28828
▁चित्र	-8.29368
▁न्याय	-8.29428
▁ख्यात	-8.29588
▁>	-8.29645
▁याम	-8.29681
▁लक्ष	-8.2996
▁मूल	-8.30016
▁्रे	-8.30595
▁स्या	-8.30688
▁वस्तु	-8.30841
▁़	-8.31128
▁षु	-8.31457
▁सूर्य	-8.31509
▁्रिया	-8.31551
▁ढ	-8.31635
▁प्य	-8.31716
▁ाश्च	-8.31947
▁ैर	-8.32322
▁्म	-8.32333
▁एतत्	-8.32379
▁न्तु	-8.32486
▁की	-8.3267
▁भाष	-8.3286
▁मुद्र	-8.32996
▁्बन्ध	-8.33117
▁ाल	-8.33407
▁मपि	-8.33951
भ	-8.34032
▁शिष्ट	-8.34163
▁जायते	-8.34201
▁लेख	-8.34334
▁पक्ष	-8.34486
▁्रश्न	-8.34608
▁शरीर	-8.34881
▁वक्त	-8.35058
▁ेश	-8.35233
▁स्ति	-8.35237
▁कुल	-8.3525
ब	-8.35361
▁ाप्य	-8.35377
▁मि	-8.35548
▁िय	-8.35899
▁हेतु	-8.35976
▁s	-8.36268
▁ितम्	-8.36378
▁ेष्ठ	-8.36381
▁वेश	-8.36384
▁पुरा	-8.36448
▁ग्रहण	-8.36535
▁दैव	-8.36551
▁िण	-8.36586
▁हर	-8.36871
▁द्र	-8.36983
▁िद्या	-8.3699
▁िर्	-8.37032
▁सूत्र	-8.37075
▁पेक्ष	-8.37443
▁दूर	-8.37473
▁नित्य	-8.37622
▁ान्य	-8.37626
▁विभाग	-8.3793
▁माण	-8.38263
▁्रकाश	-8.38424
▁ास्	-8.38437
▁ाम	-8.38523
▁वर्ग	-8.38749
▁राजा	-8.3921
▁सी	-8.39266
त्र	-8.39276
▁किम्	-8.3953
▁श्री	-8.39802
▁स्वा	-8.3993
▁न्यथा	-8.40448
▁रो	-8.40502
▁गुरु	-8.40523
▁कृति	-8.40695
▁दिव	-8.41015
▁कदाच	-8.41364
▁ल्ल	-8.41681
▁वाच	-8.41838
▁णा	-8.41843
▁यथ	-8.41922
▁ित्य	-8.42096
▁हार	-8.42128
▁यते	-8.42161
▁नः	-8.42544
▁्ल	-8.42566
▁्रष्ट	-8.42614
▁सम्भव	-8.42771
▁स्याः	-8.42931
▁मय	-8.43212
▁दि	-8.43249
▁म्भ	-8.43485
▁सङ्ग	-8.43592
▁चल	-8.43805
▁द्य	-8.43899
▁दुर्	-8.44125
▁भक्त	-8.443
▁खः	-8.44764
▁न्तर	-8.44772
▁अद्य	-8.45204
▁ाभि	-8.45209
▁बाल	-8.45261
▁विषये	-8.45424
वि	-8.4578
▁हृदय	-8.4586
▁त्वया	-8.45863
▁ती	-8.45874
▁त्वेन	-8.45977
▁ंग	-8.46037
▁ेय	-8.46126
▁मास	-8.46596
▁विधि	-8.46821
िर	-8.46983
▁पठ	-8.47001
▁रात्र	-8.47076
▁पुर	-8.47088
▁मध्य	-8.47153
▁स्त्र	-8.47221
▁ल्प	-8.47273
रिष्	-8.47484
▁वृक्ष	-8.47507
▁ाई	-8.47522
▁ङ्क	-8.47682
▁वायु	-8.47691
▁त्त	-8.47832
▁्रत्य	-8.47897
▁ात	-8.47929
▁ऽपि	-8.4824
▁त्य	-8.48287
▁लाभ	-8.48425
▁ेऽ	-8.48577
▁पूज	-8.48616
▁देशे	-8.48664
▁चिन्	-8.48712
▁एष	-8.48766
▁ञ्ज	-8.48783
▁न्द	-8.48787
िष्ठ	-8.49043
▁कौ	-8.49229
▁ाभाव	-8.49377
▁ेऽपि	-8.49402
▁सूचना	-8.49403
▁केवल	-8.49488
▁िर	-8.49662
▁मृ	-8.49663
▁युद्ध	-8.49794
▁कृ	-8.50039
▁शक्त	-8.50273
▁उक्त	-8.5035
▁दिश	-8.50442
▁ध्याय	-8.50485
▁स्प	-8.50635
ित	-8.50714
▁सत्य	-8.5099
▁विचार	-8.5103
▁कुरु	-8.51134
▁शास्	-8.51285
▁ोर	-8.51304
▁पात	-8.51507
ष्ठ	-8.51947
▁ऋ	-8.5197
▁ुम	-8.52031
▁विधान	-8.52195
▁संस	-8.52224
▁मूर्	-8.52289
▁तमे	-8.52565
▁कश्च	-8.526
▁शुद्ध	-8.52635
▁साधन	-8.52639
▁कृते	-8.5264
▁चार	-8.52675
▁ैत	-8.52707
▁मृत	-8.5294
▁पत्र	-8.52995
ोम	-8.53119
▁ेभ्यः	-8.53137
▁यतः	-8.53253
▁#	-8.53468
▁वृ	-8.53544
▁घट	-8.53765
▁ूर्ण	-8.53776
▁किम	-8.53787
ज	-8.53976
▁ेह	-8.54431
▁इत	-8.54512
▁दीर्घ	-8.54547
▁जीवन	-8.54642
▁स्मृत	-8.54685
▁नीय	-8.54857
▁ुर	-8.55075
▁्त्र	-8.55147
▁णां	-8.55151
▁मनो	-8.5551
▁्रिय	-8.55731
▁्याः	-8.55791
▁पाल	-8.56001
▁मुप	-8.56543
▁विश	-8.56558
▁अति	-8.56592
▁पार	-8.56599
▁रथ	-8.5666
ग्र	-8.57038
▁त्थ	-8.57132
▁यन्	-8.57234
▁भाषण	-8.57238
स्	-8.57341
▁्वरूप	-8.57851
ाद	-8.57867
▁ज्ञा	-8.5793
▁देवता	-8.57967
▁ानाम	-8.58014
▁ुः	-8.58086
▁तस	-8.58106
▁िव	-8.58244
▁ोः	-8.58302
▁योज	-8.58581
▁केन	-8.58751
▁मुख्य	-8.58826
▁अधिक	-8.58833
▁हत	-8.58999
▁हो	-8.59047
▁ार्थं	-8.59105
▁री	-8.59192
▁समान	-8.59227
▁परा	-8.59315
▁ित्यं	-8.59472
▁सार	-8.59495
▁ाम्	-8.59756
▁क्व	-8.5984
▁ार्यं	-8.59911
▁पुं	-8.59935
▁ीयते	-8.59951
▁अभवत्	-8.60026
▁ेद	-8.604
▁्तमान	-8.60459
▁संभव	-8.60606
▁व्यं	-8.6071
▁्नोति	-8.60824
▁संय	-8.60993
▁ेर	-8.61265
▁लोके	-8.61328
▁गमन	-8.61432
▁औ	-8.61519
▁दिवस	-8.61807
ष	-8.62073
▁लिङ्ग	-8.62168
ीय	-8.62269
▁म्ह	-8.62292
▁ित्वा	-8.62444
▁श्व	-8.62464
▁व्रत	-8.62658
e	-8.6278
▁र्च	-8.63101
▁शान्त	-8.6318
▁क्त	-8.63249
▁वाह	-8.6329
▁ला	-8.63306
▁संशयः	-8.63336
▁रूपं	-8.63346
▁च्यते	-8.6346
मान	-8.63627
▁ारतीय	-8.63865
▁भिन्न	-8.63876
▁रूपेण	-8.63916
▁शिव	-8.63928
ोऽ	-8.6395
▁कथय	-8.64066
▁िम	-8.64074
र्ध	-8.6414
▁मित्य	-8.64185
▁व्यम्	-8.64403
▁स्वयं	-8.64448
▁चेत्	-8.64451
▁सन्न	-8.64479
▁भूमि	-8.64541
▁ाप	-8.64622
▁साध	-8.6468
▁ुस्तक	-8.65077
▁दीप	-8.65151
a	-8.65197
▁सति	-8.65328
क्ष्	-8.65374
▁ळ	-8.65771
▁धिकरण	-8.65816
▁त्वम	-8.65888
▁्माकं	-8.65909
▁बोध	-8.65911
▁ङ	-8.66154
▁पुण्य	-8.66222
▁नेन	-8.66312
▁ङ्ख	-8.66579
▁चतुर	-8.66973
▁ग्राम	-8.67202
▁दिष्ट	-8.6722
▁्वप्न	-8.67621
▁जनाः	-8.67626
▁यू	-8.67752
▁ताम्	-8.67812
▁नम्	-8.67883
▁धी	-8.67939
▁िष्ठ	-8.68181
▁कस्य	-8.68195
▁ंख्या	-8.68408
▁सुर	-8.68411
▁म्ब	-8.6843
▁र्ष	-8.68525
▁ानाम्	-8.68602
▁ल्	-8.68604
▁तथापि	-8.68781
▁रोग	-8.68847
▁संप	-8.68917
▁ांश	-8.6896
▁ऐ	-8.69287
s	-8.69564
▁युत	-8.69575
▁ष्ठ	-8.69669
▁तस्या	-8.69701
▁्रं	-8.69702
▁्वारा	-8.69791
▁र्ह	-8.69997
▁दार	-8.70237
▁तिथि	-8.70256
▁विद	-8.70281
▁यु	-8.70326
▁माता	-8.70345
▁नुष्य	-8.70354
▁धर	-8.70568
▁मी	-8.70594
▁यन्त	-8.70631
▁शु	-8.70682
▁र्क	-8.70779
▁न्म	-8.71086
▁ेवं	-8.71168
▁मण्डल	-8.71274
▁सो	-8.7137
▁्वर्ग	-8.71515
▁दा	-8.71721
▁ुह	-8.71739
▁भो	-8.71774
▁र्ज	-8.71924
र्प	-8.7224
▁ध्यान	-8.72363
▁मित्त	-8.72564
▁गृहे	-8.72665
▁फलं	-8.72767
▁द्वार	-8.72777
▁श्रम	-8.72969
▁एकः	-8.72971
▁र्य	-8.72996
▁विरोध	-8.73068
▁नैव	-8.73345
▁स्तुत	-8.73442
▁्वि	-8.73709
▁ाङ्ग	-8.73846
▁वीर	-8.73949
▁क्षय	-8.73964
▁स्फ	-8.74007
▁त्वां	-8.74301
▁वां	-8.74425
▁ंद	-8.74607
▁रस्पर	-8.74852
▁्रन्थ	-8.74903
▁पूर	-8.75244
▁भगव	-8.75325
▁नी	-8.75492
▁वती	-8.75499
▁न्तर्	-8.75616
िञ्च	-8.75817
▁त्रय	-8.7592
ॉ	-8.75931
▁िश्च	-8.76252
▁रित	-8.7632
▁संव	-8.76557
▁तथ	-8.76779
▁ादौ	-8.77026
▁ॆ	-8.77564
▁ाण	-8.77744
▁जगत	-8.77956
▁बाह	-8.77968
▁ेष	-8.77991
▁ग्न	-8.7803
▁ध्ययन	-8.78037
▁ंक	-8.7812
▁न्वित	-8.78126
▁ञ्	-8.78385
▁दाहरण	-8.78412
▁ादन	-8.78437
▁सुत	-8.78562
▁वो	-8.78579
-	-8.78617
▁उच्च	-8.78623
▁ने	-8.78667
▁्यो	-8.7885
▁अग्नि	-8.78857
▁वः	-8.78956
▁यज	-8.78974
▁तथैव	-8.79164
▁िताः	-8.79264
▁समय	-8.79275
▁हीन	-8.79479
▁ादेश	-8.79512
▁पू	-8.79533
▁योजन	-8.79539
▁शासन	-8.79734
▁क्वच	-8.79774
▁मानव	-8.79801
▁ात्मक	-8.79862
ास्त	-8.79971
▁वल	-8.79998
▁कृष्ण	-8.8001
▁सभा	-8.80034
▁एस	-8.80064
▁तृतीय	-8.80075
▁पूजा	-8.80174
▁भाग्य	-8.80234
▁ाट	-8.8031
यु	-8.80404
▁हरि	-8.80531
▁कृत्य	-8.80563
▁आत्म	-8.80676
॒	-8.80719
▁िन्तु	-8.80735
▁ेक्ष	-8.80818
▁भूय	-8.80862
▁ुम्	-8.80949
▁उद	-8.81037
▁द्वय	-8.8105
▁अथवा	-8.81291
▁ागत	-8.81319
▁ात्र	-8.8141
▁दाय	-8.8146
▁याति	-8.81464
▁दध	-8.81559
▁ाद्य	-8.81574
▁ब्र	-8.81659
▁्रभाव	-8.81749
ङ्ग	-8.81859
▁चित्त	-8.81868
▁सिंह	-8.81881
▁()	-8.81888
▁एतद	-8.81956
▁माप्त	-8.81988
ख	-8.8201
▁एते	-8.82025
▁पद्य	-8.82092
▁अनेक	-8.82099
वादश	-8.8215
ङ्क	-8.82155
▁्रव्य	-8.82172
▁दण्ड	-8.82295
▁ास	-8.82376
▁नृप	-8.82785
▁ुर्य	-8.828
▁कला	-8.82942
▁ेष्व	-8.83098
योग	-8.83105
▁भवतः	-8.83346
▁ंश	-8.83478
▁िष्	-8.83745
▁नय	-8.83769
▁कृतं	-8.83899
▁जग	-8.83958
▁संसार	-8.84064
▁प्रत	-8.84094
ण्ड	-8.8421
▁गम	-8.84315
▁m	-8.84319
▁ज्ञेय	-8.8436
▁कथा	-8.84467
▁ईश्वर	-8.8456
▁ृत्यु	-8.8458
▁नन्तर	-8.84877
▁विष्ट	-8.84922
▁दित	-8.84961
▁ग्राह	-8.84961
म्ब	-8.85044
▁रिक्त	-8.85072
▁विकास	-8.85246
▁ीकरण	-8.85343
▁रण	-8.85382
▁माह	-8.85446
▁न्ह	-8.85683
▁ितव्य	-8.85718
▁मनु	-8.85882
▁गृहीत	-8.85918
▁वात	-8.86181
स्मा	-8.86328
▁पितृ	-8.86577
▁कोई	-8.86688
▁ितं	-8.86697
▁ुच्य	-8.8673
▁सेव	-8.86872
▁ीत	-8.86933
▁चित	-8.87024
र्ज	-8.87034
▁गतः	-8.87182
▁व्यय	-8.87277
▁शि	-8.8732
▁भवान्	-8.87406
▁शा	-8.87441
▁ज्योत	-8.87573
घ	-8.87586
▁समु	-8.87611
ेरिक	-8.87627
▁िद्	-8.87799
▁ननु	-8.87935
▁चैव	-8.87945
▁सर	-8.87997
▁पिता	-8.8801
▁िष्ट	-8.88087
▁ुल	-8.88278
▁्रयोग	-8.88333
▁है	-8.88358
▁नाश	-8.88373
▁मित	-8.88812
▁धान	-8.8886
▁मै	-8.88907
▁सद	-8.89315
▁याम्	-8.89362
▁पर्वत	-8.89462
▁ास्य	-8.8951
▁गति	-8.89639
▁मल	-8.89673
▁र्ध	-8.90004
▁संग	-8.90093
▁योगः	-8.90331
▁शील	-8.90421
▁तादृश	-8.90475
▁ायं	-8.90643
▁्रमाण	-8.90672
▁शत्रु	-8.90714
▁दास	-8.90756
▁संधान	-8.91028
▁नै	-8.91058
▁ोद	-8.91148
▁्यु	-8.91195
▁इच्छ	-8.91227
▁ोऽपि	-8.91247
▁ादिना	-8.91309
▁निज	-8.91428
▁द्विज	-8.91695
▁दानीं	-8.91726
▁तेज	-8.91857
▁ीत्य	-8.91963
▁ुत्वा	-8.91968
▁्रातः	-8.92156
▁अनेन	-8.92346
▁समर्थ	-8.92535
▁मध्यम	-8.92613
▁्रकृत	-8.92703
▁्ध	-8.92717
▁नन्द	-8.92739
कल	-8.92848
▁लय	-8.92872
श्चा	-8.92994
▁तप	-8.93034
▁स्याद	-8.93155
▁्ड	-8.93202
▁यिष्	-8.93213
▁योजना	-8.93421
▁िनी	-8.93456
▁ज्ञाय	-8.93483
▁ाऽ	-8.93558
▁र्त्	-8.93636
▁ग्र	-8.93636
▁समास	-8.93672
▁िन्द	-8.9379
▁कर्ता	-8.93921
▁्यः	-8.94055
▁चि	-8.9409
▁िस	-8.94136
▁त्येक	-8.94204
▁मस्ति	-8.94263
▁णि	-8.94266
▁लब्ध	-8.94321
▁विष	-8.94365
▁राग	-8.94366
▁्स	-8.94373
▁दर	-8.94537
▁तिषेध	-8.94559
▁्वभाव	-8.94573
▁टि	-8.94685
▁कदा	-8.9469
▁वह	-8.94761
▁लोप	-8.94776
▁यितुं	-8.94945
▁िभाषा	-8.95078
▁परमा	-8.95232
▁ों	-8.95252
▁यावत्	-8.95331
▁ात्रा	-8.95582
▁स्मर	-8.95701
▁हम	-8.95821
▁लघु	-8.95825
▁संस्	-8.95964
▁रुप	-8.95974
▁गर्भ	-8.96016
▁ोत्तर	-8.96082
▁ियां	-8.96149
▁द्ध	-8.96161
त्व	-8.96219
▁वश्यक	-8.96233
▁ुट	-8.96253
▁स्क	-8.96366
▁हु	-8.96448
▁तिप	-8.96726
▁टी	-8.96794
▁बालक	-8.96929
▁ाति	-8.97017
▁धिकतम	-8.97033
▁्ट	-8.97079
ाज्ञ	-8.97124
▁ार्या	-8.97235
▁बाध	-8.97257
▁सर्वा	-8.97342
▁गवान्	-8.97353
त्स	-8.97495
▁्ण	-8.97504
▁छात्र	-8.97613
▁क्षम	-8.97669
▁भयं	-8.97751
▁्यपि	-8.98002
▁ें	-8.98092
▁प्रजा	-8.98163
▁नर	-8.98233
▁सम्भ	-8.98324
▁सेवा	-8.98418
▁कर्ण	-8.98457
▁अधि	-8.9849
▁बि	-8.98565
▁भार	-8.98669
▁भा	-8.98715
▁वी	-8.98733
▁रव	-8.98792
▁यान	-8.98872
▁क्षत	-8.9901
▁एका	-8.99015
िल	-8.99217
▁ग्री	-8.99338
▁शः	-8.99405
▁रुद्ध	-8.99502
▁१०	-8.99511
▁युग	-8.9955
▁स्नान	-8.9966
▁रुण	-8.99665
▁खलु	-9.00039
▁दे	-9.00175
▁ीन	-9.00202
▁ाच	-9.00212
▁श्चिम	-9.00366
▁बसाइट	-9.00424
▁्यू	-9.00447
▁मद	-9.00538
▁रक्त	-9.00569
▁ऋत	-9.00634
दृश	-9.00708
▁तीति	-9.00742
▁रोह	-9.00822
▁जय	-9.00961
▁रक्षा	-9.00995
▁न्ध	-9.01133
▁र्वदा	-9.01158
▁ीर	-9.01259
▁नीति	-9.013
▁ाक्ष	-9.01322
▁सागर	-9.01427
▁जि	-9.01447
▁ुक	-9.0164
▁ाहं	-9.01683
▁@	-9.01695
ुच्य	-9.01994
▁उत्तम	-9.02127
▁कट	-9.02172
▁न्त्य	-9.02198
▁यस	-9.02198
र्ष	-9.022
▁यसि	-9.02241
▁युज्य	-9.02392
▁कारणं	-9.02466
▁ित्र	-9.02471
▁न्व	-9.02742
▁धातु	-9.02811
▁ितुं	-9.02917
▁विन	-9.02956
▁मूल्य	-9.02978
▁ूढ	-9.03255
▁पुष्प	-9.03471
▁ेयं	-9.03475
▁ीक्षण	-9.03494
▁किंच	-9.03527
▁पृथक्	-9.03534
त्मन	-9.03589
▁ीकृत	-9.03681
▁गा	-9.03785
▁निष्	-9.03816
▁प्रव	-9.03876
ुष्म	-9.03994
्र	-9.0406
▁ङ्	-9.04164
▁मुनि	-9.0428
▁बह	-9.04317
▁भास	-9.04343
▁कथम	-9.0438
▁a	-9.04397
▁माचार	-9.04448
▁भिर्	-9.04568
▁वध	-9.04632
ेष	-9.04648
▁पान	-9.04728
▁क्रीड	-9.04837
▁धृ	-9.04855
▁कन्या	-9.04864
▁स्थाप	-9.04898
▁र्तुं	-9.04926
▁प्रद	-9.05019
▁गृह्य	-9.05033
▁ैन	-9.05097
▁मोक्ष	-9.05223
▁वाम	-9.05517
▁रोध	-9.05557
▁िनियम	-9.05674
▁सन्द	-9.05754
▁ूल	-9.05804
▁च्	-9.05842
स्य	-9.05882
▁आर	-9.06242
ोह	-9.06267
▁ेतत्	-9.06344
▁वय	-9.06369
▁ृथिवी	-9.06443
▁आह	-9.06494
▁ास्त	-9.06504
▁हेत	-9.0666
नि	-9.06675
▁उपयोग	-9.067
▁ूत	-9.06706
▁त्या	-9.0671
▁ेल	-9.06739
▁दिने	-9.068
▁धु	-9.06807
▁ेद्	-9.06849
▁र्द्ध	-9.0687
?	-9.06912
▁्यन्त	-9.06928
▁सर्ग	-9.07084
▁युध	-9.07248
▁निष्क	-9.07357
▁वान	-9.07489
▁ाम्य	-9.07623
▁स्वी	-9.0765
▁था	-9.0769
▁यतो	-9.0782
▁वत्स	-9.07821
्षिप	-9.07847
▁योर्	-9.07852
▁सहित	-9.07928
▁ज्या	-9.07957
▁तन्	-9.0799
▁गन्ध	-9.0802
▁न्यास	-9.0811
ीर्त	-9.08126
▁र्मित	-9.0824
▁वश	-9.08292
▁देवा	-9.08307
▁विविध	-9.08382
▁वृत	-9.08414
▁कारक	-9.08534
पर	-9.08547
▁ेतद	-9.08741
▁िर्णय	-9.08797
ॊ	-9.08825
▁भक्ति	-9.08886
▁मिदं	-9.0903
▁रण्य	-9.09072
▁ीनां	-9.09185
▁ेट	-9.09196
▁॰	-9.09211
▁न्तः	-9.09321
▁ध्या	-9.09349
▁तौ	-9.09394
▁तस्	-9.09463
▁क्षर	-9.09529
▁तुर्थ	-9.09562
▁क्	-9.09574
▁वाच्य	-9.097
▁ोष	-9.09839
▁समये	-9.09847
▁िया	-9.10096
▁मन्य	-9.10206
▁ाध	-9.10218
▁पाय	-9.10226
▁तत	-9.10281
▁रति	-9.10319
▁ड़	-9.10327
▁कुत्र	-9.10375
▁घ्न	-9.1055
▁क्ष्य	-9.10597
▁ोक्तं	-9.10654
▁ाथ	-9.10702
▁भृ	-9.10775
▁र्म	-9.10808
▁ित्व	-9.10815
▁ोट	-9.10883
▁धीयते	-9.10915
▁विकि	-9.10977
▁श्	-9.11062
▁तुल्य	-9.11087
▁ाख्य	-9.11157
▁गन्त	-9.11192
▁िक्षा	-9.11241
▁प्राय	-9.11242
▁त्मान	-9.11325
▁ेतन	-9.114
▁S	-9.11463
▁रिणाम	-9.11514
▁भु	-9.11614
▁जगत्	-9.11815
▁िनां	-9.11857
▁पृथ	-9.12031
▁्वः	-9.12078
▁अहम्	-9.1218
▁स्वर	-9.12274
▁ाया	-9.12376
▁शाल	-9.1241
▁भवन्	-9.12527
▁त्यज	-9.12662
▁सत्	-9.12749
▁त्वम्	-9.12838
▁्था	-9.12925
▁पण	-9.12989
▁पीड	-9.13017
▁भ्यास	-9.13023
▁वेदन	-9.13192
"	-9.13326
▁शिष्य	-9.13448
▁धात	-9.13459
▁रोप	-9.13527
▁{	-9.13528
▁ाइ	-9.13544
▁न्नत	-9.13603
▁शीत	-9.13814
▁र्न	-9.1388
▁एषा	-9.13894
▁कालः	-9.13906
▁आप	-9.14009
▁I	-9.14204
▁स्थल	-9.14309
▁कृता	-9.14391
▁ूप	-9.14403
▁घोष	-9.1444
▁ोल	-9.14505
▁विंश	-9.14565
▁श्चित	-9.14616
▁ग्नि	-9.14752
tr	-9.14766
▁ान्न	-9.15009
ित्	-9.15092
▁शङ्क	-9.15107
▁ङ्घ	-9.15221
▁चक्र	-9.1526
▁चरण	-9.15323
▁्ञानं	-9.1577
▁पदं	-9.15936
▁दृढ	-9.16067
▁वत	-9.16128
▁वसाय	-9.16305
▁मयि	-9.16411
▁इयं	-9.16494
▁<	-9.16601
▁ाक्षा	-9.16602
▁च्छेद	-9.16605
▁वित्त	-9.16634
▁ात्रि	-9.16802
▁समाज	-9.16839
▁्रधान	-9.16864
▁गृहं	-9.16916
▁पौ	-9.1692
▁व्यः	-9.17072
▁षि	-9.17089
▁यद्य	-9.17221
▁विस	-9.17257
▁देवी	-9.17272
▁णु	-9.17337
▁मौ	-9.17356
▁जीवित	-9.17443
▁क्स	-9.17519
▁परे	-9.17522
▁तल	-9.17535
▁्यर्थ	-9.17536
▁र्त	-9.17586
▁वरण	-9.17613
▁तिहास	-9.1762
गु	-9.17688
ंज्ञ	-9.17731
▁िखित	-9.17738
▁रल	-9.1777
▁स्वत	-9.17782
▁धनं	-9.17804
▁क्ति	-9.17872
▁काव्य	-9.17963
▁त्सव	-9.18042
▁ार्ध	-9.1811
▁यै	-9.1817
▁साध्य	-9.18201
▁ूगु	-9.18227
▁नीत	-9.18297
▁यात्	-9.18313
▁ताः	-9.18433
▁्धान	-9.18508
▁विनाश	-9.18653
▁गत्वा	-9.18731
▁जनवरी	-9.18889
▁ष्व	-9.19046
▁त्याग	-9.19066
▁अस्म	-9.19098
▁्रति	-9.19175
▁ष्णु	-9.19322
▁स्ते	-9.19322
▁देय	-9.19404
▁वर्षा	-9.19541
ंख्य	-9.19553
ुध	-9.19615
▁त्ययः	-9.19671
▁िन्	-9.1971
▁सूच	-9.19757
य्	-9.19969
▁्य्य	-9.19977
▁वर्तन	-9.19998
▁११	-9.20012
'	-9.20159
▁्रीडा	-9.20182
▁लिख	-9.20334
▁किल	-9.20352
ोग	-9.20382
▁्क	-9.20421
▁दीनां	-9.20472
▁्री	-9.20604
▁ैस्	-9.2062
▁मनः	-9.2063
▁sgs	-9.20661
▁ुक्ति	-9.2068
▁ेम	-9.20694
▁तान्	-9.20836
▁भ्य	-9.20839
d	-9.20905
▁ेभ्यो	-9.20922
▁िल	-9.21366
▁ौर	-9.21444
▁भवत्	-9.21532
▁एषः	-9.21577
▁स्ट	-9.21682
▁ाड	-9.21686
▁उद्	-9.21694
ृथिव	-9.21737
▁आस	-9.21896
▁संशय	-9.21994
▁्यम	-9.22041
▁केच	-9.22092
▁यॊ	-9.22122
॑	-9.22203
ुरस्	-9.22212
▁कारः	-9.22297
▁ोत्तम	-9.22315
ाम	-9.22351
▁स्थिर	-9.22378
▁स्मा	-9.22421
▁पाक	-9.22432
▁नाथ	-9.22436
▁मान्	-9.22471
▁दार्थ	-9.22594
▁काय	-9.22631
▁खण्ड	-9.22682
▁र्देश	-9.22759
▁ोम	-9.22762
▁निवेश	-9.22797
▁िदं	-9.22927
▁एम	-9.22939
▁कृपया	-9.23056
▁्थाने	-9.23072
▁$	-9.23118
▁जित	-9.23167
▁धेय	-9.23274
▁्पष्ट	-9.23326
▁भवन	-9.23499
▁ताम	-9.23546
▁पुंस	-9.23586
▁एकं	-9.23604
▁लभ	-9.2362
▁गृह्ण	-9.23635
▁ीक्ष	-9.23718
▁श्लोक	-9.2381
पृ	-9.23854
▁श्वास	-9.23916
▁मानस	-9.2405
▁ुप्त	-9.24086
▁ट्ट	-9.24138
▁ैश्च	-9.2415
▁कति	-9.24203
▁श्रो	-9.24203
▁स्मै	-9.24228
▁भ्यः	-9.24352
▁शून्य	-9.24413
▁सेना	-9.24481
▁ष्ण	-9.24553
▁बी	-9.24555
▁श्रि	-9.24558
▁नदी	-9.24644
▁नुकूल	-9.24744
▁अर्थः	-9.24876
▁चक्षु	-9.25086
▁योग्य	-9.25129
ृज	-9.25218
▁भर	-9.25368
▁र्ता	-9.2537
▁तीर्थ	-9.25494
▁जी	-9.25497
▁रूपा	-9.25585
▁धारा	-9.25622
▁र्द	-9.25714
▁मन्त	-9.25719
▁चन	-9.25776
ड	-9.25916
▁पथ	-9.25921
▁घात	-9.25944
▁बा	-9.2599
▁चार्य	-9.26002
▁णं	-9.26009
▁वापि	-9.26024
रूप	-9.26283
▁ंश्च	-9.26338
▁A	-9.26456
▁रत	-9.2678
▁ित्त	-9.26861
म्बद	-9.26931
▁कुश	-9.2695
▁ाप्ते	-9.26963
▁अयम्	-9.27044
▁द्व	-9.27065
▁ोड	-9.27066
▁विजय	-9.27126
▁यम्	-9.27153
▁मनस	-9.27216
▁ोच	-9.27324
▁मर	-9.27369
▁ुद	-9.27418
▁विप	-9.27441
▁}	-9.27475
▁ध्व	-9.27489
▁सन्ध	-9.2752
▁्राम	-9.2781
▁शी	-9.27851
▁प्त	-9.27958
▁ण्ट	-9.28084
▁वने	-9.28122
▁षड	-9.28124
द्व	-9.28147
▁सुखं	-9.28176
▁ातु	-9.28212
▁कोट	-9.28275
▁भी	-9.28289
▁बहू	-9.28292
▁पशु	-9.28436
▁तिशत	-9.28458
्त्व	-9.28573
ृष्ट	-9.28595
o	-9.28645
▁त्ति	-9.28658
छ	-9.2867
u	-9.28744
त्त	-9.28774
▁त्तम	-9.28824
▁ट्	-9.28827
▁मो	-9.28869
▁तार	-9.28968
▁क्रोध	-9.28973
▁भ्यां	-9.28975
▁हृद	-9.29115
▁स्मि	-9.29242
▁सदस्य	-9.29275
▁सत्यं	-9.29329
▁ीश्वर	-9.29403
▁शृणु	-9.29673
▁ैष	-9.29691
▁ात्मा	-9.29804
▁ाःगु	-9.29805
▁पिं	-9.29827
▁ोण	-9.29902
▁्रीय	-9.29921
▁जप	-9.29998
▁त्वे	-9.30146
▁न्यून	-9.30168
▁साद	-9.30333
्रू	-9.30342
▁समस्त	-9.30406
▁ंस	-9.30407
▁योर	-9.30464
▁ाधारण	-9.30494
▁्रविश	-9.30601
▁ाकार	-9.30613
▁त्कृ	-9.30686
▁ग्रे	-9.30715
▁कृतम्	-9.30729
न्	-9.30762
▁आई	-9.30776
▁िणः	-9.30803
▁ैल	-9.30951
▁ध्वनि	-9.31056
▁न्दर	-9.31063
▁वन्तः	-9.31136
▁पितु	-9.31152
▁कर्ष	-9.31238
▁विष्य	-9.31336
▁ायन	-9.31339
▁तू	-9.31417
▁दुष्ट	-9.31423
▁्पर्श	-9.31464
▁िष	-9.31479
१	-9.31545
▁महोदय	-9.31555
▁दन्त	-9.31669
▁न्वय	-9.31741
▁...	-9.31765
▁ाश	-9.31783
▁कल	-9.31859
▁Tag	-9.32009
▁ाश्रय	-9.32113
▁शब्दः	-9.32184
वर्त	-9.32215
▁मधु	-9.32288
▁श्रू	-9.32407
▁लन	-9.3241
▁ाधिक	-9.32432
मु	-9.32439
▁---	-9.32452
▁हिम	-9.32477
▁भागे	-9.3249
▁ासन	-9.32559
▁कृतः	-9.32589
▁र्माण	-9.32609
ेऽ	-9.32658
▁िन्न	-9.32718
▁ष्ठा	-9.32777
▁तावत्	-9.32782
▁जाल	-9.32789
▁तेषु	-9.32843
▁न्तं	-9.33121
▁नेवाः	-9.33202
▁मातृ	-9.33221
▁विवाह	-9.333
▁धानम	-9.33327
▁तन	-9.33395
▁ज्य	-9.33525
०	-9.33817
▁क्ष्म	-9.33851
▁परीत	-9.33943
▁तीव	-9.34
▁ब्रव	-9.3402
▁र्प	-9.3409
▁तेषाम	-9.34136
▁पदे	-9.34182
▁्ब	-9.34265
▁वचनं	-9.34309
▁&	-9.34313
▁ाच्च	-9.34416
▁ुत्	-9.34423
▁उत्	-9.34455
▁भाष्य	-9.34482
▁खिल	-9.34545
▁नुभव	-9.34591
ार	-9.34613
▁बीज	-9.34799
▁शर	-9.3482
▁पृ	-9.34928
▁ताल	-9.34937
▁हां	-9.35033
▁पो	-9.3507
▁परः	-9.35128
▁करणे	-9.3513
▁मोद	-9.3517
▁भ्र	-9.35171
▁रणं	-9.35202
▁कुमार	-9.35253
ोभ	-9.35269
▁यौ	-9.35303
▁व्रज	-9.35353
धान	-9.35372
▁ायाम	-9.35376
▁Home	-9.35435
▁पक्षे	-9.35459
▁सीद	-9.35512
c	-9.35673
ाग	-9.35712
▁िणी	-9.35807
▁संब	-9.35811
▁त्मनः	-9.3582
▁्वर	-9.35821
▁ीर्ण	-9.35914
▁तच्च	-9.36007
▁भ्रम	-9.3605
▁मानुष	-9.36097
▁१२	-9.36107
▁ुरुषः	-9.36192
ौ	-9.36246
▁निष	-9.36252
▁किमपि	-9.3629
▁शाला	-9.3634
▁ात्रौ	-9.36365
▁ुर्लभ	-9.36382
▁्रतीत	-9.36421
▁गम्य	-9.36482
▁विहित	-9.36499
▁ेच्छ	-9.36646
▁रिति	-9.36739
▁निवार	-9.3678
▁लभ्य	-9.36945
▁्थित	-9.36992
नेह	-9.37011
▁प्रभु	-9.3706
▁रहित	-9.37146
▁लु	-9.37238
▁बद्ध	-9.37258
▁ालन	-9.37271
▁ंगु	-9.37305
▁म्बर	-9.37348
▁युव	-9.37418
▁धिक	-9.37433
▁िनो	-9.37526
▁ासु	-9.37571
▁यि	-9.37659
▁ल्क	-9.37698
ंस्थ	-9.37792
▁कथित	-9.37834
▁यूयं	-9.37854
▁तिं	-9.37855
▁धो	-9.37872
▁देवाः	-9.3788
▁्छ	-9.37896
▁ुर्	-9.38132
▁हिंसा	-9.3821
▁िला	-9.3834
▁भवता	-9.38434
▁रुत	-9.38521
▁ासि	-9.38567
▁गौ	-9.38619
▁ास्ते	-9.38661
▁ंत्र	-9.38675
▁अहो	-9.38726
▁पत	-9.38793
▁्यायः	-9.38851
▁जलं	-9.3896
▁भ्रात	-9.38984
ोप	-9.39032
▁शृ	-9.39117
▁२०	-9.39161
▁पितर	-9.39164
▁द्भ	-9.39177
▁समूह	-9.39187
▁्ये	-9.39262
▁्स्	-9.3932
▁ेन्	-9.39341
▁वस्था	-9.39677
▁वण	-9.3969
▁भोजन	-9.39749
▁पन्न	-9.39849
▁िनि	-9.39938
▁पत्त	-9.39949
▁ीश	-9.40054
▁परम्	-9.40095
▁पृच्छ	-9.40194
▁्याम्	-9.4039
▁्यै	-9.40394
▁१५	-9.40441
▁दुर	-9.40529
▁चु	-9.40577
▁ांस	-9.40675
▁कै	-9.40712
▁वेग	-9.4077
▁विनि	-9.40814
▁शस्त	-9.40872
ृ	-9.40883
▁ंच	-9.41029
िद्र	-9.41074
▁ाहु	-9.41149
y	-9.41186
▁मांस	-9.41187
ार्श	-9.41223
▁्रथमा	-9.41258
▁र्ग	-9.41275
▁ंड	-9.41278
▁ोह	-9.41281
▁ानाति	-9.41355
▁ि॒	-9.41394
▁निषेध	-9.41461
▁रक्षण	-9.41472
▁चापि	-9.41481
▁इदम्	-9.41551
▁ीता	-9.41647
▁्य्	-9.41652
▁शोक	-9.41654
▁्न	-9.41685
▁ेदं	-9.41874
क्त	-9.41883
▁स्कार	-9.41905
▁देवः	-9.41988
▁नेत	-9.41998
▁साधु	-9.4203
▁•	-9.4206
▁विवेक	-9.42072
▁त्पाद	-9.42078
▁ीडिया	-9.42082
▁त्क	-9.42298
▁गमिष	-9.4237
▁ेरे	-9.42435
▁जुइ	-9.42462
▁ायक	-9.42522
ेष्ट	-9.42589
▁व्यति	-9.42603
▁तान	-9.42612
▁उभय	-9.42675
▁ावन	-9.42817
▁हन्त	-9.42856
▁वाहन	-9.42879
▁माया	-9.42935
▁ृष्टि	-9.43007
▁न्यते	-9.43028
▁भज	-9.43033
▁रम्भ	-9.43172
▁ग्ध	-9.43213
ंस	-9.43286
लि	-9.43299
▁नून	-9.43304
▁विधिः	-9.43407
▁ृण	-9.43489
▁धू	-9.43515
ये	-9.43552
▁विकार	-9.4373
▁वक्ष	-9.43744
▁रुचि	-9.43818
▁्रु	-9.43925
▁ययौ	-9.43991
▁मही	-9.44023
▁द्वीप	-9.44095
▁स्तर	-9.44207
▁स्तथा	-9.44317
▁हित्य	-9.44356
मर्थ	-9.44412
▁ायः	-9.44538
▁नृ	-9.44718
▁ष्म	-9.44776
▁विता	-9.44783
▁ाधि	-9.44817
▁ंतर	-9.44917
▁त्ता	-9.4492
▁तश्च	-9.44939
▁ाणाम	-9.45003
▁र्मणि	-9.45024
▁वयव	-9.45031
▁्थानं	-9.45082
▁्थिति	-9.4511
▁कृषि	-9.45163
▁स्तार	-9.45225
▁र्ण	-9.45269
▁अतो	-9.45308
▁वंश	-9.45346
▁करोमि	-9.45452
▁अहम	-9.45529
ञ्च	-9.45572
▁दिश्य	-9.45659
▁्ह	-9.45746
▁रज	-9.45789
▁राजन्	-9.45836
तर	-9.45936
▁कोऽपि	-9.45956
▁तोऽ	-9.46003
▁दल	-9.46009
▁अधुना	-9.4606
▁मिव	-9.46073
▁स्तो	-9.46088
▁चित्	-9.46163
▁र्मणा	-9.46178
▁ाञ्च	-9.46247
▁आकाश	-9.46274
▁महत्	-9.46296
▁→	-9.46377
▁भिर	-9.46562
▁श्वर	-9.46676
▁द्यु	-9.46804
▁कम	-9.46807
▁निश	-9.4684
▁सान	-9.46923
▁लो	-9.46936
▁याये	-9.46986
▁दी	-9.47154
▁मरण	-9.47171
▁त्स	-9.47189
p	-9.47254
▁समीप	-9.47284
▁दं	-9.47323
▁१४	-9.47462
▁भीत	-9.47511
▁नेपाल	-9.47553
▁प्स	-9.47634
▁जान	-9.47708
▁एकादश	-9.47753
▁नेत्र	-9.47811
▁तानि	-9.47879
▁तर्क	-9.47994
▁n	-9.48026
▁दित्य	-9.48073
▁भूत्	-9.48119
ार्थ	-9.48196
▁भेदे	-9.48206
▁रम	-9.48206
▁अल	-9.48242
▁धारण	-9.48246
▁्लव	-9.48258
▁tion	-9.48285
▁्रमेण	-9.48287
▁नियत	-9.48301
▁भवतु	-9.48338
▁थ्य	-9.48387
▁सव	-9.48441
▁पीसी	-9.48505
▁प्रेम	-9.48518
▁वीर्य	-9.48522
▁्च	-9.48549
्ठ	-9.48633
▁द्वौ	-9.48726
▁ावरण	-9.48738
▁ाये	-9.48805
▁शक्न	-9.48848
▁तम्	-9.48936
▁नू	-9.48954
▁ाला	-9.49016
▁माल	-9.49041
▁कारेण	-9.49069
▁क्षमा	-9.4909
▁विर	-9.4917
▁अभ	-9.49286
▁ुष	-9.49347
▁हल	-9.49511
▁्रि	-9.49642
▁भाति	-9.49652
▁द्म	-9.49731
▁B	-9.50084
▁र्ध्व	-9.50129
▁ेते	-9.50168
▁णीय	-9.50189
▁ध्रुव	-9.50232
▁रिवार	-9.50237
▁क्तम्	-9.50248
▁ागम	-9.5028
▁नयन	-9.50329
रा	-9.50474
▁र्भ	-9.50508
▁स्मरण	-9.50526
▁दूत	-9.50615
▁एतद्	-9.50638
र्ह	-9.50808
▁ाचीन	-9.5083
▁ेस	-9.50855
▁वस्त	-9.50923
▁कुतः	-9.51137
▁चे	-9.51158
▁ादयः	-9.51175
▁तुष्ट	-9.512
▁्रप	-9.51308
▁जातः	-9.51334
▁ाक्षस	-9.51534
▁ील	-9.51564
▁चीन	-9.51728
त्	-9.518
▁ञ	-9.51814
▁रत्न	-9.51823
पाद	-9.51893
▁देवि	-9.52007
▁गते	-9.52009
▁कल्पन	-9.52046
▁्रा	-9.52102
द्र	-9.52188
▁णाम	-9.5219
▁िभिः	-9.52223
▁माणं	-9.52265
▁तीय	-9.52462
▁म्र	-9.52589
▁नुवाद	-9.52676
▁कू	-9.52681
▁ख्य	-9.52818
ेर	-9.52875
▁ीघ्रं	-9.5289
▁छुं	-9.52955
▁अज	-9.5301
▁माम	-9.5304
ग्	-9.53056
▁इदम	-9.53262
▁थु	-9.53283
▁ाचार	-9.53355
▁लाख	-9.53375
▁ापित	-9.53403
▁्तव्य	-9.53533
▁नरः	-9.53537
▁चतु	-9.53544
▁डि	-9.53546
▁श्रवण	-9.5358
▁महत्व	-9.53597
▁सदृश	-9.53613
:	-9.53642
▁पतिः	-9.53716
▁न्यो	-9.53943
▁त्कार	-9.53949
र्द	-9.53967
▁गता	-9.54011
▁पेपर	-9.5403
▁सूत	-9.54063
▁माग	-9.54158
▁er	-9.54214
▁ूर	-9.54251
▁दात	-9.54445
न्त	-9.54524
▁ारं	-9.54539
▁तस्मै	-9.54585
▁उपरि	-9.54598
▁न्ती	-9.54844
▁णम्	-9.54917
▁ऽऽ	-9.54941
▁ाभिः	-9.54949
▁त्स्य	-9.55085
▁्ष	-9.55137
र्त	-9.55231
▁श्वेत	-9.55388
▁केवलम	-9.55447
▁िम्	-9.55463
▁राशि	-9.55545
▁्यम्	-9.55584
▁शीघ्र	-9.55617
▁षट्	-9.55642
▁ाकृत	-9.5566
▁गर	-9.55735
▁ोश	-9.55768
▁क्षेप	-9.5587
▁दात्	-9.55946
▁nt	-9.5595
▁ाङ्क	-9.56035
▁ुन	-9.56098
▁्थापन	-9.56119
▁्मृति	-9.56201
▁ख्यान	-9.56377
▁धाव	-9.56399
ेय	-9.56411
▁क्क	-9.5654
ञ्ज	-9.5655
▁रुपये	-9.56562
▁त्प	-9.56613
▁माः	-9.56634
▁हन	-9.56646
▁ुध्य	-9.56662
ाश	-9.56666
▁मेत	-9.56737
▁्येव	-9.56746
▁ासीत्	-9.56803
▁िना	-9.56845
▁भारते	-9.56914
लं	-9.56947
▁आसन्	-9.56949
▁१८	-9.5696
▁सित	-9.56979
▁ान्ते	-9.57026
▁शक्नु	-9.57049
▁पराध	-9.57084
▁ारद	-9.57097
▁यामः	-9.57174
▁ुत्तर	-9.57182
t	-9.57215
्रु	-9.57437
▁सरकार	-9.57484
▁10	-9.57587
▁मन्द	-9.57621
▁खेल	-9.57739
मा	-9.57746
▁ूर्त	-9.57829
▁नायक	-9.57846
▁वाप	-9.57856
▁पिब	-9.57869
▁धाय	-9.57889
▁काः	-9.57928
▁1.	-9.57975
▁जापत	-9.58075
▁ाह्म	-9.58186
द्	-9.58197
▁क्रमण	-9.58226
▁ततस्	-9.58332
▁िस्	-9.58355
▁णे	-9.58384
▁ितुम्	-9.58499
▁ग्	-9.58549
▁दूषण	-9.58583
▁्विन	-9.58676
▁िट	-9.58704
▁ीण	-9.58825
ैल	-9.5889
▁नाय	-9.58905
▁पत्नी	-9.59036
▁ामः	-9.59062
▁ण्	-9.59063
▁ब्द	-9.59211
▁रवरी	-9.59262
▁िभक्त	-9.59264
▁आः	-9.59266
▁ज़	-9.59269
▁कथम्	-9.5933
▁िशि	-9.59379
▁अग्ने	-9.59399
▁ानामि	-9.5949
▁धिकं	-9.5949
▁्रद्ध	-9.59498
▁त्रैव	-9.59506
▁दय	-9.59517
▁वाचक	-9.59682
▁राध	-9.5972
▁त्रा	-9.59738
ब्ध	-9.59796
्याप	-9.59821
▁यमेव	-9.59856
▁याव	-9.5987
ाच	-9.59875
▁ददाति	-9.59884
▁ंध	-9.59937
▁कृत्	-9.60005
▁दुः	-9.60054
▁क्तं	-9.60207
▁शै	-9.60275
▁देहि	-9.60305
▁्यमान	-9.60324
▁्लेषण	-9.60459
▁ाग्नि	-9.60504
▁सैन्य	-9.60566
▁तुल	-9.60582
▁महिला	-9.60585
▁ाभ्य	-9.60626
▁्यास	-9.60702
▁ष्ठि	-9.6073
▁भगवन्	-9.60734
▁ह्नि	-9.60784
▁ान्ति	-9.608
▁मू	-9.60808
▁िमान	-9.60809
▁त्सर	-9.60832
▁स्रोत	-9.60867
▁हानि	-9.60868
▁शोध	-9.60869
▁द्वे	-9.6088
▁हय	-9.60912
▁ामय	-9.6093
▁सतत	-9.60948
▁परमं	-9.60998
▁जाता	-9.61003
▁लं	-9.61007
▁दृश	-9.61011
▁मुह	-9.61116
▁जनक	-9.61199
▁वारं	-9.61209
▁तीत	-9.61213
▁गतिः	-9.6128
▁र्जन	-9.61293
▁सिध्	-9.61323
▁भुज	-9.61342
▁ायत	-9.61373
म्	-9.61398
▁सच	-9.61427
▁गीत	-9.61436
▁नृत्य	-9.61509
▁िभ	-9.61511
▁यन	-9.6153
▁तक	-9.61534
▁ानन्द	-9.61599
द्य	-9.61656
▁इतर	-9.6168
▁कम्प	-9.61846
ील	-9.61865
▁रू	-9.6189
▁्थ	-9.61919
▁हंस	-9.62086
▁मव	-9.62091
▁दृ	-9.62104
नं	-9.62144
▁सम्म	-9.6215
▁भगवान	-9.62188
▁प्रो	-9.62216
▁कथन	-9.62292
▁शीर्ष	-9.62314
▁ानाः	-9.62319
लोक	-9.62336
▁्वे	-9.62398
▁्ज	-9.62407
▁ाप्न	-9.62597
▁्ग	-9.62667
▁ल्याण	-9.62678
▁तात	-9.62703
▁संभ	-9.62709
▁दो	-9.62825
▁न्दिर	-9.62878
▁ाकरण	-9.62952
▁ूर्वक	-9.62959
▁ाटक	-9.6296
▁रेव	-9.62963
▁ुद्रा	-9.62974
▁मानि	-9.62978
▁वम	-9.62995
▁ाज्ञ	-9.63085
▁वन्त	-9.63217
▁%	-9.63218
▁म्यक्	-9.63258
▁मधुर	-9.63419
▁गुणा	-9.63534
▁ृत्य	-9.63623
▁एतेन	-9.63632
▁मासे	-9.63668
▁मार	-9.63681
▁रन्तु	-9.63685
▁करोत्	-9.63728
▁लभते	-9.6379
यो	-9.63799
▁ासां	-9.63821
▁हा	-9.63823
▁अन्व	-9.63916
▁विभ	-9.63934
▁दूष	-9.63993
▁निध	-9.64041
▁बहुधा	-9.64179
ानी	-9.64283
▁योगी	-9.64299
▁समं	-9.64314
ायण	-9.64332
▁चाल	-9.64341
▁तामह	-9.64369
▁नुमान	-9.6443
▁लिखि	-9.64469
२	-9.64495
▁दानं	-9.64525
▁्वयम्	-9.64547
▁द्यः	-9.64588
ना	-9.64591
▁ादिषु	-9.64661
▁ामहे	-9.64672
▁न्यत्	-9.64728
k	-9.64752
▁to	-9.64805
▁द्वेष	-9.64822
▁नाना	-9.64903
▁येषां	-9.64914
▁शुक्र	-9.64934
▁त्यु	-9.64966
▁मः	-9.65037
▁योजनम	-9.65117
▁१६	-9.65164
▁माजिक	-9.65166
▁घन	-9.6517
▁वाचन	-9.65279
स्थ	-9.65302
▁तैः	-9.65341
▁अतीत	-9.6536
▁षा	-9.65366
▁थार्थ	-9.65381
▁ाता	-9.65412
▁ुग्ध	-9.65453
▁ुगु	-9.65463
▁तिशय	-9.65465
▁ङ्क्	-9.65466
▁रिष्	-9.65474
च्य	-9.65475
▁पात्र	-9.6556
▁होम	-9.65577
▁पुरो	-9.65596
▁मुदाय	-9.65617
▁एन	-9.65622
▁ूक्त	-9.65738
w	-9.65789
▁१७	-9.65851
▁न्वयः	-9.65874
▁अक	-9.65921
▁एवा	-9.66033
▁युवा	-9.66069
▁वैश्व	-9.66109
▁रामः	-9.66239
▁यान्	-9.66334
▁ांत	-9.66336
▁निष्ठ	-9.66349
▁यास्	-9.66406
▁धीर	-9.66456
▁पुन	-9.66502
▁्येन	-9.66573
▁रुद्र	-9.66616
▁दक	-9.66709
▁त्य्	-9.66748
▁्मान्	-9.66777
▁C	-9.66847
▁रङ्ग	-9.6694
▁षम	-9.66975
▁भाषित	-9.67046
▁ार्थः	-9.67064
▁ंस्था	-9.67091
▁शाख	-9.6725
न्न	-9.67321
▁आग	-9.67351
▁हरे	-9.67412
▁सन्त	-9.6748
▁रह	-9.67653
▁इष्ट	-9.67658
▁वया	-9.67661
▁म्प	-9.67676
▁दद्या	-9.67738
▁पे	-9.67759
▁यस्	-9.67767
▁मनसा	-9.68033
▁धिकृत	-9.68128
▁माना	-9.68155
▁िरि	-9.68171
▁ुव	-9.68196
▁रेत्	-9.68218
▁ासाद	-9.68227
▁तमः	-9.68231
▁नौ	-9.68256
िष	-9.68297
▁क्रमः	-9.6831
▁रिक्ष	-9.68322
▁पति	-9.68503
▁भौ	-9.68536
▁थितं	-9.68566
▁्वी	-9.68612
▁ारम्भ	-9.68656
▁र्पण	-9.68713
ब्द	-9.68741
▁्युप	-9.68799
▁//	-9.688
िन	-9.68912
▁शू	-9.69013
▁ीष	-9.69042
▁ंट	-9.69047
▁ङ्गल	-9.69061
▁पचार	-9.69062
▁संघ	-9.69062
▁ष्य	-9.69102
▁्द	-9.69108
▁नेक	-9.69115
▁c	-9.6921
▁द्धत	-9.69337
ॄ	-9.69344
▁यश्च	-9.69459
▁वतां	-9.69462
ऽ	-9.69473
▁ुद्	-9.69498
▁व्यम	-9.69821
▁दिनं	-9.69859
▁आगच्छ	-9.69872
▁ङ्कार	-9.69934
▁घटना	-9.70007
▁ुष्टि	-9.70011
नु	-9.70035
▁णः	-9.70038
▁2.	-9.70042
िख	-9.70086
▁वर्णन	-9.70149
▁न्दो	-9.70153
▁ुञ्ज	-9.70179
रीण	-9.702
▁यमान	-9.70308
▁ेष्ट	-9.70332
▁गज	-9.7041
▁स्र	-9.70446
ङ	-9.70448
▁दः	-9.70469
▁ानन	-9.7047
▁डा	-9.70502
॰	-9.70514
▁दुर्ग	-9.70616
▁ापं	-9.70657
राज	-9.70708
▁पृष्ट	-9.70753
▁दौ	-9.70768
▁्थिव	-9.70791
▁योनि	-9.70791
▁पर्व	-9.70889
▁२१	-9.70924
▁्यापक	-9.70938
▁ण्य	-9.70972
▁भूम	-9.71017
▁P	-9.71029
▁शतं	-9.71084
▁ुवि	-9.71224
▁भात	-9.71278
▁यानि	-9.71285
▁अल्प	-9.71348
▁शो	-9.71356
▁हीं	-9.71377
▁ृत	-9.71384
▁ाकं	-9.71405
▁ोध	-9.71435
▁१३	-9.71456
▁पूज्य	-9.71465
▁श्चन	-9.71484
▁ेड	-9.71549
▁ूनां	-9.71596
▁ऽप	-9.71615
▁में	-9.71642
▁दिना	-9.71719
▁म्यते	-9.71756
▁नया	-9.71881
▁क्ष्	-9.71916
▁तुर	-9.71917
▁तन्न	-9.72043
▁अन्ये	-9.72077
▁ुत	-9.72103
▁वचः	-9.72223
▁..	-9.72309
▁घव	-9.72392
▁णिज	-9.72576
▁रोतु	-9.72678
▁नाम्	-9.7272
▁्रीति	-9.72848
▁ितो	-9.72877
▁्नात	-9.72881
▁ष्ठान	-9.72883
▁मभि	-9.72926
▁ार्च	-9.72967
▁हिता	-9.7302
▁रपि	-9.73047
▁कम्	-9.73059
▁समुद	-9.73073
▁ल्य	-9.7317
▁ेषाम	-9.73188
▁चय	-9.73203
▁ाहित	-9.73227
▁्यवाद	-9.73229
▁वद्	-9.73248
▁हृत	-9.73292
▁शौ	-9.73331
▁वसर	-9.73372
▁भवे	-9.73424
▁वसन्त	-9.73456
]	-9.73468
▁चक्ष	-9.73576
▁योगं	-9.73585
▁जाः	-9.73594
▁रच	-9.73693
▁ोज	-9.73788
▁वाल	-9.73832
▁सते	-9.7399
▁उत	-9.74149
▁आदेश	-9.7417
▁क्रि	-9.74329
▁ुने	-9.74347
▁ागर	-9.74368
▁महान्	-9.74464
▁मयः	-9.74528
▁ह्न	-9.74542
▁भ्यो	-9.74561
थ्य	-9.74652
मस्	-9.74714
▁ग्ने	-9.74717
▁ित्तं	-9.74764
थ	-9.74776
▁िश	-9.74786
▁स्यां	-9.74841
▁रात	-9.74873
▁विः	-9.74912
▁सम्ब	-9.74921
▁पु०	-9.74939
▁प्रेत	-9.74981
▁त्मा	-9.75036
▁ाषण	-9.75053
▁येद्	-9.75056
▁ंज	-9.75059
▁ार्ज	-9.75125
▁सफल	-9.75169
▁ेख	-9.75174
▁गत्य	-9.75336
▁घृ	-9.75383
▁्रू	-9.75411
▁श्न	-9.75442
▁्रयोज	-9.75444
▁ृश	-9.75447
हाय	-9.75519
▁भूव	-9.75634
▁ल्व	-9.75745
▁दुष्	-9.75798
▁चो	-9.75805
▁थ्यते	-9.75871
▁ास्तु	-9.75949
ृह	-9.76028
▁णाम्	-9.76028
▁लिखत	-9.76047
▁र्श	-9.76106
▁र्थ्य	-9.76108
▁ार्त	-9.76183
▁ुद्ध	-9.76183
▁टे	-9.7619
▁ृपा	-9.76198
▁ाँ	-9.76204
▁घ्र	-9.76275
▁द्युत	-9.76367
▁ामक	-9.76427
▁ing	-9.76581
▁न्धन	-9.76592
▁्यौ	-9.76594
▁ाहुः	-9.76637
▁भवत्य	-9.76874
▁ारण	-9.7694
▁पट	-9.76983
▁ऋण	-9.76997
▁ोद्	-9.77103
▁म्न	-9.77114
▁यस्तु	-9.7716
▁कथ	-9.77161
▁द्देश	-9.77175
▁बृ	-9.7719
▁ुक्	-9.77247
▁ीपे	-9.77292
▁ीह	-9.77343
▁थि	-9.77373
▁विदेश	-9.77384
▁ातुः	-9.77503
▁ष्टम	-9.77544
▁नरक	-9.77602
▁क्षि	-9.77618
▁ुण	-9.77681
▁ित्यम	-9.77697
▁लाल	-9.77702
▁रां	-9.77764
▁ृदि	-9.77901
▁l	-9.77915
▁हम्	-9.77924
▁ञ्जन	-9.77947
▁हिः	-9.77953
▁ध्य	-9.78006
▁प्राग	-9.78023
▁िन्ता	-9.78057
▁स्ताव	-9.78078
▁ब्ध	-9.78134
▁ोधन	-9.78166
▁्वद	-9.78335
▁द्यते	-9.78352
▁न्ध्य	-9.78366
▁परो	-9.78436
▁्मात्	-9.78454
▁ची	-9.78458
▁ुक्तं	-9.78486
▁शरण	-9.78508
▁चं	-9.78539
▁स्तद	-9.78539
▁वादी	-9.78591
▁छु	-9.78654
▁ii	-9.78722
▁वयम्	-9.78826
▁चते	-9.78897
▁िषु	-9.78928
▁दति	-9.79002
▁तिक	-9.79025
▁यित	-9.79075
▁्युत	-9.79094
▁ाक्षर	-9.79104
▁भाज	-9.7921
▁्मा	-9.79299
▁यतीति	-9.79311
▁्वज	-9.79348
▁विषयः	-9.79373
▁वज्	-9.79452
▁द्योग	-9.7948
▁ास्थ	-9.79525
्मण	-9.79676
▁ोय	-9.79683
ल्ल	-9.79729
▁ीम	-9.79732
▁यया	-9.79732
▁हव	-9.79762
▁तयोः	-9.79768
▁प्रीत	-9.79783
▁ाब	-9.79821
▁२२	-9.79888
▁भ्यं	-9.79914
▁ारि	-9.79937
▁ोदय	-9.80012
▁ारा	-9.80048
▁वदत्	-9.80155
▁पतित	-9.80174
▁माम्	-9.80191
▁क्षी	-9.80381
माध	-9.80412
▁टिप	-9.80436
▁विन्द	-9.8048
▁ैवं	-9.8066
▁आत्मा	-9.80859
▁ंभ	-9.80861
▁साह	-9.80884
▁कमल	-9.80997
▁हृ	-9.81005
▁ादिति	-9.81033
▁पुल	-9.81067
▁ोभ	-9.81079
▁याद	-9.81109
▁दद	-9.81367
▁नहि	-9.81387
▁्वाहा	-9.81402
▁वृष	-9.81441
स्त	-9.81472
▁्रकरण	-9.81556
▁नष्ट	-9.81707
▁्रमण	-9.8171
▁यामास	-9.81838
▁िष्य	-9.82012
▁ियन्	-9.82044
▁र्षिक	-9.8206
▁क्तिः	-9.82061
▁ासी	-9.82081
न्ये	-9.82096
▁पार्थ	-9.82162
▁अन्तर	-9.82178
▁कुट	-9.82313
▁ोन	-9.82314
▁शयन	-9.82372
▁३०	-9.82567
ानीम	-9.82603
▁तन्म	-9.82724
पस	-9.82728
▁्वस्थ	-9.82735
▁ग्निः	-9.82817
▁ॄ	-9.82839
▁ावद्	-9.83018
▁्राक्	-9.83037
▁ीं	-9.8308
▁दिल	-9.831
▁नित	-9.83108
▁्वयो	-9.83113
▁िक्षु	-9.83195
▁तले	-9.83196
▁म्म	-9.83203
▁नाहं	-9.83226
▁संद	-9.83255
▁करो	-9.83296
▁ह्	-9.83398
▁ाम्ना	-9.83419
▁च्या	-9.83447
▁ृतीया	-9.83492
▁अश्व	-9.83508
▁१९	-9.83509
▁्मि	-9.83551
▁वादः	-9.83589
▁ऽन	-9.83622
▁्ञ	-9.83644
▁सन्धि	-9.83651
▁भयो	-9.83699
m	-9.83703
▁षां	-9.83745
▁र्थक	-9.83789
▁परत	-9.83808
▁नारी	-9.83842
▁महत	-9.83846
▁ेतु	-9.83849
्माक	-9.83935
▁on	-9.84009
▁ार्थे	-9.84026
▁जाति	-9.84072
▁पीत	-9.84425
▁ाध्यम	-9.84427
▁जिन	-9.84464
▁ाधिप	-9.84532
▁ोषि	-9.84558
▁िरस	-9.84591
▁ंज्ञा	-9.84644
▁्राव	-9.84758
▁स्वतः	-9.84846
▁नसि	-9.84889
ोक्त	-9.84924
▁ंति	-9.84951
▁ाय्	-9.84998
▁युः	-9.85021
▁तिः	-9.85054
▁वचनम्	-9.85082
▁डी	-9.85204
▁ार्ता	-9.85236
वीकृ	-9.85352
▁आम	-9.85396
▁्रदेश	-9.85438
▁धीन	-9.85438
▁ीनि	-9.85444
▁ेशस्य	-9.85541
▁नाव	-9.85559
E	-9.85703
▁भवत	-9.85784
▁हाय	-9.85805
कः	-9.85923
▁ूष	-9.85924
कि	-9.86007
▁वेष	-9.8608
▁यी	-9.86097
▁चेत	-9.8613
▁रतः	-9.86282
▁ीनाम	-9.86354
▁निव	-9.86371
▁्मिक	-9.86399
▁िश्र	-9.86481
▁ूरे	-9.86494
▁िड	-9.86572
▁टल	-9.86576
▁्वर्ण	-9.86581
▁िषद	-9.86598
▁्रस्य	-9.86617
▁विक	-9.86625
▁ग्रत	-9.86656
▁पदेश	-9.8666
▁न्तो	-9.86744
▁नल	-9.86747
▁२५	-9.86877
▁दन्ति	-9.86885
▁्तुतः	-9.86895
▁॒व	-9.86962
▁धुन	-9.87022
▁रन्	-9.87067
▁विज	-9.87079
▁हरण	-9.87093
▁नस्	-9.87103
▁्यस्त	-9.87128
▁टन	-9.87245
▁णी	-9.87389
▁यास	-9.87397
▁त्मक	-9.87491
▁तरं	-9.87556
▁ीरे	-9.87578
▁सन	-9.87587
▁केश	-9.87721
b	-9.87813
▁रिक	-9.87964
▁कान्त	-9.87974
▁बलं	-9.88056
▁ाधन	-9.88177
▁लोक्य	-9.88273
▁क्षा	-9.8832
▁व्र	-9.88356
▁धौ	-9.8837
▁अह	-9.88409
▁ृद्ध	-9.88416
▁वाक्	-9.88432
▁र्या	-9.88455
▁जनः	-9.88468
▁्फ	-9.88569
▁ुज	-9.88572
▁नुसार	-9.88646
▁Ans	-9.88647
▁ाद्ध	-9.88658
▁ेगु	-9.88676
▁सुप	-9.88759
▁्याद	-9.88777
▁ातुं	-9.88802
▁यच्च	-9.88812
▁ामं	-9.89066
▁तोष	-9.89105
▁जु	-9.89109
▁र्थे	-9.89109
तव्य	-9.89128
▁ंसि	-9.89189
▁मीर	-9.89301
▁ङ्के	-9.89303
▁्षे	-9.89365
▁ीया	-9.89436
▁अस्मि	-9.89458
▁िकी	-9.89475
्वल	-9.89691
▁श्यं	-9.89695
▁्यसे	-9.89779
▁ूट	-9.89814
▁र्म्म	-9.89936
▁यतु	-9.89953
▁्थान	-9.89974
▁सद्	-9.89993
▁गताः	-9.90001
A	-9.90258
▁कारि	-9.90281
▁आदि	-9.90305
▁ले	-9.90337
▁मस्या	-9.90535
▁श्ल	-9.90557
▁यन्ते	-9.90577
▁द्भि	-9.90584
▁हिं	-9.90613
▁ोचन	-9.90701
▁बहि	-9.9077
▁न्तरं	-9.90812
▁ादिक	-9.90865
▁ानव	-9.90918
▁अन्न	-9.90942
▁िद्रा	-9.91002
ितुम	-9.91076
▁्वमेव	-9.91244
▁दम	-9.91277
▁पते	-9.91289
▁ःसा	-9.91322
▁वाय	-9.91487
हृत	-9.91488
▁िशु	-9.91615
▁भग	-9.91681
▁न्नं	-9.91728
▁मात	-9.91743
▁हृदये	-9.9177
▁द्या	-9.9184
▁कालं	-9.91905
▁न्तरे	-9.91937
▁मथ	-9.92007
▁रन्त	-9.92085
▁यव	-9.92102
▁दन	-9.92311
▁पलब्ध	-9.92408
▁20	-9.92442
▁ोक्ता	-9.92532
▁ीप्	-9.92534
▁ेज	-9.92803
▁ीयम्	-9.92839
▁माप	-9.92909
▁्रसा	-9.92924
▁ग्रहः	-9.93014
▁इगु	-9.93079
▁२४	-9.93128
▁याग	-9.93161
▁विधा	-9.93263
▁ाका	-9.93289
▁ाख्या	-9.93341
▁करं	-9.93346
▁ारी	-9.93472
▁न्थ	-9.93632
▁तिथ	-9.93648
▁्प्र	-9.93792
▁्नि	-9.93814
▁२७	-9.93846
▁युगे	-9.93853
▁िक्	-9.93896
ेन	-9.93947
▁्थापय	-9.93978
▁ावल	-9.94055
▁दक्ष	-9.94061
▁षभ	-9.94088
l	-9.9411
▁एतस्य	-9.94129
▁हस्य	-9.9426
▁हितं	-9.94477
▁याना	-9.94509
ोच	-9.94566
▁मणि	-9.94617
▁ोऽयं	-9.94631
▁गार	-9.94657
▁यश	-9.94755
▁वन्ति	-9.94879
▁नुः	-9.94906
▁ीव	-9.94917
▁ेि	-9.94957
▁ाभार	-9.94991
▁णित	-9.95059
चित	-9.9511
▁ेक्षा	-9.95214
▁िवः	-9.95249
▁ितुम	-9.95288
▁केत	-9.95419
▁्मत	-9.95494
▁रोच	-9.95522
▁15	-9.95533
▁जं	-9.95537
D	-9.95566
▁मद्	-9.95611
▁िदि	-9.95663
दान	-9.95673
▁्थं	-9.95759
▁वाज	-9.95797
▁of	-9.95847
▁ृत्व	-9.95879
▁रस्य	-9.95914
▁त्रयो	-9.96099
▁्योत	-9.96146
▁ध्यते	-9.9615
▁पत्य	-9.96183
▁्याम	-9.96301
र्व	-9.96332
▁्परा	-9.96332
▁जले	-9.96351
▁ुद्धे	-9.9636
▁ेध	-9.96427
▁णम	-9.9645
▁सम्	-9.96494
▁ादेव	-9.96512
▁नार्थ	-9.96655
▁्वस्य	-9.96817
▁ीयः	-9.96825
▁हता	-9.96944
क्र	-9.96977
▁्याद्	-9.97072
▁18	-9.97139
▁ाशय	-9.97325
▁िशेषण	-9.97358
▁ेष्	-9.97358
▁in	-9.9736
▁ायां	-9.97392
▁वसु	-9.97425
▁द्भव	-9.97427
्वै	-9.97427
▁२६	-9.97462
▁ूम	-9.97477
▁सर्वम	-9.97515
▁र्शित	-9.97556
▁अत्य	-9.97564
▁भोज	-9.97629
▁प्रती	-9.9767
▁अश	-9.97808
▁हती	-9.97842
▁ाहि	-9.97874
▁चना	-9.97887
▁स्तदा	-9.97938
▁्रह	-9.97971
सं	-9.98035
▁त्म	-9.98129
▁हत्य	-9.98137
▁ऑ	-9.98139
▁रभ्य	-9.98285
▁िप	-9.98329
▁रभ	-9.98361
▁भावे	-9.98474
▁अभ्य	-9.9848
▁णो	-9.98519
▁कप	-9.98552
▁िरिति	-9.9859
▁E	-9.9862
v	-9.98776
▁मानः	-9.98945
▁सृ	-9.99012
▁वानर	-9.99022
▁i	-9.99054
▁युष	-9.99139
▁वस्थ	-9.99249
ीन	-9.99263
▁हन्ति	-9.99268
▁तीयं	-9.99271
▁ुचि	-9.99294
ावद	-9.99309
▁सारं	-9.99352
▁ही	-9.99405
▁ाज्य	-9.99409
▁िद्य	-9.99436
▁ाग्	-9.99457
▁रुणा	-9.99459
▁ियः	-9.99461
▁नन्त	-9.99485
▁धारय	-9.99521
▁ाङ्	-9.99591
▁नैः	-9.99663
▁ारणम्	-9.99684
▁णोत	-9.9972
▁11	-9.99733
▁वादन	-9.99774
▁िरे	-9.99805
▁f	-9.99837
▁ंब	-9.99857
▁दिवा	-9.99895
▁तरण	-9.99918
▁तत्प	-9.99973
▁धम	-10.0036
▁ोपि	-10.0046
▁त्रै	-10.0048
▁चः	-10.0053
▁ली	-10.0075
▁मति	-10.0086
ऽऽ	-10.0087
▁ाज	-10.009
▁शे	-10.009
▁MSS	-10.0092
▁ातन	-10.0095
▁ालिका	-10.0095
▁ादक	-10.0096
▁नक	-10.0098
▁नात	-10.0105
▁र्थं	-10.0115
▁दिकं	-10.0117
▁न०	-10.0117
▁तुः	-10.0124
▁शुभा	-10.0127
▁चिक	-10.0131
▁स्वप	-10.0135
▁रद	-10.0138
▁नानां	-10.014
▁्तिक	-10.0152
▁ारु	-10.0166
▁इच्छा	-10.0168
▁ष्टि	-10.0175
▁स्थाय	-10.018
▁इत्या	-10.0182
▁भ्यते	-10.0186
▁क्यं	-10.0187
▁धिना	-10.0189
▁्राज	-10.0192
▁भावना	-10.0197
▁ताव	-10.0207
▁x	-10.0225
स्व	-10.0228
▁ारः	-10.023
▁रौ	-10.0242
▁्राह	-10.0247
▁ंस्	-10.0248
▁ार्य	-10.0255
▁कं	-10.0264
▁य्य	-10.0267
▁ूक	-10.027
▁्रुत	-10.027
▁D	-10.0289
▁सैन	-10.0299
▁थमे	-10.03
▁दीन	-10.0312
▁स्वयम	-10.0314
▁दशा	-10.0318
▁शं	-10.0329
▁ीमा	-10.0336
▁तिल	-10.0342
▁रूपम्	-10.0342
▁जे	-10.0343
▁स्तव	-10.0346
▁क्तुं	-10.035
▁्याज	-10.0366
▁हिंस	-10.0367
▁ह्यं	-10.0385
पद	-10.0387
रिण	-10.039
▁ृत्	-10.0395
▁ाघ	-10.0412
▁्रत	-10.042
▁िन्य	-10.0442
▁्णव	-10.0445
▁लय्	-10.0462
▁ुग्	-10.0466
▁ेखा	-10.0469
▁वयम	-10.0472
▁धारणा	-10.0476
▁िज	-10.0478
▁खे	-10.0478
▁दाव	-10.0479
▁SF	-10.048
▁बर	-10.0482
▁ेता	-10.0484
▁महो	-10.0484
▁करणीय	-10.0494
▁ाधार	-10.0494
▁वरं	-10.0495
▁रन	-10.0499
▁तमस	-10.0502
▁्बद्ध	-10.0517
▁ऽहं	-10.0519
▁िस्तर	-10.0542
▁मेष	-10.0547
वा	-10.0554
▁िहित	-10.0563
▁्वै	-10.0569
▁निधि	-10.057
▁िच	-10.0571
▁्द्व	-10.0578
▁त्रं	-10.058
पु	-10.0584
▁हद	-10.0597
n	-10.0597
▁ृष	-10.0603
▁ेप	-10.0603
▁ीक	-10.0604
▁गुणं	-10.0606
▁पह	-10.061
▁थः	-10.0612
▁श्यति	-10.0614
▁वयो	-10.062
▁साल	-10.0628
भाव	-10.0642
▁ावह	-10.0643
▁ेहि	-10.0644
देश	-10.0648
▁लक	-10.0653
▁14	-10.0664
▁िवं	-10.0667
▁्श	-10.0671
▁रुष	-10.0677
▁यय	-10.0677
▁न्तत	-10.0706
▁२३	-10.0711
▁त्मना	-10.0715
▁श्रु	-10.072
▁ान्तः	-10.0729
▁िरः	-10.0731
▁िद्ध	-10.0736
▁खल	-10.0742
▁िब	-10.0743
▁जो	-10.0743
▁्याय	-10.0745
▁तुम	-10.075
▁वित्	-10.0756
ैर	-10.0757
▁te	-10.0757
▁F	-10.0767
▁देशी	-10.0777
▁ह्व	-10.0784
▁दुष	-10.0789
ंस्	-10.079
▁ितर	-10.0801
▁संश	-10.0805
▁मतः	-10.0807
▁्रम	-10.0809
▁खर	-10.0824
▁वेत्	-10.0824
▁स्था	-10.0828
▁कूल	-10.0832
▁खा	-10.0833
▁श्रे	-10.0836
▁जायत	-10.0836
▁12	-10.0838
▁पकार	-10.0838
इ	-10.0839
▁ास्म	-10.0843
▁ीच	-10.0846
▁्वाद	-10.0847
▁विह	-10.0863
्मिन	-10.0866
▁तत्व	-10.0871
▁मद्य	-10.0872
▁त्ते	-10.0875
▁गतं	-10.0883
▁ाक	-10.0893
▁णना	-10.0897
▁्ति	-10.0902
▁्रण	-10.0921
▁कत्व	-10.0942
यः	-10.0944
%	-10.0944
▁ाणी	-10.0955
▁ालक	-10.0981
▁ामी	-10.0982
▁ꣳ	-10.0983
▁ीर्ति	-10.0984
▁तोः	-10.0986
▁इतः	-10.0989
▁नेव	-10.0996
▁क्षित	-10.0997
▁ऽथ	-10.1018
▁T	-10.1036
▁न्स	-10.106
▁ाष	-10.1062
क्	-10.1064
▁यर	-10.1069
▁िध	-10.1074
तद्	-10.1076
▁इमे	-10.1077
िथ	-10.1077
▁स्तन	-10.1084
▁शस	-10.1091
▁िद्धि	-10.1092
▁नपि	-10.1092
▁बध	-10.1097
▁येक	-10.1107
▁दयो	-10.1108
▁वेति	-10.1109
▁ाख	-10.111
▁शिश	-10.1112
▁रः	-10.112
▁ायु	-10.112
▁तिर	-10.1121
▁ङ्गा	-10.1125
▁िशा	-10.113
ली	-10.1135
्लेष	-10.1138
▁ापन	-10.1153
▁the	-10.1156
▁छे	-10.1173
g	-10.1175
ट	-10.1175
▁िंत	-10.1176
▁कवि	-10.1176
▁र्ट	-10.1192
▁र्धा	-10.1195
▁र्याय	-10.1203
▁ुतो	-10.1208
▁ुरो	-10.1208
हार	-10.1213
▁प्रण	-10.1213
▁ीः	-10.1218
▁चेद	-10.1222
▁ऽस्मि	-10.1223
▁ॅ	-10.1224
▁ोजनं	-10.1224
▁िग	-10.1225
▁्यता	-10.1252
▁माद	-10.1258
▁नयत	-10.1261
▁तये	-10.1262
▁नापि	-10.1273
▁र्थम्	-10.1274
▁दिति	-10.1275
▁पेत	-10.128
▁िल्	-10.128
▁्पेन	-10.1286
▁अनन्त	-10.1292
▁ानम	-10.1295
▁करोत	-10.1299
▁्रिक	-10.13
▁शास	-10.1305
▁रिव	-10.1307
▁वच	-10.131
▁ाना	-10.1317
▁्प	-10.1317
▁ावर	-10.1325
▁मिन	-10.1327
▁्वया	-10.1328
▁ne	-10.1341
▁दनु	-10.1343
▁वं	-10.1349
▁वर्	-10.1357
▁लाप	-10.1357
तॊ	-10.136
▁देशः	-10.1364
▁ादश	-10.1368
▁त्री	-10.1369
▁शब्दे	-10.138
▁विम	-10.1393
▁येद	-10.1401
३	-10.1409
▁चैत	-10.1414
▁सर्वो	-10.142
▁ुक्ते	-10.1421
▁ाचा	-10.1422
▁२८	-10.1423
▁िमा	-10.1429
▁~	-10.143
▁श्य	-10.1441
▁्भू	-10.1452
▁ेवस्य	-10.1457
▁णत	-10.1462
▁ुभ	-10.1466
▁घु	-10.1477
▁ti	-10.1483
▁श्याम	-10.1493
▁यशः	-10.1496
▁ृणु	-10.1497
▁मात्म	-10.1501
▁मत्	-10.1513
▁जना	-10.1517
▁ड्	-10.1522
▁्रम्	-10.1525
▁ृष्ट	-10.1533
▁्तते	-10.1535
▁करे	-10.1539
▁3.	-10.1539
▁राय	-10.1541
▁ाने	-10.1546
▁्वत्	-10.1547
▁िग्	-10.1552
▁निम	-10.156
▁्चा	-10.1564
▁्भ	-10.1565
C	-10.1569
▁गृ	-10.1586
ृद	-10.1587
▁ेषाम्	-10.1591
माण	-10.1604
▁कृष	-10.1606
▁रितः	-10.1615
▁चम	-10.1622
▁णाय	-10.1625
▁त्तिः	-10.1627
▁षण	-10.1632
▁^	-10.1638
▁्नु	-10.1638
▁महं	-10.1639
▁्यति	-10.1643
▁तद्व	-10.1647
▁ानत	-10.1648
▁लिं	-10.1652
▁ज्व	-10.1653
▁्ताह	-10.1663
▁ीत्या	-10.1663
▁पश्यत	-10.1674
▁नुज	-10.1685
▁नुम	-10.17
▁गान	-10.17
ण्य	-10.1701
▁घर	-10.1707
▁ुध	-10.1708
▁तै	-10.1718
▁ानं	-10.1719
▁यैव	-10.1721
▁्यादि	-10.1721
▁पत्न	-10.1727
▁र्यय	-10.173
▁्यथा	-10.1733
▁ायण	-10.1737
िवेद	-10.1741
▁ुरा	-10.1742
▁्पन्न	-10.1746
▁4.	-10.1746
वेद	-10.1748
▁त्तर	-10.1751
▁येत	-10.1756
▁(=	-10.1768
▁रणे	-10.1774
▁ैर्य	-10.1776
▁रेल	-10.1778
▁्मय	-10.1785
hi	-10.1813
I	-10.1825
वध	-10.183
▁ाणा	-10.1845
▁ानन्त	-10.185
▁ेनापि	-10.1853
▁ोग्य	-10.1856
▁र्थन	-10.1867
▁मते	-10.1872
▁टु	-10.1885
▁कोऽ	-10.1885
▁िर्न	-10.1897
▁खँ	-10.1901
▁शव	-10.1904
▁ुवन	-10.1908
▁णय	-10.1915
▁रयेत्	-10.192
▁ीन्	-10.1932
▁ातक	-10.1932
▁महे	-10.1941
▁ुषु	-10.1945
▁५०	-10.1951
▁पठन	-10.1954
▁दाह	-10.1977
▁विधं	-10.1996
श्य	-10.2001
ने	-10.2007
▁एतस	-10.2009
▁ादु	-10.2015
▁कुर्	-10.2015
ोर	-10.2017
▁लाय	-10.2023
▁्मान	-10.2024
व्य	-10.2024
▁िवेदन	-10.2026
▁्धि	-10.2027
▁ईश	-10.2038
▁ियन	-10.2042
▁सेन	-10.2046
▁इमं	-10.205
▁ादर	-10.2054
▁L	-10.2067
▁b	-10.2075
▁ोद्ध	-10.2078
▁अग्न	-10.208
▁ुच्छ	-10.2086
▁जः	-10.2092
▁Next	-10.2092
▁रोम	-10.2094
▁िते	-10.2098
▁णीत	-10.2131
▁ुल्	-10.2132
▁शन	-10.2136
▁मृत्य	-10.2138
▁वदत	-10.2146
▁तमा	-10.2147
▁थ्	-10.2148
▁दिवि	-10.2156
िभाष	-10.2182
▁मयं	-10.2184
▁जनन	-10.2184
S	-10.2186
▁ङ्का	-10.2192
▁द्यान	-10.2201
▁्युः	-10.2203
▁लम्	-10.2203
▁्धित	-10.2205
ीत्य	-10.2207
▁धे	-10.2234
▁्ख	-10.2241
▁योगे	-10.2244
▁ीष्	-10.2245
मे	-10.2252
▁फु	-10.2258
▁नाद	-10.2271
▁लः	-10.2286
▁nce	-10.2294
▁17	-10.2299
▁ुत्तम	-10.2306
▁द्यम	-10.2313
ृप	-10.2314
▁पल	-10.2319
▁णव	-10.2319
▁ायो	-10.2337
बन्ध	-10.2339
▁तिर्	-10.2341
▁मुखं	-10.2341
▁्त्वं	-10.2345
रित	-10.2345
▁च्छा	-10.2356
▁वेद्	-10.2357
▁्ञा	-10.2364
▁त्वत्	-10.238
▁ायाः	-10.2399
▁नेति	-10.2405
मुख	-10.2409
▁ालो	-10.2421
विध	-10.2427
▁ेस्	-10.2428
▁तमो	-10.2433
▁टर	-10.2437
▁राश	-10.2443
▁कक्ष	-10.2443
▁र्षि	-10.2457
▁ष्टा	-10.2458
▁भवः	-10.247
▁्रज्ञ	-10.2479
▁हुः	-10.2492
तो	-10.2504
▁मध	-10.2508
▁र्ब	-10.252
▁्यधिक	-10.2523
▁हस्ते	-10.2529
▁ङि	-10.2551
▁टक	-10.2564
▁भूतं	-10.2575
▁तिभा	-10.2585
▁्घ	-10.26
▁वदन	-10.2601
▁्वान	-10.2601
▁४०	-10.2602
▁ोषण	-10.2606
▁ीर्य	-10.261
▁र्जा	-10.2612
▁ीद	-10.2628
▁रिय	-10.2629
▁धव	-10.2632
▁वीत	-10.2641
▁इत्	-10.2645
रौ	-10.2656
▁ध्र	-10.2664
▁नाभ	-10.2668
;	-10.2674
धि	-10.2675
▁लिन	-10.268
▁ऋष	-10.2682
▁कर्मण	-10.2685
▁नाः	-10.2686
▁२९	-10.2705
▁िरं	-10.2712
▁वु	-10.2719
▁तदु	-10.2727
▁पास	-10.2741
▁=>	-10.2757
▁ीट	-10.2758
▁र्हि	-10.2759
▁जेत	-10.2762
अ	-10.2772
▁म्य	-10.2776
▁बे	-10.278
▁३१	-10.2782
▁ादित	-10.2787
आ	-10.2789
▁स्तान	-10.2792
▁ानी	-10.2809
▁्रव	-10.2819
▁K	-10.2826
▁ुरू	-10.2837
▁ासस्य	-10.2837
▁दिक	-10.2845
▁िपु	-10.285
▁चिद	-10.2857
▁ध्वन	-10.2858
▁o	-10.2859
▁तमेव	-10.286
▁िन्दु	-10.2865
▁णक	-10.2866
▁ट्य	-10.2867
▁16	-10.2874
▁थात	-10.2884
▁ृज	-10.2893
▁्तरि	-10.2899
ाणि	-10.2906
▁आज	-10.2909
▁30	-10.2919
▁de	-10.2924
▁्रस्त	-10.2926
▁रूपे	-10.2951
▁त्येव	-10.2955
▁ानीं	-10.2956
▁ाशु	-10.2957
▁ानक	-10.2957
▁गर्	-10.2963
▁न्यू	-10.2985
▁ाचर	-10.2986
▁र्गत	-10.2993
▁यण	-10.2998
▁्वती	-10.3022
▁ियो	-10.3026
▁्वस्त	-10.3027
ात्म	-10.3039
▁विच	-10.3048
▁शल	-10.305
▁शाक	-10.3053
▁त्सम	-10.3053
▁लह	-10.3071
▁es	-10.3073
▁पदा	-10.3082
▁्वय	-10.3094
▁गद	-10.3097
५	-10.3103
▁तरे	-10.3121
▁त्यम	-10.3126
▁शम	-10.3127
▁करणं	-10.3132
▁हति	-10.3135
▁गन	-10.3138
▁वेदना	-10.314
िश्च	-10.3146
▁ष्कर	-10.3147
▁भवती	-10.3148
▁ष्टु	-10.3151
▁ारित	-10.3152
▁्वल	-10.3157
▁्णो	-10.3163
▁तुष्	-10.3168
▁ासो	-10.317
▁iii	-10.3172
▁ङ्गम	-10.3177
▁ed	-10.3181
▁जक	-10.3184
▁ओं	-10.319
▁रेण	-10.3192
▁सात	-10.3195
▁ाक्षि	-10.32
▁वधि	-10.3209
▁गस्त	-10.3229
▁्रयः	-10.3234
▁लाः	-10.3241
▁तुर्	-10.3253
▁M	-10.3255
▁ावित	-10.3257
▁मिष	-10.3269
▁na	-10.3271
▁थित	-10.3291
ै	-10.3292
▁कीदृ	-10.3293
रक्ष	-10.3318
▁ियं	-10.3321
▁िवास	-10.3327
▁ाहस	-10.3332
▁संह	-10.3332
▁तिष	-10.3339
▁करणम्	-10.3348
▁हू	-10.3348
▁al	-10.3354
▁ध्	-10.3357
▁नता	-10.3359
▁द्यत	-10.3365
▁II	-10.3375
▁ावृत	-10.3375
▁21	-10.3383
▁कैः	-10.3383
▁मन्व	-10.3384
▁िप्	-10.3385
▁13	-10.3408
▁यत्त	-10.3411
▁वाण	-10.3415
▁प्प	-10.3415
▁ूत्रे	-10.3419
▁क्षः	-10.3421
▁कानि	-10.3422
▁श्चा	-10.3424
▁पै	-10.3445
▁ून	-10.3446
▁गोल	-10.3459
▁स्तत्	-10.346
▁िगम	-10.3461
▁ष्	-10.3478
▁वश्य	-10.3478
▁ख्या	-10.35
▁ारे	-10.3502
▁ाफ	-10.3504
▁्रेषु	-10.3505
▁यन्तु	-10.3512
▁ियोग	-10.3513
x	-10.3533
▁थन	-10.3534
▁तदर्थ	-10.355
▁तृ	-10.3552
▁Q	-10.357
▁रुच	-10.3572
▁शित	-10.359
▁ातं	-10.3594
▁्यहं	-10.3603
▁नुव	-10.3604
▁थाः	-10.3611
▁गन्	-10.362
▁यन्न	-10.3621
ल्	-10.3625
▁ूं	-10.3627
▁वन्तु	-10.363
▁ितम	-10.3631
▁तमं	-10.3632
▁ूर्ति	-10.364
▁प्रयत	-10.3648
▁ुना	-10.3651
▁ट्र	-10.3667
▁लोका	-10.367
▁्ट्र	-10.367
४	-10.3674
▁३२	-10.3675
▁शश	-10.368
▁िन्तय	-10.3681
▁ारम	-10.3691
▁तावत	-10.3695
▁ियत	-10.3705
▁्यव	-10.371
▁ेयम्	-10.3713
▁तीये	-10.3714
वह	-10.3722
▁जह	-10.3724
ाध	-10.3727
▁नृत	-10.3735
B	-10.3737
▁ूर्	-10.3745
▁ावद	-10.3754
▁स्तः	-10.3759
▁्रकार	-10.376
▁द्धि	-10.3763
वर	-10.3772
▁्थिता	-10.3777
▁ादप	-10.3779
▁ादय	-10.378
▁ेभ्य	-10.3786
हि	-10.3799
यि	-10.3801
▁कोष	-10.3802
ई	-10.3805
▁बु	-10.3807
▁व्यो	-10.3807
▁ves	-10.3818
▁ुख	-10.3821
▁G	-10.3827
▁वाद्य	-10.3841
▁ोक	-10.3843
▁मेन	-10.3877
▁ुस्	-10.3888
▁तीर	-10.3888
▁धाम	-10.3892
▁धिं	-10.39
▁र्थी	-10.3908
धा	-10.3913
▁असौ	-10.3915
▁ाप्ता	-10.3916
▁ूषण	-10.3916
▁शय	-10.392
▁क्या	-10.393
▁ाव्य	-10.3933
▁19	-10.3937
▁दशक	-10.3946
▁जै	-10.3951
▁राह	-10.3959
▁सरे	-10.396
▁प्रश	-10.3961
▁ोऽहं	-10.3963
▁ज्	-10.3973
▁्व्	-10.3976
▁वग	-10.3976
▁नामा	-10.3978
▁ेदन	-10.3981
▁मानो	-10.399
▁वाक	-10.3996
▁तिमा	-10.402
▁भया	-10.4025
▁्र्य	-10.4026
▁्टर	-10.4031
▁ासा	-10.4031
▁सां	-10.404
▁ुत्त	-10.4041
▁गतो	-10.4047
▁पना	-10.4048
▁ुचित	-10.4052
▁िवाद	-10.4061
▁पत्ति	-10.4066
▁ापय	-10.4069
▁नात्	-10.4071
▁शिष	-10.4073
▁ुलि	-10.4075
▁िके	-10.4075
▁३३	-10.4076
▁डु	-10.4078
▁ाचि	-10.4078
▁य्या	-10.4084
▁मस	-10.4087
▁प्	-10.4089
▁मुद	-10.409
▁व्	-10.4101
▁जरा	-10.4102
▁योगि	-10.4111
▁ूय	-10.4114
▁षी	-10.4118
▁स्न	-10.4118
▁Arc	-10.4124
▁थो	-10.4128
▁अपर	-10.4132
▁षित	-10.4144
▁←	-10.4155
▁ानेन	-10.4155
▁कुत	-10.4165
▁िनाम	-10.4167
▁चौ	-10.4187
▁ाग्न	-10.4192
▁ाद्या	-10.4197
▁ेच	-10.42
▁ज्जा	-10.4211
▁त्सु	-10.4216
▁यिक	-10.4216
▁ीला	-10.4227
▁तवा	-10.4234
▁iv	-10.4235
नः	-10.4236
▁िक्त	-10.4253
▁O	-10.4259
▁ष्यते	-10.4262
▁िरो	-10.4265
▁्तव	-10.4272
▁वाः	-10.4287
▁नान्य	-10.429
▁नास	-10.4295
▁वनं	-10.4303
▁k	-10.4305
▁कृष्ट	-10.4307
▁तय	-10.431
▁राव	-10.4312
▁यूय	-10.4316
▁d	-10.4318
▁दर्शय	-10.432
▁ाल्	-10.432
▁रमण	-10.4327
▁नगरे	-10.4333
▁कथयत	-10.4335
▁्यग	-10.4338
▁ेशव	-10.4345
ते	-10.4367
▁रकं	-10.4371
▁by	-10.4373
▁दह	-10.4379
▁अक्ष	-10.4383
▁रेत	-10.4384
▁्ट्	-10.4394
▁डो	-10.44
▁तायाः	-10.4402
▁स्ता	-10.4403
▁र्स	-10.4408
▁ीड	-10.4413
ाम्न	-10.4421
भ्य	-10.4425
▁धुना	-10.4435
▁वाग	-10.4449
▁र्तु	-10.4465
▁थवा	-10.4494
▁e	-10.4497
▁रते	-10.451
▁V	-10.4518
▁ज्ञः	-10.4522
▁ुष्क	-10.4522
▁ेवा	-10.4526
▁नश्च	-10.4539
▁थां	-10.4545
▁ोज्य	-10.455
▁ुधा	-10.4556
▁पठि	-10.4556
▁नाभि	-10.4558
▁्र्	-10.4566
▁श्म	-10.4567
▁ानो	-10.457
▁्तृत	-10.4572
▁मेर	-10.4595
श्वस	-10.46
▁ातम्	-10.4603
▁एको	-10.4612
▁तत्रा	-10.4612
▁(1)	-10.4626
▁कश	-10.4632
▁नेपा	-10.4638
▁खो	-10.4651
▁वर्तत	-10.4652
▁त्तमम	-10.4671
▁मण्ड	-10.4671
▁ीतं	-10.4672
f	-10.4674
▁कारो	-10.4679
▁जार	-10.4681
न्य	-10.471
▁नयो	-10.4711
▁कन्	-10.472
▁हस	-10.4722
▁तन्त	-10.473
▁र्वा	-10.4733
▁तिदिन	-10.4739
श्व	-10.474
▁अब	-10.4747
▁वति	-10.475
▁ab	-10.4765
▁मई	-10.4773
▁्रो	-10.478
▁मज	-10.4784
▁दां	-10.4792
▁लङ्	-10.4795
▁मना	-10.4808
▁जू	-10.4813
▁वेदित	-10.4822
▁ूनि	-10.4827
▁श्यन्	-10.4828
▁हास	-10.4841
▁ियम	-10.4844
▁ाच्छ	-10.4852
▁्रिये	-10.4857
ज्ञा	-10.4858
▁मला	-10.4864
▁स्यते	-10.4867
▁र्मः	-10.4873
▁्यद	-10.4877
▁पुरु	-10.4883
▁ष्टं	-10.4883
▁िकाः	-10.4884
▁मुदा	-10.4889
▁कारी	-10.4906
▁्येत	-10.4908
▁ार्गे	-10.4915
▁िणां	-10.4921
▁ेशे	-10.4932
▁्पद	-10.4935
▁ुते	-10.4943
▁गाः	-10.4963
▁ेषण	-10.4968
▁्वन	-10.4981
▁ेके	-10.499
▁िथ	-10.4999
▁ारभ	-10.5013
▁रास	-10.5016
▁वयः	-10.502
रेण	-10.5028
▁पां	-10.5033
▁ितिः	-10.5038
▁्ञान	-10.5042
▁क्षणे	-10.5042
▁ीते	-10.5046
▁त्याः	-10.5051
▁इत्यत	-10.5061
्नु	-10.5062
▁धरा	-10.5064
▁ममा	-10.5068
▁भ्यु	-10.5076
▁िख	-10.5081
▁िङ्	-10.5086
▁तित	-10.5086
▁लास	-10.5093
▁अनि	-10.5099
▁तात्	-10.5103
▁षाद	-10.5103
▁ुष्ट	-10.5107
▁प्रय	-10.5108
▁नभ	-10.511
▁श्यम	-10.5115
▁ूज	-10.5116
▁ेदना	-10.5118
▁कादश	-10.5125
▁दै	-10.5133
ए	-10.5134
▁र्गः	-10.5136
▁श्रव	-10.5145
li	-10.5149
▁न्ये	-10.5153
▁निः	-10.5161
▁्ती	-10.5168
िका	-10.5179
ू	-10.5184
▁असि	-10.5188
▁वेद्य	-10.5192
▁दिक्	-10.5199
▁ासः	-10.521
▁दस	-10.5217
▁पृष्ठ	-10.5219
▁धिः	-10.5224
▁25	-10.5225
▁आसन	-10.5227
ैव	-10.5228
▁षाण	-10.5229
▁be	-10.5239
▁लेन	-10.5258
▁मता	-10.527
▁बन	-10.5281
▁ताद	-10.5284
▁नेह	-10.5287
धार	-10.5292
▁मेल	-10.5297
▁रस्त	-10.5308
▁भवान	-10.532
▁कार्	-10.5332
▁खु	-10.5345
▁्येण	-10.5348
▁महि	-10.5351
▁न्धः	-10.5354
▁्रेय	-10.5363
▁प्रथ	-10.538
▁ेयम	-10.5383
▁लिक	-10.5389
यं	-10.5391
▁करः	-10.5397
▁वीं	-10.5406
▁मस्य	-10.5408
▁िघ	-10.5419
▁सुन	-10.5424
▁रवि	-10.5428
▁5.	-10.544
▁यस्व	-10.5458
▁हान	-10.5458
▁ालि	-10.546
▁लयं	-10.5466
▁्वामि	-10.5494
ति	-10.5495
▁मुन	-10.5496
▁अच	-10.5499
का	-10.5502
▁बला	-10.5508
▁जाना	-10.551
▁्यान	-10.5513
▁ार्	-10.5517
▁प्रस	-10.5523
▁समी	-10.5528
▁पित	-10.5532
▁्यभ	-10.5534
▁द्द	-10.5541
r	-10.5542
▁दव	-10.5543
भि	-10.5543
▁रुद	-10.5546
▁गे	-10.5547
▁U	-10.5549
▁ध्वं	-10.555
▁३५	-10.5552
▁तिस	-10.5563
▁न्दा	-10.5578
▁धः	-10.5579
▁बंध	-10.5582
▁आद	-10.5589
▁गू	-10.5591
▁यह	-10.5596
▁कुर	-10.5605
▁ाशा	-10.562
▁निय	-10.5622
▁हर्	-10.5622
▁or	-10.5643
▁ियोज	-10.5647
▁िरण	-10.5649
चार	-10.5653
▁ायेत	-10.5663
▁p	-10.5665
▁िगु	-10.5676
▁साथ	-10.5685
▁ुरु	-10.5685
▁्रीत	-10.5707
▁तुं	-10.572
▁ितौ	-10.5722
▁यमः	-10.5722
▁्ता	-10.5725
▁for	-10.5741
▁कश्	-10.5757
▁27	-10.5766
▁असम	-10.5772
▁ूर्व	-10.5773
ँ	-10.5774
▁क्षणा	-10.5775
वे	-10.5776
▁N	-10.5782
▁थैव	-10.5786
▁रश्	-10.5787
▁उभौ	-10.5804
▁ुष्	-10.5805
▁आव	-10.5806
▁िपत	-10.5808
▁रत्	-10.5816
▁तदान	-10.5819
▁23	-10.5837
▁नेप	-10.5837
▁ाकर	-10.585
कर	-10.5855
▁24	-10.5856
▁कर्मक	-10.5861
श्च	-10.5872
▁se	-10.5899
▁̣	-10.5901
▁सूर	-10.5902
विश	-10.5903
▁िपा	-10.5903
▁वतो	-10.5916
▁द्यो	-10.5919
▁्सर	-10.5922
▁फलम	-10.5934
▁स्ना	-10.5939
▁अय	-10.5939
▁नार	-10.594
▁त्यां	-10.5941
▁हत्	-10.5947
शो	-10.595
▁आपः	-10.5954
▁गतम	-10.5963
थे	-10.5974
▁िकः	-10.5983
▁पुष्ट	-10.5999
▁जव	-10.6008
2	-10.6012
▁हन्	-10.6013
▁ाक्रम	-10.6018
क्रम	-10.6027
▁्रभात	-10.6031
▁िध्य	-10.6033
▁is	-10.6035
▁्यस्य	-10.6036
उ	-10.6042
▁मुद्	-10.6048
▁त्यम्	-10.6052
▁४५	-10.6054
▁िप्र	-10.6055
▁्ने	-10.6055
▁ीडा	-10.606
▁लल	-10.6062
▁्यप	-10.6069
▁्यत्	-10.6069
▁ुश	-10.607
ेषु	-10.6078
▁्मु	-10.6078
▁वादे	-10.6087
▁vi	-10.6089
▁जाय	-10.6108
▁कारय	-10.612
▁ावि	-10.612
▁ामन	-10.6123
▁दयः	-10.6125
▁अधः	-10.6127
▁ीयत	-10.613
G	-10.6135
▁द्रि	-10.6144
▁कच	-10.6154
▁X	-10.6191
▁भिध	-10.6193
▁ुरं	-10.621
▁त्र्य	-10.6214
▁नमो	-10.6234
▁स्तू	-10.6236
▁ागं	-10.6239
▁ाप्ति	-10.624
▁सुरा	-10.6244
▁प्रभ	-10.6261
▁sa	-10.6276
▁धिर	-10.6306
▁ित्यत	-10.6335
▁इन	-10.6339
▁अस्या	-10.634
▁३६	-10.6348
▁ीका	-10.635
▁तपः	-10.6359
▁फे	-10.6379
▁ासक	-10.6391
ादि	-10.6394
▁्व्य	-10.6407
▁्त्व	-10.6409
▁ब्रा	-10.6417
▁पश्च	-10.6417
▁स्याम	-10.642
!	-10.6424
▁शक	-10.6431
▁·	-10.6433
रु	-10.6436
▁ुरः	-10.6436
▁ीक्षा	-10.6445
▁t	-10.6457
▁३७	-10.6459
▁िवि	-10.6461
▁सज	-10.6473
▁r	-10.6491
▁क्षते	-10.6497
▁ऽस्ति	-10.6502
▁हवि	-10.6503
▁थापि	-10.6503
▁मस्त	-10.6505
▁क्रे	-10.6506
▁रैः	-10.6508
▁्येक	-10.6522
▁एनं	-10.655
▁ारय	-10.6558
▁ृष्	-10.6571
▁्भवति	-10.6572
▁No	-10.6576
▁पुण	-10.6593
▁ve	-10.6594
▁जस	-10.6606
▁ाव्	-10.6612
▁मम्	-10.6612
▁कथ्य	-10.6613
▁्मुख	-10.662
▁णात्	-10.662
▁्ठ	-10.6637
▁्तीति	-10.6641
▁ज्यते	-10.6646
▁्रिम	-10.6651
▁िकरण	-10.6671
▁(),	-10.6673
▁िष्यत	-10.6673
गू	-10.6675
▁22	-10.6678
▁ापद	-10.668
▁नीया	-10.6681
▁्षु	-10.6686
▁रीर	-10.6686
▁शुक	-10.6687
▁लता	-10.6688
▁ाश्	-10.6698
▁रिया	-10.67
अथ	-10.6702
▁Post	-10.6711
▁ददौ	-10.6713
▁माय	-10.6728
▁धनम्	-10.6728
▁्सु	-10.6736
▁ेनैव	-10.6752
▁ेदि	-10.6768
▁उत्त	-10.6775
▁मप	-10.6776
▁व्याः	-10.6794
▁ाले	-10.6797
▁षे	-10.68
▁नरे	-10.6802
▁िंश	-10.6804
▁नाक	-10.6835
रस्य	-10.6836
▁शान	-10.6838
▁म्ना	-10.6839
▁खि	-10.6853
▁ीत्वा	-10.6853
▁ous	-10.6854
▁भाव्य	-10.6855
▁जयत	-10.6856
▁टा	-10.686
▁र्ल	-10.686
▁नुष	-10.6865
▁िचार	-10.6882
▁तिम्	-10.6885
▁विष्	-10.6886
▁ल्या	-10.6886
▁गल	-10.6888
▁तवे	-10.6894
▁ान्ता	-10.6902
▁्याक	-10.6908
▁िष्ठत	-10.6933
▁्वत	-10.6935
▁शीर्	-10.6941
▁्राय	-10.6942
▁द्धर	-10.6945
सः	-10.6945
▁हस्	-10.6951
िश्	-10.6958
▁ीयस	-10.6961
▁छन्द	-10.6965
▁ाच्	-10.6967
▁तवान्	-10.6968
▁भावो	-10.6969
▁्मः	-10.6974
▁क्रो	-10.6979
▁ाल्य	-10.6979
▁्यासः	-10.6982
▁फा	-10.6992
▁खोज	-10.6998
▁लना	-10.7007
▁असत	-10.7009
▁ृच	-10.7019
▁्यया	-10.7022
▁तति	-10.7028
▁इन्	-10.7034
▁खं	-10.7036
M	-10.7036
▁त्तत्	-10.704
▁सीत	-10.7043
▁ीना	-10.7069
▁मिक	-10.7079
▁ासिक	-10.7081
▁्टि	-10.7081
▁भूता	-10.7091
▁चक	-10.7092
▁ाजन	-10.7105
▁News	-10.7105
▁पयो	-10.7109
la	-10.7111
▁्यश्च	-10.7115
▁ामेव	-10.7116
▁ोई	-10.7132
▁छः	-10.7139
▁Prev	-10.7148
▁िङ	-10.7161
▁26	-10.7162
कार	-10.7163
▁उच्य	-10.7166
▁माच	-10.7176
▁ाची	-10.7183
▁देशक	-10.7184
▁्कर	-10.719
▁नेय	-10.7195
▁ीयं	-10.7198
▁ीर्ष	-10.7204
ाण	-10.7219
▁ावे	-10.722
▁भावेन	-10.7227
▁्रात	-10.7228
▁करि	-10.7231
▁ाकृ	-10.7232
▁िमु	-10.7235
▁यल	-10.7243
▁ेषा	-10.7254
▁US	-10.7257
▁लघ	-10.7267
▁येण	-10.7271
▁तयो	-10.7276
▁ददात	-10.7277
▁िरा	-10.7278
▁किन	-10.728
▁स्कर	-10.7287
▁डे	-10.7299
▁रतो	-10.7306
▁्वये	-10.7311
भा	-10.7323
▁ेहे	-10.7326
दि	-10.7329
▁नाह	-10.7331
▁ाध्या	-10.7334
▁िणा	-10.7361
वी	-10.7393
▁िंशति	-10.7402
▁िवेश	-10.7404
▁ुन्	-10.7418
ृष्ण	-10.7429
▁ान्व	-10.7435
▁la	-10.7438
▁वेत	-10.7444
ma	-10.7445
h	-10.7447
▁४१	-10.745
▁छि	-10.7451
▁्राणि	-10.7465
▁्यक	-10.7467
▁ंख्य	-10.7475
▁र्मन	-10.7476
▁्त्रि	-10.7478
▁शयः	-10.748
▁ाहे	-10.7488
▁्लो	-10.7492
६	-10.7498
▁जितः	-10.7499
▁भवं	-10.75
▁प्रज	-10.7502
▁ेने	-10.7508
▁ादिन	-10.7519
▁िदा	-10.7543
▁ावा	-10.7545
▁वाऽ	-10.7552
स्कृ	-10.7553
▁एतं	-10.7553
▁ावः	-10.7567
▁्रद	-10.7567
▁ामास	-10.7568
▁ृद	-10.7579
▁वरः	-10.7592
▁ंका	-10.7596
▁कान	-10.7599
▁्ना	-10.7615
▁ात्व	-10.7619
▁लग	-10.7627
▁(2)	-10.763
▁रग	-10.7631
▁ra	-10.7633
▁ङ्ग्	-10.7667
▁᳚	-10.7669
▁आय	-10.7675
▁रके	-10.7687
▁ामो	-10.7694
▁६०	-10.7703
▁र्ति	-10.7706
▁ताक	-10.7717
▁क्री	-10.7732
▁ताया	-10.7743
▁त्वय	-10.7743
▁थे	-10.7748
▁ऽयं	-10.7761
▁च्चार	-10.7766
ऽस्म	-10.778
तु	-10.778
्तु	-10.7793
▁्रेष	-10.7798
▁ाट्	-10.7799
▁दू	-10.7802
▁एतौ	-10.7803
▁कष	-10.7817
z	-10.7823
▁कस्मि	-10.7827
▁com	-10.783
▁28	-10.7848
1	-10.785
▁पच	-10.7851
▁ni	-10.7854
▁िज्ञ	-10.7855
▁विषा	-10.7868
▁४२	-10.7874
▁त्र्	-10.7876
▁यमा	-10.7883
▁छेद	-10.7884
▁ान्स	-10.7885
▁यमन	-10.7887
▁रमा	-10.7904
▁न्ना	-10.7907
▁ारो	-10.7908
▁्यवस	-10.7918
▁्याच	-10.793
▁न्तम्	-10.7933
कम	-10.7936
▁ावत	-10.7941
▁तस्मि	-10.7944
▁R	-10.795
▁रीति	-10.7952
▁v	-10.7953
▁कां	-10.7954
▁काला	-10.7963
▁ta	-10.7965
▁मुक	-10.7967
▁येति	-10.7972
▁ण्या	-10.7973
↑	-10.7983
▁tra	-10.7987
▁मरा	-10.7989
▁नादि	-10.7995
▁विद्	-10.8004
▁५५	-10.8008
▁The	-10.8025
▁जते	-10.8069
▁पत्	-10.8069
▁हः	-10.8081
▁no	-10.8086
▁खन	-10.8089
▁लस	-10.8102
▁आदौ	-10.8105
▁त्रे	-10.8107
▁त०	-10.8121
▁भार्य	-10.8125
▁गव	-10.8134
▁ाचित	-10.8138
th	-10.8145
▁रय	-10.8152
▁िवा	-10.8158
▁्वरः	-10.8164
▁िकं	-10.8177
▁भवेत	-10.8186
▁कृतिः	-10.8195
▁कल्पय	-10.8206
▁माध	-10.8217
▁भोः	-10.8222
▁ुद्र	-10.8227
▁्विध	-10.824
▁अ०	-10.8241
▁ाक्	-10.8251
▁रणी	-10.8251
▁निपा	-10.8254
▁८०	-10.8258
▁ष्टे	-10.8264
▁फि	-10.8267
थो	-10.8271
▁si	-10.8271
▁H	-10.828
P	-10.8284
▁ुस	-10.8287
T	-10.829
▁ागा	-10.8292
▁्येवं	-10.8298
▁नाप	-10.8306
▁३८	-10.8306
▁ाधित	-10.831
▁ीणां	-10.8314
▁्तरेण	-10.8315
▁्भव	-10.833
▁४४	-10.8337
▁्रस	-10.835
▁्यथ	-10.8366
▁40	-10.8375
▁र्यात	-10.8379
▁अण्	-10.8383
▁श्वस	-10.8393
▁३४	-10.8401
▁भान	-10.8403
▁्वेन	-10.8408
▁ैश	-10.8427
U	-10.8429
▁िताय	-10.8435
री	-10.8447
▁लश	-10.8457
▁लौ	-10.8462
▁्येष	-10.8465
▁तना	-10.8471
▁ायस	-10.8473
▁ेभ	-10.8479
▁ालये	-10.8484
▁ca	-10.849
▁li	-10.8493
▁भा०	-10.8495
▁राति	-10.8511
▁ोवि	-10.8515
▁तानां	-10.8516
▁रेष	-10.8538
▁श्चै	-10.854
st	-10.8544
▁औसत	-10.8559
▁ेत्रे	-10.8562
▁इत्यु	-10.8563
▁्थाप	-10.8565
▁ावना	-10.8574
▁विज्ञ	-10.8581
▁ाधा	-10.8585
K	-10.8591
▁िक्षे	-10.8605
▁लव	-10.8608
▁माणा	-10.8618
▁त्ये	-10.8628
▁रब	-10.8629
3	-10.8638
▁ेशन	-10.8651
▁किन्	-10.8652
▁ुखे	-10.8655
▁याय	-10.8663
▁wi	-10.8669
▁ोपा	-10.8673
▁षाय	-10.8674
▁ोति	-10.8678
▁ेना	-10.868
धी	-10.8682
▁स्रो	-10.8688
▁मीत	-10.869
▁न्या	-10.8694
ह्न	-10.8695
▁्रमः	-10.8696
▁जर	-10.8698
वस्थ	-10.8703
▁म्बन	-10.8716
H	-10.8717
▁न्दु	-10.8723
▁दाम	-10.8727
▁ऽस	-10.8743
▁कीर्	-10.8745
▁ूत्र	-10.8749
▁४७	-10.8759
▁मिद	-10.8761
▁ार्यम	-10.8763
▁्यती	-10.8776
▁ालयः	-10.8783
ra	-10.8812
▁La	-10.8814
▁g	-10.8816
▁W	-10.8818
▁स्तक	-10.8826
▁दोषा	-10.8831
▁िच्	-10.8841
▁न्तम	-10.8846
▁चाय	-10.8853
र्थ	-10.8859
▁ीस	-10.8862
▁en	-10.8865
▁हारः	-10.8869
▁उभे	-10.8871
▁अध्या	-10.8876
▁तेः	-10.8887
le	-10.8888
८	-10.8889
W	-10.8893
▁sh	-10.8894
▁वरा	-10.8909
सि	-10.8915
▁चिन	-10.892
▁लप	-10.8923
▁स्यैव	-10.8939
▁ादा	-10.8941
▁निस	-10.8952
▁ty	-10.8977
▁ड्य	-10.8979
▁मिश	-10.8983
▁सुम	-10.8987
▁्वन्	-10.8988
▁्यार	-10.899
▁्रित	-10.901
▁पिन	-10.902
▁मभ	-10.9021
▁दिद	-10.9022
्तृ	-10.9023
▁लम	-10.9024
▁तस्त	-10.9027
▁नरो	-10.9031
▁याद्	-10.9036
▁लिङ	-10.9038
▁स्ती	-10.9048
▁गाय	-10.9054
▁्टी	-10.906
▁ायन्त	-10.9062
▁गः	-10.9066
िह	-10.9074
▁ासव	-10.9077
▁४९	-10.9078
▁अरे	-10.9088
N	-10.9093
▁कारं	-10.9107
▁यसे	-10.9109
er	-10.9117
▁कानां	-10.9124
▁नान	-10.913
▁्ला	-10.9132
▁ुरी	-10.9134
▁त्रो	-10.9136
▁ृद्	-10.9141
▁ूर्णा	-10.9151
▁ुता	-10.9154
▁रता	-10.9157
▁J	-10.9166
▁th	-10.9174
वान	-10.9176
▁्यानि	-10.9188
▁७०	-10.9191
▁पद्यत	-10.9202
▁ष्प	-10.9203
हित	-10.9205
▁यस्त	-10.9207
▁फो	-10.9209
▁VERS	-10.9214
▁न्दि	-10.9218
▁ृष्टः	-10.9224
▁्म्	-10.9225
▁पेन	-10.9225
▁िस्त	-10.9227
▁सीत्	-10.9237
..	-10.924
▁50	-10.925
▁रती	-10.9263
▁४८	-10.9275
▁पाः	-10.9286
▁थाप्य	-10.9305
ले	-10.9305
▁कलौ	-10.9309
▁तकं	-10.9318
▁रसं	-10.932
▁४६	-10.9323
▁ki	-10.9324
▁वन्	-10.9328
▁चिद्	-10.9331
▁यङ	-10.934
▁श्वा	-10.9348
▁्तित	-10.9355
▁Cha	-10.9356
▁्रहः	-10.9362
▁ृत्त	-10.9362
७	-10.9362
कं	-10.9367
सा	-10.9385
▁छा	-10.9385
▁त्यभि	-10.94
▁क्ता	-10.9401
▁्मण	-10.9408
▁35	-10.9415
▁५१	-10.9426
▁सामान	-10.9443
▁धाना	-10.9466
ce	-10.9467
▁५२	-10.9471
▁माने	-10.9487
▁ʻ	-10.9488
▁मेति	-10.9497
▁णन	-10.9497
▁१००	-10.95
▁त्तः	-10.9504
▁ri	-10.9505
▁स्थि	-10.9507
▁दनं	-10.9513
▁ाणं	-10.9521
▁ठत	-10.9521
▁तरो	-10.9526
▁र्षण	-10.9531
▁pdf	-10.9535
L	-10.955
▁ठा	-10.9557
▁युज	-10.9564
▁ान्तं	-10.9572
▁शाय	-10.9577
▁तरा	-10.9579
▁्रोत	-10.9585
▁रथं	-10.9589
▁तिश	-10.959
▁िनं	-10.9598
▁क्रमे	-10.9602
▁रमो	-10.9607
▁ायि	-10.9616
▁अण	-10.9646
▁नान्	-10.9647
▁नस्त	-10.965
ri	-10.9651
▁घा	-10.9658
▁मर्थ	-10.9661
▁ृतं	-10.9662
▁ातय	-10.9667
▁ीत्	-10.9668
▁मखु	-10.9679
▁मने	-10.9684
्यक्	-10.9687
▁ऽव	-10.9696
▁्वाः	-10.9697
▁इमा	-10.9704
▁ापा	-10.9706
▁मतं	-10.9707
▁िलो	-10.9707
▁नत्व	-10.9708
▁ादे	-10.9711
यै	-10.9727
▁ुरे	-10.9736
▁nd	-10.9737
शान	-10.9741
▁शां	-10.975
▁शत्र	-10.9763
▁िकाय	-10.9769
▁्यान्	-10.977
स्म	-10.9771
▁>>	-10.9771
▁ून्	-10.9775
▁३९	-10.9778
▁४३	-10.9778
▁ामे	-10.9778
▁ाम्न	-10.978
तम	-10.9793
id	-10.9801
▁महान	-10.9823
▁रिण	-10.983
▁िञ्च	-10.985
▁जने	-10.9861
▁दपि	-10.9865
▁ऩ	-10.9867
▁तस्तु	-10.9874
▁लये	-10.9878
्पर्	-10.9894
▁खी	-10.9897
▁अथा	-10.9904
▁तकाल	-10.9916
▁Sa	-10.9917
▁्थम	-10.992
▁्वस	-10.9925
▁षः	-10.9962
▁न्नः	-10.9965
▁िगत	-10.997
▁ानीय	-10.9983
▁नह	-10.9985
▁वरी	-10.9992
▁re	-10.9992
▁संध	-11.0001
▁्वं	-11.0001
▁शुच	-11.0007
▁चाप	-11.0015
▁दिः	-11.0024
▁वादि	-11.0042
नी	-11.0067
ck	-11.0071
▁ाभव	-11.0081
▁५४	-11.0082
▁SP	-11.0083
▁्तौ	-11.0091
▁पुष	-11.0092
▁थी	-11.0104
▁ारस	-11.0106
▁ऽत्र	-11.0111
▁सदस	-11.0123
▁जून	-11.0135
▁िष्टं	-11.0136
▁ूण	-11.0144
▁र्षे	-11.0156
ʼ	-11.016
▁Nepal	-11.016
▁त्यपि	-11.0162
▁६५	-11.0164
▁ुग	-11.0165
ष्ण	-11.0169
▁ानन्	-11.0175
▁्येति	-11.0176
▁स्तं	-11.0176
▁िदान	-11.0179
▁ृक्ष	-11.0187
▁िक्ष	-11.0205
▁नोति	-11.022
▁ाप्	-11.0233
▁तरः	-11.0236
▁करोम	-11.0265
▁्यतां	-11.0281
▁िवार	-11.0283
▁िद्र	-11.0285
▁ामस	-11.0314
ta	-11.0321
▁ृतः	-11.0329
▁्यध	-11.033
▁अध्य	-11.0334
▁गतौ	-11.0351
▁मख	-11.0359
▁̇	-11.0361
▁गुर	-11.0368
▁कण	-11.0384
▁षो	-11.0391
▁ादृ	-11.0394
R	-11.0401
V	-11.0406
▁विति	-11.0412
▁तके	-11.0416
▁्वयं	-11.0436
▁त्रास	-11.0439
▁दीर	-11.045
▁लै	-11.045
▁Rea	-11.0456
तं	-11.0456
▁st	-11.0487
▁कान्	-11.0494
▁शिक	-11.0518
▁ाजि	-11.0527
▁ुका	-11.0538
▁रान्	-11.054
▁्यैः	-11.0542
▁स्वं	-11.0546
▁५७	-11.0547
▁ोऽस	-11.0555
▁तूं	-11.0563
▁रसि	-11.0564
▁रिष	-11.0569
▁ुगे	-11.057
F	-11.0573
▁५६	-11.0579
▁ाग	-11.0581
▁ch	-11.0582
▁6.	-11.0587
▁ेग	-11.0588
▁मदु	-11.0594
▁इट	-11.0603
▁ारम्	-11.0605
▁रै	-11.0613
▁ैस	-11.0618
▁िष्णु	-11.0619
▁ाहर	-11.0621
▁िधाय	-11.0621
▁ानम्	-11.0626
▁cd	-11.063
▁िभिर	-11.0631
▁वाव	-11.0644
▁ght	-11.0646
▁तयः	-11.0655
▁यावत	-11.066
▁पथि	-11.0669
▁(3)	-11.0669
▁\	-11.0669
▁्रै	-11.0671
▁vii	-11.0674
▁्टम	-11.0678
▁ागि	-11.0683
▁विक्	-11.0684
▁लाम	-11.069
▁नच	-11.0696
▁पद्	-11.0699
▁हरत	-11.0711
▁32	-11.0721
▁मक्ष	-11.0737
▁मृता	-11.0757
▁ित्रे	-11.076
▁रद्	-11.0769
▁ऎ	-11.0773
▁PDF	-11.0774
il	-11.0776
▁्राप	-11.0784
▁तिम	-11.0784
▁तते	-11.079
▁ामा	-11.0795
▁Onl	-11.0803
▁यानं	-11.0815
▁31	-11.0815
▁्रज	-11.0819
▁रान	-11.0825
▁इद	-11.0826
▁ृताः	-11.083
me	-11.083
▁ma	-11.0848
▁५९	-11.0849
▁तस्यै	-11.085
ाट	-11.085
▁चितं	-11.0856
▁जानाम	-11.0856
▁ाशन	-11.0861
▁्ले	-11.0881
▁ूयते	-11.0882
ch	-11.0883
▁्रः	-11.0888
▁न्दे	-11.0889
▁ाकु	-11.0894
▁co	-11.0921
▁िमि	-11.0926
▁द्धा	-11.0927
▁सख	-11.0928
▁षं	-11.0947
▁याण	-11.0968
▁ामर	-11.0987
se	-11.099
▁माणे	-11.0998
▁रुक्	-11.0998
▁तश	-11.1008
▁याश्च	-11.1017
▁भ्या	-11.1031
▁एति	-11.1043
▁ुङ	-11.1059
▁29	-11.106
लः	-11.1097
▁थौं	-11.11
ed	-11.1106
▁त्रव	-11.1114
रं	-11.1134
▁न्नो	-11.1135
▁सैव	-11.1141
मि	-11.115
▁ठी	-11.1153
▁वता	-11.1158
▁ानीम	-11.1164
▁िन्त	-11.1175
▁रुः	-11.1177
▁ुमन	-11.118
re	-11.1184
▁ावत्	-11.1196
▁ात्रं	-11.1203
▁विदा	-11.1206
▁्गु	-11.1207
▁ूर्वं	-11.1221
▁िथि	-11.1221
▁Su	-11.1238
▁िज्	-11.1254
▁मानं	-11.1257
▁°	-11.1263
▁To	-11.1271
▁लर	-11.1285
▁याल	-11.1296
▁पदि	-11.1315
▁िती	-11.1325
▁वपि	-11.1325
▁लङ्क	-11.1328
▁ुस्त	-11.1328
▁कह	-11.133
▁ष्क	-11.1335
▁जनं	-11.1355
▁ीये	-11.1361
मित	-11.1377
▁्बा	-11.1377
▁वत्य	-11.1385
पि	-11.1385
▁अच्	-11.1386
▁िष्ये	-11.1396
▁पाठः	-11.14
▁द्यां	-11.1402
▁परमे	-11.1412
*	-11.1414
▁्मत्	-11.1421
▁पयः	-11.143
▁ाठ	-11.1437
▁तर्	-11.1441
▁ce	-11.145
▁तीक	-11.1453
▁भावि	-11.1463
▁्यैव	-11.1471
▁खान	-11.1472
▁पाव	-11.148
▁Live	-11.1485
▁कृतम	-11.1503
▁गाद	-11.1516
▁तमि	-11.1518
▁आभ	-11.1524
▁्यन्	-11.1527
▁स्तम	-11.1541
▁रीणां	-11.1541
▁u	-11.1558
▁नाति	-11.1588
▁धस	-11.1589
▁नये	-11.1596
▁युर	-11.1597
▁वक्तु	-11.1599
▁्मणि	-11.1609
▁टेन	-11.1621
▁धै	-11.1621
▁ठे	-11.1621
फ	-11.1623
▁्द्र	-11.1627
▁आपो	-11.1642
▁ng	-11.1646
j	-11.1653
▁मश	-11.1659
▁ाङ	-11.1678
▁राल	-11.1681
▁पा०	-11.1684
▁ीणा	-11.1686
▁्तन	-11.1688
▁्त्वा	-11.169
ry	-11.169
▁ितानि	-11.1691
▁िलक	-11.1693
▁ापी	-11.1703
▁नुत	-11.1703
▁ैवा	-11.1705
ान्	-11.1709
▁लद	-11.1713
▁भेदा	-11.1729
▁ूया	-11.1737
ente	-11.175
▁्राण	-11.1757
▁स्थे	-11.1761
▁7.	-11.1774
▁्माद्	-11.1775
▁ारणे	-11.1789
▁र्धन	-11.1796
▁ृते	-11.1796
▁शात्	-11.1801
▁च्छत	-11.1808
▁यैः	-11.181
▁्यताम	-11.1814
▁याप	-11.1824
▁िकर	-11.1825
▁Xxx	-11.1831
बु	-11.1835
▁ुदाय	-11.1839
▁५३	-11.1857
▁९०	-11.1858
▁र्जित	-11.1881
▁ायते	-11.1885
▁ुष्म	-11.1892
▁्जु	-11.1906
▁्यज	-11.1909
▁रिस	-11.1914
▁ावस	-11.1917
▁ष्ठी	-11.1929
▁निद्र	-11.1948
▁तिद	-11.1989
▁ादः	-11.1991
▁›	-11.2008
▁कित	-11.2009
▁निह	-11.201
▁and	-11.201
प्	-11.2011
▁Vi	-11.2023
▁षस	-11.204
▁यितु	-11.204
te	-11.2041
▁ार्थि	-11.2069
▁ृप	-11.207
▁ऊँ	-11.2074
▁h	-11.2077
▁ब्	-11.2081
▁सती	-11.2088
▁ध्ये	-11.2088
▁कन्य	-11.2089
▁राण	-11.2091
__	-11.2096
▁गी	-11.2097
▁ाज्ञा	-11.2098
▁जन्	-11.2102
▁व्ये	-11.2108
▁पृ०	-11.2134
▁वसि	-11.2135
si	-11.2149
▁आर्	-11.215
▁वितु	-11.2157
▁भे	-11.2159
▁णौ	-11.2164
▁६४	-11.2164
ठ	-11.2176
▁ेवल	-11.2196
▁समे	-11.2198
ā	-11.2204
▁समः	-11.2223
▁्तं	-11.2235
▁णेन	-11.226
▁ानय	-11.2266
▁हतः	-11.2271
▁टः	-11.2278
▁वनी	-11.2291
Y	-11.2302
▁क्षस	-11.2304
▁तरि	-11.2306
▁Ma	-11.231
▁शद	-11.2313
▁िहा	-11.2315
▁कस्	-11.2315
▁रक	-11.2318
▁प्रवि	-11.2319
ट्	-11.2321
▁िपी	-11.2325
▁भ्	-11.2335
▁an	-11.2342
▁ानवा	-11.2349
▁मकर	-11.2353
▁ुर्व	-11.2354
▁►	-11.2373
▁ज्ञे	-11.2376
▁In	-11.2381
▁न्था	-11.2382
▁लिङ्	-11.2384
O	-11.2388
▁nsl	-11.2394
▁गात्	-11.2402
al	-11.2409
/	-11.2416
▁सहस	-11.2418
▁ावो	-11.2422
हे	-11.2432
▁(4)	-11.2435
▁100	-11.2438
5	-11.2452
▁६१	-11.2454
▁रार	-11.2466
▁ीम्	-11.2467
▁यातः	-11.2483
▁y	-11.2484
▁ूता	-11.2484
▁्रियत	-11.2485
▁विवा	-11.2486
4	-11.2489
▁िपर	-11.249
▁ka	-11.2501
वः	-11.2512
▁रीत	-11.2516
▁राकृ	-11.2518
in	-11.252
▁ेऽप	-11.2537
▁ूच	-11.2539
▁िचि	-11.2541
▁38	-11.255
▁You	-11.2551
▁संख	-11.2554
धीय	-11.2556
▁तादृ	-11.2559
nd	-11.2562
रिक	-11.2563
▁old	-11.2563
▁rit	-11.2589
▁लात्	-11.259
▁क्षति	-11.2593
▁वरो	-11.2597
वं	-11.26
▁वदन्	-11.2614
▁ीकर	-11.2617
▁७५	-11.2624
▁vs	-11.2626
▁जाप	-11.2628
▁्कि	-11.2629
▁घटः	-11.2634
▁जम्	-11.2651
ff	-11.2654
▁ास्या	-11.2691
▁(.	-11.2697
▁ृक्	-11.2698
▁ुजा	-11.2701
▁समर	-11.2708
▁सू०	-11.2709
▁Li	-11.2709
▁वेव	-11.271
▁रीष	-11.2714
▁्का	-11.2715
▁ावृ	-11.2722
▁षद	-11.2728
▁ासीत	-11.2735
▁36	-11.2737
▁राः	-11.2742
▁ोन्	-11.2743
▁दिषु	-11.2752
▁pter	-11.2752
▁ृतिः	-11.2752
▁उ०	-11.2766
▁रत्य	-11.2772
▁ासत	-11.2778
करण	-11.2813
प्नो	-11.2815
▁ाऽपि	-11.2818
९	-11.2833
ha	-11.2837
▁वेब	-11.2886
▁सफ	-11.2887
▁योन	-11.2887
▁निषे	-11.2911
▁औं	-11.2912
▁va	-11.2924
▁सने	-11.293
▁हितः	-11.2932
▁पन्	-11.2937
▁ar	-11.2938
▁load	-11.2946
▁ोगी	-11.2948
▁कश्चि	-11.295
▁ृह्य	-11.296
▁ाक्र	-11.2969
▁ठन्	-11.2974
vi	-11.2977
▁ानः	-11.298
▁ऋणं	-11.2986
▁फ्	-11.2987
▁सभ	-11.2987
▁ट्व	-11.2988
▁्पि	-11.2989
lo	-11.2995
▁ct	-11.2999
गुण	-11.3
▁All	-11.3013
▁ामान्	-11.3018
▁हारे	-11.3022
▁my	-11.3023
▁जुल	-11.3029
▁उन	-11.3031
रे	-11.3038
▁्वां	-11.3038
▁्नाम	-11.3044
▁ददा	-11.3046
▁ियाः	-11.3054
▁भवा	-11.3066
ॐ	-11.3069
←	-11.3069
▁एषु	-11.307
▁्याव	-11.3075
▁ठ्	-11.3081
▁्त्	-11.309
▁गां	-11.3099
▁्यामि	-11.3121
▁जीवत	-11.3135
▁ary	-11.3147
▁र्षत	-11.3156
tle	-11.3169
▁६२	-11.3178
▁मीक	-11.3192
▁कृप	-11.3193
8	-11.3193
्नोत	-11.3211
▁ुह्	-11.3215
▁da	-11.3219
▁ुष्य	-11.3223
▁सिध	-11.3231
▁८४	-11.3232
▁रया	-11.3235
▁्मनि	-11.3241
▁ब्दे	-11.3247
▁at	-11.3255
▁कारे	-11.3259
▁राक	-11.3276
▁ुनः	-11.3284
▁पदम	-11.3288
▁्क्	-11.3297
▁िचा	-11.3303
▁याणां	-11.3308
▁ृषि	-11.331
▁8.	-11.3337
▁हात	-11.3341
▁ृतवान	-11.3349
▁्रियं	-11.3352
▁येषु	-11.3352
▁ूग	-11.3359
▁वर्ति	-11.3391
▁वचनम	-11.3392
▁शून्	-11.3407
▁त्मन	-11.341
▁थय	-11.341
▁᳘	-11.3416
ti	-11.3421
▁करा	-11.3422
▁७१	-11.3434
7	-11.3438
▁ेक्	-11.344
▁33	-11.3442
▁एता	-11.345
▁आश	-11.3455
▁ीर्	-11.3459
▁ङी	-11.3464
▁Wi	-11.3468
▁ोजनम्	-11.3485
▁ऱ	-11.3486
▁ISO	-11.349
▁९१	-11.3504
▁्वरा	-11.3514
▁रसः	-11.3535
▁po	-11.3543
▁्यद्	-11.3548
▁इक	-11.355
▁६६	-11.3551
▁६८	-11.3555
▁ेका	-11.3559
▁लयः	-11.356
▁us	-11.3561
▁ुध्	-11.3575
▁यङ्	-11.3598
▁नतु	-11.3599
▁वते	-11.3612
तृ	-11.3612
▁ात्त	-11.3618
▁अनुस	-11.3621
▁ुनर्न	-11.3624
▁िशब्द	-11.3628
it	-11.3631
▁पश्चि	-11.3642
▁क्यम	-11.3644
▁For	-11.3644
▁मर्	-11.3669
दश	-11.3672
सर	-11.3672
▁वाम्	-11.3673
X	-11.3683
ka	-11.3686
▁नुस	-11.3696
▁थै	-11.3701
▁जयः	-11.3706
▁ाली	-11.371
▁्रहण	-11.3713
▁ख्याय	-11.374
▁पध	-11.3742
▁िर्भ	-11.3743
▁न्यः	-11.3746
▁ऐं	-11.375
▁वृक	-11.3766
▁वतु	-11.3774
▁स०	-11.3776
▁याभ	-11.3776
▁ापक	-11.3783
▁र्मा	-11.3798
▁ादो	-11.3798
कृ	-11.3805
▁दृशा	-11.3807
▁्दि	-11.381
▁५८	-11.3818
▁अल्	-11.3824
▁७६	-11.3832
▁ाणः	-11.3833
▁रथः	-11.3841
▁रियां	-11.3855
▁एके	-11.3855
▁नध	-11.3877
▁गृहम	-11.3881
▁ll	-11.3881
▁ृशं	-11.3882
▁न्यं	-11.3892
▁le	-11.3902
▁em	-11.3903
▁७४	-11.3909
▁वेन	-11.3919
▁ेतुः	-11.3931
मम	-11.3933
▁ख्ये	-11.3938
▁ाहा	-11.3946
▁दम्	-11.3961
▁रिष्य	-11.3975
▁धस्	-11.3981
▁तान्त	-11.3991
▁मण	-11.3999
▁me	-11.4001
▁पु॰	-11.4003
▁मनुष	-11.4004
ङि	-11.4005
▁रसन	-11.4013
▁भाई	-11.4015
▁ीडिय	-11.4038
▁ेशं	-11.4051
▁िरत	-11.4057
▁८६	-11.4058
▁ामपि	-11.4058
▁क्तिं	-11.4062
▁ेशः	-11.4079
▁जहि	-11.4088
षाया	-11.4098
▁्यन	-11.4106
ाई	-11.4128
▁ago	-11.4128
▁स्तत	-11.414
▁िभाष	-11.4142
▁र्वत	-11.4147
▁एकल	-11.4153
▁ातः	-11.4153
▁ेशि	-11.4163
▁्षिप	-11.4164
▁यासः	-11.4187
▁च्चा	-11.4192
श्	-11.4194
▁दाः	-11.42
ni	-11.4204
▁ers	-11.4205
▁तवम	-11.4217
▁34	-11.423
▁दाने	-11.4236
▁w	-11.4248
▁िकम	-11.4257
▁शति	-11.4258
▁ाज्	-11.4259
▁रीक	-11.4277
▁त्काल	-11.4277
▁37	-11.4277
▁cle	-11.4278
▁िरी	-11.4284
▁as	-11.4285
ञ्	-11.4288
▁हण	-11.4291
▁नग	-11.4299
▁डल	-11.4304
▁ृतो	-11.4316
▁योगा	-11.4324
वच	-11.4327
ैष	-11.4328
▁ाते	-11.4329
दे	-11.4341
▁di	-11.4343
▁ेशा	-11.4355
▁क्षं	-11.4359
▁यती	-11.4361
▁ेयः	-11.4372
▁७२	-11.4378
▁do	-11.4379
▁स्रा	-11.4384
▁ुवन्	-11.4386
▁जनो	-11.4395
6	-11.4396
▁वाणि	-11.4411
▁इष	-11.4411
▁मार्	-11.4418
▁परिभ	-11.4429
▁III	-11.4429
देव	-11.4435
▁ीरा	-11.444
▁देन	-11.4443
▁01	-11.4444
▁Si	-11.4448
▁तद्ध	-11.445
▁रादि	-11.4455
▁लाना	-11.4457
▁िकार	-11.4466
▁द्यं	-11.4466
▁br	-11.4469
▁र्मि	-11.4471
▁आध	-11.4471
▁ंघ	-11.4489
▁त्रम्	-11.4489
रह्म	-11.4492
▁India	-11.4504
▁×	-11.4505
▁रयति	-11.4507
▁्वह	-11.4509
▁ुतं	-11.4512
▁िणे	-11.4521
▁र्णम	-11.4532
▁्याप	-11.4544
▁संर	-11.4552
▁न्धे	-11.4553
टि	-11.4557
▁ृह	-11.4563
▁ठं	-11.4564
▁स्यै	-11.4578
▁fi	-11.4578
▁गभ	-11.4579
▁रीं	-11.458
▁years	-11.4582
▁रयः	-11.4585
▁60	-11.459
▁उक्	-11.4604
▁रहः	-11.4609
▁ामह	-11.4635
▁्याह	-11.4635
▁ख्	-11.4644
▁षाम	-11.4647
▁राधा	-11.4649
पा	-11.4654
▁वना	-11.4672
▁सखि	-11.4673
▁९५	-11.4673
ve	-11.468
▁ुणे	-11.4682
▁सखा	-11.4691
▁मैं	-11.4695
▁भये	-11.4698
▁्कृ	-11.4704
▁यर्	-11.4712
mi	-11.4713
▁एतत	-11.4714
▁गात	-11.4715
q	-11.4727
द्वि	-11.4738
▁ूना	-11.4742
▁्तिः	-11.4755
ीनां	-11.4761
टः	-11.4771
▁धाः	-11.478
▁वसन	-11.478
▁िषे	-11.4788
▁विशत	-11.48
ृहीत	-11.4809
▁==	-11.4817
▁इतो	-11.482
▁टो	-11.4821
▁सक्	-11.4825
▁्मणा	-11.4849
▁मन्	-11.485
▁Te	-11.4859
▁्मम	-11.4875
▁त्याह	-11.488
▁¦	-11.4895
▁६३	-11.4899
▁यार	-11.4909
▁ृती	-11.4915
▁अवश्य	-11.4927
▁ुवा	-11.4934
▁गवा	-11.4935
▁गि	-11.4939
▁षत्	-11.4939
▁तदप	-11.4948
el	-11.4966
▁नक्	-11.4972
▁वेण	-11.4975
0	-11.4987
va	-11.4992
▁छत	-11.5028
▁पाण	-11.5048
▁सखे	-11.5051
▁TV	-11.5058
▁ुश्	-11.5062
▁सतः	-11.507
▁ोत्त	-11.5073
▁्मन्	-11.5085
▁रम्प	-11.5105
▁ागः	-11.5109
▁तेति	-11.5111
▁ह्म	-11.5111
▁ाके	-11.5117
+	-11.5127
▁परस्	-11.5137
▁्तरे	-11.5137
ss	-11.514
▁परिष	-11.5145
▁िक्षण	-11.5145
ne	-11.5183
▁ोस्त	-11.5194
▁न्येन	-11.5198
▁mber	-11.5219
▁वदन्त	-11.5235
▁बुद	-11.524
▁2)	-11.5241
▁वसा	-11.5252
▁र्यः	-11.5256
▁उदा	-11.5266
ro	-11.5279
▁रिज	-11.5283
▁pa	-11.5287
▁गृह्	-11.5288
▁निप	-11.5295
▁्टा	-11.5301
▁gory	-11.5302
▁क्ताः	-11.531
▁विवे	-11.5336
▁ns	-11.5341
▁िश्व	-11.5344
▁आच	-11.5346
▁धानं	-11.5359
▁तिरि	-11.5361
▁्रीम	-11.5363
▁्रध	-11.5374
▁परस	-11.5376
▁त्यक	-11.5382
▁सिं	-11.5392
▁धत	-11.5396
▁थप	-11.5398
en	-11.5402
▁्याख	-11.5424
▁su	-11.543
▁पदम्	-11.5449
▁ीयान	-11.5463
▁थास	-11.5465
▁दिष्	-11.5469
▁ोज्	-11.547
▁उपर	-11.5475
▁ोस्	-11.5484
▁रसा	-11.5499
▁गस्	-11.55
▁ृता	-11.5503
▁ya	-11.5509
▁Cat	-11.5519
▁तिव	-11.5548
▁ग्रा	-11.5549
▁िषि	-11.5549
▁रिक्	-11.5565
▁nts	-11.5566
▁ार्ग	-11.5573
▁ुत्र	-11.5576
▁रश्च	-11.5582
▁Ta	-11.5589
▁निवा	-11.5603
▁७९	-11.561
▁वरे	-11.5612
▁्रय	-11.5613
▁sta	-11.5619
ओ	-11.562
▁िकां	-11.5623
▁बस	-11.5627
▁ंशय	-11.5627
▁ार्श	-11.5632
▁More	-11.5639
▁ठन	-11.564
तः	-11.5646
▁्गव	-11.5653
▁ro	-11.566
▁ायाम्	-11.5661
▁39	-11.5662
▁न्तस्	-11.5668
▁त्स्व	-11.567
▁भागः	-11.5676
▁1)	-11.5688
▁्विष	-11.5696
▁ादिव	-11.5701
▁अझ	-11.5702
▁कुत्	-11.5709
▁दभ	-11.5715
▁्यस्	-11.572
▁इदानी	-11.5727
▁दये	-11.5729
▁Di	-11.5736
▁द्दे	-11.5738
▁िये	-11.5743
▁ान्या	-11.5745
▁ुमा	-11.5756
▁्तेन	-11.5758
▁न्यत	-11.577
▁धीय	-11.5775
ङ्	-11.5777
ा०	-11.5784
▁्रतिम	-11.5791
▁६९	-11.5795
an	-11.5801
▁्तुं	-11.5812
▁min	-11.5816
▁सुन्	-11.5817
भे	-11.5825
▁pro	-11.5826
▁२००	-11.5827
▁दर्शि	-11.5834
▁हरः	-11.5838
▁शृण	-11.5848
▁Re	-11.5867
▁UP	-11.5877
▁ारणम	-11.5888
▁तिह	-11.5893
▁ोके	-11.5894
ar	-11.5898
▁६७	-11.5899
▁Down	-11.59
▁nal	-11.591
▁्वपि	-11.5913
▁आसीत	-11.5916
▁नन्	-11.5932
▁अवश	-11.5948
▁्जा	-11.5951
▁निद	-11.5953
▁ूर्वा	-11.5955
▁इय	-11.596
▁विदु	-11.5963
च्	-11.5968
▁्थानम	-11.5979
▁भिन	-11.5987
▁ूचना	-11.5989
▁्हि	-11.5991
▁ीर्त	-11.5995
▁ंख	-11.6
▁रश	-11.6006
SC	-11.6009
▁Pro	-11.6016
▁च्छि	-11.6025
▁्पत्	-11.6027
▁ढा	-11.6029
▁Me	-11.603
▁षय	-11.6034
da	-11.6046
▁पदः	-11.6052
▁तच्	-11.6056
▁Piec	-11.6078
▁ादी	-11.609
▁स्तथ	-11.6095
▁आका	-11.6097
▁am	-11.6098
▁्षी	-11.6103
▁ार्म	-11.6129
▁प्यत	-11.6134
▁48	-11.6139
▁भाग्	-11.6147
▁Y	-11.615
▁रतम	-11.6151
്	-11.6168
▁9.	-11.6179
▁येवं	-11.6186
▁तीं	-11.6192
िंश	-11.6215
▁Sans	-11.6217
▁लब	-11.6222
▁नाया	-11.6232
ाणां	-11.6233
▁र्तित	-11.6243
▁10.	-11.6253
▁पुष्	-11.626
▁घटे	-11.6265
▁्टव	-11.6267
▁स्मात	-11.6273
▁णाद	-11.6276
▁तिज्ञ	-11.6278
▁िवे	-11.6298
▁७३	-11.6307
▁ाञ्	-11.633
▁ेश्	-11.6343
▁िहार	-11.635
▁्न्	-11.6357
▁Mar	-11.6359
▁ोगा	-11.6361
सेन	-11.6364
▁वर्गः	-11.6375
▁पुस्त	-11.6375
▁थम	-11.6395
▁आङ	-11.6402
▁Slo	-11.6406
▁तरत	-11.6416
▁आम्	-11.6421
▁टव	-11.6431
▁विवर	-11.6438
▁रूपम	-11.644
▁्यने	-11.6445
▁डॉ	-11.6448
▁सभी	-11.6449
▁ort	-11.6459
▁यवे	-11.6474
ate	-11.6477
▁गित	-11.6485
▁रष	-11.6516
▁उव	-11.6551
▁दन्	-11.6562
▁रम्	-11.6563
▁यच्	-11.6571
▁ोमि	-11.6572
▁De	-11.6573
▁भ्यत	-11.6587
▁तिन	-11.6592
ंच	-11.6597
ेह	-11.6626
▁मित्	-11.663
▁deos	-11.6631
▁(5)	-11.6631
▁Exam	-11.6631
▁िष्ठा	-11.6634
▁८१	-11.6635
gi	-11.6637
▁ासस	-11.6643
▁ment	-11.6646
▁्येते	-11.6648
▁जस्	-11.6652
▁हितम	-11.6652
▁नोत	-11.6654
▁ारस्	-11.6664
▁रात्	-11.6667
▁41	-11.6672
▁vo	-11.6674
▁ितस्	-11.6686
▁भगवा	-11.6688
▁द्वा	-11.6693
▁नई	-11.6704
9	-11.6716
▁Ga	-11.6726
▁्मरण	-11.6729
▁45	-11.6731
▁यतां	-11.6735
▁ागे	-11.6739
▁j	-11.6741
▁िमे	-11.6743
▁त्यो	-11.6762
▁डव	-11.6764
ञ	-11.677
▁ूपे	-11.678
▁comm	-11.6782
ं॰	-11.6785
चि	-11.6787
▁तास	-11.68
▁्वास	-11.6805
▁43	-11.6805
na	-11.6807
▁८७	-11.6808
्राण	-11.6816
▁प्ति	-11.6816
▁पयति	-11.6823
▁ci	-11.6825
▁शस्	-11.6851
▁९३	-11.6876
▁शम्	-11.6878
▁त्युत	-11.6886
▁म्भव	-11.6895
▁ble	-11.692
▁यकार	-11.6925
▁्रमा	-11.6929
▁मये	-11.694
▁िकम्	-11.6958
▁विभा	-11.6961
▁गौः	-11.6965
▁गणः	-11.6981
ya	-11.6983
▁रपत	-11.6985
ानु	-11.6987
▁it	-11.7002
▁HD	-11.7018
▁Z	-11.7022
▁मर्थं	-11.7036
▁ुच	-11.7038
के	-11.7041
▁Ba	-11.7054
▁भूः	-11.7057
▁दाहर	-11.7059
▁->	-11.7074
▁Nar	-11.7081
▁80	-11.7085
टो	-11.7087
▁ST	-11.71
▁et	-11.7107
▁IV	-11.7118
▁देवान	-11.7123
ly	-11.7127
▁ुतम्	-11.7129
▁िरु	-11.7133
▁िभि	-11.7137
▁राया	-11.7144
▁Ka	-11.7159
▁्मानं	-11.7161
▁ारयत	-11.7191
▁िष्ण	-11.7194
▁म०	-11.7199
▁रजा	-11.7202
▁42	-11.7204
▁यट	-11.7208
▁Po	-11.7212
▁Shlok	-11.7216
▁गई	-11.7218
पूर	-11.7219
▁यका	-11.7227
▁ाध्य	-11.7232
▁पृष	-11.7235
▁देष	-11.7239
▁पश	-11.725
▁PM	-11.7252
▁८८	-11.727
▁ारणं	-11.7278
▁तवन	-11.7294
▁दानी	-11.7301
▁वस्	-11.7302
▁रेस	-11.7326
▁ाती	-11.7336
▁02	-11.7349
▁वसे	-11.7357
▁्राद	-11.7363
▁र्यम	-11.7379
▁ल्यं	-11.7392
▁per	-11.7399
▁An	-11.7407
▁more	-11.7419
▁xxx	-11.7419
▁भिय	-11.742
▁भुक्	-11.7425
▁tes	-11.7428
▁ष्टः	-11.7433
▁हूं	-11.7455
▁bar	-11.7479
▁ोक्	-11.7486
▁47	-11.7488
▁यता	-11.7492
▁man	-11.7502
▁ल्पा	-11.7518
▁Video	-11.7522
▁Ra	-11.7524
▁44	-11.7534
▁ामग	-11.7534
षः	-11.7539
▁थें	-11.7546
▁परिण	-11.7581
▁थं	-11.7592
▁ुवत	-11.7592
▁तीन	-11.7593
▁go	-11.761
▁टत	-11.7611
▁View	-11.7625
▁जीवि	-11.7625
▁̄	-11.7627
▁typ	-11.7628
▁बजे	-11.7636
▁षाम्	-11.7647
▁ऋ०	-11.765
am	-11.7664
▁dy	-11.767
▁46	-11.7673
▁रवी	-11.769
▁ure	-11.7693
▁िणाम	-11.7698
▁ऋते	-11.7702
▁ाक्य	-11.7711
▁not	-11.772
▁दस्	-11.7722
▁ालस	-11.7722
~	-11.7722
▁XXX	-11.7732
̐	-11.7732
▁gle	-11.7732
▁Í	-11.7733
▁mp	-11.7734
राची	-11.7738
▁्रियः	-11.7743
▁अचि	-11.7744
▁ेनो	-11.7752
▁Goo	-11.7753
दं	-11.7757
▁Comm	-11.7769
co	-11.7773
▁Sy	-11.7775
▁शक्यत	-11.7781
▁त्सं	-11.7786
▁मस्	-11.7791
▁्रवि	-11.7793
▁ly	-11.7796
▁्थि	-11.7798
▁क्षणं	-11.7811
▁ूल्	-11.7816
▁मुच	-11.7823
द्भ	-11.7832
▁अमी	-11.7843
▁ितस्य	-11.7856
▁ितान	-11.7862
▁षट	-11.7862
▁ुणा	-11.7862
▁art	-11.7871
▁पयेत्	-11.7887
▁्रन्	-11.7887
वृत	-11.7927
ढ	-11.7941
▁Co	-11.7942
▁ल्म	-11.7943
▁क्तः	-11.7947
▁त्यन	-11.795
▁शेषतः	-11.7951
▁याइ	-11.7953
▁CO	-11.7957
▁sm	-11.7961
झ	-11.7965
▁tag	-11.7975
▁्यात	-11.7978
▁वेदि	-11.7984
▁ha	-11.7986
▁८९	-11.7994
▁९९	-11.8024
ga	-11.8028
▁फले	-11.8038
▁ss	-11.8046
▁உ	-11.8054
▁pcs	-11.8055
▁ऌ	-11.8055
▁वतः	-11.8106
▁Cu	-11.8108
ty	-11.8112
▁्तः	-11.8114
nt	-11.8129
रू	-11.8141
▁भवित	-11.8143
▁बन्	-11.8156
▁वइ	-11.8157
▁ेशी	-11.8159
▁वौ	-11.816
▁्तरः	-11.8165
▁Stu	-11.8165
▁By	-11.8173
▁अप्	-11.8176
▁रमेश	-11.8178
▁ाषा	-11.8178
▁षेण	-11.8178
▁रुषः	-11.8193
▁त्रः	-11.8196
▁ुला	-11.8197
▁ततस	-11.8197
▁अहः	-11.8199
▁्टिक	-11.8204
sk	-11.821
▁श्वरः	-11.8212
▁तर्ह	-11.8213
▁्थितः	-11.8217
टे	-11.8237
▁बभ	-11.8246
▁हते	-11.8251
▁वशे	-11.8252
▁अती	-11.8262
▁याक	-11.8265
▁त्यत	-11.8273
▁घञ्	-11.8283
▁3)	-11.8292
▁िहि	-11.8294
▁ट्रे	-11.8295
▁माक	-11.8298
▁्ते	-11.8315
▁सि०	-11.8323
▁11.	-11.8344
▁Hindi	-11.8388
▁rre	-11.8388
▁सुव	-11.839
▁तरस	-11.8393
▁are	-11.8393
▁रित्	-11.8401
▁थक	-11.841
▁णाः	-11.8415
ङः	-11.8416
▁वनम	-11.8417
चो	-11.8418
▁Mo	-11.842
▁्रिका	-11.8434
▁ुषे	-11.844
▁रिश	-11.8447
▁अभय	-11.8448
▁ारत	-11.8452
▁आफ	-11.8458
▁पान्	-11.846
▁स्तस	-11.847
▁तिभ	-11.8471
▁you	-11.8486
▁८५	-11.8486
▁िर्म	-11.849
▁भरे	-11.8498
us	-11.85
▁ॠ	-11.8501
▁ुमान	-11.8512
▁फट्	-11.8512
▁बो	-11.8512
▁ुदा	-11.8515
▁िसर	-11.8525
▁Love	-11.8542
▁दइ	-11.8552
ज्ञ	-11.8552
▁प्यते	-11.8554
▁bel	-11.8558
▁धते	-11.8564
▁्वान्	-11.8576
▁भगवन	-11.858
▁यजन	-11.8581
▁घो	-11.8583
▁भिधा	-11.8586
▁८३	-11.8587
▁ाश्र	-11.8601
▁बद्	-11.8608
▁रमे	-11.8618
चा	-11.8618
▁लभत	-11.8619
▁Day	-11.8621
▁ापत	-11.8627
▁ोवा	-11.863
▁रथे	-11.8634
▁९७	-11.8638
▁्जी	-11.8647
▁03	-11.8648
ci	-11.8654
▁भावा	-11.8658
▁bha	-11.8661
▁Ni	-11.8662
▁mi	-11.8673
▁द्ये	-11.8678
▁कॊ	-11.8679
▁sp	-11.8681
▁ेव्	-11.8692
▁्तान	-11.8694
▁्रथ	-11.8708
▁इम	-11.8725
▁वाना	-11.8726
▁णीया	-11.8727
▁‖	-11.8733
▁ged	-11.8734
▁धय	-11.8737
▁त्रिण	-11.8749
sa	-11.8786
mo	-11.8788
ात्	-11.8796
▁$1	-11.8808
▁ba	-11.8835
ेश	-11.8837
▁यने	-11.8843
▁ंसा	-11.8844
▁साम्	-11.8847
▁÷	-11.885
▁साइट	-11.8851
▁User	-11.8851
▁age	-11.8851
▁२०६	-11.8853
▁वानां	-11.886
चः	-11.8876
सौ	-11.8879
▁cu	-11.888
मिति	-11.8883
▁रुत्	-11.8909
▁ja	-11.8927
▁हलः	-11.8941
▁Mi	-11.8942
▁cm	-11.8945
▁अभव	-11.8948
▁ृणा	-11.8956
▁झी	-11.896
▁तश्	-11.898
to	-11.8981
▁जति	-11.8986
ms	-11.8992
▁र्वै	-11.9005
▁वज	-11.9012
▁िभा	-11.9024
▁श्चात	-11.9027
▁ितु	-11.9051
▁तेषा	-11.9072
▁tu	-11.9083
▁न्ने	-11.9086
▁प्रदा	-11.9091
▁॑त	-11.9095
िष्य	-11.9113
▁new	-11.9114
▁यिष	-11.9121
▁ंशत	-11.9125
▁Pa	-11.9131
▁याया	-11.9136
sh	-11.9137
▁San	-11.9141
▁Na	-11.9143
▁du	-11.9144
▁दँ	-11.915
▁बहून	-11.9167
▁con	-11.9168
▁As	-11.917
▁थौ	-11.9172
_	-11.9177
▁्वाह	-11.918
▁Res	-11.9186
▁म्पा	-11.9199
▁वसन्	-11.9207
▁Life	-11.9212
▁ness	-11.9213
▁Apr	-11.9215
▁धिष	-11.9229
▁मब	-11.9235
▁्द्	-11.9243
▁doc	-11.9243
▁रिणा	-11.9248
▁आशा	-11.9249
▁धिम	-11.9259
▁डन	-11.9267
▁49	-11.9276
▁org	-11.9276
▁्नः	-11.9289
▁िकल	-11.9292
▁lt	-11.9292
di	-11.9293
▁क्रा	-11.9295
▁55	-11.9299
▁९४	-11.93
▁्मन	-11.9305
ld	-11.9308
▁कर्	-11.9308
ठः	-11.9312
▁मग	-11.9319
ऋ	-11.9325
▁रसो	-11.9333
▁New	-11.9335
▁One	-11.9337
▁नभः	-11.9356
▁ो॒	-11.9358
▁७८	-11.9372
▁जनि	-11.9376
tra	-11.9376
▁पीस	-11.9391
▁ुणः	-11.9392
▁Ca	-11.9394
▁51	-11.9397
▁देवो	-11.9398
▁सुखम	-11.9409
▁रियम	-11.9412
▁ऋच	-11.9413
▁िजन	-11.9433
दः	-11.945
▁day	-11.946
а	-11.946
▁्रवेश	-11.9461
▁200	-11.9465
▁ग्रहा	-11.9468
▁ीग	-11.9468
▁रयत्	-11.9468
▁अगर	-11.9469
▁दार्	-11.9477
▁तॊ	-11.9481
▁्वप	-11.9486
▁ात्प	-11.949
▁2:	-11.9496
▁फर	-11.951
▁hi	-11.952
▁मिं	-11.9532
▁Ha	-11.9535
▁िपू	-11.9536
▁उभ	-11.9549
▁bal	-11.9556
▁धात्	-11.9564
lu	-11.9585
▁रदेश	-11.9587
▁१०९	-11.9589
▁sec	-11.959
▁ाइट	-11.9593
▁गृही	-11.9595
▁ex	-11.9595
▁q	-11.9603
▁53	-11.9603
▁िस्थ	-11.9604
▁िभाग	-11.9604
▁चितम्	-11.9606
10	-11.9612
▁ml	-11.9612
▁७७	-11.9614
▁नुक	-11.962
▁पुस	-11.9649
▁मॆ	-11.9656
▁/1	-11.9657
▁साइ	-11.9668
▁कारणम	-11.9669
▁nda	-11.9677
▁Jan	-11.968
▁तवान	-11.9717
ca	-11.9719
▁्रयो	-11.9719
▁रदा	-11.972
▁र्द्	-11.9731
▁उष	-11.9739
▁ध्वा	-11.9748
णः	-11.9751
▁Al	-11.9758
▁षत	-11.9759
▁so	-11.9766
▁येँ	-11.9768
▁अभवत	-11.9769
▁र्थम	-11.9785
et	-11.9797
ll	-11.983
▁्तुम	-11.9834
▁ुरि	-11.9849
▁दृष्	-11.9854
▁ष्यन्	-11.9854
▁Dec	-11.9867
▁Be	-11.9871
▁ted	-11.9875
▁चान	-11.9877
▁जयं	-11.9882
▁्जि	-11.9885
▁तिष्	-11.9886
▁ोग्	-11.9897
▁औरत	-11.9899
▁ैका	-11.9905
▁तितः	-11.9906
▁fa	-11.9909
▁cha	-11.991
▁र्वे	-11.9911
▁सामा	-11.9924
▁ेरि	-11.9931
उत	-11.9939
▁वि॰	-11.9949
▁रान्त	-11.9951
▁अपः	-11.9959
▁one	-11.9973
▁शना	-11.9975
▁●	-11.9977
▁name	-11.9984
ter	-11.9988
▁विस्	-11.9998
▁ुञ्	-12.0004
▁रदान	-12.002
ut	-12.0025
▁12.	-12.0052
ir	-12.0058
▁ानान	-12.0078
▁शत्	-12.008
▁दृश्	-12.0081
▁गोः	-12.0096
▁नमन	-12.01
▁Au	-12.0108
▁Tube	-12.011
▁from	-12.011
or	-12.0113
▁्नो	-12.0132
▁news	-12.0137
▁वत्या	-12.0157
▁pra	-12.016
▁९६	-12.0167
▁रुम	-12.0193
▁श्चि	-12.0196
▁राप	-12.0196
▁ृश्	-12.0203
▁रध	-12.021
▁लान	-12.0216
▁८२	-12.0223
▁up	-12.0234
▁http	-12.0245
▁🙏	-12.0246
▁्यसि	-12.0247
▁िश्	-12.0251
मौ	-12.0251
▁ैश्	-12.0253
▁्ययः	-12.0255
▁मन्यत	-12.0255
▁लिए	-12.0265
▁िर्वा	-12.0283
युः	-12.029
▁हुं	-12.0295
de	-12.0296
▁माँ	-12.0297
▁विशि	-12.0301
ba	-12.0304
▁९८	-12.0305
▁ीतः	-12.0309
▁RT	-12.031
▁माज	-12.0312
▁Inst	-12.0313
▁रायः	-12.0323
▁्यभि	-12.0325
▁ितै	-12.0352
▁यस्मि	-12.0384
▁१०८	-12.0386
▁यक्	-12.039
▁रण्	-12.0391
▁यश्	-12.0392
▁्मर	-12.0392
▁९२	-12.0399
▁all	-12.0412
▁्धा	-12.0417
▁ओम्	-12.0422
▁एकम	-12.0437
▁त्तरं	-12.0444
▁ानद	-12.0449
▁्वयम	-12.0453
▁्वरे	-12.0453
IT	-12.0479
▁मिष्	-12.0479
ur	-12.0485
▁भिप	-12.0497
▁पमा	-12.0497
▁लङ	-12.0499
▁ितव	-12.0513
▁्वना	-12.052
о	-12.0521
▁साक	-12.0521
▁(9)	-12.0521
▁(6)	-12.0521
▁Go	-12.0525
▁mon	-12.0526
▁ाण्	-12.0542
▁्पत	-12.0542
▁११०	-12.0546
▁तन्ते	-12.0548
इह	-12.0552
ME	-12.0562
▁षम्	-12.0582
▁ठञ	-12.0587
▁ादीन	-12.059
▁ातव	-12.0593
▁Le	-12.0599
▁भाय	-12.0603
ण्	-12.0619
▁िरू	-12.062
▁तदन	-12.063
▁िखि	-12.0644
▁सङ्ख	-12.0662
▁€	-12.0662
▁500	-12.0664
▁यक्ति	-12.0671
▁वदे	-12.0674
▁पेश	-12.0674
▁दाद	-12.0677
▁ोत्	-12.0694
▁स्का	-12.0707
▁ect	-12.0708
▁rn	-12.071
▁०२	-12.0713
▁ष्यत	-12.0726
▁रुद्	-12.073
▁कोड	-12.0736
▁ंदे	-12.0763
▁राणि	-12.0766
▁िंच	-12.0773
▁्रती	-12.0777
▁्यश	-12.0777
▁र्णं	-12.0781
▁mo	-12.0784
▁त्ती	-12.0785
ऊ	-12.0795
▁णात	-12.0801
▁post	-12.0803
▁(7)	-12.0805
▁link	-12.0805
▁केष	-12.0805
▁ry	-12.0807
▁द्यप	-12.0808
▁१९७	-12.0809
▁करौ	-12.0809
▁प्रे	-12.081
▁संज	-12.0812
▁्ह्	-12.082
▁gram	-12.0825
ञात	-12.084
▁Ci	-12.0853
▁गजः	-12.0854
▁िर्व	-12.0866
▁रजः	-12.0868
▁पथः	-12.0882
▁टिः	-12.0909
▁Ti	-12.091
▁ैन्	-12.0913
▁ष्ठं	-12.0919
▁र्ये	-12.0929
▁भावन	-12.0934
▁ुप्	-12.0934
▁यक्त	-12.0935
▁MS	-12.0947
▁்	-12.095
▁page	-12.095
▁read	-12.095
▁ru	-12.0955
▁हूँ	-12.0958
▁pr	-12.0959
▁nti	-12.0959
▁दृष	-12.096
▁्तत्र	-12.0964
▁्माणि	-12.0969
▁१०१	-12.097
▁नाच	-12.0973
▁ृथ	-12.0976
▁तरम	-12.0978
▁59	-12.0982
▁ृश्यत	-12.0992
▁विन्	-12.0996
▁जां	-12.0997
▁mm	-12.0997
सी	-12.1007
▁येव	-12.1011
▁रिद	-12.1046
▁्दे	-12.1065
▁िकृ	-12.1073
▁र्तव	-12.1081
▁षणा	-12.1085
▁राद	-12.1092
▁लज	-12.1095
▁≤	-12.1097
▁िशेष	-12.1105
▁्यह	-12.1126
▁ज्यो	-12.1133
▁ार्यः	-12.1136
▁्तां	-12.1138
▁र्जि	-12.1149
▁Bu	-12.1155
▁ई०	-12.1156
▁IP	-12.1156
▁z	-12.1159
▁रुपय	-12.1174
▁प्तः	-12.1175
▁दाना	-12.1176
▁प्नो	-12.1178
▁वरि	-12.1193
▁विश्	-12.1197
▁Up	-12.1198
▁धीयत	-12.1199
▁ुदे	-12.1205
▁्रत्	-12.1207
▁ोऽप	-12.1208
▁्तक	-12.121
20	-12.1212
▁ess	-12.1215
ꣳ	-12.1236
▁word	-12.1244
▁Blog	-12.1246
▁Vers	-12.1246
▁sou	-12.1247
▁Years	-12.1247
AT	-12.1262
▁११८	-12.1263
▁SC	-12.1283
▁सारे	-12.1283
▁ाशक	-12.1287
▁दिं	-12.13
▁हाः	-12.1304
▁छवि	-12.1306
▁54	-12.1312
▁नूत	-12.1318
▁अत्	-12.1338
▁ए॒	-12.1338
▁कुछ	-12.134
▁सूचन	-12.1345
▁्यप्	-12.1352
▁ind	-12.1357
▁यर्थ	-12.137
▁एच	-12.137
▁bo	-12.1377
▁ga	-12.1384
▁उपय	-12.139
▁कछु	-12.1398
▁My	-12.1402
▁्मणः	-12.1415
▁्रश्	-12.1416
▁On	-12.1419
▁tter	-12.1423
▁ाधिका	-12.1424
▁रुक	-12.143
▁ियाय	-12.1435
nter	-12.1455
ill	-12.1455
▁षक	-12.1483
▁तेभ्य	-12.1485
▁इनि	-12.1486
▁्मो	-12.1497
▁3:	-12.1502
ॆ	-12.1506
▁mn	-12.1506
▁भूते	-12.1507
▁nu	-12.1511
▁वभ	-12.1516
▁56	-12.1542
્	-12.1551
▁Gen	-12.1552
▁ર	-12.1552
▁ुज्यत	-12.1552
▁ऽहम	-12.1553
गान	-12.1558
▁ापू	-12.1561
▁लात	-12.1566
▁घटं	-12.1568
▁घटक	-12.1575
▁करोतु	-12.158
▁adv	-12.1585
▁बद	-12.1586
▁ष्टिः	-12.159
▁70	-12.1593
dj	-12.1594
रमेश	-12.1599
▁्तन्त	-12.1609
▁कुमा	-12.1618
मन्व	-12.1623
▁्षि	-12.1647
▁्यतः	-12.1647
▁रक्	-12.166
as	-12.1663
▁52	-12.1669
.5	-12.167
SE	-12.1671
▁रये	-12.1674
▁Pre	-12.168
▁we	-12.1682
▁gn	-12.1693
▁rce	-12.1706
▁́	-12.1707
▁Books	-12.1708
▁ur	-12.171
▁Off	-12.1711
▁Date	-12.1717
▁रोक	-12.1718
▁ृतम्	-12.1721
▁सङ	-12.1723
क०	-12.173
▁विशे	-12.1732
तौ	-12.1736
▁MP	-12.1749
▁िक्र	-12.1755
▁ागु	-12.1768
18	-12.1781
▁ितवान	-12.1787
▁ther	-12.1793
▁पृथक	-12.1817
▁वामि	-12.1818
▁थेन	-12.1838
▁57	-12.1845
ळ	-12.1852
▁He	-12.1856
▁्मृत	-12.1858
▁Ki	-12.1862
▁तुष	-12.1866
е	-12.1866
▁www	-12.1866
▁says	-12.1867
PSC	-12.1872
▁Se	-12.1885
▁लाव	-12.189
▁िषा	-12.1891
▁िरोध	-12.1895
▁षज	-12.1895
▁न्यथ	-12.1896
▁ऽभ	-12.1897
▁ंसार	-12.1904
rd	-12.1914
▁65	-12.1943
▁दधि	-12.1967
▁तटे	-12.1971
▁धनी	-12.1972
▁मुत	-12.1976
▁िरन	-12.1977
▁ms	-12.198
▁can	-12.1985
▁pm	-12.1992
▁धाने	-12.2002
▁र्मण	-12.2005
▁fe	-12.2006
▁Sc	-12.2007
▁िव्	-12.2015
▁nbsp	-12.2027
▁style	-12.2027
▁July	-12.2028
▁धिन	-12.2032
▁्ज्	-12.2039
▁04	-12.2051
▁रस्तु	-12.2058
▁परिणा	-12.2062
mp	-12.2064
▁NA	-12.2085
▁ेनाप	-12.2088
ast	-12.2091
▁gi	-12.2093
▁var	-12.2094
▁Sea	-12.2104
▁ाहृ	-12.2113
ave	-12.2118
▁ङ्गं	-12.2122
▁्याश	-12.2128
use	-12.2132
▁यमो	-12.2146
▁सरः	-12.2166
▁ईं	-12.218
▁वट	-12.2187
▁Year	-12.219
▁down	-12.2191
▁Page	-12.2191
एष	-12.2192
▁ऐसे	-12.2192
▁ऍ	-12.2192
जान	-12.2193
▁box	-12.2193
▁दीना	-12.2201
▁एफ	-12.2212
▁्सि	-12.2214
pa	-12.2216
▁08	-12.2219
▁र्यते	-12.2222
▁यज्	-12.2231
▁वतन	-12.2232
▁्दी	-12.2234
खे	-12.2245
▁सात्	-12.2255
▁स्वय	-12.2258
Z	-12.2268
▁कृष्	-12.2273
▁नानि	-12.2275
▁बकः	-12.2278
▁छं	-12.2292
▁90	-12.2302
▁यवा	-12.2312
▁गरे	-12.2321
▁बली	-12.2327
▁न्यस	-12.2337
▁ोचत	-12.2356
ॢ	-12.2358
ા	-12.2358
▁ज्यं	-12.2358
▁मूढ	-12.2359
▁nf	-12.2362
▁We	-12.2365
▁ऐसा	-12.2366
▁१०३	-12.2368
▁्पति	-12.2371
▁वैः	-12.2373
▁िरुद	-12.2392
▁ूयत	-12.2393
▁May	-12.2396
▁क्षत्	-12.2397
▁प्रयु	-12.2411
▁्तिं	-12.2433
▁end	-12.2438
▁तिस्	-12.2469
▁ूतः	-12.248
▁रतिक	-12.2493
▁Ab	-12.2503
▁सहि	-12.2524
▁BBC	-12.2528
▁−	-12.2531
▁चाह	-12.2545
▁वजन	-12.2551
▁ard	-12.2559
ER	-12.2573
ET	-12.2576
ge	-12.2576
▁टस	-12.2577
▁दत्	-12.259
▁शया	-12.2596
▁ुतम	-12.2621
AN	-12.2622
▁टम्	-12.2623
tt	-12.2624
▁िञ्	-12.264
▁1:	-12.2645
▁्शन	-12.2659
▁ाभा	-12.2663
}	-12.269
▁Sp	-12.2699
▁यञ	-12.2699
▁Class	-12.27
▁₹	-12.27
▁ऴ	-12.27
▁्यमेव	-12.27
▁Mu	-12.2706
▁();	-12.2711
▁VI	-12.2715
▁pt	-12.2716
▁AP	-12.2721
▁Ro	-12.2728
▁क्तु	-12.2729
▁km	-12.2744
SS	-12.2749
▁सिद्	-12.2755
▁्याण	-12.2756
▁मतम	-12.276
▁आगे	-12.276
▁son	-12.2763
▁पता	-12.2767
▁तॆ	-12.2779
▁Man	-12.2782
▁Bo	-12.2789
▁ऑफ	-12.2792
▁त्स्	-12.2809
▁्रक	-12.2809
ru	-12.2816
▁ीवा	-12.282
ver	-12.2829
▁Lin	-12.2835
▁ाद्व	-12.2837
▁ome	-12.2847
▁महः	-12.2858
▁LIVE	-12.2875
▁text	-12.2875
▁Ad	-12.2876
▁Top	-12.2878
▁जाम	-12.2879
▁AM	-12.2879
▁ret	-12.2884
▁्चि	-12.2891
▁तट	-12.2892
▁डलर	-12.29
▁ओली	-12.2901
ह्ण	-12.2906
▁क॰	-12.2908
▁न॰	-12.2917
▁ुसा	-12.2921
vo	-12.2923
▁ho	-12.293
▁file	-12.2935
हं	-12.2937
▁प्ये	-12.2946
▁मानस्	-12.2947
▁ey	-12.2952
▁्छे	-12.2954
▁Fi	-12.2959
▁ाषि	-12.297
▁rch	-12.3009
▁्तार	-12.301
sp	-12.3028
▁he	-12.3033
▁र्यक्	-12.3036
▁वमे	-12.3037
rs	-12.3038
▁edia	-12.3054
▁UPSC	-12.3054
२०	-12.3061
▁आशु	-12.3064
▁als	-12.3066
▁५००	-12.3069
▁Sta	-12.3076
▁द०	-12.3076
▁See	-12.3081
▁धमा	-12.309
क्यं	-12.3097
▁bet	-12.3098
▁रिमा	-12.3107
▁र्शन	-12.3111
▁्जल	-12.3114
▁Con	-12.3115
▁वृत्	-12.3123
▁___	-12.3125
▁टान	-12.3131
▁वि०	-12.3131
▁Gra	-12.3135
ज्	-12.3144
भो	-12.3146
▁णस्	-12.3146
▁sy	-12.315
▁नमस	-12.3157
▁रथम	-12.3173
no	-12.3181
▁SS	-12.3185
▁bu	-12.3188
▁form	-12.3202
ाध्य	-12.3205
नू	-12.3206
▁gh	-12.3211
▁्यमा	-12.3216
▁र्ते	-12.3225
▁ययय	-12.3227
▁०१	-12.3229
и	-12.3236
▁Web	-12.3236
▁Tra	-12.3237
▁ix	-12.3239
▁र्मे	-12.324
▁शते	-12.3257
▁इकः	-12.3259
▁व०	-12.3263
▁निका	-12.3269
▁Pi	-12.3298
▁IN	-12.3301
▁शेत	-12.3303
▁दित्	-12.3306
▁िद्यत	-12.3307
एव	-12.3312
▁ञः	-12.3316
▁टं	-12.332
▁्पा	-12.3327
▁ुज्	-12.3347
▁च्छे	-12.3358
▁बन्धः	-12.3369
▁मूर	-12.3379
▁el	-12.3381
J	-12.3389
▁न्क	-12.339
जि	-12.3391
▁जये	-12.3401
ED	-12.341
▁4)	-12.3419
é	-12.3421
▁Ø	-12.3421
ا	-12.3421
▁उदाहर	-12.3421
▁Sou	-12.3421
▁this	-12.3422
▁qua	-12.3423
▁kg	-12.3424
▁add	-12.3427
▁ब्रह	-12.343
▁ृक	-12.3431
▁ऋचः	-12.3431
▁Jo	-12.3435
▁१२३	-12.3436
▁ak	-12.3438
▁राणा	-12.3443
▁nge	-12.3444
▁ुणान	-12.3446
▁ध्यत	-12.3448
▁Rev	-12.345
▁१५०	-12.3454
▁-2	-12.3465
▁nk	-12.3465
vu	-12.3469
ाधिक	-12.3484
▁मदः	-12.3493
▁वभा	-12.3509
ST	-12.3511
▁ठः	-12.3521
▁ऊं	-12.3526
▁58	-12.3528
▁वक्	-12.3535
▁ge	-12.3537
र्श	-12.3537
▁नश्	-12.3554
▁शक्	-12.3555
▁06	-12.3568
▁चन्	-12.357
▁rd	-12.3573
▁res	-12.3573
नौ	-12.3599
bb	-12.3599
▁/2	-12.3602
▁हरौ	-12.3607
▁view	-12.3608
н	-12.361
▁mNs	-12.361
▁work	-12.361
▁Key	-12.361
▁rics	-12.3611
▁Ori	-12.3612
▁nik	-12.3613
▁मोक्	-12.3617
▁१०५	-12.362
▁men	-12.3625
▁रणः	-12.3626
▁११७	-12.3627
▁१०२	-12.3629
▁केचि	-12.3629
▁जयो	-12.3634
▁Sh	-12.3634
▁ew	-12.3652
▁stu	-12.3658
▁Ly	-12.3662
▁केव	-12.3666
▁Cou	-12.3672
▁अर्	-12.3675
▁घटन	-12.3676
ot	-12.3692
▁णार	-12.3694
BC	-12.3696
▁्गा	-12.3698
▁gor	-12.3712
▁61	-12.3731
दर्श	-12.3735
▁यच	-12.3741
▁ष्या	-12.3754
▁वितः	-12.376
rt	-12.3762
▁75	-12.3799
ə	-12.3802
▁णानां	-12.3802
▁unf	-12.3802
▁σ	-12.3802
▁mple	-12.3802
▁Ex	-12.3803
▁Glo	-12.3803
▁¬	-12.3803
▁रुषा	-12.3803
▁Cli	-12.3806
▁खद	-12.3806
▁नेवा	-12.381
▁वधा	-12.381
▁१०७	-12.3814
▁गम्	-12.3819
▁चै	-12.3822
OS	-12.3824
▁IC	-12.3825
▁ऋतौ	-12.383
भू	-12.3834
▁टीम	-12.3844
ood	-12.3848
>	-12.3859
▁ुरस	-12.386
▁त्यै	-12.3868
▁आसी	-12.3874
▁र्णन	-12.3879
wi	-12.3881
▁ff	-12.3881
▁ol	-12.3893
▁ारू	-12.3894
कृत	-12.3895
▁वधे	-12.3925
▁ज्यत	-12.3938
▁ताह	-12.3943
▁्रमे	-12.3952
AS	-12.3954
▁न्वि	-12.3961
▁ोमा	-12.3964
▁युक्	-12.3966
▁वदेव	-12.3972
▁धर्मः	-12.3974
▁Ind	-12.3985
Q	-12.3987
▁net	-12.3994
▁(8)	-12.3998
▁ञान	-12.4005
▁**	-12.4012
.)	-12.4014
▁४००	-12.4015
▁्तुम्	-12.4015
▁१६२	-12.4015
▁150	-12.4017
▁वच्	-12.4026
▁05	-12.4038
▁um	-12.4055
▁मिन्	-12.4057
▁्दा	-12.4063
▁Nov	-12.4071
अत	-12.4083
▁2-	-12.4084
▁वयि	-12.4105
▁ved	-12.4114
▁िकृत	-12.4137
▁uni	-12.4141
▁IS	-12.4145
▁68	-12.4158
▁दद्	-12.4174
▁sha	-12.4174
▁ke	-12.4181
▁र्गा	-12.4188
all	-12.4189
р	-12.4198
ī	-12.4198
▁Que	-12.4198
▁Info	-12.4198
▁नखः	-12.42
▁स्मृ	-12.4204
▁भूप	-12.4205
▁धिष्	-12.421
▁Ph	-12.4222
याम	-12.4227
15	-12.4227
▁टप	-12.4233
▁िञ्चि	-12.4235
▁बिल	-12.4236
▁तायां	-12.4244
▁आवे	-12.425
▁see	-12.4258
▁भवो	-12.4263
▁भक	-12.4269
ark	-12.428
▁रियो	-12.4298
▁म्ये	-12.4309
▁ऋतु	-12.4316
सु	-12.432
म्यक	-12.432
▁ओम	-12.4324
▁हिल	-12.4325
▁Ho	-12.4325
▁cal	-12.4336
▁Jun	-12.4338
्नो	-12.4356
▁Nam	-12.4364
▁रिः	-12.4366
hed	-12.4371
▁सै	-12.4373
▁वब	-12.4376
▁तका	-12.4395
▁INR	-12.4402
▁√	-12.4402
▁very	-12.4404
▁File	-12.4405
▁Bha	-12.4409
▁Acc	-12.442
▁११९	-12.4421
▁Lo	-12.4426
▁os	-12.444
bs	-12.4468
▁ालिक	-12.4475
▁घ्	-12.4481
▁des	-12.4485
▁sc	-12.4493
▁13.	-12.4493
▁जपे	-12.4507
▁विषया	-12.4508
▁Is	-12.4512
▁रसे	-12.4521
▁ीयम	-12.4525
▁4:	-12.4525
▁ere	-12.4529
▁रस्	-12.4531
▁vers	-12.455
▁रदे	-12.4552
.1	-12.4559
▁पित्	-12.4565
▁शये	-12.4565
▁Ja	-12.4575
▁lo	-12.4576
su	-12.4586
ॅ	-12.4601
mail	-12.4603
▁भिक्	-12.4604
ns	-12.4607
▁mu	-12.4609
▁AWB	-12.461
▁who	-12.461
▁story	-12.4611
▁Porn	-12.4611
▁IAS	-12.4612
▁God	-12.4612
▁ver	-12.4614
▁Mb	-12.4615
▁300	-12.4615
▁्ततः	-12.4623
▁And	-12.4624
50	-12.4624
▁ष्यति	-12.4628
6.	-12.4629
▁१५९	-12.4631
▁Do	-12.4635
▁ृश्य	-12.4637
▁१३०	-12.4639
▁ूपं	-12.4642
की	-12.4648
▁विचा	-12.4658
▁nm	-12.467
▁घटो	-12.4686
▁ओज	-12.469
▁नामि	-12.4691
▁Pra	-12.4697
▁िधा	-12.4698
▁हैं	-12.4712
▁ाब्	-12.4714
▁ृद्धि	-12.4725
▁शात	-12.4725
▁कस्म	-12.4732
▁5:	-12.4734
ूह	-12.4735
▁राच	-12.4753
▁bra	-12.4763
ep	-12.4772
ाइ	-12.4785
१५	-12.4797
ze	-12.4818
▁year	-12.4822
▁ple	-12.4823
▁£	-12.4823
▁nci	-12.4825
▁Dai	-12.4826
▁रंग	-12.4829
▁१०४	-12.4834
▁१३९	-12.4835
▁माघ	-12.4846
▁बुद्	-12.4853
▁ासे	-12.4859
▁ph	-12.4862
▁रवौ	-12.4877
▁याणा	-12.4897
▁ऎव	-12.4906
▁pe	-12.4925
▁लच	-12.4925
▁Ru	-12.4927
जू	-12.4929
▁रप्	-12.4931
▁्वार	-12.4949
my	-12.4967
lock	-12.4977
▁्तात	-12.4978
EC	-12.4988
▁िध्यत	-12.4998
▁लक्	-12.5018
येत्	-12.5018
▁्रभ	-12.5026
▁ac	-12.5034
▁तथै	-12.504
꣢	-12.5041
▁ref	-12.5042
▁ON	-12.5049
▁/>	-12.5051
▁Ms	-12.5056
▁dj	-12.5056
▁्पर	-12.5057
▁३००	-12.5064
▁SI	-12.508
▁wa	-12.5097
▁part	-12.5101
▁दमः	-12.511
▁Sha	-12.5118
१४	-12.512
▁ाष्	-12.5132
▁3-	-12.514
▁्ग्	-12.515
▁Ar	-12.5157
▁17.	-12.5163
▁Wa	-12.5163
▁gu	-12.5173
▁(1	-12.5173
▁अयम	-12.5174
▁love	-12.5179
▁युक	-12.5184
▁द्यन	-12.5203
▁टना	-12.5203
▁दरः	-12.5208
▁िनिर	-12.5209
▁SA	-12.5217
▁shi	-12.5218
▁ुण्	-12.5223
▁Pri	-12.5239
▁्चर	-12.5255
▁Sol	-12.5256
▁ever	-12.5257
ക	-12.5263
▁stem	-12.5263
▁Link	-12.5264
▁xx	-12.5266
▁१८६	-12.5279
wa	-12.5284
.3	-12.5286
▁२५०	-12.5291
▁Red	-12.5293
▁्धस	-12.5297
on	-12.5312
▁त्त्	-12.5313
्रौ	-12.5319
▁फइ	-12.5329
▁िवर	-12.5331
▁07	-12.5331
▁नञः	-12.5335
ḥ	-12.535
▁Gu	-12.5358
▁fo	-12.536
▁मात्	-12.5362
▁6:	-12.5363
▁कपि	-12.5366
ath	-12.5376
▁र्दे	-12.5403
▁99	-12.5406
▁किन्त	-12.5407
▁bi	-12.5415
▁au	-12.5418
▁Bot	-12.5423
▁्वव	-12.5446
▁rep	-12.5461
▁श्यत	-12.5465
▁पाद्	-12.5469
▁दस्त	-12.5476
पीड	-12.5479
°	-12.548
#	-12.548
▁World	-12.549
▁book	-12.549
▁Edit	-12.549
▁Sex	-12.5491
▁onse	-12.5492
▁pp	-12.5494
▁Rec	-12.5495
▁stra	-12.5496
▁्रीड	-12.5498
▁डः	-12.5501
▁Va	-12.5517
▁शशी	-12.552
▁mb	-12.5527
▁if	-12.5567
२४	-12.5569
▁दृशः	-12.5577
▁69	-12.5579
▁ृदय	-12.5585
▁ासय	-12.559
▁धिका	-12.5601
▁EN	-12.5607
टं	-12.5614
40	-12.5615
RC	-12.5616
CT	-12.5617
▁रामे	-12.5639
▁sk	-12.5655
ds	-12.5665
▁om	-12.5678
▁gt	-12.5678
▁un	-12.5686
ort	-12.5694
▁दोषः	-12.572
▁Of	-12.5721
л	-12.5723
▁life	-12.5723
▁Twi	-12.5723
▁खबर	-12.5723
▁less	-12.5724
▁्तमः	-12.5728
▁user	-12.5734
▁ent	-12.5735
▁250	-12.574
▁१५१	-12.5744
▁za	-12.5746
▁यकर	-12.5754
.2	-12.5765
▁चये	-12.5765
▁चयन	-12.5789
▁gra	-12.5795
▁nic	-12.58
▁्रक्	-12.5819
▁ृष्टं	-12.5822
ेठ	-12.584
▁्नोत	-12.5854
▁Nu	-12.5868
▁ber	-12.587
▁En	-12.5871
▁कृतव	-12.5877
▁स्फु	-12.5884
▁ावात	-12.5884
▁्रश	-12.5895
▁Kh	-12.5909
▁Dr	-12.5943
ऐ	-12.5951
т	-12.5961
ാ	-12.5961
▁★	-12.5961
▁sū	-12.5962
▁ന	-12.5963
▁ऽदय	-12.5966
▁UN	-12.597
▁११६	-12.5983
▁न्त्	-12.5987
▁उषा	-12.5999
▁्रदे	-12.6026
▁र्य्	-12.6031
▁get	-12.6033
▁कप्	-12.6036
be	-12.6038
nk	-12.6042
▁ठि	-12.6046
unt	-12.6048
▁ुकू	-12.6055
▁ाञ	-12.6065
ठे	-12.6065
▁64	-12.6069
▁67	-12.6083
▁्वौ	-12.6086
▁तीर्	-12.6091
▁तिज	-12.61
14	-12.6105
12	-12.6107
▁धन्	-12.6122
▁pri	-12.6133
▁63	-12.6135
▁मृत्	-12.6151
▁66	-12.6151
hu	-12.6153
▁ad	-12.6173
▁Uni	-12.6179
ेँ	-12.6181
lf	-12.6185
tro	-12.6186
▁कीर	-12.6188
•	-12.6195
॓	-12.6205
▁Open	-12.6205
▁हौं	-12.6205
▁👉	-12.6206
▁views	-12.6207
▁️	-12.6213
▁यायाः	-12.6215
००	-12.6227
▁ुच्यत	-12.6252
▁नुमा	-12.6283
▁भागा	-12.6289
▁श्ये	-12.6291
▁Ne	-12.6295
▁णस्य	-12.6295
.4	-12.6296
▁Bus	-12.6303
▁आत्	-12.6331
▁अक०	-12.6351
80	-12.6367
▁वधः	-12.6373
▁द्धः	-12.6384
श्र	-12.6395
▁ेच्	-12.6397
do	-12.6399
▁IT	-12.6401
ाना	-12.6403
▁Ve	-12.6415
▁आ०	-12.6421
▁वैश	-12.644
▁त्तस	-12.6447
▁गै	-12.6448
ம	-12.6455
▁≥	-12.6455
▁◆	-12.6455
▁***	-12.6455
▁>>>	-12.6455
▁back	-12.6455
▁Xvi	-12.6456
▁how	-12.6456
▁रणात्	-12.6458
▁२०८	-12.646
▁ऽयम	-12.6462
़	-12.6463
▁AB	-12.6463
▁ths	-12.6464
▁live	-12.6466
▁सुवर्	-12.6467
▁ध्यति	-12.6472
▁ाजा	-12.6473
▁१३४	-12.6475
▁१२२	-12.6485
▁गाव	-12.6488
▁शीर	-12.649
▁्ताः	-12.6492
▁्दन	-12.6492
▁कृपय	-12.65
▁धलः	-12.6508
▁क्तो	-12.6516
▁रकम	-12.6525
▁vk	-12.6534
ft	-12.6534
▁शुक्	-12.6546
▁यामा	-12.6557
▁ुभ्	-12.656
▁टम	-12.656
जे	-12.6583
उप	-12.6592
IN	-12.6594
▁ap	-12.6602
▁bh	-12.6609
OR	-12.663
▁62	-12.6636
▁PO	-12.6671
▁हरं	-12.668
ell	-12.6685
bu	-12.6687
४३	-12.6693
tu	-12.6701
▁आचा	-12.6702
▁करणा	-12.6709
▁Engl	-12.6709
▁Book	-12.6709
ி	-12.6711
▁Typ	-12.6711
▁Daily	-12.6711
▁nset	-12.6712
▁ન	-12.6712
▁here	-12.6712
▁logy	-12.6712
▁Comp	-12.6712
▁time	-12.6713
▁bad	-12.6713
▁comp	-12.6716
▁्तिर	-12.6719
▁्पन्	-12.6721
▁्मात	-12.6722
▁CA	-12.6725
१२	-12.6759
▁मतो	-12.6771
4.	-12.6775
21	-12.6792
▁्तम	-12.6796
▁पेण	-12.6806
वप्न	-12.6812
ove	-12.6814
cs	-12.6831
▁ब०	-12.6834
▁षकः	-12.684
▁ऐन	-12.6854
▁lu	-12.687
▁रस्ता	-12.6879
▁72	-12.6884
▁्धे	-12.6896
▁Com	-12.6904
▁Loc	-12.6908
▁्पन	-12.6912
=	-12.6922
TS	-12.6923
▁pi	-12.6923
▁ंश्	-12.6924
▁विरु	-12.6932
▁hu	-12.6948
डा	-12.695
▁App	-12.6956
▁Time	-12.6973
ل	-12.6974
ー	-12.6974
꣣	-12.6974
▁avy	-12.6974
▁ત	-12.6974
▁ndir	-12.6975
▁Media	-12.6975
▁vya	-12.6975
▁IND	-12.698
▁py	-12.6981
▁प्तिः	-12.6987
LO	-12.6994
गृह	-12.6996
▁२०१	-12.6999
▁चिकि	-12.7006
▁IST	-12.7019
▁ईशः	-12.703
▁Da	-12.7034
▁श्लो	-12.7052
थं	-12.7055
▁rev	-12.706
२६	-12.7073
५०	-12.7096
▁वशी	-12.7099
▁अन्	-12.7105
▁ssi	-12.7106
▁्रेक	-12.7108
▁Part	-12.711
▁red	-12.7114
८८	-12.7114
▁कीं	-12.712
▁cont	-12.7135
11	-12.714
▁भारती	-12.715
▁बले	-12.7154
13	-12.7157
▁ter	-12.7157
▁यण्	-12.7167
▁गलत	-12.7172
▁Wo	-12.7173
▁def	-12.7177
खं	-12.7184
▁्रस्	-12.7195
▁पूर्	-12.7203
▁Ch	-12.7208
AL	-12.7214
▁log	-12.7216
▁rs	-12.7228
$	-12.7235
▁०३	-12.7235
▁Sept	-12.7241
ா	-12.7244
ി	-12.7244
▁ncy	-12.7244
▁that	-12.7244
▁will	-12.7245
▁Test	-12.7245
▁imp	-12.7245
▁ü	-12.7249
▁400	-12.725
ach	-12.7251
▁87	-12.7253
▁Sli	-12.7255
▁कधं	-12.7259
▁सखी	-12.7264
▁09	-12.7274
▁ger	-12.7276
▁दूध	-12.728
▁इष्	-12.7285
▁Def	-12.7293
▁ko	-12.7297
▁िंस	-12.7299
▁१२०	-12.7308
▁ors	-12.7311
▁ितवा	-12.7312
७०	-12.7322
by	-12.7327
▁न्यान	-12.7342
▁rec	-12.7353
▁एल	-12.7356
▁पाई	-12.7361
▁्येषा	-12.7376
▁[]	-12.7376
▁राक्	-12.7385
AC	-12.7389
▁Oct	-12.7399
५४	-12.7401
▁ुतः	-12.7413
▁del	-12.7425
गः	-12.7427
▁Rs	-12.7462
▁nn	-12.7468
br	-12.7478
▁्माण	-12.748
▁उ॒	-12.7483
▁98	-12.7485
▁od	-12.7498
.8	-12.7501
▁मतौ	-12.7512
ञि	-12.7517
5%	-12.752
ં	-12.7522
મ	-12.7522
த	-12.7522
❍	-12.7522
🔊	-12.7522
▁UTC	-12.7522
▁VII	-12.7522
▁आखः	-12.7523
▁ી	-12.7523
▁Ri	-12.7524
▁rda	-12.7526
▁१३७	-12.7526
old	-12.7527
▁cf	-12.7528
▁१५६	-12.7528
▁१३२	-12.7536
▁पीठ	-12.7538
▁ायन्	-12.7539
▁१२८	-12.7548
▁१२१	-12.7549
▁सौः	-12.7563
01	-12.7573
eat	-12.7583
▁Hi	-12.7591
▁ुच्	-12.7598
▁िस्म	-12.7605
१८	-12.7633
▁धनु	-12.7666
▁ress	-12.7668
▁$2	-12.767
▁ps	-12.7676
शं	-12.7698
ear	-12.7703
HO	-12.7715
RI	-12.7724
ide	-12.7725
out	-12.7734
▁ूते	-12.7751
▁Fa	-12.7761
▁ाणे	-12.7763
▁विका	-12.7769
▁उठ	-12.777
▁gr	-12.7774
ux	-12.7778
99	-12.7785
▁ष्ठः	-12.7793
oll	-12.78
▁ND	-12.7802
▁PS	-12.7802
▁रवर	-12.7802
7.	-12.7808
á	-12.7808
▁Style	-12.7808
▁‡	-12.7808
▁Koh	-12.7809
▁शून	-12.7809
▁भदौ	-12.7809
▁Rep	-12.7811
▁date	-12.7811
▁posts	-12.7811
▁nger	-12.782
▁Ali	-12.7823
▁Ed	-12.7824
▁रशि	-12.7839
ho	-12.7846
३३	-12.7848
४६	-12.7849
▁जगौ	-12.7852
▁भते	-12.7867
▁पञ्	-12.7869
▁etc	-12.7872
▁वृक्	-12.788
▁tor	-12.7898
षे	-12.7906
▁PA	-12.7915
२५	-12.7922
▁्रद्	-12.7927
▁भूतान	-12.7931
▁वचि	-12.7936
▁नका	-12.7941
▁Pol	-12.7943
▁िञ	-12.7953
60	-12.7958
▁्बन	-12.7963
▁Inc	-12.7967
▁88	-12.797
um	-12.7986
▁any	-12.7986
▁BS	-12.7991
17	-12.7993
▁PC	-12.7996
▁sea	-12.8006
▁ond	-12.8024
▁शिक्	-12.8043
▁रयत	-12.8053
▁El	-12.8074
▁fr	-12.8081
▁der	-12.8088
▁Movi	-12.81
д	-12.8102
▁block	-12.8103
▁Here	-12.8103
८०	-12.8103
▁exp	-12.8104
▁So	-12.8112
▁ऊह	-12.8124
CR	-12.813
शे	-12.8135
▁1.1	-12.8136
ेट	-12.8159
LE	-12.8165
▁ारते	-12.8169
▁(:	-12.8171
▁डिया	-12.8177
▁Vo	-12.8179
30	-12.8184
छा	-12.8195
▁मदन	-12.8199
▁Set	-12.8205
OL	-12.8216
▁lar	-12.8217
▁fil	-12.8228
ice	-12.8245
▁CN	-12.825
▁रजो	-12.826
▁ाशि	-12.8268
▁न्ध्	-12.828
▁िनिय	-12.8289
को	-12.829
▁il	-12.8295
▁िकल्	-12.8309
▁्दत	-12.8315
ever	-12.8329
eet	-12.8344
६८	-12.8348
ead	-12.8357
▁exa	-12.8363
▁Das	-12.8377
️	-12.8395
▁अञ्	-12.84
▁Quo	-12.8405
▁Rejs	-12.8405
꣡	-12.8405
▁¥	-12.8405
▁only	-12.8407
▁Tri	-12.8408
▁बभौ	-12.8408
▁अधा	-12.8409
▁les	-12.8411
▁ji	-12.8421
yo	-12.8428
▁BC	-12.8432
▁step	-12.8433
ja	-12.8457
▁थितः	-12.8465
▁्पे	-12.8465
he	-12.8472
▁अणि	-12.8473
▁निवर्	-12.8496
TET	-12.8502
▁पश्	-12.8504
▁टेः	-12.8506
▁्ट्रि	-12.8507
▁19.	-12.8534
LL	-12.8535
▁app	-12.8555
▁Ke	-12.8591
३८	-12.8604
▁ूजा	-12.8608
ON	-12.8612
▁ृति	-12.8629
▁सरल	-12.8642
▁मप्	-12.8649
▁समौ	-12.8681
▁AC	-12.8694
▁Par	-12.8694
▁_"	-12.8698
nu	-12.8707
▁ारती	-12.8714
ர	-12.8718
▁Xnxx	-12.8718
▁blog	-12.8718
▁about	-12.8718
▁î	-12.8718
▁lts	-12.8722
▁ngu	-12.8723
▁नुवा	-12.8724
▁Ji	-12.8726
▁रणम	-12.8733
▁कुः	-12.8735
्यते	-12.874
19	-12.874
▁ृतम	-12.875
▁CE	-12.8754
▁chi	-12.8756
ीडिय	-12.8767
▁ful	-12.8771
▁षितः	-12.8777
25	-12.8777
▁ck	-12.8797
▁AT	-12.8804
▁जूं	-12.8814
▁Vol	-12.8814
RS	-12.8829
▁est	-12.8859
▁Chi	-12.8859
▁ादिष	-12.8887
▁ाध्	-12.889
16	-12.8897
▁pers	-12.8903
▁Cont	-12.8912
▁mod	-12.8916
▁्रान	-12.8923
▁Art	-12.8924
४७	-12.8932
▁89	-12.894
५९	-12.8946
▁हैः	-12.8984
IR	-12.8994
23	-12.9008
▁star	-12.9018
▁71	-12.9028
▁चले	-12.9031
м	-12.904
ത	-12.904
⁄	-12.904
▁Sky	-12.904
▁free	-12.904
🪔	-12.904
▁big	-12.9041
▁Song	-12.9041
▁Ever	-12.9041
▁key	-12.9042
▁gov	-12.9042
▁ils	-12.9042
▁tta	-12.9042
▁GB	-12.9044
▁ṣ	-12.9045
▁800	-12.9045
▁good	-12.9051
▁िद्धा	-12.906
▁Shi	-12.9063
िधिः	-12.9066
▁Unit	-12.9077
▁शि०	-12.9091
६५	-12.9108
▁कौ०	-12.9114
▁desi	-12.9116
▁िबन्	-12.9116
▁पवन	-12.912
▁Du	-12.9122
tics	-12.914
▁म्पू	-12.9146
▁लानि	-12.9149
▁24.	-12.9172
▁your	-12.918
▁reg	-12.9193
▁चितम	-12.9203
▁war	-12.9204
▁यवस	-12.9205
▁has	-12.9205
▁Bea	-12.9211
▁विदे	-12.9218
▁85	-12.9252
▁रिद्	-12.9254
६६	-12.9254
24	-12.9263
EN	-12.9267
▁कहे	-12.9274
▁rge	-12.9278
▁ert	-12.9319
EP	-12.932
▁met	-12.932
▁say	-12.9323
▁Hu	-12.9346
ाधि	-12.9356
▁81	-12.9357
▁tal	-12.9357
/1	-12.9365
४५	-12.9366
▁76	-12.937
م	-12.9374
ن	-12.9374
ي	-12.9374
ો	-12.9374
▁[3]	-12.9374
▁doggy	-12.9374
▁grou	-12.9374
ر	-12.9374
▁औषध	-12.9374
▁que	-12.9374
▁©	-12.9374
▁Apply	-12.9374
▁talk	-12.9374
▁Tru	-12.9374
▁zed	-12.9375
▁Net	-12.9375
▁web	-12.9375
▁UK	-12.9376
▁Pur	-12.9376
▁ोगे	-12.9383
▁१०६	-12.9385
▁िषयः	-12.9394
▁wo	-12.9402
oft	-12.9404
MS	-12.9405
▁मेश	-12.9413
▁ā	-12.9428
▁84	-12.9433
▁सहस्	-12.9436
▁ngh	-12.9436
▁प्न	-12.945
▁ny	-12.9451
▁KB	-12.9451
▁खरः	-12.9455
▁ev	-12.9459
▁ेनै	-12.9465
fe	-12.9481
▁rma	-12.9497
▁acc	-12.9503
▁तज्	-12.9514
एक	-12.9514
▁val	-12.9516
▁ju	-12.9524
▁द्वी	-12.9527
▁सञ्	-12.9529
वौ	-12.953
▁चलो	-12.9533
▁ाख्	-12.9552
ny	-12.9554
▁भगं	-12.9562
▁mil	-12.9567
▁्मिन	-12.958
▁दीर्	-12.9589
▁Th	-12.9591
▁Ku	-12.9602
१९	-12.961
▁Am	-12.9613
▁नि०	-12.964
८७	-12.9649
our	-12.9656
▁ep	-12.9662
▁74	-12.9666
▁Ye	-12.967
▁्यधि	-12.9679
▁्तृ	-12.9683
▁०५	-12.9684
JP	-12.9697
▁pic	-12.9713
७४	-12.9716
39	-12.9716
ે	-12.9718
▁like	-12.9718
▁Bhā	-12.9718
▁ऄ	-12.9719
▁ndows	-12.9719
▁ING	-12.9719
▁ION	-12.972
▁quo	-12.9721
▁kha	-12.9721
▁und	-12.9721
▁tru	-12.9722
▁dB	-12.9722
▁Sec	-12.9759
▁पीई	-12.9764
▁इको	-12.977
▁nder	-12.9772
▁ID	-12.9775
▁ओह	-12.9779
▁्माभ	-12.9779
ct	-12.978
meri	-12.979
▁Log	-12.9808
PP	-12.9819
▁अभी	-12.9829
▁cer	-12.984
▁77	-12.9856
▁रकर	-12.9863
▁__"	-12.9872
▁7:	-12.9876
▁Les	-12.9889
▁यहं	-12.9897
▁पेप	-12.9905
▁दक्षि	-12.9906
MC	-12.991
▁MA	-12.9921
▁mar	-12.9923
▁Ju	-12.9935
▁Bh	-12.9938
▁जपो	-12.9948
▁CS	-12.9961
▁ीदृ	-12.9964
▁ara	-12.9987
▁ानस्	-13.0024
ूट	-13.0035
ुँ	-13.0065
▁OS	-13.007
к	-13.0075
▁[5]	-13.0075
▁first	-13.0075
▁jpg	-13.0075
▁OEM	-13.0076
▁§	-13.0076
▁sex	-13.0079
▁ś	-13.0081
▁Bra	-13.0082
▁Now	-13.0082
ळे	-13.0085
▁Sci	-13.0085
▁id	-13.0088
▁२६९	-13.0089
▁jo	-13.0091
▁१५७	-13.0095
▁१९१	-13.0097
▁Cy	-13.0099
▁१९३	-13.01
▁gen	-13.0102
DE	-13.0105
▁93	-13.0108
▁ori	-13.0112
▁कमर	-13.0129
▁ादीना	-13.0129
▁AI	-13.0147
▁SO	-13.0149
▁ord	-13.0154
03	-13.0157
49	-13.0157
▁rth	-13.0161
OC	-13.0173
▁Stat	-13.0192
▁op	-13.0194
▁Or	-13.0199
ing	-13.0211
▁ऊपर	-13.0216
२९	-13.0221
३०	-13.0222
elf	-13.0225
▁्भवत	-13.023
▁श्या	-13.0237
▁हयः	-13.0241
४९	-13.0249
▁hea	-13.0255
▁रिये	-13.0262
▁ञो	-13.0262
oz	-13.0263
▁Dev	-13.0273
▁िदे	-13.0273
▁95	-13.0276
▁िषय	-13.0283
▁ku	-13.0286
ont	-13.0289
ror	-13.0292
▁CH	-13.0294
▁NO	-13.0296
१०	-13.0321
▁RA	-13.0325
▁86	-13.0338
▁्ञाय	-13.034
▁०४	-13.0343
over	-13.0344
▁रब्	-13.035
▁bot	-13.0364
▁78	-13.0364
▁RI	-13.0371
यन्	-13.0379
▁pu	-13.0389
▁गए	-13.0409
डे	-13.0416
▁Ste	-13.0423
▁82	-13.0436
ऊँ	-13.0437
▁इदान	-13.0437
▁च्यत	-13.0437
ū	-13.0443
ı	-13.0446
▁First	-13.0446
▁Free	-13.0446
▁Geo	-13.0446
▁་	-13.0446
▁Press	-13.0446
▁Word	-13.0446
▁pass	-13.0446
▁boy	-13.0448
▁गमि	-13.0449
▁many	-13.0449
▁tice	-13.0449
▁uk	-13.045
▁शॉप	-13.0451
१७	-13.0452
▁उसे	-13.0453
▁खगः	-13.046
▁tip	-13.046
▁Leg	-13.0463
AM	-13.0464
▁१५२	-13.0471
▁AL	-13.0471
▁dis	-13.0507
▁आए	-13.0533
▁ऋणी	-13.0534
२८	-13.0534
▁ear	-13.0536
▁Elec	-13.0536
▁ियते	-13.0545
▁नुष्	-13.0547
▁thi	-13.0548
▁ram	-13.0549
▁्यापि	-13.0559
▁IL	-13.056
▁sun	-13.0567
▁ir	-13.0573
▁किंचि	-13.0582
▁25.	-13.0586
▁use	-13.0615
PL	-13.0643
▁कटे	-13.0645
.7	-13.0648
orn	-13.0656
EM	-13.066
▁CC	-13.0681
▁AR	-13.069
07	-13.0701
▁Son	-13.0719
▁Cal	-13.0734
ull	-13.0761
amil	-13.0774
.9	-13.0812
→	-13.0821
ь	-13.083
б	-13.083
й	-13.083
у	-13.083
ऺ	-13.083
್	-13.083
▁NEWS	-13.083
▁[1]	-13.083
▁board	-13.083
▁body	-13.083
▁URL	-13.0831
▁NDL	-13.0831
▁Story	-13.0831
▁airs	-13.0831
▁have	-13.0832
▁Max	-13.0832
▁bj	-13.0833
▁¢	-13.0833
▁Śi	-13.0833
▁्ठि	-13.0834
▁ges	-13.0834
AP	-13.0835
GE	-13.0836
▁USD	-13.0836
▁test	-13.0837
▁TO	-13.0839
▁Op	-13.0841
▁our	-13.0843
▁१९२	-13.0848
▁११३	-13.0866
▁1.2	-13.0872
▁भई	-13.0897
▁rus	-13.0905
PT	-13.0926
▁थार	-13.0926
EL	-13.0935
▁94	-13.094
ake	-13.094
▁nam	-13.0945
▁वो॒	-13.0945
SP	-13.0951
▁rya	-13.0952
70	-13.0959
▁्वम्	-13.0967
▁्रार	-13.0978
संध	-13.0986
wn	-13.0999
घं	-13.1001
▁gar	-13.1009
▁9:	-13.103
▁GS	-13.1033
RA	-13.107
ञः	-13.1071
clu	-13.1093
▁उभा	-13.1126
ृढ	-13.1133
अप	-13.114
▁Ce	-13.1142
▁ts	-13.1151
▁Pat	-13.1156
▁शाः	-13.1161
▁caus	-13.1162
▁dat	-13.1177
̥	-13.123
ક	-13.123
ര	-13.123
വ	-13.123
▁Plus	-13.123
▁[2]	-13.123
▁firm	-13.123
▁noun	-13.123
語	-13.123
í	-13.123
▁CGL	-13.1231
▁home	-13.1231
▁🌷	-13.1231
▁Apple	-13.1232
▁Port	-13.1232
▁Ref	-13.1232
▁Data	-13.1232
णौ	-13.1233
▁move	-13.1233
▁ñ	-13.1234
88	-13.1234
oint	-13.1235
▁Fro	-13.1235
▁bil	-13.1236
▁Git	-13.1236
▁Only	-13.1237
▁в	-13.1238
▁с	-13.1238
▁ster	-13.124
▁ean	-13.1243
lot	-13.1243
४०	-13.125
▁stic	-13.125
▁come	-13.1251
▁१७८	-13.1253
45	-13.1254
६४	-13.1254
४४	-13.1254
▁६००	-13.1255
▁१६१	-13.126
▁१२९	-13.1265
▁१४४	-13.1271
▁भा॰	-13.1271
▁nde	-13.1277
▁It	-13.128
▁हिला	-13.128
▁यवं	-13.1289
▁Your	-13.1291
▁Sun	-13.1292
▁११५	-13.1298
▁कदम	-13.13
▁eri	-13.1306
▁rrow	-13.1306
09	-13.1322
▁यॆ	-13.1325
▁Act	-13.1337
▁CD	-13.1343
HA	-13.1344
▁AD	-13.1348
go	-13.1411
▁cap	-13.1412
▁pl	-13.1414
१६	-13.1426
38	-13.1438
▁आठ	-13.1443
▁ंवत्	-13.1454
▁IM	-13.1456
अव	-13.1467
▁rt	-13.1468
zz	-13.1473
▁ric	-13.1474
DO	-13.1481
DS	-13.1489
▁IPC	-13.1502
▁CL	-13.1503
ैः	-13.1512
▁pre	-13.1536
२७	-13.1537
▁73	-13.155
३४	-13.1559
▁ec	-13.1567
UT	-13.1571
▁दाति	-13.1573
▁js	-13.1582
▁ER	-13.1593
▁pla	-13.1608
ron	-13.1614
▁kal	-13.1629
LV	-13.1629
−	-13.1637
я	-13.1647
▁VIDEO	-13.1647
peak	-13.1647
▁what	-13.1647
▁ய	-13.1647
▁Step	-13.1648
▁ˆ	-13.1649
▁🚩	-13.1649
▁Age	-13.165
▁Air	-13.165
ool	-13.165
▁Ž	-13.165
oney	-13.1651
▁खोई	-13.1652
▁१९५	-13.1657
Np	-13.1664
११	-13.1669
▁Dar	-13.1672
▁cy	-13.1674
▁१९६	-13.1678
▁अणु	-13.1685
▁थमं	-13.1692
TC	-13.1703
▁१४०	-13.1709
▁ऎं	-13.1718
▁वृद्	-13.1718
▁इंच	-13.1725
▁rche	-13.1756
AG	-13.1759
▁die	-13.176
▁ward	-13.1768
▁Ac	-13.1779
▁tus	-13.178
▁षते	-13.1781
▁्थे	-13.1784
▁nue	-13.1809
▁96	-13.1812
27	-13.1813
▁ld	-13.1813
і	-13.2082
י	-13.2082
ப	-13.2082
ó	-13.2536
ː	-13.2536
г	-13.2536
্	-13.2536
&	-13.3003
പ	-13.3013
в	-13.3503
с	-13.3503
औ	-13.3503
ṇ	-13.3512
া	-13.3513
ട	-13.3513
ᳪ	-13.3513
ü	-13.4029
Ó	-13.4039
د	-13.4039
க	-13.4039
®	-13.4595
ன	-13.4595
ನ	-13.4595
യ	-13.4595
ц	-13.4595
ś	-13.5173
ങ	-13.5183
മ	-13.5183
ṭ	-13.5183
ه	-13.5183
い	-13.5183
{	-13.5798
@	-13.5798
ィ	-13.5808
ö	-13.5808
п	-13.5808
х	-13.5808
س	-13.5808
ی	-13.5808
ত	-13.5808
ಾ	-13.5808
ṛ	-13.5808
[	-13.6465
ি	-13.6474
‹	-13.6474
⇄	-13.6474
🛑	-13.6474
ɪ	-13.6474
ب	-13.6474
ṣ	-13.7179
ऱ	-13.7179
ɑ	-13.7189
ú	-13.7189
С	-13.7189
ж	-13.7189
ו	-13.7189
్	-13.7189
ച	-13.7189
ല	-13.7189
᳭	-13.7189
🌺	-13.7189
±	-13.7958
ï	-13.7958
ş	-13.7958
μ	-13.7958
ع	-13.7958
॔	-13.7958
િ	-13.7958
⋙	-13.7958
■	-13.7958
🌞	-13.7958
📖	-13.7958
】	-13.8781
❤	-13.8791
Ï	-13.8791
ã	-13.8791
ł	-13.8791
و	-13.8791
ॡ	-13.8791
ম	-13.8791
એ	-13.8791
ય	-13.8791
ು	-13.8791
ദ	-13.8791
✓	-13.8791
➧	-13.8791
🏻	-13.8791
ܘ	-13.8791
<	-13.969
Í	-13.9691
α	-13.97
Б	-13.97
ы	-13.97
ت	-13.97
ু	-13.97
ದ	-13.97
ṃ	-13.97
′	-13.97
◎	-13.97
一	-13.97
语	-13.97
જ	-14.069
ന	-14.0691
ה	-14.07
ê	-14.07
ʊ	-14.07
ى	-14.07
ک	-14.07
ক	-14.07
দ	-14.07
૧	-14.07
ి	-14.07
ಂ	-14.07
ണ	-14.07
ള	-14.07
❯	-14.07
。	-14.07
し	-14.07
の	-14.07
デ	-14.07
マ	-14.07
🌸	-14.07
ñ	-14.1802
Þ	-14.1811
য	-14.1811
¶	-14.1811
א	-14.1811
ב	-14.1811
ુ	-14.1811
ం	-14.1811
న	-14.1811
ర	-14.1811
ᄌ	-14.1811
ḍ	-14.1811
ṁ	-14.1811
◉	-14.1811
☝	-14.1811
図	-14.1811
書	-14.1811
月	-14.1811
İ	-14.1811
ʃ	-14.1811
ч	-14.1811
^	-14.3051
Ž	-14.3052
¬	-14.3052
×	-14.3052
ऩ	-14.3052
È	-14.3061
̶	-14.3061
щ	-14.3061
ю	-14.3061
ר	-14.3061
ব	-14.3061
ল	-14.3061
স	-14.3061
ে	-14.3061
ટ	-14.3061
ழ	-14.3061
ಕ	-14.3061
ಗ	-14.3061
೦	-14.3061
റ	-14.3061
◦	-14.3061
⭐	-14.3061
か	-14.3061
ラ	-14.3061
增	-14.3061
전	-14.3061
💮	-14.3061
😊	-14.3061
ش	-14.3061
à	-14.448
¢	-14.448
👉	-14.448
🙏	-14.448
余	-14.449
ý	-14.449
ē	-14.449
ɛ	-14.449
П	-14.449
ט	-14.449
ॿ	-14.449
ো	-14.449
ਕ	-14.449
થ	-14.449
દ	-14.449
ળ	-14.449
ட	-14.449
ண	-14.449
ெ	-14.449
య	-14.449
వ	-14.449
ు	-14.449
ಡ	-14.449
സ	-14.449
ൊ	-14.449
♥	-14.449
お	-14.449
つ	-14.449
テ	-14.449
名	-14.449
音	-14.449
다	-14.449
🔹	-14.449
Ü	-14.449
ס	-14.449
ર	-14.6147
·	-14.6147
ō	-14.6157
є	-14.6157
מ	-14.6157
ح	-14.6157
æ	-14.6157
ĉ	-14.6157
ž	-14.6157
θ	-14.6157
π	-14.6157
گ	-14.6157
হ	-14.6157
ਾ	-14.6157
ણ	-14.6157
ભ	-14.6157
ற	-14.6157
ோ	-14.6157
త	-14.6157
ా	-14.6157
ಳ	-14.6157
ധ	-14.6157
∴	-14.6157
す	-14.6157
な	-14.6157
パ	-14.6157
年	-14.6157
꣯	-14.6157
사	-14.6157
🌿	-14.6157
🍃	-14.6157
🔅	-14.6157
行	-14.6157
ز	-14.6157
ق	-14.6157
ç	-14.8147
Ś	-14.8147
ી	-14.8147
ऍ	-14.8147
●	-14.8147
ऌ	-14.8147
¦	-14.8147
᳘	-14.8147
\	-14.8147
あ	-14.8157
음	-14.8157
Û	-14.8157
Œ	-14.8157
Ş	-14.8157
ǁ	-14.8157
ς	-14.8157
ш	-14.8157
э	-14.8157
ל	-14.8157
ة	-14.8157
ہ	-14.8157
۔	-14.8157
ە	-14.8157
থ	-14.8157
প	-14.8157
়	-14.8157
ਰ	-14.8157
ੀ	-14.8157
ି	-14.8157
ಪ	-14.8157
ಮ	-14.8157
ೀ	-14.8157
ഗ	-14.8157
ജ	-14.8157
ഷ	-14.8157
ས	-14.8157
ა	-14.8157
ṅ	-14.8157
‒	-14.8157
⇔	-14.8157
∫	-14.8157
⋆	-14.8157
▼	-14.8157
♀	-14.8157
✳	-14.8157
❇	-14.8157
く	-14.8157
シ	-14.8157
ネ	-14.8157
亦	-14.8157
🌄	-14.8157
🍁	-14.8157
🔗	-14.8157
🔶	-14.8157
😞	-14.8157
জ	-14.8157
ズ	-14.8157
知	-14.8157
ف	-14.8157
è	-15.0647
з	-15.0647
ˆ	-15.0647
🚩	-15.0647
̇	-15.0647
›	-15.0647
ƒ	-15.0657
不	-15.0657
觉	-15.0657
Ì	-15.0657
Ð	-15.0657
ä	-15.0657
ì	-15.0657
ô	-15.0657
ę	-15.0657
œ	-15.0657
Ι	-15.0657
β	-15.0657
ι	-15.0657
פ	-15.0657
ئ	-15.0657
ܐ	-15.0657
ܛ	-15.0657
ܦ	-15.0657
গ	-15.0657
ধ	-15.0657
ਲ	-15.0657
ધ	-15.0657
ફ	-15.0657
લ	-15.0657
ૐ	-15.0657
૦	-15.0657
૪	-15.0657
ஜ	-15.0657
ள	-15.0657
ஶ	-15.0657
ஷ	-15.0657
ொ	-15.0657
క	-15.0657
ల	-15.0657
స	-15.0657
ഞ	-15.0657
්	-15.0657
᳖	-15.0657
―	-15.0657
‰	-15.0657
≍	-15.0657
⛅	-15.0657
➛	-15.0657
➢	-15.0657
た	-15.0657
っ	-15.0657
と	-15.0657
ッ	-15.0657
リ	-15.0657
义	-15.0657
亲	-15.0657
人	-15.0657
何	-15.0657
僕	-15.0657
可	-15.0657
国	-15.0657
如	-15.0657
尔	-15.0657
应	-15.0657
彼	-15.0657
愛	-15.0657
我	-15.0657
故	-15.0657
无	-15.0657
氣	-15.0657
论	-15.0657
靈	-15.0657
낱	-15.0657
니	-15.0657
말	-15.0657
세	-15.0657
위	-15.0657
이	-15.0657
키	-15.0657
하	-15.0657
👌	-15.0657
🔍	-15.0657
ø	-15.0657
ρ	-15.0657
ك	-15.0657
て	-15.0657
的	-15.0657
ܒ	-15.0657
ܪ	-15.0657
પ	-15.398
ತ	-15.398
ந	-15.398
🌹	-15.398
î	-15.398
ન	-15.398
ऎ	-15.398
᳚	-15.398
ᴇ	-15.399
ら	-15.399
る	-15.399
生	-15.399
¿	-15.399
Â	-15.399
Ã	-15.399
ð	-15.399
ò	-15.399
õ	-15.399
ć	-15.399
č	-15.399
į	-15.399
ř	-15.399
ɔ	-15.399
ɜ	-15.399
ʁ	-15.399
ʏ	-15.399
Ψ	-15.399
η	-15.399
κ	-15.399
ο	-15.399
τ	-15.399
Й	-15.399
ג	-15.399
ש	-15.399
ת	-15.399
آ	-15.399
إ	-15.399
چ	-15.399
ܣ	-15.399
ং	-15.399
ট	-15.399
ৰ	-15.399
ৱ	-15.399
ਮ	-15.399
ਸ	-15.399
ੋ	-15.399
੍	-15.399
ઃ	-15.399
ચ	-15.399
ઞ	-15.399
ડ	-15.399
ષ	-15.399
૯	-15.399
ீ	-15.399
ே	-15.399
ಚ	-15.399
ಹ	-15.399
೨	-15.399
ീ	-15.399
ක	-15.399
ය	-15.399
ව	-15.399
ུ	-15.399
ზ	-15.399
ᄉ	-15.399
ᅩ	-15.399
ጻ	-15.399
ᛁ	-15.399
ᛖ	-15.399
Ủ	-15.399
⃣	-15.399
↔	-15.399
∈	-15.399
≈	-15.399
✥	-15.399
❁	-15.399
➜	-15.399
う	-15.399
き	-15.399
ま	-15.399
ア	-15.399
コ	-15.399
ス	-15.399
タ	-15.399
チ	-15.399
ト	-15.399
ン	-15.399
为	-15.399
京	-15.399
作	-15.399
依	-15.399
反	-15.399
因	-15.399
意	-15.399
成	-15.399
所	-15.399
新	-15.399
期	-15.399
果	-15.399
格	-15.399
梵	-15.399
比	-15.399
用	-15.399
相	-15.399
者	-15.399
薩	-15.399
说	-15.399
诸	-15.399
通	-15.399
遣	-15.399
释	-15.399
量	-15.399
間	-15.399
非	-15.399
颂	-15.399
대	-15.399
요	-15.399
𑑂	-15.399
🇵	-15.399
🌉	-15.399
🌙	-15.399
👫	-15.399
🔐	-15.399
🔔	-15.399
🔸	-15.399
😉	-15.399
😍	-15.399
🤝	-15.399
ě	-15.399
ν	-15.399
ج	-15.399
გ	-15.399
を	-15.399
能	-15.399
自	-15.399
브	-15.399
δ	-15.399
ი	-15.399
હ	-15.898
ರ	-15.898
✍	-15.898
ல	-15.898
ন	-15.898
❌	-15.898
¤	-15.898
🌷	-15.898
§	-15.898
£	-15.898
σ	-15.898
√	-15.898
€	-15.898
÷	-15.898
ऑ	-15.8981
晴	-15.899
素	-15.899
ɡ	-15.899
ק	-15.899
ص	-15.899
ф	-15.899
Å	-15.899
Ò	-15.899
ù	-15.899
ą	-15.899
Ċ	-15.899
ė	-15.899
ŋ	-15.899
ư	-15.899
ǒ	-15.899
ǔ	-15.899
ɒ	-15.899
̆	-15.899
ά	-15.899
χ	-15.899
Я	-15.899
ј	-15.899
ү	-15.899
ם	-15.899
ן	-15.899
נ	-15.899
ע	-15.899
أ	-15.899
ۆ	-15.899
ܠ	-15.899
ॾ	-15.899
ই	-15.899
ঘ	-15.899
চ	-15.899
ছ	-15.899
ী	-15.899
ਗ	-15.899
ਤ	-15.899
ਨ	-15.899
ਪ	-15.899
ਬ	-15.899
਼	-15.899
ਿ	-15.899
ੇ	-15.899
ੱ	-15.899
ઈ	-15.899
ઠ	-15.899
઼	-15.899
ૂ	-15.899
૨	-15.899
ଆ	-15.899
ଓ	-15.899
ଡ	-15.899
ପ	-15.899
ର	-15.899
ଲ	-15.899
଼	-15.899
ା	-15.899
ச	-15.899
డ	-15.899
ద	-15.899
ప	-15.899
ె	-15.899
ಃ	-15.899
ಭ	-15.899
ೇ	-15.899
೪	-15.899
ഛ	-15.899
ഥ	-15.899
ഭ	-15.899
ഹ	-15.899
ൂ	-15.899
ൈ	-15.899
ൻ	-15.899
ൽ	-15.899
ද	-15.899
ස	-15.899
ิ	-15.899
པ	-15.899
མ	-15.899
ཡ	-15.899
ལ	-15.899
ཧ	-15.899
ཱ	-15.899
ྥ	-15.899
ླ	-15.899
ᆬ	-15.899
ᛋ	-15.899
ᛚ	-15.899
᛫	-15.899
᭭	-15.899
ᳲ	-15.899
ḏ	-15.899
ṝ	-15.899
ắ	-15.899
Ἀ	-15.899
≠	-15.899
≡	-15.899
▷	-15.899
◊	-15.899
♡	-15.899
♫	-15.899
✌	-15.899
✒	-15.899
✧	-15.899
✨	-15.899
✺	-15.899
❣	-15.899
➥	-15.899
⦁	-15.899
《	-15.899
「	-15.899
」	-15.899
が	-15.899
さ	-15.899
ひ	-15.899
み	-15.899
む	-15.899
め	-15.899
や	-15.899
よ	-15.899
ん	-15.899
ジ	-15.899
バ	-15.899
プ	-15.899
ボ	-15.899
ロ	-15.899
三	-15.899
了	-15.899
事	-15.899
于	-15.899
从	-15.899
伟	-15.899
修	-15.899
八	-15.899
加	-15.899
各	-15.899
合	-15.899
吗	-15.899
员	-15.899
地	-15.899
堂	-15.899
天	-15.899
奪	-15.899
好	-15.899
安	-15.899
小	-15.899
尼	-15.899
广	-15.899
度	-15.899
异	-15.899
当	-15.899
整	-15.899
更	-15.899
械	-15.899
此	-15.899
泊	-15.899
然	-15.899
猫	-15.899
理	-15.899
白	-15.899
研	-15.899
祖	-15.899
程	-15.899
而	-15.899
身	-15.899
都	-15.899
间	-15.899
页	-15.899
首	-15.899
감	-15.899
교	-15.899
두	-15.899
라	-15.899
로	-15.899
리	-15.899
민	-15.899
서	-15.899
아	-15.899
어	-15.899
영	-15.899
완	-15.899
의	-15.899
인	-15.899
학	-15.899
한	-15.899
히	-15.899
𑐎	-15.899
𑐕	-15.899
𑐫	-15.899
𑐮	-15.899
𑐴	-15.899
𑐵	-15.899
𑑄	-15.899
𑑅	-15.899
🇦	-15.899
🇺	-15.899
🌈	-15.899
🌏	-15.899
🌼	-15.899
🍥	-15.899
🎉	-15.899
🎖	-15.899
🎯	-15.899
🐯	-15.899
👈	-15.899
👩	-15.899
👴	-15.899
💄	-15.899
💏	-15.899
💔	-15.899
💛	-15.899
💥	-15.899
📌	-15.899
📎	-15.899
📰	-15.899
🔰	-15.899
😄	-15.899
😅	-15.899
😘	-15.899
🙍	-15.899
🥀	-15.899
🥇	-15.899
ۇ	-15.899
具	-15.899
印	-15.899
声	-15.899
存	-15.899
有	-15.899
球	-15.899
许	-15.899
신	-15.899
ط	-15.899
和	-15.899
🩸	-16.8753
😒	-16.8754
📝	-16.8755
👨	-16.8756
👏	-16.8757
👍	-16.8758
주	-16.8759
좀	-16.876
예	-16.8761
슈	-16.8762
성	-16.8763
비	-16.8764
듬	-16.8765
급	-16.8766
공	-16.8767
第	-16.8768
立	-16.8769
益	-16.877
由	-16.8771
東	-16.8772
普	-16.8773
显	-16.8774
方	-16.8775
婆	-16.8776
外	-16.8777
哷	-16.8778
哲	-16.8779
卐	-16.878
北	-16.8781
切	-16.8782
六	-16.8783
全	-16.8784
代	-16.8785
五	-16.8786
上	-16.8787
・	-16.8788
も	-16.8789
に	-16.879
》	-16.8791
、	-16.8792
⚫	-16.8793
☰	-16.8794
☘	-16.8795
☑	-16.8796
≦	-16.8797
∅	-16.8798
ዝ	-16.8799
ብ	-16.88
ሕ	-16.8801
ཐ	-16.8802
ང	-16.8803
น	-16.8804
శ	-16.8805
అ	-16.8806
ஆ	-16.8807
૫	-16.8808
ઓ	-16.8809
ਅ	-16.881
খ	-16.8811
ڪ	-16.8812
٬	-16.8813
ً	-16.8814
غ	-16.8815
Ю	-16.8816
Ф	-16.8817
К	-16.8818
І	-16.8819
ό	-16.882
ε	-16.8821
Ú	-16.8822
💕	-16.8823
🍀	-16.8824
🌱	-16.8825
🌟	-16.8826
합	-16.8827
발	-16.8828
発	-16.8829
痛	-16.883
母	-16.8831
機	-16.8832
だ	-16.8833
✴	-16.8834
☀	-16.8835
◇	-16.8836
Ṛ	-16.8837
ག	-16.8838
ි	-16.8839
ා	-16.884
ൾ	-16.8841
ർ	-16.8842
ബ	-16.8843
ഈ	-16.8844
ಶ	-16.8845
ಬ	-16.8846
ಎ	-16.8847
ಉ	-16.8848
భ	-16.8849
ஸ	-16.885
پ	-16.8851
У	-16.8852
О	-16.8853
И	-16.8854
З	-16.8855
Ÿ	-16.8856
ğ	-16.8857
Ö	-16.8858
Á	-16.8859
😳	-16.886
😡	-16.8861
😜	-16.8862
👇	-16.8863
기	-16.8864
試	-16.8865
十	-16.8866
➤	-16.8867
♣	-16.8868
◄	-16.8869
⏳	-16.887
※	-16.8871
།	-16.8872
ഉ	-16.8873
ഇ	-16.8874
ആ	-16.8875
இ	-16.8876
ї	-16.8877
Э	-16.8878
Ц	-16.8879
ή	-16.888
Δ	-16.8881
̕	-16.8882
ʒ	-16.8883
ǀ	-16.8884
Ō	-16.8885
ß	-16.8886
😢	-16.8887
😎	-16.8888
😃	-16.8889
😀	-16.889
📚	-16.8891
⛳	-16.8892
ઉ	-16.8893
અ	-16.8894
Р	-16.8895
Н	-16.8896
А	-16.8897
Ј	-16.8898
φ	-16.8899
ˌ	-16.89
ż	-16.8901
Ā	-16.8902
🌻	-16.8903
ル	-16.8904
എ	-16.8905
మ	-16.8906
எ	-16.8907
উ	-16.8908
ܬ	-16.8909
ء	-16.891
Т	-16.8911
Д	-16.8912
В	-16.8913
̧	-16.8914
Ê	-16.8915
♂	-16.8916
▪	-16.8917
∆	-16.8918
ശ	-16.8919
ೆ	-16.892
ಯ	-16.8921
আ	-16.8922
Š	-16.8923
Ç	-16.8924
Æ	-16.8925
🔱	-16.8926
☆	-16.8927
▶	-16.8928
േ	-16.8929
ವ	-16.893
શ	-16.8931
Х	-16.8932
À	-16.8933
大	-16.8934
➡	-16.8935
◌	-16.8936
ಸ	-16.8937
̃	-16.8938
😂	-16.8939
💐	-16.894
ಲ	-16.8941
அ	-16.8942
ヒ	-16.8943
∠	-16.8944
🕉	-16.8945
၊	-16.8946
ോ	-16.8947
છ	-16.8948
М	-16.8949
̈	-16.895
š	-16.8951
❑	-16.8952
▲	-16.8953
̊	-16.8954
¡	-16.8955
র	-16.8956
അ	-16.8957
ऻ	-16.8958
બ	-16.8959
✅	-16.896
ऒ	-16.8961
െ	-16.8962
ം	-16.8963
∕	-16.8964
આ	-16.8965
Î	-16.8966
♦	-16.8967
વ	-16.8968
ு	-16.8969
🇮	-16.897
【	-16.8971
🇳	-16.8972
🙂	-16.8973
⇒	-16.8974
ു	-16.8975
✔	-16.8976
‐	-16.8977
Ø	-16.8978
৷	-16.8979
₹	-16.898
ગ	-16.8981
ಿ	-16.8981
â	-16.8981
†	-16.8981
🔥	-16.8981
ˈ	-16.8981
સ	-16.8981
ய	-16.8981
வ	-16.8981
་	-16.8981
©	-16.8981
ऄ	-16.8981
¥	-16.8981
ત	-16.8981
‡	-16.8981
≥	-16.8981
◆	-16.8981
★	-16.8981
ऴ	-16.8981
்	-16.8981
́	-16.8981
≤	-16.8982
‖	-16.8983
உ	-16.8984
ॠ	-16.8985
̄	-16.8986
►	-16.8987
ʻ	-16.8988
̣	-16.8989
ʟ	-16.899
你	-16.899
常	-16.899
灭	-16.899
现	-16.899
녹	-16.899
ń	-16.899
Ż	-16.899
Ч	-16.899
É	-16.899
Ë	-16.899
Õ	-16.899
å	-16.899
ë	-16.899
û	-16.899
þ	-16.899
ÿ	-16.899
ă	-16.899
ĕ	-16.899
Ę	-16.899
Ī	-16.899
Ķ	-16.899
Ŏ	-16.899
ŏ	-16.899
ť	-16.899
Ů	-16.899
ų	-16.899
Ǒ	-16.899
ȧ	-16.899
Ȩ	-16.899
ȯ	-16.899
ʈ	-16.899
ʉ	-16.899
ʋ	-16.899
ʌ	-16.899
ʿ	-16.899
ˎ	-16.899
ˑ	-16.899
̍	-16.899
̖	-16.899
̠	-16.899
̪	-16.899
Ά	-16.899
Κ	-16.899
Μ	-16.899
Ο	-16.899
Σ	-16.899
Φ	-16.899
Ω	-16.899
ζ	-16.899
ω	-16.899
Е	-16.899
Л	-16.899
ё	-16.899
ў	-16.899
ҫ	-16.899
ә	-16.899
Ө	-16.899
Ե	-16.899
Կ	-16.899
Հ	-16.899
ա	-16.899
ե	-16.899
ն	-16.899
ր	-16.899
ւ	-16.899
ַ	-16.899
ד	-16.899
כ	-16.899
ף	-16.899
צ	-16.899
ײ	-16.899
؞	-16.899
خ	-16.899
ذ	-16.899
ُ	-16.899
ِ	-16.899
٫	-16.899
ٰ	-16.899
ٹ	-16.899
ټ	-16.899
ڌ	-16.899
ں	-16.899
ھ	-16.899
ۂ	-16.899
ܕ	-16.899
ܚ	-16.899
ܟ	-16.899
ॱ	-16.899
ॵ	-16.899
ॺ	-16.899
ॼ	-16.899
এ	-16.899
ঠ	-16.899
ড	-16.899
ঢ	-16.899
ণ	-16.899
ষ	-16.899
ৃ	-16.899
০	-16.899
৩	-16.899
৭	-16.899
ਂ	-16.899
ਇ	-16.899
ਊ	-16.899
ਏ	-16.899
ਖ	-16.899
ਜ	-16.899
ਟ	-16.899
ਡ	-16.899
ਣ	-16.899
ਦ	-16.899
ੁ	-16.899
ੂ	-16.899
ੰ	-16.899
ખ	-16.899
ઝ	-16.899
ૃ	-16.899
ૠ	-16.899
૩	-16.899
૬	-16.899
૭	-16.899
૮	-16.899
ଃ	-16.899
କ	-16.899
ଖ	-16.899
ତ	-16.899
ଭ	-16.899
େ	-16.899
୍	-16.899
ୟ	-16.899
ஐ	-16.899
ஹ	-16.899
ூ	-16.899
ை	-16.899
ఉ	-16.899
ఎ	-16.899
ఓ	-16.899
చ	-16.899
జ	-16.899
ధ	-16.899
ఫ	-16.899
ష	-16.899
హ	-16.899
ే	-16.899
ై	-16.899
ో	-16.899
ಅ	-16.899
ಇ	-16.899
ಜ	-16.899
ಟ	-16.899
ಠ	-16.899
ೂ	-16.899
ೃ	-16.899
ೊ	-16.899
ೋ	-16.899
೧	-16.899
೩	-16.899
ೲ	-16.899
ഖ	-16.899
ഠ	-16.899
ഴ	-16.899
ൃ	-16.899
ග	-16.899
ත	-16.899
න	-16.899
ප	-16.899
ම	-16.899
ල	-16.899
ශ	-16.899
ො	-16.899
ค	-16.899
ง	-16.899
ด	-16.899
ต	-16.899
บ	-16.899
พ	-16.899
ฟ	-16.899
ม	-16.899
ร	-16.899
ห	-16.899
อ	-16.899
ฮ	-16.899
ั	-16.899
า	-16.899
ี	-16.899
เ	-16.899
โ	-16.899
่	-16.899
้	-16.899
༔	-16.899
༡	-16.899
༣	-16.899
༨	-16.899
ཁ	-16.899
ཊ	-16.899
ན	-16.899
བ	-16.899
ཚ	-16.899
ཝ	-16.899
ཟ	-16.899
ཥ	-16.899
ི	-16.899
ྀ	-16.899
ྒ	-16.899
ྨ	-16.899
ྭ	-16.899
ྱ	-16.899
ྲ	-16.899
დ	-16.899
ე	-16.899
ვ	-16.899
თ	-16.899
ლ	-16.899
ნ	-16.899
რ	-16.899
უ	-16.899
ሉ	-16.899
ሩ	-16.899
በ	-16.899
ቮ	-16.899
እ	-16.899
ኳ	-16.899
ገ	-16.899
ፂ	-16.899
ፃ	-16.899
፪	-16.899
ᒃ	-16.899
ᒄ	-16.899
ᒎ	-16.899
ᓚ	-16.899
ᗢ	-16.899
ᘏ	-16.899
ᚨ	-16.899
ᚩ	-16.899
ᚻ	-16.899
ᚾ	-16.899
ᛏ	-16.899
ᛗ	-16.899
ᛞ	-16.899
ᭅ	-16.899
᭠	-16.899
ᮩ	-16.899
᮰	-16.899
ᱧ	-16.899
Ჱ	-16.899
᳒	-16.899
ᳬ	-16.899
ᴀ	-16.899
Ḩ	-16.899
ế	-16.899
ệ	-16.899
ὁ	-16.899
ὕ	-16.899
ὸ	-16.899
ῖ	-16.899
₩	-16.899
↓	-16.899
↕	-16.899
↗	-16.899
↩	-16.899
↲	-16.899
⇏	-16.899
∖	-16.899
∙	-16.899
∝	-16.899
∩	-16.899
∵	-16.899
⊂	-16.899
⊃	-16.899
⊕	-16.899
▀	-16.899
□	-16.899
△	-16.899
☁	-16.899
☸	-16.899
☹	-16.899
☺	-16.899
♈	-16.899
♉	-16.899
♻	-16.899
⚏	-16.899
⚕	-16.899
⚡	-16.899
⚪	-16.899
⛈	-16.899
⛹	-16.899
✖	-16.899
✦	-16.899
✪	-16.899
✹	-16.899
✼	-16.899
✿	-16.899
❗	-16.899
➖	-16.899
➞	-16.899
➦	-16.899
➨	-16.899
⟶	-16.899
⟷	-16.899
⠀	-16.899
⭕	-16.899
〈	-16.899
け	-16.899
げ	-16.899
ご	-16.899
ざ	-16.899
ち	-16.899
で	-16.899
ど	-16.899
は	-16.899
ゃ	-16.899
れ	-16.899
イ	-16.899
エ	-16.899
オ	-16.899
ク	-16.899
グ	-16.899
セ	-16.899
ゼ	-16.899
ソ	-16.899
ツ	-16.899
ナ	-16.899
ノ	-16.899
ピ	-16.899
ポ	-16.899
ャ	-16.899
ョ	-16.899
七	-16.899
与	-16.899
世	-16.899
中	-16.899
习	-16.899
乱	-16.899
二	-16.899
互	-16.899
介	-16.899
仕	-16.899
份	-16.899
休	-16.899
位	-16.899
使	-16.899
個	-16.899
倒	-16.899
健	-16.899
元	-16.899
入	-16.899
其	-16.899
円	-16.899
册	-16.899
决	-16.899
出	-16.899
划	-16.899
列	-16.899
利	-16.899
别	-16.899
到	-16.899
副	-16.899
助	-16.899
化	-16.899
卍	-16.899
南	-16.899
叉	-16.899
发	-16.899
口	-16.899
句	-16.899
同	-16.899
吥	-16.899
吸	-16.899
告	-16.899
咒	-16.899
哉	-16.899
哥	-16.899
唯	-16.899
喝	-16.899
嘅	-16.899
器	-16.899
四	-16.899
固	-16.899
國	-16.899
域	-16.899
報	-16.899
境	-16.899
处	-16.899
复	-16.899
多	-16.899
夜	-16.899
夢	-16.899
奖	-16.899
威	-16.899
孕	-16.899
字	-16.899
学	-16.899
官	-16.899
定	-16.899
宦	-16.899
尊	-16.899
少	-16.899
属	-16.899
岂	-16.899
工	-16.899
师	-16.899
席	-16.899
康	-16.899
廬	-16.899
引	-16.899
弥	-16.899
影	-16.899
得	-16.899
徹	-16.899
忘	-16.899
念	-16.899
性	-16.899
惑	-16.899
感	-16.899
憶	-16.899
戻	-16.899
执	-16.899
投	-16.899
摩	-16.899
收	-16.899
改	-16.899
政	-16.899
效	-16.899
文	-16.899
日	-16.899
时	-16.899
星	-16.899
是	-16.899
最	-16.899
朝	-16.899
杂	-16.899
某	-16.899
染	-16.899
查	-16.899
栄	-16.899
检	-16.899
模	-16.899
権	-16.899
款	-16.899
止	-16.899
民	-16.899
永	-16.899
求	-16.899
汇	-16.899
没	-16.899
流	-16.899
消	-16.899
添	-16.899
熟	-16.899
父	-16.899
牙	-16.899
班	-16.899
疆	-16.899
發	-16.899
直	-16.899
破	-16.899
离	-16.899
秘	-16.899
稱	-16.899
究	-16.899
章	-16.899
答	-16.899
简	-16.899
类	-16.899
終	-16.899
続	-16.899
網	-16.899
繁	-16.899
维	-16.899
肉	-16.899
花	-16.899
若	-16.899
英	-16.899
葬	-16.899
處	-16.899
蛟	-16.899
蝶	-16.899
衆	-16.899
表	-16.899
西	-16.899
见	-16.899
观	-16.899
视	-16.899
解	-16.899
言	-16.899
記	-16.899
訳	-16.899
論	-16.899
讓	-16.899
计	-16.899
讨	-16.899
话	-16.899
贪	-16.899
越	-16.899
足	-16.899
車	-16.899
转	-16.899
辦	-16.899
达	-16.899
过	-16.899
运	-16.899
返	-16.899
追	-16.899
逝	-16.899
進	-16.899
那	-16.899
金	-16.899
鉄	-16.899
错	-16.899
长	-16.899
闻	-16.899
阿	-16.899
除	-16.899
陸	-16.899
障	-16.899
雨	-16.899
電	-16.899
響	-16.899
願	-16.899
须	-16.899
飞	-16.899
飲	-16.899
龙	-16.899
꣫	-16.899
ꣲ	-16.899
가	-16.899
간	-16.899
개	-16.899
게	-16.899
고	-16.899
과	-16.899
국	-16.899
금	-16.899
깨	-16.899
나	-16.899
냐	-16.899
는	-16.899
달	-16.899
더	-16.899
동	-16.899
따	-16.899
뜨	-16.899
락	-16.899
레	-16.899
력	-16.899
름	-16.899
만	-16.899
망	-16.899
맵	-16.899
몸	-16.899
못	-16.899
뭐	-16.899
받	-16.899
백	-16.899
번	-16.899
법	-16.899
봇	-16.899
산	-16.899
상	-16.899
수	-16.899
술	-16.899
쉬	-16.899
스	-16.899
승	-16.899
시	-16.899
없	-16.899
에	-16.899
염	-16.899
외	-16.899
우	-16.899
운	-16.899
월	-16.899
을	-16.899
입	-16.899
있	-16.899
자	-16.899
적	-16.899
절	-16.899
정	-16.899
조	-16.899
증	-16.899
지	-16.899
째	-16.899
청	-16.899
크	-16.899
탄	-16.899
탑	-16.899
터	-16.899
트	-16.899
특	-16.899
팅	-16.899
파	-16.899
함	-16.899
허	-16.899
효	-16.899
힌	-16.899
힘	-16.899
︎	-16.899
𑆤	-16.899
𑌏	-16.899
𑌥	-16.899
𑌫	-16.899
𑌮	-16.899
𑌸	-16.899
𑐰	-16.899
𑑀	-16.899
🅰	-16.899
🇱	-16.899
🇸	-16.899
🇹	-16.899
🌀	-16.899
🌃	-16.899
🌅	-16.899
🌍	-16.899
🌎	-16.899
🌖	-16.899
🌛	-16.899
🌝	-16.899
🌠	-16.899
🌰	-16.899
🌴	-16.899
🍋	-16.899
🍾	-16.899
🎂	-16.899
🎃	-16.899
🎊	-16.899
🎋	-16.899
🎎	-16.899
🎓	-16.899
🎤	-16.899
🎵	-16.899
🎶	-16.899
🎼	-16.899
🏀	-16.899
🏃	-16.899
🏏	-16.899
🏠	-16.899
🏮	-16.899
🏷	-16.899
🏹	-16.899
🏽	-16.899
🐕	-16.899
🐙	-16.899
👆	-16.899
👞	-16.899
👣	-16.899
👦	-16.899
👧	-16.899
👱	-16.899
💑	-16.899
💓	-16.899
💖	-16.899
💗	-16.899
💘	-16.899
💚	-16.899
💝	-16.899
💠	-16.899
💦	-16.899
💧	-16.899
💫	-16.899
💰	-16.899
💱	-16.899
💵	-16.899
📂	-16.899
📏	-16.899
📕	-16.899
📢	-16.899
📣	-16.899
📱	-16.899
📳	-16.899
📸	-16.899
📺	-16.899
🔟	-16.899
🔷	-16.899
🔺	-16.899
🔻	-16.899
🕔	-16.899
🖊	-16.899
🖱	-16.899
🗃	-16.899
🗒	-16.899
🗣	-16.899
🗳	-16.899
😇	-16.899
😌	-16.899
😔	-16.899
😝	-16.899
😩	-16.899
🙁	-16.899
🙅	-16.899
🙆	-16.899
🙌	-16.899
🙎	-16.899
🚑	-16.899
🚷	-16.899
🛡	-16.899
🤔	-16.899
🤗	-16.899
🤦	-16.899
🤩	-16.899
🤪	-16.899
🤲	-16.899
🥂	-16.899
🥰	-16.899
🦂	-16.899
🧐	-16.899
ڼ	-16.899
(	-16.899
ს	-16.899
ც	-16.899
后	-16.899
寝	-16.899
废	-16.899
紅	-16.899
茶	-16.899
面	-16.899
韩	-16.899
임	-16.899
중	-16.899
