<unk>	0
<s>	0
</s>	0
▁स	-0
▁ा	-1
्य	-2
▁त	-3
▁प	-4
▁व	-5
्र	-6
▁क	-7
▁म	-8
▁न	-9
▁।	-10
्त	-11
▁य	-12
▁े	-13
▁ि	-14
र्	-15
▁ं	-16
▁द	-17
▁अ	-18
▁ः	-19
्व	-20
▁र	-21
▁भ	-22
▁श	-23
▁प्र	-24
ति	-25
▁च	-26
▁वि	-27
▁ो	-28
▁ज	-29
▁-	-30
▁ग	-31
त्	-32
▁्य	-33
▁ह	-34
▁्	-35
ान	-36
▁इ	-37
▁ी	-38
▁ल	-39
ष्	-40
ार	-41
▁म्	-42
▁ान	-43
▁ु	-44
▁ध	-45
्ष	-46
▁॥	-47
▁्र	-48
▁ए	-49
ित	-50
▁,	-51
ां	-52
▁.	-53
▁ब	-54
म्	-55
▁स्य	-56
▁र्	-57
▁ते	-58
▁आ	-59
▁स्	-60
न्	-61
▁"	-62
▁नि	-63
▁वा	-64
र्व	-65
▁ित	-66
ृत	-67
क्ष	-68
द्	-69
त्र	-70
▁सं	-71
ाम	-72
▁उ	-73
▁पर	-74
्ति	-75
था	-76
▁पु	-77
्च	-78
▁्व	-79
्या	-80
ष्ट	-81
▁भव	-82
▁(	-83
▁ै	-84
▁ण	-85
▁त्व	-86
▁मा	-87
क्त	-88
ेव	-89
▁ाः	-90
▁सम	-91
▁१	-92
▁इति	-93
▁या	-94
▁ति	-95
▁ेन	-96
त्य	-97
ते	-98
▁रा	-99
▁सर्व	-100
स्	-101
पि	-102
▁ाद	-103
▁भा	-104
▁एव	-105
▁न्त	-106
▁न्	-107
▁यो	-108
▁तु	-109
▁स्व	-110
▁क्ष	-111
▁सा	-112
स्य	-113
▁कर	-114
्ञ	-115
या	-116
▁'	-117
ङ्	-118
▁कार	-119
र्थ	-120
▁२	-121
▁_	-122
▁का	-123
▁)	-124
द्ध	-125
▁त्	-126
▁1	-127
▁स्त	-128
▁सु	-129
न्त	-130
▁ाय	-131
▁ख	-132
▁ू	-133
▁ात्	-134
▁त्र	-135
ना	-136
▁मु	-137
▁हि	-138
मा	-139
▁०	-140
ेश	-141
दा	-142
▁वर्	-143
▁िक	-144
▁कि	-145
िक	-146
▁व्य	-147
▁पू	-148
▁पा	-149
तः	-150
स्त	-151
▁अन	-152
▁ना	-153
▁्या	-154
▁यु	-155
▁ष	-156
▁ार	-157
▁ता	-158
▁इत्य	-159
▁दि	-160
▁ौ	-161
▁स्थ	-162
▁ेष	-163
▁ज्ञ	-164
▁क्र	-165
्न	-166
र्म	-167
▁कु	-168
▁2	-169
▁?	-170
▁देव	-171
▁ाण	-172
▁ये	-173
▁्त	-174
मि	-175
▁श्र	-176
्छ	-177
▁ानि	-178
ष्ठ	-179
▁भू	-180
▁ऽ	-181
▁यद	-182
▁पि	-183
त्त	-184
▁मह	-185
▁यथा	-186
▁ाप	-187
▁ृ	-188
▁0	-189
▁राज	-190
▁मे	-191
▁दृ	-192
▁ट	-193
▁कृत	-194
▁प्रति	-195
▁द्व	-196
▁घ	-197
▁अस	-198
▁एक	-199
ात	-200
▁गु	-201
▁थ	-202
ूप	-203
यं	-204
▁मान	-205
ेष	-206
▁परि	-207
ेद	-208
▁३	-209
▁विश	-210
▁फ	-211
▁ानां	-212
▁ङ्	-213
▁पुन	-214
▁ाव	-215
▁वर	-216
िय	-217
▁सह	-218
▁श्च	-219
▁दु	-220
▁तथा	-221
▁ग्र	-222
▁ास	-223
▁तद	-224
▁भि	-225
▁४	-226
ेत	-227
▁नु	-228
द्य	-229
ाय	-230
▁तत्	-231
▁काल	-232
▁्वा	-233
▁ेण	-234
श्च	-235
▁सि	-236
भा	-237
श्य	-238
▁ेव	-239
▁त्य	-240
▁सू	-241
ीय	-242
ान्	-243
द्र	-244
▁तः	-245
▁देश	-246
▁५	-247
▁ार्थ	-248
▁भवति	-249
▁ेषु	-250
▁ां	-251
▁िन	-252
▁रूप	-253
च्छ	-254
▁यति	-255
▁रि	-256
▁ाह	-257
ब्	-258
▁रु	-259
ोक	-260
ेन	-261
रण	-262
▁वै	-263
ता	-264
▁वर्ष	-265
▁ादि	-266
▁ान्	-267
▁॒	-268
▁िः	-269
ीत	-270
▁कथ	-271
▁मन	-272
▁पुर	-273
▁उप	-274
ृह	-275
▁किं	-276
▁र्थ	-277
▁ाल	-278
▁पूर्व	-279
▁ैः	-280
ध्य	-281
▁न्य	-282
▁तस्य	-283
▁यत्	-284
▁शि	-285
▁ेत	-286
▁सम्	-287
भि	-288
▁मि	-289
▁गृह	-290
▁ीय	-291
▁ड	-292
▁९	-293
▁भाष	-294
▁जन	-295
▁पद	-296
▁ान्त	-297
▁प्रा	-298
▁भाव	-299
यो	-300
▁द्	-301
▁3	-302
▁योग	-303
▁/	-304
▁६	-305
ञ्च	-306
ास	-307
▁एत	-308
▁अपि	-309
▁छ	-310
न्द	-311
▁विष	-312
▁र्त	-313
ैव	-314
▁ोऽ	-315
▁यदि	-316
▁:	-317
▁विध	-318
▁कृ	-319
▁७	-320
र्ण	-321
यः	-322
▁नाम	-323
▁८	-324
▁कर्म	-325
्ड	-326
्प	-327
ाद	-328
ाल	-329
▁तत्र	-330
▁ाम	-331
▁लोक	-332
▁शक	-333
▁रो	-334
ब्द	-335
▁न्ति	-336
▁लि	-337
▁वृत	-338
▁धिक	-339
▁याम	-340
▁कल	-341
▁त्त	-342
▁धर्म	-343
▁को	-344
▁अस्ति	-345
▁वृ	-346
▁्म	-347
▁ज्ञान	-348
न्ध	-349
▁मम	-350
र्श	-351
ाः	-352
▁!	-353
▁गुण	-354
भव	-355
क्	-356
▁जी	-357
्ल	-358
▁गत	-359
▁शब्द	-360
ये	-361
▁ात	-362
▁िद	-363
▁4	-364
▁कार्य	-365
▁एवं	-366
▁बह	-367
▁स्म	-368
▁॑	-369
ीर	-370
▁ष्ट	-371
न्न	-372
▁अध	-373
▁अह	-374
▁न्त्र	-375
▁वृत्त	-376
िष्	-377
ङ्ग	-378
▁शु	-379
▁दृष्ट	-380
▁5	-381
▁ेति	-382
▁तम	-383
▁व्या	-384
▁ृत	-385
▁पुनः	-386
▁के	-387
ुत	-388
▁अथ	-389
▁मित	-390
▁ाणि	-391
▁अनु	-392
▁निर्	-393
▁त्वं	-394
▁ती	-395
्वा	-396
▁मध्य	-397
▁जीव	-398
▁धन	-399
▁ाप्त	-400
व्य	-401
▁फल	-402
▁भूत	-403
मान	-404
न्ति	-405
▁द्य	-406
ाह	-407
▁ेश	-408
▁तव	-409
▁भाग	-410
▁यां	-411
्ज	-412
▁ुर	-413
कृत	-414
प्त	-415
▁विद्य	-416
वि	-417
▁पुत्र	-418
ुष	-419
▁[	-420
▁युक्त	-421
र्ग	-422
▁ाध	-423
▁दर्श	-424
▁ॊ	-425
▁अप	-426
▁मू	-427
▁ैव	-428
ज्ञ	-429
▁वेद	-430
▁महा	-431
▁यः	-432
▁्थ	-433
▁कर्त	-434
▁वे	-435
▁ततः	-436
▁भार	-437
▁विशेष	-438
नि	-439
▁=	-440
▁लक्ष	-441
ोत	-442
▁समा	-443
▁्मि	-444
▁ित्	-445
▁पृ	-446
▁s	-447
्यं	-448
▁रक्ष	-449
▁िर	-450
▁वस	-451
▁तेन	-452
▁िति	-453
गु	-454
भ्य	-455
▁त्रि	-456
▁दश	-457
▁ुक्त	-458
▁सिद्ध	-459
▁विश्व	-460
▁तस्	-461
▁9	-462
▁तदा	-463
तो	-464
▁ाग	-465
▁ङ्ग	-466
▁्मिन्	-467
▁दी	-468
▁ग्रह	-469
▁8	-470
्वर	-471
▁कल्प	-472
▁वर्त	-473
▁आस	-474
हि	-475
का	-476
▁सः	-477
▁तो	-478
▁चित	-479
▁ई	-480
▁करो	-481
▁स्थित	-482
ेत्	-483
▁चि	-484
▁6	-485
▁द्वि	-486
चन	-487
कार	-488
▁न्द्र	-489
▁शा	-490
त्तर	-491
▁दिन	-492
ुं	-493
मन	-494
ख्य	-495
▁दृश्य	-496
▁दे	-497
▁वान्	-498
▁न्ते	-499
▁7	-500
▁दान	-501
▁ाच	-502
▁क्षि	-503
▁करण	-504
▁जा	-505
▁तद्	-506
▁केव	-507
▁योज	-508
▁बहु	-509
▁्त्र	-510
▁पी	-511
▁क्रम	-512
▁केवल	-513
▁्यते	-514
▁धार	-515
भाव	-516
▁n	-517
▁िय	-518
▁]	-519
▁िं	-520
▁ला	-521
▁तेष	-522
▁अन्य	-523
▁ेः	-524
▁ोप	-525
प्र	-526
▁मेव	-527
▁ाणां	-528
▁िव	-529
▁ने	-530
▁वन	-531
▁क्रिय	-532
▁भेद	-533
▁बल	-534
▁यामि	-535
्याय	-536
दं	-537
▁ञ	-538
▁प्रथ	-539
ोध	-540
▁ानु	-541
▁कथं	-542
रे	-543
▁च्छ	-544
तु	-545
▁पित	-546
▁ात्र	-547
▁ोक्त	-548
▁स्तु	-549
▁याः	-550
▁t	-551
▁हित	-552
▁न्न	-553
▁ापि	-554
ोष	-555
▁बु	-556
▁्ल	-557
▁मया	-558
▁िण	-559
▁पुरुष	-560
▁तं	-561
▁सुख	-562
▁वर्ण	-563
▁औ	-564
▁र्व	-565
▁न्द	-566
▁प्रथम	-567
▁+	-568
▁री	-569
च्य	-570
▁;	-571
▁अव	-572
▁सो	-573
▁ऋ	-574
▁वाद	-575
▁काम	-576
▁अत्र	-577
▁दू	-578
▁ामि	-579
ेण	-580
▁दा	-581
▁राष्ट	-582
▁स्थान	-583
▁साध	-584
▁दुः	-585
्यते	-586
▁अभि	-587
्म	-588
▁कारण	-589
्नि	-590
गर	-591
▁नम	-592
▁्प	-593
ीत्	-594
▁हं	-595
▁जल	-596
ती	-597
▁न्व	-598
रु	-599
▁अहं	-600
ण्ड	-601
▁क्	-602
ेक	-603
▁वद	-604
▁--	-605
▁भविष्	-606
▁सप्त	-607
ीन	-608
चार	-609
▁वचन	-610
वा	-611
▁सम्प	-612
▁भाषा	-613
योग	-614
▁मो	-615
▁जात	-616
▁तर	-617
▁विषय	-618
▁एष	-619
▁ेऽ	-620
▁र्म	-621
ष्ण	-622
▁राज्य	-623
▁रण	-624
▁S	-625
▁अत	-626
▁हर	-627
▁पूज	-628
▁कः	-629
ृद	-630
थि	-631
▁निर	-632
▁ितः	-633
▁र्तते	-634
▁जग	-635
▁परम	-636
▁मत	-637
▁ार्	-638
▁अर्थ	-639
▁भारत	-640
ष्य	-641
▁ुं	-642
▁तर्	-643
▁क्त	-644
▁ष्ठ	-645
यम	-646
▁मां	-647
▁्ब	-648
▁भो	-649
ेय	-650
▁रस	-651
▁तया	-652
▁*	-653
▁य्	-654
▁गच्छ	-655
▁भ्य	-656
र्य	-657
▁गो	-658
▁ृष्ठ	-659
▁ाक्ष	-660
▁भिः	-661
▁चा	-662
▁तां	-663
वस	-664
▁शत	-665
▁ध्य	-666
▁मध्ये	-667
▁वत्	-668
▁यत्र	-669
▁्रा	-670
▁शी	-671
▁दुःख	-672
▁नो	-673
ानि	-674
▁ेत्	-675
▁सौ	-676
▁िश	-677
▁्यात्	-678
सा	-679
▁ठ	-680
▁ात्म	-681
स्तु	-682
▁ालय	-683
▁पश्य	-684
▁a	-685
▁हे	-686
▁ॐ	-687
▁ाक	-688
▁दोष	-689
▁लक्षण	-690
▁नं	-691
▁शक्ति	-692
▁ाश	-693
▁पे	-694
▁्न	-695
▁नी	-696
▁श्व	-697
▁काले	-698
▁मूल	-699
▁क्षिण	-700
न्म	-701
▁तस	-702
▁तस्मा	-703
▁धिकार	-704
▁मात्र	-705
▁से	-706
▁वाक	-707
▁यम	-708
ित्य	-709
▁भग	-710
▁वार	-711
▁िका	-712
▁विना	-713
▁यदा	-714
▁सर्वे	-715
ृश	-716
▁अतः	-717
▁ँ	-718
▁येत्	-719
▁्रि	-720
▁ब्र	-721
▁उत्तर	-722
▁पञ्च	-723
▁आसीत्	-724
▁हृद	-725
▁्यं	-726
▁वृद्ध	-727
▁कदा	-728
▁हेत	-729
▁धि	-730
▁करोति	-731
▁क्षेत	-732
▁ैक	-733
▁संस	-734
▁धा	-735
▁्ध	-736
▁्रह	-737
▁योः	-738
▁विक	-739
▁्यां	-740
देश	-741
▁बुद्ध	-742
▁m	-743
यु	-744
▁क्व	-745
▁i	-746
पर	-747
▁बाल	-748
ङ्क	-749
▁मिति	-750
▁ाद्	-751
▁माण	-752
▁श्रुत	-753
▁ओ	-754
▁ैर्	-755
▁ुप	-756
▁शक्य	-757
▁सद	-758
▁A	-759
▁नमः	-760
▁तेषां	-761
▁मय	-762
▁िता	-763
▁वाक्य	-764
▁मान्य	-765
▁िह	-766
▁त्स	-767
▁च्च	-768
▁िम	-769
▁__	-770
▁पक्ष	-771
▁ेभ्य	-772
▁िल	-773
▁शर	-774
▁यस	-775
▁मुख	-776
रा	-777
▁अन्त	-778
▁कुर्व	-779
▁भवेत्	-780
▁राम	-781
▁ण्ड	-782
त्प	-783
▁ास्	-784
▁संश	-785
▁क्षण	-786
▁e	-787
▁ीति	-788
▁परा	-789
▁ास्ति	-790
▁्त्री	-791
▁व्र	-792
▁प्राण	-793
▁पूर्ण	-794
▁सी	-795
▁मुक्त	-796
▁नगर	-797
▁इत	-798
स्र	-799
▁सर्वं	-800
षे	-801
▁दत्त	-802
▁बन्ध	-803
▁जन्म	-804
▁यं	-805
▁तथ	-806
▁ान्तर	-807
▁रे	-808
्यात	-809
▁स्प	-810
▁्ट	-811
▁पर्य	-812
▁ज्ञात	-813
▁ाभ	-814
ून	-815
▁अग	-816
▁अस्य	-817
▁तर्हि	-818
▁शेष	-819
काश	-820
▁सूच	-821
▁जाय	-822
▁ित्य	-823
ान्त	-824
▁दर्शन	-825
▁ेक	-826
▁यस्य	-827
▁तत	-828
▁एवम	-829
▁भय	-830
▁पाप	-831
▁्री	-832
▁स्कृत	-833
▁भगव	-834
▁इदं	-835
▁घट	-836
▁द्र	-837
▁चर	-838
▁परं	-839
▁ीन	-840
▁था	-841
▁निव	-842
यन	-843
▁सहस्र	-844
▁्यक्त	-845
▁नव	-846
▁त्यय	-847
▁ज्ज	-848
▁चार	-849
▁सत्य	-850
दि	-851
▁शास्त	-852
▁ाभि	-853
▁यज्ञ	-854
▁ेषां	-855
▁विधि	-856
▁यन्ति	-857
▁c	-858
च्च	-859
▁ऊ	-860
▁वाच	-861
▁र्ष	-862
र्त	-863
▁हस्त	-864
ष्म	-865
▁यत	-866
▁सदा	-867
▁नर	-868
▁I	-869
▁ाना	-870
▁्वर	-871
▁साम	-872
▁वास	-873
▁वयं	-874
▁र्ज	-875
▁नां	-876
▁ले	-877
▁्मा	-878
▁वय	-879
▁पुं	-880
▁किम	-881
▁पाठ	-882
▁र्थः	-883
▁प्रिय	-884
न्तु	-885
▁o	-886
▁इव	-887
▁की	-888
▁यू	-889
▁णा	-890
▁मार्ग	-891
▁ञ्च	-892
▁पठ	-893
▁इह	-894
▁मास	-895
धान	-896
▁म्ब	-897
▁सन्ति	-898
▁ेत्य	-899
र्ष	-900
▁नियम	-901
▁अयं	-902
▁झ	-903
▁्रह्म	-904
▁T	-905
▁व्याप	-906
▁>	-907
▁यद्	-908
▁विद	-909
▁प्य	-910
▁वर्षे	-911
▁गण	-912
▁यात	-913
▁मित्र	-914
▁पुनर्	-915
माण	-916
▁सेव	-917
▁र्ध	-918
▁त्त्व	-919
▁शिक्ष	-920
▁ततो	-921
▁ञ्ज	-922
▁और	-923
▁येन	-924
▁पुनर	-925
▁वाह	-926
▁धान	-927
▁ह्य	-928
▁देह	-929
▁ङ्क	-930
▁द्ध	-931
▁ेय	-932
▁ंत	-933
▁ेद	-934
ीं	-935
▁भ्र	-936
▁ाम्	-937
थाप	-938
▁त्या	-939
▁ानाम	-940
▁्यक्ष	-941
णा	-942
त्तम	-943
▁ेश्वर	-944
▁ल्	-945
▁यत्न	-946
▁विभा	-947
▁िनः	-948
▁केवलं	-949
▁मी	-950
▁ढ	-951
▁ृत्वा	-952
त्व	-953
▁ीत	-954
▁P	-955
▁काश	-956
▁यित	-957
▁शुभ	-958
▁वक्त	-959
▁मृत	-960
▁चित्र	-961
दृश	-962
▁्वि	-963
▁न्याय	-964
▁ख्यात	-965
▁ान्य	-966
ब्ध	-967
स्थ	-968
▁र्य	-969
▁हार	-970
िर	-971
▁्रश	-972
▁वस्तु	-973
▁िर्	-974
▁़	-975
▁षु	-976
▁ध्व	-977
▁पाद	-978
▁्रिया	-979
▁तिष्ठ	-980
▁सूर्य	-981
▁चतु	-982
▁ाश्च	-983
▁कृति	-984
▁ीक्ष	-985
▁न्तु	-986
▁एतत्	-987
▁r	-988
▁ैर	-989
▁ज्य	-990
▁रीक्ष	-991
▁सन्	-992
▁मुद्र	-993
▁्बन्ध	-994
▁ंग	-995
▁्रिय	-996
▁स्न	-997
▁सार	-998
▁मपि	-999
▁शिष्ट	-1000
▁जायते	-1001
▁पुरा	-1002
▁न्तर	-1003
▁प्राप	-1004
▁लेख	-1005
▁्यु	-1006
यत	-1007
▁ाट	-1008
▁्रश्न	-1009
▁शरीर	-1010
▁वर्ग	-1011
कं	-1012
▁स्ति	-1013
▁वीर	-1014
▁्थान	-1015
श्वर	-1016
▁कुल	-1017
▁ाप्य	-1018
▁स्या	-1019
नु	-1020
▁ेष्ठ	-1021
▁विर	-1022
▁द्वित	-1023
▁हेतु	-1024
▁निष्	-1025
▁वेश	-1026
▁ितम्	-1027
▁दैव	-1028
▁ग्रहण	-1029
▁पृथ	-1030
▁ुक	-1031
ग्	-1032
▁िद्या	-1033
▁ण्	-1034
▁गम	-1035
▁यथ	-1036
▁सूत्र	-1037
▁लो	-1038
▁रथ	-1039
▁पेक्ष	-1040
▁दूर	-1041
▁सर	-1042
▁नित्य	-1043
▁b	-1044
णि	-1045
▁विभाग	-1046
▁चल	-1047
▁धात	-1048
▁मस	-1049
▁्रकाश	-1050
▁राजा	-1051
▁नृ	-1052
वत्	-1053
▁ुत	-1054
▁किम्	-1055
▁आत्	-1056
▁श्री	-1057
▁्ञ	-1058
▁नः	-1059
▁बा	-1060
▁न्यथा	-1061
▁गुरु	-1062
▁लिख	-1063
▁ेह	-1064
्यास	-1065
▁ल्ल	-1066
▁तप	-1067
▁कदाच	-1068
वी	-1069
▁िष	-1070
▁ुम	-1071
▁न्ध	-1072
▁यते	-1073
▁ङ	-1074
▁्रष्ट	-1075
▁सङ्ग	-1076
▁सम्भव	-1077
▁स्याः	-1078
▁C	-1079
ख्या	-1080
वर	-1081
▁म्भ	-1082
▁ल्प	-1083
▁दुर्	-1084
▁यन्त	-1085
▁ुल	-1086
▁योजन	-1087
▁भक्त	-1088
ज्य	-1089
▁खः	-1090
▁मध	-1091
▁ूर्ण	-1092
▁l	-1093
▁अद्य	-1094
▁एते	-1095
▁विषये	-1096
▁वल	-1097
षेध	-1098
▁त्वया	-1099
▁िक्ष	-1100
▁ग्न	-1101
▁हृदय	-1102
▁त्वेन	-1103
▁सोम	-1104
▁कश्च	-1105
▁ज्ञा	-1106
▁M	-1107
करण	-1108
▁वत	-1109
▁रात्र	-1110
▁स्त्र	-1111
▁ाई	-1112
▁जना	-1113
▁वृक्ष	-1114
▁वायु	-1115
▁करिष्	-1116
▁कौ	-1117
▁ृत्य	-1118
▁्रत्य	-1119
▁सृ	-1120
▁ऽपि	-1121
▁लाभ	-1122
▁देशे	-1123
▁िप	-1124
▁ाभाव	-1125
▁d	-1126
▁N	-1127
▁ेऽपि	-1128
▁सूचना	-1129
▁रुप	-1130
▁गति	-1131
▁्रे	-1132
▁युद्ध	-1133
▁ुम्	-1134
▁p	-1135
ैः	-1136
▁शक्त	-1137
▁उक्त	-1138
▁दिश	-1139
▁ध्याय	-1140
▁िष्ठ	-1141
िप	-1142
▁ेक्ष	-1143
▁ास्त	-1144
▁विचार	-1145
▁प्रत	-1146
▁समु	-1147
▁v	-1148
▁पात	-1149
▁तिप	-1150
▁पत्र	-1151
▁विधान	-1152
st	-1153
▁पर्व	-1154
▁्रम	-1155
▁दाह	-1156
▁ोर	-1157
▁कृते	-1158
क्र	-1159
▁तमे	-1160
▁साधन	-1161
▁ष्ण	-1162
▁शुद्ध	-1163
▁#	-1164
▁अभव	-1165
▁ेभ्यः	-1166
▁यतः	-1167
▁दीर्	-1168
▁पुण	-1169
▁धु	-1170
▁ेर	-1171
ंश	-1172
▁नीय	-1173
▁शाल	-1174
▁जीवन	-1175
▁कुरु	-1176
▁दीर्घ	-1177
▁मण्ड	-1178
▁स्मृत	-1179
षण	-1180
▁हत	-1181
▁णां	-1182
▁व्यवस	-1183
▁मनो	-1184
▁यान	-1185
▁्याः	-1186
▁ऐ	-1187
▁्ण	-1188
हित	-1189
▁मुप	-1190
दश	-1191
▁पाल	-1192
▁पार	-1193
▁शास	-1194
▁श्ल	-1195
क्ष्	-1196
▁अति	-1197
▁ोः	-1198
▁नन्त	-1199
▁पति	-1200
▁ुस्त	-1201
▁हो	-1202
▁ाऽ	-1203
▁भाषण	-1204
▁श्य	-1205
er	-1206
▁ट्	-1207
▁विव	-1208
▁्नो	-1209
▁समान	-1210
▁ुः	-1211
▁यन्	-1212
▁्वरूप	-1213
▁देवता	-1214
▁केन	-1215
▁ारत	-1216
▁अधिक	-1217
▁मुख्य	-1218
▁ंद	-1219
▁सन्न	-1220
▁ार्थं	-1221
▁ंस	-1222
▁ोद	-1223
▁त्थ	-1224
▁ित्यं	-1225
▁जान	-1226
▁शृ	-1227
▁B	-1228
▁ार्यं	-1229
▁म्ह	-1230
▁ीयते	-1231
▁अभवत्	-1232
▁१०	-1233
▁मृ	-1234
▁व्यं	-1235
▁्तमान	-1236
जन	-1237
▁संभव	-1238
▁्नोति	-1239
▁बी	-1240
▁इद	-1241
▁वो	-1242
▁लोके	-1243
▁संय	-1244
▁गमन	-1245
▁चिन्त	-1246
▁दिवस	-1247
त्न	-1248
▁लिङ्ग	-1249
▁्स	-1250
ुव	-1251
▁इच्छ	-1252
▁ित्वा	-1253
▁हिं	-1254
▁व्रत	-1255
▁()	-1256
▁अल	-1257
▁ंक	-1258
▁र्च	-1259
▁तुल	-1260
▁्क	-1261
▁रूपं	-1262
▁शान्त	-1263
▁व्यव	-1264
▁संशयः	-1265
▁्वप	-1266
▁च्यते	-1267
▁वर्ध	-1268
▁लय	-1269
▁वान	-1270
▁शिव	-1271
▁भिन्न	-1272
▁ारतीय	-1273
▁्यो	-1274
▁रूपेण	-1275
▁ुह	-1276
▁मित्य	-1277
▁व्यम्	-1278
▁चेत्	-1279
▁स्वयं	-1280
▁त्वम	-1281
▁भूमि	-1282
▁कथय	-1283
▁जि	-1284
▁तिश	-1285
▁दीप	-1286
▁सति	-1287
▁ुस्तक	-1288
▁ंश	-1289
जा	-1290
▁ळ	-1291
▁नेन	-1292
▁धिकरण	-1293
▁बोध	-1294
▁्माकं	-1295
▁णि	-1296
चि	-1297
▁पुण्य	-1298
▁वक्ष्	-1299
▁मल	-1300
▁युग	-1301
▁्वार	-1302
▁मेर	-1303
▁संप	-1304
▁दिष्ट	-1305
नां	-1306
▁ग्राम	-1307
▁नान	-1308
▁नम्	-1309
▁ीर	-1310
पत	-1311
▁जनाः	-1312
▁्वप्न	-1313
वरी	-1314
▁सुर	-1315
▁ताम्	-1316
▁क्ति	-1317
ुः	-1318
▁वह	-1319
▁ंख्या	-1320
▁धी	-1321
▁तस्या	-1322
▁ानाम्	-1323
▁रोग	-1324
▁पत	-1325
▁ांश	-1326
▁तथापि	-1327
षा	-1328
▁खल	-1329
▁्रं	-1330
▁स्मा	-1331
▁पश्च	-1332
हं	-1333
▁H	-1334
▁पद्य	-1335
▁िन्द	-1336
▁र्ह	-1337
▁्वारा	-1338
▁दार	-1339
▁र्क	-1340
▁्रन्	-1341
▁तिथि	-1342
▁माता	-1343
▁नुष्य	-1344
▁लभ	-1345
▁वध	-1346
▁क्ल	-1347
▁ेवं	-1348
▁धर	-1349
▁मण्डल	-1350
त्स	-1351
▁ताम	-1352
▁्वर्ग	-1353
▁युत	-1354
▁स्तुत	-1355
र्प	-1356
▁स्फ	-1357
▁गर्	-1358
om	-1359
▁नय	-1360
▁रस्	-1361
▁ध्यान	-1362
▁तल	-1363
▁फलं	-1364
▁श्रम	-1365
▁ाङ्ग	-1366
▁मित्त	-1367
▁गृहे	-1368
▁एकः	-1369
▁द्वार	-1370
▁सुत	-1371
▁नैव	-1372
▁कस्य	-1373
िल	-1374
▁वां	-1375
▁विरोध	-1376
▁स्र	-1377
▁f	-1378
▁ाया	-1379
▁क्षय	-1380
▁वश्य	-1381
▁ग्नि	-1382
▁त्वा	-1383
▁त्वां	-1384
तम	-1385
▁चक्ष	-1386
▁किञ्च	-1387
यम्	-1388
्नु	-1389
▁मन्य	-1390
▁िष्ट	-1391
▁रस्पर	-1392
▁्रन्थ	-1393
▁त्रय	-1394
▁सिं	-1395
ीप	-1396
▁पूर	-1397
▁न्तर्	-1398
▁वती	-1399
▁यज	-1400
गत	-1401
▁..	-1402
▁ित्त	-1403
▁दध	-1404
▁िश्च	-1405
▁वन्त	-1406
▁अस्	-1407
▁वात	-1408
▁ादौ	-1409
▁ुर्	-1410
▁वः	-1411
▁मधु	-1412
▁उत्प	-1413
▁सम्ब	-1414
▁जगत	-1415
▁समय	-1416
▁ॆ	-1417
▁ादन	-1418
▁्वादश	-1419
▁िभा	-1420
▁बाह	-1421
▁ध्ययन	-1422
▁न्वित	-1423
▁g	-1424
▁शत्र	-1425
▁दाहरण	-1426
▁L	-1427
▁ब्	-1428
▁आप	-1429
▁ोष	-1430
▁उच्च	-1431
▁D	-1432
षु	-1433
▁अग्नि	-1434
▁चतुर्	-1435
▁प्रे	-1436
▁ादेश	-1437
▁तथैव	-1438
▁िताः	-1439
▁र्प	-1440
▁तृत	-1441
▁मद	-1442
▁ुन	-1443
▁हीन	-1444
▁मानव	-1445
धा	-1446
▁स्क	-1447
▁गव	-1448
▁कृत्य	-1449
▁ात्मक	-1450
▁शासन	-1451
▁भाग्य	-1452
▁लघ	-1453
▁सभा	-1454
ष्प	-1455
▁ाद्य	-1456
▁कृष्ण	-1457
▁संव	-1458
▁पूजा	-1459
▁तृतीय	-1460
▁उद	-1461
▁कम	-1462
▁त्प	-1463
▁भूय	-1464
▁हरि	-1465
▁ग्	-1466
▁िन्तु	-1467
▁ॉ	-1468
▁द्वय	-1469
▁ागत	-1470
▁दाय	-1471
▁अथवा	-1472
▁याति	-1473
▁क्वच	-1474
▁चित्त	-1475
▁्रभाव	-1476
▁मै	-1477
▁शो	-1478
▁एतद	-1479
▁दण्ड	-1480
▁सिंह	-1481
▁माप्त	-1482
▁र्व्व	-1483
▁अनेक	-1484
▁्रव्य	-1485
स्था	-1486
▁सन्ध	-1487
▁नृप	-1488
▁्थि	-1489
▁व्यवह	-1490
▁भु	-1491
▁विज	-1492
▁ीड	-1493
▁विष्ट	-1494
▁कला	-1495
▁रित	-1496
▁ेष्व	-1497
▁िस	-1498
▁दद	-1499
▁रम	-1500
▁भवतः	-1501
▁कृतं	-1502
or	-1503
▁दित	-1504
▁संसार	-1505
घ्र	-1506
▁ुच्य	-1507
▁ज्ञेय	-1508
▁कथा	-1509
▁िष्	-1510
▁जु	-1511
▁ईश्वर	-1512
▁ृत्यु	-1513
▁मनु	-1514
▁नन्तर	-1515
ूल	-1516
▁कन	-1517
▁माह	-1518
▁ग्राह	-1519
▁रिक्त	-1520
▁ित्र	-1521
▁सक	-1522
▁विकास	-1523
▁ीकरण	-1524
▁नै	-1525
▁न्ह	-1526
▁ितं	-1527
▁ितव्य	-1528
▁त्क	-1529
विध	-1530
▁ाण्ड	-1531
म्भ	-1532
▁गृहीत	-1533
▁व्यय	-1534
ष्टि	-1535
▁सङ्क	-1536
▁त्म	-1537
स्मा	-1538
▁छा	-1539
▁एस	-1540
▁पितृ	-1541
▁कोई	-1542
▁मेरिक	-1543
▁आत्म	-1544
on	-1545
▁गतः	-1546
▁ैत	-1547
▁ननु	-1548
▁भवान्	-1549
ar	-1550
▁है	-1551
▁नाश	-1552
▁ज्योत	-1553
▁ुर्या	-1554
▁चैव	-1555
▁पिता	-1556
▁ास्य	-1557
▁नाय	-1558
▁दर	-1559
▁मात	-1560
▁्रयोग	-1561
▁क्री	-1562
▁िद्	-1563
▁िभ	-1564
▁्थाप	-1565
▁वर्ज	-1566
▁ख्य	-1567
▁संग	-1568
▁याम्	-1569
▁पर्वत	-1570
श्	-1571
▁िख	-1572
▁न्म	-1573
▁ायं	-1574
▁नन्द	-1575
▁पश्चा	-1576
इट	-1577
▁चे	-1578
▁्रत	-1579
▁योगः	-1580
es	-1581
▁ेल	-1582
▁शील	-1583
▁ें	-1584
▁तादृश	-1585
▁ों	-1586
▁्रमाण	-1587
▁शत्रु	-1588
▁स्मि	-1589
▁संधान	-1590
▁निज	-1591
▁तेज	-1592
▁स्वा	-1593
▁ोऽपि	-1594
▁ादिना	-1595
▁ाधार	-1596
▁द्विज	-1597
▁शै	-1598
▁नेव	-1599
▁समर्थ	-1600
▁दानीं	-1601
▁ीत्य	-1602
▁दिव्य	-1603
▁ुत्वा	-1604
णु	-1605
▁महो	-1606
▁्रातः	-1607
वाद	-1608
▁स्याद	-1609
▁अनेन	-1610
▁मध्यम	-1611
▁त्ति	-1612
▁्यः	-1613
▁्ञान	-1614
▁११	-1615
▁्रकृत	-1616
▁रव	-1617
▁्ड	-1618
▁R	-1619
▁समास	-1620
▁कर्ता	-1621
▁योजना	-1622
▁ज्ञाय	-1623
▁उभ	-1624
▁िनी	-1625
▁टी	-1626
▁हम	-1627
▁कीर	-1628
▁राग	-1629
ञ्ज	-1630
▁सर्वा	-1631
▁िया	-1632
▁नेप	-1633
▁लब्ध	-1634
▁त्येक	-1635
▁मस्ति	-1636
▁ताप	-1637
▁यय	-1638
▁लोप	-1639
▁तिषेध	-1640
▁्वभाव	-1641
▁परमा	-1642
▁श्चि	-1643
▁यितुं	-1644
▁िभाषा	-1645
▁म्य	-1646
▁सत	-1647
▁ात्रा	-1648
▁यावत्	-1649
▁ारण	-1650
▁संस्	-1651
▁स्मर	-1652
▁लघु	-1653
▁गर्भ	-1654
▁राज्ञ	-1655
▁ियां	-1656
▁ोत्तर	-1657
▁ुट	-1658
▁वश्यक	-1659
▁बि	-1660
▁ाति	-1661
▁कीर्त	-1662
▁क्षत	-1663
▁ङ्ख्य	-1664
▁बालक	-1665
▁रिण	-1666
▁धिकतम	-1667
▁बाध	-1668
▁विन	-1669
▁ार्या	-1670
▁क्षम	-1671
▁प्रद	-1672
▁कम्	-1673
▁गवान्	-1674
▁एका	-1675
▁भयं	-1676
▁छात्र	-1677
▁मुच्य	-1678
▁धीय	-1679
▁्यपि	-1680
▁ूल	-1681
▁प्रव	-1682
▁शः	-1683
▁प्रजा	-1684
▁सेवा	-1685
▁अधि	-1686
▁कट	-1687
▁वश	-1688
▁कर्ण	-1689
▁यिष्	-1690
▁सम्भ	-1691
रि	-1692
▁क्षिप	-1693
▁ti	-1694
▁ऋत	-1695
▁ग्री	-1696
▁ितु	-1697
▁रुद्ध	-1698
▁स्नान	-1699
▁्थित	-1700
▁रुण	-1701
▁लम्	-1702
▁खलु	-1703
▁ात्मन	-1704
▁गता	-1705
ियम	-1706
▁जय	-1707
▁शं	-1708
▁स्त्व	-1709
▁रक्त	-1710
▁रोह	-1711
▁रक्षा	-1712
▁श्चिम	-1713
साइट	-1714
▁ताव	-1715
▁बसाइट	-1716
▁V	-1717
▁तीति	-1718
▁ाह्म	-1719
▁विप्र	-1720
▁नद	-1721
▁ोध	-1722
▁र्वदा	-1723
▁ाहं	-1724
▁नीति	-1725
▁च्	-1726
▁सागर	-1727
▁न्त्य	-1728
▁सन्द	-1729
▁@	-1730
▁मोह	-1731
▁भक	-1732
▁्द	-1733
▁यसि	-1734
▁उत्तम	-1735
▁जित	-1736
▁वाम	-1737
▁कारणं	-1738
▁युज्य	-1739
▁भोग	-1740
▁मूल्य	-1741
▁धातु	-1742
▁ुव	-1743
▁ीप	-1744
▁ितुं	-1745
श्व	-1746
▁ेयं	-1747
ag	-1748
▁ूढ	-1749
▁किंच	-1750
▁ैन	-1751
▁पुष्प	-1752
▁ीक्षण	-1753
▁पृथक्	-1754
▁्यू	-1755
▁ीकृत	-1756
▁आर	-1757
▁श्रित	-1758
▁युष्म	-1759
▁्च	-1760
▁भास	-1761
▁मुनि	-1762
▁भिर्	-1763
▁कथम	-1764
▁माचार	-1765
▁पान	-1766
▁गृह्य	-1767
▁स्थाप	-1768
▁E	-1769
द्रा	-1770
▁सकल	-1771
▁कन्या	-1772
▁क्रीड	-1773
▁र्तुं	-1774
▁आह	-1775
▁कोऽ	-1776
▁कृष	-1777
▁रत	-1778
▁मोक्ष	-1779
▁रोध	-1780
▁सै	-1781
▁िनियम	-1782
▁रति	-1783
▁प्	-1784
▁षष्ठ	-1785
▁िच्छ	-1786
▁वत्स	-1787
▁ेतत्	-1788
थिवी	-1789
▁ृथिवी	-1790
▁त्तम	-1791
▁देवा	-1792
▁ूर्व	-1793
▁उपयोग	-1794
▁्यन्त	-1795
▁दिने	-1796
▁र्त्त	-1797
▁युध	-1798
▁र्द्ध	-1799
▁ाम्य	-1800
▁ेद्	-1801
▁सर्ग	-1802
▁स्वी	-1803
▁निष्क	-1804
▁in	-1805
▁मूर्	-1806
▁स्वत	-1807
▁कारक	-1808
▁योर्	-1809
▁सहित	-1810
▁यतो	-1811
▁रिव	-1812
ेषण	-1813
▁कृप	-1814
▁्वी	-1815
▁ज्या	-1816
▁तिह	-1817
्ण	-1818
▁ूत	-1819
▁गन्ध	-1820
▁ेर्	-1821
▁न्यास	-1822
▁ेम	-1823
▁र्मित	-1824
▁तन्	-1825
▁विविध	-1826
▁पण	-1827
▁िर्ण	-1828
▁ित्व	-1829
ज्	-1830
▁र्ग	-1831
▁यच्छ	-1832
▁रण्य	-1833
▁भक्ति	-1834
▁ेट	-1835
▁िर्णय	-1836
▁तौ	-1837
▁विस	-1838
▁क्षर	-1839
▁मिदं	-1840
▁तय	-1841
▁श्	-1842
▁न्तः	-1843
▁॰	-1844
▁ीनां	-1845
▁ोट	-1846
▁वाच्य	-1847
▁वच	-1848
▁तुर्थ	-1849
▁्यम	-1850
▁समये	-1851
▁्रति	-1852
▁क्ष्य	-1853
▁पाय	-1854
▁ाथ	-1855
▁ार्त	-1856
▁कुत्र	-1857
▁ड़	-1858
▁खे	-1859
▁ोक्तं	-1860
▁घ्न	-1861
▁ोल	-1862
▁ध्र	-1863
▁पीड	-1864
▁ेतन	-1865
▁प्राय	-1866
▁ूप	-1867
▁गन्त	-1868
▁धीयते	-1869
▁तुल्य	-1870
▁त्मान	-1871
▁षध	-1872
▁२०	-1873
▁िक्षा	-1874
▁ाख्य	-1875
▁ाह्मण	-1876
▁र्श	-1877
▁सैन	-1878
▁रिणाम	-1879
▁स्वर	-1880
▁जगत्	-1881
▁िनां	-1882
▁्वः	-1883
▁न्नत	-1884
▁१२	-1885
▁यि	-1886
▁निध	-1887
▁अहम्	-1888
▁तक	-1889
▁$	-1890
▁चन	-1891
▁त्वम्	-1892
▁्ति	-1893
▁त्यज	-1894
▁ान्न	-1895
▁प्रभ	-1896
▁वेदन	-1897
▁रोप	-1898
▁ाइ	-1899
▁कृता	-1900
▁भ्यास	-1901
▁ोम	-1902
▁्था	-1903
▁शीत	-1904
▁गा	-1905
▁यै	-1906
▁शिष्य	-1907
▁{	-1908
▁एषा	-1909
▁विद्व	-1910
▁कालः	-1911
▁िरि	-1912
▁स्थल	-1913
▁श्चित	-1914
▁घोष	-1915
▁राश	-1916
▁विंश	-1917
▁पत्न	-1918
▁शङ्क	-1919
▁ुग्	-1920
▁र्न	-1921
▁दिक	-1922
▁चक्र	-1923
▁स्पृ	-1924
▁तन	-1925
▁ङ्घ	-1926
▁चरण	-1927
▁<	-1928
▁पदं	-1929
डा	-1930
▁तीय	-1931
▁यद्य	-1932
▁ार्ध	-1933
▁१५	-1934
▁्ञानं	-1935
▁ील	-1936
▁वित्त	-1937
▁वी	-1938
▁मयि	-1939
▁दृढ	-1940
▁पौ	-1941
▁अग्न	-1942
▁तू	-1943
▁रल	-1944
▁वसाय	-1945
▁ुद्ध	-1946
▁टि	-1947
▁राय	-1948
▁संज्ञ	-1949
▁ाक्षा	-1950
▁इयं	-1951
▁गृहं	-1952
▁व्यः	-1953
▁च्छेद	-1954
▁पश	-1955
▁मौ	-1956
▁ात्रि	-1957
▁समाज	-1958
▁्रधान	-1959
▁णु	-1960
▁परे	-1961
▁देवी	-1962
▁G	-1963
▁धनं	-1964
▁िन्त	-1965
▁क्स	-1966
▁जीवित	-1967
▁वरण	-1968
▁नीत	-1969
▁ेतद	-1970
▁्यर्थ	-1971
▁नुक	-1972
▁तिहास	-1973
▁िखित	-1974
▁ेख	-1975
▁साध्य	-1976
▁त्सव	-1977
▁काव्य	-1978
▁ताः	-1979
▁वर्षा	-1980
▁ूगु	-1981
▁संख्य	-1982
▁पुरस्	-1983
▁जप	-1984
▁विप	-1985
str	-1986
▁ष्व	-1987
▁विनाश	-1988
▁O	-1989
▁गत्वा	-1990
▁ददा	-1991
▁U	-1992
▁देय	-1993
▁जनवरी	-1994
▁त्याग	-1995
▁किल	-1996
▁अस्म	-1997
ज्ञा	-1998
▁सत्	-1999
▁ष्णु	-2000
▁रच	-2001
▁वर्तन	-2002
▁तान	-2003
▁त्ययः	-2004
le	-2005
▁बाह्य	-2006
▁बुध	-2007
▁िन्	-2008
▁10	-2009
▁सन	-2010
▁्रीडा	-2011
▁sg	-2012
▁षि	-2013
▁मनः	-2014
▁ुक्ति	-2015
▁ाड	-2016
▁दीनां	-2017
ra	-2018
▁पृथि	-2019
▁sgstr	-2020
▁श्रव	-2021
▁पुराण	-2022
▁ेभ्यो	-2023
▁मर	-2024
▁अङ्ग	-2025
▁तान्	-2026
▁शून	-2027
▁उद्	-2028
▁एषः	-2029
▁ुद	-2030
▁भवत्	-2031
▁स्ट	-2032
▁यॊ	-2033
▁पृथिव	-2034
▁केच	-2035
▁कारः	-2036
▁मान्	-2037
▁काय	-2038
▁प्त	-2039
▁संशय	-2040
▁्रवि	-2041
▁पाक	-2042
मे	-2043
▁पथ	-2044
▁भवन	-2045
▁दार्थ	-2046
▁स्थिर	-2047
▁ोत्तम	-2048
▁नाथ	-2049
▁ौर	-2050
▁धृत	-2051
▁िदं	-2052
▁खण्ड	-2053
▁्धानि	-2054
▁र्द	-2055
▁सम्बद	-2056
▁एकं	-2057
▁त्मन	-2058
▁र्देश	-2059
▁ूर	-2060
▁दास	-2061
▁निवेश	-2062
▁कृपया	-2063
▁्थाने	-2064
ध्	-2065
▁धेय	-2066
▁थित	-2067
▁नृत	-2068
▁पुंस	-2069
▁मानस	-2070
▁्पष्ट	-2071
▁हा	-2072
▁शंस	-2073
▁र्ण	-2074
▁गृह्ण	-2075
▁िभि	-2076
▁स्स	-2077
▁श्लोक	-2078
▁कति	-2079
▁श्वास	-2080
▁सोऽ	-2081
▁ुप्त	-2082
▁सव	-2083
▁ट्ट	-2084
▁ैश्च	-2085
▁भर	-2086
▁स्मै	-2087
▁योग्य	-2088
▁k	-2089
▁भ्यः	-2090
▁रूपा	-2091
▁ुत्प	-2092
▁सेना	-2093
▁ाश्र	-2094
▁शून्य	-2095
दय	-2096
▁कोट	-2097
ha	-2098
▁णं	-2099
▁नदी	-2100
▁अर्थः	-2101
▁नुकूल	-2102
▁्ष	-2103
▁सृज	-2104
▁मन्त	-2105
▁धारा	-2106
▁चक्षु	-2107
▁र्ता	-2108
▁संस्थ	-2109
▁्य्य	-2110
▁तीर्थ	-2111
▁विमान	-2112
▁ेस	-2113
▁साद	-2114
▁चार्य	-2115
▁ंश्च	-2116
▁घात	-2117
▁वापि	-2118
ome	-2119
▁अभ	-2120
▁ोड	-2121
▁ाधिक	-2122
▁ोण	-2123
▁यम्	-2124
▁ाप्ते	-2125
▁्ज	-2126
▁कुश	-2127
▁मनस	-2128
▁ब्रवी	-2129
▁एम	-2130
▁यात्	-2131
▁म्प	-2132
▁अयम्	-2133
▁विजय	-2134
▁तार	-2135
कर	-2136
▁यश	-2137
▁}	-2138
▁ज्ञाप	-2139
▁्राम	-2140
▁वने	-2141
▁सुखं	-2142
▁ातु	-2143
▁षड	-2144
▁ण्ट	-2145
▁संक	-2146
▁w	-2147
re	-2148
▁भी	-2149
▁लन	-2150
▁तिशत	-2151
्नो	-2152
▁पशु	-2153
▁पिं	-2154
▁बहू	-2155
▁षा	-2156
▁गौ	-2157
▁संप्र	-2158
▁्ये	-2159
▁ब्रू	-2160
▁क्रोध	-2161
▁भ्यां	-2162
ट्	-2163
▁ायन	-2164
▁कीदृश	-2165
▁सत्यं	-2166
▁ात्मा	-2167
▁सदस्य	-2168
▁त्वे	-2169
▁मुदा	-2170
▁ाःगु	-2171
▁श्रोत	-2172
▁ीश्वर	-2173
al	-2174
▁दीय	-2175
▁हिम	-2176
▁्रीय	-2177
▁ैष	-2178
▁योर	-2179
▁शृणु	-2180
▁पल	-2181
▁ष्	-2182
▁समर्प	-2183
▁कर्ष	-2184
▁तेऽ	-2185
▁न्यून	-2186
▁Ne	-2187
▁्छ	-2188
▁भक्ष	-2189
▁ाकार	-2190
▁िश्चय	-2191
▁ंच	-2192
▁दिव	-2193
▁समस्त	-2194
▁पो	-2195
▁िष्य	-2196
▁ाधारण	-2197
▁थ्व	-2198
▁्रविश	-2199
▁F	-2200
▁आई	-2201
▁ैल	-2202
▁च्व	-2203
▁िणः	-2204
▁ग्रे	-2205
▁कृतम्	-2206
▁ज्व	-2207
▁न्दर	-2208
▁१४	-2209
▁ध्वनि	-2210
▁विष्य	-2211
▁्रथ	-2212
▁पितु	-2213
▁वन्तः	-2214
▁दुष्ट	-2215
▁दन्त	-2216
▁ीण	-2217
▁ैस्	-2218
▁्पर्श	-2219
▁...	-2220
▁न्वय	-2221
▁महोदय	-2222
▁्येव	-2223
▁ौक	-2224
▁नाम्	-2225
he	-2226
▁कुम	-2227
▁शब्दः	-2228
▁Tag	-2229
▁िकि	-2230
▁श्रू	-2231
▁ाश्रय	-2232
▁nt	-2233
▁कृतः	-2234
▁िन्न	-2235
▁शोभ	-2236
▁ासन	-2237
▁भागे	-2238
▁ii	-2239
▁---	-2240
▁मृग	-2241
▁ेच्छ	-2242
▁प्ल	-2243
▁न्तं	-2244
▁ष्ठा	-2245
▁र्माण	-2246
▁िकित्	-2247
▁जाल	-2248
▁तेषु	-2249
▁लम्ब	-2250
▁ल्या	-2251
▁तावत्	-2252
▁ंत्र	-2253
▁हल	-2254
▁्यत	-2255
▁मातृ	-2256
▁नेवाः	-2257
▁विवाह	-2258
▁भगवत	-2259
▁यन	-2260
▁रह	-2261
▁तीव	-2262
▁पदे	-2263
▁धानम	-2264
▁प्रच	-2265
▁क्ष्म	-2266
▁परिप	-2267
▁परीत	-2268
▁रिद्र	-2269
▁ातर	-2270
▁वचनं	-2271
▁भाष्य	-2272
▁तपस	-2273
▁तेषाम	-2274
▁&	-2275
▁स्था	-2276
▁िग	-2277
▁खिल	-2278
▁ाच्च	-2279
▁ताल	-2280
▁परः	-2281
▁ंगु	-2282
▁नुभव	-2283
▁ुरुष	-2284
▁er	-2285
▁बीज	-2286
▁रज	-2287
सार	-2288
▁यौ	-2289
▁निष	-2290
▁हां	-2291
▁करणे	-2292
▁एन	-2293
▁मोद	-2294
▁रणं	-2295
▁ायाम	-2296
▁संब	-2297
▁स्ता	-2298
▁सीद	-2299
▁कुमार	-2300
▁अप्र	-2301
▁व्रज	-2302
▁पक्षे	-2303
▁दन	-2304
▁Home	-2305
▁ुण	-2306
▁िणी	-2307
▁तिं	-2308
▁ह्र	-2309
▁त्मनः	-2310
▁भ्रम	-2311
▁ीर्ण	-2312
▁्यास	-2313
▁तच्च	-2314
▁लु	-2315
▁शाला	-2316
▁ुर्ल	-2317
▁ेन्द	-2318
▁मानुष	-2319
िका	-2320
▁गम्य	-2321
▁ुरुषः	-2322
▁किमपि	-2323
▁ात्रौ	-2324
▁ोच	-2325
▁विहित	-2326
▁ुर्लभ	-2327
▁्रतीत	-2328
ेह	-2329
▁वण	-2330
▁रिति	-2331
▁्ह	-2332
▁१८	-2333
▁लभ्य	-2334
▁िद्ध	-2335
▁मेक	-2336
▁निवार	-2337
▁ालन	-2338
कृ	-2339
▁धो	-2340
▁रहित	-2341
▁प्रभु	-2342
an	-2343
▁म्बर	-2344
▁बद्ध	-2345
▁युव	-2346
▁िनो	-2347
▁श्वर	-2348
▁ल्क	-2349
▁ासु	-2350
▁दल	-2351
▁नाग	-2352
▁मूर्त	-2353
▁्य्	-2354
▁कथित	-2355
▁यूयं	-2356
▁देवाः	-2357
▁िला	-2358
▁हिंसा	-2359
▁चु	-2360
▁ासि	-2361
▁भवता	-2362
▁जलं	-2363
योज	-2364
▁िनि	-2365
▁ास्ते	-2366
ूह	-2367
िया	-2368
▁ञ्	-2369
▁अहो	-2370
▁पत्त	-2371
▁ंड	-2372
▁्ग	-2373
▁बहव	-2374
▁म्प्र	-2375
▁स्नेह	-2376
▁्यायः	-2377
▁ोह	-2378
▁पितर	-2379
▁भ्रात	-2380
▁ीश	-2381
▁पन्न	-2382
▁समूह	-2383
▁गमि	-2384
▁द्भ	-2385
▁पीस	-2386
▁याव	-2387
▁परम्	-2388
▁वस्था	-2389
सि	-2390
▁भोजन	-2391
▁१३	-2392
▁विनि	-2393
▁ायक	-2394
▁पृच्छ	-2395
▁्याम्	-2396
▁्यै	-2397
▁मांस	-2398
▁ि॒	-2399
▁वेग	-2400
▁शस्त	-2401
▁कै	-2402
▁दृश	-2403
▁ाहु	-2404
▁पार्श	-2405
ce	-2406
▁ीता	-2407
▁रक्षण	-2408
▁्रथमा	-2409
▁u	-2410
▁देवः	-2411
▁त्वाद	-2412
▁ानाति	-2413
▁म्र	-2414
▁इदम्	-2415
▁चापि	-2416
▁निषेध	-2417
▁िच	-2418
▁िथ	-2419
▁दुर	-2420
▁रुत	-2421
▁शोक	-2422
▁ेदं	-2423
▁नू	-2424
▁नेत	-2425
▁वित्र	-2426
▁स्कार	-2427
▁द्यो	-2428
▁साधु	-2429
▁त्पाद	-2430
▁•	-2431
▁विवेक	-2432
▁ीडिया	-2433
▁ेरे	-2434
▁ध्या	-2435
▁तीक्ष	-2436
te	-2437
▁जुइ	-2438
▁माया	-2439
▁1.	-2440
▁वाहन	-2441
▁हन्त	-2442
▁व्यति	-2443
▁ंतर	-2444
▁उभय	-2445
▁नार	-2446
▁दं	-2447
▁भज	-2448
▁ायः	-2449
▁हर्ष	-2450
▁न्यते	-2451
▁ृष्टि	-2452
▁ग्ध	-2453
▁नून	-2454
▁रम्भ	-2455
▁िह्	-2456
▁विधिः	-2457
▁्ना	-2458
▁स्तर	-2459
▁ृण	-2460
▁त्वार	-2461
▁विकार	-2462
▁गाम	-2463
▁रुचि	-2464
▁हित्य	-2465
▁मही	-2466
▁ययौ	-2467
▁ब्द	-2468
▁द्वीप	-2469
▁ष्य	-2470
▁स्तथा	-2471
▁तोऽ	-2472
▁अतो	-2473
▁तश्च	-2474
▁विता	-2475
▁वयव	-2476
▁ाञ्च	-2477
▁अक	-2478
▁आग	-2479
▁ाणाम	-2480
▁ाधि	-2481
▁र्मणि	-2482
▁्थानं	-2483
▁्थिति	-2484
▁अष्ट	-2485
▁कृषि	-2486
▁स्तार	-2487
▁धू	-2488
▁दिश्य	-2489
▁भिर	-2490
▁वंश	-2491
▁ांस	-2492
▁निष्प	-2493
▁ेन्	-2494
▁करोमि	-2495
▁गमिष्	-2496
▁अहम	-2497
▁कारि	-2498
▁चित्	-2499
in	-2500
▁ंध	-2501
▁मिव	-2502
▁मव	-2503
▁राजन्	-2504
▁तयो	-2505
▁निश	-2506
▁अधु	-2507
▁क्षे	-2508
▁कोऽपि	-2509
▁अधुना	-2510
▁१७	-2511
▁र्मणा	-2512
▁आकाश	-2513
▁→	-2514
▁भृत	-2515
▁संयोग	-2516
▁तय्	-2517
en	-2518
▁भीत	-2519
▁याये	-2520
▁निरूप	-2521
▁१६	-2522
▁मरण	-2523
▁ाये	-2524
▁भूत्	-2525
ou	-2526
▁द्यु	-2527
▁समीप	-2528
▁मेत	-2529
▁्भ	-2530
▁प्स	-2531
▁नेपाल	-2532
▁मीक्ष	-2533
▁वाप	-2534
▁तानि	-2535
ादश	-2536
▁एकादश	-2537
▁दित्य	-2538
▁नेत्र	-2539
▁िमर्थ	-2540
▁तम्	-2541
▁्लव	-2542
▁ंब	-2543
▁तर्क	-2544
▁भेदे	-2545
▁नियत	-2546
▁१९	-2547
▁वीर्य	-2548
▁मिल	-2549
▁tion	-2550
▁धारण	-2551
▁भवतु	-2552
▁विकिप	-2553
▁्रमेण	-2554
▁माल	-2555
▁सान	-2556
▁पीसी	-2557
▁प्रेम	-2558
▁द्वौ	-2559
▁ावरण	-2560
▁क्षमा	-2561
▁ाला	-2562
▁ण्ठ	-2563
▁द्म	-2564
▁कारेण	-2565
हे	-2566
▁सित	-2567
▁तुष्ट	-2568
▁ाप्नु	-2569
▁ेते	-2570
▁्याप	-2571
▁ापित	-2572
▁भाति	-2573
▁माम	-2574
▁ायत	-2575
▁णीय	-2576
▁नयन	-2577
▁जानी	-2578
▁र्ध्व	-2579
▁चिर	-2580
▁गोप	-2581
▁ागम	-2582
▁त्री	-2583
▁क्तम्	-2584
▁ध्रुव	-2585
▁रिवार	-2586
▁एतद्	-2587
▁कुशल	-2588
▁गिर	-2589
▁दूत	-2590
▁वस्त	-2591
▁स्मरण	-2592
▁देवि	-2593
▁समाध	-2594
▁ाचीन	-2595
▁हिन्द	-2596
hi	-2597
▁सच	-2598
▁चीन	-2599
▁कुतः	-2600
▁जातः	-2601
▁ादयः	-2602
▁कल्पन	-2603
त्म	-2604
▁ाक्षस	-2605
▁थ्य	-2606
▁शैल	-2607
▁महत्	-2608
▁सञ्च	-2609
▁सदृश	-2610
▁ोग	-2611
▁ीघ्र	-2612
▁गते	-2613
▁सूत	-2614
▁हन	-2615
▁णाम	-2616
▁्स्	-2617
▁त्वाम	-2618
▁रत्न	-2619
▁तस्म	-2620
▁माणं	-2621
▁िभिः	-2622
▁स्ते	-2623
▁व्याध	-2624
▁शू	-2625
▁नुवाद	-2626
▁ोश	-2627
▁ाचार	-2628
▁छुं	-2629
▁ोर्	-2630
▁ीघ्रं	-2631
▁राध	-2632
▁ाङ्क	-2633
▁कू	-2634
▁िस्	-2635
▁त्रा	-2636
▁थु	-2637
▁दात	-2638
▁प्रेष	-2639
▁्तव्य	-2640
▁ःगु	-2641
▁इदम	-2642
▁लाख	-2643
▁महत्व	-2644
▁नरः	-2645
▁यस्मा	-2646
▁सफ	-2647
▁न्यो	-2648
▁श्रवण	-2649
▁ारं	-2650
▁पतिः	-2651
▁मन्द	-2652
▁चय	-2653
▁त्कार	-2654
▁ृप	-2655
▁पेपर	-2656
▁स्तोत	-2657
▁ाज	-2658
ीम	-2659
▁ार्द	-2660
▁ऋण	-2661
▁नित	-2662
▁िना	-2663
▁ऽऽ	-2664
▁शक्नो	-2665
▁उपरि	-2666
▁न्ती	-2667
▁प्रो	-2668
▁तस्मै	-2669
▁णम्	-2670
▁तात	-2671
▁िम्	-2672
▁त्स्य	-2673
▁ाभिः	-2674
li	-2675
▁क्षेप	-2676
▁ृश	-2677
▁्यम्	-2678
▁केवलम	-2679
▁माज	-2680
▁नत	-2681
▁ुष	-2682
▁ाकृत	-2683
▁श्वेत	-2684
▁ष्ठित	-2685
▁ेवम	-2686
▁राशि	-2687
▁ोत्प	-2688
▁षट्	-2689
▁शीघ्र	-2690
▁ेना	-2691
▁विंशत	-2692
▁धाव	-2693
▁माः	-2694
ृति	-2695
▁अज	-2696
▁हुत	-2697
▁्थापन	-2698
▁्मृति	-2699
▁क्क	-2700
▁ख्यान	-2701
▁ारद	-2702
▁ुध्य	-2703
▁रुपये	-2704
▁दात्त	-2705
▁भारते	-2706
▁ान्ते	-2707
▁सञ्ज	-2708
▁ासीत्	-2709
▁आः	-2710
▁बृह	-2711
▁आसन्	-2712
▁पराध	-2713
▁यामः	-2714
▁शक्नु	-2715
▁डि	-2716
▁नील	-2717
▁ुत्तर	-2718
▁धाय	-2719
▁पिब	-2720
▁ार्य	-2721
▁काः	-2722
▁सरकार	-2723
▁उत	-2724
▁लं	-2725
▁रायण	-2726
▁ूर्त	-2727
▁खेल	-2728
▁नायक	-2729
▁महिल	-2730
▁सर्प	-2731
ुम	-2732
▁जापत	-2733
▁कस्मा	-2734
▁क्रमण	-2735
▁भिष	-2736
▁श्रूय	-2737
▁्विन	-2738
▁दक	-2739
▁िट	-2740
▁ितुम्	-2741
▁on	-2742
▁णे	-2743
▁वम	-2744
▁दूषण	-2745
▁दो	-2746
▁ावन	-2747
▁ेष्ट	-2748
▁्रपत	-2749
▁ःस	-2750
▁ुरत	-2751
▁2.	-2752
▁गर	-2753
▁ामः	-2754
▁वक्ष	-2755
▁An	-2756
▁ांत	-2757
▁पत्नी	-2758
▁ारि	-2759
▁कथम्	-2760
▁ज़	-2761
▁निग	-2762
▁िशि	-2763
▁रवरी	-2764
▁वाचक	-2765
▁ानामि	-2766
▁िभक्त	-2767
▁्यमान	-2768
▁मः	-2769
▁ञ्छ	-2770
▁याच	-2771
▁धिकं	-2772
▁िमान	-2773
▁अग्ने	-2774
▁त्रैव	-2775
▁कप	-2776
▁हय	-2777
▁त्ता	-2778
▁ुह्य	-2779
▁्रद्ध	-2780
▁रब्ध	-2781
▁जनक	-2782
▁यमेव	-2783
▁ददाति	-2784
▁साक्ष	-2785
▁यस्	-2786
▁क्तं	-2787
▁जाता	-2788
▁देहि	-2789
▁म्न	-2790
▁ष्म	-2791
▁ान्ति	-2792
▁एवा	-2793
▁सतत	-2794
▁जगद	-2795
▁ामय	-2796
▁प्रेर	-2797
▁सैन्य	-2798
▁ाग्नि	-2799
▁्लेषण	-2800
▁तृ	-2801
▁वद्	-2802
▁परमं	-2803
▁महिला	-2804
▁मुह	-2805
▁ह्नि	-2806
▁भगवन्	-2807
▁स्रोत	-2808
▁ोय	-2809
▁मार	-2810
▁शोध	-2811
▁हंस	-2812
▁द्वे	-2813
▁वारं	-2814
▁हानि	-2815
▁र्जन	-2816
▁योक्त	-2817
am	-2818
▁इतर	-2819
▁गतिः	-2820
▁ानन्द	-2821
▁गीत	-2822
▁भुज	-2823
▁गुणा	-2824
▁नृत्य	-2825
▁येष	-2826
▁निष्ठ	-2827
▁K	-2828
▁गज	-2829
▁ेयु	-2830
▁कम्प	-2831
▁रू	-2832
▁सिध्	-2833
▁समं	-2834
▁सम्म	-2835
▁कथन	-2836
▁मानि	-2837
▁भगवान	-2838
▁रेव	-2839
▁विभ	-2840
▁शिख	-2841
▁ानाः	-2842
▁शीर्ष	-2843
▁सृष्ट	-2844
▁घन	-2845
▁ेप	-2846
▁संभ	-2847
▁त्सर	-2848
▁भद्र	-2849
▁िध	-2850
▁ाटक	-2851
▁ाकरण	-2852
▁ल्याण	-2853
▁दय	-2854
▁न्दिर	-2855
di	-2856
▁ाज्ञ	-2857
▁ुद्रा	-2858
▁ूर्वक	-2859
▁म्यक्	-2860
▁%	-2861
▁यती	-2862
▁िल्ल	-2863
▁एतेन	-2864
▁मधुर	-2865
▁यास	-2866
▁कृत्	-2867
▁२१	-2868
▁अन्व	-2869
▁मासे	-2870
▁सन्त	-2871
▁करोत्	-2872
▁रन्तु	-2873
▁लभते	-2874
▁ासां	-2875
▁लिखित	-2876
▁दूष	-2877
▁योगी	-2878
▁चाल	-2879
▁ण्व	-2880
▁दानं	-2881
▁बहुधा	-2882
▁्रौ	-2883
▁तामह	-2884
▁नुमान	-2885
▁द्यः	-2886
▁सप्तम	-2887
▁ंस्	-2888
▁होम	-2889
▁ाता	-2890
▁्वयम्	-2891
▁ामहे	-2892
▁न्यत्	-2893
▁ादिषु	-2894
▁वया	-2895
▁नाना	-2896
▁वाचन	-2897
▁द्वेष	-2898
▁योजनम	-2899
▁इत्यस	-2900
▁येषां	-2901
▁शुक्र	-2902
म्म	-2903
▁ुगु	-2904
▁त्यु	-2905
▁पराज	-2906
▁माजिक	-2907
▁तैः	-2908
▁अतीत	-2909
▁रिष्	-2910
▁ङ्ग्ल	-2911
▁थार्थ	-2912
▁स्वात	-2913
▁तिशय	-2914
▁पुरो	-2915
▁ुग्ध	-2916
▁ोच्य	-2917
▁पात्र	-2918
▁मुदाय	-2919
▁ूक्त	-2920
▁चो	-2921
▁नया	-2922
▁कोटि	-2923
▁युवा	-2924
▁न्वयः	-2925
▁ूतन	-2926
▁ल्य	-2927
▁इष्ट	-2928
▁रङ्ग	-2929
▁रामः	-2930
▁्येन	-2931
▁वैश्व	-2932
▁धीर	-2933
▁त्य्	-2934
▁ाग्र	-2935
▁रिक्ष	-2936
▁ार्थः	-2937
▁नौ	-2938
▁रात	-2939
▁माना	-2940
▁रुद्र	-2941
▁11	-2942
▁ोन	-2943
▁म्म	-2944
▁ृती	-2945
▁्मान्	-2946
▁चं	-2947
▁दः	-2948
▁ेतस	-2949
▁भाषित	-2950
▁ंस्था	-2951
▁शाख	-2952
▁हरे	-2953
▁रद	-2954
▁व्यम	-2955
▁ान्ध	-2956
▁स्पत	-2957
▁ंट	-2958
▁यव	-2959
▁्यस	-2960
▁मनसा	-2961
▁दद्या	-2962
▁ne	-2963
▁डा	-2964
▁ीष	-2965
▁तमः	-2966
▁क्रमः	-2967
▁भौ	-2968
▁द्धत	-2969
▁नष्ट	-2970
▁रेत्	-2971
▁ासाद	-2972
▁धिकृत	-2973
▁ंज	-2974
▁तुर	-2975
▁ऽप	-2976
▁यास्	-2977
▁्युप	-2978
▁स्माक	-2979
▁संघ	-2980
▁थितं	-2981
▁पचार	-2982
▁र्पण	-2983
▁ार्ह	-2984
▁ारम्भ	-2985
▁W	-2986
▁//	-2987
▁नेक	-2988
▁ानन	-2989
▁ङ्गल	-2990
▁ाब्द	-2991
▁णः	-2992
▁नक	-2993
▁्वाह	-2994
▁यमान	-2995
▁श्चन	-2996
▁िस्त	-2997
▁पृष्ट	-2998
▁वर्णन	-2999
▁ीम	-3000
▁होत	-3001
▁दिनं	-3002
▁यश्च	-3003
▁पट	-3004
▁ुद्	-3005
▁वतां	-3006
▁तिपाद	-3007
▁िथ्य	-3008
▁ेड	-3009
▁ुम्ब	-3010
▁तै	-3011
▁मृद	-3012
▁र्या	-3013
▁ाध्य	-3014
▁आगच्छ	-3015
▁ङ्कार	-3016
▁में	-3017
▁लिप	-3018
▁घटना	-3019
▁न्दो	-3020
▁ुञ्ज	-3021
▁ुष्टि	-3022
▁दौ	-3023
▁भात	-3024
▁भूम	-3025
▁नल	-3026
▁ापं	-3027
▁ेषा	-3028
▁दुर्ग	-3029
स्मि	-3030
▁शतं	-3031
▁ुवि	-3032
▁दिना	-3033
▁सक्त	-3034
▁योनि	-3035
▁्याम	-3036
▁X	-3037
▁षम	-3038
▁ितो	-3039
▁यानि	-3040
▁्थिव	-3041
▁ाकं	-3042
▁क्ष्	-3043
▁ृष्ट	-3044
▁पूज्य	-3045
▁्यापक	-3046
▁घव	-3047
▁विः	-3048
▁तन्न	-3049
▁्त्व	-3050
▁अन्ये	-3051
▁ङ्क्ष	-3052
▁x	-3053
▁परत	-3054
▁हीं	-3055
▁अल्प	-3056
▁त्रिक	-3057
▁२२	-3058
▁ूनां	-3059
▁to	-3060
▁टे	-3061
▁ार्ज	-3062
▁म्यते	-3063
▁st	-3064
▁मग	-3065
▁वचः	-3066
▁वाल	-3067
▁हिता	-3068
▁ाहित	-3069
ुख	-3070
▁धन्य	-3071
▁हव	-3072
▁णिज	-3073
▁निब	-3074
▁मभि	-3075
▁ल्व	-3076
▁श्रेय	-3077
▁हृत	-3078
▁रोतु	-3079
▁्नात	-3080
▁ष्ठान	-3081
▁शौ	-3082
▁वसर	-3083
▁ुया	-3084
▁योगं	-3085
▁ोक्ष	-3086
▁्रीति	-3087
▁ीह	-3088
▁रपि	-3089
▁ार्च	-3090
▁ोज	-3091
▁रिक	-3092
▁लित	-3093
▁सते	-3094
▁ेषाम	-3095
▁्येय	-3096
▁्यवाद	-3097
▁जाः	-3098
▁वसन्त	-3099
▁िवर्त	-3100
▁गत्य	-3101
▁मयः	-3102
▁आदेश	-3103
▁क्रि	-3104
la	-3105
▁20	-3106
▁दम	-3107
▁ाब	-3108
▁णी	-3109
▁ुने	-3110
▁ची	-3111
▁ागर	-3112
▁ावि	-3113
▁महान्	-3114
▁ंभ	-3115
▁ह्न	-3116
▁भ्यो	-3117
▁स्यां	-3118
▁भूव	-3119
▁ग्ने	-3120
▁परिच	-3121
▁ांस्	-3122
▁र्थ्य	-3123
▁ित्तं	-3124
ve	-3125
▁ैत्य	-3126
▁भवन्त	-3127
▁खाद	-3128
▁पु०	-3129
▁त्मा	-3130
▁येद्	-3131
▁प्रेत	-3132
▁रय	-3133
▁ण्य	-3134
▁ाषण	-3135
▁लिखत	-3136
▁जनस	-3137
▁श्न	-3138
▁सफल	-3139
▁्रू	-3140
▁सहाय	-3141
▁३०	-3142
▁्रयोज	-3143
▁ाँ	-3144
▁द्युत	-3145
▁दुष्	-3146
▁ार्व	-3147
▁ार्थन	-3148
▁J	-3149
▁ामक	-3150
▁णाम्	-3151
▁थ्यते	-3152
▁ास्तु	-3153
▁ेि	-3154
▁भवत	-3155
▁ोद्	-3156
▁्यौ	-3157
▁प्राग	-3158
▁ीं	-3159
▁घ्र	-3160
▁ृपा	-3161
▁न्धन	-3162
▁श्वत	-3163
ea	-3164
▁12	-3165
▁घृ	-3166
▁हिः	-3167
▁चेष्ट	-3168
▁भवत्य	-3169
▁ऽन	-3170
▁ing	-3171
▁श्रय	-3172
▁ाभ्य	-3173
▁ाहुः	-3174
▁रां	-3175
ेषु	-3176
▁विदेश	-3177
▁िदम	-3178
▁द्देश	-3179
▁यस्तु	-3180
▁ित्यम	-3181
▁२५	-3182
▁नरक	-3183
▁परो	-3184
▁ीपे	-3185
▁टिप	-3186
▁हम्	-3187
▁्तु	-3188
▁ञ्जन	-3189
▁ातुः	-3190
▁विन्द	-3191
▁लाल	-3192
▁तॄ	-3193
▁श्चर	-3194
▁स्तद	-3195
▁ुक्तं	-3196
▁ोभ	-3197
▁यया	-3198
▁ृदि	-3199
▁भवन्	-3200
▁ास्थ	-3201
▁आम	-3202
▁ब्ध	-3203
▁ोधन	-3204
▁दानीम	-3205
▁न्ध्य	-3206
▁स्ताव	-3207
▁िन्ता	-3208
▁द्यते	-3209
▁चते	-3210
▁शरण	-3211
▁वादी	-3212
▁्मात्	-3213
▁तिक	-3214
▁दति	-3215
▁वयम्	-3216
▁छु	-3217
▁संद	-3218
▁िषु	-3219
▁द्रव	-3220
▁ाक्षर	-3221
▁्यध	-3222
▁विषयः	-3223
il	-3224
▁िब	-3225
▁भाज	-3226
▁याद	-3227
▁ज्वल	-3228
▁्रेण	-3229
▁सन्नि	-3230
▁द्योग	-3231
▁यतीति	-3232
▁वज्	-3233
▁टिप्	-3234
▁पतित	-3235
▁te	-3236
▁ोदय	-3237
▁्ली	-3238
▁ैवं	-3239
▁तयोः	-3240
▁भ्यं	-3241
▁प्रीत	-3242
▁माम्	-3243
▁ीव	-3244
▁क्षी	-3245
▁वदत्	-3246
▁यितुम	-3247
▁महत	-3248
▁सुप	-3249
▁ामिन	-3250
▁आत्मा	-3251
▁ुक्	-3252
▁अवि	-3253
▁नहि	-3254
▁्वज	-3255
▁पीत	-3256
▁पुल	-3257
▁माप	-3258
▁पार्थ	-3259
▁कमल	-3260
▁ादिति	-3261
▁ृद्ध	-3262
▁ृष	-3263
▁हृ	-3264
▁वृष	-3265
▁जमान	-3266
▁्वाहा	-3267
▁्रकरण	-3268
▁15	-3269
▁्रमण	-3270
▁अन्तर	-3271
us	-3272
▁दिल	-3273
▁ेन्न	-3274
▁यामास	-3275
▁रित्य	-3276
▁ष्टम	-3277
▁क्तिः	-3278
▁र्य्य	-3279
▁र्षिक	-3280
▁ङ्क्	-3281
▁कुट	-3282
▁शयन	-3283
▁साह	-3284
▁ाय्	-3285
▁ततस्	-3286
▁ासी	-3287
▁तन्म	-3288
▁पाश	-3289
▁र्थक	-3290
▁क्रमा	-3291
▁्वस्थ	-3292
▁ॄ	-3293
▁ग्निः	-3294
▁खो	-3295
▁तले	-3296
▁उत्स	-3297
▁ावद्	-3298
▁भयो	-3299
▁ेतु	-3300
▁अश्व	-3301
▁्वयो	-3302
▁्राक्	-3303
▁नाव	-3304
▁नाहं	-3305
▁िक्षु	-3306
▁तिः	-3307
▁च्या	-3308
▁वादः	-3309
▁ुत्स	-3310
▁ाम्ना	-3311
▁ार्थे	-3312
▁कोप	-3313
▁जाति	-3314
▁द्या	-3315
▁ंज्ञा	-3316
▁सन्धि	-3317
▁ृतीया	-3318
▁ंति	-3319
▁वाय	-3320
▁षां	-3321
▁जिन	-3322
▁योऽ	-3323
▁नारी	-3324
▁्युत	-3325
▁vi	-3326
▁कं	-3327
▁नस्	-3328
lo	-3329
▁यी	-3330
▁॒व	-3331
▁ीनि	-3332
▁ाधिप	-3333
▁नसि	-3334
▁ेतद्	-3335
▁ाध्यम	-3336
▁्राव	-3337
▁आगत	-3338
▁ीया	-3339
▁स्वतः	-3340
▁रॊ	-3341
▁सय	-3342
▁धीन	-3343
▁युः	-3344
▁ोजन	-3345
▁दक्ष	-3346
▁डी	-3347
▁वचनम्	-3348
▁ार्ता	-3349
▁्वीकृ	-3350
▁ा॒	-3351
▁ग्रत	-3352
▁्रदेश	-3353
▁हाय	-3354
▁ेशस्य	-3355
SS	-3356
▁िड	-3357
▁ूष	-3358
▁२४	-3359
▁तीत	-3360
▁वेष	-3361
▁पदेश	-3362
vi	-3363
▁्याद	-3364
▁टल	-3365
▁रतः	-3366
▁तावद	-3367
▁न्तो	-3368
▁तीत्य	-3369
▁्रस्य	-3370
▁चेत	-3371
▁विम	-3372
▁ेगु	-3373
▁ीनाम	-3374
▁्मिक	-3375
▁लोक्य	-3376
▁स्मिन	-3377
▁िषद	-3378
▁ूरे	-3379
▁ाधान	-3380
▁िश्र	-3381
▁कर्तृ	-3382
▁टन	-3383
▁शिय	-3384
▁िदित	-3385
▁्रुव	-3386
▁्यस्त	-3387
▁्वर्ण	-3388
▁सख	-3389
▁ावध	-3390
▁दन्ति	-3391
▁तरं	-3392
▁धुन	-3393
▁रन्	-3394
▁हरण	-3395
▁्तुतः	-3396
▁बलं	-3397
▁बलव	-3398
▁भवे	-3399
▁ाकि	-3400
▁ातव्य	-3401
त्रे	-3402
▁केश	-3403
▁ारा	-3404
▁दशम	-3405
▁ीरे	-3406
▁त्मक	-3407
▁y	-3408
▁इम	-3409
▁ाहृत	-3410
▁केत	-3411
▁जनः	-3412
▁सद्	-3413
▁कान्त	-3414
्रम	-3415
▁In	-3416
▁ाधन	-3417
▁ाण्य	-3418
▁िद्य	-3419
▁नग	-3420
▁ुड	-3421
▁धौ	-3422
▁ेज	-3423
▁ंसि	-3424
▁वाक्	-3425
▁ाद्ध	-3426
▁ऑ	-3427
▁्फ	-3428
▁२७	-3429
▁िकी	-3430
▁र्त्य	-3431
▁हु	-3432
▁Ans	-3433
▁ामं	-3434
▁र्थे	-3435
▁ातुं	-3436
▁ादिक	-3437
▁नुसार	-3438
▁de	-3439
▁यच्च	-3440
▁तोष	-3441
▁मीर	-3442
▁ानव	-3443
▁अय	-3444
▁उपा	-3445
▁ङ्के	-3446
▁18	-3447
▁ुख	-3448
▁्ती	-3449
▁क्रय	-3450
▁अस्मि	-3451
▁२६	-3452
▁य्य	-3453
▁्षे	-3454
▁ताया	-3455
▁वलोक	-3456
▁यतु	-3457
▁श्यं	-3458
▁ष्टि	-3459
ञ्	-3460
▁वप	-3461
▁ूट	-3462
▁्यसे	-3463
च्	-3464
▁अन्न	-3465
▁गताः	-3466
▁र्म्म	-3467
▁सप	-3468
▁॒त	-3469
▁आदि	-3470
▁नात	-3471
▁याग	-3472
▁ार्थय	-3473
▁चम	-3474
▁धिय	-3475
▁्प्र	-3476
▁जं	-3477
▁ुज	-3478
▁ःसा	-3479
▁बहि	-3480
▁ायश	-3481
▁ोचन	-3482
▁द्भि	-3483
▁न्तरं	-3484
▁मस्या	-3485
▁यन्ते	-3486
▁पते	-3487
▁र्भ	-3488
▁कालं	-3489
▁सर्वम	-3490
▁or	-3491
▁रुष	-3492
▁्वम	-3493
▁िक्	-3494
▁रन्त	-3495
▁िद्रा	-3496
▁आद	-3497
▁नोप	-3498
▁वीन	-3499
▁न्नं	-3500
▁तत्प	-3501
▁ोक्ता	-3502
▁्वमेव	-3503
it	-3504
▁िशु	-3505
▁तियोग	-3506
▁हृदये	-3507
▁मेध	-3508
▁विधा	-3509
▁न्तरे	-3510
▁पुनरा	-3511
▁ोक	-3512
▁मिम	-3513
▁थि	-3514
▁मथ	-3515
▁करं	-3516
▁तित	-3517
येत्	-3518
▁ाका	-3519
▁ीप्	-3520
▁पलब्ध	-3521
▁of	-3522
▁ारी	-3523
▁्मत	-3524
▁चः	-3525
▁णम	-3526
▁इगु	-3527
▁णित	-3528
▁ीयम्	-3529
▁ग्रहः	-3530
▁अश	-3531
▁तिथ	-3532
▁दया	-3533
▁ाख्या	-3534
▁कीय	-3535
▁स्वप	-3536
ay	-3537
▁मग्र	-3538
▁विल	-3539
▁ावय	-3540
▁ावल	-3541
▁हस्य	-3542
▁कारिण	-3543
▁14	-3544
▁पह	-3545
▁रन	-3546
▁षभ	-3547
▁ाष	-3548
▁ीक	-3549
▁न्थ	-3550
▁द्रु	-3551
▁युगे	-3552
▁गार	-3553
▁हितं	-3554
▁इत्या	-3555
▁एतस्य	-3556
▁्थापय	-3557
▁चिक	-3558
▁मद्	-3559
▁वसत	-3560
▁कव	-3561
▁नुः	-3562
▁त्कृ	-3563
▁याना	-3564
▁मणि	-3565
▁ोऽयं	-3566
▁नार्थ	-3567
▁ेक्षा	-3568
▁रिय	-3569
▁वाज	-3570
▁वन्ति	-3571
▁रोच	-3572
▁िवः	-3573
▁ाभार	-3574
▁नमस्	-3575
▁ितुम	-3576
▁्थं	-3577
▁पत्य	-3578
▁ेध	-3579
▁ीयः	-3580
▁ृत्व	-3581
▁्योत	-3582
▁त्रयो	-3583
▁जले	-3584
▁ूम	-3585
▁हता	-3586
▁ादेव	-3587
▁ध्यते	-3588
▁चना	-3589
▁्नि	-3590
▁अत्य	-3591
▁्परा	-3592
▁नास्त	-3593
▁ुद्धे	-3594
▁्श	-3595
▁ाहि	-3596
▁नद्य	-3597
▁प्रम	-3598
▁्वस्य	-3599
▁जे	-3600
▁ऽस	-3601
▁अग्र	-3602
▁यात्र	-3603
▁्याद्	-3604
▁भूष	-3605
▁रेक	-3606
▁ाशय	-3607
▁्यव	-3608
▁गच्छत	-3609
▁वेत्त	-3610
▁धम	-3611
▁वसु	-3612
▁द्भव	-3613
▁ायां	-3614
▁णो	-3615
▁द्वै	-3616
▁हत्य	-3617
▁िशेषण	-3618
▁प्रती	-3619
▁र्शित	-3620
▁भोज	-3621
▁हती	-3622
▁स्तदा	-3623
▁भावे	-3624
▁रभ्य	-3625
▁यस्या	-3626
▁ॊक	-3627
▁णत	-3628
▁ापर	-3629
▁मानः	-3630
▁चै	-3631
▁शन	-3632
▁ादक	-3633
▁धारय	-3634
▁वस्थ	-3635
▁िरिति	-3636
▁न०	-3637
▁ियः	-3638
▁वानर	-3639
▁तुः	-3640
▁दिवा	-3641
▁रुणा	-3642
▁वादन	-3643
▁सारं	-3644
▁्मान	-3645
▁्स्य	-3646
▁णोत	-3647
▁तीयं	-3648
▁दास्	-3649
▁धान्य	-3650
▁हन्ति	-3651
et	-3652
▁पय	-3653
▁ोपि	-3654
▁नैः	-3655
▁ाङ्	-3656
▁िरे	-3657
▁्भव	-3658
▁न्तत	-3659
▁ाघ	-3660
▁तरण	-3661
▁तिल	-3662
▁मति	-3663
▁कुर्य	-3664
▁निवेद	-3665
▁ारणम्	-3666
xt	-3667
▁ःश	-3668
▁शे	-3669
▁ुचि	-3670
▁ेष्	-3671
▁हू	-3672
▁ातन	-3673
▁करोत	-3674
▁h	-3675
▁शस	-3676
▁परिह	-3677
▁र्थं	-3678
▁शुभा	-3679
▁र्घ	-3680
▁ारु	-3681
▁ाऽऽ	-3682
▁त्रै	-3683
▁रभ	-3684
▁ाख	-3685
▁पम	-3686
▁MSS	-3687
▁दशा	-3688
▁ाग्	-3689
▁ालिका	-3690
▁दिकं	-3691
▁समुद	-3692
▁इच्छा	-3693
▁खर	-3694
▁ूय	-3695
▁युष	-3696
▁िंश	-3697
▁न्यद	-3698
▁नानां	-3699
▁बर	-3700
▁हद	-3701
▁ूक	-3702
▁मन्ये	-3703
▁रौ	-3704
▁वं	-3705
▁ोत	-3706
▁ङ्ख	-3707
▁विह	-3708
▁स्तव	-3709
▁स्थाय	-3710
▁२३	-3711
▁ारः	-3712
▁क्यं	-3713
▁धिना	-3714
▁्राज	-3715
▁भावना	-3716
▁भ्यते	-3717
ws	-3718
▁ेता	-3719
▁ाय्य	-3720
▁शव	-3721
▁निम	-3722
▁ितर	-3723
▁ीमा	-3724
▁्राह	-3725
▁यर	-3726
▁दीन	-3727
▁िरस	-3728
▁रचित	-3729
▁िन्य	-3730
▁नन	-3731
▁मेष	-3732
▁कारा	-3733
▁तत्व	-3734
▁ाज्य	-3735
▁तिर	-3736
▁थमे	-3737
▁रिप	-3738
▁यान्त	-3739
▁्मे	-3740
▁स्वयम	-3741
▁तुम	-3742
▁हिंस	-3743
▁ह्यं	-3744
▁्याज	-3745
▁रूपम्	-3746
▁Y	-3747
▁प्रस	-3748
▁क्तुं	-3749
▁लय्	-3750
▁वरं	-3751
▁ीच	-3752
▁णाल	-3753
▁तमस	-3754
▁त्रं	-3755
▁ोत्स	-3756
▁ात्पर	-3757
▁3.	-3758
▁तृप	-3759
▁रीय	-3760
▁्णव	-3761
▁II	-3762
▁जो	-3763
▁बृ	-3764
▁दाव	-3765
▁मागत	-3766
▁वयम	-3767
▁ेखा	-3768
▁धारणा	-3769
ro	-3770
▁मं	-3771
▁सात	-3772
▁साल	-3773
▁ह्व	-3774
▁ावह	-3775
▁गुणं	-3776
▁SF	-3777
▁करणीय	-3778
▁al	-3779
▁्द्व	-3780
▁त्कृत	-3781
▁वयो	-3782
▁ऽहं	-3783
▁ेहि	-3784
▁िहित	-3785
▁्मार	-3786
▁्षेप	-3787
▁ल्पित	-3788
▁्बद्ध	-3789
▁थः	-3790
▁लक	-3791
▁एकस	-3792
▁ानत	-3793
▁निधि	-3794
▁त्रीण	-3795
▁िस्तर	-3796
▁ुग	-3797
▁ृत्	-3798
▁्वै	-3799
▁येत	-3800
▁िंत	-3801
▁प्रय	-3802
▁िवं	-3803
▁द्वन	-3804
▁श्यति	-3805
▁छे	-3806
▁पस	-3807
▁तद्व	-3808
▁्रुत	-3809
▁रक	-3810
▁याज	-3811
ri	-3812
▁4.	-3813
▁अना	-3814
▁कवि	-3815
▁प्रह	-3816
▁मद्य	-3817
▁श्रु	-3818
▁ान्तः	-3819
▁रः	-3820
▁शिल	-3821
▁िरः	-3822
▁देशी	-3823
▁ास्म	-3824
▁त्मना	-3825
▁ीः	-3826
▁५०	-3827
▁ुष्	-3828
▁गतं	-3829
▁मतः	-3830
▁कत्व	-3831
▁न्स	-3832
▁भवद	-3833
▁17	-3834
▁दुष	-3835
▁धेन	-3836
▁त्वद	-3837
▁पकार	-3838
▁ायु	-3839
▁चरित	-3840
▁जायत	-3841
▁कूल	-3842
▁ताद	-3843
▁त्ते	-3844
▁्याय	-3845
▁Q	-3846
▁ीद	-3847
▁णना	-3848
▁माद	-3849
▁२८	-3850
▁मिथ	-3851
▁येक	-3852
▁स्तन	-3853
▁क्षित	-3854
▁ालक	-3855
▁िर्व	-3856
▁गन	-3857
▁मप	-3858
▁ङ्गा	-3859
▁त्तर	-3860
▁ादान	-3861
▁अण	-3862
▁कान	-3863
▁तोः	-3864
▁ाणी	-3865
▁ऽथ	-3866
▁इतः	-3867
▁काच	-3868
▁लाप	-3869
▁ामी	-3870
▁समाप	-3871
▁ꣳ	-3872
▁13	-3873
▁श्लेष	-3874
▁ीर्ति	-3875
स्म	-3876
▁क्षा	-3877
▁ुध	-3878
▁दयो	-3879
▁नयत	-3880
▁नपि	-3881
▁इमे	-3882
▁चतुर	-3883
▁ापन	-3884
▁ावर	-3885
▁्रण	-3886
▁िद्धि	-3887
▁शिश	-3888
▁िशा	-3889
▁वेति	-3890
▁सर्वो	-3891
▁तये	-3892
▁मिन	-3893
▁र्धा	-3894
▁वेष्ट	-3895
▁ियन्त	-3896
▁ध्यात	-3897
▁पश्यत	-3898
▁the	-3899
▁पेत	-3900
▁र्ट	-3901
▁ुतो	-3902
▁ुरो	-3903
▁र्याय	-3904
▁चेद	-3905
▁येद	-3906
▁कक्ष	-3907
▁ॅ	-3908
▁ूह	-3909
▁ोजनं	-3910
▁ऽस्मि	-3911
▁30	-3912
▁क्य	-3913
▁दिति	-3914
▁दनु	-3915
▁ादश	-3916
▁िमा	-3917
▁देशः	-3918
▁नापि	-3919
▁्यता	-3920
▁र्थम्	-3921
▁वित्	-3922
▁्पेन	-3923
▁्रिक	-3924
▁्वया	-3925
▁अनन्त	-3926
▁त्त्र	-3927
ed	-3928
▁णय	-3929
▁ानं	-3930
▁ानम	-3931
▁शब्दे	-3932
▁ही	-3933
▁नुप	-3934
▁ोषित	-3935
▁^	-3936
▁ुच	-3937
▁ाचा	-3938
▁ाने	-3939
▁जन्य	-3940
▁ात्य	-3941
▁्मित	-3942
▁विच	-3943
▁ुक्ते	-3944
▁es	-3945
▁ादित	-3946
▁चैत	-3947
▁िवेद	-3948
▁~	-3949
▁ईश	-3950
▁४०	-3951
▁मात्म	-3952
▁ेवस्य	-3953
▁करे	-3954
▁्भू	-3955
▁प्रण	-3956
▁न्ह्य	-3957
▁ट्र	-3958
▁तिपद	-3959
▁गृ	-3960
▁यण	-3961
▁काक	-3962
▁यशः	-3963
▁ृणु	-3964
▁्रम्	-3965
▁श्याम	-3966
▁ड्	-3967
▁शम	-3968
▁णाय	-3969
▁नुम	-3970
▁ाहम	-3971
▁िग्	-3972
▁ैर्य	-3973
▁्तते	-3974
▁्वत्	-3975
▁नभ	-3976
▁महं	-3977
▁लिं	-3978
▁ायण	-3979
▁्चा	-3980
▁यत्य	-3981
▁ेषाम्	-3982
▁रितः	-3983
▁्यति	-3984
▁ीत्या	-3985
▁षण	-3986
▁्यग्	-3987
▁त्तिः	-3988
▁घर	-3989
▁घु	-3990
▁गि	-3991
▁नाद	-3992
▁नुज	-3993
▁यैव	-3994
▁र्यय	-3995
▁्ताह	-3996
▁इत्यत	-3997
▁निश्च	-3998
▁(1	-3999
▁ली	-4000
▁गुह	-4001
▁्मय	-4002
▁न्नि	-4003
▁र्थन	-4004
▁्यादि	-4005
ec	-4006
▁वदत	-4007
▁ामा	-4008
▁्रव	-4009
▁अभ्य	-4010
▁्यथा	-4011
▁जः	-4012
▁णव	-4013
▁रेल	-4014
▁्पन्न	-4015
▁(=	-4016
▁मते	-4017
▁सेन	-4018
▁ीन्	-4019
▁ेस्	-4020
▁रोम	-4021
▁िर्न	-4022
▁ानन्त	-4023
▁ar	-4024
▁टु	-4025
▁ातक	-4026
▁ादर	-4027
▁एतस	-4028
▁ेऽस	-4029
▁्यप	-4030
▁ोग्य	-4031
▁ेनापि	-4032
▁पठन	-4033
▁महे	-4034
▁ायो	-4035
▁खँ	-4036
▁ुवन	-4037
▁यत्त	-4038
▁जनन	-4039
▁विधं	-4040
▁रयेत्	-4041
▁गान	-4042
▁ादु	-4043
▁ुषु	-4044
▁ार्ग	-4045
▁ुच्छ	-4046
▁16	-4047
▁लः	-4048
▁ारक	-4049
▁ियन	-4050
▁३१	-4051
▁कोर	-4052
▁जन्	-4053
▁तमा	-4054
▁िज	-4055
▁धिप	-4056
▁रणे	-4057
▁िल्	-4058
▁्धि	-4059
▁्वे	-4060
▁वन्द	-4061
▁िवेदन	-4062
at	-4063
oo	-4064
▁19	-4065
▁Ar	-4066
▁इमं	-4067
▁णीत	-4068
▁ुत्	-4069
▁मृत्य	-4070
▁मयं	-4071
▁्कः	-4072
▁न्दस	-4073
▁पठित	-4074
▁ोद्ध	-4075
▁द्ग	-4076
▁Next	-4077
▁ङ्का	-4078
▁तिर्	-4079
▁दिवि	-4080
▁धव	-4081
▁धया	-4082
▁21	-4083
▁ानुप	-4084
▁्धित	-4085
▁वु	-4086
▁ुस	-4087
▁ौन	-4088
▁च्छा	-4089
▁योगे	-4090
▁्युः	-4091
▁द्यान	-4092
▁दस	-4093
▁लाय	-4094
▁्वान	-4095
णां	-4096
▁फु	-4097
▁्ख	-4098
▁ीष्	-4099
▁द्यम	-4100
▁वेद्	-4101
ck	-4102
▁णक	-4103
▁शश	-4104
▁मुखं	-4105
▁आव	-4106
▁जक	-4107
▁टर	-4108
▁मख	-4109
▁व्	-4110
▁ृग	-4111
▁ुरा	-4112
▁श्चैव	-4113
▁ुत्तम	-4114
▁२९	-4115
▁िमुख	-4116
▁नाम्न	-4117
▁्रसार	-4118
▁भवः	-4119
▁त्वत्	-4120
▁्त्वं	-4121
▁तमो	-4122
▁ालो	-4123
▁नेति	-4124
▁ायाः	-4125
▁भूतं	-4126
▁Li	-4127
▁ृह	-4128
▁वीत	-4129
▁र्षि	-4130
▁पं	-4131
▁र्ब	-4132
▁लिन	-4133
▁दव	-4134
▁्घ	-4135
▁हुः	-4136
▁िते	-4137
▁Answ	-4138
▁्रज्ञ	-4139
▁शल	-4140
▁वदन	-4141
▁तन्त	-4142
▁हस्ते	-4143
se	-4144
▁यक्ष	-4145
▁र्जा	-4146
▁्यधिक	-4147
▁ङि	-4148
▁ीर्य	-4149
▁Po	-4150
▁आज	-4151
▁इत्	-4152
▁नाः	-4153
▁तिभा	-4154
▁कर्मण	-4155
▁j	-4156
▁टक	-4157
▁पास	-4158
▁ोषण	-4159
▁ऽप्य	-4160
▁तदु	-4161
▁नाभ	-4162
▁लह	-4163
▁िरं	-4164
▁िश्व	-4165
▁वार्त	-4166
▁पै	-4167
▁ून	-4168
▁ानक	-4169
▁ृष्ण	-4170
▁अच	-4171
▁जेत	-4172
▁द्द	-4173
▁निप	-4174
▁ानी	-4175
▁्रस	-4176
▁विकि	-4177
▁बे	-4178
▁ीट	-4179
▁ट्य	-4180
▁र्हि	-4181
▁स्तेन	-4182
▁Vi	-4183
▁nd	-4184
▁जह	-4185
▁शय	-4186
▁nce	-4187
▁पदा	-4188
▁मुपा	-4189
▁वस्व	-4190
▁्ट्र	-4191
▁=>	-4192
▁वग	-4193
▁ितम	-4194
▁िधान	-4195
▁ेच	-4196
▁िपु	-4197
▁ुल्	-4198
▁तमेव	-4199
▁स्तान	-4200
▁ोत्र	-4201
▁पन	-4202
▁चिद	-4203
▁थात	-4204
▁बलि	-4205
▁जन्त	-4206
▁ध्वन	-4207
▁ासस्य	-4208
▁ृज	-4209
▁निरा	-4210
▁र्गत	-4211
▁िन्दु	-4212
me	-4213
▁३२	-4214
▁रूपे	-4215
▁श्चा	-4216
▁ारित	-4217
▁ियो	-4218
▁ङ्गत	-4219
▁्तरि	-4220
▁्रस्त	-4221
▁्भाव	-4222
▁25	-4223
▁ाचर	-4224
▁ाशु	-4225
▁तुर्	-4226
▁ानीं	-4227
▁त्येव	-4228
▁ऋष	-4229
▁तरे	-4230
▁द्यत	-4231
▁्तिक	-4232
▁ध्	-4233
▁शाक	-4234
▁ङ्गम	-4235
▁न्यू	-4236
▁ादृश	-4237
▁पः	-4238
▁वोच	-4239
▁षित	-4240
▁ाहस	-4241
▁त्सम	-4242
▁्वती	-4243
▁्वस्त	-4244
▁मेद	-4245
▁वाण	-4246
▁करणं	-4247
▁त्यम	-4248
▁प्रश	-4249
▁िज्ञा	-4250
▁ज्	-4251
▁मत्	-4252
▁शित	-4253
▁हति	-4254
▁वेदना	-4255
▁ि॑	-4256
▁ुब	-4257
▁ु॒	-4258
▁्वल	-4259
▁ष्टा	-4260
▁ष्टु	-4261
▁द्विष	-4262
▁निर्व	-4263
▁ओं	-4264
▁वधि	-4265
▁्वय	-4266
▁आत	-4267
▁रेण	-4268
▁ासो	-4269
▁्णो	-4270
▁ष्कर	-4271
▁भृ	-4272
▁iii	-4273
▁कुत	-4274
▁ाणा	-4275
▁अक्ष	-4276
▁गस्त	-4277
▁तुष्	-4278
▁ावित	-4279
▁ाक्षि	-4280
▁वैर	-4281
▁भवती	-4282
▁ाज्ये	-4283
▁ा॑	-4284
▁मेन	-4285
▁लाः	-4286
▁ियं	-4287
▁ष्टक	-4288
▁्रयः	-4289
▁ावर्त	-4290
▁com	-4291
▁ियत	-4292
▁ियोग	-4293
▁ादप	-4294
ate	-4295
▁तिष	-4296
▁नता	-4297
▁मन्व	-4298
▁िवास	-4299
▁क्षः	-4300
▁व्यप	-4301
▁ाष्ट	-4302
▁करणम्	-4303
▁कैः	-4304
▁ादय	-4305
▁प्प	-4306
▁ारे	-4307
▁कानि	-4308
▁रस्य	-4309
▁ाच्छ	-4310
▁ाश्व	-4311
▁दत	-4312
▁गोल	-4313
▁नामा	-4314
▁िर्वि	-4315
▁ूत्रे	-4316
▁ाफ	-4317
▁ातं	-4318
▁िगम	-4319
▁ावृत	-4320
▁ाव्य	-4321
▁स्तत्	-4322
▁िश्वस	-4323
chi	-4324
▁्वद	-4325
▁यन्न	-4326
▁ूं	-4327
▁वपु	-4328
▁संह	-4329
▁ारम	-4330
▁यन्तु	-4331
▁्रेषु	-4332
▁ावक	-4333
ti	-4334
▁बं	-4335
▁तमं	-4336
▁भुव	-4337
▁ययु	-4338
▁रुच	-4339
▁वयस	-4340
▁सां	-4341
▁ायम	-4342
▁्यद	-4343
▁ख्या	-4344
▁जन्मन	-4345
▁तदर्थ	-4346
▁ाप्ता	-4347
▁दह	-4348
▁बन	-4349
▁मज	-4350
▁भया	-4351
▁ावद	-4352
▁ुना	-4353
▁वाग्	-4354
▁्रीण	-4355
▁प्रयत	-4356
▁चक	-4357
▁थन	-4358
▁गन्	-4359
▁थाः	-4360
▁्यहं	-4361
ear	-4362
▁ततॊ	-4363
▁तावत	-4364
▁यान्	-4365
▁व्यो	-4366
▁वन्तु	-4367
▁ूर्ति	-4368
▁कश	-4369
▁्धार	-4370
▁वाद्य	-4371
ll	-4372
▁३३	-4373
▁अपर	-4374
▁ुरू	-4375
▁स्तः	-4376
▁वृष्ट	-4377
▁िन्तय	-4378
▁तीये	-4379
▁ेयम्	-4380
ad	-4381
▁for	-4382
▁दशक	-4383
▁धाम	-4384
▁ोऽध	-4385
▁द्धि	-4386
▁्थिता	-4387
▁अब	-4388
▁अनुप	-4389
▁्रकार	-4390
▁lo	-4391
▁कोष	-4392
▁तवा	-4393
▁यंत	-4394
▁रेत	-4395
▁वर्तत	-4396
▁re	-4397
▁र्स	-4398
▁li	-4399
▁ves	-4400
▁तीर	-4401
▁धिं	-4402
▁पना	-4403
▁राह	-4404
▁ुस्	-4405
▁त्तु	-4406
▁ुत्त	-4407
▁ab	-4408
▁जू	-4409
▁गिन	-4410
▁नास	-4411
▁नुव	-4412
▁ासा	-4413
▁िके	-4414
▁क्षु	-4415
▁र्थी	-4416
▁ाभिर	-4417
▁असौ	-4418
▁सरे	-4419
▁No	-4420
▁na	-4421
▁गतो	-4422
▁वाः	-4423
▁ूषण	-4424
▁ेदन	-4425
▁क्या	-4426
▁मानो	-4427
▁an	-4428
▁ाचि	-4429
▁ुचित	-4430
▁चौ	-4431
▁मुद	-4432
▁शिर	-4433
▁्तव	-4434
▁्मद	-4435
▁अभिव	-4436
▁चन्द	-4437
▁तिमा	-4438
▁पाणि	-4439
▁योगि	-4440
▁ोऽहं	-4441
▁्वद्	-4442
▁कृष्ट	-4443
▁यथो	-4444
▁राव	-4445
▁ुलि	-4446
▁्टर	-4447
▁्र्	-4448
▁कथयत	-4449
▁विरा	-4450
▁जै	-4451
▁जरा	-4452
▁शिष	-4453
▁य्या	-4454
▁िक्त	-4455
▁िङ्ग	-4456
▁तत्रा	-4457
▁डु	-4458
▁षी	-4459
▁ज्जा	-4460
▁िवाद	-4461
▁ृच्छ	-4462
▁पत्ति	-4463
▁जव	-4464
▁थो	-4465
▁वनं	-4466
▁समाच	-4467
▁्यनु	-4468
▁ाद्या	-4469
▁गद्	-4470
▁ाल्	-4471
▁िहत	-4472
▁्यान	-4473
▁रत्व	-4474
▁रस्त	-4475
▁ानेन	-4476
▁िनाम	-4477
▁्वेष	-4478
▁←	-4479
▁ेब	-4480
▁Archi	-4481
▁दर्शय	-4482
▁24	-4483
▁यिक	-4484
▁ीला	-4485
▁्ञा	-4486
▁ाग्न	-4487
▁5.	-4488
▁en	-4489
▁ुभ	-4490
▁माग	-4491
▁त्सु	-4492
▁्तरे	-4493
▁्भूत	-4494
▁iv	-4495
▁यूय	-4496
▁िरो	-4497
▁ेशव	-4498
▁्रु	-4499
▁नात्	-4500
▁डो	-4501
▁तवं	-4502
▁तिस	-4503
▁निय	-4504
▁नान्य	-4505
▁ष्यते	-4506
▁ारस्य	-4507
▁ng	-4508
▁भे	-4509
▁जाग	-4510
▁ममा	-4511
▁ुमु	-4512
▁नगरे	-4513
▁On	-4514
▁se	-4515
▁गल	-4516
▁रमण	-4517
▁St	-4518
▁रकं	-4519
▁रवि	-4520
▁सवि	-4521
▁निर्म	-4522
▁by	-4523
▁्रक्ष	-4524
▁नयो	-4525
▁धुना	-4526
▁तायाः	-4527
▁एको	-4528
▁कन्	-4529
▁मना	-4530
▁सरस	-4531
▁ानो	-4532
▁नश्च	-4533
▁वर्य	-4534
▁थे	-4535
▁रते	-4536
▁मेवा	-4537
▁न्तरा	-4538
▁जार	-4539
▁थवा	-4540
▁ेवा	-4541
▁ज्ञः	-4542
▁ंह	-4543
▁थां	-4544
▁श्म	-4545
▁ुधा	-4546
▁कारो	-4547
▁बहुव	-4548
▁ुष्क	-4549
▁ोज्य	-4550
▁्ठ	-4551
▁ूर्	-4552
▁्रभ	-4553
▁्वो	-4554
▁नाभि	-4555
▁ाहार	-4556
▁िदेश	-4557
ER	-4558
▁कच	-4559
▁्तृत	-4560
▁ीतं	-4561
▁ातम्	-4562
▁िध्य	-4563
▁केन्द	-4564
ter	-4565
▁ni	-4566
▁(1)	-4567
▁नेपा	-4568
▁त्तमम	-4569
▁अनि	-4570
▁वति	-4571
▁सुन	-4572
▁ीयत	-4573
▁ाप्र	-4574
as	-4575
कः	-4576
▁ed	-4577
▁मई	-4578
▁शर्	-4579
▁िगु	-4580
▁ष्टं	-4581
▁ुष्ट	-4582
दिन	-4583
▁जस	-4584
▁ह्	-4585
▁३५	-4586
▁दां	-4587
▁निः	-4588
▁रास	-4589
▁्ट्	-4590
▁ङ्गी	-4591
▁्येत	-4592
▁तिदिन	-4593
▁खा	-4594
▁मला	-4595
▁भिक्ष	-4596
▁वेदित	-4597
▁लङ्	-4598
▁हास	-4599
▁ूनि	-4600
▁्यग	-4601
▁कारी	-4602
▁न्ता	-4603
▁स्यते	-4604
▁ंविध	-4605
▁स्यु	-4606
▁िकाः	-4607
▁श्यन्	-4608
▁्रिये	-4609
▁ियम	-4610
▁पुरु	-4611
▁र्मः	-4612
▁्वाद	-4613
▁यह	-4614
▁ेशे	-4615
▁कार्	-4616
▁वेद्य	-4617
▁ns	-4618
▁धरा	-4619
▁नोर	-4620
▁मिष	-4621
▁वयः	-4622
▁ुते	-4623
▁ेके	-4624
▁लोका	-4625
▁िणां	-4626
▁ार्गे	-4627
▁th	-4628
▁इन	-4629
▁गाः	-4630
▁पां	-4631
▁ेषण	-4632
▁ितिः	-4633
▁िप्र	-4634
▁कस	-4635
▁ीस	-4636
▁असि	-4637
▁तुं	-4638
▁रोद	-4639
▁लास	-4640
▁ारभ	-4641
▁ालि	-4642
▁ीते	-4643
▁रार्थ	-4644
▁ित्रा	-4645
▁be	-4646
▁ूद	-4647
▁मता	-4648
▁क्षणे	-4649
▁23	-4650
▁उत्	-4651
▁कलि	-4652
▁नाप	-4653
▁षाद	-4654
▁तात्	-4655
▁मस्य	-4656
▁्वाम	-4657
▁त्याः	-4658
▁थ्	-4659
▁ौम	-4660
▁३६	-4661
▁ासः	-4662
▁न्ये	-4663
▁भ्यु	-4664
▁दै	-4665
▁मक	-4666
▁श्यम	-4667
▁ेदना	-4668
▁्व्व	-4669
▁मेल	-4670
▁्वन	-4671
▁कादश	-4672
▁र्गः	-4673
▁वन्य	-4674
▁no	-4675
▁िघ	-4676
▁महि	-4677
▁मिह	-4678
▁नश्य	-4679
▁Pre	-4680
▁आसन	-4681
▁धिः	-4682
▁नेह	-4683
▁यतन	-4684
▁लेन	-4685
▁्मी	-4686
▁्यभ	-4687
▁दिक्	-4688
▁्रेय	-4689
▁कर्तु	-4690
▁आश	-4691
▁बला	-4692
▁पृष्ठ	-4693
▁(?	-4694
▁27	-4695
▁मुन	-4696
▁्व्	-4697
▁(2	-4698
▁गे	-4699
▁हस	-4700
▁ेयम	-4701
▁ष्टय	-4702
▁Re	-4703
▁खु	-4704
▁करः	-4705
▁भवान	-4706
▁ीज	-4707
▁मर्	-4708
▁समी	-4709
▁िङ्	-4710
▁न्धः	-4711
▁यस्व	-4712
▁्येण	-4713
▁धः	-4714
▁३७	-4715
▁वीं	-4716
▁तदान	-4717
▁रम्य	-4718
▁ान्व	-4719
▁द्याव	-4720
ma	-4721
▁नस	-4722
▁लयं	-4723
▁ंस्त	-4724
▁इन्द	-4725
xx	-4726
▁ty	-4727
▁न्दा	-4728
▁कर्मक	-4729
▁50	-4730
▁ri	-4731
▁सज	-4732
▁रुद	-4733
▁षाण	-4734
▁हान	-4735
▁यमाण	-4736
▁ध्याप	-4737
▁्प्रत	-4738
▁22	-4739
▁असम	-4740
▁ापय	-4741
▁चिन्	-4742
▁ायेत	-4743
▁्रीत	-4744
▁्वामि	-4745
▁तुक	-4746
▁्रो	-4747
▁ध्वं	-4748
▁४५	-4749
▁ाशा	-4750
▁कारय	-4751
▁्वाव	-4752
▁बंध	-4753
▁येऽ	-4754
▁आचार	-4755
▁सत्व	-4756
▁ार्ष	-4757
▁क्षणा	-4758
▁त्र्य	-4759
▁िक्रम	-4760
si	-4761
▁आय	-4762
▁िकः	-4763
▁िरण	-4764
▁व्याख	-4765
▁गू	-4766
▁लल	-4767
▁सल	-4768
▁फलम	-4769
▁साथ	-4770
▁ितौ	-4771
▁मर्थ	-4772
▁ियोज	-4773
▁यमः	-4774
▁साव	-4775
▁ुरु	-4776
▁्र्य	-4777
▁ंबन्ध	-4778
▁आत्मन	-4779
▁पच	-4780
▁कश्	-4781
▁्ता	-4782
▁्यत्व	-4783
ir	-4784
▁ंर	-4785
▁असत	-4786
▁ाकर	-4787
▁ेधा	-4788
▁स्माद	-4789
▁थैव	-4790
▁रश्	-4791
▁हर्	-4792
▁उभौ	-4793
▁वतो	-4794
▁सूर	-4795
▁्गु	-4796
▁्रद	-4797
▁ित्यत	-4798
▁सभ	-4799
▁्यक	-4800
▁त्वर	-4801
▁्वाभ	-4802
▁्यस्य	-4803
ow	-4804
▁ुश	-4805
▁तस्थ	-4806
▁ात्व	-4807
▁्रास	-4808
▁ाक्रम	-4809
▁िष्ठि	-4810
▁̣	-4811
▁खन	-4812
▁्लभ	-4813
▁स्ना	-4814
▁त्यां	-4815
▁पुष्ट	-4816
▁र्याद	-4817
▁आपः	-4818
▁माय	-4819
▁हत्	-4820
▁्मु	-4821
▁्यन	-4822
▁युर्	-4823
▁हन्	-4824
▁िवि	-4825
▁्हा	-4826
▁ान्द	-4827
▁तैर	-4828
▁मम्	-4829
▁is	-4830
▁अधो	-4831
▁कया	-4832
▁दयः	-4833
▁वय्	-4834
▁ीडा	-4835
▁्नु	-4836
▁्ने	-4837
▁मुद्	-4838
▁वादे	-4839
▁सस्य	-4840
▁त्यम्	-4841
▁ाप्ति	-4842
▁्रभात	-4843
▁अधः	-4844
▁अवस	-4845
▁िमत	-4846
▁सुरा	-4847
▁्व्य	-4848
▁स्याम	-4849
▁ाणिन	-4850
▁अस्या	-4851
▁40	-4852
▁ग्ल	-4853
▁भिध	-4854
▁र्ल	-4855
▁वाग	-4856
▁ुरं	-4857
▁मत्त	-4858
▁26	-4859
▁िपत	-4860
de	-4861
▁ाकम	-4862
▁नमो	-4863
▁ागं	-4864
▁स्तू	-4865
▁ीका	-4866
▁र्यु	-4867
▁यल	-4868
▁ताभ	-4869
▁हवि	-4870
▁ासक	-4871
▁मस्त	-4872
▁पर्या	-4873
▁भाव्य	-4874
▁US	-4875
▁लग	-4876
▁लप	-4877
▁तपः	-4878
▁नाक	-4879
▁याय	-4880
▁लोच	-4881
▁ापद	-4882
▁कथ्य	-4883
▁कलं	-4884
▁च्य	-4885
▁ाव्	-4886
▁न्दन	-4887
▁भर्त	-4888
▁िष्ण	-4889
▁ीक्षा	-4890
नः	-4891
ead	-4892
▁ेग	-4893
▁४१	-4894
▁ुरः	-4895
▁अव्य	-4896
▁·	-4897
▁नह	-4898
▁ारय	-4899
▁ावत	-4900
▁क्रे	-4901
▁त्रु	-4902
▁त्वय	-4903
▁वत्सर	-4904
ly	-4905
▁छग	-4906
▁उपस	-4907
▁सीत	-4908
▁उत्त	-4909
▁र्वा	-4910
▁्येक	-4911
▁क्षते	-4912
▁ान्ता	-4913
▁एनं	-4914
▁रैः	-4915
▁वेत	-4916
▁ीयस	-4917
▁त्यं	-4918
▁नीया	-4919
▁रिश्	-4920
▁ुष्ठ	-4921
▁मार्थ	-4922
▁ऽस्ति	-4923
▁िष्ठत	-4924
▁खि	-4925
▁फे	-4926
▁रग	-4927
▁जयत	-4928
▁लिय	-4929
▁भूता	-4930
▁्यया	-4931
▁िष्यत	-4932
▁sa	-4933
▁फा	-4934
▁बध	-4935
▁रत्	-4936
▁हिर	-4937
▁म्ना	-4938
▁ाविश	-4939
▁्मुख	-4940
▁स्त्य	-4941
▁्भवति	-4942
ch	-4943
▁लस	-4944
▁रीर	-4945
▁शुक	-4946
▁णात्	-4947
▁थापि	-4948
▁वारि	-4949
▁ात्त	-4950
▁्रिम	-4951
▁णार्थ	-4952
▁(),	-4953
▁माच	-4954
▁ाले	-4955
▁रिया	-4956
▁िकरण	-4957
▁ज्यते	-4958
▁्तीति	-4959
▁खं	-4960
▁लता	-4961
▁ेने	-4962
▁ौर्	-4963
▁्षु	-4964
▁देशक	-4965
▁व्याः	-4966
अथ	-4967
▁तवे	-4968
▁ददौ	-4969
▁नरे	-4970
▁नेय	-4971
▁्मण	-4972
▁्सु	-4973
▁Post	-4974
▁धनम्	-4975
▁वच्छ	-4976
▁ऽन्य	-4977
▁ेनैव	-4978
▁्यत्	-4979
▁६०	-4980
▁दिस	-4981
▁ानर	-4982
▁प्रज	-4983
▁भावो	-4984
▁ाच्व	-4985
▁ाल्य	-4986
▁शान	-4987
▁ामन	-4988
▁तिम्	-4989
▁म्या	-4990
▁िचार	-4991
SE	-4992
ff	-4993
▁ous	-4994
▁किन	-4995
▁छगू	-4996
▁नुष	-4997
▁लना	-4998
▁लिक	-4999
▁ीना	-5000
▁ेदि	-5001
▁कालि	-5002
▁ीत्वा	-5003
▁४२	-5004
▁तति	-5005
▁पयो	-5006
▁ीयं	-5007
▁क्रो	-5008
▁छन्द	-5009
▁द्धर	-5010
▁्राय	-5011
▁त्प्र	-5012
▁ऎ	-5013
▁करि	-5014
▁निस	-5015
▁िरा	-5016
▁्मः	-5017
▁शीर्	-5018
▁भवेद	-5019
▁ादिन	-5020
▁ान्स	-5021
▁ीर्ष	-5022
▁तवान्	-5023
▁्यासः	-5024
▁खोज	-5025
▁वेदा	-5026
▁स्पर्	-5027
▁28	-5028
▁ंप	-5029
▁छः	-5030
▁िङ	-5031
▁ोई	-5032
▁्टि	-5033
▁्पद	-5034
▁परिव	-5035
▁र्तु	-5036
▁ासिक	-5037
▁ास्व	-5038
▁्त्त	-5039
▁्रात	-5040
▁त्तत्	-5041
▁ोऽस्म	-5042
▁लव	-5043
▁ूच	-5044
▁मधि	-5045
▁ावे	-5046
▁्याक	-5047
▁्यश्च	-5048
▁ve	-5049
▁नाह	-5050
▁भवं	-5051
▁येण	-5052
▁ाजन	-5053
▁News	-5054
▁उच्य	-5055
▁ामेव	-5056
▁न्तिक	-5057
▁कष	-5058
▁जर	-5059
▁रं	-5060
▁ेभ	-5061
▁ताक	-5062
▁ृद	-5063
▁ंका	-5064
▁ाची	-5065
▁िणा	-5066
▁त्पर	-5067
▁त्र्	-5068
▁भावेन	-5069
▁छि	-5070
▁लम	-5071
▁गतम	-5072
▁रतो	-5073
▁ाकृ	-5074
▁िदा	-5075
▁ेहे	-5076
▁्सर	-5077
▁स्कर	-5078
▁ददात	-5079
▁ीदृश	-5080
▁५५	-5081
▁ाहे	-5082
▁िमु	-5083
▁्वये	-5084
ess	-5085
▁डे	-5086
▁३४	-5087
▁काला	-5088
▁ाध्या	-5089
▁ta	-5090
▁थौ	-5091
▁पप	-5092
▁मयत	-5093
▁ावः	-5094
▁४४	-5095
▁अथे	-5096
▁एतं	-5097
▁शयः	-5098
▁ायस	-5099
▁त्यव	-5100
▁यत्प	-5101
▁र्मन	-5102
▁िवेश	-5103
▁िंशति	-5104
▁्त्रि	-5105
SC	-5106
▁३८	-5107
▁इन्	-5108
▁्कर	-5109
▁ंख्य	-5110
▁धिर्	-5111
▁िञ्च	-5112
▁्राणि	-5113
▁षे	-5114
▁ृच	-5115
▁वरः	-5116
▁वाऽ	-5117
▁ेल्	-5118
▁जितः	-5119
▁तेना	-5120
cs	-5121
▁रमत	-5122
▁िकं	-5123
▁विष्	-5124
▁्येष	-5125
▁स्यात	-5126
▁जत	-5127
▁८०	-5128
▁एस्	-5129
▁दिग	-5130
▁ाश्	-5131
▁र्भव	-5132
▁ाद्व	-5133
▁ामास	-5134
▁ुरक्ष	-5135
▁मरा	-5136
▁ुदा	-5137
▁ुन्	-5138
▁न्ना	-5139
▁gh	-5140
▁रै	-5141
▁हः	-5142
▁(2)	-5143
▁पिन	-5144
▁ाट्	-5145
▁ामो	-5146
▁्याच	-5147
▁यद्यप	-5148
▁᳚	-5149
▁कर्	-5150
▁कां	-5151
▁किस	-5152
▁चाप	-5153
▁रके	-5154
▁्बु	-5155
▁ंस्कृ	-5156
▁नच	-5157
▁माव	-5158
▁यमन	-5159
▁न्यव	-5160
▁र्ति	-5161
▁हस्र	-5162
▁क्षाद	-5163
▁कतम	-5164
▁द्ब	-5165
▁पत्	-5166
▁लीन	-5167
▁ऽयं	-5168
▁ोवि	-5169
▁विषा	-5170
▁च्चार	-5171
▁एतौ	-5172
▁ारो	-5173
▁्वेद	-5174
▁त०	-5175
▁्लि	-5176
▁नादि	-5177
▁स्वस	-5178
▁ाचित	-5179
▁कल्पय	-5180
▁कस्मि	-5181
▁चत	-5182
▁छेद	-5183
▁्वत	-5184
▁न्मा	-5185
▁तिप्र	-5186
▁ag	-5187
▁po	-5188
▁अ०	-5189
▁तेः	-5190
▁मयो	-5191
▁सुम	-5192
▁ण्या	-5193
▁ंरक्ष	-5194
▁न्तम्	-5195
dia	-5196
▁कह	-5197
▁यङ	-5198
▁येति	-5199
▁रितं	-5200
▁रीति	-5201
▁्याल	-5202
▁तस्मि	-5203
▁विधीय	-5204
▁↑	-5205
▁tra	-5206
▁ाक्	-5207
▁>>	-5208
▁ca	-5209
▁कण	-5210
▁The	-5211
▁जते	-5212
▁धिर	-5213
▁मुक	-5214
▁्ड्	-5215
▁द्धय	-5216
▁भवेत	-5217
▁र्थत	-5218
▁भार्य	-5219
▁कत	-5220
▁बत	-5221
▁लश	-5222
▁ावा	-5223
▁ाधित	-5224
ore	-5225
▁IS	-5226
▁टा	-5227
▁ोस	-5228
▁आदौ	-5229
▁पूजय	-5230
▁प्रवर	-5231
ld	-5232
▁फि	-5233
▁तना	-5234
▁रमा	-5235
▁वरा	-5236
▁ोपा	-5237
▁द्रि	-5238
▁ष्टे	-5239
▁िताय	-5240
▁ुद्र	-5241
▁्वरः	-5242
▁्विध	-5243
▁कृतिः	-5244
▁तिक्र	-5245
भाष	-5246
▁रब	-5247
▁४७	-5248
▁आयु	-5249
▁भोः	-5250
▁मीत	-5251
▁प्रि	-5252
▁रिभाष	-5253
▁ंम	-5254
▁िपा	-5255
▁न्या	-5256
▁इत्यु	-5257
▁म्पाद	-5258
▁र्यात	-5259
▁विक्र	-5260
▁ावस्थ	-5261
▁si	-5262
▁४८	-5263
▁थाप	-5264
▁ागा	-5265
▁्यथ	-5266
▁्येवं	-5267
▁५२	-5268
▁भान	-5269
▁मिक	-5270
▁त्रे	-5271
▁देशो	-5272
▁ावन्	-5273
▁ीणां	-5274
▁्तरेण	-5275
▁्वादि	-5276
▁ra	-5277
▁णन	-5278
▁लौ	-5279
▁५१	-5280
▁अण्	-5281
▁दाम	-5282
▁यमा	-5283
▁रेष	-5284
▁्वेन	-5285
सत	-5286
▁ad	-5287
▁४६	-5288
▁उगु	-5289
▁ायै	-5290
▁माणा	-5291
▁ालये	-5292
▁्यार	-5293
▁do	-5294
▁sh	-5295
▁गः	-5296
▁टित	-5297
▁िप्	-5298
▁काश्	-5299
▁न्तम	-5300
▁मक्ष	-5301
▁स्तक	-5302
▁ायात	-5303
ut	-5304
▁ंन	-5305
▁चस	-5306
▁४९	-5307
▁ड्य	-5308
▁भा०	-5309
▁ेशन	-5310
▁्लो	-5311
▁तस्त	-5312
▁दोषा	-5313
▁राति	-5314
▁ावना	-5315
▁35	-5316
▁रप	-5317
▁र्यव	-5318
▁सत्त	-5319
▁सान्	-5320
▁ुप्र	-5321
▁तानां	-5322
▁औसत	-5323
▁चिन	-5324
▁सना	-5325
▁ोति	-5326
▁्रित	-5327
▁कृत्व	-5328
▁प्रात	-5329
▁विज्ञ	-5330
▁ेत्रे	-5331
▁७०	-5332
▁चाय	-5333
▁वाव	-5334
▁षाय	-5335
▁Previ	-5336
▁िक्षे	-5337
▁Se	-5338
▁मिद	-5339
▁ुखे	-5340
▁क्रु	-5341
▁ुश्च	-5342
▁्विप	-5343
..	-5344
▁धृ	-5345
▁ैश	-5346
▁ायि	-5347
▁कारं	-5348
▁किन्	-5349
▁त्तद	-5350
▁न्दु	-5351
▁वह्न	-5352
▁ालयः	-5353
▁ूत्र	-5354
▁्रमः	-5355
▁शब्	-5356
▁ऽनु	-5357
▁शेषे	-5358
▁स्रो	-5359
▁्रेष	-5360
▁पद्यत	-5361
▁ार्यम	-5362
▁धुर	-5363
▁सुद	-5364
▁नत्व	-5365
▁ाषा	-5366
▁ब्रा	-5367
▁हारः	-5368
▁ऽव	-5369
▁उभे	-5370
▁शिक	-5371
▁ाधा	-5372
▁िच्	-5373
▁त्रो	-5374
▁म्बन	-5375
▁अध्या	-5376
▁स्यैव	-5377
▁फो	-5378
▁VER	-5379
▁दिद	-5380
▁पेन	-5381
▁्ला	-5382
▁्षप	-5383
▁मिका	-5384
▁यस्त	-5385
▁ष्ट्र	-5386
▁pd	-5387
▁गाय	-5388
▁ासव	-5389
▁श्वस	-5390
▁निपात	-5391
▁ूर्णा	-5392
▁५४	-5393
▁तरा	-5394
▁नरो	-5395
▁मिश	-5396
▁ादा	-5397
▁ेशान	-5398
▁ायन्त	-5399
▁४३	-5400
▁अरे	-5401
▁रता	-5402
▁लिङ	-5403
▁ायय	-5404
▁्टी	-5405
▁तत्त	-5406
▁त्ये	-5407
▁वत्त	-5408
ss	-5409
▁(3	-5410
▁णिक	-5411
▁यसे	-5412
▁रसं	-5413
▁सनं	-5414
▁ुता	-5415
▁ुरी	-5416
▁नस्त	-5417
▁याद्	-5418
ct	-5419
pal	-5420
▁मभ	-5421
▁तिम	-5422
▁बध्	-5423
▁सुस	-5424
▁ृद्	-5425
▁न्दि	-5426
▁कानां	-5427
▁शब्दा	-5428
▁्यानि	-5429
▁धे	-5430
▁ष्प	-5431
▁श्वा	-5432
▁ुर्य	-5433
▁्तित	-5434
▁32	-5435
▁३९	-5436
▁तकं	-5437
▁तमु	-5438
▁पाः	-5439
▁िकस	-5440
▁क्ता	-5441
▁ङ्ग्	-5442
▁सीत्	-5443
▁ृष्टः	-5444
pe	-5445
▁ठत	-5446
▁अथा	-5447
▁तरी	-5448
▁रयि	-5449
▁वित	-5450
▁िनं	-5451
▁परिस	-5452
▁स्थि	-5453
▁सामान	-5454
▁कलौ	-5455
▁दनं	-5456
▁संध	-5457
▁ख्यं	-5458
▁चिद्	-5459
▁धाना	-5460
▁मभ्य	-5461
▁महान	-5462
▁थाप्य	-5463
▁ान्तं	-5464
un	-5465
▁माने	-5466
▁्रहः	-5467
▁VERSE	-5468
pp	-5469
▁bo	-5470
▁इट	-5471
▁ातय	-5472
▁ापा	-5473
▁ीत्	-5474
▁्लोक	-5475
▁त्यभि	-5476
▁6.	-5477
▁la	-5478
▁ीभ	-5479
▁Cha	-5480
▁तरो	-5481
▁पाध	-5482
▁प्न	-5483
▁मतं	-5484
▁मने	-5485
▁शाय	-5486
▁ाणं	-5487
▁ादे	-5488
▁ाधी	-5489
▁ामे	-5490
▁िवा	-5491
▁त्तः	-5492
▁मेति	-5493
▁्राद	-5494
▁्वाः	-5495
▁ʻ	-5496
▁नध	-5497
▁रथं	-5498
▁ायव	-5499
▁१००	-5500
▁र्पय	-5501
▁र्षण	-5502
▁्रोत	-5503
▁अन्वय	-5504
▁क्रमे	-5505
▁De	-5506
▁Lo	-5507
▁अम	-5508
▁ठा	-5509
▁pdf	-5510
▁यसा	-5511
▁्वस	-5512
▁स्वं	-5513
▁त्यक्	-5514
▁हात्म	-5515
▁रमो	-5516
▁िलि	-5517
▁ुन्द	-5518
▁स्वाम	-5519
▁लर	-5520
▁५७	-5521
▁इमा	-5522
▁कित	-5523
▁जने	-5524
▁ृतं	-5525
▁चर्य	-5526
▁ह्या	-5527
▁ाम्न	-5528
ory	-5529
▁६५	-5530
▁मखु	-5531
▁शां	-5532
▁िलो	-5533
▁ुरे	-5534
▁वर्णा	-5535
▁्यान्	-5536
वान	-5537
▁To	-5538
▁ma	-5539
▁तश	-5540
▁शद	-5541
▁लये	-5542
▁िकाय	-5543
▁fi	-5544
▁ki	-5545
▁षः	-5546
▁नुत	-5547
▁ोनि	-5548
▁्वं	-5549
▁यद्व	-5550
▁ितार	-5551
▁्यवस	-5552
▁खी	-5553
▁दपि	-5554
▁पद्	-5555
▁लान	-5556
▁वरी	-5557
▁िगत	-5558
▁ोऽस	-5559
▁q	-5560
▁ऩ	-5561
▁29	-5562
▁घा	-5563
▁ght	-5564
▁माध	-5565
▁रणी	-5566
▁रती	-5567
▁हरत	-5568
▁ाभव	-5569
▁न्नः	-5570
▁स्तं	-5571
▁ानीय	-5572
▁्योग	-5573
▁तस्तु	-5574
▁प्रभा	-5575
▁(.	-5576
▁31	-5577
▁SP	-5578
▁संत	-5579
▁िपी	-5580
▁तकाल	-5581
▁देवं	-5582
▁िद्र	-5583
▁z	-5584
▁दिः	-5585
▁वये	-5586
▁शुच	-5587
▁ुसं	-5588
▁ऽत्र	-5589
th	-5590
▁ूण	-5591
▁५६	-5592
▁दाप	-5593
▁सदस	-5594
▁अध्य	-5595
▁रस्व	-5596
▁िदान	-5597
▁लद	-5598
▁ैस	-5599
▁नाट	-5600
▁पुष	-5601
▁मनं	-5602
▁्तौ	-5603
▁न्नम	-5604
▁ेत्त	-5605
▁िष्टं	-5606
▁La	-5607
▁un	-5608
▁थी	-5609
▁गुर	-5610
▁जून	-5611
▁रिच	-5612
▁ामस	-5613
▁र्षे	-5614
▁ृक्ष	-5615
▁विभाष	-5616
▁ान्ये	-5617
ver	-5618
▁भ्	-5619
▁षो	-5620
▁तरः	-5621
▁रम्	-5622
▁वन्	-5623
▁करोम	-5624
▁ानन्	-5625
▁Nepal	-5626
▁त्यपि	-5627
▁्येति	-5628
ci	-5629
▁धत	-5630
▁धस	-5631
▁पध	-5632
▁पपद	-5633
▁रान	-5634
▁ोषि	-5635
▁नोति	-5636
ta	-5637
▁युज	-5638
▁्थम	-5639
▁त्रव	-5640
▁िवार	-5641
▁्राप	-5642
▁द्विग	-5643
▁्यतां	-5644
▁्यतीत	-5645
DF	-5646
ms	-5647
▁Ex	-5648
ears	-5649
▁गतौ	-5650
▁गदा	-5651
▁नरा	-5652
▁ृतः	-5653
▁त्तो	-5654
▁विति	-5655
▁̇	-5656
▁di	-5657
▁तके	-5658
▁रसि	-5659
▁लाम	-5660
▁ुका	-5661
▁ियन्	-5662
▁त्रास	-5663
▁रस्या	-5664
▁7.	-5665
▁मण	-5666
▁मश	-5667
▁लै	-5668
▁दीर	-5669
▁याप	-5670
▁रिष	-5671
▁ादृ	-5672
▁कान्	-5673
▁यावत	-5674
▁ारिण	-5675
▁्वयं	-5676
▁त्राण	-5677
▁Sh	-5678
▁इक	-5679
▁कद	-5680
▁५९	-5681
▁तयः	-5682
▁याण	-5683
▁रमाण	-5684
▁ʼ	-5685
▁षं	-5686
▁San	-5687
▁तूं	-5688
▁ून्	-5689
▁्रः	-5690
▁च्छत	-5691
▁मृता	-5692
▁रान्	-5693
▁्यैः	-5694
▁ाप्तं	-5695
▁्यास्	-5696
▁डल	-5697
▁मदु	-5698
▁येव	-5699
▁ुगे	-5700
▁Onli	-5701
▁वादि	-5702
▁ानम्	-5703
▁ारम्	-5704
lok	-5705
▁cd	-5706
▁mb	-5707
▁तते	-5708
▁तिद	-5709
▁पथि	-5710
▁ाच्	-5711
▁िधाय	-5712
▁िभिर	-5713
▁्वेत	-5714
▁िष्णु	-5715
▁\	-5716
▁ौत	-5717
▁(3)	-5718
▁vii	-5719
▁ग्व	-5720
▁भिव	-5721
▁ागि	-5722
▁ेमा	-5723
▁यानं	-5724
▁विद्	-5725
▁ch	-5726
▁नुद	-5727
▁ाजि	-5728
▁िकर	-5729
▁ुनि	-5730
▁स्वार	-5731
▁ित्रे	-5732
▁॒र	-5733
▁PDF	-5734
▁ver	-5735
▁अथो	-5736
▁पदि	-5737
▁ाशन	-5738
▁कृतम	-5739
▁चितं	-5740
▁ुद्द	-5741
▁प्रवि	-5742
▁(4	-5743
▁एति	-5744
▁जनं	-5745
▁निह	-5746
▁याल	-5747
▁ारस	-5748
▁ृति	-5749
▁्रै	-5750
▁्ले	-5751
▁अनुव	-5752
▁न्दे	-5753
▁ृताः	-5754
▁जानाम	-5755
▁तस्यै	-5756
▁निर्ण	-5757
▁समुद्	-5758
ya	-5759
▁UP	-5760
▁नये	-5761
▁सैव	-5762
▁ाकु	-5763
▁ामर	-5764
▁िरस्	-5765
▁ूयते	-5766
▁विस्त	-5767
▁स्याप	-5768
▁्रसाद	-5769
sk	-5770
सः	-5771
ame	-5772
▁बर्	-5773
▁िती	-5774
▁ीये	-5775
▁ैवा	-5776
▁माणे	-5777
▁मानं	-5778
▁वत्य	-5779
▁ाच्य	-5780
▁प्नोत	-5781
▁us	-5782
▁गद	-5783
▁ुङ	-5784
▁ौद	-5785
▁आर्	-5786
▁जनय	-5787
▁फला	-5788
▁वता	-5789
▁ुमन	-5790
▁न्नो	-5791
▁भावि	-5792
▁राजस	-5793
▁रुक्	-5794
▁विदा	-5795
▁स्तम	-5796
▁ित्स	-5797
▁ुर्व	-5798
▁ृत्त	-5799
▁याश्च	-5800
▁ाप्नो	-5801
▁आभ	-5802
▁्रज	-5803
▁द्धा	-5804
▁लङ्क	-5805
os	-5806
▁Ma	-5807
▁ठी	-5808
▁ाङ	-5809
▁ूव	-5810
▁You	-5811
▁उन्	-5812
▁गाद	-5813
▁थौं	-5814
▁रुः	-5815
▁Read	-5816
▁ानीम	-5817
▁ततस्त	-5818
▁निद्र	-5819
▁ात्रं	-5820
▁IN	-5821
▁पयः	-5822
▁्मश	-5823
▁भेदा	-5824
▁ावत्	-5825
ook	-5826
▁Su	-5827
▁कस्	-5828
▁नुस	-5829
▁पाव	-5830
▁संन	-5831
▁िज्	-5832
▁िथि	-5833
▁ूर्वं	-5834
▁°	-5835
▁षस	-5836
▁ाठ	-5837
▁९०	-5838
▁जाप	-5839
▁तीक	-5840
▁वपि	-5841
▁सिन	-5842
▁्बा	-5843
▁ूज्य	-5844
▁ाद्वि	-5845
ew	-5846
▁co	-5847
▁७५	-5848
▁अच्	-5849
▁अर्	-5850
▁षिण	-5851
▁ष्क	-5852
▁समे	-5853
▁सहस	-5854
▁ावस	-5855
▁ुपा	-5856
▁्तन	-5857
▁जाना	-5858
▁जीवत	-5859
▁पाठः	-5860
▁वहार	-5861
▁विक्	-5862
▁्यन्	-5863
▁्यैव	-5864
▁्ट्रे	-5865
ub	-5866
▁५३	-5867
▁उदा	-5868
▁तमि	-5869
▁रद्	-5870
▁ानय	-5871
▁ामु	-5872
▁श्रा	-5873
▁्मत्	-5874
▁द्यां	-5875
▁भ्याम	-5876
▁िष्ये	-5877
own	-5878
▁नप	-5879
▁६४	-5880
▁खान	-5881
▁समर	-5882
▁स्ती	-5883
▁38	-5884
▁Sen	-5885
▁ंक्	-5886
▁दिर	-5887
▁राल	-5888
▁्यज	-5889
▁र्वी	-5890
▁स्तत	-5891
▁टेन	-5892
▁ह्ण	-5893
▁नाति	-5894
▁र्वि	-5895
▁स्थे	-5896
▁रीणां	-5897
▁वक्तु	-5898
▁ार्थि	-5899
▁ूर्वप	-5900
▁36	-5901
▁ha	-5902
▁गय	-5903
▁अले	-5904
▁आपो	-5905
▁कुर	-5906
▁तिग	-5907
▁पा०	-5908
▁भवा	-5909
▁लाक	-5910
▁िलक	-5911
▁ीणा	-5912
▁ूया	-5913
▁परमे	-5914
▁्मणि	-5915
▁ex	-5916
▁धै	-5917
▁६१	-5918
▁समः	-5919
▁ादः	-5920
▁ापी	-5921
▁ृष्	-5922
▁क्षस	-5923
▁र्धन	-5924
▁विकल	-5925
▁स्यं	-5926
▁ावान	-5927
▁्म्म	-5928
▁्रेत	-5929
▁ितानि	-5930
▁्त्वा	-5931
▁्रियत	-5932
▁Di	-5933
▁उन	-5934
▁शप	-5935
▁wor	-5936
▁मोऽ	-5937
▁रार	-5938
▁रीत	-5939
▁ेवल	-5940
▁तमान	-5941
▁नकार	-5942
▁नान्	-5943
▁ानित	-5944
▁ेव्य	-5945
▁प्रार	-5946
▁ाज्ञा	-5947
fe	-5948
▁Pi	-5949
▁sp	-5950
▁गी	-5951
▁मरु	-5952
▁यैः	-5953
▁ृते	-5954
▁्टम	-5955
▁व्ये	-5956
▁शात्	-5957
▁ारणे	-5958
▁धिष्ठ	-5959
▁्माद्	-5960
▁्यताम	-5961
ps	-5962
▁me	-5963
▁Com	-5964
▁Xxx	-5965
▁दाश	-5966
▁राण	-5967
▁संर	-5968
▁्धव	-5969
▁कन्य	-5970
▁पस्थ	-5971
▁मातु	-5972
▁ायते	-5973
▁ुदाय	-5974
▁्नुव	-5975
▁र्जित	-5976
▁अर	-5977
▁बस	-5978
▁भिज	-5979
▁रिस	-5980
▁वसि	-5981
▁ाप्	-5982
▁्जु	-5983
▁ष्ठी	-5984
▁र्वान	-5985
▁विष्ण	-5986
▁ेक्ष्	-5987
va	-5988
▁ठे	-5989
▁यक	-5990
▁ीर्	-5991
▁्तं	-5992
▁Live	-5993
▁यथाव	-5994
▁मिच्छ	-5995
थे	-5996
▁›	-5997
▁ंघ	-5998
▁७१	-5999
▁and	-6000
▁करा	-6001
▁ासत	-6002
▁िपर	-6003
▁कल्य	-6004
▁यत्क	-6005
▁Sa	-6006
▁ऊँ	-6007
▁टः	-6008
▁णौ	-6009
▁परव	-6010
▁सती	-6011
▁nsla	-6012
▁ध्ये	-6013
▁वितु	-6014
▁िज्ञ	-6015
▁िव्य	-6016
▁ुक्ष	-6017
__	-6018
▁आच	-6019
▁णेन	-6020
▁पृ०	-6021
▁योन	-6022
▁वनी	-6023
▁ुभि	-6024
▁षद	-6025
▁मकर	-6026
▁हतः	-6027
▁ावो	-6028
▁ीम्	-6029
▁ोन्	-6030
▁ुष्प	-6031
▁्म्य	-6032
▁्विज	-6033
▁वार्ष	-6034
▁अयि	-6035
▁पन्	-6036
▁ेऽप	-6037
▁मङ्ग	-6038
▁ानवा	-6039
▁ान्म	-6040
▁्द्य	-6041
▁ान्यत	-6042
▁ूर्णम	-6043
▁33	-6044
▁टिक	-6045
▁वेव	-6046
▁ारव	-6047
▁ालं	-6048
▁िरु	-6049
▁िशो	-6050
▁्टो	-6051
▁ज्ञे	-6052
▁न्था	-6053
▁र्हत	-6054
▁वप्र	-6055
▁विवा	-6056
▁्राण	-6057
▁यत्रा	-6058
▁्य्या	-6059
▁►	-6060
▁8.	-6061
▁रश	-6062
▁९१	-6063
▁णाद	-6064
▁तरि	-6065
▁रया	-6066
▁रवे	-6067
▁वरो	-6068
▁व्व	-6069
▁ानः	-6070
▁गात्	-6071
▁यातः	-6072
▁र्षत	-6073
▁लिङ्	-6074
▁ितां	-6075
▁्वां	-6076
▁्वाक	-6077
▁्विद	-6078
▁६२	-6079
▁८४	-6080
▁(4)	-6081
▁100	-6082
▁ावृ	-6083
▁िकम	-6084
▁्कि	-6085
▁ण्डल	-6086
▁मत्स	-6087
▁वत्व	-6088
▁ाक्र	-6089
▁ास्या	-6090
art	-6091
▁फ्	-6092
▁७४	-6093
▁For	-6094
▁men	-6095
▁जम्	-6096
▁पदम	-6097
▁राः	-6098
▁लाद	-6099
▁सने	-6100
▁ीकर	-6101
▁ूता	-6102
▁्का	-6103
▁अनुस	-6104
▁नानु	-6105
▁ासीत	-6106
▁Sente	-6107
▁क्षति	-6108
ru	-6109
▁ंव	-6110
▁rit	-6111
▁घटः	-6112
▁यिन	-6113
▁राक	-6114
▁तादृ	-6115
▁त्पद	-6116
▁लात्	-6117
▁्याव	-6118
▁राकृत	-6119
▁vs	-6120
▁उ०	-6121
▁७६	-6122
▁िहा	-6123
▁ुजा	-6124
▁्धर	-6125
▁्बि	-6126
▁दर्थ	-6127
▁वदन्	-6128
▁ानुग	-6129
▁िप्प	-6130
ls	-6131
mp	-6132
▁सॊ	-6133
▁अलं	-6134
▁सू०	-6135
▁िमि	-6136
▁ृक्	-6137
▁पयोग	-6138
▁मर्ह	-6139
▁संवि	-6140
▁्क्ष	-6141
▁भिप्र	-6142
ry	-6143
▁34	-6144
▁औं	-6145
▁भस	-6146
▁स०	-6147
▁मनी	-6148
▁यनं	-6149
▁pter	-6150
▁दिषु	-6151
▁पादन	-6152
▁ृतिः	-6153
lu	-6154
फ्	-6155
▁60	-6156
▁आध	-6157
▁चेह	-6158
▁वेब	-6159
▁शन्	-6160
▁सुव	-6161
▁ेक्	-6162
▁मत्व	-6163
▁म्पत	-6164
▁वन्न	-6165
▁हितः	-6166
▁ाऽपि	-6167
▁्देश	-6168
▁कश्चि	-6169
▁सर्वक	-6170
gi	-6171
age	-6172
▁37	-6173
▁Mo	-6174
▁आङ	-6175
▁थय	-6176
▁एतत	-6177
▁एता	-6178
▁जिं	-6179
▁लाग	-6180
▁वल्	-6181
▁ेका	-6182
▁्नव	-6183
▁निषे	-6184
▁प्नु	-6185
▁यादी	-6186
▁ुष्म	-6187
▁्ञानम	-6188
▁्तिका	-6189
da	-6190
▁Me	-6191
▁५८	-6192
▁अपा	-6193
▁ऋणं	-6194
▁ठन्	-6195
▁िवस	-6196
▁ोगी	-6197
▁load	-6198
▁कारे	-6199
▁णत्व	-6200
▁तिनि	-6201
▁त्वन	-6202
▁परित	-6203
▁माणम	-6204
▁रव्य	-6205
▁लस्य	-6206
▁हारे	-6207
▁ृह्य	-6208
▁ंख	-6209
▁षव	-6210
▁६६	-6211
▁All	-6212
▁एषु	-6213
▁गां	-6214
▁जुल	-6215
▁भिस	-6216
▁मीक	-6217
▁षयः	-6218
▁समव	-6219
▁हात	-6220
▁िरत	-6221
▁ीयो	-6222
▁ियाः	-6223
▁्नाम	-6224
▁र्वाण	-6225
▁ामान्	-6226
ey	-6227
▁Da	-6228
▁my	-6229
▁ंय	-6230
▁ूग	-6231
▁६८	-6232
▁यार	-6233
▁रीष	-6234
▁वचनम	-6235
▁्द्र	-6236
▁मिष्य	-6237
▁वर्ति	-6238
▁्यामि	-6239
▁(←	-6240
▁ूज	-6241
▁७२	-6242
▁ary	-6243
▁तिव	-6244
▁भाः	-6245
▁सिध	-6246
▁ामत	-6247
▁ाली	-6248
▁्दि	-6249
▁िभ्य	-6250
▁ैन्य	-6251
▁्यात	-6252
▁वेन	-6253
▁िचा	-6254
▁ुनः	-6255
▁ंग्र	-6256
▁ुल्य	-6257
▁्मनि	-6258
▁्रतिप	-6259
▁्रियं	-6260
▁wi	-6261
▁ठ्	-6262
▁तदप	-6263
▁ितत	-6264
▁ृषि	-6265
▁येषु	-6266
▁र्वत	-6267
▁ुत्र	-6268
▁्यद्	-6269
▁याणां	-6270
▁संहित	-6271
▁ात्रे	-6272
▁ार्थम	-6273
XX	-6274
▁at	-6275
▁धने	-6276
▁नतु	-6277
▁परस	-6278
▁यर्	-6279
▁रसः	-6280
▁ुष्य	-6281
▁्गुण	-6282
▁्वरा	-6283
▁अधिका	-6284
▁ृतवान	-6285
▁᳘	-6286
▁तह	-6287
▁८६	-6288
▁लयः	-6289
▁वते	-6290
▁ादो	-6291
▁गृहम	-6292
▁न्यत	-6293
▁योगा	-6294
▁वाम्	-6295
▁शून्	-6296
▁तान्त	-6297
mi	-6298
▁ऱ	-6299
▁Go	-6300
▁VI	-6301
▁उव	-6302
▁तट	-6303
▁हण	-6304
▁ISO	-6305
▁एके	-6306
▁तवम	-6307
▁निद	-6308
▁संख	-6309
▁ाहा	-6310
▁ितप	-6311
▁िभे	-6312
▁र्गम	-6313
▁ोजनम्	-6314
▁्वात्	-6315
▁ङी	-6316
▁अल्	-6317
▁जयः	-6318
▁यङ्	-6319
▁वृक	-6320
▁ाचक	-6321
▁ापक	-6322
▁िचि	-6323
▁ुध्	-6324
▁्क्	-6325
▁इदान	-6326
▁केषु	-6327
▁न्यं	-6328
▁न्यः	-6329
▁र्तृ	-6330
▁र्मा	-6331
▁ुनर्	-6332
▁ुभ्य	-6333
▁ऐं	-6334
▁दम्	-6335
▁वतु	-6336
▁ादी	-6337
▁Cate	-6338
▁क्यम	-6339
▁न्मन	-6340
▁प्ति	-6341
▁रत्य	-6342
▁जानात	-6343
▁पश्चि	-6344
▁िशब्द	-6345
▁ुनर्न	-6346
▁्रादि	-6347
▁्वन्त	-6348
ur	-6349
▁ct	-6350
▁छत	-6351
▁थै	-6352
▁एकल	-6353
▁याभ	-6354
▁योद	-6355
▁वना	-6356
▁ाणः	-6357
▁ाहर	-6358
▁च्चा	-6359
▁दृशा	-6360
▁िर्भ	-6361
▁्रहण	-6362
▁ख्याय	-6363
▁गप	-6364
▁तिन	-6365
▁रथः	-6366
▁म्पन	-6367
▁विशत	-6368
▁स्यत	-6369
▁ाषाया	-6370
▁mp	-6371
▁ख्	-6372
▁गभ	-6373
▁दप	-6374
▁९५	-6375
▁धस्	-6376
▁रसन	-6377
▁ाते	-6378
▁ृशं	-6379
▁ेयः	-6380
▁ेशं	-6381
▁ष्मा	-6382
▁रियां	-6383
▁रिष्य	-6384
▁01	-6385
▁1)	-6386
▁2)	-6387
▁इय	-6388
▁पग	-6389
▁॑त	-6390
▁min	-6391
▁शति	-6392
▁हतं	-6393
▁ातः	-6394
▁ीरा	-6395
▁क्षं	-6396
▁ख्ये	-6397
▁मार्	-6398
▁िकार	-6399
▁ूक्ष	-6400
▁ेतुः	-6401
▁्यप्र	-6402
eb	-6403
▁Te	-6404
▁अः	-6405
▁टत	-6406
▁जहि	-6407
▁दने	-6408
▁पु॰	-6409
▁भाई	-6410
▁ह्म	-6411
▁ेशः	-6412
▁ेशि	-6413
▁स्वक	-6414
▁्ध्व	-6415
▁क्तिं	-6416
bs	-6417
fi	-6418
ink	-6419
▁गात	-6420
▁जनो	-6421
▁देन	-6422
▁मन्	-6423
▁रीक	-6424
▁िसा	-6425
▁्तर	-6426
▁्वश	-6427
▁स्रा	-6428
▁ामपि	-6429
▁ीडिय	-6430
▁्षिप	-6431
▁प्रमा	-6432
▁80	-6433
▁ol	-6434
▁इष	-6435
▁थप	-6436
▁थम	-6437
▁ago	-6438
▁दाः	-6439
▁रिग	-6440
▁िरी	-6441
▁दाने	-6442
▁यासः	-6443
▁वत्र	-6444
▁िभाष	-6445
▁त्तान	-6446
▁ce	-6447
▁Pro	-6448
▁निन	-6449
▁सुभ	-6450
▁ोस्	-6451
▁्वह	-6452
▁तद्ध	-6453
▁परिभ	-6454
▁वाणि	-6455
▁्याह	-6456
▁as	-6457
▁अं	-6458
▁लत	-6459
▁ृतो	-6460
▁ोरा	-6461
▁द्यं	-6462
▁लिका	-6463
▁िष्क	-6464
▁ैस्त	-6465
▁्ह्य	-6466
▁त्काल	-6467
▁्यत्र	-6468
ची	-6469
▁fa	-6470
▁ka	-6471
▁ठं	-6472
▁६३	-6473
▁उपर	-6474
▁तपो	-6475
▁भये	-6476
▁वीय	-6477
▁िसं	-6478
▁ेकं	-6479
▁्टे	-6480
▁ब्दे	-6481
▁रादि	-6482
▁ोत्त	-6483
ho	-6484
▁go	-6485
▁III	-6486
▁cle	-6487
▁ट्व	-6488
▁नक्	-6489
▁नति	-6490
▁रयः	-6491
▁रीं	-6492
▁लेश	-6493
▁वसन	-6494
▁ासर	-6495
▁िणे	-6496
▁ुतं	-6497
▁तिवि	-6498
▁रह्म	-6499
▁र्णम	-6500
▁र्मि	-6501
▁स्यै	-6502
▁्युर	-6503
▁त्रम्	-6504
▁ाभ्या	-6505
▁×	-6506
▁(5	-6507
▁48	-6508
▁qu	-6509
▁टो	-6510
▁यवि	-6511
▁षाम	-6512
▁ामह	-6513
▁िकल	-6514
▁्मम	-6515
▁न्धे	-6516
▁रयति	-6517
▁राधा	-6518
▁ष्टो	-6519
▁ादिव	-6520
▁India	-6521
▁9.	-6522
▁va	-6523
▁दभ	-6524
▁नश	-6525
▁बभ	-6526
▁per	-6527
▁उक्	-6528
▁मैं	-6529
▁रहः	-6530
▁प्यत	-6531
▁समाह	-6532
▁years	-6533
▁स्वर्	-6534
▁्रियम	-6535
▁45	-6536
▁ऋच	-6537
▁इतो	-6538
▁धाः	-6539
▁नुर	-6540
▁वसा	-6541
▁सखा	-6542
▁सखि	-6543
▁ुणे	-6544
▁ूना	-6545
▁ोष्	-6546
▁िरूप	-6547
▁et	-6548
▁६९	-6549
▁तरत	-6550
▁ुवा	-6551
▁्कृ	-6552
▁्रध	-6553
▁कित्	-6554
▁निस्	-6555
▁र्वर	-6556
▁ोस्त	-6557
▁्तिः	-6558
▁ष्ट्य	-6559
BC	-6560
ni	-6561
tle	-6562
▁==	-6563
▁he	-6564
▁७९	-6565
▁()?	-6566
▁गवा	-6567
▁नन्	-6568
▁याऽ	-6569
▁वेण	-6570
▁िदि	-6571
▁िपू	-6572
▁अनुम	-6573
▁क्षो	-6574
▁गृहा	-6575
▁परिष	-6576
▁ृहीत	-6577
▁्मणा	-6578
▁तीनां	-6579
▁त्याह	-6580
ca	-6581
▁¦	-6582
▁39	-6583
▁Si	-6584
▁da	-6585
▁em	-6586
▁धित	-6587
▁सतः	-6588
▁ीरं	-6589
▁गृह्	-6590
▁परस्	-6591
▁मानम	-6592
▁ात्प	-6593
▁्वास	-6594
▁अवश्य	-6595
AS	-6596
▁Co	-6597
▁घो	-6598
▁man	-6599
▁लया	-6600
▁षत्	-6601
▁सखे	-6602
▁ाके	-6603
▁तेति	-6604
▁ाह्य	-6605
▁त्राय	-6606
▁ान्या	-6607
deo	-6608
ill	-6609
▁TV	-6610
▁su	-6611
▁उक	-6612
▁८१	-6613
▁त्न	-6614
▁ागः	-6615
▁ालव	-6616
▁्टा	-6617
▁्मन्	-6618
▁कर्मा	-6619
▁िबन्ध	-6620
▁44	-6621
▁Qu	-6622
▁कैक	-6623
▁गस्	-6624
▁रसा	-6625
▁ऽभि	-6626
▁तमम्	-6627
▁मनुष	-6628
▁र्यः	-6629
▁ुरूप	-6630
▁न्येन	-6631
▁रम्पर	-6632
▁वदन्त	-6633
▁िक्षण	-6634
▁्वप्र	-6635
ET	-6636
ga	-6637
ge	-6638
मम	-6639
▁41	-6640
▁तास	-6641
▁बुद	-6642
▁राप	-6643
▁रिज	-6644
▁िये	-6645
▁ेशा	-6646
▁mber	-6647
▁धानं	-6648
▁विवे	-6649
▁्रवण	-6650
▁्रीम	-6651
▁राणां	-6652
▁स्वाह	-6653
▁42	-6654
▁Ab	-6655
▁mi	-6656
▁ठन	-6657
▁ढा	-6658
▁बज	-6659
▁८७	-6660
▁con	-6661
▁कवच	-6662
▁जगा	-6663
▁दये	-6664
▁नत्	-6665
▁मवि	-6666
▁युर	-6667
▁वरे	-6668
▁gory	-6669
▁ग्रा	-6670
▁देवत	-6671
▁ासेन	-6672
▁िकां	-6673
▁्मास	-6674
▁्याख	-6675
▁क्ताः	-6676
▁ञ्चित	-6677
▁ुवन्त	-6678
▁Z	-6679
▁६७	-6680
▁नुग	-6681
▁पस्	-6682
▁भिन	-6683
▁सुग	-6684
▁ृता	-6685
▁ोज्	-6686
▁तिरि	-6687
▁निवा	-6688
▁पदम्	-6689
▁मस्म	-6690
▁शस्य	-6691
▁ीयान	-6692
▁कथ्यत	-6693
▁mo	-6694
▁अद	-6695
▁you	-6696
▁नोत	-6697
▁पाण	-6698
▁सर्	-6699
▁ासं	-6700
▁िषि	-6701
▁्रय	-6702
▁दिष्	-6703
▁भागः	-6704
▁यव्य	-6705
▁रश्च	-6706
▁रूपम	-6707
▁ार्श	-6708
▁ीर्त	-6709
▁43	-6710
▁Sy	-6711
▁षत	-6712
▁ीग	-6713
▁nts	-6714
▁थास	-6715
▁साप	-6716
▁ाज्	-6717
▁ूपत	-6718
▁्गव	-6719
▁पादा	-6720
▁मित्	-6721
▁रिक्	-6722
▁वद्भ	-6723
▁ृश्य	-6724
▁्यस्	-6725
▁Sansk	-6726
▁त्स्व	-6727
▁दर्शि	-6728
▁न्तस्	-6729
▁शक्यत	-6730
▁ायाम्	-6731
▁्तस्य	-6732
▁अझ	-6733
▁वव	-6734
▁जनी	-6735
▁पदः	-6736
▁िसम	-6737
▁ेनो	-6738
▁More	-6739
▁कुत्	-6740
▁भाग्	-6741
▁योजय	-6742
▁सुन्	-6743
▁ुग्र	-6744
▁्वन्	-6745
▁्विष	-6746
▁प्रमु	-6747
▁रात्म	-6748
▁स्मात	-6749
▁्रतिम	-6750
▁le	-6751
▁लङ	-6752
▁ंशय	-6753
▁गित	-6754
▁जया	-6755
▁याक	-6756
▁हरः	-6757
▁ाणस	-6758
▁ाहन	-6759
▁िषे	-6760
▁गतम्	-6761
▁च्छि	-6762
▁द्दे	-6763
▁द्धो	-6764
▁र्थव	-6765
▁ारिक	-6766
▁्तेन	-6767
▁इदानी	-6768
▁Ju	-6769
▁ro	-6770
▁टव	-6771
▁रर	-6772
▁XXX	-6773
▁fff	-6774
▁nal	-6775
▁अवश	-6776
▁योप	-6777
▁शृण	-6778
▁ोके	-6779
▁्जा	-6780
▁्हि	-6781
▁२००	-6782
▁नाया	-6783
▁ारणम	-6784
▁ुण्य	-6785
▁्तुं	-6786
▁त्त्य	-6787
ree	-6788
▁डव	-6789
▁७३	-6790
▁gra	-6791
▁रतम	-6792
▁Down	-6793
▁आसीत	-6794
▁भ्यत	-6795
▁विदु	-6796
▁्वपि	-6797
▁कस्या	-6798
▁ूर्वा	-6799
▁्थानम	-6800
wi	-6801
ard	-6802
▁CO	-6803
▁Wi	-6804
▁am	-6805
▁ःप	-6806
▁आका	-6807
▁तच्	-6808
▁तीं	-6809
▁धिग	-6810
▁ोहि	-6811
▁्यल	-6812
▁्वध	-6813
▁याता	-6814
▁ूचना	-6815
▁इत्यन	-6816
▁Bo	-6817
▁lt	-6818
▁ers	-6819
▁आम्	-6820
▁तिब	-6821
▁नैष	-6822
▁भित	-6823
▁मये	-6824
▁हतो	-6825
▁ेश्	-6826
▁्षी	-6827
▁स्तथ	-6828
▁ार्म	-6829
▁िहार	-6830
▁ेद्य	-6831
▁र्तित	-6832
▁്	-6833
▁46	-6834
▁IP	-6835
▁ST	-6836
▁br	-6837
▁लब	-6838
▁वक	-6839
▁10.	-6840
▁घटे	-6841
▁जस्	-6842
▁ाञ्	-6843
▁न्तव	-6844
▁येवं	-6845
▁हितम	-6846
▁नई	-6847
▁८८	-6848
▁९३	-6849
▁नवर	-6850
▁रयो	-6851
▁्दश	-6852
▁्न्	-6853
▁पुष्	-6854
▁रिंश	-6855
▁ितस्	-6856
▁तिज्ञ	-6857
▁वर्गः	-6858
▁िष्ठा	-6859
▁En	-6860
▁गस	-6861
▁डॉ	-6862
▁म०	-6863
▁Mar	-6864
▁तवन	-6865
▁यमि	-6866
▁यवे	-6867
▁शस्	-6868
▁ानप	-6869
▁िवे	-6870
▁ोगा	-6871
▁ोमि	-6872
▁परिक	-6873
▁परिण	-6874
▁भगवा	-6875
▁लाना	-6876
▁िग्र	-6877
▁title	-6878
▁पुस्त	-6879
ays	-6880
▁[।	-6881
▁दन्	-6882
▁सभी	-6883
▁िमे	-6884
▁त्युत	-6885
AT	-6886
ke	-6887
tt	-6888
▁आन	-6889
▁रष	-6890
▁ोव	-6891
▁ort	-6892
▁pro	-6893
▁तेर	-6894
▁देष	-6895
▁माक	-6896
▁यैर	-6897
▁शम्	-6898
▁ितव	-6899
▁ुमा	-6900
▁त्यक	-6901
▁त्यो	-6902
▁म्भव	-6903
▁विवर	-6904
▁परन्त	-6905
co	-6906
ith	-6907
▁47	-6908
▁Mi	-6909
▁खत	-6910
▁मब	-6911
▁(5)	-6912
▁दस्	-6913
▁भिय	-6914
▁यच्	-6915
▁रेस	-6916
▁ीतो	-6917
▁ेवत	-6918
▁Exam	-6919
▁deos	-6920
▁कामा	-6921
▁्येते	-6922
yle	-6923
▁So	-6924
▁pr	-6925
▁App	-6926
▁थिक	-6927
▁नीं	-6928
▁ागे	-6929
▁ासस	-6930
▁post	-6931
▁यतां	-6932
▁्मरण	-6933
▁्रमा	-6934
did	-6935
▁02	-6936
▁ss	-6937
▁थं	-6938
▁गणः	-6939
▁तीन	-6940
▁दुप	-6941
▁पर्	-6942
▁भूः	-6943
▁मस्	-6944
▁ासम	-6945
▁ुश्	-6946
▁पयति	-6947
▁यकार	-6948
▁राया	-6949
▁िकम्	-6950
▁oldid	-6951
▁स्यान	-6952
धि	-6953
▁Ta	-6954
▁बो	-6955
▁यट	-6956
▁Res	-6957
▁अकर	-6958
▁गौः	-6959
▁िने	-6960
▁ूपे	-6961
▁Book	-6962
▁शास्	-6963
▁िश्य	-6964
▁्तिन	-6965
▁देवान	-6966
▁माध्य	-6967
▁्रतिज	-6968
na	-6969
खः	-6970
▁->	-6971
▁Ap	-6972
▁Fi	-6973
▁षय	-6974
▁८९	-6975
▁Hin	-6976
▁Nar	-6977
▁तेत	-6978
▁धीः	-6979
▁रजा	-6980
▁वस्	-6981
▁विं	-6982
▁ोदा	-6983
▁दाहर	-6984
▁मर्त	-6985
▁याया	-6986
▁ल्पा	-6987
▁ारयत	-6988
▁्यये	-6989
▁मर्थं	-6990
log	-6991
▁/1	-6992
▁IV	-6993
▁PM	-6994
▁sm	-6995
▁गई	-6996
▁ताय	-6997
▁देत	-6998
▁पंच	-6999
▁यका	-7000
▁षन्	-7001
▁ालः	-7002
▁ुवत	-7003
▁ज्ञो	-7004
▁देवद	-7005
▁ष्टः	-7006
▁िर्म	-7007
▁ुतम्	-7008
▁्वाप	-7009
▁अभ्या	-7010
▁प्रकृ	-7011
▁्मानं	-7012
▁्वर्य	-7013
▁49	-7014
▁HD	-7015
▁ऐस	-7016
▁कॊ	-7017
▁९९	-7018
▁थथे	-7019
▁पृष	-7020
▁रेय	-7021
▁वसे	-7022
▁साक	-7023
▁ाती	-7024
▁जीवि	-7025
▁त्यः	-7026
▁द्वा	-7027
▁नस्य	-7028
▁र्यम	-7029
▁स्तस	-7030
▁ारणं	-7031
▁ितान	-7032
▁्पित	-7033
▁Shlok	-7034
▁िस्ता	-7035
ube	-7036
▁3)	-7037
▁51	-7038
▁fr	-7039
▁रोज	-7040
▁ामग	-7041
▁र्वभ	-7042
▁ल्यं	-7043
▁स्वय	-7044
▁यिष्य	-7045
el	-7046
dit	-7047
▁(6	-7048
▁Bu	-7049
▁LI	-7050
▁it	-7051
▁ll	-7052
▁८५	-7053
▁ble	-7054
▁tes	-7055
▁xxx	-7056
▁पं॰	-7057
▁वशा	-7058
▁हूं	-7059
▁ितृ	-7060
▁ेव्	-7061
▁ment	-7062
▁more	-7063
▁भुक्	-7064
▁पादित	-7065
▁श्रद्	-7066
hat	-7067
sta	-7068
▁AP	-7069
▁Us	-7070
▁ba	-7071
▁रध	-7072
▁वज	-7073
▁वौ	-7074
▁Goo	-7075
▁bar	-7076
▁ste	-7077
▁अप्	-7078
▁थें	-7079
▁रपत	-7080
▁सङ्	-7081
▁्षय	-7082
▁चिता	-7083
▁तर्ह	-7084
▁त्यत	-7085
▁प्रग	-7086
▁रात्	-7087
▁वेदि	-7088
▁Video	-7089
▁क्षणं	-7090
▁प्राध	-7091
▁ितस्य	-7092
ds	-7093
▁̄	-7094
▁55	-7095
▁Sp	-7096
▁hi	-7097
▁ya	-7098
▁ऋ०	-7099
▁७७	-7100
▁८३	-7101
▁अचि	-7102
▁ऋते	-7103
▁बजे	-7104
▁ल्म	-7105
▁सक्	-7106
▁सवा	-7107
▁्नप	-7108
▁्यच	-7109
▁्यह	-7110
▁View	-7111
▁ङ्गि	-7112
▁त्रः	-7113
▁त्सं	-7114
▁यितु	-7115
▁षाम्	-7116
▁ादिस	-7117
▁िणाम	-7118
▁ूर्य	-7119
▁न्यस्	-7120
▁्रस्थ	-7121
▁्रियः	-7122
▁Í	-7123
▁̐	-7124
hed	-7125
▁vo	-7126
▁उष	-7127
▁तच	-7128
▁थक	-7129
▁थत	-7130
▁Wor	-7131
▁gle	-7132
▁औरत	-7133
▁फले	-7134
▁रुध	-7135
▁वनम	-7136
▁समि	-7137
▁ुणा	-7138
▁ोक्	-7139
▁ण्डा	-7140
▁त्यन	-7141
▁रप्र	-7142
▁ारस्	-7143
▁comme	-7144
▁्रतिब	-7145
▁्राची	-7146
▁्र्या	-7147
▁Le	-7148
▁SC	-7149
▁dy	-7150
▁तभ	-7151
▁पभ	-7152
▁वइ	-7153
▁षट	-7154
▁ो॒	-7155
▁९४	-7156
▁९७	-7157
▁अमी	-7158
▁ततस	-7159
▁तिभ	-7160
▁बन्	-7161
▁याइ	-7162
▁लभत	-7163
▁िहि	-7164
▁ुला	-7165
▁्णा	-7166
▁्तः	-7167
▁्रप	-7168
▁क्तः	-7169
▁ङ्गे	-7170
▁भवित	-7171
▁येना	-7172
▁पयेत्	-7173
▁बद्धा	-7174
▁bi	-7175
▁cu	-7176
▁बद	-7177
▁वट	-7178
▁ंसा	-7179
▁एहि	-7180
▁तरस	-7181
▁वतः	-7182
▁ुह्	-7183
▁ूल्	-7184
▁वारे	-7185
▁्यवह	-7186
▁शेषतः	-7187
▁ित्रं	-7188
▁ोऽस्त	-7189
▁ऌ	-7190
▁உ	-7191
▁53	-7192
▁Al	-7193
▁IC	-7194
▁ci	-7195
▁Jan	-7196
▁pcs	-7197
▁जनि	-7198
▁यशो	-7199
▁वचो	-7200
▁हते	-7201
▁ातृ	-7202
▁ालस	-7203
▁ेशी	-7204
▁्ते	-7205
▁पान्	-7206
▁लप्र	-7207
▁व्यत	-7208
▁स्वि	-7209
▁ुमान	-7210
▁नात्म	-7211
▁यित्व	-7212
▁**	-7213
▁-1	-7214
▁03	-7215
▁By	-7216
▁ly	-7217
▁nu	-7218
▁डन	-7219
▁ौव	-7220
▁९२	-7221
▁ure	-7222
▁अती	-7223
▁अहः	-7224
▁कास	-7225
▁तदन	-7226
▁पला	-7227
▁वशे	-7228
▁षेण	-7229
▁हुव	-7230
▁ीवन	-7231
▁ोवा	-7232
▁क्रा	-7233
▁भावा	-7234
▁रमेश	-7235
▁रुषः	-7236
▁र्मु	-7237
▁वाना	-7238
▁ाक्य	-7239
▁ानाय	-7240
▁ेश्य	-7241
▁्गान	-7242
▁्टिक	-7243
▁्तरः	-7244
▁श्वरः	-7245
▁ृष्टा	-7246
▁्थितः	-7247
▁तॊ	-7248
▁दइ	-7249
▁७८	-7250
▁८२	-7251
▁11.	-7252
▁ंशत	-7253
▁अभय	-7254
▁अये	-7255
▁एकम	-7256
▁घञ्	-7257
▁णाः	-7258
▁यजन	-7259
▁लका	-7260
▁सि०	-7261
▁type	-7262
▁ट्रि	-7263
▁ट्रे	-7264
▁भगवन	-7265
▁र्यो	-7266
▁साम्	-7267
▁ायुः	-7268
▁्ञात	-7269
▁त्रिण	-7270
▁याकरण	-7271
▁्रिका	-7272
ES	-7273
ere	-7274
▁70	-7275
▁Cu	-7276
▁fu	-7277
▁९८	-7278
loka	-7279
▁Stu	-7280
▁tag	-7281
▁बद्	-7282
▁भरे	-7283
▁रथे	-7284
▁ुषे	-7285
▁्भि	-7286
▁मिता	-7287
▁्क्र	-7288
▁Hindi	-7289
▁रुत्व	-7290
▁्वान्	-7291
▁ॠ	-7292
▁As	-7293
▁जम	-7294
▁णश	-7295
▁भः	-7296
▁Con	-7297
▁are	-7298
▁rre	-7299
▁धते	-7300
▁फट्	-7301
▁यता	-7302
▁यून	-7303
▁ऽसि	-7304
▁िण्	-7305
▁िरम	-7306
▁णीया	-7307
▁देवो	-7308
▁द्ये	-7309
▁भिधा	-7310
▁र्णे	-7311
▁Sloka	-7312
▁क्त्य	-7313
▁निवृत	-7314
▁प्यते	-7315
gy	-7316
▁$1	-7317
▁Au	-7318
▁फर	-7319
▁Day	-7320
▁sta	-7321
▁टाद	-7322
▁पुस	-7323
▁यने	-7324
▁रयं	-7325
▁षड्	-7326
▁हिल	-7327
▁िजा	-7328
▁्जी	-7329
▁्तम	-7330
▁त्रप	-7331
▁सुखम	-7332
▁अर्था	-7333
▁ग्रहा	-7334
ft	-7335
▁‖	-7336
▁ःख	-7337
▁एच	-7338
▁bha	-7339
▁एम्	-7340
▁णात	-7341
▁धिम	-7342
▁मुत	-7343
▁िसर	-7344
▁ृणा	-7345
▁्बर	-7346
▁दिता	-7347
▁यापि	-7348
▁र्थम	-7349
▁र्वै	-7350
▁्पत्	-7351
▁प्रदा	-7352
▁श्चात	-7353
▁्त्वम	-7354
▁÷	-7355
eta	-7356
our	-7357
▁59	-7358
▁Ba	-7359
▁Ca	-7360
▁MP	-7361
▁cm	-7362
▁ृभ	-7363
▁ged	-7364
▁mon	-7365
▁जति	-7366
▁तश्	-7367
▁रमे	-7368
▁वम्	-7369
▁हलः	-7370
▁ैका	-7371
▁्यश	-7372
▁२०६	-7373
▁User	-7374
▁ण्डि	-7375
▁न्ने	-7376
▁साइट	-7377
▁्तये	-7378
▁यमिति	-7379
▁वानां	-7380
▁स्मान	-7381
▁तग	-7382
▁दँ	-7383
▁धय	-7384
▁ऽह	-7385
▁ीए	-7386
▁उपय	-7387
▁केष	-7388
▁दाद	-7389
▁नाच	-7390
▁राद	-7391
▁Love	-7392
▁बहून	-7393
▁ष्ठे	-7394
▁सामा	-7395
▁सुप्	-7396
▁ितेन	-7397
▁्युद	-7398
▁कारणम	-7399
▁त्राप	-7400
cc	-7401
ori	-7402
▁(9	-7403
▁90	-7404
▁Ti	-7405
▁up	-7406
▁Ver	-7407
▁bal	-7408
▁des	-7409
▁तनं	-7410
▁धिष	-7411
▁नर्	-7412
▁नवा	-7413
▁यमं	-7414
▁रसो	-7415
▁वरु	-7416
▁शत्	-7417
▁ोग्	-7418
▁ोऽप	-7419
▁्नः	-7420
▁तदेव	-7421
▁तेषा	-7422
▁दार्	-7423
▁पादय	-7424
▁भावन	-7425
▁ाविध	-7426
▁्थ्य	-7427
▁्मुक	-7428
▁द्याप	-7429
vo	-7430
हर	-7431
▁आशा	-7432
▁चान	-7433
▁नरं	-7434
▁मिं	-7435
▁रवा	-7436
▁रैर	-7437
▁वाथ	-7438
▁ऽसौ	-7439
▁ागु	-7440
▁ानद	-7441
▁ोदि	-7442
▁Life	-7443
▁ness	-7444
▁कीर्	-7445
▁प्यन	-7446
▁म्पा	-7447
▁रिणा	-7448
▁रियं	-7449
▁वसन्	-7450
▁विशि	-7451
▁ेनाप	-7452
▁मन्यत	-7453
▁र्तुम	-7454
IT	-7455
fo	-7456
▁(7	-7457
▁2:	-7458
▁Ni	-7459
▁pa	-7460
▁यप	-7461
▁वभ	-7462
▁०२	-7463
▁९६	-7464
▁Apr	-7465
▁New	-7466
▁One	-7467
▁new	-7468
▁आफ्	-7469
▁नभः	-7470
▁पमा	-7471
▁भिप	-7472
▁यिष	-7473
▁वेक	-7474
▁ाणम	-7475
▁िजन	-7476
▁ुणः	-7477
▁arti	-7478
▁धात्	-7479
▁रदेश	-7480
▁रियम	-7481
▁िभाव	-7482
▁कुरुत	-7483
CT	-7484
ata	-7485
▁54	-7486
▁Ad	-7487
▁Pa	-7488
▁कय	-7489
▁मच	-7490
▁सस	-7491
▁200	-7492
▁day	-7493
▁not	-7494
▁thi	-7495
▁अगर	-7496
▁भुत	-7497
▁रवी	-7498
▁वि॰	-7499
▁शना	-7500
▁साइ	-7501
▁viii	-7502
▁गुणव	-7503
▁गृही	-7504
▁तवान	-7505
▁ध्वा	-7506
▁प्ता	-7507
▁रयत्	-7508
▁र्द्	-7509
▁ुज्य	-7510
▁्रवेश	-7511
लि	-7512
▁56	-7513
▁Be	-7514
▁Ro	-7515
▁we	-7516
▁इं	-7517
▁मॆ	-7518
▁sec	-7519
▁अपः	-7520
▁जयं	-7521
▁ननि	-7522
▁रदा	-7523
▁रुम	-7524
▁रुव	-7525
▁लवा	-7526
▁हीत	-7527
▁ाइट	-7528
▁ुरि	-7529
▁१०९	-7530
▁िभाग	-7531
▁्तान	-7532
▁्रयो	-7533
▁्वरस	-7534
▁चितम्	-7535
Ns	-7536
VE	-7537
उत	-7538
▁(8	-7539
▁so	-7540
▁नञ	-7541
▁पव	-7542
▁यच	-7543
▁षक	-7544
▁अत्	-7545
▁मुच	-7546
▁मूह	-7547
▁येँ	-7548
▁रनि	-7549
▁लात	-7550
▁ापत	-7551
▁ेरि	-7552
▁ेवे	-7553
▁्गल	-7554
▁्तप	-7555
▁्त्	-7556
▁्रक	-7557
▁with	-7558
▁अभवत	-7559
▁न्यन	-7560
▁रदान	-7561
▁र्वे	-7562
▁ात्स	-7563
▁्यने	-7564
▁प्रयु	-7565
▁रान्त	-7566
ty	-7567
vy	-7568
ww	-7569
तं	-7570
eri	-7571
▁tu	-7572
▁भं	-7573
lass	-7574
▁गोः	-7575
▁छकः	-7576
▁ति०	-7577
▁पसर	-7578
▁रिह	-7579
▁लभा	-7580
▁ावप	-7581
▁्द्	-7582
▁्वग	-7583
▁तितः	-7584
▁तिष्	-7585
▁दृष्	-7586
▁रुत्	-7587
▁स्तो	-7588
▁्तुम	-7589
▁Comme	-7590
▁वान्त	-7591
▁ष्यन्	-7592
▁●	-7593
▁gi	-7594
▁12.	-7595
▁SSC	-7596
▁one	-7597
▁res	-7598
▁ted	-7599
▁कमा	-7600
▁ठ्य	-7601
▁मोक	-7602
▁हसि	-7603
▁िकत	-7604
▁ुञ्	-7605
▁्गत	-7606
▁्मर	-7607
▁्यङ	-7608
▁दृश्	-7609
▁नेषु	-7610
▁मादि	-7611
▁र्वश	-7612
▁विन्	-7613
▁्ययः	-7614
▁्याग	-7615
▁कदाचि	-7616
▁प्राच	-7617
▁वत्या	-7618
ood	-7619
▁RT	-7620
▁gu	-7621
▁एं	-7622
▁लज	-7623
▁सङ	-7624
▁pra	-7625
▁ंवा	-7626
▁नमन	-7627
▁रण्	-7628
▁संज	-7629
▁समन	-7630
▁हुं	-7631
▁ीतः	-7632
▁ृश्	-7633
▁ेवी	-7634
▁्पत	-7635
▁from	-7636
▁name	-7637
▁news	-7638
▁ष्यत	-7639
▁िमित	-7640
▁्यभि	-7641
▁्यसि	-7642
AR	-7643
id	-7644
▁🙏	-7645
▁rn	-7646
▁खग	-7647
▁ऽत	-7648
▁Por	-7649
▁htt	-7650
▁ंदे	-7651
▁करौ	-7652
▁भाय	-7653
▁माँ	-7654
▁यक्	-7655
▁यश्	-7656
▁लिए	-7657
▁ापु	-7658
▁ितै	-7659
▁ूलं	-7660
▁दन्य	-7661
▁दाना	-7662
▁प्तं	-7663
▁भावस	-7664
▁रायः	-7665
▁स्का	-7666
▁त्वात	-7667
▁िर्वा	-7668
mo	-7669
▁ND	-7670
▁ml	-7671
▁mm	-7672
▁उपद	-7673
▁ओम्	-7674
▁चका	-7675
▁तिय	-7676
▁धर्	-7677
▁रोक	-7678
▁वदे	-7679
▁वरि	-7680
▁षम्	-7681
▁सहि	-7682
▁ूपा	-7683
▁्तक	-7684
▁१०८	-7685
▁तुम्	-7686
▁यक्त	-7687
▁ायस्	-7688
▁ावाद	-7689
▁िर्ग	-7690
▁्वना	-7691
▁्वयम	-7692
▁्वरे	-7693
▁त्तरं	-7694
▁परमेश	-7695
▁यस्मि	-7696
AM	-7697
so	-7698
इह	-7699
ong	-7700
▁52	-7701
▁Un	-7702
▁आं	-7703
▁कछ	-7704
▁टस	-7705
▁तज	-7706
▁(6)	-7707
▁(9)	-7708
▁एन्	-7709
▁जां	-7710
▁ञात	-7711
▁नवं	-7712
▁नूत	-7713
▁पेश	-7714
▁शया	-7715
▁ुप्	-7716
▁११०	-7717
▁तद्य	-7718
▁दानी	-7719
▁राणि	-7720
▁र्शन	-7721
▁विश्	-7722
▁स्यो	-7723
▁ादीन	-7724
▁ामस्	-7725
▁गम्यत	-7726
▁तन्ते	-7727
▁नान्त	-7728
▁संवत्	-7729
ST	-7730
my	-7731
▁€	-7732
▁57	-7733
▁Na	-7734
▁Ra	-7735
▁ry	-7736
▁500	-7737
▁org	-7738
▁कोड	-7739
▁ठञ्	-7740
▁सा०	-7741
▁हिन	-7742
▁िखि	-7743
▁िश्	-7744
▁ुपर	-7745
▁ेतो	-7746
▁्टव	-7747
▁्पृ	-7748
▁Tube	-7749
▁त्ती	-7750
▁रुद्	-7751
▁र्णं	-7752
▁र्ये	-7753
▁ष्ठं	-7754
▁सङ्ख	-7755
▁्योप	-7756
▁निर्द	-7757
▁यक्ति	-7758
▁्त्रे	-7759
▁्याये	-7760
ic	-7761
दृ	-7762
all	-7763
▁-2	-7764
▁61	-7765
▁65	-7766
▁75	-7767
▁EN	-7768
▁Ka	-7769
▁du	-7770
▁(7)	-7771
▁age	-7772
▁bec	-7773
▁nda	-7774
▁गजः	-7775
▁टिः	-7776
▁पथः	-7777
▁मंत	-7778
▁यमु	-7779
▁रजः	-7780
▁रिद	-7781
▁रुक	-7782
▁वरू	-7783
▁सेत	-7784
▁िकृ	-7785
▁१९७	-7786
▁link	-7787
▁द्रो	-7788
▁रुपय	-7789
▁र्तव	-7790
▁िचित	-7791
▁्तत्र	-7792
▁्पद्य	-7793
▁்	-7794
▁ho	-7795
▁nc	-7796
▁ru	-7797
▁पज	-7798
▁ुय	-7799
▁ृथ	-7800
▁०१	-7801
▁all	-7802
▁cha	-7803
▁nti	-7804
▁दिं	-7805
▁दृष	-7806
▁धिन	-7807
▁वाभ	-7808
▁विग	-7809
▁विघ	-7810
▁षणा	-7811
▁हूँ	-7812
▁िंच	-7813
▁िरू	-7814
▁ैश्	-7815
▁१०१	-7816
▁read	-7817
▁भूते	-7818
▁र्जि	-7819
▁विमु	-7820
▁व्यस	-7821
▁्रत्	-7822
▁ृश्यत	-7823
▁्माणि	-7824
pa	-7825
लः	-7826
▁≤	-7827
ara	-7828
oun	-7829
ाना	-7830
▁rc	-7831
▁ई०	-7832
▁ए॒	-7833
▁इनि	-7834
▁घटक	-7835
▁छवि	-7836
▁तुष	-7837
▁दर्	-7838
▁येय	-7839
▁रये	-7840
▁ातव	-7841
▁ाभा	-7842
▁ामम	-7843
▁ुदे	-7844
▁्णि	-7845
▁्मन	-7846
▁कीदृ	-7847
▁ज्यो	-7848
▁धीयत	-7849
▁प्तः	-7850
▁प्या	-7851
▁भ्या	-7852
▁सारे	-7853
▁सूचन	-7854
▁ियाय	-7855
▁िशेष	-7856
▁िस्थ	-7857
▁्तां	-7858
▁्यवि	-7859
▁क्तिर	-7860
▁क्षणम	-7861
▁देवस्	-7862
▁ाधिका	-7863
▁ार्यः	-7864
sa	-7865
▁MS	-7866
▁gn	-7867
▁यञ	-7868
▁adj	-7869
▁sou	-7870
▁कुछ	-7871
▁घटं	-7872
▁दिप	-7873
▁निक	-7874
▁पुच	-7875
▁लवि	-7876
▁हाः	-7877
▁ाण्	-7878
▁ाशक	-7879
▁ोचत	-7880
▁्थः	-7881
▁्मो	-7882
▁११८	-7883
▁Blog	-7884
▁word	-7885
▁देशं	-7886
▁यर्थ	-7887
▁रणीय	-7888
▁ेष्य	-7889
▁्यकर	-7890
▁्यप्	-7891
▁्याश	-7892
▁्रती	-7893
▁Years	-7894
▁तेभ्य	-7895
▁साहित	-7896
टः	-7897
तव	-7898
▁Ś	-7899
ews	-7900
ind	-7901
tra	-7902
▁/2	-7903
▁04	-7904
▁3:	-7905
▁My	-7906
▁Op	-7907
▁Vo	-7908
▁ja	-7909
▁छं	-7910
▁न॰	-7911
▁वब	-7912
▁कछु	-7913
▁जपं	-7914
▁जाम	-7915
▁दधि	-7916
▁मतम	-7917
▁रक्	-7918
▁रिश	-7919
▁लाव	-7920
▁वहे	-7921
▁वैः	-7922
▁िरन	-7923
▁ेषः	-7924
▁्पि	-7925
▁tter	-7926
▁ङ्गं	-7927
▁त्कर	-7928
▁र्नि	-7929
▁्मणः	-7930
▁्रश्	-7931
▁्स्व	-7932
▁दुःखं	-7933
▁ब्राह	-7934
▁समन्व	-7935
ka	-7936
ॉप	-7937
▁ર	-7938
ama	-7939
▁08	-7940
▁ईं	-7941
▁टप	-7942
▁णप	-7943
▁षज	-7944
▁हौ	-7945
▁Gen	-7946
▁ess	-7947
▁ind	-7948
▁थाऽ	-7949
▁धनी	-7950
▁नेष	-7951
▁न्क	-7952
▁ऽहम	-7953
▁ापू	-7954
▁िषा	-7955
▁ेशो	-7956
▁ैन्	-7957
▁कुमा	-7958
▁पृथक	-7959
▁रित्	-7960
▁र्थो	-7961
▁र्मण	-7962
▁वस्य	-7963
▁वामि	-7964
▁विशे	-7965
▁ांश्	-7966
▁ाजान	-7967
▁िपात	-7968
▁्यतः	-7969
▁करोतु	-7970
▁त्याश	-7971
▁ष्टिः	-7972
▁समस्य	-7973
▁ुज्यत	-7974
▁्तन्त	-7975
▁́	-7976
▁્	-7977
bsp	-7978
ine	-7979
rea	-7980
use	-7981
▁,,	-7982
▁58	-7983
▁Bh	-7984
▁उस	-7985
▁कफ	-7986
▁क॰	-7987
▁बै	-7988
▁ुइ	-7989
▁Off	-7990
▁can	-7991
▁rce	-7992
▁ऋतं	-7993
▁थेन	-7994
▁समो	-7995
▁हस्	-7996
▁्मं	-7997
▁्षि	-7998
▁Date	-7999
▁gram	-8000
▁ther	-8001
▁	-8002
्	-8003
ा	-8004
त	-8005
र	-8006
ि	-8007
य	-8008
न	-8009
व	-8010
स	-8011
म	-8012
े	-8013
क	-8014
प	-8015
ं	-8016
द	-8017
ः	-8018
ु	-8019
।	-8020
ष	-8021
श	-8022
ो	-8023
ह	-8024
च	-8025
भ	-8026
ी	-8027
ल	-8028
ग	-8029
ध	-8030
अ	-8031
ण	-8032
ज	-8033
थ	-8034
ृ	-8035
-	-8036
ू	-8037
इ	-8038
ब	-8039
.	-8040
ट	-8041
ै	-8042
॥	-8043
ए	-8044
,	-8045
ख	-8046
आ	-8047
"	-8048
उ	-8049
ञ	-8050
ौ	-8051
१	-8052
(	-8053
ऽ	-8054
)	-8055
०	-8056
ड	-8057
ङ	-8058
२	-8059
_	-8060
ठ	-8061
छ	-8062
'	-8063
1	-8064
e	-8065
घ	-8066
a	-8067
2	-8068
0	-8069
?	-8070
i	-8071
फ	-8072
s	-8073
३	-8074
o	-8075
४	-8076
t	-8077
५	-8078
r	-8079
n	-8080
॒	-8081
९	-8082
६	-8083
७	-8084
८	-8085
3	-8086
ई	-8087
/	-8088
:	-8089
4	-8090
l	-8091
5	-8092
ॊ	-8093
॑	-8094
!	-8095
m	-8096
d	-8097
8	-8098
9	-8099
c	-8100
S	-8101
6	-8102
7	-8103
=	-8104
[	-8105
g	-8106
]	-8107
u	-8108
h	-8109
ँ	-8110
p	-8111
;	-8112
ढ	-8113
y	-8114
+	-8115
औ	-8116
ऋ	-8117
v	-8118
A	-8119
I	-8120
़	-8121
*	-8122
b	-8123
ॐ	-8124
T	-8125
f	-8126
P	-8127
C	-8128
ओ	-8129
>	-8130
k	-8131
ऊ	-8132
N	-8133
w	-8134
झ	-8135
E	-8136
M	-8137
D	-8138
B	-8139
x	-8140
R	-8141
L	-8142
॰	-8143
H	-8144
#	-8145
ऐ	-8146
O	-8147
F	-8148
ळ	-8149
ॆ	-8150
V	-8151
ॉ	-8152
G	-8153
U	-8154
@	-8155
ॄ	-8156
%	-8157
$	-8158
{	-8159
<	-8160
}	-8161
X	-8162
K	-8163
&	-8164
W	-8165
•	-8166
→	-8167
j	-8168
J	-8169
Y	-8170
z	-8171
ऑ	-8172
Q	-8173
~	-8174
ꣳ	-8175
ॅ	-8176
←	-8177
^	-8178
q	-8179
̣	-8180
·	-8181
ऎ	-8182
ā	-8183
᳚	-8184
↑	-8185
°	-8186
ʻ	-8187
ऩ	-8188
ʼ	-8189
̇	-8190
\	-8191
Z	-8192
›	-8193
►	-8194
ऱ	-8195
᳘	-8196
×	-8197
¦	-8198
്	-8199
Í	-8200
ऌ	-8201
̄	-8202
̐	-8203
ॠ	-8204
உ	-8205
о	-8206
÷	-8207
‖	-8208
️	-8209
а	-8210
−	-8211
ḥ	-8212
●	-8213
🙏	-8214
€	-8215
Ś	-8216
ર	-8217
்	-8218
ū	-8219
≤	-8220
ऍ	-8221
્	-8222
́	-8223
ا	-8224
е	-8225
н	-8226
¬	-8227
ॢ	-8228
ા	-8229
р	-8230
ऴ	-8231
л	-8232
₹	-8233
ü	-8234
т	-8235
৷	-8236
и	-8237
Ø	-8238
é	-8239
σ	-8240
ə	-8241
ന	-8242
√	-8243
ī	-8244
£	-8245
с	-8246
👉	-8247
꣢	-8248
ś	-8249
в	-8250
ل	-8251
ക	-8252
ṣ	-8253
д	-8254
★	-8255
ન	-8256
ാ	-8257
‐	-8258
ь	-8259
॓	-8260
ી	-8261
≥	-8262
◆	-8263
ம	-8264
✔	-8265
ત	-8266
ி	-8267
ー	-8268
꣣	-8269
ે	-8270
ா	-8271
ി	-8272
ં	-8273
મ	-8274
த	-8275
ു	-8276
‡	-8277
⇒	-8278
❍	-8279
🔊	-8280
á	-8281
î	-8282
¥	-8283
ñ	-8284
¢	-8285
ن	-8286
꣡	-8287
ó	-8288
Ž	-8289
ர	-8290
🙂	-8291
©	-8292
м	-8293
ത	-8294
⁄	-8295
🇳	-8296
🪔	-8297
§	-8298
у	-8299
я	-8300
ر	-8301
م	-8302
ي	-8303
ऄ	-8304
જ	-8305
ો	-8306
ṇ	-8307
і	-8308
【	-8309
🇮	-8310
ˆ	-8311
к	-8312
་	-8313
🚩	-8314
ı	-8315
🌷	-8316
б	-8317
й	-8318
ऺ	-8319
್	-8320
】	-8321
¤	-8322
ç	-8323
í	-8324
̥	-8325
ક	-8326
ய	-8327
ര	-8328
വ	-8329
語	-8330
🌹	-8331
ு	-8332
י	-8333
વ	-8334
ப	-8335
வ	-8336
♦	-8337
Î	-8338
ː	-8339
г	-8340
з	-8341
্	-8342
આ	-8343
∕	-8344
à	-8345
è	-8346
ˈ	-8347
പ	-8348
া	-8349
સ	-8350
ം	-8351
ട	-8352
െ	-8353
ᳪ	-8354
Ó	-8355
د	-8356
س	-8357
க	-8358
ந	-8359
❌	-8360
®	-8361
п	-8362
ц	-8363
ऒ	-8364
ন	-8365
ன	-8366
ನ	-8367
യ	-8368
✅	-8369
ع	-8370
ه	-8371
ತ	-8372
ങ	-8373
മ	-8374
ṭ	-8375
い	-8376
ö	-8377
х	-8378
ی	-8379
ত	-8380
પ	-8381
બ	-8382
ல	-8383
ಾ	-8384
ṛ	-8385
†	-8386
ィ	-8387
🔥	-8388
â	-8389
ɪ	-8390
ب	-8391
ऻ	-8392
ি	-8393
હ	-8394
ರ	-8395
അ	-8396
‹	-8397
⇄	-8398
✍	-8399
🛑	-8400
ú	-8401
ɑ	-8402
С	-8403
ж	-8404
ו	-8405
র	-8406
ગ	-8407
్	-8408
ಿ	-8409
ച	-8410
ല	-8411
᳭	-8412
ン	-8413
🌺	-8414
¡	-8415
±	-8416
ï	-8417
ş	-8418
̊	-8419
μ	-8420
ы	-8421
॔	-8422
િ	-8423
⋙	-8424
■	-8425
▲	-8426
❑	-8427
🌞	-8428
📖	-8429
Ï	-8430
ã	-8431
ł	-8432
š	-8433
̈	-8434
М	-8435
و	-8436
ܘ	-8437
ॡ	-8438
ম	-8439
એ	-8440
છ	-8441
ય	-8442
ು	-8443
ദ	-8444
ോ	-8445
၊	-8446
✓	-8447
❤	-8448
➧	-8449
🏻	-8450
🕉	-8451
α	-8452
Б	-8453
ت	-8454
ু	-8455
ದ	-8456
ṃ	-8457
′	-8458
∠	-8459
◎	-8460
ヒ	-8461
一	-8462
语	-8463
ê	-8464
ʊ	-8465
ю	-8466
ה	-8467
ى	-8468
ک	-8469
ক	-8470
দ	-8471
૧	-8472
அ	-8473
ి	-8474
ಂ	-8475
ಲ	-8476
ണ	-8477
ള	-8478
❯	-8479
。	-8480
し	-8481
の	-8482
デ	-8483
マ	-8484
🌸	-8485
💐	-8486
😂	-8487
¶	-8488
Þ	-8489
İ	-8490
ʃ	-8491
̃	-8492
ч	-8493
א	-8494
ב	-8495
য	-8496
ુ	-8497
ం	-8498
న	-8499
ర	-8500
ಸ	-8501
ᄌ	-8502
ḍ	-8503
ṁ	-8504
◉	-8505
◌	-8506
☝	-8507
➡	-8508
図	-8509
大	-8510
書	-8511
月	-8512
À	-8513
È	-8514
̶	-8515
Х	-8516
щ	-8517
ר	-8518
ش	-8519
ব	-8520
ল	-8521
স	-8522
ে	-8523
ટ	-8524
શ	-8525
ழ	-8526
ಕ	-8527
ಗ	-8528
ವ	-8529
೦	-8530
റ	-8531
േ	-8532
▶	-8533
◦	-8534
☆	-8535
⭐	-8536
か	-8537
ラ	-8538
增	-8539
전	-8540
💮	-8541
🔱	-8542
😊	-8543
Æ	-8544
Ç	-8545
Ü	-8546
ý	-8547
ē	-8548
Š	-8549
ɛ	-8550
П	-8551
ט	-8552
ס	-8553
ॿ	-8554
আ	-8555
ো	-8556
ਕ	-8557
થ	-8558
દ	-8559
ળ	-8560
ட	-8561
ண	-8562
ெ	-8563
య	-8564
వ	-8565
ు	-8566
ಡ	-8567
ಯ	-8568
ೆ	-8569
ശ	-8570
സ	-8571
ൊ	-8572
∆	-8573
▪	-8574
♂	-8575
♥	-8576
お	-8577
つ	-8578
テ	-8579
余	-8580
名	-8581
音	-8582
다	-8583
🔹	-8584
Ê	-8585
æ	-8586
ĉ	-8587
ō	-8588
ž	-8589
̧	-8590
θ	-8591
π	-8592
В	-8593
Д	-8594
Т	-8595
є	-8596
מ	-8597
ء	-8598
ح	-8599
ز	-8600
ق	-8601
گ	-8602
ܬ	-8603
উ	-8604
হ	-8605
ਾ	-8606
ણ	-8607
ભ	-8608
எ	-8609
ற	-8610
ோ	-8611
త	-8612
మ	-8613
ా	-8614
ಳ	-8615
എ	-8616
ധ	-8617
∴	-8618
す	-8619
な	-8620
パ	-8621
ル	-8622
年	-8623
行	-8624
꣯	-8625
사	-8626
🌻	-8627
🌿	-8628
🍃	-8629
🔅	-8630
Û	-8631
Ā	-8632
Œ	-8633
Ş	-8634
ż	-8635
ǁ	-8636
ˌ	-8637
ς	-8638
φ	-8639
Ј	-8640
А	-8641
Н	-8642
Р	-8643
ш	-8644
э	-8645
ל	-8646
ة	-8647
ف	-8648
ہ	-8649
۔	-8650
ە	-8651
জ	-8652
থ	-8653
প	-8654
়	-8655
ਰ	-8656
ੀ	-8657
અ	-8658
ઉ	-8659
ି	-8660
ಪ	-8661
ಮ	-8662
ೀ	-8663
ഗ	-8664
ജ	-8665
ഷ	-8666
ས	-8667
ა	-8668
ṅ	-8669
‒	-8670
⇔	-8671
∫	-8672
⋆	-8673
▼	-8674
♀	-8675
⛳	-8676
✳	-8677
❇	-8678
あ	-8679
く	-8680
シ	-8681
ズ	-8682
ネ	-8683
亦	-8684
知	-8685
음	-8686
🌄	-8687
🍁	-8688
📚	-8689
🔗	-8690
🔶	-8691
😀	-8692
😃	-8693
😎	-8694
😞	-8695
😢	-8696
Ì	-8697
Ð	-8698
ß	-8699
ä	-8700
ì	-8701
ô	-8702
ø	-8703
ę	-8704
Ō	-8705
œ	-8706
ƒ	-8707
ǀ	-8708
ʒ	-8709
̕	-8710
Δ	-8711
Ι	-8712
ή	-8713
β	-8714
ι	-8715
ρ	-8716
Ц	-8717
Э	-8718
ї	-8719
פ	-8720
ئ	-8721
ك	-8722
ܐ	-8723
ܒ	-8724
ܛ	-8725
ܦ	-8726
ܪ	-8727
গ	-8728
ধ	-8729
ਲ	-8730
ધ	-8731
ફ	-8732
લ	-8733
ૐ	-8734
૦	-8735
૪	-8736
இ	-8737
ஜ	-8738
ள	-8739
ஶ	-8740
ஷ	-8741
ொ	-8742
క	-8743
ల	-8744
స	-8745
ആ	-8746
ഇ	-8747
ഉ	-8748
ഞ	-8749
්	-8750
།	-8751
᳖	-8752
―	-8753
‰	-8754
※	-8755
≍	-8756
⏳	-8757
◄	-8758
♣	-8759
⛅	-8760
➛	-8761
➢	-8762
➤	-8763
た	-8764
っ	-8765
て	-8766
と	-8767
ッ	-8768
リ	-8769
不	-8770
义	-8771
亲	-8772
人	-8773
何	-8774
僕	-8775
十	-8776
可	-8777
国	-8778
如	-8779
尔	-8780
应	-8781
彼	-8782
愛	-8783
我	-8784
故	-8785
无	-8786
氣	-8787
的	-8788
觉	-8789
試	-8790
论	-8791
靈	-8792
기	-8793
낱	-8794
니	-8795
말	-8796
세	-8797
위	-8798
이	-8799
키	-8800
하	-8801
👇	-8802
👌	-8803
🔍	-8804
😜	-8805
😡	-8806
😳	-8807
¿	-8808
Á	-8809
Â	-8810
Ã	-8811
Ö	-8812
ð	-8813
ò	-8814
õ	-8815
ć	-8816
č	-8817
ě	-8818
ğ	-8819
į	-8820
ř	-8821
Ÿ	-8822
ɔ	-8823
ɜ	-8824
ʁ	-8825
ʏ	-8826
Ψ	-8827
δ	-8828
η	-8829
κ	-8830
ν	-8831
ο	-8832
τ	-8833
З	-8834
И	-8835
Й	-8836
О	-8837
У	-8838
ג	-8839
ש	-8840
ת	-8841
آ	-8842
إ	-8843
ج	-8844
پ	-8845
چ	-8846
ܣ	-8847
ং	-8848
ট	-8849
ৰ	-8850
ৱ	-8851
ਮ	-8852
ਸ	-8853
ੋ	-8854
੍	-8855
ઃ	-8856
ચ	-8857
ઞ	-8858
ડ	-8859
ષ	-8860
૯	-8861
ஸ	-8862
ீ	-8863
ே	-8864
భ	-8865
ಉ	-8866
ಎ	-8867
ಚ	-8868
ಬ	-8869
ಶ	-8870
ಹ	-8871
೨	-8872
ഈ	-8873
ബ	-8874
ീ	-8875
ർ	-8876
ൾ	-8877
ක	-8878
ය	-8879
ව	-8880
ා	-8881
ි	-8882
ག	-8883
ུ	-8884
გ	-8885
ზ	-8886
ი	-8887
ᄉ	-8888
ᅩ	-8889
ጻ	-8890
ᛁ	-8891
ᛖ	-8892
ᴇ	-8893
Ṛ	-8894
Ủ	-8895
⃣	-8896
↔	-8897
∈	-8898
≈	-8899
◇	-8900
☀	-8901
✥	-8902
✴	-8903
❁	-8904
➜	-8905
う	-8906
き	-8907
だ	-8908
ま	-8909
ら	-8910
る	-8911
を	-8912
ア	-8913
コ	-8914
ス	-8915
タ	-8916
チ	-8917
ト	-8918
为	-8919
京	-8920
作	-8921
依	-8922
反	-8923
因	-8924
意	-8925
成	-8926
所	-8927
新	-8928
期	-8929
果	-8930
格	-8931
梵	-8932
機	-8933
母	-8934
比	-8935
生	-8936
用	-8937
痛	-8938
発	-8939
相	-8940
者	-8941
能	-8942
自	-8943
薩	-8944
说	-8945
诸	-8946
通	-8947
遣	-8948
释	-8949
量	-8950
間	-8951
非	-8952
颂	-8953
대	-8954
발	-8955
브	-8956
요	-8957
합	-8958
𑑂	-8959
🇵	-8960
🌉	-8961
🌙	-8962
🌟	-8963
🌱	-8964
🍀	-8965
👫	-8966
💕	-8967
🔐	-8968
🔔	-8969
🔸	-8970
😉	-8971
😍	-8972
🤝	-8973
Å	-8974
Ò	-8975
Ú	-8976
ù	-8977
ą	-8978
Ċ	-8979
ė	-8980
ŋ	-8981
ư	-8982
ǒ	-8983
ǔ	-8984
ɒ	-8985
ɡ	-8986
̆	-8987
ά	-8988
ε	-8989
χ	-8990
ό	-8991
І	-8992
К	-8993
Ф	-8994
Ю	-8995
Я	-8996
ф	-8997
ј	-8998
ү	-8999
ם	-9000
ן	-9001
נ	-9002
ע	-9003
ק	-9004
أ	-9005
ص	-9006
ط	-9007
غ	-9008
ً	-9009
٬	-9010
ڪ	-9011
ۆ	-9012
ۇ	-9013
ܠ	-9014
ॾ	-9015
ই	-9016
খ	-9017
ঘ	-9018
চ	-9019
ছ	-9020
ী	-9021
ਅ	-9022
ਗ	-9023
ਤ	-9024
ਨ	-9025
ਪ	-9026
ਬ	-9027
਼	-9028
ਿ	-9029
ੇ	-9030
ੱ	-9031
ઈ	-9032
ઓ	-9033
ઠ	-9034
઼	-9035
ૂ	-9036
૨	-9037
૫	-9038
ଆ	-9039
ଓ	-9040
ଡ	-9041
ପ	-9042
ର	-9043
ଲ	-9044
଼	-9045
ା	-9046
ஆ	-9047
ச	-9048
అ	-9049
డ	-9050
ద	-9051
ప	-9052
శ	-9053
ె	-9054
ಃ	-9055
ಭ	-9056
ೇ	-9057
೪	-9058
ഛ	-9059
ഥ	-9060
ഭ	-9061
ഹ	-9062
ൂ	-9063
ൈ	-9064
ൻ	-9065
ൽ	-9066
ද	-9067
ස	-9068
น	-9069
ิ	-9070
ང	-9071
ཐ	-9072
པ	-9073
མ	-9074
ཡ	-9075
ལ	-9076
ཧ	-9077
ཱ	-9078
ྥ	-9079
ླ	-9080
ᆬ	-9081
ሕ	-9082
ብ	-9083
ዝ	-9084
ᛋ	-9085
ᛚ	-9086
᛫	-9087
᭭	-9088
ᳲ	-9089
ḏ	-9090
ṝ	-9091
ắ	-9092
Ἀ	-9093
∅	-9094
≠	-9095
≡	-9096
≦	-9097
▷	-9098
◊	-9099
☑	-9100
☘	-9101
☰	-9102
♡	-9103
♫	-9104
⚫	-9105
✌	-9106
✒	-9107
✧	-9108
✨	-9109
✺	-9110
❣	-9111
➥	-9112
⦁	-9113
、	-9114
《	-9115
》	-9116
「	-9117
」	-9118
が	-9119
さ	-9120
に	-9121
ひ	-9122
み	-9123
む	-9124
め	-9125
も	-9126
や	-9127
よ	-9128
ん	-9129
ジ	-9130
バ	-9131
プ	-9132
ボ	-9133
ロ	-9134
・	-9135
三	-9136
上	-9137
了	-9138
事	-9139
于	-9140
五	-9141
从	-9142
代	-9143
伟	-9144
修	-9145
全	-9146
八	-9147
六	-9148
具	-9149
切	-9150
加	-9151
北	-9152
卐	-9153
印	-9154
各	-9155
合	-9156
吗	-9157
员	-9158
和	-9159
哲	-9160
哷	-9161
地	-9162
堂	-9163
声	-9164
外	-9165
天	-9166
奪	-9167
好	-9168
婆	-9169
存	-9170
安	-9171
小	-9172
尼	-9173
广	-9174
度	-9175
异	-9176
当	-9177
整	-9178
方	-9179
显	-9180
普	-9181
晴	-9182
更	-9183
有	-9184
東	-9185
械	-9186
此	-9187
泊	-9188
然	-9189
猫	-9190
球	-9191
理	-9192
由	-9193
白	-9194
益	-9195
研	-9196
祖	-9197
程	-9198
立	-9199
第	-9200
素	-9201
而	-9202
许	-9203
身	-9204
都	-9205
间	-9206
页	-9207
首	-9208
감	-9209
공	-9210
교	-9211
급	-9212
두	-9213
듬	-9214
라	-9215
로	-9216
리	-9217
민	-9218
비	-9219
서	-9220
성	-9221
슈	-9222
신	-9223
아	-9224
어	-9225
영	-9226
예	-9227
완	-9228
의	-9229
인	-9230
좀	-9231
주	-9232
학	-9233
한	-9234
히	-9235
𑐎	-9236
𑐕	-9237
𑐫	-9238
𑐮	-9239
𑐴	-9240
𑐵	-9241
𑑄	-9242
𑑅	-9243
🇦	-9244
🇺	-9245
🌈	-9246
🌏	-9247
🌼	-9248
🍥	-9249
🎉	-9250
🎖	-9251
🎯	-9252
🐯	-9253
👈	-9254
👍	-9255
👏	-9256
👨	-9257
👩	-9258
👴	-9259
💄	-9260
💏	-9261
💔	-9262
💛	-9263
💥	-9264
📌	-9265
📎	-9266
📝	-9267
📰	-9268
🔰	-9269
😄	-9270
😅	-9271
😒	-9272
😘	-9273
🙍	-9274
🥀	-9275
🥇	-9276
🩸	-9277
É	-9278
Ë	-9279
Õ	-9280
å	-9281
ë	-9282
û	-9283
þ	-9284
ÿ	-9285
ă	-9286
ĕ	-9287
Ę	-9288
Ī	-9289
Ķ	-9290
ń	-9291
Ŏ	-9292
ŏ	-9293
ť	-9294
Ů	-9295
ų	-9296
Ż	-9297
Ǒ	-9298
ȧ	-9299
Ȩ	-9300
ȯ	-9301
ʈ	-9302
ʉ	-9303
ʋ	-9304
ʌ	-9305
ʟ	-9306
ʿ	-9307
ˎ	-9308
ˑ	-9309
̍	-9310
̖	-9311
̠	-9312
̪	-9313
Ά	-9314
Κ	-9315
Μ	-9316
Ο	-9317
Σ	-9318
Φ	-9319
Ω	-9320
ζ	-9321
ω	-9322
Е	-9323
Л	-9324
Ч	-9325
ё	-9326
ў	-9327
ҫ	-9328
ә	-9329
Ө	-9330
Ե	-9331
Կ	-9332
Հ	-9333
ա	-9334
ե	-9335
ն	-9336
ր	-9337
ւ	-9338
ַ	-9339
ד	-9340
כ	-9341
ף	-9342
צ	-9343
ײ	-9344
؞	-9345
خ	-9346
ذ	-9347
ُ	-9348
ِ	-9349
٫	-9350
ٰ	-9351
ٹ	-9352
ټ	-9353
ڌ	-9354
ں	-9355
ڼ	-9356
ھ	-9357
ۂ	-9358
ܕ	-9359
ܚ	-9360
ܟ	-9361
ॱ	-9362
ॵ	-9363
ॺ	-9364
ॼ	-9365
এ	-9366
ঠ	-9367
ড	-9368
ঢ	-9369
ণ	-9370
ষ	-9371
ৃ	-9372
০	-9373
৩	-9374
৭	-9375
ਂ	-9376
ਇ	-9377
ਊ	-9378
ਏ	-9379
ਖ	-9380
ਜ	-9381
ਟ	-9382
ਡ	-9383
ਣ	-9384
ਦ	-9385
ੁ	-9386
ੂ	-9387
ੰ	-9388
ખ	-9389
ઝ	-9390
ૃ	-9391
ૠ	-9392
૩	-9393
૬	-9394
૭	-9395
૮	-9396
ଃ	-9397
କ	-9398
ଖ	-9399
ତ	-9400
ଭ	-9401
େ	-9402
୍	-9403
ୟ	-9404
ஐ	-9405
ஹ	-9406
ூ	-9407
ை	-9408
ఉ	-9409
ఎ	-9410
ఓ	-9411
చ	-9412
జ	-9413
ధ	-9414
ఫ	-9415
ష	-9416
హ	-9417
ే	-9418
ై	-9419
ో	-9420
ಅ	-9421
ಇ	-9422
ಜ	-9423
ಟ	-9424
ಠ	-9425
ೂ	-9426
ೃ	-9427
ೊ	-9428
ೋ	-9429
೧	-9430
೩	-9431
ೲ	-9432
ഖ	-9433
ഠ	-9434
ഴ	-9435
ൃ	-9436
ග	-9437
ත	-9438
න	-9439
ප	-9440
ම	-9441
ල	-9442
ශ	-9443
ො	-9444
ค	-9445
ง	-9446
ด	-9447
ต	-9448
บ	-9449
พ	-9450
ฟ	-9451
ม	-9452
ร	-9453
ห	-9454
อ	-9455
ฮ	-9456
ั	-9457
า	-9458
ี	-9459
เ	-9460
โ	-9461
่	-9462
้	-9463
༔	-9464
༡	-9465
༣	-9466
༨	-9467
ཁ	-9468
ཊ	-9469
ན	-9470
བ	-9471
ཚ	-9472
ཝ	-9473
ཟ	-9474
ཥ	-9475
ི	-9476
ྀ	-9477
ྒ	-9478
ྨ	-9479
ྭ	-9480
ྱ	-9481
ྲ	-9482
დ	-9483
ე	-9484
ვ	-9485
თ	-9486
ლ	-9487
ნ	-9488
რ	-9489
ს	-9490
უ	-9491
ც	-9492
ሉ	-9493
ሩ	-9494
በ	-9495
ቮ	-9496
እ	-9497
ኳ	-9498
ገ	-9499
ፂ	-9500
ፃ	-9501
፪	-9502
ᒃ	-9503
ᒄ	-9504
ᒎ	-9505
ᓚ	-9506
ᗢ	-9507
ᘏ	-9508
ᚨ	-9509
ᚩ	-9510
ᚻ	-9511
ᚾ	-9512
ᛏ	-9513
ᛗ	-9514
ᛞ	-9515
ᭅ	-9516
᭠	-9517
ᮩ	-9518
᮰	-9519
ᱧ	-9520
Ჱ	-9521
᳒	-9522
ᳬ	-9523
ᴀ	-9524
Ḩ	-9525
ế	-9526
ệ	-9527
ὁ	-9528
ὕ	-9529
ὸ	-9530
ῖ	-9531
₩	-9532
↓	-9533
↕	-9534
↗	-9535
↩	-9536
↲	-9537
⇏	-9538
∖	-9539
∙	-9540
∝	-9541
∩	-9542
∵	-9543
⊂	-9544
⊃	-9545
⊕	-9546
▀	-9547
□	-9548
△	-9549
☁	-9550
☸	-9551
☹	-9552
☺	-9553
♈	-9554
♉	-9555
♻	-9556
⚏	-9557
⚕	-9558
⚡	-9559
⚪	-9560
⛈	-9561
⛹	-9562
✖	-9563
✦	-9564
✪	-9565
✹	-9566
✼	-9567
✿	-9568
❗	-9569
➖	-9570
➞	-9571
➦	-9572
➨	-9573
⟶	-9574
⟷	-9575
⠀	-9576
⭕	-9577
〈	-9578
け	-9579
げ	-9580
ご	-9581
ざ	-9582
ち	-9583
で	-9584
ど	-9585
は	-9586
ゃ	-9587
れ	-9588
イ	-9589
エ	-9590
オ	-9591
ク	-9592
グ	-9593
セ	-9594
ゼ	-9595
ソ	-9596
ツ	-9597
ナ	-9598
ノ	-9599
ピ	-9600
ポ	-9601
ャ	-9602
ョ	-9603
七	-9604
与	-9605
世	-9606
中	-9607
习	-9608
乱	-9609
二	-9610
互	-9611
介	-9612
仕	-9613
份	-9614
休	-9615
位	-9616
你	-9617
使	-9618
個	-9619
倒	-9620
健	-9621
元	-9622
入	-9623
其	-9624
円	-9625
册	-9626
决	-9627
出	-9628
划	-9629
列	-9630
利	-9631
别	-9632
到	-9633
副	-9634
助	-9635
化	-9636
卍	-9637
南	-9638
叉	-9639
发	-9640
口	-9641
句	-9642
同	-9643
后	-9644
吥	-9645
吸	-9646
告	-9647
咒	-9648
哉	-9649
哥	-9650
唯	-9651
喝	-9652
嘅	-9653
器	-9654
四	-9655
固	-9656
國	-9657
域	-9658
報	-9659
境	-9660
处	-9661
复	-9662
多	-9663
夜	-9664
夢	-9665
奖	-9666
威	-9667
孕	-9668
字	-9669
学	-9670
官	-9671
定	-9672
宦	-9673
寝	-9674
尊	-9675
少	-9676
属	-9677
岂	-9678
工	-9679
师	-9680
席	-9681
常	-9682
废	-9683
康	-9684
廬	-9685
引	-9686
弥	-9687
影	-9688
得	-9689
徹	-9690
忘	-9691
念	-9692
性	-9693
惑	-9694
感	-9695
憶	-9696
戻	-9697
执	-9698
投	-9699
摩	-9700
收	-9701
改	-9702
政	-9703
效	-9704
文	-9705
日	-9706
时	-9707
星	-9708
是	-9709
最	-9710
朝	-9711
杂	-9712
某	-9713
染	-9714
查	-9715
栄	-9716
检	-9717
模	-9718
権	-9719
款	-9720
止	-9721
民	-9722
永	-9723
求	-9724
汇	-9725
没	-9726
流	-9727
消	-9728
添	-9729
灭	-9730
熟	-9731
父	-9732
牙	-9733
现	-9734
班	-9735
疆	-9736
發	-9737
直	-9738
破	-9739
离	-9740
秘	-9741
稱	-9742
究	-9743
章	-9744
答	-9745
简	-9746
类	-9747
紅	-9748
終	-9749
続	-9750
網	-9751
繁	-9752
维	-9753
肉	-9754
花	-9755
若	-9756
英	-9757
茶	-9758
葬	-9759
處	-9760
蛟	-9761
蝶	-9762
衆	-9763
表	-9764
西	-9765
见	-9766
观	-9767
视	-9768
解	-9769
言	-9770
記	-9771
訳	-9772
論	-9773
讓	-9774
计	-9775
讨	-9776
话	-9777
贪	-9778
越	-9779
足	-9780
車	-9781
转	-9782
辦	-9783
达	-9784
过	-9785
运	-9786
返	-9787
追	-9788
逝	-9789
進	-9790
那	-9791
金	-9792
鉄	-9793
错	-9794
长	-9795
闻	-9796
阿	-9797
除	-9798
陸	-9799
障	-9800
雨	-9801
電	-9802
面	-9803
韩	-9804
響	-9805
願	-9806
须	-9807
飞	-9808
飲	-9809
龙	-9810
꣫	-9811
ꣲ	-9812
가	-9813
간	-9814
개	-9815
게	-9816
고	-9817
과	-9818
국	-9819
금	-9820
깨	-9821
나	-9822
냐	-9823
녹	-9824
는	-9825
달	-9826
더	-9827
동	-9828
따	-9829
뜨	-9830
락	-9831
레	-9832
력	-9833
름	-9834
만	-9835
망	-9836
맵	-9837
몸	-9838
못	-9839
뭐	-9840
받	-9841
백	-9842
번	-9843
법	-9844
봇	-9845
산	-9846
상	-9847
수	-9848
술	-9849
쉬	-9850
스	-9851
승	-9852
시	-9853
없	-9854
에	-9855
염	-9856
외	-9857
우	-9858
운	-9859
월	-9860
을	-9861
임	-9862
입	-9863
있	-9864
자	-9865
적	-9866
절	-9867
정	-9868
조	-9869
중	-9870
증	-9871
지	-9872
째	-9873
청	-9874
크	-9875
탄	-9876
탑	-9877
터	-9878
트	-9879
특	-9880
팅	-9881
파	-9882
함	-9883
허	-9884
효	-9885
힌	-9886
힘	-9887
︎	-9888
𑆤	-9889
𑌏	-9890
𑌥	-9891
𑌫	-9892
𑌮	-9893
𑌸	-9894
𑐰	-9895
𑑀	-9896
🅰	-9897
🇱	-9898
🇸	-9899
🇹	-9900
🌀	-9901
🌃	-9902
🌅	-9903
🌍	-9904
🌎	-9905
🌖	-9906
🌛	-9907
🌝	-9908
🌠	-9909
🌰	-9910
🌴	-9911
🍋	-9912
🍾	-9913
🎂	-9914
🎃	-9915
🎊	-9916
🎋	-9917
🎎	-9918
🎓	-9919
🎤	-9920
🎵	-9921
🎶	-9922
🎼	-9923
🏀	-9924
🏃	-9925
🏏	-9926
🏠	-9927
🏮	-9928
🏷	-9929
🏹	-9930
🏽	-9931
🐕	-9932
🐙	-9933
👆	-9934
👞	-9935
👣	-9936
👦	-9937
👧	-9938
👱	-9939
💑	-9940
💓	-9941
💖	-9942
💗	-9943
💘	-9944
💚	-9945
💝	-9946
💠	-9947
💦	-9948
💧	-9949
💫	-9950
💰	-9951
💱	-9952
💵	-9953
📂	-9954
📏	-9955
📕	-9956
📢	-9957
📣	-9958
📱	-9959
📳	-9960
📸	-9961
📺	-9962
🔟	-9963
🔷	-9964
🔺	-9965
🔻	-9966
🕔	-9967
🖊	-9968
🖱	-9969
🗃	-9970
🗒	-9971
🗣	-9972
🗳	-9973
😇	-9974
😌	-9975
😔	-9976
😝	-9977
😩	-9978
🙁	-9979
🙅	-9980
🙆	-9981
🙌	-9982
🙎	-9983
🚑	-9984
🚷	-9985
🛡	-9986
🤔	-9987
🤗	-9988
🤦	-9989
🤩	-9990
🤪	-9991
🤲	-9992
🥂	-9993
🥰	-9994
🦂	-9995
🧐	-9996
