<unk>	0
<s>	0
</s>	0
▁।	-3.43322
ं	-3.49764
ः	-3.66786
े	-4.0674
ा	-4.15621
▁न	-4.4704
▁	-4.49227
म्	-4.62098
ो	-4.70714
▁-	-4.85346
▁॥	-4.87364
▁च	-4.8756
म	-5.01079
▁स	-5.11849
▁"	-5.25069
▁अ	-5.27271
त	-5.27608
ी	-5.27698
ति	-5.33056
र	-5.3322
ि	-5.33498
न	-5.34863
स्य	-5.35802
▁,	-5.36125
्य	-5.48325
क	-5.49154
व	-5.55841
▁(	-5.56845
▁प्र	-5.5909
▁म	-5.59367
▁इति	-5.62599
▁.	-5.6322
।	-5.63795
य	-5.64682
▁वि	-5.71297
.	-5.7156
ल	-5.72087
▁वा	-5.73873
▁ा	-5.78405
द	-5.79599
स	-5.80241
▁व	-5.83462
र्	-5.84618
ेन	-5.87863
,	-5.89128
▁क	-5.92395
ाः	-5.94753
प	-5.95214
)	-5.96593
ह	-5.96706
▁आ	-5.97494
ौ	-5.98011
▁त	-5.99101
▁तु	-5.99139
▁ः	-6.00717
▁य	-6.0128
न्	-6.02392
्	-6.02586
-	-6.04296
▁एव	-6.04508
ता	-6.05024
▁'	-6.05596
या	-6.05785
त्	-6.10791
ना	-6.16421
तः	-6.17885
ते	-6.20512
ु	-6.21481
ाय	-6.21764
▁हि	-6.22376
▁ते	-6.22532
▁स्व	-6.25676
▁प	-6.28051
▁सं	-6.30929
▁सर्व	-6.31272
▁या	-6.32844
▁नि	-6.33155
च	-6.34038
ग	-6.34297
▁ं	-6.34729
▁यथा	-6.38451
ज	-6.3897
श	-6.42
स्	-6.42545
▁मा	-6.43942
▁र	-6.45101
▁प्रति	-6.47285
▁पर	-6.47563
▁?	-6.47692
ित	-6.51622
▁श	-6.52035
ानि	-6.52691
द्	-6.52888
▁ऽ	-6.5327
▁ह	-6.53853
ात्	-6.54331
ण	-6.55745
▁मे	-6.57814
▁सा	-6.59403
थ	-6.60331
▁द	-6.61577
पि	-6.61984
ू	-6.6263
▁ज	-6.63669
्या	-6.63815
ेण	-6.64065
नि	-6.64378
▁सु	-6.64394
ट	-6.65477
ानां	-6.69575
▁म्	-6.69661
▁_	-6.70303
०	-6.7037
▁ग	-6.70427
त्र	-6.70445
▁भवति	-6.71683
भ	-6.72964
॒	-6.73951
▁तथा	-6.7444
▁तत्	-6.74937
▁परि	-6.79852
१	-6.8239
तु	-6.82716
त्य	-6.82845
▁)	-6.83259
▁तस्य	-6.83263
▁इ	-6.83355
वि	-6.835
ै	-6.84427
▁एक	-6.84833
▁स्य	-6.84924
मा	-6.85449
▁ल	-6.85479
▁सम	-6.85886
▁किं	-6.87001
▁े	-6.87719
िक	-6.89087
ान्	-6.89278
▁देव	-6.89758
श्च	-6.89833
न्ति	-6.90279
▁यदि	-6.9168
क्ष	-6.92261
▁अपि	-6.92629
▁का	-6.93209
▁नाम	-6.94475
▁वै	-6.98077
सि	-6.98151
▁पूर्व	-6.98573
▁ता	-6.98991
▁उप	-7.00207
्यते	-7.01051
ध	-7.01172
रा	-7.01656
ष	-7.02161
ेषु	-7.0338
▁अस्ति	-7.03539
▁मम	-7.04184
ये	-7.05446
क्	-7.05983
ैः	-7.06252
नं	-7.06351
ने	-7.07078
▁सह	-7.0735
▁यत्	-7.08055
स्त	-7.08377
▁यो	-7.08478
▁तत्र	-7.09043
▁ना	-7.0907
ख	-7.0949
▁जन	-7.1012
▁तद	-7.127
ड	-7.1293
▁उ	-7.12951
२	-7.13355
कार	-7.14057
▁ब	-7.14089
तो	-7.14482
सा	-7.14636
प्र	-7.14744
▁त्व	-7.14832
ीय	-7.14947
वा	-7.15269
▁भ	-7.15855
e	-7.15919
ला	-7.16102
ष्ट	-7.17046
▁ो	-7.17228
▁!	-7.17234
न्त	-7.18035
▁धर्म	-7.18061
▁भव	-7.18411
▁एवं	-7.18432
o	-7.1996
▁पुनः	-7.20217
:	-7.20436
▁स्त	-7.20553
▁ये	-7.214
॑	-7.23931
मान	-7.23986
▁ख	-7.24554
▁पा	-7.25021
▁इत्य	-7.25113
▁तद्	-7.25215
▁कार्य	-7.26538
्व	-7.26544
ैव	-7.2656
▁त्वं	-7.26727
धि	-7.29256
ब	-7.29582
▁श्च	-7.29788
▁स्	-7.3074
ॊ	-7.30866
▁अथ	-7.31129
▁ि	-7.3122
▁तव	-7.31746
▁तदा	-7.32599
ृ	-7.33507
ेत	-7.35209
नु	-7.35482
▁ए	-7.355
▁भाव	-7.35582
▁--	-7.35607
गु	-7.37307
▁के	-7.38222
▁२	-7.38669
▁रूप	-7.39004
▁तेन	-7.39038
ादि	-7.39239
▁[	-7.39819
▁अनु	-7.39886
▁पुत्र	-7.39934
▁१	-7.40134
अ	-7.40501
▁देश	-7.40633
देश	-7.40854
▁कर्म	-7.41092
i	-7.4143
▁/	-7.41506
रि	-7.41743
▁ध	-7.42015
▁५	-7.42544
1	-7.42594
ती	-7.42965
ाणि	-7.42993
▁__	-7.43164
▁ततः	-7.43332
▁को	-7.43547
▁मु	-7.43801
ार्थ	-7.44367
▁पद	-7.44452
िता	-7.4468
▁मह	-7.4478
ान	-7.44797
▁ति	-7.45676
णा	-7.45813
रे	-7.45976
का	-7.46101
न्द	-7.46465
दा	-7.46649
▁वर्ष	-7.47002
▁निर्	-7.47656
▁गुण	-7.47837
▁तं	-7.4791
▁शब्द	-7.48018
▁=	-7.49407
ल्	-7.49929
▁विश्व	-7.5
न्य	-7.50288
▁६	-7.50581
ापि	-7.50646
▁काल	-7.50982
हि	-7.51015
मि	-7.51075
ामि	-7.51212
▁महा	-7.51505
च्छ	-7.51562
घ	-7.52169
लि	-7.52483
कः	-7.52629
ेत्	-7.52857
ाणां	-7.52884
▁पि	-7.52949
▁लोक	-7.53266
▁कु	-7.53691
मेव	-7.53936
▁अन्य	-7.54211
▁व्य	-7.54787
▁कर	-7.54998
र्थ	-7.55002
▁४	-7.55176
४	-7.55377
ङ्ग	-7.55532
यति	-7.55835
्वा	-7.55901
▁दु	-7.56837
३	-7.56907
रु	-7.5717
▁गृह	-7.57202
s	-7.57613
▁ज्ञान	-7.57661
ाव	-7.57984
▁प्रथम	-7.58204
▁३	-7.58484
यो	-7.58561
▁समा	-7.58875
कं	-7.5902
▁कृत	-7.59181
▁हे	-7.59508
▁धन	-7.59709
▁अप	-7.59759
वान्	-7.60925
भाव	-7.61063
न्न	-7.61212
▁अव	-7.61436
▁्	-7.62092
सी	-7.62158
▁अत्र	-7.62277
िका	-7.62299
a	-7.62306
भि	-7.62922
2	-7.63123
▁मया	-7.63552
स्तु	-7.63631
▁कथं	-7.64288
ेति	-7.64417
धा	-7.64686
त्व	-7.64752
▁काम	-7.64896
▁पुरुष	-7.65038
▁दि	-7.65392
▁र्	-7.65428
यः	-7.65862
▁सः	-7.6592
▁दा	-7.66143
▁योग	-7.66184
६	-7.66189
▁जल	-7.6655
'	-7.66685
▁यः	-7.66919
य्	-7.67138
▁८	-7.67142
▁राज	-7.67318
▁अभि	-7.67704
७	-7.67836
▁७	-7.68144
स्थ	-7.68396
री	-7.68515
▁विषय	-7.69052
याः	-7.69237
▁3	-7.69358
ध्य	-7.69404
▁छ	-7.69534
▁प्राप्त	-7.69846
८	-7.6986
▁भूत	-7.70042
▁बहु	-7.70092
सु	-7.70106
▁दश	-7.70228
▁त्रि	-7.70443
▁पु	-7.70835
ङ्	-7.709
वे	-7.71568
▁क्ष	-7.71827
ण्ड	-7.71992
▁भू	-7.7213
इ	-7.72407
द्य	-7.72473
त्त	-7.72664
▁भि	-7.7327
र्य	-7.73982
▁सुख	-7.74226
▁वेद	-7.74615
९	-7.74724
न्ते	-7.74862
]	-7.75067
▁विशेष	-7.75513
के	-7.75599
ाद	-7.76049
▁तम	-7.76185
▁सम्	-7.7636
ितः	-7.76495
स्व	-7.7653
▁+	-7.76698
▁युक्त	-7.76701
▁अहं	-7.77075
५	-7.7712
▁मि	-7.77178
▁गत	-7.77226
▁भेद	-7.77243
पा	-7.77449
▁ादि	-7.77645
दि	-7.78914
▁फल	-7.78924
प्	-7.79661
▁प्रा	-7.79989
▁थ	-7.80092
सं	-7.80116
?	-7.80193
श्	-7.80254
भव	-7.80321
ग्	-7.80605
▁ी	-7.80731
ेव	-7.80864
▁अन	-7.80977
व्य	-7.8124
रण	-7.81294
▁स्तु	-7.81431
t	-7.81884
पद	-7.81941
▁यत्र	-7.82404
यं	-7.82536
y	-7.82891
▁भाग	-7.82965
▁;	-7.83169
▁स्थित	-7.83264
ऽ	-7.83421
▁मान	-7.83448
ाम	-7.83597
ाह	-7.83892
्यं	-7.83896
रो	-7.8399
0	-7.84305
▁वर	-7.84321
ँ	-7.84632
ीत	-7.8519
r	-7.85357
▁कार	-7.85809
▁सि	-7.85937
▁ॐ	-7.86033
च्	-7.86464
▁९	-7.86489
▁रे	-7.86591
▁दृष्ट	-7.866
d	-7.86733
चि	-7.86771
से	-7.87064
▁जात	-7.87358
▁अस्य	-7.87862
नी	-7.88049
प्य	-7.88786
▁स्म	-7.8894
हं	-7.89156
▁स्यात्	-7.89203
▁एत	-7.89772
▁जीव	-7.9001
फ	-7.9055
▁यदा	-7.90699
▁S	-7.91151
ङ्क	-7.91202
योग	-7.9135
▁मन	-7.91449
▁4	-7.9147
▁बल	-7.91995
यां	-7.92002
न्तु	-7.92065
ट्	-7.9223
▁शक्ति	-7.9257
▁परम	-7.92797
▁त्वा	-7.92815
▁सर्वे	-7.9288
▁आसीत्	-7.93271
▁जा	-7.93331
▁उत्तर	-7.93712
▁ण	-7.93966
च्च	-7.93968
क्त	-7.94185
▁कि	-7.94208
▁*	-7.95179
▁२०	-7.95245
ज्ञ	-7.96007
भ्य	-7.96177
ास	-7.96335
तां	-7.9678
▁भारत	-7.96946
▁श्र	-7.97049
द्ध	-7.97125
▁s	-7.97294
ोप	-7.97585
भिः	-7.97877
▁भय	-7.97902
कर	-7.97983
ग्र	-7.98137
▁अतः	-7.9815
▁ष	-7.98158
▁त्य	-7.98191
▁पुर	-7.98266
▁दोष	-7.983
4	-7.98364
▁नु	-7.98783
▁दुःख	-7.98785
षा	-7.9966
▁नमः	-7.99742
▁स्थान	-7.99936
▁मध्ये	-7.99958
▁5	-8.00079
▁फ	-8.00142
▁कारण	-8.002
▁करोति	-8.00225
▁घ	-8.00298
▁अर्थ	-8.00347
▁प्राण	-8.005
हा	-8.00998
ए	-8.01879
तर	-8.02036
▁ार्थ	-8.02291
▁लक्षण	-8.0236
॥	-8.02621
▁चा	-8.02713
3	-8.02756
▁शा	-8.02796
▁पञ्च	-8.0287
▁ट	-8.02974
▁1	-8.03105
ार	-8.03192
था	-8.03603
स्ति	-8.03677
ई	-8.04012
▁सत्य	-8.04023
▁ु	-8.04405
▁सन्	-8.04481
▁राज्य	-8.04703
चार	-8.04725
▁गा	-8.0481
येत्	-8.05006
▁जन्म	-8.05011
र्ज	-8.05163
p	-8.05785
प्त	-8.05847
/	-8.05883
▁विधि	-8.05925
▁१०	-8.05975
"	-8.06234
ितं	-8.0637
▁तेषां	-8.06731
▁भवेत्	-8.06979
▁क्रिया	-8.07253
▁ाद	-8.0729
षु	-8.07355
▁दिन	-8.07633
ितम्	-8.07863
▁:	-8.07958
▁शत	-8.08092
▁कः	-8.08294
▁रा	-8.08427
▁प्रत्यय	-8.08456
▁वे	-8.08574
u	-8.08783
▁यस्य	-8.08874
▁अस	-8.0891
कृत	-8.08998
मिति	-8.09148
▁6	-8.09256
▁पाप	-8.09632
▁यद	-8.09744
चित्	-8.09775
▁सामान्य	-8.09847
▁वर्तते	-8.09903
▁ोप	-8.10198
▁वाक्य	-8.10244
▁सदा	-8.10482
5	-8.1076
मे	-8.10761
ञ्ज	-8.10949
▁व्या	-8.11054
▁ह्य	-8.11065
▁१९	-8.11092
▁उक्त	-8.11456
▁पुनर	-8.11567
ात्म	-8.11702
8	-8.11729
▁ैः	-8.11763
ष्ठ	-8.11837
वाद	-8.1192
▁प्रिय	-8.12199
▁तर्हि	-8.12236
▁ड	-8.12339
पर	-8.12447
▁तो	-8.12574
ब्	-8.12683
देव	-8.1289
▁इव	-8.1297
▁सिद्ध	-8.13014
तम	-8.13102
9	-8.13162
▁यद्	-8.1346
▁स्थ	-8.13618
▁भा	-8.1368
ठ	-8.13692
▁इदं	-8.13836
▁द्वितीय	-8.13863
▁ानां	-8.14094
▁इह	-8.14107
▁परा	-8.14146
▁हर	-8.14317
▁्य	-8.14333
दान	-8.14429
▁गो	-8.1455
क्रम	-8.14917
▁द्वि	-8.14925
▁भाषा	-8.1498
▁सू	-8.15251
▁लि	-8.15256
▁वर्ण	-8.15426
▁सप्त	-8.1553
▁ै	-8.15535
▁न्	-8.15739
▁काले	-8.16047
▁तां	-8.16135
ली	-8.16304
स्मा	-8.16406
▁ला	-8.16466
शा	-8.16474
वत्	-8.16578
▁पुनर्	-8.16947
हार	-8.16948
▁रो	-8.17048
रूप	-8.17097
▁राजा	-8.17127
▁केवल	-8.17162
▁भविष्यति	-8.17185
▁वय	-8.17304
7	-8.17546
▁मां	-8.17549
▁रु	-8.17665
▁पाद	-8.17849
▁येन	-8.1793
▁तर	-8.18023
▁वयं	-8.18087
▁पूर्ण	-8.18134
▁प्रत्य	-8.18313
▁क्षण	-8.18502
पी	-8.18513
l	-8.18546
▁गण	-8.1858
▁यु	-8.18673
▁वर्षे	-8.1876
र्ष	-8.188
m	-8.18837
▁कर्तव्य	-8.19236
▁गु	-8.19237
▁रि	-8.19536
▁प्रयोग	-8.19659
▁त्	-8.19687
त्या	-8.19697
ले	-8.19891
▁जान	-8.19913
ोऽ	-8.20245
▁यज्ञ	-8.2032
लोक	-8.20442
यु	-8.20495
▁और	-8.20772
भूत	-8.20785
▁ाय	-8.20839
▁वद	-8.20923
▁मन्त्र	-8.20961
c	-8.21218
▁सन्ति	-8.21229
▁नियम	-8.21347
▁8	-8.21767
▁ौ	-8.21812
ायां	-8.21994
जा	-8.22026
▁ेति	-8.22117
6	-8.22249
▁सूर्य	-8.22291
काल	-8.22436
▁हस्त	-8.22628
▁तः	-8.22628
▁मार्ग	-8.22762
योः	-8.22775
▁अयं	-8.23236
▁आह	-8.23412
ष्य	-8.23416
▁जि	-8.23621
▁रक्ष	-8.23756
ान्त	-8.23769
▁स्त्री	-8.23773
गत	-8.23789
ज्य	-8.23849
ञ्च	-8.23864
▁कृत्वा	-8.23889
▁वन	-8.23976
पाद	-8.23977
श्य	-8.24054
द्र	-8.24064
क्ष्य	-8.24077
▁मेव	-8.24166
▁ई	-8.24264
गम	-8.24266
▁ात्	-8.24298
ेष	-8.24307
▁विना	-8.24311
▁अत	-8.24328
णि	-8.24615
कि	-8.24631
▁नगर	-8.24781
ाद्	-8.24802
श्व	-8.24882
▁दूर	-8.25085
शि	-8.25257
▁7	-8.25343
ढ	-8.25414
▁शेष	-8.25551
▁ओ	-8.25783
▁नो	-8.25792
▁2	-8.25902
▁ेषु	-8.25952
त्वा	-8.25975
▁ित	-8.26035
▁मात्र	-8.26153
▁दृश्य	-8.26742
▁त्र	-8.26854
▁नास्ति	-8.27171
▁पठ	-8.27234
▁A	-8.2726
ाप	-8.27647
▁नित्य	-8.27935
▁शुभ	-8.28116
▁प्रश्न	-8.2825
▁हृदय	-8.28349
▁क्षेत्र	-8.28497
▁विद्या	-8.285
▁पश्य	-8.28955
▁बाल	-8.29119
भा	-8.29136
▁ततो	-8.2924
मु	-8.29516
▁ान्	-8.29555
ुप	-8.29608
▁केवलं	-8.29766
मी	-8.30287
▁पक्ष	-8.30422
▁पृष्ठ	-8.30555
▁उद्	-8.30615
▁...	-8.30894
▁क्र	-8.3105
▁मिति	-8.31306
▁बि	-8.31386
ुः	-8.31524
▁एतत्	-8.31699
णे	-8.31772
▁की	-8.31789
र्त	-8.31833
वः	-8.32056
▁श्	-8.32173
▁तत	-8.32285
▁सूत्र	-8.32321
▁पी	-8.3233
▁गच्छ	-8.32393
▁युद्ध	-8.3255
▁दक्षिण	-8.32674
▁मित्र	-8.32709
ैक	-8.32731
▁मुक्त	-8.32975
वार	-8.3301
▁रस	-8.33104
▁सम्बन्ध	-8.3312
▁उत्	-8.33795
ग्न	-8.33864
▁गति	-8.3396
र्ध	-8.34061
▁करण	-8.34246
▁मास	-8.34485
▁मत	-8.34525
▁तप	-8.34614
▁कृ	-8.34631
▁भविष्य	-8.34712
▁दर्शन	-8.34736
तीति	-8.34897
र्ण	-8.34934
▁0	-8.34988
▁केन	-8.35122
आ	-8.35265
▁घट	-8.355
▁सहस्र	-8.35602
ल्ल	-8.35604
भाष	-8.3587
िनः	-8.35985
स्म	-8.36152
▁शरीर	-8.36262
भाग	-8.36283
ज्ज	-8.36292
▁विद्यते	-8.36444
जन	-8.36533
दी	-8.36674
कम्	-8.36723
▁पुं	-8.36745
नम्	-8.37189
षि	-8.37275
स्मिन्	-8.3734
▁संस्कृत	-8.37483
▁एष	-8.37649
▁तया	-8.37791
▁दान	-8.37932
▁अधिक	-8.3802
▁राम	-8.38048
▁नैव	-8.38084
ग्रह	-8.38402
पु	-8.38577
लं	-8.38674
क्षि	-8.38687
णं	-8.38706
ञ्	-8.38722
दु	-8.38845
▁परं	-8.39221
▁किम्	-8.39734
▁सर्वं	-8.40148
चर	-8.40162
▁प्रमाण	-8.40253
▁वस्तु	-8.40343
▁हेतु	-8.40533
▁9	-8.40613
▁ाव	-8.4066
▁तमे	-8.40893
--	-8.40942
▁कल्प	-8.41276
▁प्रजा	-8.41389
▁यत	-8.41458
▁अद्य	-8.41696
यम	-8.41708
धान	-8.41785
▁ऊ	-8.41804
त्तम	-8.41959
▁मुख	-8.42446
▁कल	-8.42483
▁शास्त्र	-8.42516
▁राष्ट्र	-8.42627
▁प्रकाश	-8.42781
▁दृश्यते	-8.42917
▁ग्रह	-8.42965
ैर्	-8.42998
यते	-8.43051
मपि	-8.43216
▁ग्रहण	-8.43316
er	-8.43648
▁खः	-8.4387
तं	-8.43921
▁क्रम	-8.4404
▁मूल	-8.44044
नाम	-8.4412
छ	-8.44248
▁पत्र	-8.44293
▁धा	-8.44529
▁शक्य	-8.44621
▁देह	-8.4477
न्तर	-8.44805
ानु	-8.4485
सः	-8.45005
नो	-8.45047
हित	-8.45123
▁ब्रह्म	-8.45156
न्ध	-8.4527
॰	-8.45276
▁११	-8.45316
▁दृष्ट्वा	-8.45335
▁गुरु	-8.45414
g	-8.45493
▁कस्य	-8.45859
वन	-8.45894
▁कृते	-8.45947
S	-8.45957
म्ब	-8.45995
वी	-8.46134
को	-8.46246
▁सर्वत्र	-8.4649
▁इत	-8.46594
र्ह	-8.46653
▁अति	-8.46826
▁सर्वा	-8.46883
शः	-8.47469
ड्	-8.4787
नः	-8.47929
▁सी	-8.47981
▁विभाग	-8.48315
k	-8.48412
▁ानि	-8.48434
▁श्री	-8.48562
▁श्रुत	-8.48598
▁शिव	-8.49115
▁10	-8.49227
ीयते	-8.49247
त्थ	-8.49466
▁ऽपि	-8.49494
त्वं	-8.49508
िष्ठ	-8.49593
▁वृ	-8.49626
▁ानु	-8.49992
िष	-8.50015
▁तृतीय	-8.50033
▁वृत्त	-8.50169
▁द्र	-8.50179
▁नव	-8.50354
▁C	-8.50383
▁मनु	-8.50871
ालय	-8.50958
▁सोम	-8.51186
▁वृक्ष	-8.51266
्यां	-8.51283
▁विध	-8.51462
▁न्य	-8.51506
▁विषये	-8.5152
▁आर	-8.51593
▁सूचना	-8.5171
▁स्वरूप	-8.52026
▁किम	-8.52341
▁निर	-8.52427
णी	-8.52578
यन्	-8.52695
ज्	-8.52825
__	-8.53091
▁जु	-8.53186
▁m	-8.53267
ख्य	-8.53412
▁वस	-8.53416
यन	-8.53669
र्च	-8.53984
▁पार	-8.54365
षण	-8.54371
गा	-8.54435
चित	-8.54568
▁॑	-8.54664
यत	-8.54764
▁निष्	-8.54791
वर्त	-8.54802
▁संख्या	-8.54819
▁हा	-8.54842
ज्ञा	-8.5521
▁उद	-8.55221
पेक्ष	-8.55388
▁I	-8.55401
दिन	-8.55677
▁बा	-8.55758
▁वर्ग	-8.55813
▁विचार	-8.55875
▁त्वया	-8.55932
वास	-8.55979
▁वायु	-8.55986
▁धि	-8.56113
▁बुद्धि	-8.56344
▁तत्त्व	-8.56364
x	-8.56397
ar	-8.5653
युक्त	-8.56606
▁जायते	-8.56669
▁वचन	-8.56676
▁ोऽ	-8.56717
नीय	-8.5675
भू	-8.56877
▁॒	-8.56898
f	-8.56949
▁दिश	-8.57056
▁यं	-8.57152
कु	-8.57156
n	-8.57715
र्व	-8.57792
▁हित	-8.57818
▁कार्यं	-8.5818
▁जीवन	-8.5821
▁लाभ	-8.58338
▁मध्य	-8.58424
▁>	-8.58589
▁इत्यादि	-8.5874
तया	-8.58783
▁प्रोक्त	-8.5881
▁श्व	-8.58821
▁अभवत्	-8.58963
▁देवा	-8.59116
▁अन्त	-8.59131
▁अस्मिन्	-8.59157
▁a	-8.59381
▁दीर्घ	-8.59471
▁पाठ	-8.59634
वर	-8.59747
▁संशयः	-8.59766
▁देवता	-8.59882
▁मुख्य	-8.60256
ष्ण	-8.60264
▁भ्य	-8.60309
ळ	-8.60411
ग्नि	-8.60447
▁१८	-8.60521
▁यम	-8.60605
▁चेत्	-8.60684
▁दिव	-8.607
▁अग्नि	-8.6071
▁कुल	-8.60748
ुर्	-8.60833
स्मि	-8.61015
▁ऋ	-8.61021
ान्तर	-8.61037
▁दत्त	-8.6129
▁१२	-8.61408
▁दुर्	-8.61497
▁न्त	-8.61598
▁आस	-8.61639
लो	-8.61683
an	-8.61716
▁p	-8.61842
▁स्था	-8.61894
▁०	-8.61954
▁मृत	-8.6211
▁विकल्प	-8.62151
पत्ति	-8.62157
हर	-8.62181
धन	-8.62497
▁भाषण	-8.62516
▁चित्र	-8.62771
▁प्रण	-8.62782
▁दे	-8.62868
उ	-8.62878
▁भवन्ति	-8.62966
▁एका	-8.62967
श्र	-8.62969
▁प्रकृति	-8.63035
क्षण	-8.63077
▁समुद्र	-8.63169
▁विज्ञान	-8.63216
▁]	-8.63286
▁संयुक्त	-8.63314
▁मनो	-8.63411
सर	-8.63461
न्द्र	-8.63509
▁प्रधान	-8.63653
▁t	-8.63718
b	-8.63957
नेन	-8.64104
▁B	-8.64133
की	-8.64393
▁स्वयं	-8.64464
र्म	-8.64505
▁हरि	-8.6459
▁पत	-8.64883
काश	-8.64977
▁स्या	-8.65007
ीनां	-8.65065
▁स्मृत	-8.65164
विध	-8.65478
▁कथय	-8.65606
्यु	-8.65625
ड़	-8.65636
▁यतः	-8.65742
▁---	-8.65893
▁मद	-8.65897
िर	-8.65975
ण्	-8.66104
▁स्प	-8.66154
ॉ	-8.66155
h	-8.66166
▁मपि	-8.66487
▁नित्यं	-8.66491
▁भारतीय	-8.66582
टि	-8.66609
▁ग्र	-8.66657
▁वर्तमान	-8.6671
▁()	-8.66717
▁अध	-8.66732
▁साधन	-8.66758
▁ाः	-8.66777
वती	-8.66887
▁1.	-8.67174
शु	-8.67176
्यन्ते	-8.67245
▁द्वारा	-8.67449
▁पति	-8.67524
ेय	-8.67616
ुक्त	-8.67644
▁त्वात्	-8.67679
दे	-8.68027
▁मनुष्य	-8.68115
▁सौ	-8.68205
▁समय	-8.68288
▁मय	-8.68382
▁न्याय	-8.68576
▁हो	-8.68664
यि	-8.68703
▁१५	-8.68772
▁विष	-8.68856
▁जनाः	-8.6897
▁मन्य	-8.69021
▁n	-8.6941
▁क्रियते	-8.69499
▁भावः	-8.69622
ुष	-8.69828
▁र्थ	-8.69845
▁d	-8.69894
ेऽपि	-8.69912
▁ात्म	-8.69934
शी	-8.6995
ल्य	-8.70069
▁पुण्य	-8.7019
▁रथ	-8.70258
▁अधिकार	-8.70708
ेश	-8.7082
▁l	-8.70894
ुर	-8.70941
▁बन्ध	-8.71033
▁वृत्ति	-8.71064
▁स्वर्ग	-8.71221
▁चित्त	-8.71236
▁तथापि	-8.71243
▁रोग	-8.71289
▁अन्यथा	-8.71364
ङ	-8.71611
▁वृद्ध	-8.71869
▁स्वप्न	-8.71908
ाई	-8.72052
ष्	-8.72053
or	-8.7233
▁शक्यते	-8.72433
▁समर्थ	-8.72459
पन्न	-8.7272
▁ती	-8.72836
ृष्ट	-8.73124
▁P	-8.73143
▁शक्त	-8.73155
▁लेख	-8.73399
▁ऐ	-8.73411
▁ध्यान	-8.73472
▁एते	-8.73473
िति	-8.73477
P	-8.73494
▁त्रय	-8.73576
▁पुस्तक	-8.73682
▁समान	-8.73847
▁देशे	-8.74048
▁विश	-8.74136
00	-8.74154
▁संभव	-8.74179
िन	-8.74247
बन्ध	-8.74315
▁तस्या	-8.74372
▁परीक्षा	-8.74386
▁प्रदेश	-8.74406
▁रूपेण	-8.74555
▁शुद्ध	-8.74639
▁परस्पर	-8.74712
▁c	-8.74904
▁कथा	-8.74949
▁सो	-8.74991
▁प्रभाव	-8.752
ष्व	-8.75278
▁वाद	-8.75411
▁झ	-8.75504
▁ग्राम	-8.75504
▁प्रयोजन	-8.7552
▁दैव	-8.75696
▁T	-8.75731
▁लोके	-8.75843
▁L	-8.75887
▁तस्मात्	-8.76019
क्ति	-8.76132
▁ग्रन्थ	-8.7623
▁धी	-8.76272
▁एषा	-8.76313
कर्म	-8.76485
▁यद्य	-8.7657
▁सुर	-8.76575
▁तौ	-8.76625
▁क्व	-8.77061
▁द्वय	-8.77166
▁चैव	-8.77326
on	-8.7748
ासन	-8.77499
वचन	-8.77733
▁वर्त	-8.77871
▁ेन	-8.77981
▁यां	-8.78055
▁द्वादश	-8.78092
करण	-8.781
C	-8.7811
▁दिवस	-8.78274
▁पूजा	-8.78347
द्व	-8.78375
▁पूर्वं	-8.78489
▁M	-8.78592
स्प	-8.7864
वर्ष	-8.78692
परि	-8.78831
▁अस्माकं	-8.78831
▁युग	-8.78914
▁सत्	-8.79148
राज	-8.79284
▁मानव	-8.79414
▁उच्यते	-8.79499
धी	-8.79576
▁साध	-8.79607
दिति	-8.79654
▁किन्तु	-8.79862
▁विरोध	-8.79898
़	-8.79987
▁ज्ञात	-8.80004
क्र	-8.80164
▁इच्छ	-8.80172
▁यू	-8.80284
▁भाष	-8.80442
▁द्	-8.80625
रिय	-8.80807
त्वात्	-8.80815
▁भूमि	-8.80829
▁भवतः	-8.80925
धार	-8.80973
▁विप्र	-8.81011
▁१४	-8.81034
▁अनेक	-8.81047
रोध	-8.81131
पत्	-8.81272
▁b	-8.81312
▁मृ	-8.81317
▁वो	-8.81335
बल	-8.81429
▁योः	-8.81468
▁वाच	-8.81509
▁अथवा	-8.81522
▁तस्मिन्	-8.81539
▁पूर	-8.81638
▁से	-8.81689
▁विधान	-8.81747
▁माता	-8.81837
सू	-8.82128
▁कृता	-8.8213
▁सेव	-8.82391
▁आप	-8.82423
▁शु	-8.82475
▁वृद्धि	-8.82558
वाह	-8.82578
▁प्रकृत	-8.8258
▁याः	-8.82687
शो	-8.82737
▁वास	-8.82767
▁रूपं	-8.82915
▁फलं	-8.83129
ह्	-8.83275
▁ैक	-8.83286
▁यथ	-8.83289
▁नृप	-8.83314
▁ाभि	-8.83389
▁#	-8.8341
v	-8.8344
ध्व	-8.83528
▁ईश्वर	-8.83557
िनी	-8.83585
▁प्रत्यक्ष	-8.836
गुण	-8.83793
▁अपर	-8.83807
वेद	-8.83834
▁विद	-8.83929
▁इत्यस्य	-8.83955
▁ॊ	-8.84032
▁त्वेन	-8.84331
▁प्राप्य	-8.84368
युः	-8.84418
यत्	-8.84467
मय	-8.84562
▁पुन	-8.84596
माण	-8.846
▁वत्	-8.84657
▁इत्युक्त	-8.84785
▁पू	-8.84993
▁है	-8.85094
ैर	-8.85135
▁19	-8.85283
स्ते	-8.85543
▁चि	-8.85573
▁यन्	-8.85636
▁मण्डल	-8.85693
▁त्वम्	-8.85732
टी	-8.85755
▁पिता	-8.8584
धिक	-8.85855
▁यज	-8.85899
वान	-8.86019
▁संसार	-8.86094
िष्	-8.86126
भ्यो	-8.86154
क्षु	-8.86256
ेषां	-8.86322
▁सम्भव	-8.86358
वो	-8.8639
▁कोई	-8.86453
▁विकास	-8.86458
▁जय	-8.86498
ष्टा	-8.86504
▁पृष्ठानि	-8.86578
सो	-8.86625
्रा	-8.86819
▁कुरु	-8.86835
रुण	-8.87042
▁समु	-8.87051
▁द्य	-8.87069
▁विनि	-8.87457
▁कथित	-8.87477
मुख	-8.87514
▁स्थिति	-8.87545
पाल	-8.87676
▁१७	-8.87757
▁इत्येत	-8.87928
▁ज्ञानं	-8.87975
▁साम	-8.88187
▁भवान्	-8.88203
िद	-8.8821
र्त्त	-8.88357
w	-8.88456
▁भु	-8.88503
ण्य	-8.88541
यन्ति	-8.88566
त्स	-8.88682
▁एकः	-8.88823
▁मृत्यु	-8.8883
ार्थं	-8.88884
I	-8.89099
ागत	-8.89127
दृश	-8.89162
▁बह	-8.89285
▁इत्येव	-8.89323
▁वह	-8.89478
▁दण्ड	-8.89599
काः	-8.89609
▁गृहे	-8.8972
▁प्रसिद्ध	-8.89846
▁समाप्त	-8.89855
▁बाध	-8.89919
▁कृतं	-8.90002
▁द्व	-8.90045
▁त्वां	-8.90052
ाप्य	-8.90166
▁पदार्थ	-8.9023
ीकरण	-8.90238
▁तथैव	-8.90368
▁प्रातः	-8.90455
चन	-8.90459
al	-8.90616
▁द्वार	-8.90961
▁द्रव्य	-8.91007
णु	-8.91085
E	-8.91265
▁D	-8.9129
▁दिव्य	-8.91528
▁इन्द्र	-8.91541
▁पुरा	-8.91611
स्त्र	-8.9163
▁दद	-8.91673
▁नाश	-8.91774
▁प्रयत्न	-8.91845
स्थित	-8.91906
▁प्रद	-8.92088
▁ष्ट	-8.92104
▁भोजन	-8.92142
▁शत्रु	-8.92153
▁मी	-8.92175
▁भी	-8.92216
धे	-8.92346
▁यतो	-8.92638
▁पर्वत	-8.92719
▁अनेन	-8.92856
िण	-8.92978
▁कृष्ण	-8.92982
▁करो	-8.93003
▁निमित्त	-8.93159
▁अनुसंधान	-8.93323
▁१३	-8.93568
▁च्छ	-8.93595
▁प्रत्येक	-8.93627
क्षा	-8.93636
स्ता	-8.93637
▁यावत्	-8.93684
▁ताव	-8.93719
हु	-8.93746
ोक्त	-8.93836
▁वश	-8.93884
A	-8.93963
फल	-8.94041
▁सर्व्व	-8.94054
ितुं	-8.94109
▁सङ्	-8.94172
▁ैर्	-8.94223
वद	-8.94242
▁सर्वेषां	-8.94275
▁पितृ	-8.94322
▁प्रवेश	-8.94392
योज	-8.94538
▁तिष्ठ	-8.94574
ष्टि	-8.94729
मास	-8.94853
ित्वा	-8.94999
▁सिंह	-8.95061
तव्य	-8.95166
पद्यते	-8.9533
▁विशिष्ट	-8.95363
T	-8.95374
दन	-8.95388
▁१६	-8.95509
र्द्ध	-8.95509
▁बुद्ध	-8.9563
िना	-8.95869
▁छात्र	-8.95999
▁भगवान्	-8.96004
▁धातु	-8.96068
र्क	-8.9613
▁द्विज	-8.9614
▁मुप	-8.96143
▁राज्ञ	-8.96219
▁तन्	-8.96236
▁लिङ्ग	-8.96298
कट	-8.96346
▁रुप	-8.96376
▁मूर्	-8.96387
▁व्रत	-8.96413
▁20	-8.96469
▁कुर्वन्ति	-8.96473
वेश	-8.96568
▁कला	-8.96722
▁समीप	-8.9684
कारः	-8.96899
▁यात	-8.9697
▁मध्यम	-8.96989
in	-8.97178
▁बोध	-8.97193
▁पे	-8.97259
ञ	-8.97489
पति	-8.97526
▁ाद्	-8.97562
>	-8.9767
▁सङ्ग	-8.97729
▁भिन्न	-8.97866
▁उत्तम	-8.97948
▁ननु	-8.98016
▁भवे	-8.98023
▁उच्च	-8.98133
▁मै	-8.98214
▁लघु	-8.98262
थि	-8.98268
▁प्राप्नोति	-8.98309
▁समास	-8.98382
▁स्वभाव	-8.98499
▁तिथि	-8.98528
तौ	-8.98643
▁जग	-8.98784
▁मित्य	-8.98795
▁चक्र	-8.9896
▁2.	-8.98961
▁चन्द्र	-8.98962
▁कौ	-8.9905
▁खलु	-8.99107
स्ट	-8.99126
भय	-8.99315
व्या	-8.99322
▁सर्वदा	-8.99348
▁इदानीं	-8.99384
ेभ्यः	-8.99413
▁वेबसाइट	-8.9945
▁कारणं	-8.9956
▁आत्म	-8.99629
▁भक्त	-8.99695
▁अधिकतम	-8.99844
..	-8.99919
ाभि	-8.99925
▁लक्ष	-8.99949
पण	-9.00138
▁12	-9.00449
▁भवता	-9.00486
▁भूय	-9.00559
▁उभय	-9.00629
▁स्नान	-9.00897
बा	-9.01009
मह	-9.01145
ॆ	-9.01291
००	-9.01554
▁सार	-9.01757
▁11	-9.01795
▁माया	-9.01863
▁इत्यर्थः	-9.0202
▁निज	-9.02062
वस्था	-9.021
▁लु	-9.02156
िष्ट	-9.02448
▁बालक	-9.02566
▁तथ	-9.02592
▁E	-9.02642
च्छेद	-9.02697
▁N	-9.0275
▁वीर	-9.02758
सर्ग	-9.02919
▁अस्मा	-9.03054
मुक्त	-9.03098
▁अध्ययन	-9.03257
▁निर्देश	-9.03392
▁केन्द्र	-9.03446
▁कर्	-9.03475
▁स्थाने	-9.03526
झ	-9.03786
▁वी	-9.03802
▁शीत	-9.0383
ःगु	-9.03835
▁स्वर	-9.03898
▁शब्दः	-9.03979
▁त्वम	-9.04079
▁व्यवहार	-9.04168
न्व	-9.04338
▁कं	-9.04376
▁वर्ध	-9.04439
st	-9.04473
▁वाम	-9.04589
यितुं	-9.04601
भ्या	-9.04607
▁व्यवस्था	-9.04618
रिति	-9.04791
स्र	-9.04824
▁गर्भ	-9.0494
▁विविध	-9.04949
▁अधिनियम	-9.05058
▁लब्ध	-9.05096
▁ैव	-9.05118
ोऽपि	-9.05124
विद	-9.05135
पू	-9.05256
▁कर्तुं	-9.05271
▁कन्या	-9.05368
▁ञ्च	-9.05457
;	-9.05627
▁ज्ञा	-9.05629
म्भ	-9.05697
भेद	-9.05745
▁स्वा	-9.05772
▁औ	-9.05809
च्य	-9.05872
▁सकल	-9.05931
%	-9.05977
▁संस्था	-9.06064
▁गतः	-9.06283
▁समाचार	-9.06335
▁साध्य	-9.06354
▁यश	-9.06376
▁पो	-9.06408
धिकरण	-9.06418
▁जगत्	-9.06461
ध्	-9.06464
▁भर	-9.06599
स्थान	-9.06615
▁पश्चिम	-9.06618
ब्ध	-9.06667
▁वार	-9.0668
▁भिः	-9.06781
त्ता	-9.06889
▁अध्याय	-9.06986
तृ	-9.07093
जि	-9.07118
▁षष्ठ	-9.07142
▁पृ	-9.0722
▁धर	-9.07362
▁स्त्व	-9.07442
▁कथ	-9.07508
▁ोक्त	-9.0751
सार	-9.07686
▁आगत	-9.07701
काले	-9.07705
▁कर्ता	-9.07736
िताः	-9.0778
▁नै	-9.07878
रू	-9.07892
▁पुष्प	-9.08058
षे	-9.08072
ाऽ	-9.08212
▁पर्य	-9.08258
डि	-9.08376
▁विद्यालय	-9.08386
▁चतुर्	-9.08423
▁भार	-9.08486
▁ान्तर	-9.08501
▁ान	-9.08568
भाषा	-9.08595
▁सिद्धि	-9.08682
▁उदाहरण	-9.08712
▁भ्र	-9.08792
मान्	-9.08927
▁दिने	-9.08986
▁य्	-9.09005
यात्	-9.09113
▁भो	-9.0913
▁ीय	-9.09149
▁त्वे	-9.09276
वद्	-9.09307
ात्मा	-9.09393
घ्न	-9.09423
▁सति	-9.09698
▁कुत्र	-9.09773
▁क्रिय	-9.09828
▁एता	-9.09986
▁मूल्य	-9.10148
▁क्षय	-9.10202
▁मुनि	-9.10252
कल	-9.10438
▁भृ	-9.10631
रण्य	-9.10769
पन	-9.1082
D	-9.10838
▁चतुर्थ	-9.1087
पूर्ण	-9.10989
▁प्रकरण	-9.11008
क्षेप	-9.11059
हृ	-9.11344
▁श्रुत्वा	-9.11484
▁प्रतिषेध	-9.11727
▁पृथक्	-9.11755
▁कर्ण	-9.12055
▁रात्रि	-9.12225
न्त्य	-9.12433
ुच्यते	-9.12437
वन्	-9.12608
▁मोह	-9.12627
▁व्यक्ति	-9.12685
▁धु	-9.12725
ाधिक	-9.1283
▁उपयोग	-9.12883
▁f	-9.12948
▁क्रीड	-9.12985
▁कदाचित्	-9.13014
ूष	-9.13053
▁रम	-9.13081
▁सुत	-9.13081
▁लक्ष्य	-9.132
▁निर्णय	-9.13212
दर्श	-9.13257
▁सत्त्व	-9.13409
कल्प	-9.13514
▁पथ	-9.13557
गृह	-9.13729
▁यद्यपि	-9.13924
▁अग्र	-9.13966
▁सन्त	-9.14033
▁15	-9.14279
▁अहम्	-9.14282
▁मरण	-9.14309
▁परिणाम	-9.14356
▁V	-9.14362
▁निरा	-9.14416
▁18	-9.1451
डा	-9.14524
▁अधि	-9.14636
▁श्रेष्ठ	-9.14688
भु	-9.14724
▁i	-9.14826
▁योग्य	-9.1494
▁पृथिवी	-9.14959
त्वे	-9.15236
▁दीप	-9.1527
र्द	-9.15315
ल्प	-9.15377
▁कम	-9.154
िनां	-9.15564
▁स्त्रिय	-9.15566
▁जगत	-9.15857
▁गत्वा	-9.15885
▁कै	-9.16026
ज्ञान	-9.16059
▁गते	-9.16278
▁हत	-9.16286
▁व्यापार	-9.16448
पूर्व	-9.16524
▁रक्त	-9.16698
▁सव	-9.16733
▁भोग	-9.16784
▁मयि	-9.16884
▁शर	-9.17019
en	-9.17119
▁विशेषतः	-9.17178
▁ध्व	-9.17201
▁क्षम	-9.17202
▁व्यक्त	-9.17251
दिश	-9.17323
▁ताम्	-9.17365
▁इत्यत्र	-9.17377
▁इयं	-9.17395
▁भक्ति	-9.17397
▁एतद	-9.17405
▁रण	-9.17415
▁यति	-9.17505
यात	-9.17556
▁कुर्व	-9.17616
▁विनाश	-9.17687
▁लिखित	-9.17707
त्येव	-9.17711
▁वाच्य	-9.1772
▁समाज	-9.17754
▁कवि	-9.17779
▁बुध	-9.1789
▁तम्	-9.17913
▁क्वचित्	-9.18001
▁हीन	-9.18126
▁जीवित	-9.18152
it	-9.18159
▁भारतस्य	-9.18258
▁सेवा	-9.18368
▁तुल्य	-9.18381
भिर्	-9.18609
पक्ष	-9.18633
▁तेषु	-9.18649
▁चार	-9.18836
▁ज्ञेय	-9.18852
ह्य	-9.189
िष्यति	-9.18962
gst	-9.19025
!	-9.19077
▁प्रकार	-9.19178
वाच	-9.19206
▁ार्थं	-9.19229
दश	-9.19306
▁संबन्ध	-9.19314
िष्यामि	-9.19593
▁जनवरी	-9.19652
▁<	-9.19735
▁पृथ	-9.19753
▁गच्छति	-9.19832
▁नरक	-9.19887
▁शिक्षा	-9.19976
काम	-9.20002
▁पात	-9.20054
▁दी	-9.20113
▁अमेरिका	-9.20185
▁विशेषण	-9.20197
▁ाद्य	-9.20289
मात्र	-9.20364
▁माह	-9.20403
▁वित्त	-9.20439
पात	-9.20468
es	-9.20531
▁कू	-9.20629
▁कृतम्	-9.20685
यै	-9.20706
▁प्रती	-9.20796
▁ज्या	-9.20914
▁बाह्य	-9.20997
▁निर्मित	-9.21008
am	-9.21361
}	-9.21374
▁३०	-9.21489
N	-9.21556
▁करिष्य	-9.21655
▁कृपया	-9.21874
▁ले	-9.2198
le	-9.22086
▁इत्यनेन	-9.22095
▁शरण	-9.22233
माह	-9.22285
लम्ब	-9.22313
ेश्वर	-9.22518
▁विद्य	-9.226
▁स्मर	-9.22689
▁चर	-9.22789
स्तर	-9.22862
▁ोऽपि	-9.22891
▁गुणा	-9.22959
▁3.	-9.22975
▁महत्	-9.23059
▁राग	-9.23138
▁देवी	-9.23255
दर	-9.23283
ाभ्यां	-9.23326
▁ठ	-9.23331
▁भर्	-9.23361
▁मोक्ष	-9.23376
▁आदि	-9.23511
ेऽ	-9.23588
▁त्या	-9.23602
याम	-9.23699
▁आवश्यक	-9.23721
▁परीक्षण	-9.23732
▁काय	-9.23829
▁२१	-9.23883
▁ब्राह्मण	-9.2389
▁गमन	-9.24026
▁G	-9.24054
▁समये	-9.24102
▁पाल	-9.24152
▁एतद्	-9.24252
यन्त	-9.24318
▁विष्णु	-9.24322
धु	-9.24377
▁भवन्त	-9.2438
▁रज	-9.24516
▁ात्मक	-9.2469
ीश्वर	-9.24806
ूत	-9.25015
▁धीर	-9.2506
=	-9.25152
▁वर्षा	-9.25196
्यर्थ	-9.25197
वृत	-9.25272
ीकृत	-9.2539
ादौ	-9.25478
▁तान्	-9.25591
▁जी	-9.25604
त्यर्थ	-9.2561
▁स्थानं	-9.25638
▁तन्त्र	-9.25662
▁$	-9.2573
धर्म	-9.25741
▁मुक्ति	-9.25841
▁निर्माण	-9.25866
▁शिर	-9.25896
▁किल	-9.25956
ृत	-9.26128
▁आव	-9.26134
▁अङ्ग	-9.26147
▁क्रीडा	-9.26168
▁मति	-9.26179
▁आत्मा	-9.26242
▁एषः	-9.26322
▁14	-9.26329
ैष	-9.26368
ितुम्	-9.26415
▁णा	-9.26425
▁धारा	-9.26476
▁दृष्टि	-9.26484
दार	-9.26506
▁अयम्	-9.26527
▁प्ल	-9.26537
▁कर्तु	-9.26567
▁पदं	-9.26604
▁ह्र	-9.26644
▁बृह	-9.26735
▁ज्ञ	-9.26815
▁शून्य	-9.26822
क्क	-9.26838
▁शि	-9.26848
▁याति	-9.26931
प्स	-9.27018
▁ष्व	-9.27071
▁वध	-9.27161
▁प्य	-9.27181
▁कथम	-9.27288
ुक	-9.27396
▁श्लोक	-9.27509
ट्ट	-9.27524
▁मधु	-9.2764
गण	-9.2766
▁सहित	-9.27682
▁ज्योति	-9.27682
▁हार	-9.27739
▁तृ	-9.27766
िणः	-9.27775
▁शङ्क	-9.27865
▁जप	-9.279
ाद्य	-9.27934
▁टी	-9.28
▁{	-9.28338
▁गर्	-9.28458
▁धार	-9.28625
▁वत्स	-9.2863
▁वापि	-9.28782
ेयं	-9.28787
▁मनः	-9.28825
▁कीदृश	-9.28891
▁कालः	-9.28996
▁विमान	-9.29073
▁काव्य	-9.29093
▁निवेश	-9.29214
भी	-9.29245
▁प्रतिशत	-9.29287
▁तानि	-9.29649
▁शृणु	-9.29669
▁गिर	-9.29692
▁देवानां	-9.29775
▁F	-9.29801
▁दृढ	-9.29909
▁ब्रू	-9.30056
▁अष्ट	-9.30081
O	-9.3014
▁पशु	-9.30214
▁अह	-9.30391
ed	-9.30399
▁कृतः	-9.30429
▁याये	-9.30511
▁थ्व	-9.30519
▁हु	-9.3069
▁२५	-9.30762
▁Tag	-9.30835
▁मुद्	-9.30851
▁तादृश	-9.30893
▁श्रुति	-9.30997
▁आयु	-9.31015
▁िक	-9.31148
▁सभा	-9.31201
▁विज्ञ	-9.31261
▁अर्थः	-9.31316
_	-9.31334
▁२२	-9.3139
भवत्	-9.31426
ानाम्	-9.31556
▁रात्रौ	-9.3163
▁सद्	-9.31727
▁O	-9.31994
▁पश्यति	-9.31997
▁विजय	-9.3206
▁लोप	-9.32187
@	-9.32242
▁ध्वनि	-9.32258
▁स्थिर	-9.32305
▁मत्	-9.32348
▁शासन	-9.3241
यामि	-9.32506
▁U	-9.32615
िणी	-9.32638
िष्यते	-9.32685
▁परमेश्वर	-9.32807
▁तन	-9.32862
शक्ति	-9.33038
▁स्पष्ट	-9.33074
भ्र	-9.33101
▁परिभाषा	-9.33386
▁जाता	-9.33392
मन्त्र	-9.33434
▁समस्त	-9.33465
▁वने	-9.33588
▁सदस्य	-9.33609
व्	-9.33663
▁ानाम्	-9.33663
▁चिर	-9.33813
▁मृग	-9.33886
खिल	-9.33936
▁तावत्	-9.33959
▁गन्ध	-9.34017
▁पदे	-9.34029
▁सागर	-9.34074
ैन	-9.34076
▁सञ्	-9.34081
▁मस्ति	-9.34111
▁वचनं	-9.34137
▁रक्षण	-9.34213
▁द्वे	-9.34231
ic	-9.34248
▁स्थल	-9.3429
न्वय	-9.34453
▁Home	-9.34639
▁जित	-9.34647
▁महोदय	-9.3469
▁न्यून	-9.34744
▁षु	-9.34785
▁ोत्	-9.34812
R	-9.34911
योर्	-9.34913
नगर	-9.34927
▁विवाह	-9.34933
▁गृहीत	-9.34943
जीव	-9.34965
मृत	-9.35229
विधि	-9.35318
▁रात्र	-9.35387
बोध	-9.3559
▁लभ	-9.35597
▁इतर	-9.35659
▁चरण	-9.35678
स्क	-9.35772
▁निश्चित	-9.35819
▁स्थापय	-9.35855
▁निवर्त	-9.3588
▁दुष्ट	-9.36053
▁नेत्र	-9.36263
▁संशय	-9.36314
शय	-9.36329
▁२४	-9.36356
▁नदी	-9.36406
लु	-9.36537
▁२००	-9.36697
▁प्रभु	-9.36781
▁भ्रात	-9.36818
▁यूयं	-9.36828
▁प्राप्ति	-9.36851
▁कर्मणि	-9.36853
▁री	-9.36906
▁संयोग	-9.36917
▁संस्करण	-9.36935
▁v	-9.36954
▁प्रयुक्त	-9.37072
▁अनन्त	-9.37132
▁भज	-9.37197
▁ैर	-9.37236
▁गता	-9.37279
▁कोऽपि	-9.37281
▁चेत	-9.37335
▁प्राप	-9.37387
X	-9.37419
▁अश्व	-9.3744
▁ध्य	-9.37447
कृ	-9.37454
▁ेण	-9.37473
▁क्त	-9.37528
▁दर्श	-9.37559
▁दुर्लभ	-9.37617
रेव	-9.37957
▁राज्यं	-9.38027
ेन्द्र	-9.38062
▁व्यवसाय	-9.38104
▁g	-9.38118
▁योजना	-9.38315
▁सम्बद्धान	-9.38396
▁कुत	-9.38437
▁तदेव	-9.38497
▁ङ्ग	-9.38556
▁सप्तम	-9.3858
▁कश्चित्	-9.38698
▁स्त्र	-9.38886
M	-9.39017
▁मानस	-9.39054
▁भगवन्	-9.39108
▁स्वतन्त्र	-9.39122
▁मानुष	-9.39292
▁गीत	-9.39364
▁समूह	-9.3939
▁कारक	-9.39554
▁&	-9.39675
▁कदा	-9.39751
▁मल	-9.39818
▁दुष्	-9.39821
▁चिन्तय	-9.39831
▁न्तर	-9.39918
▁तीर्थ	-9.401
▁युष्म	-9.40114
▁ाख्य	-9.40215
▁मातृ	-9.40329
▁पर्यन्त	-9.40341
ुत्तर	-9.40344
▁िष्य	-9.40355
तिरिक्त	-9.40387
शत	-9.40433
▁विहित	-9.40438
▁प्रत्या	-9.40454
▁शोभ	-9.40461
फ्	-9.40501
▁किमपि	-9.40507
▁इदम्	-9.40524
वन्तः	-9.40604
▁आसन्	-9.40653
▁4.	-9.4066
▁धारण	-9.40715
ष्म	-9.40728
▁तेषाम	-9.40767
▁पृथिव्या	-9.40882
ce	-9.4099
▁वक्तव्य	-9.41107
at	-9.41133
▁स्तथा	-9.41213
▁तस्माद	-9.41343
▁शील	-9.41408
▁सेना	-9.41497
धर	-9.41525
▁e	-9.41589
हू	-9.41687
▁ेत्य	-9.41736
▁प्राय	-9.41737
▁देय	-9.41789
▁विरुद्ध	-9.41803
▁शस्त्र	-9.41839
▁पूजय	-9.41874
▁याम	-9.41901
▁तू	-9.4191
ह्व	-9.42019
रात्र	-9.42032
▁ms	-9.42116
▁चिकित्स	-9.42199
▁तस्याः	-9.42214
▁चापि	-9.42308
▁क्रोध	-9.4231
▁शान्ति	-9.42375
▁कर्मणा	-9.42397
▁वान्	-9.42433
गी	-9.4267
ह्न	-9.42677
▁निश्चय	-9.42767
▁एस	-9.42773
▁भवन	-9.42812
बु	-9.42879
▁शिक्ष	-9.42882
▁13	-9.43051
▁स्नेह	-9.43124
पान	-9.43214
स्मै	-9.43301
▁दृ	-9.43347
▁क्ल	-9.43453
▁प्राप्ते	-9.43502
▁भाग्य	-9.43526
▁अन्तर्	-9.4357
▁मुच्यते	-9.43637
▁दो	-9.43646
▁ङ	-9.4365
*	-9.43719
स्त्व	-9.43778
▁बीज	-9.43822
लक्षण	-9.43891
▁कृषि	-9.43915
▁नीति	-9.44041
▁२६	-9.44112
▁विदेश	-9.44119
▁२७	-9.44211
B	-9.44244
कर्ष	-9.44253
शाला	-9.44425
▁क्षु	-9.44484
▁क्रि	-9.44529
त्री	-9.44591
गमन	-9.44679
दर्शन	-9.44699
िनो	-9.44762
▁अधुना	-9.44784
▁त्याग	-9.44815
▁h	-9.44995
▁मही	-9.45017
▁पात्र	-9.45023
ेदं	-9.45085
▁यॊ	-9.45098
▁प्रायः	-9.45134
दिष्ट	-9.4515
▁भगव	-9.45176
▁H	-9.45178
▁परिवर्त	-9.45222
▁→	-9.4523
▁िन	-9.45345
▁प्रशिक्षण	-9.45412
▁त्रि०	-9.4549
▁संस्कार	-9.45525
▁17	-9.4553
ात्मक	-9.4555
▁अल	-9.45563
▁शान्त	-9.45567
▁•	-9.45613
▁लिख	-9.4576
▁w	-9.45909
▁धृत	-9.45987
क्रमण	-9.46134
▁पीड	-9.46236
▁व्यव	-9.46292
▁आकाश	-9.46309
यित्वा	-9.46489
▁दक्षिणा	-9.46537
ोऽहं	-9.46743
ad	-9.46748
ांश	-9.46816
▁मू	-9.46851
▁त्वमेव	-9.46888
▁क्षमा	-9.46946
▁युव	-9.46984
▁युत	-9.47065
▁भगवत	-9.47076
ूनां	-9.47101
▁राजन्	-9.47114
ग्ध	-9.4714
त्वम्	-9.47196
▁रक्षा	-9.47199
▁भ्रम	-9.47216
▁नेपाल	-9.47259
▁प्रथमा	-9.4727
वर्ण	-9.47346
ख्यात	-9.4735
▁ाभाव	-9.48063
▁कर्म्म	-9.48108
▁्या	-9.48219
वृत्ति	-9.48223
▁निषेध	-9.48298
▁शिष्य	-9.48436
▁स्त्रियां	-9.48471
▁साधु	-9.48535
ाधिप	-9.48639
▁स्वयम्	-9.48711
षित	-9.48806
ारम्भ	-9.48948
ासीत्	-9.49004
मुप	-9.49101
▁दुर	-9.49123
िभिः	-9.49162
▁दू	-9.49248
▁r	-9.49266
▁करोमि	-9.49382
▁व्रज	-9.49388
▁संज्ञ	-9.49424
पुरुष	-9.4944
▁एकादश	-9.49537
▁k	-9.4963
▁ान्त	-9.49636
▁जुइ	-9.49655
▁समुदाय	-9.49721
▁रहित	-9.49789
j	-9.49826
▁खाद	-9.49884
▁क्रमेण	-9.50113
सृ	-9.50163
▁प्रसन्न	-9.50275
▁o	-9.5036
▁साधारण	-9.50411
▁ख्यात	-9.50438
▁तार	-9.50611
▁इतिहास	-9.50619
ोदय	-9.50701
▁भवतु	-9.5072
विश	-9.50721
▁यात्रा	-9.50735
▁यत्न	-9.50743
L	-9.50764
ादय	-9.50821
▁स्थिता	-9.50822
▁R	-9.50841
▁ली	-9.50855
re	-9.50897
▁द्वौ	-9.5106
वृत्त	-9.51125
▁देवाः	-9.5114
▁ब्र	-9.51168
▁न्ह्य	-9.51349
vi	-9.51353
▁पुराण	-9.51492
▁पार्श्व	-9.51715
▁स्पर्श	-9.51719
▁पितर	-9.51727
▁सोऽ	-9.51967
▁निवृत्त	-9.52115
▁२३	-9.52158
त्वेन	-9.52162
▁सूक्ष्म	-9.52179
▁प्रवृत्ति	-9.52242
▁ू	-9.52317
पते	-9.52394
▁शब्दस्य	-9.52401
▁ध्रुव	-9.52616
▁भाष्य	-9.52677
▁राक्षस	-9.52746
▁उपरि	-9.52775
▁जाति	-9.52782
▁पृष्ट	-9.52816
▁न्न	-9.52922
▁क्षेत्रे	-9.53037
▁कर्मण	-9.53094
▁ादौ	-9.53098
▁कार्यक्रम	-9.53121
्येव	-9.53224
▁पट	-9.53242
▁ऋण	-9.53247
▁गाय	-9.53379
▁प्रवृत्त	-9.53419
▁यन्त्र	-9.53472
▁ादीनां	-9.53491
▁कुर्यात्	-9.53513
▁अन्तर	-9.53586
मध्ये	-9.53624
शन	-9.53714
ोत्तर	-9.5374
▁खण्ड	-9.53743
▁स्वार्थ	-9.53764
▁कुर्वन्	-9.53767
▁नेवाः	-9.53783
▁श्रम	-9.53831
▁कथम्	-9.53904
▁ऋत	-9.53989
▁देहि	-9.54003
▁कुतः	-9.54139
▁छुं	-9.54253
▁स्याद	-9.54318
▁पाठः	-9.54428
ing	-9.5443
▁अवश्य	-9.54535
▁16	-9.54568
▁पश्चात्	-9.54794
विंशति	-9.54796
▁कृत्य	-9.55039
▁शीघ्र	-9.55136
▁उपयोगकर्ता	-9.55144
▁निर्व	-9.55185
राष्ट्र	-9.5521
▁वृष	-9.55248
▁रुपये	-9.55304
▁मुद्रा	-9.55324
ितव्य	-9.55332
▁सर्वाणि	-9.55333
▁//	-9.55408
▁छि	-9.55445
▁प्रविष्ट	-9.55498
जायत	-9.55653
▁मिदं	-9.55683
▁संस्थान	-9.55711
▁साहित्य	-9.55724
▁योजन	-9.55772
▁आत्मन	-9.55824
▁स्वीकृत	-9.56001
▁शीघ्रं	-9.56073
▁ताप	-9.56129
मिदं	-9.56146
▁गोप	-9.56278
▁अतो	-9.56372
मुद	-9.56389
▁जानाति	-9.56458
▁सरकार	-9.56466
▁कुर्या	-9.56516
▁प्रतिभा	-9.56526
▁कुशल	-9.56556
▁विवेक	-9.56575
▁स्मृति	-9.56588
▁धात	-9.56601
▁विकिपीडिया	-9.56658
▁परिवार	-9.56726
▁दर	-9.568
▁आगच्छ	-9.56981
▁दध	-9.56992
▁त्यज	-9.57005
▁धन्य	-9.57043
▁कार्	-9.57113
il	-9.5717
लय्	-9.57246
▁सृज	-9.57348
▁विद्यमान	-9.57357
दृ	-9.5738
▁यस्या	-9.5746
▁उत	-9.57498
▁पर्व	-9.57596
▁२८	-9.5766
म्बर	-9.57682
▁केश	-9.57853
▁200	-9.57877
▁इदम	-9.57901
▁स्थापन	-9.57946
▁सदृश	-9.57973
वयव	-9.58012
ओ	-9.58102
▁श्वेत	-9.58131
▁भग	-9.58214
▁व्याख्या	-9.58263
▁सर्ग	-9.58298
ज़	-9.58327
▁तस्माद्	-9.58332
पत्र	-9.58408
▁प्राचीन	-9.58442
▁बी	-9.58736
वृ	-9.58755
▁अतीत	-9.58844
▁in	-9.58892
▁चत्वार	-9.5913
▁30	-9.59135
▁ुप	-9.59138
▁द्रष्टु	-9.59286
▁परिवर्तन	-9.59296
▁प्रेम	-9.59303
▁इष्ट	-9.59349
▁दुर्ग	-9.59412
पृ	-9.59416
राज्य	-9.59439
▁ल्	-9.59522
▁ान्य	-9.59541
▁तस्मै	-9.59582
▁स्मरण	-9.59587
▁अन्न	-9.59807
▁वीर्य	-9.59906
▁करणीय	-9.59926
▁अभ्य	-9.59949
▁भास	-9.59964
▁नृत्य	-9.60052
▁पक्षे	-9.6013
▁श्रवण	-9.60151
▁शैल	-9.60203
पुर	-9.60225
क्व	-9.60349
▁दर्शय	-9.60422
▁नील	-9.6044
ाध्याय	-9.60478
▁प्राग	-9.60498
धारण	-9.60561
▁प्रतिष्ठा	-9.60579
धाय	-9.60646
ित्यर्थः	-9.60712
▁शब्देन	-9.60724
▁ेभ्यः	-9.6075
▁कर्तृ	-9.60772
▁महिला	-9.60795
▁मात्रा	-9.60835
▁कुमार	-9.60905
▁प्रसाद	-9.61058
▁देवि	-9.61176
▁पृच्छ	-9.61212
▁पूज्य	-9.61226
▁पिब	-9.61326
▁संज्ञा	-9.61511
जात	-9.61582
▁रुचि	-9.61656
न्यास	-9.61713
▁प्रीति	-9.61749
▁तिष्ठति	-9.61822
बी	-9.61964
्यै	-9.61992
▁मिव	-9.62024
णीय	-9.62029
▁खेल	-9.62076
▁विश्लेषण	-9.62108
▁छन्द	-9.62133
▁येषां	-9.62149
▁स्यापि	-9.62212
▁सम्म	-9.62272
▁इमा	-9.62303
▁प्	-9.62354
▁वेग	-9.62372
मस्ति	-9.6252
▁सहाय	-9.62659
▁वन्त	-9.62666
▁सम्पूर्ण	-9.62686
इगु	-9.62747
+	-9.62929
▁जू	-9.62934
▁लभते	-9.63018
ur	-9.63047
▁बहुधा	-9.63066
संख्य	-9.63148
१०	-9.63248
जित	-9.63252
▁५०	-9.63276
▁एतेन	-9.63367
▁तै	-9.6337
▁सम्यक्	-9.63371
▁संग	-9.63383
्युप	-9.635
▁धारय	-9.63515
▁व्यय	-9.63551
▁ाभ्यां	-9.63566
▁यथार्थ	-9.63585
भिर	-9.63601
गू	-9.63692
▁अल्प	-9.63841
▁मिल	-9.63899
▁विधीयते	-9.6393
▁to	-9.64
▁विस्तार	-9.64004
▁पीत	-9.64093
▁विपरीत	-9.6412
▁कृतवान्	-9.64131
▁मनसा	-9.64131
▁देशस्य	-9.64177
▁डि	-9.64184
▁विकार	-9.64196
▁एन	-9.64325
▁था	-9.64347
गल	-9.64356
▁यानि	-9.64384
कृति	-9.64554
▁दूत	-9.64572
▁शोक	-9.64574
▁भवत्य	-9.64649
▁परन्तु	-9.64733
▁25	-9.64752
▁पच	-9.64766
व्र	-9.64766
भार	-9.64773
कार्य	-9.64824
विष्ट	-9.64973
क्स	-9.65044
शेष	-9.65067
प्राप्त	-9.65196
ाक्षर	-9.65226
as	-9.65235
▁योर्	-9.65245
ुद्	-9.65417
▁जाल	-9.6542
▁नारी	-9.65545
▁मन्दिर	-9.65677
▁शिख	-9.65791
▁कदाचि	-9.65866
▁पेपर	-9.6589
▁व्यायाम	-9.65972
▁वस्त्र	-9.66017
▁दास	-9.6607
▁जानामि	-9.66159
▁ख्या	-9.66273
▁K	-9.66377
घात	-9.66402
▁कल्याण	-9.66458
▁एतस्य	-9.66539
▁नूतन	-9.66606
▁दल	-9.66617
▁ददाति	-9.66714
ण्ट	-9.66722
▁महान्	-9.66765
▁इय	-9.66898
▁ेश्वर	-9.66898
▁यस्मिन्	-9.66942
▁वार्ता	-9.66981
▁पु०	-9.6704
▁ऽहं	-9.67082
▁सामाजिक	-9.67083
▁चिन्ता	-9.67117
▁ष्य	-9.67128
▁माल	-9.67173
ii	-9.67223
▁रत्न	-9.67223
▁सङ्ख्या	-9.67237
[	-9.67341
▁गृह्ण	-9.67388
▁रुद्र	-9.6749
▁संस्थित	-9.67536
▁अन्यत्र	-9.67614
▁छु	-9.67652
क्रान्त	-9.67787
▁शुक्र	-9.67813
▁नियत	-9.67848
▁न्यास	-9.67874
▁अहो	-9.67918
▁तैः	-9.68035
▁४०	-9.68053
▁थु	-9.68059
▁मन्द	-9.68085
▁दय	-9.68157
▁इत्यादिना	-9.68184
▁ज्येष्ठ	-9.68267
▁राशि	-9.68285
▁मूर्ख	-9.68303
▁घन	-9.6835
▁धाव	-9.68369
▁करोतु	-9.68382
▁बु	-9.68402
जान	-9.68408
▁कृति	-9.68556
▁अग्ने	-9.68571
▁युवा	-9.68738
▁३१	-9.68761
et	-9.68908
लिङ्ग	-9.68985
▁दर्शित	-9.69083
जु	-9.69103
ra	-9.69117
▁स्थापित	-9.69129
▁चिद	-9.69139
th	-9.69239
▁कमल	-9.69252
▁कीर्ति	-9.69259
▁5.	-9.69406
सान	-9.6942
▁विश्वविद्यालय	-9.69466
▁मधुर	-9.69518
▁वर्त्त	-9.69535
▁संवत्सर	-9.69734
▁ँ	-9.6984
▁मन्यते	-9.69932
स्माकं	-9.69942
▁वंश	-9.70151
▁लिखत	-9.70208
us	-9.70293
सर्व	-9.7032
ात्मनः	-9.70353
▁भगवान	-9.70402
▁गमिष्य	-9.70562
▁सदैव	-9.70564
▁पेक्ष	-9.70601
▁भवती	-9.70629
▁ग्राह्य	-9.70636
▁फरवरी	-9.7095
▁सैन्य	-9.71237
▁अतीव	-9.7125
▁प्रीत	-9.71297
▁प्रसङ्ग	-9.71368
▁घृत	-9.71424
्रियते	-9.71439
▁सुन्दर	-9.71534
▁संस्कृति	-9.71564
ाश्रित	-9.7158
प्नोति	-9.71586
z	-9.71632
▁सफल	-9.71635
▁अत्यन्त	-9.71643
▁जूगु	-9.71704
▁श्रेय	-9.71709
▁गौर	-9.71807
पुत्र	-9.71919
हरण	-9.7192
▁सम्भवति	-9.71945
भास	-9.72037
▁ग्राह	-9.72137
भृत	-9.72224
▁21	-9.72249
▁नाना	-9.72278
▁हृदि	-9.72306
▁सीता	-9.72331
▁करिष्यामि	-9.72368
▁सर्वेषु	-9.72554
▁गिरि	-9.72592
▁नाम्ना	-9.7264
▁रिक्त	-9.7269
▁धन्यवाद	-9.7277
कुल	-9.72959
▁ध्याय	-9.72967
▁भद्र	-9.72986
▁कट	-9.73143
▁वर्णन	-9.73149
गृह्य	-9.73188
▁णि	-9.73374
▁षट्	-9.7344
▁२९	-9.73468
▁यते	-9.73483
▁वय्क	-9.73502
▁विवरण	-9.7358
▁आदेश	-9.73587
ामहे	-9.73623
▁सन्धि	-9.7383
▁पवित्र	-9.73855
▁कथ्यते	-9.74031
बि	-9.74111
▁व्याप्त	-9.74134
▁तदर्थ	-9.74309
▁दृश	-9.74311
▁मेरे	-9.74361
▁ोत्तर	-9.74505
▁तयोः	-9.74619
▁दर्शयति	-9.74619
▁ष्ठ	-9.74703
▁हृत	-9.74826
▁तच्च	-9.74836
▁मोद	-9.74858
▁W	-9.74952
▁यन्ति	-9.7496
▁स्याद्	-9.74988
▁ऽप्य	-9.74994
▁हिंसा	-9.75191
▁सर्वकार	-9.75215
क्तु	-9.75219
तन्त्र	-9.75254
▁पत्नी	-9.75266
▁वाहन	-9.75276
ch	-9.75298
▁नाथ	-9.754
▁हय	-9.75452
ानन्द	-9.75495
▁ांश	-9.7562
#	-9.75623
▁इत्याह	-9.75794
वर्तत	-9.7601
▁संघ	-9.76072
▁प्रतीक्ष	-9.76205
▁पार्थिव	-9.76265
▁तदपि	-9.76284
un	-9.76356
▁ोद्	-9.76478
▁नाहं	-9.7658
▁अनुकूल	-9.76609
▁बद्ध	-9.76618
▁श्रोत	-9.76679
▁बलि	-9.76702
धेय	-9.76808
▁गज	-9.7687
▁मत्स्य	-9.76974
▁कश्चन	-9.77192
▁दह	-9.7726
▁24	-9.77277
▁सृष्ट	-9.77391
▁षड्	-9.77402
▁यजमान	-9.77455
▁प्रभो	-9.77478
▁उवाच	-9.77556
▁राष्ट्रिय	-9.77562
ङि	-9.77634
ab	-9.77684
▁समन्वित	-9.77851
▁सरल	-9.77871
▁सुवर्ण	-9.77882
▁रिति	-9.77902
ायाम्	-9.78118
▁सायं	-9.78135
▁कथन	-9.78168
▁ईश	-9.78222
▁वदति	-9.78243
▁होम	-9.78253
▁सम्बद्ध	-9.78284
▁अहम	-9.78302
कृत्	-9.78351
▁J	-9.78454
▁प्रयच्छ	-9.78588
▁प्रवर्तते	-9.78732
▁दया	-9.789
▁विवक्ष	-9.78948
▁ययौ	-9.78952
▁स्नात	-9.79027
▁ज्ञायते	-9.79067
▁माण	-9.79179
ुवाच	-9.79182
यामास	-9.79465
तिष्ठ	-9.79466
ाहुः	-9.79474
▁वचः	-9.79542
▁ाङ्ग	-9.79545
▁अस्मि	-9.79574
ाणाम्	-9.79718
▁दरिद्र	-9.79757
▁ज्ञात्वा	-9.79815
▁खँ	-9.79821
▁उपाय	-9.79882
▁रोचते	-9.79907
▁हन्त	-9.80053
▁शीर्ष	-9.8006
▁वह्नि	-9.80061
▁हंस	-9.80078
शास्त्र	-9.80112
▁कुरुते	-9.80151
▁तर्क	-9.80205
▁भोज	-9.80367
ay	-9.8046
▁स्वाहा	-9.80483
▁उत्पाद	-9.80603
▁श्चैव	-9.80628
▁प्रमुख	-9.80695
▁पंच	-9.80847
▁चेष्ट	-9.80917
▁किञ्चित्	-9.81103
▁प्रतिज्ञा	-9.81124
▁शोध	-9.81194
▁चाल	-9.81213
▁बहिः	-9.81301
▁राष्ट्रपति	-9.8131
▁त्वत्	-9.8132
▁उत्पादन	-9.81422
▁नाग	-9.81464
▁नायक	-9.81554
▁धू	-9.81556
▁त्म	-9.81558
▁समीक्षा	-9.81622
▁ादिषु	-9.81654
▁इत्य्	-9.81701
▁कृपा	-9.81732
▁घोषणा	-9.81748
चाल	-9.81785
गच्छ	-9.81913
▁दन्त	-9.81949
▁तन्म	-9.81982
▁वर्षाणि	-9.82077
▁कृत्	-9.8209
▁वार्षिक	-9.82162
▁प्राकृत	-9.82203
ाधिकार	-9.82328
▁ढ	-9.82377
▁विभक्त	-9.8245
▁सामर्थ्य	-9.82467
▁यस्तु	-9.82537
सिद्ध	-9.82545
▁अर्ध	-9.82574
▁िका	-9.82575
शील	-9.82576
▁द्ध	-9.82742
▁अनुवाद	-9.82804
▁मनसि	-9.83001
▁ैश्च	-9.83028
▁वरिष्ठ	-9.8323
भूत्	-9.83248
▁३३	-9.83264
व्यक्त	-9.83285
▁हानि	-9.83335
▁Re	-9.83377
▁दीन	-9.83528
ोत्सव	-9.83535
▁ाधिकार	-9.8354
▁मिश्र	-9.83543
देह	-9.83754
▁महत्त्व	-9.83927
▁आगम	-9.83936
▁मेघ	-9.83938
▁३२	-9.83995
▁श्रद्धा	-9.84007
▁अनुभव	-9.84025
▁निर्दिष्ट	-9.84186
▁घात	-9.843
▁नान्य	-9.84367
▁ॆ	-9.84402
▁व्याकरण	-9.84406
▁मिथ्या	-9.8447
ate	-9.84477
▁वज्र	-9.84491
▁कोटि	-9.84533
se	-9.84569
▁निद्रा	-9.84658
▁दक्ष	-9.84662
▁सङ्घ	-9.84709
ोच्यते	-9.84713
▁क्ली	-9.84776
्तुं	-9.84999
▁अभ्यास	-9.85023
▁भार्या	-9.85132
el	-9.85214
ाशय	-9.8527
▁MS	-9.85312
ss	-9.85326
▁किञ्च	-9.85465
▁वस्तुतः	-9.85555
प्रवक्ष्यामि	-9.85564
▁केचित्	-9.85632
▁पण	-9.85708
▁सर्प	-9.85712
▁तन्न	-9.85745
योजन	-9.85762
▁पौर	-9.85777
रुद्ध	-9.85801
▁स्रोत	-9.85899
▁पार्थ	-9.85961
▁स्वागत	-9.86002
▁ऽनु	-9.86259
▁भिर्	-9.86296
▁वक्तव्यम्	-9.86319
▁कर्त्तव्य	-9.86355
▁भवितव्य	-9.8662
▁मंत्र	-9.86704
▁चीन	-9.86762
▁शयन	-9.86852
न्यथा	-9.86942
▁पुरस्कार	-9.86993
▁साक्षात्	-9.87012
▁भुज	-9.87047
▁निपात	-9.87098
▁अन्व	-9.87133
ॄ	-9.87148
▁पित्र	-9.87256
▁कष्ट	-9.87345
▁भुक्त	-9.87354
▁मूढ	-9.87434
▁शाश्वत	-9.87481
▁प्रतीयते	-9.87524
▁विश्वास	-9.87682
▁स्तव	-9.87759
▁सततं	-9.87814
▁आवेदन	-9.8796
त्रिंश	-9.87963
▁संहिता	-9.87971
सम्पादन	-9.87996
▁पद्म	-9.8825
▁संवेदन	-9.88316
▁दार	-9.88413
▁आनन्द	-9.88451
▁बहवः	-9.88524
▁दुग्ध	-9.88681
ेन्द्रिय	-9.88778
▁कदाचन	-9.88793
▁स्फुट	-9.88825
ri	-9.88839
▁मातर	-9.88843
▁22	-9.89178
दृष्ट	-9.89193
▁23	-9.89259
▁प्रविश	-9.89325
▁खु	-9.89328
▁50	-9.89384
▁भाषाया	-9.89442
▁आरम्भ	-9.89466
▁सृष्टि	-9.89518
▁वसु	-9.89522
▁व्यवस्थित	-9.896
▁स्वर्ण	-9.89663
युत	-9.89699
▁०२	-9.8972
▁योनि	-9.89756
▁चिन्	-9.89821
प्रत्यय	-9.8987
ाश्रम	-9.89978
▁द्वीप	-9.90075
▁इदानीम	-9.90078
विशेष	-9.90095
▁स्तोत्र	-9.90097
▁प्रस्तुत	-9.90214
▁स्तर	-9.90219
▁प्रक्रिया	-9.90227
▁जगद	-9.90432
ान्वित	-9.90443
▁व्याख्यात	-9.9055
▁चेद	-9.9055
▁यच्च	-9.90714
▁िण	-9.90731
भ्यास	-9.90736
▁प्राक्	-9.90742
▁तत्रैव	-9.90756
स्तीति	-9.90758
▁वती	-9.90777
▁अयम	-9.9078
▁मांस	-9.90804
च्छ्र	-9.90855
▁करिष्यति	-9.90978
▁माध्यम	-9.91074
▁प्रभात	-9.91159
U	-9.91165
▁जागर	-9.91202
▁भूत्वा	-9.91305
▁एकदा	-9.91392
▁पर्यावरण	-9.91396
▁सौभाग्य	-9.91396
द्भुत	-9.91435
▁खोज	-9.91775
▁re	-9.91821
▁हृद	-9.91898
▁स्तत्र	-9.91917
▁निर्वाचन	-9.92068
▁एतादृश	-9.92099
▁अक्षर	-9.92166
▁ऽन्य	-9.92168
▁प्रसार	-9.92177
▁रक्षित	-9.92212
व्रत	-9.92223
V	-9.92353
▁सम्पन्न	-9.92392
▁प्रधानमन्त्री	-9.92402
▁पूर्वोक्त	-9.9249
▁वाचक	-9.92565
▁दिनाङ्के	-9.9257
▁of	-9.92603
▁पीठ	-9.92725
▁पाक	-9.92845
▁स्वयमेव	-9.92916
▁नात्र	-9.9298
▁त्वयि	-9.9304
▁ङीप्	-9.93078
▁आचार्य	-9.93093
मूल	-9.93154
▁गुह्य	-9.93158
▁पितामह	-9.93294
▁द्यु	-9.93338
▁३५	-9.93521
▁प्रार्थय	-9.93634
सुर	-9.93649
▁विवाद	-9.93751
▁संसाधन	-9.93759
▁तेऽ	-9.93759
▁सम्प्र	-9.93761
▁निरीक्ष	-9.9381
▁प्रतिवेदन	-9.93932
▁कल्पित	-9.93997
वित्	-9.94151
०५	-9.94165
▁धकाः	-9.94307
iv	-9.94358
वर्ग	-9.94367
▁विद्व	-9.94387
▁कोऽ	-9.94405
ांसि	-9.94526
▁27	-9.946
▁अन्वयः	-9.94702
▁४५	-9.94735
▁भीत	-9.94803
▁सम्पद	-9.94849
▁पीसी	-9.94891
सृज	-9.94956
▁अध्यक्ष	-9.94969
▁धूम	-9.94988
▁इमे	-9.95025
▁ाश्रय	-9.95095
~	-9.95134
▁स्वास्थ्य	-9.95135
▁ादयः	-9.95219
▁निवृत्ति	-9.9527
▁मर्त्य	-9.95405
▁महत्वपूर्ण	-9.95481
▁द्रष्टव्य	-9.95482
▁कम्प	-9.95541
लोचन	-9.95604
▁शक्नोति	-9.95655
▁आङ्ग्ल	-9.95829
▁ग्रीष्म	-9.95829
▁हर्ष	-9.95859
▁कदापि	-9.95905
ha	-9.96004
▁प्रज्ञा	-9.96018
ध्र	-9.9606
▁शक्र	-9.96091
▁३६	-9.96165
ꣳ	-9.96179
▁बभूव	-9.96181
▁प्राह	-9.96224
▁ास्ते	-9.96233
▁ध्वज	-9.96336
▁कान्त	-9.96347
▁पूजित	-9.96387
▁ोऽयं	-9.96424
▁यानाः	-9.96451
सहस्र	-9.96524
▁समृद्ध	-9.9653
▁बाहु	-9.96668
ब्रवीत	-9.96753
▁चेतन	-9.96764
▁द्विगुण	-9.96799
ive	-9.9682
च्वंगु	-9.96884
▁लेखन	-9.97035
▁शक्नु	-9.97059
▁समस्या	-9.97063
▁वक्तुं	-9.9707
▁वैद्य	-9.97149
ent	-9.97158
▁क्लेश	-9.97278
▁राष्ट्रीय	-9.97443
▁शृण	-9.97585
▁कक्षा	-9.9767
▁विभक्ति	-9.97796
▁रहस्य	-9.97808
▁घोर	-9.98046
▁पश्चाद	-9.98088
G	-9.98136
घ्र	-9.98141
▁प्रकारेण	-9.98249
▁नमस्	-9.98315
▁कर्माणि	-9.98373
वृद्ध	-9.98386
▁शिक्षण	-9.98403
▁26	-9.98455
▁३७	-9.98457
▁स्तम्भ	-9.98545
▁घटना	-9.98577
▁प्रस्ताव	-9.98674
▁गम्यते	-9.98718
▁भवतीति	-9.98794
▁लभ्यते	-9.99192
▁शिशु	-9.99447
▁प्रेक्ष	-9.99454
▁संरक्षण	-9.99563
▁औषध	-9.99567
▁प्रार्थना	-9.99572
▁वीक्ष	-9.99654
▁प्राधिकरण	-9.99679
▁अन्तरिक्ष	-9.99713
▁वेतन	-9.99845
▁समुद्	-9.9988
▁गम्य	-9.99895
▁ानन्तर	-10.0017
▁गृहीत्वा	-10.0021
▁निवास	-10.0025
▁नवीन	-10.0026
▁नक्षत्र	-10.0032
▁प्रकल्प	-10.0043
▁आधार	-10.0044
▁अकरोत्	-10.0047
▁संविधान	-10.0047
▁दैत्य	-10.0048
▁पूजन	-10.0058
▁अव्यय	-10.0058
कर्षण	-10.006
▁विदित	-10.0063
▁तैल	-10.0064
▁भूमौ	-10.0067
▁त्वादि	-10.0068
H	-10.0069
▁पठित	-10.0077
▁चक्षुष	-10.0077
▁सप्ताह	-10.0079
०००	-10.0096
ण्ण	-10.0114
▁प्रतीत	-10.0118
▁स्वातन्त्र्य	-10.012
▁स्त्रीणां	-10.0121
▁मुने	-10.0151
ॅ	-10.0176
▁उन्नत	-10.0183
विषय	-10.0197
▁वर्जित	-10.0199
▁मरुत	-10.02
10	-10.0211
▁यद्वा	-10.0212
ुत्प	-10.0218
▁परीक्ष	-10.022
ारोह	-10.0236
▁सार्ध	-10.0239
▁प्रकाशित	-10.0239
▁इन्द्रिय	-10.0241
▁व्याधि	-10.0246
▁विद्युत	-10.0252
▁विभाषा	-10.0264
ात्मानं	-10.0266
▁वरुण	-10.027
▁SF	-10.0271
▁अधिकृत	-10.0284
लेख	-10.0301
▁कल्पना	-10.0315
▁निशा	-10.0315
▁श्राद्ध	-10.0325
▁तेजस	-10.0327
ढ़	-10.0342
श्रुत	-10.0344
▁सिद्धान्त	-10.0349
▁सुरक्षा	-10.0349
▁कार्याणि	-10.0363
▁एतेषां	-10.0375
▁किमर्थं	-10.0382
▁करुणा	-10.0386
▁त्यक्त	-10.0387
▁ऊर्ध्व	-10.04
▁प्राधान्य	-10.04
▁वृष्टि	-10.0407
▁ज्वर	-10.0441
क्रिया	-10.0446
▁सचिव	-10.0449
▁ब्रह्मण	-10.0462
▁विभिन्न	-10.0476
▁लग्न	-10.0481
▁विधेय	-10.0486
▁28	-10.0494
▁प्रशंस	-10.0496
▁प्रविश्य	-10.0497
▁ट्र	-10.0506
▁किञ्चिद	-10.0511
▁ज्वल	-10.0515
▁ानुसार	-10.052
कर्ता	-10.0527
▁सम्प्रति	-10.0531
▁लाखों	-10.0533
▁श्रूयते	-10.0533
▁पतित	-10.0539
शब्द	-10.0556
▁भुवि	-10.0568
▁प्रशस्त	-10.0574
▁क्षीर	-10.0576
श्रेष्ठ	-10.0582
▁भाज	-10.0582
←	-10.0591
▁वाञ्छ	-10.0591
▁उत्सव	-10.0593
▁हिंस	-10.0595
▁मह्यं	-10.0609
▁परम्परा	-10.0611
▁नहीं	-10.0611
▁विचित्र	-10.0633
▁सूक्त	-10.0636
▁बै	-10.0644
▁निम्न	-10.0645
▁Q	-10.0666
▁षोडश	-10.0669
▁१९९	-10.0699
▁स्तदा	-10.07
▁०१	-10.0702
शंस	-10.0707
▁समाहित	-10.071
▁बध	-10.0714
▁वदन्ति	-10.0718
▁2019	-10.0727
र्पित	-10.0746
ोदित	-10.0746
▁is	-10.0758
▁2020	-10.0766
▁राजनीति	-10.0766
^	-10.0786
▁II	-10.0792
▁कश्चिद्	-10.0799
▁वर्धते	-10.0807
▁the	-10.0828
▁विधाय	-10.083
▁पर्याय	-10.0848
▁अन्तिम	-10.086
▁परिमाण	-10.0866
▁40	-10.0879
▁पश्यामि	-10.0899
▁वानर	-10.0913
▁03	-10.0963
▁संदेह	-10.0971
▁गन्तव्य	-10.0985
▁शोच	-10.0988
दोष	-10.1001
▁सनातन	-10.1005
com	-10.1005
▁सन्देह	-10.1029
▁याःगु	-10.105
▁लाग	-10.1062
ोऽयं	-10.1072
▁प्रजापति	-10.1073
▁जगद्	-10.1075
श्लेष	-10.1078
भिधीयते	-10.1087
▁ऑ	-10.1091
भारत	-10.1092
▁चरित	-10.1093
मार्ग	-10.1105
▁नाटक	-10.111
ऊ	-10.2183
Y	-10.2221
F	-10.2388
ऋ	-10.3218
q	-10.3686
W	-10.4119
K	-10.4838
·	-10.6113
ऎ	-10.6699
ā	-10.677
᳚	-10.7436
↑	-10.7866
$	-10.8592
°	-10.8962
ऩ	-10.9371
{	-10.9595
ʼ	-11.0043
̇	-11.0043
\	-11.0294
Z	-11.0396
›	-11.1655
ॐ	-11.2211
ऱ	-11.2443
᳘	-11.2961
×	-11.3792
¦	-11.4387
J	-11.6035
്	-11.605
Í	-11.6513
<	-11.7196
औ	-11.7299
ऌ	-11.7405
உ	-11.7937
ॠ	-11.7937
о	-11.827
&	-11.8278
÷	-11.8499
•	-11.8509
️	-11.8733
а	-11.8972
−	-11.8972
Q	-11.8988
ḥ	-11.9094
●	-11.9218
🙏	-11.9218
ऐ	-11.9753
€	-12.0265
Ś	-12.0544
ર	-12.0544
்	-12.0687
ū	-12.0832
ऍ	-12.128
્	-12.1434
ا	-12.159
́	-12.159
е	-12.1749
н	-12.2074
¬	-12.2241
ॢ	-12.2241
ા	-12.2241
р	-12.241
ऴ	-12.241
л	-12.2583
ü	-12.2937
т	-12.2937
и	-12.3118
Ø	-12.3304
é	-12.3304
σ	-12.3304
ന	-12.3685
ə	-12.3685
√	-12.3881
ī	-12.4081
£	-12.4285
с	-12.4493
꣢	-12.4923
ക	-12.5145
в	-12.5145
ś	-12.5145
ل	-12.5145
ṣ	-12.5145
ാ	-12.5843
ન	-12.5843
ь	-12.6087
॓	-12.6087
ી	-12.6087
ம	-12.6337
ત	-12.6594
ி	-12.6594
꣣	-12.6857
ー	-12.6857
ா	-12.7127
ે	-12.7127
ി	-12.7127
ു	-12.7405
મ	-12.7405
த	-12.7405
ં	-12.7405
❍	-12.7405
🔊	-12.7405
á	-12.7691
î	-12.7691
ñ	-12.7985
¥	-12.7985
ن	-12.8288
¢	-12.8288
꣡	-12.8288
Ž	-12.86
ó	-12.86
ர	-12.86
©	-12.8923
м	-12.8923
ത	-12.8923
⁄	-12.8923
🪔	-12.8923
ر	-12.9256
જ	-12.9256
§	-12.9256
я	-12.9256
م	-12.9256
ي	-12.9256
ऄ	-12.9256
ો	-12.9256
ṇ	-12.9256
у	-12.9256
【	-12.9601
і	-12.9601
к	-12.9958
ˆ	-12.9958
🚩	-12.9958
་	-12.9958
ı	-13.0328
🌷	-13.0328
ऑ	-13.0607
→	-13.0607
й	-13.0713
б	-13.0713
್	-13.0713
】	-13.0713
ऺ	-13.0713
̥	-13.1113
വ	-13.1113
¤	-13.1113
ç	-13.1113
ક	-13.1113
ய	-13.1113
ര	-13.1113
語	-13.1113
í	-13.1113
🌹	-13.1113
ு	-13.153
વ	-13.1965
ப	-13.1965
வ	-13.1965
י	-13.1965
্	-13.2419
Î	-13.2419
ː	-13.2419
г	-13.2419
આ	-13.2419
з	-13.2419
à	-13.2895
è	-13.2895
ˈ	-13.2895
ം	-13.3395
ട	-13.3395
া	-13.3395
ᳪ	-13.3395
સ	-13.3395
െ	-13.3395
س	-13.3922
Ó	-13.3922
د	-13.3922
க	-13.3922
ந	-13.3922
ন	-13.4477
ऒ	-13.4477
ன	-13.4477
®	-13.4477
п	-13.4477
ц	-13.4477
ನ	-13.4477
യ	-13.4477
ه	-13.5065
い	-13.5065
ع	-13.5065
മ	-13.5065
ತ	-13.5065
ṭ	-13.5065
ö	-13.569
પ	-13.569
ی	-13.569
ত	-13.569
બ	-13.569
ಾ	-13.569
ṛ	-13.569
ィ	-13.569
ல	-13.569
†	-13.569
х	-13.569
ب	-13.6357
ি	-13.6357
â	-13.6357
ऻ	-13.6357
હ	-13.6357
⇄	-13.6357
🛑	-13.6357
ರ	-13.6357
‹	-13.6357
✍	-13.6357
(	-13.6965
ɑ	-13.7071
С	-13.7071
ж	-13.7071
র	-13.7071
ച	-13.7071
్	-13.7071
ン	-13.7071
🌺	-13.7071
ú	-13.7071
ગ	-13.7071
ಿ	-13.7071
ല	-13.7071
ו	-13.7071
િ	-13.7841
¡	-13.7841
±	-13.7841
ï	-13.7841
̊	-13.7841
μ	-13.7841
॔	-13.7841
⋙	-13.7841
■	-13.7841
▲	-13.7841
🌞	-13.7841
📖	-13.7841
ş	-13.7841
ы	-13.7841
ോ	-13.8674
ܘ	-13.8674
ã	-13.8674
ł	-13.8674
و	-13.8674
Ï	-13.8674
š	-13.8674
ॡ	-13.8674
એ	-13.8674
ય	-13.8674
ು	-13.8674
✓	-13.8674
❤	-13.8674
➧	-13.8674
🏻	-13.8674
🕉	-13.8674
ম	-13.8674
ദ	-13.8674
ದ	-13.9583
Б	-13.9583
ু	-13.9583
α	-13.9583
ت	-13.9583
ṃ	-13.9583
′	-13.9583
◎	-13.9583
一	-13.9583
语	-13.9583
ണ	-14.0583
ה	-14.0583
দ	-14.0583
ى	-14.0583
ক	-14.0583
ి	-14.0583
し	-14.0583
ê	-14.0583
ю	-14.0583
૧	-14.0583
ಲ	-14.0583
❯	-14.0583
。	-14.0583
デ	-14.0583
🌸	-14.0583
😂	-14.0583
ک	-14.0583
ಂ	-14.0583
の	-14.0583
マ	-14.0583
ʊ	-14.0583
ర	-14.1694
א	-14.1694
ం	-14.1694
న	-14.1694
ḍ	-14.1694
İ	-14.1694
ʃ	-14.1694
ч	-14.1694
¶	-14.1694
̃	-14.1694
ṁ	-14.1694
◉	-14.1694
◌	-14.1694
☝	-14.1694
図	-14.1694
大	-14.1694
書	-14.1694
月	-14.1694
Þ	-14.1694
য	-14.1694
ુ	-14.1694
ב	-14.1694
ᄌ	-14.1694
േ	-14.2944
ব	-14.2944
ল	-14.2944
À	-14.2944
Х	-14.2944
ವ	-14.2944
È	-14.2944
̶	-14.2944
ে	-14.2944
ટ	-14.2944
ழ	-14.2944
റ	-14.2944
◦	-14.2944
⭐	-14.2944
か	-14.2944
전	-14.2944
💮	-14.2944
ش	-14.2944
স	-14.2944
શ	-14.2944
ಗ	-14.2944
增	-14.2944
ಕ	-14.2944
ラ	-14.2944
ൊ	-14.4373
ட	-14.4373
ಯ	-14.4373
ס	-14.4373
আ	-14.4373
ਕ	-14.4373
ు	-14.4373
Æ	-14.4373
ý	-14.4373
ɛ	-14.4373
П	-14.4373
ো	-14.4373
ண	-14.4373
ெ	-14.4373
ಡ	-14.4373
∆	-14.4373
♥	-14.4373
つ	-14.4373
名	-14.4373
音	-14.4373
다	-14.4373
🔹	-14.4373
ē	-14.4373
Š	-14.4373
ॿ	-14.4373
થ	-14.4373
દ	-14.4373
వ	-14.4373
ೆ	-14.4373
ശ	-14.4373
Ü	-14.4373
ט	-14.4373
య	-14.4373
余	-14.4373
ળ	-14.4373
സ	-14.4373
お	-14.4373
テ	-14.4373
ܬ	-14.6039
হ	-14.6039
ా	-14.6039
す	-14.6039
な	-14.6039
æ	-14.6039
מ	-14.6039
گ	-14.6039
ற	-14.6039
త	-14.6039
年	-14.6039
🍃	-14.6039
ĉ	-14.6039
π	-14.6039
ء	-14.6039
ح	-14.6039
ق	-14.6039
ਾ	-14.6039
ભ	-14.6039
ோ	-14.6039
∴	-14.6039
パ	-14.6039
🌿	-14.6039
🔅	-14.6039
Ê	-14.6039
ō	-14.6039
ž	-14.6039
θ	-14.6039
є	-14.6039
ز	-14.6039
మ	-14.6039
ಳ	-14.6039
사	-14.6039
行	-14.6039
ಪ	-14.8039
э	-14.8039
ە	-14.8039
ས	-14.8039
知	-14.8039
Œ	-14.8039
∫	-14.8039
Ş	-14.8039
ς	-14.8039
φ	-14.8039
Н	-14.8039
ш	-14.8039
ל	-14.8039
ة	-14.8039
ف	-14.8039
ہ	-14.8039
۔	-14.8039
়	-14.8039
ି	-14.8039
ಮ	-14.8039
ೀ	-14.8039
ഗ	-14.8039
ഷ	-14.8039
ṅ	-14.8039
⇔	-14.8039
⋆	-14.8039
▼	-14.8039
♀	-14.8039
⛳	-14.8039
✳	-14.8039
❇	-14.8039
く	-14.8039
ズ	-14.8039
ネ	-14.8039
음	-14.8039
🌄	-14.8039
🍁	-14.8039
🔗	-14.8039
🔶	-14.8039
😃	-14.8039
😞	-14.8039
Û	-14.8039
জ	-14.8039
ੀ	-14.8039
ઉ	-14.8039
亦	-14.8039
থ	-14.8039
ജ	-14.8039
あ	-14.8039
シ	-14.8039
প	-14.8039
ਰ	-14.8039
ˌ	-14.8039
ა	-14.8039
ஷ	-15.0539
낱	-15.0539
위	-15.0539
키	-15.0539
ї	-15.0539
ܦ	-15.0539
લ	-15.0539
ì	-15.0539
ئ	-15.0539
ك	-15.0539
ধ	-15.0539
ધ	-15.0539
స	-15.0539
た	-15.0539
て	-15.0539
ッ	-15.0539
如	-15.0539
应	-15.0539
故	-15.0539
ફ	-15.0539
Ì	-15.0539
Ð	-15.0539
ä	-15.0539
ø	-15.0539
ę	-15.0539
Ō	-15.0539
ƒ	-15.0539
̕	-15.0539
Ι	-15.0539
ή	-15.0539
β	-15.0539
ι	-15.0539
ܐ	-15.0539
ܒ	-15.0539
ܛ	-15.0539
ܪ	-15.0539
গ	-15.0539
ਲ	-15.0539
ૐ	-15.0539
૦	-15.0539
૪	-15.0539
ொ	-15.0539
క	-15.0539
ആ	-15.0539
ഞ	-15.0539
།	-15.0539
᳖	-15.0539
―	-15.0539
‰	-15.0539
※	-15.0539
≍	-15.0539
⛅	-15.0539
➛	-15.0539
➢	-15.0539
っ	-15.0539
义	-15.0539
人	-15.0539
何	-15.0539
僕	-15.0539
可	-15.0539
国	-15.0539
尔	-15.0539
愛	-15.0539
无	-15.0539
氣	-15.0539
觉	-15.0539
论	-15.0539
靈	-15.0539
말	-15.0539
이	-15.0539
하	-15.0539
🔍	-15.0539
😳	-15.0539
ß	-15.0539
œ	-15.0539
Δ	-15.0539
Ц	-15.0539
ô	-15.0539
ρ	-15.0539
්	-15.0539
不	-15.0539
彼	-15.0539
我	-15.0539
的	-15.0539
ల	-15.0539
と	-15.0539
リ	-15.0539
세	-15.0539
亲	-15.0539
ܣ	-15.3873
ஸ	-15.3873
う	-15.3873
ർ	-15.3873
ᴇ	-15.3873
ま	-15.3873
З	-15.3873
آ	-15.3873
ৰ	-15.3873
依	-15.3873
能	-15.3873
非	-15.3873
Ö	-15.3873
õ	-15.3873
Â	-15.3873
ð	-15.3873
ò	-15.3873
ć	-15.3873
č	-15.3873
ě	-15.3873
ğ	-15.3873
į	-15.3873
ř	-15.3873
ɔ	-15.3873
ɜ	-15.3873
ʏ	-15.3873
Ψ	-15.3873
δ	-15.3873
κ	-15.3873
ν	-15.3873
ο	-15.3873
τ	-15.3873
Й	-15.3873
ג	-15.3873
ש	-15.3873
ת	-15.3873
إ	-15.3873
چ	-15.3873
ং	-15.3873
ট	-15.3873
ৱ	-15.3873
ਮ	-15.3873
ઃ	-15.3873
ચ	-15.3873
ઞ	-15.3873
ડ	-15.3873
૯	-15.3873
ீ	-15.3873
ே	-15.3873
ಚ	-15.3873
ಹ	-15.3873
೨	-15.3873
ഈ	-15.3873
ീ	-15.3873
ൾ	-15.3873
ා	-15.3873
ზ	-15.3873
ጻ	-15.3873
Ủ	-15.3873
⃣	-15.3873
↔	-15.3873
∈	-15.3873
≈	-15.3873
◇	-15.3873
✥	-15.3873
❁	-15.3873
➜	-15.3873
き	-15.3873
ら	-15.3873
を	-15.3873
ア	-15.3873
コ	-15.3873
ス	-15.3873
タ	-15.3873
チ	-15.3873
ト	-15.3873
为	-15.3873
京	-15.3873
因	-15.3873
意	-15.3873
成	-15.3873
所	-15.3873
果	-15.3873
格	-15.3873
比	-15.3873
相	-15.3873
者	-15.3873
自	-15.3873
薩	-15.3873
说	-15.3873
诸	-15.3873
通	-15.3873
遣	-15.3873
释	-15.3873
量	-15.3873
颂	-15.3873
대	-15.3873
발	-15.3873
브	-15.3873
요	-15.3873
🌉	-15.3873
🌙	-15.3873
🔐	-15.3873
🔔	-15.3873
🔸	-15.3873
😉	-15.3873
😍	-15.3873
¿	-15.3873
భ	-15.3873
新	-15.3873
Ã	-15.3873
Ÿ	-15.3873
η	-15.3873
ج	-15.3873
ષ	-15.3873
ಬ	-15.3873
ಶ	-15.3873
ව	-15.3873
ག	-15.3873
ი	-15.3873
作	-15.3873
反	-15.3873
生	-15.3873
𑑂	-15.3873
🤝	-15.3873
ੋ	-15.3873
ය	-15.3873
ි	-15.3873
ᛁ	-15.3873
ᛖ	-15.3873
る	-15.3873
🇵	-15.3873
გ	-15.3873
ᄉ	-15.3873
ᅩ	-15.3873
ུ	-15.3873
ʁ	-15.3873
ロ	-15.8872
Я	-15.8873
ۇ	-15.8873
ф	-15.8873
ܠ	-15.8873
ਬ	-15.8873
ઠ	-15.8873
ಭ	-15.8873
ൂ	-15.8873
ᆬ	-15.8873
バ	-15.8873
ボ	-15.8873
于	-15.8873
印	-15.8873
声	-15.8873
度	-15.8873
완	-15.8873
ù	-15.8873
ė	-15.8873
《	-15.8873
Å	-15.8873
Ò	-15.8873
Ú	-15.8873
ą	-15.8873
Ċ	-15.8873
ŋ	-15.8873
ư	-15.8873
ǒ	-15.8873
ǔ	-15.8873
ɒ	-15.8873
ɡ	-15.8873
̆	-15.8873
ά	-15.8873
χ	-15.8873
ό	-15.8873
Ю	-15.8873
ј	-15.8873
ү	-15.8873
ם	-15.8873
ן	-15.8873
ע	-15.8873
ק	-15.8873
ص	-15.8873
ط	-15.8873
غ	-15.8873
ً	-15.8873
ۆ	-15.8873
ই	-15.8873
খ	-15.8873
ঘ	-15.8873
চ	-15.8873
ছ	-15.8873
ਤ	-15.8873
ਨ	-15.8873
ਿ	-15.8873
ੇ	-15.8873
ੱ	-15.8873
ઈ	-15.8873
ૂ	-15.8873
૨	-15.8873
ଆ	-15.8873
ଓ	-15.8873
ଡ	-15.8873
଼	-15.8873
ା	-15.8873
డ	-15.8873
ద	-15.8873
శ	-15.8873
ె	-15.8873
ಃ	-15.8873
ೇ	-15.8873
೪	-15.8873
ൻ	-15.8873
ൽ	-15.8873
ස	-15.8873
ང	-15.8873
མ	-15.8873
ལ	-15.8873
ླ	-15.8873
ᛚ	-15.8873
᛫	-15.8873
᭭	-15.8873
ᳲ	-15.8873
ṝ	-15.8873
ắ	-15.8873
Ἀ	-15.8873
∅	-15.8873
≠	-15.8873
≡	-15.8873
≦	-15.8873
▷	-15.8873
◊	-15.8873
♡	-15.8873
♫	-15.8873
⚫	-15.8873
✌	-15.8873
✒	-15.8873
✧	-15.8873
✨	-15.8873
✺	-15.8873
➥	-15.8873
⦁	-15.8873
」	-15.8873
が	-15.8873
さ	-15.8873
に	-15.8873
む	-15.8873
め	-15.8873
や	-15.8873
よ	-15.8873
ん	-15.8873
ジ	-15.8873
プ	-15.8873
・	-15.8873
三	-15.8873
事	-15.8873
从	-15.8873
伟	-15.8873
修	-15.8873
全	-15.8873
八	-15.8873
具	-15.8873
加	-15.8873
卐	-15.8873
各	-15.8873
合	-15.8873
吗	-15.8873
员	-15.8873
和	-15.8873
地	-15.8873
奪	-15.8873
好	-15.8873
安	-15.8873
小	-15.8873
尼	-15.8873
异	-15.8873
当	-15.8873
整	-15.8873
方	-15.8873
普	-15.8873
晴	-15.8873
有	-15.8873
東	-15.8873
械	-15.8873
此	-15.8873
泊	-15.8873
然	-15.8873
猫	-15.8873
球	-15.8873
理	-15.8873
研	-15.8873
祖	-15.8873
程	-15.8873
素	-15.8873
而	-15.8873
许	-15.8873
身	-15.8873
都	-15.8873
间	-15.8873
页	-15.8873
감	-15.8873
교	-15.8873
두	-15.8873
듬	-15.8873
라	-15.8873
로	-15.8873
민	-15.8873
서	-15.8873
성	-15.8873
슈	-15.8873
아	-15.8873
어	-15.8873
영	-15.8873
의	-15.8873
인	-15.8873
학	-15.8873
한	-15.8873
히	-15.8873
𑐎	-15.8873
𑐕	-15.8873
𑐫	-15.8873
𑑅	-15.8873
🌏	-15.8873
🌼	-15.8873
🍥	-15.8873
🎉	-15.8873
🎖	-15.8873
🎯	-15.8873
👈	-15.8873
👍	-15.8873
👨	-15.8873
👩	-15.8873
👴	-15.8873
💄	-15.8873
💏	-15.8873
💔	-15.8873
💛	-15.8873
💥	-15.8873
📌	-15.8873
📎	-15.8873
📝	-15.8873
📰	-15.8873
🔰	-15.8873
😄	-15.8873
😘	-15.8873
🙍	-15.8873
🥀	-15.8873
🥇	-15.8873
ॾ	-15.8873
૫	-15.8873
ε	-15.8873
ର	-15.8873
ప	-15.8873
ද	-15.8873
น	-15.8873
ิ	-15.8873
ཐ	-15.8873
ᛋ	-15.8873
ḏ	-15.8873
み	-15.8873
了	-15.8873
广	-15.8873
리	-15.8873
신	-15.8873
🌈	-15.8873
أ	-15.8873
ପ	-15.8873
ഹ	-15.8873
存	-15.8873
白	-15.8873
首	-15.8873
𑐵	-15.8873
🇦	-15.8873
🇺	-15.8873
😅	-15.8873
堂	-15.8873
天	-15.8873
更	-15.8873
🩸	-16.868
😒	-16.8681
👏	-16.8682
🐯	-16.8683
𑑄	-16.8684
𑐴	-16.8685
𑐮	-16.8686
주	-16.8687
좀	-16.8688
예	-16.8689
비	-16.869
급	-16.8691
공	-16.8692
第	-16.8693
立	-16.8694
益	-16.8695
由	-16.8696
显	-16.8697
婆	-16.8698
外	-16.8699
哷	-16.87
哲	-16.8701
北	-16.8702
切	-16.8703
六	-16.8704
代	-16.8705
五	-16.8706
上	-16.8707
も	-16.8708
ひ	-16.8709
「	-16.871
》	-16.8711
、	-16.8712
❣	-16.8713
☰	-16.8714
☘	-16.8715
☑	-16.8716
ዝ	-16.8717
ብ	-16.8718
ሕ	-16.8719
ྥ	-16.872
ཱ	-16.8721
ཧ	-16.8722
ཡ	-16.8723
པ	-16.8724
ൈ	-16.8725
ഭ	-16.8726
ഥ	-16.8727
ഛ	-16.8728
అ	-16.8729
ச	-16.873
ஆ	-16.8731
ଲ	-16.8732
઼	-16.8733
ઓ	-16.8734
਼	-16.8735
ਪ	-16.8736
ਗ	-16.8737
ਅ	-16.8738
ী	-16.8739
ڪ	-16.874
٬	-16.8741
נ	-16.8742
Ф	-16.8743
К	-16.8744
І	-16.8745
💕	-16.8746
👫	-16.8747
🍀	-16.8748
🌱	-16.8749
🌟	-16.875
합	-16.8751
間	-16.8752
発	-16.8753
痛	-16.8754
用	-16.8755
母	-16.8756
機	-16.8757
梵	-16.8758
期	-16.8759
だ	-16.876
✴	-16.8761
☀	-16.8762
Ṛ	-16.8763
ක	-16.8764
ബ	-16.8765
ಎ	-16.8766
ಉ	-16.8767
੍	-16.8768
ਸ	-16.8769
پ	-16.877
У	-16.8771
О	-16.8772
И	-16.8773
Á	-16.8774
😡	-16.8775
😜	-16.8776
👌	-16.8777
👇	-16.8778
니	-16.8779
기	-16.878
試	-16.8781
十	-16.8782
➤	-16.8783
♣	-16.8784
◄	-16.8785
⏳	-16.8786
ഉ	-16.8787
ഇ	-16.8788
ஶ	-16.8789
ள	-16.879
ஜ	-16.8791
இ	-16.8792
פ	-16.8793
Э	-16.8794
ʒ	-16.8795
ǀ	-16.8796
😢	-16.8797
😎	-16.8798
😀	-16.8799
📚	-16.88
‒	-16.8801
અ	-16.8802
Р	-16.8803
А	-16.8804
Ј	-16.8805
ǁ	-16.8806
ż	-16.8807
Ā	-16.8808
🌻	-16.8809
꣯	-16.881
ル	-16.8811
ധ	-16.8812
എ	-16.8813
எ	-16.8814
ણ	-16.8815
উ	-16.8816
Т	-16.8817
Д	-16.8818
В	-16.8819
̧	-16.882
♂	-16.8821
▪	-16.8822
Ç	-16.8823
😊	-16.8824
🔱	-16.8825
☆	-16.8826
▶	-16.8827
೦	-16.8828
ר	-16.8829
щ	-16.883
➡	-16.8831
ಸ	-16.8832
💐	-16.8833
ള	-16.8834
அ	-16.8835
ヒ	-16.8836
∠	-16.8837
၊	-16.8838
છ	-16.8839
М	-16.884
̈	-16.8841
❑	-16.8842
᳭	-16.8843
അ	-16.8844
ɪ	-16.8845
🔥	-16.8846
ങ	-16.8847
✅	-16.8848
❌	-16.8849
പ	-16.885
∕	-16.8851
♦	-16.8852
🇮	-16.8853
🇳	-16.8854
🙂	-16.8855
⇒	-16.8856
‡	-16.8857
✔	-16.8858
◆	-16.8859
≥	-16.886
‐	-16.8861
★	-16.8862
д	-16.8863
👉	-16.8864
৷	-16.8865
₹	-16.8866
≤	-16.8867
‖	-16.8868
̐	-16.8869
̄	-16.887
►	-16.8871
ཁ	-16.8872
ན	-16.8872
ྒ	-16.8872
ʻ	-16.8872
ܚ	-16.8872
హ	-16.8872
ಅ	-16.8872
ざ	-16.8872
グ	-16.8872
后	-16.8872
寝	-16.8872
少	-16.8872
讓	-16.8872
ʉ	-16.8873
ʋ	-16.8873
ә	-16.8873
Ե	-16.8873
خ	-16.8873
ৃ	-16.8873
ਜ	-16.8873
ఎ	-16.8873
ఫ	-16.8873
ಜ	-16.8873
ྨ	-16.8873
ს	-16.8873
᭠	-16.8873
ᮩ	-16.8873
ピ	-16.8873
你	-16.8873
唯	-16.8873
四	-16.8873
🔺	-16.8873
Ż	-16.8873
ĕ	-16.8873
∙	-16.8873
É	-16.8873
Ë	-16.8873
Õ	-16.8873
å	-16.8873
ë	-16.8873
û	-16.8873
þ	-16.8873
ÿ	-16.8873
ă	-16.8873
Ę	-16.8873
Ī	-16.8873
Ķ	-16.8873
ń	-16.8873
Ŏ	-16.8873
ť	-16.8873
Ů	-16.8873
ų	-16.8873
Ǒ	-16.8873
ȧ	-16.8873
Ȩ	-16.8873
ȯ	-16.8873
ʈ	-16.8873
ʟ	-16.8873
ʿ	-16.8873
ˎ	-16.8873
ˑ	-16.8873
̍	-16.8873
̖	-16.8873
̠	-16.8873
̪	-16.8873
Ά	-16.8873
Κ	-16.8873
Μ	-16.8873
Ο	-16.8873
Σ	-16.8873
Φ	-16.8873
Ω	-16.8873
ω	-16.8873
Л	-16.8873
Ч	-16.8873
ё	-16.8873
ў	-16.8873
ҫ	-16.8873
Ө	-16.8873
Կ	-16.8873
Հ	-16.8873
ա	-16.8873
ն	-16.8873
ր	-16.8873
ַ	-16.8873
ד	-16.8873
כ	-16.8873
ף	-16.8873
צ	-16.8873
ײ	-16.8873
؞	-16.8873
ذ	-16.8873
ُ	-16.8873
٫	-16.8873
ٰ	-16.8873
ٹ	-16.8873
ټ	-16.8873
ڌ	-16.8873
ں	-16.8873
ڼ	-16.8873
ھ	-16.8873
ۂ	-16.8873
ܕ	-16.8873
ܟ	-16.8873
ॱ	-16.8873
ॵ	-16.8873
ॺ	-16.8873
ॼ	-16.8873
এ	-16.8873
ঠ	-16.8873
ঢ	-16.8873
ণ	-16.8873
ষ	-16.8873
০	-16.8873
৩	-16.8873
৭	-16.8873
ਂ	-16.8873
ਇ	-16.8873
ਊ	-16.8873
ਏ	-16.8873
ਖ	-16.8873
ਟ	-16.8873
ਡ	-16.8873
ਣ	-16.8873
ਦ	-16.8873
ੁ	-16.8873
ੂ	-16.8873
ੰ	-16.8873
ઝ	-16.8873
ૃ	-16.8873
ૠ	-16.8873
૩	-16.8873
૬	-16.8873
૭	-16.8873
૮	-16.8873
ଃ	-16.8873
କ	-16.8873
ଭ	-16.8873
ୟ	-16.8873
ஐ	-16.8873
ஹ	-16.8873
ூ	-16.8873
ை	-16.8873
ఓ	-16.8873
చ	-16.8873
జ	-16.8873
ధ	-16.8873
ష	-16.8873
ే	-16.8873
ై	-16.8873
ో	-16.8873
ಇ	-16.8873
ಟ	-16.8873
ಠ	-16.8873
ೃ	-16.8873
ೊ	-16.8873
ೋ	-16.8873
೧	-16.8873
೩	-16.8873
ೲ	-16.8873
ഖ	-16.8873
ഴ	-16.8873
ൃ	-16.8873
ග	-16.8873
න	-16.8873
ප	-16.8873
ค	-16.8873
ง	-16.8873
ต	-16.8873
พ	-16.8873
ฟ	-16.8873
ม	-16.8873
ห	-16.8873
อ	-16.8873
ฮ	-16.8873
ั	-16.8873
า	-16.8873
ี	-16.8873
เ	-16.8873
่	-16.8873
้	-16.8873
༔	-16.8873
༡	-16.8873
༣	-16.8873
༨	-16.8873
བ	-16.8873
ཚ	-16.8873
ཝ	-16.8873
ཟ	-16.8873
ཥ	-16.8873
ི	-16.8873
ྀ	-16.8873
ྭ	-16.8873
ྱ	-16.8873
ྲ	-16.8873
თ	-16.8873
ლ	-16.8873
უ	-16.8873
ሉ	-16.8873
ሩ	-16.8873
በ	-16.8873
ቮ	-16.8873
እ	-16.8873
ኳ	-16.8873
ገ	-16.8873
ፂ	-16.8873
ፃ	-16.8873
፪	-16.8873
ᒃ	-16.8873
ᒄ	-16.8873
ᒎ	-16.8873
ᓚ	-16.8873
ᗢ	-16.8873
ᘏ	-16.8873
ᚨ	-16.8873
ᚩ	-16.8873
ᛗ	-16.8873
ᛞ	-16.8873
ᭅ	-16.8873
᮰	-16.8873
ᱧ	-16.8873
Ჱ	-16.8873
᳒	-16.8873
ᳬ	-16.8873
ᴀ	-16.8873
Ḩ	-16.8873
ế	-16.8873
ệ	-16.8873
ὁ	-16.8873
ὸ	-16.8873
ῖ	-16.8873
₩	-16.8873
↓	-16.8873
↕	-16.8873
↗	-16.8873
↩	-16.8873
↲	-16.8873
⇏	-16.8873
∖	-16.8873
∝	-16.8873
∩	-16.8873
∵	-16.8873
⊂	-16.8873
⊃	-16.8873
⊕	-16.8873
▀	-16.8873
□	-16.8873
△	-16.8873
☁	-16.8873
☸	-16.8873
☹	-16.8873
☺	-16.8873
♈	-16.8873
♉	-16.8873
♻	-16.8873
⚏	-16.8873
⚕	-16.8873
⚡	-16.8873
⚪	-16.8873
⛈	-16.8873
⛹	-16.8873
✖	-16.8873
✦	-16.8873
✪	-16.8873
✹	-16.8873
✼	-16.8873
✿	-16.8873
❗	-16.8873
➖	-16.8873
➞	-16.8873
➦	-16.8873
➨	-16.8873
⟶	-16.8873
⟷	-16.8873
⠀	-16.8873
⭕	-16.8873
〈	-16.8873
け	-16.8873
げ	-16.8873
ご	-16.8873
ち	-16.8873
で	-16.8873
ど	-16.8873
ゃ	-16.8873
れ	-16.8873
イ	-16.8873
エ	-16.8873
オ	-16.8873
ク	-16.8873
セ	-16.8873
ソ	-16.8873
ツ	-16.8873
ナ	-16.8873
ノ	-16.8873
ポ	-16.8873
ャ	-16.8873
ョ	-16.8873
七	-16.8873
世	-16.8873
中	-16.8873
习	-16.8873
乱	-16.8873
二	-16.8873
互	-16.8873
介	-16.8873
仕	-16.8873
份	-16.8873
休	-16.8873
位	-16.8873
使	-16.8873
個	-16.8873
倒	-16.8873
健	-16.8873
元	-16.8873
入	-16.8873
其	-16.8873
円	-16.8873
册	-16.8873
决	-16.8873
出	-16.8873
划	-16.8873
列	-16.8873
利	-16.8873
别	-16.8873
到	-16.8873
副	-16.8873
助	-16.8873
卍	-16.8873
南	-16.8873
叉	-16.8873
发	-16.8873
口	-16.8873
句	-16.8873
同	-16.8873
吥	-16.8873
吸	-16.8873
告	-16.8873
咒	-16.8873
哉	-16.8873
哥	-16.8873
喝	-16.8873
嘅	-16.8873
器	-16.8873
固	-16.8873
國	-16.8873
域	-16.8873
報	-16.8873
境	-16.8873
处	-16.8873
复	-16.8873
多	-16.8873
夜	-16.8873
夢	-16.8873
奖	-16.8873
威	-16.8873
孕	-16.8873
字	-16.8873
学	-16.8873
官	-16.8873
定	-16.8873
宦	-16.8873
尊	-16.8873
属	-16.8873
岂	-16.8873
师	-16.8873
常	-16.8873
废	-16.8873
康	-16.8873
廬	-16.8873
引	-16.8873
弥	-16.8873
影	-16.8873
得	-16.8873
徹	-16.8873
忘	-16.8873
念	-16.8873
性	-16.8873
惑	-16.8873
感	-16.8873
憶	-16.8873
戻	-16.8873
投	-16.8873
摩	-16.8873
收	-16.8873
改	-16.8873
政	-16.8873
效	-16.8873
文	-16.8873
日	-16.8873
时	-16.8873
星	-16.8873
是	-16.8873
最	-16.8873
朝	-16.8873
杂	-16.8873
某	-16.8873
染	-16.8873
查	-16.8873
栄	-16.8873
模	-16.8873
権	-16.8873
款	-16.8873
止	-16.8873
民	-16.8873
永	-16.8873
求	-16.8873
汇	-16.8873
没	-16.8873
流	-16.8873
添	-16.8873
灭	-16.8873
熟	-16.8873
父	-16.8873
疆	-16.8873
發	-16.8873
直	-16.8873
破	-16.8873
离	-16.8873
秘	-16.8873
稱	-16.8873
究	-16.8873
答	-16.8873
简	-16.8873
类	-16.8873
紅	-16.8873
終	-16.8873
続	-16.8873
網	-16.8873
繁	-16.8873
维	-16.8873
肉	-16.8873
花	-16.8873
若	-16.8873
英	-16.8873
茶	-16.8873
葬	-16.8873
處	-16.8873
蛟	-16.8873
蝶	-16.8873
衆	-16.8873
表	-16.8873
见	-16.8873
观	-16.8873
视	-16.8873
言	-16.8873
記	-16.8873
訳	-16.8873
論	-16.8873
计	-16.8873
讨	-16.8873
话	-16.8873
贪	-16.8873
越	-16.8873
足	-16.8873
車	-16.8873
转	-16.8873
辦	-16.8873
过	-16.8873
返	-16.8873
追	-16.8873
逝	-16.8873
進	-16.8873
那	-16.8873
金	-16.8873
鉄	-16.8873
长	-16.8873
闻	-16.8873
阿	-16.8873
除	-16.8873
陸	-16.8873
障	-16.8873
雨	-16.8873
電	-16.8873
韩	-16.8873
響	-16.8873
願	-16.8873
须	-16.8873
飲	-16.8873
龙	-16.8873
꣫	-16.8873
ꣲ	-16.8873
가	-16.8873
간	-16.8873
개	-16.8873
게	-16.8873
고	-16.8873
과	-16.8873
국	-16.8873
금	-16.8873
깨	-16.8873
나	-16.8873
냐	-16.8873
녹	-16.8873
는	-16.8873
달	-16.8873
더	-16.8873
동	-16.8873
따	-16.8873
뜨	-16.8873
락	-16.8873
레	-16.8873
름	-16.8873
만	-16.8873
망	-16.8873
맵	-16.8873
몸	-16.8873
못	-16.8873
뭐	-16.8873
받	-16.8873
백	-16.8873
번	-16.8873
법	-16.8873
봇	-16.8873
산	-16.8873
상	-16.8873
수	-16.8873
술	-16.8873
쉬	-16.8873
승	-16.8873
시	-16.8873
없	-16.8873
에	-16.8873
염	-16.8873
외	-16.8873
우	-16.8873
운	-16.8873
월	-16.8873
을	-16.8873
임	-16.8873
있	-16.8873
자	-16.8873
적	-16.8873
절	-16.8873
정	-16.8873
조	-16.8873
중	-16.8873
증	-16.8873
지	-16.8873
째	-16.8873
청	-16.8873
탑	-16.8873
터	-16.8873
특	-16.8873
팅	-16.8873
파	-16.8873
함	-16.8873
허	-16.8873
효	-16.8873
힌	-16.8873
힘	-16.8873
︎	-16.8873
𑆤	-16.8873
𑌏	-16.8873
𑌥	-16.8873
𑌫	-16.8873
𑌮	-16.8873
𑌸	-16.8873
𑐰	-16.8873
𑑀	-16.8873
🅰	-16.8873
🇸	-16.8873
🌀	-16.8873
🌃	-16.8873
🌅	-16.8873
🌍	-16.8873
🌎	-16.8873
🌖	-16.8873
🌛	-16.8873
🌝	-16.8873
🌠	-16.8873
🌰	-16.8873
🌴	-16.8873
🍋	-16.8873
🍾	-16.8873
🎂	-16.8873
🎃	-16.8873
🎊	-16.8873
🎋	-16.8873
🎎	-16.8873
🎓	-16.8873
🎤	-16.8873
🎵	-16.8873
🎶	-16.8873
🎼	-16.8873
🏀	-16.8873
🏃	-16.8873
🏏	-16.8873
🏠	-16.8873
🏮	-16.8873
🏷	-16.8873
🏹	-16.8873
🏽	-16.8873
🐕	-16.8873
🐙	-16.8873
👆	-16.8873
👞	-16.8873
👣	-16.8873
👦	-16.8873
👧	-16.8873
👱	-16.8873
💑	-16.8873
💓	-16.8873
💖	-16.8873
💗	-16.8873
💘	-16.8873
💚	-16.8873
💝	-16.8873
💠	-16.8873
💦	-16.8873
💧	-16.8873
💫	-16.8873
💰	-16.8873
💱	-16.8873
💵	-16.8873
📂	-16.8873
📏	-16.8873
📕	-16.8873
📢	-16.8873
📣	-16.8873
📱	-16.8873
📳	-16.8873
📸	-16.8873
📺	-16.8873
🔟	-16.8873
🔷	-16.8873
🔻	-16.8873
🕔	-16.8873
🖊	-16.8873
🖱	-16.8873
🗃	-16.8873
🗒	-16.8873
🗣	-16.8873
🗳	-16.8873
😌	-16.8873
😔	-16.8873
😝	-16.8873
😩	-16.8873
🙁	-16.8873
🙅	-16.8873
🙆	-16.8873
🙌	-16.8873
🙎	-16.8873
🚑	-16.8873
🚷	-16.8873
🛡	-16.8873
🤔	-16.8873
🤗	-16.8873
🤦	-16.8873
🤪	-16.8873
🤲	-16.8873
🥂	-16.8873
🥰	-16.8873
🦂	-16.8873
🧐	-16.8873
ζ	-16.8873
Е	-16.8873
ড	-16.8873
😇	-16.8873
🤩	-16.8873
ŏ	-16.8873
ʌ	-16.8873
ե	-16.8873
ւ	-16.8873
ِ	-16.8873
ખ	-16.8873
ଖ	-16.8873
ତ	-16.8873
୍	-16.8873
ఉ	-16.8873
ೂ	-16.8873
ഠ	-16.8873
ත	-16.8873
ල	-16.8873
ශ	-16.8873
ด	-16.8873
บ	-16.8873
ร	-16.8873
โ	-16.8873
ე	-16.8873
ნ	-16.8873
ᚾ	-16.8873
ᛏ	-16.8873
ὕ	-16.8873
与	-16.8873
工	-16.8873
执	-16.8873
牙	-16.8873
现	-16.8873
班	-16.8873
西	-16.8873
解	-16.8873
达	-16.8873
错	-16.8873
력	-16.8873
스	-16.8873
입	-16.8873
트	-16.8873
େ	-16.8873
ම	-16.8873
ො	-16.8873
დ	-16.8873
ვ	-16.8873
რ	-16.8873
ც	-16.8873
ᚻ	-16.8873
は	-16.8873
ゼ	-16.8873
化	-16.8873
席	-16.8873
检	-16.8873
消	-16.8873
章	-16.8873
运	-16.8873
面	-16.8873
飞	-16.8873
크	-16.8873
탄	-16.8873
🇱	-16.8873
🇹	-16.8873
̣	-16.8873
ཊ	-16.8873
