<unk>	0
<s>	0
</s>	0
्य	-0
▁स	-1
्र	-2
▁प	-3
▁व	-4
▁।	-5
▁त	-6
्त	-7
▁क	-8
र्	-9
▁न	-10
▁म	-11
▁अ	-12
ति	-13
▁य	-14
्व	-15
ान	-16
▁द	-17
▁प्र	-18
म्	-19
त्	-20
▁भ	-21
ित	-22
▁श	-23
▁वि	-24
्या	-25
▁च	-26
ार	-27
▁र	-28
▁इ	-29
▁ज	-30
ां	-31
▁-	-32
्ष	-33
न्	-34
▁ग	-35
▁॥	-36
ते	-37
▁ह	-38
ष्	-39
▁ए	-40
▁ा	-41
स्य	-42
क्ष	-43
त्र	-44
न्त	-45
द्	-46
स्	-47
या	-48
र्व	-49
मा	-50
▁पर	-51
▁आ	-52
▁नि	-53
स्त	-54
▁"	-55
था	-56
▁ब	-57
क्त	-58
ेन	-59
ेव	-60
▁ल	-61
ाम	-62
▁,	-63
▁ध	-64
त्य	-65
▁सं	-66
पि	-67
तः	-68
▁उ	-69
ाय	-70
िक	-71
▁पु	-72
ाः	-73
▁स्	-74
▁वा	-75
्च	-76
ष्ट	-77
▁भव	-78
▁(	-79
▁.	-80
ेष	-81
दि	-82
▁स्व	-83
ना	-84
ृत	-85
▁इति	-86
ाव	-87
र्थ	-88
▁सर्व	-89
दा	-90
ाल	-91
्वा	-92
▁एव	-93
द्ध	-94
र्त	-95
्ञ	-96
ेश	-97
▁सम	-98
▁मा	-99
त्त	-100
ान्	-101
ता	-102
▁रा	-103
मि	-104
▁ः	-105
ङ्	-106
्यते	-107
▁अन	-108
▁तु	-109
▁त्व	-110
ाद	-111
▁१	-112
▁प्रा	-113
यो	-114
्यं	-115
िं	-116
यं	-117
▁सा	-118
▁सु	-119
▁'	-120
ानि	-121
▁स्त	-122
रण	-123
नि	-124
्रि	-125
ये	-126
रा	-127
र्म	-128
▁प्रति	-129
▁पू	-130
नं	-131
▁कार	-132
▁ते	-133
▁ं	-134
वि	-135
▁मु	-136
▁ो	-137
भि	-138
▁यो	-139
▁हि	-140
्ये	-141
नः	-142
ात	-143
▁ऽ	-144
रु	-145
ीय	-146
▁वर्	-147
▁कु	-148
प्त	-149
न्द	-150
श्च	-151
ने	-152
▁ना	-153
▁_	-154
च्	-155
▁े	-156
न्ति	-157
▁विश	-158
▁२	-159
ुः	-160
ष्ठ	-161
▁मह	-162
▁यथा	-163
ल्	-164
▁देव	-165
ेद	-166
यः	-167
ैव	-168
ज्ञ	-169
ानां	-170
ास	-171
िव	-172
रो	-173
▁द्व	-174
रे	-175
▁ख	-176
स्ति	-177
▁स्थ	-178
▁क्ष	-179
ूप	-180
▁1	-181
▁इत्य	-182
रि	-183
▁श्र	-184
▁एक	-185
▁अध	-186
▁?	-187
▁सम्	-188
ाग	-189
च्छ	-190
▁मे	-191
▁पा	-192
▁यु	-193
कार	-194
द्य	-195
तो	-196
▁या	-197
ती	-198
▁दृ	-199
ब्	-200
णि	-201
ेण	-202
िः	-203
ान्त	-204
हं	-205
प्र	-206
णा	-207
ङ्ग	-208
▁व्य	-209
ेत	-210
▁राज	-211
▁तथा	-212
▁परि	-213
▁मन	-214
▁म्	-215
ाष	-216
ैः	-217
▁उप	-218
▁कि	-219
▁गु	-220
▁2	-221
लं	-222
्न	-223
ण्	-224
िष	-225
ेषु	-226
वा	-227
▁सह	-228
▁ज्ञ	-229
ुं	-230
मान	-231
▁भू	-232
िता	-233
णं	-234
ोक	-235
रं	-236
▁कथ	-237
▁भवति	-238
▁कृत	-239
ितः	-240
सि	-241
▁कृ	-242
न्ध	-243
्रा	-244
मे	-245
▁सू	-246
गु	-247
का	-248
▁तद	-249
▁वै	-250
▁दि	-251
सा	-252
▁पूर्व	-253
▁दु	-254
▁विद	-255
ृह	-256
▁)	-257
कं	-258
री	-259
मः	-260
▁स्य	-261
्री	-262
▁तत्	-263
भव	-264
▁समा	-265
▁किं	-266
्यः	-267
▁पृ	-268
▁फ	-269
ात्	-270
▁तस्य	-271
श्य	-272
रः	-273
ला	-274
सी	-275
तं	-276
र्ण	-277
▁वर्ष	-278
▁घ	-279
▁यदि	-280
▁को	-281
▁जन	-282
चि	-283
त्या	-284
धि	-285
▁अपि	-286
ानं	-287
ग्	-288
र्श	-289
▁३	-290
ञ्च	-291
▁काल	-292
र्ग	-293
तु	-294
▁अनु	-295
स्मा	-296
▁ति	-297
▁नाम	-298
ुक्त	-299
न्न	-300
हि	-301
▁रूप	-302
्रह	-303
▁ष	-304
▁मि	-305
दं	-306
ण्ड	-307
व्य	-308
ितं	-309
णां	-310
▁व्या	-311
▁छ	-312
▁तत्र	-313
▁एत	-314
▁के	-315
भाव	-316
▁मध	-317
स्थ	-318
▁का	-319
क्	-320
कः	-321
ेत्	-322
▁अस्ति	-323
▁अप	-324
क्र	-325
ब्द	-326
ल्प	-327
▁सि	-328
स्तु	-329
देश	-330
स्या	-331
ीव	-332
▁प्रत्य	-333
▁विष	-334
सं	-335
▁देश	-336
▁कर्त	-337
▁वृ	-338
▁बह	-339
▁मम	-340
▁--	-341
▁यत्	-342
्यो	-343
▁एवं	-344
त्व	-345
▁गृह	-346
योग	-347
स्मि	-348
▁भाव	-349
▁स्या	-350
▁कर्म	-351
र्ष	-352
ुप	-353
कृ	-354
ृत्त	-355
क्षण	-356
▁भार	-357
▁४	-358
्ल	-359
▁शु	-360
ित्य	-361
तिः	-362
क्षा	-363
▁ि	-364
▁!	-365
क्ति	-366
▁अथ	-367
त्म	-368
▁श्च	-369
धान	-370
▁ान	-371
▁पुनः	-372
र्य	-373
▁भाष	-374
▁ै	-375
▁ये	-376
▁क्र	-377
▁वर्त	-378
▁स्म	-379
▁दृष्ट	-380
▁त्वं	-381
ितम्	-382
नम्	-383
ीत	-384
चार	-385
▁पुन	-386
▁शब्द	-387
्म	-388
▁५	-389
▁ता	-390
▁ाद	-391
्रिय	-392
▁मान	-393
ोष	-394
▁लोक	-395
याः	-396
नी	-397
णे	-398
धा	-399
▁अव	-400
यम	-401
▁/	-402
▁शि	-403
द्र	-404
▁तदा	-405
िष्य	-406
न्ते	-407
श्व	-408
▁मू	-409
▁3	-410
नु	-411
यति	-412
ित्र	-413
वान्	-414
्यां	-415
ेषां	-416
▁धर्म	-417
के	-418
▁तं	-419
▁जीव	-420
▁तेन	-421
▁तव	-422
च्च	-423
▁चि	-424
▁प्रव	-425
▁विशेष	-426
प्य	-427
▁पद	-428
िका	-429
रुष	-430
▁लि	-431
▁प्रथ	-432
▁पुत्र	-433
▁सः	-434
ीन	-435
▁प्राप्त	-436
न्त्र	-437
ीं	-438
कृत	-439
▁निर्	-440
लि	-441
न्य	-442
त्वा	-443
▁संस्	-444
▁[	-445
र्थः	-446
▁करो	-447
्ज	-448
▁साध	-449
▁ततः	-450
▁__	-451
यम्	-452
ित्त	-453
▁=	-454
मं	-455
ख्या	-456
▁शक	-457
▁कार्य	-458
▁साम	-459
▁अन्य	-460
▁निव	-461
भू	-462
▁योग	-463
▁वे	-464
ोप	-465
मेव	-466
णः	-467
▁अधिक	-468
▁विश्व	-469
▁भि	-470
ले	-471
▁ट	-472
ुष	-473
▁दे	-474
ामि	-475
▁थ	-476
क्षि	-477
न्द्र	-478
▁प्रश	-479
▁विक	-480
▁६	-481
ाह	-482
स्म	-483
स्मिन्	-484
▁त्वा	-485
ाप	-486
▁पि	-487
ृश	-488
▁ने	-489
▁केव	-490
भाष	-491
श्र	-492
▁यः	-493
▁सो	-494
▁त्रि	-495
▁तद्	-496
▁विध	-497
से	-498
▁उत्त	-499
▁अभि	-500
मु	-501
करण	-502
ऽपि	-503
ीति	-504
न्तु	-505
▁बहु	-506
पाद	-507
धिक	-508
ाना	-509
र्थं	-510
▁दर्श	-511
▁भग	-512
सः	-513
▁द्र	-514
▁गुण	-515
▁हे	-516
▁ी	-517
▁त्य	-518
काश	-519
त्स	-520
बन्ध	-521
▁रो	-522
न्म	-523
▁ई	-524
▁त्र	-525
▁पुरुष	-526
ारा	-527
ीप	-528
भाग	-529
▁अत्र	-530
▁4	-531
▁बु	-532
▁मया	-533
जन	-534
▁एष	-535
▁र्	-536
रूप	-537
स्व	-538
▁कथं	-539
▁समु	-540
▁भाग	-541
▁भारत	-542
य्	-543
▁भविष्य	-544
▁जग	-545
▁औ	-546
पद	-547
▁८	-548
च्यते	-549
भिः	-550
▁शा	-551
▁इत्या	-552
..	-553
▁७	-554
▁सुख	-555
▁मृ	-556
रम्	-557
▁दिव	-558
▁दश	-559
वे	-560
पा	-561
▁20	-562
द्धि	-563
▁दू	-564
▁पी	-565
▁सप्त	-566
▁ज्ञान	-567
▁न्त	-568
▁व्यव	-569
▁5	-570
▁S	-571
▁ग्र	-572
▁ादि	-573
स्त्र	-574
वः	-575
▁काम	-576
ट्	-577
▁ऋ	-578
ान्य	-579
▁रु	-580
▁२०	-581
मो	-582
्रिया	-583
सीत्	-584
चन	-585
▁हृ	-586
▁श्रु	-587
ायां	-588
▁तर्	-589
▁ला	-590
तां	-591
ङ्क	-592
▁भो	-593
त्त्व	-594
पु	-595
▁जा	-596
▁ग्रह	-597
ोध	-598
▁a	-599
▁न्	-600
▁अहं	-601
भा	-602
▁चा	-603
▁+	-604
▁पृथ	-605
त्रा	-606
प्	-607
▁द्वि	-608
जा	-609
चित्	-610
▁अन्त	-611
▁ड	-612
▁पित	-613
▁स्थान	-614
▁स्था	-615
येत्	-616
माण	-617
म्ब	-618
्याय	-619
▁प्रय	-620
▁स्तु	-621
▁सर्वे	-622
सु	-623
्यामि	-624
प्न	-625
▁यद	-626
▁की	-627
हार	-628
पू	-629
▁s	-630
ख्य	-631
▁युक्त	-632
दान	-633
▁रे	-634
शः	-635
ध्य	-636
▁क्षे	-637
▁;	-638
वाद	-639
▁रि	-640
ुःख	-641
▁यत्र	-642
काल	-643
ज्य	-644
र्ध	-645
▁लक्ष	-646
िते	-647
▁पृष्ठ	-648
शि	-649
▁९	-650
ष्ट्र	-651
ष्ण	-652
▁ॐ	-653
▁वेद	-654
▁अह	-655
▁फल	-656
▁सिद्ध	-657
ेति	-658
▁नो	-659
ीयते	-660
▁स्प	-661
▁यदा	-662
▁भेद	-663
▁मां	-664
सार	-665
▁कः	-666
▁0	-667
श्चि	-668
▁मो	-669
▁बाल	-670
्याः	-671
नां	-672
भ्य	-673
▁ु	-674
▁वृत्त	-675
▁नु	-676
▁चतु	-677
▁स्यात्	-678
ीर	-679
ग्र	-680
▁्	-681
▁वद	-682
▁०	-683
णी	-684
▁विना	-685
▁विद्या	-686
▁अतः	-687
▁दी	-688
▁आसीत्	-689
णम्	-690
▁उत्	-691
▁कदा	-692
▁तः	-693
▁*	-694
ायते	-695
तम	-696
कम्	-697
▁महा	-698
नेन	-699
▁गच्छ	-700
ोक्त	-701
▁तस्मा	-702
स्र	-703
▁नं	-704
र्ज	-705
्वं	-706
▁रक्ष	-707
▁१९	-708
▁जान	-709
▁दोष	-710
▁मध्ये	-711
▁परी	-712
▁सद	-713
▁दुःख	-714
ञ्ज	-715
▁नमः	-716
तम्	-717
त्रं	-718
स्था	-719
▁शी	-720
▁करोति	-721
▁A	-722
▁तो	-723
योः	-724
▁ाय	-725
ली	-726
▁संश	-727
▁ण	-728
▁गो	-729
▁अति	-730
▁पञ्च	-731
▁१०	-732
▁ात्	-733
षु	-734
स्प	-735
▁कर	-736
▁धन	-737
▁विज्ञ	-738
चना	-739
▁प्रस	-740
▁दक्षि	-741
युक्त	-742
▁न्य	-743
▁परा	-744
ोति	-745
दश	-746
▁द्वित	-747
▁तां	-748
▁:	-749
▁दृश	-750
▁ौ	-751
▁i	-752
म्य	-753
▁ैः	-754
▁कल्प	-755
▁t	-756
▁तेषां	-757
▁करण	-758
▁ले	-759
हे	-760
क्षे	-761
त्रे	-762
▁नव	-763
▁आग	-764
▁ोऽ	-765
▁स्त्री	-766
▁राष्ट्र	-767
िताः	-768
▁6	-769
▁अस्य	-770
▁वाक	-771
▁प्रि	-772
▁भवेत्	-773
▁सत्य	-774
▁ानां	-775
▁वर्तते	-776
पी	-777
▁कुर्व	-778
▁सदा	-779
▁यस्य	-780
ष्य	-781
▁कल	-782
▁एते	-783
▁पठ	-784
▁क्रिय	-785
यु	-786
▁वर्षे	-787
दी	-788
नो	-789
▁जन्म	-790
▁तर्हि	-791
▁उक्त	-792
▁जल	-793
▁ततो	-794
▁जि	-795
▁जात	-796
▁भगव	-797
पे	-798
▁येन	-799
▁इदं	-800
▁सौ	-801
▁आव	-802
षे	-803
▁वाच	-804
▁वयं	-805
विध	-806
▁m	-807
▁इह	-808
ुव	-809
▁आह	-810
er	-811
ग्नि	-812
▁प्रद	-813
▁भ्र	-814
लः	-815
▁ाव	-816
मपि	-817
र्या	-818
ज्ञा	-819
▁हेत	-820
▁भविष्यति	-821
▁I	-822
म्भ	-823
यि	-824
▁ओ	-825
ितो	-826
▁जु	-827
▁नृ	-828
▁तस्या	-829
▁परिव	-830
्यम्	-831
▁घट	-832
▁पाद	-833
▁क्रिया	-834
▁काले	-835
ताः	-836
▁वक्त	-837
▁ेति	-838
▁सन्ति	-839
ारः	-840
▁मेव	-841
यन	-842
यित	-843
▁ोप	-844
▁भाषा	-845
▁प्रथम	-846
▁नग	-847
▁ाः	-848
▁सर्वं	-849
▁आस	-850
▁वर्ण	-851
▁इव	-852
▁वाय	-853
▁प्रयोग	-854
▁पश्य	-855
लोक	-856
▁बल	-857
▁तम	-858
▁अत	-859
▁पश	-860
ारं	-861
▁वस्तु	-862
कृति	-863
▁हृद	-864
ेक	-865
▁8	-866
▁परं	-867
▁और	-868
▁मध्य	-869
--	-870
▁तत	-871
▁अस्मा	-872
▁मुक्त	-873
मिति	-874
शा	-875
ुर	-876
ष्टा	-877
्छ	-878
देव	-879
▁शक्त	-880
▁ेषु	-881
▁अयं	-882
▁ार्थ	-883
▁T	-884
धे	-885
▁मार्ग	-886
▁पूज	-887
▁पे	-888
▁्य	-889
▁बि	-890
▁यद्य	-891
ण्य	-892
▁यं	-893
▁रात्र	-894
▁मूल	-895
▁ऊ	-896
▁स्वा	-897
ानु	-898
▁कृत्वा	-899
षि	-900
योज	-901
▁7	-902
▁सी	-903
▁सामान्य	-904
▁नित	-905
▁तथ	-906
भवत्	-907
▁क्व	-908
▁भूत	-909
▁पाप	-910
▁विषय	-911
▁ान्	-912
क्रम	-913
ूल	-914
▁ब्रह	-915
्राह	-916
ारि	-917
▁बा	-918
▁शेष	-919
▁यज्ञ	-920
▁अस	-921
द्या	-922
व्यं	-923
▁प्रकाश	-924
▁सेव	-925
▁केवलं	-926
र्घ	-927
पत्त	-928
▁याव	-929
▁पाठ	-930
▁प्रभ	-931
▁ित	-932
भ्यः	-933
▁शक्ति	-934
▁ताव	-935
दे	-936
▁भा	-937
▁नास्ति	-938
▁पुनर्	-939
▁अर्थ	-940
िति	-941
▁परम	-942
▁ात्म	-943
ेश्व	-944
▁यद्	-945
रणं	-946
▁मुख	-947
सो	-948
ुर्	-949
न्तः	-950
▁हस्त	-951
ुम्	-952
▁करि	-953
र्प	-954
▁पुरा	-955
▁...	-956
▁केन	-957
र्ह	-958
▁पुं	-959
दृश	-960
▁इत्यादि	-961
▁वच	-962
▁प्रे	-963
▁याः	-964
ारी	-965
▁ह्य	-966
कु	-967
▁नः	-968
यां	-969
▁ान्त	-970
▁युद्ध	-971
थि	-972
▁विव	-973
▁क्री	-974
लो	-975
▁पुर	-976
▁गत	-977
▁सम्बन्ध	-978
ाम्	-979
व्यम्	-980
▁वी	-981
ृण	-982
▁तप	-983
▁नैव	-984
▁अधि	-985
▁कर्	-986
▁धात	-987
▁हो	-988
▁नी	-989
काः	-990
▁शरी	-991
▁श्व	-992
▁लिख	-993
▁ती	-994
▁स्थाप	-995
▁ानु	-996
▁चे	-997
▁धार	-998
श्	-999
▁खः	-1000
▁प्रक	-1001
ोः	-1002
हः	-1003
ेः	-1004
▁विद्यते	-1005
▁व्र	-1006
▁त्	-1007
▁केवल	-1008
द्व	-1009
▁राज्य	-1010
▁कृते	-1011
▁राजा	-1012
▁चिन्त	-1013
ृष्ट	-1014
▁किम्	-1015
▁वर	-1016
▁मिति	-1017
▁शुभ	-1018
▁दा	-1019
▁यू	-1020
on	-1021
भाषा	-1022
st	-1023
मी	-1024
ब्ध	-1025
▁गण	-1026
▁9	-1027
▁पूर्ण	-1028
▁सर	-1029
ाये	-1030
▁ानि	-1031
▁एतत्	-1032
▁वृद्ध	-1033
▁प्रज	-1034
ीनां	-1035
▁सर्वा	-1036
दाह	-1037
▁शत	-1038
न्व	-1039
▁तया	-1040
क्ष्य	-1041
▁विभ	-1042
▁सन्	-1043
▁दृश्यते	-1044
▁P	-1045
▁दत्त	-1046
पर	-1047
▁निष्	-1048
को	-1049
तीति	-1050
न्या	-1051
▁201	-1052
▁दिन	-1053
गः	-1054
▁यज	-1055
▁लक्षण	-1056
▁10	-1057
▁त्या	-1058
▁से	-1059
▁C	-1060
ुना	-1061
तिं	-1062
रोध	-1063
▁निर्व	-1064
▁११	-1065
शी	-1066
▁तमे	-1067
▁पर्य	-1068
▁दृष्ट्वा	-1069
▁मनो	-1070
▁गुरु	-1071
▁क्रम	-1072
कि	-1073
▁विषये	-1074
▁यां	-1075
हा	-1076
▁राम	-1077
▁दुर्	-1078
▁c	-1079
घ्र	-1080
▁दृश्य	-1081
मन	-1082
ज्ज	-1083
en	-1084
णो	-1085
स्ते	-1086
▁ध्व	-1087
▁मित्र	-1088
▁कार्यं	-1089
▁वस	-1090
हित	-1091
▁सर्वत्र	-1092
तर	-1093
▁विभाग	-1094
▁द्	-1095
▁विप	-1096
▁शत्र	-1097
००	-1098
कारः	-1099
▁ऽपि	-1100
▁M	-1101
or	-1102
▁तृत	-1103
▁द्वा	-1104
ोद	-1105
▁निर	-1106
▁ध्य	-1107
लय	-1108
▁वार	-1109
▁पर्व	-1110
ड्	-1111
▁वन	-1112
▁प्रधान	-1113
यते	-1114
दिति	-1115
धार	-1116
यन्	-1117
जः	-1118
▁कारण	-1119
▁प्रवि	-1120
▁क्रीड	-1121
▁॒	-1122
ुम	-1123
▁रुप	-1124
गे	-1125
▁॑	-1126
▁वह	-1127
रेण	-1128
▁विद्य	-1129
__	-1130
▁शिव	-1131
▁धी	-1132
मानं	-1133
▁मन्त्र	-1134
▁प्राप्न	-1135
ून	-1136
▁विधि	-1137
▁पृथिव	-1138
▁यथ	-1139
▁श्री	-1140
न्तं	-1141
▁पक्ष	-1142
▁तिष्ठ	-1143
▁l	-1144
ञ्	-1145
णाम	-1146
▁ब्र	-1147
▁निश्च	-1148
▁कं	-1149
▁N	-1150
▁ब्रह्म	-1151
▁नर	-1152
वाच	-1153
भ्यां	-1154
▁संस्कृत	-1155
▁लेख	-1156
▁न्या	-1157
▁प्राय	-1158
▁कौ	-1159
ैक	-1160
▁स्वरूप	-1161
र्थे	-1162
▁संव	-1163
▁विचार	-1164
ar	-1165
▁नित्य	-1166
▁कश्चि	-1167
▁त्वया	-1168
▁ेन	-1169
िकं	-1170
▁ज्ञात	-1171
▁ऐ	-1172
▁पुनर	-1173
टि	-1174
ैर्	-1175
▁यत	-1176
▁जायते	-1177
ापि	-1178
वी	-1179
िर	-1180
▁>	-1181
an	-1182
▁भु	-1183
व्या	-1184
▁सङ्	-1185
▁भक्त	-1186
▁सम्ब	-1187
▁इदान	-1188
▁प्रोक्त	-1189
▁लभ	-1190
ष्टं	-1191
▁संशयः	-1192
▁आत्म	-1193
▁अभवत्	-1194
▁मात्र	-1195
▁अध्य	-1196
▁नियम	-1197
▁ां	-1198
▁सम्भव	-1199
शु	-1200
▁रस	-1201
▁क्षेत्र	-1202
▁तत्त्व	-1203
ाने	-1204
▁दीर्घ	-1205
▁प्रती	-1206
▁यतः	-1207
▁इच्छ	-1208
▁शास्त्र	-1209
पाल	-1210
▁बुद्ध	-1211
▁च्छ	-1212
▁p	-1213
▁कुरु	-1214
▁भावः	-1215
▁१८	-1216
▁किम	-1217
ेय	-1218
माः	-1219
▁]	-1220
▁अभ	-1221
in	-1222
यात्	-1223
▁१२	-1224
दु	-1225
▁()	-1226
लु	-1227
वरी	-1228
▁b	-1229
▁निय	-1230
▁अस्मिन्	-1231
▁चेत्	-1232
षेध	-1233
▁उभ	-1234
ग्रह	-1235
तया	-1236
▁पूर्वं	-1237
▁विकल्प	-1238
▁अद्य	-1239
▁नित्यं	-1240
▁उपयोग	-1241
▁भवन्ति	-1242
▁मपि	-1243
▁सूचना	-1244
ंश	-1245
▁आर	-1246
om	-1247
र्भ	-1248
▁क्ल	-1249
▁संयुक्त	-1250
ल्य	-1251
कर	-1252
▁लाभ	-1253
▁B	-1254
र्च	-1255
यामि	-1256
▁मात	-1257
▁स्वयं	-1258
र्था	-1259
▁पदा	-1260
▁तर	-1261
▁संख्या	-1262
▁छा	-1263
▁उत्तर	-1264
▁विज	-1265
▁सव	-1266
षा	-1267
▁स्वी	-1268
▁मनुष	-1269
ित्वा	-1270
सिद्ध	-1271
ैर	-1272
पूर्ण	-1273
ायं	-1274
▁योः	-1275
▁निम	-1276
डि	-1277
ताम्	-1278
▁द्वारा	-1279
▁त्वात्	-1280
▁1.	-1281
▁बाह	-1282
▁प्राण	-1283
▁इद	-1284
▁प्रण	-1285
ध्या	-1286
ुत	-1287
द्रा	-1288
▁जनाः	-1289
▁d	-1290
▁मण्ड	-1291
लभ	-1292
▁वो	-1293
हो	-1294
▁n	-1295
▁सहस्र	-1296
▁देशे	-1297
▁पुस्त	-1298
▁शो	-1299
▁विह	-1300
▁१५	-1301
▁मृत्य	-1302
▁ङ	-1303
मुख	-1304
▁गम	-1305
▁योज	-1306
▁मन्त	-1307
न्थ	-1308
▁आप	-1309
▁सुर	-1310
▁अग्नि	-1311
▁क्रियते	-1312
▁कस्य	-1313
▁संस्थ	-1314
▁प्रश्न	-1315
▁लोके	-1316
▁बन्ध	-1317
▁H	-1318
▁तथापि	-1319
याम	-1320
es	-1321
म्म	-1322
▁चित्त	-1323
▁रूपं	-1324
स्मै	-1325
▁स्वर्ग	-1326
▁एकः	-1327
▁अन्यथा	-1328
00	-1329
ीया	-1330
▁सङ्ग	-1331
▁तौ	-1332
दः	-1333
▁शक्यते	-1334
▁अग	-1335
▁विप्र	-1336
▁वर्तमान	-1337
▁कम	-1338
▁प्रदेश	-1339
ित्	-1340
ड़	-1341
▁कार्या	-1342
▁शान्त	-1343
▁एका	-1344
▁सक	-1345
▁मी	-1346
▁गति	-1347
▁परस्प	-1348
मास	-1349
▁हर	-1350
▁चैव	-1351
▁विस्त	-1352
▁रूपेण	-1353
▁प्रभाव	-1354
▁---	-1355
वत्	-1356
्राणि	-1357
थं	-1358
▁झ	-1359
▁फलं	-1360
▁निर्म	-1361
दाय	-1362
▁दैव	-1363
▁लो	-1364
▁L	-1365
▁पाल	-1366
यत्	-1367
▁वृक्ष	-1368
सू	-1369
▁सूर्य	-1370
▁दान	-1371
▁चित्र	-1372
गम	-1373
▁धि	-1374
ज्	-1375
▁समुद्र	-1376
▁वर्ध	-1377
▁पति	-1378
▁गा	-1379
▁ज्ञानं	-1380
▁द्य	-1381
यन्ति	-1382
▁व्याप	-1383
▁दक्षिण	-1384
त्तर	-1385
▁साक्ष	-1386
▁साह	-1387
ेष्ठ	-1388
▁ाभि	-1389
▁धर्	-1390
ेदन	-1391
▁भाषण	-1392
▁अस्माकं	-1393
भूत	-1394
▁प्रमाण	-1395
▁उद्	-1396
च्य	-1397
▁पश्च	-1398
त्तम	-1399
▁वाम	-1400
गर	-1401
▁ॊ	-1402
▁कृतं	-1403
मेर	-1404
ीयः	-1405
▁मास	-1406
▁सूत्र	-1407
▁उच्यते	-1408
▁भी	-1409
▁हरि	-1410
▁त्वम्	-1411
▁किन्तु	-1412
▁भवतः	-1413
▁किञ्च	-1414
▁परीक्षा	-1415
शो	-1416
▁तस्मात्	-1417
▁परिवर्त	-1418
▁द्वादश	-1419
▁मं	-1420
▁१४	-1421
ह्य	-1422
▁लघ	-1423
ात्म	-1424
ूत	-1425
▁अथवा	-1426
र्ता	-1427
▁त्वेन	-1428
चित	-1429
▁प्रवर्त	-1430
▁रोग	-1431
▁प्रार्थ	-1432
ारो	-1433
▁ज्यो	-1434
▁r	-1435
at	-1436
टी	-1437
▁सिं	-1438
की	-1439
▁प्रयोज	-1440
▁बी	-1441
▁त्वां	-1442
▁मनु	-1443
त्वं	-1444
ृत्य	-1445
▁संभव	-1446
▁नै	-1447
▁यात	-1448
▁वाक्य	-1449
▁#	-1450
स्याः	-1451
▁ईश्व	-1452
▁माता	-1453
▁प्रवृत्त	-1454
▁चर	-1455
▁गृहे	-1456
ेवं	-1457
त्मा	-1458
▁उच्च	-1459
▁वर्षा	-1460
▁क्षण	-1461
र्द	-1462
िंश	-1463
्वे	-1464
▁शक्न	-1465
▁D	-1466
▁विनि	-1467
▁पिता	-1468
िक्	-1469
▁भारतीय	-1470
▁भय	-1471
▁इत्युक्त	-1472
ii	-1473
िष्ट	-1474
▁प्रकृति	-1475
▁पत्र	-1476
▁ग्राम	-1477
▁19	-1478
ष्टि	-1479
गत	-1480
तेः	-1481
▁यतो	-1482
वाह	-1483
▁श्	-1484
▁f	-1485
▁कोई	-1486
▁पृष्ठानि	-1487
▁विकास	-1488
▁शू	-1489
▁कृप	-1490
▁पार	-1491
ल्ल	-1492
▁परमा	-1493
इट	-1494
▁पुष्	-1495
क्तं	-1496
वर्ष	-1497
▁सम्बद्ध	-1498
▁शुद्ध	-1499
वं	-1500
▁सति	-1501
▁स्न	-1502
▁भवान्	-1503
▁अत्य	-1504
▁शीघ्र	-1505
▁१७	-1506
▁शृण	-1507
जं	-1508
▁दूर	-1509
▁नृप	-1510
▁विष्ण	-1511
▁संसार	-1512
ाला	-1513
हास	-1514
▁परम्	-1515
▁दण्ड	-1516
▁हं	-1517
▁है	-1518
▁कथा	-1519
▁इत्यस्य	-1520
टे	-1521
धन	-1522
▁अती	-1523
▁प्रातः	-1524
▁समाप्त	-1525
▁सम्प्र	-1526
▁वय	-1527
वो	-1528
▁अन्व	-1529
▁भवे	-1530
▁श्ल	-1531
▁प्रत्यय	-1532
ग्ने	-1533
▁तथैव	-1534
▁इत	-1535
▁बुद्धि	-1536
▁वत्	-1537
▁अमेर	-1538
भ्यो	-1539
संधान	-1540
▁मुख्य	-1541
▁अनेन	-1542
▁वेब	-1543
▁उदाह	-1544
▁देवा	-1545
▁कारणं	-1546
▁प्रयत्	-1547
ष्म	-1548
ारे	-1549
▁जी	-1550
▁उद	-1551
▁ननु	-1552
▁e	-1553
▁o	-1554
पद्यते	-1555
▁शब्दः	-1556
▁निमित्त	-1557
ag	-1558
▁शै	-1559
स्मात्	-1560
▁१३	-1561
▁अनुसंधान	-1562
▁ष्ट	-1563
रस्य	-1564
▁प्रकार	-1565
▁कृता	-1566
▁विकि	-1567
त्वात्	-1568
▁प्रसिद्ध	-1569
शं	-1570
▁द्रष्ट	-1571
▁प्रवेश	-1572
▁सर्वेषां	-1573
▁यावत्	-1574
धी	-1575
▁निर्ण	-1576
▁इन्द्र	-1577
▁भिः	-1578
जे	-1579
▁कम्	-1580
▁मित्य	-1581
▁तद्व	-1582
▁गतः	-1583
▁१६	-1584
▁स्फ	-1585
▁रह	-1586
▁सम्प	-1587
र्ति	-1588
▁रथ	-1589
▁गि	-1590
▁लिङ्ग	-1591
▁R	-1592
▁सन्ध	-1593
▁हिं	-1594
▁प्रत्यक्ष	-1595
▁मद	-1596
▁समान	-1597
शे	-1598
▁भूमि	-1599
▁ग्रन्थ	-1600
▁कुर्वन्ति	-1601
शत	-1602
▁पव	-1603
▁स्मृ	-1604
ेषण	-1605
▁भगवान्	-1606
नियम	-1607
▁सम्य	-1608
▁समीप	-1609
▁कुर्या	-1610
▁सै	-1611
रिति	-1612
ष्ठा	-1613
▁वेबसा	-1614
▁मै	-1615
▁स्थित	-1616
▁पितृ	-1617
▁यम	-1618
▁तस्मिन्	-1619
गा	-1620
▁ैव	-1621
कर्म	-1622
▁स्वभाव	-1623
कूल	-1624
खा	-1625
ादृश	-1626
▁तन्	-1627
▁प्राप्नोति	-1628
▁2.	-1629
ोऽ	-1630
▁V	-1631
चर	-1632
▁विज्ञान	-1633
्येत	-1634
▁गते	-1635
▁तम्	-1636
्नि	-1637
▁खलु	-1638
▁ैर्	-1639
▁सर्वदा	-1640
▁इदानीं	-1641
▁पात	-1642
न्तरं	-1643
ष्यति	-1644
ुक	-1645
िनः	-1646
▁स्थाने	-1647
▁वेबसाइट	-1648
टा	-1649
▁12	-1650
▁भोज	-1651
▁सोम	-1652
▁अम	-1653
व्यः	-1654
र्क	-1655
तन्त्र	-1656
al	-1657
▁मत	-1658
▁11	-1659
▁ैक	-1660
लम्	-1661
यत	-1662
▁E	-1663
▁अधिकतम	-1664
▁अध्या	-1665
▁य्	-1666
▁गृ	-1667
▁नां	-1668
▁मृत	-1669
▁निवृत्त	-1670
▁निः	-1671
ज्यते	-1672
▁चन्द्र	-1673
▁इत्यर्थः	-1674
▁विर	-1675
वती	-1676
▁शास	-1677
ितुं	-1678
▁देह	-1679
ज्ञान	-1680
▁कर्तुं	-1681
न्तर	-1682
▁देवता	-1683
▁आद	-1684
क्षु	-1685
ष्टः	-1686
▁ञ्च	-1687
▁निर्देश	-1688
पादन	-1689
साय	-1690
ोत	-1691
▁धा	-1692
▁मित	-1693
▁करिष	-1694
ुन	-1695
▁सेन	-1696
▁त्वे	-1697
िकी	-1698
▁न्याय	-1699
खि	-1700
▁पत	-1701
▁मन्य	-1702
▁स्र	-1703
▁अधिनियम	-1704
लन	-1705
▁ाधिक	-1706
▁यति	-1707
त्ता	-1708
▁महि	-1709
रुद्ध	-1710
▁नाम्	-1711
मां	-1712
▁ख्या	-1713
वां	-1714
▁समी	-1715
▁माह	-1716
▁समर्थ	-1717
▁समाचार	-1718
भ्या	-1719
▁संस्था	-1720
ध्यते	-1721
जी	-1722
▁पश्चि	-1723
▁व्याख्या	-1724
▁चक्र	-1725
▁गौ	-1726
▁चेत	-1727
▁मत्	-1728
▁विधान	-1729
सौ	-1730
माह	-1731
▁हा	-1732
▁शब्	-1733
▁इत्येत	-1734
▁द्वितीय	-1735
जि	-1736
▁याम	-1737
▁पर्या	-1738
▁पौ	-1739
्राह्म	-1740
ग्ध	-1741
णाम्	-1742
▁व्यवहार	-1743
▁अक	-1744
▁बोध	-1745
▁सूच	-1746
▁ार्थं	-1747
जो	-1748
पति	-1749
▁ज्व	-1750
▁ाद्	-1751
iv	-1752
▁पीड	-1753
▁यान	-1754
▁सन्द	-1755
▁v	-1756
▁षष्ठ	-1757
▁स्मृत	-1758
▁र्थ	-1759
▁प्रकृ	-1760
गृह	-1761
तेन	-1762
▁पदं	-1763
▁वः	-1764
▁तेष	-1765
▁प्रमा	-1766
▁मय	-1767
पत्ति	-1768
▁एषा	-1769
▁सूर	-1770
ोर्	-1771
▁िक	-1772
▁व्यवस्था	-1773
सम्	-1774
▁मुप	-1775
▁कुल	-1776
▁कव	-1777
काले	-1778
▁प्रकरण	-1779
▁अनेक	-1780
▁विरोध	-1781
याम्	-1782
▁ग्राह	-1783
▁प्राप	-1784
वास	-1785
▁मार	-1786
ूनां	-1787
ान्ति	-1788
▁प्रो	-1789
ाद्	-1790
▁क्त	-1791
▁श्रुत्वा	-1792
च्छति	-1793
यितुं	-1794
▁जाग	-1795
▁लु	-1796
▁एवम्	-1797
▁प्रशि	-1798
▁केन्द्र	-1799
▁व्यक्त	-1800
ूगु	-1801
स्मान्	-1802
राज	-1803
▁दद	-1804
▁अङ्ग	-1805
▁प्रत्या	-1806
पः	-1807
▁प्राप्य	-1808
ान्तर	-1809
▁क्रि	-1810
▁प्रच	-1811
▁हेतु	-1812
▁नार	-1813
▁यय	-1814
▁अहम्	-1815
▁पं	-1816
▁प्रयो	-1817
▁यद्यपि	-1818
ुत्	-1819
▁दिने	-1820
▁विल	-1821
▁15	-1822
▁श्रेष्ठ	-1823
str	-1824
▁18	-1825
▁नेव	-1826
▁अष्ट	-1827
▁खो	-1828
▁तृ	-1829
सर्ग	-1830
▁कालः	-1831
▁ध्यान	-1832
ूष	-1833
▁O	-1834
▁कदाचित्	-1835
▁इयं	-1836
▁सन्त	-1837
हम्	-1838
न्दि	-1839
▁एकं	-1840
▁सां	-1841
▁स्थानं	-1842
▁मयि	-1843
▁राज्ञ	-1844
▁शं	-1845
▁गत्वा	-1846
शेष	-1847
▁मुनि	-1848
गी	-1849
▁कृतम्	-1850
▁ज्योति	-1851
▁ब्राह्म	-1852
▁कला	-1853
▁तेषु	-1854
▁विशेषतः	-1855
▁विद्व	-1856
▁वित्त	-1857
▁जना	-1858
▁कृतः	-1859
्वः	-1860
▁हित	-1861
▁G	-1862
▁क्षि	-1863
स्ट	-1864
रणे	-1865
▁वीर	-1866
▁भारतस्य	-1867
▁खे	-1868
▁याति	-1869
▁कर्त्त	-1870
▁लघु	-1871
दिष्ट	-1872
▁नाश	-1873
▁मनः	-1874
▁विविध	-1875
▁क्वचित्	-1876
▁चै	-1877
▁निरा	-1878
नात्	-1879
▁२०१	-1880
▁प्ल	-1881
▁गच्छति	-1882
▁माया	-1883
▁विशिष्ट	-1884
हर	-1885
ासु	-1886
▁in	-1887
▁विन	-1888
▁संबन्ध	-1889
▁रम	-1890
रणम्	-1891
it	-1892
▁अक्ष	-1893
द्धा	-1894
वान	-1895
कर्ता	-1896
sg	-1897
वर्त	-1898
sgstr	-1899
▁<	-1900
▁जनवरी	-1901
िन	-1902
▁मधु	-1903
ाद्य	-1904
▁सम्बद्धानि	-1905
▁कति	-1906
▁ठ	-1907
▁सृष्ट	-1908
द्यो	-1909
▁एषः	-1910
▁स्थि	-1911
मन्त	-1912
नीय	-1913
ाणां	-1914
▁पृथक्	-1915
क्ष्यामि	-1916
णात्	-1917
▁वाद	-1918
▁सत्	-1919
▁पार्थ	-1920
फल	-1921
ीयं	-1922
▁पुण्य	-1923
▁ार	-1924
▁ोऽपि	-1925
सम	-1926
▁3.	-1927
पेक्ष	-1928
▁समये	-1929
▁ङ्ग	-1930
▁चतुर्	-1931
िके	-1932
▁भ्य	-1933
गो	-1934
▁सृ	-1935
▁विम	-1936
▁कृपया	-1937
ग्रे	-1938
▁इत्यनेन	-1939
धः	-1940
ादि	-1941
▁अर्थः	-1942
िकः	-1943
▁चल	-1944
▁जगत्	-1945
▁छात्र	-1946
▁परिणाम	-1947
▁वापि	-1948
▁समय	-1949
ेश्वर	-1950
▁२१	-1951
▁पूजा	-1952
पन्	-1953
त्ते	-1954
▁ज्या	-1955
चिद	-1956
सां	-1957
▁तन	-1958
▁आवश्य	-1959
▁वाह	-1960
ग्न	-1961
▁कर्ता	-1962
▁सर्व्व	-1963
le	-1964
ome	-1965
▁लब्ध	-1966
▁इत्येव	-1967
▁तै	-1968
▁मानव	-1969
ोर	-1970
कर्ष	-1971
▁तानि	-1972
▁काव	-1973
▁u	-1974
▁प्रतिषेध	-1975
मान्	-1976
▁चिक	-1977
▁प्राच	-1978
▁ददा	-1979
▁विच	-1980
ou	-1981
ानाम्	-1982
▁महोद	-1983
▁$	-1984
▁सत्त्व	-1985
▁३०	-1986
▁वने	-1987
▁कू	-1988
▁सोऽ	-1989
▁सङ्क	-1990
▁शिक्ष	-1991
▁शरीर	-1992
▁वान्	-1993
▁धनं	-1994
▁14	-1995
▁इत्	-1996
▁अयम्	-1997
▁हृदय	-1998
▁सत	-1999
▁जलं	-2000
▁स्थिति	-2001
▁इत्यत्र	-2002
▁बृह	-2003
▁राज्यं	-2004
▁वास	-2005
कृत्य	-2006
▁ताम्	-2007
▁ध्या	-2008
▁प्रिय	-2009
▁नाय	-2010
नाम	-2011
त्रि	-2012
▁काय	-2013
▁मिथ	-2014
यित्वा	-2015
▁श्लोक	-2016
▁प्रया	-2017
ारण	-2018
▁घोष	-2019
▁परे	-2020
▁अप्र	-2021
▁वचनं	-2022
▁दृढ	-2023
▁वार्त	-2024
्याह	-2025
तन	-2026
▁गृह्	-2027
▁{	-2028
धिकार	-2029
▁देवानां	-2030
▁आन	-2031
▁दीप	-2032
ादश	-2033
ृतं	-2034
▁निवेश	-2035
▁भ्रम	-2036
पं	-2037
▁वचन	-2038
▁F	-2039
▁शिक्षा	-2040
▁निज	-2041
काम	-2042
▁नम	-2043
▁पदे	-2044
▁सुखं	-2045
लिख	-2046
▁कीदृश	-2047
बु	-2048
नाम्	-2049
▁सुव	-2050
▁परीक्षण	-2051
▁मूर्	-2052
गुण	-2053
पन्न	-2054
▁पत्	-2055
▁प्रथमं	-2056
पृ	-2057
्रे	-2058
भिर्	-2059
▁२५	-2060
स्यां	-2061
▁पश्यति	-2062
▁टी	-2063
▁वं	-2064
कस्य	-2065
▁गृहं	-2066
▁तिथि	-2067
▁तादृश	-2068
▁Ne	-2069
▁२२	-2070
▁Tag	-2071
▁अधो	-2072
▁ज्ञे	-2073
सह	-2074
▁बाध	-2075
▁तुल	-2076
▁दिना	-2077
▁एवम	-2078
▁थ्व	-2079
▁चक्ष	-2080
▁दै	-2081
▁भूम	-2082
यी	-2083
▁भवित	-2084
▁रात्रौ	-2085
▁शीत	-2086
▁संवि	-2087
▁ह्र	-2088
▁साधन	-2089
▁मस्ति	-2090
▁संप्र	-2091
▁युग	-2092
▁कीर्त	-2093
▁U	-2094
▁ोक्त	-2095
▁नेवाः	-2096
▁भे	-2097
▁निवर्त	-2098
▁h	-2099
▁टि	-2100
▁द्वे	-2101
पन	-2102
▁तू	-2103
च्छेद	-2104
▁समास	-2105
▁षु	-2106
▁ानाम्	-2107
▁लोप	-2108
▁वृत्ति	-2109
▁भेदः	-2110
▁कुत्र	-2111
▁गृहीत	-2112
▁अधिकार	-2113
▁स्त्रिय	-2114
ent	-2115
▁..	-2116
▁कृष्ण	-2117
▁पुरुषः	-2118
▁अव्य	-2119
▁तावत्	-2120
▁जाय	-2121
िष्यामि	-2122
▁मौ	-2123
▁भयं	-2124
▁तस्याः	-2125
ion	-2126
▁रोच	-2127
विद्या	-2128
▁गन्ध	-2129
▁रू	-2130
िष्यते	-2131
▁समस्त	-2132
▁त्वम	-2133
▁रक्त	-2134
▁शब्दा	-2135
▁कुश	-2136
▁तन्त्र	-2137
▁ेण	-2138
▁Home	-2139
▁गर्भ	-2140
▁प्रश्	-2141
▁सत्यं	-2142
▁प्रथमा	-2143
ूह	-2144
▁निवेद	-2145
▁भिन्न	-2146
▁विश्वा	-2147
▁वृद्धि	-2148
▁स्वप्न	-2149
ब्र	-2150
र्णं	-2151
सर	-2152
▁प्रकृत	-2153
▁धारा	-2154
▁प्री	-2155
▁व्यक्ति	-2156
▁ैर	-2157
▁्या	-2158
▁g	-2159
वार	-2160
नस्य	-2161
▁सार	-2162
▁ोत्	-2163
न्त्य	-2164
ic	-2165
▁शत्रु	-2166
▁स्त्रि	-2167
डिया	-2168
ुक्तं	-2169
▁तान्	-2170
▁२४	-2171
िकाः	-2172
▁कर्ण	-2173
▁संयोग	-2174
▁अतो	-2175
▁ताः	-2176
▁कर्मणि	-2177
▁नौ	-2178
▁जाना	-2179
थे	-2180
दृ	-2181
▁एता	-2182
▁धर्मा	-2183
▁ष्व	-2184
▁चापि	-2185
▁यूयं	-2186
ितवान्	-2187
▁कोऽपि	-2188
▁द्विज	-2189
▁ध्वनि	-2190
▁संस्करण	-2191
▁देवी	-2192
▁ाश्र	-2193
▁समर्प	-2194
▁नगर	-2195
स्थान	-2196
▁एतद्	-2197
▁(1	-2198
am	-2199
▁एतद	-2200
▁वायु	-2201
टः	-2202
▁कर्तव्य	-2203
▁साक्षात्	-2204
▁स्तो	-2205
खे	-2206
हू	-2207
लये	-2208
▁ही	-2209
रेत्	-2210
▁w	-2211
देशे	-2212
टक	-2213
▁धू	-2214
▁पूर	-2215
▁ब्रू	-2216
▁कश्चित्	-2217
▁दो	-2218
मानः	-2219
▁त्त	-2220
भेद	-2221
▁4.	-2222
▁मानुष	-2223
▁अध्ययन	-2224
▁संज्ञ	-2225
▁पाव	-2226
▁मोक्ष	-2227
▁कन्या	-2228
▁&	-2229
चिद्	-2230
▁गोप	-2231
▁चार	-2232
▁धन्य	-2233
▁धिक	-2234
▁प्रत्ये	-2235
भार	-2236
▁माल	-2237
ष्ट्रिय	-2238
ावि	-2239
ध्ये	-2240
माना	-2241
▁किमपि	-2242
दो	-2243
येन	-2244
▁कै	-2245
▁भर	-2246
▁इदम्	-2247
▁ताम	-2248
▁ेत्य	-2249
दिश	-2250
▁विवे	-2251
▁प्राप्ते	-2252
▁अज	-2253
▁जातः	-2254
कारं	-2255
▁वित	-2256
▁स्तथा	-2257
हु	-2258
▁यौ	-2259
▁प्य	-2260
▁पुरस्	-2261
▁अहो	-2262
▁वर्ग	-2263
▁देवाः	-2264
▁प्रजा	-2265
▁री	-2266
▁देहि	-2267
▁प्रतिपाद	-2268
▁भवता	-2269
वेश	-2270
न्ती	-2271
▁अश्व	-2272
▁प्रत	-2273
▁दास	-2274
▁विदेश	-2275
▁विरुद्ध	-2276
परा	-2277
ाणि	-2278
▁उत्तम	-2279
▁प्रायः	-2280
तौ	-2281
▁ध्र	-2282
▁२००	-2283
ष्मा	-2284
▁त्यक्त	-2285
▁भोग	-2286
नाय	-2287
▁अश	-2288
▁गाय	-2289
▁स्ने	-2290
तुः	-2291
▁था	-2292
▁शृणु	-2293
▁पदार्थ	-2294
▁13	-2295
▁आय	-2296
▁यॊ	-2297
धं	-2298
▁संब	-2299
▁दिवस	-2300
▁द्वार	-2301
▁विशेषः	-2302
▁मुच्यते	-2303
ीः	-2304
तिक	-2305
▁प्रतिदि	-2306
▁परिभाषा	-2307
▁यन्	-2308
हिता	-2309
▁कश्च	-2310
▁ुप	-2311
▁२६	-2312
re	-2313
▁२७	-2314
▁याये	-2315
बल	-2316
ितानि	-2317
रुण	-2318
▁जुइ	-2319
▁समन्व	-2320
ध्	-2321
▁श्रव	-2322
न्दु	-2323
▁मातृ	-2324
चा	-2325
पात	-2326
षां	-2327
▁स्वतन्त्र	-2328
▁इं	-2329
ीयम्	-2330
▁सेवा	-2331
▁प्रयुक्त	-2332
▁अधुना	-2333
▁त्रि०	-2334
त्यं	-2335
▁अना	-2336
पूर्व	-2337
वृत्त	-2338
▁स्वप्	-2339
त्वे	-2340
▁→	-2341
यमेव	-2342
▁17	-2343
▁शर	-2344
घा	-2345
▁•	-2346
▁स्वर	-2347
▁विस्म	-2348
▁तत्त	-2349
▁द्रव्य	-2350
▁आकाश	-2351
▁प्रतिष्ठ	-2352
▁प्रत्ययः	-2353
ऽऽ	-2354
▁ाभाव	-2355
ूनि	-2356
▁भक्ति	-2357
▁त्वमेव	-2358
▁ोद	-2359
▁वत्स	-2360
▁दिव्य	-2361
▁व्यवसाय	-2362
▁क्रोध	-2363
▁देशः	-2364
▁गे	-2365
▁k	-2366
प्प	-2367
▁निर्वा	-2368
ों	-2369
नाः	-2370
हां	-2371
▁व्यति	-2372
▁नेपाल	-2373
▁पुत्रः	-2374
ासि	-2375
्मा	-2376
▁शय	-2377
▁निरूप	-2378
▁msgstr	-2379
ण्ठ	-2380
धिः	-2381
मात्र	-2382
▁पाठः	-2383
▁वर्ज	-2384
▁क्रीडा	-2385
र्द्ध	-2386
▁सभ	-2387
धिकरण	-2388
▁स्त्रियां	-2389
▁विश्ल	-2390
पिं	-2391
▁आसन्	-2392
▁स्मर	-2393
▁स्वयम्	-2394
प्ति	-2395
▁दात	-2396
▁202	-2397
▁मनुष्य	-2398
▁गन्त	-2399
वन	-2400
क्ष्म	-2401
▁प्रदर्श	-2402
▁महत्	-2403
▁विमान	-2404
क्षित	-2405
▁वस्त	-2406
▁करोमि	-2407
▁दुर्लभ	-2408
▁तदेव	-2409
▁एवा	-2410
▁कुतः	-2411
▁भवतु	-2412
▁क्षेत्रे	-2413
ुच्यते	-2414
▁क्रमेण	-2415
▁समाज	-2416
▁मध्यम	-2417
चः	-2418
शक्ति	-2419
▁निर्मा	-2420
▁शब्दस्य	-2421
▁क्	-2422
▁भर्त	-2423
▁थः	-2424
▁शक्य	-2425
▁सामा	-2426
▁सदस्य	-2427
▁पार्श	-2428
▁प्रतिशत	-2429
भु	-2430
▁ादौ	-2431
▁द्वौ	-2432
▁राक्ष	-2433
▁इतिहास	-2434
▁शक्तिः	-2435
▁अमेरिका	-2436
he	-2437
▁किल	-2438
▁विभक्त	-2439
्याम	-2440
रिक्त	-2441
▁अं	-2442
▁वां	-2443
▁जाता	-2444
▁प्रशिक्षण	-2445
▁मति	-2446
ङ्के	-2447
प्राय	-2448
▁छुं	-2449
▁आचार	-2450
▁विधिः	-2451
▁स्त्व	-2452
▁२३	-2453
▁भास	-2454
▁स्पर्श	-2455
डा	-2456
▁आः	-2457
सेन	-2458
दर्श	-2459
▁केश	-2460
▁अन्ये	-2461
▁पक्षे	-2462
▁न्ह	-2463
▁विनाश	-2464
▁ली	-2465
▁बहि	-2466
▁कथम्	-2467
▁स्थितः	-2468
गण	-2469
मात्	-2470
▁प्रस्त	-2471
▁च्	-2472
▁वश	-2473
▁श्रू	-2474
▁ाद्य	-2475
▁पुष्प	-2476
▁पल	-2477
▁भक्ष	-2478
▁लक्षणं	-2479
▁सिंह	-2480
▁संर	-2481
▁शीघ्रं	-2482
▁विकिपी	-2483
▁खण्ड	-2484
▁शब्दे	-2485
▁कुर्यात्	-2486
▁माम	-2487
▁ादीनां	-2488
ादेश	-2489
्येन	-2490
▁उदाहरण	-2491
ीये	-2492
▁अथा	-2493
▁स्ते	-2494
▁प्रयोगः	-2495
ce	-2496
▁नदी	-2497
▁मोह	-2498
▁पर्वत	-2499
▁राजन्	-2500
▁स्याद	-2501
▁सर्वाणि	-2502
▁ग्रहण	-2503
▁देवि	-2504
▁y	-2505
▁शङ्क	-2506
बि	-2507
▁16	-2508
▁विषयः	-2509
▁ू	-2510
परि	-2511
ान्ते	-2512
▁मिदं	-2513
▁हु	-2514
साधन	-2515
स्ता	-2516
▁ान्य	-2517
भः	-2518
ृतः	-2519
▁कुम	-2520
▁धातु	-2521
▁दर्शन	-2522
▁//	-2523
▁लाख	-2524
्यादि	-2525
▁रुपये	-2526
▁वात	-2527
▁रक्षा	-2528
▁एस	-2529
▁कथय	-2530
▁उपरि	-2531
▁यानि	-2532
्यति	-2533
पुरुष	-2534
▁दुष्	-2535
▁प्राणि	-2536
▁चत्व	-2537
▁आई	-2538
▁काः	-2539
▁न्याया	-2540
मिदं	-2541
▁सर्ग	-2542
▁जानाति	-2543
देशः	-2544
▁क्षु	-2545
▁युव	-2546
▁पृथिवी	-2547
िद	-2548
▁सदृश	-2549
दार	-2550
ष्टो	-2551
▁शोभ	-2552
▁सहस	-2553
▁ज्ञा	-2554
▁वाक्यं	-2555
ृता	-2556
▁पथ	-2557
सर्व	-2558
ट्ट	-2559
▁निह	-2560
▁पुण	-2561
▁स्क	-2562
त्राणि	-2563
▁२८	-2564
▁क्षमा	-2565
गं	-2566
▁स्ना	-2567
▁तृतीय	-2568
न्द्रिय	-2569
▁परस्पर	-2570
▁मिव	-2571
▁दुर्ग	-2572
पो	-2573
▁जय	-2574
ार्थ	-2575
▁परो	-2576
▁यते	-2577
ेदं	-2578
यात	-2579
रवरी	-2580
ेष्व	-2581
▁ग्रहणं	-2582
▁शब्देन	-2583
सत	-2584
▁कवि	-2585
▁चरण	-2586
▁कर्मा	-2587
▁शेषः	-2588
▁कर्म्म	-2589
▁यश	-2590
▁उपयोगकर्ता	-2591
▁ग्री	-2592
▁ेभ्यः	-2593
्येण	-2594
ग्री	-2595
▁उभय	-2596
▁अस्म	-2597
▁सिद्धि	-2598
▁भज	-2599
▁रज	-2600
ान्व	-2601
धानं	-2602
ष्टे	-2603
▁तस्मै	-2604
▁मुक्ति	-2605
योर्	-2606
▁क्षम	-2607
▁दिश	-2608
▁परः	-2609
▁देवः	-2610
्स	-2611
▁महत्व	-2612
▁देशस्य	-2613
षण	-2614
त्ति	-2615
न्नं	-2616
▁अवि	-2617
▁मन्त्रि	-2618
टो	-2619
्यात्	-2620
▁सञ्च	-2621
▁प्रार	-2622
▁योजना	-2623
▁स्पष्ट	-2624
▁सद्	-2625
वन्तः	-2626
▁योजन	-2627
दौ	-2628
विधा	-2629
तत्	-2630
न्ना	-2631
▁पिब	-2632
▁परमं	-2633
मेन	-2634
▁ज्ये	-2635
▁स्यापि	-2636
▁तिष्ठति	-2637
▁हरे	-2638
▁हवि	-2639
▁रात्रि	-2640
▁नीति	-2641
माय	-2642
▁An	-2643
▁कृत्	-2644
िष्यति	-2645
ृति	-2646
स्त्य	-2647
▁येषां	-2648
▁योग्य	-2649
▁सम्पाद	-2650
▁न्व	-2651
▁तैः	-2652
▁शाल	-2653
▁ाभ्यां	-2654
▁प्रत्येकं	-2655
ानी	-2656
▁आश	-2657
▁दुःखं	-2658
▁पश्चात्	-2659
▁गमि	-2660
▁जाल	-2661
बा	-2662
पत्	-2663
▁एतेन	-2664
▁व्रज	-2665
▁परमेश्व	-2666
सन	-2667
▁लभते	-2668
▁बहुधा	-2669
▁उद्य	-2670
२०	-2671
▁वध	-2672
▁संक	-2673
क्षेप	-2674
▁अल्प	-2675
▁कल्या	-2676
▁तस्माद्	-2677
▁गता	-2678
ूर	-2679
▁ँ	-2680
ासन	-2681
▁धाव	-2682
▁रत्	-2683
▁यन्त्र	-2684
▁दार	-2685
▁उत	-2686
▁सच	-2687
▁ीय	-2688
▁अभ्या	-2689
▁कृतवान्	-2690
▁परन्तु	-2691
▁विधीयते	-2692
▁चेति	-2693
▁विक्र	-2694
▁विपरी	-2695
▁संस्कार	-2696
ाहा	-2697
▁न्यू	-2698
▁ाणां	-2699
▁उत्पाद	-2700
टु	-2701
वृ	-2702
ुद्ध	-2703
▁समं	-2704
▁वर्गः	-2705
ानाम	-2706
▁मन्दि	-2707
▁प्रोक्तं	-2708
▁प्रधानमन्त	-2709
▁25	-2710
▁कोऽ	-2711
▁मण्डल	-2712
▁अपे	-2713
हीं	-2714
▁30	-2715
▁उपा	-2716
▁छन्द	-2717
वच	-2718
र्न	-2719
यस्य	-2720
▁अनि	-2721
▁नरः	-2722
▁व्यवस्थ	-2723
▁धर्मः	-2724
▁शस्त्र	-2725
धनं	-2726
सन्ध	-2727
▁नूत	-2728
▁जाति	-2729
▁सामाज	-2730
▁भौ	-2731
▁K	-2732
▁संग	-2733
▁जानामि	-2734
▁चाल	-2735
▁ऽहं	-2736
▁उत्स	-2737
वाः	-2738
▁पु०	-2739
र्थम्	-2740
▁मासे	-2741
▁पुरुषो	-2742
पर्य	-2743
▁कर्तव्यं	-2744
ed	-2745
▁माय	-2746
र्वा	-2747
▁X	-2748
▁शोक	-2749
▁ददाति	-2750
▁दुष्ट	-2751
पदं	-2752
ad	-2753
▁वान	-2754
▁दोषः	-2755
▁युक्तं	-2756
क्य	-2757
▁व्यापार	-2758
lo	-2759
१०	-2760
▁मरु	-2761
भो	-2762
▁यन्ति	-2763
श्वर	-2764
▁200	-2765
▁इत्यादिना	-2766
▁5.	-2767
रिक्ष	-2768
▁मनसा	-2769
▁भारते	-2770
तेषु	-2771
▁कृष	-2772
▁वैश्व	-2773
▁पुस्तक	-2774
णु	-2775
वर	-2776
घ्न	-2777
ाय्	-2778
▁मृत्यु	-2779
ामः	-2780
िनी	-2781
पद्य	-2782
भूव	-2783
▁णि	-2784
▁प्रह	-2785
ch	-2786
ुट	-2787
रोत्	-2788
▁बलं	-2789
क्षते	-2790
▁कृषि	-2791
▁निषेध	-2792
▁खेल	-2793
▁अग्ने	-2794
▁रक्षण	-2795
▁शे	-2796
▁तेज	-2797
▁पद्	-2798
▁राग	-2799
▁विश्वविद्या	-2800
मय	-2801
▁चित	-2802
ङ्ग्ल	-2803
▁स्मा	-2804
▁मन्यते	-2805
▁वर्त्त	-2806
सृ	-2807
धिप	-2808
▁भगवन्	-2809
▁चतुर्थ	-2810
▁समुदाय	-2811
▁३१	-2812
क्ता	-2813
▁नारी	-2814
वाय	-2815
▁एम	-2816
▁ताप	-2817
▁ऽन	-2818
▁परिच	-2819
▁वक्ष	-2820
▁इदानी	-2821
▁to	-2822
त्री	-2823
▁भाग्य	-2824
▁शुक्र	-2825
▁संघ	-2826
▁भवती	-2827
▁संवत्स	-2828
▁सर्वेषु	-2829
▁विकिपीडिया	-2830
जीव	-2831
म्ह	-2832
▁नेत	-2833
▁तिथ	-2834
बी	-2835
विधि	-2836
▁जे	-2837
▁वरि	-2838
▁आश्र	-2839
▁नाट	-2840
▁में	-2841
▁वेत	-2842
▁साव	-2843
▁सदैव	-2844
▁प्रेम	-2845
▁हृदयं	-2846
▁प्रेष	-2847
▁21	-2848
▁५०	-2849
▁कारणम्	-2850
▁सम्भवति	-2851
▁फरवरी	-2852
यव	-2853
▁पूर्	-2854
▁स्मि	-2855
▁सुन्द	-2856
कल	-2857
ञ्छ	-2858
▁गी	-2859
▁आरो	-2860
मस्ति	-2861
▁अतीव	-2862
▁आत्मा	-2863
वद	-2864
▁सम्यक्	-2865
▁प्रसङ्ग	-2866
▁पेपर	-2867
्रियते	-2868
▁डि	-2869
निर्	-2870
▁कथम	-2871
▁जूगु	-2872
▁अस्मि	-2873
स्यते	-2874
▁ज्ञाप	-2875
▁गुणा	-2876
▁हृदि	-2877
▁सन्नि	-2878
▁स्नान	-2879
▁इत्याह	-2880
▁प्रजाप	-2881
▁प्रयोजन	-2882
नानि	-2883
▁ान्व	-2884
▁कार्यम्	-2885
न्तो	-2886
▁ाङ्ग	-2887
▁कथितं	-2888
▁करिष्यामि	-2889
ाली	-2890
▁वय्	-2891
▁स्वं	-2892
▁युष्मा	-2893
▁श्रो	-2894
इगु	-2895
त्वेन	-2896
▁भागे	-2897
षध	-2898
ोड	-2899
पुं	-2900
▁जीवन	-2901
▁पुरो	-2902
▁मेरे	-2903
▁धन्यवाद	-2904
चं	-2905
ची	-2906
▁अभ्य	-2907
▁रिति	-2908
▁व्रत	-2909
▁संज्ञा	-2910
▁२९	-2911
▁तृतीया	-2912
▁ढ	-2913
बोध	-2914
▁ममा	-2915
त्वम्	-2916
▁गतिः	-2917
▁तच्च	-2918
▁न्न	-2919
▁तयोः	-2920
▁भेदे	-2921
बर	-2922
▁ाह	-2923
▁वज	-2924
शिष्ट	-2925
▁मात्रा	-2926
ून्	-2927
▁अय	-2928
▁आदि	-2929
▁धाः	-2930
▁मानं	-2931
▁कथ्यते	-2932
एस	-2933
ुल	-2934
भास	-2935
▁दाय	-2936
र्हति	-2937
▁दर्शयति	-2938
लिङ्ग	-2939
▁इत्ये	-2940
▁भवत्य	-2941
as	-2942
▁अग्न	-2943
▁मुद्रा	-2944
▁अन्यत्र	-2945
▁W	-2946
▁सय	-2947
▁तदपि	-2948
▁स्ति	-2949
▁मूल्य	-2950
▁४०	-2951
भ्यं	-2952
▁त्यज	-2953
पक्ष	-2954
स्क	-2955
धर्म	-2956
▁कालं	-2957
राणां	-2958
▁ध्रुव	-2959
▁पाण्ड	-2960
▁अर्था	-2961
▁महान्	-2962
दय	-2963
धाय	-2964
र्जन	-2965
▁टिप्प	-2966
हृ	-2967
ित्व	-2968
▁दानं	-2969
▁नाहं	-2970
▁पराज	-2971
▁पत्नी	-2972
▁निर्माण	-2973
▁सूक्ष्म	-2974
कम	-2975
▁an	-2976
▁सङ्ख्या	-2977
च्छा	-2978
▁वदति	-2979
▁संयु	-2980
▁विश्वं	-2981
नतः	-2982
श्यं	-2983
▁माम्	-2984
▁दद्या	-2985
▁माध्य	-2986
▁मृग	-2987
▁मन्द	-2988
▁सायं	-2989
▁पार्थिव	-2990
il	-2991
▁अद	-2992
▁स्वामि	-2993
भे	-2994
▁दं	-2995
▁ादी	-2996
▁नृत्य	-2997
▁प्रीति	-2998
▁स्याद्	-2999
▁रण	-3000
▁कां	-3001
▁पो	-3002
भ्र	-3003
▁24	-3004
▁स्वतः	-3005
▁त्री	-3006
▁साधु	-3007
खः	-3008
▁उवाच	-3009
इति	-3010
लित	-3011
राणि	-3012
▁वार्ष	-3013
▁यथार्थ	-3014
▁सर्वकार	-3015
वेद	-3016
ज्ञः	-3017
▁मुद्र	-3018
▁व्यायाम	-3019
िको	-3020
▁दर	-3021
▁नय	-3022
▁दरि	-3023
▁मर्त	-3024
▁यस्मिन्	-3025
थः	-3026
कृतं	-3027
यामास	-3028
▁तस्माद	-3029
▁J	-3030
▁लौ	-3031
▁वयम्	-3032
▁कश्चन	-3033
▁प्रश्नः	-3034
साह	-3035
▁ययौ	-3036
▁विरा	-3037
▁प्रतियोग	-3038
ामी	-3039
▁धु	-3040
▁ल्	-3041
ान्न	-3042
▁कुत	-3043
▁तात	-3044
प्नोति	-3045
▁इत्य्	-3046
▁हेतुः	-3047
▁अध्याय	-3048
्वि	-3049
▁तार	-3050
▁प्रवर्तते	-3051
▁एको	-3052
प्रति	-3053
रात्र	-3054
▁प्रसाद	-3055
▁ज्ञायते	-3056
▁सार्व	-3057
▁सिध्य	-3058
▁खँ	-3059
▁वचः	-3060
▁बाह्य	-3061
▁प्रतिव	-3062
▁युद्धे	-3063
रू	-3064
▁राष्ट्रिय	-3065
लाः	-3066
प्तं	-3067
दात्त	-3068
▁अभाव	-3069
▁विकार	-3070
▁कुरुते	-3071
▁पश्चिम	-3072
▁विशेषण	-3073
▁ज्ञात्वा	-3074
ीप्	-3075
▁जप	-3076
▁क्षी	-3077
▁श्चैव	-3078
▁प्रमुख	-3079
▁साहित्य	-3080
फलं	-3081
▁याम्	-3082
▁रोचते	-3083
धात	-3084
्यु	-3085
द्यः	-3086
▁योऽ	-3087
▁सामर्थ	-3088
केन	-3089
▁सहाय	-3090
▁जीवनं	-3091
▁यस्तु	-3092
▁गर्	-3093
▁श्रुति	-3094
▁सामाजिक	-3095
▁गिरि	-3096
▁प्रथमः	-3097
ोत्	-3098
▁लङ्	-3099
▁हन्त	-3100
▁तीर्थ	-3101
▁करु	-3102
▁निग	-3103
िकल्प	-3104
▁ब्राह्मण	-3105
▁शीर्ष	-3106
▁हिंसा	-3107
▁युक्तः	-3108
▁किञ्चित्	-3109
श्म	-3110
▁शोध	-3111
▁बहिः	-3112
▁काव्य	-3113
▁स्नेह	-3114
ातन्त्र	-3115
मित	-3116
ेषा	-3117
▁मुद्	-3118
▁ादिषु	-3119
▁स्वाहा	-3120
▁वर्षाणि	-3121
ख्ये	-3122
▁इतर	-3123
▁संस	-3124
▁भ्रात	-3125
▁छु	-3126
भागे	-3127
▁आयु	-3128
▁कान	-3129
▁ज्येष्ठ	-3130
▁कन	-3131
▁ष्ठ	-3132
▁देवं	-3133
▁नापि	-3134
ay	-3135
कू	-3136
▁ॆ	-3137
▁नहि	-3138
▁कृत्य	-3139
▁यात्रा	-3140
▁संस्थान	-3141
▁आध	-3142
▁नोप	-3143
▁सङ्घ	-3144
▁ऽप्य	-3145
▁वृष	-3146
▁मनसि	-3147
लयः	-3148
▁ताल	-3149
भाग्य	-3150
▁ैश्च	-3151
▁विश्र	-3152
▁अनुवाद	-3153
▁प्रत्येक	-3154
येत	-3155
्यताम्	-3156
▁प्राह	-3157
▁समीपे	-3158
▁दृष्टि	-3159
▁३३	-3160
▁षट्	-3161
ष्यामि	-3162
भिर	-3163
▁खाद	-3164
▁भागः	-3165
▁अन्तर्	-3166
▁आवश्यक	-3167
▁नगरे	-3168
▁ाप	-3169
ासां	-3170
▁वती	-3171
▁पतिः	-3172
▁ऋष	-3173
▁सम्पूर्ण	-3174
▁रुद्र	-3175
▁दह	-3176
▁बे	-3177
▁बो	-3178
दत्त	-3179
▁अस्त	-3180
▁स्थिता	-3181
ार्य	-3182
▁व्याकरण	-3183
एव	-3184
▁यत्त	-3185
▁हृदये	-3186
▁मिथ्या	-3187
भय	-3188
▁नू	-3189
▁मूढ	-3190
▁उन्न	-3191
▁यश्च	-3192
▁वस्तुतः	-3193
साद	-3194
▁बुध	-3195
त्रापि	-3196
▁वक्तव्यम्	-3197
पित	-3198
▁षड	-3199
▁कारि	-3200
▁अनुभव	-3201
▁अस्तु	-3202
▁स्वाग	-3203
▁द्वितीया	-3204
ैत	-3205
दुःख	-3206
▁अन्तः	-3207
▁MS	-3208
▁शौ	-3209
▁ाग	-3210
▁करणे	-3211
सति	-3212
ायत	-3213
शय	-3214
िषु	-3215
▁३२	-3216
प्रत्य	-3217
▁वरिष्ठ	-3218
▁विश्लेषण	-3219
▁प्रयोजनम्	-3220
▁अल	-3221
णाति	-3222
▁यम्	-3223
▁याच	-3224
ान्तः	-3225
▁मत्स्य	-3226
▁प्रमाणं	-3227
मत	-3228
▁पट	-3229
ृद्ध	-3230
▁न्ते	-3231
▁मङ्ग	-3232
त्मानं	-3233
.0	-3234
ॄणां	-3235
▁निरी	-3236
▁श्रम	-3237
▁नाम्ना	-3238
▁वंश	-3239
▁प्रयु	-3240
▁श्वेत	-3241
पाः	-3242
▁पंच	-3243
▁भुव	-3244
्यामः	-3245
▁लक्ष्म	-3246
▁न्यून	-3247
▁x	-3248
▁अर्ध	-3249
▁भोजन	-3250
▁शाश्व	-3251
▁शून्य	-3252
▁महत्त्व	-3253
▁हय	-3254
ाप्त	-3255
▁त्म	-3256
स्यति	-3257
▁भगवान	-3258
▁दक्षिणा	-3259
क्षर	-3260
▁हीन	-3261
▁पवित्र	-3262
vi	-3263
माने	-3264
येद्	-3265
▁स्त्र	-3266
▁नद	-3267
चित्र	-3268
▁रामः	-3269
▁मन्ये	-3270
▁प्रतीयते	-3271
▁स्थिते	-3272
▁चो	-3273
▁जनः	-3274
▁शिश	-3275
ब्रवी	-3276
▁बद्ध	-3277
▁सततं	-3278
▁ब्रह्मा	-3279
.1	-3280
▁दूष	-3281
▁सेना	-3282
यय	-3283
रात्	-3284
र्वि	-3285
▁गतं	-3286
▁करे	-3287
▁विष्णु	-3288
▁प्रतिभा	-3289
ख्यान	-3290
▁बहवः	-3291
▁वादि	-3292
▁प्	-3293
▁देवो	-3294
▁भ्यः	-3295
▁सर्वभूत	-3296
et	-3297
टर	-3298
▁गृही	-3299
▁रूपे	-3300
▁स्वप्ने	-3301
▁कर्तव्यम्	-3302
▁22	-3303
▁इतः	-3304
▁इष्ट	-3305
▁यच्च	-3306
▁23	-3307
▁पच	-3308
▁ीं	-3309
▁Ans	-3310
▁अधोलिख	-3311
▁मल	-3312
▁जले	-3313
▁रूपा	-3314
▁नमो	-3315
▁आरम्	-3316
▁योर्	-3317
▁त्रयो	-3318
▁मात्रं	-3319
▁प्रस्तु	-3320
▁ऽनु	-3321
र्थिक	-3322
▁जानी	-3323
▁ईश्वर	-3324
▁रूपम्	-3325
▁तत्रैव	-3326
मह	-3327
▁डा	-3328
▁दया	-3329
▁राव	-3330
▁तन्म	-3331
▁पद्ध	-3332
▁साध्य	-3333
डी	-3334
▁मरण	-3335
▁नेति	-3336
▁करिष्यति	-3337
▁मेघ	-3338
▁एकदा	-3339
▁कर्मणा	-3340
द्योग	-3341
▁तुल्य	-3342
▁देवस्य	-3343
ेह	-3344
▁वह्नि	-3345
▁विवाह	-3346
▁प्रसार	-3347
दन	-3348
ख्यं	-3349
▁समू	-3350
▁सैन	-3351
▁विंश	-3352
▁हानि	-3353
▁भूत्वा	-3354
▁स्तत्र	-3355
▁भवन	-3356
▁अपरा	-3357
▁महिला	-3358
▁मूर्त	-3359
▁लक्ष्य	-3360
▁धर	-3361
स्यं	-3362
▁लाग	-3363
▁वस्त्र	-3364
टन	-3365
▁निर्ग	-3366
शास्त्र	-3367
▁ऑ	-3368
▁निक	-3369
▁विश्वे	-3370
त्थ	-3371
कृते	-3372
न्दो	-3373
▁एतस्य	-3374
▁अनुकूल	-3375
▁पर्याव	-3376
▁स्वास्थ	-3377
▁प्रभो	-3378
रेव	-3379
▁गुणः	-3380
▁नात्र	-3381
▁मिश्र	-3382
▁मतः	-3383
▁साल	-3384
▁सृज	-3385
पत्तिः	-3386
▁खोज	-3387
▁भिर्	-3388
▁तस्मि	-3389
▁एतादृश	-3390
▁सर्वतः	-3391
तरं	-3392
▁ओं	-3393
▁साद	-3394
क्रमण	-3395
▁लिखत	-3396
▁सर्वान्	-3397
▁पूर्वोक्त	-3398
ायै	-3399
▁नाव	-3400
▁अन्ति	-3401
▁आगच्छ	-3402
▁प्रधानमन्त्री	-3403
-1	-3404
ऽहं	-3405
▁of	-3406
▁पशु	-3407
▁पीठ	-3408
ध्याय	-3409
▁राज्ये	-3410
▁त्वयि	-3411
▁बीज	-3412
्वंगु	-3413
▁विभा	-3414
▁सामान	-3415
▁युद्धं	-3416
▁स्वयमेव	-3417
पक	-3418
तुं	-3419
सन्	-3420
▁ऽव	-3421
▁३५	-3422
▁म्ह	-3423
▁२०७	-3424
▁ङीप्	-3425
▁उक्तं	-3426
▁तेषाम	-3427
लयं	-3428
▁रं	-3429
▁अभव	-3430
▁पिताम	-3431
▁शतं	-3432
▁घोषणा	-3433
कृष्ट	-3434
▁अस्याः	-3435
▁छि	-3436
is	-3437
▁सना	-3438
▁न्तु	-3439
▁स्वे	-3440
▁शब्दो	-3441
▁प्रविश	-3442
▁प्रतिवेदन	-3443
▁इमे	-3444
▁वरं	-3445
▁धकाः	-3446
▁कदाचन	-3447
▁शान्ति	-3448
▁समीक्षा	-3449
ec	-3450
▁४५	-3451
▁तमः	-3452
▁श्रा	-3453
▁सज्ज	-3454
▁समयः	-3455
ुवन्ति	-3456
▁वायुः	-3457
▁27	-3458
▁शङ्	-3459
▁दिनाङ्के	-3460
▁त्रा	-3461
▁पीसी	-3462
▁अन्वयः	-3463
युः	-3464
▁शृ	-3465
▁ादयः	-3466
ध्यायः	-3467
▁द्वीप	-3468
विश	-3469
▁शरण	-3470
राज्य	-3471
▁कक्ष	-3472
▁हर्ष	-3473
▁जनानां	-3474
ल्ली	-3475
▁ाति	-3476
क्षणं	-3477
▁ास्ते	-3478
▁ोऽयं	-3479
▁पर्यन्तं	-3480
ot	-3481
▁ाम	-3482
▁वेति	-3483
संख्या	-3484
▁चिन्ता	-3485
▁स्वस्य	-3486
गल	-3487
ूं	-3488
ह्न	-3489
▁न०	-3490
▁३६	-3491
कालं	-3492
▁कदापि	-3493
▁वृत्तिः	-3494
▁शक्नोति	-3495
▁शरणं	-3496
▁आङ्ग्ल	-3497
▁स्थितिः	-3498
▁स्नानं	-3499
विष	-3500
▁शन	-3501
लोके	-3502
▁वेग	-3503
▁कोटि	-3504
▁मनोर	-3505
▁सम्म	-3506
▁यानाः	-3507
▁प्राचीन	-3508
ान्तं	-3509
▁कृति	-3510
▁विभि	-3511
▁संसाधन	-3512
▁गं	-3513
▁तदि	-3514
▁सुत	-3515
▁नक्ष	-3516
▁भावे	-3517
▁अनन्त	-3518
▁देशं	-3519
▁श्रुत	-3520
▁दर्शनं	-3521
▁सुवर्ण	-3522
▁प्रसन्न	-3523
▁प्रवृत्ति	-3524
▁जं	-3525
हितः	-3526
ेषाम	-3527
▁चित्	-3528
▁सर्वो	-3529
▁उत्तरः	-3530
▁वक्तुं	-3531
▁राष्ट्रीय	-3532
▁स्वातन्त्र	-3533
▁कठ	-3534
▁क्लेश	-3535
▁पक्षि	-3536
▁Y	-3537
ल्क	-3538
ाम्य	-3539
▁निष	-3540
▁द्या	-3541
▁नाना	-3542
▁शुभा	-3543
▁अग्रे	-3544
▁ार्थे	-3545
▁स्थितम्	-3546
▁प्रतिदिनं	-3547
▁In	-3548
▁तीति	-3549
▁बभूव	-3550
▁समाग	-3551
▁अन्तर	-3552
▁नान्य	-3553
▁कर्माणि	-3554
ङ्कार	-3555
▁तद्य	-3556
▁भवतीति	-3557
ab	-3558
खं	-3559
▁३७	-3560
▁मभि	-3561
▁अग्र	-3562
▁दक्ष	-3563
▁दिवा	-3564
▁सीता	-3565
▁केचित्	-3566
▁स्मृति	-3567
▁प्रकारेण	-3568
देह	-3569
पत्र	-3570
▁साग	-3571
▁विवाद	-3572
खु	-3573
▁26	-3574
▁भद्र	-3575
▁साम्	-3576
▁प्राक्	-3577
▁िव	-3578
▁दुर	-3579
▁बलि	-3580
धीयते	-3581
▁कुर्य	-3582
▁गम्यते	-3583
ित्स	-3584
▁दूरे	-3585
▁प्रस्ताव	-3586
सभा	-3587
▁भवः	-3588
▁उपाय	-3589
▁मार्गे	-3590
पुत्र	-3591
▁आनन्द	-3592
▁भोजनं	-3593
▁लभ्यते	-3594
▁मव	-3595
▁लं	-3596
गुणं	-3597
▁याग	-3598
▁न्ति	-3599
▁ेष्व	-3600
▁दृष्टं	-3601
▁सम्बन्धि	-3602
राग	-3603
▁हितं	-3604
▁सरकार	-3605
रपि	-3606
श्यति	-3607
▁कृष्	-3608
▁वज्र	-3609
▁शक्र	-3610
▁अध्यक्ष	-3611
▁प्रकल्प	-3612
▁प्राप्ति	-3613
▁सकल	-3614
▁साय	-3615
▁उक्तम्	-3616
▁परिवार	-3617
▁दौ	-3618
▁युष्म	-3619
▁क्षेत्रं	-3620
पय	-3621
दत्	-3622
ानः	-3623
▁तीव	-3624
्राणां	-3625
▁प्राधान	-3626
▁गृहीत्वा	-3627
ाले	-3628
लोक्य	-3629
▁मुने	-3630
▁प्राग	-3631
▁शरीरं	-3632
▁निर्णय	-3633
▁खि	-3634
▁उपल	-3635
क्तिः	-3636
▁परिष	-3637
▁हरिः	-3638
▁अकरोत्	-3639
▁श्रद्ध	-3640
ol	-3641
रेक	-3642
▁दल	-3643
भूत्	-3644
▁वसु	-3645
▁भूमौ	-3646
स्माकं	-3647
▁सन्तु	-3648
▁निम्	-3649
▁यद्वा	-3650
▁रच	-3651
क्ष्	-3652
▁युगे	-3653
▁नेत्र	-3654
▁इत्यपि	-3655
▁दरिद्र	-3656
▁उत्पादन	-3657
▁संस्कृति	-3658
्वी	-3659
▁भुक्त	-3660
▁मित्रं	-3661
▁स्त्रीणां	-3662
▁टे	-3663
ृतम्	-3664
▁धीम	-3665
▁माग	-3666
▁षोड	-3667
▁स्तव	-3668
▁प्रथमे	-3669
▁स्तम्भ	-3670
थ्	-3671
▁लॊ	-3672
▁च्व	-3673
▁दुः	-3674
▁सभा	-3675
▁ाच्च	-3676
id	-3677
ह्	-3678
▁घन	-3679
▁जो	-3680
▁नागर	-3681
▁विभाषा	-3682
▁द्वितीयं	-3683
xt	-3684
ूढ	-3685
तोः	-3686
समा	-3687
▁थु	-3688
▁शिख	-3689
▁गुणाः	-3690
▁पृच्छ	-3691
▁दक्षिणे	-3692
▁असि	-3693
▁भया	-3694
▁अन्न	-3695
िना	-3696
ेयं	-3697
▁खु	-3698
प्ता	-3699
▁भूप	-3700
▁ोत्त	-3701
▁सर्वस्य	-3702
ज़	-3703
थम	-3704
▁रवि	-3705
▁िष्य	-3706
▁धर्मो	-3707
▁परमाण	-3708
▁हिन्द	-3709
▁SF	-3710
विंश	-3711
▁विरो	-3712
▁श्रे	-3713
▁कार्याणि	-3714
▁at	-3715
▁वल	-3716
▁ऽथ	-3717
▁नाथ	-3718
स्त्व	-3719
▁ऊर्ध	-3720
▁तमेव	-3721
▁सार्ध	-3722
▁तत्रा	-3723
▁प्राणा	-3724
ुषा	-3725
▁राशि	-3726
▁स्मरण	-3727
ांश	-3728
▁50	-3729
▁शिष	-3730
▁ाश्च	-3731
▁शक्नु	-3732
▁केवलम्	-3733
▁भार्या	-3734
▁प्राधिकरण	-3735
स्तव	-3736
▁अने	-3737
▁एकादश	-3738
▁सैन्य	-3739
▁एतेषां	-3740
ate	-3741
थाः	-3742
ात्मा	-3743
▁लिखित	-3744
▁किमर्थं	-3745
▁खल	-3746
▁नान	-3747
▁फलम्	-3748
▁बहुव	-3749
▁प्रेर	-3750
▁बालकः	-3751
चरेत्	-3752
र्हसि	-3753
▁तदनु	-3754
▁सकलं	-3755
▁कर्तृ	-3756
▁स्थिर	-3757
▁ाभ्या	-3758
ण्ट	-3759
शाला	-3760
▁सचिव	-3761
▁श्रेण	-3762
▁कार्यक्रम	-3763
ws	-3764
▁ऋण	-3765
▁र्त	-3766
▁तात्	-3767
▁प्रशं	-3768
▁}	-3769
▁28	-3770
िकम्	-3771
▁वद्	-3772
▁चर्च	-3773
▁पाणि	-3774
▁क्षणं	-3775
▁चिकित्स	-3776
▁मनुष्या	-3777
यनं	-3778
ेशः	-3779
▁गज	-3780
▁चौ	-3781
▁पान	-3782
▁सागर	-3783
▁निष्ठ	-3784
▁प्रक्रिया	-3785
▁महत्वपूर्ण	-3786
▁मिल	-3787
▁शिर	-3788
दिश्य	-3789
▁राजनी	-3790
▁ानुसार	-3791
▁त्वर	-3792
▁भुवि	-3793
▁मह्यं	-3794
▁लाखों	-3795
▁वीर्य	-3796
▁सम्भाव	-3797
▁श्रूयते	-3798
▁सम्प्रति	-3799
▁रुच	-3800
▁तन्न	-3801
▁सर्वाः	-3802
वस	-3803
भवः	-3804
दात्	-3805
रण्य	-3806
स्तं	-3807
ीकरण	-3808
▁नम्	-3809
▁कानि	-3810
▁पुत्रं	-3811
▁परस्परं	-3812
ितु	-3813
▁मद्	-3814
▁नन्द	-3815
▁पापं	-3816
▁कस्या	-3817
▁वाञ्छ	-3818
▁स्यैव	-3819
▁पुरुषं	-3820
ितौ	-3821
▁ईश	-3822
▁यी	-3823
▁िन	-3824
▁तेऽ	-3825
▁नहीं	-3826
▁इत्येतद्	-3827
▁णा	-3828
▁तुम	-3829
ित्या	-3830
▁शक्यं	-3831
▁स्तदा	-3832
▁ान्तर	-3833
▁करिष्य	-3834
▁विद्यमान	-3835
▁Q	-3836
▁अ॒	-3837
्वास	-3838
▁याद	-3839
▁हार	-3840
▁तद्ध	-3841
▁महारा	-3842
▁वदन्ति	-3843
▁आम	-3844
▁तय	-3845
▁गौर	-3846
▁१९९	-3847
▁ेत्या	-3848
▁स्वरूपं	-3849
▁प्रविश्य	-3850
दम्	-3851
▁(2	-3852
▁तक	-3853
▁कामं	-3854
▁संशोध	-3855
श्रेष्ठ	-3856
▁प्रिया	-3857
ाण	-3858
लयस्य	-3859
▁नामानि	-3860
▁सूत्रे	-3861
▁लक्षणम्	-3862
▁पय	-3863
त्मक	-3864
▁2019	-3865
▁कालो	-3866
त्यर्थः	-3867
जग	-3868
▁गतो	-3869
▁इच्छा	-3870
▁पुराण	-3871
▁वर्धते	-3872
▁रेव	-3873
▁2020	-3874
▁द्रु	-3875
▁II	-3876
▁दध	-3877
क्ते	-3878
ञ्जन	-3879
▁निश	-3880
▁त्रै	-3881
▁मुखं	-3882
▁करोतु	-3883
▁श्राद्ध	-3884
▁समि	-3885
▁स्वर्ण	-3886
▁सुरक्षा	-3887
ितां	-3888
▁नाग	-3889
ग्रहः	-3890
▁तच्छ	-3891
▁तस्यां	-3892
▁परमात्म	-3893
el	-3894
फ्	-3895
भारः	-3896
▁कपि	-3897
▁भवद्	-3898
▁विवा	-3899
▁पश्यामि	-3900
▁४१	-3901
▁पत्त	-3902
▁गुरुः	-3903
▁त्याग	-3904
▁स्मृतः	-3905
▁त्वाद	-3906
▁पत्रं	-3907
▁स्वस्थ	-3908
▁ाऽ	-3909
▁पाय	-3910
▁माध	-3911
▁रिप	-3912
▁ेश्व	-3913
▁अद्या	-3914
ब्रवीत्	-3915
▁ग्रहणम्	-3916
रुप	-3917
▁03	-3918
िक्र	-3919
▁िका	-3920
▁करणं	-3921
वर्तते	-3922
▁निवार	-3923
▁यस्या	-3924
▁दिनानि	-3925
दम	-3926
ौं	-3927
व्र	-3928
▁यै	-3929
▁धेन	-3930
▁एवमेव	-3931
▁याःगु	-3932
▁साहाय	-3933
▁स्तस्य	-3934
▁कुर्वन्	-3935
▁(=	-3936
▁ची	-3937
▁मथ	-3938
▁ास	-3939
कृता	-3940
दिना	-3941
▁मेष	-3942
▁वाक्	-3943
▁समुप	-3944
कारस्य	-3945
▁त्वत्	-3946
▁विधाय	-3947
▁भृ	-3948
▁भूता	-3949
▁भ्या	-3950
▁विवेक	-3951
▁षष्ठी	-3952
▁चु	-3953
▁ेत	-3954
▁पीत	-3955
▁अतीत	-3956
▁दिशि	-3957
▁व्यो	-3958
▁आवेदन	-3959
▁विपर्य	-3960
▁पोष	-3961
▁नामा	-3962
▁ादिकं	-3963
▁कश्चिद्	-3964
कर्त	-3965
▁एताव	-3966
▁योनि	-3967
▁ञ	-3968
▁भूय	-3969
▁वचना	-3970
▁स्त्वं	-3971
ांत	-3972
ासा	-3973
▁वेश	-3974
▁ाणि	-3975
▁क्षय	-3976
▁चकार	-3977
▁तर्क	-3978
▁पदम्	-3979
▁पुत्रो	-3980
न्नः	-3981
▁तदु	-3982
▁भ्रा	-3983
▁यामि	-3984
▁रणे	-3985
▁रति	-3986
▁प्रप	-3987
▁पूजां	-3988
▁रिक्त	-3989
▁वृद्धिः	-3990
०१	-3991
ear	-3992
ध्व	-3993
▁पै	-3994
▁गिर	-3995
▁लाल	-3996
▁महान	-3997
▁निद्रा	-3998
▁साधारण	-3999
▁श्रद्धा	-4000
▁राष्ट्रपति	-4001
हम	-4002
▁is	-4003
धिष्ठ	-4004
▁दन्त	-4005
▁इत्येवं	-4006
▁छात्राः	-4007
▁पर्यावरण	-4008
ङ्गा	-4009
▁संह	-4010
▁ितः	-4011
▁धर्मं	-4012
▁पात्र	-4013
▁समन्त	-4014
▁अग्निः	-4015
▁परित्य	-4016
वर्ण	-4017
मार्ग	-4018
▁जातं	-4019
▁मरणं	-4020
▁बुद्धिः	-4021
▁हन	-4022
▁पाकि	-4023
▁याना	-4024
▁दुग्ध	-4025
▁साक्षि	-4026
यान	-4027
▁बै	-4028
▁इत्यत	-4029
▁गृह्ण	-4030
▁इम	-4031
योगः	-4032
▁क्ली	-4033
▁संबं	-4034
▁जीवति	-4035
▁राज्ञः	-4036
▁यस्मात्	-4037
▁विशेषेण	-4038
ायण	-4039
▁इमं	-4040
कृतिः	-4041
▁अर्ज	-4042
▁कालेन	-4043
▁धार्म	-4044
▁ईश्वरः	-4045
▁घो	-4046
विधं	-4047
लक्षण	-4048
▁कामः	-4049
▁संशय	-4050
▁पिण्ड	-4051
▁दीन	-4052
▁2018	-4053
▁भावा	-4054
▁योगी	-4055
▁कान्त	-4056
▁मूर्ख	-4057
मुच्यते	-4058
▁तयो	-4059
▁महाब	-4060
▁लज्ज	-4061
▁ततश्च	-4062
▁धातुः	-4063
▁५५	-4064
▁कौश	-4065
▁तवा	-4066
▁मही	-4067
्येति	-4068
च्वंगु	-4069
त्राणां	-4070
▁पूर्वा	-4071
ing	-4072
ालय	-4073
▁फि	-4074
▁कुतो	-4075
▁मुहू	-4076
▁विभिन्न	-4077
▁व्	-4078
श्रम	-4079
▁धृत	-4080
▁निवास	-4081
▁अधिकारी	-4082
▁संविधान	-4083
▁j	-4084
प्रे	-4085
स्माद्	-4086
▁परीक्ष	-4087
▁प्रत्यु	-4088
ra	-4089
यौ	-4090
▁चिर	-4091
▁स्वः	-4092
▁त्रीणि	-4093
▁प्राति	-4094
ig	-4095
सीद	-4096
▁द्रो	-4097
▁पदस्य	-4098
▁स्फुट	-4099
▁्त	-4100
▁एषां	-4101
▁प्रजाः	-4102
▁Re	-4103
▁िष	-4104
दानं	-4105
▁आदेश	-4106
▁लोकः	-4107
▁सर्वम	-4108
▁आर्थिक	-4109
▁पूर्वे	-4110
▁अध्यायः	-4111
०००	-4112
▁40	-4113
▁जक	-4114
क्षं	-4115
▁करं	-4116
▁गृह्य	-4117
▁विहाय	-4118
▁प्रदूष	-4119
▁त्यक्त्वा	-4120
लय्	-4121
▁जर	-4122
▁केत	-4123
▁कृपा	-4124
▁परिभाष	-4125
▁सर्वथा	-4126
मति	-4127
हिं	-4128
▁३४	-4129
र्णा	-4130
▁शील	-4131
▁ष्य	-4132
▁अतएव	-4133
▁धीरे	-4134
▁मानस	-4135
▁चिकित्	-4136
▁वन्द	-4137
▁यजमान	-4138
▁राजनि	-4139
▁पुत्रा	-4140
▁सर्वैः	-4141
▁स्थितं	-4142
▁प्रतिष्ठा	-4143
ुते	-4144
्ने	-4145
▁४७	-4146
▁घात	-4147
▁सात	-4148
▁कण्ठ	-4149
▁on	-4150
▁अर	-4151
▁the	-4152
▁धया	-4153
न्तम्	-4154
iii	-4155
ुषु	-4156
च्छि	-4157
▁अण्	-4158
▁यशः	-4159
▁सञ्	-4160
▁सुहृ	-4161
▁शास्त	-4162
▁वक्ष्य	-4163
भं	-4164
भौ	-4165
wer	-4166
रात	-4167
▁क्य	-4168
न्तरे	-4169
▁विषया	-4170
▁ऽऽ	-4171
▁केचन	-4172
▁ित्य	-4173
▁Ar	-4174
▁४९	-4175
ादेव	-4176
▁घटना	-4177
▁द्यो	-4178
▁मूलं	-4179
▁लोकं	-4180
▁शिक्षण	-4181
▁%	-4182
ेनि	-4183
▁st	-4184
▁नाभि	-4185
▁द्वयं	-4186
▁भावेन	-4187
▁नरा	-4188
ान्तरे	-4189
▁द्वन्द	-4190
▁विधिना	-4191
जु	-4192
नम	-4193
राः	-4194
▁४४	-4195
कृत्	-4196
▁कैः	-4197
▁दशा	-4198
ितुम्	-4199
▁तर्प	-4200
▁समुद	-4201
▁विचित्र	-4202
▁प्राप्तं	-4203
▁इत्युच्यते	-4204
करो	-4205
ष्यते	-4206
त्तमम्	-4207
ुक्तम्	-4208
▁इच्छति	-4209
▁प्रज्ञा	-4210
-2	-4211
शील	-4212
▁ऽभि	-4213
सहस्र	-4214
▁व्यप	-4215
दपि	-4216
र्मा	-4217
ग्राम	-4218
▁त्रय	-4219
▁सहसा	-4220
▁कल्याण	-4221
▁प्राप्तः	-4222
▁प्रोक्ता	-4223
▁साथ	-4224
▁पातु	-4225
▁हन्ति	-4226
▁दृष्टा	-4227
▁प्रियं	-4228
▁द्रष्टुं	-4229
ब्ब	-4230
रीं	-4231
शिया	-4232
▁गुह	-4233
▁पराम	-4234
स्तीति	-4235
▁एतानि	-4236
▁पृष्ट	-4237
▁विज्ञानं	-4238
▁प्राप्यते	-4239
गमन	-4240
रति	-4241
▁०१	-4242
▁४८	-4243
▁कर्ष	-4244
▁चेष्ट	-4245
▁इत्यस्मात्	-4246
रीय	-4247
▁02	-4248
▁०३	-4249
म्बर	-4250
▁दाह	-4251
▁सत्त	-4252
▁समूह	-4253
▁सर्प	-4254
▁यान्ति	-4255
ृश्य	-4256
▁अमरः	-4257
▁भाष्य	-4258
▁वृष्ट	-4259
▁सुप्र	-4260
▁पृष्ठं	-4261
▁ार्थम्	-4262
▁इत्युक्ते	-4263
ही	-4264
कीय	-4265
सङ्	-4266
ायन	-4267
▁ङी	-4268
▁शून	-4269
▁ऽन्य	-4270
▁निष्क	-4271
▁हस्ते	-4272
▁कल्पना	-4273
▁वर्षस्य	-4274
चनं	-4275
प्स	-4276
हुः	-4277
र्त्त	-4278
▁अवदत्	-4279
▁वय्कः	-4280
▁श्राव	-4281
▁संभाव	-4282
▁ात्मक	-4283
▁संहिता	-4284
पदे	-4285
कृतिक	-4286
प्यते	-4287
▁न्तर	-4288
▁भक्त्या	-4289
▁संरक्षण	-4290
ढ़	-4291
किं	-4292
थाय	-4293
▁गाव	-4294
▁ध्ये	-4295
▁येत्	-4296
▁विधा	-4297
▁व्याघ्र	-4298
▁स्थानम्	-4299
▁प्राप्ता	-4300
जात	-4301
▁कत	-4302
▁द्यु	-4303
▁इत्थं	-4304
▁दीयते	-4305
▁अवश्यं	-4306
▁दृष्ट्या	-4307
ro	-4308
▁ब्	-4309
▁तदन	-4310
▁सत्या	-4311
▁ात्मा	-4312
▁कार्ये	-4313
▁दत्त्वा	-4314
▁वया	-4315
▁वरा	-4316
▁ग्नि	-4317
▁स्थल	-4318
▁अधिकं	-4319
▁दत्तं	-4320
▁भावना	-4321
▁वार्षिक	-4322
▁प्रतिषेधः	-4323
गू	-4324
धौ	-4325
▁फ़	-4326
▁मणि	-4327
▁भागं	-4328
▁युवा	-4329
▁पितुः	-4330
▁कारयेत्	-4331
▁कर्तव्यः	-4332
▁लक्ष्यते	-4333
▁प्रार्थना	-4334
▁वत	-4335
▁वैद	-4336
ज्ञात	-4337
▁Next	-4338
▁द्वेष	-4339
▁रित्य	-4340
▁ार्थः	-4341
▁देवताः	-4342
▁ध्यानं	-4343
▁प्रभुः	-4344
▁प्रतिनि	-4345
▁29	-4346
गृह्य	-4347
▁प्रकृतिः	-4348
कृतः	-4349
▁तपः	-4350
▁षड्	-4351
▁नगरं	-4352
दिष्टम्	-4353
▁यथोक्त	-4354
▁मात्रेण	-4355
▁सिध्यति	-4356
▁परस्परम्	-4357
ादौ	-4358
▁01	-4359
▁re	-4360
▁०२	-4361
न्ता	-4362
भूति	-4363
▁गताः	-4364
▁दुरा	-4365
▁भूतं	-4366
▁निन्द	-4367
▁ाग्नि	-4368
▁विस्तार	-4369
▁गीत	-4370
णियां	-4371
▁आधुन	-4372
▁जिला	-4373
▁यात्र	-4374
▁राक्षस	-4375
▁विपरीत	-4376
▁परम्परा	-4377
▁पार्श्व	-4378
ov	-4379
ें	-4380
▁४२	-4381
क्रमः	-4382
▁वाणि	-4383
▁अस्माभिः	-4384
▁सम्बन्धी	-4385
▁घा	-4386
▁दय	-4387
▁राश	-4388
▁शता	-4389
▁पण्ड	-4390
▁तेनैव	-4391
▁स्युः	-4392
▁दृश्यम्	-4393
▁धनु	-4394
▁रुचि	-4395
▁विवरण	-4396
▁ेभ्यो	-4397
▁ृ	-4398
▁कष	-4399
▁जै	-4400
▁यव	-4401
▁द्ध	-4402
▁धूम	-4403
▁Answer	-4404
▁प्रदेशे	-4405
▁स्वास्थ्य	-4406
us	-4407
ेर्	-4408
▁रौ	-4409
पृष्ठ	-4410
▁भवत्	-4411
▁प्रचल	-4412
▁समस्या	-4413
▁सम्बन्धः	-4414
▁प्राप्तिः	-4415
ost	-4416
स्फ	-4417
कम्ः	-4418
हारः	-4419
▁ाचार	-4420
▁दैत्य	-4421
▁बहूनि	-4422
▁चतुर्दश	-4423
▁विद्वान्	-4424
▁ऋत	-4425
▁पण	-4426
▁वप	-4427
▁इन्द	-4428
▁दिवि	-4429
▁व्युत्	-4430
▁संकल्प	-4431
▁संभवति	-4432
क्ल	-4433
द्द	-4434
▁४६	-4435
▁दिवसे	-4436
▁समुद्	-4437
▁राष्ट्रे	-4438
रस	-4439
पाप	-4440
▁६०	-4441
▁स्तः	-4442
▁क्रमशः	-4443
ive	-4444
हति	-4445
▁योगः	-4446
▁वारि	-4447
▁विशि	-4448
▁स्वीकृत	-4449
भी	-4450
शतं	-4451
्रं	-4452
▁=>	-4453
▁लव	-4454
ज्या	-4455
▁मदु	-4456
▁लौक	-4457
दृश्य	-4458
▁कष्ट	-4459
▁कथयति	-4460
▁श्रोत	-4461
ha	-4462
ङि	-4463
▁6.	-4464
▁३८	-4465
▁रचना	-4466
▁लोपः	-4467
▁ानाम	-4468
▁जीवित	-4469
▁लक्षणा	-4470
▁सौभाग्य	-4471
▁पुरुषस्य	-4472
▁अन्तरिक्ष	-4473
स्स	-4474
▁al	-4475
▁मना	-4476
▁मुद	-4477
▁मेदि	-4478
▁भवतां	-4479
▁साधनं	-4480
▁साधार	-4481
▁युज्यते	-4482
नग	-4483
▁असौ	-4484
▁उल्	-4485
कानां	-4486
▁व्यय	-4487
▁पुनरा	-4488
▁प्रभु	-4489
▁प्रिये	-4490
▁वार्ता	-4491
▁मित्यर्थः	-4492
@1	-4493
धर	-4494
पुर	-4495
श्न	-4496
भावे	-4497
▁गतौ	-4498
▁यया	-4499
▁यूप	-4500
▁उद्ध	-4501
▁शेषं	-4502
ध्यक्ष	-4503
▁कर्तुम्	-4504
्यै	-4505
प्नु	-4506
▁च्च	-4507
▁नरक	-4508
▁सम्भाष	-4509
▁वैज्ञान	-4510
टं	-4511
ेतत्	-4512
▁चेद	-4513
▁तनु	-4514
क्षया	-4515
▁प्रयच्छ	-4516
्रो	-4517
▁क्वा	-4518
▁विदुः	-4519
▁प्राप्तवान्	-4520
▁35	-4521
▁हां	-4522
▁ऽयं	-4523
चिदपि	-4524
▁मतम्	-4525
▁जीवितं	-4526
▁श्रुतिः	-4527
॒व	-4528
धिकारिक	-4529
▁आच	-4530
▁आर्	-4531
▁इती	-4532
▁मोद	-4533
विष्ट	-4534
▁निपा	-4535
▁कक्षा	-4536
▁चित्तं	-4537
▁सर्वभू	-4538
▁अस्मान्	-4539
▁सामान्यतः	-4540
घव	-4541
▁छे	-4542
▁धे	-4543
▁ऽप	-4544
▁कूप	-4545
▁नाद	-4546
▁ादिति	-4547
▁पूर्वम्	-4548
▁पूर्वेण	-4549
▁चिकित्सा	-4550
▁प्रयोजनं	-4551
ैष	-4552
▁32	-4553
▁३९	-4554
र्धा	-4555
▁अयम	-4556
▁भोः	-4557
▁भूत्	-4558
▁शासन	-4559
▁अवश्य	-4560
▁ध्याय	-4561
▁नियमः	-4562
दिश्यते	-4563
▁प्रियः	-4564
▁यथाशक्ति	-4565
▁प्रवक्ष्यामि	-4566
हन	-4567
॒त	-4568
प्ल	-4569
▁शम	-4570
▁सख	-4571
ूर्ण	-4572
▁ोद्	-4573
▁नूतन	-4574
▁भाति	-4575
▁अन्ते	-4576
▁निरोध	-4577
▁सत्ता	-4578
▁अवस्था	-4579
▁जनार्द	-4580
▁गृह्यते	-4581
▁तत्सर्व	-4582
ुपा	-4583
शब्द	-4584
▁आधार	-4585
▁कम्प	-4586
▁काङ्	-4587
▁ग्रा	-4588
▁दर्प	-4589
▁महोदय	-4590
▁तत्त्वं	-4591
▁लोकानां	-4592
▁पुनर्निर्	-4593
▁प्रयत्नेन	-4594
मू	-4595
खिल	-4596
ण्या	-4597
▁रसो	-4598
▁छाया	-4599
▁जाने	-4600
▁लोका	-4601
▁करुणा	-4602
▁कुम्भ	-4603
▁धातोः	-4604
▁वाच्य	-4605
ff	-4606
रौ	-4607
▁५२	-4608
व्ये	-4609
स्वी	-4610
त्याः	-4611
▁गुरो	-4612
▁द्वय	-4613
▁सस्य	-4614
▁सहस्राणि	-4615
▁हू	-4616
भवति	-4617
भेदे	-4618
▁अथे	-4619
▁विस	-4620
▁लम्ब	-4621
▁शिष्य	-4622
▁अधः	-4623
▁माण	-4624
▁गृहम्	-4625
▁समुत्	-4626
▁दद्यात्	-4627
करः	-4628
वद्	-4629
▁गमन	-4630
▁वाप	-4631
▁अन्ध	-4632
▁कारः	-4633
▁प्या	-4634
वृत्ति	-4635
▁इत्यु	-4636
▁स्पृश	-4637
▁तद्यथा	-4638
▁त्वाद्	-4639
▁भूतानि	-4640
▁तत्रापि	-4641
▁अधोलिखितानि	-4642
▁or	-4643
▁वेतन	-4644
पत्तेः	-4645
▁उक्तः	-4646
▁पुरतः	-4647
▁योगदान	-4648
▁स्थितो	-4649
▁आधिकारिक	-4650
▁दृश्यन्ते	-4651
ोट	-4652
लोप	-4653
शक्त	-4654
ेष्ट	-4655
▁जगति	-4656
▁रत्न	-4657
▁सन्न	-4658
▁मार्गः	-4659
▁विद्यार्थ	-4660
श्वर्य	-4661
▁प्रकी	-4662
▁भवेद्	-4663
▁मानवः	-4664
▁मिच्छ	-4665
▁उत्तरं	-4666
em	-4667
▁"'	-4668
▁चिद	-4669
▁तत्व	-4670
▁महात्म	-4671
▁साभारः	-4672
▁पदार्थः	-4673
▁सामग्री	-4674
▁स्ट	-4675
▁मनुः	-4676
▁अन्यः	-4677
▁उत्तरा	-4678
▁पुनरपि	-4679
▁वेत्ति	-4680
▁सङ्कल्प	-4681
घात	-4682
सान	-4683
पुंस	-4684
र्षि	-4685
▁नील	-4686
▁पद्म	-4687
▁व्याप्त	-4688
भवा	-4689
याय	-4690
ांसि	-4691
▁पठति	-4692
▁क्षणे	-4693
▁सुखम्	-4694
▁दृष्टः	-4695
▁विद्यु	-4696
▁निर्णयः	-4697
▁प्रत्ययो	-4698
ans	-4699
ेद्	-4700
▁कप	-4701
▁ऋतु	-4702
▁मुत्	-4703
▁सन्धि	-4704
▁अनन्तरं	-4705
▁परिसन्ध	-4706
▁पार्श्वे	-4707
▁वर्तन्ते	-4708
ीपी	-4709
▁धृ	-4710
ामहे	-4711
▁एस्	-4712
▁णां	-4713
▁ततॊ	-4714
▁समे	-4715
▁तदाह	-4716
▁ेऽपि	-4717
ir	-4718
पान	-4719
▁ing	-4720
चारिक	-4721
▁जनता	-4722
▁योगे	-4723
▁द्वितीयः	-4724
ैल	-4725
क्व	-4726
ारोह	-4727
▁महो	-4728
▁केनापि	-4729
▁वाक्ये	-4730
▁किंचित्	-4731
▁स्वार्थ	-4732
ut	-4733
क्स	-4734
गतं	-4735
▁मई	-4736
▁हत	-4737
▁आया	-4738
▁जिह	-4739
▁तमा	-4740
▁तान	-4741
▁हिम	-4742
▁श्रवण	-4743
▁देवदेव	-4744
▁मुहूर्त	-4745
नीं	-4746
▁औप	-4747
▁८०	-4748
कारण	-4749
▁दिल	-4750
▁देवे	-4751
▁हिंस	-4752
▁भेदेन	-4753
▁स्वामी	-4754
▁ोऽस्ति	-4755
▁स्वाभाव	-4756
▁प्रारम्भ	-4757
▁प्रतिज्ञा	-4758
दिन	-4759
▁बौ	-4760
▁असं	-4761
▁तपो	-4762
▁मयं	-4763
▁वनं	-4764
▁प्रम	-4765
▁नियुक्त	-4766
ur	-4767
पदा	-4768
र्ड	-4769
▁दारि	-4770
▁नूनं	-4771
▁भारतं	-4772
▁स्तेन	-4773
करं	-4774
ग्य	-4775
▁अद्	-4776
▁महं	-4777
▁सलि	-4778
▁कुमार	-4779
▁अधिकृत	-4780
▁तस्यैव	-4781
▁समुच्च	-4782
▁St	-4783
नीयं	-4784
लम्ब	-4785
वारं	-4786
▁हिमा	-4787
▁ब्रवी	-4788
▁मात्म	-4789
▁यितुं	-4790
▁सप्ताह	-4791
▁ऽस्मिन्	-4792
धो	-4793
यतु	-4794
▁7.	-4795
▁तवं	-4796
कर्षण	-4797
▁कोरो	-4798
▁अस्या	-4799
▁वर्षं	-4800
▁किञ्चि	-4801
ेर	-4802
▁इन्	-4803
▁देवत	-4804
▁पुष्ट	-4805
▁इच्छामि	-4806
▁संबंधनं	-4807
▁राज्यस्य	-4808
▁समर्पयामि	-4809
न्दन	-4810
न्दा	-4811
▁चीन	-4812
योजना	-4813
▁तुम्	-4814
▁योगि	-4815
▁श्वः	-4816
▁वर्द्ध	-4817
▁स्यादिति	-4818
▁प्रतिबन्ध	-4819
▁टिप्पणियां	-4820
▁५७	-4821
पत्य	-4822
▁कूट	-4823
▁ञ्ज	-4824
▁नेन	-4825
▁योर	-4826
▁शोच	-4827
▁मद्य	-4828
▁्यते	-4829
▁त्वाम	-4830
▁वक्ष्यामि	-4831
oo	-4832
नीया	-4833
कार्य	-4834
च्छत्	-4835
▁ज्वल	-4836
▁मंत्र	-4837
▁द्वितीये	-4838
▁निर्देशः	-4839
पृथ	-4840
▁डो	-4841
▁५४	-4842
योजन	-4843
ान्ध	-4844
▁आवि	-4845
▁केर	-4846
▁मिह	-4847
▁प्रभात	-4848
ul	-4849
कौ	-4850
ानो	-4851
पतिः	-4852
▁सती	-4853
▁१९७	-4854
▁गम्य	-4855
▁शरीरे	-4856
▁मात्रे	-4857
नया	-4858
ल्म	-4859
िंग	-4860
▁आं	-4861
▁जला	-4862
▁विधानं	-4863
▁प्रयोक्त	-4864
xx	-4865
ess	-4866
ter	-4867
ाया	-4868
▁५१	-4869
चितं	-4870
▁इदम	-4871
▁परत	-4872
▁अन्यो	-4873
▁अभवन्	-4874
▁प्रदा	-4875
▁प्रात	-4876
▁श्रृण	-4877
▁समृद्ध	-4878
▁सर्वभूतेषु	-4879
वादी	-4880
स्रो	-4881
▁तमो	-4882
▁दाव	-4883
▁धना	-4884
▁मखु	-4885
▁ासी	-4886
▁2021	-4887
▁अनुप	-4888
▁एकाद	-4889
▁पत्य	-4890
▁विभाव	-4891
▁वैद्य	-4892
राष्ट्र	-4893
▁सृष्टि	-4894
ik	-4895
▁ायै	-4896
▁ाभ्य	-4897
▁विवक्ष	-4898
▁आवश्यकता	-4899
---	-4900
लेख	-4901
्ति	-4902
र्जा	-4903
▁मुन	-4904
▁एकम्	-4905
▁प्रग	-4906
▁तासां	-4907
▁भ्यां	-4908
▁विन्द	-4909
▁संभवः	-4910
▁संवेद	-4911
▁पुण्यं	-4912
▁इत्येतत्	-4913
▁पुरस्कार	-4914
हत	-4915
▁31	-4916
▁अप्	-4917
▁करः	-4918
▁दोषो	-4919
▁ाश	-4920
ब्धा	-4921
रूपं	-4922
सस्य	-4923
▁for	-4924
▁पते	-4925
▁र्य	-4926
▁ाऽऽ	-4927
▁ईदृश	-4928
▁महती	-4929
▁यच्छ	-4930
▁स्मृतम्	-4931
वचन	-4932
▁by	-4933
र्मः	-4934
▁ताड	-4935
▁अङ्क	-4936
▁प्रभा	-4937
ायु	-4938
▁५९	-4939
▁काश	-4940
द्यते	-4941
▁भावं	-4942
▁आन्दो	-4943
▁परस्य	-4944
▁अमेरिक	-4945
▁अर्थात्	-4946
▁हल	-4947
▁४३	-4948
▁७०	-4949
▁.....	-4950
▁क्रमात्	-4951
▁निर्वाचन	-4952
क्क	-4953
मत्	-4954
▁अंश	-4955
▁चाप	-4956
▁राय	-4957
▁संवाद	-4958
▁सम्मे	-4959
▁इत्याद	-4960
▁तुभ्यं	-4961
▁यथाविधि	-4962
मार	-4963
▁ात	-4964
न्मा	-4965
षिद्ध	-4966
ोत्तर	-4967
▁जगतः	-4968
▁रङ्ग	-4969
▁विशाल	-4970
▁सोऽपि	-4971
▁प्रदान	-4972
▁पश्यन्ति	-4973
▁स॒	-4974
▁७५	-4975
च्छया	-4976
▁ह्री	-4977
▁निम्न	-4978
▁ोत्तर	-4979
▁सम्भवः	-4980
▁आम्	-4981
ेषाम्	-4982
▁देहे	-4983
▁भूयः	-4984
▁एशिया	-4985
▁संख्य	-4986
▁समग्र	-4987
▁ज्ञानम्	-4988
▁←	-4989
ण्ण	-4990
▁जू	-4991
▁भावो	-4992
▁वसति	-4993
▁वेदा	-4994
▁ितम्	-4995
लभ्यते	-4996
▁विवर्ज	-4997
▁स्थापना	-4998
▁निमित्तं	-4999
▁er	-5000
टुम्ब	-5001
▁दिति	-5002
▁भवन्तः	-5003
▁रक्षति	-5004
▁राजधान	-5005
▁स्त्रिया	-5006
वत	-5007
▁एन	-5008
▁ङ्	-5009
▁कारक	-5010
▁पुनरु	-5011
▁On	-5012
▁५६	-5013
▁मेक	-5014
न्नति	-5015
▁Arch	-5016
▁भोक्त	-5017
▁वचनम्	-5018
▁प्रबन्ध	-5019
▁पृथिव्या	-5020
▁प्रयत्नतः	-5021
ow	-5022
चने	-5023
▁त्वद	-5024
▁दोषा	-5025
▁नरकं	-5026
▁हरेः	-5027
▁सिद्धिः	-5028
▁डी	-5029
▁०४	-5030
ives	-5031
▁भवं	-5032
▁भाज	-5033
क्रमे	-5034
▁ब्रि	-5035
▁धारणा	-5036
▁भविष्यन्ति	-5037
ेवा	-5038
हितं	-5039
▁ङ्क	-5040
▁ततोऽ	-5041
स्थितः	-5042
▁चिह्न	-5043
▁देवदत्त	-5044
▁सर्वलोक	-5045
▁गच्छन्ति	-5046
मेति	-5047
▁तज्	-5048
▁नीत	-5049
▁सुभाष	-5050
▁युक्ता	-5051
▁विरोधः	-5052
ie	-5053
चे	-5054
▁गद	-5055
▁यि	-5056
▁ट्र	-5057
▁पिं	-5058
विशेष	-5059
▁सत्व	-5060
देशस्य	-5061
▁जिज्ञ	-5062
▁तद्वि	-5063
▁धाःसा	-5064
▁मण्डले	-5065
▁वाक्या	-5066
▁सूर्यः	-5067
▁भूतानां	-5068
▁सफ	-5069
▁तिल	-5070
▁दाता	-5071
▁वारं	-5072
▁भारती	-5073
▁समवाय	-5074
▁देवान्	-5075
▁पृष्ठे	-5076
▁जनसंख्या	-5077
कुल	-5078
▁ed	-5079
▁६५	-5080
▁क्या	-5081
▁मतिः	-5082
ीयन्ते	-5083
▁स्रोत	-5084
▁ादिना	-5085
▁अन्यत्	-5086
▁तेषाम्	-5087
▁दिव्यं	-5088
▁निर्दिष्ट	-5089
▁सिद्धान्त	-5090
कारि	-5091
▁असम	-5092
▁परमे	-5093
▁मुदा	-5094
▁षोडश	-5095
व्यक्ति	-5096
▁अभिप्राय	-5097
▁प्रविष्ट	-5098
मन्	-5099
▁(3	-5100
कारे	-5101
क्तः	-5102
त्सु	-5103
▁अहम	-5104
▁करी	-5105
▁अपरि	-5106
▁एक्स	-5107
▁त्रयः	-5108
▁पार्व	-5109
▁फलानि	-5110
▁वन्तः	-5111
▁चित्रं	-5112
▁ापेक्ष	-5113
▁कुटुम्ब	-5114
▁ज्ञानेन	-5115
▁पुस्तकं	-5116
▁~	-5117
▁लः	-5118
धारण	-5119
▁(1)	-5120
▁ाधि	-5121
▁सञ्ज	-5122
▁ग्रन्	-5123
▁द्विधा	-5124
▁सप्तदश	-5125
यिष्यामि	-5126
▁विद्यालये	-5127
डे	-5128
▁बं	-5129
धाति	-5130
ैर्य	-5131
▁वाज	-5132
▁पित्त	-5133
▁व्रतं	-5134
▁व्याधि	-5135
▁प्रदूषण	-5136
▁मन्त्री	-5137
दिव	-5138
▁:-	-5139
▁आसी	-5140
▁चान	-5141
▁2017	-5142
▁नवीन	-5143
▁सनात	-5144
▁दित्य	-5145
▁विभागः	-5146
▁अद्यापि	-5147
अथ	-5148
▁मज	-5149
▁१००	-5150
ation	-5151
▁जातम्	-5152
▁प्रसू	-5153
▁ऽस्ति	-5154
▁सूर्यो	-5155
ER	-5156
ine	-5157
मनु	-5158
मिव	-5159
करणं	-5160
▁अचि	-5161
▁मते	-5162
▁वयम	-5163
▁्यो	-5164
▁अभिन	-5165
▁परिण	-5166
▁राजन	-5167
▁अन्या	-5168
▁विघ्न	-5169
▁विलम्ब	-5170
▁सम्यग्	-5171
▁अत्यन्त	-5172
▁प्रामाण	-5173
▁सर्वनाम	-5174
▁सुखदुःख	-5175
सरे	-5176
ेदः	-5177
ल्ला	-5178
▁वरः	-5179
▁रेखा	-5180
क्रम्य	-5181
▁तीव्र	-5182
▁अन्तिम	-5183
▁परस्मै	-5184
र्ट	-5185
▁08	-5186
दिने	-5187
धिकं	-5188
▁भूष	-5189
▁चिरं	-5190
▁जगाम	-5191
▁भविष	-5192
▁सीमा	-5193
▁प्राप्	-5194
▁वास्तु	-5195
रोप	-5196
साम	-5197
ुतः	-5198
हारे	-5199
▁ग्ल	-5200
▁धीर	-5201
तिष्ठ	-5202
▁एकेन	-5203
▁ध्वं	-5204
▁भ्यो	-5205
▁पूज्य	-5206
▁कारणेन	-5207
▁निर्या	-5208
▁सूत्रं	-5209
▁04	-5210
▁आईपी	-5211
▁च्या	-5212
मासस्य	-5213
▁कुण्ड	-5214
▁क्रमः	-5215
▁रूपाणि	-5216
▁सम्मान	-5217
▁तस्मान्	-5218
▁युष्माकं	-5219
ेतु	-5220
▁जगद्	-5221
▁वाचि	-5222
▁सन्दे	-5223
▁ेन्द्र	-5224
चो	-5225
▁@	-5226
▁गव	-5227
▁वसि	-5228
▁तावद्	-5229
▁पुत्त	-5230
▁विहित	-5231
▁श्रेय	-5232
▁सुप्त	-5233
राज्यस्य	-5234
▁दारिद्र	-5235
▁विमुक्त	-5236
दर	-5237
रणा	-5238
ाग्र	-5239
▁100	-5240
▁नरो	-5241
▁पेश	-5242
▁रूपः	-5243
▁मूर्ति	-5244
▁शास्त्रं	-5245
ितम	-5246
▁शनैः	-5247
▁स्तन	-5248
्यायां	-5249
▁मेतत्	-5250
▁निष्ठा	-5251
▁विदेशी	-5252
▁संसर्ग	-5253
▁सर्वम्	-5254
▁ह्रस्व	-5255
▁मार्गेण	-5256
▁स्वार्थे	-5257
▁^	-5258
▁हव	-5259
त्तः	-5260
▁जुल	-5261
▁शाप	-5262
▁बाहु	-5263
▁मस्त	-5264
▁विदुष	-5265
▁करिष्ये	-5266
▁नुप	-5267
▁पुरु	-5268
▁मधुर	-5269
▁सिन्ध	-5270
क्रान्त	-5271
▁उपयोगः	-5272
रां	-5273
▁07	-5274
▁घृ	-5275
▁हम	-5276
त्सव	-5277
द्वि	-5278
▁जुह	-5279
▁ददौ	-5280
▁भिर	-5281
▁सहित	-5282
▁विज्ञे	-5283
▁वृत्तं	-5284
▁स्वल्प	-5285
इन	-5286
भूमि	-5287
▁पूँ	-5288
▁मतं	-5289
वचनम्	-5290
▁नागरिक	-5291
▁भवन्तु	-5292
▁ानन्तरं	-5293
▁पूर्वमेव	-5294
▁विद्यालय	-5295
▁प्राप्तुं	-5296
ck	-5297
▁ाध	-5298
▁्र	-5299
▁आपः	-5300
▁रेल	-5301
▁ऊर्ज	-5302
▁कृतो	-5303
▁मृदु	-5304
पेक्षा	-5305
▁ज्ञाने	-5306
िया	-5307
▁38	-5308
▁खं	-5309
ेतुं	-5310
▁चोद	-5311
▁नैक	-5312
▁१९८	-5313
मित्त	-5314
▁भेदा	-5315
▁यस्त	-5316
▁स्तं	-5317
▁एकस्य	-5318
▁पक्षः	-5319
▁ज्ञाना	-5320
▁राजनि०	-5321
▁सम्पन्न	-5322
्यू	-5323
▁रघ	-5324
सङ्ग	-5325
▁आगत	-5326
▁उभौ	-5327
▁पदो	-5328
स्तान	-5329
्यस्य	-5330
▁गतिं	-5331
▁दिशः	-5332
▁यन्त	-5333
▁तिथिः	-5334
▁मासस्य	-5335
▁ादिभिः	-5336
ीर्ण	-5337
▁यौव	-5338
▁गर्व	-5339
▁तपसा	-5340
▁ध्वज	-5341
▁विधे	-5342
▁हेतोः	-5343
▁साक्षा	-5344
▁ग्रीष्म	-5345
▁जानन्ति	-5346
▁फो	-5347
▁ेव	-5348
▁जाप	-5349
▁शैल	-5350
▁ुत्	-5351
कुर्व	-5352
निष्ठ	-5353
▁आयुः	-5354
▁कविः	-5355
▁देयं	-5356
▁नष्ट	-5357
▁ादपि	-5358
▁आरब्ध	-5359
▁हस्ति	-5360
▁यस्याः	-5361
▁श्रुतं	-5362
▁सिद्धम्	-5363
▁अतिरिक्त	-5364
▁तत्सर्वं	-5365
un	-5366
ालन	-5367
▁33	-5368
भावः	-5369
्रियः	-5370
▁जातो	-5371
श्रित्य	-5372
▁कथयामि	-5373
लाई	-5374
ष्क	-5375
▁उदा	-5376
▁मत्र	-5377
▁नेपाः	-5378
▁सूक्त	-5379
▁प्रचार	-5380
▁सन्दर्भ	-5381
▁स्वस्ति	-5382
▁एकस्मिन्	-5383
श्त	-5384
▁तय्	-5385
▁सर्	-5386
▁अपना	-5387
▁वासि	-5388
▁सुखी	-5389
▁अक्षर	-5390
▁कानून	-5391
▁निवेदन	-5392
▁साक्षात्कार	-5393
पथ	-5394
सव	-5395
लिक	-5396
ध्वं	-5397
▁ावि	-5398
▁एवेति	-5399
▁श्चापि	-5400
▁एवमुक्त	-5401
▁गृह्णाति	-5402
▁प्रजायते	-5403
▁(?	-5404
▁णं	-5405
▁हस	-5406
▁वल्	-5407
▁दुगु	-5408
▁वाहन	-5409
▁पित्र	-5410
▁वेदना	-5411
▁वृक्षः	-5412
▁आत्मानं	-5413
▁साम्प्र	-5414
se	-5415
000	-5416
ीयो	-5417
्येक	-5418
▁१९४	-5419
▁जन्त	-5420
▁मुञ्च	-5421
▁जन्मनि	-5422
▁युक्तम्	-5423
▁कर्तव्या	-5424
▁पूर्ववत्	-5425
दिः	-5426
ाप्य	-5427
▁शुच	-5428
्येते	-5429
▁प्रवाह	-5430
▁ात्मकं	-5431
▁त्रयोदश	-5432
▁मृत्युः	-5433
▁यथाक्रम	-5434
ct	-5435
▁ar	-5436
▁आज	-5437
श्वरः	-5438
▁ङीष्	-5439
▁भयम्	-5440
▁शिवः	-5441
▁हिता	-5442
श्चित्	-5443
▁शुभम्	-5444
▁सद्यः	-5445
▁यित्वा	-5446
▁Archives	-5447
▁गमिष्यामि	-5448
▁th	-5449
च्या	-5450
सारं	-5451
▁चैक	-5452
▁भिष	-5453
▁मेन	-5454
▁मांस	-5455
▁लाभः	-5456
▁ह्या	-5457
▁गुप्त	-5458
▁विषयं	-5459
▁युक्ते	-5460
▁इदानीम्	-5461
▁स्थिताः	-5462
▁विश्वस्य	-5463
तीत	-5464
ाहं	-5465
▁de	-5466
स्थि	-5467
िकां	-5468
▁तस्	-5469
▁धाम	-5470
▁समव	-5471
▁होम	-5472
▁ांश	-5473
▁दिवं	-5474
▁अप्वः	-5475
▁यत्तु	-5476
▁विधेय	-5477
▁स्कन्ध	-5478
▁पृथिव्यां	-5479
धु	-5480
▁(4	-5481
▁05	-5482
▁अरे	-5483
▁चैत	-5484
▁तुं	-5485
▁माद	-5486
▁मुखे	-5487
▁व्यभि	-5488
▁समाना	-5489
▁कर्मणः	-5490
▁उत्तरम्	-5491
▁करणीयम्	-5492
▁कारणात्	-5493
भवं	-5494
लाप	-5495
▁टा	-5496
▁सप	-5497
भूतं	-5498
▁कोप	-5499
▁पाक	-5500
▁माः	-5501
▁निशा	-5502
▁नपुंस	-5503
▁भूमिः	-5504
▁प्राची	-5505
▁प्रभावः	-5506
▁प्रयत्न	-5507
▁प्रयोगे	-5508
▁वाच्यम्	-5509
▁व्याख्यान	-5510
एम	-5511
॑ः	-5512
▁en	-5513
▁फे	-5514
स्ये	-5515
▁अपर	-5516
▁आर्य	-5517
▁कोवि	-5518
▁गान्	-5519
▁परति	-5520
▁पुरः	-5521
▁शुभं	-5522
▁त्रयं	-5523
▁ददर्श	-5524
▁कार्यः	-5525
▁न्ह्यः	-5526
▁संसारे	-5527
▁सहस्रं	-5528
▁स्वच्छ	-5529
▁विशेषणम्	-5530
▁प्रशिक्षु	-5531
ताम	-5532
▁अर्	-5533
▁बिभ	-5534
▁रिव	-5535
▁वेष	-5536
▁भूते	-5537
▁सुतः	-5538
▁गृहाण	-5539
▁बहुव्री	-5540
टल	-5541
मुप	-5542
▁जाये	-5543
▁ोऽहं	-5544
▁प्रकट	-5545
▁शब्दं	-5546
▁अधिकरण	-5547
▁आधुनिक	-5548
▁मूल्यं	-5549
▁क्रान्त	-5550
▁प्रायश्च	-5551
▁सर्वेषाम	-5552
जाः	-5553
खण्ड	-5554
▁अच्	-5555
▁दूत	-5556
न्यास	-5557
▁मानः	-5558
▁बौद्ध	-5559
ताप	-5560
दोष	-5561
भात	-5562
रन्	-5563
▁तमि	-5564
▁१९५	-5565
▁ानुप	-5566
क्रिया	-5567
▁न्ह्य	-5568
▁परितः	-5569
▁विराज	-5570
▁अस्यां	-5571
▁कृत्स्	-5572
▁तृतीये	-5573
▁प्रदेशः	-5574
▁तात्पर्य	-5575
आर	-5576
▁भृश	-5577
▁यज्ञं	-5578
▁सर्गः	-5579
▁परिमाण	-5580
▁राजानं	-5581
▁ज्योतिः	-5582
▁पश्चिमे	-5583
▁भवितव्यम्	-5584
पत	-5585
निः	-5586
▁36	-5587
▁कट	-5588
▁शः	-5589
र्हि	-5590
ैरपि	-5591
▁सरल	-5592
ामिति	-5593
▁कुशल	-5594
▁दारु	-5595
▁वन्य	-5596
▁वरुण	-5597
▁एतदेव	-5598
▁स्वयम	-5599
▁ादीनि	-5600
▁पुरुषा	-5601
▁प्राग्	-5602
▁मासीत्	-5603
▁यायेगु	-5604
▁स्तुति	-5605
▁न्यूनतम	-5606
▁उदाहरणम्	-5607
▁निवृत्ति	-5608
▁मन्यन्ते	-5609
ग्व	-5610
▁),	-5611
प्रा	-5612
र्षे	-5613
▁आशी	-5614
▁निब	-5615
▁पथि	-5616
▁नन्व	-5617
▁मन्व	-5618
▁दिष्ट	-5619
▁स्त्रियः	-5620
पास	-5621
▁37	-5622
▁1.1	-5623
▁पयो	-5624
क्षिक	-5625
▁विद्	-5626
▁संनि	-5627
▁सुरा	-5628
▁प्रवास	-5629
di	-5630
एं	-5631
पते	-5632
ेशे	-5633
▁णे	-5634
▁सूत	-5635
▁१९६	-5636
ित्वं	-5637
▁विपु	-5638
▁उपचार	-5639
▁गुह्य	-5640
▁युक्ति	-5641
▁स्पर्ध	-5642
▁गच्छामि	-5643
म्प	-5644
सें	-5645
▁इतो	-5646
▁पाश	-5647
▁वाग्	-5648
▁विजय	-5649
▁शुभे	-5650
▁प्रतीति	-5651
▁संस्थिता	-5652
▁घर	-5653
एससी	-5654
▁जित	-5655
स्तथा	-5656
▁चतुर	-5657
▁जितः	-5658
▁तेजो	-5659
▁शस्त	-5660
▁मार्च	-5661
▁पुत्रस्य	-5662
षः	-5663
दित	-5664
ैति	-5665
▁षि	-5666
▁्व	-5667
▁७४	-5668
▁योष	-5669
च्छ्र	-5670
▁दिनं	-5671
▁महाम	-5672
▁स्थं	-5673
▁जाग्र	-5674
▁जीवने	-5675
▁यज्ञे	-5676
▁प्रथमो	-5677
▁विद्यां	-5678
कलं	-5679
लिः	-5680
▁ज़	-5681
▁मप	-5682
▁ों	-5683
▁५८	-5684
कारी	-5685
▁नाप	-5686
▁हंस	-5687
▁धनम्	-5688
▁नाति	-5689
▁पुरं	-5690
▁यावद्	-5691
▁ग्रहणे	-5692
▁पितॄणां	-5693
▁निर्माणं	-5694
@2	-5695
▁ad	-5696
▁it	-5697
▁छः	-5698
▁९०	-5699
▁औषध	-5700
▁हेम	-5701
रूपेण	-5702
▁कुले	-5703
▁तदुप	-5704
▁पदेन	-5705
▁सुषु	-5706
▁स्ततः	-5707
▁हस्ता	-5708
▁गतवान्	-5709
निष	-5710
▁गान	-5711
▁माव	-5712
▁यस्	-5713
▁रथं	-5714
▁देहं	-5715
▁नमस्	-5716
▁पद्य	-5717
विंशति	-5718
▁शक्या	-5719
▁स्मार	-5720
▁ाभावे	-5721
▁आत्मनः	-5722
▁बहूनां	-5723
▁पश्चाद्	-5724
▁संबन्धः	-5725
▁संवेदना	-5726
▁ेत्यर्थः	-5727
धिं	-5728
वम्	-5729
▁00	-5730
वादि	-5731
▁मनी	-5732
दृष्ट	-5733
▁दिक्	-5734
▁ाख्य	-5735
▁ाग्र	-5736
▁द्विष	-5737
▁वदामि	-5738
▁कश्चिद	-5739
▁कीर्ति	-5740
▁अस्माकम्	-5741
▁निष्कर्ष	-5742
▁परियोजना	-5743
▁संस्करणे	-5744
▁प्रतिपद्यते	-5745
शन	-5746
िम	-5747
्ता	-5748
्वल	-5749
ासते	-5750
▁Pre	-5751
▁असु	-5752
▁एनं	-5753
▁दशम	-5754
मिच्छ	-5755
▁कापि	-5756
▁निरु	-5757
▁पितॄ	-5758
▁बह्व	-5759
▁पश्ये	-5760
▁प्रेत	-5761
▁ाणाम्	-5762
▁पित्रा	-5763
▁विरासत	-5764
▁प्रकृते	-5765
▁परमात्मा	-5766
▁प्रतियोगिता	-5767
▁विश्वविद्यालय	-5768
चल	-5769
ेण्	-5770
▁34	-5771
▁8.	-5772
▁७१	-5773
न्ने	-5774
▁कमल	-5775
▁दये	-5776
▁धान	-5777
िंशत्	-5778
▁गतम्	-5779
▁जननी	-5780
▁जुया	-5781
▁बहिर्	-5782
▁समाधि	-5783
▁उपसर्ग	-5784
▁द्वयोः	-5785
▁प्रस्थ	-5786
▁कस्यचित्	-5787
▁प्रयुज्यते	-5788
रुः	-5789
▁५३	-5790
संस्	-5791
▁आशा	-5792
▁ितं	-5793
त्येव	-5794
मध्ये	-5795
▁आहार	-5796
▁इमां	-5797
▁नेता	-5798
▁भूयो	-5799
▁शर्म	-5800
▁न्यास	-5801
▁पदानि	-5802
▁सप्तम	-5803
▁पञ्चदश	-5804
▁पुमान्	-5805
▁द्रव्यं	-5806
▁संग्राम	-5807
▁वक्तव्यः	-5808
माग	-5809
ुरा	-5810
▁ग्	-5811
▁करा	-5812
▁घृत	-5813
▁जने	-5814
▁िता	-5815
▁अप्य	-5816
▁पारि	-5817
▁अवकाश	-5818
▁परिकी	-5819
▁वसिष्ठ	-5820
फ़	-5821
▁शोष	-5822
▁द्वै	-5823
▁नृपः	-5824
▁वादी	-5825
▁स्थे	-5826
msgstr	-5827
▁कार्त	-5828
▁गङ्गा	-5829
▁द्वारं	-5830
▁प्रशास	-5831
▁परामर्श	-5832
▁पुस्तके	-5833
▁प्रायश्चित्त	-5834
लिं	-5835
▁००	-5836
▁गणित	-5837
▁चेन्न	-5838
▁विधिव	-5839
▁सहितं	-5840
▁ब्रूहि	-5841
▁मुक्तः	-5842
▁समाहितः	-5843
▁उत्कृष्ट	-5844
▁ज्ञानस्य	-5845
▁प्रजानां	-5846
▁ळ	-5847
विक	-5848
सहस	-5849
र्यं	-5850
▁कोट	-5851
श्मीर	-5852
▁जनैः	-5853
▁मार्	-5854
▁संदे	-5855
▁प्रकरणे	-5856
▁प्रपञ्च	-5857
▁स्वभावतः	-5858
डः	-5859
कैः	-5860
तोऽ	-5861
साग	-5862
र्थो	-5863
श्रु	-5864
▁आश्च	-5865
▁गणना	-5866
▁प्रौ	-5867
▁भङ्ग	-5868
▁मातु	-5869
▁यक्ष	-5870
▁स्थः	-5871
▁ादेः	-5872
▁सौम्य	-5873
र्मध्ये	-5874
▁उद्देश	-5875
▁दीर्घः	-5876
▁किञ्चिद	-5877
▁युधिष्ठ	-5878
▁विकल्पः	-5879
▁विप्रति	-5880
▁सम्पादन	-5881
स्ती	-5882
▁उपे	-5883
▁तदैव	-5884
▁नामः	-5885
▁बहवो	-5886
▁यद्व	-5887
▁वश्य	-5888
▁पुत्री	-5889
▁हिन्दु	-5890
▁वाणिज्य	-5891
▁प्रतिवर्ष	-5892
भाषण	-5893
▁जून	-5894
जायते	-5895
र्थाः	-5896
▁इयम्	-5897
▁तत्प	-5898
▁सुलभ	-5899
▁ाष्ट	-5900
▁कस्मि	-5901
▁भविता	-5902
▁वनस्प	-5903
▁दिल्ली	-5904
▁शक्तिं	-5905
▁कस्यापि	-5906
▁परिकल्प	-5907
▁समाचरेत्	-5908
▁सर्वभूतानां	-5909
डु	-5910
▁[[	-5911
ुवन्	-5912
ूर्व	-5913
▁ऋषि	-5914
▁भेष	-5915
▁ल्ल	-5916
▁सफल	-5917
▁ाहं	-5918
▁श्चा	-5919
न्तरम्	-5920
▁योगेन	-5921
▁श्चेति	-5922
▁सर्वतो	-5923
▁सहस्रा	-5924
▁धार्मिक	-5925
हाँ	-5926
ादी	-5927
ालं	-5928
▁सरो	-5929
कारेण	-5930
त्तमः	-5931
▁पराय	-5932
▁विवि	-5933
▁प्राव	-5934
▁ाख्या	-5935
▁कस्मात्	-5936
▁प्रातिपद	-5937
▁मन्त्रेण	-5938
▁प्राप्तम्	-5939
▁हतः	-5940
बुद्ध	-5941
▁काष्ठ	-5942
▁ग्रहः	-5943
▁इत्यभि	-5944
▁ज्ञेयं	-5945
▁बालकाः	-5946
▁वचनात्	-5947
▁सिद्धं	-5948
▁जः	-5949
▁com	-5950
▁पता	-5951
▁कथां	-5952
▁भस्म	-5953
▁ऽत्र	-5954
▁उपस्थ	-5955
▁त्र्य	-5956
▁सिंहः	-5957
▁स्पेन	-5958
▁पितामह	-5959
▁मनुष्याणां	-5960
तमः	-5961
तय्	-5962
पाठ	-5963
तिर्	-5964
न्यं	-5965
न्ये	-5966
शङ्क	-5967
▁छगू	-5968
▁धारण	-5969
▁शिरः	-5970
▁सत्र	-5971
▁प्राद	-5972
▁द्यावा	-5973
▁निबन्ध	-5974
▁साम्रा	-5975
▁नियन्त्र	-5976
▁ापि	-5977
च्चार	-5978
वस्था	-5979
▁उपयु	-5980
▁दिग्	-5981
▁मेकं	-5982
▁योगं	-5983
▁वाचक	-5984
▁सूची	-5985
▁ततस्त	-5986
▁ांश्च	-5987
▁कोरोना	-5988
▁क्रुद्ध	-5989
▁सर्वज्ञ	-5990
▁प्रतीक्ष	-5991
बे	-5992
तमं	-5993
▁षा	-5994
▁ाल	-5995
लक्ष	-5996
▁मुनी	-5997
▁शिला	-5998
▁भिक्ष	-5999
▁संपाद	-6000
▁समूहः	-6001
▁भ्राता	-6002
▁महीयते	-6003
▁परिवर्तन	-6004
▁इत्युक्त्वा	-6005
▁वु	-6006
चनाः	-6007
▁(),	-6008
▁मयो	-6009
▁वति	-6010
सन्ति	-6011
▁प्लव	-6012
▁भवतो	-6013
▁रिपु	-6014
▁वाचं	-6015
▁नाट्य	-6016
▁मुनिः	-6017
▁ह्रीं	-6018
eo	-6019
▁६४	-6020
▁पयः	-6021
▁ैस्	-6022
▁आयोज	-6023
▁कान्	-6024
ज्ञानं	-6025
▁गुणैः	-6026
▁नियमा	-6027
▁बान्ध	-6028
▁माध्यम	-6029
▁राज्ञा	-6030
▁विशेषा	-6031
▁निर्मित	-6032
▁शक्त्या	-6033
▁दर्शनात्	-6034
▁न्यायालय	-6035
▁वक्तव्यं	-6036
ak	-6037
जार	-6038
मेक	-6039
मेध	-6040
यथा	-6041
ावे	-6042
▁>>	-6043
ाद्व	-6044
ोपरि	-6045
▁गां	-6046
▁मेत	-6047
्रियं	-6048
▁कामा	-6049
▁परिह	-6050
▁रहित	-6051
▁ादयो	-6052
▁भगवतः	-6053
▁वाताव	-6054
▁नगरस्य	-6055
▁उक्तवान्	-6056
▁कुर्वन्तु	-6057
▁नया	-6058
▁वरु	-6059
▁Post	-6060
▁दूरं	-6061
▁पलाय	-6062
▁बोधि	-6063
▁भवेद	-6064
▁सतां	-6065
▁ऊर्जा	-6066
▁तमस्य	-6067
▁चतुर्व	-6068
▁धर्मेण	-6069
▁पूर्णं	-6070
▁शक्यम्	-6071
▁अभिव्यक्ति	-6072
▁स्वातन्त्र्य	-6073
▁US	-6074
▁कफ	-6075
▁रुद	-6076
ांतरण	-6077
▁किलो	-6078
▁केचि	-6079
▁पादौ	-6080
▁स्रो	-6081
▁भ्रमण	-6082
▁मर्या	-6083
▁संयोज	-6084
▁कर्तुम	-6085
▁तदर्थं	-6086
▁वास्तव	-6087
▁ग्राह्य	-6088
▁राजनीति	-6089
▁विस्तरेण	-6090
ूय	-6091
मिह	-6092
▁६८	-6093
▁नौक	-6094
▁विधौ	-6095
▁कर्तु	-6096
▁हत्वा	-6097
▁लिङ्गं	-6098
▁विद्धि	-6099
▁ोऽस्मि	-6100
▁प्रकीर्त	-6101
▁·	-6102
▁45	-6103
▁चिं	-6104
▁अतिश	-6105
▁नारद	-6106
▁पाहि	-6107
▁सकाश	-6108
पूर्णं	-6109
▁चात्र	-6110
▁अग्निं	-6111
▁त्वस्य	-6112
▁परमाणु	-6113
▁हिन्दी	-6114
१२	-6115
धेय	-6116
िनि	-6117
▁कद	-6118
▁६६	-6119
▁एतं	-6120
▁गोच	-6121
▁यथो	-6122
▁रूढ	-6123
▁ऽति	-6124
▁वन्त	-6125
▁प्रणि	-6126
▁इत्यनु	-6127
▁इत्युप	-6128
▁धर्मस्य	-6129
▁विद्वां	-6130
▁सूत्रेण	-6131
▁पदोन्नति	-6132
▁राष्ट्रं	-6133
तीं	-6134
य्य	-6135
वाक	-6136
ीयत	-6137
▁टै	-6138
धातु	-6139
माणे	-6140
स्वा	-6141
हरति	-6142
ावपि	-6143
▁महे	-6144
▁कालि	-6145
▁किंच	-6146
▁शुचि	-6147
▁अर्थे	-6148
▁निद्र	-6149
▁सरस्व	-6150
▁स्थले	-6151
▁उपयोगी	-6152
▁उपलब्ध	-6153
▁संवेदन	-6154
▁निश्चयः	-6155
▁निश्चित	-6156
▁प्रतिकूल	-6157
▁प्राणिनां	-6158
▁ऎ	-6159
भुत	-6160
भोग	-6161
▁44	-6162
▁ाथ	-6163
सेत्	-6164
्यया	-6165
▁सुम	-6166
▁्यः	-6167
▁आह्व	-6168
▁शैली	-6169
च्छेदः	-6170
्यन्ते	-6171
▁कविता	-6172
▁क्षयं	-6173
▁तुष्ट	-6174
▁परिष्	-6175
▁पुरात	-6176
▁मातुः	-6177
▁आचार्य	-6178
▁कौन्ते	-6179
▁चक्षुष	-6180
▁पुष्टि	-6181
▁प्रणाली	-6182
▁रूपांतरण	-6183
▁दृष्टान्त	-6184
▁प्रसिद्धः	-6185
▁48	-6186
▁Al	-6187
ज्यं	-6188
▁रपि	-6189
▁शाख	-6190
त्र्त	-6191
न्नेव	-6192
र्थाय	-6193
▁बीजं	-6194
▁स्वि	-6195
स्थाने	-6196
▁व्याव	-6197
▁वृक्षे	-6198
▁सङ्गीत	-6199
▁जायन्ते	-6200
▁प्रकारः	-6201
▁योग्यता	-6202
▁सङ्ग्रह	-6203
▁परमेश्वर	-6204
our	-6205
मुद	-6206
शास	-6207
▁be	-6208
▁ैत	-6209
गन्ध	-6210
पदम्	-6211
▁असा	-6212
▁एवै	-6213
▁तैल	-6214
पन्नः	-6215
▁एकैक	-6216
▁मप्य	-6217
▁वृथा	-6218
▁ान्न	-6219
▁उपकरण	-6220
▁वर्णन	-6221
▁ेश्वर	-6222
▁पत्रिका	-6223
▁इन्द्रिय	-6224
व्	-6225
▁दस	-6226
ैश्च	-6227
▁10.	-6228
▁चाह	-6229
▁धुं	-6230
▁माघ	-6231
चित्त	-6232
▁चतुः	-6233
▁परां	-6234
▁महता	-6235
ेश्वरः	-6236
▁अनेके	-6237
▁निबोध	-6238
▁कन्यां	-6239
▁कुर्मः	-6240
▁सन्देश	-6241
▁प्रधानं	-6242
▁स्वर्गं	-6243
▁सुप्रभात	-6244
▁कार्यान्व	-6245
▁39	-6246
▁७६	-6247
▁र्च	-6248
ज्ञां	-6249
▁नियत	-6250
▁वेदित	-6251
▁हितम्	-6252
▁परमार्थ	-6253
SC	-6254
भर	-6255
ाल्	-6256
क्षी	-6257
नाति	-6258
न्दः	-6259
▁मवा	-6260
▁यास	-6261
▁सीत	-6262
व्याः	-6263
▁News	-6264
▁चेद्	-6265
▁भेदो	-6266
▁दर्शने	-6267
▁कर्मणां	-6268
▁विभक्ति	-6269
▁स्पृष्ट	-6270
▁परित्यज्य	-6271
थैव	-6272
िणी	-6273
▁60	-6274
▁खा	-6275
▁तट	-6276
▁ष्	-6277
▁६७	-6278
▁अलं	-6279
▁कन्	-6280
▁नीच	-6281
▁सुभ	-6282
▁किमु	-6283
▁मान्	-6284
▁एकमेव	-6285
▁त्येव	-6286
▁त्वद्	-6287
▁मत्वा	-6288
▁त्वाम्	-6289
▁यत्नतः	-6290
कट	-6291
ैकं	-6292
भूता	-6293
▁जनक	-6294
▁यथे	-6295
▁उष्ण	-6296
▁खल्व	-6297
▁बलेन	-6298
▁मानि	-6299
▁स्नि	-6300
▁रहस्य	-6301
▁क्षिप्र	-6302
▁प्रत्यये	-6303
▁शक्नुवन्ति	-6304
▁डे	-6305
वर्ग	-6306
ष्टु	-6307
ृत्व	-6308
▁न्द	-6309
▁मेध	-6310
स्यसि	-6311
▁कुलं	-6312
▁गमनं	-6313
▁माला	-6314
▁आगत्य	-6315
▁क्षीर	-6316
▁पूँजी	-6317
▁यस्मा	-6318
▁सर्वः	-6319
▁सप्तमी	-6320
▁सन्ध्या	-6321
▁वैश्वदेव	-6322
th	-6323
आई	-6324
१९	-6325
गाः	-6326
▁(2)	-6327
▁एतौ	-6328
▁गुज	-6329
▁बाण	-6330
▁याय	-6331
▁ऽसौ	-6332
ृत्ति	-6333
▁पतिं	-6334
▁पृथग्	-6335
▁मङ्गल	-6336
▁मितिः	-6337
▁श्रूय	-6338
▁प्रासाद	-6339
▁विज्ञाय	-6340
▁शास्त्रे	-6341
नौ	-6342
▁त०	-6343
▁धो	-6344
▁ेक	-6345
▁६२	-6346
▁९५	-6347
ब्दे	-6348
स्थे	-6349
▁ण्य	-6350
▁तरं	-6351
म्बर्	-6352
▁व्यस	-6353
यितुम्	-6354
▁वर्णः	-6355
▁निर्दि	-6356
▁महाभाग	-6357
▁लोकान्	-6358
▁वीक्ष्य	-6359
▁शक्नुमः	-6360
▁सर्वपाप	-6361
▁परमेश्वरः	-6362
-3	-6363
भूय	-6364
याद	-6365
व्यो	-6366
▁आदौ	-6367
▁पङ्	-6368
▁प्त	-6369
▁2016	-6370
▁निशि	-6371
▁पोर्	-6372
▁इष्यते	-6373
▁विख्या	-6374
▁सुविधा	-6375
▁स्थानि	-6376
▁विशुद्ध	-6377
▁वैश्वान	-6378
▁निवर्तते	-6379
▁विभक्तिः	-6380
▁यथाक्रमम्	-6381
im	-6382
दाः	-6383
▁06	-6384
भारत	-6385
▁अक्	-6386
▁कोश	-6387
▁ग्न	-6388
▁नेह	-6389
▁पुट	-6390
▁यन्न	-6391
▁वेत्	-6392
भावात्	-6393
▁उद्घा	-6394
▁सिद्धा	-6395
▁नित्यम्	-6396
▁प्राकृत	-6397
▁म्रियते	-6398
▁अत्यन्तं	-6399
2.	-6400
पनं	-6401
मेय	-6402
▁IS	-6403
▁अफ	-6404
वाणी	-6405
ानीं	-6406
▁आरा	-6407
▁संच	-6408
▁समः	-6409
▁सैव	-6410
ित्यं	-6411
▁पुरी	-6412
▁कारेण	-6413
▁त्रया	-6414
▁दिनम्	-6415
▁पाठ्य	-6416
▁शिल्प	-6417
▁समासः	-6418
▁ग्रामे	-6419
▁पर्याय	-6420
▁मुक्तं	-6421
▁सरकारं	-6422
▁साक्षी	-6423
▁स्थितौ	-6424
▁स्यान्	-6425
▁आन्दोलन	-6426
▁स्मृतिः	-6427
▁सम्प्रसार	-6428
पौ	-6429
▁झी	-6430
▁सखि	-6431
▁िनः	-6432
▁आगतः	-6433
▁शेषे	-6434
▁ाप्य	-6435
▁ोऽसि	-6436
▁तदर्थ	-6437
▁पञ्चा	-6438
▁हिताय	-6439
▁चतुष्ट	-6440
▁विचारः	-6441
▁ावस्था	-6442
▁प्रतिमा	-6443
▁प्रभृति	-6444
▁विश्लेष	-6445
▁समाप्तम्	-6446
षो	-6447
शुभ	-6448
ष्व	-6449
▁मर	-6450
ज्ञे	-6451
षेधे	-6452
▁गोल	-6453
▁दधि	-6454
▁यित	-6455
▁वन्	-6456
▁ार्	-6457
ात्मक	-6458
▁क्रो	-6459
▁तावद	-6460
▁मनसः	-6461
▁मानो	-6462
▁वाचा	-6463
▁ऽस्य	-6464
▁शत्रू	-6465
▁साध्या	-6466
▁समन्वितः	-6467
▁औष	-6468
ence	-6469
ेयुः	-6470
▁आचर	-6471
▁तरि	-6472
▁नयन	-6473
▁ब्ल	-6474
▁कार्	-6475
▁द्रव	-6476
▁माना	-6477
▁बलात्	-6478
▁मूर्ध	-6479
▁गन्तुं	-6480
▁भ्रातृ	-6481
▁उपयुक्त	-6482
▁स्वात्म	-6483
▁वैज्ञानिक	-6484
▁द्रष्टव्यम्	-6485
येण	-6486
▁अ०	-6487
▁कण	-6488
गम्य	-6489
ञ्चन	-6490
▁आरभ	-6491
▁उभे	-6492
▁तिर	-6493
बिम्ब	-6494
▁जातु	-6495
▁शिष्ट	-6496
▁शब्दाः	-6497
▁समर्थन	-6498
▁सार्धं	-6499
सहस्राणि	-6500
▁पृष्ठानां	-6501
-4	-6502
▁तल	-6503
▁औसत	-6504
▁रसः	-6505
▁शकु	-6506
पन्ना	-6507
▁केषु	-6508
▁परतः	-6509
▁अपश्य	-6510
▁दर्शय	-6511
▁वय्कलं	-6512
▁पूर्ब्ब	-6513
▁श्रुतेः	-6514
▁प्रोक्तो	-6515
▁प्रयच्छति	-6516
घ्	-6517
ुद	-6518
चुः	-6519
ालः	-6520
ृते	-6521
ेतं	-6522
▁६१	-6523
वादः	-6524
▁वाऽ	-6525
▁्यं	-6526
पद्यत	-6527
▁गुणं	-6528
▁तेजः	-6529
▁मुमु	-6530
▁साङ्	-6531
▁ार्ध	-6532
▁एतच्च	-6533
▁धर्मे	-6534
▁भृत्य	-6535
▁स्फुर	-6536
▁स्वाद	-6537
▁मध्याह	-6538
▁युक्तो	-6539
▁वृष्टि	-6540
▁समर्थः	-6541
▁त्वादिति	-6542
▁पर्याप्त	-6543
▁प्रकरणम्	-6544
▁प्रत्यया	-6545
▁प्रस्तुत	-6546
ub	-6547
तक	-6548
११	-6549
अहं	-6550
ोमि	-6551
▁फु	-6552
मानो	-6553
▁देय	-6554
▁र्व	-6555
▁जलम्	-6556
▁धइगु	-6557
▁निगम	-6558
▁रूपि	-6559
▁लभ्य	-6560
▁विमो	-6561
▁सन्तः	-6562
▁कालस्य	-6563
▁तद्वत्	-6564
▁देशकाल	-6565
▁संग्रह	-6566
▁पृथिवीं	-6567
▁प्रदत्त	-6568
▁विचक्षण	-6569
▁स्तोत्र	-6570
▁ध्यात्वा	-6571
▁लिखितानां	-6572
SE	-6573
तार	-6574
निक	-6575
माद	-6576
सत्	-6577
▁[1	-6578
▁इय	-6579
▁सॊ	-6580
याद्	-6581
▁अपह	-6582
▁थौं	-6583
▁रतः	-6584
स्ततः	-6585
ार्थं	-6586
▁जीवा	-6587
▁विचि	-6588
पुरुषः	-6589
▁चक्रे	-6590
▁वेष्ट	-6591
▁ोक्तं	-6592
▁तत्काल	-6593
▁प्रसीद	-6594
▁विरोधि	-6595
▁क्रियां	-6596
▁प्राप्नु	-6597
▁विद्यालयं	-6598
ीण	-6599
ous	-6600
तस्	-6601
दीयं	-6602
ल्या	-6603
साम्	-6604
▁अकथ	-6605
▁अभय	-6606
▁इमा	-6607
▁चाय	-6608
▁चोर	-6609
▁नये	-6610
▁वृत	-6611
मुक्त	-6612
▁क्षो	-6613
▁जन्य	-6614
▁मासि	-6615
▁विभव	-6616
▁्यां	-6617
▁काण्ड	-6618
▁नृणां	-6619
▁बृहत्	-6620
▁लोकाः	-6621
▁शृङ्ग	-6622
▁अर्हति	-6623
▁रीत्या	-6624
▁पुत्राः	-6625
▁वैशिष्ट	-6626
▁तत्त्वतः	-6627
▁व्यभिचार	-6628
▁इत्युक्तम्	-6629
गन	-6630
ारु	-6631
▁दः	-6632
▁८६	-6633
काङ्	-6634
त्तो	-6635
भाषत	-6636
र्गत	-6637
▁भा०	-6638
ष्ठान	-6639
▁ततस्	-6640
▁लग्न	-6641
▁वासः	-6642
गम्यते	-6643
▁आरम्भ	-6644
▁देवेश	-6645
▁पृथ्वी	-6646
▁वृक्षा	-6647
▁औपचारिक	-6648
▁प्रणम्य	-6649
▁रात्रिः	-6650
▁विधानेन	-6651
▁स्तेषां	-6652
▁परिवर्तनं	-6653
च्व	-6654
धेः	-6655
▁am	-6656
▁ट्	-6657
▁मः	-6658
▁ह्	-6659
▁अथो	-6660
▁शान	-6661
ञ्जीत	-6662
दात्म	-6663
▁कुरुत	-6664
▁स्थूल	-6665
▁अनुमान	-6666
▁त्वमपि	-6667
▁पठन्ति	-6668
▁प्राथम	-6669
▁हिरण्य	-6670
प्नुयात्	-6671
▁ग्रन्थः	-6672
▁विश्वास	-6673
▁प्रदक्षि	-6674
▁कार्यान्वयन	-6675
od	-6676
▁47	-6677
▁८४	-6678
कारो	-6679
▁ख्य	-6680
▁जरा	-6681
▁ताद	-6682
▁वणि	-6683
▁१९३	-6684
▁ग्रे	-6685
▁अतिथि	-6686
▁कृताः	-6687
▁दूरभाष	-6688
▁पद्धति	-6689
▁अत्यधिक	-6690
▁आगच्छति	-6691
▁कार्य्य	-6692
▁दृष्टिः	-6693
▁माध्यमेन	-6694
▁सूर्यस्य	-6695
▁स्तोत्रं	-6696
▁राष्ट्रस्य	-6697
▁स्वतन्त्रता	-6698
▁ऽह	-6699
▁उगु	-6700
▁किय	-6701
▁भाई	-6702
▁भीत	-6703
▁जाते	-6704
▁चक्षुः	-6705
▁मण्डलं	-6706
▁दुर्लभं	-6707
▁भ्रष्टा	-6708
▁कॉ	-6709
▁बर	-6710
कानि	-6711
ङ्गल	-6712
▁र्ष	-6713
▁पप्र	-6714
▁र्थे	-6715
▁शाला	-6716
▁शिरो	-6717
▁ीकरण	-6718
▁खाद्य	-6719
▁जुयाः	-6720
▁ास्ति	-6721
▁वित्तं	-6722
▁सनातनः	-6723
▁क्रियाः	-6724
9.	-6725
चु	-6726
सद	-6727
ore	-6728
भृत	-6729
देशं	-6730
पुरा	-6731
ीकृत	-6732
▁निं	-6733
▁गुणो	-6734
▁थःगु	-6735
▁ाध्य	-6736
▁कदाचि	-6737
▁दिवसः	-6738
▁भर्ती	-6739
▁मतदान	-6740
▁वर्गे	-6741
▁हानिः	-6742
▁धर्म्म	-6743
▁पेक्षा	-6744
▁बृहस्प	-6745
▁ान्तरं	-6746
▁चत्वारः	-6747
▁ज्ञातुं	-6748
▁वस्तूनि	-6749
▁किमर्थम्	-6750
▁प्रत्यक्षं	-6751
pe	-6752
गृ	-6753
कां	-6754
नाथ	-6755
र्स	-6756
सिं	-6757
▁गः	-6758
▁गल	-6759
▁अभी	-6760
▁भुज	-6761
▁सित	-6762
▁मर्द	-6763
▁काराग	-6764
▁चर्चा	-6765
▁दीप्त	-6766
▁युध्य	-6767
▁ारम्भ	-6768
▁ऊर्ध्व	-6769
▁क्षिति	-6770
▁रहस्यं	-6771
▁विभागे	-6772
▁इतिहासः	-6773
▁इन्द्रः	-6774
▁प्रशासन	-6775
▁विज्ञायते	-6776
ठा	-6777
थम्	-6778
ेशन	-6779
▁णी	-6780
खिलं	-6781
▁जनो	-6782
▁ण्ड	-6783
▁यशो	-6784
▁सोप	-6785
▁Tags	-6786
▁अपरं	-6787
▁आवाह	-6788
▁जल्प	-6789
▁महास	-6790
▁दीक्ष	-6791
▁धान्य	-6792
रेन्द्र	-6793
▁आरक्षण	-6794
▁कृत्रि	-6795
▁प्राणः	-6796
▁इत्यादौ	-6797
▁द्वन्द्व	-6798
▁मित्राणि	-6799
▁स्थानानि	-6800
यर	-6801
▁ज्	-6802
कम्प	-6803
कूगु	-6804
भक्त	-6805
माणं	-6806
ल्पि	-6807
▁कपाल	-6808
▁दिशो	-6809
▁निधि	-6810
▁ाधिप	-6811
▁ितुं	-6812
रात्रे	-6813
्यर्थं	-6814
▁करोतुः	-6815
▁कार्यो	-6816
▁चत्वार	-6817
▁मार्गं	-6818
▁व्यञ्ज	-6819
▁हेतुना	-6820
▁राजधानी	-6821
▁सर्वदेव	-6822
▁ापेक्षया	-6823
कान	-6824
नगर	-6825
▁फ्र	-6826
▁बलव	-6827
पक्षे	-6828
▁दग्ध	-6829
▁शाखा	-6830
स्तस्य	-6831
▁रिश्त	-6832
▁वैदिक	-6833
▁शक्यः	-6834
च्छिन्न	-6835
▁अन्वेष	-6836
▁तमवर्ष	-6837
▁तृतीयं	-6838
▁विमर्श	-6839
▁परिसन्धिं	-6840
०२	-6841
०५	-6842
ँय्	-6843
▁]]	-6844
▁कॊ	-6845
▁६९	-6846
मादि	-6847
म्बु	-6848
ल्यू	-6849
सात्	-6850
स्थं	-6851
▁आसन	-6852
▁गाः	-6853
▁रेफ	-6854
▁जर्म	-6855
▁पीडा	-6856
क्षणिक	-6857
▁छात्रः	-6858
▁जानासि	-6859
▁पुनश्च	-6860
▁रिपोर्	-6861
▁संशोधन	-6862
▁देवानाम	-6863
▁प्रवृत्तिः	-6864
▁व्यवस्थापन	-6865
▁सर्वश्रेष्ठ	-6866
छे	-6867
▁ꣳ	-6868
▁रः	-6869
▁अवा	-6870
▁पां	-6871
▁मेल	-6872
▁यैः	-6873
सूचना	-6874
▁ज्वर	-6875
▁माने	-6876
▁श्वा	-6877
▁ाद्या	-6878
▁निर्वि	-6879
▁श्रेणी	-6880
▁सावधान	-6881
▁नक्षत्र	-6882
▁व्रजेत्	-6883
ह्म	-6884
▁अस्	-6885
▁कलौ	-6886
▁बला	-6887
वस्तु	-6888
▁तस्थ	-6889
▁पराव	-6890
▁शङ्ख	-6891
▁संयम	-6892
▁सानु	-6893
ङ्क्ते	-6894
▁करणम्	-6895
▁धर्मि	-6896
▁ाख्यं	-6897
न्मुक्त	-6898
▁परिहार	-6899
▁विग्रह	-6900
▁कुर्वीत	-6901
▁विचार्य	-6902
▁परिपूर्ण	-6903
▁भविष्यसि	-6904
ap	-6905
▁↑	-6906
and	-6907
ड़ा	-6908
ड्य	-6909
▁दम	-6910
▁तये	-6911
▁तरु	-6912
▁वये	-6913
▁शनि	-6914
चितम्	-6915
वासरे	-6916
▁जनपद	-6917
▁नाटक	-6918
▁पाखे	-6919
▁विभू	-6920
▁षष्ट	-6921
▁सान्	-6922
▁ह्यः	-6923
▁काचित्	-6924
▁पुरस्त	-6925
▁विंशति	-6926
▁शुद्धं	-6927
वक्ष्यामि	-6928
▁संवत्सरे	-6929
▁प्रयुक्तम्	-6930
कल्प	-6931
रिया	-6932
▁भीम	-6933
▁मन्	-6934
▁समृ	-6935
▁गवां	-6936
▁यथैव	-6937
▁ाक्ष	-6938
▁ज्याझ	-6939
▁तृप्त	-6940
▁दण्डः	-6941
▁भवन्त	-6942
▁भूमिं	-6943
▁मर्त्य	-6944
▁महोदयः	-6945
▁प्रकर्ष	-6946
▁स्मृताः	-6947
▁साहाय्यं	-6948
▁स्थित्वा	-6949
टिक	-6950
दास	-6951
लां	-6952
▁(.	-6953
▁):	-6954
▁ne	-6955
▁रत	-6956
▁शश	-6957
ानेन	-6958
▁खने	-6959
▁धरण	-6960
▁कन्द	-6961
▁विभो	-6962
▁विरु	-6963
▁अगस्त	-6964
▁अहमेव	-6965
▁क्षति	-6966
▁गोष्ठ	-6967
▁द्विव	-6968
▁बिम्ब	-6969
▁मायया	-6970
▁विजान	-6971
▁ाश्रय	-6972
▁ख्याति	-6973
▁फलकम्ः	-6974
▁स्मिन्	-6975
▁स्मृता	-6976
▁व्याप्य	-6977
▁स्वर्गे	-6978
▁प्रत्यहं	-6979
▁वाक्यानि	-6980
▁सामर्थ्य	-6981
गि	-6982
लाष	-6983
देशो	-6984
श्चा	-6985
्रिक	-6986
▁आगम	-6987
▁इवा	-6988
▁एति	-6989
▁जग्	-6990
▁ज्य	-6991
स्थाय	-6992
▁काला	-6993
▁भूरि	-6994
▁वानर	-6995
▁स्तर	-6996
▁अवलोक	-6997
▁गोत्र	-6998
▁तदन्त	-6999
▁अपेक्ष	-7000
▁पूर्वः	-7001
▁समावेश	-7002
▁्यन्ते	-7003
नव	-7004
ंस्	-7005
मतः	-7006
ेता	-7007
▁अः	-7008
▁ञ्	-7009
द्वा	-7010
▁ज्ज	-7011
▁नेष	-7012
▁वयो	-7013
▁संत	-7014
ादेशः	-7015
▁अहिं	-7016
▁पार्	-7017
▁लुक्	-7018
▁जीर्ण	-7019
▁जुलाई	-7020
▁तयोर्	-7021
यिष्यति	-7022
▁अभ्यास	-7023
▁नेत्रे	-7024
▁कर्मचार	-7025
▁तस्यापि	-7026
▁सर्वकाम	-7027
▁कुत्रापि	-7028
▁प्रतिभाति	-7029
▁प्रतिबिम्ब	-7030
tr	-7031
▁q	-7032
ालि	-7033
▁41	-7034
▁9.	-7035
▁०५	-7036
शासन	-7037
▁घोर	-7038
त्मान	-7039
▁ददृश	-7040
▁वासु	-7041
▁अध्यय	-7042
▁चान्य	-7043
▁देवाल	-7044
▁पुनस्	-7045
▁विधिं	-7046
▁व्यास	-7047
▁शुक्ल	-7048
▁स्वेन	-7049
▁सर्वां	-7050
▁ाभावात्	-7051
▁कुर्याद्	-7052
▁परिकीर्त	-7053
▁स्नात्वा	-7054
▁संस्थायाः	-7055
१८	-7056
ासौ	-7057
▁ag	-7058
▁चक	-7059
▁तृण	-7060
पृथिव	-7061
▁तैर्	-7062
▁पञ्ज	-7063
▁बालः	-7064
▁वहति	-7065
▁चेतना	-7066
▁मार्ज	-7067
▁यज्ञः	-7068
▁वर्णा	-7069
▁ज्ञानि	-7070
▁महाराज	-7071
▁ाधिकार	-7072
▁न्यायेन	-7073
▁प्राप्तो	-7074
ht	-7075
दैव	-7076
पकः	-7077
▁एं	-7078
▁कुप	-7079
▁ह्व	-7080
▁नानु	-7081
▁मञ्ज	-7082
▁योगा	-7083
▁स्फु	-7084
भाषायां	-7085
▁क्वापि	-7086
▁तेभ्यः	-7087
▁दृष्टे	-7088
▁बालिका	-7089
▁वृद्धा	-7090
▁सिद्धे	-7091
▁पृच्छति	-7092
▁वक्तव्य	-7093
▁सहस्त्र	-7094
▁देवतानां	-7095
▁प्रमाणम्	-7096
▁व्यवहारः	-7097
०३	-7098
टर्	-7099
▁गह	-7100
▁म॒	-7101
▁िः	-7102
ानम्	-7103
▁द्रा	-7104
च्यन्ते	-7105
▁अन्तर्ज	-7106
▁विष्णुः	-7107
▁सर्वप्र	-7108
▁55	-7109
ब्धि	-7110
र्थक	-7111
▁ोपा	-7112
ोक्तं	-7113
▁रुपं	-7114
ञ्चित्	-7115
▁उन्नत	-7116
▁एतेषु	-7117
▁चतुष्	-7118
▁भगिनी	-7119
▁उद्योग	-7120
▁दृश्यं	-7121
▁पश्चाद	-7122
▁सत्यम्	-7123
▁कौन्तेय	-7124
▁जीवनस्य	-7125
▁निर्धार	-7126
▁प्रकाशः	-7127
▁दक्षिणां	-7128
षी	-7129
टेन	-7130
▁Sh	-7131
▁अब	-7132
▁घु	-7133
▁लय	-7134
▁७९	-7135
स्ट्	-7136
▁यमः	-7137
▁रोप	-7138
▁हृत	-7139
पन्नं	-7140
णार्थं	-7141
त्सर्व	-7142
▁बन्धु	-7143
▁कृतानि	-7144
▁दीक्षा	-7145
▁स्वस्व	-7146
▁ितवान्	-7147
▁अत्रापि	-7148
▁अन्वेषण	-7149
▁स्थानीय	-7150
वै	-7151
णीय	-7152
▁९१	-7153
ment	-7154
णामः	-7155
▁आपो	-7156
▁जाः	-7157
▁बिल	-7158
▁वशी	-7159
▁सीद	-7160
vious	-7161
दानीं	-7162
▁कन्य	-7163
▁देशो	-7164
▁सक्त	-7165
▁ह्य्	-7166
▁ाण्य	-7167
पूर्वं	-7168
प्रदेश	-7169
▁कुत्स	-7170
▁कोष्ठ	-7171
▁तायाः	-7172
▁भासते	-7173
▁मानेन	-7174
▁रूप्य	-7175
▁वसन्त	-7176
▁अज्ञान	-7177
▁दर्शना	-7178
▁द्विगु	-7179
▁नित्यः	-7180
▁यत्नेन	-7181
▁वर्षाः	-7182
▁व्यापक	-7183
▁श्रृणु	-7184
▁ात्मना	-7185
प्रत्ययः	-7186
▁अन्तारा	-7187
▁आश्चर्य	-7188
▁चक्षुषा	-7189
▁त्वमिति	-7190
▁सूत्रम्	-7191
▁प्रोक्तः	-7192
▁प्रयोगशाला	-7193
▁ब्रह्माण्ड	-7194
▁य॒	-7195
ेद्य	-7196
▁घ्न	-7197
▁चेह	-7198
▁धीः	-7199
▁वयः	-7200
ज्ञया	-7201
▁रुग्	-7202
▁वयसि	-7203
▁वाणी	-7204
रिक्षे	-7205
▁जुइगु	-7206
▁दुर्घ	-7207
▁शुल्क	-7208
▁सौन्द	-7209
▁स्यां	-7210
ष्यन्ति	-7211
▁हित्वा	-7212
▁चतुर्वि	-7213
▁समन्ततः	-7214
▁समाप्ति	-7215
नय	-7216
चेत	-7217
णेन	-7218
▁लल	-7219
ङ्कः	-7220
▁इका	-7221
▁तरा	-7222
काणां	-7223
योज्य	-7224
विन्द	-7225
▁ख्री	-7226
▁पुं॰	-7227
▁मुस्	-7228
▁ाकाश	-7229
्याःगु	-7230
▁आग्ने	-7231
▁कीदृशं	-7232
▁कीदृशः	-7233
▁दिक्षु	-7234
▁देशेषु	-7235
▁पूर्वकं	-7236
▁भाषायां	-7237
▁संस्थाप्य	-7238
अप	-7239
रत	-7240
१७	-7241
pal	-7242
▁(6	-7243
▁49	-7244
▁खर	-7245
▁िं	-7246
▁९७	-7247
▁अणु	-7248
▁कलि	-7249
▁घण्	-7250
▁जये	-7251
▁तकं	-7252
▁भये	-7253
▁शयन	-7254
▁ेदं	-7255
▁----	-7256
▁आसान	-7257
▁ऋग्व	-7258
▁कामो	-7259
▁समरे	-7260
▁क्षेप	-7261
▁दत्वा	-7262
▁निपात	-7263
▁प्रणय	-7264
▁मातरं	-7265
▁शङ्का	-7266
▁श्याम	-7267
▁स्वधा	-7268
▁कर्तरि	-7269
▁त्रिषु	-7270
▁निश्चय	-7271
▁मन्यसे	-7272
▁मुख्या	-7273
▁श्रुतम्	-7274
दू	-7275
थ्य	-7276
विद	-7277
▁42	-7278
▁46	-7279
▁as	-7280
▁do	-7281
▁इन	-7282
▁णः	-7283
स्वि	-7284
हस्त	-7285
▁अपा	-7286
▁मता	-7287
▁पुरे	-7288
▁वक्र	-7289
▁वैभव	-7290
▁अपराध	-7291
▁भौतिक	-7292
ऽध्यायः	-7293
▁कृष्णः	-7294
▁शुद्धि	-7295
▁वक्ष्ये	-7296
▁वेदान्त	-7297
▁द्यावापृथिव	-7298
ःः	-7299
जय	-7300
तृ	-7301
सय	-7302
ीनं	-7303
▁रै	-7304
▁अन्	-7305
▁अले	-7306
▁जिन	-7307
▁धरा	-7308
▁ामि	-7309
तीनां	-7310
भक्ति	-7311
▁आवां	-7312
▁मर्थ	-7313
▁शुल्	-7314
▁अव्यय	-7315
▁जाताः	-7316
▁पेक्ष	-7317
▁पौरुष	-7318
▁भगवत्	-7319
▁स्तत्	-7320
▁ज्ञेया	-7321
▁सुग्री	-7322
▁प्रयोगो	-7323
▁वृद्धिं	-7324
अव	-7325
णौ	-7326
दिल	-7327
▁८९	-7328
त्ये	-7329
▁घटः	-7330
▁भवत	-7331
▁मलि	-7332
▁हरी	-7333
▁२०६	-7334
त्सवः	-7335
▁2015	-7336
▁लङ्घ	-7337
▁बिन्द	-7338
▁पुष्पं	-7339
▁केनचित्	-7340
▁द्विविध	-7341
▁एतस्मिन्	-7342
▁प्राप्नुवन्ति	-7343
एक	-7344
▁़	-7345
भयं	-7346
▁जड	-7347
म्मा	-7348
▁गणः	-7349
▁वृह	-7350
▁शार	-7351
▁हता	-7352
दाहरण	-7353
ान्तु	-7354
▁क्लि	-7355
▁परित	-7356
▁महाक	-7357
▁सफलं	-7358
ध्याये	-7359
▁कतिपय	-7360
▁लेखकः	-7361
▁विदूष	-7362
▁वैष्ण	-7363
▁अज्ञात	-7364
▁द्विजो	-7365
▁स्पर्धा	-7366
▁सामान्यं	-7367
▁व्यतिरिक्त	-7368
कथ	-7369
फु	-7370
॒ः	-7371
१५	-7372
पद्	-7373
लिम	-7374
लेन	-7375
▁८८	-7376
ङ्का	-7377
श्मि	-7378
श्रय	-7379
▁क्ति	-7380
▁तन्त	-7381
▁सोमः	-7382
▁खण्डः	-7383
▁यथासं	-7384
▁लज्जा	-7385
स्कृतिक	-7386
▁भवितुं	-7387
▁भाष्ये	-7388
▁महाबलः	-7389
▁विक्रम	-7390
▁विनिर्	-7391
▁विशेषो	-7392
▁कस्मिन्	-7393
▁भारतवर्ष	-7394
▁प्रतीक्षा	-7395
▁प्राकृतिक	-7396
थु	-7397
थो	-7398
ेदे	-7399
ौति	-7400
▁बत	-7401
▁नीय	-7402
▁ब्व	-7403
पयेत्	-7404
▁अध्व	-7405
▁पितरं	-7406
▁हास्य	-7407
▁त्यादि	-7408
▁नश्यति	-7409
▁अष्टादश	-7410
▁क्षणात्	-7411
▁पूजयेत्	-7412
▁वृक्षाः	-7413
▁सञ्ज्ञा	-7414
▁समाप्तः	-7415
▁पुस्तकाल	-7416
▁बुद्ध्या	-7417
▁व्याप्ति	-7418
बं	-7419
अपि	-7420
पदः	-7421
ावा	-7422
▁गर	-7423
▁७२	-7424
ग्ना	-7425
र्मु	-7426
▁The	-7427
▁एके	-7428
▁पर्	-7429
▁भृत	-7430
▁अस्त्र	-7431
▁ग्रीष्	-7432
▁संक्षेप	-7433
▁अन्येषां	-7434
▁कार्यस्य	-7435
▁निर्मितः	-7436
▁वर्त्तते	-7437
line	-7438
ंद्र	-7439
▁एकल	-7440
▁जगद	-7441
▁भान	-7442
▁लिं	-7443
▁ऽभव	-7444
कालिक	-7445
▁इतरे	-7446
▁चारु	-7447
▁बालक	-7448
▁मल्ल	-7449
▁विपा	-7450
उच्चार	-7451
▁तत्सम	-7452
▁द्वयो	-7453
▁महावि	-7454
▁तुल्यं	-7455
▁ध्रुवम्	-7456
▁पप्रच्छ	-7457
▁प्रमाणेन	-7458
▁कार्यकारण	-7459
▁फा	-7460
▁वेध	-7461
त्तरं	-7462
त्यते	-7463
▁च्यु	-7464
स्यामि	-7465
▁कर्णा	-7466
▁चक्षु	-7467
▁मान्य	-7468
▁मुम्ब	-7469
▁तीक्ष्	-7470
▁पश्यन्	-7471
उच्चारणः	-7472
पद्यन्ते	-7473
▁व्यतिरेक	-7474
थी	-7475
१४	-7476
...	-7477
▁पन	-7478
ERSE	-7479
गृहे	-7480
▁00:	-7481
▁कुर	-7482
▁चात	-7483
▁लता	-7484
▁लोह	-7485
▁गीता	-7486
▁नायं	-7487
▁परमो	-7488
▁भवेत	-7489
▁मारु	-7490
यात्रा	-7491
स्थिति	-7492
िकीर्ष	-7493
▁VERSE	-7494
▁मधुरं	-7495
▁यन्तु	-7496
▁यस्मि	-7497
▁विहीन	-7498
▁स्याम	-7499
▁स्वाय	-7500
▁पुनराव	-7501
▁विशेषे	-7502
▁श्रेयः	-7503
▁सिद्धः	-7504
▁विशेष्य	-7505
df	-7506
▁Se	-7507
शाली	-7508
▁भाः	-7509
ान्या	-7510
ाप्ते	-7511
▁अर्ह	-7512
▁परिम	-7513
▁पादः	-7514
▁श्या	-7515
स्थानं	-7516
▁अन्नं	-7517
▁गतिम्	-7518
▁सदृशं	-7519
▁सैनिक	-7520
▁स्थलं	-7521
▁ानन्द	-7522
षिध्यते	-7523
▁निषिद्ध	-7524
▁प्रख्या	-7525
▁मनुष्यः	-7526
▁कृतवन्तः	-7527
▁प्रकृतिं	-7528
▁साक्षाद्	-7529
▁पुस्तकानि	-7530
मव	-7531
सित	-7532
▁७८	-7533
त्य्	-7534
लेखः	-7535
▁न्यो	-7536
▁आदेशः	-7537
▁निर्ज	-7538
▁मध्यं	-7539
▁शक्तः	-7540
▁पुष्पा	-7541
▁पूर्णा	-7542
▁वर्णनं	-7543
▁विषयाः	-7544
▁विसर्ग	-7545
▁क्षुद्र	-7546
▁प्रभाते	-7547
▁मित्याह	-7548
▁लक्ष्यं	-7549
▁सादृश्य	-7550
▁ज्योतिर्	-7551
▁शब्दार्थ	-7552
▁ीत्यर्थः	-7553
▁सांस्कृतिक	-7554
ver	-7555
वेः	-7556
▁(5	-7557
▁एच	-7558
यिता	-7559
▁सखा	-7560
त्यां	-7561
पूज्य	-7562
▁आवेद	-7563
▁द्यौ	-7564
▁नायक	-7565
▁वह्न	-7566
भ्याम्	-7567
▁अत्या	-7568
▁दातुं	-7569
▁शुश्र	-7570
▁आरम्भः	-7571
▁तेभ्यो	-7572
▁परिपाल	-7573
▁भिक्षु	-7574
▁सातवां	-7575
▁हस्तेन	-7576
▁तत्क्षण	-7577
▁नास्त्य	-7578
▁वाक्यम्	-7579
▁शैक्षिक	-7580
▁सहस्रशः	-7581
▁तिष्ठन्ति	-7582
4.	-7583
if	-7584
ory	-7585
▁नभ	-7586
स्वं	-7587
▁मधि	-7588
▁रेण	-7589
▁समो	-7590
▁हतं	-7591
▁ायु	-7592
ानन्द	-7593
▁आशिष	-7594
▁दिवः	-7595
▁भव्य	-7596
▁यष्ट	-7597
▁वादः	-7598
पूर्ति	-7599
र्द्धं	-7600
▁प्रयत	-7601
▁समिति	-7602
▁होवाच	-7603
▁लक्षणे	-7604
▁ेष्वपि	-7605
▁कर्मण्य	-7606
▁भवत्येव	-7607
▁वक्ष्यति	-7608
▁वर्तमानः	-7609
▁विद्युत्	-7610
▁संयुक्तं	-7611
▁पृथिव्याः	-7612
est	-7613
सृज	-7614
ासे	-7615
▁गू	-7616
▁घं	-7617
▁तूं	-7618
▁रात	-7619
▁र्न	-7620
मात्म	-7621
वानां	-7622
▁केरल	-7623
▁जीवि	-7624
▁दूरी	-7625
▁वतां	-7626
▁अथातः	-7627
▁तथाहि	-7628
▁यामास	-7629
▁शृण्व	-7630
▁कल्पित	-7631
▁चित्ते	-7632
▁नारायण	-7633
▁पुरातन	-7634
▁ऊर्ध्वं	-7635
▁प्रशस्त	-7636
▁मुक्तिः	-7637
▁वासुदेव	-7638
▁ाभ्याम्	-7639
▁जीवन्मुक्त	-7640
उप	-7641
महे	-7642
ुवः	-7643
▁जह	-7644
▁७३	-7645
कर्ण	-7646
▁11.	-7647
▁अमा	-7648
▁कथन	-7649
▁तुर	-7650
▁रोष	-7651
▁जीवः	-7652
▁न्तः	-7653
▁भवान	-7654
▁भावि	-7655
▁ल्या	-7656
▁वाजि	-7657
▁विगत	-7658
▁समार	-7659
▁स्ता	-7660
▁हीनं	-7661
▁अधिका	-7662
▁चक्रं	-7663
▁दोषाः	-7664
▁परोक्ष	-7665
▁प्रदीप	-7666
▁प्रोवाच	-7667
▁मन्त्रं	-7668
▁व्यक्तं	-7669
▁व्याख्य	-7670
▁निरीक्षण	-7671
▁प्रतिदिन	-7672
▁संस्कृतं	-7673
age	-7674
▁us	-7675
▁चू	-7676
▁थे	-7677
▁अरि	-7678
▁कात	-7679
नीयम्	-7680
▁करने	-7681
▁कवचं	-7682
▁कारं	-7683
▁यानं	-7684
▁वामे	-7685
▁िताः	-7686
रात्रं	-7687
▁अपितु	-7688
▁अभूत्	-7689
▁पक्षी	-7690
▁प्रभव	-7691
▁यादृश	-7692
▁रक्तं	-7693
▁वर्गी	-7694
स्मान्न	-7695
▁स्वागतं	-7696
▁नरेन्द्र	-7697
▁प्रत्यभि	-7698
तीव	-7699
धीः	-7700
▁ंश	-7701
▁रव	-7702
▁८७	-7703
्वाद	-7704
▁तरी	-7705
▁पा०	-7706
▁ल्य	-7707
▁वि॒	-7708
▁ऽसि	-7709
ारिणः	-7710
▁अनिव	-7711
▁अवयव	-7712
▁भेदं	-7713
▁येषु	-7714
▁धीमतः	-7715
▁यतीति	-7716
▁यत्ते	-7717
▁सम्यग	-7718
▁लोकस्य	-7719
▁वाच्यं	-7720
▁दर्शनम्	-7721
▁Previous	-7722
▁स्त्रियो	-7723
षं	-7724
टना	-7725
णाः	-7726
ैवं	-7727
▁SP	-7728
▁sa	-7729
▁७७	-7730
ग्धा	-7731
डियो	-7732
परिव	-7733
▁अम्	-7734
▁अल्	-7735
▁गुर	-7736
▁फला	-7737
▁शूल	-7738
करोति	-7739
तिहास	-7740
विभाग	-7741
▁नरके	-7742
▁ाग्न	-7743
म्यहम्	-7744
▁कानां	-7745
▁धैर्य	-7746
▁याज्ञ	-7747
▁युवां	-7748
▁श्वास	-7749
▁जिह्वा	-7750
▁बिन्दु	-7751
▁विक्रय	-7752
▁वृद्धः	-7753
▁स्थापय	-7754
▁अधिकारः	-7755
▁अध्ययनं	-7756
▁विलक्षण	-7757
▁निर्विकल्प	-7758
▁᳚	-7759
ंति	-7760
ताल	-7761
शयः	-7762
ासी	-7763
▁1)	-7764
▁2)	-7765
▁यन	-7766
▁९९	-7767
गृहं	-7768
चक्ष	-7769
ण्ड्	-7770
द्धं	-7771
▁and	-7772
▁कया	-7773
▁दाप	-7774
▁र्ध	-7775
स्थित	-7776
▁त्व्	-7777
▁दाने	-7778
▁द्यः	-7779
▁पारं	-7780
कार्यं	-7781
▁आसपास	-7782
▁भाषाः	-7783
▁गुणान्	-7784
▁तदानीं	-7785
▁शताब्द	-7786
▁संध्या	-7787
▁मण्डलस्य	-7788
▁भविष्यामि	-7789
०४	-7790
धीन	-7791
परं	-7792
▁इ॒	-7793
▁ऊँ	-7794
▁९८	-7795
ोऽपि	-7796
▁वैक	-7797
▁श्म	-7798
▁दैवत	-7799
▁भूषण	-7800
▁यन्म	-7801
▁विषम	-7802
▁हविः	-7803
▁केषां	-7804
▁न्द्र	-7805
▁विध्य	-7806
▁ान्ते	-7807
▁जीवनम्	-7808
▁पूर्वो	-7809
▁इत्येते	-7810
▁चिकीर्ष	-7811
▁दृष्टम्	-7812
▁राज्यम्	-7813
▁महात्मनः	-7814
गतः	-7815
▁औं	-7816
▁जघ	-7817
▁बन	-7818
▁ेह	-7819
जायत	-7820
पेत्	-7821
र्थी	-7822
▁जनि	-7823
▁अमृत	-7824
▁गमने	-7825
▁तेना	-7826
▁धारय	-7827
▁ध्वन	-7828
▁फोटो	-7829
▁यूपी	-7830
▁इंद्र	-7831
▁एकत्र	-7832
▁संदेह	-7833
▁त्वादि	-7834
▁मुक्ता	-7835
▁पूर्व्व	-7836
▁सम्मेलन	-7837
▁विरुद्धं	-7838
यॊ	-7839
॒र	-7840
धनः	-7841
मोह	-7842
शान	-7843
ूपं	-7844
▁ुद	-7845
▁०९	-7846
▁६३	-7847
यामः	-7848
▁तमं	-7849
▁सौम	-7850
सूत्र	-7851
िंशति	-7852
▁उचित	-7853
▁क्षर	-7854
▁गुणे	-7855
▁भूमे	-7856
▁्याः	-7857
▁उभयोः	-7858
▁कृतिः	-7859
▁निदेश	-7860
▁यदिदं	-7861
▁वाद्य	-7862
▁स्वरः	-7863
▁त्रिधा	-7864
▁ध्रुवं	-7865
▁न्यासः	-7866
▁यस्यां	-7867
▁सम्मुख	-7868
▁सुन्दर	-7869
▁ताभ्यां	-7870
▁शब्दात्	-7871
▁सत्त्वं	-7872
▁प्रकृत्य	-7873
तमा	-7874
न्स	-7875
ब्ज	-7876
वते	-7877
▁2014	-7878
▁इलय्	-7879
▁कथाः	-7880
▁कुसु	-7881
▁क्वि	-7882
▁पन्न	-7883
▁पावन	-7884
▁वचने	-7885
▁ाणाम	-7886
▁आख्या	-7887
▁गन्तु	-7888
▁योद्ध	-7889
▁लौकिक	-7890
▁वर्ति	-7891
क्षिप्य	-7892
▁तादृशं	-7893
▁द्विजः	-7894
▁परार्थ	-7895
▁वर्षति	-7896
▁त्रिविध	-7897
▁त्वाच्च	-7898
▁परीणामः	-7899
सेव	-7900
▁हः	-7901
ight	-7902
चनम्	-7903
िष्ठ	-7904
▁जिं	-7905
▁सखे	-7906
▁ेत्	-7907
ञ्जलि	-7908
▁अनया	-7909
▁क्रु	-7910
▁टीका	-7911
▁पठित	-7912
▁पतति	-7913
▁यययय	-7914
▁लोको	-7915
▁उत्सव	-7916
▁क्रमा	-7917
▁नगरम्	-7918
▁नायकः	-7919
▁पश्चा	-7920
▁यन्ते	-7921
▁वेगेन	-7922
▁स्पृह	-7923
▁अन्ततः	-7924
▁ात्मकः	-7925
▁बहुव्रीह	-7926
▁श्रेष्ठं	-7927
▁योगदानानि	-7928
चक	-7929
▁To	-7930
▁ch	-7931
वित्	-7932
▁खड्	-7933
▁मरि	-7934
▁रथः	-7935
▁ागम	-7936
ङ्मुख	-7937
दर्शन	-7938
▁अस्प	-7939
▁परेण	-7940
▁वर्च	-7941
सत्त्व	-7942
▁अर्थं	-7943
▁तन्मे	-7944
▁तेऽपि	-7945
▁द्वाव	-7946
▁वासना	-7947
▁विन्य	-7948
▁उद्घाट	-7949
▁दुग्धं	-7950
▁दृष्टो	-7951
▁द्वयम्	-7952
▁लोकेषु	-7953
▁वायुर्	-7954
पर्यन्तं	-7955
▁प्रायेण	-7956
▁योजनानां	-7957
▁प्रातिपदिक	-7958
▁व्यवस्थितः	-7959
ङः	-7960
▁॰	-7961
ect	-7962
िनो	-7963
▁पह	-7964
▁सब	-7965
ears	-7966
यितु	-7967
लोकं	-7968
ुष्य	-7969
▁अरु	-7970
▁जपे	-7971
▁मुह	-7972
▁र्ज	-7973
▁षण्	-7974
▁सौर	-7975
▁तुला	-7976
▁दैवं	-7977
▁निकट	-7978
▁मस्य	-7979
▁महीं	-7980
▁र्थं	-7981
▁ैरपि	-7982
▁Nepal	-7983
▁च्छेद	-7984
▁तान्य	-7985
▁द्योत	-7986
▁समुदा	-7987
▁सविता	-7988
▁अकथयत्	-7989
▁जुहोति	-7990
▁भावात्	-7991
▁महाबाह	-7992
▁रक्षणं	-7993
▁ान्तरे	-7994
▁परिणामः	-7995
▁प्रशंसा	-7996
▁प्रेक्ष	-7997
▁संपूर्ण	-7998
▁प्रकाशते	-7999
▁प्रसङ्गः	-8000
ासः	-8001
▁	-8002
्	-8003
ा	-8004
त	-8005
र	-8006
ि	-8007
य	-8008
न	-8009
व	-8010
स	-8011
म	-8012
े	-8013
क	-8014
प	-8015
ं	-8016
द	-8017
ः	-8018
ु	-8019
।	-8020
ष	-8021
श	-8022
ो	-8023
ह	-8024
च	-8025
भ	-8026
ी	-8027
ल	-8028
ग	-8029
ध	-8030
अ	-8031
ण	-8032
ज	-8033
थ	-8034
ृ	-8035
-	-8036
ू	-8037
इ	-8038
ब	-8039
.	-8040
ट	-8041
ै	-8042
॥	-8043
ए	-8044
,	-8045
ख	-8046
आ	-8047
"	-8048
उ	-8049
ञ	-8050
ौ	-8051
१	-8052
(	-8053
ऽ	-8054
)	-8055
०	-8056
ड	-8057
ङ	-8058
२	-8059
_	-8060
ठ	-8061
छ	-8062
'	-8063
1	-8064
e	-8065
घ	-8066
a	-8067
2	-8068
0	-8069
?	-8070
i	-8071
फ	-8072
s	-8073
३	-8074
o	-8075
४	-8076
t	-8077
५	-8078
r	-8079
n	-8080
॒	-8081
९	-8082
६	-8083
७	-8084
८	-8085
3	-8086
ई	-8087
/	-8088
:	-8089
4	-8090
l	-8091
5	-8092
ॊ	-8093
॑	-8094
!	-8095
m	-8096
d	-8097
8	-8098
9	-8099
c	-8100
S	-8101
6	-8102
7	-8103
=	-8104
[	-8105
g	-8106
]	-8107
u	-8108
h	-8109
ँ	-8110
p	-8111
;	-8112
ढ	-8113
y	-8114
+	-8115
औ	-8116
ऋ	-8117
v	-8118
A	-8119
I	-8120
़	-8121
*	-8122
b	-8123
ॐ	-8124
T	-8125
f	-8126
P	-8127
C	-8128
ओ	-8129
>	-8130
k	-8131
ऊ	-8132
N	-8133
w	-8134
झ	-8135
E	-8136
M	-8137
D	-8138
B	-8139
x	-8140
R	-8141
L	-8142
॰	-8143
H	-8144
#	-8145
ऐ	-8146
O	-8147
F	-8148
ळ	-8149
ॆ	-8150
V	-8151
ॉ	-8152
G	-8153
U	-8154
@	-8155
ॄ	-8156
%	-8157
$	-8158
{	-8159
<	-8160
}	-8161
X	-8162
K	-8163
&	-8164
W	-8165
•	-8166
→	-8167
j	-8168
J	-8169
Y	-8170
z	-8171
ऑ	-8172
Q	-8173
~	-8174
ꣳ	-8175
ॅ	-8176
←	-8177
^	-8178
q	-8179
̣	-8180
·	-8181
ऎ	-8182
ā	-8183
᳚	-8184
↑	-8185
°	-8186
ʻ	-8187
ऩ	-8188
ʼ	-8189
̇	-8190
\	-8191
Z	-8192
›	-8193
►	-8194
ऱ	-8195
᳘	-8196
×	-8197
¦	-8198
്	-8199
Í	-8200
ऌ	-8201
̄	-8202
̐	-8203
ॠ	-8204
உ	-8205
о	-8206
÷	-8207
‖	-8208
️	-8209
а	-8210
−	-8211
ḥ	-8212
●	-8213
🙏	-8214
€	-8215
Ś	-8216
ર	-8217
்	-8218
ū	-8219
≤	-8220
ऍ	-8221
્	-8222
́	-8223
ا	-8224
е	-8225
н	-8226
¬	-8227
ॢ	-8228
ા	-8229
р	-8230
ऴ	-8231
л	-8232
₹	-8233
ü	-8234
т	-8235
৷	-8236
и	-8237
Ø	-8238
é	-8239
σ	-8240
ə	-8241
ന	-8242
√	-8243
ī	-8244
£	-8245
с	-8246
👉	-8247
꣢	-8248
ś	-8249
в	-8250
ل	-8251
ക	-8252
ṣ	-8253
д	-8254
★	-8255
ન	-8256
ാ	-8257
‐	-8258
ь	-8259
॓	-8260
ી	-8261
≥	-8262
◆	-8263
ம	-8264
✔	-8265
ત	-8266
ி	-8267
ー	-8268
꣣	-8269
ે	-8270
ா	-8271
ി	-8272
ં	-8273
મ	-8274
த	-8275
ു	-8276
‡	-8277
⇒	-8278
❍	-8279
🔊	-8280
á	-8281
î	-8282
¥	-8283
ñ	-8284
¢	-8285
ن	-8286
꣡	-8287
ó	-8288
Ž	-8289
ர	-8290
🙂	-8291
©	-8292
м	-8293
ത	-8294
⁄	-8295
🇳	-8296
🪔	-8297
§	-8298
у	-8299
я	-8300
ر	-8301
م	-8302
ي	-8303
ऄ	-8304
જ	-8305
ો	-8306
ṇ	-8307
і	-8308
【	-8309
🇮	-8310
ˆ	-8311
к	-8312
་	-8313
🚩	-8314
ı	-8315
🌷	-8316
б	-8317
й	-8318
ऺ	-8319
್	-8320
】	-8321
¤	-8322
ç	-8323
í	-8324
̥	-8325
ક	-8326
ய	-8327
ര	-8328
വ	-8329
語	-8330
🌹	-8331
ு	-8332
י	-8333
વ	-8334
ப	-8335
வ	-8336
♦	-8337
Î	-8338
ː	-8339
г	-8340
з	-8341
্	-8342
આ	-8343
∕	-8344
à	-8345
è	-8346
ˈ	-8347
പ	-8348
া	-8349
સ	-8350
ം	-8351
ട	-8352
െ	-8353
ᳪ	-8354
Ó	-8355
د	-8356
س	-8357
க	-8358
ந	-8359
❌	-8360
®	-8361
п	-8362
ц	-8363
ऒ	-8364
ন	-8365
ன	-8366
ನ	-8367
യ	-8368
✅	-8369
ع	-8370
ه	-8371
ತ	-8372
ങ	-8373
മ	-8374
ṭ	-8375
い	-8376
ö	-8377
х	-8378
ی	-8379
ত	-8380
પ	-8381
બ	-8382
ல	-8383
ಾ	-8384
ṛ	-8385
†	-8386
ィ	-8387
🔥	-8388
â	-8389
ɪ	-8390
ب	-8391
ऻ	-8392
ি	-8393
હ	-8394
ರ	-8395
അ	-8396
‹	-8397
⇄	-8398
✍	-8399
🛑	-8400
ú	-8401
ɑ	-8402
С	-8403
ж	-8404
ו	-8405
র	-8406
ગ	-8407
్	-8408
ಿ	-8409
ച	-8410
ല	-8411
᳭	-8412
ン	-8413
🌺	-8414
¡	-8415
±	-8416
ï	-8417
ş	-8418
̊	-8419
μ	-8420
ы	-8421
॔	-8422
િ	-8423
⋙	-8424
■	-8425
▲	-8426
❑	-8427
🌞	-8428
📖	-8429
Ï	-8430
ã	-8431
ł	-8432
š	-8433
̈	-8434
М	-8435
و	-8436
ܘ	-8437
ॡ	-8438
ম	-8439
એ	-8440
છ	-8441
ય	-8442
ು	-8443
ദ	-8444
ോ	-8445
၊	-8446
✓	-8447
❤	-8448
➧	-8449
🏻	-8450
🕉	-8451
α	-8452
Б	-8453
ت	-8454
ু	-8455
ದ	-8456
ṃ	-8457
′	-8458
∠	-8459
◎	-8460
ヒ	-8461
一	-8462
语	-8463
ê	-8464
ʊ	-8465
ю	-8466
ה	-8467
ى	-8468
ک	-8469
ক	-8470
দ	-8471
૧	-8472
அ	-8473
ి	-8474
ಂ	-8475
ಲ	-8476
ണ	-8477
ള	-8478
❯	-8479
。	-8480
し	-8481
の	-8482
デ	-8483
マ	-8484
🌸	-8485
💐	-8486
😂	-8487
¶	-8488
Þ	-8489
İ	-8490
ʃ	-8491
̃	-8492
ч	-8493
א	-8494
ב	-8495
য	-8496
ુ	-8497
ం	-8498
న	-8499
ర	-8500
ಸ	-8501
ᄌ	-8502
ḍ	-8503
ṁ	-8504
◉	-8505
◌	-8506
☝	-8507
➡	-8508
図	-8509
大	-8510
書	-8511
月	-8512
À	-8513
È	-8514
̶	-8515
Х	-8516
щ	-8517
ר	-8518
ش	-8519
ব	-8520
ল	-8521
স	-8522
ে	-8523
ટ	-8524
શ	-8525
ழ	-8526
ಕ	-8527
ಗ	-8528
ವ	-8529
೦	-8530
റ	-8531
േ	-8532
▶	-8533
◦	-8534
☆	-8535
⭐	-8536
か	-8537
ラ	-8538
增	-8539
전	-8540
💮	-8541
🔱	-8542
😊	-8543
Æ	-8544
Ç	-8545
Ü	-8546
ý	-8547
ē	-8548
Š	-8549
ɛ	-8550
П	-8551
ט	-8552
ס	-8553
ॿ	-8554
আ	-8555
ো	-8556
ਕ	-8557
થ	-8558
દ	-8559
ળ	-8560
ட	-8561
ண	-8562
ெ	-8563
య	-8564
వ	-8565
ు	-8566
ಡ	-8567
ಯ	-8568
ೆ	-8569
ശ	-8570
സ	-8571
ൊ	-8572
∆	-8573
▪	-8574
♂	-8575
♥	-8576
お	-8577
つ	-8578
テ	-8579
余	-8580
名	-8581
音	-8582
다	-8583
🔹	-8584
Ê	-8585
æ	-8586
ĉ	-8587
ō	-8588
ž	-8589
̧	-8590
θ	-8591
π	-8592
В	-8593
Д	-8594
Т	-8595
є	-8596
מ	-8597
ء	-8598
ح	-8599
ز	-8600
ق	-8601
گ	-8602
ܬ	-8603
উ	-8604
হ	-8605
ਾ	-8606
ણ	-8607
ભ	-8608
எ	-8609
ற	-8610
ோ	-8611
త	-8612
మ	-8613
ా	-8614
ಳ	-8615
എ	-8616
ധ	-8617
∴	-8618
す	-8619
な	-8620
パ	-8621
ル	-8622
年	-8623
行	-8624
꣯	-8625
사	-8626
🌻	-8627
🌿	-8628
🍃	-8629
🔅	-8630
Û	-8631
Ā	-8632
Œ	-8633
Ş	-8634
ż	-8635
ǁ	-8636
ˌ	-8637
ς	-8638
φ	-8639
Ј	-8640
А	-8641
Н	-8642
Р	-8643
ш	-8644
э	-8645
ל	-8646
ة	-8647
ف	-8648
ہ	-8649
۔	-8650
ە	-8651
জ	-8652
থ	-8653
প	-8654
়	-8655
ਰ	-8656
ੀ	-8657
અ	-8658
ઉ	-8659
ି	-8660
ಪ	-8661
ಮ	-8662
ೀ	-8663
ഗ	-8664
ജ	-8665
ഷ	-8666
ས	-8667
ა	-8668
ṅ	-8669
‒	-8670
⇔	-8671
∫	-8672
⋆	-8673
▼	-8674
♀	-8675
⛳	-8676
✳	-8677
❇	-8678
あ	-8679
く	-8680
シ	-8681
ズ	-8682
ネ	-8683
亦	-8684
知	-8685
음	-8686
🌄	-8687
🍁	-8688
📚	-8689
🔗	-8690
🔶	-8691
😀	-8692
😃	-8693
😎	-8694
😞	-8695
😢	-8696
Ì	-8697
Ð	-8698
ß	-8699
ä	-8700
ì	-8701
ô	-8702
ø	-8703
ę	-8704
Ō	-8705
œ	-8706
ƒ	-8707
ǀ	-8708
ʒ	-8709
̕	-8710
Δ	-8711
Ι	-8712
ή	-8713
β	-8714
ι	-8715
ρ	-8716
Ц	-8717
Э	-8718
ї	-8719
פ	-8720
ئ	-8721
ك	-8722
ܐ	-8723
ܒ	-8724
ܛ	-8725
ܦ	-8726
ܪ	-8727
গ	-8728
ধ	-8729
ਲ	-8730
ધ	-8731
ફ	-8732
લ	-8733
ૐ	-8734
૦	-8735
૪	-8736
இ	-8737
ஜ	-8738
ள	-8739
ஶ	-8740
ஷ	-8741
ொ	-8742
క	-8743
ల	-8744
స	-8745
ആ	-8746
ഇ	-8747
ഉ	-8748
ഞ	-8749
්	-8750
།	-8751
᳖	-8752
―	-8753
‰	-8754
※	-8755
≍	-8756
⏳	-8757
◄	-8758
♣	-8759
⛅	-8760
➛	-8761
➢	-8762
➤	-8763
た	-8764
っ	-8765
て	-8766
と	-8767
ッ	-8768
リ	-8769
不	-8770
义	-8771
亲	-8772
人	-8773
何	-8774
僕	-8775
十	-8776
可	-8777
国	-8778
如	-8779
尔	-8780
应	-8781
彼	-8782
愛	-8783
我	-8784
故	-8785
无	-8786
氣	-8787
的	-8788
觉	-8789
試	-8790
论	-8791
靈	-8792
기	-8793
낱	-8794
니	-8795
말	-8796
세	-8797
위	-8798
이	-8799
키	-8800
하	-8801
👇	-8802
👌	-8803
🔍	-8804
😜	-8805
😡	-8806
😳	-8807
¿	-8808
Á	-8809
Â	-8810
Ã	-8811
Ö	-8812
ð	-8813
ò	-8814
õ	-8815
ć	-8816
č	-8817
ě	-8818
ğ	-8819
į	-8820
ř	-8821
Ÿ	-8822
ɔ	-8823
ɜ	-8824
ʁ	-8825
ʏ	-8826
Ψ	-8827
δ	-8828
η	-8829
κ	-8830
ν	-8831
ο	-8832
τ	-8833
З	-8834
И	-8835
Й	-8836
О	-8837
У	-8838
ג	-8839
ש	-8840
ת	-8841
آ	-8842
إ	-8843
ج	-8844
پ	-8845
چ	-8846
ܣ	-8847
ং	-8848
ট	-8849
ৰ	-8850
ৱ	-8851
ਮ	-8852
ਸ	-8853
ੋ	-8854
੍	-8855
ઃ	-8856
ચ	-8857
ઞ	-8858
ડ	-8859
ષ	-8860
૯	-8861
ஸ	-8862
ீ	-8863
ே	-8864
భ	-8865
ಉ	-8866
ಎ	-8867
ಚ	-8868
ಬ	-8869
ಶ	-8870
ಹ	-8871
೨	-8872
ഈ	-8873
ബ	-8874
ീ	-8875
ർ	-8876
ൾ	-8877
ක	-8878
ය	-8879
ව	-8880
ා	-8881
ි	-8882
ག	-8883
ུ	-8884
გ	-8885
ზ	-8886
ი	-8887
ᄉ	-8888
ᅩ	-8889
ጻ	-8890
ᛁ	-8891
ᛖ	-8892
ᴇ	-8893
Ṛ	-8894
Ủ	-8895
⃣	-8896
↔	-8897
∈	-8898
≈	-8899
◇	-8900
☀	-8901
✥	-8902
✴	-8903
❁	-8904
➜	-8905
う	-8906
き	-8907
だ	-8908
ま	-8909
ら	-8910
る	-8911
を	-8912
ア	-8913
コ	-8914
ス	-8915
タ	-8916
チ	-8917
ト	-8918
为	-8919
京	-8920
作	-8921
依	-8922
反	-8923
因	-8924
意	-8925
成	-8926
所	-8927
新	-8928
期	-8929
果	-8930
格	-8931
梵	-8932
機	-8933
母	-8934
比	-8935
生	-8936
用	-8937
痛	-8938
発	-8939
相	-8940
者	-8941
能	-8942
自	-8943
薩	-8944
说	-8945
诸	-8946
通	-8947
遣	-8948
释	-8949
量	-8950
間	-8951
非	-8952
颂	-8953
대	-8954
발	-8955
브	-8956
요	-8957
합	-8958
𑑂	-8959
🇵	-8960
🌉	-8961
🌙	-8962
🌟	-8963
🌱	-8964
🍀	-8965
👫	-8966
💕	-8967
🔐	-8968
🔔	-8969
🔸	-8970
😉	-8971
😍	-8972
🤝	-8973
Å	-8974
Ò	-8975
Ú	-8976
ù	-8977
ą	-8978
Ċ	-8979
ė	-8980
ŋ	-8981
ư	-8982
ǒ	-8983
ǔ	-8984
ɒ	-8985
ɡ	-8986
̆	-8987
ά	-8988
ε	-8989
χ	-8990
ό	-8991
І	-8992
К	-8993
Ф	-8994
Ю	-8995
Я	-8996
ф	-8997
ј	-8998
ү	-8999
ם	-9000
ן	-9001
נ	-9002
ע	-9003
ק	-9004
أ	-9005
ص	-9006
ط	-9007
غ	-9008
ً	-9009
٬	-9010
ڪ	-9011
ۆ	-9012
ۇ	-9013
ܠ	-9014
ॾ	-9015
ই	-9016
খ	-9017
ঘ	-9018
চ	-9019
ছ	-9020
ী	-9021
ਅ	-9022
ਗ	-9023
ਤ	-9024
ਨ	-9025
ਪ	-9026
ਬ	-9027
਼	-9028
ਿ	-9029
ੇ	-9030
ੱ	-9031
ઈ	-9032
ઓ	-9033
ઠ	-9034
઼	-9035
ૂ	-9036
૨	-9037
૫	-9038
ଆ	-9039
ଓ	-9040
ଡ	-9041
ପ	-9042
ର	-9043
ଲ	-9044
଼	-9045
ା	-9046
ஆ	-9047
ச	-9048
అ	-9049
డ	-9050
ద	-9051
ప	-9052
శ	-9053
ె	-9054
ಃ	-9055
ಭ	-9056
ೇ	-9057
೪	-9058
ഛ	-9059
ഥ	-9060
ഭ	-9061
ഹ	-9062
ൂ	-9063
ൈ	-9064
ൻ	-9065
ൽ	-9066
ද	-9067
ස	-9068
น	-9069
ิ	-9070
ང	-9071
ཐ	-9072
པ	-9073
མ	-9074
ཡ	-9075
ལ	-9076
ཧ	-9077
ཱ	-9078
ྥ	-9079
ླ	-9080
ᆬ	-9081
ሕ	-9082
ብ	-9083
ዝ	-9084
ᛋ	-9085
ᛚ	-9086
᛫	-9087
᭭	-9088
ᳲ	-9089
ḏ	-9090
ṝ	-9091
ắ	-9092
Ἀ	-9093
∅	-9094
≠	-9095
≡	-9096
≦	-9097
▷	-9098
◊	-9099
☑	-9100
☘	-9101
☰	-9102
♡	-9103
♫	-9104
⚫	-9105
✌	-9106
✒	-9107
✧	-9108
✨	-9109
✺	-9110
❣	-9111
➥	-9112
⦁	-9113
、	-9114
《	-9115
》	-9116
「	-9117
」	-9118
が	-9119
さ	-9120
に	-9121
ひ	-9122
み	-9123
む	-9124
め	-9125
も	-9126
や	-9127
よ	-9128
ん	-9129
ジ	-9130
バ	-9131
プ	-9132
ボ	-9133
ロ	-9134
・	-9135
三	-9136
上	-9137
了	-9138
事	-9139
于	-9140
五	-9141
从	-9142
代	-9143
伟	-9144
修	-9145
全	-9146
八	-9147
六	-9148
具	-9149
切	-9150
加	-9151
北	-9152
卐	-9153
印	-9154
各	-9155
合	-9156
吗	-9157
员	-9158
和	-9159
哲	-9160
哷	-9161
地	-9162
堂	-9163
声	-9164
外	-9165
天	-9166
奪	-9167
好	-9168
婆	-9169
存	-9170
安	-9171
小	-9172
尼	-9173
广	-9174
度	-9175
异	-9176
当	-9177
整	-9178
方	-9179
显	-9180
普	-9181
晴	-9182
更	-9183
有	-9184
東	-9185
械	-9186
此	-9187
泊	-9188
然	-9189
猫	-9190
球	-9191
理	-9192
由	-9193
白	-9194
益	-9195
研	-9196
祖	-9197
程	-9198
立	-9199
第	-9200
素	-9201
而	-9202
许	-9203
身	-9204
都	-9205
间	-9206
页	-9207
首	-9208
감	-9209
공	-9210
교	-9211
급	-9212
두	-9213
듬	-9214
라	-9215
로	-9216
리	-9217
민	-9218
비	-9219
서	-9220
성	-9221
슈	-9222
신	-9223
아	-9224
어	-9225
영	-9226
예	-9227
완	-9228
의	-9229
인	-9230
좀	-9231
주	-9232
학	-9233
한	-9234
히	-9235
𑐎	-9236
𑐕	-9237
𑐫	-9238
𑐮	-9239
𑐴	-9240
𑐵	-9241
𑑄	-9242
𑑅	-9243
🇦	-9244
🇺	-9245
🌈	-9246
🌏	-9247
🌼	-9248
🍥	-9249
🎉	-9250
🎖	-9251
🎯	-9252
🐯	-9253
👈	-9254
👍	-9255
👏	-9256
👨	-9257
👩	-9258
👴	-9259
💄	-9260
💏	-9261
💔	-9262
💛	-9263
💥	-9264
📌	-9265
📎	-9266
📝	-9267
📰	-9268
🔰	-9269
😄	-9270
😅	-9271
😒	-9272
😘	-9273
🙍	-9274
🥀	-9275
🥇	-9276
🩸	-9277
É	-9278
Ë	-9279
Õ	-9280
å	-9281
ë	-9282
û	-9283
þ	-9284
ÿ	-9285
ă	-9286
ĕ	-9287
Ę	-9288
Ī	-9289
Ķ	-9290
ń	-9291
Ŏ	-9292
ŏ	-9293
ť	-9294
Ů	-9295
ų	-9296
Ż	-9297
Ǒ	-9298
ȧ	-9299
Ȩ	-9300
ȯ	-9301
ʈ	-9302
ʉ	-9303
ʋ	-9304
ʌ	-9305
ʟ	-9306
ʿ	-9307
ˎ	-9308
ˑ	-9309
̍	-9310
̖	-9311
̠	-9312
̪	-9313
Ά	-9314
Κ	-9315
Μ	-9316
Ο	-9317
Σ	-9318
Φ	-9319
Ω	-9320
ζ	-9321
ω	-9322
Е	-9323
Л	-9324
Ч	-9325
ё	-9326
ў	-9327
ҫ	-9328
ә	-9329
Ө	-9330
Ե	-9331
Կ	-9332
Հ	-9333
ա	-9334
ե	-9335
ն	-9336
ր	-9337
ւ	-9338
ַ	-9339
ד	-9340
כ	-9341
ף	-9342
צ	-9343
ײ	-9344
؞	-9345
خ	-9346
ذ	-9347
ُ	-9348
ِ	-9349
٫	-9350
ٰ	-9351
ٹ	-9352
ټ	-9353
ڌ	-9354
ں	-9355
ڼ	-9356
ھ	-9357
ۂ	-9358
ܕ	-9359
ܚ	-9360
ܟ	-9361
ॱ	-9362
ॵ	-9363
ॺ	-9364
ॼ	-9365
এ	-9366
ঠ	-9367
ড	-9368
ঢ	-9369
ণ	-9370
ষ	-9371
ৃ	-9372
০	-9373
৩	-9374
৭	-9375
ਂ	-9376
ਇ	-9377
ਊ	-9378
ਏ	-9379
ਖ	-9380
ਜ	-9381
ਟ	-9382
ਡ	-9383
ਣ	-9384
ਦ	-9385
ੁ	-9386
ੂ	-9387
ੰ	-9388
ખ	-9389
ઝ	-9390
ૃ	-9391
ૠ	-9392
૩	-9393
૬	-9394
૭	-9395
૮	-9396
ଃ	-9397
କ	-9398
ଖ	-9399
ତ	-9400
ଭ	-9401
େ	-9402
୍	-9403
ୟ	-9404
ஐ	-9405
ஹ	-9406
ூ	-9407
ை	-9408
ఉ	-9409
ఎ	-9410
ఓ	-9411
చ	-9412
జ	-9413
ధ	-9414
ఫ	-9415
ష	-9416
హ	-9417
ే	-9418
ై	-9419
ో	-9420
ಅ	-9421
ಇ	-9422
ಜ	-9423
ಟ	-9424
ಠ	-9425
ೂ	-9426
ೃ	-9427
ೊ	-9428
ೋ	-9429
೧	-9430
೩	-9431
ೲ	-9432
ഖ	-9433
ഠ	-9434
ഴ	-9435
ൃ	-9436
ග	-9437
ත	-9438
න	-9439
ප	-9440
ම	-9441
ල	-9442
ශ	-9443
ො	-9444
ค	-9445
ง	-9446
ด	-9447
ต	-9448
บ	-9449
พ	-9450
ฟ	-9451
ม	-9452
ร	-9453
ห	-9454
อ	-9455
ฮ	-9456
ั	-9457
า	-9458
ี	-9459
เ	-9460
โ	-9461
่	-9462
้	-9463
༔	-9464
༡	-9465
༣	-9466
༨	-9467
ཁ	-9468
ཊ	-9469
ན	-9470
བ	-9471
ཚ	-9472
ཝ	-9473
ཟ	-9474
ཥ	-9475
ི	-9476
ྀ	-9477
ྒ	-9478
ྨ	-9479
ྭ	-9480
ྱ	-9481
ྲ	-9482
დ	-9483
ე	-9484
ვ	-9485
თ	-9486
ლ	-9487
ნ	-9488
რ	-9489
ს	-9490
უ	-9491
ც	-9492
ሉ	-9493
ሩ	-9494
በ	-9495
ቮ	-9496
እ	-9497
ኳ	-9498
ገ	-9499
ፂ	-9500
ፃ	-9501
፪	-9502
ᒃ	-9503
ᒄ	-9504
ᒎ	-9505
ᓚ	-9506
ᗢ	-9507
ᘏ	-9508
ᚨ	-9509
ᚩ	-9510
ᚻ	-9511
ᚾ	-9512
ᛏ	-9513
ᛗ	-9514
ᛞ	-9515
ᭅ	-9516
᭠	-9517
ᮩ	-9518
᮰	-9519
ᱧ	-9520
Ჱ	-9521
᳒	-9522
ᳬ	-9523
ᴀ	-9524
Ḩ	-9525
ế	-9526
ệ	-9527
ὁ	-9528
ὕ	-9529
ὸ	-9530
ῖ	-9531
₩	-9532
↓	-9533
↕	-9534
↗	-9535
↩	-9536
↲	-9537
⇏	-9538
∖	-9539
∙	-9540
∝	-9541
∩	-9542
∵	-9543
⊂	-9544
⊃	-9545
⊕	-9546
▀	-9547
□	-9548
△	-9549
☁	-9550
☸	-9551
☹	-9552
☺	-9553
♈	-9554
♉	-9555
♻	-9556
⚏	-9557
⚕	-9558
⚡	-9559
⚪	-9560
⛈	-9561
⛹	-9562
✖	-9563
✦	-9564
✪	-9565
✹	-9566
✼	-9567
✿	-9568
❗	-9569
➖	-9570
➞	-9571
➦	-9572
➨	-9573
⟶	-9574
⟷	-9575
⠀	-9576
⭕	-9577
〈	-9578
け	-9579
げ	-9580
ご	-9581
ざ	-9582
ち	-9583
で	-9584
ど	-9585
は	-9586
ゃ	-9587
れ	-9588
イ	-9589
エ	-9590
オ	-9591
ク	-9592
グ	-9593
セ	-9594
ゼ	-9595
ソ	-9596
ツ	-9597
ナ	-9598
ノ	-9599
ピ	-9600
ポ	-9601
ャ	-9602
ョ	-9603
七	-9604
与	-9605
世	-9606
中	-9607
习	-9608
乱	-9609
二	-9610
互	-9611
介	-9612
仕	-9613
份	-9614
休	-9615
位	-9616
你	-9617
使	-9618
個	-9619
倒	-9620
健	-9621
元	-9622
入	-9623
其	-9624
円	-9625
册	-9626
决	-9627
出	-9628
划	-9629
列	-9630
利	-9631
别	-9632
到	-9633
副	-9634
助	-9635
化	-9636
卍	-9637
南	-9638
叉	-9639
发	-9640
口	-9641
句	-9642
同	-9643
后	-9644
吥	-9645
吸	-9646
告	-9647
咒	-9648
哉	-9649
哥	-9650
唯	-9651
喝	-9652
嘅	-9653
器	-9654
四	-9655
固	-9656
國	-9657
域	-9658
報	-9659
境	-9660
处	-9661
复	-9662
多	-9663
夜	-9664
夢	-9665
奖	-9666
威	-9667
孕	-9668
字	-9669
学	-9670
官	-9671
定	-9672
宦	-9673
寝	-9674
尊	-9675
少	-9676
属	-9677
岂	-9678
工	-9679
师	-9680
席	-9681
常	-9682
废	-9683
康	-9684
廬	-9685
引	-9686
弥	-9687
影	-9688
得	-9689
徹	-9690
忘	-9691
念	-9692
性	-9693
惑	-9694
感	-9695
憶	-9696
戻	-9697
执	-9698
投	-9699
摩	-9700
收	-9701
改	-9702
政	-9703
效	-9704
文	-9705
日	-9706
时	-9707
星	-9708
是	-9709
最	-9710
朝	-9711
杂	-9712
某	-9713
染	-9714
查	-9715
栄	-9716
检	-9717
模	-9718
権	-9719
款	-9720
止	-9721
民	-9722
永	-9723
求	-9724
汇	-9725
没	-9726
流	-9727
消	-9728
添	-9729
灭	-9730
熟	-9731
父	-9732
牙	-9733
现	-9734
班	-9735
疆	-9736
發	-9737
直	-9738
破	-9739
离	-9740
秘	-9741
稱	-9742
究	-9743
章	-9744
答	-9745
简	-9746
类	-9747
紅	-9748
終	-9749
続	-9750
網	-9751
繁	-9752
维	-9753
肉	-9754
花	-9755
若	-9756
英	-9757
茶	-9758
葬	-9759
處	-9760
蛟	-9761
蝶	-9762
衆	-9763
表	-9764
西	-9765
见	-9766
观	-9767
视	-9768
解	-9769
言	-9770
記	-9771
訳	-9772
論	-9773
讓	-9774
计	-9775
讨	-9776
话	-9777
贪	-9778
越	-9779
足	-9780
車	-9781
转	-9782
辦	-9783
达	-9784
过	-9785
运	-9786
返	-9787
追	-9788
逝	-9789
進	-9790
那	-9791
金	-9792
鉄	-9793
错	-9794
长	-9795
闻	-9796
阿	-9797
除	-9798
陸	-9799
障	-9800
雨	-9801
電	-9802
面	-9803
韩	-9804
響	-9805
願	-9806
须	-9807
飞	-9808
飲	-9809
龙	-9810
꣫	-9811
ꣲ	-9812
가	-9813
간	-9814
개	-9815
게	-9816
고	-9817
과	-9818
국	-9819
금	-9820
깨	-9821
나	-9822
냐	-9823
녹	-9824
는	-9825
달	-9826
더	-9827
동	-9828
따	-9829
뜨	-9830
락	-9831
레	-9832
력	-9833
름	-9834
만	-9835
망	-9836
맵	-9837
몸	-9838
못	-9839
뭐	-9840
받	-9841
백	-9842
번	-9843
법	-9844
봇	-9845
산	-9846
상	-9847
수	-9848
술	-9849
쉬	-9850
스	-9851
승	-9852
시	-9853
없	-9854
에	-9855
염	-9856
외	-9857
우	-9858
운	-9859
월	-9860
을	-9861
임	-9862
입	-9863
있	-9864
자	-9865
적	-9866
절	-9867
정	-9868
조	-9869
중	-9870
증	-9871
지	-9872
째	-9873
청	-9874
크	-9875
탄	-9876
탑	-9877
터	-9878
트	-9879
특	-9880
팅	-9881
파	-9882
함	-9883
허	-9884
효	-9885
힌	-9886
힘	-9887
︎	-9888
𑆤	-9889
𑌏	-9890
𑌥	-9891
𑌫	-9892
𑌮	-9893
𑌸	-9894
𑐰	-9895
𑑀	-9896
🅰	-9897
🇱	-9898
🇸	-9899
🇹	-9900
🌀	-9901
🌃	-9902
🌅	-9903
🌍	-9904
🌎	-9905
🌖	-9906
🌛	-9907
🌝	-9908
🌠	-9909
🌰	-9910
🌴	-9911
🍋	-9912
🍾	-9913
🎂	-9914
🎃	-9915
🎊	-9916
🎋	-9917
🎎	-9918
🎓	-9919
🎤	-9920
🎵	-9921
🎶	-9922
🎼	-9923
🏀	-9924
🏃	-9925
🏏	-9926
🏠	-9927
🏮	-9928
🏷	-9929
🏹	-9930
🏽	-9931
🐕	-9932
🐙	-9933
👆	-9934
👞	-9935
👣	-9936
👦	-9937
👧	-9938
👱	-9939
💑	-9940
💓	-9941
💖	-9942
💗	-9943
💘	-9944
💚	-9945
💝	-9946
💠	-9947
💦	-9948
💧	-9949
💫	-9950
💰	-9951
💱	-9952
💵	-9953
📂	-9954
📏	-9955
📕	-9956
📢	-9957
📣	-9958
📱	-9959
📳	-9960
📸	-9961
📺	-9962
🔟	-9963
🔷	-9964
🔺	-9965
🔻	-9966
🕔	-9967
🖊	-9968
🖱	-9969
🗃	-9970
🗒	-9971
🗣	-9972
🗳	-9973
😇	-9974
😌	-9975
😔	-9976
😝	-9977
😩	-9978
🙁	-9979
🙅	-9980
🙆	-9981
🙌	-9982
🙎	-9983
🚑	-9984
🚷	-9985
🛡	-9986
🤔	-9987
🤗	-9988
🤦	-9989
🤩	-9990
🤪	-9991
🤲	-9992
🥂	-9993
🥰	-9994
🦂	-9995
🧐	-9996
