<unk>	0
<s>	0
</s>	0
्य	-0
्र	-1
▁स	-2
्त	-3
▁प	-4
्व	-5
▁व	-6
▁।	-7
▁त	-8
▁क	-9
ान	-10
ति	-11
▁अ	-12
र्	-13
▁न	-14
म्	-15
▁म	-16
ित	-17
▁प्र	-18
▁य	-19
त्	-20
▁द	-21
्या	-22
ार	-23
▁भ	-24
▁च	-25
ां	-26
▁वि	-27
▁इ	-28
क्	-29
न्	-30
▁श	-31
ते	-32
स्य	-33
मा	-34
ष्	-35
या	-36
स्त	-37
न्त	-38
क्ष	-39
स्	-40
▁ए	-41
▁ज	-42
त्र	-43
▁॥	-44
र्व	-45
रा	-46
द्	-47
ना	-48
▁ह	-49
▁ग	-50
वि	-51
था	-52
क्त	-53
ेन	-54
▁आ	-55
ेव	-56
त्य	-57
ाद	-58
तः	-59
▁-	-60
पि	-61
िक	-62
ाय	-63
ाम	-64
्च	-65
▁उ	-66
त्त	-67
ाः	-68
ष्ट	-69
▁पर	-70
प्र	-71
▁ब	-72
▁(	-73
▁नि	-74
▁पु	-75
ाव	-76
ेष	-77
▁र	-78
▁इति	-79
नि	-80
ाल	-81
र्थ	-82
▁"	-83
▁सं	-84
मि	-85
▁ल	-86
दा	-87
्वा	-88
दि	-89
यो	-90
▁सर्व	-91
▁ध	-92
द्ध	-93
ता	-94
▁भव	-95
▁एव	-96
र्त	-97
▁वा	-98
ेश	-99
्ञ	-100
▁स्	-101
्यते	-102
▁स्व	-103
ङ्	-104
ान्	-105
ाप	-106
ृत	-107
श्च	-108
यं	-109
्यं	-110
ये	-111
▁अन	-112
भि	-113
ानि	-114
▁रा	-115
ास	-116
▁सम	-117
िं	-118
रण	-119
र्म	-120
नं	-121
▁तु	-122
ात	-123
रि	-124
्रि	-125
रु	-126
▁१	-127
ज्ञ	-128
▁.	-129
कार	-130
नः	-131
्ये	-132
यः	-133
सं	-134
ने	-135
▁सु	-136
ाग	-137
च्	-138
न्द	-139
रो	-140
रे	-141
ाण	-142
ती	-143
▁प्रति	-144
न्ति	-145
र्ष	-146
ुः	-147
ेद	-148
त्व	-149
ल्	-150
▁हि	-151
ष्ठ	-152
मान	-153
▁सा	-154
च्छ	-155
ुक्त	-156
स्ति	-157
मे	-158
▁पू	-159
ानां	-160
ैव	-161
तो	-162
ूप	-163
▁यथा	-164
द्य	-165
▁कु	-166
िव	-167
ाह	-168
र्ण	-169
▁इत्य	-170
▁ते	-171
▁_	-172
ात्	-173
धि	-174
स्थ	-175
तु	-176
गु	-177
▁कार	-178
ीय	-179
▁त्व	-180
ान्त	-181
भव	-182
नु	-183
ब्	-184
▁२	-185
▁'	-186
का	-187
▁मह	-188
कं	-189
सि	-190
श्व	-191
▁द्व	-192
मु	-193
▁ख	-194
▁देव	-195
ेण	-196
कः	-197
ाष	-198
ोऽ	-199
व्य	-200
हं	-201
लं	-202
रं	-203
्री	-204
ङ्ग	-205
ैः	-206
धिक	-207
स्या	-208
ितः	-209
▁क्	-210
▁तथा	-211
ेषु	-212
द्व	-213
सा	-214
▁उप	-215
▁1	-216
री	-217
मः	-218
र्ग	-219
ृष्ट	-220
भाव	-221
▁कि	-222
स्तु	-223
ृश	-224
देश	-225
के	-226
▁सम्	-227
ष्य	-228
प्त	-229
त्या	-230
वा	-231
तं	-232
िः	-233
▁भवति	-234
ुं	-235
▁मे	-236
रः	-237
णं	-238
क्र	-239
ृह	-240
▁राज	-241
िता	-242
▁कथ	-243
ण्	-244
नो	-245
▁श्र	-246
ग्	-247
कृ	-248
▁क्ष	-249
र्य	-250
सी	-251
न्ध	-252
▁सह	-253
न्य	-254
द्र	-255
▁मा	-256
हि	-257
योग	-258
▁किं	-259
▁यो	-260
ध्य	-261
▁स्थ	-262
ेत	-263
▁परि	-264
▁2	-265
स्व	-266
▁एक	-267
स्मा	-268
पु	-269
ग्र	-270
▁कृ	-271
ोप	-272
▁वै	-273
नी	-274
▁गु	-275
▁दु	-276
ञ्च	-277
भू	-278
रूप	-279
ितं	-280
▁व्य	-281
ानं	-282
▁?	-283
▁मु	-284
▁ना	-285
▁सू	-286
णा	-287
▁अपि	-288
दं	-289
न्न	-290
मेव	-291
▁तत्	-292
भ्य	-293
▁समा	-294
▁यदि	-295
ला	-296
▁प्राप	-297
▁तस्य	-298
▁एत	-299
त्वा	-300
▁तद	-301
▁स्त	-302
▁विश	-303
▁अनु	-304
र्श	-305
▁पूर्व	-306
चित	-307
▁पृ	-308
ुद्ध	-309
याः	-310
ब्द	-311
क्षण	-312
ीव	-313
▁अप	-314
स्मि	-315
ल्प	-316
लो	-317
▁अस्ति	-318
▁भू	-319
▁तत्र	-320
▁वर्ष	-321
पू	-322
वृ	-323
ित्य	-324
▁कृत	-325
नम्	-326
▁ज्ञ	-327
लि	-328
तिः	-329
श्र	-330
ेत्	-331
▁एवं	-332
▁फ	-333
--	-334
धान	-335
सु	-336
▁दि	-337
चार	-338
कृत	-339
ण्ड	-340
▁प्रा	-341
▁घ	-342
▁बह	-343
द्या	-344
▁वृ	-345
श्य	-346
▁पा	-347
▁मम	-348
शि	-349
▁छ	-350
ानु	-351
मं	-352
यति	-353
न्ते	-354
▁अथ	-355
▁पुनः	-356
च्च	-357
▁नाम	-358
णि	-359
ितम्	-360
ेति	-361
नां	-362
▁३	-363
ादि	-364
भाष	-365
वान्	-366
ोष	-367
प्	-368
ले	-369
▁भार	-370
्ज	-371
स्म	-372
र्ध	-373
▁यत्	-374
र्ज	-375
▁के	-376
चि	-377
▁अव	-378
काल	-379
▁प्रत्य	-380
▁व्या	-381
श्	-382
▁कर्त	-383
पद	-384
यम्	-385
▁पुन	-386
भाग	-387
करण	-388
्यां	-389
न्त्र	-390
ीं	-391
▁गृह	-392
▁लो	-393
क्षा	-394
त्स	-395
यम	-396
▁काल	-397
ाना	-398
ित्र	-399
▁या	-400
्रिय	-401
क्ति	-402
ाणि	-403
ेषां	-404
त्म	-405
ीत	-406
..	-407
पाद	-408
णे	-409
रुष	-410
▁अन्य	-411
र्थः	-412
ख्या	-413
ान्य	-414
न्म	-415
क्षि	-416
पा	-417
न्द्र	-418
▁तदा	-419
तां	-420
▁स्म	-421
वे	-422
धा	-423
▁कर्म	-424
▁स्या	-425
भिः	-426
युक्त	-427
न्तु	-428
▁प्रथ	-429
स्त्र	-430
▁४	-431
यु	-432
सः	-433
▁शि	-434
▁अधिक	-435
▁तव	-436
▁दृष्ट	-437
णां	-438
ुप	-439
य्	-440
▁ग्र	-441
से	-442
▁वर्त	-443
▁यु	-444
ामि	-445
▁भाष	-446
▁सि	-447
कु	-448
स्था	-449
▁जन	-450
ित्त	-451
▁को	-452
पर	-453
▁ततः	-454
वर्त	-455
ह्	-456
णः	-457
म्ब	-458
देव	-459
▁का	-460
ध्या	-461
मो	-462
▁सः	-463
▁=	-464
वृत्त	-465
▁करो	-466
▁विष	-467
▁शु	-468
▁तेन	-469
ूल	-470
स्मिन्	-471
दी	-472
▁ये	-473
▁हे	-474
र्थं	-475
जन	-476
▁कार्य	-477
▁क्र	-478
▁देश	-479
▁केव	-480
षु	-481
▁जीव	-482
सम	-483
दे	-484
वाद	-485
काश	-486
▁५	-487
▁[	-488
▁विश्व	-489
▁प्राप्त	-490
विष्य	-491
▁पुत्र	-492
▁__	-493
मिति	-494
योः	-495
▁उत्त	-496
को	-497
भा	-498
▁अभि	-499
ोक्त	-500
वः	-501
▁धर्म	-502
▁ति	-503
ारा	-504
त्त्व	-505
▁दे	-506
िका	-507
ायां	-508
ीति	-509
हे	-510
▁बहु	-511
ज्य	-512
स्र	-513
▁तं	-514
च्यते	-515
दान	-516
कम्	-517
▁!	-518
▁अत्र	-519
▁विक	-520
रम्	-521
ट्	-522
▁साम	-523
▁3	-524
▁लि	-525
यि	-526
तम	-527
▁ब्र	-528
▁इत्या	-529
ख्य	-530
▁भग	-531
क्य	-532
▁ऽ	-533
नेन	-534
प्य	-535
क्षे	-536
▁औ	-537
प्रति	-538
▁त्रि	-539
▁मन	-540
▁एष	-541
▁मया	-542
बन्ध	-543
▁दृश	-544
ध्ये	-545
▁कथं	-546
दु	-547
पी	-548
ित्	-549
मपि	-550
हार	-551
▁विशेष	-552
सार	-553
्रिया	-554
▁भविष्य	-555
ली	-556
माण	-557
शा	-558
▁ई	-559
▁ष	-560
▁/	-561
▁भाव	-562
ोध	-563
ज्ञान	-564
धु	-565
▁त्वं	-566
▁चि	-567
शः	-568
ोग	-569
▁स्वा	-570
यित	-571
नाः	-572
येत्	-573
▁जग	-574
▁अहं	-575
पे	-576
िते	-577
ष्ण	-578
यां	-579
सीत्	-580
▁ट	-581
परि	-582
▁पुरुष	-583
▁,	-584
चित्	-585
विध	-586
तम्	-587
हो	-588
्याः	-589
्यामि	-590
जा	-591
▁सप्त	-592
▁--	-593
मी	-594
वेद	-595
▁द्र	-596
विष	-597
▁६	-598
ष्ट्र	-599
▁यः	-600
▁समु	-601
ऽपि	-602
▁थ	-603
▁विद	-604
▁सुख	-605
▁संस्	-606
ुःख	-607
▁अन्त	-608
्वं	-609
सू	-610
▁ऋ	-611
▁पृथ	-612
▁20	-613
००	-614
धार	-615
सम्	-616
त्वं	-617
▁सर्वे	-618
शब्द	-619
▁दिव	-620
▁मृ	-621
ङ्क	-622
▁रूप	-623
्यो	-624
विश	-625
▁तर्	-626
▁वे	-627
दृश	-628
▁श्रु	-629
ाने	-630
▁गुण	-631
▁शब्द	-632
▁यत्र	-633
▁पद	-634
▁पी	-635
▁दू	-636
▁दी	-637
▁ॐ	-638
▁द्वि	-639
व्या	-640
णम्	-641
ग्रह	-642
ायते	-643
त्रं	-644
▁निर्	-645
न्या	-646
ञ्ज	-647
काः	-648
िताः	-649
▁मि	-650
▁परा	-651
चन	-652
▁तद्	-653
▁आसीत्	-654
▁पित	-655
दर्श	-656
▁पृष्ठ	-657
▁अतः	-658
▁यदा	-659
▁हृ	-660
यत्	-661
सिद्ध	-662
▁काम	-663
▁दश	-664
ताः	-665
र्या	-666
धे	-667
वी	-668
गम	-669
वेश	-670
चना	-671
षे	-672
ाणां	-673
न्व	-674
▁बाल	-675
▁दर्श	-676
्यः	-677
▁त्र	-678
▁कदा	-679
ोद	-680
यते	-681
वार	-682
▁८	-683
शु	-684
लः	-685
▁ने	-686
स्ते	-687
हा	-688
ीयते	-689
▁व्यव	-690
कि	-691
▁4	-692
त्रे	-693
▁नमः	-694
▁चा	-695
▁सो	-696
शी	-697
▁योग	-698
ग्नि	-699
▁S	-700
ोः	-701
योज	-702
त्प	-703
▁की	-704
णी	-705
▁स्यात्	-706
भेद	-707
तया	-708
▁शा	-709
ैक	-710
▁७	-711
▁मां	-712
▁तस्मा	-713
▁विना	-714
त्रा	-715
ात्म	-716
▁जा	-717
▁चतु	-718
क्रम	-719
▁मान	-720
कर्म	-721
▁अति	-722
▁भाग	-723
पूर्व	-724
स्प	-725
कर्त	-726
भ्यः	-727
▁करोति	-728
▁पि	-729
कृति	-730
▁विद्या	-731
▁२०	-732
रव	-733
्यम्	-734
▁ला	-735
__	-736
ातु	-737
er	-738
र्ह	-739
▁वेद	-740
षि	-741
▁संश	-742
▁रु	-743
सह	-744
▁यद	-745
र्मा	-746
ज्ज	-747
▁तेषां	-748
▁स्था	-749
▁लोक	-750
श्चि	-751
▁१९	-752
▁एते	-753
▁5	-754
in	-755
▁अस्य	-756
म्भ	-757
▁स्प	-758
वास	-759
▁परी	-760
▁रे	-761
की	-762
▁उक्त	-763
न्तः	-764
▁द्वित	-765
▁सिद्ध	-766
▁भारत	-767
▁इदं	-768
▁भगव	-769
सो	-770
▁तर्हि	-771
▁पठ	-772
नाम	-773
ोऽपि	-774
▁पञ्च	-775
▁सदा	-776
यन	-777
्ल	-778
द्वि	-779
▁तस्या	-780
▁अह	-781
▁मू	-782
▁वर्तते	-783
रणं	-784
व्यं	-785
▁*	-786
र्द	-787
▁स्त्री	-788
▁दक्षि	-789
▁दुःख	-790
st	-791
र्घ	-792
▁वद	-793
▁0	-794
▁वयं	-795
▁अत	-796
ितो	-797
▁ततो	-798
▁रक्ष	-799
▁आग	-800
ोज	-801
र्प	-802
धः	-803
▁शक	-804
लोक	-805
▁भवेत्	-806
▁सन्ति	-807
▁आह	-808
भवत्	-809
वर्ष	-810
▁A	-811
राज	-812
वाच	-813
▁कुर्व	-814
ुव	-815
▁ज्ञान	-816
▁वर्षे	-817
▁जु	-818
मुख	-819
▁क्षे	-820
▁ड	-821
लम्	-822
ारः	-823
▁गच्छ	-824
र्भ	-825
▁इव	-826
▁सर्वं	-827
▁भविष्यति	-828
▁और	-829
र्थे	-830
▁अस्मा	-831
स्थान	-832
धी	-833
▁अयं	-834
▁राष्ट्र	-835
▁दोष	-836
▁पाप	-837
पूर्ण	-838
▁यद्य	-839
गृह	-840
क्ष्य	-841
नोति	-842
ताम्	-843
▁९	-844
ेश्व	-845
▁सत्य	-846
ेः	-847
▁जान	-848
त्वात्	-849
िर	-850
▁+	-851
व्यम्	-852
तीति	-853
हः	-854
an	-855
▁क्रिय	-856
▁प्रथम	-857
ादश	-858
ाम्	-859
मानं	-860
▁आस	-861
▁प्राण	-862
▁इह	-863
▁तथ	-864
▁वी	-865
▁भ्र	-866
▁तत	-867
तिं	-868
▁कृत्वा	-869
णो	-870
दाह	-871
▁शी	-872
▁नो	-873
▁केवलं	-874
भाषा	-875
▁यस्य	-876
▁साध	-877
▁रि	-878
कारः	-879
ेक	-880
ज्ञा	-881
▁वक्त	-882
वाह	-883
▁परिव	-884
▁नृ	-885
ोच	-886
▁क्व	-887
▁जन्म	-888
▁वाय	-889
▁प्रज	-890
▁पश्य	-891
▁उत्	-892
ण्य	-893
▁ऊ	-894
▁१०	-895
▁याव	-896
पाल	-897
ंश	-898
▁ओ	-899
थि	-900
ुम्	-901
▁सद	-902
कल्प	-903
मन	-904
ब्र	-905
मास	-906
▁सामान्य	-907
on	-908
▁घट	-909
म्य	-910
▁कल	-911
▁परम	-912
पः	-913
प्रत्य	-914
▁इत्यादि	-915
▁परं	-916
ar	-917
ैर	-918
▁पुं	-919
▁विध	-920
▁येन	-921
▁वृद्ध	-922
▁मो	-923
00	-924
र्था	-925
ारी	-926
प्राप	-927
▁प्रि	-928
न्तं	-929
हित	-930
ारं	-931
लु	-932
▁नास्ति	-933
▁पूर्ण	-934
रस्य	-935
ाये	-936
त्ति	-937
▁जल	-938
▁मनु	-939
भ्या	-940
▁अधि	-941
▁T	-942
▁रात्र	-943
▁प्रश्	-944
▁करि	-945
▁फल	-946
▁वर्ण	-947
माह	-948
▁विद्यते	-949
▁खः	-950
▁वस्तु	-951
्याय	-952
गत	-953
ह्म	-954
▁हृद	-955
▁जि	-956
▁महा	-957
्रीड	-958
र्च	-959
्यु	-960
▁किम्	-961
भ्यां	-962
रेण	-963
▁अस	-964
ष्म	-965
यस्य	-966
▁बुद्ध	-967
▁मध्य	-968
कल	-969
मात्र	-970
▁I	-971
▁वाच	-972
िति	-973
▁नव	-974
▁सौ	-975
▁प्राप्	-976
वर्ण	-977
घ्र	-978
ष्टा	-979
en	-980
▁नं	-981
▁पूज	-982
▁धन	-983
▁मध्ये	-984
िकं	-985
ारि	-986
वत्	-987
▁मुक्त	-988
▁पाठ	-989
क्षु	-990
गुण	-991
▁पुरा	-992
▁बि	-993
र्वि	-994
or	-995
माः	-996
यत	-997
▁कर	-998
▁ताव	-999
याम	-1000
▁नित	-1001
ञ्	-1002
र्न	-1003
जः	-1004
तर	-1005
फल	-1006
▁समी	-1007
शं	-1008
▁प्रभ	-1009
सर्व	-1010
at	-1011
दाय	-1012
थं	-1013
विशेष	-1014
▁यज्ञ	-1015
▁प्रस	-1016
तन्त्र	-1017
▁दृश्यते	-1018
▁से	-1019
▁अर्थ	-1020
वस	-1021
यामि	-1022
▁प्रकाश	-1023
▁भि	-1024
▁भाषा	-1025
▁लिख	-1026
▁प्रती	-1027
ृण	-1028
काले	-1029
▁6	-1030
साध	-1031
▁ले	-1032
▁राजा	-1033
▁कल्प	-1034
गे	-1035
यन्ति	-1036
नम	-1037
▁मित्र	-1038
▁सर	-1039
ीया	-1040
शो	-1041
ही	-1042
▁गो	-1043
ादृश	-1044
▁शरी	-1045
▁दृष्ट्वा	-1046
▁जात	-1047
▁शुभ	-1048
लभ	-1049
▁श्री	-1050
्म	-1051
धिः	-1052
▁ः	-1053
णाम	-1054
▁प्रे	-1055
▁ह्य	-1056
▁यू	-1057
▁शक्त	-1058
▁सर्वत्र	-1059
▁कः	-1060
▁एतत्	-1061
नस्य	-1062
टि	-1063
वं	-1064
▁चे	-1065
भूत	-1066
्यू	-1067
मुक्त	-1068
काम	-1069
दिति	-1070
नाय	-1071
▁m	-1072
ड्	-1073
परा	-1074
▁क्रिया	-1075
▁युद्ध	-1076
▁सम्ब	-1077
ुम	-1078
▁201	-1079
▁यथ	-1080
भवति	-1081
▁नग	-1082
▁अध	-1083
▁मूल	-1084
ष्यति	-1085
es	-1086
ब्ध	-1087
▁पाद	-1088
कर	-1089
ान्व	-1090
▁8	-1091
ानाम्	-1092
▁शत्र	-1093
ची	-1094
डि	-1095
▁शक्ति	-1096
▁शेष	-1097
तेन	-1098
ायं	-1099
▁प्रयोग	-1100
▁मास	-1101
न्नि	-1102
ष्यामि	-1103
om	-1104
▁सूर्य	-1105
षा	-1106
▁पुर	-1107
▁अभवत्	-1108
समा	-1109
सौ	-1110
▁आव	-1111
▁तम	-1112
ात्र	-1113
▁पश	-1114
▁स्थाप	-1115
▁पृथिव	-1116
टी	-1117
▁बल	-1118
▁युक्त	-1119
▁गुरु	-1120
▁लक्ष	-1121
▁यद्	-1122
स्त्व	-1123
▁११	-1124
▁०	-1125
▁सेव	-1126
▁काले	-1127
▁निष्	-1128
दः	-1129
ष्टं	-1130
विद्या	-1131
▁यज	-1132
प्राप्त	-1133
▁()	-1134
शत	-1135
▁तृत	-1136
▁इदान	-1137
पो	-1138
रिति	-1139
देशे	-1140
▁केवल	-1141
▁मनो	-1142
राः	-1143
▁स्थान	-1144
▁t	-1145
▁इच्छ	-1146
यात्	-1147
ड़	-1148
▁संशयः	-1149
त्वेन	-1150
▁अध्य	-1151
ैत	-1152
▁भूत	-1153
▁शिव	-1154
यन्	-1155
▁त्य	-1156
▁राज्य	-1157
▁कृते	-1158
▁प्रोक्त	-1159
ित्वा	-1160
▁ऐ	-1161
▁हो	-1162
लक्षण	-1163
▁त्वया	-1164
ायः	-1165
▁नित्य	-1166
जि	-1167
▁नः	-1168
▁P	-1169
▁नैव	-1170
▁अग्नि	-1171
▁उपयोग	-1172
▁सहस्र	-1173
येन	-1174
रोध	-1175
▁भा	-1176
▁वच	-1177
ाद्य	-1178
जं	-1179
▁उभ	-1180
धर्म	-1181
▁सी	-1182
करो	-1183
▁चिन्त	-1184
▁M	-1185
▁जायते	-1186
▁ता	-1187
पति	-1188
दृष्ट	-1189
रम	-1190
▁विभ	-1191
▁अध्या	-1192
.1	-1193
ित्या	-1194
त्वे	-1195
▁आत्म	-1196
▁भवन्ति	-1197
ृत्य	-1198
▁कार्यं	-1199
▁किम	-1200
▁विद्य	-1201
▁भेद	-1202
▁कुरु	-1203
▁अद्य	-1204
तेः	-1205
▁तमे	-1206
स्मै	-1207
▁कारण	-1208
ार्थ	-1209
▁पे	-1210
▁अस्मिन्	-1211
▁धी	-1212
▁दत्त	-1213
▁स्वयं	-1214
कस्य	-1215
▁7	-1216
वती	-1217
दू	-1218
न्थ	-1219
al	-1220
वच	-1221
▁C	-1222
निर्	-1223
▁क्रीड	-1224
▁सूचना	-1225
▁व्र	-1226
▁विप	-1227
ल्ल	-1228
जी	-1229
याम्	-1230
▁इद	-1231
ादी	-1232
ानाम	-1233
▁N	-1234
मां	-1235
▁निर्व	-1236
दश	-1237
▁शत	-1238
▁भारती	-1239
▁शक्यते	-1240
मू	-1241
▁प्रधान	-1242
स्याः	-1243
र्गः	-1244
मित्त	-1245
नानि	-1246
▁नित्यं	-1247
▁केन	-1248
▁लभ	-1249
रति	-1250
त्मा	-1251
▁अन्यथा	-1252
▁दीर्घ	-1253
दौ	-1254
ोत्त	-1255
▁संस्कृत	-1256
▁बा	-1257
▁चेत्	-1258
▁पर्व	-1259
मुप	-1260
▁तथापि	-1261
रस	-1262
ेवं	-1263
▁मात	-1264
▁कश्च	-1265
भार	-1266
ासु	-1267
नियम	-1268
▁एकः	-1269
▁निश्च	-1270
शेष	-1271
मन्त	-1272
हु	-1273
▁नी	-1274
▁आर	-1275
देशः	-1276
▁ब्रह्म	-1277
▁हस्त	-1278
▁नर	-1279
जे	-1280
▁कौ	-1281
ेष्ठ	-1282
बल	-1283
जीव	-1284
्वे	-1285
ag	-1286
िकः	-1287
▁गण	-1288
▁१२	-1289
▁स्वी	-1290
हास	-1291
टे	-1292
▁विव	-1293
पृ	-1294
▁धार	-1295
नग	-1296
▁वार	-1297
▁उत्तर	-1298
▁प्रण	-1299
▁चैव	-1300
पुत्र	-1301
▁शो	-1302
▁विज्ञ	-1303
गः	-1304
ान्ति	-1305
▁दुर्	-1306
्रा	-1307
▁१८	-1308
भु	-1309
वर्तते	-1310
पुरुष	-1311
▁स्वप्	-1312
भ्यो	-1313
▁करण	-1314
र्क	-1315
वान	-1316
वां	-1317
▁पुनर	-1318
▁क्षेत्र	-1319
ान्न	-1320
▁अस्माकं	-1321
ष्यते	-1322
क्षः	-1323
ii	-1324
साम	-1325
▁ज्ञात	-1326
नाम्	-1327
▁यतः	-1328
▁विचार	-1329
▁लेख	-1330
रूपेण	-1331
▁विज	-1332
▁क्रियते	-1333
▁उच्यते	-1334
▁किन्तु	-1335
द्रा	-1336
▁स्वर्ग	-1337
▁तो	-1338
▁ध्य	-1339
ह्य	-1340
यात	-1341
▁मृत्य	-1342
▁शक्	-1343
▁ग्रह	-1344
▁प्रवि	-1345
▁H	-1346
▁यत	-1347
भावः	-1348
धिकार	-1349
▁B	-1350
लय	-1351
इति	-1352
▁ध्व	-1353
गो	-1354
▁साक्ष	-1355
▁पूर्वं	-1356
मह	-1357
ेय	-1358
▁जनाः	-1359
▁वर्तमान	-1360
▁विकल्प	-1361
ेऽ	-1362
▁किञ्च	-1363
▁एका	-1364
▁वाम	-1365
▁गत	-1366
▁अथवा	-1367
क्तं	-1368
मनु	-1369
्वः	-1370
ष्या	-1371
तोऽ	-1372
▁१५	-1373
▁पुस्त	-1374
यितुं	-1375
मव	-1376
▁दक्षिण	-1377
▁भाषण	-1378
मेर	-1379
▁10	-1380
दत्त	-1381
▁भवतः	-1382
तुं	-1383
्वि	-1384
न्ना	-1385
▁पार	-1386
▁विषय	-1387
▁सम्बन्ध	-1388
इट	-1389
खि	-1390
निक	-1391
रूपं	-1392
ापि	-1393
कृत्य	-1394
▁दृश्य	-1395
ाहं	-1396
▁न्या	-1397
व्यः	-1398
त्वम्	-1399
▁इत्युक्त	-1400
भ्र	-1401
▁पश्च	-1402
र्द्ध	-1403
वृत्ति	-1404
▁9	-1405
ग्ने	-1406
पं	-1407
▁सव	-1408
▁रुप	-1409
्ड	-1410
मेत	-1411
ल्य	-1412
▁कोई	-1413
▁पृष्ठानि	-1414
▁ईश्व	-1415
▁उच्च	-1416
▁त्वां	-1417
▁वृत्त	-1418
शास	-1419
▁निय	-1420
▁बाह	-1421
घु	-1422
▁लोके	-1423
मिदं	-1424
्येत	-1425
क्रिया	-1426
▁तिष्ठ	-1427
▁न्	-1428
स्थाप	-1429
पद्यते	-1430
पत्त	-1431
वो	-1432
▁मार्ग	-1433
▁नियम	-1434
रू	-1435
▁मन्त्र	-1436
▁वस	-1437
▁प्रव	-1438
▁भु	-1439
▁अत्य	-1440
वेदन	-1441
गण	-1442
▁हरि	-1443
▁परमा	-1444
संधान	-1445
▁चित्र	-1446
▁ङ	-1447
▁विधि	-1448
▁कार्या	-1449
▁तप	-1450
क्षं	-1451
म्म	-1452
▁शू	-1453
▁तां	-1454
▁समुद्र	-1455
it	-1456
पर्य	-1457
शक्त	-1458
▁कृप	-1459
च्छति	-1460
बि	-1461
▁शीघ्र	-1462
▁वन	-1463
कर्ष	-1464
▁उद्	-1465
द्धि	-1466
...	-1467
ादेश	-1468
चर	-1469
मार	-1470
▁अती	-1471
न्तरं	-1472
▁योज	-1473
▁दृ	-1474
मित्य	-1475
▁माता	-1476
शास्त्र	-1477
▁इत	-1478
▁s	-1479
िनः	-1480
▁तत्त्व	-1481
▁रस	-1482
▁मुख	-1483
▁झ	-1484
कूल	-1485
▁वेब	-1486
यौ	-1487
ाला	-1488
▁>	-1489
▁उदाह	-1490
कार्य	-1491
▁वर	-1492
▁विप्र	-1493
▁विभाग	-1494
बुद्ध	-1495
▁निर्म	-1496
▁L	-1497
▁भावः	-1498
▁कम	-1499
धिकरण	-1500
सां	-1501
ैर्	-1502
▁प्रातः	-1503
स्मात्	-1504
▁तथैव	-1505
▁इत्यस्य	-1506
मार्ग	-1507
▁स्मृ	-1508
▁विस्त	-1509
▁लाभ	-1510
▁पुनर्	-1511
▁संयुक्त	-1512
▁अनुसंधान	-1513
▁शास्त्र	-1514
ज्यते	-1515
चित्र	-1516
▁बु	-1517
नात्	-1518
▁मधु	-1519
भवः	-1520
▁सन्	-1521
▁तद्व	-1522
iv	-1523
▁पर्य	-1524
▁अन्व	-1525
▁भक्त	-1526
दिष्ट	-1527
शे	-1528
हम्	-1529
▁प्रार्थ	-1530
हृ	-1531
ुत	-1532
ाया	-1533
▁सर्वेषां	-1534
नीय	-1535
▁पदा	-1536
केन	-1537
▁भवान्	-1538
▁त्वा	-1539
▁रो	-1540
▁अनेन	-1541
▁सुर	-1542
▁यं	-1543
▁सङ्	-1544
साइट	-1545
त्रि	-1546
▁क्षण	-1547
▁उद	-1548
ज्ञः	-1549
कर्ता	-1550
मम्	-1551
▁इन्द्र	-1552
१०	-1553
ित्व	-1554
रुद्ध	-1555
▁द्रष्ट	-1556
▁सूत्र	-1557
यी	-1558
20	-1559
ितानि	-1560
▁विषये	-1561
▁दैव	-1562
▁दिन	-1563
▁प्रकृति	-1564
ृतं	-1565
तन	-1566
ों	-1567
▁विकास	-1568
▁निर	-1569
थः	-1570
▁भारतीय	-1571
▁प्राप्नोति	-1572
िके	-1573
थे	-1574
▁संसार	-1575
बा	-1576
▁सम्य	-1577
▁द्वादश	-1578
ुर	-1579
▁शुद्ध	-1580
▁पिता	-1581
मानः	-1582
▁सति	-1583
▁प्रयोज	-1584
▁परिवर्त	-1585
िकी	-1586
▁गति	-1587
मस्ति	-1588
ेष्व	-1589
▁है	-1590
लिख	-1591
▁१४	-1592
ाण्ड	-1593
न्त्य	-1594
पार	-1595
▁तत्त	-1596
▁मुख्य	-1597
▁खलु	-1598
स्तथा	-1599
▁अम	-1600
▁फलं	-1601
▁इत्येत	-1602
ेषण	-1603
▁श्	-1604
▁ननु	-1605
▁वेबसाइट	-1606
▁विह	-1607
▁इदानीं	-1608
गा	-1609
▁कुर्या	-1610
▁ज्यो	-1611
▁विनि	-1612
▁कुर्वन्ति	-1613
▁सिं	-1614
षेध	-1615
प्रि	-1616
▁सर्वदा	-1617
ध्यते	-1618
▁शक्य	-1619
लक्ष	-1620
यित्वा	-1621
▁1.	-1622
ृणु	-1623
▁इत्यर्थः	-1624
▁विकि	-1625
▁विष्ण	-1626
▁परीक्षा	-1627
दो	-1628
▁सर्वा	-1629
शक्ति	-1630
▁कस्य	-1631
▁द्विती	-1632
▁समाप्त	-1633
▁स्न	-1634
भी	-1635
▁ि	-1636
▁वो	-1637
सङ्ग	-1638
▁अमेर	-1639
दपि	-1640
▁चित्त	-1641
▁दा	-1642
वरी	-1643
▁सम्बद्ध	-1644
re	-1645
स्ट	-1646
हू	-1647
षां	-1648
▁तस्मात्	-1649
कम	-1650
च्य	-1651
▁अधिकतम	-1652
▁प्रमाण	-1653
▁जू	-1654
बी	-1655
मेण	-1656
▁19	-1657
मान्	-1658
▁प्रश्न	-1659
२०	-1660
सहस्र	-1661
ेक्ष	-1662
▁...	-1663
ितवान्	-1664
▁तौ	-1665
▁भी	-1666
कृतं	-1667
▁b	-1668
▁वर्ध	-1669
▁साह	-1670
कथ	-1671
---	-1672
िकाः	-1673
म्ह	-1674
▁प्रयत्	-1675
▁पुष्	-1676
▁संख्या	-1677
▁p	-1678
जात	-1679
ान्तर	-1680
▁प्रसिद्ध	-1681
ऽऽ	-1682
▁रोग	-1683
▁भगवान्	-1684
str	-1685
▁कारणं	-1686
धं	-1687
ाग्र	-1688
▁गृहे	-1689
▁अधिनियम	-1690
▁प्रच	-1691
▁D	-1692
▁ग्राम	-1693
le	-1694
कृते	-1695
कारेण	-1696
कारं	-1697
शिष्ट	-1698
▁आप	-1699
न्दि	-1700
am	-1701
कू	-1702
व्र	-1703
▁प्रय	-1704
▁सार	-1705
ou	-1706
व्यव	-1707
र्थम्	-1708
▁यतो	-1709
▁भवे	-1710
▁१७	-1711
▁c	-1712
स्यापि	-1713
▁यावत्	-1714
▁१३	-1715
ृहं	-1716
ध्व	-1717
ाह्म	-1718
▁देवा	-1719
▁#	-1720
भे	-1721
ानी	-1722
बोध	-1723
धुना	-1724
निः	-1725
ितुं	-1726
खा	-1727
▁नू	-1728
्याव	-1729
च्छेद	-1730
दोष	-1731
▁पति	-1732
▁ण	-1733
दिश	-1734
ूनां	-1735
वै	-1736
सम्ब	-1737
घ्	-1738
युः	-1739
स्यां	-1740
ic	-1741
दुःख	-1742
▁तस्मिन्	-1743
र्ति	-1744
▁सङ्ग	-1745
सङ्	-1746
टा	-1747
तौ	-1748
विधि	-1749
सर्ग	-1750
-1	-1751
ाग्	-1752
▁ती	-1753
▁दण्ड	-1754
मध्ये	-1755
जो	-1756
संस्	-1757
▁एवम्	-1758
ारो	-1759
▁पव	-1760
विधान	-1761
▁विशि	-1762
▁समान	-1763
▁हर	-1764
▁महि	-1765
▁V	-1766
गी	-1767
तुः	-1768
▁पितृ	-1769
▁उत्पाद	-1770
▁वाक्य	-1771
▁१६	-1772
▁वृक्ष	-1773
▁श्रुत्वा	-1774
▁सक	-1775
▁सोम	-1776
▁गम	-1777
प्रयोग	-1778
टः	-1779
▁भोज	-1780
▁छात्र	-1781
लिङ्ग	-1782
▁द्वारा	-1783
▁समाचार	-1784
स्पर	-1785
▁शै	-1786
▁हेतु	-1787
पदं	-1788
न्तर	-1789
▁पक्ष	-1790
▁कर्तुं	-1791
ीः	-1792
▁दूर	-1793
▁प्रशि	-1794
ान्ते	-1795
मन्त्र	-1796
▁नै	-1797
नौ	-1798
भय	-1799
भास	-1800
▁न्यू	-1801
षण	-1802
▁एषा	-1803
▁त्या	-1804
क्ष्यामि	-1805
▁नु	-1806
▁लघु	-1807
▁लक्षण	-1808
▁पाल	-1809
▁श्व	-1810
ed	-1811
१९	-1812
▁कश्चि	-1813
दार	-1814
ष्मा	-1815
खे	-1816
ोत	-1817
▁प्रभाव	-1818
▁निर्ण	-1819
sg	-1820
▁निरा	-1821
संख्या	-1822
▁यद्यपि	-1823
ायु	-1824
ग्रे	-1825
▁अहम्	-1826
▁देशे	-1827
▁चन्द्र	-1828
▁नार	-1829
▁व्याख्या	-1830
माणं	-1831
▁निः	-1832
ाद्	-1833
▁षष्ठ	-1834
▁पश्चि	-1835
यान	-1836
sgstr	-1837
▁एकं	-1838
▁गि	-1839
▁परम्	-1840
▁बी	-1841
▁स्फ	-1842
▁f	-1843
न्नं	-1844
पत्र	-1845
स्थित	-1846
त्ते	-1847
▁धात	-1848
त्प्र	-1849
त्यं	-1850
▁---	-1851
▁इयं	-1852
▁कथा	-1853
▁कदाचित्	-1854
▁कृता	-1855
पेक्ष	-1856
▁कृतं	-1857
▁अग	-1858
न्ती	-1859
भक्त	-1860
ष्टः	-1861
ष्टि	-1862
▁प्रवेश	-1863
त्ता	-1864
वद	-1865
भावे	-1866
▁सम्बद्धानि	-1867
▁वाक	-1868
▁धन्य	-1869
▁वायु	-1870
मुच्यते	-1871
ome	-1872
▁गतः	-1873
चा	-1874
पिं	-1875
र्वा	-1876
▁सन्द	-1877
▁गत्वा	-1878
पक्ष	-1879
पात	-1880
▁जनवरी	-1881
▁उदाहरण	-1882
▁समर्थ	-1883
▁वय	-1884
वत्स	-1885
▁क्वचित्	-1886
▁मद	-1887
गं	-1888
ion	-1889
▁मै	-1890
▁अनि	-1891
▁अनेक	-1892
▁एषः	-1893
समु	-1894
▁ज्ञानं	-1895
▁अष्ट	-1896
▁a	-1897
▁d	-1898
साय	-1899
ेषाम	-1900
▁(1	-1901
रक्ष	-1902
ज्ञानं	-1903
▁द्वितीय	-1904
बु	-1905
▁मयि	-1906
▁अस्म	-1907
स्तं	-1908
विभाग	-1909
▁प्रत्यक्ष	-1910
मौ	-1911
स्ता	-1912
▁2.	-1913
▁परस्पर	-1914
▁विशेषतः	-1915
▁R	-1916
▁)	-1917
▁पौ	-1918
▁पत्र	-1919
नन्द	-1920
▁इत्येव	-1921
ेवाः	-1922
▁अक्ष	-1923
▁भारतस्य	-1924
▁सोऽ	-1925
र्म्म	-1926
▁आवश्य	-1927
▁11	-1928
पित	-1929
▁सम्प	-1930
▁चल	-1931
▁विविध	-1932
सेन	-1933
्रियां	-1934
▁अर्थः	-1935
ारे	-1936
▁मं	-1937
त्थ	-1938
▁मी	-1939
▁उद्य	-1940
▁प्राप्य	-1941
घा	-1942
हस्य	-1943
▁कति	-1944
▁इत्यनेन	-1945
करणे	-1946
ैश्च	-1947
तस्य	-1948
▁अवि	-1949
is	-1950
मेन	-1951
विषय	-1952
ताम	-1953
▁सै	-1954
वन्तः	-1955
माय	-1956
फलं	-1957
योजन	-1958
साधन	-1959
▁n	-1960
किं	-1961
▁गौ	-1962
▁तर	-1963
▁प्रत्या	-1964
ागर	-1965
▁राम	-1966
▁प्राय	-1967
.0	-1968
र्त्त	-1969
▁पृथक्	-1970
राज्य	-1971
ादौ	-1972
▁स्य	-1973
▁हिं	-1974
▁अयम्	-1975
११	-1976
वन	-1977
ान्तः	-1978
ासि	-1979
▁अज	-1980
विषये	-1981
ent	-1982
न्तो	-1983
▁कीदृश	-1984
▁पार्थ	-1985
▁यान	-1986
▁प्रतिष्ठ	-1987
माद	-1988
श्रु	-1989
ेत्य	-1990
▁भूमि	-1991
▁ध्यान	-1992
करणं	-1993
▁श्रेष्ठ	-1994
रुण	-1995
लेख	-1996
▁दान	-1997
▁इत्यत्र	-1998
▁प्रो	-1999
तेषु	-2000
▁12	-2001
▁सत	-2002
स्स	-2003
▁मनः	-2004
भः	-2005
गतं	-2006
न्धि	-2007
मात्	-2008
न्दु	-2009
▁जी	-2010
क्ष्म	-2011
▁कृपया	-2012
एव	-2013
▁मनुष्य	-2014
▁सर्व्व	-2015
कारण	-2016
सेव	-2017
नापि	-2018
ध्	-2019
▁खे	-2020
▁पं	-2021
मति	-2022
ारु	-2023
▁क्रि	-2024
ोर	-2025
नव	-2026
▁अङ्ग	-2027
▁तेषु	-2028
मत	-2029
▁Tag	-2030
हर	-2031
▁ददा	-2032
ाव्य	-2033
प्रा	-2034
▁थ्व	-2035
▁बन्ध	-2036
▁<	-2037
वाः	-2038
त्तर	-2039
▁विद्व	-2040
िकित्	-2041
▁रूपं	-2042
▁प्रथमं	-2043
सृ	-2044
ष्व	-2045
चित्त	-2046
स्क	-2047
▁लु	-2048
ीप	-2049
▁मत	-2050
ृतम्	-2051
▁जना	-2052
▁ज्योति	-2053
नाश	-2054
▁अव्य	-2055
▁नेवाः	-2056
षः	-2057
दिना	-2058
▁Home	-2059
▁कर्ण	-2060
कृतिः	-2061
▁कुत्र	-2062
लस्य	-2063
▁वह	-2064
▁उत्स	-2065
वृद्ध	-2066
शाल	-2067
▁वापि	-2068
ुक्तं	-2069
▁मन्त	-2070
▁शान्त	-2071
▁बुद्धि	-2072
lo	-2073
▁स्र	-2074
मय	-2075
▁अधो	-2076
▁भवित	-2077
▁भो	-2078
ज्	-2079
दृ	-2080
सन्ध	-2081
▁ज्व	-2082
▁पश्यति	-2083
ायै	-2084
डिया	-2085
यमेव	-2086
ितां	-2087
▁वर्ग	-2088
▁E	-2089
स्त्य	-2090
स्वरूप	-2091
रुप	-2092
▁Ne	-2093
▁शृणु	-2094
ेयं	-2095
▁केन्द्र	-2096
चः	-2097
ानाति	-2098
▁याति	-2099
ष्ये	-2100
▁क्रम	-2101
▁O	-2102
िंश	-2103
भेदे	-2104
▁अधिकार	-2105
रात्र	-2106
▁रात्रौ	-2107
▁विज्ञान	-2108
लाः	-2109
▁स्थि	-2110
▁सम्प्र	-2111
▁प्रवर्त	-2112
हिता	-2113
णाम्	-2114
मम	-2115
▁ज्या	-2116
इगु	-2117
▁बृह	-2118
▁परीक्षण	-2119
चे	-2120
नया	-2121
ेदं	-2122
माना	-2123
▁प्रया	-2124
▁तस्याः	-2125
▁देह	-2126
▁ङी	-2127
▁हित	-2128
▁परमेश्व	-2129
रणे	-2130
▁व्यक्त	-2131
१२	-2132
▁न्याय	-2133
▁शत्रु	-2134
▁शिक्ष	-2135
सर	-2136
▁दृढ	-2137
▁गा	-2138
▁नम	-2139
▁गच्छति	-2140
▁जलं	-2141
▁निज	-2142
▁न्य	-2143
प्प	-2144
▁सां	-2145
कृता	-2146
लये	-2147
ब्दा	-2148
▁ब्रू	-2149
▁सृष्ट	-2150
मिव	-2151
▁चापि	-2152
▁यूयं	-2153
▁द्विज	-2154
▁लिङ्ग	-2155
▁देवानां	-2156
कौ	-2157
्यात्	-2158
▁मण्ड	-2159
पदा	-2160
▁२००	-2161
▁कृष्ण	-2162
▁निवेद	-2163
▁देवता	-2164
▁पार्	-2165
तिक	-2166
▁अप्र	-2167
बं	-2168
▁याः	-2169
िको	-2170
▁पुण्य	-2171
▁G	-2172
स्तस्य	-2173
▁तादृश	-2174
योर	-2175
सुख	-2176
गतः	-2177
▁धर्मा	-2178
ग्ध	-2179
ेकं	-2180
▁वित्त	-2181
लोप	-2182
रेत्	-2183
वर	-2184
▁भय	-2185
लम्ब	-2186
▁अथा	-2187
▁धनं	-2188
ch	-2189
▁ख्या	-2190
▁तया	-2191
▁रोच	-2192
▁किमपि	-2193
१५	-2194
▁$	-2195
▁15	-2196
▁अना	-2197
▁गृही	-2198
ौक	-2199
▁18	-2200
न्यं	-2201
▁नृप	-2202
▁आद	-2203
विक	-2204
लोके	-2205
▁प्रश	-2206
▁पत	-2207
▁ग्रन्थ	-2208
डा	-2209
▁टि	-2210
▁विश्वा	-2211
▁प्रतिदि	-2212
▁इदम्	-2213
्रियते	-2214
▁घोष	-2215
▁चक्र	-2216
▁स्तु	-2217
▁ठ	-2218
▁त्रि०	-2219
▁प्रथमा	-2220
्येन	-2221
ad	-2222
नय	-2223
▁कर्त्त	-2224
▁शीत	-2225
रिक्त	-2226
साद	-2227
▁समर्प	-2228
ीयम्	-2229
▁गते	-2230
▁ग्राह	-2231
राष्ट्र	-2232
▁यत्त	-2233
▁कश्चित्	-2234
्रे	-2235
▁वः	-2236
ीनां	-2237
ंस	-2238
टो	-2239
टक	-2240
ाप्	-2241
ग्री	-2242
▁अध्ययन	-2243
▁प्रवृत्त	-2244
ीर	-2245
▁→	-2246
द्द	-2247
हां	-2248
▁राज्यं	-2249
▁रम	-2250
प्रभ	-2251
▁सुखं	-2252
वण	-2253
▁माम	-2254
क्स	-2255
ाप्य	-2256
▁कृतम्	-2257
भिर	-2258
▁सम्भव	-2259
ण्ठ	-2260
ाय्	-2261
▁अश्व	-2262
मण्ड	-2263
▁msgstr	-2264
as	-2265
▁शास	-2266
▁कोऽपि	-2267
▁दिने	-2268
कारस्य	-2269
कृष्ट	-2270
▁प्रायः	-2271
हितः	-2272
▁द्वे	-2273
▁परिणाम	-2274
▁ह्र	-2275
राणां	-2276
▁कालः	-2277
स्थाने	-2278
विंश	-2279
▁तिथि	-2280
▁याये	-2281
▁देवाः	-2282
▁सूच	-2283
▁अधुना	-2284
▁कन्या	-2285
षी	-2286
▁तै	-2287
▁कृतः	-2288
▁माया	-2289
▁व्यवहार	-2290
ायत	-2291
ासी	-2292
▁तम्	-2293
▁पुरुषः	-2294
he	-2295
िन	-2296
▁हा	-2297
.2	-2298
▁स्थित	-2299
पत्	-2300
माज	-2301
िनी	-2302
सत	-2303
▁देहि	-2304
▁इत्यु	-2305
▁विवाह	-2306
▁विस्म	-2307
न्नः	-2308
माने	-2309
▁मत्	-2310
देह	-2311
▁श्रद्ध	-2312
१४	-2313
▁ं	-2314
▁वने	-2315
▁२५	-2316
ज्ञात	-2317
त्वाद	-2318
▁सत्यं	-2319
यय	-2320
▁स्तो	-2321
धारण	-2322
स्तव	-2323
स्ताव	-2324
१८	-2325
ङ्के	-2326
मन्य	-2327
▁अहो	-2328
र्यं	-2329
▁पाव	-2330
भिप्र	-2331
▁स्वभाव	-2332
स्थानं	-2333
ाहि	-2334
▁आकाश	-2335
▁प्रतिपाद	-2336
▁स्वतन्त्र	-2337
ाले	-2338
▁२२	-2339
ष्ट्रिय	-2340
कारि	-2341
▁मुनि	-2342
शय	-2343
▁गोप	-2344
कानां	-2345
त्त्वं	-2346
भागे	-2347
il	-2348
▁रथ	-2349
र्हि	-2350
वर्ज	-2351
▁निवेश	-2352
ूनि	-2353
▁दै	-2354
▁F	-2355
्येण	-2356
▁नेपाल	-2357
ून	-2358
ट्ट	-2359
वादः	-2360
▁छुं	-2361
हिं	-2362
▁साक्षात्	-2363
मित	-2364
राय	-2365
▁वित	-2366
▁जातः	-2367
▁o	-2368
ing	-2369
तरं	-2370
पृष्ठ	-2371
ce	-2372
ूह	-2373
▁l	-2374
मात्म	-2375
ेतुः	-2376
▁मिथ	-2377
▁स्वयम्	-2378
▁तुल	-2379
▁प्री	-2380
▁{	-2381
परी	-2382
▁अभ	-2383
▁महोद	-2384
▁धि	-2385
▁इतिहास	-2386
स्तत्र	-2387
vi	-2388
▁एतद	-2389
▁२१	-2390
▁कुतः	-2391
▁संप्र	-2392
▁तृ	-2393
▁धा	-2394
र्भव	-2395
▁प्राप्ते	-2396
▁चेत	-2397
▁वार्त	-2398
धानं	-2399
▁अतो	-2400
धनं	-2401
ान्तं	-2402
यामास	-2403
▁स्त्रियां	-2404
पुर	-2405
विधा	-2406
▁कुश	-2407
▁स्थाने	-2408
गति	-2409
नुव	-2410
पञ्च	-2411
स्यते	-2412
▁भवता	-2413
ानुसार	-2414
▁•	-2415
▁आसन्	-2416
▁व्यक्ति	-2417
ाद्व	-2418
▁सन्त	-2419
▁करोमि	-2420
पूज	-2421
शब्दः	-2422
▁कर्तव्य	-2423
▁सत्	-2424
चिन्त	-2425
▁तानि	-2426
योऽ	-2427
▁द्वौ	-2428
▁मन्य	-2429
▁त्यक्त	-2430
▁आः	-2431
▁देवी	-2432
▁यम	-2433
▁रक्त	-2434
लेश	-2435
▁तू	-2436
▁प्रदेश	-2437
लव	-2438
▁U	-2439
श्यं	-2440
मन्त्री	-2441
यव	-2442
▁भवतु	-2443
▁अन्ये	-2444
▁शीघ्रं	-2445
ताव	-2446
च्छि	-2447
ोऽयं	-2448
पुं	-2449
ादिति	-2450
▁रुपये	-2451
त्पाद	-2452
▁कू	-2453
▁पदं	-2454
▁दिना	-2455
▁मूर्	-2456
एस	-2457
नैः	-2458
▁परे	-2459
स्थितः	-2460
पक	-2461
▁दुर्लभ	-2462
▁सर्वाणि	-2463
▁शरीर	-2464
मतः	-2465
▁धू	-2466
▁प्रतिशत	-2467
कृतः	-2468
▁कं	-2469
हितं	-2470
िकम्	-2471
▁गृह्	-2472
निष्ठ	-2473
▁स्थानं	-2474
दय	-2475
१७	-2476
धिप	-2477
तिष्ठ	-2478
▁आचार	-2479
▁कथम्	-2480
रवरी	-2481
▁विश्ल	-2482
ञ्छ	-2483
मूल	-2484
रणम्	-2485
ाम्य	-2486
डी	-2487
रत	-2488
नतः	-2489
स्त्वं	-2490
▁३०	-2491
संज्ञ	-2492
▁विदेश	-2493
योक्त	-2494
▁प्रदर्श	-2495
▁तदेव	-2496
▁मानु	-2497
▁तावत्	-2498
▁प्रशिक्षण	-2499
नाव	-2500
रित	-2501
▁अं	-2502
▁प्राची	-2503
▁..	-2504
▁कुल	-2505
▁श्रू	-2506
▁परिभाषा	-2507
राणि	-2508
▁गृहं	-2509
▁&	-2510
येत	-2511
क्ष्	-2512
▁पाठः	-2513
मृ	-2514
-2	-2515
▁ध्र	-2516
१३	-2517
▁इं	-2518
योगः	-2519
▁तद्य	-2520
यथा	-2521
▁14	-2522
णेन	-2523
▁किल	-2524
टु	-2525
ारम्भ	-2526
▁सम्पाद	-2527
▁स्वरूप	-2528
यनं	-2529
▁विर	-2530
क्षेप	-2531
ग्न	-2532
ांश	-2533
▁इत्	-2534
▁गाय	-2535
▁विन	-2536
कानि	-2537
्याम	-2538
तीत्य	-2539
▁संस्था	-2540
राग	-2541
कालं	-2542
▁धारा	-2543
▁समास	-2544
स्मिन्न	-2545
▁टी	-2546
▁मौ	-2547
▁लाख	-2548
जु	-2549
▁२४	-2550
स्वा	-2551
▁भर्त	-2552
▁राक्ष	-2553
▁प्रकृत	-2554
▁उपयोगकर्ता	-2555
▁भोग	-2556
▁उपरि	-2557
▁वचनं	-2558
▁नाम्	-2559
ाभि	-2560
श्चैव	-2561
▁श्रो	-2562
▁मृत्यु	-2563
त्तम	-2564
▁शब्दः	-2565
▁प्रयुक्त	-2566
धात	-2567
ीकरण	-2568
▁उत्प	-2569
▁स्ने	-2570
▁वह्	-2571
▁विकिपी	-2572
हन	-2573
क्तिः	-2574
म्प	-2575
न्दो	-2576
▁गन्ध	-2577
रोग	-2578
स्फ	-2579
▁कर्ता	-2580
▁क्रोध	-2581
ीयः	-2582
▁सच	-2583
▁नदी	-2584
▁भयं	-2585
ब्रवी	-2586
विद	-2587
वाक्य	-2588
लन	-2589
▁जाय	-2590
▁जानाति	-2591
धाय	-2592
मात्रं	-2593
पाठ	-2594
द्यः	-2595
▁प्ल	-2596
ोक्तं	-2597
प्रथ	-2598
दात्त	-2599
▁पूजा	-2600
▁ब्राह्म	-2601
▁प्रत्येकं	-2602
नात	-2603
पाप	-2604
▁धातु	-2605
▁लब्ध	-2606
▁दिव्य	-2607
ानः	-2608
ृति	-2609
▁An	-2610
ष्टे	-2611
स्ती	-2612
स्थि	-2613
▁प्रिय	-2614
▁पृथिवी	-2615
"।	-2616
▁ममा	-2617
▁प्रत्यय	-2618
▁]	-2619
▁जाता	-2620
▁मातृ	-2621
स्त्रि	-2622
▁परन्तु	-2623
भोग	-2624
▁मानव	-2625
▁समाज	-2626
▁प्राग	-2627
ेह	-2628
साह	-2629
पद्य	-2630
विः	-2631
▁२६	-2632
▁२७	-2633
▁पदे	-2634
▁युव	-2635
▁जगत्	-2636
▁तद्वि	-2637
▁कव	-2638
▁आयु	-2639
▁देवि	-2640
▁पृष्ट	-2641
निमित्त	-2642
भं	-2643
▁विरा	-2644
▁पात	-2645
▁समय	-2646
▁जाग	-2647
▁वत्स	-2648
▁अमेरिका	-2649
ार्थं	-2650
ुट	-2651
दानं	-2652
भिन्न	-2653
▁दुष्	-2654
स्माकं	-2655
▁तः	-2656
गच्छ	-2657
▁//	-2658
बद्ध	-2659
▁चक्षु	-2660
ामः	-2661
▁चर	-2662
▁मय	-2663
भ्यं	-2664
विश्व	-2665
करोत्	-2666
्यताम्	-2667
▁तन्	-2668
्येष्ठ	-2669
▁निमित्त	-2670
▁व्यवसाय	-2671
▁यश	-2672
▁क्षि	-2673
ादीनां	-2674
पदे	-2675
▁बाध	-2676
▁सदस्य	-2677
▁संभव	-2678
▁निवृत्त	-2679
ृतः	-2680
मस्य	-2681
▁परमं	-2682
कुर्व	-2683
िकल्प	-2684
▁कला	-2685
▁मृत	-2686
दक्षि	-2687
▁चिकित्	-2688
et	-2689
ीन	-2690
लेन	-2691
▁कै	-2692
१६	-2693
ीयं	-2694
्यादि	-2695
▁स्त्रि	-2696
▁तस्मै	-2697
षं	-2698
भूव	-2699
▁यौ	-2700
▁पत्	-2701
▁शिक्षा	-2702
▁पो	-2703
▁अल्प	-2704
▁स्थिति	-2705
▁पुण	-2706
मिच्छ	-2707
ay	-2708
वाय	-2709
हीं	-2710
ेषा	-2711
कारे	-2712
▁प्रक	-2713
उप	-2714
ामी	-2715
▁बहि	-2716
▁शेषः	-2717
▁स्पष्ट	-2718
▁समस्त	-2719
दम्	-2720
▁दिवस	-2721
भावात्	-2722
कैः	-2723
▁अश	-2724
ादेव	-2725
भाग्य	-2726
▁अर्था	-2727
ेर	-2728
ेते	-2729
रक्षण	-2730
ात्मा	-2731
ab	-2732
▁पूर	-2733
त्रापि	-2734
▁शस्त्र	-2735
▁खोज	-2736
▁प्रोक्तं	-2737
▁सम्पूर्ण	-2738
णु	-2739
▁अल	-2740
ेषाम्	-2741
▁महत्व	-2742
▁थः	-2743
▁न्ह	-2744
त्येव	-2745
▁बहुधा	-2746
ख्यान	-2747
▁एतेन	-2748
▁लभते	-2749
क्षेत्र	-2750
दिव	-2751
यतु	-2752
▁उत	-2753
हस्त	-2754
धिष्ठ	-2755
देशस्य	-2756
बाह	-2757
▁ब्रह्	-2758
रात्	-2759
हेतु	-2760
▁महत्	-2761
▁कर्मा	-2762
▁न्याया	-2763
स्तदा	-2764
▁सदैव	-2765
▁पीड	-2766
▁क्षु	-2767
▁भक्ष	-2768
▁इत्यादिना	-2769
▁सृ	-2770
▁स्याद	-2771
र्हति	-2772
दयः	-2773
▁13	-2774
▁भ्रम	-2775
▁पिब	-2776
▁वास	-2777
▁येषां	-2778
खण्ड	-2779
▁निक	-2780
▁पु०	-2781
▁वरि	-2782
▁पुत्रः	-2783
▁सम्भवति	-2784
▁आश्र	-2785
▁अभ्या	-2786
▁इदानी	-2787
▁ददाति	-2788
▁तान्	-2789
कारो	-2790
▁प्राणि	-2791
▁शं	-2792
श्चा	-2793
▁हरे	-2794
▁भेदः	-2795
▁यानि	-2796
21	-2797
न्ये	-2798
समये	-2799
▁सर्वेषु	-2800
▁3.	-2801
▁एस	-2802
र्नि	-2803
तायाः	-2804
▁राज्ञ	-2805
सद	-2806
धातु	-2807
ष्टो	-2808
▁जूगु	-2809
ोऽहं	-2810
▁एवा	-2811
▁युग	-2812
▁वय्	-2813
घट	-2814
ोड	-2815
करं	-2816
काय	-2817
ितम	-2818
यन्त	-2819
संयुक्त	-2820
थाः	-2821
▁तच्च	-2822
द्वारा	-2823
▁जानामि	-2824
▁कृतवान्	-2825
ot	-2826
▁पुरस्	-2827
▁फरवरी	-2828
नीं	-2829
ख्ये	-2830
भूमि	-2831
▁जुइ	-2832
गुणं	-2833
▁ग्री	-2834
▁ज्ञे	-2835
SS	-2836
▁भज	-2837
▁चेति	-2838
▁अग्ने	-2839
▁इत्याह	-2840
▁गर्भ	-2841
श्रेष्ठ	-2842
चिद	-2843
वचन	-2844
▁भारते	-2845
▁17	-2846
प्ति	-2847
▁गन्त	-2848
▁पेपर	-2849
▁वृद्धि	-2850
पाः	-2851
स्यति	-2852
्यस्य	-2853
▁क्षमा	-2854
▁पार्श्व	-2855
स्थं	-2856
▁केश	-2857
▁प्रजाप	-2858
याय	-2859
▁चै	-2860
▁विमान	-2861
▁स्थितः	-2862
प्स	-2863
▁ध्वनि	-2864
▁सत्त्व	-2865
यिष्यामि	-2866
▁कर्तव्यं	-2867
क्षते	-2868
▁विधीयते	-2869
▁शृ	-2870
चेत	-2871
▁अभ्य	-2872
▁तृतीय	-2873
▁अतीव	-2874
स्मान्	-2875
पत	-2876
ालि	-2877
▁हृदय	-2878
▁परस्प	-2879
▁कर्मणि	-2880
मप	-2881
करः	-2882
नानां	-2883
▁प्रह	-2884
प्रकाश	-2885
ूढ	-2886
प्तं	-2887
ारण	-2888
▁दो	-2889
▁एतद्	-2890
विज्ञान	-2891
ाली	-2892
▁आई	-2893
▁सामाज	-2894
ितौ	-2895
▁अय	-2896
▁चत्व	-2897
▁रात्रि	-2898
लयः	-2899
▁कथ्यते	-2900
णाति	-2901
▁नाय	-2902
▁कुर्यात्	-2903
भो	-2904
▁चु	-2905
क्रमः	-2906
ङ्ग्ल	-2907
ान्तरे	-2908
▁त्वम्	-2909
▁भक्ति	-2910
▁ताप	-2911
▁विवे	-2912
▁वैश्व	-2913
ासा	-2914
▁२३	-2915
ज्या	-2916
सप्त	-2917
▁उत्तम	-2918
▁पुष्प	-2919
▁अस्मि	-2920
▁विधान	-2921
रौ	-2922
ध्यायः	-2923
▁करिष्यामि	-2924
▁नरः	-2925
ग्राम	-2926
▁दुःखं	-2927
दिने	-2928
▁कथितं	-2929
▁तिष्ठति	-2930
ol	-2931
अनु	-2932
घात	-2933
▁हृदि	-2934
▁भिन्न	-2935
▁विषयः	-2936
▁निवर्त	-2937
▁विकिपीडिया	-2938
ग्राह	-2939
▁मेरे	-2940
▁सञ्च	-2941
ितानां	-2942
▁युष्मा	-2943
▁मरु	-2944
ान्या	-2945
▁अन्यत्र	-2946
▁षड	-2947
▁परिच	-2948
▁टिप्प	-2949
▁दर्शयति	-2950
धन	-2951
रां	-2952
ेनैव	-2953
ैर्य	-2954
▁उवाच	-2955
चिद्	-2956
वादि	-2957
▁पश्चात्	-2958
ादु	-2959
र्थो	-2960
▁ताम	-2961
कृतम्	-2962
▁नाट	-2963
धीयते	-2964
ऽहं	-2965
पुरा	-2966
ासां	-2967
सूत्र	-2968
▁विपरी	-2969
▁सम्यक्	-2970
जाः	-2971
▁थु	-2972
▁तन्म	-2973
षो	-2974
▁साव	-2975
▁संस्थ	-2976
▁शुक्र	-2977
दिन	-2978
रोप	-2979
भूतं	-2980
▁अने	-2981
▁नाश	-2982
us	-2983
न्ने	-2984
▁कीर्त	-2985
वत	-2986
िना	-2987
▁शोभ	-2988
स्त्री	-2989
▁मध्यम	-2990
ष्यन्ति	-2991
▁में	-2992
▁वाद	-2993
▁देवः	-2994
ग्रहणं	-2995
ितु	-2996
▁खँ	-2997
ार्त	-2998
स्ततः	-2999
▁प्रेष	-3000
▁हृदयं	-3001
द्ग	-3002
न्यः	-3003
्यति	-3004
▁खेल	-3005
▁धाः	-3006
ग्रहः	-3007
▁सङ्क	-3008
▁पर्या	-3009
ज़	-3010
▁तदपि	-3011
▁नारी	-3012
▁इत्य्	-3013
▁तृतीया	-3014
▁स्वप्न	-3015
el	-3016
यॊ	-3017
▁मूर्ख	-3018
प्रत्ययः	-3019
▁ज्येष्ठ	-3020
रेव	-3021
▁एम	-3022
षेधः	-3023
सस्य	-3024
▁द्वार	-3025
▁आत्मा	-3026
▁उपा	-3027
▁कश्चन	-3028
▁विश्वं	-3029
▁जे	-3030
▁रज	-3031
▁एवम	-3032
▁यात	-3033
▁बो	-3034
ङ्गु	-3035
▁पशु	-3036
क्षणं	-3037
▁मन्यते	-3038
माव	-3039
▁वयम्	-3040
▁विशिष्ट	-3041
एक	-3042
धिकं	-3043
ालं	-3044
न्द्रिय	-3045
▁पार्थिव	-3046
id	-3047
मेक	-3048
▁२८	-3049
ानेन	-3050
दृश्य	-3051
▁4.	-3052
च्वं	-3053
▁कृष	-3054
▁व्रज	-3055
▁प्राह	-3056
पन्न	-3057
मध्य	-3058
पूर्वं	-3059
▁दुर्ग	-3060
▁दुष्ट	-3061
▁w	-3062
▁योजना	-3063
▁प्रयोगः	-3064
▁विश्लेषण	-3065
ह्व	-3066
ाद्ध	-3067
▁काय	-3068
न्तम्	-3069
शब्दे	-3070
▁सायं	-3071
भूत्	-3072
र्थी	-3073
▁मनसा	-3074
▁नोप	-3075
श्यति	-3076
▁प्रजा	-3077
भौ	-3078
न्यो	-3079
ाश्च	-3080
▁रोचते	-3081
▁किञ्चि	-3082
▁सन्ध	-3083
▁प्रवर्तते	-3084
▁चो	-3085
द्वा	-3086
▁X	-3087
णस्य	-3088
▁कान	-3089
▁गमि	-3090
▁दद्या	-3091
▁प्रविश	-3092
तानां	-3093
▁समये	-3094
शब्देन	-3095
▁पाण्ड	-3096
▁पुनरा	-3097
▁सिध्य	-3098
ाता	-3099
च्छा	-3100
▁सुवर्ण	-3101
▁संस्करण	-3102
लयं	-3103
कृत्	-3104
▁साधु	-3105
सम्बन्ध	-3106
▁अभिप्र	-3107
▁दोषः	-3108
▁ध्रुव	-3109
गता	-3110
चतु	-3111
मिह	-3112
▁16	-3113
त्री	-3114
िकां	-3115
▁विम	-3116
सन	-3117
ॄणां	-3118
▁प्रकरण	-3119
संभव	-3120
▁to	-3121
च्या	-3122
मेति	-3123
▁दरि	-3124
खं	-3125
▁v	-3126
वर्ग	-3127
▁मन्त्रि	-3128
▁च्	-3129
ख्यं	-3130
▁धु	-3131
च्छ्र	-3132
▁ध्या	-3133
▁बहिः	-3134
सम्पाद	-3135
▁किञ्चित्	-3136
▁प्रत्येक	-3137
▁वक्तव्यम्	-3138
कता	-3139
कथं	-3140
ज्र	-3141
याति	-3142
ृत्त	-3143
▁200	-3144
द्यते	-3145
▁पदार्थ	-3146
▁धन्यवाद	-3147
खु	-3148
सति	-3149
भिर्	-3150
▁प्रथमः	-3151
▁शक्तिः	-3152
हति	-3153
▁भौ	-3154
द्भव	-3155
क्षित	-3156
▁वदति	-3157
कार्यं	-3158
▁धर्मः	-3159
जान	-3160
लित	-3161
सन्	-3162
बन्धः	-3163
▁कल्या	-3164
▁स्मृत	-3165
▁यथार्थ	-3166
▁यॊ	-3167
र्जु	-3168
ल्या	-3169
▁उभय	-3170
▁स्वं	-3171
▁कुरुते	-3172
द्भु	-3173
▁नहि	-3174
▁मृग	-3175
▁विच	-3176
षध	-3177
शील	-3178
▁शर	-3179
▁बोध	-3180
▁वेत	-3181
▁विधे	-3182
▁वस्तुतः	-3183
▁दात	-3184
▁एकादश	-3185
▁वाक्यं	-3186
ें	-3187
स्थे	-3188
निश्च	-3189
▁माम्	-3190
▁निरूप	-3191
लब्	-3192
▁हं	-3193
▁अस्तु	-3194
▁अध्याय	-3195
▁स्पर्श	-3196
हम	-3197
तमः	-3198
स्तीति	-3199
▁स्वतः	-3200
▁निर्वा	-3201
▁व्यायाम	-3202
गि	-3203
▁वं	-3204
▁हु	-3205
ित्वं	-3206
▁विष्णु	-3207
जल	-3208
०२	-3209
राध	-3210
▁Ans	-3211
▁खाद	-3212
▁वरिष्ठ	-3213
▁द्वितीया	-3214
▁सभ	-3215
तानि	-3216
ात्मक	-3217
▁मात्र	-3218
ासं	-3219
▁सय	-3220
▁नाहं	-3221
▁विश्र	-3222
▁निर्देश	-3223
गमन	-3224
▁दिश	-3225
▁आगच्छ	-3226
तोः	-3227
▁तन	-3228
▁ताः	-3229
▁तात	-3230
▁ययौ	-3231
सम्भव	-3232
▁सुन्द	-3233
▁त्वमेव	-3234
नाद	-3235
क्ते	-3236
▁सार्व	-3237
मात्रेण	-3238
ec	-3239
शू	-3240
पीड	-3241
▁जप	-3242
जग	-3243
गू	-3244
लाय	-3245
ृद्ध	-3246
वस्तु	-3247
▁प्रयु	-3248
▁शाश्व	-3249
▁ज्ञायते	-3250
▁ज्ञात्वा	-3251
रीं	-3252
भाति	-3253
ल्ली	-3254
▁कुत	-3255
▁तयोः	-3256
▁सेवा	-3257
▁K	-3258
नीति	-3259
▁महान्	-3260
दत्	-3261
परं	-3262
▁अर्ध	-3263
▁अन्तः	-3264
▁वर्गः	-3265
▁पवित्र	-3266
त्तु	-3267
▁अधोलिख	-3268
▁प्रतीयते	-3269
),	-3270
टं	-3271
▁नवी	-3272
▁इष्ट	-3273
▁विक्र	-3274
▁अनुकूल	-3275
▁संवत्स	-3276
तृ	-3277
लय्	-3278
▁उन्न	-3279
▁बहवः	-3280
▁प्रश्नः	-3281
▁J	-3282
▁मनसि	-3283
▁सततं	-3284
▁द्रव्य	-3285
क्क	-3286
वाक	-3287
स्वी	-3288
▁तैः	-3289
▁अभव	-3290
▁पराज	-3291
▁मोक्ष	-3292
चं	-3293
द्भ	-3294
त्ये	-3295
र्थिक	-3296
▁नान्य	-3297
सव	-3298
▁वक्ष	-3299
▁राजन्	-3300
थो	-3301
रणः	-3302
मादि	-3303
em	-3304
द्म	-3305
ृता	-3306
विष्ट	-3307
▁एतादृश	-3308
रतः	-3309
ेशः	-3310
मानु	-3311
र्मि	-3312
▁वान	-3313
भावेन	-3314
▁यच्च	-3315
▁भगवन्	-3316
▁कार्यम्	-3317
विधं	-3318
▁आरम्	-3319
▁व्यापार	-3320
नै	-3321
चक्र	-3322
वादी	-3323
▁इतर	-3324
बर	-3325
▁आत्	-3326
▁छन्द	-3327
▁त्री	-3328
▁विनाश	-3329
०००	-3330
न्तरे	-3331
▁ऊर्ज	-3332
▁मुद्र	-3333
▁कर्तव्यम्	-3334
ूष	-3335
वारं	-3336
हारः	-3337
▁प्रमुख	-3338
▁म्	-3339
▁स्ना	-3340
पय	-3341
शतं	-3342
▁नगर	-3343
▁क्षी	-3344
▁रुद्र	-3345
▁स्वाहा	-3346
ण्ट	-3347
रेक	-3348
▁इतः	-3349
▁मर्त	-3350
▁सिंह	-3351
भ्याम्	-3352
▁सामाजिक	-3353
ायाः	-3354
▁भगवान	-3355
गतम्	-3356
▁वीर	-3357
▁साग	-3358
रिक्ष	-3359
▁कृषि	-3360
▁ङीप्	-3361
▁सर्वतः	-3362
▁स्वर्ण	-3363
▁विरुद्ध	-3364
▁२९	-3365
नादि	-3366
भूता	-3367
▁एको	-3368
लोक्य	-3369
▁स्नान	-3370
▁विशेषः	-3371
फ्	-3372
्यव	-3373
त्याः	-3374
कुल	-3375
▁अक	-3376
▁लोप	-3377
▁हृदये	-3378
र्ट	-3379
शयः	-3380
मानो	-3381
▁एकदा	-3382
्यन्ते	-3383
महं	-3384
कालः	-3385
▁प्रत्यु	-3386
.3	-3387
▁स्मर	-3388
▁एतस्य	-3389
▁निह	-3390
▁त्यज	-3391
▁पुरो	-3392
ैल	-3393
▁of	-3394
▁परः	-3395
▁तत्रैव	-3396
▁प्रीति	-3397
xt	-3398
ूं	-3399
पतिः	-3400
▁तदु	-3401
▁उक्तं	-3402
▁वार्ष	-3403
नुवन्ति	-3404
▁प्रयोजनम्	-3405
चनं	-3406
ीये	-3407
▁लिखत	-3408
▁अन्वयः	-3409
▁अस्याः	-3410
▁स्वप्ने	-3411
सर्ज	-3412
▁धाव	-3413
्येति	-3414
▁मुक्ति	-3415
▁स्वयमेव	-3416
धो	-3417
तीं	-3418
ाति	-3419
▁छु	-3420
▁इमे	-3421
▁ऽपि	-3422
ेश्वर	-3423
▁तन्त्र	-3424
विव	-3425
▁तेज	-3426
ेभ्यः	-3427
मभि	-3428
▁स्क	-3429
▁तद्ध	-3430
▁धकाः	-3431
ौं	-3432
ामु	-3433
ूर्ण	-3434
▁सात	-3435
प्रधान	-3436
▁दरिद्र	-3437
▁न०	-3438
▁नाव	-3439
न्द्रिया	-3440
ig	-3441
३०	-3442
▁कदापि	-3443
▁क्रमेण	-3444
▁सर्वभूत	-3445
चरेत्	-3446
▁ऑ	-3447
▁अद	-3448
▁५०	-3449
▁कोऽ	-3450
▁सकल	-3451
▁समं	-3452
माश्र	-3453
▁उत्तरः	-3454
ादयः	-3455
▁आदि	-3456
सै	-3457
स्तो	-3458
स्थः	-3459
ादिव	-3460
▁लाग	-3461
भारः	-3462
▁विद्यु	-3463
▁करिष्यति	-3464
▁प्रधानमन्त्री	-3465
दति	-3466
रण्य	-3467
▁नाप	-3468
▁गतिः	-3469
▁त्वयि	-3470
▁मत्स्य	-3471
▁यस्मिन्	-3472
▁शक्नोति	-3473
नीयं	-3474
द्योग	-3475
हुः	-3476
पक्षे	-3477
▁शक्र	-3478
▁शरणं	-3479
क्व	-3480
तमे	-3481
▁25	-3482
▁बलं	-3483
▁अन्ति	-3484
▁अग्र	-3485
▁विदु	-3486
▁विधिः	-3487
द्यु	-3488
स्तद	-3489
▁२०७	-3490
योजना	-3491
▁प्रस्तु	-3492
धौ	-3493
▁विरो	-3494
▁मन्द	-3495
▁आनन्द	-3496
▁नृत्य	-3497
▁वर्षा	-3498
▁मिथ्या	-3499
▁वस्त्र	-3500
थ्	-3501
योर्	-3502
▁MSS	-3503
▁परो	-3504
▁यस्तु	-3505
▁सन्नि	-3506
▁प्रतियोग	-3507
धाव	-3508
....	-3509
प्यते	-3510
▁पीसी	-3511
▁यानाः	-3512
▁तस्माद	-3513
▁युद्धे	-3514
▁प्रतिवेदन	-3515
लां	-3516
्यै	-3517
पर्व	-3518
पत्ति	-3519
▁पित्र	-3520
वृत्तिः	-3521
xx	-3522
निय	-3523
याव	-3524
▁भे	-3525
▁तिथ	-3526
▁योऽ	-3527
निर्म	-3528
स्यैव	-3529
मित्या	-3530
▁प्रतिदिनं	-3531
ws	-3532
▁दास	-3533
ित्यं	-3534
▁प्रत्ययः	-3535
राम	-3536
▁जय	-3537
▁रामः	-3538
▁कदाचन	-3539
▁प्रभो	-3540
▁प्रेम	-3541
▁रक्षा	-3542
▁समुदाय	-3543
ून्	-3544
▁नीति	-3545
ादिषु	-3546
▁क्षम	-3547
▁अकरोत्	-3548
▁श्रुति	-3549
ate	-3550
शङ्क	-3551
ान्ध	-3552
कीर्त	-3553
चितम्	-3554
र्हसि	-3555
▁वृष्ट	-3556
▁महत्वपूर्ण	-3557
तत्	-3558
▁पंच	-3559
▁भविष	-3560
ालः	-3561
▁हय	-3562
▁वचः	-3563
▁अग्रे	-3564
▁30	-3565
▁मोह	-3566
विचार	-3567
▁द्वा	-3568
▁भद्र	-3569
▁पिताम	-3570
▁शक्नु	-3571
▁कर्म्म	-3572
ढ़	-3573
▁W	-3574
तय्	-3575
ध्वं	-3576
ारूप	-3577
▁मार	-3578
▁विश्वे	-3579
ित्यर्थः	-3580
कां	-3581
क्षी	-3582
त्पत्त	-3583
▁हिन्द	-3584
▁उक्तम्	-3585
ap	-3586
त्यु	-3587
देशं	-3588
▁संस	-3589
क्रमण	-3590
▁अद्या	-3591
▁अनन्त	-3592
▁भूत्वा	-3593
५०	-3594
त्सर्व	-3595
▁कुर्य	-3596
▁श्वेत	-3597
un	-3598
सिं	-3599
श्वा	-3600
▁निग	-3601
ation	-3602
च्वंगु	-3603
▁जीवनं	-3604
▁समीक्षा	-3605
▁नाग	-3606
क्रीड	-3607
▁निर्ध	-3608
▁बाह्य	-3609
वद्	-3610
ाल्	-3611
ेनि	-3612
जन्म	-3613
करोति	-3614
ङ्कार	-3615
▁साध्य	-3616
त्यर्थः	-3617
▁इत्यपि	-3618
क्ता	-3619
त्त्र	-3620
▁सेना	-3621
त्यादि	-3622
▁SF	-3623
ङ्गल	-3624
▁केचित्	-3625
क्षेत्रे	-3626
ग्रन्थ	-3627
▁21	-3628
▁ही	-3629
द्वार	-3630
▁जाति	-3631
▁समीपे	-3632
▁प्रकल्प	-3633
लिं	-3634
▁था	-3635
▁पर्वत	-3636
ब्रवीत्	-3637
▁केवलम्	-3638
▁वक्तुं	-3639
▁राष्ट्रिय	-3640
:-	-3641
ितेन	-3642
▁पर्याव	-3643
▁व्यवस्था	-3644
ांत	-3645
न्नो	-3646
▁पक्षे	-3647
ब्राह्म	-3648
▁स्वस्य	-3649
ग्व	-3650
द्यो	-3651
र्दश	-3652
ैरपि	-3653
▁त्रयो	-3654
▁नात्र	-3655
▁दिनाङ्के	-3656
▁भ्रात	-3657
▁मूल्य	-3658
▁संयोग	-3659
▁यन्त्र	-3660
णाः	-3661
▁डि	-3662
शाला	-3663
▁यद्वा	-3664
प्रसङ्ग	-3665
▁प्राधिकरण	-3666
प्रे	-3667
▁कारणम्	-3668
▁वर्षाणि	-3669
र्ब	-3670
▁४०	-3671
ानुप	-3672
▁कथय	-3673
▁बुध	-3674
दिश्य	-3675
द्वित	-3676
स्तेन	-3677
▁गिरि	-3678
▁निम्	-3679
▁खु	-3680
ार्य	-3681
▁स्वे	-3682
ेश्वरः	-3683
▁मन्ये	-3684
▁एतेषां	-3685
▁कठ	-3686
पुस्त	-3687
येति	-3688
▁आधार	-3689
मानस्य	-3690
▁शब्दा	-3691
-'	-3692
18	-3693
सभा	-3694
ासते	-3695
ानन्द	-3696
▁शङ्क	-3697
▁भाग्य	-3698
▁मन्दि	-3699
▁सार्ध	-3700
▁पूर्वोक्त	-3701
र्ड	-3702
▁षट्	-3703
▁सज्ज	-3704
ब्रह्म	-3705
▁काव्य	-3706
▁अ॒	-3707
▁चरण	-3708
▁जले	-3709
▁घोषणा	-3710
कथा	-3711
न्ता	-3712
▁स्नानं	-3713
ro	-3714
पथ	-3715
ाणी	-3716
▁पच	-3717
कर्ण	-3718
लयस्य	-3719
▁यस्या	-3720
▁गृहीत्वा	-3721
शुद्ध	-3722
▁ऊर्ध	-3723
न्द्रि	-3724
▁साहित्य	-3725
▁तेऽ	-3726
प्रती	-3727
▁मासे	-3728
ैष	-3729
राव	-3730
▁(2	-3731
ज्ञाप	-3732
▁देवं	-3733
▁शुभा	-3734
▁अनुभव	-3735
▁शय	-3736
▁मेघ	-3737
▁निरी	-3738
ान्तरं	-3739
▁सरकार	-3740
▁स्नेह	-3741
-"	-3742
घ्न	-3743
▁नौ	-3744
▁परस्परं	-3745
.4	-3746
अथ	-3747
नीया	-3748
▁दीप	-3749
▁षोड	-3750
▁हरिः	-3751
▁तेषाम	-3752
▁अपेक्ष	-3753
▁देशस्य	-3754
▁किमर्थं	-3755
▁स्वास्थ	-3756
▁द्वितीयं	-3757
लब्ध	-3758
▁चाल	-3759
▁विश्वविद्या	-3760
10	-3761
ङ्घ	-3762
▁३२	-3763
रूपे	-3764
▁असं	-3765
▁खण्ड	-3766
▁सकलं	-3767
▁समयः	-3768
प्रमाण	-3769
चाल	-3770
लिक	-3771
ैवं	-3772
श्मी	-3773
▁निर्ग	-3774
▁श्रूयते	-3775
-3	-3776
▁गी	-3777
ोपरि	-3778
युक्तं	-3779
▁रक्षण	-3780
▁मनुष्या	-3781
्वी	-3782
रुणा	-3783
▁असि	-3784
▁याच	-3785
समन्व	-3786
▁मह्यं	-3787
▁शीर्ष	-3788
प्रत्यय	-3789
▁संसाधन	-3790
▁सम्प्रति	-3791
▁(=	-3792
▁ऋष	-3793
ष्टु	-3794
▁करे	-3795
▁भूप	-3796
▁वायुः	-3797
▁ु	-3798
ानो	-3799
परम्	-3800
मानि	-3801
मानम्	-3802
▁नहीं	-3803
नार्थं	-3804
▁प्रथमे	-3805
▁सर्वाः	-3806
पर्यन्तं	-3807
▁स्त्रीणां	-3808
पौ	-3809
तमं	-3810
▁तार	-3811
▁वृष	-3812
त्यां	-3813
लक्षणं	-3814
▁न्यून	-3815
ल्क	-3816
▁जनः	-3817
▁तदि	-3818
▁वाह	-3819
ग्रहण	-3820
▁एताव	-3821
▁क्ली	-3822
▁शरीरं	-3823
▁समन्व	-3824
ear	-3825
▁आच	-3826
ष्यसि	-3827
▁लभ्यते	-3828
▁वदन्ति	-3829
रूपा	-3830
▁तदनु	-3831
▁देशः	-3832
▁प्रमाणं	-3833
रत्	-3834
रीय	-3835
गृहे	-3836
▁माल	-3837
▁समीप	-3838
युक्तः	-3839
स्थिति	-3840
▁एवमेव	-3841
▁बालकः	-3842
▁श्लोक	-3843
अव	-3844
गल	-3845
iii	-3846
▁साल	-3847
▁विरोध	-3848
भाषण	-3849
भूति	-3850
स्मिं	-3851
▁अनुवाद	-3852
▁प्रतिनि	-3853
▁निश	-3854
▁वचन	-3855
गृह्य	-3856
ितस्य	-3857
दन	-3858
गते	-3859
▁ईश	-3860
व्ये	-3861
▁प्रकार	-3862
▁g	-3863
माणे	-3864
▁भुव	-3865
▁आङ्ग्ल	-3866
▁स्मृतः	-3867
ह्न	-3868
▁खल	-3869
येद्	-3870
▁चेद	-3871
▁मरण	-3872
▁समू	-3873
ितुम्	-3874
▁दूरे	-3875
▁परमाण	-3876
▁लाखों	-3877
▁प्रसार	-3878
ur	-3879
तप	-3880
प्रदेश	-3881
अप	-3882
ोट	-3883
▁पथ	-3884
ज्ञे	-3885
क्षत्र	-3886
▁प्रयोजन	-3887
▁क्षेत्रे	-3888
and	-3889
यतः	-3890
▁24	-3891
▁In	-3892
▁in	-3893
▁दर	-3894
▁शौ	-3895
क्तः	-3896
्यता	-3897
व्यति	-3898
ul	-3899
▁शङ्	-3900
नात्म	-3901
विकल्प	-3902
▁गम्यते	-3903
चिः	-3904
त्था	-3905
माप्	-3906
▁राग	-3907
ाग्नि	-3908
▁मुद्रा	-3909
▁३३	-3910
नाया	-3911
ैश्व	-3912
यिष्यति	-3913
▁उत्पादन	-3914
▁h	-3915
wer	-3916
दिक	-3917
क्षर	-3918
▁साम्	-3919
▁सन्तु	-3920
ir	-3921
ut	-3922
हेत	-3923
▁2019	-3924
▁कालं	-3925
▁समुप	-3926
▁शक्यं	-3927
दिश्यते	-3928
▁भवतीति	-3929
▁मात्रा	-3930
मत्	-3931
▁ऋण	-3932
काङ्	-3933
र्मु	-3934
मासस्य	-3935
ुक्तम्	-3936
▁क्रीडा	-3937
▁नाम्ना	-3938
▁पश्चिम	-3939
▁स्वामि	-3940
▁इत्येवं	-3941
▁सर्वान्	-3942
▁स्वातन्त्र	-3943
▁कन	-3944
▁दद	-3945
भावो	-3946
▁अन्न	-3947
▁भोजनं	-3948
क्रान्त	-3949
▁तस्यां	-3950
▁प्राक्	-3951
▁ब्रह्मा	-3952
▁संस्थान	-3953
भयं	-3954
ेऽपि	-3955
क्रमे	-3956
मेतत्	-3957
▁करोतु	-3958
▁बलि	-3959
द्वयं	-3960
चल	-3961
विर	-3962
▁युष्म	-3963
▁Q	-3964
मिक	-3965
शरी	-3966
गुरु	-3967
▁सदृश	-3968
▁ज्ञाप	-3969
▁व्यति	-3970
▁परीक्ष	-3971
▁प्रसाद	-3972
▁मित्रं	-3973
▁इत्येतद्	-3974
अपि	-3975
बाध	-3976
ादिक	-3977
▁बभूव	-3978
▁युद्धं	-3979
▁वर्धते	-3980
▁वृत्ति	-3981
पुन	-3982
न्मा	-3983
▁शरण	-3984
▁३१	-3985
त्य्	-3986
मुत्त	-3987
▁कृष्	-3988
▁पापं	-3989
▁महिला	-3990
▁पश्यामि	-3991
▁प्रतिषेध	-3992
पृथ	-3993
मयं	-3994
देवं	-3995
स्ये	-3996
दीनां	-3997
▁2020	-3998
▁नागर	-3999
दिष्टम्	-4000
▁प्रशास	-4001
▁प्राधान	-4002
▁रत्	-4003
▁देवो	-4004
▁अग्निः	-4005
▁परित्य	-4006
▁सम्भाव	-4007
राज्यस्य	-4008
क्ल	-4009
प्तः	-4010
सत्त्व	-4011
खः	-4012
धू	-4013
बे	-4014
सक	-4015
॑ः	-4016
ताया	-4017
▁इत्यत	-4018
▁राजनि	-4019
▁देवस्य	-4020
मुद	-4021
वति	-4022
ानम्	-4023
ामहे	-4024
▁विल	-4025
▁याःगु	-4026
२२	-4027
▁गर्	-4028
▁दया	-4029
▁यद्व	-4030
टर	-4031
निर	-4032
नाति	-4033
▁मिल	-4034
▁महान	-4035
▁पक्षि	-4036
▁व्याप	-4037
साः	-4038
▁योजन	-4039
▁पत्नी	-4040
▁हेतुः	-4041
▁भार्या	-4042
▁सर्वस्य	-4043
ताप	-4044
बहु	-4045
माप	-4046
्यौ	-4047
▁ची	-4048
्तते	-4049
▁कां	-4050
▁शोध	-4051
▁संघ	-4052
▁ततश्च	-4053
▁रहस्य	-4054
▁Y	-4055
ans	-4056
द्भिः	-4057
यन्ते	-4058
▁गुणा	-4059
▁संस्कृति	-4060
महो	-4061
कत्व	-4062
▁इमं	-4063
▁शून्य	-4064
▁राष्ट्रीय	-4065
ाऽ	-4066
ive	-4067
मेकं	-4068
▁१९९	-4069
▁युगे	-4070
यितुम्	-4071
▁नेत्र	-4072
निर्देश	-4073
हत	-4074
हृद	-4075
ामिति	-4076
▁मुने	-4077
▁व्यु	-4078
▁हन्त	-4079
▁आवेदन	-4080
▁ईश्वरः	-4081
▁अधिकारी	-4082
रथ	-4083
रपि	-4084
▁आय	-4085
भेदः	-4086
▁दुः	-4087
▁वसु	-4088
▁शिश	-4089
▁समि	-4090
▁श्रेण	-4091
▁सर्वो	-4092
▁सर्वैः	-4093
गाः	-4094
नाथ	-4095
नन्त	-4096
कर्मा	-4097
द्रूप	-4098
ाणाम्	-4099
▁समन्त	-4100
▁इच्छति	-4101
▁स्मृति	-4102
▁कार्यक्रम	-4103
▁इत्युच्यते	-4104
२१	-4105
रिव	-4106
ङ्गं	-4107
▁हर्ष	-4108
▁महारा	-4109
▁तत्प्र	-4110
रात	-4111
र्म्	-4112
▁नान	-4113
▁छात्राः	-4114
महि	-4115
लया	-4116
ण्या	-4117
ध्यं	-4118
▁भूमौ	-4119
ोऽस्ति	-4120
तार	-4121
ष्ठा	-4122
हारे	-4123
▁मूढ	-4124
रात्म	-4125
विरोध	-4126
▁तीर्थ	-4127
▁निवार	-4128
▁कर्माणि	-4129
▁राष्ट्रपति	-4130
ृते	-4131
मर्श	-4132
▁वां	-4133
▁गुणाः	-4134
▁कर्मणा	-4135
िनां	-4136
▁धया	-4137
▁उद्ध	-4138
▁धीरे	-4139
▁संबं	-4140
स्पर्श	-4141
▁त्रीणि	-4142
▁लक्षणं	-4143
▁सर्वथा	-4144
▁ओं	-4145
▁बे	-4146
शिया	-4147
▁माय	-4148
▁अमरः	-4149
▁हानि	-4150
व्यक्ति	-4151
▁ली	-4152
क्रि	-4153
भावि	-4154
▁अतएव	-4155
▁गुणः	-4156
▁जानी	-4157
▁वय्कः	-4158
▁चतुर्थ	-4159
▁स्थिता	-4160
▁सूक्ष्म	-4161
दम	-4162
दैव	-4163
कारी	-4164
गम्य	-4165
▁म्ह	-4166
युद्ध	-4167
▁केचन	-4168
▁दक्षिणे	-4169
▁इत्यस्मात्	-4170
ङि	-4171
४०	-4172
ोत्स	-4173
वचनम्	-4174
प्रवेश	-4175
▁शिष्य	-4176
भग	-4177
ost	-4178
मान्त	-4179
▁पातु	-4180
▁यश्च	-4181
▁परमात्म	-4182
15	-4183
▁३६	-4184
गन्ध	-4185
त्सु	-4186
ाप्त	-4187
▁क्त	-4188
▁गता	-4189
▁कामं	-4190
▁अवदत्	-4191
▁प्रजाः	-4192
▁लक्ष्य	-4193
न्दा	-4194
▁आसी	-4195
चिदपि	-4196
▁वज्र	-4197
▁दृष्टं	-4198
▁शान्ति	-4199
▁अध्यायः	-4200
▁निर्माण	-4201
ff	-4202
स्रो	-4203
▁एषां	-4204
▁प्रस्ताव	-4205
▁Ar	-4206
▁खो	-4207
▁हन	-4208
त्याह	-4209
संख्य	-4210
▁तुल्य	-4211
ज्ञां	-4212
▁त्वाम	-4213
▁स्थितम्	-4214
im	-4215
शुभ	-4216
▁डा	-4217
पदम्	-4218
▁the	-4219
▁तेना	-4220
▁भुवि	-4221
▁प्रात	-4222
▁वह्नि	-4223
▁राज्ञः	-4224
▁सर्वभू	-4225
तरा	-4226
भाज	-4227
स्यं	-4228
▁च्व	-4229
हूर्त	-4230
▁जीवन	-4231
▁पाकि	-4232
कार्या	-4233
▁सङ्ख्या	-4234
▁प्राप्यते	-4235
थु	-4236
कम्ः	-4237
प्या	-4238
भावं	-4239
▁गुह	-4240
▁मही	-4241
जायते	-4242
विस्त	-4243
ेक्षा	-4244
▁प्रशं	-4245
▁यस्मा	-4246
▁द्रष्टुं	-4247
वश	-4248
ज्व	-4249
ादे	-4250
▁23	-4251
मेवं	-4252
ीव्र	-4253
भेदेन	-4254
▁पुरुषं	-4255
▁दक्षिणा	-4256
फ़	-4257
दित	-4258
ापु	-4259
▁पट	-4260
▁आधु	-4261
▁ततोऽ	-4262
शब्दस्य	-4263
▁Answer	-4264
▁II	-4265
ादिकं	-4266
▁अधिकं	-4267
▁अवश्यं	-4268
ac	-4269
आई	-4270
आर	-4271
ter	-4272
ादपि	-4273
▁शतं	-4274
▁सृज	-4275
्येते	-4276
▁एतानि	-4277
▁गुरुः	-4278
▁जीवति	-4279
▁आर्थिक	-4280
▁परस्परम्	-4281
डे	-4282
▁घो	-4283
▁दूष	-4284
विधिः	-4285
षिद्ध	-4286
▁वेति	-4287
▁प्राचीन	-4288
ov	-4289
॒व	-4290
म्र	-4291
ावा	-4292
▁यी	-4293
लानि	-4294
▁कपि	-4295
वित्त	-4296
▁दिवा	-4297
▁श्राद्ध	-4298
▁सिध्यति	-4299
▁काव	-4300
▁नमो	-4301
▁अस्या	-4302
धिकारिक	-4303
श्चित्त	-4304
▁प्रविश्य	-4305
िनि	-4306
▁तक	-4307
▁रच	-4308
▁लॊ	-4309
▁३५	-4310
योगे	-4311
श्वर	-4312
करणम्	-4313
सर्वं	-4314
▁तस्माद्	-4315
000	-4316
गेन	-4317
पते	-4318
▁छि	-4319
▁चार	-4320
ान्नि	-4321
▁2018	-4322
▁लज्ज	-4323
▁विभाषा	-4324
▁विशेषण	-4325
लाई	-4326
वन्त	-4327
▁वर्ज	-4328
व्यक्त	-4329
▁पुत्रं	-4330
▁अस्माभिः	-4331
▁पर्यावरण	-4332
ेष्ट	-4333
▁सहाय	-4334
▁कालेन	-4335
विशिष्ट	-4336
▁प्रकारेण	-4337
tr	-4338
▁्	-4339
ैति	-4340
▁जक	-4341
▁३७	-4342
ज्ञो	-4343
दर्शन	-4344
ादेशः	-4345
▁परिभाष	-4346
-4	-4347
od	-4348
▁=>	-4349
ज्यो	-4350
▁भवः	-4351
▁संग	-4352
प्रश्	-4353
प्राण	-4354
▁Next	-4355
▁अतीत	-4356
▁व्याघ्र	-4357
ासः	-4358
▁चौ	-4359
▁बै	-4360
▁लघ	-4361
यमपि	-4362
ास्व	-4363
▁कक्ष	-4364
▁दानं	-4365
▁प्रद	-4366
▁निषेध	-4367
▁प्रचल	-4368
▁रूपेण	-4369
▁उत्तरा	-4370
शिव	-4371
च्यु	-4372
णोति	-4373
प्ता	-4374
▁चर्च	-4375
▁बहूनि	-4376
▁विहाय	-4377
▁षष्ठी	-4378
▁त्यक्त्वा	-4379
ak	-4380
ूत	-4381
ेयः	-4382
र्यः	-4383
▁नरक	-4384
विंशति	-4385
▁अन्तर	-4386
▁विभक्त	-4387
▁इत्युक्ते	-4388
०३	-4389
ष्प	-4390
▁णि	-4391
पचार	-4392
▁असम	-4393
▁वरं	-4394
दीर्घ	-4395
▁भागः	-4396
विशेषः	-4397
▁कथयति	-4398
▁पृच्छ	-4399
▁विचित्र	-4400
.)	-4401
ik	-4402
▁ढ	-4403
बाल	-4404
तश्च	-4405
विरो	-4406
▁भवन	-4407
ोत्तर	-4408
लभ्यते	-4409
▁वाञ्छ	-4410
ER	-4411
कीय	-4412
▁03	-4413
ावपि	-4414
▁इती	-4415
▁चित्	-4416
▁नगरे	-4417
▁भवती	-4418
▁प्राति	-4419
▁कर्तव्यः	-4420
गृहं	-4421
ब्दं	-4422
विद्य	-4423
ादिना	-4424
▁हिंसा	-4425
▁संविधान	-4426
▁कार्याणि	-4427
एं	-4428
चो	-4429
त्यः	-4430
ोन्न	-4431
▁मति	-4432
▁यां	-4433
▁अनुप	-4434
▁सहसा	-4435
▁इत्थं	-4436
▁राज्ये	-4437
पन	-4438
ैन	-4439
ोपा	-4440
र्धा	-4441
▁साथ	-4442
श्वरः	-4443
▁तात्	-4444
▁साहाय	-4445
▁वक्ष्य	-4446
ेशे	-4447
स्थो	-4448
च्छत्	-4449
धर्मा	-4450
▁यात्र	-4451
▁महत्त्व	-4452
▁सम्बन्धि	-4453
्यम	-4454
▁४५	-4455
वर्ध	-4456
▁प्रभु	-4457
▁रिक्त	-4458
▁संशोध	-4459
कान्	-4460
▁मदु	-4461
▁अपरि	-4462
▁स्थिर	-4463
▁विभिन्न	-4464
लाभ	-4465
▁27	-4466
दण्ड	-4467
ितैः	-4468
▁मिश्र	-4469
▁दृष्टि	-4470
▁नामानि	-4471
▁प्राप्तवान्	-4472
२४	-4473
▁(3	-4474
▁तवा	-4475
मित्र	-4476
▁भागे	-4477
▁परिवार	-4478
मोह	-4479
यमा	-4480
ेवा	-4481
रूपः	-4482
र्मः	-4483
▁स्वः	-4484
▁विवाद	-4485
▁संभवति	-4486
▁अधोलिखितानि	-4487
चु	-4488
ूर	-4489
नगर	-4490
्रो	-4491
▁भर	-4492
नीयः	-4493
▁चकार	-4494
▁नाना	-4495
▁भोजन	-4496
पुरुषः	-4497
▁पितुः	-4498
▁माध्य	-4499
▁स्युः	-4500
▁स्थिते	-4501
▁k	-4502
याद	-4503
▁गिर	-4504
▁फलम्	-4505
▁मरणं	-4506
▁निर्णय	-4507
व्यवस्था	-4508
सहस्राणि	-4509
2.	-4510
50	-4511
▁अथे	-4512
▁क्षणं	-4513
▁श्रुत	-4514
▁शब्दस्य	-4515
▁टे	-4516
दूषण	-4517
▁निष	-4518
भक्ति	-4519
्यामः	-4520
▁साधन	-4521
▁धर्मो	-4522
▁भवतां	-4523
▁क्रमशः	-4524
च्व	-4525
स्न	-4526
▁अवस	-4527
क्रिय	-4528
व्याः	-4529
▁उपाय	-4530
▁दिशि	-4531
▁परिह	-4532
▁मेदि	-4533
पत्तिः	-4534
बुद्धि	-4535
▁कारयेत्	-4536
गर	-4537
लाप	-4538
▁फि	-4539
▁अण्	-4540
▁उल्	-4541
▁भुक्त	-4542
▁स्थितिः	-4543
▁प्रयोक्त	-4544
▁प्रोक्ता	-4545
ङ्गा	-4546
ज्यं	-4547
▁याद	-4548
स्तान	-4549
▁त्रै	-4550
एम	-4551
णाय	-4552
मता	-4553
सत्त	-4554
▁नेत	-4555
वेदना	-4556
▁सचिव	-4557
▁दृश्यम्	-4558
▁व्यवस्थाप	-4559
▁त्	-4560
चितं	-4561
▁तमेव	-4562
▁उक्तः	-4563
▁पूजां	-4564
विरुद्ध	-4565
▁पुनर्निर्	-4566
▁सामान्यतः	-4567
घव	-4568
बलः	-4569
▁घन	-4570
च्छया	-4571
णियां	-4572
▁व्यो	-4573
कलं	-4574
पान	-4575
पास	-4576
▁पीठ	-4577
▁दिनानि	-4578
▁साभारः	-4579
ाणं	-4580
भागः	-4581
व्यो	-4582
श्रय	-4583
▁नरा	-4584
▁यशः	-4585
▁रणे	-4586
▁शिख	-4587
तत्त्व	-4588
▁अवश्य	-4589
▁प्रवृत्ति	-4590
11	-4591
परे	-4592
ृत्व	-4593
▁आदेश	-4594
▁व्रत	-4595
क्रम्य	-4596
साव	-4597
सुर	-4598
▁नय	-4599
▁पै	-4600
नगरे	-4601
▁क्ल	-4602
▁गाव	-4603
ध्याय	-4604
र्भवति	-4605
संबन्ध	-4606
▁धार्म	-4607
▁तद्यथा	-4608
▁दत्त्वा	-4609
▁क्षेत्रं	-4610
भोज	-4611
▁26	-4612
गृह्	-4613
तेति	-4614
दन्त	-4615
भूतः	-4616
▁याम	-4617
नीयम्	-4618
ान्ये	-4619
्याम्	-4620
▁तर्क	-4621
चन्द्र	-4622
▁अनन्तरं	-4623
चने	-4624
रोऽ	-4625
▁गे	-4626
पीसी	-4627
पुनः	-4628
▁असौ	-4629
मानाः	-4630
▁पठति	-4631
स्थिते	-4632
▁धर्मं	-4633
▁प्रेर	-4634
▁सिद्धि	-4635
ess	-4636
ैकं	-4637
ङ्गः	-4638
ांसि	-4639
ीर्ण	-4640
▁कोप	-4641
▁वात	-4642
▁संब	-4643
यन्त्र	-4644
▁इत्ये	-4645
▁कुमार	-4646
▁पुरुषो	-4647
▁सूत्रे	-4648
▁परिसन्ध	-4649
▁सुरक्षा	-4650
▁लक्ष्यते	-4651
av	-4652
परः	-4653
संयु	-4654
▁ततॊ	-4655
र्थाः	-4656
▁जिला	-4657
▁मानवः	-4658
केन्द्र	-4659
▁अमेरिक	-4660
▁दृश्यन्ते	-4661
दाः	-4662
साग	-4663
यज्ञ	-4664
लोकं	-4665
साम्	-4666
▁विदुः	-4667
परिवर्त	-4668
▁जनार्द	-4669
▁संबंधनं	-4670
▁प्रवक्ष्यामि	-4671
डः	-4672
निष	-4673
श्रम	-4674
▁वस्त	-4675
▁संयु	-4676
भविष्य	-4677
▁क्लेश	-4678
▁स्फुट	-4679
▁प्राप्तं	-4680
▁टिप्पणियां	-4681
▁5.	-4682
क्षुः	-4683
▁नापि	-4684
▁निवस	-4685
सिद्धि	-4686
▁आधुनिक	-4687
▁स्तम्भ	-4688
▁इच्छामि	-4689
▁समर्पयामि	-4690
लक	-4691
भावा	-4692
▁सुत	-4693
▁क्वा	-4694
▁सनात	-4695
▁स्तः	-4696
▁ईश्वर	-4697
▁भोक्त	-4698
▁पुस्तक	-4699
▁पृष्ठं	-4700
▁प्रयच्छ	-4701
क्षो	-4702
चारि	-4703
ष्ठं	-4704
ष्यं	-4705
▁एता	-4706
▁धेन	-4707
सूचना	-4708
▁कोरो	-4709
▁द्रु	-4710
मात्रे	-4711
ब्ब	-4712
रोह	-4713
▁पय	-4714
कारा	-4715
ानाः	-4716
▁सद्	-4717
कृतिक	-4718
▁हिमा	-4719
▁पात्र	-4720
▁रूपम्	-4721
▁योगदान	-4722
▁पूर्वेण	-4723
टन	-4724
अहं	-4725
थैव	-4726
मयः	-4727
▁प्	-4728
ादिः	-4729
्रीं	-4730
▁अधः	-4731
▁कवि	-4732
▁लोकः	-4733
▁जनानां	-4734
▁वेत्ति	-4735
▁प्रकृतिः	-4736
मै	-4737
सभ	-4738
र्षे	-4739
▁जाल	-4740
▁वया	-4741
न्यथा	-4742
▁पतिः	-4743
▁दीयते	-4744
▁उत्तरं	-4745
▁समस्या	-4746
▁अस्मान्	-4747
▁नास	-4748
▁नूत	-4749
भ्युप	-4750
▁कुतो	-4751
▁त्वम	-4752
▁अन्यः	-4753
▁हस्ते	-4754
@1	-4755
्यत	-4756
▁22	-4757
निर्ण	-4758
▁बद्ध	-4759
▁दर्शन	-4760
▁पुरतः	-4761
▁स्मरण	-4762
▁पुनरपि	-4763
▁तत्रापि	-4764
▁यथाशक्ति	-4765
त्क	-4766
िकार	-4767
ैर्व	-4768
▁परिष	-4769
▁स्वर	-4770
▁अवस्था	-4771
▁ध्यानं	-4772
▁पुनर्व	-4773
▁अध्यक्ष	-4774
▁y	-4775
मते	-4776
रोः	-4777
▁रण	-4778
चारः	-4779
रादि	-4780
▁अप्	-4781
क्षणे	-4782
▁अन्ध	-4783
▁घटना	-4784
संज्ञा	-4785
ोऽस्मि	-4786
▁वीर्य	-4787
▁प्राप्तः	-4788
यदि	-4789
▁रू	-4790
नाभि	-4791
▁धृत	-4792
▁भूय	-4793
▁कृत्	-4794
धर	-4795
समी	-4796
▁दह	-4797
ङ्गे	-4798
▁जाने	-4799
ापेक्ष	-4800
▁महात्म	-4801
सय	-4802
माग	-4803
ऽनु	-4804
धाति	-4805
पत्य	-4806
मानेन	-4807
▁कालो	-4808
▁वाक्	-4809
भाषायां	-4810
स्तेषां	-4811
जय	-4812
▁े	-4813
ives	-4814
▁तपः	-4815
▁सीता	-4816
क्रमेण	-4817
▁प्रभुः	-4818
▁सर्वभूतेषु	-4819
॒त	-4820
०५	-4821
ine	-4822
धिं	-4823
हीन	-4824
िया	-4825
सदृश	-4826
▁सेन	-4827
▁वन्द	-4828
▁अन्ते	-4829
▁अभवन्	-4830
▁तयो	-4831
▁दिवि	-4832
सङ्ख्या	-4833
ानन्तरं	-4834
▁गृह्यते	-4835
▁आधिकारिक	-4836
त्तं	-4837
माणा	-4838
▁यूप	-4839
वर्षे	-4840
शब्दा	-4841
▁कष्ट	-4842
▁भवेद	-4843
▁पुराण	-4844
▁भारतं	-4845
▁द्वितीयः	-4846
ow	-4847
जाल	-4848
ाहे	-4849
▁तवं	-4850
▁तदाह	-4851
प्रयोज	-4852
▁केनापि	-4853
▁कर्तुम्	-4854
▁वार्षिक	-4855
२७	-4856
श्त	-4857
▁आन	-4858
▁सख	-4859
▁संह	-4860
▁हां	-4861
ांश्च	-4862
▁पुष्ट	-4863
मन्त्रि	-4864
▁सामर्थ	-4865
▁अर	-4866
त्तः	-4867
नुते	-4868
म्बु	-4869
टुम्ब	-4870
▁एकम्	-4871
▁प्रम	-4872
▁तेनैव	-4873
▁निद्र	-4874
▁यान्ति	-4875
▁प्रसन्न	-4876
▁←	-4877
ष्क	-4878
▁मई	-4879
च्चार	-4880
▁जीवितं	-4881
▁Re	-4882
पर्या	-4883
▁नेति	-4884
▁अन्या	-4885
▁प्रदत्त	-4886
िक्र	-4887
▁धनु	-4888
कर्षण	-4889
पत्रं	-4890
▁अस्त	-4891
▁यात्रा	-4892
दृष्ट्या	-4893
▁वर्षस्य	-4894
संश	-4895
ालय	-4896
दात्	-4897
स्वं	-4898
देवता	-4899
▁नाभि	-4900
▁पाणि	-4901
▁सञ्ज	-4902
▁देवताः	-4903
▁वैज्ञान	-4904
०४	-4905
▁(4	-4906
निर्व	-4907
▁निपा	-4908
▁नूनं	-4909
▁हन्ति	-4910
र्मध्ये	-4911
▁युज्यते	-4912
▁लोकानां	-4913
▁संरक्षण	-4914
बो	-4915
२५	-4916
गर्भ	-4917
मुखं	-4918
वचनं	-4919
▁ईदृश	-4920
▁विधाय	-4921
▁सैन्य	-4922
स्थानम्	-4923
▁पूर्वा	-4924
▁अर्थात्	-4925
▁स्मृतम्	-4926
▁स्यादिति	-4927
ers	-4928
कला	-4929
यैव	-4930
▁रह	-4931
▁तन्न	-4932
▁स्यु	-4933
▁धाःसा	-4934
▁भवत्य	-4935
▁पूर्वे	-4936
▁पदार्थः	-4937
खिल	-4938
सत्	-4939
विवे	-4940
▁केर	-4941
▁यति	-4942
▁साय	-4943
बिम्ब	-4944
मुख्य	-4945
▁Arch	-4946
▁पद्ध	-4947
▁आन्दो	-4948
▁संभाव	-4949
▁साधारण	-4950
▁श्रुतिः	-4951
▁वक्ष्यामि	-4952
तीय	-4953
श्री	-4954
स्यो	-4955
▁आवि	-4956
▁शिर	-4957
द्याः	-4958
साध्य	-4959
▁समग्र	-4960
▁संकल्प	-4961
▁द्वितीये	-4962
7.	-4963
ऽव	-4964
२३	-4965
कान	-4966
देवः	-4967
र्षि	-4968
ीकृत	-4969
▁चैत	-4970
मानां	-4971
ान्यं	-4972
▁अपरा	-4973
भाषणम्	-4974
र्थस्य	-4975
ारिद्र	-4976
▁कान्त	-4977
▁दत्तं	-4978
▁वृद्धिः	-4979
▁उत्कृष्ट	-4980
शौ	-4981
सन्त	-4982
▁वाप	-4983
▁द्रो	-4984
▁मनुः	-4985
ाभ्यां	-4986
िकायाः	-4987
ानुसारं	-4988
नत	-4989
जम्	-4990
▁फो	-4991
ग्धं	-4992
▁(1)	-4993
▁याना	-4994
▁श्रव	-4995
▁हितं	-4996
▁दर्शनं	-4997
▁पुत्रो	-4998
--"	-4999
अभि	-5000
सान	-5001
मासे	-5002
सत्य	-5003
▁भूम	-5004
▁रवि	-5005
▁जगति	-5006
▁तुभ्यं	-5007
▁प्रियं	-5008
▁विपर्य	-5009
19	-5010
टिक	-5011
▁कष	-5012
▁समुद	-5013
▁गृह्ण	-5014
▁सुखम्	-5015
िनो	-5016
इत्य	-5017
ञ्जन	-5018
▁अग्	-5019
▁लोकं	-5020
ीयन्ते	-5021
▁पूज्य	-5022
ग्रहणम्	-5023
संस्कृत	-5024
▁विशेषेण	-5025
▁ब्राह्मण	-5026
मेल	-5027
श्छ	-5028
सें	-5029
यामः	-5030
▁एस्	-5031
▁चैक	-5032
▁नपुं	-5033
▁नूतन	-5034
▁ह्या	-5035
ान्तरा	-5036
▁तीव्र	-5037
▁धातुः	-5038
▁श्राव	-5039
क्रियते	-5040
▁भक्त्या	-5041
▁विद्यमान	-5042
os	-5043
गोच	-5044
▁केचि	-5045
▁ध्ये	-5046
▁पुनरु	-5047
▁यस्मात्	-5048
▁विस्तार	-5049
▁e	-5050
धेन	-5051
रन्	-5052
लिः	-5053
वम्	-5054
▁मानुष	-5055
if	-5056
तमा	-5057
दूष	-5058
धीः	-5059
रणा	-5060
▁भृ	-5061
▁2021	-5062
▁स्पृश	-5063
▁देवदत्त	-5064
▁सर्वलोक	-5065
▁वर्तन्ते	-5066
▁प्रयत्नेन	-5067
ew	-5068
जाति	-5069
द्रु	-5070
▁कौश	-5071
▁वरा	-5072
क्षिक	-5073
दित्य	-5074
▁कानि	-5075
▁ब्रि	-5076
श्चापि	-5077
▁विवेक	-5078
सामान्य	-5079
▁अधिकृत	-5080
▁चित्तं	-5081
▁विधिना	-5082
▁संस्कार	-5083
▁प्रयत्नतः	-5084
▁re	-5085
योगं	-5086
सेना	-5087
▁चाप	-5088
▁भोः	-5089
ाद्या	-5090
▁नरकं	-5091
▁दृष्टः	-5092
▁प्राप्ता	-5093
▁निर्दिष्ट	-5094
ंग	-5095
इन	-5096
▁01	-5097
▁स॒	-5098
▁४७	-5099
र्ता	-5100
स्तां	-5101
▁श्लो	-5102
गम्यते	-5103
नुयात्	-5104
▁तासां	-5105
▁मध्या	-5106
▁यथाविधि	-5107
th	-5108
रुः	-5109
▁छे	-5110
▁कूप	-5111
▁मखु	-5112
▁माह	-5113
▁१९७	-5114
▁वेतन	-5115
▁तन्नि	-5116
▁महोदय	-5117
▁पूर्वम्	-5118
▁-'	-5119
▁ऋतु	-5120
▁सूर	-5121
▁क्री	-5122
▁क्लि	-5123
▁भूयः	-5124
पेक्षा	-5125
▁पश्यन्ति	-5126
▁स्वास्थ्य	-5127
तै	-5128
तॊ	-5129
ध्र	-5130
ायो	-5131
▁by	-5132
ौद्ध	-5133
▁रति	-5134
▁सत्त	-5135
▁भवन्तः	-5136
▁युक्तः	-5137
▁चिकित्स	-5138
):	-5139
12	-5140
डु	-5141
यू	-5142
लै	-5143
▁दौ	-5144
▁३४	-5145
ारोह	-5146
▁चित	-5147
▁लाल	-5148
कृतेः	-5149
स्तत्	-5150
▁कम्प	-5151
▁परिण	-5152
▁स्वि	-5153
▁हरेः	-5154
क्रमम्	-5155
▁स्याद्	-5156
▁मुहूर्त	-5157
मित्यर्थः	-5158
▁विद्वान्	-5159
▁प्रक्रिया	-5160
मोद	-5161
ाह्	-5162
▁री	-5163
▁५५	-5164
क्यं	-5165
स्वभाव	-5166
▁प्रभात	-5167
▁चतुर्दश	-5168
17	-5169
um	-5170
नार	-5171
▁द्	-5172
▁भाति	-5173
▁राशि	-5174
श्चर्य	-5175
▁पिण्ड	-5176
व्यापार	-5177
▁उद्योग	-5178
▁अत्यन्त	-5179
▁अद्यापि	-5180
▁एवमुक्त	-5181
▁व्याकरण	-5182
▁भविष्यन्ति	-5183
14	-5184
मया	-5185
▁िव	-5186
न्दः	-5187
▁पोष	-5188
▁लौक	-5189
▁बहुव	-5190
▁लोका	-5191
▁वाणि	-5192
संस्था	-5193
▁चतुर्	-5194
▁शरीरे	-5195
▁उपयोगः	-5196
▁रक्षति	-5197
▁समृद्ध	-5198
▁किंचित्	-5199
येण	-5200
त्वम	-5201
ानीं	-5202
▁अपना	-5203
▁युवा	-5204
▁योगी	-5205
कर्मणि	-5206
▁कर्तृ	-5207
▁राजनि०	-5208
▁प्रविष्ट	-5209
▁फ़	-5210
विति	-5211
▁परत	-5212
▁जातं	-5213
▁सर्ग	-5214
कर्त्त	-5215
मासीत्	-5216
▁इच्छा	-5217
▁प्रास	-5218
▁परस्मै	-5219
्ह	-5220
मन्	-5221
यसि	-5222
द्वै	-5223
स्वि	-5224
▁पदम्	-5225
दर्शनं	-5226
प्रकार	-5227
▁सोऽपि	-5228
▁इत्येतत्	-5229
,"	-5230
पाय	-5231
▁28	-5232
▁सप	-5233
▁सफ	-5234
दिनं	-5235
वित्	-5236
▁आपः	-5237
ज्ञाय	-5238
ार्थः	-5239
▁देशं	-5240
▁संशय	-5241
स्येति	-5242
▁सन्दे	-5243
▁सुभाष	-5244
▁तेषाम्	-5245
▁सूर्यः	-5246
ोऽध्यायः	-5247
▁प्रार्थना	-5248
बह	-5249
शै	-5250
▁गज	-5251
▁जो	-5252
पराय	-5253
रूपि	-5254
▁ट्र	-5255
योगेन	-5256
▁त्वर	-5257
भिधीयते	-5258
▁निर्वि	-5259
▁पुण्यं	-5260
▁करिष्ये	-5261
▁सम्बन्धः	-5262
मना	-5263
ऽप्य	-5264
▁ज्वल	-5265
कर्तुं	-5266
शक्तिः	-5267
▁तस्यैव	-5268
▁वृत्तिः	-5269
▁प्रारम्भ	-5270
महा	-5271
ेना	-5272
▁50	-5273
एससी	-5274
ङ्का	-5275
भूते	-5276
▁यौव	-5277
▁वंश	-5278
▁सन्न	-5279
▁नाराय	-5280
▁प्रयोजनं	-5281
▁युष्माकं	-5282
▁सम्बन्धी	-5283
ore	-5284
काव	-5285
पीठ	-5286
्य्	-5287
▁St	-5288
▁४८	-5289
द्वय	-5290
▁पूँ	-5291
▁सभा	-5292
▁दक्ष	-5293
प्रभाव	-5294
ेन्द्र	-5295
व्यवहार	-5296
▁बुद्धिः	-5297
▁स्वीकृत	-5298
▁राष्ट्रे	-5299
घोष	-5300
भूष	-5301
▁(?	-5302
ाधिक	-5303
्याद	-5304
▁याग	-5305
त्रयं	-5306
शब्दो	-5307
▁मतम्	-5308
पत्तेः	-5309
▁गृहीत	-5310
▁प्रदा	-5311
▁मार्गे	-5312
केश	-5313
दीप	-5314
▁On	-5315
▁हल	-5316
▁४४	-5317
जनाः	-5318
माया	-5319
▁तनु	-5320
▁समव	-5321
पचारिक	-5322
▁४९	-5323
ल्यं	-5324
▁बीज	-5325
यन्तु	-5326
योज्य	-5327
▁तर्प	-5328
▁सत्व	-5329
▁सर्प	-5330
▁सर्वम	-5331
स्थितम्	-5332
▁भूतानि	-5333
▁साक्षि	-5334
▁ा	-5335
▁आं	-5336
द्रो	-5337
▁अंश	-5338
▁१००	-5339
▁अर्जु	-5340
▁त्रयः	-5341
▁दिव्यं	-5342
प्रसिद्ध	-5343
▁पुरुषस्य	-5344
तव	-5345
सनं	-5346
गृही	-5347
दक्षिण	-5348
▁नेपाः	-5349
▁श्रवण	-5350
▁राजधान	-5351
▁संबन्ध	-5352
▁सर्वम्	-5353
प्रतिषेध	-5354
▁प्राप्तुं	-5355
di	-5356
तथा	-5357
▁जगतः	-5358
▁त्वद	-5359
▁दुगु	-5360
न्तीति	-5361
▁एवेति	-5362
▁Archives	-5363
ृथ	-5364
२८	-5365
३१	-5366
तुम्	-5367
▁शृण	-5368
माध्य	-5369
▁मुखं	-5370
▁शनैः	-5371
णार्थं	-5372
▁अप्वः	-5373
▁विकार	-5374
▁निर्या	-5375
▁विवक्ष	-5376
▁02	-5377
▁खि	-5378
▁३८	-5379
ङ्गी	-5380
ग्निः	-5381
भिश्च	-5382
वर्षं	-5383
▁तच्छ	-5384
▁नामा	-5385
▁मृदु	-5386
▁विंश	-5387
स्मान्न	-5388
▁40	-5389
जायत	-5390
▁यया	-5391
▁वणि	-5392
मोक्ष	-5393
▁नगरं	-5394
त्यन्त	-5395
प्रभात	-5396
▁निवास	-5397
▁प्रसू	-5398
▁चिन्ता	-5399
▁आवश्यकता	-5400
16	-5401
पट	-5402
ूय	-5403
ूर्व	-5404
▁उभौ	-5405
▁तान	-5406
सृष्ट	-5407
▁प्या	-5408
▁कर्तव्या	-5409
▁जनसंख्या	-5410
२६	-5411
▁४६	-5412
माता	-5413
ष्णु	-5414
सन्द	-5415
▁तुम	-5416
▁मेष	-5417
भिधान	-5418
▁आयुः	-5419
▁कण्ठ	-5420
▁लक्ष्म	-5421
▁सूर्या	-5422
प्राप्ति	-5423
▁कश्चिद्	-5424
ाश	-5425
॒ः	-5426
our	-5427
केत	-5428
धेः	-5429
न्वि	-5430
▁अपर	-5431
▁माग	-5432
विक्र	-5433
ासीत्	-5434
▁पण्ड	-5435
स्थिता	-5436
▁स्वल्प	-5437
▁पुस्तकं	-5438
9.	-5439
तिथ	-5440
तीव	-5441
पदः	-5442
ादः	-5443
गुणा	-5444
ोत्तम	-5445
▁विधिव	-5446
▁युक्तं	-5447
▁संज्ञा	-5448
▁इदानीम्	-5449
▁उत्तरम्	-5450
ालो	-5451
पश्य	-5452
सम्म	-5453
▁च्छ	-5454
▁2017	-5455
▁कामः	-5456
▁ङीष्	-5457
▁मनोर	-5458
▁षोडश	-5459
इन्द्र	-5460
ध्यक्ष	-5461
▁विराज	-5462
▁स्वार्थे	-5463
▁पृथिव्यां	-5464
गतो	-5465
चरण	-5466
जार	-5467
श्ल	-5468
र्ना	-5469
▁आशी	-5470
▁रसो	-5471
▁सफल	-5472
क्राम	-5473
▁वसति	-5474
स्माद्	-5475
प्रकृति	-5476
स्थिताः	-5477
▁दृष्टा	-5478
▁स्वामी	-5479
३२	-5480
थवा	-5481
नयः	-5482
यिता	-5483
▁क्य	-5484
▁शोच	-5485
नार्थ	-5486
याणां	-5487
र्थाय	-5488
▁एक्स	-5489
▁चिरं	-5490
▁मूलं	-5491
र्यस्य	-5492
िकायां	-5493
▁पार्व	-5494
▁पुरात	-5495
▁अध्याप	-5496
▁शिक्षण	-5497
▁दद्यात्	-5498
▁निर्णयः	-5499
▁स्वार्थ	-5500
दै	-5501
ous	-5502
भृत	-5503
महे	-5504
▁इन्	-5505
▁ददौ	-5506
▁सलि	-5507
ेभ्यो	-5508
▁द्यु	-5509
▁रसाय	-5510
रात्रे	-5511
▁गृहम्	-5512
▁अन्यत्	-5513
▁द्वन्द	-5514
30	-5515
कुश	-5516
पुः	-5517
दासी	-5518
▁कथम	-5519
▁तपो	-5520
▁सीत	-5521
द्देश	-5522
नन्तरं	-5523
▁चेष्ट	-5524
▁प्रार	-5525
▁नक्षत्र	-5526
नेक	-5527
▁तमः	-5528
तस्तु	-5529
निवास	-5530
पदस्य	-5531
योग्य	-5532
रित्य	-5533
▁एशिया	-5534
▁विन्द	-5535
▁नागरिक	-5536
▁उदाहरणम्	-5537
फु	-5538
िम	-5539
सूच	-5540
निष्	-5541
लोपः	-5542
क्षां	-5543
▁कोटि	-5544
च्छेदः	-5545
यात्रा	-5546
▁अन्यो	-5547
▁आत्मानं	-5548
▁परिकल्प	-5549
▁सर्वनाम	-5550
रूपम्	-5551
श्चेति	-5552
▁यत्तु	-5553
▁सादृश	-5554
▁कथयामि	-5555
▁न्ह्यः	-5556
▁जानन्ति	-5557
▁दारिद्र	-5558
▁स्त्रिया	-5559
▁प्रशिक्षु	-5560
गौ	-5561
▁x	-5562
जाप	-5563
निं	-5564
▁४१	-5565
वतां	-5566
सम्प	-5567
ोऽसि	-5568
▁मतः	-5569
▁सती	-5570
▁आयोज	-5571
▁उपयु	-5572
▁नवीन	-5573
▁परति	-5574
▁रुचि	-5575
सामर्थ	-5576
▁विभाव	-5577
▁प्रिया	-5578
▁भवन्तु	-5579
▁कुर्वन्	-5580
▁सुखदुःख	-5581
'।	-5582
5.	-5583
SC	-5584
मल	-5585
ण्व	-5586
य्य	-5587
सिक	-5588
▁आश	-5589
▁यव	-5590
▁मोद	-5591
सिष्ठ	-5592
▁बाहु	-5593
▁श्वः	-5594
स्थितं	-5595
▁गृहाण	-5596
▁न्ह्य	-5597
▁पदस्य	-5598
ताल	-5599
माल	-5600
▁शकु	-5601
प्रयत्	-5602
▁प्राव	-5603
▁देवदेव	-5604
▁एकस्मिन्	-5605
SE	-5606
क्ट	-5607
र्स	-5608
सृज	-5609
िणी	-5610
▁पद्	-5611
नित्य	-5612
▁रचना	-5613
▁वेदा	-5614
प्रयोगः	-5615
▁अन्तिम	-5616
▁प्रतिषेधः	-5617
मनो	-5618
▁रौ	-5619
▁३९	-5620
▁मेन	-5621
क्ष्ण	-5622
न्यास	-5623
▁तत्व	-5624
▁ददर्श	-5625
▁श्रेय	-5626
▁यस्याः	-5627
कट	-5628
यता	-5629
काशः	-5630
▁पीत	-5631
▁छाया	-5632
▁पुरु	-5633
श्चित्	-5634
्यर्थं	-5635
▁कानून	-5636
▁प्राणा	-5637
▁करणीयम्	-5638
▁अतिरिक्त	-5639
▁प्रजायते	-5640
भवे	-5641
ादा	-5642
यितु	-5643
ष्टौ	-5644
चनात्	-5645
दात्म	-5646
निवार	-5647
▁विधा	-5648
▁परिकी	-5649
▁संज्ञ	-5650
▁यायेगु	-5651
▁स्वच्छ	-5652
▁तत्सर्वं	-5653
▁पृथिव्या	-5654
करा	-5655
घाट	-5656
हाँ	-5657
ाणाम	-5658
▁चिद	-5659
msgstr	-5660
▁कुम्भ	-5661
▁नियमः	-5662
▁अस्यां	-5663
▁प्रवाह	-5664
▁सर्वदेव	-5665
▁भवितव्यम्	-5666
नेः	-5667
पदेश	-5668
▁कुम	-5669
▁पलाय	-5670
▁सुहृ	-5671
▁जातम्	-5672
▁शुभम्	-5673
▁सत्या	-5674
निर्माण	-5675
पेक्षया	-5676
लक्षणम्	-5677
▁द्विधा	-5678
▁मृत्युः	-5679
▁पार्श्वे	-5680
3.	-5681
वंश	-5682
ादयो	-5683
▁गीत	-5684
▁षड्	-5685
स्थाय	-5686
▁करणे	-5687
न्यस्य	-5688
▁कदाचि	-5689
▁तत्रा	-5690
▁सद्यः	-5691
▁कल्याण	-5692
▁निद्रा	-5693
▁वाच्यम्	-5694
ub	-5695
भर	-5696
सित	-5697
्यक	-5698
वश्य	-5699
▁अरे	-5700
▁गताः	-5701
वृद्धि	-5702
स्यामि	-5703
▁दैत्य	-5704
▁विदेशी	-5705
▁संस्करणे	-5706
ेदः	-5707
गमनं	-5708
ारोप	-5709
▁नील	-5710
▁आवाह	-5711
▁शिवः	-5712
▁सुखी	-5713
▁जिज्ञ	-5714
▁शक्नो	-5715
▁बहूनां	-5716
▁बहुव्री	-5717
▁सर्वपाप	-5718
▁सिद्धम्	-5719
भूय	-5720
ल्म	-5721
▁डो	-5722
▁६०	-5723
जस्य	-5724
प्रश	-5725
यतां	-5726
▁शाल	-5727
ान्तु	-5728
▁दर्प	-5729
▁दिवं	-5730
मुक्तं	-5731
▁परितः	-5732
▁योग्य	-5733
▁इत्युप	-5734
▁विलम्ब	-5735
प्रत्यक्ष	-5736
@2	-5737
वय	-5738
२९	-5739
ततः	-5740
मेष	-5741
▁र्	-5742
▁५४	-5743
भागं	-5744
▁नरो	-5745
कारणं	-5746
तोऽपि	-5747
▁नष्ट	-5748
▁यच्छ	-5749
▁यन्म	-5750
▁प्रिये	-5751
▁स्थितं	-5752
नुप	-5753
धिका	-5754
म्बर	-5755
ादशी	-5756
▁Pre	-5757
▁चाह	-5758
▁दाय	-5759
ुक्तः	-5760
▁दोषो	-5761
▁पितु	-5762
▁वदामि	-5763
▁अस्माकम्	-5764
▁पूर्ववत्	-5765
4.	-5766
▁जन्	-5767
▁ताल	-5768
▁वाऽ	-5769
वृक्ष	-5770
ाद्वि	-5771
▁दिवसे	-5772
▁पित्त	-5773
▁बौद्ध	-5774
▁अधिकरण	-5775
▁आत्मनः	-5776
▁सङ्कल्प	-5777
▁सौभाग्य	-5778
:4	-5779
टेन	-5780
▁is	-5781
▁चन	-5782
प्रस	-5783
▁रेल	-5784
▁हेत	-5785
विनाश	-5786
ान्तो	-5787
▁संवि	-5788
▁प्रमा	-5789
▁पुनर्ज	-5790
▁राजानं	-5791
▁संस्थाप	-5792
:0	-5793
केव	-5794
धाः	-5795
वीं	-5796
संह	-5797
ापा	-5798
▁फे	-5799
केषु	-5800
ष्ठे	-5801
्यया	-5802
▁for	-5803
▁१९८	-5804
ोक्तम्	-5805
▁मार्च	-5806
▁संसारे	-5807
▁विद्यालये	-5808
जनं	-5809
तये	-5810
▁ऋत	-5811
▁८०	-5812
परिष	-5813
पार्	-5814
मेवा	-5815
र्कः	-5816
लभ्य	-5817
▁100	-5818
▁एनं	-5819
▁नौक	-5820
दानीं	-5821
प्तिः	-5822
वार्त	-5823
सन्नि	-5824
स्पति	-5825
्वात्	-5826
परिणाम	-5827
ेष्वपि	-5828
▁क्रुद्ध	-5829
]]	-5830
art	-5831
भवं	-5832
ाती	-5833
िती	-5834
▁गं	-5835
दीयं	-5836
भाषत	-5837
▁रोज	-5838
▁अङ्क	-5839
▁इमां	-5840
▁देहे	-5841
▁भागं	-5842
विधानं	-5843
विवर्ज	-5844
स्त्रं	-5845
▁चान्य	-5846
▁वैद्य	-5847
▁ह्रस्व	-5848
▁सामग्री	-5849
8.	-5850
oo	-5851
कव	-5852
छे	-5853
▁ञ	-5854
पूर	-5855
बलं	-5856
कोटि	-5857
चारी	-5858
ेयुः	-5859
प्रथम	-5860
स्यसि	-5861
ितवती	-5862
▁श्वा	-5863
▁कारणेन	-5864
▁राक्षस	-5865
▁विरासत	-5866
प्राप्ते	-5867
▁कुटुम्ब	-5868
▁परिपूर्ण	-5869
▁सर्वेषाम	-5870
ant	-5871
मृत	-5872
ङ्कः	-5873
यादि	-5874
वचने	-5875
▁(),	-5876
▁कूट	-5877
▁छगू	-5878
▁नन्व	-5879
▁पश्ये	-5880
▁साधार	-5881
▁इत्यनु	-5882
▁उद्देश	-5883
▁कार्यः	-5884
▁चतुर्व	-5885
▁सङ्ग्र	-5886
अति	-5887
करे	-5888
तेऽ	-5889
देन	-5890
ासौ	-5891
▁एन	-5892
खिलं	-5893
चनम्	-5894
वत्त	-5895
हिते	-5896
▁जला	-5897
ैस्तु	-5898
▁जाये	-5899
▁दिशः	-5900
गच्छति	-5901
▁कक्षा	-5902
▁तस्मि	-5903
▁प्रभा	-5904
भिप्राय	-5905
ान्तरेण	-5906
▁दिल्ली	-5907
▁प्रभावः	-5908
▁विश्वस्य	-5909
शन	-5910
ुद	-5911
▁मल	-5912
्येक	-5913
चार्य	-5914
निवेश	-5915
▁आर्य	-5916
▁कापि	-5917
▁नामः	-5918
▁लोपः	-5919
ोन्नति	-5920
▁कार्त	-5921
▁प्राथ	-5922
▁शक्या	-5923
▁निवेदन	-5924
▁ग्रीष्म	-5925
▁पितॄणां	-5926
▁कस्यचित्	-5927
▁निष्कर्ष	-5928
▁समाचरेत्	-5929
▁j	-5930
मनं	-5931
ीयत	-5932
▁क्या	-5933
ानामपि	-5934
वर्षस्य	-5935
▁श्रुतं	-5936
▁साम्प्र	-5937
▁स्वरूपं	-5938
▁@	-5939
न्स	-5940
ाहः	-5941
▁दार	-5942
▁भृश	-5943
तीनां	-5944
राज्ये	-5945
▁चेन्न	-5946
▁तिथिः	-5947
▁द्वेष	-5948
▁वास्त	-5949
▁सर्गः	-5950
▁महीयते	-5951
▁विपरीत	-5952
▁भूतानां	-5953
▁युधिष्ठ	-5954
▁प्रजानां	-5955
है	-5956
तुम	-5957
▁४३	-5958
कम्प	-5959
▁माध	-5960
▁साद	-5961
▁ताम्	-5962
▁मातु	-5963
प्रदान	-5964
▁एतदेव	-5965
▁कृत्य	-5966
▁सप्तम	-5967
स्थितिः	-5968
ान्वितः	-5969
▁समुच्च	-5970
▁क्रमात्	-5971
▁उक्तवान्	-5972
▁स्त्रियः	-5973
▁गमिष्यामि	-5974
४७	-5975
वते	-5976
ेशं	-5977
▁५७	-5978
ence	-5979
मुखः	-5980
वसाय	-5981
▁अयम	-5982
▁करा	-5983
योरपि	-5984
शिक्ष	-5985
▁इयम्	-5986
▁किमु	-5987
▁द्यो	-5988
▁महती	-5989
▁हिंस	-5990
ात्मकं	-5991
▁कार्ये	-5992
▁वक्तव्यः	-5993
▁अन्तरिक्ष	-5994
▁सर्वभूतानां	-5995
तद	-5996
दर	-5997
नक	-5998
▁छः	-5999
ुपरि	-6000
िताम्	-6001
▁आहार	-6002
वर्त्त	-6003
▁तत्क्षण	-6004
▁मन्यन्ते	-6005
युग	-6006
लाल	-6007
सीद	-6008
ैनं	-6009
▁४२	-6010
द्धा	-6011
नामा	-6012
हानि	-6013
▁काश	-6014
▁हंस	-6015
क्रोध	-6016
▁किंच	-6017
▁कृति	-6018
▁जगाम	-6019
▁तपसा	-6020
▁दन्त	-6021
▁परमे	-6022
▁शेषं	-6023
न्याया	-6024
▁निम्न	-6025
▁ह्रीं	-6026
▁सप्तदश	-6027
▁प्रदूषण	-6028
▁स्वस्ति	-6029
क्थ	-6030
हरण	-6031
प्रण	-6032
ल्लभ	-6033
ादेः	-6034
▁अकथ	-6035
▁आम्	-6036
न्नाः	-6037
▁कविः	-6038
▁वन्य	-6039
▁समाप	-6040
▁निन्द	-6041
▁निर्ज	-6042
▁बालकाः	-6043
▁निर्वाचन	-6044
▁कार्यान्व	-6045
▁r	-6046
ंति	-6047
वेन	-6048
▁योष	-6049
यतीति	-6050
▁तदैव	-6051
▁सुरा	-6052
▁हस्ति	-6053
▁द्वयोः	-6054
त्यादिना	-6055
▁गृह्णाति	-6056
कास	-6057
धुं	-6058
ब्दे	-6059
मुद्र	-6060
्यतां	-6061
समुद्र	-6062
▁जाग्र	-6063
▁स्पर्ध	-6064
प्रतिष्ठ	-6065
▁पश्चिमे	-6066
▁प्रतिपद्यते	-6067
मेध	-6068
वेष	-6069
▁>>	-6070
▁०३	-6071
जन्य	-6072
प्ते	-6073
ल्पि	-6074
स्तः	-6075
▁पाय	-6076
स्थां	-6077
▁Post	-6078
▁आह्व	-6079
▁एकेन	-6080
▁बह्व	-6081
▁श्रि	-6082
ावस्था	-6083
▁प्रकट	-6084
▁स्पेन	-6085
सम्पादन	-6086
▁तृतीये	-6087
▁प्रस्त	-6088
▁परमात्मा	-6089
▁पूर्वमेव	-6090
▁प्राप्नो	-6091
▁अभिव्यक्ति	-6092
६०	-6093
परो	-6094
▁गृ	-6095
अन्त	-6096
वस्य	-6097
स्ने	-6098
्रिक	-6099
▁औषध	-6100
▁सरल	-6101
विन्द	-6102
स्ततो	-6103
स्मरण	-6104
▁महाम	-6105
▁संदे	-6106
ग्रहणे	-6107
पुत्रः	-6108
युक्ते	-6109
▁वास्तु	-6110
▁न्यूनतम	-6111
▁स्थापना	-6112
वक्ष्यामि	-6113
▁इत्युक्त्वा	-6114
मद	-6115
करि	-6116
य्त	-6117
▁आज	-6118
पितृ	-6119
सङ्क	-6120
सीति	-6121
▁असु	-6122
▁बिभ	-6123
▁शाप	-6124
तवान्	-6125
पिण्ड	-6126
▁अभाव	-6127
राजस्य	-6128
▁कौन्ते	-6129
▁पुत्रा	-6130
णौ	-6131
पां	-6132
▁कप	-6133
कूगु	-6134
ञ्चि	-6135
दिवस	-6136
ैर्न	-6137
▁भया	-6138
▁शोक	-6139
▁स्ट	-6140
▁ऽहं	-6141
ोपदेश	-6142
▁जातो	-6143
▁अनेके	-6144
रेन्द्र	-6145
▁ब्रूहि	-6146
▁समाहितः	-6147
▁स्यात्त	-6148
▁प्राप्ति	-6149
▁विज्ञानं	-6150
]।	-6151
रज	-6152
्रं	-6153
▁पण	-6154
▁मज	-6155
मायु	-6156
येगु	-6157
शासन	-6158
ाक्ष	-6159
ख्यां	-6160
▁एकैक	-6161
▁शुभे	-6162
▁सुषु	-6163
▁अध्यय	-6164
▁अपश्य	-6165
▁एकस्य	-6166
▁एतच्च	-6167
▁कर्तु	-6168
▁गतवान्	-6169
▁शक्यम्	-6170
▁शक्नुवन्ति	-6171
▁·	-6172
रैः	-6173
▁वल	-6174
दाता	-6175
▁चिर	-6176
▁हवि	-6177
▁सत्र	-6178
▁सस्य	-6179
ख्यातं	-6180
द्रव्य	-6181
▁पूँजी	-6182
▁भगवतः	-6183
फो	-6184
नोप	-6185
विज	-6186
▁दं	-6187
नेति	-6188
लेखः	-6189
▁आर्	-6190
▁जाप	-6191
▁दशा	-6192
ज्ञया	-6193
▁निष्ठ	-6194
▁देवान्	-6195
▁रूपांत	-6196
▁सम्मान	-6197
▁कस्यापि	-6198
▁प्रकीर्त	-6199
▁स्वभावतः	-6200
▁प्राप्तम्	-6201
▁प्रयुज्यते	-6202
दास	-6203
ment	-6204
अन्य	-6205
षेधे	-6206
▁विपु	-6207
त्वाद्	-6208
पदार्थ	-6209
ादिभिः	-6210
▁सन्धि	-6211
त्पत्ति	-6212
प्रदेशे	-6213
▁प्रवास	-6214
▁संवेदना	-6215
▁ऎ	-6216
सरे	-6217
▁शे	-6218
चितः	-6219
▁एतं	-6220
▁वनं	-6221
निरूप	-6222
भ्यते	-6223
▁गर्व	-6224
▁चात्र	-6225
▁सैनिक	-6226
ाप्नोति	-6227
▁सर्वतो	-6228
▁प्रकृते	-6229
▁शक्नुमः	-6230
▁वक्तव्यं	-6231
नाग	-6232
प्ल	-6233
क्रो	-6234
पदेन	-6235
पद्ध	-6236
▁वाज	-6237
▁पितॄ	-6238
▁वृथा	-6239
▁सङ्घ	-6240
रात्रं	-6241
ादित्य	-6242
▁त्याग	-6243
▁मुञ्च	-6244
▁वर्षं	-6245
▁श्रोत	-6246
▁गच्छामि	-6247
▁सर्वकाम	-6248
चौ	-6249
▁[[	-6250
गुणः	-6251
▁(2)	-6252
▁दये	-6253
▁नां	-6254
▁पेश	-6255
संयोग	-6256
हितम्	-6257
▁पाहि	-6258
ष्यामः	-6259
िकानां	-6260
दृश्यते	-6261
परीक्षा	-6262
▁उपयोगी	-6263
▁पृष्ठे	-6264
▁गच्छन्ति	-6265
▁कुर्वन्तु	-6266
ht	-6267
अन	-6268
रिया	-6269
र्जन	-6270
कत्वं	-6271
▁समाग	-6272
क्ष्मी	-6273
▁क्षणे	-6274
▁साध्या	-6275
▁अत्यन्तं	-6276
खो	-6277
est	-6278
्वल	-6279
सारं	-6280
▁आरोग	-6281
▁देयं	-6282
▁पारि	-6283
्यार्थ	-6284
▁विजान	-6285
▁जन्मनि	-6286
▁श्रद्धा	-6287
▁चिकित्सा	-6288
▁परियोजना	-6289
'-	-6290
नर	-6291
▁(6	-6292
▁जै	-6293
▁५६	-6294
▁७०	-6295
धारा	-6296
विना	-6297
ोऽनु	-6298
▁जून	-6299
त्रेण	-6300
ादीनि	-6301
▁अतिश	-6302
▁आगतः	-6303
▁पुरः	-6304
▁सुलभ	-6305
धिकारः	-6306
▁आगत्य	-6307
▁आरब्ध	-6308
▁शत्रू	-6309
▁विद्धि	-6310
▁सरकारं	-6311
13	-6312
तीः	-6313
मात	-6314
रता	-6315
▁पल	-6316
▁लं	-6317
र्यो	-6318
▁जुया	-6319
▁मुदा	-6320
परिवार	-6321
▁धातोः	-6322
▁दीर्घः	-6323
▁पुमान्	-6324
▁वर्त्त	-6325
▁विस्तरेण	-6326
5)	-6327
ip	-6328
सीं	-6329
▁st	-6330
▁अच	-6331
▁औष	-6332
तात्	-6333
त्वि	-6334
विधः	-6335
्याह	-6336
▁1.1	-6337
▁अभी	-6338
▁एतौ	-6339
▁यदु	-6340
ग्निं	-6341
शीर्ष	-6342
▁गौरव	-6343
▁पादौ	-6344
▁प्रप	-6345
▁व्यय	-6346
▁श्रम	-6347
▁पत्रं	-6348
▁समाना	-6349
▁सिन्ध	-6350
स्यास्य	-6351
▁संग्राम	-6352
▁प्रातिपद	-6353
▁यथाक्रमम्	-6354
ओं	-6355
ब्ल	-6356
▁६५	-6357
सेत्	-6358
▁अच्	-6359
▁ययय	-6360
स्वप्	-6361
ान्ता	-6362
▁कृपा	-6363
▁निरु	-6364
ानुकूल	-6365
▁करुणा	-6366
क्ष्यते	-6367
▁सप्ताह	-6368
▁परम्परा	-6369
▁प्राणिनां	-6370
1.	-6371
कत	-6372
ँय्	-6373
बीज	-6374
▁29	-6375
मत्र	-6376
▁तमि	-6377
▁बाण	-6378
क्लेश	-6379
त्तरं	-6380
लानां	-6381
ैर्वि	-6382
दिष्टं	-6383
ित्याह	-6384
▁साधनं	-6385
▁तदर्थं	-6386
▁वय्कलं	-6387
प्रतिपाद	-6388
▁सहस्राणि	-6389
वाम	-6390
िवी	-6391
ऽत्र	-6392
ैस्त	-6393
▁वयम	-6394
▁समे	-6395
क्षणः	-6396
▁पद्म	-6397
▁कुर्मः	-6398
▁चित्रं	-6399
▁ज्ञेयं	-6400
▁कस्मात्	-6401
▁विद्यालय	-6402
▁समाप्तम्	-6403
ep	-6404
ly	-6405
▁}	-6406
धीन	-6407
समं	-6408
ांस	-6409
ावे	-6410
▁32	-6411
▁अ०	-6412
ग्रा	-6413
त्यो	-6414
ब्धः	-6415
यश्च	-6416
शाली	-6417
▁पयो	-6418
▁ऽयं	-6419
क्षया	-6420
▁खल्व	-6421
▁धइगु	-6422
▁वरुण	-6423
▁वाचं	-6424
▁स्फु	-6425
प्रसाद	-6426
र्द्धं	-6427
सम्बद्ध	-6428
▁अग्निं	-6429
▁अन्वेष	-6430
▁कल्पना	-6431
प्रवृत्त	-6432
▁जायन्ते	-6433
▁मनुष्याणां	-6434
▁त०	-6435
▁हस	-6436
ादान	-6437
▁इहा	-6438
पश्चि	-6439
ष्टुं	-6440
▁शुभं	-6441
रीत्या	-6442
▁ग्रन्	-6443
▁भावना	-6444
▁सर्वः	-6445
▁सौम्य	-6446
ान्तर्ग	-6447
▁इष्यते	-6448
▁कोरोना	-6449
▁पुरस्कार	-6450
▁लिखितानां	-6451
खल	-6452
४५	-6453
कोप	-6454
गोल	-6455
वात	-6456
ैते	-6457
▁35	-6458
▁US	-6459
च्छे	-6460
भ्यास	-6461
वानां	-6462
▁मतिः	-6463
▁रिपो	-6464
▁समूह	-6465
ध्याये	-6466
श्नुते	-6467
साधारण	-6468
▁उपचार	-6469
▁दुग्ध	-6470
▁भाष्य	-6471
▁मुच्यते	-6472
▁पदोन्नति	-6473
▁प्रत्ययो	-6474
▁संस्थिता	-6475
▁प्राप्तिः	-6476
▁सम्प्रसार	-6477
विश्वविद्या	-6478
एवं	-6479
णीय	-6480
▁कट	-6481
▁५९	-6482
तत्र	-6483
प्लु	-6484
मुद्	-6485
श्मीर	-6486
ङ्क्ते	-6487
ोच्यते	-6488
▁तत्त्वं	-6489
▁स्वर्गं	-6490
▁प्रजापति	-6491
▁सुप्रभात	-6492
▁पृष्ठानां	-6493
:5	-6494
डो	-6495
जना	-6496
लाष	-6497
▁Al	-6498
तिथि	-6499
दीनि	-6500
भ्रम	-6501
र्भु	-6502
वाणी	-6503
▁भेष	-6504
ख्यानं	-6505
त्वस्य	-6506
म्यहम्	-6507
्याःगु	-6508
▁द्विव	-6509
▁वाताव	-6510
▁संयोज	-6511
▁हत्वा	-6512
पूर्वकं	-6513
स्वरूपं	-6514
ऽस्मिन्	-6515
▁अन्तरि	-6516
▁पठन्ति	-6517
▁प्रियः	-6518
▁सार्धं	-6519
▁स्वस्थ	-6520
▁क्षिप्र	-6521
▁राजनीति	-6522
▁संपूर्ण	-6523
▁सन्ध्या	-6524
oc	-6525
pr	-6526
३३	-6527
राश	-6528
▁6.	-6529
पातः	-6530
माणः	-6531
विधौ	-6532
स्ट्	-6533
▁अर्	-6534
▁आदौ	-6535
मिश्र	-6536
▁तदेत	-6537
शस्त्र	-6538
▁मत्वा	-6539
निवृत्त	-6540
▁अर्हति	-6541
▁प्रथमो	-6542
▁श्रृणु	-6543
▁आगच्छति	-6544
▁प्रज्ञा	-6545
▁सन्दर्भ	-6546
▁परमेश्वरः	-6547
▁प्रतिबन्ध	-6548
▁द्रष्टव्यम्	-6549
ृतो	-6550
▁04	-6551
▁आम	-6552
▁इय	-6553
▁कद	-6554
▁टै	-6555
▁७५	-6556
व्रत	-6557
ालये	-6558
▁करव	-6559
▁ग्ल	-6560
▁भा०	-6561
त्यते	-6562
ानिति	-6563
▁News	-6564
▁शिरः	-6565
▁परस्य	-6566
▁विहित	-6567
▁सूक्त	-6568
▁स्रोत	-6569
परम्परा	-6570
▁तत्काल	-6571
▁त्वाम्	-6572
▁हिन्दी	-6573
▁इत्युक्तम्	-6574
▁प्रायश्चित्त	-6575
फे	-6576
जने	-6577
▁अफ	-6578
▁घर	-6579
क्षय	-6580
ङ्कु	-6581
▁दुर	-6582
▁पथि	-6583
▁वरः	-6584
त्साह	-6585
पुण्य	-6586
▁करुण	-6587
▁कर्ष	-6588
▁जुहो	-6589
क्ष्या	-6590
युक्ता	-6591
▁द्वीप	-6592
▁शब्दे	-6593
न्मुक्त	-6594
संस्कार	-6595
ुमर्हसि	-6596
▁स्तुति	-6597
▁धार्मिक	-6598
▁विमुक्त	-6599
▁तत्त्वतः	-6600
ंद	-6601
ाइ	-6602
समय	-6603
ानव	-6604
ब्धा	-6605
रहित	-6606
ालयः	-6607
▁गुज	-6608
▁थौं	-6609
▁माघ	-6610
▁यथे	-6611
▁वर्	-6612
पद्यत	-6613
प्रिय	-6614
भाषया	-6615
यात्म	-6616
ऽस्ति	-6617
ित्रं	-6618
▁कालि	-6619
▁तुम्	-6620
▁बहवो	-6621
▁मुनी	-6622
▁जीर्ण	-6623
▁मूर्त	-6624
▁सनातनः	-6625
▁सूत्रेण	-6626
प्री	-6627
र्धं	-6628
▁ऋषि	-6629
▁एके	-6630
▁गतौ	-6631
▁चाय	-6632
▁चोद	-6633
▁जित	-6634
▁राव	-6635
ज्ञाः	-6636
्यानि	-6637
▁कारक	-6638
▁तदन्त	-6639
▁भविता	-6640
▁संपाद	-6641
वर्षाणि	-6642
सिद्धिः	-6643
▁करोतुः	-6644
▁संहिता	-6645
▁सम्यग्	-6646
▁प्रोक्तो	-6647
▁विशेषणम्	-6648
▁प्रसिद्धः	-6649
).	-6650
तथ	-6651
देः	-6652
लास	-6653
सञ्	-6654
ुर्	-6655
▁धर	-6656
ायेत	-6657
▁अभय	-6658
▁रुच	-6659
▁प्रौ	-6660
▁वारं	-6661
▁श्वे	-6662
न्यत्र	-6663
▁फलानि	-6664
क्षिप्त	-6665
▁पञ्चदश	-6666
▁प्रणाली	-6667
▁निवर्तते	-6668
▁परिसन्धिं	-6669
छि	-6670
थी	-6671
वतः	-6672
▁५२	-6673
अत्र	-6674
भारत	-6675
भूषण	-6676
ाण्य	-6677
ितया	-6678
▁उगु	-6679
▁तज्	-6680
▁ताद	-6681
▁मद्	-6682
▁वाव	-6683
द्विष	-6684
भवेत्	-6685
विश्य	-6686
संभवः	-6687
▁अहिं	-6688
▁उपास	-6689
▁ज्ञा	-6690
▁शिशु	-6691
▁साङ्	-6692
त्मानं	-6693
निर्मा	-6694
▁भर्ती	-6695
▁यज्ञं	-6696
▁पर्यन्तं	-6697
6.	-6698
४१	-6699
योप	-6700
ेनं	-6701
द्वी	-6702
▁ताड	-6703
ञ्जीत	-6704
▁थःगु	-6705
▁भवतो	-6706
ञ्चित्	-6707
मार्गे	-6708
▁अक्षर	-6709
▁जुयाः	-6710
▁स्त्र	-6711
▁साक्षा	-6712
भ्यन्तरे	-6713
▁परमार्थ	-6714
▁संबन्धः	-6715
▁स्वात्म	-6716
▁किमर्थम्	-6717
II	-6718
ड़ा	-6719
जन्त	-6720
त्रय	-6721
द्भि	-6722
ात्त	-6723
्योः	-6724
▁पान	-6725
क्षये	-6726
त्तमः	-6727
त्थाय	-6728
पत्नी	-6729
ोऽप्य	-6730
▁जननी	-6731
▁जातु	-6732
▁नृपः	-6733
▁भयम्	-6734
▁महाव	-6735
▁रिपु	-6736
शिक्षा	-6737
▁अद्भु	-6738
▁धारणा	-6739
▁सरस्व	-6740
त्सर्वं	-6741
▁मार्गः	-6742
ब्राह्मण	-6743
▁पुस्तके	-6744
▁राज्यस्य	-6745
pe	-6746
ud	-6747
व्	-6748
▁↑	-6749
नैव	-6750
पनं	-6751
▁Ch	-6752
▁हू	-6753
▁५१	-6754
क्षत	-6755
राजः	-6756
राशि	-6757
शत्र	-6758
▁अलं	-6759
▁उभे	-6760
▁धना	-6761
दाहरण	-6762
▁किलो	-6763
▁दूरं	-6764
▁परतः	-6765
ुच्यते	-6766
▁एकमेव	-6767
▁किंचि	-6768
पार्श्व	-6769
▁पितामह	-6770
▁वाक्ये	-6771
▁ध्यात्वा	-6772
:2	-6773
ory	-6774
▁दध	-6775
जीवि	-6776
द्रं	-6777
द्वे	-6778
मप्य	-6779
ल्ला	-6780
▁हार	-6781
▁आवेद	-6782
▁जितः	-6783
▁वारि	-6784
▁शर्म	-6785
▁स्नि	-6786
▁अर्थे	-6787
▁गुप्त	-6788
▁जीवित	-6789
प्राप्य	-6790
▁कन्यां	-6791
▁कश्चिद	-6792
▁यत्नतः	-6793
▁प्रदेशः	-6794
▁विकल्पः	-6795
▁साक्षात्कार	-6796
तीत	-6797
माच	-6798
ेश्च	-6799
▁आशि	-6800
▁मनी	-6801
▁सैव	-6802
अस्ति	-6803
▁पर्ज	-6804
▁शक्यः	-6805
च्यन्ते	-6806
▁अज्ञान	-6807
▁वसिष्ठ	-6808
▁म्रियते	-6809
▁लक्षणम्	-6810
▁प्रतिकूल	-6811
०६	-6812
४९	-6813
▁छा	-6814
घातः	-6815
सर्प	-6816
▁औसत	-6817
यात्र	-6818
▁2016	-6819
▁सागर	-6820
लक्षणा	-6821
संहिता	-6822
▁ब्रुव	-6823
▁मितिः	-6824
चिन्त्य	-6825
ितमस्ति	-6826
▁दूरभाष	-6827
▁अत्यधिक	-6828
▁इतिहासः	-6829
▁पृथिवीं	-6830
▁प्रयच्छति	-6831
▁"'	-6832
▁07	-6833
पाठः	-6834
लिया	-6835
स्वर	-6836
▁कवच	-6837
कुमार	-6838
▁चतुः	-6839
▁धनम्	-6840
▁पप्र	-6841
▁सूची	-6842
क्षणिक	-6843
▁विधेय	-6844
स्त्वया	-6845
▁रूपांतरण	-6846
कै	-6847
टल	-6848
षट्	-6849
▁00	-6850
▁नच	-6851
र्घट	-6852
▁अथो	-6853
▁कथां	-6854
▁महता	-6855
प्नोति	-6856
▁उपकरण	-6857
▁मुनिः	-6858
▁सुप्त	-6859
▁ऊर्ध्व	-6860
▁पुत्री	-6861
▁मूल्यं	-6862
▁व्याधि	-6863
▁अन्तर्ज	-6864
▁विद्यालयं	-6865
ड्ड	-6866
तरे	-6867
दृढ	-6868
▁यि	-6869
दुर्	-6870
रामि	-6871
ापृथ	-6872
▁आया	-6873
▁रथं	-6874
▁वरु	-6875
▁सोप	-6876
वर्ति	-6877
▁उष्ण	-6878
▁दोषा	-6879
▁विरु	-6880
▁सीमा	-6881
▁गुह्य	-6882
▁ज्याझ	-6883
▁वेदित	-6884
कत्वात्	-6885
शक्त्या	-6886
▁आदित्य	-6887
▁चत्वारः	-6888
▁नित्यम्	-6889
▁व्याख्यान	-6890
मिद	-6891
हरे	-6892
▁वश	-6893
▁शम	-6894
ज्ञं	-6895
त्तो	-6896
मर्थ	-6897
ाःगु	-6898
▁पता	-6899
▁शाख	-6900
कर्तृ	-6901
गृहीत	-6902
र्यथा	-6903
▁मस्त	-6904
▁मुमु	-6905
▁यत्न	-6906
विशेषण	-6907
▁नृणां	-6908
▁प्रेत	-6909
▁उपसर्ग	-6910
▁जानासि	-6911
▁इत्यादौ	-6912
▁स्थिताः	-6913
४२	-6914
ह्र	-6915
ागु	-6916
▁(.	-6917
▁चीन	-6918
▁हिम	-6919
ादेशे	-6920
▁अपरं	-6921
▁त्रय	-6922
▁वासु	-6923
▁सुतः	-6924
▁आचार्य	-6925
▁राज्ञा	-6926
▁इन्द्रः	-6927
▁ज्योतिः	-6928
▁परिकीर्त	-6929
▁प्रयुक्तम्	-6930
संग	-6931
ाव्	-6932
िंग	-6933
केगु	-6934
ष्ठी	-6935
▁घृत	-6936
▁मतं	-6937
▁हेम	-6938
vious	-6939
मूर्त	-6940
फलकम्ः	-6941
▁अगस्त	-6942
▁अवलोक	-6943
▁निबोध	-6944
▁स्थूल	-6945
▁प्रतिभा	-6946
▁स्पृष्ट	-6947
▁निर्देशः	-6948
▁विद्यार्थ	-6949
▁सर्वश्रेष्ठ	-6950
लौ	-6951
वित	-6952
▁झी	-6953
▁नीच	-6954
▁यन्	-6955
▁सूत	-6956
▁क्रय	-6957
▁दाता	-6958
कत्वेन	-6959
स्तथैव	-6960
स्तात्	-6961
ित्वात्	-6962
▁काचित्	-6963
▁भ्राता	-6964
▁वार्ता	-6965
तीत्यर्थः	-6966
▁स्थित्वा	-6967
▁सिद्धान्त	-6968
३७	-6969
५७	-6970
ard	-6971
देक	-6972
शता	-6973
▁खं	-6974
▁गग	-6975
कुरु	-6976
समान	-6977
सुखं	-6978
ेद्य	-6979
ग्रहे	-6980
धारणा	-6981
वासरे	-6982
हेतुः	-6983
▁शासन	-6984
▁सतां	-6985
▁मण्डल	-6986
रुच्यते	-6987
▁अष्टादश	-6988
▁ज्ञातुं	-6989
▁ज्ञानम्	-6990
▁विद्यां	-6991
▁तस्मिन्न	-6992
▁निर्माणं	-6993
▁शास्त्रं	-6994
▁परित्यज्य	-6995
▁विज्ञायते	-6996
ऽन	-6997
०७	-6998
ावः	-6999
ञ्चन	-7000
प्लव	-7001
मन्व	-7002
▁अस्	-7003
▁कम्	-7004
▁तिल	-7005
▁दशम	-7006
▁मणि	-7007
▁वेश	-7008
▁१९६	-7009
▁गान्	-7010
▁स्रो	-7011
त्वमेव	-7012
्राज्य	-7013
▁काराग	-7014
▁कुण्ड	-7015
▁कुरुत	-7016
▁प्रवे	-7017
▁मतदान	-7018
▁मातुः	-7019
▁राजनी	-7020
स्थानानि	-7021
▁त्रयोदश	-7022
▁दुर्लभं	-7023
▁प्राकृत	-7024
▁भविष्यसि	-7025
▁प्रतिज्ञा	-7026
▁कार्यान्वयन	-7027
ङः	-7028
▁on	-7029
घ्नं	-7030
ङ्ग्	-7031
च्चि	-7032
पेत्	-7033
▁भास	-7034
▁शता	-7035
पूज्य	-7036
▁उचित	-7037
▁गतिं	-7038
▁ध्वज	-7039
▁नेता	-7040
▁पुं॰	-7041
▁मारु	-7042
▁लाभः	-7043
▁एतेषु	-7044
▁विसर्ज	-7045
▁स्थानि	-7046
मुत्तमम्	-7047
▁तात्पर्य	-7048
99	-7049
यद	-7050
ain	-7051
शाः	-7052
line	-7053
गन्त	-7054
पूजा	-7055
श्मि	-7056
मुत्स	-7057
मृत्य	-7058
स्ताः	-7059
▁भूयो	-7060
▁महास	-7061
▁विवि	-7062
▁सकाश	-7063
सम्भवः	-7064
▁जुइगु	-7065
▁त्वत्	-7066
▁रिश्त	-7067
▁ग्रीष्	-7068
▁सप्तमी	-7069
▁सूत्रं	-7070
▁हिन्दु	-7071
▁प्रामाण	-7072
▁प्रत्यहं	-7073
▁सूर्यस्य	-7074
ks	-7075
भुव	-7076
लोच	-7077
ामा	-7078
▁08	-7079
ीयाः	-7080
▁खने	-7081
▁सरो	-7082
▁सर्	-7083
▁Tags	-7084
▁नन्द	-7085
जनानां	-7086
▁संरक्ष	-7087
▁सृष्टि	-7088
ानुसारेण	-7089
▁कुत्रापि	-7090
▁प्रतिभाति	-7091
चिव	-7092
तेि	-7093
दां	-7094
नोऽ	-7095
रिः	-7096
िणः	-7097
णामः	-7098
दस्य	-7099
देशो	-7100
ानपि	-7101
ृतिः	-7102
▁इका	-7103
▁घात	-7104
▁नाथ	-7105
▁पयः	-7106
काण्ड	-7107
ज्जीव	-7108
यन्तः	-7109
ृद्धि	-7110
▁कोवि	-7111
▁चतुर	-7112
▁विभो	-7113
धिकरणे	-7114
▁कीदृशं	-7115
▁ग्रहणं	-7116
▁छात्रः	-7117
▁प्रतिप	-7118
▁समर्थः	-7119
▁अत्रापि	-7120
▁स्मृताः	-7121
▁प्राप्नु	-7122
▁प्रतियोगिता	-7123
ड़े	-7124
tion	-7125
▁com	-7126
▁कलौ	-7127
▁ख्री	-7128
▁संनि	-7129
विभक्त	-7130
▁आरम्भ	-7131
▁जुलाई	-7132
▁द्याव	-7133
▁अदृष्ट	-7134
▁कीदृशः	-7135
▁भिक्षु	-7136
▁विभागः	-7137
▁चतुर्वि	-7138
▁पृच्छति	-7139
▁विशुद्ध	-7140
मथ	-7141
वेः	-7142
हनि	-7143
ेण्	-7144
▁सॊ	-7145
ंद्र	-7146
ग्वि	-7147
माम्	-7148
वक्त	-7149
▁जुल	-7150
न्त्व	-7151
र्ध्व	-7152
ानस्य	-7153
▁नानु	-7154
▁पूर्	-7155
▁यथैव	-7156
क्षणम्	-7157
▁व्रतं	-7158
▁सन्तः	-7159
▁सिंहः	-7160
▁स्वाय	-7161
▁क्वापि	-7162
▁पूर्णं	-7163
▁रात्रिः	-7164
▁स्मृतिः	-7165
५५	-7166
ail	-7167
पाक	-7168
भया	-7169
राच	-7170
▁or	-7171
▁फु	-7172
क्रमं	-7173
चेष्ट	-7174
द्यां	-7175
सन्ति	-7176
▁चानु	-7177
▁जीवने	-7178
▁नाट्य	-7179
▁देशकाल	-7180
▁वैश्वान	-7181
▁नियन्त्र	-7182
▁मित्राणि	-7183
▁इन्द्रिया	-7184
op	-7185
३६	-7186
४८	-7187
ेद्	-7188
णात्	-7189
▁आगम	-7190
▁शोष	-7191
तय्सं	-7192
त्र्त	-7193
विषया	-7194
ीयतां	-7195
▁बालः	-7196
उच्चार	-7197
▁आग्ने	-7198
▁उत्था	-7199
▁तत्सम	-7200
▁परमाणु	-7201
▁पुनश्च	-7202
▁वर्द्ध	-7203
▁सावधान	-7204
▁वाणिज्य	-7205
▁समन्ततः	-7206
▁प्रोक्तः	-7207
▁राष्ट्रं	-7208
▁विभक्तिः	-7209
आं	-7210
तरः	-7211
▁जर	-7212
▁००	-7213
ायोग	-7214
▁एति	-7215
▁शान	-7216
सूर्य	-7217
िकस्य	-7218
▁व्यप	-7219
▁लोकाः	-7220
▁परिश्र	-7221
▁द्रव्यं	-7222
▁स्नात्वा	-7223
9)	-7224
df	-7225
ey	-7226
यै	-7227
समू	-7228
िनं	-7229
▁कॉ	-7230
▁डी	-7231
▁लव	-7232
ण्यं	-7233
मिमं	-7234
ाङ्ग	-7235
ृताः	-7236
▁अहम	-7237
▁धाम	-7238
▁न्त	-7239
च्छाद	-7240
▁तेजो	-7241
▁ददृश	-7242
▁दारु	-7243
ज्ञाना	-7244
मार्गः	-7245
▁ध्याय	-7246
▁विदूष	-7247
भाष्यम्	-7248
मात्रम्	-7249
मार्गेण	-7250
साहित्य	-7251
ित्यादि	-7252
ैश्वर्य	-7253
▁अस्त्र	-7254
▁प्राणः	-7255
▁वर्षाः	-7256
▁पुत्रस्य	-7257
_1	-7258
:00	-7259
णीं	-7260
दया	-7261
▁05	-7262
▁Sh	-7263
नेषु	-7264
सेवा	-7265
हीनं	-7266
▁VER	-7267
म्बर्	-7268
यिष्य	-7269
▁क्षय	-7270
▁जन्त	-7271
▁दुरा	-7272
▁परां	-7273
▁मधुर	-7274
▁शैली	-7275
चिकित्	-7276
त्पन्न	-7277
▁अतिथि	-7278
▁तुष्ट	-7279
▁उद्घाट	-7280
▁कृत्रि	-7281
▁स्थितो	-7282
उच्चारणः	-7283
▁कुर्वीत	-7284
▁प्रकर्ष	-7285
▁प्राप्नुवन्ति	-7286
वता	-7287
शोभ	-7288
मुखे	-7289
▁अले	-7290
▁करु	-7291
▁भवं	-7292
क्षाः	-7293
नायां	-7294
रक्षा	-7295
श्रेण	-7296
स्पृश	-7297
▁गङ्ग	-7298
▁नाति	-7299
▁निशा	-7300
▁भूत्	-7301
▁VERSE	-7302
▁कस्या	-7303
▁तदर्थ	-7304
▁प्रणि	-7305
षिध्यते	-7306
▁सहस्रं	-7307
▁औपचारिक	-7308
▁श्रुतेः	-7309
▁दक्षिणां	-7310
age	-7311
सने	-7312
ासो	-7313
▁अः	-7314
▁तय	-7315
ावली	-7316
क्ष्व	-7317
ध्ययन	-7318
न्यां	-7319
▁द्वै	-7320
▁समरे	-7321
कारणम्	-7322
पूर्ति	-7323
ान्यपि	-7324
▁मान्य	-7325
▁यजमान	-7326
▁कृत्स्	-7327
▁शक्तिं	-7328
▁स्मृता	-7329
▁नियुक्त	-7330
▁वैशिष्ट	-7331
▁न्यायालय	-7332
▁संवत्सरे	-7333
▁प्रत्यक्षं	-7334
ऽथ	-7335
शान	-7336
शिख	-7337
ऽभि	-7338
▁कफ	-7339
यत्य	-7340
वासी	-7341
▁सखि	-7342
▁इतरे	-7343
▁गवां	-7344
▁नमस्	-7345
▁मद्य	-7346
▁मासि	-7347
▁ह्य्	-7348
▁अपराध	-7349
▁अष्टा	-7350
▁मुम्ब	-7351
▁लिङ्गं	-7352
▁समर्थन	-7353
▁सूर्यो	-7354
▁अन्तारा	-7355
▁उपयुक्त	-7356
▁प्रदेशे	-7357
योर्मध्ये	-7358
ृष	-7359
ॊप	-7360
५६	-7361
येद	-7362
सकं	-7363
ातं	-7364
▁36	-7365
▁ad	-7366
▁शश	-7367
▁५८	-7368
क्स्	-7369
धिपः	-7370
पिता	-7371
ष्ठः	-7372
▁एकल	-7373
▁ब्व	-7374
कृष्ण	-7375
▁गणना	-7376
▁तदुप	-7377
▁प्रत	-7378
▁पक्षः	-7379
▁यत्कि	-7380
ितवन्तः	-7381
ुमर्हति	-7382
▁रूपाणि	-7383
▁समाश्र	-7384
▁सुग्री	-7385
▁स्वस्व	-7386
▁अभिप्राय	-7387
कोऽ	-7388
वन्	-7389
▁घृ	-7390
▁तट	-7391
फलम्	-7392
वादे	-7393
स्यः	-7394
▁नाद	-7395
▁नैत	-7396
▁पाश	-7397
▁संव	-7398
द्वेष	-7399
येत्त	-7400
▁ह्यः	-7401
सङ्ग्र	-7402
िकीर्ष	-7403
▁एकत्र	-7404
▁ब्रवी	-7405
▁यज्ञे	-7406
▁वचनम्	-7407
▁समूहः	-7408
स्माभिः	-7409
▁महाबलः	-7410
माप्नोति	-7411
▁प्रतिमा	-7412
▁प्रपञ्च	-7413
▁व्रजेत्	-7414
▁स्वर्गे	-7415
दव	-7416
५९	-7417
ide	-7418
तैः	-7419
दीर	-7420
लाम	-7421
हते	-7422
▁हव	-7423
भेदा	-7424
▁तमा	-7425
▁फ्र	-7426
स्थाः	-7427
ानन्त	-7428
ोक्ता	-7429
▁जलम्	-7430
▁योनि	-7431
▁श्रे	-7432
द्वन्द	-7433
▁कविता	-7434
▁तमस्य	-7435
▁परिष्	-7436
▁प्रभव	-7437
▁आरम्भः	-7438
▁तृतीयं	-7439
▁नश्यति	-7440
▁विज्ञे	-7441
▁निषिद्ध	-7442
▁प्रधानं	-7443
▁अन्येषां	-7444
▁देवतानां	-7445
"'	-7446
घो	-7447
जां	-7448
सद्	-7449
ोधन	-7450
▁7.	-7451
ह्वा	-7452
िभिः	-7453
▁करी	-7454
▁तमो	-7455
▁नैक	-7456
▁पाक	-7457
▁वृह	-7458
काणां	-7459
द्वीप	-7460
▁आसान	-7461
▁योगः	-7462
▁सम्व	-7463
▁वित्तं	-7464
▁हित्वा	-7465
मिच्छामि	-7466
▁एतस्मिन्	-7467
डं	-7468
५१	-7469
ver	-7470
खें	-7471
चुः	-7472
मये	-7473
▁हत	-7474
मासी	-7475
▁आचर	-7476
▁चिं	-7477
▁रुद	-7478
शान्त	-7479
▁भस्म	-7480
▁सोमः	-7481
ज्ञाने	-7482
▁समाधि	-7483
▁स्वयम	-7484
▁कृष्णः	-7485
▁गन्तुं	-7486
▁पृथ्वी	-7487
शास्त्रं	-7488
शास्त्रे	-7489
▁प्रबन्ध	-7490
▁प्रोवाच	-7491
▁श्रुतम्	-7492
▁समाप्तः	-7493
ha	-7494
up	-7495
एत	-7496
०९	-7497
चाः	-7498
जति	-7499
मतं	-7500
▁नभ	-7501
▁बर	-7502
▁५३	-7503
वस्त	-7504
स्लि	-7505
ाच्च	-7506
▁अश्	-7507
▁कोट	-7508
▁घटः	-7509
▁दाव	-7510
▁निं	-7511
▁भाई	-7512
मन्दि	-7513
ितान्	-7514
▁मांस	-7515
▁लम्ब	-7516
प्रियः	-7517
▁चक्षुः	-7518
▁नेत्रे	-7519
▁रहस्यं	-7520
▁वृक्षः	-7521
▁हेतुना	-7522
▁व्याप्त	-7523
▁Previous	-7524
घं	-7525
भृ	-7526
४४	-7527
ies	-7528
नाह	-7529
षम्	-7530
ानग	-7531
▁दय	-7532
▁दस	-7533
▁नद	-7534
▁लः	-7535
▁आशा	-7536
▁सुभ	-7537
▁हतः	-7538
ग्रहं	-7539
द्वये	-7540
न्येन	-7541
संसार	-7542
▁यूपी	-7543
▁शुल्	-7544
▁धीमतः	-7545
▁मर्या	-7546
▁अज्ञात	-7547
▁आरक्षण	-7548
▁आवश्यक	-7549
▁कार्यो	-7550
▁पित्रा	-7551
▁साहाय्यं	-7552
ra	-7553
मस	-7554
ary	-7555
करी	-7556
कुम	-7557
क्ख	-7558
दाव	-7559
दुः	-7560
ेता	-7561
कामा	-7562
द्दे	-7563
मुखी	-7564
वाचक	-7565
स्रः	-7566
तायां	-7567
▁आवां	-7568
▁जनता	-7569
▁जर्म	-7570
▁निशि	-7571
▁अहमेव	-7572
▁आदेशः	-7573
▁ग्रही	-7574
▁दत्वा	-7575
▁दिष्ट	-7576
▁सवर्ण	-7577
▁होवाच	-7578
▁अन्तर्	-7579
▁कर्मणः	-7580
▁सत्यम्	-7581
भिप्रायः	-7582
▁ऊर्ध्वं	-7583
▁पप्रच्छ	-7584
▁स्थानम्	-7585
यतो	-7586
▁be	-7587
तस्त	-7588
वाचि	-7589
ान्स	-7590
ैर्म	-7591
▁गतं	-7592
पात्र	-7593
स्वतः	-7594
▁करणं	-7595
▁तेजः	-7596
▁दिक्	-7597
प्रवाह	-7598
▁अथातः	-7599
▁ऊर्जा	-7600
▁मंत्र	-7601
क्षिप्य	-7602
व्यमिति	-7603
▁मासस्य	-7604
▁केनचित्	-7605
▁निश्चयः	-7606
▁परामर्श	-7607
▁पुत्राः	-7608
▁महत्त्वपूर्ण	-7609
ठा	-7610
लम	-7611
कोष	-7612
तिर	-7613
ेदे	-7614
्ति	-7615
ight	-7616
▁२०६	-7617
माःगु	-7618
सृत्य	-7619
▁तथाच	-7620
▁वाहन	-7621
▁हविष	-7622
सहस्रं	-7623
स्थितौ	-7624
▁अपितु	-7625
▁पितरं	-7626
▁विषया	-7627
▁तद्वत्	-7628
▁भवितुं	-7629
▁सर्वां	-7630
▁कौन्तेय	-7631
▁प्राप्तो	-7632
▁द्यावापृथ	-7633
▁विश्वविद्यालय	-7634
qu	-7635
ुक	-7636
▁i	-7637
ord	-7638
धेय	-7639
लाघ	-7640
विं	-7641
▁घु	-7642
द्धे	-7643
युतं	-7644
रचना	-7645
विकि	-7646
▁कन्	-7647
▁षण्	-7648
मादाय	-7649
स्तम्	-7650
▁बोधि	-7651
▁सफलं	-7652
▁आसपास	-7653
▁ततस्त	-7654
▁तथाहि	-7655
▁पाठ्य	-7656
▁प्रयत	-7657
ष्टाचार	-7658
▁कीर्ति	-7659
▁अध्ययनं	-7660
▁राजधानी	-7661
▁विप्रति	-7662
▁सहस्रशः	-7663
फि	-7664
दूर	-7665
हरं	-7666
हाय	-7667
▁31	-7668
▁इ॒	-7669
▁वध	-7670
ears	-7671
▁इवा	-7672
▁तूं	-7673
▁नाह	-7674
▁बहू	-7675
विधाः	-7676
▁जल्प	-7677
▁फोटो	-7678
कर्म्म	-7679
▁अत्या	-7680
▁कतिपय	-7681
▁अनिवार	-7682
▁तस्मान्	-7683
▁परीणामः	-7684
▁प्रख्या	-7685
▁मनुष्यः	-7686
▁विष्णुः	-7687
DF	-7688
ia	-7689
हौ	-7690
४६	-7691
५२	-7692
ast	-7693
जते	-7694
नाप	-7695
पदी	-7696
ामे	-7697
▁७६	-7698
काशं	-7699
सञ्च	-7700
ह्ने	-7701
▁अचि	-7702
▁अमु	-7703
▁धरण	-7704
▁वेग	-7705
▁शंस	-7706
तिहास	-7707
पदानि	-7708
व्याप	-7709
ान्वि	-7710
▁अर्ह	-7711
▁परमो	-7712
▁शुचि	-7713
क्षितः	-7714
ित्वेन	-7715
▁आक्रम	-7716
▁भूमिः	-7717
▁साक्षी	-7718
▁प्रमाणम्	-7719
▁योगदानानि	-7720
▁राष्ट्रस्य	-7721
बः	-7722
वल	-7723
मेय	-7724
हिः	-7725
ोर्	-7726
अधिक	-7727
कामः	-7728
व्यय	-7729
▁आपो	-7730
▁गां	-7731
▁लग्	-7732
▁वत्	-7733
▁सकृ	-7734
साधनं	-7735
▁ऋग्व	-7736
▁त्वि	-7737
▁निगम	-7738
▁पुरं	-7739
▁मार्	-7740
▁मुखे	-7741
▁वहति	-7742
▁सानु	-7743
▁क्रमः	-7744
▁उपलब्ध	-7745
▁नगरस्य	-7746
▁वृत्तं	-7747
▁शुद्धं	-7748
▁श्रेयः	-7749
▁संवेदन	-7750
▁सदस्यः	-7751
निमित्तं	-7752
▁वक्ष्ये	-7753
▁सहस्त्र	-7754
▁ब्रह्माण्ड	-7755
:3	-7756
log	-7757
lok	-7758
मेः	-7759
संप	-7760
▁38	-7761
▁8.	-7762
▁IS	-7763
▁रं	-7764
कामं	-7765
गामि	-7766
सङ्घ	-7767
▁आसन	-7768
▁भवत	-7769
▁होम	-7770
कृतेन	-7771
▁कुले	-7772
▁स्थल	-7773
▁तावद्	-7774
▁भगिनी	-7775
▁युवां	-7776
▁वसन्त	-7777
▁व्यभि	-7778
▁समासः	-7779
प्रार्थ	-7780
▁संसर्ग	-7781
▁सिद्धं	-7782
▁अन्वेषण	-7783
▁शैक्षिक	-7784
▁संस्थाप्य	-7785
7)	-7786
नू	-7787
इदं	-7788
डाग	-7789
धरः	-7790
धिव	-7791
गतिः	-7792
डियो	-7793
तःगु	-7794
मतिः	-7795
▁इदम	-7796
क्षरं	-7797
▁ऐश्व	-7798
▁दिशो	-7799
▁मल्ल	-7800
▁यीशु	-7801
▁रत्न	-7802
देवस्य	-7803
न्यासः	-7804
वृत्तं	-7805
▁अन्नं	-7806
▁अभूत्	-7807
▁उभयोः	-7808
▁देवेश	-7809
▁समवाय	-7810
▁मन्यसे	-7811
▁मर्त्य	-7812
▁महाबाह	-7813
▁प्रणम्य	-7814
▁युक्तम्	-7815
पठ	-7816
वह	-7817
गमः	-7818
ग्म	-7819
ञ्ञ	-7820
▁th	-7821
▁इन	-7822
▁उष	-7823
तिम्	-7824
र्थक	-7825
र्धे	-7826
▁अपा	-7827
▁कात	-7828
▁दीन	-7829
▁भीत	-7830
▁रेफ	-7831
▁रोद	-7832
ञ्जलि	-7833
र्तुं	-7834
वृष्ट	-7835
▁इलय्	-7836
▁करने	-7837
▁देहं	-7838
▁रङ्ग	-7839
▁वाजि	-7840
व्यानि	-7841
▁खाद्य	-7842
▁दुर्व	-7843
▁भासते	-7844
▁मातरं	-7845
▁विवरण	-7846
▁शिष्ट	-7847
क्ष्यति	-7848
त्वाच्च	-7849
▁अकथयत्	-7850
▁क्षिति	-7851
▁विरोधः	-7852
▁स्यान्	-7853
कार्येषु	-7854
▁अधिकारः	-7855
▁भवत्येव	-7856
▁मन्त्री	-7857
▁स्वागतं	-7858
▁प्रतीक्ष	-7859
▁वर्तमानः	-7860
▁कार्यकारण	-7861
br	-7862
de	-7863
ie	-7864
०८	-7865
pal	-7866
टर्	-7867
ऽऽह	-7868
▁६८	-7869
नगरं	-7870
माला	-7871
युगे	-7872
रोधः	-7873
र्षः	-7874
वहार	-7875
षेधा	-7876
ाद्र	-7877
ामपि	-7878
ैरेव	-7879
ोपाय	-7880
▁अधी	-7881
▁अल्	-7882
▁तृण	-7883
▁पते	-7884
▁यमः	-7885
▁वपु	-7886
पुरस्	-7887
ब्रुव	-7888
▁हिरण	-7889
धिकारि	-7890
▁मधुरं	-7891
▁स्मार	-7892
▁धर्मेण	-7893
▁संध्या	-7894
▁सातवां	-7895
▁हिरण्य	-7896
▁आश्चर्य	-7897
▁क्रान्त	-7898
▁पश्चाद्	-7899
▁वृक्षाः	-7900
▁स्तोत्र	-7901
▁परमेश्वर	-7902
यर	-7903
३८	-7904
oun	-7905
▁SP	-7906
पश्च	-7907
बीसी	-7908
म्या	-7909
▁आरा	-7910
कालिक	-7911
ष्याः	-7912
स्माद	-7913
ुत्वा	-7914
▁जाते	-7915
▁द्यू	-7916
▁पञ्ज	-7917
▁वयसि	-7918
ज्योति	-7919
विश्वा	-7920
ानुष्ठ	-7921
▁भूमिं	-7922
▁वाच्य	-7923
▁अन्तरा	-7924
▁फलकम्ः	-7925
त्वादिति	-7926
समन्वितः	-7927
▁ध्रुवम्	-7928
▁भविष्यामि	-7929
▁व्यवस्थापन	-7930
',	-7931
जेन	-7932
ताय	-7933
▁ओष	-7934
▁डे	-7935
भवन्	-7936
▁अक्	-7937
▁जम्	-7938
▁जरा	-7939
▁सवि	-7940
कल्या	-7941
चक्षु	-7942
त्वार	-7943
वादने	-7944
साधार	-7945
▁गणित	-7946
दृष्टि	-7947
▁जाताः	-7948
▁मूर्ध	-7949
▁युध्य	-7950
▁स्वकी	-7951
ज्यन्ते	-7952
स्यन्ति	-7953
▁ज्ञानि	-7954
▁ज्ञेया	-7955
▁त्रिषु	-7956
▁लोकान्	-7957
▁समावेश	-7958
▁सूक्ष्	-7959
▁उक्त्वा	-7960
▁वीक्ष्य	-7961
▁कृतवन्तः	-7962
ठी	-7963
५८	-7964
ist	-7965
कोट	-7966
तिश	-7967
दिह	-7968
पुट	-7969
मनि	-7970
ालन	-7971
ैवा	-7972
निरा	-7973
सितं	-7974
▁राय	-7975
भूताः	-7976
मुवाच	-7977
यार्थ	-7978
वर्गः	-7979
सर्वे	-7980
ोऽत्र	-7981
▁इत्थ	-7982
▁शेषे	-7983
त्तमम्	-7984
▁गतिम्	-7985
▁तत्तु	-7986
▁दण्डः	-7987
▁दुर्य	-7988
▁निरोध	-7989
▁वेदना	-7990
▁उत्साह	-7991
▁कर्तरि	-7992
▁दुर्घट	-7993
▁परिपाल	-7994
ेत्यर्थः	-7995
▁तस्यापि	-7996
▁निश्चित	-7997
▁सर्वज्ञ	-7998
प्राप्तिः	-7999
▁ज्याझ्वः	-8000
▁प्रकृत्य	-8001
▁वक्ष्यति	-8002
▁प्रवृत्तिः	-8003
ाट	-8004
गतौ	-8005
लनं	-8006
समि	-8007
पुरं	-8008
बलय्	-8009
▁यदी	-8010
धानम्	-8011
श्चतु	-8012
▁जारी	-8013
▁दूरी	-8014
▁भवान	-8015
▁लुक्	-8016
क्ष्मा	-8017
ात्मकः	-8018
ार्थम्	-8019
▁आरक्ष	-8020
▁विशाल	-8021
▁शिल्प	-8022
▁अभ्यास	-8023
▁इत्यतः	-8024
▁मुक्तः	-8025
▁स्कन्ध	-8026
▁इत्येके	-8027
▁प्रचलति	-8028
▁प्रभाते	-8029
▁पृथिव्याः	-8030
-5	-8031
25	-8032
cd	-8033
णम	-8034
३९	-8035
rit	-8036
ादं	-8037
▁दल	-8038
पक्व	-8039
रेषु	-8040
वृतः	-8041
▁अरण	-8042
▁वि॒	-8043
▁संत	-8044
तंत्र	-8045
भूमिः	-8046
विषयं	-8047
स्तिः	-8048
ितेषु	-8049
▁अध्व	-8050
▁कुशल	-8051
▁द्वी	-8052
▁रुग्	-8053
▁षष्ट	-8054
चतुष्ट	-8055
▁काष्ठ	-8056
▁कुत्स	-8057
▁दातुं	-8058
▁याज्ञ	-8059
▁यादृश	-8060
▁स्नात	-8061
तिरिक्त	-8062
▁अन्ततः	-8063
▁तदानीं	-8064
▁भ्रातृ	-8065
▁सङ्गीत	-8066
▁सुविधा	-8067
पूर्वकम्	-8068
▁कारणात्	-8069
▁प्रायशः	-8070
▁संक्षेप	-8071
▁गृहपृष्ठ	-8072
▁वैज्ञानिक	-8073
8)	-8074
.10	-8075
रिय	-8076
▁अब	-8077
▁बत	-8078
▁भै	-8079
▁य॒	-8080
क्या	-8081
द्यत	-8082
यस्व	-8083
ाभाव	-8084
ीतले	-8085
्यान	-8086
▁(3)	-8087
▁The	-8088
▁अमे	-8089
▁वाल	-8090
म्यहं	-8091
िंशत्	-8092
▁नरके	-8093
▁नारद	-8094
▁शङ्ख	-8095
ब्ल्यू	-8096
भारतीय	-8097
राज्यं	-8098
▁Nepal	-8099
▁केषां	-8100
▁लेखकः	-8101
▁पुनरेव	-8102
▁ज्ञानेन	-8103
▁धर्मस्य	-8104
▁निर्धार	-8105
▁प्रतीति	-8106
▁विज्ञाप	-8107
▁प्रविशति	-8108
ish	-8109
own	-8110
गतम	-8111
लाव	-8112
ूलं	-8113
ैका	-8114
▁९०	-8115
द्धं	-8116
पर्ण	-8117
रान्	-8118
र्षं	-8119
शेषं	-8120
षाम्	-8121
▁इतो	-8122
▁दाह	-8123
▁भाः	-8124
पुष्प	-8125
ुक्ते	-8126
▁अनया	-8127
▁नियत	-8128
▁पुरी	-8129
▁भवेत	-8130
▁स्वय	-8131
▁व्याच	-8132
तिष्ठते	-8133
व्याघ्र	-8134
स्कृतिक	-8135
▁तेभ्यः	-8136
▁दुग्धं	-8137
▁यथोक्त	-8138
▁प्रकारः	-8139
▁स्वाभावि	-8140
▁दृष्टान्त	-8141
▁निश्चितम्	-8142
शृ	-8143
ॉल	-8144
३५	-8145
गाय	-8146
परम	-8147
वने	-8148
शुः	-8149
▁सन	-8150
▁६४	-8151
ग्धा	-8152
म्नि	-8153
ालयं	-8154
▁यास	-8155
काराः	-8156
न्तरा	-8157
न्याः	-8158
मण्डल	-8159
वर्णः	-8160
▁येना	-8161
शिक्षण	-8162
▁दुर्ज	-8163
▁धाःगु	-8164
▁वैदिक	-8165
▁सत्ता	-8166
▁स्तुव	-8167
▁हेतोः	-8168
▁अप्रैल	-8169
▁उच्चार	-8170
▁ग्रामे	-8171
▁प्रचार	-8172
▁पुत्त्र	-8173
▁सन्देहः	-8174
▁नरेन्द्र	-8175
▁प्रतिष्ठा	-8176
og	-8177
छा	-8178
जन्	-8179
लङ्	-8180
▁ऊँ	-8181
▁६६	-8182
कण्ठ	-8183
कुले	-8184
त्यै	-8185
र्नो	-8186
▁मित	-8187
भारते	-8188
▁आहुः	-8189
▁दिनं	-8190
▁मानं	-8191
▁यक्ष	-8192
▁रसोई	-8193
▁हविः	-8194
कार्ये	-8195
न्द्रः	-8196
लक्षणः	-8197
स्ट्रे	-8198
▁बान्ध	-8199
▁मेदि०	-8200
▁यदिदं	-8201
▁हिताय	-8202
▁हृष्ट	-8203
कुर्वन्	-8204
च्छिन्न	-8205
त्कृष्ट	-8206
बुद्धिः	-8207
स्तिष्ठ	-8208
▁उत्तरे	-8209
▁द्वारं	-8210
▁नित्यः	-8211
▁पुष्टि	-8212
▁बालिका	-8213
▁मुख्या	-8214
▁शानदार	-8215
▁कस्मिन्	-8216
▁यथोक्तं	-8217
▁प्रकृतिं	-8218
इव	-8219
चय	-8220
कदा	-8221
जसा	-8222
जाय	-8223
दुप	-8224
पिः	-8225
वरं	-8226
दिदं	-8227
न्तौ	-8228
म्बा	-8229
रक्त	-8230
र्मे	-8231
▁भूष	-8232
▁मते	-8233
▁मना	-8234
प्राय	-8235
लायां	-8236
विषयः	-8237
▁दिवः	-8238
▁मनसः	-8239
▁रेखा	-8240
विभागः	-8241
▁कस्मै	-8242
▁मायया	-8243
▁शृण्व	-8244
▁हितम्	-8245
द्वितीय	-8246
मित्याह	-8247
ुक्त्वा	-8248
▁दिक्षु	-8249
▁ग्रन्थः	-8250
▁वस्तूनि	-8251
▁निर्मितः	-8252
▁स्वातन्त्र्य	-8253
-7	-8254
इह	-8255
जनः	-8256
धीत	-8257
मती	-8258
ोऽथ	-8259
ष्णा	-8260
स्कर	-8261
हितो	-8262
▁यथो	-8263
▁वाग	-8264
▁समः	-8265
प्रदः	-8266
ृत्या	-8267
▁2015	-8268
▁इहैव	-8269
▁तेरे	-8270
▁नाटक	-8271
▁वासः	-8272
त्तस्य	-8273
ान्येव	-8274
▁चाप्य	-8275
▁नियोज	-8276
▁मङ्गल	-8277
▁विघ्न	-8278
▁शब्दं	-8279
▁स्वाम	-8280
धिकरणम्	-8281
▁इत्येते	-8282
▁शक्नोमि	-8283
▁सम्पन्न	-8284
प्रक्रिया	-8285
▁संस्कृतं	-8286
24	-8287
com	-8288
अयं	-8289
ङ्ख	-8290
पया	-8291
मधु	-8292
ृक्	-8293
▁म॒	-8294
क्षम	-8295
ानने	-8296
ेतत्	-8297
▁खड्	-8298
▁गतो	-8299
▁चोर	-8300
▁दिल	-8301
▁पा०	-8302
विकास	-8303
▁आईपी	-8304
▁गुरो	-8305
▁अत्यु	-8306
▁अर्थं	-8307
▁क्षयं	-8308
▁त्र्य	-8309
▁धर्मि	-8310
ध्यात्म	-8311
मिष्यति	-8312
ल्लिङ्ग	-8313
▁प्रगति	-8314
▁विख्या	-8315
▁शब्दाः	-8316
▁शब्देन	-8317
प्रतियोग	-8318
▁विश्लेष	-8319
▁पर्याप्त	-8320
▁वक्ष्यते	-8321
नॊ	-8322
-20	-8323
ort	-8324
नोः	-8325
बर्	-8326
रेत	-8327
वीत	-8328
करम्	-8329
ख्यः	-8330
ैतत्	-8331
▁दाप	-8332
▁नेह	-8333
▁ब्ल	-8334
कीर्ण	-8335
कृताः	-8336
सहितं	-8337
▁एताः	-8338
▁कामा	-8339
▁तत्स	-8340
▁विगत	-8341
▁हिता	-8342
मुक्ति	-8343
▁अव्यय	-8344
▁क्रमा	-8345
▁पुनरि	-8346
▁सम्यग	-8347
▁प्राग्	-8348
▁विभाति	-8349
▁कर्मणां	-8350
▁दृष्टम्	-8351
▁पूजयेत्	-8352
▁विचार्य	-8353
▁स्थानीय	-8354
▁अधिसूचना	-8355
▁पुस्तकाल	-8356
▁प्रदक्षि	-8357
ौति	-8358
दर्प	-8359
पिनि	-8360
शीलः	-8361
▁इमा	-8362
▁कर्	-8363
वस्था	-8364
साक्ष	-8365
ातुम्	-8366
▁क्रो	-8367
▁घण्ट	-8368
▁देवत	-8369
▁पीतं	-8370
▁भावे	-8371
▁भूरि	-8372
दर्शने	-8373
▁एकाकी	-8374
▁नियमा	-8375
▁भवेद्	-8376
▁मृताः	-8377
▁लभेत्	-8378
प्रत्या	-8379
▁अभिवाद	-8380
▁ज्ञाने	-8381
▁ध्रुवं	-8382
▁पुष्पं	-8383
▁यत्नेन	-8384
▁विवरणः	-8385
▁टिप्पणी	-8386
▁प्रत्यभि	-8387
▁स्तोत्रं	-8388
▁विद्यन्ते	-8389
दल	-8390
भ्	-8391
मर	-8392
कवि	-8393
तयः	-8394
नयो	-8395
ाणा	-8396
ष्णं	-8397
हारं	-8398
▁जने	-8399
▁नया	-8400
क्रमा	-8401
त्यपि	-8402
▁परित	-8403
▁यष्ट	-8404
▁वामे	-8405
र्म्मा	-8406
▁द्वाद	-8407
▁धन्या	-8408
▁धर्मे	-8409
▁भृत्य	-8410
▁वैष्ण	-8411
द्यन्ते	-8412
भाषायाः	-8413
स्त्वां	-8414
▁एकान्त	-8415
▁ऐतिहास	-8416
▁किञ्चन	-8417
▁चत्वार	-8418
▁महाभाग	-8419
▁मुस्लि	-8420
▁प्रायेण	-8421
▁दुर्लभम्	-8422
▁शत्रूणां	-8423
▁सर्वात्म	-8424
▁निवर्त्यताम्	-8425
छु	-8426
चयः	-8427
जनक	-8428
ट्स	-8429
णिः	-8430
ण्ण	-8431
रसः	-8432
राद	-8433
लोम	-8434
ादय	-8435
▁आत	-8436
▁मध	-8437
जातं	-8438
र्यु	-8439
ष्णः	-8440
▁तरि	-8441
▁रेख	-8442
▁वयः	-8443
▁संप	-8444
ग्रतः	-8445
नन्दन	-8446
न्नपि	-8447
रियां	-8448
ष्टम्	-8449
स्थले	-8450
▁तज्ज	-8451
▁स्वप	-8452
▁उन्नत	-8453
▁ग्रहण	-8454
▁पदानि	-8455
▁भ्रमण	-8456
▁शक्तः	-8457
मात्मनः	-8458
स्त्येव	-8459
▁द्विजः	-8460
▁ब्रूमः	-8461
▁मूर्ति	-8462
▁संयुगे	-8463
स्थानस्य	-8464
▁अनेकानि	-8465
▁द्विजाः	-8466
▁लक्ष्यं	-8467
▁प्रकाशते	-8468
▁प्रत्यये	-8469
▁मन्त्रेण	-8470
▁सामान्यं	-8471
▁पुस्तकानि	-8472
.-	-8473
XX	-8474
ुष	-8475
ल्ड	-8476
ूरु	-8477
▁भण	-8478
▁लौ	-8479
▁८६	-8480
याद्	-8481
विनि	-8482
▁भ्व	-8483
तीर्थ	-8484
संस्थ	-8485
▁वेत्	-8486
मण्डले	-8487
▁यत्ते	-8488
ज्ञानम्	-8489
▁अप्रति	-8490
▁कस्मिं	-8491
▁यस्यां	-8492
▁क्रियाः	-8493
▁क्षुद्र	-8494
▁पूर्णतः	-8495
▁प्रयोगशाला	-8496
पव	-8497
ऽप	-8498
▁ʻ	-8499
तमो	-8500
▁60	-8501
▁सब	-8502
चिता	-8503
रुचि	-8504
र्षी	-8505
▁कृश	-8506
▁दधि	-8507
दिवसे	-8508
हन्ति	-8509
▁अपने	-8510
▁खर्च	-8511
▁मङ्ग	-8512
▁मञ्ज	-8513
चित्रं	-8514
भाग्यं	-8515
ीकृत्य	-8516
▁क्षति	-8517
▁पौरुष	-8518
▁प्राच	-8519
▁बलात्	-8520
▁योद्ध	-8521
▁स्वनि	-8522
▁स्वेन	-8523
▁उत्तमः	-8524
▁ज्ञाना	-8525
▁पद्धति	-8526
▁प्रादु	-8527
▁वर्षति	-8528
▁संक्रम	-8529
▁पूर्व्व	-8530
▁वृद्धिं	-8531
▁शक्त्या	-8532
▁इन्द्रिय	-8533
▁महात्मनः	-8534
bs	-8535
इत	-8536
चक	-8537
ूण	-8538
ber	-8539
ity	-8540
धम्	-8541
वैः	-8542
सुत	-8543
▁06	-8544
▁घं	-8545
▁०२	-8546
ateg	-8547
कारक	-8548
ण्ड्	-8549
मांस	-8550
▁अमा	-8551
▁तरु	-8552
▁निम	-8553
▁शरा	-8554
क्षाल	-8555
ङ्क्त	-8556
त्यनु	-8557
धान्य	-8558
श्रयः	-8559
हत्या	-8560
▁नायं	-8561
▁परोप	-8562
▁भवद्	-8563
▁महीं	-8564
▁वैभव	-8565
▁सद्य	-8566
त्वादि	-8567
स्यात्	-8568
▁इंद्र	-8569
▁उपदेश	-8570
▁दोषाः	-8571
▁पृथग्	-8572
▁मार्ज	-8573
ात्मानं	-8574
▁पर्याय	-8575
▁अव्यक्त	-8576
▁प्रयाति	-8577
▁भवितुम्	-8578
▁विद्वां	-8579
▁सम्पद्यते	-8580
▁सम्भाषणम्	-8581
▁भविष्यतीति	-8582
▁व्यवस्थितः	-8583
iz	-8584
▁~	-8585
ass	-8586
ड्य	-8587
तृत	-8588
फला	-8589
शोक	-8590
ेशन	-8591
ेषः	-8592
▁बं	-8593
▁६७	-8594
गुणो	-8595
म्भः	-8596
योनि	-8597
रूपो	-8598
ातुं	-8599
ितोऽ	-8600
िष्ठ	-8601
▁(--	-8602
▁किय	-8603
▁चोप	-8604
▁माण	-8605
▁यते	-8606
▁हनु	-8607
▁2014	-8608
▁यन्न	-8609
▁लोको	-8610
▁ददामि	-8611
▁पठेत्	-8612
▁शब्दो	-8613
प्रयोगे	-8614
युक्तम्	-8615
▁Online	-8616
▁त्रिधा	-8617
▁परार्थ	-8618
▁रिक्ति	-8619
▁परिवर्तनं	-8620
▁निर्विकल्प	-8621
//	-8622
फा	-8623
पद्	-8624
▁धे	-8625
दासः	-8626
मानम	-8627
सहाय	-8628
ीयां	-8629
▁अणु	-8630
▁चेह	-8631
▁पठे	-8632
▁हरी	-8633
पौत्र	-8634
वर्ती	-8635
▁पतति	-8636
▁पतिं	-8637
▁रुपए	-8638
▁सोमो	-8639
lation	-8640
कृत्वा	-8641
द्वयम्	-8642
नात्मक	-8643
स्कन्ध	-8644
▁गुणैः	-8645
▁शुक्ल	-8646
▁स्वधा	-8647
भारतस्य	-8648
विष्यति	-8649
▁अनित्य	-8650
▁उदात्त	-8651
▁ग्रामी	-8652
▁विक्री	-8653
▁सन्देश	-8654
▁निष्पाद	-8655
▁तदनन्तरं	-8656
▁प्रतिदिन	-8657
▁प्रजापतिः	-8658
2)	-8659
भरण	-8660
भूः	-8661
▁33	-8662
▁34	-8663
कृतो	-8664
दिशि	-8665
दोषः	-8666
नीये	-8667
▁कलि	-8668
▁तकं	-8669
▁बिल	-8670
▁भीम	-8671
▁शरु	-8672
भाविक	-8673
र्वेद	-8674
वार्ष	-8675
ितश्च	-8676
▁उत्थ	-8677
▁ध्वन	-8678
दिशेत्	-8679
ोत्तमः	-8680
▁आरभ्य	-8681
▁भाषाः	-8682
▁शुश्र	-8683
▁हानिः	-8684
ख्यानम्	-8685
▁ख्याति	-8686
▁प्रज्ञ	-8687
▁लोकेषु	-8688
▁प्रयत्न	-8689
▁श्रेणीः	-8690
▁परिवर्तन	-8691
▁सर्वकर्म	-8692
▁प्रत्युवाच	-8693
80	-8694
ेतौ	-8695
▁वु	-8696
▁सथ	-8697
देवा	-8698
प्तौ	-8699
भेदं	-8700
म्ना	-8701
सागर	-8702
ह्नि	-8703
▁अयि	-8704
▁जिं	-8705
▁मलि	-8706
▁राघ	-8707
▁शयन	-8708
धर्मः	-8709
शेषतः	-8710
ित्ये	-8711
▁अवयव	-8712
▁भव्य	-8713
▁रावण	-8714
त्यत्र	-8715
ामित्र	-8716
▁अङ्गु	-8717
▁उपलब्	-8718
त्त्वम्	-8719
▁छन्दसि	-8720
▁जुहोति	-8721
▁तादृशं	-8722
▁सम्भवः	-8723
▁सर्वशः	-8724
क्षेत्रं	-8725
▁योजनानां	-8726
▁वर्त्तते	-8727
▁सिद्ध्यति	-8728
▁प्रतिबिम्ब	-8729
धम	-8730
ice	-8731
गीत	-8732
हन्	-8733
िनौ	-8734
▁एच	-8735
▁६१	-8736
कुलं	-8737
न्स्	-8738
भिषे	-8739
मातृ	-8740
ष्टम	-8741
ापरि	-8742
िरेव	-8743
▁कोश	-8744
▁पन्	-8745
▁यजु	-8746
▁वैव	-8747
जातीय	-8748
जानां	-8749
वन्तौ	-8750
▁उकिं	-8751
▁उग्र	-8752
▁एतां	-8753
▁गम्भ	-8754
▁चाहं	-8755
▁जीवः	-8756
▁तस्थ	-8757
▁द्यौ	-8758
▁प्लव	-8759
▁रूपे	-8760
▁वाचा	-8761
रात्रि	-8762
▁कथितः	-8763
▁खण्डः	-8764
▁दिवसः	-8765
▁स्कूल	-8766
प्रयोजन	-8767
▁एकादशी	-8768
▁न्ह्या	-8769
▁विशेषा	-8770
▁वृद्धः	-8771
निर्देशः	-8772
पद्यन्ते	-8773
▁चक्षुषा	-8774
▁विलोक्य	-8775
कुर्वन्ति	-8776
माश्रित्य	-8777
▁प्रातःकाले	-8778
एँ	-8779
रक	-8780
ame	-8781
धां	-8782
मिल	-8783
रस्	-8784
,000	-8785
अर्थ	-8786
मामि	-8787
रङ्ग	-8788
वायु	-8789
▁अम्	-8790
▁रसः	-8791
▁वये	-8792
काव्य	-8793
दुर्ग	-8794
▁कन्य	-8795
▁राजन	-8796
प्रदाय	-8797
▁आख्या	-8798
▁यावद्	-8799
▁विस्फ	-8800
▁शुल्क	-8801
▁श्याम	-8802
प्रकरणे	-8803
मासाद्य	-8804
शिष्यते	-8805
ान्तरम्	-8806
▁अधिष्ठ	-8807
▁नराधिप	-8808
▁पुनर्म	-8809
▁पुरुषा	-8810
▁पृष्ठः	-8811
▁शृणोति	-8812
दर्शनात्	-8813
मात्मानं	-8814
▁क्षणात्	-8815
▁समाप्ति	-8816
▁सर्व्वे	-8817
▁श्रद्धया	-8818
-9	-8819
/-	-8820
गमे	-8821
धिर	-8822
नान	-8823
संघ	-8824
▁37	-8825
▁al	-8826
▁मॉ	-8827
भाषे	-8828
विदः	-8829
ायुः	-8830
▁करॊ	-8831
▁धूम	-8832
▁यशो	-8833
▁वयो	-8834
ध्यति	-8835
▁क्वि	-8836
▁दिग्	-8837
▁शिरो	-8838
▁संयम	-8839
लक्षणे	-8840
▁चर्चा	-8841
▁चास्य	-8842
▁मानसं	-8843
▁शोभते	-8844
▁संवाद	-8845
▁समुदा	-8846
▁सविता	-8847
▁पुण्या	-8848
▁भवेयुः	-8849
▁रिश्ते	-8850
▁विमानं	-8851
▁कथयन्ति	-8852
▁ग्रहणम्	-8853
▁प्रत्ये	-8854
▁प्राथमिक	-8855
▁प्रतीक्षा	-8856
se	-8857
अं	-8858
जत	-8859
यथ	-8860
मयो	-8861
मरः	-8862
ातः	-8863
▁६२	-8864
आत्म	-8865
गणना	-8866
र्ये	-8867
ारम्	-8868
▁कमल	-8869
▁मनू	-8870
निषेध	-8871
भूतम्	-8872
मुदाह	-8873
योगतः	-8874
▁कुलं	-8875
▁दैवं	-8876
पुराणे	-8877
समुदाय	-8878
ित्वम्	-8879
▁ग्रहः	-8880
▁नद्यः	-8881
▁निपात	-8882
▁बुधैः	-8883
कारान्त	-8884
मुक्तम्	-8885
▁दृश्यं	-8886
▁परिमाण	-8887
▁पश्चाद	-8888
▁पुनर्न	-8889
▁लक्षणा	-8890
▁विचारः	-8891
त्पद्यते	-8892
▁आन्दोलन	-8893
▁परिवर्ज	-8894
▁विनश्यति	-8895
▁प्रधानमन्त्रि	-8896
.5	-8897
तक	-8898
दध	-8899
ुल	-8900
ौष	-8901
old	-8902
सरः	-8903
ागत	-8904
ाण्	-8905
ापं	-8906
्वो	-8907
▁गद	-8908
▁दब	-8909
स्थल	-8910
्वेन	-8911
▁अन्	-8912
▁नये	-8913
▁पाष	-8914
▁भये	-8915
▁माप	-8916
▁येँ	-8917
तोऽहं	-8918
यन्ती	-8919
ान्नं	-8920
्यमान	-8921
▁छम्ह	-8922
▁तावद	-8923
▁त्व्	-8924
▁मिलि	-8925
▁राघव	-8926
▁वर्च	-8927
न्त्या	-8928
पुस्तक	-8929
विष्टः	-8930
संवत्स	-8931
सूत्रे	-8932
स्त्वा	-8933
▁चक्रे	-8934
▁स्याम	-8935
▁भाष्ये	-8936
▁युक्ति	-8937
▁व्यञ्ज	-8938
▁शत्रुः	-8939
▁विदूषकः	-8940
मिष	-8941
मूढ	-8942
यने	-8943
ांग	-8944
ातो	-8945
दाने	-8946
वदत्	-8947
श्चे	-8948
हीनः	-8949
▁जपे	-8950
▁याइ	-8951
▁सुब	-8952
नीयाः	-8953
न्याय	-8954
भावना	-8955
भिर्व	-8956
र्य्य	-8957
व्रतः	-8958
ृष्टं	-8959
▁गम्य	-8960
▁नश्य	-8961
▁पारं	-8962
▁विजय	-8963
▁२०१५	-8964
वासिनः	-8965
▁अग्रि	-8966
▁क्वचि	-8967
▁वर्णन	-8968
▁हस्तौ	-8969
ग्रहणेन	-8970
दर्शनम्	-8971
▁बलवान्	-8972
▁मानवाः	-8973
▁श्रेणी	-8974
▁अनुकूलन	-8975
▁पितामहः	-8976
▁यद्येवं	-8977
ग्ल	-8978
ोऽव	-8979
▁लल	-8980
काशे	-8981
मितं	-8982
ष्यत	-8983
ावेव	-8984
िकोण	-8985
्वाः	-8986
▁कास	-8987
▁तदव	-8988
▁देय	-8989
▁धुं	-8990
▁निव	-8991
▁भाज	-8992
▁सना	-8993
त्रये	-8994
येयुः	-8995
ृत्वं	-8996
▁अमृत	-8997
▁अस्प	-8998
▁कृतो	-8999
▁भजते	-9000
▁युयु	-9001
▁वक्र	-9002
▁तन्मे	-9003
▁बहुषु	-9004
▁संदेह	-9005
▁तृतीयः	-9006
▁अवशिष्ट	-9007
▁उत्पत्त	-9008
▁क्रियां	-9009
▁विभक्ति	-9010
▁द्विगुणं	-9011
कॊ	-9012
पण	-9013
ो॒	-9014
८०	-9015
८९	-9016
end	-9017
पोष	-9018
ब्ज	-9019
मसि	-9020
रसि	-9021
ामह	-9022
▁गल	-9023
▁रघ	-9024
च्यत	-9025
भङ्ग	-9026
मुपा	-9027
शेषः	-9028
ागतः	-9029
्युप	-9030
तव्यं	-9031
माहुः	-9032
समासः	-9033
ीयान्	-9034
▁थुगु	-9035
ान्तरण	-9036
▁न्यास	-9037
▁बन्धु	-9038
▁समिति	-9039
▁समीची	-9040
वृद्धिः	-9041
▁अपूर्व	-9042
▁कर्तुम	-9043
▁निंतिं	-9044
▁बाह्या	-9045
▁सुरक्ष	-9046
न्नित्यं	-9047
विज्ञानं	-9048
▁अध्याये	-9049
▁अस्मात्	-9050
▁नास्तीति	-9051
▁निवृत्ति	-9052
▁संस्थायाः	-9053
▁प्रतिवर्षं	-9054
मक	-9055
कोश	-9056
शोध	-9057
▁८४	-9058
नयोः	-9059
प्रद	-9060
रामः	-9061
ूर्त	-9062
ैकेन	-9063
▁Xxx	-9064
▁अयो	-9065
▁कतम	-9066
▁तरी	-9067
▁पृ०	-9068
▁बैठ	-9069
▁मरि	-9070
▁राश	-9071
▁रेव	-9072
ध्याप	-9073
पुराण	-9074
भूयते	-9075
श्रवण	-9076
ित्वे	-9077
▁पीडा	-9078
▁साकं	-9079
दिल्ली	-9080
सन्धान	-9081
ाम्यति	-9082
▁जगतां	-9083
▁भित्त	-9084
▁महापु	-9085
प्रभृति	-9086
मिष्यते	-9087
▁पुंसां	-9088
▁प्रणाम	-9089
▁यथावत्	-9090
▁विमर्श	-9091
▁श्लोकः	-9092
▁सूचयति	-9093
▁पठित्वा	-9094
▁पवित्रं	-9095
▁ग्रीष्मे	-9096
▁प्रकृतेः	-9097
▁स्त्रियो	-9098
▁जीवन्मुक्त	-9099
ST	-9100
दिः	-9101
धीश	-9102
ामो	-9103
्नि	-9104
क्लि	-9105
त्सव	-9106
▁गुम	-9107
▁यमु	-9108
▁श्ल	-9109
▁सखे	-9110
नेत्र	-9111
▁अतिथ	-9112
▁कवचं	-9113
▁पराय	-9114
▁मानस	-9115
▁रचित	-9116
रिक्तं	-9117
विभागे	-9118
व्यापी	-9119
▁घनत्व	-9120
▁द्योत	-9121
▁विलोक	-9122
प्रवर्त	-9123
र्भवेत्	-9124
सूक्तिः	-9125
▁प्रचोद	-9126
▁रामस्य	-9127
▁वाक्या	-9128
▁सूचनाः	-9129
▁चतुर्थे	-9130
▁विज्ञाय	-9131
▁इच्छन्ति	-9132
▁श्रेष्ठं	-9133
-6	-9134
जौ	-9135
रग	-9136
xam	-9137
दरा	-9138
नास	-9139
र्ल	-9140
▁उ०	-9141
▁कॊ	-9142
कात्	-9143
धारः	-9144
पुष्	-9145
▁अपृ	-9146
▁अरि	-9147
▁कपो	-9148
▁कैव	-9149
▁कोष	-9150
क्षणा	-9151
त्तदा	-9152
त्यम्	-9153
धिकृत	-9154
न्यत्	-9155
▁बलिं	-9156
▁मिति	-9157
▁रुपं	-9158
न्द्रं	-9159
स्मीति	-9160
▁कस्मा	-9161
▁धान्य	-9162
▁बाधते	-9163
काङ्क्ष	-9164
▁चित्ते	-9165
▁रक्षतु	-9166
▁हस्तेन	-9167
▁अविद्या	-9168
▁दक्षिणं	-9169
▁पृष्ठतः	-9170
▁प्रेत्य	-9171
▁विधानेन	-9172
▁प्रस्तुत	-9173
▁राजपुत्र	-9174
▁प्रकृत्या	-9175
/)	-9176
कप	-9177
्न	-9178
बला	-9179
॑ति	-9180
▁जड	-9181
▁७४	-9182
थापि	-9183
ब्दः	-9184
भूतो	-9185
श्रव	-9186
▁गूढ	-9187
▁वैद	-9188
▁श्च	-9189
▁सदस	-9190
मायां	-9191
ानुभव	-9192
▁आरोप	-9193
▁उन्म	-9194
▁चमत्	-9195
▁जनपद	-9196
▁धनेन	-9197
▁पर्ण	-9198
▁बीजं	-9199
▁विवृ	-9200
▁२०२०	-9201
त्त्वा	-9202
युक्तो	-9203
स्याम्	-9204
▁अधिका	-9205
▁धैर्य	-9206
▁भौतिक	-9207
धिकृत्य	-9208
▁किमिति	-9209
▁नेपाली	-9210
▁सन्तोष	-9211
▁सप्तमे	-9212
▁स्वकीय	-9213
भविष्यति	-9214
▁मृत्युं	-9215
▁व्यावहार	-9216
▁केन्द्रीय	-9217
▁प्राप्ताः	-9218
23	-9219
िण	-9220
सय्	-9221
▁de	-9222
▁vi	-9223
▁जघ	-9224
▁६९	-9225
ग्नः	-9226
जनिक	-9227
स्सं	-9228
हारा	-9229
▁गरु	-9230
▁चाव	-9231
▁सखा	-9232
ध्यान	-9233
पद्ये	-9234
ब्रह्	-9235
िकर्म	-9236
ेनेति	-9237
्यन्त	-9238
▁निकट	-9239
▁भूता	-9240
▁लभ्य	-9241
द्रूपं	-9242
न्तुम्	-9243
साहस्र	-9244
ोऽस्तु	-9245
▁तूष्ण	-9246
▁लौकिक	-9247
▁सान्त	-9248
▁नमस्ते	-9249
▁पठ्यते	-9250
▁विषयाः	-9251
ान्त्रिक	-9252
▁क्षत्रि	-9253
▁पूज्यते	-9254
▁प्रसङ्ग	-9255
▁संप्रति	-9256
▁साङ्ख्य	-9257
▁सूत्रम्	-9258
▁अनुच्छेद	-9259
▁इत्यादयः	-9260
▁करिष्यसि	-9261
▁शैक्षणिक	-9262
▁%	-9263
यदा	-9264
शाख	-9265
ाहु	-9266
िवा	-9267
ैषा	-9268
र्वी	-9269
लाइन	-9270
सहित	-9271
सिंह	-9272
ह्या	-9273
▁(4)	-9274
▁अवय	-9275
▁आरभ	-9276
▁मेऽ	-9277
▁वैक	-9278
▁शैल	-9279
▁हैं	-9280
▁०२०	-9281
जीवनं	-9282
न्दुः	-9283
विद्व	-9284
ोपयोग	-9285
▁खोजष	-9286
▁पापि	-9287
▁भयान	-9288
▁भूया	-9289
▁मृतः	-9290
▁वाग्	-9291
वाक्यं	-9292
ेष्यते	-9293
▁अयमेव	-9294
▁प्रदी	-9295
▁ममापि	-9296
▁लिखति	-9297
▁पाश्चा	-9298
▁बिन्दु	-9299
▁वचनात्	-9300
▁विकासः	-9301
▁वृक्षे	-9302
▁संशोधन	-9303
ज्ञानस्य	-9304
प्रसङ्गः	-9305
▁कार्य्य	-9306
▁ईश्वरस्य	-9307
▁दत्तवान्	-9308
गोप	-9309
दशा	-9310
पाव	-9311
िने	-9312
ीयो	-9313
▁िन	-9314
▁८९	-9315
क्कु	-9316
धिकः	-9317
मेलन	-9318
श्वः	-9319
ितेः	-9320
▁भिष	-9321
▁सू०	-9322
क्तम्	-9323
ध्यम्	-9324
पृच्छ	-9325
भिर्य	-9326
संहार	-9327
सत्तम	-9328
हेतवे	-9329
ोक्तः	-9330
▁चारु	-9331
▁तदहं	-9332
▁दिवो	-9333
रूपाणि	-9334
▁गुरोः	-9335
▁दिनम्	-9336
▁द्रवि	-9337
▁निदेश	-9338
▁निर्भ	-9339
▁समुद्	-9340
entence	-9341
कर्तव्य	-9342
▁पुनस्त	-9343
▁स्वस्त	-9344
ेऽस्मिन्	-9345
▁अनुवर्त	-9346
▁ताभ्यां	-9347
▁दृष्टिः	-9348
▁प्रकाशः	-9349
▁यदुक्तं	-9350
▁रात्रिं	-9351
▁अनुवर्तते	-9352
▁प्रसिद्धम्	-9353
*}	-9354
_3	-9355
uc	-9356
ind	-9357
गार	-9358
पाट	-9359
राह	-9360
▁औं	-9361
▁रै	-9362
▁७९	-9363
मीति	-9364
र्षभ	-9365
िकया	-9366
िकरण	-9367
ेदार	-9368
▁जयः	-9369
▁मयू	-9370
▁मल्	-9371
दन्ति	-9372
रन्ति	-9373
विधिं	-9374
श्वास	-9375
स्रोत	-9376
ुक्ता	-9377
▁ऊचुः	-9378
▁गुणव	-9379
▁तथाऽ	-9380
▁पृथग	-9381
▁प्रल	-9382
▁सुमह	-9383
कालस्य	-9384
भ्यश्च	-9385
▁अहमपि	-9386
▁शूद्र	-9387
▁समाजे	-9388
कार्यम्	-9389
युज्यते	-9390
▁काव्यं	-9391
▁जीवनम्	-9392
▁पूर्वः	-9393
▁महाराज	-9394
▁विधानं	-9395
▁स्वयां	-9396
▁जीवनस्य	-9397
▁इत्यर्थे	-9398
▁शक्यन्ते	-9399
▁संस्कृतिः	-9400
ss	-9401
ृप	-9402
▁►	-9403
अधि	-9404
मलं	-9405
रान	-9406
ाणः	-9407
ासन	-9408
ुतः	-9409
▁७१	-9410
▁९१	-9411
अस्य	-9412
क्के	-9413
गानि	-9414
तरम्	-9415
▁कया	-9416
▁श्म	-9417
trans	-9418
पक्षः	-9419
विदां	-9420
होत्र	-9421
▁Live	-9422
▁केरल	-9423
▁क्षो	-9424
▁जीवे	-9425
▁टेनि	-9426
▁तन्व	-9427
स्वामि	-9428
ोत्तरं	-9429
▁जम्मू	-9430
▁पक्षी	-9431
▁बृहत्	-9432
▁भगवता	-9433
त्वेऽपि	-9434
▁निर्मा	-9435
▁सर्वान	-9436
▁सुश्रु	-9437
▁हन्यते	-9438
▁कर्मण्य	-9439
▁द्विगुण	-9440
प्रतिषेधः	-9441
▁प्रतिस्प	-9442
_4	-9443
ट्ठ	-9444
न्ट	-9445
लता	-9446
▁De	-9447
▁प॒	-9448
▁८७	-9449
च्वन	-9450
तमम्	-9451
पीति	-9452
सन्न	-9453
ान्द	-9454
▁जहि	-9455
▁तवम	-9456
▁नैष	-9457
▁सोढ	-9458
ज्येत	-9459
दुष्ट	-9460
भाष्य	-9461
मंत्र	-9462
▁Read	-9463
▁गतम्	-9464
▁तसकं	-9465
▁भूते	-9466
▁यातु	-9467
▁वाचि	-9468
▁शिला	-9469
▁सम्म	-9470
▁अधर्म	-9471
▁आन्तर	-9472
▁आविष्	-9473
▁उत्सव	-9474
▁गृह्य	-9475
▁तद्भव	-9476
▁धयागु	-9477
▁यन्ति	-9478
▁विषयं	-9479
▁सौन्द	-9480
▁वाच्यं	-9481
▁सिंहास	-9482
▁लक्ष्मी	-9483
▁लब्ध्वा	-9484
▁शान्तिः	-9485
▁सात्त्व	-9486
▁कस्मान्न	-9487
▁प्रतिगृह	-9488
▁वैश्वदेव	-9489
▁व्याख्यातम्	-9490
AT	-9491
_2	-9492
ld	-9493
{*	-9494
३४	-9495
ics	-9496
धीय	-9497
मयी	-9498
वाई	-9499
सात	-9500
ृतौ	-9501
▁44	-9502
▁vs	-9503
▁९५	-9504
न्नड	-9505
र्ड्	-9506
लोकः	-9507
ोद्ध	-9508
▁PDF	-9509
▁धरा	-9510
▁शूल	-9511
ज्यम्	-9512
लिखित	-9513
▁निजं	-9514
▁पावन	-9515
▁विमु	-9516
▁विमो	-9517
▁हरित	-9518
स्तान्	-9519
▁आदर्श	-9520
▁यज्ञः	-9521
▁रक्तं	-9522
▁स्पृह	-9523
▁स्थितौ	-9524
प्रकारेण	-9525
प्रत्यये	-9526
संयुक्तं	-9527
▁जीवितम्	-9528
▁देवानाम	-9529
▁परिणामः	-9530
▁विष्णोः	-9531
▁उपलभ्यते	-9532
▁प्रतिशतं	-9533
▁भुङ्क्ते	-9534
▁युधिष्ठि	-9535
▁वर्गीकरण	-9536
▁श्रेष्ठः	-9537
▁प्रविष्टः	-9538
▁प्राकृतिक	-9539
▁स्वीकृत्य	-9540
▁भ्रष्टाचार	-9541
"-	-9542
.04	-9543
दीय	-9544
धाम	-9545
वल्	-9546
▁ag	-9547
▁षु	-9548
▁स०	-9549
जनैः	-9550
यत्र	-9551
विधे	-9552
▁आरो	-9553
▁ऋणं	-9554
▁एम्	-9555
▁छेद	-9556
▁लला	-9557
▁वशी	-9558
पृथक्	-9559
मस्तु	-9560
श्रुत	-9561
ारण्य	-9562
▁कौतु	-9563
▁युधि	-9564
▁वानर	-9565
▁होता	-9566
केभ्यः	-9567
निष्ठा	-9568
वस्त्र	-9569
स्तम्भ	-9570
▁आयाति	-9571
▁कष्टं	-9572
▁प्रीत	-9573
▁रामाय	-9574
▁रूपये	-9575
▁वनस्प	-9576
▁करिष्य	-9577
▁नासीत्	-9578
▁नित्या	-9579
▁बालानां	-9580
▁योग्यता	-9581
▁पश्यन्तु	-9582
▁सार्वधातु	-9583
▁इत्यस्मिन्	-9584
ix	-9585
लॊ	-9586
लभा	-9587
साई	-9588
हनं	-9589
ावृ	-9590
▁जं	-9591
कपाल	-9592
क्तो	-9593
न्दे	-9594
न्मे	-9595
मतां	-9596
▁एषु	-9597
▁कोल	-9598
▁जनो	-9599
▁मरा	-9600
▁मुद	-9601
apter	-9602
ङ्क्ष	-9603
प्रया	-9604
ल्लोक	-9605
श्लेष	-9606
▁अस्व	-9607
▁आदाय	-9608
▁एमपी	-9609
▁तवया	-9610
▁तासु	-9611
▁देवे	-9612
▁धारण	-9613
▁ययुः	-9614
▁विभव	-9615
▁वेदे	-9616
त्कर्ष	-9617
द्यापि	-9618
ात्मनः	-9619
▁अभावः	-9620
▁ऋत्वि	-9621
▁गङ्गा	-9622
▁दुःखेन	-9623
▁प्रतिज	-9624
▁बृहस्प	-9625
▁कीर्त्त	-9626
▁चत्वारि	-9627
▁वृष्टिः	-9628
▁समुद्रे	-9629
▁सर्वासु	-9630
▁Sentence	-9631
▁धर्मार्थ	-9632
▁ब्रह्मणः	-9633
▁महत्त्वं	-9634
▁विनियोगः	-9635
▁संस्कृते	-9636
In	-9637
एन	-9638
षय	-9639
७१	-9640
ang	-9641
जैः	-9642
दात	-9643
पाण	-9644
वेत	-9645
संब	-9646
्र्	-9647
कामो	-9648
त्मक	-9649
दानी	-9650
भागी	-9651
माणो	-9652
र्पण	-9653
साधु	-9654
▁दूत	-9655
▁यैः	-9656
▁रोष	-9657
तुल्य	-9658
याश्च	-9659
र्च्य	-9660
विकार	-9661
▁आभास	-9662
▁जनैः	-9663
▁तुमु	-9664
▁ममैव	-9665
▁मर्द	-9666
धिकारे	-9667
निबन्ध	-9668
स्मृति	-9669
स्यामः	-9670
▁आगामि	-9671
▁देवीं	-9672
▁लिखित	-9673
▁शृङ्ग	-9674
▁स्वां	-9675
▁हास्य	-9676
द्वारेण	-9677
ाम्यहम्	-9678
▁कृतानि	-9679
▁पोर्नो	-9680
▁रक्षणं	-9681
▁राज्या	-9682
▁स्थानः	-9683
माध्यमेन	-9684
▁मार्गेण	-9685
▁द्वन्द्व	-9686
▁श्राद्धं	-9687
3)	-9688
ॆन	-9689
दनु	-9690
ितॊ	-9691
॒यं	-9692
▁ए॒	-9693
▁ऐं	-9694
load	-9695
सात्	-9696
स्तप	-9697
्येव	-9698
▁मूष	-9699
कायाः	-9700
शब्दं	-9701
िंशति	-9702
▁कर्क	-9703
▁जगतो	-9704
▁प्र॒	-9705
▁भवसि	-9706
▁महार	-9707
▁महेश	-9708
▁योगं	-9709
द्वादश	-9710
प्रसार	-9711
स्तद्व	-9712
स्थापन	-9713
▁करोड़	-9714
▁केवलः	-9715
▁गात्र	-9716
▁भद्रं	-9717
▁वर्णः	-9718
▁संभवः	-9719
▁संहित	-9720
▁उच्चैः	-9721
▁उत्तमं	-9722
▁गुह्यं	-9723
▁दुर्बल	-9724
▁प्राणो	-9725
▁संदेहः	-9726
त्पत्तिः	-9727
▁द्रव्या	-9728
▁प्रासाद	-9729
▁सिद्धिः	-9730
▁कर्मचारी	-9731
▁कार्यस्य	-9732
▁नवदिल्ली	-9733
▁व्यवहारः	-9734
▁संस्करणः	-9735
▁छात्राणां	-9736
▁विकिसूक्तिः	-9737
तरण	-9738
रुं	-9739
शंस	-9740
ोदय	-9741
टिका	-9742
ट्रो	-9743
तरां	-9744
दारु	-9745
विदा	-9746
शरीर	-9747
▁पाह	-9748
▁सित	-9749
ध्वम्	-9750
मीश्व	-9751
ादेशो	-9752
▁----	-9753
▁चेद्	-9754
▁जयति	-9755
▁मन्म	-9756
▁सुसं	-9757
धिकारी	-9758
भावस्य	-9759
▁जन्तु	-9760
▁शिशुः	-9761
▁अनुमान	-9762
▁चित्रे	-9763
▁जिह्वा	-9764
▁तादृशः	-9765
▁तुल्यं	-9766
▁मैत्री	-9767
▁सांख्य	-9768
▁अगच्छत्	-9769
▁भवद्भिः	-9770
▁वक्तव्य	-9771
▁शुभाशुभ	-9772
▁आवश्यकम्	-9773
▁संबध्यते	-9774
▁सर्वोच्च	-9775
▁स्वायत्त	-9776
▁परिवर्तते	-9777
pp	-9778
चत	-9779
यज	-9780
ूः	-9781
ृं	-9782
ews	-9783
केण	-9784
गणे	-9785
तुल	-9786
सरो	-9787
ापः	-9788
▁९७	-9789
अमेर	-9790
ङिति	-9791
प्यु	-9792
मारु	-9793
र्तु	-9794
र्थम	-9795
र्हं	-9796
ष्ठु	-9797
संनि	-9798
स्तम	-9799
▁नञ्	-9800
▁निध	-9801
▁शशि	-9802
▁शहर	-9803
▁संल	-9804
डियाः	-9805
त्स्व	-9806
प्रदं	-9807
वृत्य	-9808
▁उड्ड	-9809
▁कथाः	-9810
▁परतो	-9811
▁पुरे	-9812
▁२००८	-9813
मानन्द	-9814
र्घ्यं	-9815
▁आकाशे	-9816
▁उपर्य	-9817
▁चेतना	-9818
▁तुलसी	-9819
▁बहुशः	-9820
▁भिक्ष	-9821
▁शासनं	-9822
पर्यन्त	-9823
▁अहिंसा	-9824
▁आत्मने	-9825
▁कल्पते	-9826
▁ख्यातः	-9827
▁पूर्णे	-9828
▁महादेव	-9829
▁सिद्धः	-9830
▁चतुर्थं	-9831
▁ज्योतिष	-9832
▁प्रभृति	-9833
▁द्वेष्टि	-9834
▁अप्रत्यक्ष	-9835
22	-9836
तल	-9837
ळ्	-9838
कनं	-9839
दये	-9840
हाः	-9841
▁(←	-9842
▁45	-9843
केतः	-9844
ग्धे	-9845
ग्रं	-9846
णीया	-9847
योगो	-9848
वतीं	-9849
▁कुप	-9850
▁नतु	-9851
▁पुट	-9852
▁रतः	-9853
▁सुम	-9854
गृह्ण	-9855
यमिति	-9856
श्लोक	-9857
ार्थे	-9858
▁अर्च	-9859
▁आभार	-9860
▁गरीय	-9861
▁ज्वर	-9862
▁पाति	-9863
▁पादप	-9864
▁मत्स	-9865
▁व्यथ	-9866
कर्मणः	-9867
▁एवायं	-9868
▁कुशलं	-9869
▁कृत्व	-9870
▁तेष्व	-9871
▁दूरतः	-9872
▁फिल्म	-9873
▁मरुतः	-9874
▁ल्याः	-9875
▁संदेश	-9876
▁सुखेन	-9877
▁सोऽयं	-9878
तिष्ठति	-9879
▁धर्म्म	-9880
▁भारतम्	-9881
▁विहितः	-9882
▁अपेक्षा	-9883
▁प्रेक्ष	-9884
▁शब्दार्थ	-9885
▁स्थानानि	-9886
▁व्याख्यातः	-9887
▁संस्कृतस्य	-9888
▁सांस्कृतिक	-9889
ढा	-9890
भूम	-9891
यिं	-9892
सरण	-9893
▁Se	-9894
krit	-9895
ृज्य	-9896
ेष्य	-9897
▁इस्	-9898
▁कैः	-9899
▁खेद	-9900
▁तुं	-9901
ग्रन्	-9902
ग्रहो	-9903
त्मनः	-9904
थ्द्य	-9905
रोधेन	-9906
शून्य	-9907
ास्ते	-9908
▁अग्न	-9909
▁कोपि	-9910
▁द्रा	-9911
▁ब्रा	-9912
▁शिवं	-9913
▁स्तन	-9914
कल्पना	-9915
▁कर्मण	-9916
▁किंतु	-9917
▁खादति	-9918
▁तद्वा	-9919
▁दुर्म	-9920
▁द्विष	-9921
▁परमां	-9922
▁परिगण	-9923
▁मध्यं	-9924
▁व्योम	-9925
▁समानं	-9926
कर्माणि	-9927
▁ज्ञेयः	-9928
▁पूर्वव	-9929
▁प्रसीद	-9930
▁महोदयः	-9931
▁लोकस्य	-9932
▁विविधा	-9933
▁हितकाम	-9934
कार्याणि	-9935
प्रत्ययो	-9936
▁भिद्यते	-9937
▁मुक्तिः	-9938
पर्यन्तम्	-9939
▁क्रियतां	-9940
▁ज्ञानस्य	-9941
▁निमित्तं	-9942
▁विकल्पेन	-9943
▁सार्द्धं	-9944
▁सर्वेभ्यः	-9945
▁कर्त्तव्यं	-9946
ञः	-9947
॑व	-9948
ill	-9949
तूह	-9950
िन्	-9951
▁==	-9952
▁७२	-9953
▁८८	-9954
गत्य	-9955
च्छं	-9956
र्णं	-9957
स्तौ	-9958
ानेक	-9959
ाश्र	-9960
▁and	-9961
▁उदा	-9962
▁घण्	-9963
▁रथः	-9964
▁लिं	-9965
कालीन	-9966
द्यपि	-9967
शिष्य	-9968
ान्वय	-9969
ारभ्य	-9970
▁कथित	-9971
▁मन्व	-9972
▁यथाव	-9973
▁यामि	-9974
▁लङ्क	-9975
▁शयनं	-9976
▁श्रौ	-9977
▁समयं	-9978
क्रीडा	-9979
प्राणि	-9980
श्रुति	-9981
स्थितो	-9982
ान्द्र	-9983
▁कथिता	-9984
▁गर्ने	-9985
▁तेऽपि	-9986
▁पिबति	-9987
▁भर्ता	-9988
▁भूतले	-9989
▁व्यती	-9990
▁साधुः	-9991
त्वमिति	-9992
मिच्छति	-9993
विशेषेण	-9994
▁देव्या	-9995
▁निष्ठा	-9996
▁वायुना	-9997
न्द्रियः	-9998
▁अधिकारि	-9999
▁तदुक्तं	-10000
▁अन्तर्रा	-10001
▁तिष्ठन्ति	-10002
▁निश्चित्य	-10003
▁साम्प्रतं	-10004
५४	-10005
ile	-10006
कौश	-10007
रसं	-10008
लाद	-10009
विल	-10010
ुना	-10011
▁अण	-10012
क्यः	-10013
देशी	-10014
नेगु	-10015
पतिं	-10016
र्दि	-10017
िताय	-10018
▁पां	-10019
▁मदि	-10020
▁रघु	-10021
▁सु॒	-10022
कान्त	-10023
कृतिं	-10024
न्वयः	-10025
पत्रे	-10026
समर्थ	-10027
ुक्तो	-10028
▁आस्त	-10029
▁करना	-10030
▁तरुण	-10031
▁भावि	-10032
पुत्रं	-10033
समाचार	-10034
▁पूजये	-10035
▁शुचिः	-10036
▁अन्त्य	-10037
▁कालस्य	-10038
▁नपुंसक	-10039
▁विंशति	-10040
▁सिद्धे	-10041
ापेक्षया	-10042
▁प्रयोगे	-10043
▁प्रादेश	-10044
▁विचारणा	-10045
▁सर्वमेव	-10046
▁त्रयाणां	-10047
▁प्रतिभास	-10048
▁प्रविवेश	-10049
▁बुद्ध्या	-10050
▁मिलित्वा	-10051
▁पाकिस्तान	-10052
▁विशिष्यते	-10053
55	-10054
घन	-10055
▁ू	-10056
झाव	-10057
ापर	-10058
ीनि	-10059
▁**	-10060
▁39	-10061
▁UP	-10062
▁व्	-10063
कक्ष	-10064
कोशः	-10065
गताः	-10066
मुखो	-10067
▁घोर	-10068
▁बजे	-10069
▁रात	-10070
न्नाम	-10071
र्यम्	-10072
ष्टिः	-10073
ास्या	-10074
ित्रे	-10075
ैर्यं	-10076
▁अर्ज	-10077
▁कलाः	-10078
▁जुगु	-10079
▁तैलं	-10080
▁थ्यं	-10081
▁देय्	-10082
▁निपु	-10083
▁न्हू	-10084
▁महति	-10085
▁यावद	-10086
▁येषु	-10087
▁शुक्	-10088
न्तरम्	-10089
मुक्तः	-10090
▁(--/)	-10091
▁तथेति	-10092
▁दिनां	-10093
▁राजनै	-10094
ध्यक्षः	-10095
▁चतुर्थः	-10096
▁महात्मा	-10097
▁विद्युत	-10098
▁उपपद्यते	-10099
▁युष्मान्	-10100
▁महाविद्या	-10101
ंड	-10102
खन	-10103
ठः	-10104
वौ	-10105
५३	-10106
७०	-10107
मृश	-10108
वीर	-10109
सरा	-10110
सोऽ	-10111
▁my	-10112
itle	-10113
धेयं	-10114
र्गे	-10115
वाक्	-10116
ूयते	-10117
ोच्च	-10118
▁जनि	-10119
च्युत	-10120
त्तरा	-10121
धातोः	-10122
यित्व	-10123
र्थकं	-10124
सीदति	-10125
हिताः	-10126
ाग्रे	-10127
ास्तु	-10128
ुक्ति	-10129
ृत्वा	-10130
▁इकाई	-10131
▁कपाल	-10132
▁घोरं	-10133
▁वाचो	-10134
▁शुष्	-10135
▁सवित	-10136
▁स्वत	-10137
न्त्री	-10138
वृत्ते	-10139
▁कथमपि	-10140
▁चतुष्	-10141
▁चिह्न	-10142
▁जेतुं	-10143
▁भवामि	-10144
▁वदेत्	-10145
ज्ञानेन	-10146
त्यर्थं	-10147
▁करणीयः	-10148
▁सूर्यं	-10149
▁ग्राह्य	-10150
▁विराजते	-10151
▁वृक्षस्य	-10152
▁वेबसाइटः	-10153
▁प्रशस्यते	-10154
1)	-10155
मश	-10156
वध	-10157
शम्	-10158
हरि	-10159
▁अट	-10160
किया	-10161
ध्यत	-10162
पतेः	-10163
प्रो	-10164
र्मह	-10165
लोका	-10166
समीप	-10167
ऽनेन	-10168
ासनं	-10169
िकेन	-10170
▁Com	-10171
▁एतत	-10172
▁मैं	-10173
▁वना	-10174
▁शां	-10175
▁हता	-10176
▁ऽनु	-10177
त्सवः	-10178
दत्तः	-10179
देशीय	-10180
द्यथा	-10181
न्तुं	-10182
न्ध्र	-10183
र्यते	-10184
▁अपरे	-10185
▁तद्र	-10186
▁भेदा	-10187
▁महाप	-10188
▁मुहु	-10189
▁मेने	-10190
▁लग्न	-10191
▁सुवि	-10192
▁स्थग	-10193
द्वारं	-10194
पुत्रो	-10195
▁अङ्गी	-10196
▁गर्भव	-10197
▁मामेव	-10198
▁स्वीय	-10199
संस्करण	-10200
ानार्थं	-10201
▁अपर्या	-10202
▁आन्दोल	-10203
▁कदाचिद	-10204
▁पृष्टः	-10205
▁मूर्खः	-10206
▁स्वागत	-10207
▁Chapter	-10208
▁पश्यामः	-10209
▁वेदान्त	-10210
▁सर्वकार	-10211
▁कार्यालय	-10212
▁निरन्तरं	-10213
▁प्रवृद्ध	-10214
▁सर्वेऽपि	-10215
▁आगच्छन्ति	-10216
६१	-10217
६९	-10218
नीत	-10219
बृह	-10220
यसे	-10221
▁खर	-10222
▁९९	-10223
कश्च	-10224
टीसी	-10225
ण्डि	-10226
यानं	-10227
श्या	-10228
▁जगद	-10229
▁जिन	-10230
▁सञ्	-10231
त्तमं	-10232
स्म्य	-10233
▁केषु	-10234
▁चिह्	-10235
▁पशुः	-10236
▁भूतं	-10237
▁विषं	-10238
▁श्या	-10239
▁सोमं	-10240
मेवेति	-10241
▁कामये	-10242
▁त्रुट	-10243
▁धन्यं	-10244
▁निधाय	-10245
▁राष्ट	-10246
▁रुचिः	-10247
▁तेभ्यो	-10248
▁दृष्टो	-10249
▁देवेषु	-10250
▁पुत्रे	-10251
▁शरीरम्	-10252
▁अनुवादः	-10253
▁सर्व्वा	-10254
▁सूचितम्	-10255
▁अस्मभ्यं	-10256
▁एतस्मात्	-10257
▁कृतकृत्य	-10258
च्छ्रुत्वा	-10259
▁सर्वेषाम्	-10260
▁सम्पाद्यताम्	-10261
40	-10262
ॉप	-10263
ड्व	-10264
राण	-10265
▁(*	-10266
▁गू	-10267
धाने	-10268
नश्च	-10269
न्हु	-10270
वाची	-10271
विभव	-10272
ऽस्य	-10273
्राज	-10274
▁pdf	-10275
▁अनव	-10276
▁कुर	-10277
▁तल्	-10278
▁धनि	-10279
▁वीत	-10280
दानेन	-10281
वर्णं	-10282
समीपे	-10283
सुन्द	-10284
स्पृह	-10285
▁उज्ज	-10286
▁तथ्य	-10287
▁पठित	-10288
▁यहां	-10289
▁शम्भ	-10290
▁शल्य	-10291
▁शारी	-10292
▁सव्य	-10293
▁सुरु	-10294
नाम्ना	-10295
योगात्	-10296
▁दत्ता	-10297
▁व्यास	-10298
▁सुकृत	-10299
यिष्यते	-10300
▁किंचिद	-10301
▁विश्वः	-10302
▁वृष्टि	-10303
▁व्यापक	-10304
▁पूर्ब्ब	-10305
▁यद्यप्य	-10306
▁प्रकाशित	-10307
▁प्रत्यया	-10308
▁प्रसन्ना	-10309
▁वर्तमाने	-10310
▁विश्वासः	-10311
स्ट्रेलिया	-10312
▁महाराष्ट्र	-10313
▁स्त्रीलिङ्ग	-10314
.।	-10315
60	-10316
::	-10317
eb	-10318
ईं	-10319
तय	-10320
पथं	-10321
पन्	-10322
माध	-10323
▁इट	-10324
▁चत	-10325
▁धो	-10326
▁षट	-10327
जेत्	-10328
द्रव	-10329
लेखा	-10330
श्रो	-10331
स्तर	-10332
ोचत्	-10333
▁अया	-10334
▁कित	-10335
▁घञ्	-10336
▁नोऽ	-10337
▁लोह	-10338
▁सौम	-10339
▁हतं	-10340
दिशति	-10341
र्गृह	-10342
सैन्य	-10343
्याणि	-10344
्रियः	-10345
▁नयति	-10346
▁नापं	-10347
▁भावं	-10348
▁समनु	-10349
▁सुतं	-10350
कर्मणा	-10351
ेष्यति	-10352
▁आकर्ष	-10353
▁तदिदं	-10354
▁त्रिक	-10355
▁दीप्त	-10356
▁परिषद	-10357
▁बिम्ब	-10358
देवानां	-10359
▁उपयोगं	-10360
▁दुःखम्	-10361
▁पुरातन	-10362
▁प्रययौ	-10363
▁वाक्यम्	-10364
▁शान्तिं	-10365
▁निर्मिता	-10366
▁प्रकरणम्	-10367
▁समासाद्य	-10368
▁अन्तर्जाल	-10369
▁प्रतिनिधि	-10370
▁प्रसिद्धं	-10371
▁स्वाभाविक	-10372
translation	-10373
-8	-10374
ढं	-10375
ळे	-10376
्ण	-10377
उगु	-10378
चरः	-10379
तान	-10380
बहि	-10381
रेः	-10382
वनं	-10383
ायन	-10384
▁इष	-10385
▁ऑन	-10386
▁यह	-10387
दृक्	-10388
रितः	-10389
र्गो	-10390
र्वै	-10391
लिका	-10392
लिनी	-10393
व्यम	-10394
हरुः	-10395
ामेव	-10396
्वम्	-10397
▁काक	-10398
▁तास	-10399
▁नयन	-10400
▁पु॰	-10401
▁हनू	-10402
न्तरि	-10403
स्तद्	-10404
हेतोः	-10405
▁अम्ब	-10406
▁ऋषिः	-10407
▁गर्ज	-10408
▁गीतं	-10409
▁गुणे	-10410
▁गुरू	-10411
▁जगद्	-10412
▁दुने	-10413
▁भवते	-10414
▁भुवः	-10415
▁लङ्घ	-10416
▁वरम्	-10417
▁हजार	-10418
चार्यः	-10419
त्त्वे	-10420
स्रोतः	-10421
▁अधिकः	-10422
▁कृताः	-10423
▁बाल्य	-10424
▁लज्जा	-10425
▁संख्य	-10426
▁सद्यो	-10427
तन्त्रे	-10428
▁एशियाई	-10429
▁कृतवान	-10430
▁दीक्षा	-10431
▁दृष्टे	-10432
▁ध्याना	-10433
▁परोक्ष	-10434
▁पीत्वा	-10435
▁मार्गं	-10436
▁त्रिगुण	-10437
▁मन्त्रं	-10438
▁मुस्लिम	-10439
▁शाश्वतं	-10440
▁अध्यक्षः	-10441
▁क्षिप्रं	-10442
▁द्वितीयो	-10443
▁कथयिष्यामि	-10444
,-	-10445
ms	-10446
कश	-10447
६२	-10448
one	-10449
धरा	-10450
नोद	-10451
न्ह	-10452
हरा	-10453
थ्या	-10454
मतम्	-10455
▁199	-10456
▁आवा	-10457
▁आहु	-10458
▁जगत	-10459
▁पाण	-10460
▁मता	-10461
▁मरी	-10462
▁मेल	-10463
▁यम्	-10464
▁लिए	-10465
▁शिक	-10466
खण्डे	-10467
ण्यां	-10468
िनाम्	-10469
्यर्थ	-10470
्याद्	-10471
▁अकार	-10472
▁अपां	-10473
▁गुणो	-10474
▁धाये	-10475
▁परेण	-10476
▁पानी	-10477
▁महतः	-10478
▁वाणी	-10479
▁सेट्	-10480
द्धर्म	-10481
मात्रा	-10482
ेश्वरं	-10483
्यायां	-10484
▁पितरः	-10485
▁यूयम्	-10486
▁वैराग	-10487
भ्यन्तर	-10488
▁अत्रैव	-10489
▁अन्यतर	-10490
▁कृतवती	-10491
▁क्रोधः	-10492
▁दाक्षि	-10493
▁नितरां	-10494
▁मण्डले	-10495
▁मुम्बई	-10496
▁यत्किं	-10497
▁शून्यं	-10498
▁उपयोक्त	-10499
▁ज्ञेयम्	-10500
▁नारीणां	-10501
▁ब्रवीमि	-10502
▁राज्ञां	-10503
▁शिक्षकः	-10504
▁सर्व्वं	-10505
▁वाक्यानि	-10506
▁जनसङ्ख्या	-10507
▁परिसन्धयः	-10508
▁पुरस्कारः	-10509
▁प्रयुक्तः	-10510
॒न	-10511
॒र	-10512
४३	-10513
ect	-10514
ध्द	-10515
बाद	-10516
हृत	-10517
ेतः	-10518
गीता	-10519
त्थं	-10520
पाणि	-10521
मिता	-10522
युते	-10523
र्वे	-10524
लयाः	-10525
वारि	-10526
▁You	-10527
▁दे॒	-10528
▁सतः	-10529
कारकः	-10530
त्परः	-10531
धीनां	-10532
नक्ति	-10533
र्षयः	-10534
श्रेय	-10535
ानिर्	-10536
▁अधिव	-10537
▁कुसु	-10538
▁चन्द	-10539
▁जगदी	-10540
▁जिते	-10541
▁तोयं	-10542
▁नराः	-10543
▁भरतः	-10544
▁महीप	-10545
क्ष्ये	-10546
त्तत्र	-10547
प्रकृत	-10548
र्भुवः	-10549
ाद्याः	-10550
ारम्भः	-10551
▁इदमेव	-10552
▁इहापि	-10553
▁धात्व	-10554
▁यूरोप	-10555
▁वक्ता	-10556
▁श्लाघ	-10557
प्रबन्ध	-10558
▁महोत्स	-10559
▁राज्ञो	-10560
▁विवाहः	-10561
▁संयोगः	-10562
▁बाध्यते	-10563
▁व्यक्तं	-10564
यिष्यन्ति	-10565
▁मनोरञ्जन	-10566
▁राजनीतिक	-10567
▁सर्वार्थ	-10568
▁सर्वासां	-10569
▁संवेदनशील	-10570
६८	-10571
तरो	-10572
तेज	-10573
बले	-10574
भुः	-10575
ल्स	-10576
शते	-10577
समे	-10578
सर्	-10579
हणं	-10580
▁09	-10581
▁at	-10582
▁जञ	-10583
▁टा	-10584
धिना	-10585
शुभं	-10586
हारि	-10587
▁(10	-10588
▁All	-10589
▁त्त	-10590
▁धीर	-10591
▁याप	-10592
▁सुन	-10593
पाखें	-10594
विप्र	-10595
ष्वपि	-10596
हार्य	-10597
▁अभयं	-10598
▁नैवं	-10599
▁पितर	-10600
▁बुभु	-10601
▁यतोऽ	-10602
▁यहाँ	-10603
▁शश्व	-10604
दाहरणं	-10605
लक्ष्य	-10606
वाक्ये	-10607
स्थस्य	-10608
▁करोषि	-10609
▁कुरुष	-10610
▁नितिं	-10611
▁व्यवस	-10612
▁समीपं	-10613
▁सेवां	-10614
नार्थम्	-10615
▁आत्मनि	-10616
▁कनिष्ठ	-10617
▁क्षणेन	-10618
▁ग्रहाः	-10619
▁ज्ञातं	-10620
▁ब्रिटि	-10621
▁मुख्यं	-10622
▁लभन्ते	-10623
▁स्कन्द	-10624
▁पुत्रेण	-10625
▁भवतीत्य	-10626
▁विश्वास	-10627
▁सम्मेलन	-10628
▁अहोरात्र	-10629
▁व्याप्ति	-10630
▁सर्वमिदं	-10631
▁निपात्यते	-10632
▁नेपालभाषा	-10633
▁मध्याह्ने	-10634
▁मन्त्रिपरिष	-10635
▁राष्ट्रपतिः	-10636
▁प्रतिषिध्यते	-10637
AR	-10638
ya	-10639
खी	-10640
दह	-10641
७७	-10642
--'	-10643
ink	-10644
अहो	-10645
शये	-10646
▁शव	-10647
देवो	-10648
प्सु	-10649
मुनि	-10650
र्ने	-10651
ोऽसौ	-10652
▁10.	-10653
▁गमन	-10654
▁द्य	-10655
▁यस्	-10656
कुण्ठ	-10657
तेषां	-10658
त्युप	-10659
र्भाव	-10660
लोचना	-10661
ल्यां	-10662
विध्य	-10663
▁2013	-10664
▁अप्य	-10665
▁कयाः	-10666
▁काये	-10667
▁पद्य	-10668
▁पन्थ	-10669
▁पशुप	-10670
▁राहु	-10671
▁शेते	-10672
विधिना	-10673
शिष्टं	-10674
स्फीति	-10675
ानुवाद	-10676
▁कारणा	-10677
▁जनयति	-10678
▁ददातु	-10679
▁पूजनं	-10680
▁पृथ्व	-10681
▁प्रजन	-10682
▁संस्म	-10683
▁भाषाया	-10684
▁उत्पन्न	-10685
▁प्रवेशः	-10686
▁भवत्याः	-10687
▁मित्राव	-10688
▁सत्त्वं	-10689
सम्भाषणम्	-10690
▁कल्प्यते	-10691
▁प्रयत्नं	-10692
▁प्राणान्	-10693
▁द्रष्टुम्	-10694
▁संप्राप्त	-10695
70	-10696
एफ	-10697
ठे	-10698
९०	-10699
९१	-10700
बार	-10701
ऽयं	-10702
▁1)	-10703
▁2)	-10704
▁वइ	-10705
▁०४	-10706
▁६३	-10707
कतया	-10708
गुणे	-10709
न्मह	-10710
▁अरु	-10711
▁केत	-10712
▁दरॊ	-10713
▁धूप	-10714
चर्या	-10715
त्ततः	-10716
निरोध	-10717
पयेत्	-10718
मीयते	-10719
विशार	-10720
ानीति	-10721
ास्ति	-10722
ित्यत	-10723
ोऽस्य	-10724
▁कामि	-10725
▁जगती	-10726
▁जुहु	-10727
▁दूरा	-10728
▁यथाह	-10729
▁वचना	-10730
▁वाचः	-10731
▁हताः	-10732
पश्चिम	-10733
विरोधः	-10734
विशेषे	-10735
▁दीक्ष	-10736
▁नियतं	-10737
▁पुंसः	-10738
▁यज्ञो	-10739
▁विकृत	-10740
▁विन्य	-10741
▁सोऽहं	-10742
anskrit	-10743
माहात्म	-10744
र्दृष्ट	-10745
विंशतिः	-10746
▁अचिन्त	-10747
▁जातवेद	-10748
▁पर्यटन	-10749
▁प्रशंस	-10750
▁प्राङ्	-10751
▁रक्षां	-10752
▁विपक्ष	-10753
▁शुभकाम	-10754
▁समुद्ध	-10755
▁आवृत्ति	-10756
▁गुणानां	-10757
▁दुर्लभः	-10758
▁निष्कास	-10759
▁पत्रकार	-10760
▁पत्रिका	-10761
▁प्रशासन	-10762
▁लिप्यते	-10763
▁करिष्यते	-10764
▁तत्पुरुष	-10765
▁संप्रसार	-10766
▁प्रत्ययस्य	-10767
अत	-10768
फी	-10769
शर	-10770
अतः	-10771
बुध	-10772
म्स	-10773
रते	-10774
लना	-10775
ासे	-10776
ैरु	-10777
▁80	-10778
▁डॉ	-10779
▁फै	-10780
▁बद	-10781
▁लग	-10782
कालो	-10783
गमने	-10784
न्नु	-10785
▁For	-10786
▁एन्	-10787
▁पुल	-10788
▁सहज	-10789
त्याग	-10790
भ्यम्	-10791
मानुष	-10792
वेष्ट	-10793
ाद्वी	-10794
▁एकोन	-10795
▁तस्व	-10796
▁ध्रु	-10797
▁रमते	-10798
▁रामो	-10799
▁सेतु	-10800
▁२०१३	-10801
नमस्ति	-10802
प्रिया	-10803
यिष्ये	-10804
ितार्थ	-10805
▁दर्शय	-10806
▁धावति	-10807
▁शतानि	-10808
ownload	-10809
धर्मस्य	-10810
▁ःथ्द्य	-10811
▁उच्चतम	-10812
▁उत्सवः	-10813
▁धृत्वा	-10814
▁परेषां	-10815
▁पर्वते	-10816
▁मध्यमा	-10817
▁विवरणं	-10818
▁विष्णो	-10819
▁समन्वय	-10820
▁अतिशयेन	-10821
▁चिकीर्ष	-10822
▁युद्धाय	-10823
▁व्याप्य	-10824
▁समाप्ता	-10825
▁निश्चितं	-10826
▁सर्वज्ञः	-10827
4)	-10828
ax	-10829
गाह	-10830
भवन	-10831
मनः	-10832
ेने	-10833
▁अझ	-10834
गान्	-10835
दाति	-10836
दूरे	-10837
▁अमी	-10838
▁आगत	-10839
▁आनु	-10840
▁चलन	-10841
▁जये	-10842
▁दुख	-10843
▁मयो	-10844
▁विस	-10845
▁शील	-10846
▁शूर	-10847
▁सखी	-10848
दिनम्	-10849
पातेन	-10850
भिमान	-10851
▁उभयं	-10852
▁कहीं	-10853
▁गमनं	-10854
▁गिरा	-10855
▁घृतं	-10856
▁विभि	-10857
प्रकरण	-10858
स्माभि	-10859
▁अनन्य	-10860
▁कारणे	-10861
▁गोत्र	-10862
▁टेनिस	-10863
▁दण्डं	-10864
▁निधनं	-10865
▁ययययय	-10866
▁विजयः	-10867
▁विभाज	-10868
▁साहित	-10869
पक्षस्य	-10870
युक्ताः	-10871
▁कामान्	-10872
▁ध्वनिः	-10873
▁मुद्रण	-10874
▁हिन्दू	-10875
▁नान्यथा	-10876
▁भ्रान्त	-10877
▁कदाचिदपि	-10878
▁निरीक्षण	-10879
▁भारतीयाः	-10880
▁विदित्वा	-10881
प्रत्ययस्य	-10882
▁सार्वजनिक	-10883
▁प्रकल्पयेत्	-10884
▁स्वतन्त्रता	-10885
BC	-10886
ps	-10887
घे	-10888
डल	-10889
८१	-10890
▁᳚	-10891
ove	-10892
आदि	-10893
नयन	-10894
युत	-10895
वतो	-10896
हता	-10897
ोद्	-10898
▁48	-10899
▁9.	-10900
▁ल्	-10901
▁०९	-10902
गणाः	-10903
ग्ना	-10904
ज्जु	-10905
देहि	-10906
मितः	-10907
श्यप	-10908
▁कमा	-10909
▁तस्	-10910
कर्मण	-10911
विधाय	-10912
शुल्क	-10913
▁निधि	-10914
दिष्टः	-10915
ध्यात्	-10916
मार्गं	-10917
र्ध्वं	-10918
▁अशक्त	-10919
▁पर्यट	-10920
▁मुनयः	-10921
▁मैत्र	-10922
▁वेगेन	-10923
▁सुदृढ	-10924
न्त्येव	-10925
स्तस्या	-10926
▁कीदृशी	-10927
▁कुमारी	-10928
▁चित्वा	-10929
▁त्रिंश	-10930
▁परिक्र	-10931
▁प्रियत	-10932
▁विशेषो	-10933
▁स्पेनि	-10934
▁अन्तर्ग	-10935
▁ग्रामीण	-10936
▁प्रागेव	-10937
▁स्वधर्म	-10938
▁उद्देश्य	-10939
▁नौकरियां	-10940
▁विविधानि	-10941
ET	-10942
ack	-10943
ड़ी	-10944
थां	-10945
थ्य	-10946
फलः	-10947
ार्	-10948
▁pr	-10949
▁म०	-10950
ध्यः	-10951
विदो	-10952
हारी	-10953
▁ago	-10954
▁कुं	-10955
▁जनक	-10956
दिवसः	-10957
मवाप्	-10958
रहितः	-10959
स्तरे	-10960
▁कमपि	-10961
▁गिरः	-10962
▁धिक्	-10963
▁पादः	-10964
▁बाला	-10965
▁भेदो	-10966
▁याता	-10967
▁वःगु	-10968
▁वाले	-10969
त्रिंश	-10970
प्रियं	-10971
ामध्ये	-10972
▁अगच्छ	-10973
▁अपवाद	-10974
▁निषेव	-10975
▁प्रीण	-10976
▁प्रोच	-10977
▁यज्ञा	-10978
▁वितरण	-10979
▁स्तोत	-10980
▁स्वरः	-10981
कारणात्	-10982
तोऽस्मि	-10983
त्तिष्ठ	-10984
▁निबन्ध	-10985
▁न्यासः	-10986
▁पापानि	-10987
▁यत्त्व	-10988
▁वसन्ति	-10989
▁सम्मेल	-10990
न्द्रियं	-10991
▁अमेरिकी	-10992
▁उदाहरणः	-10993
▁प्रयोगो	-10994
▁मन्दिरं	-10995
▁महाबाहो	-10996
▁यज्ञस्य	-10997
▁रिपोर्ट	-10998
▁वन्यजीव	-10999
स्मिन्नेव	-11000
▁संग्रामे	-11001
▁सामान्येन	-11002
27	-11003
6)	-11004
yn	-11005
ऊं	-11006
तू	-11007
चोद	-11008
तले	-11009
ामं	-11010
िरे	-11011
▁एं	-11012
▁ज़	-11013
▁तल	-11014
कूलं	-11015
क्सी	-11016
तीरे	-11017
लाया	-11018
समास	-11019
▁आहो	-11020
▁निब	-11021
कन्या	-11022
त्मकं	-11023
नन्तर	-11024
नायाः	-11025
ीयात्	-11026
▁अपरः	-11027
▁किशो	-11028
▁टैगः	-11029
▁दिशं	-11030
▁दृढं	-11031
▁द्यः	-11032
▁धन्व	-11033
▁ध्वं	-11034
▁नहिं	-11035
▁पत्त	-11036
▁मज्ज	-11037
▁सहित	-11038
ञ्जलिः	-11039
प्रभृत	-11040
▁years	-11041
▁एतान्	-11042
▁एवमपि	-11043
▁तद्धि	-11044
▁तस्यै	-11045
▁दिनेश	-11046
▁धत्ते	-11047
▁प्रको	-11048
▁भवन्त	-11049
▁मनीषि	-11050
▁यथातथ	-11051
कीर्त्त	-11052
सञ्ज्ञा	-11053
▁एकाग्र	-11054
▁तत्तत्	-11055
▁परिचयः	-11056
▁पर्वतः	-11057
▁प्रारं	-11058
▁वर्णनं	-11059
▁सन्देह	-11060
▁सिद्धा	-11061
त्प्रसाद	-11062
▁अव्ययम्	-11063
▁आवश्यकः	-11064
▁एकवचनम्	-11065
▁प्राणाः	-11066
▁गन्तव्यं	-11067
▁द्विविधं	-11068
▁नेवाःतय्	-11069
▁प्रकृष्ट	-11070
▁उत्पद्यते	-11071
▁त्रैलोक्य	-11072
▁पुनर्जन्म	-11073
▁पृष्ठभूमि	-11074
▁प्रसिद्धा	-11075
▁विद्यालयः	-11076
▁स्वेच्छया	-11077
▁करिष्यन्ति	-11078
▁कार्यक्रमः	-11079
▁विश्वामित्र	-11080
लू	-11081
गणः	-11082
लोभ	-11083
वेण	-11084
हान	-11085
▁sa	-11086
▁उ॒	-11087
▁७३	-11088
▁९८	-11089
ङ्गि	-11090
चारं	-11091
लोपे	-11092
वासः	-11093
विधो	-11094
▁धमा	-11095
▁पास	-11096
▁मिन	-11097
अग्ने	-11098
दानम्	-11099
फलानि	-11100
सदस्य	-11101
ाद्वा	-11102
ामीति	-11103
ीकरणं	-11104
▁Vide	-11105
▁sent	-11106
▁आरोह	-11107
▁ऋषयः	-11108
▁क्रू	-11109
▁घटते	-11110
▁दस्य	-11111
▁दूषण	-11112
▁पण्य	-11113
▁भावो	-11114
▁मोदी	-11115
▁याहि	-11116
▁हव्य	-11117
ज्ञानि	-11118
▁अन्वय	-11119
▁कन्नड	-11120
▁जनान्	-11121
▁जापान	-11122
▁देवैः	-11123
▁नायकः	-11124
▁नास्त	-11125
▁वायुं	-11126
▁सशक्त	-11127
▁स्थले	-11128
नन्तरम्	-11129
▁दिव्या	-11130
▁बाल्ये	-11131
▁लिखितं	-11132
▁आचार्यः	-11133
▁इत्यमरः	-11134
▁उदाहरणं	-11135
▁प्रयोगं	-11136
▁रक्षिता	-11137
▁लक्षयति	-11138
▁विशेष्य	-11139
▁प्रयत्नः	-11140
▁सम्बध्यते	-11141
▁वस्तुतस्तु	-11142
ढे	-11143
तॆ	-11144
म॒	-11145
ace	-11146
शां	-11147
दिनः	-11148
द्यं	-11149
प्रव	-11150
बलम्	-11151
बीजं	-11152
ब्रू	-11153
रुषः	-11154
▁अहः	-11155
▁गवा	-11156
▁घ्र	-11157
▁बाद	-11158
▁भरत	-11159
▁मनस	-11160
▁सहि	-11161
धातुः	-11162
भाषणं	-11163
लायाः	-11164
वशात्	-11165
स्योप	-11166
ादीन्	-11167
▁आराध	-11168
▁चलति	-11169
▁दोषं	-11170
▁द्रव	-11171
▁धुआं	-11172
▁लिपा	-11173
क्षेपः	-11174
दिनानि	-11175
प्त्वा	-11176
▁आवयोः	-11177
▁तदानी	-11178
▁तेजसा	-11179
▁निष्प	-11180
▁भगवतो	-11181
▁सामान	-11182
प्रामाण	-11183
माचरेत्	-11184
▁अवकाशः	-11185
▁इत्याद	-11186
▁केचिद्	-11187
▁त्वमपि	-11188
▁नियमेन	-11189
▁पृथक्त	-11190
▁स्थिरा	-11191
▁करोतीति	-11192
▁चन्द्रः	-11193
▁द्रष्टा	-11194
▁विश्वसि	-11195
▁संख्याः	-11196
▁सिद्धिं	-11197
▁दक्षिणेन	-11198
▁प्रक्षाल	-11199
▁ब्रूयात्	-11200
▁स्वागतम्	-11201
▁वर्षेभ्यः	-11202
▁कुर्य्यात्	-11203
))	-11204
>#	-11205
te	-11206
शक	-11207
॒ऽ	-11208
ith	-11209
ype	-11210
जनि	-11211
जलं	-11212
तेर	-11213
धरो	-11214
मधि	-11215
शीत	-11216
शेन	-11217
ाहा	-11218
▁बन	-11219
▁सध	-11220
▁हम	-11221
▁७८	-11222
जातः	-11223
दादि	-11224
दृशं	-11225
पाति	-11226
भेदो	-11227
भ्यु	-11228
र्जा	-11229
लयम्	-11230
समाह	-11231
▁()?	-11232
▁आनी	-11233
▁फले	-11234
▁लोभ	-11235
गुणैः	-11236
ध्वनि	-11237
मर्थं	-11238
मान्य	-11239
श्यते	-11240
सत्ता	-11241
स्मिन	-11242
हस्ते	-11243
▁2012	-11244
▁कतमः	-11245
▁जाना	-11246
▁पत्य	-11247
▁प्रग	-11248
▁बुधः	-11249
▁भारी	-11250
▁यदपि	-11251
▁यद्ध	-11252
▁सहैव	-11253
क्रमाः	-11254
ङ्ग्रे	-11255
पूर्वः	-11256
वादिनः	-11257
ष्टादश	-11258
संकल्प	-11259
▁Categ	-11260
▁अकर्म	-11261
▁आस्ते	-11262
▁नवीनं	-11263
▁नारदः	-11264
▁यत्नः	-11265
▁यायेत	-11266
▁वृत्र	-11267
▁सहितं	-11268
▁स्फुर	-11269
तत्त्वं	-11270
द्योगिक	-11271
मुत्पाद	-11272
श्चर्यं	-11273
▁अन्येन	-11274
▁असम्भव	-11275
▁इच्छसि	-11276
▁नद्याः	-11277
▁पशूनां	-11278
▁समुत्प	-11279
▁स्रोतः	-11280
प्रकरणम्	-11281
▁आगतवान्	-11282
▁उत्तमम्	-11283
▁दर्शितं	-11284
▁प्रथमम्	-11285
▁विश्वतः	-11286
▁स्यान्न	-11287
▁अपेक्षया	-11288
▁प्रतिवर्ष	-11289
▁अन्ताराष्ट्रिय	-11290
ct	-11291
कन	-11292
जित	-11293
तद्	-11294
वयं	-11295
ाणे	-11296
ैरि	-11297
▁46	-11298
▁Pr	-11299
देवी	-11300
बलेन	-11301
बहुव	-11302
बाहु	-11303
वारे	-11304
हीना	-11305
ोऽभि	-11306
▁आप्	-11307
▁तैल	-11308
▁पदः	-11309
▁सभी	-11310
क्षयं	-11311
ञ्जते	-11312
पर्यं	-11313
▁दग्ध	-11314
▁पचति	-11315
▁पदेन	-11316
▁मिथु	-11317
▁यथाऽ	-11318
▁यस्त	-11319
▁रोगी	-11320
▁वनम्	-11321
▁समाः	-11322
▁हरिं	-11323
ग्रहेण	-11324
देशेषु	-11325
मृत्यु	-11326
सन्धिः	-11327
ितम्बर	-11328
▁अन्यं	-11329
▁शक्ता	-11330
▁स्फोट	-11331
त्वात्त	-11332
विनिर्म	-11333
▁कामयते	-11334
▁कार्यम	-11335
▁पश्यन्	-11336
व्याख्या	-11337
स्त्विति	-11338
▁अभिभाषण	-11339
▁कल्याणं	-11340
▁क्रीडति	-11341
▁चतुर्थी	-11342
▁जिज्ञास	-11343
▁पार्वती	-11344
▁विद्वान	-11345
▁अध्यापकः	-11346
▁ग्रहाणां	-11347
▁राजनैतिक	-11348
▁सम्बन्धित	-11349
▁पुरस्कृत्य	-11350
▁सामान्यतया	-11351
६५	-11352
ere	-11353
बंध	-11354
लघु	-11355
हतः	-11356
ावत	-11357
▁43	-11358
▁ईष	-11359
▁तच	-11360
____	-11361
ण्डल	-11362
सचिव	-11363
स्टम	-11364
▁198	-11365
▁घटा	-11366
▁नवे	-11367
▁भरा	-11368
▁मम्	-11369
▁शिल	-11370
▁हनि	-11371
कारम्	-11372
देशेन	-11373
र्थेन	-11374
वीर्य	-11375
ष्टाः	-11376
स्थ्य	-11377
▁काला	-11378
▁खोजः	-11379
▁टीका	-11380
▁पुलि	-11381
▁वपुः	-11382
▁विशा	-11383
नगरस्य	-11384
निर्वा	-11385
▁इमानि	-11386
▁क्रूर	-11387
▁चक्रं	-11388
▁नगरम्	-11389
▁वक्ति	-11390
ज्याःगु	-11391
पेक्षते	-11392
स्थानां	-11393
▁गुजरात	-11394
▁दर्शने	-11395
▁निशम्य	-11396
▁भवत्या	-11397
▁मास्तु	-11398
▁विवर्ज	-11399
▁हन्तुं	-11400
प्रयुक्त	-11401
▁अर्थस्य	-11402
▁गोविन्द	-11403
▁पुनर्वि	-11404
▁प्रशस्त	-11405
▁भवितव्य	-11406
▁विधानतः	-11407
▁शत्रून्	-11408
▁सम्भवतः	-11409
▁सायंकाले	-11410
▁प्रपद्यते	-11411
▁इत्यस्माद्	-11412
▁पुत्रपौत्र	-11413
▁प्रविशन्ति	-11414
▁संप्रवक्ष्यामि	-11415
लर	-11416
ोह	-11417
॑त	-11418
७५	-11419
are	-11420
नदी	-11421
पथे	-11422
भान	-11423
सुः	-11424
...]	-11425
द्धः	-11426
पाते	-11427
भयोः	-11428
मूलं	-11429
वारी	-11430
हारो	-11431
िकरं	-11432
▁इरा	-11433
▁एवै	-11434
▁औरत	-11435
▁भुज	-11436
▁माद	-11437
▁वेण	-11438
गुणम्	-11439
दत्तं	-11440
भिमुख	-11441
भृतां	-11442
योर्व	-11443
र्ग्र	-11444
वाच्य	-11445
ह्यति	-11446
ानामा	-11447
ूनाम्	-11448
▁गुहा	-11449
▁चातु	-11450
▁जगाद	-11451
▁जानु	-11452
▁तमहं	-11453
▁तेषा	-11454
▁दौर्	-11455
▁भानु	-11456
▁हन्य	-11457
▁२०१४	-11458
▁२०१६	-11459
कारिणी	-11460
दृष्टं	-11461
द्वारे	-11462
पूर्वक	-11463
स्वप्न	-11464
ीयताम्	-11465
ोऽभवत्	-11466
▁अमेरि	-11467
▁एतयोः	-11468
▁चूर्ण	-11469
▁त्वद्	-11470
▁दधाति	-11471
▁धनानि	-11472
▁धीमहि	-11473
▁नीतिः	-11474
▁वैदेश	-11475
▁व्याध	-11476
मानानां	-11477
ेश्वरम्	-11478
▁अभिगमन	-11479
▁सुन्दर	-11480
▁सुष्ठु	-11481
▁स्वादि	-11482
सम्बन्धि	-11483
▁प्रभावं	-11484
▁सञ्चिका	-11485
▁सरस्वती	-11486
▁साक्षाद	-11487
▁दर्शितम्	-11488
▁पुस्तकम्	-11489
▁प्रतिज्ञ	-11490
▁भारतदेशे	-11491
▁राजस्थान	-11492
▁विस्तारः	-11493
▁शास्त्रे	-11494
▁शीघ्रमेव	-11495
▁सम्पत्ति	-11496
व्यतिरिक्त	-11497
▁कर्त्तव्य	-11498
▁अन्तरिक्षे	-11499
▁हितकाम्यया	-11500
IN	-11501
ील	-11502
७४	-11503
नेत	-11504
भीत	-11505
वर्	-11506
हतं	-11507
ूगु	-11508
ैस्	-11509
▁47	-11510
▁आँ	-11511
काली	-11512
क्री	-11513
ग्नौ	-11514
नामि	-11515
पेपर	-11516
भाक्	-11517
रन्त	-11518
हृदय	-11519
ानभि	-11520
▁ISO	-11521
▁पृश	-11522
▁बलव	-11523
▁बां	-11524
▁यदृ	-11525
दस्ति	-11526
द्योत	-11527
पत्तौ	-11528
पित्र	-11529
▁एतैः	-11530
▁मिथः	-11531
▁वञ्च	-11532
▁सक्त	-11533
ज्ञातं	-11534
त्वान्	-11535
ारूपेण	-11536
▁कर्णा	-11537
▁जलस्य	-11538
▁द्व्य	-11539
▁पर्यु	-11540
▁प्राद	-11541
▁रसायन	-11542
▁वयस्य	-11543
▁हस्तं	-11544
न्मात्र	-11545
प्रतीति	-11546
ान्तस्य	-11547
▁अविद्य	-11548
▁कोविड्	-11549
▁गुणान्	-11550
▁भूमिका	-11551
▁रक्षित	-11552
▁रूप्यक	-11553
▁व्यर्थ	-11554
▁सम्बोध	-11555
▁स्मरणं	-11556
प्रस्ताव	-11557
▁एतस्याः	-11558
▁तीक्ष्ण	-11559
▁प्रश्नं	-11560
▁प्रियम्	-11561
▁समाजस्य	-11562
▁सुनिश्च	-11563
▁सूर्य्य	-11564
भिप्रायेण	-11565
▁अकुर्वन्	-11566
▁उत्पत्ति	-11567
▁प्रीत्या	-11568
▁भूर्भुवः	-11569
▁प्रकर्षेण	-11570
▁युधिष्ठिर	-11571
ib	-11572
pl	-11573
अह	-11574
शम	-11575
सल	-11576
७२	-11577
भोः	-11578
वरः	-11579
शङ्	-11580
ाही	-11581
िवे	-11582
ैरा	-11583
▁-"	-11584
▁ऽन	-11585
काया	-11586
ण्डो	-11587
देहं	-11588
द्दा	-11589
नाद्	-11590
मूर्	-11591
रम्भ	-11592
ीतय्	-11593
▁गुड	-11594
▁मदन	-11595
▁महे	-11596
▁वदि	-11597
ध्येत	-11598
रस्ति	-11599
▁असति	-11600
▁छाय्	-11601
▁भूषण	-11602
▁शिवा	-11603
▁सख्य	-11604
येदिति	-11605
लङ्कार	-11606
स्तरां	-11607
▁असत्य	-11608
▁उपायः	-11609
▁करणम्	-11610
▁गीयते	-11611
▁जगत्प	-11612
▁देशय्	-11613
▁प्रौढ	-11614
▁बहून्	-11615
▁बिचाः	-11616
▁यथावद	-11617
▁शक्यो	-11618
र्थानां	-11619
सौभाग्य	-11620
▁अर्द्ध	-11621
▁कत्र्त	-11622
▁कृतज्ञ	-11623
▁ख्यातं	-11624
▁तस्मिं	-11625
▁त्वरित	-11626
▁नीत्वा	-11627
▁पात्रं	-11628
▁वरानने	-11629
▁विप्रा	-11630
▁विसर्ग	-11631
▁श्रोतु	-11632
▁समस्तं	-11633
▁सुखिनः	-11634
▁सूर्ये	-11635
ितत्वात्	-11636
▁पुरुषाः	-11637
▁श्रोतुं	-11638
▁संबन्धि	-11639
▁आवाहयामि	-11640
▁परिशिष्ट	-11641
▁व्यापारः	-11642
▁कुत्रचित्	-11643
▁विद्यालयस्य	-11644
▁व्याख्यास्यामः	-11645
29	-11646
AS	-11647
bo	-11648
७६	-11649
९२	-11650
ays	-11651
जाग	-11652
मतो	-11653
रिक	-11654
ानम	-11655
ूषा	-11656
ौषध	-11657
▁49	-11658
▁कण	-11659
डियन	-11660
नान्	-11661
नेना	-11662
प्तो	-11663
स्पद	-11664
ारूढ	-11665
ेवम्	-11666
▁197	-11667
▁अलि	-11668
▁नवा	-11669
▁नीत	-11670
▁भान	-11671
▁मदी	-11672
▁रथे	-11673
▁शृग	-11674
▁हतो	-11675
निन्द	-11676
भ्रात	-11677
रुपेण	-11678
स्तार	-11679
ातीति	-11680
ृष्टः	-11681
▁अवधि	-11682
▁काकः	-11683
▁गीता	-11684
▁भृशं	-11685
▁माला	-11686
▁मृता	-11687
▁यक्व	-11688
▁योगे	-11689
▁रुक्	-11690
▁लिङ्	-11691
▁विभा	-11692
▁संधि	-11693
क्त्वा	-11694
ज्ञाता	-11695
द्युम्	-11696
भूतानि	-11697
र्थकम्	-11698
वृक्षे	-11699
▁अस्ती	-11700
▁एप्रि	-11701
▁कोष्ठ	-11702
▁क्षीर	-11703
▁दुहित	-11704
▁देवेन	-11705
▁संशयो	-11706
तन्त्रं	-11707
त्वान्न	-11708
राज्यम्	-11709
▁अद्यतन	-11710
▁आशीर्व	-11711
▁नवीनतम	-11712
▁मण्डलं	-11713
▁विहितं	-11714
▁इन्द्रो	-11715
▁द्वादशा	-11716
▁निगद्यते	-11717
▁श्रूयतां	-11718
▁उपयुज्यते	-11719
गन	-11720
लष	-11721
_1_	-11722
ife	-11723
नुः	-11724
रीः	-11725
लेः	-11726
शाच	-11727
िषु	-11728
▁us	-11729
▁ग्	-11730
▁यण	-11731
दीगु	-11732
नीगु	-11733
पुटः	-11734
पुरे	-11735
यान्	-11736
सक्त	-11737
सुतः	-11738
ोग्य	-11739
▁ऋते	-11740
▁तोष	-11741
▁बला	-11742
▁याज	-11743
▁वदे	-11744
▁हरः	-11745
ण्डरी	-11746
मिदम्	-11747
वर्षा	-11748
व्रता	-11749
श्रमं	-11750
्वःगु	-11751
▁अनार	-11752
▁आकार	-11753
▁जाया	-11754
▁तयाः	-11755
▁पृथु	-11756
▁बलेन	-11757
▁मातः	-11758
▁राति	-11759
▁वयाः	-11760
▁विपा	-11761
▁शिवे	-11762
▁शिशि	-11763
▁सभ्य	-11764
▁स्मः	-11765
▁हंसः	-11766
योग्यं	-11767
साक्षि	-11768
स्विनः	-11769
▁कन्दु	-11770
▁ज्ञेय	-11771
▁तत्कथ	-11772
▁तुम्ह	-11773
▁नूतनं	-11774
▁पतितं	-11775
▁मोदते	-11776
▁सहितः	-11777
▁स्थलं	-11778
ापेक्षा	-11779
▁अदृश्य	-11780
▁अपूर्ण	-11781
▁आईपीसी	-11782
▁पश्यसि	-11783
▁श्रवणं	-11784
र्भवन्ति	-11785
व्यतिरेक	-11786
▁उदाहृतः	-11787
▁द्रष्टु	-11788
▁मातापित	-11789
▁शरीरस्य	-11790
▁अब्रवीत्	-11791
माप्नुयात्	-11792
▁क्रियताम्	-11793
▁प्रोत्साह	-11794
ts	-11795
ख्	-11796
८२	-11797
ash	-11798
ote	-11799
चिं	-11800
ऽसौ	-11801
▁(5	-11802
ग्नी	-11803
ण्डं	-11804
त्ती	-11805
त्रो	-11806
न्न्	-11807
पालः	-11808
पालन	-11809
यातः	-11810
योरु	-11811
ल्लो	-11812
समां	-11813
ाहिक	-11814
▁अत्	-11815
▁एक्	-11816
▁काः	-11817
▁गरि	-11818
▁घटे	-11819
▁वरो	-11820
कृष्य	-11821
मागतः	-11822
मानसः	-11823
र्नाम	-11824
स्थिर	-11825
हारेण	-11826
▁ग्रा	-11827
▁नक्ष	-11828
▁निरव	-11829
▁भौति	-11830
▁महाद	-11831
▁महाय	-11832
▁विषम	-11833
▁शाखा	-11834
▁सायु	-11835
ङ्गस्य	-11836
च्छब्द	-11837
न्द्रो	-11838
श्वस्य	-11839
ात्मना	-11840
ान्तम्	-11841
▁अथापि	-11842
▁अस्मै	-11843
▁उदेति	-11844
▁केवला	-11845
▁धनस्य	-11846
▁धीमता	-11847
▁नियमो	-11848
▁विभुः	-11849
▁शाब्द	-11850
▁सदृशं	-11851
▁सुराः	-11852
▁सेवते	-11853
▁स्तुत	-11854
पेक्ष्य	-11855
मिच्छसि	-11856
रिष्यति	-11857
▁क्षमता	-11858
▁तथाऽपि	-11859
▁यथेष्ट	-11860
▁विक्रय	-11861
काङ्क्षा	-11862
ध्यायस्य	-11863
स्त्राणि	-11864
▁इतस्ततः	-11865
▁गुरुवार	-11866
▁न्यायेन	-11867
▁मुक्तिं	-11868
▁वक्तुम्	-11869
▁स्थाप्य	-11870
प्रदेशस्य	-11871
▁उद्दिश्य	-11872
▁दुर्घटना	-11873
▁नोपपद्यते	-11874
ैं	-11875
्स	-11876
-10	-11877
.11	-11878
ust	-11879
जनो	-11880
याज	-11881
वरा	-11882
सते	-11883
ावु	-11884
▁खन	-11885
ance	-11886
क्रे	-11887
जीवन	-11888
थाय्	-11889
पदां	-11890
राजा	-11891
ष्णि	-11892
समूह	-11893
▁196	-11894
▁मेव	-11895
▁रोध	-11896
▁र्व	-11897
▁वेध	-11898
▁सहल	-11899
च्छसि	-11900
मध्या	-11901
र्चित	-11902
वश्यं	-11903
सिंहः	-11904
स्वयं	-11905
▁कठिन	-11906
▁कार्	-11907
▁गणेश	-11908
▁भयाव	-11909
▁म्हि	-11910
▁यानं	-11911
▁वइगु	-11912
▁शतके	-11913
▁सभास	-11914
▁स्तर	-11915
▁हानं	-11916
न्निति	-11917
मर्हति	-11918
र्थात्	-11919
ोत्तरे	-11920
ोत्पाद	-11921
▁अपहरण	-11922
▁गोपाल	-11923
▁तिर्य	-11924
▁भार्ग	-11925
▁रक्षो	-11926
▁लक्षं	-11927
▁वर्गे	-11928
परित्या	-11929
शालायां	-11930
सङ्कल्प	-11931
सिद्धये	-11932
ादेशस्य	-11933
▁आक्रमण	-11934
▁क्षुधा	-11935
▁तद्धित	-11936
▁नित्ये	-11937
▁वास्तव	-11938
▁विदितं	-11939
▁वृद्धा	-11940
▁श्रुतौ	-11941
ानाधिकरण	-11942
▁कदाचिद्	-11943
▁दक्षिणो	-11944
▁निरीक्ष	-11945
▁प्रश्नो	-11946
▁बुद्धिं	-11947
▁मित्रम्	-11948
▁वय्कःया	-11949
▁वस्तुनि	-11950
मवाप्नोति	-11951
ित्यादिना	-11952
▁पुत्रान्	-11953
▁स्त्रियं	-11954
▁स्पष्टम्	-11955
▁क्रियायाः	-11956
▁प्रसज्येत	-11957
▁द्यावापृथिवी	-11958
▁मुद्रास्फीति	-11959
▁आङ्ग्लभाषायां	-11960
]/	-11961
एच	-11962
नस	-11963
ौप	-11964
iki	-11965
चां	-11966
मरण	-11967
में	-11968
सोम	-11969
ादू	-11970
ादो	-11971
ापे	-11972
ुका	-11973
▁42	-11974
▁उठ	-11975
▁दइ	-11976
▁पक	-11977
म्बू	-11978
स्वः	-11979
ांतर	-11980
ाराध	-11981
॑स्य	-11982
▁8.0	-11983
▁ग्व	-11984
▁बहव	-11985
▁रेण	-11986
▁वल्	-11987
▁संभ	-11988
कायां	-11989
त्मना	-11990
न्नरः	-11991
भवान्	-11992
योश्च	-11993
सत्यं	-11994
हेतवः	-11995
ह्यते	-11996
ावर्त	-11997
▁गावः	-11998
▁जागर	-11999
▁द्या	-12000
त्यर्थ	-12001
दिष्टा	-12002
पत्रम्	-12003
प्रेषण	-12004
विकिपी	-12005
ेष्वेव	-12006
▁चुनाव	-12007
▁दत्तः	-12008
▁नपुंस	-12009
▁पूरयत	-12010
▁भगवत्	-12011
▁लब्धं	-12012
▁वाप्य	-12013
▁वेष्ट	-12014
▁वैश्य	-12015
▁सप्ता	-12016
▁समासे	-12017
▁स्वेद	-12018
▁हीयते	-12019
प्रमाणं	-12020
सामग्री	-12021
▁अनुष्ठ	-12022
▁आरोग्य	-12023
▁वक्त्र	-12024
▁वृद्धौ	-12025
▁समारोह	-12026
▁जीवन्ति	-12027
▁यथाकालं	-12028
▁विदुषां	-12029
▁श्रोत्र	-12030
▁समाधानं	-12031
▁स्पर्धा	-12032
▁स्पष्टं	-12033
▁अधिकृत्य	-12034
▁विद्युत्	-12035
▁निवेदयेत्	-12036
▁निवेशयेत्	-12037
▁प्रतिगृह्य	-12038
▁बुद्धिमान्	-12039
झे	-12040
मभ	-12041
रच	-12042
॑र	-12043
किन	-12044
तनु	-12045
थ्र	-12046
दशः	-12047
शोष	-12048
▁ं८	-12049
▁८१	-12050
च्छु	-12051
जित्	-12052
णीयं	-12053
निति	-12054
न्यू	-12055
पराध	-12056
मानव	-12057
म्हं	-12058
र्के	-12059
स्सु	-12060
्यैव	-12061
▁अका	-12062
▁इनि	-12063
▁मोच	-12064
▁ल्य	-12065
▁संय	-12066
दुःखं	-12067
▁तालि	-12068
▁पीछे	-12069
▁पुना	-12070
▁भवत्	-12071
▁मत्त	-12072
......	-12073
कृष्णः	-12074
ज्ञातः	-12075
न्त्रं	-12076
पद्येत	-12077
प्रथमं	-12078
मित्यत	-12079
विरोधि	-12080
संसर्ग	-12081
्यानां	-12082
▁[...]	-12083
▁पशून्	-12084
▁प्रणय	-12085
▁भाषिक	-12086
▁भेदेन	-12087
▁मुहुः	-12088
▁वाऽपि	-12089
▁वेदाः	-12090
▁बाह्ये	-12091
▁मध्यमः	-12092
▁दुरात्म	-12093
▁पुरुषेण	-12094
▁भाषायां	-12095
▁विग्रहः	-12096
▁विनिर्म	-12097
▁विनिश्च	-12098
सिद्धान्त	-12099
▁उत्तिष्ठ	-12100
▁त्रिविधं	-12101
▁वर्षाणां	-12102
▁विरुद्धं	-12103
▁व्याख्ये	-12104
▁दारिद्र्य	-12105
▁पुत्राणां	-12106
▁प्रातिपदिक	-12107
▁व्यावहारिक	-12108
▁स्थापयित्वा	-12109
33	-12110
ug	-12111
यश	-12112
रॊ	-12113
ळी	-12114
िय	-12115
.15	-12116
fff	-12117
कया	-12118
दयं	-12119
पीत	-12120
रथः	-12121
शाय	-12122
समो	-12123
ागम	-12124
▁Cl	-12125
▁इम	-12126
▁नई	-12127
▁पह	-12128
▁यय	-12129
▁ऽथ	-12130
▁०१	-12131
▁९३	-12132
कराः	-12133
क्का	-12134
ज्यत	-12135
ण्ट्	-12136
दृशः	-12137
नाथः	-12138
यमान	-12139
राया	-12140
लम्भ	-12141
्यनु	-12142
▁1.2	-12143
▁भूः	-12144
▁लता	-12145
अग्नि	-12146
च्येत	-12147
त्मनि	-12148
निष्ट	-12149
प्यति	-12150
मुद्य	-12151
रुक्त	-12152
हिताय	-12153
▁अच्छ	-12154
▁आसम्	-12155
▁केना	-12156
▁पुचः	-12157
▁बलम्	-12158
▁भृगु	-12159
▁रतिः	-12160
▁रोहि	-12161
▁विघ्	-12162
▁वीरः	-12163
▁वृषभ	-12164
करणस्य	-12165
न्तस्य	-12166
मन्यते	-12167
समाप्त	-12168
हस्तेन	-12169
▁उदासी	-12170
▁कियत्	-12171
▁खनेदु	-12172
▁ताम्र	-12173
▁दानेन	-12174
▁ध्येय	-12175
▁परत्र	-12176
▁भूमेः	-12177
▁लेखाः	-12178
▁संश्र	-12179
▁समानः	-12180
▁हृदया	-12181
ितव्यम्	-12182
▁उल्लेख	-12183
▁गायत्र	-12184
▁तदभावे	-12185
▁पुरुषे	-12186
▁पूर्णा	-12187
▁भूतकाल	-12188
▁मध्यमं	-12189
▁वर्गःः	-12190
▁अवश्यम्	-12191
▁प्राज्ञ	-12192
▁यथासंभव	-12193
▁विषयेषु	-12194
▁वैकल्पि	-12195
▁शस्त्रं	-12196
▁निमन्त्र	-12197
▁दृष्टवान्	-12198
▁प्रवर्त्त	-12199
39	-12200
जै	-12201
ick	-12202
अब्	-12203
गम्	-12204
फ्त	-12205
मखु	-12206
शयं	-12207
षये	-12208
ाहो	-12209
िमा	-12210
॒ता	-12211
▁अघ	-12212
▁सग	-12213
क्कं	-12214
रियं	-12215
लोचन	-12216
वसरे	-12217
श्वं	-12218
ामिह	-12219
▁अय्	-12220
▁गणः	-12221
▁गौः	-12222
▁पर्	-12223
▁पिछ	-12224
▁सौर	-12225
नियमः	-12226
भीष्ट	-12227
मार्ज	-12228
र्द्र	-12229
वाञ्छ	-12230
ोपचार	-12231
▁More	-12232
▁आर्त	-12233
▁उपाद	-12234
▁च्वं	-12235
▁टाप्	-12236
▁तवां	-12237
▁दासी	-12238
▁नगरी	-12239
▁नर्त	-12240
▁पङ्क	-12241
▁बालक	-12242
▁सुता	-12243
▁सोमा	-12244
पृष्ठे	-12245
व्ययम्	-12246
सङ्गीत	-12247
▁अवकाश	-12248
▁एतदपि	-12249
▁क्रतु	-12250
▁घण्टा	-12251
▁द्रोण	-12252
▁मनोरथ	-12253
▁महत्त	-12254
▁मायाम	-12255
▁यन्तु	-12256
▁विध्य	-12257
▁संस्प	-12258
र्धधातु	-12259
▁असिद्ध	-12260
▁इत्येक	-12261
▁गुमनाम	-12262
▁चान्ये	-12263
▁न्यायः	-12264
▁पितॄन्	-12265
▁भूतेषु	-12266
▁भोजनम्	-12267
▁सन्धिः	-12268
▁समुदाह	-12269
मन्त्रेण	-12270
ेश्वरस्य	-12271
▁कृत्रिम	-12272
▁प्रशंसा	-12273
▁समाख्या	-12274
▁स्निग्ध	-12275
▁स्वभावः	-12276
▁कर्तव्यो	-12277
▁गमिष्यति	-12278
▁दर्शनात्	-12279
▁दास्यामि	-12280
▁दिष्ट्या	-12281
▁प्रबुद्ध	-12282
▁इत्युक्तः	-12283
▁प्रसंस्करण	-12284
▁बोधिसत्त्व	-12285
-0	-12286
०१	-12287
सीः	-12288
हरः	-12289
▁("	-12290
▁IN	-12291
▁Tr	-12292
▁एल	-12293
अद्य	-12294
गौरव	-12295
दिग्	-12296
नीम्	-12297
न्वा	-12298
पादे	-12299
मेतद	-12300
य्या	-12301
र्षण	-12302
विका	-12303
हाति	-12304
ास्य	-12305
िणां	-12306
▁गोच	-12307
▁पढ़	-12308
▁वसू	-12309
▁सूप	-12310
उत्तर	-12311
क्षयः	-12312
छात्र	-12313
पूर्त	-12314
म्यां	-12315
यितुम	-12316
र्थकः	-12317
विवेक	-12318
सम्बर	-12319
साधने	-12320
▁इतना	-12321
▁एससी	-12322
▁चायं	-12323
▁पाठे	-12324
▁बन्द	-12325
▁मनसो	-12326
▁मारी	-12327
▁वादि	-12328
▁सपत्	-12329
▁सभाप	-12330
▁समेत	-12331
▁हारी	-12332
कालात्	-12333
विपर्य	-12334
व्यञ्ज	-12335
सङ्ख्य	-12336
ानित्य	-12337
ान्यथा	-12338
ेक्ष्य	-12339
▁अवधिः	-12340
▁उक्ता	-12341
▁कौतूह	-12342
▁क्षमः	-12343
▁पारम्	-12344
▁वायुम	-12345
▁शय्या	-12346
▁समस्य	-12347
▁सागरे	-12348
▁सेनां	-12349
▁स्वया	-12350
▁अभिमान	-12351
▁दशवर्ष	-12352
▁निबोधत	-12353
▁भवन्तं	-12354
▁मन्त्रः	-12355
निर्दिष्ट	-12356
प्रवृत्ति	-12357
▁कार्य्यं	-12358
▁विचिन्त्य	-12359
▁विस्तीर्ण	-12360
▁सर्वकार्येषु	-12361
."	-12362
IC	-12363
cs	-12364
ंत	-12365
जर	-12366
९३	-12367
▁×	-12368
▁ो	-12369
गीष	-12370
ज्झ	-12371
विन	-12372
हाव	-12373
ेतं	-12374
▁fr	-12375
कमेव	-12376
केवल	-12377
ग्नं	-12378
ङ्गो	-12379
णीयः	-12380
मनेन	-12381
मानौ	-12382
योगी	-12383
लाम्	-12384
वीति	-12385
ानाय	-12386
▁11.	-12387
▁जुष	-12388
▁धने	-12389
▁नुद	-12390
▁नेद	-12391
▁माष	-12392
▁मुं	-12393
▁शशा	-12394
▁शार	-12395
काराय	-12396
द्विव	-12397
ृत्वे	-12398
ैकादश	-12399
ैर्वा	-12400
▁अप्व	-12401
▁केशव	-12402
▁क्रु	-12403
▁गमने	-12404
▁पट्ट	-12405
▁हरति	-12406
चित्तु	-12407
भिर्वि	-12408
मात्मा	-12409
ष्टस्य	-12410
स्तरीय	-12411
ान्तिक	-12412
ाम्यहं	-12413
्याणां	-12414
▁तद्वद	-12415
▁दुकान	-12416
▁नमामि	-12417
▁नीयते	-12418
▁भवत्व	-12419
▁वन्दे	-12420
▁श्रीम	-12421
पत्राणि	-12422
▁गृह्णी	-12423
▁पूर्वो	-12424
▁प्रदूष	-12425
मब्रवीत्	-12426
शङ्क्याह	-12427
▁आन्तरिक	-12428
▁प्रयासः	-12429
▁सर्वदैव	-12430
▁सितम्बर	-12431
▁अनन्तरम्	-12432
▁उत्तीर्ण	-12433
▁क्षेत्रः	-12434
▁नमोऽस्तु	-12435
▁प्राणायाम	-12436
▁विद्यार्थी	-12437
EN	-12438
पह	-12439
ऽह	-12440
६४	-12441
oem	-12442
थें	-12443
दाई	-12444
मोच	-12445
संत	-12446
ैको	-12447
▁धृ	-12448
▁८५	-12449
चिह्	-12450
पादं	-12451
पुरो	-12452
भूमौ	-12453
मासा	-12454
लयेन	-12455
ांशः	-12456
▁कीट	-12457
▁भेस	-12458
▁हूं	-12459
▁१०८	-12460
कमिति	-12461
धार्म	-12462
धिकम्	-12463
भाषित	-12464
मूल्य	-12465
स्थलं	-12466
स्येव	-12467
ान्य्	-12468
▁पटलः	-12469
▁२०००	-12470
परायणः	-12471
पुत्रा	-12472
प्रिये	-12473
वृक्षः	-12474
ात्मने	-12475
▁अक्षय	-12476
▁कथितो	-12477
▁जानकी	-12478
▁द्वयं	-12479
▁भाषते	-12480
▁मरुतो	-12481
▁महतां	-12482
▁मृत्त	-12483
▁व्यवह	-12484
▁सीतां	-12485
▁सुप्र	-12486
▁स्वाह	-12487
▁अधिकम्	-12488
▁उपलभ्य	-12489
▁उपेक्ष	-12490
▁जातानि	-12491
▁देशेषु	-12492
▁प्रजां	-12493
▁भाषापा	-12494
▁शिष्या	-12495
▁उच्चारण	-12496
▁परिपक्व	-12497
▁प्रारूप	-12498
▁शाश्वतः	-12499
▁तुम्हारे	-12500
▁निश्चयेन	-12501
▁व्यज्यते	-12502
▁इत्युक्तं	-12503
▁द्वाभ्यां	-12504
▁प्राधान्यं	-12505
▁प्राप्नोत्	-12506
▁प्रतिगृह्यताम्	-12507
IV	-12508
गव	-12509
ठ्	-12510
चिक	-12511
पम्	-12512
रूढ	-12513
श्म	-12514
▁as	-12515
▁दँ	-12516
▁वट	-12517
▁हः	-12518
अहम्	-12519
धिके	-12520
पिका	-12521
भवतः	-12522
भिरु	-12523
मर्द	-12524
माहु	-12525
रश्च	-12526
शेषे	-12527
स्ना	-12528
ात्व	-12529
ात्स	-12530
ास्त	-12531
ोदये	-12532
▁III	-12533
▁उरु	-12534
▁कोड	-12535
▁कोण	-12536
▁चिक	-12537
▁पठि	-12538
▁परॊ	-12539
▁मेद	-12540
▁ष्य	-12541
क्यम्	-12542
त्तरे	-12543
दायकः	-12544
न्तेन	-12545
पार्थ	-12546
भेदाः	-12547
सुखम्	-12548
हस्तं	-12549
▁कथया	-12550
▁गावो	-12551
▁गुणं	-12552
▁चैवं	-12553
▁नियु	-12554
▁बनाम	-12555
▁वंगु	-12556
▁वामं	-12557
▁हिमव	-12558
कारिणः	-12559
त्येवं	-12560
प्राप्	-12561
यिष्या	-12562
स्वर्ग	-12563
स्सर्व	-12564
▁अष्टौ	-12565
▁आहत्य	-12566
▁उक्ते	-12567
▁तत्ते	-12568
▁नष्टं	-12569
▁पितरो	-12570
▁पिहां	-12571
▁बहुना	-12572
▁भोजने	-12573
▁मांसं	-12574
▁मानवा	-12575
▁विधिं	-12576
▁संसदि	-12577
▁साप्त	-12578
क्रियां	-12579
वर्जितः	-12580
▁इत्येष	-12581
▁मृत्यो	-12582
▁रक्षणे	-12583
▁राजानः	-12584
▁वीर्यं	-12585
▁समक्षं	-12586
चिकित्सा	-12587
पुत्रस्य	-12588
▁अपश्यत्	-12589
▁भवेदिति	-12590
▁राज्यम्	-12591
▁विप्राः	-12592
▁सम्पर्क	-12593
मुद्दिश्य	-12594
शास्त्रम्	-12595
▁अनिवार्य	-12596
▁अनुदात्त	-12597
▁कर्म्मणि	-12598
▁प्रकुर्व	-12599
▁भक्तानां	-12600
▁भाषापाकः	-12601
▁माध्यमेन	-12602
▁विद्यात्	-12603
▁स्थापितः	-12604
▁परमेश्वरि	-12605
▁यथापूर्वं	-12606
▁स्वतन्त्रः	-12607
एष	-12608
ath	-12609
ons	-12610
ताद	-12611
यद्	-12612
ावन	-12613
२००	-12614
▁नख	-12615
▁फा	-12616
गतिं	-12617
पानं	-12618
प्य्	-12619
भिरा	-12620
भोजन	-12621
सम्य	-12622
ैर्ज	-12623
▁(20	-12624
▁अपह	-12625
▁गया	-12626
▁गोल	-12627
▁ठक्	-12628
▁धीः	-12629
▁भरे	-12630
▁भवा	-12631
▁शाक	-12632
▁हीन	-12633
ङ्गिर	-12634
वर्तत	-12635
विवाह	-12636
सवर्ण	-12637
ैरिति	-12638
▁इतेि	-12639
▁जनकः	-12640
▁निगद	-12641
▁पशवः	-12642
▁पुरू	-12643
▁मनुज	-12644
▁महाक	-12645
▁मासः	-12646
▁सुचि	-12647
धिकरणं	-12648
धुंकाः	-12649
पूर्णं	-12650
भ्यासः	-12651
मनुष्य	-12652
मूर्ति	-12653
व्याधि	-12654
साधनम्	-12655
सूत्रं	-12656
ितव्यं	-12657
▁उद्यम	-12658
▁गतेषु	-12659
▁गायति	-12660
▁डोमेन	-12661
▁बर्हि	-12662
▁महामु	-12663
▁योगेन	-12664
▁रश्मि	-12665
▁रामेण	-12666
▁वाराण	-12667
▁व्याज	-12668
संबन्धः	-12669
सूक्ष्म	-12670
ानुग्रह	-12671
▁अग्नेः	-12672
▁अभिलाष	-12673
▁उत्थाय	-12674
▁ऊर्द्ध	-12675
▁कथयस्व	-12676
▁किमर्थ	-12677
▁नराणां	-12678
▁पर्यवे	-12679
▁पर्युप	-12680
▁पूर्वम	-12681
▁प्रमाद	-12682
▁बहुभिः	-12683
▁विविधं	-12684
▁श्रुते	-12685
▁सिन्धु	-12686
निरपेक्ष	-12687
▁अन्यस्य	-12688
▁ग्रन्था	-12689
▁जनार्दन	-12690
▁तत्सर्व	-12691
▁वार्त्त	-12692
▁सृष्टिः	-12693
▁ऐतिहासिक	-12694
▁तस्मान्न	-12695
▁पुनःपुनः	-12696
▁प्रदीयते	-12697
▁भविष्यत्	-12698
▁भावार्थः	-12699
▁स्थानेषु	-12700
▁कार्यविधि	-12701
▁वर्षसहस्र	-12702
▁प्रतिज्ञां	-12703
▁प्रतिषिद्ध	-12704
▁बहुव्रीहिः	-12705
98	-12706
ौघ	-12707
ram	-12708
vii	-12709
जयः	-12710
यर्	-12711
वधि	-12712
▁(7	-12713
▁[।	-12714
तान्	-12715
तापि	-12716
नमेव	-12717
न्दं	-12718
मिसं	-12719
वन्द	-12720
वारः	-12721
वेदि	-12722
ांशं	-12723
ोऽयम	-12724
▁अये	-12725
▁एहि	-12726
▁ण्य	-12727
▁फट्	-12728
▁रेत	-12729
क्तुं	-12730
चित्य	-12731
पित्त	-12732
भावाद	-12733
विहीन	-12734
संहित	-12735
सागरे	-12736
्यापि	-12737
▁आश्व	-12738
▁तुरी	-12739
▁देशो	-12740
▁दे॒व	-12741
▁नायक	-12742
ग्रस्त	-12743
ङ्कारः	-12744
त्वेना	-12745
पदानां	-12746
योर्वि	-12747
विभाषा	-12748
▁गानाः	-12749
▁पाञ्च	-12750
▁यद्वि	-12751
▁वाद्य	-12752
▁विजयं	-12753
▁षष्ठे	-12754
च्चित्र	-12755
परामर्श	-12756
श्राद्ध	-12757
▁अर्हसि	-12758
▁क्लिक्	-12759
▁तिस्रो	-12760
▁पठितम्	-12761
▁पाण्डु	-12762
▁पुरस्त	-12763
▁प्रताप	-12764
▁शकुन्त	-12765
▁शत्रुं	-12766
▁संन्या	-12767
▁अवधारणा	-12768
▁करिष्या	-12769
▁कृच्छ्र	-12770
▁दर्शनम्	-12771
▁नित्यशः	-12772
▁यायेमाः	-12773
▁समुद्री	-12774
विवर्जितः	-12775
▁जन्मान्त	-12776
▁थज्याःगु	-12777
▁वर्णानां	-12778
▁विशिष्टं	-12779
शास्त्रस्य	-12780
▁अपर्याप्त	-12781
▁पुरुषाणां	-12782
▁विद्यमानं	-12783
▁सर्वेषामेव	-12784
क़	-12785
.05	-12786
गणा	-12787
फ्ट	-12788
वृष	-12789
▁चक	-12790
▁शॊ	-12791
च्वः	-12792
तायै	-12793
दाया	-12794
धारय	-12795
महोद	-12796
र्कं	-12797
र्लि	-12798
लाभं	-12799
शुल्	-12800
षष्ट	-12801
▁(5)	-12802
▁खरी	-12803
▁थें	-12804
▁रिव	-12805
▁वचो	-12806
गत्या	-12807
चेतसः	-12808
मुद्ध	-12809
विमान	-12810
षीणां	-12811
सूक्त	-12812
ाद्यं	-12813
ुद्धं	-12814
ृत्तं	-12815
▁आद्य	-12816
▁इन्ध	-12817
▁कृती	-12818
▁गेहे	-12819
▁मेरो	-12820
▁यूरो	-12821
▁यौवन	-12822
▁शिथि	-12823
▁श्रृ	-12824
▁संतु	-12825
▁सरला	-12826
▁२०११	-12827
प्रश्न	-12828
भाष्ये	-12829
भेदात्	-12830
मुद्रा	-12831
शतैरपि	-12832
▁अप्य्	-12833
▁आभासी	-12834
▁परमेश	-12835
▁फलेषु	-12836
▁रक्षि	-12837
▁वक्तु	-12838
▁विष्ट	-12839
▁सम्रा	-12840
कर्तुम्	-12841
भूतानां	-12842
▁अनेकाः	-12843
▁अभियान	-12844
▁इंडियन	-12845
▁उक्ताः	-12846
▁नारायण	-12847
▁निवसति	-12848
▁मुक्ता	-12849
▁यद्यत्	-12850
▁सभायां	-12851
निर्माणं	-12852
साक्षात्	-12853
ान्वितम्	-12854
▁क्षमस्व	-12855
▁विस्तृत	-12856
▁स्वकर्म	-12857
क्षेत्रम्	-12858
▁अवश्यमेव	-12859
▁गुरुत्वा	-12860
▁चन्द्रमा	-12861
▁पार्थिवः	-12862
▁व्याघ्रः	-12863
▁स्मर्यते	-12864
▁पृष्टवान्	-12865
▁साम्राज्य	-12866
▁परमेश्वरम्	-12867
▁सम्प्राप्त	-12868
ON	-12869
दँ	-12870
६७	-12871
पाश	-12872
भये	-12873
मुं	-12874
वेग	-12875
साइ	-12876
erse	-12877
पादः	-12878
यानि	-12879
ागार	-12880
ातीत	-12881
▁करं	-12882
▁गभी	-12883
▁जैन	-12884
▁पङ्	-12885
▁परव	-12886
▁रजो	-12887
▁हूँ	-12888
धारणे	-12889
प्रेष	-12890
बन्धं	-12891
भोक्त	-12892
यामहे	-12893
रहितं	-12894
शीघ्र	-12895
सन्धि	-12896
▁Indi	-12897
▁अञ्ज	-12898
▁दिशा	-12899
▁धीरः	-12900
▁रीति	-12901
▁वांछ	-12902
▁समाच	-12903
क्ष्वा	-12904
ख्याति	-12905
त्यादौ	-12906
परिमाण	-12907
मण्डलं	-12908
लम्ब्य	-12909
वृत्तौ	-12910
ष्टुप्	-12911
ायन्ते	-12912
▁इतीदं	-12913
▁उपसङ्	-12914
▁उपाधि	-12915
▁एकदेश	-12916
▁चेदपि	-12917
▁मायां	-12918
▁शिरसि	-12919
▁सुहृद	-12920
▁सूचित	-12921
▁हत्या	-12922
दृष्टिः	-12923
प्रदेशः	-12924
वाक्येन	-12925
स्थापना	-12926
ान्यत्र	-12927
▁तत्राह	-12928
▁तस्वीर	-12929
▁निषेधः	-12930
▁प्रष्ट	-12931
▁बहुविध	-12932
▁मिलियन	-12933
▁राममोह	-12934
▁विवादः	-12935
▁शुक्रः	-12936
▁श्रुता	-12937
▁श्रेयो	-12938
▁सत्यपि	-12939
▁हृदयेन	-12940
भ्यर्च्य	-12941
▁निवेश्य	-12942
▁प्रकरणे	-12943
▁प्रथमतः	-12944
▁स्पेनिश	-12945
प्रयत्नेन	-12946
▁अप्राप्त	-12947
▁प्रपद्ये	-12948
▁मनुष्याः	-12949
र्भविष्यति	-12950
▁निर्मितम्	-12951
▁पुरुषार्थ	-12952
▁समुद्रस्य	-12953
▁क्षेत्रज्ञ	-12954
▁प्राधान्येन	-12955
ty	-12956
उत	-12957
घर	-12958
९७	-12959
-19	-12960
ong	-12961
ree	-12962
xxx	-12963
तेव	-12964
थुइ	-12965
दनं	-12966
नये	-12967
पा०	-12968
रवः	-12969
शनं	-12970
सना	-12971
▁Qu	-12972
▁इड	-12973
▁खा	-12974
▁चू	-12975
▁थन	-12976
▁लै	-12977
indi	-12978
निधि	-12979
पयति	-12980
लान्	-12981
शीला	-12982
स्को	-12983
▁कुट	-12984
▁फला	-12985
▁भजे	-12986
▁लप्	-12987
▁लाव	-12988
▁वच्	-12989
▁शनि	-12990
▁सतो	-12991
क्षम्	-12992
देवाः	-12993
द्वैत	-12994
धत्ते	-12995
धेयम्	-12996
मेतद्	-12997
विधिक	-12998
संवाद	-12999
स्यसे	-13000
ेष्वा	-13001
▁2011	-13002
▁अवसर	-13003
▁आसीत	-13004
▁गर्ह	-13005
▁तर्ज	-13006
▁त्वः	-13007
▁पाप्	-13008
▁मर्म	-13009
▁महद्	-13010
▁सापि	-13011
▁हेतो	-13012
▁२०१२	-13013
प्रीति	-13014
मीडिया	-13015
रूपस्य	-13016
वृत्तः	-13017
समुच्च	-13018
ितायाः	-13019
▁कोऽयं	-13020
▁तृप्त	-13021
▁त्रिः	-13022
▁मूलतः	-13023
▁यौवने	-13024
▁रावणः	-13025
▁राशिः	-13026
▁विषयो	-13027
▁श्येन	-13028
व्यक्तं	-13029
संरक्षण	-13030
स्तस्मा	-13031
▁अनिश्च	-13032
▁कस्याः	-13033
▁क्षणिक	-13034
▁गृहेषु	-13035
▁दूरस्थ	-13036
▁भर्त्त	-13037
▁यज्ञेन	-13038
▁रात्रे	-13039
▁समानम्	-13040
▁सांप्र	-13041
▁हवामहे	-13042
न्तरिक्ष	-13043
▁कर्णाटक	-13044
▁गन्धर्व	-13045
▁चलचित्र	-13046
▁त्वदीयं	-13047
▁प्रत्यव	-13048
▁प्रश्ने	-13049
▁भगवन्तं	-13050
▁विनाशाय	-13051
▁सप्ताहं	-13052
▁समृद्धि	-13053
▁स्थापित	-13054
▁स्वप्नं	-13055
▁इदानीमपि	-13056
▁कार्येषु	-13057
▁किञ्चिद्	-13058
▁कुर्याद्	-13059
▁ख्रीष्टा	-13060
▁दृष्ट्या	-13061
▁निवसन्ति	-13062
▁पश्चात्त	-13063
▁समीक्ष्य	-13064
▁सूत्रस्य	-13065
प्रसङ्गात्	-13066
▁क्रीडन्ति	-13067
▁प्रतिषेधो	-13068
▁प्रतीक्षते	-13069
32	-13070
37	-13071
IT	-13072
ञि	-13073
धृ	-13074
हण	-13075
६३	-13076
९९	-13077
ont	-13078
किल	-13079
जत्	-13080
पशु	-13081
भवो	-13082
भुज	-13083
वाँ	-13084
सया	-13085
ूबर	-13086
ेर्	-13087
▁एफ	-13088
▁थी	-13089
▁मथ	-13090
▁वव	-13091
▁ऽव	-13092
----	-13093
गात्	-13094
जाता	-13095
णापि	-13096
दिषु	-13097
ध्वे	-13098
निरी	-13099
यन्न	-13100
र्चा	-13101
र्णा	-13102
स्तृ	-13103
ागतं	-13104
▁अनौ	-13105
▁करः	-13106
▁चान	-13107
▁तमु	-13108
▁थथे	-13109
▁नभः	-13110
▁नोद	-13111
▁पाट	-13112
▁बली	-13113
▁रूढ	-13114
▁र्म	-13115
▁विं	-13116
▁सुध	-13117
▁हते	-13118
▁हुं	-13119
oldid	-13120
कुम्भ	-13121
क्षरा	-13122
जीवने	-13123
नासिक	-13124
माणां	-13125
स्नेह	-13126
्यंति	-13127
▁2010	-13128
▁उपसं	-13129
▁न्हि	-13130
▁यदहं	-13131
▁यदेव	-13132
▁वश्य	-13133
▁सेयं	-13134
▁स्मा	-13135
दुर्लभ	-13136
श्लेषण	-13137
ादृष्ट	-13138
ेश्वरो	-13139
▁अश्वः	-13140
▁आवर्त	-13141
▁क्षणा	-13142
▁पिष्ट	-13143
▁महाबल	-13144
▁राघवः	-13145
च्छन्ति	-13146
न्यायेन	-13147
मिन्द्र	-13148
सूत्रेण	-13149
▁एकवारं	-13150
▁एतत्ते	-13151
▁ग्रामः	-13152
▁पर्व्व	-13153
▁पिबेत्	-13154
▁पूर्णः	-13155
▁विभागे	-13156
▁वैवस्व	-13157
▁शताब्द	-13158
▁सहस्रा	-13159
▁सुगन्ध	-13160
▁स्मरति	-13161
▁उपयुज्य	-13162
▁काङ्क्ष	-13163
▁निवेद्य	-13164
▁बालिकाः	-13165
▁योगदानं	-13166
▁राजभाषा	-13167
▁विन्दति	-13168
▁अध्यात्म	-13169
▁प्रमाणेन	-13170
▁मातृभाषा	-13171
▁समन्तात्	-13172
▁सर्वधर्म	-13173
▁सम्भवन्ति	-13174
▁प्रतिदिनम्	-13175
28	-13176
35	-13177
ww	-13178
षम	-13179
िद	-13180
दिल	-13181
भयो	-13182
भवत	-13183
रुद	-13184
श्न	-13185
संस	-13186
ापू	-13187
ोऽह	-13188
▁Ab	-13189
▁TV	-13190
▁आठ	-13191
▁उन	-13192
कमपि	-13193
ङ्गम	-13194
दिवं	-13195
पण्ड	-13196
शैली	-13197
सूची	-13198
ावयव	-13199
ावरण	-13200
ाहार	-13201
▁जाण	-13202
▁न्व	-13203
▁पिं	-13204
▁बध्	-13205
▁भवि	-13206
▁रिप	-13207
▁र्य	-13208
▁लट्	-13209
▁लवण	-13210
▁वेष	-13211
▁संद	-13212
▁ऽसि	-13213
त्तमा	-13214
त्येत	-13215
नगरम्	-13216
न्तीं	-13217
भाषाः	-13218
भिर्न	-13219
शेषेण	-13220
स्वाद	-13221
िकाम्	-13222
ेण्ड्	-13223
्यादौ	-13224
▁कैके	-13225
▁खःसा	-13226
▁चरति	-13227
▁भवनं	-13228
▁मेधा	-13229
▁यजते	-13230
▁यूनि	-13231
▁ल्या	-13232
▁वाङ्	-13233
▁षड्व	-13234
▁सुते	-13235
▁सुदु	-13236
▁हसति	-13237
ध्यायं	-13238
ोक्तिः	-13239
▁अपमान	-13240
▁कामना	-13241
▁कारये	-13242
▁केचिद	-13243
▁क्षीण	-13244
▁जज्ञे	-13245
▁टक्के	-13246
▁तदेवं	-13247
▁निष्क	-13248
▁प्रसि	-13249
▁शङ्का	-13250
▁सलिलं	-13251
▁सहकार	-13252
▁हविर्	-13253
ज्ञानां	-13254
परिभाषा	-13255
▁ईश्वरं	-13256
▁कल्पित	-13257
▁ग्रामं	-13258
▁ज्ञाति	-13259
▁ततस्ते	-13260
▁दिनेषु	-13261
▁प्रदोष	-13262
▁युक्ता	-13263
▁सर्ववि	-13264
पार्श्वे	-13265
▁कुर्वते	-13266
▁कृतार्थ	-13267
▁दर्शितः	-13268
▁दिनाङ्क	-13269
▁प्रमुखः	-13270
▁प्रान्त	-13271
▁यथाकामं	-13272
▁यथान्या	-13273
▁दक्षिणतः	-13274
▁महेश्वरः	-13275
▁अभिप्रायः	-13276
▁क्रियन्ते	-13277
▁द्रष्टव्यः	-13278
▁प्रकाशितम्	-13279
▁भविष्यवाणी	-13280
▁प्रतिपाद्यते	-13281
▁प्रतिष्ठितम्	-13282
ho	-13283
ठि	-13284
॑य	-13285
७३	-13286
..)	-13287
hab	-13288
गमा	-13289
तैव	-13290
याँ	-13291
रनु	-13292
रवे	-13293
लीं	-13294
ल्फ	-13295
▁->	-13296
▁41	-13297
▁an	-13298
▁जह	-13299
▁टो	-13300
▁पन	-13301
काला	-13302
न्नत	-13303
पुरी	-13304
राद्	-13305
लाभः	-13306
ानिव	-13307
ोऽति	-13308
▁Nar	-13309
▁गान	-13310
▁ठञ्	-13311
▁पाच	-13312
▁मौन	-13313
▁वशे	-13314
▁सतत	-13315
▁समो	-13316
कृपया	-13317
दत्ते	-13318
नामपि	-13319
प्युप	-13320
भिलाष	-13321
र्पणं	-13322
लब्धि	-13323
श्रया	-13324
सारेण	-13325
स्वरः	-13326
ृत्ति	-13327
ेष्व्	-13328
▁किमी	-13329
▁कौशल	-13330
▁पादे	-13331
▁लाभे	-13332
▁वाला	-13333
▁विसृ	-13334
▁सकला	-13335
चत्वार	-13336
दर्शना	-13337
प्राति	-13338
योगस्य	-13339
र्जितं	-13340
▁title	-13341
▁अरण्य	-13342
▁नद्या	-13343
▁नयेत्	-13344
▁नियाम	-13345
▁पश्यत	-13346
▁भगवति	-13347
▁भावेन	-13348
▁लागिं	-13349
▁वर्षः	-13350
▁शीतलं	-13351
पुत्रेण	-13352
संबन्धि	-13353
▁अर्जुन	-13354
▁इङ्ग्ल	-13355
▁कृष्णा	-13356
▁ग्लानि	-13357
▁ज्ञाता	-13358
▁न्यवेद	-13359
▁मध्यमे	-13360
▁महिलाः	-13361
▁स्वादु	-13362
कर्तव्यं	-13363
प्रमाणेन	-13364
मन्त्र्य	-13365
▁अभ्यासः	-13366
▁खोजषब्द	-13367
▁गन्तव्य	-13368
▁त्रिविध	-13369
▁दुर्योध	-13370
▁दृष्ट्व	-13371
▁निद्रां	-13372
▁परस्परा	-13373
▁समुद्रं	-13374
▁साध्यते	-13375
▁सुवर्णं	-13376
▁स्थातुं	-13377
▁स्वकीयं	-13378
▁अनुकूलता	-13379
▁पूर्वस्य	-13380
▁पृच्छामि	-13381
▁प्रारब्ध	-13382
▁वर्ण्यते	-13383
▁विशिष्टा	-13384
▁साक्षाद्	-13385
▁सामर्थ्य	-13386
▁निवृत्तिः	-13387
▁व्यवस्थित	-13388
▁स्थापयेत्	-13389
▁कस्मिंश्चित्	-13390
पल	-13391
▁:	-13392
gle	-13393
गाम	-13394
मरु	-13395
लने	-13396
▁55	-13397
▁To	-13398
कृतौ	-13399
चिते	-13400
नीयो	-13401
ब्धे	-13402
भक्ष	-13403
भागो	-13404
रत्न	-13405
ल्स्	-13406
वाणि	-13407
ष्णे	-13408
▁अह्	-13409
▁उन्	-13410
▁चयन	-13411
▁नवं	-13412
▁पु॒	-13413
▁मतु	-13414
▁माः	-13415
▁वैय	-13416
▁ह्व	-13417
जन्ति	-13418
ज्ज्व	-13419
ण्डले	-13420
द्धुं	-13421
पर्वत	-13422
बलात्	-13423
भिचार	-13424
मुखम्	-13425
रूपाय	-13426
ाग्नी	-13427
ान्ना	-13428
▁post	-13429
▁एकां	-13430
▁कायः	-13431
▁ग्रे	-13432
▁तुला	-13433
▁धनुः	-13434
▁धियो	-13435
▁मरणे	-13436
▁माधव	-13437
▁मेरु	-13438
▁रागः	-13439
▁सामा	-13440
कर्ण्य	-13441
देवताः	-13442
शिष्टा	-13443
ानुमान	-13444
ान्त्य	-13445
ित्येव	-13446
▁अभिने	-13447
▁एकवचन	-13448
▁क्रमे	-13449
▁पौर्ण	-13450
▁भद्रे	-13451
▁यद्य्	-13452
क्षायां	-13453
ब्रुवन्	-13454
मास्थाय	-13455
▁कारयति	-13456
▁किमिदं	-13457
▁जित्वा	-13458
▁त्यजति	-13459
▁त्विति	-13460
▁निपाति	-13461
▁नृत्यं	-13462
▁न्हूगु	-13463
▁प्रव्र	-13464
▁ब्रूते	-13465
▁भक्तिः	-13466
▁लेखनम्	-13467
▁शिक्षक	-13468
▁शिष्यः	-13469
▁समासतः	-13470
▁सर्वसं	-13471
▁स्तौति	-13472
गच्छन्ति	-13473
दृष्ट्वा	-13474
निवृत्ति	-13475
स्त्रिंश	-13476
▁कुर्युः	-13477
▁दिसम्बर	-13478
▁प्राग्व	-13479
▁लिखितम्	-13480
▁वस्त्रं	-13481
▁वार्ताल	-13482
▁सापेक्ष	-13483
▁स्वनिगः	-13484
▁कृष्णस्य	-13485
▁ग्राह्यं	-13486
▁जिज्ञासा	-13487
▁प्रसन्नः	-13488
▁क्रयविक्र	-13489
▁प्रमुच्यते	-13490
▁प्राप्तवती	-13491
▁भारतीयानां	-13492
47	-13493
नृ	-13494
ूद	-13495
८८	-13496
▁^	-13497
▁॒	-13498
ial	-13499
out	-13500
ure	-13501
कुट	-13502
चीन	-13503
टिल	-13504
ताड	-13505
थेन	-13506
धाई	-13507
मिः	-13508
यॊः	-13509
षाम	-13510
सोः	-13511
ावय	-13512
ोनि	-13513
▁गर	-13514
▁छो	-13515
▁मघ	-13516
▁७७	-13517
▁९४	-13518
edia	-13519
धात्	-13520
प्रम	-13521
यनम्	-13522
युतः	-13523
ष्वा	-13524
स्तथ	-13525
ासम्	-13526
▁12.	-13527
▁आशु	-13528
▁कटु	-13529
▁गाः	-13530
▁जवा	-13531
▁तेव	-13532
▁तोय	-13533
▁पीय	-13534
▁पेन	-13535
त्मने	-13536
धिकाः	-13537
प्रसू	-13538
मायाः	-13539
र्घ्य	-13540
वानसि	-13541
श्रमे	-13542
ोऽयम्	-13543
्येत्	-13544
▁कारु	-13545
▁केतु	-13546
▁जीवा	-13547
▁जीवो	-13548
▁त्वे	-13549
▁विदध	-13550
▁सकार	-13551
▁२०१९	-13552
▁२०७५	-13553
कल्याण	-13554
ङ्गानि	-13555
नामानि	-13556
श्चेत्	-13557
श्रितः	-13558
▁अग्नी	-13559
▁उचितं	-13560
▁निःसं	-13561
▁पश्चा	-13562
▁यावता	-13563
▁साहसं	-13564
द्रव्या	-13565
ादीनाम्	-13566
▁ऑनलाइन	-13567
▁काव्ये	-13568
▁कृत्यं	-13569
▁दत्तम्	-13570
▁दीर्घो	-13571
▁पात्रे	-13572
▁प्रबोध	-13573
▁मुख्यः	-13574
▁लोकसभा	-13575
▁विक्रम	-13576
▁संवर्ध	-13577
▁साध्यं	-13578
वृत्त्या	-13579
▁अन्यतमः	-13580
▁अस्पताल	-13581
▁आवश्यकं	-13582
▁नास्त्य	-13583
▁पश्येत्	-13584
▁युद्धम्	-13585
▁वातावरण	-13586
▁विधिवत्	-13587
▁विविधाः	-13588
▁सत्यमेव	-13589
▁सान्त्व	-13590
क्ष्यन्ति	-13591
▁क्रान्ति	-13592
▁क्रियमाण	-13593
▁गुणवत्ता	-13594
▁तदुक्तम्	-13595
▁रेस्तरां	-13596
▁विज्ञेयः	-13597
प्रतिषेधेन	-13598
▁क्रियमाणे	-13599
▁प्रचक्षते	-13600
▁प्रादेशिक	-13601
▁व्याचष्टे	-13602
▁प्रतिष्ठाप	-13603
▁प्रवर्तन्ते	-13604
▁अन्तर्भवन्ति	-13605
90	-13606
CT	-13607
IS	-13608
ex	-13609
ॊध	-13610
।2	-13611
iew	-13612
किः	-13613
नवी	-13614
नेट	-13615
वंक	-13616
शया	-13617
शैल	-13618
ावी	-13619
ितर	-13620
▁3)	-13621
▁कह	-13622
▁दव	-13623
▁बस	-13624
icle	-13625
त्रः	-13626
देहे	-13627
द्धो	-13628
बाधा	-13629
भूतम	-13630
र्णः	-13631
वेदा	-13632
षष्ठ	-13633
सत्व	-13634
ृण्व	-13635
▁आफ्	-13636
▁रजः	-13637
▁रथा	-13638
▁रिज	-13639
▁वहे	-13640
करोमि	-13641
चरितं	-13642
त्येन	-13643
त्वमा	-13644
भ्योऽ	-13645
र्दूल	-13646
र्धेन	-13647
वाहनः	-13648
विशत्	-13649
स्याऽ	-13650
▁खँय्	-13651
▁चराच	-13652
▁जुलै	-13653
▁धेहि	-13654
▁रञ्ज	-13655
▁रुधि	-13656
▁लघुः	-13657
▁शर्क	-13658
▁शुरु	-13659
▁सच्च	-13660
▁समाय	-13661
▁सामु	-13662
▁हीति	-13663
भवन्ति	-13664
विद्यु	-13665
▁अनेका	-13666
▁अस्थि	-13667
▁आंग्ल	-13668
▁इदमपि	-13669
▁कथंचन	-13670
▁चरितं	-13671
▁चेतसा	-13672
▁तत्पर	-13673
▁पुरतो	-13674
▁प्रदु	-13675
▁हस्ता	-13676
निश्चयः	-13677
मश्नुते	-13678
शब्दात्	-13679
स्तर्हि	-13680
▁कर्मसु	-13681
▁ततस्तु	-13682
▁नृणाम्	-13683
▁पञ्चाश	-13684
▁यजमानः	-13685
▁राज्ञे	-13686
▁समासेन	-13687
▁अन्यानि	-13688
▁गच्छेत्	-13689
▁गर्भवती	-13690
▁द्विजात	-13691
▁पिबन्ति	-13692
▁प्रधाना	-13693
▁मात्राः	-13694
▁संक्रमण	-13695
▁अद्यत्वे	-13696
▁क्वचिदपि	-13697
▁भुक्त्वा	-13698
▁सूक्ष्मा	-13699
▁चिन्तयेत्	-13700
▁परमात्मनः	-13701
▁एवमुक्त्वा	-13702
▁प्रयोजयेत्	-13703
▁भारतदेशस्य	-13704
▁यानाच्वंगु	-13705
▁स्वीक्रियते	-13706
AN	-13707
उन	-13708
पच	-13709
ूँ	-13710
८६	-13711
.12	-13712
ood	-13713
ook	-13714
धने	-13715
पेश	-13716
रिह	-13717
शीन	-13718
ैकः	-13719
॒तः	-13720
०२०	-13721
▁tr	-13722
▁ऊं	-13723
▁मॊ	-13724
▁सज	-13725
उच्च	-13726
करणः	-13727
ख्यो	-13728
दोषं	-13729
परिक	-13730
मासः	-13731
र्दु	-13732
वादं	-13733
वासं	-13734
श्लि	-13735
समाज	-13736
सारः	-13737
सारे	-13738
्यतः	-13739
▁Pro	-13740
▁तिङ	-13741
▁पं॰	-13742
▁शपथ	-13743
णामपि	-13744
तार्थ	-13745
दिग्ध	-13746
धर्मं	-13747
धारणं	-13748
प्रदा	-13749
भक्तः	-13750
भागेन	-13751
भाषां	-13752
▁आम्र	-13753
▁तदीय	-13754
▁देशी	-13755
▁धाता	-13756
▁नदीं	-13757
▁पक्व	-13758
▁मूले	-13759
▁मैथि	-13760
▁लॊके	-13761
कीर्ति	-13762
पीएससी	-13763
प्रातः	-13764
ालयस्य	-13765
▁आश्रय	-13766
▁गुरुं	-13767
▁तिरस्	-13768
▁पुष्य	-13769
▁भयात्	-13770
▁मस्ति	-13771
▁सनातन	-13772
▁सन्तो	-13773
▁सस्ते	-13774
युक्तेन	-13775
विधानम्	-13776
संयुतम्	-13777
▁गृहस्य	-13778
▁चतुर्द	-13779
▁जीवस्य	-13780
▁तद्योग	-13781
▁प्रियो	-13782
▁बन्धुः	-13783
▁भ्रष्ट	-13784
▁मेदिनी	-13785
▁योगिनः	-13786
▁विग्रह	-13787
▁व्यासः	-13788
▁संख्ये	-13789
▁क्षमताः	-13790
▁चित्रम्	-13791
▁तूष्णीं	-13792
▁द्विविध	-13793
▁परमेष्ठ	-13794
▁परिहरति	-13795
▁प्रकाशन	-13796
▁विकल्पो	-13797
▁विज्ञात	-13798
▁सैनिकाः	-13799
▁Sanskrit	-13800
▁कृत्स्नं	-13801
▁परिच्छेद	-13802
▁याज्ञवल्	-13803
▁व्यतिरेक	-13804
▁स्थापयति	-13805
▁प्रतिपत्त	-13806
▁वक्ष्यमाण	-13807
▁प्रचोदयात्	-13808
▁निर्दिश्यते	-13809
▁निर्मितमस्ति	-13810
ूम	-13811
॑न	-13812
loc	-13813
कूट	-13814
तोष	-13815
नते	-13816
रवि	-13817
रेख	-13818
लेप	-13819
वचः	-13820
्तः	-13821
▁$1	-13822
▁Un	-13823
▁गई	-13824
कुत्	-13825
कुसु	-13826
गर्ह	-13827
जितः	-13828
द्रः	-13829
द्रे	-13830
धानः	-13831
ध्यो	-13832
राम्	-13833
रेखा	-13834
व्यु	-13835
शियन	-13836
ान्म	-13837
ाल्ल	-13838
ावती	-13839
ृम्भ	-13840
ेऽहं	-13841
▁उदय	-13842
▁घटो	-13843
▁तदप	-13844
▁ल्ह	-13845
▁वरद	-13846
▁हल्	-13847
केवलं	-13848
क्षिप	-13849
ख्याः	-13850
गतस्य	-13851
गुणाः	-13852
ञ्चति	-13853
द्भुत	-13854
बान्ध	-13855
भिरेव	-13856
वचनेन	-13857
ीयमान	-13858
▁उदार	-13859
▁कमलः	-13860
▁चण्ड	-13861
▁तमसो	-13862
▁पल्ल	-13863
▁यजेत	-13864
▁रयिं	-13865
▁रामं	-13866
▁शीलं	-13867
जन्मनि	-13868
द्व्या	-13869
ध्ययनं	-13870
विष्टा	-13871
शताब्द	-13872
शासनम्	-13873
श्विना	-13874
स्वामी	-13875
ितमिति	-13876
्याश्च	-13877
▁Shlok	-13878
▁अद्यत	-13879
▁आर्या	-13880
▁करणीय	-13881
▁गार्ह	-13882
▁छन्दो	-13883
▁तदिति	-13884
▁द्रुत	-13885
▁मार्क	-13886
▁यत्नं	-13887
▁लब्धा	-13888
▁लुप्त	-13889
▁वणिक्	-13890
▁विशां	-13891
▁षष्टि	-13892
▁संगीत	-13893
दर्शनेन	-13894
▁क्रिके	-13895
▁जानीमः	-13896
▁तादृशी	-13897
▁पर्वता	-13898
▁प्रजात	-13899
▁बध्यते	-13900
▁सुकृतं	-13901
सम्बन्धः	-13902
▁आरभ्यते	-13903
▁कथयामास	-13904
▁जनानाम्	-13905
▁त्यजेत्	-13906
▁त्वामेव	-13907
▁निर्गुण	-13908
▁मनुष्ये	-13909
▁विलक्षण	-13910
▁शरुत्वा	-13911
▁सम्पादन	-13912
▁सुन्दरं	-13913
▁सुन्दरः	-13914
▁स्वगृहं	-13915
त्युच्यते	-13916
▁विचक्षणः	-13917
▁सम्बन्धो	-13918
▁साक्षरता	-13919
न्द्रियाणि	-13920
▁पुरस्तात्	-13921
▁प्रश्नस्य	-13922
▁प्रोक्ताः	-13923
▁निवर्तन्ते	-13924
▁सुप्रभातम्	-13925
▁कर्त्तव्यम्	-13926
ue	-13927
ंअ	-13928
जम	-13929
यस	-13930
॒म	-13931
.18	-13932
ube	-13933
दिं	-13934
लैः	-13935
लोड	-13936
ऽति	-13937
▁८३	-13938
कादि	-13939
गिरि	-13940
देवि	-13941
निकः	-13942
यंति	-13943
रागः	-13944
र्हृ	-13945
हीनो	-13946
ावान	-13947
▁XXX	-13948
▁एवे	-13949
▁तवे	-13950
▁पवन	-13951
▁पीव	-13952
▁बरा	-13953
▁लयं	-13954
▁सनि	-13955
▁सिर	-13956
▁१०९	-13957
कृतां	-13958
जनस्य	-13959
तामपि	-13960
त्वाय	-13961
निर्ग	-13962
न्यम्	-13963
पृथिव	-13964
राक्ष	-13965
लोचनः	-13966
विष्ठ	-13967
स्मार	-13968
ित्री	-13969
▁अतोऽ	-13970
▁अनाम	-13971
▁उपधा	-13972
▁कामो	-13973
▁दाने	-13974
▁नीलं	-13975
▁पदवी	-13976
▁पीड़	-13977
▁भ्रा	-13978
▁मयाः	-13979
▁लाभं	-13980
▁लेभे	-13981
चिन्ता	-13982
त्यनेन	-13983
निवर्त	-13984
रूपिणी	-13985
र्त्ति	-13986
विष्णु	-13987
स्त्या	-13988
स्पर्ध	-13989
▁अन्वि	-13990
▁अव्या	-13991
▁आगतम्	-13992
▁आगताः	-13993
▁काम्य	-13994
▁नामतः	-13995
▁प्रमे	-13996
▁भूगोल	-13997
▁रुग्ण	-13998
▁साभार	-13999
▁स्वये	-14000
द्रव्यं	-14001
▁अनुभवः	-14002
▁उल्लिख	-14003
▁चाक्षु	-14004
▁धारयति	-14005
▁पदानां	-14006
▁परमात्	-14007
▁बहुवचन	-14008
▁भक्तिं	-14009
▁युक्तो	-14010
▁व्यत्य	-14011
▁शुद्धि	-14012
▁समर्था	-14013
▁समाप्य	-14014
गृह्णाति	-14015
न्द्रितः	-14016
ितपुस्तक	-14017
▁क्वचिद्	-14018
▁भुञ्जीत	-14019
▁यन्त्रं	-14020
▁सिंहस्य	-14021
▁अपृच्छत्	-14022
▁कर्तृत्व	-14023
▁कर्त्तुं	-14024
▁ज्योतिर्	-14025
▁भवितव्यं	-14026
▁युक्त्या	-14027
▁सम्भावना	-14028
▁सामान्या	-14029
▁सौभाग्यं	-14030
▁अमेरिकाया	-14031
▁निर्माणम्	-14032
▁विरुध्यते	-14033
66	-14034
िह	-14035
▁Z	-14036
अथा	-14037
गमय	-14038
गां	-14039
तुर	-14040
नय्	-14041
नेव	-14042
पदो	-14043
रतो	-14044
षति	-14045
सदा	-14046
ृशं	-14047
▁am	-14048
▁ऋ०	-14049
▁औप	-14050
port	-14051
क्वः	-14052
चर्य	-14053
ज्ये	-14054
णानि	-14055
धिको	-14056
रूपी	-14057
ल्पं	-14058
ल्बि	-14059
ेण्ड	-14060
ेतां	-14061
▁500	-14062
▁अवा	-14063
▁मये	-14064
▁महत	-14065
▁रहः	-14066
▁रिक	-14067
▁वरण	-14068
करणेन	-14069
क्तिक	-14070
गुरुः	-14071
ग्रही	-14072
चूर्ण	-14073
नुष्ठ	-14074
बन्धु	-14075
विहित	-14076
संपाद	-14077
ान्यो	-14078
▁more	-14079
▁असत्	-14080
▁उच्य	-14081
▁कौरव	-14082
▁तवैव	-14083
▁दथुइ	-14084
▁पीते	-14085
▁ब्या	-14086
▁मदीय	-14087
▁ल्यु	-14088
▁वैया	-14089
▁संगण	-14090
▁सप्र	-14091
▁समयो	-14092
▁समार	-14093
▁२०७४	-14094
▁२०७६	-14095
देशात्	-14096
पन्नम्	-14097
परिहार	-14098
महोदयः	-14099
संयुतः	-14100
साध्यं	-14101
स्पष्ट	-14102
▁अतिशय	-14103
▁कर्णः	-14104
▁कर्हि	-14105
▁गन्धं	-14106
▁जपेत्	-14107
▁देवान	-14108
▁धूम्र	-14109
▁नार्थ	-14110
▁नृपति	-14111
▁परन्त	-14112
▁राजान	-14113
▁साध्व	-14114
▁ह्ययं	-14115
मण्डलम्	-14116
वेक्ष्य	-14117
श्रित्य	-14118
▁अनुमति	-14119
▁ईश्वरो	-14120
▁कथितम्	-14121
▁किलोमी	-14122
▁दशलक्ष	-14123
▁नित्यम	-14124
▁पच्यते	-14125
▁परित्र	-14126
▁परिषद्	-14127
▁पानीयं	-14128
▁विपुलं	-14129
▁विवाहे	-14130
▁वृक्षा	-14131
▁शुद्धः	-14132
▁सप्तमः	-14133
▁समागतः	-14134
▁अयोध्या	-14135
▁निर्मीत	-14136
▁परित्या	-14137
▁प्रियतम	-14138
▁प्रीतिः	-14139
▁प्रेरणा	-14140
▁यात्रां	-14141
▁वैकुण्ठ	-14142
▁संवत्सर	-14143
▁संस्थया	-14144
▁सदस्याः	-14145
▁समुद्रः	-14146
प्रत्ययेन	-14147
▁जनार्दनः	-14148
▁तस्मात्त	-14149
▁परिदृश्य	-14150
▁प्रत्युप	-14151
▁प्रश्नाः	-14152
▁प्राप्तौ	-14153
▁विज्ञेयं	-14154
▁श्रुत्या	-14155
सर्वकारस्य	-14156
▁पूजयित्वा	-14157
▁प्रविष्टा	-14158
▁पुरुषोत्तम	-14159
▁प्रकीर्तितः	-14160
▁प्रतिक्रिया	-14161
▁प्राप्यन्ते	-14162
▁सामानाधिकरण	-14163
▁मन्त्रिपरिषद्	-14164
49	-14165
बू	-14166
ser	-14167
गान	-14168
त्न	-14169
फले	-14170
वरे	-14171
कुली	-14172
ग्मु	-14173
न्यत	-14174
भवम्	-14175
मङ्ग	-14176
मुदी	-14177
यद्य	-14178
र्भू	-14179
स्रा	-14180
ासुर	-14181
ुरेव	-14182
▁अद्	-14183
▁आरु	-14184
▁तेष	-14185
▁निभ	-14186
▁रोप	-14187
▁शरव	-14188
काश्च	-14189
द्विज	-14190
पूवंक	-14191
यामपि	-14192
स्फुट	-14193
हिंसा	-14194
ाण्या	-14195
ादर्श	-14196
ावान्	-14197
▁2009	-14198
▁आज्य	-14199
▁कान्	-14200
▁गवेष	-14201
▁गाथा	-14202
▁गौतम	-14203
▁तमसा	-14204
▁दहति	-14205
▁नकार	-14206
▁पन्न	-14207
▁पयसा	-14208
▁पूजन	-14209
▁बालो	-14210
▁मानि	-14211
▁शर्व	-14212
▁शाला	-14213
▁शोभा	-14214
▁श्ले	-14215
▁२००९	-14216
च्छाया	-14217
त्तरम्	-14218
मन्यथा	-14219
ल्लङ्घ	-14220
सिद्धं	-14221
ात्प्र	-14222
▁आकाशः	-14223
▁उक्तो	-14224
▁कृषकः	-14225
▁थुकिं	-14226
▁द्वयो	-14227
▁पुनरे	-14228
▁म्रिय	-14229
▁श्वास	-14230
▁संवेद	-14231
▁सकर्म	-14232
▁सात्व	-14233
अमेरिका	-14234
भक्त्या	-14235
▁उद्घोष	-14236
▁उद्यान	-14237
▁एकाधिक	-14238
▁कुक्कु	-14239
▁कृत्या	-14240
▁गरीयसी	-14241
▁गृहीतः	-14242
▁तीर्थं	-14243
▁दीर्घं	-14244
▁दुर्भि	-14245
▁पुत्रौ	-14246
▁भूकम्प	-14247
▁भोक्ता	-14248
▁म्हिगः	-14249
▁यत्प्र	-14250
▁वह्निः	-14251
▁शत्रवः	-14252
▁श्लोके	-14253
▁सत्यां	-14254
▁सम्मिल	-14255
▁स्थावर	-14256
▁हृदयम्	-14257
प्राप्तौ	-14258
बुद्ध्या	-14259
▁अग्निर्	-14260
▁इत्यर्थ	-14261
▁एतदर्थं	-14262
▁एतादृशः	-14263
▁कुर्याद	-14264
▁ग्रन्थे	-14265
▁नेपाःया	-14266
▁ब्रह्मण	-14267
▁रक्षितः	-14268
▁वस्तुनः	-14269
▁वाक्येन	-14270
▁समुद्रा	-14271
▁सर्वस्व	-14272
▁इत्याद्य	-14273
▁उत्तराणि	-14274
▁देवानाम्	-14275
▁निर्मितं	-14276
▁भारतवर्ष	-14277
▁सूत्राणि	-14278
▁प्रार्थयते	-14279
▁विकिमीडिया	-14280
▁व्यक्तित्व	-14281
▁व्याख्यानं	-14282
▁इत्यभिधीयते	-14283
▁तच्छ्रुत्वा	-14284
AL	-14285
चू	-14286
िप	-14287
काे	-14288
निज	-14289
ेशो	-14290
▁53	-14291
▁आइ	-14292
▁एह	-14293
▁झट	-14294
क्रु	-14295
मुखा	-14296
युता	-14297
राणे	-14298
रोधे	-14299
स्तन	-14300
स्फु	-14301
हर्ष	-14302
▁अंत	-14303
▁नाड	-14304
▁पृत	-14305
▁येऽ	-14306
▁वा॒	-14307
▁वैध	-14308
▁सहस	-14309
▁सास	-14310
जिज्ञ	-14311
न्तां	-14312
न्निव	-14313
मांसा	-14314
र्द्द	-14315
शुक्र	-14316
स्याव	-14317
्वलय्	-14318
▁आप्त	-14319
▁इमाः	-14320
▁एनम्	-14321
▁णिच्	-14322
▁दबाव	-14323
▁द्रौ	-14324
▁धीरो	-14325
▁नाशः	-14326
▁भीतः	-14327
▁मृगा	-14328
▁मृषा	-14329
▁मैसू	-14330
▁मोहं	-14331
▁वालि	-14332
ख्याने	-14333
त्वमपि	-14334
भूतस्य	-14335
मुत्तर	-14336
विष्टो	-14337
स्मरणं	-14338
▁अन्ना	-14339
▁अभिषे	-14340
▁असमान	-14341
▁गच्छे	-14342
▁निर्य	-14343
▁बरह्म	-14344
▁मत्तः	-14345
▁रुद्ध	-14346
▁विराट	-14347
▁सङ्घट	-14348
क्रुद्ध	-14349
श्चिन्त	-14350
सूत्रम्	-14351
▁अग्रिम	-14352
▁इत्यतो	-14353
▁करणीया	-14354
▁करवाणि	-14355
▁क्षणम्	-14356
▁दृश्या	-14357
▁नद्यां	-14358
▁प्रकटी	-14359
▁समादाय	-14360
▁साधनम्	-14361
▁सैन्यं	-14362
▁स्थायी	-14363
स्थानेषु	-14364
ैश्वर्यं	-14365
▁पूर्णम्	-14366
▁भाषायाः	-14367
▁योजयेत्	-14368
▁सूच्यते	-14369
▁स्वप्नो	-14370
▁क्रुद्धः	-14371
▁प्रत्याह	-14372
▁भवन्तीति	-14373
▁भविष्यतः	-14374
▁राज्यानि	-14375
क्षेत्रेषु	-14376
▁विद्वांसः	-14377
▁संहितायां	-14378
▁सामान्यतो	-14379
▁क्षेत्रस्य	-14380
▁प्रकाश्यते	-14381
▁सर्वकारस्य	-14382
▁नपुंसकलिङ्ग	-14383
▁सर्वदेवानां	-14384
▁गुरुत्वाकर्षण	-14385
="	-14386
}}	-14387
एल	-14388
दद	-14389
पश	-14390
हल	-14391
९४	-14392
.14	-14393
all	-14394
ave	-14395
तपः	-14396
नता	-14397
ाणु	-14398
ारम	-14399
ावस	-14400
ेनो	-14401
ोऽन	-14402
▁लृ	-14403
▁षि	-14404
कलाप	-14405
चरित	-14406
धानि	-14407
परीत	-14408
मृतं	-14409
मेका	-14410
र्थि	-14411
लोपो	-14412
ल्गु	-14413
वृते	-14414
शीति	-14415
ष्मः	-14416
हापि	-14417
ांशे	-14418
्मनि	-14419
▁अनं	-14420
▁अली	-14421
▁ओली	-14422
▁कुछ	-14423
▁छेँ	-14424
▁हलः	-14425
▁१०१	-14426
णार्थ	-14427
मुच्च	-14428
वन्ति	-14429
वायुः	-14430
ेऽप्य	-14431
▁अरुण	-14432
▁एकाद	-14433
▁चर्म	-14434
▁त्रु	-14435
▁पालन	-14436
▁पोषण	-14437
▁मयैव	-14438
▁यज्ज	-14439
▁सारं	-14440
▁हितः	-14441
▁होमः	-14442
▁ह्यु	-14443
पुरुषे	-14444
विचारः	-14445
व्यापक	-14446
संशयम्	-14447
ात्मनि	-14448
▁ज्याय	-14449
▁निमेष	-14450
▁प्रसु	-14451
▁बहुलं	-14452
▁बिभ्र	-14453
▁महात्	-14454
▁स्वकं	-14455
▁स्वम्	-14456
सम्पुटः	-14457
▁आत्मनो	-14458
▁उपासते	-14459
▁जनताया	-14460
▁जीविते	-14461
▁त्राहि	-14462
▁द्रुतं	-14463
▁निसर्ग	-14464
▁पतन्ति	-14465
▁प्राणी	-14466
▁भीमसेन	-14467
▁मानुषं	-14468
▁मित्रे	-14469
▁यद्यहं	-14470
▁विनिर्	-14471
▁सन्त्य	-14472
▁समुचित	-14473
▁अभिनन्द	-14474
▁ऐश्वर्य	-14475
▁दातव्यं	-14476
▁न्यसेत्	-14477
▁न्ह्यसः	-14478
▁प्रकरणं	-14479
▁प्रारंभ	-14480
▁रक्षणाय	-14481
▁वृत्तिं	-14482
▁व्यतिरे	-14483
▁स्त्रिय	-14484
▁स्वप्नः	-14485
▁स्वीकार	-14486
सम्बद्धाः	-14487
▁उपयोगिता	-14488
▁नित्यमेव	-14489
▁परस्मैपद	-14490
▁प्रतिरोध	-14491
सम्भाषणम्ः	-14492
▁किञ्चिदपि	-14493
▁दुर्भाग्य	-14494
▁प्रकाशयति	-14495
▁सर्वकारेण	-14496
▁जुयाच्वंगु	-14497
▁ध्यानाकर्षण	-14498
▁उपसङ्ख्यानम्	-14499
▁अन्तर्राष्ट्रिय	-14500
2,	-14501
26	-14502
].	-14503
az	-14504
ईः	-14505
झा	-14506
सस	-14507
९६	-14508
els	-14509
कमा	-14510
गिर	-14511
धयः	-14512
नमः	-14513
नेह	-14514
न्ड	-14515
सतः	-14516
ायण	-14517
▁1,	-14518
▁By	-14519
▁दॆ	-14520
▁पॉ	-14521
▁मख	-14522
कथाः	-14523
कयोः	-14524
केति	-14525
धीते	-14526
शात्	-14527
श्चन	-14528
ऽन्य	-14529
▁करौ	-14530
▁जार	-14531
▁ततस	-14532
▁पुच	-14533
▁वि॰	-14534
▁सि०	-14535
▁११०	-14536
oogle	-14537
ज्ञैः	-14538
त्तथा	-14539
धर्मो	-14540
धिपति	-14541
न्दसि	-14542
भावतः	-14543
मग्नि	-14544
रूपतः	-14545
वन्तं	-14546
वाद्य	-14547
शालां	-14548
श्रमः	-14549
सदृशं	-14550
िवर्ष	-14551
▁अश्र	-14552
▁उक्थ	-14553
▁कमलं	-14554
▁कुरू	-14555
▁चेदं	-14556
▁त्वय	-14557
▁थाय्	-14558
▁दृढ़	-14559
▁पुणे	-14560
▁प्ला	-14561
▁बाधा	-14562
▁बारे	-14563
▁भावी	-14564
▁वनाः	-14565
▁विनय	-14566
कारकम्	-14567
चक्षते	-14568
पिनिगु	-14569
यन्त्य	-14570
लक्षणो	-14571
स्थायी	-14572
▁अक्टो	-14573
▁अव्य०	-14574
▁आकारः	-14575
▁काण्ड	-14576
▁कुशलः	-14577
▁कूर्म	-14578
▁तत्सं	-14579
▁धातवः	-14580
▁बालाः	-14581
▁मद्यं	-14582
▁महिमा	-14583
▁युवती	-14584
▁हस्तः	-14585
पश्चात्	-14586
पूर्वशः	-14587
मित्येव	-14588
रिष्यते	-14589
वार्षिक	-14590
▁अभीष्ट	-14591
▁क्षमां	-14592
▁क्षीरं	-14593
▁गम्भीर	-14594
▁जानीहि	-14595
▁दर्शना	-14596
▁पुत्रि	-14597
▁भिक्षा	-14598
▁भिन्नः	-14599
▁भिन्ना	-14600
▁मंत्रि	-14601
▁मानसिक	-14602
▁मार्च्	-14603
▁रणनीति	-14604
▁वैद्यः	-14605
▁शक्ताः	-14606
▁श्रुणु	-14607
▁संघर्ष	-14608
मिष्यामि	-14609
मुक्त्वा	-14610
▁अस्मासु	-14611
▁किञ्चिद	-14612
▁जानकारी	-14613
▁नेपालय्	-14614
▁मर्यादा	-14615
▁वासुदेव	-14616
▁समागताः	-14617
सर्वकारेण	-14618
▁Download	-14619
▁मण्डलस्य	-14620
▁यास्यामि	-14621
▁यूपीएससी	-14622
▁व्यवहारे	-14623
▁आगमिष्यति	-14624
▁वाक्यार्थ	-14625
▁सिध्यन्ति	-14626
▁पृथक्पृथक्	-14627
▁स्वर्गलोके	-14628
);	-14629
-*	-14630
88	-14631
उद	-14632
खर	-14633
जप	-14634
fin	-14635
hat	-14636
णों	-14637
भते	-14638
मवि	-14639
मसं	-14640
षेण	-14641
िकल	-14642
▁(8	-14643
▁Te	-14644
▁मः	-14645
▁मॆ	-14646
▁रत	-14647
▁रॊ	-14648
▁शन	-14649
चरणं	-14650
तुर्	-14651
धारि	-14652
धारी	-14653
परया	-14654
मनाः	-14655
र्ते	-14656
र्षु	-14657
वर्च	-14658
विष्	-14659
शतम्	-14660
सुरा	-14661
स्तत	-14662
िकाल	-14663
ितुम	-14664
ीर्य	-14665
ोद्य	-14666
▁दिं	-14667
▁नरं	-14668
▁वधू	-14669
ative	-14670
करणाय	-14671
गृहम्	-14672
गोत्र	-14673
त्योः	-14674
द्भवः	-14675
द्यदि	-14676
पूजां	-14677
भिधाय	-14678
मानतः	-14679
ल्लेख	-14680
वन्तो	-14681
स्तुत	-14682
ऽभवत्	-14683
ित्थं	-14684
ोक्ते	-14685
▁आशयः	-14686
▁एकता	-14687
▁तयोर	-14688
▁दशमे	-14689
▁बधाई	-14690
▁बालं	-14691
▁मेरा	-14692
▁यादव	-14693
▁वाल्	-14694
▁वासो	-14695
▁साहस	-14696
▁२००६	-14697
समृद्ध	-14698
स्वीरः	-14699
▁अथर्व	-14700
▁अवसरः	-14701
▁एकैकं	-14702
▁गुजरा	-14703
▁नामकः	-14704
▁परलोक	-14705
▁वल्लभ	-14706
▁वह्नौ	-14707
▁शिशुं	-14708
▁शुष्क	-14709
▁स्वरा	-14710
नक्षत्र	-14711
विशुद्ध	-14712
सिद्धेः	-14713
▁अव्ययी	-14714
▁उभयत्र	-14715
▁जग्राह	-14716
▁ज्ञातु	-14717
▁तत्कथं	-14718
▁नेवाःत	-14719
▁पार्टी	-14720
▁पुनर्य	-14721
▁पेट्रो	-14722
▁महोदया	-14723
▁संभवतः	-14724
क्रान्तं	-14725
▁अन्यच्च	-14726
▁उल्लेखः	-14727
▁कुरुष्व	-14728
▁निरन्तर	-14729
▁विक्षेप	-14730
▁विद्यया	-14731
▁वेदानां	-14732
▁स्फुटम्	-14733
▁ग्राह्या	-14734
▁प्रधानम्	-14735
▁प्रसन्नो	-14736
▁मुक्त्वा	-14737
▁शब्दानां	-14738
▁समन्वितः	-14739
▁धर्मात्मा	-14740
▁यथान्यायं	-14741
न्द्रियाणां	-14742
▁संप्राप्ते	-14743
▁विकिपीडियाः	-14744
▁प्रतिपादितम्	-14745
45	-14746
मण	-14747
ूट	-14748
१अ	-14749
ach	-14750
चये	-14751
चान	-14752
जसः	-14753
दाम	-14754
प्ट	-14755
मैः	-14756
▁70	-14757
▁कच	-14758
▁कश	-14759
▁नञ	-14760
जाम्	-14761
णामा	-14762
धिनः	-14763
नाहं	-14764
न्दी	-14765
न्यु	-14766
पाकि	-14767
मिवा	-14768
विरा	-14769
शस्य	-14770
ष्णो	-14771
सूया	-14772
ादाय	-14773
▁Mar	-14774
▁Res	-14775
▁अगर	-14776
▁कवी	-14777
▁जयं	-14778
▁धाल	-14779
▁बिं	-14780
▁मदा	-14781
▁ष्ठ	-14782
▁सिक	-14783
▁सीद	-14784
▁११८	-14785
ग्मुः	-14786
दधाति	-14787
दर्शी	-14788
नेनैव	-14789
न्नेव	-14790
प्रास	-14791
मभवत्	-14792
शत्रु	-14793
श्वरं	-14794
ावसरे	-14795
▁2000	-14796
▁2008	-14797
▁एवाह	-14798
▁किति	-14799
▁चीना	-14800
▁नाशय	-14801
▁पूरण	-14802
▁भारं	-14803
▁भूति	-14804
▁मृतं	-14805
▁रोगः	-14806
▁लण्ड	-14807
▁वल्ल	-14808
▁सुखे	-14809
गतानां	-14810
र्थेषु	-14811
ानाञ्च	-14812
ानुवाच	-14813
▁कल्पे	-14814
▁छन्दः	-14815
▁पाषाण	-14816
▁पूर्त	-14817
▁बहिर्	-14818
▁बिउगु	-14819
▁याचते	-14820
▁विनाय	-14821
▁विमृश	-14822
▁शिवाय	-14823
▁सहभाग	-14824
धिष्ठान	-14825
ब्रह्मा	-14826
विभागेन	-14827
स्मभ्यं	-14828
▁अत्राह	-14829
▁अनेनैव	-14830
▁अन्यैः	-14831
▁गच्छतु	-14832
▁देवेशि	-14833
▁प्रभाग	-14834
▁राजकीय	-14835
▁श्रवणे	-14836
▁समग्रं	-14837
▁स्थापय	-14838
▁हुत्वा	-14839
क्रान्तः	-14840
प्रदानेन	-14841
रिष्यामि	-14842
▁अङ्गस्य	-14843
▁कांग्रे	-14844
▁दुर्लभा	-14845
▁पत्न्या	-14846
▁पृथिवीप	-14847
▁बोध्यम्	-14848
▁शीघ्रम्	-14849
राष्ट्रीय	-14850
▁कर्तव्ये	-14851
▁निर्माता	-14852
▁पूर्णतया	-14853
▁दृष्टिकोण	-14854
▁युष्माभिः	-14855
▁द्यावापृथिव	-14856
▁सर्वोत्कृष्ट	-14857
uk	-14858
गृ	-14859
भॊ	-14860
लत	-14861
शॊ	-14862
॑ष	-14863
७९	-14864
-->	-14865
aus	-14866
iss	-14867
ग्य	-14868
तयो	-14869
तोप	-14870
बिल	-14871
याऽ	-14872
सनि	-14873
सलि	-14874
ेषं	-14875
्ते	-14876
▁गह	-14877
▁जठ	-14878
▁नॊ	-14879
किरण	-14880
लोको	-14881
वतार	-14882
हेतो	-14883
ांशु	-14884
ानेव	-14885
्रते	-14886
▁अफ्	-14887
▁कंस	-14888
▁कल्	-14889
▁तैर	-14890
▁धनी	-14891
▁प्य	-14892
▁भका	-14893
▁भयम	-14894
▁माँ	-14895
▁रंग	-14896
▁रसं	-14897
▁लॊक	-14898
▁वाथ	-14899
▁वोढ	-14900
▁सवे	-14901
▁हिन	-14902
क्षति	-14903
त्त्य	-14904
धानेन	-14905
न्येव	-14906
पादान	-14907
मुखाः	-14908
र्क्ष	-14909
र्षिः	-14910
विषयक	-14911
ष्मान	-14912
स्याप	-14913
ूर्ति	-14914
ोपनिष	-14915
▁Exam	-14916
▁Slok	-14917
▁अनभि	-14918
▁एकूण	-14919
▁काशी	-14920
▁चाभि	-14921
▁दशधा	-14922
▁दिति	-14923
▁नद्य	-14924
▁नासा	-14925
▁पराश	-14926
▁भुवन	-14927
▁मात्	-14928
▁रताः	-14929
▁लीला	-14930
▁विद्	-14931
▁शयने	-14932
▁संसद	-14933
▁सुधा	-14934
▁२००७	-14935
पुरुषं	-14936
प्सितं	-14937
शक्तिं	-14938
्यमानं	-14939
▁Video	-14940
▁आसमां	-14941
▁एतत्स	-14942
▁एतन्म	-14943
▁काञ्च	-14944
▁कुष्ठ	-14945
▁जायेत	-14946
▁जिन्व	-14947
▁धीराः	-14948
▁प्यार	-14949
▁यौवनं	-14950
▁वनवास	-14951
▁संचाल	-14952
▁साधना	-14953
▁सीतया	-14954
प्रकारः	-14955
मन्तरेण	-14956
मिदानीं	-14957
ात्मकम्	-14958
ाद्वीपे	-14959
ानुबन्ध	-14960
▁कर्मफल	-14961
▁न्यूनी	-14962
▁पापस्य	-14963
▁पुराणं	-14964
▁प्रेरण	-14965
▁मुक्तो	-14966
▁मुद्दे	-14967
▁यच्छति	-14968
▁युष्मद	-14969
युक्तस्य	-14970
▁दृष्टिं	-14971
▁पत्राणि	-14972
▁पश्चिमा	-14973
▁भावानां	-14974
▁वनस्पति	-14975
▁विचक्षण	-14976
प्रतिबन्ध	-14977
▁Category	-14978
▁त्रिज्या	-14979
▁पुष्पाणि	-14980
▁संपद्यते	-14981
▁स्वतंत्र	-14982
▁स्वरूपम्	-14983
▁गन्तव्यम्	-14984
▁निरीक्ष्य	-14985
▁प्रतिभूति	-14986
▁प्रार्थये	-14987
▁प्रेक्ष्य	-14988
▁सम्बन्धमा	-14989
▁सर्वशक्ति	-14990
▁परिकीर्तितः	-14991
▁प्रत्यक्षेण	-14992
▁भवितुमर्हति	-14993
▁चिह्नितपुस्तक	-14994
▁रिक्तस्थानानि	-14995
cc	-14996
७८	-14997
कृष	-14998
णैः	-14999
नों	-15000
पती	-15001
मेघ	-15002
यों	-15003
वरण	-15004
वरि	-15005
वाल	-15006
हत्	-15007
ीतं	-15008
ेतद	-15009
▁डु	-15010
▁मफ	-15011
▁मर	-15012
▁षा	-15013
▁८२	-15014
▁९६	-15015
ज्जन	-15016
धारं	-15017
मभ्य	-15018
मानस	-15019
मालि	-15020
रितं	-15021
ल्ड्	-15022
वसान	-15023
वाया	-15024
स्थौ	-15025
ैक्य	-15026
्यात	-15027
▁195	-15028
▁App	-15029
▁tag	-15030
▁अवत	-15031
▁असह	-15032
▁उपर	-15033
▁घटक	-15034
▁चास	-15035
▁पिव	-15036
▁महद	-15037
▁ल्व	-15038
▁वसे	-15039
▁वॉल	-15040
▁सुग	-15041
▁ऽभि	-15042
त्तम्	-15043
निसें	-15044
पक्षि	-15045
बद्धः	-15046
भिर्म	-15047
भेदतः	-15048
मन्ये	-15049
र्च्च	-15050
िकाया	-15051
▁इस्र	-15052
▁एवोप	-15053
▁किरण	-15054
▁गर्द	-15055
▁घंटे	-15056
▁चाटु	-15057
▁जज्ञ	-15058
▁जातौ	-15059
▁परैः	-15060
▁माना	-15061
▁योगा	-15062
▁रवेः	-15063
▁शीतो	-15064
▁सर्ज	-15065
▁२०१७	-15066
क्षणीय	-15067
द्वर्ष	-15068
मात्रः	-15069
विषयम्	-15070
स्वरेण	-15071
्यमिति	-15072
▁अथेहे	-15073
▁अनयोः	-15074
▁अभ्यु	-15075
▁आभूषण	-15076
▁किसान	-15077
▁गोष्ठ	-15078
▁त्रयं	-15079
▁धात्र	-15080
▁परितो	-15081
▁प्रसह	-15082
▁वच्मि	-15083
▁वानरः	-15084
▁वृश्च	-15085
▁सङ्गण	-15086
पूर्वम्	-15087
प्रेक्ष	-15088
मादित्य	-15089
र्चयेत्	-15090
ष्ट्रीय	-15091
▁अपवादः	-15092
▁चतुर्ण	-15093
▁तथाप्य	-15094
▁द्वारे	-15095
▁नास्ती	-15096
▁निश्चय	-15097
▁परिचार	-15098
▁प्रतिब	-15099
▁वहन्ति	-15100
▁विभज्य	-15101
▁व्यस्त	-15102
▁शुल्कः	-15103
▁समीपम्	-15104
▁स्वयाः	-15105
संस्कृति	-15106
▁आरोग्यं	-15107
▁गायन्ति	-15108
▁जीवानां	-15109
▁त्वामहं	-15110
▁प्रवेशे	-15111
▁प्राजाप	-15112
▁भद्राणि	-15113
▁मित्रेण	-15114
▁विशेषणं	-15115
▁विश्वम्	-15116
▁विष्णुं	-15117
▁संपूज्य	-15118
▁सम्भाषण	-15119
परिवर्तनं	-15120
▁अन्वेषणं	-15121
▁विश्वानि	-15122
▁सन्दर्भः	-15123
▁स्त्रीषु	-15124
▁स्मृत्वा	-15125
विकिपीडिया	-15126
स्वातन्त्र	-15127
▁अनुसन्धान	-15128
▁पाश्चात्य	-15129
▁इत्यत्रापि	-15130
▁स्वर्गादपि	-15131
▁प्रायश्चित्तं	-15132
48	-15133
97	-15134
AM	-15135
९८	-15136
▁‖	-15137
ged	-15138
orn	-15139
तीह	-15140
भाई	-15141
षेः	-15142
ापी	-15143
॒तं	-15144
▁PM	-15145
▁मग	-15146
▁वज	-15147
over	-15148
कीयः	-15149
क्रं	-15150
त्सं	-15151
दीन्	-15152
न्यै	-15153
मद्य	-15154
मस्त	-15155
यिनः	-15156
र्चि	-15157
स्वे	-15158
हिंस	-15159
ैतद्	-15160
▁उमा	-15161
▁ओम्	-15162
▁गरी	-15163
▁गोः	-15164
▁दवि	-15165
▁दि॒	-15166
▁नाल	-15167
▁लिङ	-15168
▁लेन	-15169
▁शते	-15170
▁संर	-15171
▁हाल	-15172
ख्याय	-15173
जन्यः	-15174
माद्य	-15175
मार्थ	-15176
यन्तो	-15177
शासनं	-15178
ष्टकं	-15179
सामाज	-15180
स्नान	-15181
ान्दो	-15182
ैतानि	-15183
▁उद्व	-15184
▁उर्व	-15185
▁गानं	-15186
▁तिसृ	-15187
▁धिया	-15188
▁भगवन	-15189
▁भारः	-15190
▁रघुः	-15191
▁रतिं	-15192
▁संसृ	-15193
▁समम्	-15194
▁समया	-15195
ज्ञाते	-15196
पूजितः	-15197
प्रचार	-15198
प्रथमा	-15199
भ्यन्त	-15200
स्यानु	-15201
▁कृतिः	-15202
▁कृषिः	-15203
▁गोपाय	-15204
▁घृतेन	-15205
▁त्वेव	-15206
▁देहली	-15207
▁पठामि	-15208
▁यतोहि	-15209
▁लङ्का	-15210
▁वीक्ष	-15211
▁समूहे	-15212
▁सुझाव	-15213
पद्धतिः	-15214
स्थितिं	-15215
्येतानि	-15216
▁अग्रतः	-15217
▁आयुष्म	-15218
▁उन्नति	-15219
▁चतुष्ट	-15220
▁प्रदान	-15221
▁महामते	-15222
▁विकारः	-15223
▁वृद्धो	-15224
▁संसारः	-15225
विशेषात्	-15226
शब्दानां	-15227
▁एप्रिल्	-15228
▁कक्ष्या	-15229
▁गन्तुम्	-15230
▁नृत्यति	-15231
▁मृत्योः	-15232
▁राक्षसः	-15233
▁वेतनमान	-15234
▁समस्यते	-15235
▁स्पष्टी	-15236
▁औद्योगिक	-15237
▁गृह्णामि	-15238
▁चिन्तयति	-15239
▁देवदत्तः	-15240
▁पूर्वत्र	-15241
▁प्रत्युत	-15242
▁प्रशान्त	-15243
▁प्राणिनः	-15244
▁मानचित्र	-15245
▁अग्निष्टो	-15246
▁निरूप्यते	-15247
▁निर्देशकः	-15248
▁पाकिस्थान	-15249
▁मातापितरौ	-15250
▁विद्यमानः	-15251
▁सम्पूर्णं	-15252
▁चतुर्विंशति	-15253
▁धर्मार्थकाम	-15254
">	-15255
31	-15256
ee	-15257
tt	-15258
अल	-15259
इं	-15260
▁›	-15261
कवच	-15262
गैः	-15263
जले	-15264
ड्र	-15265
णीः	-15266
नाट	-15267
नुं	-15268
म्̇	-15269
र्फ	-15270
विच	-15271
शति	-15272
शाप	-15273
ुके	-15274
ेषि	-15275
ैषि	-15276
ोऽय	-15277
॑म्	-15278
▁Or	-15279
▁he	-15280
▁णः	-15281
▁षो	-15282
▁०५	-15283
▁९२	-15284
inal	-15285
दृशी	-15286
द्मि	-15287
नाशः	-15288
न्त्	-15289
भाग्	-15290
मतिं	-15291
मनसः	-15292
मादौ	-15293
युगं	-15294
रीति	-15295
रुपं	-15296
र्भग	-15297
समयः	-15298
ामृत	-15299
ैषां	-15300
▁Jul	-15301
▁आनय	-15302
▁आपण	-15303
▁गदा	-15304
▁टाइ	-15305
▁ड्र	-15306
▁तुष	-15307
▁मपि	-15308
▁ममे	-15309
▁शाय	-15310
चक्रं	-15311
निर्ध	-15312
न्यतर	-15313
भूतिः	-15314
योजनं	-15315
रवर्ण	-15316
स्तृत	-15317
ऽस्तु	-15318
ानगरे	-15319
्रियं	-15320
▁अर्क	-15321
▁आधिक	-15322
▁आलोक	-15323
▁आसनं	-15324
▁इन्द	-15325
▁इमम्	-15326
▁औषधि	-15327
▁कच्च	-15328
▁कुली	-15329
▁चिद्	-15330
▁झीगु	-15331
▁टङ्क	-15332
▁दूतः	-15333
▁परया	-15334
▁परिप	-15335
▁पाठं	-15336
▁पानं	-15337
▁पापे	-15338
▁पृश्	-15339
▁मंगल	-15340
▁मनूत	-15341
▁मय्य	-15342
▁लिटि	-15343
▁वदसि	-15344
▁वाता	-15345
▁वैरि	-15346
▁सहते	-15347
▁स्व॒	-15348
▁ऽसमि	-15349
ध्यापक	-15350
न्ताम्	-15351
बिन्दु	-15352
श्चिद्	-15353
स्वित्	-15354
्यामहे	-15355
्रियाः	-15356
▁अथातो	-15357
▁अपत्य	-15358
▁अर्थो	-15359
▁उपायं	-15360
▁जनतां	-15361
▁जिह्व	-15362
▁पञ्चम	-15363
▁भेदाः	-15364
▁यत्रा	-15365
▁यस्मि	-15366
▁विभाष	-15367
▁विसृज	-15368
▁सेवेत	-15369
▁स्वजन	-15370
त्यन्तं	-15371
वृत्तिं	-15372
व्यतिरे	-15373
व्यपदेश	-15374
स्थापनं	-15375
स्वरूपे	-15376
ात्म्यं	-15377
ेष्यामि	-15378
▁अन्याय	-15379
▁गृहीतं	-15380
▁तापमान	-15381
▁दूषयति	-15382
▁निषेधा	-15383
▁पश्यतु	-15384
▁पाठात्	-15385
▁प्रच्छ	-15386
▁बाह्यं	-15387
▁यजन्ते	-15388
▁राजानो	-15389
▁रिपोर्	-15390
▁सङ्गृह	-15391
क्षिपेत्	-15392
▁एतादृशी	-15393
▁कार्त्त	-15394
▁कुर्व्व	-15395
▁चत्वारो	-15396
▁दोषाणां	-15397
▁पुण्डरी	-15398
▁प्रवर्ध	-15399
▁प्राक्त	-15400
▁योगिनां	-15401
▁लक्ष्मण	-15402
▁सङ्ग्रह	-15403
▁सुषुप्त	-15404
▁स्मृत्य	-15405
सम्बन्धेन	-15406
▁अन्योन्य	-15407
▁तत्प्रति	-15408
▁प्रकाशकः	-15409
▁यथाक्रमं	-15410
▁वार्षिको	-15411
▁शुभकामना	-15412
▁श्रोत्रं	-15413
▁न्यायाधीश	-15414
▁ब्राह्मणः	-15415
▁सर्वेक्षण	-15416
▁क्षेत्रेषु	-15417
▁विद्यालयेषु	-15418
46	-15419
Re	-15420
of	-15421
ry	-15422
}*	-15423
200	-15424
ata	-15425
तस्	-15426
नति	-15427
निव	-15428
मुत	-15429
रोद	-15430
लान	-15431
शनः	-15432
साथ	-15433
हसः	-15434
हेन	-15435
ऽसि	-15436
िकर	-15437
ृहे	-15438
ेतु	-15439
▁65	-15440
▁90	-15441
]-->	-15442
क्कि	-15443
ङ्कं	-15444
पूरण	-15445
म्पि	-15446
र्हः	-15447
लिसे	-15448
स्कः	-15449
स्यथ	-15450
ह्यं	-15451
ायुध	-15452
ेद्व	-15453
्यास	-15454
▁--[	-15455
▁not	-15456
▁अखि	-15457
▁अपः	-15458
▁आसु	-15459
▁उदी	-15460
▁तदो	-15461
▁यमं	-15462
▁योध	-15463
▁शोण	-15464
▁ऽसौ	-15465
ज्ञेय	-15466
ताश्च	-15467
त्थान	-15468
नायकः	-15469
पन्नं	-15470
यज्ञः	-15471
ष्ठाः	-15472
स्तात	-15473
ापत्र	-15474
▁अनुस	-15475
▁अलिख	-15476
▁आवास	-15477
▁ईशान	-15478
▁एसटी	-15479
▁तदभि	-15480
▁नीला	-15481
▁नौका	-15482
▁भल्ल	-15483
▁रेतः	-15484
▁लभेत	-15485
▁लेखः	-15486
▁विपण	-15487
▁शतेन	-15488
▁२०१०	-15489
त्तरपद	-15490
त्सर्ग	-15491
दिक्षु	-15492
नास्ति	-15493
मायाति	-15494
यन्नाह	-15495
लब्धिः	-15496
वर्णनं	-15497
विग्रह	-15498
साध्या	-15499
ान्ताः	-15500
ापूर्व	-15501
्येत्य	-15502
▁एकाकि	-15503
▁जन्मा	-15504
▁धर्म्	-15505
▁परत्य	-15506
▁पार्ट	-15507
▁पुंसि	-15508
▁पोस्ट	-15509
▁प्रमो	-15510
▁यजेत्	-15511
▁वनेगु	-15512
▁समाया	-15513
▁सृजति	-15514
भावेऽपि	-15515
संविधान	-15516
ान्विते	-15517
▁अनुगमन	-15518
▁अर्थम्	-15519
▁एतद्वि	-15520
▁करितां	-15521
▁क्षतिः	-15522
▁क्षम्य	-15523
▁गृहाणि	-15524
▁जिल्ला	-15525
▁ज्ञानी	-15526
▁धनवान्	-15527
▁प्रायो	-15528
▁भाग्यं	-15529
▁समाहित	-15530
▁सुव्रत	-15531
न्द्रस्य	-15532
मित्यादि	-15533
▁आमन्त्र	-15534
▁एतादृशं	-15535
▁कौतूहलं	-15536
▁देव्याः	-15537
▁निरुद्ध	-15538
▁प्रभवति	-15539
▁श्रुत्व	-15540
▁समाप्तं	-15541
स्वास्थ्य	-15542
▁अन्यतमम्	-15543
▁अभयारण्य	-15544
▁कार्य्या	-15545
▁गणतन्त्र	-15546
▁दीर्घकाल	-15547
▁बृहस्पति	-15548
▁विज्ञेयो	-15549
▁व्याकरणं	-15550
▁क्षेत्रम्	-15551
▁वीर्यवान्	-15552
▁तत्क्षणात्	-15553
▁स्त्रियाम्	-15554
▁प्राप्तवन्तः	-15555
▁सम्प्रवक्ष्यामि	-15556
.6	-15557
ID	-15558
ok	-15559
जव	-15560
॑ण	-15561
।1	-15562
२अ	-15563
८५	-15564
ime	-15565
yle	-15566
yst	-15567
कोच	-15568
फ्र	-15569
भवा	-15570
म्न	-15571
ैतद	-15572
०१०	-15573
▁{{	-15574
▁दम	-15575
▁मण	-15576
▁य्	-15577
▁ित	-15578
ण्डः	-15579
दिकं	-15580
द्वौ	-15581
धीशः	-15582
नायै	-15583
परिण	-15584
प्रह	-15585
भाषी	-15586
वातः	-15587
व्यू	-15588
शक्य	-15589
िकैः	-15590
ोपास	-15591
्मना	-15592
▁रजत	-15593
▁लङ्	-15594
▁वोच	-15595
ग्नाः	-15596
दिव्य	-15597
महारा	-15598
राशिः	-15599
रूपां	-15600
र्माण	-15601
शतानि	-15602
श्रयं	-15603
िकारि	-15604
िकाले	-15605
▁अकाल	-15606
▁अत्त	-15607
▁आगतं	-15608
▁जानि	-15609
▁दम्प	-15610
▁दर्भ	-15611
▁धनते	-15612
▁धर्ष	-15613
▁भवने	-15614
▁माणव	-15615
▁विलि	-15616
▁शतम्	-15617
कर्मसु	-15618
कुर्या	-15619
चरन्ति	-15620
द्यांश	-15621
भागस्य	-15622
शुद्धि	-15623
ानन्दः	-15624
ान्तरम	-15625
ान्ताय	-15626
िरित्य	-15627
ीकरणम्	-15628
ेश्वरी	-15629
▁इत्यव	-15630
▁उपनिष	-15631
▁कृत्त	-15632
▁गर्भं	-15633
▁धन्यः	-15634
▁नत्वा	-15635
▁पिप्प	-15636
▁बुध्य	-15637
▁भक्तः	-15638
▁वर्णा	-15639
▁विदित	-15640
▁विभ्र	-15641
▁शोचति	-15642
▁संशयं	-15643
ज्ञायते	-15644
त्र्तते	-15645
पृष्ठम्	-15646
प्रकारं	-15647
प्रदर्श	-15648
बुध्यते	-15649
स्यन्ते	-15650
ोत्तमम्	-15651
▁अरण्ये	-15652
▁असमर्थ	-15653
▁इतोऽपि	-15654
▁इत्ययं	-15655
▁कश्मीर	-15656
▁कृष्णं	-15657
▁कृष्णो	-15658
▁चास्ति	-15659
▁तिस्रः	-15660
▁न्यूनं	-15661
▁पुत्रक	-15662
▁प्रणाल	-15663
▁प्रतिभ	-15664
▁भारतया	-15665
▁मह्यम्	-15666
▁विप्रः	-15667
▁शत्रुम	-15668
▁सुखस्य	-15669
▁स्थिरी	-15670
धर्माणां	-15671
प्रत्यया	-15672
प्रातिपद	-15673
वर्जितम्	-15674
▁अन्येषु	-15675
▁अभिवादन	-15676
▁आस्ताम्	-15677
▁क्रियया	-15678
▁खादन्ति	-15679
▁चमत्कार	-15680
▁द्वादशे	-15681
▁द्विर्व	-15682
▁बालकस्य	-15683
▁मुख्यतः	-15684
▁वाञ्छति	-15685
▁विवरणम्	-15686
▁व्यापाद	-15687
▁स्मरामि	-15688
▁अधोलिखित	-15689
▁कुर्य्या	-15690
▁चित्राणि	-15691
▁नियुक्तः	-15692
▁उदाहरणानि	-15693
▁संक्षिप्त	-15694
▁अन्तरिक्षं	-15695
▁अवशिष्टानि	-15696
▁पदार्थानां	-15697
▁श्रीकृष्णः	-15698
▁इत्यनुवर्तते	-15699
▁स्वातन्त्र्यं	-15700
कद	-15701
हव	-15702
_3_	-15703
ign	-15704
गोः	-15705
चरे	-15706
चैत	-15707
ट्र	-15708
तीर	-15709
द्ब	-15710
नुष	-15711
बाई	-15712
यैः	-15713
लकः	-15714
लील	-15715
शित	-15716
हतो	-15717
ेवर	-15718
▁1/	-15719
▁En	-15720
▁me	-15721
▁qu	-15722
▁ं९	-15723
▁जट	-15724
▁टन	-15725
▁ब्	-15726
▁वत	-15727
▁ह्	-15728
कुला	-15729
त्तव	-15730
द्रि	-15731
धारे	-15732
पालं	-15733
लुक्	-15734
ादाव	-15735
ैर्द	-15736
▁आइत	-15737
▁गोष	-15738
▁चाऽ	-15739
▁दमन	-15740
▁दशक	-15741
▁दाम	-15742
▁धाय	-15743
▁पौर	-15744
▁फिर	-15745
▁सरः	-15746
.....	-15747
काश्य	-15748
क्रमो	-15749
क्षमा	-15750
ख्यात	-15751
प्रेम	-15752
भुक्त	-15753
योऽपि	-15754
समूहः	-15755
सौन्द	-15756
स्थम्	-15757
स्वार	-15758
ानर्थ	-15759
▁कृणु	-15760
▁कृतम	-15761
▁जिगु	-15762
▁न्यु	-15763
▁फ्रे	-15764
▁बिना	-15765
▁भागो	-15766
▁मन्थ	-15767
▁व्री	-15768
▁स्तव	-15769
जानाति	-15770
दर्शनः	-15771
संहरति	-15772
स्तावे	-15773
स्नानं	-15774
ितायां	-15775
▁क्षुध	-15776
▁चरेत्	-15777
▁ज्वाल	-15778
▁तदापि	-15779
▁पश्या	-15780
▁पापम्	-15781
▁पापेन	-15782
▁भ्राम	-15783
▁मदीयं	-15784
▁मन्दं	-15785
▁शिरसा	-15786
▁स्वपि	-15787
▁ह्यहं	-15788
▁ह्येत	-15789
▁ह्येष	-15790
जीवनस्य	-15791
धुंकूगु	-15792
प्रश्नः	-15793
रिच्यते	-15794
संस्थान	-15795
स्याप्य	-15796
ानुगुणं	-15797
▁एतावत्	-15798
▁कालेषु	-15799
▁क्ङिति	-15800
▁गृहात्	-15801
▁जन्मना	-15802
▁तस्मिन	-15803
▁तृष्णा	-15804
▁धर्माः	-15805
▁वाल्मी	-15806
▁विवाहं	-15807
▁शस्यते	-15808
▁शाश्वत	-15809
▁समजायत	-15810
ज्ञात्वा	-15811
सामर्थ्य	-15812
▁अन्तरेण	-15813
▁ध्यानम्	-15814
▁भवन्त्य	-15815
▁यथेष्टं	-15816
▁सार्वभौ	-15817
▁स्फुरति	-15818
साम्राज्य	-15819
▁उच्यन्ते	-15820
▁दीर्घायु	-15821
▁दृश्यमान	-15822
▁परिभाषाः	-15823
▁प्रदर्शन	-15824
▁वर्तमानं	-15825
▁वातावरणं	-15826
▁व्यक्तिः	-15827
▁व्योम्नि	-15828
▁जनार्दनीं	-15829
▁बहुव्रीहौ	-15830
▁श्रीकृष्ण	-15831
▁सामर्थ्यं	-15832
▁कर्तव्यमिति	-15833
ES	-15834
ve	-15835
ँ॒	-15836
च०	-15837
ाई	-15838
ॊर	-15839
ult	-15840
ख्त	-15841
टन्	-15842
दीन	-15843
पेः	-15844
भूप	-15845
शुं	-15846
ूनी	-15847
ृत्	-15848
॑षु	-15849
▁('	-15850
▁2:	-15851
▁HD	-15852
▁No	-15853
▁un	-15854
▁ऐक	-15855
▁छं	-15856
▁शप	-15857
▁०६	-15858
view	-15859
च्छत	-15860
थेति	-15861
धीनं	-15862
नायक	-15863
पद्म	-15864
प्यत	-15865
प्सा	-15866
यामा	-15867
युग्	-15868
योगा	-15869
र्तः	-15870
र्भा	-15871
ल्यः	-15872
वच्च	-15873
वलोक	-15874
विदु	-15875
ापरा	-15876
ायम्	-15877
ूंषि	-15878
ेताः	-15879
▁उपस	-15880
▁कूल	-15881
▁छवि	-15882
▁जया	-15883
▁थ्य	-15884
▁लड़	-15885
▁शिब	-15886
▁५००	-15887
कर्तु	-15888
गात्र	-15889
ङ्गम्	-15890
द्देव	-15891
पत्ते	-15892
भाषिक	-15893
यस्तु	-15894
याम्य	-15895
र्चनं	-15896
लक्षं	-15897
वर्णा	-15898
वाचकं	-15899
व्ययं	-15900
व्रतं	-15901
श्याम	-15902
ालम्ब	-15903
ोपकरण	-15904
▁....	-15905
▁औषधं	-15906
▁करते	-15907
▁कवयः	-15908
▁गद्य	-15909
▁गुणी	-15910
▁चेतः	-15911
▁दिलव	-15912
▁पृथि	-15913
▁प्ले	-15914
▁बहती	-15915
▁यजति	-15916
▁रजनी	-15917
▁रविः	-15918
▁वृणी	-15919
▁शिखि	-15920
▁सम्भ	-15921
▁सलिल	-15922
▁ह्ये	-15923
▁२००१	-15924
अधिकतम	-15925
काण्डे	-15926
कृत्यं	-15927
त्थितः	-15928
न्द्री	-15929
भाषासु	-15930
रक्षणं	-15931
रमध्ये	-15932
संग्रह	-15933
सभायां	-15934
सिद्धः	-15935
स्तानि	-15936
ांस्तु	-15937
▁अभितः	-15938
▁इष्टं	-15939
▁क्लीं	-15940
▁गर्भे	-15941
▁ग्रहे	-15942
▁जनस्य	-15943
▁तस्थौ	-15944
▁दिशां	-15945
▁दुःखी	-15946
▁द्यूत	-15947
▁पवमान	-15948
▁बभाषे	-15949
▁बालकं	-15950
▁राजते	-15951
▁रिजल्	-15952
▁सार्थ	-15953
▁सुनां	-15954
निर्णयः	-15955
वर्तमान	-15956
विमुक्त	-15957
सन्दर्भ	-15958
सिद्धिं	-15959
▁ऋग्वेद	-15960
▁काकुत्	-15961
▁चेष्टा	-15962
▁नवम्बर	-15963
▁प्रेषण	-15964
▁रुद्रा	-15965
▁विवर्ध	-15966
▁विवस्व	-15967
▁समाधान	-15968
क्रान्ति	-15969
नुवर्तते	-15970
स्ताब्दे	-15971
स्वरूपम्	-15972
ान्तर्गत	-15973
▁अन्तरम्	-15974
▁उपविश्य	-15975
▁दरिद्रः	-15976
▁पर्वताः	-15977
▁प्रकृतौ	-15978
▁बुध्यते	-15979
▁मान्यता	-15980
▁विश्वेद	-15981
▁सादृश्य	-15982
▁स्थितिं	-15983
प्रशस्तिः	-15984
समन्वितम्	-15985
▁निर्वर्त	-15986
▁यजमानस्य	-15987
▁लक्षणानि	-15988
▁विपर्यये	-15989
▁संस्थानं	-15990
▁सम्पर्कः	-15991
▁सर्वदुःख	-15992
▁क्रीडायां	-15993
▁चन्द्रमाः	-15994
▁छायाचित्र	-15995
▁प्रतिपक्ष	-15996
▁प्रयान्ति	-15997
▁शस्त्राणि	-15998
▁स्वीकरोति	-15999
▁अनुवृत्तिः	-16000
▁प्रतिष्ठान	-16001
▁प्रार्थनां	-16002
▁सामान्यनाम	-16003
▁प्रवर्त्तते	-16004
yr	-16005
छः	-16006
णॊ	-16007
मध	-16008
ोन	-16009
६६	-16010
८४	-16011
८७	-16012
.13	-16013
ite	-16014
per	-16015
एते	-16016
कित	-16017
कूप	-16018
गुः	-16019
टम्	-16020
ृषि	-16021
ेतर	-16022
०१५	-16023
▁AP	-16024
▁Le	-16025
▁गव	-16026
▁तब	-16027
▁यस	-16028
lock	-16029
घण्ट	-16030
चरन्	-16031
चितो	-16032
ट्टि	-16033
धावी	-16034
पतये	-16035
भागा	-16036
यागु	-16037
र्चन	-16038
वचनः	-16039
विद्	-16040
वृति	-16041
शंसा	-16042
िकृत	-16043
िरपि	-16044
ेतुं	-16045
ोप्य	-16046
▁अरा	-16047
▁इंस	-16048
▁किस	-16049
▁गोद	-16050
▁गौण	-16051
▁जाम	-16052
▁जिव	-16053
▁नैर	-16054
▁परु	-16055
▁रोम	-16056
▁शची	-16057
▁शेव	-16058
क्ताः	-16059
क्षेण	-16060
जातिः	-16061
तात्म	-16062
पक्षं	-16063
यंत्र	-16064
रण्ये	-16065
रोहति	-16066
श्र्च	-16067
हानिः	-16068
ार्थी	-16069
ित्रा	-16070
▁एभिः	-16071
▁कथनं	-16072
▁चाति	-16073
▁जवान	-16074
▁पीपी	-16075
▁लिसः	-16076
▁लेखा	-16077
▁वध्य	-16078
▁शीतल	-16079
▁सुतो	-16080
▁स्यू	-16081
▁स्वध	-16082
कृतानि	-16083
क्रमणं	-16084
क्षयम्	-16085
धर्मेण	-16086
पूर्वे	-16087
प्रज्ञ	-16088
भिस्तु	-16089
योस्तु	-16090
रात्रः	-16091
रात्रौ	-16092
ार्त्त	-16093
ेदानीं	-16094
ेषामपि	-16095
▁आधारः	-16096
▁उपभोग	-16097
▁कर्णे	-16098
▁कुञ्ज	-16099
▁चेतसि	-16100
▁तन्तु	-16101
▁धृतिः	-16102
▁भाण्ड	-16103
▁याइगु	-16104
▁वाहनं	-16105
▁विजयी	-16106
▁विद्म	-16107
▁श्रीं	-16108
▁साम्य	-16109
article	-16110
क्ष्यसि	-16111
पत्रिका	-16112
प्रकरणं	-16113
स्वरूपा	-16114
ादिभ्यः	-16115
▁आरम्भे	-16116
▁तर्ह्य	-16117
[...]
