<unk>	0
<s>	0
</s>	0
्य	-0
▁स	-1
्र	-2
▁प	-3
▁व	-4
▁।	-5
▁त	-6
्त	-7
▁क	-8
र्	-9
▁न	-10
▁म	-11
▁अ	-12
ति	-13
▁य	-14
्व	-15
ान	-16
▁द	-17
▁प्र	-18
म्	-19
त्	-20
▁भ	-21
ित	-22
▁श	-23
▁वि	-24
्या	-25
▁च	-26
ार	-27
▁र	-28
▁इ	-29
▁ज	-30
ां	-31
▁-	-32
्ष	-33
न्	-34
▁ग	-35
▁॥	-36
ते	-37
▁ह	-38
ष्	-39
▁ए	-40
▁ा	-41
स्य	-42
क्ष	-43
त्र	-44
न्त	-45
द्	-46
स्	-47
या	-48
र्व	-49
मा	-50
▁पर	-51
▁आ	-52
▁नि	-53
स्त	-54
▁"	-55
था	-56
▁ब	-57
क्त	-58
ेन	-59
ेव	-60
▁ल	-61
ाम	-62
▁,	-63
▁ध	-64
त्य	-65
▁सं	-66
पि	-67
तः	-68
▁उ	-69
ाय	-70
िक	-71
▁पु	-72
ाः	-73
▁स्	-74
▁वा	-75
्च	-76
ष्ट	-77
▁भव	-78
▁(	-79
▁.	-80
ेष	-81
दि	-82
▁स्व	-83
ना	-84
ृत	-85
▁इति	-86
ाव	-87
र्थ	-88
▁सर्व	-89
दा	-90
ाल	-91
्वा	-92
▁एव	-93
द्ध	-94
र्त	-95
्ञ	-96
ेश	-97
▁सम	-98
▁मा	-99
त्त	-100
ान्	-101
ता	-102
▁रा	-103
मि	-104
▁ः	-105
ङ्	-106
्यते	-107
▁अन	-108
▁तु	-109
▁त्व	-110
ाद	-111
▁१	-112
▁प्रा	-113
यो	-114
्यं	-115
िं	-116
यं	-117
▁सा	-118
▁सु	-119
▁'	-120
ानि	-121
▁स्त	-122
रण	-123
नि	-124
्रि	-125
ये	-126
रा	-127
र्म	-128
▁प्रति	-129
▁पू	-130
नं	-131
▁कार	-132
▁ते	-133
▁ं	-134
वि	-135
▁मु	-136
▁ो	-137
भि	-138
▁यो	-139
▁हि	-140
्ये	-141
नः	-142
ात	-143
▁ऽ	-144
रु	-145
ीय	-146
▁वर्	-147
▁कु	-148
प्त	-149
न्द	-150
श्च	-151
ने	-152
▁ना	-153
▁_	-154
च्	-155
▁े	-156
न्ति	-157
▁विश	-158
▁२	-159
ुः	-160
ष्ठ	-161
▁मह	-162
▁यथा	-163
ल्	-164
▁देव	-165
ेद	-166
यः	-167
ैव	-168
ज्ञ	-169
ानां	-170
ास	-171
िव	-172
रो	-173
▁द्व	-174
रे	-175
▁ख	-176
स्ति	-177
▁स्थ	-178
▁क्ष	-179
ूप	-180
▁1	-181
▁इत्य	-182
रि	-183
▁श्र	-184
▁एक	-185
▁अध	-186
▁?	-187
▁सम्	-188
ाग	-189
च्छ	-190
▁मे	-191
▁पा	-192
▁यु	-193
कार	-194
द्य	-195
तो	-196
▁या	-197
ती	-198
▁दृ	-199
ब्	-200
णि	-201
ेण	-202
िः	-203
ान्त	-204
हं	-205
प्र	-206
णा	-207
ङ्ग	-208
▁व्य	-209
ेत	-210
▁राज	-211
▁तथा	-212
▁परि	-213
▁मन	-214
▁म्	-215
ाष	-216
ैः	-217
▁उप	-218
▁कि	-219
▁गु	-220
▁2	-221
लं	-222
्न	-223
ण्	-224
िष	-225
ेषु	-226
वा	-227
▁सह	-228
▁ज्ञ	-229
ुं	-230
मान	-231
▁भू	-232
िता	-233
णं	-234
ोक	-235
रं	-236
▁कथ	-237
▁भवति	-238
▁कृत	-239
ितः	-240
सि	-241
▁कृ	-242
न्ध	-243
्रा	-244
मे	-245
▁सू	-246
गु	-247
का	-248
▁तद	-249
▁वै	-250
▁दि	-251
सा	-252
▁पूर्व	-253
▁दु	-254
▁विद	-255
ृह	-256
▁)	-257
कं	-258
री	-259
मः	-260
▁स्य	-261
्री	-262
▁तत्	-263
भव	-264
▁समा	-265
▁किं	-266
्यः	-267
▁पृ	-268
▁फ	-269
ात्	-270
▁तस्य	-271
श्य	-272
रः	-273
ला	-274
सी	-275
तं	-276
र्ण	-277
▁वर्ष	-278
▁घ	-279
▁यदि	-280
▁को	-281
▁जन	-282
चि	-283
त्या	-284
धि	-285
▁अपि	-286
ानं	-287
ग्	-288
र्श	-289
▁३	-290
ञ्च	-291
▁काल	-292
र्ग	-293
तु	-294
▁अनु	-295
स्मा	-296
▁ति	-297
▁नाम	-298
ुक्त	-299
न्न	-300
हि	-301
▁रूप	-302
्रह	-303
▁ष	-304
▁मि	-305
दं	-306
ण्ड	-307
व्य	-308
ितं	-309
णां	-310
▁व्या	-311
▁छ	-312
▁तत्र	-313
▁एत	-314
▁के	-315
भाव	-316
▁मध	-317
स्थ	-318
▁का	-319
क्	-320
कः	-321
ेत्	-322
▁अस्ति	-323
▁अप	-324
क्र	-325
ब्द	-326
ल्प	-327
▁सि	-328
स्तु	-329
देश	-330
स्या	-331
ीव	-332
▁प्रत्य	-333
▁विष	-334
सं	-335
▁देश	-336
▁कर्त	-337
▁वृ	-338
▁बह	-339
▁मम	-340
▁--	-341
▁यत्	-342
्यो	-343
▁एवं	-344
त्व	-345
▁गृह	-346
योग	-347
स्मि	-348
▁भाव	-349
▁स्या	-350
▁कर्म	-351
र्ष	-352
ुप	-353
कृ	-354
ृत्त	-355
क्षण	-356
▁भार	-357
▁४	-358
्ल	-359
▁शु	-360
ित्य	-361
तिः	-362
क्षा	-363
▁ि	-364
▁!	-365
क्ति	-366
▁अथ	-367
त्म	-368
▁श्च	-369
धान	-370
▁ान	-371
▁पुनः	-372
र्य	-373
▁भाष	-374
▁ै	-375
▁ये	-376
▁क्र	-377
▁वर्त	-378
▁स्म	-379
▁दृष्ट	-380
▁त्वं	-381
ितम्	-382
नम्	-383
ीत	-384
चार	-385
▁पुन	-386
▁शब्द	-387
्म	-388
▁५	-389
▁ता	-390
▁ाद	-391
्रिय	-392
▁मान	-393
ोष	-394
▁लोक	-395
याः	-396
नी	-397
णे	-398
धा	-399
▁अव	-400
यम	-401
▁/	-402
▁शि	-403
द्र	-404
▁तदा	-405
िष्य	-406
न्ते	-407
श्व	-408
▁मू	-409
▁3	-410
नु	-411
यति	-412
ित्र	-413
वान्	-414
्यां	-415
ेषां	-416
▁धर्म	-417
के	-418
▁तं	-419
▁जीव	-420
▁तेन	-421
▁तव	-422
च्च	-423
▁चि	-424
▁प्रव	-425
▁विशेष	-426
प्य	-427
▁पद	-428
िका	-429
रुष	-430
▁लि	-431
▁प्रथ	-432
▁पुत्र	-433
▁सः	-434
ीन	-435
▁प्राप्त	-436
न्त्र	-437
ीं	-438
कृत	-439
▁निर्	-440
लि	-441
न्य	-442
त्वा	-443
▁संस्	-444
▁[	-445
र्थः	-446
▁करो	-447
्ज	-448
▁साध	-449
▁ततः	-450
▁__	-451
यम्	-452
ित्त	-453
▁=	-454
मं	-455
ख्या	-456
▁शक	-457
▁कार्य	-458
▁साम	-459
▁अन्य	-460
▁निव	-461
भू	-462
▁योग	-463
▁वे	-464
ोप	-465
मेव	-466
णः	-467
▁अधिक	-468
▁विश्व	-469
▁भि	-470
ले	-471
▁ट	-472
ुष	-473
▁दे	-474
ामि	-475
▁थ	-476
क्षि	-477
न्द्र	-478
▁प्रश	-479
▁विक	-480
▁६	-481
ाह	-482
स्म	-483
स्मिन्	-484
▁त्वा	-485
ाप	-486
▁पि	-487
ृश	-488
▁ने	-489
▁केव	-490
भाष	-491
श्र	-492
▁यः	-493
▁सो	-494
▁त्रि	-495
▁तद्	-496
▁विध	-497
से	-498
▁उत्त	-499
▁अभि	-500
मु	-501
करण	-502
ऽपि	-503
ीति	-504
न्तु	-505
▁बहु	-506
पाद	-507
धिक	-508
ाना	-509
र्थं	-510
▁दर्श	-511
▁भग	-512
सः	-513
▁द्र	-514
▁गुण	-515
▁हे	-516
▁ी	-517
▁त्य	-518
काश	-519
त्स	-520
बन्ध	-521
▁रो	-522
न्म	-523
▁ई	-524
▁त्र	-525
▁पुरुष	-526
ारा	-527
ीप	-528
भाग	-529
▁अत्र	-530
▁4	-531
▁बु	-532
▁मया	-533
जन	-534
▁एष	-535
▁र्	-536
रूप	-537
स्व	-538
▁कथं	-539
▁समु	-540
▁भाग	-541
▁भारत	-542
य्	-543
▁भविष्य	-544
▁जग	-545
▁औ	-546
पद	-547
▁८	-548
च्यते	-549
भिः	-550
▁शा	-551
▁इत्या	-552
..	-553
▁७	-554
▁सुख	-555
▁मृ	-556
रम्	-557
▁दिव	-558
▁दश	-559
वे	-560
पा	-561
▁20	-562
द्धि	-563
▁दू	-564
▁पी	-565
▁सप्त	-566
▁ज्ञान	-567
▁न्त	-568
▁व्यव	-569
▁5	-570
▁S	-571
▁ग्र	-572
▁ादि	-573
स्त्र	-574
वः	-575
▁काम	-576
ट्	-577
▁ऋ	-578
ान्य	-579
▁रु	-580
▁२०	-581
मो	-582
्रिया	-583
सीत्	-584
चन	-585
▁हृ	-586
▁श्रु	-587
ायां	-588
▁तर्	-589
▁ला	-590
तां	-591
ङ्क	-592
▁भो	-593
त्त्व	-594
पु	-595
▁जा	-596
▁ग्रह	-597
ोध	-598
▁a	-599
▁न्	-600
▁अहं	-601
भा	-602
▁चा	-603
▁+	-604
▁पृथ	-605
त्रा	-606
प्	-607
▁द्वि	-608
जा	-609
चित्	-610
▁अन्त	-611
▁ड	-612
▁पित	-613
▁स्थान	-614
▁स्था	-615
येत्	-616
माण	-617
म्ब	-618
्याय	-619
▁प्रय	-620
▁स्तु	-621
▁सर्वे	-622
सु	-623
्यामि	-624
प्न	-625
▁यद	-626
▁की	-627
हार	-628
पू	-629
▁s	-630
ख्य	-631
▁युक्त	-632
दान	-633
▁रे	-634
शः	-635
ध्य	-636
▁क्षे	-637
▁;	-638
वाद	-639
▁रि	-640
ुःख	-641
▁यत्र	-642
काल	-643
ज्य	-644
र्ध	-645
▁लक्ष	-646
िते	-647
▁पृष्ठ	-648
शि	-649
▁९	-650
ष्ट्र	-651
ष्ण	-652
▁ॐ	-653
▁वेद	-654
▁अह	-655
▁फल	-656
▁सिद्ध	-657
ेति	-658
▁नो	-659
ीयते	-660
▁स्प	-661
▁यदा	-662
▁भेद	-663
▁मां	-664
सार	-665
▁कः	-666
▁0	-667
श्चि	-668
▁मो	-669
▁बाल	-670
्याः	-671
नां	-672
भ्य	-673
▁ु	-674
▁वृत्त	-675
▁नु	-676
▁चतु	-677
▁स्यात्	-678
ीर	-679
ग्र	-680
▁्	-681
▁वद	-682
▁०	-683
णी	-684
▁विना	-685
▁विद्या	-686
▁अतः	-687
▁दी	-688
▁आसीत्	-689
णम्	-690
▁उत्	-691
▁कदा	-692
▁तः	-693
▁*	-694
ायते	-695
तम	-696
कम्	-697
▁महा	-698
नेन	-699
▁गच्छ	-700
ोक्त	-701
▁तस्मा	-702
स्र	-703
▁नं	-704
र्ज	-705
्वं	-706
▁रक्ष	-707
▁१९	-708
▁जान	-709
▁दोष	-710
▁मध्ये	-711
▁परी	-712
▁सद	-713
▁दुःख	-714
ञ्ज	-715
▁नमः	-716
तम्	-717
त्रं	-718
स्था	-719
▁शी	-720
▁करोति	-721
▁A	-722
▁तो	-723
योः	-724
▁ाय	-725
ली	-726
▁संश	-727
▁ण	-728
▁गो	-729
▁अति	-730
▁पञ्च	-731
▁१०	-732
▁ात्	-733
षु	-734
स्प	-735
▁कर	-736
▁धन	-737
▁विज्ञ	-738
चना	-739
▁प्रस	-740
▁दक्षि	-741
युक्त	-742
▁न्य	-743
▁परा	-744
ोति	-745
दश	-746
▁द्वित	-747
▁तां	-748
▁:	-749
▁दृश	-750
▁ौ	-751
▁i	-752
म्य	-753
▁ैः	-754
▁कल्प	-755
▁t	-756
▁तेषां	-757
▁करण	-758
▁ले	-759
हे	-760
क्षे	-761
त्रे	-762
▁नव	-763
▁आग	-764
▁ोऽ	-765
▁स्त्री	-766
▁राष्ट्र	-767
िताः	-768
▁6	-769
▁अस्य	-770
▁वाक	-771
▁प्रि	-772
▁भवेत्	-773
▁सत्य	-774
▁ानां	-775
▁वर्तते	-776
पी	-777
▁कुर्व	-778
▁सदा	-779
▁यस्य	-780
ष्य	-781
▁कल	-782
▁एते	-783
▁पठ	-784
▁क्रिय	-785
यु	-786
▁वर्षे	-787
दी	-788
नो	-789
▁जन्म	-790
▁तर्हि	-791
▁उक्त	-792
▁जल	-793
▁ततो	-794
▁जि	-795
▁जात	-796
▁भगव	-797
पे	-798
▁येन	-799
▁इदं	-800
▁सौ	-801
▁आव	-802
षे	-803
▁वाच	-804
▁वयं	-805
विध	-806
▁m	-807
▁इह	-808
ुव	-809
▁आह	-810
er	-811
ग्नि	-812
▁प्रद	-813
▁भ्र	-814
लः	-815
▁ाव	-816
मपि	-817
र्या	-818
ज्ञा	-819
▁हेत	-820
▁भविष्यति	-821
▁I	-822
म्भ	-823
यि	-824
▁ओ	-825
ितो	-826
▁जु	-827
▁नृ	-828
▁तस्या	-829
▁परिव	-830
्यम्	-831
▁घट	-832
▁पाद	-833
▁क्रिया	-834
▁काले	-835
ताः	-836
▁वक्त	-837
▁ेति	-838
▁सन्ति	-839
ारः	-840
▁मेव	-841
यन	-842
यित	-843
▁ोप	-844
▁भाषा	-845
▁प्रथम	-846
▁नग	-847
▁ाः	-848
▁सर्वं	-849
▁आस	-850
▁वर्ण	-851
▁इव	-852
▁वाय	-853
▁प्रयोग	-854
▁पश्य	-855
लोक	-856
▁बल	-857
▁तम	-858
▁अत	-859
▁पश	-860
ारं	-861
▁वस्तु	-862
कृति	-863
▁हृद	-864
ेक	-865
▁8	-866
▁परं	-867
▁और	-868
▁मध्य	-869
--	-870
▁तत	-871
▁अस्मा	-872
▁मुक्त	-873
मिति	-874
शा	-875
ुर	-876
ष्टा	-877
्छ	-878
देव	-879
▁शक्त	-880
▁ेषु	-881
▁अयं	-882
▁ार्थ	-883
▁T	-884
धे	-885
▁मार्ग	-886
▁पूज	-887
▁पे	-888
▁्य	-889
▁बि	-890
▁यद्य	-891
ण्य	-892
▁यं	-893
▁रात्र	-894
▁मूल	-895
▁ऊ	-896
▁स्वा	-897
ानु	-898
▁कृत्वा	-899
षि	-900
योज	-901
▁7	-902
▁सी	-903
▁सामान्य	-904
▁नित	-905
▁तथ	-906
भवत्	-907
▁क्व	-908
▁भूत	-909
▁पाप	-910
▁विषय	-911
▁ान्	-912
क्रम	-913
ूल	-914
▁ब्रह	-915
्राह	-916
ारि	-917
▁बा	-918
▁शेष	-919
▁यज्ञ	-920
▁अस	-921
द्या	-922
व्यं	-923
▁प्रकाश	-924
▁सेव	-925
▁केवलं	-926
र्घ	-927
पत्त	-928
▁याव	-929
▁पाठ	-930
▁प्रभ	-931
▁ित	-932
भ्यः	-933
▁शक्ति	-934
▁ताव	-935
दे	-936
▁भा	-937
▁नास्ति	-938
▁पुनर्	-939
▁अर्थ	-940
िति	-941
▁परम	-942
▁ात्म	-943
ेश्व	-944
▁यद्	-945
रणं	-946
▁मुख	-947
सो	-948
ुर्	-949
न्तः	-950
▁हस्त	-951
ुम्	-952
▁करि	-953
र्प	-954
▁पुरा	-955
▁...	-956
▁केन	-957
र्ह	-958
▁पुं	-959
दृश	-960
▁इत्यादि	-961
▁वच	-962
▁प्रे	-963
▁याः	-964
ारी	-965
▁ह्य	-966
कु	-967
▁नः	-968
यां	-969
▁ान्त	-970
▁युद्ध	-971
थि	-972
▁विव	-973
▁क्री	-974
लो	-975
▁पुर	-976
▁गत	-977
▁सम्बन्ध	-978
ाम्	-979
व्यम्	-980
▁वी	-981
ृण	-982
▁तप	-983
▁नैव	-984
▁अधि	-985
▁कर्	-986
▁धात	-987
▁हो	-988
▁नी	-989
काः	-990
▁शरी	-991
▁श्व	-992
▁लिख	-993
▁ती	-994
▁स्थाप	-995
▁ानु	-996
▁चे	-997
▁धार	-998
श्	-999
▁खः	-1000
▁प्रक	-1001
ोः	-1002
हः	-1003
ेः	-1004
▁विद्यते	-1005
▁व्र	-1006
▁त्	-1007
▁केवल	-1008
द्व	-1009
▁राज्य	-1010
▁कृते	-1011
▁राजा	-1012
▁चिन्त	-1013
ृष्ट	-1014
▁किम्	-1015
▁वर	-1016
▁मिति	-1017
▁शुभ	-1018
▁दा	-1019
▁यू	-1020
on	-1021
भाषा	-1022
st	-1023
मी	-1024
ब्ध	-1025
▁गण	-1026
▁9	-1027
▁पूर्ण	-1028
▁सर	-1029
ाये	-1030
▁ानि	-1031
▁एतत्	-1032
▁वृद्ध	-1033
▁प्रज	-1034
ीनां	-1035
▁सर्वा	-1036
दाह	-1037
▁शत	-1038
न्व	-1039
▁तया	-1040
क्ष्य	-1041
▁विभ	-1042
▁सन्	-1043
▁दृश्यते	-1044
▁P	-1045
▁दत्त	-1046
पर	-1047
▁निष्	-1048
को	-1049
तीति	-1050
न्या	-1051
▁201	-1052
▁दिन	-1053
गः	-1054
▁यज	-1055
▁लक्षण	-1056
▁10	-1057
▁त्या	-1058
▁से	-1059
▁C	-1060
ुना	-1061
तिं	-1062
रोध	-1063
▁निर्व	-1064
▁११	-1065
शी	-1066
▁तमे	-1067
▁पर्य	-1068
▁दृष्ट्वा	-1069
▁मनो	-1070
▁गुरु	-1071
▁क्रम	-1072
कि	-1073
▁विषये	-1074
▁यां	-1075
हा	-1076
▁राम	-1077
▁दुर्	-1078
▁c	-1079
घ्र	-1080
▁दृश्य	-1081
मन	-1082
ज्ज	-1083
en	-1084
णो	-1085
स्ते	-1086
▁ध्व	-1087
▁मित्र	-1088
▁कार्यं	-1089
▁वस	-1090
हित	-1091
▁सर्वत्र	-1092
तर	-1093
▁विभाग	-1094
▁द्	-1095
▁विप	-1096
▁शत्र	-1097
००	-1098
कारः	-1099
▁ऽपि	-1100
▁M	-1101
or	-1102
▁तृत	-1103
▁द्वा	-1104
ोद	-1105
▁निर	-1106
▁ध्य	-1107
लय	-1108
▁वार	-1109
▁पर्व	-1110
ड्	-1111
▁वन	-1112
▁प्रधान	-1113
यते	-1114
दिति	-1115
धार	-1116
यन्	-1117
जः	-1118
▁कारण	-1119
▁प्रवि	-1120
▁क्रीड	-1121
▁॒	-1122
ुम	-1123
▁रुप	-1124
गे	-1125
▁॑	-1126
▁वह	-1127
रेण	-1128
▁विद्य	-1129
__	-1130
▁शिव	-1131
▁धी	-1132
मानं	-1133
▁मन्त्र	-1134
▁प्राप्न	-1135
ून	-1136
▁विधि	-1137
▁पृथिव	-1138
▁यथ	-1139
▁श्री	-1140
न्तं	-1141
▁पक्ष	-1142
▁तिष्ठ	-1143
▁l	-1144
ञ्	-1145
णाम	-1146
▁ब्र	-1147
▁निश्च	-1148
▁कं	-1149
▁N	-1150
▁ब्रह्म	-1151
▁नर	-1152
वाच	-1153
भ्यां	-1154
▁संस्कृत	-1155
▁लेख	-1156
▁न्या	-1157
▁प्राय	-1158
▁कौ	-1159
ैक	-1160
▁स्वरूप	-1161
र्थे	-1162
▁संव	-1163
▁विचार	-1164
ar	-1165
▁नित्य	-1166
▁कश्चि	-1167
▁त्वया	-1168
▁ेन	-1169
िकं	-1170
▁ज्ञात	-1171
▁ऐ	-1172
▁पुनर	-1173
टि	-1174
ैर्	-1175
▁यत	-1176
▁जायते	-1177
ापि	-1178
वी	-1179
िर	-1180
▁>	-1181
an	-1182
▁भु	-1183
व्या	-1184
▁सङ्	-1185
▁भक्त	-1186
▁सम्ब	-1187
▁इदान	-1188
▁प्रोक्त	-1189
▁लभ	-1190
ष्टं	-1191
▁संशयः	-1192
▁आत्म	-1193
▁अभवत्	-1194
▁मात्र	-1195
▁अध्य	-1196
▁नियम	-1197
▁ां	-1198
▁सम्भव	-1199
शु	-1200
▁रस	-1201
▁क्षेत्र	-1202
▁तत्त्व	-1203
ाने	-1204
▁दीर्घ	-1205
▁प्रती	-1206
▁यतः	-1207
▁इच्छ	-1208
▁शास्त्र	-1209
पाल	-1210
▁बुद्ध	-1211
▁च्छ	-1212
▁p	-1213
▁कुरु	-1214
▁भावः	-1215
▁१८	-1216
▁किम	-1217
ेय	-1218
माः	-1219
▁]	-1220
▁अभ	-1221
in	-1222
यात्	-1223
▁१२	-1224
दु	-1225
▁()	-1226
लु	-1227
वरी	-1228
▁b	-1229
▁निय	-1230
▁अस्मिन्	-1231
▁चेत्	-1232
षेध	-1233
▁उभ	-1234
ग्रह	-1235
तया	-1236
▁पूर्वं	-1237
▁विकल्प	-1238
▁अद्य	-1239
▁नित्यं	-1240
▁उपयोग	-1241
▁भवन्ति	-1242
▁मपि	-1243
▁सूचना	-1244
ंश	-1245
▁आर	-1246
om	-1247
र्भ	-1248
▁क्ल	-1249
▁संयुक्त	-1250
ल्य	-1251
कर	-1252
▁लाभ	-1253
▁B	-1254
र्च	-1255
यामि	-1256
▁मात	-1257
▁स्वयं	-1258
र्था	-1259
▁पदा	-1260
▁तर	-1261
▁संख्या	-1262
▁छा	-1263
▁उत्तर	-1264
▁विज	-1265
▁सव	-1266
षा	-1267
▁स्वी	-1268
▁मनुष	-1269
ित्वा	-1270
सिद्ध	-1271
ैर	-1272
पूर्ण	-1273
ायं	-1274
▁योः	-1275
▁निम	-1276
डि	-1277
ताम्	-1278
▁द्वारा	-1279
▁त्वात्	-1280
▁1.	-1281
▁बाह	-1282
▁प्राण	-1283
▁इद	-1284
▁प्रण	-1285
ध्या	-1286
ुत	-1287
द्रा	-1288
▁जनाः	-1289
▁d	-1290
▁मण्ड	-1291
लभ	-1292
▁वो	-1293
हो	-1294
▁n	-1295
▁सहस्र	-1296
▁देशे	-1297
▁पुस्त	-1298
▁शो	-1299
▁विह	-1300
▁१५	-1301
▁मृत्य	-1302
▁ङ	-1303
मुख	-1304
▁गम	-1305
▁योज	-1306
▁मन्त	-1307
न्थ	-1308
▁आप	-1309
▁सुर	-1310
▁अग्नि	-1311
▁क्रियते	-1312
▁कस्य	-1313
▁संस्थ	-1314
▁प्रश्न	-1315
▁लोके	-1316
▁बन्ध	-1317
▁H	-1318
▁तथापि	-1319
याम	-1320
es	-1321
म्म	-1322
▁चित्त	-1323
▁रूपं	-1324
स्मै	-1325
▁स्वर्ग	-1326
▁एकः	-1327
▁अन्यथा	-1328
00	-1329
ीया	-1330
▁सङ्ग	-1331
▁तौ	-1332
दः	-1333
▁शक्यते	-1334
▁अग	-1335
▁विप्र	-1336
▁वर्तमान	-1337
▁कम	-1338
▁प्रदेश	-1339
ित्	-1340
ड़	-1341
▁कार्या	-1342
▁शान्त	-1343
▁एका	-1344
▁सक	-1345
▁मी	-1346
▁गति	-1347
▁परस्प	-1348
मास	-1349
▁हर	-1350
▁चैव	-1351
▁विस्त	-1352
▁रूपेण	-1353
▁प्रभाव	-1354
▁---	-1355
वत्	-1356
्राणि	-1357
थं	-1358
▁झ	-1359
▁फलं	-1360
▁निर्म	-1361
दाय	-1362
▁दैव	-1363
▁लो	-1364
▁L	-1365
▁पाल	-1366
यत्	-1367
▁वृक्ष	-1368
सू	-1369
▁सूर्य	-1370
▁दान	-1371
▁चित्र	-1372
गम	-1373
▁धि	-1374
ज्	-1375
▁समुद्र	-1376
▁वर्ध	-1377
▁पति	-1378
▁गा	-1379
▁ज्ञानं	-1380
▁द्य	-1381
यन्ति	-1382
▁व्याप	-1383
▁दक्षिण	-1384
त्तर	-1385
▁साक्ष	-1386
▁साह	-1387
ेष्ठ	-1388
▁ाभि	-1389
▁धर्	-1390
ेदन	-1391
▁भाषण	-1392
▁अस्माकं	-1393
भूत	-1394
▁प्रमाण	-1395
▁उद्	-1396
च्य	-1397
▁पश्च	-1398
त्तम	-1399
▁वाम	-1400
गर	-1401
▁ॊ	-1402
▁कृतं	-1403
मेर	-1404
ीयः	-1405
▁मास	-1406
▁सूत्र	-1407
▁उच्यते	-1408
▁भी	-1409
▁हरि	-1410
▁त्वम्	-1411
▁किन्तु	-1412
▁भवतः	-1413
▁किञ्च	-1414
▁परीक्षा	-1415
शो	-1416
▁तस्मात्	-1417
▁परिवर्त	-1418
▁द्वादश	-1419
▁मं	-1420
▁१४	-1421
ह्य	-1422
▁लघ	-1423
ात्म	-1424
ूत	-1425
▁अथवा	-1426
र्ता	-1427
▁त्वेन	-1428
चित	-1429
▁प्रवर्त	-1430
▁रोग	-1431
▁प्रार्थ	-1432
ारो	-1433
▁ज्यो	-1434
▁r	-1435
at	-1436
टी	-1437
▁सिं	-1438
की	-1439
▁प्रयोज	-1440
▁बी	-1441
▁त्वां	-1442
▁मनु	-1443
त्वं	-1444
ृत्य	-1445
▁संभव	-1446
▁नै	-1447
▁यात	-1448
▁वाक्य	-1449
▁#	-1450
स्याः	-1451
▁ईश्व	-1452
▁माता	-1453
▁प्रवृत्त	-1454
▁चर	-1455
▁गृहे	-1456
ेवं	-1457
त्मा	-1458
▁उच्च	-1459
▁वर्षा	-1460
▁क्षण	-1461
र्द	-1462
िंश	-1463
्वे	-1464
▁शक्न	-1465
▁D	-1466
▁विनि	-1467
▁पिता	-1468
िक्	-1469
▁भारतीय	-1470
▁भय	-1471
▁इत्युक्त	-1472
ii	-1473
िष्ट	-1474
▁प्रकृति	-1475
▁पत्र	-1476
▁ग्राम	-1477
▁19	-1478
ष्टि	-1479
गत	-1480
तेः	-1481
▁यतो	-1482
वाह	-1483
▁श्	-1484
▁f	-1485
▁कोई	-1486
▁पृष्ठानि	-1487
▁विकास	-1488
▁शू	-1489
▁कृप	-1490
▁पार	-1491
ल्ल	-1492
▁परमा	-1493
इट	-1494
▁पुष्	-1495
क्तं	-1496
वर्ष	-1497
▁सम्बद्ध	-1498
▁शुद्ध	-1499
वं	-1500
▁सति	-1501
▁स्न	-1502
▁भवान्	-1503
▁अत्य	-1504
▁शीघ्र	-1505
▁१७	-1506
▁शृण	-1507
जं	-1508
▁दूर	-1509
▁नृप	-1510
▁विष्ण	-1511
▁संसार	-1512
ाला	-1513
हास	-1514
▁परम्	-1515
▁दण्ड	-1516
▁हं	-1517
▁है	-1518
▁कथा	-1519
▁इत्यस्य	-1520
टे	-1521
धन	-1522
▁अती	-1523
▁प्रातः	-1524
▁समाप्त	-1525
▁सम्प्र	-1526
▁वय	-1527
वो	-1528
▁अन्व	-1529
▁भवे	-1530
▁श्ल	-1531
▁प्रत्यय	-1532
ग्ने	-1533
▁तथैव	-1534
▁इत	-1535
▁बुद्धि	-1536
▁वत्	-1537
▁अमेर	-1538
भ्यो	-1539
संधान	-1540
▁मुख्य	-1541
▁अनेन	-1542
▁वेब	-1543
▁उदाह	-1544
▁देवा	-1545
▁कारणं	-1546
▁प्रयत्	-1547
ष्म	-1548
ारे	-1549
▁जी	-1550
▁उद	-1551
▁ननु	-1552
▁e	-1553
▁o	-1554
पद्यते	-1555
▁शब्दः	-1556
▁निमित्त	-1557
ag	-1558
▁शै	-1559
स्मात्	-1560
▁१३	-1561
▁अनुसंधान	-1562
▁ष्ट	-1563
रस्य	-1564
▁प्रकार	-1565
▁कृता	-1566
▁विकि	-1567
त्वात्	-1568
▁प्रसिद्ध	-1569
शं	-1570
▁द्रष्ट	-1571
▁प्रवेश	-1572
▁सर्वेषां	-1573
▁यावत्	-1574
धी	-1575
▁निर्ण	-1576
▁इन्द्र	-1577
▁भिः	-1578
जे	-1579
▁कम्	-1580
▁मित्य	-1581
▁तद्व	-1582
▁गतः	-1583
▁१६	-1584
▁स्फ	-1585
▁रह	-1586
▁सम्प	-1587
र्ति	-1588
▁रथ	-1589
▁गि	-1590
▁लिङ्ग	-1591
▁R	-1592
▁सन्ध	-1593
▁हिं	-1594
▁प्रत्यक्ष	-1595
▁मद	-1596
▁समान	-1597
शे	-1598
▁भूमि	-1599
▁ग्रन्थ	-1600
▁कुर्वन्ति	-1601
शत	-1602
▁पव	-1603
▁स्मृ	-1604
ेषण	-1605
▁भगवान्	-1606
नियम	-1607
▁सम्य	-1608
▁समीप	-1609
▁कुर्या	-1610
▁सै	-1611
रिति	-1612
ष्ठा	-1613
▁वेबसा	-1614
▁मै	-1615
▁स्थित	-1616
▁पितृ	-1617
▁यम	-1618
▁तस्मिन्	-1619
गा	-1620
▁ैव	-1621
कर्म	-1622
▁स्वभाव	-1623
कूल	-1624
खा	-1625
ादृश	-1626
▁तन्	-1627
▁प्राप्नोति	-1628
▁2.	-1629
ोऽ	-1630
▁V	-1631
चर	-1632
▁विज्ञान	-1633
्येत	-1634
▁गते	-1635
▁तम्	-1636
्नि	-1637
▁खलु	-1638
▁ैर्	-1639
▁सर्वदा	-1640
▁इदानीं	-1641
▁पात	-1642
न्तरं	-1643
ष्यति	-1644
ुक	-1645
िनः	-1646
▁स्थाने	-1647
▁वेबसाइट	-1648
टा	-1649
▁12	-1650
▁भोज	-1651
▁सोम	-1652
▁अम	-1653
व्यः	-1654
र्क	-1655
तन्त्र	-1656
al	-1657
▁मत	-1658
▁11	-1659
▁ैक	-1660
लम्	-1661
यत	-1662
▁E	-1663
▁अधिकतम	-1664
▁अध्या	-1665
▁य्	-1666
▁गृ	-1667
▁नां	-1668
▁मृत	-1669
▁निवृत्त	-1670
▁निः	-1671
ज्यते	-1672
▁चन्द्र	-1673
▁इत्यर्थः	-1674
▁विर	-1675
वती	-1676
▁शास	-1677
ितुं	-1678
▁देह	-1679
ज्ञान	-1680
▁कर्तुं	-1681
न्तर	-1682
▁देवता	-1683
▁आद	-1684
क्षु	-1685
ष्टः	-1686
▁ञ्च	-1687
▁निर्देश	-1688
पादन	-1689
साय	-1690
ोत	-1691
▁धा	-1692
▁मित	-1693
▁करिष	-1694
ुन	-1695
▁सेन	-1696
▁त्वे	-1697
िकी	-1698
▁न्याय	-1699
खि	-1700
▁पत	-1701
▁मन्य	-1702
▁स्र	-1703
▁अधिनियम	-1704
लन	-1705
▁ाधिक	-1706
▁यति	-1707
त्ता	-1708
▁महि	-1709
रुद्ध	-1710
▁नाम्	-1711
मां	-1712
▁ख्या	-1713
वां	-1714
▁समी	-1715
▁माह	-1716
▁समर्थ	-1717
▁समाचार	-1718
भ्या	-1719
▁संस्था	-1720
ध्यते	-1721
जी	-1722
▁पश्चि	-1723
▁व्याख्या	-1724
▁चक्र	-1725
▁गौ	-1726
▁चेत	-1727
▁मत्	-1728
▁विधान	-1729
सौ	-1730
माह	-1731
▁हा	-1732
▁शब्	-1733
▁इत्येत	-1734
▁द्वितीय	-1735
जि	-1736
▁याम	-1737
▁पर्या	-1738
▁पौ	-1739
्राह्म	-1740
ग्ध	-1741
णाम्	-1742
▁व्यवहार	-1743
▁अक	-1744
▁बोध	-1745
▁सूच	-1746
▁ार्थं	-1747
जो	-1748
पति	-1749
▁ज्व	-1750
▁ाद्	-1751
iv	-1752
▁पीड	-1753
▁यान	-1754
▁सन्द	-1755
▁v	-1756
▁षष्ठ	-1757
▁स्मृत	-1758
▁र्थ	-1759
▁प्रकृ	-1760
गृह	-1761
तेन	-1762
▁पदं	-1763
▁वः	-1764
▁तेष	-1765
▁प्रमा	-1766
▁मय	-1767
पत्ति	-1768
▁एषा	-1769
▁सूर	-1770
ोर्	-1771
▁िक	-1772
▁व्यवस्था	-1773
सम्	-1774
▁मुप	-1775
▁कुल	-1776
▁कव	-1777
काले	-1778
▁प्रकरण	-1779
▁अनेक	-1780
▁विरोध	-1781
याम्	-1782
▁ग्राह	-1783
▁प्राप	-1784
वास	-1785
▁मार	-1786
ूनां	-1787
ान्ति	-1788
▁प्रो	-1789
ाद्	-1790
▁क्त	-1791
▁श्रुत्वा	-1792
च्छति	-1793
यितुं	-1794
▁जाग	-1795
▁लु	-1796
▁एवम्	-1797
▁प्रशि	-1798
▁केन्द्र	-1799
▁व्यक्त	-1800
ूगु	-1801
स्मान्	-1802
राज	-1803
▁दद	-1804
▁अङ्ग	-1805
▁प्रत्या	-1806
पः	-1807
▁प्राप्य	-1808
ान्तर	-1809
▁क्रि	-1810
▁प्रच	-1811
▁हेतु	-1812
▁नार	-1813
▁यय	-1814
▁अहम्	-1815
▁पं	-1816
▁प्रयो	-1817
▁यद्यपि	-1818
ुत्	-1819
▁दिने	-1820
▁विल	-1821
▁15	-1822
▁श्रेष्ठ	-1823
str	-1824
▁18	-1825
▁नेव	-1826
▁अष्ट	-1827
▁खो	-1828
▁तृ	-1829
सर्ग	-1830
▁कालः	-1831
▁ध्यान	-1832
ूष	-1833
▁O	-1834
▁कदाचित्	-1835
▁इयं	-1836
▁सन्त	-1837
हम्	-1838
न्दि	-1839
▁एकं	-1840
▁सां	-1841
▁स्थानं	-1842
▁मयि	-1843
▁राज्ञ	-1844
▁शं	-1845
▁गत्वा	-1846
शेष	-1847
▁मुनि	-1848
गी	-1849
▁कृतम्	-1850
▁ज्योति	-1851
▁ब्राह्म	-1852
▁कला	-1853
▁तेषु	-1854
▁विशेषतः	-1855
▁विद्व	-1856
▁वित्त	-1857
▁जना	-1858
▁कृतः	-1859
्वः	-1860
▁हित	-1861
▁G	-1862
▁क्षि	-1863
स्ट	-1864
रणे	-1865
▁वीर	-1866
▁भारतस्य	-1867
▁खे	-1868
▁याति	-1869
▁कर्त्त	-1870
▁लघु	-1871
दिष्ट	-1872
▁नाश	-1873
▁मनः	-1874
▁विविध	-1875
▁क्वचित्	-1876
▁चै	-1877
▁निरा	-1878
नात्	-1879
▁२०१	-1880
▁प्ल	-1881
▁गच्छति	-1882
▁माया	-1883
▁विशिष्ट	-1884
हर	-1885
ासु	-1886
▁in	-1887
▁विन	-1888
▁संबन्ध	-1889
▁रम	-1890
रणम्	-1891
it	-1892
▁अक्ष	-1893
द्धा	-1894
वान	-1895
कर्ता	-1896
sg	-1897
वर्त	-1898
sgstr	-1899
▁<	-1900
▁जनवरी	-1901
िन	-1902
▁मधु	-1903
ाद्य	-1904
▁सम्बद्धानि	-1905
▁कति	-1906
▁ठ	-1907
▁सृष्ट	-1908
द्यो	-1909
▁एषः	-1910
▁स्थि	-1911
मन्त	-1912
नीय	-1913
ाणां	-1914
▁पृथक्	-1915
क्ष्यामि	-1916
णात्	-1917
▁वाद	-1918
▁सत्	-1919
▁पार्थ	-1920
फल	-1921
ीयं	-1922
▁पुण्य	-1923
▁ार	-1924
▁ोऽपि	-1925
सम	-1926
▁3.	-1927
पेक्ष	-1928
▁समये	-1929
▁ङ्ग	-1930
▁चतुर्	-1931
िके	-1932
▁भ्य	-1933
गो	-1934
▁सृ	-1935
▁विम	-1936
▁कृपया	-1937
ग्रे	-1938
▁इत्यनेन	-1939
धः	-1940
ादि	-1941
▁अर्थः	-1942
िकः	-1943
▁चल	-1944
▁जगत्	-1945
▁छात्र	-1946
▁परिणाम	-1947
▁वापि	-1948
▁समय	-1949
ेश्वर	-1950
▁२१	-1951
▁पूजा	-1952
पन्	-1953
त्ते	-1954
▁ज्या	-1955
चिद	-1956
सां	-1957
▁तन	-1958
▁आवश्य	-1959
▁वाह	-1960
ग्न	-1961
▁कर्ता	-1962
▁सर्व्व	-1963
le	-1964
ome	-1965
▁लब्ध	-1966
▁इत्येव	-1967
▁तै	-1968
▁मानव	-1969
ोर	-1970
कर्ष	-1971
▁तानि	-1972
▁काव	-1973
▁u	-1974
▁प्रतिषेध	-1975
मान्	-1976
▁चिक	-1977
▁प्राच	-1978
▁ददा	-1979
▁विच	-1980
ou	-1981
ानाम्	-1982
▁महोद	-1983
▁$	-1984
▁सत्त्व	-1985
▁३०	-1986
▁वने	-1987
▁कू	-1988
▁सोऽ	-1989
▁सङ्क	-1990
▁शिक्ष	-1991
▁शरीर	-1992
▁वान्	-1993
▁धनं	-1994
▁14	-1995
▁इत्	-1996
▁अयम्	-1997
▁हृदय	-1998
▁सत	-1999
▁जलं	-2000
▁स्थिति	-2001
▁इत्यत्र	-2002
▁बृह	-2003
▁राज्यं	-2004
▁वास	-2005
कृत्य	-2006
▁ताम्	-2007
▁ध्या	-2008
▁प्रिय	-2009
▁नाय	-2010
नाम	-2011
त्रि	-2012
▁काय	-2013
▁मिथ	-2014
यित्वा	-2015
▁श्लोक	-2016
▁प्रया	-2017
ारण	-2018
▁घोष	-2019
▁परे	-2020
▁अप्र	-2021
▁वचनं	-2022
▁दृढ	-2023
▁वार्त	-2024
्याह	-2025
तन	-2026
▁गृह्	-2027
▁{	-2028
धिकार	-2029
▁देवानां	-2030
▁आन	-2031
▁दीप	-2032
ादश	-2033
ृतं	-2034
▁निवेश	-2035
▁भ्रम	-2036
पं	-2037
▁वचन	-2038
▁F	-2039
▁शिक्षा	-2040
▁निज	-2041
काम	-2042
▁नम	-2043
▁पदे	-2044
▁सुखं	-2045
लिख	-2046
▁कीदृश	-2047
बु	-2048
नाम्	-2049
▁सुव	-2050
▁परीक्षण	-2051
▁मूर्	-2052
गुण	-2053
पन्न	-2054
▁पत्	-2055
▁प्रथमं	-2056
पृ	-2057
्रे	-2058
भिर्	-2059
▁२५	-2060
स्यां	-2061
▁पश्यति	-2062
▁टी	-2063
▁वं	-2064
कस्य	-2065
▁गृहं	-2066
▁तिथि	-2067
▁तादृश	-2068
▁Ne	-2069
▁२२	-2070
▁Tag	-2071
▁अधो	-2072
▁ज्ञे	-2073
सह	-2074
▁बाध	-2075
▁तुल	-2076
▁दिना	-2077
▁एवम	-2078
▁थ्व	-2079
▁चक्ष	-2080
▁दै	-2081
▁भूम	-2082
यी	-2083
▁भवित	-2084
▁रात्रौ	-2085
▁शीत	-2086
▁संवि	-2087
▁ह्र	-2088
▁साधन	-2089
▁मस्ति	-2090
▁संप्र	-2091
▁युग	-2092
▁कीर्त	-2093
▁U	-2094
▁ोक्त	-2095
▁नेवाः	-2096
▁भे	-2097
▁निवर्त	-2098
▁h	-2099
▁टि	-2100
▁द्वे	-2101
पन	-2102
▁तू	-2103
च्छेद	-2104
▁समास	-2105
▁षु	-2106
▁ानाम्	-2107
▁लोप	-2108
▁वृत्ति	-2109
▁भेदः	-2110
▁कुत्र	-2111
▁गृहीत	-2112
▁अधिकार	-2113
▁स्त्रिय	-2114
ent	-2115
▁..	-2116
▁कृष्ण	-2117
▁पुरुषः	-2118
▁अव्य	-2119
▁तावत्	-2120
▁जाय	-2121
िष्यामि	-2122
▁मौ	-2123
▁भयं	-2124
▁तस्याः	-2125
ion	-2126
▁रोच	-2127
विद्या	-2128
▁गन्ध	-2129
▁रू	-2130
िष्यते	-2131
▁समस्त	-2132
▁त्वम	-2133
▁रक्त	-2134
▁शब्दा	-2135
▁कुश	-2136
▁तन्त्र	-2137
▁ेण	-2138
▁Home	-2139
▁गर्भ	-2140
▁प्रश्	-2141
▁सत्यं	-2142
▁प्रथमा	-2143
ूह	-2144
▁निवेद	-2145
▁भिन्न	-2146
▁विश्वा	-2147
▁वृद्धि	-2148
▁स्वप्न	-2149
ब्र	-2150
र्णं	-2151
सर	-2152
▁प्रकृत	-2153
▁धारा	-2154
▁प्री	-2155
▁व्यक्ति	-2156
▁ैर	-2157
▁्या	-2158
▁g	-2159
वार	-2160
नस्य	-2161
▁सार	-2162
▁ोत्	-2163
न्त्य	-2164
ic	-2165
▁शत्रु	-2166
▁स्त्रि	-2167
डिया	-2168
ुक्तं	-2169
▁तान्	-2170
▁२४	-2171
िकाः	-2172
▁कर्ण	-2173
▁संयोग	-2174
▁अतो	-2175
▁ताः	-2176
▁कर्मणि	-2177
▁नौ	-2178
▁जाना	-2179
थे	-2180
दृ	-2181
▁एता	-2182
▁धर्मा	-2183
▁ष्व	-2184
▁चापि	-2185
▁यूयं	-2186
ितवान्	-2187
▁कोऽपि	-2188
▁द्विज	-2189
▁ध्वनि	-2190
▁संस्करण	-2191
▁देवी	-2192
▁ाश्र	-2193
▁समर्प	-2194
▁नगर	-2195
स्थान	-2196
▁एतद्	-2197
▁(1	-2198
am	-2199
▁एतद	-2200
▁वायु	-2201
टः	-2202
▁कर्तव्य	-2203
▁साक्षात्	-2204
▁स्तो	-2205
खे	-2206
हू	-2207
लये	-2208
▁ही	-2209
रेत्	-2210
▁w	-2211
देशे	-2212
टक	-2213
▁धू	-2214
▁पूर	-2215
▁ब्रू	-2216
▁कश्चित्	-2217
▁दो	-2218
मानः	-2219
▁त्त	-2220
भेद	-2221
▁4.	-2222
▁मानुष	-2223
▁अध्ययन	-2224
▁संज्ञ	-2225
▁पाव	-2226
▁मोक्ष	-2227
▁कन्या	-2228
▁&	-2229
चिद्	-2230
▁गोप	-2231
▁चार	-2232
▁धन्य	-2233
▁धिक	-2234
▁प्रत्ये	-2235
भार	-2236
▁माल	-2237
ष्ट्रिय	-2238
ावि	-2239
ध्ये	-2240
माना	-2241
▁किमपि	-2242
दो	-2243
येन	-2244
▁कै	-2245
▁भर	-2246
▁इदम्	-2247
▁ताम	-2248
▁ेत्य	-2249
दिश	-2250
▁विवे	-2251
▁प्राप्ते	-2252
▁अज	-2253
▁जातः	-2254
कारं	-2255
▁वित	-2256
▁स्तथा	-2257
हु	-2258
▁यौ	-2259
▁प्य	-2260
▁पुरस्	-2261
▁अहो	-2262
▁वर्ग	-2263
▁देवाः	-2264
▁प्रजा	-2265
▁री	-2266
▁देहि	-2267
▁प्रतिपाद	-2268
▁भवता	-2269
वेश	-2270
न्ती	-2271
▁अश्व	-2272
▁प्रत	-2273
▁दास	-2274
▁विदेश	-2275
▁विरुद्ध	-2276
परा	-2277
ाणि	-2278
▁उत्तम	-2279
▁प्रायः	-2280
तौ	-2281
▁ध्र	-2282
▁२००	-2283
ष्मा	-2284
▁त्यक्त	-2285
▁भोग	-2286
नाय	-2287
▁अश	-2288
▁गाय	-2289
▁स्ने	-2290
तुः	-2291
▁था	-2292
▁शृणु	-2293
▁पदार्थ	-2294
▁13	-2295
▁आय	-2296
▁यॊ	-2297
धं	-2298
▁संब	-2299
▁दिवस	-2300
▁द्वार	-2301
▁विशेषः	-2302
▁मुच्यते	-2303
ीः	-2304
तिक	-2305
▁प्रतिदि	-2306
▁परिभाषा	-2307
▁यन्	-2308
हिता	-2309
▁कश्च	-2310
▁ुप	-2311
▁२६	-2312
re	-2313
▁२७	-2314
▁याये	-2315
बल	-2316
ितानि	-2317
रुण	-2318
▁जुइ	-2319
▁समन्व	-2320
ध्	-2321
▁श्रव	-2322
न्दु	-2323
▁मातृ	-2324
चा	-2325
पात	-2326
षां	-2327
▁स्वतन्त्र	-2328
▁इं	-2329
ीयम्	-2330
▁सेवा	-2331
▁प्रयुक्त	-2332
▁अधुना	-2333
▁त्रि०	-2334
त्यं	-2335
▁अना	-2336
पूर्व	-2337
वृत्त	-2338
▁स्वप्	-2339
त्वे	-2340
▁→	-2341
यमेव	-2342
▁17	-2343
▁शर	-2344
घा	-2345
▁•	-2346
▁स्वर	-2347
▁विस्म	-2348
▁तत्त	-2349
▁द्रव्य	-2350
▁आकाश	-2351
▁प्रतिष्ठ	-2352
▁प्रत्ययः	-2353
ऽऽ	-2354
▁ाभाव	-2355
ूनि	-2356
▁भक्ति	-2357
▁त्वमेव	-2358
▁ोद	-2359
▁वत्स	-2360
▁दिव्य	-2361
▁व्यवसाय	-2362
▁क्रोध	-2363
▁देशः	-2364
▁गे	-2365
▁k	-2366
प्प	-2367
▁निर्वा	-2368
ों	-2369
नाः	-2370
हां	-2371
▁व्यति	-2372
▁नेपाल	-2373
▁पुत्रः	-2374
ासि	-2375
्मा	-2376
▁शय	-2377
▁निरूप	-2378
▁msgstr	-2379
ण्ठ	-2380
धिः	-2381
मात्र	-2382
▁पाठः	-2383
▁वर्ज	-2384
▁क्रीडा	-2385
र्द्ध	-2386
▁सभ	-2387
धिकरण	-2388
▁स्त्रियां	-2389
▁विश्ल	-2390
पिं	-2391
▁आसन्	-2392
▁स्मर	-2393
▁स्वयम्	-2394
प्ति	-2395
▁दात	-2396
▁202	-2397
▁मनुष्य	-2398
▁गन्त	-2399
वन	-2400
क्ष्म	-2401
▁प्रदर्श	-2402
▁महत्	-2403
▁विमान	-2404
क्षित	-2405
▁वस्त	-2406
▁करोमि	-2407
▁दुर्लभ	-2408
▁तदेव	-2409
▁एवा	-2410
▁कुतः	-2411
▁भवतु	-2412
▁क्षेत्रे	-2413
ुच्यते	-2414
▁क्रमेण	-2415
▁समाज	-2416
▁मध्यम	-2417
चः	-2418
शक्ति	-2419
▁निर्मा	-2420
▁शब्दस्य	-2421
▁क्	-2422
▁भर्त	-2423
▁थः	-2424
▁शक्य	-2425
▁सामा	-2426
▁सदस्य	-2427
▁पार्श	-2428
▁प्रतिशत	-2429
भु	-2430
▁ादौ	-2431
▁द्वौ	-2432
▁राक्ष	-2433
▁इतिहास	-2434
▁शक्तिः	-2435
▁अमेरिका	-2436
he	-2437
▁किल	-2438
▁विभक्त	-2439
्याम	-2440
रिक्त	-2441
▁अं	-2442
▁वां	-2443
▁जाता	-2444
▁प्रशिक्षण	-2445
▁मति	-2446
ङ्के	-2447
प्राय	-2448
▁छुं	-2449
▁आचार	-2450
▁विधिः	-2451
▁स्त्व	-2452
▁२३	-2453
▁भास	-2454
▁स्पर्श	-2455
डा	-2456
▁आः	-2457
सेन	-2458
दर्श	-2459
▁केश	-2460
▁अन्ये	-2461
▁पक्षे	-2462
▁न्ह	-2463
▁विनाश	-2464
▁ली	-2465
▁बहि	-2466
▁कथम्	-2467
▁स्थितः	-2468
गण	-2469
मात्	-2470
▁प्रस्त	-2471
▁च्	-2472
▁वश	-2473
▁श्रू	-2474
▁ाद्य	-2475
▁पुष्प	-2476
▁पल	-2477
▁भक्ष	-2478
▁लक्षणं	-2479
▁सिंह	-2480
▁संर	-2481
▁शीघ्रं	-2482
▁विकिपी	-2483
▁खण्ड	-2484
▁शब्दे	-2485
▁कुर्यात्	-2486
▁माम	-2487
▁ादीनां	-2488
ादेश	-2489
्येन	-2490
▁उदाहरण	-2491
ीये	-2492
▁अथा	-2493
▁स्ते	-2494
▁प्रयोगः	-2495
ce	-2496
▁नदी	-2497
▁मोह	-2498
▁पर्वत	-2499
▁राजन्	-2500
▁स्याद	-2501
▁सर्वाणि	-2502
▁ग्रहण	-2503
▁देवि	-2504
▁y	-2505
▁शङ्क	-2506
बि	-2507
▁16	-2508
▁विषयः	-2509
▁ू	-2510
परि	-2511
ान्ते	-2512
▁मिदं	-2513
▁हु	-2514
साधन	-2515
स्ता	-2516
▁ान्य	-2517
भः	-2518
ृतः	-2519
▁कुम	-2520
▁धातु	-2521
▁दर्शन	-2522
▁//	-2523
▁लाख	-2524
्यादि	-2525
▁रुपये	-2526
▁वात	-2527
▁रक्षा	-2528
▁एस	-2529
▁कथय	-2530
▁उपरि	-2531
▁यानि	-2532
्यति	-2533
पुरुष	-2534
▁दुष्	-2535
▁प्राणि	-2536
▁चत्व	-2537
▁आई	-2538
▁काः	-2539
▁न्याया	-2540
मिदं	-2541
▁सर्ग	-2542
▁जानाति	-2543
देशः	-2544
▁क्षु	-2545
▁युव	-2546
▁पृथिवी	-2547
िद	-2548
▁सदृश	-2549
दार	-2550
ष्टो	-2551
▁शोभ	-2552
▁सहस	-2553
▁ज्ञा	-2554
▁वाक्यं	-2555
ृता	-2556
▁पथ	-2557
सर्व	-2558
ट्ट	-2559
▁निह	-2560
▁पुण	-2561
▁स्क	-2562
त्राणि	-2563
▁२८	-2564
▁क्षमा	-2565
गं	-2566
▁स्ना	-2567
▁तृतीय	-2568
न्द्रिय	-2569
▁परस्पर	-2570
▁मिव	-2571
▁दुर्ग	-2572
पो	-2573
▁जय	-2574
ार्थ	-2575
▁परो	-2576
▁यते	-2577
ेदं	-2578
यात	-2579
रवरी	-2580
ेष्व	-2581
▁ग्रहणं	-2582
▁शब्देन	-2583
सत	-2584
▁कवि	-2585
▁चरण	-2586
▁कर्मा	-2587
▁शेषः	-2588
▁कर्म्म	-2589
▁यश	-2590
▁उपयोगकर्ता	-2591
▁ग्री	-2592
▁ेभ्यः	-2593
्येण	-2594
ग्री	-2595
▁उभय	-2596
▁अस्म	-2597
▁सिद्धि	-2598
▁भज	-2599
▁रज	-2600
ान्व	-2601
धानं	-2602
ष्टे	-2603
▁तस्मै	-2604
▁मुक्ति	-2605
योर्	-2606
▁क्षम	-2607
▁दिश	-2608
▁परः	-2609
▁देवः	-2610
्स	-2611
▁महत्व	-2612
▁देशस्य	-2613
षण	-2614
त्ति	-2615
न्नं	-2616
▁अवि	-2617
▁मन्त्रि	-2618
टो	-2619
्यात्	-2620
▁सञ्च	-2621
▁प्रार	-2622
▁योजना	-2623
▁स्पष्ट	-2624
▁सद्	-2625
वन्तः	-2626
▁योजन	-2627
दौ	-2628
विधा	-2629
तत्	-2630
न्ना	-2631
▁पिब	-2632
▁परमं	-2633
मेन	-2634
▁ज्ये	-2635
▁स्यापि	-2636
▁तिष्ठति	-2637
▁हरे	-2638
▁हवि	-2639
▁रात्रि	-2640
▁नीति	-2641
माय	-2642
▁An	-2643
▁कृत्	-2644
िष्यति	-2645
ृति	-2646
स्त्य	-2647
▁येषां	-2648
▁योग्य	-2649
▁सम्पाद	-2650
▁न्व	-2651
▁तैः	-2652
▁शाल	-2653
▁ाभ्यां	-2654
▁प्रत्येकं	-2655
ानी	-2656
▁आश	-2657
▁दुःखं	-2658
▁पश्चात्	-2659
▁गमि	-2660
▁जाल	-2661
बा	-2662
पत्	-2663
▁एतेन	-2664
▁व्रज	-2665
▁परमेश्व	-2666
सन	-2667
▁लभते	-2668
▁बहुधा	-2669
▁उद्य	-2670
२०	-2671
▁वध	-2672
▁संक	-2673
क्षेप	-2674
▁अल्प	-2675
▁कल्या	-2676
▁तस्माद्	-2677
▁गता	-2678
ूर	-2679
▁ँ	-2680
ासन	-2681
▁धाव	-2682
▁रत्	-2683
▁यन्त्र	-2684
▁दार	-2685
▁उत	-2686
▁सच	-2687
▁ीय	-2688
▁अभ्या	-2689
▁कृतवान्	-2690
▁परन्तु	-2691
▁विधीयते	-2692
▁चेति	-2693
▁विक्र	-2694
▁विपरी	-2695
▁संस्कार	-2696
ाहा	-2697
▁न्यू	-2698
▁ाणां	-2699
▁उत्पाद	-2700
टु	-2701
वृ	-2702
ुद्ध	-2703
▁समं	-2704
▁वर्गः	-2705
ानाम	-2706
▁मन्दि	-2707
▁प्रोक्तं	-2708
▁प्रधानमन्त	-2709
▁25	-2710
▁कोऽ	-2711
▁मण्डल	-2712
▁अपे	-2713
हीं	-2714
▁30	-2715
▁उपा	-2716
▁छन्द	-2717
वच	-2718
र्न	-2719
यस्य	-2720
▁अनि	-2721
▁नरः	-2722
▁व्यवस्थ	-2723
▁धर्मः	-2724
▁शस्त्र	-2725
धनं	-2726
सन्ध	-2727
▁नूत	-2728
▁जाति	-2729
▁सामाज	-2730
▁भौ	-2731
▁K	-2732
▁संग	-2733
▁जानामि	-2734
▁चाल	-2735
▁ऽहं	-2736
▁उत्स	-2737
वाः	-2738
▁पु०	-2739
र्थम्	-2740
▁मासे	-2741
▁पुरुषो	-2742
पर्य	-2743
▁कर्तव्यं	-2744
ed	-2745
▁माय	-2746
र्वा	-2747
▁X	-2748
▁शोक	-2749
▁ददाति	-2750
▁दुष्ट	-2751
पदं	-2752
ad	-2753
▁वान	-2754
▁दोषः	-2755
▁युक्तं	-2756
क्य	-2757
▁व्यापार	-2758
lo	-2759
१०	-2760
▁मरु	-2761
भो	-2762
▁यन्ति	-2763
श्वर	-2764
▁200	-2765
▁इत्यादिना	-2766
▁5.	-2767
रिक्ष	-2768
▁मनसा	-2769
▁भारते	-2770
तेषु	-2771
▁कृष	-2772
▁वैश्व	-2773
▁पुस्तक	-2774
णु	-2775
वर	-2776
घ्न	-2777
ाय्	-2778
▁मृत्यु	-2779
ामः	-2780
िनी	-2781
पद्य	-2782
भूव	-2783
▁णि	-2784
▁प्रह	-2785
ch	-2786
ुट	-2787
रोत्	-2788
▁बलं	-2789
क्षते	-2790
▁कृषि	-2791
▁निषेध	-2792
▁खेल	-2793
▁अग्ने	-2794
▁रक्षण	-2795
▁शे	-2796
▁तेज	-2797
▁पद्	-2798
▁राग	-2799
▁विश्वविद्या	-2800
मय	-2801
▁चित	-2802
ङ्ग्ल	-2803
▁स्मा	-2804
▁मन्यते	-2805
▁वर्त्त	-2806
सृ	-2807
धिप	-2808
▁भगवन्	-2809
▁चतुर्थ	-2810
▁समुदाय	-2811
▁३१	-2812
क्ता	-2813
▁नारी	-2814
वाय	-2815
▁एम	-2816
▁ताप	-2817
▁ऽन	-2818
▁परिच	-2819
▁वक्ष	-2820
▁इदानी	-2821
▁to	-2822
त्री	-2823
▁भाग्य	-2824
▁शुक्र	-2825
▁संघ	-2826
▁भवती	-2827
▁संवत्स	-2828
▁सर्वेषु	-2829
▁विकिपीडिया	-2830
जीव	-2831
म्ह	-2832
▁नेत	-2833
▁तिथ	-2834
बी	-2835
विधि	-2836
▁जे	-2837
▁वरि	-2838
▁आश्र	-2839
▁नाट	-2840
▁में	-2841
▁वेत	-2842
▁साव	-2843
▁सदैव	-2844
▁प्रेम	-2845
▁हृदयं	-2846
▁प्रेष	-2847
▁21	-2848
▁५०	-2849
▁कारणम्	-2850
▁सम्भवति	-2851
▁फरवरी	-2852
यव	-2853
▁पूर्	-2854
▁स्मि	-2855
▁सुन्द	-2856
कल	-2857
ञ्छ	-2858
▁गी	-2859
▁आरो	-2860
मस्ति	-2861
▁अतीव	-2862
▁आत्मा	-2863
वद	-2864
▁सम्यक्	-2865
▁प्रसङ्ग	-2866
▁पेपर	-2867
्रियते	-2868
▁डि	-2869
निर्	-2870
▁कथम	-2871
▁जूगु	-2872
▁अस्मि	-2873
स्यते	-2874
▁ज्ञाप	-2875
▁गुणा	-2876
▁हृदि	-2877
▁सन्नि	-2878
▁स्नान	-2879
▁इत्याह	-2880
▁प्रजाप	-2881
▁प्रयोजन	-2882
नानि	-2883
▁ान्व	-2884
▁कार्यम्	-2885
न्तो	-2886
▁ाङ्ग	-2887
▁कथितं	-2888
▁करिष्यामि	-2889
ाली	-2890
▁वय्	-2891
▁स्वं	-2892
▁युष्मा	-2893
▁श्रो	-2894
इगु	-2895
त्वेन	-2896
▁भागे	-2897
षध	-2898
ोड	-2899
पुं	-2900
▁जीवन	-2901
▁पुरो	-2902
▁मेरे	-2903
▁धन्यवाद	-2904
चं	-2905
ची	-2906
▁अभ्य	-2907
▁रिति	-2908
▁व्रत	-2909
▁संज्ञा	-2910
▁२९	-2911
▁तृतीया	-2912
▁ढ	-2913
बोध	-2914
▁ममा	-2915
त्वम्	-2916
▁गतिः	-2917
▁तच्च	-2918
▁न्न	-2919
▁तयोः	-2920
▁भेदे	-2921
बर	-2922
▁ाह	-2923
▁वज	-2924
शिष्ट	-2925
▁मात्रा	-2926
ून्	-2927
▁अय	-2928
▁आदि	-2929
▁धाः	-2930
▁मानं	-2931
▁कथ्यते	-2932
एस	-2933
ुल	-2934
भास	-2935
▁दाय	-2936
र्हति	-2937
▁दर्शयति	-2938
लिङ्ग	-2939
▁इत्ये	-2940
▁भवत्य	-2941
as	-2942
▁अग्न	-2943
▁मुद्रा	-2944
▁अन्यत्र	-2945
▁W	-2946
▁सय	-2947
▁तदपि	-2948
▁स्ति	-2949
▁मूल्य	-2950
▁४०	-2951
भ्यं	-2952
▁त्यज	-2953
पक्ष	-2954
स्क	-2955
धर्म	-2956
▁कालं	-2957
राणां	-2958
▁ध्रुव	-2959
▁पाण्ड	-2960
▁अर्था	-2961
▁महान्	-2962
दय	-2963
धाय	-2964
र्जन	-2965
▁टिप्प	-2966
हृ	-2967
ित्व	-2968
▁दानं	-2969
▁नाहं	-2970
▁पराज	-2971
▁पत्नी	-2972
▁निर्माण	-2973
▁सूक्ष्म	-2974
कम	-2975
▁an	-2976
▁सङ्ख्या	-2977
च्छा	-2978
▁वदति	-2979
▁संयु	-2980
▁विश्वं	-2981
नतः	-2982
श्यं	-2983
▁माम्	-2984
▁दद्या	-2985
▁माध्य	-2986
▁मृग	-2987
▁मन्द	-2988
▁सायं	-2989
▁पार्थिव	-2990
il	-2991
▁अद	-2992
▁स्वामि	-2993
भे	-2994
▁दं	-2995
▁ादी	-2996
▁नृत्य	-2997
▁प्रीति	-2998
▁स्याद्	-2999
▁रण	-3000
▁कां	-3001
▁	-3002
्	-3003
ा	-3004
त	-3005
र	-3006
ि	-3007
य	-3008
न	-3009
व	-3010
स	-3011
म	-3012
े	-3013
क	-3014
प	-3015
ं	-3016
द	-3017
ः	-3018
ु	-3019
।	-3020
ष	-3021
श	-3022
ो	-3023
ह	-3024
च	-3025
भ	-3026
ी	-3027
ल	-3028
ग	-3029
ध	-3030
अ	-3031
ण	-3032
ज	-3033
थ	-3034
ृ	-3035
-	-3036
ू	-3037
इ	-3038
ब	-3039
.	-3040
ट	-3041
ै	-3042
॥	-3043
ए	-3044
,	-3045
ख	-3046
आ	-3047
"	-3048
उ	-3049
ञ	-3050
ौ	-3051
१	-3052
(	-3053
ऽ	-3054
)	-3055
०	-3056
ड	-3057
ङ	-3058
२	-3059
_	-3060
ठ	-3061
छ	-3062
'	-3063
1	-3064
e	-3065
घ	-3066
a	-3067
2	-3068
0	-3069
?	-3070
i	-3071
फ	-3072
s	-3073
३	-3074
o	-3075
४	-3076
t	-3077
५	-3078
r	-3079
n	-3080
॒	-3081
९	-3082
६	-3083
७	-3084
८	-3085
3	-3086
ई	-3087
/	-3088
:	-3089
4	-3090
l	-3091
5	-3092
ॊ	-3093
॑	-3094
!	-3095
m	-3096
d	-3097
8	-3098
9	-3099
c	-3100
S	-3101
6	-3102
7	-3103
=	-3104
[	-3105
g	-3106
]	-3107
u	-3108
h	-3109
ँ	-3110
p	-3111
;	-3112
ढ	-3113
y	-3114
+	-3115
औ	-3116
ऋ	-3117
v	-3118
A	-3119
I	-3120
़	-3121
*	-3122
b	-3123
ॐ	-3124
T	-3125
f	-3126
P	-3127
C	-3128
ओ	-3129
>	-3130
k	-3131
ऊ	-3132
N	-3133
w	-3134
झ	-3135
E	-3136
M	-3137
D	-3138
B	-3139
x	-3140
R	-3141
L	-3142
॰	-3143
H	-3144
#	-3145
ऐ	-3146
O	-3147
F	-3148
ळ	-3149
ॆ	-3150
V	-3151
ॉ	-3152
G	-3153
U	-3154
@	-3155
ॄ	-3156
%	-3157
$	-3158
{	-3159
<	-3160
}	-3161
X	-3162
K	-3163
&	-3164
W	-3165
•	-3166
→	-3167
j	-3168
J	-3169
Y	-3170
z	-3171
ऑ	-3172
Q	-3173
~	-3174
ꣳ	-3175
ॅ	-3176
←	-3177
^	-3178
q	-3179
̣	-3180
·	-3181
ऎ	-3182
ā	-3183
᳚	-3184
↑	-3185
°	-3186
ʻ	-3187
ऩ	-3188
ʼ	-3189
̇	-3190
\	-3191
Z	-3192
›	-3193
►	-3194
ऱ	-3195
᳘	-3196
×	-3197
¦	-3198
്	-3199
Í	-3200
ऌ	-3201
̄	-3202
̐	-3203
ॠ	-3204
உ	-3205
о	-3206
÷	-3207
‖	-3208
️	-3209
а	-3210
−	-3211
ḥ	-3212
●	-3213
🙏	-3214
€	-3215
Ś	-3216
ર	-3217
்	-3218
ū	-3219
≤	-3220
ऍ	-3221
્	-3222
́	-3223
ا	-3224
е	-3225
н	-3226
¬	-3227
ॢ	-3228
ા	-3229
р	-3230
ऴ	-3231
л	-3232
₹	-3233
ü	-3234
т	-3235
৷	-3236
и	-3237
Ø	-3238
é	-3239
σ	-3240
ə	-3241
ന	-3242
√	-3243
ī	-3244
£	-3245
с	-3246
👉	-3247
꣢	-3248
ś	-3249
в	-3250
ل	-3251
ക	-3252
ṣ	-3253
д	-3254
★	-3255
ન	-3256
ാ	-3257
‐	-3258
ь	-3259
॓	-3260
ી	-3261
≥	-3262
◆	-3263
ம	-3264
✔	-3265
ત	-3266
ி	-3267
ー	-3268
꣣	-3269
ે	-3270
ா	-3271
ി	-3272
ં	-3273
મ	-3274
த	-3275
ു	-3276
‡	-3277
⇒	-3278
❍	-3279
🔊	-3280
á	-3281
î	-3282
¥	-3283
ñ	-3284
¢	-3285
ن	-3286
꣡	-3287
ó	-3288
Ž	-3289
ர	-3290
🙂	-3291
©	-3292
м	-3293
ത	-3294
⁄	-3295
🇳	-3296
🪔	-3297
§	-3298
у	-3299
я	-3300
ر	-3301
م	-3302
ي	-3303
ऄ	-3304
જ	-3305
ો	-3306
ṇ	-3307
і	-3308
【	-3309
🇮	-3310
ˆ	-3311
к	-3312
་	-3313
🚩	-3314
ı	-3315
🌷	-3316
б	-3317
й	-3318
ऺ	-3319
್	-3320
】	-3321
¤	-3322
ç	-3323
í	-3324
̥	-3325
ક	-3326
ய	-3327
ര	-3328
വ	-3329
語	-3330
🌹	-3331
ு	-3332
י	-3333
વ	-3334
ப	-3335
வ	-3336
♦	-3337
Î	-3338
ː	-3339
г	-3340
з	-3341
্	-3342
આ	-3343
∕	-3344
à	-3345
è	-3346
ˈ	-3347
പ	-3348
া	-3349
સ	-3350
ം	-3351
ട	-3352
െ	-3353
ᳪ	-3354
Ó	-3355
د	-3356
س	-3357
க	-3358
ந	-3359
❌	-3360
®	-3361
п	-3362
ц	-3363
ऒ	-3364
ন	-3365
ன	-3366
ನ	-3367
യ	-3368
✅	-3369
ع	-3370
ه	-3371
ತ	-3372
ങ	-3373
മ	-3374
ṭ	-3375
い	-3376
ö	-3377
х	-3378
ی	-3379
ত	-3380
પ	-3381
બ	-3382
ல	-3383
ಾ	-3384
ṛ	-3385
†	-3386
ィ	-3387
🔥	-3388
â	-3389
ɪ	-3390
ب	-3391
ऻ	-3392
ি	-3393
હ	-3394
ರ	-3395
അ	-3396
‹	-3397
⇄	-3398
✍	-3399
🛑	-3400
ú	-3401
ɑ	-3402
С	-3403
ж	-3404
ו	-3405
র	-3406
ગ	-3407
్	-3408
ಿ	-3409
ച	-3410
ല	-3411
᳭	-3412
ン	-3413
🌺	-3414
¡	-3415
±	-3416
ï	-3417
ş	-3418
̊	-3419
μ	-3420
ы	-3421
॔	-3422
િ	-3423
⋙	-3424
■	-3425
▲	-3426
❑	-3427
🌞	-3428
📖	-3429
Ï	-3430
ã	-3431
ł	-3432
š	-3433
̈	-3434
М	-3435
و	-3436
ܘ	-3437
ॡ	-3438
ম	-3439
એ	-3440
છ	-3441
ય	-3442
ು	-3443
ദ	-3444
ോ	-3445
၊	-3446
✓	-3447
❤	-3448
➧	-3449
🏻	-3450
🕉	-3451
α	-3452
Б	-3453
ت	-3454
ু	-3455
ದ	-3456
ṃ	-3457
′	-3458
∠	-3459
◎	-3460
ヒ	-3461
一	-3462
语	-3463
ê	-3464
ʊ	-3465
ю	-3466
ה	-3467
ى	-3468
ک	-3469
ক	-3470
দ	-3471
૧	-3472
அ	-3473
ి	-3474
ಂ	-3475
ಲ	-3476
ണ	-3477
ള	-3478
❯	-3479
。	-3480
し	-3481
の	-3482
デ	-3483
マ	-3484
🌸	-3485
💐	-3486
😂	-3487
¶	-3488
Þ	-3489
İ	-3490
ʃ	-3491
̃	-3492
ч	-3493
א	-3494
ב	-3495
য	-3496
ુ	-3497
ం	-3498
న	-3499
ర	-3500
ಸ	-3501
ᄌ	-3502
ḍ	-3503
ṁ	-3504
◉	-3505
◌	-3506
☝	-3507
➡	-3508
図	-3509
大	-3510
書	-3511
月	-3512
À	-3513
È	-3514
̶	-3515
Х	-3516
щ	-3517
ר	-3518
ش	-3519
ব	-3520
ল	-3521
স	-3522
ে	-3523
ટ	-3524
શ	-3525
ழ	-3526
ಕ	-3527
ಗ	-3528
ವ	-3529
೦	-3530
റ	-3531
േ	-3532
▶	-3533
◦	-3534
☆	-3535
⭐	-3536
か	-3537
ラ	-3538
增	-3539
전	-3540
💮	-3541
🔱	-3542
😊	-3543
Æ	-3544
Ç	-3545
Ü	-3546
ý	-3547
ē	-3548
Š	-3549
ɛ	-3550
П	-3551
ט	-3552
ס	-3553
ॿ	-3554
আ	-3555
ো	-3556
ਕ	-3557
થ	-3558
દ	-3559
ળ	-3560
ட	-3561
ண	-3562
ெ	-3563
య	-3564
వ	-3565
ు	-3566
ಡ	-3567
ಯ	-3568
ೆ	-3569
ശ	-3570
സ	-3571
ൊ	-3572
∆	-3573
▪	-3574
♂	-3575
♥	-3576
お	-3577
つ	-3578
テ	-3579
余	-3580
名	-3581
音	-3582
다	-3583
🔹	-3584
Ê	-3585
æ	-3586
ĉ	-3587
ō	-3588
ž	-3589
̧	-3590
θ	-3591
π	-3592
В	-3593
Д	-3594
Т	-3595
є	-3596
מ	-3597
ء	-3598
ح	-3599
ز	-3600
ق	-3601
گ	-3602
ܬ	-3603
উ	-3604
হ	-3605
ਾ	-3606
ણ	-3607
ભ	-3608
எ	-3609
ற	-3610
ோ	-3611
త	-3612
మ	-3613
ా	-3614
ಳ	-3615
എ	-3616
ധ	-3617
∴	-3618
す	-3619
な	-3620
パ	-3621
ル	-3622
年	-3623
行	-3624
꣯	-3625
사	-3626
🌻	-3627
🌿	-3628
🍃	-3629
🔅	-3630
Û	-3631
Ā	-3632
Œ	-3633
Ş	-3634
ż	-3635
ǁ	-3636
ˌ	-3637
ς	-3638
φ	-3639
Ј	-3640
А	-3641
Н	-3642
Р	-3643
ш	-3644
э	-3645
ל	-3646
ة	-3647
ف	-3648
ہ	-3649
۔	-3650
ە	-3651
জ	-3652
থ	-3653
প	-3654
়	-3655
ਰ	-3656
ੀ	-3657
અ	-3658
ઉ	-3659
ି	-3660
ಪ	-3661
ಮ	-3662
ೀ	-3663
ഗ	-3664
ജ	-3665
ഷ	-3666
ས	-3667
ა	-3668
ṅ	-3669
‒	-3670
⇔	-3671
∫	-3672
⋆	-3673
▼	-3674
♀	-3675
⛳	-3676
✳	-3677
❇	-3678
あ	-3679
く	-3680
シ	-3681
ズ	-3682
ネ	-3683
亦	-3684
知	-3685
음	-3686
🌄	-3687
🍁	-3688
📚	-3689
🔗	-3690
🔶	-3691
😀	-3692
😃	-3693
😎	-3694
😞	-3695
😢	-3696
Ì	-3697
Ð	-3698
ß	-3699
ä	-3700
ì	-3701
ô	-3702
ø	-3703
ę	-3704
Ō	-3705
œ	-3706
ƒ	-3707
ǀ	-3708
ʒ	-3709
̕	-3710
Δ	-3711
Ι	-3712
ή	-3713
β	-3714
ι	-3715
ρ	-3716
Ц	-3717
Э	-3718
ї	-3719
פ	-3720
ئ	-3721
ك	-3722
ܐ	-3723
ܒ	-3724
ܛ	-3725
ܦ	-3726
ܪ	-3727
গ	-3728
ধ	-3729
ਲ	-3730
ધ	-3731
ફ	-3732
લ	-3733
ૐ	-3734
૦	-3735
૪	-3736
இ	-3737
ஜ	-3738
ள	-3739
ஶ	-3740
ஷ	-3741
ொ	-3742
క	-3743
ల	-3744
స	-3745
ആ	-3746
ഇ	-3747
ഉ	-3748
ഞ	-3749
්	-3750
།	-3751
᳖	-3752
―	-3753
‰	-3754
※	-3755
≍	-3756
⏳	-3757
◄	-3758
♣	-3759
⛅	-3760
➛	-3761
➢	-3762
➤	-3763
た	-3764
っ	-3765
て	-3766
と	-3767
ッ	-3768
リ	-3769
不	-3770
义	-3771
亲	-3772
人	-3773
何	-3774
僕	-3775
十	-3776
可	-3777
国	-3778
如	-3779
尔	-3780
应	-3781
彼	-3782
愛	-3783
我	-3784
故	-3785
无	-3786
氣	-3787
的	-3788
觉	-3789
試	-3790
论	-3791
靈	-3792
기	-3793
낱	-3794
니	-3795
말	-3796
세	-3797
위	-3798
이	-3799
키	-3800
하	-3801
👇	-3802
👌	-3803
🔍	-3804
😜	-3805
😡	-3806
😳	-3807
¿	-3808
Á	-3809
Â	-3810
Ã	-3811
Ö	-3812
ð	-3813
ò	-3814
õ	-3815
ć	-3816
č	-3817
ě	-3818
ğ	-3819
į	-3820
ř	-3821
Ÿ	-3822
ɔ	-3823
ɜ	-3824
ʁ	-3825
ʏ	-3826
Ψ	-3827
δ	-3828
η	-3829
κ	-3830
ν	-3831
ο	-3832
τ	-3833
З	-3834
И	-3835
Й	-3836
О	-3837
У	-3838
ג	-3839
ש	-3840
ת	-3841
آ	-3842
إ	-3843
ج	-3844
پ	-3845
چ	-3846
ܣ	-3847
ং	-3848
ট	-3849
ৰ	-3850
ৱ	-3851
ਮ	-3852
ਸ	-3853
ੋ	-3854
੍	-3855
ઃ	-3856
ચ	-3857
ઞ	-3858
ડ	-3859
ષ	-3860
૯	-3861
ஸ	-3862
ீ	-3863
ே	-3864
భ	-3865
ಉ	-3866
ಎ	-3867
ಚ	-3868
ಬ	-3869
ಶ	-3870
ಹ	-3871
೨	-3872
ഈ	-3873
ബ	-3874
ീ	-3875
ർ	-3876
ൾ	-3877
ක	-3878
ය	-3879
ව	-3880
ා	-3881
ි	-3882
ག	-3883
ུ	-3884
გ	-3885
ზ	-3886
ი	-3887
ᄉ	-3888
ᅩ	-3889
ጻ	-3890
ᛁ	-3891
ᛖ	-3892
ᴇ	-3893
Ṛ	-3894
Ủ	-3895
⃣	-3896
↔	-3897
∈	-3898
≈	-3899
◇	-3900
☀	-3901
✥	-3902
✴	-3903
❁	-3904
➜	-3905
う	-3906
き	-3907
だ	-3908
ま	-3909
ら	-3910
る	-3911
を	-3912
ア	-3913
コ	-3914
ス	-3915
タ	-3916
チ	-3917
ト	-3918
为	-3919
京	-3920
作	-3921
依	-3922
反	-3923
因	-3924
意	-3925
成	-3926
所	-3927
新	-3928
期	-3929
果	-3930
格	-3931
梵	-3932
機	-3933
母	-3934
比	-3935
生	-3936
用	-3937
痛	-3938
発	-3939
相	-3940
者	-3941
能	-3942
自	-3943
薩	-3944
说	-3945
诸	-3946
通	-3947
遣	-3948
释	-3949
量	-3950
間	-3951
非	-3952
颂	-3953
대	-3954
발	-3955
브	-3956
요	-3957
합	-3958
𑑂	-3959
🇵	-3960
🌉	-3961
🌙	-3962
🌟	-3963
🌱	-3964
🍀	-3965
👫	-3966
💕	-3967
🔐	-3968
🔔	-3969
🔸	-3970
😉	-3971
😍	-3972
🤝	-3973
Å	-3974
Ò	-3975
Ú	-3976
ù	-3977
ą	-3978
Ċ	-3979
ė	-3980
ŋ	-3981
ư	-3982
ǒ	-3983
ǔ	-3984
ɒ	-3985
ɡ	-3986
̆	-3987
ά	-3988
ε	-3989
χ	-3990
ό	-3991
І	-3992
К	-3993
Ф	-3994
Ю	-3995
Я	-3996
ф	-3997
ј	-3998
ү	-3999
ם	-4000
ן	-4001
נ	-4002
ע	-4003
ק	-4004
أ	-4005
ص	-4006
ط	-4007
غ	-4008
ً	-4009
٬	-4010
ڪ	-4011
ۆ	-4012
ۇ	-4013
ܠ	-4014
ॾ	-4015
ই	-4016
খ	-4017
ঘ	-4018
চ	-4019
ছ	-4020
ী	-4021
ਅ	-4022
ਗ	-4023
ਤ	-4024
ਨ	-4025
ਪ	-4026
ਬ	-4027
਼	-4028
ਿ	-4029
ੇ	-4030
ੱ	-4031
ઈ	-4032
ઓ	-4033
ઠ	-4034
઼	-4035
ૂ	-4036
૨	-4037
૫	-4038
ଆ	-4039
ଓ	-4040
ଡ	-4041
ପ	-4042
ର	-4043
ଲ	-4044
଼	-4045
ା	-4046
ஆ	-4047
ச	-4048
అ	-4049
డ	-4050
ద	-4051
ప	-4052
శ	-4053
ె	-4054
ಃ	-4055
ಭ	-4056
ೇ	-4057
೪	-4058
ഛ	-4059
ഥ	-4060
ഭ	-4061
ഹ	-4062
ൂ	-4063
ൈ	-4064
ൻ	-4065
ൽ	-4066
ද	-4067
ස	-4068
น	-4069
ิ	-4070
ང	-4071
ཐ	-4072
པ	-4073
མ	-4074
ཡ	-4075
ལ	-4076
ཧ	-4077
ཱ	-4078
ྥ	-4079
ླ	-4080
ᆬ	-4081
ሕ	-4082
ብ	-4083
ዝ	-4084
ᛋ	-4085
ᛚ	-4086
᛫	-4087
᭭	-4088
ᳲ	-4089
ḏ	-4090
ṝ	-4091
ắ	-4092
Ἀ	-4093
∅	-4094
≠	-4095
≡	-4096
≦	-4097
▷	-4098
◊	-4099
☑	-4100
☘	-4101
☰	-4102
♡	-4103
♫	-4104
⚫	-4105
✌	-4106
✒	-4107
✧	-4108
✨	-4109
✺	-4110
❣	-4111
➥	-4112
⦁	-4113
、	-4114
《	-4115
》	-4116
「	-4117
」	-4118
が	-4119
さ	-4120
に	-4121
ひ	-4122
み	-4123
む	-4124
め	-4125
も	-4126
や	-4127
よ	-4128
ん	-4129
ジ	-4130
バ	-4131
プ	-4132
ボ	-4133
ロ	-4134
・	-4135
三	-4136
上	-4137
了	-4138
事	-4139
于	-4140
五	-4141
从	-4142
代	-4143
伟	-4144
修	-4145
全	-4146
八	-4147
六	-4148
具	-4149
切	-4150
加	-4151
北	-4152
卐	-4153
印	-4154
各	-4155
合	-4156
吗	-4157
员	-4158
和	-4159
哲	-4160
哷	-4161
地	-4162
堂	-4163
声	-4164
外	-4165
天	-4166
奪	-4167
好	-4168
婆	-4169
存	-4170
安	-4171
小	-4172
尼	-4173
广	-4174
度	-4175
异	-4176
当	-4177
整	-4178
方	-4179
显	-4180
普	-4181
晴	-4182
更	-4183
有	-4184
東	-4185
械	-4186
此	-4187
泊	-4188
然	-4189
猫	-4190
球	-4191
理	-4192
由	-4193
白	-4194
益	-4195
研	-4196
祖	-4197
程	-4198
立	-4199
第	-4200
素	-4201
而	-4202
许	-4203
身	-4204
都	-4205
间	-4206
页	-4207
首	-4208
감	-4209
공	-4210
교	-4211
급	-4212
두	-4213
듬	-4214
라	-4215
로	-4216
리	-4217
민	-4218
비	-4219
서	-4220
성	-4221
슈	-4222
신	-4223
아	-4224
어	-4225
영	-4226
예	-4227
완	-4228
의	-4229
인	-4230
좀	-4231
주	-4232
학	-4233
한	-4234
히	-4235
𑐎	-4236
𑐕	-4237
𑐫	-4238
𑐮	-4239
𑐴	-4240
𑐵	-4241
𑑄	-4242
𑑅	-4243
🇦	-4244
🇺	-4245
🌈	-4246
🌏	-4247
🌼	-4248
🍥	-4249
🎉	-4250
🎖	-4251
🎯	-4252
🐯	-4253
👈	-4254
👍	-4255
👏	-4256
👨	-4257
👩	-4258
👴	-4259
💄	-4260
💏	-4261
💔	-4262
💛	-4263
💥	-4264
📌	-4265
📎	-4266
📝	-4267
📰	-4268
🔰	-4269
😄	-4270
😅	-4271
😒	-4272
😘	-4273
🙍	-4274
🥀	-4275
🥇	-4276
🩸	-4277
É	-4278
Ë	-4279
Õ	-4280
å	-4281
ë	-4282
û	-4283
þ	-4284
ÿ	-4285
ă	-4286
ĕ	-4287
Ę	-4288
Ī	-4289
Ķ	-4290
ń	-4291
Ŏ	-4292
ŏ	-4293
ť	-4294
Ů	-4295
ų	-4296
Ż	-4297
Ǒ	-4298
ȧ	-4299
Ȩ	-4300
ȯ	-4301
ʈ	-4302
ʉ	-4303
ʋ	-4304
ʌ	-4305
ʟ	-4306
ʿ	-4307
ˎ	-4308
ˑ	-4309
̍	-4310
̖	-4311
̠	-4312
̪	-4313
Ά	-4314
Κ	-4315
Μ	-4316
Ο	-4317
Σ	-4318
Φ	-4319
Ω	-4320
ζ	-4321
ω	-4322
Е	-4323
Л	-4324
Ч	-4325
ё	-4326
ў	-4327
ҫ	-4328
ә	-4329
Ө	-4330
Ե	-4331
Կ	-4332
Հ	-4333
ա	-4334
ե	-4335
ն	-4336
ր	-4337
ւ	-4338
ַ	-4339
ד	-4340
כ	-4341
ף	-4342
צ	-4343
ײ	-4344
؞	-4345
خ	-4346
ذ	-4347
ُ	-4348
ِ	-4349
٫	-4350
ٰ	-4351
ٹ	-4352
ټ	-4353
ڌ	-4354
ں	-4355
ڼ	-4356
ھ	-4357
ۂ	-4358
ܕ	-4359
ܚ	-4360
ܟ	-4361
ॱ	-4362
ॵ	-4363
ॺ	-4364
ॼ	-4365
এ	-4366
ঠ	-4367
ড	-4368
ঢ	-4369
ণ	-4370
ষ	-4371
ৃ	-4372
০	-4373
৩	-4374
৭	-4375
ਂ	-4376
ਇ	-4377
ਊ	-4378
ਏ	-4379
ਖ	-4380
ਜ	-4381
ਟ	-4382
ਡ	-4383
ਣ	-4384
ਦ	-4385
ੁ	-4386
ੂ	-4387
ੰ	-4388
ખ	-4389
ઝ	-4390
ૃ	-4391
ૠ	-4392
૩	-4393
૬	-4394
૭	-4395
૮	-4396
ଃ	-4397
କ	-4398
ଖ	-4399
ତ	-4400
ଭ	-4401
େ	-4402
୍	-4403
ୟ	-4404
ஐ	-4405
ஹ	-4406
ூ	-4407
ை	-4408
ఉ	-4409
ఎ	-4410
ఓ	-4411
చ	-4412
జ	-4413
ధ	-4414
ఫ	-4415
ష	-4416
హ	-4417
ే	-4418
ై	-4419
ో	-4420
ಅ	-4421
ಇ	-4422
ಜ	-4423
ಟ	-4424
ಠ	-4425
ೂ	-4426
ೃ	-4427
ೊ	-4428
ೋ	-4429
೧	-4430
೩	-4431
ೲ	-4432
ഖ	-4433
ഠ	-4434
ഴ	-4435
ൃ	-4436
ග	-4437
ත	-4438
න	-4439
ප	-4440
ම	-4441
ල	-4442
ශ	-4443
ො	-4444
ค	-4445
ง	-4446
ด	-4447
ต	-4448
บ	-4449
พ	-4450
ฟ	-4451
ม	-4452
ร	-4453
ห	-4454
อ	-4455
ฮ	-4456
ั	-4457
า	-4458
ี	-4459
เ	-4460
โ	-4461
่	-4462
้	-4463
༔	-4464
༡	-4465
༣	-4466
༨	-4467
ཁ	-4468
ཊ	-4469
ན	-4470
བ	-4471
ཚ	-4472
ཝ	-4473
ཟ	-4474
ཥ	-4475
ི	-4476
ྀ	-4477
ྒ	-4478
ྨ	-4479
ྭ	-4480
ྱ	-4481
ྲ	-4482
დ	-4483
ე	-4484
ვ	-4485
თ	-4486
ლ	-4487
ნ	-4488
რ	-4489
ს	-4490
უ	-4491
ც	-4492
ሉ	-4493
ሩ	-4494
በ	-4495
ቮ	-4496
እ	-4497
ኳ	-4498
ገ	-4499
ፂ	-4500
ፃ	-4501
፪	-4502
ᒃ	-4503
ᒄ	-4504
ᒎ	-4505
ᓚ	-4506
ᗢ	-4507
ᘏ	-4508
ᚨ	-4509
ᚩ	-4510
ᚻ	-4511
ᚾ	-4512
ᛏ	-4513
ᛗ	-4514
ᛞ	-4515
ᭅ	-4516
᭠	-4517
ᮩ	-4518
᮰	-4519
ᱧ	-4520
Ჱ	-4521
᳒	-4522
ᳬ	-4523
ᴀ	-4524
Ḩ	-4525
ế	-4526
ệ	-4527
ὁ	-4528
ὕ	-4529
ὸ	-4530
ῖ	-4531
₩	-4532
↓	-4533
↕	-4534
↗	-4535
↩	-4536
↲	-4537
⇏	-4538
∖	-4539
∙	-4540
∝	-4541
∩	-4542
∵	-4543
⊂	-4544
⊃	-4545
⊕	-4546
▀	-4547
□	-4548
△	-4549
☁	-4550
☸	-4551
☹	-4552
☺	-4553
♈	-4554
♉	-4555
♻	-4556
⚏	-4557
⚕	-4558
⚡	-4559
⚪	-4560
⛈	-4561
⛹	-4562
✖	-4563
✦	-4564
✪	-4565
✹	-4566
✼	-4567
✿	-4568
❗	-4569
➖	-4570
➞	-4571
➦	-4572
➨	-4573
⟶	-4574
⟷	-4575
⠀	-4576
⭕	-4577
〈	-4578
け	-4579
げ	-4580
ご	-4581
ざ	-4582
ち	-4583
で	-4584
ど	-4585
は	-4586
ゃ	-4587
れ	-4588
イ	-4589
エ	-4590
オ	-4591
ク	-4592
グ	-4593
セ	-4594
ゼ	-4595
ソ	-4596
ツ	-4597
ナ	-4598
ノ	-4599
ピ	-4600
ポ	-4601
ャ	-4602
ョ	-4603
七	-4604
与	-4605
世	-4606
中	-4607
习	-4608
乱	-4609
二	-4610
互	-4611
介	-4612
仕	-4613
份	-4614
休	-4615
位	-4616
你	-4617
使	-4618
個	-4619
倒	-4620
健	-4621
元	-4622
入	-4623
其	-4624
円	-4625
册	-4626
决	-4627
出	-4628
划	-4629
列	-4630
利	-4631
别	-4632
到	-4633
副	-4634
助	-4635
化	-4636
卍	-4637
南	-4638
叉	-4639
发	-4640
口	-4641
句	-4642
同	-4643
后	-4644
吥	-4645
吸	-4646
告	-4647
咒	-4648
哉	-4649
哥	-4650
唯	-4651
喝	-4652
嘅	-4653
器	-4654
四	-4655
固	-4656
國	-4657
域	-4658
報	-4659
境	-4660
处	-4661
复	-4662
多	-4663
夜	-4664
夢	-4665
奖	-4666
威	-4667
孕	-4668
字	-4669
学	-4670
官	-4671
定	-4672
宦	-4673
寝	-4674
尊	-4675
少	-4676
属	-4677
岂	-4678
工	-4679
师	-4680
席	-4681
常	-4682
废	-4683
康	-4684
廬	-4685
引	-4686
弥	-4687
影	-4688
得	-4689
徹	-4690
忘	-4691
念	-4692
性	-4693
惑	-4694
感	-4695
憶	-4696
戻	-4697
执	-4698
投	-4699
摩	-4700
收	-4701
改	-4702
政	-4703
效	-4704
文	-4705
日	-4706
时	-4707
星	-4708
是	-4709
最	-4710
朝	-4711
杂	-4712
某	-4713
染	-4714
查	-4715
栄	-4716
检	-4717
模	-4718
権	-4719
款	-4720
止	-4721
民	-4722
永	-4723
求	-4724
汇	-4725
没	-4726
流	-4727
消	-4728
添	-4729
灭	-4730
熟	-4731
父	-4732
牙	-4733
现	-4734
班	-4735
疆	-4736
發	-4737
直	-4738
破	-4739
离	-4740
秘	-4741
稱	-4742
究	-4743
章	-4744
答	-4745
简	-4746
类	-4747
紅	-4748
終	-4749
続	-4750
網	-4751
繁	-4752
维	-4753
肉	-4754
花	-4755
若	-4756
英	-4757
茶	-4758
葬	-4759
處	-4760
蛟	-4761
蝶	-4762
衆	-4763
表	-4764
西	-4765
见	-4766
观	-4767
视	-4768
解	-4769
言	-4770
記	-4771
訳	-4772
論	-4773
讓	-4774
计	-4775
讨	-4776
话	-4777
贪	-4778
越	-4779
足	-4780
車	-4781
转	-4782
辦	-4783
达	-4784
过	-4785
运	-4786
返	-4787
追	-4788
逝	-4789
進	-4790
那	-4791
金	-4792
鉄	-4793
错	-4794
长	-4795
闻	-4796
阿	-4797
除	-4798
陸	-4799
障	-4800
雨	-4801
電	-4802
面	-4803
韩	-4804
響	-4805
願	-4806
须	-4807
飞	-4808
飲	-4809
龙	-4810
꣫	-4811
ꣲ	-4812
가	-4813
간	-4814
개	-4815
게	-4816
고	-4817
과	-4818
국	-4819
금	-4820
깨	-4821
나	-4822
냐	-4823
녹	-4824
는	-4825
달	-4826
더	-4827
동	-4828
따	-4829
뜨	-4830
락	-4831
레	-4832
력	-4833
름	-4834
만	-4835
망	-4836
맵	-4837
몸	-4838
못	-4839
뭐	-4840
받	-4841
백	-4842
번	-4843
법	-4844
봇	-4845
산	-4846
상	-4847
수	-4848
술	-4849
쉬	-4850
스	-4851
승	-4852
시	-4853
없	-4854
에	-4855
염	-4856
외	-4857
우	-4858
운	-4859
월	-4860
을	-4861
임	-4862
입	-4863
있	-4864
자	-4865
적	-4866
절	-4867
정	-4868
조	-4869
중	-4870
증	-4871
지	-4872
째	-4873
청	-4874
크	-4875
탄	-4876
탑	-4877
터	-4878
트	-4879
특	-4880
팅	-4881
파	-4882
함	-4883
허	-4884
효	-4885
힌	-4886
힘	-4887
︎	-4888
𑆤	-4889
𑌏	-4890
𑌥	-4891
𑌫	-4892
𑌮	-4893
𑌸	-4894
𑐰	-4895
𑑀	-4896
🅰	-4897
🇱	-4898
🇸	-4899
🇹	-4900
🌀	-4901
🌃	-4902
🌅	-4903
🌍	-4904
🌎	-4905
🌖	-4906
🌛	-4907
🌝	-4908
🌠	-4909
🌰	-4910
🌴	-4911
🍋	-4912
🍾	-4913
🎂	-4914
🎃	-4915
🎊	-4916
🎋	-4917
🎎	-4918
🎓	-4919
🎤	-4920
🎵	-4921
🎶	-4922
🎼	-4923
🏀	-4924
🏃	-4925
🏏	-4926
🏠	-4927
🏮	-4928
🏷	-4929
🏹	-4930
🏽	-4931
🐕	-4932
🐙	-4933
👆	-4934
👞	-4935
👣	-4936
👦	-4937
👧	-4938
👱	-4939
💑	-4940
💓	-4941
💖	-4942
💗	-4943
💘	-4944
💚	-4945
💝	-4946
💠	-4947
💦	-4948
💧	-4949
💫	-4950
💰	-4951
💱	-4952
💵	-4953
📂	-4954
📏	-4955
📕	-4956
📢	-4957
📣	-4958
📱	-4959
📳	-4960
📸	-4961
📺	-4962
🔟	-4963
🔷	-4964
🔺	-4965
🔻	-4966
🕔	-4967
🖊	-4968
🖱	-4969
🗃	-4970
🗒	-4971
🗣	-4972
🗳	-4973
😇	-4974
😌	-4975
😔	-4976
😝	-4977
😩	-4978
🙁	-4979
🙅	-4980
🙆	-4981
🙌	-4982
🙎	-4983
🚑	-4984
🚷	-4985
🛡	-4986
🤔	-4987
🤗	-4988
🤦	-4989
🤩	-4990
🤪	-4991
🤲	-4992
🥂	-4993
🥰	-4994
🦂	-4995
🧐	-4996
