<unk>	0
<s>	0
</s>	0
▁।	-3.41754
▁ं	-3.86293
▁ः	-3.94503
▁स	-4.25135
▁ा	-4.25196
▁न	-4.37413
▁े	-4.43497
▁-	-4.55127
▁क	-4.62231
▁प	-4.62311
▁प्र	-4.64924
त	-4.74252
▁म	-4.75628
▁च	-4.80789
▁अ	-4.85445
▁म्	-4.92517
▁ो	-4.9336
▁॥	-4.93723
▁त	-4.96274
▁,	-5.03959
▁.	-5.10826
▁व	-5.14495
▁ि	-5.18682
▁वि	-5.25692
ा	-5.25703
▁"	-5.28015
▁द	-5.28637
▁ी	-5.33343
▁स्य	-5.35065
▁्य	-5.44844
▁ते	-5.49731
▁र	-5.50458
▁श	-5.52794
▁य	-5.589
▁आ	-5.59437
न	-5.65695
▁(	-5.6603
▁इति	-5.67682
ः	-5.6808
▁ाः	-5.70858
▁ज	-5.73928
▁ेन	-5.73954
ं	-5.79264
▁्	-5.80427
म	-5.81176
▁ल	-5.81372
य	-5.82401
▁भ	-5.83787
स	-5.84998
▁ग	-5.86037
े	-5.86747
ि	-5.91235
क	-5.92731
▁वा	-5.94523
▁नि	-5.95339
्	-5.96117
प	-5.97322
व	-5.97362
▁'	-5.97792
▁१	-6.00459
▁ब	-6.03511
▁)	-6.04535
▁सर्व	-6.0537
▁सं	-6.05687
▁तु	-6.06466
▁ह	-6.09391
▁उ	-6.09433
र	-6.13085
्य	-6.13715
▁०	-6.16209
▁ति	-6.1657
▁_	-6.17566
▁ित	-6.18447
▁ु	-6.23593
▁	-6.26537
▁इत्य	-6.26842
▁स्व	-6.27178
▁एव	-6.27662
▁२	-6.2889
▁हि	-6.29881
▁या	-6.31039
▁सा	-6.33361
▁1	-6.34067
ो	-6.34661
▁ौ	-6.3484
द	-6.35085
▁त्व	-6.35107
▁?	-6.37001
▁ात्	-6.38063
▁इ	-6.38289
▁सम	-6.38562
▁्र	-6.3938
▁ण	-6.4052
▁ानि	-6.40638
▁यथा	-6.46069
▁िक	-6.47315
▁0	-6.47358
▁ाय	-6.51168
▁सु	-6.51372
▁प्रति	-6.51517
▁पि	-6.55184
▁2	-6.57007
▁परि	-6.57865
▁ानां	-6.59771
▁ध	-6.60831
ी	-6.61123
▁मा	-6.64338
च	-6.70344
▁पर	-6.70557
.	-6.70588
ग	-6.72494
▁मे	-6.74303
▁ेण	-6.75044
▁ना	-6.752
▁तत्	-6.76042
ह	-6.76309
▁४	-6.76962
▁३	-6.77673
▁भवति	-6.79303
▁ेषु	-6.79409
▁तः	-6.80285
▁यति	-6.80371
▁त्	-6.80697
▁देव	-6.81717
▁तथा	-6.82086
▁ान्	-6.8244
▁५	-6.82635
▁तद	-6.82671
▁ऽ	-6.83057
▁ख	-6.83621
▁त्र	-6.85589
▁िः	-6.85903
▁व्य	-6.86486
▁पूर्व	-6.87453
▁भव	-6.87572
▁ैः	-6.87871
▁वै	-6.88426
▁॒	-6.88528
▁ता	-6.88645
▁तस्य	-6.89398
▁कार	-6.8981
▁्वा	-6.90457
▁एक	-6.90838
▁स्	-6.90938
)	-6.92253
▁र्	-6.92688
▁९	-6.94424
▁श्च	-6.94814
▁्या	-6.9818
▁ेव	-6.98418
▁किं	-6.98584
▁ाद	-6.98914
▁ष	-6.9917
▁६	-6.9985
▁रा	-7.00368
▁अपि	-7.00423
▁देश	-7.01524
▁थ	-7.01916
ध	-7.02348
▁ान	-7.02445
ण	-7.03021
▁:	-7.03204
▁यदि	-7.03276
ु	-7.04033
▁७	-7.0406
▁ादि	-7.04555
▁उप	-7.0471
▁नाम	-7.05078
▁ये	-7.05126
▁ए	-7.05205
▁८	-7.05271
▁/	-7.06317
▁3	-7.07525
▁तत्र	-7.07527
▁ार्थ	-7.07735
▁न्ति	-7.08015
▁कर्म	-7.08261
▁धर्म	-7.08835
▁यत्	-7.09709
▁अस्ति	-7.09839
▁भाव	-7.09849
ल	-7.11414
▁सह	-7.11616
▁मम	-7.11825
▁ज्ञान	-7.12239
▁ाव	-7.13223
▁!	-7.14284
▁ां	-7.16854
▁निर्	-7.17213
▁कृत	-7.17474
▁कार्य	-7.17839
▁जन	-7.1787
▁॑	-7.18316
श	-7.1846
▁एवं	-7.18874
्व	-7.20277
▁पद	-7.20433
▁ट	-7.21302
▁वर्ष	-7.21755
▁न्त्र	-7.21941
▁वृत्त	-7.22098
।	-7.22763
▁राज	-7.22936
▁दृष्ट	-7.23146
▁का	-7.23619
▁ेति	-7.23866
▁पुनः	-7.24612
▁ीय	-7.25439
र्	-7.25515
▁भूत	-7.25703
▁ाणि	-7.259
▁स्थ	-7.25914
▁4	-7.26064
▁स्त	-7.26237
▁अनु	-7.26272
▁त्वं	-7.26974
▁5	-7.26988
a	-7.27961
▁काल	-7.27972
▁गुण	-7.28041
भ	-7.28162
▁ाह	-7.30291
▁यो	-7.3036
▁शब्द	-7.30394
▁ोऽ	-7.31787
ष्ट	-7.33547
▁रूप	-7.33566
▁फ	-7.33613
▁ू	-7.33768
▁यां	-7.33833
▁व्या	-7.34096
▁के	-7.3483
▁विद्य	-7.35527
▁पुत्र	-7.35987
▁न्त	-7.36879
क्ष	-7.36908
▁[	-7.36917
▁लोक	-7.36962
▁गत	-7.37101
▁ाप्त	-7.37247
▁ड	-7.37305
▁युक्त	-7.3751
▁महा	-7.37521
▁त्रि	-7.37871
▁द्वि	-7.38022
▁ष्ट	-7.38283
▁ॊ	-7.38757
▁क्ष	-7.39036
न्	-7.39039
▁न्	-7.39113
▁ार	-7.39974
▁तव	-7.40423
▁वर	-7.4186
▁ततः	-7.41872
▁छ	-7.41893
e	-7.42215
▁धन	-7.42262
▁यः	-7.42325
▁्व	-7.4259
▁यद	-7.42608
▁विशेष	-7.42824
▁अथ	-7.44883
स्	-7.4489
▁ित्	-7.45061
o	-7.45085
▁तदा	-7.4599
▁तेन	-7.46058
▁घ	-7.46918
▁कर	-7.46935
▁िति	-7.47138
▁श्र	-7.47345
▁कु	-7.47478
i	-7.47516
▁सिद्ध	-7.4781
▁विश्व	-7.47922
▁9	-7.48005
▁=	-7.48484
▁्मिन्	-7.48777
▁ैव	-7.48835
▁योग	-7.50433
▁8	-7.50449
प्र	-7.51224
▁्त	-7.51504
▁अस	-7.51645
त्	-7.51701
s	-7.51775
▁मु	-7.52545
▁स्थित	-7.53616
▁6	-7.54063
▁ै	-7.54443
▁ान्त	-7.54454
▁न्द्र	-7.54755
▁फल	-7.54801
▁दश	-7.55519
▁दृश्य	-7.56363
▁वान्	-7.56464
▁तद्	-7.56592
▁7	-7.57732
▁न्ते	-7.57822
▁नु	-7.57887
▁लि	-7.59172
ाप	-7.59209
▁मान	-7.59613
▁अप	-7.60386
▁्यते	-7.60451
▁]	-7.60715
▁सः	-7.61497
ज	-7.61892
▁ेत	-7.62853
▁ाणां	-7.63107
▁र्थ	-7.6328
▁क्रिय	-7.63381
▁कर्त	-7.63491
०	-7.63492
▁मेव	-7.637
▁ुक्त	-7.64262
▁यामि	-7.64524
▁कल्प	-7.64792
,	-7.64929
▁ानु	-7.65263
▁ोप	-7.65508
▁कथं	-7.65887
▁वेद	-7.66088
▁स्तु	-7.66879
▁ङ्ग	-7.67321
▁ापि	-7.67923
▁अव	-7.68148
▁वर्त	-7.68278
▁क्र	-7.68526
▁पु	-7.68583
▁याः	-7.68989
▁िं	-7.69362
▁पुरुष	-7.6955
t	-7.69823
▁ेः	-7.69966
▁मया	-7.70202
▁प्रथम	-7.70882
▁+	-7.71056
▁बहु	-7.71968
▁;	-7.72212
▁ामि	-7.73236
▁न्य	-7.73548
▁अत्र	-7.73632
▁भाग	-7.73718
u	-7.73959
▁स्थान	-7.73992
▁काम	-7.7404
▁अन्य	-7.7405
▁तं	-7.74189
▁समा	-7.75055
म्	-7.75205
▁अभि	-7.75208
▁को	-7.75535
▁क्रम	-7.75576
▁बल	-7.75817
▁भेद	-7.75925
▁भू	-7.76604
▁रि	-7.77615
▁अहं	-7.78253
▁जीव	-7.79064
▁भि	-7.79124
या	-7.79259
▁एत	-7.79433
▁गु	-7.79581
▁भविष्	-7.79946
▁भाषा	-7.80063
▁विषय	-7.80119
▁सप्त	-7.80229
▁सम्प	-7.80841
▁वे	-7.81231
▁वर्ण	-7.83151
▁ालय	-7.83263
▁राज्य	-7.83438
ष	-7.83819
▁िका	-7.84326
▁र्तते	-7.84502
▁भारत	-7.84583
▁ृ	-7.84891
▁गृह	-7.84943
▁ितः	-7.8625
▁रक्ष	-7.865
▁प्रा	-7.86556
▁ुं	-7.87009
y	-7.8702
▁*	-7.87828
▁वन	-7.88162
▁द्	-7.88191
▁गच्छ	-7.88199
▁िद	-7.88317
▁तया	-7.88452
▁ृष्ठ	-7.88573
वि	-7.88611
ौ	-7.88701
▁अध	-7.88838
▁य्	-7.88928
▁िता	-7.89082
▁भिः	-7.89353
▁मध्ये	-7.89729
▁तां	-7.8992
▁ेत्	-7.89931
▁च्छ	-7.89935
ृ	-7.90103
▁सि	-7.90118
▁दुःख	-7.90904
▁सुख	-7.91033
▁तो	-7.91316
▁यत्र	-7.91359
ै	-7.91397
▁्यात्	-7.91883
▁ठ	-7.92043
▁जा	-7.92097
▁पश्य	-7.92422
▁न्न	-7.92459
▁कः	-7.92582
▁सौ	-7.92808
▁ॐ	-7.92877
▁्म	-7.9291
▁ई	-7.9294
▁तम	-7.9321
▁हे	-7.93366
▁दोष	-7.93674
▁मत	-7.93679
▁दिन	-7.93708
▁लक्षण	-7.93812
ब	-7.94521
▁शक्ति	-7.9457
▁अन	-7.95744
▁रस	-7.95863
▁हं	-7.96042
▁व्यव	-7.96165
▁क्षिण	-7.96307
ीक्ष	-7.96439
▁काले	-7.96522
▁S	-7.96705
्ल	-7.9686
▁धिकार	-7.96896
▁तस्मा	-7.97012
▁मात्र	-7.97046
▁ेश	-7.97433
▁जात	-7.98379
▁तर	-7.98663
▁मह	-7.98677
▁ँ	-7.99189
ख	-7.99254
▁पा	-7.99309
▁येत्	-7.99335
▁अतः	-7.9935
▁ैक	-7.99445
▁यदा	-7.99812
▁क्षे	-7.99851
न्द	-7.99916
▁उत्तर	-7.99973
▁आसीत्	-8.00111
▁ाद्	-8.00323
▁पञ्च	-8.00367
▁दर्श	-8.00371
▁विध	-8.00425
▁वृद्ध	-8.00526
▁सर्वे	-8.00797
▁सू	-8.01013
▁रे	-8.01127
▁करोति	-8.01234
d	-8.0187
▁ाल	-8.01895
▁गो	-8.01944
▁ाम	-8.01996
▁नो	-8.02078
▁नगर	-8.02451
▁यस्य	-8.02702
▁जन्म	-8.02775
▁परम	-8.02831
▁धि	-8.02911
▁योः	-8.03102
▁--	-8.0322
▁बुद्ध	-8.03246
▁करण	-8.03422
▁्यां	-8.03734
▁्यं	-8.04184
ित	-8.04269
▁त्वा	-8.04285
ना	-8.04497
▁मिति	-8.04941
▁नं	-8.05324
▁ैर्	-8.0536
च्छ	-8.05383
▁पी	-8.05389
▁श्रुत	-8.05422
▁शक्य	-8.05684
▁वद	-8.05694
▁ुप	-8.05714
▁नमः	-8.06325
▁s	-8.06377
▁तेषां	-8.06409
▁कारण	-8.0647
▁ोक्त	-8.0669
▁वाक्य	-8.06975
▁पर्य	-8.07118
▁अस्य	-8.07283
▁मान्य	-8.07634
▁निर	-8.07831
▁दु	-8.08415
▁__	-8.08806
▁यम	-8.08893
▁भवेत्	-8.09161
▁मि	-8.09357
▁ण्ड	-8.09502
▁अर्थ	-8.09524
▁भय	-8.1026
▁शत	-8.10423
▁क्षण	-8.10542
▁र्व	-8.10618
▁ीति	-8.10678
▁ास्ति	-8.10768
▁मां	-8.10775
▁m	-8.10849
▁्त्री	-8.1086
▁पूर्ण	-8.11208
▁मुक्त	-8.11331
▁प्राण	-8.11344
ुर्व	-8.117
त्प	-8.11902
▁्ल	-8.11911
▁धा	-8.11956
▁रु	-8.12194
श्	-8.12258
▁दत्त	-8.12401
▁बन्ध	-8.12421
▁पुनर	-8.13034
▁स्म	-8.13133
▁ान्तर	-8.13175
▁जल	-8.13666
▁च्च	-8.14023
▁सर्वं	-8.14148
▁तर्हि	-8.1416
▁वत्	-8.14199
▁ज्ञात	-8.14328
▁शेष	-8.14438
▁ग्रह	-8.1446
▁वस	-8.15174
▁ओ	-8.15609
▁दर्शन	-8.16242
▁यं	-8.16389
▁स्कृत	-8.16846
▁्रे	-8.16962
▁वाद	-8.17069
ते	-8.17109
▁ुर	-8.17187
▁िय	-8.17268
▁द्य	-8.17274
▁इदं	-8.1734
॥	-8.17752
▁त्यय	-8.17892
l	-8.18162
▁एवम	-8.18295
▁सहस्र	-8.18466
▁िन	-8.18493
▁ज्ञ	-8.18516
▁ज्ज	-8.18633
▁्यक्त	-8.18634
p	-8.18636
▁पाप	-8.18836
▁अत	-8.19122
त्र	-8.19199
▁मुख	-8.19367
▁मन	-8.19368
▁परं	-8.19369
▁यज्ञ	-8.19606
▁ेषां	-8.19691
▁वचन	-8.19698
▁यन्ति	-8.20153
▁ऊ	-8.20229
ाद	-8.20374
▁चा	-8.20614
▁सदा	-8.21469
▁वयं	-8.2168
▁ास	-8.21766
▁की	-8.21795
▁न्द	-8.22048
▁हित	-8.22092
▁दान	-8.22441
▁ाप	-8.2267
▁पाठ	-8.23437
▁नां	-8.23515
▁प्रिय	-8.23865
▁ात्म	-8.24052
▁र्थः	-8.24118
▁वास	-8.24327
▁ेक	-8.24479
▁यत	-8.24513
▁यात	-8.24545
▁मार्ग	-8.24806
▁इह	-8.25066
▁िह	-8.25085
▁कि	-8.25089
▁यद्	-8.25106
▁ञ्च	-8.25288
▁त्य	-8.25547
▁सन्ति	-8.2555
▁नियम	-8.25822
▁अयं	-8.25988
▁इव	-8.26208
▁ह्य	-8.26271
▁झ	-8.26273
▁री	-8.26519
▁ेत्य	-8.26522
▁हर	-8.2657
▁्रह्म	-8.26573
▁िण	-8.26595
▁त्त	-8.26716
▁द्र	-8.27172
▁अन्त	-8.27303
▁धार	-8.27894
▁मित्र	-8.28209
▁चर	-8.28296
▁ाभ	-8.28456
▁पुनर्	-8.28636
▁वर्षे	-8.28651
▁गण	-8.28978
▁िर	-8.29173
▁येन	-8.29274
n	-8.29524
▁त्त्व	-8.29652
▁माण	-8.29787
▁ततो	-8.29826
▁साम	-8.30095
▁और	-8.30154
▁नव	-8.30672
िक्ष	-8.31076
▁देह	-8.31245
▁पाद	-8.31272
▁प्य	-8.31413
▁ला	-8.31471
▁िर्	-8.31483
▁a	-8.32014
थ	-8.32318
▁राम	-8.32318
▁ेश्वर	-8.32655
m	-8.32699
▁दि	-8.32989
▁वार	-8.33043
▁विना	-8.33394
▁केवलं	-8.33437
▁ढ	-8.33467
▁िनः	-8.33608
▁स्प	-8.33618
▁ती	-8.33691
▁सी	-8.33696
▁ृत्वा	-8.33715
▁्यक्ष	-8.33745
▁्रिय	-8.33854
▁हस्त	-8.33929
▁शुभ	-8.34032
क्	-8.34073
▁A	-8.34097
▁यत्न	-8.34302
घ	-8.34332
c	-8.34352
▁शास्	-8.34386
▁हार	-8.34461
▁वक्त	-8.34799
▁याम	-8.34911
▁चित्र	-8.34941
▁न्याय	-8.34948
▁>	-8.35186
▁ख्यात	-8.35195
▁लक्ष	-8.35332
▁मूल	-8.35507
▁वस्तु	-8.36386
▁काश	-8.36424
▁़	-8.36661
▁स्या	-8.36695
▁्ट	-8.3672
▁सूर्य	-8.37023
▁षु	-8.37224
▁ाश्च	-8.37324
▁्रिया	-8.37471
▁ित्य	-8.37749
▁ैर	-8.37965
▁भाष	-8.3798
▁एतत्	-8.37991
▁न्तु	-8.38189
▁ान्य	-8.38197
▁कृति	-8.38242
▁णा	-8.38517
▁मुद्र	-8.38546
▁मृ	-8.38591
▁्बन्ध	-8.38645
▁ात	-8.38717
▁सन्	-8.38746
▁मपि	-8.39441
▁शिष्ट	-8.39712
▁जायते	-8.39771
▁लेख	-8.39869
▁्रश्न	-8.40136
▁पुरा	-8.40238
▁शरीर	-8.4041
▁वर्ग	-8.40448
▁घट	-8.40455
▁पक्ष	-8.40534
▁से	-8.40612
▁कुल	-8.40891
▁ाप्य	-8.41046
▁स्ति	-8.41393
▁हेतु	-8.41527
▁ेद	-8.4182
▁ेष्ठ	-8.41922
▁दैव	-8.4201
▁ग्रहण	-8.42124
▁वेश	-8.42159
▁ितम्	-8.42236
▁यथ	-8.42462
▁रथ	-8.42556
▁िद्या	-8.42605
▁सूत्र	-8.42618
द्	-8.4265
▁पेक्ष	-8.42987
▁दूर	-8.42994
▁ेय	-8.42997
▁िव	-8.42997
▁नित्य	-8.4313
▁विभाग	-8.43455
▁्रकाश	-8.43953
ङ	-8.44438
▁दिव	-8.44691
▁स्वा	-8.44888
▁ास्	-8.44909
१	-8.44979
▁किम्	-8.45239
▁रो	-8.45556
▁श्री	-8.45598
▁राजा	-8.45832
▁न्यथा	-8.45973
▁गुरु	-8.46046
▁ुम	-8.46202
▁म्भ	-8.4654
▁कदाच	-8.46922
▁ऋ	-8.47033
▁ल्ल	-8.47347
▁चल	-8.47404
▁वाच	-8.47806
▁एष	-8.4795
▁ेऽ	-8.48203
▁्रष्ट	-8.48303
▁क्त	-8.4831
▁सम्भव	-8.48365
▁यते	-8.48475
▁स्याः	-8.4882
▁गा	-8.48985
▁सङ्ग	-8.4911
▁ल्प	-8.49146
▁ाभि	-8.4926
▁दुर्	-8.49492
▁न्तर	-8.49615
▁भक्त	-8.49687
▁नीय	-8.49821
▁र्ष	-8.4985
▁मृत	-8.49994
▁्त्र	-8.50089
▁श्व	-8.50242
▁दा	-8.5035
▁ूर्ण	-8.50419
ोऽ	-8.50604
▁बाल	-8.50676
▁वृ	-8.50717
▁अद्य	-8.50725
▁पुर	-8.50871
▁हृदय	-8.51215
▁कृ	-8.51231
िर	-8.51364
▁वी	-8.51432
▁विषये	-8.51433
▁त्वया	-8.51509
▁भो	-8.51536
▁त्वेन	-8.51551
मान	-8.51734
▁मय	-8.51789
▁खः	-8.51848
▁कश्च	-8.51904
▁विश	-8.51907
▁शा	-8.52043
▁हत	-8.52185
▁मध्य	-8.52276
▁विधि	-8.52408
▁ेह	-8.52568
▁ङ्क	-8.52659
▁रात्र	-8.5266
▁मास	-8.52736
▁स्त्र	-8.52801
▁पठ	-8.52837
रिष्	-8.52926
▁वृक्ष	-8.53056
▁वायु	-8.53216
▁्रत्य	-8.534
▁ाई	-8.53764
▁पूज	-8.53791
▁ऽपि	-8.53817
▁यु	-8.53832
▁लाभ	-8.54023
▁शु	-8.54028
▁ञ्ज	-8.54166
▁कथय	-8.54217
▁शि	-8.54284
▁केवल	-8.54654
▁चिन्	-8.54736
▁ाभाव	-8.54907
▁ेऽपि	-8.54925
▁सूचना	-8.54942
▁कौ	-8.55036
▁देशे	-8.55271
▁युद्ध	-8.55324
ष्ठ	-8.55632
▁विद	-8.55669
▁शक्त	-8.55683
▁तप	-8.55813
▁दिश	-8.55877
▁उक्त	-8.55893
▁ध्याय	-8.56095
िष्ठ	-8.56175
▁सत्य	-8.56453
▁c	-8.56485
▁विचार	-8.56622
▁कुरु	-8.56653
▁ंग	-8.56701
▁इत	-8.56708
▁िष्ठ	-8.56887
▁विधान	-8.57784
▁मूर्	-8.578
▁पात	-8.57956
▁िम	-8.58019
▁चार	-8.58021
▁शुद्ध	-8.58164
▁तमे	-8.58336
▁साधन	-8.58347
▁#	-8.58415
▁ेभ्यः	-8.58661
▁पत्र	-8.58853
▁र्य	-8.58968
▁औ	-8.59006
▁ाण	-8.5909
▁कृते	-8.59148
▁संस	-8.59157
▁यतः	-8.59226
▁किम	-8.59431
▁ोर	-8.59441
▁ैत	-8.59485
▁ाम्	-8.59797
▁दीर्घ	-8.60076
▁स्मृत	-8.60202
▁जीवन	-8.60635
▁णां	-8.60964
ेष	-8.61085
▁ऐ	-8.61176
ू	-8.61232
▁मनो	-8.6125
▁पाल	-8.61638
▁पार	-8.61961
▁मी	-8.62074
▁ष्ठ	-8.621
▁मुप	-8.62107
▁अति	-8.62367
▁सार	-8.6243
▁ज्ञा	-8.62659
२	-8.62664
▁त्थ	-8.62776
▁भाषण	-8.62825
▁्याः	-8.62862
▁सुर	-8.63268
▁धर	-8.63272
▁ानाम	-8.63298
▁यन्	-8.63362
▁्वरूप	-8.6339
▁देवता	-8.63517
▁म्ब	-8.63761
ग्र	-8.63765
▁वत	-8.639
स्य	-8.63934
▁र्म	-8.63962
▁योज	-8.63998
▁परा	-8.64388
▁अधिक	-8.64409
▁मुख्य	-8.64439
▁p	-8.64749
▁केन	-8.64781
▁ङ	-8.64889
स्त	-8.65107
▁B	-8.65223
▁ित्यं	-8.65289
▁समान	-8.65523
▁ार्यं	-8.65531
▁अभवत्	-8.65552
▁ीयते	-8.65587
▁ार्थं	-8.65652
यः	-8.65807
▁्क	-8.6584
▁र्ज	-8.65917
▁पुं	-8.6597
▁हो	-8.65972
▁्तमान	-8.66017
▁नः	-8.66043
▁संभव	-8.66177
▁क्व	-8.66242
ोम	-8.66283
▁१०	-8.66327
▁्नोति	-8.66352
४	-8.664
▁P	-8.66522
▁I	-8.6656
ीय	-8.66632
ट	-8.6678
▁ुः	-8.66838
▁गमन	-8.67134
▁तस	-8.67195
▁दिवस	-8.67476
▁व्यं	-8.67537
▁सन्न	-8.67578
▁लिङ्ग	-8.67698
▁लोके	-8.67713
र्ध	-8.68037
▁धी	-8.68185
▁ित्वा	-8.68215
▁चतुर	-8.68232
▁व्रत	-8.6827
▁रत	-8.6839
योग	-8.68444
▁शान्त	-8.68724
▁त्या	-8.68736
▁च्यते	-8.68981
▁संय	-8.69018
▁संशयः	-8.69028
▁रण	-8.69081
▁र्च	-8.69097
g	-8.69321
▁ारतीय	-8.69392
▁भिन्न	-8.69405
▁रूपेण	-8.69438
▁ब्र	-8.69465
▁वाह	-8.6961
▁शिव	-8.69639
▁रूपं	-8.69711
▁मित्य	-8.69754
▁ेष	-8.69891
▁ेर	-8.699
▁स्वयं	-8.69955
▁भा	-8.70011
▁चेत्	-8.70051
▁भूमि	-8.70131
▁व्यम्	-8.70209
▁साध	-8.70216
▁म्ह	-8.70368
▁ल्	-8.7046
▁ुस्तक	-8.70596
▁्वि	-8.7069
▁दीप	-8.70753
▁सति	-8.70794
▁ुह	-8.7088
नि	-8.71276
▁ळ	-8.71305
▁धिकरण	-8.71344
▁भगव	-8.71406
▁्माकं	-8.71439
▁बोध	-8.7144
ण्ड	-8.71484
त्व	-8.71545
▁पुण्य	-8.71729
▁नेन	-8.71743
▁ाद्य	-8.71878
मा	-8.71943
▁ृत	-8.71945
▁ङ्ख	-8.7212
▁विष	-8.72439
▁ग्राम	-8.72729
▁दिष्ट	-8.72771
ॉ	-8.72858
▁दार	-8.72888
▁त्वम	-8.72893
▁्वप्न	-8.73145
▁जनाः	-8.73155
▁यू	-8.73163
k	-8.73175
ये	-8.73439
▁ताम्	-8.73663
▁द्ध	-8.73677
▁लय	-8.73742
▁ाट	-8.73776
▁सो	-8.73885
▁ंख्या	-8.73913
न्त	-8.73939
▁कस्य	-8.74103
▁धान	-8.74114
▁तथापि	-8.74304
▁ानाम्	-8.74311
▁रोग	-8.74403
▁्ये	-8.75109
॒	-8.75255
▁्वारा	-8.75345
▁संप	-8.75397
यो	-8.75469
-	-8.7556
▁ोः	-8.75734
▁ांश	-8.75764
▁र्ह	-8.75771
▁तिथि	-8.75839
▁माता	-8.75848
▁नुष्य	-8.75891
▁युत	-8.75997
▁नम्	-8.76217
▁यन्त	-8.76291
▁पद्य	-8.76345
िञ्च	-8.76671
▁मण्डल	-8.76797
▁ात्र	-8.76807
▁न्म	-8.76892
▁्वर्ग	-8.77045
▁र्क	-8.77199
ड	-8.77302
▁तस्या	-8.77341
▁चित	-8.77347
▁स्फ	-8.77446
▁मल	-8.77544
▁यज	-8.77558
▁्रं	-8.77696
▁न्ध	-8.77862
▁ेवं	-8.77927
▁ध्यान	-8.78043
▁मित्त	-8.78081
▁उद	-8.78273
▁द्वार	-8.78296
र्प	-8.78335
▁विरोध	-8.78598
▁नैव	-8.78773
▁गृहे	-8.78789
▁फलं	-8.79033
▁श्रम	-8.79086
▁नर	-8.79236
ङ्क	-8.79245
S	-8.79314
▁पूर	-8.79344
▁ाङ्ग	-8.79383
▁ने	-8.79388
गु	-8.79601
▁वीर	-8.79631
▁स्तुत	-8.79843
▁रित	-8.79974
▁क्षय	-8.80058
▁तथ	-8.80095
▁था	-8.80227
▁त्वां	-8.80308
▁ाच	-8.80324
▁एकः	-8.80355
▁रस्पर	-8.80381
▁्रन्थ	-8.80433
▁जय	-8.80603
▁वो	-8.80822
▁वती	-8.81197
▁आत्म	-8.81483
▁न्तर्	-8.81502
w	-8.81537
▁िश्च	-8.81722
▁त्रय	-8.82404
▁ंश	-8.8243
▁ादौ	-8.82754
▁िष्ट	-8.82802
▁C	-8.82829
▁क्षत	-8.82863
▁T	-8.82868
▁ॆ	-8.83113
▁संव	-8.83125
८	-8.83208
▁ग्न	-8.83241
▁बाह	-8.83538
▁ध्ययन	-8.83567
▁जगत	-8.83625
▁न्वित	-8.8365
▁स्क	-8.83663
▁वां	-8.83798
▁दाहरण	-8.83939
▁रव	-8.83955
▁मनु	-8.84027
▁ञ्	-8.84037
▁उच्च	-8.84152
▁()	-8.84344
▁अग्नि	-8.84431
९	-8.84493
▁नी	-8.84606
▁तथैव	-8.84687
E	-8.84713
वा	-8.84721
▁योजन	-8.84837
▁हीन	-8.85009
▁ादेश	-8.85104
▁वल	-8.85256
▁शासन	-8.85316
▁र्त	-8.85329
▁सभा	-8.85368
▁क्वच	-8.85378
▁ादन	-8.85435
▁ुर्य	-8.85444
▁ुम्	-8.85497
▁पू	-8.85547
▁िताः	-8.85573
▁कृष्ण	-8.85586
▁तृतीय	-8.85604
ar	-8.85637
▁ात्मक	-8.85659
दृश	-8.8568
▁िष्	-8.85775
▁मानव	-8.85788
▁र्ध	-8.85799
▁भाग्य	-8.85941
▁पूजा	-8.86147
▁ंद	-8.86205
▁समय	-8.86219
▁िन्तु	-8.86262
▁दध	-8.86281
▁ेक्ष	-8.86377
▁हरि	-8.86422
▁कृत्य	-8.86465
▁द्वय	-8.86692
▁्यो	-8.86787
▁भूय	-8.86794
▁ागत	-8.86852
▁अथवा	-8.86869
्र	-8.87112
▁एस	-8.87132
▁दाय	-8.87259
▁्रभाव	-8.87291
▁सुत	-8.87316
▁याति	-8.87332
▁सिंह	-8.87408
▁माप्त	-8.87518
▁चित्त	-8.87555
ङ्ग	-8.87571
▁एतद	-8.87603
▁तिप	-8.87613
▁अनेक	-8.87631
▁्रव्य	-8.87634
▁ीत	-8.87786
▁दण्ड	-8.87947
▁्रा	-8.8814
▁एते	-8.88216
▁ास्य	-8.88233
ाम	-8.8832
▁ुल	-8.88488
▁जग	-8.88516
▁यस	-8.88519
▁नृप	-8.8855
C	-8.88605
▁ेष्व	-8.88689
▁कला	-8.88787
▁मै	-8.88825
▁भार	-8.88864
▁भवतः	-8.88873
पर	-8.88961
▁्री	-8.89116
▁सद	-8.89177
▁है	-8.8921
त्स	-8.89329
▁आप	-8.89506
▁संसार	-8.89583
र्ष	-8.89655
er	-8.89716
▁ज्ञेय	-8.89879
क्ष्	-8.89906
1	-8.89922
▁ाऽ	-8.89999
▁ुच्य	-8.90031
▁ईश्वर	-8.9009
▁ृत्यु	-8.90134
▁कथा	-8.9014
३	-8.90146
▁दित	-8.90294
▁नन्तर	-8.90443
▁ग्राह	-8.90487
▁गम	-8.90522
५	-8.90545
▁रिक्त	-8.90579
▁कृतं	-8.90618
▁विष्ट	-8.90722
▁D	-8.9073
▁विकास	-8.90773
▁ीकरण	-8.90829
▁ाध	-8.90835
▁िद्	-8.90924
म्ब	-8.90968
वादश	-8.91162
▁ितव्य	-8.91212
▁ाश	-8.9139
▁गृहीत	-8.91404
▁d	-8.91424
ेरिक	-8.91464
▁न्ह	-8.91498
▁माह	-8.91631
६	-8.91642
▁ग्र	-8.91705
र्ज	-8.91924
▁मद	-8.91927
यु	-8.92048
▁पितृ	-8.92096
▁कोई	-8.92251
▁सेव	-8.92315
▁िस	-8.92328
स्मा	-8.92588
▁भवान्	-8.92956
▁ज्योत	-8.9308
त्त	-8.93288
▁चैव	-8.93318
▁मन्य	-8.93478
▁पिता	-8.9355
▁समु	-8.93569
▁नै	-8.93634
▁ननु	-8.93641
श्चा	-8.9371
▁व्यय	-8.9386
▁n	-8.93939
▁्रयोग	-8.9394
▁L	-8.94062
▁गतः	-8.9412
▁नाश	-8.9428
▁मित	-8.94409
▁्ध	-8.94493
▁ित्र	-8.94628
▁आस	-8.94993
▁ऋत	-8.9501
▁पर्वत	-8.95119
▁M	-8.95129
▁नय	-8.95581
▁ितं	-8.95626
▁िल	-8.95645
▁याम्	-8.95679
▁g	-8.95747
▁गति	-8.95796
▁शील	-8.95981
▁तादृश	-8.96037
ई	-8.96054
▁्रमाण	-8.96216
▁शत्रु	-8.96234
▁वः	-8.96361
▁ुक	-8.96431
▁इच्छ	-8.96489
कल	-8.96506
▁संधान	-8.96559
▁चि	-8.96568
▁संग	-8.96585
▁ोऽपि	-8.96768
▁ादिना	-8.96992
▁ूत	-8.9705
▁योगः	-8.97094
▁दानीं	-8.97252
▁ीत्य	-8.97284
▁b	-8.97317
▁्यु	-8.97317
▁द्विज	-8.97366
▁्स	-8.9738
▁ुत्वा	-8.97507
▁रुप	-8.97527
▁निज	-8.97582
▁्रातः	-8.9768
▁ोद	-8.97748
▁हु	-8.9779
▁अनेन	-8.97865
▁यिष्	-8.97874
0	-8.97926
७	-8.98044
▁्रकृत	-8.98228
▁समर्थ	-8.98317
▁तेज	-8.98333
▁मध्यम	-8.98385
▁टि	-8.98413
▁नन्द	-8.98481
▁ायं	-8.98481
▁वात	-8.98566
▁यान	-8.98574
▁११	-8.9865
▁्न	-8.98685
b	-8.98816
▁्ड	-8.98849
▁िनी	-8.99159
▁ज्ञाय	-8.99202
▁स्याद	-8.99223
▁योजना	-8.99359
▁सर	-8.99435
▁िन्द	-8.99547
▁समास	-8.9961
▁टी	-8.99637
▁र्त्	-8.99644
▁त्येक	-8.99716
▁मस्ति	-8.9978
▁दास	-8.99817
▁लब्ध	-8.9987
▁तिषेध	-9.00089
▁्वभाव	-9.00109
▁राग	-9.00166
▁कदा	-9.00225
▁लोप	-9.00347
▁यितुं	-9.00465
▁िभाषा	-9.00591
▁दर	-9.00601
▁वय	-9.00648
▁ंक	-9.00672
▁कर्ता	-9.00723
▁संस्	-9.00724
▁यावत्	-9.00879
ीर्त	-9.00954
▁वह	-9.01032
▁लघु	-9.01349
ाज्ञ	-9.01377
▁स्मर	-9.01461
▁गर्भ	-9.0154
▁ोत्तर	-9.01605
▁ात्रा	-9.01614
नं	-9.01689
▁परमा	-9.01767
▁वश्यक	-9.01797
▁ियां	-9.01907
▁णि	-9.01951
▁ुट	-9.02008
▁ीर	-9.02218
▁षि	-9.02239
ुष्म	-9.02245
▁िया	-9.0237
▁धिकतम	-9.02562
ॊ	-9.02588
▁तत	-9.02627
▁बालक	-9.02685
▁बाध	-9.02761
▁ाति	-9.02826
▁गवान्	-9.02882
r	-9.02886
▁ार्या	-9.02977
▁छात्र	-9.0314
▁ध्व	-9.03246
▁्ण	-9.03261
▁ेतद	-9.03379
▁वध	-9.03382
▁्यपि	-9.03487
I	-9.03516
▁प्रजा	-9.03677
A	-9.03728
▁सम्भ	-9.03737
▁क्षम	-9.03742
▁भयं	-9.03782
▁कर्ण	-9.03989
▁्था	-9.04253
▁हम	-9.04306
▁सेवा	-9.04336
▁अधि	-9.04518
▁l	-9.04549
▁ीन	-9.0489
▁ूल	-9.04927
▁युग	-9.04957
▁ग्री	-9.04982
▁रुण	-9.05004
▁रुद्ध	-9.05029
▁स्नान	-9.05162
2	-9.05181
▁कट	-9.05286
▁खलु	-9.05587
▁भ्य	-9.05785
▁दे	-9.05798
ंख्य	-9.05846
▁श्चिम	-9.05894
▁बसाइट	-9.05954
▁रक्त	-9.06202
ित्	-9.06293
▁तीति	-9.06379
्षिप	-9.06466
▁रोह	-9.06467
▁स्मा	-9.0653
▁्यू	-9.06536
▁्वर	-9.06537
▁र्वदा	-9.06689
▁बि	-9.06903
ृष्ट	-9.06903
▁सागर	-9.06959
▁नीति	-9.06981
▁@	-9.07225
▁वश	-9.07275
P	-9.07438
▁एका	-9.07459
▁e	-9.07559
▁रक्षा	-9.07604
▁पान	-9.07627
▁उत्तम	-9.07628
ुच्य	-9.0777
▁किंच	-9.07865
▁युज्य	-9.07898
▁यसि	-9.07977
T	-9.07979
▁न्व	-9.07982
▁न्त्य	-9.08156
▁ाक्ष	-9.08195
▁धातु	-9.08385
▁ैन	-9.08392
▁ीक्ष	-9.08393
▁ितुं	-9.08445
▁ाहं	-9.08536
▁कारणं	-9.08582
▁वाम	-9.08589
▁मूल्य	-9.08617
▁ूढ	-9.08791
का	-9.08985
▁पुष्प	-9.08987
▁कल	-9.09071
▁तस्	-9.09078
▁ीक्षण	-9.09078
▁पृथक्	-9.09079
▁ीकृत	-9.09192
▁िष	-9.09229
▁ेयं	-9.09246
▁निष्	-9.09345
▁सर्वा	-9.09408
▁्ब	-9.09461
▁ूप	-9.09478
▁जित	-9.09505
▁ध्या	-9.09585
▁देवा	-9.09752
tr	-9.09763
▁मुनि	-9.09829
▁कथम	-9.09843
▁रम	-9.09868
▁माचार	-9.10007
▁भास	-9.10137
▁्यः	-9.1025
▁प्रत	-9.10251
▁भिर्	-9.10318
▁यै	-9.10336
▁क्रीड	-9.10365
▁कन्या	-9.10367
▁स्थाप	-9.10423
▁र्तुं	-9.10508
▁धृ	-9.10731
▁मोक्ष	-9.10772
▁गृह्य	-9.10776
▁बह	-9.10866
▁प्रद	-9.10917
8	-9.11044
▁रोध	-9.11167
▁िनियम	-9.11201
▁पथ	-9.11364
▁भु	-9.11426
्मण	-9.11437
▁सन्द	-9.1164
▁वृत	-9.11703
▁जि	-9.11899
▁वान	-9.11904
▁रति	-9.11927
▁ृथिवी	-9.11973
▁ेतत्	-9.12126
▁उपयोग	-9.1225
?	-9.12349
▁र्द्ध	-9.12397
▁सर्ग	-9.12621
▁क्ति	-9.12694
▁्यन्त	-9.12765
▁धु	-9.12786
क्त	-9.12825
▁पृथ	-9.12895
▁युध	-9.12904
le	-9.13003
▁निष्क	-9.13027
▁हेत	-9.13095
▁दिने	-9.13103
▁वत्स	-9.13211
▁सहित	-9.13305
▁आर	-9.13461
▁गन्ध	-9.13538
▁यतो	-9.13576
▁ों	-9.13599
▁न्यास	-9.13615
▁योर्	-9.13687
▁र्मित	-9.13736
▁ास्त	-9.13751
▁ाम्य	-9.13795
▁ज्या	-9.13814
▁आह	-9.1386
▁ाइ	-9.13893
▁ेद्	-9.13897
द्र	-9.13918
▁विविध	-9.13963
"	-9.14282
▁िर्णय	-9.14327
▁्ज	-9.1439
▁मिदं	-9.14545
v	-9.14549
▁ीनां	-9.14694
▁रण्य	-9.14704
▁भक्ति	-9.14764
▁॰	-9.14854
▁स्वी	-9.14913
▁शः	-9.14937
▁तन्	-9.1503
▁तुर्थ	-9.15052
5	-9.15273
▁ेल	-9.15289
▁्रति	-9.15356
▁वाच्य	-9.15398
▁कारक	-9.15535
▁क्षर	-9.15772
▁्यै	-9.15774
▁ड़	-9.15858
▁ङ्	-9.15858
▁समये	-9.15859
▁ोट	-9.1593
▁कुत्र	-9.15935
▁प्रव	-9.16004
▁घ्न	-9.16079
▁ोष	-9.16165
▁पीड	-9.16197
▁धात	-9.162
▁ेट	-9.16249
▁ाख्य	-9.16307
▁पाय	-9.16395
▁धीयते	-9.16442
▁विकि	-9.16509
▁न्तः	-9.1659
▁प्त	-9.16611
▁क्ष्य	-9.16615
▁तुल्य	-9.1665
▁िक्षा	-9.16757
▁ोक्तं	-9.16815
▁गन्त	-9.16817
▁तौ	-9.1689
▁त्मान	-9.16988
▁रिणाम	-9.17034
▁भृ	-9.17074
▁ित्व	-9.17272
▁ुत	-9.17312
▁प्राय	-9.17346
▁विन	-9.17409
▁िनां	-9.17525
▁२०	-9.176
▁जगत्	-9.1762
▁द्व	-9.17646
▁शाल	-9.17733
▁अहम्	-9.17839
▁$	-9.1786
▁तान्	-9.17898
▁१२	-9.17908
▁E	-9.18042
▁ेतन	-9.1809
▁त्यज	-9.18283
▁श्	-9.18402
▁भ्यास	-9.1853
▁ाथ	-9.18751
▁िभ	-9.18813
▁शिष्य	-9.1897
▁हा	-9.18972
▁्द	-9.19044
▁{	-9.19058
▁रोप	-9.19172
ोह	-9.19182
▁त्वम्	-9.19209
:	-9.19322
▁्वः	-9.19332
▁वेदन	-9.19358
▁स्वर	-9.19377
▁शीत	-9.19631
▁मर	-9.19792
▁्रि	-9.19876
▁घोष	-9.19969
▁विंश	-9.20056
▁एषा	-9.20106
▁स्थल	-9.20139
▁श्चित	-9.20222
▁नृ	-9.20225
▁ग्नि	-9.20265
▁सूच	-9.20338
▁ुद	-9.20385
▁र्न	-9.20485
▁न्नत	-9.20488
िल	-9.20539
▁वक्ष	-9.20554
ुध	-9.20605
छ	-9.20691
▁शङ्क	-9.20723
▁ङ्घ	-9.2076
▁<	-9.20816
▁ासि	-9.20859
▁पृ	-9.20861
▁चक्र	-9.20917
▁चरण	-9.20974
मर्थ	-9.20978
▁िन्	-9.2109
▁यात्	-9.21231
▁स्ते	-9.21247
▁्ञानं	-9.21357
▁कालः	-9.21373
▁तू	-9.21491
▁लभ	-9.21494
▁दृढ	-9.21586
▁१५	-9.21612
▁भवन्	-9.21754
▁वसाय	-9.21823
ंज्ञ	-9.21895
▁इयं	-9.21988
▁पण	-9.22025
▁च्	-9.22033
▁मयि	-9.22116
▁च्छेद	-9.22132
▁वित्त	-9.22166
मु	-9.22231
▁स्मि	-9.22295
▁कृता	-9.22423
▁्रधान	-9.22429
▁समाज	-9.22501
▁ाक्षा	-9.22532
▁G	-9.22601
▁ोल	-9.22639
▁ात्रि	-9.22649
▁ान्न	-9.22666
▁ाया	-9.22934
▁जीवित	-9.22978
▁्यर्थ	-9.22993
▁पदं	-9.23079
▁तिहास	-9.23149
▁क्स	-9.23198
▁्धान	-9.23226
▁िखित	-9.23229
▁गृहं	-9.23302
▁क्	-9.23408
▁यद्य	-9.23422
▁वरण	-9.23466
▁काव्य	-9.2347
▁r	-9.23566
▁ार्ध	-9.23666
▁त्सव	-9.23693
▁सत्	-9.23706
▁साध्य	-9.23759
▁णु	-9.23785
▁ूगु	-9.23804
x	-9.23831
▁देवी	-9.23903
▁केच	-9.23907
▁नीत	-9.24169
▁गत्वा	-9.24265
▁f	-9.24287
▁विनाश	-9.24292
▁अस्म	-9.2433
▁जनवरी	-9.24419
▁र्द	-9.24523
▁दी	-9.2455
▁त्याग	-9.24707
▁धनं	-9.24747
▁ष्व	-9.24812
रा	-9.24854
▁ष्णु	-9.24899
▁ट्	-9.24984
▁रल	-9.25102
▁तल	-9.25174
▁देय	-9.25187
▁पौ	-9.25441
▁ें	-9.25502
▁मौ	-9.25524
'	-9.25596
▁व्यः	-9.25682
▁्रीडा	-9.25705
▁10	-9.25776
▁ज्य	-9.25801
▁लिख	-9.25819
▁किल	-9.259
▁परे	-9.25915
▁दीनां	-9.25948
▁त्ययः	-9.2608
▁भर	-9.26135
▁sgs	-9.26191
▁ेभ्यो	-9.26436
▁वर्तन	-9.26548
▁मनः	-9.26855
▁बहू	-9.26864
▁ैस्	-9.2695
▁ताः	-9.27123
▁ुक्ति	-9.27133
▁्वे	-9.27257
▁संशय	-9.27295
▁्यम	-9.27326
ृथिव	-9.27331
▁स्ट	-9.27363
▁भवत्	-9.27398
▁वर्षा	-9.27551
॑	-9.2764
▁र्ण	-9.27694
▁यॊ	-9.27732
▁एषः	-9.27735
▁ोत्तम	-9.27833
▁उद्	-9.27845
▁स्थिर	-9.27907
▁ौर	-9.27933
▁जान	-9.28067
▁मानस	-9.28121
▁दार्थ	-9.28155
▁ाड	-9.2821
॰	-9.2822
▁नाथ	-9.28227
▁्य्य	-9.28242
▁खण्ड	-9.28267
▁र्देश	-9.28294
▁निवेश	-9.28327
▁कृपया	-9.28576
▁विस	-9.28635
▁पाक	-9.28675
▁्थाने	-9.28754
▁ब्रव	-9.28772
▁स्वत	-9.28872
D	-9.28887
▁्पष्ट	-9.28891
h	-9.28942
▁धेय	-9.28943
▁निष	-9.29036
▁श्रि	-9.29068
▁ाधि	-9.29145
▁गृह्ण	-9.29161
9	-9.29213
ऽ	-9.29219
▁िदं	-9.29313
▁पुंस	-9.29333
▁श्लोक	-9.29336
▁काय	-9.2934
▁मान्	-9.29404
▁श्वास	-9.29415
▁षा	-9.29561
▁ुप्त	-9.29588
▁कति	-9.29658
▁ैश्च	-9.29664
▁ट्ट	-9.29682
f	-9.29691
▁ाज	-9.29761
▁स्मै	-9.29864
▁ोम	-9.29894
▁शून्य	-9.29917
▁ष्ण	-9.30048
▁कोट	-9.30085
▁नदी	-9.30201
ृज	-9.30206
▁सेना	-9.30213
▁ाये	-9.30244
▁नुकूल	-9.30254
▁भ्यः	-9.30276
▁्थ	-9.30395
▁श्रो	-9.30474
▁अल	-9.3056
3	-9.30596
▁चक्षु	-9.30649
▁कारः	-9.31003
▁तीर्थ	-9.31019
▁योग्य	-9.31055
▁N	-9.31161
▁ताम	-9.31231
▁ंश्च	-9.31284
▁भवन	-9.31318
▁मो	-9.31355
▁अर्थः	-9.31359
▁घात	-9.31389
▁ाप्न	-9.31424
▁एकं	-9.31461
▁र्ता	-9.31547
▁अभ	-9.31561
▁एम	-9.31637
▁चार्य	-9.31643
▁वापि	-9.31662
ंस	-9.31682
▁जप	-9.31962
रूप	-9.31975
▁ांस	-9.32003
▁धारा	-9.32074
▁मन्त	-9.32084
▁ायाम	-9.32378
य्	-9.32418
▁ाधिक	-9.32425
स्थ	-9.32436
▁अयम्	-9.32577
▁बी	-9.32665
▁ोच	-9.32746
▁कुश	-9.32785
▁विजय	-9.32789
▁मनस	-9.32871
▁सन्ध	-9.3297
▁}	-9.3301
▁ोड	-9.33125
▁ातु	-9.33145
▁रज	-9.33381
▁ुत्	-9.33431
▁t	-9.33443
▁रूपा	-9.33532
▁ण्ट	-9.33625
▁्थित	-9.33656
▁षड	-9.33685
▁्राम	-9.33859
▁तिशत	-9.33889
▁त्ति	-9.33942
▁पशु	-9.33969
▁शी	-9.3398
▁तक	-9.33995
▁ाप्ते	-9.34151
▁जी	-9.34221
▁ित्त	-9.34333
▁हृद	-9.34463
▁क्रोध	-9.34491
▁भ्यां	-9.34492
िद्र	-9.3458
▁सुखं	-9.34585
ञ्च	-9.34658
▁सदस्य	-9.3479
▁यम्	-9.34805
▁ीश्वर	-9.34933
▁वने	-9.35077
▁भवे	-9.35104
▁त्तम	-9.35187
▁शृणु	-9.35199
▁सत्यं	-9.35318
▁शृ	-9.35327
▁तार	-9.35331
▁ैष	-9.35349
▁ाःगु	-9.35528
इ	-9.35541
▁णं	-9.35618
▁गौ	-9.35635
▁er	-9.35667
िष	-9.35767
▁त्कृ	-9.3577
▁न्यून	-9.35771
▁्रीय	-9.35837
म्बद	-9.36027
▁ाधारण	-9.36045
▁िष्य	-9.36068
▁्छ	-9.36087
▁्रविश	-9.36093
▁समस्त	-9.36188
ार्श	-9.36211
▁F	-9.36254
ुरस्	-9.36342
▁ाकार	-9.36373
an	-9.36414
▁ुष	-9.36454
▁ात्मा	-9.36552
▁कृतम्	-9.36559
▁योर	-9.36602
▁ग्रे	-9.36611
▁पितु	-9.36648
▁ध्वनि	-9.36667
▁्प	-9.36688
▁आई	-9.3674
▁लन	-9.36744
द्व	-9.36752
▁ुण	-9.36765
▁ैल	-9.36803
▁भी	-9.36822
त्मन	-9.36866
▁वन्तः	-9.36875
▁१४	-9.36951
▁विष्य	-9.3696
▁दुष्ट	-9.36973
▁्पर्श	-9.36994
▁बा	-9.3701
▁न्दर	-9.37033
▁कर्ष	-9.37037
▁महोदय	-9.37084
▁...	-9.37175
▁न्वय	-9.37178
▁त्स	-9.37182
▁िणः	-9.3719
▁यस्	-9.37489
▁दन्त	-9.37521
▁Tag	-9.37538
▁ाश्रय	-9.3763
▁ञ	-9.37636
▁्येव	-9.37663
▁विप	-9.3768
▁मधु	-9.37699
▁---	-9.37964
▁श्रू	-9.3803
▁त्क	-9.38132
▁र्माण	-9.38137
▁तावत्	-9.38363
▁तेषु	-9.38473
▁्ग	-9.3848
▁िन्न	-9.38485
▁जाल	-9.38534
▁नेवाः	-9.3873
▁मातृ	-9.38734
▁nt	-9.38767
or	-9.38783
▁विवाह	-9.38822
धान	-9.38842
▁ष्ठा	-9.38843
वर्त	-9.38881
▁पिं	-9.38945
▁ासन	-9.3906
▁ारण	-9.39075
▁धानम	-9.39203
▁भागे	-9.39228
ास्त	-9.39234
▁साद	-9.3928
▁ोण	-9.39361
▁परीत	-9.39486
▁क्ष्म	-9.39487
▁्यास	-9.3952
▁तेषाम	-9.39655
िन	-9.39657
▁धिक	-9.3984
▁&	-9.39844
▁ायन	-9.3987
▁्मा	-9.39914
▁ाच्च	-9.39934
▁दृश	-9.39938
▁तीव	-9.39944
▁शब्दः	-9.39985
4	-9.39987
ग्	-9.40015
▁िनि	-9.40047
▁खिल	-9.40074
▁नुभव	-9.40121
▁भाष्य	-9.4016
▁त्वे	-9.40166
N	-9.40212
re	-9.40218
▁न्तं	-9.40334
▁िश	-9.40335
▁बीज	-9.40362
▁स्र	-9.40456
▁V	-9.40508
▁वचनं	-9.40548
▁र्प	-9.40625
▁भ्र	-9.40628
▁दद	-9.40688
▁कृतः	-9.40728
▁्ह	-9.40758
▁कुमार	-9.40777
▁मोद	-9.4081
▁हां	-9.40896
▁व्रज	-9.40899
च्य	-9.40964
▁Home	-9.40965
▁ृण	-9.41018
▁ताल	-9.41038
▁रुत	-9.41149
▁रणं	-9.41206
▁सीद	-9.41322
▁त्मनः	-9.41344
▁हिम	-9.41383
▁ीर्ण	-9.41441
▁तच्च	-9.41531
▁करणे	-9.41575
▁मानुष	-9.41627
▁पक्षे	-9.41638
थ्य	-9.41647
▁िणी	-9.41669
▁संब	-9.4172
▁ुरुषः	-9.41721
▁पदे	-9.41724
▁o	-9.41733
▁भ्रम	-9.41734
▁किमपि	-9.41818
▁ात्रौ	-9.41892
▁ुर्लभ	-9.41911
▁्रतीत	-9.41911
▁विहित	-9.41918
▁र्ग	-9.41963
▁गम्य	-9.42112
नेह	-9.42147
▁यौ	-9.42212
▁शाला	-9.42281
▁निवार	-9.42294
▁ेच्छ	-9.42557
▁प्रभु	-9.42586
▁्ष	-9.42601
▁रहित	-9.42614
▁रिति	-9.42617
▁१८	-9.42644
▁लभ्य	-9.42719
▁बद्ध	-9.42772
्त्व	-9.42948
▁युव	-9.42972
▁ुन	-9.43
▁म्बर	-9.4315
▁ासु	-9.43287
▁कथित	-9.43373
▁श्वर	-9.43417
▁यूयं	-9.43453
▁िनो	-9.43504
▁ल्क	-9.43539
▁ल्य	-9.4366
▁शर	-9.43707
▁O	-9.4372
▁ालन	-9.43824
▁त्रा	-9.43834
▁देवाः	-9.43835
▁भवता	-9.4389
▁हिंसा	-9.43907
▁ावन	-9.44122
दान	-9.4418
▁्स्	-9.44252
▁लु	-9.44276
▁ेन्	-9.44283
▁ंगु	-9.44292
▁अहो	-9.4435
▁िला	-9.44496
▁भ्रात	-9.44517
▁ुव	-9.44541
▁हल	-9.44555
▁मेत	-9.44577
▁ास्ते	-9.44588
▁ृश	-9.44599
▁ख्य	-9.446
▁द्भ	-9.44622
▁पितर	-9.44666
▁समूह	-9.44708
▁्यायः	-9.44713
▁्च	-9.44775
▁ंस	-9.44782
▁परः	-9.45036
▁जलं	-9.45221
▁पन्न	-9.45278
6	-9.45282
▁वस्था	-9.45386
▁भोजन	-9.4539
▁धो	-9.45468
▁पत्त	-9.45681
▁लो	-9.45684
▁ंत्र	-9.4572
▁१३	-9.45726
▁पृच्छ	-9.45733
▁ेम	-9.45946
ने	-9.46196
फ	-9.46383
र्ह	-9.4639
▁्याम्	-9.4649
▁वेग	-9.46635
▁्रथमा	-9.46783
▁परम्	-9.46854
▁ुर्	-9.46869
▁ानाति	-9.46884
▁ाहु	-9.46906
▁दुर	-9.46921
▁निषेध	-9.46983
▁शस्त	-9.46997
▁चापि	-9.47
▁विनि	-9.4705
▁ि॒	-9.47128
▁मांस	-9.47181
▁याव	-9.47214
▁इदम्	-9.47215
▁रक्षण	-9.47225
▁णीय	-9.47293
▁शोक	-9.47309
▁स्कार	-9.47429
▁ष्य	-9.47439
▁ीडिया	-9.47585
▁विवेक	-9.47585
▁•	-9.47593
▁त्पाद	-9.47608
▁साधु	-9.4767
▁िच	-9.4769
▁तन	-9.47707
▁गमिष	-9.47904
▁u	-9.47954
्रू	-9.4798
▁जुइ	-9.47995
▁ेदं	-9.4801
▁ीता	-9.48017
▁राध	-9.48071
▁व्यति	-9.48122
▁उभय	-9.48197
O	-9.48306
▁हन्त	-9.4831
▁ेरे	-9.48381
▁ब्द	-9.48481
▁ंड	-9.48513
▁भज	-9.48519
▁वण	-9.48537
▁नेत	-9.48558
▁न्यते	-9.48679
▁ीण	-9.48681
▁ृष्टि	-9.48697
▁रम्भ	-9.487
▁माया	-9.48752
▁ग्ध	-9.48779
▁वाहन	-9.48855
R	-9.48918
▁नून	-9.49049
▁ीश	-9.49059
▁चन	-9.49142
▁तिं	-9.49212
▁धू	-9.49317
▁विकार	-9.49328
▁यि	-9.49341
▁रुचि	-9.49418
▁कै	-9.49474
ार्थ	-9.49508
▁ययौ	-9.49521
7	-9.49523
▁v	-9.49565
▁द्वीप	-9.49619
▁विधिः	-9.49671
ोभ	-9.49722
▁नू	-9.49803
▁स्तथा	-9.49825
▁मही	-9.50022
▁ष्म	-9.50055
ञ	-9.50058
▁हित्य	-9.5014
▁तश्च	-9.5024
▁्रु	-9.50368
▁ंतर	-9.50384
▁र्मणि	-9.5055
▁ण्य	-9.50556
▁विता	-9.50561
▁दल	-9.50594
▁ाणाम	-9.50626
▁स्तार	-9.50662
▁्थानं	-9.50792
▁कृषि	-9.50799
▁वयव	-9.50807
▁्थिति	-9.50863
▁वंश	-9.50876
▁1.	-9.50964
▁करोमि	-9.50964
▁तान	-9.50975
▁ायक	-9.50975
▁स्तर	-9.50982
▁अतो	-9.51034
ाणि	-9.51036
▁अहम	-9.51047
▁एन	-9.51087
▁मू	-9.5111
▁णे	-9.51142
▁त्प	-9.51156
▁ध्य	-9.51181
▁दिश्य	-9.51332
▁U	-9.5145
ंस्थ	-9.51457
▁कोऽपि	-9.51485
▁अधुना	-9.5159
▁चु	-9.51612
▁देवः	-9.51612
▁र्मणा	-9.51699
▁त्ता	-9.51741
▁आकाश	-9.51801
▁राजन्	-9.51878
▁तोऽ	-9.51887
▁→	-9.5191
ेऽ	-9.5192
▁चित्	-9.51937
▁ोह	-9.51946
▁ाञ्च	-9.52023
▁महत्	-9.52024
▁दृ	-9.52111
▁१७	-9.52118
ँ	-9.52184
▁मिव	-9.52282
▁द्यु	-9.52288
नु	-9.52317
▁भिर	-9.52627
ेष्ट	-9.52693
▁समीप	-9.52757
▁याये	-9.52778
▁मरण	-9.52787
▁स्तो	-9.52811
▁विर	-9.5284
▁िस्	-9.53026
▁नेपाल	-9.53097
▁१६	-9.53099
▁प्स	-9.53168
▁एकादश	-9.53281
▁नेत्र	-9.5337
▁भीत	-9.53398
▁रात	-9.53437
▁िज	-9.53465
▁गर	-9.53478
▁तर्क	-9.53515
]	-9.53518
▁धारण	-9.53611
▁k	-9.53684
▁नियत	-9.53692
▁दित्य	-9.53702
▁तानि	-9.53706
▁i	-9.53745
▁tion	-9.53814
▁्रमेण	-9.53815
▁भवतु	-9.53825
▁शू	-9.53919
ra	-9.53955
▁निश	-9.54019
▁पीसी	-9.54031
▁शक्न	-9.54056
▁प्रेम	-9.54135
▁वीर्य	-9.54165
▁१९	-9.54202
L	-9.5427
▁ावरण	-9.54292
▁द्वौ	-9.543
▁्लव	-9.54429
▁कारेण	-9.5457
▁थ्य	-9.54768
M	-9.5481
▁पो	-9.55041
▁रिष्	-9.55068
▁भेदे	-9.55114
▁क्षमा	-9.55256
▁भाति	-9.55327
▁माल	-9.55414
▁भूत्	-9.55499
▁र्ध्व	-9.55695
र्त	-9.55703
▁ध्रुव	-9.55762
▁रिवार	-9.55762
▁ागम	-9.55832
▁क्तम्	-9.55886
▁र्भ	-9.55948
▁दूत	-9.55991
▁्रह	-9.56084
▁स्मरण	-9.56133
▁ारि	-9.56147
्ठ	-9.56175
▁द्म	-9.56184
▁ाचीन	-9.5631
▁ाला	-9.56351
▁नयन	-9.56359
ब्द	-9.56513
▁एतद्	-9.56545
ेर	-9.56599
▁H	-9.56633
▁कुतः	-9.56663
▁चीन	-9.56691
▁ादयः	-9.56899
रिण	-9.56937
▁तुष्ट	-9.56945
▁डि	-9.57127
▁ाक्षस	-9.57254
▁्य्	-9.57263
▁रत्न	-9.57315
▁वस्त	-9.57379
▁शै	-9.57489
▁रह	-9.575
▁पे	-9.57648
▁िभिः	-9.57749
▁दय	-9.57987
▁तीय	-9.58147
▁नुवाद	-9.58208
▁जातः	-9.58267
▁णाम	-9.58285
▁्ति	-9.58304
▁ुज	-9.5833
▁ीघ्रं	-9.58418
▁त्यु	-9.58422
▁टे	-9.58429
▁दात	-9.58478
▁माणं	-9.58596
▁इदम	-9.58621
▁छुं	-9.58649
▁तम्	-9.58833
▁सान	-9.5887
▁ायः	-9.58875
र्द	-9.58876
▁अज	-9.589
▁कू	-9.58907
▁्तव्य	-9.58977
▁कल्पन	-9.58987
▁लाख	-9.58994
▁श्रवण	-9.59095
▁महत्व	-9.5928
▁र्या	-9.59368
▁तीत	-9.59413
▁ाचार	-9.59418
▁त्कार	-9.59487
▁पतिः	-9.59494
▁थु	-9.59521
▁पेपर	-9.59568
▁्रप	-9.59661
▁सदृश	-9.59799
▁ऋण	-9.59818
▁नरः	-9.59836
▁माग	-9.59848
ro	-9.59851
▁ील	-9.59868
▁तस्मै	-9.60115
▁उपरि	-9.60123
▁न्यो	-9.60417
▁देवि	-9.60489
▁ऽऽ	-9.60565
▁w	-9.60591
▁ne	-9.6075
▁गते	-9.60804
▁त्स्य	-9.60814
▁विभ	-9.60825
▁ङ्क्	-9.60871
▁ाकृत	-9.60917
▁श्वेत	-9.60924
▁ापित	-9.6093
▁शीघ्र	-9.61147
▁षट्	-9.61147
▁राशि	-9.61168
▁R	-9.61193
▁ाज्ञ	-9.61259
▁सूत	-9.61313
▁ाभिः	-9.61348
▁न्ती	-9.61351
▁केवलम	-9.6142
▁णम्	-9.61427
▁ूर	-9.61499
▁ण्	-9.61539
▁्थापन	-9.61611
हि	-9.61636
▁्मृति	-9.61725
▁क्षेप	-9.61736
▁ेते	-9.61872
▁ाङ्क	-9.61905
ञ्ज	-9.61955
▁ारं	-9.61962
▁ख्यान	-9.62055
▁रुपये	-9.62108
▁नाय	-9.62119
▁ुध्य	-9.62234
▁क्क	-9.62336
▁ासीत्	-9.62359
भ्य	-9.62367
▁माम	-9.62506
▁धाव	-9.62517
▁दात्	-9.6255
▁आसन्	-9.62552
▁गता	-9.62562
▁्यता	-9.62572
▁शक्नु	-9.62632
▁पराध	-9.62667
▁ुत्तर	-9.6276
▁म्प	-9.62965
▁विज	-9.62997
▁सरकार	-9.63016
▁यव	-9.63116
▁खेल	-9.63296
▁ूर्त	-9.63332
▁तात	-9.63482
▁जापत	-9.63514
▁नायक	-9.63529
▁मन्द	-9.63555
▁रिय	-9.6357
▁ारद	-9.63586
▁्यम्	-9.63672
▁पिब	-9.6368
▁यामः	-9.63757
ायण	-9.63821
▁ृष	-9.63822
▁भारते	-9.63875
st	-9.63944
▁हन	-9.63962
▁क्रमण	-9.6406
▁धाय	-9.64105
ha	-9.64115
▁ितुम्	-9.64133
▁ुद्	-9.64145
▁दूषण	-9.64155
▁ार्य	-9.6429
▁्वय	-9.64485
▁िम्	-9.645
▁पत्नी	-9.6462
▁ततस्	-9.64687
B	-9.64716
▁कम	-9.64737
▁on	-9.64753
ब्ध	-9.64776
▁रवरी	-9.64787
▁्विन	-9.64799
▁िभक्त	-9.64804
▁ज़	-9.6482
लोक	-9.64896
▁ान्ते	-9.64898
▁्रम	-9.6491
▁िना	-9.6494
▁्रद्ध	-9.65026
▁अग्ने	-9.65054
▁त्रैव	-9.65073
▁कथम्	-9.65154
▁िशि	-9.6519
▁धिकं	-9.65291
▁ददाति	-9.65385
▁यमेव	-9.65389
▁िट	-9.6544
▁ानामि	-9.65524
▁वाचक	-9.65658
▁कृत्	-9.65725
पाद	-9.65944
▁्लेषण	-9.65989
ादि	-9.66089
▁महिला	-9.6611
▁ाग्नि	-9.66119
▁सैन्य	-9.6613
▁्यमान	-9.66145
▁ोश	-9.66231
▁स्रोत	-9.66233
▁ामः	-9.66338
▁चे	-9.66358
▁हानि	-9.66383
▁भगवन्	-9.66389
▁त्सर	-9.66409
▁शोध	-9.66443
▁ह्नि	-9.66465
▁क्तं	-9.6647
▁देहि	-9.66545
▁बृ	-9.6655
▁सित	-9.66676
▁सिध्	-9.66722
▁द्वे	-9.66772
▁िमान	-9.66867
▁गीत	-9.6689
▁काः	-9.66919
▁te	-9.66923
▁भुज	-9.66925
▁ासी	-9.66933
▁नृत्य	-9.66964
▁दुः	-9.66966
▁ंच	-9.66995
▁2.	-9.67116
▁अक	-9.67161
▁ष्ठि	-9.67182
▁वाप	-9.67189
▁ानन्द	-9.67219
▁मुह	-9.67222
▁नाम्	-9.67223
▁K	-9.67274
▁ोज	-9.67279
▁ाभ्य	-9.67318
▁गतिः	-9.67398
▁र्जन	-9.67415
▁सतत	-9.67428
▁कम्प	-9.67439
ोग	-9.67487
▁हय	-9.675
▁वारं	-9.67508
▁ामय	-9.67566
▁इतर	-9.67568
▁तुल	-9.67581
▁सम्म	-9.67622
▁परमं	-9.67652
▁भगवान	-9.67705
▁गज	-9.67794
▁शीर्ष	-9.67854
▁भावे	-9.67878
▁ाष	-9.67886
▁ान्ति	-9.67898
▁ायत	-9.67949
▁to	-9.67975
▁कथन	-9.68016
▁ानाः	-9.68085
▁माः	-9.68136
▁ाकरण	-9.6819
▁ल्याण	-9.68191
▁मार	-9.68263
▁जाता	-9.68294
▁हंस	-9.68308
▁दं	-9.68319
▁रू	-9.68327
▁न्दिर	-9.68406
▁ुद्रा	-9.68452
▁आग	-9.68502
▁म्यक्	-9.68578
▁जनक	-9.68615
▁ूर्वक	-9.68638
▁%	-9.68829
▁ाटक	-9.68884
▁वन्त	-9.68934
▁मधुर	-9.691
▁रेव	-9.69206
▁रन्तु	-9.6925
▁ासां	-9.69317
▁लभते	-9.69359
▁करोत्	-9.69417
▁दूष	-9.69473
▁वद्	-9.69484
▁अन्व	-9.69539
▁द्या	-9.69562
▁एतेन	-9.69587
▁ृत्य	-9.69639
▁संभ	-9.69657
▁२१	-9.69705
▁बहुधा	-9.69725
▁ग्	-9.69775
▁चतु	-9.69822
▁लिखि	-9.69827
▁मासे	-9.69955
▁नुमान	-9.69984
▁तामह	-9.69989
▁चाल	-9.70098
▁्वयम्	-9.70108
▁ादिषु	-9.7019
▁ामहे	-9.70191
▁मानि	-9.70231
▁ेतु	-9.7025
▁द्वेष	-9.70388
▁येषां	-9.70442
▁शुक्र	-9.70462
▁न्यत्	-9.70604
▁म्र	-9.70646
▁नाना	-9.70684
▁माजिक	-9.70695
▁योगी	-9.70737
▁अतीत	-9.70829
▁तैः	-9.70836
▁थार्थ	-9.70933
▁तिशय	-9.70957
▁योजनम	-9.71009
▁ुग्ध	-9.7101
▁दानं	-9.71029
लि	-9.71034
▁पात्र	-9.71173
▁निध	-9.71179
▁ुगु	-9.71189
▁मुदाय	-9.71202
▁घन	-9.71231
▁ूक्त	-9.71322
me	-9.71438
▁वाचन	-9.71505
▁पुरो	-9.71515
▁होम	-9.7158
▁द्यः	-9.71636
▁वैश्व	-9.71643
▁न्वयः	-9.71836
▁निष्ठ	-9.71849
hi	-9.71943
▁युवा	-9.72069
▁st	-9.72124
▁करो	-9.72138
▁रुद्र	-9.72161
▁धीर	-9.72319
▁यित	-9.72386
▁निव	-9.72439
▁्मान्	-9.72501
▁्येन	-9.72528
▁रङ्ग	-9.72536
▁र्श	-9.72581
चित	-9.72605
▁भाषित	-9.72617
▁11	-9.72632
▁ंस्था	-9.72633
▁गुणा	-9.7269
▁कुर्	-9.72779
▁यन	-9.72821
ानीम	-9.72825
▁यास्	-9.72833
▁शाख	-9.7287
▁रामः	-9.72939
▁षम	-9.72967
▁ाता	-9.73047
▁शो	-9.73071
▁त्य्	-9.73091
▁पति	-9.73227
▁दद्या	-9.7327
▁इष्ट	-9.73433
क्र	-9.73533
▁धिकृत	-9.73656
▁पुन	-9.73698
▁ानन	-9.73698
▁ासाद	-9.73807
▁छे	-9.73833
ेय	-9.73856
▁िरि	-9.73857
▁हरे	-9.73953
▁रेत्	-9.73972
▁मनसा	-9.74043
▁रिक्ष	-9.74129
▁ारम्भ	-9.7418
▁थितं	-9.7422
▁de	-9.74266
▁र्पण	-9.74307
▁//	-9.74337
▁W	-9.74388
▁्युप	-9.74481
ॄ	-9.74781
ैल	-9.74795
▁यश्च	-9.74841
la	-9.7487
▁सम्ब	-9.74916
▁ङ्गल	-9.74941
▁वतां	-9.74976
▁पचार	-9.74983
▁संघ	-9.75017
▁नेक	-9.75178
▁न्थ	-9.75238
▁Re	-9.75295
▁आगच्छ	-9.75405
▁्वी	-9.755
▁ङ्कार	-9.75502
▁ुष्टि	-9.75507
▁भौ	-9.75532
▁वया	-9.75582
▁तमः	-9.75627
▁घटना	-9.75629
▁ुञ्ज	-9.75726
▁जु	-9.75761
रीण	-9.75896
▁क्रमः	-9.75935
▁समं	-9.75969
ील	-9.7597
▁सन्त	-9.75995
▁यमान	-9.7602
▁द्धत	-9.76042
▁ांत	-9.76064
▁न्दो	-9.76301
▁्थिव	-9.76304
▁वम	-9.76323
▁दुर्ग	-9.76323
▁ीष	-9.76362
▁योनि	-9.76378
▁पर्व	-9.76416
▁्यापक	-9.76459
lo	-9.76593
ोप	-9.76598
▁ाकं	-9.76632
▁ऽन	-9.76653
▁ार्थः	-9.76656
▁दिनं	-9.7672
▁पृष्ट	-9.76777
▁अल्प	-9.76844
द्य	-9.76869
▁ृष्ट	-9.76995
▁वर्णन	-9.77048
▁हीं	-9.77073
▁ेष्ट	-9.77093
▁ूनां	-9.77113
▁यास	-9.77166
▁पूज्य	-9.77177
▁तुर	-9.77209
▁माना	-9.77221
▁म्यते	-9.77267
▁लं	-9.77326
▁ापं	-9.77444
▁यानि	-9.77457
▁भूम	-9.77527
▁वचः	-9.77694
▁२२	-9.77697
▁ुवि	-9.77725
▁पट	-9.77774
▁शतं	-9.77788
▁तन्न	-9.77869
मुख	-9.77969
▁व्यम	-9.78036
▁मभि	-9.7809
▁भात	-9.78094
▁णिज	-9.7817
▁रोतु	-9.78202
▁वज्	-9.78212
▁्नात	-9.78224
▁दो	-9.78289
z	-9.78336
▁्रीति	-9.78341
▁ऽप	-9.7839
▁ेड	-9.7844
▁ार्च	-9.78498
▁रपि	-9.78521
▁ेषाम	-9.78538
▁्थान	-9.7862
▁ष्ठान	-9.78712
▁ाहित	-9.78732
▁्यवाद	-9.78755
▁ृत्	-9.78774
▁डा	-9.78807
▁कथ	-9.78949
▁दौ	-9.78966
▁वसन्त	-9.78974
▁..	-9.79041
▁अन्ये	-9.79069
▁घव	-9.79089
▁क्ष्	-9.79122
▁हृत	-9.79171
▁दिना	-9.79406
▁वसर	-9.79491
▁िक्	-9.79522
▁re	-9.79539
▁ंट	-9.79552
▁समुद	-9.79682
▁आदेश	-9.79753
al	-9.79766
▁ह्न	-9.79822
▁20	-9.79893
▁ागर	-9.79917
▁क्षि	-9.79997
▁याद	-9.8009
▁हिता	-9.80269
▁ोध	-9.80276
▁नौ	-9.80293
▁भ्यो	-9.80373
▁रद	-9.80379
▁श्चन	-9.80433
▁ुने	-9.8045
▁हव	-9.80453
तर	-9.80514
▁महान्	-9.80547
▁ित्तं	-9.80633
▁ाषण	-9.80658
▁ार्ज	-9.80664
▁सफल	-9.80692
ri	-9.80731
▁पु०	-9.80821
▁प्रेत	-9.80821
▁ग्ने	-9.80865
▁त्मा	-9.80882
▁येद्	-9.80937
▁्रयोज	-9.80971
▁शौ	-9.81024
▁जाः	-9.81118
▁घृ	-9.81203
▁योगं	-9.81253
▁ार्त	-9.81358
▁क्रि	-9.81361
▁स्यां	-9.81379
▁श्न	-9.81398
▁वाल	-9.814
▁J	-9.81416
▁दुष्	-9.81424
▁थ्यते	-9.81434
▁ुद्ध	-9.81449
▁यान्	-9.81495
▁्रू	-9.81497
▁ास्तु	-9.81581
▁चक्ष	-9.81592
▁ृपा	-9.81686
▁गत्य	-9.81721
▁में	-9.81785
▁घ्र	-9.81831
▁णाम्	-9.81906
▁आः	-9.81908
▁नया	-9.81931
▁३०	-9.81979
▁्याम	-9.81996
▁लिखत	-9.82063
▁भूव	-9.82066
▁एवा	-9.82076
▁ing	-9.82118
▁साह	-9.82161
▁र्थ्य	-9.82186
हाय	-9.82215
▁ानव	-9.82276
▁द्युत	-9.8228
▁12	-9.82341
▁ाब	-9.82434
▁प्राग	-9.82483
▁भवत्य	-9.82498
▁ाहुः	-9.82575
▁ितो	-9.82664
▁यस्तु	-9.82681
▁द्देश	-9.82706
▁न्धन	-9.82788
▁ल्व	-9.82857
▁ुक्	-9.82864
▁ीपे	-9.82877
▁विदेश	-9.82987
▁ाँ	-9.83034
▁ामक	-9.83219
▁२५	-9.83284
▁ीया	-9.8331
ृह	-9.83321
▁ृदि	-9.83393
▁लाल	-9.83484
▁रिक	-9.83501
▁ातुः	-9.83503
▁मयः	-9.83506
▁स्ताव	-9.8355
▁िन्ता	-9.83551
▁टिप	-9.83562
▁नरक	-9.8369
▁धे	-9.83694
▁्मि	-9.83759
▁ब्ध	-9.83772
in	-9.83816
▁ोधन	-9.8393
▁ित्यम	-9.83963
▁णः	-9.83965
▁द्यते	-9.83987
▁्मात्	-9.84054
▁शरण	-9.84115
▁न्ध्य	-9.84158
▁ञ्जन	-9.84204
▁ii	-9.84278
▁छु	-9.84331
▁दति	-9.84477
▁्यौ	-9.84547
▁ेख	-9.84558
▁in	-9.84566
▁वयम्	-9.84567
▁िषु	-9.84585
▁रच	-9.84651
▁वादी	-9.84677
▁यतीति	-9.8484
▁भाज	-9.84859
▁ाक्षर	-9.84893
▁दक	-9.8493
▁स्तद	-9.84985
▁द्योग	-9.85006
▁कम्	-9.85025
▁ोद्	-9.8503
li	-9.85183
▁्वज	-9.85246
▁तयोः	-9.85286
▁हम्	-9.85313
▁थि	-9.8541
ितुम	-9.85461
▁प्रीत	-9.85486
्वल	-9.85628
राज	-9.85719
il	-9.85806
▁ास्थ	-9.85894
▁ोदय	-9.85901
▁वदत्	-9.85912
▁ुक्तं	-9.85917
ve	-9.85946
▁भ्यं	-9.85973
▁पतित	-9.86021
▁h	-9.86067
▁प्रो	-9.86082
▁विन्द	-9.86294
▁यया	-9.8644
▁सते	-9.86477
▁ादिति	-9.865
▁कमल	-9.86607
▁ृद्ध	-9.86609
▁्युत	-9.86687
▁परो	-9.86789
▁माम्	-9.86849
▁्वाहा	-9.86918
स्व	-9.8692
en	-9.86943
▁पुल	-9.87027
▁्रकरण	-9.87055
▁वृष	-9.87059
▁vi	-9.87119
▁क्षी	-9.87119
▁विषयः	-9.87171
मस्	-9.87233
वीकृ	-9.87246
▁आत्मा	-9.87323
▁्रमण	-9.87324
▁यामास	-9.87363
▁रां	-9.87376
▁हृ	-9.87411
▁15	-9.87568
रित	-9.87571
▁ष्टम	-9.87645
▁र्षिक	-9.87679
▁पार्थ	-9.87741
▁अह	-9.87842
▁शयन	-9.87882
▁नहि	-9.87902
▁कुट	-9.87999
▁ारा	-9.88044
▁्वाद	-9.88073
▁रुष	-9.88186
▁क्तिः	-9.88205
▁्वस्थ	-9.88212
▁अन्तर	-9.88264
▁ैवं	-9.88471
▁ॄ	-9.88474
▁तन्म	-9.88593
▁नष्ट	-9.88605
▁चते	-9.88605
▁्राक्	-9.88632
▁िक्षु	-9.88719
▁नाहं	-9.8872
▁ीह	-9.8874
▁श्ल	-9.88764
▁ावद्	-9.88772
▁दिल	-9.88797
▁ग्निः	-9.88912
▁तले	-9.88956
▁्वयो	-9.88969
▁ाम्ना	-9.8899
▁ृतीया	-9.89017
ावद	-9.89064
▁अश्व	-9.89069
▁च्या	-9.89147
ss	-9.89327
▁नारी	-9.89328
▁सन्धि	-9.89505
▁्ञ	-9.89544
▁षां	-9.89737
▁ाध्यम	-9.89936
▁ोषि	-9.90094
▁नसि	-9.90126
▁ंति	-9.90131
▁ाधिप	-9.90252
ानी	-9.90349
ृप	-9.90497
▁भयो	-9.90543
▁तिक	-9.90547
िख	-9.90582
▁र्थक	-9.90639
▁जिन	-9.90692
▁वादः	-9.90742
▁यश	-9.9075
▁ंज्ञा	-9.90776
▁वचनम्	-9.90784
▁्राव	-9.90827
se	-9.90833
▁जाति	-9.9084
ठ	-9.90965
▁स्वतः	-9.90968
▁्रदेश	-9.91021
▁ार्ता	-9.91126
▁ेशस्य	-9.91148
▁ियन्	-9.912
▁x	-9.91231
हार	-9.91411
▁महत	-9.91456
▁धीन	-9.91574
▁ंज	-9.91594
▁युः	-9.91715
▁ूष	-9.91751
▁ुभ	-9.91811
▁ीनाम	-9.91851
▁हाय	-9.91873
कि	-9.91912
तव्य	-9.91917
ल्	-9.91937
▁२४	-9.91979
▁िश्र	-9.91986
▁पीत	-9.92009
▁डी	-9.9205
▁्मिक	-9.92091
▁्वर्ण	-9.92111
▁ीनि	-9.92146
न्न	-9.92168
▁चेत	-9.92178
▁संद	-9.92316
▁ूरे	-9.92334
▁िषद	-9.92352
▁पदेश	-9.92396
ce	-9.92405
▁्रस्य	-9.92406
▁्तुतः	-9.92425
▁वेष	-9.92487
▁्मत	-9.92553
▁धुन	-9.92675
▁दन्ति	-9.92734
▁टल	-9.92827
▁टन	-9.92843
▁हरण	-9.92899
▁िड	-9.92933
▁ोभ	-9.92991
▁रतः	-9.93011
▁ग्रत	-9.93079
▁त्मक	-9.93176
हृत	-9.93177
▁सुप	-9.93377
ल्ल	-9.93442
▁ार्थे	-9.93466
▁कान्त	-9.93478
▁हिः	-9.93484
▁ीरे	-9.9364
▁्यस्त	-9.93678
क्रम	-9.93737
▁्रसा	-9.93751
▁केश	-9.93766
▁न्तो	-9.93852
▁व्र	-9.93911
▁ऑ	-9.94014
▁or	-9.94122
▁तिर	-9.94125
▁नुसार	-9.94174
▁Ans	-9.94174
▁यच्च	-9.94334
▁ाधन	-9.94424
▁ाद्ध	-9.94477
▁ंसि	-9.94484
▁२७	-9.945
▁्फ	-9.94502
▁ाय्	-9.9459
▁तरं	-9.94591
▁लोक्य	-9.946
▁भग	-9.9466
▁त्म	-9.94675
▁ातुं	-9.94722
▁धौ	-9.94751
▁िरस	-9.94783
चार	-9.94786
▁तोष	-9.94806
▁॒व	-9.94825
▁नाव	-9.9489
▁वाक्	-9.94921
धा	-9.94956
▁श्यं	-9.95197
▁18	-9.95226
▁णी	-9.9528
▁्षे	-9.95285
ञ्	-9.95351
▁मीर	-9.95354
▁अस्मि	-9.95358
▁्यसे	-9.95374
▁बलं	-9.95434
▁र्म्म	-9.9547
ाश	-9.95473
▁२६	-9.95503
▁ूट	-9.95537
▁ेगु	-9.95539
▁आदि	-9.95663
▁यतु	-9.95668
▁ङ्के	-9.95793
▁गताः	-9.95949
▁ुध	-9.95963
▁मस्या	-9.95975
माध	-9.96008
▁ुख	-9.96041
देश	-9.96132
▁िद्य	-9.96156
ed	-9.96204
▁्वद	-9.96238
▁अन्न	-9.96353
▁द्भि	-9.96401
▁िद्रा	-9.96487
▁ामं	-9.96491
▁ःसा	-9.96558
पृ	-9.96648
▁ोचन	-9.96671
▁रन्	-9.96685
▁्वमेव	-9.96773
▁्याद	-9.96802
▁ूर्व	-9.96852
ए	-9.96913
▁दक्ष	-9.96938
▁र्थे	-9.96942
▁बहि	-9.96945
▁यन्ते	-9.9698
V	-9.97079
▁ानी	-9.97167
%	-9.97244
▁न्तरं	-9.97246
▁िशु	-9.9726
ोक्त	-9.97326
▁पलब्ध	-9.97933
▁ीप्	-9.98
▁ले	-9.98152
▁क्षा	-9.98239
▁िकी	-9.98311
▁हृदये	-9.98317
▁न्तरे	-9.98476
▁जनः	-9.98523
▁्ता	-9.98531
▁ष्टि	-9.98666
▁रन्त	-9.98677
▁इगु	-9.98827
▁ीयम्	-9.98927
▁of	-9.99058
▁िदि	-9.99066
▁न्नं	-9.99089
▁ादिक	-9.99092
▁दीन	-9.99267
▁्प्र	-9.99378
▁ti	-9.99415
▁्थापय	-9.99444
▁यी	-9.99451
▁14	-9.99593
▁ाख्या	-9.99605
▁एतस्य	-9.99778
▁तिथ	-9.99797
▁ारी	-9.99894
▁चिद	-9.99903
▁युगे	-9.99978
▁हस्य	-10.0002
▁ोऽयं	-10.0013
▁मणि	-10.0017
िवेद	-10.0023
▁ोक्ता	-10.0027
▁याग	-10.0031
▁ग्रहः	-10.0035
▁्नि	-10.0043
▁गार	-10.0044
▁ाभार	-10.0047
▁ावल	-10.0055
▁कालं	-10.0058
▁षभ	-10.0064
▁वन्ति	-10.0066
▁सद्	-10.0071
िभाष	-10.0071
▁मथ	-10.0071
▁ितुम	-10.0078
▁चिक	-10.0087
▁विधा	-10.0127
▁हितं	-10.0131
▁रोच	-10.0135
▁करं	-10.0142
▁्मण	-10.0148
▁ृत्व	-10.0154
▁पत्य	-10.0159
▁श्रे	-10.0162
▁ादेव	-10.0168
▁ाका	-10.0171
▁ध्यते	-10.0172
nd	-10.0174
▁्थं	-10.0176
▁णित	-10.0181
▁ेक्षा	-10.0182
▁्परा	-10.0187
▁याना	-10.0204
▁जू	-10.0206
▁na	-10.0216
▁िवः	-10.0216
▁ुद्धे	-10.0217
▁ाज्य	-10.0217
▁नार्थ	-10.0223
▁त्रयो	-10.0228
▁ाग्	-10.0233
▁्वस्य	-10.0244
▁पते	-10.0245
▁्योत	-10.025
▁रस्य	-10.0258
▁माप	-10.0264
▁िशेषण	-10.0288
▁ेष्	-10.0306
▁र्शित	-10.031
▁भोज	-10.0311
▁्याद्	-10.0312
▁वाज	-10.0314
▁तिः	-10.0314
▁द्भव	-10.0316
ry	-10.0316
▁वसु	-10.0329
▁जले	-10.0331
ch	-10.0345
▁ायां	-10.0346
▁ाशय	-10.0348
▁अत्य	-10.0357
▁प्रती	-10.0365
श्य	-10.0375
▁नुः	-10.0378
▁स्तदा	-10.0387
▁हती	-10.0389
▁हत्य	-10.0398
Y	-10.0411
▁िरिति	-10.0412
▁हता	-10.0423
▁रभ्य	-10.0426
▁हिं	-10.0436
ma	-10.0442
▁ुचि	-10.0451
G	-10.0845
अ	-10.1182
H	-10.1676
;	-10.1941
j	-10.2045
आ	-10.2896
U	-10.3172
F	-10.3239
उ	-10.3361
q	-10.4356
*	-10.6022
W	-10.637
K	-10.6967
!	-10.6967
ā	-10.7441
↑	-10.8536
>	-10.9
/	-10.9211
ॆ	-10.9569
°	-10.9632
X	-10.9658
ऩ	-11.0041
ढ	-11.0297
झ	-11.0353
ʼ	-11.0713
̇	-11.0713
\	-11.0964
Z	-11.1067
›	-11.2325
ॐ	-11.2483
=	-11.2688
ऱ	-11.3113
←	-11.3612
᳘	-11.3631
×	-11.4462
ओ	-11.4811
¦	-11.5057
+	-11.5671
്	-11.6721
Í	-11.7184
ऊ	-11.8056
ऌ	-11.8075
~	-11.8266
̐	-11.8285
ऋ	-11.848
ळ	-11.8698
о	-11.8941
़	-11.8997
Q	-11.915
÷	-11.9169
_	-11.9359
J	-11.9384
️	-11.9403
а	-11.9643
−	-11.9643
ḥ	-11.9765
●	-11.9888
🙏	-11.9888
€	-12.0935
Ś	-12.1215
ર	-12.1215
்	-12.1357
ū	-12.1502
ꣳ	-12.178
ऍ	-12.195
્	-12.2104
ا	-12.226
е	-12.2419
н	-12.2744
¬	-12.2911
ॢ	-12.2911
ા	-12.2911
ऴ	-12.308
р	-12.308
}	-12.3234
л	-12.3253
ü	-12.3607
т	-12.3607
и	-12.3789
é	-12.3974
σ	-12.3974
$	-12.4336
ə	-12.4355
ന	-12.4355
√	-12.4551
ī	-12.4751
£	-12.4955
ॅ	-12.5144
с	-12.5163
👉	-12.5163
꣢	-12.5594
ś	-12.5816
в	-12.5816
ക	-12.5816
ṣ	-12.5816
ل	-12.5816
#	-12.6024
д	-12.6276
★	-12.6276
ऐ	-12.6495
ન	-12.6514
ാ	-12.6514
•	-12.6739
ь	-12.6758
॓	-12.6758
ી	-12.6758
≥	-12.6758
◆	-12.6758
ம	-12.7008
ત	-12.7264
ி	-12.7264
ー	-12.7527
꣣	-12.7527
ે	-12.7797
ா	-12.7797
ി	-12.7797
ં	-12.8075
મ	-12.8075
த	-12.8075
‡	-12.8075
❍	-12.8075
🔊	-12.8075
á	-12.8361
î	-12.8361
¥	-12.8655
ñ	-12.8655
¢	-12.8958
ن	-12.8958
꣡	-12.8958
ó	-12.9271
Ž	-12.9271
ர	-12.9271
©	-12.9593
м	-12.9593
ത	-12.9593
⁄	-12.9593
🪔	-12.9593
§	-12.9926
я	-12.9926
ر	-12.9926
م	-12.9926
ي	-12.9926
ऄ	-12.9926
ો	-12.9926
ṇ	-12.9926
у	-12.9926
જ	-12.9926
і	-13.0271
<	-13.061
ˆ	-13.0628
к	-13.0628
་	-13.0628
🚩	-13.0628
ı	-13.0999
🌷	-13.0999
→	-13.1364
й	-13.1383
ऺ	-13.1383
್	-13.1383
】	-13.1383
б	-13.1383
¤	-13.1783
í	-13.1783
̥	-13.1783
ક	-13.1783
ய	-13.1783
ര	-13.1783
വ	-13.1783
語	-13.1783
ç	-13.1783
🌹	-13.1783
י	-13.2635
ப	-13.2635
வ	-13.2635
^	-13.307
ː	-13.3089
г	-13.3089
з	-13.3089
্	-13.3089
&	-13.3547
ˈ	-13.3566
à	-13.3566
è	-13.3566
പ	-13.3566
औ	-13.4047
া	-13.4066
સ	-13.4066
ട	-13.4066
ᳪ	-13.4066
Ó	-13.4592
د	-13.4592
س	-13.4592
க	-13.4592
ந	-13.4592
❌	-13.4592
®	-13.5147
ц	-13.5147
ন	-13.5147
ன	-13.5147
ನ	-13.5147
യ	-13.5147
п	-13.5147
ه	-13.5736
ತ	-13.5736
ങ	-13.5736
മ	-13.5736
ṭ	-13.5736
い	-13.5736
ع	-13.5736
@	-13.6342
{	-13.6342
ی	-13.6361
ö	-13.6361
х	-13.6361
ত	-13.6361
પ	-13.6361
ல	-13.6361
ಾ	-13.6361
ṛ	-13.6361
†	-13.6361
ィ	-13.6361
🔥	-13.6361
[	-13.7008
â	-13.7027
ɪ	-13.7027
ب	-13.7027
ি	-13.7027
હ	-13.7027
ರ	-13.7027
‹	-13.7027
⇄	-13.7027
✍	-13.7027
🛑	-13.7027
ú	-13.7742
ɑ	-13.7742
С	-13.7742
ж	-13.7742
ו	-13.7742
ગ	-13.7742
్	-13.7742
ಿ	-13.7742
ച	-13.7742
ല	-13.7742
᳭	-13.7742
ン	-13.7742
🌺	-13.7742
±	-13.8511
ï	-13.8511
ş	-13.8511
μ	-13.8511
ы	-13.8511
॔	-13.8511
િ	-13.8511
⋙	-13.8511
■	-13.8511
🌞	-13.8511
📖	-13.8511
ã	-13.9344
Ï	-13.9344
ł	-13.9344
و	-13.9344
ॡ	-13.9344
ম	-13.9344
એ	-13.9344
ય	-13.9344
ು	-13.9344
ദ	-13.9344
✓	-13.9344
❤	-13.9344
➧	-13.9344
🏻	-13.9344
ܘ	-13.9344
Б	-14.0253
一	-14.0253
α	-14.0253
ت	-14.0253
ু	-14.0253
ದ	-14.0253
ṃ	-14.0253
′	-14.0253
◎	-14.0253
语	-14.0253
の	-14.1253
マ	-14.1253
ک	-14.1253
ê	-14.1253
ʊ	-14.1253
ה	-14.1253
ى	-14.1253
ক	-14.1253
দ	-14.1253
૧	-14.1253
ి	-14.1253
ಂ	-14.1253
ണ	-14.1253
ള	-14.1253
❯	-14.1253
。	-14.1253
し	-14.1253
デ	-14.1253
🌸	-14.1253
ю	-14.1253
ʃ	-14.2364
ч	-14.2364
İ	-14.2364
ב	-14.2364
¶	-14.2364
Þ	-14.2364
א	-14.2364
য	-14.2364
ુ	-14.2364
ం	-14.2364
న	-14.2364
ర	-14.2364
ᄌ	-14.2364
ḍ	-14.2364
ṁ	-14.2364
◉	-14.2364
☝	-14.2364
図	-14.2364
書	-14.2364
月	-14.2364
щ	-14.3614
增	-14.3614
È	-14.3614
̶	-14.3614
ר	-14.3614
ش	-14.3614
ব	-14.3614
ল	-14.3614
স	-14.3614
ে	-14.3614
ટ	-14.3614
ழ	-14.3614
ಕ	-14.3614
ಗ	-14.3614
೦	-14.3614
റ	-14.3614
◦	-14.3614
⭐	-14.3614
か	-14.3614
ラ	-14.3614
전	-14.3614
💮	-14.3614
😊	-14.3614
ý	-14.5043
ē	-14.5043
П	-14.5043
ט	-14.5043
ॿ	-14.5043
ো	-14.5043
ਕ	-14.5043
થ	-14.5043
દ	-14.5043
ળ	-14.5043
ட	-14.5043
ண	-14.5043
ெ	-14.5043
య	-14.5043
వ	-14.5043
ు	-14.5043
ಡ	-14.5043
സ	-14.5043
ൊ	-14.5043
♥	-14.5043
お	-14.5043
つ	-14.5043
テ	-14.5043
余	-14.5043
名	-14.5043
音	-14.5043
다	-14.5043
🔹	-14.5043
Ü	-14.5043
ס	-14.5043
ɛ	-14.5043
·	-14.6691
行	-14.671
사	-14.671
є	-14.671
ز	-14.671
گ	-14.671
な	-14.671
æ	-14.671
ĉ	-14.671
ō	-14.671
ž	-14.671
θ	-14.671
π	-14.671
ح	-14.671
ق	-14.671
হ	-14.671
ਾ	-14.671
ણ	-14.671
ભ	-14.671
ற	-14.671
ோ	-14.671
త	-14.671
ా	-14.671
ಳ	-14.671
ധ	-14.671
∴	-14.671
す	-14.671
パ	-14.671
年	-14.671
꣯	-14.671
🌿	-14.671
🔅	-14.671
🍃	-14.671
מ	-14.671
ネ	-14.871
あ	-14.871
ა	-14.871
亦	-14.871
知	-14.871
く	-14.871
Û	-14.871
Œ	-14.871
Ş	-14.871
ǁ	-14.871
ς	-14.871
ة	-14.871
ہ	-14.871
۔	-14.871
ە	-14.871
জ	-14.871
থ	-14.871
প	-14.871
়	-14.871
ਰ	-14.871
ੀ	-14.871
ି	-14.871
ಪ	-14.871
ಮ	-14.871
ೀ	-14.871
ഗ	-14.871
ജ	-14.871
ഷ	-14.871
ས	-14.871
‒	-14.871
⇔	-14.871
∫	-14.871
⋆	-14.871
▼	-14.871
♀	-14.871
✳	-14.871
❇	-14.871
シ	-14.871
ズ	-14.871
음	-14.871
🌄	-14.871
🍁	-14.871
🔗	-14.871
🔶	-14.871
😞	-14.871
ш	-14.871
ṅ	-14.871
э	-14.871
ל	-14.871
ف	-14.871
リ	-15.121
我	-15.121
っ	-15.121
て	-15.121
如	-15.121
尔	-15.121
应	-15.121
ƒ	-15.121
Ì	-15.121
Ð	-15.121
ä	-15.121
ì	-15.121
ô	-15.121
ø	-15.121
ę	-15.121
œ	-15.121
Ι	-15.121
β	-15.121
ι	-15.121
פ	-15.121
ئ	-15.121
ك	-15.121
ܐ	-15.121
ܛ	-15.121
ܦ	-15.121
গ	-15.121
ধ	-15.121
ਲ	-15.121
ધ	-15.121
ફ	-15.121
લ	-15.121
ૐ	-15.121
૦	-15.121
૪	-15.121
ஜ	-15.121
ள	-15.121
ஶ	-15.121
ஷ	-15.121
ொ	-15.121
క	-15.121
ల	-15.121
స	-15.121
ഞ	-15.121
්	-15.121
᳖	-15.121
―	-15.121
‰	-15.121
≍	-15.121
⛅	-15.121
➛	-15.121
➢	-15.121
た	-15.121
と	-15.121
ッ	-15.121
义	-15.121
人	-15.121
何	-15.121
僕	-15.121
国	-15.121
彼	-15.121
愛	-15.121
故	-15.121
无	-15.121
氣	-15.121
的	-15.121
觉	-15.121
论	-15.121
靈	-15.121
낱	-15.121
니	-15.121
말	-15.121
세	-15.121
위	-15.121
이	-15.121
키	-15.121
하	-15.121
👌	-15.121
🔍	-15.121
不	-15.121
亲	-15.121
可	-15.121
ρ	-15.121
ܒ	-15.121
ܪ	-15.121
ऎ	-15.4524
᳚	-15.4524
用	-15.4543
能	-15.4543
δ	-15.4543
გ	-15.4543
ら	-15.4543
反	-15.4543
因	-15.4543
所	-15.4543
브	-15.4543
ν	-15.4543
ව	-15.4543
ი	-15.4543
ᛁ	-15.4543
ᛖ	-15.4543
う	-15.4543
を	-15.4543
作	-15.4543
自	-15.4543
诸	-15.4543
非	-15.4543
대	-15.4543
إ	-15.4543
¿	-15.4543
Â	-15.4543
Ã	-15.4543
ð	-15.4543
ò	-15.4543
õ	-15.4543
ć	-15.4543
č	-15.4543
ě	-15.4543
į	-15.4543
ř	-15.4543
ɔ	-15.4543
ɜ	-15.4543
ʁ	-15.4543
ʏ	-15.4543
Ψ	-15.4543
η	-15.4543
κ	-15.4543
ο	-15.4543
τ	-15.4543
Й	-15.4543
ג	-15.4543
ש	-15.4543
ת	-15.4543
آ	-15.4543
ج	-15.4543
چ	-15.4543
ܣ	-15.4543
ং	-15.4543
ট	-15.4543
ৰ	-15.4543
ৱ	-15.4543
ਮ	-15.4543
ਸ	-15.4543
ੋ	-15.4543
੍	-15.4543
ઃ	-15.4543
ચ	-15.4543
ઞ	-15.4543
ડ	-15.4543
ષ	-15.4543
૯	-15.4543
ீ	-15.4543
ே	-15.4543
ಚ	-15.4543
ಹ	-15.4543
೨	-15.4543
ീ	-15.4543
ක	-15.4543
ය	-15.4543
ུ	-15.4543
ზ	-15.4543
ᄉ	-15.4543
ᅩ	-15.4543
ጻ	-15.4543
ᴇ	-15.4543
Ủ	-15.4543
⃣	-15.4543
↔	-15.4543
∈	-15.4543
≈	-15.4543
✥	-15.4543
❁	-15.4543
➜	-15.4543
き	-15.4543
ま	-15.4543
る	-15.4543
ア	-15.4543
コ	-15.4543
ス	-15.4543
ト	-15.4543
京	-15.4543
依	-15.4543
意	-15.4543
成	-15.4543
期	-15.4543
果	-15.4543
格	-15.4543
梵	-15.4543
生	-15.4543
相	-15.4543
者	-15.4543
说	-15.4543
通	-15.4543
遣	-15.4543
释	-15.4543
量	-15.4543
間	-15.4543
颂	-15.4543
요	-15.4543
𑑂	-15.4543
🇵	-15.4543
🌉	-15.4543
🌙	-15.4543
👫	-15.4543
🔐	-15.4543
🔔	-15.4543
🔸	-15.4543
😉	-15.4543
😍	-15.4543
🤝	-15.4543
新	-15.4543
为	-15.4543
比	-15.4543
薩	-15.4543
タ	-15.4543
チ	-15.4543
ऑ	-15.9524
晴	-15.9543
素	-15.9543
ද	-15.9543
ᛋ	-15.9543
ロ	-15.9543
从	-15.9543
球	-15.9543
许	-15.9543
라	-15.9543
Å	-15.9543
Ò	-15.9543
ù	-15.9543
ą	-15.9543
Ċ	-15.9543
ė	-15.9543
ŋ	-15.9543
ư	-15.9543
ǒ	-15.9543
ǔ	-15.9543
ɒ	-15.9543
ɡ	-15.9543
̆	-15.9543
ά	-15.9543
ф	-15.9543
ј	-15.9543
ү	-15.9543
ם	-15.9543
ן	-15.9543
נ	-15.9543
ע	-15.9543
ק	-15.9543
ص	-15.9543
ط	-15.9543
ۆ	-15.9543
ܠ	-15.9543
ॾ	-15.9543
ই	-15.9543
ঘ	-15.9543
চ	-15.9543
ছ	-15.9543
ী	-15.9543
ਗ	-15.9543
ਤ	-15.9543
ਨ	-15.9543
ਪ	-15.9543
ਬ	-15.9543
਼	-15.9543
ਿ	-15.9543
ੇ	-15.9543
ੱ	-15.9543
ઈ	-15.9543
ઠ	-15.9543
઼	-15.9543
ૂ	-15.9543
૨	-15.9543
ଆ	-15.9543
ଓ	-15.9543
ଡ	-15.9543
ପ	-15.9543
ର	-15.9543
ଲ	-15.9543
଼	-15.9543
ା	-15.9543
ச	-15.9543
డ	-15.9543
ద	-15.9543
ప	-15.9543
ె	-15.9543
ಃ	-15.9543
ಭ	-15.9543
ೇ	-15.9543
೪	-15.9543
ഛ	-15.9543
ഥ	-15.9543
ഭ	-15.9543
ഹ	-15.9543
ൂ	-15.9543
ൈ	-15.9543
ൻ	-15.9543
ൽ	-15.9543
ස	-15.9543
ิ	-15.9543
པ	-15.9543
མ	-15.9543
ཡ	-15.9543
ལ	-15.9543
ཧ	-15.9543
ཱ	-15.9543
ྥ	-15.9543
ླ	-15.9543
ᆬ	-15.9543
ᛚ	-15.9543
᛫	-15.9543
᭭	-15.9543
ᳲ	-15.9543
ḏ	-15.9543
ṝ	-15.9543
ắ	-15.9543
≠	-15.9543
≡	-15.9543
▷	-15.9543
◊	-15.9543
♡	-15.9543
♫	-15.9543
✌	-15.9543
✒	-15.9543
✧	-15.9543
✨	-15.9543
✺	-15.9543
❣	-15.9543
➥	-15.9543
⦁	-15.9543
《	-15.9543
「	-15.9543
」	-15.9543
が	-15.9543
さ	-15.9543
ひ	-15.9543
み	-15.9543
む	-15.9543
め	-15.9543
よ	-15.9543
ん	-15.9543
ジ	-15.9543
バ	-15.9543
プ	-15.9543
ボ	-15.9543
三	-15.9543
了	-15.9543
事	-15.9543
于	-15.9543
伟	-15.9543
修	-15.9543
八	-15.9543
具	-15.9543
加	-15.9543
印	-15.9543
各	-15.9543
合	-15.9543
吗	-15.9543
员	-15.9543
地	-15.9543
堂	-15.9543
声	-15.9543
天	-15.9543
奪	-15.9543
好	-15.9543
存	-15.9543
安	-15.9543
小	-15.9543
尼	-15.9543
广	-15.9543
异	-15.9543
当	-15.9543
整	-15.9543
更	-15.9543
有	-15.9543
械	-15.9543
此	-15.9543
泊	-15.9543
然	-15.9543
猫	-15.9543
理	-15.9543
白	-15.9543
研	-15.9543
祖	-15.9543
程	-15.9543
而	-15.9543
身	-15.9543
都	-15.9543
间	-15.9543
页	-15.9543
首	-15.9543
감	-15.9543
교	-15.9543
두	-15.9543
로	-15.9543
리	-15.9543
민	-15.9543
서	-15.9543
신	-15.9543
아	-15.9543
어	-15.9543
영	-15.9543
완	-15.9543
의	-15.9543
인	-15.9543
학	-15.9543
한	-15.9543
히	-15.9543
𑐎	-15.9543
𑐕	-15.9543
𑐫	-15.9543
𑐮	-15.9543
𑐴	-15.9543
𑐵	-15.9543
𑑄	-15.9543
𑑅	-15.9543
🇦	-15.9543
🇺	-15.9543
🌈	-15.9543
🌏	-15.9543
🌼	-15.9543
🍥	-15.9543
🎉	-15.9543
🎖	-15.9543
🎯	-15.9543
🐯	-15.9543
👈	-15.9543
👩	-15.9543
👴	-15.9543
💄	-15.9543
💏	-15.9543
💔	-15.9543
💛	-15.9543
💥	-15.9543
📌	-15.9543
📎	-15.9543
📰	-15.9543
🔰	-15.9543
😄	-15.9543
😅	-15.9543
😘	-15.9543
🙍	-15.9543
🥀	-15.9543
🥇	-15.9543
や	-15.9543
Я	-15.9543
أ	-15.9543
ۇ	-15.9543
度	-15.9543
χ	-15.9543
Ἀ	-15.9543
和	-15.9543
🩸	-16.9306
😒	-16.9307
📝	-16.9308
👨	-16.9309
👏	-16.931
👍	-16.9311
주	-16.9312
좀	-16.9313
예	-16.9314
슈	-16.9315
성	-16.9316
비	-16.9317
듬	-16.9318
급	-16.9319
공	-16.932
第	-16.9321
立	-16.9322
益	-16.9323
由	-16.9324
東	-16.9325
普	-16.9326
显	-16.9327
方	-16.9328
婆	-16.9329
外	-16.933
哷	-16.9331
哲	-16.9332
卐	-16.9333
北	-16.9334
切	-16.9335
六	-16.9336
全	-16.9337
代	-16.9338
五	-16.9339
上	-16.934
・	-16.9341
も	-16.9342
に	-16.9343
》	-16.9344
、	-16.9345
⚫	-16.9346
☰	-16.9347
☘	-16.9348
☑	-16.9349
≦	-16.935
∅	-16.9351
ዝ	-16.9352
ብ	-16.9353
ሕ	-16.9354
ཐ	-16.9355
ང	-16.9356
น	-16.9357
శ	-16.9358
అ	-16.9359
ஆ	-16.936
૫	-16.9361
ઓ	-16.9362
ਅ	-16.9363
খ	-16.9364
ڪ	-16.9365
٬	-16.9366
ً	-16.9367
غ	-16.9368
Ю	-16.9369
Ф	-16.937
К	-16.9371
І	-16.9372
ό	-16.9373
ε	-16.9374
Ú	-16.9375
💕	-16.9376
🍀	-16.9377
🌱	-16.9378
🌟	-16.9379
합	-16.938
발	-16.9381
発	-16.9382
痛	-16.9383
母	-16.9384
機	-16.9385
だ	-16.9386
✴	-16.9387
☀	-16.9388
◇	-16.9389
Ṛ	-16.939
ག	-16.9391
ි	-16.9392
ා	-16.9393
ൾ	-16.9394
ർ	-16.9395
ബ	-16.9396
ഈ	-16.9397
ಶ	-16.9398
ಬ	-16.9399
ಎ	-16.94
ಉ	-16.9401
భ	-16.9402
ஸ	-16.9403
پ	-16.9404
У	-16.9405
О	-16.9406
И	-16.9407
З	-16.9408
Ÿ	-16.9409
ğ	-16.941
Ö	-16.9411
Á	-16.9412
😳	-16.9413
😡	-16.9414
😜	-16.9415
👇	-16.9416
기	-16.9417
試	-16.9418
十	-16.9419
➤	-16.942
♣	-16.9421
◄	-16.9422
⏳	-16.9423
※	-16.9424
།	-16.9425
ഉ	-16.9426
ഇ	-16.9427
ആ	-16.9428
இ	-16.9429
ї	-16.943
Э	-16.9431
Ц	-16.9432
ή	-16.9433
Δ	-16.9434
̕	-16.9435
ʒ	-16.9436
ǀ	-16.9437
Ō	-16.9438
ß	-16.9439
😢	-16.944
😎	-16.9441
😃	-16.9442
😀	-16.9443
📚	-16.9444
⛳	-16.9445
ઉ	-16.9446
અ	-16.9447
Р	-16.9448
Н	-16.9449
А	-16.945
Ј	-16.9451
φ	-16.9452
ˌ	-16.9453
ż	-16.9454
Ā	-16.9455
🌻	-16.9456
ル	-16.9457
എ	-16.9458
మ	-16.9459
எ	-16.946
উ	-16.9461
ܬ	-16.9462
ء	-16.9463
Т	-16.9464
Д	-16.9465
В	-16.9466
̧	-16.9467
Ê	-16.9468
♂	-16.9469
▪	-16.947
∆	-16.9471
ശ	-16.9472
ೆ	-16.9473
ಯ	-16.9474
আ	-16.9475
Š	-16.9476
Ç	-16.9477
Æ	-16.9478
🔱	-16.9479
☆	-16.948
▶	-16.9481
േ	-16.9482
ವ	-16.9483
શ	-16.9484
Х	-16.9485
À	-16.9486
大	-16.9487
➡	-16.9488
◌	-16.9489
ಸ	-16.949
̃	-16.9491
😂	-16.9492
💐	-16.9493
ಲ	-16.9494
அ	-16.9495
ヒ	-16.9496
∠	-16.9497
🕉	-16.9498
၊	-16.9499
ോ	-16.95
છ	-16.9501
М	-16.9502
̈	-16.9503
š	-16.9504
❑	-16.9505
▲	-16.9506
̊	-16.9507
¡	-16.9508
র	-16.9509
അ	-16.951
ऻ	-16.9511
બ	-16.9512
✅	-16.9513
ऒ	-16.9514
െ	-16.9515
ം	-16.9516
∕	-16.9517
આ	-16.9518
Î	-16.9519
♦	-16.952
વ	-16.9521
ு	-16.9522
🇮	-16.9523
【	-16.9524
🇳	-16.9525
🙂	-16.9526
⇒	-16.9527
ു	-16.9528
✔	-16.9529
‐	-16.953
Ø	-16.9531
৷	-16.9532
₹	-16.9533
́	-16.9534
≤	-16.9535
‖	-16.9536
உ	-16.9537
ॠ	-16.9538
̄	-16.9539
►	-16.954
ʻ	-16.9541
̣	-16.9542
탄	-16.9543
Ե	-16.9543
ե	-16.9543
ր	-16.9543
ھ	-16.9543
ܚ	-16.9543
ල	-16.9543
რ	-16.9543
ს	-16.9543
ᚻ	-16.9543
ᚾ	-16.9543
ᛏ	-16.9543
グ	-16.9543
到	-16.9543
咒	-16.9543
废	-16.9543
性	-16.9543
戻	-16.9543
现	-16.9543
破	-16.9543
若	-16.9543
茶	-16.9543
运	-16.9543
韩	-16.9543
력	-16.9543
중	-16.9543
ń	-16.9543
ソ	-16.9543
É	-16.9543
Ë	-16.9543
Õ	-16.9543
å	-16.9543
ë	-16.9543
û	-16.9543
þ	-16.9543
ÿ	-16.9543
ă	-16.9543
ĕ	-16.9543
Ę	-16.9543
Ī	-16.9543
Ķ	-16.9543
Ŏ	-16.9543
ŏ	-16.9543
Ů	-16.9543
ų	-16.9543
Ż	-16.9543
Ǒ	-16.9543
ȧ	-16.9543
Ȩ	-16.9543
ȯ	-16.9543
ʈ	-16.9543
ʋ	-16.9543
ʌ	-16.9543
ʟ	-16.9543
ʿ	-16.9543
ˎ	-16.9543
ˑ	-16.9543
̍	-16.9543
̖	-16.9543
̠	-16.9543
̪	-16.9543
Ά	-16.9543
Κ	-16.9543
Μ	-16.9543
Ο	-16.9543
Σ	-16.9543
Φ	-16.9543
Ω	-16.9543
ζ	-16.9543
ω	-16.9543
Е	-16.9543
Л	-16.9543
Ч	-16.9543
ё	-16.9543
ҫ	-16.9543
ә	-16.9543
Ө	-16.9543
Կ	-16.9543
Հ	-16.9543
ա	-16.9543
ն	-16.9543
ւ	-16.9543
ַ	-16.9543
ד	-16.9543
כ	-16.9543
ף	-16.9543
צ	-16.9543
ײ	-16.9543
؞	-16.9543
خ	-16.9543
ذ	-16.9543
ُ	-16.9543
ِ	-16.9543
٫	-16.9543
ٰ	-16.9543
ٹ	-16.9543
ټ	-16.9543
ڌ	-16.9543
ں	-16.9543
ڼ	-16.9543
ۂ	-16.9543
ܕ	-16.9543
ܟ	-16.9543
ॱ	-16.9543
ॵ	-16.9543
ॺ	-16.9543
ॼ	-16.9543
এ	-16.9543
ঠ	-16.9543
ড	-16.9543
ঢ	-16.9543
ণ	-16.9543
ষ	-16.9543
ৃ	-16.9543
০	-16.9543
৩	-16.9543
৭	-16.9543
ਂ	-16.9543
ਇ	-16.9543
ਊ	-16.9543
ਏ	-16.9543
ਖ	-16.9543
ਜ	-16.9543
ਟ	-16.9543
ਡ	-16.9543
ਣ	-16.9543
ਦ	-16.9543
ੁ	-16.9543
ੂ	-16.9543
ੰ	-16.9543
ખ	-16.9543
ઝ	-16.9543
ૃ	-16.9543
ૠ	-16.9543
૩	-16.9543
૬	-16.9543
૭	-16.9543
૮	-16.9543
ଃ	-16.9543
କ	-16.9543
ଖ	-16.9543
ତ	-16.9543
ଭ	-16.9543
େ	-16.9543
୍	-16.9543
ୟ	-16.9543
ஐ	-16.9543
ஹ	-16.9543
ூ	-16.9543
ை	-16.9543
ఉ	-16.9543
ఎ	-16.9543
ఓ	-16.9543
చ	-16.9543
జ	-16.9543
ధ	-16.9543
ఫ	-16.9543
ష	-16.9543
హ	-16.9543
ే	-16.9543
ై	-16.9543
ో	-16.9543
ಅ	-16.9543
ಇ	-16.9543
ಜ	-16.9543
ಟ	-16.9543
ಠ	-16.9543
ೂ	-16.9543
ೃ	-16.9543
ೊ	-16.9543
ೋ	-16.9543
೧	-16.9543
೩	-16.9543
ೲ	-16.9543
ഖ	-16.9543
ഠ	-16.9543
ഴ	-16.9543
ൃ	-16.9543
ග	-16.9543
ත	-16.9543
න	-16.9543
ප	-16.9543
ම	-16.9543
ශ	-16.9543
ො	-16.9543
ค	-16.9543
ง	-16.9543
ด	-16.9543
ต	-16.9543
บ	-16.9543
พ	-16.9543
ฟ	-16.9543
ม	-16.9543
ร	-16.9543
ห	-16.9543
อ	-16.9543
ฮ	-16.9543
ั	-16.9543
า	-16.9543
ี	-16.9543
เ	-16.9543
โ	-16.9543
่	-16.9543
้	-16.9543
༔	-16.9543
༡	-16.9543
༣	-16.9543
༨	-16.9543
ཁ	-16.9543
ཊ	-16.9543
ན	-16.9543
བ	-16.9543
ཚ	-16.9543
ཝ	-16.9543
ཟ	-16.9543
ཥ	-16.9543
ི	-16.9543
ྀ	-16.9543
ྒ	-16.9543
ྨ	-16.9543
ྭ	-16.9543
ྱ	-16.9543
ྲ	-16.9543
დ	-16.9543
ე	-16.9543
ვ	-16.9543
თ	-16.9543
ლ	-16.9543
ნ	-16.9543
უ	-16.9543
ც	-16.9543
ሉ	-16.9543
ሩ	-16.9543
በ	-16.9543
ቮ	-16.9543
እ	-16.9543
ኳ	-16.9543
ገ	-16.9543
ፂ	-16.9543
ፃ	-16.9543
፪	-16.9543
ᒃ	-16.9543
ᒄ	-16.9543
ᒎ	-16.9543
ᓚ	-16.9543
ᗢ	-16.9543
ᘏ	-16.9543
ᚨ	-16.9543
ᚩ	-16.9543
ᛗ	-16.9543
ᛞ	-16.9543
ᭅ	-16.9543
᭠	-16.9543
ᮩ	-16.9543
᮰	-16.9543
ᱧ	-16.9543
Ჱ	-16.9543
᳒	-16.9543
ᳬ	-16.9543
ᴀ	-16.9543
Ḩ	-16.9543
ế	-16.9543
ệ	-16.9543
ὁ	-16.9543
ὕ	-16.9543
ὸ	-16.9543
ῖ	-16.9543
₩	-16.9543
↓	-16.9543
↕	-16.9543
↗	-16.9543
↩	-16.9543
↲	-16.9543
⇏	-16.9543
∖	-16.9543
∙	-16.9543
∝	-16.9543
∩	-16.9543
∵	-16.9543
⊂	-16.9543
⊃	-16.9543
⊕	-16.9543
▀	-16.9543
□	-16.9543
△	-16.9543
☁	-16.9543
☸	-16.9543
☹	-16.9543
☺	-16.9543
♈	-16.9543
♉	-16.9543
♻	-16.9543
⚏	-16.9543
⚕	-16.9543
⚡	-16.9543
⚪	-16.9543
⛈	-16.9543
⛹	-16.9543
✖	-16.9543
✦	-16.9543
✪	-16.9543
✹	-16.9543
✼	-16.9543
✿	-16.9543
❗	-16.9543
➖	-16.9543
➞	-16.9543
➦	-16.9543
➨	-16.9543
⟶	-16.9543
⟷	-16.9543
⠀	-16.9543
⭕	-16.9543
〈	-16.9543
け	-16.9543
げ	-16.9543
ご	-16.9543
ざ	-16.9543
ち	-16.9543
で	-16.9543
ど	-16.9543
は	-16.9543
ゃ	-16.9543
れ	-16.9543
イ	-16.9543
エ	-16.9543
オ	-16.9543
ク	-16.9543
セ	-16.9543
ゼ	-16.9543
ツ	-16.9543
ナ	-16.9543
ノ	-16.9543
ピ	-16.9543
ポ	-16.9543
ャ	-16.9543
ョ	-16.9543
七	-16.9543
与	-16.9543
世	-16.9543
中	-16.9543
习	-16.9543
乱	-16.9543
二	-16.9543
互	-16.9543
介	-16.9543
仕	-16.9543
份	-16.9543
休	-16.9543
位	-16.9543
使	-16.9543
個	-16.9543
倒	-16.9543
健	-16.9543
元	-16.9543
入	-16.9543
其	-16.9543
円	-16.9543
册	-16.9543
决	-16.9543
出	-16.9543
划	-16.9543
列	-16.9543
利	-16.9543
别	-16.9543
副	-16.9543
助	-16.9543
化	-16.9543
卍	-16.9543
南	-16.9543
叉	-16.9543
发	-16.9543
口	-16.9543
句	-16.9543
同	-16.9543
后	-16.9543
吥	-16.9543
吸	-16.9543
告	-16.9543
哉	-16.9543
哥	-16.9543
唯	-16.9543
喝	-16.9543
嘅	-16.9543
器	-16.9543
四	-16.9543
固	-16.9543
國	-16.9543
域	-16.9543
報	-16.9543
境	-16.9543
处	-16.9543
复	-16.9543
多	-16.9543
夜	-16.9543
夢	-16.9543
奖	-16.9543
威	-16.9543
孕	-16.9543
字	-16.9543
学	-16.9543
官	-16.9543
定	-16.9543
宦	-16.9543
寝	-16.9543
尊	-16.9543
少	-16.9543
属	-16.9543
岂	-16.9543
工	-16.9543
师	-16.9543
席	-16.9543
常	-16.9543
康	-16.9543
廬	-16.9543
引	-16.9543
弥	-16.9543
影	-16.9543
徹	-16.9543
忘	-16.9543
念	-16.9543
惑	-16.9543
憶	-16.9543
执	-16.9543
投	-16.9543
摩	-16.9543
收	-16.9543
改	-16.9543
政	-16.9543
效	-16.9543
文	-16.9543
日	-16.9543
时	-16.9543
星	-16.9543
是	-16.9543
最	-16.9543
朝	-16.9543
杂	-16.9543
某	-16.9543
染	-16.9543
查	-16.9543
栄	-16.9543
检	-16.9543
模	-16.9543
権	-16.9543
款	-16.9543
止	-16.9543
民	-16.9543
永	-16.9543
求	-16.9543
汇	-16.9543
没	-16.9543
流	-16.9543
消	-16.9543
添	-16.9543
熟	-16.9543
父	-16.9543
牙	-16.9543
班	-16.9543
疆	-16.9543
發	-16.9543
直	-16.9543
秘	-16.9543
稱	-16.9543
究	-16.9543
章	-16.9543
答	-16.9543
简	-16.9543
类	-16.9543
紅	-16.9543
終	-16.9543
続	-16.9543
網	-16.9543
繁	-16.9543
维	-16.9543
肉	-16.9543
花	-16.9543
英	-16.9543
葬	-16.9543
處	-16.9543
蛟	-16.9543
蝶	-16.9543
衆	-16.9543
表	-16.9543
西	-16.9543
见	-16.9543
观	-16.9543
视	-16.9543
解	-16.9543
言	-16.9543
記	-16.9543
訳	-16.9543
論	-16.9543
讓	-16.9543
计	-16.9543
讨	-16.9543
话	-16.9543
贪	-16.9543
越	-16.9543
足	-16.9543
車	-16.9543
转	-16.9543
辦	-16.9543
达	-16.9543
过	-16.9543
返	-16.9543
追	-16.9543
逝	-16.9543
進	-16.9543
那	-16.9543
金	-16.9543
错	-16.9543
长	-16.9543
闻	-16.9543
阿	-16.9543
除	-16.9543
陸	-16.9543
雨	-16.9543
電	-16.9543
面	-16.9543
響	-16.9543
願	-16.9543
须	-16.9543
飞	-16.9543
飲	-16.9543
龙	-16.9543
꣫	-16.9543
ꣲ	-16.9543
가	-16.9543
간	-16.9543
개	-16.9543
게	-16.9543
고	-16.9543
과	-16.9543
국	-16.9543
금	-16.9543
깨	-16.9543
나	-16.9543
냐	-16.9543
녹	-16.9543
는	-16.9543
달	-16.9543
더	-16.9543
동	-16.9543
따	-16.9543
뜨	-16.9543
락	-16.9543
레	-16.9543
름	-16.9543
만	-16.9543
망	-16.9543
맵	-16.9543
몸	-16.9543
못	-16.9543
뭐	-16.9543
받	-16.9543
백	-16.9543
번	-16.9543
법	-16.9543
봇	-16.9543
산	-16.9543
상	-16.9543
수	-16.9543
술	-16.9543
쉬	-16.9543
스	-16.9543
승	-16.9543
시	-16.9543
없	-16.9543
에	-16.9543
염	-16.9543
외	-16.9543
우	-16.9543
운	-16.9543
월	-16.9543
을	-16.9543
임	-16.9543
입	-16.9543
있	-16.9543
자	-16.9543
적	-16.9543
정	-16.9543
조	-16.9543
증	-16.9543
지	-16.9543
째	-16.9543
청	-16.9543
크	-16.9543
탑	-16.9543
터	-16.9543
트	-16.9543
특	-16.9543
팅	-16.9543
파	-16.9543
함	-16.9543
허	-16.9543
효	-16.9543
힌	-16.9543
힘	-16.9543
︎	-16.9543
𑆤	-16.9543
𑌏	-16.9543
𑌥	-16.9543
𑌫	-16.9543
𑌮	-16.9543
𑌸	-16.9543
𑐰	-16.9543
𑑀	-16.9543
🅰	-16.9543
🇱	-16.9543
🇸	-16.9543
🇹	-16.9543
🌀	-16.9543
🌃	-16.9543
🌅	-16.9543
🌍	-16.9543
🌎	-16.9543
🌖	-16.9543
🌛	-16.9543
🌝	-16.9543
🌠	-16.9543
🌰	-16.9543
🌴	-16.9543
🍋	-16.9543
🍾	-16.9543
🎂	-16.9543
🎃	-16.9543
🎊	-16.9543
🎋	-16.9543
🎎	-16.9543
🎓	-16.9543
🎤	-16.9543
🎵	-16.9543
🎶	-16.9543
🎼	-16.9543
🏀	-16.9543
🏃	-16.9543
🏏	-16.9543
🏠	-16.9543
🏮	-16.9543
🏷	-16.9543
🏹	-16.9543
🏽	-16.9543
🐕	-16.9543
🐙	-16.9543
👆	-16.9543
👞	-16.9543
👣	-16.9543
👦	-16.9543
👧	-16.9543
👱	-16.9543
💑	-16.9543
💓	-16.9543
💖	-16.9543
💗	-16.9543
💘	-16.9543
💚	-16.9543
💝	-16.9543
💠	-16.9543
💦	-16.9543
💧	-16.9543
💫	-16.9543
💰	-16.9543
💱	-16.9543
💵	-16.9543
📂	-16.9543
📏	-16.9543
📕	-16.9543
📢	-16.9543
📣	-16.9543
📱	-16.9543
📳	-16.9543
📸	-16.9543
📺	-16.9543
🔟	-16.9543
🔷	-16.9543
🔺	-16.9543
🔻	-16.9543
🕔	-16.9543
🖊	-16.9543
🖱	-16.9543
🗃	-16.9543
🗒	-16.9543
🗣	-16.9543
🗳	-16.9543
😇	-16.9543
😌	-16.9543
😔	-16.9543
😝	-16.9543
😩	-16.9543
🙁	-16.9543
🙅	-16.9543
🙆	-16.9543
🙌	-16.9543
🙎	-16.9543
🚑	-16.9543
🚷	-16.9543
🛡	-16.9543
🤔	-16.9543
🤗	-16.9543
🤦	-16.9543
🤩	-16.9543
🤪	-16.9543
🤲	-16.9543
🥂	-16.9543
🥰	-16.9543
🦂	-16.9543
🧐	-16.9543
ť	-16.9543
ʉ	-16.9543
ў	-16.9543
感	-16.9543
(	-16.9543
你	-16.9543
得	-16.9543
灭	-16.9543
离	-16.9543
鉄	-16.9543
障	-16.9543
절	-16.9543
