<unk>	0
<s>	0
</s>	0
هه	-0
▁ا	-1
▁ج	-2
▁م	-3
ان	-4
▁ڪ	-5
▁ت	-6
▁س	-7
▁ه	-8
▁و	-9
هههه	-10
▁آ	-11
▁جي	-12
ري	-13
هي	-14
▁پ	-15
▁ب	-16
▁ک	-17
ين	-18
هن	-19
▁ن	-20
ون	-21
▁آهي	-22
ار	-23
▁ل	-24
يو	-25
▁.	-26
ائ	-27
▁۾	-28
▁ٿ	-29
▁ر	-30
▁،	-31
▁کي	-32
ال	-33
▁ان	-34
▁۽	-35
ــ	-36
يا	-37
▁جو	-38
هههههههه	-39
▁گ	-40
▁ش	-41
ور	-42
ند	-43
ئي	-44
▁د	-45
▁ع	-46
▁ته	-47
▁اس	-48
▁خ	-49
لي	-50
▁ح	-51
▁ف	-52
▁تي	-53
▁ڏ	-54
▁چ	-55
نهن	-56
ام	-57
اء	-58
جي	-59
▁هڪ	-60
▁ڪري	-61
▁اه	-62
▁ٻ	-63
▁هههههههه	-64
اڻ	-65
دي	-66
▁کان	-67
▁لاء	-68
▁ق	-69
▁به	-70
▁سان	-71
تي	-72
▁نه	-73
اري	-74
▁ڪر	-75
▁هن	-76
▁ٿي	-77
رو	-78
▁ي	-79
▁اي	-80
▁"	-81
ائي	-82
اب	-83
▁ط	-84
▁ال	-85
▁ص	-86
▁هو	-87
▁تو	-88
دا	-89
▁آهن	-90
ير	-91
▁ڪرڻ	-92
▁ڇ	-93
لا	-94
يڪ	-95
▁يا	-96
▁ٿو	-97
▁اسان	-98
هان	-99
ــــ	-100
▁اهو	-101
▁پي	-102
ني	-103
دو	-104
▁لاءِ	-105
▁جيڪ	-106
ست	-107
▁ٽ	-108
▁مو	-109
▁ڊ	-110
هر	-111
ءَ	-112
▁1	-113
ول	-114
▁ز	-115
▁ڪي	-116
مي	-117
نهنجي	-118
▁سگ	-119
▁پر	-120
▁(	-121
▁من	-122
▁توهان	-123
▁هي	-124
▁ڪيو	-125
سي	-126
▁مان	-127
▁مون	-128
را	-129
▁2	-130
ائين	-131
ڏهن	-132
▁جا	-133
▁پو	-134
قي	-135
ات	-136
لو	-137
جو	-138
نگ	-139
▁ڳ	-140
▁مي	-141
▁وا	-142
▁ڪند	-143
ھن	-144
▁مع	-145
قت	-146
▁ٿا	-147
▁بي	-148
▁-	-149
▁ما	-150
ڙي	-151
▁رو	-152
▁وي	-153
▁ڪو	-154
ههه	-155
ھي	-156
▁ئي	-157
اني	-158
ڪي	-159
اي	-160
اهي	-161
▁ڀ	-162
▁وڌ	-163
▁سو	-164
▁ڪم	-165
اد	-166
از	-167
هو	-168
رين	-169
▁پنهنجي	-170
▁او	-171
رف	-172
▁رهي	-173
▁ك	-174
▁ويو	-175
له	-176
▁هههه	-177
شن	-178
▁هههههههههههه	-179
ٽي	-180
▁انهن	-181
▁غ	-182
▁:	-183
▁طور	-184
ئن	-185
▁است	-186
اس	-187
▁سڀ	-188
اص	-189
بر	-190
▁ض	-191
▁گه	-192
▁وڃ	-193
ورت	-194
▁سي	-195
بي	-196
▁ھ	-197
ڏي	-198
مت	-199
▁مل	-200
اف	-201
▁خو	-202
اڻي	-203
سٽ	-204
اڪ	-205
▁ذ	-206
گر	-207
▁ڏين	-208
ءِ	-209
اا	-210
▁سم	-211
▁په	-212
▁مح	-213
عم	-214
ئين	-215
کي	-216
▁بر	-217
گي	-218
▁في	-219
▁ماڻ	-220
▁وين	-221
▁وڌيڪ	-222
▁هون	-223
▁وقت	-224
ٽر	-225
▁سال	-226
▁ري	-227
▁ڪج	-228
مل	-229
ارو	-230
ها	-231
▁هر	-232
ڙو	-233
▁اين	-234
سم	-235
▁در	-236
الي	-237
عي	-238
در	-239
▁گهر	-240
چي	-241
▁؟	-242
▁ڇا	-243
▁ور	-244
تر	-245
▁شي	-246
▁ڏي	-247
نيا	-248
▁سند	-249
▁آھي	-250
▁جن	-251
▁اڳ	-252
▁!	-253
▁20	-254
▁جنهن	-255
▁مر	-256
▁سر	-257
عمال	-258
▁تر	-259
▁استعمال	-260
▁مش	-261
▁تع	-262
▁مس	-263
صو	-264
▁ام	-265
ائڻ	-266
▁ڪئي	-267
خت	-268
▁اهي	-269
▁لا	-270
▁ڪن	-271
▁)	-272
▁واري	-273
▁3	-274
▁تائين	-275
دار	-276
▁هئي	-277
▁ڳال	-278
▁ڪنهن	-279
▁جيڪو	-280
▁لي	-281
بو	-282
تو	-283
▁سن	-284
▁نظ	-285
اه	-286
لام	-287
ڻي	-288
▁ٺ	-289
▁ڪريو	-290
وي	-291
▁ٽي	-292
▁ڪجهه	-293
▁اها	-294
▁ڊي	-295
ائن	-296
▁چيو	-297
▁مق	-298
▁ٿين	-299
▁بس	-300
لم	-301
يت	-302
▁ها	-303
▁جڏهن	-304
▁نو	-305
▁سگهي	-306
زي	-307
فت	-308
▁گڏ	-309
▁ڏينهن	-310
ندي	-311
ــــــــ	-312
▁ڌ	-313
▁سا	-314
▁وڃي	-315
▁جيڪي	-316
▁تم	-317
in	-318
سو	-319
ئر	-320
ٺي	-321
▁,	-322
رح	-323
▁مط	-324
▁رک	-325
▁حاص	-326
ڪن	-327
▁پوءِ	-328
▁s	-329
ارن	-330
▁انهي	-331
▁دو	-332
▁لڳ	-333
▁حاصل	-334
نهنجو	-335
▁با	-336
نا	-337
سان	-338
ڪو	-339
▁منهنجي	-340
▁از	-341
▁ضر	-342
▁اع	-343
▁ٻڌ	-344
جود	-345
▁سندس	-346
ڪر	-347
▁اح	-348
في	-349
▁پاڻ	-350
▁شا	-351
▁تح	-352
▁چي	-353
▁يو	-354
جن	-355
▁جيڪڏهن	-356
ثر	-357
▁اص	-358
ايو	-359
ئون	-360
▁5	-361
ٿي	-362
▁ههههههههه	-363
روع	-364
هم	-365
▁هئ	-366
▁پن	-367
▁ڄ	-368
▁تمام	-369
▁شروع	-370
▁4	-371
▁ناهي	-372
ڪل	-373
ندو	-374
▁ڪا	-375
▁علي	-376
▁الله	-377
ڻو	-378
▁گھ	-379
00	-380
ـــ	-381
▁ڪار	-382
بت	-383
اح	-384
پي	-385
▁ڇو	-386
▁فر	-387
بل	-388
▁پرو	-389
▁باب	-390
er	-391
من	-392
▁دنيا	-393
مين	-394
▁ههههههه	-395
▁ههههههههههه	-396
▁صح	-397
شي	-398
▁جون	-399
▁ني	-400
ڪار	-401
▁ٿيو	-402
نو	-403
▁رهيو	-404
▁سمج	-405
▁تون	-406
▁زند	-407
ھان	-408
▁ٻي	-409
▁انت	-410
▁وٽ	-411
▁مد	-412
▁وئي	-413
نڊ	-414
▁اُ	-415
▁آر	-416
▁عل	-417
▁ڇڏ	-418
▁مت	-419
▁دور	-420
▁دل	-421
دڙ	-422
▁وڏي	-423
امل	-424
▁يع	-425
▁ماڻهو	-426
تم	-427
▁اخ	-428
ائون	-429
ده	-430
▁نم	-431
▁ضرورت	-432
▁تب	-433
▁عم	-434
ولي	-435
▁مخت	-436
ڪا	-437
صي	-438
▁ويندو	-439
▁أ	-440
▁سب	-441
الو	-442
▁لو	-443
▁آم	-444
ٺو	-445
▁صرف	-446
▁مار	-447
▁پيدا	-448
▁پار	-449
▁پڻ	-450
▁ويا	-451
▁پيش	-452
اهر	-453
لف	-454
▁موجود	-455
▁a	-456
▁نا	-457
▁چو	-458
انهن	-459
▁چون	-460
▁آخ	-461
ستان	-462
امي	-463
مان	-464
اءِ	-465
ڪس	-466
فر	-467
▁ڪڏهن	-468
▁خاص	-469
▁اچي	-470
▁تن	-471
▁ٿيڻ	-472
▁زندگي	-473
دن	-474
عو	-475
▁وڏ	-476
▁طرف	-477
▁'	-478
▁جه	-479
يني	-480
لب	-481
▁19	-482
▁ڏس	-483
▁ڪيئن	-484
ڪري	-485
on	-486
▁ڪندو	-487
▁را	-488
▁وال	-489
▁201	-490
▁بابت	-491
▁سڀني	-492
▁چاهي	-493
▁ماڻهن	-494
▁ڪه	-495
عد	-496
▁پڙ	-497
جا	-498
ھو	-499
▁ڪت	-500
▁جيئن	-501
▁طري	-502
▁t	-503
▁لک	-504
▁طرح	-505
▁عمل	-506
▁ڪمپ	-507
وري	-508
يم	-509
▁تنهن	-510
▁شامل	-511
▁هل	-512
هڻ	-513
ران	-514
▁ٻئي	-515
وو	-516
▁ههههههههههههه	-517
▁غير	-518
▁هههههههههه	-519
فا	-520
▁مختلف	-521
▁S	-522
▁ڪيتر	-523
▁عام	-524
▁بل	-525
▁ڪندا	-526
▁گهٽ	-527
▁وارو	-528
▁وان	-529
▁خي	-530
▁هئا	-531
ما	-532
ندا	-533
▁A	-534
▁اڄ	-535
▁گذ	-536
▁خبر	-537
▁/	-538
▁ون	-539
▁اج	-540
رن	-541
▁اد	-542
▁ظ	-543
▁6	-544
▁آهيان	-545
ar	-546
شت	-547
▁قسم	-548
▁هم	-549
كم	-550
▁حال	-551
▁يعني	-552
▁تج	-553
▁ههههه	-554
لس	-555
▁ار	-556
▁ڳالهه	-557
ندڙ	-558
▁سائي	-559
لن	-560
▁مڪ	-561
▁بڻ	-562
▁مدد	-563
▁رهيا	-564
▁سنڌ	-565
▁نظر	-566
پور	-567
▁نن	-568
▁واق	-569
▁هوندي	-570
۔۔	-571
▁ڏانهن	-572
▁شاي	-573
▁قو	-574
▁حقي	-575
▁دا	-576
▁رس	-577
▁ٻن	-578
▁ڪندي	-579
▁اندر	-580
▁وار	-581
▁مث	-582
بن	-583
▁گهرجي	-584
▁واپ	-585
▁آمري	-586
▁c	-587
طي	-588
ريون	-589
▁هوندو	-590
▁نق	-591
▁گر	-592
▁ڪتاب	-593
ضي	-594
▁ڪندڙ	-595
قو	-596
▁ياد	-597
▁_	-598
▁تاري	-599
▁پس	-600
▁آهيون	-601
▁ڏيڻ	-602
▁جيڪا	-603
مو	-604
ٽن	-605
▁اچ	-606
▁ِ	-607
▁وچ	-608
▁ذري	-609
سن	-610
▁ٻين	-611
ڊيو	-612
▁پا	-613
▁سيا	-614
ڙا	-615
▁جم	-616
▁تاريخ	-617
وني	-618
▁ھڪ	-619
▁ٿيل	-620
▁آئون	-621
es	-622
ٽو	-623
دم	-624
▁مڪمل	-625
▁عورت	-626
▁جواب	-627
▁8	-628
▁پاڪ	-629
ذا	-630
اند	-631
ترين	-632
▁ــــــــ	-633
▁پري	-634
▁7	-635
▁ث	-636
▁قي	-637
وا	-638
▁وري	-639
▁نئين	-640
▁ايس	-641
▁بين	-642
▁تق	-643
هين	-644
▁آز	-645
ڳو	-646
▁اڪ	-647
▁انا	-648
▁دي	-649
▁سبب	-650
▁فائ	-651
▁نالو	-652
an	-653
▁آن	-654
▁شهر	-655
▁ات	-656
▁کيس	-657
سين	-658
▁فو	-659
▁ايم	-660
ٽا	-661
▁سگه	-662
▁بعد	-663
با	-664
ڊي	-665
فظ	-666
▁ملڪ	-667
▁گهڻو	-668
▁بد	-669
▁يق	-670
▁d	-671
▁بنيا	-672
en	-673
اااا	-674
بار	-675
شش	-676
▁پهرين	-677
تن	-678
▁اهڙي	-679
▁اف	-680
▁تبدي	-681
زار	-682
▁ختم	-683
▁هتي	-684
افي	-685
▁i	-686
▁C	-687
▁هاڻي	-688
▁ههههههههههههههه	-689
لاح	-690
▁هههههه	-691
▁پيا	-692
▁<	-693
▁پنهنجو	-694
or	-695
رت	-696
▁اڃ	-697
▁بند	-698
▁9	-699
▁آھن	-700
▁يون	-701
▁سگهو	-702
▁ٿيندو	-703
▁پيو	-704
▁سيڪ	-705
▁اهم	-706
▁مسئ	-707
▁سالن	-708
▁شايد	-709
▁ڇڏيو	-710
▁M	-711
زن	-712
ڪيٽ	-713
▁ڪل	-714
▁ڏا	-715
▁اپ	-716
▁ڪون	-717
▁جان	-718
▁فون	-719
شه	-720
▁رهن	-721
▁ڇڏي	-722
▁اسڪ	-723
▁شو	-724
▁هههههههههههههه	-725
ريل	-726
▁ڏئي	-727
▁ٿئي	-728
▁ادا	-729
اتي	-730
▁وڏو	-731
▁10	-732
▁شر	-733
▁وٺ	-734
▁ملي	-735
▁اسٽ	-736
▁ڦ	-737
▁انگ	-738
▁انسان	-739
▁هيٺ	-740
مبر	-741
▁خر	-742
▁هٿ	-743
▁خلا	-744
▁دوست	-745
▁عر	-746
روري	-747
▁سام	-748
▁ايپ	-749
▁ائين	-750
▁بح	-751
عت	-752
at	-753
اجي	-754
ضح	-755
▁خط	-756
▁خيال	-757
خل	-758
جب	-759
▁ڏنو	-760
يان	-761
ورو	-762
▁اسلام	-763
▁بهترين	-764
▁صورت	-765
▁آئي	-766
▁نٿ	-767
ضو	-768
▁گو	-769
▁آيو	-770
▁اتي	-771
▁ڀي	-772
▁قيمت	-773
▁سگهن	-774
▁حق	-775
▁ٻه	-776
اءُ	-777
▁مطلب	-778
به	-779
ڍي	-780
پو	-781
قل	-782
▁P	-783
▁هجي	-784
▁وٺي	-785
▁قان	-786
ارف	-787
▁ويب	-788
▁سوال	-789
ءُ	-790
▁رات	-791
لوم	-792
سر	-793
▁ٺاهي	-794
▁ـ	-795
▁معي	-796
▁ڪمپني	-797
▁ويندي	-798
▁پئي	-799
▁پڇ	-800
وار	-801
▁اوهان	-802
▁بو	-803
▁سين	-804
يح	-805
▁ڪوشش	-806
▁منهنجو	-807
▁عليه	-808
▁خوش	-809
▁پوء	-810
▁وانگر	-811
▁قر	-812
▁؛	-813
▁ٻيو	-814
پورٽ	-815
▁آهيو	-816
اج	-817
▁وس	-818
▁مال	-819
▁ذريعي	-820
▁T	-821
▁ڪيا	-822
ro	-823
▁امي	-824
سوس	-825
▁خدا	-826
▁ڪارو	-827
▁ڄاڻ	-828
مد	-829
▁p	-830
▁رکي	-831
ليم	-832
▁حل	-833
▁ٽيڪ	-834
▁مخ	-835
▁فار	-836
ur	-837
▁توھان	-838
مون	-839
▁ڳو	-840
▁ٻار	-841
▁صحيح	-842
▁ڪيل	-843
▁آخر	-844
جڻ	-845
le	-846
فو	-847
▁سوچ	-848
هور	-849
▁رنگ	-850
يرا	-851
ڊر	-852
▁ــــ	-853
ھنجي	-854
حد	-855
▁غل	-856
▁بن	-857
▁پاڻي	-858
ادي	-859
▁لفظ	-860
▁تص	-861
عا	-862
▁سائيٽ	-863
ing	-864
ريد	-865
▁هنن	-866
▁حقيقت	-867
رس	-868
▁منهن	-869
▁تصو	-870
▁ڏسي	-871
al	-872
▁مض	-873
▁جل	-874
▁معلوم	-875
▁جاري	-876
▁اوھان	-877
▁شك	-878
▁قاب	-879
▁اک	-880
▁ترقي	-881
▁بچ	-882
▁ين	-883
▁m	-884
="	-885
▁والله	-886
▁اڃا	-887
صر	-888
اهه	-889
ههههههههه	-890
▁دوران	-891
▁روز	-892
▁فيص	-893
▁انتظ	-894
▁خد	-895
▁مم	-896
▁*	-897
شان	-898
▁ڪان	-899
▁بال	-900
▁حڪو	-901
▁ولا	-902
▁سڄ	-903
▁عال	-904
ڊيا	-905
▁>	-906
▁مٿ	-907
▁اصل	-908
▁ضروري	-909
▁صف	-910
▁ھن	-911
▁ڪيترن	-912
▁حڪ	-913
ساني	-914
▁صاح	-915
▁گھر	-916
▁منظ	-917
▁اثر	-918
▁نس	-919
▁[	-920
▁چين	-921
لق	-922
▁B	-923
▁ظاهر	-924
▁سفر	-925
▁مواد	-926
▁جتي	-927
▁حصو	-928
ورن	-929
▁ٻاهر	-930
▁لڳي	-931
▁پاڪستان	-932
▁اسين	-933
▁اول	-934
▁علائ	-935
▁فق	-936
▁بهتر	-937
▁b	-938
▁سندن	-939
▁علا	-940
▁پون	-941
▁ساڳ	-942
باد	-943
ياتي	-944
▁پيار	-945
▁ءَ	-946
▁عي	-947
it	-948
باني	-949
▁اٿ	-950
▁عمر	-951
▁مارڪيٽ	-952
▁ڪام	-953
▁حڪومت	-954
▁هُ	-955
▁پنهن	-956
كن	-957
▁مٿي	-958
▁ڪيت	-959
▁پهريون	-960
داز	-961
▁محسوس	-962
ائم	-963
▁ڪجھ	-964
خص	-965
▁گرا	-966
▁آسان	-967
re	-968
▁مست	-969
▁مج	-970
▁الس	-971
▁هوندا	-972
▁I	-973
▁مطاب	-974
▁تبديل	-975
▁بيان	-976
▁مهي	-977
▁جنگ	-978
▁صلاح	-979
▁آمريڪا	-980
▁ڏسڻ	-981
ڙن	-982
ليل	-983
▁رد	-984
▁ٿيون	-985
▁ڏني	-986
▁الم	-987
حي	-988
جه	-989
▁حو	-990
▁اھو	-991
▁تصوير	-992
ضوع	-993
▁على	-994
▁سک	-995
▁صاحب	-996
▁مز	-997
▁چار	-998
▁اسپ	-999
▁لائن	-1000
▁فرا	-1001
▁ملا	-1002
▁سه	-1003
▁چه	-1004
▁وارا	-1005
▁خلاف	-1006
▁معيار	-1007
▁پهچ	-1008
▁جسم	-1009
▁طرفان	-1010
▁خريد	-1011
▁پئ	-1012
▁ڳاله	-1013
▁رڳو	-1014
▁خدمت	-1015
▁آف	-1016
لان	-1017
▁خود	-1018
داد	-1019
ڏھن	-1020
ازي	-1021
▁تان	-1022
▁ٿيندي	-1023
▁عو	-1024
▁سگهجي	-1025
ميشه	-1026
▁رکڻ	-1027
▁اختي	-1028
▁َ	-1029
تا	-1030
▁مثال	-1031
▁اش	-1032
▁شع	-1033
يي	-1034
▁اب	-1035
▁راند	-1036
ic	-1037
ائل	-1038
▁زمين	-1039
▁تنهنجي	-1040
▁ھي	-1041
كت	-1042
▁اڻ	-1043
▁ھو	-1044
▁تجر	-1045
▁دست	-1046
رم	-1047
قا	-1048
▁ريا	-1049
دين	-1050
▁حلو	-1051
▁هوءَ	-1052
ٽل	-1053
▁قب	-1054
ارت	-1055
گرام	-1056
▁e	-1057
▁ڏک	-1058
صد	-1059
ڌي	-1060
پر	-1061
▁تيار	-1062
▁ڏيک	-1063
▁قانون	-1064
▁قدر	-1065
▁تف	-1066
▁شخص	-1067
ايت	-1068
ٽرو	-1069
▁ڊيٽا	-1070
▁ايران	-1071
ياري	-1072
▁دف	-1073
▁اسٽي	-1074
▁واپس	-1075
▁الي	-1076
اڪاڻ	-1077
داري	-1078
ديد	-1079
ِي	-1080
▁ڇاڪاڻ	-1081
ڪرو	-1082
ره	-1083
▁انداز	-1084
▁پيداوار	-1085
▁پسند	-1086
▁عن	-1087
▁ڏيو	-1088
ستي	-1089
▁مين	-1090
▁الح	-1091
▁بخ	-1092
▁نتي	-1093
▁برا	-1094
پري	-1095
▁سچ	-1096
▁آيا	-1097
▁قابل	-1098
▁منت	-1099
▁مص	-1100
ڪٽ	-1101
ائو	-1102
▁مشهور	-1103
▁st	-1104
سٽم	-1105
انو	-1106
▁اعلي	-1107
▁ڪيترائي	-1108
▁شين	-1109
تل	-1110
▁شه	-1111
▁انهيءَ	-1112
▁0	-1113
▁نيو	-1114
▁کا	-1115
بان	-1116
▁تا	-1117
ظيم	-1118
▁نظام	-1119
▁هميشه	-1120
▁تقري	-1121
▁اجاز	-1122
▁بلا	-1123
▁صن	-1124
لين	-1125
▁H	-1126
▁داخل	-1127
▁D	-1128
▁چوڻ	-1129
▁موق	-1130
هون	-1131
▁ڊگ	-1132
ڪاري	-1133
يات	-1134
غير	-1135
▁ٻنهي	-1136
▁صارف	-1137
دس	-1138
▁موڪل	-1139
▁N	-1140
▁طا	-1141
▁اجازت	-1142
▁l	-1143
▁بار	-1144
اسب	-1145
▁الا	-1146
▁يقين	-1147
▁پلي	-1148
▁باري	-1149
اسين	-1150
▁G	-1151
▁وز	-1152
▁پاس	-1153
▁خوب	-1154
▁مهر	-1155
▁آو	-1156
▁مونکي	-1157
ههههههههههه	-1158
▁شاع	-1159
▁18	-1160
▁حس	-1161
▁وارن	-1162
▁ڏٺو	-1163
▁15	-1164
▁سٺو	-1165
▁هذا	-1166
ڌو	-1167
▁سڏ	-1168
ڻيڪ	-1169
▁نٿو	-1170
توڻيڪ	-1171
▁بنيادي	-1172
▁L	-1173
▁پير	-1174
قن	-1175
▁واقعي	-1176
▁مري	-1177
ڪيشن	-1178
▁تحقي	-1179
فوظ	-1180
▁ننڍ	-1181
▁وڃڻ	-1182
▁جيتوڻيڪ	-1183
▁راب	-1184
▁محفوظ	-1185
ذه	-1186
زا	-1187
اھ	-1188
▁ڊو	-1189
▁سرو	-1190
▁توکي	-1191
▁آه	-1192
▁نف	-1193
▁کانپو	-1194
▁لائ	-1195
▁موضوع	-1196
▁طاقت	-1197
▁كل	-1198
▁قائم	-1199
▁نگ	-1200
يل	-1201
▁؟؟	-1202
هههههههههه	-1203
▁نئون	-1204
▁ڪلا	-1205
▁آء	-1206
▁ٽيڪن	-1207
رر	-1208
انن	-1209
▁ڪونه	-1210
▁ڏن	-1211
▁يور	-1212
▁آواز	-1213
▁مُ	-1214
▁گراه	-1215
▁چونڊ	-1216
▁ابو	-1217
نت	-1218
▁پروگرام	-1219
▁o	-1220
ريڪ	-1221
▁هيو	-1222
▁ڪاميا	-1223
ميت	-1224
▁200	-1225
▁f	-1226
▁ڄڻ	-1227
us	-1228
▁ڳول	-1229
سپ	-1230
▁حد	-1231
▁اسلامي	-1232
▁يه	-1233
▁کڻي	-1234
آآ	-1235
▁ڪير	-1236
▁سمجهي	-1237
▁معلومات	-1238
▁تعليم	-1239
▁ايڪس	-1240
▁شيء	-1241
صل	-1242
▁ره	-1243
ڙهي	-1244
▁شادي	-1245
▁ايت	-1246
▁هجڻ	-1247
▁حڪم	-1248
▁هاي	-1249
خوا	-1250
▁12	-1251
▁تحقيق	-1252
▁حض	-1253
▁سخت	-1254
▁لکي	-1255
▁ويندا	-1256
▁سگھ	-1257
▁ڪور	-1258
▁محبت	-1259
▁گرو	-1260
▁اميد	-1261
▁اك	-1262
ضحك	-1263
▁آخري	-1264
▁مطابق	-1265
is	-1266
▁خراب	-1267
▁پنھنجي	-1268
هار	-1269
▁مقصد	-1270
▁اسڪول	-1271
▁منصو	-1272
وٽ	-1273
▁اڪثر	-1274
▁w	-1275
▁ڀر	-1276
اريو	-1277
▁فراهم	-1278
▁نالي	-1279
خواست	-1280
▁جڳ	-1281
▁نام	-1282
▁روح	-1283
▁کانپوءِ	-1284
▁درخواست	-1285
om	-1286
ٽري	-1287
▁سط	-1288
▁حالت	-1289
ماني	-1290
▁انساني	-1291
ڻڻ	-1292
▁که	-1293
▁آزاد	-1294
▁حي	-1295
▁معا	-1296
وه	-1297
te	-1298
يڪل	-1299
▁غلط	-1300
▁سگھي	-1301
▁ٻارن	-1302
▁سيڪڙو	-1303
▁لاز	-1304
▁چڪو	-1305
دال	-1306
am	-1307
▁حم	-1308
ليس	-1309
▁E	-1310
▁خان	-1311
▁سڃ	-1312
▁ة	-1313
▁ڊاڪ	-1314
▁آهين	-1315
▁پور	-1316
▁ٻيهر	-1317
▁گهڻي	-1318
▁احس	-1319
▁سڄي	-1320
▁آفي	-1321
▁سائين	-1322
ac	-1323
▁فقط	-1324
▁مفت	-1325
▁ڪمي	-1326
▁ٿيا	-1327
دگي	-1328
▁سون	-1329
▁تس	-1330
nd	-1331
▁پنج	-1332
سٽر	-1333
▁اض	-1334
ارين	-1335
رفت	-1336
▁رج	-1337
گل	-1338
يون	-1339
▁سائن	-1340
▁اختيار	-1341
▁ٻولي	-1342
▁نقص	-1343
حا	-1344
▁انٽر	-1345
▁فيصلو	-1346
هائي	-1347
▁چڱ	-1348
▁فلم	-1349
هههههههههههه	-1350
▁ڪپ	-1351
ريان	-1352
▁سياسي	-1353
▁باقي	-1354
طو	-1355
ائش	-1356
▁۔۔	-1357
▁ڪهڙي	-1358
ليڪيشن	-1359
▁پٽ	-1360
▁پاران	-1361
▁طريقي	-1362
بح	-1363
▁R	-1364
▁ذهن	-1365
▁بنياد	-1366
▁ٻڌايو	-1367
▁سُ	-1368
▁نوجو	-1369
ion	-1370
▁اق	-1371
▁ــ	-1372
▁ڪافي	-1373
مار	-1374
▁کول	-1375
▁F	-1376
▁تخ	-1377
▁ٽو	-1378
▁مناسب	-1379
▁ڊر	-1380
▁رست	-1381
et	-1382
▁ـــ	-1383
▁اڳتي	-1384
▁ورتو	-1385
▁وسي	-1386
▁حر	-1387
▁مرڪ	-1388
▁جهڙو	-1389
▁اچڻ	-1390
▁سنگ	-1391
▁انگري	-1392
▁رق	-1393
▁W	-1394
ريو	-1395
▁اڳو	-1396
▁ڊاڪٽر	-1397
▁11	-1398
▁عالمي	-1399
▁ميل	-1400
art	-1401
▁سطح	-1402
كر	-1403
▁نش	-1404
ٽنگ	-1405
▁ايل	-1406
▁قدم	-1407
▁مقاب	-1408
as	-1409
▁فن	-1410
▁رياست	-1411
▁202	-1412
▁شيون	-1413
▁شاگر	-1414
▁ٽر	-1415
▁ايندڙ	-1416
▁ست	-1417
he	-1418
مه	-1419
▁ميڊيا	-1420
ڳا	-1421
▁ملڪن	-1422
▁کن	-1423
▁ممڪن	-1424
▁دلچ	-1425
▁100	-1426
ow	-1427
▁مه	-1428
▁کين	-1429
▁وڊيو	-1430
▁طب	-1431
ٽس	-1432
▁گي	-1433
▁ڳوٺ	-1434
▁1.	-1435
▁ڏسو	-1436
▁نقصان	-1437
▁اون	-1438
▁k	-1439
▁ده	-1440
▁مرح	-1441
▁خوبص	-1442
▁علم	-1443
▁ويج	-1444
دان	-1445
دارن	-1446
▁ڪٿي	-1447
سل	-1448
▁پل	-1449
▁اڪائون	-1450
ڊل	-1451
طن	-1452
▁ائ	-1453
▁ٽن	-1454
زر	-1455
ورڊ	-1456
▁تش	-1457
▁ڪاروبار	-1458
▁n	-1459
▁ترتي	-1460
▁السلام	-1461
▁ضرور	-1462
▁فع	-1463
▁مهرباني	-1464
الاجي	-1465
▁واحد	-1466
گار	-1467
▁فارم	-1468
▁چاهيو	-1469
▁آمريڪي	-1470
▁30	-1471
▁اُن	-1472
▁جدا	-1473
خخ	-1474
ائيو	-1475
▁ذاتي	-1476
▁مسلم	-1477
جر	-1478
▁له	-1479
▁شروعات	-1480
گو	-1481
▁انج	-1482
▁هين	-1483
▁ڪيون	-1484
▁پڪ	-1485
id	-1486
پيل	-1487
عه	-1488
ڪت	-1489
▁وج	-1490
▁گهڻ	-1491
▁ٽيڪنالاجي	-1492
مم	-1493
▁سلام	-1494
عن	-1495
▁اصلي	-1496
▁ترتيب	-1497
▁مضمون	-1498
il	-1499
▁آءٌ	-1500
ائيل	-1501
فتي	-1502
▁صحت	-1503
▁صدر	-1504
▁ُ	-1505
▁تڪ	-1506
▁انھن	-1507
▁نمبر	-1508
هيل	-1509
ed	-1510
▁اعلان	-1511
▁وڻ	-1512
يد	-1513
▁تعلق	-1514
▁مسئلو	-1515
▁انٽرني	-1516
فته	-1517
▁مطال	-1518
▁تڏهن	-1519
▁بڻجي	-1520
▁O	-1521
▁حقيقي	-1522
▁صو	-1523
▁سسٽم	-1524
ڪشن	-1525
▁in	-1526
▁تعم	-1527
▁موت	-1528
▁ايئر	-1529
شل	-1530
▁وائ	-1531
▁كم	-1532
▁حير	-1533
▁لوڊ	-1534
اهڻ	-1535
اندي	-1536
▁هنڌ	-1537
▁گڏي	-1538
▁رپورٽ	-1539
▁بج	-1540
▁يونيو	-1541
ريا	-1542
▁ڊائون	-1543
فاظ	-1544
▁ڌر	-1545
▁اني	-1546
زو	-1547
▁چا	-1548
▁گوگل	-1549
چر	-1550
▁سٺي	-1551
▁مذه	-1552
▁ماح	-1553
▁عورتن	-1554
ay	-1555
يندا	-1556
▁ڏنل	-1557
▁ڳن	-1558
▁دير	-1559
▁رح	-1560
صوص	-1561
▁تك	-1562
oo	-1563
ريف	-1564
▁فل	-1565
اط	-1566
احت	-1567
▁اڪي	-1568
▁قوم	-1569
▁چئي	-1570
▁ماءُ	-1571
▁گل	-1572
▁ڪجي	-1573
▁وض	-1574
▁وڃن	-1575
▁ايه	-1576
▁پوري	-1577
▁طريقو	-1578
▁نفس	-1579
▁هاڻ	-1580
▁ايپليڪيشن	-1581
▁قل	-1582
▁g	-1583
▁مشين	-1584
▁سامان	-1585
▁شڪ	-1586
▁سپ	-1587
؟"	-1588
ستائين	-1589
▁هيون	-1590
الر	-1591
سا	-1592
▁ڪردار	-1593
▁لك	-1594
▁ڏاڍ	-1595
▁اط	-1596
▁إ	-1597
▁لڳو	-1598
▁14	-1599
▁پوليس	-1600
▁سماجي	-1601
▁لکڻ	-1602
▁تعمير	-1603
▁ماحول	-1604
ارا	-1605
▁رفت	-1606
▁ٺاهڻ	-1607
▁ڏيکاري	-1608
▁اھ	-1609
▁زي	-1610
▁جديد	-1611
ٽرول	-1612
▁پيغ	-1613
▁ڪيس	-1614
ئو	-1615
▁حفاظ	-1616
▁اِ	-1617
ريب	-1618
▁رھ	-1619
▁احساس	-1620
▁آپري	-1621
▁<<	-1622
▁پورو	-1623
الا	-1624
▁موب	-1625
▁حضرت	-1626
هوري	-1627
▁h	-1628
▁قومي	-1629
▁گذريل	-1630
▁جذ	-1631
▁خوبصورت	-1632
حت	-1633
▁سروس	-1634
زم	-1635
▁جيت	-1636
▁ڪين	-1637
ورا	-1638
">	-1639
▁لاڳا	-1640
▁معني	-1641
▁متا	-1642
▁علاج	-1643
▁مرد	-1644
▁ڪهاڻي	-1645
اتو	-1646
▁حصي	-1647
▁يار	-1648
▁واضح	-1649
▁پارٽي	-1650
▁مساف	-1651
ائيڊ	-1652
شم	-1653
▁تيز	-1654
▁بت	-1655
▁تبديلي	-1656
▁الع	-1657
▁اڪائونٽ	-1658
▁پوندو	-1659
▁روش	-1660
ظم	-1661
▁وڌي	-1662
el	-1663
▁گفت	-1664
بوط	-1665
▁•	-1666
▁خاند	-1667
▁پاسي	-1668
▁ڍ	-1669
ڪان	-1670
▁13	-1671
▁نڪ	-1672
▁اخت	-1673
▁بلڪل	-1674
▁حص	-1675
ديق	-1676
▁ڀيرو	-1677
▁آگ	-1678
▁وش	-1679
▁اکين	-1680
▁گراهڪن	-1681
▁ول	-1682
▁ڪرا	-1683
ائيندو	-1684
▁نٿا	-1685
▁ڪاري	-1686
▁تفصي	-1687
▁سج	-1688
ڏو	-1689
▁ڪوبه	-1690
▁start	-1691
▁حوالي	-1692
▁يونيورس	-1693
ديم	-1694
▁موجب	-1695
▁dur	-1696
▁ميمبر	-1697
▁آزادي	-1698
▁صلاحيت	-1699
▁وٺڻ	-1700
▁موجوده	-1701
▁صبح	-1702
▁ٻيا	-1703
▁يورپ	-1704
▁سلس	-1705
▁عوام	-1706
ميو	-1707
000	-1708
▁صاف	-1709
▁مٿان	-1710
▁پڙهي	-1711
▁لن	-1712
▁عظيم	-1713
▁عملي	-1714
▁باد	-1715
▁خير	-1716
▁قبول	-1717
▁ــــــــــــ	-1718
ڳي	-1719
▁(1	-1720
▁ھڪڙو	-1721
▁گڏيل	-1722
وت	-1723
ابي	-1724
▁ڪئ	-1725
▁to	-1726
▁وڪي	-1727
▁گھٽ	-1728
▁ڏيندو	-1729
▁هند	-1730
لڊ	-1731
▁ٽيم	-1732
▁وق	-1733
▁عند	-1734
زائن	-1735
▁مقرر	-1736
زل	-1737
ايل	-1738
▁جلد	-1739
▁تعداد	-1740
يب	-1741
▁محمد	-1742
▁ايف	-1743
▁شرح	-1744
حان	-1745
▁اعت	-1746
▁نوجوان	-1747
ڪڻ	-1748
▁بيش	-1749
▁رقم	-1750
▁يونيورسٽي	-1751
خي	-1752
ٽڻ	-1753
▁لازمي	-1754
▁ضح	-1755
▁25	-1756
▁سرگر	-1757
▁رهڻ	-1758
▁اهڙو	-1759
▁پڙهڻ	-1760
▁آرٽ	-1761
▁ايو	-1762
▁ترج	-1763
▁خرچ	-1764
▁انتظار	-1765
▁حت	-1766
▁ڪنٽرول	-1767
ارڻ	-1768
▁نيٽ	-1769
▁شان	-1770
يندو	-1771
▁لان	-1772
لاس	-1773
▁r	-1774
ٺيان	-1775
▁پوسٽ	-1776
▁سواءِ	-1777
▁زين	-1778
▁2.	-1779
▁ولي	-1780
▁مضبوط	-1781
پن	-1782
رار	-1783
▁مهيا	-1784
▁نموني	-1785
ولت	-1786
▁ديو	-1787
▁مير	-1788
▁ههه	-1789
▁هه	-1790
▁متاثر	-1791
ئڻ	-1792
▁زندگيءَ	-1793
▁تہ	-1794
▁آفيس	-1795
▁راندي	-1796
▁دري	-1797
انس	-1798
▁>>	-1799
ٺا	-1800
▁انسٽ	-1801
▁ڌيان	-1802
▁خوشي	-1803
▁ڪريان	-1804
xt	-1805
▁ی	-1806
لائي	-1807
▁تاز	-1808
لز	-1809
ھين	-1810
رات	-1811
▁صنعت	-1812
▁احت	-1813
▁بع	-1814
▁لين	-1815
▁عدال	-1816
▁ذڪر	-1817
▁هلي	-1818
▁ڪهڙو	-1819
▁پنهنجن	-1820
▁مڙ	-1821
▁وزير	-1822
▁پهچي	-1823
▁ڀا	-1824
▁خواب	-1825
وز	-1826
▁بينڪ	-1827
آن	-1828
▁اَ	-1829
▁جھ	-1830
سڪ	-1831
▁16	-1832
▁17	-1833
▁هيءَ	-1834
▁وه	-1835
▁رکيو	-1836
▁سف	-1837
▁ڪئين	-1838
▁ذميو	-1839
حال	-1840
▁سنڌي	-1841
▁سار	-1842
▁آباد	-1843
گري	-1844
▁برط	-1845
شق	-1846
▁سگهون	-1847
▁ڪال	-1848
▁خاصيت	-1849
ch	-1850
شنل	-1851
دود	-1852
▁براب	-1853
دت	-1854
افت	-1855
▁فائل	-1856
ad	-1857
▁فرق	-1858
▁منج	-1859
▁پھ	-1860
▁زال	-1861
گه	-1862
وڙ	-1863
ent	-1864
▁آرام	-1865
هيون	-1866
▁رب	-1867
▁وف	-1868
▁اوزار	-1869
▁روشني	-1870
▁مليو	-1871
ou	-1872
ائر	-1873
▁يءَ	-1874
▁واڌ	-1875
▁جلدي	-1876
▁استاد	-1877
▁ڪرڻو	-1878
▁حفاظت	-1879
▁]	-1880
▁پُ	-1881
▁ڪريون	-1882
▁جمهوري	-1883
▁جنھن	-1884
ثيت	-1885
▁تصديق	-1886
▁بيم	-1887
▁شيءِ	-1888
▁وڪرو	-1889
▁چم	-1890
▁علاوه	-1891
اڻو	-1892
ol	-1893
▁ڪارڪر	-1894
نس	-1895
نين	-1896
▁وضاحت	-1897
▁علائقي	-1898
لع	-1899
افٽ	-1900
▁معام	-1901
▁هزار	-1902
▁ڪارڪردگي	-1903
▁مهم	-1904
▁گري	-1905
▁ڪلڪ	-1906
▁).	-1907
▁ڪراچي	-1908
▁سرڪاري	-1909
▁هفتي	-1910
▁رسائي	-1911
▁جيڪڏھن	-1912
▁ونڊ	-1913
▁عب	-1914
يوٽر	-1915
سٽري	-1916
دايت	-1917
▁=	-1918
▁حيثيت	-1919
▁؟"	-1920
▁پهريان	-1921
▁تنهنڪري	-1922
شر	-1923
▁نور	-1924
▁ٺهيل	-1925
▁ڪارڊ	-1926
▁مالي	-1927
پٽ	-1928
قبل	-1929
▁هار	-1930
▁50	-1931
▁گا	-1932
داشت	-1933
▁رستو	-1934
▁شكرا	-1935
مينٽ	-1936
▁U	-1937
▁تجربو	-1938
▁فط	-1939
▁مف	-1940
يه	-1941
▁جر	-1942
▁ملڪي	-1943
▁موسم	-1944
▁جهاز	-1945
▁ندي	-1946
▁ماڊل	-1947
▁پال	-1948
▁ھڪڙي	-1949
▁نشان	-1950
▁پڇيو	-1951
▁سنڀ	-1952
▁جمع	-1953
▁رفتار	-1954
تان	-1955
قات	-1956
▁سل	-1957
لى	-1958
▁$	-1959
▁قتل	-1960
▁غلطي	-1961
ابت	-1962
▁گم	-1963
▁وجود	-1964
▁ادب	-1965
▁انڊ	-1966
▁ٿيندا	-1967
تال	-1968
خر	-1969
وف	-1970
▁ميز	-1971
▁ايندو	-1972
▁ڪمپيوٽر	-1973
▁v	-1974
▁شم	-1975
▁جاءِ	-1976
▁پليٽ	-1977
▁آءِ	-1978
▁تصور	-1979
▁يم	-1980
▁نوڪري	-1981
▁جائ	-1982
▁ميو	-1983
▁مڃ	-1984
▁ليک	-1985
▁ماهر	-1986
▁سائنس	-1987
مائي	-1988
▁مائ	-1989
▁معاه	-1990
▁انٽرنيٽ	-1991
▁هڪڙي	-1992
▁ڏاڍو	-1993
▁پيغام	-1994
▁سيٽ	-1995
▁لاڳو	-1996
ڀر	-1997
▁u	-1998
▁گرفت	-1999
▁مستقبل	-2000
امو	-2001
▁لب	-2002
▁اقت	-2003
▁مجمو	-2004
▁انگريزي	-2005
▁بحث	-2006
مر	-2007
▁امت	-2008
شيا	-2009
▁ڪونهي	-2010
ec	-2011
▁شاعري	-2012
▁اھي	-2013
▁اصول	-2014
ااا	-2015
ليف	-2016
▁۔۔۔	-2017
كل	-2018
▁X	-2019
▁ريت	-2020
▁ڊالر	-2021
▁شاء	-2022
▁ڳالهيون	-2023
شا	-2024
▁ترين	-2025
▁ماني	-2026
▁خواه	-2027
▁دان	-2028
▁گرمي	-2029
▁اگر	-2030
ئل	-2031
مپ	-2032
▁چند	-2033
▁زور	-2034
▁امير	-2035
▁24	-2036
▁ويئي	-2037
ھر	-2038
▁دٻ	-2039
رحال	-2040
▁گرم	-2041
ڪارڊ	-2042
▁افغ	-2043
▁ويون	-2044
▁ايمان	-2045
دري	-2046
يور	-2047
▁انتي	-2048
▁ٻڌي	-2049
▁امام	-2050
▁ٽران	-2051
▁لل	-2052
▁حسين	-2053
▁پيرو	-2054
ائيندي	-2055
▁بخش	-2056
▁ٽرين	-2057
باري	-2058
▁يقيني	-2059
الف	-2060
▁چر	-2061
▁وزن	-2062
▁اسڪرين	-2063
ونا	-2064
▁فري	-2065
▁بڻائي	-2066
▁قط	-2067
گز	-2068
▁دفعو	-2069
▁K	-2070
▁ٿيندڙ	-2071
▁نسل	-2072
▁اڳيان	-2073
▁ڪاميابي	-2074
▁سگهيو	-2075
▁ابت	-2076
▁جوڙ	-2077
▁اللي	-2078
▁قيا	-2079
▁معم	-2080
▁خوف	-2081
▁رهندو	-2082
َر	-2083
اله	-2084
▁موبائل	-2085
▁ٿورو	-2086
▁صفح	-2087
لات	-2088
▁ڪامياب	-2089
▁لکيو	-2090
▁ميڪ	-2091
▁بنا	-2092
▁ڪوڊ	-2093
▁آب	-2094
▁ايترو	-2095
▁ورڪ	-2096
▁پيام	-2097
▁ڪندڙن	-2098
▁شڪل	-2099
▁ماري	-2100
▁سوشل	-2101
قوامي	-2102
▁سڃاڻ	-2103
▁ڊگهي	-2104
ter	-2105
▁ڪُ	-2106
▁سگھو	-2107
▁شڪار	-2108
▁انتظام	-2109
ميل	-2110
▁بورڊ	-2111
▁برابر	-2112
▁قانوني	-2113
ig	-2114
▁اظ	-2115
ليت	-2116
لسل	-2117
▁؟؟؟	-2118
▁نمي	-2119
▁بهرحال	-2120
ot	-2121
▁پيءُ	-2122
▁دين	-2123
▁مخصوص	-2124
▁جيستائين	-2125
جيب	-2126
▁199	-2127
▁ثابت	-2128
ياب	-2129
هندي	-2130
▁چئ	-2131
▁سگهان	-2132
▁الاقوامي	-2133
دد	-2134
▁3.	-2135
▁آڪ	-2136
▁حتى	-2137
اوي	-2138
ٽين	-2139
▁مب	-2140
▁صورتحال	-2141
بلي	-2142
▁هيچ	-2143
▁گروپ	-2144
▁ناڪ	-2145
▁ايڊ	-2146
▁ساڻ	-2147
▁#	-2148
ڙين	-2149
▁زمان	-2150
▁کانسو	-2151
▁صدي	-2152
▁ڪاب	-2153
▁ئ	-2154
انڊ	-2155
▁پوي	-2156
▁انقل	-2157
▁اهڙا	-2158
▁منهنجا	-2159
اڊ	-2160
▁متع	-2161
▁ڳولي	-2162
▁مقابلي	-2163
نٽ	-2164
▁سافٽ	-2165
▁عدالت	-2166
كي	-2167
▁اڌ	-2168
▁گذاري	-2169
ريت	-2170
▁پاب	-2171
▁خاندان	-2172
▁چڪا	-2173
▁افغان	-2174
▁عرب	-2175
▁فلس	-2176
▁فور	-2177
ub	-2178
▁re	-2179
▁ڪڍ	-2180
غيره	-2181
▁رت	-2182
▁ٻو	-2183
▁دوستن	-2184
راني	-2185
▁برق	-2186
▁طبي	-2187
▁هدايت	-2188
▁چونڊيو	-2189
ڇي	-2190
▁وو	-2191
▁زبان	-2192
▁حالتن	-2193
▁سياست	-2194
▁هوس	-2195
▁هڪڙو	-2196
▁عرصي	-2197
ارتي	-2198
▁تنهنجو	-2199
▁V	-2200
▁سور	-2201
▁تخلي	-2202
▁خال	-2203
os	-2204
▁ڌرتي	-2205
▁ايندي	-2206
▁بق	-2207
▁ثق	-2208
وجود	-2209
▁دار	-2210
ايان	-2211
لاق	-2212
▁سمنڊ	-2213
لوي	-2214
▁وفا	-2215
▁نص	-2216
ريز	-2217
لها	-2218
▁زخ	-2219
▁درد	-2220
▁دعا	-2221
ذي	-2222
▁لفظن	-2223
▁نڪري	-2224
now	-2225
▁سول	-2226
▁اضافي	-2227
▁لم	-2228
▁توان	-2229
قع	-2230
▁ايپل	-2231
▁شاگردن	-2232
▁شام	-2233
▁کولڻ	-2234
▁ى	-2235
▁مارڪيٽنگ	-2236
ag	-2237
▁خار	-2238
▁ساڳي	-2239
▁ڳولا	-2240
▁تعلي	-2241
▁زماني	-2242
▁ملاقات	-2243
▁نوٽ	-2244
▁ڳالھ	-2245
ائيندا	-2246
▁مَ	-2247
▁حساب	-2248
▁+	-2249
▁حياتي	-2250
پا	-2251
وووو	-2252
▁سوچيو	-2253
▁فيس	-2254
ائيٽ	-2255
▁جڳهه	-2256
▁^	-2257
ختي	-2258
▁نٿي	-2259
▁باوجود	-2260
چو	-2261
▁ing	-2262
▁آسم	-2263
▁فهر	-2264
▁تفصيل	-2265
بري	-2266
▁ڏاڍي	-2267
▁فهرست	-2268
▁بيماري	-2269
ers	-2270
ٽيو	-2271
▁زم	-2272
اض	-2273
▁ملين	-2274
▁اڏ	-2275
▁باز	-2276
▁ملڻ	-2277
▁ٺيڪ	-2278
زيشن	-2279
▁قد	-2280
▁جهڙوڪ	-2281
▁پنهنجا	-2282
تون	-2283
ڙيل	-2284
▁هفت	-2285
▁مختصر	-2286
▁ويجهو	-2287
رڪ	-2288
▁ڀلي	-2289
▁چوي	-2290
▁بلاگ	-2291
تك	-2292
▁2020	-2293
هايو	-2294
▁بادش	-2295
ئس	-2296
▁انف	-2297
خو	-2298
▁يس	-2299
کيون	-2300
انه	-2301
ماغ	-2302
▁هيا	-2303
▁لائين	-2304
▁ڇوڪري	-2305
سنگ	-2306
ولين	-2307
▁فائدو	-2308
▁منتقل	-2309
▁ڪنداسين	-2310
▁کو	-2311
▁درو	-2312
▁چڪي	-2313
انا	-2314
▁دماغ	-2315
▁مهين	-2316
▁لاڳاپيل	-2317
▁مرا	-2318
▁وڌائڻ	-2319
ائيس	-2320
▁آئين	-2321
▁موسي	-2322
▁ويئر	-2323
▁علائقن	-2324
▁ڪاروباري	-2325
▁شوي	-2326
▁پين	-2327
▁دع	-2328
▁سمجھ	-2329
▁ميدان	-2330
اااااااا	-2331
▁بابا	-2332
ندر	-2333
▁شاعر	-2334
▁چاهيندا	-2335
▁سگھن	-2336
▁کل	-2337
▁2019	-2338
▁راندين	-2339
▁شاندار	-2340
▁نڪر	-2341
يف	-2342
▁مالڪ	-2343
▁ڪلاڪ	-2344
سه	-2345
▁هال	-2346
عات	-2347
▁جڏھن	-2348
▁سنڀال	-2349
سپي	-2350
عظم	-2351
▁عا	-2352
▁ڊرائيو	-2353
▁عز	-2354
▁درست	-2355
▁گذري	-2356
▁رکو	-2357
▁know	-2358
▁اعتم	-2359
▁22	-2360
▁پريشان	-2361
▁پک	-2362
▁انتهائي	-2363
رل	-2364
▁ٻڌائي	-2365
رب	-2366
▁ڌار	-2367
▁تنظيم	-2368
▁جهڙي	-2369
▁ميٽر	-2370
▁مهينن	-2371
▁غور	-2372
لينڊ	-2373
▁راز	-2374
▁رستي	-2375
▁کانسواءِ	-2376
▁بدر	-2377
▁اٽ	-2378
▁ليڪ	-2379
▁ننڊ	-2380
▁چيزي	-2381
▁وڏا	-2382
▁ويڪ	-2383
▁حبي	-2384
▁بيشڪ	-2385
▁اکيون	-2386
ارٽ	-2387
▁جئين	-2388
▁سڀئي	-2389
▁يك	-2390
▁روڊ	-2391
▁پوئ	-2392
▁لکيل	-2393
▁وغيره	-2394
هيه	-2395
▁ڏو	-2396
جون	-2397
▁آپريشن	-2398
▁سامهون	-2399
▁توانائي	-2400
▁هئڻ	-2401
▁پيڪ	-2402
▁ننڍي	-2403
▁آمد	-2404
▁سري	-2405
اما	-2406
▁بجلي	-2407
طا	-2408
▁تجز	-2409
▁21	-2410
▁اهميت	-2411
▁اسپتال	-2412
▁40	-2413
▁قا	-2414
▁اشت	-2415
▁منظر	-2416
th	-2417
▁غريب	-2418
▁مقامي	-2419
▁الف	-2420
▁صور	-2421
▁چڱي	-2422
حاظ	-2423
ھنجو	-2424
▁مگر	-2425
▁وڃو	-2426
▁بغير	-2427
▁قبل	-2428
▁الن	-2429
▁بون	-2430
▁ڪيائين	-2431
ئا	-2432
لت	-2433
▁الز	-2434
▁ٽرانس	-2435
▁ڏيندا	-2436
▁کر	-2437
▁دلچسپ	-2438
▁رڪارڊ	-2439
▁موقعو	-2440
▁تقريبن	-2441
▁بئن	-2442
▁سوچي	-2443
▁اعليٰ	-2444
▁।	-2445
ـــــ	-2446
▁پائي	-2447
انگ	-2448
▁منٽ	-2449
▁حيرت	-2450
▁نتيجي	-2451
▁وَ	-2452
▁آڻڻ	-2453
يز	-2454
نڊن	-2455
ڪٽر	-2456
▁واپار	-2457
▁دلچسپي	-2458
▁صارفين	-2459
▁آل	-2460
▁فرم	-2461
▁اڃان	-2462
ve	-2463
شو	-2464
▁بندي	-2465
▁ٺاهيو	-2466
▁آرٽيڪل	-2467
▁كان	-2468
▁2018	-2469
▁سميت	-2470
▁برقرار	-2471
▁بھ	-2472
چه	-2473
انيه	-2474
▁يوم	-2475
▁آساني	-2476
▁ايڇ	-2477
▁پوئتي	-2478
▁بيو	-2479
▁ليه	-2480
▁قديم	-2481
▁بڻائڻ	-2482
▁قس	-2483
وم	-2484
▁وص	-2485
▁سمجهيو	-2486
▁ڳالهائڻ	-2487
▁پڙهن	-2488
▁آس	-2489
▁فٽ	-2490
▁مغ	-2491
▁هُن	-2492
▁ايتري	-2493
▁ڌي	-2494
▁مسلسل	-2495
▁(2	-2496
▁4.	-2497
▁دوا	-2498
▁لحاظ	-2499
▁مصنو	-2500
▁قرض	-2501
▁يال	-2502
▁محدود	-2503
▁مسافر	-2504
▁چيائين	-2505
▁جام	-2506
▁مسئلن	-2507
عام	-2508
▁آڻ	-2509
▁يک	-2510
▁قرار	-2511
▁امن	-2512
▁,,	-2513
▁گن	-2514
▁الص	-2515
▁انه	-2516
▁هيءُ	-2517
▁عاد	-2518
▁مات	-2519
▁قسمن	-2520
▁ڏينھن	-2521
▁اث	-2522
▁ڊپ	-2523
▁اعتماد	-2524
▁چاهيان	-2525
يس	-2526
ul	-2527
ڄي	-2528
بال	-2529
▁بص	-2530
▁شايع	-2531
▁گهڻا	-2532
▁شوق	-2533
جد	-2534
▁ڏکڻ	-2535
▁وائرس	-2536
▁نيا	-2537
▁علام	-2538
▁نيوز	-2539
ڙڻ	-2540
▁J	-2541
▁الڳ	-2542
▁ڪيترا	-2543
▁زن	-2544
ڙپ	-2545
▁ايا	-2546
text	-2547
ٽائي	-2548
▁عالم	-2549
▁اجلاس	-2550
im	-2551
روف	-2552
▁تحفظ	-2553
▁ڪنھن	-2554
ٺل	-2555
▁نہ	-2556
▁نظري	-2557
▁ارس	-2558
▁عيس	-2559
▁ڪڍي	-2560
ess	-2561
▁عوامي	-2562
لك	-2563
▁سَ	-2564
▁فوج	-2565
▁کار	-2566
▁انسٽال	-2567
ِن	-2568
▁واس	-2569
▁آفري	-2570
وند	-2571
▁صد	-2572
▁بيڪ	-2573
▁خالي	-2574
▁سواء	-2575
▁ٽيسٽ	-2576
▁قدرتي	-2577
▁com	-2578
▁مشت	-2579
▁ڳا	-2580
▁متح	-2581
▁واٽ	-2582
اڻن	-2583
▁تحت	-2584
▁هز	-2585
▁اچو	-2586
▁سائ	-2587
▁هجن	-2588
▁ذات	-2589
▁دعو	-2590
▁امان	-2591
▁ادارن	-2592
▁ايراني	-2593
ادر	-2594
▁اڇ	-2595
▁عشق	-2596
▁آخرڪار	-2597
حن	-2598
دائي	-2599
▁And	-2600
▁ڪندس	-2601
▁اسم	-2602
▁ـــــ	-2603
▁لائسن	-2604
▁اچن	-2605
▁موڪ	-2606
▁ڳولڻ	-2607
▁مقدار	-2608
ٿر	-2609
عودي	-2610
▁هوا	-2611
▁ناز	-2612
شتي	-2613
▁لڪ	-2614
▁مزاح	-2615
▁ويس	-2616
pp	-2617
▁جز	-2618
▁اظهار	-2619
▁حڪمت	-2620
▁طريق	-2621
▁پوندي	-2622
▁تصويرون	-2623
▁ورتي	-2624
▁رابطو	-2625
ab	-2626
▁فعال	-2627
▁ساڳيو	-2628
يندي	-2629
▁مڙس	-2630
▁براي	-2631
▁سماج	-2632
▁شهري	-2633
▁عجيب	-2634
▁قرآن	-2635
كه	-2636
▁ادي	-2637
▁انص	-2638
▁جنسي	-2639
▁ڪسٽم	-2640
▁مذهبي	-2641
▁گول	-2642
▁گڏو	-2643
▁2017	-2644
▁بئنڪ	-2645
▁~	-2646
يراعظم	-2647
▁جسماني	-2648
ڊيٽ	-2649
▁سٽ	-2650
▁سڌو	-2651
▁ڪلو	-2652
▁معياري	-2653
ارش	-2654
▁زو	-2655
▁اتر	-2656
▁بدل	-2657
▁شرط	-2658
▁ڊائ	-2659
▁شاگرد	-2660
▁مهيني	-2661
ir	-2662
▁مظ	-2663
▁ارا	-2664
roid	-2665
▁ارب	-2666
▁انقلاب	-2667
▁۱	-2668
▁سڏيو	-2669
▁ھر	-2670
▁مئي	-2671
▁ڏان	-2672
ڏانهن	-2673
▁ڪرائي	-2674
▁ساڳئي	-2675
طه	-2676
▁ماڻھو	-2677
▁گھرجي	-2678
▁امتحان	-2679
ثي	-2680
بير	-2681
بادي	-2682
جيٽل	-2683
▁گڏجي	-2684
▁شخصيت	-2685
▁چيڪ	-2686
▁ويڊيو	-2687
▁ايئن	-2688
▁ايجن	-2689
▁خامو	-2690
▁فرانس	-2691
▁مخالف	-2692
▁جاچ	-2693
▁ڊجيٽل	-2694
▁وزيراعظم	-2695
▁حصن	-2696
▁چنڊ	-2697
▁لائسنس	-2698
▁ڊوائيس	-2699
▁ساز	-2700
▁مارچ	-2701
▁ٽائي	-2702
▁پويان	-2703
▁ڪيترو	-2704
▁Android	-2705
▁نگر	-2706
▁پول	-2707
▁سلسلي	-2708
▁منظور	-2709
▁پراڻي	-2710
▁پروسي	-2711
▁مجموعي	-2712
▁ڪيم	-2713
▁مافي	-2714
▁مسلمان	-2715
▁وات	-2716
▁احتجا	-2717
▁اوچ	-2718
▁رائ	-2719
▁آڪٽو	-2720
▁منزل	-2721
▁پالي	-2722
▁اسٽيشن	-2723
پس	-2724
▁ڪَ	-2725
▁فڪر	-2726
رز	-2727
▁گيت	-2728
▁لباس	-2729
▁منظم	-2730
▁منھنجي	-2731
▁وانا	-2732
▁کائڻ	-2733
▁ڏيندي	-2734
فه	-2735
▁ليکڪ	-2736
▁رين	-2737
▁نيڪ	-2738
كس	-2739
مڻ	-2740
▁ائي	-2741
▁طيب	-2742
▁ڪورٽ	-2743
ايون	-2744
▁اڪيلو	-2745
ظر	-2746
▁عه	-2747
▁جرم	-2748
▁شعر	-2749
▁نمائ	-2750
▁آڪٽوبر	-2751
▁y	-2752
▁ٻڌڻ	-2753
▁الو	-2754
▁جنم	-2755
▁خيلي	-2756
▁ملاز	-2757
▁ٿوري	-2758
▁معمولي	-2759
▁راه	-2760
▁روم	-2761
▁اسٽور	-2762
▁تاريخي	-2763
▁اشارو	-2764
ڻن	-2765
▁شهي	-2766
▁مور	-2767
ئه	-2768
▁معنيٰ	-2769
▁دستياب	-2770
▁مطابقت	-2771
▁والدين	-2772
▁حلوه	-2773
▁ايندا	-2774
▁مسئلي	-2775
▁ذميواري	-2776
▁فيه	-2777
▁پرين	-2778
▁ڪمري	-2779
▁بدران	-2780
▁طريقا	-2781
بيت	-2782
▁بلڪ	-2783
▁ممكن	-2784
▁هندستان	-2785
▁روشن	-2786
▁مرڪز	-2787
▁ٽيون	-2788
امه	-2789
▁ڊيو	-2790
▁موٽي	-2791
▁ڪالي	-2792
▁دستاوي	-2793
▁بلو	-2794
▁کليل	-2795
▁يورپي	-2796
▁اسپين	-2797
▁تجزيو	-2798
▁سينٽر	-2799
▁گهربل	-2800
▁مشڪل	-2801
▁گرفتار	-2802
▁سيڙپ	-2803
▁هوٽل	-2804
▁داخ	-2805
▁بم	-2806
ڙيون	-2807
▁خور	-2808
▁غلام	-2809
▁ڪتابن	-2810
راف	-2811
▁سيريز	-2812
▁an	-2813
▁مشك	-2814
▁سهولت	-2815
▁ھئي	-2816
▁اضاف	-2817
▁تعريف	-2818
▁گراهڪ	-2819
um	-2820
ind	-2821
▁سد	-2822
▁عذ	-2823
▁هيٺيان	-2824
اءَ	-2825
▁ڀري	-2826
▁ڪابه	-2827
▁سگهندا	-2828
پشن	-2829
▁اسيم	-2830
▁سيپٽ	-2831
▁26	-2832
تح	-2833
اڙي	-2834
ياد	-2835
▁سيپٽمبر	-2836
▁23	-2837
▁نماز	-2838
▁ڻ	-2839
کيه	-2840
▁برو	-2841
▁روس	-2842
▁سڄو	-2843
▁پلا	-2844
▁فوري	-2845
▁خواهش	-2846
▁موسيقي	-2847
▁ڪمپنين	-2848
pt	-2849
▁سڌ	-2850
▁سڪ	-2851
▁بيت	-2852
▁كله	-2853
▁ہ	-2854
▁۔	-2855
▁بود	-2856
▁رسي	-2857
▁فوت	-2858
▁هُو	-2859
▁طريقن	-2860
ٻي	-2861
▁?	-2862
شمن	-2863
▁ندا	-2864
▁ٽين	-2865
▁فطرت	-2866
▁فوجي	-2867
ميم	-2868
▁باغ	-2869
▁سزا	-2870
▁پئسا	-2871
▁حج	-2872
▁ٽا	-2873
▁198	-2874
▁ڳالهين	-2875
گيري	-2876
▁دورو	-2877
▁فوٽو	-2878
▁چيني	-2879
▁ٻُ	-2880
▁مدا	-2881
▁شاهه	-2882
▁واپسي	-2883
▁مئ	-2884
▁طلب	-2885
▁مره	-2886
▁چيز	-2887
▁ھون	-2888
▁اتفا	-2889
▁قومن	-2890
▁the	-2891
▁اڳي	-2892
▁جائزو	-2893
▁مدي	-2894
▁تنھن	-2895
ut	-2896
▁قص	-2897
▁شما	-2898
▁لنڪ	-2899
▁هيڪ	-2900
▁بونس	-2901
▁خلاص	-2902
▁جيترو	-2903
▁ڊزائن	-2904
▁ڪرائڻ	-2905
▁اسر	-2906
▁تيل	-2907
▁ليش	-2908
▁راح	-2909
▁خل	-2910
▁رن	-2911
▁اذا	-2912
او	-2913
ڪش	-2914
▁عنصر	-2915
▁آسمان	-2916
ارڊ	-2917
▁2-	-2918
يندڙ	-2919
ستاني	-2920
جان	-2921
▁آبادي	-2922
▁مشتمل	-2923
ليه	-2924
▁ڇپ	-2925
▁عليها	-2926
▁اسيمبلي	-2927
نيئر	-2928
▁سير	-2929
▁سست	-2930
▁فقير	-2931
▁محنت	-2932
▁ترجمو	-2933
▁نوان	-2934
▁آئ	-2935
▁زر	-2936
▁طال	-2937
▁اخبار	-2938
▁2016	-2939
▁جنرل	-2940
▁ساري	-2941
▁ڏيئي	-2942
▁انجنيئر	-2943
▁ضحك	-2944
▁موٽر	-2945
▁چوندا	-2946
▁دائ	-2947
▁ڀيٽ	-2948
oc	-2949
طف	-2950
گن	-2951
▁چان	-2952
حڪ	-2953
▁197	-2954
▁مٽي	-2955
▁ڀيرا	-2956
▁اينڊر	-2957
▁رکندڙ	-2958
▁بحال	-2959
▁انعام	-2960
▁ڪميون	-2961
ٿا	-2962
لاد	-2963
▁عزي	-2964
▁واقع	-2965
▁هينئر	-2966
▁سفارش	-2967
ائب	-2968
▁پَ	-2969
▁تعا	-2970
▁مذهب	-2971
▁ادائي	-2972
▁زير	-2973
▁آگسٽ	-2974
انڪ	-2975
▁بک	-2976
▁رض	-2977
▁عزت	-2978
▁مثل	-2979
▁ڪانه	-2980
▁اضافو	-2981
▁پهچائڻ	-2982
▁اتح	-2983
▁وڏن	-2984
▁ادبي	-2985
▁ــــــ	-2986
ra	-2987
▁تجو	-2988
▁نين	-2989
▁برطان	-2990
ct	-2991
▁لسٽ	-2992
▁Ne	-2993
▁وب	-2994
▁al	-2995
▁جنس	-2996
▁گزار	-2997
الن	-2998
▁فض	-2999
▁گلي	-3000
▁سدائين	-3001
ia	-3002
▁آرڊر	-3003
▁دشمن	-3004
▁قسمت	-3005
▁رهندا	-3006
▁سمجهڻ	-3007
▁ونڊوز	-3008
▁جيئ	-3009
▁خاط	-3010
▁ڀريل	-3011
▁حرف	-3012
▁ساٿ	-3013
▁اداري	-3014
▁پروفي	-3015
▁ڪيتريون	-3016
قول	-3017
▁60	-3018
راهي	-3019
▁چور	-3020
▁تحريڪ	-3021
▁رهندي	-3022
▁سڃاڻپ	-3023
ثير	-3024
▁ڪاليج	-3025
▁آسٽ	-3026
▁فصل	-3027
▁کڻڻ	-3028
▁سياحت	-3029
عل	-3030
ڊا	-3031
▁سِ	-3032
▁گهري	-3033
ونه	-3034
▁28	-3035
▁ويل	-3036
▁چڱو	-3037
▁ٻڌو	-3038
▁دڪان	-3039
▁سيني	-3040
▁رابطي	-3041
آمد	-3042
▁th	-3043
▁روڪ	-3044
▁عجب	-3045
▁صفحا	-3046
▁حيران	-3047
▁سعودي	-3048
▁5.	-3049
▁پٿر	-3050
▁ساٿي	-3051
▁نيست	-3052
جڪ	-3053
▁بغ	-3054
▁وسيع	-3055
▁برانڊ	-3056
▁الج	-3057
▁جيل	-3058
▁رواي	-3059
▁هوائي	-3060
).	-3061
▁پرڏي	-3062
ائيندڙ	-3063
▁صنع	-3064
ريم	-3065
▁سگھجي	-3066
▁موقعي	-3067
نى	-3068
گير	-3069
▁شب	-3070
▁نع	-3071
▁سوچڻ	-3072
▁انڪار	-3073
▁مسئلا	-3074
ry	-3075
▁ناڪام	-3076
st	-3077
▁ريل	-3078
▁پيٽ	-3079
▁پابندي	-3080
▁شيئر	-3081
▁ڪلاس	-3082
▁حمايت	-3083
▁موڪليو	-3084
حه	-3085
بئي	-3086
ليٽ	-3087
▁احتجاج	-3088
▁جبل	-3089
▁سموري	-3090
▁ڏانھن	-3091
▁ڊيزائن	-3092
▁هع	-3093
فيد	-3094
▁قيم	-3095
▁انصاف	-3096
▁نومبر	-3097
گا	-3098
يورٽي	-3099
▁مکيه	-3100
▁ويهي	-3101
▁امڪان	-3102
سمبر	-3103
▁ضاب	-3104
▁هست	-3105
▁هليو	-3106
▁سرگرمي	-3107
▁افغانستان	-3108
▁آهنگ	-3109
▁ميان	-3110
▁فائلون	-3111
▁ء	-3112
▁قال	-3113
ack	-3114
چار	-3115
▁ڪوئي	-3116
▁ٻڌل	-3117
ation	-3118
▁ماضي	-3119
▁گھڻو	-3120
▁مصنوعات	-3121
اڻڻ	-3122
▁27	-3123
▁حاد	-3124
▁قلب	-3125
▁پکي	-3126
▁مردن	-3127
▁رهيون	-3128
ver	-3129
▁دم	-3130
▁المو	-3131
▁ترڪي	-3132
ڻا	-3133
▁ندو	-3134
▁2021	-3135
ــــــ	-3136
▁جنوري	-3137
▁وح	-3138
▁گاڏي	-3139
ly	-3140
▁لنڊن	-3141
▁ڪائن	-3142
▁ادائيگي	-3143
▁غر	-3144
▁هئس	-3145
▁هٿن	-3146
▁@	-3147
▁رُ	-3148
▁هوء	-3149
▁اقول	-3150
▁زخمي	-3151
▁ناهن	-3152
▁آھ	-3153
صوصي	-3154
▁سنڏ	-3155
▁سوي	-3156
▁لڳا	-3157
▁راءِ	-3158
▁خصوصي	-3159
▁هيٺين	-3160
▁ـــــــــ	-3161
▁انك	-3162
▁درجي	-3163
▁ملائي	-3164
▁ملڪيت	-3165
ڙڪ	-3166
▁اٺ	-3167
▁آدم	-3168
▁شده	-3169
▁ٻيون	-3170
▁الزام	-3171
كك	-3172
▁كه	-3173
▁جاء	-3174
▁نفر	-3175
▁اقتص	-3176
▁گهو	-3177
فرنس	-3178
▁احمد	-3179
▁اپڊيٽ	-3180
▁عورتون	-3181
▁موٽ	-3182
▁دهشت	-3183
▁ڪانهي	-3184
▁ڪميشن	-3185
▁سمجهان	-3186
▁عنو	-3187
▁تازو	-3188
▁فا	-3189
▁اهل	-3190
▁روپ	-3191
▁هندو	-3192
▁ـــــــ	-3193
▁اينڊرائيڊ	-3194
▁at	-3195
▁؟!	-3196
▁شف	-3197
▁آڻي	-3198
▁خات	-3199
▁فرض	-3200
▁تعالي	-3201
▁حاض	-3202
▁كيف	-3203
▁تقريبا	-3204
کر	-3205
▁مسي	-3206
▁رکن	-3207
پان	-3208
▁خلي	-3209
▁جهان	-3210
▁رانديگر	-3211
فڪ	-3212
▁ليگ	-3213
▁يمكن	-3214
▁ڪائون	-3215
▁ڪرايو	-3216
▁ليس	-3217
▁مقابلو	-3218
▁قول	-3219
▁متن	-3220
▁پراڊ	-3221
▁ڳالهائي	-3222
▁عقي	-3223
▁ناول	-3224
▁انجام	-3225
▁واقعا	-3226
▁نواز	-3227
▁رجسٽر	-3228
ايه	-3229
▁الخ	-3230
▁الحال	-3231
▁ڏنا	-3232
▁پراڊڪٽ	-3233
and	-3234
▁اوڀر	-3235
▁کائي	-3236
▁سمجهه	-3237
▁متباد	-3238
ينه	-3239
▁اگ	-3240
▁حب	-3241
▁آيل	-3242
▁سائيز	-3243
▁عمارت	-3244
▁هونديون	-3245
▁ٻاه	-3246
▁ميمبرن	-3247
▁ابي	-3248
▁وفات	-3249
گڏ	-3250
▁er	-3251
هيهي	-3252
▁مني	-3253
▁ويٺو	-3254
▁وفاقي	-3255
▁ڊسمبر	-3256
ڪيل	-3257
▁فه	-3258
▁انو	-3259
▁سيل	-3260
پيڊيا	-3261
▁شهرن	-3262
▁تجويز	-3263
▁1-	-3264
▁گُ	-3265
▁مها	-3266
▁ڏکيو	-3267
▁ھاڻي	-3268
▁نتيجو	-3269
▁پٺيان	-3270
▁گڏوگڏ	-3271
ٻئي	-3272
▁باهه	-3273
▁وزار	-3274
حب	-3275
ٽيف	-3276
▁ڪھ	-3277
▁رسول	-3278
▁واقف	-3279
▁يورو	-3280
▁پيروي	-3281
رج	-3282
يڪشن	-3283
▁ماپ	-3284
ak	-3285
پوري	-3286
▁عندي	-3287
▁نالا	-3288
▁متبادل	-3289
▁وٺو	-3290
▁خطرن	-3291
▁گزارش	-3292
▁نصي	-3293
▁اُهي	-3294
▁مريض	-3295
▁ضرورتن	-3296
▁منصوبي	-3297
ينا	-3298
▁ضم	-3299
▁تبص	-3300
▁سبق	-3301
▁شرڪت	-3302
▁تعاون	-3303
hi	-3304
بول	-3305
▁چپ	-3306
▁اصلا	-3307
▁مبار	-3308
▁واريون	-3309
▁ڳالهايو	-3310
▁وڙ	-3311
▁2015	-3312
▁نشاني	-3313
em	-3314
▁ڪنڊ	-3315
▁ڏياري	-3316
عة	-3317
▁Y	-3318
▁</	-3319
▁مزو	-3320
▁ناق	-3321
▁هاءِ	-3322
▁پئجي	-3323
▁تسليم	-3324
▁هلائڻ	-3325
لوڊ	-3326
▁اٿم	-3327
▁شهيد	-3328
▁ٽيبل	-3329
▁ڪجھه	-3330
▁تڪليف	-3331
▁شد	-3332
▁ڪورونا	-3333
▁خريداري	-3334
رسي	-3335
▁يڪ	-3336
▁فرد	-3337
▁لاش	-3338
▁شعور	-3339
▁ٿر	-3340
▁<<<	-3341
▁پارڪ	-3342
▁اپريل	-3343
▁ڀلا	-3344
▁عربي	-3345
▁قيمتي	-3346
▁اليڪٽر	-3347
▁ابتدائي	-3348
کان	-3349
▁هائو	-3350
▁سلسلو	-3351
ـــــــــ	-3352
▁بڪ	-3353
ائنٽ	-3354
▁يلا	-3355
▁کلي	-3356
▁ايڊي	-3357
▁عيسي	-3358
▁معاش	-3359
UM	-3360
▁80	-3361
▁أن	-3362
▁آزم	-3363
▁توڙي	-3364
▁ڀاءُ	-3365
▁مينهن	-3366
ڊنگ	-3367
▁تھ	-3368
▁روي	-3369
▁سرا	-3370
▁کاتي	-3371
▁وزارت	-3372
▁طاقتور	-3373
▁دعوي	-3374
▁آھيان	-3375
▁معاملي	-3376
▁194	-3377
▁ماڻهوءَ	-3378
ريءَ	-3379
un	-3380
ازن	-3381
اسي	-3382
▁بچائڻ	-3383
▁پاليسي	-3384
▁رانديون	-3385
سك	-3386
▁سيڙپڪاري	-3387
▁مٽ	-3388
▁کڻ	-3389
▁حسن	-3390
▁ڪيتري	-3391
قد	-3392
▁ماش	-3393
▁اتفاق	-3394
▁جرمني	-3395
▁سگهندو	-3396
▁35	-3397
ايد	-3398
▁ڳڻ	-3399
▁هٿي	-3400
▁ڪوڙ	-3401
▁وجهي	-3402
▁پرڏيهي	-3403
طان	-3404
وره	-3405
تائي	-3406
▁فرو	-3407
▁چوڌ	-3408
▁خدمتن	-3409
▁هزارين	-3410
▁ٽري	-3411
▁ڪمز	-3412
▁روڪي	-3413
▁اڳوڻي	-3414
▁گهرجن	-3415
▁ڪائنات	-3416
est	-3417
اتل	-3418
▁كنت	-3419
▁سرور	-3420
▁خودڪار	-3421
▁اڀ	-3422
▁196	-3423
▁الك	-3424
▁تاب	-3425
▁مڇي	-3426
▁تربيت	-3427
▁تازه	-3428
▁عالي	-3429
▁مثبت	-3430
رافي	-3431
▁وسلم	-3432
▁منصوبو	-3433
▁شروعاتي	-3434
▁هيس	-3435
▁سيڪيورٽي	-3436
سيم	-3437
▁حقن	-3438
▁آمدني	-3439
▁ڪارپوري	-3440
الم	-3441
▁كن	-3442
▁con	-3443
▁ايش	-3444
▁سکڻ	-3445
▁فتح	-3446
▁اطلا	-3447
▁جانور	-3448
▁is	-3449
▁کوٽ	-3450
بروري	-3451
▁ورلڊ	-3452
▁تخليق	-3453
▁عبدال	-3454
▁غم	-3455
▁أنا	-3456
▁جدو	-3457
▁امين	-3458
▁تهيه	-3459
▁ضحكت	-3460
▁چوٿ	-3461
▁امري	-3462
▁تحري	-3463
وڪي	-3464
▁مؤ	-3465
▁ٽيڪس	-3466
▁ڄاڻي	-3467
▁ڪاپي	-3468
▁Z	-3469
ندس	-3470
▁In	-3471
▁اغ	-3472
▁ڇڏڻ	-3473
▁کني	-3474
▁وينديون	-3475
کو	-3476
ڪرين	-3477
▁مله	-3478
▁يقينا	-3479
▁افت	-3480
▁لهي	-3481
▁نظم	-3482
▁شراب	-3483
▁جانورن	-3484
▁ڀڃ	-3485
▁كلام	-3486
▁هلندڙ	-3487
if	-3488
▁گلو	-3489
▁29	-3490
▁رخ	-3491
▁مِ	-3492
خخخخ	-3493
▁خون	-3494
▁خدمتون	-3495
ظي	-3496
سٽڪ	-3497
▁اصط	-3498
▁اند	-3499
▁نكت	-3500
▁وطن	-3501
▁اميدو	-3502
▁ڪِ	-3503
▁لازم	-3504
▁بادشاهه	-3505
UMX	-3506
▁سڌي	-3507
▁هذه	-3508
▁برداشت	-3509
.1	-3510
▁لانچ	-3511
▁دوستي	-3512
ريٽ	-3513
▁منع	-3514
▁دليل	-3515
▁گهڻن	-3516
▁ڳنڍي	-3517
▁اندروني	-3518
▁ٽرانسپورٽ	-3519
فرد	-3520
▁وِ	-3521
راهه	-3522
▁بجي	-3523
▁رئي	-3524
▁تعرف	-3525
▁حيات	-3526
▁گهرو	-3527
▁يونين	-3528
▁چونڊي	-3529
▁ڪانفرنس	-3530
▁۲	-3531
باب	-3532
▁ميڊ	-3533
▁موڪلي	-3534
برد	-3535
▁انس	-3536
ٽرويو	-3537
▁ضمان	-3538
▁وساري	-3539
▁فيبروري	-3540
▁چارج	-3541
▁تجربي	-3542
▁ٻاهرين	-3543
▁انٽرويو	-3544
▁نج	-3545
هندو	-3546
▁اخر	-3547
▁جما	-3548
▁ويڙ	-3549
▁هفته	-3550
▁هڪٻئي	-3551
▁وڪيپيڊيا	-3552
قه	-3553
ٽڪ	-3554
▁سازي	-3555
▁بحالي	-3556
▁فائيل	-3557
▁ماڻھن	-3558
▁منفرد	-3559
▁تعليمي	-3560
▁ضل	-3561
▁آيت	-3562
▁اٿس	-3563
▁فخر	-3564
▁طلاق	-3565
▁پهتو	-3566
ووو	-3567
▁90	-3568
▁جُ	-3569
NUMX	-3570
يڪار	-3571
▁هڻي	-3572
▁پهر	-3573
▁ــــــــــ	-3574
غذ	-3575
چا	-3576
يري	-3577
▁^^	-3578
▁پسندي	-3579
▁گفتگو	-3580
▁اقتصادي	-3581
▁x	-3582
▁پڌ	-3583
▁مائي	-3584
هل	-3585
▁رپ	-3586
▁عج	-3587
▁لأ	-3588
▁نر	-3589
▁ساهه	-3590
▁ٽئين	-3591
▁دهشتگر	-3592
▁روحاني	-3593
▁نمائند	-3594
▁خاصيتون	-3595
سب	-3596
يوم	-3597
▁اصطلاح	-3598
▁انڊسٽري	-3599
▁جهن	-3600
▁لنگ	-3601
▁چيه	-3602
ce	-3603
جهه	-3604
▁زنده	-3605
▁ايشيا	-3606
▁يت	-3607
▁سپر	-3608
▁مجب	-3609
▁کپي	-3610
▁پاور	-3611
▁چيست	-3612
▁ضمانت	-3613
▁معاملو	-3614
od	-3615
َن	-3616
سته	-3617
قلي	-3618
▁ed	-3619
▁مك	-3620
ٺيون	-3621
ڙائي	-3622
ڙيءَ	-3623
▁آءُ	-3624
▁مصر	-3625
▁صفحي	-3626
▁يافته	-3627
ليا	-3628
▁آي	-3629
▁پيچي	-3630
▁اولاد	-3631
▁سائيڪل	-3632
▁چاهيون	-3633
عيت	-3634
تيون	-3635
▁روايتي	-3636
سري	-3637
يره	-3638
هاري	-3639
▁سمجه	-3640
▁ثقافت	-3641
▁ڪاررو	-3642
▁ڪارڪن	-3643
▁متعارف	-3644
▁برطانيه	-3645
بة	-3646
▁70	-3647
▁محبو	-3648
▁اليڪشن	-3649
▁برس	-3650
▁منح	-3651
▁وڌو	-3652
▁گذر	-3653
▁انتخ	-3654
▁پريس	-3655
▁کاڌي	-3656
▁خيالن	-3657
▁اندازو	-3658
سس	-3659
▁ناس	-3660
▁دعوت	-3661
▁معاهدي	-3662
▁ترا	-3663
▁شاه	-3664
▁بلوچ	-3665
▁مرڪزي	-3666
-1	-3667
ائپ	-3668
يييي	-3669
▁وير	-3670
▁پيئڻ	-3671
▁پوزيشن	-3672
اصر	-3673
▁بدلي	-3674
▁مرمت	-3675
▁پهچڻ	-3676
▁اڳيون	-3677
▁جوڙجڪ	-3678
▁نتيجا	-3679
▁وڌائي	-3680
▁تار	-3681
▁لطف	-3682
▁روڪڻ	-3683
▁سادي	-3684
▁يونٽ	-3685
▁پيئي	-3686
▁ابراهي	-3687
کن	-3688
▁ــــــــــــــ	-3689
li	-3690
شد	-3691
امن	-3692
ديت	-3693
▁بہ	-3694
هندا	-3695
▁عقل	-3696
▁مجبور	-3697
زح	-3698
ليو	-3699
مممم	-3700
▁نبي	-3701
▁هنا	-3702
▁اهڙن	-3703
▁عنوان	-3704
▁انتظامي	-3705
▁ڀڳ	-3706
▁نقل	-3707
▁رھيو	-3708
▁ڏيان	-3709
▁انفرا	-3710
▁وڃائي	-3711
▁ـــــــــــ	-3712
one	-3713
▁جد	-3714
▁هت	-3715
▁احد	-3716
ريڪٽر	-3717
▁امداد	-3718
▁ريلوي	-3719
▁پاڻيءَ	-3720
ائس	-3721
اڻا	-3722
▁مرت	-3723
▁کاڌو	-3724
شيد	-3725
▁حمل	-3726
▁قبر	-3727
▁واع	-3728
▁چيم	-3729
▁حلوة	-3730
▁زبرد	-3731
▁گهرن	-3732
▁CO	-3733
▁اور	-3734
▁بندو	-3735
▁نفرت	-3736
▁ڏسندا	-3737
▁سائيٽن	-3738
▁گھڻي	-3739
▁ذريعو	-3740
▁واپاري	-3741
▁لع	-3742
▁شڪر	-3743
▁طول	-3744
▁ڪپڙا	-3745
▁نمائش	-3746
▁پڙهندڙ	-3747
▁="	-3748
▁رز	-3749
▁هٽ	-3750
▁تڪر	-3751
▁نار	-3752
▁درجه	-3753
▁يقول	-3754
▁مبارڪ	-3755
▁چڪ	-3756
▁کيڏ	-3757
▁روسي	-3758
▁عشان	-3759
▁واقعن	-3760
ib	-3761
▁آھيو	-3762
▁جادو	-3763
▁وقتي	-3764
▁برقي	-3765
▁ڀارت	-3766
▁مزاحمت	-3767
زڪ	-3768
▁le	-3769
▁برن	-3770
▁مقص	-3771
▁چئن	-3772
▁وڃان	-3773
▁سرڪار	-3774
▁سگھون	-3775
▁انتخاب	-3776
ثن	-3777
▁>>>	-3778
▁هارڊ	-3779
▁&	-3780
اڪو	-3781
▁رول	-3782
▁پتو	-3783
▁پروف	-3784
▁افسوس	-3785
▁سونهن	-3786
▁ءِ	-3787
▁رم	-3788
▁ڊز	-3789
▁مهل	-3790
▁توقع	-3791
▁مٿين	-3792
▁والد	-3793
▁اٿي	-3794
▁موڊ	-3795
ابل	-3796
گيز	-3797
▁سيک	-3798
▁فيڪ	-3799
▁ڪئم	-3800
▁راضي	-3801
▁نمون	-3802
▁ڪهڙا	-3803
▁بيٽري	-3804
▁ابراهيم	-3805
▁ڏٺ	-3806
▁نون	-3807
▁وڌڻ	-3808
▁بڻايو	-3809
▁نگراني	-3810
وب	-3811
اڻين	-3812
▁طرز	-3813
▁چرچ	-3814
▁آسٽريل	-3815
▁ذميوار	-3816
▁انٽرنيشنل	-3817
ink	-3818
▁ڌو	-3819
▁(1)	-3820
▁پنڌ	-3821
▁ڊيل	-3822
▁کولي	-3823
▁مصروف	-3824
▁معاشي	-3825
▁ڏيندڙ	-3826
اھر	-3827
▁۔۔۔۔	-3828
▁اوھين	-3829
نگي	-3830
▁دستاويز	-3831
ائشي	-3832
▁اكيد	-3833
▁نڪتو	-3834
▁اوچتو	-3835
گين	-3836
▁پچ	-3837
▁رهو	-3838
▁پٽي	-3839
▁انھي	-3840
▁عزيز	-3841
▁نيشنل	-3842
▁ڪائونسل	-3843
یک	-3844
عمل	-3845
گاه	-3846
▁3-	-3847
▁آغ	-3848
▁داد	-3849
▁وهي	-3850
▁ٿور	-3851
▁2014	-3852
▁تعجب	-3853
▁مقصدن	-3854
▁کوليو	-3855
افظ	-3856
▁چُ	-3857
▁پڇي	-3858
▁ڏها	-3859
▁رکيل	-3860
▁فائر	-3861
دل	-3862
▁مذ	-3863
▁ٻيٽ	-3864
▁انجڻ	-3865
▁دوري	-3866
▁اسٽيٽ	-3867
▁عليكم	-3868
▁روزاني	-3869
فق	-3870
▁45	-3871
انسي	-3872
▁چيف	-3873
▁2013	-3874
▁آفريڪا	-3875
▁پروفيسر	-3876
qu	-3877
▁تُ	-3878
▁شور	-3879
▁شعبي	-3880
▁منٽن	-3881
▁پلاسٽڪ	-3882
io	-3883
وال	-3884
▁ارت	-3885
▁اڻي	-3886
▁هيك	-3887
▁چرا	-3888
▁سکيا	-3889
▁لائق	-3890
▁سرگرمين	-3891
▁آسٽريليا	-3892
فن	-3893
▁ڙي	-3894
اهري	-3895
▁تاج	-3896
▁جذب	-3897
▁آندو	-3898
▁ااااا	-3899
▁ارسال	-3900
ate	-3901
▁بش	-3902
▁500	-3903
▁تلا	-3904
▁پنجن	-3905
▁ٺاهيندڙ	-3906
ID	-3907
▁متو	-3908
▁ڪوٽ	-3909
▁اسپي	-3910
▁داري	-3911
▁مسجد	-3912
▁آهستي	-3913
▁بررسي	-3914
زش	-3915
▁وڪ	-3916
▁بٽڻ	-3917
▁درا	-3918
▁ٽڪر	-3919
▁ڊبل	-3920
▁گنا	-3921
▁بيٺو	-3922
▁پاسو	-3923
▁سپورٽ	-3924
igh	-3925
بوت	-3926
▁بلند	-3927
▁ذهني	-3928
▁ڪيان	-3929
▁انڊيا	-3930
تاب	-3931
عده	-3932
▁سرب	-3933
▁هيل	-3934
▁اُهو	-3935
▁حملو	-3936
▁سادو	-3937
▁شيءَ	-3938
▁ڪاوڙ	-3939
▁سيد	-3940
▁نيٺ	-3941
▁پالڻ	-3942
▁ميچ	-3943
▁دفعي	-3944
▁اتحاد	-3945
▁خاموش	-3946
▁خبرون	-3947
▁رکندو	-3948
▁ميوزڪ	-3949
2.	-3950
ear	-3951
اوت	-3952
▁مھ	-3953
اسان	-3954
اڻيو	-3955
▁فين	-3956
▁مدت	-3957
▁ندڙ	-3958
▁پيپ	-3959
▁آفيسر	-3960
▁ڀرسان	-3961
▁نرم	-3962
▁ووٽ	-3963
▁ترجي	-3964
▁Q	-3965
▁تل	-3966
▁سؤ	-3967
▁عرا	-3968
▁جميل	-3969
ین	-3970
ولو	-3971
▁31	-3972
▁لطي	-3973
▁لوڪ	-3974
▁هلا	-3975
▁تنقي	-3976
▁خاطر	-3977
▁عندك	-3978
▁چڙهي	-3979
▁صنعتي	-3980
▁چوندو	-3981
خن	-3982
▁اياز	-3983
▁اٿئي	-3984
▁خطرو	-3985
▁درواز	-3986
▁تجارتي	-3987
▁or	-3988
▁رسم	-3989
▁ٺاھ	-3990
▁ڪرن	-3991
▁مرضي	-3992
▁ڪرين	-3993
▁آڇ	-3994
▁195	-3995
▁هلڻ	-3996
▁ڀرو	-3997
▁ڳنڍ	-3998
▁ماهي	-3999
▁مايو	-4000
▁منحصر	-4001
▁وٺندو	-4002
▁منظوري	-4003
ڇا	-4004
ڊٽ	-4005
all	-4006
▁إن	-4007
▁سوم	-4008
▁ملو	-4009
▁بيهي	-4010
▁رکون	-4011
▁ڳنڍيل	-4012
ap	-4013
اره	-4014
▁ظلم	-4015
▁ادار	-4016
▁فورم	-4017
▁اڳواڻ	-4018
▁تعارف	-4019
▁داخلا	-4020
ti	-4021
ثار	-4022
▁جرمن	-4023
▁علمي	-4024
▁وائي	-4025
▁ملندي	-4026
يول	-4027
▁شيخ	-4028
▁باقا	-4029
▁اداڪار	-4030
ستر	-4031
▁en	-4032
ائجي	-4033
▁احتر	-4034
▁موثر	-4035
▁هفتن	-4036
▁رجحان	-4037
▁معامل	-4038
هيو	-4039
▁ذي	-4040
▁شن	-4041
▁حاضر	-4042
▁عذاب	-4043
▁مقام	-4044
▁وڊيوز	-4045
▁روزانو	-4046
▁مطالبو	-4047
og	-4048
ڊو	-4049
▁جار	-4050
▁لينڊ	-4051
▁خارجي	-4052
▁ڪميٽي	-4053
▁چوڌاري	-4054
▁موجودگي	-4055
ain	-4056
ڙهو	-4057
▁نھ	-4058
الله	-4059
▁الق	-4060
▁طئي	-4061
▁لال	-4062
▁سنجي	-4063
▁فيشن	-4064
▁فنڪشن	-4065
▁فٽبال	-4066
▁فرانسي	-4067
ڇو	-4068
▁وڪيل	-4069
▁پيرن	-4070
▁وڌندڙ	-4071
▁ڪلاڪن	-4072
▁مائڪرو	-4073
▁معاملن	-4074
▁ملازمن	-4075
▁36	-4076
باتي	-4077
▁ٻول	-4078
▁مسيح	-4079
▁ڇڏيا	-4080
▁انگيز	-4081
▁سرٽيف	-4082
▁معيشت	-4083
▁ڪمزور	-4084
▁انسانن	-4085
▁ڊائريڪٽر	-4086
پنگ	-4087
▁قوت	-4088
ينڊ	-4089
▁مآ	-4090
▁قيد	-4091
▁اسٽيل	-4092
▁چاهين	-4093
اق	-4094
▁حرڪت	-4095
▁زمرو	-4096
▁سالي	-4097
▁هندي	-4098
▁پلان	-4099
▁ذريعن	-4100
▁ٻوليءَ	-4101
▁خش	-4102
▁يح	-4103
▁ڪاغذ	-4104
▁ارادو	-4105
▁ايئرپورٽ	-4106
یس	-4107
▁ورا	-4108
▁ڪلام	-4109
▁شهرين	-4110
▁علائقو	-4111
▁ناقابل	-4112
▁ڪارروائي	-4113
ook	-4114
عيد	-4115
▁وم	-4116
ويئر	-4117
▁قلم	-4118
▁وحد	-4119
ريٽري	-4120
▁شريف	-4121
▁سوالن	-4122
▁منصوبن	-4123
▁of	-4124
▁دؤ	-4125
▁مک	-4126
▁ڌن	-4127
بادت	-4128
▁باڪ	-4129
▁ڊيٽ	-4130
▁ميني	-4131
▁اصلاح	-4132
▁هلائي	-4133
▁ڀرپور	-4134
▁بعض	-4135
▁مرڻ	-4136
▁پرت	-4137
▁سڀاڻي	-4138
▁خطرناڪ	-4139
▁الموضوع	-4140
▁ڊائونلوڊ	-4141
روز	-4142
▁بنگ	-4143
▁راس	-4144
▁اُتي	-4145
▁سڃاتو	-4146
▁فائدا	-4147
▁ٻولين	-4148
ريس	-4149
▁ھا	-4150
▁عرض	-4151
▁ميون	-4152
▁ڄاڻڻ	-4153
▁عبادت	-4154
▁اسٽوري	-4155
پل	-4156
خلت	-4157
▁بيمار	-4158
▁رساله	-4159
ريح	-4160
▁ماڳ	-4161
▁تقريب	-4162
▁متحرڪ	-4163
OS	-4164
▁اکر	-4165
▁ثقاف	-4166
▁نيوي	-4167
▁زبردست	-4168
▁فى	-4169
▁آلو	-4170
▁يکي	-4171
▁بندر	-4172
▁آھيون	-4173
▁رکندي	-4174
▁ڪئميرا	-4175
▁سيڪريٽري	-4176
▁ڪٽ	-4177
▁لكن	-4178
▁ھئا	-4179
▁بلڪه	-4180
▁ويٺي	-4181
▁خوراڪ	-4182
▁اسرائيل	-4183
▁مسلمانن	-4184
▁بلي	-4185
▁پيل	-4186
▁مراد	-4187
▁هستي	-4188
▁مثالي	-4189
▁ياداشت	-4190
▁بدن	-4191
▁فيصل	-4192
▁نهايت	-4193
▁ڪناري	-4194
▁پد	-4195
▁الش	-4196
▁بزر	-4197
▁طوف	-4198
▁ماء	-4199
▁تشدد	-4200
▁کنيو	-4201
ڌا	-4202
▁(3	-4203
▁سئو	-4204
▁چمڪ	-4205
▁پائڻ	-4206
▁پروڊ	-4207
▁فيصلي	-4208
▁هائوس	-4209
ore	-4210
▁ڪس	-4211
▁حاج	-4212
▁شنا	-4213
▁ڊول	-4214
▁دفعا	-4215
▁هتان	-4216
▁پيرا	-4217
▁قابليت	-4218
ورة	-4219
▁ٽڪ	-4220
▁پٺ	-4221
▁عيد	-4222
▁ڀيڻ	-4223
▁کير	-4224
▁روايت	-4225
▁ااااااااا	-4226
op	-4227
▁وت	-4228
▁خطري	-4229
▁ڊيسڪ	-4230
▁تنھنجي	-4231
پاني	-4232
▁آڏو	-4233
▁قدرت	-4234
▁وڌايو	-4235
▁منتقلي	-4236
▁هئاسين	-4237
az	-4238
يرن	-4239
▁رھيا	-4240
▁ساڻس	-4241
▁سپري	-4242
▁نڪرڻ	-4243
▁ڊگهو	-4244
وس	-4245
ارڪ	-4246
علي	-4247
▁ڪٿ	-4248
تمند	-4249
▁قبضو	-4250
▁وصول	-4251
▁بچائي	-4252
▁ماهرن	-4253
▁مرحله	-4254
▁نظارو	-4255
▁دريافت	-4256
▁پوائنٽ	-4257
▁انسانيت	-4258
▁حصيداري	-4259
▁ڪمپنيون	-4260
▁and	-4261
▁جشن	-4262
▁ڊزائين	-4263
▁·	-4264
▁ar	-4265
▁ند	-4266
▁آآآ	-4267
▁ايج	-4268
▁بازي	-4269
▁مادي	-4270
▁اعتبار	-4271
ڱي	-4272
▁زهر	-4273
▁نوجوانن	-4274
▁ڇڪ	-4275
▁ڏند	-4276
▁رئيس	-4277
▁بازار	-4278
ame	-4279
شاني	-4280
▁راي	-4281
ائونڊ	-4282
▁اينڊ	-4283
▁يكون	-4284
▁پاڪستاني	-4285
▁طل	-4286
▁لڳل	-4287
▁ڪمن	-4288
▁گرد	-4289
▁لطيف	-4290
▁چمڙي	-4291
oin	-4292
ood	-4293
يابي	-4294
▁ڪارن	-4295
▁اطلاع	-4296
▁ملازم	-4297
▁ٽائيم	-4298
▁معاشري	-4299
))	-4300
ود	-4301
▁بري	-4302
▁بچڻ	-4303
▁ناھي	-4304
▁نسبت	-4305
▁تحليل	-4306
▁تقرير	-4307
▁رياضي	-4308
ـــــــ	-4309
▁تت	-4310
▁چڙ	-4311
▁جمي	-4312
▁ٽيو	-4313
▁سهڻي	-4314
▁معصو	-4315
▁چيئر	-4316
▁ڪيئي	-4317
▁ريڊيو	-4318
▁فارسي	-4319
▁ڊومين	-4320
▁حوص	-4321
▁دلي	-4322
▁رھي	-4323
▁قلت	-4324
▁اٽڪل	-4325
▁ڪرڻي	-4326
▁ورهين	-4327
▁سرهندي	-4328
ڙيو	-4329
▁بگ	-4330
▁خصوص	-4331
▁دولت	-4332
▁مريم	-4333
▁تباهه	-4334
فل	-4335
▁sp	-4336
▁فك	-4337
▁هذي	-4338
▁اليوم	-4339
▁تياري	-4340
▁فارمي	-4341
▁پرواز	-4342
ـــــــــــ	-4343
▁٪	-4344
▁بط	-4345
ئيشن	-4346
▁ريم	-4347
▁ڄڻا	-4348
▁شكله	-4349
▁مناف	-4350
▁ملندو	-4351
▁پارليا	-4352
ڏا	-4353
▁حدي	-4354
▁لات	-4355
▁پوک	-4356
▁پاڙي	-4357
▁آخرين	-4358
▁اختلا	-4359
▁فائدي	-4360
▁محبوب	-4361
▁يوٽيو	-4362
▁شاعريءَ	-4363
▁**	-4364
▁32	-4365
▁Aw	-4366
▁ڊڄ	-4367
▁سختي	-4368
▁نتيجن	-4369
▁j	-4370
▁St	-4371
▁حصا	-4372
▁فني	-4373
▁ڊسپ	-4374
▁اخلا	-4375
▁ٻڌائڻ	-4376
▁بيل	-4377
▁فعل	-4378
▁معك	-4379
▁شريڪ	-4380
▁ڪارخ	-4381
▁برسات	-4382
▁لڳندو	-4383
▁ننڍڙي	-4384
▁ڪنديون	-4385
ارم	-4386
ذير	-4387
▁كر	-4388
▁تري	-4389
▁جاڳ	-4390
▁فيلڊ	-4391
▁ليڪن	-4392
▁گيري	-4393
▁اسٽاڪ	-4394
▁سياري	-4395
▁ڏسندي	-4396
▁ٿينديون	-4397
▁منك	-4398
▁کنڊ	-4399
▁ڪيف	-4400
▁حبيب	-4401
▁پيامبر	-4402
▁فرانسيسي	-4403
ڊن	-4404
▁رش	-4405
,000	-4406
▁پبل	-4407
▁بلاڪ	-4408
▁جوڙي	-4409
▁ننڍو	-4410
▁پڙهو	-4411
▁گولي	-4412
▁توسان	-4413
▁صفائي	-4414
▁لڳائڻ	-4415
ne	-4416
سون	-4417
▁--	-4418
▁بُ	-4419
▁تنگ	-4420
▁فيك	-4421
▁مزي	-4422
▁ڪنڌ	-4423
▁صفحو	-4424
▁معاف	-4425
▁پنھنجو	-4426
ھار	-4427
▁ٺهر	-4428
▁ڪلب	-4429
▁ثبوت	-4430
▁تقسيم	-4431
iv	-4432
▁ڀت	-4433
▁شير	-4434
▁كتي	-4435
▁معت	-4436
▁ورزن	-4437
▁ٽريڪ	-4438
▁حالتون	-4439
▁ڇڏيندو	-4440
عرف	-4441
قسم	-4442
▁جب	-4443
▁لغ	-4444
ونڊي	-4445
▁سلي	-4446
▁پنا	-4447
▁تصويرن	-4448
هري	-4449
▁پگ	-4450
▁کٽ	-4451
▁امر	-4452
▁انش	-4453
▁سرچ	-4454
▁اپيل	-4455
▁اثرائ	-4456
▁واقعو	-4457
▁پيماني	-4458
▁نمائندگي	-4459
دة	-4460
پڻ	-4461
روم	-4462
▁تازي	-4463
▁ٺاهيل	-4464
▁مددگار	-4465
دير	-4466
راض	-4467
▁صلي	-4468
▁فلو	-4469
▁شرطن	-4470
▁خواهي	-4471
جل	-4472
صف	-4473
▁😂	-4474
ورڪ	-4475
▁بچي	-4476
▁مستقل	-4477
▁يوٽيوب	-4478
ros	-4479
سوسي	-4480
▁بنت	-4481
▁عملن	-4482
▁احترام	-4483
▁ch	-4484
▁لح	-4485
ٽيءَ	-4486
▁ملن	-4487
▁وره	-4488
▁غائب	-4489
▁مارجي	-4490
▁خاصيتن	-4491
▁گهٽتائي	-4492
صب	-4493
جنن	-4494
كتب	-4495
▁6.	-4496
▁sub	-4497
▁مضحك	-4498
▁نقطي	-4499
سٽريشن	-4500
▁سپريم	-4501
▁پريشاني	-4502
▁پسنديده	-4503
▁رانديگرن	-4504
▁ag	-4505
ثريت	-4506
▁الت	-4507
▁برف	-4508
▁فاص	-4509
▁مشق	-4510
قسمتي	-4511
▁حملي	-4512
▁تڪرار	-4513
ft	-4514
جع	-4515
▁ڀو	-4516
▁الب	-4517
▁هئو	-4518
▁ڪئن	-4519
▁پرست	-4520
▁ڪورس	-4521
▁ترجيح	-4522
▁انھيءَ	-4523
▁ڪهاڻيون	-4524
▁جوا	-4525
▁لئه	-4526
▁مند	-4527
▁عليك	-4528
▁ويٺا	-4529
▁اثرات	-4530
▁الناس	-4531
نه	-4532
▁يب	-4533
▁پان	-4534
▁صفحه	-4535
▁واسطو	-4536
▁يالله	-4537
▁ڇڏيندا	-4538
▁پنهنجون	-4539
▁هڻ	-4540
▁همه	-4541
▁بالغ	-4542
▁تضحك	-4543
▁ظاهري	-4544
ist	-4545
سيل	-4546
ٽيل	-4547
▁افز	-4548
▁هاء	-4549
▁چڪر	-4550
▁عادي	-4551
▁هيٺان	-4552
▁پڙهيو	-4553
▁آپريٽنگ	-4554
ژه	-4555
ھا	-4556
اده	-4557
▁ڌم	-4558
▁خطي	-4559
▁ڀريو	-4560
▁سگھوٿا	-4561
1.	-4562
يج	-4563
▁قوي	-4564
▁گير	-4565
▁مليا	-4566
▁مهان	-4567
▁معاهدو	-4568
ھڻ	-4569
▁اتان	-4570
▁حالا	-4571
▁مفيد	-4572
▁متعلق	-4573
▁پهچائي	-4574
▁سامونڊي	-4575
3.	-4576
VID	-4577
حڪم	-4578
ٽرن	-4579
ارات	-4580
مارٽ	-4581
▁كده	-4582
▁وقف	-4583
▁پرس	-4584
▁پلس	-4585
▁اسمارٽ	-4586
▁مطالعو	-4587
حة	-4588
اسٽ	-4589
سيت	-4590
▁تد	-4591
▁سك	-4592
▁لق	-4593
▁(2)	-4594
▁پيد	-4595
▁رهجي	-4596
▁لاهي	-4597
▁چوري	-4598
▁گورن	-4599
▁تنقيد	-4600
▁ثقافتي	-4601
▁برطانيا	-4602
شنگ	-4603
▁دُ	-4604
▁ٽرئ	-4605
▁ڪچه	-4606
▁گنج	-4607
▁2010	-4608
▁اعرف	-4609
▁خارج	-4610
▁عاشق	-4611
▁مهينا	-4612
▁اخلاقي	-4613
cl	-4614
▁{	-4615
▁هِ	-4616
ight	-4617
ڊيشن	-4618
▁مزد	-4619
▁آپشن	-4620
▁توجي	-4621
▁راهه	-4622
▁ڪارڻ	-4623
▁المهم	-4624
▁تفصيلي	-4625
▁انگريزن	-4626
ive	-4627
▁2:	-4628
▁انٽ	-4629
▁فول	-4630
▁پيج	-4631
▁سينٽ	-4632
▁چوان	-4633
▁چڪاس	-4634
▁گهڙي	-4635
▁سائنسي	-4636
▁مستحڪم	-4637
▁اسٽوريج	-4638
hat	-4639
ڪين	-4640
▁1:	-4641
▁ارو	-4642
▁بيا	-4643
▁ويچ	-4644
▁چاھ	-4645
▁اسڪو	-4646
▁ماهه	-4647
▁ندار	-4648
▁ڏوهه	-4649
▁کاٻي	-4650
▁پابند	-4651
▁مطالعي	-4652
▁نيٽورڪ	-4653
orm	-4654
ڙها	-4655
▁احم	-4656
▁سوئ	-4657
▁سيم	-4658
▁شھر	-4659
▁ڏهن	-4660
▁تيزي	-4661
▁طرفن	-4662
▁قيام	-4663
▁پيپلز	-4664
▁سرمائي	-4665
همي	-4666
▁احب	-4667
▁دؤر	-4668
▁شرم	-4669
▁پمپ	-4670
▁2012	-4671
▁حضور	-4672
▁گرين	-4673
▁سلامت	-4674
▁علامت	-4675
▁هلندو	-4676
نل	-4677
ect	-4678
زين	-4679
▁شل	-4680
▁سوا	-4681
▁صبر	-4682
▁پيچ	-4683
▁دانش	-4684
▁پيون	-4685
▁لڳائي	-4686
▁هلندي	-4687
▁اڳواڻن	-4688
▁رڪ	-4689
▁وع	-4690
▁ھل	-4691
▁نان	-4692
▁2011	-4693
▁حيدر	-4694
▁خاني	-4695
▁كلهم	-4696
▁ننڍڙو	-4697
▁پياري	-4698
ربي	-4699
▁اما	-4700
▁شنو	-4701
▁ڪلي	-4702
▁گون	-4703
▁ميشه	-4704
▁هاري	-4705
▁اڪثريت	-4706
▁پروڊڪٽ	-4707
▁ڌرتيءَ	-4708
▁ڊرائيور	-4709
▁رع	-4710
▁ڦر	-4711
▁گهرج	-4712
▁تبصرو	-4713
چن	-4714
day	-4715
ity	-4716
شمي	-4717
متي	-4718
▁جت	-4719
▁ِي	-4720
ميشن	-4721
▁كذا	-4722
▁اندو	-4723
▁روان	-4724
▁موڪلڻ	-4725
▁اشتهار	-4726
▁ڏيکاريو	-4727
ie	-4728
طل	-4729
اڪن	-4730
تري	-4731
جين	-4732
▁باس	-4733
▁لكم	-4734
▁واچ	-4735
▁راڻي	-4736
▁مسٽر	-4737
▁COVID	-4738
▁ٽرمين	-4739
▁ڪريڊٽ	-4740
طر	-4741
فٽ	-4742
ٿو	-4743
▁ااا	-4744
▁جاي	-4745
▁ھتي	-4746
▁ماسڪ	-4747
▁يسلم	-4748
▁ڌاري	-4749
▁ٽرئفڪ	-4750
▁ايوارڊ	-4751
ته	-4752
▁de	-4753
▁عرف	-4754
▁والو	-4755
▁طوفان	-4756
▁هٿيار	-4757
▁پروسيسنگ	-4758
▁اعز	-4759
▁ساح	-4760
▁محل	-4761
▁ٿڌي	-4762
▁اوندا	-4763
▁سمارٽ	-4764
▁حڪمران	-4765
▁يل	-4766
جيڪٽ	-4767
ڪارن	-4768
▁يهم	-4769
▁ڪتي	-4770
▁خالص	-4771
▁خودم	-4772
▁بحران	-4773
▁روانو	-4774
▁چونڊن	-4775
▁ٻاهران	-4776
ill	-4777
ثاني	-4778
▁193	-4779
▁فاط	-4780
▁نصب	-4781
▁نسخو	-4782
▁چينل	-4783
▁تعليق	-4784
▁جمهوريت	-4785
▁موبائيل	-4786
؟؟	-4787
ine	-4788
زيد	-4789
لوب	-4790
▁حذ	-4791
▁وآ	-4792
▁ڪڪ	-4793
▁تخليقي	-4794
▁پيغمبر	-4795
کا	-4796
حيد	-4797
▁جج	-4798
▁بقى	-4799
▁دفا	-4800
▁هان	-4801
▁پاي	-4802
▁انها	-4803
▁تنظي	-4804
▁وڏين	-4805
▁اسٽار	-4806
▁برادري	-4807
▁مسافرن	-4808
▁انگلينڊ	-4809
ادن	-4810
▁لآ	-4811
▁ير	-4812
▁الر	-4813
▁رڪا	-4814
▁هِن	-4815
▁معنى	-4816
▁سگهيا	-4817
▁هونئن	-4818
20	-4819
ياس	-4820
▁پيء	-4821
▁ڊسڪ	-4822
▁ڊوڙ	-4823
▁ڪول	-4824
▁جانچ	-4825
▁منسو	-4826
▁ڀيري	-4827
▁سيڪشن	-4828
▁اهڙيءَ	-4829
▁روزگار	-4830
ik	-4831
خب	-4832
مئن	-4833
▁سهي	-4834
▁ٻان	-4835
▁سستي	-4836
▁ڪيسن	-4837
▁شڪايت	-4838
▁توجيهي	-4839
▁پڙهائي	-4840
▁ماس	-4841
▁اسٽو	-4842
▁روئي	-4843
▁بدقسمتي	-4844
ies	-4845
▁4-	-4846
▁ٿڪ	-4847
▁مشغ	-4848
▁هيڊ	-4849
▁ڪاٺ	-4850
▁2008	-4851
▁اُها	-4852
▁شمار	-4853
▁صدار	-4854
▁هُئي	-4855
▁سيٽنگ	-4856
▁لڳايو	-4857
▁گذارڻ	-4858
قى	-4859
ٽيس	-4860
▁سکر	-4861
▁لما	-4862
▁بيٺل	-4863
▁كمان	-4864
▁ميلي	-4865
▁ڪيمي	-4866
▁اعتراض	-4867
▁وراڻيو	-4868
ويد	-4869
گهه	-4870
▁0.	-4871
▁it	-4872
ابيس	-4873
ڪلهه	-4874
▁جست	-4875
▁سرم	-4876
▁شري	-4877
▁كثير	-4878
▁اوهين	-4879
▁بنائڻ	-4880
▁فارميٽ	-4881
▁on	-4882
▁ڦا	-4883
▁سچي	-4884
▁ڪريم	-4885
▁ايڪسڪس	-4886
▁چيئرمين	-4887
▁ڪميونٽي	-4888
="0	-4889
الت	-4890
▁عض	-4891
▁ربي	-4892
▁قاع	-4893
▁آڊيو	-4894
▁تڪڙو	-4895
زه	-4896
▁آپ	-4897
▁يد	-4898
▁ھٿ	-4899
بتني	-4900
▁اھا	-4901
▁راڄ	-4902
▁سنو	-4903
▁مصي	-4904
▁ڪنگ	-4905
▁البن	-4906
▁شكلك	-4907
▁حوالو	-4908
▁ڇوڪرو	-4909
▁جوابدار	-4910
▁ڊيٽابيس	-4911
▁ڪيميائي	-4912
جهد	-4913
▁رَ	-4914
▁ڌڪ	-4915
▁فلٽر	-4916
▁تحرير	-4917
▁جذباتي	-4918
▁ويڪسين	-4919
▁ڪارپوريشن	-4920
iz	-4921
ubl	-4922
چين	-4923
▁Re	-4924
▁کم	-4925
▁pro	-4926
▁اوس	-4927
▁ديگر	-4928
▁نالن	-4929
▁ڊسپلي	-4930
يع	-4931
▁سلو	-4932
▁شاخ	-4933
▁صدا	-4934
▁ووو	-4935
▁ڀائ	-4936
▁احلى	-4937
▁جهڙا	-4938
▁رنگن	-4939
▁برائو	-4940
▁رهندڙ	-4941
▁سهڪار	-4942
▁صحتمند	-4943
▁99	-4944
▁اگه	-4945
▁مرض	-4946
▁ڏٺي	-4947
▁ادري	-4948
▁ڌيءَ	-4949
▁ڪٿان	-4950
نداسين	-4951
▁وارين	-4952
▁وڏيون	-4953
▁پيارا	-4954
ثو	-4955
ااي	-4956
▁جَ	-4957
▁هَ	-4958
▁بهار	-4959
▁ديگه	-4960
▁اهڙيون	-4961
▁;	-4962
ant	-4963
▁گيا	-4964
▁گڏج	-4965
▁شڪست	-4966
▁ضلعي	-4967
▁مليل	-4968
▁بچايو	-4969
▁نوٽيس	-4970
▁چونڊڻ	-4971
▁ڪارڪنن	-4972
▁سس	-4973
▁نِ	-4974
▁سنه	-4975
ائيءَ	-4976
▁جتان	-4977
▁دبئي	-4978
▁مداخلت	-4979
▁گنجائش	-4980
▁ماحولياتي	-4981
جھ	-4982
▁اخي	-4983
▁سٽي	-4984
▁مذا	-4985
▁ثاني	-4986
▁نامم	-4987
▁گوشت	-4988
▁جدوجهد	-4989
ll	-4990
طع	-4991
▁ّ	-4992
هيز	-4993
▁ex	-4994
▁بزن	-4995
▁نيب	-4996
▁واه	-4997
▁پڇڻ	-4998
▁آغاز	-4999
▁احوال	-5000
▁ويندس	-5001
▁رٿ	-5002
▁فنڊ	-5003
گرافي	-5004
▁ليزر	-5005
▁جيتري	-5006
▁طبيعت	-5007
▁ماسٽر	-5008
سف	-5009
قق	-5010
ُن	-5011
▁Ch	-5012
▁بب	-5013
▁كت	-5014
▁پِ	-5015
▁بور	-5016
▁فضي	-5017
▁کسي	-5018
▁فلسفي	-5019
▁ڊيوائس	-5020
اهو	-5021
▁رلي	-5022
▁قبي	-5023
▁بجيٽ	-5024
▁صوبي	-5025
▁منھن	-5026
▁ميلا	-5027
▁صلاحيتن	-5028
▁رجسٽريشن	-5029
▁عق	-5030
▁غري	-5031
▁ٽرم	-5032
▁کيڏڻ	-5033
▁ڪپڙن	-5034
▁خوشبو	-5035
▁منھنجو	-5036
▁گلن	-5037
▁اکرن	-5038
▁زياد	-5039
▁كتير	-5040
▁مطمئن	-5041
ايع	-5042
▁اِن	-5043
▁بدي	-5044
▁عار	-5045
▁منفي	-5046
▁ڌاتو	-5047
▁سيڪنڊ	-5048
▁سگهندي	-5049
▁ـــــــــــــ	-5050
زز	-5051
ُو	-5052
urn	-5053
▁(4	-5054
▁خز	-5055
▁نب	-5056
▁اثا	-5057
▁ٻُڌ	-5058
▁ھيٺ	-5059
▁تقول	-5060
▁خوبي	-5061
▁فلسط	-5062
▁همين	-5063
▁پورٽ	-5064
▁ڇڏين	-5065
▁اندوز	-5066
▁حرارت	-5067
▁دعويٰ	-5068
▁مهمان	-5069
▁گهٽائڻ	-5070
▁ملائيشيا	-5071
▁33	-5072
راحه	-5073
▁ٽنگ	-5074
▁انگن	-5075
▁جامع	-5076
▁پذير	-5077
▁ڪوٺي	-5078
▁ناممڪن	-5079
▁اختيارن	-5080
▁:)	-5081
▁وڄ	-5082
▁ٽيگ	-5083
▁پرچ	-5084
▁ڌڻي	-5085
▁اِهو	-5086
▁سروي	-5087
▁احسان	-5088
▁يقينن	-5089
▁پيچيده	-5090
-19	-5091
ome	-5092
▁صلى	-5093
▁لاڪ	-5094
▁مشا	-5095
▁ھجي	-5096
▁سورا	-5097
▁واهه	-5098
▁يضحك	-5099
▁پيڪيج	-5100
▁چانهه	-5101
▁ايسوسي	-5102
▁فراهمي	-5103
بط	-5104
ace	-5105
▁أي	-5106
▁ڙو	-5107
▁حديث	-5108
▁صدين	-5109
▁فيها	-5110
▁هنڌن	-5111
▁ation	-5112
▁رومان	-5113
▁روڪيو	-5114
▁پورهي	-5115
▁چوٿين	-5116
▁ڪلومي	-5117
▁نمايان	-5118
▁نفسياتي	-5119
لح	-5120
rypt	-5121
لينج	-5122
▁دوم	-5123
▁رحم	-5124
▁عين	-5125
▁قدمن	-5126
▁ڄاڻو	-5127
▁ڪيري	-5128
▁رکندا	-5129
▁پيدائش	-5130
▁نت	-5131
▁بقا	-5132
▁مدر	-5133
▁البت	-5134
▁ايڏو	-5135
▁باڪس	-5136
▁عراق	-5137
▁ميڪس	-5138
▁گريڊ	-5139
▁جماعت	-5140
▁منعقد	-5141
▁ٻانهن	-5142
▁ڀارتي	-5143
▁ڪسٽمر	-5144
▁برنامه	-5145
▁ڊاڪٽرن	-5146
▁طريقيڪار	-5147
▁ۈ	-5148
ونگ	-5149
▁افي	-5150
▁تير	-5151
▁حاڪ	-5152
▁رام	-5153
▁اعظم	-5154
▁تعال	-5155
▁جاني	-5156
▁فرين	-5157
▁متان	-5158
▁احتيا	-5159
▁اولين	-5160
▁توکان	-5161
▁مشغول	-5162
▁تعلقات	-5163
▁ميڊيڪل	-5164
اهم	-5165
عين	-5166
▁Am	-5167
▁as	-5168
▁جنت	-5169
▁ادارو	-5170
▁ترميم	-5171
▁ڪرڪيٽ	-5172
▁ڪانگري	-5173
قة	-5174
قر	-5175
▁بني	-5176
▁حقو	-5177
▁سڄڻ	-5178
▁لله	-5179
▁هيه	-5180
▁پرن	-5181
▁اكثر	-5182
▁مظاه	-5183
▁اُنهن	-5184
▁وسيلي	-5185
▁ٻارڙن	-5186
▁اختلاف	-5187
▁ڪيائون	-5188
▁بك	-5189
آباد	-5190
▁ماه	-5191
▁مسك	-5192
▁موس	-5193
▁ٽاپ	-5194
▁پورا	-5195
▁خاموشي	-5196
حر	-5197
▁2)	-5198
▁ٻج	-5199
▁ٻر	-5200
▁امڪ	-5201
▁عطا	-5202
▁پاپ	-5203
▁تلاش	-5204
▁پيڪنگ	-5205
▁فرمايو	-5206
ff	-5207
يٽ	-5208
راج	-5209
▁sh	-5210
رائي	-5211
▁فات	-5212
▁لاگ	-5213
▁منو	-5214
▁وصل	-5215
▁ڏهه	-5216
▁تسلم	-5217
▁گهمڻ	-5218
▁رهائش	-5219
▁ويجهي	-5220
▁وچولي	-5221
▁پوئين	-5222
مود	-5223
▁چن	-5224
▁جيون	-5225
▁عهدي	-5226
▁چئبو	-5227
▁تنھنڪري	-5228
▁رهنمائي	-5229
نن	-5230
ard	-5231
تاح	-5232
شار	-5233
ڪرن	-5234
▁لچ	-5235
▁ڪڻ	-5236
▁صفا	-5237
▁ورج	-5238
▁شاهي	-5239
▁ننڍن	-5240
▁سنئون	-5241
▁سوراخ	-5242
▁وٺندي	-5243
▁واڌاري	-5244
▁ڪاريگر	-5245
▁برطانوي	-5246
افر	-5247
سمس	-5248
حڪام	-5249
▁سچو	-5250
▁ڀلو	-5251
▁اردو	-5252
▁فريم	-5253
▁پينل	-5254
▁چهري	-5255
▁بجاءِ	-5256
▁سردار	-5257
▁مرحلي	-5258
▁پنجاب	-5259
▁استحڪام	-5260
NT	-5261
حش	-5262
حو	-5263
▁ً	-5264
ort	-5265
▁34	-5266
▁ab	-5267
▁كي	-5268
▁ديس	-5269
▁سوس	-5270
▁ڪتو	-5271
▁فطري	-5272
▁قلبي	-5273
▁مشاه	-5274
▁الائي	-5275
▁ايجنٽ	-5276
▁اڪيلي	-5277
▁وسيلن	-5278
▁اقتدار	-5279
▁پارٽين	-5280
آإ	-5281
حص	-5282
غي	-5283
▁48	-5284
▁[1	-5285
inks	-5286
▁اجل	-5287
▁دوز	-5288
▁ڪشم	-5289
▁سولو	-5290
▁بھترين	-5291
▁داستان	-5292
▁ڏيکارڻ	-5293
▁انفرادي	-5294
wit	-5295
ذيب	-5296
ٽيڊ	-5297
▁95	-5298
▁يخ	-5299
▁ٿل	-5300
▁ايڪ	-5301
▁فوٽ	-5302
▁مارڻ	-5303
▁محتر	-5304
▁تجربن	-5305
▁جاپان	-5306
▁مشورو	-5307
▁انگريز	-5308
▁پارليامينٽ	-5309
ru	-5310
▁75	-5311
▁گيم	-5312
▁ٻيڙي	-5313
▁ڪيبل	-5314
▁پهچايو	-5315
▁آزاديءَ	-5316
▁سمجهاڻي	-5317
ڏن	-5318
▁رشت	-5319
▁ريڊ	-5320
▁لام	-5321
▁مدل	-5322
▁سيلز	-5323
▁هيلو	-5324
▁يعطي	-5325
▁ادارا	-5326
▁واعدو	-5327
▁پروجيڪٽ	-5328
▁ڪانگريس	-5329
ren	-5330
طلع	-5331
▁حا	-5332
▁حُ	-5333
▁پت	-5334
▁خشڪ	-5335
▁عبد	-5336
▁معذ	-5337
▁سيشن	-5338
▁خانگي	-5339
▁مرحلن	-5340
▁دروازو	-5341
▁عيسائي	-5342
▁فيڪٽري	-5343
▁منجهان	-5344
▁باقاعده	-5345
ell	-5346
▁عث	-5347
ادري	-5348
▁ائن	-5349
▁جوش	-5350
▁ذخي	-5351
indhi	-5352
▁طبعا	-5353
▁ويٺل	-5354
▁XNUMX	-5355
▁خاتمي	-5356
▁سروسز	-5357
▁لاهور	-5358
▁استادن	-5359
▁رياستن	-5360
▁پالڻھار	-5361
فع	-5362
لڪ	-5363
▁7.	-5364
▁8.	-5365
▁ايٽ	-5366
▁دون	-5367
▁غذا	-5368
▁ڀان	-5369
▁سگنل	-5370
▁ماڻي	-5371
▁قيامت	-5372
▁ننڍپڻ	-5373
▁تنظيمن	-5374
▁ڪنيڪشن	-5375
ov	-5376
سٽس	-5377
▁بز	-5378
▁ٻا	-5379
هاها	-5380
▁اخو	-5381
▁شكل	-5382
▁ماٺ	-5383
▁امزح	-5384
▁طبقي	-5385
▁قطار	-5386
▁اسٽيج	-5387
▁اصولن	-5388
▁انتها	-5389
▁افزائي	-5390
aw	-5391
هڪ	-5392
▁((	-5393
▁ڀل	-5394
▁ريگ	-5395
▁شدت	-5396
▁المل	-5397
▁جهنگ	-5398
▁روزي	-5399
▁ساله	-5400
▁رڪاوٽ	-5401
▁خوشيءَ	-5402
▁يادگار	-5403
اڊا	-5404
بست	-5405
ناڪ	-5406
▁آفت	-5407
▁بشر	-5408
▁لها	-5409
▁نڪي	-5410
▁ايون	-5411
▁لکين	-5412
▁وڪري	-5413
▁today	-5414
▁سالگر	-5415
▁معتبر	-5416
▁اسڪولن	-5417
▁خانداني	-5418
▁سرٽيفڪيٽ	-5419
تيءَ	-5420
▁سني	-5421
▁ٿڌو	-5422
▁Next	-5423
▁آئوٽ	-5424
▁غربت	-5425
▁اخلاق	-5426
▁افيئر	-5427
▁حادثي	-5428
▁مصيبت	-5429
▁پيشڪش	-5430
▁ايپليڪيشنن	-5431
ran	-5432
صير	-5433
ياء	-5434
▁5-	-5435
▁ad	-5436
▁أخ	-5437
▁پڄ	-5438
▁خلق	-5439
▁سلط	-5440
▁ناچ	-5441
▁چئو	-5442
▁گاڏ	-5443
▁گهي	-5444
▁نامي	-5445
▁ٽيلي	-5446
▁ڪامي	-5447
▁ميزبان	-5448
حالي	-5449
▁آيس	-5450
▁ايد	-5451
▁منه	-5452
▁مٺي	-5453
▁ٿيس	-5454
▁پهلو	-5455
▁بيوقو	-5456
▁معافي	-5457
▁ڳالهائيندي	-5458
نده	-5459
▁خا	-5460
رادو	-5461
▁300	-5462
▁Pre	-5463
▁شئي	-5464
▁ڇهه	-5465
▁سارو	-5466
▁شعبن	-5467
▁ڏسان	-5468
▁مغربي	-5469
▁ڀروسو	-5470
▁ڪينسر	-5471
ٽون	-5472
▁سع	-5473
سنڌي	-5474
▁خام	-5475
▁درج	-5476
▁وڳي	-5477
▁پاؤ	-5478
▁چيٽ	-5479
▁رشتي	-5480
▁عيسى	-5481
▁نصيب	-5482
▁ورها	-5483
▁پنھن	-5484
▁سياحن	-5485
▁نظرات	-5486
▁کانئس	-5487
▁ڪرسمس	-5488
▁تبديليون	-5489
بند	-5490
جيل	-5491
ٽاپ	-5492
▁سڳ	-5493
▁ڀڄ	-5494
▁بوٽ	-5495
▁جهي	-5496
▁عرو	-5497
▁پيس	-5498
▁جناب	-5499
▁سنڌو	-5500
▁فعلا	-5501
▁متحده	-5502
▁ڊبليو	-5503
،،	-5504
يش	-5505
سپل	-5506
ڪيم	-5507
ڪيٽن	-5508
▁معن	-5509
▁چاپ	-5510
▁ڊين	-5511
▁ڏور	-5512
▁اھڙي	-5513
▁بزرگ	-5514
▁رائع	-5515
▁الحين	-5516
▁چاھيو	-5517
CL	-5518
▁£	-5519
لهه	-5520
▁ڊا	-5521
▁برگ	-5522
▁ميٽ	-5523
▁ڪتن	-5524
▁گئس	-5525
clubl	-5526
توهان	-5527
▁ريزي	-5528
▁متفق	-5529
▁ٽڪيٽ	-5530
▁اسڪين	-5531
▁نشاند	-5532
clublinks	-5533
01	-5534
ڀي	-5535
ائز	-5536
ادت	-5537
بيه	-5538
▁un	-5539
▁رك	-5540
▁وک	-5541
راحي	-5542
سٽنگ	-5543
▁ڇڪڻ	-5544
▁ڏکي	-5545
▁اديب	-5546
▁بيني	-5547
▁پراڻو	-5548
▁گهڻيون	-5549
▁رازداري	-5550
▁سالياني	-5551
قدر	-5552
▁ro	-5553
▁191	-5554
▁سلم	-5555
▁بوتل	-5556
▁عرصو	-5557
▁نازڪ	-5558
▁هڪدم	-5559
▁وٽان	-5560
▁معصوم	-5561
▁ٽرمينل	-5562
▁تبديلين	-5563
▁°	-5564
الب	-5565
▁3:	-5566
▁co	-5567
▁pl	-5568
▁سٺ	-5569
▁حذف	-5570
▁منط	-5571
▁همت	-5572
▁پيئ	-5573
▁فائن	-5574
▁ڪڏھن	-5575
▁جاپاني	-5576
ــــــــــ	-5577
▁هد	-5578
گاري	-5579
▁لهر	-5580
▁نوي	-5581
▁اڏام	-5582
▁سوين	-5583
▁شمسي	-5584
▁پئسو	-5585
witter	-5586
▁افتتاح	-5587
▁تنهنجا	-5588
▁خداوند	-5589
▁Pl	-5590
▁تخت	-5591
▁رون	-5592
▁حساس	-5593
▁هليا	-5594
▁ڪانگ	-5595
▁ڪروڙ	-5596
▁ڪيڏو	-5597
▁ترسيل	-5598
▁خيالي	-5599
▁فاطمه	-5600
▁ماريو	-5601
▁پرائم	-5602
▁پيارو	-5603
آم	-5604
▁لش	-5605
▁مٺ	-5606
▁هج	-5607
ious	-5608
بائي	-5609
▁سدا	-5610
▁سٺا	-5611
▁لچڪ	-5612
▁نفسي	-5613
▁خرابي	-5614
▁پاسورڊ	-5615
▁●	-5616
ايا	-5617
گاهه	-5618
▁ئون	-5619
▁الط	-5620
▁آھين	-5621
▁گلاس	-5622
▁ڪالهه	-5623
▁ملازمت	-5624
▁ڪيترين	-5625
شپ	-5626
▁65	-5627
ڻيون	-5628
▁عبر	-5629
▁لاس	-5630
▁ڀٽو	-5631
▁سببن	-5632
▁لکيا	-5633
▁مھين	-5634
▁هرڪو	-5635
▁ويزا	-5636
▁ٿورا	-5637
▁تعاليٰ	-5638
▁نشاندهي	-5639
▁يادگيري	-5640
<<	-5641
ee	-5642
ws	-5643
ide	-5644
ust	-5645
▁44	-5646
سيءَ	-5647
▁آهه	-5648
▁ريس	-5649
▁زيا	-5650
▁عڪس	-5651
▁ماع	-5652
▁هوم	-5653
▁نارا	-5654
▁يوسف	-5655
▁پاسخ	-5656
▁پرور	-5657
▁ڪوڪي	-5658
▁ڳائڻ	-5659
▁عيسيٰ	-5660
▁تصويري	-5661
▁ٽريننگ	-5662
up	-5663
ائڊ	-5664
زون	-5665
ويل	-5666
▁ذو	-5667
▁ندس	-5668
▁2000	-5669
▁ايپس	-5670
▁بقول	-5671
▁حرام	-5672
▁مئني	-5673
▁چهرو	-5674
▁ڪمال	-5675
▁جستجو	-5676
▁فرمان	-5677
▁پليئر	-5678
▁خوفناڪ	-5679
▁دروازي	-5680
▁هوڏانهن	-5681
▁ٽپ	-5682
▁هيء	-5683
▁يهو	-5684
▁ڪڍڻ	-5685
▁رهيس	-5686
▁رينج	-5687
▁رپيا	-5688
▁معروف	-5689
▁تحياتي	-5690
▁قيمتون	-5691
▁۳	-5692
are	-5693
▁sm	-5694
▁وڇ	-5695
▁بيگ	-5696
▁رڪن	-5697
▁What	-5698
▁احنا	-5699
▁بران	-5700
▁رستن	-5701
▁رواج	-5702
▁رويي	-5703
▁رياض	-5704
▁كلها	-5705
▁مزاج	-5706
▁چوٽي	-5707
▁منتخب	-5708
▁پائيدار	-5709
اپور	-5710
▁فحش	-5711
▁واح	-5712
ووووو	-5713
يارين	-5714
▁چنين	-5715
▁برآمد	-5716
▁عارضي	-5717
▁عمران	-5718
عب	-5719
یم	-5720
tic	-5721
جهي	-5722
دام	-5723
▁أك	-5724
▁وأ	-5725
گوار	-5726
▁موڙ	-5727
▁ايڏي	-5728
▁حافظ	-5729
▁خطاب	-5730
▁رسمي	-5731
▁محروم	-5732
▁ڪمائي	-5733
▁چونڊيل	-5734
▁55	-5735
▁US	-5736
▁کُ	-5737
الفت	-5738
دانن	-5739
ھائي	-5740
▁اجن	-5741
▁رمض	-5742
▁سکي	-5743
اليشن	-5744
▁ڏسجي	-5745
▁قيادت	-5746
▁گاڏين	-5747
▁طالبان	-5748
▁ڇوڪرين	-5749
▁اميدوار	-5750
▁انسٽاليشن	-5751
av	-5752
mp	-5753
▁٢	-5754
ock	-5755
ost	-5756
اين	-5757
▁لَ	-5758
اااي	-5759
قائي	-5760
▁عمري	-5761
▁لاڙڪ	-5762
▁ايجاد	-5763
▁لائيٽ	-5764
▁پرهيز	-5765
▁حالانڪ	-5766
▁لائبري	-5767
▁مجموعو	-5768
▁مخالفت	-5769
▁سنگاپور	-5770
خه	-5771
▁١	-5772
▁Ma	-5773
▁[.	-5774
▁رڙ	-5775
▁iOS	-5776
▁وٺن	-5777
▁صحبت	-5778
▁ٽرمپ	-5779
▁دهشتگردي	-5780
ايي	-5781
▁00	-5782
▁پی	-5783
▁آري	-5784
▁بان	-5785
▁صار	-5786
▁چال	-5787
▁ڪٽن	-5788
▁بنجي	-5789
▁خالد	-5790
▁فلمن	-5791
▁ماما	-5792
▁پهرئين	-5793
▁Twitter	-5794
ئت	-5795
زد	-5796
سڪر	-5797
هند	-5798
يڪر	-5799
▁عد	-5800
▁آٽو	-5801
▁اوي	-5802
▁سڏي	-5803
▁عمو	-5804
▁وهم	-5805
▁ڇهن	-5806
▁جوڙو	-5807
▁جپان	-5808
▁رستا	-5809
▁ضايع	-5810
▁مندر	-5811
▁فنڪار	-5812
▁نمونو	-5813
▁بلوچستان	-5814
▁تأ	-5815
▁ذا	-5816
▁شخ	-5817
▁عط	-5818
▁مشن	-5819
▁ميه	-5820
▁ٽتو	-5821
▁ايرا	-5822
▁شهرت	-5823
▁مواص	-5824
▁هرگز	-5825
منهنجي	-5826
▁ڀائرن	-5827
▁ڊيگهه	-5828
▁برائوزر	-5829
▁ڪلوميٽر	-5830
ذر	-5831
ڱو	-5832
ايش	-5833
▁أح	-5834
▁اتو	-5835
▁مرو	-5836
▁خانو	-5837
▁عارف	-5838
▁مادر	-5839
▁وفاد	-5840
▁گلاب	-5841
▁فلمون	-5842
▁نهاري	-5843
▁ڪرنسي	-5844
▁ڏنائين	-5845
▁ڪراچيءَ	-5846
ــــــــــــ	-5847
ri	-5848
▁شود	-5849
▁شديد	-5850
▁قبضي	-5851
▁مذاق	-5852
▁پبلڪ	-5853
▁پناه	-5854
▁ڊگري	-5855
▁اعزاز	-5856
▁جريان	-5857
▁ڏسندو	-5858
▁ڳوليو	-5859
▁امڪاني	-5860
▁خبردار	-5861
فري	-5862
علام	-5863
▁ئين	-5864
▁الل	-5865
▁اھم	-5866
▁ريپ	-5867
▁شفا	-5868
▁فلي	-5869
اريءَ	-5870
▁2009	-5871
▁آيون	-5872
▁اِها	-5873
▁ڪھڙي	-5874
▁جواني	-5875
▁فائدن	-5876
▁پوندا	-5877
َـ	-5878
نيت	-5879
▁9.	-5880
▁رٽ	-5881
▁غذ	-5882
صولي	-5883
▁تعل	-5884
▁جدت	-5885
▁پتي	-5886
▁ڀڄي	-5887
▁ڊيم	-5888
▁راحت	-5889
▁عرفت	-5890
▁گادي	-5891
▁بعدين	-5892
▁دائري	-5893
▁سمورا	-5894
▁ڏنيون	-5895
▁نظرثاني	-5896
▁پڙهندڙن	-5897
▁37	-5898
هارن	-5899
▁صاد	-5900
▁عدم	-5901
▁تيئن	-5902
▁جارج	-5903
▁حاجي	-5904
▁ريسٽ	-5905
▁خخخخخ	-5906
▁گلوبل	-5907
▁مظاهرو	-5908
زيل	-5909
▁ضد	-5910
▁ڏِ	-5911
▁جڳھ	-5912
▁ديد	-5913
▁مشر	-5914
▁وجه	-5915
▁ڦير	-5916
▁کٽي	-5917
▁مارڪ	-5918
▁منڊي	-5919
▁هائي	-5920
▁پرنٽ	-5921
▁پيشه	-5922
▁آگاهي	-5923
▁اولهه	-5924
▁قيمتن	-5925
ang	-5926
ميد	-5927
يڪا	-5928
ڪٽري	-5929
▁آئر	-5930
▁درس	-5931
▁مبت	-5932
▁مھر	-5933
▁پلگ	-5934
▁ڏٺم	-5935
▁جوڳي	-5936
▁جڳهن	-5937
▁قاضي	-5938
▁منها	-5939
▁نازل	-5940
▁يهمك	-5941
▁ڏيون	-5942
▁هيٺيون	-5943
ob	-5944
▁}	-5945
ليد	-5946
▁39	-5947
▁4:	-5948
▁be	-5949
▁باا	-5950
▁ڪتا	-5951
▁رکيا	-5952
▁شفاف	-5953
▁فروغ	-5954
▁معرف	-5955
▁موقف	-5956
▁مقبول	-5957
▁بندوبست	-5958
ug	-5959
ial	-5960
oft	-5961
ڪڙي	-5962
▁أم	-5963
▁می	-5964
▁نَ	-5965
▁الاس	-5966
▁بايد	-5967
▁صفحن	-5968
▁نيون	-5969
▁هئين	-5970
▁وارث	-5971
▁سمجھي	-5972
▁سپاهي	-5973
▁صديءَ	-5974
▁ملندڙ	-5975
▁ميلاپ	-5976
▁واشنگ	-5977
▁ويندڙ	-5978
▁ڪشمير	-5979
▁حفاظتي	-5980
▁پروگرامن	-5981
سيد	-5982
كات	-5983
▁by	-5984
▁192	-5985
▁بچت	-5986
▁پڙه	-5987
▁ڪتب	-5988
▁دلين	-5989
▁مخلو	-5990
▁ملاح	-5991
▁ڪيني	-5992
▁گھڻا	-5993
▁اينٽي	-5994
▁بدلجي	-5995
▁شيطان	-5996
▁ناراض	-5997
▁ڪيريئر	-5998
▁پرائمري	-5999
ذب	-6000
خلص	-6001
▁HT	-6002
▁اذ	-6003
▁اڱ	-6004
ورتي	-6005
▁The	-6006
▁اڀر	-6007
▁بست	-6008
▁رقص	-6009
▁مشڪ	-6010
▁ڏٺا	-6011
▁رولي	-6012
▁سوار	-6013
▁عادت	-6014
ريائين	-6015
▁سمجھڻ	-6016
▁ٻڌاءِ	-6017
ضع	-6018
▁א	-6019
▁Me	-6020
▁بقي	-6021
▁سپل	-6022
▁آهي۔	-6023
▁اٽلي	-6024
▁فورس	-6025
▁ننڍا	-6026
▁پئسن	-6027
▁گردش	-6028
▁جيئرو	-6029
▁سمجهو	-6030
▁مادري	-6031
▁گائيڊ	-6032
جم	-6033
حق	-6034
خذ	-6035
ید	-6036
يڪو	-6037
▁عش	-6038
▁لِ	-6039
▁نڀ	-6040
▁(3)	-6041
▁وهن	-6042
▁ڏات	-6043
ااااي	-6044
▁انٽي	-6045
▁تابع	-6046
▁سرحد	-6047
▁ظاھر	-6048
▁ملوث	-6049
▁پيپر	-6050
▁crypt	-6051
▁وٺندا	-6052
▁گذريو	-6053
▁ھوندو	-6054
▁ايجنسي	-6055
▁ڳوليندا	-6056
▁اليڪٽرانڪ	-6057
▁انجنيئرنگ	-6058
آل	-6059
ure	-6060
▁::	-6061
▁واب	-6062
▁وهو	-6063
▁ادائ	-6064
▁موٽڻ	-6065
▁ڪيڏي	-6066
▁فائون	-6067
▁منتظر	-6068
▁ڪچهري	-6069
▁ڳاڙهو	-6070
▁ميونسپل	-6071
ph	-6072
▁۴	-6073
▁ne	-6074
گراف	-6075
▁ترق	-6076
▁تعي	-6077
▁مام	-6078
▁وڻن	-6079
▁بيٺي	-6080
▁ميرا	-6081
▁وحده	-6082
▁وربي	-6083
▁ٿيڻو	-6084
▁ڏسون	-6085
▁ڪٽنب	-6086
▁Whats	-6087
▁الضحك	-6088
▁تباهي	-6089
▁تهذيب	-6090
▁خوابن	-6091
▁فضيلت	-6092
▁ماشاء	-6093
▁گريجو	-6094
▁سراسري	-6095
▁عبدالو	-6096
▁نيويارڪ	-6097
▁ٺاهيندڙن	-6098
زيم	-6099
able	-6100
▁ابن	-6101
▁انچ	-6102
علامه	-6103
▁آثار	-6104
▁استن	-6105
▁جڙيل	-6106
▁آئيني	-6107
▁اسٽاپ	-6108
▁دٻاءُ	-6109
▁معمول	-6110
▁ادائگي	-6111
▁اسٽريٽ	-6112
▁ٽيڪنيڪل	-6113
فون	-6114
▁Bl	-6115
▁ڇت	-6116
اليت	-6117
▁حجم	-6118
▁مٿا	-6119
▁سچائي	-6120
▁پويون	-6121
▁فائرنگ	-6122
ST	-6123
▁z	-6124
oun	-6125
َرَ	-6126
▁اا	-6127
▁بڇ	-6128
▁خم	-6129
▁برچ	-6130
▁عزم	-6131
▁نيم	-6132
▁ھنن	-6133
earch	-6134
بوليت	-6135
▁بيحد	-6136
▁خبرن	-6137
▁قولي	-6138
▁چورس	-6139
▁گاهه	-6140
▁تناسب	-6141
▁جذبات	-6142
▁موقعن	-6143
▁چوندي	-6144
▁ڏهاڪي	-6145
▁احتياط	-6146
▁همراهه	-6147
▁اشتهارن	-6148
▁پروڊڪٽس	-6149
▁ڪيڏانهن	-6150
▁اپليڪيشن	-6151
▁حيدرآباد	-6152
8.	-6153
ُر	-6154
ھه	-6155
▁طي	-6156
▁ڙا	-6157
▁سجا	-6158
▁ليو	-6159
▁نقش	-6160
▁وڻي	-6161
▁بلين	-6162
▁جملو	-6163
▁ميري	-6164
▁نامو	-6165
▁بينڪن	-6166
▁سينيٽ	-6167
▁معقول	-6168
▁ڀائيو	-6169
▁ڪرپشن	-6170
ريه	-6171
ارٽي	-6172
▁حسب	-6173
▁ولو	-6174
▁ٻلي	-6175
▁2007	-6176
▁مجازي	-6177
▁گڏجاڻي	-6178
EM	-6179
ظه	-6180
ime	-6181
اڪر	-6182
ورس	-6183
▁مڇ	-6184
افين	-6185
▁اڇو	-6186
▁رضا	-6187
▁ڄام	-6188
vious	-6189
▁جائز	-6190
▁جمعي	-6191
▁جنگي	-6192
▁نعمت	-6193
▁ڪلهه	-6194
▁ڪلچر	-6195
▁رابطن	-6196
▁سوسائ	-6197
▁پکڙيل	-6198
▁ڏينداسين	-6199
▁ايسوسيئيشن	-6200
ايم	-6201
ميز	-6202
▁An	-6203
گزين	-6204
▁400	-6205
▁فكر	-6206
▁لمي	-6207
▁مٿس	-6208
▁هير	-6209
▁ياح	-6210
ختيار	-6211
▁توازن	-6212
▁رمضان	-6213
▁سلامتي	-6214
▁پئماني	-6215
▁چمڪندڙ	-6216
▁استنبول	-6217
▁اونهاري	-6218
age	-6219
ail	-6220
امين	-6221
▁آبي	-6222
▁جاب	-6223
▁راجا	-6224
▁مارو	-6225
▁سگهجن	-6226
▁موقعا	-6227
▁نظريو	-6228
▁ناڪامي	-6229
▁فائونڊيشن	-6230
5)	-6231
دى	-6232
act	-6233
فين	-6234
▁Sp	-6235
▁حيو	-6236
▁دفن	-6237
▁لاي	-6238
▁ولد	-6239
▁جانب	-6240
▁قاتل	-6241
▁نجات	-6242
▁جهازن	-6243
▁ذخيرو	-6244
▁پايان	-6245
▁سيکاري	-6246
▁مضمونن	-6247
▁پھريون	-6248
▁چئلينج	-6249
ازم	-6250
اهت	-6251
▁se	-6252
▁وك	-6253
▁تبي	-6254
▁احسن	-6255
▁تكون	-6256
▁جسٽس	-6257
▁جيئڻ	-6258
▁دفاع	-6259
▁دٻاء	-6260
▁زوال	-6261
▁لائي	-6262
▁هيرو	-6263
▁سرگرم	-6264
▁ڇڏيون	-6265
▁ڊولپر	-6266
▁صوبائي	-6267
▁بيمارين	-6268
راه	-6269
▁شئ	-6270
▁گز	-6271
coin	-6272
▁Mic	-6273
▁اوز	-6274
▁ريز	-6275
▁ڀرڻ	-6276
▁ويسٽ	-6277
▁پاڻم	-6278
▁پردي	-6279
▁الحمد	-6280
▁اهوئي	-6281
▁ديوار	-6282
▁ڪوريا	-6283
▁پروسيس	-6284
▁ميزباني	-6285
▁پارٽيءَ	-6286
أي	-6287
روح	-6288
يڪس	-6289
▁لُ	-6290
▁خوا	-6291
▁1000	-6292
▁قابو	-6293
▁وڃڻو	-6294
▁درآمد	-6295
▁صحافي	-6296
▁منجهه	-6297
▁اڄڪلهه	-6298
وَ	-6299
اعت	-6300
جيڪ	-6301
مول	-6302
ويه	-6303
▁آڱ	-6304
▁نيڻ	-6305
▁ورت	-6306
▁مقدس	-6307
▁نانگ	-6308
▁تعالى	-6309
▁ميٽرو	-6310
▁بدلائي	-6311
▁ماڻهون	-6312
7">	-6313
ast	-6314
our	-6315
منٽ	-6316
يزن	-6317
▁he	-6318
▁te	-6319
▁چيس	-6320
▁اندي	-6321
▁بدون	-6322
▁وسري	-6323
▁چئجي	-6324
▁اجنبي	-6325
▁برچسب	-6326
▁مهينو	-6327
▁ڀلائي	-6328
▁عدد	-6329
▁هوش	-6330
XNUMX	-6331
مينان	-6332
▁سعيد	-6333
▁ڪپڙي	-6334
▁ڪڍيو	-6335
▁داخلي	-6336
▁مليون	-6337
▁زندگيء	-6338
▁مديريت	-6339
▁اطمينان	-6340
تما	-6341
▁47	-6342
▁Ad	-6343
▁فئ	-6344
▁مچ	-6345
افيه	-6346
▁اله	-6347
▁اوت	-6348
▁زلز	-6349
▁ستن	-6350
▁ٽيپ	-6351
▁ڪٽڻ	-6352
▁ناري	-6353
▁هيئن	-6354
urname	-6355
▁اسٽاف	-6356
▁اڄوڪي	-6357
▁بنائي	-6358
▁دراصل	-6359
▁بيوقوف	-6360
▁قرباني	-6361
▁پيروزي	-6362
▁اثرائتي	-6363
▁ٹ	-6364
App	-6365
هوا	-6366
اسون	-6367
عليه	-6368
▁زيو	-6369
▁قطر	-6370
▁پوڻ	-6371
▁اضحك	-6372
▁حقوق	-6373
▁ڪائي	-6374
▁گراف	-6375
▁ويچار	-6376
▁اختيارين	-6377
▁پاڻمرادو	-6378
ـِ	-6379
يام	-6380
▁شغ	-6381
▁غي	-6382
▁هڙ	-6383
▁يف	-6384
ائتو	-6385
▁اُڀ	-6386
▁زرا	-6387
▁محد	-6388
▁ٽار	-6389
▁اغوا	-6390
▁نديم	-6391
▁ڪوري	-6392
اااااا	-6393
▁اهڙين	-6394
▁رعايت	-6395
▁سمورن	-6396
▁فائلن	-6397
▁يونان	-6398
▁پناهه	-6399
▁ڳوڙهي	-6400
▁ڊوائيسز	-6401
30	-6402
خط	-6403
▁ٍ	-6404
ساب	-6405
▁فرح	-6406
▁پيڊ	-6407
▁جھڙو	-6408
▁لشڪر	-6409
▁نڪتل	-6410
▁سلطنت	-6411
▁سڃاڻي	-6412
▁مرحلو	-6413
▁سنجيده	-6414
▁هيهيهي	-6415
▁خوشگوار	-6416
كو	-6417
اڪا	-6418
لعب	-6419
▁am	-6420
▁تض	-6421
▁کپ	-6422
▁,,,	-6423
▁ائڻ	-6424
▁الأ	-6425
▁پُڇ	-6426
▁گند	-6427
▁بزنس	-6428
▁ساحل	-6429
▁ضمير	-6430
▁فائي	-6431
▁ڌرين	-6432
▁ڪوپن	-6433
جيڪڏهن	-6434
▁لڳندي	-6435
▁مايوس	-6436
▁مٽائي	-6437
▁اڳواڻي	-6438
▁فلسطين	-6439
▁ڇڏيندي	-6440
▁Previous	-6441
ip	-6442
ok	-6443
3">	-6444
ana	-6445
امت	-6446
ڊمي	-6447
ڊيم	-6448
▁iz	-6449
شيار	-6450
▁Bit	-6451
▁بير	-6452
▁جِي	-6453
▁طلع	-6454
▁فيڊ	-6455
▁ڪٽي	-6456
▁بعدي	-6457
▁روئڻ	-6458
▁يعنى	-6459
▁گهوٽ	-6460
▁بغاوت	-6461
▁سواري	-6462
▁وڻندڙ	-6463
▁انقلابي	-6464
TE	-6465
واب	-6466
▁HD	-6467
CLNT	-6468
يعني	-6469
▁Mar	-6470
▁فال	-6471
▁ڏوه	-6472
▁سياح	-6473
▁سکيو	-6474
▁ڄمار	-6475
▁SCLNT	-6476
▁شكلها	-6477
▁نسبتا	-6478
▁پوڙهي	-6479
▁ڀٽائي	-6480
▁ڳوڙها	-6481
▁امارات	-6482
▁پورهيت	-6483
▁سهولتون	-6484
▁چاهيندو	-6485
▁انتظاميه	-6486
▁ْ	-6487
▁€	-6488
توي	-6489
ڪشي	-6490
▁ic	-6491
ible	-6492
▁man	-6493
▁آيد	-6494
▁تست	-6495
▁سرد	-6496
▁لڳن	-6497
▁مرة	-6498
▁مرک	-6499
▁مڃي	-6500
▁ايسٽ	-6501
▁حامي	-6502
▁حاڪم	-6503
▁ريلي	-6504
▁شپنگ	-6505
▁پيٽر	-6506
▁WhatsApp	-6507
>>	-6508
ram	-6509
آآآ	-6510
▁we	-6511
▁ڌا	-6512
▁بيس	-6513
▁كلم	-6514
▁تحفا	-6515
▁جملي	-6516
▁دوزخ	-6517
▁رائي	-6518
▁راهي	-6519
▁موهن	-6520
▁گرام	-6521
▁شناسي	-6522
▁مريضن	-6523
▁چوٿون	-6524
▁ارسالي	-6525
▁ايراضي	-6526
▁ريڪارڊ	-6527
▁مارڪيٽن	-6528
▁واشنگٽن	-6529
▁ڏيکاريل	-6530
▁سافٽويئر	-6531
ld	-6532
آء	-6533
▁چت	-6534
▁برش	-6535
▁جدي	-6536
▁سُر	-6537
▁سکو	-6538
▁وٽس	-6539
▁ايڪٽ	-6540
▁دارو	-6541
▁رحمت	-6542
▁فيهم	-6543
▁ڄائو	-6544
جهڙائي	-6545
▁انڊين	-6546
▁ساٿين	-6547
▁پيوند	-6548
▁گناهه	-6549
▁وياسين	-6550
▁ڪاميٽي	-6551
▁اينڊرائيڊس	-6552
کس	-6553
ريڊ	-6554
▁شھ	-6555
▁بول	-6556
▁راڳ	-6557
▁غزل	-6558
▁معج	-6559
▁ٺهي	-6560
▁پاڙ	-6561
▁اچان	-6562
▁رسيد	-6563
▁ريال	-6564
▁ساخت	-6565
▁نياز	-6566
▁ٽولي	-6567
▁ڏيڻو	-6568
▁اينڪس	-6569
▁سگريٽ	-6570
▁پڙهيل	-6571
▁آفيسرن	-6572
▁سرگرميون	-6573
▁لائبريري	-6574
ud	-6575
▁ؤ	-6576
انج	-6577
▁):	-6578
▁تذ	-6579
ريشن	-6580
لايو	-6581
ورنس	-6582
▁آڪس	-6583
▁برع	-6584
▁سمو	-6585
▁سمي	-6586
▁انگل	-6587
▁سگهه	-6588
▁شيشي	-6589
▁پڌرو	-6590
▁ڏاڍا	-6591
▁ادامه	-6592
▁الدين	-6593
▁بلڊنگ	-6594
▁يقيناً	-6595
▁روشنيءَ	-6596
▁سربراهه	-6597
▁عبدالوحيد	-6598
ئرس	-6599
▁es	-6600
▁فس	-6601
،000	-6602
اڻون	-6603
رفيس	-6604
عدين	-6605
▁ريٽ	-6606
▁زخم	-6607
▁ننگ	-6608
▁ٽوڪ	-6609
▁ڦري	-6610
▁بنات	-6611
▁رويو	-6612
▁فيچر	-6613
▁مدري	-6614
▁هانگ	-6615
▁وحدت	-6616
▁ٿورڙي	-6617
▁لاڳاپا	-6618
▁ـــــــــــــــ	-6619
4.	-6620
يڪي	-6621
▁Ar	-6622
▁بِ	-6623
▁150	-6624
▁طبق	-6625
▁ماي	-6626
▁ميم	-6627
▁هري	-6628
▁ٻوڏ	-6629
▁پھچ	-6630
▁ڪوش	-6631
▁المن	-6632
▁اندا	-6633
▁تجزي	-6634
▁حتمي	-6635
▁سنگت	-6636
▁ڇپيل	-6637
رانداز	-6638
▁فائنل	-6639
▁Search	-6640
▁پروفائل	-6641
▁نظرانداز	-6642
▁هك	-6643
▁يي	-6644
▁دول	-6645
▁ليا	-6646
▁تجنن	-6647
▁نقشو	-6648
▁وٺندڙ	-6649
▁پالتو	-6650
▁پھرين	-6651
▁العالم	-6652
▁غلطيون	-6653
▁پرائيو	-6654
▁ڄاڻايل	-6655
▁گهريلو	-6656
▁اسٽوڊيو	-6657
ُـ	-6658
که	-6659
ake	-6660
نيد	-6661
▁کی	-6662
▁***	-6663
▁dis	-6664
▁امل	-6665
▁اڏي	-6666
▁مڪي	-6667
▁كانت	-6668
▁هيچي	-6669
▁ٻڌڻي	-6670
▁ٽيوب	-6671
▁لائيو	-6672
▁پرومو	-6673
▁گهٽجي	-6674
▁سوسائٽي	-6675
6.	-6676
uc	-6677
سار	-6678
گان	-6679
▁تط	-6680
▁قم	-6681
سٽنٽ	-6682
لانا	-6683
▁Pro	-6684
▁wor	-6685
▁ارد	-6686
▁اعج	-6687
▁خلو	-6688
▁دخل	-6689
▁ستر	-6690
▁عاج	-6691
▁ممت	-6692
▁منش	-6693
▁دائمي	-6694
▁فيصلا	-6695
▁ڊائري	-6696
▁ايڊيٽر	-6697
▁مصنوعي	-6698
▁مولانا	-6699
▁دستاويزن	-6700
ثال	-6701
شنر	-6702
▁IP	-6703
▁ڊس	-6704
▁عيب	-6705
▁ڪبو	-6706
▁سائٽ	-6707
▁شخصي	-6708
▁معنا	-6709
▁مفاد	-6710
▁وچان	-6711
▁ضابطن	-6712
▁ڪيفيت	-6713
▁ھوندي	-6714
▁اڪيڊمي	-6715
▁بدلائڻ	-6716
--	-6717
cy	-6718
بس	-6719
فتو	-6720
واٽ	-6721
▁5:	-6722
▁طو	-6723
▁خلص	-6724
▁ساد	-6725
▁سهڻ	-6726
▁سچل	-6727
▁امور	-6728
▁اوپن	-6729
▁رومن	-6730
▁زرعي	-6731
▁سندي	-6732
▁ٻاھر	-6733
rosoft	-6734
▁سگهيس	-6735
▁يعطيك	-6736
▁ڀڃڪڙي	-6737
▁آمريڪن	-6738
▁امريڪا	-6739
▁برازيل	-6740
▁زرداري	-6741
▁موڪليل	-6742
▁ڪئناڊا	-6743
▁جوابدارن	-6744
▁خوبصورتي	-6745
▁۵	-6746
ami	-6747
ian	-6748
ick	-6749
نڊي	-6750
▁نخ	-6751
▁ion	-6752
▁بائ	-6753
▁فهم	-6754
▁هول	-6755
▁Home	-6756
▁اوند	-6757
▁بحري	-6758
▁صادق	-6759
▁فرار	-6760
▁مٿاڇ	-6761
▁ياري	-6762
▁ڪرسٽ	-6763
▁گھڻن	-6764
▁سگهين	-6765
▁مائٽن	-6766
▁نصيحت	-6767
▁نظريي	-6768
▁پاؤڊر	-6769
▁ڊپارٽ	-6770
▁ڏيندس	-6771
▁ٻوليون	-6772
ضم	-6773
▁ٌ	-6774
▁♥	-6775
gle	-6776
صول	-6777
ڻين	-6778
▁Sh	-6779
▁يآ	-6780
▁اٿن	-6781
▁روئ	-6782
▁چشم	-6783
▁بھتر	-6784
▁معاو	-6785
▁انهيء	-6786
▁رٽائر	-6787
▁زراعت	-6788
▁صارفن	-6789
▁غلامي	-6790
▁پگهار	-6791
▁ڪونھي	-6792
▁حڪومتي	-6793
▁خوشحالي	-6794
▁ڪارپوريٽ	-6795
▁Microsoft	-6796
ضل	-6797
وين	-6798
حدود	-6799
ديءَ	-6800
ولتن	-6801
▁بڻي	-6802
▁تيم	-6803
▁ويه	-6804
▁کاڌ	-6805
▁رليز	-6806
▁ليٽر	-6807
▁اسٽين	-6808
▁رواني	-6809
▁موڪلن	-6810
▁ڪمشنر	-6811
▁ڪوششن	-6812
▁اسپيڪر	-6813
▁انٽرفيس	-6814
▁اونداهي	-6815
لل	-6816
بيا	-6817
ڪٿي	-6818
▁85	-6819
▁شک	-6820
="0.	-6821
▁ent	-6822
▁مٿو	-6823
▁هڻڻ	-6824
▁تشخي	-6825
▁هلڪو	-6826
▁چالو	-6827
▁تجربا	-6828
▁حوصلا	-6829
▁ضابطو	-6830
▁مهارت	-6831
▁حياتيءَ	-6832
▁اميدوارن	-6833
lo	-6834
ass	-6835
تكم	-6836
نيه	-6837
▁1)	-6838
▁عص	-6839
▁اقو	-6840
▁شهن	-6841
▁نعم	-6842
▁ڊوي	-6843
▁تارن	-6844
▁ٻوٽي	-6845
▁خاتمو	-6846
▁ساڳيا	-6847
▁سمورو	-6848
▁غيرها	-6849
▁مالڪن	-6850
▁ڪوڪيز	-6851
▁ٻڌايان	-6852
aj	-6853
آر	-6854
بود	-6855
دات	-6856
▁دن	-6857
▁چَ	-6858
يوار	-6859
▁جلو	-6860
▁حيا	-6861
▁پُر	-6862
▁ھيو	-6863
▁حملن	-6864
▁زينب	-6865
▁صوفي	-6866
▁نيري	-6867
▁سرواڻ	-6868
▁مبتلا	-6869
▁مشكور	-6870
▁ڇپائي	-6871
▁گروهه	-6872
▁سمجهندا	-6873
▁انتظاميا	-6874
ويب	-6875
ويت	-6876
ڀرو	-6877
▁تِ	-6878
▁يش	-6879
بارن	-6880
▁ائپ	-6881
▁ابا	-6882
▁اخذ	-6883
▁ذمي	-6884
▁صنف	-6885
▁لوڻ	-6886
▁محت	-6887
▁مھل	-6888
▁ودي	-6889
▁جمال	-6890
▁دوره	-6891
▁مجلس	-6892
▁پهتا	-6893
▁ڀاڱي	-6894
▁بلاول	-6895
▁اعتراف	-6896
▁خصوصيت	-6897
▁سپلائر	-6898
▁لچڪدار	-6899
▁مئنيجر	-6900
▁ڪهاڻين	-6901
▁تقريباً	-6902
▁لامحدود	-6903
▁مھرباني	-6904
▁نشانيون	-6905
فة	-6906
ُون	-6907
▁آت	-6908
▁ٽئ	-6909
form	-6910
فارم	-6911
وليت	-6912
۔۔۔۔	-6913
▁Con	-6914
▁اري	-6915
▁تلو	-6916
▁شرا	-6917
▁شفت	-6918
▁شيڊ	-6919
▁ميد	-6920
▁کرد	-6921
▁سوني	-6922
▁سڪون	-6923
▁غالب	-6924
▁مائٽ	-6925
▁نامن	-6926
▁نيرو	-6927
▁پهتي	-6928
▁Bible	-6929
▁سمجهن	-6930
▁مسڪين	-6931
▁سهولتن	-6932
▁چونڊون	-6933
فس	-6934
▁ځ	-6935
▁🙂	-6936
ted	-6937
سرچ	-6938
▁دخ	-6939
پریس	-6940
▁سمر	-6941
▁فنا	-6942
▁هدف	-6943
▁ووڊ	-6944
▁ڪنن	-6945
اگرام	-6946
▁آرمي	-6947
▁اجمل	-6948
▁ظالم	-6949
▁قادر	-6950
▁يعين	-6951
▁پرسپ	-6952
▁کاري	-6953
▁ڪلين	-6954
▁انجمن	-6955
▁محترم	-6956
▁ويڙهه	-6957
▁آزمائشي	-6958
▁پاسپورٽ	-6959
صور	-6960
▁تک	-6961
▁نز	-6962
▁😂😂	-6963
ress	-6964
سلام	-6965
▁جبر	-6966
▁لکن	-6967
▁هنر	-6968
▁غيره	-6969
▁مثلا	-6970
▁نفسك	-6971
▁وائر	-6972
▁والا	-6973
▁پايه	-6974
▁ابتدا	-6975
▁ريسرچ	-6976
▁عثمان	-6977
▁ٻولهه	-6978
▁گليڪس	-6979
▁ڳالهائيندو	-6980
ضا	-6981
وڌ	-6982
الٽ	-6983
▁us	-6984
▁آآ	-6985
شاهه	-6986
▁امڙ	-6987
▁باش	-6988
▁فهد	-6989
▁نيپ	-6990
▁پها	-6991
▁گهم	-6992
▁اخوي	-6993
▁جذبي	-6994
▁فاتح	-6995
▁مدار	-6996
▁مرسي	-6997
▁پيسا	-6998
▁ڳوٺن	-6999
▁دستخط	-7000
▁لوازم	-7001
▁لکندو	-7002
▁مٽيءَ	-7003
▁واسطي	-7004
▁اختياري	-7005
▁حالانڪه	-7006
▁3)	-7007
▁LG	-7008
▁کس	-7009
ment	-7010
▁اُٿ	-7011
▁حدن	-7012
▁صدق	-7013
▁ميگ	-7014
▁هدي	-7015
▁کٽڻ	-7016
▁ڳڻپ	-7017
▁اوسط	-7018
▁تدري	-7019
▁دهلي	-7020
▁ورتا	-7021
▁ونڊو	-7022
▁Awami	-7023
▁عليهم	-7024
▁ليبار	-7025
▁ملندا	-7026
▁ڪندين	-7027
▁گورنر	-7028
▁برابري	-7029
▁ميوزيم	-7030
▁صلاحڪار	-7031
كة	-7032
▁43	-7033
▁De	-7034
▁ڇي	-7035
▁آصف	-7036
▁بدو	-7037
▁مجن	-7038
▁ورڈ	-7039
▁ڪيڪ	-7040
نديون	-7041
▁بچاء	-7042
▁ناپس	-7043
▁واٽر	-7044
▁ويهڻ	-7045
▁اسپيڊ	-7046
▁Sindhi	-7047
▁اخبارن	-7048
▁قانونن	-7049
▁ورهائي	-7050
▁آڌ	-7051
▁for	-7052
▁اكل	-7053
▁قرب	-7054
▁ليٽ	-7055
▁لڪي	-7056
▁گيٽ	-7057
گزاري	-7058
▁Awaz	-7059
▁بلاش	-7060
▁رپور	-7061
▁سالم	-7062
▁سليم	-7063
▁ناصر	-7064
▁نگاه	-7065
▁ٽتوٽ	-7066
▁ڪارا	-7067
▁ڪپڙو	-7068
▁نشانو	-7069
▁وصولي	-7070
▁اسسٽنٽ	-7071
▁واڌارو	-7072
▁پرواهه	-7073
__	-7074
ڪم	-7075
ضيه	-7076
آئون	-7077
استي	-7078
▁سحر	-7079
▁منا	-7080
▁پڪو	-7081
▁چپن	-7082
▁ڪڙي	-7083
▁ڪڻڪ	-7084
▁گار	-7085
▁روبو	-7086
▁ماشى	-7087
▁اڳئين	-7088
▁بالغن	-7089
▁ديگري	-7090
▁مزدور	-7091
▁اوچائي	-7092
▁هوشيار	-7093
▁کانپوء	-7094
▁انشورنس	-7095
▁ورڈپریس	-7096
ِل	-7097
ank	-7098
ھون	-7099
▁6:	-7100
▁98	-7101
▁دى	-7102
▁ڊن	-7103
اتار	-7104
ارتن	-7105
طيني	-7106
▁(4)	-7107
▁بيه	-7108
▁بچه	-7109
▁حرا	-7110
▁سڪي	-7111
▁ٽول	-7112
▁پهت	-7113
▁ڪجو	-7114
▁اسما	-7115
▁اسوي	-7116
▁اُھي	-7117
▁بيبي	-7118
▁شوقين	-7119
▁معائن	-7120
▁معاون	-7121
▁هونءَ	-7122
▁ھدايت	-7123
▁بنيادن	-7124
▁انسٽاگرام	-7125
كون	-7126
▁38	-7127
▁Al	-7128
▁يَ	-7129
▁ڏُ	-7130
سيون	-7131
ناطي	-7132
▁اڻو	-7133
▁ترڪ	-7134
▁عذر	-7135
▁لبن	-7136
▁ميڙ	-7137
▁مڃڻ	-7138
▁بدين	-7139
▁تبلي	-7140
▁شويه	-7141
▁لوگو	-7142
▁ڊيمو	-7143
▁ڌيءُ	-7144
▁گاهي	-7145
▁سلطان	-7146
▁مافيه	-7147
▁ٽيليو	-7148
▁پروٽو	-7149
▁پروژه	-7150
▁چاندي	-7151
▁ڊويزن	-7152
▁گروپن	-7153
▁ميڪسيڪو	-7154
▁ے	-7155
end	-7156
out	-7157
شين	-7158
▁ha	-7159
▁آد	-7160
اڻان	-7161
سٽين	-7162
▁all	-7163
▁بوڪ	-7164
▁بيٽ	-7165
▁جبت	-7166
▁فضل	-7167
▁مَن	-7168
▁ڊون	-7169
▁ائون	-7170
▁الان	-7171
▁لفظي	-7172
▁هٿان	-7173
▁وانت	-7174
▁پيرس	-7175
▁ڀائر	-7176
▁ڪامل	-7177
▁دوستو	-7178
▁ديدار	-7179
▁غذائي	-7180
▁نينهن	-7181
▁ڪامرس	-7182
▁وبعدين	-7183
▁ڪابينا	-7184
▁اليڪٽرڪ	-7185
▁ڪارخانو	-7186
اٽ	-7187
عك	-7188
ولڪ	-7189
▁جس	-7190
▁رآ	-7191
▁سٿ	-7192
▁شپ	-7193
▁ڪش	-7194
▁الد	-7195
▁فرز	-7196
▁ورڊ	-7197
▁تڏھن	-7198
▁ظهور	-7199
▁ورتل	-7200
▁گذرڻ	-7201
▁برعڪس	-7202
▁تقدير	-7203
▁توهين	-7204
▁عالمن	-7205
▁مسكين	-7206
▁نياڻي	-7207
▁ورهيه	-7208
▁ڄاڻان	-7209
▁بينڪنگ	-7210
▁شاديءَ	-7211
hm	-7212
قيت	-7213
▁49	-7214
▁لڏ	-7215
ياڻي	-7216
▁ago	-7217
▁آرڪ	-7218
▁اهن	-7219
▁جزا	-7220
▁فرش	-7221
▁قدي	-7222
▁پُٽ	-7223
▁ڳري	-7224
▁2003	-7225
▁انور	-7226
▁سستا	-7227
▁معطل	-7228
▁ٽائم	-7229
▁ڏاڏي	-7230
▁شينهن	-7231
▁سمجھيو	-7232
▁صدارتي	-7233
▁مينيجر	-7234
▁ناهيان	-7235
▁(6	-7236
▁ly	-7237
▁ڇن	-7238
ائلي	-7239
▁190	-7240
▁آله	-7241
▁زون	-7242
▁شاھ	-7243
▁لکت	-7244
▁همٿ	-7245
urren	-7246
▁رهبر	-7247
▁سمهڻ	-7248
▁پائپ	-7249
▁ڪئمپ	-7250
▁بيروز	-7251
▁درياهه	-7252
▁سينگار	-7253
▁پرسپولي	-7254
▁انگريزيءَ	-7255
وش	-7256
="3	-7257
ens	-7258
ign	-7259
عود	-7260
▁Ex	-7261
▁عظ	-7262
▁ڊچ	-7263
ورنٽ	-7264
▁آچر	-7265
▁باھ	-7266
▁بيچ	-7267
▁عكس	-7268
▁قصي	-7269
▁مئل	-7270
▁يان	-7271
▁يسو	-7272
▁ڏجي	-7273
▁کلڻ	-7274
ورنيا	-7275
▁Play	-7276
▁بايو	-7277
▁سستو	-7278
▁قريب	-7279
▁نقطه	-7280
▁وڙهي	-7281
▁افسان	-7282
▁رڪنيت	-7283
▁بدترين	-7284
▁سائيٽون	-7285
▁عملدارن	-7286
▁لاڙڪاڻي	-7287
▁گرفتاري	-7288
▁ٽيليويزن	-7289
عال	-7290
ڊين	-7291
▁لف	-7292
سينو	-7293
مانس	-7294
▁ريو	-7295
▁سكس	-7296
▁سيو	-7297
▁شار	-7298
▁لڏي	-7299
▁ٽهڪ	-7300
▁پخت	-7301
▁پڇو	-7302
▁ڀوڳ	-7303
▁چهر	-7304
▁بيٺا	-7305
▁رشيد	-7306
▁عبرت	-7307
▁فارس	-7308
▁نقشي	-7309
▁پئرس	-7310
▁امکان	-7311
▁سگھان	-7312
▁مُنهن	-7313
▁وڃائڻ	-7314
▁پارٽن	-7315
▁ڳولهي	-7316
ليفورنيا	-7317
▁عبدالله	-7318
):	-7319
ary	-7320
▁دة	-7321
▁ود	-7322
▁ڏه	-7323
انيا	-7324
▁اعص	-7325
▁اڻڄ	-7326
▁زوج	-7327
▁نشر	-7328
▁نيل	-7329
▁هاڪ	-7330
▁ڀين	-7331
▁ڪيپ	-7332
ڀرائي	-7333
▁بيوس	-7334
▁دريا	-7335
▁دلبر	-7336
▁فرهن	-7337
▁ملائ	-7338
▁منجھ	-7339
▁موتي	-7340
▁هُئا	-7341
▁يارڪ	-7342
▁پائو	-7343
▁پکين	-7344
▁ڪمرو	-7345
▁تشخيص	-7346
▁زباني	-7347
▁نگاهي	-7348
▁وسيلا	-7349
▁رجسٽرڊ	-7350
▁سالگره	-7351
▁ملهايو	-7352
▁وارنٽي	-7353
▁يوناني	-7354
▁ڪميونسٽ	-7355
غر	-7356
ميش	-7357
نيم	-7358
▁جِ	-7359
▁رڻ	-7360
▁كف	-7361
ائيز	-7362
شمول	-7363
پريس	-7364
▁راء	-7365
▁ڪوٺ	-7366
▁News	-7367
▁آخرت	-7368
▁برڪت	-7369
▁تقاض	-7370
▁رشتو	-7371
▁لنڪس	-7372
▁محقق	-7373
▁ميمڻ	-7374
▁نسيت	-7375
▁ٽڪرو	-7376
▁ڀرجي	-7377
▁آبهوا	-7378
▁تسلسل	-7379
▁شهادت	-7380
▁طراحي	-7381
▁كلامك	-7382
▁ملتوي	-7383
▁اسرائي	-7384
▁ايستائين	-7385
▁ليبارٽري	-7386
▁ايمانداري	-7387
حح	-7388
گذ	-7389
ite	-7390
und	-7391
صرن	-7392
قيه	-7393
▁Qu	-7394
▁sc	-7395
▁غف	-7396
ميءَ	-7397
▁بلڊ	-7398
▁تصد	-7399
▁متر	-7400
▁ميک	-7401
▁بضحك	-7402
▁سارا	-7403
▁فاهم	-7404
▁ماهو	-7405
▁گران	-7406
▁طريقه	-7407
▁مڪاني	-7408
▁ڳاڙهي	-7409
▁حقيقتن	-7410
▁سامسنگ	-7411
▁منصوبا	-7412
مس	-7413
ild	-7414
itt	-7415
سنو	-7416
كان	-7417
▁64	-7418
▁ُ،	-7419
▁چط	-7420
زمين	-7421
▁خفي	-7422
▁ليڊ	-7423
▁that	-7424
▁بادل	-7425
▁جھڙي	-7426
▁درجو	-7427
▁سريع	-7428
▁سهڻو	-7429
▁سوئي	-7430
▁سويت	-7431
▁ليڊر	-7432
▁ويڙه	-7433
▁ٺاهه	-7434
▁پولي	-7435
▁ڳڻتي	-7436
▁ٽائون	-7437
▁هئائين	-7438
▁هالينڊ	-7439
▁ترقياتي	-7440
▁جاگرافي	-7441
▁سنواريو	-7442
▁تيستائين	-7443
▁يونيورسٽيءَ	-7444
ox	-7445
yp	-7446
اهد	-7447
▁ڪڙ	-7448
شمند	-7449
ڏهين	-7450
▁غسل	-7451
▁لنا	-7452
▁پرا	-7453
ticle	-7454
▁جيڪر	-7455
▁نسلن	-7456
▁نواب	-7457
▁بندوق	-7458
▁جميله	-7459
▁مخلوق	-7460
سنواريو	-7461
▁سنڀالڻ	-7462
▁لميٽيڊ	-7463
▁مشاهدو	-7464
▁مقناطي	-7465
▁ڪوششون	-7466
بع	-7467
▁ژ	-7468
4">	-7469
▁Th	-7470
ندين	-7471
▁10.	-7472
▁اپو	-7473
▁بجد	-7474
▁شال	-7475
▁قمر	-7476
▁خانه	-7477
▁زنجي	-7478
▁عيون	-7479
▁مكان	-7480
▁گمان	-7481
▁جيئري	-7482
▁حبيبي	-7483
▁رهبري	-7484
▁ورائي	-7485
▁اسماعي	-7486
▁ڀليڪار	-7487
▁ګ	-7488
ire	-7489
روڪ	-7490
ضاب	-7491
گيٽ	-7492
▁bl	-7493
▁اجا	-7494
▁لاڏ	-7495
▁ملت	-7496
▁وبا	-7497
oogle	-7498
▁اشوف	-7499
▁اطال	-7500
▁بصري	-7501
▁جيءَ	-7502
▁عربن	-7503
▁مرزا	-7504
▁يوني	-7505
▁پوکي	-7506
▁ڪيمپ	-7507
▁اڀياس	-7508
▁اڳڪٿي	-7509
▁ديوتا	-7510
▁رنگين	-7511
▁مرحوم	-7512
▁موزون	-7513
▁بادشاھ	-7514
▁معائنو	-7515
▁مٿاڇري	-7516
▁نوڪريون	-7517
▁ڇوڪريءَ	-7518
9)	-7519
كب	-7520
▁:-	-7521
زادي	-7522
▁يبي	-7523
▁ڳچي	-7524
ليفون	-7525
▁صوبن	-7526
▁فرني	-7527
▁كبير	-7528
▁ويهه	-7529
▁چادر	-7530
▁چريو	-7531
▁ڊگھي	-7532
▁گريه	-7533
▁تجارت	-7534
▁غريبن	-7535
▁مروري	-7536
▁پرستي	-7537
▁لڳاتار	-7538
▁ورهاڱي	-7539
▁ڄاڻايو	-7540
▁سائنسدان	-7541
نڍ	-7542
ڳن	-7543
شاپ	-7544
▁آذ	-7545
▁مڱ	-7546
مهاي	-7547
▁باه	-7548
▁ترى	-7549
▁حفظ	-7550
▁لهڻ	-7551
▁ممن	-7552
▁هائ	-7553
▁يمه	-7554
▁پوڄ	-7555
▁ڪشش	-7556
انجام	-7557
▁؟؟؟؟	-7558
▁سازش	-7559
▁فيني	-7560
▁محشش	-7561
▁ٽيمن	-7562
▁ايڪشن	-7563
▁تشريح	-7564
▁وهڪري	-7565
▁خودڪشي	-7566
▁سرانجام	-7567
▁پروسيسر	-7568
▁کائيندا	-7569
▁ايڪسپريس	-7570
▁ريسٽورنٽ	-7571
▁پروفائيل	-7572
▁ڪيليفورنيا	-7573
ww	-7574
رة	-7575
َل	-7576
▁×	-7577
▁you	-7578
▁آرش	-7579
▁آور	-7580
▁ترس	-7581
▁سوٽ	-7582
▁هيم	-7583
▁يمن	-7584
▁پڇا	-7585
▁ڏسن	-7586
ٽيٽيو	-7587
▁جبلن	-7588
▁ديني	-7589
▁لوهه	-7590
▁مؤمن	-7591
منهنجو	-7592
▁اثاثن	-7593
▁باضاب	-7594
▁بمبئي	-7595
▁بنايو	-7596
▁وهڪرو	-7597
▁ويجھو	-7598
▁ٺاهيا	-7599
▁پڇاڙي	-7600
▁آزمائش	-7601
▁اسڪالر	-7602
▁خودمخت	-7603
▁رهائشي	-7604
▁روزانه	-7605
▁فرمائي	-7606
▁حڪمراني	-7607
▁مقبوليت	-7608
▁علائقائي	-7609
oy	-7610
نِ	-7611
یر	-7612
▁←	-7613
عون	-7614
نڊا	-7615
▁ڀُ	-7616
▁per	-7617
▁جمل	-7618
▁شرٽ	-7619
▁ضرب	-7620
▁لأن	-7621
▁هني	-7622
▁پوڊ	-7623
▁کوڙ	-7624
▁طالب	-7625
▁نثار	-7626
▁نوٽس	-7627
▁يعرف	-7628
▁اجتما	-7629
▁تبليغ	-7630
▁ديوان	-7631
▁شيڊول	-7632
▁صنعتن	-7633
▁قربان	-7634
▁قومون	-7635
▁وانگي	-7636
▁آڻيندو	-7637
▁اوندهه	-7638
▁دوستان	-7639
▁سليمان	-7640
▁اڪيلائي	-7641
▁نامناسب	-7642
▁هدايتون	-7643
▁تعميراتي	-7644
▁پرائيويٽ	-7645
▁ڊپارٽمينٽ	-7646
::	-7647
ord	-7648
ميس	-7649
یکس	-7650
▁عس	-7651
▁راج	-7652
▁كتب	-7653
▁محب	-7654
▁موا	-7655
▁ٽائ	-7656
▁ٽرڪ	-7657
▁پرک	-7658
▁گھڻ	-7659
▁افري	-7660
▁باني	-7661
▁رنگي	-7662
▁سوچن	-7663
▁قلعي	-7664
▁لڪير	-7665
▁ميخو	-7666
▁ٻاري	-7667
▁پردا	-7668
ايائين	-7669
▁small	-7670
▁توليد	-7671
▁معرفي	-7672
▁منسوخ	-7673
▁هٽائڻ	-7674
▁پارچه	-7675
▁عدالتي	-7676
▁فرنيچر	-7677
▁يادداشت	-7678
▁88	-7679
▁qu	-7680
لائن	-7681
لادي	-7682
▁جهت	-7683
▁سرخ	-7684
▁غني	-7685
▁مجي	-7686
▁بيئر	-7687
▁فاسٽ	-7688
▁فليٽ	-7689
▁واٽس	-7690
▁وڃون	-7691
▁ڊپٽي	-7692
▁بهتري	-7693
▁تلوار	-7694
▁محافظ	-7695
▁سيڪنڊن	-7696
▁ٺهرايو	-7697
▁ڏياريو	-7698
▁هيڏانهن	-7699
▁پيشگيري	-7700
▁هندستاني	-7701
▁پابنديون	-7702
SO	-7703
ei	-7704
les	-7705
اتا	-7706
اها	-7707
داع	-7708
هاي	-7709
▁//	-7710
▁Se	-7711
▁^_	-7712
▁نك	-7713
▁OEM	-7714
▁بحر	-7715
▁تحب	-7716
▁وما	-7717
▁وڇو	-7718
▁ڇڪي	-7719
▁اسڪر	-7720
▁انتو	-7721
▁ليول	-7722
▁محتا	-7723
▁مصري	-7724
▁ورزش	-7725
▁کاتو	-7726
▁ڪالم	-7727
▁ارتقا	-7728
▁شاعرن	-7729
▁عيسوي	-7730
▁ٻرندڙ	-7731
▁پياده	-7732
▁ترجمان	-7733
▁علائقا	-7734
▁پارٽنر	-7735
▁گهٽائي	-7736
▁لوازمات	-7737
▁واپارين	-7738
▁څ	-7739
ins	-7740
دوم	-7741
▁اى	-7742
▁كو	-7743
انين	-7744
▁ذائ	-7745
▁سٽون	-7746
▁عروج	-7747
▁منهم	-7748
▁هنيو	-7749
▁ٽڪرا	-7750
▁چالي	-7751
▁ھيءَ	-7752
▁بيڪار	-7753
▁روانا	-7754
▁زمانو	-7755
▁سينسر	-7756
▁محمود	-7757
▁منطقي	-7758
▁نينگر	-7759
▁ايڊيشن	-7760
▁عجبتني	-7761
▁ماضيءَ	-7762
▁پرينءَ	-7763
▁ڪردارن	-7764
سة	-7765
اسم	-7766
زوج	-7767
سنڌ	-7768
سٽن	-7769
صلي	-7770
▁II	-7771
▁ac	-7772
▁تَ	-7773
▁ٺا	-7774
هيءَ	-7775
ھيون	-7776
▁are	-7777
▁جهو	-7778
▁سيف	-7779
▁شيو	-7780
▁عيش	-7781
▁نوع	-7782
▁هنگ	-7783
▁پٽن	-7784
▁ڀاء	-7785
▁بصير	-7786
▁جذبو	-7787
▁دادو	-7788
▁فليش	-7789
▁نوڪر	-7790
▁هوند	-7791
▁ڪوڙو	-7792
ٽيٽيوٽ	-7793
▁برباد	-7794
▁تعبير	-7795
▁عناصر	-7796
▁وراڻي	-7797
▁اطالوي	-7798
▁مزيدار	-7799
▁پڙهندو	-7800
▁ڳنڍيندڙ	-7801
ice	-7802
upp	-7803
اول	-7804
لود	-7805
ِين	-7806
▁42	-7807
▁46	-7808
لڊنگ	-7809
▁Com	-7810
▁،،،	-7811
▁الغ	-7812
▁اڇي	-7813
▁اڙي	-7814
▁دقي	-7815
▁شاد	-7816
▁گھو	-7817
▁ايام	-7818
▁تحفو	-7819
▁جمعه	-7820
▁ذيلي	-7821
▁فكره	-7822
▁مانس	-7823
▁هفتا	-7824
▁گذار	-7825
▁ترڪيب	-7826
▁شاپنگ	-7827
▁طبيعي	-7828
▁ممتاز	-7829
▁درستگي	-7830
▁فئڪٽري	-7831
▁فاریکس	-7832
▁پيشرفت	-7833
▁سوچيندو	-7834
▁پيامهاي	-7835
▁پرسپوليس	-7836
AN	-7837
IN	-7838
ـٍ	-7839
ays	-7840
ron	-7841
ندن	-7842
ڪرا	-7843
▁41	-7844
▁چؤ	-7845
هانت	-7846
پرست	-7847
▁امس	-7848
▁ٿوڪ	-7849
▁چري	-7850
▁ڍنڍ	-7851
انگري	-7852
سائين	-7853
▁آڪسي	-7854
▁تاثر	-7855
▁زمري	-7856
▁ضمني	-7857
▁هفتو	-7858
▁بيشتر	-7859
▁ماستر	-7860
▁مينيو	-7861
▁وڌندي	-7862
انگريزي	-7863
▁آزمائي	-7864
▁لاڳاپو	-7865
▁هوسٽنگ	-7866
▁کائيندو	-7867
7)	-7868
ضه	-7869
▁ټ	-7870
نڊو	-7871
▁59	-7872
▁77	-7873
▁:$	-7874
▁fl	-7875
▁آڷ	-7876
▁بَ	-7877
▁مگ	-7878
▁سٽا	-7879
▁شوف	-7880
▁فوڊ	-7881
▁قصه	-7882
▁لهم	-7883
▁ڪڪڙ	-7884
جانءِ	-7885
فوتكم	-7886
▁اوري	-7887
▁مؤثر	-7888
▁مدير	-7889
▁مردم	-7890
▁نگار	-7891
▁وَرو	-7892
▁يزيد	-7893
▁گھري	-7894
▁؟؟؟؟؟	-7895
▁برائي	-7896
▁بشمول	-7897
▁تفريح	-7898
▁زياده	-7899
▁هٽايو	-7900
▁Google	-7901
▁آپريٽر	-7902
▁دعائون	-7903
▁نهاريو	-7904
▁حقيقتون	-7905
▁انسٽيٽيوٽ	-7906
لة	-7907
لڻ	-7908
▁❤	-7909
rad	-7910
ئيٽ	-7911
هوم	-7912
▁آک	-7913
▁120	-7914
▁برد	-7915
▁تسل	-7916
▁لڳڻ	-7917
▁پهن	-7918
▁2005	-7919
▁اداس	-7920
▁انتى	-7921
▁باشد	-7922
▁بخشي	-7923
▁فونز	-7924
▁ويڪس	-7925
▁گارن	-7926
▁اجايو	-7927
▁بلاگر	-7928
▁سنگين	-7929
▁فرزند	-7930
▁مارڪس	-7931
▁منسوب	-7932
▁هائيڊ	-7933
▁تنھنجو	-7934
▁وساريو	-7935
▁پراڊڪٽس	-7936
عع	-7937
َي	-7938
▁))	-7939
▁حن	-7940
اتين	-7941
باره	-7942
جڏهن	-7943
ستگي	-7944
وڌيڪ	-7945
▁Ind	-7946
▁اڱڻ	-7947
▁بسر	-7948
▁صفر	-7949
▁صلح	-7950
▁ضيا	-7951
▁منز	-7952
▁ساڄي	-7953
▁مرڪب	-7954
▁پندر	-7955
▁گھڙي	-7956
▁افعال	-7957
▁بچاءُ	-7958
▁تعلقي	-7959
▁سبسڪر	-7960
▁پريمي	-7961
▁پيشينه	-7962
▁چيائون	-7963
لر	-7964
قان	-7965
▁بئ	-7966
▁ذه	-7967
▁ڦو	-7968
ائنگ	-7969
ماڪي	-7970
▁[1]	-7971
▁برج	-7972
▁ليپ	-7973
▁مسز	-7974
▁مُن	-7975
▁نيت	-7976
▁پزش	-7977
▁پوش	-7978
▁اوور	-7979
▁تعين	-7980
▁وجهڻ	-7981
▁دانهن	-7982
▁رسالي	-7983
▁سگھيو	-7984
▁عنصرن	-7985
▁محتاط	-7986
▁نداري	-7987
▁نيوزي	-7988
ocurren	-7989
▁صحافين	-7990
▁مسافرت	-7991
▁ٽارگيٽ	-7992
▁پروٽين	-7993
▁article	-7994
▁ٽيليفون	-7995
0)	-7996
ari	-7997
▁57	-7998
▁نٽ	-7999
="2.	-8000
less	-8001
ديات	-8002
▁تنا	-8003
▁حتي	-8004
▁خري	-8005
▁عيو	-8006
▁ڊيز	-8007
▁ڪرو	-8008
▁اسٽر	-8009
▁بائي	-8010
▁سفيد	-8011
▁متحد	-8012
▁مولا	-8013
▁ورجن	-8014
▁گويد	-8015
▁اهڙيء	-8016
▁عجبني	-8017
▁مطالبن	-8018
▁نڪرندو	-8019
▁پائوڊر	-8020
▁Bitcoin	-8021
ؤن	-8022
اذ	-8023
ile	-8024
ميه	-8025
▁-1	-8026
▁تغ	-8027
▁َ،	-8028
▁250	-8029
▁تكم	-8030
▁صاب	-8031
▁كدا	-8032
▁لون	-8033
▁هوت	-8034
ابندي	-8035
▁اُٿي	-8036
▁بالي	-8037
▁دستي	-8038
▁شكلي	-8039
▁صورة	-8040
▁مجيد	-8041
▁مشرو	-8042
▁معاك	-8043
▁نكته	-8044
▁هندن	-8045
▁واضع	-8046
▁وليد	-8047
▁ڌنڌو	-8048
▁inter	-8049
▁المنت	-8050
▁سانچو	-8051
▁لائنز	-8052
▁لڪائي	-8053
▁معرفت	-8054
▁نمونن	-8055
▁پوائن	-8056
▁تحقيقي	-8057
▁مزدورن	-8058
▁اپوزيشن	-8059
▁باضابطه	-8060
اهل	-8061
راس	-8062
▁6-	-8063
▁ذك	-8064
▁ڦي	-8065
ated	-8066
ڪشاف	-8067
▁وني	-8068
▁ٺهڻ	-8069
ااااا	-8070
▁انحص	-8071
▁بڻيو	-8072
▁جھاز	-8073
▁دارد	-8074
▁راست	-8075
▁روزو	-8076
▁سفرن	-8077
▁نائب	-8078
▁نارو	-8079
▁نيڪي	-8080
▁ٽاور	-8081
▁کنيد	-8082
▁اڏاوت	-8083
▁عندنا	-8084
▁فائبر	-8085
▁فرينچ	-8086
▁پارسي	-8087
▁ڪيمرا	-8088
▁انڊيڪس	-8089
▁انڪشاف	-8090
▁سرزمين	-8091
▁ڪينيڊا	-8092
▁اينديون	-8093
▁هفتيوار	-8094
▁اسرائيلي	-8095
آت	-8096
یل	-8097
ائد	-8098
جلس	-8099
ضيع	-8100
منى	-8101
▁[/	-8102
▁ڪڇ	-8103
▁گس	-8104
▁بحب	-8105
▁دهي	-8106
▁ذوق	-8107
▁سلا	-8108
▁سوڀ	-8109
▁پست	-8110
▁ڄڻن	-8111
▁2006	-8112
▁السي	-8113
▁اُھو	-8114
▁حالي	-8115
▁مطلق	-8116
▁ٻيلي	-8117
▁صدارت	-8118
▁علامه	-8119
▁پلانٽ	-8120
▁گياهي	-8121
▁آرامده	-8122
▁انٽيلي	-8123
▁عمارتن	-8124
▁موضوعن	-8125
▁نفسيات	-8126
▁مالياتي	-8127
ue	-8128
أل	-8129
صه	-8130
مع	-8131
ash	-8132
ber	-8133
ond	-8134
نيس	-8135
ھور	-8136
▁51	-8137
▁آق	-8138
▁سھ	-8139
▁وخ	-8140
▁اوك	-8141
▁اڻڻ	-8142
▁جرا	-8143
▁معد	-8144
▁گاه	-8145
▁ايشي	-8146
▁جهلي	-8147
▁فهمت	-8148
▁مبرو	-8149
▁مياد	-8150
▁پراس	-8151
▁پنجم	-8152
▁چوڻي	-8153
▁مشرقي	-8154
▁مشكله	-8155
▁سامعين	-8156
َّ	-8157
Bet	-8158
فيٰ	-8159
واع	-8160
ڪاٽ	-8161
▁7:	-8162
▁رغ	-8163
▁سق	-8164
▁Mac	-8165
▁بيڊ	-8166
▁سرن	-8167
▁سما	-8168
▁ڪٿا	-8169
▁comp	-8170
▁آگهي	-8171
▁بليڪ	-8172
▁تفري	-8173
▁ساڻن	-8174
▁لائٽ	-8175
▁معزز	-8176
▁مهدي	-8177
▁مڙني	-8178
▁واپر	-8179
▁ٽوڙڻ	-8180
▁ڏيهه	-8181
▁تجديد	-8182
▁مولوي	-8183
▁ترقيءَ	-8184
▁نشانين	-8185
▁اسماعيل	-8186
mm	-8187
حك	-8188
ڇر	-8189
▁ڷ	-8190
باس	-8191
خير	-8192
▁[2	-8193
▁ph	-8194
▁ای	-8195
▁لڙ	-8196
▁هذ	-8197
book	-8198
▁سِر	-8199
▁شاٽ	-8200
▁فضا	-8201
▁لڪل	-8202
▁ٻاج	-8203
▁پیش	-8204
▁ٿِي	-8205
▁1990	-8206
▁ارجن	-8207
▁بخير	-8208
▁بهره	-8209
▁درجا	-8210
▁عظمت	-8211
▁غيرت	-8212
▁مرڪي	-8213
▁منجه	-8214
▁وچين	-8215
▁پٺتي	-8216
▁کردن	-8217
▁مشيني	-8218
▁نامزد	-8219
▁نظريه	-8220
▁وائيس	-8221
▁وارثن	-8222
▁ڏيارڻ	-8223
▁بصراحه	-8224
▁حاصلات	-8225
▁واريءَ	-8226
▁يونيور	-8227
▁برگزاري	-8228
▁بنگلادي	-8229
ps	-8230
أأ	-8231
جاهه	-8232
خاني	-8233
راحة	-8234
▁can	-8235
▁pre	-8236
▁اوب	-8237
▁ثان	-8238
▁ليب	-8239
▁ميث	-8240
▁ونگ	-8241
▁Mehm	-8242
▁جعلي	-8243
▁ريان	-8244
▁زيور	-8245
▁سوئچ	-8246
▁صديق	-8247
▁ليبل	-8248
▁لکان	-8249
▁ويهن	-8250
▁يسوع	-8251
▁پئسي	-8252
▁پڪڙي	-8253
▁ڀاڪر	-8254
▁گفتي	-8255
▁اتوقع	-8256
▁احلام	-8257
▁لنگهي	-8258
▁مفهوم	-8259
▁پادري	-8260
▁ڌماڪي	-8261
▁گھربل	-8262
▁شموليت	-8263
▁لاطيني	-8264
▁ڪامريڊ	-8265
▁گهڻائي	-8266
▁صحتيابي	-8267
▁مواصلات	-8268
▁پهريائين	-8269
AT	-8270
la	-8271
ئم	-8272
سير	-8273
ڪول	-8274
▁79	-8275
▁دک	-8276
▁نچ	-8277
▁ڳج	-8278
ليسي	-8279
ندڙن	-8280
گارن	-8281
▁600	-8282
▁داغ	-8283
▁رأي	-8284
▁هئم	-8285
▁وصف	-8286
▁وول	-8287
▁ويز	-8288
▁ٻٽي	-8289
▁پٺي	-8290
▁ڪوئ	-8291
▁گوي	-8292
indow	-8293
▁conn	-8294
▁بندش	-8295
▁بڻجڻ	-8296
▁بڻيل	-8297
▁تارا	-8298
▁حاجة	-8299
▁ريئل	-8300
▁عنده	-8301
▁نيڻن	-8302
▁ٺاھڻ	-8303
▁پرچم	-8304
بابندي	-8305
▁آگاهه	-8306
▁بهادر	-8307
▁دوائن	-8308
▁عقيدي	-8309
▁ملائڻ	-8310
▁نوعيت	-8311
▁هڙتال	-8312
▁ٽرانز	-8313
▁ھوندا	-8314
▁البنات	-8315
▁تاريخن	-8316
▁زندگين	-8317
▁ايشيائي	-8318
▁ايپليڪيشنون	-8319
كا	-8320
ِر	-8321
ٻر	-8322
ضاء	-8323
▁if	-8324
▁ئن	-8325
رررر	-8326
كككك	-8327
▁ers	-8328
▁أنت	-8329
▁بسي	-8330
▁توي	-8331
▁دڙي	-8332
▁رسو	-8333
▁گرف	-8334
▁اكبر	-8335
▁خالق	-8336
▁مدني	-8337
▁مناس	-8338
▁ڄاتو	-8339
▁ڪلهي	-8340
▁انواع	-8341
▁تصميم	-8342
▁صحافت	-8343
▁پيمان	-8344
▁گهران	-8345
▁جادوگر	-8346
▁راتيون	-8347
▁گهرايو	-8348
▁پنهنجين	-8349
▁منصوبابندي	-8350
ge	-8351
عر	-8352
rom	-8353
ڙهن	-8354
▁رڌ	-8355
▁پژ	-8356
▁۲۰	-8357
ator	-8358
علوم	-8359
قبال	-8360
ليلي	-8361
▁Taj	-8362
▁آهو	-8363
▁تڪڙ	-8364
▁شكر	-8365
▁ناج	-8366
▁ڪاس	-8367
▁انتق	-8368
▁اوطا	-8369
▁حادث	-8370
▁رولر	-8371
▁هيڏي	-8372
▁وڙهڻ	-8373
▁يصير	-8374
▁پاسن	-8375
▁اشاعت	-8376
▁بائبل	-8377
▁جمهور	-8378
▁جيسين	-8379
▁فيسبو	-8380
▁مطلوب	-8381
▁عملدار	-8382
▁انگليسي	-8383
▁مبارڪون	-8384
▁پروفيشنل	-8385
▁يونيورسٽين	-8386
8)	-8387
طة	-8388
غى	-8389
▁%	-8390
تين	-8391
گال	-8392
▁1,	-8393
▁53	-8394
▁GB	-8395
▁اً	-8396
▁ذخ	-8397
rans	-8398
▁ران	-8399
▁سڙي	-8400
▁شنگ	-8401
▁قاف	-8402
▁كثر	-8403
▁هِي	-8404
▁ڏيڍ	-8405
▁اڀري	-8406
▁بالا	-8407
▁نائي	-8408
▁يسعد	-8409
▁يڪدم	-8410
▁ٽوڙي	-8411
▁پيري	-8412
▁ڌوئڻ	-8413
▁ثانيه	-8414
▁ذهانت	-8415
▁سلمان	-8416
▁فلسفو	-8417
▁وڃايو	-8418
▁پنجين	-8419
▁جوسينو	-8420
▁پيڪنگنگ	-8421
آي	-8422
▁4)	-8423
▁En	-8424
▁Le	-8425
▁ئه	-8426
ical	-8427
مثال	-8428
واري	-8429
▁آسو	-8430
▁صفت	-8431
▁ظرف	-8432
▁عهد	-8433
▁ونا	-8434
▁وها	-8435
▁ڪُل	-8436
پريشن	-8437
▁over	-8438
▁المق	-8439
▁حاجه	-8440
▁داني	-8441
▁ديوي	-8442
▁ربنا	-8443
▁روعه	-8444
▁سؤال	-8445
▁ميگا	-8446
▁نظرن	-8447
▁وئين	-8448
▁ٽنهي	-8449
▁بغداد	-8450
▁زلزلي	-8451
▁سفارت	-8452
▁هٽائي	-8453
▁واحده	-8454
▁گهوڙي	-8455
▁اوزارن	-8456
▁جهنگلي	-8457
▁دروازا	-8458
▁رياستي	-8459
▁سنڀالي	-8460
▁هدايتن	-8461
▁اثرائتو	-8462
یں	-8463
احد	-8464
داء	-8465
راط	-8466
زاء	-8467
عدي	-8468
فيق	-8469
▁56	-8470
roti	-8471
انچي	-8472
▁تما	-8473
▁قصد	-8474
▁ليك	-8475
▁يرج	-8476
▁يست	-8477
▁پڙھ	-8478
▁ڀاڳ	-8479
▁ڌرم	-8480
ulana	-8481
لينڊر	-8482
▁able	-8483
▁آلات	-8484
▁جوڙڻ	-8485
▁رپين	-8486
▁سمهي	-8487
▁فديت	-8488
▁لمحن	-8489
▁معلم	-8490
▁مودي	-8491
▁وارڊ	-8492
▁وقتن	-8493
▁ڪولم	-8494
▁گوري	-8495
زرلينڊ	-8496
▁اپلوڊ	-8497
▁بالله	-8498
▁خاطري	-8499
▁ردعمل	-8500
▁غلطين	-8501
▁فولڊر	-8502
▁محتاج	-8503
▁پرورش	-8504
▁پنهون	-8505
▁Amroti	-8506
▁مشينري	-8507
▁هاڻوڪي	-8508
▁پوريون	-8509
▁Maulana	-8510
▁Mehmood	-8511
▁ڇوڪريون	-8512
▁صلاحيتون	-8513
لله	-8514
▁69	-8515
▁pb	-8516
▁چِ	-8517
امون	-8518
اهين	-8519
مدار	-8520
ڪنھن	-8521
▁One	-8522
▁اسد	-8523
▁تند	-8524
▁جنب	-8525
▁خخخ	-8526
▁طار	-8527
▁وفي	-8528
▁ڀون	-8529
▁ڪاش	-8530
▁more	-8531
▁دردن	-8532
▁سورج	-8533
▁لعنت	-8534
▁دستور	-8535
▁موسمي	-8536
▁نداره	-8537
▁اندازه	-8538
▁حڪومتن	-8539
▁دانلود	-8540
▁سڀڪنھن	-8541
▁گهرائي	-8542
▁پڇيائين	-8543
▁پنهنجيءَ	-8544
▁درخواستون	-8545
▁cryptocurren	-8546
11	-8547
ڍا	-8548
کت	-8549
old	-8550
ديو	-8551
ـُـ	-8552
▁66	-8553
ائتي	-8554
▁اوٽ	-8555
▁ردي	-8556
▁سچا	-8557
▁متي	-8558
▁ناي	-8559
▁نفي	-8560
▁ورک	-8561
▁چڱا	-8562
▁ڪيٿ	-8563
▁ڪچي	-8564
▁گان	-8565
▁اڪبر	-8566
▁اڻيو	-8567
▁جاوا	-8568
▁رهون	-8569
▁سهڻا	-8570
▁مشرف	-8571
▁نڪتا	-8572
▁وادي	-8573
▁يونس	-8574
▁پيشن	-8575
▁پيشو	-8576
▁اسڪيم	-8577
▁متوقع	-8578
▁ويران	-8579
▁آڻيندا	-8580
▁احتساب	-8581
▁اٿارٽي	-8582
▁ٻڌائين	-8583
▁ڄاڻندا	-8584
▁حڪمرانن	-8585
'ـ	-8586
ah	-8587
كِ	-8588
2">	-8589
ark	-8590
سيع	-8591
▁ڦه	-8592
▁آقا	-8593
▁ساه	-8594
▁ڀنگ	-8595
▁ڪئپ	-8596
▁ايگز	-8597
▁بعرف	-8598
▁راني	-8599
▁رهان	-8600
▁روين	-8601
▁كلنا	-8602
▁محفل	-8603
▁معين	-8604
▁ميهن	-8605
▁همدر	-8606
▁پرسش	-8607
▁ايڊمن	-8608
▁تاثير	-8609
▁دٻايو	-8610
▁شماري	-8611
▁مٿيون	-8612
▁ولايت	-8613
▁يهودي	-8614
▁پراڻا	-8615
▁Window	-8616
▁سرمايو	-8617
▁فيسبوڪ	-8618
▁ڏٺائين	-8619
tt	-8620
بڪ	-8621
٠٠	-8622
▁►	-8623
ree	-8624
▁Ph	-8625
▁خس	-8626
▁زب	-8627
▁شق	-8628
▁ٻَ	-8629
▁چٽ	-8630
▁شيٽ	-8631
▁فلپ	-8632
▁لسه	-8633
▁لڳس	-8634
▁مُر	-8635
▁وحي	-8636
▁ٺٽي	-8637
▁ڪجه	-8638
▁ساره	-8639
▁ماشي	-8640
▁هيلٿ	-8641
▁وفاق	-8642
▁اوطاق	-8643
▁اوليه	-8644
▁زندهه	-8645
▁زيارت	-8646
▁ييييي	-8647
▁تفريحي	-8648
▁سائينءَ	-8649
ED	-8650
de	-8651
وڻ	-8652
ove	-8653
فار	-8654
ملي	-8655
▁Hu	-8656
▁فز	-8657
▁800	-8658
▁ائڊ	-8659
▁تنو	-8660
▁جري	-8661
▁رزق	-8662
▁سبز	-8663
▁مقد	-8664
▁هاس	-8665
▁هلن	-8666
▁ورڇ	-8667
▁Face	-8668
▁تخيل	-8669
▁جدول	-8670
▁دفتر	-8671
▁سائو	-8672
▁وڪڻڻ	-8673
▁پيسٽ	-8674
▁گھرن	-8675
▁ھيون	-8676
▁ارادي	-8677
▁ترجمي	-8678
▁سگھجن	-8679
▁قاعدن	-8680
▁لکڻين	-8681
▁مشينن	-8682
▁ڪهڙيون	-8683
▁گھٽائڻ	-8684
▁اجتماعي	-8685
▁تحقيقات	-8686
▁بنگلاديش	-8687
▁سائنسدانن	-8688
▁ڳالهائيندا	-8689
du	-8690
شك	-8691
ضر	-8692
▁ڙ	-8693
▁۹	-8694
شاد	-8695
▁wh	-8696
▁رِ	-8697
ظاهر	-8698
▁188	-8699
▁ادو	-8700
▁انق	-8701
▁جگر	-8702
▁دٻي	-8703
▁ناف	-8704
▁نشي	-8705
▁نيز	-8706
▁هنج	-8707
▁وٽن	-8708
▁2004	-8709
▁آڌار	-8710
▁ايڪو	-8711
▁جهڙن	-8712
▁حڪمن	-8713
▁سوري	-8714
▁ڇانو	-8715
▁اڳواٽ	-8716
▁جدائي	-8717
▁فلسفه	-8718
▁لڙائي	-8719
▁لکندا	-8720
▁ڊيوٽي	-8721
▁گرافي	-8722
ائيزيشن	-8723
▁المللي	-8724
▁انحصار	-8725
▁اندازي	-8726
▁Windows	-8727
ish	-8728
صيب	-8729
طني	-8730
▁AP	-8731
▁me	-8732
▁لس	-8733
xBet	-8734
تكلم	-8735
شمني	-8736
▁اوى	-8737
▁باي	-8738
▁تور	-8739
▁حام	-8740
▁صال	-8741
▁عني	-8742
▁نرس	-8743
▁پنن	-8744
▁ڪڪر	-8745
▁ايوب	-8746
▁جاڳي	-8747
▁سوئٽ	-8748
▁سورن	-8749
▁سيال	-8750
▁قائل	-8751
▁كريم	-8752
▁ڪجان	-8753
▁ڪرسي	-8754
▁گهٽي	-8755
▁ڳائي	-8756
▁اعصاب	-8757
▁امتيا	-8758
▁جاگير	-8759
▁حلوين	-8760
▁خدائي	-8761
▁لڳيون	-8762
▁ندارد	-8763
▁وائرل	-8764
▁ٻارڙا	-8765
▁پڄاڻي	-8766
▁ڄاڻون	-8767
▁چاڙهي	-8768
▁ڳالھه	-8769
▁ايڊريس	-8770
▁شخصيتن	-8771
▁لاڳاپن	-8772
▁وفادار	-8773
▁آسانيءَ	-8774
AR	-8775
رك	-8776
فف	-8777
ٿل	-8778
ڌن	-8779
جري	-8780
حين	-8781
ظير	-8782
توکي	-8783
▁انر	-8784
▁اڇا	-8785
▁جلس	-8786
▁سعد	-8787
▁قطع	-8788
▁مسو	-8789
▁مول	-8790
▁<<<<	-8791
▁آرگن	-8792
▁بدلو	-8793
▁ثواب	-8794
▁داره	-8795
▁سڏجي	-8796
▁فهمي	-8797
▁نصاب	-8798
▁هلڪي	-8799
▁هيرن	-8800
▁يقطع	-8801
▁ڪراس	-8802
▁البته	-8803
▁دشمني	-8804
▁پريان	-8805
▁چيلهه	-8806
▁حبيبتي	-8807
▁استقبال	-8808
▁نظرياتي	-8809
▁خواهشمند	-8810
▁گريجوئيشن	-8811
AS	-8812
ix	-8813
غب	-8814
مز	-8815
نز	-8816
ٹر	-8817
ase	-8818
ابه	-8819
بتك	-8820
كره	-8821
مره	-8822
▁تڙ	-8823
▁فت	-8824
هاڻي	-8825
▁آره	-8826
▁اِي	-8827
▁خطن	-8828
▁رھڻ	-8829
▁مقر	-8830
▁ٻڏي	-8831
▁چني	-8832
▁ائپس	-8833
▁بيهڻ	-8834
▁تشوف	-8835
▁تنها	-8836
▁رضام	-8837
▁سفير	-8838
▁واجب	-8839
▁ڪرڻا	-8840
▁اديبن	-8841
▁الاهي	-8842
▁اُنھن	-8843
▁سڃاڻڻ	-8844
▁سڪندر	-8845
▁ڇڏيان	-8846
▁اسڪرپٽ	-8847
▁الصورة	-8848
▁ساراهه	-8849
▁مممممم	-8850
▁ميموري	-8851
▁پنھنجن	-8852
▁السعودي	-8853
▁اڪائونٽس	-8854
▁سگهنداسين	-8855
أإ	-8856
ert	-8857
راد	-8858
روي	-8859
▁52	-8860
▁54	-8861
▁97	-8862
▁ٻڏ	-8863
سمين	-8864
▁ائٽ	-8865
▁افا	-8866
▁مڙي	-8867
▁ييي	-8868
▁گهن	-8869
="0.1	-8870
▁آڻيو	-8871
▁روڊن	-8872
▁سلوڪ	-8873
▁لاني	-8874
▁لڪيل	-8875
▁مباح	-8876
▁کاڌا	-8877
▁ڪيٽي	-8878
▁البنت	-8879
▁اينيم	-8880
▁ايوان	-8881
▁بستري	-8882
▁تقاضا	-8883
▁شناخت	-8884
▁مبروك	-8885
▁معذور	-8886
▁ناجائز	-8887
▁خاندانن	-8888
▁قرارداد	-8889
▁ڪارخاني	-8890
▁پروگرامنگ	-8891
."	-8892
ube	-8893
ابا	-8894
جنگ	-8895
▁حك	-8896
▁طر	-8897
▁مى	-8898
پوءِ	-8899
چينج	-8900
ڪائي	-8901
ڪتاڻ	-8902
▁اوه	-8903
▁روٽ	-8904
▁سئي	-8905
▁سخن	-8906
▁شدن	-8907
▁فيض	-8908
▁قصو	-8909
▁ميا	-8910
▁ناا	-8911
ينيشن	-8912
▁الخط	-8913
▁ايلي	-8914
▁تائي	-8915
▁تعصب	-8916
▁جذبن	-8917
▁خبري	-8918
▁راجع	-8919
▁طبقن	-8920
▁طويل	-8921
▁لحظه	-8922
▁منكم	-8923
▁وجهه	-8924
▁يخلي	-8925
▁ٿورن	-8926
▁اسٽيڪ	-8927
▁دريءَ	-8928
▁ريپبل	-8929
▁فاصلي	-8930
▁مفادن	-8931
▁ووووو	-8932
▁ٻارهن	-8933
▁ڪرايا	-8934
▁اوباما	-8935
▁روايتن	-8936
▁فرهنگي	-8937
▁پائونڊ	-8938
▁العافيه	-8939
▁ڪئلينڊر	-8940
▁ايڪسچينج	-8941
▁تحقيقاتي	-8942
▁هارڊويئر	-8943
▁ٻڌائيندو	-8944
99	-8945
5">	-8946
ith	-8947
ote	-8948
يتا	-8949
گهي	-8950
▁فص	-8951
▁چگ	-8952
يڪيو	-8953
▁تلف	-8954
▁طبع	-8955
▁قري	-8956
▁لقب	-8957
▁ويٺ	-8958
▁ٽام	-8959
▁ڪرم	-8960
▁spec	-8961
▁ايلو	-8962
▁توجه	-8963
▁روحي	-8964
▁شاهد	-8965
▁لهجي	-8966
▁مجاز	-8967
▁مداح	-8968
▁يعجب	-8969
▁ٻوٽن	-8970
▁ٿلهي	-8971
▁کنيا	-8972
▁ايٽمي	-8973
▁اڳوڻو	-8974
▁برانچ	-8975
▁جيترا	-8976
▁عراقي	-8977
▁هارين	-8978
▁وبائي	-8979
▁چڱيءَ	-8980
▁ڌارين	-8981
▁ڪُجهه	-8982
▁سمجهون	-8983
▁شهزادي	-8984
▁وڌائين	-8985
▁مصروفيت	-8986
▁اااااااا	-8987
▁درخواستن	-8988
▁سرٽيفڪيشن	-8989
ys	-8990
ric	-8991
ادم	-8992
هيم	-8993
ڙجي	-8994
▁86	-8995
▁أس	-8996
▁(5)	-8997
▁أخي	-8998
▁ارز	-8999
▁الث	-9000
▁الٽ	-9001
▁بخت	-9002
▁بلب	-9003
▁درٻ	-9004
▁مسا	-9005
▁مصن	-9006
▁هلو	-9007
▁ورق	-9008
▁ٻني	-9009
▁چيل	-9010
▁ڪاف	-9011
▁ڪوه	-9012
▁Inst	-9013
▁جارح	-9014
▁حڪيم	-9015
▁سانس	-9016
▁مشكل	-9017
▁موٽو	-9018
▁ڀاڱو	-9019
▁چارٽ	-9020
▁ڪاسٽ	-9021
▁ڪروم	-9022
▁ڪوڙي	-9023
▁ابليس	-9024
▁الاءِ	-9025
▁وسارڻ	-9026
▁ڇڪتاڻ	-9027
▁اسٽريم	-9028
▁دهشتگرد	-9029
▁ضرورتون	-9030
▁پيرامون	-9031
▁ڇڏيائين	-9032
▁ڪمپنيءَ	-9033
pl	-9034
▁٣	-9035
جوز	-9036
ورك	-9037
▁چش	-9038
ائري	-9039
رايو	-9040
ضمام	-9041
▁اُٺ	-9042
▁اُڏ	-9043
▁اٺن	-9044
▁خدم	-9045
▁سيٺ	-9046
▁كلي	-9047
▁لڙڪ	-9048
▁نال	-9049
▁ڏاڪ	-9050
▁ڦهل	-9051
▁انكم	-9052
▁بنهه	-9053
▁تاني	-9054
▁دائو	-9055
▁داشت	-9056
▁رايو	-9057
▁ساهي	-9058
▁سفري	-9059
▁ملئي	-9060
▁پکسل	-9061
▁کيڏي	-9062
▁اسرار	-9063
▁بيزار	-9064
▁ريفري	-9065
▁سنڌين	-9066
▁مباني	-9067
▁مشوري	-9068
▁مشھور	-9069
▁انضمام	-9070
▁پھريان	-9071
▁منتديات	-9072
▁ٺاهيندا	-9073
▁ڪارائتو	-9074
▁ايڪسڪسڪس	-9075
▁دارومدار	-9076
جرز	-9077
ومي	-9078
۔۔۔	-9079
▁67	-9080
▁7-	-9081
▁96	-9082
▁ڀٽ	-9083
لاتي	-9084
▁سمن	-9085
▁ڏکو	-9086
▁ڪِي	-9087
▁2001	-9088
▁انجن	-9089
▁جرئت	-9090
▁سايت	-9091
▁سيٽن	-9092
▁مرتب	-9093
▁والي	-9094
▁ورثي	-9095
▁پوئل	-9096
▁چڱيء	-9097
▁ڌمڪي	-9098
ائيونگ	-9099
▁آفتاب	-9100
▁سمجھو	-9101
▁مارئي	-9102
▁ماريا	-9103
▁هزارن	-9104
▁ويڙهي	-9105
▁پاڻيء	-9106
▁مانيٽر	-9107
▁ورهايو	-9108
▁گذاريو	-9109
▁پارٽيون	-9110
▁سوئٽزرلينڊ	-9111
ere	-9112
ابع	-9113
داس	-9114
راز	-9115
▁78	-9116
▁cl	-9117
▁em	-9118
▁خب	-9119
▁كأ	-9120
▁نح	-9121
▁ٿڌ	-9122
▁ڦل	-9123
▁ئِي	-9124
▁بات	-9125
▁روب	-9126
▁ويم	-9127
عداري	-9128
▁بيهو	-9129
▁ستين	-9130
▁چانڊ	-9131
▁چاچا	-9132
▁آزمون	-9133
▁اجزاء	-9134
▁رسالو	-9135
▁زميني	-9136
▁سادگي	-9137
▁سوالي	-9138
▁سوويت	-9139
▁منزلن	-9140
▁ٽيڪسٽ	-9141
▁ٿورڙو	-9142
▁گولڊن	-9143
▁آلودگي	-9144
▁خريدار	-9145
▁دوائون	-9146
▁ملهائڻ	-9147
▁موڪليا	-9148
▁نداسين	-9149
▁تابعداري	-9150
▁ڳالهائيندڙ	-9151
ax	-9152
خش	-9153
رٽ	-9154
ژي	-9155
جوم	-9156
ڃاڻ	-9157
▁im	-9158
▁ٽم	-9159
onus	-9160
tech	-9161
لينا	-9162
ليون	-9163
▁اكس	-9164
▁سنت	-9165
▁عضو	-9166
▁مٿن	-9167
▁ومن	-9168
▁ويژ	-9169
▁ٽور	-9170
▁پوپ	-9171
▁ڀڳو	-9172
▁ڪوڪ	-9173
▁ڪيب	-9174
▁ھجڻ	-9175
مينيم	-9176
▁افضل	-9177
▁اكتب	-9178
▁اللع	-9179
▁بيٽا	-9180
▁خرچن	-9181
▁فريب	-9182
▁قويه	-9183
▁مشار	-9184
▁نادر	-9185
▁ٿائي	-9186
▁الوقت	-9187
▁برادر	-9188
▁دائرو	-9189
▁زنجير	-9190
▁سهارو	-9191
▁سينئر	-9192
▁ميزان	-9193
▁نانءُ	-9194
▁نديءَ	-9195
▁هلايو	-9196
▁يسلمو	-9197
▁ٺاھيو	-9198
▁گلابي	-9199
▁ھميشه	-9200
ainless	-9201
▁اتحادي	-9202
▁بينظير	-9203
▁ضحكتني	-9204
▁اڳڀرائي	-9205
▁سيکاريو	-9206
▁دهشتگردن	-9207
▁پروٽوڪول	-9208
▁خودمختيار	-9209
ٻو	-9210
own	-9211
▁We	-9212
▁جع	-9213
▁سڻ	-9214
▁كش	-9215
عوري	-9216
يولي	-9217
▁حرم	-9218
▁فيل	-9219
▁ماب	-9220
▁مرك	-9221
▁مٺو	-9222
▁ٽال	-9223
▁ڊيڄ	-9224
▁ڪثر	-9225
liers	-9226
▁(201	-9227
▁ادخل	-9228
▁ارجو	-9229
▁ايدك	-9230
▁اگهه	-9231
▁اڳين	-9232
▁رايا	-9233
▁رهيب	-9234
▁سجيل	-9235
▁شفته	-9236
▁طلعت	-9237
▁فساد	-9238
▁قبلي	-9239
▁لمحو	-9240
▁ناقص	-9241
▁ويلي	-9242
▁يوزر	-9243
▁ڀائي	-9244
▁اسپام	-9245
▁اپارٽ	-9246
▁ترجمه	-9247
▁جوابي	-9248
▁رائيٽ	-9249
▁روبوٽ	-9250
▁فاصلو	-9251
▁فيصلن	-9252
▁مترجم	-9253
▁منصور	-9254
▁موٽيو	-9255
▁پرويز	-9256
▁پريشر	-9257
▁ڪمائڻ	-9258
ٽيفڪيشن	-9259
▁آسٽريا	-9260
▁آڪسيجن	-9261
▁اهلڪار	-9262
▁ميليون	-9263
▁پيراهن	-9264
▁مائڪروس	-9265
▁پاڙيسري	-9266
▁سياستدان	-9267
▁۸	-9268
erm	-9269
آءٌ	-9270
وڪو	-9271
ھيل	-9272
▁58	-9273
▁NE	-9274
▁et	-9275
▁لت	-9276
▁ڇُ	-9277
▁ڍڪ	-9278
ائنس	-9279
پولي	-9280
▁بخو	-9281
▁برٽ	-9282
▁ذوب	-9283
▁ستي	-9284
▁سٺن	-9285
▁مهن	-9286
▁نائ	-9287
▁يني	-9288
▁ڄمڻ	-9289
▁چٽي	-9290
▁ڊال	-9291
جمينٽ	-9292
▁1980	-9293
▁اريد	-9294
▁توتي	-9295
▁ساعت	-9296
▁سامي	-9297
▁سودا	-9298
▁قالت	-9299
▁مورد	-9300
▁نواف	-9301
▁هوءِ	-9302
▁پريم	-9303
▁پڇيم	-9304
▁ڏهين	-9305
▁ڪجھھ	-9306
▁گروه	-9307
▁گندي	-9308
▁استعي	-9309
▁بااثر	-9310
▁تفسير	-9311
▁جوڙيو	-9312
▁خلاصو	-9313
▁دشمنن	-9314
▁رابطه	-9315
▁ماتحت	-9316
▁آنلائن	-9317
▁اسپيني	-9318
▁انڊوني	-9319
▁اينجلس	-9320
▁پنجاهه	-9321
▁تجويزون	-9322
▁جانبدار	-9323
▁ذميداري	-9324
▁سمجهندو	-9325
▁ايماندار	-9326
▁وينداسين	-9327
▁نوٽيفڪيشن	-9328
06	-9329
خاص	-9330
صلى	-9331
▁تز	-9332
▁پٿ	-9333
▁ڀَ	-9334
ount	-9335
▁الى	-9336
▁انب	-9337
▁ترك	-9338
▁جرن	-9339
▁حلا	-9340
▁غار	-9341
▁ميت	-9342
▁يحب	-9343
▁ڏوھ	-9344
▁باغي	-9345
▁بستر	-9346
▁تربي	-9347
▁ذهين	-9348
▁رضاڪ	-9349
▁سوير	-9350
▁فيكم	-9351
▁قلبك	-9352
▁كلكم	-9353
▁مذمت	-9354
▁معكم	-9355
▁ملٽي	-9356
▁نوري	-9357
▁هيري	-9358
▁ٽنڊو	-9359
▁پيشي	-9360
▁ڀاني	-9361
▁ڄاڻن	-9362
▁ڇهين	-9363
▁ڪافر	-9364
ارميشن	-9365
▁اميره	-9366
▁تعميل	-9367
▁جائزي	-9368
▁رڙيون	-9369
▁سوچيم	-9370
▁عندكم	-9371
▁مارشل	-9372
▁ماسڪو	-9373
▁ممبئي	-9374
▁ميلون	-9375
▁مھينا	-9376
▁پراڻن	-9377
▁گناهن	-9378
▁ڳولها	-9379
▁اقتباس	-9380
▁الوداع	-9381
▁برداري	-9382
▁سرمايه	-9383
▁منشيات	-9384
▁مهربان	-9385
▁پيٽرول	-9386
uppliers	-9387
▁آئرلينڊ	-9388
▁وفاداري	-9389
▁هندوستان	-9390
▁ويڪسينيشن	-9391
▁مائڪروسافٽ	-9392
اڄ	-9393
ثل	-9394
نڀ	-9395
ugh	-9396
▁بٽ	-9397
▁رف	-9398
▁ٽچ	-9399
رينا	-9400
گذار	-9401
▁ISO	-9402
▁ازل	-9403
▁اشك	-9404
▁سرح	-9405
▁ناح	-9406
▁ويٽ	-9407
▁گنگ	-9408
▁ھلي	-9409
agram	-9410
▁100%	-9411
▁Zone	-9412
▁اااا	-9413
▁اختر	-9414
▁اھڙو	-9415
▁جماع	-9416
▁حدون	-9417
▁سومر	-9418
▁عباس	-9419
▁عملو	-9420
▁موڙي	-9421
▁ميوو	-9422
▁مڙهي	-9423
▁هلون	-9424
▁ٻوٽو	-9425
▁ٿڪجي	-9426
▁حيوان	-9427
▁نگاهه	-9428
▁چنيسر	-9429
▁آسماني	-9430
▁سڏيندا	-9431
▁سگھندا	-9432
▁ڪمپنيء	-9433
▁اداڪارا	-9434
▁رومانوي	-9435
▁گرائونڊ	-9436
▁ويجهڙائي	-9437
▁انفارميشن	-9438
ER	-9439
PS	-9440
تِ	-9441
مة	-9442
ږي	-9443
ors	-9444
ous	-9445
اطب	-9446
▁do	-9447
▁صب	-9448
▁مڻ	-9449
▁ڄم	-9450
اهون	-9451
بالر	-9452
▁انح	-9453
▁جند	-9454
▁ضبط	-9455
▁عاب	-9456
▁موج	-9457
▁ٽٽي	-9458
▁چمي	-9459
▁ڪرس	-9460
يڪيشن	-9461
▁1947	-9462
▁اربع	-9463
▁انسپ	-9464
▁انهم	-9465
▁ايمر	-9466
▁بخار	-9467
▁برهم	-9468
▁تصوف	-9469
▁جبهه	-9470
▁لالا	-9471
▁منصف	-9472
مولانا	-9473
▁<<<<<	-9474
▁انشاء	-9475
▁دائود	-9476
▁لڳندا	-9477
▁مرتضي	-9478
▁ويژگي	-9479
▁پرسيد	-9480
▁مشڪلات	-9481
▁ويچاري	-9482
▁ڊوڙندو	-9483
▁ڳوٺاڻن	-9484
▁اهلڪارن	-9485
▁باقاعدي	-9486
▁زميندار	-9487
▁کانسواء	-9488
▁ايلومينيم	-9489
ضب	-9490
طس	-9491
ool	-9492
ستا	-9493
عنو	-9494
ـَـ	-9495
ندؤ	-9496
▁63	-9497
▁iP	-9498
▁دڪ	-9499
▁هآ	-9500
ڪريٽ	-9501
▁189	-9502
▁آسي	-9503
▁آند	-9504
▁آيه	-9505
▁ابر	-9506
▁الگ	-9507
▁ترت	-9508
▁خطر	-9509
▁فڪس	-9510
▁لکو	-9511
▁نرو	-9512
▁ٿري	-9513
▁ڪيش	-9514
▁گين	-9515
▁آموز	-9516
▁اسئل	-9517
▁اسمي	-9518
▁الحق	-9519
▁السو	-9520
▁انتم	-9521
▁ايوا	-9522
▁جاين	-9523
▁دورن	-9524
▁راغب	-9525
▁روعة	-9526
▁سڏين	-9527
▁شفقت	-9528
▁شهور	-9529
▁لمحي	-9530
▁ليست	-9531
▁مجسم	-9532
▁ملاك	-9533
▁ميئر	-9534
▁هادي	-9535
▁وحدة	-9536
▁چڙهڻ	-9537
▁اُميد	-9538
▁اڏامي	-9539
▁رسالت	-9540
▁علشان	-9541
▁مخاطب	-9542
▁نگران	-9543
▁ياسين	-9544
▁ڇوڪرن	-9545
▁تربيتي	-9546
▁دانشور	-9547
▁منزلون	-9548
▁موضوعك	-9549
▁ورهايل	-9550
▁ويلڊنگ	-9551
▁ڊرائنگ	-9552
▁گاڏيون	-9553
▁نامعلوم	-9554
▁هٿياربند	-9555
▁۔۔۔۔۔۔۔۔	-9556
ai	-9557
ong	-9558
قار	-9559
▁08	-9560
▁آش	-9561
▁اء	-9562
▁تپ	-9563
▁ڊڪ	-9564
▁عبا	-9565
▁عمي	-9566
▁فوق	-9567
▁مفي	-9568
▁نثر	-9569
▁نصف	-9570
▁ڊڄي	-9571
▁ڦٽي	-9572
▁ڪلپ	-9573
▁1970	-9574
▁2002	-9575
▁حملا	-9576
▁دادا	-9577
▁زوري	-9578
▁لينس	-9579
▁محور	-9580
▁ٺيڪي	-9581
▁کتاب	-9582
▁بيٽنگ	-9583
▁مخدوم	-9584
▁ملايو	-9585
▁پيوست	-9586
▁گهيرو	-9587
▁اسڪوٽر	-9588
▁مناسبت	-9589
▁مهانگو	-9590
▁يوڪرين	-9591
▁پاليسين	-9592
▁Instagram	-9593
▁ذميواريون	-9594
▁سرمائيداري	-9595
بيل	-9596
يڪٽ	-9597
▁":	-9598
▁SD	-9599
▁حظ	-9600
▁زا	-9601
▁لٺ	-9602
▁نى	-9603
▁هب	-9604
▁11:	-9605
▁out	-9606
▁und	-9607
▁اسي	-9608
▁اپن	-9609
▁بكل	-9610
▁سود	-9611
▁مرگ	-9612
▁نوڪ	-9613
▁پتل	-9614
▁ڀٽي	-9615
▁ڪاڻ	-9616
▁گور	-9617
▁آيتن	-9618
▁آڻين	-9619
▁ابتڙ	-9620
▁اثرن	-9621
▁تجسس	-9622
▁تڪڙي	-9623
▁جناح	-9624
▁جنون	-9625
▁سولي	-9626
▁شارٽ	-9627
▁طارق	-9628
▁طبقو	-9629
▁مشعل	-9630
▁مُون	-9631
▁نقطو	-9632
▁وآله	-9633
▁ولله	-9634
▁ياسر	-9635
▁يطلع	-9636
▁ٽريڊ	-9637
▁ٽوپي	-9638
▁ڇنڇر	-9639
▁ڪھڙو	-9640
onuses	-9641
▁استحص	-9642
▁الحلو	-9643
▁جمعيت	-9644
▁سينٽي	-9645
▁سڳورن	-9646
▁عقيدو	-9647
▁مداحن	-9648
▁کڻندا	-9649
▁ايجنڊا	-9650
▁ملهائي	-9651
▁منهنجن	-9652
▁ڇڏيندس	-9653
▁ڊپريشن	-9654
▁اسلاميه	-9655
▁قبرستان	-9656
ML	-9657
عج	-9658
نڌ	-9659
چل	-9660
ons	-9661
orn	-9662
خبر	-9663
شتو	-9664
ُور	-9665
ڪاش	-9666
▁1/	-9667
▁Un	-9668
▁جپ	-9669
▁حط	-9670
▁گج	-9671
▁imp	-9672
▁سٽن	-9673
▁عاش	-9674
▁ناب	-9675
▁واک	-9676
▁ڇرڪ	-9677
▁گها	-9678
پمينٽ	-9679
▁ايدي	-9680
▁ايوه	-9681
▁جوري	-9682
▁فونٽ	-9683
▁ليلي	-9684
▁مقدر	-9685
▁ميلو	-9686
▁چاچي	-9687
▁ڇپيو	-9688
▁کائو	-9689
▁گرجا	-9690
پوليٽن	-9691
▁اصليت	-9692
▁بخاري	-9693
▁تجربه	-9694
▁سارنگ	-9695
▁معذرت	-9696
▁نائين	-9697
▁پرائي	-9698
▁ڊراما	-9699
▁کانئن	-9700
▁گواهي	-9701
▁بيشمار	-9702
▁سينٽرل	-9703
▁طبقاتي	-9704
▁فعاليت	-9705
▁موٽائي	-9706
▁گارنٽي	-9707
▁ڳولهيو	-9708
▁جمهوريه	-9709
▁پناهگير	-9710
▁ٽرانزيڪشن	-9711
▁ميٽروپوليٽن	-9712
یا	-9713
یز	-9714
رور	-9715
روض	-9716
سمع	-9717
▁بأ	-9718
▁لڄ	-9719
ٽائن	-9720
▁10-	-9721
▁184	-9722
▁آخه	-9723
▁اصح	-9724
▁بسم	-9725
▁بگي	-9726
▁حلي	-9727
▁صوت	-9728
▁مرچ	-9729
▁واڳ	-9730
▁وفد	-9731
▁ڀڃي	-9732
▁چوڪ	-9733
▁ڏٺل	-9734
▁ڪوچ	-9735
▁گيج	-9736
▁ھين	-9737
▁اللى	-9738
▁تباد	-9739
▁تصدق	-9740
▁ردود	-9741
▁رفته	-9742
▁سبزي	-9743
▁سرڪٽ	-9744
▁سعود	-9745
▁صوره	-9746
▁قطعي	-9747
▁مامي	-9748
▁مبني	-9749
▁منور	-9750
▁ميره	-9751
▁نويس	-9752
▁گڏهه	-9753
▁اميدن	-9754
▁خيرات	-9755
▁ذريعا	-9756
▁شماره	-9757
▁قيدين	-9758
▁مارٽن	-9759
▁منافع	-9760
▁ميٽرڪ	-9761
▁نميشه	-9762
▁وڌندو	-9763
▁ڏاڙهي	-9764
▁ڪوٽنگ	-9765
▁حرارتي	-9766
▁درباره	-9767
▁درياءَ	-9768
▁عدالتن	-9769
▁مايوسي	-9770
▁مزاحيه	-9771
▁منھنجا	-9772
▁ٺاهيون	-9773
▁چونڊجي	-9774
▁Martech	-9775
▁چيومانس	-9776
قف	-9777
حقي	-9778
وله	-9779
ڊنٽ	-9780
ڪسي	-9781
▁Mi	-9782
▁mm	-9783
▁حز	-9784
▁دھ	-9785
▁صر	-9786
ames	-9787
ارٽر	-9788
مولا	-9789
هندڙ	-9790
▁Net	-9791
▁آدر	-9792
▁شمس	-9793
▁فجر	-9794
▁فرن	-9795
▁متى	-9796
▁ميك	-9797
▁ناد	-9798
▁نوح	-9799
▁وكل	-9800
▁پات	-9801
▁چٽو	-9802
▁ڊار	-9803
▁کند	-9804
▁حبيت	-9805
▁دلڪش	-9806
▁رشتن	-9807
▁زاهد	-9808
▁شلون	-9809
▁فاني	-9810
▁قوتن	-9811
▁لالچ	-9812
▁ملير	-9813
▁مومن	-9814
▁نانو	-9815
▁نقاب	-9816
▁هُجي	-9817
▁وقفي	-9818
▁وڃين	-9819
▁پڌري	-9820
▁ٿاڻي	-9821
▁ڪپهه	-9822
▁آرشيو	-9823
▁آوازن	-9824
▁اسپيس	-9825
▁اهواز	-9826
▁ثانوي	-9827
▁جايون	-9828
▁حادثو	-9829
▁درٻار	-9830
▁عوامل	-9831
▁ميٽنگ	-9832
▁ٽريول	-9833
▁چوڌري	-9834
▁ڏهاڪن	-9835
▁ڳولهڻ	-9836
▁پورهيو	-9837
▁ڪمزوري	-9838
▁surname	-9839
▁نمائندن	-9840
▁ورتائين	-9841
▁پيچيدگي	-9842
▁مقناطيسي	-9843
1:	-9844
ks	-9845
بى	-9846
عث	-9847
اتن	-9848
هڙي	-9849
ٿيل	-9850
▁05	-9851
▁أو	-9852
="1.	-9853
awei	-9854
بوري	-9855
▁^_^	-9856
▁أهم	-9857
▁جڙي	-9858
▁سوز	-9859
▁شيل	-9860
▁فدي	-9861
▁كدة	-9862
▁معر	-9863
▁واي	-9864
▁پسر	-9865
▁چاه	-9866
▁ڊرا	-9867
▁ڪٽر	-9868
ction	-9869
پورٽس	-9870
▁ment	-9871
▁تجرب	-9872
▁جھان	-9873
▁رومي	-9874
▁عيني	-9875
▁ملان	-9876
▁مواف	-9877
▁ناٽڪ	-9878
▁ڪاهي	-9879
▁گفتم	-9880
▁اقرار	-9881
▁بصيرت	-9882
▁جهيڙو	-9883
▁شاخون	-9884
▁قبيلي	-9885
▁مجنون	-9886
▁مٽائڻ	-9887
▁هولڊر	-9888
▁چڪيون	-9889
▁ڪنوار	-9890
▁Huawei	-9891
▁اسٽائل	-9892
▁Surname	-9893
▁پالڻهار	-9894
▁ڊرائيونگ	-9895
we	-9896
رأ	-9897
طب	-9898
وع	-9899
َم	-9900
تيم	-9901
پرو	-9902
کار	-9903
ڪشش	-9904
ڪون	-9905
▁62	-9906
▁76	-9907
▁طف	-9908
▁ڙن	-9909
▁کړ	-9910
انيل	-9911
▁آغا	-9912
▁تني	-9913
▁جال	-9914
▁حمد	-9915
▁رنا	-9916
▁رنج	-9917
▁عنه	-9918
▁قمي	-9919
اريون	-9920
ريبين	-9921
▁برتن	-9922
▁سطحي	-9923
▁عيوض	-9924
▁فيسٽ	-9925
▁لاڳي	-9926
▁مثلي	-9927
▁وليم	-9928
▁ويري	-9929
▁ويژه	-9930
▁وٺان	-9931
▁پوڄا	-9932
▁ڏوهن	-9933
▁ڪهاڻ	-9934
▁جپاني	-9935
▁فضائي	-9936
▁محصول	-9937
▁هوندس	-9938
▁وڌندا	-9939
▁ٽيڪنڪ	-9940
▁پائين	-9941
▁پرڪشش	-9942
▁احساسن	-9943
▁خيرپور	-9944
▁سازمان	-9945
▁هنگامي	-9946
▁اسپتالن	-9947
▁شنگھائي	-9948
▁اسڪالرشپ	-9949
▁بندرگاهه	-9950
02	-9951
DD	-9952
تب	-9953
ڈر	-9954
▁क	-9955
انت	-9956
سيس	-9957
سڪو	-9958
كار	-9959
كنت	-9960
منس	-9961
يئي	-9962
▁8:	-9963
▁ئر	-9964
▁خذ	-9965
▁سڱ	-9966
▁ڦٽ	-9967
▁کش	-9968
▁ڪچ	-9969
="3.	-9970
واره	-9971
پاسي	-9972
▁اظن	-9973
▁بدم	-9974
▁دلو	-9975
▁مٽا	-9976
▁وڪڻ	-9977
▁ڪبي	-9978
▁گُل	-9979
▁ھند	-9980
▁آذرب	-9981
▁آوري	-9982
▁اسمك	-9983
▁الكل	-9984
▁انڌي	-9985
▁بلبل	-9986
▁ترمي	-9987
▁ستار	-9988
▁سمعت	-9989
▁فكرت	-9990
▁مهار	-9991
▁ميكن	-9992
▁نسخن	-9993
▁وندر	-9994
▁کامل	-9995
▁گردن	-9996
▁اجاگر	-9997
▁روپيا	-9998
▁مهاجر	-9999
▁گروهن	-10000
▁آفريڪي	-10001
▁الكلام	-10002
▁تحليلي	-10003
▁شيئرنگ	-10004
▁لاڏاڻو	-10005
▁هاهاها	-10006
▁ورڪشاپ	-10007
▁پهچندي	-10008
▁ڪاربان	-10009
▁آڪسائيڊ	-10010
▁شڪارپور	-10011
▁اسيمبليءَ	-10012
▁انڊونيشيا	-10013
▁خودمختياري	-10014
▁ډ	-10015
omi	-10016
oot	-10017
رام	-10018
علم	-10019
ڙهه	-10020
▁tr	-10021
▁ئو	-10022
▁شى	-10023
يڪٽر	-10024
▁Xia	-10025
▁زيت	-10026
▁قسط	-10027
▁مقت	-10028
▁پاک	-10029
▁ڀڄڻ	-10030
▁ڪيچ	-10031
▁گام	-10032
▁گشت	-10033
ility	-10034
مونکي	-10035
▁1995	-10036
▁آرٽس	-10037
▁الرج	-10038
▁الفا	-10039
▁جوڳو	-10040
▁رکان	-10041
▁مڃيو	-10042
▁هالا	-10043
▁هيئت	-10044
▁ٻيءَ	-10045
▁ٻيڻو	-10046
▁پکيڙ	-10047
▁ڀتين	-10048
▁ڪنڊي	-10049
▁آآآآآ	-10050
▁اولمپ	-10051
▁دفاعي	-10052
▁دڪانن	-10053
▁صراحه	-10054
▁عقيدت	-10055
▁لاچار	-10056
▁ليڪچر	-10057
▁اتفاقي	-10058
▁تيزيءَ	-10059
▁جهڙيون	-10060
▁هٿيارن	-10061
▁يورپين	-10062
▁رهنديون	-10063
▁بااختيار	-10064
یو	-10065
▁ې	-10066
ath	-10067
oud	-10068
داي	-10069
لهم	-10070
▁74	-10071
▁8-	-10072
▁Cl	-10073
▁la	-10074
▁اڷ	-10075
▁شط	-10076
فالٽ	-10077
گنڊا	-10078
▁10:	-10079
▁bit	-10080
▁ايز	-10081
▁بتن	-10082
▁بره	-10083
▁جها	-10084
▁داس	-10085
▁زيب	-10086
▁ساک	-10087
▁سُک	-10088
▁عاي	-10089
▁لئي	-10090
▁لاڙ	-10091
▁نسخ	-10092
▁واش	-10093
▁ورد	-10094
▁يلي	-10095
▁پڪي	-10096
▁ڏکن	-10097
▁گيل	-10098
▁1960	-10099
▁1997	-10100
▁انجي	-10101
▁انيڪ	-10102
▁بارش	-10103
▁براد	-10104
▁بوٽن	-10105
▁تڪڙا	-10106
▁جرنل	-10107
▁فيئر	-10108
▁قاسم	-10109
▁منشي	-10110
▁مومل	-10111
▁نصير	-10112
▁وسعت	-10113
▁ٽريف	-10114
▁چشمي	-10115
▁ڊائي	-10116
▁ڏسين	-10117
▁ڏڪار	-10118
ياريون	-10119
▁اشاري	-10120
▁حوالا	-10121
▁رايكم	-10122
▁سلائي	-10123
▁شريعت	-10124
▁نديون	-10125
▁پاڙون	-10126
▁پرچون	-10127
▁پوڙهو	-10128
▁آسانيء	-10129
▁آڻيندي	-10130
▁جارجيا	-10131
▁زيادتي	-10132
▁منافعي	-10133
▁نوازيو	-10134
▁پهچندو	-10135
▁پڙهندا	-10136
▁رهياسين	-10137
▁سموريون	-10138
▁شهنشاهه	-10139
▁Facebook	-10140
▁ڪسٽمائيز	-10141
DF	-10142
لآ	-10143
وح	-10144
▁→	-10145
ino	-10146
ايس	-10147
باز	-10148
رحم	-10149
ممم	-10150
▁ID	-10151
▁pr	-10152
▁سخ	-10153
▁کے	-10154
ives	-10155
ٽيشن	-10156
▁آتم	-10157
▁ابد	-10158
▁اقل	-10159
▁زيد	-10160
▁سکن	-10161
▁منگ	-10162
▁مٺا	-10163
▁وون	-10164
ating	-10165
▁براڊ	-10166
▁فيڊر	-10167
▁محرم	-10168
▁مصنف	-10169
▁همون	-10170
▁واڻي	-10171
▁وووو	-10172
▁گفته	-10173
▁ارشاد	-10174
▁اقوام	-10175
▁النكت	-10176
▁انتظر	-10177
▁اوترو	-10178
▁تجزيي	-10179
▁توجهه	-10180
▁جاويد	-10181
▁صورتن	-10182
▁ضابطي	-10183
▁فنانس	-10184
▁مذهبن	-10185
▁ملتان	-10186
▁نگاري	-10187
▁السالف	-10188
▁معاملا	-10189
▁معاوضي	-10190
▁ميرپور	-10191
▁نوڪرين	-10192
▁ڏوهاري	-10193
▁کوٽائي	-10194
▁رياستون	-10195
▁منهنجون	-10196
▁ناپسندي	-10197
▁موڪليندا	-10198
▁نقصانڪار	-10199
▁نيوزيلينڊ	-10200
**	-10201
ey	-10202
بب	-10203
iss	-10204
اسه	-10205
جوي	-10206
سلڪ	-10207
ڪوٽ	-10208
▁go	-10209
▁up	-10210
▁كِ	-10211
▁ٽُ	-10212
ater	-10213
بليٽ	-10214
خبري	-10215
هاڙي	-10216
▁HTC	-10217
▁You	-10218
▁اتس	-10219
▁امه	-10220
▁بدك	-10221
▁جهل	-10222
▁لاب	-10223
▁مذھ	-10224
▁هرو	-10225
▁year	-10226
▁آقاي	-10227
▁اساس	-10228
▁اقدر	-10229
▁تُون	-10230
▁خليل	-10231
▁ريمو	-10232
▁سائز	-10233
▁سُور	-10234
▁مخزن	-10235
▁ميگه	-10236
▁هلان	-10237
▁وڌيو	-10238
▁پنير	-10239
يڪيوٽو	-10240
▁ايترا	-10241
▁ايريا	-10242
▁ايميل	-10243
▁تڪميل	-10244
▁سائبر	-10245
▁سمايل	-10246
▁لڪائڻ	-10247
▁معاكم	-10248
▁مٿئين	-10249
▁ياليت	-10250
▁ٽائيپ	-10251
▁خواهيد	-10252
▁رهواسي	-10253
▁روزمره	-10254
▁ساراهي	-10255
▁صلاحون	-10256
▁ٽيبليٽ	-10257
▁پاناما	-10258
▁ڪيٿولڪ	-10259
▁رضامندي	-10260
▁ڪاميابيءَ	-10261
▁اااااااااا	-10262
بہ	-10263
رد	-10264
ype	-10265
خدا	-10266
لوا	-10267
گاس	-10268
▁92	-10269
▁دڙ	-10270
▁رچ	-10271
▁زد	-10272
▁لٽ	-10273
▁يج	-10274
▁ھم	-10275
ذيري	-10276
گائي	-10277
▁1.2	-10278
▁exp	-10279
▁باق	-10280
▁بده	-10281
▁بشه	-10282
▁بيٺ	-10283
▁حدا	-10284
▁دام	-10285
▁سوپ	-10286
▁فلا	-10287
▁قرن	-10288
▁قهر	-10289
▁كار	-10290
▁هاد	-10291
▁واھ	-10292
▁پسم	-10293
▁چاڪ	-10294
▁ڇوڙ	-10295
▁ڪنس	-10296
ولينڊ	-10297
▁أكيد	-10298
▁افهم	-10299
▁تضاد	-10300
▁تعلم	-10301
▁رکڻو	-10302
▁غالي	-10303
▁قيدي	-10304
▁لانگ	-10305
▁ليون	-10306
▁مائع	-10307
▁مرشد	-10308
▁نارن	-10309
▁وائس	-10310
▁ويتر	-10311
▁وٺون	-10312
▁پوين	-10313
▁پوٽي	-10314
▁چئون	-10315
▁چاهه	-10316
▁ڊائن	-10317
▁الصور	-10318
▁بدعنو	-10319
▁تجزيه	-10320
▁حاضري	-10321
▁رابطا	-10322
▁منسلڪ	-10323
▁پذيري	-10324
▁چندين	-10325
▁ڪئپٽن	-10326
▁Xiaomi	-10327
▁خورشيد	-10328
▁خوشحال	-10329
▁خيالات	-10330
▁سنڌيءَ	-10331
▁ويهاري	-10332
▁پندرهن	-10333
▁ڄاڻندڙ	-10334
▁آرڪائيو	-10335
▁تُنهنجي	-10336
▁ڳالھيون	-10337
//	-10338
10	-10339
شى	-10340
غا	-10341
ِء	-10342
ِڪ	-10343
air	-10344
ize	-10345
▁(5	-10346
▁AM	-10347
▁غز	-10348
▁لط	-10349
▁هش	-10350
▁180	-10351
▁rec	-10352
▁آئس	-10353
▁ازم	-10354
▁بنو	-10355
▁عکس	-10356
▁منى	-10357
▁هما	-10358
▁ڪُن	-10359
▁گوڙ	-10360
▁1998	-10361
▁اينا	-10362
▁بعضي	-10363
▁تبين	-10364
▁راسك	-10365
▁راشد	-10366
▁طرفي	-10367
▁قرضن	-10368
▁مغرب	-10369
▁ميگي	-10370
▁نڪتي	-10371
▁واءُ	-10372
▁ٿانو	-10373
▁آيتون	-10374
▁جهاني	-10375
▁ستارن	-10376
▁سيمين	-10377
▁فرياد	-10378
▁مهراڻ	-10379
▁واکاڻ	-10380
▁وضعيت	-10381
▁ٽريفڪ	-10382
▁کائين	-10383
▁جاندار	-10384
▁فٽبالر	-10385
▁والاري	-10386
▁ڏکيائي	-10387
▁connect	-10388
▁احتجاجي	-10389
▁استحصال	-10390
▁سيٽنگون	-10391
▁مُنهنجي	-10392
▁ڪاروائي	-10393
▁ڪمپيوٽرن	-10394
▁ايگزيڪيوٽو	-10395
هِ	-10396
ata	-10397
ise	-10398
vel	-10399
راي	-10400
سلر	-10401
مال	-10402
نظر	-10403
يار	-10404
▁01	-10405
▁2,	-10406
▁Te	-10407
▁سح	-10408
▁هڏ	-10409
تيار	-10410
گيشن	-10411
▁آتش	-10412
▁آهر	-10413
▁اُج	-10414
▁تال	-10415
▁جلي	-10416
▁حسي	-10417
▁ستا	-10418
▁شغل	-10419
▁لتا	-10420
▁لٿو	-10421
▁ماڪ	-10422
▁معه	-10423
▁گرڊ	-10424
▁الشر	-10425
▁الهي	-10426
▁بيها	-10427
▁جيءُ	-10428
▁حلال	-10429
▁زالن	-10430
▁ستون	-10431
▁سيزن	-10432
▁عاجز	-10433
▁عامل	-10434
▁عبير	-10435
▁لينا	-10436
▁نهار	-10437
▁هميش	-10438
▁هنوز	-10439
▁ورڪن	-10440
▁کنيم	-10441
▁ڪيڏا	-10442
▁گھمڻ	-10443
▁Black	-10444
▁آسودو	-10445
▁اداره	-10446
▁زمينن	-10447
▁عندهم	-10448
▁مستحي	-10449
▁مضحكه	-10450
▁ڌماڪو	-10451
▁گهريو	-10452
▁ريپبلڪ	-10453
▁قوانين	-10454
▁مهمانن	-10455
▁پيپلزپ	-10456
▁پيگيري	-10457
▁پڙهائڻ	-10458
▁ريگيولي	-10459
▁فارمولا	-10460
QU	-10461
ts	-10462
َڻ	-10463
8">	-10464
ble	-10465
▁09	-10466
▁73	-10467
▁89	-10468
▁ol	-10469
▁خُ	-10470
▁زع	-10471
▁لئ	-10472
▁لھ	-10473
ther	-10474
جنسي	-10475
▁11.	-10476
▁Dis	-10477
▁org	-10478
▁آلي	-10479
▁اٿڻ	-10480
▁اڪر	-10481
▁بتي	-10482
▁برڪ	-10483
▁ثال	-10484
▁دكت	-10485
▁سڪل	-10486
▁صبا	-10487
▁فاس	-10488
▁نوف	-10489
▁واڪ	-10490
▁پَر	-10491
▁ڊور	-10492
▁ڏجن	-10493
▁1992	-10494
▁HTML	-10495
▁اكون	-10496
▁ترکي	-10497
▁حُسن	-10498
▁دختر	-10499
▁عاقل	-10500
▁غفلت	-10501
▁مريد	-10502
▁منطق	-10503
▁مڃتا	-10504
▁نسلي	-10505
▁چاٻي	-10506
▁ڪاڏي	-10507
ايائون	-10508
▁الطاف	-10509
▁انجيل	-10510
▁حقدار	-10511
▁مثالن	-10512
▁ناروي	-10513
▁پرنٽر	-10514
▁ڪنوين	-10515
▁الزامن	-10516
▁امتياز	-10517
▁اڻڄاتل	-10518
▁رينجرز	-10519
▁رپورٽن	-10520
▁ڀرپاسي	-10521
▁ڪيبورڊ	-10522
▁مزاحمتي	-10523
▁وضاحتون	-10524
▁ايمرجنسي	-10525
▁بيماريءَ	-10526
▁حياتياتي	-10527
ka	-10528
yl	-10529
ٻڙ	-10530
ach	-10531
ara	-10532
cre	-10533
fer	-10534
انص	-10535
دون	-10536
نتي	-10537
ڪوز	-10538
▁93	-10539
▁اڙ	-10540
▁جڙ	-10541
▁جڪ	-10542
▁ڌڙ	-10543
▁12.	-10544
▁che	-10545
▁des	-10546
▁mon	-10547
▁ter	-10548
▁؟؟!	-10549
▁اكت	-10550
▁بجا	-10551
▁حنا	-10552
▁زنگ	-10553
▁سرت	-10554
▁ضعي	-10555
▁وتا	-10556
▁ياس	-10557
▁ٺڳي	-10558
▁ٽرن	-10559
▁پڇن	-10560
▁ٿام	-10561
▁ڄار	-10562
▁گرل	-10563
▁گيس	-10564
▁ڳاڙ	-10565
▁with	-10566
▁اولي	-10567
▁توني	-10568
▁خلوص	-10569
▁سينا	-10570
▁فروش	-10571
▁فكرة	-10572
▁ليکي	-10573
▁نقشن	-10574
▁يالغ	-10575
▁پتلي	-10576
▁پيتي	-10577
▁اتمنى	-10578
▁اقبال	-10579
▁اوارڊ	-10580
▁ايندس	-10581
▁سالگي	-10582
▁شرطون	-10583
▁عليءَ	-10584
▁منجهس	-10585
▁هاسٽل	-10586
▁چارلس	-10587
▁چيمبر	-10588
▁ڏهاڙي	-10589
ication	-10590
▁منصوبه	-10591
▁ويساهه	-10592
▁گهرجون	-10593
▁خوشخبري	-10594
▁شاءالله	-10595
▁نوڪريءَ	-10596
▁ايڪسپورٽ	-10597
▁cryptocurrency	-10598
▁ااااااااااااااا	-10599
CO	-10600
قب	-10601
1">	-10602
OTE	-10603
اجه	-10604
هاڻ	-10605
▁94	-10606
▁Sk	-10607
▁ءُ	-10608
▁صا	-10609
▁لپ	-10610
▁ڪک	-10611
▁ہے	-10612
▁185	-10613
▁PST	-10614
▁app	-10615
▁آجي	-10616
▁اعم	-10617
▁بها	-10618
▁ترو	-10619
▁جئن	-10620
▁جزو	-10621
▁ساھ	-10622
▁قار	-10623
▁لحد	-10624
▁مصط	-10625
▁موم	-10626
▁ورو	-10627
▁ٽيب	-10628
▁ڏاه	-10629
▁کمي	-10630
▁اختت	-10631
▁افكر	-10632
▁بينڊ	-10633
▁جملا	-10634
▁خاڪي	-10635
▁روپي	-10636
▁سوان	-10637
▁شباب	-10638
▁صغير	-10639
▁فاضي	-10640
▁لانه	-10641
▁معدن	-10642
▁نامز	-10643
▁وجھي	-10644
▁ورثو	-10645
▁يارب	-10646
▁ٻنھي	-10647
▁ٻوٽا	-10648
▁پائل	-10649
▁پھچي	-10650
▁چاھي	-10651
▁ڊاهي	-10652
▁ڊوڙي	-10653
▁ڌاڙي	-10654
▁ڏاڪڻ	-10655
▁ڦاسي	-10656
▁ڦيري	-10657
▁ڪنڊن	-10658
▁گارڊ	-10659
قانوني	-10660
▁اطلاق	-10661
▁انزين	-10662
▁اڄوڪو	-10663
▁حالات	-10664
▁سانوڻ	-10665
▁سلامي	-10666
▁سنسار	-10667
▁ضياءَ	-10668
▁غمگين	-10669
▁لياقت	-10670
▁مديني	-10671
▁موسيٰ	-10672
▁مونجه	-10673
▁ميهار	-10674
▁وڪيلن	-10675
▁ڪھاڻي	-10676
▁اڇلائي	-10677
▁بلاگنگ	-10678
▁انفيڪشن	-10679
▁سوچيندي	-10680
▁ضحكتيني	-10681
▁ڪيريبين	-10682
▁ٽيليگرام	-10683
▁غيرقانوني	-10684
▁ڏيکاريندي	-10685
ii	-10686
وك	-10687
َه	-10688
ّي	-10689
▁۷	-10690
oll	-10691
تظر	-10692
حنا	-10693
فيا	-10694
▁68	-10695
▁Co	-10696
▁MI	-10697
▁br	-10698
▁آج	-10699
▁شش	-10700
▁۱۳	-10701
سڪرت	-10702
▁(6)	-10703
▁1.5	-10704
▁آڱر	-10705
▁اتك	-10706
▁انڌ	-10707
▁بڻج	-10708
▁جلا	-10709
▁ذرو	-10710
▁زني	-10711
▁عنك	-10712
▁فنگ	-10713
▁فيا	-10714
▁لڌو	-10715
▁نقد	-10716
▁هٽي	-10717
▁يرو	-10718
▁ڀاڻ	-10719
ديمند	-10720
▁آرزو	-10721
▁انمي	-10722
▁انڪو	-10723
▁اوكي	-10724
▁تسوي	-10725
▁جهاد	-10726
▁خميس	-10727
▁رسال	-10728
▁سينو	-10729
▁شيعه	-10730
▁فارغ	-10731
▁فضول	-10732
▁فيلم	-10733
▁قميص	-10734
▁مُرڪ	-10735
▁نقول	-10736
▁واسي	-10737
▁وايد	-10738
▁وقار	-10739
▁پاري	-10740
▁پلنگ	-10741
▁پهتس	-10742
▁پڙھڻ	-10743
▁ڇوته	-10744
▁ڊيوڊ	-10745
▁ڌنڌي	-10746
▁ڪوڙا	-10747
▁ھليو	-10748
▁سوانح	-10749
▁فورسز	-10750
▁ماڊلز	-10751
▁ناانص	-10752
▁نظريا	-10753
▁وسيلو	-10754
▁ٻڌندا	-10755
▁ڪارون	-10756
▁سنسڪرت	-10757
▁سيٽنگن	-10758
▁سپلائي	-10759
▁مشكورة	-10760
▁يهودين	-10761
▁پنھنجا	-10762
▁پولينڊ	-10763
▁اينيمڪس	-10764
▁رٿابندي	-10765
▁فرمانبر	-10766
5.	-10767
af	-10768
ثا	-10769
َء	-10770
یٹ	-10771
▁٤	-10772
▁۰	-10773
▁۶	-10774
ئرن	-10775
گهڙ	-10776
▁قی	-10777
▁نل	-10778
▁ھُ	-10779
حانن	-10780
▁186	-10781
▁Man	-10782
▁ant	-10783
▁اسك	-10784
▁تقي	-10785
▁تكف	-10786
▁تلق	-10787
▁حسد	-10788
▁حكم	-10789
▁رود	-10790
▁سپي	-10791
▁عدل	-10792
▁غضب	-10793
▁لفٽ	-10794
▁ليت	-10795
▁ماڊ	-10796
▁مڊل	-10797
▁مگه	-10798
▁نڪو	-10799
▁نگه	-10800
▁ورن	-10801
▁ڀاڄ	-10802
درآمد	-10803
▁1988	-10804
▁اشرف	-10805
▁اوسي	-10806
▁بيلٽ	-10807
▁بينچ	-10808
▁تباھ	-10809
▁جھلي	-10810
▁حاوي	-10811
▁داعي	-10812
▁ديرو	-10813
▁رهيل	-10814
▁سرنگ	-10815
▁قياس	-10816
▁ليڊي	-10817
▁مالا	-10818
▁مفاص	-10819
▁وياج	-10820
▁ٻُڌي	-10821
▁ٻڪري	-10822
▁پئدا	-10823
▁ڪلهو	-10824
▁ھائو	-10825
▁آجيان	-10826
▁تبصرا	-10827
▁حلووو	-10828
▁شعوري	-10829
▁شيرين	-10830
▁ليکڪن	-10831
▁معدني	-10832
▁ڀروسي	-10833
▁ڪنارن	-10834
▁inform	-10835
▁خوبيون	-10836
▁سينيئر	-10837
▁لاڳيتو	-10838
▁ورهائڻ	-10839
▁گهڙيءَ	-10840
▁بادشاهي	-10841
▁ڪولمبيا	-10842
▁ايرانيان	-10843
▁اپارٽمنٽ	-10844
▁عملدرآمد	-10845
▁هلائيندڙ	-10846
▁پھريائين	-10847
WS	-10848
جج	-10849
ڊم	-10850
▁٥	-10851
dit	-10852
زيز	-10853
شير	-10854
َنِ	-10855
▁9-	-10856
▁ir	-10857
▁ul	-10858
▁بف	-10859
▁دَ	-10860
indh	-10861
▁1.1	-10862
▁2.1	-10863
▁اُڃ	-10864
▁سهر	-10865
▁علت	-10866
▁فرص	-10867
▁فله	-10868
▁مدو	-10869
▁ٽون	-10870
▁کلا	-10871
▁گدا	-10872
round	-10873
▁1999	-10874
▁آمين	-10875
▁آندي	-10876
▁اعمل	-10877
▁تمنا	-10878
▁جزوي	-10879
▁رسان	-10880
▁سسئي	-10881
▁مارن	-10882
▁مسڪر	-10883
▁نفسه	-10884
▁واسه	-10885
▁پرسي	-10886
▁ھوءَ	-10887
▁اساسي	-10888
▁توسيع	-10889
▁خليجي	-10890
▁رهندس	-10891
▁ضابطا	-10892
▁لبنان	-10893
▁مضحكة	-10894
▁مظاهر	-10895
▁ملائڪ	-10896
▁ڊوائس	-10897
▁کڻندو	-10898
▁گرافڪ	-10899
▁گهٽين	-10900
▁اقتصاد	-10901
▁محترمه	-10902
▁مشهوري	-10903
▁پيغامن	-10904
▁اسپورٽس	-10905
▁رپورٽون	-10906
▁فائديمند	-10907
▁پيداواري	-10908
▁ڪهاڻيڪار	-10909
TN	-10910
yn	-10911
آه	-10912
پپ	-10913
6">	-10914
row	-10915
ارة	-10916
جنس	-10917
قاء	-10918
▁AS	-10919
▁آح	-10920
▁رگ	-10921
▁سئ	-10922
▁وی	-10923
▁ٿِ	-10924
▁ڏھ	-10925
ings	-10926
ليءَ	-10927
▁900	-10928
▁cor	-10929
▁min	-10930
▁ترڻ	-10931
▁جات	-10932
▁دال	-10933
▁ريڪ	-10934
▁زڪو	-10935
▁سَر	-10936
▁غبي	-10937
▁للي	-10938
▁ٿڪل	-10939
▁ڪفر	-10940
▁گیم	-10941
QUOTE	-10942
ئيندڙ	-10943
اداري	-10944
▁>>>>	-10945
▁اٺين	-10946
▁بريف	-10947
▁تعيش	-10948
▁جبتي	-10949
▁راڻا	-10950
▁رکجي	-10951
▁زاوي	-10952
▁زنان	-10953
▁صالح	-10954
▁عهدن	-10955
▁فارو	-10956
▁فلور	-10957
▁قولت	-10958
▁مظهر	-10959
▁مفيش	-10960
▁نعرف	-10961
▁پرده	-10962
▁ڀاڙي	-10963
▁الٽرا	-10964
▁حوالن	-10965
▁رابرٽ	-10966
▁سڌريل	-10967
▁صاحبي	-10968
▁عزيزي	-10969
▁عنايت	-10970
▁عندها	-10971
▁لڪايو	-10972
▁نمونا	-10973
▁نوڪيا	-10974
▁پزشکي	-10975
▁ڪافرن	-10976
▁ڪنٽين	-10977
▁اسٽيٽس	-10978
▁سياحتي	-10979
▁متاثرن	-10980
▁هارمون	-10981
▁هوريان	-10982
▁وووووو	-10983
▁پارڪنگ	-10984
▁تنظيمون	-10985
▁فيسٽيول	-10986
▁اسٽريمنگ	-10987
▁مهانگائي	-10988
▁هڪجهڙائي	-10989
▁وڌائيندو	-10990
▁ڏکوئيندڙ	-10991
▁گورنمينٽ	-10992
▁بيروزگاري	-10993
▁ناپسنديده	-10994
33	-10995
قم	-10996
ابق	-10997
راھ	-10998
رتا	-10999
▁CB	-11000
▁رڍ	-11001
▁كا	-11002
▁كذ	-11003
ruct	-11004
سائي	-11005
▁ادخ	-11006
▁اهه	-11007
▁اُت	-11008
▁اٿو	-11009
▁خطا	-11010
▁دلا	-11011
▁عائ	-11012
▁ويد	-11013
▁ٻري	-11014
▁ڇال	-11015
▁ڇنڊ	-11016
▁="2.	-11017
▁احلا	-11018
▁الرح	-11019
▁اِهي	-11020
▁بولي	-11021
▁بيگم	-11022
▁جملن	-11023
▁جنگل	-11024
▁حامد	-11025
▁ساگر	-11026
▁كتاب	-11027
▁ميسي	-11028
▁ناگز	-11029
▁نظير	-11030
▁نقشه	-11031
▁وائل	-11032
▁ورزي	-11033
▁وينس	-11034
▁پوکڻ	-11035
▁ڊرون	-11036
▁گفتن	-11037
▁Names	-11038
▁بادشا	-11039
▁تجاري	-11040
▁خصوصا	-11041
▁روئين	-11042
▁سڀيئي	-11043
▁شهباز	-11044
▁عقيدن	-11045
▁مظلوم	-11046
▁منتظم	-11047
▁واسين	-11048
▁وانتي	-11049
▁ڪاغذن	-11050
▁رضاڪار	-11051
▁فنڪشنل	-11052
▁منجھان	-11053
▁موڪلون	-11054
▁ميگزين	-11055
▁پڙهندي	-11056
▁ائيزيشن	-11057
▁دستيابي	-11058
▁پراسرار	-11059
▁ڏيکاريا	-11060
▁بدعنواني	-11061
▁تبديليءَ	-11062
▁گريجوئيٽ	-11063
▁ڳالهائين	-11064
▁ٽرانسميشن	-11065
AD	-11066
دؤ	-11067
رڻ	-11068
كد	-11069
ory	-11070
حاق	-11071
هتي	-11072
▁03	-11073
▁06	-11074
▁بآ	-11075
▁لج	-11076
▁نذ	-11077
▁نک	-11078
▁ڳُ	-11079
▁❤️	-11080
وريل	-11081
▁آجو	-11082
▁تتر	-11083
▁حلف	-11084
▁لغت	-11085
▁ليل	-11086
▁ميش	-11087
▁مکڻ	-11088
▁نما	-11089
▁هاا	-11090
▁چنگ	-11091
گرافڪ	-11092
▁this	-11093
▁اسڪي	-11094
▁المف	-11095
▁اناج	-11096
▁انڊر	-11097
▁تاجر	-11098
▁تماڪ	-11099
▁راول	-11100
▁صحرا	-11101
▁فڪري	-11102
▁مثلك	-11103
▁مجرم	-11104
▁مهذب	-11105
▁ميرن	-11106
▁ميرو	-11107
▁مُلڪ	-11108
▁ناني	-11109
▁ناڻي	-11110
▁هجان	-11111
▁وعدو	-11112
▁ٻارڻ	-11113
▁پليس	-11114
▁ڌوئي	-11115
▁کوهه	-11116
▁ڪثرت	-11117
▁ڪشمي	-11118
▁ڪمرن	-11119
▁ڪٽيل	-11120
▁گذشت	-11121
▁Sindh	-11122
▁اشارن	-11123
▁جراحي	-11124
▁سپرين	-11125
▁صديقي	-11126
▁طاقتن	-11127
▁فرعون	-11128
▁هلندا	-11129
▁وزيرن	-11130
▁وڏيري	-11131
▁آزمايو	-11132
▁اسٽيبل	-11133
▁تازيون	-11134
▁خوشيون	-11135
▁سگھندو	-11136
▁منجهند	-11137
▁ناگزير	-11138
▁هيٺئين	-11139
▁ورتيون	-11140
▁ڪوارٽر	-11141
▁گھٽائي	-11142
▁المنتدى	-11143
▁ڪنوينشن	-11144
▁ڀائيوارن	-11145
TC	-11146
رِ	-11147
صص	-11148
ُل	-11149
ہر	-11150
یت	-11151
9">	-11152
lix	-11153
ual	-11154
آخر	-11155
ؤنٽ	-11156
ائع	-11157
اڪس	-11158
▁83	-11159
▁My	-11160
▁id	-11161
▁mo	-11162
▁آڳ	-11163
▁هى	-11164
شتري	-11165
پلاڻ	-11166
▁Out	-11167
▁بدا	-11168
▁بوس	-11169
▁طئه	-11170
▁لعل	-11171
▁ميس	-11172
▁ناه	-11173
▁ِين	-11174
▁پاڳ	-11175
▁پدر	-11176
▁ڪَن	-11177
▁="1.	-11178
▁أقول	-11179
▁باور	-11180
▁ببين	-11181
▁توقي	-11182
▁حميد	-11183
▁رسمن	-11184
▁رٿيل	-11185
▁شڪلن	-11186
▁قالو	-11187
▁لعبة	-11188
▁مميز	-11189
▁منڊل	-11190
▁موسى	-11191
▁ٽورن	-11192
▁ٽيهه	-11193
▁پلاٽ	-11194
▁چوين	-11195
▁ڏاهپ	-11196
ائيجان	-11197
تنهنجي	-11198
▁المست	-11199
▁بدنام	-11200
▁بزرگن	-11201
▁صديون	-11202
▁فيملي	-11203
▁قبيلن	-11204
▁لوڊشي	-11205
▁ٽوڪيو	-11206
▁ڇوڪرا	-11207
▁خواهشن	-11208
▁لڏپلاڻ	-11209
▁هروڀرو	-11210
▁چانسلر	-11211
▁ڪلائنٽ	-11212
▁ڪنڊيشن	-11213
▁گاڏيءَ	-11214
▁گوليون	-11215
▁ماڻھوءَ	-11216
▁ڪهاڻيءَ	-11217
▁آبادگارن	-11218
▁اليڪٽران	-11219
▁ڊولپمينٽ	-11220
▁آذربائيجان	-11221
ep	-11222
غل	-11223
وڪ	-11224
پت	-11225
ايف	-11226
ديه	-11227
عيم	-11228
قعت	-11229
▁9:	-11230
▁<~	-11231
▁Sc	-11232
▁op	-11233
▁نئ	-11234
▁وظ	-11235
▁يز	-11236
ence	-11237
انيد	-11238
اهيم	-11239
بيهه	-11240
ونيا	-11241
يولر	-11242
▁ext	-11243
▁htt	-11244
▁ine	-11245
▁not	-11246
▁آني	-11247
▁اجر	-11248
▁اسط	-11249
▁بيز	-11250
▁بگم	-11251
▁جاه	-11252
▁جزي	-11253
▁خوي	-11254
▁خيا	-11255
▁سڀن	-11256
▁شاب	-11257
▁مذڪ	-11258
▁مغل	-11259
▁نئي	-11260
▁ٻچا	-11261
▁ting	-11262
▁آسرو	-11263
▁اذيت	-11264
▁استع	-11265
▁الام	-11266
▁ترحي	-11267
▁جلسي	-11268
▁حامل	-11269
▁حواس	-11270
▁رايك	-11271
▁ستان	-11272
▁سندو	-11273
▁سورت	-11274
▁عنها	-11275
▁قدرن	-11276
▁مخلص	-11277
▁مساو	-11278
▁مسوي	-11279
▁ملهه	-11280
▁مهند	-11281
▁ناتو	-11282
▁ناجي	-11283
▁نفيس	-11284
▁ٺهيو	-11285
▁پردو	-11286
▁چرپر	-11287
▁ڊانس	-11288
▁اجائي	-11289
▁انقره	-11290
▁تحريم	-11291
▁خاتون	-11292
▁غريبه	-11293
▁پتلون	-11294
▁گرامي	-11295
▁crypto	-11296
▁آمريکا	-11297
▁ائيندڙ	-11298
▁بيچيني	-11299
▁زيوومي	-11300
▁سڏيندو	-11301
▁ناهيون	-11302
▁نياڻين	-11303
▁گھڻائي	-11304
▁رڪارڊنگ	-11305
▁ٺاهيندو	-11306
▁پيپلزپارٽي	-11307
4]	-11308
BC	-11309
OL	-11310
لد	-11311
ائق	-11312
اتر	-11313
ارب	-11314
جوش	-11315
ضرب	-11316
ميع	-11317
ٽلن	-11318
▁MP	-11319
▁di	-11320
▁آك	-11321
▁خن	-11322
▁ذر	-11323
▁ٽس	-11324
ريزي	-11325
گاهن	-11326
▁---	-11327
▁ارن	-11328
▁توب	-11329
▁خيو	-11330
▁ساس	-11331
▁سرف	-11332
▁شفي	-11333
▁فاه	-11334
▁قلي	-11335
▁كلو	-11336
▁ٽيل	-11337
▁پشت	-11338
▁پني	-11339
▁1994	-11340
▁1996	-11341
▁form	-11342
▁iPad	-11343
▁ابدا	-11344
▁ابغى	-11345
▁اروح	-11346
▁جامد	-11347
▁حليم	-11348
▁رحيم	-11349
▁رهين	-11350
▁سانت	-11351
▁طاهر	-11352
▁قلعو	-11353
▁ماده	-11354
▁ميار	-11355
▁نوشت	-11356
▁يارو	-11357
▁پشتي	-11358
▁ڌرڻو	-11359
▁ڪاوش	-11360
▁ڪنول	-11361
▁ڪيلي	-11362
▁گونج	-11363
▁trans	-11364
▁آدمشم	-11365
▁البيت	-11366
▁بردار	-11367
▁بيدار	-11368
▁بچاءَ	-11369
▁خوشين	-11370
▁سريال	-11371
▁سوالف	-11372
▁فارمن	-11373
▁مھينن	-11374
▁همراه	-11375
▁هُوءَ	-11376
▁پوسٽن	-11377
▁ڊونلڊ	-11378
▁کلندي	-11379
▁اللعبه	-11380
▁معاوضو	-11381
▁ويندين	-11382
▁ڏنائون	-11383
▁گرافڪس	-11384
▁گهوٽڪي	-11385
▁عالمگير	-11386
▁فلسطيني	-11387
▁موڪلائي	-11388
▁نامياتي	-11389
▁ڪارناما	-11390
▁گڏجاڻين	-11391
▁بڻائيندو	-11392
▁پيراگراف	-11393
sm	-11394
اُ	-11395
جة	-11396
▁म	-11397
ium	-11398
ثري	-11399
زاق	-11400
كرة	-11401
وبي	-11402
ونك	-11403
▁07	-11404
▁71	-11405
▁um	-11406
▁ثن	-11407
▁جغ	-11408
▁کِ	-11409
انسر	-11410
▁USB	-11411
▁آنا	-11412
▁اءُ	-11413
▁انى	-11414
▁ايي	-11415
▁بلغ	-11416
▁جتن	-11417
▁شيم	-11418
▁قائ	-11419
▁مسخ	-11420
▁واو	-11421
▁يخر	-11422
▁ڏنگ	-11423
▁کوج	-11424
▁ڪلم	-11425
مونيم	-11426
ڙيندڙ	-11427
▁1993	-11428
▁اردن	-11429
▁استث	-11430
▁الرس	-11431
▁بچيل	-11432
▁جمله	-11433
▁جيڪٽ	-11434
▁حصول	-11435
▁دامن	-11436
▁سراج	-11437
▁سهيل	-11438
▁سيمي	-11439
▁علوم	-11440
▁فرسٽ	-11441
▁قیمت	-11442
▁ماخذ	-11443
▁ماپڻ	-11444
▁ميسر	-11445
▁نسخي	-11446
▁ويٽن	-11447
▁پڇيس	-11448
ائيوان	-11449
▁نظرين	-11450
▁ولادت	-11451
▁ڇڏائي	-11452
▁ڪرسٽل	-11453
▁اطلاعن	-11454
▁سمجھان	-11455
▁سيمسنگ	-11456
▁مساوات	-11457
▁ويڙهاڪ	-11458
▁ٻڌايون	-11459
▁پايگاه	-11460
▁ڳوٺاڻي	-11461
▁تائيوان	-11462
▁گھٽتائي	-11463
▁جاگرافيائي	-11464
2)	-11465
RL	-11466
uf	-11467
أت	-11468
َس	-11469
ُڪ	-11470
ڀا	-11471
گس	-11472
▁ښ	-11473
iki	-11474
ائف	-11475
افل	-11476
جهر	-11477
شيم	-11478
پول	-11479
▁04	-11480
▁VI	-11481
▁حَ	-11482
▁غو	-11483
▁وڍ	-11484
▁ڀڙ	-11485
▁چل	-11486
cess	-11487
ions	-11488
جنهن	-11489
روجن	-11490
ريٽر	-11491
ميلي	-11492
▁160	-11493
▁Cas	-11494
▁Pay	-11495
▁rem	-11496
▁این	-11497
▁ديم	-11498
▁ذرا	-11499
▁سنة	-11500
▁سيز	-11501
▁هيت	-11502
▁وشو	-11503
▁پسي	-11504
▁کنم	-11505
▁ڪجن	-11506
▁گال	-11507
▁گمن	-11508
▁ھاڻ	-11509
اجيڪٽ	-11510
▁5000	-11511
▁Arch	-11512
▁well	-11513
▁الحب	-11514
▁تخلص	-11515
▁رشتا	-11516
▁سطحن	-11517
▁سنيپ	-11518
▁شفتي	-11519
▁طبيب	-11520
▁عددي	-11521
▁فصلن	-11522
▁قاصر	-11523
▁قصدك	-11524
▁لاتع	-11525
▁لوڪل	-11526
▁ميجر	-11527
▁ميگن	-11528
▁نامه	-11529
▁ورکړ	-11530
▁ٽوئر	-11531
▁ڀرتي	-11532
▁چوڪي	-11533
▁ڏندن	-11534
▁ڪاٺي	-11535
▁ڪندؤ	-11536
▁knows	-11537
▁اسڪاٽ	-11538
▁اعترف	-11539
▁حراست	-11540
▁خزاني	-11541
▁ذيشان	-11542
▁راتين	-11543
▁سيوهڻ	-11544
▁فرينڊ	-11545
▁قاعده	-11546
▁لانچر	-11547
▁ناهين	-11548
▁هاااا	-11549
▁ورانه	-11550
▁يسعدك	-11551
▁برانڊن	-11552
▁برانڊي	-11553
▁تحريڪن	-11554
▁سگهندس	-11555
▁متوازن	-11556
▁مختيار	-11557
▁پيدايش	-11558
▁پيڪيجز	-11559
▁گاديءَ	-11560
▁بادشاهت	-11561
▁جشنواره	-11562
▁سمجهايو	-11563
▁سپلائرز	-11564
▁شڪرگذار	-11565
▁وابستگي	-11566
▁پراجيڪٽ	-11567
▁ڀائيواري	-11568
▁انٽيليجنس	-11569
ET	-11570
TO	-11571
ha	-11572
عش	-11573
led	-11574
بهآ	-11575
لاث	-11576
نيف	-11577
واج	-11578
پٽر	-11579
کيو	-11580
▁82	-11581
▁دك	-11582
▁ٽٽ	-11583
azon	-11584
امان	-11585
شاور	-11586
گهات	-11587
▁139	-11588
▁187	-11589
▁2.2	-11590
▁Ros	-11591
▁one	-11592
▁res	-11593
▁آمي	-11594
▁بيك	-11595
▁روا	-11596
▁سُڌ	-11597
▁شرف	-11598
▁فان	-11599
▁ماا	-11600
▁موو	-11601
▁وکر	-11602
▁َنِ	-11603
▁ٽوٽ	-11604
▁پنڊ	-11605
▁ڏنڊ	-11606
حقيقت	-11607
▁الجز	-11608
▁باعث	-11609
▁برون	-11610
▁جلال	-11611
▁خاڪو	-11612
▁رونق	-11613
▁ريءَ	-11614
▁سردي	-11615
▁سونا	-11616
▁ضعيف	-11617
▁فرقي	-11618
▁محاذ	-11619
▁مزار	-11620
▁مورو	-11621
▁موهي	-11622
▁ناظر	-11623
▁هِتي	-11624
▁ياخي	-11625
▁ٻئين	-11626
▁چطور	-11627
▁چقدر	-11628
▁ڪاٿي	-11629
▁Indus	-11630
▁cover	-11631
▁اهائي	-11632
▁تقبلي	-11633
▁جديده	-11634
▁جميلة	-11635
▁جوابن	-11636
▁خواجه	-11637
▁لکندي	-11638
▁معاهم	-11639
▁هموار	-11640
▁وائيٽ	-11641
▁ويهين	-11642
▁ٻارڙي	-11643
▁ٻڌندو	-11644
▁چڱائي	-11645
▁گهوري	-11646
▁آپگهات	-11647
▁امريڪي	-11648
▁اڀرندڙ	-11649
▁ريفرنس	-11650
▁سمورين	-11651
▁نينگري	-11652
▁اداڪاري	-11653
▁اصطلاحن	-11654
▁المونيم	-11655
▁تياريون	-11656
▁سنڀاليو	-11657
▁کائيندي	-11658
▁استعيفيٰ	-11659
▁اسٽريٽجڪ	-11660
▁ٻڌائيندي	-11661
▁پارلياماني	-11662
3]	-11663
pr	-11664
ؤؤ	-11665
خد	-11666
غه	-11667
▁ٱ	-11668
▁◄	-11669
eld	-11670
ify	-11671
ستم	-11672
عور	-11673
▁81	-11674
▁AC	-11675
▁حف	-11676
▁كس	-11677
▁وإ	-11678
▁ڪع	-11679
ands	-11680
edia	-11681
flix	-11682
ower	-11683
ائتا	-11684
جيڪو	-11685
▁360	-11686
▁Tod	-11687
▁inf	-11688
▁ism	-11689
▁ادم	-11690
▁اوج	-11691
▁تحس	-11692
▁تحق	-11693
▁دنگ	-11694
▁ردك	-11695
▁كلش	-11696
▁متأ	-11697
▁مسج	-11698
▁معل	-11699
▁ممل	-11700
▁يدي	-11701
▁يها	-11702
▁پنگ	-11703
▁ھار	-11704
▁ھوا	-11705
▁cont	-11706
▁part	-11707
▁أعرف	-11708
▁ابوك	-11709
▁اعلى	-11710
▁ايني	-11711
▁اچين	-11712
▁بانس	-11713
▁جذبا	-11714
▁دخلت	-11715
▁دلال	-11716
▁سلاٽ	-11717
▁سکين	-11718
▁فلاح	-11719
▁لاٿو	-11720
▁مالك	-11721
▁مايا	-11722
▁مشتر	-11723
▁موري	-11724
▁نشست	-11725
▁ورڪر	-11726
▁چاهت	-11727
▁گانا	-11728
▁گانو	-11729
▁>>>>>	-11730
▁اعمال	-11731
▁بسرعه	-11732
▁سومرو	-11733
▁شوٽنگ	-11734
▁عباسي	-11735
▁فديتك	-11736
▁فروخت	-11737
▁قديمي	-11738
▁مستند	-11739
▁ممنون	-11740
▁پرجوش	-11741
▁پنجون	-11742
▁پيالو	-11743
▁اوائلي	-11744
▁تعرفين	-11745
▁جماعتن	-11746
▁ناپسند	-11747
▁وابسته	-11748
▁Netflix	-11749
▁سڪيورٽي	-11750
▁بيماريون	-11751
▁لوڊشيڊنگ	-11752
▁چونڊيندا	-11753
se	-11754
bet	-11755
ريق	-11756
قوب	-11757
لیس	-11758
ٻيو	-11759
▁TM	-11760
▁جڻ	-11761
▁نآ	-11762
▁ڇَ	-11763
▁۱۹	-11764
Tube	-11765
بابا	-11766
لاتن	-11767
▁sim	-11768
▁آهم	-11769
▁اُس	-11770
▁داي	-11771
▁ذلك	-11772
▁راد	-11773
▁سبي	-11774
▁لهن	-11775
▁محض	-11776
▁ميخ	-11777
▁ُون	-11778
▁پيڙ	-11779
▁ڊيڊ	-11780
▁کپن	-11781
انداز	-11782
▁2022	-11783
▁3000	-11784
▁انڌو	-11785
▁باشه	-11786
▁بدتر	-11787
▁بريڪ	-11788
▁خوري	-11789
▁دارن	-11790
▁رهڻو	-11791
▁ساده	-11792
▁غيري	-11793
▁مادو	-11794
▁ميلن	-11795
▁ميوه	-11796
▁هڪڙا	-11797
▁وارد	-11798
▁وضاح	-11799
▁ويزن	-11800
▁يلعب	-11801
▁ٽائر	-11802
▁ٽڪري	-11803
▁پوشي	-11804
▁ٿلهو	-11805
▁گردي	-11806
▁اسحاق	-11807
▁اشارا	-11808
▁اقليت	-11809
▁اينكه	-11810
▁جانچڻ	-11811
▁خزانو	-11812
▁دماغي	-11813
▁زيتون	-11814
▁صداقت	-11815
▁قاعدو	-11816
▁محلات	-11817
▁مساله	-11818
▁مشروط	-11819
▁معبود	-11820
▁نورتي	-11821
▁يادون	-11822
▁يادگي	-11823
▁افاديت	-11824
▁المشار	-11825
▁اندران	-11826
▁دانهون	-11827
▁سامھون	-11828
▁سوشلسٽ	-11829
▁علامتن	-11830
▁پنجابي	-11831
▁پهلوان	-11832
▁ڪنڪريٽ	-11833
▁رهواسين	-11834
▁مٿانهون	-11835
▁ناانصافي	-11836
▁گذاريندو	-11837
sa	-11838
ِِ	-11839
ٿن	-11840
ڌر	-11841
="6	-11842
ave	-11843
her	-11844
ؤال	-11845
ائج	-11846
الڪ	-11847
امڪ	-11848
بات	-11849
خيل	-11850
راڪ	-11851
عزم	-11852
ولد	-11853
▁Ac	-11854
▁Br	-11855
▁La	-11856
▁MA	-11857
▁آژ	-11858
▁ٺڪ	-11859
▁پب	-11860
read	-11861
جهڙو	-11862
ليزي	-11863
پاشي	-11864
▁[2]	-11865
▁ist	-11866
▁ity	-11867
▁آئل	-11868
▁آئن	-11869
▁ازا	-11870
▁تخي	-11871
▁جهٽ	-11872
▁خدي	-11873
▁رسد	-11874
▁ستل	-11875
▁شاپ	-11876
▁شڪي	-11877
▁عسل	-11878
▁فکر	-11879
▁نمو	-11880
▁هدا	-11881
▁واء	-11882
▁ٽيٽ	-11883
▁ھنڌ	-11884
ٽڪارو	-11885
▁آرڪي	-11886
▁انڊي	-11887
▁ايسڊ	-11888
▁اٿيو	-11889
▁خادم	-11890
▁خطير	-11891
▁دودي	-11892
▁شعري	-11893
▁فردن	-11894
▁فونن	-11895
▁معهم	-11896
▁ناسي	-11897
▁نوبل	-11898
▁پڪڙڻ	-11899
▁ڇاپي	-11900
▁کاتن	-11901
▁گولڊ	-11902
▁ھفتي	-11903
سائيڪل	-11904
▁اينکه	-11905
▁بيورو	-11906
▁تدبير	-11907
▁دستان	-11908
▁رياضت	-11909
▁سالفه	-11910
▁سنگهه	-11911
▁عاليه	-11912
▁ڌڻيءَ	-11913
▁ڏسندڙ	-11914
▁ڪورين	-11915
▁گروهي	-11916
▁گمنام	-11917
▁اختتام	-11918
▁استثنا	-11919
▁الصوره	-11920
▁بصراحة	-11921
▁ننڍيون	-11922
▁همدردي	-11923
▁وضاحتن	-11924
▁ياسلام	-11925
▁ياسمين	-11926
▁ٽائيٽل	-11927
▁ڄاڻندو	-11928
▁چاليهه	-11929
▁تجزياتي	-11930
▁جرمنيءَ	-11931
▁سوچيندا	-11932
▁عاليشان	-11933
▁موسميات	-11934
▁چاهيندي	-11935
▁ڇوٽڪارو	-11936
▁اثرانداز	-11937
▁اسٽينلیس	-11938
▁ڏيکاريندو	-11939
▁موٽرسائيڪل	-11940
tr	-11941
تَ	-11942
طق	-11943
ڀن	-11944
con	-11945
ife	-11946
كرا	-11947
لسن	-11948
يند	-11949
▁02	-11950
▁91	-11951
▁IN	-11952
▁ap	-11953
▁ev	-11954
▁ur	-11955
▁ve	-11956
▁زه	-11957
▁سأ	-11958
▁عَ	-11959
▁ٻل	-11960
کاري	-11961
▁350	-11962
▁آپٽ	-11963
▁اتم	-11964
▁بكم	-11965
▁توج	-11966
▁للم	-11967
▁متل	-11968
▁ٺاه	-11969
▁پتا	-11970
▁ٿان	-11971
▁ڊنگ	-11972
▁ڦاس	-11973
▁work	-11974
▁اقلي	-11975
▁السا	-11976
▁السن	-11977
▁ايڊٽ	-11978
▁تالي	-11979
▁تسلي	-11980
▁خاصه	-11981
▁خانا	-11982
▁خودت	-11983
▁دادن	-11984
▁رکجو	-11985
▁سيٽل	-11986
▁قلمي	-11987
▁مختص	-11988
▁ويڪر	-11989
▁ٽينس	-11990
▁پڙھي	-11991
▁ڇاپو	-11992
▁ڊگها	-11993
▁ڏيئو	-11994
▁ڪابل	-11995
▁ڪنور	-11996
▁گهرڻ	-11997
▁گوشي	-11998
▁آرٽسٽ	-11999
▁آفيسن	-12000
▁امانت	-12001
▁تهران	-12002
▁جنگين	-12003
▁حوصله	-12004
▁خليها	-12005
▁سويڊن	-12006
▁شاهدي	-12007
▁عمودي	-12008
▁فلوري	-12009
▁ناياب	-12010
▁نظامي	-12011
▁پرعزم	-12012
▁پنجوي	-12013
▁پنهان	-12014
▁ڇانيل	-12015
▁آبپاشي	-12016
▁اسپيشل	-12017
▁السؤال	-12018
▁انديشه	-12019
▁سوچيان	-12020
▁عثماني	-12021
▁ڀانيان	-12022
▁ڪروڙين	-12023
▁خخخخخخخ	-12024
▁سربراهي	-12025
▁هيهيهيهيهي	-12026
▁ڪميونيڪيشن	-12027
ـــــــــــــ	-12028
40	-12029
QL	-12030
att	-12031
erv	-12032
esh	-12033
rop	-12034
آآي	-12035
اصد	-12036
تاق	-12037
سلو	-12038
كرت	-12039
كين	-12040
ويس	-12041
ياي	-12042
▁so	-12043
▁اڍ	-12044
▁زپ	-12045
▁صج	-12046
▁ٽه	-12047
ائوڊ	-12048
دگار	-12049
سوفٽ	-12050
مارڪ	-12051
▁14.	-12052
▁Tag	-12053
▁met	-12054
▁بقو	-12055
▁تغي	-12056
▁تفا	-12057
▁جرح	-12058
▁خرو	-12059
▁سيپ	-12060
▁شهد	-12061
▁لهه	-12062
▁لوپ	-12063
▁لوھ	-12064
▁ليف	-12065
▁نيس	-12066
▁ٽاس	-12067
▁ٽان	-12068
▁ٽپو	-12069
▁ڊيڪ	-12070
▁ڪاڪ	-12071
▁ھفت	-12072
▁😂😂😂	-12073
▁آريا	-12074
▁احلي	-12075
▁ايري	-12076
▁اگهن	-12077
▁برلن	-12078
▁برٽش	-12079
▁تحصي	-12080
▁تحفي	-12081
▁تطلع	-12082
▁تمدن	-12083
▁جهنم	-12084
▁حسيت	-12085
▁دودو	-12086
▁دوسر	-12087
▁دوکو	-12088
▁رائل	-12089
▁فوجن	-12090
▁كلمة	-12091
▁ميوا	-12092
▁نشوف	-12093
▁واتس	-12094
▁وحشي	-12095
▁وساڻ	-12096
▁پيلو	-12097
▁چهار	-12098
▁ڏسڻو	-12099
▁ڏکيا	-12100
▁گيرد	-12101
▁ھوٽل	-12102
▁اسڪيل	-12103
▁بالڪل	-12104
▁بدمعا	-12105
▁حركات	-12106
▁دليون	-12107
▁زالون	-12108
▁ساحلي	-12109
▁سريلن	-12110
▁سوچون	-12111
▁فوجين	-12112
▁مشتاق	-12113
▁پشاور	-12114
▁پنروڪ	-12115
▁پوليو	-12116
▁پيارن	-12117
▁پکڙجي	-12118
▁ڪالمن	-12119
▁گندگي	-12120
▁گودام	-12121
▁ڳنڍڻا	-12122
▁ڳچيءَ	-12123
▁اندرين	-12124
▁ايندين	-12125
▁خرابين	-12126
▁مانيءَ	-12127
▁مخصوصا	-12128
▁مرضيءَ	-12129
▁معاشرو	-12130
▁پوسٽون	-12131
▁اسٽيڊيم	-12132
▁السالفه	-12133
▁مسافرتی	-12134
▁گهرواري	-12135
▁ھندستان	-12136
▁Archives	-12137
▁ارجنٽائن	-12138
▁مائڪروسوفٽ	-12139
ثت	-12140
قس	-12141
ُه	-12142
یه	-12143
ets	-12144
ئله	-12145
شود	-12146
لاگ	-12147
منگ	-12148
ھيو	-12149
▁61	-12150
▁72	-12151
▁Be	-12152
▁MO	-12153
▁XD	-12154
▁el	-12155
▁بذ	-12156
▁دی	-12157
▁٢٠	-12158
▁ڏڪ	-12159
▁کڙ	-12160
ange	-12161
دادي	-12162
زادو	-12163
▁000	-12164
▁110	-12165
▁15.	-12166
▁18:	-12167
▁2.0	-12168
▁700	-12169
▁:))	-12170
▁اٽو	-12171
▁بصر	-12172
▁بگو	-12173
▁ثبت	-12174
▁جهر	-12175
▁رٿا	-12176
▁رچر	-12177
▁سعر	-12178
▁سيب	-12179
▁شون	-12180
▁لھي	-12181
▁ملك	-12182
▁نير	-12183
▁ٽئي	-12184
▁ٽڪي	-12185
▁پلو	-12186
▁ڊري	-12187
ستهبل	-12188
▁1991	-12189
▁back	-12190
▁آندا	-12191
▁السم	-12192
▁بيري	-12193
▁تارو	-12194
▁جنيه	-12195
▁حلوو	-12196
▁ديده	-12197
▁شاخن	-12198
▁صباح	-12199
▁صوتي	-12200
▁عضون	-12201
▁فولڊ	-12202
▁لکجي	-12203
▁ماست	-12204
▁نڪاح	-12205
▁پرچي	-12206
▁چراغ	-12207
▁ڪرنل	-12208
▁گناھ	-12209
acking	-12210
▁انگلش	-12211
▁جانسن	-12212
▁دُنيا	-12213
▁رھندو	-12214
▁سبحان	-12215
▁سيارو	-12216
▁سيٽون	-12217
▁فاروق	-12218
▁فرمود	-12219
▁قوميت	-12220
▁متوجه	-12221
▁ناامي	-12222
▁وڏائي	-12223
▁پڙتال	-12224
▁ڊالرن	-12225
▁ڊفالٽ	-12226
▁ڏيکار	-12227
▁ڪِتاب	-12228
▁الواحد	-12229
▁جنريٽر	-12230
▁ماهوار	-12231
▁انجيڪشن	-12232
▁برادرين	-12233
▁سالگرهه	-12234
▁سمجهائي	-12235
▁قومپرست	-12236
▁ڪنداسون	-12237
▁سياستدانن	-12238
03	-12239
oz	-12240
بٽ	-12241
ڪَ	-12242
arn	-12243
uck	-12244
سفڪ	-12245
عتي	-12246
چڱو	-12247
ھري	-12248
▁87	-12249
▁At	-12250
▁لر	-12251
▁نی	-12252
▁َء	-12253
▁ڪڏ	-12254
cent	-12255
lect	-12256
اريا	-12257
واهه	-12258
گاهي	-12259
▁est	-12260
▁أبو	-12261
▁اءِ	-12262
▁الذ	-12263
▁بوي	-12264
▁تفك	-12265
▁ججن	-12266
▁ديه	-12267
▁رهه	-12268
▁زرد	-12269
▁ظهر	-12270
▁متض	-12271
▁مِن	-12272
▁هيج	-12273
▁ولآ	-12274
▁وند	-12275
▁يحي	-12276
▁ٻڌا	-12277
▁پنه	-12278
▁پٽو	-12279
▁ڇڙو	-12280
▁ھوس	-12281
سٽريٽ	-12282
▁NEWS	-12283
▁tion	-12284
▁اختك	-12285
▁بالع	-12286
▁باڊي	-12287
▁تكلم	-12288
▁خوني	-12289
▁روٽر	-12290
▁سنگل	-12291
▁عادل	-12292
▁عاوز	-12293
▁فورڊ	-12294
▁ليبر	-12295
▁هيرا	-12296
▁واڍي	-12297
▁ٽائپ	-12298
▁پرسن	-12299
▁گھرو	-12300
▁child	-12301
▁آژانس	-12302
▁بناوت	-12303
▁بيجنگ	-12304
▁حقوقي	-12305
▁خلائي	-12306
▁سقراط	-12307
▁فقيرن	-12308
▁مالٽا	-12309
▁مردان	-12310
▁ميثاق	-12311
▁نفسها	-12312
▁ننڍڙا	-12313
▁ويگاس	-12314
▁پئسفڪ	-12315
▁چارٽر	-12316
▁ڍانچي	-12317
▁ڪنديس	-12318
="0.1">	-12319
ائينٽون	-12320
▁ادبيات	-12321
▁بريفنگ	-12322
▁ساليان	-12323
▁سولنگي	-12324
▁عنوانن	-12325
▁منافعو	-12326
▁مٿاهين	-12327
▁يقولون	-12328
▁ٽرينون	-12329
▁ڄاڻائي	-12330
▁سيمينار	-12331
▁مشڪلاتن	-12332
▁انڪوائري	-12333
▁ڪاميابين	-12334
▁خخخخخخخخخ	-12335
▁پوائينٽون	-12336
▁آرگنائيزيشن	-12337
4)	-12338
95	-12339
AP	-12340
DM	-12341
EL	-12342
ڑو	-12343
ھم	-12344
eng	-12345
erg	-12346
زيه	-12347
شنا	-12348
پار	-12349
▁()	-12350
▁PC	-12351
▁__	-12352
▁{{	-12353
▁عف	-12354
▁لذ	-12355
▁وغ	-12356
▁ڀڻ	-12357
▁گَ	-12358
الات	-12359
ماتي	-12360
ًبهآ	-12361
ڪاسي	-12362
▁KTN	-12363
▁ver	-12364
▁was	-12365
▁إذا	-12366
▁بتا	-12367
▁بسس	-12368
▁جني	-12369
▁حاط	-12370
▁غلا	-12371
▁مئو	-12372
▁نگا	-12373
▁ياا	-12374
▁ٻوڙ	-12375
▁پڪڙ	-12376
▁ڀوت	-12377
▁تالا	-12378
▁حاله	-12379
▁خوبه	-12380
▁ريڊي	-12381
▁رُڳو	-12382
▁زهري	-12383
▁صدقي	-12384
▁ضلعن	-12385
▁عامر	-12386
▁عقلم	-12387
▁قاعد	-12388
▁ماڻڪ	-12389
▁معلي	-12390
▁ميده	-12391
▁ناتي	-12392
▁هونء	-12393
▁ويلن	-12394
▁يهدي	-12395
▁ٽاٽو	-12396
▁پيتو	-12397
▁کليو	-12398
▁ڪرنٽ	-12399
▁ھزار	-12400
▁Today	-12401
▁آهسته	-12402
▁سنوار	-12403
▁ماراح	-12404
▁ميگير	-12405
▁مھيني	-12406
▁نظرون	-12407
▁ڀينرن	-12408
▁ڪوريج	-12409
▁گذريا	-12410
▁ارتقاء	-12411
▁الشباب	-12412
▁مشينون	-12413
▁مهانگي	-12414
▁چيلينج	-12415
▁ڪتًبهآ	-12416
▁ڪجانءِ	-12417
▁bonuses	-12418
▁اداڪاره	-12419
▁اسڪينڊل	-12420
▁پهتاسين	-12421
▁آدمشماري	-12422
▁بيروزگار	-12423
:-	-12424
gh	-12425
oh	-12426
حل	-12427
ُم	-12428
ٹی	-12429
://	-12430
ann	-12431
ئجي	-12432
بيو	-12433
جوع	-12434
صدق	-12435
ڀلا	-12436
▁He	-12437
▁TO	-12438
▁بى	-12439
▁رژ	-12440
▁صل	-12441
ائيڪ	-12442
انڊر	-12443
بولي	-12444
راهن	-12445
قلبي	-12446
ليڪس	-12447
ميان	-12448
▁140	-12449
▁18.	-12450
▁USD	-12451
▁bus	-12452
▁ton	-12453
▁آڳا	-12454
▁جھي	-12455
▁سخي	-12456
▁شيط	-12457
▁صحي	-12458
▁عصر	-12459
▁عقب	-12460
▁نبو	-12461
▁هاه	-12462
▁وبس	-12463
▁وضو	-12464
▁وچن	-12465
▁پرڻ	-12466
▁ڇپر	-12467
▁ڌوڙ	-12468
iness	-12469
▁1975	-12470
▁آئڪن	-12471
▁ابقى	-12472
▁افقي	-12473
▁برخي	-12474
▁بهشت	-12475
▁ترسي	-12476
▁تفهم	-12477
▁توبه	-12478
▁جنين	-12479
▁جيلن	-12480
▁جيوت	-12481
▁خاصي	-12482
▁راسي	-12483
▁زيبا	-12484
▁سپنا	-12485
▁لقيت	-12486
▁مائل	-12487
▁مصال	-12488
▁مڙئي	-12489
▁هديه	-12490
▁هكذا	-12491
▁هوسٽ	-12492
▁وصلت	-12493
▁يافت	-12494
▁ٻيھر	-12495
▁ٽاري	-12496
▁پارس	-12497
▁پاره	-12498
▁پوره	-12499
▁ڇپجي	-12500
▁ڪوال	-12501
▁گهور	-12502
▁گوئي	-12503
▁گيجٽ	-12504
▁ھندو	-12505
▁ھيءُ	-12506
▁right	-12507
▁اسماء	-12508
▁ايونٽ	-12509
▁جزائر	-12510
▁جميڪا	-12511
▁دٻائڻ	-12512
▁رساني	-12513
▁رواجي	-12514
▁سانگي	-12515
▁سرطان	-12516
▁شهيدن	-12517
▁مبينا	-12518
▁هوٽلن	-12519
▁وهندو	-12520
▁وڇوڙي	-12521
▁يعقوب	-12522
▁ڪتابي	-12523
▁ڪمانڊ	-12524
▁تڪراري	-12525
▁مالدار	-12526
▁معاهدن	-12527
▁معماري	-12528
▁نڪرندي	-12529
▁واقعيت	-12530
▁ٿياسين	-12531
▁ڊولپرز	-12532
▁ڊيڄاري	-12533
▁انتهاپس	-12534
▁پوائنٽن	-12535
▁ڊائريڪٽ	-12536
▁اخلاقيات	-12537
▁اڪائونٽن	-12538
▁بڻائيندا	-12539
▁خاموشيءَ	-12540
▁مواصلاتي	-12541
▁نيويگيشن	-12542
▁واپرائيندڙ	-12543
▁ااااااااااااا	-12544
SI	-12545
ڊس	-12546
▁©	-12547
▁٠	-12548
aus	-12549
اعد	-12550
توا	-12551
صود	-12552
قلت	-12553
ٽرڪ	-12554
گها	-12555
▁><	-12556
▁bu	-12557
▁ri	-12558
▁tw	-12559
▁xD	-12560
▁رڳ	-12561
▁گِ	-12562
جندڙ	-12563
وران	-12564
▁108	-12565
▁Off	-12566
▁age	-12567
▁ائو	-12568
▁امك	-12569
▁باک	-12570
▁تخص	-12571
▁ردو	-12572
▁كرد	-12573
▁كري	-12574
▁كسي	-12575
▁لمر	-12576
▁وَر	-12577
▁وڳو	-12578
▁پائ	-12579
▁ٿيم	-12580
▁چٽا	-12581
▁ڇان	-12582
▁ڊڄو	-12583
▁ڌيء	-12584
▁ڪوپ	-12585
▁اهلا	-12586
▁اڏاو	-12587
▁تيني	-12588
▁دارا	-12589
▁درسي	-12590
▁رجعت	-12591
▁زهرا	-12592
▁زينت	-12593
▁ساڙي	-12594
▁سرير	-12595
▁سڏبو	-12596
▁طلال	-12597
▁فرشت	-12598
▁فريق	-12599
▁لوئي	-12600
▁ميشن	-12601
▁ندين	-12602
▁نسيم	-12603
▁وسيم	-12604
▁وڪڻي	-12605
▁يستر	-12606
▁ٻارو	-12607
▁ٽڪرن	-12608
▁پولس	-12609
▁ڇونه	-12610
▁کردي	-12611
▁incre	-12612
▁آخوند	-12613
▁ائيءَ	-12614
▁الاخر	-12615
▁بيلجي	-12616
▁تنصيب	-12617
▁زيورن	-12618
▁سراسر	-12619
▁سرحدن	-12620
▁شكلهم	-12621
▁عجائب	-12622
▁فيروز	-12623
▁قسمتي	-12624
▁لغاري	-12625
▁مسيحي	-12626
▁معنوي	-12627
▁مقياس	-12628
▁وڃايل	-12629
▁پهاڪو	-12630
▁پيٽرو	-12631
▁ڄاڻين	-12632
▁ڦهليل	-12633
▁Amazon	-12634
▁بيداري	-12635
▁دردناڪ	-12636
▁سوالات	-12637
▁پسمنظر	-12638
▁ڪاريون	-12639
▁ڪارٽون	-12640
▁تجرباتي	-12641
▁خواهشون	-12642
▁شخصيتون	-12643
▁نمائندو	-12644
▁چاهيندس	-12645
▁ڊيوائسز	-12646
▁پناهگيرن	-12647
▁Suppliers	-12648
:)	-12649
IF	-12650
ائٽ	-12651
اهش	-12652
بتي	-12653
بها	-12654
طيك	-12655
قيم	-12656
کڙي	-12657
▁Pr	-12658
▁أش	-12659
▁جٽ	-12660
▁رأ	-12661
▁ڳچ	-12662
ized	-12663
look	-12664
xbet	-12665
دوري	-12666
ريات	-12667
▁13.	-12668
▁All	-12669
▁CBD	-12670
▁ang	-12671
▁اية	-12672
▁اَن	-12673
▁برك	-12674
▁تسو	-12675
▁تنز	-12676
▁جيد	-12677
▁حلم	-12678
▁ديپ	-12679
▁رڌل	-12680
▁زمن	-12681
▁شعا	-12682
▁عيل	-12683
▁غرض	-12684
▁ليز	-12685
▁ميں	-12686
▁هيد	-12687
▁ويت	-12688
▁ٻهر	-12689
▁ڏون	-12690
▁کري	-12691
▁1948	-12692
▁1950	-12693
▁ابڙو	-12694
▁البا	-12695
▁الرد	-12696
▁الور	-12697
▁بطور	-12698
▁بودن	-12699
▁بچيو	-12700
▁تغير	-12701
▁جيمس	-12702
▁ذهنن	-12703
▁رژيم	-12704
▁شعبو	-12705
▁طبعي	-12706
▁عجبت	-12707
▁قدها	-12708
▁لأني	-12709
▁لالي	-12710
▁لسان	-12711
▁ليڪس	-12712
▁ماءِ	-12713
▁مينٽ	-12714
▁مڪان	-12715
▁ورسي	-12716
▁ٽامي	-12717
▁آمديد	-12718
▁اسٽري	-12719
▁اصحاب	-12720
▁الولد	-12721
▁اڳيئي	-12722
▁ترقيء	-12723
▁توقعت	-12724
▁لياري	-12725
▁مسئله	-12726
▁مقرري	-12727
▁نمبرن	-12728
▁نٿيون	-12729
▁وڻندو	-12730
▁ٿولهه	-12731
▁چوڏهن	-12732
▁گیمنگ	-12733
▁ations	-12734
▁آسمانن	-12735
▁براعظم	-12736
▁خواهيم	-12737
▁روانگي	-12738
▁قبائلي	-12739
▁مخالفن	-12740
▁مشاورت	-12741
▁ٻيڙيءَ	-12742
▁ٽريڪنگ	-12743
▁پاڪائي	-12744
▁ڪاوڙجي	-12745
▁ڪمانڊر	-12746
▁آباديءَ	-12747
▁اوڏانهن	-12748
▁نامزدگي	-12749
▁پورهيتن	-12750
▁گذاريندا	-12751
▁ههههههاااي	-12752
12	-12753
EC	-12754
آڪ	-12755
دع	-12756
زت	-12757
ٹي	-12758
▁😉	-12759
آني	-12760
ابط	-12761
افه	-12762
اية	-12763
ثيم	-12764
جسٽ	-12765
حتك	-12766
خلا	-12767
فيه	-12768
ملٽ	-12769
موت	-12770
ڪلي	-12771
▁Dr	-12772
▁ER	-12773
▁تى	-12774
▁رئ	-12775
▁هٻ	-12776
▁کث	-12777
cies	-12778
ener	-12779
ulti	-12780
بختي	-12781
ستين	-12782
▁125	-12783
▁3.1	-12784
▁cre	-12785
▁اسن	-12786
▁اصف	-12787
▁اير	-12788
▁راھ	-12789
▁زار	-12790
▁سكر	-12791
▁عطر	-12792
▁فيو	-12793
▁لاح	-12794
▁لعي	-12795
▁منٿ	-12796
▁وڪو	-12797
▁يات	-12798
▁ٺٽو	-12799
▁پخش	-12800
▁پلے	-12801
▁ڀنڀ	-12802
▁چاڙ	-12803
▁چلو	-12804
▁چلي	-12805
▁چمن	-12806
▁کنگ	-12807
▁ڪوت	-12808
▁ھجن	-12809
▁1979	-12810
▁ness	-12811
▁آزار	-12812
▁آلله	-12813
▁البر	-12814
▁خوار	-12815
▁دوني	-12816
▁ديري	-12817
▁زبور	-12818
▁سائڊ	-12819
▁سوئس	-12820
▁شيام	-12821
▁صديء	-12822
▁طالع	-12823
▁طعام	-12824
▁غيرك	-12825
▁فرنٽ	-12826
▁فوٽن	-12827
▁ماجد	-12828
▁ماذا	-12829
▁منتظ	-12830
▁منصب	-12831
▁نفعي	-12832
▁نهين	-12833
▁هجوم	-12834
▁پيڙا	-12835
▁پژوه	-12836
▁چئني	-12837
▁گناه	-12838
▁آکاڻي	-12839
▁استان	-12840
▁برطرف	-12841
▁جنوبي	-12842
▁خلاصه	-12843
▁درويش	-12844
▁ذائقو	-12845
▁سيڪٽر	-12846
▁عيوني	-12847
▁ككككك	-12848
▁مرحلا	-12849
▁مستحق	-12850
▁معليش	-12851
▁مقتول	-12852
▁ڀاتين	-12853
▁ڇڪايو	-12854
▁struct	-12855
▁اسٽينڊ	-12856
▁افريقي	-12857
▁الثاني	-12858
▁سرپرست	-12859
▁سمجهين	-12860
▁سنڌوءَ	-12861
▁طولاني	-12862
▁قرضدار	-12863
▁مائيڪل	-12864
▁پرنٽنگ	-12865
▁پيئندا	-12866
▁ڊاڪٽري	-12867
▁ڊزائنر	-12868
▁گهراڻي	-12869
▁افسانوي	-12870
▁جوانيءَ	-12871
▁عمارتون	-12872
▁ٺاهيندي	-12873
▁ٺيڪيدار	-12874
▁اليڪٽرانڪس	-12875
6]	-12876
Cl	-12877
IA	-12878
سُ	-12879
سڀ	-12880
ژن	-12881
گھ	-12882
als	-12883
ini	-12884
oto	-12885
قاد	-12886
▁,"	-12887
▁؟'	-12888
▁ثم	-12889
▁دب	-12890
▁سٹ	-12891
▁کَ	-12892
▁ڪہ	-12893
aily	-12894
duct	-12895
just	-12896
very	-12897
شكله	-12898
▁19.	-12899
▁2-3	-12900
▁LED	-12901
▁PDF	-12902
▁sol	-12903
▁vis	-12904
▁www	-12905
▁اره	-12906
▁اڪا	-12907
▁باٿ	-12908
▁حقا	-12909
▁حول	-12910
▁راڪ	-12911
▁رضه	-12912
▁رند	-12913
▁زان	-12914
▁سمت	-12915
▁سنج	-12916
▁سڪو	-12917
▁ندى	-12918
▁نشو	-12919
▁پکو	-12920
▁ڪرب	-12921
▁ڪيٽ	-12922
▁گني	-12923
▁thro	-12924
▁آرين	-12925
▁اسپن	-12926
▁اصلی	-12927
▁الجن	-12928
▁انگو	-12929
▁ايڪڙ	-12930
▁بعيد	-12931
▁بياد	-12932
▁تقبل	-12933
▁جاهل	-12934
▁جھڙا	-12935
▁حرفي	-12936
▁سوره	-12937
▁عقلي	-12938
▁كتبت	-12939
▁ماسي	-12940
▁مينا	-12941
▁نشين	-12942
▁نيٽو	-12943
▁هااا	-12944
▁همان	-12945
▁هيڪر	-12946
▁وأنا	-12947
▁وينا	-12948
▁يحفظ	-12949
▁يسوي	-12950
▁ٻوڙي	-12951
▁ٻيٽن	-12952
▁پاتو	-12953
▁پهاڙ	-12954
▁پولش	-12955
▁پيئر	-12956
▁ڀريا	-12957
▁ڳئون	-12958
▁ڳاڇا	-12959
Sindhi	-12960
▁آڱرين	-12961
▁اسڪور	-12962
▁جزيره	-12963
▁خدمات	-12964
▁ساڳين	-12965
▁شراڪت	-12966
▁عرفان	-12967
▁عڪاسي	-12968
▁فلاڻي	-12969
▁مقاله	-12970
▁ووٽنگ	-12971
▁يازين	-12972
▁يوحنا	-12973
▁ٻانهي	-12974
▁ٽيبلٽ	-12975
▁پانڌي	-12976
▁پاڻهي	-12977
▁پڙهيا	-12978
▁چطوري	-12979
▁ڪلينڪ	-12980
▁آفريقي	-12981
▁اممممم	-12982
▁تصورات	-12983
▁تنقيدي	-12984
▁جارحيت	-12985
▁ساڳيءَ	-12986
▁هاڪاري	-12987
▁ورجائي	-12988
▁ٻيڙيون	-12989
▁پرتگال	-12990
▁پرداخت	-12991
▁پروازن	-12992
▁ڌمڪيون	-12993
▁YouTube	-12994
▁ايجنسين	-12995
▁حڪومتون	-12996
▁رپورٽنگ	-12997
▁ساراهيو	-12998
▁سنجيدگي	-12999
▁فلوريڊا	-13000
▁فيڊريشن	-13001
▁پروموشن	-13002
▁پروردگار	-13003
کش	-13004
ose	-13005
tem	-13006
ئڙو	-13007
اتب	-13008
اطع	-13009
يهر	-13010
▁دس	-13011
▁هس	-13012
▁هپ	-13013
▁ٻچ	-13014
▁پڃ	-13015
▁کڏ	-13016
▁ڻي	-13017
ادگي	-13018
رستي	-13019
يانا	-13020
چارج	-13021
گالي	-13022
▁(9)	-13023
▁Met	-13024
▁URL	-13025
▁bot	-13026
▁اَڄ	-13027
▁ستو	-13028
▁عاص	-13029
▁عدن	-13030
▁قصا	-13031
▁مئن	-13032
▁مصو	-13033
▁مڪر	-13034
▁يله	-13035
▁ينا	-13036
▁پاد	-13037
▁پنو	-13038
▁ڌان	-13039
▁ڏُک	-13040
▁ڪني	-13041
ption	-13042
جيريا	-13043
▁----	-13044
▁1971	-13045
▁1984	-13046
▁ling	-13047
▁will	-13048
▁آسيب	-13049
▁اكتر	-13050
▁اهدا	-13051
▁اونه	-13052
▁بارك	-13053
▁باغن	-13054
▁بليس	-13055
▁تفكر	-13056
▁جنوب	-13057
▁خفيه	-13058
▁زخمن	-13059
▁ساجن	-13060
▁سنين	-13061
▁شرکت	-13062
▁صداي	-13063
▁صدقت	-13064
▁صليب	-13065
▁عاشت	-13066
▁عهدو	-13067
▁لولي	-13068
▁ليٽي	-13069
▁ماله	-13070
▁موقع	-13071
▁ميکن	-13072
▁نافذ	-13073
▁ننگر	-13074
▁هاٿي	-13075
▁هجرت	-13076
▁وردي	-13077
▁ولكن	-13078
▁يكتب	-13079
▁يوگا	-13080
▁ٻيئي	-13081
▁پاسا	-13082
▁پوپٽ	-13083
▁ڇڪيو	-13084
▁گهمي	-13085
▁اسلوب	-13086
▁اعلام	-13087
▁ايڊيٽ	-13088
▁اچانڪ	-13089
▁تبصري	-13090
▁ترحيب	-13091
▁حاڪمن	-13092
▁درمان	-13093
▁رھندا	-13094
▁زاويه	-13095
▁ستاره	-13096
▁سيٽان	-13097
▁شمشير	-13098
▁طريقت	-13099
▁فوٽوز	-13100
▁قسمين	-13101
▁ميرسي	-13102
▁همچين	-13103
▁هيملٽ	-13104
▁ياحبي	-13105
▁چارجر	-13106
▁ڪرونا	-13107
▁ڪلارڪ	-13108
▁گانڌي	-13109
▁گفتار	-13110
▁گهاري	-13111
▁اااااا	-13112
▁اااااي	-13113
▁انتشار	-13114
▁جراثيم	-13115
▁فلائيٽ	-13116
▁فلپائن	-13117
▁وهنوار	-13118
▁اسٽيشنن	-13119
▁اعتمادي	-13120
▁روايتون	-13121
▁سمجهائڻ	-13122
▁واپرائڻ	-13123
▁واڌايون	-13124
▁هيهيهيهي	-13125
▁پنهنجيون	-13126
▁ڏسنداسين	-13127
▁سرمائيدار	-13128
MI	-13129
UR	-13130
اڳ	-13131
ـَ	-13132
لَ	-13133
ھڪ	-13134
▁§	-13135
ode	-13136
ايق	-13137
بنم	-13138
صار	-13139
طون	-13140
پين	-13141
▁To	-13142
▁UN	-13143
▁آث	-13144
▁نغ	-13145
▁وئ	-13146
▁پڳ	-13147
ital	-13148
load	-13149
olor	-13150
آآآآ	-13151
ضوعي	-13152
پليٽ	-13153
ڌاني	-13154
ھيءَ	-13155
▁(8)	-13156
▁0.1	-13157
▁130	-13158
▁ian	-13159
▁إيه	-13160
▁احط	-13161
▁ايٿ	-13162
▁تبا	-13163
▁حشر	-13164
▁دلع	-13165
▁شفٽ	-13166
▁صنم	-13167
▁عرس	-13168
▁غال	-13169
▁كون	-13170
▁لاڀ	-13171
▁مرن	-13172
▁نزل	-13173
▁هاڃ	-13174
▁وظي	-13175
▁وچڙ	-13176
▁ٽوڙ	-13177
▁1989	-13178
▁post	-13179
▁آيات	-13180
▁اسكت	-13181
▁اعجب	-13182
▁اعلم	-13183
▁اقصد	-13184
▁البم	-13185
▁باين	-13186
▁بخشش	-13187
▁بڇڙي	-13188
▁بڻيا	-13189
▁توجہ	-13190
▁جسمن	-13191
▁دارم	-13192
▁درهم	-13193
▁ديسي	-13194
▁ذليل	-13195
▁زيان	-13196
▁سجاڳ	-13197
▁سجدو	-13198
▁سمون	-13199
▁سوڌو	-13200
▁شبنم	-13201
▁شبيه	-13202
▁شڪري	-13203
▁فرصت	-13204
▁مركز	-13205
▁مهاج	-13206
▁ناحق	-13207
▁نعرو	-13208
▁هائڊ	-13209
▁پارت	-13210
▁پٺاڻ	-13211
▁ڀاتي	-13212
▁چارو	-13213
▁ڦاهي	-13214
▁گيئر	-13215
▁Inter	-13216
▁اھميت	-13217
▁بروکر	-13218
▁تسلمي	-13219
▁تغيير	-13220
▁ذائقي	-13221
▁راستي	-13222
▁رکيون	-13223
▁سامرا	-13224
▁سانحي	-13225
▁شمالي	-13226
▁مارين	-13227
▁مارڪو	-13228
▁متضاد	-13229
▁مختار	-13230
▁مقالي	-13231
▁نوازي	-13232
▁نيڪال	-13233
▁ياريت	-13234
▁پوئلڳ	-13235
▁آفريقا	-13236
▁ايڪسپي	-13237
▁بڻائين	-13238
▁تبادلي	-13239
▁حيواني	-13240
▁زمينون	-13241
▁ساڳيون	-13242
▁مفاصلي	-13243
▁ميڊريز	-13244
▁واقفيت	-13245
▁پيشاني	-13246
▁ڪرسيءَ	-13247
▁گرميءَ	-13248
▁تحريرون	-13249
▁تنهنجون	-13250
▁علامتون	-13251
▁انگلستان	-13252
▁سبسڪرپشن	-13253
▁پشتيباني	-13254
▁ڪرائيندو	-13255
▁stainless	-13256
1)	-13257
22	-13258
SA	-13259
ck	-13260
sp	-13261
آك	-13262
کڻ	-13263
▁′	-13264
ادا	-13265
بلغ	-13266
بين	-13267
سوي	-13268
هاد	-13269
يرس	-13270
▁),	-13271
▁Cr	-13272
▁NO	-13273
▁mp	-13274
▁my	-13275
▁أص	-13276
▁سے	-13277
▁نژ	-13278
▁يط	-13279
▁گپ	-13280
uper	-13281
▁car	-13282
▁int	-13283
▁ive	-13284
▁pol	-13285
▁ادل	-13286
▁افق	-13287
▁بتح	-13288
▁تاك	-13289
▁حوا	-13290
▁خيز	-13291
▁درب	-13292
▁ربن	-13293
▁رجل	-13294
▁زوم	-13295
▁ظال	-13296
▁ماج	-13297
▁نچي	-13298
▁هات	-13299
▁ڊان	-13300
▁ڍڪي	-13301
▁ڪاو	-13302
▁گھم	-13303
شمينٽ	-13304
▁آدمي	-13305
▁اسمه	-13306
▁الحر	-13307
▁اڀرڻ	-13308
▁اچار	-13309
▁اچون	-13310
▁بليو	-13311
▁تسلط	-13312
▁تكتب	-13313
▁خانن	-13314
▁ذهبي	-13315
▁رويا	-13316
▁ساقي	-13317
▁سنتي	-13318
▁سولر	-13319
▁عملت	-13320
▁قصدي	-13321
▁لاهڻ	-13322
▁لوقا	-13323
▁لينن	-13324
▁ليها	-13325
▁ماتا	-13326
▁ماتم	-13327
▁محلي	-13328
▁مقلب	-13329
▁هالي	-13330
▁پارو	-13331
▁پاڇو	-13332
▁پرنس	-13333
▁ڀينر	-13334
▁چيمپ	-13335
▁چگون	-13336
▁ڦوٽو	-13337
▁ڪمرا	-13338
▁ڪمين	-13339
▁ڪنچن	-13340
▁ڪهڙن	-13341
▁ڪولي	-13342
فارمنس	-13343
▁world	-13344
▁اعتقد	-13345
▁الاول	-13346
▁اميرن	-13347
▁ايسٽر	-13348
▁بنگال	-13349
▁جابلو	-13350
▁دنياي	-13351
▁رائعة	-13352
▁رسولن	-13353
▁ريموٽ	-13354
▁زيادي	-13355
▁سگھيا	-13356
▁شكراً	-13357
▁عموما	-13358
▁نمايش	-13359
▁نياپو	-13360
▁پائلٽ	-13361
▁پرديس	-13362
▁پيشاب	-13363
▁پڪڙيو	-13364
▁ٿيندس	-13365
▁چوندس	-13366
▁ڊرامو	-13367
▁ڊرامي	-13368
▁ڏٺيون	-13369
▁ڪمايو	-13370
▁ڪڏهين	-13371
▁گذارش	-13372
▁اصفهان	-13373
▁اميدون	-13374
▁ايڪسين	-13375
▁ديدگاه	-13376
▁شاديون	-13377
▁غذائيت	-13378
▁لکڻيون	-13379
▁مستحيل	-13380
▁موضوعي	-13381
▁هارائي	-13382
▁ويچارو	-13383
▁پريميم	-13384
▁پيوسته	-13385
▁ڏاڍيون	-13386
▁کارائڻ	-13387
▁ڪالوني	-13388
▁گذاريا	-13389
▁Outlook	-13390
▁اسپانسر	-13391
▁المفروض	-13392
▁زبردستي	-13393
▁ساليانو	-13394
▁لاڙڪاڻو	-13395
▁پابندين	-13396
▁پريميئر	-13397
▁ڏوهارين	-13398
ification	-13399
▁پرفارمنس	-13400
23	-13401
6)	-13402
دب	-13403
ًا	-13404
چی	-13405
ams	-13406
lex	-13407
pty	-13408
uto	-13409
دوس	-13410
رير	-13411
طين	-13412
عار	-13413
غرب	-13414
ـِـ	-13415
ڀير	-13416
▁(→	-13417
▁No	-13418
▁أف	-13419
▁لز	-13420
▁ڪف	-13421
ines	-13422
جواب	-13423
سازي	-13424
▁1-2	-13425
▁16:	-13426
▁26:	-13427
▁API	-13428
▁اُڇ	-13429
▁اڇل	-13430
▁بڪس	-13431
▁حيل	-13432
▁رحت	-13433
▁رمز	-13434
▁رنس	-13435
▁رنو	-13436
▁رٻڙ	-13437
▁سڏڻ	-13438
▁لحظ	-13439
▁لمن	-13440
▁نبض	-13441
▁ٽيڊ	-13442
▁پهه	-13443
▁چلم	-13444
▁چنب	-13445
▁ڦرڻ	-13446
▁ڪَر	-13447
▁گزي	-13448
irect	-13449
▁1500	-13450
▁1973	-13451
▁آهني	-13452
▁ابشر	-13453
▁ابوي	-13454
▁النو	-13455
▁الهه	-13456
▁اچڻو	-13457
▁اھڙا	-13458
▁بابي	-13459
▁ثلاث	-13460
▁خخخخ	-13461
▁دعوا	-13462
▁فلمي	-13463
▁مقطع	-13464
▁مينو	-13465
▁مڃان	-13466
▁هنري	-13467
▁ولاي	-13468
▁ويبس	-13469
▁ٻاجھ	-13470
▁پهري	-13471
▁چاقو	-13472
▁چمڪي	-13473
▁ڇوڪر	-13474
▁ڏوهي	-13475
▁ڏيهي	-13476
▁ڦاڙي	-13477
▁گردد	-13478
▁گولف	-13479
ائيٽڪس	-13480
▁آرمين	-13481
▁ارسطو	-13482
▁اسمها	-13483
▁الارم	-13484
▁اُداس	-13485
▁اٿاري	-13486
▁برهمڻ	-13487
▁خوبين	-13488
▁سانڍي	-13489
▁صورتي	-13490
▁عمومي	-13491
▁فيڊرل	-13492
▁قلندر	-13493
▁لکندڙ	-13494
▁ماعرف	-13495
▁مزاجي	-13496
▁مسائل	-13497
▁معجزو	-13498
▁مقصود	-13499
▁مواضي	-13500
▁مڇيءَ	-13501
▁هسٽنگ	-13502
▁هوائن	-13503
▁وٺندس	-13504
▁ٻيڙيء	-13505
▁ٻيڙين	-13506
▁پهلوي	-13507
▁پچائڻ	-13508
▁۔۔۔۔۔	-13509
▁افغاني	-13510
▁اپنائڻ	-13511
▁اڏامون	-13512
▁دروازن	-13513
▁رٽائرڊ	-13514
▁قبوليت	-13515
▁لاجواب	-13516
▁مذڪوره	-13517
▁معاونت	-13518
▁معصومه	-13519
▁وڙهندا	-13520
▁پورهئي	-13521
▁ڀريندؤ	-13522
▁گھڻيون	-13523
▁through	-13524
▁المشكله	-13525
▁دوستيءَ	-13526
▁ريگستان	-13527
▁رڪاوٽون	-13528
▁سگهندين	-13529
▁پاکستان	-13530
▁چانڊوڪي	-13531
▁آآآآآآآآ	-13532
▁تجربيڪار	-13533
▁موسمياتي	-13534
▁ٻڌائيندا	-13535
▁پبليڪيشن	-13536
▁ايڊيٽوريل	-13537
RE	-13538
SD	-13539
sk	-13540
ya	-13541
آب	-13542
ذن	-13543
قص	-13544
وڊ	-13545
يك	-13546
ڳڻ	-13547
▁ღ	-13548
ئڙن	-13549
روب	-13550
عيش	-13551
ياه	-13552
يفه	-13553
ڏان	-13554
▁'_	-13555
▁(7	-13556
▁84	-13557
▁pe	-13558
▁su	-13559
▁أع	-13560
▁بی	-13561
▁ضع	-13562
▁طن	-13563
▁ية	-13564
▁َن	-13565
▁ڦُ	-13566
ound	-13567
امام	-13568
زيون	-13569
▁25.	-13570
▁^^"	-13571
▁آلا	-13572
▁الإ	-13573
▁بهت	-13574
▁تشو	-13575
▁جھٽ	-13576
▁حار	-13577
▁خاڪ	-13578
▁رغد	-13579
▁سعي	-13580
▁سلن	-13581
▁شگر	-13582
▁لبى	-13583
▁لذي	-13584
▁محق	-13585
▁مصل	-13586
▁نوم	-13587
▁هام	-13588
▁ٺهڪ	-13589
▁ڍير	-13590
▁ڪفن	-13591
اوهان	-13592
▁="3.	-13593
▁Coin	-13594
▁آئيو	-13595
▁أخوي	-13596
▁اخاف	-13597
▁ازين	-13598
▁العم	-13599
▁النت	-13600
▁اووو	-13601
▁تصير	-13602
▁تلعب	-13603
▁جلاو	-13604
▁جوتن	-13605
▁جيڪب	-13606
▁حسرت	-13607
▁درجن	-13608
▁دسته	-13609
▁دعوى	-13610
▁رأيك	-13611
▁رائد	-13612
▁رسوخ	-13613
▁رچرڊ	-13614
▁صوبو	-13615
▁فنگر	-13616
▁لائف	-13617
▁لنڪا	-13618
▁مائو	-13619
▁مستي	-13620
▁مهاڳ	-13621
▁موجو	-13622
▁ميزن	-13623
▁ناوي	-13624
▁نقاد	-13625
▁نگري	-13626
▁ويھي	-13627
▁وڇڙي	-13628
▁وڻيو	-13629
▁يارن	-13630
▁يندڙ	-13631
▁ٻيلو	-13632
▁پالش	-13633
▁پريت	-13634
▁ڄائي	-13635
▁ڊريس	-13636
▁ڦاٿل	-13637
▁گيمز	-13638
▁ڳنڍڻ	-13639
▁اعضاء	-13640
▁اينال	-13641
▁تراني	-13642
▁سانتا	-13643
▁سجاڳي	-13644
▁علينا	-13645
▁مبتني	-13646
▁متغير	-13647
▁مثلاً	-13648
▁مطهري	-13649
▁معايا	-13650
▁مچائي	-13651
▁نروار	-13652
▁هائپر	-13653
▁ٻوليء	-13654
▁پناهي	-13655
▁پنجره	-13656
▁پورچو	-13657
▁ڊرامن	-13658
▁ڊيلٽا	-13659
▁کيڏيو	-13660
▁کڻندي	-13661
▁انصاري	-13662
▁اڪاؤنٽ	-13663
▁برائوز	-13664
▁جائداد	-13665
▁جانشين	-13666
▁نارنگي	-13667
▁هئينءَ	-13668
▁ٻانهون	-13669
▁پورائي	-13670
▁چگونگي	-13671
▁ڪوئيٽا	-13672
▁گھرندو	-13673
▁اعجبتني	-13674
▁ورهائجي	-13675
▁ٺاھيندڙ	-13676
▁کميسيون	-13677
▁ڪنٽرولر	-13678
▁المشاركات	-13679
▁فرمايائون	-13680
▁پهچائيندو	-13681
▁اسٽيبلشمينٽ	-13682
▁اينالائيٽڪس	-13683
89	-13684
AB	-13685
UI	-13686
טּ	-13687
ری	-13688
وى	-13689
ّت	-13690
ڳت	-13691
▁٦	-13692
alk	-13693
ics	-13694
iew	-13695
ult	-13696
ائه	-13697
اتك	-13698
راق	-13699
طار	-13700
لنگ	-13701
ٿام	-13702
ڪچر	-13703
▁AN	-13704
▁GT	-13705
▁il	-13706
▁}}	-13707
▁ٺل	-13708
▁چچ	-13709
▁چی	-13710
▁ڳل	-13711
ause	-13712
jack	-13713
امني	-13714
بليو	-13715
چوئل	-13716
▁12:	-13717
▁For	-13718
▁SQL	-13719
▁vol	-13720
▁ايذ	-13721
▁باص	-13722
▁بله	-13723
▁بمق	-13724
▁رده	-13725
▁فاش	-13726
▁لكي	-13727
▁لوڏ	-13728
▁محر	-13729
▁همس	-13730
▁واج	-13731
▁وجھ	-13732
▁ٻاڦ	-13733
▁پَٽ	-13734
▁چتر	-13735
▁ڦٽو	-13736
▁ڪرت	-13737
▁گدڙ	-13738
▁احبه	-13739
▁ارزش	-13740
▁ازاي	-13741
▁اسير	-13742
▁اطلع	-13743
▁اينگ	-13744
▁اڪرم	-13745
▁بابو	-13746
▁باطل	-13747
▁بوده	-13748
▁تعبت	-13749
▁جرسي	-13750
▁خانم	-13751
▁خوان	-13752
▁داعش	-13753
▁رائج	-13754
▁راهن	-13755
▁ريما	-13756
▁سيون	-13757
▁شيعي	-13758
▁ضلعو	-13759
▁عنجد	-13760
▁غافل	-13761
▁ماتر	-13762
▁ميڙي	-13763
▁نعرا	-13764
▁هجري	-13765
▁يرجك	-13766
▁ٻوري	-13767
▁چائن	-13768
▁ڏاڏن	-13769
▁ڪيفي	-13770
▁ڪڍيا	-13771
▁گرما	-13772
▁other	-13773
▁اقولك	-13774
▁الفاظ	-13775
▁انرجي	-13776
▁اينجا	-13777
▁اُتان	-13778
▁باهمي	-13779
▁بتيون	-13780
▁تقولي	-13781
▁تلقين	-13782
▁توحيد	-13783
▁حسيني	-13784
▁حوصلو	-13785
▁زخمين	-13786
▁ساراھ	-13787
▁سرشتي	-13788
▁شڪريو	-13789
▁صاحبن	-13790
▁محققن	-13791
▁مرحبا	-13792
▁ممنوع	-13793
▁منظرن	-13794
▁ميشود	-13795
▁هينري	-13796
▁پيٽرن	-13797
▁گھٽجي	-13798
▁ابليسك	-13799
▁بلاگرز	-13800
▁تنهائي	-13801
▁سوشلزم	-13802
▁مجبوري	-13803
▁ميدوني	-13804
▁نڪرندڙ	-13805
▁ٽيڪساس	-13806
▁پلاننگ	-13807
▁پيئندو	-13808
▁ڪرايون	-13809
▁گهڙيون	-13810
▁گياهان	-13811
▁ااااااا	-13812
▁اختلافن	-13813
▁تعليمات	-13814
▁سريلنڪا	-13815
▁موجودگيءَ	-13816
▁مممممممممم	-13817
IM	-13818
سى	-13819
ڀو	-13820
ڑي	-13821
❤️	-13822
aly	-13823
iff	-13824
ابة	-13825
الج	-13826
بنا	-13827
روت	-13828
سٽا	-13829
عنا	-13830
ٽلر	-13831
گوي	-13832
▁El	-13833
▁SL	-13834
▁]]	-13835
▁mg	-13836
▁گد	-13837
▁گٽ	-13838
orex	-13839
ويهه	-13840
کيءَ	-13841
ڪيءَ	-13842
▁(7)	-13843
▁15:	-13844
▁ate	-13845
▁dec	-13846
▁end	-13847
▁inv	-13848
▁آڌي	-13849
▁احا	-13850
▁اسف	-13851
▁اٽي	-13852
▁بيد	-13853
▁تكر	-13854
▁جور	-13855
▁حجت	-13856
▁رني	-13857
▁رھو	-13858
▁زلف	-13859
▁ساڀ	-13860
▁عجي	-13861
▁فدا	-13862
▁قصة	-13863
▁كأن	-13864
▁كند	-13865
▁نست	-13866
▁نکن	-13867
▁يھو	-13868
▁پند	-13869
▁پيم	-13870
موضوع	-13871
گريشن	-13872
▁book	-13873
▁ابدي	-13874
▁البي	-13875
▁المس	-13876
▁امسك	-13877
▁اهنگ	-13878
▁اولا	-13879
▁ايڪي	-13880
▁تاكل	-13881
▁تعدد	-13882
▁جلوس	-13883
▁دواس	-13884
▁رليف	-13885
▁ريجن	-13886
▁سندر	-13887
▁علمن	-13888
▁فيفا	-13889
▁فيڪٽ	-13890
▁مائن	-13891
▁مرکب	-13892
▁مساج	-13893
▁مسير	-13894
▁مڃيل	-13895
▁نوره	-13896
▁واذا	-13897
▁وردة	-13898
▁يفهم	-13899
▁پختو	-13900
▁ڙيون	-13901
▁ڪعبي	-13902
▁گروي	-13903
▁Daily	-13904
▁آموزش	-13905
▁آهنگي	-13906
▁الريا	-13907
▁المسك	-13908
▁انرژي	-13909
▁اکڙين	-13910
▁باخبر	-13911
▁بحرين	-13912
▁جھڙوڪ	-13913
▁خيرها	-13914
▁رسالن	-13915
▁سمجھن	-13916
▁سڌاري	-13917
▁عضلات	-13918
▁قديمه	-13919
▁ماعند	-13920
▁مانند	-13921
▁نظارن	-13922
▁هارون	-13923
▁ورڪنگ	-13924
▁وهائي	-13925
▁ويڪرو	-13926
▁يومين	-13927
▁پيامک	-13928
▁پڇندو	-13929
▁پڪاري	-13930
▁ڏهاڙو	-13931
▁کثافت	-13932
▁ڪيمپس	-13933
▁گرفتن	-13934
▁بيهاري	-13935
▁تعليقك	-13936
▁سيمالٽ	-13937
▁سيکارڻ	-13938
▁معناها	-13939
▁مٿاهون	-13940
▁هئاسون	-13941
▁ٻاراڻي	-13942
▁پڙهايو	-13943
▁چوٽيءَ	-13944
▁نمائندا	-13945
▁الحمدلله	-13946
▁ڇڏينداسين	-13947
CD	-13948
GB	-13949
ke	-13950
ٿت	-13951
یق	-13952
▁↑	-13953
▁♡	-13954
▁♪	-13955
ene	-13956
per	-13957
ئنڊ	-13958
ترن	-13959
زده	-13960
صلت	-13961
ههي	-13962
وفر	-13963
ڪيج	-13964
▁AD	-13965
▁Go	-13966
▁aw	-13967
▁ut	-13968
▁شَ	-13969
▁يأ	-13970
▁ڳڙ	-13971
atch	-13972
بارت	-13973
جيئن	-13974
فورڊ	-13975
پيٽل	-13976
ڻيءَ	-13977
▁(19	-13978
▁2.5	-13979
▁22.	-13980
▁der	-13981
▁tic	-13982
▁tor	-13983
▁آٿت	-13984
▁تلخ	-13985
▁جوت	-13986
▁جيٽ	-13987
▁حزب	-13988
▁ذھن	-13989
▁سكت	-13990
▁صرت	-13991
▁غصب	-13992
▁لپي	-13993
▁محي	-13994
▁منم	-13995
▁موچ	-13996
▁ميڻ	-13997
▁وسط	-13998
▁ٻچن	-13999
▁پاك	-14000
▁ڄمي	-14001
▁چوپ	-14002
▁ڇٽي	-14003
▁ڊنر	-14004
▁کڄي	-14005
▁ڪچو	-14006
chain	-14007
empty	-14008
سلونا	-14009
▁1977	-14010
▁أحلى	-14011
▁ائيڊ	-14012
▁اجهو	-14013
▁احبك	-14014
▁احمق	-14015
▁انڌا	-14016
▁اوپو	-14017
▁بانڊ	-14018
▁تاڪي	-14019
▁جليل	-14020
▁حُڪم	-14021
▁خليف	-14022
▁خمير	-14023
▁راڻو	-14024
▁رشوت	-14025
▁سوئر	-14026
▁سيءَ	-14027
▁صارت	-14028
▁فيڪل	-14029
▁كلمه	-14030
▁لذيذ	-14031
▁لوڏي	-14032
▁ماڳن	-14033
▁مبلغ	-14034
▁معلش	-14035
▁ميوي	-14036
▁نازي	-14037
▁ناهه	-14038
▁نرمي	-14039
▁هجون	-14040
▁ويٺس	-14041
▁يادم	-14042
▁يادن	-14043
▁ٽائل	-14044
▁ٽرام	-14045
▁ٽوٽل	-14046
▁پگهر	-14047
▁ٿيءُ	-14048
▁ڊڪشن	-14049
▁گوڏن	-14050
▁ڳايو	-14051
▁ارمان	-14052
▁بائيو	-14053
▁بتعرف	-14054
▁بظاهر	-14055
▁بيانن	-14056
▁تكفون	-14057
▁جامعه	-14058
▁حادثن	-14059
▁ذخيرا	-14060
▁راكان	-14061
▁رحمان	-14062
▁روبرو	-14063
▁سگهبو	-14064
▁صاحبه	-14065
▁قائدا	-14066
▁كلامي	-14067
▁مئٽرڪ	-14068
▁مديره	-14069
▁مرکوز	-14070
▁موديل	-14071
▁واللي	-14072
▁ٽيڪسي	-14073
▁ٽڪيٽن	-14074
▁پروپي	-14075
▁ڀانيو	-14076
▁ڀڳوان	-14077
▁چينلز	-14078
▁چڙهيل	-14079
▁ڌريون	-14080
▁گهيري	-14081
▁ھڪٻئي	-14082
▁امريکا	-14083
▁اٿاريو	-14084
▁باشعور	-14085
▁تعجبني	-14086
▁راڻيءَ	-14087
▁روڪٿام	-14088
▁فنڪارن	-14089
▁مجنونه	-14090
▁نڪرندا	-14091
▁ويٽنام	-14092
▁پرڏيهه	-14093
▁ڌاڙيلن	-14094
▁ڪيوسون	-14095
▁اسڪوائر	-14096
▁انجليزي	-14097
▁وائرليس	-14098
▁ڊيموڪري	-14099
▁انتخابات	-14100
▁انفراديت	-14101
▁يونيفارم	-14102
▁فوٽوگرافي	-14103
▁ڊائريڪٽرن	-14104
▁ههههههااااي	-14105
▁هههههههههههاي	-14106
ـــــــــــــــ	-14107
In	-14108
of	-14109
va	-14110
yd	-14111
آس	-14112
اش	-14113
ڪه	-14114
▁ٰ	-14115
ale	-14116
الڊ	-14117
شوق	-14118
ظهر	-14119
قيب	-14120
لنس	-14121
ولر	-14122
ٺيڪ	-14123
ڀار	-14124
▁5)	-14125
▁IM	-14126
▁Is	-14127
▁أب	-14128
▁إي	-14129
▁قض	-14130
▁پہ	-14131
fect	-14132
ject	-14133
land	-14134
اسٽا	-14135
▁17.	-14136
▁19:	-14137
▁cap	-14138
▁أول	-14139
▁اوم	-14140
▁بُک	-14141
▁تقر	-14142
▁جوز	-14143
▁ستم	-14144
▁شاف	-14145
▁شبه	-14146
▁شمع	-14147
▁عنا	-14148
▁ممي	-14149
▁مهو	-14150
▁مچي	-14151
▁ورز	-14152
▁ويش	-14153
▁يصل	-14154
▁ٻٻر	-14155
▁ٽٽل	-14156
▁پِر	-14157
▁ڇوٽ	-14158
▁ڪٽس	-14159
▁گلا	-14160
▁گھن	-14161
ڙيندي	-14162
▁آڪاش	-14163
▁اخوك	-14164
▁اصغر	-14165
▁اصلن	-14166
▁الشي	-14167
▁المص	-14168
▁اوله	-14169
▁اچرج	-14170
▁تروح	-14171
▁دوکي	-14172
▁ريفر	-14173
▁شرعي	-14174
▁شركت	-14175
▁شوفي	-14176
▁لوهي	-14177
▁معها	-14178
▁مهلت	-14179
▁مڙسن	-14180
▁نسوي	-14181
▁هيلي	-14182
▁واني	-14183
▁ويکي	-14184
▁يادش	-14185
▁ٽريل	-14186
▁پيءَ	-14187
▁پٿرن	-14188
▁ڌانڌ	-14189
▁ڪوٽا	-14190
▁گندو	-14191
▁گويا	-14192
▁گيتن	-14193
▁ابوال	-14194
▁اصولي	-14195
▁اعجاز	-14196
▁اڍائي	-14197
▁بخصوص	-14198
▁بروقت	-14199
▁دعائن	-14200
▁ررررر	-14201
▁سانچا	-14202
▁سخاوت	-14203
▁سرجري	-14204
▁شهريت	-14205
▁ضحكني	-14206
▁لڳايا	-14207
▁محبتن	-14208
▁منشور	-14209
▁نيپال	-14210
▁والوز	-14211
▁ويجها	-14212
▁پينشن	-14213
▁ڇڏائڻ	-14214
▁کائنس	-14215
▁ڪاربن	-14216
▁ڪپتان	-14217
▁گهوڙا	-14218
▁گهڙين	-14219
▁آياسين	-14220
▁اخواني	-14221
▁ايائين	-14222
▁سونهري	-14223
▁علامتي	-14224
▁مٽاسٽا	-14225
▁مڃيندا	-14226
▁نارنجي	-14227
▁پروڊيو	-14228
▁کوليون	-14229
▁گمراهه	-14230
▁گهٽايو	-14231
▁بادشاهن	-14232
▁تاريخون	-14233
▁تاريخچه	-14234
▁درحقيقت	-14235
▁رواداري	-14236
▁سفارشون	-14237
▁بارسلونا	-14238
▁وڌائيندي	-14239
▁مينيجمينٽ	-14240
▁نائيجيريا	-14241
▁هههههههههاي	-14242
":	-14243
AM	-14244
HS	-14245
bl	-14246
جز	-14247
سد	-14248
وق	-14249
ڏر	-14250
ړه	-14251
ړي	-14252
ike	-14253
ina	-14254
que	-14255
ئڙي	-14256
ذري	-14257
فرق	-14258
لاڪ	-14259
مير	-14260
ولڻ	-14261
▁==	-14262
▁GP	-14263
▁Sm	-14264
▁آڵ	-14265
▁جئ	-14266
▁حش	-14267
▁عآ	-14268
▁كث	-14269
▁مڊ	-14270
▁ُن	-14271
67">	-14272
ould	-14273
▁15-	-14274
▁3.0	-14275
▁Mon	-14276
▁Res	-14277
▁gra	-14278
▁أني	-14279
▁اتش	-14280
▁اٽل	-14281
▁بلٽ	-14282
▁جنا	-14283
▁رخص	-14284
▁سره	-14285
▁عرش	-14286
▁قطب	-14287
▁كمل	-14288
▁كني	-14289
▁لڌي	-14290
▁مسڪ	-14291
▁ملف	-14292
▁نجو	-14293
▁نفا	-14294
▁های	-14295
▁هوُ	-14296
▁وجو	-14297
▁وڌا	-14298
▁ٽپي	-14299
▁چپس	-14300
▁ڏنس	-14301
▁کِل	-14302
سينجر	-14303
▁1930	-14304
▁1974	-14305
▁="4.	-14306
▁Bank	-14307
▁comm	-14308
▁your	-14309
▁آئرش	-14310
▁ايند	-14311
▁ايڊز	-14312
▁اٿوَ	-14313
▁بيلي	-14314
▁تحفه	-14315
▁جهون	-14316
▁دانه	-14317
▁دكتر	-14318
▁زرين	-14319
▁زيرو	-14320
▁سندا	-14321
▁سودو	-14322
▁سيري	-14323
▁سپاس	-14324
▁علاء	-14325
▁عليا	-14326
▁عمرك	-14327
▁قبرن	-14328
▁قمبر	-14329
▁لاڙو	-14330
▁لنگر	-14331
▁لهرن	-14332
▁ليور	-14333
▁مدام	-14334
▁مليس	-14335
▁نكتة	-14336
▁ننهن	-14337
▁هناك	-14338
▁ويگن	-14339
▁يتيم	-14340
▁يخرب	-14341
▁ٽوئن	-14342
▁ٽينڪ	-14343
▁پويا	-14344
▁چاره	-14345
▁ڏاڏا	-14346
▁ڦاٽي	-14347
▁ڪنگڻ	-14348
▁گياه	-14349
▁آماده	-14350
▁اخراج	-14351
▁العام	-14352
▁العلم	-14353
▁اُڀري	-14354
▁تقليد	-14355
▁جنازي	-14356
▁خطيره	-14357
▁خليهم	-14358
▁راديو	-14359
▁رهنما	-14360
▁سببان	-14361
▁سجاول	-14362
▁سيلون	-14363
▁مشابه	-14364
▁هڻندا	-14365
▁وٽامن	-14366
▁يونٽن	-14367
▁پئڪيج	-14368
▁کوليا	-14369
▁ڪوٽڙي	-14370
▁گرانٽ	-14371
▁گزينه	-14372
ااااااا	-14373
▁آزاديء	-14374
▁آهي۔۔۔	-14375
▁الجديد	-14376
▁انتقال	-14377
▁روينيو	-14378
▁سردارن	-14379
▁شفافيت	-14380
▁صورتون	-14381
▁ملاحظه	-14382
▁ٿيندين	-14383
▁ارزيابي	-14384
▁عيسائين	-14385
▁ميخواهي	-14386
▁پيشنهاد	-14387
▁ڪرسٽوفر	-14388
▁ملاقاتون	-14389
▁ٻڌايائين	-14390
▁پليٽفارم	-14391
▁سنڀاليندو	-14392
/7	-14393
AL	-14394
xx	-14395
zh	-14396
بخ	-14397
صح	-14398
ضن	-14399
▁ڈ	-14400
ids	-14401
صاص	-14402
طيه	-14403
لسي	-14404
لوس	-14405
لون	-14406
هڪي	-14407
وڙي	-14408
ٹیج	-14409
پاڪ	-14410
▁3,	-14411
▁;)	-14412
▁As	-14413
▁CN	-14414
▁CR	-14415
▁FS	-14416
▁Or	-14417
▁RO	-14418
▁SP	-14419
▁io	-14420
▁حٿ	-14421
▁صه	-14422
▁ضي	-14423
▁عِ	-14424
▁لی	-14425
▁وٿ	-14426
▁ڇِ	-14427
▁ڪٺ	-14428
▁′′	-14429
ateg	-14430
بارك	-14431
ثرين	-14432
لامي	-14433
ميري	-14434
▁1.3	-14435
▁get	-14436
▁tra	-14437
▁tro	-14438
▁اوپ	-14439
▁تکو	-14440
▁خپل	-14441
▁رعب	-14442
▁رنڊ	-14443
▁ريف	-14444
▁سُڃ	-14445
▁كما	-14446
▁لوس	-14447
▁ماڙ	-14448
▁محا	-14449
▁مفا	-14450
▁نحن	-14451
▁هڏي	-14452
▁ورس	-14453
▁ياب	-14454
▁پيز	-14455
▁ڌنڌ	-14456
▁ڪرش	-14457
▁ھيل	-14458
ٽرولا	-14459
▁1965	-14460
▁1983	-14461
▁ally	-14462
▁have	-14463
▁take	-14464
▁اخير	-14465
▁اسڪا	-14466
▁اصبح	-14467
▁اوسر	-14468
▁اڻان	-14469
▁بارو	-14470
▁تحول	-14471
▁جميع	-14472
▁جوتا	-14473
▁جيان	-14474
▁حجاب	-14475
▁رفيق	-14476
▁روزا	-14477
▁رکين	-14478
▁زندگ	-14479
▁شوفو	-14480
▁ماڻه	-14481
▁ناسا	-14482
▁نبوت	-14483
▁نقشا	-14484
▁نژاد	-14485
▁هاذي	-14486
▁هالو	-14487
▁هُون	-14488
▁وحشت	-14489
▁ووون	-14490
▁ٽاسڪ	-14491
▁پهتل	-14492
▁پھچڻ	-14493
▁ٿيٽر	-14494
▁ڏيڻي	-14495
▁کٽيو	-14496
▁ڪرپٽ	-14497
▁ڪوڪو	-14498
▁گُهر	-14499
ائيٽيڊ	-14500
وووووو	-14501
▁known	-14502
▁light	-14503
▁years	-14504
▁اثاثو	-14505
▁اندام	-14506
▁اڻڄاڻ	-14507
▁بندگي	-14508
▁تمرين	-14509
▁تيسين	-14510
▁خواست	-14511
▁رنسون	-14512
▁رهيبه	-14513
▁زمينه	-14514
▁سعادت	-14515
▁سيستم	-14516
▁عادتن	-14517
▁غداري	-14518
▁ميٽرن	-14519
▁نوازش	-14520
▁نگاهن	-14521
▁ورکړئ	-14522
▁ٽوڙيو	-14523
▁پبلشر	-14524
▁پولنگ	-14525
▁پيانو	-14526
▁ڌرتيء	-14527
▁ڪارين	-14528
▁ڪنسول	-14529
▁ڪوڊنگ	-14530
▁الائجي	-14531
▁جبتيها	-14532
▁درگاهه	-14533
▁ردودكم	-14534
▁رپورٽر	-14535
▁سالميت	-14536
▁سپاهين	-14537
▁ويهندي	-14538
▁وڃائجي	-14539
▁يستاهل	-14540
▁ڏيندڙن	-14541
▁ڪاپيون	-14542
▁ڪنٽينر	-14543
▁اُنهيءَ	-14544
▁بمبئيءَ	-14545
▁دڪاندار	-14546
▁موٽرولا	-14547
▁ميسينجر	-14548
▁واپسيءَ	-14549
▁ڪميونزم	-14550
▁اااااااي	-14551
▁سيٽلائيٽ	-14552
▁structure	-14553
▁يونائيٽيڊ	-14554
19	-14555
50	-14556
IS	-14557
ye	-14558
ةة	-14559
نع	-14560
ّد	-14561
ict	-14562
غيب	-14563
پرن	-14564
ڊني	-14565
▁++	-14566
▁Gr	-14567
▁It	-14568
▁vi	-14569
▁حک	-14570
▁يغ	-14571
▁پپ	-14572
▁ٿڙ	-14573
▁ڊڊ	-14574
▁ھئ	-14575
▁ین	-14576
ئنسي	-14577
اليه	-14578
بوطي	-14579
توئي	-14580
رويد	-14581
▁17:	-14582
▁20:	-14583
▁log	-14584
▁son	-14585
▁آنآ	-14586
▁بطن	-14587
▁بلد	-14588
▁بيض	-14589
▁تاث	-14590
▁تدو	-14591
▁تره	-14592
▁جهڳ	-14593
▁جھو	-14594
▁دهر	-14595
▁ديش	-14596
▁رضي	-14597
▁زيك	-14598
▁ساڃ	-14599
▁سوف	-14600
▁شات	-14601
▁شدي	-14602
▁شيڪ	-14603
▁صلو	-14604
▁فاض	-14605
▁لعب	-14606
▁محو	-14607
▁مَر	-14608
▁هسه	-14609
▁واك	-14610
▁وسن	-14611
▁وقو	-14612
▁ڊڄڻ	-14613
▁ڍنگ	-14614
▁ڪشن	-14615
▁ڪڍو	-14616
▁ڳڻي	-14617
▁ھڻي	-14618
ڏانھن	-14619
ڙڪائي	-14620
▁cons	-14621
▁tech	-14622
▁اوست	-14623
▁ايجو	-14624
▁بتحب	-14625
▁برتر	-14626
▁بطني	-14627
▁تدخل	-14628
▁ريشم	-14629
▁سالڪ	-14630
▁ساڍا	-14631
▁شعار	-14632
▁صفات	-14633
▁عابد	-14634
▁عجبك	-14635
▁فورا	-14636
▁قائد	-14637
▁قاصد	-14638
▁قضيه	-14639
▁لعبه	-14640
▁لولو	-14641
▁مانَ	-14642
▁ماڻڻ	-14643
▁مصرف	-14644
▁منير	-14645
▁هايي	-14646
▁واڌو	-14647
▁وصال	-14648
▁ځواب	-14649
▁ڊسپو	-14650
▁ڌيئر	-14651
▁کارو	-14652
▁کنئي	-14653
▁ڪبير	-14654
▁ڪيئر	-14655
▁اروپا	-14656
▁السجن	-14657
▁بيهوش	-14658
▁تائيد	-14659
▁تجهيز	-14660
▁تشڪيل	-14661
▁تصنيف	-14662
▁تفاوت	-14663
▁جانان	-14664
▁جتوئي	-14665
▁جوڙيل	-14666
▁حرامي	-14667
▁خواني	-14668
▁دلدار	-14669
▁ذخيري	-14670
▁رسمون	-14671
▁غالبا	-14672
▁قاعدي	-14673
▁قبولي	-14674
▁ماقدر	-14675
▁مدرسي	-14676
▁مرندي	-14677
▁موسمن	-14678
▁مڱريو	-14679
▁مھينو	-14680
▁ويانا	-14681
▁وڪالت	-14682
▁يعينك	-14683
▁ڀنڀور	-14684
▁گرمين	-14685
▁اسطوره	-14686
▁افريقا	-14687
▁انحراف	-14688
▁اٿائين	-14689
▁تدريسي	-14690
▁تقولين	-14691
▁جغرافي	-14692
▁وجهندي	-14693
▁ويهندا	-14694
▁ويڪيوم	-14695
▁وڙهندي	-14696
▁پرفارم	-14697
▁ڪلائوڊ	-14698
▁گاريون	-14699
▁گليڪسي	-14700
▁bitcoin	-14701
▁special	-14702
▁ملنديون	-14703
▁هيونداي	-14704
▁پيروڪار	-14705
▁ايجوڪيشن	-14706
▁سگهياسين	-14707
▁پيٽروليم	-14708
▁throughout	-14709
5]	-14710
7]	-14711
عض	-14712
▁ۍ	-14713
▁≤	-14714
▁😀	-14715
ars	-14716
ull	-14717
احي	-14718
ارك	-14719
شلم	-14720
صوت	-14721
وٽن	-14722
پيا	-14723
ڊور	-14724
▁"'	-14725
▁6)	-14726
▁ON	-14727
▁SM	-14728
▁Tr	-14729
▁ra	-14730
▁دڳ	-14731
▁رر	-14732
▁زل	-14733
▁سٻ	-14734
▁عُ	-14735
▁يٽ	-14736
▁ڍو	-14737
▁گی	-14738
▁16.	-14739
▁Gal	-14740
▁May	-14741
▁Nex	-14742
▁Sch	-14743
▁net	-14744
▁win	-14745
▁إلا	-14746
▁اشي	-14747
▁اُل	-14748
▁اگھ	-14749
▁بيع	-14750
▁ترن	-14751
▁تسم	-14752
▁توا	-14753
▁جوڳ	-14754
▁رمو	-14755
▁زده	-14756
▁شبي	-14757
▁شني	-14758
▁شکل	-14759
▁عاا	-14760
▁غصي	-14761
▁غيب	-14762
▁قون	-14763
▁لاٽ	-14764
▁مكن	-14765
▁نَه	-14766
▁هڏن	-14767
▁وجي	-14768
▁وڻج	-14769
▁پيت	-14770
▁چاک	-14771
▁کام	-14772
▁ڪنز	-14773
▁گاھ	-14774
▁گذا	-14775
inked	-14776
itten	-14777
▁,,,,	-14778
▁Word	-14779
▁days	-14780
▁good	-14781
▁اقرا	-14782
▁الحل	-14783
▁ايبل	-14784
▁اڻون	-14785
▁بنان	-14786
▁تجيب	-14787
▁تلفظ	-14788
▁تمسك	-14789
▁توضي	-14790
▁جابر	-14791
▁خنجر	-14792
▁دهيد	-14793
▁ديوت	-14794
▁ربيع	-14795
▁رجوع	-14796
▁سپنن	-14797
▁سڀڪو	-14798
▁شامي	-14799
▁شناس	-14800
▁عمره	-14801
▁غدير	-14802
▁كنتي	-14803
▁لاكن	-14804
▁مابي	-14805
▁مرور	-14806
▁مروه	-14807
▁مشاع	-14808
▁مشرق	-14809
▁مندي	-14810
▁مولڊ	-14811
▁ميمو	-14812
▁ميگم	-14813
▁نسخه	-14814
▁نظيف	-14815
▁نهاد	-14816
▁نووا	-14817
▁وجهو	-14818
▁وجھڻ	-14819
▁يقدر	-14820
▁ٻيڙو	-14821
▁ٽيلر	-14822
▁چاهن	-14823
▁چريا	-14824
▁چهرا	-14825
▁چهرن	-14826
▁ڪارل	-14827
المپور	-14828
▁العال	-14829
▁اهداف	-14830
▁ايڪري	-14831
▁تاڪيد	-14832
▁تدريس	-14833
▁ترديد	-14834
▁تلاءَ	-14835
▁جواهر	-14836
▁خلافت	-14837
▁خلينا	-14838
▁داريد	-14839
▁درياء	-14840
▁رائعه	-14841
▁سڌائي	-14842
▁شوراي	-14843
▁غريبة	-14844
▁غلامن	-14845
▁فاضيه	-14846
▁فٽنيس	-14847
▁ماشين	-14848
▁مجسمو	-14849
▁معانا	-14850
▁مقابل	-14851
▁مقدمو	-14852
▁مُرڪي	-14853
▁نااهل	-14854
▁ناولن	-14855
▁هاشمي	-14856
▁وڏيءَ	-14857
▁ٽائمز	-14858
▁پرايد	-14859
▁پُڇيو	-14860
▁کوجنا	-14861
▁گاديء	-14862
▁آفيسون	-14863
▁بيانيه	-14864
▁تڪليفن	-14865
▁سوداگر	-14866
▁عزيزتي	-14867
▁مرسيدس	-14868
▁مسكينه	-14869
▁مشاهدي	-14870
▁مضبوطي	-14871
▁منجهيل	-14872
▁ورهاست	-14873
▁ورچوئل	-14874
▁ويچارا	-14875
▁يروشلم	-14876
▁ٻارنهن	-14877
▁چارجنگ	-14878
▁ڏيندين	-14879
▁ڦيرائي	-14880
ockchain	-14881
▁اندرويد	-14882
▁زندگيون	-14883
▁سامراجي	-14884
▁نوجواني	-14885
▁ويتامين	-14886
▁ٻاهرئين	-14887
▁پرتگالي	-14888
▁پوائنٽس	-14889
▁لايفوتكم	-14890
▁ويبسائيٽ	-14891
▁پروڊيوسر	-14892
▁ڳالهايون	-14893
▁information	-14894
IC	-14895
حم	-14896
سِ	-14897
ضض	-14898
طم	-14899
پې	-14900
्र	-14901
▁स	-14902
ier	-14903
int	-14904
أله	-14905
ائض	-14906
زاد	-14907
شنو	-14908
فاء	-14909
فات	-14910
فيت	-14911
فيل	-14912
هود	-14913
يوا	-14914
پڙي	-14915
▁Bu	-14916
▁~~	-14917
▁أإ	-14918
▁ئا	-14919
▁بې	-14920
▁جی	-14921
▁خخ	-14922
▁خص	-14923
▁لگ	-14924
▁نُ	-14925
▁يء	-14926
▁ُو	-14927
▁ڊل	-14928
▁۱۰	-14929
▁को	-14930
line	-14931
فهمت	-14932
▁(0)	-14933
▁(13	-14934
▁144	-14935
▁Gem	-14936
▁Rob	-14937
▁act	-14938
▁cal	-14939
▁ill	-14940
▁آرا	-14941
▁آفر	-14942
▁ادر	-14943
▁انع	-14944
▁دهه	-14945
▁راش	-14946
▁رجب	-14947
▁رهف	-14948
▁رِي	-14949
▁رھن	-14950
▁زنا	-14951
▁سٽر	-14952
▁شرڪ	-14953
▁طمع	-14954
▁عود	-14955
▁ككك	-14956
▁لنچ	-14957
▁مشي	-14958
▁وله	-14959
▁ومش	-14960
▁ٻڌن	-14961
▁کڻو	-14962
▁ڪمر	-14963
Cloud	-14964
اءِجو	-14965
لاطون	-14966
▁(200	-14967
▁1986	-14968
▁آندل	-14969
▁اظهر	-14970
▁الاخ	-14971
▁امرو	-14972
▁ايمن	-14973
▁ايڊو	-14974
▁اھيو	-14975
▁بازو	-14976
▁بدري	-14977
▁برسل	-14978
▁بقيه	-14979
▁بيتن	-14980
▁تازن	-14981
▁تحدي	-14982
▁تنوع	-14983
▁جداً	-14984
▁جوڙا	-14985
▁خرچي	-14986
▁دائم	-14987
▁ديدي	-14988
▁رشته	-14989
▁ريشه	-14990
▁سوسو	-14991
▁سيرت	-14992
▁سُون	-14993
▁سٹیل	-14994
▁شرجي	-14995
▁شيوه	-14996
▁مامو	-14997
▁ميڊل	-14998
▁نبين	-14999
▁نقطا	-15000
▁وايو	-15001
▁وٺجي	-15002
▁يرحم	-15003
▁ينفع	-15004
▁ٺاھي	-15005
▁ٽيچر	-15006
▁پاتل	-15007
▁چرٻي	-15008
▁چورن	-15009
▁ڇڪيل	-15010
▁ڊوڙڻ	-15011
▁کلاس	-15012
▁کنيل	-15013
▁still	-15014
▁آثارن	-15015
▁آرڊين	-15016
▁اسٽيم	-15017
▁تبصرن	-15018
▁ترغيب	-15019
▁تعاقب	-15020
▁تعرفي	-15021
▁ريڪٽر	-15022
▁سنئين	-15023
▁سڳوري	-15024
▁ظالمن	-15025
▁ليبرا	-15026
▁ملاحظ	-15027
▁ملاڪا	-15028
▁ندارم	-15029
▁نمياد	-15030
▁هونڊي	-15031
▁ياحلي	-15032
▁ٽوٽڪا	-15033
▁پسندن	-15034
▁پهاڙي	-15035
▁ڪورسز	-15036
▁ڪورون	-15037
▁گهوڙو	-15038
▁اسٽورن	-15039
▁امدادي	-15040
▁باورچی	-15041
▁بدامني	-15042
▁ديواري	-15043
▁روئندي	-15044
▁سرفراز	-15045
▁سلائيڊ	-15046
▁سينيٽر	-15047
▁فيڪلٽي	-15048
▁مافهمت	-15049
▁ماليات	-15050
▁منظورت	-15051
▁مواضيع	-15052
▁ٺهراءُ	-15053
▁ڏينهون	-15054
▁اخبارون	-15055
▁انيميشن	-15056
▁ماريندو	-15057
▁نمائندي	-15058
▁نياڻيون	-15059
▁هائوسنگ	-15060
▁ٽيمپليٽ	-15061
▁ڀائيوار	-15062
▁بچائيندو	-15063
▁ٻڌائيندس	-15064
▁ڇالاءِجو	-15065
▁ڏياريندڙ	-15066
▁ڪيستائين	-15067
▁Blackjack	-15068
▁ميونسپلٽي	-15069
▁پاڪستانين	-15070
AC	-15071
ON	-15072
ba	-15073
me	-15074
ڏس	-15075
▁®	-15076
▁◆	-15077
amp	-15078
box	-15079
ral	-15080
ung	-15081
بيع	-15082
متك	-15083
وان	-15084
ڪوڪ	-15085
▁-2	-15086
▁CF	-15087
▁ma	-15088
▁no	-15089
▁بة	-15090
▁رؤ	-15091
▁زِ	-15092
▁سز	-15093
▁صي	-15094
▁فش	-15095
▁كد	-15096
▁ٺڳ	-15097
over	-15098
pper	-15099
ادار	-15100
بندي	-15101
جهان	-15102
سپاس	-15103
ليلك	-15104
وليا	-15105
▁170	-15106
▁20-	-15107
▁3.5	-15108
▁4.1	-15109
▁sur	-15110
▁آلآ	-15111
▁آيم	-15112
▁أجل	-15113
▁أحب	-15114
▁أخو	-15115
▁ارڙ	-15116
▁بُڪ	-15117
▁تغذ	-15118
▁تڙپ	-15119
▁ثقل	-15120
▁جعل	-15121
▁خطأ	-15122
▁دڙو	-15123
▁فلڪ	-15124
▁لاف	-15125
▁لذت	-15126
▁لڌا	-15127
▁لڙي	-15128
▁وضع	-15129
▁پڄي	-15130
▁ڀاڱ	-15131
▁چير	-15132
▁چُپ	-15133
▁ڍڪڻ	-15134
▁ڏيا	-15135
▁ڙِي	-15136
▁ڪشي	-15137
▁گود	-15138
▁گوش	-15139
▁ھِن	-15140
▁1945	-15141
▁More	-15142
▁time	-15143
▁الجو	-15144
▁ايرو	-15145
▁اُتر	-15146
▁اِھو	-15147
▁بابر	-15148
▁بڇڙو	-15149
▁تخاف	-15150
▁جوڀن	-15151
▁حالك	-15152
▁ساجد	-15153
▁سانڍ	-15154
▁شبكه	-15155
▁شوند	-15156
▁شويد	-15157
▁عيال	-15158
▁كويس	-15159
▁لاحظ	-15160
▁ماپي	-15161
▁محرو	-15162
▁مشير	-15163
▁معاي	-15164
▁معلق	-15165
▁هيڪل	-15166
▁وريو	-15167
▁ووٽن	-15168
▁يااا	-15169
▁يوفق	-15170
▁ٽيهن	-15171
▁پاڳل	-15172
▁پناھ	-15173
▁پنبه	-15174
▁پڇان	-15175
▁پڙھو	-15176
▁ٿئين	-15177
▁ٿيڻي	-15178
▁ڀيٽا	-15179
▁چرچو	-15180
▁ڍڪيل	-15181
▁کاهش	-15182
▁ڪلهن	-15183
▁ڪِين	-15184
▁ڪپور	-15185
▁آسپاس	-15186
▁آمريت	-15187
▁اجراي	-15188
▁اشتري	-15189
▁الخير	-15190
▁العين	-15191
▁الليل	-15192
▁اوچتي	-15193
▁اڻيءَ	-15194
▁بضحكه	-15195
▁تدوين	-15196
▁ترجما	-15197
▁توضيح	-15198
▁ريڊمي	-15199
▁سڌارن	-15200
▁شالله	-15201
▁ظرفيت	-15202
▁فرائض	-15203
▁لساني	-15204
▁لهندو	-15205
▁لکيون	-15206
▁ماكنت	-15207
▁ماڊرن	-15208
▁محنتي	-15209
▁نظارا	-15210
▁نماين	-15211
▁هستيد	-15212
▁هڻندي	-15213
▁وهندڙ	-15214
▁ٻڌايل	-15215
▁پرامن	-15216
▁پهاڪا	-15217
▁پيرسن	-15218
▁پيشين	-15219
▁ڪربلا	-15220
▁ڪوئلي	-15221
▁المدير	-15222
▁اولمپڪ	-15223
▁برفاني	-15224
▁تاثرات	-15225
▁رومانس	-15226
▁سرحدون	-15227
▁عقلمند	-15228
▁لمرورك	-15229
▁هوندين	-15230
▁هٿرادو	-15231
▁ويڊيوز	-15232
▁ٺهڪندڙ	-15233
▁ٻُڌايو	-15234
▁ٽريڪٽر	-15235
▁چانورن	-15236
▁چانڊيو	-15237
▁تفصيلات	-15238
▁خوشبوءِ	-15239
▁رجحانات	-15240
▁رکيائين	-15241
▁متاثرين	-15242
▁پاليندڙ	-15243
▁ڪلوگرام	-15244
▁business	-15245
▁بندرگاهن	-15246
▁پارٽنرشپ	-15247
▁يونيورسٽيء	-15248
▁ڳالهائينداسين	-15249
EN	-15250
MC	-15251
طط	-15252
ظن	-15253
ٽم	-15254
کل	-15255
र्	-15256
▁ڵ	-15257
get	-15258
باط	-15259
برو	-15260
جاج	-15261
سلم	-15262
طرس	-15263
عاد	-15264
ورر	-15265
ورٽ	-15266
ڇاڻ	-15267
گرد	-15268
▁EN	-15269
▁cr	-15270
▁sa	-15271
▁أت	-15272
▁أه	-15273
▁دق	-15274
▁هے	-15275
▁وھ	-15276
▁پښ	-15277
▁••	-15278
ager	-15279
ages	-15280
ular	-15281
ايده	-15282
رادي	-15283
ندوق	-15284
▁)))	-15285
▁450	-15286
▁=))	-15287
▁bre	-15288
▁del	-15289
▁reg	-15290
▁ادع	-15291
▁ارض	-15292
▁الض	-15293
▁تام	-15294
▁تاي	-15295
▁تجي	-15296
▁جده	-15297
▁خيم	-15298
▁ديا	-15299
▁رتو	-15300
▁سهو	-15301
▁سوڍ	-15302
▁طنز	-15303
▁فوم	-15304
▁فِي	-15305
▁لار	-15306
▁لبر	-15307
▁وسڻ	-15308
▁ويھ	-15309
▁ٻير	-15310
▁پھر	-15311
▁ڏنم	-15312
الوجي	-15313
▁1953	-15314
▁1985	-15315
▁fing	-15316
▁استخ	-15317
▁استف	-15318
▁اضرب	-15319
▁الحم	-15320
▁انڊس	-15321
▁بروح	-15322
▁بشير	-15323
▁بكره	-15324
▁بندن	-15325
▁بگير	-15326
▁تلاء	-15327
▁جاچڻ	-15328
▁جلسه	-15329
▁جوڙن	-15330
▁حسام	-15331
▁خامي	-15332
▁خفيف	-15333
▁رحلت	-15334
▁ريڊر	-15335
▁سجاد	-15336
▁سينگ	-15337
▁شيلف	-15338
▁عايز	-15339
▁فراق	-15340
▁قابض	-15341
▁لاڳت	-15342
▁لمحا	-15343
▁مازن	-15344
▁مولي	-15345
▁ميٽي	-15346
▁ناخو	-15347
▁نبود	-15348
▁نورت	-15349
▁هرچي	-15350
▁وجهك	-15351
▁وصيت	-15352
▁يجنن	-15353
▁يوري	-15354
▁پنهل	-15355
▁چيري	-15356
▁کرده	-15357
▁گوتم	-15358
▁گويي	-15359
▁گڏيو	-15360
="0.06	-15361
الفقار	-15362
سٽريٽر	-15363
▁Nexus	-15364
▁https	-15365
▁اخيرا	-15366
▁ادراڪ	-15367
▁اشكال	-15368
▁اشياء	-15369
▁اڇليو	-15370
▁باقائ	-15371
▁تامين	-15372
▁تتكلم	-15373
▁تغذيه	-15374
▁تماشو	-15375
▁جمالي	-15376
▁سومرا	-15377
▁سٺيون	-15378
▁صندوق	-15379
▁طريقة	-15380
▁مدافع	-15381
▁مصلحت	-15382
▁معاها	-15383
▁موافق	-15384
▁مٺائي	-15385
▁ورندي	-15386
▁وڌايل	-15387
▁ٽيڪني	-15388
▁پليجو	-15389
▁پنهنج	-15390
▁پهاڪن	-15391
▁پوڙها	-15392
▁چهارم	-15393
▁ڊسپين	-15394
▁گھرجن	-15395
▁ڳوڙهن	-15396
▁اجرائي	-15397
▁الجميع	-15398
▁بدنامي	-15399
▁بيئرنگ	-15400
▁تحريرن	-15401
▁سعوديه	-15402
▁سهائتا	-15403
▁مطالبا	-15404
▁ياقلبي	-15405
▁پيشنها	-15406
▁ڪارآمد	-15407
▁ڪليڪٽر	-15408
▁ization	-15409
▁اسڪيننگ	-15410
▁افلاطون	-15411
▁السياره	-15412
▁المسكين	-15413
▁بينڪننگ	-15414
▁ترڪيبون	-15415
▁خبرداري	-15416
▁سمجهندي	-15417
▁والاريل	-15418
▁پائيندو	-15419
▁پريميئم	-15420
▁ذوالفقار	-15421
▁وراڻيائين	-15422
▁ههههههههااي	-15423
LO	-15424
sy	-15425
مَ	-15426
▁ह	-15427
ces	-15428
eek	-15429
els	-15430
ern	-15431
let	-15432
lol	-15433
ogy	-15434
ررر	-15435
رفع	-15436
زوي	-15437
شيش	-15438
قيل	-15439
كرك	-15440
يئر	-15441
ٿين	-15442
کيل	-15443
یشن	-15444
ینڈ	-15445
▁(8	-15446
▁=)	-15447
▁Mo	-15448
▁Ro	-15449
▁TV	-15450
▁os	-15451
▁زى	-15452
▁ظل	-15453
▁كك	-15454
▁لڇ	-15455
▁لڱ	-15456
▁َڻ	-15457
▁ڳي	-15458
ابلي	-15459
ابول	-15460
احبه	-15461
انوس	-15462
جيڪل	-15463
خشيد	-15464
داني	-15465
سكري	-15466
شيءَ	-15467
ڊرنگ	-15468
▁-19	-15469
▁21:	-15470
▁Aqu	-15471
▁Ser	-15472
▁Wor	-15473
▁cas	-15474
▁mat	-15475
▁ros	-15476
▁two	-15477
▁آفا	-15478
▁ابل	-15479
▁اعو	-15480
▁الْ	-15481
▁بيب	-15482
▁تفت	-15483
▁جزن	-15484
▁حرك	-15485
▁حور	-15486
▁سهم	-15487
▁سيس	-15488
▁شوو	-15489
▁شکر	-15490
▁صدك	-15491
▁طفل	-15492
▁فقي	-15493
▁لاٿ	-15494
▁لوح	-15495
▁مئج	-15496
▁هيب	-15497
▁ولك	-15498
▁يسم	-15499
▁پسڻ	-15500
▁پڇت	-15501
▁ڀرت	-15502
▁چيا	-15503
▁ڍور	-15504
▁ڪهي	-15505
▁ھيس	-15506
arius	-15507
لاحيت	-15508
هوڪار	-15509
▁1940	-15510
▁1981	-15511
▁1987	-15512
▁from	-15513
▁less	-15514
▁المش	-15515
▁اوچي	-15516
▁بوءِ	-15517
▁تجري	-15518
▁تركي	-15519
▁تقدر	-15520
▁جمعو	-15521
▁جندي	-15522
▁ريشن	-15523
▁ريڪو	-15524
▁ساڻي	-15525
▁سرمد	-15526
▁سلها	-15527
▁طوري	-15528
▁علوي	-15529
▁فلڪس	-15530
▁فينا	-15531
▁قيصر	-15532
▁كملي	-15533
▁كنيد	-15534
▁لانك	-15535
▁لحال	-15536
▁ماڻس	-15537
▁مجال	-15538
▁نعيم	-15539
▁نقطن	-15540
▁نيرن	-15541
▁وليه	-15542
▁ٺھيل	-15543
▁ٽائن	-15544
▁پروت	-15545
▁پيلي	-15546
▁ڄاتل	-15547
▁چارڻ	-15548
▁ڏاهي	-15549
▁کائن	-15550
▁گستا	-15551
ritten	-15552
تنهنجو	-15553
▁اثاثا	-15554
▁اسئلة	-15555
▁اسٽڊي	-15556
▁اسڪرو	-15557
▁اغاني	-15558
▁افراد	-15559
▁اهڃاڻ	-15560
▁اٿئون	-15561
▁بلوٽو	-15562
▁بهانو	-15563
▁بيلنس	-15564
▁ترکيه	-15565
▁ثنائي	-15566
▁جاسوس	-15567
▁جبتها	-15568
▁جنايت	-15569
▁جڳائي	-15570
▁دكتور	-15571
▁روپين	-15572
▁ريشمي	-15573
▁زبانن	-15574
▁زلزلو	-15575
▁سرشتو	-15576
▁سوچين	-15577
▁شڪاري	-15578
▁عارفه	-15579
▁عبارت	-15580
▁ماعلي	-15581
▁مراجع	-15582
▁مشاري	-15583
▁معشوق	-15584
▁مقالا	-15585
▁منجھس	-15586
▁موصول	-15587
▁ننڍڙن	-15588
▁نهارڻ	-15589
▁هيڪرز	-15590
▁وراثت	-15591
▁پيامك	-15592
▁پڇندا	-15593
▁پکيڙڻ	-15594
▁ڪينيا	-15595
▁گرامر	-15596
▁گرميء	-15597
ational	-15598
▁ببخشيد	-15599
▁جولائي	-15600
▁جونيئر	-15601
▁عادتون	-15602
▁ماادري	-15603
▁ماعندي	-15604
▁مباحثي	-15605
▁مطالعه	-15606
▁يوگنڊا	-15607
▁ٻارهين	-15608
▁پيشواز	-15609
▁ڪيوسين	-15610
▁گهرائڻ	-15611
▁اتحادين	-15612
▁ايرانسل	-15613
▁بدلجندڙ	-15614
▁رانديڪا	-15615
▁شاهوڪار	-15616
▁شڪايتون	-15617
▁لانڊرنگ	-15618
▁ڪچهريءَ	-15619
▁السعوديه	-15620
▁باصلاحيت	-15621
▁هيستائين	-15622
▁ڏيکاريون	-15623
▁Stainless	-15624
▁اقتصاديات	-15625
▁سنڀاليندڙ	-15626
9]	-15627
LC	-15628
UN	-15629
vi	-15630
؟!	-15631
آف	-15632
بَ	-15633
رَ	-15634
غن	-15635
مُ	-15636
ّه	-15637
ڑھ	-15638
ېر	-15639
raw	-15640
ven	-15641
ves	-15642
امج	-15643
داك	-15644
عيه	-15645
فرج	-15646
پيش	-15647
▁8)	-15648
▁Ab	-15649
▁DH	-15650
▁Fl	-15651
▁IC	-15652
▁IT	-15653
▁ca	-15654
▁gu	-15655
▁sl	-15656
▁ta	-15657
▁دز	-15658
▁شُ	-15659
▁ڦِ	-15660
▁کې	-15661
▁ڻو	-15662
="4.	-15663
reat	-15664
ايتن	-15665
ديده	-15666
ستاد	-15667
مانڊ	-15668
هائو	-15669
ٽيئر	-15670
▁365	-15671
▁Law	-15672
▁Tik	-15673
▁ali	-15674
▁bec	-15675
▁آوي	-15676
▁إنت	-15677
▁ازي	-15678
▁اڻا	-15679
▁تات	-15680
▁تخل	-15681
▁جاک	-15682
▁جھن	-15683
▁حاس	-15684
▁حوي	-15685
▁خرج	-15686
▁ظفر	-15687
▁لول	-15688
▁هيث	-15689
▁وسر	-15690
▁وهڻ	-15691
▁وڍي	-15692
▁يحت	-15693
▁يكي	-15694
▁يوز	-15695
▁ٻاھ	-15696
▁ٽما	-15697
▁گھي	-15698
▁ھان	-15699
▁ھڻڻ	-15700
انيزم	-15701
ٽريشن	-15702
پرستي	-15703
▁1966	-15704
▁1967	-15705
▁extr	-15706
▁أختي	-15707
▁المط	-15708
▁انچي	-15709
▁ايشن	-15710
▁ايٿو	-15711
▁بجاء	-15712
▁برين	-15713
▁بنجڻ	-15714
▁تطبي	-15715
▁توڻي	-15716
▁جوڻي	-15717
▁داڻا	-15718
▁راسه	-15719
▁سكسي	-15720
▁شوڪت	-15721
▁صدقو	-15722
▁غيبت	-15723
▁فرحت	-15724
▁فريد	-15725
▁قدمي	-15726
▁مذھب	-15727
▁مرکز	-15728
▁ناھن	-15729
▁نبات	-15730
▁نفعو	-15731
▁نڪرن	-15732
▁هيات	-15733
▁وران	-15734
▁ولين	-15735
▁ويلز	-15736
▁وڪام	-15737
▁ٻالڪ	-15738
▁ٽوئي	-15739
▁ٽولو	-15740
▁پطرس	-15741
▁پهچن	-15742
▁پورن	-15743
▁چاچو	-15744
▁ڊگھو	-15745
▁کُلي	-15746
▁گھوٽ	-15747
▁ڳجهي	-15748
▁1,000	-15749
▁ارائه	-15750
▁العنو	-15751
▁اهلين	-15752
▁اوپري	-15753
▁بورچي	-15754
▁تأثير	-15755
▁تلاوت	-15756
▁ثالثي	-15757
▁دوڪان	-15758
▁رسانه	-15759
▁روابط	-15760
▁ريورس	-15761
▁سنگتي	-15762
▁سنگيت	-15763
▁سڃاتل	-15764
▁لهندي	-15765
▁مؤمنن	-15766
▁مربوط	-15767
▁مرندو	-15768
▁مرورك	-15769
▁مقالو	-15770
▁مھمان	-15771
▁نائيٽ	-15772
▁ناخوش	-15773
▁نڀائي	-15774
▁واحدة	-15775
▁ويجھي	-15776
▁وڏيرو	-15777
▁پرچار	-15778
▁پوشاڪ	-15779
▁چائنا	-15780
▁چارئي	-15781
▁چانور	-15782
▁ڌاڙيل	-15783
▁ڪالون	-15784
▁ڳائڻي	-15785
▁design	-15786
▁direct	-15787
▁آڱريون	-15788
▁الرياض	-15789
▁الظاهر	-15790
▁المقطع	-15791
▁تعجبكم	-15792
▁ديوارن	-15793
▁رجحانن	-15794
▁رڪاوٽن	-15795
▁سازگار	-15796
▁سانگهڙ	-15797
▁سفارتي	-15798
▁فهرستن	-15799
▁موٽندي	-15800
▁الرحمان	-15801
▁ايڊيشنل	-15802
▁دواسازي	-15803
▁ديوتائن	-15804
▁شماريات	-15805
▁عربستان	-15806
▁غلاميءَ	-15807
▁مظاهرين	-15808
▁ييييييي	-15809
▁پونديون	-15810
▁ڊيزائين	-15811
▁ڪيٽيگري	-15812
▁انسپيڪٽر	-15813
▁موڪليندڙ	-15814
▁پروموشنل	-15815
▁سفارتخاني	-15816
▁مئنيجمينٽ	-15817
بز	-15818
رق	-15819
شف	-15820
▁☺	-15821
027	-15822
cle	-15823
بيح	-15824
تيل	-15825
راح	-15826
روا	-15827
رڪي	-15828
سٽل	-15829
ويض	-15830
ډيا	-15831
▁IV	-15832
▁ST	-15833
▁af	-15834
▁bo	-15835
▁ia	-15836
▁sk	-15837
▁ذی	-15838
▁صع	-15839
▁قن	-15840
▁لى	-15841
▁مٍ	-15842
▁ٻہ	-15843
▁یا	-15844
▁۱۸	-15845
ance	-15846
ware	-15847
wiki	-15848
بيون	-15849
راهٽ	-15850
وريٽ	-15851
▁(20	-15852
▁23:	-15853
▁Aff	-15854
▁Air	-15855
▁Bet	-15856
▁Exp	-15857
▁___	-15858
▁bet	-15859
▁rep	-15860
▁امو	-15861
▁تپي	-15862
▁تڪي	-15863
▁جاك	-15864
▁دبي	-15865
▁دِل	-15866
▁دٻو	-15867
▁ذبح	-15868
▁زود	-15869
▁صوف	-15870
▁عبي	-15871
▁فھر	-15872
▁كنا	-15873
▁مغز	-15874
▁مُک	-15875
▁نقا	-15876
▁هبل	-15877
▁وام	-15878
▁وكم	-15879
▁ويڊ	-15880
▁پُڄ	-15881
▁ڀڳل	-15882
▁چئه	-15883
▁ڊيش	-15884
▁ڏاک	-15885
▁ڏڪڻ	-15886
ables	-15887
مارڪس	-15888
ٽيريا	-15889
▁1972	-15890
▁الجم	-15891
▁المت	-15892
▁المع	-15893
▁ايوة	-15894
▁بشرط	-15895
▁بوري	-15896
▁تامل	-15897
▁تشكر	-15898
▁خرید	-15899
▁خيره	-15900
▁دانا	-15901
▁ذرات	-15902
▁زاري	-15903
▁سارة	-15904
▁سانگ	-15905
▁سرڪل	-15906
▁شھرن	-15907
▁مبين	-15908
▁مصور	-15909
▁مممم	-15910
▁مٽجي	-15911
▁هُيو	-15912
▁وفاء	-15913
▁يبقى	-15914
▁ٽئڪس	-15915
▁پارا	-15916
▁چهره	-15917
▁ڊسٽر	-15918
▁ڪوڙن	-15919
▁گاني	-15920
ائيڪلو	-15921
▁5,000	-15922
▁Trans	-15923
▁العيد	-15924
▁النوم	-15925
▁امسال	-15926
▁امينو	-15927
▁بلاشڪ	-15928
▁بهتره	-15929
▁تعلقو	-15930
▁جامدة	-15931
▁جانءِ	-15932
▁جيئرا	-15933
▁خودرو	-15934
▁دارند	-15935
▁سمسنگ	-15936
▁لينڪس	-15937
▁ميراث	-15938
▁واردا	-15939
▁وشكرا	-15940
▁يبارك	-15941
▁ٻڌندڙ	-15942
▁پذيرش	-15943
▁پوريء	-15944
▁چگونه	-15945
▁گولين	-15946
▁iCloud	-15947
▁اڀرندي	-15948
▁تحصيلي	-15949
▁تنظيمي	-15950
▁جڳهيون	-15951
▁درميان	-15952
▁سيارات	-15953
▁علامات	-15954
▁مرتضيٰ	-15955
▁مشكوره	-15956
▁مطالبي	-15957
▁نيڪالي	-15958
▁پرستار	-15959
▁ڌانڌلي	-15960
▁گهٽيءَ	-15961
▁آرڊيننس	-15962
▁خصوصيتن	-15963
▁صوبيدار	-15964
▁لکيائين	-15965
▁مسافرتي	-15966
▁مقناطيس	-15967
▁نامياري	-15968
▁ڏينديون	-15969
▁اميگريشن	-15970
▁حسابداري	-15971
▁قائداعظم	-15972
▁ماحوليات	-15973
▁specification	-15974
2]	-15975
ES	-15976
UB	-15977
bo	-15978
،"	-15979
شس	-15980
غط	-15981
وض	-15982
ھھ	-15983
▁प	-15984
ane	-15985
oup	-15986
برگ	-15987
سبز	-15988
شون	-15989
هرب	-15990
ياڻ	-15991
▁-0	-15992
▁CH	-15993
▁Du	-15994
▁dr	-15995
▁gl	-15996
▁تث	-15997
▁جک	-15998
▁غب	-15999
▁نے	-16000
▁ڄا	-16001
▁کد	-16002
▁گڻ	-16003
درجه	-16004
وندي	-16005
▁138	-16006
▁176	-16007
▁183	-16008
▁21.	-16009
▁App	-16010
▁LCD	-16011
▁Min	-16012
▁ODM	-16013
▁Ste	-16014
▁kne	-16015
▁new	-16016
▁par	-16017
▁str	-16018
▁way	-16019
▁آآه	-16020
▁إني	-16021
▁اصد	-16022
▁اٽڪ	-16023
▁بام	-16024
▁ترم	-16025
▁جمن	-16026
▁ذره	-16027
▁ذلت	-16028
▁ربط	-16029
▁رڙي	-16030
▁زدن	-16031
▁سچن	-16032
▁ضعف	-16033
▁طعم	-16034
▁طير	-16035
▁فيز	-16036
▁لءِ	-16037
▁لقد	-16038
▁لوز	-16039
▁معز	-16040
▁هرڻ	-16041
▁هوي	-16042
▁هِڪ	-16043
▁واخ	-16044
▁واد	-16045
▁ولر	-16046
▁ٽرا	-16047
▁پژو	-16048
▁ڊاک	-16049
▁کره	-16050
▁ڪڙو	-16051
▁گهُ	-16052
▁ھٿن	-16053
▁ہیں	-16054
ollow	-16055
خواهي	-16056
▁(1).	-16057
▁Comp	-16058
▁Game	-16059
▁disc	-16060
▁down	-16061
▁find	-16062
▁احتم	-16063
▁السر	-16064
▁اهلي	-16065
▁اوڪي	-16066
▁ايوي	-16067
▁بالم	-16068
▁بيست	-16069
▁تريد	-16070
▁جيمز	-16071
▁جيڏو	-16072
▁خدشو	-16073
▁خلصت	-16074
▁خيبر	-16075
▁ريون	-16076
▁سودي	-16077
▁سيتا	-16078
▁سينڊ	-16079
▁سيڪس	-16080
▁صافي	-16081
▁طاري	-16082
▁عمان	-16083
▁فواز	-16084
▁لبيا	-16085
▁ماحد	-16086
▁ماين	-16087
▁مخفف	-16088
▁مشهو	-16089
▁ملون	-16090
▁ناتا	-16091
▁نوين	-16092
▁هستن	-16093
▁وعلي	-16094
▁ويلا	-16095
▁يابو	-16096
▁يارڊ	-16097
▁يمسك	-16098
▁يوكن	-16099
▁پاند	-16100
▁پاڇي	-16101
▁پريو	-16102
▁چُڪو	-16103
▁ڊاري	-16104
▁ڦيرو	-16105
▁ڪسڪس	-16106
▁ڪڪرن	-16107
▁گويم	-16108
▁Crypt	-16109
▁آرامي	-16110
▁آڳاٽي	-16111
▁اتخيل	-16112
▁الاكل	-16113
▁القصه	-16114
▁تخصصي	-16115
▁تعالو	-16116
▁جاکوڙ	-16117
▁جنائي	-16118
▁جهيڙي	-16119
▁حداقل	-16120
▁حلووه	-16121
▁ذخيره	-16122
▁سرسبز	-16123
▁صوفين	-16124
▁فھرست	-16125
▁لوڊنگ	-16126
▁مڙيئي	-16127
▁نامور	-16128
▁هڻندو	-16129
▁واتان	-16130
▁واهپي	-16131
▁وناسه	-16132
▁ٻڌندي	-16133
▁ٽالپر	-16134
▁پرداز	-16135
▁پروين	-16136
▁پوکيو	-16137
▁پکيڙي	-16138
▁چڙهيو	-16139
▁اسٽرنگ	-16140
▁اقليتن	-16141
▁انديشو	-16142
▁انعامن	-16143
▁انگيزه	-16144
▁برساتن	-16145
▁بوتلون	-16146
▁تستاهل	-16147
▁جاسوسي	-16148
▁دنياوي	-16149
▁دهليءَ	-16150
▁سيرامڪ	-16151
▁غلطيءَ	-16152
▁مشابهت	-16153
▁مصطفيٰ	-16154
▁مصيبتن	-16155
▁ناڪاري	-16156
▁نداريم	-16157
▁وجهندو	-16158
▁ٺهرائي	-16159
▁چاکليٽ	-16160
▁ڪاوڙيل	-16161
▁گلوڪوز	-16162
▁بيوقوفي	-16163
▁دانشگاه	-16164
▁سچائيءَ	-16165
▁يادگاري	-16166
▁ٽرمينلز	-16167
▁پروتئين	-16168
▁پٺڀرائي	-16169
▁ڪارنامو	-16170
▁اسٽينڊنگ	-16171
▁بڻائيندي	-16172
▁جمالياتي	-16173
▁ڪلوميٽرن	-16174
▁انسائيڪلو	-16175
▁اڪائونٽنگ	-16176
▁جغرافيائي	-16177
هههههههههاي	-16178
▁ايپليڪيشنز	-16179
60	-16180
8]	-16181
هد	-16182
وط	-16183
گم	-16184
▁ڃ	-16185
ani	-16186
hip	-16187
ئِي	-16188
اقف	-16189
بوا	-16190
ڪسن	-16191
یکٹ	-16192
▁2_	-16193
▁CM	-16194
▁Pa	-16195
▁fr	-16196
▁pm	-16197
▁ؤن	-16198
▁رل	-16199
▁ری	-16200
▁ُ.	-16201
▁چک	-16202
▁ڌڻ	-16203
▁ڦڙ	-16204
ersh	-16205
eter	-16206
rade	-16207
انيت	-16208
برري	-16209
سپال	-16210
ـٍـٍ	-16211
قرآن	-16212
ندگي	-16213
نيات	-16214
▁123	-16215
▁128	-16216
▁14:	-16217
▁27.	-16218
▁Cor	-16219
▁Dec	-16220
▁[3]	-16221
▁pay	-16222
▁red	-16223
▁آنت	-16224
▁اُم	-16225
▁بوئ	-16226
▁تنت	-16227
▁توس	-16228
▁جئر	-16229
▁حفي	-16230
▁خفت	-16231
▁خلف	-16232
▁دوس	-16233
▁ريه	-16234
▁سلف	-16235
▁سنك	-16236
▁سوڊ	-16237
▁سِڪ	-16238
▁غرق	-16239
▁كيو	-16240
▁لاج	-16241
▁لٿي	-16242
▁ماف	-16243
▁مسل	-16244
▁نسي	-16245
▁نڪت	-16246
▁هيئ	-16247
▁يشن	-16248
▁يين	-16249
▁ٽرپ	-16250
▁ڄڻو	-16251
▁چوٽ	-16252
▁ڊرم	-16253
▁ڏمر	-16254
▁ڏِس	-16255
▁ڏڪي	-16256
▁کجا	-16257
▁ڪوي	-16258
ready	-16259
ufact	-16260
ابيطس	-16261
ميڊيا	-16262
نيشيم	-16263
پارڪر	-16264
▁.000	-16265
▁1920	-16266
▁[1].	-16267
▁ance	-16268
▁ings	-16269
▁ized	-16270
▁،000	-16271
▁آداب	-16272
▁أنتي	-16273
▁ائبو	-16274
▁ائتي	-16275
▁ازدو	-16276
▁الاع	-16277
▁ايزي	-16278
▁اگها	-16279
▁بائن	-16280
▁بالن	-16281
▁براء	-16282
▁بسوي	-16283
▁تموت	-16284
▁تنين	-16285
▁ديهه	-16286
▁راعي	-16287
▁رجال	-16288
▁رسيو	-16289
▁رعيت	-16290
▁روزن	-16291
▁سائڻ	-16292
▁سورس	-16293
▁شعرن	-16294
▁شيرت	-16295
▁شيشه	-16296
▁طبقه	-16297
▁طلبي	-16298
▁فرضن	-16299
▁فلاس	-16300
▁فهيم	-16301
▁فوڪس	-16302
▁للتو	-16303
▁مائر	-16304
▁مانع	-16305
▁مجله	-16306
▁مرات	-16307
▁مرره	-16308
▁مطرح	-16309
▁منين	-16310
▁مکان	-16311
▁نثري	-16312
▁هقول	-16313
▁هيثم	-16314
▁وگهي	-16315
▁يادت	-16316
▁ٺهڪي	-16317
▁ٽرسٽ	-16318
▁ٽپال	-16319
▁پراگ	-16320
▁پوان	-16321
▁پينٽ	-16322
▁پٽيو	-16323
▁پڇيا	-16324
▁کوٽي	-16325
▁ڪريل	-16326
▁ڪمار	-16327
▁ڪِري	-16328
▁آفاقي	-16329
▁آفرين	-16330
▁ارڙهن	-16331
▁اسڪري	-16332
▁الخبر	-16333
▁برتري	-16334
▁تحسين	-16335
▁تحقیق	-16336
▁جهنڊو	-16337
▁خواهم	-16338
▁خواهه	-16339
▁دومين	-16340
▁ذهنيت	-16341
▁زڪوات	-16342
▁سائيڊ	-16343
▁سجايو	-16344
▁سمائي	-16345
▁سنڀار	-16346
▁علماء	-16347
▁عليڪم	-16348
▁فاهمه	-16349
▁مسجدن	-16350
▁مشڪوڪ	-16351
▁معاصر	-16352
▁معالج	-16353
▁ملٽري	-16354
▁منجهن	-16355
▁نعمتن	-16356
▁واڳون	-16357
▁وقتها	-16358
▁وڄائڻ	-16359
▁ٺاهجي	-16360
▁پکيءَ	-16361
▁ٿامسن	-16362
▁کيفيت	-16363
▁ڪنڀار	-16364
▁ڪيميا	-16365
▁گهرون	-16366
▁گيلري	-16367
ability	-16368
▁around	-16369
▁corros	-16370
▁invest	-16371
▁احلامي	-16372
▁اعتقاد	-16373
▁انچارج	-16374
▁ايليين	-16375
▁بادشاه	-16376
▁بدلايو	-16377
▁بربادي	-16378
▁بنگالي	-16379
▁حيراني	-16380
▁سختيءَ	-16381
▁سيمينٽ	-16382
▁مزدوري	-16383
▁مفاهيم	-16384
▁ملائڪن	-16385
▁موافقت	-16386
▁نظريات	-16387
▁پوريءَ	-16388
▁پڄاڻان	-16389
▁ڪوتاهي	-16390
▁گزارشي	-16391
▁آڪسفورڊ	-16392
▁افتتاحي	-16393
▁اينڊريو	-16394
▁اُنھيءَ	-16395
▁تبليغات	-16396
▁خونريزي	-16397
▁دانشورن	-16398
▁ذیابيطس	-16399
▁رانديڪن	-16400
▁پروڊڪشن	-16401
▁ڀٽائيءَ	-16402
▁ڪائونٽي	-16403
▁ڪوهستان	-16404
▁ڳالھائڻ	-16405
▁درجابندي	-16406
▁پوائنٽون	-16407
▁فرمانبردار	-16408
GH	-16409
OR	-16410
PE	-16411
SS	-16412
sh	-16413
uk	-16414
ux	-16415
zy	-16416
رض	-16417
ضت	-16418
قك	-16419
ٽَ	-16420
▁٨	-16421
der	-16422
ism	-16423
راء	-16424
سچو	-16425
ولن	-16426
يين	-16427
َرِ	-16428
ڙيا	-16429
▁3/	-16430
▁By	-16431
▁Pe	-16432
▁Sl	-16433
▁[[	-16434
▁ck	-16435
▁om	-16436
▁عك	-16437
▁فِ	-16438
▁وط	-16439
▁وُ	-16440
▁يہ	-16441
▁ٽِ	-16442
▁څه	-16443
ents	-16444
raft	-16445
اتما	-16446
ريسر	-16447
شرتي	-16448
نايو	-16449
هارڻ	-16450
▁178	-16451
▁Rec	-16452
▁det	-16453
▁han	-16454
▁ins	-16455
▁let	-16456
▁she	-16457
▁اشو	-16458
▁اھڻ	-16459
▁تشي	-16460
▁رُخ	-16461
▁سات	-16462
▁سَڀ	-16463
▁شمو	-16464
▁ضمي	-16465
▁لقي	-16466
▁مزا	-16467
▁مما	-16468
▁ندؤ	-16469
▁هسٽ	-16470
▁هور	-16471
▁واث	-16472
▁ياه	-16473
▁چٽس	-16474
▁ڇپي	-16475
▁ڊاٽ	-16476
▁ڏهر	-16477
▁کاڄ	-16478
▁کاڻ	-16479
▁کنڀ	-16480
▁گفٽ	-16481
▁ھُن	-16482
align	-16483
ative	-16484
پرائز	-16485
پلورر	-16486
پېډيا	-16487
▁1946	-16488
▁آڇون	-16489
▁النس	-16490
▁اوجا	-16491
▁اگلا	-16492
▁باره	-16493
▁بالك	-16494
▁بغيت	-16495
▁بلنگ	-16496
▁بنده	-16497
▁بيرل	-16498
▁بينا	-16499
▁بيگز	-16500
▁بڻجن	-16501
▁تضرب	-16502
▁تلوي	-16503
▁جلوي	-16504
▁خداح	-16505
▁خواھ	-16506
▁دراز	-16507
▁رائو	-16508
▁رندڙ	-16509
▁رييس	-16510
▁زيست	-16511
▁سائل	-16512
▁سواد	-16513
▁شعبا	-16514
▁شهنش	-16515
▁شوية	-16516
▁صنفن	-16517
▁عمرو	-16518
▁قدام	-16519
▁قزاق	-16520
▁قليل	-16521
▁كلهن	-16522
▁لارڊ	-16523
▁لهجو	-16524
▁لکڻي	-16525
▁محرڪ	-16526
▁محسن	-16527
▁مرده	-16528
▁مشكو	-16529
▁مفڪر	-16530
▁مووي	-16531
▁هينڊ	-16532
▁ورنه	-16533
▁وقفو	-16534
▁وٺڻو	-16535
▁يابت	-16536
▁ياعم	-16537
▁يالي	-16538
▁يختي	-16539
▁ٻولھ	-16540
▁پاڇا	-16541
▁پرزا	-16542
▁پورت	-16543
▁پوٽو	-16544
▁پڌرا	-16545
▁ٿيان	-16546
▁چشمو	-16547
▁چيلن	-16548
▁ڇڏيل	-16549
▁ڊزني	-16550
▁ڪارب	-16551
▁ھتان	-16552
▁spins	-16553
▁باڪسر	-16554
▁بلندي	-16555
▁بيچين	-16556
▁تحميل	-16557
▁توفيق	-16558
▁خاطره	-16559
▁خواهد	-16560
▁خيانت	-16561
▁داشتي	-16562
▁رباني	-16563
▁رسالة	-16564
▁رسيده	-16565
▁سلنڈر	-16566
▁سمجھه	-16567
▁سومري	-16568
▁سوڊيم	-16569
▁شاهين	-16570
▁عائشه	-16571
▁عجبتك	-16572
▁عيونك	-16573
▁فرهنگ	-16574
▁فوجون	-16575
▁فولاد	-16576
▁فيديو	-16577
▁فيسبڪ	-16578
▁قوتون	-16579
▁للبيع	-16580
▁مشكلة	-16581
▁منقول	-16582
▁مٿيان	-16583
▁مڇيون	-16584
▁نداشت	-16585
▁نڀائڻ	-16586
▁ويليو	-16587
▁وڇوڙو	-16588
▁پيرين	-16589
▁کننده	-16590
▁ڪنارا	-16591
▁ڪوٺيو	-16592
▁گذران	-16593
▁آفريدي	-16594
▁اسڪواڊ	-16595
▁اصلاحي	-16596
[...]
