<unk>	0
<s>	0
</s>	0
.	-3.57377
▁جي	-3.58626
▁.	-4.13154
▁آهي	-4.1432
▁۾	-4.17104
▁،	-4.25586
▁کي	-4.28676
ن	-4.29287
▁۽	-4.36235
ي	-4.42478
▁جو	-4.5351
▁ته	-4.6561
▁تي	-4.83514
،	-4.90436
▁هڪ	-5.06219
▁سان	-5.14953
▁نه	-5.17101
▁کان	-5.18002
▁"	-5.21712
▁ڪري	-5.26245
▁ان	-5.26251
▁هن	-5.29454
▁به	-5.30625
و	-5.33975
▁آهن	-5.40508
ه	-5.41271
▁	-5.42183
▁هو	-5.43379
▁ڪرڻ	-5.4575
▁ٿي	-5.48492
▁ٿو	-5.51171
▁اسان	-5.51407
:	-5.53242
▁اهو	-5.55105
▁لاءِ	-5.55675
ا	-5.58886
▁و	-5.62319
▁يا	-5.67378
▁توهان	-5.75652
▁ڪيو	-5.76924
▁مان	-5.84434
▁(	-5.87001
▁مون	-5.90752
▁جا	-5.97128
▁ٿا	-5.97984
▁-	-6.01414
▁ئي	-6.0156
▁پر	-6.03025
ءَ	-6.05211
ل	-6.10156
▁پنهنجي	-6.12537
▁لاء	-6.14824
▁ويو	-6.16537
▁انهن	-6.23409
ون	-6.23761
▁طور	-6.25377
▁:	-6.31679
▁ي	-6.36364
▁ن	-6.37371
▁هي	-6.39643
)	-6.41156
ت	-6.41646
▁وقت	-6.46511
▁وڌيڪ	-6.46963
؟	-6.47183
▁ا	-6.48337
▁هر	-6.52898
س	-6.5301
▁ڇا	-6.56093
ر	-6.56973
▁ڪم	-6.58196
م	-6.58386
▁ت	-6.60531
▁اي	-6.60984
▁!	-6.62108
▁جنهن	-6.62454
▁ڪئي	-6.63559
▁استعمال	-6.63771
▁ڪو	-6.64379
ـ	-6.64838
▁آھي	-6.65551
▁اهي	-6.66382
▁هئي	-6.68327
▁تائين	-6.69745
▁م	-6.70635
▁ڪنهن	-6.70656
▁جيڪو	-6.71482
▁بي	-6.72233
▁س	-6.72892
▁ههههههههه	-6.75439
▁واري	-6.75826
▁ڪريو	-6.77689
▁ڪجهه	-6.77801
▁اها	-6.77853
▁ها	-6.80126
ع	-6.80655
▁ما	-6.81009
▁چيو	-6.81495
▁)	-6.81542
▁سڀ	-6.82059
▁بس	-6.82347
▁ههههههههههه	-6.83817
▁ال	-6.83846
▁جڏهن	-6.84035
ين	-6.84739
▁ڏينهن	-6.85037
▁وڃي	-6.85244
▁سي	-6.86818
▁جيڪي	-6.871
▁ه	-6.88666
▁پوءِ	-6.93242
ز	-6.93769
▁حاصل	-6.94003
▁؟	-6.95078
▁منهنجي	-6.96101
▁انهي	-6.96287
▁سندس	-6.97251
ڻ	-6.97872
▁سال	-6.97996
▁پاڻ	-7.00123
▁از	-7.00203
▁جيڪڏهن	-7.00727
▁من	-7.01825
▁,	-7.0205
▁سگهي	-7.02309
ك	-7.0297
▁گڏ	-7.03327
▁تمام	-7.03771
▁ب	-7.05063
▁الله	-7.06479
▁ههههههه	-7.06887
▁ناهي	-7.07939
▁دنيا	-7.1106
!	-7.11198
▁رهيو	-7.14142
▁ٿيو	-7.1533
▁هههههههههه	-7.15597
▁ههههههههههههههه	-7.16254
▁وئي	-7.16646
▁آ	-7.16951
▁تون	-7.17366
▁پي	-7.17503
▁وڏي	-7.19329
▁ماڻهو	-7.19553
ة	-7.20892
▁لا	-7.22561
▁در	-7.23637
▁وٽ	-7.24462
▁ويندو	-7.24726
▁ضرورت	-7.24785
▁هههههههه	-7.25296
▁پڻ	-7.25585
▁صرف	-7.25767
ڪ	-7.26272
▁مي	-7.27144
ان	-7.27642
▁في	-7.277
▁ڪن	-7.28282
▁اچي	-7.28546
▁ڪڏهن	-7.29691
▁ٿيڻ	-7.2973
▁جن	-7.30192
▁ويا	-7.3102
ئي	-7.31797
▁اڳ	-7.32081
▁زندگي	-7.32348
▁تو	-7.33066
▁اين	-7.33611
نگ	-7.33633
▁ڪيئن	-7.33911
▁'	-7.3406
▁رهي	-7.34144
▁ڪندو	-7.35058
▁جون	-7.35244
▁شروع	-7.36021
▁ڪا	-7.36648
▁بابت	-7.36744
▁جيئن	-7.36892
▁سڀني	-7.36896
▁ماڻهن	-7.37256
▁طرح	-7.38488
ــ	-7.3913
▁ٻئي	-7.39954
▁ڇو	-7.40126
▁ههههههههههههه	-7.4039
▁شامل	-7.4094
▁هههههههههههه	-7.42522
▁مختلف	-7.43016
s	-7.44152
▁ڪندا	-7.44249
▁پيش	-7.44508
▁هئا	-7.4455
▁گهر	-7.44945
▁وارو	-7.45043
▁عام	-7.45193
▁ل	-7.45432
▁ههههه	-7.47319
▁يعني	-7.47883
ب	-7.4817
د	-7.48465
▁ڳالهه	-7.48663
▁آهيان	-7.48719
▁ٽي	-7.49487
▁/	-7.4971
▁رهيا	-7.49906
▁عمل	-7.50289
▁نظر	-7.50513
▁ڏانهن	-7.51243
▁ڏيڻ	-7.51373
▁غير	-7.51465
ههههههههه	-7.51902
▁ڊي	-7.53104
▁خاص	-7.53165
▁گهرجي	-7.53501
▁او	-7.53595
▁ون	-7.54751
,	-7.5503
▁هوندو	-7.55766
▁اڄ	-7.56931
▁جيڪا	-7.57279
▁مدد	-7.57327
▁سبب	-7.57513
▁دل	-7.58528
▁ع	-7.58566
▁2	-7.59057
▁_	-7.59073
▁ٻين	-7.59425
▁گهٽ	-7.59481
▁موجود	-7.59626
▁اندر	-7.60073
▁آئون	-7.60074
ٽ	-7.60199
ش	-7.60267
"	-7.60344
▁مڪمل	-7.60663
▁ڪندي	-7.60897
▁1	-7.61702
▁هوندي	-7.61795
▁شي	-7.62324
▁وري	-7.62404
▁ٿيل	-7.62521
▁پنهنجو	-7.62538
▁3	-7.62642
▁نئين	-7.62734
▁ايس	-7.63419
▁ملڪ	-7.63519
▁نالو	-7.63696
▁آهيون	-7.6407
▁خبر	-7.6438
▁آن	-7.66051
▁گهڻو	-7.66361
-	-7.66574
▁اهڙي	-7.67082
▁قسم	-7.67098
▁کيس	-7.67919
ها	-7.67947
▁سو	-7.67966
▁پهرين	-7.68007
▁انا	-7.68016
▁ايم	-7.68434
▁ڪ	-7.6887
▁ختم	-7.69192
▁هتي	-7.69552
ات	-7.69633
▁بعد	-7.69684
▁هاڻي	-7.70275
▁ڪتاب	-7.71019
▁ِ	-7.71264
▁وچ	-7.71421
▁سگهو	-7.7149
▁آھن	-7.71861
▁هههههههههههههه	-7.72628
▁تنهن	-7.72674
ـــ	-7.73096
▁ٿيندو	-7.73192
▁اهم	-7.73742
▁شايد	-7.73812
▁ڇڏيو	-7.73854
▁هههههه	-7.73992
▁جواب	-7.74144
َ	-7.74622
▁ٿئي	-7.75501
▁پيدا	-7.75541
▁ڪي	-7.75911
▁ڏئي	-7.76115
هههههههه	-7.76408
▁5	-7.76678
▁هٿ	-7.76719
▁وي	-7.76763
▁سالن	-7.77149
▁وڏو	-7.77374
▁انسان	-7.77443
▁پيو	-7.78138
▁لي	-7.78218
▁آئي	-7.78403
▁s	-7.78959
▁ج	-7.79315
▁ڪندڙ	-7.79664
▁تاريخ	-7.80436
▁ياد	-7.80513
▁ڏنو	-7.81222
▁دوست	-7.81605
▁ز	-7.81828
▁آيو	-7.82178
▁بهترين	-7.8221
▁شهر	-7.82965
▁فون	-7.83341
▁مطلب	-7.83658
▁هجي	-7.84038
▁ٻه	-7.8407
▁وٺي	-7.84109
▁ائين	-7.8433
▁بند	-7.84942
▁منهنجو	-7.85223
▁اتي	-7.85628
▁پئي	-7.86554
ري	-7.86712
▁عليه	-7.86749
▁هم	-7.86795
ج	-7.86984
▁ويب	-7.87178
▁رات	-7.87652
▁ٻيو	-7.87695
▁اوهان	-7.87729
▁سنڌ	-7.8789
▁ڇڏي	-7.88006
▁پوء	-7.88149
▁وانگر	-7.88426
▁ـ	-7.88479
▁ڪيا	-7.8918
▁ذريعي	-7.89805
▁؛	-7.89921
▁ڪيل	-7.90168
▁ڪوشش	-7.91697
وھان	-7.92047
▁ڪر	-7.92496
▁صحيح	-7.9285
▁بر	-7.93128
▁4	-7.93577
ى	-7.93617
▁ڏسي	-7.94084
▁10	-7.944
▁حل	-7.9499
▁ك	-7.95024
▁خيال	-7.95241
▁سر	-7.95506
▁ڪيترا	-7.95849
▁اڃا	-7.96529
▁قيمت	-7.96641
▁ٻاهر	-7.96765
ِ	-7.97032
▁ادا	-7.97549
▁اوھان	-7.97846
▁جاري	-7.97921
▁سوال	-7.98306
▁والله	-7.98799
▁يو	-7.99034
▁پ	-7.99105
▁ملي	-7.99351
▁دوران	-7.9957
▁با	-7.99591
▁اصل	-7.99923
▁ويندي	-8.0026
▁سائيٽ	-8.00308
▁حق	-8.00333
▁ترقي	-8.00338
ائي	-8.00527
▁خدا	-8.00939
▁حڪومت	-8.01028
▁طرف	-8.01077
▁ڪمپني	-8.01266
▁ڏي	-8.02036
▁ڪيترن	-8.02086
▁ظاهر	-8.02255
▁ٻي	-8.02455
▁ضروري	-8.02525
▁ر	-8.02742
▁نا	-8.02929
▁سفر	-8.03038
▁دور	-8.03482
▁حصو	-8.03845
▁مواد	-8.03849
▁مو	-8.0389
▁بهتر	-8.04159
▁جتي	-8.04243
▁ش	-8.04785
▁صاحب	-8.04816
▁پاڪستان	-8.04867
ف	-8.0492
▁اسين	-8.05089
▁حقيقت	-8.05716
▁را	-8.06361
▁سندن	-8.0638
▁پاڻي	-8.06879
▁مٿي	-8.07024
▁آسان	-8.07047
▁رکي	-8.07112
▁لڳي	-8.07525
▁عمر	-8.07563
▁بيان	-8.08191
▁ف	-8.08376
▁پهريون	-8.08766
▁محسوس	-8.08981
▁هيٺ	-8.09353
▁ڪجھ	-8.09443
▁آهيو	-8.09605
▁رو	-8.09862
ُ	-8.10115
▁ڏسڻ	-8.1026
▁ءَ	-8.10335
▁ھن	-8.10618
▁ولا	-8.11092
▁هوندا	-8.11117
▁آمريڪا	-8.11434
▁معيار	-8.11856
▁اھو	-8.1242
▁خلاف	-8.12513
▁على	-8.12528
▁رد	-8.12589
هه	-8.13337
▁است	-8.13451
يءَ	-8.13645
▁پيار	-8.13711
▁ٻن	-8.146
▁وارا	-8.14814
▁اثر	-8.15293
▁طرفان	-8.15374
▁لو	-8.15431
▁رڳو	-8.15719
▁ڪاروبار	-8.1598
▁صورت	-8.16023
▁رکڻ	-8.1605
▁رنگ	-8.16473
▁مثال	-8.165
▁*	-8.16501
▁ٻار	-8.16832
▁سگهجي	-8.17086
▁هنن	-8.17834
▁پسند	-8.17957
▁ين	-8.17964
▁تبديل	-8.18069
▁تنهنجي	-8.18334
▁ٿيون	-8.18369
▁خوش	-8.1856
▁لائن	-8.19356
▁تيار	-8.19406
▁واپس	-8.19578
▁آخر	-8.1959
▁پيداوار	-8.19682
▁تان	-8.19775
▁علي	-8.1978
▁مشهور	-8.20502
▁قانون	-8.20526
▁بين	-8.2056
▁چين	-8.20623
▁د	-8.20916
▁ڊيٽا	-8.21524
▁ڏني	-8.21609
▁ھو	-8.22732
▁ڇاڪاڻ	-8.22848
▁ايران	-8.23302
▁نظام	-8.23373
▁وڃڻ	-8.23433
يل	-8.23532
ی	-8.23549
▁هوءَ	-8.23554
▁عورت	-8.2388
▁ڏيو	-8.24285
▁چوڻ	-8.24388
▁قابل	-8.24414
ار	-8.25268
▁داخل	-8.25392
▁شو	-8.26228
ک	-8.26668
▁هميشه	-8.26868
▁ٻنهي	-8.26921
▁6	-8.27475
▁جنگ	-8.27823
▁حد	-8.28169
ندڙ	-8.28237
ور	-8.28417
▁اجازت	-8.28547
▁آيا	-8.28721
آ	-8.28747
ڊ	-8.2875
▁آر	-8.28764
▁ام	-8.29323
▁هذا	-8.29585
ھ	-8.29853
▁اول	-8.3006
▁زمين	-8.30072
▁ٿيندي	-8.30425
▁مونکي	-8.30813
▁ڏٺو	-8.31173
▁سٺو	-8.31362
ہ	-8.31392
▁باري	-8.3151
▁بنيادي	-8.31822
▁نٿو	-8.3212
▁چي	-8.32406
▁ڪونه	-8.3264
▁20	-8.33036
▁8	-8.33317
▁جيتوڻيڪ	-8.33328
▁شروعات	-8.33375
▁محفوظ	-8.33663
▁توکي	-8.34239
▁قائم	-8.35084
▁نئون	-8.35525
▁واقعي	-8.36534
▁دي	-8.36636
▁َ	-8.36682
▁شين	-8.37051
▁اميد	-8.37051
▁معلومات	-8.37051
▁ڪار	-8.37075
▁سا	-8.37221
▁اس	-8.37295
▁ڪير	-8.37364
▁هههه	-8.3756
▁لفظ	-8.38244
▁تن	-8.38393
▁ھي	-8.38547
▁کڻي	-8.38579
▁S	-8.38585
▁سخت	-8.38678
▁7	-8.38831
▁اپ	-8.39077
▁سگھي	-8.3913
پ	-8.39137
▁A	-8.39288
▁شيء	-8.39326
▁موضوع	-8.39342
ط	-8.39357
▁گھر	-8.3947
▁هيو	-8.39619
▁محبت	-8.39745
▁ري	-8.39925
▁آواز	-8.40018
▁خريد	-8.4005
▁بار	-8.4024
▁هجڻ	-8.40257
▁يه	-8.40327
▁وارن	-8.40535
▁[	-8.40585
▁مقصد	-8.40652
▁اسڪول	-8.40983
▁تعليم	-8.41049
▁ھڪ	-8.41128
▁پنھنجي	-8.41506
▁بنياد	-8.41513
▁آزاد	-8.41538
▁مطابق	-8.41913
▁فراهم	-8.42049
▁آخري	-8.42137
ق	-8.42468
▁اڪثر	-8.42638
▁نالي	-8.42686
▁وا	-8.43167
▁چه	-8.43395
▁اسلامي	-8.43479
▁ور	-8.43484
▁کانپوءِ	-8.43876
▁که	-8.44338
▁ات	-8.44871
▁منهن	-8.45043
▁چڪو	-8.45139
▁مناسب	-8.45193
▁سيڪڙو	-8.45354
▁مفت	-8.46169
▁ابو	-8.46215
▁مارڪيٽ	-8.46629
نا	-8.47008
▁ويندا	-8.47142
▁ٻارن	-8.47164
ح	-8.47232
▁بال	-8.47248
▁ٻيهر	-8.47291
▁ايل	-8.47312
▁<	-8.47314
▁هاي	-8.47314
▁ٻڌايو	-8.47515
e	-8.47973
ء	-8.4799
▁فقط	-8.48069
▁سائين	-8.48175
▁سڄي	-8.48349
▁كل	-8.48352
▁ة	-8.48496
▁ڪيس	-8.48498
▁تا	-8.48519
▁جسم	-8.48869
▁اختيار	-8.49128
▁اچڻ	-8.49176
▁ڪهڙي	-8.49491
لي	-8.49811
كم	-8.50029
▁انداز	-8.50035
▁باقي	-8.50059
▁شادي	-8.50355
▁ميل	-8.50379
ــــ	-8.50487
▁غلط	-8.50616
▁P	-8.50682
▁فيصلو	-8.50878
'	-8.50971
▁سياسي	-8.51099
▁سگهن	-8.51167
▁قدم	-8.51517
▁پٽ	-8.51526
▁پاران	-8.51538
▁طريقي	-8.51771
▁پير	-8.51844
▁ڪافي	-8.51927
▁ص	-8.52034
▁درخواست	-8.52931
▁ـــ	-8.53243
▁تحقيق	-8.53372
▁ــ	-8.53417
▁ورتو	-8.53734
▁اڳتي	-8.53758
▁15	-8.53821
▁ڄڻ	-8.53947
▁چار	-8.53993
▁اڻ	-8.54084
▁سطح	-8.54095
▁آف	-8.54269
="	-8.54811
▁ق	-8.54895
▁پروگرام	-8.54934
▁خود	-8.54992
▁پيا	-8.55438
D	-8.55512
▁عالمي	-8.55604
▁فارم	-8.55925
▁مش	-8.5612
▁چ	-8.56271
▁نقصان	-8.56378
▁ايندڙ	-8.56555
▁ميڊيا	-8.56571
جي	-8.56785
▁شيون	-8.56796
▁شخص	-8.56862
▁ڏسو	-8.56871
وا	-8.57134
▁ممڪن	-8.5719
▁آمريڪي	-8.58018
▁نن	-8.58377
▁ضرور	-8.58463
▁سچ	-8.5859
▁بل	-8.58707
▁ڪٿي	-8.59202
▁چاهيو	-8.59453
▁خراب	-8.59578
▁السلام	-8.59792
ائڻ	-8.59802
▁ترتيب	-8.59975
يت	-8.59998
▁ذاتي	-8.60002
▁گهڻي	-8.60114
▁ملڪن	-8.60136
▁مهرباني	-8.60196
▁بلڪ	-8.60556
▁واحد	-8.60656
▁پنج	-8.60942
▁ني	-8.60968
▁پري	-8.61752
▁علم	-8.62004
▁راند	-8.62137
▁ٿيا	-8.62275
▁ٽيڪنالاجي	-8.62278
▁صدر	-8.6231
▁دير	-8.62492
▁اعلان	-8.62667
▁مضمون	-8.62993
▁مرد	-8.63087
▁آءٌ	-8.63159
▁>	-8.63181
▁يقين	-8.63289
▁انھن	-8.63654
▁نمبر	-8.63798
▁پارٽي	-8.63931
ول	-8.64025
▁خ	-8.64039
ال	-8.64109
چ	-8.64149
▁مسئلو	-8.64395
▁حالت	-8.64436
▁پس	-8.64536
خ	-8.64563
▁30	-8.64652
▁سسٽم	-8.64701
▁تڏهن	-8.64767
▁جدا	-8.64818
▁بڻجي	-8.65003
▁طاقت	-8.65079
▁حقيقي	-8.65176
▁موت	-8.65213
▁كم	-8.65576
▁ٻولي	-8.65678
▁اسلام	-8.65915
▁تصوير	-8.66109
▁مع	-8.66417
▁سٺي	-8.6648
▁ح	-8.66763
▁چئي	-8.66772
▁خط	-8.67077
▁تر	-8.67232
▁أ	-8.67527
▁گوگل	-8.67598
▁جان	-8.67622
▁ڊاڪٽر	-8.67671
▁خدمت	-8.67737
▁حڪم	-8.67834
▁ڏنل	-8.68154
▁آه	-8.68213
▁ٽن	-8.68803
▁مال	-8.68943
▁سن	-8.69028
2	-8.69104
ص	-8.69236
▁مس	-8.69493
▁جديد	-8.69506
▁ماءُ	-8.69534
گ	-8.69679
▁ڪجي	-8.69713
▁له	-8.69746
▁پوري	-8.69816
▁طريقو	-8.69882
؟"	-8.69891
▁وار	-8.69896
▁ڪردار	-8.69999
▁عورتن	-8.70076
▁اعلي	-8.70221
▁تعلق	-8.70248
▁سامان	-8.70261
▁وڃن	-8.70555
▁اڪائونٽ	-8.70571
▁9	-8.70574
▁انساني	-8.70617
▁لڳو	-8.70905
▁ٺاهڻ	-8.71351
▁ايه	-8.71445
▁خوبصورت	-8.7154
▁وڌي	-8.71571
▁سماجي	-8.71724
ندو	-8.71727
▁پوليس	-8.71796
▁روز	-8.71829
▁12	-8.7196
▁مقرر	-8.72058
▁لوڊ	-8.72301
▁اصلي	-8.72468
▁واضح	-8.7249
▁ڪيتري	-8.72597
▁وٺڻ	-8.72952
▁قوم	-8.72997
▁حضرت	-8.73029
▁پورو	-8.73041
▁ڊ	-8.73076
يا	-8.73172
▁ڄاڻ	-8.73535
▁ڳوٺ	-8.73624
▁گذريل	-8.7364
▁احساس	-8.73682
▁لکڻ	-8.7374
يه	-8.73981
▁لك	-8.74039
t	-8.74188
▁انت	-8.74348
▁علاج	-8.74372
▁رهڻ	-8.74487
▁18	-8.74535
يو	-8.74752
er	-8.74757
▁M	-8.75428
▁قومي	-8.75496
▁صاف	-8.75784
▁صارف	-8.75799
▁صحت	-8.75896
▁پوندو	-8.76074
▁رپورٽ	-8.76108
▁نوجوان	-8.76109
▁دو	-8.76316
▁روح	-8.76398
اڻي	-8.76789
a	-8.76801
يون	-8.77066
نٿا	-8.77086
▁فلم	-8.77139
▁start	-8.77183
▁ڀيرو	-8.77229
▁اکين	-8.77251
3	-8.77441
▁پاسي	-8.77489
هم	-8.7754
ندي	-8.77647
▁ڪوبه	-8.77817
▁حوالي	-8.77901
▁عوام	-8.77908
ڙ	-8.77952
▁جلد	-8.78013
▁موجب	-8.78019
▁گراهڪن	-8.78031
▁dur	-8.78097
▁خان	-8.78189
▁ٻيا	-8.78298
▁الم	-8.78382
▁پل	-8.78462
▁اُن	-8.78469
▁رقم	-8.78945
▁موجوده	-8.79157
يم	-8.79169
▁تيز	-8.79477
▁صبح	-8.79617
i	-8.79851
▁عظيم	-8.79866
▁پڙهڻ	-8.7993
▁مضبوط	-8.8
▁بن	-8.80023
▁ايپليڪيشن	-8.8003
▁رياست	-8.80109
▁قبول	-8.80196
▁انتظار	-8.80236
▁پڪ	-8.80278
▁هيون	-8.8031
▁گڏيل	-8.80402
▁ھڪڙو	-8.80569
▁ڏيندو	-8.80583
▁•	-8.80719
▁متاثر	-8.80775
▁B	-8.81023
رو	-8.81128
▁تعداد	-8.8125
▁محمد	-8.81329
▁وش	-8.81373
▁C	-8.81477
▁هاڻ	-8.8156
▁شرح	-8.81589
▁عملي	-8.81631
ڙي	-8.81741
▁ک	-8.82099
▁ايف	-8.82131
1	-8.82146
▁حال	-8.82229
▁نموني	-8.82268
▁تبديلي	-8.82284
▁ٽيم	-8.82333
▁ذهن	-8.82392
▁اهڙو	-8.8243
▁لازمي	-8.82605
o	-8.82771
▁منٽ	-8.82822
ئين	-8.83296
▁نتيج	-8.8341
▁الي	-8.83623
y	-8.83699
دي	-8.83743
▁100	-8.83843
▁مهيا	-8.84035
▁سواءِ	-8.84066
▁خواب	-8.8436
▁وين	-8.84427
▁چونڊ	-8.84487
▁يورپ	-8.84505
▁رکيو	-8.84548
4	-8.8475
ام	-8.84752
▁ڌيان	-8.84838
▁يونيورسٽي	-8.8485
▁تعمير	-8.84939
▁هلي	-8.85096
؛	-8.85154
]	-8.85179
▁ُ	-8.85216
▁فرق	-8.85227
▁تہ	-8.85466
▁تقريب	-8.86498
▁خرچ	-8.86596
▁سمجهي	-8.86622
p	-8.86646
▁ههه	-8.86669
▁ذڪر	-8.86793
▁ڪهڙو	-8.86884
▁پنهنجن	-8.86896
▁وڊيو	-8.86943
▁وزير	-8.86972
▁ايڪس	-8.86996
▁پهچي	-8.87285
▁هنڌ	-8.8738
▁آزادي	-8.8745
▁قدر	-8.87638
▁مٿان	-8.87959
▁مشين	-8.88144
▁وڌ	-8.88167
▁ولي	-8.88297
▁ڪنٽرول	-8.88357
▁ڪريان	-8.88449
▁ڪل	-8.88748
ing	-8.88862
▁ڪيون	-8.88996
▁ٺاهي	-8.89405
▁صنعت	-8.89434
▁اوزار	-8.89559
▁نسل	-8.89584
▁جمع	-8.89995
▁روشني	-8.90051
▁هزار	-8.90306
▁حفاظت	-8.90333
▁رسائي	-8.90364
▁هيءَ	-8.90646
▁مليو	-8.90845
غ	-8.90858
▁G	-8.91181
شن	-8.91217
▁علاوه	-8.91273
▁سنڌي	-8.91631
٪	-8.91691
▁جنھن	-8.9172
▁تصديق	-8.9197
▁سج	-8.92069
▁هه	-8.92093
ند	-8.92109
▁زور	-8.92113
▁وڪرو	-8.92142
▁شيءِ	-8.92225
▁علائقي	-8.92578
اء	-8.92624
▁ڪارڪردگي	-8.92929
▁سين	-8.92939
▁جلدي	-8.92949
▁سگهون	-8.9296
▁مسافر	-8.93028
▁ڪلڪ	-8.93098
▁ڪراچي	-8.9337
اري	-8.93567
▁رفتار	-8.93651
▁جيڪڏھن	-8.93723
▁سيٽ	-8.93801
▁سرڪاري	-8.93857
▁وضاحت	-8.93877
اڻ	-8.93901
▁اھي	-8.93981
▁هفتي	-8.94036
▁ڪهاڻي	-8.94354
n	-8.94423
▁وجود	-8.94525
▁ــــ	-8.94573
▁مين	-8.94651
▁ی	-8.94772
▁حيثيت	-8.94801
▁T	-8.94868
▁پهريان	-8.94892
▁جهاز	-8.94897
▁تنهنڪري	-8.94989
▁11	-8.95075
▁مسلمان	-8.95095
▁ٺهيل	-8.95193
▁ڪارڊ	-8.95204
▁ڊالر	-8.9525
▁يءَ	-8.95406
▁سائنس	-8.95413
را	-8.95646
▁سروس	-8.95723
▁مري	-8.95817
▁؟"	-8.95833
▁گل	-8.95948
▁رستو	-8.95966
▁a	-8.96006
▁شاعر	-8.96084
▁تجربو	-8.96351
▁پوسٽ	-8.96505
▁قتل	-8.96601
▁بڻائي	-8.96684
▁زال	-8.97037
ايو	-8.97164
▁مالي	-8.97395
▁بت	-8.9741
▁]	-8.97548
▁پڙهي	-8.97675
▁1.	-8.97736
▁ھڪڙ	-8.9783
▁چند	-8.97986
▁تنظيم	-8.98146
اب	-8.98353
▁خير	-8.98415
▁آباد	-8.98558
▁چون	-8.98565
▁پاڪ	-8.986
▁ڪمپيوٽر	-8.98727
▁ڊائون	-8.98774
ض	-8.9879
▁ٻڌي	-8.98802
▁ايندو	-8.98869
سي	-8.98915
▁حسين	-8.98927
▁درد	-8.98944
▁25	-8.99098
▁جاءِ	-8.99186
▁آءِ	-8.99246
▁آرام	-8.99333
▁رب	-8.99497
▁انٽرنيٽ	-8.99844
▁پيغام	-8.99938
">	-8.99972
▁ڏاڍو	-8.99986
▁لاڳو	-9.00033
▁صدي	-9.00071
5	-9.00071
▁لک	-9.00084
▁50	-9.00284
▁مستقبل	-9.00411
▁آفيس	-9.00531
▁بينڪ	-9.00573
▁هڪڙي	-9.00706
▁بحث	-9.00707
▁ريت	-9.00769
▁پيام	-9.00836
▁ماحول	-9.01073
▁گ	-9.0114
بو	-9.01252
▁14	-9.01448
▁ايئر	-9.01493
d	-9.01564
▁ڳولي	-9.01588
▁ڪئين	-9.0161
▁زين	-9.01686
▁پڇيو	-9.01809
▁۔۔۔	-9.01935
▁ٿيندا	-9.01963
▁وزن	-9.0198
▁امام	-9.02012
▁وس	-9.0206
تك	-9.0208
▁گرم	-9.02244
▁ڳالهيون	-9.02326
▁پار	-9.02359
▁سون	-9.02417
▁ڪونهي	-9.02749
▁لکيو	-9.02893
▁؟؟	-9.032
▁ترين	-9.03292
▁ويئي	-9.03653
▁$	-9.03907
▁ٽ	-9.04216
▁ادب	-9.04279
ٿ	-9.04351
▁ڊگهي	-9.04449
ئن	-9.04509
▁پليٽ	-9.04617
▁جانور	-9.04618
▁تصور	-9.04621
▁اسڪرين	-9.04639
▁گرمي	-9.04727
▁ساڻ	-9.04733
▁معلوم	-9.04912
▁انگريزي	-9.04921
▁ڪاميابي	-9.05044
▁F	-9.0521
تا	-9.05537
▁شكرا	-9.05724
▁دفعو	-9.05793
▁رت	-9.05871
▁اڳيان	-9.06038
▁تنهنجو	-9.06104
▁ار	-9.06156
▁برابر	-9.06284
▁انتي	-9.06442
▁رهندو	-9.0648
ندا	-9.06495
▁موبائل	-9.06565
▁شڪل	-9.06572
▁ساڳي	-9.06597
▁يار	-9.06599
▁ٿيندڙ	-9.06771
اد	-9.0679
▁اگر	-9.06837
▁ثابت	-9.06868
▁يقيني	-9.06894
▁لکي	-9.06913
▁to	-9.06981
▁نشان	-9.07036
▁زي	-9.07043
▁ٿورو	-9.07204
▁ماڊل	-9.07415
▁شاعري	-9.07521
▁نور	-9.07551
▁ايترو	-9.07579
▁سگهيو	-9.07651
▁ڪرڻو	-9.07848
▁دعا	-9.07973
▁=	-9.08055
u	-9.08064
▁اللي	-9.08135
دار	-9.08496
بي	-9.08535
7	-9.08549
▁ده	-9.08594
ڪس	-9.08647
▁بهرحال	-9.0872
▁گروپ	-9.08789
▁عدالت	-9.08825
▁16	-9.08841
▁سوچ	-9.08866
▁ندي	-9.08922
▁پيءُ	-9.08969
▁صح	-9.09034
▁خاندان	-9.09039
سٽ	-9.0928
▁پوي	-9.0931
▁صلاح	-9.09406
▁غريب	-9.09425
▁الاقوامي	-9.09427
▁سگهان	-9.09432
▁شام	-9.09525
▁موسم	-9.09593
▁0	-9.09647
▁حتى	-9.09744
▁گھٽ	-9.09805
▁صورتحال	-9.0995
▁ڪاري	-9.0996
▁جيستائين	-9.10182
▁H	-9.10243
▁امير	-9.10312
ئ	-9.10332
▁ميدان	-9.10376
▁19	-9.10481
ٺ	-9.10519
▁بخش	-9.10751
▁اهڙا	-9.11104
▁منهنجا	-9.11161
▁زبان	-9.11178
▁لل	-9.11249
▁نيٽ	-9.11282
▁قانوني	-9.11358
▁نمي	-9.11418
▁چونڊيو	-9.11449
▁مقابلي	-9.11449
▁تفصيل	-9.11554
▁ڪامياب	-9.11581
▁هيچ	-9.11651
▁چڪا	-9.11656
▁قبل	-9.1177
▁ڪوڊ	-9.118
▁ايپ	-9.11854
m	-9.11872
يد	-9.11883
▁خوشي	-9.11938
ed	-9.12038
▁نوٽ	-9.12125
▁24	-9.12237
▁واٽ	-9.12338
▁وڃ	-9.12389
▁شاء	-9.12467
▁نگ	-9.12531
▁عرصي	-9.12723
▁بورڊ	-9.12752
b	-9.12752
▁ٻڌائي	-9.12765
▁ڪندڙن	-9.12923
▁ڪريون	-9.13002
c	-9.13029
▁هڪڙو	-9.13078
▁چاهي	-9.13095
▁حصي	-9.13332
▁کن	-9.13451
▁13	-9.13528
▁ڏس	-9.1353
▁مُ	-9.1375
▁عرب	-9.13826
▁شڪار	-9.13873
▁سمنڊ	-9.13886
ے	-9.14166
▁فيصل	-9.14299
▁نيوز	-9.14323
▁پو	-9.14495
▁حالتن	-9.14604
▁سوشل	-9.1464
▁ايپل	-9.14882
▁مل	-9.1494
▁ڳولا	-9.1501
▁اضافي	-9.15038
▁نڪري	-9.15048
▁سوچيو	-9.15098
▁پن	-9.15098
▁مالڪ	-9.15213
▁ملڻ	-9.15298
لا	-9.15302
▁#	-9.1532
مان	-9.15392
▁کولڻ	-9.15428
▁دين	-9.15522
ث	-9.15534
▁مارڪيٽنگ	-9.15652
>	-9.15865
▁مخصوص	-9.15907
▁ملاقات	-9.1596
6	-9.15984
▁شاگردن	-9.16277
▁استاد	-9.16296
مون	-9.16398
گي	-9.16557
▁جهڙوڪ	-9.16641
▁صلاحيت	-9.16667
▁اني	-9.16681
▁جڳهه	-9.16749
▁مختصر	-9.16751
▁ڏين	-9.16755
▁نٿي	-9.16993
▁زماني	-9.17042
▁باوجود	-9.17073
al	-9.17193
▁لائين	-9.17197
▁فهرست	-9.17297
▁چوي	-9.17467
ٽي	-9.17467
▁منتقل	-9.17522
ڪو	-9.17642
▁ڪلاڪ	-9.17712
▁لفظن	-9.17836
▁ڏا	-9.17845
▁پنهنجا	-9.17981
▁اڌ	-9.17994
▁ى	-9.18041
▁هوس	-9.18078
▁ويجهو	-9.18123
▁وڻ	-9.18234
▁2020	-9.18319
▁نوڪري	-9.18442
g	-9.18545
▁بو	-9.1874
▁ڌار	-9.18898
▁فائدو	-9.19109
▁ڪنداسين	-9.19157
▁امڪان	-9.19223
▁دماغ	-9.19566
▁لاڳاپيل	-9.19571
▁بنا	-9.19625
▁وڌائڻ	-9.19707
▁حساب	-9.19802
in	-9.19831
▁گم	-9.20016
▁علائقن	-9.20026
▁ڌرتي	-9.20031
▁ست	-9.20074
▁ننڍي	-9.20075
▁ويئر	-9.20164
▁).	-9.20246
▁غلطي	-9.2028
r	-9.20285
▁گذري	-9.20378
▁منظر	-9.20379
▁مت	-9.20494
▁D	-9.20574
▁چاهيندا	-9.2062
▁2019	-9.20839
▁شاندار	-9.20842
▁سگھن	-9.20844
▁بابا	-9.20873
▁رکو	-9.20928
▁راندين	-9.21056
▁دوا	-9.21086
S	-9.21134
▁حياتي	-9.21354
▁<<	-9.21429
▁ملين	-9.21514
▁ڏيکاري	-9.21647
▁ڪين	-9.21652
▁جڏھن	-9.21653
▁آپريشن	-9.21654
▁وال	-9.22326
▁انتهائي	-9.22493
▁سلام	-9.22607
▁اعتماد	-9.22713
▁مهينن	-9.22834
▁+	-9.22903
▁غور	-9.22971
▁پريشان	-9.22996
▁کانسواءِ	-9.23074
▁رستي	-9.2308
▁ing	-9.23255
▁ورڪ	-9.2333
▁E	-9.23352
▁اصول	-9.23387
▁يوم	-9.23413
▁ننڊ	-9.23488
▁سمجه	-9.2352
▁نيو	-9.23593
▁اکيون	-9.23681
▁وڏا	-9.23724
▁جئين	-9.23982
▁وغيره	-9.24048
▁چيزي	-9.24198
▁سامهون	-9.24265
▁توانائي	-9.24271
▁لکيل	-9.24328
▁ساٿي	-9.24336
▁شڪ	-9.24337
▁واپار	-9.24395
A	-9.24479
▁هئڻ	-9.24536
▁سڀئي	-9.24657
▁گر	-9.24735
▁وڃو	-9.24761
▁ڏاڍي	-9.24839
▁ليکڪ	-9.24901
▁مگر	-9.24967
▁اسپتال	-9.24989
▁بود	-9.25074
▁اهميت	-9.25082
▁منھنج	-9.25121
▁مڙس	-9.25273
▁لڳا	-9.25283
8	-9.25581
▁الا	-9.25634
▁17	-9.25686
▁برقرار	-9.25719
▁مقامي	-9.25841
▁ايتري	-9.25966
▁دا	-9.26121
▁ڪيائين	-9.26177
▁ڏک	-9.26254
▁بيماري	-9.2648
ست	-9.26629
▁زمان	-9.26721
▁حيرت	-9.26826
▁موقعو	-9.26879
▁K	-9.26914
▁دلچسپ	-9.26941
▁مسلسل	-9.2707
▁اعليٰ	-9.27075
▁اچو	-9.27174
।	-9.27194
▁ٺاهيو	-9.27261
▁قديم	-9.27319
▁اخبار	-9.27364
▁اسٽور	-9.27402
▁دلچسپي	-9.27447
▁آڻڻ	-9.27457
▁ٺيڪ	-9.27479
ير	-9.27507
ٽر	-9.27618
▁بلاگ	-9.27882
▁صارفين	-9.27895
▁عنصر	-9.2794
▁آرٽيڪل	-9.27943
▁ليه	-9.27975
▁2018	-9.28066
▁محدود	-9.28066
▁چو	-9.28101
▁سميت	-9.28107
C	-9.2823
▁انتظام	-9.28342
▁خوف	-9.28348
▁I	-9.2859
▁عن	-9.28672
▁پوئتي	-9.28692
text	-9.28695
▁ايڇ	-9.28722
P	-9.28798
▁بڻائڻ	-9.28945
ـــــ	-9.28967
▁ايندي	-9.29049
▁فن	-9.29163
▁ڳالهائڻ	-9.29204
▁بجلي	-9.29346
▁عشق	-9.29348
/	-9.29432
▁يک	-9.29758
▁هُن	-9.29783
▁آل	-9.29785
▁ساڳيو	-9.29797
بل	-9.29941
▁سمجهيو	-9.29952
▁40	-9.29958
▁لحاظ	-9.29976
▁پاس	-9.30067
▁امتحان	-9.30107
▁چيائين	-9.30226
▁21	-9.3024
▁عجيب	-9.30345
▁اه	-9.30403
▁بغير	-9.3042
▁شايع	-9.30467
▁سيل	-9.30526
▁ڪرائي	-9.30848
▁ڏينھن	-9.30856
▁هيءُ	-9.30882
▁چاهيان	-9.31068
▁اجلاس	-9.31111
▁p	-9.31162
▁ميمبر	-9.31177
▁فوج	-9.31318
▁گهڻا	-9.31347
▁انگ	-9.31356
اني	-9.31431
شڪ	-9.31493
▁مسئلن	-9.31581
▁>>	-9.31635
▁جهڙو	-9.31635
▁وائرس	-9.3166
▁ڏکڻ	-9.31723
▁امن	-9.31746
▁قرآن	-9.31782
▁22	-9.31938
▁حلو	-9.31938
▁براي	-9.31969
▁انسٽال	-9.32008
▁الڳ	-9.32216
▁ڳولڻ	-9.32281
▁هيا	-9.32285
▁چڪي	-9.32363
▁اڳواڻ	-9.32558
وم	-9.3264
▁جهڙي	-9.32653
▁تحفظ	-9.32667
▁ڪنھن	-9.32896
▁شعر	-9.32942
▁اڃان	-9.33022
▁اُه	-9.33104
▁ويون	-9.33178
▁فرانس	-9.33216
▁بندي	-9.33268
▁راه	-9.3327
▁سنگ	-9.33334
اس	-9.33435
▁نہ	-9.33546
▁مقدار	-9.33589
▁يورپي	-9.3398
▁رڪارڊ	-9.34049
▁سماج	-9.34091
▁روم	-9.34144
▁ـــــ	-9.34163
▁خالي	-9.34183
▁اک	-9.34286
تر	-9.34317
▁سواء	-9.34381
ئر	-9.34424
▁قدرتي	-9.34481
▁هجن	-9.34604
▁ادارن	-9.34688
▁ايمان	-9.34754
0	-9.34788
▁آخرڪار	-9.34804
ذ	-9.3481
▁فعال	-9.34894
▁ڇوڪري	-9.34923
▁ڪندس	-9.34943
▁سافٽ	-9.3505
▁هوٽل	-9.35102
M	-9.35146
▁تحت	-9.3519
▁سياست	-9.35199
بر	-9.35208
▁پراڻي	-9.35224
▁عوامي	-9.3542
▁مهم	-9.35556
▁اظهار	-9.35855
▁رھي	-9.35936
▁بئنڪ	-9.35988
▁e	-9.36141
▁اچن	-9.36226
▁حڪمت	-9.36314
▁رابطو	-9.36357
▁2.	-9.36529
▁تصويرون	-9.36531
▁تك	-9.36543
▁مذهب	-9.36567
▁سڌو	-9.36848
▁سڏيو	-9.36957
▁ھر	-9.37131
▁ماڻھو	-9.37214
ظ	-9.3725
▁ماهر	-9.37388
▁know	-9.37462
▁2017	-9.37491
▁طيب	-9.37574
▁ذات	-9.37591
▁گذاري	-9.37593
▁منظور	-9.37597
▁پا	-9.37634
▁مير	-9.37751
▁مثل	-9.37783
▁جسماني	-9.37788
9	-9.37824
▁ڪڍي	-9.37837
تي	-9.37883
▁آسمان	-9.38099
▁قسمن	-9.38114
▁جنسي	-9.38129
▁مهيني	-9.3818
▁درست	-9.38187
▁ڀلي	-9.38195
▁جمهوري	-9.38211
G	-9.3835
▁باب	-9.38388
▁موڪل	-9.38431
ؤ	-9.38443
▁ميٽر	-9.38453
▁روڊ	-9.3848
▁مذهبي	-9.38562
▁فوجي	-9.38597
▁فڪر	-9.38667
▁الف	-9.38818
▁ــــــــ	-9.3886
▁ساڳئي	-9.39013
▁مرڪز	-9.39047
▁موٽي	-9.39081
▁in	-9.39196
▁گھرجي	-9.39203
▁اتر	-9.39223
▁انقلاب	-9.39302
▁قرض	-9.39329
▁سلسلي	-9.39379
ڪي	-9.39424
▁گڏجي	-9.39498
▁طلب	-9.39515
▁مخالف	-9.39547
▁مره	-9.39605
▁ط	-9.39714
▁سڄ	-9.39754
▁چيڪ	-9.39794
▁مئي	-9.39799
▁ڊجيٽل	-9.3985
▁وزيراعظم	-9.39861
ڙو	-9.39862
ّ	-9.39891
▁ايئن	-9.39908
▁لائسنس	-9.39925
x	-9.39997
▁سم	-9.40005
▁چنڊ	-9.40008
l	-9.4003
▁گيت	-9.40059
▁ڪاب	-9.40067
▁مارچ	-9.40148
▁حصن	-9.40162
▁مسئل	-9.40243
▁Android	-9.40273
▁ڪيترو	-9.40273
▁ڪورٽ	-9.40325
▁پويان	-9.40343
▁چڱي	-9.40429
▁ڏيندي	-9.40434
▁ٿوري	-9.40463
▁مجموعي	-9.40525
▁اَ	-9.40581
▁احتجاج	-9.40697
▁اسٽيشن	-9.40987
▁امان	-9.41039
▁خاصيت	-9.41056
پر	-9.41193
▁ٻڌڻ	-9.41249
▁منظم	-9.41266
▁لباس	-9.41268
▁ويس	-9.41319
▁کائڻ	-9.41444
▁سياحت	-9.41452
▁شما	-9.41465
▁ٽيسٽ	-9.41482
▁وانا	-9.41708
▁حلوه	-9.41909
▁پوندي	-9.41949
▁تحريڪ	-9.41982
▁فيس	-9.42017
▁آس	-9.42024
▁لنڪ	-9.42069
▁دستياب	-9.42082
▁اڪيلو	-9.42125
▁پيٽ	-9.42186
▁وڏ	-9.42186
▁گرفتار	-9.42228
▁آڪٽوبر	-9.42269
▁معياري	-9.42346
▁محنت	-9.42558
▁خيلي	-9.42632
▁ڳنڍي	-9.42726
▁هل	-9.42739
or	-9.42836
▁روس	-9.42862
▁فطرت	-9.42929
اي	-9.42947
▁فوت	-9.42963
▁معمولي	-9.42983
▁جنم	-9.43006
▁اشارو	-9.4307
▁ڻ	-9.43176
▁معنيٰ	-9.43285
▁والدين	-9.43394
لو	-9.43396
▁W	-9.43409
▁واقع	-9.43547
▁عالم	-9.43664
▁اسپين	-9.43675
▁ھئي	-9.43702
▁مطابقت	-9.43732
▁بدران	-9.43738
▁d	-9.43762
ود	-9.43774
▁طريقا	-9.43852
▁ممكن	-9.43879
▁هندستان	-9.43895
▁نماز	-9.43896
▁تعريف	-9.44012
▁معني	-9.44047
▁N	-9.44079
▁پٿر	-9.44181
ما	-9.44202
▁سزا	-9.4423
▁ساري	-9.44407
▁ٽرين	-9.44478
ِي	-9.44554
▁گراهڪ	-9.44561
أ	-9.44735
▁تجزيو	-9.44747
▁وه	-9.44805
▁کليل	-9.44809
مي	-9.449
▁روشن	-9.44958
▁گهربل	-9.44962
▁مشڪل	-9.45005
▁i	-9.45164
▁اذا	-9.45192
هي	-9.45286
▁O	-9.45356
▁بحال	-9.45551
▁ليش	-9.45662
▁سيريز	-9.45666
▁جاچ	-9.45702
▁ٽيون	-9.45791
▁ھ	-9.45813
▁كان	-9.45841
▁c	-9.45865
▁اڳي	-9.45886
▁ڀيٽ	-9.45912
▁ول	-9.45926
▁هيٺيان	-9.46102
▁L	-9.46289
▁ڳالھ	-9.4637
▁اسيمبلي	-9.46384
▁فقير	-9.46385
رن	-9.46429
▁هت	-9.4649
▁ايندا	-9.4653
▁سيپٽمبر	-9.46684
▁فيه	-9.4681
▁گو	-9.46815
en	-9.46911
▁موسيقي	-9.46986
▁ويڊيو	-9.47041
▁بيت	-9.47197
▁اب	-9.47215
▁فرد	-9.47251
▁غ	-9.47253
▁the	-9.47321
▁ڪاليج	-9.47442
B	-9.47464
▁؟؟؟	-9.47528
▁۔	-9.47542
▁شرط	-9.47561
▁n	-9.47665
▁?	-9.47738
▁فوري	-9.47791
▁طريقن	-9.47792
▁آب	-9.47808
▁عزت	-9.47833
▁پئسا	-9.47874
▁ڳالهين	-9.47923
▁قرار	-9.4794
▁t	-9.48089
▁حيران	-9.48202
▁يون	-9.48344
▁نو	-9.48447
▁ماري	-9.48474
▁شاهه	-9.48494
▁فصل	-9.48509
▁آهنگ	-9.48605
▁ورتي	-9.48644
▁جائزو	-9.48825
▁سوچي	-9.4884
▁پهر	-9.4893
▁گي	-9.48946
▁جنرل	-9.4897
▁شاگرد	-9.4899
▁پلي	-9.48991
▁جيترو	-9.48992
▁بونس	-9.49
▁ايراني	-9.49004
▁26	-9.49047
وس	-9.49053
▁ڪرائڻ	-9.49056
▁تاريخي	-9.49067
▁ڪارو	-9.4915
▁ترجمو	-9.49343
▁انعام	-9.49503
_	-9.49569
▁هُو	-9.49589
▁پرين	-9.49649
le	-9.49926
▁ڀر	-9.50034
▁بد	-9.50038
▁مشتمل	-9.50051
▁دورو	-9.50131
▁چيني	-9.50154
▁لڳ	-9.50185
▁رهن	-9.50204
▁سڏ	-9.50428
▁ــــــــــــــ	-9.5056
▁ڪت	-9.50578
▁~	-9.50591
▁سگھو	-9.50647
▁زير	-9.50741
اءِ	-9.50747
▁مار	-9.50858
▁زخمي	-9.50865
▁کائي	-9.50869
▁ريل	-9.50928
▁نوان	-9.50976
▁دڪان	-9.50978
▁2016	-9.50994
ڪار	-9.51213
▁ڏيئي	-9.51331
ْ	-9.51377
▁انه	-9.51388
▁آبادي	-9.51441
▁قومن	-9.51452
▁g	-9.51505
▁رکندڙ	-9.51639
▁ــــــ	-9.51681
▁ميان	-9.51729
▁دشمن	-9.5173
▁انڪار	-9.51818
▁ڀيرا	-9.51823
▁عمارت	-9.51901
▁موڪليو	-9.51946
▁ڪانه	-9.51967
▁چوندا	-9.52007
▁ٻڌو	-9.52052
▁واڌ	-9.52096
▁آرڊر	-9.521
▁مه	-9.52167
ائن	-9.52316
▁قسمت	-9.52394
▁انصاف	-9.52414
▁جنس	-9.52462
▁راح	-9.52513
▁ادائيگي	-9.52573
▁سوچڻ	-9.52594
▁اف	-9.5273
▁آگسٽ	-9.52735
▁مٽي	-9.52775
an	-9.52793
تون	-9.52882
▁3.	-9.52889
▁پهچائڻ	-9.52903
▁اضافو	-9.52933
▁ڪرايو	-9.52966
▁ڳالهائي	-9.52986
▁ڪمپنين	-9.53016
ءُ	-9.53026
f	-9.53036
ٍ	-9.53076
▁هدايت	-9.53084
▁نيست	-9.5311
▁منزل	-9.53127
▁آفيسر	-9.53168
▁کڻڻ	-9.53256
▁لسٽ	-9.53483
▁هين	-9.53597
▁ڪتابن	-9.53609
ره	-9.53722
▁عليها	-9.53722
▁سدائين	-9.53865
▁آساني	-9.53889
▁ملڪيت	-9.54019
دا	-9.54021
▁ايشيا	-9.54034
▁ونڊوز	-9.5405
▁23	-9.54093
▁سمجهڻ	-9.54146
▁شوق	-9.54178
▁صفحا	-9.54182
▁شهري	-9.54239
▁ويل	-9.54251
▁نفس	-9.54319
▁اش	-9.54345
▁ڀريل	-9.54392
▁سڃاڻپ	-9.54511
▁اِه	-9.54523
▁اداري	-9.54572
دو	-9.54592
▁com	-9.5465
▁فرض	-9.54691
▁موٽر	-9.54741
ده	-9.54821
▁هال	-9.54854
▁60	-9.54865
▁واپسي	-9.54873
▁ادبي	-9.54975
▁حمايت	-9.54998
▁ليس	-9.55048
▁هوا	-9.55067
▁خلاص	-9.55085
▁شهيد	-9.55259
▁چڱو	-9.55416
▁حب	-9.55655
▁رابطي	-9.55778
▁تنھن	-9.55866
▁ـــــــــ	-9.55912
▁سپر	-9.55931
▁هليو	-9.55994
▁وسيع	-9.56009
▁آڻي	-9.56104
▁ذميواري	-9.56124
R	-9.56325
ءِ	-9.56522
▁سگھجي	-9.56649
▁فائل	-9.56678
▁راز	-9.56698
▁خواهش	-9.56745
▁ويهي	-9.5717
▁موقعي	-9.5725
▁مسئلا	-9.57253
▁روڪي	-9.5728
▁ڳالهايو	-9.57483
▁پاليسي	-9.57635
▁ڏانھن	-9.57691
▁دم	-9.5775
ــــــ	-9.57796
▁سفارش	-9.57956
▁نومبر	-9.57988
▁سبق	-9.58031
▁احمد	-9.58051
▁مَ	-9.58082
▁مکيه	-9.58163
▁هوائي	-9.58274
▁کار	-9.58291
▁کا	-9.58297
▁افغانستان	-9.58324
تو	-9.58392
▁o	-9.58423
▁گهڙي	-9.58465
▁اپڊيٽ	-9.58491
▁ضحك	-9.58676
▁خصوصي	-9.58683
▁فائلون	-9.58696
▁الحال	-9.58703
اڻڻ	-9.58986
▁واپاري	-9.58986
▁چيز	-9.59013
▁مصنوعات	-9.59015
پي	-9.59043
▁ماضي	-9.59048
▁گھڻو	-9.5907
▁ٻڌل	-9.59106
h	-9.59201
▁ليگ	-9.59353
L	-9.59426
▁ڪلاس	-9.59495
▁28	-9.59657
▁تجارت	-9.59684
▁2021	-9.59686
▁جنوري	-9.59734
▁رس	-9.59738
▁ـــــــ	-9.59925
▁لنڊن	-9.6011
▁كنت	-9.60209
▁ڪسٽم	-9.60211
▁هئس	-9.60254
▁ناڪام	-9.60347
▁پائي	-9.60374
▁ناهن	-9.60401
▁هع	-9.60517
▁منجه	-9.60554
▁سنڏ	-9.60555
▁راءِ	-9.60623
▁ڪوڙ	-9.60698
▁27	-9.60767
▁شوي	-9.60793
▁الزام	-9.60899
on	-9.60983
▁ء	-9.61049
▁ڊزائن	-9.61063
▁رهندا	-9.61076
▁هيٺين	-9.61098
▁اٺ	-9.61144
▁ندا	-9.61151
▁ندو	-9.6118
▁وات	-9.6118
▁ڪال	-9.61298
▁شده	-9.61358
▁درجي	-9.61368
▁گفت	-9.61393
▁ڊيزائن	-9.61422
▁کل	-9.61471
وت	-9.61498
▁هوء	-9.61506
▁مر	-9.61507
▁کٽ	-9.61668
▁حرف	-9.61681
▁سموري	-9.61779
▁سٽ	-9.61789
▁اخر	-9.61807
▁سمجهان	-9.61869
▁ناول	-9.61874
▁ڪميشن	-9.6188
▁جاء	-9.61899
▁سينٽر	-9.61903
▁ٿين	-9.61966
▁تازو	-9.62043
▁معامل	-9.62125
▁,,	-9.62244
▁ڏيندا	-9.62347
▁عورتون	-9.62387
▁آئين	-9.62426
▁مڇي	-9.62427
▁اچ	-9.62699
▁واقعا	-9.62812
▁قوت	-9.62823
▁آيل	-9.62961
▁مردن	-9.62982
▁ڪانهي	-9.63095
▁بک	-9.63142
هاي	-9.63368
▁يمكن	-9.63385
▁بڪ	-9.63445
▁؟!	-9.63485
▁شد	-9.63487
▁سار	-9.63588
▁تھ	-9.63598
▁كه	-9.63606
▁مقابلو	-9.63619
▁چپ	-9.63754
▁واقف	-9.63757
ااا	-9.63781
▁جه	-9.63792
▁بدلي	-9.63864
▁رکن	-9.63909
▁انجام	-9.63918
▁f	-9.63923
در	-9.63954
▁پرو	-9.63961
▁ڏکيو	-9.63969
ar	-9.64064
▁b	-9.64077
▁رخ	-9.64099
▁سکڻ	-9.64185
▁ٽيبل	-9.64295
▁سعودي	-9.64394
▁ڏنا	-9.64476
▁متبادل	-9.64601
▁اوڀر	-9.64611
▁ارب	-9.64684
▁ھا	-9.64701
▁R	-9.64817
▁رسول	-9.64826
▁سائيز	-9.64828
▁تعاون	-9.64962
▁اتفاق	-9.65034
▁ڀلا	-9.65048
▁هفت	-9.65077
▁تجربي	-9.65085
k	-9.65215
▁ماني	-9.65218
▁مزو	-9.65226
▁وفات	-9.65231
▁کلي	-9.6525
▁ڄاڻي	-9.65282
▁وائي	-9.65304
▁ڊسمبر	-9.65324
▁ويٺو	-9.65326
it	-9.6539
▁ٿ	-9.65487
▁نظم	-9.65506
▁وٺو	-9.65592
▁وفاقي	-9.6561
▁گڏوگڏ	-9.65687
▁گزارش	-9.6569
▁پٺيان	-9.6571
▁ھاڻي	-9.65892
▁m	-9.65909
▁نالا	-9.65914
▁@	-9.65921
گر	-9.65987
▁تم	-9.6603
▁باهه	-9.66113
▁ڪائنات	-9.66238
▁پيروي	-9.66295
ينئر	-9.663
▁هونديون	-9.66331
▁حسن	-9.66408
▁متن	-9.66446
ic	-9.66714
▁انك	-9.66722
▁رهندي	-9.6673
▁نتيجو	-9.66781
▁دليل	-9.66794
▁مريض	-9.6681
▁قول	-9.66813
▁ڪيم	-9.66838
▁ميمبرن	-9.66894
▁كيف	-9.66967
▁روي	-9.66982
▁شرڪت	-9.66985
▁سگهندا	-9.66988
▁يونٽ	-9.67005
▁منصوبي	-9.67025
▁سرور	-9.67032
▁شعور	-9.67065
▁ٽئي	-9.6718
▁عندي	-9.67234
▁برانڊ	-9.67317
▁شخصيت	-9.67317
▁وزارت	-9.67339
▁2015	-9.67342
▁فتح	-9.67402
▁لاش	-9.67424
▁ڀي	-9.67436
▁کات	-9.6746
▁اح	-9.67673
▁هلائڻ	-9.67735
▁تسليم	-9.67735
▁عنوان	-9.67743
▁سير	-9.67786
▁</	-9.67818
▁تڪليف	-9.67895
▁اٿم	-9.67936
▁هاءِ	-9.6798
▁پئج	-9.6804
▁ڪورونا	-9.68083
T	-9.68141
▁ڊوائيس	-9.6817
▁ڇڏڻ	-9.68189
▁ساد	-9.68213
▁پرڏيهي	-9.68268
▁اقتصادي	-9.68391
▁اپريل	-9.68458
▁اُهي	-9.6849
▁خريداري	-9.68514
▁وجهي	-9.68517
▁په	-9.68557
▁ائي	-9.68617
▁ايش	-9.68654
▁ابتدائي	-9.68663
▁V	-9.68804
▁سلسلو	-9.68878
▁هست	-9.68947
▁ڀاءُ	-9.69222
▁مينهن	-9.6925
▁ابي	-9.69288
▁بيڪ	-9.69325
▁توڙي	-9.69405
▁پور	-9.6944
▁re	-9.69447
▁طاقتور	-9.69468
▁ثقافت	-9.69915
▁لازم	-9.69977
▁ٻيون	-9.69981
▁شراب	-9.69982
▁شر	-9.70003
▁قلب	-9.70066
▁بچائڻ	-9.70158
▁رانديون	-9.70205
▁ٽر	-9.70247
▁مافي	-9.70252
▁نقل	-9.70253
▁ڀڳ	-9.70433
▁er	-9.70518
▁سيڙپڪاري	-9.70532
▁شه	-9.70534
th	-9.70704
▁يورو	-9.7071
▁سگهندو	-9.70752
▁فار	-9.70805
▁تربيت	-9.70872
▁واريون	-9.7097
▁وطن	-9.71129
▁آھيان	-9.71137
▁ٿر	-9.71164
z	-9.7137
▁80	-9.714
▁جوابدار	-9.71407
▁يلا	-9.71535
▁ڪوئي	-9.71539
▁هزارين	-9.71575
▁گفتگو	-9.71693
با	-9.71706
▁خودڪار	-9.71711
▁ٽرانسپورٽ	-9.7188
▁امداد	-9.71893
▁اڳوڻي	-9.71928
el	-9.71987
▁وقف	-9.72025
▁عربي	-9.72265
▁مثبت	-9.72286
▁والد	-9.7233
▁تازه	-9.72378
▁گهرجن	-9.72437
▁صور	-9.72446
▁وسلم	-9.72496
▁منصوبو	-9.72565
▁2-	-9.7257
▁ڪانفرنس	-9.72658
ڳ	-9.72665
▁سيڪيورٽي	-9.72674
▁دار	-9.72782
▁خطر	-9.72833
ً	-9.73036
▁هيس	-9.73036
▁ــــــــــ	-9.7305
▁جرمني	-9.73064
▁آمدني	-9.73066
▁أنا	-9.7315
▁آدم	-9.73218
▁نام	-9.73225
▁ورلڊ	-9.73457
▁ڳن	-9.73465
▁حمل	-9.73652
▁پارڪ	-9.73722
▁اقول	-9.73967
▁ڪئ	-9.74068
▁نفرت	-9.74096
▁جذب	-9.74217
▁شهرن	-9.7434
▁چرچ	-9.74376
▁r	-9.74379
▁فخر	-9.74444
ڌ	-9.74527
▁وڪيل	-9.74554
▁ٻيٽ	-9.74591
▁غلام	-9.74681
▁تع	-9.74767
▁جد	-9.7481
▁هلندڙ	-9.74863
▁ماڻھ	-9.74889
▁4.	-9.74927
▁ماپ	-9.74995
▁وڌائي	-9.75024
▁فل	-9.75083
▁سڌي	-9.75157
▁پابندي	-9.75212
▁خدمتن	-9.75219
▁وينديون	-9.75383
▁دعوت	-9.75455
▁ـــــــــــ	-9.75513
▁قيمتي	-9.75519
▁رح	-9.75542
▁اصلا	-9.75552
▁ميڪ	-9.75603
▁مست	-9.75659
▁اميدوار	-9.75661
▁لهي	-9.75664
▁گول	-9.75673
اج	-9.75676
في	-9.75694
▁جت	-9.75695
ڏانهن	-9.75751
شي	-9.75754
▁اون	-9.75794
▁خدمتون	-9.75818
▁سک	-9.75821
▁بادشاهه	-9.75873
▁برداشت	-9.76031
▁هذه	-9.76032
▁لانچ	-9.76105
▁ڊرائيو	-9.76132
▁فائيل	-9.76155
▁تيل	-9.76183
▁باغ	-9.76236
فر	-9.76248
يٽ	-9.76256
▁شيئر	-9.76273
▁ڀري	-9.76343
▁مجبور	-9.76417
▁اندروني	-9.76457
▁موڪلي	-9.76507
ڪا	-9.76546
▁انڊسٽري	-9.76639
▁روحاني	-9.76667
▁گهڻن	-9.76707
▁(1)	-9.76743
▁پريس	-9.76745
▁يونين	-9.7682
▁سُ	-9.76838
▁دستاويز	-9.769
▁k	-9.7694
▁چيست	-9.76973
▁تهيه	-9.76981
▁فيبروري	-9.77045
▁ضمانت	-9.77046
▁90	-9.77124
▁کوليو	-9.77216
▁امي	-9.77245
▁انٽرويو	-9.7725
▁وڪيپيڊيا	-9.77469
▁وڃائي	-9.77484
▁بيٽري	-9.77507
▁هڪٻئي	-9.77533
▁چارج	-9.77569
▁منفرد	-9.77659
سين	-9.77766
▁هڻي	-9.77853
▁طلاق	-9.77869
▁پهتو	-9.77873
▁اٿس	-9.77903
▁رھيو	-9.77943
▁سور	-9.77958
▁هفته	-9.77989
es	-9.78076
▁تخليق	-9.78102
▁بڻايو	-9.78279
▁پهچڻ	-9.78352
▁سادي	-9.78456
▁الع	-9.78488
▁نمائش	-9.78491
▁سَ	-9.78543
▁اولاد	-9.78544
▁سب	-9.78566
▁عقل	-9.78569
▁آء	-9.7857
▁J	-9.78666
▁29	-9.7867
▁رهيون	-9.78805
▁ذميوار	-9.78864
▁سازي	-9.78867
گو	-9.7891
▁زنده	-9.78924
▁ساهه	-9.7893
▁برقي	-9.78969
▁خاصيتون	-9.78985
K	-9.79049
▁سائيڪل	-9.79108
▁چئن	-9.79186
E	-9.79187
▁ڏه	-9.79232
▁ڙي	-9.79273
▁نبي	-9.79408
▁ڪمر	-9.79418
▁مسجد	-9.79522
▁تجويز	-9.79529
▁امين	-9.79577
▁لطف	-9.79581
▁صفحي	-9.79734
▁گاڏي	-9.79786
زم	-9.7981
▁آءُ	-9.79863
▁کپي	-9.79898
▁يافته	-9.79906
▁افسوس	-9.79941
▁ئ	-9.79983
▁حقن	-9.80002
▁محل	-9.80005
▁معاملو	-9.80093
يشن	-9.80098
▁خوب	-9.80227
سر	-9.80267
▁برطانيه	-9.80362
▁متعارف	-9.80362
▁توقع	-9.80417
▁اٿي	-9.80428
▁چيه	-9.80429
▁وڌو	-9.80489
▁بحالي	-9.80515
▁اليڪشن	-9.80591
▁سهولت	-9.80696
▁مور	-9.80708
▁ض	-9.80761
▁70	-9.80958
▁فوٽو	-9.80985
▁وَ	-9.80988
▁مرڪزي	-9.81035
تان	-9.81042
▁پاور	-9.81044
▁رن	-9.81049
F	-9.81061
▁ث	-9.8107
▁ڪٽ	-9.81083
at	-9.81159
▁معاهدي	-9.81197
▁کاڌي	-9.8126
▁روايتي	-9.81287
▁شب	-9.81313
▁پوزيشن	-9.81421
يڪ	-9.81463
▁پيئڻ	-9.81467
U	-9.81533
▁جوڙجڪ	-9.81635
▁مرمت	-9.81641
▁ed	-9.81697
اف	-9.81717
v	-9.8177
▁معاشي	-9.81848
▁محبوب	-9.8185
▁روڪڻ	-9.81878
▁ايڊ	-9.81895
▁ڪپ	-9.81988
▁ٽو	-9.82117
▁اڳيون	-9.82137
▁يڪ	-9.82264
▁ڏسندا	-9.82296
▁موٽ	-9.82322
▁جز	-9.82343
▁روسي	-9.82363
▁تعليمي	-9.82443
▁رک	-9.82453
▁اهڙن	-9.825
▁عشان	-9.82523
▁اندازو	-9.82566
▁نشاني	-9.82598
▁نتيجا	-9.82636
▁بہ	-9.82767
اسان	-9.82794
▁نواز	-9.82835
▁پيل	-9.82855
O	-9.82873
▁ريلوي	-9.82933
▁پيئي	-9.83011
▁احد	-9.83052
▁ابراهيم	-9.8314
▁ننڍڙ	-9.83152
ٻ	-9.83157
▁ڏيان	-9.83161
▁X	-9.83178
▁کاڌو	-9.83318
▁عبدال	-9.83359
▁وساري	-9.83443
▁عزيز	-9.83465
▁حلوة	-9.83483
▁ٽيڪس	-9.83597
يش	-9.83667
▁مزاحمت	-9.83695
▁ڀارت	-9.83704
يٺ	-9.83791
▁سرڪار	-9.83958
▁ڪپڙا	-9.84015
▁سنڀال	-9.84036
▁کو	-9.84049
▁پڙهندڙ	-9.84076
▁قد	-9.84083
▁اُ	-9.84095
▁ڪاپي	-9.84118
▁ڇڏ	-9.8418
▁تڪرار	-9.8423
▁ذريعو	-9.84259
نڊ	-9.84269
▁هلڻ	-9.84443
▁مصر	-9.84452
▁درجه	-9.84501
ې	-9.84591
▁ہ	-9.84599
▁مهل	-9.84838
I	-9.8493
▁طرز	-9.84931
▁لوڪ	-9.84952
▁آهست	-9.84969
هههههه	-9.85001
▁چاهيون	-9.85013
▁ڌاري	-9.85048
▁وهي	-9.85152
▁لم	-9.85208
▁غم	-9.8521
▁وڃان	-9.85262
▁ره	-9.85374
▁سول	-9.85391
▁مرڻ	-9.85515
اق	-9.85565
▁پرواز	-9.85582
▁سونهن	-9.85591
▁ذهني	-9.85592
▁اکر	-9.85619
▁روايت	-9.85719
▁سيد	-9.85811
▁خون	-9.85839
▁زن	-9.85879
▁قال	-9.85909
re	-9.86024
▁نظري	-9.86066
H	-9.86114
▁ڪهڙا	-9.86223
▁تعارف	-9.8623
▁راضي	-9.86236
▁موڊ	-9.86239
▁&	-9.86297
▁جبل	-9.86394
▁ءِ	-9.86419
▁ذريع	-9.86495
▁واقعن	-9.86522
▁مدت	-9.86564
▁خاموش	-9.86594
▁ڪنڊ	-9.86643
ٽن	-9.86663
▁انٽرنيشنل	-9.86668
▁مسلم	-9.86674
▁عيد	-9.86678
▁وڌڻ	-9.86693
▁ڪَ	-9.86811
▁جهان	-9.86826
▁نگراني	-9.86864
▁پنڌ	-9.86914
▁35	-9.86998
▁ڏيندڙ	-9.87055
▁سه	-9.87062
▁سگھون	-9.87106
▁اوھين	-9.87158
▁تار	-9.87389
▁سکيا	-9.87409
انه	-9.87466
ٌ	-9.87541
▁اوچتو	-9.8757
▁اكيد	-9.87576
▁نڪتو	-9.87577
▁فعل	-9.87733
▁طول	-9.87747
▁ڪائونسل	-9.87797
▁نيشنل	-9.87798
ووو	-9.87972
▁2014	-9.88029
▁ارسال	-9.882
مر	-9.88228
ڪر	-9.88267
رت	-9.88341
▁اسٽيٽ	-9.88353
us	-9.8841
?	-9.88489
▁روزاني	-9.88513
زي	-9.88566
ly	-9.88589
▁ميز	-9.88655
▁خاطر	-9.8867
▁پروفيسر	-9.88709
▁2013	-9.88712
▁اهل	-9.88719
▁انجڻ	-9.88724
▁حاضر	-9.8875
▁عليكم	-9.88752
▁آفريڪا	-9.8882
▁چيف	-9.88863
il	-9.88868
▁پلاسٽڪ	-9.88939
وب	-9.88987
وار	-9.89017
▁شعبي	-9.89071
▁آسٽريليا	-9.8917
▁لائق	-9.8918
▁هار	-9.89212
▁چيم	-9.89256
ڙا	-9.89318
ra	-9.89344
w	-9.89363
▁شور	-9.89533
▁مرڪ	-9.89544
▁روپ	-9.89624
▁ويڪسين	-9.89631
▁رکيل	-9.89663
▁عجب	-9.89715
▁آندو	-9.89716
▁چوري	-9.89724
▁فا	-9.89725
▁اور	-9.89816
▁بررسي	-9.89862
▁ڪميٽي	-9.89871
▁خيالن	-9.89892
▁چور	-9.89984
▁قيد	-9.89994
▁سپورٽ	-9.90094
▁بيٺو	-9.90095
▁بٽڻ	-9.90125
▁ڪمزور	-9.90153
▁ميچ	-9.90174
▁انڊيا	-9.90302
▁فورم	-9.9035
▁ٻ	-9.90394
▁هيك	-9.90418
▁سرگرمين	-9.90477
▁ڪاوڙ	-9.90563
▁ويٺي	-9.90568
▁کولي	-9.90587
▁ملندي	-9.90606
▁بازار	-9.90608
▁پول	-9.90632
▁ظلم	-9.90821
▁نرم	-9.90861
▁پاسو	-9.90973
▁ميوزڪ	-9.91032
▁ترڪي	-9.91039
▁رکندو	-9.91054
▁ملڪي	-9.91062
▁حملو	-9.91129
▁جرمن	-9.91149
▁پٽي	-9.91156
▁يت	-9.91183
▁دفعي	-9.91205
▁دوستي	-9.9122
▁حرڪت	-9.91262
▁ڀرسان	-9.91262
▁دولت	-9.9135
اتي	-9.91414
▁بيمار	-9.91426
مت	-9.91632
▁مني	-9.91668
▁پتو	-9.91714
▁عندك	-9.91896
▁قلت	-9.91982
▁چوندو	-9.9209
▁پوائنٽ	-9.92096
▁وٺ	-9.92126
▁شرم	-9.92154
▁^^	-9.92156
▁بچائي	-9.92176
▁اسرائيل	-9.92197
▁اٿئي	-9.92227
▁لطيف	-9.92235
ol	-9.92265
▁يم	-9.92306
▁کوٽ	-9.92314
▁اياز	-9.92334
▁داد	-9.92365
▁ڪاغذ	-9.92443
▁سائيٽن	-9.9248
▁هلائي	-9.9253
▁500	-9.92565
ڪري	-9.92574
▁منحصر	-9.92682
▁ڪارروائي	-9.92682
▁وٺندو	-9.92702
▁هندو	-9.92734
▁مراد	-9.92753
ــــــــ	-9.92753
▁علامت	-9.92784
▁اسٽيل	-9.9279
▁کنيو	-9.928
▁خطرو	-9.92843
▁مسيح	-9.92859
ئون	-9.92922
▁مقام	-9.92948
▁خبرون	-9.92983
جه	-9.93077
▁l	-9.9313
ائون	-9.93274
▁شيءَ	-9.93313
▁وِ	-9.93355
▁ايئرپورٽ	-9.93399
▁فري	-9.93453
▁نون	-9.93499
▁نيڪ	-9.93501
▁ناس	-9.93508
▁ڀيڻ	-9.9352
▁بيهي	-9.93569
▁ھئا	-9.93603
▁ندڙ	-9.93612
▁داخلا	-9.93762
▁طالب	-9.93827
▁موثر	-9.93893
V	-9.93922
يز	-9.93927
▁سئو	-9.93952
آآ	-9.94003
▁شيخ	-9.9405
▁ڌر	-9.94068
▁عذاب	-9.94122
▁روزانو	-9.94131
▁بلند	-9.9414
▁مقصدن	-9.94162
▁ڊپ	-9.94172
▁ڏ	-9.94182
▁فٽبال	-9.94217
▁انتخاب	-9.94318
▁مهمان	-9.94339
▁چوڌاري	-9.94365
ائ	-9.94368
▁مٿين	-9.94384
▁مطالبو	-9.94395
▁وڊيوز	-9.94406
▁لينڊ	-9.94438
▁موجودگي	-9.94479
▁جوڙي	-9.9451
▁رجحان	-9.94561
N	-9.94565
▁ووٽ	-9.94614
▁ڪام	-9.94659
▁طبق	-9.9467
▁فيشن	-9.94848
▁وڌندڙ	-9.94928
▁طئي	-9.94974
▁حي	-9.95019
▁ملازم	-9.95033
▁معيشت	-9.95098
▁عاشق	-9.95118
▁دوري	-9.95154
▁منظوري	-9.95189
W	-9.9531
▁تنقيد	-9.95339
▁صنعتي	-9.95349
▁آھيو	-9.95402
▁خارجي	-9.95435
▁مادي	-9.95508
▁انجنيئر	-9.95519
▁پراڊڪٽ	-9.95684
▁قلم	-9.95728
▁اج	-9.95821
▁ڏسندي	-9.95871
يس	-9.9588
▁اصطلاح	-9.9595
▁مٿ	-9.95986
▁رکون	-9.95994
ستائين	-9.96012
▁نڪ	-9.96019
▁زمرو	-9.96067
▁نگاه	-9.96079
▁سند	-9.96096
جن	-9.96168
▁ارادو	-9.96194
▁ملازمن	-9.96222
▁فر	-9.96263
▁سيڪريٽري	-9.96323
▁علائقو	-9.96323
▁ناقابل	-9.96323
▁برسات	-9.9634
▁اسم	-9.96342
▁وڌايو	-9.96375
▁زبردست	-9.96376
▁ٽين	-9.96462
▁ڪلام	-9.9647
▁آڇ	-9.96511
▁انھي	-9.96537
▁3-	-9.96585
▁رئيس	-9.96595
▁سري	-9.96672
▁ڇڏيا	-9.96679
▁معاملن	-9.96761
▁پچ	-9.96864
▁شھر	-9.96892
▁شريف	-9.96907
▁مائي	-9.97031
▁ڀرپور	-9.9707
▁إ	-9.971
▁منصوبن	-9.97189
▁1-	-9.97208
▁رجسٽر	-9.9726
▁ماڳ	-9.97306
▁خطرناڪ	-9.9732
▁ڊائونلوڊ	-9.97321
▁الموضوع	-9.97355
▁فائدا	-9.97568
▁آي	-9.97579
▁سڃاتو	-9.97682
▁سڀاڻي	-9.97704
▁عبادت	-9.97817
▁دريافت	-9.9782
▁ڪلاڪن	-9.97843
▁عرض	-9.97858
▁علمي	-9.97868
▁اُتي	-9.97893
▁عاد	-9.98008
صلى	-9.98055
▁نڪرڻ	-9.98088
▁ڄاڻڻ	-9.98144
ايل	-9.98289
▁متحرڪ	-9.98329
▁رساله	-9.98356
قي	-9.98361
▁گهرن	-9.98375
▁هندي	-9.98407
▁چا	-9.98494
▁تري	-9.98616
▁بلا	-9.98685
▁چاهين	-9.98748
▁سوي	-9.98807
▁ڪئميرا	-9.98826
▁مرحله	-9.98827
▁ڌڪ	-9.98848
▁رکندي	-9.98866
▁گھڻي	-9.98878
▁سرگرمي	-9.98929
▁5.	-9.98998
▁فى	-9.99063
▁خوراڪ	-9.9908
ur	-9.99183
▁ياداشت	-9.99334
▁شهرين	-9.99487
▁أن	-9.99555
▁جم	-9.99571
▁يقول	-9.99667
▁ڪيئي	-9.99694
▁بم	-9.99697
▁نهايت	-9.99734
▁چمڙي	-9.99741
▁ساٿ	-9.99763
▁ڊائريڪٽر	-9.99787
▁Z	-9.99795
▁تشدد	-9.99846
▁اتحاد	-9.99892
ستان	-9.99905
▁پنھنجو	-9.99964
▁هائوس	-10.0007
▁حصا	-10.0008
▁اعتبار	-10.001
▁رشت	-10.0017
▁اطلاع	-10.0023
▁بنت	-10.0025
▁پائڻ	-10.0027
▁ڪيان	-10.0034
▁اينڊ	-10.0036
▁کر	-10.004
▁200	-10.004
▁آيت	-10.0041
▁دفعا	-10.0042
▁قدرت	-10.0044
▁قابليت	-10.0048
▁وصول	-10.0052
▁تنگ	-10.0056
▁وارث	-10.0071
▁گه	-10.0078
▁لكن	-10.0083
▁بلڪه	-10.0087
▁ڊيسڪ	-10.0088
▁تنھنجي	-10.01
الي	-10.0114
▁إن	-10.0117
▁آڏو	-10.0118
▁اديب	-10.0118
▁هئاسين	-10.0121
▁يکي	-10.0141
▁ٽيڪ	-10.0142
▁گري	-10.0143
▁ڊگهو	-10.0154
اڻو	-10.0158
▁ڪنار	-10.0164
▁طوفان	-10.0166
▁حضور	-10.0167
▁قبضو	-10.0174
▁اختي	-10.0177
▁نظارو	-10.0179
▁حصيداري	-10.018
▁ڊزائين	-10.0192
▁ننڍڙي	-10.0193
▁پڙهو	-10.0197
▁h	-10.0198
▁وان	-10.0199
▁ناھي	-10.0199
▁فيك	-10.0201
▁مآ	-10.0201
▁پهچائي	-10.0201
▁ڊيل	-10.0202
▁مشق	-10.0204
▁پاڪستاني	-10.0212
▁ترجيح	-10.0213
▁مهر	-10.0214
▁and	-10.0216
▁·	-10.0219
▁انگيز	-10.0227
وري	-10.0232
هار	-10.0236
▁انسانيت	-10.0246
۔	-10.0248
▁تحليل	-10.0256
▁ڪس	-10.0258
▁مات	-10.0263
▁ثبوت	-10.027
▁دؤر	-10.027
▁طبي	-10.0272
▁سام	-10.0273
▁اليوم	-10.0273
▁ڏند	-10.0274
▁ماء	-10.0279
▁ٻولين	-10.0288
▁سڪ	-10.0294
▁ريم	-10.0299
▁جر	-10.03
▁رسم	-10.0301
▁تقرير	-10.0303
▁ڪلو	-10.0303
▁گيري	-10.0304
▁ڪمپنيون	-10.0316
▁يكون	-10.0322
▁تقريبا	-10.0337
▁سهڻي	-10.0343
▁مزدور	-10.035
▁ٽائيم	-10.0357
▁معاشري	-10.0361
▁لڳل	-10.0361
▁عليك	-10.0366
▁ڪنڌ	-10.0366
▁آمد	-10.037
▁45	-10.0375
▁بچڻ	-10.038
ۈ	-10.0385
▁رياضي	-10.0394
▁ريڊيو	-10.0414
▁اگه	-10.0415
▁معك	-10.0415
▁شان	-10.042
▁عم	-10.0428
▁ماهرن	-10.0429
▁اٽڪل	-10.043
▁شريڪ	-10.0432
جو	-10.0434
▁پيامبر	-10.0434
▁امر	-10.0447
اً	-10.0447
رس	-10.0448
▁گهري	-10.0455
▁تباهه	-10.0457
▁ويٺا	-10.0458
▁بلاڪ	-10.047
▁ڏٺي	-10.0472
▁پيس	-10.048
▁منتقلي	-10.0483
▁هذي	-10.0487
▁x	-10.0487
▁ترا	-10.0491
et	-10.0496
▁نار	-10.05
▁ورهين	-10.0501
▁مريم	-10.0504
نس	-10.0505
▁احترام	-10.0511
▁ملندو	-10.0515
▁فارسي	-10.0522
▁اخلاقي	-10.0529
▁پد	-10.0529
▁اشتهار	-10.0536
▁فائدي	-10.0537
▁شا	-10.0539
▁اپيل	-10.0553
▁گهرو	-10.0561
▁آپريٽ	-10.0566
▁فيلڊ	-10.0571
▁اينڊرائيڊ	-10.0577
كر	-10.059
▁ٻڌائڻ	-10.0595
▁ڀريو	-10.0612
▁آھيون	-10.0612
▁صف	-10.0613
▁ٽڪر	-10.0616
▁لڳندو	-10.0622
▁اما	-10.0624
st	-10.0626
▁معي	-10.0631
▁حيات	-10.0632
▁منك	-10.0634
▁خارج	-10.064
▁آرٽ	-10.064
▁چرا	-10.0645
▁عالي	-10.0646
▁رحم	-10.0649
▁كذا	-10.065
▁ــــــــــــ	-10.065
▁٪	-10.0651
▁ماهي	-10.0652
▁دست	-10.0658
وز	-10.0665
▁كله	-10.0673
▁اختلاف	-10.0674
▁اسٽاڪ	-10.0674
▁ڄڻا	-10.0681
▁شكله	-10.0688
▁31	-10.0689
▁ڏيکاريو	-10.0697
▁لين	-10.0698
▁فرانسيسي	-10.0701
▁مثالي	-10.0702
▁بري	-10.0703
▁سياري	-10.0707
▁يك	-10.0707
▁پکي	-10.071
▁ڦ	-10.0721
▁سوالن	-10.0727
▁توسان	-10.0729
▁صحافي	-10.073
رهندي	-10.073
▁ـــــــــــــــ	-10.0731
▁لڳائڻ	-10.0732
▁صفائي	-10.0737
▁ڪُ	-10.0738
▁نوجوانن	-10.0739
کي	-10.0739
▁نھ	-10.0745
▁صفحو	-10.0756
▁پورٽ	-10.0758
▁داري	-10.0762
▁ننڍو	-10.0764
▁ليڪن	-10.0775
▁تقسيم	-10.0784
▁ڏهاڪ	-10.0785
▁برو	-10.0788
▁ٿينديون	-10.0792
▁شاه	-10.0803
▁ڪلب	-10.0803
مه	-10.0803
▁بزرگ	-10.0812
▁ورزن	-10.0813
▁ڇڏيندو	-10.0827
▁چينل	-10.0838
▁کم	-10.0839
▁پڙهيو	-10.0839
▁لڳائي	-10.084
▁Y	-10.085
▁is	-10.0854
▁حر	-10.0854
▁ڪنديون	-10.0855
ڀ	-10.0866
▁نمائندگي	-10.0868
▁هُئي	-10.0869
▁اڻي	-10.087
▁ڊرائيور	-10.0873
▁پريشاني	-10.0885
▁ڪورس	-10.0894
▁مددگار	-10.0898
▁حالتون	-10.0899
▁ڪوٽ	-10.091
▁پيماني	-10.0914
جر	-10.092
▁ملن	-10.0927
▁مب	-10.0937
▁فني	-10.0938
▁طب	-10.0942
▁سامونڊي	-10.0952
▁يوٽيوب	-10.0952
▁مستقل	-10.0952
▁اُنه	-10.0953
ڏ	-10.0959
▁واقعو	-10.096
هر	-10.0964
▁صبر	-10.0964
▁پَ	-10.097
▁ٺاهيل	-10.097
▁افغان	-10.0988
▁فور	-10.0997
▁گهٽتائي	-10.1008
▁غائب	-10.1008
▁ڊسڪ	-10.1009
▁مفيد	-10.101
▁سوا	-10.1019
▁ٺ	-10.1022
▁احس	-10.1028
▁مارجي	-10.1032
▁پسنديده	-10.1037
▁شڪايت	-10.1037
▁ڇ	-10.1037
▁لڪ	-10.104
▁جميل	-10.1041
▁قبر	-10.1045
بت	-10.1046
▁نيڻ	-10.1054
▁نقطي	-10.1069
▁اھڙي	-10.1075
▁الح	-10.1084
▁پلس	-10.1094
▁ـــــــــــــ	-10.1098
▁خل	-10.1109
▁هئو	-10.1111
▁رانديگرن	-10.1122
▁الناس	-10.1123
▁رهجي	-10.1125
▁لئه	-10.1135
▁معاف	-10.1136
اك	-10.1137
▁ڪارڻ	-10.1149
▁واسطو	-10.1151
▁صفحه	-10.1151
▁اثرات	-10.1155
▁ڪهاڻيون	-10.1159
▁يالله	-10.1161
▁روئي	-10.1161
▁بازي	-10.1162
▁اڪثريت	-10.1162
▁32	-10.1168
وف	-10.1173
▁سينٽ	-10.1179
▁سائن	-10.1179
▁شرطن	-10.118
▁تضحك	-10.1185
▁بالغ	-10.1192
▁چوان	-10.1205
▁کاٻ	-10.1211
▁ٽپ	-10.1214
▁يقينا	-10.1223
▁سکر	-10.1225
▁رام	-10.1226
▁چڪر	-10.1237
▁سگھوٿا	-10.1238
▁كثير	-10.1239
▁حملي	-10.124
▁دوم	-10.1243
▁عل	-10.1254
▁چٽ	-10.1262
▁هيٺان	-10.1265
▁معاهدو	-10.1278
▁متعلق	-10.1296
▁هاء	-10.1297
▁تاج	-10.1299
▁حس	-10.1304
▁شن	-10.131
مل	-10.131
▁مطالعو	-10.1325
ـــــــ	-10.1334
آإ	-10.1336
▁اسمارٽ	-10.134
▁مڃي	-10.134
▁كده	-10.1341
▁آخرين	-10.1345
▁ڪيميا	-10.1345
▁اصلاح	-10.135
▁شڪر	-10.135
▁تياري	-10.1351
▁ذ	-10.1354
▁برطانيا	-10.1355
▁sub	-10.1356
▁هلندي	-10.1358
▁(2)	-10.1359
▁اتان	-10.1359
▁عادي	-10.136
▁of	-10.1366
▁سلامت	-10.137
▁مرضي	-10.1373
▁گلي	-10.1374
سل	-10.138
▁ڪچهري	-10.1384
▁مهينا	-10.1384
▁2010	-10.1386
▁اعرف	-10.139
اهو	-10.1401
▁انفرادي	-10.1414
▁آپشن	-10.1415
▁پاپ	-10.1417
▁حالا	-10.142
▁المهم	-10.142
▁تصويرن	-10.1422
▁گهرج	-10.1429
هين	-10.1432
▁ماڻي	-10.1432
▁مستحڪم	-10.1443
▁اسٽوريج	-10.1444
مسنگ	-10.1452
▁شكلك	-10.1464
▁صار	-10.147
▁مطالعي	-10.1473
▁نيٽورڪ	-10.1473
ٹ	-10.1474
▁بحران	-10.1478
▁يل	-10.1478
▁اد	-10.1483
▁سل	-10.1484
▁چڪاس	-10.1486
▁قيام	-10.1487
▁ترميم	-10.1489
▁ڏوهه	-10.1493
▁واچ	-10.1494
▁زم	-10.1503
▁جج	-10.1511
▁جڳ	-10.1511
▁ڀ	-10.1513
▁پيج	-10.1519
▁جانچ	-10.1526
▁انگريزن	-10.1531
▁حديث	-10.1533
▁روزگار	-10.1533
▁2012	-10.1533
▁پمپ	-10.1534
▁پيدائش	-10.1534
▁هلندو	-10.1536
▁برادري	-10.1537
▁ثقافتي	-10.1541
فت	-10.1544
▁راڻي	-10.1549
▁تعليق	-10.1554
▁لڳايو	-10.1557
▁پيغمبر	-10.1562
▁ساليان	-10.1563
ڙن	-10.1564
▁مخ	-10.1564
▁ويچار	-10.1575
▁پڇي	-10.158
▁ماهه	-10.1584
▁وت	-10.159
▁2011	-10.1594
▁عيسائي	-10.1594
▁يادگار	-10.1594
لم	-10.1615
▁كلهم	-10.1616
▁غذا	-10.1617
▁مها	-10.1618
▁همه	-10.1623
▁ڊومين	-10.1628
▁بعض	-10.1635
▁عطا	-10.1641
▁مسٽر	-10.1642
▁واه	-10.1644
▁ميشه	-10.1644
▁۱	-10.1645
▁الك	-10.1657
▁رواج	-10.1659
▁چوٽي	-10.1659
جل	-10.1659
▁درواز	-10.1659
▁کنڊ	-10.1663
▁فلسفي	-10.1664
▁پهچ	-10.1667
▁بدي	-10.1675
▁تبصرو	-10.1677
▁تعجب	-10.1679
▁v	-10.168
▁ماسڪ	-10.17
▁موڪلڻ	-10.1703
▁وو	-10.1713
▁فين	-10.1714
▁ڪريڊٽ	-10.1714
▁COVID	-10.1714
▁جل	-10.172
▁سنه	-10.172
▁هارڊ	-10.1721
▁هلڪ	-10.1722
▁سٽي	-10.1723
▁سرچ	-10.1734
▁de	-10.1743
▁ٽرئفڪ	-10.1744
▁ايوارڊ	-10.1744
▁بهار	-10.1744
▁ھتي	-10.1746
▁تفصيلي	-10.1752
▁تس	-10.1766
▁ڀا	-10.1773
▁هاري	-10.1773
▁پروسيسنگ	-10.1779
▁راهه	-10.1782
▁تحرير	-10.1785
▁پڙهائي	-10.1791
▁لكم	-10.1803
سمارٽ	-10.1804
▁مفاد	-10.1806
اااا	-10.1807
▁مليا	-10.1812
▁سختي	-10.1824
▁هيڊ	-10.1829
▁خالص	-10.1837
▁بيش	-10.1843
▁فنڪشن	-10.1845
▁نامي	-10.1854
▁سڄڻ	-10.1856
▁ٿڌي	-10.1865
▁موبائيل	-10.1867
ترا	-10.1867
▁شنو	-10.187
▁نصب	-10.1873
کان	-10.1874
▁ماسٽر	-10.1876
▁روانو	-10.188
00	-10.1881
▁ڀير	-10.1895
▁مصروف	-10.1896
▁مح	-10.1899
▁نسخو	-10.1904
▁ٻاهران	-10.1904
▁جمهوريت	-10.1904
▁مند	-10.1905
▁چونڊڻ	-10.1914
▁ثاني	-10.1917
▁ضحكت	-10.1919
▁انگلينڊ	-10.1929
▁فارميٽ	-10.1932
يائين	-10.1945
▁هونئن	-10.1962
▁معنى	-10.1963
وك	-10.1964
▁بقى	-10.1965
▁2:	-10.1968
ذا	-10.1971
▁هلا	-10.1975
▁w	-10.1991
▁کسي	-10.1993
▁اِن	-10.1995
▁سيڪشن	-10.1997
is	-10.1998
▁جهڙا	-10.2012
▁تش	-10.2014
▁سمجھ	-10.2015
▁تح	-10.2019
▁توجيهي	-10.203
▁4-	-10.2051
▁بدقسمتي	-10.2054
▁سهڪار	-10.2056
▁هِن	-10.2057
▁اھا	-10.2058
ch	-10.2059
▁خشڪ	-10.2063
▁پيء	-10.2075
▁هيل	-10.2081
▁صدارت	-10.2086
▁وانت	-10.2086
▁فلٽر	-10.2086
▁2008	-10.2087
▁خاني	-10.2087
▁ااا	-10.209
▁گوشت	-10.2091
▁گذارڻ	-10.2092
▁ٽري	-10.2096
به	-10.2099
▁چڙهي	-10.2102
ايا	-10.2104
▁گولي	-10.2105
▁باس	-10.2115
▁اعتراض	-10.2117
▁علائقا	-10.2117
▁بيٺل	-10.2117
▁جامع	-10.2122
▁فنڊ	-10.2128
▁وراڻيو	-10.2129
▁ڌڻي	-10.2133
▁ساز	-10.2135
la	-10.2142
نٽ	-10.2155
▁بنائڻ	-10.2158
▁لآ	-10.2159
▁سستي	-10.216
▁اوهين	-10.216
▁كمان	-10.2163
▁جيتري	-10.2165
▁ڳ	-10.2165
سس	-10.2173
▁خلق	-10.2174
▁پون	-10.2175
ڄ	-10.2176
عت	-10.2176
▁ڪميونٽي	-10.2181
▁چيئرمين	-10.2181
ھي	-10.2181
▁نصيب	-10.2184
▁پڇڻ	-10.219
▁ظاهري	-10.2197
▁بھ	-10.2203
▁مرض	-10.2204
▁گرين	-10.2205
▁تعالي	-10.2208
ړ	-10.2211
▁آڊيو	-10.2213
▁ڪرڪيٽ	-10.2213
از	-10.2214
▁چئب	-10.2222
▁نياڻي	-10.2222
▁جَ	-10.2227
▁منھنجو	-10.2227
▁هستي	-10.2229
▁الس	-10.2229
▁تت	-10.2232
▁تڪڙو	-10.2236
▁تخليقي	-10.2239
▁ڊيٽابيس	-10.2245
▁ھٿ	-10.2247
▁حوالو	-10.2252
▁مٺي	-10.2266
▁اسٽار	-10.2267
▁ڇوڪرو	-10.2269
▁ادري	-10.2274
▁رول	-10.2274
▁ڪارپوريشن	-10.2278
▁ڌ	-10.2284
▁حبيب	-10.2301
▁ڊسپلي	-10.2309
▁پياري	-10.2311
▁نالن	-10.2313
▁ڪاريگر	-10.2315
▁رز	-10.2321
ندس	-10.2332
▁لاهي	-10.2333
▁صحتمند	-10.2343
▁احلى	-10.2343
ھر	-10.2343
▁رهندڙ	-10.2345
▁ليزر	-10.235
▁اڄوڪ	-10.2351
▁co	-10.2352
▁ڀت	-10.2361
▁جذباتي	-10.2365
لف	-10.2367
▁ٽرمينل	-10.2374
▁سگنل	-10.2374
▁جماعت	-10.2377
▁برف	-10.2384
▁تلاش	-10.2386
▁ڌيءَ	-10.2392
▁بقا	-10.2393
تني	-10.2403
▁ديگه	-10.2407
▁گھڻا	-10.2418
▁1:	-10.2418
سم	-10.2427
▁شكل	-10.243
ڪل	-10.2433
▁گڏجاڻي	-10.2439
▁ڪٿان	-10.244
▁عند	-10.244
▁نوٽيس	-10.2441
▁شڪست	-10.2442
▁ڪاٺ	-10.2444
▁جنت	-10.2445
يڊ	-10.2448
▁رفت	-10.2455
▁گنجائش	-10.2472
▁مداخلت	-10.2473
▁دبئي	-10.2475
شت	-10.2477
▁پرنٽ	-10.2485
▁اخي	-10.2489
▁ضلعي	-10.2489
▁ماحولياتي	-10.2491
▁چوٿ	-10.2493
▁چونڊي	-10.2494
▁موقع	-10.2501
▁نس	-10.2505
▁جدوجهد	-10.2505
▁مائڪرو	-10.2507
▁ويڙه	-10.2512
▁هيڪ	-10.2515
▁ڪارڪنن	-10.2516
▁ظ	-10.2519
▁سردار	-10.2524
nd	-10.2528
▁احوال	-10.2538
▁كتير	-10.2539
▁نيب	-10.2539
▁فنڪار	-10.254
▁آغاز	-10.2541
▁ويندس	-10.2543
ro	-10.2546
ـــــــــ	-10.2547
▁ھجي	-10.2565
چي	-10.2566
▁ايجنٽ	-10.2571
▁ڌاتو	-10.2571
▁طبيعت	-10.2572
▁خطي	-10.2577
▁سست	-10.2591
ڇا	-10.2597
▁سيڪنڊ	-10.2601
▁اقتدار	-10.2604
▁ڊيوائس	-10.2605
▁سگهندي	-10.261
▁منفي	-10.262
▁جشن	-10.2621
اءُ	-10.2622
▁ڇت	-10.2633
▁رجسٽريشن	-10.2638
▁بجيٽ	-10.2642
am	-10.2642
▁پوئي	-10.2644
▁حرارت	-10.2652
▁كن	-10.2652
▁ٽاپ	-10.2653
سا	-10.2664
▁لما	-10.2667
▁مليل	-10.2668
▁ڪٽي	-10.2668
▁محروم	-10.2671
▁کيڏڻ	-10.2671
▁ڪپڙن	-10.2672
▁ڊيم	-10.2673
▁ڪانگ	-10.2674
سن	-10.2681
▁وقتي	-10.2681
▁۲	-10.2683
▁انها	-10.2687
▁بشر	-10.2689
▁پيارا	-10.2695
ڪٽر	-10.2699
▁مطمئن	-10.2705
▁سگهيا	-10.2706
مينٽ	-10.2707
▁صوبي	-10.2713
▁خرابي	-10.2716
▁نر	-10.2716
ممڪن	-10.2728
▁طرفن	-10.2729
▁ايجنسي	-10.2738
▁<<<	-10.2739
▁ماٺ	-10.274
▁فيڪٽري	-10.2747
▁تقول	-10.2751
▁ٽيگ	-10.2763
▁33	-10.2765
▁ٽريڪ	-10.2766
▁رسي	-10.2766
▁ملائيشيا	-10.2772
▁دعويٰ	-10.2772
▁اندوز	-10.2773
▁مرحلي	-10.2773
▁پورا	-10.2774
▁گريڊ	-10.2777
▁يس	-10.278
▁وير	-10.2783
▁واس	-10.2785
▁Re	-10.2787
▁اڪ	-10.279
▁تج	-10.2796
▁گهٽائڻ	-10.2799
▁ادي	-10.2801
▁وڏيون	-10.2809
▁عراق	-10.2831
-19	-10.2832
▁ڪلي	-10.2836
▁حساس	-10.2842
▁پيچيده	-10.2845
▁احسان	-10.2849
te	-10.285
▁(1	-10.2859
▁تعرف	-10.2866
▁يضحك	-10.2874
▁چانهه	-10.2874
▁شيطان	-10.2876
▁بچايو	-10.2877
▁ملائي	-10.2895
ul	-10.2899
▁ديس	-10.29
▁ڪمائي	-10.2904
NT	-10.2905
▁نمايان	-10.2909
▁فطر	-10.2909
▁قطار	-10.291
▁داستان	-10.291
▁احم	-10.2913
لڊ	-10.2915
▁اکرن	-10.2916
▁ِي	-10.2918
▁همين	-10.2919
▁فيها	-10.2919
▁انگريز	-10.2942
▁واهه	-10.2945
▁رکندا	-10.2945
▁باڪس	-10.2968
يان	-10.2968
▁نفسياتي	-10.2969
▁مدل	-10.2976
▁عضو	-10.2977
▁ڪلوميٽر	-10.2977
▁منعقد	-10.2977
▁طريقيڪار	-10.2982
▁عملن	-10.2984
▁ايڏو	-10.2987
▁شير	-10.2988
▁ريڊ	-10.299
▁يادگيري	-10.2992
▁حسب	-10.2993
▁البت	-10.3
▁دان	-10.3004
▁روڪيو	-10.3008
▁مشغول	-10.3012
▁حاڪم	-10.3012
▁ويجهي	-10.3013
▁ميڊيڪل	-10.3013
▁ٻانهن	-10.3014
▁سمجهو	-10.3015
▁ايو	-10.3018
▁اعظم	-10.3019
▁ڄاڻو	-10.3032
▁تعلقات	-10.3035
ad	-10.3038
▁ڙو	-10.3039
▁ڪانگريس	-10.3047
▁لاگ	-10.3048
▁پهچايو	-10.3048
▁عادت	-10.3049
▁صلاحيتن	-10.3055
▁متان	-10.3056
▁ٻج	-10.306
▁ادارو	-10.3063
▁ۈ	-10.307
▁بستر	-10.3078
▁ھيٺ	-10.3081
▁پارليامينٽ	-10.3081
▁پروجيڪٽ	-10.3082
▁وسيلي	-10.3083
▁ٻارڙن	-10.3085
▁اكثر	-10.3085
▁مک	-10.3086
▁نكت	-10.3087
ڷ	-10.309
▁ڪوٺي	-10.3092
▁ڪيائون	-10.3093
▁ڇڏيندا	-10.3094
▁گير	-10.3096
X	-10.3096
افي	-10.3111
▁بوتل	-10.3117
شا	-10.3128
▁سرحد	-10.3134
▁پينل	-10.3136
▁مارڻ	-10.3148
▁اولين	-10.315
▁فرمايو	-10.3153
▁y	-10.3155
▁پيڪنگ	-10.3156
▁لڪي	-10.3157
▁باز	-10.3158
▁ڪروڙ	-10.3162
▁لاڪ	-10.3163
نداسين	-10.3168
▁ڀارتي	-10.3168
▁سچي	-10.3171
▁افزائ	-10.318
▁ويٺل	-10.3187
▁لاهور	-10.3187
▁روان	-10.319
▁گهمڻ	-10.319
▁وچولي	-10.3192
وڊ	-10.3199
▁ڪور	-10.3209
▁انگن	-10.321
▁معصوم	-10.3211
▁نامو	-10.3215
▁گلن	-10.3216
▁برطانو	-10.3222
▁رهنمائي	-10.3224
▁>>>	-10.3224
▁موڙ	-10.323
حب	-10.3234
▁لله	-10.3236
ڊي	-10.3249
▁سوراخ	-10.3258
▁واڌاري	-10.3261
▁وٺندي	-10.3261
▁خام	-10.3262
▁ڏهه	-10.3266
▁دلي	-10.3268
▁لها	-10.3281
▁جاپان	-10.3281
▁الائي	-10.3284
▁U	-10.3285
▁مارڪ	-10.3285
▁ڦر	-10.329
▁ديو	-10.3291
ٽس	-10.3292
▁استحڪام	-10.3293
▁اعزاز	-10.3294
▁بجاءِ	-10.3294
▁دائم	-10.3295
▁أي	-10.3296
▁ٻيڙي	-10.3298
▁فرم	-10.3299
▁ّ	-10.3302
▁معافي	-10.3317
▁سنئو	-10.3317
▁رهائش	-10.3319
▁اردو	-10.3324
ٽو	-10.3326
▁فريم	-10.3327
▁اڪيلي	-10.3329
▁ٿڪ	-10.3329
▁وسيلن	-10.3329
▁آثار	-10.333
▁پابند	-10.333
▁برا	-10.3334
▁شاخ	-10.3347
▁سُر	-10.3356
مين	-10.3356
▁چهري	-10.3363
▁ڀلو	-10.3364
▁عيسي	-10.3365
▁ڏيکارڻ	-10.3367
ولي	-10.3368
▁چشم	-10.3374
▁چاھيو	-10.3377
▁فوٽ	-10.3382
%	-10.3385
▁ننڍن	-10.3389
اڙي	-10.3395
▁سولو	-10.3401
▁راڄ	-10.3406
▁2)	-10.3417
▁مشورو	-10.3418
اط	-10.3419
▁اِ	-10.342
▁زهر	-10.3424
▁ٻڌ	-10.3427
▁تجربن	-10.3429
▁ديوار	-10.3432
▁قل	-10.344
▁پنجاب	-10.344
▁سمجهاڻي	-10.3441
▁کٽي	-10.3445
▁ڪتو	-10.345
▁ڪيبل	-10.345
▁تازي	-10.3457
▁be	-10.3458
ارو	-10.3458
▁چاپ	-10.3459
▁دريا	-10.3463
▁آپ	-10.3467
▁خداوند	-10.3474
▁چيٽ	-10.3474
پريم	-10.3482
بس	-10.3482
▁نم	-10.3484
▁واعدو	-10.3485
▁ادارا	-10.3487
▁هنڌن	-10.3489
▁ڊگري	-10.3491
▁ائ	-10.3493
▁رنگن	-10.35
▁صفا	-10.3508
▁مرحلن	-10.3509
▁پورهيت	-10.351
دم	-10.351
▁برآمد	-10.3511
▁خانگي	-10.3515
▁36	-10.3522
▁گا	-10.3523
▁جوڳي	-10.3524
▁باقاعده	-10.3528
▁مبارڪ	-10.3528
▁انچ	-10.3528
▁جادو	-10.3529
سنڌي	-10.3539
ce	-10.354
▁پالڻھار	-10.3546
▁وڪي	-10.3547
links	-10.3552
▁خاتمي	-10.3554
▁مندر	-10.356
▁ٽنگ	-10.3566
▁دروازو	-10.3567
▁قلبي	-10.3568
▁سروي	-10.3572
▁هيلو	-10.3574
▁شاهي	-10.3575
▁ناچ	-10.3576
▁سيشن	-10.3577
▁يقينن	-10.3578
▁XNUMX	-10.3581
▁ڪنيڪشن	-10.3582
▁ننڍپڻ	-10.3582
▁سچو	-10.3584
▁سروسز	-10.3585
▁پرست	-10.3586
▁ذا	-10.3599
▁95	-10.3604
▁سچائي	-10.3605
▁قيامت	-10.3606
▁جنگي	-10.3608
▁پيچ	-10.3608
▁جھ	-10.3617
▁امزح	-10.362
▁اسٽيج	-10.3621
علام	-10.3635
▁اچان	-10.3639
▁تهذيب	-10.3639
▁رينج	-10.3646
▁بچي	-10.3647
▁ميزبان	-10.3648
▁چئو	-10.3651
▁حافظ	-10.3656
▁اختيارن	-10.3657
▁رڪن	-10.3664
▁الحين	-10.3675
▁فراهمي	-10.3676
▁ڏياري	-10.3677
▁سارو	-10.3679
▁ننڍ	-10.368
▁خوشبو	-10.368
▁شدت	-10.369
▁مد	-10.369
▁ڊاڪٽرن	-10.3692
club	-10.3693
▁سرٽيفڪيٽ	-10.3693
▁today	-10.3693
▁متفق	-10.3694
▁معتبر	-10.3694
▁جاني	-10.3699
▁تسلم	-10.371
▁أم	-10.3716
▁صوفي	-10.3728
▁مصيبت	-10.373
▁پيشڪش	-10.373
▁Next	-10.373
▁افيئر	-10.3731
▁آئوٽ	-10.3731
▁غربت	-10.3736
لك	-10.3739
▁وڪري	-10.3751
▁بوٽ	-10.3752
له	-10.3752
▁ٿڌو	-10.3753
رة	-10.3753
▁نڪي	-10.3757
▁ٽڪ	-10.376
▁نج	-10.376
▁خوشيءَ	-10.3767
رح	-10.3772
▁آيس	-10.3773
▁بھتري	-10.3779
▁:)	-10.3779
▁قدمن	-10.3786
▁حوصل	-10.3788
▁رائ	-10.379
▁حادثي	-10.3793
▁48	-10.3794
▁سؤ	-10.3794
▁ديگر	-10.3795
وش	-10.3798
▁بني	-10.3801
▁بيوقوف	-10.3805
▁برنامه	-10.3806
▁ليڪ	-10.3806
▁منتظر	-10.3808
▁ماريو	-10.3813
▁خاموشي	-10.3818
▁سٺا	-10.3828
▁ڪان	-10.3829
ot	-10.3836
▁قطر	-10.3838
▁ڀروسو	-10.3843
▁ڪينسر	-10.3845
حي	-10.3845
▁پائيدار	-10.3847
▁وفا	-10.3851
▁شئي	-10.3856
▁والو	-10.3861
ٰ	-10.3862
▁ڇهه	-10.3863
▁5-	-10.3864
▁شعبن	-10.3866
▁ڏسان	-10.3868
▁لان	-10.3871
طر	-10.3879
▁احتياط	-10.388
▁ڪرسمس	-10.388
▁عيسى	-10.388
يٰ	-10.3884
▁مغربي	-10.3893
▁al	-10.3894
▁ڳالهائيندي	-10.3896
▁رهو	-10.3896
▁وڳي	-10.3897
ia	-10.3906
ir	-10.3914
▁رائع	-10.3917
▁ڊبليو	-10.3923
▁کانئس	-10.3925
▁ونڊ	-10.3934
▁پال	-10.3938
▁ستار	-10.3941
▁ً	-10.3943
▁سياحن	-10.3944
▁متحده	-10.3944
▁سمجھي	-10.3946
▁صلي	-10.3947
توهان	-10.395
▁تخت	-10.3953
▁ايجاد	-10.3957
▁ٽيڪنيڪ	-10.3958
▁وم	-10.396
▁نظرات	-10.3963
▁پايان	-10.3969
▁ريزي	-10.3975
▁گار	-10.3991
▁تبديليون	-10.3993
▁گئس	-10.3998
▁اداڪار	-10.4002
▁يد	-10.4005
▁استادن	-10.4006
▁Ma	-10.4012
▁اجل	-10.4025
▁سائٽ	-10.4028
▁اع	-10.403
▁رازداري	-10.4033
▁صنف	-10.4034
▁ڪه	-10.4034
▁ڀٽو	-10.4034
▁ڇڪڻ	-10.4038
▁{	-10.4044
▁اصولن	-10.4049
▁^	-10.405
اش	-10.4051
▁فائي	-10.4052
▁ڪھڙي	-10.4063
▁ريز	-10.4065
▁پراڻو	-10.4069
▁عرصو	-10.4075
▁نازڪ	-10.4077
▁ڪمال	-10.4087
▁نياز	-10.4089
▁خر	-10.4089
▁تخ	-10.4093
نڊي	-10.4094
▁ضد	-10.4101
▁كي	-10.4102
عليه	-10.4103
▁اخ	-10.4107
▁بدن	-10.4108
▁حذف	-10.411
▁ڪڏھن	-10.411
▁°	-10.4112
سون	-10.4123
تين	-10.4126
▁خانداني	-10.4131
▁هڪدم	-10.414
▁بش	-10.414
▁سائي	-10.4142
20	-10.4143
▁يب	-10.4147
▁لن	-10.4148
ُو	-10.4149
▁ولد	-10.4152
▁تنهنجا	-10.4152
▁الل	-10.4153
▁گهڻيون	-10.4156
سٽر	-10.4163
▁لائيٽ	-10.4167
▁رڪاوٽ	-10.4167
▁منو	-10.4168
▁سدا	-10.417
▁2000	-10.4173
▁حرام	-10.4173
▁هنا	-10.4186
▁ڪيڏو	-10.4191
▁پئسو	-10.4191
▁فاطمه	-10.4194
▁ترسيل	-10.4198
▁پتي	-10.4198
▁شمسي	-10.42
▁ڳوليو	-10.4201
▁احب	-10.4202
▁فٽ	-10.4209
▁رياستن	-10.4212
▁تف	-10.4224
▁پاسورڊ	-10.4227
▁بلوچ	-10.4229
قا	-10.4239
▁شل	-10.4239
▁تل	-10.4241
▁رسيد	-10.4241
▁جاپاني	-10.4244
▁آم	-10.4246
▁وٽان	-10.4248
▁كلها	-10.4248
▁ٻڏ	-10.4249
▁لکين	-10.4257
▁ويزا	-10.4257
جھ	-10.4263
▁سڃاڻي	-10.4266
▁رڙ	-10.4272
▁●	-10.4273
▁گلاس	-10.4273
▁سوين	-10.4277
▁300	-10.429
▁ملازمت	-10.4292
▁هند	-10.4293
▁جناب	-10.4295
▁رسال	-10.4296
▁لال	-10.4297
▁روزي	-10.4302
▁نشاندهي	-10.4305
▁تعاليٰ	-10.4306
▁منجهان	-10.4313
▁رَ	-10.4314
▁سوم	-10.4316
▁خوبي	-10.4318
▁گن	-10.4328
▁ڪريم	-10.433
▁يوسف	-10.4345
▁عيسيٰ	-10.4345
▁مزاج	-10.4345
▁رستن	-10.4345
▁صحبت	-10.4346
▁34	-10.4348
▁جڳھ	-10.4349
▁دٻاء	-10.435
▁انتظامي	-10.436
▁ٽريننگ	-10.4362
▁عڪس	-10.4364
▁لکيا	-10.4366
▁وجه	-10.4367
j	-10.4373
▁هليا	-10.4375
ri	-10.4377
▁جستجو	-10.4384
▁العالم	-10.4385
▁پليئر	-10.4388
ئو	-10.4389
▁حج	-10.439
▁منڊي	-10.4399
li	-10.4408
▁سکو	-10.4411
▁چهرو	-10.4415
آن	-10.4417
▁معروف	-10.4424
▁ڊو	-10.4428
▁نفسي	-10.4429
▁ڪڍڻ	-10.4433
▁نيم	-10.4435
▁ئون	-10.4437
▁ايپس	-10.4445
▁تحياتي	-10.4446
▁رپيا	-10.4452
▁پيوند	-10.4453
▁نسخ	-10.4456
▁ندس	-10.446
▁پڇ	-10.4461
▁منتخب	-10.4464
id	-10.4474
▁احنا	-10.4478
▁ديوان	-10.4482
▁ٿورا	-10.4483
▁طي	-10.4494
▁رسمي	-10.45
▁ضايع	-10.4504
▁فحش	-10.4505
un	-10.4511
▁جريان	-10.4512
▁چنين	-10.4512
▁عارضي	-10.4512
▁ڦري	-10.4513
▁;	-10.4514
▁بيگ	-10.4518
10	-10.452
▁ٿورڙ	-10.452
as	-10.4525
ig	-10.454
▁همت	-10.4543
▁ظالم	-10.4545
▁هيء	-10.4545
▁حاجي	-10.4545
▁مذاق	-10.4546
▁پکڙي	-10.4547
عد	-10.4553
▁خطاب	-10.4554
▁ايڏي	-10.4559
▁The	-10.4561
▁هَ	-10.4563
▁تكون	-10.4565
ٽڪ	-10.4569
▁ماما	-10.4577
ie	-10.4578
▁عمران	-10.4584
▁قيادت	-10.4585
▁پبلڪ	-10.4585
▁مداح	-10.4586
▁ريو	-10.4586
▁جدت	-10.4587
▁چونڊيل	-10.4587
▁انسٽاليشن	-10.4587
ڏي	-10.4592
▁ڏسجي	-10.4593
▁سس	-10.4598
▁ند	-10.4599
▁ووو	-10.46
▁قبيل	-10.4603
▁الج	-10.4605
▁سنڌو	-10.4612
▁خبردار	-10.4616
▁سوار	-10.4623
▁سنگاپور	-10.4626
اح	-10.4628
▁99	-10.4634
lo	-10.4637
▁شفا	-10.4638
▁مجموعو	-10.4639
▁موٽڻ	-10.4651
▁قيمتون	-10.4666
▁iOS	-10.4667
▁ٽرمپ	-10.4668
إ	-10.4671
▁مخالفت	-10.4673
▁on	-10.4683
▁تابع	-10.4686
▁اكل	-10.4687
▁اق	-10.4688
▁مِ	-10.469
▁وهم	-10.4692
▁مادر	-10.4693
▁لاس	-10.4695
امي	-10.4695
▁اينٽي	-10.4699
▁طريق	-10.4701
▁شود	-10.4701
▁Twitter	-10.4708
▁لائبريري	-10.4708
▁ڪٽنب	-10.4708
▁خالد	-10.4712
▁الخ	-10.4713
▁آهه	-10.4718
▁گلاب	-10.4718
مير	-10.4723
▁ڪوريا	-10.4723
▁يهمك	-10.4726
▁ڪشمير	-10.473
▁رويي	-10.4744
منهنجي	-10.4745
▁صدا	-10.4748
▁نمونو	-10.4749
▁بلوچستان	-10.4749
▁بنجي	-10.475
▁بيٺي	-10.475
▁رهيس	-10.4751
▁رستا	-10.4752
▁پاسخ	-10.4755
▁ٻلي	-10.4765
ـــــــــــ	-10.4769
▁پيڊ	-10.4771
▁هيه	-10.4776
▁ڊيگهه	-10.479
▁قاتل	-10.479
▁ٻاھر	-10.479
▁دهشتگردي	-10.4792
▁يع	-10.4792
▁برائوزر	-10.4794
▁هرگز	-10.4795
▁پرت	-10.4807
ent	-10.4812
▁پيارو	-10.4812
▁44	-10.4822
▁ريس	-10.4822
▁ڀڄي	-10.4824
▁سڏي	-10.4829
▁چئلينج	-10.4832
▁رعايت	-10.4832
▁قاضي	-10.4832
▁ڪرنسي	-10.4832
▁ڏنائين	-10.4835
▁ميري	-10.4839
▁رولي	-10.4844
▁ھل	-10.4846
▁چال	-10.4847
▁نِ	-10.4849
▁ربي	-10.4853
تار	-10.4854
▁گاڏين	-10.4856
تها	-10.4859
▁جب	-10.4865
▁پيپلز	-10.4873
▁۔۔	-10.4874
▁آلو	-10.4877
▁شديد	-10.4879
▁ڏسندو	-10.488
▁گهوڙ	-10.4882
▁ڄ	-10.4884
▁وٺن	-10.4902
▁ڀائرن	-10.4902
▁قبضي	-10.4909
▁ڏور	-10.4912
▁6.	-10.4912
▁قر	-10.4912
▁اھم	-10.4913
▁فائدن	-10.4915
▁un	-10.4916
▁2009	-10.4916
▁گليڪس	-10.4917
▁خلا	-10.4924
▁الت	-10.4929
رم	-10.4934
ڻو	-10.4936
▁طبعا	-10.4936
▁نازل	-10.4937
▁كر	-10.4938
▁رشتي	-10.4938
▁سلامتي	-10.494
▁وحده	-10.4943
▁فلمون	-10.4946
▁اثاث	-10.4951
▁ظاھر	-10.4957
▁نظرثاني	-10.4957
▁اسٽريٽ	-10.4966
▁سعيد	-10.4966
▁بدلائي	-10.4976
▁گُ	-10.4976
▁دائري	-10.498
▁گذريو	-10.4986
ڃ	-10.4989
▁ٻول	-10.4989
▁ميٽ	-10.499
▁سمورا	-10.4994
▁گلوبل	-10.5
▁ڏٺا	-10.5001
▁ڊگھ	-10.5002
▁معمول	-10.5007
▁مظاهرو	-10.501
▁چوندي	-10.501
▁اك	-10.5014
▁ڇوڪرين	-10.5016
▁عدم	-10.5016
▁بلي	-10.5018
پا	-10.5023
▁شهرت	-10.5025
▁راڳ	-10.5026
▁تيزي	-10.5035
▁كلام	-10.5039
▁مطالب	-10.5041
▁رقص	-10.5049
▁آگاهي	-10.5059
▁اوي	-10.5067
▁فعلا	-10.5069
▁الق	-10.507
▁اولهه	-10.5071
▁تصويري	-10.5072
ــــــــــ	-10.5073
▁يال	-10.5073
="3	-10.5082
▁جڳهن	-10.5085
▁ڏٺم	-10.5086
▁ميڙ	-10.5088
▁پلگ	-10.5093
▁سکي	-10.5096
يئر	-10.5096
▁ٻُڌ	-10.5097
▁ڳوٺاڻ	-10.5098
▁ڇهن	-10.5099
▁هيٺيون	-10.5104
يك	-10.5105
وحيد	-10.5112
▁بك	-10.5112
▁زو	-10.5115
▁پيپر	-10.512
▁جوڙو	-10.512
▁پوندا	-10.5122
▁ڪنگ	-10.5124
▁مقبول	-10.5125
ڑ	-10.5127
▁بندوبست	-10.5127
▁فروغ	-10.5128
▁ريال	-10.5128
▁موقف	-10.5129
▁غزل	-10.5135
زر	-10.5141
um	-10.5144
▁مز	-10.5145
▁جواني	-10.5146
نهن	-10.5148
ذب	-10.5154
▁ورتا	-10.5156
▁ڏنيون	-10.5156
▁3:	-10.5157
▁هڻ	-10.5164
▁عين	-10.5165
بة	-10.5169
▁اجنبي	-10.517
▁صفحن	-10.517
▁ميلاپ	-10.5171
▁مهارت	-10.5171
▁واشنگ	-10.5173
▁عز	-10.5179
▁ملندڙ	-10.518
▁وسري	-10.5191
▁دعوي	-10.5192
▁بايد	-10.5197
▁سوچيند	-10.5203
آر	-10.5209
▁پرائمري	-10.5213
▁ويندڙ	-10.5214
▁ڪيريئر	-10.5216
▁بنائي	-10.5219
▁نقش	-10.5219
▁خوفنا	-10.5219
▁بچت	-10.5223
▁شفاف	-10.5224
▁بدلجي	-10.5236
▁خوا	-10.5242
▁ڪتا	-10.5242
▁بعدين	-10.5256
▁ٻڌاءِ	-10.5258
▁الش	-10.5258
خر	-10.5263
▁پھري	-10.5265
اها	-10.5267
▁سمجھڻ	-10.5269
▁منها	-10.5275
▁ڪالم	-10.5275
▁اجر	-10.5286
▁قرباني	-10.5288
▁سٺ	-10.5293
▁جيئڻ	-10.5298
▁يهودي	-10.53
▁گائيڊ	-10.5301
▁محقق	-10.5302
▁جيئرو	-10.5304
قت	-10.5306
▁پاڙي	-10.5307
▁اڇو	-10.5327
▁اليڪٽرانڪ	-10.5329
▁א	-10.5333
لى	-10.5333
▁جوش	-10.5334
▁انس	-10.5334
▁ارتقا	-10.5337
▁65	-10.5343
▁ملوث	-10.5344
▁وٺندا	-10.5346
▁پوڻ	-10.535
▁عيب	-10.535
▁(3)	-10.535
آل	-10.5352
▁ڪمن	-10.5353
▁تيئن	-10.5353
▁انجنيئرنگ	-10.5355
▁75	-10.5359
▁ھوندو	-10.536
▁سمور	-10.5362
▁جڙي	-10.5364
▁اونداهي	-10.5366
▁مرا	-10.5367
▁هان	-10.5367
ژ	-10.5374
▁اٽلي	-10.5386
=	-10.5387
▁ڳاڙهو	-10.5387
▁ميونسپل	-10.5388
▁اهلڪار	-10.5389
▁ڪيڏي	-10.5392
▁پئس	-10.5395
▁ريٽ	-10.5404
▁درآمد	-10.5406
▁سينيٽ	-10.5416
▁معرف	-10.5421
▁ڀلائي	-10.5424
▁نيويارڪ	-10.5431
▁فضيلت	-10.5431
▁اضحك	-10.5431
▁((	-10.5432
▁يعطيك	-10.5432
▁تباهي	-10.5432
▁پئسن	-10.5436
▁ورا	-10.5438
▁لَ	-10.544
▁وربي	-10.5442
زا	-10.5442
▁۴	-10.5446
▁کير	-10.5447
▁ناري	-10.5448
▁جذبات	-10.546
▁تڪ	-10.5467
▁سراسري	-10.5469
من	-10.5474
▁فلمن	-10.5475
▁ادائگي	-10.5476
▁اسٽاپ	-10.5476
▁دٻاءُ	-10.5479
▁مادري	-10.5483
▁قلع	-10.5486
▁زيور	-10.5488
▁کڻ	-10.5488
▁رکيا	-10.5488
▁مرتب	-10.5491
▁پُ	-10.5494
Y	-10.5496
▁عدد	-10.5497
▁ٽڪيٽ	-10.5498
▁تبي	-10.5501
رب	-10.5509
▁لأن	-10.5512
▁وَر	-10.5523
▁رم	-10.5523
رك	-10.5525
▁فائرنگ	-10.5526
▁جوڙ	-10.553
▁حجم	-10.5535
▁الضحك	-10.5538
▁راجا	-10.5542
urname	-10.5548
▁پيرس	-10.5556
▁ٺاهيندڙن	-10.5558
▁ضرب	-10.556
▁جائز	-10.5561
▁اپليڪيشن	-10.5565
▁حيدرآباد	-10.5565
▁ايڊيٽر	-10.5565
▁آهي۔	-10.5565
ry	-10.5567
بار	-10.5567
▁تناسب	-10.5567
▁حامي	-10.5569
دن	-10.557
▁ابن	-10.557
▁ڳوليندا	-10.557
▁خي	-10.5572
▁پروڊڪٽس	-10.5572
▁ڪيڏانهن	-10.5574
▁بيحد	-10.5575
گري	-10.558
كس	-10.5584
▁مٽائي	-10.5585
▁همراهه	-10.559
▁چورس	-10.5595
▁ساله	-10.5597
بط	-10.5599
▁ڪِ	-10.5599
▁مڪي	-10.5601
▁گاهه	-10.5603
▁فنا	-10.5603
▁الص	-10.5605
▁ڪرپشن	-10.561
ive	-10.561
▁سهڻ	-10.561
▁معقول	-10.561
▁پئمان	-10.561
▁پويون	-10.5614
▁عزم	-10.5616
▁لهر	-10.5617
ate	-10.5619
▁ڊر	-10.5622
▁جپان	-10.5623
وع	-10.5627
▁وهو	-10.5629
▁ڇڏيندي	-10.5633
▁ڙا	-10.5642
▁وڻي	-10.5645
▁جملو	-10.5646
▁سندي	-10.5646
▁مٽ	-10.5651
▁ڪڍيو	-10.5651
▁لشڪر	-10.5655
▁گز	-10.5656
▁هائي	-10.5657
▁2007	-10.5657
▁ڌيء	-10.5658
▁فال	-10.5677
▁سهي	-10.5679
▁ڪرسي	-10.5686
▁ation	-10.5687
رف	-10.5688
▁ويز	-10.5693
▁ڊرام	-10.5693
▁وڄ	-10.5694
▁سوسائٽي	-10.57
▁ايسوسيئيشن	-10.57
▁هوشيار	-10.5701
▁ڪلچر	-10.5701
▁Q	-10.5704
▁ڏينداسين	-10.5705
▁رين	-10.5707
▁نانگ	-10.5708
▁بچاء	-10.5711
▁39	-10.5713
▁بگ	-10.5717
ذر	-10.572
▁مجازي	-10.5721
▁شئ	-10.5729
▁or	-10.5734
▁بِ	-10.5742
▁پذير	-10.5743
revious	-10.5745
▁استنبول	-10.5745
▁امارات	-10.5745
▁توازن	-10.5745
▁اونهاري	-10.5746
▁رمضان	-10.5746
▁۔۔۔۔	-10.5747
▁چمڪندڙ	-10.5748
▁مجلس	-10.5748
▁رضا	-10.575
▁سرگرم	-10.5751
▁چيس	-10.5751
ay	-10.5751
▁نعمت	-10.5755
▁ترڪ	-10.5759
▁دفاع	-10.5762
▁سيٽنگ	-10.5764
▁ڪتب	-10.5766
بقى	-10.5768
▁زندگيء	-10.5771
▁فرا	-10.5777
▁ڇڪي	-10.5782
▁دفن	-10.5783
ood	-10.5783
ine	-10.5785
▁انو	-10.5787
▁حفاظتي	-10.5787
▁فائونڊيشن	-10.5791
▁سگهجن	-10.5791
▁رابطن	-10.5792
▁رانديگر	-10.5792
▁اشتهارن	-10.5793
▁هٿيار	-10.5794
▁قريب	-10.5795
▁سِ	-10.5799
▁بط	-10.58
▁آئيني	-10.5808
▁37	-10.5811
▁مشن	-10.5831
▁وڻن	-10.5832
▁عمري	-10.5832
▁نان	-10.5832
▁بغاوت	-10.5837
▁کی	-10.5839
▁بيس	-10.5842
▁اخت	-10.5843
▁نجات	-10.5843
عل	-10.5843
▁موقعا	-10.5843
▁بلين	-10.5848
يق	-10.5848
▁ويسٽ	-10.5856
▁ٽيپ	-10.5859
▁بق	-10.5861
كل	-10.5863
▁ذخيرو	-10.5866
▁پروسيس	-10.5869
▁1000	-10.5878
قدر	-10.5881
▁طلع	-10.5881
▁پگهار	-10.5883
▁جسٽس	-10.5886
ائل	-10.5887
▁صوبائي	-10.5888
▁سواري	-10.5889
▁جعل	-10.589
▁زوال	-10.5894
▁In	-10.5895
▁بحري	-10.5898
▁بندر	-10.5902
▁ساحل	-10.5904
▁st	-10.5906
▁ٿيس	-10.5907
▁اص	-10.5908
▁جِي	-10.5919
▁بيني	-10.5921
▁مزي	-10.5921
▁ناز	-10.5923
▁بدون	-10.5924
▁اڏاوت	-10.5929
▁مايوس	-10.593
▁ڇپائي	-10.5931
▁چُ	-10.5934
▁آبي	-10.5936
▁نيون	-10.5936
▁نظريو	-10.5938
▁پلان	-10.5955
▁ڀرڻ	-10.5957
▁منجھ	-10.5961
ta	-10.5974
▁الو	-10.5974
▁گذار	-10.5976
▁ايڪٽ	-10.5981
▁اڄڪلهه	-10.5981
▁قابو	-10.5983
▁بقول	-10.5991
يء	-10.5991
داد	-10.5994
▁آيد	-10.5994
▁ڪش	-10.5995
خت	-10.601
▁منشي	-10.6014
ers	-10.6015
▁راحت	-10.6022
▁فائر	-10.6022
▁بجي	-10.6023
▁تعالى	-10.6024
▁ضمير	-10.6024
▁مقدس	-10.6025
▁سرد	-10.6029
▁بڻج	-10.6031
▁پيشه	-10.6035
▁سپ	-10.6036
▁by	-10.6051
▁شمار	-10.6055
ناڊا	-10.6067
▁برچسب	-10.6069
▁ڀڃڪڙي	-10.6069
▁سلطان	-10.6069
▁مهينو	-10.607
▁دوزخ	-10.607
▁آخ	-10.6071
XNUMX	-10.6072
▁نيل	-10.6079
▁ميزباني	-10.6081
▁گذر	-10.6081
▁چئجي	-10.6089
▁نعم	-10.6091
▁درج	-10.6091
▁حقوق	-10.6094
▁8.	-10.6102
▁پڇا	-10.6105
▁گور	-10.6108
▁احسن	-10.6109
▁وصل	-10.6115
رز	-10.6116
▁اطمينان	-10.6117
▁مواصلات	-10.6117
▁چر	-10.6118
▁مديريت	-10.6118
▁شناسي	-10.6119
نج	-10.6119
▁ڪپڙي	-10.612
▁u	-10.612
▁امور	-10.6123
▁400	-10.6124
،000	-10.6126
▁De	-10.6128
▁وك	-10.613
فل	-10.6133
▁ڪڍ	-10.6133
▁قادر	-10.6134
▁4:	-10.615
▁پيڪيج	-10.6155
▁انقلابي	-10.616
▁عهدي	-10.616
▁تک	-10.6163
▁اسٽاف	-10.6164
▁دراصل	-10.6166
▁ٽول	-10.6173
▁ٽولي	-10.6176
▁ڏاڍا	-10.6179
کو	-10.618
▁پيروزي	-10.6182
▁ڪٽڻ	-10.6185
▁ميٽرو	-10.6192
▁پروگرامن	-10.6195
▁چمڪ	-10.6202
▁پاڻمرادو	-10.6212
▁ليٽ	-10.6221
▁پيون	-10.6224
▁پيڪ	-10.6231
▁پيرا	-10.6241
▁مك	-10.6241
▁ذي	-10.6246
▁هيئن	-10.6247
▁اثرائتي	-10.6248
▁ليک	-10.625
▁اڏي	-10.6252
▁فرار	-10.6257
▁بھتر	-10.6258
▁حتم	-10.6258
▁منافع	-10.6259
▁صادق	-10.6259
▁فاتح	-10.626
▁اغوا	-10.6261
▁نسبت	-10.6272
▁سڏيند	-10.6278
▁ٺاهيندڙ	-10.6281
▁اله	-10.6284
▁ڊوائيسز	-10.6284
سو	-10.6285
وق	-10.629
▁پناهه	-10.6291
▁هيرو	-10.6292
رين	-10.6297
▁ڳوڙهي	-10.6302
تم	-10.6303
▁بور	-10.6303
▁سڪي	-10.6305
▁غالب	-10.6307
▁سلطنت	-10.6307
▁سگريٽ	-10.6307
▁برازيل	-10.6307
ڏو	-10.6308
▁نڪتل	-10.6308
▁معطل	-10.6308
▁ٻوڏ	-10.6308
▁مرحلو	-10.6308
▁سنجيده	-10.6308
▁خوشگوار	-10.631
جيڪڏهن	-10.6311
▁سمر	-10.6317
▁ڦٽ	-10.6323
▁نديم	-10.6326
▁قمر	-10.6332
▁مدري	-10.6336
▁ڀل	-10.6338
▁افتتاح	-10.6341
ضي	-10.6351
▁لڳندي	-10.6362
▁بزنس	-10.6363
▁پولي	-10.6367
حق	-10.6369
▁ڌرين	-10.6381
▁ڀڄ	-10.6389
▁رھ	-10.6389
▁عقيد	-10.6392
ڪلهه	-10.6392
ئه	-10.6399
▁جمعي	-10.6401
▁زخم	-10.6403
▁يعنى	-10.6404
پل	-10.6406
▁ڪوپن	-10.6407
اڪ	-10.6408
يعني	-10.6409
▁وڻندڙ	-10.6416
▁وحدت	-10.6417
▁بع	-10.6419
▁اختيارين	-10.6419
ac	-10.6421
▁ير	-10.6425
ڪالهه	-10.6426
▁ميرا	-10.6427
اوي	-10.6428
▁بيمارين	-10.6435
▁ڪائي	-10.6449
SCL	-10.645
چر	-10.6451
▁ڄمار	-10.6455
▁ڀٽائي	-10.6455
لر	-10.6456
▁پوک	-10.6457
▁چاهيندو	-10.6462
▁ڳوڙها	-10.6467
ST	-10.6471
▁۳	-10.6472
▁ليڊر	-10.6477
يڪل	-10.6481
▁47	-10.6482
جڻ	-10.6485
▁دخل	-10.6487
▁سهولتون	-10.65
▁WhatsApp	-10.6502
▁€	-10.6502
▁ماشاء	-10.6505
▁شپنگ	-10.6508
رد	-10.6508
▁ماس	-10.6513
▁43	-10.6513
▁انتظاميه	-10.6516
▁سکيو	-10.6518
▁we	-10.6521
ئس	-10.6527
▁شكلها	-10.6527
▁ٺهي	-10.6532
اااااا	-10.6538
▁98	-10.6539
▁مرة	-10.654
رڪ	-10.6543
▁پڙ	-10.6548
▁ريڪارڊ	-10.6551
▁سافٽويئر	-10.6552
▁نگار	-10.6554
▁تِ	-10.6554
▁پهتي	-10.6556
▁ڏسون	-10.6557
▁موهن	-10.656
▁جزو	-10.6564
كه	-10.6567
▁خيالي	-10.6572
▁گيٽ	-10.6573
▁معز	-10.6574
فه	-10.6575
▁ناڪامي	-10.6576
▁ڪاميٽي	-10.6577
▁تحفا	-10.6577
▁چوٿون	-10.6582
▁چالو	-10.6585
▁55	-10.6585
▁ڄائو	-10.6601
▁انڊين	-10.6603
▁تجنن	-10.6604
▁حڪمران	-10.6606
▁گناه	-10.6608
▁تخيل	-10.661
▁پوڙهي	-10.6612
ve	-10.6615
▁وياسين	-10.6622
▁7.	-10.6624
▁اينڊرائيڊس	-10.6627
▁انٽر	-10.6628
ap	-10.663
▁هوم	-10.6631
▁ڪارن	-10.6634
▁فائلن	-10.6642
▁ْ	-10.6643
دل	-10.6643
▁ڏيکاريل	-10.6647
▁گناهه	-10.6649
▁جملي	-10.6652
▁گھڙي	-10.6652
▁فاهم	-10.666
▁ٻوٽي	-10.6661
▁برگ	-10.6668
▁گھ	-10.667
▁انهيء	-10.6674
▁خو	-10.6677
▁برش	-10.6678
to	-10.6683
▁اخلاق	-10.6685
▁قيدي	-10.6688
▁پرس	-10.6692
▁سرگرميون	-10.6692
▁فيهم	-10.6695
ڊا	-10.6697
▁ڪارپوري	-10.6699
▁ٽهڪ	-10.6704
مار	-10.6706
▁بلڊنگ	-10.6706
▁ايڪسڪس	-10.6706
▁ادامه	-10.6708
▁سربراهه	-10.671
▁for	-10.6712
▁بوڪ	-10.6715
▁پڌرو	-10.6716
pe	-10.6716
▁سگهه	-10.6717
▁سڌ	-10.6721
▁الدين	-10.6721
▁تجربا	-10.6723
▁150	-10.6725
▁خد	-10.6727
▁ائڻ	-10.6733
▁شيشي	-10.674
▁رحمت	-10.6743
▁بيوس	-10.6747
▁ڳائڻ	-10.6751
▁نفسك	-10.6753
▁ستن	-10.6755
▁9.	-10.6764
▁مدرس	-10.6767
اڻون	-10.6774
▁ڏيون	-10.6775
▁لاڳاپا	-10.6779
▁آرمي	-10.6781
▁اڙي	-10.6785
▁گند	-10.6785
▁ٿيڻو	-10.6789
▁انتها	-10.6791
▁اخوي	-10.6792
▁خال	-10.6794
▁مشكور	-10.6801
▁Search	-10.6801
▁پروفائل	-10.6801
▁نظرانداز	-10.6804
▁پهتا	-10.6804
▁وبا	-10.6805
گل	-10.6805
▁فائنل	-10.6808
▁مافيه	-10.6809
▁ڇپيل	-10.6811
▁دري	-10.6812
▁اري	-10.6813
▁ارسالي	-10.6814
▁گذرڻ	-10.6819
▁ابا	-10.6819
▁ٍ	-10.6822
▁1)	-10.6823
ex	-10.6825
▁مئل	-10.6826
▁ٻا	-10.6831
▁قي	-10.6833
▁ڀائر	-10.6834
▁ميه	-10.6834
▁هينئ	-10.6835
▁کوڙ	-10.6837
▁ستي	-10.6842
▁اوري	-10.6846
▁اڏام	-10.6847
▁لڳن	-10.6848
ڵ	-10.685
▁پالتو	-10.6853
ائيڊ	-10.6853
▁ڳڻتي	-10.6854
▁اسپيڪر	-10.6854
▁گهريلو	-10.6854
up	-10.6855
▁بنات	-10.6855
▁وٺندڙ	-10.6858
▁مڃڻ	-10.6862
▁لکت	-10.6863
اص	-10.6865
▁اخذ	-10.6866
ناڪ	-10.6873
▁نيري	-10.6873
▁بيا	-10.6873
▁آمريڪ	-10.6879
پو	-10.6897
▁ٽرڪ	-10.69
▁فلو	-10.6901
▁وب	-10.6902
▁ناراض	-10.6902
ڱ	-10.6908
▁نقشو	-10.6909
▁گولڊ	-10.6911
▁رويو	-10.6912
▁زرع	-10.6916
گان	-10.6917
▁ٽيوب	-10.6918
▁سارا	-10.6921
▁قيمتن	-10.693
▁شم	-10.6931
▁سازش	-10.6932
▁لائيو	-10.6948
▁شال	-10.6949
▁ڪڙي	-10.695
▁مصنوع	-10.695
▁كو	-10.695
ُن	-10.6952
▁ورزش	-10.6955
▁غلطيون	-10.6957
▁خبرن	-10.6959
▁كانت	-10.696
▁گردش	-10.696
▁ضمن	-10.6968
ووووو	-10.697
▁سلو	-10.6975
▁ولو	-10.6975
وسط	-10.6979
▁مولانا	-10.6983
▁es	-10.7003
▁اڪيڊمي	-10.7006
▁ٽرانس	-10.7007
▁بدلائڻ	-10.7008
▁ڪيفيت	-10.7015
▁يوناني	-10.7017
▁پھرين	-10.7018
▁اهوئي	-10.7019
▁شق	-10.702
▁ھوندي	-10.7025
پری	-10.7028
▁هوش	-10.7034
▁روش	-10.7035
▁قو	-10.7041
▁فرمائي	-10.7042
▁ودي	-10.7047
▁اڳواڻي	-10.7049
▁ترقيات	-10.705
▁ضم	-10.7053
▁کرد	-10.7057
icrosoft	-10.7058
▁زرداري	-10.7059
▁سهار	-10.7063
▁ديد	-10.7072
▁درس	-10.7072
▁عرفت	-10.7076
▁امريڪا	-10.7076
▁ضابطن	-10.7092
▁زر	-10.7095
هآ	-10.7096
▁z	-10.7097
▁وٽس	-10.7104
▁زياد	-10.7105
الله	-10.7105
يات	-10.7106
▁اٿن	-10.7108
▁مم	-10.7109
▁نصيحت	-10.711
▁پاؤڊر	-10.711
▁Home	-10.711
▁صلاحڪار	-10.7114
▁ڏيندس	-10.7116
J	-10.7117
▁con	-10.7119
▁اوپن	-10.7119
▁سحر	-10.7122
▁لهڻ	-10.7123
▁موڪليل	-10.7127
▁ملا	-10.7132
▁فيصلا	-10.7132
▁مدير	-10.7133
▁سنگت	-10.7135
▁۵	-10.7136
▁ڊا	-10.7138
▁نوع	-10.7139
▁نيرو	-10.7143
▁عد	-10.7145
▁زمر	-10.7146
▁غيرها	-10.7152
▁سوٽ	-10.7154
▁اط	-10.7155
3">	-10.7155
▁[.	-10.7155
▁داخلي	-10.7158
▁الر	-10.7161
▁دستخط	-10.7162
▁زراعت	-10.7162
▁ليك	-10.7168
▁ماه	-10.717
▁گھڻن	-10.717
▁La	-10.7176
▁خوبصورتي	-10.7177
▁مدي	-10.7179
▁ڪونھي	-10.7181
▁ڳالهائيند	-10.7185
ation	-10.7186
▁گس	-10.7186
▁رٿ	-10.7189
▁ڏاه	-10.7189
av	-10.7193
▁لأ	-10.7194
▁چت	-10.7197
▁آيون	-10.7201
▁مليون	-10.7205
▁ورهائي	-10.7208
▁پايه	-10.7209
▁والا	-10.7212
▁قرب	-10.7213
▁راهي	-10.7214
▁انٽرفيس	-10.7215
▁ڪمشنر	-10.7215
▁ناصر	-10.7215
▁مخلوق	-10.7215
▁رليز	-10.7222
▁38	-10.7224
▁لوڻ	-10.7231
▁سوز	-10.7233
▁مائٽن	-10.7242
▁ٽڪرا	-10.7253
▁منه	-10.7254
▁ڦير	-10.7255
▁مارو	-10.726
اسي	-10.7266
▁ٌ	-10.7267
▁تشخيص	-10.7268
▁گورنر	-10.7268
ant	-10.727
▁ٻوليون	-10.727
▁هدف	-10.7273
▁ملندا	-10.7274
*	-10.7275
▁ليٽر	-10.7277
▁هڻڻ	-10.7279
ٽا	-10.728
▁ڳري	-10.7283
۱	-10.7285
▁جرم	-10.7289
▁ھنن	-10.729
▁ڪيپ	-10.7293
▁ضابطو	-10.7299
▁امل	-10.7304
▁دستاويزن	-10.7306
▁ايراضي	-10.7306
▁ائن	-10.7308
▁خوشحالي	-10.731
▁فو	-10.7311
▁بيل	-10.7312
▁فلسطين	-10.7313
▁تق	-10.7313
▁مدار	-10.7316
▁بحر	-10.7317
▁کول	-10.7325
▁ڪوڪيز	-10.7325
▁خاتمو	-10.7326
▁لڙڪ	-10.7326
▁منع	-10.7329
▁ڪڪڙ	-10.7329
▁دن	-10.7331
ويب	-10.7333
om	-10.7335
▁ويهڻ	-10.7335
▁فضا	-10.7339
▁نت	-10.7339
ڇ	-10.7341
▁ٻڌڻي	-10.7341
▁00	-10.7344
▁رائيٽ	-10.7346
▁ٻڌايان	-10.7353
▁مق	-10.7358
▁مٿو	-10.7367
▁3)	-10.737
▁مبتلا	-10.7374
▁سرواڻ	-10.7375
▁اسپيڊ	-10.7376
▁اڻو	-10.7377
▁نص	-10.7381
▁سمورو	-10.7381
▁پُٽ	-10.7384
مند	-10.7385
▁صوب	-10.7385
ill	-10.7386
▁مج	-10.7388
▁گرو	-10.7391
▁--	-10.7401
▁کس	-10.7403
▁عثمان	-10.7403
▁نوڪر	-10.7404
▁زينب	-10.7406
▁عرف	-10.7406
گاه	-10.7408
▁سمجهندا	-10.741
di	-10.7413
ائين	-10.7413
▁جام	-10.7413
حد	-10.7424
جهي	-10.7424
▁ؤ	-10.7425
▁85	-10.7426
▁خواهي	-10.7427
▁لامحدود	-10.7428
▁اعتراف	-10.7428
▁مھل	-10.7429
▁لچڪدار	-10.7429
▁ڄام	-10.743
▁بلاول	-10.7432
▁تقريباً	-10.7432
▁مئنيجر	-10.7433
▁انتظاميا	-10.7434
▁روئڻ	-10.7436
ډ	-10.7437
▁مھرباني	-10.7439
▁ساڄ	-10.7441
▁ائپ	-10.745
▁ڏات	-10.7453
▁ريلي	-10.7461
▁گيم	-10.7468
▁نسبتا	-10.7476
▁ڪيڪ	-10.7477
▁اڳوڻ	-10.7479
▁فيچر	-10.748
▁اوچائي	-10.7482
▁مسڪين	-10.7483
صير	-10.7486
▁آصف	-10.7486
▁آري	-10.7486
▁ٽٽ	-10.7488
▁نشانيون	-10.7488
▁نسيت	-10.7489
▁IP	-10.749
▁محترم	-10.7492
▁مائٽ	-10.7514
▁گرد	-10.7519
▁ماشي	-10.752
▁ساڳيا	-10.7521
ڪشن	-10.7522
▁هيچي	-10.7525
▁هٽ	-10.7526
▁جزا	-10.7526
▁برابري	-10.7527
▁ترجمان	-10.7529
▁پاسپورٽ	-10.7537
▁انجمن	-10.7537
▁عبرت	-10.7537
▁🙂	-10.7537
▁سلي	-10.7537
▁موڙي	-10.7539
▁سيني	-10.7539
▁گروهه	-10.7541
▁اجمل	-10.7541
ږ	-10.7542
▁پڇو	-10.7544
▁آٽو	-10.7545
▁قطع	-10.7551
▁فضل	-10.7554
▁يونان	-10.7559
▁رواني	-10.7563
▁دڙ	-10.7563
▁اُٿي	-10.7563
▁it	-10.7566
me	-10.7573
▁سڪون	-10.7573
جا	-10.7588
▁نشر	-10.7588
▁سينگار	-10.7591
▁ريسرچ	-10.7591
waz	-10.7592
▁پيٽرول	-10.7593
▁سوني	-10.7595
▁ٻولهه	-10.7595
ئل	-10.7597
▁ووڊ	-10.7602
▁اوس	-10.7614
ليٽ	-10.7615
▁بَ	-10.7618
▁چونڊون	-10.7618
▁en	-10.763
▁بچه	-10.7634
▁سرخ	-10.7635
وٽو	-10.7637
▁سلم	-10.7639
▁هُئا	-10.7645
▁علام	-10.7646
▁پروژه	-10.7646
wami	-10.7646
طور	-10.7647
▁سگهيس	-10.7647
▁ٿِي	-10.7649
▁فهد	-10.7649
▁عكس	-10.7653
▁آزمائشي	-10.7653
▁لکندو	-10.7656
▁كرد	-10.7659
▁تارن	-10.7661
▁حالانڪه	-10.7662
▁برائي	-10.7663
▁امڙ	-10.7664
▁لڏي	-10.7667
▁قوي	-10.7669
▁64	-10.7672
▁طر	-10.7677
▁ورڊ	-10.7678
▁مول	-10.7678
▁راج	-10.7686
▁شفت	-10.7686
▁پرهيز	-10.7702
▁ميوزيم	-10.7702
▁لائٽ	-10.7703
▁يسلمو	-10.7704
▁اسڪيم	-10.7704
▁فهم	-10.7704
Z	-10.7712
▁قولي	-10.7712
▁لکن	-10.7723
▁ديدار	-10.7725
and	-10.7733
▁وها	-10.7734
▁پيسا	-10.7738
▁مصري	-10.7746
اسين	-10.7747
▁باھ	-10.775
▁تقدير	-10.7757
▁ملهايو	-10.7757
▁ھيو	-10.7757
▁ورڈ	-10.7758
▁ماستر	-10.7762
▁ونڊو	-10.7763
▁سليمان	-10.7772
▁Sindhi	-10.7774
▁بدين	-10.7776
▁رپي	-10.7779
گا	-10.7793
▁جھڙي	-10.7797
▁as	-10.7798
▁ابر	-10.78
▁چوڪ	-10.7804
▁ڳا	-10.7813
▁الد	-10.7813
▁اسسٽنٽ	-10.7813
▁واڌارو	-10.7814
▁ٽتوٽ	-10.7815
▁ڪپڙو	-10.7815
مال	-10.782
▁pro	-10.782
▁le	-10.7822
▁پرواهه	-10.7826
▁دهلي	-10.7827
▁گرفتاري	-10.7832
آئون	-10.7834
▁وع	-10.7835
ئڻ	-10.7836
▁برد	-10.7837
▁سهولتن	-10.7839
▁Pro	-10.784
▁واٽر	-10.7841
ئا	-10.7841
▁مارڪيٽن	-10.7847
▁گادي	-10.7851
▁پوکي	-10.7852
▁ڪيف	-10.7857
▁آزمائش	-10.7865
▁مرو	-10.7866
▁کانپوء	-10.7866
▁انشورنس	-10.7869
▁ماشى	-10.7869
▁ساخت	-10.7871
▁ڪارا	-10.7879
▁رهواسي	-10.788
▁ميلي	-10.7884
▁يمن	-10.7884
هههه	-10.7896
▁سپاهي	-10.7898
▁شرٽ	-10.7901
▁پک	-10.7903
▁باني	-10.7905
رائي	-10.7916
▁الب	-10.7919
▁انسٽاگرام	-10.7926
▁ھدايت	-10.7926
▁معاون	-10.7926
▁بيٺا	-10.7927
▁(4)	-10.7932
▁عذر	-10.7932
▁بندوق	-10.7933
▁برڪت	-10.7935
آت	-10.7937
▁88	-10.7937
▁ورهي	-10.7939
▁ڊچ	-10.7939
▁وووو	-10.7944
est	-10.7949
ڪٽ	-10.7953
▁ڄاڻاي	-10.7957
▁ڪجو	-10.7958
ــــــــــــــــ	-10.7961
▁تب	-10.7963
▁شوقين	-10.7968
پور	-10.7973
▁دى	-10.7973
▁عليهم	-10.7977
▁شك	-10.798
▁ڊويزن	-10.7982
▁ميڪسيڪو	-10.7983
▁جذبي	-10.7984
▁اُھي	-10.7997
▁لوگو	-10.7997
▁بيبي	-10.7999
▁بادل	-10.8003
▁کاري	-10.8006
▁مالڪن	-10.8008
▁جاڳي	-10.8017
▁زميندار	-10.8017
▁پهلو	-10.8017
ڍ	-10.8023
ية	-10.8033
▁فكر	-10.8035
▁رهبر	-10.8036
▁اليڪٽرڪ	-10.804
▁وبعدين	-10.804
▁ڪابينا	-10.804
▁ڪامرس	-10.8041
▁جميله	-10.8042
▁چادر	-10.8042
▁نينهن	-10.8043
▁لائي	-10.8045
▁ڪارخانو	-10.8048
▁جس	-10.8053
▁ديگري	-10.8053
▁مسكين	-10.806
▁جاڳ	-10.8063
▁يآ	-10.8067
▁صدق	-10.807
▁شپ	-10.8071
▁وصولي	-10.8076
▁ڪڪر	-10.8078
ھن	-10.8082
▁پين	-10.8094
▁برعڪس	-10.8097
▁ظهور	-10.8097
▁لب	-10.8097
▁اند	-10.8097
▁ورتل	-10.8098
▁la	-10.8101
▁ago	-10.8103
▁تڏھن	-10.8103
▁گاهي	-10.8103
▁پست	-10.8105
▁ڪڻ	-10.8106
▁HD	-10.8108
▁جُ	-10.8108
▁قم	-10.8112
▁توهين	-10.8112
اھ	-10.8113
▁فارس	-10.812
▁دوره	-10.8122
▁سكس	-10.8122
▁ياري	-10.8124
▁دلبر	-10.8127
▁پُر	-10.8131
▁حيا	-10.8138
▁بينڪنگ	-10.8138
▁رُ	-10.8142
راج	-10.8147
▁وک	-10.8149
▁ڄاڻان	-10.8156
▁شويه	-10.8157
▁2003	-10.8158
▁Mi	-10.8162
▁ڊن	-10.8164
▁كلامك	-10.8167
▁بقي	-10.8167
▁هِي	-10.8167
able	-10.8168
▁شينهن	-10.8169
عم	-10.8169
▁ڌنڌ	-10.8171
▁سويت	-10.8171
شر	-10.8172
▁مينيجر	-10.8172
▁**	-10.8173
▁اااا	-10.8173
▁کاڌ	-10.8181
▁سريع	-10.8184
▁شار	-10.8191
▁بخ	-10.8195
▁بلڊ	-10.8205
▁Co	-10.8207
▁وارين	-10.8212
▁پرسپوليس	-10.8213
لاڙڪاڻي	-10.8213
▁سمهڻ	-10.8214
حل	-10.8214
▁پائپ	-10.8217
▁تشوف	-10.822
▁man	-10.8222
▁سستا	-10.8222
▁😂	-10.8223
ist	-10.8223
▁گاه	-10.8224
א	-10.8226
▁يارڪ	-10.8232
▁درياهه	-10.8232
▁سمجھيو	-10.8232
▁ويران	-10.8234
▁همٿ	-10.8236
▁پوڊ	-10.8236
▁پڪو	-10.8244
age	-10.8246
▁mo	-10.8249
▁ڪارڪن	-10.8253
▁راس	-10.8255
▁رش	-10.826
▁ڏاڏي	-10.8261
mo	-10.8262
▁دون	-10.827
▁اڳڪٿي	-10.8271
▁ٽيليويزن	-10.8271
▁Play	-10.8271
▁تشريح	-10.8272
▁ڏوهاري	-10.8273
▁all	-10.8273
▁رڪنيت	-10.8275
ion	-10.8276
▁زوج	-10.8276
▁ائون	-10.8276
▁پڪڙي	-10.8276
▁بدترين	-10.8277
▁ے	-10.8278
▁بده	-10.8281
▁آچر	-10.8281
na	-10.8289
▁نز	-10.8291
▁وڙهي	-10.8294
▁هيڏ	-10.8295
▁نقطه	-10.8297
▁نظريات	-10.8298
▁رائي	-10.8299
▁کلڻ	-10.8303
▁جهڙ	-10.8307
▁ٽم	-10.8311
▁چپن	-10.8314
▁لڪير	-10.8315
▁ماڻ	-10.8316
▁سڌار	-10.8317
▁غلامي	-10.8325
ائجي	-10.833
▁پئرس	-10.8331
▁عبدالله	-10.8331
▁بنايو	-10.8332
▁رشيد	-10.8333
▁ly	-10.8333
▁منسوخ	-10.8334
▁امکان	-10.8335
▁سگھان	-10.8335
▁بجد	-10.8338
▁فليٽ	-10.8339
▁سك	-10.834
▁شاديءَ	-10.8341
▁بيشتر	-10.8342
▁سالگره	-10.8345
▁گرفت	-10.8347
▁عالمن	-10.8355
▁محد	-10.8356
▁سستو	-10.8358
▁چري	-10.8363
▁رڻ	-10.8368
▁46	-10.8372
تِ	-10.8377
▁صد	-10.8377
▁عملدارن	-10.8389
▁ڪميونسٽ	-10.8389
▁تلوار	-10.839
▁مهاجر	-10.839
▁ڏجي	-10.8391
▁وسيلا	-10.8391
▁ڳولهي	-10.8393
▁آپريٽر	-10.8394
▁ٽوڪ	-10.8394
▁رجسٽرڊ	-10.8395
▁وارنٽي	-10.8402
مره	-10.8409
▁وصف	-10.8414
▁ورائي	-10.8415
ضح	-10.8416
آم	-10.842
▁سني	-10.8426
▁اجايو	-10.8429
▁راء	-10.8431
انو	-10.8431
▁آله	-10.8435
پپ	-10.8436
▁گهٽائي	-10.8443
▁رنگين	-10.8444
▁ايام	-10.8445
▁فاس	-10.8445
▁تسلسل	-10.8449
▁ليبارٽري	-10.8449
▁شهادت	-10.8449
▁طراحي	-10.8449
▁آبهوا	-10.8449
▁ميمڻ	-10.845
▁ملتوي	-10.845
▁ميس	-10.8452
▁News	-10.8454
▁ڀرجي	-10.8456
▁پڙهند	-10.8464
مثال	-10.8464
▁مڙ	-10.8467
▁يَ	-10.8468
▁وانگي	-10.8469
▁ناهيان	-10.8469
▁الز	-10.8475
▁موج	-10.8476
▁اڀر	-10.8488
▁دة	-10.8493
▁سٽا	-10.8494
▁نقشي	-10.8494
▁شناخت	-10.8509
▁ڳاڙهي	-10.8509
▁پڇاڙي	-10.8511
▁لنڪس	-10.8512
▁منصوبا	-10.8517
▁مضحك	-10.8519
▁كتب	-10.8522
▁اخو	-10.8531
مبر	-10.8537
vi	-10.8537
▁سالم	-10.8542
▁ستر	-10.8545
▁سڏج	-10.8548
▁ٽڪرو	-10.8556
ut	-10.8558
▁جاگرافي	-10.8569
▁شغل	-10.8569
▁that	-10.857
▁ارد	-10.8571
▁هالينڊ	-10.8574
▁طريقه	-10.8574
یکس	-10.8576
▁ٽائون	-10.8577
▁مڪاني	-10.8577
▁ڊبل	-10.8582
▁وما	-10.8583
▁ٺاهه	-10.8584
ګ	-10.8585
سنواريو	-10.8585
▁بدل	-10.8586
▁ابتدا	-10.8587
▁لنا	-10.8589
▁کني	-10.8593
▁گلو	-10.8595
▁چريو	-10.8603
ڇو	-10.8604
▁5:	-10.8608
▁سائيٽون	-10.8616
▁هئائين	-10.8617
▁42	-10.8617
گن	-10.8617
▁سنواريو	-10.8627
▁لميٽيڊ	-10.863
▁اشاعت	-10.863
▁غسل	-10.8631
▁چطور	-10.8632
▁نثار	-10.8633
▁::	-10.8636
وووو	-10.8637
ونه	-10.8638
▁ڪمرو	-10.8643
▁♥	-10.8645
▁درجو	-10.8648
▁ديوتا	-10.8651
▁ڏياريو	-10.8652
▁سنڀالڻ	-10.8656
▁مشاهدو	-10.8663
سوب	-10.8663
▁ايمانداري	-10.8666
الو	-10.8666
▁سائنسدان	-10.8677
▁عش	-10.868
▁آخرت	-10.8683
▁سمجهن	-10.8684
▁نامزد	-10.869
▁اسماعيل	-10.8691
▁زنجير	-10.8691
▁صحافت	-10.8691
▁ڀليڪار	-10.8694
▁اسد	-10.8697
▁بيزار	-10.87
▁پکين	-10.8702
▁جيئري	-10.8706
▁رهائشي	-10.8707
▁ھج	-10.8707
▁زون	-10.8716
▁يح	-10.8733
▁گمان	-10.8737
▁مرڪي	-10.8739
▁پاڙ	-10.874
▁سوڀ	-10.8741
▁منھن	-10.8742
ڀرو	-10.8748
▁اڀياس	-10.8752
▁اُڀ	-10.8752
▁مرحوم	-10.8753
▁an	-10.8757
▁بخشي	-10.8758
▁موزون	-10.8759
▁معائنو	-10.876
mi	-10.8762
▁مرزا	-10.8763
▁جمل	-10.8763
▁گروپن	-10.8768
▁گراف	-10.877
▁بعدي	-10.877
▁نيز	-10.877
▁غي	-10.8772
▁مٿاڇري	-10.8773
▁at	-10.8776
▁نينگر	-10.8777
▁ٽيلي	-10.8785
▁تنھنجو	-10.8785
▁پنجم	-10.8786
▁ويڪر	-10.8794
▁اسڪ	-10.8796
▁مكان	-10.8803
▁بدر	-10.8804
▁ڀاڱي	-10.8814
▁ورهاڱي	-10.8814
ائو	-10.8815
ارا	-10.8816
▁كبير	-10.8817
▁مولا	-10.8817
▁مروري	-10.882
▁):	-10.882
▁بصري	-10.8823
▁me	-10.8829
Q	-10.8831
▁راني	-10.8832
▁جهلي	-10.8832
▁پٺي	-10.8839
لڪ	-10.8842
▁عهد	-10.8843
▁ايون	-10.8852
▁وعد	-10.8853
مز	-10.8856
▁نوڪريون	-10.8864
▁معاك	-10.8866
▁تَ	-10.8871
▁ااااا	-10.8873
▁ايڪسپريس	-10.8876
▁سرانجام	-10.8876
▁پروفائيل	-10.8876
▁افعال	-10.8876
▁محشش	-10.8876
▁ريسٽورنٽ	-10.8876
▁ڪيليفورنيا	-10.8876
▁حفظ	-10.8876
▁ڄاڻايو	-10.8877
▁تعبير	-10.8877
article	-10.8878
بين	-10.8879
▁مف	-10.888
▁کائيندا	-10.888
▁يمه	-10.8881
▁رهبري	-10.8883
▁هاڻوڪ	-10.8885
▁ملت	-10.8887
▁زلزل	-10.889
▁انور	-10.8892
▁ايڪشن	-10.8893
منهنجو	-10.8893
ويت	-10.8897
▁وڌندي	-10.8898
11	-10.8899
▁وهڪري	-10.8902
▁ترى	-10.8908
ـِ	-10.8911
▁ليو	-10.8913
▁ڪشش	-10.8913
▁ورق	-10.8914
▁شخصي	-10.8916
▁حبيبي	-10.892
▁؟؟؟؟	-10.8924
▁گريه	-10.8931
▁you	-10.8937
▁مؤمن	-10.8939
▁ھميش	-10.8939
▁خودڪشي	-10.8939
▁ڦاٽ	-10.8939
▁مقبوليت	-10.8941
▁روزانه	-10.8943
▁ڪيمرا	-10.8947
▁وهڪرو	-10.8948
بند	-10.8949
▁پروسيسر	-10.8949
▁سليم	-10.895
▁dis	-10.8958
▁عارف	-10.8958
▁فكره	-10.8958
▁ڇڏيون	-10.8958
▁ويجھو	-10.8968
▁ويهه	-10.8969
ھا	-10.897
▁ليپ	-10.8971
▁ڦل	-10.8971
ni	-10.8972
▁ذري	-10.8974
▁جري	-10.8974
▁شاھ	-10.8978
▁مارڪس	-10.898
▁ڇوڪر	-10.898
▁موتي	-10.8982
▁لوهه	-10.8986
▁فيڊ	-10.8988
وٽ	-10.8988
▁ڊپارٽمينٽ	-10.9001
▁اوندهه	-10.9001
▁نامناسب	-10.9001
▁شيڊول	-10.9002
▁يزيد	-10.9002
ارڻ	-10.9002
▁پرائيويٽ	-10.9002
▁ڀاڳ	-10.9005
▁LG	-10.9005
▁ذوق	-10.9005
▁ڪاسٽ	-10.9005
▁←	-10.9006
▁فرمان	-10.9007
▁آڻيندو	-10.9008
وڙي	-10.9012
▁ٽور	-10.9016
▁يعرف	-10.9017
000	-10.9018
▁پالڻ	-10.902
▁ڪوششون	-10.902
▁گرام	-10.902
▁ڪڪ	-10.9028
ard	-10.903
▁دوستو	-10.9033
no	-10.9037
▁تعميراتي	-10.9038
ادي	-10.9043
▁پُڇ	-10.9044
ell	-10.9046
▁پٺ	-10.9049
▁برباد	-10.905
▁غني	-10.905
▁ڪئمپ	-10.905
▁حا	-10.9058
▁ڌرم	-10.906
▁خانه	-10.9061
کر	-10.9061
▁می	-10.9062
▁فرنيچر	-10.9065
▁يادداشت	-10.9065
▁پروفيشنل	-10.9065
▁توليد	-10.9065
▁پارچه	-10.9066
▁پيشينه	-10.9066
حم	-10.9067
▁هٽائڻ	-10.9067
▁بايو	-10.9069
▁شاٽ	-10.907
▁اڪيلائي	-10.9071
وقت	-10.9076
▁لڪائي	-10.9077
▁ڀاء	-10.9077
▁اوور	-10.908
▁هدايتون	-10.9081
▁زباني	-10.9085
▁ادخل	-10.9087
▁نوٽس	-10.9089
▁عال	-10.9092
▁ليل	-10.9093
▁عيش	-10.9105
▁مردم	-10.9107
▁اختياري	-10.911
▁اينڪس	-10.911
▁بادشاھ	-10.9112
▁هندستاني	-10.9116
▁موڪليا	-10.9121
▁6:	-10.9121
▁مُنهن	-10.9122
▁يبي	-10.9127
حت	-10.9128
▁محافظ	-10.9128
واضع	-10.9129
▁هٽايو	-10.913
▁مجيد	-10.913
▁پيشگيري	-10.913
ba	-10.9131
▁ڊپٽي	-10.9131
تساب	-10.9131
▁ايوان	-10.9132
ید	-10.9137
▁ٺهرايو	-10.9138
ow	-10.9139
▁ُ،	-10.9142
▁نَ	-10.9143
▁خلص	-10.9145
▁بينڪن	-10.9146
▁نثر	-10.9147
ـُـ	-10.9156
چو	-10.9172
وض	-10.9174
▁هفتا	-10.9175
▁ڊين	-10.9175
ازي	-10.9175
▁سومر	-10.9178
▁قومون	-10.9181
▁جهت	-10.9188
▁خانو	-10.919
▁اڇي	-10.919
▁OEM	-10.9193
▁واجب	-10.9193
▁فيني	-10.9193
▁جھاز	-10.9193
▁لوازمات	-10.9193
▁ٻرندڙ	-10.9195
▁پابنديون	-10.9196
▁پياده	-10.92
▁سؤال	-10.9202
لام	-10.9205
▁چيل	-10.9212
▁ڳائي	-10.9212
▁نادر	-10.9216
▁دانشور	-10.9217
▁ڏج	-10.9218
▁ٺاهيا	-10.9219
▁//	-10.9221
▁}	-10.9225
▁پلانٽ	-10.9227
▁ڏيک	-10.9227
all	-10.9229
▁49	-10.923
▁ايڊيشن	-10.9236
▁ڪوڙي	-10.9241
ابي	-10.9245
▁اسٽوڊيو	-10.9247
▁ويه	-10.925
▁فهمت	-10.9254
▁سنگين	-10.9254
▁محمود	-10.9257
▁معذور	-10.9257
▁عروج	-10.9257
▁وڙهڻ	-10.9257
اطالوي	-10.9258
▁عجبتني	-10.9258
▁سينسر	-10.9262
▁الحمد	-10.9262
▁ليول	-10.9263
▁لنگهي	-10.9264
▁حڪمراني	-10.9268
▁ڪله	-10.9269
[	-10.9274
▁پاي	-10.9274
▁كثر	-10.9279
▁ro	-10.9285
▁رج	-10.9289
ثر	-10.9294
▁ميني	-10.9298
▁لڳڻ	-10.9298
mm	-10.9301
▁لس	-10.9314
▁بيڪار	-10.9316
▁كدا	-10.9317
▁اڻيو	-10.9317
▁مچ	-10.9319
▁عناصر	-10.9322
▁مطلوب	-10.9322
▁ڪامريڊ	-10.9322
▁فرينچ	-10.9322
▁ذائق	-10.9322
▁مزيدار	-10.9323
▁ويٽ	-10.9324
▁روانا	-10.9326
▁فليش	-10.9326
▁جادوگر	-10.9327
ڪڻڪ	-10.9328
▁غيره	-10.9329
▁جبلن	-10.933
▁مُنهنج	-10.933
▁مولوي	-10.9331
▁سٽون	-10.9333
▁منطقي	-10.9337
▁مڙن	-10.9341
▁are	-10.9347
▁واڪ	-10.935
▁منهم	-10.9356
▁کاتو	-10.9364
▁بڻيو	-10.9371
▁جيڪر	-10.9385
▁توان	-10.9385
▁اداس	-10.9387
▁فئڪٽري	-10.9387
▁ممتاز	-10.9387
▁طبيعي	-10.9388
▁شاپنگ	-10.9391
▁درستگي	-10.9392
▁ٽوڙي	-10.9393
▁سيڪنڊن	-10.9394
▁چڱا	-10.9396
ok	-10.9396
ڻا	-10.9397
▁هنيو	-10.9398
▁تفريح	-10.9399
▁الان	-10.94
وج	-10.9402
▁أنت	-10.9406
▁شفته	-10.9407
انگريزي	-10.9408
▁متحد	-10.941
▁ڊڪ	-10.941
▁پان	-10.9413
▁سوري	-10.9414
▁معرفت	-10.9416
▁ذيلي	-10.9421
less	-10.9425
سائين	-10.9426
▁تحفو	-10.9431
▁تور	-10.9444
▁محتا	-10.9444
▁تاثر	-10.945
▁گهرائي	-10.9452
▁رٽائر	-10.9453
▁ٽارگيٽ	-10.9453
▁ڍنڍ	-10.9453
▁لعنت	-10.9453
▁روبوٽ	-10.9454
▁ژ	-10.9454
▁6-	-10.9454
▁صلح	-10.9456
▁هوسٽنگ	-10.9457
▁دادو	-10.9458
▁اعمل	-10.9459
▁کائيندو	-10.9461
▁سمهي	-10.9461
▁چڪ	-10.9461
▁چؤ	-10.9462
▁فولڊر	-10.9464
▁,,,	-10.9468
ټ	-10.9474
▁ڊوڙ	-10.9475
▁لفظي	-10.9477
oti	-10.9479
▁اسوي	-10.9481
▁آزمائي	-10.9482
▁محتاج	-10.9483
▁پرستي	-10.9484
▁ولايت	-10.949
▁رومي	-10.9493
▁ڇهي	-10.9493
▁ديني	-10.9497
▁لاڳاپو	-10.95
▁نوعي	-10.9508
▁معنا	-10.9512
▁زمانو	-10.9512
▁سوئي	-10.9512
▁پارسي	-10.9516
▁Google	-10.9519
▁انسٽيٽيوٽ	-10.9519
▁مؤثر	-10.9519
▁نيڪي	-10.9521
▁مقدم	-10.9522
▁بشمول	-10.9524
▁56	-10.9526
ies	-10.9527
▁فوڊ	-10.9528
▁دعائون	-10.953
ندؤ	-10.9537
ښ	-10.9541
▁ڌي	-10.9545
▁قصه	-10.9547
سنڌ	-10.9557
▁عربن	-10.9559
فته	-10.9564
▁اى	-10.9565
▁ڪوڙو	-10.9566
▁نهاريو	-10.9569
▁j	-10.9572
▁مڃ	-10.9574
▁زياده	-10.9576
▁غار	-10.9579
▁***	-10.9583
▁مينيو	-10.9585
▁فرزند	-10.9586
▁2005	-10.959
شو	-10.9591
▁سوئچ	-10.9593
▁اوٽ	-10.9594
▁نصاب	-10.9596
▁باشد	-10.9596
▁120	-10.9602
جڏهن	-10.9608
وڌيڪ	-10.9608
جڙيل	-10.9608
ھڻ	-10.961
▁وڙ	-10.9611
▁وائرل	-10.9618
▁ڳاله	-10.9625
▁41	-10.9625
▁پراڊڪٽس	-10.9625
جان	-10.9628
▁هفتو	-10.9629
▁لاڳاپ	-10.9632
▁غيرت	-10.9633
وڪ	-10.9633
چه	-10.964
فڪ	-10.9645
▁هيم	-10.9653
▁اڱڻ	-10.9653
▁ڀاڪر	-10.9654
▁سمجهند	-10.9654
▁انتى	-10.9657
▁بچاءُ	-10.9658
▁چيائون	-10.966
▁ڪرايا	-10.9661
▁محب	-10.9661
▁مشڪلات	-10.9663
▁مدين	-10.9665
▁ڏکي	-10.9677
▁آآ	-10.9678
▁ڪبو	-10.9685
▁مغل	-10.9685
▁صفر	-10.9694
▁روڪ	-10.9696
▁ٹ	-10.9698
▁اهڙيء	-10.9699
▁ڏسن	-10.9701
▁نما	-10.9704
▁لهم	-10.9706
▁جمال	-10.9709
▁مياد	-10.971
TC	-10.9716
▁رابط	-10.9717
▁[1]	-10.972
▁مفهوم	-10.9721
▁تصميم	-10.9721
▁ٽيليفون	-10.9721
▁پروٽين	-10.9721
▁ra	-10.9721
▁پئ	-10.9724
▁درجا	-10.9726
▁جمعه	-10.9734
▁77	-10.9734
ائڊ	-10.9736
▁وساريو	-10.9737
▁وجهڻ	-10.9737
▁نفع	-10.9739
▁وليد	-10.9739
ائع	-10.9741
;	-10.9744
▁پريم	-10.975
▁هٽائي	-10.9754
▁ڪوششن	-10.976
▁تعين	-10.9763
ڙڻ	-10.9763
اگ	-10.9764
▁مص	-10.9765
▁لاڙ	-10.9768
▁اڀري	-10.9786
▁آش	-10.9786
ा	-10.9788
▁Bitcoin	-10.9789
▁پائوڊر	-10.9789
▁سيف	-10.9789
▁بغداد	-10.9789
▁ڊيوٽي	-10.9789
ne	-10.9789
▁نڪرندو	-10.979
▁پٺتي	-10.979
▁سفيد	-10.9792
▁تحب	-10.9792
▁گويد	-10.9794
▁جدول	-10.9795
▁پيسٽ	-10.9795
▁ورجن	-10.9796
▁جھڙو	-10.9796
▁ڪرم	-10.9799
▁دانهن	-10.98
▁کردن	-10.98
ٿي	-10.9803
▁عجبني	-10.9807
▁فونز	-10.981
▁اثرائت	-10.9812
▁دوستان	-10.9814
▁ڪاش	-10.9814
▁عدالتي	-10.9827
▁بهادر	-10.9828
▁پادري	-10.9835
▁سوچن	-10.984
▁تبصر	-10.984
▁بچ	-10.9844
▁ٻوٽ	-10.9855
▁ای	-10.9856
▁واسطي	-10.9856
ڼ	-10.9857
▁اپوزيشن	-10.9857
▁نمونن	-10.9859
▁هنگام	-10.9859
▁سازمان	-10.9859
▁باضابطه	-10.9861
▁ڪٿا	-10.9873
▁نيت	-10.9873
▁کپ	-10.9877
▁هير	-10.9884
مد	-10.9884
▁نفسيات	-10.9884
▁صورة	-10.9885
▁رسالت	-10.9885
▁حتي	-10.9886
▁حقيقتون	-10.989
▁بالا	-10.9904
▁حالي	-10.9906
▁تڪڙ	-10.9909
▁ريپ	-10.9912
▁عملدار	-10.9913
▁ڌنڌو	-10.9914
▁ويري	-10.9915
▁ڊولپر	-10.9917
جهه	-10.9917
▁ent	-10.992
▁ليڊ	-10.9921
▁هنر	-10.9921
▁الفا	-10.9926
▁انڪشاف	-10.9926
▁اتوقع	-10.9926
▁انحصار	-10.9926
▁انڊيڪس	-10.9926
▁سرزمين	-10.9926
▁ڪينيڊا	-10.9926
▁كار	-10.9926
▁سانچو	-10.9926
▁وادي	-10.9926
▁دفتر	-10.9926
▁فائبر	-10.9926
▁محفل	-10.9927
▁ٽاور	-10.9929
▁ٺهڻ	-10.9929
▁هفتيوار	-10.993
▁خالق	-10.993
▁عندنا	-10.9931
▁نش	-10.9933
▁اكبر	-10.9935
▁ڪروم	-10.9935
هڻ	-10.9938
▁کنيد	-10.994
▁اسڪين	-10.9941
▁نكته	-10.9945
▁پناه	-10.9946
▁نٽ	-10.9948
▁بح	-10.9948
▁دارد	-10.9948
▁پڄ	-10.9949
▁مبين	-10.995
▁ڀنگ	-10.9952
▁وارڊ	-10.9954
▁آقا	-10.9962
▁کاڌا	-10.9963
گار	-10.9963
▁هِت	-10.9966
وح	-10.9968
▁کش	-10.997
ڪڙ	-10.9972
▁تير	-10.9972
▁نهاري	-10.9972
▁se	-10.998
▁تارا	-10.9986
ight	-10.9988
▁بُ	-10.9991
▁ڏوه	-10.9994
يار	-10.9995
▁زيارت	-10.9997
▁Mau	-10.9999
▁2006	-10.9999
▁مطلق	-10.9999
▁مدني	-11
▁آرامده	-11.0001
▁پیش	-11.0001
▁تكم	-11.0002
▁انتظر	-11.0003
▁هندوستان	-11.0005
الا	-11.0007
▁[/	-11.0008
▁وڃون	-11.0008
▁عس	-11.001
▁سڙي	-11.001
▁پرائي	-11.0012
▁لائنز	-11.0017
▁ٽيمن	-11.0026
▁سمو	-11.0027
▁پالي	-11.003
▁ئه	-11.0033
يج	-11.0033
▁53	-11.0035
▁ٻر	-11.0038
▁اينديون	-11.0038
▁ٻيلي	-11.0039
▁روزو	-11.0043
▁مالياتي	-11.0045
▁گياهي	-11.0045
▁گڏو	-11.0054
▁أخي	-11.0065
▁سامعين	-11.0065
▁اٿارٽي	-11.0066
▁اقليت	-11.0067
▁كا	-11.0067
▁گشت	-11.0068
▁صنعتن	-11.007
mp	-11.0072
▁سيم	-11.0076
▁حادث	-11.0077
▁86	-11.0081
▁هئم	-11.0081
▁ڀائيوار	-11.0086
Bet	-11.0098
دان	-11.0098
▁مشكله	-11.0101
ck	-11.0103
▁52	-11.0108
▁بٽ	-11.0108
▁شاهد	-11.011
▁مشرقي	-11.0112
▁رچ	-11.0113
▁وسار	-11.0114
▁شكلي	-11.0114
ُر	-11.0116
▁پوڙه	-11.0119
▁وڃايو	-11.0128
پٽ	-11.0133
▁can	-11.0135
▁حظ	-11.0136
▁پاڙيسري	-11.0136
▁تجديد	-11.0136
▁آگهي	-11.0139
دري	-11.014
▁ٽوڙڻ	-11.014
▁مهدي	-11.0143
▁مايوسي	-11.0144
▁ڏيڍ	-11.0146
▁پنجاه	-11.0159
▁موسميات	-11.0159
▁وق	-11.0162
▁دستي	-11.0163
▁آڻيو	-11.0164
▁ڪِي	-11.0164
ٽري	-11.0171
▁اكس	-11.0182
▁پسر	-11.0196
▁ڏيهه	-11.0197
▁وفي	-11.02
▁هندن	-11.0201
▁خطرن	-11.0202
▁بيڊ	-11.0204
ment	-11.0205
▁خار	-11.0206
▁بنگلاديش	-11.0207
▁بصراحه	-11.0207
▁1990	-11.0207
▁سرمائي	-11.0208
طف	-11.0208
▁عظمت	-11.021
▁ڏيارڻ	-11.021
▁بخير	-11.0213
حط	-11.0213
▁رومن	-11.0218
em	-11.0226
▁لات	-11.0227
▁راست	-11.0227
▁59	-11.0228
▁سعد	-11.0228
▁57	-11.0231
▁ڇڪ	-11.0237
وَ	-11.024
▁ڊون	-11.0242
▁برگزاري	-11.0245
جائز	-11.0245
ho	-11.0254
▁ڀاڙي	-11.0265
▁رنگي	-11.0266
▁مقال	-11.0271
▁بوس	-11.0274
▁Mehm	-11.0278
▁لاطيني	-11.0278
▁متوقع	-11.0278
▁پرورش	-11.0278
بير	-11.0279
▁اسرائيلي	-11.0281
▁ويهاري	-11.0281
▁شموليت	-11.0284
▁طا	-11.0285
▁ion	-11.0289
▁دستور	-11.029
▁سكر	-11.0291
▁گھربل	-11.0291
▁تسوي	-11.0292
▁عط	-11.0299
▁ڷ	-11.0299
▁جارج	-11.03
▁اكتب	-11.03
▁أس	-11.0302
ران	-11.0302
▁بص	-11.0304
▁ٽنهي	-11.0304
▁فلا	-11.0304
▁قربان	-11.0308
▁تحف	-11.0309
▁صحتيابي	-11.0311
▁پيري	-11.0313
فض	-11.0316
▁گهڻائي	-11.0318
▁ڌماڪي	-11.0321
▁حنا	-11.0324
▁ليبل	-11.0324
شيا	-11.0325
▁لُ	-11.0327
▁عي	-11.0331
▁ڪلپ	-11.0342
ـَـ	-11.0345
▁250	-11.0346
بد	-11.0346
▁كف	-11.0347
▁لکان	-11.0348
▁هڙتال	-11.035
▁پرچم	-11.035
اله	-11.0351
▁روعه	-11.0351
▁البنات	-11.0352
▁ديوي	-11.0353
▁ريئل	-11.0353
▁حاجة	-11.0353
▁ٻٽي	-11.0353
▁ٺاھڻ	-11.0354
▁پيمان	-11.0356
▁×	-11.0358
▁داغ	-11.0358
▁600	-11.0359
▁ايوب	-11.036
▁بڻيل	-11.0361
▁آگاهه	-11.0361
AN	-11.0363
تمنى	-11.0364
▁78	-11.0364
▁ڊار	-11.0364
▁ملائڻ	-11.0366
▁اڻڻ	-11.0366
▁ابت	-11.0367
▁ھوندا	-11.0369
منصوبابندي	-11.037
▁58	-11.037
▁جمهور	-11.0372
ڙھ	-11.0372
▁سگھيو	-11.0372
▁ويچاري	-11.0375
▁٢	-11.0377
▁51	-11.0384
▁فرش	-11.0387
▁ڪاڪ	-11.0387
▁طلعت	-11.0393
▁ڏھ	-11.04
فارميشن	-11.04
▁محور	-11.04
آي	-11.0402
▁آهو	-11.0403
▁منور	-11.0404
▁ترس	-11.0404
▁مرسي	-11.0405
▁چن	-11.0405
▁چَ	-11.0406
كِ	-11.0414
▁زد	-11.0416
▁نظريه	-11.0421
ten	-11.0422
▁انواع	-11.0423
▁قرارداد	-11.0424
▁آڌار	-11.0424
▁ڀينر	-11.0425
▁طويل	-11.0426
▁عنده	-11.0426
ڦ	-11.0447
▁هوند	-11.0448
lana	-11.045
▁ڄاتو	-11.0451
▁di	-11.0452
▁فورس	-11.0452
▁خلي	-11.0453
▁أخ	-11.0453
▁ھُ	-11.0453
▁اسٽي	-11.0457
▁چِ	-11.0461
▁راتيون	-11.0464
99	-11.0465
▁گهرايو	-11.0469
▁اٿ	-11.047
▁بندش	-11.0473
▁جبت	-11.0475
▁حاصلات	-11.0482
▁الكل	-11.0482
فق	-11.0484
▁بئ	-11.0489
▁آفت	-11.0492
▁اوطاق	-11.0496
▁بائبل	-11.0496
▁Amr	-11.0496
▁يوڪرين	-11.0496
▁Taj	-11.0498
▁مڪ	-11.0498
▁ملائڪ	-11.0499
▁زيادتي	-11.0502
▁منصور	-11.0503
َرَ	-11.0504
▁راشد	-11.0506
▁فوق	-11.0507
▁حيدر	-11.0507
▁:$	-11.0508
▁ريان	-11.0509
رض	-11.0509
▁بلو	-11.0509
▁ers	-11.0512
▁يصير	-11.0519
▁انگليسي	-11.0523
+	-11.0523
▁ic	-11.0524
▁حم	-11.0527
▁رولر	-11.0532
دام	-11.0532
▁حلق	-11.0536
▁مبارڪون	-11.0536
▁باغي	-11.0538
▁ايپليڪيشنون	-11.054
سوع	-11.0541
وط	-11.0544
▁سبز	-11.0546
▁وچين	-11.0546
▁چمي	-11.0547
▁ڪچي	-11.0547
▁ميون	-11.055
فكر	-11.0553
▁ڊرائ	-11.0557
▁اُنھ	-11.0557
لوڊ	-11.0557
منتديات	-11.0559
▁گرل	-11.0559
▁اسٽ	-11.0562
▁ذهانت	-11.0569
▁حڪيم	-11.0569
▁قسط	-11.0569
▁ڌوئڻ	-11.0569
▁جڙ	-11.057
▁يڪدم	-11.057
▁جوسينو	-11.0571
▁ڊائري	-11.0571
▁اُٺ	-11.0573
▁اڏ	-11.0573
▁گونج	-11.0575
▁ڪلهي	-11.0578
▁فلسفو	-11.0578
▁پرسش	-11.058
▁سلمان	-11.0582
▁ڪاڻ	-11.0588
▁ca	-11.0589
▁فيسبو	-11.059
▁ڇي	-11.0592
▁سيکاريو	-11.0592
▁ميش	-11.0594
▁GB	-11.0595
▁سچا	-11.0595
▁مَن	-11.0597
▁اجتماعي	-11.0599
ائم	-11.0599
▁بغ	-11.0602
عرف	-11.0604
▁ڪردارن	-11.0608
انس	-11.0609
▁ar	-11.0609
▁دول	-11.061
▁آتم	-11.0633
▁th	-11.0636
30	-11.0642
▁قائد	-11.0643
▁ظرف	-11.0645
▁سنجي	-11.0651
▁جبر	-11.0653
▁الخط	-11.0655
۰	-11.0658
▁%	-11.0662
▁سمجھو	-11.0663
▁ربنا	-11.0664
▁حاجه	-11.0664
▁ارادي	-11.067
▁ميگا	-11.0672
ff	-11.0675
▁ڍ	-11.0675
▁ثانيه	-11.0676
▁جهنگلي	-11.0676
▁چاندي	-11.0677
▁ڀاتي	-11.0684
▁79	-11.0687
▁صديق	-11.0692
▁گهران	-11.0694
▁Le	-11.07
▁ذخير	-11.07
▁سنڀالي	-11.0703
▁))	-11.0705
▁ڪُل	-11.0709
▁گفتي	-11.0711
ائپ	-11.0712
ty	-11.0714
▁عاجز	-11.0718
▁ردعمل	-11.0719
▁فساد	-11.072
رِ	-11.072
▁تعصب	-11.0721
▁جهنگ	-11.0721
يمڪس	-11.0724
co	-11.0725
▁معلم	-11.0727
▁انتو	-11.0727
مع	-11.0728
▁ma	-11.0729
▁اڇا	-11.0731
نيئر	-11.0732
▁پنهون	-11.0733
▁لانه	-11.0734
▁دروازا	-11.0735
▁بالله	-11.0736
▁خب	-11.074
▁آلات	-11.0746
ڪنھن	-11.0751
▁مشينري	-11.0753
▁اً	-11.0753
▁لمحن	-11.0754
ter	-11.0755
▁مودي	-11.076
se	-11.0762
▁Mo	-11.0762
▁جگر	-11.0768
▁سيکاري	-11.0771
▁able	-11.0776
▁ترجمي	-11.0778
▁ذر	-11.0783
▁يخ	-11.0792
▁گهوٽ	-11.0793
▁دانلود	-11.0793
▁الوداع	-11.0793
▁پيچيدگي	-11.0794
▁One	-11.0794
▁more	-11.0794
▁پڇيائين	-11.0795
▁ساره	-11.0795
▁سخن	-11.0795
▁گرا	-11.0796
▁نداره	-11.0797
▁pb	-11.0799
▁رزق	-11.0801
▁سورج	-11.0812
ثي	-11.0814
od	-11.0814
▁قصي	-11.0818
▁برٽ	-11.0818
حنا	-11.082
▁چارٽ	-11.0826
▁اربع	-11.0828
}	-11.083
▁توجه	-11.083
▁بالي	-11.0832
▁ڇوڪريون	-11.0833
▁پيٽر	-11.0834
▁متي	-11.0835
ci	-11.0842
▁ود	-11.0845
▁جوڙڻ	-11.085
▁برج	-11.085
▁am	-11.0853
▁صلاحيتون	-11.0854
اڄ	-11.0857
▁صفت	-11.0861
رق	-11.0862
▁ھلي	-11.0865
▁سوير	-11.0867
▁اڪبر	-11.0871
▁نڪتا	-11.0872
▁بج	-11.0873
▁مشرف	-11.0876
▁لقب	-11.0878
▁پھچ	-11.0879
▁واي	-11.0879
▁ميگي	-11.0882
▁ريڪ	-11.0883
▁لالچ	-11.0884
▁راجع	-11.0884
▁كريم	-11.0887
▁روٽ	-11.0888
▁پڙھي	-11.089
▁رھڻ	-11.0891
▁اشوف	-11.0892
▁ڏهاڙ	-11.0894
▁ٽا	-11.0896
▁ڄاڻندا	-11.0896
▁مؤ	-11.0898
▁اوك	-11.09
▁لٽ	-11.0901
▁لع	-11.0903
▁وحي	-11.0907
▁ھار	-11.092
▁وفاق	-11.092
▁فريب	-11.0921
▁ايڊو	-11.0923
▁بهتري	-11.093
▁ڪڇ	-11.0932
▁سهڻا	-11.0933
ــــــــــــ	-11.0936
هِ	-11.094
▁رِ	-11.0941
▁small	-11.0943
▁پوريون	-11.0944
▁َ،	-11.0945
▁دٻايو	-11.0946
▁تاثير	-11.0947
▁ڏٺائين	-11.0948
لائن	-11.0948
▁بعرف	-11.0954
▁تعيش	-11.0955
▁صوت	-11.0958
▁پراڻا	-11.0959
▁ڪُجه	-11.0964
▁رهان	-11.0973
▁بيهڻ	-11.0973
▁كلنا	-11.098
▁عقيدت	-11.0982
▁پٽن	-11.0982
▁ڀون	-11.0986
▁76	-11.0986
▁سرمايو	-11.099
▁کنيا	-11.099
▁تص	-11.099
▁هلايو	-11.099
▁ڄار	-11.0994
▁آيه	-11.0995
▁فيض	-11.1001
▁بدلو	-11.1004
▁96	-11.1008
گھ	-11.1012
بغى	-11.1014
▁تال	-11.1015
▁بلاش	-11.1017
▁شيٽ	-11.1019
یر	-11.1019
▁ڪجه	-11.102
▁آڻ	-11.102
▁مشھور	-11.1022
لڪل	-11.1022
▁سفير	-11.1023
مس	-11.1023
▁مورد	-11.1023
▁حقيقتن	-11.1024
▁امك	-11.1025
▁تُ	-11.1026
▁وائس	-11.1027
▁4)	-11.1029
▁بخار	-11.1031
▁اااااااا	-11.1034
▁تحقيقات	-11.1039
01	-11.1046
▁نقد	-11.1052
▁درخواستون	-11.1054
▁ڊس	-11.106
▁آفريڪ	-11.1063
▁تبين	-11.1064
br	-11.1065
▁ذه	-11.107
حك	-11.1073
▁لپ	-11.1075
▁لسه	-11.1078
▁نير	-11.1078
▁حڪمرانن	-11.108
▁اوليه	-11.109
▁لڳس	-11.1094
▁شيل	-11.1094
▁مط	-11.1098
حه	-11.1098
▁محصول	-11.1099
▁سگھجن	-11.11
▁اُميد	-11.11
▁پوڄا	-11.1101
▁وڪڻڻ	-11.1107
▁800	-11.1108
▁نواب	-11.111
▁گھٽائڻ	-11.1113
▁ورڇ	-11.1114
▁خاطري	-11.1117
▁بهره	-11.1118
▁رف	-11.1119
▁عراقي	-11.1122
▁نشي	-11.1124
صد	-11.1132
▁وفادار	-11.1138
اگو	-11.1144
▁نوح	-11.1146
▁باد	-11.115
▁شارٽ	-11.1153
▁رلي	-11.1155
▁بڇڙ	-11.1157
▁ٿوڪ	-11.1163
▁حاضري	-11.1164
▁تفريحي	-11.1164
▁ضلع	-11.1167
وڙ	-11.1171
▁واڻي	-11.1172
▁دک	-11.1176
▁go	-11.1177
▁Windows	-11.1178
▁دقيق	-11.1178
▁اڳواٽ	-11.1181
لآ	-11.1181
▁لڙائي	-11.1181
▁قاعدن	-11.1182
▁2004	-11.1182
▁گوري	-11.1182
ast	-11.1184
▁ميهن	-11.1185
▁فلسفه	-11.1186
▁شدن	-11.1187
▁ٿڌ	-11.1188
▁لکندا	-11.1188
▁زندهه	-11.119
▁تنها	-11.1198
▁يق	-11.1203
▁بز	-11.1209
▁وكل	-11.1211
▁آور	-11.1211
▁المللي	-11.1211
▁همراه	-11.1212
▁دٻي	-11.1218
▁رهون	-11.1221
▁معدني	-11.1223
▁يونس	-11.1226
▁ميٽرڪ	-11.1227
▁نين	-11.1231
▁ميگه	-11.1231
▁امت	-11.1233
▁شكر	-11.1236
▁ٻچ	-11.1241
▁وأ	-11.1244
▁ڪارب	-11.1246
▁تصدق	-11.1249
صح	-11.1251
▁وسي	-11.1252
▁ماڻهون	-11.1253
▁بلبل	-11.1253
▁سولي	-11.1254
▁ئن	-11.1255
▁ايڊريس	-11.1256
▁امتياز	-11.1256
▁ويڙهاڪ	-11.1257
ڏا	-11.1258
▁ندارد	-11.1258
▁پڄاڻي	-11.1258
▁ڪئن	-11.1259
▁خواست	-11.1262
▁گدا	-11.1265
▁ٻارڙا	-11.1266
'ـ	-11.1266
▁جانبدار	-11.1268
▁چاليه	-11.127
▁غص	-11.127
▁جدائي	-11.1271
▁طبع	-11.1271
▁خيرات	-11.1273
▁غبي	-11.1274
▁مشيني	-11.1275
▁سائنسدانن	-11.1275
▁66	-11.1276
▁عيسوي	-11.1282
▁اسٽين	-11.1289
▁خريدار	-11.1291
توکي	-11.1293
▁هدايتن	-11.1298
▁ڪيچ	-11.1301
▁پاسن	-11.1304
▁زيبا	-11.1304
▁ڳوله	-11.1305
رَ	-11.1311
▁بحب	-11.1315
▁ڪمزوري	-11.1315
▁چوڻي	-11.132
قة	-11.1323
▁54	-11.1324
▁اعصاب	-11.1326
▁آگ	-11.1326
▁CO	-11.1327
▁جند	-11.1328
رٽ	-11.133
▁حلوين	-11.1332
▁استقبال	-11.1336
▁گريجوئيشن	-11.1336
▁جرئت	-11.1336
▁ثواب	-11.1336
▁<<<<	-11.1336
▁خواهشمند	-11.1337
▁آفتاب	-11.1338
▁حبيبتي	-11.1338
▁يقطع	-11.1341
▁چيلهه	-11.1341
▁ورهايو	-11.1343
▁تقاضا	-11.1346
▁تحقيقي	-11.1346
▁sh	-11.1347
▁سُور	-11.1354
▁کُ	-11.1355
▁دهشتگرد	-11.1355
▁69	-11.1357
▁ڪراس	-11.1358
▁ڏنڊ	-11.136
▁چُڪ	-11.136
ڪاري	-11.1362
▁قا	-11.1364
▁ساه	-11.1367
▁شاف	-11.1368
ha	-11.1369
▁لهج	-11.1374
▁زا	-11.1374
▁No	-11.1377
▁سنت	-11.1381
▁St	-11.1382
▁خلين	-11.1383
▁نگر	-11.1384
▁اوى	-11.1387
مپ	-11.1387
▁vi	-11.139
بري	-11.139
▁سيال	-11.139
TE	-11.1393
▁اندازه	-11.1396
▁ستا	-11.1397
▁ڊائي	-11.1402
▁ويهن	-11.1406
▁شاد	-11.1408
▁خدائي	-11.1414
ڛ	-11.1416
▁اسڪرپٽ	-11.1416
▁الأ	-11.1416
os	-11.1417
▁دب	-11.1417
▁ناقص	-11.1418
▁سگهنداسين	-11.1418
▁ميموري	-11.1419
فا	-11.1421
▁سڪندر	-11.1422
▁الصورة	-11.1422
▁سڃاڻڻ	-11.1423
▁لبنان	-11.1426
▁ٿري	-11.1427
▁تاز	-11.1427
▁مانيٽر	-11.1428
سك	-11.1428
رڊ	-11.1429
▁إل	-11.1432
ٺٽي	-11.1433
▁پت	-11.1435
▁الاهي	-11.1438
▁ائپس	-11.1438
▁ساراهه	-11.1439
▁لت	-11.1442
▁آڷ	-11.1443
▁ئِي	-11.145
شه	-11.1455
▁طو	-11.1455
▁سيٺ	-11.1461
▁دوائ	-11.1461
de	-11.1462
▁جپاني	-11.1472
پوءِ	-11.1477
▁روين	-11.1478
کار	-11.1479
▁جوڙيو	-11.148
رام	-11.1481
▁معين	-11.1483
▁ڌن	-11.1487
ca	-11.1492
▁ڳالھه	-11.1494
▁مبروك	-11.1496
لق	-11.1496
▁مترجم	-11.1499
▁ٽيڪنڪ	-11.1499
▁حياتيات	-11.1501
▁ڪوچ	-11.1501
▁يارب	-11.1502
▁pre	-11.1503
▁پريان	-11.1504
▁البنت	-11.1504
▁Ex	-11.1505
▁ارو	-11.1505
▁سگ	-11.1506
▁سلوڪ	-11.1508
▁97	-11.151
▁ګ	-11.152
▁پنھنجن	-11.1521
▁يش	-11.1521
▁گذاريو	-11.1525
▁ڪارخاني	-11.1527
▁داره	-11.1528
▁زنان	-11.1529
▁ڳڻ	-11.1537
ack	-11.154
▁مجاز	-11.154
▁ڀور	-11.1547
▁رڳ	-11.1548
▁ڊراما	-11.1554
▁رنج	-11.1557
▁چٽي	-11.1558
▁ڪندين	-11.156
▁فديت	-11.156
▁مانس	-11.1563
ll	-11.1564
▁اسٽيڪ	-11.1573
▁موٽو	-11.1574
ि	-11.1578
ens	-11.1578
é	-11.1578
▁ايڪسچينج	-11.1578
▁ريپبلڪ	-11.1578
▁ڪئلينڊر	-11.1578
▁العافيه	-11.1578
▁اوباما	-11.1578
▁هارڊويئر	-11.1579
▁حبي	-11.158
▁پائونڊ	-11.1581
▁اڪائونٽس	-11.1583
▁يوزر	-11.1585
سار	-11.1586
خدا	-11.1587
▁ڀاڻ	-11.1587
▁پروگرامنگ	-11.1588
▁لِ	-11.1588
▁لحظه	-11.1588
▁ٻڌائيندو	-11.159
ity	-11.1591
▁پيرام	-11.1593
▁وائر	-11.1593
▁آئر	-11.1594
▁تعلم	-11.1597
▁ٽائي	-11.16
▁ٺاھيو	-11.16
▁سياح	-11.1601
▁مريد	-11.1603
▁هيرن	-11.1608
▁ڦٽي	-11.1609
▁ڪيش	-11.1611
١	-11.1614
man	-11.1616
▁چڱيء	-11.1616
▁رايو	-11.1618
▁رهيب	-11.162
▁ھيون	-11.162
iv	-11.1621
▁ٽريو	-11.1622
▁فرهنگي	-11.1623
▁الشر	-11.1625
▁ايسٽ	-11.1627
▁سود	-11.163
pa	-11.1634
▁جنون	-11.1634
▁پهن	-11.1636
▁ساھ	-11.1642
▁کائو	-11.1643
▁فاصلي	-11.1645
▁مام	-11.165
▁سِر	-11.1652
▁مدو	-11.1655
if	-11.1656
▁ڪسٽمائيز	-11.1656
▁پَر	-11.1658
هاڻي	-11.1658
▁سرٽيفڪيشن	-11.166
▁برانچ	-11.166
▁رومانوي	-11.166
عج	-11.166
▁ٿلهي	-11.1661
▁بول	-11.1663
▁مصروفيت	-11.1665
▁ماريا	-11.1668
,000	-11.167
▁موسمي	-11.1674
▁ad	-11.1676
▁باي	-11.1678
▁ببين	-11.1679
▁ضابط	-11.1685
ٿر	-11.1691
sa	-11.1692
▁هلن	-11.1699
▁لڳيون	-11.17
▁هيڪر	-11.1706
▁ڇڏين	-11.1709
▁تحقيقاتي	-11.1713
▁ايٽمي	-11.1713
▁گندي	-11.1715
▁63	-11.1716
▁فرشت	-11.1719
ارت	-11.1725
▁جھلي	-11.1726
ورو	-11.1727
ian	-11.1729
▁ميگن	-11.1734
يلينڊ	-11.1734
▁صدم	-11.1738
▁ڀاڱو	-11.1742
▁ڇڪتاڻ	-11.1742
▁درٻار	-11.1742
▁پندره	-11.1742
▁ٺاهيندا	-11.1744
▁پاڻيء	-11.1747
▁منكم	-11.1751
▁Ro	-11.1752
▁(5)	-11.1753
qu	-11.1754
▁ٻُ	-11.1756
▁ڇڏيائين	-11.1756
▁ٽام	-11.1758
▁جلو	-11.176
▁ساعت	-11.1762
▁انجن	-11.1763
▁الحق	-11.1763
▁پھ	-11.1764
▁لف	-11.1768
▁7:	-11.1769
▁شوف	-11.177
▁ٽنڊو	-11.1772
▁اِي	-11.1776
▁پرک	-11.1777
قائل	-11.1778
▁حك	-11.1778
▁ٻل	-11.178
▁ڪُن	-11.1782
▁سٿ	-11.1788
▁اُٿ	-11.1789
▁گام	-11.1792
▁غل	-11.1794
▁Bibl	-11.1798
وان	-11.18
▁ڄاڻون	-11.1802
▁گروه	-11.1803
▁يونيورسٽين	-11.1806
wei	-11.181
ابع	-11.181
▁مڻ	-11.181
▁لون	-11.1811
les	-11.182
▁غلطين	-11.1821
▁رايا	-11.1825
▁رق	-11.1825
▁انضمام	-11.1826
▁دارومدار	-11.1826
▁مذمت	-11.1826
▁عيوض	-11.1826
▁پکسل	-11.1826
▁ڪارائتو	-11.1826
▁ايڪسڪسڪس	-11.1827
io	-11.1828
▁ڳڻپ	-11.1828
▁تأ	-11.1828
▁ليڪچر	-11.1828
▁اسرار	-11.183
▁سورن	-11.183
▁مباني	-11.1834
▁ملاح	-11.1834
▁ٽريڊ	-11.1834
▁پرسيد	-11.1835
▁پھريان	-11.184
▁جامد	-11.1849
▁شهزادي	-11.1851
▁مٺا	-11.1851
قف	-11.1854
▁رياستي	-11.1859
▁شخصيتن	-11.1859
~	-11.1862
٠	-11.1864
▁ڳچي	-11.1866
ak	-11.1868
▁ساڙي	-11.1872
▁ملئي	-11.1878
ليل	-11.1878
▁سما	-11.188
ليڪ	-11.1881
▁لاني	-11.1884
▁روڊن	-11.1884
▁ليلي	-11.1884
▁مى	-11.1888
▁قالت	-11.1889
▁وج	-11.1889
▁ليکي	-11.1893
▁پيوست	-11.1894
ولا	-11.1894
▁ارت	-11.19
▁08	-11.1901
▁ڦڙ	-11.1903
12	-11.1904
▁ri	-11.1906
▁هارين	-11.1908
▁عني	-11.1909
▁سوئٽزرلينڊ	-11.191
▁ورثي	-11.1912
▁اوزارن	-11.1915
▁سگھندا	-11.1916
▁:-	-11.1916
▁2001	-11.1917
▁sp	-11.1923
▁حط	-11.1925
▁ڊگه	-11.1926
▁اداڪارا	-11.1926
▁مڙهي	-11.1927
اهي	-11.1929
▁مشوري	-11.193
▁ڏيکاريا	-11.1935
ائيٽ	-11.1945
▁68	-11.1945
▁مارئي	-11.1946
▁ڇوڙ	-11.1946
aw	-11.1951
ue	-11.1952
رج	-11.1952
▁ملهائي	-11.1952
▁ايماندار	-11.1952
▁سايت	-11.1954
:00	-11.1955
ma	-11.1959
▁خودمختيار	-11.1959
ورة	-11.196
▁قلبك	-11.1962
▁سرماي	-11.1972
ct	-11.1972
▁بأ	-11.1978
▁آلي	-11.1979
▁فلور	-11.198
▁ڳل	-11.1986
▁چل	-11.199
▁ميار	-11.1994
▁مظلوم	-11.1994
▁آزمون	-11.1995
▁تابعداري	-11.1995
▁اجزاء	-11.1995
▁آلودگي	-11.1995
▁پروموشن	-11.1995
▁ملهائڻ	-11.1995
▁ڏاڪڻ	-11.1997
▁بخاري	-11.1999
▁li	-11.2
▁سادگي	-11.2002
▁نڪتي	-11.2002
بان	-11.2002
▁هلو	-11.2003
▁ٽائم	-11.2004
▁وجهه	-11.2006
ov	-11.2007
ريم	-11.2007
نڌ	-11.2011
▁فروش	-11.2011
▁II	-11.2017
▁١	-11.2017
▁سانوڻ	-11.2018
▁ڳالهائيندڙ	-11.2019
▁وڌائين	-11.202
طه	-11.2022
▁چاچا	-11.2025
▁دوائون	-11.2025
▁حكم	-11.2025
ress	-11.2027
▁سياستدان	-11.2029
▁ٽاري	-11.2032
▁ٿڪج	-11.2036
نظير	-11.2036
he	-11.204
▁سمعت	-11.2043
حس	-11.2047
▁طبقن	-11.2048
▁پشت	-11.2051
▁ڏکيائي	-11.2052
▁ڪول	-11.2052
▁ڊڄ	-11.2055
▁مثلا	-11.2055
▁بدو	-11.2058
▁گُل	-11.206
▁تغ	-11.207
▁ريا	-11.2074
▁ڇڏيان	-11.2074
▁پروٽوڪول	-11.208
▁ثانوي	-11.208
▁مصنف	-11.208
▁ايلومين	-11.208
▁درباره	-11.208
▁پارٽنر	-11.208
▁ايج	-11.208
▁اسڪوٽر	-11.208
▁اڳڀرائي	-11.2083
▁ضحكتني	-11.2086
▁كلي	-11.2087
▁افضل	-11.2089
▁اااااااااا	-11.2089
▁نانءُ	-11.209
▁بخت	-11.2091
▁62	-11.2092
▁الوقت	-11.2095
▁ٿورڙو	-11.2097
▁٣	-11.2097
▁مرگ	-11.2098
▁اتحادي	-11.2099
▁دائرو	-11.2099
▁رسالو	-11.21
لح	-11.2101
ځ	-11.2102
▁نداسين	-11.2104
▁ٻو	-11.2106
است	-11.2106
ڳي	-11.2108
▁ٻڪري	-11.2108
▁ميزان	-11.2108
▁ٽوٽ	-11.2109
▁ران	-11.2116
▁ذريعا	-11.2122
▁كلش	-11.2123
على	-11.2125
▁مئ	-11.2126
▁سهيل	-11.2127
ائٽ	-11.2127
صور	-11.213
▁ڀٽ	-11.213
▁بيٽا	-11.2133
▁اختر	-11.2135
▁جلس	-11.2138
▁ڌو	-11.2142
▁آندي	-11.2142
▁قصو	-11.215
▁ابد	-11.2152
▁قويه	-11.2153
قر	-11.2154
▁طالع	-11.2156
▁نوري	-11.216
▁اينا	-11.2163
▁ڀائي	-11.2164
▁آڪسيجن	-11.2166
▁پوئلڳ	-11.2166
▁آسٽريا	-11.2166
▁مارش	-11.2166
▁پيراهن	-11.2167
▁مميز	-11.2167
▁ٽوپي	-11.2169
▁پرويز	-11.2169
▁پريشر	-11.2169
▁هآ	-11.217
▁ارجو	-11.217
ڊر	-11.2171
▁پارٽيون	-11.2172
▁ناٽڪ	-11.2173
▁چنيس	-11.2173
َنِ	-11.2176
داري	-11.2178
ish	-11.2178
▁پڌري	-11.218
▁لمحو	-11.2181
▁اقل	-11.2181
▁آريا	-11.2181
▁92	-11.2187
▁ايدك	-11.2187
▁سندر	-11.2188
▁جنگل	-11.2189
اڻان	-11.219
▁no	-11.2191
▁اعت	-11.2191
▁ترجمه	-11.2192
▁اسپام	-11.2193
▁مٺو	-11.2193
▁فاصلو	-11.2194
▁سجيل	-11.2195
▁ٻڌا	-11.2195
▁نرس	-11.2196
▁ادو	-11.2196
▁پپ	-11.2202
▁غا	-11.2203
▁لالا	-11.2206
عاد	-11.2208
اختيار	-11.2208
آءٌ	-11.2209
▁مهربان	-11.221
▁ڪلم	-11.2211
ath	-11.2214
▁جتن	-11.2216
▁Qu	-11.2218
▁do	-11.2219
▁ميليون	-11.2225
▁دَ	-11.2226
▁سمي	-11.2226
▁دهشتگردن	-11.2228
يلٿ	-11.223
▁گهوري	-11.2232
▁عباس	-11.2232
ka	-11.2233
▁حرم	-11.2234
▁مڙي	-11.2236
▁ڪافر	-11.2239
▁خزان	-11.2241
َّ	-11.2243
▁ڊڄي	-11.2244
سلط	-11.2246
▁ڳڙ	-11.2248
dy	-11.2249
▁استعيف	-11.2253
▁تفسير	-11.2253
▁نوٽيفڪيشن	-11.2253
▁بااثر	-11.2253
▁رابرٽ	-11.2253
▁شريعت	-11.2253
▁1980	-11.2254
مٿس	-11.2256
▁دارا	-11.2258
▁آره	-11.2258
▁اينجلس	-11.226
▁ڇرڪ	-11.226
▁بكل	-11.2262
▁ڄمڻ	-11.2262
▁ٻاري	-11.2266
▁يطلع	-11.2269
▁ڪرسٽ	-11.2272
▁وينداسين	-11.2274
▁پنن	-11.2276
▁ڀٽي	-11.2277
یم	-11.2279
ومي	-11.2279
سڪو	-11.2285
▁۸	-11.2287
ah	-11.2291
فون	-11.2295
▁ويلي	-11.2296
▁پڇيم	-11.2297
▁سگھ	-11.2297
▁اريد	-11.2297
40	-11.2301
▁توتي	-11.2303
▁گهاٽ	-11.2308
ماتحت	-11.231
▁رابطه	-11.2311
▁گان	-11.2312
▁قط	-11.2312
▁اگهه	-11.2314
▁لح	-11.2316
الف	-11.2317
▁نيڪال	-11.2317
▁لز	-11.2321
دگي	-11.2322
▁ايڪو	-11.2323
▁ليب	-11.2326
بيا	-11.2327
▁ملك	-11.2328
مك	-11.233
▁گلابي	-11.2335
الم	-11.2336
▁تجويزون	-11.2338
▁موٽائي	-11.234
▁اقتباس	-11.2341
▁مائڪروسافٽ	-11.2341
▁ممبئي	-11.2341
▁ڊوڙي	-11.2341
▁آئرلينڊ	-11.2341
▁تعميل	-11.2341
▁ڪئپٽ	-11.2342
▁مقناطيسي	-11.2342
▁رضاڪار	-11.2342
▁علشا	-11.2343
▁پراڻن	-11.2344
▁ملٽي	-11.235
▁To	-11.2353
▁رڙيون	-11.2355
ts	-11.2358
▁ٽچ	-11.2359
▁لکو	-11.2362
▁داس	-11.2364
▁ڀرتي	-11.2367
▁مھينا	-11.2369
▁كلكم	-11.2373
▁متع	-11.2374
وپ	-11.2376
▁اسمي	-11.2378
▁ازل	-11.2379
▁مشاهد	-11.2382
▁باقاعد	-11.2383
۵	-11.2384
▁ڀان	-11.2384
▁ڳولها	-11.2384
اعت	-11.2388
op	-11.2392
▁مغ	-11.2394
▁عندكم	-11.2398
▁واسي	-11.2398
▁ذميداري	-11.2398
one	-11.2398
▁سڌري	-11.2403
▁ڪمپنيء	-11.2404
▁ڪک	-11.2408
▁معكم	-11.2414
▁کوه	-11.2415
▁گھم	-11.2416
▁صوره	-11.2421
▁ڇپيو	-11.2424
ect	-11.2425
كار	-11.2428
▁گارنٽي	-11.2429
▁ISO	-11.243
▁Zone	-11.243
▁گرائونڊ	-11.243
▁ڏاڙهي	-11.243
▁سائبر	-11.243
▁زاهد	-11.2431
▁100%	-11.2433
▁سبزي	-11.2434
▁مشينن	-11.2434
▁سوچيم	-11.2435
▁سُک	-11.2435
▁نواف	-11.2435
▁برداري	-11.2436
▁شماره	-11.2437
▁قياس	-11.2438
▁رآ	-11.2439
▁ترت	-11.2439
▁اسٽائل	-11.244
▁صل	-11.2441
▁ميوو	-11.2442
▁زنگ	-11.2444
▁اھڙو	-11.2444
▁بائي	-11.2444
▁ومن	-11.2445
▁نگران	-11.2451
▁تڪڙي	-11.2455
▁Lo	-11.2456
▁رئ	-11.2457
▁ڄم	-11.2457
بك	-11.2462
▁گواهي	-11.2465
▁تمنا	-11.2471
▁ميڊ	-11.2471
ru	-11.2472
▁هادي	-11.2473
▁هنج	-11.2473
مولانا	-11.2474
▁ويجهڙائي	-11.2475
▁ڪيڏا	-11.2475
▁وفاداري	-11.2477
▁لٺ	-11.2477
▁موٽيو	-11.2478
▁سامي	-11.2479
▁ټ	-11.2488
▁نگاري	-11.2488
▁عوامل	-11.2493
▁ٻوٽو	-11.2493
▁ماسڪو	-11.2494
▁ٽون	-11.2495
▁فيكم	-11.2496
زده	-11.2497
▁فونٽ	-11.2498
▁ڪيٽ	-11.2499
▁الط	-11.25
ٹر	-11.2502
▁هوءِ	-11.2503
مني	-11.2504
▁تبليغ	-11.2505
▁Mac	-11.2508
▁حمد	-11.251
▁op	-11.2511
▁خلاصو	-11.2512
▁کانسواء	-11.2515
اره	-11.2515
▁متل	-11.2518
▁1947	-11.2519
▁ويژگي	-11.2519
▁دائود	-11.2519
sk	-11.2519
▁علا	-11.2519
▁تصوف	-11.2519
▁ضبط	-11.252
▁ڪيمپ	-11.252
▁اغ	-11.2521
▁اسٽو	-11.2522
▁جبهه	-11.2525
▁وفد	-11.2525
▁دلڪش	-11.2526
▁لڳندا	-11.2526
▁67	-11.253
▁واھ	-11.253
▁بينڊ	-11.2531
▁فرياد	-11.2532
▁کڻندا	-11.2533
▁اسپ	-11.2541
▁دشمني	-11.2546
▁ڊوڙندو	-11.2547
▁ايد	-11.2547
oo	-11.2548
▁ڙ	-11.2551
▁تني	-11.2553
▁ايوا	-11.2553
▁باش	-11.2554
▁جلال	-11.2554
راح	-11.2556
▁ريشم	-11.2558
▁بضحك	-11.2558
▁لج	-11.2564
▁کت	-11.2566
▁us	-11.2568
▁اندازي	-11.2573
▁ڀڳو	-11.2575
▁te	-11.258
▁جائزي	-11.258
ضر	-11.2586
▁هجر	-11.2589
▁نگاهه	-11.2592
▁ايميل	-11.2592
▁عاش	-11.2592
▁ter	-11.2598
▁گفتم	-11.2602
र	-11.2608
ڹ	-11.2609
▁آپگهات	-11.2609
▁مخاطب	-11.2609
▁نامعلوم	-11.2609
▁راغب	-11.2609
▁اسڪالرشپ	-11.2609
▁لاچار	-11.2609
▁et	-11.2609
▁شفقت	-11.2609
▁ھزار	-11.2609
▁روعة	-11.261
▁ويلڊنگ	-11.261
▁سوپ	-11.2611
▁ورهايل	-11.2611
▁چڙهڻ	-11.2613
▁وحدة	-11.2613
▁خواج	-11.2618
ost	-11.2619
▁افهم	-11.2619
▁شهد	-11.262
▁شهور	-11.2621
ڀا	-11.2621
▁ملاك	-11.2627
▁سائز	-11.2627
▁جاندار	-11.2628
▁ڦيري	-11.2628
▁خاندانن	-11.2629
تى	-11.263
▁ونا	-11.2632
▁۹	-11.2632
▁فڪس	-11.2636
پوليٽ	-11.2637
▁ايدي	-11.2642
▁بڻ	-11.2644
كك	-11.2645
▁بات	-11.2647
▁لمحي	-11.2648
ub	-11.2652
▁عا	-11.2658
ذوب	-11.2658
▁Al	-11.2662
▁پهاڙ	-11.2668
▁الى	-11.2669
ااااا	-11.2669
▁ٽيٽ	-11.267
▁تدريس	-11.2672
▁چڙ	-11.2674
▁ڏنگ	-11.2674
▁آقاي	-11.2676
IN	-11.2678
نائب	-11.2678
▁جهل	-11.268
▁انف	-11.2682
▁ميئر	-11.2683
▁هُجي	-11.2686
▁عمي	-11.2689
اااااااا	-11.2691
قى	-11.2694
ٽين	-11.2696
▁گاڏيون	-11.2697
▁سمن	-11.2699
▁Instagram	-11.27
▁مخدوم	-11.27
▁پيشنهاد	-11.27
▁مهانگو	-11.27
▁1970	-11.27
▁آرزو	-11.2701
▁کتاب	-11.2701
▁گھري	-11.2701
▁غذائي	-11.2703
▁سوره	-11.2704
▁هلون	-11.2704
▁بيٽنگ	-11.2706
▁ڌاڙيل	-11.2706
▁2002	-11.2707
▁مشكل	-11.271
▁گهيرو	-11.2712
▁ملايو	-11.2714
▁ٺهڪ	-11.2714
▁ايوه	-11.2718
▁پِ	-11.2719
▁نصف	-11.2719
▁اوه	-11.272
▁1,	-11.272
▁منزلون	-11.2723
▁منصوب	-11.2725
▁ميت	-11.2725
▁اميره	-11.2727
▁نی	-11.2728
▁ليست	-11.2731
▁over	-11.2731
▁he	-11.2734
▁ديه	-11.2739
▁Con	-11.2739
▁گيج	-11.274
▁پيشرفت	-11.2746
▁منزلن	-11.2747
▁سرو	-11.2749
▁شف	-11.2752
نڊر	-11.2755
▁خليل	-11.276
▁دال	-11.2762
▁موضوعك	-11.2765
▁ٽٽي	-11.2768
▁لينس	-11.2769
ain	-11.2773
▁خواه	-11.2777
▁ميلون	-11.2784
▁شبه	-11.2784
▁مرت	-11.2788
▁استحصال	-11.2791
▁ورڪشاپ	-11.2791
▁خورشيد	-11.2791
▁ايجنڊا	-11.2791
▁ڇنڇر	-11.2791
▁طارق	-11.2791
▁هيئت	-11.2792
▁چاٻي	-11.2792
▁ڊپريشن	-11.2792
▁وآله	-11.2792
▁تجسس	-11.2792
▁قبرستان	-11.2793
▁ابتڙ	-11.2793
▁ولله	-11.2794
▁ڏوھ	-11.2794
▁دختر	-11.2795
▁شمس	-11.2795
▁مشعل	-11.2795
▁تاكل	-11.2797
▁گران	-11.2797
▁نف	-11.2798
جاگر	-11.2799
omi	-11.28
▁ياسين	-11.2801
▁فجر	-11.2801
▁ڇڏيندس	-11.2802
▁سڏين	-11.2802
▁تند	-11.2802
▁عنك	-11.2804
▁جناح	-11.2807
▁ڇوڪرن	-11.2807
▁ڪھڙو	-11.2808
▁پهري	-11.2811
▁اشار	-11.2812
▁ڏسندڙ	-11.2813
▁کامل	-11.2813
▁هڻند	-11.2817
▁ذميواريون	-11.2819
▁حبيت	-11.282
▁اڏامي	-11.2824
▁SD	-11.2826
▁ضرورتون	-11.2826
▁حدون	-11.2827
▁آئس	-11.283
▁ڪنوار	-11.2831
):	-11.2832
▁الحلو	-11.2833
▁نقطو	-11.2834
ee	-11.2834
▁گيس	-11.2835
ure	-11.2835
▁واو	-11.2835
si	-11.2836
▁سرم	-11.2838
▁نوڪ	-11.2838
ڪشش	-11.2839
باب	-11.2839
▁وٺان	-11.284
▁بيه	-11.2843
▁جمعيت	-11.2845
▁ونگ	-11.2847
▁سعود	-11.2855
▁ميڪس	-11.2855
▁فهمي	-11.2855
▁ضح	-11.2856
بلو	-11.2861
▁ڪٺ	-11.2864
▁سڳورن	-11.2865
▁مقابل	-11.2865
▁سرمائيداري	-11.2866
▁ادم	-11.2868
▁وڪڻ	-11.2868
per	-11.2869
ايد	-11.2869
▁پروڊڪٽ	-11.2872
▁حملا	-11.2876
▁ڪچ	-11.2876
▁مڃيند	-11.2876
▁188	-11.2877
▁عقيدو	-11.2883
्	-11.2883
▁ٽرانزيڪشن	-11.2884
▁معذرت	-11.2884
▁فضول	-11.2884
▁پناهگير	-11.2884
rtech	-11.2884
▁بيشمار	-11.2885
▁لٿو	-11.2885
▁اظن	-11.2885
▁گرجا	-11.2886
▁طبقاتي	-11.2886
▁ٽائيپ	-11.2886
▁آح	-11.2887
▁اوز	-11.2889
▁حڪمن	-11.289
▁En	-11.289
▁گرافي	-11.2893
▁انتم	-11.2894
▁ٺڳي	-11.2897
▁ڊيڊ	-11.2898
▁فعاليت	-11.2898
▁سپن	-11.2899
▁شش	-11.2899
جوش	-11.2903
▁جهاد	-11.2903
▁ملير	-11.2905
))	-11.2906
▁تجربه	-11.2907
رٿ	-11.2908
▁قهر	-11.2909
▁مقدر	-11.291
ium	-11.2913
▁بارش	-11.2915
ايم	-11.2917
▁حو	-11.2917
ورڊ	-11.2918
▁وآ	-11.2921
▁سارنگ	-11.2921
ذي	-11.2923
صلي	-11.2924
▁معاوض	-11.2929
▁لغت	-11.293
▁7-	-11.2931
حال	-11.2932
قانوني	-11.2932
▁ئر	-11.2939
▁For	-11.2939
▁جنب	-11.2943
عطي	-11.2944
وڪي	-11.2945
ديد	-11.2945
▁ياسر	-11.2946
▁گهم	-11.295
lu	-11.2955
قول	-11.2959
▁چاچي	-11.2961
▁ڳولهيو	-11.2962
▁We	-11.2964
▁ڪنن	-11.2966
da	-11.2969
▁ورد	-11.2972
▁اچار	-11.2974
▁طبقو	-11.2975
▁😂😂	-11.2977
▁چيومانس	-11.2977
▁تبادل	-11.2978
▁قاسم	-11.2978
▁مزاحيه	-11.2978
▁نميشه	-11.2979
▁ڏڪار	-11.298
▁لقيت	-11.2981
▁مارٽن	-11.2981
▁ئو	-11.2982
▁ڏٺل	-11.2982
▁مبني	-11.2983
▁سرڪٽ	-11.2983
▁ننگ	-11.2984
▁پيئند	-11.2984
16	-11.2984
▁سرت	-11.2986
▁منا	-11.2986
▁مرچ	-11.2987
▁مُلڪ	-11.2987
▁دادا	-11.2989
دخل	-11.2989
▁سرن	-11.299
▁اسپيني	-11.2995
▁ڪوٽنگ	-11.3
▁چونڊجي	-11.3
▁سينٽرل	-11.3004
▁واحده	-11.301
جڪ	-11.3011
▁اسر	-11.3013
▁ڳجه	-11.3013
▁کَ	-11.3016
▁so	-11.3019
▁مسك	-11.3019
▁فش	-11.3021
▁افسان	-11.3024
▁گون	-11.303
▁9-	-11.3033
▁گها	-11.3038
رار	-11.304
▁اِھ	-11.3043
▁ta	-11.3044
▁هُ	-11.3044
▁ڀڃي	-11.3047
▁sa	-11.3049
▁روئ	-11.305
ug	-11.3055
▁ch	-11.3055
▁ھفتي	-11.3057
▁نويس	-11.3058
▁نائين	-11.3061
▁نظار	-11.3061
ین	-11.3062
▁ڀوڳ	-11.3069
▁93	-11.307
▁ايگزيڪي	-11.3072
▁چوڌري	-11.3072
▁آرشيو	-11.3072
▁ڏکوئي	-11.3072
▁مجرم	-11.3072
▁جرنل	-11.3073
▁آخه	-11.3073
▁پورهيو	-11.3073
▁ورتائين	-11.3075
▁Hua	-11.3075
▁پهچندي	-11.3076
▁انجيل	-11.3077
▁امري	-11.3077
▁نقاب	-11.3077
پس	-11.3077
▁اسپيس	-11.308
▁هالا	-11.308
OS	-11.3081
▁ڪپهه	-11.3085
▁ميٽنگ	-11.3087
▁هڏ	-11.3091
▁ڊيمو	-11.3094
▁غدار	-11.3096
▁ٿاڻي	-11.3103
▁ياليت	-11.3108
▁89	-11.3109
▁رفته	-11.3111
▁اُت	-11.3112
▁متى	-11.3113
▁معاملا	-11.3113
▁تدري	-11.3121
▁شلون	-11.3122
▁مجنون	-11.3123
▁رند	-11.3123
▁ڏاڍ	-11.3127
پاسي	-11.313
▁per	-11.313
خلص	-11.3133
رنگ	-11.3135
▁حادثو	-11.3136
▁کند	-11.3139
▁چی	-11.3145
▁ٺو	-11.3145
▁ذو	-11.3147
▁طبعي	-11.3152
▁پڪڙ	-11.3153
▁1.1	-11.3154
▁حت	-11.3155
▁اصليت	-11.3155
▁منهنج	-11.3156
▁im	-11.3158
رايو	-11.3158
▁ڍا	-11.316
▁فرح	-11.316
▁ٻوڙ	-11.3163
▁^_^	-11.3167
▁سرپرست	-11.3167
▁توبه	-11.3168
▁پلاٽ	-11.3168
▁هولڊر	-11.3169
▁أو	-11.3169
▁مٽائڻ	-11.3171
▁محرم	-11.3172
يگاه	-11.3172
▁كدة	-11.3172
▁بصيرت	-11.3175
▁اقرار	-11.3178
▁ڪٽر	-11.318
▁بجا	-11.3181
▁ڀتي	-11.3181
▁فاني	-11.3182
▁راسك	-11.3183
▁قطعي	-11.3186
▁قبلي	-11.3187
▁جهيڙو	-11.3188
▁أهم	-11.319
▁تربيتي	-11.319
▁نمائندن	-11.319
ڳا	-11.319
▁جمهوريه	-11.3191
▁اهواز	-11.3194
▁لکڻي	-11.3194
▁سينٽي	-11.3195
غا	-11.3195
▁ڊرائيونگ	-11.3198
▁واش	-11.3198
50	-11.3204
▁کيڏي	-11.3204
▁05	-11.3207
گين	-11.3207
▁ٻانهي	-11.321
▁رياض	-11.3213
▁مومن	-11.3213
▁پکيڙ	-11.3215
▁بعضي	-11.3215
▁هٽي	-11.322
▁شاخون	-11.3221
▁آسماني	-11.3229
▁مامي	-11.3229
▁ويڙهي	-11.3234
▁روحي	-11.3234
▁زار	-11.324
قو	-11.3243
▁بشه	-11.3244
▁دُ	-11.3249
▁ڪاهي	-11.325
▁سَر	-11.3251
▁بدك	-11.3251
▁سپلائر	-11.3253
▁نانو	-11.3257
▁نوف	-11.3261
▁آغا	-11.3262
▁سوڍ	-11.3262
▁تحر	-11.3263
▁شنگھائي	-11.3263
▁ويژه	-11.3263
▁جاسوس	-11.3264
▁قافل	-11.3264
▁خيرپور	-11.3265
▁جھان	-11.3266
▁برڪ	-11.3266
▁وف	-11.3267
▁انهم	-11.3267
▁بيئر	-11.3267
▁کړ	-11.3268
▁مركز	-11.327
▁والي	-11.327
▁برتن	-11.327
▁مهانگا	-11.3272
▁نقص	-11.3274
▁فضائي	-11.3275
▁اسي	-11.3276
▁03	-11.3278
▁ليا	-11.3282
رڪي	-11.3286
َء	-11.3289
▁مٿانه	-11.3289
▁بندرگاهه	-11.3292
▁نى	-11.3296
▁پنير	-11.3297
ob	-11.33
ريد	-11.3302
▁وڌندا	-11.3302
▁مسوي	-11.3304
▁پکڙج	-11.3306
▁رمز	-11.3306
▁ٻري	-11.3308
▁مث	-11.3308
▁چڪيون	-11.3319
▁حرارتي	-11.3319
▁اُھ	-11.332
▁أل	-11.3321
ريا	-11.3324
▁فقد	-11.3325
وال	-11.3328
▁ميره	-11.3332
▁بمبئي	-11.3336
▁آسانيء	-11.3341
▁سيٽن	-11.3342
▁منطق	-11.3347
▁وضعي	-11.335
▁خا	-11.3355
▁هزارن	-11.3355
▁تسلي	-11.3357
▁خذ	-11.3358
ۡ	-11.336
▁ٺاھي	-11.336
▁چانور	-11.336
▁آڪسائيڊ	-11.336
▁لاڏاڻو	-11.336
▁جلي	-11.3361
▁شڪارپور	-11.3362
▁انڊونيشيا	-11.3364
اڪت	-11.3368
▁mm	-11.3368
▁الكلام	-11.3369
▁عه	-11.3371
▁فلسطيني	-11.3375
▁رنا	-11.3379
ton	-11.3379
▁سڱ	-11.3383
▁ملو	-11.3383
▁ڪبي	-11.3384
▁اڇلائي	-11.3389
▁تضاد	-11.339
▁شيئرنگ	-11.3392
▁روپيا	-11.3393
▁مشك	-11.3394
▁مائيڪ	-11.3395
▁اسمك	-11.3398
▁گھرن	-11.3403
▁سِڪ	-11.3411
▁خف	-11.3412
▁هوندس	-11.3412
▁نڪو	-11.3412
يڪا	-11.3413
▁ذكر	-11.3415
ible	-11.3416
مونکي	-11.3417
▁آرٽسٽ	-11.3418
▁Sh	-11.342
حصل	-11.3422
هري	-11.3427
▁تعال	-11.3431
▁حيل	-11.3437
▁نك	-11.344
▁کانئن	-11.3442
▁جايون	-11.3442
▁تاب	-11.3447
▁مزار	-11.3449
▁سكت	-11.3454
▁وندر	-11.3455
▁شري	-11.3456
▁صراحه	-11.3458
▁عابد	-11.3459
▁1995	-11.3459
▁Xia	-11.346
▁جوڳو	-11.3461
▁سفرنام	-11.3462
▁آرٽس	-11.3464
▁تاري	-11.3464
low	-11.3465
▁ڍڳ	-11.347
▁لام	-11.3471
ُون	-11.3473
▁عيني	-11.3473
▁لانگ	-11.3473
▁حسي	-11.3475
▁01	-11.3476
سيد	-11.3477
▁پيرو	-11.3479
▁ملان	-11.3479
رجع	-11.3482
sh	-11.3484
▁ايڊٽ	-11.3486
▁اردن	-11.3488
▁گِ	-11.349
ائيندو	-11.349
▁ٻيڻو	-11.349
▁حقدار	-11.3491
▁الرج	-11.3491
▁ڏِس	-11.3491
▁پی	-11.3493
الت	-11.3496
▁نشو	-11.3496
▁خودمختياري	-11.3499
▁رکان	-11.3503
▁موڪلائي	-11.3503
▁74	-11.3503
▁Vi	-11.3505
▁باه	-11.3508
▁عامل	-11.3508
▁Se	-11.351
ائب	-11.351
▁هنوز	-11.3517
▁عشر	-11.3519
▁گروهن	-11.3523
▁Ar	-11.3523
خاص	-11.353
روڪ	-11.3533
▁ماله	-11.3535
▁ناوي	-11.3535
بہ	-11.3536
▁چاھي	-11.3539
▁زيد	-11.3543
قعد	-11.3543
▁ٻَ	-11.3543
طلع	-11.3543
▁سنڀاليند	-11.3554
▁تنا	-11.3556
▁1997	-11.3557
▁Facebook	-11.3557
▁1960	-11.3558
▁پرچون	-11.3558
▁جارجيا	-11.356
▁ترڪيب	-11.3561
▁وسعت	-11.3561
ائونڊ	-11.3561
▁سويڊن	-11.3561
▁نق	-11.3561
▁پهچندو	-11.3562
ness	-11.3563
▁سائ	-11.3564
▁آڱر	-11.3565
▁ڪهاڻيڪار	-11.3566
▁رهنديون	-11.3567
▁يسعدك	-11.3567
▁آڻيندي	-11.3568
▁تبا	-11.3569
▁رايكم	-11.3569
▁مٽا	-11.357
▁تكف	-11.3571
اُھو	-11.3571
ance	-11.3572
اخر	-11.3573
▁حوالا	-11.3575
▁پارس	-11.3575
▁el	-11.3578
▁شهنشاهه	-11.3581
▁خوشحال	-11.3581
دك	-11.3582
▁يج	-11.3587
▁ميلو	-11.3588
▁لفٽ	-11.3589
▁ڪَن	-11.359
▁مومل	-11.3591
اڙ	-11.3591
▁ايز	-11.3592
▁گهريو	-11.3592
دس	-11.3593
اپ	-11.3594
▁ترسي	-11.3596
▁نوازيو	-11.3596
▁چاهت	-11.3597
▁رهياسين	-11.3598
▁اڷ	-11.3601
▁خرچن	-11.3602
شارك	-11.3606
ڙهي	-11.3609
▁گردن	-11.3609
▁پرنٽر	-11.3612
▁تڪڙا	-11.3613
▁فاضي	-11.3613
▁جهڙيون	-11.3614
▁اسلاميه	-11.3616
▁فيئر	-11.3616
▁ڇه	-11.3616
▁عدل	-11.3618
▁الغ	-11.3623
▁مڃيو	-11.3624
▁سنڌين	-11.3629
▁سردي	-11.3629
▁بولي	-11.3629
▁بزن	-11.363
▁زبو	-11.3632
ec	-11.3636
ستحق	-11.364
▁پاڙون	-11.3643
▁ex	-11.3645
▁وليم	-11.3655
▁ارشاد	-11.3657
▁النكت	-11.3657
▁تجزيي	-11.3657
▁اقوام	-11.3657
ڪيٿولڪ	-11.3657
▁جاويد	-11.3658
▁ميرپور	-11.3659
▁فنانس	-11.366
▁تباھ	-11.3664
▁اساس	-11.3666
▁کے	-11.3671
▁کوٽائي	-11.3671
▁ملتان	-11.3675
▁سموريون	-11.3677
▁گرڊ	-11.368
▁اوترو	-11.3681
▁غر	-11.3682
▁رگ	-11.3684
▁ٽس	-11.3685
▁→	-11.3686
▁قدام	-11.3686
▁نئ	-11.3688
طق	-11.3688
▁ٻارڙي	-11.3694
▁اشاري	-11.3696
▁فيڊر	-11.3704
تڪميل	-11.3706
▁ٽيڪسٽ	-11.3711
▁كس	-11.3711
^	-11.3713
▁عنه	-11.3716
▁ويجھ	-11.3719
▁دفاعي	-11.372
▁نهار	-11.3721
ki	-11.3725
▁توجهه	-11.3726
▁سی	-11.3727
▁سائو	-11.3727
▁خش	-11.3733
▁عيون	-11.3734
▁يدي	-11.3738
ally	-11.3743
▁ورن	-11.3749
سيس	-11.3752
▁هٿيارن	-11.3758
▁گريجوئيٽ	-11.3758
▁اڻڄات	-11.3758
▁پاناما	-11.3758
▁مخزن	-11.3759
▁معبود	-11.3759
▁چارلس	-11.3759
▁نديون	-11.376
▁ڪيريبي	-11.3762
▁189	-11.3763
▁عاقل	-11.3763
▁تكلم	-11.3764
▁هيرا	-11.3765
▁سمايل	-11.3765
▁رحيم	-11.3767
▁خواهيد	-11.377
▁ٻڌائيندي	-11.3773
▁آوري	-11.3775
▁حلف	-11.3779
▁ريمو	-11.3779
▁معاكم	-11.3781
▁ڳر	-11.3785
▁شمع	-11.3785
▁اوكي	-11.3786
▁مُرڪ	-11.379
فيش	-11.3791
▁لق	-11.3791
▁اقدر	-11.3794
▁بگو	-11.3796
be	-11.3798
▁ڏُک	-11.38
گرد	-11.38
▁تُون	-11.3801
▁چهر	-11.3802
▁ڇاپ	-11.3803
▁شيرين	-11.3807
▁ايريا	-11.3808
▁جانب	-11.3809
▁نظير	-11.3812
▁ڪف	-11.3813
▁ir	-11.3814
▁بيٽ	-11.3814
▁تحليلي	-11.3814
▁ڪڙ	-11.3815
ماڪ	-11.382
▁رضامندي	-11.3824
▁حلووو	-11.3825
▁مغرب	-11.3825
▁الصور	-11.3827
▁انمي	-11.3827
▁comp	-11.3828
▁بيض	-11.3828
▁وص	-11.383
▁طبيب	-11.383
0,000	-11.3832
▁ترك	-11.3836
▁سنس	-11.3837
اين	-11.3838
▁گهڻ	-11.3839
▁11:	-11.3841
▁پائين	-11.3842
▁وائ	-11.3853
▁180	-11.3854
क	-11.386
▁تجزيه	-11.386
▁صالح	-11.386
▁مرشد	-11.386
▁منسلڪ	-11.386
▁آرڪائيو	-11.386
▁أكيد	-11.3861
▁ايمرجن	-11.3862
▁شَ	-11.3865
▁سعر	-11.3866
▁غالي	-11.3866
▁انشاء	-11.387
▁گهرواري	-11.387
▁ڳالھيون	-11.3872
ong	-11.3879
▁پهاڪ	-11.388
▁ااااااا	-11.388
▁1.2	-11.3881
▁ترد	-11.3882
▁تُنهنجي	-11.3883
▁عرس	-11.3884
▁out	-11.3886
14	-11.3887
▁لحد	-11.389
▁چشمي	-11.3894
▁ماڪ	-11.3894
بح	-11.3895
▁حشر	-11.3896
اور	-11.3898
▁هاد	-11.3905
▁خفي	-11.3905
▁8-	-11.3906
▁ڀانئي	-11.3912
▁پتلي	-11.3913
▁71	-11.3915
▁بگي	-11.3915
▁چاهه	-11.3917
▁رود	-11.3918
▁گفته	-11.3919
rd	-11.3919
سوي	-11.3919
▁گذرند	-11.3921
▁انيڪ	-11.3922
▁رياستون	-11.3923
.000	-11.3925
ick	-11.3926
▁پنه	-11.3928
▁كِ	-11.3929
▁ايٽ	-11.393
▁پيتي	-11.3932
▁صحرا	-11.3933
▁بوٽن	-11.3935
آس	-11.394
▁پوٽي	-11.3947
ميم	-11.3947
▁پڙهندا	-11.395
ron	-11.3953
ET	-11.3954
▁صلاحون	-11.3958
▁هڙ	-11.3958
▁مشور	-11.3959
▁اجه	-11.3959
▁1998	-11.3963
▁غضب	-11.3963
▁واکاڻ	-11.3963
▁اسڪاٽ	-11.3963
رررر	-11.3964
▁ٽريفڪ	-11.3964
▁نفيس	-11.3964
▁جزائر	-11.3965
▁خليف	-11.3967
▁عکس	-11.3967
▁کردي	-11.3969
▁متوجه	-11.3969
AR	-11.3972
▁يلي	-11.3974
▁گوڙ	-11.3976
▁مهراڻ	-11.3978
▁ڊائن	-11.3982
▁ڄاڻن	-11.3983
▁ڪاوش	-11.3985
▁ڪاروائي	-11.3986
▁پئدا	-11.3988
▁ورزي	-11.399
▁ڳڻي	-11.3992
▁06	-11.3995
▁وی	-11.3997
▁نصير	-11.3999
="0.1	-11.4
▁خيالات	-11.4004
▁ساڍ	-11.4005
▁گهمي	-11.4005
ورٽ	-11.4006
▁آئ	-11.4007
▁سيٽنگون	-11.4009
▁حيوان	-11.401
يلا	-11.4013
▁ڊانس	-11.4014
▁لئي	-11.402
▁وووووو	-11.4023
▁ڌا	-11.4028
▁والاري	-11.4029
▁ستان	-11.4029
▁ڪرو	-11.4029
بيل	-11.403
▁سُڪ	-11.4031
▁سڃاڻ	-11.4032
▁لڄ	-11.4033
▁درمان	-11.4035
ستي	-11.4036
▁نقط	-11.4045
▁حوا	-11.4047
▁آيتون	-11.4049
▁موم	-11.4052
▁ٻوڙي	-11.4052
ڌي	-11.4054
▁خوي	-11.4056
▁ڊيز	-11.4061
▁سڃات	-11.4062
▁رك	-11.4066
▁پوش	-11.4066
▁Black	-11.4067
▁پيپلزپارٽي	-11.4067
▁قوانين	-11.4068
▁آسودو	-11.4068
▁اصحاب	-11.4069
▁براعظم	-11.4069
▁پنھنج	-11.407
▁مض	-11.407
▁پيگيري	-11.4071
▁تڙ	-11.4072
▁آتش	-11.4073
▁فکر	-11.4073
▁اء	-11.4073
▁پڙه	-11.4074
▁آڻيندا	-11.4075
▁عبير	-11.4075
▁پوپ	-11.4076
▁امس	-11.4077
▁گھمڻ	-11.4079
▁آج	-11.4079
▁ايڪسپور	-11.408
▁وڌيو	-11.408
▁ڊيوڊ	-11.4085
▁اٿو	-11.4089
▁فارمولا	-11.4092
▁اداره	-11.4092
▁ڌماڪو	-11.4092
▁عندهم	-11.4093
▁واءُ	-11.4094
▁داشت	-11.4095
خه	-11.4098
خبري	-11.4099
▁81	-11.41
▁پڙهندي	-11.4101
▁ڊور	-11.4102
▁ٻڌاي	-11.4103
▁ڪلين	-11.4103
▁اولي	-11.4107
▁کنيم	-11.4108
▁ڇپ	-11.4109
▁فكرت	-11.411
▁اُس	-11.4112
▁ليون	-11.4113
امن	-11.4113
زار	-11.4116
▁خصوصيت	-11.4116
▁چاه	-11.4117
▁اير	-11.4117
▁کِل	-11.4118
▁چاڙهي	-11.4119
▁بگير	-11.4123
▁رضي	-11.4123
▁خور	-11.4125
▁مثلي	-11.4129
▁سونا	-11.413
▁نفر	-11.4131
▁فٽبالر	-11.4132
▁اتفاقي	-11.4132
▁پذيري	-11.4133
سى	-11.4134
▁تصورات	-11.414
▁وايد	-11.4142
▁چئ	-11.4144
▁ڍور	-11.4145
ER	-11.4145
▁مضحكه	-11.4146
▁بتن	-11.415
اقل	-11.4152
▁ڪوڪ	-11.4158
ڈ	-11.4158
قال	-11.4158
▁رڪ	-11.4159
▁حلال	-11.4163
ya	-11.4167
ريح	-11.4171
▁1992	-11.4173
▁HTML	-11.4173
▁غفلت	-11.4173
▁ڪيبورڊ	-11.4173
tain	-11.4173
زح	-11.4173
▁استثنا	-11.4173
قراط	-11.4173
▁حُسن	-11.4173
▁رينجرز	-11.4174
ated	-11.4176
▁ناروي	-11.4176
▁دلال	-11.4179
▁مظهر	-11.4182
▁کائيندي	-11.4183
▁كت	-11.4184
▁يحب	-11.4184
▁سيزن	-11.4189
▁ڪاڏي	-11.419
▁لگ	-11.4192
hy	-11.4192
▁Sa	-11.4195
▁مسود	-11.4196
ھين	-11.4196
ويل	-11.4202
▁گونگ	-11.4203
▁موري	-11.4204
▁همدردي	-11.4208
▁ريما	-11.4212
$	-11.4215
▁Tr	-11.4215
▁الهي	-11.4215
▁ورهائ	-11.4217
▁حاو	-11.4225
▁بره	-11.4226
▁اكون	-11.4227
▁افسانو	-11.4227
▁ااااااااااااااا	-11.4227
انداز	-11.4233
▁پردي	-11.4235
▁جملا	-11.4239
▁معدن	-11.424
وومي	-11.4242
▁شهزاد	-11.4247
▁ديرو	-11.4248
▁ڊڄند	-11.4251
▁10-	-11.4254
▁منى	-11.4255
وها	-11.4256
غي	-11.4258
▁حص	-11.4259
▁سکن	-11.426
▁غمگ	-11.4263
ايه	-11.4265
▁ڪاربا	-11.4265
▁ويڪ	-11.4269
▁پڇند	-11.427
▁سنسڪ	-11.4271
▁(3	-11.4273
▁ھئ	-11.4273
ld	-11.4274
▁فيل	-11.4275
▁چئون	-11.4277
ٖ	-11.4279
▁پراسرار	-11.4279
▁آمريکا	-11.4279
▁اوارڊ	-11.4279
▁ويساهه	-11.4279
▁اقبال	-11.4279
▁هاسٽل	-11.4279
▁آخوند	-11.428
▁cryptocurrency	-11.428
▁ذھن	-11.428
▁،،،	-11.428
ڪاس	-11.4281
▁خلوص	-11.4281
▁شاءالله	-11.4281
▁لوڏي	-11.4282
▁ناپسنديد	-11.4283
▁عق	-11.4284
▁چيمبر	-11.4288
▁راڻا	-11.4288
▁Pa	-11.4289
▁مثلك	-11.429
▁واردات	-11.4291
▁مخلص	-11.4293
▁فكرة	-11.4293
▁حليم	-11.4295
آب	-11.4296
▁احلام	-11.4297
▁پيچر	-11.4299
▁هِ	-11.43
▁ځ	-11.4304
▁حُ	-11.4305
▁عدالتن	-11.4306
▁Bo	-11.4309
▁82	-11.4314
▁آهر	-11.4314
▁هيري	-11.4315
▁پهلوان	-11.4315
▁صبا	-11.432
▁ٺاهيون	-11.4322
ثير	-11.4324
▁حسد	-11.4325
▁پرديس	-11.4328
▁قص	-11.4328
جج	-11.4332
▁گوڏ	-11.4336
▁دام	-11.4337
▁ايندس	-11.434
▁لينا	-11.4341
▁صغير	-11.4342
▁بهشت	-11.4343
▁02	-11.4346
▁گهرجون	-11.4353
▁ڦاڙ	-11.4354
bility	-11.4354
▁ويد	-11.4357
▁آرڪ	-11.436
▁غرب	-11.436
▁سالگي	-11.437
▁بلب	-11.4372
آآآ	-11.4376
▁يعين	-11.4379
▁هب	-11.4379
▁ٽار	-11.438
▁موڪليندا	-11.4383
▁اختتام	-11.4387
▁انفيڪشن	-11.4387
▁ٽيليگرام	-11.4387
▁ورثو	-11.4387
▁اطلاق	-11.4387
▁موسيٰ	-11.4387
▁لياقت	-11.4387
▁Name	-11.4387
▁ضحكتيني	-11.4387
▁گناھ	-11.4387
▁عالمگير	-11.4388
▁تحريم	-11.4389
▁str	-11.439
▁ردي	-11.439
▁ہے	-11.4392
▁گارڊ	-11.4394
▁بيهاري	-11.4396
▁شباب	-11.4397
▁افزا	-11.4398
▁برادر	-11.4398
▁گیم	-11.4398
ڃاڻ	-11.4399
▁Me	-11.44
▁خودت	-11.44
▁ڏيکاريندي	-11.4401
▁ضياءَ	-11.4401
▁ٽيب	-11.4404
مِ	-11.4405
▁زميني	-11.4405
▁سيمي	-11.4406
▁خوري	-11.4411
▁افكر	-11.4412
▁وضاحتون	-11.4416
▁ائڊ	-11.442
▁نمائند	-11.4421
▁شرطون	-11.4422
▁ستون	-11.4425
▁ميهار	-11.4425
ونيم	-11.4426
▁امريڪ	-11.443
▁چنگ	-11.4435
▁انزين	-11.4437
▁وڄائي	-11.4443
▁بلاگنگ	-11.4444
▁ٻوٽا	-11.4446
▁Be	-11.445
▁همون	-11.445
▁بچا	-11.4451
▁ڏو	-11.4458
یا	-11.4461
▁صاب	-11.4468
▁فتو	-11.4468
سوفٽ	-11.4469
TN	-11.447
▁وجھي	-11.4471
▁بصر	-11.4472
34	-11.4473
▁ڊيٽ	-11.4473
▁ڇن	-11.4478
تنا	-11.4482
ضرب	-11.4484
▁مالا	-11.4485
▁مواضيع	-11.4486
▁ڊاهي	-11.4487
مڃتا	-11.4488
▁خاڪ	-11.449
▁72	-11.4493
ٔ	-11.4495
▁فرمانبردار	-11.4495
▁ناانصافي	-11.4495
▁سپلائي	-11.4495
▁قميص	-11.4495
▁مشاورت	-11.4495
▁رٿابندي	-11.4495
▁لڌو	-11.4495
▁پهتس	-11.4495
▁سوانح	-11.4496
برا	-11.4497
▁وسيلو	-11.4497
▁پولينڊ	-11.4497
▁شيعه	-11.4498
▁ڇوته	-11.45
▁وقار	-11.45
▁ڪوڙا	-11.4501
▁خميس	-11.4502
▁آموزش	-11.4502
▁پڙھڻ	-11.4503
▁(6)	-11.4505
▁بعيد	-11.4506
▁خاڪي	-11.4507
▁ٽيل	-11.4508
▁چڱائي	-11.4508
▁فورسز	-11.451
▁حالات	-11.451
▁مشكورة	-11.4512
▁فلاڻ	-11.4514
▁پڇن	-11.4514
▁ڏان	-11.4515
▁نقول	-11.4517
▁ٻڌندا	-11.452
▁سريال	-11.452
▁تاريخن	-11.4523
▁ايڪڙ	-11.4526
▁ورها	-11.4526
▁ھم	-11.4528
▁ميرو	-11.4528
▁انٽ	-11.4531
ينا	-11.4531
▁۷	-11.4531
▁جُه	-11.4532
وووووووو	-11.4533
▁جهاني	-11.4537
▁فيلم	-11.4537
أت	-11.4542
▁فله	-11.4542
▁ٿامس	-11.4543
▁one	-11.4544
بليڪ	-11.4544
▁سانڍي	-11.4545
▁جئن	-11.4548
▁پھچي	-11.4556
دق	-11.456
▁فرو	-11.4562
درآمد	-11.4563
▁وڇوڙ	-11.4564
▁مڊل	-11.4567
▁ھليو	-11.4571
▁ذرو	-11.4572
جيب	-11.458
ab	-11.458
RO	-11.4581
تح	-11.4581
▁آت	-11.4582
▁هوسٽ	-11.4584
▁برخ	-11.4585
▁ڊول	-11.4586
ڇي	-11.459
▁پلنگ	-11.4593
▁ااااااااااااا	-11.4594
یش	-11.4595
▁ٿانو	-11.4598
▁ڪاٺي	-11.4598
▁ماڊلز	-11.4601
▁وکر	-11.4601
ضع	-11.4603
▁ac	-11.4604
ۅ	-11.4605
▁1988	-11.4605
▁اپارٽمنٽ	-11.4605
▁انحراف	-11.4605
▁يلعب	-11.4605
▁ڪنڊي	-11.4606
▁آجيان	-11.4606
▁ڪولمبيا	-11.4606
▁فك	-11.4606
▁الحب	-11.4606
▁پھريائين	-11.4606
▁شڪرگذار	-11.4606
َن	-11.4607
▁حميد	-11.4607
▁داعي	-11.4608
▁ھائو	-11.4609
▁اعترف	-11.4612
▁ماخذ	-11.4612
▁اشرف	-11.4614
▁آزار	-11.4615
▁ٽائر	-11.4616
▁لاڳيتو	-11.4616
▁هلائيندڙ	-11.4617
▁بيلٽ	-11.4617
▁ٽرن	-11.4617
راف	-11.4618
ـــــــــــــ	-11.4619
ئان	-11.4623
▁نقشن	-11.4624
▁٤	-11.4624
▁صوتي	-11.4626
▁ڍڪي	-11.4627
▁تفكر	-11.4627
ous	-11.4629
▁بيها	-11.4635
▁بون	-11.4635
▁فديتك	-11.4635
▁۶	-11.4638
▁پدر	-11.4643
▁مگه	-11.4651
▁چمن	-11.4652
▁لعل	-11.4656
▁ڦاسي	-11.4661
▁تبصرا	-11.4666
▁اوج	-11.4667
▁بادشاهي	-11.4669
▁ايرانيان	-11.467
▁خوبيون	-11.4671
لهه	-11.4674
▁ne	-11.4675
▁صليب	-11.4676
▁ti	-11.4679
ايت	-11.4681
▁نخ	-11.4685
ti	-11.4686
eng	-11.4688
وفر	-11.4689
▁دانش	-11.4689
يجان	-11.4694
▁انڊر	-11.4695
▁روٽر	-11.4708
▁يرو	-11.4712
▁مگ	-11.4712
▁ءُ	-11.4715
▁حراست	-11.4717
▁ڊوائس	-11.4717
▁فائديمند	-11.4717
▁inter	-11.4717
▁سٽن	-11.4718
▁اُڃ	-11.4718
▁1999	-11.4718
▁رومانس	-11.4718
▁طاهر	-11.4718
▁رهندس	-11.4719
▁work	-11.472
▁کڻندو	-11.472
▁هلندا	-11.4721
▁184	-11.4721
▁بريڪ	-11.4723
▁اسپورٽس	-11.4724
اؤنٽ	-11.4724
67	-11.4725
▁نظريا	-11.4726
▁وحشي	-11.4728
▁معه	-11.4731
▁مضحكة	-11.4735
▁سسئي	-11.4736
ڀروسي	-11.4737
▁توسيع	-11.4737
▁2.1	-11.4739
▁گرافڪ	-11.474
▁٥	-11.4742
▁خورد	-11.4746
فع	-11.475
تَ	-11.4752
▁ابوك	-11.4753
▁سيوه	-11.4754
▁ليم	-11.4755
آه	-11.4759
▁وٺون	-11.4759
▁ine	-11.476
▁قضا	-11.4761
▁هج	-11.4761
▁دوسر	-11.4763
▁ضابطا	-11.4767
▁Ne	-11.4767
▁09	-11.4768
▁مزاحمتي	-11.4772
▁خمس	-11.4774
▁گھٽائي	-11.4774
▁خليجي	-11.4776
▁آمين	-11.4776
▁جهون	-11.4779
▁مباحث	-11.478
▁علت	-11.4782
▁برق	-11.4782
▁ڍڪ	-11.4783
ב	-11.4783
▁تسلمي	-11.4785
▁فه	-11.4788
▁عود	-11.479
آق	-11.4792
▁زني	-11.4793
▁ٺهيو	-11.4796
هاڻ	-11.4805
▁خصوص	-11.4807
▁محترمه	-11.4809
صف	-11.4809
ـَ	-11.4813
old	-11.4813
ريشن	-11.4815
آك	-11.4818
آء	-11.4824
▁بتي	-11.4826
QUOTE	-11.4829
▁crypto	-11.4829
▁فيسٽيول	-11.4829
▁قومپرست	-11.4829
▁گورنمينٽ	-11.4829
▁مفاصل	-11.4829
قط	-11.4829
▁نمونا	-11.483
▁هوريان	-11.4831
▁ڊريس	-11.4831
▁>>>>	-11.4831
▁اسٽريمنگ	-11.4831
▁عنايت	-11.4831
▁هڪجهڙائي	-11.4832
▁دهشت	-11.4833
▁لڪايو	-11.4834
▁ڪعب	-11.4834
▁هارمون	-11.4835
▁تعرفين	-11.4836
▁وڌائيندو	-11.4841
▁تذكر	-11.4841
▁10:	-11.4841
▁اوائل	-11.4842
هنوار	-11.4843
▁پزشکي	-11.4843
▁هائو	-11.4847
▁cover	-11.4847
▁اساسي	-11.4856
▁نعرف	-11.4858
▁ڪرسٽل	-11.4858
▁گزين	-11.486
▁لعب	-11.4863
▁يني	-11.4865
▁پارڪنگ	-11.4867
▁تڙپ	-11.4867
▁سوس	-11.4876
▁وياج	-11.4877
▁بدنام	-11.4878
گزير	-11.488
ose	-11.4884
▁دُن	-11.4884
ator	-11.4886
▁تحس	-11.4887
ترين	-11.4887
▁ليڊي	-11.4888
▁شاپ	-11.4891
▁حوالن	-11.4897
اخ	-11.4898
-1	-11.4898
▁org	-11.49
▁اسٽيٽس	-11.4901
▁ٿڪل	-11.4902
39	-11.4907
▁تاني	-11.4907
▁2,	-11.4909
▁عليءَ	-11.4912
▁سرنگ	-11.4914
▁تركي	-11.4915
▁تتر	-11.4916
▁ٻُڌي	-11.4917
ئِي	-11.4919
▁الحل	-11.4922
▁رکجي	-11.4923
▁1.5	-11.4927
▁گفتن	-11.493
▁منتظم	-11.493
▁Ad	-11.4932
▁مرح	-11.4937
▁كش	-11.4939
سلام	-11.494
▁عندها	-11.4942
ۆ	-11.4942
▁آذربائ	-11.4942
▁بدعنواني	-11.4942
▁ٽرانسميشن	-11.4942
▁اُداس	-11.4942
▁ميگزين	-11.4942
▁بيروزگاري	-11.4943
▁شهباز	-11.4943
▁حامد	-11.4943
▁ولادت	-11.4943
▁لاٿو	-11.4943
▁بيهوش	-11.4943
▁كتاب	-11.4944
▁تجاري	-11.4947
▁غرض	-11.4947
▁رڍ	-11.4949
▁تپ	-11.495
▁صر	-11.495
▁سڀيئي	-11.4951
▁CB	-11.4954
▁ساگر	-11.4957
▁83	-11.4957
▁ائيزيشن	-11.496
▁حضر	-11.496
ert	-11.4961
▁ڪوري	-11.4961
ke	-11.4961
▁تقبل	-11.4962
▁وچڙ	-11.4963
ting	-11.4963
كتب	-11.4965
▁پوکڻ	-11.4965
▁پوپٽ	-11.4967
▁اَن	-11.4967
▁ايڪ	-11.4968
▁اڇلي	-11.4969
▁نوڪرين	-11.497
▁ذك	-11.4973
▁نفسه	-11.4974
▁ری	-11.4975
▁پليس	-11.4976
▁ٽيو	-11.4979
▁min	-11.4981
▁دعوا	-11.4982
مور	-11.4984
▁آسرو	-11.4992
▁ڊرون	-11.4994
▁ماهو	-11.4997
▁پرده	-11.4999
ash	-11.5
▁قوميت	-11.5
▁حَ	-11.5001
LE	-11.5002
▁بنگل	-11.5002
▁ڪافرن	-11.5009
▁چک	-11.501
▁طل	-11.5011
۳	-11.5012
قص	-11.5022
▁رپورٽون	-11.5024
▁فنڪشنل	-11.5026
ِر	-11.5028
▁کڏ	-11.5033
▁قرضن	-11.5033
▁ڏهي	-11.5033
▁سينا	-11.5034
عام	-11.5034
▁حرك	-11.5036
▁ڊائ	-11.5038
▁پيئ	-11.5038
▁اسٽر	-11.504
ائز	-11.504
▁سنيپ	-11.5046
▁نامه	-11.5047
خص	-11.5052
▁ويم	-11.5055
▁توري	-11.5057
▁حامل	-11.5057
▁المنتدى	-11.5057
▁جراثيم	-11.5057
▁مختيار	-11.5057
▁ڪنوينشن	-11.5057
▁گذشت	-11.5057
▁فرعون	-11.5057
://	-11.5058
▁this	-11.5058
▁سلڪ	-11.5058
▁آزمايو	-11.5058
▁نشست	-11.5059
▁نڪرندي	-11.5059
▁رجل	-11.506
▁نقشه	-11.5061
▁علوم	-11.5061
wa	-11.5063
▁ارڙه	-11.5064
▁بلاگر	-11.5065
▁عصر	-11.5066
▁ڌوئي	-11.5066
▁سگھندو	-11.5067
▁ڪوارٽر	-11.5067
ors	-11.5069
▁ڪنڊن	-11.5069
▁An	-11.5073
▁لر	-11.5073
▁لوڪل	-11.5074
▁تنظيمون	-11.5078
هتي	-11.5082
▁سرمائيدار	-11.5082
▁تارو	-11.5082
▁آڪس	-11.5084
▁هجان	-11.5084
▁ٺهند	-11.5087
▁گَ	-11.5093
▁الرد	-11.5098
▁مکڻ	-11.5098
▁جراحي	-11.5103
▁۲۰	-11.5105
▁احلا	-11.5108
▁94	-11.5109
▁موڪلون	-11.511
▁سره	-11.5111
ڙهه	-11.5111
▁موهي	-11.5111
▁راول	-11.5116
▁خلو	-11.5116
▁160	-11.5118
▁زان	-11.5118
▁الحر	-11.5119
▁تاجر	-11.5122
▁ارسل	-11.5124
▁تازيون	-11.5125
▁هك	-11.5125
▁Jo	-11.5126
تنهنجي	-11.5129
▁نينگري	-11.5129
طبخ	-11.5129
▁ڀو	-11.5129
▁ماسي	-11.5135
▁سڏب	-11.5136
▁جناز	-11.5139
▁يف	-11.5139
▁گمراه	-11.514
▁رکڻو	-11.5142
▁سپرين	-11.5143
▁آجو	-11.5145
ئٽ	-11.5146
▁اهه	-11.5148
▁وهذ	-11.5148
▁اگ	-11.5151
▁طئ	-11.5154
▁پوره	-11.5156
▁سندو	-11.5158
گز	-11.5163
▁(19	-11.5164
▁بدا	-11.5165
ّي	-11.5167
▁رأيك	-11.5168
▁ناپسند	-11.5171
لڪائڻ	-11.5171
▁ضعيف	-11.5174
▁لوڊشيڊ	-11.5174
▁لڏپلاڻ	-11.5174
▁مشروط	-11.5174
▁نااهل	-11.5174
▁افريقي	-11.5174
▁چانسلر	-11.5174
▁ڊولپمينٽ	-11.5174
▁ھندستان	-11.5174
▁Indu	-11.5174
▁جاکوڙ	-11.5174
▁ڪلائنٽ	-11.5175
▁زاد	-11.5175
▁أقول	-11.5176
LED	-11.5176
▁طفل	-11.5176
▁تغير	-11.5176
▁ٽوڪيو	-11.5178
فيملي	-11.5179
▁فرسٽ	-11.5179
▁رٿيل	-11.518
▁قضي	-11.518
ound	-11.5181
▁لعبة	-11.5182
▁xD	-11.5182
▁پڙهائ	-11.5183
▁سينو	-11.5184
▁XD	-11.5184
▁منڊل	-11.5187
▁آھ	-11.519
ٽيڪل	-11.5191
▁ھنڌ	-11.5192
▁تجيب	-11.5192
▁شبيه	-11.5195
▁My	-11.5197
ome	-11.5199
▁جاهل	-11.5201
▁افاد	-11.5203
▁لڏ	-11.5204
▁گھڻ	-11.5209
▁ورتيون	-11.5211
▁سلائي	-11.5214
▁سئي	-11.5215
▁كري	-11.5215
▁سبي	-11.5215
▁فلوري	-11.5217
▁مھين	-11.5217
▁ظهر	-11.5218
▁ڪنارن	-11.5218
▁افراد	-11.5219
▁ton	-11.5219
▁اض	-11.522
▁سمع	-11.522
▁توي	-11.5222
▁آڳ	-11.5224
▁ٿل	-11.5233
▁آبادگارن	-11.5238
▁پنڊ	-11.524
▁ھاڻ	-11.5244
۸	-11.5245
▁صديقي	-11.5251
▁بيك	-11.5252
▁مڇ	-11.5253
▁گذاريا	-11.5257
▁گوليون	-11.5259
▁کڙ	-11.526
ical	-11.5261
ييييي	-11.5267
▁ڳنڍڻ	-11.5267
▁پارت	-11.5269
▁عقيدن	-11.527
▁باور	-11.5272
▁ڌڪي	-11.5275
▁هاڪ	-11.5276
our	-11.5276
لبى	-11.5276
▁سوف	-11.5281
▁رايك	-11.529
▁پرستار	-11.529
ريز	-11.5291
ٴ	-11.5291
▁مذڪور	-11.5291
▁اسلوب	-11.5291
▁اولمپڪ	-11.5291
▁ريگستان	-11.5292
▁انقره	-11.5292
▁اعمال	-11.5292
▁خاتون	-11.5292
▁اذيت	-11.5293
▁چرپر	-11.5293
▁عرش	-11.5294
▁<~	-11.5294
مساوات	-11.5296
ايس	-11.5299
▁پتلون	-11.5299
▁ذم	-11.5302
▁ڏينه	-11.5302
ang	-11.5305
▁سلاٽ	-11.5306
▁اجائي	-11.5307
▁ائيندڙ	-11.5308
▁براڊ	-11.531
▁هموار	-11.5312
ينٽ	-11.5314
▁ٺاهيندو	-11.5314
80	-11.5314
▁ڏن	-11.5314
▁ڪلا	-11.5316
▁حواس	-11.532
▁ناتو	-11.5323
صار	-11.5324
▁ٻارڻ	-11.5324
لیس	-11.5324
▁نشين	-11.5325
▁جاين	-11.5326
ach	-11.5326
▁مالك	-11.5326
▁دارو	-11.5326
▁بگم	-11.5327
▁عباسي	-11.5332
ـــــــــــــــ	-11.5334
▁دامن	-11.5336
▁نرال	-11.5337
▁بردار	-11.5337
▁ناڻي	-11.5339
▁ملهه	-11.5339
سٽريٽ	-11.534
شپ	-11.5341
▁ميرن	-11.5345
▁ٽيهه	-11.5345
▁نوا	-11.5346
▁ركب	-11.5346
▁ٻچا	-11.5348
▁شعوري	-11.5348
▁ting	-11.5349
▁رڪارڊنگ	-11.535
▁ورڪن	-11.535
دد	-11.5353
▁ناجي	-11.536
وئل	-11.5361
▁ڳالهائيندا	-11.5362
۲	-11.5364
▁پائ	-11.5369
▁حش	-11.537
ووول	-11.5375
غني	-11.5383
▁عنها	-11.5384
▁سطحي	-11.5385
▁Ra	-11.5385
▁وڏائي	-11.5386
▁ويھ	-11.5387
▁تران	-11.5388
ڏس	-11.5389
جنهن	-11.5391
▁بالم	-11.5391
▁پتا	-11.5392
▁خطا	-11.5399
▁ٽئ	-11.54
▁لائ	-11.54
ڊم	-11.5403
▁عَ	-11.5404
▁جاب	-11.5405
hi	-11.5406
▁جيڪٽ	-11.5409
▁بيروزگار	-11.541
न	-11.541
▁پارليام	-11.541
▁1994	-11.541
▁iPad	-11.541
▁آدمشماري	-11.541
▁متغير	-11.541
▁other	-11.541
▁منافق	-11.5411
▁1996	-11.5411
▁پيراگراف	-11.5412
▁گهوٽڪي	-11.5412
▁ايا	-11.5412
▁فرنٽ	-11.5413
▁بيچيني	-11.5413
▁تمدن	-11.5413
▁معنوي	-11.5413
▁ھوٽل	-11.5413
▁ڏنائون	-11.5414
▁سوئ	-11.5415
شوف	-11.5416
▁کلندي	-11.5421
▁سورت	-11.5422
▁اُڀري	-11.5422
▁اللعبه	-11.5423
ـِـ	-11.5425
▁وسط	-11.5426
▁ڪارناما	-11.5427
▁گرافڪس	-11.5428
▁اروح	-11.5429
▁بيدار	-11.5432
▁بڻائيندو	-11.5432
▁البيت	-11.5433
▁ha	-11.5433
▁محض	-11.5435
▁نشوف	-11.5436
▁بيري	-11.5439
▁لکندڙ	-11.5443
ذآ	-11.5443
▁منت	-11.5444
▁5000	-11.5446
AL	-11.5447
▁پوين	-11.5448
▁معد	-11.545
▁ڌرڻو	-11.5453
▁وارد	-11.5453
▁گوش	-11.5454
▁پريميئ	-11.5456
au	-11.5463
▁ڇنڊ	-11.5463
▁جلسي	-11.5464
▁عزيزي	-11.5467
▁Br	-11.5469
▁معاوضو	-11.5472
▁91	-11.5472
▁کاه	-11.5474
▁اوپ	-11.5481
▁ڇُ	-11.5482
▁ليٽي	-11.5482
▁گذاريند	-11.5483
٢	-11.5486
سنسار	-11.5486
▁ڪهاڻيءَ	-11.5491
▁ماده	-11.5494
▁تلخ	-11.5497
▁ڦرند	-11.5504
▁شرف	-11.5507
▁not	-11.5509
▁ڏاڏ	-11.5513
▁احبه	-11.552
▁گردي	-11.5523
ٽل	-11.5527
="6	-11.5529
▁1993	-11.5531
▁قیمت	-11.5531
▁سبحان	-11.5531
▁گھٽتائي	-11.5531
▁تائيوان	-11.5531
▁شاگردياڻي	-11.5531
▁USB	-11.5531
▁بروکر	-11.5532
▁ڳجھ	-11.5532
▁سوالف	-11.5532
▁گرامي	-11.5533
▁جهنم	-11.5533
▁سيڙپڪار	-11.5533
▁گهاري	-11.5534
▁وضو	-11.5536
▁انڌي	-11.5537
▁سُٺ	-11.5537
▁قرا	-11.5541
▁قلعو	-11.5541
▁ڪنول	-11.5544
▁سلامي	-11.5544
▁پنجابي	-11.5546
▁ڪوريج	-11.5549
▁ڇڏائي	-11.5549
خير	-11.555
وبائي	-11.555
▁عج	-11.5551
▁اناج	-11.5552
▁هى	-11.5553
▁ٽڪي	-11.5558
▁360	-11.5558
▁سمجھان	-11.5559
▁پيئر	-11.5561
▁فط	-11.5562
ڪب	-11.5562
▁07	-11.5568
قل	-11.5568
▁حلم	-11.5573
▁سراج	-11.5578
▁لسا	-11.558
مَ	-11.5588
فش	-11.5589
▁پيڙا	-11.5589
95	-11.5591
▁پڇيس	-11.5592
▁هُوءَ	-11.5597
▁ماپڻ	-11.5599
▁صوف	-11.56
▁هااا	-11.56
▁ميسر	-11.56
▁وح	-11.5601
▁Gr	-11.5603
شل	-11.5605
▁دانه	-11.5606
▁بچيل	-11.561
▁عطي	-11.5612
19	-11.5613
▁أب	-11.5613
▁دس	-11.5614
▁Dr	-11.5621
▁جمله	-11.5621
▁AS	-11.5625
▁ولس	-11.5627
▁ډ	-11.5633
▁اڃ	-11.5637
▁exp	-11.5644
▁واتس	-11.5652
▁انٽيليجنس	-11.5653
▁جشنواره	-11.5653
▁قاصر	-11.5653
▁ذيشان	-11.5653
▁پراجيڪٽ	-11.5653
▁سيمينار	-11.5653
▁سرطان	-11.5653
▁ٺيڪيدار	-11.5653
▁وابستگي	-11.5654
▁ٽئڪس	-11.5654
▁well	-11.5654
▁نقاد	-11.5654
▁فرينڊ	-11.5655
▁گودام	-11.5656
▁سگهندس	-11.5656
▁(2	-11.5658
▁قصدك	-11.5659
▁ٽائپ	-11.566
▁ٽينڪ	-11.566
▁ڪندؤ	-11.5661
▁بادشاهت	-11.5662
▁چراغ	-11.5662
▁وائل	-11.5662
▁هيڪل	-11.5663
▁يتيم	-11.5663
▁سپلائرز	-11.5665
▁دوک	-11.5665
▁سمجهايو	-11.5666
60	-11.5666
▁امه	-11.5667
▁ڀُ	-11.5668
▁اسٽينڊ	-11.5669
▁اووو	-11.5675
بابا	-11.5675
ai	-11.5677
▁پيڪيجز	-11.5678
▁حار	-11.5679
▁ميجر	-11.5683
▁ادل	-11.5686
ls	-11.5688
▁پوليو	-11.569
▁متوازن	-11.5691
▁ڪلينڪ	-11.5692
▁61	-11.5692
▁لنگھ	-11.5694
▁قاعده	-11.5695
▁پاڪائي	-11.5697
▁MP	-11.57
▁جدي	-11.5704
▁8:	-11.5705
▁وجهو	-11.5707
▁ميده	-11.5708
ized	-11.571
▁اشارا	-11.5714
ps	-11.5717
▁زرين	-11.5724
▁عسل	-11.5728
▁ap	-11.5734
▁ښ	-11.5736
ide	-11.5738
▁لانچر	-11.5739
▁قصا	-11.5744
▁پڳ	-11.5744
▁تحي	-11.5747
▁جڪ	-11.5748
TA	-11.5749
▁نورتي	-11.5751
▁ڄات	-11.5758
▁بی	-11.576
ٻيو	-11.576
▁فلپ	-11.577
▁محاذ	-11.5776
▁دكتر	-11.5776
▁باعث	-11.5776
▁پرداخت	-11.5776
▁ريفرنس	-11.5776
▁ارن	-11.5777
▁رونق	-11.5777
▁فاروق	-11.5778
▁ڊيڪ	-11.5778
▁درويش	-11.5779
▁پٺاڻ	-11.5779
▁سُڌ	-11.578
▁خفت	-11.5782
▁ڪج	-11.5783
فف	-11.5784
▁ياخي	-11.5784
▁معاهم	-11.5786
▁نسلي	-11.5787
▁ڪاٿي	-11.5789
▁أش	-11.5789
▁پينٽ	-11.579
اپي	-11.579
▁ثبت	-11.5796
▁بازياب	-11.5796
▁امانت	-11.5797
گير	-11.5797
▁سورهي	-11.5797
▁السم	-11.5798
▁سنة	-11.5798
▁لکندي	-11.58
▁کُلي	-11.5806
▁ڪورين	-11.5806
▁جميلة	-11.5809
▁ريش	-11.5809
▁ٻڌندو	-11.5812
▁غريبه	-11.5813
▁کنم	-11.5814
▁السي	-11.5815
▁ڪجن	-11.5815
▁اءُ	-11.5819
▁خزاني	-11.5823
▁حلا	-11.5824
▁مارن	-11.5828
▁ضر	-11.5831
▁خاڪو	-11.5833
▁اگهاڙ	-11.5833
▁لھي	-11.5837
▁04	-11.5839
نجر	-11.584
▁Man	-11.5841
▁َنِ	-11.5842
▁إي	-11.5845
▁ساڙ	-11.5845
▁چم	-11.5845
ort	-11.5846
▁He	-11.5851
جانءِ	-11.5854
▁ڀائيواري	-11.5864
cha	-11.5866
پڻ	-11.5867
▁سنڀاليو	-11.5869
فورڊ	-11.5872
▁اختك	-11.5872
▁وائيٽ	-11.5876
اھي	-11.5877
جيڪو	-11.5879
ئم	-11.588
▁ذرا	-11.5884
▁مقالا	-11.5884
▁ٽينس	-11.5888
يگاس	-11.5893
▁ڌُ	-11.5893
▁ڏُ	-11.5894
ڪيورٽي	-11.5894
02	-11.5895
▁مظاهري	-11.5896
▁وڇڙي	-11.5899
▁وابست	-11.59
️	-11.5901
▁Netflix	-11.5901
▁شوٽنگ	-11.5901
▁فروخت	-11.5901
▁ھوا	-11.5902
▁ممنون	-11.5902
▁◄	-11.5902
▁جاگيردار	-11.5904
▁آهم	-11.5904
▁أعرف	-11.5904
▁بسرعه	-11.5905
▁وڪام	-11.5905
▁طوط	-11.5906
▁تقبلي	-11.5907
▁ماهوار	-11.5908
▁تفهم	-11.591
▁مجبوري	-11.5912
اياب	-11.5913
▁؟؟؟؟؟	-11.5917
▁تياريون	-11.5918
▁اُڏ	-11.5919
▁سهم	-11.592
ائنٽ	-11.5924
ea	-11.5926
▁ism	-11.5926
▁هاٿي	-11.5928
▁غلا	-11.593
▁ثم	-11.5931
▁3000	-11.5931
▁پڪي	-11.5931
▁تعمل	-11.5936
▁پيالو	-11.5937
▁سانگي	-11.5937
▁ورجا	-11.5941
▁دستيابي	-11.5941
▁آوازن	-11.5941
▁دخلت	-11.5943
▁ڪوئل	-11.5944
▁نيوي	-11.5946
▁ٱ	-11.5946
ڌا	-11.5953
▁وضع	-11.5957
▁ڊڄو	-11.5959
▁شفتي	-11.5959
▁پسي	-11.5963
▁گانا	-11.5965
▁نيس	-11.5967
▁ايونٽ	-11.5968
▁El	-11.5968
▁ڦاس	-11.5969
▁باهم	-11.5977
▁گانو	-11.5979
▁للي	-11.598
go	-11.598
ٱ	-11.5983
▁تالا	-11.5984
▁وند	-11.5984
▁حول	-11.5984
▁پريت	-11.5984
▁ٽڪري	-11.5987
ڏاهپ	-11.5988
unt	-11.599
▁عطر	-11.5991
▁وهنج	-11.5991
▁عددي	-11.5993
ميل	-11.5997
▁سنتي	-11.6
▁سومرو	-11.6001
▁تلف	-11.6002
▁اسف	-11.6009
▁فولڊ	-11.601
▁نوم	-11.6012
داء	-11.6017
▁الام	-11.6021
بقي	-11.6021
▁قدها	-11.6022
▁بدتر	-11.6023
▁لبي	-11.6026
▁منير	-11.6026
▁AM	-11.6028
Cloud	-11.6028
▁تصنيف	-11.6028
▁سامھون	-11.6028
▁ڪنڪريٽ	-11.6028
▁مرکز	-11.6028
▁ٿلهو	-11.6028
▁۱۹	-11.6028
ction	-11.6028
▁صداقت	-11.6029
▁آکاڻي	-11.6029
▁عايز	-11.6029
▁اسحاق	-11.6029
▁ڦهلي	-11.6029
▁پني	-11.603
▁2022	-11.603
▁ردك	-11.603
▁حسرت	-11.6031
▁مساله	-11.6031
صغر	-11.6033
▁معاهد	-11.6033
▁ذلك	-11.6034
▁آندا	-11.6034
▁گين	-11.6036
▁مرس	-11.6036
▁اسپا	-11.6039
▁برك	-11.6039
▁ميوه	-11.6045
▁حاله	-11.6047
▁اينكه	-11.6048
ons	-11.6049
▁دانهون	-11.6049
▁ڦهلائ	-11.6052
یت	-11.6058
q	-11.6059
▁ڪرس	-11.6059
یں	-11.606
▁ليت	-11.6061
▁Go	-11.6061
▁الاخر	-11.6064
▁سخي	-11.6065
▁TM	-11.6065
جمع	-11.6074
▁صدقي	-11.6075
▁قاعدو	-11.6075
▁ائو	-11.6078
▁بتحب	-11.6083
▁باک	-11.6086
▁حلوو	-11.6087
▁ې	-11.6091
formation	-11.6092
▁ٻانه	-11.6094
▁السر	-11.6096
▁سگهار	-11.6096
▁باشه	-11.6098
▁خيو	-11.6098
▁خزانو	-11.6098
og	-11.61
▁پخت	-11.6102
كرم	-11.6109
▁ھلند	-11.611
▁انڌو	-11.6111
▁190	-11.6114
▁عيل	-11.6117
▁پاڻهي	-11.6117
▁بيماريون	-11.612
▁مادو	-11.612
كش	-11.612
▁لوپ	-11.6121
▁موب	-11.6122
▁جذبا	-11.6124
▁سنگل	-11.6125
▁کپن	-11.6127
▁دنگ	-11.6129
▁اسپر	-11.6131
ms	-11.6135
▁ڪھاڻي	-11.6135
▁ڄمي	-11.6137
▁زرد	-11.6139
▁شاهدي	-11.6142
▁دلع	-11.6143
▁مزا	-11.6144
▁پاڇو	-11.6144
▁اتم	-11.6148
sion	-11.6155
▁بصراحة	-11.6156
▁موٽرسائيڪل	-11.6156
▁ڇوٽڪارو	-11.6156
▁[2]	-11.6156
▁تدبير	-11.6156
آبپاشي	-11.6156
▁عاليشان	-11.6156
▁گمنام	-11.6156
▁آدرش	-11.6156
▁ياسمين	-11.6156
▁تجزياتي	-11.6156
▁خادم	-11.6156
▁اينکه	-11.6157
▁پرومو	-11.6157
▁ٽوئيٽ	-11.6157
▁سفارتخان	-11.6158
يبل	-11.6159
▁فرمود	-11.6159
▁تلقي	-11.616
▁برهمڻ	-11.616
▁رهاڪ	-11.6162
▁ٺهرائ	-11.6163
▁نصر	-11.6164
▁ٽائيٽل	-11.6164
▁راتين	-11.6164
وره	-11.6167
▁عملو	-11.6168
▁رجعت	-11.6168
▁ڀَ	-11.6171
▁ڏيکاريندو	-11.6174
ذكر	-11.6174
▁مولڊ	-11.6175
▁راب	-11.6175
▁همس	-11.6176
▁نوبل	-11.6177
▁رياضت	-11.6178
▁سگھندي	-11.6178
▁بيورو	-11.6178
▁ٺاهيندي	-11.618
▁سالفه	-11.6181
▁000	-11.6181
▁چاهيندي	-11.6182
hu	-11.6182
▁سنگهه	-11.6186
▁خواهشن	-11.6187
▁گهمند	-11.6191
▁داني	-11.6191
▁ياسلام	-11.6195
▁كتبت	-11.6198
▁رسد	-11.6199
▁اطلاعن	-11.6199
▁آئل	-11.6202
▁مايا	-11.6203
▁معهم	-11.6203
▁صدقت	-11.6204
RA	-11.6204
▁سِي	-11.6204
آف	-11.6205
▁قاعد	-11.6205
▁پِي	-11.6206
▁(5	-11.6211
▁الصوره	-11.6213
▁جئ	-11.6213
▁ڏيکار	-11.6214
▁تست	-11.6217
▁پيپ	-11.6222
ّت	-11.6225
▁هونء	-11.6228
▁ity	-11.623
▁ييي	-11.6232
▁نئي	-11.6235
▁فلي	-11.6238
&	-11.6241
▁ميخ	-11.6247
▁بيچ	-11.6249
▁شڪي	-11.625
▁ڏکيا	-11.6254
ُم	-11.6255
جنگ	-11.6257
▁رحت	-11.626
▁رني	-11.6262
▁دودي	-11.6262
▁جی	-11.6262
▁ماپي	-11.6263
IS	-11.6266
▁غز	-11.6267
▁احبك	-11.6269
▁ورسي	-11.6272
ياد	-11.6272
of	-11.6276
▁ساک	-11.6277
▁سوچيندا	-11.6279
▁دستان	-11.6282
▁ڇھ	-11.6282
▁نکن	-11.6283
tic	-11.6284
▁ڪرت	-11.6286
▁بطل	-11.6286
▁السؤال	-11.6286
▁ڪميونيڪيشن	-11.6286
▁اسپيشل	-11.6286
▁عجائب	-11.6286
▁پرعزم	-11.6286
▁ويٽنام	-11.6286
▁ڀانيان	-11.6287
▁عمودي	-11.6287
▁اوڏ	-11.6288
▁اونه	-11.6289
▁ايسڊ	-11.6292
▁Pay	-11.6294
▁هجوم	-11.6295
▁350	-11.6297
امان	-11.6299
▁متر	-11.63
▁تكتب	-11.6302
▁Da	-11.6304
▁انديشه	-11.6305
۴	-11.6308
آڪ	-11.631
▁ڏيئو	-11.6312
▁ماتم	-11.6313
ابا	-11.6313
▁خليها	-11.6313
▁حصول	-11.6317
▁پنهان	-11.6318
▁2.0	-11.6325
▁رکجو	-11.6327
بوءِ	-11.6332
▁رپورٽن	-11.6333
▁حرفي	-11.6335
▁گروهي	-11.6347
▁اراد	-11.6352
▁سوچيان	-11.6355
▁ساده	-11.6356
▁ur	-11.6359
▁قاعدي	-11.6361
▁فلڪ	-11.6361
▁if	-11.6362
▁ماڙي	-11.6362
▁احط	-11.6364
بال	-11.6364
▁110	-11.6364
آخر	-11.6373
▁عاليه	-11.6373
▁آڻين	-11.6375
▁ٽيبلٽ	-11.6379
▁وظيف	-11.638
tion	-11.6381
▁هڪڙا	-11.6382
▁ڀاڙ	-11.6383
▁ڇاپو	-11.6386
▁ang	-11.6388
▁Sp	-11.6389
▁تمر	-11.6392
▁سکين	-11.6395
▁دلدار	-11.6398
▁سربراهي	-11.6399
▁ناني	-11.6404
▁سمجهائي	-11.6404
▁Un	-11.6405
▁ڊنگ	-11.641
▁ٽرم	-11.6411
▁ُون	-11.6415
▁ستل	-11.6416
व	-11.6417
ڊفالٽ	-11.6417
▁Archives	-11.6417
▁السالفه	-11.6417
▁بدمعاش	-11.6417
▁عضلات	-11.6417
▁كلمة	-11.6418
▁ارجنٽائن	-11.6418
▁مشتاق	-11.6418
▁ائٽم	-11.6418
▁افواه	-11.6418
▁اسٽيڊيم	-11.6418
▁لغاري	-11.6419
▁ٺٽو	-11.6419
▁پشاور	-11.642
▁مسافرتی	-11.642
▁پيروڪار	-11.642
▁گندگي	-11.6422
▁گوشي	-11.6423
▁حركات	-11.6423
امام	-11.6423
▁ناشت	-11.6423
▁اسڪيل	-11.6424
▁صج	-11.6424
▁هد	-11.6425
ox	-11.6425
▁up	-11.6426
▁بنفس	-11.6426
15	-11.6428
▁قالو	-11.6428
▁ناسي	-11.6428
▁چرخ	-11.6431
▁رپ	-11.6432
▁بالڪل	-11.6433
ميان	-11.6433
▁حاس	-11.6433
▁پنگ	-11.6434
▁تطلع	-11.6436
▁MO	-11.6436
▁وساڻ	-11.6437
▁Cr	-11.6437
▁معاشرو	-11.644
▁ڇانو	-11.6441
▁گيرد	-11.6441
▁ڀنڀ	-11.6442
▁جماعتن	-11.6442
▁حوصله	-11.6443
▁چونڊيندا	-11.6444
شتر	-11.6444
▁Mar	-11.6444
▁ٺھي	-11.6444
▁ڳچ	-11.6445
▁آآآآ	-11.6449
▁غصب	-11.6455
▁اٿيو	-11.6457
▁ڀڻ	-11.6459
▁ڳنڍڻا	-11.646
▁جمي	-11.6464
▁دودو	-11.6464
▁Tag	-11.6464
▁هئ	-11.6465
▁ment	-11.6466
▁سھڻ	-11.6467
iz	-11.6468
▁آئن	-11.647
▁رويا	-11.6471
ادا	-11.6471
AT	-11.6475
▁اُتا	-11.6477
▁كلو	-11.648
▁ايسٽر	-11.6482
▁تهران	-11.6483
▁ھوس	-11.6483
▁tion	-11.6487
▁أك	-11.6487
ake	-11.6487
▁bu	-11.6492
▁اصطلاحن	-11.6493
▁ڪولي	-11.6496
▁پيشاني	-11.6496
▁لوھ	-11.65
▁مجسم	-11.6504
▁قصيد	-11.6504
▁حور	-11.6505
قد	-11.6511
▁برانڊن	-11.6511
gg	-11.6513
▁رٿا	-11.6514
▁فڪري	-11.6515
▁غيب	-11.6516
▁چمڪي	-11.652
▁پاك	-11.6521
▁زپ	-11.6523
▁فقر	-11.6524
▁نزل	-11.6526
▁جرح	-11.6527
▁گفتار	-11.6529
▁ڳوڙه	-11.653
▁بكم	-11.653
▁ڪارل	-11.653
▁گهراڻ	-11.6532
اڊا	-11.6532
▁غن	-11.6534
▁مِن	-11.6535
▁فدا	-11.6537
▁مرضيءَ	-11.6538
▁اُل	-11.654
▁اشو	-11.6541
▁احلي	-11.6541
▁خرب	-11.6546
▁lo	-11.6549
ۑ	-11.6551
а	-11.6551
▁1991	-11.6551
▁تستاهل	-11.6551
▁ڪِتاب	-11.6551
▁پڙتال	-11.6551
▁انجيڪشن	-11.6551
▁جنريٽر	-11.6551
▁سنڀار	-11.6551
▁نااميد	-11.6551
▁انگلش	-11.6551
▁آژان	-11.6551
▁back	-11.6552
▁connect	-11.6552
▁نڪاح	-11.6552
▁عبور	-11.6553
▁طق	-11.6553
▁إذا	-11.6553
▁مرورك	-11.6554
▁رھندو	-11.6555
▁الواحد	-11.6556
▁تحول	-11.6559
▁age	-11.6559
▁هما	-11.656
▁مئو	-11.6561
▁کيڏيو	-11.6561
▁2.2	-11.6561
▁اڀ	-11.6563
▁ڪرنل	-11.6564
▁---	-11.6564
▁700	-11.6565
▁جانسن	-11.6566
یٹ	-11.6569
▁چمچ	-11.657
▁منصف	-11.6572
▁ڪنداسون	-11.6574
ze	-11.6574
اير	-11.6574
▁عقب	-11.6577
▁استان	-11.6578
▁سيز	-11.6579
▁لکجي	-11.6579
▁جڻ	-11.6581
▁186	-11.6585
▁ميوا	-11.6586
▁مسيحي	-11.6586
▁لول	-11.6586
▁يرجك	-11.6587
▁سيارو	-11.6592
▁ڀريا	-11.6593
▁يازين	-11.6593
▁ورڪر	-11.6595
▁سلف	-11.6598
▁اخوك	-11.6604
37	-11.6605
▁جديده	-11.6605
▁هُي	-11.6606
▁Li	-11.6614
▁وصلت	-11.6615
▁بوي	-11.6616
▁اٽو	-11.6617
45	-11.662
▁صباح	-11.6622
سڪي	-11.6622
غيب	-11.6624
gen	-11.6624
▁زه	-11.6629
حاول	-11.6634
▁سھ	-11.6634
▁ڇپي	-11.6637
▁حسيت	-11.6638
▁نائي	-11.6639
▁السعودي	-11.6641
چڱو	-11.6641
زين	-11.6642
▁تعبت	-11.6643
▁ٽل	-11.6645
▁ازم	-11.6645
عيد	-11.6648
ڪَ	-11.6648
▁اٿل	-11.6648
▁راھ	-11.6649
▁هجري	-11.665
▁سالگرهه	-11.6653
▁بيج	-11.6653
▁پرچي	-11.6655
han	-11.6657
▁اهائي	-11.6663
لاءِ	-11.6663
ائف	-11.6668
▁ارم	-11.667
ڪلي	-11.6672
▁انب	-11.6672
▁سنوار	-11.6673
▁سوچون	-11.668
xbet	-11.6686
▁انڪوائري	-11.6686
▁پوائينٽون	-11.6686
▁بريفنگ	-11.6686
▁مراجع	-11.6686
▁آرگنائيزيشن	-11.6686
▁NEWS	-11.6686
▁تشبيه	-11.6686
▁قبائل	-11.6686
▁ديده	-11.6686
▁ميثاق	-11.6686
▁ڊزائنر	-11.6686
▁عاوز	-11.6687
▁سولنگي	-11.6687
▁سائڊ	-11.6688
▁واء	-11.6688
▁واڍي	-11.6688
▁يارو	-11.669
▁چلي	-11.6692
▁دڪاندار	-11.6696
▁مٿاهين	-11.6696
ix	-11.6697
تًب	-11.6697
▁آمر	-11.6698
▁باڊي	-11.67
▁ڪوپ	-11.6702
▁تروح	-11.6704
▁سٿر	-11.6704
▁هدي	-11.6704
▁ريگ	-11.6704
▁همچي	-11.6708
▁برل	-11.6709
▁ركز	-11.6711
▁ڌڙڪ	-11.6712
▁تبع	-11.6713
▁جنيه	-11.6713
▁انفرا	-11.6714
▁زالون	-11.6714
▁پوسٽون	-11.6715
اڻيو	-11.6715
▁87	-11.6718
▁رتب	-11.6719
▁ڪالوني	-11.6722
▁em	-11.6726
▁ادبيات	-11.6728
ٻنھي	-11.673
▁ليز	-11.6734
▁سيب	-11.6734
▁پَٽ	-11.6735
▁گهور	-11.6736
▁قرن	-11.674
▁ڍانچي	-11.6742
▁پوئ	-11.6748
▁ڄاڻائي	-11.6748
▁عثماني	-11.6749
▁افق	-11.675
▁کليو	-11.6753
▁جوري	-11.6753
▁هدا	-11.6753
آآآآآآآآ	-11.6753
ڪثرت	-11.6754
▁ٿائي	-11.6756
sm	-11.6756
▁منگ	-11.6756
▁اقولك	-11.6759
▁سرير	-11.676
▁آلله	-11.676
کيو	-11.676
حف	-11.6761
▁مسئله	-11.6762
▁زهرا	-11.6763
▁فلپائ	-11.6764
▁ساحلي	-11.6767
▁سياستدانن	-11.6769
▁نفسها	-11.6771
▁جاڳند	-11.6772
▁شيام	-11.6773
ائتي	-11.6775
▁ولآ	-11.6777
صيح	-11.6777
#	-11.6778
zz	-11.6783
▁ائب	-11.6789
▁ive	-11.6792
▁يقولون	-11.6794
▁پيلو	-11.6795
▁بچيو	-11.6796
▁حاول	-11.6798
▁کري	-11.6806
▁__	-11.6806
▁َء	-11.6807
▁بزني	-11.6809
▁أبو	-11.6809
▁عادل	-11.6809
▁ڳائيند	-11.681
▁چوڏه	-11.6811
ھڪ	-11.6811
▁برس	-11.6812
▁هز	-11.6816
▁چارجر	-11.6817
▁قسمتي	-11.6819
واپرائيندڙ	-11.6823
▁bonuses	-11.6823
▁اسڪينڊل	-11.6823
▁رُڳو	-11.6823
▁چيلينج	-11.6823
▁خدمات	-11.6823
SQL	-11.6823
▁Today	-11.6823
▁{{	-11.6823
▁الشباب	-11.6823
▁منافعو	-11.6823
▁مصلح	-11.6823
▁مهانگي	-11.6824
▁رژي	-11.6824
▁پهتاسين	-11.6824
▁عقلمند	-11.6825
▁اٽڪي	-11.6826
نشين	-11.6828
▁ڪجانءِ	-11.6828
▁منصب	-11.6829
▁بتقول	-11.683
▁نيپال	-11.683
روح	-11.683
▁فائ	-11.6832
▁پاؤ	-11.6833
▁معنائ	-11.6836
▁زيت	-11.6838
▁شرجي	-11.6838
▁ايڪي	-11.6839
▁ماڻڪ	-11.684
ge	-11.6841
ريل	-11.6842
▁ليڪس	-11.6843
▁چوين	-11.6844
▁ڇٽ	-11.6845
▁اسڪو	-11.6846
▁Bu	-11.6847
▁res	-11.6849
▁حاط	-11.6849
▁ٽاٽو	-11.6849
▁الاول	-11.6854
▁يعينك	-11.6858
▁ڊڄڻ	-11.6858
▁آڪ	-11.6859
▁ڏِ	-11.686
▁سيٽون	-11.6863
phone	-11.6865
▁خوني	-11.6866
هندو	-11.6867
▁صرت	-11.687
▁الٽرا	-11.6871
▁na	-11.6873
▁ٽرينون	-11.6876
▁كد	-11.6877
▁دادن	-11.6877
▁عوا	-11.6879
▁der	-11.688
تف	-11.6882
▁اگهن	-11.6884
▁خيم	-11.6884
▁ڪشميري	-11.6886
▁ٽرام	-11.689
▁139	-11.689
ڏهين	-11.6896
▁وائڙ	-11.6897
▁ويهين	-11.6902
▁ڀاڄي	-11.6903
ire	-11.6903
جہ	-11.6903
ess	-11.6906
▁رسيو	-11.6906
▁وحد	-11.6906
ev	-11.6908
▁پرنس	-11.6911
▁گهرڻ	-11.6912
بِ	-11.6913
▁ليبر	-11.6916
۷	-11.6916
▁افغاني	-11.6918
▁جليل	-11.6919
اٿڻ	-11.6919
▁ڀوڳي	-11.6919
▁اداڪاري	-11.6919
▁کيڏند	-11.6922
ڀلا	-11.6922
32	-11.6923
شريف	-11.6925
▁وردي	-11.6928
▁اسام	-11.6931
▁رحمان	-11.6933
▁نب	-11.6937
اسه	-11.6939
▁ڪمانڊ	-11.6939
▁هميش	-11.6943
▁سودا	-11.6944
▁قلمي	-11.6948
▁جنوبي	-11.6953
▁خانا	-11.6956
sis	-11.6961
▁يعقوب	-11.6962
▁مصالح	-11.6962
▁انتهاپسند	-11.6962
▁چانڊوڪي	-11.6962
▁آئڪن	-11.6962
▁نيويگيشن	-11.6962
▁آڳاٽ	-11.6962
▁هكذا	-11.6962
▁1975	-11.6962
▁پنجويه	-11.6962
▁ڪلارڪ	-11.6963
▁USD	-11.6963
▁دٻائڻ	-11.6963
قاطع	-11.6964
▁ناش	-11.6964
▁ڍير	-11.6964
▁دارن	-11.6965
▁ڌوڙ	-11.6965
▁مھيني	-11.6965
▁نوي	-11.6965
▁اڻپور	-11.6967
▁مسائل	-11.6967
▁خطير	-11.6968
يهر	-11.6969
▁اسماء	-11.6969
▁رأي	-11.6969
▁ارزش	-11.697
▁عڪاس	-11.697
افه	-11.697
▁نبود	-11.6972
▁يادون	-11.6976
▁ناتي	-11.6977
اڻا	-11.6979
▁حني	-11.698
ًا	-11.6981
▁ڊولپرز	-11.6982
▁140	-11.6982
▁حض	-11.6982
▁سراسر	-11.6982
باد	-11.6982
▁لئ	-11.6983
▁اداڪاره	-11.6985
▁right	-11.6985
▁اسڪور	-11.6988
▁سيما	-11.6988
▁سفارت	-11.6988
▁يسوي	-11.6989
طاف	-11.6991
▁مسير	-11.6993
▁ريڊي	-11.6994
PE	-11.6998
▁تحط	-11.6999
▁لغ	-11.7
▁فريد	-11.7001
▁Di	-11.7002
▁ist	-11.7005
▁um	-11.7005
▁گال	-11.7006
▁هديه	-11.7011
▁ID	-11.7014
▁مھا	-11.7015
▁لنگ	-11.7016
▁فصلن	-11.7018
▁برانڊي	-11.7024
▁che	-11.7026
▁سپنا	-11.7026
▁مائل	-11.7028
▁fl	-11.7028
▁صديء	-11.7028
▁معماري	-11.7031
▁ڇل	-11.7031
▁ٽڪڙ	-11.7036
▁رساني	-11.7037
ٽيشن	-11.7037
▁مينٽ	-11.7037
▁حقوقي	-11.7038
oc	-11.704
port	-11.704
▁ڪمايو	-11.7044
▁واسين	-11.7044
▁ڌرڻ	-11.7045
▁لهه	-11.7046
▁پيز	-11.7047
▁مستي	-11.7047
▁هارائي	-11.7048
▁پنا	-11.7049
▁trans	-11.705
▁لڙ	-11.705
▁ڇپجي	-11.7052
▁سيري	-11.7053
▁ابدي	-11.7054
ۍ	-11.7057
▁ٽيڊ	-11.7059
▁هاااااا	-11.7063
▁گھرو	-11.7063
▁ئا	-11.7065
▁خم	-11.7066
▁آفريق	-11.7068
▁دوز	-11.7069
اچ	-11.7069
▁اسٽيم	-11.7073
َلَ	-11.7073
▁سحب	-11.7074
▁73	-11.7074
▁ذهبي	-11.7075
▁قبض	-11.7078
▁يافت	-11.7081
▁وراڻي	-11.7081
▁آنا	-11.7082
▁ڊان	-11.7085
▁900	-11.7086
▁ٿياسين	-11.7087
▁صه	-11.709
▁افقي	-11.709
ـُ	-11.709
▁منٿ	-11.7092
▁مليح	-11.7094
▁All	-11.7097
▁مسافرت	-11.7099
▁مڪان	-11.7102
ۃ	-11.7103
▁دكتور	-11.7103
▁پسمنظر	-11.7103
▁ريگيوليٽر	-11.7103
▁مقياس	-11.7103
▁قلندر	-11.7103
▁Amazon	-11.7103
▁عروس	-11.7103
▁ڪارٽون	-11.7103
▁><	-11.7103
▁Suppliers	-11.7104
▁آسيب	-11.7104
▁چرٻ	-11.7104
▁انصاري	-11.7104
▁تنصيب	-11.7104
▁©	-11.7105
▁آهسته	-11.7106
▁فقه	-11.7107
▁چاهيندس	-11.7108
▁ڪنچ	-11.7108
▁نسيم	-11.7111
▁پريميم	-11.7111
▁هُيو	-11.7112
▁فيروز	-11.7114
▁فرصت	-11.7114
▁خوار	-11.7115
▁بڻيا	-11.7117
▁ميرسي	-11.7119
▁طلال	-11.712
▁آآآ	-11.712
▁خوبه	-11.7121
do	-11.7126
▁فريق	-11.7132
▁يستر	-11.7133
▁رهه	-11.7133
▁چارٽر	-11.7136
▁مهاڻ	-11.7136
رادو	-11.7143
▁گويا	-11.7148
▁ڇونه	-11.7149
act	-11.715
▁وبس	-11.715
▁وسيم	-11.7155
▁موسي	-11.7162
▁su	-11.7163
فضل	-11.7166
▁کاتن	-11.7166
قسم	-11.7166
nt	-11.7168
▁پهاڪو	-11.7169
▁ناهيون	-11.7169
▁٠	-11.7179
▁پِر	-11.7182
▁اڌور	-11.7183
▁يسلمووو	-11.7185
▁ٿڙ	-11.7185
▁رنس	-11.7188
▁گوئي	-11.7189
▁قديمي	-11.7192
pro	-11.7193
قرأ	-11.7193
پائر	-11.7194
ries	-11.7195
▁پولس	-11.7201
كره	-11.7202
▁برادرين	-11.7202
▁est	-11.721
▁نڪر	-11.7217
▁اقرا	-11.7217
▁اءِ	-11.7223
▁ڍو	-11.7228
▁with	-11.7232
▁هينڊ	-11.7233
▁io	-11.7236
▁اشك	-11.7237
ung	-11.724
▁ترقيء	-11.7241
ME	-11.7241
▁ڇڪيو	-11.7243
▁ثنا	-11.7244
▁لچڪ	-11.7244
▁مقصود	-11.7245
▁ٻهراڙي	-11.7245
▁الولد	-11.7246
▁ههههههاااي	-11.7246
▁was	-11.7246
▁يرحم	-11.7246
▁1948	-11.7246
▁1950	-11.7247
▁نامزدگي	-11.7248
▁پروف	-11.7248
▁عهديدار	-11.7249
▁ڪلهوڙ	-11.7249
نافذ	-11.725
▁آمديد	-11.7252
▁روانگي	-11.7253
▁پائلٽ	-11.7254
▁گُهر	-11.7255
▁مڱ	-11.7256
▁يوگا	-11.7256
▁شفٽ	-11.7259
▁گگ	-11.726
▁ميں	-11.726
▁شخصيتون	-11.7261
▁رڌل	-11.7262
▁وڌند	-11.7264
أأ	-11.7264
▁ations	-11.7265
ظر	-11.7265
▁84	-11.7265
جميڪا	-11.7266
▁عصب	-11.7267
▁بيداري	-11.7268
▁پنجون	-11.7268
▁ھفت	-11.7272
▁ٽريڪنگ	-11.7274
▁اسير	-11.7277
▁افرا	-11.7277
▁شعبو	-11.7277
▁ابڙو	-11.7278
▁ڪمانڊر	-11.7279
▁خفيف	-11.7281
▁جلوس	-11.7283
▁مممم	-11.7283
▁خواهشون	-11.7284
▁خواهيم	-11.7285
▁گذريا	-11.7286
▁ويھي	-11.7287
af	-11.7289
▁هائيڊرو	-11.7289
▁جهر	-11.729
▁سوالات	-11.7296
▁ut	-11.7297
پت	-11.7298
IA	-11.7301
▁ورجائي	-11.7302
▁سد	-11.7302
▁کڙڪ	-11.7303
▁گذاريندا	-11.7303
ڊور	-11.7303
▁ٿولهه	-11.7304
▁Ju	-11.7304
▁حٿ	-11.7313
▁تلاء	-11.7315
ورس	-11.7315
▁ابدا	-11.7316
▁راسي	-11.7318
▁ووون	-11.732
▁نداري	-11.732
▁چچ	-11.732
▁ورهائج	-11.732
▁ڻي	-11.732
▁يز	-11.7322
▁لياري	-11.7323
▁187	-11.7324
▁راستي	-11.7326
▁اتو	-11.7328
▁ٽه	-11.733
CE	-11.7331
▁أح	-11.7334
▁چاڙه	-11.7337
▁win	-11.7338
▁كسي	-11.7339
▁لوئي	-11.7343
▁الثاني	-11.7346
▁ٻيڙيءَ	-11.7346
▁غلب	-11.7346
فتح	-11.7349
▁اسٽري	-11.7354
▁تجلي	-11.7357
▁ججن	-11.7359
▁پڙھ	-11.7361
▁اٽي	-11.7362
▁جست	-11.7364
▁الجن	-11.7364
▁مسا	-11.7366
▁بى	-11.7374
▁پوسٽن	-11.7376
▁توب	-11.7379
▁برتري	-11.738
▁يله	-11.7382
▁جھو	-11.7384
OL	-11.7384
▁شى	-11.7385
▁ويجه	-11.7389
▁ناميار	-11.7389
▁خخخ	-11.739
▁1979	-11.739
▁اڻڄاڻ	-11.739
▁ٻٻر	-11.739
▁امريکا	-11.739
▁پخش	-11.739
▁پژوهش	-11.739
▁معليش	-11.739
▁ممنوع	-11.7391
▁ماجد	-11.7391
▁ٽِ	-11.7391
▁مقتول	-11.7391
▁الجديد	-11.7391
▁طعام	-11.7391
▁time	-11.7391
▁وڍي	-11.7392
▁مرحلا	-11.7392
ny	-11.7393
▁برطرف	-11.7393
▁ڇڪايو	-11.7393
▁😉	-11.7395
جارحيت	-11.7395
▁کڻندي	-11.7396
▁طولاني	-11.7397
▁ڪوٽڙي	-11.7398
▁کاڻ	-11.7403
▁جنين	-11.7403
▁دوني	-11.7406
▁3.1	-11.7406
▁ڊرا	-11.7406
▁شعري	-11.7407
▁tor	-11.741
لاق	-11.7415
▁پرتگال	-11.7417
▁اٽل	-11.7417
▁قليل	-11.7419
▁شاب	-11.7419
▁اهر	-11.742
ging	-11.7421
▁فد	-11.7422
ڍي	-11.7423
▁anti	-11.7423
▁هبل	-11.7423
▁أحس	-11.7426
▁PC	-11.7427
▁ڪاريون	-11.7434
ڇانيل	-11.7438
اؤن	-11.7439
ائج	-11.7439
▁اليڪٽرانڪس	-11.7439
▁ارز	-11.7441
فعل	-11.7443
▁جغرافيا	-11.7445
▁سهل	-11.7445
▁البم	-11.7446
▁بلندي	-11.7447
▁هالي	-11.745
▁پيئندا	-11.7451
▁واقعيت	-11.7451
▁کمپ	-11.7452
▁ER	-11.7461
▁ٽامي	-11.7461
▁سهر	-11.7465
▁مشاعر	-11.7467
▁سوئر	-11.7467
▁ياريت	-11.7467
نفس	-11.747
▁فاصل	-11.7474
▁لٽي	-11.7476
▁ماءِ	-11.7477
▁واعد	-11.7478
▁مارڪو	-11.7484
▁ملف	-11.7487
▁رياضيات	-11.7492
Sindhi	-11.7492
▁بندرگاه	-11.7493
▁چلو	-11.7494
▁گهيري	-11.7505
هنجي	-11.7507
اوٽ	-11.7507
▁تقر	-11.7508
▁گپ	-11.7508
▁وڃاي	-11.7511
▁زيان	-11.7513
حمد	-11.7515
▁نگري	-11.7517
▁راك	-11.7517
▁ديپ	-11.7518
▁سيڙپ	-11.7537
▁هيهيهي	-11.7537
▁130	-11.7537
غار	-11.7537
▁YouTube	-11.7537
▁يحفظ	-11.7537
▁پروردگار	-11.7537
▁سعادت	-11.7537
▁سنجيدگي	-11.7538
▁رضه	-11.7538
▁نارنگي	-11.7538
▁ڳاڇا	-11.7538
▁take	-11.7539
▁يونائيٽ	-11.7539
▁المدير	-11.7539
▁ساراهيو	-11.7539
ارب	-11.754
▁نخست	-11.754
▁فيڊريشن	-11.7541
▁شايف	-11.7542
▁جميع	-11.7543
▁مقطع	-11.7544
▁سجاڳ	-11.7544
▁سمير	-11.7548
▁2-3	-11.7549
خصوص	-11.755
▁رهنما	-11.755
▁چاچ	-11.7551
▁Pre	-11.7551
▁ندى	-11.7551
▁نحن	-11.7551
▁ناڪار	-11.7552
▁PDF	-11.7552
▁شماريات	-11.7554
▁ڏوهي	-11.7554
▁مامر	-11.7557
▁ڌمڪيون	-11.7557
▁عرفان	-11.7558
▁ڪنديس	-11.7559
طير	-11.756
▁اطلع	-11.7561
▁جھڙا	-11.7561
▁هاڪاري	-11.7561
▁درسي	-11.7563
▁دٻ	-11.7564
▁www	-11.7567
▁ڀانيو	-11.7567
▁عيوني	-11.7567
▁عيال	-11.7567
▁ترجم	-11.7571
▁يهم	-11.7571
▁شکل	-11.7571
▁صفات	-11.7572
▁جِ	-11.7573
▁شط	-11.7574
▁جزيره	-11.7574
▁ووٽنگ	-11.7578
▁عمارتون	-11.7579
ene	-11.7579
▁نآ	-11.7581
▁ميشن	-11.7581
تحمس	-11.7582
▁چاقو	-11.7583
▁بسس	-11.7585
▁ٺل	-11.7587
▁خص	-11.7587
▁تقدر	-11.7589
▁پاتو	-11.7592
▁جنوب	-11.7593
دآ	-11.7601
que	-11.7603
▁زمن	-11.7604
▁پختو	-11.761
▁انى	-11.7611
▁اسپن	-11.7613
▁وايو	-11.7621
▁ٻيڙيون	-11.7622
ڊنٽ	-11.7627
▁عجبك	-11.7629
▁مقاله	-11.7631
ظهر	-11.7632
▁علاق	-11.7634
▁وڌا	-11.7636
مالٽا	-11.7637
▁فول	-11.7638
منٽ	-11.7639
▁هرڻ	-11.7639
ساعد	-11.764
▁موسى	-11.7643
چارج	-11.7643
تضاد	-11.7643
▁ڪامور	-11.7645
▁عليڪ	-11.7647
▁ڪيٽي	-11.7649
▁پاره	-11.765
▁اصلی	-11.7651
▁لولي	-11.7656
xy	-11.7658
▁اڇلاي	-11.7659
▁زود	-11.7662
▁ڌمڪي	-11.7666
▁رپورٽنگ	-11.7671
▁شعبا	-11.7672
▁ڇٽي	-11.7675
▁ڀائ	-11.7675
▁ماعرف	-11.7677
▁پھر	-11.7678
تجرباتي	-11.7679
▁مارين	-11.7681
▁ڪہ	-11.7682
▁ڇڙ	-11.7682
▁Du	-11.7683
े	-11.7687
ڎ	-11.7687
▁1984	-11.7687
▁URL	-11.7687
▁واپرائڻ	-11.7687
▁شرکت	-11.7687
▁انتشار	-11.7687
▁هيملٽ	-11.7687
▁واڌايون	-11.7687
▁گانڌي	-11.7687
▁ڏاڏا	-11.7687
▁(9)	-11.7687
▁شمشير	-11.7687
▁1971	-11.7688
▁will	-11.7688
▁ترحيب	-11.7689
▁ياحبي	-11.7689
▁احاط	-11.769
▁نداشت	-11.769
▁رھندا	-11.769
▁پُٺ	-11.769
▁فلائيٽ	-11.7691
▁کج	-11.7695
▁ڏسنداسين	-11.7695
▁قار	-11.7696
24	-11.7696
▁سنج	-11.7696
▁جمن	-11.7697
▁نهاريند	-11.7699
▁اروپا	-11.77
▁اكتر	-11.7701
لائيٽ	-11.7701
▁مرندي	-11.7702
▁احل	-11.7702
▁ساجن	-11.7703
▁ڪرونا	-11.7705
▁زلف	-11.7705
▁نک	-11.7707
▁زاويه	-11.7707
▁ماتا	-11.7707
▁يكتب	-11.771
▁بورس	-11.7711
▁امسك	-11.7712
▁لاڏ	-11.7712
▁مقبر	-11.7713
▁النت	-11.7715
▁ling	-11.7716
▁قطب	-11.7718
▁ڪنٽرولر	-11.7719
۶	-11.7726
ميڊريز	-11.7726
▁عقلي	-11.7727
▁ھجن	-11.773
وڪار	-11.773
▁اسكت	-11.7732
ٻو	-11.7733
▁توحيد	-11.7735
▁فنگ	-11.7738
▁گريز	-11.7741
▁تصير	-11.7741
▁بياد	-11.7742
▁tic	-11.7743
▁سِٽ	-11.7744
▁ڪرد	-11.7748
ary	-11.775
▁أر	-11.7751
▁ڀال	-11.7752
▁اخير	-11.7753
لاگ	-11.7757
▁فوٽوز	-11.7758
▁آدمي	-11.7759
▁iz	-11.7762
لينڊ	-11.7763
▁پکيڙي	-11.7764
tan	-11.7765
▁شکر	-11.7767
har	-11.7768
iss	-11.7772
كثر	-11.7775
▁Ch	-11.7777
▁تڪي	-11.7781
▁فرقي	-11.7784
▁مجموع	-11.7785
▁؟'	-11.779
21	-11.7791
فسر	-11.7793
▁روب	-11.7797
▁سڌاري	-11.7797
▁خلاصه	-11.7797
▁اُج	-11.7802
سيا	-11.7804
▁اڙ	-11.7805
▁عهدو	-11.7805
▁ولكن	-11.7805
نتظر	-11.7806
ینڈ	-11.7809
انگي	-11.7809
▁حجر	-11.7809
▁مايو	-11.7812
▁پات	-11.7817
▁بوند	-11.782
▁الليل	-11.7821
ايب	-11.7823
▁روايتون	-11.7824
▁مئنيج	-11.7825
ئنڊ	-11.7827
▁مينا	-11.7833
▁ڳي	-11.7835
="0.2	-11.7838
▁سبسڪرپشن	-11.7838
▁پشتيباني	-11.7838
▁انگلستان	-11.7838
▁تغيير	-11.7838
يوگرافي	-11.7838
يييي	-11.7838
▁ڪينيڊي	-11.7839
▁(8)	-11.7839
▁رفيق	-11.7839
▁ٽالپر	-11.7839
▁1989	-11.7839
▁ڦاهي	-11.7839
▁تسمع	-11.7839
▁شبنم	-11.784
▁مختار	-11.784
▁post	-11.784
▁اعلم	-11.784
▁رضو	-11.784
▁§	-11.7841
▁آميز	-11.7841
▁صنم	-11.7843
▁سينڊ	-11.7844
▁طير	-11.7845
▁اھميت	-11.7846
▁وجھ	-11.7847
▁قف	-11.7849
▁اقصد	-11.7849
▁گيئر	-11.7851
▁dr	-11.7852
▁هٿياربند	-11.7854
▁شركت	-11.786
▁سلا	-11.786
▁185	-11.7862
▁ومش	-11.7863
▁ڪرائيندو	-11.7863
▁ٻوليء	-11.7863
▁شمالي	-11.7864
چی	-11.7865
▁ستاره	-11.7868
▁چهار	-11.7868
▁آفريقا	-11.7879
▁پبلشر	-11.788
▁ڳايو	-11.788
SI	-11.7882
▁نعرو	-11.7882
▁پٽو	-11.7883
▁جٽ	-11.7884
▁ربط	-11.7886
▁دِ	-11.7886
▁سجدو	-11.7888
▁خصوصا	-11.7889
▁جيمس	-11.7889
▁ديسي	-11.7889
▁صنعتڪار	-11.7891
▁ناڪ	-11.7896
▁Th	-11.79
▁إيه	-11.7907
▁پنو	-11.791
ڳئون	-11.7911
▁بخشش	-11.7912
▁اسمع	-11.7913
yl	-11.7918
▁مزح	-11.7921
▁كنه	-11.7922
▁ڍول	-11.7926
وڌو	-11.7928
▁پڙهيا	-11.7929
▁قب	-11.7934
▁کڙي	-11.7935
▁لڙي	-11.7938
▁تحريرون	-11.794
▁ٽرپ	-11.7942
▁وحش	-11.7945
مفروض	-11.7947
▁ماعند	-11.7947
▁واصل	-11.7947
لللل	-11.7951
▁آد	-11.7951
▁دارم	-11.7952
▁هڏي	-11.7955
-2	-11.7957
▁عبا	-11.7961
▁18:	-11.7965
▁1500	-11.7965
▁Ka	-11.7965
▁فوٽن	-11.7966
▁ريٽر	-11.7967
▁انوک	-11.7969
▁0.1	-11.797
▁علامتون	-11.7971
▁مختص	-11.7974
▁اشتري	-11.7976
ديدگاه	-11.7976
▁۱۳	-11.7978
▁نايم	-11.7979
hr	-11.7984
▁اااااي	-11.7987
ڳڻ	-11.7987
▁ايندين	-11.7988
کس	-11.799
oot	-11.799
▁درياء	-11.7991
ڸ	-11.7992
▁Outlook	-11.7992
▁اصفهان	-11.7992
▁لاڙڪاڻو	-11.7992
▁لمرورك	-11.7992
▁اسپانسر	-11.7992
▁حُڪم	-11.7992
▁مرکب	-11.7992
▁نژاد	-11.7992
▁world	-11.7992
▁درهم	-11.7992
▁پرهيزگار	-11.7993
▁پرفارمنس	-11.7993
▁اتساه	-11.7993
▁وڻيو	-11.7994
▁ڪهڙن	-11.7994
▁عامر	-11.7994
▁ڏورانه	-11.7995
▁عموما	-11.7996
▁ديش	-11.7996
▁رايح	-11.7996
▁اجراي	-11.7997
▁تط	-11.7997
▁ڪڏهين	-11.7998
▁کڻو	-11.7998
▁گوت	-11.7999
▁مقلب	-11.7999
▁تحميل	-11.7999
▁اعتقد	-11.7999
▁ڪرپٽ	-11.8
راد	-11.8002
▁شكراً	-11.8002
▁مستحيل	-11.8003
▁ڳو	-11.8003
▁ڀَر	-11.8004
▁محلي	-11.8004
سافر	-11.8004
▁ساقي	-11.8008
▁کارائڻ	-11.8009
▁گذارش	-11.8009
أنا	-11.801
▁غيرك	-11.801
▁ڦوٽو	-11.8012
▁لاهڻ	-11.8012
ise	-11.8015
▁سولائي	-11.8016
▁سمت	-11.8016
▁ڏِي	-11.8016
لويئر	-11.8018
▁ڇڪيند	-11.8019
▁نياپو	-11.8019
▁غذائيت	-11.802
▁جماليات	-11.8021
▁رائعة	-11.8023
▁مارس	-11.8028
▁my	-11.8031
▁ڪيفي	-11.8031
▁روپي	-11.8033
کڻ	-11.8035
▁نرمي	-11.8035
▁وئ	-11.8037
▁يااا	-11.8039
َوَ	-11.804
fa	-11.8045
▁پنهج	-11.8048
▁ھِ	-11.8049
▁خيز	-11.8062
▁لکڻيون	-11.8064
▁انڌير	-11.8066
فة	-11.8066
▁pi	-11.8066
▁الاس	-11.8068
▁آرسي	-11.8072
▁پيوسته	-11.8075
▁مشڪ	-11.8077
▁سينيٽر	-11.8077
خرج	-11.8079
▁So	-11.808
▁مخصوصا	-11.808
▁ميمو	-11.8082
▁CA	-11.8084
▁تى	-11.8084
▁زوم	-11.8085
▁السو	-11.8094
▁طم	-11.8095
▁مذا	-11.8098
▁مزور	-11.8099
▁تز	-11.8099
▁ڪوڪو	-11.81
▁حف	-11.8102
•	-11.8102
@	-11.8103
ml	-11.8103
رائڊ	-11.8103
→	-11.8103
▁حالانڪ	-11.8104
▁مُرڪي	-11.8104
▁قصدي	-11.8105
▁ٻاراڻ	-11.8111
جواب	-11.8111
▁لأنه	-11.8113
▁ويڪري	-11.8116
▁Ti	-11.8117
▁زخمن	-11.812
بڪ	-11.8127
▁,"	-11.8127
▁دلير	-11.8131
▁مذ	-11.8132
سكت	-11.8133
▁پڪڙيو	-11.8133
▁tra	-11.8135
▁گيان	-11.8136
▁مئن	-11.8136
▁ديدي	-11.8139
▁لمحا	-11.8145
ga	-11.8146
▁اسئل	-11.8147
▁شورا	-11.8148
द	-11.8148
empty	-11.8148
ۊ	-11.8148
▁1973	-11.8148
▁API	-11.8148
▁ايڊيٽوريل	-11.8148
▁ثلاث	-11.8148
▁پبليڪيشن	-11.8148
▁مٽاسٽا	-11.8148
▁ارسطو	-11.8148
▁شعاع	-11.8148
▁خخخخ	-11.8148
▁کڄي	-11.8148
▁٢٠	-11.8148
▁حزب	-11.8149
▁المشكله	-11.8149
▁پاکستان	-11.8149
▁مشابه	-11.8149
▁ٻاجھ	-11.8149
▁۔۔۔۔۔	-11.8149
▁عمومي	-11.815
▁ڀريندؤ	-11.815
▁شوفي	-11.8151
▁أول	-11.8151
▁وٺندس	-11.8151
▁رٻڙ	-11.8151
▁اپنائڻ	-11.8153
▁ڪپتان	-11.8153
▁الارم	-11.8153
▁هسٽنگ	-11.8153
▁ٻيڙيء	-11.8153
EM	-11.8155
▁دفع	-11.8155
▁انتبه	-11.8157
▁حجاب	-11.816
▁پچائڻ	-11.816
▁ڄاڻين	-11.816
▁البا	-11.8165
▁سے	-11.8165
▁مڃان	-11.8166
▁گردد	-11.8166
▁ځوا	-11.8166
▁اھڙا	-11.8169
▁شماري	-11.8169
▁احمق	-11.8169
▁ويهند	-11.8173
▁سلائيڊ	-11.8174
نبض	-11.8174
▁وڙهندا	-11.8176
▁گولف	-11.8177
▁اُم	-11.8181
▁بحرين	-11.8181
▁سپيد	-11.8181
▁مغز	-11.8183
▁چلم	-11.8185
▁روبي	-11.8185
▁معجزو	-11.819
▁ٿيندس	-11.8191
▁پڌر	-11.8193
▁نچي	-11.8194
▁گرانٽ	-11.8195
▁واح	-11.8196
ركب	-11.82
▁حليل	-11.8203
▁نيٽو	-11.8204
▁قبوليت	-11.8206
▁کد	-11.8207
▁ڏيهي	-11.8207
▁گني	-11.8211
▁اڏامون	-11.8211
▁ڏسڻو	-11.8216
▁اسمها	-11.8217
▁ٻڌائ	-11.8221
▁رڪاوٽون	-11.8231
▁ڳالهائين	-11.8231
▁يها	-11.8234
▁AN	-11.8234
▁عض	-11.8235
ٹي	-11.8246
▁ٽائن	-11.8246
▁ڊاڪ	-11.8246
ھائي	-11.8247
RE	-11.8247
rg	-11.825
▁اسمه	-11.8253
▁چاق	-11.8253
▁رکج	-11.8256
▁ماتر	-11.8256
▁وول	-11.8256
طلب	-11.8258
▁ڏاڍيون	-11.8258
▁بسيار	-11.826
▁اَچ	-11.8263
اوهان	-11.8263
تخلص	-11.8264
▁انٽيلي	-11.8265
▁نوشت	-11.8267
▁سگه	-11.8267
▁ڀُل	-11.827
▁مٺ	-11.8271
دف	-11.8272
▁گھڻيون	-11.8277
29	-11.8278
▁مهند	-11.828
ber	-11.8281
SA	-11.8281
▁آفر	-11.8281
ence	-11.8282
▁بانو	-11.8284
▁بيهند	-11.8287
▁جُو	-11.8288
▁برائوز	-11.8293
رٍ	-11.8294
ظاهر	-11.8296
▁كند	-11.8297
روجن	-11.8303
▁اسٽيبلشمينٽ	-11.8307
▁المشاركات	-11.8307
▁اينالائيٽڪس	-11.8307
▁جلاوطن	-11.8307
▁جائداد	-11.8307
▁تلعب	-11.8307
▁جعفر	-11.8307
▁رغد	-11.8307
▁ڏڪڻ	-11.8307
سريلنڪا	-11.8307
▁هائپر	-11.8307
▁مرتضي	-11.8307
▁رچرڊ	-11.8307
▁پگهر	-11.8307
▁کميسيون	-11.8307
▁مطهري	-11.8307
▁يخرب	-11.8308
▁چگونگي	-11.8308
▁اعجبتني	-11.8308
▁اعضاء	-11.8308
▁ڊيلٽا	-11.8309
▁مبتني	-11.8309
▁دعوى	-11.831
▁روادار	-11.831
▁نروار	-11.831
هائو	-11.831
▁مهاڳ	-11.831
lan	-11.8311
▁ٺاھيندڙ	-11.8311
▁هٻڪ	-11.8311
▁فرمايائون	-11.8312
رکوز	-11.8312
▁ٿورائت	-11.8312
سوخ	-11.8313
▁همان	-11.8313
▁مثلاً	-11.8313
▁موفق	-11.8314
▁ٽتو	-11.8315
▁مچائي	-11.8315
▁ٻانھ	-11.8317
▁لائف	-11.8318
▁ڦاٿل	-11.8318
▁لڌا	-11.8319
▁جالس	-11.8319
▁رٽ	-11.8321
▁ღ	-11.8321
▁رنو	-11.8321
▁اخاف	-11.8322
▁سڪو	-11.8323
▁ڪنٽينر	-11.8323
▁ورڻ	-11.8324
▁Dis	-11.8325
▁عهدن	-11.8325
▁9:	-11.8325
▁پنجره	-11.8326
چوئل	-11.8327
▁ڪوڪي	-11.8327
▁پالش	-11.8329
▁مُل	-11.833
▁تدخل	-11.833
▁رائد	-11.8331
▁ٻانهون	-11.8332
▁US	-11.8334
▁❤	-11.8334
▁شگر	-11.8335
▁گيمز	-11.8338
ڀرائي	-11.8339
▁AC	-11.8339
▁سنين	-11.834
فرق	-11.834
▁^^"	-11.8341
▁125	-11.8342
▁انگور	-11.8343
▁پهچائيندو	-11.8345
▁ٻيلو	-11.8347
▁معايا	-11.8347
▁ڪوئيٽ	-11.8347
▁احتر	-11.8348
▁ضي	-11.8349
▁معصومه	-11.835
▁الإ	-11.835
▁مدام	-11.835
ization	-11.835
▁ڊيلر	-11.8352
▁fa	-11.8353
ins	-11.8354
▁پيٽرن	-11.8355
▁زيادي	-11.8359
▁گھرندو	-11.8359
▁منجھان	-11.8362
▁ورس	-11.8363
▁هئينءَ	-11.8364
▁مُک	-11.8367
▁پهاڙي	-11.8368
▁بُک	-11.8369
▁هاااا	-11.8369
▁آرين	-11.8369
▁ايري	-11.8373
▁رشو	-11.8375
▁اره	-11.8376
خوان	-11.8377
▁مائو	-11.8378
▁بليو	-11.8379
▁مصور	-11.8382
▁ٻچڙ	-11.8384
▁ڀڃ	-11.8388
▁حيواني	-11.8389
▁خلف	-11.839
▁ڀرو	-11.8391
▁mp	-11.8391
▁خخ	-11.8394
▁ٺا	-11.8394
▁ڪڍو	-11.8397
▁138	-11.8399
▁هيتر	-11.8402
▁طريقت	-11.8405
فيت	-11.8405
▁مِٽ	-11.8407
▁ويش	-11.8408
▁علينا	-11.841
▁غاد	-11.8411
▁چيزا	-11.8416
▁صب	-11.8417
▁هش	-11.8419
▁حاج	-11.8421
ندگي	-11.8423
▁ڪِري	-11.8424
▁بڪس	-11.8424
▁طال	-11.8425
▁نَه	-11.8425
عيش	-11.8425
▁پلو	-11.8426
▁أخوي	-11.8428
ستر	-11.8434
▁مينيج	-11.8436
ino	-11.844
▁اسٽيو	-11.844
▁ڇپر	-11.8447
▁قسمين	-11.8449
▁صوبو	-11.8452
▁آيات	-11.8454
ذليل	-11.8456
▁NO	-11.8458
لنس	-11.8459
▁كون	-11.8459
▁Sc	-11.8467
טּ	-11.8468
▁عنجد	-11.8468
▁مبدع	-11.8468
▁sc	-11.8468
▁داعش	-11.8468
▁سرشتي	-11.8469
▁الساع	-11.8469
▁باطل	-11.8469
▁اندرويد	-11.8469
▁غافل	-11.8469
▁ٻاڦ	-11.8469
jack	-11.8469
▁شعار	-11.8469
▁نبير	-11.8469
▁مفڪر	-11.847
▁اڪرم	-11.847
▁ميشود	-11.847
▁الفاظ	-11.847
▁كويس	-11.8471
▁نڪرندڙ	-11.8471
▁انرجي	-11.8472
▁ناظر	-11.8472
▁Car	-11.8473
▁ميدوني	-11.8474
▁کوجنا	-11.8475
▁گدڙ	-11.8475
▁گياهان	-11.8475
▁ٽيڪساس	-11.8476
▁ابليسك	-11.8477
▁سوشلزم	-11.8477
▁جرسي	-11.8478
▁شڪريو	-11.8481
▁ساهي	-11.8481
▁مرن	-11.8482
▁تنهائي	-11.8483
▁سگهڙ	-11.8484
▁پهلوي	-11.8485
▁بلاگرز	-11.8486
▁ٻڌندڙ	-11.8486
اااااااااي	-11.8486
▁يعطي	-11.8487
▁مامو	-11.8489
▁اينجا	-11.849
▁شيعي	-11.849
أإ	-11.849
▁پلاننگ	-11.8492
ااااااااااا	-11.8493
▁ساراھ	-11.8493
▁جهو	-11.8493
▁پوٽ	-11.8494
▁وااا	-11.8494
▁٦	-11.8498
▁نسوي	-11.8499
▁وڻند	-11.8499
▁گھٽجي	-11.8499
▁جهٽ	-11.8499
▁ڪشاد	-11.85
▁المع	-11.8501
▁نيش	-11.8503
▁نعرا	-11.8505
49	-11.8506
▁new	-11.8513
▁ونڊي	-11.8513
▁ٽوڙ	-11.8514
▁ڪفن	-11.8515
▁ربيع	-11.8515
دير	-11.8515
▁ِِ	-11.8523
▁(4	-11.8523
▁چهارم	-11.8528
▁بتيون	-11.853
▁ڪمرا	-11.8535
▁حح	-11.8537
▁ريح	-11.8537
▁آسر	-11.8538
▁رُخ	-11.8544
▁SA	-11.8546
▁تخلي	-11.8552
ush	-11.8552
▁بنج	-11.8552
▁اقا	-11.8553
▁گنگ	-11.8554
▁شاديون	-11.8556
22	-11.8557
▁انڌا	-11.8565
▁ڏر	-11.8566
▁ضلعو	-11.8569
▁دسته	-11.8572
▁بلٽ	-11.8584
ٻئي	-11.8586
▁ڳنڍ	-11.8588
اقب	-11.8589
▁الض	-11.8589
▁پناهي	-11.859
▁عصا	-11.8597
▁أخو	-11.8601
▁سامراجي	-11.8603
▁باشند	-11.8603
جسٽ	-11.8604
▁چتر	-11.8612
▁البي	-11.8613
mu	-11.8613
▁تعليمات	-11.8613
ڄائي	-11.8613
▁At	-11.8617
▁المر	-11.8618
▁مائن	-11.862
▁اية	-11.8622
▁سجاڳي	-11.8625
▁ازاي	-11.8628
ular	-11.8631
▁اکڙي	-11.8632
▁Daily	-11.8632
▁الحمدلله	-11.8632
▁انرژي	-11.8632
▁کثافت	-11.8632
▁المسكين	-11.8632
▁تتكلم	-11.8632
▁سيمالٽ	-11.8632
▁سابق	-11.8633
▁الجميل	-11.8633
▁(7)	-11.8633
48	-11.8633
▁شرارت	-11.8634
▁نافرمان	-11.8634
▁پڙهايو	-11.8634
▁نحو	-11.8635
▁اميدون	-11.8635
▁يفهم	-11.8637
▁طعن	-11.8637
▁ڌرتيء	-11.8638
▁مٿاه	-11.8638
▁بمقابل	-11.8638
▁5)	-11.8639
▁خسار	-11.8639
▁مزاجي	-11.864
▁mg	-11.8642
▁رليف	-11.8642
▁ميدو	-11.8642
▁لڌي	-11.8643
▁تعدد	-11.8643
▁قصة	-11.8644
▁بانک	-11.8644
▁معناها	-11.8644
05	-11.8645
▁کِ	-11.8645
ٽار	-11.8645
▁وردة	-11.8646
▁گھير	-11.8646
▁مئٽر	-11.8647
▁اسڪائي	-11.8648
▁آڌي	-11.8648
▁فيفا	-11.8648
▁جھڙوڪ	-11.8649
▁روماني	-11.865
▁مساج	-11.8651
▁این	-11.8651
▁ٽيچر	-11.8652
▁چوند	-11.8652
▁ڇڏينداسين	-11.8653
▁لنگر	-11.8654
يکارڻ	-11.8655
ڪڪ	-11.8656
▁دخ	-11.8656
▁تعب	-11.8656
▁اضرب	-11.8656
EC	-11.8657
▁]]	-11.8658
▁واڳ	-11.866
▁کوليا	-11.866
▁}}	-11.866
▁هئاسون	-11.866
▁ڪيمپس	-11.866
▁نچ	-11.8664
▁Per	-11.8668
▁چيئر	-11.867
▁زهريل	-11.8672
گهو	-11.8677
▁پيامک	-11.8677
▁مشڪو	-11.8679
▁حوصلو	-11.8679
▁تعليقك	-11.8681
▁عف	-11.8682
▁بيلي	-11.8683
▁نوازي	-11.8686
▁ڊوڙند	-11.8687
▁نمائندا	-11.8689
▁بروح	-11.8689
قب	-11.8692
▁اصلاحي	-11.8693
▁هِڪ	-11.8693
▁مرحبا	-11.8697
▁وهائي	-11.8699
▁پاڇ	-11.87
▁حجت	-11.87
▁سرڪش	-11.8701
ear	-11.8701
وں	-11.8704
ii	-11.8711
stain	-11.8712
▁کنئي	-11.8714
بوس	-11.8714
▁ڊاه	-11.8715
▁ate	-11.8718
▁خيرها	-11.8718
▁كك	-11.872
▁وراك	-11.8724
▁ورڪنگ	-11.8727
▁لنڪا	-11.8737
▁ڏهاڙو	-11.8737
▁راسه	-11.8742
▁Do	-11.8747
▁متو	-11.8751
▁ارس	-11.8753
څ	-11.8754
عظيم	-11.8755
ark	-11.8755
▁ليها	-11.8755
طالع	-11.8756
بندي	-11.8758
▁ووٽر	-11.8759
▁دق	-11.8761
▁اسپري	-11.8762
GB	-11.8763
▁لڇ	-11.8764
عالج	-11.8764
▁سپا	-11.8765
▁گود	-11.877
▁خانم	-11.877
▁16:	-11.8774
▁ٽرا	-11.8775
▁شوفو	-11.8775
▁الهه	-11.878
▁کٽيو	-11.8785
▁مزاح	-11.8786
جيئن	-11.8788
▁هارون	-11.8788
▁خليك	-11.8796
ü	-11.8799
▁1977	-11.8799
▁اسڪوائر	-11.8799
▁انجليزي	-11.8799
▁اوسيئڙ	-11.8799
▁روڪٿام	-11.8799
▁فيڪلٽي	-11.8799
▁لذيذ	-11.8799
▁يونيفارم	-11.8799
▁ٽيمپليٽ	-11.8799
▁پرڏيهه	-11.8799
▁مبلغ	-11.8799
▁آٿت	-11.8799
▁ههههههااااي	-11.8799
▁معلش	-11.8799
▁أحلى	-11.8799
اشعور	-11.8799
▁ويٺس	-11.8799
ko	-11.88
▁ڙيون	-11.88
▁گہر	-11.88
▁نشريات	-11.88
▁روبرو	-11.8801
▁نڪرندا	-11.8801
▁ڊزن	-11.8802
▁),	-11.8804
▁بُر	-11.8805
▁مقا	-11.8806
▁تائيد	-11.8807
▁راكان	-11.8808
▁ٽائل	-11.8809
▁جهڪي	-11.8809
▁مناظر	-11.8809
▁ڦيرائي	-11.8809
باخبر	-11.881
▁فردوس	-11.881
▁بتعرف	-11.881
▁گھوڙ	-11.881
▁اڇ	-11.8811
▁دراز	-11.8812
▁كلمه	-11.8813
▁رڙي	-11.8813
فور	-11.8814
▁ڌاڳ	-11.8814
ney	-11.8815
▁سگهندين	-11.8816
▁2.5	-11.8816
▁قبولي	-11.8817
▁ڇَ	-11.8818
▁تعجبني	-11.8818
▁♡	-11.882
▁♪	-11.8821
▁شرك	-11.8821
▁يومين	-11.8821
▁سگهبو	-11.8823
▁تبليغات	-11.8824
▁اوتار	-11.8825
فرح	-11.8825
▁بانڊ	-11.8825
ٻڙ	-11.8827
▁ارمان	-11.8827
▁آذر	-11.8828
▁سنگتي	-11.8829
▁ڪڍيا	-11.8829
▁دڳ	-11.883
▁رعب	-11.883
▁انتخابات	-11.8831
▁واللي	-11.8831
▁پڪاري	-11.8831
▁فوٽوگرافي	-11.8833
▁ٻير	-11.8833
▁تكفون	-11.8835
▁راڻو	-11.8835
▁درجن	-11.8836
▁ڏاند	-11.8837
▁رجب	-11.8838
▁اٿاريو	-11.884
PO	-11.884
▁تيني	-11.8841
▁ريجن	-11.8842
▁آزاديء	-11.8843
▁ٽڙي	-11.8844
▁ڊنر	-11.8845
new	-11.8846
▁مذھب	-11.8847
▁قولت	-11.8848
كبر	-11.8849
▁سماع	-11.8858
▁bl	-11.8859
▁چينلز	-11.8859
▁ميوي	-11.8861
▁گاديء	-11.8865
▁معرڪ	-11.8869
▁ڌريون	-11.8869
▁ماڙ	-11.887
▁رپورٽر	-11.8872
▁نسب	-11.8874
▁مجنونه	-11.8878
▁app	-11.8878
▁نعر	-11.888
▁بنگالي	-11.8884
▁عِ	-11.8888
▁po	-11.8892
▁لولو	-11.8898
لحين	-11.8898
▁ڪچو	-11.8899
▁ڳڀ	-11.8904
▁راق	-11.8909
▁تائي	-11.8911
▁لينن	-11.8911
▁سف	-11.8913
▁قصد	-11.8914
▁3.0	-11.8918
ورانه	-11.8921
▁چڙهيل	-11.8922
▁ميپ	-11.8922
▁هجون	-11.8922
▁ڊل	-11.8924
▁Ho	-11.8929
▁زيك	-11.893
▁تعرفو	-11.893
▁خدشا	-11.893
▁آڱري	-11.8931
ٺيڪ	-11.8934
▁بتك	-11.8941
▁مارج	-11.8943
▁مديره	-11.8946
▁يندڙ	-11.895
▁اتش	-11.8951
▁ڪيوسون	-11.8952
▁8)	-11.8956
▁ناهه	-11.8956
▁نُ	-11.8958
▁ابليس	-11.896
▁گڻ	-11.8965
▁ڦوڪ	-11.8966
ो	-11.8968
▁اعجاز	-11.8968
▁بارسلونا	-11.8968
▁سخاوت	-11.8968
▁نائيجيريا	-11.8968
▁يھودي	-11.8968
▁ڌانڌلي	-11.8968
▁اُڇل	-11.8968
view	-11.8968
▁❤️	-11.8968
▁راڪ	-11.8969
▁منشور	-11.8969
▁نارنجي	-11.8969
▁لذت	-11.8969
▁شرعي	-11.897
▁درحقيقت	-11.8971
▁سونهري	-11.8971
▁صعب	-11.8971
اڍائي	-11.8971
▁سرجري	-11.8972
▁ملح	-11.8973
▁سانچا	-11.8974
▁ائيڊ	-11.8974
▁SS	-11.8974
▁پينشن	-11.8975
▁آڪاش	-11.8975
▁بيرون	-11.8977
▁تاريخچه	-11.8979
▁Bit	-11.8982
▁کائنس	-11.8982
▁آٽومي	-11.8983
▁شيوه	-11.8984
▁وڌائيندي	-11.8985
▁ضحكني	-11.8985
▁المس	-11.8985
cu	-11.8986
▁چريا	-11.8991
▁سجاد	-11.8992
▁آياسين	-11.8993
▁موصل	-11.8994
▁ڀلار	-11.8994
der	-11.8994
▁ab	-11.8997
DE	-11.9
▁فائز	-11.9004
▁تقولي	-11.9006
▁سڳور	-11.9008
تفا	-11.9009
▁آپٽ	-11.901
فٽ	-11.9011
▁خودرو	-11.9012
ds	-11.9013
▁ٺڳ	-11.9013
▁ويجها	-11.9014
▁نازي	-11.9014
▁گياه	-11.9015
▁مُئ	-11.9015
▁ننگر	-11.9017
▁ڏيکاء	-11.9019
▁گروي	-11.902
▁والوز	-11.902
زيابي	-11.9022
▁گرفتن	-11.9023
▁گی	-11.9024
▁لوهي	-11.9025
▁تشڪ	-11.9025
▁ناسا	-11.9026
▁تقل	-11.9027
▁end	-11.9028
▁نوشي	-11.9029
▁گاھ	-11.903
▁form	-11.9031
▁چيري	-11.9031
▁اباڻ	-11.9031
▁گج	-11.9035
▁گرما	-11.9036
▁جامعه	-11.9039
▁ستو	-11.9041
▁شِ	-11.9042
lol	-11.9043
▁الصح	-11.9043
▁لوسي	-11.9048
hen	-11.9054
▁اونداه	-11.9055
▁IN	-11.9059
▁structure	-11.9063
▁گهٽايو	-11.9063
▁فِ	-11.9064
▁اخواني	-11.9064
ذيب	-11.9065
▁چاڪ	-11.9068
▁بائيو	-11.9071
▁البن	-11.9071
▁pe	-11.9073
▁وسڪار	-11.9075
▁دھ	-11.9075
۹	-11.9079
▁int	-11.9081
▁بادشاهن	-11.9082
**	-11.9083
▁هههههههههههاي	-11.9086
▁ايند	-11.9091
▁اداسي	-11.9094
▁بوده	-11.9095
▁پورائ	-11.9096
▁يادم	-11.9096
فاني	-11.9096
▁مهلت	-11.9097
▁ٽيڪسي	-11.9102
▁بڻائيندا	-11.9103
ورت	-11.9105
hip	-11.9109
▁ڪٽس	-11.911
▁تقي	-11.9112
▁شدي	-11.9115
▁قيم	-11.9119
▁گھا	-11.9121
▁Mon	-11.9123
GH	-11.9127
cl	-11.9128
▁اختار	-11.9128
▁bo	-11.9129
▁زِ	-11.913
▁برتر	-11.9135
اذا	-11.9135
اوت	-11.914
▁آهي۔۔۔	-11.9141
▁1974	-11.9141
▁معشوق	-11.9141
▁پئڪيج	-11.9141
▁پليٽفارم	-11.9141
▁Sky	-11.9141
▁پاڳل	-11.9141
▁سجاول	-11.9141
لفظ	-11.9141
▁روئندي	-11.9142
▁Bank	-11.9143
▁pack	-11.9143
▁1930	-11.9143
▁چرب	-11.9143
▁آمريت	-11.9144
▁انتقال	-11.9144
▁your	-11.9144
▁راديو	-11.9144
ual	-11.9145
▁گلوڪو	-11.9145
▁مِٺ	-11.9146
▁ٻڌايائين	-11.9147
▁ٺڪر	-11.9147
▁اٿوَ	-11.9148
▁قمبر	-11.9149
▁باقر	-11.915
▁معها	-11.915
▁دوکي	-11.915
▁ٽوئن	-11.9151
▁مصدق	-11.9151
▁LC	-11.9152
▁تزعل	-11.9152
▁علاء	-11.9153
▁خليهم	-11.9154
▁Na	-11.9155
▁ويگن	-11.9156
▁اخراج	-11.9158
نڊا	-11.916
ـٍ	-11.9161
▁آماده	-11.9161
▁شعل	-11.9161
▁hi	-11.9161
▁وگهي	-11.9165
▁چقد	-11.9166
▁ائز	-11.9167
▁ڏنس	-11.9167
0.5	-11.9167
oy	-11.9167
▁آڵ	-11.9167
▁Te	-11.9168
▁العام	-11.917
▁مشير	-11.9174
▁ٰ	-11.9176
▁سفارشون	-11.9176
▁لنگه	-11.9176
▁پڙھو	-11.9176
▁نكتة	-11.9178
▁ڪنگڻ	-11.918
▁منسٽر	-11.9183
▁ملاحظه	-11.9183
▁عمان	-11.9186
ks	-11.9188
▁ارائ	-11.9188
▁ئل	-11.919
▁نديد	-11.9192
▁فائن	-11.9192
▁اهلا	-11.9195
vo	-11.9196
▁كبر	-11.9199
ji	-11.92
▁خطيره	-11.9201
▁ابل	-11.9203
▁أحب	-11.9204
▁1-2	-11.9205
▁لمن	-11.9207
تقليد	-11.9207
▁ڪلاسيڪ	-11.9208
▁نڀائي	-11.9209
▁سمجھن	-11.921
▁ميٽي	-11.9211
ves	-11.9213
▁مانند	-11.9214
يريا	-11.9217
▁هڻندا	-11.9218
▁گد	-11.9223
▁let	-11.9231
▁معاه	-11.9237
36	-11.9238
val	-11.9242
▁قديمه	-11.9246
▁ٿيءُ	-11.9247
▁ڪوٽا	-11.9248
▁سڏائي	-11.9248
▁شُ	-11.9249
▁کرو	-11.925
▁نيات	-11.9251
▁تحفه	-11.9251
▁جايب	-11.9252
▁تجرب	-11.9253
ption	-11.9257
▁هههههههههاي	-11.926
▁گهي	-11.9261
خوف	-11.9264
▁نوڊ	-11.9264
▁گلا	-11.9264
▁شهريت	-11.9267
▁تكمل	-11.9269
▁لِک	-11.927
▁دانا	-11.9271
ئٽر	-11.9272
▁خرج	-11.9272
▁ana	-11.9273
▁آهِ	-11.9274
▁توقعت	-11.9275
▁ڪاٽي	-11.9278
َرِ	-11.9281
▁يادش	-11.9284
▁چپس	-11.9287
▁id	-11.929
▁كلامي	-11.9295
▁زنا	-11.9295
▁سودو	-11.9297
انءُ	-11.9298
▁نادي	-11.9302
▁اعز	-11.9303
ana	-11.9304
▁لاك	-11.9308
▁Cu	-11.9311
▁ڌڙ	-11.9314
ल	-11.9316
▁څ	-11.9316
▁1983	-11.9316
▁خودمختار	-11.9316
▁يستاهل	-11.9316
▁′′	-11.9316
פ	-11.9316
▁ميسينجر	-11.9316
▁ڪميونزم	-11.9316
▁ٽاسڪ	-11.9316
▁ماقلت	-11.9316
▁جبتيها	-11.9316
▁مجاهد	-11.9316
▁under	-11.9317
▁سيستم	-11.9317
▁دوڪان	-11.9317
▁have	-11.9317
▁ڪنسول	-11.9317
▁پهتل	-11.9317
▁ڪوهستان	-11.9317
▁ورکړئ	-11.9317
▁الصراح	-11.9317
▁1965	-11.9317
▁gu	-11.9317
▁نبوت	-11.9318
▁چالاڪ	-11.9318
▁مشروب	-11.9318
▁ردودكم	-11.9318
▁باطن	-11.9318
▁وڃائجي	-11.9319
▁years	-11.9321
آد	-11.9322
▁مرج	-11.9322
▁get	-11.9323
▁سالميت	-11.9323
▁108	-11.9324
يڪيوم	-11.9326
▁مَر	-11.9327
▁ميراث	-11.9327
وڪالت	-11.9327
ائنس	-11.9328
▁ويڙھ	-11.9328
▁جڏ	-11.9329
▁known	-11.9333
▁ٽڪيٽن	-11.9333
قرب	-11.9336
▁كني	-11.9338
▁رحلت	-11.9339
▁درگاهه	-11.9339
▁وڍ	-11.9339
▁هاذي	-11.934
▁ماڊر	-11.9343
▁سعي	-11.9343
▁لالي	-11.9343
ئرا	-11.9346
▁گڏيو	-11.9347
PA	-11.9349
▁الائجي	-11.9349
واٽ	-11.9351
اخد	-11.9352
ime	-11.9352
▁ian	-11.9353
▁جفا	-11.9356
▁مچي	-11.9359
▁لاڙو	-11.936
▁بمبئيءَ	-11.936
▁زاري	-11.9361
▁فرحت	-11.9363
▁پيانو	-11.9364
▁بانس	-11.9367
▁پولنگ	-11.9367
▁ٽپال	-11.9368
▁tu	-11.9369
ّر	-11.9371
▁وکري	-11.9372
▁ڀائيند	-11.9373
▁ڊڊ	-11.9379
▁الجاي	-11.938
▁پُور	-11.9381
▁ڳالھائيند	-11.9385
▁أجل	-11.9385
▁Ca	-11.9386
▁da	-11.9386
▁ٽيلر	-11.9387
▁;)	-11.939
▁ريفري	-11.9391
▁بندگي	-11.9395
▁نظارا	-11.9395
po	-11.9397
▁sol	-11.9398
▁مظ	-11.9398
▁net	-11.94
▁حادثات	-11.9401
▁۰	-11.9403
▁هيلي	-11.9405
ڪوٽ	-11.9407
▁اوسر	-11.9408
▁تاپ	-11.9409
▁پروپ	-11.941
ليف	-11.9418
▁سمون	-11.942
▁نوره	-11.9421
▁لايك	-11.9423
▁ھيل	-11.9425
▁ڪوڊنگ	-11.9427
▁144	-11.9428
▁سيلون	-11.9431
▁ve	-11.9433
▁Ba	-11.9434
▁گهڙ	-11.9446
▁صابر	-11.9446
▁ابغ	-11.9446
▁مڌ	-11.9447
▁مونجهار	-11.9448
▁ٽوڙيو	-11.9449
▁آورد	-11.945
♥	-11.945
▁محو	-11.945
▁اندام	-11.9453
▁رهيبه	-11.9454
▁ميڊل	-11.9456
▁450	-11.9456
▁زبردستي	-11.9456
▁ڪَر	-11.9461
▁ميگ	-11.9465
▁قام	-11.947
مثل	-11.9471
▁نقشا	-11.9471
▁GT	-11.9474
▁موافق	-11.9478
▁رشته	-11.9479
شلم	-11.9481
▁ڪاپيون	-11.9482
▁ميکني	-11.9489
▁کجا	-11.9491
▁جزير	-11.9493
ڪچر	-11.9494
▁پرفارم	-11.9494
ु	-11.9495
▁bitcoin	-11.9495
▁throughout	-11.9495
▁ايجوڪيشن	-11.9495
▁مڱريو	-11.9495
▁اسطوره	-11.9495
▁افريقا	-11.9495
▁😂😂😂	-11.9495
▁مھمان	-11.9495
▁تنزاني	-11.9495
▁دعائ	-11.9495
▁جتوئي	-11.9495
▁عاجب	-11.9495
▁تفاوت	-11.9495
▁اٿائين	-11.9495
▁هيونداي	-11.9496
▁ٻالڪ	-11.9496
▁شناس	-11.9496
▁سازگار	-11.9496
▁مُنھن	-11.9496
ٽيڪ	-11.9496
▁سهائ	-11.9496
▁++	-11.9497
▁السجن	-11.9498
▁خروج	-11.9498
▁وصال	-11.9498
▁فق	-11.9499
ating	-11.95
▁ڪوتاهي	-11.9501
▁وجهندي	-11.9502
ade	-11.9502
▁سينگاري	-11.9503
▁گاريون	-11.9503
دِ	-11.9503
MC	-11.9504
▁هسه	-11.9505
▁قاصد	-11.951
▁ڍنگ	-11.9511
▁انڌ	-11.9512
سٽرڪچر	-11.9513
▁بُڪ	-11.9514
▁توڻي	-11.9515
▁مربو	-11.9515
▁احت	-11.9518
▁يعينه	-11.9518
▁هناك	-11.952
▁ترجع	-11.952
▁اثاثو	-11.9521
▁مصرف	-11.9522
ں	-11.9522
▁نووا	-11.9523
َرُ	-11.9524
▁خواني	-11.9524
▁اااااااي	-11.9526
▁land	-11.9527
▁پاسا	-11.9528
▁ربع	-11.9529
▁سگهياسين	-11.9529
▁بخور	-11.9529
▁سنگيت	-11.9529
ائق	-11.953
▁اَس	-11.953
▁رحل	-11.9534
▁ماقدر	-11.9539
▁پاٽ	-11.9539
▁روزا	-11.954
▁علق	-11.9543
▁بكر	-11.9544
▁ٻائي	-11.9545
ڏانھن	-11.9548
▁بطني	-11.9551
▁ورندي	-11.9551
▁ڪبير	-11.9553
▁ڀن	-11.9554
▁کام	-11.9558
▁بب	-11.9559
▁عمرك	-11.956
▁ررر	-11.9561
▁مشرق	-11.9561
▁son	-11.9565
▁لعبه	-11.9567
cra	-11.9569
▁مھينو	-11.9569
▁NA	-11.9572
ّه	-11.9573
▁فارمول	-11.9576
▁ڳاٽ	-11.9577
▁bi	-11.9578
▁Sam	-11.9579
In	-11.9581
▁ولك	-11.9582
هارڻ	-11.9583
▁fe	-11.9585
▁ON	-11.9587
▁های	-11.9592
▁ڪيڊ	-11.9594
▁ڀِ	-11.9597
▁وڙهندي	-11.9598
ڊيٽنگ	-11.9599
▁وحشت	-11.9601
▁ھڻي	-11.9605
▁ڳالھائي	-11.9609
18	-11.9609
ile	-11.9611
▁يوري	-11.9614
▁تکو	-11.9615
▁مُڙ	-11.9615
▁اوست	-11.9616
▁معجز	-11.9617
▁ڪِر	-11.9636
ڪلائوڊ	-11.9636
▁ڌارا	-11.9638
▁سندا	-11.9641
▁چانڊ	-11.9643
▁رسمون	-11.9646
▁سياه	-11.9647
خط	-11.9648
چرج	-11.9652
▁مَٽ	-11.9657
▁کور	-11.9657
▁ant	-11.9658
▁ماڻڻ	-11.9658
ظف	-11.9659
▁گهار	-11.9666
▁ڪرشن	-11.9669
▁ڪنڊيشن	-11.967
▁تخاف	-11.9671
▁ڪٿ	-11.9672
▁وِي	-11.9672
▁fr	-11.9673
î	-11.9677
ı	-11.9677
الالمپور	-11.9677
ڤ	-11.9677
▁لايفوتكم	-11.9677
▁نظيف	-11.9677
▁ويتامين	-11.9677
▁پروڊيوسر	-11.9677
▁گذاشت	-11.9677
▁اهداف	-11.9677
▁ويبسائيٽ	-11.9677
▁تندرست	-11.9677
▁مطالعات	-11.9677
▁فٽنيس	-11.9677
▁تاڪيد	-11.9677
▁ڪاررواي	-11.9677
▁اسأل	-11.9677
▁مرسيدس	-11.9677
▁ڪيٽيگري	-11.9677
▁ڪمپوز	-11.9677
▁هيهيهيهيهي	-11.9677
▁سوداگر	-11.9678
▁رجوع	-11.9678
▁معانا	-11.9678
▁light	-11.9678
▁غدير	-11.9678
▁Time	-11.9678
▁تمسك	-11.9678
▁ساهيڙي	-11.9679
▁خنجر	-11.968
▁جواهر	-11.968
▁مڊ	-11.968
▁good	-11.968
▁ڏمر	-11.9681
▁days	-11.9681
▁ترديد	-11.9682
▁جوڙيل	-11.9683
▁آنآ	-11.9684
▁عبد	-11.9685
▁عزيزتي	-11.9685
out	-11.9685
▁وسندي	-11.9688
▁وجھڻ	-11.9688
▁سڌائي	-11.9689
▁cha	-11.969
▁May	-11.969
▁ميگم	-11.9691
▁,,,,	-11.9691
US	-11.9692
▁تامل	-11.9693
▁Su	-11.9694
▁دهيد	-11.9697
▁ver	-11.9698
▁ٽائمز	-11.9698
▁شجر	-11.97
▁حالك	-11.97
▁شاھد	-11.9701
▁يييي	-11.9703
▁نِي	-11.9704
▁سويل	-11.9705
▁ٽريل	-11.9707
▁تقولين	-11.9707
▁لاٽ	-11.9709
▁ٻارنهن	-11.9709
▁(18	-11.9711
▁لڀ	-11.9715
▁لانك	-11.9718
▁ويڊ	-11.9718
▁مرغ	-11.9718
▁لهندي	-11.9718
▁زيرو	-11.9719
▁ٻيڙو	-11.9721
▁نائيٽ	-11.9721
▁مرات	-11.9721
▁بخل	-11.9721
▁هُج	-11.9721
▁ردود	-11.9722
▁زيست	-11.9722
▁مردان	-11.9723
▁گڊ	-11.9725
▁پرايد	-11.9727
▁داريد	-11.9727
▁بله	-11.973
▁انزل	-11.973
▁پُڇيو	-11.9732
▁ۍ	-11.9736
▁پويا	-11.9736
▁درياه	-11.9737
نھن	-11.9741
▁پُڇي	-11.9743
▁ڀيل	-11.9743
▁مجسمو	-11.9743
9001	-11.9744
▁ڊائريڪٽرن	-11.9745
▁ڪاس	-11.9745
▁جانان	-11.9746
day	-11.9749
▁يقدر	-11.9749
▁وسڻ	-11.975
ces	-11.9752
شيد	-11.9755
▁هُت	-11.9755
▁فاضيه	-11.9759
▁پاند	-11.9763
ail	-11.9764
▁هاشمي	-11.9765
▁چڙهند	-11.9766
عقل	-11.9767
▁سپاهين	-11.9768
▁پڙهن	-11.9768
▁إلا	-11.9769
▁فوم	-11.9771
▁ويانا	-11.9771
▁يص	-11.9772
آخ	-11.9772
▁کوچ	-11.9772
▁خامي	-11.9777
بازي	-11.9785
▁بدري	-11.9786
ane	-11.9787
▁چوب	-11.9787
▁ps	-11.9789
ذات	-11.979
▁پوائنٽس	-11.979
▁چهرا	-11.9791
▁اونڌ	-11.9793
▁کارو	-11.9796
▁عيونه	-11.9797
▁ميڻ	-11.9797
▁رع	-11.9799
AA	-11.9804
▁سيرت	-11.9807
▁غريبة	-11.981
پڪڙڻ	-11.9812
بى	-11.9812
▁ملاحظ	-11.9819
▁مسكينه	-11.9821
▁ڌڻ	-11.9822
▁مروه	-11.9826
پڙ	-11.9827
▁پرتگالي	-11.9829
▁Sch	-11.9829
▁شک	-11.9832
▁وجهك	-11.9833
▁زعل	-11.9833
▁شات	-11.9834
▁ڳُ	-11.9835
▁ماليات	-11.9843
▁جرب	-11.9852
▁يونيورسٽيء	-11.9852
ran	-11.9856
▁ريف	-11.9858
ــــــــــــــ	-11.986
त	-11.9862
افلاطون	-11.9862
▁1986	-11.9862
▁الجزائر	-11.9862
▁سرفراز	-11.9862
▁سٹیل	-11.9862
▁مافهمت	-11.9862
▁ياحليله	-11.9862
▁को	-11.9862
▁وتاكل	-11.9862
▁انيميشن	-11.9862
▁چوڪيدار	-11.9862
▁وڪوڙي	-11.9862
▁بدامني	-11.9862
▁ٽُٽ	-11.9862
▁خخخخخ	-11.9862
▁block	-11.9862
▁(0)	-11.9862
▁تعاقب	-11.9863
▁still	-11.9863
▁ٺهراءُ	-11.9863
▁ٽوٽڪا	-11.9863
▁رعيت	-11.9864
▁(200	-11.9865
▁ندارم	-11.9866
▁ينفع	-11.9867
▁سيڪس	-11.9867
▁ٻڌائيندس	-11.9868
▁تخليقڪار	-11.9869
▁انفرافي	-11.9869
▁عمد	-11.987
▁علامتي	-11.987
orn	-11.987
ضيع	-11.9871
▁پڌرائي	-11.9871
▁لنچ	-11.9873
▁ٽنڊ	-11.9873
▁ڳائڻي	-11.9873
▁cal	-11.9875
▁اُڏام	-11.9876
▁ڏياريندڙ	-11.9876
▁طمع	-11.9877
▁ريڪٽر	-11.9877
▁وٺجي	-11.9878
ِّ	-11.9878
▁آندل	-11.9881
▁اظهر	-11.9881
أثير	-11.9883
▁نمياد	-11.9883
▁جداً	-11.9883
▁پاتا	-11.9883
▁روئند	-11.9883
▁نسخه	-11.9885
ِء	-11.9886
▁سلسل	-11.9886
▁ڪجان	-11.9886
وسٽا	-11.9886
▁زندان	-11.9887
▁ڊوڙڻ	-11.9889
▁پاتل	-11.989
▁رهف	-11.989
ڏر	-11.989
▁ڪانٽ	-11.9891
▁لفاف	-11.9893
▁سردارن	-11.9894
▁ڪيستائين	-11.9895
▁زيب	-11.9895
▁رائعه	-11.9896
lt	-11.9896
▁لی	-11.9897
▁ماريندو	-11.9898
▁ايبل	-11.9899
▁بچائيندو	-11.9902
▁فاكر	-11.9903
▁ڊيش	-11.9905
▁نشد	-11.9905
▁स	-11.9906
▁ويچارا	-11.9909
▁مليس	-11.991
▁هائوسنگ	-11.991
▁مئج	-11.9912
▁ڀڄند	-11.9917
▁ٿيٽر	-11.992
ديها	-11.9925
▁شرڪ	-11.9927
▁نقطا	-11.993
▁هيجان	-11.9932
▁ڀڃڻي	-11.9932
▁اكت	-11.9933
▁زده	-11.9933
▁نذر	-11.9936
air	-11.9936
▁ريشه	-11.9939
▁هڏن	-11.9945
▁شكو	-11.9945
___	-11.9947
▁ككك	-11.9947
▁اڀار	-11.9951
▁گهُر	-11.9952
▁بابر	-11.9956
▁ترجما	-11.996
ank	-11.9962
▁ڪونج	-11.9963
▁ڀڙڪ	-11.9966
▁سوسو	-11.9967
▁ٺاه	-11.9967
AC	-11.9972
▁رؤ	-11.9973
▁چارڻ	-11.9975
▁ph	-11.9978
13	-11.998
▁کنيل	-11.9984
دوين	-11.9986
▁ٺاھ	-11.9987
ديو	-11.9987
▁تاڙي	-11.9988
71	-11.9989
▁منهج	-11.999
▁ديوتائ	-11.9992
ore	-11.9992
روپ	-11.9997
▁دوس	-11.9998
▁سڪا	-11.9999
▁وڪيٽ	-12.0002
स	-12.0005
▁شهنشاه	-12.0006
روب	-12.0006
box	-12.0007
ينڪس	-12.0015
▁بقيه	-12.0016
تعرف	-12.0016
▁وام	-12.0021
وفا	-12.0027
▁ايرو	-12.0031
▁170	-12.0031
▁سومري	-12.0033
▁اڻان	-12.0036
▁ڳجهي	-12.0036
▁يست	-12.0038
پيش	-12.0043
▁چاهن	-12.0045
▁لساني	-12.0046
▁ڊيڄاري	-12.0048
▁صورتون	-12.0049
ٗ	-12.0051
प	-12.0051
ह	-12.0051
н	-12.0051
▁business	-12.0051
▁اعتقاد	-12.0051
▁باقائد	-12.0051
▁توضيح	-12.0051
▁جايگزين	-12.0051
▁فرائض	-12.0051
о	-12.0051
▁آسپاس	-12.0051
▁اوچتي	-12.0051
▁مملڪت	-12.0051
▁لاحظ	-12.0051
▁ماكنت	-12.0051
▁ساجد	-12.0051
▁پارٽنرشپ	-12.0051
▁ڪربلا	-12.0051
▁ڪلوگرام	-12.0051
▁سيرامڪ	-12.0051
▁(13	-12.0051
▁چنبڙي	-12.0052
▁محرڪ	-12.0052
▁1945	-12.0052
▁ڙِي	-12.0052
▁چانڊيو	-12.0053
▁شبكه	-12.0053
▁More	-12.0054
▁جابر	-12.0054
▁واڌو	-12.0055
▁بغيت	-12.0056
▁ٻُڌايو	-12.0056
▁پنبه	-12.0058
▁ڏڪي	-12.0058
▁پناھ	-12.0058
▁کشور	-12.0058
▁ٽريڪٽر	-12.0058
▁جوڀن	-12.0061
▁گويي	-12.0061
▁معلق	-12.0063
▁شالله	-12.0064
▁تاثرات	-12.0064
▁CF	-12.0064
▁تيسين	-12.0065
▁ڍڪڻ	-12.0066
▁4.1	-12.0067
▁نمائندي	-12.0068
▁مجري	-12.0068
▁رجال	-12.0068
▁الخير	-12.0072
▁خطأ	-12.0073
▁رکيائين	-12.0075
▁ملوڪ	-12.0076
▁براس	-12.0076
▁آفيسون	-12.0076
▁ker	-12.0076
▁ثقل	-12.0076
wide	-12.0079
▁®	-12.008
▁گهوڙو	-12.008
ious	-12.008
▁ڪانڌ	-12.0081
▁گنج	-12.0082
▁ga	-12.0086
▁سواد	-12.0086
▁اُتر	-12.0087
▁رجحانات	-12.0087
▁ڊائل	-12.0088
▁ڪپور	-12.0089
▁اضاف	-12.0091
▁ماحد	-12.0092
▁ستم	-12.0094
▁ڍڪيل	-12.0094
▁ساراه	-12.0094
OW	-12.0095
▁شيراز	-12.0096
▁هستيد	-12.0096
▁دی	-12.01
▁پروڙ	-12.0101
▁يخليك	-12.0101
▁17:	-12.0102
▁لهندو	-12.0105
▁مينڊي	-12.0107
▁111	-12.0108
▁امها	-12.0109
▁روئيند	-12.011
▁شوند	-12.011
▁کنڀي	-12.0111
▁نائٽ	-12.0111
SS	-12.0116
▁106	-12.0116
▁اسٽائ	-12.0116
▁شرير	-12.0117
▁پهاڪا	-12.0121
گاھ	-12.0121
حسين	-12.0121
▁اسٽارٽ	-12.0121
▁بازو	-12.0124
▁دات	-12.0124
آأ	-12.0124
uck	-12.0125
▁وڇڙ	-12.0128
▁اث	-12.0129
▁نڙي	-12.013
▁آسيا	-12.013
▁رهاڻ	-12.0131
▁زند	-12.0132
▁اسپي	-12.0133
▁تفصيلات	-12.0134
▁نبا	-12.0136
▁انگار	-12.0139
اخذ	-12.0141
▁مسل	-12.0141
▁(6	-12.0141
dr	-12.0144
ature	-12.0145
▁بضحكه	-12.0146
ساس	-12.0146
▁جده	-12.0146
▁بنگال	-12.0147
-20	-12.0148
▁هپ	-12.0151
▁ٿج	-12.0153
▁غرف	-12.0155
▁MI	-12.0161
▁سرحدون	-12.0161
▁شويد	-12.0162
▁ٽاڪ	-12.0162
▁آلآ	-12.0163
▁العين	-12.0166
▁يخلي	-12.0168
يں	-12.017
▁فورن	-12.0171
▁اخبارون	-12.0172
▁ٽال	-12.0174
▁ويڊيوز	-12.0175
٥	-12.0177
▁چنا	-12.0179
▁واني	-12.018
red	-12.0181
▁سائل	-12.0194
▁،،،،	-12.0194
ستند	-12.0195
▁ذهب	-12.0196
म	-12.0197
amp	-12.02
راعي	-12.0201
قلد	-12.0204
▁پَس	-12.0205
▁شھري	-12.0205
▁پرواه	-12.0206
▁عنا	-12.0206
▁اتك	-12.021
▁ڇپج	-12.0212
▁ھَ	-12.0212
▁مکان	-12.0214
▁أني	-12.0215
▁ins	-12.0216
ded	-12.0221
▁ھِن	-12.0221
▁رائٽ	-12.0222
سازي	-12.0225
MS	-12.0227
bo	-12.023
▁ڪوئلي	-12.0234
رآمد	-12.0235
▁وٿ	-12.0238
▁سڳوري	-12.0238
▁نجم	-12.0242
▁طنز	-12.0243
="0.06	-12.0243
▁ڊسپوز	-12.0243
▁1953	-12.0243
▁1985	-12.0243
▁Nexus	-12.0243
▁تغذيه	-12.0243
▁ذوالفقار	-12.0243
▁الجميع	-12.0243
▁الصغير	-12.0243
▁ادراڪ	-12.0243
▁تماشو	-12.0243
▁سهوليت	-12.0243
▁انتقام	-12.0243
▁لاڳت	-12.0243
عائشه	-12.0243
▁اشياء	-12.0243
▁السياره	-12.0243
▁ياقلبي	-12.0243
▁وراڻيائين	-12.0243
▁ههههههههااي	-12.0243
▁قابض	-12.0244
▁عريس	-12.0244
▁پڇندا	-12.0245
▁••	-12.0245
▁make	-12.0245
▁لِڪ	-12.0245
▁ڪليڪٽر	-12.0245
3.5	-12.0245
▁انڊس	-12.0246
▁https	-12.0247
▁وصيت	-12.0247
▁دُعا	-12.0247
▁يجنن	-12.0249
▁پليجو	-12.0249
▁رھندي	-12.0249
▁گجرات	-12.0252
▁نھاري	-12.0253
▁حسام	-12.0253
96	-12.0253
▁ٻَڌ	-12.0253
▁wh	-12.0253
▁تامين	-12.0256
▁بيئرنگ	-12.0256
▁ذلت	-12.0257
▁وڌايل	-12.0258
▁استري	-12.0259
حبها	-12.0259
▁فراق	-12.0259
▁اجرائي	-12.0259
▁دڙو	-12.0261
▁بشير	-12.0261
▁اسڪيننگ	-12.0261
▁يعمل	-12.0262
▁گھرجن	-12.0262
▁مٺائي	-12.0263
▁مظاهر	-12.0263
▁مهو	-12.0263
▁گاز	-12.0264
▁معاي	-12.0264
▁=))	-12.0264
▁بينڪننگ	-12.0265
▁وڻندي	-12.0266
▁ڏنم	-12.0267
▁مازن	-12.0268
▁inf	-12.0269
▁پائيندو	-12.027
▁اينيمي	-12.0272
▁han	-12.0272
▁اجيب	-12.0273
▁نظارت	-12.0275
▁علماء	-12.0278
▁طريقة	-12.0278
▁دارند	-12.0278
▁شيلف	-12.028
▁غرق	-12.028
جاوب	-12.0281
▁ترڪيبون	-12.0283
انچي	-12.0283
ities	-12.0288
▁اگھ	-12.029
▁EN	-12.0292
▁معاها	-12.0293
▁مستان	-12.0294
▁Si	-12.0298
ندوق	-12.0299
▁مفروض	-12.03
▁بكره	-12.0308
▁دائي	-12.0308
▁هلال	-12.031
▁گب	-12.0313
پيريا	-12.0315
▁دٻائي	-12.0315
▁هشت	-12.0317
▁اڻيءَ	-12.0321
lock	-12.0329
▁ريڊر	-12.0331
▁عمو	-12.0332
▁ارا	-12.0334
▁پولو	-12.0334
▁هرچي	-12.0335
حرك	-12.0336
▁مكن	-12.0344
▁جلسه	-12.0345
▁پوڙها	-12.0346
▁جهيڙي	-12.035
▁)))	-12.035
▁سڃاڻو	-12.0354
ase	-12.0355
▁ڪڏ	-12.0356
حزن	-12.0361
▁نكن	-12.0361
▁As	-12.0361
▁سومرا	-12.0364
▁جاچڻ	-12.0367
▁pr	-12.0368
▁خواري	-12.0368
▁بڻي	-12.0368
▁6)	-12.0369
ايف	-12.037
▁آيم	-12.037
▁ڍر	-12.037
▁هيڪڙ	-12.0375
▁تپي	-12.0376
▁ڊرم	-12.0377
▁عدن	-12.0378
▁فينا	-12.0378
▁ايزي	-12.038
▁گرميء	-12.0382
▁قصور	-12.0382
ٻا	-12.0384
ID	-12.0384
AS	-12.0386
tter	-12.0388
▁مدر	-12.0389
صلاحيت	-12.0394
تنهنجو	-12.0394
rin	-12.0395
▁کوٽي	-12.0395
▁ِين	-12.0396
▁پرام	-12.0398
▁واق	-12.0399
▁ږ	-12.0405
▁تعرفي	-12.0407
وصول	-12.0408
▁مطالبا	-12.0416
▁ڵ	-12.0417
▁دود	-12.0417
▁کرده	-12.0418
▁SL	-12.0422
▁tr	-12.0422
▁ڌيئر	-12.0423
▁فِي	-12.0424
▁اقر	-12.0425
▁ڄاڻند	-12.0426
ايق	-12.0427
▁مِل	-12.0428
▁هے	-12.0432
▁چير	-12.0433
▁عدلي	-12.0433
▁کنڊر	-12.0434
▁برسي	-12.0435
▁چگون	-12.0438
▁صدقو	-12.0439
align	-12.0439
ٓ	-12.0439
▁1981	-12.0439
▁1987	-12.0439
▁ببخشيد	-12.0439
▁بدبخت	-12.0439
▁يوگنڊا	-12.0439
ç	-12.0439
▁قيصر	-12.0439
▁وراثت	-12.0439
▁مطالعه	-12.0439
▁آرائش	-12.0439
▁سرشتو	-12.0439
ـٍـٍ	-12.0439
▁ماادري	-12.0439
▁صاحي	-12.0439
▁پيشواز	-12.0439
▁نعيم	-12.0439
▁پوکيو	-12.0439
▁from	-12.044
▁عبارت	-12.044
▁two	-12.044
▁اسٽڊي	-12.044
▁اٿئون	-12.044
▁بدلجندڙ	-12.0441
▁اغاني	-12.0441
▁ميسيج	-12.0441
▁1940	-12.0442
▁جِت	-12.0442
▁فولاد	-12.0443
▁پرسنل	-12.0443
▁علوي	-12.0444
▁غازي	-12.0446
▁----	-12.0446
▁مجال	-12.0446
▁اسئلة	-12.0448
▁ثنائي	-12.0449
▁سنڀاليندڙ	-12.0449
▁خديج	-12.0449
▁TV	-12.045
▁نادان	-12.0451
▁الرجال	-12.0451
▁جنايت	-12.0452
▁فرما	-12.0453
▁كنيد	-12.0453
▁جبتها	-12.0453
▁جولائي	-12.0454
▁چُمي	-12.0454
▁کائن	-12.0457
▁آوي	-12.0458
▁ايرانسل	-12.0458
▁پکيڙڻ	-12.0459
▁ايڊمنسٽري	-12.046
▁پطر	-12.0461
▁ھند	-12.0461
▁جڳائي	-12.0461
▁جک	-12.0462
▁لڱ	-12.0462
▁ٻارهين	-12.0462
▁ٻڌن	-12.0467
▁ويهندا	-12.0468
▁رانديڪا	-12.0469
▁ارجع	-12.0471
▁دِل	-12.0471
▁ارض	-12.0471
صيب	-12.0472
بخود	-12.0472
▁صدك	-12.0473
▁تريد	-12.0473
▁اوچي	-12.0474
▁جهلڪ	-12.0478
▁ٻِ	-12.0479
▁lu	-12.048
▁لاري	-12.048
پيٽ	-12.0481
▁ترکيه	-12.0481
▁ڪينيا	-12.0481
▁مشاري	-12.0483
▁ڪِين	-12.0485
▁گرامر	-12.0485
▁ترم	-12.0486
▁ٻڪر	-12.0491
▁گنگا	-12.0494
▁ster	-12.0497
ids	-12.0498
▁ask	-12.0499
▁اڏو	-12.0499
▁افتتاحي	-12.05
▁Res	-12.0504
▁السعوديه	-12.0505
▁ناٿ	-12.0506
▁كملي	-12.0507
▁ديواري	-12.0513
▁مابي	-12.0516
▁چرچو	-12.0523
▁ڪائونٽ	-12.0526
▁فهميد	-12.0526
▁عيونك	-12.0528
يشيم	-12.0531
▁حرامي	-12.0531
▁ck	-12.0531
▁سُڃ	-12.0532
حش	-12.0537
▁Lin	-12.0538
we	-12.0543
▁ڀيٽا	-12.0545
▁منڊ	-12.0553
▁عادتون	-12.0561
▁جمالي	-12.0562
إأ	-12.0564
▁مرڪند	-12.0564
▁It	-12.057
▁نڪرن	-12.0573
▁way	-12.0574
ويض	-12.0575
▁گيل	-12.0576
▁less	-12.0577
▁الْ	-12.0577
▁افا	-12.0579
17	-12.058
▁بوئ	-12.058
▁ناتا	-12.0581
▁عارفه	-12.0581
ماسي	-12.0583
آح	-12.0584
▁وڃج	-12.0587
▁والٽ	-12.0589
▁زلزلو	-12.0593
صص	-12.0595
▁ڌوڪ	-12.0596
فرج	-12.06
پال	-12.06
گذر	-12.06
els	-12.0601
▁Or	-12.0601
▁قصر	-12.0601
▁موز	-12.0602
▁ثي	-12.0602
رفع	-12.0607
▁گاڏ	-12.0609
▁ia	-12.0614
▁PS	-12.0616
لطاف	-12.0617
own	-12.0618
▁لانڊ	-12.0619
▁pl	-12.0619
▁ڪڙڪ	-12.062
▁رڌ	-12.062
▁ٻُڌائي	-12.0622
▁گهرائڻ	-12.0625
مڪس	-12.0627
▁پيامك	-12.063
▁توقيع	-12.063
لچل	-12.0632
▁کره	-12.0633
▁ٻڌند	-12.0635
▁مقناطيس	-12.0636
▁إنت	-12.0637
à	-12.0639
آرڊيننس	-12.0639
ट	-12.0639
▁1966	-12.0639
▁ايٿوپي	-12.0639
▁گستاخ	-12.0639
▁design	-12.0639
▁أضحك	-12.0639
▁الرحمان	-12.0639
▁قزاق	-12.0639
▁روابط	-12.0639
▁جهڳڙ	-12.0639
▁چائنا	-12.0639
▁پرچار	-12.0639
▁تلاوت	-12.0639
▁هضم	-12.0639
▁پوشاڪ	-12.0639
▁شوڪت	-12.0639
▁ڊيزائين	-12.0639
▁هائڊرو	-12.0639
▁بيٺڪ	-12.064
▁انسپيڪٽر	-12.064
▁گھوٽ	-12.064
▁شکست	-12.064
▁المقطع	-12.064
▁دواسازي	-12.064
▁برضو	-12.064
▁ٽماٽ	-12.0641
▁ثق	-12.0641
نارمل	-12.0641
عبراني	-12.0641
▁1967	-12.0641
▁عايش	-12.0641
▁Inter	-12.0641
▁أختي	-12.0642
▁ايسوسي	-12.0642
▁ظفر	-12.0643
▁بجاء	-12.0644
▁يكفي	-12.0644
▁ريورس	-12.0645
▁چڻ	-12.0646
▁کاڄ	-12.0647
▁عربستان	-12.0647
[[	-12.0648
▁ھڻڻ	-12.0648
▁جمپ	-12.0649
▁365	-12.065
▁il	-12.065
▁ايده	-12.0651
▁ديدن	-12.0651
▁ٽرسٽ	-12.0651
▁تقصد	-12.0651
▁1,000	-12.0651
▁تعجبكم	-12.0653
▁ناھن	-12.0653
▁موٽندي	-12.0654
▁قافي	-12.0656
▁چيزها	-12.0656
▁سانگهڙ	-12.0656
اصل	-12.0657
▁مرندو	-12.0659
▁يء	-12.066
▁غيبت	-12.0665
▁الشا	-12.0667
▁آڱريون	-12.0667
▁ظل	-12.0669
▁ٻُڏ	-12.0669
▁داڻا	-12.0669
گرافڪ	-12.0674
▁ڌماڪ	-12.0674
اپٽر	-12.0678
برگ	-12.0679
▁گيلان	-12.0682
▁رسانه	-12.0682
▁قالي	-12.0682
گلا	-12.0682
▁أص	-12.0684
▁CR	-12.0686
▁زى	-12.0687
▁ٻيڻ	-12.0688
▁امنيت	-12.0693
▁178	-12.0694
▁line	-12.0694
color	-12.0695
▁ali	-12.0695
▁عفو	-12.0697
احه	-12.0698
▁كيفك	-12.0704
ناظر	-12.0705
▁پلاس	-12.0705
▁مورتي	-12.0707
▁ڇڙو	-12.0709
▁ايڊيشنل	-12.071
▁دف	-12.0715
ڪير	-12.0718
▁حفل	-12.0723
▁ڪاٽ	-12.0724
▁روپين	-12.0725
▁ماحوليات	-12.0729
▁گٽ	-12.0729
▁نويسي	-12.0732
ڪاش	-12.0734
▁ترميمي	-12.0734
▁بحس	-12.0734
▁imp	-12.0739
▁Int	-12.074
▁سعوديه	-12.0743
▁آآه	-12.0744
▁سڃ	-12.0745
▁پاسدار	-12.0745
▁=)	-12.0746
▁اوپري	-12.0746
▁-19	-12.0747
▁ڳه	-12.0748
▁اهلين	-12.0748
90	-12.0749
▁ثالثي	-12.0749
▁خَ	-12.075
kin	-12.075
▁هكر	-12.0752
Pal	-12.0753
▁جھڪ	-12.0754
ؤس	-12.0755
▁اُپ	-12.0757
▁تختي	-12.0759
▁بيٽس	-12.076
▁ھڻ	-12.0761
ڪيٽ	-12.0762
▁ڪيوسين	-12.0763
RI	-12.0763
▁بدنامي	-12.0764
▁ويلز	-12.0765
▁Cha	-12.0767
▁ملون	-12.0775
ههههههههههاي	-12.0775
▁مقالو	-12.0778
▁Lu	-12.0779
▁پردا	-12.0779
▁آآآه	-12.078
▁موضوعات	-12.0781
▁Comp	-12.0783
باني	-12.0783
بظاهر	-12.0784
طيح	-12.0787
▁لوز	-12.079
odi	-12.0793
▁شهريار	-12.0793
اعظم	-12.0793
لوقا	-12.0797
سبز	-12.0799
▁ويلا	-12.0802
gh	-12.0804
گس	-12.0804
جيڪٽ	-12.0804
▁Ha	-12.081
fo	-12.0811
▁ريڪو	-12.0812
▁اوتر	-12.0812
▁رِي	-12.0814
▁ڪشي	-12.0814
mir	-12.0816
واري	-12.0818
▁مورو	-12.0818
ڪواڊ	-12.082
▁TO	-12.0821
▁پَل	-12.0822
▁حدف	-12.0823
▁بتاع	-12.0833
▁چڱ	-12.0837
▁هاهاها	-12.0839
▁گزارشگر	-12.084
▁وڏيرو	-12.0843
▁اسڪالر	-12.0843
ۓ	-12.0843
▁1972	-12.0843
▁اميگريشن	-12.0843
▁وشكرا	-12.0843
▁يبارك	-12.0843
▁تذڪر	-12.0843
▁سيارات	-12.0843
▁تلاقي	-12.0843
▁مرتضيٰ	-12.0843
▁اٿاري	-12.0843
ODM	-12.0844
▁۱۸	-12.0844
▁specification	-12.0844
▁خرید	-12.0844
▁ماسك	-12.0844
اژ	-12.0844
▁دهه	-12.0844
▁آرمينيا	-12.0844
027	-12.0845
▁النوم	-12.0845
▁حسابداري	-12.0846
▁حويلي	-12.0846
IM	-12.0846
IF	-12.0846
▁تشكر	-12.0846
▁امسال	-12.0847
GE	-12.0847
▁اڀرندي	-12.0848
ready	-12.0849
▁پوريء	-12.0851
▁IV	-12.0851
▁مٽجي	-12.0852
▁فرنس	-12.0852
▁ٽولو	-12.0853
▁ريخت	-12.0853
▁5,000	-12.0854
▁بشرط	-12.0857
▁جڳهيون	-12.0857
▁وفاء	-12.0858
ject	-12.0858
طار	-12.0859
▁لينڪس	-12.0859
▁فاش	-12.086
▁علامات	-12.0861
▁جامدة	-12.0861
▁بصير	-12.0862
▁تحاول	-12.0864
▁لکيائين	-12.0865
▁پذيرش	-12.0866
▁سرڪل	-12.0867
▁دز	-12.0869
▁پيڙهي	-12.087
خاف	-12.087
▁العيد	-12.0872
▁اتل	-12.0873
فاق	-12.0874
▁يشوف	-12.0875
▁ڀوت	-12.0875
▁ھٽ	-12.0876
▁واحدة	-12.0879
▁اينگل	-12.0879
▁ترکيب	-12.088
▁كام	-12.0881
▁ذبح	-12.0882
▁ذرات	-12.0883
▁وراه	-12.0887
▁بگاڙ	-12.089
▁لاڀ	-12.089
▁آشنا	-12.0894
▁حرب	-12.0894
نڍ	-12.0897
▁امرت	-12.0898
سڀ	-12.0904
▁وهڻ	-12.0904
▁يرج	-12.0909
▁تحصيلي	-12.091
▁لبن	-12.0911
▁الذي	-12.0912
▁دٻو	-12.0913
▁۱۰	-12.0913
▁چوٽ	-12.0915
▁بلاشڪ	-12.0917
▁ولر	-12.0925
▁پش	-12.0925
▁پونديون	-12.0928
▁ھندو	-12.0929
▁دانشگاه	-12.093
▁کوس	-12.0933
▁سح	-12.0934
mar	-12.0935
▁سأل	-12.0937
▁جندڙ	-12.094
▁بادشاه	-12.0941
▁جانءِ	-12.0944
▁سارة	-12.0944
▁پاک	-12.0946
▁فريڊ	-12.0948
ہِ	-12.0952
▁mar	-12.0953
▁سُم	-12.0956
/2	-12.0956
mon	-12.0959
▁چڙه	-12.0959
▁إنه	-12.0966
▁IM	-12.0972
▁مندي	-12.0972
عمل	-12.0975
▁جِن	-12.0976
▁مڇر	-12.0976
▁لسي	-12.0977
▁پارٽ	-12.0983
رافٽ	-12.0985
▁نمايش	-12.0989
▁تكره	-12.0993
▁عاا	-12.0995
Re	-12.0995
▁الث	-12.0999
▁آرڪي	-12.1001
٫	-12.1006
قصص	-12.1006
ميلي	-12.1006
حرج	-12.101
▁gra	-12.101
▁گئ	-12.1012
ding	-12.1015
▁ملز	-12.1016
بٽ	-12.1017
▁مگن	-12.1018
lang	-12.1019
▁سأ	-12.1027
▁ھيس	-12.1028
▁مشكوره	-12.1028
▁پئو	-12.1029
▁پياس	-12.1031
صيد	-12.1032
▁ڪنواري	-12.1034
▁خول	-12.1034
▁ضيا	-12.1035
▁ڳور	-12.1035
▁مسافرتي	-12.1044
▁سجد	-12.1044
▁بريد	-12.1048
▁خخخخخخخ	-12.1051
▁كيو	-12.1051
▁مهندسي	-12.1051
▁فھرست	-12.1051
▁پزشك	-12.1051
▁چاکليٽ	-12.1051
▁Quote	-12.1051
▁سوکڙي	-12.1051
▁ضعف	-12.1051
▁پروتئين	-12.1051
▁ڳاڙها	-12.1051
▁مهتاب	-12.1051
▁القصه	-12.1051
▁محيط	-12.1052
▁مصطفيٰ	-12.1052
▁احتمال	-12.1052
▁finger	-12.1052
▁find	-12.1052
▁مخفف	-12.1052
▁ہیں	-12.1052
▁چسب	-12.1053
▁گفٽ	-12.1053
▁يمسك	-12.1053
▁Ali	-12.1054
▁فواز	-12.1055
▁العرب	-12.1055
▁طعم	-12.1055
▁التجا	-12.1055
▁صاير	-12.1055
▁mis	-12.1055
▁سَڀ	-12.1056
▁زواج	-12.1056
▁الاكل	-12.1056
▁بجنن	-12.1058
▁مجاني	-12.1058
▁اتخيل	-12.1059
▁معصب	-12.106
▁وجهندو	-12.106
▁يوكن	-12.1061
▁ڪسڪس	-12.1061
▁وڙهند	-12.1061
▁نمودار	-12.1061
▁ڊاک	-12.1062
▁اسٽينڊنگ	-12.1063
▁اسٽرنگ	-12.1064
▁گذرا	-12.1064
▁امممم	-12.1064
▁زايد	-12.1065
aj	-12.1065
▁اصدق	-12.1067
▁مڙيئي	-12.1068
▁176	-12.107
صاب	-12.1072
▁مُٺ	-12.1073
▁نداريم	-12.1074
▁ڪوٺيو	-12.1074
▁سكسي	-12.1075
▁گويم	-12.1075
▁فراڊ	-12.1075
stat	-12.1075
▁خپ	-12.1077
▁ڪاوڙيل	-12.1078
▁وجدان	-12.1082
▁وجد	-12.1083
▁طاري	-12.1084
▁خمار	-12.1084
just	-12.1084
▁مٽايو	-12.1084
▁انديشو	-12.1084
▁بڻائيندي	-12.1088
▁ڪارنامو	-12.1089
▁آكل	-12.109
▁By	-12.109
آڪسفورڊ	-12.1091
▁اسٽرا	-12.1092
▁وناسه	-12.1094
▁سيتا	-12.1095
▁خدشو	-12.1096
▁تخصصي	-12.1099
ڪِ	-12.1099
▁ڊاٽ	-12.11
▁پٿ	-12.1101
▁سنک	-12.1102
▁VI	-12.1104
▁رھو	-12.1104
سيتائي	-12.1104
▁ابوال	-12.1105
EN	-12.1106
▁خلصت	-12.1106
▁جبري	-12.1106
▁رشد	-12.1107
راکش	-12.1113
▁اگرچ	-12.1114
▁خصوصيتن	-12.112
▁انٽيل	-12.1122
▁لءِ	-12.1126
▁ڈ	-12.1127
▁براء	-12.1128
▁بالك	-12.1129
▁حلووه	-12.113
▁مشت	-12.1131
▁غش	-12.1136
aka	-12.1139
▁العب	-12.1143
▁ڏينديون	-12.1143
▁ڳلي	-12.1144
ink	-12.115
▁گاب	-12.1156
▁زائر	-12.1157
▁السك	-12.1157
▁دلاس	-12.1158
▁Bet	-12.116
▁اعد	-12.1161
▁اولھ	-12.1164
▁گاني	-12.1166
▁11-	-12.1167
▁حصيدار	-12.1167
▁SP	-12.1168
▁آی	-12.1174
▁پيڙ	-12.1177
▁ذخيره	-12.1178
▁لُٽ	-12.1182
▁ررررر	-12.1183
▁her	-12.1186
▁Ab	-12.1188
▁استر	-12.119
▁Ni	-12.1192
ward	-12.1196
▁يارڊ	-12.1196
▁شيدي	-12.1198
zo	-12.1199
▁زڪو	-12.1199
mail	-12.1203
▁pm	-12.1203
▁سائر	-12.1206
▁خشم	-12.121
▁إس	-12.121
▁ہو	-12.1213
ES	-12.1214
▁ابك	-12.1215
ميڊيا	-12.1219
قرآن	-12.122
▁ڪڙو	-12.1223
▁پروين	-12.1224
ئڙا	-12.1232
oss	-12.1233
▁سجاي	-12.1237
پنڊي	-12.1241
mal	-12.1242
▁اماڻي	-12.1243
▁وَس	-12.1249
▁اڪائونٽنگ	-12.1251
▁ran	-12.1253
▁ڀاڄ	-12.1261
rat	-12.1262
▁wager	-12.1264
▁تحقیق	-12.1264
▁ذیابيطس	-12.1264
▁مفاهيم	-12.1264
💔	-12.1264
▁[3]	-12.1264
▁ازدواج	-12.1264
▁خونريزي	-12.1264
▁معاصر	-12.1264
İ	-12.1264
▁قونصل	-12.1264
▁ڪنڀار	-12.1264
▁corrosi	-12.1264
▁محڪم	-12.1264
▁بيقرار	-12.1264
▁افتاد	-12.1264
▁درجابندي	-12.1264
▁يصلح	-12.1264
▁around	-12.1264
▁آفاقي	-12.1264
▁پڄاڻان	-12.1265
▁هيثم	-12.1265
ضغط	-12.1265
▁اينڊريو	-12.1265
quot	-12.1265
▁يسمع	-12.1265
▁مراقب	-12.1266
▁آداب	-12.1266
▁وأنت	-12.1266
▁>>>>>	-12.1266
▁مجله	-12.1266
▁بليسك	-12.1266
▁ٺاهجي	-12.1266
▁مطرح	-12.1266
▁سمحت	-12.1267
▁انسولي	-12.1267
▁فهيم	-12.1268
▁گيلري	-12.1269
▁بدلايو	-12.1269
سچو	-12.127
▁1920	-12.127
▁مرره	-12.1274
▁تموت	-12.1274
▁الخبر	-12.1275
▁سورٺ	-12.1276
▁نچڻ	-12.1277
▁تحقق	-12.1277
▁place	-12.1278
▁فوڪس	-12.1279
▁موافقت	-12.1284
▁لٿي	-12.1284
▁خيار	-12.1284
▁بصح	-12.1285
▁رائونڊ	-12.1286
▁سينما	-12.1287
▁هقول	-12.1288
▁سپاس	-12.1288
▁پروڊڪ	-12.1288
▁بيچين	-12.1289
▁ريکا	-12.129
89	-12.129
▁موتين	-12.1291
▁آفرين	-12.1292
▁2.3	-12.1293
▁تحمل	-12.1294
ets	-12.1295
▁جهنڊو	-12.1297
▁128	-12.1297
▁مڪلي	-12.1299
▁زيدي	-12.1302
▁اكلت	-12.1304
▁توپ	-12.1304
▁خواهم	-12.1305
▁ھُو	-12.1305
▁جاگير	-12.1306
▁تحسين	-12.1307
▁ريج	-12.131
▁Len	-12.1311
▁123	-12.1311
زير	-12.1318
2.9	-12.1319
▁شيشه	-12.1323
rk	-12.1323
▁كنا	-12.1325
▁نيپ	-12.1326
▁سائيڊ	-12.133
▁ill	-12.1332
▁سمائي	-12.1333
ينيا	-12.1335
ange	-12.1336
▁امينو	-12.1341
▁ائتي	-12.1341
▁خُ	-12.1345
▁ڏڻ	-12.1347
▁راقي	-12.1347
▁آسٽ	-12.1348
▁ميڪسي	-12.1353
▁جئر	-12.1355
اسڪيٽ	-12.1357
▁ٺپ	-12.1358
▁سرڪي	-12.1359
▁فرهنگ	-12.1361
▁ٻڍ	-12.1365
▁="4.	-12.1367
▁رانديڪن	-12.1368
▁ڳول	-12.1371
پيڊ	-12.1371
▁ings	-12.1373
▁قعد	-12.1374
▁چڙهيو	-12.138
ٽارن	-12.1381
▁کُٽ	-12.1382
▁سنك	-12.1383
▁102	-12.1384
▁خواهه	-12.1385
▁سرج	-12.1389
▁ڪائونٽي	-12.1395
▁ابشر	-12.1396
▁گرفتي	-12.1397
▁نجومي	-12.1397
▁red	-12.1397
▁Ki	-12.1398
▁نے	-12.1399
68	-12.1405
َنڌ	-12.1407
▁je	-12.1409
▁شعب	-12.1411
▁دائر	-12.1412
▁فان	-12.1414
▁ho	-12.1415
▁حِ	-12.1417
▁انگيزه	-12.1418
▁شيرت	-12.1419
▁يرد	-12.142
▁سپاه	-12.1421
▁پوان	-12.1423
ux	-12.1425
قوول	-12.1427
▁طلا	-12.1427
ئجي	-12.1427
▁شکن	-12.1429
{	-12.1432
ححح	-12.1436
▁Cas	-12.1439
▁معناي	-12.1441
▁ڪالا	-12.1447
▁پوائنٽون	-12.145
راق	-12.1452
▁نوين	-12.1455
▁بشي	-12.1458
▁دهل	-12.1459
▁فاهمه	-12.1459
▁غب	-12.146
آور	-12.1464
▁جنائي	-12.1465
▁هَل	-12.1468
عطيك	-12.1476
▁سورس	-12.1477
▁هراس	-12.1479
▁عجبتك	-12.1479
مبرگ	-12.148
य	-12.1481
▁1946	-12.1481
▁خداحافظ	-12.1481
▁سلنڈر	-12.1481
▁موسيقار	-12.1481
▁ويکيپېډيا	-12.1481
▁ٽيڪنالوجي	-12.1481
▁چيمپئن	-12.1481
★	-12.1481
سيڪيولر	-12.1481
▁توفيق	-12.1481
▁للبيع	-12.1481
▁نڀائڻ	-12.1481
▁نڀاڳ	-12.1482
▁پڇيومانس	-12.1482
▁امروٽي	-12.1482
▁خيانت	-12.1482
▁سوڊيم	-12.1482
▁App	-12.1482
▁آفريدي	-12.1482
▁واثق	-12.1482
▁استاذ	-12.1482
▁spins	-12.1482
▁مبارڪباد	-12.1482
▁مفلس	-12.1482
▁مشکل	-12.1482
گال	-12.1482
▁فياض	-12.1483
▁نغم	-12.1484
▁يهديك	-12.1484
▁خايف	-12.1484
▁يختي	-12.1485
▁اكمل	-12.1486
▁محسن	-12.1486
▁Post	-12.1487
▁ادعو	-12.1487
▁بيرل	-12.1489
نامه	-12.1489
▁زدن	-12.149
▁پهچندا	-12.149
▁فيديو	-12.1491
لاڪا	-12.1492
▁ڃ	-12.1495
▁خواهد	-12.1495
▁****	-12.1496
▁گيرند	-12.1497
▁سڃاڻان	-12.1497
▁سودي	-12.1498
شعر	-12.1499
▁مشكلة	-12.15
▁گروھ	-12.15
▁عوض	-12.1501
▁لارڊ	-12.1502
▁منقول	-12.1502
▁اوجاڳ	-12.1503
▁ڪٽيو	-12.1504
یکٹ	-12.1506
▁Hu	-12.1507
ont	-12.1508
▁تضرب	-12.1509
TI	-12.1511
▁رباني	-12.1511
▁احلامي	-12.1511
▁ڪالھ	-12.1513
▁٨	-12.1514
▁ترکي	-12.1514
▁الگور	-12.1516
▁ES	-12.1519
load	-12.1519
▁لوڏ	-12.152
▁بارود	-12.1523
▁رسالة	-12.1523
رتاح	-12.1524
▁کننده	-12.1525
▁log	-12.1525
▁ديگران	-12.1525
▁پڌرا	-12.1526
▁مووي	-12.1529
▁bot	-12.153
Co	-12.1532
▁وهاب	-12.1533
▁پاڇا	-12.1537
▁ڪبا	-12.1537
▁څه	-12.1538
كذب	-12.1539
▁ايشور	-12.1544
▁ٺري	-12.1547
▁جهيڙ	-12.1547
▁پڇيا	-12.1547
UN	-12.1547
▁سکندا	-12.1549
چند	-12.1549
صنع	-12.155
▁ضياء	-12.1553
▁Cat	-12.1556
▁لغو	-12.1558
▁بيگز	-12.1558
تفري	-12.1564
▁اھڻ	-12.1565
▁ويهندو	-12.1566
▁پوٽو	-12.1569
fore	-12.1569
اعي	-12.1569
ipp	-12.157
رنج	-12.157
▁جگ	-12.1572
▁باڪسر	-12.1572
▁چشما	-12.1573
▁اُڻ	-12.1575
▁لفت	-12.1576
▁وڇوڙو	-12.1578
▁ثالث	-12.1582
▁برگزار	-12.1584
▁حمز	-12.1584
▁سوڙه	-12.1585
▁انشا	-12.1586
أخذ	-12.1587
▁CH	-12.1587
ررر	-12.1588
▁اُنھي	-12.1589
▁ريسٽ	-12.1589
ڀو	-12.1591
▁شوية	-12.1592
▁بنيا	-12.1594
▁فرحان	-12.1595
▁تحيات	-12.1595
bank	-12.1596
▁PA	-12.16
▁پرزا	-12.1602
▁Can	-12.1605
▁sha	-12.1605
▁art	-12.1606
▁اخيرا	-12.1607
uth	-12.1607
▁ورنه	-12.161
▁del	-12.161
▁خليت	-12.1617
▁بيست	-12.1617
▁جماع	-12.1618
گيري	-12.162
ions	-12.1626
▁پاتي	-12.163
▁لهجو	-12.163
▁AD	-12.163
▁اخوان	-12.1635
[...]
