<unk>	0
<s>	0
</s>	0
هه	-0
▁ا	-1
▁ج	-2
▁م	-3
ان	-4
▁ڪ	-5
▁ت	-6
▁س	-7
▁ه	-8
▁و	-9
هههه	-10
▁آ	-11
▁جي	-12
ري	-13
هي	-14
▁پ	-15
▁ب	-16
▁ک	-17
ين	-18
هن	-19
▁ن	-20
ون	-21
▁آهي	-22
ار	-23
▁ل	-24
يو	-25
▁.	-26
ائ	-27
▁۾	-28
▁ٿ	-29
▁ر	-30
▁،	-31
▁کي	-32
ال	-33
▁ان	-34
▁۽	-35
ــ	-36
يا	-37
▁جو	-38
هههههههه	-39
▁گ	-40
▁ش	-41
ور	-42
ند	-43
ئي	-44
▁د	-45
▁ع	-46
▁ته	-47
▁اس	-48
▁خ	-49
لي	-50
▁ح	-51
▁ف	-52
▁تي	-53
▁ڏ	-54
▁چ	-55
نهن	-56
ام	-57
اء	-58
جي	-59
▁هڪ	-60
▁ڪري	-61
▁اه	-62
▁ٻ	-63
▁هههههههه	-64
اڻ	-65
دي	-66
▁کان	-67
▁لاء	-68
▁ق	-69
▁به	-70
▁سان	-71
تي	-72
▁نه	-73
اري	-74
▁ڪر	-75
▁هن	-76
▁ٿي	-77
رو	-78
▁ي	-79
▁اي	-80
▁"	-81
ائي	-82
اب	-83
▁ط	-84
▁ال	-85
▁ص	-86
▁هو	-87
▁تو	-88
دا	-89
▁آهن	-90
ير	-91
▁ڪرڻ	-92
▁ڇ	-93
لا	-94
يڪ	-95
▁يا	-96
▁ٿو	-97
▁اسان	-98
هان	-99
ــــ	-100
▁اهو	-101
▁پي	-102
ني	-103
دو	-104
▁لاءِ	-105
▁جيڪ	-106
ست	-107
▁ٽ	-108
▁مو	-109
▁ڊ	-110
هر	-111
ءَ	-112
▁1	-113
ول	-114
▁ز	-115
▁ڪي	-116
مي	-117
نهنجي	-118
▁سگ	-119
▁پر	-120
▁(	-121
▁من	-122
▁توهان	-123
▁هي	-124
▁ڪيو	-125
سي	-126
▁مان	-127
▁مون	-128
را	-129
▁2	-130
ائين	-131
ڏهن	-132
▁جا	-133
▁پو	-134
قي	-135
ات	-136
لو	-137
جو	-138
نگ	-139
▁ڳ	-140
▁مي	-141
▁وا	-142
▁ڪند	-143
ھن	-144
▁مع	-145
قت	-146
▁ٿا	-147
▁بي	-148
▁-	-149
▁ما	-150
ڙي	-151
▁رو	-152
▁وي	-153
▁ڪو	-154
ههه	-155
ھي	-156
▁ئي	-157
اني	-158
ڪي	-159
اي	-160
اهي	-161
▁ڀ	-162
▁وڌ	-163
▁سو	-164
▁ڪم	-165
اد	-166
از	-167
هو	-168
رين	-169
▁پنهنجي	-170
▁او	-171
رف	-172
▁رهي	-173
▁ك	-174
▁ويو	-175
له	-176
▁هههه	-177
شن	-178
▁هههههههههههه	-179
ٽي	-180
▁انهن	-181
▁غ	-182
▁:	-183
▁طور	-184
ئن	-185
▁است	-186
اس	-187
▁سڀ	-188
اص	-189
بر	-190
▁ض	-191
▁گه	-192
▁وڃ	-193
ورت	-194
▁سي	-195
بي	-196
▁ھ	-197
ڏي	-198
مت	-199
▁مل	-200
اف	-201
▁خو	-202
اڻي	-203
سٽ	-204
اڪ	-205
▁ذ	-206
گر	-207
▁ڏين	-208
ءِ	-209
اا	-210
▁سم	-211
▁په	-212
▁مح	-213
عم	-214
ئين	-215
کي	-216
▁بر	-217
گي	-218
▁في	-219
▁ماڻ	-220
▁وين	-221
▁وڌيڪ	-222
▁هون	-223
▁وقت	-224
ٽر	-225
▁سال	-226
▁ري	-227
▁ڪج	-228
مل	-229
ارو	-230
ها	-231
▁هر	-232
ڙو	-233
▁اين	-234
سم	-235
▁در	-236
الي	-237
عي	-238
در	-239
▁گهر	-240
چي	-241
▁؟	-242
▁ڇا	-243
▁ور	-244
تر	-245
▁شي	-246
▁ڏي	-247
نيا	-248
▁سند	-249
▁آھي	-250
▁جن	-251
▁اڳ	-252
▁!	-253
▁20	-254
▁جنهن	-255
▁مر	-256
▁سر	-257
عمال	-258
▁تر	-259
▁استعمال	-260
▁مش	-261
▁تع	-262
▁مس	-263
صو	-264
▁ام	-265
ائڻ	-266
▁ڪئي	-267
خت	-268
▁اهي	-269
▁لا	-270
▁ڪن	-271
▁)	-272
▁واري	-273
▁3	-274
▁تائين	-275
دار	-276
▁هئي	-277
▁ڳال	-278
▁ڪنهن	-279
▁جيڪو	-280
▁لي	-281
بو	-282
تو	-283
▁سن	-284
▁نظ	-285
اه	-286
لام	-287
ڻي	-288
▁ٺ	-289
▁ڪريو	-290
وي	-291
▁ٽي	-292
▁ڪجهه	-293
▁اها	-294
▁ڊي	-295
ائن	-296
▁چيو	-297
▁مق	-298
▁ٿين	-299
▁بس	-300
لم	-301
يت	-302
▁ها	-303
▁جڏهن	-304
▁نو	-305
▁سگهي	-306
زي	-307
فت	-308
▁گڏ	-309
▁ڏينهن	-310
ندي	-311
ــــــــ	-312
▁ڌ	-313
▁سا	-314
▁وڃي	-315
▁جيڪي	-316
▁تم	-317
in	-318
سو	-319
ئر	-320
ٺي	-321
▁,	-322
رح	-323
▁مط	-324
▁رک	-325
▁حاص	-326
ڪن	-327
▁پوءِ	-328
▁s	-329
ارن	-330
▁انهي	-331
▁دو	-332
▁لڳ	-333
▁حاصل	-334
نهنجو	-335
▁با	-336
نا	-337
سان	-338
ڪو	-339
▁منهنجي	-340
▁از	-341
▁ضر	-342
▁اع	-343
▁ٻڌ	-344
جود	-345
▁سندس	-346
ڪر	-347
▁اح	-348
في	-349
▁پاڻ	-350
▁شا	-351
▁تح	-352
▁چي	-353
▁يو	-354
جن	-355
▁جيڪڏهن	-356
ثر	-357
▁اص	-358
ايو	-359
ئون	-360
▁5	-361
ٿي	-362
▁ههههههههه	-363
روع	-364
هم	-365
▁هئ	-366
▁پن	-367
▁ڄ	-368
▁تمام	-369
▁شروع	-370
▁4	-371
▁ناهي	-372
ڪل	-373
ندو	-374
▁ڪا	-375
▁علي	-376
▁الله	-377
ڻو	-378
▁گھ	-379
00	-380
ـــ	-381
▁ڪار	-382
بت	-383
اح	-384
پي	-385
▁ڇو	-386
▁فر	-387
بل	-388
▁پرو	-389
▁باب	-390
er	-391
من	-392
▁دنيا	-393
مين	-394
▁ههههههه	-395
▁ههههههههههه	-396
▁صح	-397
شي	-398
▁جون	-399
▁ني	-400
ڪار	-401
▁ٿيو	-402
نو	-403
▁رهيو	-404
▁سمج	-405
▁تون	-406
▁زند	-407
ھان	-408
▁ٻي	-409
▁انت	-410
▁وٽ	-411
▁مد	-412
▁وئي	-413
نڊ	-414
▁اُ	-415
▁آر	-416
▁عل	-417
▁ڇڏ	-418
▁مت	-419
▁دور	-420
▁دل	-421
دڙ	-422
▁وڏي	-423
امل	-424
▁يع	-425
▁ماڻهو	-426
تم	-427
▁اخ	-428
ائون	-429
ده	-430
▁نم	-431
▁ضرورت	-432
▁تب	-433
▁عم	-434
ولي	-435
▁مخت	-436
ڪا	-437
صي	-438
▁ويندو	-439
▁أ	-440
▁سب	-441
الو	-442
▁لو	-443
▁آم	-444
ٺو	-445
▁صرف	-446
▁مار	-447
▁پيدا	-448
▁پار	-449
▁پڻ	-450
▁ويا	-451
▁پيش	-452
اهر	-453
لف	-454
▁موجود	-455
▁a	-456
▁نا	-457
▁چو	-458
انهن	-459
▁چون	-460
▁آخ	-461
ستان	-462
امي	-463
مان	-464
اءِ	-465
ڪس	-466
فر	-467
▁ڪڏهن	-468
▁خاص	-469
▁اچي	-470
▁تن	-471
▁ٿيڻ	-472
▁زندگي	-473
دن	-474
عو	-475
▁وڏ	-476
▁طرف	-477
▁'	-478
▁جه	-479
يني	-480
لب	-481
▁19	-482
▁ڏس	-483
▁ڪيئن	-484
ڪري	-485
on	-486
▁ڪندو	-487
▁را	-488
▁وال	-489
▁201	-490
▁بابت	-491
▁سڀني	-492
▁چاهي	-493
▁ماڻهن	-494
▁ڪه	-495
عد	-496
▁پڙ	-497
جا	-498
ھو	-499
▁ڪت	-500
▁جيئن	-501
▁طري	-502
▁t	-503
▁لک	-504
▁طرح	-505
▁عمل	-506
▁ڪمپ	-507
وري	-508
يم	-509
▁تنهن	-510
▁شامل	-511
▁هل	-512
هڻ	-513
ران	-514
▁ٻئي	-515
وو	-516
▁ههههههههههههه	-517
▁غير	-518
▁هههههههههه	-519
فا	-520
▁مختلف	-521
▁S	-522
▁ڪيتر	-523
▁عام	-524
▁بل	-525
▁ڪندا	-526
▁گهٽ	-527
▁وارو	-528
▁وان	-529
▁خي	-530
▁هئا	-531
ما	-532
ندا	-533
▁A	-534
▁اڄ	-535
▁گذ	-536
▁خبر	-537
▁/	-538
▁ون	-539
▁اج	-540
رن	-541
▁اد	-542
▁ظ	-543
▁6	-544
▁آهيان	-545
ar	-546
شت	-547
▁قسم	-548
▁هم	-549
كم	-550
▁حال	-551
▁يعني	-552
▁تج	-553
▁ههههه	-554
لس	-555
▁ار	-556
▁ڳالهه	-557
ندڙ	-558
▁سائي	-559
لن	-560
▁مڪ	-561
▁بڻ	-562
▁مدد	-563
▁رهيا	-564
▁سنڌ	-565
▁نظر	-566
پور	-567
▁نن	-568
▁واق	-569
▁هوندي	-570
۔۔	-571
▁ڏانهن	-572
▁شاي	-573
▁قو	-574
▁حقي	-575
▁دا	-576
▁رس	-577
▁ٻن	-578
▁ڪندي	-579
▁اندر	-580
▁وار	-581
▁مث	-582
بن	-583
▁گهرجي	-584
▁واپ	-585
▁آمري	-586
▁c	-587
طي	-588
ريون	-589
▁هوندو	-590
▁نق	-591
▁گر	-592
▁ڪتاب	-593
ضي	-594
▁ڪندڙ	-595
قو	-596
▁ياد	-597
▁_	-598
▁تاري	-599
▁پس	-600
▁آهيون	-601
▁ڏيڻ	-602
▁جيڪا	-603
مو	-604
ٽن	-605
▁اچ	-606
▁ِ	-607
▁وچ	-608
▁ذري	-609
سن	-610
▁ٻين	-611
ڊيو	-612
▁پا	-613
▁سيا	-614
ڙا	-615
▁جم	-616
▁تاريخ	-617
وني	-618
▁ھڪ	-619
▁ٿيل	-620
▁آئون	-621
es	-622
ٽو	-623
دم	-624
▁مڪمل	-625
▁عورت	-626
▁جواب	-627
▁8	-628
▁پاڪ	-629
ذا	-630
اند	-631
ترين	-632
▁ــــــــ	-633
▁پري	-634
▁7	-635
▁ث	-636
▁قي	-637
وا	-638
▁وري	-639
▁نئين	-640
▁ايس	-641
▁بين	-642
▁تق	-643
هين	-644
▁آز	-645
ڳو	-646
▁اڪ	-647
▁انا	-648
▁دي	-649
▁سبب	-650
▁فائ	-651
▁نالو	-652
an	-653
▁آن	-654
▁شهر	-655
▁ات	-656
▁کيس	-657
سين	-658
▁فو	-659
▁ايم	-660
ٽا	-661
▁سگه	-662
▁بعد	-663
با	-664
ڊي	-665
فظ	-666
▁ملڪ	-667
▁گهڻو	-668
▁بد	-669
▁يق	-670
▁d	-671
▁بنيا	-672
en	-673
اااا	-674
بار	-675
شش	-676
▁پهرين	-677
تن	-678
▁اهڙي	-679
▁اف	-680
▁تبدي	-681
زار	-682
▁ختم	-683
▁هتي	-684
افي	-685
▁i	-686
▁C	-687
▁هاڻي	-688
▁ههههههههههههههه	-689
لاح	-690
▁هههههه	-691
▁پيا	-692
▁<	-693
▁پنهنجو	-694
or	-695
رت	-696
▁اڃ	-697
▁بند	-698
▁9	-699
▁آھن	-700
▁يون	-701
▁سگهو	-702
▁ٿيندو	-703
▁پيو	-704
▁سيڪ	-705
▁اهم	-706
▁مسئ	-707
▁سالن	-708
▁شايد	-709
▁ڇڏيو	-710
▁M	-711
زن	-712
ڪيٽ	-713
▁ڪل	-714
▁ڏا	-715
▁اپ	-716
▁ڪون	-717
▁جان	-718
▁فون	-719
شه	-720
▁رهن	-721
▁ڇڏي	-722
▁اسڪ	-723
▁شو	-724
▁هههههههههههههه	-725
ريل	-726
▁ڏئي	-727
▁ٿئي	-728
▁ادا	-729
اتي	-730
▁وڏو	-731
▁10	-732
▁شر	-733
▁وٺ	-734
▁ملي	-735
▁اسٽ	-736
▁ڦ	-737
▁انگ	-738
▁انسان	-739
▁هيٺ	-740
مبر	-741
▁خر	-742
▁هٿ	-743
▁خلا	-744
▁دوست	-745
▁عر	-746
روري	-747
▁سام	-748
▁ايپ	-749
▁ائين	-750
▁بح	-751
عت	-752
at	-753
اجي	-754
ضح	-755
▁خط	-756
▁خيال	-757
خل	-758
جب	-759
▁ڏنو	-760
يان	-761
ورو	-762
▁اسلام	-763
▁بهترين	-764
▁صورت	-765
▁آئي	-766
▁نٿ	-767
ضو	-768
▁گو	-769
▁آيو	-770
▁اتي	-771
▁ڀي	-772
▁قيمت	-773
▁سگهن	-774
▁حق	-775
▁ٻه	-776
اءُ	-777
▁مطلب	-778
به	-779
ڍي	-780
پو	-781
قل	-782
▁P	-783
▁هجي	-784
▁وٺي	-785
▁قان	-786
ارف	-787
▁ويب	-788
▁سوال	-789
ءُ	-790
▁رات	-791
لوم	-792
سر	-793
▁ٺاهي	-794
▁ـ	-795
▁معي	-796
▁ڪمپني	-797
▁ويندي	-798
▁پئي	-799
▁پڇ	-800
وار	-801
▁اوهان	-802
▁بو	-803
▁سين	-804
يح	-805
▁ڪوشش	-806
▁منهنجو	-807
▁عليه	-808
▁خوش	-809
▁پوء	-810
▁وانگر	-811
▁قر	-812
▁؛	-813
▁ٻيو	-814
پورٽ	-815
▁آهيو	-816
اج	-817
▁وس	-818
▁مال	-819
▁ذريعي	-820
▁T	-821
▁ڪيا	-822
ro	-823
▁امي	-824
سوس	-825
▁خدا	-826
▁ڪارو	-827
▁ڄاڻ	-828
مد	-829
▁p	-830
▁رکي	-831
ليم	-832
▁حل	-833
▁ٽيڪ	-834
▁مخ	-835
▁فار	-836
ur	-837
▁توھان	-838
مون	-839
▁ڳو	-840
▁ٻار	-841
▁صحيح	-842
▁ڪيل	-843
▁آخر	-844
جڻ	-845
le	-846
فو	-847
▁سوچ	-848
هور	-849
▁رنگ	-850
يرا	-851
ڊر	-852
▁ــــ	-853
ھنجي	-854
حد	-855
▁غل	-856
▁بن	-857
▁پاڻي	-858
ادي	-859
▁لفظ	-860
▁تص	-861
عا	-862
▁سائيٽ	-863
ing	-864
ريد	-865
▁هنن	-866
▁حقيقت	-867
رس	-868
▁منهن	-869
▁تصو	-870
▁ڏسي	-871
al	-872
▁مض	-873
▁جل	-874
▁معلوم	-875
▁جاري	-876
▁اوھان	-877
▁شك	-878
▁قاب	-879
▁اک	-880
▁ترقي	-881
▁بچ	-882
▁ين	-883
▁m	-884
="	-885
▁والله	-886
▁اڃا	-887
صر	-888
اهه	-889
ههههههههه	-890
▁دوران	-891
▁روز	-892
▁فيص	-893
▁انتظ	-894
▁خد	-895
▁مم	-896
▁*	-897
شان	-898
▁ڪان	-899
▁بال	-900
▁حڪو	-901
▁ولا	-902
▁سڄ	-903
▁عال	-904
ڊيا	-905
▁>	-906
▁مٿ	-907
▁اصل	-908
▁ضروري	-909
▁صف	-910
▁ھن	-911
▁ڪيترن	-912
▁حڪ	-913
ساني	-914
▁صاح	-915
▁گھر	-916
▁منظ	-917
▁اثر	-918
▁نس	-919
▁[	-920
▁چين	-921
لق	-922
▁B	-923
▁ظاهر	-924
▁سفر	-925
▁مواد	-926
▁جتي	-927
▁حصو	-928
ورن	-929
▁ٻاهر	-930
▁لڳي	-931
▁پاڪستان	-932
▁اسين	-933
▁اول	-934
▁علائ	-935
▁فق	-936
▁بهتر	-937
▁b	-938
▁سندن	-939
▁علا	-940
▁پون	-941
▁ساڳ	-942
باد	-943
ياتي	-944
▁پيار	-945
▁ءَ	-946
▁عي	-947
it	-948
باني	-949
▁اٿ	-950
▁عمر	-951
▁مارڪيٽ	-952
▁ڪام	-953
▁حڪومت	-954
▁هُ	-955
▁پنهن	-956
كن	-957
▁مٿي	-958
▁ڪيت	-959
▁پهريون	-960
داز	-961
▁محسوس	-962
ائم	-963
▁ڪجھ	-964
خص	-965
▁گرا	-966
▁آسان	-967
re	-968
▁مست	-969
▁مج	-970
▁الس	-971
▁هوندا	-972
▁I	-973
▁مطاب	-974
▁تبديل	-975
▁بيان	-976
▁مهي	-977
▁جنگ	-978
▁صلاح	-979
▁آمريڪا	-980
▁ڏسڻ	-981
ڙن	-982
ليل	-983
▁رد	-984
▁ٿيون	-985
▁ڏني	-986
▁الم	-987
حي	-988
جه	-989
▁حو	-990
▁اھو	-991
▁تصوير	-992
ضوع	-993
▁على	-994
▁سک	-995
▁صاحب	-996
▁مز	-997
▁چار	-998
▁اسپ	-999
▁لائن	-1000
▁فرا	-1001
▁ملا	-1002
▁سه	-1003
▁چه	-1004
▁وارا	-1005
▁خلاف	-1006
▁معيار	-1007
▁پهچ	-1008
▁جسم	-1009
▁طرفان	-1010
▁خريد	-1011
▁پئ	-1012
▁ڳاله	-1013
▁رڳو	-1014
▁خدمت	-1015
▁آف	-1016
لان	-1017
▁خود	-1018
داد	-1019
ڏھن	-1020
ازي	-1021
▁تان	-1022
▁ٿيندي	-1023
▁عو	-1024
▁سگهجي	-1025
ميشه	-1026
▁رکڻ	-1027
▁اختي	-1028
▁َ	-1029
تا	-1030
▁مثال	-1031
▁اش	-1032
▁شع	-1033
يي	-1034
▁اب	-1035
▁راند	-1036
ic	-1037
ائل	-1038
▁زمين	-1039
▁تنهنجي	-1040
▁ھي	-1041
كت	-1042
▁اڻ	-1043
▁ھو	-1044
▁تجر	-1045
▁دست	-1046
رم	-1047
قا	-1048
▁ريا	-1049
دين	-1050
▁حلو	-1051
▁هوءَ	-1052
ٽل	-1053
▁قب	-1054
ارت	-1055
گرام	-1056
▁e	-1057
▁ڏک	-1058
صد	-1059
ڌي	-1060
پر	-1061
▁تيار	-1062
▁ڏيک	-1063
▁قانون	-1064
▁قدر	-1065
▁تف	-1066
▁شخص	-1067
ايت	-1068
ٽرو	-1069
▁ڊيٽا	-1070
▁ايران	-1071
ياري	-1072
▁دف	-1073
▁اسٽي	-1074
▁واپس	-1075
▁الي	-1076
اڪاڻ	-1077
داري	-1078
ديد	-1079
ِي	-1080
▁ڇاڪاڻ	-1081
ڪرو	-1082
ره	-1083
▁انداز	-1084
▁پيداوار	-1085
▁پسند	-1086
▁عن	-1087
▁ڏيو	-1088
ستي	-1089
▁مين	-1090
▁الح	-1091
▁بخ	-1092
▁نتي	-1093
▁برا	-1094
پري	-1095
▁سچ	-1096
▁آيا	-1097
▁قابل	-1098
▁منت	-1099
▁مص	-1100
ڪٽ	-1101
ائو	-1102
▁مشهور	-1103
▁st	-1104
سٽم	-1105
انو	-1106
▁اعلي	-1107
▁ڪيترائي	-1108
▁شين	-1109
تل	-1110
▁شه	-1111
▁انهيءَ	-1112
▁0	-1113
▁نيو	-1114
▁کا	-1115
بان	-1116
▁تا	-1117
ظيم	-1118
▁نظام	-1119
▁هميشه	-1120
▁تقري	-1121
▁اجاز	-1122
▁بلا	-1123
▁صن	-1124
لين	-1125
▁H	-1126
▁داخل	-1127
▁D	-1128
▁چوڻ	-1129
▁موق	-1130
هون	-1131
▁ڊگ	-1132
ڪاري	-1133
يات	-1134
غير	-1135
▁ٻنهي	-1136
▁صارف	-1137
دس	-1138
▁موڪل	-1139
▁N	-1140
▁طا	-1141
▁اجازت	-1142
▁l	-1143
▁بار	-1144
اسب	-1145
▁الا	-1146
▁يقين	-1147
▁پلي	-1148
▁باري	-1149
اسين	-1150
▁G	-1151
▁وز	-1152
▁پاس	-1153
▁خوب	-1154
▁مهر	-1155
▁آو	-1156
▁مونکي	-1157
ههههههههههه	-1158
▁شاع	-1159
▁18	-1160
▁حس	-1161
▁وارن	-1162
▁ڏٺو	-1163
▁15	-1164
▁سٺو	-1165
▁هذا	-1166
ڌو	-1167
▁سڏ	-1168
ڻيڪ	-1169
▁نٿو	-1170
توڻيڪ	-1171
▁بنيادي	-1172
▁L	-1173
▁پير	-1174
قن	-1175
▁واقعي	-1176
▁مري	-1177
ڪيشن	-1178
▁تحقي	-1179
فوظ	-1180
▁ننڍ	-1181
▁وڃڻ	-1182
▁جيتوڻيڪ	-1183
▁راب	-1184
▁محفوظ	-1185
ذه	-1186
زا	-1187
اھ	-1188
▁ڊو	-1189
▁سرو	-1190
▁توکي	-1191
▁آه	-1192
▁نف	-1193
▁کانپو	-1194
▁لائ	-1195
▁موضوع	-1196
▁طاقت	-1197
▁كل	-1198
▁قائم	-1199
▁نگ	-1200
يل	-1201
▁؟؟	-1202
هههههههههه	-1203
▁نئون	-1204
▁ڪلا	-1205
▁آء	-1206
▁ٽيڪن	-1207
رر	-1208
انن	-1209
▁ڪونه	-1210
▁ڏن	-1211
▁يور	-1212
▁آواز	-1213
▁مُ	-1214
▁گراه	-1215
▁چونڊ	-1216
▁ابو	-1217
نت	-1218
▁پروگرام	-1219
▁o	-1220
ريڪ	-1221
▁هيو	-1222
▁ڪاميا	-1223
ميت	-1224
▁200	-1225
▁f	-1226
▁ڄڻ	-1227
us	-1228
▁ڳول	-1229
سپ	-1230
▁حد	-1231
▁اسلامي	-1232
▁يه	-1233
▁کڻي	-1234
آآ	-1235
▁ڪير	-1236
▁سمجهي	-1237
▁معلومات	-1238
▁تعليم	-1239
▁ايڪس	-1240
▁شيء	-1241
صل	-1242
▁ره	-1243
ڙهي	-1244
▁شادي	-1245
▁ايت	-1246
▁هجڻ	-1247
▁حڪم	-1248
▁هاي	-1249
خوا	-1250
▁12	-1251
▁تحقيق	-1252
▁حض	-1253
▁سخت	-1254
▁لکي	-1255
▁ويندا	-1256
▁سگھ	-1257
▁ڪور	-1258
▁محبت	-1259
▁گرو	-1260
▁اميد	-1261
▁اك	-1262
ضحك	-1263
▁آخري	-1264
▁مطابق	-1265
is	-1266
▁خراب	-1267
▁پنھنجي	-1268
هار	-1269
▁مقصد	-1270
▁اسڪول	-1271
▁منصو	-1272
وٽ	-1273
▁اڪثر	-1274
▁w	-1275
▁ڀر	-1276
اريو	-1277
▁فراهم	-1278
▁نالي	-1279
خواست	-1280
▁جڳ	-1281
▁نام	-1282
▁روح	-1283
▁کانپوءِ	-1284
▁درخواست	-1285
om	-1286
ٽري	-1287
▁سط	-1288
▁حالت	-1289
ماني	-1290
▁انساني	-1291
ڻڻ	-1292
▁که	-1293
▁آزاد	-1294
▁حي	-1295
▁معا	-1296
وه	-1297
te	-1298
يڪل	-1299
▁غلط	-1300
▁سگھي	-1301
▁ٻارن	-1302
▁سيڪڙو	-1303
▁لاز	-1304
▁چڪو	-1305
دال	-1306
am	-1307
▁حم	-1308
ليس	-1309
▁E	-1310
▁خان	-1311
▁سڃ	-1312
▁ة	-1313
▁ڊاڪ	-1314
▁آهين	-1315
▁پور	-1316
▁ٻيهر	-1317
▁گهڻي	-1318
▁احس	-1319
▁سڄي	-1320
▁آفي	-1321
▁سائين	-1322
ac	-1323
▁فقط	-1324
▁مفت	-1325
▁ڪمي	-1326
▁ٿيا	-1327
دگي	-1328
▁سون	-1329
▁تس	-1330
nd	-1331
▁پنج	-1332
سٽر	-1333
▁اض	-1334
ارين	-1335
رفت	-1336
▁رج	-1337
گل	-1338
يون	-1339
▁سائن	-1340
▁اختيار	-1341
▁ٻولي	-1342
▁نقص	-1343
حا	-1344
▁انٽر	-1345
▁فيصلو	-1346
هائي	-1347
▁چڱ	-1348
▁فلم	-1349
هههههههههههه	-1350
▁ڪپ	-1351
ريان	-1352
▁سياسي	-1353
▁باقي	-1354
طو	-1355
ائش	-1356
▁۔۔	-1357
▁ڪهڙي	-1358
ليڪيشن	-1359
▁پٽ	-1360
▁پاران	-1361
▁طريقي	-1362
بح	-1363
▁R	-1364
▁ذهن	-1365
▁بنياد	-1366
▁ٻڌايو	-1367
▁سُ	-1368
▁نوجو	-1369
ion	-1370
▁اق	-1371
▁ــ	-1372
▁ڪافي	-1373
مار	-1374
▁کول	-1375
▁F	-1376
▁تخ	-1377
▁ٽو	-1378
▁مناسب	-1379
▁ڊر	-1380
▁رست	-1381
et	-1382
▁ـــ	-1383
▁اڳتي	-1384
▁ورتو	-1385
▁وسي	-1386
▁حر	-1387
▁مرڪ	-1388
▁جهڙو	-1389
▁اچڻ	-1390
▁سنگ	-1391
▁انگري	-1392
▁رق	-1393
▁W	-1394
ريو	-1395
▁اڳو	-1396
▁ڊاڪٽر	-1397
▁11	-1398
▁عالمي	-1399
▁ميل	-1400
art	-1401
▁سطح	-1402
كر	-1403
▁نش	-1404
ٽنگ	-1405
▁ايل	-1406
▁قدم	-1407
▁مقاب	-1408
as	-1409
▁فن	-1410
▁رياست	-1411
▁202	-1412
▁شيون	-1413
▁شاگر	-1414
▁ٽر	-1415
▁ايندڙ	-1416
▁ست	-1417
he	-1418
مه	-1419
▁ميڊيا	-1420
ڳا	-1421
▁ملڪن	-1422
▁کن	-1423
▁ممڪن	-1424
▁دلچ	-1425
▁100	-1426
ow	-1427
▁مه	-1428
▁کين	-1429
▁وڊيو	-1430
▁طب	-1431
ٽس	-1432
▁گي	-1433
▁ڳوٺ	-1434
▁1.	-1435
▁ڏسو	-1436
▁نقصان	-1437
▁اون	-1438
▁k	-1439
▁ده	-1440
▁مرح	-1441
▁خوبص	-1442
▁علم	-1443
▁ويج	-1444
دان	-1445
دارن	-1446
▁ڪٿي	-1447
سل	-1448
▁پل	-1449
▁اڪائون	-1450
ڊل	-1451
طن	-1452
▁ائ	-1453
▁ٽن	-1454
زر	-1455
ورڊ	-1456
▁تش	-1457
▁ڪاروبار	-1458
▁n	-1459
▁ترتي	-1460
▁السلام	-1461
▁ضرور	-1462
▁فع	-1463
▁مهرباني	-1464
الاجي	-1465
▁واحد	-1466
گار	-1467
▁فارم	-1468
▁چاهيو	-1469
▁آمريڪي	-1470
▁30	-1471
▁اُن	-1472
▁جدا	-1473
خخ	-1474
ائيو	-1475
▁ذاتي	-1476
▁مسلم	-1477
جر	-1478
▁له	-1479
▁شروعات	-1480
گو	-1481
▁انج	-1482
▁هين	-1483
▁ڪيون	-1484
▁پڪ	-1485
id	-1486
پيل	-1487
عه	-1488
ڪت	-1489
▁وج	-1490
▁گهڻ	-1491
▁ٽيڪنالاجي	-1492
مم	-1493
▁سلام	-1494
عن	-1495
▁اصلي	-1496
▁ترتيب	-1497
▁مضمون	-1498
il	-1499
▁آءٌ	-1500
ائيل	-1501
فتي	-1502
▁صحت	-1503
▁صدر	-1504
▁ُ	-1505
▁تڪ	-1506
▁انھن	-1507
▁نمبر	-1508
هيل	-1509
ed	-1510
▁اعلان	-1511
▁وڻ	-1512
يد	-1513
▁تعلق	-1514
▁مسئلو	-1515
▁انٽرني	-1516
فته	-1517
▁مطال	-1518
▁تڏهن	-1519
▁بڻجي	-1520
▁O	-1521
▁حقيقي	-1522
▁صو	-1523
▁سسٽم	-1524
ڪشن	-1525
▁in	-1526
▁تعم	-1527
▁موت	-1528
▁ايئر	-1529
شل	-1530
▁وائ	-1531
▁كم	-1532
▁حير	-1533
▁لوڊ	-1534
اهڻ	-1535
اندي	-1536
▁هنڌ	-1537
▁گڏي	-1538
▁رپورٽ	-1539
▁بج	-1540
▁يونيو	-1541
ريا	-1542
▁ڊائون	-1543
فاظ	-1544
▁ڌر	-1545
▁اني	-1546
زو	-1547
▁چا	-1548
▁گوگل	-1549
چر	-1550
▁سٺي	-1551
▁مذه	-1552
▁ماح	-1553
▁عورتن	-1554
ay	-1555
يندا	-1556
▁ڏنل	-1557
▁ڳن	-1558
▁دير	-1559
▁رح	-1560
صوص	-1561
▁تك	-1562
oo	-1563
ريف	-1564
▁فل	-1565
اط	-1566
احت	-1567
▁اڪي	-1568
▁قوم	-1569
▁چئي	-1570
▁ماءُ	-1571
▁گل	-1572
▁ڪجي	-1573
▁وض	-1574
▁وڃن	-1575
▁ايه	-1576
▁پوري	-1577
▁طريقو	-1578
▁نفس	-1579
▁هاڻ	-1580
▁ايپليڪيشن	-1581
▁قل	-1582
▁g	-1583
▁مشين	-1584
▁سامان	-1585
▁شڪ	-1586
▁سپ	-1587
؟"	-1588
ستائين	-1589
▁هيون	-1590
الر	-1591
سا	-1592
▁ڪردار	-1593
▁لك	-1594
▁ڏاڍ	-1595
▁اط	-1596
▁إ	-1597
▁لڳو	-1598
▁14	-1599
▁پوليس	-1600
▁سماجي	-1601
▁لکڻ	-1602
▁تعمير	-1603
▁ماحول	-1604
ارا	-1605
▁رفت	-1606
▁ٺاهڻ	-1607
▁ڏيکاري	-1608
▁اھ	-1609
▁زي	-1610
▁جديد	-1611
ٽرول	-1612
▁پيغ	-1613
▁ڪيس	-1614
ئو	-1615
▁حفاظ	-1616
▁اِ	-1617
ريب	-1618
▁رھ	-1619
▁احساس	-1620
▁آپري	-1621
▁<<	-1622
▁پورو	-1623
الا	-1624
▁موب	-1625
▁حضرت	-1626
هوري	-1627
▁h	-1628
▁قومي	-1629
▁گذريل	-1630
▁جذ	-1631
▁خوبصورت	-1632
حت	-1633
▁سروس	-1634
زم	-1635
▁جيت	-1636
▁ڪين	-1637
ورا	-1638
">	-1639
▁لاڳا	-1640
▁معني	-1641
▁متا	-1642
▁علاج	-1643
▁مرد	-1644
▁ڪهاڻي	-1645
اتو	-1646
▁حصي	-1647
▁يار	-1648
▁واضح	-1649
▁پارٽي	-1650
▁مساف	-1651
ائيڊ	-1652
شم	-1653
▁تيز	-1654
▁بت	-1655
▁تبديلي	-1656
▁الع	-1657
▁اڪائونٽ	-1658
▁پوندو	-1659
▁روش	-1660
ظم	-1661
▁وڌي	-1662
el	-1663
▁گفت	-1664
بوط	-1665
▁•	-1666
▁خاند	-1667
▁پاسي	-1668
▁ڍ	-1669
ڪان	-1670
▁13	-1671
▁نڪ	-1672
▁اخت	-1673
▁بلڪل	-1674
▁حص	-1675
ديق	-1676
▁ڀيرو	-1677
▁آگ	-1678
▁وش	-1679
▁اکين	-1680
▁گراهڪن	-1681
▁ول	-1682
▁ڪرا	-1683
ائيندو	-1684
▁نٿا	-1685
▁ڪاري	-1686
▁تفصي	-1687
▁سج	-1688
ڏو	-1689
▁ڪوبه	-1690
▁start	-1691
▁حوالي	-1692
▁يونيورس	-1693
ديم	-1694
▁موجب	-1695
▁dur	-1696
▁ميمبر	-1697
▁آزادي	-1698
▁صلاحيت	-1699
▁وٺڻ	-1700
▁موجوده	-1701
▁صبح	-1702
▁ٻيا	-1703
▁يورپ	-1704
▁سلس	-1705
▁عوام	-1706
ميو	-1707
000	-1708
▁صاف	-1709
▁مٿان	-1710
▁پڙهي	-1711
▁لن	-1712
▁عظيم	-1713
▁عملي	-1714
▁باد	-1715
▁خير	-1716
▁قبول	-1717
▁ــــــــــــ	-1718
ڳي	-1719
▁(1	-1720
▁ھڪڙو	-1721
▁گڏيل	-1722
وت	-1723
ابي	-1724
▁ڪئ	-1725
▁to	-1726
▁وڪي	-1727
▁گھٽ	-1728
▁ڏيندو	-1729
▁هند	-1730
لڊ	-1731
▁ٽيم	-1732
▁وق	-1733
▁عند	-1734
زائن	-1735
▁مقرر	-1736
زل	-1737
ايل	-1738
▁جلد	-1739
▁تعداد	-1740
يب	-1741
▁محمد	-1742
▁ايف	-1743
▁شرح	-1744
حان	-1745
▁اعت	-1746
▁نوجوان	-1747
ڪڻ	-1748
▁بيش	-1749
▁رقم	-1750
▁يونيورسٽي	-1751
خي	-1752
ٽڻ	-1753
▁لازمي	-1754
▁ضح	-1755
▁25	-1756
▁سرگر	-1757
▁رهڻ	-1758
▁اهڙو	-1759
▁پڙهڻ	-1760
▁آرٽ	-1761
▁ايو	-1762
▁ترج	-1763
▁خرچ	-1764
▁انتظار	-1765
▁حت	-1766
▁ڪنٽرول	-1767
ارڻ	-1768
▁نيٽ	-1769
▁شان	-1770
يندو	-1771
▁لان	-1772
لاس	-1773
▁r	-1774
ٺيان	-1775
▁پوسٽ	-1776
▁سواءِ	-1777
▁زين	-1778
▁2.	-1779
▁ولي	-1780
▁مضبوط	-1781
پن	-1782
رار	-1783
▁مهيا	-1784
▁نموني	-1785
ولت	-1786
▁ديو	-1787
▁مير	-1788
▁ههه	-1789
▁هه	-1790
▁متاثر	-1791
ئڻ	-1792
▁زندگيءَ	-1793
▁تہ	-1794
▁آفيس	-1795
▁راندي	-1796
▁دري	-1797
انس	-1798
▁>>	-1799
ٺا	-1800
▁انسٽ	-1801
▁ڌيان	-1802
▁خوشي	-1803
▁ڪريان	-1804
xt	-1805
▁ی	-1806
لائي	-1807
▁تاز	-1808
لز	-1809
ھين	-1810
رات	-1811
▁صنعت	-1812
▁احت	-1813
▁بع	-1814
▁لين	-1815
▁عدال	-1816
▁ذڪر	-1817
▁هلي	-1818
▁ڪهڙو	-1819
▁پنهنجن	-1820
▁مڙ	-1821
▁وزير	-1822
▁پهچي	-1823
▁ڀا	-1824
▁خواب	-1825
وز	-1826
▁بينڪ	-1827
آن	-1828
▁اَ	-1829
▁جھ	-1830
سڪ	-1831
▁16	-1832
▁17	-1833
▁هيءَ	-1834
▁وه	-1835
▁رکيو	-1836
▁سف	-1837
▁ڪئين	-1838
▁ذميو	-1839
حال	-1840
▁سنڌي	-1841
▁سار	-1842
▁آباد	-1843
گري	-1844
▁برط	-1845
شق	-1846
▁سگهون	-1847
▁ڪال	-1848
▁خاصيت	-1849
ch	-1850
شنل	-1851
دود	-1852
▁براب	-1853
دت	-1854
افت	-1855
▁فائل	-1856
ad	-1857
▁فرق	-1858
▁منج	-1859
▁پھ	-1860
▁زال	-1861
گه	-1862
وڙ	-1863
ent	-1864
▁آرام	-1865
هيون	-1866
▁رب	-1867
▁وف	-1868
▁اوزار	-1869
▁روشني	-1870
▁مليو	-1871
ou	-1872
ائر	-1873
▁يءَ	-1874
▁واڌ	-1875
▁جلدي	-1876
▁استاد	-1877
▁ڪرڻو	-1878
▁حفاظت	-1879
▁]	-1880
▁پُ	-1881
▁ڪريون	-1882
▁جمهوري	-1883
▁جنھن	-1884
ثيت	-1885
▁تصديق	-1886
▁بيم	-1887
▁شيءِ	-1888
▁وڪرو	-1889
▁چم	-1890
▁علاوه	-1891
اڻو	-1892
ol	-1893
▁ڪارڪر	-1894
نس	-1895
نين	-1896
▁وضاحت	-1897
▁علائقي	-1898
لع	-1899
افٽ	-1900
▁معام	-1901
▁هزار	-1902
▁ڪارڪردگي	-1903
▁مهم	-1904
▁گري	-1905
▁ڪلڪ	-1906
▁).	-1907
▁ڪراچي	-1908
▁سرڪاري	-1909
▁هفتي	-1910
▁رسائي	-1911
▁جيڪڏھن	-1912
▁ونڊ	-1913
▁عب	-1914
يوٽر	-1915
سٽري	-1916
دايت	-1917
▁=	-1918
▁حيثيت	-1919
▁؟"	-1920
▁پهريان	-1921
▁تنهنڪري	-1922
شر	-1923
▁نور	-1924
▁ٺهيل	-1925
▁ڪارڊ	-1926
▁مالي	-1927
پٽ	-1928
قبل	-1929
▁هار	-1930
▁50	-1931
▁گا	-1932
داشت	-1933
▁رستو	-1934
▁شكرا	-1935
مينٽ	-1936
▁U	-1937
▁تجربو	-1938
▁فط	-1939
▁مف	-1940
يه	-1941
▁جر	-1942
▁ملڪي	-1943
▁موسم	-1944
▁جهاز	-1945
▁ندي	-1946
▁ماڊل	-1947
▁پال	-1948
▁ھڪڙي	-1949
▁نشان	-1950
▁پڇيو	-1951
▁سنڀ	-1952
▁جمع	-1953
▁رفتار	-1954
تان	-1955
قات	-1956
▁سل	-1957
لى	-1958
▁$	-1959
▁قتل	-1960
▁غلطي	-1961
ابت	-1962
▁گم	-1963
▁وجود	-1964
▁ادب	-1965
▁انڊ	-1966
▁ٿيندا	-1967
تال	-1968
خر	-1969
وف	-1970
▁ميز	-1971
▁ايندو	-1972
▁ڪمپيوٽر	-1973
▁v	-1974
▁شم	-1975
▁جاءِ	-1976
▁پليٽ	-1977
▁آءِ	-1978
▁تصور	-1979
▁يم	-1980
▁نوڪري	-1981
▁جائ	-1982
▁ميو	-1983
▁مڃ	-1984
▁ليک	-1985
▁ماهر	-1986
▁سائنس	-1987
مائي	-1988
▁مائ	-1989
▁معاه	-1990
▁انٽرنيٽ	-1991
▁هڪڙي	-1992
▁ڏاڍو	-1993
▁پيغام	-1994
▁سيٽ	-1995
▁لاڳو	-1996
ڀر	-1997
▁u	-1998
▁گرفت	-1999
▁مستقبل	-2000
امو	-2001
▁لب	-2002
▁اقت	-2003
▁مجمو	-2004
▁انگريزي	-2005
▁بحث	-2006
مر	-2007
▁امت	-2008
شيا	-2009
▁ڪونهي	-2010
ec	-2011
▁شاعري	-2012
▁اھي	-2013
▁اصول	-2014
ااا	-2015
ليف	-2016
▁۔۔۔	-2017
كل	-2018
▁X	-2019
▁ريت	-2020
▁ڊالر	-2021
▁شاء	-2022
▁ڳالهيون	-2023
شا	-2024
▁ترين	-2025
▁ماني	-2026
▁خواه	-2027
▁دان	-2028
▁گرمي	-2029
▁اگر	-2030
ئل	-2031
مپ	-2032
▁چند	-2033
▁زور	-2034
▁امير	-2035
▁24	-2036
▁ويئي	-2037
ھر	-2038
▁دٻ	-2039
رحال	-2040
▁گرم	-2041
ڪارڊ	-2042
▁افغ	-2043
▁ويون	-2044
▁ايمان	-2045
دري	-2046
يور	-2047
▁انتي	-2048
▁ٻڌي	-2049
▁امام	-2050
▁ٽران	-2051
▁لل	-2052
▁حسين	-2053
▁پيرو	-2054
ائيندي	-2055
▁بخش	-2056
▁ٽرين	-2057
باري	-2058
▁يقيني	-2059
الف	-2060
▁چر	-2061
▁وزن	-2062
▁اسڪرين	-2063
ونا	-2064
▁فري	-2065
▁بڻائي	-2066
▁قط	-2067
گز	-2068
▁دفعو	-2069
▁K	-2070
▁ٿيندڙ	-2071
▁نسل	-2072
▁اڳيان	-2073
▁ڪاميابي	-2074
▁سگهيو	-2075
▁ابت	-2076
▁جوڙ	-2077
▁اللي	-2078
▁قيا	-2079
▁معم	-2080
▁خوف	-2081
▁رهندو	-2082
َر	-2083
اله	-2084
▁موبائل	-2085
▁ٿورو	-2086
▁صفح	-2087
لات	-2088
▁ڪامياب	-2089
▁لکيو	-2090
▁ميڪ	-2091
▁بنا	-2092
▁ڪوڊ	-2093
▁آب	-2094
▁ايترو	-2095
▁ورڪ	-2096
▁پيام	-2097
▁ڪندڙن	-2098
▁شڪل	-2099
▁ماري	-2100
▁سوشل	-2101
قوامي	-2102
▁سڃاڻ	-2103
▁ڊگهي	-2104
ter	-2105
▁ڪُ	-2106
▁سگھو	-2107
▁شڪار	-2108
▁انتظام	-2109
ميل	-2110
▁بورڊ	-2111
▁برابر	-2112
▁قانوني	-2113
ig	-2114
▁اظ	-2115
ليت	-2116
لسل	-2117
▁؟؟؟	-2118
▁نمي	-2119
▁بهرحال	-2120
ot	-2121
▁پيءُ	-2122
▁دين	-2123
▁مخصوص	-2124
▁جيستائين	-2125
جيب	-2126
▁199	-2127
▁ثابت	-2128
ياب	-2129
هندي	-2130
▁چئ	-2131
▁سگهان	-2132
▁الاقوامي	-2133
دد	-2134
▁3.	-2135
▁آڪ	-2136
▁حتى	-2137
اوي	-2138
ٽين	-2139
▁مب	-2140
▁صورتحال	-2141
بلي	-2142
▁هيچ	-2143
▁گروپ	-2144
▁ناڪ	-2145
▁ايڊ	-2146
▁ساڻ	-2147
▁#	-2148
ڙين	-2149
▁زمان	-2150
▁کانسو	-2151
▁صدي	-2152
▁ڪاب	-2153
▁ئ	-2154
انڊ	-2155
▁پوي	-2156
▁انقل	-2157
▁اهڙا	-2158
▁منهنجا	-2159
اڊ	-2160
▁متع	-2161
▁ڳولي	-2162
▁مقابلي	-2163
نٽ	-2164
▁سافٽ	-2165
▁عدالت	-2166
كي	-2167
▁اڌ	-2168
▁گذاري	-2169
ريت	-2170
▁پاب	-2171
▁خاندان	-2172
▁چڪا	-2173
▁افغان	-2174
▁عرب	-2175
▁فلس	-2176
▁فور	-2177
ub	-2178
▁re	-2179
▁ڪڍ	-2180
غيره	-2181
▁رت	-2182
▁ٻو	-2183
▁دوستن	-2184
راني	-2185
▁برق	-2186
▁طبي	-2187
▁هدايت	-2188
▁چونڊيو	-2189
ڇي	-2190
▁وو	-2191
▁زبان	-2192
▁حالتن	-2193
▁سياست	-2194
▁هوس	-2195
▁هڪڙو	-2196
▁عرصي	-2197
ارتي	-2198
▁تنهنجو	-2199
▁V	-2200
▁سور	-2201
▁تخلي	-2202
▁خال	-2203
os	-2204
▁ڌرتي	-2205
▁ايندي	-2206
▁بق	-2207
▁ثق	-2208
وجود	-2209
▁دار	-2210
ايان	-2211
لاق	-2212
▁سمنڊ	-2213
لوي	-2214
▁وفا	-2215
▁نص	-2216
ريز	-2217
لها	-2218
▁زخ	-2219
▁درد	-2220
▁دعا	-2221
ذي	-2222
▁لفظن	-2223
▁نڪري	-2224
now	-2225
▁سول	-2226
▁اضافي	-2227
▁لم	-2228
▁توان	-2229
قع	-2230
▁ايپل	-2231
▁شاگردن	-2232
▁شام	-2233
▁کولڻ	-2234
▁ى	-2235
▁مارڪيٽنگ	-2236
ag	-2237
▁خار	-2238
▁ساڳي	-2239
▁ڳولا	-2240
▁تعلي	-2241
▁زماني	-2242
▁ملاقات	-2243
▁نوٽ	-2244
▁ڳالھ	-2245
ائيندا	-2246
▁مَ	-2247
▁حساب	-2248
▁+	-2249
▁حياتي	-2250
پا	-2251
وووو	-2252
▁سوچيو	-2253
▁فيس	-2254
ائيٽ	-2255
▁جڳهه	-2256
▁^	-2257
ختي	-2258
▁نٿي	-2259
▁باوجود	-2260
چو	-2261
▁ing	-2262
▁آسم	-2263
▁فهر	-2264
▁تفصيل	-2265
بري	-2266
▁ڏاڍي	-2267
▁فهرست	-2268
▁بيماري	-2269
ers	-2270
ٽيو	-2271
▁زم	-2272
اض	-2273
▁ملين	-2274
▁اڏ	-2275
▁باز	-2276
▁ملڻ	-2277
▁ٺيڪ	-2278
زيشن	-2279
▁قد	-2280
▁جهڙوڪ	-2281
▁پنهنجا	-2282
تون	-2283
ڙيل	-2284
▁هفت	-2285
▁مختصر	-2286
▁ويجهو	-2287
رڪ	-2288
▁ڀلي	-2289
▁چوي	-2290
▁بلاگ	-2291
تك	-2292
▁2020	-2293
هايو	-2294
▁بادش	-2295
ئس	-2296
▁انف	-2297
خو	-2298
▁يس	-2299
کيون	-2300
انه	-2301
ماغ	-2302
▁هيا	-2303
▁لائين	-2304
▁ڇوڪري	-2305
سنگ	-2306
ولين	-2307
▁فائدو	-2308
▁منتقل	-2309
▁ڪنداسين	-2310
▁کو	-2311
▁درو	-2312
▁چڪي	-2313
انا	-2314
▁دماغ	-2315
▁مهين	-2316
▁لاڳاپيل	-2317
▁مرا	-2318
▁وڌائڻ	-2319
ائيس	-2320
▁آئين	-2321
▁موسي	-2322
▁ويئر	-2323
▁علائقن	-2324
▁ڪاروباري	-2325
▁شوي	-2326
▁پين	-2327
▁دع	-2328
▁سمجھ	-2329
▁ميدان	-2330
اااااااا	-2331
▁بابا	-2332
ندر	-2333
▁شاعر	-2334
▁چاهيندا	-2335
▁سگھن	-2336
▁کل	-2337
▁2019	-2338
▁راندين	-2339
▁شاندار	-2340
▁نڪر	-2341
يف	-2342
▁مالڪ	-2343
▁ڪلاڪ	-2344
سه	-2345
▁هال	-2346
عات	-2347
▁جڏھن	-2348
▁سنڀال	-2349
سپي	-2350
عظم	-2351
▁عا	-2352
▁ڊرائيو	-2353
▁عز	-2354
▁درست	-2355
▁گذري	-2356
▁رکو	-2357
▁know	-2358
▁اعتم	-2359
▁22	-2360
▁پريشان	-2361
▁پک	-2362
▁انتهائي	-2363
رل	-2364
▁ٻڌائي	-2365
رب	-2366
▁ڌار	-2367
▁تنظيم	-2368
▁جهڙي	-2369
▁ميٽر	-2370
▁مهينن	-2371
▁غور	-2372
لينڊ	-2373
▁راز	-2374
▁رستي	-2375
▁کانسواءِ	-2376
▁بدر	-2377
▁اٽ	-2378
▁ليڪ	-2379
▁ننڊ	-2380
▁چيزي	-2381
▁وڏا	-2382
▁ويڪ	-2383
▁حبي	-2384
▁بيشڪ	-2385
▁اکيون	-2386
ارٽ	-2387
▁جئين	-2388
▁سڀئي	-2389
▁يك	-2390
▁روڊ	-2391
▁پوئ	-2392
▁لکيل	-2393
▁وغيره	-2394
هيه	-2395
▁ڏو	-2396
جون	-2397
▁آپريشن	-2398
▁سامهون	-2399
▁توانائي	-2400
▁هئڻ	-2401
▁پيڪ	-2402
▁ننڍي	-2403
▁آمد	-2404
▁سري	-2405
اما	-2406
▁بجلي	-2407
طا	-2408
▁تجز	-2409
▁21	-2410
▁اهميت	-2411
▁اسپتال	-2412
▁40	-2413
▁قا	-2414
▁اشت	-2415
▁منظر	-2416
th	-2417
▁غريب	-2418
▁مقامي	-2419
▁الف	-2420
▁صور	-2421
▁چڱي	-2422
حاظ	-2423
ھنجو	-2424
▁مگر	-2425
▁وڃو	-2426
▁بغير	-2427
▁قبل	-2428
▁الن	-2429
▁بون	-2430
▁ڪيائين	-2431
ئا	-2432
لت	-2433
▁الز	-2434
▁ٽرانس	-2435
▁ڏيندا	-2436
▁کر	-2437
▁دلچسپ	-2438
▁رڪارڊ	-2439
▁موقعو	-2440
▁تقريبن	-2441
▁بئن	-2442
▁سوچي	-2443
▁اعليٰ	-2444
▁।	-2445
ـــــ	-2446
▁پائي	-2447
انگ	-2448
▁منٽ	-2449
▁حيرت	-2450
▁نتيجي	-2451
▁وَ	-2452
▁آڻڻ	-2453
يز	-2454
نڊن	-2455
ڪٽر	-2456
▁واپار	-2457
▁دلچسپي	-2458
▁صارفين	-2459
▁آل	-2460
▁فرم	-2461
▁اڃان	-2462
ve	-2463
شو	-2464
▁بندي	-2465
▁ٺاهيو	-2466
▁آرٽيڪل	-2467
▁كان	-2468
▁2018	-2469
▁سميت	-2470
▁برقرار	-2471
▁بھ	-2472
چه	-2473
انيه	-2474
▁يوم	-2475
▁آساني	-2476
▁ايڇ	-2477
▁پوئتي	-2478
▁بيو	-2479
▁ليه	-2480
▁قديم	-2481
▁بڻائڻ	-2482
▁قس	-2483
وم	-2484
▁وص	-2485
▁سمجهيو	-2486
▁ڳالهائڻ	-2487
▁پڙهن	-2488
▁آس	-2489
▁فٽ	-2490
▁مغ	-2491
▁هُن	-2492
▁ايتري	-2493
▁ڌي	-2494
▁مسلسل	-2495
▁(2	-2496
▁4.	-2497
▁دوا	-2498
▁لحاظ	-2499
▁مصنو	-2500
▁قرض	-2501
▁يال	-2502
▁محدود	-2503
▁مسافر	-2504
▁چيائين	-2505
▁جام	-2506
▁مسئلن	-2507
عام	-2508
▁آڻ	-2509
▁يک	-2510
▁قرار	-2511
▁امن	-2512
▁,,	-2513
▁گن	-2514
▁الص	-2515
▁انه	-2516
▁هيءُ	-2517
▁عاد	-2518
▁مات	-2519
▁قسمن	-2520
▁ڏينھن	-2521
▁اث	-2522
▁ڊپ	-2523
▁اعتماد	-2524
▁چاهيان	-2525
يس	-2526
ul	-2527
ڄي	-2528
بال	-2529
▁بص	-2530
▁شايع	-2531
▁گهڻا	-2532
▁شوق	-2533
جد	-2534
▁ڏکڻ	-2535
▁وائرس	-2536
▁نيا	-2537
▁علام	-2538
▁نيوز	-2539
ڙڻ	-2540
▁J	-2541
▁الڳ	-2542
▁ڪيترا	-2543
▁زن	-2544
ڙپ	-2545
▁ايا	-2546
text	-2547
ٽائي	-2548
▁عالم	-2549
▁اجلاس	-2550
im	-2551
روف	-2552
▁تحفظ	-2553
▁ڪنھن	-2554
ٺل	-2555
▁نہ	-2556
▁نظري	-2557
▁ارس	-2558
▁عيس	-2559
▁ڪڍي	-2560
ess	-2561
▁عوامي	-2562
لك	-2563
▁سَ	-2564
▁فوج	-2565
▁کار	-2566
▁انسٽال	-2567
ِن	-2568
▁واس	-2569
▁آفري	-2570
وند	-2571
▁صد	-2572
▁بيڪ	-2573
▁خالي	-2574
▁سواء	-2575
▁ٽيسٽ	-2576
▁قدرتي	-2577
▁com	-2578
▁مشت	-2579
▁ڳا	-2580
▁متح	-2581
▁واٽ	-2582
اڻن	-2583
▁تحت	-2584
▁هز	-2585
▁اچو	-2586
▁سائ	-2587
▁هجن	-2588
▁ذات	-2589
▁دعو	-2590
▁امان	-2591
▁ادارن	-2592
▁ايراني	-2593
ادر	-2594
▁اڇ	-2595
▁عشق	-2596
▁آخرڪار	-2597
حن	-2598
دائي	-2599
▁And	-2600
▁ڪندس	-2601
▁اسم	-2602
▁ـــــ	-2603
▁لائسن	-2604
▁اچن	-2605
▁موڪ	-2606
▁ڳولڻ	-2607
▁مقدار	-2608
ٿر	-2609
عودي	-2610
▁هوا	-2611
▁ناز	-2612
شتي	-2613
▁لڪ	-2614
▁مزاح	-2615
▁ويس	-2616
pp	-2617
▁جز	-2618
▁اظهار	-2619
▁حڪمت	-2620
▁طريق	-2621
▁پوندي	-2622
▁تصويرون	-2623
▁ورتي	-2624
▁رابطو	-2625
ab	-2626
▁فعال	-2627
▁ساڳيو	-2628
يندي	-2629
▁مڙس	-2630
▁براي	-2631
▁سماج	-2632
▁شهري	-2633
▁عجيب	-2634
▁قرآن	-2635
كه	-2636
▁ادي	-2637
▁انص	-2638
▁جنسي	-2639
▁ڪسٽم	-2640
▁مذهبي	-2641
▁گول	-2642
▁گڏو	-2643
▁2017	-2644
▁بئنڪ	-2645
▁~	-2646
يراعظم	-2647
▁جسماني	-2648
ڊيٽ	-2649
▁سٽ	-2650
▁سڌو	-2651
▁ڪلو	-2652
▁معياري	-2653
ارش	-2654
▁زو	-2655
▁اتر	-2656
▁بدل	-2657
▁شرط	-2658
▁ڊائ	-2659
▁شاگرد	-2660
▁مهيني	-2661
ir	-2662
▁مظ	-2663
▁ارا	-2664
roid	-2665
▁ارب	-2666
▁انقلاب	-2667
▁۱	-2668
▁سڏيو	-2669
▁ھر	-2670
▁مئي	-2671
▁ڏان	-2672
ڏانهن	-2673
▁ڪرائي	-2674
▁ساڳئي	-2675
طه	-2676
▁ماڻھو	-2677
▁گھرجي	-2678
▁امتحان	-2679
ثي	-2680
بير	-2681
بادي	-2682
جيٽل	-2683
▁گڏجي	-2684
▁شخصيت	-2685
▁چيڪ	-2686
▁ويڊيو	-2687
▁ايئن	-2688
▁ايجن	-2689
▁خامو	-2690
▁فرانس	-2691
▁مخالف	-2692
▁جاچ	-2693
▁ڊجيٽل	-2694
▁وزيراعظم	-2695
▁حصن	-2696
▁چنڊ	-2697
▁لائسنس	-2698
▁ڊوائيس	-2699
▁ساز	-2700
▁مارچ	-2701
▁ٽائي	-2702
▁پويان	-2703
▁ڪيترو	-2704
▁Android	-2705
▁نگر	-2706
▁پول	-2707
▁سلسلي	-2708
▁منظور	-2709
▁پراڻي	-2710
▁پروسي	-2711
▁مجموعي	-2712
▁ڪيم	-2713
▁مافي	-2714
▁مسلمان	-2715
▁وات	-2716
▁احتجا	-2717
▁اوچ	-2718
▁رائ	-2719
▁آڪٽو	-2720
▁منزل	-2721
▁پالي	-2722
▁اسٽيشن	-2723
پس	-2724
▁ڪَ	-2725
▁فڪر	-2726
رز	-2727
▁گيت	-2728
▁لباس	-2729
▁منظم	-2730
▁منھنجي	-2731
▁وانا	-2732
▁کائڻ	-2733
▁ڏيندي	-2734
فه	-2735
▁ليکڪ	-2736
▁رين	-2737
▁نيڪ	-2738
كس	-2739
مڻ	-2740
▁ائي	-2741
▁طيب	-2742
▁ڪورٽ	-2743
ايون	-2744
▁اڪيلو	-2745
ظر	-2746
▁عه	-2747
▁جرم	-2748
▁شعر	-2749
▁نمائ	-2750
▁آڪٽوبر	-2751
▁y	-2752
▁ٻڌڻ	-2753
▁الو	-2754
▁جنم	-2755
▁خيلي	-2756
▁ملاز	-2757
▁ٿوري	-2758
▁معمولي	-2759
▁راه	-2760
▁روم	-2761
▁اسٽور	-2762
▁تاريخي	-2763
▁اشارو	-2764
ڻن	-2765
▁شهي	-2766
▁مور	-2767
ئه	-2768
▁معنيٰ	-2769
▁دستياب	-2770
▁مطابقت	-2771
▁والدين	-2772
▁حلوه	-2773
▁ايندا	-2774
▁مسئلي	-2775
▁ذميواري	-2776
▁فيه	-2777
▁پرين	-2778
▁ڪمري	-2779
▁بدران	-2780
▁طريقا	-2781
بيت	-2782
▁بلڪ	-2783
▁ممكن	-2784
▁هندستان	-2785
▁روشن	-2786
▁مرڪز	-2787
▁ٽيون	-2788
امه	-2789
▁ڊيو	-2790
▁موٽي	-2791
▁ڪالي	-2792
▁دستاوي	-2793
▁بلو	-2794
▁کليل	-2795
▁يورپي	-2796
▁اسپين	-2797
▁تجزيو	-2798
▁سينٽر	-2799
▁گهربل	-2800
▁مشڪل	-2801
▁گرفتار	-2802
▁سيڙپ	-2803
▁هوٽل	-2804
▁داخ	-2805
▁بم	-2806
ڙيون	-2807
▁خور	-2808
▁غلام	-2809
▁ڪتابن	-2810
راف	-2811
▁سيريز	-2812
▁an	-2813
▁مشك	-2814
▁سهولت	-2815
▁ھئي	-2816
▁اضاف	-2817
▁تعريف	-2818
▁گراهڪ	-2819
um	-2820
ind	-2821
▁سد	-2822
▁عذ	-2823
▁هيٺيان	-2824
اءَ	-2825
▁ڀري	-2826
▁ڪابه	-2827
▁سگهندا	-2828
پشن	-2829
▁اسيم	-2830
▁سيپٽ	-2831
▁26	-2832
تح	-2833
اڙي	-2834
ياد	-2835
▁سيپٽمبر	-2836
▁23	-2837
▁نماز	-2838
▁ڻ	-2839
کيه	-2840
▁برو	-2841
▁روس	-2842
▁سڄو	-2843
▁پلا	-2844
▁فوري	-2845
▁خواهش	-2846
▁موسيقي	-2847
▁ڪمپنين	-2848
pt	-2849
▁سڌ	-2850
▁سڪ	-2851
▁بيت	-2852
▁كله	-2853
▁ہ	-2854
▁۔	-2855
▁بود	-2856
▁رسي	-2857
▁فوت	-2858
▁هُو	-2859
▁طريقن	-2860
ٻي	-2861
▁?	-2862
شمن	-2863
▁ندا	-2864
▁ٽين	-2865
▁فطرت	-2866
▁فوجي	-2867
ميم	-2868
▁باغ	-2869
▁سزا	-2870
▁پئسا	-2871
▁حج	-2872
▁ٽا	-2873
▁198	-2874
▁ڳالهين	-2875
گيري	-2876
▁دورو	-2877
▁فوٽو	-2878
▁چيني	-2879
▁ٻُ	-2880
▁مدا	-2881
▁شاهه	-2882
▁واپسي	-2883
▁مئ	-2884
▁طلب	-2885
▁مره	-2886
▁چيز	-2887
▁ھون	-2888
▁اتفا	-2889
▁قومن	-2890
▁the	-2891
▁اڳي	-2892
▁جائزو	-2893
▁مدي	-2894
▁تنھن	-2895
ut	-2896
▁قص	-2897
▁شما	-2898
▁لنڪ	-2899
▁هيڪ	-2900
▁بونس	-2901
▁خلاص	-2902
▁جيترو	-2903
▁ڊزائن	-2904
▁ڪرائڻ	-2905
▁اسر	-2906
▁تيل	-2907
▁ليش	-2908
▁راح	-2909
▁خل	-2910
▁رن	-2911
▁اذا	-2912
او	-2913
ڪش	-2914
▁عنصر	-2915
▁آسمان	-2916
ارڊ	-2917
▁2-	-2918
يندڙ	-2919
ستاني	-2920
جان	-2921
▁آبادي	-2922
▁مشتمل	-2923
ليه	-2924
▁ڇپ	-2925
▁عليها	-2926
▁اسيمبلي	-2927
نيئر	-2928
▁سير	-2929
▁سست	-2930
▁فقير	-2931
▁محنت	-2932
▁ترجمو	-2933
▁نوان	-2934
▁آئ	-2935
▁زر	-2936
▁طال	-2937
▁اخبار	-2938
▁2016	-2939
▁جنرل	-2940
▁ساري	-2941
▁ڏيئي	-2942
▁انجنيئر	-2943
▁ضحك	-2944
▁موٽر	-2945
▁چوندا	-2946
▁دائ	-2947
▁ڀيٽ	-2948
oc	-2949
طف	-2950
گن	-2951
▁چان	-2952
حڪ	-2953
▁197	-2954
▁مٽي	-2955
▁ڀيرا	-2956
▁اينڊر	-2957
▁رکندڙ	-2958
▁بحال	-2959
▁انعام	-2960
▁ڪميون	-2961
ٿا	-2962
لاد	-2963
▁عزي	-2964
▁واقع	-2965
▁هينئر	-2966
▁سفارش	-2967
ائب	-2968
▁پَ	-2969
▁تعا	-2970
▁مذهب	-2971
▁ادائي	-2972
▁زير	-2973
▁آگسٽ	-2974
انڪ	-2975
▁بک	-2976
▁رض	-2977
▁عزت	-2978
▁مثل	-2979
▁ڪانه	-2980
▁اضافو	-2981
▁پهچائڻ	-2982
▁اتح	-2983
▁وڏن	-2984
▁ادبي	-2985
▁ــــــ	-2986
ra	-2987
▁تجو	-2988
▁نين	-2989
▁برطان	-2990
ct	-2991
▁لسٽ	-2992
▁Ne	-2993
▁وب	-2994
▁al	-2995
▁جنس	-2996
▁گزار	-2997
الن	-2998
▁فض	-2999
▁گلي	-3000
▁سدائين	-3001
ia	-3002
▁آرڊر	-3003
▁دشمن	-3004
▁قسمت	-3005
▁رهندا	-3006
▁سمجهڻ	-3007
▁ونڊوز	-3008
▁جيئ	-3009
▁خاط	-3010
▁ڀريل	-3011
▁حرف	-3012
▁ساٿ	-3013
▁اداري	-3014
▁پروفي	-3015
▁ڪيتريون	-3016
قول	-3017
▁60	-3018
راهي	-3019
▁چور	-3020
▁تحريڪ	-3021
▁رهندي	-3022
▁سڃاڻپ	-3023
ثير	-3024
▁ڪاليج	-3025
▁آسٽ	-3026
▁فصل	-3027
▁کڻڻ	-3028
▁سياحت	-3029
عل	-3030
ڊا	-3031
▁سِ	-3032
▁گهري	-3033
ونه	-3034
▁28	-3035
▁ويل	-3036
▁چڱو	-3037
▁ٻڌو	-3038
▁دڪان	-3039
▁سيني	-3040
▁رابطي	-3041
آمد	-3042
▁th	-3043
▁روڪ	-3044
▁عجب	-3045
▁صفحا	-3046
▁حيران	-3047
▁سعودي	-3048
▁5.	-3049
▁پٿر	-3050
▁ساٿي	-3051
▁نيست	-3052
جڪ	-3053
▁بغ	-3054
▁وسيع	-3055
▁برانڊ	-3056
▁الج	-3057
▁جيل	-3058
▁رواي	-3059
▁هوائي	-3060
).	-3061
▁پرڏي	-3062
ائيندڙ	-3063
▁صنع	-3064
ريم	-3065
▁سگھجي	-3066
▁موقعي	-3067
نى	-3068
گير	-3069
▁شب	-3070
▁نع	-3071
▁سوچڻ	-3072
▁انڪار	-3073
▁مسئلا	-3074
ry	-3075
▁ناڪام	-3076
st	-3077
▁ريل	-3078
▁پيٽ	-3079
▁پابندي	-3080
▁شيئر	-3081
▁ڪلاس	-3082
▁حمايت	-3083
▁موڪليو	-3084
حه	-3085
بئي	-3086
ليٽ	-3087
▁احتجاج	-3088
▁جبل	-3089
▁سموري	-3090
▁ڏانھن	-3091
▁ڊيزائن	-3092
▁هع	-3093
فيد	-3094
▁قيم	-3095
▁انصاف	-3096
▁نومبر	-3097
گا	-3098
يورٽي	-3099
▁مکيه	-3100
▁ويهي	-3101
▁امڪان	-3102
سمبر	-3103
▁ضاب	-3104
▁هست	-3105
▁هليو	-3106
▁سرگرمي	-3107
▁افغانستان	-3108
▁آهنگ	-3109
▁ميان	-3110
▁فائلون	-3111
▁ء	-3112
▁قال	-3113
ack	-3114
چار	-3115
▁ڪوئي	-3116
▁ٻڌل	-3117
ation	-3118
▁ماضي	-3119
▁گھڻو	-3120
▁مصنوعات	-3121
اڻڻ	-3122
▁27	-3123
▁حاد	-3124
▁قلب	-3125
▁پکي	-3126
▁مردن	-3127
▁رهيون	-3128
ver	-3129
▁دم	-3130
▁المو	-3131
▁ترڪي	-3132
ڻا	-3133
▁ندو	-3134
▁2021	-3135
ــــــ	-3136
▁جنوري	-3137
▁وح	-3138
▁گاڏي	-3139
ly	-3140
▁لنڊن	-3141
▁ڪائن	-3142
▁ادائيگي	-3143
▁غر	-3144
▁هئس	-3145
▁هٿن	-3146
▁@	-3147
▁رُ	-3148
▁هوء	-3149
▁اقول	-3150
▁زخمي	-3151
▁ناهن	-3152
▁آھ	-3153
صوصي	-3154
▁سنڏ	-3155
▁سوي	-3156
▁لڳا	-3157
▁راءِ	-3158
▁خصوصي	-3159
▁هيٺين	-3160
▁ـــــــــ	-3161
▁انك	-3162
▁درجي	-3163
▁ملائي	-3164
▁ملڪيت	-3165
ڙڪ	-3166
▁اٺ	-3167
▁آدم	-3168
▁شده	-3169
▁ٻيون	-3170
▁الزام	-3171
كك	-3172
▁كه	-3173
▁جاء	-3174
▁نفر	-3175
▁اقتص	-3176
▁گهو	-3177
فرنس	-3178
▁احمد	-3179
▁اپڊيٽ	-3180
▁عورتون	-3181
▁موٽ	-3182
▁دهشت	-3183
▁ڪانهي	-3184
▁ڪميشن	-3185
▁سمجهان	-3186
▁عنو	-3187
▁تازو	-3188
▁فا	-3189
▁اهل	-3190
▁روپ	-3191
▁هندو	-3192
▁ـــــــ	-3193
▁اينڊرائيڊ	-3194
▁at	-3195
▁؟!	-3196
▁شف	-3197
▁آڻي	-3198
▁خات	-3199
▁فرض	-3200
▁تعالي	-3201
▁حاض	-3202
▁كيف	-3203
▁تقريبا	-3204
کر	-3205
▁مسي	-3206
▁رکن	-3207
پان	-3208
▁خلي	-3209
▁جهان	-3210
▁رانديگر	-3211
فڪ	-3212
▁ليگ	-3213
▁يمكن	-3214
▁ڪائون	-3215
▁ڪرايو	-3216
▁ليس	-3217
▁مقابلو	-3218
▁قول	-3219
▁متن	-3220
▁پراڊ	-3221
▁ڳالهائي	-3222
▁عقي	-3223
▁ناول	-3224
▁انجام	-3225
▁واقعا	-3226
▁نواز	-3227
▁رجسٽر	-3228
ايه	-3229
▁الخ	-3230
▁الحال	-3231
▁ڏنا	-3232
▁پراڊڪٽ	-3233
and	-3234
▁اوڀر	-3235
▁کائي	-3236
▁سمجهه	-3237
▁متباد	-3238
ينه	-3239
▁اگ	-3240
▁حب	-3241
▁آيل	-3242
▁سائيز	-3243
▁عمارت	-3244
▁هونديون	-3245
▁ٻاه	-3246
▁ميمبرن	-3247
▁ابي	-3248
▁وفات	-3249
گڏ	-3250
▁er	-3251
هيهي	-3252
▁مني	-3253
▁ويٺو	-3254
▁وفاقي	-3255
▁ڊسمبر	-3256
ڪيل	-3257
▁فه	-3258
▁انو	-3259
▁سيل	-3260
پيڊيا	-3261
▁شهرن	-3262
▁تجويز	-3263
▁1-	-3264
▁گُ	-3265
▁مها	-3266
▁ڏکيو	-3267
▁ھاڻي	-3268
▁نتيجو	-3269
▁پٺيان	-3270
▁گڏوگڏ	-3271
ٻئي	-3272
▁باهه	-3273
▁وزار	-3274
حب	-3275
ٽيف	-3276
▁ڪھ	-3277
▁رسول	-3278
▁واقف	-3279
▁يورو	-3280
▁پيروي	-3281
رج	-3282
يڪشن	-3283
▁ماپ	-3284
ak	-3285
پوري	-3286
▁عندي	-3287
▁نالا	-3288
▁متبادل	-3289
▁وٺو	-3290
▁خطرن	-3291
▁گزارش	-3292
▁نصي	-3293
▁اُهي	-3294
▁مريض	-3295
▁ضرورتن	-3296
▁منصوبي	-3297
ينا	-3298
▁ضم	-3299
▁تبص	-3300
▁سبق	-3301
▁شرڪت	-3302
▁تعاون	-3303
hi	-3304
بول	-3305
▁چپ	-3306
▁اصلا	-3307
▁مبار	-3308
▁واريون	-3309
▁ڳالهايو	-3310
▁وڙ	-3311
▁2015	-3312
▁نشاني	-3313
em	-3314
▁ڪنڊ	-3315
▁ڏياري	-3316
عة	-3317
▁Y	-3318
▁</	-3319
▁مزو	-3320
▁ناق	-3321
▁هاءِ	-3322
▁پئجي	-3323
▁تسليم	-3324
▁هلائڻ	-3325
لوڊ	-3326
▁اٿم	-3327
▁شهيد	-3328
▁ٽيبل	-3329
▁ڪجھه	-3330
▁تڪليف	-3331
▁شد	-3332
▁ڪورونا	-3333
▁خريداري	-3334
رسي	-3335
▁يڪ	-3336
▁فرد	-3337
▁لاش	-3338
▁شعور	-3339
▁ٿر	-3340
▁<<<	-3341
▁پارڪ	-3342
▁اپريل	-3343
▁ڀلا	-3344
▁عربي	-3345
▁قيمتي	-3346
▁اليڪٽر	-3347
▁ابتدائي	-3348
کان	-3349
▁هائو	-3350
▁سلسلو	-3351
ـــــــــ	-3352
▁بڪ	-3353
ائنٽ	-3354
▁يلا	-3355
▁کلي	-3356
▁ايڊي	-3357
▁عيسي	-3358
▁معاش	-3359
UM	-3360
▁80	-3361
▁أن	-3362
▁آزم	-3363
▁توڙي	-3364
▁ڀاءُ	-3365
▁مينهن	-3366
ڊنگ	-3367
▁تھ	-3368
▁روي	-3369
▁سرا	-3370
▁کاتي	-3371
▁وزارت	-3372
▁طاقتور	-3373
▁دعوي	-3374
▁آھيان	-3375
▁معاملي	-3376
▁194	-3377
▁ماڻهوءَ	-3378
ريءَ	-3379
un	-3380
ازن	-3381
اسي	-3382
▁بچائڻ	-3383
▁پاليسي	-3384
▁رانديون	-3385
سك	-3386
▁سيڙپڪاري	-3387
▁مٽ	-3388
▁کڻ	-3389
▁حسن	-3390
▁ڪيتري	-3391
قد	-3392
▁ماش	-3393
▁اتفاق	-3394
▁جرمني	-3395
▁سگهندو	-3396
▁35	-3397
ايد	-3398
▁ڳڻ	-3399
▁هٿي	-3400
▁ڪوڙ	-3401
▁وجهي	-3402
▁پرڏيهي	-3403
طان	-3404
وره	-3405
تائي	-3406
▁فرو	-3407
▁چوڌ	-3408
▁خدمتن	-3409
▁هزارين	-3410
▁ٽري	-3411
▁ڪمز	-3412
▁روڪي	-3413
▁اڳوڻي	-3414
▁گهرجن	-3415
▁ڪائنات	-3416
est	-3417
اتل	-3418
▁كنت	-3419
▁سرور	-3420
▁خودڪار	-3421
▁اڀ	-3422
▁196	-3423
▁الك	-3424
▁تاب	-3425
▁مڇي	-3426
▁تربيت	-3427
▁تازه	-3428
▁عالي	-3429
▁مثبت	-3430
رافي	-3431
▁وسلم	-3432
▁منصوبو	-3433
▁شروعاتي	-3434
▁هيس	-3435
▁سيڪيورٽي	-3436
سيم	-3437
▁حقن	-3438
▁آمدني	-3439
▁ڪارپوري	-3440
الم	-3441
▁كن	-3442
▁con	-3443
▁ايش	-3444
▁سکڻ	-3445
▁فتح	-3446
▁اطلا	-3447
▁جانور	-3448
▁is	-3449
▁کوٽ	-3450
بروري	-3451
▁ورلڊ	-3452
▁تخليق	-3453
▁عبدال	-3454
▁غم	-3455
▁أنا	-3456
▁جدو	-3457
▁امين	-3458
▁تهيه	-3459
▁ضحكت	-3460
▁چوٿ	-3461
▁امري	-3462
▁تحري	-3463
وڪي	-3464
▁مؤ	-3465
▁ٽيڪس	-3466
▁ڄاڻي	-3467
▁ڪاپي	-3468
▁Z	-3469
ندس	-3470
▁In	-3471
▁اغ	-3472
▁ڇڏڻ	-3473
▁کني	-3474
▁وينديون	-3475
کو	-3476
ڪرين	-3477
▁مله	-3478
▁يقينا	-3479
▁افت	-3480
▁لهي	-3481
▁نظم	-3482
▁شراب	-3483
▁جانورن	-3484
▁ڀڃ	-3485
▁كلام	-3486
▁هلندڙ	-3487
if	-3488
▁گلو	-3489
▁29	-3490
▁رخ	-3491
▁مِ	-3492
خخخخ	-3493
▁خون	-3494
▁خدمتون	-3495
ظي	-3496
سٽڪ	-3497
▁اصط	-3498
▁اند	-3499
▁نكت	-3500
▁وطن	-3501
▁اميدو	-3502
▁ڪِ	-3503
▁لازم	-3504
▁بادشاهه	-3505
UMX	-3506
▁سڌي	-3507
▁هذه	-3508
▁برداشت	-3509
.1	-3510
▁لانچ	-3511
▁دوستي	-3512
ريٽ	-3513
▁منع	-3514
▁دليل	-3515
▁گهڻن	-3516
▁ڳنڍي	-3517
▁اندروني	-3518
▁ٽرانسپورٽ	-3519
فرد	-3520
▁وِ	-3521
راهه	-3522
▁بجي	-3523
▁رئي	-3524
▁تعرف	-3525
▁حيات	-3526
▁گهرو	-3527
▁يونين	-3528
▁چونڊي	-3529
▁ڪانفرنس	-3530
▁۲	-3531
باب	-3532
▁ميڊ	-3533
▁موڪلي	-3534
برد	-3535
▁انس	-3536
ٽرويو	-3537
▁ضمان	-3538
▁وساري	-3539
▁فيبروري	-3540
▁چارج	-3541
▁تجربي	-3542
▁ٻاهرين	-3543
▁انٽرويو	-3544
▁نج	-3545
هندو	-3546
▁اخر	-3547
▁جما	-3548
▁ويڙ	-3549
▁هفته	-3550
▁هڪٻئي	-3551
▁وڪيپيڊيا	-3552
قه	-3553
ٽڪ	-3554
▁سازي	-3555
▁بحالي	-3556
▁فائيل	-3557
▁ماڻھن	-3558
▁منفرد	-3559
▁تعليمي	-3560
▁ضل	-3561
▁آيت	-3562
▁اٿس	-3563
▁فخر	-3564
▁طلاق	-3565
▁پهتو	-3566
ووو	-3567
▁90	-3568
▁جُ	-3569
NUMX	-3570
يڪار	-3571
▁هڻي	-3572
▁پهر	-3573
▁ــــــــــ	-3574
غذ	-3575
چا	-3576
يري	-3577
▁^^	-3578
▁پسندي	-3579
▁گفتگو	-3580
▁اقتصادي	-3581
▁x	-3582
▁پڌ	-3583
▁مائي	-3584
هل	-3585
▁رپ	-3586
▁عج	-3587
▁لأ	-3588
▁نر	-3589
▁ساهه	-3590
▁ٽئين	-3591
▁دهشتگر	-3592
▁روحاني	-3593
▁نمائند	-3594
▁خاصيتون	-3595
سب	-3596
يوم	-3597
▁اصطلاح	-3598
▁انڊسٽري	-3599
▁جهن	-3600
▁لنگ	-3601
▁چيه	-3602
ce	-3603
جهه	-3604
▁زنده	-3605
▁ايشيا	-3606
▁يت	-3607
▁سپر	-3608
▁مجب	-3609
▁کپي	-3610
▁پاور	-3611
▁چيست	-3612
▁ضمانت	-3613
▁معاملو	-3614
od	-3615
َن	-3616
سته	-3617
قلي	-3618
▁ed	-3619
▁مك	-3620
ٺيون	-3621
ڙائي	-3622
ڙيءَ	-3623
▁آءُ	-3624
▁مصر	-3625
▁صفحي	-3626
▁يافته	-3627
ليا	-3628
▁آي	-3629
▁پيچي	-3630
▁اولاد	-3631
▁سائيڪل	-3632
▁چاهيون	-3633
عيت	-3634
تيون	-3635
▁روايتي	-3636
سري	-3637
يره	-3638
هاري	-3639
▁سمجه	-3640
▁ثقافت	-3641
▁ڪاررو	-3642
▁ڪارڪن	-3643
▁متعارف	-3644
▁برطانيه	-3645
بة	-3646
▁70	-3647
▁محبو	-3648
▁اليڪشن	-3649
▁برس	-3650
▁منح	-3651
▁وڌو	-3652
▁گذر	-3653
▁انتخ	-3654
▁پريس	-3655
▁کاڌي	-3656
▁خيالن	-3657
▁اندازو	-3658
سس	-3659
▁ناس	-3660
▁دعوت	-3661
▁معاهدي	-3662
▁ترا	-3663
▁شاه	-3664
▁بلوچ	-3665
▁مرڪزي	-3666
-1	-3667
ائپ	-3668
يييي	-3669
▁وير	-3670
▁پيئڻ	-3671
▁پوزيشن	-3672
اصر	-3673
▁بدلي	-3674
▁مرمت	-3675
▁پهچڻ	-3676
▁اڳيون	-3677
▁جوڙجڪ	-3678
▁نتيجا	-3679
▁وڌائي	-3680
▁تار	-3681
▁لطف	-3682
▁روڪڻ	-3683
▁سادي	-3684
▁يونٽ	-3685
▁پيئي	-3686
▁ابراهي	-3687
کن	-3688
▁ــــــــــــــ	-3689
li	-3690
شد	-3691
امن	-3692
ديت	-3693
▁بہ	-3694
هندا	-3695
▁عقل	-3696
▁مجبور	-3697
زح	-3698
ليو	-3699
مممم	-3700
▁نبي	-3701
▁هنا	-3702
▁اهڙن	-3703
▁عنوان	-3704
▁انتظامي	-3705
▁ڀڳ	-3706
▁نقل	-3707
▁رھيو	-3708
▁ڏيان	-3709
▁انفرا	-3710
▁وڃائي	-3711
▁ـــــــــــ	-3712
one	-3713
▁جد	-3714
▁هت	-3715
▁احد	-3716
ريڪٽر	-3717
▁امداد	-3718
▁ريلوي	-3719
▁پاڻيءَ	-3720
ائس	-3721
اڻا	-3722
▁مرت	-3723
▁کاڌو	-3724
شيد	-3725
▁حمل	-3726
▁قبر	-3727
▁واع	-3728
▁چيم	-3729
▁حلوة	-3730
▁زبرد	-3731
▁گهرن	-3732
▁CO	-3733
▁اور	-3734
▁بندو	-3735
▁نفرت	-3736
▁ڏسندا	-3737
▁سائيٽن	-3738
▁گھڻي	-3739
▁ذريعو	-3740
▁واپاري	-3741
▁لع	-3742
▁شڪر	-3743
▁طول	-3744
▁ڪپڙا	-3745
▁نمائش	-3746
▁پڙهندڙ	-3747
▁="	-3748
▁رز	-3749
▁هٽ	-3750
▁تڪر	-3751
▁نار	-3752
▁درجه	-3753
▁يقول	-3754
▁مبارڪ	-3755
▁چڪ	-3756
▁کيڏ	-3757
▁روسي	-3758
▁عشان	-3759
▁واقعن	-3760
ib	-3761
▁آھيو	-3762
▁جادو	-3763
▁وقتي	-3764
▁برقي	-3765
▁ڀارت	-3766
▁مزاحمت	-3767
زڪ	-3768
▁le	-3769
▁برن	-3770
▁مقص	-3771
▁چئن	-3772
▁وڃان	-3773
▁سرڪار	-3774
▁سگھون	-3775
▁انتخاب	-3776
ثن	-3777
▁>>>	-3778
▁هارڊ	-3779
▁&	-3780
اڪو	-3781
▁رول	-3782
▁پتو	-3783
▁پروف	-3784
▁افسوس	-3785
▁سونهن	-3786
▁ءِ	-3787
▁رم	-3788
▁ڊز	-3789
▁مهل	-3790
▁توقع	-3791
▁مٿين	-3792
▁والد	-3793
▁اٿي	-3794
▁موڊ	-3795
ابل	-3796
گيز	-3797
▁سيک	-3798
▁فيڪ	-3799
▁ڪئم	-3800
▁راضي	-3801
▁نمون	-3802
▁ڪهڙا	-3803
▁بيٽري	-3804
▁ابراهيم	-3805
▁ڏٺ	-3806
▁نون	-3807
▁وڌڻ	-3808
▁بڻايو	-3809
▁نگراني	-3810
وب	-3811
اڻين	-3812
▁طرز	-3813
▁چرچ	-3814
▁آسٽريل	-3815
▁ذميوار	-3816
▁انٽرنيشنل	-3817
ink	-3818
▁ڌو	-3819
▁(1)	-3820
▁پنڌ	-3821
▁ڊيل	-3822
▁کولي	-3823
▁مصروف	-3824
▁معاشي	-3825
▁ڏيندڙ	-3826
اھر	-3827
▁۔۔۔۔	-3828
▁اوھين	-3829
نگي	-3830
▁دستاويز	-3831
ائشي	-3832
▁اكيد	-3833
▁نڪتو	-3834
▁اوچتو	-3835
گين	-3836
▁پچ	-3837
▁رهو	-3838
▁پٽي	-3839
▁انھي	-3840
▁عزيز	-3841
▁نيشنل	-3842
▁ڪائونسل	-3843
یک	-3844
عمل	-3845
گاه	-3846
▁3-	-3847
▁آغ	-3848
▁داد	-3849
▁وهي	-3850
▁ٿور	-3851
▁2014	-3852
▁تعجب	-3853
▁مقصدن	-3854
▁کوليو	-3855
افظ	-3856
▁چُ	-3857
▁پڇي	-3858
▁ڏها	-3859
▁رکيل	-3860
▁فائر	-3861
دل	-3862
▁مذ	-3863
▁ٻيٽ	-3864
▁انجڻ	-3865
▁دوري	-3866
▁اسٽيٽ	-3867
▁عليكم	-3868
▁روزاني	-3869
فق	-3870
▁45	-3871
انسي	-3872
▁چيف	-3873
▁2013	-3874
▁آفريڪا	-3875
▁پروفيسر	-3876
qu	-3877
▁تُ	-3878
▁شور	-3879
▁شعبي	-3880
▁منٽن	-3881
▁پلاسٽڪ	-3882
io	-3883
وال	-3884
▁ارت	-3885
▁اڻي	-3886
▁هيك	-3887
▁چرا	-3888
▁سکيا	-3889
▁لائق	-3890
▁سرگرمين	-3891
▁آسٽريليا	-3892
فن	-3893
▁ڙي	-3894
اهري	-3895
▁تاج	-3896
▁جذب	-3897
▁آندو	-3898
▁ااااا	-3899
▁ارسال	-3900
ate	-3901
▁بش	-3902
▁500	-3903
▁تلا	-3904
▁پنجن	-3905
▁ٺاهيندڙ	-3906
ID	-3907
▁متو	-3908
▁ڪوٽ	-3909
▁اسپي	-3910
▁داري	-3911
▁مسجد	-3912
▁آهستي	-3913
▁بررسي	-3914
زش	-3915
▁وڪ	-3916
▁بٽڻ	-3917
▁درا	-3918
▁ٽڪر	-3919
▁ڊبل	-3920
▁گنا	-3921
▁بيٺو	-3922
▁پاسو	-3923
▁سپورٽ	-3924
igh	-3925
بوت	-3926
▁بلند	-3927
▁ذهني	-3928
▁ڪيان	-3929
▁انڊيا	-3930
تاب	-3931
عده	-3932
▁سرب	-3933
▁هيل	-3934
▁اُهو	-3935
▁حملو	-3936
▁سادو	-3937
▁شيءَ	-3938
▁ڪاوڙ	-3939
▁سيد	-3940
▁نيٺ	-3941
▁پالڻ	-3942
▁ميچ	-3943
▁دفعي	-3944
▁اتحاد	-3945
▁خاموش	-3946
▁خبرون	-3947
▁رکندو	-3948
▁ميوزڪ	-3949
2.	-3950
ear	-3951
اوت	-3952
▁مھ	-3953
اسان	-3954
اڻيو	-3955
▁فين	-3956
▁مدت	-3957
▁ندڙ	-3958
▁پيپ	-3959
▁آفيسر	-3960
▁ڀرسان	-3961
▁نرم	-3962
▁ووٽ	-3963
▁ترجي	-3964
▁Q	-3965
▁تل	-3966
▁سؤ	-3967
▁عرا	-3968
▁جميل	-3969
ین	-3970
ولو	-3971
▁31	-3972
▁لطي	-3973
▁لوڪ	-3974
▁هلا	-3975
▁تنقي	-3976
▁خاطر	-3977
▁عندك	-3978
▁چڙهي	-3979
▁صنعتي	-3980
▁چوندو	-3981
خن	-3982
▁اياز	-3983
▁اٿئي	-3984
▁خطرو	-3985
▁درواز	-3986
▁تجارتي	-3987
▁or	-3988
▁رسم	-3989
▁ٺاھ	-3990
▁ڪرن	-3991
▁مرضي	-3992
▁ڪرين	-3993
▁آڇ	-3994
▁195	-3995
▁هلڻ	-3996
▁ڀرو	-3997
▁ڳنڍ	-3998
▁ماهي	-3999
▁مايو	-4000
▁منحصر	-4001
▁وٺندو	-4002
▁منظوري	-4003
ڇا	-4004
ڊٽ	-4005
all	-4006
▁إن	-4007
▁سوم	-4008
▁ملو	-4009
▁بيهي	-4010
▁رکون	-4011
▁ڳنڍيل	-4012
ap	-4013
اره	-4014
▁ظلم	-4015
▁ادار	-4016
▁فورم	-4017
▁اڳواڻ	-4018
▁تعارف	-4019
▁داخلا	-4020
ti	-4021
ثار	-4022
▁جرمن	-4023
▁علمي	-4024
▁وائي	-4025
▁ملندي	-4026
يول	-4027
▁شيخ	-4028
▁باقا	-4029
▁اداڪار	-4030
ستر	-4031
▁en	-4032
ائجي	-4033
▁احتر	-4034
▁موثر	-4035
▁هفتن	-4036
▁رجحان	-4037
▁معامل	-4038
هيو	-4039
▁ذي	-4040
▁شن	-4041
▁حاضر	-4042
▁عذاب	-4043
▁مقام	-4044
▁وڊيوز	-4045
▁روزانو	-4046
▁مطالبو	-4047
og	-4048
ڊو	-4049
▁جار	-4050
▁لينڊ	-4051
▁خارجي	-4052
▁ڪميٽي	-4053
▁چوڌاري	-4054
▁موجودگي	-4055
ain	-4056
ڙهو	-4057
▁نھ	-4058
الله	-4059
▁الق	-4060
▁طئي	-4061
▁لال	-4062
▁سنجي	-4063
▁فيشن	-4064
▁فنڪشن	-4065
▁فٽبال	-4066
▁فرانسي	-4067
ڇو	-4068
▁وڪيل	-4069
▁پيرن	-4070
▁وڌندڙ	-4071
▁ڪلاڪن	-4072
▁مائڪرو	-4073
▁معاملن	-4074
▁ملازمن	-4075
▁36	-4076
باتي	-4077
▁ٻول	-4078
▁مسيح	-4079
▁ڇڏيا	-4080
▁انگيز	-4081
▁سرٽيف	-4082
▁معيشت	-4083
▁ڪمزور	-4084
▁انسانن	-4085
▁ڊائريڪٽر	-4086
پنگ	-4087
▁قوت	-4088
ينڊ	-4089
▁مآ	-4090
▁قيد	-4091
▁اسٽيل	-4092
▁چاهين	-4093
اق	-4094
▁حرڪت	-4095
▁زمرو	-4096
▁سالي	-4097
▁هندي	-4098
▁پلان	-4099
▁ذريعن	-4100
▁ٻوليءَ	-4101
▁خش	-4102
▁يح	-4103
▁ڪاغذ	-4104
▁ارادو	-4105
▁ايئرپورٽ	-4106
یس	-4107
▁ورا	-4108
▁ڪلام	-4109
▁شهرين	-4110
▁علائقو	-4111
▁ناقابل	-4112
▁ڪارروائي	-4113
ook	-4114
عيد	-4115
▁وم	-4116
ويئر	-4117
▁قلم	-4118
▁وحد	-4119
ريٽري	-4120
▁شريف	-4121
▁سوالن	-4122
▁منصوبن	-4123
▁of	-4124
▁دؤ	-4125
▁مک	-4126
▁ڌن	-4127
بادت	-4128
▁باڪ	-4129
▁ڊيٽ	-4130
▁ميني	-4131
▁اصلاح	-4132
▁هلائي	-4133
▁ڀرپور	-4134
▁بعض	-4135
▁مرڻ	-4136
▁پرت	-4137
▁سڀاڻي	-4138
▁خطرناڪ	-4139
▁الموضوع	-4140
▁ڊائونلوڊ	-4141
روز	-4142
▁بنگ	-4143
▁راس	-4144
▁اُتي	-4145
▁سڃاتو	-4146
▁فائدا	-4147
▁ٻولين	-4148
ريس	-4149
▁ھا	-4150
▁عرض	-4151
▁ميون	-4152
▁ڄاڻڻ	-4153
▁عبادت	-4154
▁اسٽوري	-4155
پل	-4156
خلت	-4157
▁بيمار	-4158
▁رساله	-4159
ريح	-4160
▁ماڳ	-4161
▁تقريب	-4162
▁متحرڪ	-4163
OS	-4164
▁اکر	-4165
▁ثقاف	-4166
▁نيوي	-4167
▁زبردست	-4168
▁فى	-4169
▁آلو	-4170
▁يکي	-4171
▁بندر	-4172
▁آھيون	-4173
▁رکندي	-4174
▁ڪئميرا	-4175
▁سيڪريٽري	-4176
▁ڪٽ	-4177
▁لكن	-4178
▁ھئا	-4179
▁بلڪه	-4180
▁ويٺي	-4181
▁خوراڪ	-4182
▁اسرائيل	-4183
▁مسلمانن	-4184
▁بلي	-4185
▁پيل	-4186
▁مراد	-4187
▁هستي	-4188
▁مثالي	-4189
▁ياداشت	-4190
▁بدن	-4191
▁فيصل	-4192
▁نهايت	-4193
▁ڪناري	-4194
▁پد	-4195
▁الش	-4196
▁بزر	-4197
▁طوف	-4198
▁ماء	-4199
▁تشدد	-4200
▁کنيو	-4201
ڌا	-4202
▁(3	-4203
▁سئو	-4204
▁چمڪ	-4205
▁پائڻ	-4206
▁پروڊ	-4207
▁فيصلي	-4208
▁هائوس	-4209
ore	-4210
▁ڪس	-4211
▁حاج	-4212
▁شنا	-4213
▁ڊول	-4214
▁دفعا	-4215
▁هتان	-4216
▁پيرا	-4217
▁قابليت	-4218
ورة	-4219
▁ٽڪ	-4220
▁پٺ	-4221
▁عيد	-4222
▁ڀيڻ	-4223
▁کير	-4224
▁روايت	-4225
▁ااااااااا	-4226
op	-4227
▁وت	-4228
▁خطري	-4229
▁ڊيسڪ	-4230
▁تنھنجي	-4231
پاني	-4232
▁آڏو	-4233
▁قدرت	-4234
▁وڌايو	-4235
▁منتقلي	-4236
▁هئاسين	-4237
az	-4238
يرن	-4239
▁رھيا	-4240
▁ساڻس	-4241
▁سپري	-4242
▁نڪرڻ	-4243
▁ڊگهو	-4244
وس	-4245
ارڪ	-4246
علي	-4247
▁ڪٿ	-4248
تمند	-4249
▁قبضو	-4250
▁وصول	-4251
▁بچائي	-4252
▁ماهرن	-4253
▁مرحله	-4254
▁نظارو	-4255
▁دريافت	-4256
▁پوائنٽ	-4257
▁انسانيت	-4258
▁حصيداري	-4259
▁ڪمپنيون	-4260
▁and	-4261
▁جشن	-4262
▁ڊزائين	-4263
▁·	-4264
▁ar	-4265
▁ند	-4266
▁آآآ	-4267
▁ايج	-4268
▁بازي	-4269
▁مادي	-4270
▁اعتبار	-4271
ڱي	-4272
▁زهر	-4273
▁نوجوانن	-4274
▁ڇڪ	-4275
▁ڏند	-4276
▁رئيس	-4277
▁بازار	-4278
ame	-4279
شاني	-4280
▁راي	-4281
ائونڊ	-4282
▁اينڊ	-4283
▁يكون	-4284
▁پاڪستاني	-4285
▁طل	-4286
▁لڳل	-4287
▁ڪمن	-4288
▁گرد	-4289
▁لطيف	-4290
▁چمڙي	-4291
oin	-4292
ood	-4293
يابي	-4294
▁ڪارن	-4295
▁اطلاع	-4296
▁ملازم	-4297
▁ٽائيم	-4298
▁معاشري	-4299
))	-4300
ود	-4301
▁بري	-4302
▁بچڻ	-4303
▁ناھي	-4304
▁نسبت	-4305
▁تحليل	-4306
▁تقرير	-4307
▁رياضي	-4308
ـــــــ	-4309
▁تت	-4310
▁چڙ	-4311
▁جمي	-4312
▁ٽيو	-4313
▁سهڻي	-4314
▁معصو	-4315
▁چيئر	-4316
▁ڪيئي	-4317
▁ريڊيو	-4318
▁فارسي	-4319
▁ڊومين	-4320
▁حوص	-4321
▁دلي	-4322
▁رھي	-4323
▁قلت	-4324
▁اٽڪل	-4325
▁ڪرڻي	-4326
▁ورهين	-4327
▁سرهندي	-4328
ڙيو	-4329
▁بگ	-4330
▁خصوص	-4331
▁دولت	-4332
▁مريم	-4333
▁تباهه	-4334
فل	-4335
▁sp	-4336
▁فك	-4337
▁هذي	-4338
▁اليوم	-4339
▁تياري	-4340
▁فارمي	-4341
▁پرواز	-4342
ـــــــــــ	-4343
▁٪	-4344
▁بط	-4345
ئيشن	-4346
▁ريم	-4347
▁ڄڻا	-4348
▁شكله	-4349
▁مناف	-4350
▁ملندو	-4351
▁پارليا	-4352
ڏا	-4353
▁حدي	-4354
▁لات	-4355
▁پوک	-4356
▁پاڙي	-4357
▁آخرين	-4358
▁اختلا	-4359
▁فائدي	-4360
▁محبوب	-4361
▁يوٽيو	-4362
▁شاعريءَ	-4363
▁**	-4364
▁32	-4365
▁Aw	-4366
▁ڊڄ	-4367
▁سختي	-4368
▁نتيجن	-4369
▁j	-4370
▁St	-4371
▁حصا	-4372
▁فني	-4373
▁ڊسپ	-4374
▁اخلا	-4375
▁ٻڌائڻ	-4376
▁بيل	-4377
▁فعل	-4378
▁معك	-4379
▁شريڪ	-4380
▁ڪارخ	-4381
▁برسات	-4382
▁لڳندو	-4383
▁ننڍڙي	-4384
▁ڪنديون	-4385
ارم	-4386
ذير	-4387
▁كر	-4388
▁تري	-4389
▁جاڳ	-4390
▁فيلڊ	-4391
▁ليڪن	-4392
▁گيري	-4393
▁اسٽاڪ	-4394
▁سياري	-4395
▁ڏسندي	-4396
▁ٿينديون	-4397
▁منك	-4398
▁کنڊ	-4399
▁ڪيف	-4400
▁حبيب	-4401
▁پيامبر	-4402
▁فرانسيسي	-4403
ڊن	-4404
▁رش	-4405
,000	-4406
▁پبل	-4407
▁بلاڪ	-4408
▁جوڙي	-4409
▁ننڍو	-4410
▁پڙهو	-4411
▁گولي	-4412
▁توسان	-4413
▁صفائي	-4414
▁لڳائڻ	-4415
ne	-4416
سون	-4417
▁--	-4418
▁بُ	-4419
▁تنگ	-4420
▁فيك	-4421
▁مزي	-4422
▁ڪنڌ	-4423
▁صفحو	-4424
▁معاف	-4425
▁پنھنجو	-4426
ھار	-4427
▁ٺهر	-4428
▁ڪلب	-4429
▁ثبوت	-4430
▁تقسيم	-4431
iv	-4432
▁ڀت	-4433
▁شير	-4434
▁كتي	-4435
▁معت	-4436
▁ورزن	-4437
▁ٽريڪ	-4438
▁حالتون	-4439
▁ڇڏيندو	-4440
عرف	-4441
قسم	-4442
▁جب	-4443
▁لغ	-4444
ونڊي	-4445
▁سلي	-4446
▁پنا	-4447
▁تصويرن	-4448
هري	-4449
▁پگ	-4450
▁کٽ	-4451
▁امر	-4452
▁انش	-4453
▁سرچ	-4454
▁اپيل	-4455
▁اثرائ	-4456
▁واقعو	-4457
▁پيماني	-4458
▁نمائندگي	-4459
دة	-4460
پڻ	-4461
روم	-4462
▁تازي	-4463
▁ٺاهيل	-4464
▁مددگار	-4465
دير	-4466
راض	-4467
▁صلي	-4468
▁فلو	-4469
▁شرطن	-4470
▁خواهي	-4471
جل	-4472
صف	-4473
▁😂	-4474
ورڪ	-4475
▁بچي	-4476
▁مستقل	-4477
▁يوٽيوب	-4478
ros	-4479
سوسي	-4480
▁بنت	-4481
▁عملن	-4482
▁احترام	-4483
▁ch	-4484
▁لح	-4485
ٽيءَ	-4486
▁ملن	-4487
▁وره	-4488
▁غائب	-4489
▁مارجي	-4490
▁خاصيتن	-4491
▁گهٽتائي	-4492
صب	-4493
جنن	-4494
كتب	-4495
▁6.	-4496
▁sub	-4497
▁مضحك	-4498
▁نقطي	-4499
سٽريشن	-4500
▁سپريم	-4501
▁پريشاني	-4502
▁پسنديده	-4503
▁رانديگرن	-4504
▁ag	-4505
ثريت	-4506
▁الت	-4507
▁برف	-4508
▁فاص	-4509
▁مشق	-4510
قسمتي	-4511
▁حملي	-4512
▁تڪرار	-4513
ft	-4514
جع	-4515
▁ڀو	-4516
▁الب	-4517
▁هئو	-4518
▁ڪئن	-4519
▁پرست	-4520
▁ڪورس	-4521
▁ترجيح	-4522
▁انھيءَ	-4523
▁ڪهاڻيون	-4524
▁جوا	-4525
▁لئه	-4526
▁مند	-4527
▁عليك	-4528
▁ويٺا	-4529
▁اثرات	-4530
▁الناس	-4531
نه	-4532
▁يب	-4533
▁پان	-4534
▁صفحه	-4535
▁واسطو	-4536
▁يالله	-4537
▁ڇڏيندا	-4538
▁پنهنجون	-4539
▁هڻ	-4540
▁همه	-4541
▁بالغ	-4542
▁تضحك	-4543
▁ظاهري	-4544
ist	-4545
سيل	-4546
ٽيل	-4547
▁افز	-4548
▁هاء	-4549
▁چڪر	-4550
▁عادي	-4551
▁هيٺان	-4552
▁پڙهيو	-4553
▁آپريٽنگ	-4554
ژه	-4555
ھا	-4556
اده	-4557
▁ڌم	-4558
▁خطي	-4559
▁ڀريو	-4560
▁سگھوٿا	-4561
1.	-4562
يج	-4563
▁قوي	-4564
▁گير	-4565
▁مليا	-4566
▁مهان	-4567
▁معاهدو	-4568
ھڻ	-4569
▁اتان	-4570
▁حالا	-4571
▁مفيد	-4572
▁متعلق	-4573
▁پهچائي	-4574
▁سامونڊي	-4575
3.	-4576
VID	-4577
حڪم	-4578
ٽرن	-4579
ارات	-4580
مارٽ	-4581
▁كده	-4582
▁وقف	-4583
▁پرس	-4584
▁پلس	-4585
▁اسمارٽ	-4586
▁مطالعو	-4587
حة	-4588
اسٽ	-4589
سيت	-4590
▁تد	-4591
▁سك	-4592
▁لق	-4593
▁(2)	-4594
▁پيد	-4595
▁رهجي	-4596
▁لاهي	-4597
▁چوري	-4598
▁گورن	-4599
▁تنقيد	-4600
▁ثقافتي	-4601
▁برطانيا	-4602
شنگ	-4603
▁دُ	-4604
▁ٽرئ	-4605
▁ڪچه	-4606
▁گنج	-4607
▁2010	-4608
▁اعرف	-4609
▁خارج	-4610
▁عاشق	-4611
▁مهينا	-4612
▁اخلاقي	-4613
cl	-4614
▁{	-4615
▁هِ	-4616
ight	-4617
ڊيشن	-4618
▁مزد	-4619
▁آپشن	-4620
▁توجي	-4621
▁راهه	-4622
▁ڪارڻ	-4623
▁المهم	-4624
▁تفصيلي	-4625
▁انگريزن	-4626
ive	-4627
▁2:	-4628
▁انٽ	-4629
▁فول	-4630
▁پيج	-4631
▁سينٽ	-4632
▁چوان	-4633
▁چڪاس	-4634
▁گهڙي	-4635
▁سائنسي	-4636
▁مستحڪم	-4637
▁اسٽوريج	-4638
hat	-4639
ڪين	-4640
▁1:	-4641
▁ارو	-4642
▁بيا	-4643
▁ويچ	-4644
▁چاھ	-4645
▁اسڪو	-4646
▁ماهه	-4647
▁ندار	-4648
▁ڏوهه	-4649
▁کاٻي	-4650
▁پابند	-4651
▁مطالعي	-4652
▁نيٽورڪ	-4653
orm	-4654
ڙها	-4655
▁احم	-4656
▁سوئ	-4657
▁سيم	-4658
▁شھر	-4659
▁ڏهن	-4660
▁تيزي	-4661
▁طرفن	-4662
▁قيام	-4663
▁پيپلز	-4664
▁سرمائي	-4665
همي	-4666
▁احب	-4667
▁دؤر	-4668
▁شرم	-4669
▁پمپ	-4670
▁2012	-4671
▁حضور	-4672
▁گرين	-4673
▁سلامت	-4674
▁علامت	-4675
▁هلندو	-4676
نل	-4677
ect	-4678
زين	-4679
▁شل	-4680
▁سوا	-4681
▁صبر	-4682
▁پيچ	-4683
▁دانش	-4684
▁پيون	-4685
▁لڳائي	-4686
▁هلندي	-4687
▁اڳواڻن	-4688
▁رڪ	-4689
▁وع	-4690
▁ھل	-4691
▁نان	-4692
▁2011	-4693
▁حيدر	-4694
▁خاني	-4695
▁كلهم	-4696
▁ننڍڙو	-4697
▁پياري	-4698
ربي	-4699
▁اما	-4700
▁شنو	-4701
▁ڪلي	-4702
▁گون	-4703
▁ميشه	-4704
▁هاري	-4705
▁اڪثريت	-4706
▁پروڊڪٽ	-4707
▁ڌرتيءَ	-4708
▁ڊرائيور	-4709
▁رع	-4710
▁ڦر	-4711
▁گهرج	-4712
▁تبصرو	-4713
چن	-4714
day	-4715
ity	-4716
شمي	-4717
متي	-4718
▁جت	-4719
▁ِي	-4720
ميشن	-4721
▁كذا	-4722
▁اندو	-4723
▁روان	-4724
▁موڪلڻ	-4725
▁اشتهار	-4726
▁ڏيکاريو	-4727
ie	-4728
طل	-4729
اڪن	-4730
تري	-4731
جين	-4732
▁باس	-4733
▁لكم	-4734
▁واچ	-4735
▁راڻي	-4736
▁مسٽر	-4737
▁COVID	-4738
▁ٽرمين	-4739
▁ڪريڊٽ	-4740
طر	-4741
فٽ	-4742
ٿو	-4743
▁ااا	-4744
▁جاي	-4745
▁ھتي	-4746
▁ماسڪ	-4747
▁يسلم	-4748
▁ڌاري	-4749
▁ٽرئفڪ	-4750
▁ايوارڊ	-4751
ته	-4752
▁de	-4753
▁عرف	-4754
▁والو	-4755
▁طوفان	-4756
▁هٿيار	-4757
▁پروسيسنگ	-4758
▁اعز	-4759
▁ساح	-4760
▁محل	-4761
▁ٿڌي	-4762
▁اوندا	-4763
▁سمارٽ	-4764
▁حڪمران	-4765
▁يل	-4766
جيڪٽ	-4767
ڪارن	-4768
▁يهم	-4769
▁ڪتي	-4770
▁خالص	-4771
▁خودم	-4772
▁بحران	-4773
▁روانو	-4774
▁چونڊن	-4775
▁ٻاهران	-4776
ill	-4777
ثاني	-4778
▁193	-4779
▁فاط	-4780
▁نصب	-4781
▁نسخو	-4782
▁چينل	-4783
▁تعليق	-4784
▁جمهوريت	-4785
▁موبائيل	-4786
؟؟	-4787
ine	-4788
زيد	-4789
لوب	-4790
▁حذ	-4791
▁وآ	-4792
▁ڪڪ	-4793
▁تخليقي	-4794
▁پيغمبر	-4795
کا	-4796
حيد	-4797
▁جج	-4798
▁بقى	-4799
▁دفا	-4800
▁هان	-4801
▁پاي	-4802
▁انها	-4803
▁تنظي	-4804
▁وڏين	-4805
▁اسٽار	-4806
▁برادري	-4807
▁مسافرن	-4808
▁انگلينڊ	-4809
ادن	-4810
▁لآ	-4811
▁ير	-4812
▁الر	-4813
▁رڪا	-4814
▁هِن	-4815
▁معنى	-4816
▁سگهيا	-4817
▁هونئن	-4818
20	-4819
ياس	-4820
▁پيء	-4821
▁ڊسڪ	-4822
▁ڊوڙ	-4823
▁ڪول	-4824
▁جانچ	-4825
▁منسو	-4826
▁ڀيري	-4827
▁سيڪشن	-4828
▁اهڙيءَ	-4829
▁روزگار	-4830
ik	-4831
خب	-4832
مئن	-4833
▁سهي	-4834
▁ٻان	-4835
▁سستي	-4836
▁ڪيسن	-4837
▁شڪايت	-4838
▁توجيهي	-4839
▁پڙهائي	-4840
▁ماس	-4841
▁اسٽو	-4842
▁روئي	-4843
▁بدقسمتي	-4844
ies	-4845
▁4-	-4846
▁ٿڪ	-4847
▁مشغ	-4848
▁هيڊ	-4849
▁ڪاٺ	-4850
▁2008	-4851
▁اُها	-4852
▁شمار	-4853
▁صدار	-4854
▁هُئي	-4855
▁سيٽنگ	-4856
▁لڳايو	-4857
▁گذارڻ	-4858
قى	-4859
ٽيس	-4860
▁سکر	-4861
▁لما	-4862
▁بيٺل	-4863
▁كمان	-4864
▁ميلي	-4865
▁ڪيمي	-4866
▁اعتراض	-4867
▁وراڻيو	-4868
ويد	-4869
گهه	-4870
▁0.	-4871
▁it	-4872
ابيس	-4873
ڪلهه	-4874
▁جست	-4875
▁سرم	-4876
▁شري	-4877
▁كثير	-4878
▁اوهين	-4879
▁بنائڻ	-4880
▁فارميٽ	-4881
▁on	-4882
▁ڦا	-4883
▁سچي	-4884
▁ڪريم	-4885
▁ايڪسڪس	-4886
▁چيئرمين	-4887
▁ڪميونٽي	-4888
="0	-4889
الت	-4890
▁عض	-4891
▁ربي	-4892
▁قاع	-4893
▁آڊيو	-4894
▁تڪڙو	-4895
زه	-4896
▁آپ	-4897
▁يد	-4898
▁ھٿ	-4899
بتني	-4900
▁اھا	-4901
▁راڄ	-4902
▁سنو	-4903
▁مصي	-4904
▁ڪنگ	-4905
▁البن	-4906
▁شكلك	-4907
▁حوالو	-4908
▁ڇوڪرو	-4909
▁جوابدار	-4910
▁ڊيٽابيس	-4911
▁ڪيميائي	-4912
جهد	-4913
▁رَ	-4914
▁ڌڪ	-4915
▁فلٽر	-4916
▁تحرير	-4917
▁جذباتي	-4918
▁ويڪسين	-4919
▁ڪارپوريشن	-4920
iz	-4921
ubl	-4922
چين	-4923
▁Re	-4924
▁کم	-4925
▁pro	-4926
▁اوس	-4927
▁ديگر	-4928
▁نالن	-4929
▁ڊسپلي	-4930
يع	-4931
▁سلو	-4932
▁شاخ	-4933
▁صدا	-4934
▁ووو	-4935
▁ڀائ	-4936
▁احلى	-4937
▁جهڙا	-4938
▁رنگن	-4939
▁برائو	-4940
▁رهندڙ	-4941
▁سهڪار	-4942
▁صحتمند	-4943
▁99	-4944
▁اگه	-4945
▁مرض	-4946
▁ڏٺي	-4947
▁ادري	-4948
▁ڌيءَ	-4949
▁ڪٿان	-4950
نداسين	-4951
▁وارين	-4952
▁وڏيون	-4953
▁پيارا	-4954
ثو	-4955
ااي	-4956
▁جَ	-4957
▁هَ	-4958
▁بهار	-4959
▁ديگه	-4960
▁اهڙيون	-4961
▁;	-4962
ant	-4963
▁گيا	-4964
▁گڏج	-4965
▁شڪست	-4966
▁ضلعي	-4967
▁مليل	-4968
▁بچايو	-4969
▁نوٽيس	-4970
▁چونڊڻ	-4971
▁ڪارڪنن	-4972
▁سس	-4973
▁نِ	-4974
▁سنه	-4975
ائيءَ	-4976
▁جتان	-4977
▁دبئي	-4978
▁مداخلت	-4979
▁گنجائش	-4980
▁ماحولياتي	-4981
جھ	-4982
▁اخي	-4983
▁سٽي	-4984
▁مذا	-4985
▁ثاني	-4986
▁نامم	-4987
▁گوشت	-4988
▁جدوجهد	-4989
ll	-4990
طع	-4991
▁ّ	-4992
هيز	-4993
▁ex	-4994
▁بزن	-4995
▁نيب	-4996
▁واه	-4997
▁پڇڻ	-4998
▁آغاز	-4999
▁احوال	-5000
▁ويندس	-5001
▁رٿ	-5002
▁فنڊ	-5003
گرافي	-5004
▁ليزر	-5005
▁جيتري	-5006
▁طبيعت	-5007
▁ماسٽر	-5008
سف	-5009
قق	-5010
ُن	-5011
▁Ch	-5012
▁بب	-5013
▁كت	-5014
▁پِ	-5015
▁بور	-5016
▁فضي	-5017
▁کسي	-5018
▁فلسفي	-5019
▁ڊيوائس	-5020
اهو	-5021
▁رلي	-5022
▁قبي	-5023
▁بجيٽ	-5024
▁صوبي	-5025
▁منھن	-5026
▁ميلا	-5027
▁صلاحيتن	-5028
▁رجسٽريشن	-5029
▁عق	-5030
▁غري	-5031
▁ٽرم	-5032
▁کيڏڻ	-5033
▁ڪپڙن	-5034
▁خوشبو	-5035
▁منھنجو	-5036
▁گلن	-5037
▁اکرن	-5038
▁زياد	-5039
▁كتير	-5040
▁مطمئن	-5041
ايع	-5042
▁اِن	-5043
▁بدي	-5044
▁عار	-5045
▁منفي	-5046
▁ڌاتو	-5047
▁سيڪنڊ	-5048
▁سگهندي	-5049
▁ـــــــــــــ	-5050
زز	-5051
ُو	-5052
urn	-5053
▁(4	-5054
▁خز	-5055
▁نب	-5056
▁اثا	-5057
▁ٻُڌ	-5058
▁ھيٺ	-5059
▁تقول	-5060
▁خوبي	-5061
▁فلسط	-5062
▁همين	-5063
▁پورٽ	-5064
▁ڇڏين	-5065
▁اندوز	-5066
▁حرارت	-5067
▁دعويٰ	-5068
▁مهمان	-5069
▁گهٽائڻ	-5070
▁ملائيشيا	-5071
▁33	-5072
راحه	-5073
▁ٽنگ	-5074
▁انگن	-5075
▁جامع	-5076
▁پذير	-5077
▁ڪوٺي	-5078
▁ناممڪن	-5079
▁اختيارن	-5080
▁:)	-5081
▁وڄ	-5082
▁ٽيگ	-5083
▁پرچ	-5084
▁ڌڻي	-5085
▁اِهو	-5086
▁سروي	-5087
▁احسان	-5088
▁يقينن	-5089
▁پيچيده	-5090
-19	-5091
ome	-5092
▁صلى	-5093
▁لاڪ	-5094
▁مشا	-5095
▁ھجي	-5096
▁سورا	-5097
▁واهه	-5098
▁يضحك	-5099
▁پيڪيج	-5100
▁چانهه	-5101
▁ايسوسي	-5102
▁فراهمي	-5103
بط	-5104
ace	-5105
▁أي	-5106
▁ڙو	-5107
▁حديث	-5108
▁صدين	-5109
▁فيها	-5110
▁هنڌن	-5111
▁ation	-5112
▁رومان	-5113
▁روڪيو	-5114
▁پورهي	-5115
▁چوٿين	-5116
▁ڪلومي	-5117
▁نمايان	-5118
▁نفسياتي	-5119
لح	-5120
rypt	-5121
لينج	-5122
▁دوم	-5123
▁رحم	-5124
▁عين	-5125
▁قدمن	-5126
▁ڄاڻو	-5127
▁ڪيري	-5128
▁رکندا	-5129
▁پيدائش	-5130
▁نت	-5131
▁بقا	-5132
▁مدر	-5133
▁البت	-5134
▁ايڏو	-5135
▁باڪس	-5136
▁عراق	-5137
▁ميڪس	-5138
▁گريڊ	-5139
▁جماعت	-5140
▁منعقد	-5141
▁ٻانهن	-5142
▁ڀارتي	-5143
▁ڪسٽمر	-5144
▁برنامه	-5145
▁ڊاڪٽرن	-5146
▁طريقيڪار	-5147
▁ۈ	-5148
ونگ	-5149
▁افي	-5150
▁تير	-5151
▁حاڪ	-5152
▁رام	-5153
▁اعظم	-5154
▁تعال	-5155
▁جاني	-5156
▁فرين	-5157
▁متان	-5158
▁احتيا	-5159
▁اولين	-5160
▁توکان	-5161
▁مشغول	-5162
▁تعلقات	-5163
▁ميڊيڪل	-5164
اهم	-5165
عين	-5166
▁Am	-5167
▁as	-5168
▁جنت	-5169
▁ادارو	-5170
▁ترميم	-5171
▁ڪرڪيٽ	-5172
▁ڪانگري	-5173
قة	-5174
قر	-5175
▁بني	-5176
▁حقو	-5177
▁سڄڻ	-5178
▁لله	-5179
▁هيه	-5180
▁پرن	-5181
▁اكثر	-5182
▁مظاه	-5183
▁اُنهن	-5184
▁وسيلي	-5185
▁ٻارڙن	-5186
▁اختلاف	-5187
▁ڪيائون	-5188
▁بك	-5189
آباد	-5190
▁ماه	-5191
▁مسك	-5192
▁موس	-5193
▁ٽاپ	-5194
▁پورا	-5195
▁خاموشي	-5196
حر	-5197
▁2)	-5198
▁ٻج	-5199
▁ٻر	-5200
▁امڪ	-5201
▁عطا	-5202
▁پاپ	-5203
▁تلاش	-5204
▁پيڪنگ	-5205
▁فرمايو	-5206
ff	-5207
يٽ	-5208
راج	-5209
▁sh	-5210
رائي	-5211
▁فات	-5212
▁لاگ	-5213
▁منو	-5214
▁وصل	-5215
▁ڏهه	-5216
▁تسلم	-5217
▁گهمڻ	-5218
▁رهائش	-5219
▁ويجهي	-5220
▁وچولي	-5221
▁پوئين	-5222
مود	-5223
▁چن	-5224
▁جيون	-5225
▁عهدي	-5226
▁چئبو	-5227
▁تنھنڪري	-5228
▁رهنمائي	-5229
نن	-5230
ard	-5231
تاح	-5232
شار	-5233
ڪرن	-5234
▁لچ	-5235
▁ڪڻ	-5236
▁صفا	-5237
▁ورج	-5238
▁شاهي	-5239
▁ننڍن	-5240
▁سنئون	-5241
▁سوراخ	-5242
▁وٺندي	-5243
▁واڌاري	-5244
▁ڪاريگر	-5245
▁برطانوي	-5246
افر	-5247
سمس	-5248
حڪام	-5249
▁سچو	-5250
▁ڀلو	-5251
▁اردو	-5252
▁فريم	-5253
▁پينل	-5254
▁چهري	-5255
▁بجاءِ	-5256
▁سردار	-5257
▁مرحلي	-5258
▁پنجاب	-5259
▁استحڪام	-5260
NT	-5261
حش	-5262
حو	-5263
▁ً	-5264
ort	-5265
▁34	-5266
▁ab	-5267
▁كي	-5268
▁ديس	-5269
▁سوس	-5270
▁ڪتو	-5271
▁فطري	-5272
▁قلبي	-5273
▁مشاه	-5274
▁الائي	-5275
▁ايجنٽ	-5276
▁اڪيلي	-5277
▁وسيلن	-5278
▁اقتدار	-5279
▁پارٽين	-5280
آإ	-5281
حص	-5282
غي	-5283
▁48	-5284
▁[1	-5285
inks	-5286
▁اجل	-5287
▁دوز	-5288
▁ڪشم	-5289
▁سولو	-5290
▁بھترين	-5291
▁داستان	-5292
▁ڏيکارڻ	-5293
▁انفرادي	-5294
wit	-5295
ذيب	-5296
ٽيڊ	-5297
▁95	-5298
▁يخ	-5299
▁ٿل	-5300
▁ايڪ	-5301
▁فوٽ	-5302
▁مارڻ	-5303
▁محتر	-5304
▁تجربن	-5305
▁جاپان	-5306
▁مشورو	-5307
▁انگريز	-5308
▁پارليامينٽ	-5309
ru	-5310
▁75	-5311
▁گيم	-5312
▁ٻيڙي	-5313
▁ڪيبل	-5314
▁پهچايو	-5315
▁آزاديءَ	-5316
▁سمجهاڻي	-5317
ڏن	-5318
▁رشت	-5319
▁ريڊ	-5320
▁لام	-5321
▁مدل	-5322
▁سيلز	-5323
▁هيلو	-5324
▁يعطي	-5325
▁ادارا	-5326
▁واعدو	-5327
▁پروجيڪٽ	-5328
▁ڪانگريس	-5329
ren	-5330
طلع	-5331
▁حا	-5332
▁حُ	-5333
▁پت	-5334
▁خشڪ	-5335
▁عبد	-5336
▁معذ	-5337
▁سيشن	-5338
▁خانگي	-5339
▁مرحلن	-5340
▁دروازو	-5341
▁عيسائي	-5342
▁فيڪٽري	-5343
▁منجهان	-5344
▁باقاعده	-5345
ell	-5346
▁عث	-5347
ادري	-5348
▁ائن	-5349
▁جوش	-5350
▁ذخي	-5351
indhi	-5352
▁طبعا	-5353
▁ويٺل	-5354
▁XNUMX	-5355
▁خاتمي	-5356
▁سروسز	-5357
▁لاهور	-5358
▁استادن	-5359
▁رياستن	-5360
▁پالڻھار	-5361
فع	-5362
لڪ	-5363
▁7.	-5364
▁8.	-5365
▁ايٽ	-5366
▁دون	-5367
▁غذا	-5368
▁ڀان	-5369
▁سگنل	-5370
▁ماڻي	-5371
▁قيامت	-5372
▁ننڍپڻ	-5373
▁تنظيمن	-5374
▁ڪنيڪشن	-5375
ov	-5376
سٽس	-5377
▁بز	-5378
▁ٻا	-5379
هاها	-5380
▁اخو	-5381
▁شكل	-5382
▁ماٺ	-5383
▁امزح	-5384
▁طبقي	-5385
▁قطار	-5386
▁اسٽيج	-5387
▁اصولن	-5388
▁انتها	-5389
▁افزائي	-5390
aw	-5391
هڪ	-5392
▁((	-5393
▁ڀل	-5394
▁ريگ	-5395
▁شدت	-5396
▁المل	-5397
▁جهنگ	-5398
▁روزي	-5399
▁ساله	-5400
▁رڪاوٽ	-5401
▁خوشيءَ	-5402
▁يادگار	-5403
اڊا	-5404
بست	-5405
ناڪ	-5406
▁آفت	-5407
▁بشر	-5408
▁لها	-5409
▁نڪي	-5410
▁ايون	-5411
▁لکين	-5412
▁وڪري	-5413
▁today	-5414
▁سالگر	-5415
▁معتبر	-5416
▁اسڪولن	-5417
▁خانداني	-5418
▁سرٽيفڪيٽ	-5419
تيءَ	-5420
▁سني	-5421
▁ٿڌو	-5422
▁Next	-5423
▁آئوٽ	-5424
▁غربت	-5425
▁اخلاق	-5426
▁افيئر	-5427
▁حادثي	-5428
▁مصيبت	-5429
▁پيشڪش	-5430
▁ايپليڪيشنن	-5431
ran	-5432
صير	-5433
ياء	-5434
▁5-	-5435
▁ad	-5436
▁أخ	-5437
▁پڄ	-5438
▁خلق	-5439
▁سلط	-5440
▁ناچ	-5441
▁چئو	-5442
▁گاڏ	-5443
▁گهي	-5444
▁نامي	-5445
▁ٽيلي	-5446
▁ڪامي	-5447
▁ميزبان	-5448
حالي	-5449
▁آيس	-5450
▁ايد	-5451
▁منه	-5452
▁مٺي	-5453
▁ٿيس	-5454
▁پهلو	-5455
▁بيوقو	-5456
▁معافي	-5457
▁ڳالهائيندي	-5458
نده	-5459
▁خا	-5460
رادو	-5461
▁300	-5462
▁Pre	-5463
▁شئي	-5464
▁ڇهه	-5465
▁سارو	-5466
▁شعبن	-5467
▁ڏسان	-5468
▁مغربي	-5469
▁ڀروسو	-5470
▁ڪينسر	-5471
ٽون	-5472
▁سع	-5473
سنڌي	-5474
▁خام	-5475
▁درج	-5476
▁وڳي	-5477
▁پاؤ	-5478
▁چيٽ	-5479
▁رشتي	-5480
▁عيسى	-5481
▁نصيب	-5482
▁ورها	-5483
▁پنھن	-5484
▁سياحن	-5485
▁نظرات	-5486
▁کانئس	-5487
▁ڪرسمس	-5488
▁تبديليون	-5489
بند	-5490
جيل	-5491
ٽاپ	-5492
▁سڳ	-5493
▁ڀڄ	-5494
▁بوٽ	-5495
▁جهي	-5496
▁عرو	-5497
▁پيس	-5498
▁جناب	-5499
▁سنڌو	-5500
▁فعلا	-5501
▁متحده	-5502
▁ڊبليو	-5503
،،	-5504
يش	-5505
سپل	-5506
ڪيم	-5507
ڪيٽن	-5508
▁معن	-5509
▁چاپ	-5510
▁ڊين	-5511
▁ڏور	-5512
▁اھڙي	-5513
▁بزرگ	-5514
▁رائع	-5515
▁الحين	-5516
▁چاھيو	-5517
CL	-5518
▁£	-5519
لهه	-5520
▁ڊا	-5521
▁برگ	-5522
▁ميٽ	-5523
▁ڪتن	-5524
▁گئس	-5525
clubl	-5526
توهان	-5527
▁ريزي	-5528
▁متفق	-5529
▁ٽڪيٽ	-5530
▁اسڪين	-5531
▁نشاند	-5532
clublinks	-5533
01	-5534
ڀي	-5535
ائز	-5536
ادت	-5537
بيه	-5538
▁un	-5539
▁رك	-5540
▁وک	-5541
راحي	-5542
سٽنگ	-5543
▁ڇڪڻ	-5544
▁ڏکي	-5545
▁اديب	-5546
▁بيني	-5547
▁پراڻو	-5548
▁گهڻيون	-5549
▁رازداري	-5550
▁سالياني	-5551
قدر	-5552
▁ro	-5553
▁191	-5554
▁سلم	-5555
▁بوتل	-5556
▁عرصو	-5557
▁نازڪ	-5558
▁هڪدم	-5559
▁وٽان	-5560
▁معصوم	-5561
▁ٽرمينل	-5562
▁تبديلين	-5563
▁°	-5564
الب	-5565
▁3:	-5566
▁co	-5567
▁pl	-5568
▁سٺ	-5569
▁حذف	-5570
▁منط	-5571
▁همت	-5572
▁پيئ	-5573
▁فائن	-5574
▁ڪڏھن	-5575
▁جاپاني	-5576
ــــــــــ	-5577
▁هد	-5578
گاري	-5579
▁لهر	-5580
▁نوي	-5581
▁اڏام	-5582
▁سوين	-5583
▁شمسي	-5584
▁پئسو	-5585
witter	-5586
▁افتتاح	-5587
▁تنهنجا	-5588
▁خداوند	-5589
▁Pl	-5590
▁تخت	-5591
▁رون	-5592
▁حساس	-5593
▁هليا	-5594
▁ڪانگ	-5595
▁ڪروڙ	-5596
▁ڪيڏو	-5597
▁ترسيل	-5598
▁خيالي	-5599
▁فاطمه	-5600
▁ماريو	-5601
▁پرائم	-5602
▁پيارو	-5603
آم	-5604
▁لش	-5605
▁مٺ	-5606
▁هج	-5607
ious	-5608
بائي	-5609
▁سدا	-5610
▁سٺا	-5611
▁لچڪ	-5612
▁نفسي	-5613
▁خرابي	-5614
▁پاسورڊ	-5615
▁●	-5616
ايا	-5617
گاهه	-5618
▁ئون	-5619
▁الط	-5620
▁آھين	-5621
▁گلاس	-5622
▁ڪالهه	-5623
▁ملازمت	-5624
▁ڪيترين	-5625
شپ	-5626
▁65	-5627
ڻيون	-5628
▁عبر	-5629
▁لاس	-5630
▁ڀٽو	-5631
▁سببن	-5632
▁لکيا	-5633
▁مھين	-5634
▁هرڪو	-5635
▁ويزا	-5636
▁ٿورا	-5637
▁تعاليٰ	-5638
▁نشاندهي	-5639
▁يادگيري	-5640
<<	-5641
ee	-5642
ws	-5643
ide	-5644
ust	-5645
▁44	-5646
سيءَ	-5647
▁آهه	-5648
▁ريس	-5649
▁زيا	-5650
▁عڪس	-5651
▁ماع	-5652
▁هوم	-5653
▁نارا	-5654
▁يوسف	-5655
▁پاسخ	-5656
▁پرور	-5657
▁ڪوڪي	-5658
▁ڳائڻ	-5659
▁عيسيٰ	-5660
▁تصويري	-5661
▁ٽريننگ	-5662
up	-5663
ائڊ	-5664
زون	-5665
ويل	-5666
▁ذو	-5667
▁ندس	-5668
▁2000	-5669
▁ايپس	-5670
▁بقول	-5671
▁حرام	-5672
▁مئني	-5673
▁چهرو	-5674
▁ڪمال	-5675
▁جستجو	-5676
▁فرمان	-5677
▁پليئر	-5678
▁خوفناڪ	-5679
▁دروازي	-5680
▁هوڏانهن	-5681
▁ٽپ	-5682
▁هيء	-5683
▁يهو	-5684
▁ڪڍڻ	-5685
▁رهيس	-5686
▁رينج	-5687
▁رپيا	-5688
▁معروف	-5689
▁تحياتي	-5690
▁قيمتون	-5691
▁۳	-5692
are	-5693
▁sm	-5694
▁وڇ	-5695
▁بيگ	-5696
▁رڪن	-5697
▁What	-5698
▁احنا	-5699
▁بران	-5700
▁رستن	-5701
▁رواج	-5702
▁رويي	-5703
▁رياض	-5704
▁كلها	-5705
▁مزاج	-5706
▁چوٽي	-5707
▁منتخب	-5708
▁پائيدار	-5709
اپور	-5710
▁فحش	-5711
▁واح	-5712
ووووو	-5713
يارين	-5714
▁چنين	-5715
▁برآمد	-5716
▁عارضي	-5717
▁عمران	-5718
عب	-5719
یم	-5720
tic	-5721
جهي	-5722
دام	-5723
▁أك	-5724
▁وأ	-5725
گوار	-5726
▁موڙ	-5727
▁ايڏي	-5728
▁حافظ	-5729
▁خطاب	-5730
▁رسمي	-5731
▁محروم	-5732
▁ڪمائي	-5733
▁چونڊيل	-5734
▁55	-5735
▁US	-5736
▁کُ	-5737
الفت	-5738
دانن	-5739
ھائي	-5740
▁اجن	-5741
▁رمض	-5742
▁سکي	-5743
اليشن	-5744
▁ڏسجي	-5745
▁قيادت	-5746
▁گاڏين	-5747
▁طالبان	-5748
▁ڇوڪرين	-5749
▁اميدوار	-5750
▁انسٽاليشن	-5751
av	-5752
mp	-5753
▁٢	-5754
ock	-5755
ost	-5756
اين	-5757
▁لَ	-5758
اااي	-5759
قائي	-5760
▁عمري	-5761
▁لاڙڪ	-5762
▁ايجاد	-5763
▁لائيٽ	-5764
▁پرهيز	-5765
▁حالانڪ	-5766
▁لائبري	-5767
▁مجموعو	-5768
▁مخالفت	-5769
▁سنگاپور	-5770
خه	-5771
▁١	-5772
▁Ma	-5773
▁[.	-5774
▁رڙ	-5775
▁iOS	-5776
▁وٺن	-5777
▁صحبت	-5778
▁ٽرمپ	-5779
▁دهشتگردي	-5780
ايي	-5781
▁00	-5782
▁پی	-5783
▁آري	-5784
▁بان	-5785
▁صار	-5786
▁چال	-5787
▁ڪٽن	-5788
▁بنجي	-5789
▁خالد	-5790
▁فلمن	-5791
▁ماما	-5792
▁پهرئين	-5793
▁Twitter	-5794
ئت	-5795
زد	-5796
سڪر	-5797
هند	-5798
يڪر	-5799
▁عد	-5800
▁آٽو	-5801
▁اوي	-5802
▁سڏي	-5803
▁عمو	-5804
▁وهم	-5805
▁ڇهن	-5806
▁جوڙو	-5807
▁جپان	-5808
▁رستا	-5809
▁ضايع	-5810
▁مندر	-5811
▁فنڪار	-5812
▁نمونو	-5813
▁بلوچستان	-5814
▁تأ	-5815
▁ذا	-5816
▁شخ	-5817
▁عط	-5818
▁مشن	-5819
▁ميه	-5820
▁ٽتو	-5821
▁ايرا	-5822
▁شهرت	-5823
▁مواص	-5824
▁هرگز	-5825
منهنجي	-5826
▁ڀائرن	-5827
▁ڊيگهه	-5828
▁برائوزر	-5829
▁ڪلوميٽر	-5830
ذر	-5831
ڱو	-5832
ايش	-5833
▁أح	-5834
▁اتو	-5835
▁مرو	-5836
▁خانو	-5837
▁عارف	-5838
▁مادر	-5839
▁وفاد	-5840
▁گلاب	-5841
▁فلمون	-5842
▁نهاري	-5843
▁ڪرنسي	-5844
▁ڏنائين	-5845
▁ڪراچيءَ	-5846
ــــــــــــ	-5847
ri	-5848
▁شود	-5849
▁شديد	-5850
▁قبضي	-5851
▁مذاق	-5852
▁پبلڪ	-5853
▁پناه	-5854
▁ڊگري	-5855
▁اعزاز	-5856
▁جريان	-5857
▁ڏسندو	-5858
▁ڳوليو	-5859
▁امڪاني	-5860
▁خبردار	-5861
فري	-5862
علام	-5863
▁ئين	-5864
▁الل	-5865
▁اھم	-5866
▁ريپ	-5867
▁شفا	-5868
▁فلي	-5869
اريءَ	-5870
▁2009	-5871
▁آيون	-5872
▁اِها	-5873
▁ڪھڙي	-5874
▁جواني	-5875
▁فائدن	-5876
▁پوندا	-5877
َـ	-5878
نيت	-5879
▁9.	-5880
▁رٽ	-5881
▁غذ	-5882
صولي	-5883
▁تعل	-5884
▁جدت	-5885
▁پتي	-5886
▁ڀڄي	-5887
▁ڊيم	-5888
▁راحت	-5889
▁عرفت	-5890
▁گادي	-5891
▁بعدين	-5892
▁دائري	-5893
▁سمورا	-5894
▁ڏنيون	-5895
▁نظرثاني	-5896
▁پڙهندڙن	-5897
▁37	-5898
هارن	-5899
▁صاد	-5900
▁عدم	-5901
▁تيئن	-5902
▁جارج	-5903
▁حاجي	-5904
▁ريسٽ	-5905
▁خخخخخ	-5906
▁گلوبل	-5907
▁مظاهرو	-5908
زيل	-5909
▁ضد	-5910
▁ڏِ	-5911
▁جڳھ	-5912
▁ديد	-5913
▁مشر	-5914
▁وجه	-5915
▁ڦير	-5916
▁کٽي	-5917
▁مارڪ	-5918
▁منڊي	-5919
▁هائي	-5920
▁پرنٽ	-5921
▁پيشه	-5922
▁آگاهي	-5923
▁اولهه	-5924
▁قيمتن	-5925
ang	-5926
ميد	-5927
يڪا	-5928
ڪٽري	-5929
▁آئر	-5930
▁درس	-5931
▁مبت	-5932
▁مھر	-5933
▁پلگ	-5934
▁ڏٺم	-5935
▁جوڳي	-5936
▁جڳهن	-5937
▁قاضي	-5938
▁منها	-5939
▁نازل	-5940
▁يهمك	-5941
▁ڏيون	-5942
▁هيٺيون	-5943
ob	-5944
▁}	-5945
ليد	-5946
▁39	-5947
▁4:	-5948
▁be	-5949
▁باا	-5950
▁ڪتا	-5951
▁رکيا	-5952
▁شفاف	-5953
▁فروغ	-5954
▁معرف	-5955
▁موقف	-5956
▁مقبول	-5957
▁بندوبست	-5958
ug	-5959
ial	-5960
oft	-5961
ڪڙي	-5962
▁أم	-5963
▁می	-5964
▁نَ	-5965
▁الاس	-5966
▁بايد	-5967
▁صفحن	-5968
▁نيون	-5969
▁هئين	-5970
▁وارث	-5971
▁سمجھي	-5972
▁سپاهي	-5973
▁صديءَ	-5974
▁ملندڙ	-5975
▁ميلاپ	-5976
▁واشنگ	-5977
▁ويندڙ	-5978
▁ڪشمير	-5979
▁حفاظتي	-5980
▁پروگرامن	-5981
سيد	-5982
كات	-5983
▁by	-5984
▁192	-5985
▁بچت	-5986
▁پڙه	-5987
▁ڪتب	-5988
▁دلين	-5989
▁مخلو	-5990
▁ملاح	-5991
▁ڪيني	-5992
▁گھڻا	-5993
▁اينٽي	-5994
▁بدلجي	-5995
▁شيطان	-5996
▁ناراض	-5997
▁ڪيريئر	-5998
▁پرائمري	-5999
ذب	-6000
خلص	-6001
▁HT	-6002
▁اذ	-6003
▁اڱ	-6004
ورتي	-6005
▁The	-6006
▁اڀر	-6007
▁بست	-6008
▁رقص	-6009
▁مشڪ	-6010
▁ڏٺا	-6011
▁رولي	-6012
▁سوار	-6013
▁عادت	-6014
ريائين	-6015
▁سمجھڻ	-6016
▁ٻڌاءِ	-6017
ضع	-6018
▁א	-6019
▁Me	-6020
▁بقي	-6021
▁سپل	-6022
▁آهي۔	-6023
▁اٽلي	-6024
▁فورس	-6025
▁ننڍا	-6026
▁پئسن	-6027
▁گردش	-6028
▁جيئرو	-6029
▁سمجهو	-6030
▁مادري	-6031
▁گائيڊ	-6032
جم	-6033
حق	-6034
خذ	-6035
ید	-6036
يڪو	-6037
▁عش	-6038
▁لِ	-6039
▁نڀ	-6040
▁(3)	-6041
▁وهن	-6042
▁ڏات	-6043
ااااي	-6044
▁انٽي	-6045
▁تابع	-6046
▁سرحد	-6047
▁ظاھر	-6048
▁ملوث	-6049
▁پيپر	-6050
▁crypt	-6051
▁وٺندا	-6052
▁گذريو	-6053
▁ھوندو	-6054
▁ايجنسي	-6055
▁ڳوليندا	-6056
▁اليڪٽرانڪ	-6057
▁انجنيئرنگ	-6058
آل	-6059
ure	-6060
▁::	-6061
▁واب	-6062
▁وهو	-6063
▁ادائ	-6064
▁موٽڻ	-6065
▁ڪيڏي	-6066
▁فائون	-6067
▁منتظر	-6068
▁ڪچهري	-6069
▁ڳاڙهو	-6070
▁ميونسپل	-6071
ph	-6072
▁۴	-6073
▁ne	-6074
گراف	-6075
▁ترق	-6076
▁تعي	-6077
▁مام	-6078
▁وڻن	-6079
▁بيٺي	-6080
▁ميرا	-6081
▁وحده	-6082
▁وربي	-6083
▁ٿيڻو	-6084
▁ڏسون	-6085
▁ڪٽنب	-6086
▁Whats	-6087
▁الضحك	-6088
▁تباهي	-6089
▁تهذيب	-6090
▁خوابن	-6091
▁فضيلت	-6092
▁ماشاء	-6093
▁گريجو	-6094
▁سراسري	-6095
▁عبدالو	-6096
▁نيويارڪ	-6097
▁ٺاهيندڙن	-6098
زيم	-6099
able	-6100
▁ابن	-6101
▁انچ	-6102
علامه	-6103
▁آثار	-6104
▁استن	-6105
▁جڙيل	-6106
▁آئيني	-6107
▁اسٽاپ	-6108
▁دٻاءُ	-6109
▁معمول	-6110
▁ادائگي	-6111
▁اسٽريٽ	-6112
▁ٽيڪنيڪل	-6113
فون	-6114
▁Bl	-6115
▁ڇت	-6116
اليت	-6117
▁حجم	-6118
▁مٿا	-6119
▁سچائي	-6120
▁پويون	-6121
▁فائرنگ	-6122
ST	-6123
▁z	-6124
oun	-6125
َرَ	-6126
▁اا	-6127
▁بڇ	-6128
▁خم	-6129
▁برچ	-6130
▁عزم	-6131
▁نيم	-6132
▁ھنن	-6133
earch	-6134
بوليت	-6135
▁بيحد	-6136
▁خبرن	-6137
▁قولي	-6138
▁چورس	-6139
▁گاهه	-6140
▁تناسب	-6141
▁جذبات	-6142
▁موقعن	-6143
▁چوندي	-6144
▁ڏهاڪي	-6145
▁احتياط	-6146
▁همراهه	-6147
▁اشتهارن	-6148
▁پروڊڪٽس	-6149
▁ڪيڏانهن	-6150
▁اپليڪيشن	-6151
▁حيدرآباد	-6152
8.	-6153
ُر	-6154
ھه	-6155
▁طي	-6156
▁ڙا	-6157
▁سجا	-6158
▁ليو	-6159
▁نقش	-6160
▁وڻي	-6161
▁بلين	-6162
▁جملو	-6163
▁ميري	-6164
▁نامو	-6165
▁بينڪن	-6166
▁سينيٽ	-6167
▁معقول	-6168
▁ڀائيو	-6169
▁ڪرپشن	-6170
ريه	-6171
ارٽي	-6172
▁حسب	-6173
▁ولو	-6174
▁ٻلي	-6175
▁2007	-6176
▁مجازي	-6177
▁گڏجاڻي	-6178
EM	-6179
ظه	-6180
ime	-6181
اڪر	-6182
ورس	-6183
▁مڇ	-6184
افين	-6185
▁اڇو	-6186
▁رضا	-6187
▁ڄام	-6188
vious	-6189
▁جائز	-6190
▁جمعي	-6191
▁جنگي	-6192
▁نعمت	-6193
▁ڪلهه	-6194
▁ڪلچر	-6195
▁رابطن	-6196
▁سوسائ	-6197
▁پکڙيل	-6198
▁ڏينداسين	-6199
▁ايسوسيئيشن	-6200
ايم	-6201
ميز	-6202
▁An	-6203
گزين	-6204
▁400	-6205
▁فكر	-6206
▁لمي	-6207
▁مٿس	-6208
▁هير	-6209
▁ياح	-6210
ختيار	-6211
▁توازن	-6212
▁رمضان	-6213
▁سلامتي	-6214
▁پئماني	-6215
▁چمڪندڙ	-6216
▁استنبول	-6217
▁اونهاري	-6218
age	-6219
ail	-6220
امين	-6221
▁آبي	-6222
▁جاب	-6223
▁راجا	-6224
▁مارو	-6225
▁سگهجن	-6226
▁موقعا	-6227
▁نظريو	-6228
▁ناڪامي	-6229
▁فائونڊيشن	-6230
5)	-6231
دى	-6232
act	-6233
فين	-6234
▁Sp	-6235
▁حيو	-6236
▁دفن	-6237
▁لاي	-6238
▁ولد	-6239
▁جانب	-6240
▁قاتل	-6241
▁نجات	-6242
▁جهازن	-6243
▁ذخيرو	-6244
▁پايان	-6245
▁سيکاري	-6246
▁مضمونن	-6247
▁پھريون	-6248
▁چئلينج	-6249
ازم	-6250
اهت	-6251
▁se	-6252
▁وك	-6253
▁تبي	-6254
▁احسن	-6255
▁تكون	-6256
▁جسٽس	-6257
▁جيئڻ	-6258
▁دفاع	-6259
▁دٻاء	-6260
▁زوال	-6261
▁لائي	-6262
▁هيرو	-6263
▁سرگرم	-6264
▁ڇڏيون	-6265
▁ڊولپر	-6266
▁صوبائي	-6267
▁بيمارين	-6268
راه	-6269
▁شئ	-6270
▁گز	-6271
coin	-6272
▁Mic	-6273
▁اوز	-6274
▁ريز	-6275
▁ڀرڻ	-6276
▁ويسٽ	-6277
▁پاڻم	-6278
▁پردي	-6279
▁الحمد	-6280
▁اهوئي	-6281
▁ديوار	-6282
▁ڪوريا	-6283
▁پروسيس	-6284
▁ميزباني	-6285
▁پارٽيءَ	-6286
أي	-6287
روح	-6288
يڪس	-6289
▁لُ	-6290
▁خوا	-6291
▁1000	-6292
▁قابو	-6293
▁وڃڻو	-6294
▁درآمد	-6295
▁صحافي	-6296
▁منجهه	-6297
▁اڄڪلهه	-6298
وَ	-6299
اعت	-6300
جيڪ	-6301
مول	-6302
ويه	-6303
▁آڱ	-6304
▁نيڻ	-6305
▁ورت	-6306
▁مقدس	-6307
▁نانگ	-6308
▁تعالى	-6309
▁ميٽرو	-6310
▁بدلائي	-6311
▁ماڻهون	-6312
7">	-6313
ast	-6314
our	-6315
منٽ	-6316
يزن	-6317
▁he	-6318
▁te	-6319
▁چيس	-6320
▁اندي	-6321
▁بدون	-6322
▁وسري	-6323
▁چئجي	-6324
▁اجنبي	-6325
▁برچسب	-6326
▁مهينو	-6327
▁ڀلائي	-6328
▁عدد	-6329
▁هوش	-6330
XNUMX	-6331
مينان	-6332
▁سعيد	-6333
▁ڪپڙي	-6334
▁ڪڍيو	-6335
▁داخلي	-6336
▁مليون	-6337
▁زندگيء	-6338
▁مديريت	-6339
▁اطمينان	-6340
تما	-6341
▁47	-6342
▁Ad	-6343
▁فئ	-6344
▁مچ	-6345
افيه	-6346
▁اله	-6347
▁اوت	-6348
▁زلز	-6349
▁ستن	-6350
▁ٽيپ	-6351
▁ڪٽڻ	-6352
▁ناري	-6353
▁هيئن	-6354
urname	-6355
▁اسٽاف	-6356
▁اڄوڪي	-6357
▁بنائي	-6358
▁دراصل	-6359
▁بيوقوف	-6360
▁قرباني	-6361
▁پيروزي	-6362
▁اثرائتي	-6363
▁ٹ	-6364
App	-6365
هوا	-6366
اسون	-6367
عليه	-6368
▁زيو	-6369
▁قطر	-6370
▁پوڻ	-6371
▁اضحك	-6372
▁حقوق	-6373
▁ڪائي	-6374
▁گراف	-6375
▁ويچار	-6376
▁اختيارين	-6377
▁پاڻمرادو	-6378
ـِ	-6379
يام	-6380
▁شغ	-6381
▁غي	-6382
▁هڙ	-6383
▁يف	-6384
ائتو	-6385
▁اُڀ	-6386
▁زرا	-6387
▁محد	-6388
▁ٽار	-6389
▁اغوا	-6390
▁نديم	-6391
▁ڪوري	-6392
اااااا	-6393
▁اهڙين	-6394
▁رعايت	-6395
▁سمورن	-6396
▁فائلن	-6397
▁يونان	-6398
▁پناهه	-6399
▁ڳوڙهي	-6400
▁ڊوائيسز	-6401
30	-6402
خط	-6403
▁ٍ	-6404
ساب	-6405
▁فرح	-6406
▁پيڊ	-6407
▁جھڙو	-6408
▁لشڪر	-6409
▁نڪتل	-6410
▁سلطنت	-6411
▁سڃاڻي	-6412
▁مرحلو	-6413
▁سنجيده	-6414
▁هيهيهي	-6415
▁خوشگوار	-6416
كو	-6417
اڪا	-6418
لعب	-6419
▁am	-6420
▁تض	-6421
▁کپ	-6422
▁,,,	-6423
▁ائڻ	-6424
▁الأ	-6425
▁پُڇ	-6426
▁گند	-6427
▁بزنس	-6428
▁ساحل	-6429
▁ضمير	-6430
▁فائي	-6431
▁ڌرين	-6432
▁ڪوپن	-6433
جيڪڏهن	-6434
▁لڳندي	-6435
▁مايوس	-6436
▁مٽائي	-6437
▁اڳواڻي	-6438
▁فلسطين	-6439
▁ڇڏيندي	-6440
▁Previous	-6441
ip	-6442
ok	-6443
3">	-6444
ana	-6445
امت	-6446
ڊمي	-6447
ڊيم	-6448
▁iz	-6449
شيار	-6450
▁Bit	-6451
▁بير	-6452
▁جِي	-6453
▁طلع	-6454
▁فيڊ	-6455
▁ڪٽي	-6456
▁بعدي	-6457
▁روئڻ	-6458
▁يعنى	-6459
▁گهوٽ	-6460
▁بغاوت	-6461
▁سواري	-6462
▁وڻندڙ	-6463
▁انقلابي	-6464
TE	-6465
واب	-6466
▁HD	-6467
CLNT	-6468
يعني	-6469
▁Mar	-6470
▁فال	-6471
▁ڏوه	-6472
▁سياح	-6473
▁سکيو	-6474
▁ڄمار	-6475
▁SCLNT	-6476
▁شكلها	-6477
▁نسبتا	-6478
▁پوڙهي	-6479
▁ڀٽائي	-6480
▁ڳوڙها	-6481
▁امارات	-6482
▁پورهيت	-6483
▁سهولتون	-6484
▁چاهيندو	-6485
▁انتظاميه	-6486
▁ْ	-6487
▁€	-6488
توي	-6489
ڪشي	-6490
▁ic	-6491
ible	-6492
▁man	-6493
▁آيد	-6494
▁تست	-6495
▁سرد	-6496
▁لڳن	-6497
▁مرة	-6498
▁مرک	-6499
▁مڃي	-6500
▁ايسٽ	-6501
▁حامي	-6502
▁حاڪم	-6503
▁ريلي	-6504
▁شپنگ	-6505
▁پيٽر	-6506
▁WhatsApp	-6507
>>	-6508
ram	-6509
آآآ	-6510
▁we	-6511
▁ڌا	-6512
▁بيس	-6513
▁كلم	-6514
▁تحفا	-6515
▁جملي	-6516
▁دوزخ	-6517
▁رائي	-6518
▁راهي	-6519
▁موهن	-6520
▁گرام	-6521
▁شناسي	-6522
▁مريضن	-6523
▁چوٿون	-6524
▁ارسالي	-6525
▁ايراضي	-6526
▁ريڪارڊ	-6527
▁مارڪيٽن	-6528
▁واشنگٽن	-6529
▁ڏيکاريل	-6530
▁سافٽويئر	-6531
ld	-6532
آء	-6533
▁چت	-6534
▁برش	-6535
▁جدي	-6536
▁سُر	-6537
▁سکو	-6538
▁وٽس	-6539
▁ايڪٽ	-6540
▁دارو	-6541
▁رحمت	-6542
▁فيهم	-6543
▁ڄائو	-6544
جهڙائي	-6545
▁انڊين	-6546
▁ساٿين	-6547
▁پيوند	-6548
▁گناهه	-6549
▁وياسين	-6550
▁ڪاميٽي	-6551
▁اينڊرائيڊس	-6552
کس	-6553
ريڊ	-6554
▁شھ	-6555
▁بول	-6556
▁راڳ	-6557
▁غزل	-6558
▁معج	-6559
▁ٺهي	-6560
▁پاڙ	-6561
▁اچان	-6562
▁رسيد	-6563
▁ريال	-6564
▁ساخت	-6565
▁نياز	-6566
▁ٽولي	-6567
▁ڏيڻو	-6568
▁اينڪس	-6569
▁سگريٽ	-6570
▁پڙهيل	-6571
▁آفيسرن	-6572
▁سرگرميون	-6573
▁لائبريري	-6574
ud	-6575
▁ؤ	-6576
انج	-6577
▁):	-6578
▁تذ	-6579
ريشن	-6580
لايو	-6581
ورنس	-6582
▁آڪس	-6583
▁برع	-6584
▁سمو	-6585
▁سمي	-6586
▁انگل	-6587
▁سگهه	-6588
▁شيشي	-6589
▁پڌرو	-6590
▁ڏاڍا	-6591
▁ادامه	-6592
▁الدين	-6593
▁بلڊنگ	-6594
▁يقيناً	-6595
▁روشنيءَ	-6596
▁سربراهه	-6597
▁عبدالوحيد	-6598
ئرس	-6599
▁es	-6600
▁فس	-6601
،000	-6602
اڻون	-6603
رفيس	-6604
عدين	-6605
▁ريٽ	-6606
▁زخم	-6607
▁ننگ	-6608
▁ٽوڪ	-6609
▁ڦري	-6610
▁بنات	-6611
▁رويو	-6612
▁فيچر	-6613
▁مدري	-6614
▁هانگ	-6615
▁وحدت	-6616
▁ٿورڙي	-6617
▁لاڳاپا	-6618
▁ـــــــــــــــ	-6619
4.	-6620
يڪي	-6621
▁Ar	-6622
▁بِ	-6623
▁150	-6624
▁طبق	-6625
▁ماي	-6626
▁ميم	-6627
▁هري	-6628
▁ٻوڏ	-6629
▁پھچ	-6630
▁ڪوش	-6631
▁المن	-6632
▁اندا	-6633
▁تجزي	-6634
▁حتمي	-6635
▁سنگت	-6636
▁ڇپيل	-6637
رانداز	-6638
▁فائنل	-6639
▁Search	-6640
▁پروفائل	-6641
▁نظرانداز	-6642
▁هك	-6643
▁يي	-6644
▁دول	-6645
▁ليا	-6646
▁تجنن	-6647
▁نقشو	-6648
▁وٺندڙ	-6649
▁پالتو	-6650
▁پھرين	-6651
▁العالم	-6652
▁غلطيون	-6653
▁پرائيو	-6654
▁ڄاڻايل	-6655
▁گهريلو	-6656
▁اسٽوڊيو	-6657
ُـ	-6658
که	-6659
ake	-6660
نيد	-6661
▁کی	-6662
▁***	-6663
▁dis	-6664
▁امل	-6665
▁اڏي	-6666
▁مڪي	-6667
▁كانت	-6668
▁هيچي	-6669
▁ٻڌڻي	-6670
▁ٽيوب	-6671
▁لائيو	-6672
▁پرومو	-6673
▁گهٽجي	-6674
▁سوسائٽي	-6675
6.	-6676
uc	-6677
سار	-6678
گان	-6679
▁تط	-6680
▁قم	-6681
سٽنٽ	-6682
لانا	-6683
▁Pro	-6684
▁wor	-6685
▁ارد	-6686
▁اعج	-6687
▁خلو	-6688
▁دخل	-6689
▁ستر	-6690
▁عاج	-6691
▁ممت	-6692
▁منش	-6693
▁دائمي	-6694
▁فيصلا	-6695
▁ڊائري	-6696
▁ايڊيٽر	-6697
▁مصنوعي	-6698
▁مولانا	-6699
▁دستاويزن	-6700
ثال	-6701
شنر	-6702
▁IP	-6703
▁ڊس	-6704
▁عيب	-6705
▁ڪبو	-6706
▁سائٽ	-6707
▁شخصي	-6708
▁معنا	-6709
▁مفاد	-6710
▁وچان	-6711
▁ضابطن	-6712
▁ڪيفيت	-6713
▁ھوندي	-6714
▁اڪيڊمي	-6715
▁بدلائڻ	-6716
--	-6717
cy	-6718
بس	-6719
فتو	-6720
واٽ	-6721
▁5:	-6722
▁طو	-6723
▁خلص	-6724
▁ساد	-6725
▁سهڻ	-6726
▁سچل	-6727
▁امور	-6728
▁اوپن	-6729
▁رومن	-6730
▁زرعي	-6731
▁سندي	-6732
▁ٻاھر	-6733
rosoft	-6734
▁سگهيس	-6735
▁يعطيك	-6736
▁ڀڃڪڙي	-6737
▁آمريڪن	-6738
▁امريڪا	-6739
▁برازيل	-6740
▁زرداري	-6741
▁موڪليل	-6742
▁ڪئناڊا	-6743
▁جوابدارن	-6744
▁خوبصورتي	-6745
▁۵	-6746
ami	-6747
ian	-6748
ick	-6749
نڊي	-6750
▁نخ	-6751
▁ion	-6752
▁بائ	-6753
▁فهم	-6754
▁هول	-6755
▁Home	-6756
▁اوند	-6757
▁بحري	-6758
▁صادق	-6759
▁فرار	-6760
▁مٿاڇ	-6761
▁ياري	-6762
▁ڪرسٽ	-6763
▁گھڻن	-6764
▁سگهين	-6765
▁مائٽن	-6766
▁نصيحت	-6767
▁نظريي	-6768
▁پاؤڊر	-6769
▁ڊپارٽ	-6770
▁ڏيندس	-6771
▁ٻوليون	-6772
ضم	-6773
▁ٌ	-6774
▁♥	-6775
gle	-6776
صول	-6777
ڻين	-6778
▁Sh	-6779
▁يآ	-6780
▁اٿن	-6781
▁روئ	-6782
▁چشم	-6783
▁بھتر	-6784
▁معاو	-6785
▁انهيء	-6786
▁رٽائر	-6787
▁زراعت	-6788
▁صارفن	-6789
▁غلامي	-6790
▁پگهار	-6791
▁ڪونھي	-6792
▁حڪومتي	-6793
▁خوشحالي	-6794
▁ڪارپوريٽ	-6795
▁Microsoft	-6796
ضل	-6797
وين	-6798
حدود	-6799
ديءَ	-6800
ولتن	-6801
▁بڻي	-6802
▁تيم	-6803
▁ويه	-6804
▁کاڌ	-6805
▁رليز	-6806
▁ليٽر	-6807
▁اسٽين	-6808
▁رواني	-6809
▁موڪلن	-6810
▁ڪمشنر	-6811
▁ڪوششن	-6812
▁اسپيڪر	-6813
▁انٽرفيس	-6814
▁اونداهي	-6815
لل	-6816
بيا	-6817
ڪٿي	-6818
▁85	-6819
▁شک	-6820
="0.	-6821
▁ent	-6822
▁مٿو	-6823
▁هڻڻ	-6824
▁تشخي	-6825
▁هلڪو	-6826
▁چالو	-6827
▁تجربا	-6828
▁حوصلا	-6829
▁ضابطو	-6830
▁مهارت	-6831
▁حياتيءَ	-6832
▁اميدوارن	-6833
lo	-6834
ass	-6835
تكم	-6836
نيه	-6837
▁1)	-6838
▁عص	-6839
▁اقو	-6840
▁شهن	-6841
▁نعم	-6842
▁ڊوي	-6843
▁تارن	-6844
▁ٻوٽي	-6845
▁خاتمو	-6846
▁ساڳيا	-6847
▁سمورو	-6848
▁غيرها	-6849
▁مالڪن	-6850
▁ڪوڪيز	-6851
▁ٻڌايان	-6852
aj	-6853
آر	-6854
بود	-6855
دات	-6856
▁دن	-6857
▁چَ	-6858
يوار	-6859
▁جلو	-6860
▁حيا	-6861
▁پُر	-6862
▁ھيو	-6863
▁حملن	-6864
▁زينب	-6865
▁صوفي	-6866
▁نيري	-6867
▁سرواڻ	-6868
▁مبتلا	-6869
▁مشكور	-6870
▁ڇپائي	-6871
▁گروهه	-6872
▁سمجهندا	-6873
▁انتظاميا	-6874
ويب	-6875
ويت	-6876
ڀرو	-6877
▁تِ	-6878
▁يش	-6879
بارن	-6880
▁ائپ	-6881
▁ابا	-6882
▁اخذ	-6883
▁ذمي	-6884
▁صنف	-6885
▁لوڻ	-6886
▁محت	-6887
▁مھل	-6888
▁ودي	-6889
▁جمال	-6890
▁دوره	-6891
▁مجلس	-6892
▁پهتا	-6893
▁ڀاڱي	-6894
▁بلاول	-6895
▁اعتراف	-6896
▁خصوصيت	-6897
▁سپلائر	-6898
▁لچڪدار	-6899
▁مئنيجر	-6900
▁ڪهاڻين	-6901
▁تقريباً	-6902
▁لامحدود	-6903
▁مھرباني	-6904
▁نشانيون	-6905
فة	-6906
ُون	-6907
▁آت	-6908
▁ٽئ	-6909
form	-6910
فارم	-6911
وليت	-6912
۔۔۔۔	-6913
▁Con	-6914
▁اري	-6915
▁تلو	-6916
▁شرا	-6917
▁شفت	-6918
▁شيڊ	-6919
▁ميد	-6920
▁کرد	-6921
▁سوني	-6922
▁سڪون	-6923
▁غالب	-6924
▁مائٽ	-6925
▁نامن	-6926
▁نيرو	-6927
▁پهتي	-6928
▁Bible	-6929
▁سمجهن	-6930
▁مسڪين	-6931
▁سهولتن	-6932
▁چونڊون	-6933
فس	-6934
▁ځ	-6935
▁🙂	-6936
ted	-6937
سرچ	-6938
▁دخ	-6939
پریس	-6940
▁سمر	-6941
▁فنا	-6942
▁هدف	-6943
▁ووڊ	-6944
▁ڪنن	-6945
اگرام	-6946
▁آرمي	-6947
▁اجمل	-6948
▁ظالم	-6949
▁قادر	-6950
▁يعين	-6951
▁پرسپ	-6952
▁کاري	-6953
▁ڪلين	-6954
▁انجمن	-6955
▁محترم	-6956
▁ويڙهه	-6957
▁آزمائشي	-6958
▁پاسپورٽ	-6959
صور	-6960
▁تک	-6961
▁نز	-6962
▁😂😂	-6963
ress	-6964
سلام	-6965
▁جبر	-6966
▁لکن	-6967
▁هنر	-6968
▁غيره	-6969
▁مثلا	-6970
▁نفسك	-6971
▁وائر	-6972
▁والا	-6973
▁پايه	-6974
▁ابتدا	-6975
▁ريسرچ	-6976
▁عثمان	-6977
▁ٻولهه	-6978
▁گليڪس	-6979
▁ڳالهائيندو	-6980
ضا	-6981
وڌ	-6982
الٽ	-6983
▁us	-6984
▁آآ	-6985
شاهه	-6986
▁امڙ	-6987
▁باش	-6988
▁فهد	-6989
▁نيپ	-6990
▁پها	-6991
▁گهم	-6992
▁اخوي	-6993
▁جذبي	-6994
▁فاتح	-6995
▁مدار	-6996
▁مرسي	-6997
▁پيسا	-6998
▁ڳوٺن	-6999
▁دستخط	-7000
▁لوازم	-7001
▁لکندو	-7002
▁مٽيءَ	-7003
▁واسطي	-7004
▁اختياري	-7005
▁حالانڪه	-7006
▁3)	-7007
▁LG	-7008
▁کس	-7009
ment	-7010
▁اُٿ	-7011
▁حدن	-7012
▁صدق	-7013
▁ميگ	-7014
▁هدي	-7015
▁کٽڻ	-7016
▁ڳڻپ	-7017
▁اوسط	-7018
▁تدري	-7019
▁دهلي	-7020
▁ورتا	-7021
▁ونڊو	-7022
▁Awami	-7023
▁عليهم	-7024
▁ليبار	-7025
▁ملندا	-7026
▁ڪندين	-7027
▁گورنر	-7028
▁برابري	-7029
▁ميوزيم	-7030
▁صلاحڪار	-7031
كة	-7032
▁43	-7033
▁De	-7034
▁ڇي	-7035
▁آصف	-7036
▁بدو	-7037
▁مجن	-7038
▁ورڈ	-7039
▁ڪيڪ	-7040
نديون	-7041
▁بچاء	-7042
▁ناپس	-7043
▁واٽر	-7044
▁ويهڻ	-7045
▁اسپيڊ	-7046
▁Sindhi	-7047
▁اخبارن	-7048
▁قانونن	-7049
▁ورهائي	-7050
▁آڌ	-7051
▁for	-7052
▁اكل	-7053
▁قرب	-7054
▁ليٽ	-7055
▁لڪي	-7056
▁گيٽ	-7057
گزاري	-7058
▁Awaz	-7059
▁بلاش	-7060
▁رپور	-7061
▁سالم	-7062
▁سليم	-7063
▁ناصر	-7064
▁نگاه	-7065
▁ٽتوٽ	-7066
▁ڪارا	-7067
▁ڪپڙو	-7068
▁نشانو	-7069
▁وصولي	-7070
▁اسسٽنٽ	-7071
▁واڌارو	-7072
▁پرواهه	-7073
__	-7074
ڪم	-7075
ضيه	-7076
آئون	-7077
استي	-7078
▁سحر	-7079
▁منا	-7080
▁پڪو	-7081
▁چپن	-7082
▁ڪڙي	-7083
▁ڪڻڪ	-7084
▁گار	-7085
▁روبو	-7086
▁ماشى	-7087
▁اڳئين	-7088
▁بالغن	-7089
▁ديگري	-7090
▁مزدور	-7091
▁اوچائي	-7092
▁هوشيار	-7093
▁کانپوء	-7094
▁انشورنس	-7095
▁ورڈپریس	-7096
ِل	-7097
ank	-7098
ھون	-7099
▁6:	-7100
▁98	-7101
▁دى	-7102
▁ڊن	-7103
اتار	-7104
ارتن	-7105
طيني	-7106
▁(4)	-7107
▁بيه	-7108
▁بچه	-7109
▁حرا	-7110
▁سڪي	-7111
▁ٽول	-7112
▁پهت	-7113
▁ڪجو	-7114
▁اسما	-7115
▁اسوي	-7116
▁اُھي	-7117
▁بيبي	-7118
▁شوقين	-7119
▁معائن	-7120
▁معاون	-7121
▁هونءَ	-7122
▁ھدايت	-7123
▁بنيادن	-7124
▁انسٽاگرام	-7125
كون	-7126
▁38	-7127
▁Al	-7128
▁يَ	-7129
▁ڏُ	-7130
سيون	-7131
ناطي	-7132
▁اڻو	-7133
▁ترڪ	-7134
▁عذر	-7135
▁لبن	-7136
▁ميڙ	-7137
▁مڃڻ	-7138
▁بدين	-7139
▁تبلي	-7140
▁شويه	-7141
▁لوگو	-7142
▁ڊيمو	-7143
▁ڌيءُ	-7144
▁گاهي	-7145
▁سلطان	-7146
▁مافيه	-7147
▁ٽيليو	-7148
▁پروٽو	-7149
▁پروژه	-7150
▁چاندي	-7151
▁ڊويزن	-7152
▁گروپن	-7153
▁ميڪسيڪو	-7154
▁ے	-7155
end	-7156
out	-7157
شين	-7158
▁ha	-7159
▁آد	-7160
اڻان	-7161
سٽين	-7162
▁all	-7163
▁بوڪ	-7164
▁بيٽ	-7165
▁جبت	-7166
▁فضل	-7167
▁مَن	-7168
▁ڊون	-7169
▁ائون	-7170
▁الان	-7171
▁لفظي	-7172
▁هٿان	-7173
▁وانت	-7174
▁پيرس	-7175
▁ڀائر	-7176
▁ڪامل	-7177
▁دوستو	-7178
▁ديدار	-7179
▁غذائي	-7180
▁نينهن	-7181
▁ڪامرس	-7182
▁وبعدين	-7183
▁ڪابينا	-7184
▁اليڪٽرڪ	-7185
▁ڪارخانو	-7186
اٽ	-7187
عك	-7188
ولڪ	-7189
▁جس	-7190
▁رآ	-7191
▁سٿ	-7192
▁شپ	-7193
▁ڪش	-7194
▁الد	-7195
▁فرز	-7196
▁ورڊ	-7197
▁تڏھن	-7198
▁ظهور	-7199
▁ورتل	-7200
▁گذرڻ	-7201
▁برعڪس	-7202
▁تقدير	-7203
▁توهين	-7204
▁عالمن	-7205
▁مسكين	-7206
▁نياڻي	-7207
▁ورهيه	-7208
▁ڄاڻان	-7209
▁بينڪنگ	-7210
▁شاديءَ	-7211
hm	-7212
قيت	-7213
▁49	-7214
▁لڏ	-7215
ياڻي	-7216
▁ago	-7217
▁آرڪ	-7218
▁اهن	-7219
▁جزا	-7220
▁فرش	-7221
▁قدي	-7222
▁پُٽ	-7223
▁ڳري	-7224
▁2003	-7225
▁انور	-7226
▁سستا	-7227
▁معطل	-7228
▁ٽائم	-7229
▁ڏاڏي	-7230
▁شينهن	-7231
▁سمجھيو	-7232
▁صدارتي	-7233
▁مينيجر	-7234
▁ناهيان	-7235
▁(6	-7236
▁ly	-7237
▁ڇن	-7238
ائلي	-7239
▁190	-7240
▁آله	-7241
▁زون	-7242
▁شاھ	-7243
▁لکت	-7244
▁همٿ	-7245
urren	-7246
▁رهبر	-7247
▁سمهڻ	-7248
▁پائپ	-7249
▁ڪئمپ	-7250
▁بيروز	-7251
▁درياهه	-7252
▁سينگار	-7253
▁پرسپولي	-7254
▁انگريزيءَ	-7255
وش	-7256
="3	-7257
ens	-7258
ign	-7259
عود	-7260
▁Ex	-7261
▁عظ	-7262
▁ڊچ	-7263
ورنٽ	-7264
▁آچر	-7265
▁باھ	-7266
▁بيچ	-7267
▁عكس	-7268
▁قصي	-7269
▁مئل	-7270
▁يان	-7271
▁يسو	-7272
▁ڏجي	-7273
▁کلڻ	-7274
ورنيا	-7275
▁Play	-7276
▁بايو	-7277
▁سستو	-7278
▁قريب	-7279
▁نقطه	-7280
▁وڙهي	-7281
▁افسان	-7282
▁رڪنيت	-7283
▁بدترين	-7284
▁سائيٽون	-7285
▁عملدارن	-7286
▁لاڙڪاڻي	-7287
▁گرفتاري	-7288
▁ٽيليويزن	-7289
عال	-7290
ڊين	-7291
▁لف	-7292
سينو	-7293
مانس	-7294
▁ريو	-7295
▁سكس	-7296
▁سيو	-7297
▁شار	-7298
▁لڏي	-7299
▁ٽهڪ	-7300
▁پخت	-7301
▁پڇو	-7302
▁ڀوڳ	-7303
▁چهر	-7304
▁بيٺا	-7305
▁رشيد	-7306
▁عبرت	-7307
▁فارس	-7308
▁نقشي	-7309
▁پئرس	-7310
▁امکان	-7311
▁سگھان	-7312
▁مُنهن	-7313
▁وڃائڻ	-7314
▁پارٽن	-7315
▁ڳولهي	-7316
ليفورنيا	-7317
▁عبدالله	-7318
):	-7319
ary	-7320
▁دة	-7321
▁ود	-7322
▁ڏه	-7323
انيا	-7324
▁اعص	-7325
▁اڻڄ	-7326
▁زوج	-7327
▁نشر	-7328
▁نيل	-7329
▁هاڪ	-7330
▁ڀين	-7331
▁ڪيپ	-7332
ڀرائي	-7333
▁بيوس	-7334
▁دريا	-7335
▁دلبر	-7336
▁فرهن	-7337
▁ملائ	-7338
▁منجھ	-7339
▁موتي	-7340
▁هُئا	-7341
▁يارڪ	-7342
▁پائو	-7343
▁پکين	-7344
▁ڪمرو	-7345
▁تشخيص	-7346
▁زباني	-7347
▁نگاهي	-7348
▁وسيلا	-7349
▁رجسٽرڊ	-7350
▁سالگره	-7351
▁ملهايو	-7352
▁وارنٽي	-7353
▁يوناني	-7354
▁ڪميونسٽ	-7355
غر	-7356
ميش	-7357
نيم	-7358
▁جِ	-7359
▁رڻ	-7360
▁كف	-7361
ائيز	-7362
شمول	-7363
پريس	-7364
▁راء	-7365
▁ڪوٺ	-7366
▁News	-7367
▁آخرت	-7368
▁برڪت	-7369
▁تقاض	-7370
▁رشتو	-7371
▁لنڪس	-7372
▁محقق	-7373
▁ميمڻ	-7374
▁نسيت	-7375
▁ٽڪرو	-7376
▁ڀرجي	-7377
▁آبهوا	-7378
▁تسلسل	-7379
▁شهادت	-7380
▁طراحي	-7381
▁كلامك	-7382
▁ملتوي	-7383
▁اسرائي	-7384
▁ايستائين	-7385
▁ليبارٽري	-7386
▁ايمانداري	-7387
حح	-7388
گذ	-7389
ite	-7390
und	-7391
صرن	-7392
قيه	-7393
▁Qu	-7394
▁sc	-7395
▁غف	-7396
ميءَ	-7397
▁بلڊ	-7398
▁تصد	-7399
▁متر	-7400
▁ميک	-7401
▁بضحك	-7402
▁سارا	-7403
▁فاهم	-7404
▁ماهو	-7405
▁گران	-7406
▁طريقه	-7407
▁مڪاني	-7408
▁ڳاڙهي	-7409
▁حقيقتن	-7410
▁سامسنگ	-7411
▁منصوبا	-7412
مس	-7413
ild	-7414
itt	-7415
سنو	-7416
كان	-7417
▁64	-7418
▁ُ،	-7419
▁چط	-7420
زمين	-7421
▁خفي	-7422
▁ليڊ	-7423
▁that	-7424
▁بادل	-7425
▁جھڙي	-7426
▁درجو	-7427
▁سريع	-7428
▁سهڻو	-7429
▁سوئي	-7430
▁سويت	-7431
▁ليڊر	-7432
▁ويڙه	-7433
▁ٺاهه	-7434
▁پولي	-7435
▁ڳڻتي	-7436
▁ٽائون	-7437
▁هئائين	-7438
▁هالينڊ	-7439
▁ترقياتي	-7440
▁جاگرافي	-7441
▁سنواريو	-7442
▁تيستائين	-7443
▁يونيورسٽيءَ	-7444
ox	-7445
yp	-7446
اهد	-7447
▁ڪڙ	-7448
شمند	-7449
ڏهين	-7450
▁غسل	-7451
▁لنا	-7452
▁پرا	-7453
ticle	-7454
▁جيڪر	-7455
▁نسلن	-7456
▁نواب	-7457
▁بندوق	-7458
▁جميله	-7459
▁مخلوق	-7460
سنواريو	-7461
▁سنڀالڻ	-7462
▁لميٽيڊ	-7463
▁مشاهدو	-7464
▁مقناطي	-7465
▁ڪوششون	-7466
بع	-7467
▁ژ	-7468
4">	-7469
▁Th	-7470
ندين	-7471
▁10.	-7472
▁اپو	-7473
▁بجد	-7474
▁شال	-7475
▁قمر	-7476
▁خانه	-7477
▁زنجي	-7478
▁عيون	-7479
▁مكان	-7480
▁گمان	-7481
▁جيئري	-7482
▁حبيبي	-7483
▁رهبري	-7484
▁ورائي	-7485
▁اسماعي	-7486
▁ڀليڪار	-7487
▁ګ	-7488
ire	-7489
روڪ	-7490
ضاب	-7491
گيٽ	-7492
▁bl	-7493
▁اجا	-7494
▁لاڏ	-7495
▁ملت	-7496
▁وبا	-7497
oogle	-7498
▁اشوف	-7499
▁اطال	-7500
▁بصري	-7501
▁جيءَ	-7502
▁عربن	-7503
▁مرزا	-7504
▁يوني	-7505
▁پوکي	-7506
▁ڪيمپ	-7507
▁اڀياس	-7508
▁اڳڪٿي	-7509
▁ديوتا	-7510
▁رنگين	-7511
▁مرحوم	-7512
▁موزون	-7513
▁بادشاھ	-7514
▁معائنو	-7515
▁مٿاڇري	-7516
▁نوڪريون	-7517
▁ڇوڪريءَ	-7518
9)	-7519
كب	-7520
▁:-	-7521
زادي	-7522
▁يبي	-7523
▁ڳچي	-7524
ليفون	-7525
▁صوبن	-7526
▁فرني	-7527
▁كبير	-7528
▁ويهه	-7529
▁چادر	-7530
▁چريو	-7531
▁ڊگھي	-7532
▁گريه	-7533
▁تجارت	-7534
▁غريبن	-7535
▁مروري	-7536
▁پرستي	-7537
▁لڳاتار	-7538
▁ورهاڱي	-7539
▁ڄاڻايو	-7540
▁سائنسدان	-7541
نڍ	-7542
ڳن	-7543
شاپ	-7544
▁آذ	-7545
▁مڱ	-7546
مهاي	-7547
▁باه	-7548
▁ترى	-7549
▁حفظ	-7550
▁لهڻ	-7551
▁ممن	-7552
▁هائ	-7553
▁يمه	-7554
▁پوڄ	-7555
▁ڪشش	-7556
انجام	-7557
▁؟؟؟؟	-7558
▁سازش	-7559
▁فيني	-7560
▁محشش	-7561
▁ٽيمن	-7562
▁ايڪشن	-7563
▁تشريح	-7564
▁وهڪري	-7565
▁خودڪشي	-7566
▁سرانجام	-7567
▁پروسيسر	-7568
▁کائيندا	-7569
▁ايڪسپريس	-7570
▁ريسٽورنٽ	-7571
▁پروفائيل	-7572
▁ڪيليفورنيا	-7573
ww	-7574
رة	-7575
َل	-7576
▁×	-7577
▁you	-7578
▁آرش	-7579
▁آور	-7580
▁ترس	-7581
▁سوٽ	-7582
▁هيم	-7583
▁يمن	-7584
▁پڇا	-7585
▁ڏسن	-7586
ٽيٽيو	-7587
▁جبلن	-7588
▁ديني	-7589
▁لوهه	-7590
▁مؤمن	-7591
منهنجو	-7592
▁اثاثن	-7593
▁باضاب	-7594
▁بمبئي	-7595
▁بنايو	-7596
▁وهڪرو	-7597
▁ويجھو	-7598
▁ٺاهيا	-7599
▁پڇاڙي	-7600
▁آزمائش	-7601
▁اسڪالر	-7602
▁خودمخت	-7603
▁رهائشي	-7604
▁روزانه	-7605
▁فرمائي	-7606
▁حڪمراني	-7607
▁مقبوليت	-7608
▁علائقائي	-7609
oy	-7610
نِ	-7611
یر	-7612
▁←	-7613
عون	-7614
نڊا	-7615
▁ڀُ	-7616
▁per	-7617
▁جمل	-7618
▁شرٽ	-7619
▁ضرب	-7620
▁لأن	-7621
▁هني	-7622
▁پوڊ	-7623
▁کوڙ	-7624
▁طالب	-7625
▁نثار	-7626
▁نوٽس	-7627
▁يعرف	-7628
▁اجتما	-7629
▁تبليغ	-7630
▁ديوان	-7631
▁شيڊول	-7632
▁صنعتن	-7633
▁قربان	-7634
▁قومون	-7635
▁وانگي	-7636
▁آڻيندو	-7637
▁اوندهه	-7638
▁دوستان	-7639
▁سليمان	-7640
▁اڪيلائي	-7641
▁نامناسب	-7642
▁هدايتون	-7643
▁تعميراتي	-7644
▁پرائيويٽ	-7645
▁ڊپارٽمينٽ	-7646
::	-7647
ord	-7648
ميس	-7649
یکس	-7650
▁عس	-7651
▁راج	-7652
▁كتب	-7653
▁محب	-7654
▁موا	-7655
▁ٽائ	-7656
▁ٽرڪ	-7657
▁پرک	-7658
▁گھڻ	-7659
▁افري	-7660
▁باني	-7661
▁رنگي	-7662
▁سوچن	-7663
▁قلعي	-7664
▁لڪير	-7665
▁ميخو	-7666
▁ٻاري	-7667
▁پردا	-7668
ايائين	-7669
▁small	-7670
▁توليد	-7671
▁معرفي	-7672
▁منسوخ	-7673
▁هٽائڻ	-7674
▁پارچه	-7675
▁عدالتي	-7676
▁فرنيچر	-7677
▁يادداشت	-7678
▁88	-7679
▁qu	-7680
لائن	-7681
لادي	-7682
▁جهت	-7683
▁سرخ	-7684
▁غني	-7685
▁مجي	-7686
▁بيئر	-7687
▁فاسٽ	-7688
▁فليٽ	-7689
▁واٽس	-7690
▁وڃون	-7691
▁ڊپٽي	-7692
▁بهتري	-7693
▁تلوار	-7694
▁محافظ	-7695
▁سيڪنڊن	-7696
▁ٺهرايو	-7697
▁ڏياريو	-7698
▁هيڏانهن	-7699
▁پيشگيري	-7700
▁هندستاني	-7701
▁پابنديون	-7702
SO	-7703
ei	-7704
les	-7705
اتا	-7706
اها	-7707
داع	-7708
هاي	-7709
▁//	-7710
▁Se	-7711
▁^_	-7712
▁نك	-7713
▁OEM	-7714
▁بحر	-7715
▁تحب	-7716
▁وما	-7717
▁وڇو	-7718
▁ڇڪي	-7719
▁اسڪر	-7720
▁انتو	-7721
▁ليول	-7722
▁محتا	-7723
▁مصري	-7724
▁ورزش	-7725
▁کاتو	-7726
▁ڪالم	-7727
▁ارتقا	-7728
▁شاعرن	-7729
▁عيسوي	-7730
▁ٻرندڙ	-7731
▁پياده	-7732
▁ترجمان	-7733
▁علائقا	-7734
▁پارٽنر	-7735
▁گهٽائي	-7736
▁لوازمات	-7737
▁واپارين	-7738
▁څ	-7739
ins	-7740
دوم	-7741
▁اى	-7742
▁كو	-7743
انين	-7744
▁ذائ	-7745
▁سٽون	-7746
▁عروج	-7747
▁منهم	-7748
▁هنيو	-7749
▁ٽڪرا	-7750
▁چالي	-7751
▁ھيءَ	-7752
▁بيڪار	-7753
▁روانا	-7754
▁زمانو	-7755
▁سينسر	-7756
▁محمود	-7757
▁منطقي	-7758
▁نينگر	-7759
▁ايڊيشن	-7760
▁عجبتني	-7761
▁ماضيءَ	-7762
▁پرينءَ	-7763
▁ڪردارن	-7764
سة	-7765
اسم	-7766
زوج	-7767
سنڌ	-7768
سٽن	-7769
صلي	-7770
▁II	-7771
▁ac	-7772
▁تَ	-7773
▁ٺا	-7774
هيءَ	-7775
ھيون	-7776
▁are	-7777
▁جهو	-7778
▁سيف	-7779
▁شيو	-7780
▁عيش	-7781
▁نوع	-7782
▁هنگ	-7783
▁پٽن	-7784
▁ڀاء	-7785
▁بصير	-7786
▁جذبو	-7787
▁دادو	-7788
▁فليش	-7789
▁نوڪر	-7790
▁هوند	-7791
▁ڪوڙو	-7792
ٽيٽيوٽ	-7793
▁برباد	-7794
▁تعبير	-7795
▁عناصر	-7796
▁وراڻي	-7797
▁اطالوي	-7798
▁مزيدار	-7799
▁پڙهندو	-7800
▁ڳنڍيندڙ	-7801
ice	-7802
upp	-7803
اول	-7804
لود	-7805
ِين	-7806
▁42	-7807
▁46	-7808
لڊنگ	-7809
▁Com	-7810
▁،،،	-7811
▁الغ	-7812
▁اڇي	-7813
▁اڙي	-7814
▁دقي	-7815
▁شاد	-7816
▁گھو	-7817
▁ايام	-7818
▁تحفو	-7819
▁جمعه	-7820
▁ذيلي	-7821
▁فكره	-7822
▁مانس	-7823
▁هفتا	-7824
▁گذار	-7825
▁ترڪيب	-7826
▁شاپنگ	-7827
▁طبيعي	-7828
▁ممتاز	-7829
▁درستگي	-7830
▁فئڪٽري	-7831
▁فاریکس	-7832
▁پيشرفت	-7833
▁سوچيندو	-7834
▁پيامهاي	-7835
▁پرسپوليس	-7836
AN	-7837
IN	-7838
ـٍ	-7839
ays	-7840
ron	-7841
ندن	-7842
ڪرا	-7843
▁41	-7844
▁چؤ	-7845
هانت	-7846
پرست	-7847
▁امس	-7848
▁ٿوڪ	-7849
▁چري	-7850
▁ڍنڍ	-7851
انگري	-7852
سائين	-7853
▁آڪسي	-7854
▁تاثر	-7855
▁زمري	-7856
▁ضمني	-7857
▁هفتو	-7858
▁بيشتر	-7859
▁ماستر	-7860
▁مينيو	-7861
▁وڌندي	-7862
انگريزي	-7863
▁آزمائي	-7864
▁لاڳاپو	-7865
▁هوسٽنگ	-7866
▁کائيندو	-7867
7)	-7868
ضه	-7869
▁ټ	-7870
نڊو	-7871
▁59	-7872
▁77	-7873
▁:$	-7874
▁fl	-7875
▁آڷ	-7876
▁بَ	-7877
▁مگ	-7878
▁سٽا	-7879
▁شوف	-7880
▁فوڊ	-7881
▁قصه	-7882
▁لهم	-7883
▁ڪڪڙ	-7884
جانءِ	-7885
فوتكم	-7886
▁اوري	-7887
▁مؤثر	-7888
▁مدير	-7889
▁مردم	-7890
▁نگار	-7891
▁وَرو	-7892
▁يزيد	-7893
▁گھري	-7894
▁؟؟؟؟؟	-7895
▁برائي	-7896
▁بشمول	-7897
▁تفريح	-7898
▁زياده	-7899
▁هٽايو	-7900
▁Google	-7901
▁آپريٽر	-7902
▁دعائون	-7903
▁نهاريو	-7904
▁حقيقتون	-7905
▁انسٽيٽيوٽ	-7906
لة	-7907
لڻ	-7908
▁❤	-7909
rad	-7910
ئيٽ	-7911
هوم	-7912
▁آک	-7913
▁120	-7914
▁برد	-7915
▁تسل	-7916
▁لڳڻ	-7917
▁پهن	-7918
▁2005	-7919
▁اداس	-7920
▁انتى	-7921
▁باشد	-7922
▁بخشي	-7923
▁فونز	-7924
▁ويڪس	-7925
▁گارن	-7926
▁اجايو	-7927
▁بلاگر	-7928
▁سنگين	-7929
▁فرزند	-7930
▁مارڪس	-7931
▁منسوب	-7932
▁هائيڊ	-7933
▁تنھنجو	-7934
▁وساريو	-7935
▁پراڊڪٽس	-7936
عع	-7937
َي	-7938
▁))	-7939
▁حن	-7940
اتين	-7941
باره	-7942
جڏهن	-7943
ستگي	-7944
وڌيڪ	-7945
▁Ind	-7946
▁اڱڻ	-7947
▁بسر	-7948
▁صفر	-7949
▁صلح	-7950
▁ضيا	-7951
▁منز	-7952
▁ساڄي	-7953
▁مرڪب	-7954
▁پندر	-7955
▁گھڙي	-7956
▁افعال	-7957
▁بچاءُ	-7958
▁تعلقي	-7959
▁سبسڪر	-7960
▁پريمي	-7961
▁پيشينه	-7962
▁چيائون	-7963
لر	-7964
قان	-7965
▁بئ	-7966
▁ذه	-7967
▁ڦو	-7968
ائنگ	-7969
ماڪي	-7970
▁[1]	-7971
▁برج	-7972
▁ليپ	-7973
▁مسز	-7974
▁مُن	-7975
▁نيت	-7976
▁پزش	-7977
▁پوش	-7978
▁اوور	-7979
▁تعين	-7980
▁وجهڻ	-7981
▁دانهن	-7982
▁رسالي	-7983
▁سگھيو	-7984
▁عنصرن	-7985
▁محتاط	-7986
▁نداري	-7987
▁نيوزي	-7988
ocurren	-7989
▁صحافين	-7990
▁مسافرت	-7991
▁ٽارگيٽ	-7992
▁پروٽين	-7993
▁article	-7994
▁ٽيليفون	-7995
0)	-7996
ari	-7997
▁57	-7998
▁نٽ	-7999
="2.	-8000
less	-8001
ديات	-8002
▁تنا	-8003
▁حتي	-8004
▁خري	-8005
▁عيو	-8006
▁ڊيز	-8007
▁ڪرو	-8008
▁اسٽر	-8009
▁بائي	-8010
▁سفيد	-8011
▁متحد	-8012
▁مولا	-8013
▁ورجن	-8014
▁گويد	-8015
▁اهڙيء	-8016
▁عجبني	-8017
▁مطالبن	-8018
▁نڪرندو	-8019
▁پائوڊر	-8020
▁Bitcoin	-8021
ؤن	-8022
اذ	-8023
ile	-8024
ميه	-8025
▁-1	-8026
▁تغ	-8027
▁َ،	-8028
▁250	-8029
▁تكم	-8030
▁صاب	-8031
▁كدا	-8032
▁لون	-8033
▁هوت	-8034
ابندي	-8035
▁اُٿي	-8036
▁بالي	-8037
▁دستي	-8038
▁شكلي	-8039
▁صورة	-8040
▁مجيد	-8041
▁مشرو	-8042
▁معاك	-8043
▁نكته	-8044
▁هندن	-8045
▁واضع	-8046
▁وليد	-8047
▁ڌنڌو	-8048
▁inter	-8049
▁المنت	-8050
▁سانچو	-8051
▁لائنز	-8052
▁لڪائي	-8053
▁معرفت	-8054
▁نمونن	-8055
▁پوائن	-8056
▁تحقيقي	-8057
▁مزدورن	-8058
▁اپوزيشن	-8059
▁باضابطه	-8060
اهل	-8061
راس	-8062
▁6-	-8063
▁ذك	-8064
▁ڦي	-8065
ated	-8066
ڪشاف	-8067
▁وني	-8068
▁ٺهڻ	-8069
ااااا	-8070
▁انحص	-8071
▁بڻيو	-8072
▁جھاز	-8073
▁دارد	-8074
▁راست	-8075
▁روزو	-8076
▁سفرن	-8077
▁نائب	-8078
▁نارو	-8079
▁نيڪي	-8080
▁ٽاور	-8081
▁کنيد	-8082
▁اڏاوت	-8083
▁عندنا	-8084
▁فائبر	-8085
▁فرينچ	-8086
▁پارسي	-8087
▁ڪيمرا	-8088
▁انڊيڪس	-8089
▁انڪشاف	-8090
▁سرزمين	-8091
▁ڪينيڊا	-8092
▁اينديون	-8093
▁هفتيوار	-8094
▁اسرائيلي	-8095
آت	-8096
یل	-8097
ائد	-8098
جلس	-8099
ضيع	-8100
منى	-8101
▁[/	-8102
▁ڪڇ	-8103
▁گس	-8104
▁بحب	-8105
▁دهي	-8106
▁ذوق	-8107
▁سلا	-8108
▁سوڀ	-8109
▁پست	-8110
▁ڄڻن	-8111
▁2006	-8112
▁السي	-8113
▁اُھو	-8114
▁حالي	-8115
▁مطلق	-8116
▁ٻيلي	-8117
▁صدارت	-8118
▁علامه	-8119
▁پلانٽ	-8120
▁گياهي	-8121
▁آرامده	-8122
▁انٽيلي	-8123
▁عمارتن	-8124
▁موضوعن	-8125
▁نفسيات	-8126
▁مالياتي	-8127
ue	-8128
أل	-8129
صه	-8130
مع	-8131
ash	-8132
ber	-8133
ond	-8134
نيس	-8135
ھور	-8136
▁51	-8137
▁آق	-8138
▁سھ	-8139
▁وخ	-8140
▁اوك	-8141
▁اڻڻ	-8142
▁جرا	-8143
▁معد	-8144
▁گاه	-8145
▁ايشي	-8146
▁جهلي	-8147
▁فهمت	-8148
▁مبرو	-8149
▁مياد	-8150
▁پراس	-8151
▁پنجم	-8152
▁چوڻي	-8153
▁مشرقي	-8154
▁مشكله	-8155
▁سامعين	-8156
َّ	-8157
Bet	-8158
فيٰ	-8159
واع	-8160
ڪاٽ	-8161
▁7:	-8162
▁رغ	-8163
▁سق	-8164
▁Mac	-8165
▁بيڊ	-8166
▁سرن	-8167
▁سما	-8168
▁ڪٿا	-8169
▁comp	-8170
▁آگهي	-8171
▁بليڪ	-8172
▁تفري	-8173
▁ساڻن	-8174
▁لائٽ	-8175
▁معزز	-8176
▁مهدي	-8177
▁مڙني	-8178
▁واپر	-8179
▁ٽوڙڻ	-8180
▁ڏيهه	-8181
▁تجديد	-8182
▁	-8183
ي	-8184
ا	-8185
ه	-8186
ن	-8187
و	-8188
ر	-8189
م	-8190
ل	-8191
ت	-8192
س	-8193
ج	-8194
ڪ	-8195
د	-8196
ب	-8197
.	-8198
پ	-8199
آ	-8200
ئ	-8201
ک	-8202
ع	-8203
ڻ	-8204
ف	-8205
گ	-8206
ش	-8207
ق	-8208
،	-8209
ح	-8210
ٽ	-8211
ٿ	-8212
ڏ	-8213
ـ	-8214
ز	-8215
خ	-8216
۾	-8217
ء	-8218
چ	-8219
ص	-8220
۽	-8221
ھ	-8222
ط	-8223
ڊ	-8224
ڙ	-8225
ِ	-8226
ك	-8227
ڳ	-8228
ٻ	-8229
"	-8230
ڌ	-8231
:	-8232
َ	-8233
e	-8234
1	-8235
ض	-8236
ڇ	-8237
0	-8238
ڀ	-8239
a	-8240
ٺ	-8241
ظ	-8242
i	-8243
2	-8244
t	-8245
o	-8246
ذ	-8247
ُ	-8248
r	-8249
n	-8250
غ	-8251
s	-8252
؟	-8253
-	-8254
)	-8255
(	-8256
ث	-8257
ڃ	-8258
l	-8259
!	-8260
ڄ	-8261
3	-8262
5	-8263
d	-8264
c	-8265
9	-8266
u	-8267
4	-8268
,	-8269
ى	-8270
ة	-8271
m	-8272
8	-8273
6	-8274
h	-8275
7	-8276
p	-8277
ڍ	-8278
g	-8279
أ	-8280
S	-8281
y	-8282
ی	-8283
A	-8284
۔	-8285
'	-8286
b	-8287
>	-8288
/	-8289
k	-8290
C	-8291
<	-8292
w	-8293
M	-8294
T	-8295
ہ	-8296
f	-8297
_	-8298
P	-8299
D	-8300
I	-8301
v	-8302
؛	-8303
=	-8304
N	-8305
B	-8306
O	-8307
E	-8308
*	-8309
x	-8310
ڦ	-8311
L	-8312
ؤ	-8313
ڱ	-8314
G	-8315
R	-8316
ٰ	-8317
H	-8318
[	-8319
]	-8320
F	-8321
U	-8322
W	-8323
إ	-8324
ٌ	-8325
X	-8326
ً	-8327
V	-8328
z	-8329
ّ	-8330
K	-8331
^	-8332
٪	-8333
ے	-8334
•	-8335
$	-8336
ژ	-8337
ٍ	-8338
ٹ	-8339
j	-8340
?	-8341
+	-8342
#	-8343
~	-8344
۱	-8345
J	-8346
Y	-8347
ْ	-8348
ې	-8349
।	-8350
Q	-8351
ڷ	-8352
Z	-8353
😂	-8354
@	-8355
ۈ	-8356
۲	-8357
ڈ	-8358
%	-8359
ړ	-8360
q	-8361
۰	-8362
ں	-8363
&	-8364
{	-8365
}	-8366
٠	-8367
;	-8368
۳	-8369
א	-8370
·	-8371
١	-8372
۴	-8373
ګ	-8374
۵	-8375
ډ	-8376
٢	-8377
ځ	-8378
ږ	-8379
ټ	-8380
ڵ	-8381
ڑ	-8382
●	-8383
۹	-8384
ښ	-8385
्	-8386
°	-8387
️	-8388
۸	-8389
£	-8390
ा	-8391
♥	-8392
❤	-8393
र	-8394
څ	-8395
€	-8396
×	-8397
۶	-8398
۷	-8399
🙂	-8400
क	-8401
٣	-8402
←	-8403
ڼ	-8404
→	-8405
ٱ	-8406
٥	-8407
ۍ	-8408
ि	-8409
٤	-8410
ो	-8411
म	-8412
٦	-8413
►	-8414
ב	-8415
ڛ	-8416
′	-8417
é	-8418
न	-8419
٩	-8420
ڹ	-8421
स	-8422
ۡ	-8423
त	-8424
٨	-8425
य	-8426
ٖ	-8427
ּ	-8428
ٔ	-8429
ۅ	-8430
े	-8431
ल	-8432
♪	-8433
ۆ	-8434
♡	-8435
®	-8436
Ô	-8437
ٴ	-8438
ۑ	-8439
ღ	-8440
◄	-8441
٫	-8442
©	-8443
٧	-8444
प	-8445
ۉ	-8446
व	-8447
😉	-8448
§	-8449
а	-8450
🤣	-8451
ह	-8452
ۃ	-8453
☺	-8454
ڎ	-8455
ט	-8456
ڸ	-8457
ۊ	-8458
द	-8459
н	-8460
😁	-8461
è	-8462
ü	-8463
↑	-8464
♫	-8465
פ	-8466
›	-8467
😀	-8468
ु	-8469
â	-8470
î	-8471
ı	-8472
ڤ	-8473
≤	-8474
ڜ	-8475
о	-8476
ٗ	-8477
◆	-8478
и	-8479
ç	-8480
İ	-8481
ٓ	-8482
à	-8483
ग	-8484
ट	-8485
ۓ	-8486
💔	-8487
😍	-8488
★	-8489
ी	-8490
р	-8491
٬	-8492
ş	-8493
̈	-8494
ؑ	-8495
с	-8496
ڶ	-8497
ۀ	-8498
ێ	-8499
ब	-8500
е	-8501
ڣ	-8502
😭	-8503
כ	-8504
ݪ	-8505
ज	-8506
Ş	-8507
ٕ	-8508
उ	-8509
छ	-8510
ö	-8511
ࢪ	-8512
、	-8513
á	-8514
ڕ	-8515
श	-8516
॥	-8517
Ü	-8518
ω	-8519
м	-8520
т	-8521
ू	-8522
±	-8523
ै	-8524
😅	-8525
🙁	-8526
у	-8527
ۂ	-8528
ۧ	-8529
♦	-8530
ン	-8531
語	-8532
̷	-8533
ं	-8534
シ	-8535
д	-8536
ۄ	-8537
ۋ	-8538
√	-8539
л	-8540
ל	-8541
ٳ	-8542
ۿ	-8543
ड	-8544
ध	-8545
ド	-8546
؏	-8547
٘	-8548
‹	-8549
≥	-8550
😊	-8551
¤	-8552
ˇ	-8553
¢	-8554
ê	-8555
ؿ	-8556
ए	-8557
भ	-8558
ष	-8559
【	-8560
ツ	-8561
💞	-8562
¬	-8563
ë	-8564
α	-8565
к	-8566
٭	-8567
✿	-8568
】	-8569
﴾	-8570
﴿	-8571
👍	-8572
ā	-8573
ٚ	-8574
ە	-8575
ई	-8576
☆	-8577
¦	-8578
¿	-8579
ó	-8580
û	-8581
μ	-8582
ο	-8583
в	-8584
ٲ	-8585
ڝ	-8586
‐	-8587
⁄	-8588
з	-8589
ػ	-8590
ä	-8591
͜	-8592
β	-8593
ڒ	-8594
अ	-8595
च	-8596
⇄	-8597
─	-8598
🏻	-8599
ñ	-8600
х	-8601
ү	-8602
ա	-8603
ण	-8604
≈	-8605
■	-8606
😆	-8607
ž	-8608
ы	-8609
ؽ	-8610
ڠ	-8611
ࢦ	-8612
फ	-8613
。	-8614
菜	-8615
👌	-8616
Ø	-8617
÷	-8618
й	-8619
ֿ	-8620
ٛ	-8621
ڂ	-8622
आ	-8623
ख	-8624
⋆	-8625
🔥	-8626
😜	-8627
\	-8628
ğ	-8629
š	-8630
̨	-8631
б	-8632
г	-8633
ۇ	-8634
थ	-8635
ृ	-8636
🌹	-8637
¡	-8638
í	-8639
ô	-8640
̲	-8641
ᓄ	-8642
‡	-8643
▌	-8644
✅	-8645
✌	-8646
💘	-8647
Ç	-8648
̃	-8649
̧	-8650
ե	-8651
ݩ	-8652
ে	-8653
✔	-8654
❥	-8655
💙	-8656
😘	-8657
😛	-8658
̣	-8659
͡	-8660
ζ	-8661
ι	-8662
п	-8663
я	-8664
і	-8665
י	-8666
נ	-8667
↓	-8668
▐	-8669
◕	-8670
☀	-8671
✓	-8672
⭐	-8673
💕	-8674
🙈	-8675
Å	-8676
ï	-8677
č	-8678
œ	-8679
ξ	-8680
Ґ	-8681
ؐ	-8682
ڿ	-8683
ۦ	-8684
۩	-8685
۫	-8686
इ	-8687
ন	-8688
๑	-8689
♀	-8690
✋	-8691
✨	-8692
🌸	-8693
💗	-8694
😄	-8695
😇	-8696
🤔	-8697
Ö	-8698
Š	-8699
ː	-8700
ρ	-8701
ڨ	-8702
ँ	-8703
র	-8704
া	-8705
◊	-8706
♠	-8707
❣	-8708
音	-8709
😔	-8710
😝	-8711
😹	-8712
🙏	-8713
å	-8714
͠	-8715
Φ	-8716
Ω	-8717
ε	-8718
σ	-8719
ի	-8720
ն	-8721
ם	-8722
מ	-8723
ڭ	-8724
ۛ	-8725
ম	-8726
্	-8727
๋	-8728
※	-8729
♩	-8730
」	-8731
🌷	-8732
🖤	-8733
Ž	-8734
ɪ	-8735
ˈ	-8736
̤	-8737
η	-8738
ς	-8739
ч	-8740
ш	-8741
ո	-8742
ս	-8743
ր	-8744
ו	-8745
ע	-8746
ۗ	-8747
۞	-8748
ۤ	-8749
ۨ	-8750
ठ	-8751
ু	-8752
ஐ	-8753
ా	-8754
น	-8755
†	-8756
‿	-8757
▶	-8758
▷	-8759
▼	-8760
◇	-8761
☹	-8762
☻	-8763
♣	-8764
❀	-8765
❧	-8766
➡	-8767
⠀	-8768
「	-8769
・	-8770
🇩	-8771
🏃	-8772
💜	-8773
📷	-8774
😎	-8775
🥺	-8776
Á	-8777
ý	-8778
ć	-8779
ō	-8780
ɑ	-8781
̇	-8782
̶	-8783
ί	-8784
π	-8785
ҳ	-8786
ד	-8787
ؓ	-8788
ؼ	-8789
ٜ	-8790
ٞ	-8791
ٟ	-8792
ڞ	-8793
ܢ	-8794
ক	-8795
ত	-8796
দ	-8797
୭	-8798
า	-8799
ọ	-8800
⇣	-8801
⏪	-8802
▲	-8803
☝	-8804
♯	-8805
⚘	-8806
⚡	-8807
✯	-8808
🏼	-8809
😢	-8810
🤩	-8811
🥇	-8812
¶	-8813
ã	-8814
ð	-8815
ú	-8816
ē	-8817
ł	-8818
ż	-8819
ə	-8820
̅	-8821
̵	-8822
τ	-8823
ώ	-8824
ж	-8825
ц	-8826
э	-8827
մ	-8828
ւ	-8829
ן	-8830
ؒ	-8831
ٙ	-8832
ٝ	-8833
ڋ	-8834
ڔ	-8835
ۏ	-8836
ެ	-8837
झ	-8838
న	-8839
ಿ	-8840
്	-8841
ี	-8842
๛	-8843
າ	-8844
ᬼ	-8845
ị	-8846
⃣	-8847
−	-8848
⊙	-8849
╝	-8850
▪	-8851
◉	-8852
◎	-8853
◦	-8854
♍	-8855
✗	-8856
✘	-8857
✦	-8858
『	-8859
』	-8860
🇮	-8861
🇿	-8862
🌚	-8863
🌟	-8864
🍼	-8865
💖	-8866
💚	-8867
💪	-8868
💯	-8869
😱	-8870
😻	-8871
🦋	-8872
Ã	-8873
ø	-8874
ę	-8875
Ğ	-8876
Ħ	-8877
ʊ	-8878
̄	-8879
̐	-8880
θ	-8881
ν	-8882
φ	-8883
М	-8884
С	-8885
ь	-8886
є	-8887
հ	-8888
չ	-8889
ה	-8890
ז	-8891
ר	-8892
ٮ	-8893
ۜ	-8894
ۣ	-8895
۪	-8896
ौ	-8897
খ	-8898
য	-8899
়	-8900
ো	-8901
ਾ	-8902
ં	-8903
હ	-8904
ం	-8905
ම	-8906
ม	-8907
↯	-8908
∀	-8909
∫	-8910
╫	-8911
◀	-8912
♂	-8913
♬	-8914
✖	-8915
〇	-8916
よ	-8917
り	-8918
ミ	-8919
发	-8920
嘅	-8921
的	-8922
𐄒	-8923
🌿	-8924
🎼	-8925
🏾	-8926
👉	-8927
👊	-8928
👨	-8929
👩	-8930
💫	-8931
📚	-8932
🔞	-8933
🕘	-8934
😈	-8935
😋	-8936
😌	-8937
😒	-8938
😠	-8939
😦	-8940
😨	-8941
😪	-8942
😵	-8943
🙊	-8944
🤍	-8945
🤭	-8946
🧸	-8947
ò	-8948
Ă	-8949
ą	-8950
Đ	-8951
ě	-8952
ħ	-8953
Ł	-8954
ś	-8955
ƒ	-8956
ɛ	-8957
ˌ	-8958
̀	-8959
̊	-8960
̥	-8961
̯	-8962
γ	-8963
υ	-8964
ό	-8965
ϻ	-8966
Б	-8967
В	-8968
Т	-8969
Х	-8970
Я	-8971
Ҳ	-8972
Բ	-8973
տ	-8974
ח	-8975
ש	-8976
ڽ	-8977
ۙ	-8978
ۼ	-8979
ݛ	-8980
ݦ	-8981
ः	-8982
ব	-8983
ল	-8984
ি	-8985
ੀ	-8986
ੰ	-8987
ર	-8988
ે	-8989
ો	-8990
క	-8991
ల	-8992
వ	-8993
ి	-8994
ు	-8995
్	-8996
ನ	-8997
ന	-8998
න	-8999
ස	-9000
්	-9001
ก	-9002
ค	-9003
ฉ	-9004
ณ	-9005
ด	-9006
ั	-9007
ุ	-9008
ไ	-9009
໑	-9010
Ⴢ	-9011
ე	-9012
ი	-9013
ለ	-9014
ው	-9015
ᓅ	-9016
ᭁ	-9017
Ṁ	-9018
ṇ	-9019
ṣ	-9020
ṭ	-9021
ẹ	-9022
₥	-9023
₪	-9024
↔	-9025
≧	-9026
⌘	-9027
╚	-9028
○	-9029
☂	-9030
☑	-9031
☜	-9032
☼	-9033
♚	-9034
♛	-9035
⚫	-9036
✍	-9037
❌	-9038
❗	-9039
❦	-9040
➢	-9041
〗	-9042
う	-9043
の	-9044
を	-9045
ノ	-9046
ュ	-9047
可	-9048
發	-9049
﮼	-9050
︎	-9051
🌤	-9052
🌻	-9053
🍀	-9054
🎀	-9055
🏿	-9056
🐸	-9057
👀	-9058
👈	-9059
👤	-9060
💋	-9061
💐	-9062
💛	-9063
💻	-9064
🔸	-9065
😐	-9066
😽	-9067
🤨	-9068
🦦	-9069
|	-9070
¥	-9071
À	-9072
É	-9073
Ù	-9074
Ú	-9075
ì	-9076
õ	-9077
Ā	-9078
ă	-9079
Ė	-9080
Į	-9081
ť	-9082
ů	-9083
Ǝ	-9084
ƛ	-9085
ơ	-9086
Ʀ	-9087
ʀ	-9088
ʒ	-9089
ʻ	-9090
̉	-9091
̍	-9092
̳	-9093
Α	-9094
Ξ	-9095
Υ	-9096
έ	-9097
δ	-9098
λ	-9099
Ϟ	-9100
Д	-9101
О	-9102
П	-9103
Р	-9104
У	-9105
Ч	-9106
ъ	-9107
ю	-9108
҉	-9109
ґ	-9110
ө	-9111
Ի	-9112
Կ	-9113
է	-9114
ը	-9115
լ	-9116
խ	-9117
կ	-9118
պ	-9119
ռ	-9120
ց	-9121
ֆ	-9122
ך	-9123
؋	-9124
؍	-9125
ؾ	-9126
ڲ	-9127
ۘ	-9128
۬	-9129
ܓ	-9130
ݖ	-9131
ݢ	-9132
ݥ	-9133
ݨ	-9134
ࡗ	-9135
ञ	-9136
ढ	-9137
ॡ	-9138
আ	-9139
ঔ	-9140
ট	-9141
ড	-9142
স	-9143
ਂ	-9144
ਧ	-9145
ਬ	-9146
ਰ	-9147
ਸ	-9148
ਿ	-9149
ક	-9150
ચ	-9151
ટ	-9152
ા	-9153
િ	-9154
ી	-9155
ஓ	-9156
ఉ	-9157
ద	-9158
య	-9159
స	-9160
ీ	-9161
ಈ	-9162
ಲ	-9163
ೋ	-9164
್	-9165
ങ	-9166
ി	-9167
ි	-9168
ถ	-9169
ท	-9170
ย	-9171
ส	-9172
ๅ	-9173
่	-9174
้	-9175
້	-9176
ཻ	-9177
࿑	-9178
დ	-9179
რ	-9180
ს	-9181
ᄑ	-9182
ᄒ	-9183
ᅲ	-9184
ሂ	-9185
ህ	-9186
ል	-9187
ስ	-9188
ቅ	-9189
ን	-9190
እ	-9191
ይ	-9192
ድ	-9193
ᓆ	-9194
ᓘ	-9195
ន	-9196
ᴗ	-9197
Ṃ	-9198
Ẹ	-9199
Ọ	-9200
ố	-9201
ở	-9202
ỳ	-9203
‛	-9204
‟	-9205
₩	-9206
₽	-9207
⃫	-9208
↩	-9209
↴	-9210
⇠	-9211
⇡	-9212
⇦	-9213
∞	-9214
≠	-9215
≦	-9216
╦	-9217
╬	-9218
▽	-9219
◈	-9220
◍	-9221
◣	-9222
◩	-9223
◪	-9224
☘	-9225
♉	-9226
♌	-9227
♢	-9228
♤	-9229
⚽	-9230
✈	-9231
✧	-9232
✫	-9233
✮	-9234
✴	-9235
✷	-9236
❓	-9237
❕	-9238
❖	-9239
❝	-9240
❞	-9241
❢	-9242
⭕	-9243
〖	-9244
い	-9245
じ	-9246
ほ	-9247
コ	-9248
タ	-9249
ト	-9250
パ	-9251
ピ	-9252
ー	-9253
ㄨ	-9254
上	-9255
以	-9256
你	-9257
我	-9258
発	-9259
真	-9260
者	-9261
ꓘ	-9262
나	-9263
법	-9264
직	-9265
𓂅	-9266
𖣴	-9267
🇨	-9268
🇬	-9269
🇶	-9270
🇸	-9271
🇺	-9272
🌆	-9273
🌈	-9274
🌼	-9275
🎈	-9276
🎧	-9277
🎵	-9278
🎻	-9279
🐒	-9280
🐠	-9281
🐢	-9282
👆	-9283
👇	-9284
👎	-9285
👑	-9286
💅	-9287
💍	-9288
💓	-9289
💝	-9290
💠	-9291
💡	-9292
💮	-9293
💰	-9294
🔒	-9295
🔕	-9296
🔫	-9297
🔱	-9298
🔴	-9299
🔶	-9300
🔹	-9301
🔺	-9302
🖕	-9303
😃	-9304
😏	-9305
😕	-9306
😤	-9307
😬	-9308
😮	-9309
😯	-9310
😳	-9311
😿	-9312
🙄	-9313
🚶	-9314
🛫	-9315
🤎	-9316
🤐	-9317
🤓	-9318
🤤	-9319
🤧	-9320
🤪	-9321
🥀	-9322
🥰	-9323
🦼	-9324
🧐	-9325
Â	-9326
È	-9327
Ð	-9328
Ó	-9329
Û	-9330
ß	-9331
æ	-9332
ù	-9333
þ	-9334
Ą	-9335
ĉ	-9336
Č	-9337
Ď	-9338
đ	-9339
ė	-9340
Ę	-9341
Ģ	-9342
Ĥ	-9343
ī	-9344
į	-9345
ĵ	-9346
ĸ	-9347
ĺ	-9348
ļ	-9349
Ň	-9350
ŋ	-9351
Ō	-9352
ŏ	-9353
Ř	-9354
ř	-9355
Ŝ	-9356
ŝ	-9357
Ť	-9358
ŧ	-9359
ŭ	-9360
ű	-9361
ź	-9362
Ż	-9363
Ɓ	-9364
Ɠ	-9365
Ɣ	-9366
Ɲ	-9367
Ƴ	-9368
ƽ	-9369
ǟ	-9370
ǰ	-9371
Ǿ	-9372
ȅ	-9373
Ȋ	-9374
ș	-9375
ț	-9376
ɕ	-9377
ɞ	-9378
ɣ	-9379
ɨ	-9380
ɴ	-9381
ʃ	-9382
ʔ	-9383
ʚ	-9384
ʞ	-9385
ˆ	-9386
˹	-9387
˼	-9388
́	-9389
̋	-9390
̌	-9391
̖	-9392
̗	-9393
̝	-9394
̠	-9395
̩	-9396
̬	-9397
̮	-9398
̸	-9399
͛	-9400
ͦ	-9401
Ά	-9402
Έ	-9403
ΐ	-9404
Η	-9405
Θ	-9406
Ι	-9407
Μ	-9408
Ρ	-9409
Σ	-9410
Ψ	-9411
Ϋ	-9412
ά	-9413
ή	-9414
κ	-9415
χ	-9416
Ј	-9417
Ћ	-9418
А	-9419
Г	-9420
Й	-9421
К	-9422
ј	-9423
ћ	-9424
Ѣ	-9425
Ѧ	-9426
Ҏ	-9427
қ	-9428
Ҩ	-9429
Ұ	-9430
ҷ	-9431
ҽ	-9432
Ӎ	-9433
Պ	-9434
բ	-9435
ձ	-9436
ղ	-9437
յ	-9438
վ	-9439
փ	-9440
ք	-9441
ִ	-9442
ג	-9443
ס	-9444
צ	-9445
ת	-9446
؎	-9447
ٯ	-9448
ڐ	-9449
ڗ	-9450
ڟ	-9451
ڰ	-9452
ۚ	-9453
ۢ	-9454
ۥ	-9455
ۺ	-9456
܀	-9457
ܒ	-9458
ܨ	-9459
ܪ	-9460
ܵ	-9461
ݐ	-9462
ݒ	-9463
ݘ	-9464
ݧ	-9465
ހ	-9466
ވ	-9467
ߙ	-9468
࣪	-9469
ओ	-9470
घ	-9471
ङ	-9472
़	-9473
ॉ	-9474
॒	-9475
०	-9476
१	-9477
८	-9478
অ	-9479
ই	-9480
উ	-9481
এ	-9482
ঘ	-9483
ছ	-9484
জ	-9485
ধ	-9486
ভ	-9487
শ	-9488
ৌ	-9489
ਇ	-9490
ਈ	-9491
ਕ	-9492
ਜ	-9493
ਥ	-9494
ਪ	-9495
ਮ	-9496
ਲ	-9497
ਹ	-9498
ੇ	-9499
ੈ	-9500
ੋ	-9501
ੱ	-9502
ખ	-9503
છ	-9504
ડ	-9505
થ	-9506
ધ	-9507
પ	-9508
સ	-9509
ુ	-9510
୪	-9511
ற	-9512
ఇ	-9513
ఎ	-9514
చ	-9515
డ	-9516
ధ	-9517
ప	-9518
హ	-9519
ే	-9520
ో	-9521
ಂ	-9522
ಕ	-9523
ಡ	-9524
ಧ	-9525
ಸ	-9526
ഉ	-9527
ത	-9528
ധ	-9529
പ	-9530
ള	-9531
സ	-9532
ආ	-9533
උ	-9534
ක	-9535
ය	-9536
ල	-9537
ව	-9538
ශ	-9539
ෑ	-9540
ෙ	-9541
บ	-9542
ป	-9543
พ	-9544
ล	-9545
ห	-9546
อ	-9547
ฮ	-9548
ะ	-9549
ิ	-9550
เ	-9551
ກ	-9552
ຂ	-9553
ຈ	-9554
ຖ	-9555
ທ	-9556
ນ	-9557
ພ	-9558
ມ	-9559
ຢ	-9560
ະ	-9561
ົ	-9562
ເ	-9563
່	-9564
༄	-9565
༅	-9566
༺	-9567
࿅	-9568
ა	-9569
თ	-9570
კ	-9571
მ	-9572
ნ	-9573
უ	-9574
ქ	-9575
ላ	-9576
ም	-9577
ሩ	-9578
ር	-9579
ሳ	-9580
በ	-9581
ቦ	-9582
ታ	-9583
ት	-9584
ነ	-9585
ኔ	-9586
ኝ	-9587
አ	-9588
ወ	-9589
ዎ	-9590
ዘ	-9591
ዴ	-9592
ጋ	-9593
ጎ	-9594
ጠ	-9595
ጣ	-9596
ጥ	-9597
ፈ	-9598
ፍ	-9599
ᑐ	-9600
ញ	-9601
ព	-9602
ភ	-9603
េ	-9604
ំ	-9605
្	-9606
᪣	-9607
᭄	-9608
ᴀ	-9609
ᴋ	-9610
᷂	-9611
ḑ	-9612
ḭ	-9613
Ḿ	-9614
ḿ	-9615
Ṉ	-9616
ṛ	-9617
Ṝ	-9618
Ṧ	-9619
ṩ	-9620
Ṽ	-9621
Ạ	-9622
Ể	-9623
ệ	-9624
Ụ	-9625
ụ	-9626
ỹ	-9627
Ἄ	-9628
⁀	-9629
₦	-9630
₳	-9631
₹	-9632
₼	-9633
⃕	-9634
⃟	-9635
⃢	-9636
℘	-9637
↙	-9638
↜	-9639
↝	-9640
↣	-9641
↤	-9642
↫	-9643
↲	-9644
↷	-9645
⇐	-9646
⇜	-9647
⇢	-9648
∂	-9649
∇	-9650
∟	-9651
∴	-9652
≯	-9653
⏆	-9654
⏩	-9655
┇	-9656
═	-9657
▂	-9658
▃	-9659
□	-9660
▫	-9661
◝	-9662
◤	-9663
◥	-9664
◾	-9665
☁	-9666
☃	-9667
☄	-9668
☔	-9669
☚	-9670
☛	-9671
☠	-9672
☽	-9673
☿	-9674
♃	-9675
♄	-9676
♈	-9677
♊	-9678
♋	-9679
♎	-9680
♏	-9681
♒	-9682
♓	-9683
♭	-9684
⚒	-9685
⚠	-9686
⛳	-9687
⛺	-9688
✇	-9689
✜	-9690
✞	-9691
✭	-9692
✳	-9693
❒	-9694
❔	-9695
❶	-9696
➓	-9697
➘	-9698
➟	-9699
➥	-9700
➬	-9701
⦿	-9702
⬅	-9703
⬆	-9704
⬸	-9705
⸁	-9706
⸙	-9707
〈	-9708
〉	-9709
》	-9710
あ	-9711
え	-9712
お	-9713
か	-9714
が	-9715
く	-9716
さ	-9717
な	-9718
へ	-9719
ょ	-9720
わ	-9721
ん	-9722
イ	-9723
エ	-9724
ク	-9725
サ	-9726
ス	-9727
チ	-9728
ッ	-9729
バ	-9730
マ	-9731
ム	-9732
ヮ	-9733
一	-9734
之	-9735
了	-9736
云	-9737
传	-9738
位	-9739
何	-9740
刀	-9741
力	-9742
午	-9743
南	-9744
厩	-9745
古	-9746
吗	-9747
国	-9748
场	-9749
報	-9750
多	-9751
夢	-9752
如	-9753
子	-9754
学	-9755
它	-9756
少	-9757
屋	-9758
年	-9759
庆	-9760
彙	-9761
彩	-9762
很	-9763
情	-9764
惠	-9765
感	-9766
打	-9767
教	-9768
料	-9769
斯	-9770
於	-9771
月	-9772
机	-9773
機	-9774
泊	-9775
波	-9776
爱	-9777
瑞	-9778
用	-9779
电	-9780
着	-9781
示	-9782
科	-9783
端	-9784
篇	-9785
終	-9786
纳	-9787
职	-9788
背	-9789
节	-9790
花	-9791
葬	-9792
藍	-9793
蝶	-9794
要	-9795
詞	-9796
謝	-9797
话	-9798
语	-9799
谷	-9800
超	-9801
辛	-9802
迪	-9803
邏	-9804
钱	-9805
际	-9806
隨	-9807
雨	-9808
顯	-9809
鲁	-9810
ꓤ	-9811
ꔫ	-9812
ꖾ	-9813
ꟽ	-9814
ꦿ	-9815
ꪆ	-9816
ꪝ	-9817
ꫀ	-9818
ꫛ	-9819
각	-9820
금	-9821
길	-9822
는	-9823
다	-9824
대	-9825
래	-9826
리	-9827
마	-9828
만	-9829
문	-9830
방	-9831
서	-9832
손	-9833
솔	-9834
송	-9835
시	-9836
양	-9837
얼	-9838
에	-9839
연	-9840
요	-9841
우	-9842
정	-9843
져	-9844
조	-9845
좋	-9846
지	-9847
평	-9848
하	-9849
할	-9850
해	-9851
형	-9852
화	-9853
효	-9854
희	-9855
﮶	-9856
𐎚	-9857
𐭣	-9858
𐭦	-9859
𐭪	-9860
𐭬	-9861
𓆩	-9862
𓆪	-9863
𖣂	-9864
𖤈	-9865
𖤍	-9866
🅚	-9867
🅛	-9868
🅜	-9869
🅦	-9870
🇦	-9871
🇧	-9872
🇱	-9873
🇲	-9874
🇵	-9875
🇷	-9876
🇹	-9877
🌍	-9878
🌎	-9879
🌓	-9880
🌔	-9881
🌙	-9882
🌛	-9883
🌜	-9884
🌝	-9885
🌞	-9886
🌧	-9887
🌱	-9888
🌵	-9889
🌺	-9890
🍂	-9891
🍃	-9892
🍇	-9893
🍉	-9894
🍕	-9895
🍩	-9896
🍰	-9897
🍷	-9898
🍻	-9899
🍾	-9900
🍿	-9901
🎁	-9902
🎃	-9903
🎅	-9904
🎞	-9905
🎥	-9906
🎨	-9907
🎯	-9908
🎶	-9909
🏆	-9910
🏊	-9911
🏖	-9912
🏣	-9913
🏭	-9914
🏳	-9915
🏹	-9916
🏽	-9917
🐍	-9918
🐕	-9919
🐾	-9920
👃	-9921
👅	-9922
👋	-9923
👕	-9924
👠	-9925
👢	-9926
👧	-9927
👭	-9928
👰	-9929
👲	-9930
👳	-9931
👾	-9932
💀	-9933
💃	-9934
💇	-9935
💈	-9936
💒	-9937
💣	-9938
💦	-9939
💷	-9940
📄	-9941
📑	-9942
📛	-9943
📥	-9944
📩	-9945
📮	-9946
📲	-9947
📸	-9948
📿	-9949
🔆	-9950
🔈	-9951
🔐	-9952
🔗	-9953
🕊	-9954
🕌	-9955
🖼	-9956
🗯	-9957
🗿	-9958
😑	-9959
😧	-9960
😩	-9961
😲	-9962
😷	-9963
🙃	-9964
🙅	-9965
🙆	-9966
🙇	-9967
🙋	-9968
🙌	-9969
🚌	-9970
🚓	-9971
🚣	-9972
🚨	-9973
🚫	-9974
🚭	-9975
🚵	-9976
🚷	-9977
🛌	-9978
🛐	-9979
🛒	-9980
🛰	-9981
🟥	-9982
🤒	-9983
🤕	-9984
🤚	-9985
🤟	-9986
🤠	-9987
🤲	-9988
🤸	-9989
🤹	-9990
🦯	-9991
🦽	-9992
🧑	-9993
🧖	-9994
🧚	-9995
🧝	-9996
