{
  "version": "1.0",
  "truncation": null,
  "padding": null,
  "added_tokens": [
    {
      "id": 10000,
      "content": "[UNK]",
      "single_word": false,
      "lstrip": false,
      "rstrip": false,
      "normalized": false,
      "special": true
    }
  ],
  "normalizer": null,
  "pre_tokenizer": {
    "type": "Sequence",
    "pretokenizers": [
      {
        "type": "Split",
        "pattern": {
          "Regex": "\\p{N}{1,3}| ?[^\\s\\p{L}\\p{N}]{2,}[\\r\\n/]*| +(?!\\S)"
        },
        "behavior": "Isolated",
        "invert": false
      }
    ]
  },
  "post_processor": null,
  "decoder": null,
  "model": {
    "type": "BPE",
    "dropout": null,
    "unk_token": null,
    "continuing_subword_prefix": null,
    "end_of_word_suffix": null,
    "fuse_unk": false,
    "byte_fallback": false,
    "ignore_merges": false,
    "vocab": {
      "\n": 0,
      " ": 1,
      "!": 2,
      "\"": 3,
      "#": 4,
      "$": 5,
      "%": 6,
      "&": 7,
      "'": 8,
      "(": 9,
      ")": 10,
      "*": 11,
      "+": 12,
      ",": 13,
      "-": 14,
      ".": 15,
      "/": 16,
      "0": 17,
      "1": 18,
      "2": 19,
      "3": 20,
      "4": 21,
      "5": 22,
      "6": 23,
      "7": 24,
      "8": 25,
      "9": 26,
      ":": 27,
      ";": 28,
      "<": 29,
      "=": 30,
      ">": 31,
      "?": 32,
      "@": 33,
      "A": 34,
      "B": 35,
      "C": 36,
      "D": 37,
      "E": 38,
      "F": 39,
      "G": 40,
      "H": 41,
      "I": 42,
      "J": 43,
      "K": 44,
      "L": 45,
      "M": 46,
      "N": 47,
      "O": 48,
      "P": 49,
      "Q": 50,
      "R": 51,
      "S": 52,
      "T": 53,
      "U": 54,
      "V": 55,
      "W": 56,
      "X": 57,
      "Y": 58,
      "Z": 59,
      "[": 60,
      "\\": 61,
      "]": 62,
      "^": 63,
      "_": 64,
      "a": 65,
      "b": 66,
      "c": 67,
      "d": 68,
      "e": 69,
      "f": 70,
      "g": 71,
      "h": 72,
      "i": 73,
      "j": 74,
      "k": 75,
      "l": 76,
      "m": 77,
      "n": 78,
      "o": 79,
      "p": 80,
      "q": 81,
      "r": 82,
      "s": 83,
      "t": 84,
      "u": 85,
      "v": 86,
      "w": 87,
      "x": 88,
      "y": 89,
      "z": 90,
      "{": 91,
      "|": 92,
      "}": 93,
      "~": 94,
      "¡": 95,
      "¢": 96,
      "£": 97,
      "¤": 98,
      "¥": 99,
      "¦": 100,
      "§": 101,
      "©": 102,
      "¬": 103,
      "®": 104,
      "°": 105,
      "±": 106,
      "¶": 107,
      "·": 108,
      "¿": 109,
      "À": 110,
      "Á": 111,
      "Â": 112,
      "Ã": 113,
      "Å": 114,
      "Ç": 115,
      "È": 116,
      "É": 117,
      "Ð": 118,
      "Ó": 119,
      "Ô": 120,
      "Ö": 121,
      "×": 122,
      "Ø": 123,
      "Ù": 124,
      "Ú": 125,
      "Û": 126,
      "Ü": 127,
      "ß": 128,
      "à": 129,
      "á": 130,
      "â": 131,
      "ã": 132,
      "ä": 133,
      "å": 134,
      "æ": 135,
      "ç": 136,
      "è": 137,
      "é": 138,
      "ê": 139,
      "ë": 140,
      "ì": 141,
      "í": 142,
      "î": 143,
      "ï": 144,
      "ð": 145,
      "ñ": 146,
      "ò": 147,
      "ó": 148,
      "ô": 149,
      "õ": 150,
      "ö": 151,
      "÷": 152,
      "ø": 153,
      "ù": 154,
      "ú": 155,
      "û": 156,
      "ü": 157,
      "ý": 158,
      "þ": 159,
      "Ā": 160,
      "ā": 161,
      "Ă": 162,
      "ă": 163,
      "Ą": 164,
      "ą": 165,
      "ć": 166,
      "ĉ": 167,
      "Č": 168,
      "č": 169,
      "Ď": 170,
      "Đ": 171,
      "đ": 172,
      "ē": 173,
      "Ė": 174,
      "ė": 175,
      "Ę": 176,
      "ę": 177,
      "ě": 178,
      "Ğ": 179,
      "ğ": 180,
      "Ģ": 181,
      "Ĥ": 182,
      "Ħ": 183,
      "ħ": 184,
      "ī": 185,
      "Į": 186,
      "į": 187,
      "İ": 188,
      "ı": 189,
      "ĵ": 190,
      "ĸ": 191,
      "ĺ": 192,
      "ļ": 193,
      "Ł": 194,
      "ł": 195,
      "Ň": 196,
      "ŋ": 197,
      "Ō": 198,
      "ō": 199,
      "ŏ": 200,
      "œ": 201,
      "Ř": 202,
      "ř": 203,
      "ś": 204,
      "Ŝ": 205,
      "ŝ": 206,
      "Ş": 207,
      "ş": 208,
      "Š": 209,
      "š": 210,
      "Ť": 211,
      "ť": 212,
      "ŧ": 213,
      "ŭ": 214,
      "ů": 215,
      "ű": 216,
      "ź": 217,
      "Ż": 218,
      "ż": 219,
      "Ž": 220,
      "ž": 221,
      "Ɓ": 222,
      "Ǝ": 223,
      "ƒ": 224,
      "Ɠ": 225,
      "Ɣ": 226,
      "ƛ": 227,
      "Ɲ": 228,
      "ơ": 229,
      "Ʀ": 230,
      "Ƴ": 231,
      "ƽ": 232,
      "ǟ": 233,
      "ǰ": 234,
      "Ǿ": 235,
      "ȅ": 236,
      "Ȋ": 237,
      "ș": 238,
      "ț": 239,
      "ɑ": 240,
      "ɕ": 241,
      "ə": 242,
      "ɛ": 243,
      "ɞ": 244,
      "ɣ": 245,
      "ɨ": 246,
      "ɪ": 247,
      "ɴ": 248,
      "ʀ": 249,
      "ʃ": 250,
      "ʊ": 251,
      "ʒ": 252,
      "ʔ": 253,
      "ʚ": 254,
      "ʞ": 255,
      "ʻ": 256,
      "ˆ": 257,
      "ˇ": 258,
      "ˈ": 259,
      "ˌ": 260,
      "ː": 261,
      "˹": 262,
      "˼": 263,
      "̀": 264,
      "́": 265,
      "̃": 266,
      "̄": 267,
      "̅": 268,
      "̇": 269,
      "̈": 270,
      "̉": 271,
      "̊": 272,
      "̋": 273,
      "̌": 274,
      "̍": 275,
      "̐": 276,
      "̖": 277,
      "̗": 278,
      "̝": 279,
      "̠": 280,
      "̣": 281,
      "̤": 282,
      "̥": 283,
      "̧": 284,
      "̨": 285,
      "̩": 286,
      "̬": 287,
      "̮": 288,
      "̯": 289,
      "̲": 290,
      "̳": 291,
      "̵": 292,
      "̶": 293,
      "̷": 294,
      "̸": 295,
      "͛": 296,
      "͜": 297,
      "͠": 298,
      "͡": 299,
      "ͦ": 300,
      "Ά": 301,
      "Έ": 302,
      "ΐ": 303,
      "Α": 304,
      "Η": 305,
      "Θ": 306,
      "Ι": 307,
      "Μ": 308,
      "Ξ": 309,
      "Ρ": 310,
      "Σ": 311,
      "Υ": 312,
      "Φ": 313,
      "Ψ": 314,
      "Ω": 315,
      "Ϋ": 316,
      "ά": 317,
      "έ": 318,
      "ή": 319,
      "ί": 320,
      "α": 321,
      "β": 322,
      "γ": 323,
      "δ": 324,
      "ε": 325,
      "ζ": 326,
      "η": 327,
      "θ": 328,
      "ι": 329,
      "κ": 330,
      "λ": 331,
      "μ": 332,
      "ν": 333,
      "ξ": 334,
      "ο": 335,
      "π": 336,
      "ρ": 337,
      "ς": 338,
      "σ": 339,
      "τ": 340,
      "υ": 341,
      "φ": 342,
      "χ": 343,
      "ω": 344,
      "ό": 345,
      "ώ": 346,
      "Ϟ": 347,
      "ϻ": 348,
      "Ј": 349,
      "Ћ": 350,
      "А": 351,
      "Б": 352,
      "В": 353,
      "Г": 354,
      "Д": 355,
      "Й": 356,
      "К": 357,
      "М": 358,
      "О": 359,
      "П": 360,
      "Р": 361,
      "С": 362,
      "Т": 363,
      "У": 364,
      "Х": 365,
      "Ч": 366,
      "Я": 367,
      "а": 368,
      "б": 369,
      "в": 370,
      "г": 371,
      "д": 372,
      "е": 373,
      "ж": 374,
      "з": 375,
      "и": 376,
      "й": 377,
      "к": 378,
      "л": 379,
      "м": 380,
      "н": 381,
      "о": 382,
      "п": 383,
      "р": 384,
      "с": 385,
      "т": 386,
      "у": 387,
      "х": 388,
      "ц": 389,
      "ч": 390,
      "ш": 391,
      "ъ": 392,
      "ы": 393,
      "ь": 394,
      "э": 395,
      "ю": 396,
      "я": 397,
      "є": 398,
      "і": 399,
      "ј": 400,
      "ћ": 401,
      "Ѣ": 402,
      "Ѧ": 403,
      "҉": 404,
      "Ҏ": 405,
      "Ґ": 406,
      "ґ": 407,
      "қ": 408,
      "Ҩ": 409,
      "ү": 410,
      "Ұ": 411,
      "Ҳ": 412,
      "ҳ": 413,
      "ҷ": 414,
      "ҽ": 415,
      "Ӎ": 416,
      "ө": 417,
      "Բ": 418,
      "Ի": 419,
      "Կ": 420,
      "Պ": 421,
      "ա": 422,
      "բ": 423,
      "ե": 424,
      "է": 425,
      "ը": 426,
      "ի": 427,
      "լ": 428,
      "խ": 429,
      "կ": 430,
      "հ": 431,
      "ձ": 432,
      "ղ": 433,
      "մ": 434,
      "յ": 435,
      "ն": 436,
      "ո": 437,
      "չ": 438,
      "պ": 439,
      "ռ": 440,
      "ս": 441,
      "վ": 442,
      "տ": 443,
      "ր": 444,
      "ց": 445,
      "ւ": 446,
      "փ": 447,
      "ք": 448,
      "ֆ": 449,
      "ִ": 450,
      "ּ": 451,
      "ֿ": 452,
      "א": 453,
      "ב": 454,
      "ג": 455,
      "ד": 456,
      "ה": 457,
      "ו": 458,
      "ז": 459,
      "ח": 460,
      "ט": 461,
      "י": 462,
      "ך": 463,
      "כ": 464,
      "ל": 465,
      "ם": 466,
      "מ": 467,
      "ן": 468,
      "נ": 469,
      "ס": 470,
      "ע": 471,
      "פ": 472,
      "צ": 473,
      "ר": 474,
      "ש": 475,
      "ת": 476,
      "؋": 477,
      "،": 478,
      "؍": 479,
      "؎": 480,
      "؏": 481,
      "ؐ": 482,
      "ؑ": 483,
      "ؒ": 484,
      "ؓ": 485,
      "؛": 486,
      "؟": 487,
      "ء": 488,
      "آ": 489,
      "أ": 490,
      "ؤ": 491,
      "إ": 492,
      "ئ": 493,
      "ا": 494,
      "ب": 495,
      "ة": 496,
      "ت": 497,
      "ث": 498,
      "ج": 499,
      "ح": 500,
      "خ": 501,
      "د": 502,
      "ذ": 503,
      "ر": 504,
      "ز": 505,
      "س": 506,
      "ش": 507,
      "ص": 508,
      "ض": 509,
      "ط": 510,
      "ظ": 511,
      "ع": 512,
      "غ": 513,
      "ػ": 514,
      "ؼ": 515,
      "ؽ": 516,
      "ؾ": 517,
      "ؿ": 518,
      "ـ": 519,
      "ف": 520,
      "ق": 521,
      "ك": 522,
      "ل": 523,
      "م": 524,
      "ن": 525,
      "ه": 526,
      "و": 527,
      "ى": 528,
      "ي": 529,
      "ً": 530,
      "ٌ": 531,
      "ٍ": 532,
      "َ": 533,
      "ُ": 534,
      "ِ": 535,
      "ّ": 536,
      "ْ": 537,
      "ٓ": 538,
      "ٔ": 539,
      "ٕ": 540,
      "ٖ": 541,
      "ٗ": 542,
      "٘": 543,
      "ٙ": 544,
      "ٚ": 545,
      "ٛ": 546,
      "ٜ": 547,
      "ٝ": 548,
      "ٞ": 549,
      "ٟ": 550,
      "٠": 551,
      "١": 552,
      "٢": 553,
      "٣": 554,
      "٤": 555,
      "٥": 556,
      "٦": 557,
      "٧": 558,
      "٨": 559,
      "٩": 560,
      "٪": 561,
      "٫": 562,
      "٬": 563,
      "٭": 564,
      "ٮ": 565,
      "ٯ": 566,
      "ٰ": 567,
      "ٱ": 568,
      "ٲ": 569,
      "ٳ": 570,
      "ٴ": 571,
      "ٹ": 572,
      "ٺ": 573,
      "ٻ": 574,
      "ټ": 575,
      "ٽ": 576,
      "پ": 577,
      "ٿ": 578,
      "ڀ": 579,
      "ځ": 580,
      "ڂ": 581,
      "ڃ": 582,
      "ڄ": 583,
      "څ": 584,
      "چ": 585,
      "ڇ": 586,
      "ڈ": 587,
      "ډ": 588,
      "ڊ": 589,
      "ڋ": 590,
      "ڌ": 591,
      "ڍ": 592,
      "ڎ": 593,
      "ڏ": 594,
      "ڐ": 595,
      "ڑ": 596,
      "ڒ": 597,
      "ړ": 598,
      "ڔ": 599,
      "ڕ": 600,
      "ږ": 601,
      "ڗ": 602,
      "ژ": 603,
      "ڙ": 604,
      "ښ": 605,
      "ڛ": 606,
      "ڜ": 607,
      "ڝ": 608,
      "ڞ": 609,
      "ڟ": 610,
      "ڠ": 611,
      "ڣ": 612,
      "ڤ": 613,
      "ڦ": 614,
      "ڨ": 615,
      "ک": 616,
      "ڪ": 617,
      "ګ": 618,
      "ڭ": 619,
      "گ": 620,
      "ڰ": 621,
      "ڱ": 622,
      "ڲ": 623,
      "ڳ": 624,
      "ڵ": 625,
      "ڶ": 626,
      "ڷ": 627,
      "ڸ": 628,
      "ڹ": 629,
      "ں": 630,
      "ڻ": 631,
      "ڼ": 632,
      "ڽ": 633,
      "ھ": 634,
      "ڿ": 635,
      "ۀ": 636,
      "ہ": 637,
      "ۂ": 638,
      "ۃ": 639,
      "ۄ": 640,
      "ۅ": 641,
      "ۆ": 642,
      "ۇ": 643,
      "ۈ": 644,
      "ۉ": 645,
      "ۊ": 646,
      "ۋ": 647,
      "ی": 648,
      "ۍ": 649,
      "ێ": 650,
      "ۏ": 651,
      "ې": 652,
      "ۑ": 653,
      "ے": 654,
      "ۓ": 655,
      "۔": 656,
      "ە": 657,
      "ۗ": 658,
      "ۘ": 659,
      "ۙ": 660,
      "ۚ": 661,
      "ۛ": 662,
      "ۜ": 663,
      "۞": 664,
      "ۡ": 665,
      "ۢ": 666,
      "ۣ": 667,
      "ۤ": 668,
      "ۥ": 669,
      "ۦ": 670,
      "ۧ": 671,
      "ۨ": 672,
      "۩": 673,
      "۪": 674,
      "۫": 675,
      "۬": 676,
      "۰": 677,
      "۱": 678,
      "۲": 679,
      "۳": 680,
      "۴": 681,
      "۵": 682,
      "۶": 683,
      "۷": 684,
      "۸": 685,
      "۹": 686,
      "ۺ": 687,
      "ۼ": 688,
      "۽": 689,
      "۾": 690,
      "ۿ": 691,
      "܀": 692,
      "ܒ": 693,
      "ܓ": 694,
      "ܢ": 695,
      "ܨ": 696,
      "ܪ": 697,
      "ܵ": 698,
      "ݐ": 699,
      "ݒ": 700,
      "ݖ": 701,
      "ݘ": 702,
      "ݛ": 703,
      "ݢ": 704,
      "ݥ": 705,
      "ݦ": 706,
      "ݧ": 707,
      "ݨ": 708,
      "ݩ": 709,
      "ݪ": 710,
      "ހ": 711,
      "ވ": 712,
      "ެ": 713,
      "ߙ": 714,
      "ࡗ": 715,
      "ࢦ": 716,
      "ࢪ": 717,
      "࣪": 718,
      "ँ": 719,
      "ं": 720,
      "ः": 721,
      "अ": 722,
      "आ": 723,
      "इ": 724,
      "ई": 725,
      "उ": 726,
      "ए": 727,
      "ओ": 728,
      "क": 729,
      "ख": 730,
      "ग": 731,
      "घ": 732,
      "ङ": 733,
      "च": 734,
      "छ": 735,
      "ज": 736,
      "झ": 737,
      "ञ": 738,
      "ट": 739,
      "ठ": 740,
      "ड": 741,
      "ढ": 742,
      "ण": 743,
      "त": 744,
      "थ": 745,
      "द": 746,
      "ध": 747,
      "न": 748,
      "प": 749,
      "फ": 750,
      "ब": 751,
      "भ": 752,
      "म": 753,
      "य": 754,
      "र": 755,
      "ल": 756,
      "व": 757,
      "श": 758,
      "ष": 759,
      "स": 760,
      "ह": 761,
      "़": 762,
      "ा": 763,
      "ि": 764,
      "ी": 765,
      "ु": 766,
      "ू": 767,
      "ृ": 768,
      "े": 769,
      "ै": 770,
      "ॉ": 771,
      "ो": 772,
      "ौ": 773,
      "्": 774,
      "॒": 775,
      "ॡ": 776,
      "।": 777,
      "॥": 778,
      "०": 779,
      "१": 780,
      "८": 781,
      "অ": 782,
      "আ": 783,
      "ই": 784,
      "উ": 785,
      "এ": 786,
      "ঔ": 787,
      "ক": 788,
      "খ": 789,
      "ঘ": 790,
      "ছ": 791,
      "জ": 792,
      "ট": 793,
      "ড": 794,
      "ত": 795,
      "দ": 796,
      "ধ": 797,
      "ন": 798,
      "ব": 799,
      "ভ": 800,
      "ম": 801,
      "য": 802,
      "র": 803,
      "ল": 804,
      "শ": 805,
      "স": 806,
      "়": 807,
      "া": 808,
      "ি": 809,
      "ু": 810,
      "ে": 811,
      "ো": 812,
      "ৌ": 813,
      "্": 814,
      "ਂ": 815,
      "ਇ": 816,
      "ਈ": 817,
      "ਕ": 818,
      "ਜ": 819,
      "ਥ": 820,
      "ਧ": 821,
      "ਪ": 822,
      "ਬ": 823,
      "ਮ": 824,
      "ਰ": 825,
      "ਲ": 826,
      "ਸ": 827,
      "ਹ": 828,
      "ਾ": 829,
      "ਿ": 830,
      "ੀ": 831,
      "ੇ": 832,
      "ੈ": 833,
      "ੋ": 834,
      "ੰ": 835,
      "ੱ": 836,
      "ં": 837,
      "ક": 838,
      "ખ": 839,
      "ચ": 840,
      "છ": 841,
      "ટ": 842,
      "ડ": 843,
      "થ": 844,
      "ધ": 845,
      "પ": 846,
      "ર": 847,
      "સ": 848,
      "હ": 849,
      "ા": 850,
      "િ": 851,
      "ી": 852,
      "ુ": 853,
      "ે": 854,
      "ો": 855,
      "୪": 856,
      "୭": 857,
      "ஐ": 858,
      "ஓ": 859,
      "ற": 860,
      "ం": 861,
      "ఇ": 862,
      "ఉ": 863,
      "ఎ": 864,
      "క": 865,
      "చ": 866,
      "డ": 867,
      "ద": 868,
      "ధ": 869,
      "న": 870,
      "ప": 871,
      "య": 872,
      "ల": 873,
      "వ": 874,
      "స": 875,
      "హ": 876,
      "ా": 877,
      "ి": 878,
      "ీ": 879,
      "ు": 880,
      "ే": 881,
      "ో": 882,
      "్": 883,
      "ಂ": 884,
      "ಈ": 885,
      "ಕ": 886,
      "ಡ": 887,
      "ಧ": 888,
      "ನ": 889,
      "ಲ": 890,
      "ಸ": 891,
      "ಿ": 892,
      "ೋ": 893,
      "್": 894,
      "ഉ": 895,
      "ങ": 896,
      "ത": 897,
      "ധ": 898,
      "ന": 899,
      "പ": 900,
      "ള": 901,
      "സ": 902,
      "ി": 903,
      "്": 904,
      "ආ": 905,
      "උ": 906,
      "ක": 907,
      "න": 908,
      "ම": 909,
      "ය": 910,
      "ල": 911,
      "ව": 912,
      "ශ": 913,
      "ස": 914,
      "්": 915,
      "ෑ": 916,
      "ි": 917,
      "ෙ": 918,
      "ก": 919,
      "ค": 920,
      "ฉ": 921,
      "ณ": 922,
      "ด": 923,
      "ถ": 924,
      "ท": 925,
      "น": 926,
      "บ": 927,
      "ป": 928,
      "พ": 929,
      "ม": 930,
      "ย": 931,
      "ล": 932,
      "ส": 933,
      "ห": 934,
      "อ": 935,
      "ฮ": 936,
      "ะ": 937,
      "ั": 938,
      "า": 939,
      "ิ": 940,
      "ี": 941,
      "ุ": 942,
      "เ": 943,
      "ไ": 944,
      "ๅ": 945,
      "่": 946,
      "้": 947,
      "๋": 948,
      "๑": 949,
      "๛": 950,
      "ກ": 951,
      "ຂ": 952,
      "ຈ": 953,
      "ຖ": 954,
      "ທ": 955,
      "ນ": 956,
      "ພ": 957,
      "ມ": 958,
      "ຢ": 959,
      "ະ": 960,
      "າ": 961,
      "ົ": 962,
      "ເ": 963,
      "່": 964,
      "້": 965,
      "໑": 966,
      "༄": 967,
      "༅": 968,
      "༺": 969,
      "ཻ": 970,
      "࿅": 971,
      "࿑": 972,
      "Ⴢ": 973,
      "ა": 974,
      "დ": 975,
      "ე": 976,
      "თ": 977,
      "ი": 978,
      "კ": 979,
      "მ": 980,
      "ნ": 981,
      "რ": 982,
      "ს": 983,
      "უ": 984,
      "ქ": 985,
      "ღ": 986,
      "ᄑ": 987,
      "ᄒ": 988,
      "ᅲ": 989,
      "ሂ": 990,
      "ህ": 991,
      "ለ": 992,
      "ላ": 993,
      "ል": 994,
      "ም": 995,
      "ሩ": 996,
      "ር": 997,
      "ሳ": 998,
      "ስ": 999,
      "ቅ": 1000,
      "በ": 1001,
      "ቦ": 1002,
      "ታ": 1003,
      "ት": 1004,
      "ነ": 1005,
      "ኔ": 1006,
      "ን": 1007,
      "ኝ": 1008,
      "አ": 1009,
      "እ": 1010,
      "ወ": 1011,
      "ው": 1012,
      "ዎ": 1013,
      "ዘ": 1014,
      "ይ": 1015,
      "ዴ": 1016,
      "ድ": 1017,
      "ጋ": 1018,
      "ጎ": 1019,
      "ጠ": 1020,
      "ጣ": 1021,
      "ጥ": 1022,
      "ፈ": 1023,
      "ፍ": 1024,
      "ᑐ": 1025,
      "ᓄ": 1026,
      "ᓅ": 1027,
      "ᓆ": 1028,
      "ᓘ": 1029,
      "ញ": 1030,
      "ន": 1031,
      "ព": 1032,
      "ភ": 1033,
      "េ": 1034,
      "ំ": 1035,
      "្": 1036,
      "᪣": 1037,
      "ᬼ": 1038,
      "ᭁ": 1039,
      "᭄": 1040,
      "ᴀ": 1041,
      "ᴋ": 1042,
      "ᴗ": 1043,
      "᷂": 1044,
      "ḑ": 1045,
      "ḭ": 1046,
      "Ḿ": 1047,
      "ḿ": 1048,
      "Ṁ": 1049,
      "Ṃ": 1050,
      "ṇ": 1051,
      "Ṉ": 1052,
      "ṛ": 1053,
      "Ṝ": 1054,
      "ṣ": 1055,
      "Ṧ": 1056,
      "ṩ": 1057,
      "ṭ": 1058,
      "Ṽ": 1059,
      "Ạ": 1060,
      "Ẹ": 1061,
      "ẹ": 1062,
      "Ể": 1063,
      "ệ": 1064,
      "ị": 1065,
      "Ọ": 1066,
      "ọ": 1067,
      "ố": 1068,
      "ở": 1069,
      "Ụ": 1070,
      "ụ": 1071,
      "ỳ": 1072,
      "ỹ": 1073,
      "Ἄ": 1074,
      "‐": 1075,
      "‛": 1076,
      "‟": 1077,
      "†": 1078,
      "‡": 1079,
      "•": 1080,
      "′": 1081,
      "‹": 1082,
      "›": 1083,
      "※": 1084,
      "‿": 1085,
      "⁀": 1086,
      "⁄": 1087,
      "₥": 1088,
      "₦": 1089,
      "₩": 1090,
      "₪": 1091,
      "€": 1092,
      "₳": 1093,
      "₹": 1094,
      "₼": 1095,
      "₽": 1096,
      "⃕": 1097,
      "⃟": 1098,
      "⃢": 1099,
      "⃣": 1100,
      "⃫": 1101,
      "℘": 1102,
      "←": 1103,
      "↑": 1104,
      "→": 1105,
      "↓": 1106,
      "↔": 1107,
      "↙": 1108,
      "↜": 1109,
      "↝": 1110,
      "↣": 1111,
      "↤": 1112,
      "↩": 1113,
      "↫": 1114,
      "↯": 1115,
      "↲": 1116,
      "↴": 1117,
      "↷": 1118,
      "⇄": 1119,
      "⇐": 1120,
      "⇜": 1121,
      "⇠": 1122,
      "⇡": 1123,
      "⇢": 1124,
      "⇣": 1125,
      "⇦": 1126,
      "∀": 1127,
      "∂": 1128,
      "∇": 1129,
      "−": 1130,
      "√": 1131,
      "∞": 1132,
      "∟": 1133,
      "∫": 1134,
      "∴": 1135,
      "≈": 1136,
      "≠": 1137,
      "≤": 1138,
      "≥": 1139,
      "≦": 1140,
      "≧": 1141,
      "≯": 1142,
      "⊙": 1143,
      "⋆": 1144,
      "⌘": 1145,
      "⏆": 1146,
      "⏩": 1147,
      "⏪": 1148,
      "─": 1149,
      "┇": 1150,
      "═": 1151,
      "╚": 1152,
      "╝": 1153,
      "╦": 1154,
      "╫": 1155,
      "╬": 1156,
      "▂": 1157,
      "▃": 1158,
      "▌": 1159,
      "▐": 1160,
      "■": 1161,
      "□": 1162,
      "▪": 1163,
      "▫": 1164,
      "▲": 1165,
      "▶": 1166,
      "▷": 1167,
      "►": 1168,
      "▼": 1169,
      "▽": 1170,
      "◀": 1171,
      "◄": 1172,
      "◆": 1173,
      "◇": 1174,
      "◈": 1175,
      "◉": 1176,
      "◊": 1177,
      "○": 1178,
      "◍": 1179,
      "◎": 1180,
      "●": 1181,
      "◕": 1182,
      "◝": 1183,
      "◣": 1184,
      "◤": 1185,
      "◥": 1186,
      "◦": 1187,
      "◩": 1188,
      "◪": 1189,
      "◾": 1190,
      "☀": 1191,
      "☁": 1192,
      "☂": 1193,
      "☃": 1194,
      "☄": 1195,
      "★": 1196,
      "☆": 1197,
      "☑": 1198,
      "☔": 1199,
      "☘": 1200,
      "☚": 1201,
      "☛": 1202,
      "☜": 1203,
      "☝": 1204,
      "☠": 1205,
      "☹": 1206,
      "☺": 1207,
      "☻": 1208,
      "☼": 1209,
      "☽": 1210,
      "☿": 1211,
      "♀": 1212,
      "♂": 1213,
      "♃": 1214,
      "♄": 1215,
      "♈": 1216,
      "♉": 1217,
      "♊": 1218,
      "♋": 1219,
      "♌": 1220,
      "♍": 1221,
      "♎": 1222,
      "♏": 1223,
      "♒": 1224,
      "♓": 1225,
      "♚": 1226,
      "♛": 1227,
      "♠": 1228,
      "♡": 1229,
      "♢": 1230,
      "♣": 1231,
      "♤": 1232,
      "♥": 1233,
      "♦": 1234,
      "♩": 1235,
      "♪": 1236,
      "♫": 1237,
      "♬": 1238,
      "♭": 1239,
      "♯": 1240,
      "⚒": 1241,
      "⚘": 1242,
      "⚠": 1243,
      "⚡": 1244,
      "⚫": 1245,
      "⚽": 1246,
      "⛳": 1247,
      "⛺": 1248,
      "✅": 1249,
      "✇": 1250,
      "✈": 1251,
      "✋": 1252,
      "✌": 1253,
      "✍": 1254,
      "✓": 1255,
      "✔": 1256,
      "✖": 1257,
      "✗": 1258,
      "✘": 1259,
      "✜": 1260,
      "✞": 1261,
      "✦": 1262,
      "✧": 1263,
      "✨": 1264,
      "✫": 1265,
      "✭": 1266,
      "✮": 1267,
      "✯": 1268,
      "✳": 1269,
      "✴": 1270,
      "✷": 1271,
      "✿": 1272,
      "❀": 1273,
      "❌": 1274,
      "❒": 1275,
      "❓": 1276,
      "❔": 1277,
      "❕": 1278,
      "❖": 1279,
      "❗": 1280,
      "❝": 1281,
      "❞": 1282,
      "❢": 1283,
      "❣": 1284,
      "❤": 1285,
      "❥": 1286,
      "❦": 1287,
      "❧": 1288,
      "❶": 1289,
      "➓": 1290,
      "➘": 1291,
      "➟": 1292,
      "➡": 1293,
      "➢": 1294,
      "➥": 1295,
      "➬": 1296,
      "⠀": 1297,
      "⦿": 1298,
      "⬅": 1299,
      "⬆": 1300,
      "⬸": 1301,
      "⭐": 1302,
      "⭕": 1303,
      "⸁": 1304,
      "⸙": 1305,
      "、": 1306,
      "。": 1307,
      "〇": 1308,
      "〈": 1309,
      "〉": 1310,
      "》": 1311,
      "「": 1312,
      "」": 1313,
      "『": 1314,
      "』": 1315,
      "【": 1316,
      "】": 1317,
      "〖": 1318,
      "〗": 1319,
      "あ": 1320,
      "い": 1321,
      "う": 1322,
      "え": 1323,
      "お": 1324,
      "か": 1325,
      "が": 1326,
      "く": 1327,
      "さ": 1328,
      "じ": 1329,
      "な": 1330,
      "の": 1331,
      "へ": 1332,
      "ほ": 1333,
      "ょ": 1334,
      "よ": 1335,
      "り": 1336,
      "わ": 1337,
      "を": 1338,
      "ん": 1339,
      "イ": 1340,
      "エ": 1341,
      "ク": 1342,
      "コ": 1343,
      "サ": 1344,
      "シ": 1345,
      "ス": 1346,
      "タ": 1347,
      "チ": 1348,
      "ッ": 1349,
      "ツ": 1350,
      "ト": 1351,
      "ド": 1352,
      "ノ": 1353,
      "バ": 1354,
      "パ": 1355,
      "ピ": 1356,
      "マ": 1357,
      "ミ": 1358,
      "ム": 1359,
      "ュ": 1360,
      "ヮ": 1361,
      "ン": 1362,
      "・": 1363,
      "ー": 1364,
      "ㄨ": 1365,
      "一": 1366,
      "上": 1367,
      "之": 1368,
      "了": 1369,
      "云": 1370,
      "以": 1371,
      "传": 1372,
      "位": 1373,
      "何": 1374,
      "你": 1375,
      "刀": 1376,
      "力": 1377,
      "午": 1378,
      "南": 1379,
      "厩": 1380,
      "发": 1381,
      "古": 1382,
      "可": 1383,
      "吗": 1384,
      "嘅": 1385,
      "国": 1386,
      "场": 1387,
      "報": 1388,
      "多": 1389,
      "夢": 1390,
      "如": 1391,
      "子": 1392,
      "学": 1393,
      "它": 1394,
      "少": 1395,
      "屋": 1396,
      "年": 1397,
      "庆": 1398,
      "彙": 1399,
      "彩": 1400,
      "很": 1401,
      "情": 1402,
      "惠": 1403,
      "感": 1404,
      "我": 1405,
      "打": 1406,
      "教": 1407,
      "料": 1408,
      "斯": 1409,
      "於": 1410,
      "月": 1411,
      "机": 1412,
      "機": 1413,
      "泊": 1414,
      "波": 1415,
      "爱": 1416,
      "瑞": 1417,
      "用": 1418,
      "电": 1419,
      "発": 1420,
      "發": 1421,
      "的": 1422,
      "真": 1423,
      "着": 1424,
      "示": 1425,
      "科": 1426,
      "端": 1427,
      "篇": 1428,
      "終": 1429,
      "纳": 1430,
      "者": 1431,
      "职": 1432,
      "背": 1433,
      "节": 1434,
      "花": 1435,
      "菜": 1436,
      "葬": 1437,
      "藍": 1438,
      "蝶": 1439,
      "要": 1440,
      "詞": 1441,
      "語": 1442,
      "謝": 1443,
      "话": 1444,
      "语": 1445,
      "谷": 1446,
      "超": 1447,
      "辛": 1448,
      "迪": 1449,
      "邏": 1450,
      "钱": 1451,
      "际": 1452,
      "隨": 1453,
      "雨": 1454,
      "音": 1455,
      "顯": 1456,
      "鲁": 1457,
      "ꓘ": 1458,
      "ꓤ": 1459,
      "ꔫ": 1460,
      "ꖾ": 1461,
      "ꟽ": 1462,
      "ꦿ": 1463,
      "ꪆ": 1464,
      "ꪝ": 1465,
      "ꫀ": 1466,
      "ꫛ": 1467,
      "각": 1468,
      "금": 1469,
      "길": 1470,
      "나": 1471,
      "는": 1472,
      "다": 1473,
      "대": 1474,
      "래": 1475,
      "리": 1476,
      "마": 1477,
      "만": 1478,
      "문": 1479,
      "방": 1480,
      "법": 1481,
      "서": 1482,
      "손": 1483,
      "솔": 1484,
      "송": 1485,
      "시": 1486,
      "양": 1487,
      "얼": 1488,
      "에": 1489,
      "연": 1490,
      "요": 1491,
      "우": 1492,
      "정": 1493,
      "져": 1494,
      "조": 1495,
      "좋": 1496,
      "지": 1497,
      "직": 1498,
      "평": 1499,
      "하": 1500,
      "할": 1501,
      "해": 1502,
      "형": 1503,
      "화": 1504,
      "효": 1505,
      "희": 1506,
      "﮶": 1507,
      "﮼": 1508,
      "﴾": 1509,
      "﴿": 1510,
      "︎": 1511,
      "️": 1512,
      "�": 1513,
      "𐄒": 1514,
      "𐎚": 1515,
      "𐭣": 1516,
      "𐭦": 1517,
      "𐭪": 1518,
      "𐭬": 1519,
      "𓂅": 1520,
      "𓆩": 1521,
      "𓆪": 1522,
      "𖣂": 1523,
      "𖣴": 1524,
      "𖤈": 1525,
      "𖤍": 1526,
      "🅚": 1527,
      "🅛": 1528,
      "🅜": 1529,
      "🅦": 1530,
      "🇦": 1531,
      "🇧": 1532,
      "🇨": 1533,
      "🇩": 1534,
      "🇬": 1535,
      "🇮": 1536,
      "🇱": 1537,
      "🇲": 1538,
      "🇵": 1539,
      "🇶": 1540,
      "🇷": 1541,
      "🇸": 1542,
      "🇹": 1543,
      "🇺": 1544,
      "🇿": 1545,
      "🌆": 1546,
      "🌈": 1547,
      "🌍": 1548,
      "🌎": 1549,
      "🌓": 1550,
      "🌔": 1551,
      "🌙": 1552,
      "🌚": 1553,
      "🌛": 1554,
      "🌜": 1555,
      "🌝": 1556,
      "🌞": 1557,
      "🌟": 1558,
      "🌤": 1559,
      "🌧": 1560,
      "🌱": 1561,
      "🌵": 1562,
      "🌷": 1563,
      "🌸": 1564,
      "🌹": 1565,
      "🌺": 1566,
      "🌻": 1567,
      "🌼": 1568,
      "🌿": 1569,
      "🍀": 1570,
      "🍂": 1571,
      "🍃": 1572,
      "🍇": 1573,
      "🍉": 1574,
      "🍕": 1575,
      "🍩": 1576,
      "🍰": 1577,
      "🍷": 1578,
      "🍻": 1579,
      "🍼": 1580,
      "🍾": 1581,
      "🍿": 1582,
      "🎀": 1583,
      "🎁": 1584,
      "🎃": 1585,
      "🎅": 1586,
      "🎈": 1587,
      "🎞": 1588,
      "🎥": 1589,
      "🎧": 1590,
      "🎨": 1591,
      "🎯": 1592,
      "🎵": 1593,
      "🎶": 1594,
      "🎻": 1595,
      "🎼": 1596,
      "🏃": 1597,
      "🏆": 1598,
      "🏊": 1599,
      "🏖": 1600,
      "🏣": 1601,
      "🏭": 1602,
      "🏳": 1603,
      "🏹": 1604,
      "🏻": 1605,
      "🏼": 1606,
      "🏽": 1607,
      "🏾": 1608,
      "🏿": 1609,
      "🐍": 1610,
      "🐒": 1611,
      "🐕": 1612,
      "🐠": 1613,
      "🐢": 1614,
      "🐸": 1615,
      "🐾": 1616,
      "👀": 1617,
      "👃": 1618,
      "👅": 1619,
      "👆": 1620,
      "👇": 1621,
      "👈": 1622,
      "👉": 1623,
      "👊": 1624,
      "👋": 1625,
      "👌": 1626,
      "👍": 1627,
      "👎": 1628,
      "👑": 1629,
      "👕": 1630,
      "👠": 1631,
      "👢": 1632,
      "👤": 1633,
      "👧": 1634,
      "👨": 1635,
      "👩": 1636,
      "👭": 1637,
      "👰": 1638,
      "👲": 1639,
      "👳": 1640,
      "👾": 1641,
      "💀": 1642,
      "💃": 1643,
      "💅": 1644,
      "💇": 1645,
      "💈": 1646,
      "💋": 1647,
      "💍": 1648,
      "💐": 1649,
      "💒": 1650,
      "💓": 1651,
      "💔": 1652,
      "💕": 1653,
      "💖": 1654,
      "💗": 1655,
      "💘": 1656,
      "💙": 1657,
      "💚": 1658,
      "💛": 1659,
      "💜": 1660,
      "💝": 1661,
      "💞": 1662,
      "💠": 1663,
      "💡": 1664,
      "💣": 1665,
      "💦": 1666,
      "💪": 1667,
      "💫": 1668,
      "💮": 1669,
      "💯": 1670,
      "💰": 1671,
      "💷": 1672,
      "💻": 1673,
      "📄": 1674,
      "📑": 1675,
      "📚": 1676,
      "📛": 1677,
      "📥": 1678,
      "📩": 1679,
      "📮": 1680,
      "📲": 1681,
      "📷": 1682,
      "📸": 1683,
      "📿": 1684,
      "🔆": 1685,
      "🔈": 1686,
      "🔐": 1687,
      "🔒": 1688,
      "🔕": 1689,
      "🔗": 1690,
      "🔞": 1691,
      "🔥": 1692,
      "🔫": 1693,
      "🔱": 1694,
      "🔴": 1695,
      "🔶": 1696,
      "🔸": 1697,
      "🔹": 1698,
      "🔺": 1699,
      "🕊": 1700,
      "🕌": 1701,
      "🕘": 1702,
      "🖕": 1703,
      "🖤": 1704,
      "🖼": 1705,
      "🗯": 1706,
      "🗿": 1707,
      "😀": 1708,
      "😁": 1709,
      "😂": 1710,
      "😃": 1711,
      "😄": 1712,
      "😅": 1713,
      "😆": 1714,
      "😇": 1715,
      "😈": 1716,
      "😉": 1717,
      "😊": 1718,
      "😋": 1719,
      "😌": 1720,
      "😍": 1721,
      "😎": 1722,
      "😏": 1723,
      "😐": 1724,
      "😑": 1725,
      "😒": 1726,
      "😔": 1727,
      "😕": 1728,
      "😘": 1729,
      "😛": 1730,
      "😜": 1731,
      "😝": 1732,
      "😠": 1733,
      "😢": 1734,
      "😤": 1735,
      "😦": 1736,
      "😧": 1737,
      "😨": 1738,
      "😩": 1739,
      "😪": 1740,
      "😬": 1741,
      "😭": 1742,
      "😮": 1743,
      "😯": 1744,
      "😱": 1745,
      "😲": 1746,
      "😳": 1747,
      "😵": 1748,
      "😷": 1749,
      "😹": 1750,
      "😻": 1751,
      "😽": 1752,
      "😿": 1753,
      "🙁": 1754,
      "🙂": 1755,
      "🙃": 1756,
      "🙄": 1757,
      "🙅": 1758,
      "🙆": 1759,
      "🙇": 1760,
      "🙈": 1761,
      "🙊": 1762,
      "🙋": 1763,
      "🙌": 1764,
      "🙏": 1765,
      "🚌": 1766,
      "🚓": 1767,
      "🚣": 1768,
      "🚨": 1769,
      "🚫": 1770,
      "🚭": 1771,
      "🚵": 1772,
      "🚶": 1773,
      "🚷": 1774,
      "🛌": 1775,
      "🛐": 1776,
      "🛒": 1777,
      "🛫": 1778,
      "🛰": 1779,
      "🟥": 1780,
      "🤍": 1781,
      "🤎": 1782,
      "🤐": 1783,
      "🤒": 1784,
      "🤓": 1785,
      "🤔": 1786,
      "🤕": 1787,
      "🤚": 1788,
      "🤟": 1789,
      "🤠": 1790,
      "🤣": 1791,
      "🤤": 1792,
      "🤧": 1793,
      "🤨": 1794,
      "🤩": 1795,
      "🤪": 1796,
      "🤭": 1797,
      "🤲": 1798,
      "🤸": 1799,
      "🤹": 1800,
      "🥀": 1801,
      "🥇": 1802,
      "🥰": 1803,
      "🥺": 1804,
      "🦋": 1805,
      "🦦": 1806,
      "🦯": 1807,
      "🦼": 1808,
      "🦽": 1809,
      "🧐": 1810,
      "🧑": 1811,
      "🧖": 1812,
      "🧚": 1813,
      "🧝": 1814,
      "🧸": 1815,
      "ي ": 1816,
      "ن ": 1817,
      "هه": 1818,
      "و ": 1819,
      "ان ": 1820,
      "هههه": 1821,
      ".\n": 1822,
      "ه ": 1823,
      "ا ": 1824,
      "ر ": 1825,
      "جي ": 1826,
      " ا": 1827,
      "آه": 1828,
      "ل ": 1829,
      "ند": 1830,
      "ان": 1831,
      "ت ": 1832,
      "ار": 1833,
      "ائ": 1834,
      "، ": 1835,
      "هن ": 1836,
      "م ": 1837,
      "ڻ ": 1838,
      "يو": 1839,
      "کي ": 1840,
      "ين ": 1841,
      "ڪر": 1842,
      "۾ ": 1843,
      "لا": 1844,
      "ي.\n": 1845,
      "ــ": 1846,
      "ال": 1847,
      "ڪ ": 1848,
      "يو ": 1849,
      "تي ": 1850,
      "هههههههه": 1851,
      "جو ": 1852,
      "۽ ": 1853,
      "اه": 1854,
      "سان ": 1855,
      "ون ": 1856,
      "ور": 1857,
      "ته ": 1858,
      "س ": 1859,
      ". ": 1860,
      "ري": 1861,
      "د ": 1862,
      "ما": 1863,
      "ين": 1864,
      "وا": 1865,
      "يڪ": 1866,
      "يا ": 1867,
      "ئي ": 1868,
      "يا": 1869,
      "نه": 1870,
      " م": 1871,
      "آهي.\n": 1872,
      "گه": 1873,
      "رو": 1874,
      "ٽ ": 1875,
      "لاء": 1876,
      "را": 1877,
      "آهي ": 1878,
      "هڪ ": 1879,
      "ب ": 1880,
      "نه ": 1881,
      "تو": 1882,
      "کان ": 1883,
      "ي س": 1884,
      "هو": 1885,
      "ِ ": 1886,
      "نهن": 1887,
      "به ": 1888,
      "يند": 1889,
      "اس": 1890,
      "لي": 1891,
      "ار ": 1892,
      ". . ": 1893,
      "مي": 1894,
      "ڪي": 1895,
      "هو ": 1896,
      "مو": 1897,
      "ي و": 1898,
      "ــــ": 1899,
      " جي ": 1900,
      "اي": 1901,
      "جيڪ": 1902,
      "يون ": 1903,
      "نهن ": 1904,
      "ڪرڻ ": 1905,
      "لي ": 1906,
      "پي": 1907,
      "ور ": 1908,
      "هه ": 1909,
      "آهي": 1910,
      "هان ": 1911,
      "اري ": 1912,
      "ن.\n": 1913,
      "ڪري ": 1914,
      "ءَ": 1915,
      "ف ": 1916,
      "ز ": 1917,
      "تر": 1918,
      "ام": 1919,
      "ست": 1920,
      "نهنجي ": 1921,
      "پو": 1922,
      "نگ": 1923,
      "هي ": 1924,
      "اب": 1925,
      " ڪ": 1926,
      "توهان ": 1927,
      "ن جي ": 1928,
      ": ": 1929,
      "وي": 1930,
      "ني ": 1931,
      "جي": 1932,
      "و.\n": 1933,
      "اد": 1934,
      "يو.\n": 1935,
      "ري ": 1936,
      "لاءِ ": 1937,
      " س": 1938,
      "ڏهن ": 1939,
      "هي": 1940,
      "ه\n": 1941,
      "مان ": 1942,
      "ائي ": 1943,
      "ءَ ": 1944,
      "اسان ": 1945,
      "اهو ": 1946,
      "ها": 1947,
      "مون ": 1948,
      "، ا": 1949,
      "ره": 1950,
      "بي": 1951,
      "جا ": 1952,
      "ول": 1953,
      "تع": 1954,
      "مع": 1955,
      "اص": 1956,
      "من": 1957,
      "جو": 1958,
      "ش ": 1959,
      "پا": 1960,
      "ڪو": 1961,
      "سا": 1962,
      "وڌ": 1963,
      "يل ": 1964,
      "ٿو ": 1965,
      "هههههههههههه": 1966,
      "ڪند": 1967,
      " ۾ ": 1968,
      "ائين ": 1969,
      "!\n": 1970,
      "مي ": 1971,
      "ون": 1972,
      "مل": 1973,
      " ال": 1974,
      "پر ": 1975,
      "پنهنجي ": 1976,
      "سي": 1977,
      "ٿي ": 1978,
      "ڻي ": 1979,
      "سو": 1980,
      "يو و": 1981,
      "بر": 1982,
      "آهن.\n": 1983,
      "انهن ": 1984,
      "ي\n": 1985,
      "هر ": 1986,
      "لو": 1987,
      "او": 1988,
      "سٽ": 1989,
      "ح ": 1990,
      "ن کي ": 1991,
      "ي سگه": 1992,
      "اني ": 1993,
      "آھ": 1994,
      "يڪ ": 1995,
      "قت ": 1996,
      "دي": 1997,
      "في": 1998,
      "طور ": 1999,
      "با": 2000,
      "هئ": 2001,
      "ڊ ": 2002,
      "نا": 2003,
      "هر": 2004,
      "قي": 2005,
      "خت": 2006,
      "ا.\n": 2007,
      "سي ": 2008,
      "ع ": 2009,
      "ها ": 2010,
      "بي ": 2011,
      "سند": 2012,
      "له ": 2013,
      "ڪم": 2014,
      "۽ ا": 2015,
      "؟\n": 2016,
      "ائي": 2017,
      "ق ": 2018,
      "سم": 2019,
      "ڙي ": 2020,
      "ءِ ": 2021,
      "خو": 2022,
      "،\n": 2023,
      "ني": 2024,
      "ام ": 2025,
      "ال ": 2026,
      "آهي ته ": 2027,
      "وري ": 2028,
      "اهي ": 2029,
      "سڀ": 2030,
      "طر": 2031,
      "ماڻ": 2032,
      "اا": 2033,
      "ك ": 2034,
      "گھ": 2035,
      "ي، ": 2036,
      "ئن ": 2037,
      "هههههههههه": 2038,
      "- ": 2039,
      "دا": 2040,
      "بر ": 2041,
      "ڙ ": 2042,
      "فر": 2043,
      "گر": 2044,
      "مح": 2045,
      "مر": 2046,
      "آهن ": 2047,
      "وار": 2048,
      ") ": 2049,
      "\" ": 2050,
      "در": 2051,
      "ن ۾ ": 2052,
      "تح": 2053,
      "مال ": 2054,
      "قي ": 2055,
      "ير": 2056,
      " ان": 2057,
      "ٿا ": 2058,
      "جا": 2059,
      "20": 2060,
      "هوند": 2061,
      "ڪو ": 2062,
      "ڪار": 2063,
      "تي": 2064,
      "نظ": 2065,
      "وڏ": 2066,
      "ڪج": 2067,
      "نو": 2068,
      "وڌيڪ ": 2069,
      "ٿو.\n": 2070,
      "هو.\n": 2071,
      "ڏي": 2072,
      "شا": 2073,
      "عل": 2074,
      "دي ": 2075,
      "ڇا ": 2076,
      "جنهن ": 2077,
      "ضر": 2078,
      "تا": 2079,
      "اف": 2080,
      "نگ ": 2081,
      "گڏ": 2082,
      "ير ": 2083,
      "پر": 2084,
      "تون ": 2085,
      "ورت ": 2086,
      "يءَ ": 2087,
      "ڪم ": 2088,
      "لاء ": 2089,
      "۾ ا": 2090,
      "لو ": 2091,
      "ڙو ": 2092,
      "ڳال": 2093,
      "يندو ": 2094,
      "ــــــــ": 2095,
      "شن ": 2096,
      "جيڪو ": 2097,
      "ڏين": 2098,
      "اح": 2099,
      "طور تي ": 2100,
      "ج ": 2101,
      "ء ": 2102,
      "دا ": 2103,
      "دو": 2104,
      "وقت ": 2105,
      "ائڻ ": 2106,
      "جه": 2107,
      "ٽي ": 2108,
      "ڻو ": 2109,
      "پ ": 2110,
      "سن": 2111,
      "تائين ": 2112,
      "اصل ": 2113,
      " اي": 2114,
      "ت جي ": 2115,
      "ڪنهن ": 2116,
      "يار ": 2117,
      "عم": 2118,
      "يون": 2119,
      "ان جي ": 2120,
      "رک": 2121,
      "بو": 2122,
      "ئين ": 2123,
      "ٽي": 2124,
      "اڳ": 2125,
      "ڇڏ": 2126,
      "ڪي ": 2127,
      "سر": 2128,
      "ٽر": 2129,
      "لا ": 2130,
      "يو ته ": 2131,
      "تو ": 2132,
      "مش": 2133,
      "مون کي ": 2134,
      "ٿي": 2135,
      "به": 2136,
      "جڏهن ": 2137,
      "هههههه": 2138,
      "آهي، ": 2139,
      "ھن ": 2140,
      "مس": 2141,
      "تما": 2142,
      "بد": 2143,
      "in": 2144,
      "مق": 2145,
      "جن": 2146,
      "هن": 2147,
      "چ ": 2148,
      "وڃ": 2149,
      "ٿي و": 2150,
      "ست ": 2151,
      "ڪا ": 2152,
      "ان کي ": 2153,
      "يو آهي.\n": 2154,
      "گي ": 2155,
      "عي ": 2156,
      "ڊي": 2157,
      "پن": 2158,
      "لڳ": 2159,
      "ڻ جي ": 2160,
      "ڏينهن ": 2161,
      "شي": 2162,
      ":\n": 2163,
      "ڪن ": 2164,
      " کان ": 2165,
      "مد": 2166,
      "جيڪي ": 2167,
      "الي ": 2168,
      "آهن": 2169,
      "مت ": 2170,
      "ڪا": 2171,
      "گهر": 2172,
      "نهنجو ": 2173,
      "قو": 2174,
      "چي ": 2175,
      "بن": 2176,
      "ٻڌ": 2177,
      "وٺ": 2178,
      "کي": 2179,
      "ندو ": 2180,
      "حاصل ": 2181,
      "هڪ": 2182,
      "من ": 2183,
      "ر جي ": 2184,
      "ى ": 2185,
      ", ": 2186,
      "ڪيو و": 2187,
      "جيڪڏهن ": 2188,
      "انگ": 2189,
      "ڪيتر": 2190,
      "ة ": 2191,
      "مط": 2192,
      "ڪري سگه": 2193,
      ". . .\n": 2194,
      "چو": 2195,
      "دن": 2196,
      "چي": 2197,
      "در ": 2198,
      "پوءِ ": 2199,
      "حي": 2200,
      "پور": 2201,
      "ن جو ": 2202,
      "شرو": 2203,
      " ۾": 2204,
      "اند": 2205,
      "بل": 2206,
      "صر": 2207,
      "مار": 2208,
      "ندي ": 2209,
      "منهنجي ": 2210,
      "ٿا.\n": 2211,
      "ين جي ": 2212,
      "مه": 2213,
      "ما ": 2214,
      "ڪجهه ": 2215,
      "صو": 2216,
      "اڻ": 2217,
      "er": 2218,
      "في ": 2219,
      "تمام ": 2220,
      "باب": 2221,
      "جون ": 2222,
      "ڏن": 2223,
      "ئون ": 2224,
      "اها ": 2225,
      "ند ": 2226,
      ")\n": 2227,
      "واري ": 2228,
      "ڪيو ": 2229,
      "پاڻ ": 2230,
      "علي": 2231,
      "يان ": 2232,
      "فو": 2233,
      "ٽر ": 2234,
      "ت ا": 2235,
      "په": 2236,
      "يع": 2237,
      "ده ": 2238,
      "پهر": 2239,
      "زند": 2240,
      "استع": 2241,
      "اري": 2242,
      "تص": 2243,
      "ـــ": 2244,
      "بع": 2245,
      "وال": 2246,
      "هههههههههههههههه": 2247,
      "پار": 2248,
      ". . . ": 2249,
      "سندس ": 2250,
      "زي ": 2251,
      "بس ": 2252,
      "شي ": 2253,
      "فا": 2254,
      "ان.\n": 2255,
      "ڪن": 2256,
      "لائ": 2257,
      "ئي.\n": 2258,
      "ڪرڻ جي ": 2259,
      "جن ": 2260,
      "دنيا ": 2261,
      "سم ": 2262,
      "لاءِ": 2263,
      "فت": 2264,
      "ط ": 2265,
      "پي ": 2266,
      "\"\n": 2267,
      "پرو": 2268,
      "استعمال ": 2269,
      "ثر ": 2270,
      "ٿيند": 2271,
      "ٿو": 2272,
      "پڙ": 2273,
      "تق": 2274,
      "يو\n": 2275,
      "هم ": 2276,
      "يون.\n": 2277,
      "هههههههههههههه": 2278,
      "ڪل": 2279,
      "لک": 2280,
      "زم": 2281,
      "19": 2282,
      "پري": 2283,
      "ڪئي ": 2284,
      "زي": 2285,
      "وو": 2286,
      "توهان جي ": 2287,
      "آم": 2288,
      "آخ": 2289,
      "س ا": 2290,
      "هن جي ": 2291,
      "ءُ": 2292,
      "حص": 2293,
      "خاص": 2294,
      "ڏس": 2295,
      "ل جي ": 2296,
      "هئي.\n": 2297,
      "00": 2298,
      "ين.\n": 2299,
      "اي ": 2300,
      "سب": 2301,
      "ذري": 2302,
      "عر": 2303,
      "اهر ": 2304,
      "هن کي ": 2305,
      "سل": 2306,
      "ٻئي ": 2307,
      "فائ": 2308,
      "تج": 2309,
      "مخت": 2310,
      "on": 2311,
      "جود ": 2312,
      "201": 2313,
      "ar": 2314,
      "از ": 2315,
      "شر": 2316,
      "s ": 2317,
      "عا": 2318,
      "ڪار ": 2319,
      "سان گڏ": 2320,
      "ته": 2321,
      "ماڻهو ": 2322,
      "سال": 2323,
      "امل ": 2324,
      "يو، ": 2325,
      "طري": 2326,
      "ھن": 2327,
      "آهي ، ": 2328,
      "پڻ ": 2329,
      "توهان کي ": 2330,
      "e ": 2331,
      "دار ": 2332,
      "وٽ ": 2333,
      "ندا ": 2334,
      "ضرورت ": 2335,
      "هل": 2336,
      "ڪيئن ": 2337,
      "نال": 2338,
      "تن ": 2339,
      "ڪڏهن ": 2340,
      "اھ": 2341,
      "an": 2342,
      "عام ": 2343,
      "يت ": 2344,
      "جي.\n": 2345,
      "ٿي.\n": 2346,
      "ئر ": 2347,
      "تب": 2348,
      "اسان جي ": 2349,
      "جيئن ": 2350,
      "ڏانهن ": 2351,
      "سوا": 2352,
      "يور": 2353,
      "يندا ": 2354,
      "ڇو ": 2355,
      "ل ا": 2356,
      "حال": 2357,
      "شامل ": 2358,
      "آهي\n": 2359,
      "يني ": 2360,
      "سان": 2361,
      "تر ": 2362,
      "بڻ": 2363,
      "اڪ": 2364,
      "ترين ": 2365,
      "غير ": 2366,
      "وڏي ": 2367,
      "م ا": 2368,
      "شن": 2369,
      "st": 2370,
      "ادي ": 2371,
      "واق": 2372,
      "ي سگھ": 2373,
      "چاه": 2374,
      "؟ ": 2375,
      "س.\n": 2376,
      "ر ۾ ": 2377,
      "اتي ": 2378,
      "حقي": 2379,
      "جي و": 2380,
      "بابت ": 2381,
      "صرف ": 2382,
      "جوا": 2383,
      "لف": 2384,
      "۔۔": 2385,
      "ياد ": 2386,
      "آھي ": 2387,
      "شاي": 2388,
      "ستع": 2389,
      "ن تي ": 2390,
      "نق": 2391,
      "ٺو ": 2392,
      "نهي ": 2393,
      "ٿيڻ ": 2394,
      "سڀني ": 2395,
      "آهي ۽ ": 2396,
      "آمري": 2397,
      "ناه": 2398,
      " اسان ": 2399,
      "جھ": 2400,
      "كم ": 2401,
      "بل ": 2402,
      "يعني ": 2403,
      "ستعمال ": 2404,
      " ۽ ": 2405,
      "کان": 2406,
      "لف ": 2407,
      "اچ": 2408,
      "فار": 2409,
      "هيٺ": 2410,
      "دور": 2411,
      "سلا": 2412,
      "نن": 2413,
      "فل": 2414,
      "سنڌ": 2415,
      "اُ": 2416,
      "تن": 2417,
      "مون": 2418,
      "آئون ": 2419,
      "جيڪا ": 2420,
      "at": 2421,
      "گو": 2422,
      "رهيا ": 2423,
      "پل": 2424,
      "تاري": 2425,
      "ءَ جي ": 2426,
      "هاڻي ": 2427,
      "اااا": 2428,
      "مث": 2429,
      "يندي ": 2430,
      "اع": 2431,
      "تاريخ": 2432,
      "انا ": 2433,
      "ڊي ": 2434,
      "س جي ": 2435,
      "ڪل ": 2436,
      "پوء": 2437,
      "گي": 2438,
      "ههههههههههه ": 2439,
      "م جي ": 2440,
      "خلا": 2441,
      "ات": 2442,
      "يا.\n": 2443,
      "آر": 2444,
      "الله ": 2445,
      "مان": 2446,
      " اهو ": 2447,
      "مم": 2448,
      "و آهي.\n": 2449,
      "واپ": 2450,
      "ٺاه": 2451,
      "ٿا": 2452,
      "ڪريو ": 2453,
      "نئين ": 2454,
      "ن ۽ ": 2455,
      "en": 2456,
      "ٽيڪ": 2457,
      "ي ٿو ": 2458,
      "ن کان ": 2459,
      "ءُ ": 2460,
      "رب": 2461,
      "ظ ": 2462,
      "ڪر ": 2463,
      "ڪمل ": 2464,
      "رهي ": 2465,
      "خوا": 2466,
      "رس": 2467,
      "ٻين ": 2468,
      "اهم ": 2469,
      "مدد ": 2470,
      "، ۽ ": 2471,
      "م\n": 2472,
      "ھ ": 2473,
      "10": 2474,
      "ڳاله": 2475,
      "ڳالهه ": 2476,
      "را ": 2477,
      "يق": 2478,
      "سائي": 2479,
      "گهڻو ": 2480,
      "مين": 2481,
      "رهيو ": 2482,
      "اسان کي ": 2483,
      "ستان ": 2484,
      "بح": 2485,
      "وق": 2486,
      "ٿي سگه": 2487,
      "or": 2488,
      "وب": 2489,
      "ڇا": 2490,
      "اڄ": 2491,
      "سٽ ": 2492,
      "وارو ": 2493,
      "يه ": 2494,
      "ونڊ": 2495,
      "دو ": 2496,
      "عمل ": 2497,
      " آ": 2498,
      "ئي": 2499,
      "ي ٿو.\n": 2500,
      "گرا": 2501,
      "نا ": 2502,
      "هتي ": 2503,
      "مبر ": 2504,
      "پهرين ": 2505,
      "علا": 2506,
      "برا": 2507,
      "سيا": 2508,
      "ص ": 2509,
      "ههههههههههه\n": 2510,
      "انهي ": 2511,
      "al": 2512,
      "ختم ": 2513,
      "پنهنجو ": 2514,
      "زندگي ": 2515,
      "ٻي": 2516,
      "ن سان ": 2517,
      "جل": 2518,
      "ک ": 2519,
      "ڳو ": 2520,
      "هٿ": 2521,
      "سال ": 2522,
      "مت": 2523,
      "نظر ": 2524,
      "سائ": 2525,
      " او": 2526,
      "ت ۾ ": 2527,
      "شك": 2528,
      "، اسان ": 2529,
      "کيس ": 2530,
      "تنهن ": 2531,
      "، پر ": 2532,
      "ذا ": 2533,
      "رو ": 2534,
      "ٽو": 2535,
      "ضح": 2536,
      "حد ": 2537,
      "عي": 2538,
      "ٿيل ": 2539,
      "ڻ جو ": 2540,
      "آھي.\n": 2541,
      "خاص ": 2542,
      "خبر ": 2543,
      " مان ": 2544,
      "گذ": 2545,
      "ڻ لاءِ ": 2546,
      "طرح ": 2547,
      "فون ": 2548,
      "ڪمپ": 2549,
      "عال": 2550,
      "چيو ته ": 2551,
      "خد": 2552,
      "سين ": 2553,
      " الله ": 2554,
      "مڪمل ": 2555,
      "آن ": 2556,
      "، اهو ": 2557,
      "مختلف ": 2558,
      "تظ": 2559,
      "آز": 2560,
      "ارو ": 2561,
      "وار ": 2562,
      "ههههههههه ": 2563,
      "حا": 2564,
      "قان": 2565,
      "و\n": 2566,
      "ڪه": 2567,
      "پيدا ": 2568,
      "قسم ": 2569,
      "نالو ": 2570,
      "قاب": 2571,
      "يم ": 2572,
      "طرف": 2573,
      "ڪندا ": 2574,
      " (": 2575,
      "مسئ": 2576,
      "ڏا": 2577,
      "ٽ جي ": 2578,
      "ان\n": 2579,
      "پيش": 2580,
      "ڪيل ": 2581,
      "صح": 2582,
      "سگه": 2583,
      "ت جو ": 2584,
      "پڙه": 2585,
      "تاب ": 2586,
      "ٽا ": 2587,
      "پاڪ": 2588,
      "طريق": 2589,
      "تان ": 2590,
      "بهترين ": 2591,
      "دار": 2592,
      "ڪوش": 2593,
      "ملڪ ": 2594,
      "ين کي ": 2595,
      "گر ": 2596,
      "ناهي ": 2597,
      "ههههههههه\n": 2598,
      "ندڙ ": 2599,
      "مطل": 2600,
      "ڙا ": 2601,
      "شروع ": 2602,
      "ٽ ۾ ": 2603,
      "سين": 2604,
      "وڏو ": 2605,
      "شو": 2606,
      " من": 2607,
      "موجود ": 2608,
      "امي": 2609,
      "غل": 2610,
      " ۾،": 2611,
      "ڏي ": 2612,
      "فر ": 2613,
      "ول ": 2614,
      "دل": 2615,
      "خي": 2616,
      "تا ": 2617,
      "سر ": 2618,
      ". . . . ": 2619,
      "سان گڏ ": 2620,
      "ڏئي ": 2621,
      "د ا": 2622,
      "ت\n": 2623,
      "ائون": 2624,
      "ٻه ": 2625,
      "عو ": 2626,
      "صحي": 2627,
      "ٻار": 2628,
      "داخ": 2629,
      "ur": 2630,
      "از": 2631,
      "بچ": 2632,
      "ههههههه ": 2633,
      "ان کان ": 2634,
      "ڪيو.\n": 2635,
      "سڀ کان ": 2636,
      "صورت ": 2637,
      "صف": 2638,
      "وچ": 2639,
      "نس": 2640,
      "ڳول": 2641,
      " مو": 2642,
      "ميش": 2643,
      "it": 2644,
      "هوندي ": 2645,
      "ان جو ": 2646,
      " ه": 2647,
      "توھ": 2648,
      "هڪ ا": 2649,
      "اق": 2650,
      "اين ": 2651,
      "پهچ": 2652,
      "ro": 2653,
      ". .\n": 2654,
      "پسند": 2655,
      "عليه ": 2656,
      "هم": 2657,
      "پاس": 2658,
      "دم ": 2659,
      "يو ۽ ": 2660,
      "ٽن ": 2661,
      "يندڙ ": 2662,
      "دل ": 2663,
      "ing": 2664,
      "جب": 2665,
      "اچي ": 2666,
      "قر": 2667,
      "صلا": 2668,
      " استعمال ": 2669,
      "ههههههه\n": 2670,
      "شهر ": 2671,
      "جر": 2672,
      "es": 2673,
      "پنهن": 2674,
      "مض": 2675,
      "ات ": 2676,
      "سوس ": 2677,
      "منهنجو ": 2678,
      "و، ": 2679,
      "ڪري ڇڏ": 2680,
      "راند": 2681,
      "قل": 2682,
      "ھنجي ": 2683,
      "تعلي": 2684,
      "يا و": 2685,
      "موا": 2686,
      "شايد ": 2687,
      "مز": 2688,
      "=\"": 2689,
      "تخ": 2690,
      "ٻيو ": 2691,
      "وز": 2692,
      "ڪام": 2693,
      "ڃا ": 2694,
      "پئ": 2695,
      "رائ": 2696,
      "گهر ": 2697,
      "اد ": 2698,
      "ہ ": 2699,
      "ضو": 2700,
      "ننڍ": 2701,
      "فيص": 2702,
      "ن\n": 2703,
      " تي ": 2704,
      "انگر ": 2705,
      "هئي ": 2706,
      "جواب ": 2707,
      "ويب ": 2708,
      "صاح": 2709,
      "بعد ": 2710,
      "حڪو": 2711,
      "افي ": 2712,
      "نڊ": 2713,
      "سو ": 2714,
      "سام": 2715,
      "مال": 2716,
      "بت ": 2717,
      "يم": 2718,
      "ين ۾ ": 2719,
      "چيو ": 2720,
      " مل": 2721,
      "آ ": 2722,
      "ڪرڻ لاءِ ": 2723,
      "شخ": 2724,
      "تصوي": 2725,
      "مائ": 2726,
      "پڇ": 2727,
      "ڪتاب ": 2728,
      "/ ": 2729,
      "بو ": 2730,
      "ٿو ته ": 2731,
      "ظاهر ": 2732,
      "الي": 2733,
      "خيا": 2734,
      "َ ": 2735,
      "ٿئي ": 2736,
      "وٽ": 2737,
      "ورت": 2738,
      "ڪنهن به ": 2739,
      "ڪيترن ": 2740,
      "اسين ": 2741,
      "لين": 2742,
      "هئا.\n": 2743,
      "چونڊ": 2744,
      "ڪرڻ": 2745,
      "علائ": 2746,
      "ٺي ": 2747,
      "جتي ": 2748,
      "سبب ": 2749,
      "_ ": 2750,
      "ic": 2751,
      "صي": 2752,
      "معلو": 2753,
      "ڻ ته ": 2754,
      "ھو ": 2755,
      "ئر": 2756,
      "ڪري": 2757,
      "جاري ": 2758,
      "مخ": 2759,
      "كل": 2760,
      "ڀر": 2761,
      "بال": 2762,
      "پرا": 2763,
      "ed": 2764,
      "بين": 2765,
      "ضي ": 2766,
      "فري": 2767,
      "رات ": 2768,
      "ڪندو ": 2769,
      "ٻي ": 2770,
      "خري": 2771,
      "ضروري ": 2772,
      "زار ": 2773,
      "ڪرڻ جو ": 2774,
      "پئي ": 2775,
      "ھي ": 2776,
      " جو ": 2777,
      "ڪندي ": 2778,
      "د\n": 2779,
      " مون ": 2780,
      "جان": 2781,
      "ھڪ": 2782,
      "دع": 2783,
      "زت ": 2784,
      "ذريعي ": 2785,
      "دوران ": 2786,
      "اڻ ": 2787,
      "هُ": 2788,
      "هههههههههه\n": 2789,
      "ماڻهن ": 2790,
      "وي ": 2791,
      "فت ": 2792,
      "س ۾ ": 2793,
      "مو ": 2794,
      "هور ": 2795,
      "سپ": 2796,
      "کار": 2797,
      "پيش ": 2798,
      "گهٽ ": 2799,
      "ڇو": 2800,
      "ڪاري ": 2801,
      "بهتر ": 2802,
      "اک": 2803,
      "شع": 2804,
      "بار": 2805,
      "ض ": 2806,
      "ڏيڻ ": 2807,
      "ڪريو.\n": 2808,
      "بط": 2809,
      "گا": 2810,
      "منظ": 2811,
      "ملا": 2812,
      "با ": 2813,
      "ولي ": 2814,
      "هج": 2815,
      "يار": 2816,
      "ياد": 2817,
      "ترقي ": 2818,
      "داري ": 2819,
      "ڪندڙ ": 2820,
      "خدا ": 2821,
      "يندو آهي.\n": 2822,
      "پهريون ": 2823,
      "نام": 2824,
      "اسٽ": 2825,
      "جيڪڏهن توهان ": 2826,
      "خيال ": 2827,
      "وانگر ": 2828,
      "قائ": 2829,
      "نش": 2830,
      "وئي ": 2831,
      "کا": 2832,
      "ميشه ": 2833,
      "ـ ": 2834,
      "بخ": 2835,
      "يو وڃ": 2836,
      "روز": 2837,
      "ڌ ": 2838,
      "گ ": 2839,
      "مارڪي": 2840,
      "اخت": 2841,
      "عظ": 2842,
      "سط": 2843,
      "<<": 2844,
      "دف": 2845,
      "يندو.\n": 2846,
      "حل ": 2847,
      "ڪس ": 2848,
      "دور ": 2849,
      "ان ۾ ": 2850,
      "ي وي": 2851,
      "سڄ": 2852,
      "ٿيو ": 2853,
      "ڊو": 2854,
      "ههههههههههههه ": 2855,
      "حر": 2856,
      "فق": 2857,
      "رڳو ": 2858,
      "مٿ": 2859,
      "تك": 2860,
      "ائون ": 2861,
      "ڊيو ": 2862,
      "؟؟": 2863,
      "اف ": 2864,
      "اندر ": 2865,
      "حصو ": 2866,
      "اش": 2867,
      "بند ": 2868,
      "يڪي": 2869,
      " - ": 2870,
      "ڏھن ": 2871,
      "آئي ": 2872,
      "ناهي.\n": 2873,
      "ڳا": 2874,
      "والله ": 2875,
      "آمريڪا ": 2876,
      "ڪيترن ئي ": 2877,
      "خط": 2878,
      "باد": 2879,
      "آسان ": 2880,
      "سمجه": 2881,
      "ساڳ": 2882,
      "تنهنجي ": 2883,
      "ڪري سگهو ": 2884,
      ": ا": 2885,
      "تف": 2886,
      " مي": 2887,
      "نف": 2888,
      "آآ": 2889,
      "ا\n": 2890,
      "طرفان ": 2891,
      "صار": 2892,
      "انه ": 2893,
      " سال": 2894,
      "هههههههههههه\n": 2895,
      "ذه": 2896,
      "ليل ": 2897,
      "ڪور": 2898,
      "تعل": 2899,
      "هههههههههههه ": 2900,
      "ي جي ": 2901,
      "ٽرو": 2902,
      "15": 2903,
      "بين ": 2904,
      "اير": 2905,
      "حو": 2906,
      "قسم": 2907,
      "آء": 2908,
      "ڪري سگھ": 2909,
      "ين\n": 2910,
      "هيءَ ": 2911,
      "علي ": 2912,
      "جهه ": 2913,
      "ع ڪ": 2914,
      "ڻ گهر": 2915,
      "ڏاڍ": 2916,
      " مع": 2917,
      "18": 2918,
      "تبد": 2919,
      "اخ": 2920,
      "انو ": 2921,
      "نتي": 2922,
      "ٽو ": 2923,
      "ههههه ": 2924,
      "س\n": 2925,
      "ڇاڪا": 2926,
      "صحيح ": 2927,
      " ۾.\n": 2928,
      "ڊيا ": 2929,
      "200": 2930,
      "اجا": 2931,
      "قيمت ": 2932,
      "ڄاڻ": 2933,
      "مص": 2934,
      "سندن ": 2935,
      "مطاب": 2936,
      "تبديل ": 2937,
      "عوا": 2938,
      "ڪت": 2939,
      "انهن کي ": 2940,
      "et": 2941,
      "مست": 2942,
      "د جي ": 2943,
      "ت ۽ ": 2944,
      "محسوس ": 2945,
      "موضو": 2946,
      "ڪاروب": 2947,
      "بن ": 2948,
      "بند": 2949,
      "ڊيٽا ": 2950,
      "اسلا": 2951,
      "ڻا ": 2952,
      "ي وڃ": 2953,
      "دين ": 2954,
      "ولا ": 2955,
      "ان، ": 2956,
      "ڏنو ": 2957,
      "كن ": 2958,
      "سما": 2959,
      "ڪمپني ": 2960,
      "اوهان ": 2961,
      "عد": 2962,
      "مطلب ": 2963,
      "مسل": 2964,
      "تيار ": 2965,
      "واز": 2966,
      "سڀ ": 2967,
      "پيدا": 2968,
      "نع": 2969,
      "تقري": 2970,
      "هو ته ": 2971,
      "الا": 2972,
      "مقص": 2973,
      "طي": 2974,
      "رج": 2975,
      "دست": 2976,
      "رکي ": 2977,
      "زار": 2978,
      "طرف ": 2979,
      "حت": 2980,
      "پوءِ": 2981,
      "ههههههههههههه\n": 2982,
      "بلا": 2983,
      "ٻاهر ": 2984,
      "انتظ": 2985,
      "هوندو ": 2986,
      "آهن، ": 2987,
      "پيا": 2988,
      "صور": 2989,
      "اري ۾ ": 2990,
      "هاي ": 2991,
      "کان وڌيڪ ": 2992,
      "پاڻي ": 2993,
      "th": 2994,
      "مين ": 2995,
      "پيار ": 2996,
      "ڪيو ويو ": 2997,
      "واز ": 2998,
      "am": 2999,
      "بيان ": 3000,
      "هاڻ": 3001,
      "ٻن ": 3002,
      "اڻي ": 3003,
      "هميشه ": 3004,
      "انس": 3005,
      "ضحك": 3006,
      "مير ": 3007,
      "ياتي ": 3008,
      "وارا ": 3009,
      "ڪ جي ": 3010,
      "ڙن ": 3011,
      "پاڻ کي ": 3012,
      "ع ۾ ": 3013,
      "جڏهن ته ": 3014,
      "قت": 3015,
      "ههههه\n": 3016,
      "توڻ": 3017,
      "ٻڌا": 3018,
      "سک": 3019,
      "ac": 3020,
      "re": 3021,
      "حقيقت ": 3022,
      "ٿا ته ": 3023,
      "توکي ": 3024,
      "ڇاڪاڻ ته ": 3025,
      "تحقي": 3026,
      "ميو": 3027,
      "جيتوڻ": 3028,
      "ل\n": 3029,
      "هو، ": 3030,
      "y ": 3031,
      "شروعا": 3032,
      "بت": 3033,
      "حق": 3034,
      "رور ": 3035,
      "پورٽ ": 3036,
      ">>": 3037,
      "ٿيو.\n": 3038,
      "ت کي ": 3039,
      "ين، ": 3040,
      "موق": 3041,
      "ٻنهي ": 3042,
      "ادا ": 3043,
      "ا، ": 3044,
      "هوءَ ": 3045,
      "شه": 3046,
      "ستي ": 3047,
      "to": 3048,
      "ڳ ": 3049,
      "ڪري ٿو.\n": 3050,
      "ڏک": 3051,
      "قابل ": 3052,
      "مثال ": 3053,
      "نٿو ": 3054,
      "ڪيترائي ": 3055,
      "طل": 3056,
      "ٿور": 3057,
      "وٺي ": 3058,
      "خخ": 3059,
      "رد": 3060,
      "ڪلا": 3061,
      "آهي؟\n": 3062,
      "خرا": 3063,
      "ــــــــــــ": 3064,
      "عورت ": 3065,
      "يو ويو ": 3066,
      "يرو ": 3067,
      "ف ا": 3068,
      "اهڙي ": 3069,
      "يي": 3070,
      "ڪئ": 3071,
      "ل ۾ ": 3072,
      "سخ": 3073,
      "ن مان ": 3074,
      "يادي ": 3075,
      "گراه": 3076,
      "مج": 3077,
      "پروگرا": 3078,
      "art": 3079,
      "پاڪستان ": 3080,
      "له": 3081,
      "ڪرڻ لاء": 3082,
      "هههههههههه ": 3083,
      "اوھ": 3084,
      "داخل ": 3085,
      "لائن ": 3086,
      " ، ": 3087,
      "ب جي ": 3088,
      "خر": 3089,
      "12": 3090,
      "ٻار ": 3091,
      "ن جا ": 3092,
      "نه آهي.\n": 3093,
      "نئون ": 3094,
      "شاع": 3095,
      "مه ": 3096,
      ").\n": 3097,
      "قانون ": 3098,
      "رين ": 3099,
      "رار ": 3100,
      "خلاف ": 3101,
      "el": 3102,
      ".\"\n": 3103,
      "داد ": 3104,
      "حڪومت ": 3105,
      "چوڻ ": 3106,
      "ن، ": 3107,
      "معيار ": 3108,
      "اڄ ": 3109,
      "هن جو ": 3110,
      "مونکي ": 3111,
      "ڪرڻ لاء ": 3112,
      "حال ": 3113,
      "om": 3114,
      "ڪرو ": 3115,
      "لي جي ": 3116,
      "آهيان.\n": 3117,
      "دوست ": 3118,
      "سائيٽ ": 3119,
      "چه ": 3120,
      " سيڪ": 3121,
      "اڃا ": 3122,
      "قائم ": 3123,
      "وڙ": 3124,
      "il": 3125,
      "واپس ": 3126,
      "ion": 3127,
      "انهن جي ": 3128,
      "ِ.\n": 3129,
      "ڪ ا": 3130,
      "اجازت ": 3131,
      "ٽري": 3132,
      "30": 3133,
      "حلو": 3134,
      "ين جو ": 3135,
      "اٿ": 3136,
      "بنيادي ": 3137,
      "هند": 3138,
      "ا جي ": 3139,
      "ڪاميا": 3140,
      "انسان ": 3141,
      "ههههههههههههههه ": 3142,
      "آهي جيڪو ": 3143,
      "موجو": 3144,
      "ڌو ": 3145,
      "هار": 3146,
      "ڻ کان ": 3147,
      "بار ": 3148,
      "امي ": 3149,
      "وس": 3150,
      "دنيا جي ": 3151,
      "خوش ": 3152,
      "گڏ ": 3153,
      "باني ": 3154,
      "کين ": 3155,
      "هههههههه ": 3156,
      "آهيون.\n": 3157,
      "ڀي": 3158,
      "هيٺ ": 3159,
      "لاز": 3160,
      "درخوا": 3161,
      "جنهن کي ": 3162,
      "ش ڪ": 3163,
      "مُ": 3164,
      "بس": 3165,
      "خوب": 3166,
      "ex": 3167,
      "تري ": 3168,
      "فراهم ": 3169,
      "اج": 3170,
      "گرو": 3171,
      "وڃي ": 3172,
      "هنن ": 3173,
      "م.\n": 3174,
      "مٿي ": 3175,
      "هين ": 3176,
      "ليس ": 3177,
      "ائين.\n": 3178,
      "هوندا ": 3179,
      "ندو.\n": 3180,
      "خريد ": 3181,
      "ڪري رهيا ": 3182,
      "پنھنجي ": 3183,
      "مل ": 3184,
      "جائ": 3185,
      "هذا ": 3186,
      "مات ": 3187,
      "نظام ": 3188,
      "عام طور تي ": 3189,
      "خا": 3190,
      "لن": 3191,
      "ڻ ۾ ": 3192,
      "ز جي ": 3193,
      "مشهور ": 3194,
      "رابط": 3195,
      "که ": 3196,
      "کول": 3197,
      "رياس": 3198,
      "چڱ": 3199,
      "صنع": 3200,
      "گهٽ": 3201,
      "سٺو ": 3202,
      "لي ۾ ": 3203,
      "ديد ": 3204,
      "کڻ": 3205,
      "شو ": 3206,
      "شان ": 3207,
      "چڪو ": 3208,
      "اڳ ": 3209,
      "ڊاڪ": 3210,
      "زائ": 3211,
      "سا ": 3212,
      "سوچ": 3213,
      "ترو ": 3214,
      "سن ": 3215,
      "ڪير ": 3216,
      "يون آهن.\n": 3217,
      "شروع ڪ": 3218,
      "ب ا": 3219,
      "سمج": 3220,
      "روا": 3221,
      "كل ": 3222,
      "مواد ": 3223,
      "غير": 3224,
      " کي ": 3225,
      "ou": 3226,
      "جڳ": 3227,
      "پوء ": 3228,
      "آڻ": 3229,
      "آهيون ": 3230,
      "هيل ": 3231,
      "پيو ": 3232,
      "توھان ": 3233,
      "پلي": 3234,
      "آفي": 3235,
      "رنگ": 3236,
      "صفح": 3237,
      "هههههههه\n": 3238,
      "رق": 3239,
      "is": 3240,
      "id": 3241,
      "پاڻ": 3242,
      "طرح": 3243,
      "دگي ": 3244,
      "باري ۾ ": 3245,
      "چار": 3246,
      "گل ": 3247,
      "ڪٽ": 3248,
      "كي": 3249,
      "؛\n": 3250,
      "غلط": 3251,
      "لفظ": 3252,
      "رام ": 3253,
      "جي\n": 3254,
      "ٻيهر ": 3255,
      "لاءِ ا": 3256,
      "واقعي ": 3257,
      "بق": 3258,
      "يا آهن.\n": 3259,
      "ٿيندو ": 3260,
      "آخري ": 3261,
      "طلا": 3262,
      "ندڙ": 3263,
      "وچ ۾ ": 3264,
      "نيو": 3265,
      "نوجو": 3266,
      "پٽ": 3267,
      "ر\n": 3268,
      "ھڪ ": 3269,
      "حق ": 3270,
      "هين": 3271,
      "۔\n": 3272,
      "202": 3273,
      "مد ": 3274,
      "تنهن": 3275,
      "11": 3276,
      " و": 3277,
      "ڪڏهن به ": 3278,
      "ڪونه ": 3279,
      "سڪ": 3280,
      "محفو": 3281,
      "ch": 3282,
      "گرد": 3283,
      "؛ ": 3284,
      "نقص": 3285,
      "ڌر": 3286,
      "ڏسي ": 3287,
      "دوست": 3288,
      "عن": 3289,
      "ڌي ": 3290,
      "نن ": 3291,
      " مح": 3292,
      "دنيا ۾ ": 3293,
      "ملي ": 3294,
      "هون ": 3295,
      "گري": 3296,
      "ow": 3297,
      "جمع": 3298,
      "موڪل": 3299,
      "پليڪي": 3300,
      "اثر ": 3301,
      "نالا": 3302,
      "تبدي": 3303,
      "نالي ": 3304,
      "اھو ": 3305,
      "چار ": 3306,
      "يندڙ": 3307,
      "پاران ": 3308,
      "؟\"\n": 3309,
      "ميل ": 3310,
      "ڪو به ": 3311,
      "اض": 3312,
      "رست": 3313,
      "پيل ": 3314,
      "او ": 3315,
      "منصو": 3316,
      "ڳوٺ": 3317,
      "صر ": 3318,
      "عمل": 3319,
      "مقاب": 3320,
      "آس": 3321,
      "ڪئي.\n": 3322,
      "دير ": 3323,
      "آهن\n": 3324,
      "سل ": 3325,
      "جو هڪ ": 3326,
      "ڪوشش ": 3327,
      "سڃ": 3328,
      "آهيان ": 3329,
      "دلچ": 3330,
      "100": 3331,
      "صاف ": 3332,
      "تجرب": 3333,
      "منهن ": 3334,
      "اسب ": 3335,
      "بائ": 3336,
      "ڪري ٿو ": 3337,
      "كر": 3338,
      "فتار ": 3339,
      "ايڪ": 3340,
      "ڻ ۽ ": 3341,
      "رھ": 3342,
      "50": 3343,
      "تش": 3344,
      "اين": 3345,
      "حل": 3346,
      ": \"": 3347,
      "شهر": 3348,
      "نس ": 3349,
      "ڊر ": 3350,
      "بنياد ": 3351,
      "خوش": 3352,
      "ك\n": 3353,
      "ڀا": 3354,
      "طريقي ": 3355,
      "است": 3356,
      "نيٽ ": 3357,
      "دري": 3358,
      "سواءِ ": 3359,
      "وري": 3360,
      "as": 3361,
      "شادي ": 3362,
      "ههههههههههههههه\n": 3363,
      "حڪم ": 3364,
      "مهر": 3365,
      "ترتي": 3366,
      "شت ": 3367,
      " سيڪڙو ": 3368,
      "سيڪ": 3369,
      "م کي ": 3370,
      "t ": 3371,
      "زو ": 3372,
      "فيصلو ": 3373,
      "ٽنگ": 3374,
      "آئ": 3375,
      "يءَ ۾ ": 3376,
      ". ا": 3377,
      "صاحب ": 3378,
      "سڏ": 3379,
      "سوال ": 3380,
      "ڇو ته ": 3381,
      "جسم ": 3382,
      "سفر ": 3383,
      "صي ": 3384,
      "يڪ ا": 3385,
      "هجي ": 3386,
      "وائ": 3387,
      "جنهن جي ": 3388,
      "انگري": 3389,
      "ڊ جي ": 3390,
      "علائق": 3391,
      "جنهن ۾ ": 3392,
      "ٰ ": 3393,
      "۽ اهو ": 3394,
      "آءٌ": 3395,
      "14": 3396,
      "ڻ.\n": 3397,
      "لاءِ م": 3398,
      "چر": 3399,
      "ن لاءِ ": 3400,
      "ٽيڪنالا": 3401,
      "ol": 3402,
      "رنگ ": 3403,
      "سلام ": 3404,
      "ڪڍ": 3405,
      "ڏٺو ": 3406,
      "رد ": 3407,
      "ڏٺ": 3408,
      "حڪم": 3409,
      "وه": 3410,
      "ايت ": 3411,
      "ڏيکار": 3412,
      "ضرور ": 3413,
      "ad": 3414,
      "هف": 3415,
      "بول ": 3416,
      "ماني ": 3417,
      "تڪ": 3418,
      "و ته ": 3419,
      "گذري": 3420,
      "کن": 3421,
      "آھن ": 3422,
      "پيداوار ": 3423,
      "ميت ": 3424,
      "ذاتي ": 3425,
      "يا\n": 3426,
      "باقي ": 3427,
      "ي سي ": 3428,
      "تنهن ڪري ": 3429,
      "ائڻ جي ": 3430,
      "يءَ جو ": 3431,
      "اني": 3432,
      "هن چيو ته ": 3433,
      ">\n": 3434,
      "عمر ": 3435,
      "آزاد ": 3436,
      "ڊگه": 3437,
      "گهن ": 3438,
      "اعل": 3439,
      "ميڊيا ": 3440,
      "تي\n": 3441,
      "جب ": 3442,
      "ڪندڙ": 3443,
      "تي.\n": 3444,
      "، هڪ ": 3445,
      "پهري": 3446,
      "ئن": 3447,
      "اث": 3448,
      "تڏهن ": 3449,
      "اپ": 3450,
      "وه ": 3451,
      "قول ": 3452,
      "حير": 3453,
      " سال ": 3454,
      "ٽل ": 3455,
      "لون ": 3456,
      "ڪان": 3457,
      "ھو": 3458,
      "خاص طور تي ": 3459,
      "صل ": 3460,
      "ڊر": 3461,
      "حد": 3462,
      "رهيو آهي.\n": 3463,
      "زب": 3464,
      "طا": 3465,
      "مقصد ": 3466,
      "شيون ": 3467,
      "ڊيو": 3468,
      "يونيور": 3469,
      "معام": 3470,
      "سُ": 3471,
      "سرو": 3472,
      "ٿو، ": 3473,
      "ٽائ": 3474,
      "ڏسڻ ": 3475,
      "خود": 3476,
      "a ": 3477,
      "سٽري": 3478,
      "قب": 3479,
      "ي واري ": 3480,
      "ڪيو وڃ": 3481,
      "13": 3482,
      "على ": 3483,
      "ميد": 3484,
      "۽ انهن ": 3485,
      "تعليم ": 3486,
      "هههههه ": 3487,
      "آيا ": 3488,
      "زا ": 3489,
      "ترج": 3490,
      "مسا": 3491,
      "گار ": 3492,
      "دائ": 3493,
      "جنگ": 3494,
      "صل": 3495,
      "le": 3496,
      "جان ": 3497,
      "حضر": 3498,
      "ان ڪري ": 3499,
      "ڪائون": 3500,
      "زندگ": 3501,
      "شت": 3502,
      "ماڻهن کي ": 3503,
      "گھر": 3504,
      "فاظ": 3505,
      "بور": 3506,
      "ممڪن ": 3507,
      "في ال": 3508,
      "ٽري ": 3509,
      "س ۽ ": 3510,
      "جها": 3511,
      "شن جي ": 3512,
      "ڪاروبار ": 3513,
      "آھي": 3514,
      "عو": 3515,
      "انج": 3516,
      "جهڙ": 3517,
      "آواز ": 3518,
      "رح": 3519,
      "ڪٿي ": 3520,
      "لوڊ ": 3521,
      "هي س": 3522,
      "ڪريو\n": 3523,
      "زن ": 3524,
      "مپ": 3525,
      "ههههههههههههههههه ": 3526,
      "هد": 3527,
      "ڪرڻ ۾ ": 3528,
      "يونيورسٽ": 3529,
      "16": 3530,
      "قدر": 3531,
      "روح": 3532,
      "ستائين ": 3533,
      "اول ": 3534,
      "آمريڪي ": 3535,
      "پيغ": 3536,
      "کانپوءِ ": 3537,
      ": م": 3538,
      "۽ اسان ": 3539,
      "کڻي ": 3540,
      "سخت ": 3541,
      "عالمي ": 3542,
      "nd": 3543,
      "ڇڏي ": 3544,
      "هههههههههههههه\n": 3545,
      "ارا ": 3546,
      "م ۾ ": 3547,
      "پل ": 3548,
      "هٿ ": 3549,
      "تي، ": 3550,
      "آخر ": 3551,
      "فن": 3552,
      "حفاظ": 3553,
      "مڙ": 3554,
      "ماح": 3555,
      "ولي": 3556,
      "چئ": 3557,
      "ن ٿا.\n": 3558,
      "عند": 3559,
      "جذ": 3560,
      "خ ": 3561,
      "قرار ": 3562,
      "ٽنگ ": 3563,
      "ريت ": 3564,
      "ڪرڻ گهر": 3565,
      "آهن ۽ ": 3566,
      "آن لائن ": 3567,
      "آپري": 3568,
      "لل": 3569,
      "ڪهڙي ": 3570,
      "ڪري.\n": 3571,
      "ڪتاب": 3572,
      "شاء": 3573,
      "لاڳا": 3574,
      "پورو ": 3575,
      "جيتوڻيڪ ": 3576,
      "پري ": 3577,
      " انهن ": 3578,
      "واحد ": 3579,
      "آخر": 3580,
      "صارف": 3581,
      "مطال": 3582,
      "خراب ": 3583,
      "هههههههههههههه ": 3584,
      "سڄي ": 3585,
      "ٺ ": 3586,
      "قدم ": 3587,
      "پيا ": 3588,
      " اس": 3589,
      " سي": 3590,
      "شيء ": 3591,
      "ده": 3592,
      "ٿو\n": 3593,
      "مسئلو ": 3594,
      "خبر": 3595,
      "oo": 3596,
      "ترتيب ": 3597,
      "آيو ": 3598,
      "ec": 3599,
      "هههههه\n": 3600,
      "گذريل ": 3601,
      "\">": 3602,
      "start": 3603,
      "حس": 3604,
      "خاند": 3605,
      "ُ ": 3606,
      "ايم ": 3607,
      "آھن.\n": 3608,
      "جنگ ": 3609,
      "شڪ ": 3610,
      "فور": 3611,
      "ايل ": 3612,
      "ڏنل ": 3613,
      "خل": 3614,
      "ين تي ": 3615,
      "ندر ": 3616,
      "سچ": 3617,
      "گهڻي ": 3618,
      "صلاحي": 3619,
      "دلچس": 3620,
      "اب ": 3621,
      "اميد ": 3622,
      "ث ": 3623,
      "اسين.\n": 3624,
      "لفظ ": 3625,
      "17": 3626,
      "منهن": 3627,
      "نمو": 3628,
      "dur": 3629,
      "عور": 3630,
      "ها\n": 3631,
      "خواه": 3632,
      "وسي": 3633,
      "نٽ ": 3634,
      "ڏسند": 3635,
      "يون\n": 3636,
      "نه ٿو ": 3637,
      "يندي.\n": 3638,
      "واقع": 3639,
      "قسم جي ": 3640,
      "ag": 3641,
      "نت ": 3642,
      "سائين ": 3643,
      "مرڪ": 3644,
      "پيش ڪ": 3645,
      "نٿا ": 3646,
      "ٽيڪنالاجي ": 3647,
      " اسان جي ": 3648,
      "طريقي سان ": 3649,
      "درخواست ": 3650,
      "مذه": 3651,
      "ب\n": 3652,
      "، انهن ": 3653,
      "ريل ": 3654,
      "س، ": 3655,
      "ڪردار ": 3656,
      "گل": 3657,
      "انهيءَ ": 3658,
      "\" dur": 3659,
      "ـــــ": 3660,
      "سنگ": 3661,
      "م، ": 3662,
      "ڻن ": 3663,
      "واض": 3664,
      "هئا ": 3665,
      "کان پوءِ ": 3666,
      "هائ": 3667,
      "اڪثر ": 3668,
      "نمبر ": 3669,
      "ڀيرو ": 3670,
      "متي ": 3671,
      " انا ": 3672,
      "راح": 3673,
      "ايس ": 3674,
      "دان": 3675,
      "اسپ": 3676,
      "فع": 3677,
      "ھڪڙو ": 3678,
      "جه ": 3679,
      "خوبصورت ": 3680,
      "مري": 3681,
      "متا": 3682,
      "ماڻهن جي ": 3683,
      "ينا ": 3684,
      "ي ۾ ": 3685,
      "چين ": 3686,
      "جي ٿو.\n": 3687,
      "تمام گهڻو ": 3688,
      "ج جي ": 3689,
      "نما": 3690,
      "پٽ ": 3691,
      "ڏو ": 3692,
      "اڳتي ": 3693,
      " .\n": 3694,
      "ران ": 3695,
      "يون، ": 3696,
      "ڪجھ ": 3697,
      "يقين ": 3698,
      "ساس ": 3699,
      "زور ": 3700,
      "قص": 3701,
      "ى ال": 3702,
      "ي سگهن ": 3703,
      "موضوع ": 3704,
      "ڪئي وئي ": 3705,
      "ءَ ۾ ": 3706,
      "ڊاڪٽر ": 3707,
      "تحري": 3708,
      "وض": 3709,
      "پوري ": 3710,
      "ندي": 3711,
      "طاقت ": 3712,
      "تحف": 3713,
      "آي": 3714,
      "ڪافي ": 3715,
      "غي": 3716,
      "هن وقت ": 3717,
      " مار": 3718,
      "ڪيو آهي.\n": 3719,
      "سياسي ": 3720,
      "ڊ ڪ": 3721,
      "آهن ، ": 3722,
      "25": 3723,
      "ي وئي ": 3724,
      "محفوظ ": 3725,
      "ضرورت آهي.\n": 3726,
      "مرا": 3727,
      "جي، ": 3728,
      "م جو ": 3729,
      "وني ": 3730,
      "باد ": 3731,
      "تاريخ ": 3732,
      "ٻيا ": 3733,
      "فقط ": 3734,
      "عدال": 3735,
      "مب": 3736,
      "حوالي ": 3737,
      "ڪوبه ": 3738,
      "قومي ": 3739,
      "' ": 3740,
      "آهن جيڪي ": 3741,
      "لازمي ": 3742,
      "صب": 3743,
      "ي وقت ": 3744,
      "آهي!\n": 3745,
      "زر": 3746,
      "مبر": 3747,
      "جمه": 3748,
      "ت، ": 3749,
      "تنظ": 3750,
      "شري": 3751,
      "پھ": 3752,
      "ٿيندي ": 3753,
      "آر ": 3754,
      "سه": 3755,
      "سار": 3756,
      " اسٽ": 3757,
      "ٽا": 3758,
      " من ": 3759,
      "روش": 3760,
      "صدر ": 3761,
      "ڪرا": 3762,
      "رن ": 3763,
      "ذميو": 3764,
      "سڀ ڪ": 3765,
      "بلڪل ": 3766,
      "پس ": 3767,
      "ی ": 3768,
      "ڪرڻ چاه": 3769,
      "ڪيا و": 3770,
      "جاءِ ": 3771,
      "تيز ": 3772,
      "معلومات ": 3773,
      "حقيقي ": 3774,
      "ھي": 3775,
      "قبول ": 3776,
      "انڊ": 3777,
      "نمائ": 3778,
      "ارت ": 3779,
      "گفت": 3780,
      "پوليس ": 3781,
      "< ": 3782,
      "شل ": 3783,
      "bl": 3784,
      "مضبو": 3785,
      "د.\n": 3786,
      "ديو": 3787,
      "ڪجهه": 3788,
      "پنهنجن ": 3789,
      "تن جي ": 3790,
      "تعلق ": 3791,
      "ڻ لڳ": 3792,
      "يو هو.\n": 3793,
      "يات ": 3794,
      "طان": 3795,
      "ٽس ": 3796,
      "خصو": 3797,
      "عليه ال": 3798,
      " مون کي ": 3799,
      "i ": 3800,
      "ايه ": 3801,
      "سٽر ": 3802,
      "پُ": 3803,
      "پاڪست": 3804,
      "ڻو پو": 3805,
      "ڪوشش ڪ": 3806,
      "و ۽ ": 3807,
      "خود ": 3808,
      "گڏيل ": 3809,
      "س اي": 3810,
      "ويج": 3811,
      "انھن ": 3812,
      "ره ": 3813,
      "مان هڪ ": 3814,
      "منتق": 3815,
      "ههههههههههههههههه\n": 3816,
      "قبل ": 3817,
      "ڌيان ": 3818,
      "گذار": 3819,
      "رڪ": 3820,
      "انٽر": 3821,
      "موجوده ": 3822,
      "ٿين ": 3823,
      "ليه ": 3824,
      "جديد ": 3825,
      "ز ا": 3826,
      "ڊال": 3827,
      "پسند ": 3828,
      "فته ": 3829,
      "ڪريون ": 3830,
      "بهر": 3831,
      "ڪنٽرو": 3832,
      "شين ": 3833,
      "غري": 3834,
      "قد": 3835,
      "دن ": 3836,
      "ذڪر ": 3837,
      "ڪرڻ کان ": 3838,
      "ي ٿو ته ": 3839,
      "تس": 3840,
      "ٻاه": 3841,
      "تصدي": 3842,
      "حيث": 3843,
      "اختيار ": 3844,
      "قدر ": 3845,
      "ء جي ": 3846,
      "نر": 3847,
      "گرمي ": 3848,
      "مف": 3849,
      "وفا": 3850,
      "حضرت ": 3851,
      "غ ": 3852,
      "ٿيون ": 3853,
      "چئي ": 3854,
      "م ۽ ": 3855,
      "غلط ": 3856,
      "ڙي": 3857,
      "ڪيون ": 3858,
      "رون ": 3859,
      "ماڊ": 3860,
      "ھن کي ": 3861,
      "ري جي ": 3862,
      "سماجي ": 3863,
      "ءِ": 3864,
      "ءَ جو ": 3865,
      "۾ هڪ ": 3866,
      "ان تي ": 3867,
      "ون.\n": 3868,
      "مقر": 3869,
      "ي ٿي.\n": 3870,
      "ٿيون.\n": 3871,
      "شاند": 3872,
      "بج": 3873,
      "مت جي ": 3874,
      "هڙي ": 3875,
      "تعداد ": 3876,
      "نموني ": 3877,
      "هار ": 3878,
      "ڻ لاء": 3879,
      "سٺي ": 3880,
      "يندا آهن.\n": 3881,
      "پائ": 3882,
      "هول": 3883,
      "ڊ ۾ ": 3884,
      "پارٽ": 3885,
      "سسٽ": 3886,
      "جي ته ": 3887,
      "وووو": 3888,
      "چا": 3889,
      "ڊرائ": 3890,
      "۾\n": 3891,
      "ay": 3892,
      "ڻ\n": 3893,
      "جوڙ": 3894,
      "ڪارڊ ": 3895,
      "اسٽي": 3896,
      "جيڪڏھن ": 3897,
      "]\n": 3898,
      "ڪيو ته ": 3899,
      "هههههههههههههههه\n": 3900,
      "24": 3901,
      "لك ": 3902,
      "ويب سائيٽ ": 3903,
      "تصوير ": 3904,
      ",,": 3905,
      "ڪن جي ": 3906,
      "سمجھ": 3907,
      "آف ": 3908,
      "به نه ": 3909,
      "معا": 3910,
      "خدمت ": 3911,
      "عظيم ": 3912,
      "قوا": 3913,
      "نڍ": 3914,
      "كه ": 3915,
      "اسڪو": 3916,
      "گوگل ": 3917,
      "اسان جو ": 3918,
      "هجي.\n": 3919,
      "ندس ": 3920,
      "، توهان ": 3921,
      "صورت ۾ ": 3922,
      "چم": 3923,
      "ڪهڙو ": 3924,
      "- ا": 3925,
      "مار ": 3926,
      "ِي ": 3927,
      "ٿي سگھ": 3928,
      "ڪين": 3929,
      "جلد ": 3930,
      "آب": 3931,
      "هو ۽ ": 3932,
      "ت.\n": 3933,
      "شڪ": 3934,
      "مر ": 3935,
      "ڪري و": 3936,
      "ٻا": 3937,
      "ڪيو": 3938,
      "ٿي وڃ": 3939,
      "محبت ": 3940,
      "ماري ": 3941,
      "وف": 3942,
      "ادو ": 3943,
      "ائي ڇڏ": 3944,
      "چون ": 3945,
      "ڪري، ": 3946,
      "گو ": 3947,
      "ter": 3948,
      "انت ": 3949,
      "سلس": 3950,
      "شخص ": 3951,
      "علائقي ": 3952,
      "متح": 3953,
      "زخ": 3954,
      "ري ۾ ": 3955,
      "جدا ": 3956,
      "ة\n": 3957,
      "صد": 3958,
      "?\n": 3959,
      "قط": 3960,
      "گن": 3961,
      "هڪ ٻئي ": 3962,
      "سوال": 3963,
      "جر ": 3964,
      "ــــــــــــــــ": 3965,
      "واضح ": 3966,
      "هئي، ": 3967,
      "ذريع": 3968,
      "ثق": 3969,
      "برطان": 3970,
      "هذ": 3971,
      "هه جي ": 3972,
      "يڪل ": 3973,
      "ِ،": 3974,
      "، اهي ": 3975,
      "ئي، ": 3976,
      "انداز ": 3977,
      " \"": 3978,
      "im": 3979,
      "يو آهي ": 3980,
      "فران": 3981,
      "ين ۽ ": 3982,
      "طريقو ": 3983,
      "ig": 3984,
      "مام ": 3985,
      "ائين": 3986,
      "پڪ ": 3987,
      "روي ": 3988,
      "ابو ": 3989,
      "نقصان ": 3990,
      "es ": 3991,
      "لع": 3992,
      "جن کي ": 3993,
      "يو ويو.\n": 3994,
      "فيه ": 3995,
      "وز ": 3996,
      "متاثر ": 3997,
      "فٽ ": 3998,
      "پال": 3999,
      "ڪيو ويو آهي.\n": 4000,
      "صبح ": 4001,
      "چن": 4002,
      "جلدي ": 4003,
      "ڙيون ": 4004,
      "فض": 4005,
      "آهيو ": 4006,
      "ڪارڪر": 4007,
      "چر ": 4008,
      "نه سگه": 4009,
      "س کي ": 4010,
      "ڏاڍو ": 4011,
      "ڊائون ": 4012,
      "ائڻ لاءِ ": 4013,
      "< start": 4014,
      "فارم ": 4015,
      "ٽ\n": 4016,
      "مطابق ": 4017,
      "ٺهيل ": 4018,
      "ڪريو": 4019,
      "سف": 4020,
      "ندو آهي.\n": 4021,
      "سور": 4022,
      "يو ويندو ": 4023,
      "آءٌ ": 4024,
      "ڪمپن": 4025,
      "وا ": 4026,
      "ارن ": 4027,
      "ليک": 4028,
      "رپور": 4029,
      "تحقيق": 4030,
      "حيثيت ": 4031,
      "جد": 4032,
      "عت ": 4033,
      "ڪش": 4034,
      "ورتو ": 4035,
      "اك": 4036,
      "تك ": 4037,
      "جو نالو ": 4038,
      "ڪمپيو": 4039,
      "تد": 4040,
      "خطر": 4041,
      "ليڪ": 4042,
      "ڄ ": 4043,
      "هاڻ ": 4044,
      "ب م": 4045,
      "زين ": 4046,
      "عش": 4047,
      "ھر ": 4048,
      "ن ٿا ": 4049,
      "ڳالهائ": 4050,
      "تنهنڪري ": 4051,
      "م ال": 4052,
      "موبائ": 4053,
      "شاگرد": 4054,
      "مهيا ": 4055,
      "ڄڻ ": 4056,
      "مڪمل طور تي ": 4057,
      "شخص": 4058,
      "شروعات ": 4059,
      "عه ": 4060,
      "ٿ ": 4061,
      "ڪئين ": 4062,
      ") جي ": 4063,
      "هيو.\n": 4064,
      "زل ": 4065,
      "اااااااا": 4066,
      "ٻول": 4067,
      "يا، ": 4068,
      "هفتي ": 4069,
      "طور": 4070,
      "نوجوان ": 4071,
      "رش": 4072,
      "جيئ": 4073,
      "وڻ": 4074,
      "and": 4075,
      "ڪلڪ ": 4076,
      "طال": 4077,
      "لن ": 4078,
      "مني ": 4079,
      "پوئ": 4080,
      "رهيو.\n": 4081,
      "ڪجھ": 4082,
      "عملي ": 4083,
      "مهرباني ": 4084,
      "پٺ": 4085,
      "ويئر ": 4086,
      "۽ ان": 4087,
      "خال": 4088,
      "لاڳو ": 4089,
      "000": 4090,
      "مجمو": 4091,
      "ثاب": 4092,
      "مفت ": 4093,
      "ڪائ": 4094,
      "اِ": 4095,
      "بري": 4096,
      "هال": 4097,
      "ڏو": 4098,
      "ل.\n": 4099,
      "تعمير ": 4100,
      "ٿي چ": 4101,
      "سنڀ": 4102,
      "شيءِ ": 4103,
      "سه ": 4104,
      "ههههههههههههههههههه ": 4105,
      "ڪري رهيو ": 4106,
      "نظر": 4107,
      "زير ": 4108,
      "عق": 4109,
      "ــــــ": 4110,
      "هيه ": 4111,
      "گذر": 4112,
      "زو": 4113,
      "من جي ": 4114,
      "ڊائ": 4115,
      " اڳ": 4116,
      "احت": 4117,
      "ڏيند": 4118,
      "کائ": 4119,
      "؟\"": 4120,
      "ٿيندو.\n": 4121,
      "قدي": 4122,
      "يرا ": 4123,
      "نك": 4124,
      "يءَ جي ": 4125,
      "199": 4126,
      "راند ": 4127,
      "هوندو.\n": 4128,
      "اول": 4129,
      "نار": 4130,
      "ٽيو": 4131,
      "س ته ": 4132,
      "قانوني ": 4133,
      "پاسي ": 4134,
      "ٽ تي ": 4135,
      " سڀ": 4136,
      "پارٽي ": 4137,
      "رفتار ": 4138,
      "وڪرو ": 4139,
      "لان": 4140,
      "ته، ": 4141,
      "سان.\n": 4142,
      "وال ": 4143,
      "روز ": 4144,
      "ضحك ": 4145,
      "يك": 4146,
      "ڻ تي ": 4147,
      "يقيني ": 4148,
      "ڪال": 4149,
      "آباد ": 4150,
      "ع\n": 4151,
      "فرا": 4152,
      "مڃ": 4153,
      "نوان ": 4154,
      "ڪئي و": 4155,
      "بين الا": 4156,
      "ڪت ": 4157,
      "ناهي ته ": 4158,
      "دفعو ": 4159,
      "چ ۾ ": 4160,
      "جيستائين ": 4161,
      "دود ": 4162,
      "صورتح": 4163,
      "پنج": 4164,
      "رسائي ": 4165,
      "اوي": 4166,
      "رس ": 4167,
      "شاء الله ": 4168,
      "جيئن ته ": 4169,
      "em": 4170,
      "چيو.\n": 4171,
      "بس ا": 4172,
      "اعلان ": 4173,
      "بين الاقوا": 4174,
      " ڏينهن ": 4175,
      "لي\n": 4176,
      "عورت": 4177,
      "پهريان ": 4178,
      "يش": 4179,
      "جهڙو": 4180,
      "آن": 4181,
      "ing ": 4182,
      "ڪري سگهو ٿا.\n": 4183,
      "40": 4184,
      "پور ": 4185,
      "ٿي، ": 4186,
      "فٽ": 4187,
      " سن": 4188,
      "شاهه ": 4189,
      "پاب": 4190,
      " <<": 4191,
      "iv": 4192,
      "حيا": 4193,
      "پليٽ ": 4194,
      "مقرر ": 4195,
      "يا جي ": 4196,
      "kn": 4197,
      "ندي.\n": 4198,
      "ڪرين ": 4199,
      "م اي": 4200,
      "پ جي ": 4201,
      "حقيق": 4202,
      "قلا": 4203,
      "انسٽ": 4204,
      "ي سگهو ": 4205,
      "انتظار ": 4206,
      "ترا": 4207,
      "آل": 4208,
      "تعار": 4209,
      "گرم ": 4210,
      "هڪڙي ": 4211,
      "شنل ": 4212,
      "ڪان ": 4213,
      "خاصي": 4214,
      "چيو": 4215,
      "ڪرڻ.\n": 4216,
      "سڃاڻ": 4217,
      "ٿورو ": 4218,
      "ثابت ": 4219,
      "کو": 4220,
      "توق": 4221,
      "يوم ": 4222,
      "هههههههههههههههه ": 4223,
      "ation": 4224,
      "اڪي": 4225,
      "تنهنجو ": 4226,
      "باو": 4227,
      "ي سر": 4228,
      "ڪرڻ ۽ ": 4229,
      "ul": 4230,
      "زمين ": 4231,
      "مضمون ": 4232,
      "رستو ": 4233,
      "22": 4234,
      "ي سڀ": 4235,
      "ايو": 4236,
      "ڻ گهرجي.\n": 4237,
      "ا ۽ ": 4238,
      "ڪ ۾ ": 4239,
      " اوھ": 4240,
      "قاع": 4241,
      "ڪنٽرول ": 4242,
      "ڀائ": 4243,
      " ما ": 4244,
      "ايران ": 4245,
      "سك": 4246,
      "مناسب ": 4247,
      "آيو.\n": 4248,
      "جسم": 4249,
      "، يا ": 4250,
      "علاوه ": 4251,
      "ڳنڍ": 4252,
      "رکڻ ": 4253,
      "ڳالهيون ": 4254,
      "ڄاڻ ": 4255,
      "علاج ": 4256,
      "ھڪڙي ": 4257,
      "ir": 4258,
      "وان": 4259,
      " مش": 4260,
      "خيال": 4261,
      "لك": 4262,
      "دما": 4263,
      "رب ": 4264,
      "ڏني ": 4265,
      "هـ": 4266,
      "اهو هڪ ": 4267,
      "us": 4268,
      " اها ": 4269,
      "ونا ": 4270,
      "ent": 4271,
      "لام ": 4272,
      " ڪئي ": 4273,
      "توهان جو ": 4274,
      "جنهن جو ": 4275,
      " اسان کي ": 4276,
      "ون\n": 4277,
      "يءَ سان ": 4278,
      "رقم ": 4279,
      "بال ": 4280,
      "ڪيو ويو.\n": 4281,
      "تحقيق ": 4282,
      "زال ": 4283,
      "جنسي ": 4284,
      "ي سي": 4285,
      "پروگرام ": 4286,
      "گم ": 4287,
      "تال ": 4288,
      "ـــــــ": 4289,
      "ڪُ": 4290,
      "فهر": 4291,
      "ڏا ": 4292,
      "ى ا": 4293,
      "توان": 4294,
      "ot": 4295,
      "وضاح": 4296,
      "ربي ": 4297,
      "زن": 4298,
      "برابر ": 4299,
      " -": 4300,
      "قات ": 4301,
      "ٽ ا": 4302,
      "معمو": 4303,
      "صورتحال ": 4304,
      "ذهن ": 4305,
      "قيا": 4306,
      "مضبوط ": 4307,
      "آهي جيڪا ": 4308,
      "هڪڙو ": 4309,
      "مٿان ": 4310,
      "ap": 4311,
      "وڊيو ": 4312,
      "سنڌ جي ": 4313,
      "ٽي و": 4314,
      "يندا.\n": 4315,
      "اڳ ۾ ": 4316,
      "تصور ": 4317,
      "شكرا ": 4318,
      "زه ": 4319,
      "مالي ": 4320,
      "مرح": 4321,
      "ڪنهن کي ": 4322,
      "لڳي ": 4323,
      "تخلي": 4324,
      "ارتي ": 4325,
      "روڪ": 4326,
      "هڪ ئي ": 4327,
      "اسلامي ": 4328,
      "* ": 4329,
      "خار": 4330,
      "er ": 4331,
      "رسال": 4332,
      "مرد ": 4333,
      "تجربو ": 4334,
      "ثقاف": 4335,
      "ون ٿا.\n": 4336,
      "پليڪيشن ": 4337,
      "هون": 4338,
      "آرام ": 4339,
      "معاه": 4340,
      "تاب": 4341,
      "ز\n": 4342,
      " ب": 4343,
      "مخال": 4344,
      "قتل ": 4345,
      "سچ ": 4346,
      "نڪ": 4347,
      "فرق ": 4348,
      "سرڪاري ": 4349,
      "ت ال": 4350,
      "واڌ": 4351,
      "اظ": 4352,
      "ذي": 4353,
      "نيا": 4354,
      "لکي ": 4355,
      "۾ اسان ": 4356,
      "۔۔۔\n": 4357,
      "صرف": 4358,
      " مر": 4359,
      "طاق": 4360,
      "آهيو.\n": 4361,
      "ههههههههههههههههههه\n": 4362,
      "خان": 4363,
      "يڪشن ": 4364,
      "پير ": 4365,
      "سڀ کان وڌيڪ ": 4366,
      "ظاه": 4367,
      "مور": 4368,
      "ياري ": 4369,
      "پ ۾ ": 4370,
      "چون": 4371,
      "ان وقت ": 4372,
      "ٿي ته ": 4373,
      "اڃا تائين ": 4374,
      "know": 4375,
      "اوھان کي ": 4376,
      "م: ": 4377,
      "ڻ واري ": 4378,
      "ڏنو و": 4379,
      "س جو ": 4380,
      "ياب ": 4381,
      "ماحول ": 4382,
      "تها ": 4383,
      "ٽون ": 4384,
      "رف": 4385,
      "ڪندو.\n": 4386,
      "شاندار ": 4387,
      "ڪارڪردگي ": 4388,
      " کان وڌيڪ ": 4389,
      "ماه": 4390,
      "ً ": 4391,
      "چه": 4392,
      "وارن ": 4393,
      "ڪيا ": 4394,
      "ed ": 4395,
      "رهي": 4396,
      "پوسٽ ": 4397,
      "پنهنجا ": 4398,
      "خر ": 4399,
      "سمن": 4400,
      "صلي ": 4401,
      "o ": 4402,
      "ز کي ": 4403,
      "مئ": 4404,
      "الح": 4405,
      "خط ": 4406,
      "دش": 4407,
      "ماءُ ": 4408,
      "ائي جي ": 4409,
      "، جيڪو ": 4410,
      "گهڻ": 4411,
      "عرصي ": 4412,
      "سگھ": 4413,
      "يءَ کي ": 4414,
      "بنا ": 4415,
      "سنڌي ": 4416,
      "روح ": 4417,
      "جڏھن ": 4418,
      "گار": 4419,
      "فرد ": 4420,
      "اڳوا": 4421,
      "ٻولي ": 4422,
      "پيغام ": 4423,
      " ؟؟": 4424,
      "ندا.\n": 4425,
      "جن جي ": 4426,
      "ڳي ": 4427,
      "ون ٿا ": 4428,
      "پاڪ ": 4429,
      "زين": 4430,
      "ڪام ": 4431,
      " ڪو": 4432,
      "زماني ": 4433,
      "ڪڏهن ڪڏهن ": 4434,
      "هر هڪ ": 4435,
      "محدود ": 4436,
      "متون ": 4437,
      "ِي": 4438,
      "ڌار ": 4439,
      "آهن ته ": 4440,
      "ڪريان ": 4441,
      "حسين ": 4442,
      "هوندو آهي.\n": 4443,
      "اتو ": 4444,
      "تجز": 4445,
      "معلوم ": 4446,
      "com": 4447,
      "، اي": 4448,
      "محمد ": 4449,
      "ٿيڻ جي ": 4450,
      "مك": 4451,
      "منهنجا ": 4452,
      "سئ": 4453,
      "ت سان ": 4454,
      "ٿي سگهي ٿو.\n": 4455,
      "بين الاقوامي ": 4456,
      "موضوع": 4457,
      "حمل": 4458,
      "، انهي ": 4459,
      "رستي ": 4460,
      " انسان ": 4461,
      "ھن جي ": 4462,
      "جئين ": 4463,
      "پيئ": 4464,
      " ڪار": 4465,
      "ڪيٽ ": 4466,
      "صحيح": 4467,
      "چڙ": 4468,
      "ندا آهن.\n": 4469,
      "َر": 4470,
      "پک": 4471,
      "گھر ": 4472,
      "ڙيل ": 4473,
      "ڻ، ": 4474,
      "ٺا ": 4475,
      "।\n": 4476,
      "pl": 4477,
      "ڻ ا": 4478,
      "ساب ": 4479,
      "عجي": 4480,
      "آرٽيڪ": 4481,
      " S": 4482,
      "پين": 4483,
      "هيهي": 4484,
      "حبي": 4485,
      "صيل ": 4486,
      "عبد": 4487,
      "غور ": 4488,
      "مي\n": 4489,
      "un": 4490,
      "؟؟\n": 4491,
      "ڪهاڻ": 4492,
      "آزادي ": 4493,
      "داد": 4494,
      "هههههههههههههههههه ": 4495,
      "60": 4496,
      "لحا": 4497,
      "ورو ": 4498,
      "tex": 4499,
      "پلا": 4500,
      "اصلي ": 4501,
      "ڪونه": 4502,
      "ind": 4503,
      "فائدو ": 4504,
      "موٽ": 4505,
      "احساس ": 4506,
      "ائڻ جو ": 4507,
      "ٿي سگهي ": 4508,
      "مطلب": 4509,
      "ڪامياب ": 4510,
      " >>": 4511,
      "شرح ": 4512,
      "مختلف": 4513,
      "ڊگهي ": 4514,
      "شڪار ": 4515,
      "مھ": 4516,
      "ل کي ": 4517,
      "انساني ": 4518,
      "مڪ": 4519,
      "گهر ۾ ": 4520,
      "چين": 4521,
      "ورڪ ": 4522,
      "نها ": 4523,
      "هنڌ": 4524,
      "ش ا": 4525,
      "بدل": 4526,
      "بدر": 4527,
      "مند ": 4528,
      "ناڪ ": 4529,
      "علم ": 4530,
      "يو، \"": 4531,
      "بئن": 4532,
      "خلي": 4533,
      "ولا": 4534,
      "آهي:\n": 4535,
      "غذ": 4536,
      "ليم ": 4537,
      "آفري": 4538,
      "خير ": 4539,
      "سنگ ": 4540,
      "ٽائي": 4541,
      "ڪمي": 4542,
      "سنڌ ": 4543,
      "برقرار ": 4544,
      ". . . .\n": 4545,
      "ھنجو ": 4546,
      "تقريبن ": 4547,
      "پيو": 4548,
      "باهه ": 4549,
      "ٽرانس": 4550,
      "all": 4551,
      "بيو": 4552,
      "تل": 4553,
      "جز": 4554,
      "زم ": 4555,
      "مخصو": 4556,
      "آهي جو ": 4557,
      "يون ه": 4558,
      "نص": 4559,
      "يء ": 4560,
      "ڃان ": 4561,
      "هههههههههههههههههه": 4562,
      "داشت ": 4563,
      "پوئتي ": 4564,
      "د: ": 4565,
      "آهي پر ": 4566,
      "ار جي ": 4567,
      "لاڳاپيل ": 4568,
      "حي ": 4569,
      "نگ جي ": 4570,
      "گيري ": 4571,
      "um": 4572,
      "پريشان ": 4573,
      "ه ال": 4574,
      "انسان": 4575,
      "ٿي ويو.\n": 4576,
      "ملڪ ۾ ": 4577,
      "بنياد تي ": 4578,
      "لکيل ": 4579,
      "آزاد": 4580,
      "تفصيل ": 4581,
      "وجود ": 4582,
      "تن کي ": 4583,
      "تو.\n": 4584,
      "شرا": 4585,
      "يو ويو آهي.\n": 4586,
      "ov": 4587,
      "بان": 4588,
      "ڪراچي ": 4589,
      "چيزي ": 4590,
      "ڻ چاه": 4591,
      "ويجهو ": 4592,
      "\" جي ": 4593,
      "شام ": 4594,
      "ٺه": 4595,
      "ابط": 4596,
      "جد ": 4597,
      "ورا": 4598,
      "نقط": 4599,
      "ة ال": 4600,
      "تور ": 4601,
      "ڪيس ": 4602,
      "منتقل ": 4603,
      "کل": 4604,
      "گه ": 4605,
      " منهنجي ": 4606,
      "ٽ کي ": 4607,
      "تهائي ": 4608,
      "D ": 4609,
      "قا": 4610,
      "خواب ": 4611,
      "دعا ": 4612,
      "ڊوائي": 4613,
      "خوشي ": 4614,
      "ab": 4615,
      "بش": 4616,
      "وط": 4617,
      "ڪپڙ": 4618,
      "بيت ": 4619,
      " انج": 4620,
      "ٻڌايو ته ": 4621,
      "آڪ": 4622,
      "ان سان ": 4623,
      "دي جي ": 4624,
      "سياح": 4625,
      "خرچ ": 4626,
      "۔۔۔۔": 4627,
      "ٿا\n": 4628,
      "فقي": 4629,
      "وڪي": 4630,
      "ٿيا ": 4631,
      "تي هڪ ": 4632,
      "اهڙو ": 4633,
      "رهي آهي.\n": 4634,
      " اُ": 4635,
      "باس ": 4636,
      "-\n": 4637,
      "And": 4638,
      "کر": 4639,
      "حوالي سان ": 4640,
      "لن جي ": 4641,
      "زيرا": 4642,
      "جڳهه ": 4643,
      "عمر": 4644,
      "وڌيڪ ا": 4645,
      "چان": 4646,
      "21": 4647,
      "ها.\n": 4648,
      "ڏيڻ جي ": 4649,
      "ـــــــــ": 4650,
      "لائسن": 4651,
      "ري\n": 4652,
      "گهڻا ": 4653,
      "نتيجي ": 4654,
      "اَ": 4655,
      "ڊالر ": 4656,
      "ضابط": 4657,
      "ليت ": 4658,
      "٪ ": 4659,
      "ڊزائ": 4660,
      "ڪهاڻي ": 4661,
      "ٿا، ": 4662,
      "حما": 4663,
      "ٿي چڪو ": 4664,
      "آمد ": 4665,
      "شاه": 4666,
      "عاد": 4667,
      "يڪس ": 4668,
      "فلم ": 4669,
      "ڊڪ": 4670,
      "ڻ سان ": 4671,
      "اهو ئي ": 4672,
      "تعارف ": 4673,
      " هڪ ": 4674,
      "هههههههههههههههههه\n": 4675,
      "هوءَ": 4676,
      "آهن:\n": 4677,
      "انداز": 4678,
      "آه ": 4679,
      "وَ": 4680,
      "ڪرائ": 4681,
      "، ان": 4682,
      "گرد ": 4683,
      "يون ۽ ": 4684,
      "پو ": 4685,
      "ٻڌائ": 4686,
      "سڪ ": 4687,
      "شڪل ": 4688,
      "آهي، پر ": 4689,
      "قدرتي ": 4690,
      "جهڙوڪ ": 4691,
      "پٿ": 4692,
      "وره": 4693,
      "جهڙو ": 4694,
      "زندگي": 4695,
      "ڪاميابي ": 4696,
      "23": 4697,
      "ڪن کي ": 4698,
      " مخت": 4699,
      "ڳولا ": 4700,
      "صارف ": 4701,
      "مائي ": 4702,
      "اسي ": 4703,
      "وڏا ": 4704,
      "پيام ": 4705,
      "اڳيان ": 4706,
      "جواب ڏ": 4707,
      "of": 4708,
      "رض": 4709,
      "عا ": 4710,
      "هلي ": 4711,
      "پن ": 4712,
      "موت ": 4713,
      "اري جي ": 4714,
      "لاء هڪ ": 4715,
      "وقت ا": 4716,
      "زيراعظ": 4717,
      "ڪيترا ": 4718,
      "سعو": 4719,
      "وڌيڪ": 4720,
      "ي ته ": 4721,
      "۽ هڪ ": 4722,
      "رين": 4723,
      "بڻجي ": 4724,
      "رواي": 4725,
      "خان ": 4726,
      "سٽي": 4727,
      "ڪري سگهو ٿا ": 4728,
      "سامان ": 4729,
      "فطر": 4730,
      "جيان ": 4731,
      "فعال ": 4732,
      "ڪمپيوٽر ": 4733,
      "؟!\n": 4734,
      "تہ ": 4735,
      "متن ": 4736,
      "$ ": 4737,
      "ندو": 4738,
      "ڪا به ": 4739,
      "roid": 4740,
      "تصديق ": 4741,
      "ين سان ": 4742,
      "سامهون ": 4743,
      "سطح ": 4744,
      "**": 4745,
      "بنا": 4746,
      "بغير ": 4747,
      "• ": 4748,
      "ن تائين ": 4749,
      "روشني ": 4750,
      "ڪرو": 4751,
      "پير": 4752,
      "فيس ": 4753,
      "موجب ": 4754,
      "عوامي ": 4755,
      "تبديلي ": 4756,
      "ويند": 4757,
      "ڊجي": 4758,
      "ائن": 4759,
      "ز ۾ ": 4760,
      "مختصر ": 4761,
      "خامو": 4762,
      "بھ": 4763,
      "لط": 4764,
      "جام": 4765,
      "کاري ": 4766,
      "گير": 4767,
      "هههه\n": 4768,
      "ڇا توهان ": 4769,
      "پروسي": 4770,
      "بچا": 4771,
      "يو وڃي.\n": 4772,
      "ارو": 4773,
      "هجڻ ": 4774,
      "ڊائون لوڊ ": 4775,
      "26": 4776,
      "موسي": 4777,
      "Android": 4778,
      "وج": 4779,
      "اوزار ": 4780,
      "چاهي ": 4781,
      "ٺيڪ ": 4782,
      "S ": 4783,
      "قول": 4784,
      "مغ": 4785,
      "ڪن ۾ ": 4786,
      "ز ۽ ": 4787,
      "، اها ": 4788,
      "مينٽ ": 4789,
      "تن ۾ ": 4790,
      "كك": 4791,
      "مَ": 4792,
      "هزار": 4793,
      "ڪڙ": 4794,
      "گهٽ ۾ ": 4795,
      "ڳالھ": 4796,
      "موقعو ": 4797,
      "بن جي ": 4798,
      "لائين ": 4799,
      "عذ": 4800,
      "درد ": 4801,
      "نه.\n": 4802,
      "هيچ ": 4803,
      "ملڪ جي ": 4804,
      "مش ": 4805,
      "لاس ": 4806,
      "ائيڊ": 4807,
      "ندو هو.\n": 4808,
      "پسند ڪ": 4809,
      "موسم ": 4810,
      "سوشل ": 4811,
      "قوم ": 4812,
      "صلاح ": 4813,
      "جار": 4814,
      "يال": 4815,
      "ڪين ": 4816,
      "سول": 4817,
      "ءَ کي ": 4818,
      "بلو": 4819,
      "فه ": 4820,
      "مگر ": 4821,
      "ٽيم ": 4822,
      "هئي ته ": 4823,
      "ڪاروباري ": 4824,
      "هههه ": 4825,
      "يندي آهي.\n": 4826,
      "شد": 4827,
      "هفت": 4828,
      "شرط": 4829,
      "سلام": 4830,
      "سفار": 4831,
      "عزي": 4832,
      "ل اي": 4833,
      "تعري": 4834,
      "آھي، ": 4835,
      "ٿيندڙ ": 4836,
      "رابطو ": 4837,
      "ئي\n": 4838,
      "ريا ": 4839,
      "سوي ": 4840,
      "ڪنھن ": 4841,
      "تنهن هوندي ": 4842,
      "گري ": 4843,
      "ي ۽ ": 4844,
      "جي وچ ۾ ": 4845,
      "خخخخ": 4846,
      "رياست ": 4847,
      "\" ا": 4848,
      "مشت": 4849,
      "جنھن ": 4850,
      "صول ": 4851,
      "ٽي جي ": 4852,
      "مستقبل ": 4853,
      "if": 4854,
      "os": 4855,
      " ملين ": 4856,
      "ايندڙ ": 4857,
      "شهي": 4858,
      "هڻ": 4859,
      "مير": 4860,
      "اون ": 4861,
      "وين ": 4862,
      "کان ٻاهر ": 4863,
      "مهين": 4864,
      "بڻجي و": 4865,
      "غان": 4866,
      "ڪيترو ": 4867,
      "اٽ": 4868,
      "نمي ": 4869,
      "وس ": 4870,
      "ڪسٽ": 4871,
      "رات جو ": 4872,
      "۾ استعمال ": 4873,
      "ٿيندا ": 4874,
      "تائ": 4875,
      "ڏين ": 4876,
      "ڪن ٿا.\n": 4877,
      "دستاوي": 4878,
      "خالي ": 4879,
      "عه": 4880,
      "ڙيءَ ": 4881,
      "ٿي وئي ": 4882,
      "حالت ": 4883,
      "اگر ": 4884,
      "بابا ": 4885,
      "سهول": 4886,
      "پرائ": 4887,
      "تماد ": 4888,
      "هنڌ ": 4889,
      "ڪائونٽ ": 4890,
      "سَ": 4891,
      "مقامي ": 4892,
      "مثال طور ": 4893,
      "پَ": 4894,
      "پوزي": 4895,
      "هههههههههههههههههههه ": 4896,
      "بص": 4897,
      "ڙپ": 4898,
      "کانسواءِ ": 4899,
      "هِ": 4900,
      "ار\n": 4901,
      "198": 4902,
      "ak": 4903,
      "tr": 4904,
      "ڪه ": 4905,
      "آهي, ": 4906,
      "27": 4907,
      "رپورٽ ": 4908,
      " ڪم ": 4909,
      "نوڪري ": 4910,
      "مصنو": 4911,
      "وش ": 4912,
      "ڪ ۽ ": 4913,
      "جنر": 4914,
      "براي ": 4915,
      "پا ": 4916,
      "پيو.\n": 4917,
      "آهي؟ ": 4918,
      "ڏينهن ۾ ": 4919,
      "رهيا آهن.\n": 4920,
      "اسلام ": 4921,
      " اي ": 4922,
      "آهيان": 4923,
      "اسان وٽ ": 4924,
      "۾ اچ": 4925,
      "زل": 4926,
      "ي ويو.\n": 4927,
      "ers": 4928,
      "خيلي ": 4929,
      ". .": 4930,
      "ڪري ٿي.\n": 4931,
      "تباد": 4932,
      "اڪائون": 4933,
      "ماڊل ": 4934,
      "بلي": 4935,
      "بون": 4936,
      "ٻُ": 4937,
      "غلطي ": 4938,
      "28": 4939,
      "عجب": 4940,
      " موجود ": 4941,
      "اڏ": 4942,
      "زمان ": 4943,
      "نه آهي ": 4944,
      "تحت ": 4945,
      " سان ": 4946,
      " يا ": 4947,
      "حساب ": 4948,
      "فه": 4949,
      "پالي": 4950,
      "ڏاڍي ": 4951,
      "ج ۾ ": 4952,
      "ڪرڻ جي ضرورت ": 4953,
      "بب ": 4954,
      "جو.\n": 4955,
      "مذ": 4956,
      "على ال": 4957,
      "آخر ۾ ": 4958,
      "جسماني ": 4959,
      "طبي": 4960,
      "واسط": 4961,
      "ڏيندو ": 4962,
      "اي\n": 4963,
      "هههههههههههههههههههه\n": 4964,
      "ي وڌ": 4965,
      "آمد": 4966,
      "ڪيو ويندو ": 4967,
      "197": 4968,
      "هيٺيان ": 4969,
      "دلچسپ ": 4970,
      "فهرست ": 4971,
      " ڀ": 4972,
      "ٻڌي ": 4973,
      "بندي ": 4974,
      "وڃي.\n": 4975,
      "ڏنو.\n": 4976,
      "ناهي": 4977,
      "يقين": 4978,
      "ننڍي ": 4979,
      "حڪمت ": 4980,
      "گزار": 4981,
      "اهڙا ": 4982,
      "ڪندو آهي.\n": 4983,
      " / ": 4984,
      "برو": 4985,
      "تم ": 4986,
      "راه": 4987,
      "ي ويو ": 4988,
      "، اسان کي ": 4989,
      "آخرڪار ": 4990,
      "حب": 4991,
      "لم ": 4992,
      "حفاظت ": 4993,
      "ub": 4994,
      "دري ": 4995,
      "هه\n": 4996,
      "ڻ لاء ": 4997,
      "يا ۾ ": 4998,
      "کيه ": 4999,
      "باوجود ": 5000,
      "بغ": 5001,
      "مڇ": 5002,
      "هڙو ": 5003,
      "ٽين": 5004,
      "سان مل": 5005,
      "ينه ": 5006,
      "هوندي آهي.\n": 5007,
      "ويب سائي": 5008,
      "،\"": 5009,
      "عن ": 5010,
      "ڊا ": 5011,
      "ے ": 5012,
      "نه ٿي ": 5013,
      "رهي.\n": 5014,
      "گهڻو ڪري ": 5015,
      "سون ": 5016,
      "سافٽ ": 5017,
      "تصويرون ": 5018,
      "زبان ": 5019,
      "سري ": 5020,
      "مطابق": 5021,
      "له\n": 5022,
      "لڊ ": 5023,
      "لنڊ": 5024,
      "شاعر ": 5025,
      "سوي": 5026,
      "ش جي ": 5027,
      "لوي ": 5028,
      "حاصل ڪرڻ ": 5029,
      "عط": 5030,
      "ٽيون ": 5031,
      "ههه ": 5032,
      "يڪٽر": 5033,
      "وضاحت ": 5034,
      "مس ": 5035,
      "کي، ": 5036,
      "مجموعي ": 5037,
      "- م": 5038,
      "نه ٿا ": 5039,
      "دعو": 5040,
      "جمهوري ": 5041,
      "جيترو ": 5042,
      "سڀئي ": 5043,
      "صرف هڪ ": 5044,
      "سڀني کي ": 5045,
      "ٽوبر ": 5046,
      "ف\n": 5047,
      "كن": 5048,
      "ك ال": 5049,
      "کن ": 5050,
      "يورپي ": 5051,
      "نسل ": 5052,
      "جمي": 5053,
      "کليل ": 5054,
      "ڻ وارو ": 5055,
      "کان وٺي ": 5056,
      "ڳالها": 5057,
      "صلاح": 5058,
      "بورڊ ": 5059,
      "ميڪ": 5060,
      "ٻولي": 5061,
      "ٿئي.\n": 5062,
      "يل جي ": 5063,
      "جهڙي ": 5064,
      "آگ": 5065,
      "صور ": 5066,
      "مي س": 5067,
      "وح": 5068,
      "ب ۾ ": 5069,
      "سواء": 5070,
      "ٽ م": 5071,
      "، هن ": 5072,
      "پاس ": 5073,
      "هوندي.\n": 5074,
      "پئسا ": 5075,
      "حوال": 5076,
      "راني ": 5077,
      "مون وٽ ": 5078,
      "سلامي ": 5079,
      "اعلي ": 5080,
      "ٿي سگهي ٿو ": 5081,
      "معلوما": 5082,
      "ڏيو ": 5083,
      "لينڊ ": 5084,
      "پٽمبر ": 5085,
      "80": 5086,
      "اط": 5087,
      "تني ": 5088,
      "ڪَ": 5089,
      "بران": 5090,
      "ساڳئي ": 5091,
      "  ": 5092,
      "آءِ ": 5093,
      "لر ": 5094,
      "ائيٽ ": 5095,
      "۾ اهو ": 5096,
      "ڪابه ": 5097,
      " ,,": 5098,
      "بان ": 5099,
      "ڪرڻو ": 5100,
      "واپار ": 5101,
      "ٽر جي ": 5102,
      "معني": 5103,
      "معمولي ": 5104,
      "ز م": 5105,
      "ڀر ": 5106,
      "چيني ": 5107,
      "ي وٺ": 5108,
      "ق جي ": 5109,
      "يل": 5110,
      "پولي": 5111,
      "ڪري سگهجي ": 5112,
      "جواب": 5113,
      "موبائل ": 5114,
      "بري ": 5115,
      "رت ": 5116,
      "سد": 5117,
      "ناس ": 5118,
      "ڊيزائ": 5119,
      "سالن کان ": 5120,
      "پيداوا": 5121,
      "شين جي ": 5122,
      "ڌي": 5123,
      "گھٽ ": 5124,
      "فوجي ": 5125,
      "رهن ": 5126,
      "كان ": 5127,
      "ان ٿو ": 5128,
      " مهين": 5129,
      "صحت ": 5130,
      "مشتمل ": 5131,
      "ك ا": 5132,
      "ڄي ": 5133,
      "چو ": 5134,
      "هيءَ": 5135,
      "جمع ": 5136,
      "ضو ": 5137,
      "ٺل ": 5138,
      "ھو.\n": 5139,
      "ته اهو ": 5140,
      "گهربل ": 5141,
      " اهو آهي ته ": 5142,
      "،،": 5143,
      "كر ": 5144,
      "آهيو": 5145,
      "منھنجي ": 5146,
      "ااا": 5147,
      "درست ": 5148,
      "جنم ": 5149,
      "شيء": 5150,
      "سڀ ڪجهه ": 5151,
      "قديم ": 5152,
      "دٻا": 5153,
      "كي ": 5154,
      "آهي: ": 5155,
      "ضرور": 5156,
      "شايع ": 5157,
      "رر": 5158,
      "مري ": 5159,
      " ڪلا": 5160,
      "مره ": 5161,
      "دستياب ": 5162,
      "زر ": 5163,
      "ٿي\n": 5164,
      "ف جي ": 5165,
      "ليو": 5166,
      "ادار": 5167,
      "فوري ": 5168,
      "نسخ": 5169,
      "دلچسپي ": 5170,
      "ويو ": 5171,
      "ٺاهي ": 5172,
      "ڪيتريون ": 5173,
      "رُ": 5174,
      "مـ": 5175,
      "نٿي ": 5176,
      "وھ": 5177,
      "هوا ": 5178,
      "وقت جي ": 5179,
      "ڊجيٽل ": 5180,
      "انتي ": 5181,
      "ٽ جو ": 5182,
      "نگري": 5183,
      "ڳالهه": 5184,
      "ack": 5185,
      "انقلا": 5186,
      "اسڪول ": 5187,
      " سر": 5188,
      "ــــــــــ": 5189,
      "پروفي": 5190,
      ") ا": 5191,
      "اهه ": 5192,
      "پرڏي": 5193,
      "ساڳي ": 5194,
      "آباد": 5195,
      "ڏينھن ": 5196,
      "هست": 5197,
      "ي: ": 5198,
      "ڏيو.\n": 5199,
      "س تي ": 5200,
      "يقيني بڻ": 5201,
      "عام": 5202,
      "يا ۽ ": 5203,
      "تون": 5204,
      "اھي ": 5205,
      "دورو ": 5206,
      "وزير ": 5207,
      "مسلسل ": 5208,
      "ل، ": 5209,
      "وزيراعظ": 5210,
      "هن پنهنجي ": 5211,
      "قيد ": 5212,
      "ٿي ويو ": 5213,
      "تسل": 5214,
      "ج\n": 5215,
      "چيڪ ": 5216,
      "تجوي": 5217,
      "توھان کي ": 5218,
      "هينئر ": 5219,
      "ته هو ": 5220,
      "بي\n": 5221,
      "بي جي ": 5222,
      "يعن": 5223,
      "بعد": 5224,
      "پراڻي ": 5225,
      "غيره ": 5226,
      "دماغ": 5227,
      "ئه ": 5228,
      "نين": 5229,
      "ڌار": 5230,
      "آهي ۽ ا": 5231,
      "ميمبر ": 5232,
      "تاريخي ": 5233,
      " تائين ": 5234,
      ",\n": 5235,
      "ڙهي ": 5236,
      "ڪالي": 5237,
      "توهان پنهنجي ": 5238,
      "سي جي ": 5239,
      "نيشنل ": 5240,
      "هوندا آهن.\n": 5241,
      "کي به ": 5242,
      "۾ ، ": 5243,
      "يو ٿا ": 5244,
      "هڪ ڏينهن ": 5245,
      "پيءُ ": 5246,
      "ڪو نه ": 5247,
      "عورتن ": 5248,
      "سڌو ": 5249,
      "ڪول": 5250,
      "انڪار ": 5251,
      "تجزيو ": 5252,
      "ڳڻ": 5253,
      "ي سو": 5254,
      ". . . . . ": 5255,
      "دوا ": 5256,
      "ڪئي آهي.\n": 5257,
      " <": 5258,
      "نور ": 5259,
      "روي": 5260,
      "مرد": 5261,
      " ^": 5262,
      "for": 5263,
      "صدي": 5264,
      "نڪر": 5265,
      "۾ اي": 5266,
      "تبديل": 5267,
      "حاد": 5268,
      "ندن ": 5269,
      "ز تي ": 5270,
      "پويان ": 5271,
      " سو": 5272,
      "انگ ": 5273,
      "نشان ": 5274,
      "بدران ": 5275,
      "نمون": 5276,
      "صلاحيت ": 5277,
      "est": 5278,
      "ة ا": 5279,
      "گول": 5280,
      "آهي (": 5281,
      ") ، ": 5282,
      " انتظ": 5283,
      "ان کان علاوه ": 5284,
      "con": 5285,
      "op": 5286,
      "يک ": 5287,
      "ڀلي ": 5288,
      "مقدار ": 5289,
      "ڏسو ": 5290,
      "مالڪ ": 5291,
      "ساڳيو ": 5292,
      "مسافر": 5293,
      "عبدال": 5294,
      "ج ڪ": 5295,
      "خير": 5296,
      "شما ": 5297,
      "مشڪل ": 5298,
      "بحث": 5299,
      "عجيب ": 5300,
      "ڪرڻ تي ": 5301,
      "رڪ ": 5302,
      "کر ": 5303,
      "جو\n": 5304,
      "ائيڊ ": 5305,
      "ڪاو": 5306,
      "الو ": 5307,
      "طلب ": 5308,
      "محب": 5309,
      " پ": 5310,
      "ڏانھن ": 5311,
      "مون کان ": 5312,
      "گرفتار ": 5313,
      "29": 5314,
      "ليا": 5315,
      "سمور": 5316,
      " M": 5317,
      "دد ": 5318,
      "ڪرڻ جي قابل ": 5319,
      "گراهڪن ": 5320,
      "فا ": 5321,
      "ڪثر ": 5322,
      "نگي ": 5323,
      "ڙي جي ": 5324,
      " انٽر": 5325,
      "مزاح": 5326,
      "وزن ": 5327,
      "مذهبي ": 5328,
      "ايو ": 5329,
      "اس ": 5330,
      "نصي": 5331,
      "سي\n": 5332,
      "انهن مان ": 5333,
      "جمل": 5334,
      "ڏها": 5335,
      "ليش ": 5336,
      "گرم": 5337,
      "يونيورسٽي ": 5338,
      "سين.\n": 5339,
      "هيا ": 5340,
      "بيمار": 5341,
      "رد: ": 5342,
      "ي،\n": 5343,
      "ڪيو وڃي.\n": 5344,
      "خت ": 5345,
      "ڇڪ": 5346,
      "ڏيئي ": 5347,
      "وانا ": 5348,
      "ڇ ": 5349,
      "نوٽ ": 5350,
      "راندي": 5351,
      "آپ": 5352,
      "آسٽري": 5353,
      "هيو ": 5354,
      "ايترو ": 5355,
      "بيماري ": 5356,
      "ملڪي": 5357,
      "ڪيو ۽ ": 5358,
      ": ڪ": 5359,
      "حلو ": 5360,
      "رسي ": 5361,
      "پبل": 5362,
      "واقع ": 5363,
      "بحال ": 5364,
      "غريب ": 5365,
      "اظهار ": 5366,
      "شن ۾ ": 5367,
      "ڀريل ": 5368,
      "ي وارو ": 5369,
      "ڪميون": 5370,
      "نومبر ": 5371,
      "شه ": 5372,
      "ڪپ": 5373,
      "ڻ جي ضرورت ": 5374,
      "لاءِ استعمال ": 5375,
      "چونڊ ": 5376,
      "ut": 5377,
      "لها ": 5378,
      "مائي": 5379,
      "ٽيف": 5380,
      " از ": 5381,
      "يڪار ": 5382,
      "کان اڳ ": 5383,
      "ملاقات ": 5384,
      "ڏينهن": 5385,
      "مهيني ": 5386,
      "حادث": 5387,
      "CO": 5388,
      "يس": 5389,
      "ٻيون ": 5390,
      "چڪا ": 5391,
      "لي کي ": 5392,
      "ماڻھو ": 5393,
      "In": 5394,
      "يد ": 5395,
      "آهي .\n": 5396,
      "هو پنهنجي ": 5397,
      "جاپ": 5398,
      "نظري": 5399,
      "ڏيار": 5400,
      "لحاظ": 5401,
      "od": 5402,
      "نفر": 5403,
      "ه.\n": 5404,
      "ه: ": 5405,
      "ريڪ": 5406,
      "حاصل ڪريو ": 5407,
      "سڄو ": 5408,
      "چوڻ آهي ته ": 5409,
      "سِ": 5410,
      "ور\n": 5411,
      "باب ": 5412,
      "ـــــــــــ": 5413,
      "ess": 5414,
      " ڊ": 5415,
      "ٿيو": 5416,
      "لات ": 5417,
      "روم ": 5418,
      "ملڪن ": 5419,
      "فقط": 5420,
      "ھئ": 5421,
      "ي تي ": 5422,
      "ائي سگه": 5423,
      "حد تائين ": 5424,
      "عنصر ": 5425,
      "آسمان ": 5426,
      "ڪرڻ گهرجي.\n": 5427,
      "گهٽ ۾ گهٽ ": 5428,
      "سپري": 5429,
      "گز": 5430,
      "گور": 5431,
      " است": 5432,
      "روشن ": 5433,
      "استا": 5434,
      "گھڻو ": 5435,
      "افو ": 5436,
      "آهي،\n": 5437,
      "لاءِ هڪ ": 5438,
      "درجي ": 5439,
      "توھان جي ": 5440,
      "تفصي": 5441,
      " . . ": 5442,
      "UM": 5443,
      "نه ئي ": 5444,
      "عالم ": 5445,
      "رن جي ": 5446,
      "نر ": 5447,
      "ٿوري ": 5448,
      "ڊنگ ": 5449,
      "هڪ دفعو ": 5450,
      "وڻي ": 5451,
      "گُ": 5452,
      "مهم ": 5453,
      " اين ": 5454,
      "ڪري س": 5455,
      "جو، ": 5456,
      "جنهن سان ": 5457,
      "ڪري سگهجي ٿو.\n": 5458,
      "نفس": 5459,
      "حيران ": 5460,
      "ew": 5461,
      "وڪ": 5462,
      "ڏسو": 5463,
      "اني\n": 5464,
      "الز": 5465,
      "مممم": 5466,
      "ڪندا آهن.\n": 5467,
      "موقعي ": 5468,
      "90": 5469,
      "زڪ ": 5470,
      "عقي": 5471,
      "هڙ": 5472,
      "يندو": 5473,
      "يو ويندو آهي.\n": 5474,
      "۾ اچي ": 5475,
      "فائلون ": 5476,
      "دور ۾ ": 5477,
      "مسلمان ": 5478,
      "جنوري ": 5479,
      "منظم ": 5480,
      "سرا": 5481,
      "تي جي ": 5482,
      "ايف ": 5483,
      "تمام گهڻي ": 5484,
      "iz": 5485,
      "آ.\n": 5486,
      "ڪيو\n": 5487,
      "چڱو ": 5488,
      "صبح جو ": 5489,
      "اڻو ": 5490,
      "هيءُ ": 5491,
      "کيڏ": 5492,
      "ڪرڻ جي اجازت ": 5493,
      "پريش": 5494,
      "جانور": 5495,
      "هزار ": 5496,
      "ز جو ": 5497,
      "جذبا": 5498,
      "آزم": 5499,
      "آواز": 5500,
      "اڃان ": 5501,
      "جما": 5502,
      "ميمبر": 5503,
      "ويڊيو ": 5504,
      "۽ اي": 5505,
      "سمبر ": 5506,
      "تازو ": 5507,
      "هيٺين ": 5508,
      "آمريڪا ۾ ": 5509,
      " ۔۔۔\n": 5510,
      "av": 5511,
      "ist": 5512,
      "دان ": 5513,
      "ي ٿو": 5514,
      "اللي ": 5515,
      "ممكن ": 5516,
      "عليه و": 5517,
      "جائزو ": 5518,
      "سوشل ميڊيا ": 5519,
      "آهي، جيڪو ": 5520,
      "بخش ": 5521,
      "ڪيو، ": 5522,
      "منظر ": 5523,
      "تڪلي": 5524,
      "حض": 5525,
      "حياتي ": 5526,
      "امتح": 5527,
      "ادر ": 5528,
      "اسان جا ": 5529,
      "شعر ": 5530,
      "ماني تي ": 5531,
      "مبار": 5532,
      "ڳولي ": 5533,
      "غيره": 5534,
      "ھاڻي ": 5535,
      "194": 5536,
      " اوهان ": 5537,
      " هن ": 5538,
      "up": 5539,
      "كث": 5540,
      "جوابد": 5541,
      "ضروري آهي.\n": 5542,
      "مطابقت ": 5543,
      "آپريشن ": 5544,
      "تہ": 5545,
      "جهان ": 5546,
      "ي وار": 5547,
      "مشك": 5548,
      "ڊيٽ ": 5549,
      "نالي سان ": 5550,
      "::": 5551,
      "طب": 5552,
      "ع جي ": 5553,
      "بهرحال ": 5554,
      "ئس ": 5555,
      "ت: ": 5556,
      "عار": 5557,
      "آهي، ۽ ": 5558,
      "شعور ": 5559,
      "35": 5560,
      "70": 5561,
      "أنا ": 5562,
      "فون": 5563,
      "کي.\n": 5564,
      "گروپ ": 5565,
      "C ": 5566,
      "فن ": 5567,
      "ست\n": 5568,
      "ابي ": 5569,
      "مون سان ": 5570,
      "ڇوڪر": 5571,
      "ڏکڻ ": 5572,
      "سروس ": 5573,
      "وين": 5574,
      "ڪانه ": 5575,
      "کان پوء": 5576,
      "لي جو ": 5577,
      " ڪنهن ": 5578,
      "شرح": 5579,
      " سالن جي ": 5580,
      "ڊري": 5581,
      "روئ": 5582,
      "قل ": 5583,
      "سال جي ": 5584,
      "گهرجي.\n": 5585,
      "آساني ": 5586,
      "چند": 5587,
      "اوچ": 5588,
      "ڪري سگهي ٿو.\n": 5589,
      "حلوه ": 5590,
      "سسٽم ": 5591,
      "تعريف ": 5592,
      "، \"": 5593,
      "ءَ سان ": 5594,
      "من ال": 5595,
      "لائسنس ": 5596,
      "هي و": 5597,
      "ڪن.\n": 5598,
      "و جي ": 5599,
      "طريقا ": 5600,
      "عوام ": 5601,
      "text": 5602,
      "اپ ": 5603,
      "ش م": 5604,
      "مکيه ": 5605,
      "ڳوڙ": 5606,
      "ڪرڻو پو": 5607,
      "معن": 5608,
      "آهي ، پر ": 5609,
      "قرآن ": 5610,
      "يمكن ": 5611,
      "حتى ": 5612,
      "تنظيم ": 5613,
      "oc": 5614,
      "چوڌ": 5615,
      "، مان ": 5616,
      "، توهان کي ": 5617,
      "ختيار ": 5618,
      "ٻڌل ": 5619,
      "ف م": 5620,
      "کي پنهنجي ": 5621,
      "پيار": 5622,
      "ع تي ": 5623,
      "ضروري آهي ته ": 5624,
      "انگريزي ": 5625,
      "انجام ": 5626,
      "عورتون ": 5627,
      "سري": 5628,
      "مپ ": 5629,
      "ى\n": 5630,
      "راضي ": 5631,
      "آهي يا ": 5632,
      "شاگرد ": 5633,
      "جاري رک": 5634,
      "شهري ": 5635,
      "رن": 5636,
      "ش\n": 5637,
      "ٻو": 5638,
      "چ ڪ": 5639,
      "پيروي ": 5640,
      "196": 5641,
      "بعد ۾ ": 5642,
      "دب": 5643,
      "عزت ": 5644,
      "يح": 5645,
      "پاي": 5646,
      "ين کان ": 5647,
      "معياري ": 5648,
      "فائيل ": 5649,
      " A": 5650,
      "درا": 5651,
      "دل جي ": 5652,
      "پيڊ": 5653,
      "د، ": 5654,
      "عز": 5655,
      "ٽ ۽ ": 5656,
      "راءِ ": 5657,
      "هوائي ": 5658,
      "هئي": 5659,
      "خوف ": 5660,
      "ندي آهي.\n": 5661,
      "صحت": 5662,
      "اعلي": 5663,
      "طح ": 5664,
      "لن کي ": 5665,
      "مند": 5666,
      "لاء م": 5667,
      "ايئر ": 5668,
      "ادي": 5669,
      "وڏن ": 5670,
      "سان\n": 5671,
      "تسليم ": 5672,
      "لسٽ ": 5673,
      "وئ": 5674,
      "يور ": 5675,
      "ءَ مان ": 5676,
      "قيمتي ": 5677,
      "گاهه ": 5678,
      "چور": 5679,
      " اح": 5680,
      "ڪري سگهن ": 5681,
      "سيڙپ": 5682,
      "سميت ": 5683,
      "ت تي ": 5684,
      "لاءِ\n": 5685,
      "دست ": 5686,
      "لز ": 5687,
      "ميد ": 5688,
      "تازه ": 5689,
      "اکيون ": 5690,
      "زون ": 5691,
      "ماهر ": 5692,
      "نہ ": 5693,
      "آهين": 5694,
      "لاش ": 5695,
      "روف ": 5696,
      "چڱي ": 5697,
      "پليڪيشن": 5698,
      "نه مل": 5699,
      "منظور ": 5700,
      "مثال طور": 5701,
      "چوڻ هو ته ": 5702,
      "مقابلو ": 5703,
      "مهرباني ڪري ": 5704,
      "پيداوار جي ": 5705,
      "دول": 5706,
      "ملي": 5707,
      "ڪر.\n": 5708,
      "ههههههههه": 5709,
      "ويڙ": 5710,
      "طاقتور ": 5711,
      "= ": 5712,
      "ساني ": 5713,
      "ڪ کي ": 5714,
      "ون ٿا ته ": 5715,
      "حمايت ": 5716,
      "cl": 5717,
      "نيو ": 5718,
      "موڪ": 5719,
      "ههههههههههه": 5720,
      "درواز": 5721,
      "هوندا.\n": 5722,
      "لکڻ ": 5723,
      "al ": 5724,
      "جُ": 5725,
      "حظ": 5726,
      "ل ۽ ": 5727,
      "ين جا ": 5728,
      "ابي": 5729,
      "نيٽ": 5730,
      "ڇا آهي؟\n": 5731,
      "شهر ۾ ": 5732,
      "آئي فون ": 5733,
      "] ": 5734,
      "سزا ": 5735,
      "مها": 5736,
      "ڪ جو ": 5737,
      "روني ": 5738,
      "فيبر": 5739,
      "ڳالهائڻ ": 5740,
      "صاحب": 5741,
      "انتظام ": 5742,
      "ain": 5743,
      "ear": 5744,
      "ويڪ": 5745,
      "وجه": 5746,
      "چ جي ": 5747,
      "يون آهن ": 5748,
      "عاش": 5749,
      "يييي": 5750,
      "لحاظ کان ": 5751,
      "cr": 5752,
      "سج": 5753,
      "آهين.\n": 5754,
      "ائيگي ": 5755,
      "ڪارو ": 5756,
      "گڏجي ": 5757,
      "قابل ا": 5758,
      "شروعاتي ": 5759,
      "مجب": 5760,
      "کان به ": 5761,
      "ڊيٽ": 5762,
      "هُو ": 5763,
      "لأ": 5764,
      "وڪي ": 5765,
      "ان جا ": 5766,
      "کان اڳ": 5767,
      "د؟\n": 5768,
      "ذ ": 5769,
      "هان": 5770,
      "کاتي ": 5771,
      "، ته ": 5772,
      "ساهه ": 5773,
      "ناڪام ": 5774,
      "آھي ته ": 5775,
      "ڪمپني جي ": 5776,
      "پليٽ فارم ": 5777,
      "UMX": 5778,
      "500": 5779,
      "ep": 5780,
      "تار": 5781,
      "فكر": 5782,
      "مِ": 5783,
      "نسي ": 5784,
      "ٽ: ": 5785,
      "ارٽ ": 5786,
      "ائي.\n": 5787,
      "پوري": 5788,
      "هداي": 5789,
      "سدائين ": 5790,
      "تيل ": 5791,
      "ُ،": 5792,
      "چند ": 5793,
      "ڏيکاري ": 5794,
      "يندو هو.\n": 5795,
      "وڃڻ ": 5796,
      "سمجهان ": 5797,
      " مختلف ": 5798,
      "شن کي ": 5799,
      "ڀڃ": 5800,
      "چيو، \"": 5801,
      "ويه ": 5802,
      "ءُ جي ": 5803,
      "اتفا": 5804,
      "نتيجو ": 5805,
      "ـــــــــــــ": 5806,
      "تنظي": 5807,
      "انسٽال ": 5808,
      "XN": 5809,
      "فرو": 5810,
      "مٽ": 5811,
      "ي کي ": 5812,
      "اهو به ": 5813,
      "تعاون ": 5814,
      "ٿيندي.\n": 5815,
      "امام ": 5816,
      "س: ": 5817,
      "وڌي ": 5818,
      "سيني": 5819,
      "اضافي ": 5820,
      "خودڪار ": 5821,
      "چنڊ ": 5822,
      "پٺيان ": 5823,
      "مصنوعا": 5824,
      "رف ": 5825,
      "عندي ": 5826,
      "اڳ ۾ ئي ": 5827,
      "text>\n": 5828,
      "ip": 5829,
      "مؤ": 5830,
      "ندار": 5831,
      "گاه ": 5832,
      "بز": 5833,
      "لين ": 5834,
      "ڪِ": 5835,
      "نه رڳو ": 5836,
      "ي ويند": 5837,
      "حالت ۾ ": 5838,
      "دهشت": 5839,
      "ڪائنا": 5840,
      "توانائي ": 5841,
      "ايند": 5842,
      "تهيه ": 5843,
      "جري": 5844,
      "ضمان": 5845,
      "گنا": 5846,
      "ان لاءِ ": 5847,
      "جيل ": 5848,
      "سول ": 5849,
      "تائين پهچ": 5850,
      "چوندا ": 5851,
      "yp": 5852,
      "شور": 5853,
      "قبل": 5854,
      "گيت ": 5855,
      "ٿي ۽ ": 5856,
      "ڪريو ۽ ": 5857,
      "اختيار": 5858,
      "تُ": 5859,
      "عرا": 5860,
      "فيڪ": 5861,
      "کٽ": 5862,
      "ڳن ": 5863,
      "ه ي ": 5864,
      " اچ": 5865,
      " اهي ": 5866,
      "ميز": 5867,
      "بيش": 5868,
      "مخصوص ": 5869,
      "خات": 5870,
      "صورت": 5871,
      "نون ": 5872,
      "ٿيو ته ": 5873,
      "رهڻ ": 5874,
      "ڪرڻ\n": 5875,
      "هزارين ": 5876,
      "sh": 5877,
      "uc": 5878,
      "ان شاء الله ": 5879,
      "سندس ا": 5880,
      "ڪنهن جي ": 5881,
      "آرٽيڪل ": 5882,
      "جن ۾ ": 5883,
      "ضي": 5884,
      "ائي، ": 5885,
      "XNUMX": 5886,
      "سيل ": 5887,
      "نور": 5888,
      "ى م": 5889,
      "آهين ": 5890,
      "نه ته ": 5891,
      "ي وئي.\n": 5892,
      "وڌائڻ ": 5893,
      "گھر جي ": 5894,
      "درجه ": 5895,
      "حاض": 5896,
      "*\n": 5897,
      "ته\n": 5898,
      "شاد": 5899,
      "ڏ ": 5900,
      "م ته ": 5901,
      "روس ": 5902,
      "روڊ ": 5903,
      "هو\n": 5904,
      "پنج ": 5905,
      "ڀيٽ ۾ ": 5906,
      "ڀري ": 5907,
      "هڪٻئي ": 5908,
      "زندگي جي ": 5909,
      "ذميواري ": 5910,
      "پاڪستان جي ": 5911,
      "دگ": 5912,
      "شور ": 5913,
      "ق\n": 5914,
      "ماي": 5915,
      "هڪ ڀيرو ": 5916,
      "کان پڇ": 5917,
      ", ۽ ": 5918,
      "صرف ا": 5919,
      "فارمي": 5920,
      " هزار ": 5921,
      "the": 5922,
      "ID": 5923,
      "آ\n": 5924,
      "يا آهن ": 5925,
      "معني ": 5926,
      "ك يا ": 5927,
      "ڏينهن جي ": 5928,
      "پنهنجو پاڻ کي ": 5929,
      "سنڀال": 5930,
      "قرب": 5931,
      "نيڪ": 5932,
      "آهي، ا": 5933,
      "ٽيسٽ ": 5934,
      "ٻڌائي ": 5935,
      "بحث ": 5936,
      "آآآآ": 5937,
      "اه ": 5938,
      "ٽئين ": 5939,
      "۾ شامل ": 5940,
      "ايپل ": 5941,
      "ڪارڊ": 5942,
      "شرط ": 5943,
      "ٻاهرين ": 5944,
      " ر": 5945,
      "يلا ": 5946,
      "ٺاھ": 5947,
      "ڇڏي": 5948,
      "اهميت ": 5949,
      "عمار": 5950,
      "پڙهي ": 5951,
      "خدا جي ": 5952,
      "بلاگ": 5953,
      "هيٺ ڏنل ": 5954,
      "لڪ": 5955,
      "آهيون": 5956,
      "هن جا ": 5957,
      "راه ": 5958,
      "توڙي ": 5959,
      "قسم جو ": 5960,
      "پڙهڻ ": 5961,
      "زبر": 5962,
      "کائڻ ": 5963,
      "ر جو ": 5964,
      "ائن ": 5965,
      "آهي ته اهو ": 5966,
      "طبق": 5967,
      "ڄاڻي ": 5968,
      "هوس.\n": 5969,
      "باغ": 5970,
      "ڪري رهيا آهن.\n": 5971,
      "ect": 5972,
      "99": 5973,
      "بٽ": 5974,
      "شيئر ": 5975,
      "عليها ": 5976,
      "كيد ": 5977,
      "لت ": 5978,
      "۾ ان": 5979,
      "ئي آهي.\n": 5980,
      "ايس ا": 5981,
      "اوند": 5982,
      "فائل ": 5983,
      "انهي کي ": 5984,
      "مسئلا ": 5985,
      "ٻارن جي ": 5986,
      "دل ۾ ": 5987,
      "آمريڪا جي ": 5988,
      "انٽرنيٽ ": 5989,
      "33": 5990,
      "k ": 5991,
      "ايئن ": 5992,
      "وسار": 5993,
      "ثاني ": 5994,
      "قال": 5995,
      "مسي": 5996,
      "هڻ ": 5997,
      "گلا": 5998,
      "، مون کي ": 5999,
      "واٽ ": 6000,
      "ب جو ": 6001,
      "ٿو ۽ ": 6002,
      "آھي\n": 6003,
      "يورٽي ": 6004,
      "، اسان جي ": 6005,
      "شون ": 6006,
      "ع ال": 6007,
      "جاء ": 6008,
      "ونڊوز ": 6009,
      "ble ": 6010,
      " ما": 6011,
      "co": 6012,
      "غلا": 6013,
      "ڀلا ": 6014,
      "ميرا ": 6015,
      "ترا ": 6016,
      "عيس": 6017,
      "۽ انهن جي ": 6018,
      "جوڙج": 6019,
      "ڪھ": 6020,
      "ڪيائين.\n": 6021,
      "پيچي": 6022,
      "پهچي ": 6023,
      "شاعري ": 6024,
      "آفيس ": 6025,
      " اوھان کي ": 6026,
      "روايتي ": 6027,
      "Th": 6028,
      "تڪر": 6029,
      "پسندي": 6030,
      "هئي ۽ ": 6031,
      "خريداري ": 6032,
      "ڇوڪري ": 6033,
      "رجح": 6034,
      "خاط": 6035,
      "عليه السلام ": 6036,
      "لڙ": 6037,
      "ندگي ": 6038,
      "تبصر": 6039,
      "پهريون ڀيرو ": 6040,
      "جپ": 6041,
      "متباد": 6042,
      "سيري": 6043,
      "جانور ": 6044,
      "ن مان هڪ ": 6045,
      "ك م": 6046,
      " ڪجهه ": 6047,
      " ۾،\n": 6048,
      "اُن ": 6049,
      "آرڊر ": 6050,
      "ڪانفر": 6051,
      "غانستان ": 6052,
      "استاد ": 6053,
      "ia": 6054,
      "ـآ": 6055,
      "فڪر ": 6056,
      "چين جي ": 6057,
      "هن سان ": 6058,
      "الا ": 6059,
      "دا\n": 6060,
      "ڻ گهرجي ": 6061,
      "وراڻ": 6062,
      "گرفت": 6063,
      ") ۽ ": 6064,
      "حصي": 6065,
      "ئي نه ": 6066,
      "ي سيا": 6067,
      "ايمان ": 6068,
      "سازي ": 6069,
      "زنده ": 6070,
      "ناهي، ": 6071,
      "ترجمو ": 6072,
      "45": 6073,
      "من ۾ ": 6074,
      "ڀي ": 6075,
      "ڙين ": 6076,
      "ڪجي ": 6077,
      "ھل": 6078,
      "مايو": 6079,
      "رهائ": 6080,
      "پاڻ ۾ ": 6081,
      "شوق ": 6082,
      "ر، ": 6083,
      "سڌ": 6084,
      "نڌ": 6085,
      "پي سي ": 6086,
      "گهه ": 6087,
      "لاء.\n": 6088,
      "ميه ": 6089,
      "ميٽر ": 6090,
      "ايس اي": 6091,
      "خدمت": 6092,
      "رڪارڊ ": 6093,
      "هيو": 6094,
      "ٿيا.\n": 6095,
      "ڀيرا ": 6096,
      "رات جي ": 6097,
      "بير ": 6098,
      "ڪندي.\n": 6099,
      "سياست ": 6100,
      "شاعري": 6101,
      "ذات ": 6102,
      "کان بچ": 6103,
      "هوء ": 6104,
      "ون، ": 6105,
      "ههههههه": 6106,
      "شرڪت ": 6107,
      "\" س": 6108,
      "--": 6109,
      "اء": 6110,
      "فصل ": 6111,
      "قات": 6112,
      "ائين، ": 6113,
      "سان ڳنڍ": 6114,
      "آهي ته توهان ": 6115,
      "رکندڙ ": 6116,
      "بڻائي ": 6117,
      "واقف ": 6118,
      "ڏئي سگه": 6119,
      "کاڌ": 6120,
      "مارڪيٽ ": 6121,
      "مارڪيٽنگ ": 6122,
      "جدو": 6123,
      "خي ": 6124,
      "مول": 6125,
      "موٽي ": 6126,
      "يءَ تي ": 6127,
      "ink": 6128,
      "عرف": 6129,
      "شامل آهن.\n": 6130,
      "آساني سان ": 6131,
      "اتح": 6132,
      "لمح": 6133,
      "ڳوٺ ": 6134,
      "جين ": 6135,
      "لطي": 6136,
      "ستان جي ": 6137,
      "ڪم جي ": 6138,
      "ٽيلي": 6139,
      "جنا": 6140,
      "شڪر ": 6141,
      "فخر ": 6142,
      "نوا": 6143,
      "ٽن جي ": 6144,
      "ههه\n": 6145,
      "اصلا": 6146,
      "محبو": 6147,
      "جاچ ": 6148,
      "شن جو ": 6149,
      ") م": 6150,
      "راهه ": 6151,
      "e جي ": 6152,
      "sp": 6153,
      "پائي": 6154,
      "ڊرا": 6155,
      "کي ختم ": 6156,
      "تي عمل ": 6157,
      "مزو ": 6158,
      "موسيقي ": 6159,
      "ر.\n": 6160,
      "رئي": 6161,
      "هنن کي ": 6162,
      "ٿي وي": 6163,
      "سان، ": 6164,
      "لنڪ ": 6165,
      "محفوظ": 6166,
      "az": 6167,
      "اء ": 6168,
      "ان،\n": 6169,
      "۽ ٻين ": 6170,
      "رات": 6171,
      "است ": 6172,
      "برداشت ": 6173,
      "سمجهه ": 6174,
      "آهي ، ۽ ": 6175,
      "چيو آهي ته ": 6176,
      "اوهان کي ": 6177,
      "ڪجھه ": 6178,
      "ڪيتريون ئي ": 6179,
      "کي\n": 6180,
      "ائب ": 6181,
      "فيد ": 6182,
      "ڪن ٿا ": 6183,
      "ڪيو آهي ": 6184,
      "پريل ": 6185,
      "موجود آهي.\n": 6186,
      "مسلمان": 6187,
      "عدالت ": 6188,
      "آبادي ": 6189,
      "فيبروري ": 6190,
      "جدي": 6191,
      "چش": 6192,
      "ڪ\n": 6193,
      "تو\n": 6194,
      "ي سال ": 6195,
      "افت ": 6196,
      "ڪيتري ": 6197,
      "ماحول": 6198,
      "igh": 6199,
      "سز ": 6200,
      "ڊڪٽ": 6201,
      "ڪون ": 6202,
      "ي جو ": 6203,
      "يني": 6204,
      "ميم ": 6205,
      "آهن؟\n": 6206,
      "بنياد": 6207,
      " سالن کان ": 6208,
      "مخالف ": 6209,
      "پلاسٽ": 6210,
      "تري": 6211,
      "خاني ": 6212,
      "لباس ": 6213,
      "گلو": 6214,
      "نه آهن.\n": 6215,
      "امان ": 6216,
      "رهند": 6217,
      "ٿئي ٿو.\n": 6218,
      "تحفظ ": 6219,
      "og": 6220,
      "تل ": 6221,
      "جيون ": 6222,
      "ع ا": 6223,
      "لله ": 6224,
      "ڀو": 6225,
      "ڪندا.\n": 6226,
      "جڏهن توهان ": 6227,
      "يورپ ": 6228,
      "رهيو هو.\n": 6229,
      "جواب ڏيو\n": 6230,
      "يافته ": 6231,
      "بيشڪ ": 6232,
      " انڊ": 6233,
      "جاڳ": 6234,
      "تير ": 6235,
      "بادشا": 6236,
      "باس": 6237,
      "هل ": 6238,
      "َ،": 6239,
      "ڪوڊ ": 6240,
      "هئا": 6241,
      "هڪ اهم ": 6242,
      "ill": 6243,
      "ڊرائيو ": 6244,
      "اڪيلو ": 6245,
      "ساد": 6246,
      "كلا": 6247,
      "وڻ ": 6248,
      "ڳاڙ": 6249,
      "ڪ اڪائونٽ ": 6250,
      "برطانيه ": 6251,
      "جنرل ": 6252,
      "آيل ": 6253,
      "مجه": 6254,
      "و!\n": 6255,
      "خوف": 6256,
      "نفسيا": 6257,
      "جمهور": 6258,
      "qu": 6259,
      "سج ": 6260,
      "پيڪ": 6261,
      "انهن جو ": 6262,
      "ڪيو ويندو آهي.\n": 6263,
      "سبب": 6264,
      "بهرحال": 6265,
      "حج": 6266,
      "پيرا": 6267,
      "جنهن تي ": 6268,
      "نوجوان": 6269,
      "وائر": 6270,
      "e\n": 6271,
      "آغ": 6272,
      "نسب": 6273,
      "سٽر": 6274,
      "اڳي ": 6275,
      "اها ڳالهه ": 6276,
      "ياد رک": 6277,
      "خدمتون ": 6278,
      "s جي ": 6279,
      "آهنگ ": 6280,
      "مور ": 6281,
      "ٿي ويند": 6282,
      ". . . !\n": 6283,
      "معاملو ": 6284,
      "knowاڻ": 6285,
      " [": 6286,
      "ev": 6287,
      "بـ": 6288,
      "ح جي ": 6289,
      "پائي ": 6290,
      "ڏيندي ": 6291,
      " اين": 6292,
      "قرض": 6293,
      "بينڪ ": 6294,
      "ڪونهي.\n": 6295,
      "مڪن ": 6296,
      "واع": 6297,
      "آهيان، ": 6298,
      " ڪيو ": 6299,
      "منزل ": 6300,
      "ڏيڻ لاءِ ": 6301,
      "195": 6302,
      "برقرار رک": 6303,
      " </": 6304,
      "آئين ": 6305,
      "صح ": 6306,
      "ٽين ": 6307,
      "چهر": 6308,
      "ان: ": 6309,
      "کان سواءِ ": 6310,
      "دنيا جو ": 6311,
      "لک ": 6312,
      "نتيجا ": 6313,
      "بلاگ ": 6314,
      "مك ": 6315,
      "ريا": 6316,
      "ئي ته ": 6317,
      "گهڻن ": 6318,
      "تصادي ": 6319,
      "اھر ": 6320,
      "رهي ته ": 6321,
      "هدايت ": 6322,
      "لهي ": 6323,
      "پڻ": 6324,
      "ترجي": 6325,
      "اصول ": 6326,
      "ڪول ": 6327,
      "اميد": 6328,
      "مقابلي ۾ ": 6329,
      "عورتن جي ": 6330,
      "بي س": 6331,
      "ان مان ": 6332,
      "تعليمي ": 6333,
      "زخمي ": 6334,
      "ران": 6335,
      "رسي": 6336,
      "مــ": 6337,
      "ويا ": 6338,
      "جي هڪ ": 6339,
      "هن ۾ ": 6340,
      "گهم": 6341,
      "ءَ تي ": 6342,
      " انت ": 6343,
      "ــــــــــــــ": 6344,
      "هندستان ": 6345,
      "ڪرڻ ۾ مدد ": 6346,
      "توقع ": 6347,
      "ورتي ": 6348,
      "هر وقت ": 6349,
      "هئا، ": 6350,
      "سمجهي ": 6351,
      "ڊائريڪ": 6352,
      "هندو ": 6353,
      "پاور ": 6354,
      "ضرورت": 6355,
      "اشارو ": 6356,
      "طيب ": 6357,
      "پٿر ": 6358,
      "ٿان ": 6359,
      "کا ": 6360,
      "سان ، ": 6361,
      "نه\n": 6362,
      "راز": 6363,
      "ميڊ": 6364,
      "آھن": 6365,
      "گھٽ": 6366,
      "اصل ۾ ": 6367,
      "تعلق": 6368,
      "گراهڪ ": 6369,
      "ڌرتي ": 6370,
      "پها": 6371,
      "ڀ ": 6372,
      "کي هڪ ": 6373,
      "ڪريو ته ": 6374,
      "نهيءَ ": 6375,
      "پول": 6376,
      "ساٿي ": 6377,
      "ڪارپوري": 6378,
      "خلاص": 6379,
      "- س": 6380,
      "اذا ": 6381,
      "شده ": 6382,
      "هه م": 6383,
      "انهي جي ": 6384,
      "معيار جي ": 6385,
      "عشان ": 6386,
      "ميٽر": 6387,
      "نگي": 6388,
      "ادا": 6389,
      "مع ": 6390,
      "يو ويندو.\n": 6391,
      "ريون ": 6392,
      "طبع": 6393,
      "فڪ ": 6394,
      "هٽ": 6395,
      "چاھ": 6396,
      " اچي ": 6397,
      "اسڪر": 6398,
      "پنجن ": 6399,
      "تجارتي ": 6400,
      "نشان": 6401,
      "سلسلو ": 6402,
      "دوري ": 6403,
      "فط": 6404,
      "روسي ": 6405,
      "ڪورونا ": 6406,
      "مسافر ": 6407,
      "ذميوار ": 6408,
      "آف": 6409,
      "هيڪ": 6410,
      "ڊائون": 6411,
      "ائل ": 6412,
      ". . .": 6413,
      "تعمي": 6414,
      "ڪيو ويندو.\n": 6415,
      "گذري ": 6416,
      "جهاز ": 6417,
      ", ا": 6418,
      "we": 6419,
      "شف": 6420,
      "وو ": 6421,
      "وچ ": 6422,
      "ائين ته ": 6423,
      "باقاع": 6424,
      "ننڊ ": 6425,
      "ٿي چڪي ": 6426,
      "أن": 6427,
      "حرا": 6428,
      "صف ": 6429,
      "ى الله ": 6430,
      "هههههههههههههههههههه": 6431,
      "وات ": 6432,
      "گهر جي ": 6433,
      "رهندي": 6434,
      "ڪوئي ": 6435,
      "شايد ا": 6436,
      "ڪردار ادا ": 6437,
      "شهيد ": 6438,
      "عليه وسل": 6439,
      "+ ": 6440,
      "ؤ ": 6441,
      "ايندڙ": 6442,
      "نه هو.\n": 6443,
      "خواهش ": 6444,
      "پسنديده ": 6445,
      "^\n": 6446,
      "اا ": 6447,
      "تن جو ": 6448,
      "عباد": 6449,
      "ان ٿو ته ": 6450,
      "نگ س": 6451,
      "گفتگو ": 6452,
      "پيام خصو": 6453,
      "ايا": 6454,
      "جَ": 6455,
      "دخ": 6456,
      "سس": 6457,
      "پار ": 6458,
      "ڏان": 6459,
      "آهستي ": 6460,
      "لاء ا": 6461,
      "معاش": 6462,
      "اي ميل ": 6463,
      "پاڪستان ۾ ": 6464,
      "صنعت ": 6465,
      "ڌرتي": 6466,
      "36": 6467,
      "تب ": 6468,
      "سٺ": 6469,
      "ته جيئن ": 6470,
      "روزي ": 6471,
      "اسيم": 6472,
      "ءَ س": 6473,
      "برسا": 6474,
      "قيمت": 6475,
      "ٽرين ": 6476,
      "شهر جي ": 6477,
      "آمدني ": 6478,
      "نه ٿي سگه": 6479,
      "تجربي ": 6480,
      "ڀرسان ": 6481,
      "سعودي ": 6482,
      ") س": 6483,
      "D\n": 6484,
      "us ": 6485,
      "وك": 6486,
      "وهان ": 6487,
      "ههههههههههههه": 6488,
      "پر اهو ": 6489,
      "شاعر": 6490,
      "رکيل ": 6491,
      "بك": 6492,
      "ڀل": 6493,
      "مناس": 6494,
      "واريون ": 6495,
      "ڪاررو": 6496,
      "ٻارن ": 6497,
      "پاڻي جي ": 6498,
      "فقير ": 6499,
      "سيڙپڪاري ": 6500,
      "بُ": 6501,
      "ٿيو، ": 6502,
      "ٿيندو آهي.\n": 6503,
      "کني": 6504,
      "ائي ۽ ": 6505,
      "ٽيوب ": 6506,
      "ويا": 6507,
      "ائي س": 6508,
      "ويل ": 6509,
      "وقتي ": 6510,
      "سڀ کان وڏو ": 6511,
      "نڪري ": 6512,
      "وِ": 6513,
      "چُ": 6514,
      "هه ا": 6515,
      "اما ": 6516,
      "بيل": 6517,
      "حصر ": 6518,
      "ant": 6519,
      "ٻارن کي ": 6520,
      "روزانو ": 6521,
      "قسمت ": 6522,
      "حقيقت ۾ ": 6523,
      "ضل": 6524,
      "يکي ": 6525,
      "نديون ": 6526,
      "نه ڪندا ": 6527,
      "پوسٽ": 6528,
      "نالا ": 6529,
      "ڪهڙا ": 6530,
      "لازم ": 6531,
      "آرا": 6532,
      "ڪڙي ": 6533,
      "ڻي": 6534,
      "ها، ": 6535,
      "ها ته ": 6536,
      " ايه ": 6537,
      "ٿي ويا ": 6538,
      "واقعا ": 6539,
      "مرڪزي ": 6540,
      "vi": 6541,
      "آئي.\n": 6542,
      "زن جي ": 6543,
      "لغ": 6544,
      "وت": 6545,
      "واهه ": 6546,
      "لکيو ": 6547,
      "شوي ": 6548,
      "سلسلي ۾ ": 6549,
      "چهري ": 6550,
      "Ch": 6551,
      "سته ": 6552,
      "هلائ": 6553,
      "ڊڄ": 6554,
      "ايتري ": 6555,
      "ايپليڪيشن ": 6556,
      "ويل": 6557,
      "بررسي ": 6558,
      "عيد ": 6559,
      " مناسب ": 6560,
      "عشق ": 6561,
      "چئن ": 6562,
      "ان ٿو": 6563,
      "سان پيار ": 6564,
      "سيم ": 6565,
      "ڻ جي اجازت ": 6566,
      "صنعتي ": 6567,
      "سافٽ ويئر ": 6568,
      "آد": 6569,
      "دگار ": 6570,
      "نڀ": 6571,
      "امن ": 6572,
      "طلاق ": 6573,
      "خورا": 6574,
      "طئي ": 6575,
      "بنگ": 6576,
      "جاد": 6577,
      "ڊول": 6578,
      "یک": 6579,
      "انتخ": 6580,
      "ويهي ": 6581,
      "عربي ": 6582,
      "خلاص ": 6583,
      " آڪ": 6584,
      "يو وڃي ٿو.\n": 6585,
      "ell": 6586,
      "نماز ": 6587,
      "ڪئي وئي آهي.\n": 6588,
      "اندازو ": 6589,
      "آسٽريل": 6590,
      "نجي ": 6591,
      "ائون.\n": 6592,
      "اسان": 6593,
      "ليٽ ": 6594,
      "ي وڏي ": 6595,
      "منحصر ": 6596,
      "يران ": 6597,
      "ته:\n": 6598,
      "معاشي ": 6599,
      "\"مان ": 6600,
      "حدي": 6601,
      "ھيءَ ": 6602,
      "يورو ": 6603,
      "چاهيو ": 6604,
      "اچي.\n": 6605,
      "ذهني ": 6606,
      "اسپتال ": 6607,
      "يون هيون.\n": 6608,
      "نتيجي ۾ ": 6609,
      "ئو ": 6610,
      "رز": 6611,
      "شيا ": 6612,
      "عتماد ": 6613,
      "ه، ": 6614,
      "لي تي ": 6615,
      "منفرد ": 6616,
      "ٿيڻ جو ": 6617,
      "اڳتي وڌ": 6618,
      "ليکڪ ": 6619,
      "مافي ": 6620,
      "نهار": 6621,
      ". . !\n": 6622,
      "وقت تي ": 6623,
      "والدين ": 6624,
      "داخلا ": 6625,
      "پاسو ": 6626,
      "جيتوڻيڪ": 6627,
      "علائقي ۾ ": 6628,
      "تـ": 6629,
      "دليل ": 6630,
      "طوف": 6631,
      "نڊ ": 6632,
      "جي ضرورت ": 6633,
      "پيد": 6634,
      "امڪان ": 6635,
      "سوچي ": 6636,
      "ers ": 6637,
      "پوءِ ا": 6638,
      "رع": 6639,
      "وڊيو": 6640,
      "لاء س": 6641,
      "راز ": 6642,
      "ادري ": 6643,
      "چيز ": 6644,
      "سڀني کان ": 6645,
      "منصوبو ": 6646,
      "حت ": 6647,
      "و: ": 6648,
      "ڙي س": 6649,
      "لاد ": 6650,
      "ون ۽ ": 6651,
      "واد ": 6652,
      "هڪ نئين ": 6653,
      "مرڪز ": 6654,
      "وفات ": 6655,
      " جو": 6656,
      "ب ال": 6657,
      "وي\n": 6658,
      "پنجا": 6659,
      "بعدين ": 6660,
      "مثل ": 6661,
      "ڀرپور ": 6662,
      "ڪڍي ": 6663,
      "pro": 6664,
      "تكم ": 6665,
      "هڙا ": 6666,
      "پنه": 6667,
      "جنس ": 6668,
      "ڳالهائي ": 6669,
      "ڃا تائين ": 6670,
      "):": 6671,
      "سون": 6672,
      "ل: ": 6673,
      "نو ": 6674,
      "ڻيون ": 6675,
      "وڌ ": 6676,
      "ع کان ": 6677,
      "محنت ": 6678,
      "an ": 6679,
      "تاريخ جي ": 6680,
      "واپاري ": 6681,
      "ٺاهڻ ": 6682,
      "کاڌو ": 6683,
      "صلى الله ": 6684,
      "پرڏيهي ": 6685,
      "wit": 6686,
      "دة ": 6687,
      "رخ": 6688,
      "متعارف ": 6689,
      "ڪنگ ": 6690,
      "ماضي ": 6691,
      "\" (": 6692,
      "عمر ۾ ": 6693,
      "ڪيو آهي ته ": 6694,
      "زمرو": 6695,
      "نيٽ ورڪ ": 6696,
      "پٽي ": 6697,
      "ن ، ": 6698,
      "نه پر ": 6699,
      "ڪرڻ واري ": 6700,
      "in ": 6701,
      "ڪاغذ": 6702,
      "پوءِ به ": 6703,
      "ٿا؟\n": 6704,
      "وسيع ": 6705,
      "خاصيتون ": 6706,
      "s\n": 6707,
      "ء ۾ ": 6708,
      "دؤ": 6709,
      "ل ال": 6710,
      "چڪ": 6711,
      "ڊٽ ": 6712,
      "ستر ": 6713,
      "سوچ ": 6714,
      "بود ": 6715,
      "\" م": 6716,
      "اطلا": 6717,
      "سان رابطو ": 6718,
      "واح": 6719,
      "اداري ": 6720,
      "ملڪي ": 6721,
      "سموري ": 6722,
      "سالن جي ": 6723,
      "ڏکيو ": 6724,
      "مڙس ": 6725,
      "Android ": 6726,
      "باي": 6727,
      "ذا": 6728,
      "كنت ": 6729,
      "ي!\n": 6730,
      "راڻي ": 6731,
      "ميان ": 6732,
      "بيه ": 6733,
      "جيڪڏهن اسان ": 6734,
      "ڏنا ": 6735,
      "رهي هئي.\n": 6736,
      "شخصي": 6737,
      "ڊوڙ": 6738,
      "خاندان ": 6739,
      "فرانسي": 6740,
      "شخصيت ": 6741,
      "مجبور ": 6742,
      "انتهائي ": 6743,
      "هوٽ": 6744,
      "ڇڏيو ": 6745,
      "فوت ": 6746,
      "ood": 6747,
      "ڪوشش ڪئي ": 6748,
      "ik": 6749,
      "، مون ": 6750,
      "ڪرڻ وارو ": 6751,
      "ڇا اهو ": 6752,
      "مشين ": 6753,
      "ڏسي سگه": 6754,
      "حقيقت": 6755,
      "تنھن": 6756,
      "اشته": 6757,
      "پالڻ": 6758,
      "آزمائ": 6759,
      "ثبو": 6760,
      "سپورٽ ": 6761,
      " اڳ ": 6762,
      "اسين": 6763,
      "برقي ": 6764,
      "وقت ۾ ": 6765,
      "جيڪڏهن اهو ": 6766,
      "است.\n": 6767,
      "A ": 6768,
      "ناول ": 6769,
      "ٿي سگهن ": 6770,
      "ن جون ": 6771,
      "۽ ان جي ": 6772,
      "ڪرڻ جي ڪوشش ": 6773,
      "enc": 6774,
      "ڏئي ٿو.\n": 6775,
      "دفعي ": 6776,
      "ايران\n": 6777,
      "خطرناڪ ": 6778,
      "جز ": 6779,
      "ڪنهن ٻئي ": 6780,
      "عرب ": 6781,
      "واپسي ": 6782,
      "ي وڃي ": 6783,
      "خاموش ": 6784,
      "تين ": 6785,
      "شنگ": 6786,
      "رهندو ": 6787,
      "سيٽ ": 6788,
      "بلڪه ": 6789,
      "ڪري ڇڏيو.\n": 6790,
      "ملاز": 6791,
      "حسن ": 6792,
      "شوق": 6793,
      "ان ٿو.\n": 6794,
      "ساڻ": 6795,
      "سائنس ": 6796,
      "روحاني ": 6797,
      "موقعي تي ": 6798,
      "اخلا": 6799,
      "نِ": 6800,
      "ٽ.\n": 6801,
      "ڀري": 6802,
      "ھا ": 6803,
      "هوٽل ": 6804,
      "نگراني ": 6805,
      "۽ انهي ": 6806,
      "نظم ": 6807,
      "حيرت ": 6808,
      "آفريڪا ": 6809,
      "هڻي ": 6810,
      "اني س": 6811,
      "يو!\n": 6812,
      "پرس": 6813,
      "قانون": 6814,
      "اينڊر": 6815,
      "دعوت ": 6816,
      "رهندي)\n": 6817,
      "تت": 6818,
      "قه ": 6819,
      "لال ": 6820,
      "سير ": 6821,
      "ماڻهوءَ ": 6822,
      "دوستي ": 6823,
      "جرمني ": 6824,
      "31": 6825,
      "ئر جي ": 6826,
      "شام": 6827,
      "برائ": 6828,
      "فيت ": 6829,
      "هڪ ان": 6830,
      "دنيا": 6831,
      "ڪجهه به ": 6832,
      "پارليا": 6833,
      "سواء ": 6834,
      "وقت": 6835,
      "وائرس ": 6836,
      "زمرو:": 6837,
      "eg": 6838,
      "ع م": 6839,
      "ويو.\n": 6840,
      "ڊز": 6841,
      "ڪاف": 6842,
      "ٻڌو ": 6843,
      "هلائڻ ": 6844,
      "هُن ": 6845,
      "ڪري سگھو ": 6846,
      "اوهان جي ": 6847,
      " محفو": 6848,
      "وفاقي ": 6849,
      "وزيراعظم ": 6850,
      "جين": 6851,
      "هَ": 6852,
      "هاءِ ": 6853,
      "ٿو ، ": 6854,
      "نام ": 6855,
      "۽ اهي ": 6856,
      "لڳو ": 6857,
      "نظر اچي ": 6858,
      "روزگار ": 6859,
      "گراهڪن جي ": 6860,
      "معنيٰ ": 6861,
      " ؟؟\n": 6862,
      "ذي ": 6863,
      "عنو": 6864,
      "غرب": 6865,
      " مئي ": 6866,
      "آهي جيڪي ": 6867,
      "يندا آهن ": 6868,
      "صفحا ": 6869,
      "بجلي ": 6870,
      "ay ": 6871,
      "هندي ": 6872,
      "تي ڪلڪ ": 6873,
      "رياض": 6874,
      "نهن جي ": 6875,
      " ڪو ": 6876,
      "، اُ": 6877,
      "طور تي، ": 6878,
      "ڪمزور ": 6879,
      "حاصل ڪرڻ لاء": 6880,
      "لائق ": 6881,
      "يورپ ۾ ": 6882,
      "ڪري ڇڏيو ": 6883,
      "ڊاڪٽر": 6884,
      "ي سگهو ٿا.\n": 6885,
      "Aw": 6886,
      "اٺ": 6887,
      "شي\n": 6888,
      "فين ": 6889,
      "هجي": 6890,
      "ته توهان ": 6891,
      "ويٺو ": 6892,
      "بيٽري ": 6893,
      "فوٽو ": 6894,
      "حملو ": 6895,
      "بونس ": 6896,
      " جون ": 6897,
      "بزر": 6898,
      "كم": 6899,
      "ناس": 6900,
      "ندا": 6901,
      "پرو ": 6902,
      "ڪاپي ": 6903,
      "تنھنجي ": 6904,
      "دفعا ": 6905,
      "يكون ": 6906,
      "G ": 6907,
      "سڪر": 6908,
      "انڪ ": 6909,
      "کي استعمال ": 6910,
      "نقل ": 6911,
      "اعترا": 6912,
      "علامه ": 6913,
      "پراڊڪ": 6914,
      "مٿين ": 6915,
      "؛ \"": 6916,
      "indh": 6917,
      "پوزيشن ": 6918,
      "32": 6919,
      "سلي": 6920,
      "من کي ": 6921,
      "کو ": 6922,
      "ارن جي ": 6923,
      "سان لاڳاپيل ": 6924,
      "آهي . . .\n": 6925,
      "به هڪ ": 6926,
      "ڪرڻ جي ضرورت آهي.\n": 6927,
      "شن\n": 6928,
      "آھي ، ": 6929,
      "امير ": 6930,
      "متبادل ": 6931,
      "بک": 6932,
      "ة م": 6933,
      ". . ا": 6934,
      "آهي جڏهن ": 6935,
      "ڪري ٿو ته ": 6936,
      "آخرين ": 6937,
      "قبضو ": 6938,
      " سيپٽمبر ": 6939,
      "جاءِ تي ": 6940,
      "سنڀال ": 6941,
      "اتر ": 6942,
      "سار ": 6943,
      "مدي": 6944,
      "وش": 6945,
      "تي ۽ ": 6946,
      "ب ۽ ": 6947,
      "هي\n": 6948,
      "هر سال ": 6949,
      " انتي ": 6950,
      "ٿي وئي.\n": 6951,
      "on ": 6952,
      "جرمن ": 6953,
      "بخش": 6954,
      " معيار ": 6955,
      "ڀاڱ": 6956,
      "مطالبو ": 6957,
      "تڪليف ": 6958,
      "سست": 6959,
      "فلا": 6960,
      "وحد": 6961,
      "ڏي.\n": 6962,
      "انت": 6963,
      "مي جي ": 6964,
      "عمل جي ": 6965,
      "مسك": 6966,
      "بحالي ": 6967,
      "آن لائين ": 6968,
      "اخبار ": 6969,
      "چڪو آهي.\n": 6970,
      "علائقن ۾ ": 6971,
      " . .\n": 6972,
      "تون\n": 6973,
      "ڪيري": 6974,
      "ڪري رهيو آهي.\n": 6975,
      "سمارٽ ": 6976,
      "تائين رسائي ": 6977,
      "چوندو ": 6978,
      "ت اها ": 6979,
      "آءِ": 6980,
      "گڏيل قو": 6981,
      "رانديگر": 6982,
      " ج": 6983,
      "بول": 6984,
      "لكن ": 6985,
      "وغيره ": 6986,
      "ٿيو آهي.\n": 6987,
      "ڀار": 6988,
      "ڪس": 6989,
      "ھئي.\n": 6990,
      "ن ۾ ا": 6991,
      "لاء، ": 6992,
      "ي ويندي ": 6993,
      "بي ۾ ": 6994,
      "آهي ته هو ": 6995,
      "وٺڻ ": 6996,
      "ماڻهن جو ": 6997,
      "فنڪ": 6998,
      "تصديق": 6999,
      "ايو.\n": 7000,
      "رفت": 7001,
      "صدي ": 7002,
      "طاب": 7003,
      "مظاه": 7004,
      "پڌ": 7005,
      "پلي ": 7006,
      "گوي": 7007,
      "روڪي ": 7008,
      "موٽر ": 7009,
      "هيل": 7010,
      "رهن": 7011,
      "سادي ": 7012,
      "شر ": 7013,
      "يا ته ": 7014,
      "ڪون": 7015,
      "هنا ": 7016,
      "حتجا": 7017,
      "ذهن ۾ ": 7018,
      "فوري طور تي ": 7019,
      "حاضر ": 7020,
      "بڪ ": 7021,
      "ڄڻا ": 7022,
      "کان.\n": 7023,
      "ڪش ": 7024,
      "ڪرڻي ": 7025,
      "ال\n": 7026,
      "راي": 7027,
      "رانديون ": 7028,
      "سڃاڻپ ": 7029,
      "دشمن ": 7030,
      "حصيداري ": 7031,
      "sub": 7032,
      "x ": 7033,
      "ڳالھ ": 7034,
      "ٽيبل ": 7035,
      "ڏني وئي ": 7036,
      "مارڪيٽ ۾ ": 7037,
      "تقريبا ": 7038,
      "sm": 7039,
      "چين ۾ ": 7040,
      "ائيندو ": 7041,
      "ورز": 7042,
      "ورڊ ": 7043,
      "ريلوي ": 7044,
      "ادبي ": 7045,
      " سندس ": 7046,
      "هر شي ": 7047,
      "لوڪ ": 7048,
      "مواد جي ": 7049,
      "قسمتي ": 7050,
      "ء\n": 7051,
      "تار ": 7052,
      "حم": 7053,
      "رك": 7054,
      "فعل": 7055,
      "چپ ": 7056,
      "و آ": 7057,
      "رهندا ": 7058,
      "نظام": 7059,
      "الله ي": 7060,
      "بند ڪ": 7061,
      "رھيو ": 7062,
      "الزام ": 7063,
      "اڌ": 7064,
      "ح\n": 7065,
      "عنوان ": 7066,
      "لَ": 7067,
      "جو مطلب ": 7068,
      "نهايت ": 7069,
      "هڪ وڏي ": 7070,
      "ترق": 7071,
      ": ههههههه ": 7072,
      "اهو پڻ ": 7073,
      "بيهي ": 7074,
      "ڪندڙن ": 7075,
      " آگ": 7076,
      "صحت جي ": 7077,
      "toاڻ": 7078,
      "اڃا به ": 7079,
      "ٿي چڪا ": 7080,
      "احتجا": 7081,
      "رَ": 7082,
      "كس ": 7083,
      "نڪت": 7084,
      "ه جي ": 7085,
      " اند": 7086,
      "ارادو ": 7087,
      "ريم ": 7088,
      "ليگ": 7089,
      "ang": 7090,
      "اچڻ ": 7091,
      "مثبت ": 7092,
      ". . . . . . ": 7093,
      "في الحال ": 7094,
      "تائي ": 7095,
      "تباهه ": 7096,
      "حاص": 7097,
      "دن جي ": 7098,
      "صلا ": 7099,
      "تربيت ": 7100,
      "نيئر": 7101,
      "آھي ۽ ": 7102,
      "قرض ": 7103,
      "ڀاءُ ": 7104,
      "چوڌاري ": 7105,
      ") ۾ ": 7106,
      "d ": 7107,
      "جن جو ": 7108,
      "عين ": 7109,
      "ڏک ": 7110,
      "ورتو.\n": 7111,
      "عرص": 7112,
      "عرف ": 7113,
      "گاڏ": 7114,
      "ـــــــــــــــ": 7115,
      "گراهڪن کي ": 7116,
      "جسم جي ": 7117,
      "۽ اسان جي ": 7118,
      "ضمانت ": 7119,
      "T ": 7120,
      "پنا": 7121,
      "ڌا": 7122,
      "تي به ": 7123,
      "موجب": 7124,
      "بيٺو ": 7125,
      "تبار ": 7126,
      "ڪپڙا ": 7127,
      "ايندو ": 7128,
      "ثان": 7129,
      "خز": 7130,
      "كم\n": 7131,
      "هوا": 7132,
      "ڦر": 7133,
      "ــي ": 7134,
      "پيپل": 7135,
      "پيدائ": 7136,
      "اصطلا": 7137,
      "جوان ": 7138,
      "گذاري ": 7139,
      "پنهنجون ": 7140,
      "ast": 7141,
      "جن.\n": 7142,
      "شا ": 7143,
      "فال": 7144,
      "ميون": 7145,
      "کپ": 7146,
      "ايجن": 7147,
      "ولو ": 7148,
      "ج جو ": 7149,
      "پنھنجو ": 7150,
      "بادشاهه ": 7151,
      "اڄ به ": 7152,
      "درخواست": 7153,
      "خصوص": 7154,
      "جلد ئي ": 7155,
      "))": 7156,
      "سي س": 7157,
      "شھ": 7158,
      "ه؟\n": 7159,
      "ڄڻ": 7160,
      "ڊين": 7161,
      "ڏس ": 7162,
      "جي؟\n": 7163,
      "ادائيگي ": 7164,
      "گرام ": 7165,
      "ڻ گهرجي ته ": 7166,
      "رکي ٿو.\n": 7167,
      "ڻ ۾ مدد ": 7168,
      " .": 7169,
      "بہ ": 7170,
      "ختي ": 7171,
      "سفر": 7172,
      "کير ": 7173,
      "ٿي ، ": 7174,
      "چيئر": 7175,
      "موجود آهن.\n": 7176,
      "ڪلاڪ ": 7177,
      "سيڪيورٽي ": 7178,
      "St": 7179,
      "eb": 7180,
      "بيا": 7181,
      "دُ": 7182,
      "اهي": 7183,
      "ايم اي": 7184,
      "ٿي رهيو ": 7185,
      "لڳل ": 7186,
      "ذريعو ": 7187,
      "ros": 7188,
      "دريافت ": 7189,
      "سمنڊ ": 7190,
      "\"،": 7191,
      "آ،\n": 7192,
      "ساري ": 7193,
      "ٽڪ ": 7194,
      "انس ": 7195,
      "ڪرائي ": 7196,
      "اهي سڀ": 7197,
      "توجي": 7198,
      "گھڻي ": 7199,
      "ائڻ ۾ ": 7200,
      "سالن ": 7201,
      "رجسٽر ": 7202,
      "ٻڌايو ": 7203,
      "ويب سائيٽ تي ": 7204,
      "پروفيسر ": 7205,
      "تجويز ": 7206,
      "زبردست ": 7207,
      "مجا": 7208,
      "هڪ ٻيو ": 7209,
      "موثر ": 7210,
      "ايڊي": 7211,
      "سيد ": 7212,
      "سٽري ": 7213,
      "ڻو آهي.\n": 7214,
      "ٽرئ": 7215,
      "COV": 7216,
      " آڪٽوبر ": 7217,
      "لق": 7218,
      "يابي ": 7219,
      "رو.\n": 7220,
      "امين ": 7221,
      "منتظ": 7222,
      "چاهيان ": 7223,
      "فلس": 7224,
      "ٽرين": 7225,
      "گروپ": 7226,
      "رھيا ": 7227,
      "300": 7228,
      "ثار ": 7229,
      "سؤ": 7230,
      "لن تي ": 7231,
      "مٺ": 7232,
      "پس ا": 7233,
      "لاءِ ، ": 7234,
      "بيمار ": 7235,
      "سوچيو ": 7236,
      "\" هن ": 7237,
      "علمي ": 7238,
      "ڏني.\n": 7239,
      "اچو ته ": 7240,
      "مان\n": 7241,
      "نامه ": 7242,
      "مارڪيٽنگ": 7243,
      "آفيسر ": 7244,
      " ت": 7245,
      "بجي": 7246,
      "حساس ": 7247,
      "صبح": 7248,
      "ـي ": 7249,
      "قري": 7250,
      "پئي.\n": 7251,
      "کلي ": 7252,
      " ڪن": 7253,
      "ج کي ": 7254,
      "اهي س": 7255,
      "ءَ م": 7256,
      ": ههههههههه ": 7257,
      "ٿي ويا.\n": 7258,
      "بليو ": 7259,
      "ڊي جي ": 7260,
      "مطلب ته ": 7261,
      "امتحان ": 7262,
      "جل ": 7263,
      "جيو": 7264,
      "ارڊ ": 7265,
      "مقد": 7266,
      "زمين تي ": 7267,
      "پريس ": 7268,
      "تجر": 7269,
      "اُهي ": 7270,
      "حڪومت جي ": 7271,
      "نمائندگي ": 7272,
      "وانگر": 7273,
      "اڇ": 7274,
      "خور": 7275,
      "غلام ": 7276,
      "نان": 7277,
      "وع": 7278,
      "پتو ": 7279,
      "ان!\n": 7280,
      "لاڙ": 7281,
      "اصر ": 7282,
      "ڇڏيو.\n": 7283,
      "هنن جي ": 7284,
      "وڃن.\n": 7285,
      "غير معمولي ": 7286,
      "ننڍڙي ": 7287,
      "گاڏي ": 7288,
      " مارچ ": 7289,
      "شريڪ ": 7290,
      "پابندي ": 7291,
      "ٽي وي ": 7292,
      "پاليسي ": 7293,
      "افي": 7294,
      "مت ا": 7295,
      "، جيڪي ": 7296,
      "ين مان ": 7297,
      "ڪرڻ سان ": 7298,
      "معصو": 7299,
      "ج تي ": 7300,
      "پنھن": 7301,
      "لڳ ڀ": 7302,
      "پاڪستاني ": 7303,
      "لي س": 7304,
      "ٻر": 7305,
      "هن کان ": 7306,
      "۽ پنهنجي ": 7307,
      "راح ": 7308,
      "ڪيئي ": 7309,
      "موڪل ": 7310,
      " سسٽ": 7311,
      "مناف": 7312,
      "منظوري ": 7313,
      "اجلا": 7314,
      "خبرون ": 7315,
      "ٽيفڪي": 7316,
      "صلى الله عليه وسل": 7317,
      "آڏو ": 7318,
      "دلي": 7319,
      "نبي ": 7320,
      "ٽڪر": 7321,
      "پت": 7322,
      "ان ته ": 7323,
      "اهڙن ": 7324,
      "ورا ": 7325,
      "نه ڪند": 7326,
      "ملڪن ۾ ": 7327,
      "ڪيو هو.\n": 7328,
      "حالتون ": 7329,
      "كيف ": 7330,
      "سڃاتو ": 7331,
      "دفا": 7332,
      "سب ": 7333,
      "هن ڪتاب ": 7334,
      "ماند": 7335,
      "ترڪي ": 7336,
      "يءَ جا ": 7337,
      "فتح ": 7338,
      "فائدا ": 7339,
      "ڏسندا ": 7340,
      "حاف": 7341,
      "ساس": 7342,
      "ڊسپ": 7343,
      "کي بهتر ": 7344,
      "جو حصو ": 7345,
      "اهل ": 7346,
      "ماس": 7347,
      "ڪيمي": 7348,
      "تعال": 7349,
      "شاخ": 7350,
      "دعوي": 7351,
      "شروع ڪيو.\n": 7352,
      "رساله ": 7353,
      "37": 7354,
      "جاب": 7355,
      "حذ": 7356,
      "رائي": 7357,
      "ز: ": 7358,
      "سن جي ": 7359,
      "شين": 7360,
      "طبي ": 7361,
      "غان ": 7362,
      "ڄڻ ته ": 7363,
      "ڏيندا ": 7364,
      "ول\n": 7365,
      "بازار ": 7366,
      "ڪاري": 7367,
      "حڪمت عملي ": 7368,
      "pr": 7369,
      "تھ": 7370,
      "لن ۾ ": 7371,
      "يس.\n": 7372,
      "پِ": 7373,
      "آهي جنهن ": 7374,
      "ڪرڻ لڳ": 7375,
      "سنوار": 7376,
      "193": 7377,
      "۔۔۔": 7378,
      "، انهن کي ": 7379,
      "Nex": 7380,
      "fl": 7381,
      "سڌي ": 7382,
      "فق ": 7383,
      "ائيند": 7384,
      "نه، ": 7385,
      "ميم": 7386,
      "ي ويا ": 7387,
      " سين": 7388,
      "اهو آهي ته ": 7389,
      "بازي ": 7390,
      "تن ۽ ": 7391,
      "حالا ": 7392,
      " موضو": 7393,
      "غال": 7394,
      "مدر": 7395,
      "هي.\n": 7396,
      "ٽار": 7397,
      "پس": 7398,
      "ڊ\n": 7399,
      "م ڪور": 7400,
      "مون کي خبر ": 7401,
      "ڇو جو ": 7402,
      "ڇو نه ": 7403,
      "نَ": 7404,
      "نواز ": 7405,
      "ڀڄ": 7406,
      "ڏيڻ جو ": 7407,
      "ننڍڙو ": 7408,
      "هوندو هو.\n": 7409,
      "خارجي ": 7410,
      "تازه ڪاري ": 7411,
      "95": 7412,
      "> ": 7413,
      "M ": 7414,
      "مگ": 7415,
      "ِ\n": 7416,
      "فاط": 7417,
      "رڪاو": 7418,
      "خطرو ": 7419,
      "34": 7420,
      "شين کي ": 7421,
      "عض": 7422,
      "نج": 7423,
      "يهم": 7424,
      "ندس.\n": 7425,
      "ريڊ": 7426,
      "يل آهي.\n": 7427,
      "من جو ": 7428,
      "جن مان ": 7429,
      "زندگي ۾ ": 7430,
      "يو وڃي ": 7431,
      "ايراني ": 7432,
      " نومبر ": 7433,
      "hat": 7434,
      "بة ": 7435,
      "فول": 7436,
      "يو،\n": 7437,
      "سان هڪ ": 7438,
      "ماء": 7439,
      "ب کي ": 7440,
      "نه ڪري سگه": 7441,
      "ايڊ": 7442,
      "نيئر ": 7443,
      "طرز ": 7444,
      "ٽرمين": 7445,
      "تو کي ": 7446,
      "ٿيندو": 7447,
      "س اين": 7448,
      "نيوز ": 7449,
      "علائقو ": 7450,
      "ڊگهو ": 7451,
      "واسطو ": 7452,
      "آدم ": 7453,
      "جڻ ": 7454,
      "غائب ": 7455,
      "قا ": 7456,
      "لس": 7457,
      "مدا": 7458,
      "هـ ": 7459,
      "يت": 7460,
      "ڀرو": 7461,
      "جي باري ۾ ": 7462,
      "انا": 7463,
      "مايو ": 7464,
      "پوک": 7465,
      "لوم ": 7466,
      "سڀاڻي ": 7467,
      "تون به ": 7468,
      "ٽرويو ": 7469,
      "جيتوڻيڪ ا": 7470,
      "تحفظ": 7471,
      "~\n": 7472,
      "جاي": 7473,
      "آهي جنهن کي ": 7474,
      "عمل ۾ ": 7475,
      "گزارش ": 7476,
      "__": 7477,
      "آئي": 7478,
      "ود ": 7479,
      "چڪي ": 7480,
      "ڪنگ": 7481,
      "لال": 7482,
      "تي آهي.\n": 7483,
      "ورها": 7484,
      "سونهن ": 7485,
      "کيس ا": 7486,
      "بعض": 7487,
      "ئرپورٽ ": 7488,
      "ڪئميرا ": 7489,
      " محسوس ": 7490,
      "ڏٺو.\n": 7491,
      "ڪرڻ گهرجي ": 7492,
      "عذاب ": 7493,
      "نفرت ": 7494,
      "ڪارروائي ": 7495,
      "Al": 7496,
      "صدار": 7497,
      "عص": 7498,
      "وگڏ ": 7499,
      "په ": 7500,
      " اهم ": 7501,
      "لاء\n": 7502,
      "پيماني تي ": 7503,
      "سواءِ": 7504,
      "قسم جا ": 7505,
      "ملازم": 7506,
      "ڪيا ويا ": 7507,
      "عليه السلا": 7508,
      "آڇ": 7509,
      "بلي ": 7510,
      "ر: ": 7511,
      "طي ": 7512,
      " مث": 7513,
      "هڪ وڏو ": 7514,
      "ڪري ٿو": 7515,
      "سيڪري": 7516,
      "تحليل ": 7517,
      "شايد": 7518,
      "يا ويا ": 7519,
      "ic ": 7520,
      "کاٻي ": 7521,
      " اسٽي": 7522,
      "ٽرانسپورٽ ": 7523,
      " آگسٽ ": 7524,
      "جبل ": 7525,
      "کرد": 7526,
      "۽ سندس ": 7527,
      "ي ويندي.\n": 7528,
      "ويه": 7529,
      "اصلا ": 7530,
      "\" ۽ ": 7531,
      "گهرو ": 7532,
      "مضمون": 7533,
      "وڪيپيڊ": 7534,
      "زندگيءَ جي ": 7535,
      "ست جي ": 7536,
      "ضافي ": 7537,
      "كذا ": 7538,
      "ڀان": 7539,
      "کائي ": 7540,
      "ن ٿيون.\n": 7541,
      "ڪريو، ": 7542,
      "سان جي ": 7543,
      "رو\n": 7544,
      "ست؟\n": 7545,
      "بابت ا": 7546,
      "اااااا": 7547,
      "پهچائڻ ": 7548,
      "قانون جي ": 7549,
      "ليڪن ": 7550,
      "هونئن ": 7551,
      "ظاهري ": 7552,
      "ڪ اڪائونٽ کول": 7553,
      "صبر ": 7554,
      "عث": 7555,
      "فو ": 7556,
      "لڪ ": 7557,
      "مة ": 7558,
      "ٽ، ": 7559,
      "کار ": 7560,
      "انهيءَ": 7561,
      "گهي ": 7562,
      "رومان": 7563,
      "هيء ": 7564,
      "عمر جي ": 7565,
      "مهل ": 7566,
      "ـــي ": 7567,
      "دنيا کي ": 7568,
      "ڪري ڇڏيو\n": 7569,
      "ننڍو ": 7570,
      "بقى ": 7571,
      "اڪائونٽ ": 7572,
      "44": 7573,
      ":-": 7574,
      "I ": 7575,
      "ubl": 7576,
      "دي\n": 7577,
      "وصول ": 7578,
      "چڪا": 7579,
      "۾ به ": 7580,
      "لاء استعمال ": 7581,
      "فراه": 7582,
      "واري س": 7583,
      "مشين": 7584,
      "هلندڙ ": 7585,
      "جھ ": 7586,
      "ڪيو ويو آهي ": 7587,
      "بنيادي طور تي ": 7588,
      "بلوچ": 7589,
      "ضافو ": 7590,
      "عة ": 7591,
      "پان": 7592,
      "ڻ کي ": 7593,
      "ڪ تي ": 7594,
      "ياسين.\n": 7595,
      "فرض ": 7596,
      "ڪار جي ": 7597,
      "تن تي ": 7598,
      "انسان جي ": 7599,
      "هفته ": 7600,
      "Pl": 7601,
      "داس": 7602,
      "لائي": 7603,
      "نل ": 7604,
      " ايڪ": 7605,
      "انفرا": 7606,
      "نه هئي.\n": 7607,
      "هه ۾ ": 7608,
      "هي، ": 7609,
      "ملو": 7610,
      "سوئ": 7611,
      "حاصل ڪرڻ لاءِ ": 7612,
      "ٿي سگهي ٿي.\n": 7613,
      "چارج ": 7614,
      "COVID": 7615,
      "دٻ": 7616,
      "يس ": 7617,
      "پذ": 7618,
      "يو ، ": 7619,
      " ڪڏهن ": 7620,
      "فيشن ": 7621,
      "خوب ": 7622,
      "\" جو ": 7623,
      "مينهن ": 7624,
      "قلب": 7625,
      "مريض": 7626,
      "عليه السلام": 7627,
      "خاطر ": 7628,
      "يسل": 7629,
      "گا ": 7630,
      "کان پوء ": 7631,
      "رها ": 7632,
      "بيٺ": 7633,
      "مرض": 7634,
      "اڳوڻي ": 7635,
      "والد ": 7636,
      "همه ": 7637,
      "عوام جي ": 7638,
      "ڊيٽا جي ": 7639,
      "اوھان ": 7640,
      "لازمي طور تي ": 7641,
      "شريف ": 7642,
      "تبصرو ": 7643,
      "\"تون ": 7644,
      "تال": 7645,
      "زال": 7646,
      "صن": 7647,
      "مئن ": 7648,
      "ه:": 7649,
      "ڙو": 7650,
      "يو ايس ": 7651,
      "فيها ": 7652,
      "باق": 7653,
      ") جو ": 7654,
      "سلط": 7655,
      "ٽيڪن": 7656,
      "پئجي و": 7657,
      "اسٽور ": 7658,
      "تڪڙو ": 7659,
      "شپ": 7660,
      "عڪس ": 7661,
      "هلا": 7662,
      "يالله ": 7663,
      "هه، ": 7664,
      " اندر ": 7665,
      "ماء ": 7666,
      "نوٽي": 7667,
      "فلسف": 7668,
      "نمائش ": 7669,
      "پليٽ فار": 7670,
      "ڪميشن ": 7671,
      "جمهوري اسلامي ": 7672,
      "تفصيلي ": 7673,
      "ڊائونلوڊ ": 7674,
      "E ": 7675,
      "NT": 7676,
      "اغ": 7677,
      "خدا": 7678,
      "د ال": 7679,
      "رن کي ": 7680,
      "سپر ": 7681,
      "يـ": 7682,
      "مات": 7683,
      "ءَ جا ": 7684,
      "فرق": 7685,
      "سالي": 7686,
      "urn": 7687,
      "ڪري ڇڏيو آهي.\n": 7688,
      "حلوة ": 7689,
      "ib": 7690,
      "جهي ": 7691,
      "كله ": 7692,
      "لى ": 7693,
      "ي او ": 7694,
      "اصول": 7695,
      "ڪوڙ ": 7696,
      "حاصل ڪري ": 7697,
      "رجسٽري": 7698,
      "گنجائ": 7699,
      "39": 7700,
      "55": 7701,
      "نمي": 7702,
      "نعم": 7703,
      "پڻ ا": 7704,
      "ڊنگ": 7705,
      "اليڪٽر": 7706,
      "نه ڪيو ": 7707,
      "معاف ": 7708,
      "ساز": 7709,
      "۽ اُ": 7710,
      "بنت ": 7711,
      "مثال": 7712,
      "هذا ال": 7713,
      "جدوجه": 7714,
      "48": 7715,
      "تائين.\n": 7716,
      "منه": 7717,
      "هن.\n": 7718,
      "ن بابت ": 7719,
      "ر ۽ ": 7720,
      " اف": 7721,
      "ته پوءِ ": 7722,
      "روانو ": 7723,
      "اسڪرين ": 7724,
      "ايم ا": 7725,
      "جوا ": 7726,
      "واقعو ": 7727,
      "نشاني ": 7728,
      "ٻاهران ": 7729,
      "فرانسيسي ": 7730,
      "ly": 7731,
      "آإ": 7732,
      "مداخ": 7733,
      "نائ": 7734,
      "ٿيو ۽ ": 7735,
      "ي وزير ": 7736,
      "هئڻ ": 7737,
      "جات ": 7738,
      "گڏجا": 7739,
      "ٻڌاي": 7740,
      "ڪري سگهي ٿو ": 7741,
      "چيف ": 7742,
      "ٿيندڙ": 7743,
      "هٿ ۾ ": 7744,
      "خيال آهي ته ": 7745,
      "ي ويب ": 7746,
      "ميدان ۾ ": 7747,
      "ثقافتي ": 7748,
      "ڊيٽابي": 7749,
      "ماحولياتي ": 7750,
      "تَ": 7751,
      "حقو": 7752,
      "ديو ": 7753,
      "سس ": 7754,
      "ميا": 7755,
      "ھن ۾ ": 7756,
      "کي ڪيئن ": 7757,
      "ون جي ": 7758,
      "ته هن ": 7759,
      "لاء ڪ": 7760,
      "ابت": 7761,
      "نيشن": 7762,
      "ڊيوائ": 7763,
      "لطف ا": 7764,
      "اڪ ": 7765,
      "جست": 7766,
      "شار": 7767,
      "ـ\n": 7768,
      "فتي ": 7769,
      "كده ": 7770,
      "ٻين جي ": 7771,
      "آهي ، اهو ": 7772,
      "معت": 7773,
      "اوت ": 7774,
      "ي سگهي ٿو.\n": 7775,
      "شكله ": 7776,
      "جتان ": 7777,
      "هور": 7778,
      "وائي ": 7779,
      "ڊل ": 7780,
      "ــ ": 7781,
      " مي ": 7782,
      ". . . ا": 7783,
      "آهي، اهو ": 7784,
      "باز": 7785,
      " ايم ": 7786,
      "ڪلهه ": 7787,
      "فٽبال ": 7788,
      "aw": 7789,
      "حالي ": 7790,
      "شب": 7791,
      "ايڇ": 7792,
      "ڪرڻ وارا ": 7793,
      "نا\n": 7794,
      "هيٺان ": 7795,
      "فلسط": 7796,
      "صحاف": 7797,
      "کاڌي ": 7798,
      "برانڊ ": 7799,
      "سمجهان ٿو ته ": 7800,
      "day": 7801,
      "لنگ": 7802,
      "چرا ": 7803,
      "گز ": 7804,
      "😂😂": 7805,
      "نه آهي ته ": 7806,
      "ڪرڻ آهي.\n": 7807,
      "امري": 7808,
      " ڪلو": 7809,
      "اولاد ": 7810,
      "اڳيون ": 7811,
      "صفحه ": 7812,
      "متحرڪ ": 7813,
      "طح تي ": 7814,
      "ساڻس ": 7815,
      "حين ": 7816,
      "ٽن ۾ ": 7817,
      "گن ": 7818,
      "ائو ": 7819,
      "وڌا": 7820,
      "سوسي": 7821,
      "فيل": 7822,
      "اندروني ": 7823,
      "192": 7824,
      "واپس ا": 7825,
      "ئي،\n": 7826,
      "كلهم ": 7827,
      "اوھين ": 7828,
      "آءُ ": 7829,
      "تفري": 7830,
      "شيا": 7831,
      "ڌما": 7832,
      "ا to": 7833,
      "ورل": 7834,
      "واڌ ": 7835,
      "ساڻ ": 7836,
      "سڀن": 7837,
      "مشغ": 7838,
      "لڳي ٿو ته ": 7839,
      "حصو وٺ": 7840,
      "پوءِ م": 7841,
      "تعداد ۾ ": 7842,
      "شراب ": 7843,
      "آڪٽوبر ": 7844,
      "سهولت ": 7845,
      "Ap": 7846,
      "ا!\n": 7847,
      "مک": 7848,
      "مصي": 7849,
      "هت ": 7850,
      "هم ا": 7851,
      "چا ": 7852,
      "ڇپ": 7853,
      "جو نال": 7854,
      "ته اسان ": 7855,
      "شيخ": 7856,
      "آهي ، جيڪو ": 7857,
      "آھي جيڪو ": 7858,
      " .\"\n": 7859,
      "لي، ": 7860,
      "ايي ": 7861,
      "سرگرم": 7862,
      "عليكم ": 7863,
      "مونڊي ": 7864,
      "فون تي ": 7865,
      "اوھان جي ": 7866,
      "سفارش ": 7867,
      "US": 7868,
      "ost": 7869,
      "آسان": 7870,
      "تلا": 7871,
      "جلا": 7872,
      "هيون.\n": 7873,
      "ڏيندو.\n": 7874,
      "سان ڪم ": 7875,
      "ريڊيو ": 7876,
      "نه ڪندو ": 7877,
      "ايپليڪيشن": 7878,
      "آهي؟": 7879,
      "ترقي": 7880,
      "ٿي پو": 7881,
      "ير\n": 7882,
      "ڪجي.\n": 7883,
      " ۾,": 7884,
      "ڪمپني": 7885,
      "ڪرڻ، ": 7886,
      "مستقل ": 7887,
      "نيٽ ور": 7888,
      "نرم ": 7889,
      "وجهي ": 7890,
      "تڪرار ": 7891,
      "پلاسٽڪ ": 7892,
      "لطف اند": 7893,
      "حُ": 7894,
      "دين": 7895,
      "فڪ": 7896,
      "وحي": 7897,
      "وغيره": 7898,
      "ڏيندڙ ": 7899,
      "جي لاءِ ": 7900,
      "يون ٿا ": 7901,
      "وڏين ": 7902,
      "حاصل ڪرڻ جي ": 7903,
      "گوگ": 7904,
      "چونڊيو ": 7905,
      "يو ويو آهي ته ": 7906,
      "ook": 7907,
      "ob": 7908,
      "ust": 7909,
      "آيا.\n": 7910,
      "جسٽ": 7911,
      "سرور ": 7912,
      "پيڪي": 7913,
      "ڪال ": 7914,
      "تربي": 7915,
      "امه ": 7916,
      "توهان هڪ ": 7917,
      "رهيا.\n": 7918,
      "مليو ": 7919,
      "سيکار": 7920,
      "هئس.\n": 7921,
      "ناقابل ": 7922,
      "نيم ": 7923,
      "افسوس ": 7924,
      "گهرجي ": 7925,
      "حصا ": 7926,
      "اڪث": 7927,
      "en ": 7928,
      "از ا": 7929,
      "150": 7930,
      "موجودگي ": 7931,
      " مارڪي": 7932,
      "ڪئي وئي.\n": 7933,
      "اک ": 7934,
      "دڪان ": 7935,
      "مسٽر ": 7936,
      "نسل": 7937,
      "وڊ": 7938,
      "چوري ": 7939,
      "نداسين.\n": 7940,
      "ڪرائڻ ": 7941,
      "واضح": 7942,
      "گها": 7943,
      "توي ": 7944,
      "ي وانگر ": 7945,
      "مون تي ": 7946,
      "ساٿ": 7947,
      "نيٺ ": 7948,
      "افت": 7949,
      "پرن": 7950,
      "ٺاهيل ": 7951,
      "قسمن جي ": 7952,
      "مخصوص": 7953,
      "حوالو ": 7954,
      "رلي": 7955,
      "شفا": 7956,
      "فني ": 7957,
      "پڪڙ": 7958,
      "ڏنو": 7959,
      "ان ڳالهه ": 7960,
      "، اھو ": 7961,
      "بيٺل ": 7962,
      "منسو": 7963,
      "ڻ جي ڪوشش ": 7964,
      "شيط": 7965,
      "ڪري سگهي ": 7966,
      "پروجيڪ": 7967,
      "پڙھ": 7968,
      "ناهي\n": 7969,
      "سائين": 7970,
      "et ": 7971,
      "چئي سگه": 7972,
      "'\n": 7973,
      "CL": 7974,
      "لس ": 7975,
      "ڪي س": 7976,
      "راج": 7977,
      "پرست": 7978,
      "پورهي": 7979,
      "صوب": 7980,
      "لائن": 7981,
      "پيامبر ": 7982,
      "اپڊيٽ ": 7983,
      "۽ انهن کي ": 7984,
      "ڪمپنيون ": 7985,
      "لكم ": 7986,
      "مـــ": 7987,
      "ڻ وارا ": 7988,
      "جوش ": 7989,
      "پرين ": 7990,
      "جهڙا ": 7991,
      "پرين": 7992,
      "شنو ": 7993,
      "كلها ": 7994,
      "مستحڪم ": 7995,
      "مقصد": 7996,
      "دلچسپ": 7997,
      "تشدد ": 7998,
      "مطالعي ": 7999,
      "عقد ": 8000,
      "لطيف ": 8001,
      "COVID-": 8002,
      " ،،": 8003,
      "اخو": 8004,
      "نـ": 8005,
      "ڊن ": 8006,
      "کوٽ ": 8007,
      "ريلو ": 8008,
      "وازي ": 8009,
      "ائي ٿو.\n": 8010,
      "ڪامي": 8011,
      "عاد ": 8012,
      "سنڌ ۾ ": 8013,
      "وقف ": 8014,
      " منٽ ": 8015,
      "مسلم ": 8016,
      "ڀيري ": 8017,
      "نمايان ": 8018,
      "گرمي پ": 8019,
      "ثبوت ": 8020,
      "برائوز": 8021,
      "آس ": 8022,
      "رأ": 8023,
      "زا": 8024,
      "عادي ": 8025,
      "منگ ": 8026,
      "۾ نه ": 8027,
      "واٽ": 8028,
      "ڪنداسين.\n": 8029,
      "ديه ": 8030,
      "مقام ": 8031,
      "شيد ": 8032,
      "بلند ": 8033,
      "191": 8034,
      "تن سان ": 8035,
      "سائيڪل ": 8036,
      "ملڪيت ": 8037,
      "ضلعي ": 8038,
      ", م": 8039,
      "ج ا": 8040,
      "صاف": 8041,
      "كت": 8042,
      "مئي ": 8043,
      "ڊو ": 8044,
      "موت جي ": 8045,
      "، اتي ": 8046,
      "فرض": 8047,
      " ايترو ": 8048,
      "ڏسندي ": 8049,
      "جماع": 8050,
      "آندو ": 8051,
      "بــ": 8052,
      "حف": 8053,
      "هتان ": 8054,
      "پکي": 8055,
      "ل جو ": 8056,
      "، هي ": 8057,
      "، جڏهن ": 8058,
      "هن تي ": 8059,
      "الف": 8060,
      "معر": 8061,
      "وڌندڙ ": 8062,
      "ڪمري ۾ ": 8063,
      "مرمت ": 8064,
      "مددگار ": 8065,
      "پورا ": 8066,
      "حصي ۾ ": 8067,
      "اعتماد ": 8068,
      "سائنس": 8069,
      "ڊوائيس ": 8070,
      "لطف اندوز ": 8071,
      "af": 8072,
      "is ": 8073,
      "فري ": 8074,
      "ڏِ": 8075,
      "ڪاب": 8076,
      "ن لاء ": 8077,
      "ملائي": 8078,
      "ع تائين ": 8079,
      "تاج ": 8080,
      "ندي هئي.\n": 8081,
      "والد": 8082,
      "ٿئي ٿو ": 8083,
      "مطالعو ": 8084,
      "هذي ": 8085,
      "ٺهرا": 8086,
      "ڊزائين ": 8087,
      "tion": 8088,
      "ب، ": 8089,
      "بو آهي.\n": 8090,
      "جهي": 8091,
      "فين": 8092,
      "يوٽيوب ": 8093,
      "توسان ": 8094,
      "مول ": 8095,
      "جيڪي س": 8096,
      "پوائن": 8097,
      "ٽيسٽ": 8098,
      "وڃو ": 8099,
      "آهن، پر ": 8100,
      "پهتو ": 8101,
      "حصي ": 8102,
      "حالتن ۾ ": 8103,
      "خلاف ا": 8104,
      "ڪري ڇڏي ": 8105,
      "رپورٽ": 8106,
      "لانچ ": 8107,
      "ي سگهو ٿا ": 8108,
      "نڪتو ": 8109,
      "اوچتو ": 8110,
      "دبئي ": 8111,
      "اڌ ": 8112,
      "حب ": 8113,
      "رسول ": 8114,
      "طول ": 8115,
      "لهه ": 8116,
      "مبت": 8117,
      "وهي ": 8118,
      "گهري ": 8119,
      "روئي ": 8120,
      "آهي ۽ اهو ": 8121,
      "نه رک": 8122,
      "امداد ": 8123,
      "ابتد": 8124,
      " ڪمپ": 8125,
      "افغانستان ": 8126,
      "ڪناري ": 8127,
      "ٻُڌ": 8128,
      "جذباتي ": 8129,
      "آڻي ": 8130,
      "باري ": 8131,
      "خذ": 8132,
      "كمان ": 8133,
      "ن يا ": 8134,
      "۽ پوءِ ": 8135,
      "ته اهي ": 8136,
      "نه آهي، ": 8137,
      "کان پري ": 8138,
      "ڪري ٿو\n": 8139,
      "هيچ": 8140,
      "سنئون ": 8141,
      "سائنسي ": 8142,
      "هجڻ گهرجي.\n": 8143,
      "ترقي جي ": 8144,
      "توجيهي ": 8145,
      "s\" ": 8146,
      "ري کي ": 8147,
      "لڳي.\n": 8148,
      "تاريخ ۾ ": 8149,
      " اول ": 8150,
      "حرف ": 8151,
      "هارڊ ": 8152,
      "خودمخت": 8153,
      "صارف جي ": 8154,
      " ڊسمبر ": 8155,
      "سپريم ڪور": 8156,
      "جوابدار ": 8157,
      " محفوظ ": 8158,
      "ڪيميائي ": 8159,
      " ع": 8160,
      ":)\n": 8161,
      "le ": 8162,
      "حلي": 8163,
      "شم": 8164,
      "لما ": 8165,
      "مظ": 8166,
      "نواز": 8167,
      "ٻان": 8168,
      "پ\n": 8169,
      "ٿڌي ": 8170,
      "انو": 8171,
      "ائنٽ ": 8172,
      "رون": 8173,
      "يره ": 8174,
      "ڪاٺ": 8175,
      "اُهو ": 8176,
      "منصوبي ": 8177,
      "معاهدي ": 8178,
      "رئيس ": 8179,
      " جنوري ": 8180,
      "وٿا ": 8181,
      "وڪيل ": 8182,
      "اره ": 8183,
      "مادي ": 8184,
      "ايپ ": 8185,
      "پيٽ ": 8186,
      "ادب ": 8187,
      "سالن ۾ ": 8188,
      "تنقيد ": 8189,
      "مذهب ": 8190,
      "پريشاني ": 8191,
      "e.\n": 8192,
      "تھ ": 8193,
      "زور": 8194,
      "شاهي ": 8195,
      "صار ": 8196,
      "منگ": 8197,
      "ڀارتي ": 8198,
      "ھي.\n": 8199,
      " او ": 8200,
      "ڻ جا ": 8201,
      " مڪمل ": 8202,
      "آهي جتي ": 8203,
      "ن جي وچ ۾ ": 8204,
      "ڪارڪن": 8205,
      "ٿي ويو آهي.\n": 8206,
      "لڳا": 8207,
      "مارٽ ": 8208,
      "گ ان ": 8209,
      "ممڪن آهي ته ": 8210,
      "اميد آهي ته ": 8211,
      "وطن ": 8212,
      "ي وڌيڪ ": 8213,
      "تجزيو حاصل ڪريو ": 8214,
      "پالڻھ": 8215,
      "65": 8216,
      "Sh": 8217,
      "ail": 8218,
      "تأ": 8219,
      "سـ": 8220,
      "سمي": 8221,
      "يي ": 8222,
      "ٽي س": 8223,
      "ھتي ": 8224,
      "روشن": 8225,
      "هيك ": 8226,
      "منٽ ": 8227,
      "لو\n": 8228,
      ") کي ": 8229,
      "کان، ": 8230,
      "قلت ": 8231,
      "لينڊ": 8232,
      "آسان آهي.\n": 8233,
      "مصروف ": 8234,
      "عورت جي ": 8235,
      "جيڪڏھن توھان ": 8236,
      "معاهدو ": 8237,
      "نصب ": 8238,
      "رن جو ": 8239,
      "پچ": 8240,
      "ر کي ": 8241,
      " اسپ": 8242,
      "هن سال ": 8243,
      "استح": 8244,
      "ي والله ": 8245,
      "ڪونهي ": 8246,
      " انساني ": 8247,
      "پرهي": 8248,
      "حاصل ڪرڻ لاء ": 8249,
      "بعد ا": 8250,
      "زمين جي ": 8251,
      "تهذي": 8252,
      "شكرا": 8253,
      "ٽوڙ": 8254,
      ". . . . . . . . ": 8255,
      "رانداز ": 8256,
      "ي وڃي.\n": 8257,
      " سڀني ": 8258,
      "پيچيده ": 8259,
      "eh": 8260,
      "اله ": 8261,
      "ايپ": 8262,
      "نيست": 8263,
      "عيسي": 8264,
      "ڪئي، ": 8265,
      "واپس آڻ": 8266,
      "عندك ": 8267,
      "پارٽي جي ": 8268,
      "مزاحمت ": 8269,
      "صحتمند ": 8270,
      "قابل اعتماد ": 8271,
      " /": 8272,
      "آء ": 8273,
      "سادو ": 8274,
      "شد ": 8275,
      "لة ": 8276,
      "هيون ": 8277,
      "و،\n": 8278,
      "ڏهن": 8279,
      "ههههه": 8280,
      "ته ڇا ": 8281,
      "هو هڪ ": 8282,
      "پوئين ": 8283,
      "ڪري سگهون ٿا.\n": 8284,
      "اقت": 8285,
      "ڊيٽا کي ": 8286,
      "ٽائيم ": 8287,
      "ug": 8288,
      "آسم": 8289,
      "ضاي": 8290,
      "جو دورو ": 8291,
      "ياداشت ": 8292,
      "پوڙ": 8293,
      " انسان": 8294,
      "تقسيم ": 8295,
      "سبق ": 8296,
      "علامت ": 8297,
      "ناممڪن ": 8298,
      "روايت ": 8299,
      "انداز ۾ ": 8300,
      "مثال طور، ": 8301,
      "ypto": 8302,
      "75": 8303,
      "ب.\n": 8304,
      "جِ": 8305,
      "جميل ": 8306,
      "شش ": 8307,
      "الو": 8308,
      "اهاه": 8309,
      " مض": 8310,
      "پيئي ": 8311,
      "محمد": 8312,
      "وارن جي ": 8313,
      "فوٽو": 8314,
      "بڻائ": 8315,
      "ڏئي ڇڏ": 8316,
      "text ": 8317,
      "ڊائريڪٽر ": 8318,
      "باقاعده ": 8319,
      " ن": 8320,
      "سپي": 8321,
      "لان ": 8322,
      "ڪ، ": 8323,
      "ڪيا.\n": 8324,
      "۽\n": 8325,
      " اص": 8326,
      "يو: ": 8327,
      "ڪرسم": 8328,
      "اسڪول": 8329,
      "ور جي ": 8330,
      "ابراه": 8331,
      "جيڪو اسان ": 8332,
      "هڪار ": 8333,
      "هڪ اي": 8334,
      "استعمال ڪرڻ ": 8335,
      "ٿيڻ کان ": 8336,
      "دماغ ": 8337,
      "تخليق ": 8338,
      "مڇي ": 8339,
      "form": 8340,
      "تنھنڪري ": 8341,
      " _ ": 8342,
      "بها ": 8343,
      "سك ": 8344,
      "هجن ": 8345,
      "کي يقيني بڻ": 8346,
      "ولين ": 8347,
      "پاڙ": 8348,
      "آهن!\n": 8349,
      "بڻا": 8350,
      "گول ": 8351,
      "پنهنجو پاڻ ": 8352,
      "صارفين ": 8353,
      "روشني": 8354,
      "مضبوط": 8355,
      "چيو: \"": 8356,
      "بھترين ": 8357,
      "رياضي ": 8358,
      "(ع": 8359,
      "per": 8360,
      "تذ": 8361,
      "ضاح": 8362,
      "وق ": 8363,
      "ي؟\n": 8364,
      "ڊبليو ": 8365,
      "انھن کي ": 8366,
      "ميلا": 8367,
      "تعالي": 8368,
      "ماڻهو": 8369,
      "وڏيون ": 8370,
      "مشاه": 8371,
      "بدقسمتي ": 8372,
      "ت انگي": 8373,
      "زمين": 8374,
      "يورپ جي ": 8375,
      "مثالي ": 8376,
      "قرر ": 8377,
      "راندين ": 8378,
      "هجن.\n": 8379,
      "اسٽيشن ": 8380,
      "ز، ": 8381,
      "لِ": 8382,
      "کُ": 8383,
      "ياد ا": 8384,
      " ۾ ئي ": 8385,
      "لوڊ ڪ": 8386,
      "اوي ": 8387,
      "مرحل": 8388,
      "سنجي": 8389,
      "ڪئي هئي.\n": 8390,
      "بالغ": 8391,
      "خرچ": 8392,
      "خوبصور": 8393,
      "اجلاس ": 8394,
      "ميدان ": 8395,
      "بيوقو": 8396,
      "38": 8397,
      "IP": 8398,
      "Pre": 8399,
      "اما": 8400,
      "جهو": 8401,
      "فح": 8402,
      "كثر ": 8403,
      "ڊگھ": 8404,
      "ارن کي ": 8405,
      "ي ويا.\n": 8406,
      "جي،\n": 8407,
      "سوين ": 8408,
      "پرست ": 8409,
      "راندين جي ": 8410,
      "چنين ": 8411,
      "نفسياتي ": 8412,
      "<text ": 8413,
      "OS ": 8414,
      "ليون ": 8415,
      "ويندو ": 8416,
      "ٽن تي ": 8417,
      "ڊپ ": 8418,
      "ائي\n": 8419,
      "يوار ": 8420,
      "ڪردار": 8421,
      "جو ڪم ": 8422,
      "ماپ ": 8423,
      ": (": 8424,
      "ونکي ": 8425,
      "ناهن ": 8426,
      "مسجد ": 8427,
      "حيدر": 8428,
      "ٽيڪس ": 8429,
      " اوزار ": 8430,
      "مرحله ": 8431,
      "clubl": 8432,
      "مولانا ": 8433,
      "inks\" ": 8434,
      "واعدو ": 8435,
      "<text sub": 8436,
      "clublinks\" ": 8437,
      "clublinks\" start": 8438,
      " C": 8439,
      "ذخ": 8440,
      "عد ": 8441,
      "لب": 8442,
      "لُ": 8443,
      "ٿي س": 8444,
      "تي مشتمل ": 8445,
      "ريزي ": 8446,
      "يا نه ": 8447,
      "ياس ": 8448,
      " مٿي ": 8449,
      "موس": 8450,
      "ايش ": 8451,
      "ڪري ٿي ": 8452,
      "معيار": 8453,
      "پاؤ": 8454,
      "ختيار": 8455,
      "يورپ": 8456,
      "اُتي ": 8457,
      "نالو جو ": 8458,
      "لينڊ جي ": 8459,
      "روزاني ": 8460,
      "؟؟؟\n": 8461,
      "هجي ته ": 8462,
      "صارفين کي ": 8463,
      "ٿيندي آهي.\n": 8464,
      "حقيقت اها ": 8465,
      "صلي الله ": 8466,
      "بئنڪ ": 8467,
      "نگريزي ": 8468,
      "فطري ": 8469,
      "انتخاب ": 8470,
      "خون ": 8471,
      "د:": 8472,
      "نشاند": 8473,
      "هيا.\n": 8474,
      " ارب ": 8475,
      "ماءُ": 8476,
      "راڻ": 8477,
      "جيتري ": 8478,
      "منجه": 8479,
      "درآمد ": 8480,
      "فوج ": 8481,
      "ڏسو.\n": 8482,
      "پڇيو.\n": 8483,
      "هُئ": 8484,
      "بار بار ": 8485,
      "عطا ": 8486,
      "جم": 8487,
      "ج م": 8488,
      "لئه ": 8489,
      "نہ": 8490,
      "الع": 8491,
      "تي ڪم ": 8492,
      "ڪيس": 8493,
      "end": 8494,
      "ity": 8495,
      "ٿئي ٿي.\n": 8496,
      "سياحت ": 8497,
      "اهو ئي سبب ": 8498,
      "نسخو ": 8499,
      "\" مون ": 8500,
      "ud": 8501,
      "ری": 8502,
      "زائي ": 8503,
      "ف ال": 8504,
      "نوي": 8505,
      "انعام ": 8506,
      "تعرف": 8507,
      "ڪوڙ": 8508,
      "انهن ۾ ": 8509,
      "احد ": 8510,
      "چوٿ": 8511,
      "لکين ": 8512,
      "؟ (": 8513,
      "وساري ": 8514,
      "زماني ۾ ": 8515,
      "دستاويز ": 8516,
      "witter": 8517,
      "جدوجهد ": 8518,
      "ڌاتو ": 8519,
      "ڏهه ": 8520,
      "کولي ": 8521,
      "ڪشا": 8522,
      "ار.\n": 8523,
      "ار، ": 8524,
      "ماش": 8525,
      " مق": 8526,
      "۽ اوھ": 8527,
      "محتر": 8528,
      "مارجي و": 8529,
      "تمام سٺو ": 8530,
      "فلٽر ": 8531,
      "مهربان": 8532,
      "تيز رفتار ": 8533,
      "ڪيون و": 8534,
      "تخليقي ": 8535,
      " ڪلاڪ ": 8536,
      "ترجيح ": 8537,
      "فلسفي ": 8538,
      "ابتدائي ": 8539,
      " '": 8540,
      " ؟!\n": 8541,
      "HT": 8542,
      "بيڪ ا": 8543,
      "سستي ": 8544,
      "يهو": 8545,
      "ويٺ": 8546,
      "ٻئي طرف ": 8547,
      "رهي ٿو.\n": 8548,
      "حرڪت ": 8549,
      "بن کي ": 8550,
      "خانو ": 8551,
      "خشڪ ": 8552,
      "ود": 8553,
      "ٻوٽ": 8554,
      "نه ٿيو ": 8555,
      "يون و": 8556,
      "ويجھ": 8557,
      "تعالي ": 8558,
      " ايئر ": 8559,
      "يون،\n": 8560,
      "ڪجهه ڏينهن ": 8561,
      "وٽ ا": 8562,
      "ڊرائيور ": 8563,
      "شڪست ": 8564,
      "هذه ": 8565,
      "حيات": 8566,
      "ڪرڻو پوندو.\n": 8567,
      "لڳ ڀڳ ": 8568,
      "صدين ": 8569,
      "قياد": 8570,
      "می": 8571,
      "ڀڳ": 8572,
      "کل ": 8573,
      "کسي ": 8574,
      "ڪٽ ": 8575,
      "ارك": 8576,
      "ڻ يا ": 8577,
      "ڪرپ": 8578,
      "تي ڌيان ": 8579,
      "ريز ": 8580,
      "ياسين ": 8581,
      "ستگي ": 8582,
      "هيءُ": 8583,
      "مرضي ": 8584,
      "آهي، جيڪا ": 8585,
      "مدت ": 8586,
      "اھا ": 8587,
      "خبر آهي ته ": 8588,
      "ان کان پوءِ ": 8589,
      "قرآ": 8590,
      "جوڙجڪ ": 8591,
      "سوسيئي": 8592,
      "تِ": 8593,
      "عيو": 8594,
      "مرو": 8595,
      "پی": 8596,
      "ٿڌو ": 8597,
      "نده ": 8598,
      "انك ": 8599,
      "ريگ": 8600,
      "گهڙ": 8601,
      "نظر ۾ ": 8602,
      " ايس ": 8603,
      "str": 8604,
      "اتل ": 8605,
      "عمل کي ": 8606,
      "ٿئي ٿو ته ": 8607,
      "موقع": 8608,
      "ڻ کان پوءِ ": 8609,
      "مقابلي ": 8610,
      "ڪريو!\n": 8611,
      "پراڊڪٽ ": 8612,
      " لاءِ ": 8613,
      "What": 8614,
      "مٽي ": 8615,
      "نيڪ ": 8616,
      "هت": 8617,
      "ين ته ": 8618,
      "الڳ ": 8619,
      "وري\n": 8620,
      "ليگ ": 8621,
      "ام\n": 8622,
      "پوندي.\n": 8623,
      "پوائنٽ ": 8624,
      "يونٽ ": 8625,
      "اها هڪ ": 8626,
      "ووو": 8627,
      "خاصيت ": 8628,
      "فائد": 8629,
      "يندا هئا.\n": 8630,
      "فارسي ": 8631,
      "اهم شي ": 8632,
      "ort": 8633,
      "ننڍن ": 8634,
      "ميوزڪ ": 8635,
      "شروعات ۾ ": 8636,
      "طلع ": 8637,
      "قبل جي ": 8638,
      "عقل ": 8639,
      "دروازو ": 8640,
      " G": 8641,
      "اون": 8642,
      "كتير ": 8643,
      "لائي ": 8644,
      "لهم ": 8645,
      "نهن کي ": 8646,
      "ڪرڻ جا ": 8647,
      "منا ": 8648,
      "سي، ": 8649,
      "برو ": 8650,
      "ديگه ": 8651,
      "سرچ": 8652,
      "ڪيترين ": 8653,
      "پهت": 8654,
      " اسان جو ": 8655,
      "رسول": 8656,
      "اختلا": 8657,
      "نكت ": 8658,
      "۾ اسان جي ": 8659,
      "over": 8660,
      "بن ۾ ": 8661,
      "شڪل": 8662,
      "صاد": 8663,
      "ظال": 8664,
      "ٿيو\n": 8665,
      "ژه ": 8666,
      "بير": 8667,
      "سٽور": 8668,
      "قيمت جي ": 8669,
      "ڪارڻ ": 8670,
      "شن ۽ ": 8671,
      "يعطي": 8672,
      "پلان": 8673,
      "بچائڻ ": 8674,
      "ڇوڪرو ": 8675,
      "ڪلاس ": 8676,
      "خانداني ": 8677,
      "67": 8678,
      "ا،\n": 8679,
      "ايندي ": 8680,
      "حنا ": 8681,
      "دوا": 8682,
      "واپار": 8683,
      "روڊ": 8684,
      "هوڏانهن ": 8685,
      "پياري ": 8686,
      "وارن کي ": 8687,
      "يءَ کان ": 8688,
      "ميني": 8689,
      "ess ": 8690,
      "ڪري سگهو ٿا": 8691,
      "out": 8692,
      "راحه ": 8693,
      "ــــــــــــــــــ": 8694,
      "ته، \"": 8695,
      "حياتي": 8696,
      "\" ۾ ": 8697,
      "رٿ": 8698,
      "سڪس ": 8699,
      "عالي ": 8700,
      "گوار ": 8701,
      "جي ٿو ": 8702,
      "ندي، ": 8703,
      "، جيئن ": 8704,
      "اليڪشن ": 8705,
      "۽ نه ": 8706,
      "هي هڪ ": 8707,
      "ري جو ": 8708,
      "، اي ": 8709,
      "وڌائ": 8710,
      "نيت ": 8711,
      "طريقن سان ": 8712,
      "هجڻ جي ": 8713,
      "نامو ": 8714,
      "عوام کي ": 8715,
      "آپريٽنگ": 8716,
      "ڻو پوندو.\n": 8717,
      "آگسٽ ": 8718,
      "اور": 8719,
      "بَ": 8720,
      "رح ": 8721,
      "عمو": 8722,
      "لسٽ": 8723,
      "نچ": 8724,
      "وم": 8725,
      "ڊسمبر ": 8726,
      "ان ڏينهن ": 8727,
      "س (": 8728,
      ": ههههههههههه ": 8729,
      "اسان هڪ ": 8730,
      "منجھ": 8731,
      "هرڪو ": 8732,
      "تياري ": 8733,
      "گڏ ڪ": 8734,
      " ۾)": 8735,
      "شامل آهي.\n": 8736,
      "تنھن ": 8737,
      "اعظ": 8738,
      "سينٽر ": 8739,
      "ترقي يافته ": 8740,
      "ٻنهي طرف": 8741,
      "نظام جي ": 8742,
      "آهيان ته ": 8743,
      "گھرجي.\n": 8744,
      "عشق": 8745,
      "باوجو": 8746,
      "طبقي ": 8747,
      "چيئرمين ": 8748,
      "سيڪريٽري ": 8749,
      "اٿي ": 8750,
      "كتب": 8751,
      " ار": 8752,
      "يوي": 8753,
      "آهي، ته ": 8754,
      "ختم ٿي و": 8755,
      "ٿيل آهي.\n": 8756,
      "قابليت ": 8757,
      "همين ": 8758,
      "صاحب جي ": 8759,
      "استاد": 8760,
      "عورتن کي ": 8761,
      "گهڻيون ": 8762,
      "به\n": 8763,
      "قبر": 8764,
      "لئ": 8765,
      "لی": 8766,
      "ڪئي": 8767,
      "ا آهن.\n": 8768,
      "يو؟\n": 8769,
      "ريز": 8770,
      "گهڙي ": 8771,
      "يندس.\n": 8772,
      "ار ۾ ": 8773,
      "منفي ": 8774,
      "پر هن ": 8775,
      "سيمب": 8776,
      "سيپٽمبر ": 8777,
      "سٽال ": 8778,
      "پرواز ": 8779,
      "مطمئن ": 8780,
      "لائبري": 8781,
      "ard": 8782,
      "ماڻهن سان ": 8783,
      "act": 8784,
      "گھرجي ": 8785,
      "چئلين": 8786,
      "سطح تي ": 8787,
      "عبادت ": 8788,
      "ڀروسو ": 8789,
      " ش": 8790,
      "Twitter": 8791,
      "بک ": 8792,
      "بس\n": 8793,
      "طف": 8794,
      "نسي": 8795,
      "واه": 8796,
      "يز": 8797,
      "ڌن": 8798,
      " اپريل ": 8799,
      "ڪريم ": 8800,
      "وره ": 8801,
      "گهو": 8802,
      "اسپي": 8803,
      "ڪيڏو ": 8804,
      "برنامه ": 8805,
      "مرا ": 8806,
      "ٻڌائڻ ": 8807,
      "چوٿين ": 8808,
      "ڪندا آهيون.\n": 8809,
      "ٻارڙ": 8810,
      " موڪل": 8811,
      "يادگار ": 8812,
      "جائز ": 8813,
      "پابند ": 8814,
      "gr": 8815,
      "our": 8816,
      "بتي ": 8817,
      "تــ": 8818,
      "دت ": 8819,
      "ده\n": 8820,
      "سيون ": 8821,
      "سور ": 8822,
      "سر جي ": 8823,
      "هع ": 8824,
      "چپ": 8825,
      "ھه ": 8826,
      "ماڳ": 8827,
      "پوندي ": 8828,
      "هيلو ": 8829,
      "مون پنهنجي ": 8830,
      "جاد ": 8831,
      "على": 8832,
      "علان ": 8833,
      "احمد ": 8834,
      "يون: ": 8835,
      "ڊيم ": 8836,
      "زيد ": 8837,
      "متان ": 8838,
      " هين ": 8839,
      "ڪرڻ چاهيو ": 8840,
      "برطانوي ": 8841,
      "آپشن ": 8842,
      "دهشتگر": 8843,
      "ڪانفرنس ": 8844,
      "ight": 8845,
      "عرصو ": 8846,
      "لاڙڪا": 8847,
      "ian": 8848,
      "p ": 8849,
      "s.\n": 8850,
      "ئ ": 8851,
      "زياد": 8852,
      "قد ": 8853,
      "لـ": 8854,
      "هائي ": 8855,
      "و ، ": 8856,
      "اهڙيءَ ": 8857,
      "ترڪي": 8858,
      "نگر ": 8859,
      "ماڻھن ": 8860,
      "نظرات ": 8861,
      "ڻ جي قابل ": 8862,
      "چيائين ": 8863,
      "کانئس ": 8864,
      "قلم ": 8865,
      "پئسو ": 8866,
      "پيام": 8867,
      "سکيا ": 8868,
      "انگريز": 8869,
      " انهن کي ": 8870,
      "تخليق": 8871,
      "ech": 8872,
      "آ، ": 8873,
      "آڊيو ": 8874,
      "نڪي ": 8875,
      "وان ": 8876,
      "ن ٿا": 8877,
      "آهي \"": 8878,
      "امڪ": 8879,
      "ويٺل ": 8880,
      "محن": 8881,
      "ڏين.\n": 8882,
      "آهي، جنهن ": 8883,
      "پنڌ ": 8884,
      "چولي ": 8885,
      "پروڊڪٽ": 8886,
      "ندا آهن ": 8887,
      "تنهنجا ": 8888,
      "تنهن هوندي به": 8889,
      "يقينا": 8890,
      "پبلڪ ": 8891,
      "اعليٰ ": 8892,
      "رهنمائي ": 8893,
      "ok": 8894,
      "اق ": 8895,
      "تنگ ": 8896,
      "دائي ": 8897,
      "رسم": 8898,
      "عرو": 8899,
      "وص": 8900,
      "يد": 8901,
      "ڪانگري": 8902,
      "ن (": 8903,
      "به آهي.\n": 8904,
      "جيءَ ": 8905,
      "تاث": 8906,
      "عمارت ": 8907,
      "زندگي گذار": 8908,
      "ڪيو وڃي ": 8909,
      " سنڌ": 8910,
      "وڪيپيڊيا\n": 8911,
      "نشاندهي ": 8912,
      "# ": 8913,
      "New": 8914,
      "TE": 8915,
      "dr": 8916,
      "und": 8917,
      "كلام ": 8918,
      "چور ": 8919,
      "کوٽ": 8920,
      "ڳتي ": 8921,
      "منھنجو ": 8922,
      "سوچيو ته ": 8923,
      "وارث": 8924,
      "پناه": 8925,
      "پهرئين ": 8926,
      "طرح توجيهي ": 8927,
      "اقتصادي ": 8928,
      "ڪريڊٽ ": 8929,
      "دور جي ": 8930,
      "صفحو ": 8931,
      "ڏوهه ": 8932,
      "خارج ": 8933,
      "حضور ": 8934,
      "رجحان ": 8935,
      "چڪاس ": 8936,
      " ته ": 8937,
      "400": 8938,
      "ff": 8939,
      "i\n": 8940,
      "اڙي ": 8941,
      "بي و": 8942,
      "سڳ": 8943,
      "سلو": 8944,
      "ظلم ": 8945,
      "مز ": 8946,
      "ويندي ": 8947,
      "ڪڻ": 8948,
      "ڪرڻ يا ": 8949,
      "ڪنداسين ": 8950,
      "ناڪام": 8951,
      "گھڻ": 8952,
      "ٿيل": 8953,
      "ڊيل": 8954,
      "فائون": 8955,
      "اهڙي طرح ": 8956,
      "گهٽتائي ": 8957,
      "دريا": 8958,
      "زندگيءَ جو ": 8959,
      "ـــــــــــــــــ": 8960,
      "بنات ": 8961,
      "خوفناڪ ": 8962,
      "آغاز ": 8963,
      "نوٽيس ": 8964,
      " P": 8965,
      "Bl": 8966,
      "اپيل ": 8967,
      "بگ": 8968,
      "تان": 8969,
      "غذا ": 8970,
      "ٽور": 8971,
      "پائڻ ": 8972,
      "آهي اهو ": 8973,
      "ڪيلو ": 8974,
      "يون ٿا.\n": 8975,
      "ستاني ": 8976,
      " سيا": 8977,
      "، اسين ": 8978,
      "جون": 8979,
      "جوئي": 8980,
      "جهنگ": 8981,
      "تمام ا": 8982,
      "ن کان وڌيڪ ": 8983,
      "نظر اچ": 8984,
      "سائيڪ": 8985,
      "بين ال": 8986,
      "ٻار جي ": 8987,
      "ايڪس ": 8988,
      "حساب": 8989,
      "اعليٰ": 8990,
      "IN": 8991,
      "].\n": 8992,
      "فدي": 8993,
      "قبي": 8994,
      "نس جي ": 8995,
      "هنگ": 8996,
      "ڪڏھن ": 8997,
      "ن ڏانهن ": 8998,
      "و يا ": 8999,
      "لاڳ": 9000,
      "لاڪ ": 9001,
      "سامونڊي ": 9002,
      "برانڊ": 9003,
      "جا، ": 9004,
      "تازي ": 9005,
      "بندوب": 9006,
      "ڪيا ويا آهن.\n": 9007,
      "شئي ": 9008,
      "شير": 9009,
      "فاس": 9010,
      "پيا.\n": 9011,
      "ان بابت ": 9012,
      "ا ۾ ": 9013,
      " الا": 9014,
      "ڪراچ": 9015,
      "موسم": 9016,
      "ستاد ": 9017,
      "ڪوٺ": 9018,
      "آهي ته اهي ": 9019,
      "داش": 9020,
      "ن جو هڪ ": 9021,
      "ڪئي ۽ ": 9022,
      "فائدي ": 9023,
      "سڀني جي ": 9024,
      "تنا ": 9025,
      "مدد سان ": 9026,
      "قلبي ": 9027,
      "پراڻو ": 9028,
      "اکين ": 9029,
      " انهن جي ": 9030,
      "ڪهاڻيون ": 9031,
      " m": 9032,
      " ع ۾ ": 9033,
      "اذ": 9034,
      "بب": 9035,
      "دك": 9036,
      "رِ": 9037,
      "فك": 9038,
      "ڍي ": 9039,
      "ن واري ": 9040,
      "، جيڪا ": 9041,
      "ڻ نه ": 9042,
      "منعقد ": 9043,
      "هوندو": 9044,
      "وڃي ٿو.\n": 9045,
      "سندس چوڻ هو ته ": 9046,
      "ووٽ ": 9047,
      "صفحا": 9048,
      "پهچائ": 9049,
      "نامز": 9050,
      "ڪٽن": 9051,
      "حيرت انگي": 9052,
      "پُڇ": 9053,
      "ive ": 9054,
      "جمهوريت ": 9055,
      ", جي ": 9056,
      "An": 9057,
      "جشن ": 9058,
      "حك": 9059,
      "سڪو": 9060,
      "سپل": 9061,
      "عب": 9062,
      "فاص": 9063,
      "لڏ": 9064,
      "مم ": 9065,
      "وڇ": 9066,
      "ڀٽو ": 9067,
      "ڪتي ": 9068,
      " ادا ": 9069,
      "ندي\n": 9070,
      "لا\n": 9071,
      "ي وي ": 9072,
      "برگ": 9073,
      "گرمين ": 9074,
      "جڏهن اسان ": 9075,
      "قوت ": 9076,
      "190": 9077,
      "ڪئي ته ": 9078,
      "وڏي پيماني تي ": 9079,
      "پلس ": 9080,
      "گيٽ ": 9081,
      "سائن ": 9082,
      "طريقيڪار ": 9083,
      "سينو ": 9084,
      "هڪ اهڙي ": 9085,
      "چون ٿا ته ": 9086,
      "پيام خصوصي ": 9087,
      "مشغول ": 9088,
      "ne": 9089,
      "ph": 9090,
      "غم ": 9091,
      "نٽ": 9092,
      "هٿي": 9093,
      "ارت جي ": 9094,
      "، نه ": 9095,
      "، پنهنجي ": 9096,
      "کان سواء": 9097,
      "هوم ": 9098,
      "رهجي و": 9099,
      "معذ": 9100,
      "شوف ": 9101,
      "سمجهاڻ": 9102,
      "دير سان ": 9103,
      "بجلي جي ": 9104,
      "ڪاليج ": 9105,
      "پيداو": 9106,
      "پيپلز ": 9107,
      "\"مون کي ": 9108,
      "ww": 9109,
      "آڱ": 9110,
      "بون ": 9111,
      "خلو": 9112,
      "نھ ": 9113,
      "هع\n": 9114,
      "ٽڪ": 9115,
      "ڪث": 9116,
      "ڪٿان ": 9117,
      "گير ": 9118,
      " اد": 9119,
      "پيڊيا ": 9120,
      "ملڪن جي ": 9121,
      "نوڪر": 9122,
      "پرور": 9123,
      "عات ": 9124,
      "تقرير ": 9125,
      "سختي ": 9126,
      "صنعت ۾ ": 9127,
      "oun": 9128,
      "جنگ جي ": 9129,
      "رازداري ": 9130,
      "L ": 9131,
      "تواز": 9132,
      "شمار": 9133,
      "مها ": 9134,
      "نِ ": 9135,
      "، جيڪڏهن ": 9136,
      "هڪ خاص ": 9137,
      "جوڙي ": 9138,
      "قيمتون ": 9139,
      "وارين ": 9140,
      "سنڏ": 9141,
      "پي اي": 9142,
      "بحر": 9143,
      "خاص ڪري ": 9144,
      " (۽": 9145,
      "از م": 9146,
      "اخر ": 9147,
      "ous ": 9148,
      "آفيسر": 9149,
      "چانهه ": 9150,
      "ڪاوڙ": 9151,
      "جاپاني ": 9152,
      "Whats": 9153,
      "رمض": 9154,
      "عجب ": 9155,
      "فتح": 9156,
      "مجھ": 9157,
      "ه!\n": 9158,
      "آهيو، ": 9159,
      "تي منحصر ": 9160,
      "۽ وڌيڪ ": 9161,
      "اهڙيون ": 9162,
      "سان تعلق ": 9163,
      "واشنگ": 9164,
      "ويٺا ": 9165,
      "بيشڪ": 9166,
      "ڪوڊ": 9167,
      "ائيءَ ": 9168,
      "خواهي ": 9169,
      "ٿو:\n": 9170,
      "حالتن ": 9171,
      "صفا ": 9172,
      "وٽان ": 9173,
      "مستقبل جي ": 9174,
      "نيويار": 9175,
      "ڪجهه م": 9176,
      "ويجهي ": 9177,
      "موبائيل ": 9178,
      "خانگي ": 9179,
      "سئو ": 9180,
      "فطرت ": 9181,
      "ڳالهه اها ": 9182,
      "كثير ": 9183,
      " [.": 9184,
      "Tr": 9185,
      "bo": 9186,
      "آب ": 9187,
      "أأ": 9188,
      "عيت ": 9189,
      "مشا": 9190,
      "مليل ": 9191,
      "پگه": 9192,
      "چڪر ": 9193,
      "چنڊ": 9194,
      "ڌاري ": 9195,
      "انصاف ": 9196,
      "اريون ": 9197,
      "ماسڪ ": 9198,
      "ويب": 9199,
      "منط": 9200,
      "وڌو ": 9201,
      "دروازي ": 9202,
      "ٿا ۽ ": 9203,
      "تيئن ": 9204,
      "بوٽ ": 9205,
      "سربرا": 9206,
      "ٻئي ڏينهن ": 9207,
      "هوندي هئي.\n": 9208,
      "بلاڪ ": 9209,
      "حفاظتي ": 9210,
      "فضيل": 9211,
      "شام جو ": 9212,
      "معتبر ": 9213,
      "د:\n": 9214,
      "زرا": 9215,
      "سست ": 9216,
      "عبر": 9217,
      "هاري ": 9218,
      "هم\n": 9219,
      "وگڏ": 9220,
      "هه.\n": 9221,
      "گهرا": 9222,
      "ليزر ": 9223,
      "ڪري رهي ": 9224,
      " ڪم": 9225,
      "ويٺي ": 9226,
      "ٿي رهي ": 9227,
      "ڪارا ": 9228,
      "پ جو ": 9229,
      "ڪنهن جو ": 9230,
      "هن\n": 9231,
      "پي جي ": 9232,
      "مزا": 9233,
      "بندر": 9234,
      "زندگيءَ ۾ ": 9235,
      " ؟؟؟\n": 9236,
      "وحيد ": 9237,
      "آئر": 9238,
      "ة: ": 9239,
      "دڪ": 9240,
      "نڪري و": 9241,
      "يت جي ": 9242,
      "ٿر ": 9243,
      "ندو، ": 9244,
      "ورلڊ ": 9245,
      "آهي - ": 9246,
      "هاء": 9247,
      "داشت": 9248,
      "يونين ": 9249,
      "هڪدم ": 9250,
      "چيائين": 9251,
      "علاوه": 9252,
      "لفظن ۾ ": 9253,
      "عمران ": 9254,
      " ^^\n": 9255,
      "جائزو وٺ": 9256,
      "ock": 9257,
      "نيٽورڪ ": 9258,
      "اتحاد ": 9259,
      "پائيدار ": 9260,
      "urnam": 9261,
      "aj": 9262,
      "£ ": 9263,
      "بيڪ": 9264,
      "جڙيل ": 9265,
      "شته": 9266,
      "فى ": 9267,
      "نمبر": 9268,
      "ڪلي": 9269,
      "لاي": 9270,
      "ورث": 9271,
      "ريه ": 9272,
      "ماءُ جي ": 9273,
      "ڪيم ": 9274,
      " سلا": 9275,
      "معي": 9276,
      "آهن پر ": 9277,
      " انقلا": 9278,
      "سرڪار ": 9279,
      "لا ت": 9280,
      "مون کي هڪ ": 9281,
      "جڏهن اهو ": 9282,
      "قوم جي ": 9283,
      "anc": 9284,
      "اعتبار ": 9285,
      "حقن جي ": 9286,
      "گريجوئي": 9287,
      "آهيان ۽ ": 9288,
      "، انهن جي ": 9289,
      "سوراخ": 9290,
      "ويب سائيٽ جي ": 9291,
      "جواب: ": 9292,
      "پيام خصوصي به ": 9293,
      "AS": 9294,
      "بڇ": 9295,
      "غر": 9296,
      "كم ا": 9297,
      "لمي": 9298,
      "وم ": 9299,
      "پکي ": 9300,
      "ڇهن ": 9301,
      "ڊا": 9302,
      "ڏند": 9303,
      "ڦي": 9304,
      "ن ٿيون ": 9305,
      "هوش": 9306,
      "ڪي ۾ ": 9307,
      "ڊيسڪ": 9308,
      "مهمان ": 9309,
      "ate ": 9310,
      "تخب ": 9311,
      "لحاظ ": 9312,
      "ڊيزائن ": 9313,
      "عارضي ": 9314,
      "earch": 9315,
      "تى ": 9316,
      "جبل": 9317,
      "ظاھر ": 9318,
      "هري ": 9319,
      "پڇا": 9320,
      "چاچ": 9321,
      "ڇان": 9322,
      ". com": 9323,
      "آهي جنهن ۾ ": 9324,
      "هڪ نئون ": 9325,
      "براه": 9326,
      "ڪم ڪندو ": 9327,
      "احساس": 9328,
      "گراف": 9329,
      "متفق ": 9330,
      "نظر ا": 9331,
      "اضافو ": 9332,
      "مرادو ": 9333,
      "حيثيت ۾ ": 9334,
      "گنجائش ": 9335,
      "آيو، ": 9336,
      "حه ": 9337,
      "رخ ": 9338,
      "كون ": 9339,
      "كم ال": 9340,
      "نز": 9341,
      "ٽن کي ": 9342,
      "انڌ": 9343,
      "تي ٻڌل ": 9344,
      "آهي ته": 9345,
      "اسرائ": 9346,
      "هو ، ": 9347,
      "اوهين ": 9348,
      "ڪم ڪرڻ ": 9349,
      "ٽيگ": 9350,
      "چيست؟\n": 9351,
      "پارڪ ": 9352,
      "هلندو ": 9353,
      "هيٺيون ": 9354,
      "يقول": 9355,
      "ٿي سگهي ٿو ته ": 9356,
      "پيشه ": 9357,
      "هوندي به ": 9358,
      "پھري": 9359,
      "ڪريون ٿا.\n": 9360,
      "متحده ": 9361,
      "جريان ": 9362,
      "سان ڳنڍيل ": 9363,
      "فائونڊي": 9364,
      "47": 9365,
      "AN": 9366,
      "ah": 9367,
      "سخت": 9368,
      "صدر": 9369,
      "چيو\n": 9370,
      "۾ مدد ": 9371,
      "آهي ڇاڪاڻ ته ": 9372,
      "هو، پر ": 9373,
      "ستن ": 9374,
      "مان به ": 9375,
      "معي ": 9376,
      "سيد": 9377,
      "لوڊ": 9378,
      "واري و": 9379,
      "تاز": 9380,
      "وڃ ": 9381,
      "استعمال": 9382,
      "شي جي ": 9383,
      "ڏسو ته ": 9384,
      "سينٽ ": 9385,
      "ولا يهم": 9386,
      "بس ال": 9387,
      "ڪائونسل ": 9388,
      "رستي تي ": 9389,
      " آهي.\n": 9390,
      "ئل ": 9391,
      "بدي ": 9392,
      "بلا ": 9393,
      "تور": 9394,
      "ٿئي": 9395,
      "ان شاء": 9396,
      "اري\n": 9397,
      "۽ هن ": 9398,
      "ي سندس ": 9399,
      "نازڪ ": 9400,
      "فات ": 9401,
      "سالگر": 9402,
      "اعز": 9403,
      "پڙهندڙ": 9404,
      "تصوير": 9405,
      "فورم ": 9406,
      "سهڻي ": 9407,
      "ڪجهه ا": 9408,
      "crypto": 9409,
      "اتفاق ": 9410,
      "صفحا\n": 9411,
      "تِ ": 9412,
      "تبي ": 9413,
      "س!\n": 9414,
      "سگن": 9415,
      "سهڪار ": 9416,
      "كـ": 9417,
      "ڀرو ": 9418,
      "، آئون ": 9419,
      "هڪ تمام ": 9420,
      "کان ئي ": 9421,
      "يندو\n": 9422,
      "ائين ئي ": 9423,
      "اونه": 9424,
      "ك يا": 9425,
      "محق": 9426,
      "ههههههههههههههه": 9427,
      "ڏسڻ ۾ ": 9428,
      "پئجي ": 9429,
      "ass": 9430,
      "تحريڪ ": 9431,
      " فيبروري ": 9432,
      "\"پر ": 9433,
      "120": 9434,
      "mm": 9435,
      "o\n": 9436,
      "داري": 9437,
      "نھ": 9438,
      "وڄ": 9439,
      "ڀلو ": 9440,
      "ڪ.\n": 9441,
      "انهي س": 9442,
      "اسان پنهنجي ": 9443,
      "برآمد ": 9444,
      "۽ اها ": 9445,
      "ڙي ۾ ": 9446,
      "نيه ": 9447,
      "گھڻا ": 9448,
      "- وڪيپيڊيا\n": 9449,
      "رکيو ": 9450,
      "استعمال ڪندي ": 9451,
      "ننڊ": 9452,
      "تصويري ": 9453,
      "ڪرڻ جو فيصلو ": 9454,
      "ملازم ": 9455,
      "نفس ": 9456,
      "قدرت ": 9457,
      "شاگردن کي ": 9458,
      " مشهور ": 9459,
      "معلومات جي ": 9460,
      "تبديليون ": 9461,
      " ڄڻا ": 9462,
      "اچ ": 9463,
      "تض": 9464,
      "م:": 9465,
      "جو چوڻ آهي ته ": 9466,
      "ي سبب ": 9467,
      "ڪير": 9468,
      "توهان هن ": 9469,
      "تعجب ": 9470,
      "ملي.\n": 9471,
      "سيل": 9472,
      "فون جي ": 9473,
      "سڀ کان وڏي ": 9474,
      "چونڊيل ": 9475,
      "هئا ۽ ": 9476,
      "ڻ لڳو.\n": 9477,
      "صدق": 9478,
      "حيثيت سان ": 9479,
      "طبعا ": 9480,
      "داستان ": 9481,
      "افتتا": 9482,
      "cur": 9483,
      "ies": 9484,
      "جت ": 9485,
      "ڀارت ": 9486,
      "ڪجي\n": 9487,
      " انهي ": 9488,
      "، جي ": 9489,
      "هن ريت ": 9490,
      "ڪر، ": 9491,
      "ايش": 9492,
      "ويز": 9493,
      "برچ": 9494,
      "ڪم نه ": 9495,
      "قولي ": 9496,
      "زيه ": 9497,
      "ننڍا ": 9498,
      "يم.\n": 9499,
      "مارڪيٽ جي ": 9500,
      "صنعت جي ": 9501,
      "است؟\n": 9502,
      "اثرائ": 9503,
      "شاگردن جي ": 9504,
      "ڊزائن ": 9505,
      "عادت ": 9506,
      " انٽرنيٽ ": 9507,
      "آسٽريليا ": 9508,
      "wor": 9509,
      "فئ": 9510,
      "ِ م": 9511,
      "ڪتو ": 9512,
      "لات": 9513,
      "يا وڃ": 9514,
      "ڪري ۽ ": 9515,
      "وڌ ۾ ": 9516,
      "ااا ": 9517,
      "دوم ": 9518,
      "ٽران": 9519,
      "ڏسڻ لاءِ ": 9520,
      "ائونڊ ": 9521,
      "تكون ": 9522,
      "قبضي ": 9523,
      "هن وقت تائين ": 9524,
      "پھچ": 9525,
      "عزيز ": 9526,
      " **": 9527,
      "))\n": 9528,
      "آي ": 9529,
      "تبا": 9530,
      "رسال ": 9531,
      "هرا": 9532,
      "وند": 9533,
      "يه": 9534,
      "يئي ": 9535,
      "َـ": 9536,
      "کنڊ": 9537,
      "يا هڪ ": 9538,
      "روپ ": 9539,
      "توا ": 9540,
      "توکان ": 9541,
      "ليد ": 9542,
      "هو جو ": 9543,
      "ڪندس.\n": 9544,
      "هر روز ": 9545,
      "گرين ": 9546,
      " انتهائي ": 9547,
      "پرچ": 9548,
      "رکڻ جي ": 9549,
      "ڏنو آهي.\n": 9550,
      "صفائي ": 9551,
      "اکين ۾ ": 9552,
      "شهز": 9553,
      "شڪايت ": 9554,
      "قيام ": 9555,
      "دشمن": 9556,
      "ٿي چڪو آهي.\n": 9557,
      "وڪڻ": 9558,
      "طوفان ": 9559,
      "مداخلت ": 9560,
      ") ڪ": 9561,
      "إن ": 9562,
      "لي و": 9563,
      "ڄاڻو ": 9564,
      "ائي و": 9565,
      "به ته ": 9566,
      "مان سمجهان ٿو ته ": 9567,
      "رهندڙ ": 9568,
      "منز": 9569,
      "باح": 9570,
      "- B": 9571,
      "محروم ": 9572,
      "درد": 9573,
      "ٿي ويندو.\n": 9574,
      "ٿيندا.\n": 9575,
      "سالن تائين ": 9576,
      "کان\n": 9577,
      "لينڊ ۾ ": 9578,
      "تقريبا": 9579,
      "داخل ٿيڻ ": 9580,
      "سفر جي ": 9581,
      "جيئرو ": 9582,
      "هيهيهيهي": 9583,
      " ~": 9584,
      "IS": 9585,
      "PS": 9586,
      "Sindh": 9587,
      "ible ": 9588,
      "بيني ": 9589,
      "جج": 9590,
      "شوي": 9591,
      "صير ": 9592,
      "طل ": 9593,
      "لآ ": 9594,
      "هــ": 9595,
      "وأ": 9596,
      "ٽرا": 9597,
      "چَ": 9598,
      "ندڙن ": 9599,
      "جو اهو ": 9600,
      "ري، ": 9601,
      "ڪيلي": 9602,
      "آهيان\n": 9603,
      "پويون ": 9604,
      ": ههههه ": 9605,
      " الڳ ": 9606,
      "ڻي جي ": 9607,
      "ي سگهي ": 9608,
      "وري به ": 9609,
      "عليه\n": 9610,
      "ڪرڻ جي لاءِ ": 9611,
      "هلندي ": 9612,
      "ens": 9613,
      "جلس ": 9614,
      " ((": 9615,
      "مطلب آهي ته ": 9616,
      "هوندا آهن ": 9617,
      "خواهش": 9618,
      "Previ": 9619,
      "able ": 9620,
      "،XNUMX": 9621,
      "حح": 9622,
      "رڙ": 9623,
      "رڪار": 9624,
      "زهر ": 9625,
      "سح": 9626,
      "مفيد ": 9627,
      "ُن ": 9628,
      "ن سان گڏ ": 9629,
      "نداسين ": 9630,
      "کي تبديل ": 9631,
      "نه وڃ": 9632,
      "ميري ": 9633,
      "ميشن ": 9634,
      "پيارو ": 9635,
      " سي ": 9636,
      "نظارو": 9637,
      "۾ انهن ": 9638,
      "به.\n": 9639,
      "چوي ": 9640,
      "بڻائڻ ": 9641,
      "سنڌي س": 9642,
      "ستان ۾ ": 9643,
      "گرافي ": 9644,
      "سياست": 9645,
      "تعليم جي ": 9646,
      "پئي ته ": 9647,
      "فعل ": 9648,
      "پکڙيل ": 9649,
      "ٿيندا آهن.\n": 9650,
      "درجه بندي ": 9651,
      "85": 9652,
      "حيو": 9653,
      "ز.\n": 9654,
      "قبر ": 9655,
      "مكن ": 9656,
      "َ.\n": 9657,
      "پيون ": 9658,
      "چاند": 9659,
      "ڏهين ": 9660,
      "کړ": 9661,
      "ھد": 9662,
      "نهي": 9663,
      "تون، ": 9664,
      "ڪيڏانهن ": 9665,
      " جي طرف ": 9666,
      "ڪرڻ ، ": 9667,
      "پيپر ": 9668,
      "پيارا ": 9669,
      "پول ": 9670,
      "هيس.\n": 9671,
      "جا ٻه ": 9672,
      "نازل ": 9673,
      "ڪي جي ": 9674,
      "ڪرڻ جي ڪوشش ڪ": 9675,
      "لکڻ جي ": 9676,
      " <<<": 9677,
      "توانائي جي ": 9678,
      "سيريز ": 9679,
      "بندوبست ": 9680,
      "Re": 9681,
      "جاني ": 9682,
      "جنو": 9683,
      "عم ": 9684,
      "قال ": 9685,
      "وسر": 9686,
      "گاهي ": 9687,
      " اير": 9688,
      "ند.\n": 9689,
      "انين ": 9690,
      "يوس": 9691,
      "ڪرڪيٽ ": 9692,
      "لازم": 9693,
      "راڄ": 9694,
      "ي سائ": 9695,
      "اسمارٽ ": 9696,
      "موڙ": 9697,
      "بيحد ": 9698,
      "جوڙو ": 9699,
      "جا\n": 9700,
      "۾ اها ": 9701,
      "سرگرمي ": 9702,
      "ٿي ويندي.\n": 9703,
      "لڳو.\n": 9704,
      "ياد رهي ته ": 9705,
      "ڪندا آهيون ": 9706,
      "ڪرڻ لاء.\n": 9707,
      "رياست جي ": 9708,
      "خوشگوار ": 9709,
      "جان س": 9710,
      "۽ اسان کي ": 9711,
      "خبردار ": 9712,
      "اڳواڻ": 9713,
      "چينل ": 9714,
      "جيتوڻيڪ اهو ": 9715,
      "Ex": 9716,
      "O ": 9717,
      "a\n": 9718,
      "جع": 9719,
      "شمو": 9720,
      "ل ان": 9721,
      "مفا": 9722,
      "هانگ": 9723,
      "وب ": 9724,
      "ان ال": 9725,
      "جو پهريون ": 9726,
      "واحد": 9727,
      "ڪري ، ": 9728,
      "استعمال ڪندڙ": 9729,
      "حالان": 9730,
      "شكلك ": 9731,
      "كل ال": 9732,
      "نٿو سگه": 9733,
      "سائيٽ تي ": 9734,
      "ڪري ٿو ۽ ": 9735,
      "چرچ ": 9736,
      "راحي ": 9737,
      "88": 9738,
      ": اهو ": 9739,
      "تضحك": 9740,
      "جرا": 9741,
      "دستي ": 9742,
      "فل ": 9743,
      "كت ": 9744,
      "نٽي ": 9745,
      "يقول ": 9746,
      "هڪ بهترين ": 9747,
      "هوسٽ": 9748,
      "پيٽر": 9749,
      "ويت ": 9750,
      "باز ": 9751,
      "\" کي ": 9752,
      "بلين ": 9753,
      "پئماني تي ": 9754,
      "ish": 9755,
      "پاڻمرادو ": 9756,
      "ـــــــــــــــــــ": 9757,
      "ڪمپنين ": 9758,
      "مڪاني ": 9759,
      "ڪميٽي ": 9760,
      "اٽڪل ": 9761,
      " جولاءِ ": 9762,
      "بايد ": 9763,
      "Bit": 9764,
      "اڀ": 9765,
      "س ال": 9766,
      "نب": 9767,
      "ڀٽ": 9768,
      "۾ آهي.\n": 9769,
      "لاهي ": 9770,
      "اهمي": 9771,
      "ماجي ": 9772,
      "ميز ": 9773,
      "ور ۾ ": 9774,
      "امر ": 9775,
      "سيٽ": 9776,
      "باڪ": 9777,
      "ناز": 9778,
      "ناظ": 9779,
      "نيست ": 9780,
      "۾ اهي ": 9781,
      "مشورو ": 9782,
      "وڃي ٿو ": 9783,
      "من ۽ ": 9784,
      "عرض": 9785,
      "يا ويا.\n": 9786,
      "بينڪ اڪائونٽ کول": 9787,
      "اسٽري": 9788,
      "اخبار": 9789,
      "آهن، جيڪي ": 9790,
      "جسم ۾ ": 9791,
      "ڪرڻ چاهيندا ": 9792,
      "فرانس ": 9793,
      "چورس ": 9794,
      "اگه ": 9795,
      "بيا ": 9796,
      "بحال": 9797,
      "جنهن": 9798,
      "حرام ": 9799,
      "شيءَ ": 9800,
      "ظل": 9801,
      "ٻوڏ": 9802,
      "ارتق": 9803,
      "، ڇاڪاڻ ته ": 9804,
      "الب": 9805,
      "ماسٽر ": 9806,
      " مسا": 9807,
      "ڪيبل ": 9808,
      "جيت ": 9809,
      "وله ": 9810,
      "اوڀر ": 9811,
      "طور استعمال ": 9812,
      "نيب ": 9813,
      "تاثر ": 9814,
      "پری": 9815,
      "ٽر\n": 9816,
      "لڳائڻ ": 9817,
      "لڳندو ": 9818,
      "مدل ": 9819,
      "استعمال جي ": 9820,
      "حصن ۾ ": 9821,
      "هلائي ": 9822,
      "ٺاهيو ": 9823,
      "حاجي ": 9824,
      "مسئل": 9825,
      "از اين ": 9826,
      "ننڍپڻ ": 9827,
      "ڪئنا": 9828,
      "ٿين ٿا.\n": 9829,
      "ڙيء ": 9830,
      "مئني": 9831,
      " SCL": 9832,
      "پرائمري ": 9833,
      "يک پيام خصوصي به ": 9834,
      "ڪيترين ئي ": 9835,
      "WhatsAp": 9836,
      " ري": 9837,
      "تجن": 9838,
      "نيون ": 9839,
      "وڪري ": 9840,
      "پند": 9841,
      "گون": 9842,
      "آهيو ته ": 9843,
      "وربي ": 9844,
      ". ۽ ": 9845,
      "واه ": 9846,
      " ڪيو.\n": 9847,
      "رهندي ": 9848,
      "رهيون آهن.\n": 9849,
      "قيه ": 9850,
      "تيم ": 9851,
      "افٽ ": 9852,
      "جنھن کي ": 9853,
      "آهن: ": 9854,
      "ٻڌڻ ": 9855,
      "are": 9856,
      "مخلو": 9857,
      "ڪلام ": 9858,
      "عورت کي ": 9859,
      "شهرن ۾ ": 9860,
      "خالص ": 9861,
      " . . ]\n": 9862,
      "بهرحال، ": 9863,
      "آپريٽنگ سسٽ": 9864,
      "AP": 9865,
      "Ad": 9866,
      "ial": 9867,
      "اقول ": 9868,
      "بني ": 9869,
      "بجاءِ ": 9870,
      "جهه": 9871,
      "حتي ": 9872,
      "ن،\n": 9873,
      "ڏسان ": 9874,
      " اڄ": 9875,
      "ون ته ": 9876,
      "رهندو.\n": 9877,
      "معيش": 9878,
      "ڪندو": 9879,
      "سوا ": 9880,
      "نگ ۽ ": 9881,
      "ڏينهن جو ": 9882,
      "مدار ": 9883,
      "اي اي ": 9884,
      "گوشت ": 9885,
      "حاج": 9886,
      " منصو": 9887,
      "سچو ": 9888,
      "ڪريون ٿا ": 9889,
      "نظرثاني ": 9890,
      "ٽرانسپور": 9891,
      "مغربي ": 9892,
      "فعلا ": 9893,
      "پيدائش ": 9894,
      " °": 9895,
      "- ڪ": 9896,
      "46": 9897,
      "آيو ته ": 9898,
      "سچي ": 9899,
      "ضم ": 9900,
      "يــ": 9901,
      "يش ": 9902,
      "ڊيل ": 9903,
      "ڳائ": 9904,
      "ں ": 9905,
      "ين ٿا.\n": 9906,
      "ڪري\n": 9907,
      "اسٽو": 9908,
      "ديگر ": 9909,
      "هرگز ": 9910,
      "تي،\n": 9911,
      "جيڪو توهان ": 9912,
      "ڪنهن سان ": 9913,
      "رسمي ": 9914,
      "، پر اهو ": 9915,
      "خدمتن ": 9916,
      "سامان جي ": 9917,
      "خطاب ": 9918,
      "ايران": 9919,
      "تشري": 9920,
      "آھي؟\n": 9921,
      "پھريون ": 9922,
      "اولين ": 9923,
      "آرام سان ": 9924,
      "محبت جي ": 9925,
      "دولت ": 9926,
      "ڪھڙي ": 9927,
      "حذف ": 9928,
      "فاطمه ": 9929,
      "Hom": 9930,
      "Mic": 9931,
      "بہ": 9932,
      "جاو": 9933,
      "حام": 9934,
      "سع": 9935,
      "صاب": 9936,
      "ٿيا": 9937,
      "کی": 9938,
      "ھون ": 9939,
      " اَ": 9940,
      "لاط": 9941,
      "ليلي ": 9942,
      "ايم": 9943,
      "باش": 9944,
      "ناچ ": 9945,
      ") (": 9946,
      "تيز": 9947,
      "ــــــــــــــــــــ": 9948,
      "ٿي ويندو ": 9949,
      "ڪري سگهي.\n": 9950,
      "بلڪ ": 9951,
      "ڪنڌ ": 9952,
      "جن تي ": 9953,
      "ماڻهن لاءِ ": 9954,
      "پيغمبر ": 9955,
      "حديث": 9956,
      "B ": 9957,
      "تست": 9958,
      "سبو": 9959,
      "شش": 9960,
      "شھر ": 9961,
      "ماهي ": 9962,
      "ڏٺي ": 9963,
      "ورهائ": 9964,
      "ئي وئي ": 9965,
      "ايل": 9966,
      "ڪوٽ ": 9967,
      "برف ": 9968,
      "بدون ": 9969,
      "کانپوءِ": 9970,
      "ڏئي ٿو ": 9971,
      "قيمت تي ": 9972,
      "حتى": 9973,
      "ڪيني": 9974,
      "عزيز": 9975,
      "اسلام آباد ": 9976,
      "عبدالوحيد ": 9977,
      "فيڪٽري ": 9978,
      "علامه عبدالوحيد ": 9979,
      "گرمي پد ": 9980,
      "نظرات ياداشت ": 9981,
[...]
