[UNK]	0
[CLS]	1
[SEP]	2
[PAD]	3
[MASK]	4
!	5
"	6
#	7
$	8
%	9
&	10
'	11
(	12
)	13
*	14
+	15
,	16
-	17
.	18
/	19
0	20
1	21
2	22
3	23
4	24
5	25
6	26
7	27
8	28
9	29
:	30
;	31
<	32
=	33
>	34
?	35
@	36
[	37
\	38
]	39
^	40
_	41
a	42
b	43
c	44
d	45
e	46
f	47
g	48
h	49
i	50
j	51
k	52
l	53
m	54
n	55
o	56
p	57
q	58
r	59
s	60
t	61
u	62
v	63
w	64
x	65
y	66
z	67
{	68
|	69
}	70
~	71
¡	72
¢	73
£	74
¤	75
¥	76
¦	77
§	78
©	79
¬	80
®	81
°	82
±	83
¶	84
·	85
¿	86
×	87
ß	88
à	89
á	90
â	91
ã	92
ä	93
å	94
æ	95
ç	96
è	97
é	98
ê	99
ë	100
ì	101
í	102
î	103
ï	104
ð	105
ñ	106
ò	107
ó	108
ô	109
õ	110
ö	111
÷	112
ø	113
ù	114
ú	115
û	116
ü	117
ý	118
þ	119
ā	120
ă	121
ą	122
ć	123
ĉ	124
č	125
ď	126
đ	127
ē	128
ė	129
ę	130
ě	131
ğ	132
ģ	133
ĥ	134
ħ	135
ī	136
į	137
ı	138
ĵ	139
ĸ	140
ĺ	141
ļ	142
ł	143
ň	144
ŋ	145
ō	146
ŏ	147
œ	148
ř	149
ś	150
ŝ	151
ş	152
š	153
ť	154
ŧ	155
ŭ	156
ů	157
ű	158
ź	159
ż	160
ž	161
ƒ	162
ƛ	163
ơ	164
ƴ	165
ƽ	166
ǝ	167
ǟ	168
ǰ	169
ǿ	170
ȅ	171
ȋ	172
ș	173
ț	174
ɑ	175
ɓ	176
ɕ	177
ə	178
ɛ	179
ɞ	180
ɠ	181
ɣ	182
ɨ	183
ɪ	184
ɲ	185
ɴ	186
ʀ	187
ʃ	188
ʊ	189
ʒ	190
ʔ	191
ʚ	192
ʞ	193
ʻ	194
ˆ	195
ˇ	196
ˈ	197
ˌ	198
ː	199
˹	200
˼	201
̀	202
́	203
̃	204
̄	205
̅	206
̇	207
̈	208
̉	209
̊	210
̋	211
̌	212
̍	213
̐	214
̖	215
̗	216
̝	217
̠	218
̣	219
̤	220
̥	221
̧	222
̨	223
̩	224
̬	225
̮	226
̯	227
̲	228
̳	229
̵	230
̶	231
̷	232
̸	233
͛	234
͜	235
͠	236
͡	237
ͦ	238
ΐ	239
ά	240
έ	241
ή	242
ί	243
α	244
β	245
γ	246
δ	247
ε	248
ζ	249
η	250
θ	251
ι	252
κ	253
λ	254
μ	255
ν	256
ξ	257
ο	258
π	259
ρ	260
ς	261
σ	262
τ	263
υ	264
φ	265
χ	266
ψ	267
ω	268
ϋ	269
ό	270
ώ	271
ϟ	272
ϻ	273
а	274
б	275
в	276
г	277
д	278
е	279
ж	280
з	281
и	282
й	283
к	284
л	285
м	286
н	287
о	288
п	289
р	290
с	291
т	292
у	293
х	294
ц	295
ч	296
ш	297
ъ	298
ы	299
ь	300
э	301
ю	302
я	303
є	304
і	305
ј	306
ћ	307
ѣ	308
ѧ	309
҉	310
ҏ	311
ґ	312
қ	313
ҩ	314
ү	315
ұ	316
ҳ	317
ҷ	318
ҽ	319
ӎ	320
ө	321
ա	322
բ	323
ե	324
է	325
ը	326
ի	327
լ	328
խ	329
կ	330
հ	331
ձ	332
ղ	333
մ	334
յ	335
ն	336
ո	337
չ	338
պ	339
ռ	340
ս	341
վ	342
տ	343
ր	344
ց	345
ւ	346
փ	347
ք	348
ֆ	349
ִ	350
ּ	351
ֿ	352
א	353
ב	354
ג	355
ד	356
ה	357
ו	358
ז	359
ח	360
ט	361
י	362
ך	363
כ	364
ל	365
ם	366
מ	367
ן	368
נ	369
ס	370
ע	371
פ	372
צ	373
ר	374
ש	375
ת	376
؋	377
،	378
؍	379
؎	380
؏	381
ؐ	382
ؑ	383
ؒ	384
ؓ	385
؛	386
؟	387
ء	388
آ	389
أ	390
ؤ	391
إ	392
ئ	393
ا	394
ب	395
ة	396
ت	397
ث	398
ج	399
ح	400
خ	401
د	402
ذ	403
ر	404
ز	405
س	406
ش	407
ص	408
ض	409
ط	410
ظ	411
ع	412
غ	413
ػ	414
ؼ	415
ؽ	416
ؾ	417
ؿ	418
ـ	419
ف	420
ق	421
ك	422
ل	423
م	424
ن	425
ه	426
و	427
ى	428
ي	429
ً	430
ٌ	431
ٍ	432
َ	433
ُ	434
ِ	435
ّ	436
ْ	437
ٓ	438
ٔ	439
ٕ	440
ٖ	441
ٗ	442
٘	443
ٙ	444
ٚ	445
ٛ	446
ٜ	447
ٝ	448
ٞ	449
ٟ	450
٠	451
١	452
٢	453
٣	454
٤	455
٥	456
٦	457
٧	458
٨	459
٩	460
٪	461
٫	462
٬	463
٭	464
ٮ	465
ٯ	466
ٰ	467
ٱ	468
ٲ	469
ٳ	470
ٴ	471
ٹ	472
ٺ	473
ٻ	474
ټ	475
ٽ	476
پ	477
ٿ	478
ڀ	479
ځ	480
ڂ	481
ڃ	482
ڄ	483
څ	484
چ	485
ڇ	486
ڈ	487
ډ	488
ڊ	489
ڋ	490
ڌ	491
ڍ	492
ڎ	493
ڏ	494
ڐ	495
ڑ	496
ڒ	497
ړ	498
ڔ	499
ڕ	500
ږ	501
ڗ	502
ژ	503
ڙ	504
ښ	505
ڛ	506
ڜ	507
ڝ	508
ڞ	509
ڟ	510
ڠ	511
ڣ	512
ڤ	513
ڦ	514
ڨ	515
ک	516
ڪ	517
ګ	518
ڭ	519
گ	520
ڰ	521
ڱ	522
ڲ	523
ڳ	524
ڵ	525
ڶ	526
ڷ	527
ڸ	528
ڹ	529
ں	530
ڻ	531
ڼ	532
ڽ	533
ھ	534
ڿ	535
ۀ	536
ہ	537
ۂ	538
ۃ	539
ۄ	540
ۅ	541
ۆ	542
ۇ	543
ۈ	544
ۉ	545
ۊ	546
ۋ	547
ی	548
ۍ	549
ێ	550
ۏ	551
ې	552
ۑ	553
ے	554
ۓ	555
۔	556
ە	557
ۗ	558
ۘ	559
ۙ	560
ۚ	561
ۛ	562
ۜ	563
۞	564
ۡ	565
ۢ	566
ۣ	567
ۤ	568
ۥ	569
ۦ	570
ۧ	571
ۨ	572
۩	573
۪	574
۫	575
۬	576
۰	577
۱	578
۲	579
۳	580
۴	581
۵	582
۶	583
۷	584
۸	585
۹	586
ۺ	587
ۼ	588
۽	589
۾	590
ۿ	591
܀	592
ܒ	593
ܓ	594
ܢ	595
ܨ	596
ܪ	597
ܵ	598
ݐ	599
ݒ	600
ݖ	601
ݘ	602
ݛ	603
ݢ	604
ݥ	605
ݦ	606
ݧ	607
ݨ	608
ݩ	609
ݪ	610
ހ	611
ވ	612
ެ	613
ߙ	614
ࡗ	615
ࢦ	616
ࢪ	617
࣪	618
ँ	619
ं	620
ः	621
अ	622
आ	623
इ	624
ई	625
उ	626
ए	627
ओ	628
क	629
ख	630
ग	631
घ	632
ङ	633
च	634
छ	635
ज	636
झ	637
ञ	638
ट	639
ठ	640
ड	641
ढ	642
ण	643
त	644
थ	645
द	646
ध	647
न	648
प	649
फ	650
ब	651
भ	652
म	653
य	654
र	655
ल	656
व	657
श	658
ष	659
स	660
ह	661
़	662
ा	663
ि	664
ी	665
ु	666
ू	667
ृ	668
े	669
ै	670
ॉ	671
ो	672
ौ	673
्	674
॒	675
ॡ	676
।	677
॥	678
०	679
१	680
८	681
অ	682
আ	683
ই	684
উ	685
এ	686
ঔ	687
ক	688
খ	689
ঘ	690
ছ	691
জ	692
ট	693
ড	694
ত	695
দ	696
ধ	697
ন	698
ব	699
ভ	700
ম	701
য	702
র	703
ল	704
শ	705
স	706
়	707
া	708
ি	709
ু	710
ে	711
ো	712
ৌ	713
্	714
ਂ	715
ਇ	716
ਈ	717
ਕ	718
ਜ	719
ਥ	720
ਧ	721
ਪ	722
ਬ	723
ਮ	724
ਰ	725
ਲ	726
ਸ	727
ਹ	728
ਾ	729
ਿ	730
ੀ	731
ੇ	732
ੈ	733
ੋ	734
ੰ	735
ੱ	736
ં	737
ક	738
ખ	739
ચ	740
છ	741
ટ	742
ડ	743
થ	744
ધ	745
પ	746
ર	747
સ	748
હ	749
ા	750
િ	751
ી	752
ુ	753
ે	754
ો	755
୪	756
୭	757
ஐ	758
ஓ	759
ற	760
ం	761
ఇ	762
ఉ	763
ఎ	764
క	765
చ	766
డ	767
ద	768
ధ	769
న	770
ప	771
య	772
ల	773
వ	774
స	775
హ	776
ా	777
ి	778
ీ	779
ు	780
ే	781
ో	782
్	783
ಂ	784
ಈ	785
ಕ	786
ಡ	787
ಧ	788
ನ	789
ಲ	790
ಸ	791
ಿ	792
ೋ	793
್	794
ഉ	795
ങ	796
ത	797
ധ	798
ന	799
പ	800
ള	801
സ	802
ി	803
്	804
ආ	805
උ	806
ක	807
න	808
ම	809
ය	810
ල	811
ව	812
ශ	813
ස	814
්	815
ෑ	816
ි	817
ෙ	818
ก	819
ค	820
ฉ	821
ณ	822
ด	823
ถ	824
ท	825
น	826
บ	827
ป	828
พ	829
ม	830
ย	831
ล	832
ส	833
ห	834
อ	835
ฮ	836
ะ	837
ั	838
า	839
ิ	840
ี	841
ุ	842
เ	843
ไ	844
ๅ	845
่	846
้	847
๋	848
๑	849
๛	850
ກ	851
ຂ	852
ຈ	853
ຖ	854
ທ	855
ນ	856
ພ	857
ມ	858
ຢ	859
ະ	860
າ	861
ົ	862
ເ	863
່	864
້	865
໑	866
༄	867
༅	868
༺	869
ཻ	870
࿅	871
࿑	872
ა	873
დ	874
ე	875
თ	876
ი	877
კ	878
მ	879
ნ	880
რ	881
ს	882
უ	883
ქ	884
ღ	885
ᄑ	886
ᄒ	887
ᅲ	888
ሂ	889
ህ	890
ለ	891
ላ	892
ል	893
ም	894
ሩ	895
ር	896
ሳ	897
ስ	898
ቅ	899
በ	900
ቦ	901
ታ	902
ት	903
ነ	904
ኔ	905
ን	906
ኝ	907
አ	908
እ	909
ወ	910
ው	911
ዎ	912
ዘ	913
ይ	914
ዴ	915
ድ	916
ጋ	917
ጎ	918
ጠ	919
ጣ	920
ጥ	921
ፈ	922
ፍ	923
ᑐ	924
ᓄ	925
ᓅ	926
ᓆ	927
ᓘ	928
ញ	929
ន	930
ព	931
ភ	932
េ	933
ំ	934
្	935
᪣	936
ᬼ	937
ᭁ	938
᭄	939
ᴀ	940
ᴋ	941
ᴗ	942
᷂	943
ḑ	944
ḭ	945
ḿ	946
ṁ	947
ṃ	948
ṇ	949
ṉ	950
ṛ	951
ṝ	952
ṣ	953
ṧ	954
ṩ	955
ṭ	956
ṽ	957
ạ	958
ẹ	959
ể	960
ệ	961
ị	962
ọ	963
ố	964
ở	965
ụ	966
ỳ	967
ỹ	968
ἄ	969
‐	970
‛	971
‟	972
†	973
‡	974
•	975
′	976
‹	977
›	978
※	979
‿	980
⁀	981
⁄	982
₥	983
₦	984
₩	985
₪	986
€	987
₳	988
₹	989
₼	990
₽	991
⃕	992
⃟	993
⃢	994
⃣	995
⃫	996
℘	997
←	998
↑	999
→	1000
↓	1001
↔	1002
↙	1003
↜	1004
↝	1005
↣	1006
↤	1007
↩	1008
↫	1009
↯	1010
↲	1011
↴	1012
↷	1013
⇄	1014
⇐	1015
⇜	1016
⇠	1017
⇡	1018
⇢	1019
⇣	1020
⇦	1021
∀	1022
∂	1023
∇	1024
−	1025
√	1026
∞	1027
∟	1028
∫	1029
∴	1030
≈	1031
≠	1032
≤	1033
≥	1034
≦	1035
≧	1036
≯	1037
⊙	1038
⋆	1039
⌘	1040
⏆	1041
⏩	1042
⏪	1043
─	1044
┇	1045
═	1046
╚	1047
╝	1048
╦	1049
╫	1050
╬	1051
▂	1052
▃	1053
▌	1054
▐	1055
■	1056
□	1057
▪	1058
▫	1059
▲	1060
▶	1061
▷	1062
►	1063
▼	1064
▽	1065
◀	1066
◄	1067
◆	1068
◇	1069
◈	1070
◉	1071
◊	1072
○	1073
◍	1074
◎	1075
●	1076
◕	1077
◝	1078
◣	1079
◤	1080
◥	1081
◦	1082
◩	1083
◪	1084
◾	1085
☀	1086
☁	1087
☂	1088
☃	1089
☄	1090
★	1091
☆	1092
☑	1093
☔	1094
☘	1095
☚	1096
☛	1097
☜	1098
☝	1099
☠	1100
☹	1101
☺	1102
☻	1103
☼	1104
☽	1105
☿	1106
♀	1107
♂	1108
♃	1109
♄	1110
♈	1111
♉	1112
♊	1113
♋	1114
♌	1115
♍	1116
♎	1117
♏	1118
♒	1119
♓	1120
♚	1121
♛	1122
♠	1123
♡	1124
♢	1125
♣	1126
♤	1127
♥	1128
♦	1129
♩	1130
♪	1131
♫	1132
♬	1133
♭	1134
♯	1135
⚒	1136
⚘	1137
⚠	1138
⚡	1139
⚫	1140
⚽	1141
⛳	1142
⛺	1143
✅	1144
✇	1145
✈	1146
✋	1147
✌	1148
✍	1149
✓	1150
✔	1151
✖	1152
✗	1153
✘	1154
✜	1155
✞	1156
✦	1157
✧	1158
✨	1159
✫	1160
✭	1161
✮	1162
✯	1163
✳	1164
✴	1165
✷	1166
✿	1167
❀	1168
❌	1169
❒	1170
❓	1171
❔	1172
❕	1173
❖	1174
❗	1175
❝	1176
❞	1177
❢	1178
❣	1179
❤	1180
❥	1181
❦	1182
❧	1183
❶	1184
➓	1185
➘	1186
➟	1187
➡	1188
➢	1189
➥	1190
➬	1191
⠀	1192
⦿	1193
⬅	1194
⬆	1195
⬸	1196
⭐	1197
⭕	1198
ⴢ	1199
⸁	1200
⸙	1201
、	1202
。	1203
〇	1204
〈	1205
〉	1206
》	1207
「	1208
」	1209
『	1210
』	1211
【	1212
】	1213
〖	1214
〗	1215
あ	1216
い	1217
う	1218
え	1219
お	1220
か	1221
が	1222
く	1223
さ	1224
じ	1225
な	1226
の	1227
へ	1228
ほ	1229
ょ	1230
よ	1231
り	1232
わ	1233
を	1234
ん	1235
イ	1236
エ	1237
ク	1238
コ	1239
サ	1240
シ	1241
ス	1242
タ	1243
チ	1244
ッ	1245
ツ	1246
ト	1247
ド	1248
ノ	1249
バ	1250
パ	1251
ピ	1252
マ	1253
ミ	1254
ム	1255
ュ	1256
ヮ	1257
ン	1258
・	1259
ー	1260
ㄨ	1261
一	1262
上	1263
之	1264
了	1265
云	1266
以	1267
传	1268
位	1269
何	1270
你	1271
刀	1272
力	1273
午	1274
南	1275
厩	1276
发	1277
古	1278
可	1279
吗	1280
嘅	1281
国	1282
场	1283
報	1284
多	1285
夢	1286
如	1287
子	1288
学	1289
它	1290
少	1291
屋	1292
年	1293
庆	1294
彙	1295
彩	1296
很	1297
情	1298
惠	1299
感	1300
我	1301
打	1302
教	1303
料	1304
斯	1305
於	1306
月	1307
机	1308
機	1309
泊	1310
波	1311
爱	1312
瑞	1313
用	1314
电	1315
発	1316
發	1317
的	1318
真	1319
着	1320
示	1321
科	1322
端	1323
篇	1324
終	1325
纳	1326
者	1327
职	1328
背	1329
节	1330
花	1331
菜	1332
葬	1333
藍	1334
蝶	1335
要	1336
詞	1337
語	1338
謝	1339
话	1340
语	1341
谷	1342
超	1343
辛	1344
迪	1345
邏	1346
钱	1347
际	1348
隨	1349
雨	1350
音	1351
顯	1352
鲁	1353
ꓘ	1354
ꓤ	1355
ꔫ	1356
ꖾ	1357
ꟽ	1358
ꦿ	1359
ꪆ	1360
ꪝ	1361
ꫀ	1362
ꫛ	1363
각	1364
금	1365
길	1366
나	1367
는	1368
다	1369
대	1370
래	1371
리	1372
마	1373
만	1374
문	1375
방	1376
법	1377
서	1378
손	1379
솔	1380
송	1381
시	1382
양	1383
얼	1384
에	1385
연	1386
요	1387
우	1388
정	1389
져	1390
조	1391
좋	1392
지	1393
직	1394
평	1395
하	1396
할	1397
해	1398
형	1399
화	1400
효	1401
희	1402
﮶	1403
﮼	1404
﴾	1405
﴿	1406
︎	1407
️	1408
�	1409
𐄒	1410
𐎚	1411
𐭣	1412
𐭦	1413
𐭪	1414
𐭬	1415
𓂅	1416
𓆩	1417
𓆪	1418
𖣂	1419
𖣴	1420
𖤈	1421
𖤍	1422
🅚	1423
🅛	1424
🅜	1425
🅦	1426
🇦	1427
🇧	1428
🇨	1429
🇩	1430
🇬	1431
🇮	1432
🇱	1433
🇲	1434
🇵	1435
🇶	1436
🇷	1437
🇸	1438
🇹	1439
🇺	1440
🇿	1441
🌆	1442
🌈	1443
🌍	1444
🌎	1445
🌓	1446
🌔	1447
🌙	1448
🌚	1449
🌛	1450
🌜	1451
🌝	1452
🌞	1453
🌟	1454
🌤	1455
🌧	1456
🌱	1457
🌵	1458
🌷	1459
🌸	1460
🌹	1461
🌺	1462
🌻	1463
🌼	1464
🌿	1465
🍀	1466
🍂	1467
🍃	1468
🍇	1469
🍉	1470
🍕	1471
🍩	1472
🍰	1473
🍷	1474
🍻	1475
🍼	1476
🍾	1477
🍿	1478
🎀	1479
🎁	1480
🎃	1481
🎅	1482
🎈	1483
🎞	1484
🎥	1485
🎧	1486
🎨	1487
🎯	1488
🎵	1489
🎶	1490
🎻	1491
🎼	1492
🏃	1493
🏆	1494
🏊	1495
🏖	1496
🏣	1497
🏭	1498
🏳	1499
🏹	1500
🏻	1501
🏼	1502
🏽	1503
🏾	1504
🏿	1505
🐍	1506
🐒	1507
🐕	1508
🐠	1509
🐢	1510
🐸	1511
🐾	1512
👀	1513
👃	1514
👅	1515
👆	1516
👇	1517
👈	1518
👉	1519
👊	1520
👋	1521
👌	1522
👍	1523
👎	1524
👑	1525
👕	1526
👠	1527
👢	1528
👤	1529
👧	1530
👨	1531
👩	1532
👭	1533
👰	1534
👲	1535
👳	1536
👾	1537
💀	1538
💃	1539
💅	1540
💇	1541
💈	1542
💋	1543
💍	1544
💐	1545
💒	1546
💓	1547
💔	1548
💕	1549
💖	1550
💗	1551
💘	1552
💙	1553
💚	1554
💛	1555
💜	1556
💝	1557
💞	1558
💠	1559
💡	1560
💣	1561
💦	1562
💪	1563
💫	1564
💮	1565
💯	1566
💰	1567
💷	1568
💻	1569
📄	1570
📑	1571
📚	1572
📛	1573
📥	1574
📩	1575
📮	1576
📲	1577
📷	1578
📸	1579
📿	1580
🔆	1581
🔈	1582
🔐	1583
🔒	1584
🔕	1585
🔗	1586
🔞	1587
🔥	1588
🔫	1589
🔱	1590
🔴	1591
🔶	1592
🔸	1593
🔹	1594
🔺	1595
🕊	1596
🕌	1597
🕘	1598
🖕	1599
🖤	1600
🖼	1601
🗯	1602
🗿	1603
😀	1604
😁	1605
😂	1606
😃	1607
😄	1608
😅	1609
😆	1610
😇	1611
😈	1612
😉	1613
😊	1614
😋	1615
😌	1616
😍	1617
😎	1618
😏	1619
😐	1620
😑	1621
😒	1622
😔	1623
😕	1624
😘	1625
😛	1626
😜	1627
😝	1628
😠	1629
😢	1630
😤	1631
😦	1632
😧	1633
😨	1634
😩	1635
😪	1636
😬	1637
😭	1638
😮	1639
😯	1640
😱	1641
😲	1642
😳	1643
😵	1644
😷	1645
😹	1646
😻	1647
😽	1648
😿	1649
🙁	1650
🙂	1651
🙃	1652
🙄	1653
🙅	1654
🙆	1655
🙇	1656
🙈	1657
🙊	1658
🙋	1659
🙌	1660
🙏	1661
🚌	1662
🚓	1663
🚣	1664
🚨	1665
🚫	1666
🚭	1667
🚵	1668
🚶	1669
🚷	1670
🛌	1671
🛐	1672
🛒	1673
🛫	1674
🛰	1675
🟥	1676
🤍	1677
🤎	1678
🤐	1679
🤒	1680
🤓	1681
🤔	1682
🤕	1683
🤚	1684
🤟	1685
🤠	1686
🤣	1687
🤤	1688
🤧	1689
🤨	1690
🤩	1691
🤪	1692
🤭	1693
🤲	1694
🤸	1695
🤹	1696
🥀	1697
🥇	1698
🥰	1699
🥺	1700
🦋	1701
🦦	1702
🦯	1703
🦼	1704
🦽	1705
🧐	1706
🧑	1707
🧖	1708
🧚	1709
🧝	1710
🧸	1711
##و	1712
##ڪ	1713
##ا	1714
##ر	1715
##ِ	1716
##ي	1717
##ن	1718
##9	1719
##8	1720
##5	1721
##ع	1722
##i	1723
##e	1724
##l	1725
##a	1726
##s	1727
##r	1728
##6	1729
##0	1730
##c	1731
##n	1732
##d	1733
##q	1734
##o	1735
##َ	1736
##ٻ	1737
##ڇ	1738
##ٺ	1739
##ل	1740
##م	1741
##خ	1742
##ب	1743
##آ	1744
##ة	1745
##س	1746
##ڊ	1747
##h	1748
##p	1749
##ڻ	1750
##ج	1751
##ك	1752
##ق	1753
##ت	1754
##f	1755
##m	1756
##ه	1757
##ـ	1758
##ٽ	1759
##ء	1760
##ش	1761
##ئ	1762
##ف	1763
##ک	1764
##4	1765
##ڙ	1766
##د	1767
##ح	1768
##پ	1769
##ہ	1770
##🛫	1771
##🤣	1772
##🤔	1773
##ز	1774
##t	1775
##_	1776
##v	1777
##ص	1778
##ی	1779
##u	1780
##ُ	1781
##k	1782
##g	1783
##w	1784
##ط	1785
##y	1786
##ې	1787
##ט	1788
##ּ	1789
##ۊ	1790
##ˇ	1791
##ڏ	1792
##ٹ	1793
##ڃ	1794
##3	1795
##غ	1796
##b	1797
##1	1798
##إ	1799
##ο	1800
##η	1801
##θ	1802
##ή	1803
##σ	1804
##ε	1805
##ι	1806
##ς	1807
##ظ	1808
##🇮	1809
##ڄ	1810
##ړ	1811
##ګ	1812
##x	1813
##ٰ	1814
##×	1815
##ۡ	1816
##ɨ	1817
##ʀ	1818
##ǟ	1819
##è	1820
##7	1821
##•	1822
##∞	1823
##ı	1824
##ö	1825
##ؤ	1826
##ض	1827
##ّ	1828
##ב	1829
##أ	1830
##:	1831
##ٿ	1832
##⁀	1833
##چ	1834
##ث	1835
##ذ	1836
##z	1837
##ژ	1838
##्	1839
##र	1840
##म	1841
##ु	1842
##ख	1843
##گ	1844
##ࢦ	1845
##2	1846
##ږ	1847
##ڸ	1848
##ښ	1849
##ٔ	1850
##ٖ	1851
##ھ	1852
##j	1853
##ê	1854
##ے	1855
##ō	1856
##ټ	1857
##ى	1858
##★	1859
##ٳ	1860
##ْ	1861
##ڷ	1862
##ٍ	1863
##р	1864
##а	1865
##в	1866
##и	1867
##т	1868
##ь	1869
##۸	1870
##न	1871
##त	1872
##é	1873
##ڳ	1874
##ۧ	1875
##ڀ	1876
##ځ	1877
##ೋ	1878
##ಈ	1879
##е	1880
##н	1881
##ٌ	1882
##ั	1883
##น	1884
##เ	1885
##ก	1886
##ล	1887
##ี	1888
##ย	1889
##ด	1890
##ค	1891
##ุ	1892
##ณ	1893
##ස	1894
##ක	1895
##ම	1896
##ڈ	1897
##ً	1898
##ٓ	1899
##ڱ	1900
##ڵ	1901
##ó	1902
##ל	1903
##ा	1904
##ٗ	1905
##,	1906
##ڌ	1907
##ۈ	1908
##ڑ	1909
##*	1910
##)	1911
##/	1912
##נ	1913
##י	1914
##א	1915
##ं	1916
##ध	1917
##ڍ	1918
##ź	1919
##ಲ	1920
##್	1921
##ಿ	1922
##ۃ	1923
##🎀	1924
##✗	1925
##ٞ	1926
##٘	1927
##ڲ	1928
##à	1929
##💔	1930
##ݪ	1931
##څ	1932
##פ	1933
##ڛ	1934
##̇	1935
##🍃	1936
##μ	1937
##ں	1938
##ۆ	1939
##ד	1940
##ו	1941
##ٱ	1942
##،	1943
##ݩ	1944
##ो	1945
##ग	1946
##ि	1947
##ङ	1948
##؏	1949
##-	1950
##>	1951
##͡	1952
##ٕ	1953
##ڹ	1954
##ы	1955
##۳	1956
##۹	1957
##۵	1958
##ా	1959
##న	1960
##ీ	1961
##య	1962
##ం	1963
##ٴ	1964
##ü	1965
##ڝ	1966
##!	1967
##х	1968
##传	1969
##者	1970
##ێ	1971
##◍	1972
##ह	1973
##ै	1974
##ӎ	1975
##ά	1976
##ř	1977
##ڤ	1978
##ڔ	1979
##ł	1980
##λ	1981
##đ	1982
##ࢪ	1983
##ڦ	1984
##😅	1985
##ۓ	1986
##۰	1987
##٠	1988
##١	1989
##٦	1990
##😍	1991
##ٛ	1992
##ډ	1993
##"	1994
##💕	1995
##✿	1996
##❤	1997
##á	1998
##문	1999
##희	2000
##ω	2001
##ۉ	2002
##о	2003
##й	2004
##]	2005
##ë	2006
##۶	2007
##ħ	2008
##α	2009
##♀	2010
##ौ	2011
##ड	2012
##۫	2013
##ब	2014
##द	2015
##ः	2016
##ۅ	2017
##ۑ	2018
##å	2019
##ؽ	2020
##.	2021
##٣	2022
##;	2023
##к	2024
##ш	2025
##ī	2026
##~	2027
##כ	2028
##ś	2029
##ć	2030
##ä	2031
##พ	2032
##า	2033
##ฉ	2034
##ไ	2035
##ป	2036
##ท	2037
##่	2038
##ส	2039
##ม	2040
##บ	2041
##ิ	2042
##้	2043
##ห	2044
##ڠ	2045
##😢	2046
##स	2047
##ş	2048
##🏃	2049
##ट	2050
##फ	2051
##ल	2052
##य	2053
##¤	2054
##¦	2055
##ę	2056
##क	2057
##ė	2058
##श	2059
##î	2060
##छ	2061
##<	2062
##ñ	2063
##ā	2064
##👈	2065
##մ	2066
##д	2067
##ڼ	2068
##̗	2069
##̀	2070
##ሳ	2071
##ህ	2072
##ለ	2073
##ወ	2074
##ር	2075
##ቅ	2076
##٧	2077
##ֿ	2078
##ੱ	2079
##ਥ	2080
##ੇ	2081
##ػ	2082
##♫	2083
##♪	2084
##े	2085
##ज	2086
##ी	2087
##ؿ	2088
##纳	2089
##国	2090
##际	2091
##机	2092
##场	2093
##؛	2094
##°	2095
##я	2096
##۴	2097
##ष	2098
##ç	2099
##ώ	2100
##̲	2101
##л	2102
##ۍ	2103
##ґ	2104
##œ	2105
##😂	2106
##๋	2107
##͜	2108
##š	2109
##̷	2110
##̣	2111
##̐	2112
##🥺	2113
##💖	2114
##✨	2115
##ڎ	2116
##ত	2117
##্	2118
##য	2119
##ি	2120
##ই	2121
##ۺ	2122
##ڞ	2123
##ެ	2124
##ז	2125
##ڶ	2126
##ξ	2127
##ì	2128
##😇	2129
##ㄨ	2130
##+	2131
##ڕ	2132
##۷	2133
##і	2134
##ν	2135
##υ	2136
##β	2137
##♈	2138
##?	2139
##ô	2140
##ನ	2141
##ಡ	2142
##'	2143
##ە	2144
##🏻	2145
##؟	2146
##菜	2147
##۱	2148
##🅜	2149
##🅦	2150
##🅛	2151
##♋	2152
##📸	2153
##📩	2154
##{	2155
##可	2156
##以	2157
##打	2158
##电	2159
##话	2160
##吗	2161
##ɪ	2162
##ʊ	2163
##ؼ	2164
##м	2165
##э	2166
##ē	2167
##ѧ	2168
##ღ	2169
##ğ	2170
##ਾ	2171
##ਂ	2172
##☆	2173
##🌍	2174
##়	2175
##া	2176
##ন	2177
##с	2178
##🎁	2179
##●	2180
##ě	2181
##ž	2182
##ζ	2183
##♥	2184
##😘	2185
##ִ	2186
##🙈	2187
##[	2188
##व	2189
##٨	2190
##❦	2191
##٥	2192
##۲	2193
##ン	2194
##バ	2195
##ッ	2196
##ク	2197
##👋	2198
##מ	2199
##ע	2200
##ן	2201
##🇩	2202
##ڣ	2203
##⃣	2204
##😁	2205
##ű	2206
##٤	2207
##ው	2208
##=	2209
##ে	2210
##দ	2211
##র	2212
##ۦ	2213
##🤍	2214
##ۏ	2215
##â	2216
##û	2217
##→	2218
##٢	2219
##ょ	2220
##う	2221
##ほ	2222
##か	2223
##が	2224
##く	2225
##﴿	2226
##ṇ	2227
##г	2228
##ڂ	2229
##ۇ	2230
##🌝	2231
##💗	2232
##🧐	2233
##🤨	2234
##ۥ	2235
##ᓄ	2236
##️	2237
##ۤ	2238
##^	2239
##ۄ	2240
##у	2241
##ॉ	2242
##ሩ	2243
##ܨ	2244
##ܓ	2245
##प	2246
##ۂ	2247
##﮼	2248
##č	2249
##ᄑ	2250
##💞	2251
##ү	2252
##ؑ	2253
##さ	2254
##い	2255
##ò	2256
##♏	2257
##̯	2258
##🔥	2259
##ી	2260
##ં	2261
##ક	2262
##💙	2263
##ե	2264
##ն	2265
##յ	2266
##ա	2267
##կ	2268
##ի	2269
##ю	2270
##̵	2271
##⃫	2272
##۬	2273
##τ	2274
##🙂	2275
##💘	2276
##̥	2277
##発	2278
##音	2279
##を	2280
##⚫	2281
##з	2282
##ʞ	2283
##화	2284
##하	2285
##는	2286
##̶	2287
##🙏	2288
##&	2289
##ۀ	2290
##િ	2291
##ۣ	2292
##ۗ	2293
##̃	2294
##◩	2295
##ۙ	2296
##😉	2297
##ρ	2298
##ø	2299
##ɣ	2300
##ɛ	2301
##इ	2302
##ृ	2303
##♠	2304
##ч	2305
##ж	2306
##$	2307
##(	2308
##۔	2309
##צ	2310
##ר	2311
##ۘ	2312
##ɓ	2313
##ŏ	2314
##٩	2315
##୭	2316
##🏿	2317
##🦼	2318
##ڜ	2319
###	2320
##@	2321
##ۨ	2322
##έ	2323
##月	2324
##ǝ	2325
##ꟽ	2326
##😋	2327
##ڒ	2328
##є	2329
##ݧ	2330
##ր	2331
##ո	2332
##ղ	2333
##ٲ	2334
##ï	2335
##🏼	2336
##✫	2337
##۩	2338
##ւ	2339
##⃢	2340
##п	2341
##🤒	2342
##̤	2343
##̈	2344
##़	2345
##¡	2346
##🇶	2347
##࿅	2348
##〗	2349
##ۋ	2350
##🌈	2351
##午	2352
##节	2353
##ù	2354
##】	2355
##ṩ	2356
##☺	2357
##▌	2358
##}	2359
##ť	2360
##ý	2361
##😳	2362
##ド	2363
##語	2364
##▐	2365
##位	2366
##ț	2367
##ৌ	2368
##ড	2369
##ద	2370
##ધ	2371
##í	2372
##ݥ	2373
##ݘ	2374
##उ	2375
##ए	2376
##ᑐ	2377
##✦	2378
##🐒	2379
##💈	2380
##🧸	2381
##ṉ	2382
##ற	2383
##☘	2384
##ۿ	2385
##ू	2386
##झ	2387
##☄	2388
##何	2389
##用	2390
##鲁	2391
##瑞	2392
##语	2393
##发	2394
##ڋ	2395
##ँ	2396
##ڭ	2397
##🌓	2398
##🌻	2399
##◄	2400
##ক	2401
##ો	2402
##ટ	2403
##ુ	2404
##‹	2405
##›	2406
##教	2407
##ڨ	2408
##庆	2409
##💻	2410
##ҳ	2411
##⚡	2412
##ʻ	2413
##ọ	2414
##🔕	2415
##❀	2416
##♊	2417
##り	2418
##տ	2419
##հ	2420
##క	2421
##ు	2422
##◝	2423
##❧	2424
##🎃	2425
##ⴢ	2426
##👌	2427
##٭	2428
##😊	2429
##̍	2430
##🏾	2431
##ి	2432
##ధ	2433
##🦯	2434
##📿	2435
##ठ	2436
##ڗ	2437
##ু	2438
##發	2439
##◥	2440
##ম	2441
##謝	2442
##你	2443
##̝	2444
##ۛ	2445
##⇦	2446
##♣	2447
##💛	2448
##🌸	2449
##ẹ	2450
##້	2451
##າ	2452
##ພ	2453
##ະ	2454
##ເ	2455
##ຈ	2456
##ົ	2457
##ຢ	2458
##ກ	2459
##ຖ	2460
##ມ	2461
##ທ	2462
##່	2463
##ນ	2464
##チ	2465
##コ	2466
##マ	2467
##ј	2468
##ú	2469
##ə	2470
##ˈ	2471
##ː	2472
##भ	2473
##ݨ	2474
##̩	2475
##̊	2476
##ã	2477
##云	2478
##之	2479
##南	2480
##ό	2481
##ů	2482
##💰	2483
##ण	2484
##─	2485
##⋆	2486
##⇢	2487
##ෑ	2488
##ٮ	2489
##ई	2490
##≥	2491
##ኔ	2492
##래	2493
##報	2494
##科	2495
##学	2496
##ө	2497
##б	2498
##ٚ	2499
##🇿	2500
##💪	2501
##ệ	2502
##🔗	2503
##⇣	2504
##▽	2505
##於	2506
##顯	2507
##示	2508
##了	2509
##√	2510
##真	2511
##的	2512
##很	2513
##爱	2514
##উ	2515
##ۢ	2516
##ڿ	2517
##ڽ	2518
##̉	2519
##ถ	2520
##💫	2521
##ц	2522
##ί	2523
##═	2524
##╬	2525
##ʒ	2526
##ɑ	2527
##ꦿ	2528
##᭄	2529
##⃕	2530
##💣	2531
##😭	2532
##ؾ	2533
##✌	2534
##ཻ	2535
##😪	2536
##ố	2537
##🍼	2538
##ṣ	2539
##😱	2540
##🦽	2541
##ി	2542
##ന	2543
##്	2544
##ധ	2545
##☜	2546
##♚	2547
##қ	2548
##į	2549
##ռ	2550
##խ	2551
##ս	2552
##👍	2553
##❕	2554
##💇	2555
##♂	2556
##법	2557
##ల	2558
##్	2559
##ị	2560
##✋	2561
##थ	2562
##🇲	2563
##ো	2564
##ŋ	2565
##ታ	2566
##ݛ	2567
##직	2568
##해	2569
##져	2570
##요	2571
##ћ	2572
##😝	2573
##න	2574
##්	2575
##ව	2576
##ශ	2577
##ය	2578
##ෙ	2579
##『	2580
##च	2581
##シ	2582
##ュ	2583
##ト	2584
##ー	2585
##🔞	2586
##🌿	2587
##🏹	2588
##❥	2589
##😄	2590
##【	2591
##ṃ	2592
##ḭ	2593
##ṝ	2594
##ă	2595
##వ	2596
##。	2597
##↓	2598
##ΐ	2599
##ɞ	2600
##չ	2601
##պ	2602
##॒	2603
##蝶	2604
##葬	2605
##花	2606
##☛	2607
##🍩	2608
##%	2609
##🌹	2610
##💐	2611
##♬	2612
##♩	2613
##ց	2614
##ք	2615
##վ	2616
##ը	2617
##✅	2618
##·	2619
##κ	2620
##ۜ	2621
##ƛ	2622
##ƴ	2623
##ɲ	2624
##ი	2625
##ნ	2626
##დ	2627
##უ	2628
##რ	2629
##ᄒ	2630
##ۼ	2631
##ે	2632
##📛	2633
##ą	2634
##ŧ	2635
##╦	2636
##ъ	2637
##খ	2638
##ኝ	2639
##↯	2640
##ஐ	2641
##ᓘ	2642
##ᓆ	2643
##💍	2644
##ქ	2645
##მ	2646
##ს	2647
##໑	2648
##ፈ	2649
##ል	2650
##ጋ	2651
##양	2652
##할	2653
##시	2654
##ה	2655
##ם	2656
##○	2657
##ұ	2658
##ể	2659
##ĺ	2660
##力	2661
##æ	2662
##۪	2663
##ụ	2664
##😯	2665
##ത	2666
##പ	2667
##ങ	2668
##ള	2669
##٫	2670
##̌	2671
##ϋ	2672
##ϟ	2673
##ಂ	2674
##ಧ	2675
##ß	2676
##ツ	2677
##🥀	2678
##ਈ	2679
##💓	2680
##🎈	2681
##🤠	2682
##◈	2683
##🖕	2684
##٬	2685
##ש	2686
##ܪ	2687
##ܵ	2688
##⊙	2689
##🍷	2690
##ϻ	2691
##͠	2692
##😎	2693
##ג	2694
##ි	2695
##ල	2696
##ๅ	2697
##ހ	2698
##હ	2699
##ર	2700
##🏭	2701
##ฮ	2702
##ṭ	2703
##φ	2704
##💚	2705
##आ	2706
##¿	2707
##・	2708
##∀	2709
##ᴀ	2710
##ɴ	2711
##ጠ	2712
##ይ	2713
##ዎ	2714
##ᓅ	2715
##♓	2716
##ɕ	2717
##π	2718
##🇦	2719
##ך	2720
##🕌	2721
##🌷	2722
##🌜	2723
##雨	2724
##ơ	2725
##ỹ	2726
##❔	2727
##😵	2728
##🎻	2729
##≯	2730
##ট	2731
##࣪	2732
##ð	2733
##각	2734
##형	2735
##ੰ	2736
##ਜ	2737
##ਬ	2738
##ੀ	2739
##ŭ	2740
##ƒ	2741
##ȅ	2742
##🤧	2743
##🔫	2744
##ٜ	2745
##ܢ	2746
##ᅲ	2747
##′	2748
##🇧	2749
##۽	2750
##ओ	2751
##డ	2752
##լ	2753
##😃	2754
##🌚	2755
##©	2756
##↣	2757
##☻	2758
##♉	2759
##💦	2760
##🍻	2761
##정	2762
##에	2763
##서	2764
##👀	2765
##⚘	2766
##ა	2767
##ე	2768
##კ	2769
##თ	2770
##子	2771
##♌	2772
##≧	2773
##∇	2774
##≦	2775
##ા	2776
##થ	2777
##♍	2778
##ٟ	2779
##ో	2780
##ݦ	2781
##₦	2782
##ᭁ	2783
##►	2784
##👆	2785
##✷	2786
##😆	2787
##☚	2788
##🇷	2789
##📑	2790
##🖤	2791
##◦	2792
##ढ	2793
##પ	2794
##ડ	2795
##͛	2796
##⭐	2797
##☹	2798
##😠	2799
##🐠	2800
##🎨	2801
##🖼	2802
##ʔ	2803
##🇵	2804
##ҽ	2805
##ż	2806
##ĥ	2807
##ď	2808
##▂	2809
##𐭦	2810
##𐭣	2811
##𐭪	2812
##ڐ	2813
##⇡	2814
##➟	2815
##ĸ	2816
##̅	2817
##ን	2818
##ድ	2819
##ሂ	2820
##₩	2821
##리	2822
##🇸	2823
##ڟ	2824
##😜	2825
##😏	2826
##ᬼ	2827
##←	2828
##ở	2829
##ḑ	2830
##§	2831
##ṛ	2832
##마	2833
##나	2834
##្	2835
##ន	2836
##ំ	2837
##ព	2838
##េ	2839
##ញ	2840
##०	2841
##♦	2842
##◕	2843
##𓆪	2844
##ꪆ	2845
##ছ	2846
##๑	2847
##≈	2848
##↝	2849
##♡	2850
##̋	2851
##迪	2852
##ল	2853
##ব	2854
##স	2855
##一	2856
##篇	2857
##🤤	2858
##😀	2859
##อ	2860
##ȋ	2861
##ዴ	2862
##\	2863
##◉	2864
##𓆩	2865
##చ	2866
##ే	2867
##స	2868
##😹	2869
##😻	2870
##̖	2871
##́	2872
##▶	2873
##✘	2874
##금	2875
##만	2876
##®	2877
##ム	2878
##刀	2879
##ノ	2880
##の	2881
##■	2882
##着	2883
##屋	2884
##😿	2885
##ঔ	2886
##機	2887
##詞	2888
##彙	2889
##🎥	2890
##ላ	2891
##ጎ	2892
##ት	2893
##ݢ	2894
##╝	2895
##ș	2896
##ٙ	2897
##ਿ	2898
##ਧ	2899
##斯	2900
##ধ	2901
##ꫀ	2902
##ꪝ	2903
##£	2904
##ञ	2905
##◊	2906
##🔸	2907
##↷	2908
##🏽	2909
##😐	2910
##ጣ	2911
##ም	2912
##⠀	2913
##🕊	2914
##ピ	2915
##タ	2916
##サ	2917
##イ	2918
##エ	2919
##ス	2920
##ੈ	2921
##٪	2922
##༅	2923
##👧	2924
##👊	2925
##ň	2926
##ٯ	2927
##🤎	2928
##지	2929
##효	2930
##要	2931
##多	2932
##少	2933
##钱	2934
##❣	2935
##ǿ	2936
##ṁ	2937
##◣	2938
##ਰ	2939
##ੋ	2940
##↤	2941
##هه	2942
##ان	2943
جي	2944
##هههه	2945
##ري	2946
##هي	2947
##هن	2948
##ين	2949
##ون	2950
آهي	2951
##ار	2952
##يو	2953
##ائ	2954
کي	2955
ان	2956
##ال	2957
جو	2958
##ــ	2959
##ور	2960
##ند	2961
ته	2962
##هههههههه	2963
اس	2964
##لي	2965
تي	2966
##ام	2967
##نهن	2968
##اء	2969
##جي	2970
##يا	2971
##ئي	2972
هڪ	2973
اه	2974
ڪري	2975
##اڻ	2976
##دي	2977
کان	2978
لاء	2979
به	2980
سان	2981
##تي	2982
نه	2983
##اري	2984
ڪر	2985
ههههههههه	2986
هن	2987
ٿي	2988
اي	2989
##رو	2990
##ائي	2991
##اب	2992
ال	2993
هو	2994
تو	2995
##دا	2996
آهن	2997
##ير	2998
ڪرڻ	2999
##يڪ	3000
##لا	3001
يا	3002
ٿو	3003
اسان	3004
پي	3005
##هان	3006
اهو	3007
##ني	3008
جيڪ	3009
##دو	3010
لاءِ	3011
##ست	3012
مو	3013
##هر	3014
##ــــ	3015
ڪي	3016
##مي	3017
##ول	3018
##نهنجي	3019
##ءَ	3020
سگ	3021
پر	3022
هي	3023
توهان	3024
من	3025
ڪيو	3026
مان	3027
مون	3028
##سي	3029
##را	3030
##ائين	3031
##ڏهن	3032
جا	3033
##يل	3034
پو	3035
##ات	3036
##قي	3037
##جو	3038
##نگ	3039
وا	3040
ڪند	3041
##لو	3042
مع	3043
##قت	3044
ٿا	3045
ما	3046
رو	3047
ڪو	3048
بي	3049
ئي	3050
ههههه	3051
وي	3052
##اني	3053
##اهي	3054
مي	3055
وڌ	3056
##ڙي	3057
سو	3058
ڪم	3059
##اد	3060
##از	3061
او	3062
##ھن	3063
پنهنجي	3064
##هو	3065
##ڪي	3066
##اي	3067
##ھي	3068
##رف	3069
رهي	3070
##رين	3071
ويو	3072
##له	3073
##شن	3074
##سٽ	3075
انهن	3076
طور	3077
است	3078
##ههه	3079
سڀ	3080
##ئن	3081
##اص	3082
گه	3083
##بر	3084
وڃ	3085
##ورت	3086
ههههههههههههه	3087
##بي	3088
سي	3089
##اس	3090
##اف	3091
##ٽي	3092
خو	3093
##اڻي	3094
##اڪ	3095
##مت	3096
##گر	3097
مل	3098
ڏين	3099
سم	3100
##اا	3101
مح	3102
په	3103
##عم	3104
بر	3105
##ءِ	3106
ماڻ	3107
##گي	3108
##ڏي	3109
##ئين	3110
وين	3111
وڌيڪ	3112
هون	3113
وقت	3114
في	3115
سال	3116
##ٽر	3117
ڪج	3118
##ارو	3119
##مل	3120
هر	3121
اين	3122
در	3123
##سم	3124
##ها	3125
##کي	3126
##الي	3127
ڇا	3128
##ڙو	3129
گهر	3130
##عي	3131
##در	3132
ور	3133
##چي	3134
20	3135
##تر	3136
سند	3137
جن	3138
##نيا	3139
شي	3140
ڏي	3141
آھي	3142
اڳ	3143
سر	3144
جنهن	3145
مر	3146
تر	3147
##عمال	3148
ام	3149
مش	3150
استعمال	3151
تع	3152
مس	3153
##صو	3154
##ائڻ	3155
ڪئي	3156
##خت	3157
اهي	3158
لا	3159
##يت	3160
ڪن	3161
سن	3162
واري	3163
ڳال	3164
تائين	3165
##دار	3166
هئي	3167
جيڪو	3168
ڪنهن	3169
گڏ	3170
##بو	3171
نظ	3172
##اه	3173
لي	3174
##لام	3175
ڪريو	3176
اها	3177
##وي	3178
ڪجهه	3179
##ڻي	3180
ها	3181
##يم	3182
##ائن	3183
چيو	3184
بس	3185
مق	3186
ٿين	3187
##فت	3188
جڏهن	3189
نو	3190
##لم	3191
سگهي	3192
ڏينهن	3193
##تو	3194
سا	3195
##ندي	3196
وڃي	3197
رک	3198
جيڪي	3199
تم	3200
ڊي	3201
ههههههههههههههههه	3202
##سو	3203
##زي	3204
##ٺي	3205
##رح	3206
مط	3207
پوءِ	3208
حاص	3209
##ئر	3210
##ڪن	3211
منهنجي	3212
##ارن	3213
انهي	3214
دو	3215
با	3216
لڳ	3217
حاصل	3218
##نهنجو	3219
##نا	3220
از	3221
##سان	3222
ضر	3223
ٻڌ	3224
اع	3225
سندس	3226
##جود	3227
##ڪر	3228
##ڪو	3229
اح	3230
ٽي	3231
جيڪڏهن	3232
شا	3233
پاڻ	3234
تح	3235
##في	3236
##جن	3237
اص	3238
##ثر	3239
##ــــــــ	3240
علي	3241
##ايو	3242
##روع	3243
هئ	3244
##هم	3245
ڪا	3246
پن	3247
تمام	3248
شروع	3249
##ٿي	3250
ناهي	3251
الله	3252
##ندو	3253
##ئون	3254
ڇو	3255
گھ	3256
##ڪل	3257
ڪار	3258
##ڻو	3259
##اح	3260
فر	3261
باب	3262
##بت	3263
پرو	3264
تون	3265
##بل	3266
دنيا	3267
ههههههه	3268
ههههههههههه	3269
صح	3270
چي	3271
جون	3272
ٿيو	3273
رهيو	3274
ري	3275
##شي	3276
سمج	3277
##مين	3278
زند	3279
##ولي	3280
##ـــ	3281
##ھان	3282
اُ	3283
##نو	3284
مد	3285
##نڊ	3286
##ڪار	3287
انت	3288
يع	3289
وٽ	3290
##in	3291
##er	3292
آر	3293
وئي	3294
ڇڏ	3295
ٻي	3296
دل	3297
مت	3298
دور	3299
عل	3300
##تم	3301
وڏي	3302
##امل	3303
##دڙ	3304
ماڻهو	3305
ني	3306
اخ	3307
##ائون	3308
##ده	3309
نم	3310
عم	3311
تب	3312
ضرورت	3313
##من	3314
لک	3315
مخت	3316
##ڪا	3317
لو	3318
ويندو	3319
سب	3320
آم	3321
##الو	3322
مار	3323
صرف	3324
پيدا	3325
##ٺو	3326
19	3327
پار	3328
پڻ	3329
ويا	3330
نا	3331
پيش	3332
##اهر	3333
آخ	3334
موجود	3335
چو	3336
چون	3337
##انهن	3338
##امي	3339
##ستان	3340
##لف	3341
##اءِ	3342
خاص	3343
تن	3344
##ڪس	3345
##00	3346
ڪڏهن	3347
اچي	3348
##فر	3349
ٿيڻ	3350
زندگي	3351
##عو	3352
##دن	3353
جه	3354
وڏ	3355
طرف	3356
ڏس	3357
201	3358
##لب	3359
ڪيئن	3360
##ڪري	3361
را	3362
ڪندو	3363
##پي	3364
وال	3365
ڪه	3366
جيئن	3367
بابت	3368
سڀني	3369
##يني	3370
ڪت	3371
چاهي	3372
ماڻهن	3373
پڙ	3374
##عد	3375
##جا	3376
##ھو	3377
طري	3378
طرح	3379
##وري	3380
ڪمپ	3381
عمل	3382
##وو	3383
##مان	3384
##on	3385
تنهن	3386
شامل	3387
##هڻ	3388
##ران	3389
ٻئي	3390
سنڌ	3391
##صي	3392
غير	3393
يو	3394
هههههههههه	3395
##فا	3396
عام	3397
بل	3398
مختلف	3399
اڄ	3400
هههههههه	3401
يعني	3402
اڪ	3403
ڪيتر	3404
گهٽ	3405
ڪندا	3406
##ar	3407
وارو	3408
وان	3409
##ندا	3410
هئا	3411
هل	3412
هم	3413
ار	3414
گذ	3415
خي	3416
خبر	3417
اد	3418
ون	3419
اج	3420
بڻ	3421
آهيان	3422
نظر	3423
قسم	3424
##ندڙ	3425
##شت	3426
جم	3427
حال	3428
تج	3429
##كم	3430
قي	3431
ڳالهه	3432
سائي	3433
مڪ	3434
مدد	3435
رهيا	3436
مث	3437
##لس	3438
واق	3439
حقي	3440
نن	3441
##پور	3442
##رن	3443
هوندي	3444
دا	3445
قو	3446
ڏانهن	3447
شاي	3448
رس	3449
ٻن	3450
ڪندي	3451
وار	3452
اندر	3453
آمري	3454
هههههههههههه	3455
گهرجي	3456
واپ	3457
##بن	3458
اسٽ	3459
##طي	3460
ڪتاب	3461
##اتي	3462
هوندو	3463
##دم	3464
##قو	3465
گر	3466
آئون	3467
ڪندڙ	3468
نق	3469
پس	3470
تاري	3471
آهيون	3472
ڏيڻ	3473
جيڪا	3474
اچ	3475
ياد	3476
##ريون	3477
##ٽن	3478
ذري	3479
وچ	3480
ٻين	3481
##ڊيو	3482
ٿيل	3483
تاريخ	3484
سيا	3485
ھڪ	3486
پا	3487
##وني	3488
##an	3489
پاڪ	3490
مڪمل	3491
عورت	3492
جواب	3493
پري	3494
##ذا	3495
##اند	3496
##ترين	3497
ايس	3498
##ضي	3499
وري	3500
##وا	3501
ايم	3502
دي	3503
بين	3504
نئين	3505
آز	3506
تق	3507
انا	3508
##هين	3509
سبب	3510
فائ	3511
نالو	3512
آن	3513
##ڳو	3514
شهر	3515
فو	3516
کيس	3517
##ڙا	3518
##سين	3519
##ما	3520
##لن	3521
سگه	3522
بعد	3523
##es	3524
اپ	3525
##فظ	3526
ملڪ	3527
بد	3528
يق	3529
گهڻو	3530
ات	3531
##ورو	3532
بنيا	3533
##اااا	3534
هاڻي	3535
هتي	3536
##بار	3537
##شش	3538
پهرين	3539
##سن	3540
اف	3541
اهڙي	3542
تبدي	3543
ملي	3544
##ٽو	3545
##زار	3546
ختم	3547
##مو	3548
ههههههههههههههه	3549
##افي	3550
##تن	3551
##لاح	3552
##ٽا	3553
هههههه	3554
پنهنجو	3555
بند	3556
اڃ	3557
##رت	3558
آھن	3559
10	3560
سيڪ	3561
يون	3562
سگهو	3563
پيو	3564
۾،	3565
ٿيندو	3566
اهم	3567
اسڪ	3568
مسئ	3569
انگ	3570
سالن	3571
شايد	3572
##ادي	3573
##ڪيٽ	3574
ڇڏيو	3575
جان	3576
##زن	3577
ڏا	3578
ڪون	3579
##ڊي	3580
ادا	3581
فون	3582
رهن	3583
شو	3584
##شه	3585
##at	3586
ڪل	3587
ڏئي	3588
ٿئي	3589
هههههههههههههه	3590
وڏو	3591
شر	3592
وٺ	3593
ڇڏي	3594
هيٺ	3595
انسان	3596
ائين	3597
ـــــــــ	3598
خر	3599
دوست	3600
هٿ	3601
خلا	3602
عر	3603
##روري	3604
بح	3605
سام	3606
ايپ	3607
##اجي	3608
ويب	3609
##عت	3610
خط	3611
خيال	3612
##or	3613
##جب	3614
##خل	3615
##ضح	3616
##يان	3617
ڏنو	3618
##en	3619
آئي	3620
اسلام	3621
عليه	3622
بهترين	3623
صورت	3624
نٿ	3625
گو	3626
##ضو	3627
منهنجو	3628
ٻه	3629
##اءُ	3630
آيو	3631
حق	3632
اتي	3633
قيمت	3634
سگهن	3635
##لوم	3636
مطلب	3637
قان	3638
ڀي	3639
هجي	3640
وٺي	3641
##قل	3642
##ارف	3643
سوال	3644
رات	3645
اوهان	3646
ٺاهي	3647
معي	3648
ٻيو	3649
ڪمپني	3650
##به	3651
سين	3652
ويندي	3653
قر	3654
پئي	3655
بو	3656
پڇ	3657
وس	3658
خدا	3659
##وار	3660
ڪوشش	3661
##يح	3662
خوش	3663
پوء	3664
وانگر	3665
##پورٽ	3666
آهيو	3667
##پو	3668
مال	3669
##ءُ	3670
##ريل	3671
ذريعي	3672
##اج	3673
ڪيا	3674
امي	3675
##سوس	3676
in	3677
ڄاڻ	3678
ڪارو	3679
##سر	3680
حل	3681
فار	3682
ٽيڪ	3683
##ليم	3684
مخ	3685
##ur	3686
ڳو	3687
توھان	3688
صحيح	3689
آخر	3690
ٻار	3691
##مبر	3692
##مد	3693
ڪيل	3694
سوچ	3695
##جڻ	3696
رنگ	3697
##هور	3698
##فو	3699
##يرا	3700
##ڊر	3701
##ھنجي	3702
##al	3703
##حد	3704
غل	3705
منهن	3706
بچ	3707
بن	3708
حقيقت	3709
پاڻي	3710
لفظ	3711
تص	3712
تصو	3713
##عا	3714
معلوم	3715
سائيٽ	3716
##ريد	3717
هنن	3718
##يور	3719
مض	3720
ڏسي	3721
جل	3722
مم	3723
جاري	3724
##با	3725
اوھان	3726
شك	3727
قاب	3728
اڃا	3729
ترقي	3730
اک	3731
="	3732
والله	3733
##صر	3734
دوران	3735
ننڍ	3736
روز	3737
فيص	3738
انتظ	3739
خد	3740
هههههههههههههههه	3741
##اهه	3742
ڪان	3743
بال	3744
##ro	3745
##شان	3746
آب	3747
حڪو	3748
اصل	3749
ولا	3750
عال	3751
سڄ	3752
##ڊيا	3753
مٿ	3754
ھن	3755
##۔۔	3756
ضروري	3757
صف	3758
گھر	3759
##سل	3760
ڪيترن	3761
حڪ	3762
صاح	3763
##ساني	3764
اسين	3765
منظ	3766
اثر	3767
چين	3768
##لق	3769
ظاهر	3770
پاڪستان	3771
سفر	3772
جتي	3773
st	3774
مواد	3775
حصو	3776
##ورن	3777
ٻاهر	3778
##it	3779
لڳي	3780
علائ	3781
فق	3782
بهتر	3783
اول	3784
سندن	3785
رکي	3786
علا	3787
پون	3788
ساڳ	3789
پيار	3790
ءَ	3791
الم	3792
هُ	3793
اٿ	3794
ين	3795
مارڪيٽ	3796
ڪام	3797
عمر	3798
حڪومت	3799
مٿي	3800
##داز	3801
##باني	3802
پنهن	3803
##كن	3804
ـــــ	3805
ڪيت	3806
پهريون	3807
محسوس	3808
##ائم	3809
##le	3810
ڪجھ	3811
##خص	3812
عي	3813
مج	3814
آسان	3815
گرا	3816
مست	3817
هوندا	3818
الس	3819
مطاب	3820
آمريڪا	3821
اسپ	3822
تبديل	3823
جنگ	3824
مهي	3825
بيان	3826
صلاح	3827
ڏسڻ	3828
اھو	3829
رد	3830
ٿيون	3831
تصوير	3832
##ليل	3833
ڏني	3834
حو	3835
مثال	3836
سک	3837
على	3838
##ضوع	3839
ريا	3840
مز	3841
صاحب	3842
؟"	3843
چار	3844
لائن	3845
قب	3846
سه	3847
فرا	3848
ملا	3849
چه	3850
##جه	3851
وارا	3852
معيار	3853
خلاف	3854
تنهنجي	3855
##لان	3856
جسم	3857
پهچ	3858
##ستي	3859
##ظيم	3860
آف	3861
پئ	3862
طرفان	3863
##حي	3864
خريد	3865
##اپ	3866
##ic	3867
خدمت	3868
اڻ	3869
رڳو	3870
##ڙن	3871
ڳاله	3872
خود	3873
co	3874
##ازي	3875
تان	3876
##ڏھن	3877
##داد	3878
عو	3879
ٿيندي	3880
سگهجي	3881
##ميشه	3882
رکڻ	3883
اب	3884
اختي	3885
##تا	3886
شع	3887
راند	3888
زمين	3889
##ائل	3890
هوءَ	3891
ھو	3892
##كت	3893
دست	3894
##رم	3895
تجر	3896
اش	3897
الي	3898
##يي	3899
##قا	3900
حلو	3901
ڏک	3902
##ارت	3903
##صد	3904
##گرام	3905
##ياتي	3906
تيار	3907
ڏيک	3908
ھي	3909
قانون	3910
قدر	3911
سچ	3912
##دين	3913
شخص	3914
تف	3915
پيا	3916
##ايت	3917
##ٽرو	3918
ايران	3919
ڊيٽا	3920
دف	3921
واپس	3922
ڏاڍ	3923
سپ	3924
##ائر	3925
##اڪاڻ	3926
##داري	3927
##ديد	3928
ڇاڪاڻ	3929
##ڪرو	3930
انداز	3931
پيداوار	3932
بخ	3933
پسند	3934
##ِي	3935
عن	3936
ڏيو	3937
مين	3938
برا	3939
الح	3940
منت	3941
نتي	3942
مص	3943
آيا	3944
قابل	3945
چونڊ	3946
##سٽم	3947
##ٽل	3948
##ائو	3949
مشهور	3950
شين	3951
اعلي	3952
ڪيترائي	3953
شه	3954
کا	3955
##انو	3956
##ڪٽ	3957
##ره	3958
انهيءَ	3959
##تل	3960
15	3961
مونکي	3962
نظام	3963
هميشه	3964
تقري	3965
18	3966
##st	3967
اجاز	3968
بلا	3969
نيو	3970
##بان	3971
##ينڊ	3972
صن	3973
داخل	3974
آپ	3975
توکي	3976
تا	3977
چوڻ	3978
ڊگ	3979
##ڪاري	3980
موق	3981
##هون	3982
##غير	3983
ٻنهي	3984
صارف	3985
##دس	3986
طا	3987
بار	3988
اجازت	3989
مهر	3990
##مون	3991
##اسب	3992
پلي	3993
an	3994
آء	3995
يقين	3996
باري	3997
##ing	3998
شاع	3999
وز	4000
آو	4001
خوب	4002
الا	4003
حس	4004
پاس	4005
وارن	4006
ڏٺو	4007
سٺو	4008
سڏ	4009
هذا	4010
پير	4011
ههههههههههههههههههه	4012
##ڌو	4013
##يون	4014
جيتو	4015
##ڻيڪ	4016
نٿو	4017
بنيادي	4018
جيتوڻيڪ	4019
##قن	4020
واقعي	4021
مري	4022
##ڪيشن	4023
؟؟	4024
تحقي	4025
##اسين	4026
##فوظ	4027
وڃڻ	4028
راب	4029
ڊو	4030
سرو	4031
نف	4032
محفوظ	4033
##ذه	4034
##زا	4035
آه	4036
##ed	4037
کانپو	4038
200	4039
لائ	4040
##اھ	4041
نئون	4042
موضوع	4043
##يات	4044
12	4045
نگ	4046
طاقت	4047
##ڌي	4048
موڪل	4049
كل	4050
قائم	4051
يور	4052
##رر	4053
ڪلا	4054
ٽيڪن	4055
مُ	4056
##انن	4057
##نت	4058
ڪونه	4059
آواز	4060
ڏن	4061
ابو	4062
هههه	4063
گراه	4064
هههههههههههههههههه	4065
پروگرام	4066
هيو	4067
##ريڪ	4068
ڪاميا	4069
ڪير	4070
##ميت	4071
##id	4072
##et	4073
ڄڻ	4074
يه	4075
تعليم	4076
حد	4077
ره	4078
اسلامي	4079
کڻي	4080
##آآ	4081
##سپ	4082
ايڪس	4083
##وٽ	4084
سمجهي	4085
معلومات	4086
ڳول	4087
شيء	4088
حض	4089
سائين	4090
##ياري	4091
شادي	4092
ايت	4093
هجڻ	4094
حڪم	4095
##ڙهي	4096
تحقيق	4097
##خوا	4098
سخت	4099
ميل	4100
اسٽي	4101
ويندا	4102
محبت	4103
آخري	4104
ڪور	4105
##صل	4106
سگھ	4107
گرو	4108
اك	4109
اميد	4110
هاي	4111
اڪثر	4112
مطابق	4113
پنھنجي	4114
خراب	4115
##هار	4116
مقصد	4117
اسڪول	4118
منصو	4119
##am	4120
حي	4121
ڀر	4122
##ضحك	4123
##اريو	4124
فراهم	4125
روح	4126
نام	4127
نالي	4128
جڳ	4129
آزاد	4130
##خواست	4131
##ac	4132
کانپوءِ	4133
درخواست	4134
حالت	4135
سط	4136
زم	4137
##وه	4138
که	4139
انساني	4140
##يڪل	4141
معا	4142
##ٽري	4143
سگھي	4144
غلط	4145
##ڻڻ	4146
ٻارن	4147
سيڪڙو	4148
حم	4149
لاز	4150
##دال	4151
ڊاڪ	4152
چڪو	4153
انگري	4154
##سٽر	4155
مفت	4156
خان	4157
##ليس	4158
سڃ	4159
نس	4160
چڱ	4161
پور	4162
آهين	4163
گهڻي	4164
ٻيهر	4165
##art	4166
احس	4167
فقط	4168
##ارين	4169
11	4170
پٽ	4171
ڪمي	4172
آفي	4173
th	4174
سون	4175
##دگي	4176
سڄي	4177
ڪپ	4178
ٿيا	4179
رج	4180
پنج	4181
اض	4182
ڪهڙي	4183
ــ	4184
##رفت	4185
سائن	4186
انٽر	4187
ٻولي	4188
to	4189
اختيار	4190
نقص	4191
فلم	4192
فيصلو	4193
##هائي	4194
##حا	4195
##ريان	4196
سياسي	4197
باقي	4198
##ion	4199
##ائش	4200
##ليڪيشن	4201
).	4202
##طو	4203
پاران	4204
سُ	4205
##گل	4206
طريقي	4207
ذهن	4208
جهڙو	4209
ٽو	4210
بنياد	4211
ڊر	4212
ٻڌايو	4213
اق	4214
ـــ	4215
نوجو	4216
هههههههههههههههههههه	4217
ڪافي	4218
تخ	4219
##بح	4220
ڪڍ	4221
مناسب	4222
30	4223
رست	4224
وسي	4225
ڊاڪٽر	4226
##سٽري	4227
202	4228
حر	4229
ورتو	4230
اڳتي	4231
سنگ	4232
اڳو	4233
اچڻ	4234
ايل	4235
مرڪ	4236
##ريو	4237
رق	4238
ٽر	4239
##ec	4240
##el	4241
عالمي	4242
فن	4243
سطح	4244
نش	4245
قدم	4246
##ow	4247
##كر	4248
##مار	4249
مقاب	4250
رياست	4251
آءٌ	4252
ڏسو	4253
کول	4254
شيون	4255
شاگر	4256
ايندڙ	4257
ميڊيا	4258
ملڪن	4259
100	4260
کين	4261
وڊيو	4262
ممڪن	4263
کن	4264
مه	4265
پل	4266
ڳوٺ	4267
طب	4268
دلچ	4269
ڪٿي	4270
تس	4271
اون	4272
ست	4273
##ٽس	4274
نقصان	4275
ده	4276
مرح	4277
علم	4278
ويج	4279
خوبص	4280
تش	4281
##ٽنگ	4282
##دارن	4283
ائ	4284
##دان	4285
##زر	4286
ٽن	4287
اڪائون	4288
۔۔۔	4289
اُن	4290
ڪاروبار	4291
##ورڊ	4292
##طن	4293
ترتي	4294
السلام	4295
فع	4296
ضرور	4297
مهرباني	4298
گي	4299
##الاجي	4300
واحد	4301
چاهيو	4302
فارم	4303
آمريڪي	4304
##is	4305
##گار	4306
##ائيل	4307
جدا	4308
انج	4309
##il	4310
سلام	4311
مسلم	4312
##خخ	4313
ذاتي	4314
##جر	4315
##us	4316
له	4317
ڪيون	4318
شروعات	4319
پڪ	4320
##عه	4321
عب	4322
وج	4323
گهڻ	4324
ٽيڪنالاجي	4325
##گو	4326
##as	4327
اعلان	4328
##مم	4329
اصلي	4330
ترتيب	4331
مضمون	4332
لاڳ	4333
تڪ	4334
##عن	4335
##فتي	4336
هفت	4337
صحت	4338
صدر	4339
##هيل	4340
انھن	4341
نمبر	4342
حقيقي	4343
وڻ	4344
##re	4345
تعلق	4346
##يد	4347
مسئلو	4348
انٽرني	4349
پيام	4350
تڏهن	4351
موت	4352
مطال	4353
سسٽم	4354
رفت	4355
صو	4356
بڻجي	4357
##پر	4358
##سٽي	4359
##ڪت	4360
تعم	4361
##ڪشن	4362
14	4363
ايئر	4364
كم	4365
##ay	4366
هين	4367
حير	4368
ٽيم	4369
لوڊ	4370
##شل	4371
##اندي	4372
گل	4373
##اهڻ	4374
##چر	4375
هنڌ	4376
رپورٽ	4377
##ڊل	4378
13	4379
فل	4380
هاڻ	4381
ڊائون	4382
رح	4383
اني	4384
##فاظ	4385
ڌر	4386
##يندا	4387
يار	4388
هلي	4389
گوگل	4390
يونيور	4391
سٺي	4392
مذه	4393
##زو	4394
بج	4395
ماح	4396
عورتن	4397
سنڌي	4398
پوري	4399
گفت	4400
ڏنل	4401
ڳن	4402
دير	4403
تك	4404
##صوص	4405
##اط	4406
##مه	4407
##ريف	4408
شڪ	4409
قوم	4410
##احت	4411
نفس	4412
ماءُ	4413
چئي	4414
اِ	4415
وض	4416
ڪجي	4417
ايه	4418
وڃن	4419
طريقو	4420
اھ	4421
قل	4422
مشين	4423
ايپليڪيشن	4424
سامان	4425
##الر	4426
##ستائين	4427
هيون	4428
سماجي	4429
##ex	4430
##ئل	4431
حضرت	4432
ڪردار	4433
اط	4434
لك	4435
##oo	4436
لڳو	4437
<<	4438
پوليس	4439
رھ	4440
زي	4441
لکڻ	4442
تعمير	4443
پيغ	4444
ٺاهڻ	4445
ڏيکاري	4446
جديد	4447
دري	4448
ڪيس	4449
##ٽرول	4450
حفاظ	4451
پورو	4452
##ريب	4453
احساس	4454
آپري	4455
##هوري	4456
ڪين	4457
قومي	4458
ول	4459
گذريل	4460
جذ	4461
خوبصورت	4462
سروس	4463
سار	4464
##سا	4465
##حت	4466
جيت	4467
موب	4468
##الا	4469
معني	4470
ڪهاڻي	4471
مرد	4472
متا	4473
علاج	4474
##ورا	4475
">	4476
ڪرا	4477
بلڪل	4478
حصي	4479
##زم	4480
##اتو	4481
پارٽي	4482
واضح	4483
##ائيڊ	4484
مساف	4485
تيز	4486
الع	4487
عملي	4488
اخت	4489
تبديلي	4490
اڪائونٽ	4491
روش	4492
پوندو	4493
dur	4494
##ظم	4495
وڌي	4496
نڪ	4497
پاسي	4498
start	4499
##بوط	4500
آگ	4501
بت	4502
حص	4503
خاند	4504
25	4505
وش	4506
ڀيرو	4507
##ديق	4508
اکين	4509
##ڪان	4510
##شم	4511
گراهڪن	4512
16	4513
##ائيندو	4514
ڪاري	4515
نٿا	4516
ڪوبه	4517
حوالي	4518
##ديم	4519
ميمبر	4520
موجب	4521
خير	4522
##ڏو	4523
وٺڻ	4524
سج	4525
ٻيا	4526
آزادي	4527
صلاحيت	4528
موجوده	4529
صبح	4530
سلس	4531
عوام	4532
يورپ	4533
ايف	4534
باد	4535
صاف	4536
لن	4537
##ارڊ	4538
پڙهي	4539
مٿان	4540
##ميو	4541
عظيم	4542
قبول	4543
##وت	4544
گھٽ	4545
ھڪڙو	4546
جلد	4547
##ئو	4548
گڏيل	4549
##ابي	4550
ضح	4551
وق	4552
ڏيندو	4553
هند	4554
17	4555
##زل	4556
##ريم	4557
محمد	4558
عند	4559
##زائن	4560
مقرر	4561
##يب	4562
تعداد	4563
شرح	4564
##حان	4565
اعت	4566
نوجوان	4567
##يندو	4568
##ـــــ	4569
بيش	4570
رقم	4571
##ٽڻ	4572
##ڪڻ	4573
ترج	4574
لازمي	4575
اهڙو	4576
رهڻ	4577
سرگر	4578
##خي	4579
پڙهڻ	4580
آرٽ	4581
حت	4582
ڪنٽرول	4583
خرچ	4584
انتظار	4585
شان	4586
نيٽ	4587
لان	4588
##لاس	4589
##ad	4590
ولي	4591
##ٺيان	4592
سل	4593
##ارڻ	4594
مير	4595
ههه	4596
##ot	4597
پوسٽ	4598
سواءِ	4599
زين	4600
مضبوط	4601
هيءَ	4602
>>	4603
##رار	4604
مهيا	4605
##ولت	4606
نموني	4607
متاثر	4608
##ٺا	4609
ڪهڙو	4610
زندگيءَ	4611
يونيورسٽي	4612
تہ	4613
راندي	4614
ايو	4615
ديو	4616
چا	4617
آفيس	4618
اَ	4619
تاز	4620
هه	4621
انسٽ	4622
ڌيان	4623
##انس	4624
ڪريان	4625
خوشي	4626
##ھين	4627
##ائيو	4628
عدال	4629
##وڙ	4630
##رات	4631
صنعت	4632
بع	4633
احت	4634
ڀا	4635
ذڪر	4636
پنهنجن	4637
وزير	4638
مڙ	4639
پهچي	4640
##وز	4641
خواب	4642
##ارا	4643
جھ	4644
##شنل	4645
بينڪ	4646
انگريزي	4647
آباد	4648
سف	4649
وه	4650
##um	4651
رکيو	4652
لاڳاپ	4653
ڪئين	4654
ذميو	4655
برط	4656
##آن	4657
##ئڻ	4658
##نس	4659
##سڪ	4660
ڪال	4661
##شق	4662
سگهون	4663
##حال	4664
خاصيت	4665
فائل	4666
##ol	4667
##دود	4668
براب	4669
##ڳي	4670
##دت	4671
##افت	4672
پھ	4673
منج	4674
فرق	4675
##ريا	4676
زال	4677
استاد	4678
وف	4679
رب	4680
پُ	4681
اوزار	4682
آرام	4683
##هيون	4684
روشني	4685
ڪئ	4686
مليو	4687
50	4688
يءَ	4689
واڌ	4690
جلدي	4691
ڪرڻو	4692
حفاظت	4693
ڪريون	4694
جمهوري	4695
جنھن	4696
##ثيت	4697
تصديق	4698
چم	4699
##اڻو	4700
بيم	4701
شيءِ	4702
وڪرو	4703
علاوه	4704
##گه	4705
and	4706
ڪارڪر	4707
علائقي	4708
وضاحت	4709
معام	4710
##افٽ	4711
ڪلڪ	4712
هزار	4713
ڪارڪردگي	4714
مهم	4715
گروپ	4716
سرڪاري	4717
ڪراچي	4718
هفتي	4719
رسائي	4720
جيڪڏھن	4721
ونڊ	4722
##نين	4723
گري	4724
##لع	4725
##يوٽر	4726
##ابت	4727
##دايت	4728
تنظيم	4729
نور	4730
حيثيت	4731
پهريان	4732
تنهنڪري	4733
ــــ	4734
ٺهيل	4735
ڪارڊ	4736
مالي	4737
پال	4738
##قبل	4739
گا	4740
جر	4741
##داشت	4742
##شر	4743
شكرا	4744
رستو	4745
فط	4746
تجربو	4747
##ext	4748
شم	4749
ملڪي	4750
موسم	4751
جهاز	4752
ندي	4753
##يه	4754
ماڊل	4755
ريل	4756
ھڪڙي	4757
نشان	4758
پڇيو	4759
سنڀ	4760
مف	4761
ادب	4762
جمع	4763
رفتار	4764
وائر	4765
##قات	4766
قتل	4767
لکي	4768
گم	4769
پليٽ	4770
##تان	4771
انڊ	4772
غلطي	4773
وجود	4774
ٿيندا	4775
##تال	4776
ميز	4777
##باد	4778
ايندو	4779
جائ	4780
ڪمپيوٽر	4781
جاءِ	4782
24	4783
آءِ	4784
##ou	4785
يم	4786
سيٽ	4787
ماهر	4788
تصور	4789
مڃ	4790
نوڪري	4791
ميو	4792
ليک	4793
پيغام	4794
مائ	4795
سائنس	4796
##os	4797
معاه	4798
##وف	4799
##لى	4800
انٽرنيٽ	4801
ريت	4802
هڪڙي	4803
لاڳو	4804
ڏاڍو	4805
لب	4806
اقت	4807
گرفت	4808
##ڀر	4809
##خر	4810
مستقبل	4811
شاعري	4812
جوڙ	4813
مجمو	4814
##امو	4815
##كل	4816
بحث	4817
re	4818
امت	4819
##مائي	4820
ماحول	4821
اھي	4822
ڪونهي	4823
ماني	4824
خواه	4825
al	4826
##مپ	4827
اصول	4828
##گري	4829
##ليف	4830
##ااا	4831
ڊالر	4832
دان	4833
شاء	4834
ڳالهيون	4835
ترين	4836
چر	4837
گرمي	4838
بخش	4839
اگر	4840
چند	4841
امير	4842
زور	4843
دٻ	4844
##شيا	4845
ويئي	4846
امام	4847
افغ	4848
##رحال	4849
حسين	4850
گرم	4851
ايمان	4852
ويون	4853
ٽران	4854
##ch	4855
##ھر	4856
لل	4857
انتي	4858
ٻڌي	4859
##دري	4860
پيرو	4861
##ائيندي	4862
ٽرين	4863
##باري	4864
يقيني	4865
وزن	4866
معم	4867
قط	4868
##ig	4869
اسڪرين	4870
بڻائي	4871
##ent	4872
##ونا	4873
دفعو	4874
اڳيان	4875
ٿيندڙ	4876
علام	4877
نسل	4878
##يلو	4879
ڪاميابي	4880
##گز	4881
سگهيو	4882
ابت	4883
اللي	4884
بنا	4885
ميڪ	4886
##َر	4887
خوف	4888
رهندو	4889
موبائل	4890
ٿورو	4891
##مر	4892
kn	4893
##پٽ	4894
صفح	4895
لکيو	4896
ڪامياب	4897
##اله	4898
##لات	4899
ڪوڊ	4900
##ub	4901
وڪ	4902
ڪُ	4903
دين	4904
؟؟؟	4905
تنهنجو	4906
ايترو	4907
##نٽ	4908
ورڪ	4909
منهنجا	4910
ڪندڙن	4911
سڃاڻ	4912
شڪل	4913
ماري	4914
سوشل	4915
199	4916
##قوامي	4917
ڊگهي	4918
شڪار	4919
سگھو	4920
انتظام	4921
بادش	4922
بورڊ	4923
قانوني	4924
برابر	4925
اظ	4926
ڳولي	4927
مب	4928
نمي	4929
##صيل	4930
بهرحال	4931
##لسل	4932
##ليت	4933
پيءُ	4934
ثق	4935
جيستائين	4936
مخصوص	4937
ثابت	4938
##انڊ	4939
##جيب	4940
##ياب	4941
##هندي	4942
سگهان	4943
الاقوامي	4944
آڪ	4945
حتى	4946
000	4947
##دد	4948
ايڊ	4949
صورتحال	4950
ناڪ	4951
##ميل	4952
مخال	4953
هيچ	4954
ساڻ	4955
##اوي	4956
زمان	4957
کانسو	4958
##بلي	4959
انقل	4960
صدي	4961
ڪاب	4962
##اڊ	4963
اهڙا	4964
عدالت	4965
اڌ	4966
متع	4967
ٺيڪ	4968
##ادت	4969
مقابلي	4970
سافٽ	4971
com	4972
افغان	4973
پاب	4974
گذاري	4975
طبي	4976
فور	4977
فلس	4978
وفا	4979
پوي	4980
خاندان	4981
وو	4982
چڪا	4983
بابا	4984
ٻو	4985
##ريز	4986
عرب	4987
رت	4988
نوٽ	4989
##كي	4990
##غيره	4991
خال	4992
هدايت	4993
برق	4994
دوستن	4995
##راني	4996
چونڊيو	4997
سياست	4998
زبان	4999
##لائي	5000
حالتن	5001
##ڇي	5002
هوس	5003
هڪڙو	5004
the	5005
سور	5006
عرصي	5007
تفصيل	5008
##ag	5009
##ارتي	5010
بق	5011
دار	5012
جهڙوڪ	5013
تخلي	5014
ايندي	5015
ڌرتي	5016
##وجود	5017
##ايان	5018
نص	5019
##ڙين	5020
زخ	5021
##لاق	5022
ch	5023
##om	5024
سمنڊ	5025
ڳالھ	5026
ing	5027
##وووو	5028
اڏ	5029
دعا	5030
درد	5031
سول	5032
نڪري	5033
##ذي	5034
##ائيٽ	5035
لفظن	5036
ڳنڍ	5037
اضافي	5038
2020	5039
كله	5040
توان	5041
ايپل	5042
مَ	5043
##قع	5044
##ter	5045
شاگردن	5046
خار	5047
شام	5048
کولڻ	5049
ساڳي	5050
مارڪيٽنگ	5051
الف	5052
ڳولا	5053
##اع	5054
تعلي	5055
ملاقات	5056
زماني	5057
##ائيندا	5058
##سنگ	5059
حساب	5060
حياتي	5061
##بري	5062
ملين	5063
فيس	5064
سوچيو	5065
##ap	5066
جڳهه	5067
ڊپ	5068
نٿي	5069
آسم	5070
لم	5071
باوجود	5072
فهر	5073
##رڪ	5074
##ختي	5075
بيماري	5076
فهرست	5077
know	5078
اٽ	5079
باز	5080
##اض	5081
##ايل	5082
بلاگ	5083
##ٽيو	5084
ملڻ	5085
40	5086
قد	5087
ويل	5088
##زيشن	5089
22	5090
##ٽين	5091
##th	5092
مختصر	5093
پنهنجا	5094
سيل	5095
ويجهو	5096
ڀلي	5097
چوي	5098
##ندر	5099
انف	5100
کو	5101
##هايو	5102
هال	5103
يس	5104
##کيون	5105
درو	5106
لائين	5107
##ماغ	5108
##انه	5109
ڇوڪري	5110
##ـي	5111
##ئس	5112
ڪنداسين	5113
فائدو	5114
منتقل	5115
2019	5116
مرا	5117
چڪي	5118
دماغ	5119
مهين	5120
نيوز	5121
لاڳاپيل	5122
آئين	5123
وڌائڻ	5124
##ائيس	5125
علائقن	5126
موسي	5127
ويئر	5128
موڪ	5129
ڪاروباري	5130
دع	5131
لڪ	5132
ميدان	5133
سمجھ	5134
##اااااااا	5135
##ريت	5136
چاهيندا	5137
شاعر	5138
عز	5139
سگھن	5140
شاندار	5141
شوي	5142
کر	5143
راندين	5144
21	5145
نڪر	5146
##يف	5147
مالڪ	5148
ڪلاڪ	5149
##خو	5150
عا	5151
جڏھن	5152
سنڀال	5153
فض	5154
##عظم	5155
کل	5156
درست	5157
اعتم	5158
ڇپ	5159
##سپي	5160
##تك	5161
##ارٽ	5162
رکو	5163
واس	5164
##اما	5165
پريشان	5166
پک	5167
انتهائي	5168
ٻڌائي	5169
هيا	5170
پين	5171
ڌار	5172
راز	5173
ليڪ	5174
##عات	5175
ميٽر	5176
جهڙي	5177
مهينن	5178
غور	5179
گذري	5180
بدر	5181
رستي	5182
کانسواءِ	5183
##ڙيل	5184
تنھن	5185
ننڊ	5186
چيزي	5187
رڪار	5188
وڏا	5189
حبي	5190
سري	5191
ويڪ	5192
اکيون	5193
##پن	5194
بيشڪ	5195
جئين	5196
##ماني	5197
پوئ	5198
سڀئي	5199
وغيره	5200
يك	5201
روڊ	5202
لکيل	5203
ڏو	5204
##هيه	5205
##جون	5206
سامهون	5207
آپريشن	5208
توانائي	5209
صور	5210
پيڪ	5211
هئڻ	5212
تجز	5213
آمد	5214
ڏاڍي	5215
بجلي	5216
اشت	5217
اهميت	5218
آل	5219
الز	5220
اسپتال	5221
en	5222
منظر	5223
غريب	5224
##ve	5225
##چو	5226
مقامي	5227
بون	5228
##مينٽ	5229
چڱي	5230
مگر	5231
وڃو	5232
##حاظ	5233
بغير	5234
قبل	5235
##رب	5236
##طا	5237
الن	5238
ڪيائين	5239
##ئا	5240
##فته	5241
بيو	5242
امان	5243
ٽرانس	5244
##im	5245
ڏيندا	5246
2018	5247
##ir	5248
##ــي	5249
وڪي	5250
ٻول	5251
تقريبن	5252
موقعو	5253
دلچسپ	5254
رڪارڊ	5255
بئن	5256
قس	5257
وَ	5258
پائي	5259
اعليٰ	5260
هيءُ	5261
منٽ	5262
##نڊن	5263
نتيجي	5264
حيرت	5265
آڻڻ	5266
##ul	5267
##انگ	5268
صارفين	5269
text	5270
قديم	5271
واپار	5272
دلچسپي	5273
اڃان	5274
ٺاهيو	5275
بندي	5276
كان	5277
پول	5278
آرٽيڪل	5279
سميت	5280
برقرار	5281
بھ	5282
يوم	5283
ايڇ	5284
##انيه	5285
##يز	5286
سوچي	5287
آساني	5288
##چه	5289
##ab	5290
پوئتي	5291
آس	5292
زو	5293
فٽ	5294
وص	5295
يال	5296
##ينا	5297
ليه	5298
بڻائڻ	5299
فرم	5300
ڳالهائڻ	5301
سمجهيو	5302
پڙهن	5303
مغ	5304
ڌي	5305
##شو	5306
##اءَ	5307
هُن	5308
ايتري	5309
,,	5310
at	5311
جام	5312
مسلسل	5313
محدود	5314
امن	5315
قرض	5316
مصنو	5317
لحاظ	5318
دوا	5319
گن	5320
##فه	5321
##پل	5322
ڏکڻ	5323
آڻ	5324
چيائين	5325
مسئلن	5326
مسافر	5327
يک	5328
قرار	5329
مات	5330
##جد	5331
انه	5332
قسمن	5333
اث	5334
ڏينھن	5335
قرآن	5336
اعتماد	5337
چاهيان	5338
##un	5339
##ڄي	5340
بص	5341
گول	5342
##em	5343
الص	5344
شايع	5345
گهڻا	5346
شوق	5347
er	5348
نہ	5349
##يس	5350
وائرس	5351
##ڙپ	5352
زن	5353
ناز	5354
الڳ	5355
ڪيترا	5356
عالم	5357
##بال	5358
اچو	5359
عيس	5360
سَ	5361
اجلاس	5362
تحفظ	5363
ڪنھن	5364
خل	5365
##ٺل	5366
کار	5367
نظري	5368
عوامي	5369
بيڪ	5370
##ٽائي	5371
نيا	5372
واٽ	5373
con	5374
فوج	5375
انسٽال	5376
اڇ	5377
##روف	5378
آفري	5379
##وند	5380
خالي	5381
مشت	5382
ٽيسٽ	5383
متح	5384
قدرتي	5385
هز	5386
ڳا	5387
##ِن	5388
##ڙڻ	5389
ذات	5390
عشق	5391
تحت	5392
اڳواڻ	5393
هجن	5394
اسم	5395
ارس	5396
ننڍي	5397
##سه	5398
سواء	5399
ادارن	5400
دعو	5401
ايراني	5402
##ادر	5403
##يندي	5404
##ess	5405
آخرڪار	5406
##دائي	5407
##حن	5408
ڪندس	5409
جز	5410
لائسن	5411
سٽ	5412
سائ	5413
##انا	5414
ورتي	5415
مقدار	5416
اچن	5417
ڳولڻ	5418
##عودي	5419
جذب	5420
##شا	5421
##ليا	5422
##لڊ	5423
##شتي	5424
ويس	5425
2017	5426
مزاح	5427
ادي	5428
##نى	5429
اظهار	5430
##ers	5431
حڪمت	5432
##ٿر	5433
##ــــــ	5434
طريق	5435
پوندي	5436
تصويرون	5437
رابطو	5438
##ئه	5439
فعال	5440
ساڳيو	5441
براي	5442
شهري	5443
مڙس	5444
عجيب	5445
##كه	5446
23	5447
ڪسٽم	5448
انص	5449
اتر	5450
جنسي	5451
مذهبي	5452
##عام	5453
گڏو	5454
ارب	5455
سڏيو	5456
بئنڪ	5457
مظ	5458
منھنجي	5459
چنڊ	5460
##يراعظم	5461
جسماني	5462
is	5463
سڌو	5464
##ڊيٽ	5465
ڪلو	5466
معياري	5467
ماڻھو	5468
سماج	5469
شرط	5470
مهيني	5471
ڪڍي	5472
شاگرد	5473
انقلاب	5474
ارا	5475
ويڊيو	5476
بدل	5477
ڊائ	5478
هوا	5479
ڏان	5480
شخصيت	5481
ھر	5482
##ارش	5483
مئي	5484
##ut	5485
##ڏانهن	5486
ڪرائي	5487
فرانس	5488
##roid	5489
ساڳئي	5490
##طه	5491
گھرجي	5492
امتحان	5493
چيڪ	5494
##بير	5495
##جيٽل	5496
گڏجي	5497
فري	5498
خامو	5499
ڊوائيس	5500
ٽائي	5501
ايئن	5502
ايجن	5503
مخالف	5504
ڊجيٽل	5505
جاچ	5506
مثل	5507
وزيراعظم	5508
حصن	5509
android	5510
لائسنس	5511
26	5512
ساز	5513
صد	5514
نگر	5515
پويان	5516
مارچ	5517
الو	5518
ڪيترو	5519
ڪَ	5520
پراڻي	5521
پروسي	5522
منظور	5523
سلسلي	5524
مجموعي	5525
##ڪٽر	5526
مافي	5527
اسٽيشن	5528
مسلمان	5529
ائي	5530
رائ	5531
وات	5532
اوچ	5533
احتجا	5534
##oc	5535
منزل	5536
آڪٽو	5537
##رل	5538
فڪر	5539
لباس	5540
نيڪ	5541
گيت	5542
منظم	5543
کائڻ	5544
ڏيندي	5545
وانا	5546
ليکڪ	5547
##وم	5548
ڪيم	5549
اڪيلو	5550
ــــــــ	5551
طيب	5552
مور	5553
##مڻ	5554
##كس	5555
جنم	5556
ڪورٽ	5557
نمائ	5558
اشارو	5559
جرم	5560
عه	5561
##ظر	5562
##ايون	5563
شعر	5564
آڪٽوبر	5565
روم	5566
ٻڌڻ	5567
معمولي	5568
sh	5569
##ثي	5570
ٿوري	5571
خيلي	5572
ملاز	5573
ar	5574
راه	5575
##رز	5576
اسٽور	5577
تاريخي	5578
شهي	5579
والدين	5580
مطابقت	5581
دستياب	5582
معنيٰ	5583
ذميواري	5584
فت	5585
پالي	5586
ايندا	5587
مسئلي	5588
حلوه	5589
فيه	5590
بلو	5591
پرين	5592
##ia	5593
##پس	5594
ڪمري	5595
ٽيون	5596
شاهه	5597
طريقا	5598
بدران	5599
رين	5600
چيني	5601
بلڪ	5602
ممكن	5603
چڱو	5604
هندستان	5605
روشن	5606
فا	5607
هُو	5608
مرڪز	5609
sp	5610
ڊيو	5611
ڪالي	5612
موٽي	5613
##امه	5614
##بيت	5615
دستاوي	5616
تجزيو	5617
عذ	5618
کليل	5619
اسپين	5620
يورپي	5621
گهربل	5622
سينٽر	5623
چئ	5624
مشڪل	5625
داخ	5626
گرفتار	5627
خواهش	5628
بم	5629
خور	5630
##ياد	5631
هوٽل	5632
سيڙپ	5633
##ind	5634
سڌ	5635
##ڻن	5636
غلام	5637
##راف	5638
ڪتابن	5639
سيريز	5640
##ھنجو	5641
مشك	5642
سهولت	5643
ھئي	5644
تعريف	5645
گراهڪ	5646
اضاف	5647
سڪ	5648
سد	5649
هيٺيان	5650
بيت	5651
سيپٽ	5652
باغ	5653
سگهندا	5654
ڪابه	5655
اسيم	5656
نماز	5657
برو	5658
نر	5659
سيپٽمبر	5660
روس	5661
##pt	5662
موسيقي	5663
فوري	5664
پلا	5665
##کيه	5666
ڪمپنين	5667
سڄو	5668
رسي	5669
بود	5670
ندا	5671
198	5672
طريقن	5673
فوت	5674
ڀري	5675
##شمن	5676
اڳي	5677
فوجي	5678
فطرت	5679
##ٻي	5680
ضحك	5681
جائزو	5682
حج	5683
سزا	5684
مدا	5685
پئسا	5686
لين	5687
ڳالهين	5688
قص	5689
ٻُ	5690
دورو	5691
فوٽو	5692
طلب	5693
##يندڙ	5694
تيل	5695
واپسي	5696
لنڪ	5697
on	5698
مئ	5699
ھون	5700
##اسي	5701
##ميم	5702
مره	5703
عليها	5704
چيز	5705
2016	5706
اتفا	5707
قومن	5708
هيڪ	5709
مدي	5710
ڊزائن	5711
اسر	5712
197	5713
شما	5714
ڪرائڻ	5715
خلاص	5716
جيترو	5717
بونس	5718
رن	5719
##ـآ	5720
ليش	5721
se	5722
راح	5723
اذا	5724
##لينڊ	5725
ترجمو	5726
آسمان	5727
60	5728
عنصر	5729
##ڪش	5730
##ستاني	5731
##لها	5732
اخبار	5733
آبادي	5734
مشتمل	5735
سير	5736
اسيمبلي	5737
سست	5738
##نيئر	5739
محنت	5740
فقير	5741
ex	5742
طال	5743
نوان	5744
چوندا	5745
28	5746
زر	5747
رض	5748
ساري	5749
جنرل	5750
ڏيئي	5751
انجنيئر	5752
انعام	5753
موٽر	5754
بحال	5755
پَ	5756
چان	5757
ڀيٽ	5758
ڪميون	5759
هار	5760
وب	5761
ڀيرا	5762
##حڪ	5763
اينڊر	5764
رکندڙ	5765
##طف	5766
##گيري	5767
##لاد	5768
سفارش	5769
ٽين	5770
##ٿا	5771
اهل	5772
قيام	5773
واقع	5774
آگسٽ	5775
قسمت	5776
هينئر	5777
am	5778
بک	5779
فصل	5780
چيم	5781
##قول	5782
##گن	5783
زير	5784
مٽي	5785
##ائب	5786
تعا	5787
ادائي	5788
مذهب	5789
دائ	5790
##جان	5791
اتح	5792
ڪانه	5793
پهچائڻ	5794
برطان	5795
عزت	5796
اضافو	5797
تجو	5798
گلي	5799
وڏن	5800
ادبي	5801
سِ	5802
عزي	5803
لسٽ	5804
##انڪ	5805
ميوز	5806
ne	5807
دشمن	5808
گزار	5809
جنس	5810
27	5811
؟!	5812
نع	5813
سدائين	5814
چور	5815
##ونه	5816
روڪ	5817
سمجهڻ	5818
آرڊر	5819
رهندا	5820
ونڊوز	5821
خاط	5822
ڀريل	5823
جيئ	5824
سڃاڻپ	5825
حرف	5826
اداري	5827
ڪيتريون	5828
un	5829
##الن	5830
تحريڪ	5831
رهندي	5832
##ثير	5833
##راهي	5834
ساٿ	5835
ڪاليج	5836
کڻڻ	5837
cr	5838
##ڙيون	5839
سياحت	5840
ميان	5841
بغ	5842
دڪان	5843
عجب	5844
نين	5845
پٿر	5846
ساٿي	5847
ٻڌو	5848
رابطي	5849
آئ	5850
سعودي	5851
##آمد	5852
صفحا	5853
حيران	5854
الج	5855
نيست	5856
خلي	5857
ڀلا	5858
##جڪ	5859
برانڊ	5860
وسيع	5861
جيل	5862
هوائي	5863
رواي	5864
پرڏي	5865
##ائيندڙ	5866
پيٽ	5867
گهري	5868
صنع	5869
شب	5870
موقعي	5871
سگھجي	5872
##گا	5873
انڪار	5874
مسئلا	5875
سوچڻ	5876
##گير	5877
جنوري	5878
ناڪام	5879
جبل	5880
پابندي	5881
شيئر	5882
موڪليو	5883
ڪلاس	5884
حمايت	5885
2021	5886
##بئي	5887
##حه	5888
احتجاج	5889
tr	5890
هع	5891
سموري	5892
ترڪي	5893
ڊيزائن	5894
پروفي	5895
##ack	5896
ڏانھن	5897
##ريس	5898
افغانستان	5899
قيم	5900
مکيه	5901
##لك	5902
نومبر	5903
ملڪيت	5904
انصاف	5905
ويهي	5906
امڪان	5907
##يورٽي	5908
ضاب	5909
قال	5910
هست	5911
##ـن	5912
##سمبر	5913
هليو	5914
##ation	5915
سرگرمي	5916
آهنگ	5917
##فيد	5918
فائلون	5919
##ver	5920
##چار	5921
ڪوئي	5922
زخمي	5923
مصنوعات	5924
pl	5925
حاد	5926
دم	5927
ماضي	5928
ٻڌل	5929
گھڻو	5930
قلب	5931
پکي	5932
##اڻڻ	5933
ed	5934
وح	5935
رهيون	5936
مردن	5937
آدم	5938
ندو	5939
##ڻا	5940
##ليٽ	5941
ريم	5942
هائو	5943
روپ	5944
هيٺين	5945
گاڏي	5946
آسٽري	5947
لنڊن	5948
ڪائن	5949
##ak	5950
ادائيگي	5951
رُ	5952
غر	5953
فيل	5954
##ڙڪ	5955
##ائس	5956
سنڏ	5957
هئس	5958
هٿن	5959
##if	5960
هوء	5961
ناهن	5962
اقول	5963
آھ	5964
اٺ	5965
خصو	5966
راءِ	5967
گهو	5968
لڳا	5969
ٻيون	5970
خصوصي	5971
##بول	5972
انك	5973
ملائي	5974
درجي	5975
احمد	5976
الزام	5977
شده	5978
كه	5979
ماپ	5980
جاء	5981
نفر	5982
##كك	5983
اقتص	5984
##عل	5985
ايا	5986
سيني	5987
##فرنس	5988
هندو	5989
عورتون	5990
اپڊيٽ	5991
موٽ	5992
سمجهان	5993
ڪانهي	5994
ڪميشن	5995
دهشت	5996
ad	5997
عنو	5998
ڪنڊ	5999
تازو	6000
اينڊرائيڊ	6001
آيل	6002
آڻي	6003
حاض	6004
خات	6005
اوڀر	6006
تعالي	6007
فرض	6008
كيف	6009
##ly	6010
تقريبا	6011
مسي	6012
ناول	6013
##کر	6014
رکن	6015
##and	6016
80	6017
جهان	6018
متن	6019
رانديگر	6020
ڪائون	6021
##فڪ	6022
ڪرايو	6023
ليگ	6024
يمكن	6025
اڪي	6026
قول	6027
ليس	6028
رجسٽر	6029
مقابلو	6030
##پان	6031
پراڊ	6032
واقعا	6033
ڳالهائي	6034
اگ	6035
الخ	6036
انجام	6037
کلي	6038
نواز	6039
wh	6040
حب	6041
تبص	6042
الحال	6043
هاءِ	6044
ڏنا	6045
##ايه	6046
پراڊڪٽ	6047
کائي	6048
##هيهي	6049
##امين	6050
سمجهه	6051
متباد	6052
سائيز	6053
وفات	6054
ھاڻي	6055
##ينه	6056
عمارت	6057
2015	6058
هونديون	6059
رسول	6060
ـــــــــــــــــ	6061
ٻاه	6062
ميمبرن	6063
مني	6064
گُ	6065
ويٺو	6066
ابي	6067
فه	6068
ڊسمبر	6069
انو	6070
باهه	6071
وفاقي	6072
تجويز	6073
cl	6074
مها	6075
پٺيان	6076
##ڙيءَ	6077
سوي	6078
##پيڊيا	6079
شهرن	6080
عقي	6081
##گڏ	6082
##ـــــــ	6083
ڏکيو	6084
نتيجو	6085
گڏوگڏ	6086
وزار	6087
ڪھ	6088
##ٻئي	6089
##لت	6090
##ڊنگ	6091
##حب	6092
واقف	6093
پيروي	6094
</	6095
pro	6096
يورو	6097
عندي	6098
نالا	6099
##ٽيف	6100
متبادل	6101
ضم	6102
نصي	6103
وٺو	6104
##پوري	6105
##ائنٽ	6106
خطرن	6107
گزارش	6108
اُهي	6109
ضرورتن	6110
مريض	6111
منصوبي	6112
المو	6113
سبق	6114
شرڪت	6115
تعاون	6116
مبار	6117
واريون	6118
ڳالهايو	6119
اصلا	6120
وڙ	6121
ٿر	6122
نشاني	6123
<<<	6124
ڏياري	6125
اپريل	6126
مزو	6127
تسليم	6128
تڪليف	6129
ناق	6130
هلائڻ	6131
پئجي	6132
35	6133
de	6134
شف	6135
##لوڊ	6136
ٽيبل	6137
عربي	6138
اٿم	6139
ڪجھه	6140
شهيد	6141
500	6142
شد	6143
يڪ	6144
خريداري	6145
اليڪٽر	6146
ڪورونا	6147
29	6148
لاش	6149
فرد	6150
شعور	6151
##ect	6152
ڀاءُ	6153
پارڪ	6154
أن	6155
بڪ	6156
تھ	6157
سرا	6158
ايڊي	6159
##يڪشن	6160
ابتدائي	6161
قيمتي	6162
##کان	6163
194	6164
عيسي	6165
سلسلو	6166
يلا	6167
طاقتور	6168
معاش	6169
##ct	6170
توڙي	6171
مينهن	6172
کاتي	6173
روي	6174
وزارت	6175
آھيان	6176
اڳوڻي	6177
معاملي	6178
دعوي	6179
حسن	6180
ڳڻ	6181
##ڊا	6182
ماڻهوءَ	6183
بچائڻ	6184
رانديون	6185
##ازن	6186
پاليسي	6187
کڻ	6188
سيڙپڪاري	6189
ڪيتري	6190
it	6191
ماش	6192
سگهندو	6193
جرمني	6194
اتفاق	6195
فرو	6196
##رسي	6197
آزم	6198
90	6199
هٿي	6200
چپ	6201
##قد	6202
ڪوڙ	6203
سرور	6204
وجهي	6205
پرڏيهي	6206
##تائي	6207
الر	6208
ڪمز	6209
##ايد	6210
چوڌ	6211
خدمتن	6212
تازه	6213
هزارين	6214
le	6215
##سك	6216
روڪي	6217
گهرجن	6218
امين	6219
ڪائنات	6220
كنت	6221
##طان	6222
الك	6223
##اتل	6224
خودڪار	6225
تاب	6226
##ريٽ	6227
of	6228
اڀ	6229
مڇي	6230
ڊيل	6231
کوٽ	6232
##ريءَ	6233
تربيت	6234
196	6235
عالي	6236
##وره	6237
مثبت	6238
شروعاتي	6239
وسلم	6240
منصوبو	6241
هيس	6242
##رافي	6243
اصط	6244
سيڪيورٽي	6245
xn	6246
ڊرائيو	6247
or	6248
غم	6249
مؤ	6250
ايش	6251
ڪارپوري	6252
حقن	6253
عبدال	6254
آمدني	6255
كن	6256
گلو	6257
جانور	6258
سکڻ	6259
اطلا	6260
فتح	6261
عج	6262
##بروري	6263
##فق	6264
ورلڊ	6265
امري	6266
تخليق	6267
أنا	6268
بجي	6269
تهيه	6270
جدو	6271
چوٿ	6272
ضحكت	6273
ريڪ	6274
تحري	6275
اغ	6276
ڄاڻي	6277
##سيم	6278
ڪاپي	6279
ٽيڪس	6280
وڪيپيڊيا	6281
کني	6282
##اعت	6283
ڇڏڻ	6284
وينديون	6285
us	6286
افت	6287
مله	6288
##ڪرين	6289
سيد	6290
نظم	6291
يقينا	6292
وڪيل	6293
لهي	6294
کولي	6295
##ce	6296
جانورن	6297
شراب	6298
رخ	6299
كلام	6300
مِ	6301
ڀڃ	6302
##ٽڪ	6303
هلندڙ	6304
بادشاهه	6305
خون	6306
ڪِ	6307
اخر	6308
خدمتون	6309
##umx	6310
دليل	6311
وطن	6312
##سٽڪ	6313
##خخخخ	6314
عاد	6315
نكت	6316
##کو	6317
اند	6318
##الم	6319
اميدو	6320
آءُ	6321
لازم	6322
70	6323
هذه	6324
يت	6325
ڀڳ	6326
ميڊ	6327
برداشت	6328
مائي	6329
دوستي	6330
لانچ	6331
اصطلاح	6332
منع	6333
اندروني	6334
گهڻن	6335
ٽرانسپورٽ	6336
ma	6337
بيل	6338
حيات	6339
رئي	6340
وِ	6341
##راهه	6342
گهرو	6343
ماڻھن	6344
تعرف	6345
##فرد	6346
يونين	6347
ڪانفرنس	6348
نج	6349
موڪلي	6350
دعوت	6351
بہ	6352
ضمان	6353
##ib	6354
##برد	6355
فيبروري	6356
وساري	6357
##ٽرويو	6358
ضمانت	6359
جهن	6360
انٽرويو	6361
##ووو	6362
چارج	6363
تجربي	6364
ٻاهرين	6365
^^	6366
sc	6367
ضل	6368
طلاق	6369
##يري	6370
هڪٻئي	6371
ويڙ	6372
هفته	6373
xnumx	6374
سازي	6375
فائيل	6376
فخر	6377
##عة	6378
##يوم	6379
منفرد	6380
بحالي	6381
اٿس	6382
تعليمي	6383
آيت	6384
جُ	6385
سڌي	6386
پهتو	6387
ڪاوڙ	6388
سمجهن	6389
پسندي	6390
ــــــ	6391
روحاني	6392
هڻي	6393
پهر	6394
##يڪار	6395
پڌ	6396
##غذ	6397
گفتگو	6398
اقتصادي	6399
رپ	6400
لأ	6401
چرچ	6402
لنگ	6403
ٽئين	6404
ساهه	6405
خاصيتون	6406
نمائند	6407
دهشتگر	6408
##سري	6409
سنو	6410
انڊسٽري	6411
نفرت	6412
مجب	6413
ڪٽ	6414
##سب	6415
##سته	6416
چيه	6417
ٽري	6418
ڊيم	6419
##وال	6420
##پا	6421
ايشيا	6422
##افظ	6423
زنده	6424
معاملو	6425
مك	6426
مصر	6427
کپي	6428
##وڪي	6429
پيچي	6430
اولاد	6431
چيست	6432
پاور	6433
سپر	6434
برطانيه	6435
يافته	6436
##ٺيون	6437
صفحي	6438
چاهيون	6439
سائيڪل	6440
ثقافت	6441
45	6442
##َن	6443
##جهه	6444
##ڙائي	6445
##عيت	6446
روايتي	6447
##هاري	6448
##ندس	6449
##يره	6450
ڪاررو	6451
ڪارڪن	6452
سمجه	6453
متعارف	6454
بلوچ	6455
محبو	6456
بدلي	6457
اليڪشن	6458
ترا	6459
##قلي	6460
##up	6461
##امن	6462
منح	6463
وڌو	6464
برس	6465
انتخ	6466
گذر	6467
پريس	6468
خيالن	6469
اندازو	6470
شاه	6471
اوھين	6472
معاهدي	6473
ناس	6474
وير	6475
مرڪزي	6476
لطف	6477
##io	6478
##تيون	6479
پيئڻ	6480
پوزيشن	6481
مرمت	6482
هت	6483
وڌائي	6484
##اصر	6485
اڳيون	6486
ذريعو	6487
پهچڻ	6488
نتيجا	6489
جوڙجڪ	6490
تار	6491
##ائپ	6492
پيئي	6493
روڪڻ	6494
سادي	6495
يونٽ	6496
ــــــــــــــ	6497
ابراهي	6498
##يييي	6499
مجبور	6500
##بة	6501
##کن	6502
عقل	6503
مٽ	6504
هٽ	6505
ڀارت	6506
##ديت	6507
انتظامي	6508
کاڌي	6509
##مممم	6510
انفرا	6511
آي	6512
##زح	6513
اهڙن	6514
هنا	6515
مرت	6516
##est	6517
عنوان	6518
00	6519
##شد	6520
وڃائي	6521
ڏيان	6522
نقل	6523
رھيو	6524
جد	6525
رول	6526
##قه	6527
واع	6528
امداد	6529
احد	6530
پاڻيءَ	6531
##ريڪٽر	6532
ريلوي	6533
اور	6534
قبر	6535
##هل	6536
##اڻا	6537
کاڌو	6538
qu	6539
حمل	6540
زبرد	6541
ير	6542
گهرن	6543
##شيد	6544
حلوة	6545
ڪپڙا	6546
بندو	6547
تڪر	6548
رز	6549
شڪر	6550
نار	6551
جادو	6552
روسي	6553
ڏسندا	6554
سائيٽن	6555
as	6556
bl	6557
لع	6558
لينڊ	6559
گھڻي	6560
واپاري	6561
>>>	6562
for	6563
طول	6564
نمائش	6565
پڙهندڙ	6566
aw	6567
درجه	6568
واقعن	6569
قوت	6570
يقول	6571
ـــــــ	6572
مبارڪ	6573
ap	6574
عشان	6575
چڪ	6576
کيڏ	6577
ڊرائ	6578
##0ع	6579
وقتي	6580
آھيو	6581
نبي	6582
برقي	6583
##ink	6584
مزاحمت	6585
چئن	6586
تياري	6587
هيل	6588
وڃان	6589
برن	6590
سرڪار	6591
مقص	6592
سگھون	6593
انتخاب	6594
هارڊ	6595
پتو	6596
ڊبل	6597
##ابل	6598
رم	6599
پروف	6600
2014	6601
افسوس	6602
سونهن	6603
ءِ	6604
ڏٺ	6605
توقع	6606
##اڪو	6607
مدت	6608
نمون	6609
والد	6610
مٿين	6611
مهل	6612
اٿي	6613
طرز	6614
نون	6615
موڊ	6616
فيڪ	6617
ڊز	6618
بيٽري	6619
سيک	6620
##گيز	6621
راضي	6622
ڪهڙا	6623
ابراهيم	6624
وڌڻ	6625
2013	6626
بڻايو	6627
انٽرنيشنل	6628
نگراني	6629
##اڻين	6630
ذميوار	6631
تاج	6632
ڌو	6633
##ip	6634
ڏيندڙ	6635
پنڌ	6636
مصروف	6637
معاشي	6638
درا	6639
داد	6640
چُ	6641
انھي	6642
##نگي	6643
##ate	6644
##اھر	6645
بش	6646
ارت	6647
دستاويز	6648
عزيز	6649
31	6650
پچ	6651
ٿور	6652
ھا	6653
##ائشي	6654
اكيد	6655
نڪتو	6656
اوچتو	6657
رهو	6658
تعجب	6659
نيشنل	6660
ڪائونسل	6661
آغ	6662
مذ	6663
وهي	6664
ٺاھ	6665
##یک	6666
##گاه	6667
انڊيا	6668
نيٺ	6669
کوليو	6670
مقصدن	6671
ڏها	6672
##og	6673
رکيل	6674
فائر	6675
پڇي	6676
اسٽيٽ	6677
تُ	6678
##گين	6679
انجڻ	6680
دوري	6681
عليكم	6682
ٻيٽ	6683
روزاني	6684
لائق	6685
پروفيسر	6686
##انسي	6687
چيف	6688
آفريڪا	6689
شور	6690
چرا	6691
پرت	6692
منٽن	6693
شعبي	6694
##igh	6695
پلاسٽڪ	6696
36	6697
sm	6698
##az	6699
هيك	6700
سکيا	6701
سرگرمين	6702
آسٽريليا	6703
آندو	6704
ااااا	6705
ڇڪ	6706
گنا	6707
##عمل	6708
##اهري	6709
##ويئر	6710
ارسال	6711
تلا	6712
متو	6713
ٽڪر	6714
ڙي	6715
##لوي	6716
پنجن	6717
ٺاهيندڙ	6718
اياز	6719
تل	6720
داري	6721
ڪوٽ	6722
بيٺو	6723
بررسي	6724
مسجد	6725
آهستي	6726
32	6727
بٽڻ	6728
سپورٽ	6729
##وب	6730
##زش	6731
بلند	6732
پاسو	6733
ڪيان	6734
سرب	6735
##بوت	6736
ذهني	6737
جميل	6738
##ثن	6739
##ينج	6740
شيءَ	6741
سادو	6742
اُهو	6743
لوڪ	6744
حملو	6745
مھ	6746
نھ	6747
پالڻ	6748
اتحاد	6749
im	6750
##فن	6751
##ولو	6752
ميچ	6753
رکندو	6754
خبرون	6755
دفعي	6756
آفيسر	6757
خاموش	6758
ميوزڪ	6759
:)	6760
فين	6761
ندڙ	6762
ووٽ	6763
##اڻيو	6764
ترجي	6765
ڀرسان	6766
سؤ	6767
عرا	6768
نرم	6769
ھل	6770
##اوت	6771
mo	6772
ملو	6773
##نل	6774
##يول	6775
195	6776
درواز	6777
لطي	6778
هلا	6779
چڙهي	6780
##ین	6781
شيخ	6782
چوندو	6783
تنقي	6784
تجارتي	6785
عندك	6786
ڪئم	6787
عذاب	6788
خاطر	6789
صنعتي	6790
##سس	6791
خطرو	6792
اٿئي	6793
رسم	6794
ڀرو	6795
##خن	6796
##چا	6797
ڪرين	6798
مايو	6799
مرضي	6800
هلڻ	6801
زمرو	6802
آڇ	6803
إن	6804
ظلم	6805
مک	6806
ماهي	6807
سوم	6808
سڀاڻي	6809
وٺندو	6810
منظوري	6811
داخلا	6812
منحصر	6813
##ڊٽ	6814
بيهي	6815
تعارف	6816
رکون	6817
##all	6818
فورم	6819
ڳنڍيل	6820
ادار	6821
پٽي	6822
##ain	6823
##op	6824
اداڪار	6825
فنڪشن	6826
وائي	6827
##ثار	6828
ملندي	6829
علمي	6830
جرمن	6831
صلي	6832
لال	6833
##اره	6834
##اڻن	6835
باقا	6836
رجحان	6837
##ائجي	6838
##ستر	6839
موثر	6840
معامل	6841
احتر	6842
هفتن	6843
خارجي	6844
حاضر	6845
جار	6846
ذي	6847
سنجي	6848
مقام	6849
روزانو	6850
وڊيوز	6851
مطالبو	6852
اڻي	6853
موجودگي	6854
ڪميٽي	6855
چوڌاري	6856
طئي	6857
وڇ	6858
##هيو	6859
اسپي	6860
فيشن	6861
فرانسي	6862
ڪلاڪن	6863
فٽبال	6864
بـ	6865
مآ	6866
##دل	6867
وڌندڙ	6868
پيرن	6869
مائڪرو	6870
ملازمن	6871
ڪمزور	6872
معاملن	6873
ag	6874
##vid	6875
انگيز	6876
سرٽيف	6877
ڇڏيا	6878
انسانن	6879
معيشت	6880
ڊائريڪٽر	6881
مسيح	6882
هندي	6883
الق	6884
حرڪت	6885
شن	6886
##ڙهو	6887
##پنگ	6888
چاهين	6889
قيد	6890
اسٽيل	6891
باڪ	6892
ورا	6893
پلان	6894
سالي	6895
ذريعن	6896
ٻوليءَ	6897
بنگ	6898
خش	6899
يح	6900
ڪاغذ	6901
ايئرپورٽ	6902
ارادو	6903
تت	6904
وم	6905
ڌن	6906
ڪلام	6907
##یس	6908
اصلاح	6909
علائقو	6910
شهرين	6911
ناقابل	6912
ڪارروائي	6913
ٽڪ	6914
##عيد	6915
شريف	6916
قا	6917
قلم	6918
وحد	6919
##ريٽري	6920
الت	6921
سوالن	6922
منصوبن	6923
دؤ	6924
ميني	6925
##ist	6926
##day	6927
پيل	6928
ماڳ	6929
ڊيٽ	6930
هلائي	6931
ڀرپور	6932
علامت	6933
we	6934
بلي	6935
مرڻ	6936
ڊائونلوڊ	6937
بعض	6938
خطرناڪ	6939
الموضوع	6940
راس	6941
قاع	6942
هـ	6943
اُتي	6944
فائدا	6945
سڃاتو	6946
ٻولين	6947
وع	6948
##وس	6949
##ود	6950
##7ع	6951
ميون	6952
اسٽوري	6953
عرض	6954
ڄاڻڻ	6955
عبادت	6956
بيمار	6957
رساله	6958
##خلت	6959
مسلمانن	6960
متحرڪ	6961
##ريح	6962
##روز	6963
تقريب	6964
آلو	6965
##iv	6966
اکر	6967
ثقاف	6968
خوراڪ	6969
زبردست	6970
فى	6971
يکي	6972
##ڌا	6973
آھيون	6974
رکندي	6975
بندر	6976
سيڪريٽري	6977
اسرائيل	6978
ڪئميرا	6979
ab	6980
لكن	6981
ھئا	6982
ويٺي	6983
##one	6984
##صيلي	6985
بلڪه	6986
pre	6987
بدن	6988
كت	6989
هستي	6990
ڪلي	6991
الش	6992
ياداشت	6993
پوک	6994
مثالي	6995
مراد	6996
وت	6997
##جع	6998
نهايت	6999
ڪناري	7000
فيصل	7001
بزر	7002
طوف	7003
ماء	7004
کنيو	7005
تشدد	7006
چمڪ	7007
حاج	7008
سئو	7009
پائڻ	7010
پيرا	7011
پروڊ	7012
فيصلي	7013
هائوس	7014
رٿ	7015
شنا	7016
هتان	7017
پٺ	7018
ڊول	7019
ڪس	7020
##اق	7021
##باب	7022
قابليت	7023
دفعا	7024
sub	7025
ااااااااا	7026
##اڙي	7027
کير	7028
روايت	7029
پارلي	7030
ڀيڻ	7031
عيد	7032
**	7033
انٽ	7034
##ورة	7035
ڊيسڪ	7036
تنھنجي	7037
خطري	7038
نيوي	7039
##ame	7040
باقاع	7041
tw	7042
آڏو	7043
وڌايو	7044
هئاسين	7045
چينل	7046
قدرت	7047
منتقلي	7048
):	7049
99	7050
##رس	7051
##يرن	7052
ڊگهو	7053
رھيا	7054
دريافت	7055
ساڻس	7056
نڪرڻ	7057
جشن	7058
ڪٿ	7059
##پاني	7060
##ارڪ	7061
##ياس	7062
ايج	7063
پوائنٽ	7064
مادي	7065
نظارو	7066
##تمند	7067
ڪمپنيون	7068
بچائي	7069
قبضو	7070
انسانيت	7071
مرحله	7072
##ood	7073
حصيداري	7074
ماهرن	7075
اٽڪل	7076
وصول	7077
ند	7078
ڊزائين	7079
آآآ	7080
بري	7081
بازي	7082
اينڊ	7083
اعتبار	7084
زهر	7085
فارسي	7086
نوجوانن	7087
##ook	7088
ڏند	7089
##جل	7090
بازار	7091
رئيس	7092
33	7093
راي	7094
طل	7095
پد	7096
##شاني	7097
معاف	7098
##ـــي	7099
گرد	7100
پاڪستاني	7101
يكون	7102
چڙ	7103
ڪارن	7104
##او	7105
ڪمن	7106
لڳل	7107
چمڙي	7108
ٽائيم	7109
لطيف	7110
##يابي	7111
ناھي	7112
ملازم	7113
تقرير	7114
معاشري	7115
اطلاع	7116
ٽيو	7117
چيل	7118
ورها	7119
تحليل	7120
##ائونڊ	7121
بچڻ	7122
رياضي	7123
نسبت	7124
ip	7125
ڪيئي	7126
معصو	7127
چيئر	7128
ريڊيو	7129
سهڻي	7130
مريم	7131
ڊومين	7132
دلي	7133
دولت	7134
ڊڄ	7135
##ليه	7136
ڪرڻي	7137
ورهين	7138
سرهندي	7139
تباهه	7140
حوص	7141
قلت	7142
me	7143
خصوص	7144
لات	7145
کٽ	7146
##ڱي	7147
حدي	7148
فك	7149
هذي	7150
##ra	7151
اليوم	7152
پرواز	7153
يوٽيو	7154
فارمي	7155
--	7156
بط	7157
##سون	7158
##هندو	7159
##ئيشن	7160
مناف	7161
ملندو	7162
فائدي	7163
شكله	7164
ڄڻا	7165
جمي	7166
آخرين	7167
پاڙي	7168
اختلا	7169
شاعريءَ	7170
علامه	7171
حبيب	7172
محبوب	7173
سختي	7174
كر	7175
نتيجن	7176
sind	7177
فني	7178
ڊسپ	7179
ٻڌائڻ	7180
اخلا	7181
اپيل	7182
حصا	7183
new	7184
بُ	7185
شريڪ	7186
گولي	7187
معك	7188
ڪنڌ	7189
لڳندو	7190
ڪارخ	7191
ڪنديون	7192
ننڍڙي	7193
برسات	7194
تري	7195
شير	7196
پبل	7197
##ڏا	7198
##ذير	7199
پيماني	7200
لغ	7201
##ارم	7202
جاڳ	7203
ڏسندي	7204
اسٽاڪ	7205
سياري	7206
ٿينديون	7207
گيري	7208
ليڪن	7209
sindh	7210
يب	7211
کنڊ	7212
##ft	7213
ڪيف	7214
منك	7215
فعل	7216
پيامبر	7217
فرانسيسي	7218
رش	7219
رھي	7220
##ive	7221
جوڙي	7222
توسان	7223
ماع	7224
امر	7225
لڳائڻ	7226
پڙهو	7227
ننڍو	7228
صفائي	7229
covid	7230
بلاڪ	7231
تنگ	7232
ٽا	7233
##ڊن	7234
فيك	7235
پنھنجو	7236
صفحو	7237
ثبوت	7238
ٺهر	7239
پگ	7240
ڀت	7241
ڪلب	7242
##ھار	7243
معت	7244
تقسيم	7245
::	7246
ic	7247
بگ	7248
سلي	7249
كتي	7250
ٽريڪ	7251
پنا	7252
ورزن	7253
ڇڏيندو	7254
حالتون	7255
##ie	7256
##ونڊي	7257
سرچ	7258
تصويرن	7259
فيلڊ	7260
be	7261
انش	7262
واقعو	7263
اثرائ	7264
نمائندگي	7265
ht	7266
تازي	7267
مزي	7268
##هري	7269
مددگار	7270
ٺاهيل	7271
يوٽيوب	7272
فلو	7273
##ڙيو	7274
##دير	7275
الب	7276
##راض	7277
خواهي	7278
شرطن	7279
جب	7280
##قسم	7281
##فل	7282
##صف	7283
##ورڪ	7284
##روم	7285
##سوسي	7286
مستقل	7287
لح	7288
مـ	7289
##ik	7290
عملن	7291
بنت	7292
ماحولي	7293
ڪهاڻيون	7294
پسنديده	7295
احترام	7296
غائب	7297
پيد	7298
##ٽيءَ	7299
ملن	7300
مارجي	7301
گهٽتائي	7302
خاصيتن	7303
برف	7304
مضحك	7305
##pl	7306
نقطي	7307
پريشاني	7308
تقول	7309
##كتب	7310
سپريم	7311
##سٽريشن	7312
رانديگرن	7313
تڪرار	7314
فاص	7315
مــ	7316
ٽيل	7317
ڀو	7318
##ڊو	7319
##پڻ	7320
##ثريت	7321
پيپل	7322
مشق	7323
هئو	7324
حملي	7325
ترجيح	7326
##قسمتي	7327
ڪئن	7328
##دة	7329
##صب	7330
پرست	7331
ڪورس	7332
انھيءَ	7333
لئه	7334
مند	7335
پان	7336
##1ع	7337
جوا	7338
ويٺا	7339
عليك	7340
الناس	7341
اثرات	7342
ڪرن	7343
ڇڏيندا	7344
بالغ	7345
پنهنجون	7346
صفحه	7347
واسطو	7348
يالله	7349
##ight	7350
تضحك	7351
ظاهري	7352
هڻ	7353
هاء	7354
ڌم	7355
##8ع	7356
##حر	7357
##جنن	7358
2012	7359
همه	7360
300	7361
عادي	7362
چڪر	7363
افز	7364
هيٺان	7365
آپريٽنگ	7366
پڙهيو	7367
تبصرو	7368
خطي	7369
قوي	7370
لق	7371
مسٽر	7372
ڀريو	7373
گير	7374
##هاي	7375
##اده	7376
معاهدو	7377
سگھوٿا	7378
دُ	7379
مهان	7380
نان	7381
##ies	7382
پياري	7383
ڊرائيور	7384
تد	7385
سك	7386
مفيد	7387
پلس	7388
##يج	7389
##ھڻ	7390
پرس	7391
حالا	7392
اتان	7393
سامونڊي	7394
پهچائي	7395
today	7396
متعلق	7397
برطانيا	7398
كده	7399
##iz	7400
##ارات	7401
اسمار	7402
##سيل	7403
مطالعو	7404
وقف	7405
##حڪم	7406
اسمارٽ	7407
شھر	7408
لاهي	7409
هِ	7410
ڪچه	7411
گورن	7412
##حة	7413
##ژه	7414
##سيت	7415
چوري	7416
رهجي	7417
تنقيد	7418
ثقافتي	7419
رڪ	7420
اعرف	7421
ــــــــــ	7422
مهينا	7423
مزد	7424
ٽرئ	7425
خارج	7426
عاشق	7427
گنج	7428
اخلاقي	7429
اسڪو	7430
توجي	7431
اما	7432
ڪارڻ	7433
راهه	7434
##ڊيشن	7435
المهم	7436
تفصيلي	7437
آپشن	7438
انگريزن	7439
toاڻڻ	7440
ارو	7441
فول	7442
##5ع	7443
پيج	7444
ويچ	7445
سوئ	7446
گهڙي	7447
چوان	7448
سينٽ	7449
مستحڪم	7450
سائنسي	7451
پابند	7452
چڪاس	7453
اسٽوريج	7454
ندار	7455
چاھ	7456
ڪول	7457
ماهه	7458
کاٻي	7459
##ill	7460
مطالعي	7461
نيٽورڪ	7462
ڏوهه	7463
you	7464
ڏهن	7465
گرين	7466
##ڙها	7467
تيزي	7468
سرمائي	7469
احم	7470
طرفن	7471
پيپلز	7472
پمپ	7473
ٿڪ	7474
##ريشن	7475
##ائيءَ	7476
سيم	7477
ملت	7478
##ٽرن	7479
احب	7480
هلندو	7481
شرم	7482
حضور	7483
سلامت	7484
اڳواڻن	7485
دؤر	7486
شل	7487
صبر	7488
##همي	7489
پيچ	7490
پيون	7491
واش	7492
لڳائي	7493
##ine	7494
هلندي	7495
##ity	7496
##ell	7497
دانش	7498
أي	7499
خاني	7500
شنو	7501
طو	7502
انس	7503
سيڪشن	7504
ــــــــــــ	7505
ننڍڙو	7506
حيدر	7507
كلهم	7508
la	7509
رع	7510
هاري	7511
گون	7512
##ڪين	7513
ميشه	7514
اوهين	7515
اڪثريت	7516
ڌرتيءَ	7517
پروڊڪٽ	7518
جت	7519
راڻي	7520
سس	7521
ڦر	7522
##طل	7523
##ڍي	7524
ميلي	7525
گهرج	7526
سنواريو	7527
ااا	7528
كذا	7529
ِي	7530
##شمي	7531
##چن	7532
اندو	7533
##ميشن	7534
روان	7535
مليا	7536
ڏيکاريو	7537
موڪلڻ	7538
ٽرمين	7539
اشتهار	7540
ph	7541
عرف	7542
لكم	7543
##جين	7544
ڪريڊٽ	7545
واچ	7546
سوا	7547
##ant	7548
em	7549
ڌاري	7550
ھتي	7551
##فٽ	7552
##پشن	7553
##3ع	7554
##ٿو	7555
جاي	7556
ماسڪ	7557
ايوارڊ	7558
يسلم	7559
ٽرئفڪ	7560
باس	7561
والو	7562
ڪڪ	7563
##زين	7564
##اڪن	7565
بحران	7566
سچو	7567
پروسيسنگ	7568
هٿيار	7569
طوفان	7570
لآ	7571
يل	7572
##طر	7573
سمارٽ	7574
محل	7575
اعز	7576
حڪمران	7577
اوندا	7578
جج	7579
فاط	7580
هان	7581
يهم	7582
ڪتي	7583
##4ع	7584
##جيڪٽ	7585
ماسٽر	7586
روانو	7587
خودم	7588
ٻاهران	7589
چونڊن	7590
موبائيل	7591
خالص	7592
وآ	7593
##ڪارن	7594
##تري	7595
##ـه	7596
##ثاني	7597
193	7598
نسخو	7599
جمهوريت	7600
نصب	7601
تعليق	7602
cry	7603
حذ	7604
رڪا	7605
##متي	7606
پيء	7607
##زيد	7608
پيغمبر	7609
تخليقي	7610
دفا	7611
هِن	7612
پاي	7613
انها	7614
وڏين	7615
اسٽار	7616
انگلينڊ	7617
##حيد	7618
برادري	7619
اھا	7620
مسافرن	7621
بقى	7622
bit	7623
ٻان	7624
ٿڌي	7625
معنى	7626
هونئن	7627
سگهيا	7628
wor	7629
ڊسڪ	7630
ڌڪ	7631
##لز	7632
منسو	7633
##ادن	7634
اهڙيءَ	7635
جانچ	7636
ڀيري	7637
روزگار	7638
ڊوڙ	7639
شڪايت	7640
man	7641
سستي	7642
صلى	7643
##ربي	7644
##مئن	7645
ڪيسن	7646
هيڊ	7647
ماس	7648
سيٽنگ	7649
پڙهائي	7650
توجيهي	7651
ac	7652
##کا	7653
روئي	7654
بيٺل	7655
بدقسمتي	7656
آڊيو	7657
شمار	7658
صدار	7659
##خب	7660
##لوب	7661
مشغ	7662
لڳايو	7663
ڪاٺ	7664
اُها	7665
گذارڻ	7666
هُئي	7667
##امينٽ	7668
كمان	7669
كثير	7670
لما	7671
##قى	7672
ڪيمي	7673
##ٽيس	7674
وراڻيو	7675
##ore	7676
سکر	7677
اعتراض	7678
جست	7679
شري	7680
نب	7681
##ـو	7682
##الت	7683
سرم	7684
##ويد	7685
##ڪلهه	7686
بنائڻ	7687
##ابيس	7688
فارميٽ	7689
سچي	7690
##گهه	7691
ڪريم	7692
ايڪسڪس	7693
ڪميونٽي	7694
چيئرمين	7695
رَ	7696
ربي	7697
مصي	7698
ھٿ	7699
##جھ	7700
تڪڙو	7701
##ubl	7702
سهي	7703
عق	7704
يد	7705
ڪنگ	7706
البن	7707
##سٽنگ	7708
ڇوڪرو	7709
##بتني	7710
راڄ	7711
جوابدار	7712
شكلك	7713
پيارا	7714
حوالو	7715
فلٽر	7716
؟؟؟؟	7717
##app	7718
ڊيٽابيس	7719
ڪيميائي	7720
es	7721
سلو	7722
صدا	7723
ڀائ	7724
##9ع	7725
بهار	7726
##جهد	7727
ويڪسين	7728
جذباتي	7729
ڪارپوريشن	7730
تحرير	7731
جَ	7732
نالن	7733
هَ	7734
ووو	7735
ڦا	7736
##6ع	7737
واهه	7738
اوس	7739
برائو	7740
صحتمند	7741
ديگر	7742
اِن	7743
ڊسپلي	7744
احلى	7745
شاخ	7746
جهڙا	7747
رهندڙ	7748
رنگن	7749
سهڪار	7750
اگه	7751
بيا	7752
ڏٺي	7753
##نداسين	7754
مولان	7755
مرض	7756
وارين	7757
وڏيون	7758
ادري	7759
ڌيءَ	7760
ڪٿان	7761
ديگه	7762
اهڙيون	7763
مليل	7764
بچايو	7765
مولانا	7766
نِ	7767
##ثو	7768
##ھا	7769
گڏج	7770
نوٽيس	7771
گوشت	7772
چونڊڻ	7773
سروي	7774
شڪست	7775
اِهو	7776
ضلعي	7777
ڪارڪنن	7778
pr	7779
جتان	7780
دبئي	7781
عض	7782
گيا	7783
##co	7784
##زه	7785
سنه	7786
نيب	7787
پڇڻ	7788
##ros	7789
مداخلت	7790
ماحولياتي	7791
گنجائش	7792
48	7793
ثاني	7794
مذا	7795
##تاب	7796
##هيز	7797
اخي	7798
نامم	7799
جدوجهد	7800
بزن	7801
رلي	7802
فنڊ	7803
پِ	7804
##ti	7805
##طع	7806
واه	7807
ويندس	7808
احوال	7809
اسٽو	7810
پورٽ	7811
آغاز	7812
پيدائش	7813
بب	7814
بور	7815
##گرافي	7816
ليزر	7817
جيتري	7818
طبيعت	7819
by	7820
no	7821
ٽرم	7822
کسي	7823
##ااي	7824
##قق	7825
##ته	7826
2011	7827
فلسفي	7828
ڊيوائس	7829
سٽي	7830
ٽاپ	7831
##حل	7832
##الله	7833
منھن	7834
ميلا	7835
رجسٽريشن	7836
صوبي	7837
صلاحيتن	7838
بجيٽ	7839
75	7840
زياد	7841
غري	7842
گلن	7843
منھنجو	7844
مطمئن	7845
خوشبو	7846
ڪپڙن	7847
کيڏڻ	7848
بني	7849
منفي	7850
##urn	7851
اکرن	7852
كتير	7853
))	7854
dis	7855
بدي	7856
خز	7857
عار	7858
ڌاتو	7859
##سف	7860
##زز	7861
##ايع	7862
سيڪنڊ	7863
ـــــــــــــ	7864
سگهندي	7865
knowاڻ	7866
95	7867
همين	7868
خوبي	7869
ڇڏين	7870
گهٽائڻ	7871
ـــــــــــ	7872
ھيٺ	7873
حرارت	7874
مهمان	7875
فلسط	7876
اثا	7877
ٻُڌ	7878
ملائيشيا	7879
دعويٰ	7880
اندوز	7881
وڄ	7882
ٽنگ	7883
پذير	7884
ڌڻي	7885
##راحه	7886
ڪوٺي	7887
انگن	7888
اختيارن	7889
سيلز	7890
جامع	7891
پيچيده	7892
ناممڪن	7893
حاڪ	7894
يضحك	7895
ٻانهن	7896
پرچ	7897
احسان	7898
ٽيگ	7899
نمايان	7900
يقينن	7901
ation	7902
قيامت	7903
حديث	7904
34	7905
سورا	7906
لاڪ	7907
ڙو	7908
ھجي	7909
۾,	7910
ايسوسي	7911
اخو	7912
2010	7913
فراهمي	7914
پيڪيج	7915
چانهه	7916
what	7917
باڪس	7918
صدين	7919
وائ	7920
منو	7921
رومان	7922
فيها	7923
##ard	7924
پورهي	7925
هنڌن	7926
نفسياتي	7927
ميڪس	7928
ڪلومي	7929
روڪيو	7930
چوٿين	7931
بقا	7932
مدر	7933
موس	7934
ڪيري	7935
رکندا	7936
دوم	7937
اردو	7938
ڄاڻو	7939
رحم	7940
قدمن	7941
عراق	7942
افي	7943
نت	7944
ڀارتي	7945
گيم	7946
##ونگ	7947
ايڏو	7948
البت	7949
جماعت	7950
ڊاڪٽرن	7951
گريڊ	7952
طريقيڪار	7953
ڪسٽمر	7954
منعقد	7955
برنامه	7956
جاني	7957
صفا	7958
عين	7959
فرين	7960
تير	7961
توکان	7962
پرن	7963
ترميم	7964
تعال	7965
اعظم	7966
متان	7967
اولين	7968
تعلقات	7969
احتيا	7970
ميڊيڪل	7971
مشغول	7972
بك	7973
لله	7974
وک	7975
ٻر	7976
ڪرڪيٽ	7977
جنت	7978
ادارو	7979
ڪانگري	7980
وسيلي	7981
next	7982
حقو	7983
##قة	7984
ڪيائون	7985
هيه	7986
مسك	7987
اُنهن	7988
ٻارڙن	7989
سڄڻ	7990
اكثر	7991
##ome	7992
مظاه	7993
خاموشي	7994
اختلاف	7995
ro	7996
فات	7997
قيا	7998
چن	7999
##لح	8000
ماه	8001
##اهم	8002
پورا	8003
عبد	8004
عطا	8005
ٻج	8006
امڪ	8007
ريڊ	8008
پاپ	8009
##ort	8010
رهائش	8011
پيڪنگ	8012
فرمايو	8013
ڊبليو	8014
تلاش	8015
اڙي	8016
شاهي	8017
عادت	8018
وصل	8019
ڏهه	8020
ڪڻ	8021
##رائي	8022
##يٽ	8023
##فع	8024
پوئين	8025
گهمڻ	8026
لاگ	8027
وچولي	8028
تسلم	8029
ويجهي	8030
جيون	8031
رهنمائي	8032
تنھنڪري	8033
عهدي	8034
چئبو	8035
لچ	8036
ڀلو	8037
ڪتو	8038
##نن	8039
##عرف	8040
##شار	8041
هيلو	8042
سردار	8043
سنئون	8044
وٺندي	8045
ننڍن	8046
مرحلي	8047
ڪاريگر	8048
واڌاري	8049
برطانوي	8050
سوراخ	8051
ios	8052
فريم	8053
ڪشم	8054
ايڪ	8055
سگنل	8056
استحڪ	8057
##سمس	8058
ديس	8059
چهري	8060
پنجاب	8061
بجاءِ	8062
فطري	8063
پينل	8064
استحڪام	8065
##بط	8066
##حش	8067
الائي	8068
##راج	8069
سوس	8070
##افر	8071
مشاه	8072
##ڪرن	8073
پارٽين	8074
وسيلن	8075
قلبي	8076
اقتدار	8077
ايجنٽ	8078
اڪيلي	8079
حا	8080
عث	8081
لام	8082
يخ	8083
ٿل	8084
##عين	8085
##هندا	8086
##ٽيڊ	8087
دوز	8088
192	8089
اجل	8090
داستان	8091
ڏيکارڻ	8092
2008	8093
سولو	8094
بھترين	8095
انفرادي	8096
##inks	8097
پارليامينٽ	8098
44	8099
ڊين	8100
##de	8101
##حو	8102
##ذيب	8103
جاپان	8104
محتر	8105
مشورو	8106
مارڻ	8107
فوٽ	8108
تجربن	8109
انگريز	8110
حُ	8111
رشت	8112
پت	8113
##ـر	8114
جوش	8115
ڪيبل	8116
جاپاني	8117
امزح	8118
مدل	8119
ٻيڙي	8120
پهچايو	8121
آزاديءَ	8122
عيسائي	8123
سمجهاڻي	8124
crypt	8125
65	8126
##حص	8127
##ُن	8128
معذ	8129
ويٺل	8130
ميٽ	8131
پروجيڪٽ	8132
يعطي	8133
واعدو	8134
ادارا	8135
ڪانگريس	8136
ائن	8137
حافظ	8138
خلق	8139
وڪري	8140
۾)	8141
##آباد	8142
##طلع	8143
##ڏن	8144
سيشن	8145
خانگي	8146
مرحلن	8147
منجهان	8148
فيڪٽري	8149
دروازو	8150
خشڪ	8151
باقاعده	8152
بز	8153
بچي	8154
ذخي	8155
ڀان	8156
۔۔	8157
ايٽ	8158
##ادري	8159
لاهور	8160
##ace	8161
رياستن	8162
طبعا	8163
سروسز	8164
استادن	8165
خاتمي	8166
پالڻھار	8167
fr	8168
آفت	8169
دون	8170
غذا	8171
##nt	8172
##غي	8173
ماٺ	8174
##سٽس	8175
ورج	8176
ڪنيڪشن	8177
ننڍپڻ	8178
تنظيمن	8179
جهنگ	8180
sindhi	8181
رڪاوٽ	8182
ڀل	8183
##ُو	8184
ريگ	8185
انتها	8186
اخلاق	8187
شكل	8188
اسٽيج	8189
طبقي	8190
اصولن	8191
قطار	8192
افزائي	8193
((	8194
خا	8195
رام	8196
سڳ	8197
شدت	8198
ياري	8199
ٻا	8200
ايون	8201
المل	8202
روزي	8203
##هاها	8204
2000	8205
متفق	8206
يادگار	8207
خوشيءَ	8208
معتبر	8209
مصيبت	8210
بشر	8211
سني	8212
لها	8213
نڪي	8214
ڪامي	8215
##av	8216
##ust	8217
##نده	8218
سالگر	8219
لکين	8220
اسڪولن	8221
خانداني	8222
##اڊا	8223
حادثي	8224
سرٽيفڪيٽ	8225
آيس	8226
مـــ	8227
ٿڌو	8228
ڏور	8229
##بست	8230
##تاح	8231
ٽيلي	8232
پيشڪش	8233
ايپليڪيشنن	8234
ميزبان	8235
آئوٽ	8236
غربت	8237
افيئر	8238
أخ	8239
سع	8240
شئي	8241
نيل	8242
نامي	8243
پڄ	8244
چئو	8245
گهي	8246
##يش	8247
##ناڪ	8248
ناچ	8249
سنڌو	8250
سلط	8251
گاڏ	8252
all	8253
عيسى	8254
br	8255
سارو	8256
مٺي	8257
##هڪ	8258
##صير	8259
##2ع	8260
ٿيس	8261
ايد	8262
منه	8263
معافي	8264
پهلو	8265
##itter	8266
ڳالهائيندي	8267
اھڙي	8268
بيوقو	8269
ماڻي	8270
ڇهه	8271
ڏسان	8272
##حالي	8273
##رادو	8274
شعبن	8275
ڪينسر	8276
مغربي	8277
ڀروسو	8278
رشتي	8279
عرو	8280
وڳي	8281
##ps	8282
##ٽون	8283
##te	8284
کانئس	8285
ڪرسمس	8286
درج	8287
نظرات	8288
پنھن	8289
چيٽ	8290
سياحن	8291
پاؤ	8292
تبديليون	8293
نصيب	8294
400	8295
ڀڄ	8296
ڌا	8297
##جيل	8298
پيس	8299
جناب	8300
بوٽ	8301
فعلا	8302
متحده	8303
37	8304
جهي	8305
ٽڪيٽ	8306
چاپ	8307
گئس	8308
##ڪيٽن	8309
191	8310
الحين	8311
##سپل	8312
رازداري	8313
رائع	8314
بزرگ	8315
چاھيو	8316
39	8317
##ڪيم	8318
برگ	8319
ريزي	8320
ڪتن	8321
نشاند	8322
clubl	8323
clublinks	8324
رك	8325
سلم	8326
ڇڪڻ	8327
ڏکي	8328
کم	8329
##تيءَ	8330
پراڻو	8331
##راحي	8332
##بيه	8333
##مود	8334
عرصو	8335
گهڻيون	8336
اديب	8337
سالياني	8338
news	8339
ٽرمينل	8340
mic	8341
تخت	8342
عبر	8343
##ائز	8344
هڪدم	8345
پيئ	8346
وٽان	8347
بوتل	8348
تبديلين	8349
نازڪ	8350
twitter	8351
معصوم	8352
رون	8353
سٺ	8354
فائن	8355
هد	8356
همت	8357
ڊا	8358
ڪڏھن	8359
##قدر	8360
##ڀي	8361
منط	8362
پئسو	8363
حذف	8364
لهر	8365
##qu	8366
##لڪ	8367
ڪوڪي	8368
سوين	8369
ساله	8370
تنهنجا	8371
خيالي	8372
خداوند	8373
شمسي	8374
اڏام	8375
افتتاح	8376
ماريو	8377
##ايا	8378
##اپور	8379
##گاري	8380
ڪروڙ	8381
پيارو	8382
ڪيڏو	8383
پرائم	8384
ترسيل	8385
ريپ	8386
ڪانگ	8387
حساس	8388
نفسي	8389
هليا	8390
فاطمه	8391
سدا	8392
سٺا	8393
لش	8394
مٺ	8395
هج	8396
الط	8397
معن	8398
يوسف	8399
پاسورڊ	8400
خرابي	8401
ڪالهه	8402
##ious	8403
لچڪ	8404
43	8405
55	8406
آھين	8407
ئون	8408
جع	8409
كي	8410
گلاس	8411
##بائي	8412
##ug	8413
##گاهه	8414
##الب	8415
ڪيترين	8416
##ووووو	8417
ملازمت	8418
آهه	8419
لاس	8420
مھين	8421
نارا	8422
ٽپ	8423
ٿورا	8424
ڀٽو	8425
ويزا	8426
هرڪو	8427
لکيا	8428
سببن	8429
##are	8430
يادگيري	8431
ٽريننگ	8432
تعاليٰ	8433
عيسيٰ	8434
نشاندهي	8435
بيني	8436
زيا	8437
عڪس	8438
نوي	8439
نيم	8440
ڳائڻ	8441
##بند	8442
##شپ	8443
هوم	8444
پرور	8445
##سيءَ	8446
تصويري	8447
پاسخ	8448
1x	8449
ندس	8450
##ائڊ	8451
هوڏانهن	8452
ڪمال	8453
فرمان	8454
ايپس	8455
چهرو	8456
پليئر	8457
حرام	8458
خوفناڪ	8459
بقول	8460
دروازي	8461
مئني	8462
جستجو	8463
يهو	8464
هيء	8465
رواج	8466
رهيس	8467
بران	8468
تحياتي	8469
قيمتون	8470
رياض	8471
ڪڍڻ	8472
##ock	8473
رپيا	8474
اجن	8475
ريو	8476
رڪن	8477
##زون	8478
رويي	8479
بيگ	8480
محروم	8481
احنا	8482
چوٽي	8483
مزاج	8484
منتخب	8485
رستن	8486
كلها	8487
پائيدار	8488
فحش	8489
چنين	8490
موڙ	8491
واح	8492
برآمد	8493
لاڙڪ	8494
صحبت	8495
ريس	8496
عمران	8497
عارضي	8498
أك	8499
لَ	8500
وأ	8501
کُ	8502
##جهي	8503
##دام	8504
##یم	8505
##گوار	8506
##،،	8507
ايڏي	8508
ڪمائي	8509
رسمي	8510
خطاب	8511
چونڊيل	8512
لائيٽ	8513
##آإ	8514
##دانن	8515
##ھائي	8516
##اليشن	8517
ڇوڪرين	8518
ڏسجي	8519
انسٽاليشن	8520
رينج	8521
طالبان	8522
اميدوار	8523
رمض	8524
قيادت	8525
گاڏين	8526
حاجي	8527
##قائي	8528
##ــا	8529
پرهيز	8530
##اااي	8531
عمري	8532
حالانڪ	8533
لائبري	8534
##ide	8535
رستا	8536
سنگاپور	8537
مجموعو	8538
مخالفت	8539
بلوچستان	8540
ايجاد	8541
ٽرمپ	8542
[.	8543
bo	8544
fl	8545
آٽو	8546
بان	8547
خام	8548
رڙ	8549
شخ	8550
چال	8551
##ren	8552
##ڻيون	8553
چونڊي	8554
وٺن	8555
خالد	8556
دهشتگردي	8557
نمونو	8558
prev	8559
mi	8560
آري	8561
رٽ	8562
صار	8563
ضايع	8564
عط	8565
عارف	8566
ماما	8567
وهم	8568
پی	8569
چئل	8570
ڪٽن	8571
##يلت	8572
ميه	8573
##ـــــــــ	8574
عمو	8575
بنجي	8576
فلمن	8577
##ech	8578
پهرئين	8579
تأ	8580
جپان	8581
سڏي	8582
عد	8583
مندر	8584
ڇهن	8585
##سڪر	8586
##ئت	8587
##هند	8588
جوڙو	8589
##يڪر	8590
اوي	8591
ڊيگهه	8592
ڳوليو	8593
فنڪار	8594
۔۔۔۔	8595
اتو	8596
ذا	8597
لمي	8598
مشن	8599
ٽتو	8600
##for	8601
##زد	8602
ايرا	8603
مواص	8604
معروف	8605
هرگز	8606
وره	8607
شهرت	8608
گلاب	8609
وفاد	8610
ڀائرن	8611
برائوزر	8612
ڪلوميٽر	8613
38	8614
خانو	8615
مرو	8616
##خه	8617
##ليش	8618
نهاري	8619
مادر	8620
پناه	8621
ريسٽ	8622
خبردار	8623
##ans	8624
ڏنائين	8625
فلمون	8626
ڪراچيءَ	8627
ڪرنسي	8628
he	8629
جريان	8630
شديد	8631
غذ	8632
ڀڄي	8633
الل	8634
ڏسندو	8635
شود	8636
اولهه	8637
پوندا	8638
قبضي	8639
ڊگري	8640
<<<<	8641
پبلڪ	8642
اعزاز	8643
مذاق	8644
امڪاني	8645
آڱ	8646
آيون	8647
ئين	8648
شفا	8649
مھر	8650
##sapp	8651
##كـ	8652
جواني	8653
##اريءَ	8654
##ايش	8655
فائدن	8656
بچت	8657
جڳھ	8658
اِها	8659
اھم	8660
ڪھڙي	8661
whatsapp	8662
gr	8663
أح	8664
جدت	8665
راحت	8666
سکي	8667
عرفت	8668
پتي	8669
گادي	8670
##bet	8671
##ذر	8672
##سٽل	8673
سمورا	8674
تعل	8675
##صولي	8676
نظرثاني	8677
ديد	8678
بعدين	8679
ڏنيون	8680
دائري	8681
پڙهندڙن	8682
iz	8683
خخخخخ	8684
سجا	8685
صاد	8686
عدم	8687
ڏِ	8688
##عب	8689
تيئن	8690
##ang	8691
اٽلي	8692
گلوبل	8693
مظاهرو	8694
po	8695
ضد	8696
مبت	8697
هائي	8698
وجه	8699
ڦير	8700
کٽي	8701
##هارن	8702
##فري	8703
##نيت	8704
پرنٽ	8705
منڊي	8706
ميري	8707
مشر	8708
مارڪ	8709
پيشه	8710
قيمتن	8711
آگاهي	8712
آئر	8713
ملاح	8714
نَ	8715
##oft	8716
##tic	8717
جوڳي	8718
##ميد	8719
هيٺيون	8720
منها	8721
##ايي	8722
درس	8723
شيطان	8724
ڏيون	8725
مقبول	8726
##arch	8727
وارث	8728
##ڪٽري	8729
جڳهن	8730
پلگ	8731
پُڇ	8732
نازل	8733
فروغ	8734
ڏٺم	8735
قاضي	8736
اڱ	8737
باا	8738
بايد	8739
##ليد	8740
الاس	8741
معرف	8742
ملندڙ	8743
رکيا	8744
ڪتا	8745
##۔۔۔۔	8746
موقف	8747
شفاف	8748
بندوبست	8749
el	8750
أم	8751
می	8752
هئين	8753
##ڪڙي	8754
ويندڙ	8755
سمجھي	8756
نيون	8757
سپاهي	8758
پروگرامن	8759
حفاظتي	8760
صفحن	8761
صديءَ	8762
واشنگ	8763
ميلاپ	8764
ڪشمير	8765
:-	8766
ta	8767
اذ	8768
بست	8769
بقي	8770
لِ	8771
ڪيني	8772
##كات	8773
اينٽي	8774
مشڪ	8775
گھڻا	8776
دلين	8777
ڪتب	8778
پڙه	8779
مخلو	8780
رقص	8781
بدلجي	8782
ڪيريئر	8783
پرائمري	8784
ناراض	8785
اڀر	8786
ڏٺا	8787
##pr	8788
##ذب	8789
##ريائين	8790
رولي	8791
سوار	8792
سرحد	8793
ٻڌاءِ	8794
##خلص	8795
str	8796
پئسن	8797
سمجھڻ	8798
گردش	8799
عش	8800
گائيڊ	8801
انچ	8802
مادري	8803
سمجهو	8804
ننڍا	8805
سپل	8806
فورس	8807
جيئرو	8808
ملوث	8809
ظاھر	8810
نڀ	8811
وهن	8812
واب	8813
ڏات	8814
##خذ	8815
##زيل	8816
##ید	8817
##ضع	8818
انٽي	8819
پيپر	8820
گذريو	8821
اسٽاپ	8822
وٺندا	8823
ڳوليندا	8824
##ااااي	8825
ايجنسي	8826
ھوندو	8827
انجنيئرنگ	8828
اليڪٽرانڪ	8829
تابع	8830
ڪچهري	8831
ابا	8832
فائون	8833
مام	8834
وهو	8835
##فون	8836
##ُر	8837
##يڪو	8838
##يڪا	8839
موٽڻ	8840
ڪيڏي	8841
ادائ	8842
منتظر	8843
##able	8844
ڳاڙهو	8845
سراسري	8846
ميونسپل	8847
go	8848
ضي	8849
ميرا	8850
##گراف	8851
تهذيب	8852
##يارين	8853
ٿيڻو	8854
الضحك	8855
بيٺي	8856
وربي	8857
ترق	8858
تباهي	8859
ڏسون	8860
وڻن	8861
خوابن	8862
گريجو	8863
فضيلت	8864
##ime	8865
نعمت	8866
وحده	8867
ماشاء	8868
ٺاهيندڙن	8869
نيويارڪ	8870
يهمك	8871
عبدالو	8872
ڪٽنب	8873
آثار	8874
ابن	8875
جڙيل	8876
خم	8877
ڇت	8878
استن	8879
خوا	8880
اسٽريٽ	8881
سچائي	8882
ٽيڪنيڪل	8883
دٻاءُ	8884
معمول	8885
##age	8886
آئيني	8887
ادائگي	8888
ڄام	8889
هوش	8890
پويون	8891
ماي	8892
##اليت	8893
##اهت	8894
مٿا	8895
حجم	8896
فائرنگ	8897
47	8898
ii	8899
بڇ	8900
عزم	8901
قولي	8902
ليو	8903
گاهه	8904
##آم	8905
##قر	8906
##uc	8907
ڪيڏانهن	8908
بيحد	8909
برچ	8910
##بوليت	8911
چوندي	8912
تناسب	8913
همراهه	8914
خبرن	8915
اپليڪيشن	8916
ھنن	8917
مجازي	8918
موقعن	8919
##َرَ	8920
اشتهارن	8921
جذبات	8922
چورس	8923
ڏهاڪي	8924
حيدرآباد	8925
پروڊڪٽس	8926
##coin	8927
احتياط	8928
1xbet	8929
تعي	8930
طي	8931
وڻي	8932
ڀائيو	8933
ڙا	8934
##ail	8935
##ھه	8936
##ورتي	8937
ڪرپشن	8938
ياح	8939
معقول	8940
بلين	8941
جملو	8942
نقش	8943
بينڪن	8944
نامو	8945
سينيٽ	8946
98	8947
لاي	8948
مڇ	8949
ولو	8950
ٻلي	8951
کپ	8952
##ريه	8953
##افين	8954
حسب	8955
رابطن	8956
جائز	8957
one	8958
رضا	8959
دراصل	8960
گڏجاڻي	8961
sup	8962
##ial	8963
##ظه	8964
##ارٽي	8965
##اڪر	8966
جمعي	8967
ڪلهه	8968
ڪلچر	8969
جنگي	8970
##act	8971
مضمونن	8972
پکڙيل	8973
ڏينداسين	8974
اڇو	8975
play	8976
ايسوسيئيشن	8977
سوسائ	8978
per	8979
فكر	8980
هير	8981
##فين	8982
##ڳا	8983
توازن	8984
##ميز	8985
##ـــــــــــ	8986
مٿس	8987
پئماني	8988
اونهاري	8989
سلامتي	8990
##ختيار	8991
چمڪندڙ	8992
رمضان	8993
previous	8994
استنبول	8995
dr	8996
آبي	8997
جاب	8998
لائي	8999
مارو	9000
نظريو	9001
راجا	9002
سگهجن	9003
inter	9004
مهينو	9005
موقعا	9006
دٻاء	9007
##گزين	9008
ناڪامي	9009
فائونڊيشن	9010
حيو	9011
قاتل	9012
لُ	9013
پايان	9014
##دى	9015
##uct	9016
##يوار	9017
بيچ	9018
جانب	9019
دفن	9020
ولد	9021
پھريون	9022
جهازن	9023
نجات	9024
سيکاري	9025
ذخيرو	9026
چئلينج	9027
اا	9028
تبي	9029
جسٽس	9030
شفت	9031
نانگ	9032
وك	9033
##aw	9034
جيئڻ	9035
هيرو	9036
##ازم	9037
اوز	9038
احسن	9039
ريز	9040
ڇڏيون	9041
ڀرڻ	9042
صوبائي	9043
تكون	9044
سرگرم	9045
بيمارين	9046
زوال	9047
ڊولپر	9048
دفاع	9049
46	9050
بول	9051
شئ	9052
گز	9053
##امت	9054
اهوئي	9055
پردي	9056
ڪوريا	9057
ويسٽ	9058
پاڻم	9059
##ــــــــــ	9060
الحمد	9061
1000	9062
پارٽيءَ	9063
ديوار	9064
ميزباني	9065
پروسيس	9066
سعيد	9067
##ريڊ	9068
##راه	9069
وڃڻو	9070
درآمد	9071
مقدس	9072
صحافي	9073
اڄڪلهه	9074
قابو	9075
منجهه	9076
hd	9077
اندي	9078
ميٽرو	9079
ماڻهون	9080
ورت	9081
##ويه	9082
نيڻ	9083
بدلائي	9084
تعالى	9085
85	9086
ناري	9087
ڀلائي	9088
##يزن	9089
چيس	9090
بدون	9091
قرباني	9092
وسري	9093
چئجي	9094
اجنبي	9095
برچسب	9096
42	9097
اضحك	9098
عدد	9099
فئ	9100
##أي	9101
اوت	9102
ريٽ	9103
##مينان	9104
زندگيء	9105
مليون	9106
ڪپڙي	9107
ڪڍيو	9108
اطمينان	9109
داخلي	9110
مديريت	9111
search	9112
surn	9113
te	9114
زرا	9115
زلز	9116
ستن	9117
مچ	9118
ڪٽڻ	9119
##رج	9120
##حق	9121
هيئن	9122
پوڻ	9123
ويچار	9124
ٽيپ	9125
اڄوڪي	9126
اسٽاف	9127
##افيه	9128
بنائي	9129
پيروزي	9130
نياز	9131
scl	9132
اثرائتي	9133
bitcoin	9134
بيوقوف	9135
surname	9136
زيو	9137
ڪائي	9138
##كو	9139
##هوا	9140
##اسون	9141
محد	9142
اُڀ	9143
يعنى	9144
##منٽ	9145
ind	9146
گراف	9147
اختيارين	9148
قطر	9149
,,,	9150
سنجيده	9151
حقوق	9152
پاڻمرادو	9153
3d	9154
تـ	9155
شغ	9156
غي	9157
نديم	9158
يف	9159
ٽار	9160
##ـہ	9161
##فة	9162
##ائتو	9163
##ــو	9164
اهڙين	9165
اله	9166
پيٽر	9167
سمورن	9168
فيچر	9169
لڳندي	9170
##ank	9171
فائلن	9172
يونان	9173
ڳوڙهي	9174
ڊوائيسز	9175
ضمير	9176
اغوا	9177
پناهه	9178
رعايت	9179
حاڪم	9180
mac	9181
تض	9182
فرح	9183
##اپو	9184
##ast	9185
پيڊ	9186
هيهيهي	9187
##اااااا	9188
خوشگوار	9189
سڃاڻي	9190
مرحلو	9191
نڪتل	9192
جھڙو	9193
بغاوت	9194
سلطنت	9195
لشڪر	9196
تست	9197
جِي	9198
حامي	9199
فائي	9200
مٽائي	9201
هانگ	9202
ڌرين	9203
گند	9204
##ڊيم	9205
##جم	9206
روئڻ	9207
ڪوپن	9208
ساحل	9209
ڇڏيندي	9210
اڳواڻي	9211
ائڻ	9212
انقلابي	9213
گهوٽ	9214
مايوس	9215
شناسي	9216
بزنس	9217
فلسطين	9218
home	9219
بير	9220
طلع	9221
غزل	9222
هڙ	9223
ڪٽي	9224
##ساب	9225
##ڊمي	9226
##ff	9227
##روح	9228
ڪوش	9229
سواري	9230
فيڊ	9231
##شيار	9232
##ana	9233
ڏاڍا	9234
وڻندڙ	9235
بعدي	9236
انتظاميه	9237
تذ	9238
فال	9239
ڀٽائي	9240
ڄمار	9241
ڏوه	9242
##ld	9243
##der	9244
ايسٽ	9245
الأ	9246
##دات	9247
پوڙهي	9248
امارات	9249
##نڊي	9250
چاهيندو	9251
سياح	9252
ڳوڙها	9253
شكلها	9254
سکيو	9255
مڃي	9256
سهولتون	9257
ريڪارڊ	9258
نسبتا	9259
پورهيت	9260
sclnt	9261
آيد	9262
ذو	9263
راهي	9264
شپنگ	9265
##وَ	9266
##ڪشي	9267
موهن	9268
##اڪا	9269
سرد	9270
مرة	9271
مرک	9272
لڳن	9273
ريلي	9274
جملي	9275
گرام	9276
##آآآ	9277
سُر	9278
چوٿون	9279
##ible	9280
ڪاميٽي	9281
دارو	9282
رائي	9283
كلم	9284
چت	9285
##واب	9286
ايڪٽ	9287
معج	9288
ڪوري	9289
بيس	9290
ميم	9291
تحفا	9292
مارڪيٽن	9293
سکو	9294
2009	9295
ڏيکاريل	9296
سافٽويئر	9297
ارسالي	9298
مريضن	9299
لأن	9300
گناهه	9301
دوزخ	9302
ايراضي	9303
واشنگٽن	9304
cas	9305
آڪس	9306
جدي	9307
ٽولي	9308
ڄائو	9309
##لين	9310
پيوند	9311
پرسي	9312
برش	9313
فيهم	9314
وٽس	9315
لوگو	9316
وياسين	9317
اچان	9318
##جهڙائي	9319
رحمت	9320
انڊين	9321
ساٿين	9322
اينڊرائيڊس	9323
شھ	9324
فس	9325
يي	9326
ٺهي	9327
##کس	9328
##يڪس	9329
سگريٽ	9330
اينڪس	9331
ڏيڻو	9332
ساخت	9333
ريال	9334
اُھي	9335
راڳ	9336
پڙهيل	9337
پاڙ	9338
آفيسرن	9339
##لعب	9340
رسيد	9341
سرگرميون	9342
پڌرو	9343
***	9344
لائبريري	9345
64	9346
سمي	9347
يآ	9348
##انج	9349
الدين	9350
##لايو	9351
سگهه	9352
سمو	9353
برع	9354
شيشي	9355
بلڊنگ	9356
ادامه	9357
انگل	9358
ـــــــــــــــ	9359
پڇا	9360
##ورنس	9361
روشنيءَ	9362
##ake	9363
يقيناً	9364
ٿورڙي	9365
سربراهه	9366
عبدالوحيد	9367
تڏھن	9368
ننگ	9369
هري	9370
ڦري	9371
المن	9372
رويو	9373
##رفيس	9374
مدري	9375
##عدين	9376
جمال	9377
##ure	9378
بنات	9379
ٽوڪ	9380
لاڳاپا	9381
زخم	9382
وحدت	9383
out	9384
xd	9385
بِ	9386
تجنن	9387
دول	9388
عاج	9389
کی	9390
##خط	9391
##يڪي	9392
نظران	9393
تجزي	9394
وٺندڙ	9395
150	9396
سنگت	9397
طبق	9398
حتمي	9399
پھچ	9400
ٻوڏ	9401
ڇپيل	9402
پروفائل	9403
فائنل	9404
نظرانداز	9405
mp	9406
ليا	9407
هك	9408
هول	9409
پرائيو	9410
نقشو	9411
ڄاڻايل	9412
کاڌ	9413
##ami	9414
العالم	9415
پھرين	9416
ڪئمپ	9417
پالتو	9418
غلطيون	9419
گهريلو	9420
quot	9421
اسٽوڊيو	9422
امل	9423
مڪي	9424
ممت	9425
##هـ	9426
##tr	9427
##نيد	9428
هيچي	9429
منش	9430
امڙ	9431
ٻڌڻي	9432
اعج	9433
پرومو	9434
گهٽجي	9435
##ick	9436
لائيو	9437
كانت	9438
ٽيوب	9439
سوسائٽي	9440
ha	9441
ion	9442
بائ	9443
تط	9444
خلو	9445
دخل	9446
ستر	9447
شيل	9448
قم	9449
ٽول	9450
ڊس	9451
##که	9452
##سٽنٽ	9453
ليٽ	9454
ارد	9455
فيصلا	9456
اختياري	9457
مصنوعي	9458
سائٽ	9459
ڊائري	9460
دستاويزن	9461
دائمي	9462
ايڊيٽر	9463
sa	9464
آآ	9465
ڪبو	9466
##ep	9467
##گان	9468
معنا	9469
اوپن	9470
##شنر	9471
##سٽن	9472
وچان	9473
عيب	9474
صوفي	9475
مفاد	9476
ڊپارٽ	9477
بدلائڻ	9478
ھوندي	9479
ضابطن	9480
اڪيڊمي	9481
ڪيفيت	9482
micros	9483
شخصي	9484
can	9485
mar	9486
سهڻ	9487
فهم	9488
ٻاھر	9489
##ڪيل	9490
##hm	9491
روئ	9492
رومن	9493
امور	9494
سگهيس	9495
190	9496
آمريڪن	9497
جوابدارن	9498
سچل	9499
برازيل	9500
خوبصورتي	9501
موڪليل	9502
خلص	9503
زرعي	9504
زرداري	9505
امريڪا	9506
ڀڃڪڙي	9507
ڪئناڊا	9508
ڪوڪيز	9509
زراعت	9510
microsoft	9511
49	9512
more	9513
بــ	9514
دن	9515
ساد	9516
ليل	9517
نخ	9518
يش	9519
##ix	9520
##gle	9521
ڏيندس	9522
سگهين	9523
عليهم	9524
گھڻن	9525
فرار	9526
بحري	9527
ٻوليون	9528
اوند	9529
مائٽن	9530
نظريي	9531
نصيحت	9532
پگهار	9533
رليز	9534
پاؤڊر	9535
صادق	9536
مٿاڇ	9537
53	9538
عص	9539
چشم	9540
##صول	9541
تيم	9542
پها	9543
انهيء	9544
ڪونھي	9545
خوشحالي	9546
حڪومتي	9547
اٿن	9548
صارفن	9549
معاو	9550
بھتر	9551
غلامي	9552
ڪارپوريٽ	9553
رٽائر	9554
سٿ	9555
شک	9556
چالو	9557
##ڻين	9558
##ديءَ	9559
##ولتن	9560
رواني	9561
ويه	9562
ڪمشنر	9563
مشا	9564
ليٽر	9565
باش	9566
اسڪين	9567
اسپيڪر	9568
موڪلن	9569
تشخي	9570
پُر	9571
انٽرفيس	9572
اونداهي	9573
ڪوششن	9574
ly	9575
تِ	9576
شهن	9577
هڻڻ	9578
چَ	9579
##ضم	9580
##ئرس	9581
هلڪو	9582
مٿو	9583
تجربا	9584
مهارت	9585
حياتيءَ	9586
ضابطو	9587
اميدوارن	9588
حوصلا	9589
41	9590
56	9591
lg	9592
اقو	9593
تارن	9594
جلو	9595
قادر	9596
نعم	9597
ڊوي	9598
گڏي	9599
##تكم	9600
اندا	9601
سمورو	9602
مسڪين	9603
ٻڌايان	9604
##تما	9605
نيرو	9606
غيرها	9607
مالڪن	9608
ساڳيا	9609
ٻوٽي	9610
خاتمو	9611
عثمان	9612
sl	9613
اري	9614
تلو	9615
فنا	9616
ھيو	9617
##وين	9618
##آل	9619
##حدود	9620
##نيه	9621
نيري	9622
##واٽ	9623
بلاول	9624
سرواڻ	9625
گروهه	9626
##ass	9627
اعتراف	9628
زينب	9629
ڀاڱي	9630
انتظاميا	9631
ڇپائي	9632
مشكور	9633
سمجهندا	9634
حملن	9635
لامحدود	9636
مبتلا	9637
ذمي	9638
سوني	9639
شرا	9640
غالب	9641
ودي	9642
😂😂	9643
##بارن	9644
##سار	9645
توهين	9646
##سٽين	9647
محت	9648
پهتا	9649
##بود	9650
دوره	9651
اخذ	9652
لوڻ	9653
ڪهاڻين	9654
مجلس	9655
صنف	9656
2007	9657
ائپ	9658
تقريباً	9659
نشانيون	9660
مھل	9661
خصوصيت	9662
لچڪدار	9663
مئنيجر	9664
مھرباني	9665
سپلائر	9666
bible	9667
آت	9668
ظالم	9669
##فارم	9670
##ڀرو	9671
ميد	9672
گهم	9673
سمر	9674
پهتي	9675
سندي	9676
شيڊ	9677
##وليت	9678
اجمل	9679
سهولتن	9680
چونڊون	9681
نامن	9682
مائٽ	9683
ووڊ	9684
کرد	9685
سڪون	9686
يعطيك	9687
##form	9688
ir	9689
بشم	9690
تک	9691
جبر	9692
دخ	9693
سحر	9694
نز	9695
کاري	9696
##اگرام	9697
##بيا	9698
##ظي	9699
##ضل	9700
##--	9701
هنر	9702
پرسپ	9703
ڪنن	9704
ريسر	9705
اُٿ	9706
آرمي	9707
بدين	9708
ڪلين	9709
پاسپورٽ	9710
انجمن	9711
##پریس	9712
آزمائشي	9713
ويڙهه	9714
محترم	9715
هدف	9716
پايه	9717
##ـا	9718
##ُون	9719
##>>	9720
ميگ	9721
مرسي	9722
اخوي	9723
لکن	9724
والا	9725
غيره	9726
مثلا	9727
ڳالهائيندو	9728
ابتدا	9729
ٻولهه	9730
گليڪس	9731
فاتح	9732
ريسرچ	9733
51	9734
88	9735
if	9736
rec	9737
آصف	9738
مدار	9739
ڪيڪ	9740
##ud	9741
##الٽ	9742
پيسا	9743
لکندو	9744
لوازم	9745
جهل	9746
اڪيل	9747
دستخط	9748
ڳوٺن	9749
جذبي	9750
ونڊو	9751
##ign	9752
واسطي	9753
صدق	9754
مٽيءَ	9755
فهد	9756
ڳڻپ	9757
حالانڪه	9758
59	9759
تدري	9760
حدن	9761
ناصر	9762
هدي	9763
کس	9764
کٽڻ	9765
گار	9766
##ov	9767
##لل	9768
##pe	9769
##كة	9770
ڪندين	9771
ملندا	9772
ورتا	9773
ورهائي	9774
ليبار	9775
لکت	9776
ناپس	9777
صلاحڪار	9778
دهلي	9779
برابري	9780
منجھ	9781
ميوزيم	9782
awami	9783
گورنر	9784
اوسط	9785
بدو	9786
سليم	9787
مجن	9788
واٽر	9789
ويهڻ	9790
ورڈ	9791
##نديون	9792
يعين	9793
اخبارن	9794
بچاء	9795
قانونن	9796
نگاه	9797
سلطان	9798
واڌارو	9799
اسپيڊ	9800
06	9801
sk	9802
آڌ	9803
رپور	9804
لڪي	9805
وصولي	9806
اسسٽنٽ	9807
روبو	9808
سويت	9809
سالم	9810
شاھ	9811
ڪارا	9812
پرواهه	9813
نيپ	9814
قرب	9815
بچه	9816
بلاش	9817
اكل	9818
ڪپڙو	9819
گيٽ	9820
نشانو	9821
##گزاري	9822
awaz	9823
ڪڻڪ	9824
ٽتوٽ	9825
حرا	9826
سڪي	9827
يَ	9828
پڪو	9829
چپن	9830
ڪش	9831
ڪڙي	9832
##ِل	9833
هوشيار	9834
منا	9835
اڳئين	9836
پروژه	9837
دلبر	9838
ديگري	9839
کانپوء	9840
نفسك	9841
پُٽ	9842
فضل	9843
اوچائي	9844
ماشى	9845
انشورنس	9846
بالغن	9847
مزدور	9848
ورڈپریس	9849
دى	9850
نك	9851
ڇي	9852
ڊن	9853
ڏُ	9854
ڪجو	9855
ھدايت	9856
##to	9857
##طيني	9858
##ھون	9859
##ارتن	9860
اسما	9861
##اتار	9862
معائن	9863
بيه	9864
بيبي	9865
پهت	9866
هونءَ	9867
تبلي	9868
##ضيع	9869
##ضيه	9870
بنيادن	9871
تجرب	9872
معاون	9873
انسٽاگرام	9874
مَن	9875
شوقين	9876
عذر	9877
ميڪسيڪو	9878
ur	9879
اڻو	9880
لبن	9881
ٽئ	9882
چاندي	9883
ڊون	9884
گاهي	9885
##اهن	9886
##ile	9887
##صور	9888
##انيا	9889
الد	9890
##سيون	9891
ميڙ	9892
ترڪ	9893
##ناطي	9894
پروٽو	9895
that	9896
گروپن	9897
مڃڻ	9898
شويه	9899
ڌيءُ	9900
مافيه	9901
ڊيمو	9902
ٽيليو	9903
ڊويزن	9904
ائون	9905
جبت	9906
شپ	9907
ٽائم	9908
ڀائر	9909
ڪامل	9910
انور	9911
الان	9912
ڪيمپ	9913
بيٽ	9914
ورڊ	9915
فرز	9916
آرڪ	9917
وانت	9918
ديدار	9919
ــــــــــــــــ	9920
دوستو	9921
هٿان	9922
##end	9923
بوڪ	9924
لفظي	9925
ڪامرس	9926
پيرس	9927
ڪابينا	9928
وبعدين	9929
نينهن	9930
اليڪٽرڪ	9931
ڪارخانو	9932
غذائي	9933
600	9934
77	9935
اهن	9936
رآ	9937
ظهور	9938
قدي	9939
مــــ	9940
ياس	9941
##ولڪ	9942
##يلن	9943
ورتل	9944
ورهيه	9945
بايو	9946
فرش	9947
آخرت	9948
تقدير	9949
##ens	9950
ڄاڻان	9951
عالمن	9952
رهبر	9953
شاديءَ	9954
ڀاڱ	9955
بينڪنگ	9956
بيوس	9957
نياڻي	9958
گذرڻ	9959
مسكين	9960
برعڪس	9961
01	9962
hu	9963
id	9964
net	9965
جس	9966
جزا	9967
رشيد	9968
لڏ	9969
مئل	9970
ڳري	9971
##ian	9972
##nd	9973
##ضا	9974
##قيت	9975
معطل	9976
ملائ	9977
ناهيان	9978
ڏاڏي	9979
شينهن	9980
سمجھيو	9981
کلڻ	9982
سستا	9983
ago	9984
مينيجر	9985
صدارتي	9986
do	9987
آله	9988
آچر	9989
زون	9990
سيو	9991
عكس	9992
قريب	9993
پائپ	9994
ڇن	9995
ڊچ	9996
##ـِ	9997
##فس	9998
##ائلي	9999
##ورنيا	10000
بيروز	10001
سمهڻ	10002
##ـــا	10003
همٿ	10004
افسان	10005
سينگار	10006
##urren	10007
##itt	10008
درياهه	10009
انگريزيءَ	10010
عبرت	10011
لاڙڪاڻي	10012
پرسپولي	10013
57	10014
اڏي	10015
اتم	10016
عظ	10017
متر	10018
وڙهي	10019
يان	10020
يسو	10021
ٽهڪ	10022
ڏجي	10023
##per	10024
##ـل	10025
بيٺا	10026
اڳڪ	10027
باھ	10028
##عود	10029
عملدارن	10030
نقطه	10031
بدترين	10032
فارس	10033
سائيٽون	10034
##ورنٽ	10035
گرفتاري	10036
conn	10037
سستو	10038
رڪنيت	10039
ٽيليويزن	10040
آد	10041
زباني	10042
سكس	10043
شار	10044
لف	10045
لڏي	10046
ود	10047
پخت	10048
پائو	10049
پئرس	10050
چهر	10051
ڏه	10052
##عال	10053
##ورس	10054
اسوي	10055
ڪرو	10056
سگھان	10057
وڃائڻ	10058
امکان	10059
ليك	10060
فرهن	10061
اُھو	10062
پارٽن	10063
##مانس	10064
نقشي	10065
##سينو	10066
ـــــــــــي	10067
پڇو	10068
مُنهن	10069
ڳولهي	10070
##ليفورنيا	10071
عبدالله	10072
ڀوڳ	10073
تشخيص	10074
دة	10075
رڻ	10076
غف	10077
قصي	10078
هاڪ	10079
##ـَ	10080
موتي	10081
ڪيپ	10082
جاگرافي	10083
ڪمرو	10084
محقق	10085
برڪت	10086
اعص	10087
يوناني	10088
هُئا	10089
اڻڄ	10090
وارنٽي	10091
نگاهي	10092
وسيلا	10093
نشر	10094
يارڪ	10095
##ڀرائي	10096
پکين	10097
زوج	10098
رجسٽرڊ	10099
ملهايو	10100
small	10101
سالگره	10102
##urrenc	10103
goo	10104
جِ	10105
خفي	10106
راء	10107
طراحي	10108
كف	10109
نسيت	10110
ياب	10111
ٽڪرو	10112
ڀين	10113
##ـت	10114
##پريس	10115
##غر	10116
ايستائين	10117
##نيم	10118
##ولين	10119
ميمڻ	10120
بلڊ	10121
مڪاني	10122
تقاض	10123
آبهوا	10124
شهادت	10125
ڀرجي	10126
تسلسل	10127
لنڪس	10128
ايمانداري	10129
artic	10130
اسرائي	10131
كلامك	10132
رشتو	10133
ملتوي	10134
بشمول	10135
ليبارٽري	10136
بضحك	10137
فاهم	10138
مٽا	10139
ٽائون	10140
چط	10141
گران	10142
##وڙي	10143
##شاپ	10144
##حح	10145
##صرن	10146
##book	10147
##گذ	10148
##ائيز	10149
مولوي	10150
##ميش	10151
##قيه	10152
ماهو	10153
ميک	10154
ليڊر	10155
سامسنگ	10156
حقيقتن	10157
تصد	10158
منصوبا	10159
سارا	10160
بادل	10161
ڳاڙهي	10162
طريقه	10163
63	10164
هــ	10165
ٺاهه	10166
ڪڙ	10167
تيستائين	10168
پولي	10169
سوئي	10170
درجو	10171
ليڊ	10172
هئائين	10173
سهڻو	10174
يونيورسٽيءَ	10175
جھڙي	10176
هالينڊ	10177
سريع	10178
سازش	10179
ڳڻتي	10180
ويڙه	10181
ترقياتي	10182
86	10183
800	10184
غسل	10185
لنا	10186
يوني	10187
##كان	10188
##ts	10189
##ڏهين	10190
جيڪر	10191
##ميءَ	10192
##اهد	10193
مقناطي	10194
نواب	10195
##ary	10196
اپو	10197
ڪوششون	10198
نسلن	10199
##شمند	10200
سنڀالڻ	10201
بندوق	10202
جميله	10203
مشاهدو	10204
لميٽيڊ	10205
مخلوق	10206
article	10207
58	10208
sd	10209
ter	10210
شال	10211
صاب	10212
قمر	10213
وبا	10214
گمان	10215
##ڊين	10216
##زمين	10217
##ber	10218
##ندين	10219
سانچو	10220
##داع	10221
ورائي	10222
مرزا	10223
لاڏ	10224
عيون	10225
رهبري	10226
خانه	10227
مرحوم	10228
بجد	10229
اطال	10230
ڀليڪار	10231
حبيبي	10232
زنجي	10233
جيئري	10234
مكان	10235
google	10236
96	10237
il	10238
اجا	10239
هائ	10240
چريو	10241
##ضاب	10242
جيءَ	10243
هني	10244
موزون	10245
##گيٽ	10246
عربن	10247
رنگين	10248
خودڪشي	10249
اشوف	10250
ڊگھي	10251
ديوتا	10252
نوڪريون	10253
بادشاھ	10254
ڇوڪريءَ	10255
بصري	10256
اڀياس	10257
مٿاڇري	10258
معائنو	10259
اڳڪٿي	10260
mon	10261
حيا	10262
كبير	10263
مڱ	10264
مروري	10265
يمن	10266
چادر	10267
ڳچي	10268
##زادي	10269
##ياڻي	10270
السي	10271
ڪيليفورنيا	10272
پرستي	10273
پوڄ	10274
ويهه	10275
محشش	10276
لڳاتار	10277
فرني	10278
تجارت	10279
ڄاڻايو	10280
مُن	10281
صوبن	10282
گريه	10283
سائنسدان	10284
##ليفون	10285
بمبئي	10286
مؤمن	10287
ورهاڱي	10288
غريبن	10289
52	10290
gb	10291
my	10292
over	10293
آذ	10294
باه	10295
تَ	10296
حفظ	10297
فيني	10298
لهڻ	10299
يمه	10300
ڀُ	10301
کائيندا	10302
ڪشش	10303
##ڳن	10304
ايڪشن	10305
##روڪ	10306
سرانج	10307
ترى	10308
آرش	10309
ايڪسپريس	10310
ويجھو	10311
تشريح	10312
ٽيمن	10313
وهڪري	10314
پروسيسر	10315
پروفائيل	10316
ريسٽورنٽ	10317
ڊپارٽمينٽ	10318
سرانجام	10319
":	10320
//	10321
69	10322
are	10323
cor	10324
آور	10325
ديني	10326
ٽائ	10327
چري	10328
##ڪم	10329
##بع	10330
هيم	10331
ڪوٺ	10332
سوٽ	10333
مقبوليت	10334
باضاب	10335
فرمائي	10336
##نڊو	10337
لوهه	10338
ڏسن	10339
اسڪالر	10340
بحر	10341
ٺاهيا	10342
روزانه	10343
##ite	10344
علائقائي	10345
رهائشي	10346
حڪمراني	10347
وهڪرو	10348
شموليت	10349
بنايو	10350
comp	10351
طالب	10352
جبلن	10353
آزمائش	10354
خودمخت	10355
اثاثن	10356
lo	10357
so	10358
،،،	10359
جمل	10360
عس	10361
نثار	10362
کوڙ	10363
##عون	10364
##les	10365
##ment	10366
##یر	10367
انسٽي	10368
پوڊ	10369
بيئر	10370
سيف	10371
نوٽس	10372
دوستان	10373
ضرب	10374
##نڊا	10375
يعرف	10376
راج	10377
وانگي	10378
قومون	10379
شرٽ	10380
قربان	10381
تعميراتي	10382
ديوان	10383
هدايتون	10384
آڻيندو	10385
صنعتن	10386
سليمان	10387
پرائيويٽ	10388
اوندهه	10389
شيڊول	10390
نامناسب	10391
تبليغ	10392
03	10393
par	10394
باني	10395
تسل	10396
ٻاري	10397
##شين	10398
توليد	10399
پرک	10400
واٽس	10401
ميخو	10402
##ايائين	10403
محب	10404
ترس	10405
گھڻ	10406
پارچه	10407
يادداشت	10408
افري	10409
سوچن	10410
رنگي	10411
ٽرڪ	10412
##ild	10413
قلعي	10414
عدالتي	10415
لڪير	10416
spec	10417
پروفيشنل	10418
هٽائڻ	10419
##یکس	10420
بنگلا	10421
كتب	10422
منسوخ	10423
معرفي	10424
فرنيچر	10425
08	10426
et	10427
up	10428
غني	10429
فليٽ	10430
كو	10431
مجي	10432
کاتو	10433
##رة	10434
##نِ	10435
##لائن	10436
##ينڊر	10437
اسڪر	10438
بهتري	10439
##ميس	10440
هيڏانهن	10441
وڃون	10442
محافظ	10443
سرخ	10444
##ins	10445
پيشگيري	10446
جهت	10447
سيڪنڊن	10448
هندستاني	10449
ڊپٽي	10450
عيسوي	10451
فاسٽ	10452
پابنديون	10453
ڏياريو	10454
ٺهرايو	10455
تلوار	10456
oem	10457
ليول	10458
وما	10459
ڇڪي	10460
##اٽ	10461
##نڍ	10462
##ei	10463
انتو	10464
##ــر	10465
ڪردارن	10466
##اتا	10467
##ايم	10468
محتا	10469
ورزش	10470
تحب	10471
##ـــو	10472
گهٽائي	10473
واپارين	10474
علائقا	10475
col	10476
پياده	10477
مصري	10478
شاعرن	10479
ترجمان	10480
ڪالم	10481
ڪميونسٽ	10482
ارتقا	10483
ٻرندڙ	10484
لوازمات	10485
پارٽنر	10486
اى	10487
بَ	10488
ذائ	10489
شيو	10490
قبي	10491
نيت	10492
چالي	10493
##كب	10494
##انين	10495
هنيو	10496
##دوم	10497
منهم	10498
روانا	10499
ڪوڙو	10500
محمود	10501
تعبير	10502
دادو	10503
سينسر	10504
ھيءَ	10505
زمانو	10506
##und	10507
بيڪار	10508
سٽون	10509
پرينءَ	10510
نينگر	10511
ماضيءَ	10512
ايڊيشن	10513
عجبتني	10514
ٽڪرا	10515
عروج	10516
منطقي	10517
connect	10518
اطالوي	10519
66	10520
min	10521
جهو	10522
دقي	10523
شاد	10524
فليش	10525
پٽن	10526
ڀاء	10527
##ديش	10528
هنگ	10529
ايام	10530
##لود	10531
سوو	10532
##ھيون	10533
برباد	10534
هوند	10535
وراڻي	10536
نوع	10537
نوڪر	10538
عيش	10539
عناصر	10540
هفتو	10541
##ays	10542
##زوج	10543
جذبو	10544
ڳنڍيندڙ	10545
##ٽيوٽ	10546
پڙهندو	10547
بصير	10548
مزيدار	10549
ممتاز	10550
78	10551
met	10552
اڇي	10553
مگ	10554
چؤ	10555
##سة	10556
##ml	10557
##))	10558
الغ	10559
موا	10560
مانس	10561
پوش	10562
شاپنگ	10563
تحفو	10564
##ڪاٽ	10565
پيشرفت	10566
گذار	10567
جمعه	10568
فاریکس	10569
سوچيندو	10570
مينيو	10571
هفتا	10572
پيامهاي	10573
طبيعي	10574
درستگي	10575
ترڪيب	10576
ذيلي	10577
فكره	10578
فئڪٽري	10579
پرسپوليس	10580
54	10581
:$	10582
sy	10583
فص	10584
يزيد	10585
ڍنڍ	10586
کائيندو	10587
##عيل	10588
هوسٽنگ	10589
ٿوڪ	10590
##هانت	10591
ماستر	10592
وڌندي	10593
مردم	10594
امس	10595
پريمي	10596
آزمائي	10597
فوڊ	10598
روزو	10599
##ice	10600
تاثر	10601
زمري	10602
لاڳاپو	10603
##پرست	10604
دريا	10605
بيشتر	10606
آڪسي	10607
ضمني	10608
اڱڻ	10609
67	10610
79	10611
bon	10612
آک	10613
آڷ	10614
سٽا	10615
لهم	10616
هائيڊ	10617
##ِين	10618
##َل	10619
##__	10620
##ge	10621
نهاريو	10622
##رايو	10623
اوري	10624
برائي	10625
گھري	10626
اجايو	10627
شوف	10628
##فوتكم	10629
حقيقتون	10630
تفريح	10631
نگار	10632
آپريٽر	10633
دعائون	10634
وَرو	10635
ers	10636
قصه	10637
مدير	10638
##جانءِ	10639
مؤثر	10640
هٽايو	10641
ڪڪڙ	10642
؟؟؟؟؟	10643
زياده	10644
انسٽيٽيوٽ	10645
[/	10646
ps	10647
ser	10648
صلح	10649
پهن	10650
پندر	10651
ڇان	10652
گارن	10653
##ئيٽ	10654
##هوم	10655
برد	10656
باشد	10657
لڳڻ	10658
انتى	10659
مارڪس	10660
اداس	10661
فونز	10662
وساريو	10663
بخشي	10664
بلاگر	10665
120	10666
سنگين	10667
تنھنجو	10668
ويڪس	10669
پراڊڪٽس	10670
منسوب	10671
knowاڻون	10672
فرزند	10673
ho	10674
بئ	10675
تغ	10676
حن	10677
صفر	10678
ڦو	10679
##اين	10680
##قف	10681
##ــت	10682
##ستگي	10683
منز	10684
##اتين	10685
سوڀ	10686
##اسم	10687
بسر	10688
ساڄي	10689
گھڙي	10690
چيائون	10691
##نوع	10692
سبسڪر	10693
پيشينه	10694
##ari	10695
افعال	10696
بچاءُ	10697
مرڪب	10698
##ocurrenc	10699
تعلقي	10700
بائي	10701
دانهن	10702
نٽ	10703
نداري	10704
پزش	10705
##عع	10706
##ue	10707
##ضه	10708
##ندن	10709
اوور	10710
برج	10711
تعين	10712
مسز	10713
ليپ	10714
ٽيليفون	10715
پروٽين	10716
صحافين	10717
متحد	10718
رسالي	10719
##ماڪي	10720
##باره	10721
inc	10722
عنصرن	10723
سگھيو	10724
ـــي	10725
وجهڻ	10726
مطالبن	10727
مسافرت	10728
ـــــــــــــــــــ	10729
cryptocurrenc	10730
ٽارگيٽ	10731
محتاط	10732
97	10733
ca	10734
تنا	10735
حتي	10736
خري	10737
ذه	10738
سلا	10739
سفيد	10740
عيو	10741
نارو	10742
گويد	10743
##نه	10744
##less	10745
##ram	10746
##ڇا	10747
##شاهه	10748
##ديات	10749
اسٽر	10750
مولا	10751
پوائن	10752
اوپ	10753
ورجن	10754
ڊيز	10755
فائبر	10756
اهڙيء	10757
تحقيقي	10758
250	10759
لڪائي	10760
نڪرندو	10761
عجبني	10762
ذوق	10763
پائوڊر	10764
76	10765
93	10766
بالي	10767
تكم	10768
دستي	10769
سھ	10770
كدا	10771
لون	10772
يبي	10773
##ear	10774
##َي	10775
##أل	10776
##ابندي	10777
هوت	10778
واضع	10779
معرفت	10780
مشرو	10781
اُٿي	10782
پارسي	10783
راست	10784
##ااااا	10785
شكلي	10786
لائنز	10787
ڏکو	10788
هندن	10789
وليد	10790
صورة	10791
نكته	10792
نمونن	10793
ڌنڌو	10794
مزدورن	10795
المنت	10796
اپوزيشن	10797
باضابطه	10798
مجيد	10799
02	10800
res	10801
حالي	10802
دهي	10803
نائب	10804
وني	10805
ٺهڻ	10806
ڦي	10807
ڪڇ	10808
##وش	10809
##اذ	10810
##ne	10811
##یل	10812
##ؤن	10813
انڪش	10814
انحص	10815
##ميه	10816
پردا	10817
##راس	10818
سرزمين	10819
##اهل	10820
بڻيو	10821
##ated	10822
سفرن	10823
هفتيوار	10824
نفسيات	10825
عندنا	10826
جھاز	10827
انڊيڪس	10828
مبرو	10829
دارد	10830
اينديون	10831
اڏاوت	10832
نيڪي	10833
ڪيمرا	10834
کنيد	10835
ٽاور	10836
فرينچ	10837
ڪينيڊا	10838
اسرائيلي	10839
انڪشاف	10840
di	10841
face	10842
gl	10843
شنگ	10844
صديق	10845
پست	10846
گس	10847
##رد	10848
##od	10849
##جلس	10850
##ُـ	10851
##ائد	10852
مطلق	10853
ٻيلي	10854
عمارتن	10855
پڙھ	10856
بحب	10857
مالياتي	10858
لائٽ	10859
موضوعن	10860
ڄڻن	10861
ٽوڙڻ	10862
آرامده	10863
پلانٽ	10864
صدارت	10865
گياهي	10866
انٽيلي	10867
not	10868
ol	10869
ros	10870
ww	10871
آق	10872
جرا	10873
مياد	10874
وخ	10875
گاه	10876
۲۰	10877
##اول	10878
##صه	10879
##ھور	10880
ايشي	10881
مول	10882
پراس	10883
معد	10884
اوب	10885
اوك	10886
چوڻي	10887
جهلي	10888
تجديد	10889
سامعين	10890
inst	10891
اڻڻ	10892
پنجم	10893
ساڻن	10894
مشكله	10895
فهمت	10896
جعلي	10897
مشرقي	10898
quote	10899
05	10900
pay	10901
رغ	10902
ٿِي	10903
چٽ	10904
ڪٿا	10905
##ـٍ	10906
##ــه	10907
معزز	10908
بيڊ	10909
ميت	10910
ڏيهه	10911
سرن	10912
##فيٰ	10913
واپر	10914
ترقيءَ	10915
تفري	10916
معاك	10917
مهدي	10918
آگهي	10919
مڙني	10920
نشانين	10921
بليڪ	10922
اسماعيل	10923
ای	10924
تارا	10925
ذك	10926
لڪل	10927
هذ	10928
وائيس	10929
ٻاج	10930
پادري	10931
##نز	10932
##َّ	10933
##ڇر	10934
##سير	10935
##قان	10936
بهره	10937
##نيس	10938
منجه	10939
برگزاري	10940
درجا	10941
ڏيارڻ	10942
مرڪي	10943
مشيني	10944
واريءَ	10945
حاصلات	10946
شاٽ	10947
غيرت	10948
ارجن	10949
وارثن	10950
وچين	10951
##واع	10952
بخير	10953
نامزد	10954
چاچا	10955
کردن	10956
فضا	10957
بصراحه	10958
نظريه	10959
سِر	10960
off	10961
لنگهي	10962
پٺتي	10963
پیش	10964
عظمت	10965
ثان	10966
زيور	10967
ليت	10968
ونگ	10969
ٻٽي	10970
ڀاڪر	10971
ڌماڪي	10972
گفتي	10973
##ڪول	10974
##مس	10975
##خاني	10976
##باس	10977
##حك	10978
##أأ	10979
##راحة	10980
پوکي	10981
ويهن	10982
ميث	10983
پهريائين	10984
لاطيني	10985
ليب	10986
ليبل	10987
احلام	10988
ريان	10989
لکان	10990
##جاهه	10991
داغ	10992
گھربل	10993
ڪامريڊ	10994
پئسي	10995
##ows	10996
پڪڙي	10997
گهڻائي	10998
صحتيابي	10999
مفهوم	11000
##out	11001
ٽرانز	11002
knowاڻو	11003
mehm	11004
سوئچ	11005
اتوقع	11006
مواصلات	11007
يسوع	11008
ul	11009
wind	11010
دک	11011
رأي	11012
صفت	11013
متي	11014
نچ	11015
نفي	11016
وول	11017
پٺي	11018
گوي	11019
ڳج	11020
##ئم	11021
##چين	11022
##گارن	11023
انواع	11024
##ليلي	11025
##ليسي	11026
بهادر	11027
ڪوئ	11028
ويز	11029
ملائڻ	11030
نوعيت	11031
دوائن	11032
هئم	11033
ڪاش	11034
صحافت	11035
ريئل	11036
زندگين	11037
نيڻن	11038
بڻيل	11039
بڻجڻ	11040
##ندڙن	11041
تاريخن	11042
بندش	11043
اشاعت	11044
2003	11045
منصوباب	11046
ايپليڪيشنون	11047
آگاهه	11048
وصف	11049
ھوندا	11050
عقيدي	11051
ٺاھڻ	11052
حاجة	11053
البنات	11054
پرچم	11055
taj	11056
هڙتال	11057
ايشيائي	11058
منصوبابندي	11059
pe	11060
أنت	11061
بسي	11062
بـــ	11063
دڙي	11064
رسو	11065
قاف	11066
نـ	11067
ڄاتو	11068
گرف	11069
##طني	11070
##ضاء	11071
توي	11072
پيمان	11073
مناس	11074
اوطا	11075
گهران	11076
گهرايو	11077
مدني	11078
راتيون	11079
انگليسي	11080
ڪلهي	11081
تصميم	11082
##rom	11083
پنهنجين	11084
##رررر	11085
اكبر	11086
فلسفو	11087
خالق	11088
##كككك	11089
جادوگر	11090
طويل	11091
des	11092
jo	11093
op	11094
pb	11095
آهو	11096
اً	11097
ذخ	11098
ذهانت	11099
رڌ	11100
طار	11101
هِي	11102
يصير	11103
پژ	11104
##علوم	11105
##ha	11106
##كا	11107
##قبال	11108
##ڙهن	11109
جيسين	11110
##امد	11111
الث	11112
هيڏي	11113
مطلوب	11114
انتق	11115
ناج	11116
عملدار	11117
جمهور	11118
##ator	11119
شكر	11120
پاسن	11121
تڪڙ	11122
يونيورسٽين	11123
فيسبو	11124
حادث	11125
وڙهڻ	11126
رولر	11127
مبارڪون	11128
بائبل	11129
آسو	11130
ثانيه	11131
ران	11132
سڙي	11133
ظرف	11134
كثر	11135
نائي	11136
##ِر	11137
##طة	11138
##غى	11139
##گال	11140
جوسينو	11141
پيري	11142
وڃايو	11143
ڏيڍ	11144
اجتما	11145
بالا	11146
##ical	11147
پنجين	11148
ٽوڙي	11149
ڪُل	11150
يسعد	11151
يڪدم	11152
اڀري	11153
ــــــــــــــا	11154
ڌوئڻ	11155
دروازا	11156
جارج	11157
پيڪنگنگ	11158
سلمان	11159
62	11160
bu	11161
ئه	11162
تور	11163
هلو	11164
هٽائي	11165
وئين	11166
وها	11167
ونا	11168
##واري	11169
##ٻر	11170
روعه	11171
اوٽ	11172
نظرن	11173
المق	11174
رياستي	11175
ٽنهي	11176
ديوي	11177
ڀاڳ	11178
سفارت	11179
ربنا	11180
سنڀالي	11181
هدايتن	11182
عهد	11183
بغداد	11184
trans	11185
گهوڙي	11186
سؤال	11187
حاجه	11188
اثرائتو	11189
جهنگلي	11190
واحده	11191
اوزارن	11192
زلزلي	11193
vi	11194
آلات	11195
فديت	11196
قصد	11197
ڀون	11198
چِ	11199
ڌرم	11200
گيل	11201
گوري	11202
##عك	11203
##ديو	11204
##داء	11205
##زاء	11206
##یں	11207
##yl	11208
##انچي	11209
اسد	11210
مودي	11211
پرا	11212
##راط	11213
پوريون	11214
معلم	11215
ميگا	11216
سمهي	11217
وقتن	11218
تما	11219
##فيق	11220
پنهون	11221
##احد	11222
##ong	11223
وارڊ	11224
اپلوڊ	11225
بالله	11226
##roti	11227
ردعمل	11228
دستور	11229
غلطين	11230
چڱا	11231
##زرلينڊ	11232
هاڻوڪي	11233
مشينري	11234
زيارت	11235
صلاحيتون	11236
جوڙڻ	11237
لمحن	11238
ڇوڪريون	11239
##ulana	11240
اڇا	11241
amroti	11242
خاطري	11243
maulana	11244
رپين	11245
able	11246
فولڊر	11247
ڪولم	11248
پرورش	11249
محتاج	11250
mehmood	11251
73	11252
ev	11253
mm	11254
آقا	11255
خخخ	11256
ردي	11257
صال	11258
وفي	11259
يست	11260
ٺٽي	11261
ڪئل	11262
گان	11263
##مدار	11264
##fl	11265
##ــن	11266
##امون	11267
ڪيٿ	11268
معين	11269
##اهين	11270
پنهنجيءَ	11271
سڀڪن	11272
دردن	11273
گهرائي	11274
جنب	11275
يونس	11276
حڪومتن	11277
سچا	11278
اندازه	11279
درخواستون	11280
##ree	11281
فلپ	11282
دانلود	11283
سورج	11284
لعنت	11285
پڇيائين	11286
نداره	11287
موسمي	11288
سڀڪنھن	11289
os	11290
داني	11291
رهون	11292
لڙ	11293
لڙڪ	11294
ڀنگ	11295
ڪچي	11296
ڪافر	11297
##كِ	11298
##کت	11299
##ائتي	11300
اسڪيم	11301
پيشن	11302
جاوا	11303
وادي	11304
ورک	11305
مشرف	11306
سنت	11307
ٻڌائين	11308
پيشو	11309
اڪبر	11310
همدر	11311
جماع	11312
ڄاڻندا	11313
##ith	11314
اٿارٽي	11315
اڻيو	11316
نڪتا	11317
احتساب	11318
ڪئپ	11319
شماري	11320
آڻيندا	11321
ويران	11322
متوقع	11323
حڪمرانن	11324
سهڻا	11325
68	11326
خس	11327
رهان	11328
راني	11329
ساه	11330
وحي	11331
ٻَ	11332
ٿڌ	11333
##رك	11334
##لله	11335
پراڻا	11336
##سيع	11337
روين	11338
ميهن	11339
محفل	11340
ولايت	11341
مٿيون	11342
تاثير	11343
كلنا	11344
##ish	11345
عنده	11346
بعرف	11347
دٻايو	11348
ent	11349
ڏٺائين	11350
##pli	11351
پرسش	11352
سرمايو	11353
يهودي	11354
اوطاق	11355
فيسبوڪ	11356
ke	11357
اِي	11358
زب	11359
شق	11360
فز	11361
لسه	11362
ناف	11363
ييييي	11364
ڦه	11365
ايگز	11366
ماشي	11367
اوليه	11368
سيال	11369
شيٽ	11370
لڳس	11371
زندهه	11372
188	11373
سائينءَ	11374
ساره	11375
وفاق	11376
اڇل	11377
رزق	11378
هيلٿ	11379
قاعدن	11380
بنگلاديش	11381
تفريحي	11382
07	11383
83	11384
92	11385
hy	11386
med	11387
pd	11388
ئن	11389
جري	11390
رِ	11391
سائو	11392
قائل	11393
##وڻ	11394
##ملي	11395
انق	11396
ايڪو	11397
پيسٽ	11398
ورڇ	11399
گھرن	11400
سبز	11401
هلن	11402
ڳالهائيندا	11403
ھيون	11404
دفتر	11405
تحقيقات	11406
سگھجن	11407
ڪهڙيون	11408
ائڊ	11409
۔۔۔۔۔۔۔	11410
اُنھن	11411
مشينن	11412
لکڻين	11413
گھٽائڻ	11414
ترجمي	11415
سائنسدانن	11416
وڪڻڻ	11417
ارادي	11418
سڪندر	11419
جدول	11420
اڪيلائي	11421
windows	11422
اجتماعي	11423
car	11424
cent	11425
ver	11426
ادو	11427
جگر	11428
جدائي	11429
دشم	11430
ـآ	11431
كلي	11432
لڙائي	11433
ڇانو	11434
ڪڪر	11435
##بڪ	11436
##mo	11437
##شك	11438
##شاد	11439
انڌ	11440
هنج	11441
##ائيزيشن	11442
سوري	11443
اڳواٽ	11444
وٽن	11445
نيز	11446
لکندا	11447
جهڙن	11448
حڪمن	11449
گرافي	11450
تخيل	11451
ائٽ	11452
وائرل	11453
دٻي	11454
فلسفه	11455
theي	11456
iso	11457
ڊيوٽي	11458
سوئٽ	11459
المللي	11460
وفادار	11461
اندازي	11462
آڌار	11463
انحصار	11464
باي	11465
ثواب	11466
سورن	11467
عني	11468
كريم	11469
لس	11470
لت	11471
نُ	11472
ڪاف	11473
ڳائي	11474
##gr	11475
##ظاهر	11476
##ضر	11477
ڪرسي	11478
ڪراس	11479
جاڳي	11480
جاگير	11481
اوى	11482
گهٽي	11483
سيٺ	11484
ڪجان	11485
پنن	11486
مارئي	11487
تنها	11488
##صيب	11489
يوزر	11490
ڄاڻون	11491
ٻارڙا	11492
خدائي	11493
لڳيون	11494
حلوين	11495
ant	11496
ــي	11497
ايوب	11498
چاڙهي	11499
لاڳاپن	11500
امتيا	11501
ايڊريس	11502
ڳالھه	11503
##تكلم	11504
آسانيءَ	11505
شخصيتن	11506
ندارد	11507
پڄاڻي	11508
اعصاب	11509
دشمني	11510
تڙ	11511
جلس	11512
سئي	11513
سعد	11514
ناا	11515
هيرن	11516
##جري	11517
##كون	11518
##فف	11519
##حين	11520
##ظير	11521
انر	11522
##ــــي	11523
روٽ	11524
استقبال	11525
مسو	11526
##يتا	11527
مقر	11528
آره	11529
آرگن	11530
##ond	11531
هلڪي	11532
پريان	11533
بدلو	11534
يقطع	11535
سڏجي	11536
مانيٽر	11537
خواهشمند	11538
قطع	11539
داره	11540
نصاب	11541
نظرياتي	11542
رضام	11543
فهمي	11544
چيلهه	11545
حبيبتي	11546
البته	11547
گريجوئيشن	11548
اسڪرپٽ	11549
خدم	11550
عضو	11551
ٺا	11552
ٻڏي	11553
چني	11554
##مز	11555
##مره	11556
##كره	11557
##ٹر	11558
##غب	11559
##ثل	11560
##ابه	11561
الاهي	11562
ڪرڻا	11563
واجب	11564
روب	11565
بيهڻ	11566
فيض	11567
##بتك	11568
اسٽين	11569
ڇڏيان	11570
خطن	11571
مممممم	11572
مجاز	11573
السعودي	11574
مُر	11575
تشوف	11576
ائپس	11577
اڪائونٽس	11578
##ash	11579
رھڻ	11580
ساراهه	11581
سفير	11582
سڃاڻڻ	11583
الصورة	11584
اديبن	11585
سگهنداسين	11586
مداح	11587
معذور	11588
پنھنجن	11589
ميموري	11590
sol	11591
zone	11592
افا	11593
لاني	11594
مڙي	11595
نشي	11596
ييي	11597
ٻڏ	11598
پائونڊ	11599
ڀائي	11600
گهن	11601
##ٿل	11602
ڪيٽي	11603
##راد	11604
اوه	11605
##سٽا	11606
اينيم	11607
##سمين	11608
##ere	11609
کاڌا	11610
پروگرامنگ	11611
خاندانن	11612
ايوان	11613
مباح	11614
لڪيل	11615
روڊن	11616
آڻيو	11617
قرارداد	11618
شناخت	11619
ڪارخاني	11620
نانءُ	11621
البنت	11622
سلوڪ	11623
ريپبل	11624
بستري	11625
فرهنگي	11626
تقاضا	11627
مبروك	11628
ناجائز	11629
74	11630
89	11631
].	11632
تائي	11633
خبري	11634
سايت	11635
سخن	11636
شدن	11637
قري	11638
قصو	11639
مى	11640
ووووو	11641
ٽام	11642
ٿورن	11643
چگ	11644
##ڪائي	11645
##فار	11646
##أإ	11647
##چينج	11648
ڪرم	11649
ايلي	11650
##ابع	11651
منكم	11652
تعصب	11653
ٻڌائيندو	11654
##ــــــــــــ	11655
اُٺ	11656
راجع	11657
##ينيشن	11658
اسٽيڪ	11659
ٻارهن	11660
ابليس	11661
ايڪسچينج	11662
تحقيقاتي	11663
this	11664
طبقن	11665
وجهه	11666
##ڪتاڻ	11667
دريءَ	11668
جذبن	11669
ڪرايا	11670
العافيه	11671
##oll	11672
مفادن	11673
روايتن	11674
الخط	11675
هارڊويئر	11676
لحظه	11677
فاصلي	11678
يخلي	11679
اوباما	11680
ڪئلينڊر	11681
sw	11682
أس	11683
بخت	11684
بلب	11685
تلف	11686
سـ	11687
هارين	11688
ڌارين	11689
ڦل	11690
کنيا	11691
##آت	11692
ايلو	11693
توجه	11694
روحي	11695
ويٺ	11696
وڌائين	11697
سمجهون	11698
يعجب	11699
ارز	11700
شهزادي	11701
درخواستن	11702
اڳوڻو	11703
طبع	11704
لهجي	11705
جيترا	11706
##ube	11707
ڪُجهه	11708
ايڊمن	11709
ٻوٽن	11710
چڱيءَ	11711
وبائي	11712
شاهد	11713
مرتب	11714
مصروفيت	11715
اااااااا	11716
عراقي	11717
جارح	11718
سرٽيفڪيشن	11719
لقب	11720
ٿلهي	11721
ايٽمي	11722
برانچ	11723
fa	11724
sn	11725
أخي	11726
حڪيم	11727
خب	11728
دائو	11729
ستا	11730
والي	11731
ٻني	11732
ڇڪتاڻ	11733
ڊال	11734
##ek	11735
##ڙجي	11736
##گهي	11737
##هيم	11738
سانس	11739
ڪروم	11740
الٽ	11741
الاءِ	11742
موٽو	11743
ڪوه	11744
ڪوڙي	11745
ويلي	11746
##ادم	11747
درٻ	11748
ورق	11749
مشكل	11750
ڪاسٽ	11751
ضرورتون	11752
اسٽريم	11753
ڇڏيائين	11754
ڪمپنيءَ	11755
وسارڻ	11756
چارٽ	11757
مصن	11758
پيرامون	11759
رينجر	11760
دهشتگرد	11761
ڀاڱو	11762
part	11763
بگي	11764
تاني	11765
رايو	11766
ساهي	11767
لـ	11768
مباني	11769
نال	11770
نادر	11771
هآ	11772
چش	11773
ڏاڪ	11774
ڦهل	11775
##لهه	11776
##ائري	11777
کيڏي	11778
انجن	11779
انكم	11780
انضم	11781
اسپورٽ	11782
اسرار	11783
##جوز	11784
بيزار	11785
ويڙهي	11786
ملئي	11787
سمن	11788
مشوري	11789
مشھور	11790
ڪارائتو	11791
ريفري	11792
اُڏ	11793
سنڌين	11794
داشت	11795
ٺاهيندا	11796
پڇاڙي	11797
بنهه	11798
منتديات	11799
سفري	11800
پھريان	11801
جرئت	11802
پکسل	11803
اٺن	11804
ايڪسڪسڪس	11805
دارومدار	11806
مترجم	11807
سوئٽزرلينڊ	11808
انضمام	11809
pc	11810
ss	11811
نح	11812
ڪِي	11813
##ڪرا	11814
##ورك	11815
##ائيونگ	11816
##لاتي	11817
پوپ	11818
پوئل	11819
سيٽن	11820
ڪجه	11821
ورهايو	11822
ورثي	11823
سمجھو	11824
گذاريو	11825
رسالو	11826
رسالت	11827
پاڻيء	11828
ميلون	11829
پارٽيون	11830
ماريا	11831
چڱيء	11832
هزارن	11833
ــــــــــــــــــــ	11834
ڌمڪي	11835
آفتاب	11836
ايگزيڪ	11837
ئِي	11838
بات	11839
كأ	11840
ٽور	11841
چانڊ	11842
##رٽ	11843
##داس	11844
بيهو	11845
ويم	11846
سوالي	11847
سومر	11848
دوائون	11849
##عداري	11850
بلبل	11851
اجزاء	11852
آزمون	11853
ٽيڪسٽ	11854
ممبئي	11855
stain	11856
ڳالهائيندڙ	11857
زميني	11858
189	11859
مهراڻ	11860
ستين	11861
##oot	11862
موڪليا	11863
گولڊن	11864
اربع	11865
باغي	11866
نداسين	11867
تابعداري	11868
ملهائڻ	11869
ٿورڙو	11870
imp	11871
آلودگي	11872
سادگي	11873
سوويت	11874
منزلن	11875
خريدار	11876
09	11877
82	11878
iv	11879
pa	11880
sim	11881
آلي	11882
اكتب	11883
حك	11884
حرم	11885
فريب	11886
كش	11887
ومن	11888
وائس	11889
ڀڳو	11890
ڪثر	11891
ھجڻ	11892
ھميشه	11893
##چل	11894
##ژي	11895
##هيءَ	11896
اللع	11897
ڪيب	11898
##جوم	11899
رومي	11900
ڪوڪ	11901
بيج	11902
بيٽا	11903
ويژ	11904
اڳڀرائي	11905
مشار	11906
##يتو	11907
فرن	11908
##مينيم	11909
دادا	11910
اسٽينڊ	11911
بينظير	11912
افضل	11913
سينئر	11914
مٿن	11915
اسپيني	11916
سهارو	11917
برادر	11918
اكس	11919
گلابي	11920
خرچن	11921
نديءَ	11922
ميزان	11923
الوقت	11924
دائرو	11925
اتحادي	11926
ضحكتني	11927
دهشتگردن	11928
يرج	11929
سيکاريو	11930
ٺاھيو	11931
هلايو	11932
قويه	11933
يسلمو	11934
خودمختيار	11935
پروٽوڪول	11936
زنجير	11937
stainless	11938
بٽ	11939
جـــ	11940
رف	11941
رائيٽ	11942
سڻ	11943
سجيل	11944
شفته	11945
ماب	11946
مٺو	11947
ٽم	11948
ٽال	11949
ڀَ	11950
##ومي	11951
##مع	11952
##خير	11953
##bo	11954
##<<	11955
##يولي	11956
موٽيو	11957
منصور	11958
##راز	11959
سودا	11960
ڪمائڻ	11961
رهيب	11962
اڳين	11963
##يما	11964
نوٽيف	11965
ڊيڄ	11966
پرويز	11967
##عوري	11968
رايا	11969
ارجو	11970
ادخل	11971
جوابي	11972
پريم	11973
پريشر	11974
اپارٽ	11975
int	11976
فيصلن	11977
اسپام	11978
قبلي	11979
تفسير	11980
گروه	11981
ترجمه	11982
انڊوني	11983
سياستدان	11984
لمحو	11985
ماتحت	11986
اهلڪار	11987
آسٽريا	11988
اگهه	11989
تجويزون	11990
ناقص	11991
مائڪروس	11992
پيراهن	11993
طلعت	11994
پاڙيسري	11995
فاصلو	11996
سسئي	11997
ميليون	11998
فساد	11999
روبوٽ	12000
آڪسيجن	12001
نوٽيفڪيشن	12002
fi	12003
اريد	12004
تز	12005
ذوب	12006
ستي	12007
سامي	12008
عاب	12009
كـ	12010
لالا	12011
مهن	12012
نائ	12013
يني	12014
پٿ	12015
ڄمڻ	12016
چٽي	12017
ڇُ	12018
ڍڪ	12019
ڏهين	12020
گندي	12021
##وڪو	12022
##جمينٽ	12023
##جيا	12024
هوءِ	12025
توتي	12026
استعي	12027
برٽ	12028
اينجلس	12029
مرك	12030
تربي	12031
##ائنس	12032
نواف	12033
ساعت	12034
پنجاهه	12035
آنلائن	12036
ـــــــــي	12037
خلاصو	12038
پڇيم	12039
ڪجھھ	12040
بخو	12041
مهربان	12042
رابطه	12043
2005	12044
ڳولها	12045
وينداسين	12046
اقتباس	12047
جوڙيو	12048
ايماندار	12049
مورد	12050
دشمنن	12051
قالت	12052
سمجهندو	12053
سٺن	12054
بااثر	12055
جانبدار	12056
ذميداري	12057
bonus	12058
link	12059
wat	12060
بستر	12061
جرن	12062
حلا	12063
ذهين	12064
رڙيون	12065
صب	12066
غار	12067
ـہ	12068
يحب	12069
٢٠	12070
ٽچ	12071
ٽنڊو	12072
ڀاني	12073
ڇهين	12074
##پولي	12075
##ڃاڻ	12076
الى	12077
پيشي	12078
پيٽرول	12079
پراڻن	12080
هيري	12081
معكم	12082
سوير	12083
ملٽي	12084
برهم	12085
برداري	12086
فيكم	12087
ترك	12088
تعميل	12089
نوري	12090
مارشل	12091
##ors	12092
ڄاڻن	12093
تصوف	12094
زميندار	12095
ang	12096
كلكم	12097
عندكم	12098
جائزي	12099
اميره	12100
ڏوھ	12101
سوچيم	12102
الوداع	12103
رضاڪ	12104
قلبك	12105
هندوستان	12106
مذمت	12107
گناهن	12108
htt	12109
ماسڪو	12110
acc	12111
سرمايه	12112
crypto	12113
مھينا	12114
وفاداري	12115
آئرلينڊ	12116
suppli	12117
منشيات	12118
ويڪسينيشن	12119
facebook	12120
مائڪروسافٽ	12121
suppliers	12122
04	12123
آسي	12124
اااا	12125
سق	12126
ميا	12127
مڙهي	12128
ناح	12129
ڀٽ	12130
ڦٽ	12131
گنگ	12132
ھلي	12133
##ٻو	12134
##ارميشن	12135
انسپ	12136
موج	12137
موڙي	12138
ويٽ	12139
ويجهڙائي	12140
سولي	12141
##رينا	12142
سرح	12143
ازل	12144
گھو	12145
اختر	12146
عملو	12147
هلون	12148
گرائونڊ	12149
ڪمپنيء	12150
ـــــــي	12151
اشك	12152
بخار	12153
سڏيندا	12154
نگاهه	12155
حدون	12156
سگھندا	12157
عباس	12158
اھڙو	12159
ميوو	12160
ٻوٽو	12161
##agram	12162
آسماني	12163
انفارميشن	12164
cont	12165
black	12166
اداڪارا	12167
ٿڪجي	12168
رومانوي	12169
ايدك	12170
حيوان	12171
##گذار	12172
www	12173
چنيسر	12174
دائود	12175
mart	12176
آيه	12177
ابر	12178
جند	12179
ضبط	12180
طف	12181
عمي	12182
عبا	12183
ـي	12184
فڪس	12185
مڻ	12186
نرو	12187
ٽٽي	12188
ڄم	12189
چمي	12190
ڊڪ	12191
##نڀ	12192
##ry	12193
##بالر	12194
انهم	12195
اسي	12196
##روي	12197
ياسين	12198
منصف	12199
##اهون	12200
لڳندا	12201
اُميد	12202
ايمر	12203
##ath	12204
##ينڊل	12205
ڳوٺاڻن	12206
##اطب	12207
کانسواء	12208
نگران	12209
اهلڪارن	12210
org	12211
مرتضي	12212
باقاعدي	12213
انشاء	12214
جبهه	12215
ويچاري	12216
ڊوڙندو	12217
##ugh	12218
post	12219
مشڪلات	12220
پرسيد	12221
##يڪيشن	12222
شنگھائي	12223
طارق	12224
ايلومينيم	12225
ويژگي	12226
est	12227
led	12228
ms	12229
آش	12230
آند	12231
تپ	12232
دڪ	12233
رچ	12234
شهور	12235
طر	12236
ٿري	12237
ڀٽي	12238
کتاب	12239
گور	12240
##وح	12241
##عنو	12242
##آر	12243
##ـم	12244
##طس	12245
##ضب	12246
##ندؤ	12247
اسمي	12248
اسئل	12249
الگ	12250
السو	12251
ڪيش	12252
جاين	12253
##يلينڊ	12254
روعة	12255
ميئر	12256
سوز	12257
اولي	12258
سما	12259
ترت	12260
ليست	12261
هادي	12262
مقدم	12263
ڇوڪرن	12264
انتم	12265
دورن	12266
علشان	12267
لکو	12268
آموز	12269
##ڪريٽ	12270
راغب	12271
خطر	12272
سينٽي	12273
inf	12274
مخاطب	12275
مجسم	12276
بخاري	12277
الحق	12278
سڏين	12279
موضوعك	12280
نامعلوم	12281
##ase	12282
سارنگ	12283
ايوا	12284
اڏامي	12285
لمحي	12286
ويلڊنگ	12287
منزلون	12288
گاڏيون	12289
شفقت	12290
ڊرائنگ	12291
وحدة	12292
چڙهڻ	12293
ورهايل	12294
##ize	12295
اسڪوٽر	12296
دانشور	12297
هٿياربند	12298
ڌاڙيل	12299
تربيتي	12300
cap	12301
tag	12302
اء	12303
بدم	12304
تند	12305
جپ	12306
حط	12307
زوري	12308
فاني	12309
مفي	12310
نائين	12311
ناي	12312
نثر	12313
ڊڄي	12314
ڦٽي	12315
##ڇو	12316
##ــد	12317
بيٽنگ	12318
محور	12319
مرگ	12320
مشعل	12321
مارٽن	12322
يوڪرين	12323
فوق	12324
پيوست	12325
ڪلپ	12326
مخدوم	12327
ملايو	12328
حملا	12329
ٺيڪي	12330
نصف	12331
آڻين	12332
ذميواريون	12333
پاليسين	12334
لينس	12335
قبرستان	12336
مهانگو	12337
سرمائيداري	12338
گهيرو	12339
instagram	12340
مناسبت	12341
dec	12342
آئل	12343
بكل	12344
حظ	12345
شارٽ	12346
لٺ	12347
نى	12348
ناب	12349
هب	12350
يطلع	12351
پتل	12352
ڪاڻ	12353
گج	12354
ياسر	12355
سود	12356
استحص	12357
گها	12358
جنون	12359
جناح	12360
سرت	12361
ترمي	12362
ليلي	12363
نوڪ	12364
جمعيت	12365
تجسس	12366
نقطو	12367
اپن	12368
منهنجن	12369
اثرن	12370
الحلو	12371
مُون	12372
اسلاميه	12373
ٽوپي	12374
ڊراما	12375
طبقو	12376
تڪڙي	12377
ولله	12378
ابتڙ	12379
ورڪشاپ	12380
ڊپريشن	12381
عاش	12382
ايجنڊا	12383
ــــــــي	12384
مداحن	12385
عقيدو	12386
ڪھڙو	12387
کڻندا	12388
ملهائي	12389
آيتن	12390
ٽريڊ	12391
وآله	12392
ڇڏيندس	12393
سڳورن	12394
نويس	12395
پناهگير	12396
ڇنڇر	12397
cryptocurrency	12398
ٽرانزيڪشن	12399
bonuses	12400
5g	12401
ak	12402
آجي	12403
بتن	12404
سڪل	12405
سٽن	12406
سعود	12407
ڇرڪ	12408
کائو	12409
گين	12410
##رور	12411
##ah	12412
##پمينٽ	12413
##انت	12414
جوري	12415
##ــل	12416
کانئن	12417
ايدي	12418
##ستا	12419
موٽائي	12420
پرائي	12421
منشي	12422
واک	12423
گڏهه	12424
مقدر	12425
نوح	12426
اصح	12427
سبزي	12428
گرجا	12429
فونٽ	12430
گواهي	12431
تجربه	12432
ڳولهيو	12433
ميلو	12434
فعاليت	12435
اصليت	12436
بيشمار	12437
ايوه	12438
چاچي	12439
##old	12440
جمهوريه	12441
comm	12442
ڇپيو	12443
سينٽرل	12444
معذرت	12445
##awei	12446
ميٽروپولي	12447
طبقاتي	12448
huawei	12449
گارنٽي	12450
ميٽروپوليٽن	12451
mat	12452
time	12453
win	12454
with	12455
بأ	12456
بسم	12457
حلي	12458
دھ	12459
ردود	12460
لڄ	12461
مامي	12462
ناد	12463
نميشه	12464
پات	12465
ڊار	12466
ڏٺل	12467
##عر	12468
##شتو	12469
##یا	12470
##یز	12471
##روض	12472
اللى	12473
منور	12474
واڳ	12475
ڪوچ	12476
ڪوٽنگ	12477
وڌندو	12478
درباره	12479
##سمع	12480
سرڪٽ	12481
مرچ	12482
لاڙ	12483
چيومانس	12484
تباد	12485
آخه	12486
چوڪ	12487
قيدين	12488
ذريعا	12489
ڏاڙهي	12490
ٺاهيون	12491
اميدن	12492
inform	12493
چونڊجي	12494
184	12495
##ames	12496
حرارتي	12497
##own	12498
گيج	12499
رفته	12500
صوت	12501
درياءَ	12502
خيرات	12503
ميره	12504
عدالتن	12505
وفد	12506
قطعي	12507
مبني	12508
child	12509
ميٽرڪ	12510
مزاحيه	12511
حادثو	12512
ڀڃي	12513
مايوسي	12514
منافع	12515
work	12516
شماره	12517
منھنجا	12518
تصدق	12519
martech	12520
ment	12521
آدر	12522
أو	12523
حز	12524
زاهد	12525
صر	12526
عيني	12527
ـه	12528
فجر	12529
نانو	12530
وكل	12531
ٿاڻي	12532
چٽو	12533
ڊرا	12534
کند	12535
ڪاهي	12536
##لڻ	12537
##gh	12538
##هندڙ	12539
##ارٽر	12540
انب	12541
##اڻان	12542
اهواز	12543
مومن	12544
##وله	12545
جايون	12546
ميك	12547
ميٽنگ	12548
سوپ	12549
وڃين	12550
باع	12551
دلڪش	12552
متى	12553
قوتن	12554
نقاب	12555
ملير	12556
##مولا	12557
هُجي	12558
عوامل	12559
آوازن	12560
ڳولهڻ	12561
پورهيو	12562
ڪپهه	12563
وقفي	12564
شمس	12565
حبيت	12566
ڪمزوري	12567
چوڌري	12568
پڌري	12569
نمائندن	12570
ٽريول	12571
پيچيدگي	12572
app	12573
لالچ	12574
اسپيس	12575
شلون	12576
رشتن	12577
ورتائين	12578
ڏهاڪن	12579
مقناطيسي	12580
آرشيو	12581
ثانوي	12582
pdf	12583
درٻار	12584
700	12585
94	12586
ber	12587
su	12588
um	12589
year	12590
أهم	12591
جڙي	12592
جھان	12593
حمد	12594
زا	12595
عکس	12596
فدي	12597
كدة	12598
لٽ	12599
مهار	12600
يـ	12601
ڪٽر	12602
##ڪسي	12603
##نڌ	12604
##مة	12605
##بى	12606
##آي	12607
##ږي	12608
##ڍا	12609
انيڪ	12610
مواف	12611
واي	12612
معر	12613
ملان	12614
مشاع	12615
ڪنوار	12616
##بوري	12617
##ـــه	12618
ناٽڪ	12619
اسٽائل	12620
پسر	12621
ملاك	12622
2006	12623
ڊرائيونگ	12624
اقرار	12625
گفتم	12626
زيب	12627
چڪيون	12628
فضائي	12629
رنج	12630
گُل	12631
مٽائڻ	12632
پالڻهار	12633
html	12634
شاخون	12635
جهيڙو	12636
هولڊر	12637
مجنون	12638
پوڄا	12639
قبيلي	12640
بصيرت	12641
اسپورٽس	12642
72	12643
pst	12644
xia	12645
تني	12646
جال	12647
جپاني	12648
رنا	12649
سخ	12650
قمي	12651
وليم	12652
پائين	12653
ڙن	12654
کړ	12655
##ڪشش	12656
##رأ	12657
##خش	12658
##ph	12659
##ـد	12660
##شيم	12661
انح	12662
##اريون	12663
ايز	12664
پرڪشش	12665
##اتن	12666
ويري	12667
ويژه	12668
ميگي	12669
وڌندا	12670
محصول	12671
برتن	12672
هوندس	12673
فيسٽ	12674
ڪنڊي	12675
هاهاها	12676
ڪهاڻ	12677
مثلي	12678
وٺان	12679
عنه	12680
ٽيڪنڪ	12681
سطحي	12682
##ريبين	12683
احساسن	12684
خيرپور	12685
ــــي	12686
ڏوهن	12687
اسپتالن	12688
قسط	12689
سازمان	12690
exp	12691
آغا	12692
بندرگاهه	12693
htc	12694
اسڪالرشپ	12695
هنگامي	12696
عيوض	12697
انڊونيشيا	12698
81	12699
900	12700
pol	12701
آوري	12702
خذ	12703
دلو	12704
سڱ	12705
هـــ	12706
وڪڻ	12707
وندر	12708
کش	12709
کامل	12710
ڪبي	12711
گشت	12712
ھند	12713
##يئي	12714
##كار	12715
##تيم	12716
ڪرس	12717
الكل	12718
ميكن	12719
سمعت	12720
تحليلي	12721
ڪاربان	12722
گردن	12723
پاک	12724
##واره	12725
اولمپ	12726
##كنت	12727
پهچندي	12728
گروهن	12729
نسخ	12730
نسخن	12731
ستار	12732
شڪارپور	12733
اظن	12734
آفريڪي	12735
اسيمبليءَ	12736
شيئرنگ	12737
پکيڙ	12738
روپيا	12739
مهاجر	12740
عقيدت	12741
الكلام	12742
##ives	12743
فكرت	12744
##uck	12745
آڪسائيڊ	12746
لاڏاڻو	12747
اجاگر	12748
آذرب	12749
خودمختياري	12750
av	12751
act	12752
bet	12753
back	12754
lin	12755
tor	12756
ئو	12757
اڷ	12758
اشي	12759
جها	12760
حدا	12761
زيت	12762
شط	12763
شى	12764
صراحه	12765
مقت	12766
هش	12767
ٺھ	12768
ڏڪار	12769
گام	12770
##خبر	12771
##حلي	12772
##پاسي	12773
جوڳو	12774
ڪرسٽ	12775
الفا	12776
ڪيچ	12777
هيئت	12778
##سيس	12779
مسا	12780
لاچار	12781
رکان	12782
آرٽس	12783
ٻيءَ	12784
ٻيڻو	12785
##ڪاش	12786
وسعت	12787
اشاري	12788
##iss	12789
##ility	12790
يورپين	12791
مڃيو	12792
نصير	12793
ليڪچر	12794
جهڙيون	12795
صوره	12796
اتفاقي	12797
رهنديون	12798
هٿيارن	12799
آآآآآ	12800
ڀتين	12801
تيزيءَ	12802
دفاعي	12803
ڀڄڻ	12804
بااختيار	12805
شغل	12806
دڪانن	12807
af	12808
red	12809
ton	12810
yo	12811
دَ	12812
داس	12813
عاي	12814
قاسم	12815
لئي	12816
يلي	12817
ٽريف	12818
پڪي	12819
چشمي	12820
ڊائي	12821
##ڪون	12822
##فالٽ	12823
##کار	12824
##یو	12825
##گنڊا	12826
انجي	12827
مومل	12828
منگ	12829
جاويد	12830
پوڙهو	12831
رهياسين	12832
بره	12833
فيئر	12834
##هاڙي	12835
ورد	12836
ساک	12837
##رحم	12838
##ino	12839
##int	12840
ڏسين	12841
ارشاد	12842
بوٽن	12843
السال	12844
حوالا	12845
پهچندو	12846
ڏکن	12847
براد	12848
بارش	12849
##ings	12850
سُک	12851
فنانس	12852
تڪڙا	12853
نديون	12854
##omi	12855
آسانيء	12856
پڙهندا	12857
آڻيندي	12858
ڪسٽمائيز	12859
سموريون	12860
نوازيو	12861
form	12862
جارجيا	12863
رايكم	12864
منافعي	12865
شريعت	12866
زيادتي	12867
پرچون	12868
اوترو	12869
پاڙون	12870
شهنشاهه	12871
ناپسندي	12872
جرنل	12873
del	12874
od	12875
آتم	12876
اقل	12877
زيد	12878
ســ	12879
مٺا	12880
وون	12881
واڻي	12882
وووو	12883
ٽُ	12884
چاه	12885
کے	12886
##ِڪ	12887
##ric	12888
##بب	12889
##ڙهه	12890
##دون	12891
##طب	12892
توجهه	12893
##جوي	12894
واھ	12895
ملتان	12896
محرم	12897
فيڊر	12898
نوڪرين	12899
همون	12900
صورتن	12901
##اجه	12902
منهنجون	12903
انتظر	12904
##led	12905
سکن	12906
ابد	12907
براڊ	12908
180	12909
نگاري	12910
موڪليندا	12911
سُور	12912
رياستون	12913
نقصانڪار	12914
تڪميل	12915
مذهبن	12916
گفته	12917
ميرپور	12918
معاملا	12919
##oud	12920
ڪُن	12921
نيوزيلينڊ	12922
لڪائڻ	12923
النكت	12924
ضابطي	12925
کوٽائي	12926
max	12927
پاناما	12928
world	12929
##press	12930
ڏوهاري	12931
تجزيي	12932
mp3	12933
معاوضي	12934
اقوام	12935
ڪيٿولڪ	12936
رضامندي	12937
مصنف	12938
ve	12939
خليل	12940
خميس	12941
دام	12942
كِ	12943
لپ	12944
لاب	12945
هرو	12946
ياليت	12947
چاڪ	12948
ھين	12949
##علم	12950
##خبري	12951
##باز	12952
##سول	12953
##سڪو	12954
##يوٽو	12955
اساس	12956
ايريا	12957
##داي	12958
##يڪٽ	12959
##يڪٽر	12960
##راي	12961
ميگه	12962
وڌيو	12963
##اسه	12964
سمايل	12965
امه	12966
ليون	12967
باق	12968
ٽيبلي	12969
پنير	12970
هلان	12971
بدك	12972
اتس	12973
مخزن	12974
روزمره	12975
مٿئين	12976
صلاحون	12977
ايترا	12978
معاكم	12979
اقدر	12980
##ise	12981
##ممم	12982
ساراهي	12983
ڪاميابيءَ	12984
اسمك	12985
سائز	12986
سائبر	12987
ٽائيپ	12988
رهواسي	12989
مذھ	12990
تُون	12991
اااااااااا	12992
لاتع	12993
خواهيد	12994
سيٽنگون	12995
تضاد	12996
پندرهن	12997
آقاي	12998
ٽيبليٽ	12999
gu	13000
her	13001
ut	13002
vol	13003
بنو	13004
بده	13005
بشه	13006
دڙ	13007
زد	13008
غز	13009
غالي	13010
فلا	13011
فاس	13012
قهر	13013
قرن	13014
كار	13015
نارن	13016
هاد	13017
يج	13018
پسم	13019
پذي	13020
چئون	13021
چاهه	13022
ڊائن	13023
ھم	13024
ھفت	13025
۱۳	13026
##وك	13027
##گاس	13028
انڌي	13029
انجيل	13030
ايميل	13031
منسل	13032
پوين	13033
پوٽي	13034
ماڪ	13035
بيٺ	13036
ويتر	13037
ويهاري	13038
مرشد	13039
تعلم	13040
ڳالھيون	13041
رکڻو	13042
##ڪوٽ	13043
ڇوڙ	13044
قيدي	13045
بدعنو	13046
افهم	13047
وٺون	13048
خيالات	13049
خوشحال	13050
ڄاڻندڙ	13051
رابطا	13052
سنڌيءَ	13053
لانگ	13054
زالن	13055
مائع	13056
چندين	13057
الصور	13058
خورشيد	13059
حاضري	13060
تُنهنجي	13061
ڌماڪو	13062
أكيد	13063
تجزيه	13064
آرڪائيو	13065
ڪئپٽن	13066
xiaomi	13067
پذيري	13068
منسلڪ	13069
71	13070
ib	13071
sam	13072
آئس	13073
اڙ	13074
جلي	13075
خُ	13076
لط	13077
واءُ	13078
ٿانو	13079
کائين	13080
##ِء	13081
##شى	13082
##حنا	13083
##ys	13084
##غا	13085
##ونيم	13086
الهي	13087
##ــــو	13088
منى	13089
جات	13090
سيمين	13091
##ٽيشن	13092
اينا	13093
ڪنوين	13094
ساگر	13095
ازم	13096
اُج	13097
تبين	13098
طرفي	13099
راشد	13100
والاري	13101
جاندار	13102
گوڙ	13103
ڪاروائي	13104
حلال	13105
اٿڻ	13106
مُنهنجي	13107
ستارن	13108
##use	13109
وضعيت	13110
نڪتي	13111
بعضي	13112
ڪمپيوٽرن	13113
##ther	13114
فٽبالر	13115
مغرب	13116
قرضن	13117
فرياد	13118
احتجاجي	13119
جهاني	13120
آيتون	13121
راسك	13122
ريگيولي	13123
ڏکيائي	13124
عاجز	13125
pb0	13126
ريپبلڪ	13127
ايگزيڪيوٽو	13128
استحصال	13129
واکاڻ	13130
ٽريفڪ	13131
61	13132
91	13133
bus	13134
cb	13135
cal	13136
ra	13137
well	13138
آهر	13139
بتي	13140
تال	13141
ثال	13142
حسي	13143
عامل	13144
لئ	13145
لتا	13146
لينا	13147
لٿو	13148
هڏ	13149
هميش	13150
ڪـ	13151
ڪاس	13152
##رڻ	13153
##نظر	13154
##ok	13155
##mm	13156
##فيا	13157
##ype	13158
##گائي	13159
جيءُ	13160
##تيار	13161
نهار	13162
هنوز	13163
الشر	13164
پيگيري	13165
ڪيڏا	13166
پرڻ	13167
معه	13168
بيها	13169
گهريو	13170
سيزن	13171
برڪ	13172
##گيشن	13173
ورڪن	13174
نوف	13175
گھمڻ	13176
قوانين	13177
گرڊ	13178
فارمولا	13179
##سلر	13180
زمينن	13181
2004	13182
ستون	13183
گيس	13184
عبير	13185
عندهم	13186
مهمانن	13187
مڃتا	13188
ali	13189
کنيم	13190
اداره	13191
مضحكه	13192
پيپلزپ	13193
پڙهائڻ	13194
آتش	13195
آسودو	13196
87	13197
bot	13198
ele	13199
right	13200
؟'	13201
اڪر	13202
دكت	13203
رگ	13204
زنگ	13205
صبا	13206
كلو	13207
لھ	13208
مريد	13209
ٽرن	13210
پَر	13211
ڊور	13212
ڏجن	13213
ڪچ	13214
واڪ	13215
##ايائون	13216
ترکي	13217
##جنسي	13218
ڪاڏي	13219
اجر	13220
حقدار	13221
مثالن	13222
185	13223
اكون	13224
ڀرپاسي	13225
نسلي	13226
اقبال	13227
۔۔۔۔۔	13228
چاٻي	13229
وضاحتون	13230
ٻوٽا	13231
بيماريءَ	13232
عاقل	13233
مزاحمتي	13234
الزامن	13235
حياتياتي	13236
پرنٽر	13237
حُسن	13238
منطق	13239
الطاف	13240
دختر	13241
رپورٽن	13242
غفلت	13243
اڻڄاتل	13244
ناروي	13245
صالح	13246
ڪافرن	13247
امتياز	13248
رينجرز	13249
ڪيبورڊ	13250
ايمرجنسي	13251
mg	13252
اكت	13253
بجا	13254
جڪ	13255
جڙ	13256
جزو	13257
حنا	13258
صغير	13259
ضعي	13260
عائ	13261
مڊل	13262
وتا	13263
ٺڳي	13264
ٿام	13265
ڄار	13266
ڌڙ	13267
ڪک	13268
##نتي	13269
##lo	13270
##ٻڙ	13271
##تِ	13272
پيتي	13273
ميهار	13274
اوارڊ	13275
##لهم	13276
استع	13277
سالگي	13278
ايندس	13279
گهرجون	13280
سنسار	13281
ليکي	13282
عليءَ	13283
توني	13284
ٻنھي	13285
گرل	13286
نقشن	13287
##ata	13288
سينا	13289
پڇن	13290
خوشخبري	13291
چارلس	13292
##ication	13293
؟؟!	13294
ايڪسپورٽ	13295
منصوبه	13296
نوڪريءَ	13297
شاءالله	13298
يالغ	13299
ڳاڙ	13300
ويساهه	13301
شرطون	13302
چيمبر	13303
فروش	13304
ڏهاڙي	13305
فنڪشنل	13306
ااااااااااااااا	13307
موسى	13308
پتلي	13309
فكرة	13310
خلوص	13311
ملائڪ	13312
اتمنى	13313
منجهس	13314
:/	13315
cre	13316
det	13317
na	13318
ءُ	13319
اعم	13320
ترو	13321
جئن	13322
سح	13323
ســـ	13324
قار	13325
لحد	13326
ورو	13327
پاري	13328
پائل	13329
ڊاهي	13330
ڏاه	13331
ڦاسي	13332
ڦيري	13333
کمي	13334
گارڊ	13335
ہے	13336
##َڻ	13337
##tube	13338
##انص	13339
انزين	13340
##ــآ	13341
اسڪاٽ	13342
بها	13343
سانوڻ	13344
موم	13345
ڪيريبين	13346
مونجه	13347
معدن	13348
روپي	13349
سوان	13350
ورثو	13351
ساھ	13352
##ڪوز	13353
ٽيب	13354
مديني	13355
جهاد	13356
غيرقان	13357
اڄوڪو	13358
جملا	13359
حالات	13360
بينڊ	13361
افكر	13362
سوچيندي	13363
cover	13364
مصط	13365
ڊوڙي	13366
نامز	13367
##ach	13368
سلامي	13369
وجھي	13370
يارب	13371
اطلاق	13372
ڏيکاريندي	13373
اختت	13374
لانه	13375
چاھي	13376
پھچي	13377
che	13378
بلاگنگ	13379
انفيڪشن	13380
موسيٰ	13381
فضول	13382
اڇلائي	13383
فاضي	13384
amaz	13385
شباب	13386
ڪنڊن	13387
ڪھاڻي	13388
غمگين	13389
ضحكتيني	13390
وڪيلن	13391
ببين	13392
خاڪي	13393
ٽيليگرام	13394
ضياءَ	13395
لياقت	13396
ڏاڪڻ	13397
غيرقانوني	13398
book	13399
fe	13400
vis	13401
آمين	13402
جلا	13403
ذرو	13404
زني	13405
سهر	13406
شش	13407
عدل	13408
فيا	13409
فنگ	13410
قی	13411
لڌو	13412
لعل	13413
لفٽ	13414
مدو	13415
مارن	13416
ممن	13417
هٽي	13418
هالا	13419
يرو	13420
ڀاڻ	13421
ھُ	13422
##ium	13423
##ai	13424
##قب	13425
##تون	13426
##تظر	13427
##ـب	13428
##tn	13429
##ّي	13430
انمي	13431
انڪو	13432
##الة	13433
واسي	13434
وايد	13435
ڪوڙا	13436
اوكي	13437
شيعه	13438
سنسڪر	13439
نظريا	13440
ٻڌندا	13441
ڇوته	13442
ڪارون	13443
فرعون	13444
آرزو	13445
ناانص	13446
پڙھڻ	13447
بڻج	13448
نقد	13449
نقول	13450
اتك	13451
ڪلهو	13452
سينو	13453
فارغ	13454
سپلائي	13455
عنك	13456
186	13457
مُرڪ	13458
top	13459
وسيلو	13460
پلنگ	13461
تسوي	13462
##ديمند	13463
وقار	13464
ماڊلز	13465
کلندي	13466
پولينڊ	13467
ڌيئر	13468
ڊيوڊ	13469
مشكورة	13470
فيلم	13471
ھليو	13472
ڀروسي	13473
ڌنڌي	13474
رٿابندي	13475
سيٽنگن	13476
پنھنجا	13477
فرمانبر	13478
يهودين	13479
آڱر	13480
فورسز	13481
پهتس	13482
اينيمڪس	13483
قميص	13484
سوانح	13485
سنسڪرت	13486
بآ	13487
تلق	13488
حكم	13489
حاوي	13490
ذوال	13491
سهيل	13492
شاب	13493
شعوري	13494
صا	13495
غضب	13496
قياس	13497
للي	13498
مگه	13499
نل	13500
نڪو	13501
وائل	13502
ٻڪري	13503
ٿائي	13504
ڪفر	13505
گَ	13506
گدا	13507
ھائو	13508
##َء	13509
##هِ	13510
##حانن	13511
##یٹ	13512
##ثيم	13513
اسك	13514
##ليون	13515
ماڊ	13516
رود	13517
ڪمرن	13518
اوسي	13519
رهيل	13520
گهڙيءَ	13521
##درآمد	13522
ورن	13523
شيرين	13524
سرنگ	13525
مشهوري	13526
ڪنارن	13527
ڪنٽين	13528
ليڊي	13529
علت	13530
تباھ	13531
وياج	13532
عملدرآمد	13533
هلائيندڙ	13534
داعي	13535
ديرو	13536
بينچ	13537
##ating	13538
##orn	13539
مالا	13540
##row	13541
پئدا	13542
اشرف	13543
حلووو	13544
حسد	13545
نگه	13546
ـــن	13547
لاڳيتو	13548
تكف	13549
ڀاڄ	13550
جھلي	13551
پھريائين	13552
مفاص	13553
ليکڪن	13554
بادشاهي	13555
بيورو	13556
ايرانيان	13557
مظاهر	13558
arch	13559
ٻُڌي	13560
خليجي	13561
سينيئر	13562
تبصرا	13563
بيلٽ	13564
apk	13565
خوبيون	13566
ورهائڻ	13567
معدني	13568
نفيس	13569
ڪولمبيا	13570
اپارٽمنٽ	13571
آجيان	13572
pack	13573
آندي	13574
اعمل	13575
بف	13576
رسان	13577
سئ	13578
فله	13579
ناڻي	13580
يز	13581
ٽون	13582
کلا	13583
##sh	13584
##cl	13585
##جال	13586
##ثا	13587
##ڈر	13588
اساسي	13589
##ابق	13590
الرح	13591
توسيع	13592
ويٽن	13593
مسڪر	13594
تمنا	13595
فرص	13596
اُت	13597
اُڃ	13598
پيداواري	13599
گهٽين	13600
فائديمند	13601
رهندس	13602
فارمن	13603
##round	13604
گرافڪ	13605
ھوءَ	13606
منتظم	13607
ڊوائس	13608
ــه	13609
##ions	13610
ڊرون	13611
رپورٽون	13612
نفسه	13613
پيغامن	13614
واسه	13615
جزوي	13616
مظهر	13617
ضابطا	13618
اقتصاد	13619
کڻندو	13620
##َنِ	13621
مضحكة	13622
محترمه	13623
لبنان	13624
ڪهاڻيڪار	13625
__	13626
pm	13627
اهه	13628
بريف	13629
حامد	13630
دال	13631
راڻا	13632
زڪو	13633
زاوي	13634
سَر	13635
غبي	13636
فارو	13637
قولت	13638
كا	13639
كذ	13640
وی	13641
وڍ	13642
وووووو	13643
ٿِ	13644
ٿڪل	13645
ڏھ	13646
گال	13647
گیم	13648
##قم	13649
##قاء	13650
##ينٽ	13651
##ارة	13652
اسڪي	13653
##ليءَ	13654
هڪجهڙائي	13655
هوريان	13656
##ــــا	13657
پرده	13658
ميسي	13659
وڌائيندو	13660
##اداري	13661
##ئيندڙ	13662
ترڻ	13663
هاسٽل	13664
رکجي	13665
##جنس	13666
نمونا	13667
ههههههههههـ	13668
اناج	13669
ins	13670
ٻارڻ	13671
صاحبي	13672
حوالن	13673
عنايت	13674
رابرٽ	13675
اسٽيٽس	13676
139	13677
فلور	13678
عندها	13679
متاثرن	13680
ڀاڙي	13681
##گهڙ	13682
تنظيمون	13683
لڪايو	13684
زنان	13685
عهدن	13686
سڌريل	13687
هارمون	13688
عزيزي	13689
نعرف	13690
under	13691
اٺين	13692
پارڪنگ	13693
usb	13694
>>>>	13695
جبتي	13696
مهانگائي	13697
گورنمينٽ	13698
تعيش	13699
سياحتي	13700
بيروزگاري	13701
پزشکي	13702
ڏکوئيندڙ	13703
ارجنٽ	13704
الٽرا	13705
اسٽريمنگ	13706
مفيش	13707
نوڪيا	13708
فيسٽيول	13709
ناپسنديده	13710
cat	13711
ide	13712
names	13713
rel	13714
بولي	13715
دلا	13716
رڍ	13717
قلي	13718
مـن	13719
نک	13720
نذ	13721
ٻري	13722
ڇال	13723
ڇنڊ	13724
ڳُ	13725
##َم	13726
##پپ	13727
##راھ	13728
واسين	13729
روئين	13730
ويد	13731
ميش	13732
ميگزين	13733
سڀيئي	13734
وينس	13735
ورزي	13736
نظير	13737
##زيز	13738
احلا	13739
ناگز	13740
پڙهندي	13741
وانتي	13742
ادخ	13743
تجاري	13744
نقشه	13745
##رتا	13746
خطا	13747
اٿو	13748
ـــــي	13749
جنگل	13750
ڳالهائين	13751
دستيابي	13752
شهباز	13753
2001	13754
موڪلون	13755
##صلى	13756
گفتن	13757
اِهي	13758
ڏيکاريا	13759
تبديليءَ	13760
##ade	13761
منجھان	13762
ٽرانسميشن	13763
مظلوم	13764
ائيزيشن	13765
##iff	13766
##ify	13767
عقيدن	13768
تاجر	13769
مکڻ	13770
ڪاغذن	13771
كتاب	13772
پوکڻ	13773
خصوصا	13774
لغت	13775
بيگم	13776
گريجوئيٽ	13777
جملن	13778
پراسرار	13779
رضاڪار	13780
بدعنواني	13781
day	13782
gen	13783
tm	13784
آجو	13785
تتر	13786
جراحي	13787
صل	13788
فڪري	13789
لج	13790
ناني	13791
ناه	13792
ناتو	13793
هاا	13794
هجان	13795
چنگ	13796
چاهت	13797
ڪشمي	13798
۱۹	13799
##جة	13800
##دؤ	13801
##صص	13802
##ڌن	13803
##ارب	13804
انڊر	13805
ڪوارٽر	13806
ميرو	13807
فيملي	13808
مساو	13809
تماڪ	13810
صحرا	13811
وڏيري	13812
نما	13813
راول	13814
##وريل	13815
هلندا	13816
گذشت	13817
هيٺئين	13818
بوس	13819
المف	13820
مجرم	13821
اشارن	13822
سپرين	13823
پليس	13824
طاقتن	13825
مُلڪ	13826
اسٽيبل	13827
سگھندو	13828
##حاق	13829
مهذب	13830
گھٽائي	13831
سلائي	13832
ميرن	13833
خوشيون	13834
وزيرن	13835
منجهند	13836
صديقي	13837
کوهه	13838
ورتيون	13839
مثلك	13840
آزمايو	13841
ڪٽيل	13842
ڌوئي	13843
مذڪ	13844
وعدو	13845
##iew	13846
تازيون	13847
##گرافڪ	13848
ڀائيوارن	13849
المنتدى	13850
جراثيم	13851
ڪثرت	13852
ڪنوينشن	13853
ناگزير	13854
<~	13855
cm	13856
ec	13857
gre	13858
opt	13859
آڳ	13860
آنا	13861
أقول	13862
بدا	13863
جزي	13864
حميد	13865
خيا	13866
سورت	13867
طئه	13868
قالو	13869
مميز	13870
هى	13871
ِين	13872
ٽورن	13873
پدر	13874
##نج	13875
##ri	13876
##سائي	13877
##ho	13878
##جج	13879
##كد	13880
##ہر	13881
##یت	13882
##ual	13883
##ؤنٽ	13884
##ائع	13885
سانگي	13886
##ائيجان	13887
توقي	13888
منڊل	13889
ميس	13890
سندو	13891
ڪنڊيشن	13892
باور	13893
ٽيهه	13894
ڇوڪرا	13895
چوين	13896
##شتري	13897
آمريکا	13898
پاڳ	13899
ڪلائنٽ	13900
المست	13901
قبيلن	13902
الحب	13903
toڻ	13904
لوڊشي	13905
ڪهاڻيءَ	13906
آبادگارن	13907
خواهشن	13908
شڪلن	13909
صديون	13910
آسرو	13911
##پلاڻ	13912
cons	13913
ماڻھوءَ	13914
ڪَن	13915
چانسلر	13916
گاڏيءَ	13917
اليڪٽران	13918
سراج	13919
1947ع	13920
لعبة	13921
رسمن	13922
بدنام	13923
بزرگن	13924
رٿيل	13925
ڊولپمينٽ	13926
ipad	13927
گوليون	13928
مــن	13929
ٽوڪيو	13930
لڏپلاڻ	13931
آذربائيجان	13932
هروڀرو	13933
://	13934
ڏاهپ	13935
ever	13936
tv	13937
ting	13938
آني	13939
حَ	13940
حامل	13941
خيو	13942
دامن	13943
ساس	13944
سپي	13945
شـــ	13946
مهند	13947
مخلص	13948
نئ	13949
نئي	13950
وظ	13951
ٺڪ	13952
ٺهيو	13953
ٻچا	13954
ٽس	13955
چل	13956
ڊانس	13957
کِ	13958
##لد	13959
##قعت	13960
##uf	13961
##غل	13962
اسط	13963
##ديه	13964
سانت	13965
الام	13966
پردو	13967
جاه	13968
بيز	13969
##انيد	13970
##اهيم	13971
سڀن	13972
##بيهه	13973
خوي	13974
ملهه	13975
##عيم	13976
ترحي	13977
مسوي	13978
ڪنول	13979
تحريم	13980
ڪاوش	13981
ناهيون	13982
ناجي	13983
ههههههههـ	13984
اجائي	13985
گرامي	13986
ائيندڙ	13987
##ence	13988
ٺاهيندو	13989
ine	13990
جلسي	13991
حواس	13992
قدرن	13993
عنها	13994
سڏيندو	13995
ـــه	13996
##eld	13997
ستان	13998
قلعو	13999
160	14000
##ـــــي	14001
rem	14002
چرپر	14003
knowاڻڻ	14004
رڪارڊنگ	14005
مغل	14006
عالمگير	14007
نياڻين	14008
آدمشم	14009
خاتون	14010
##يولر	14011
رايك	14012
ڪارناما	14013
بگم	14014
غريبه	14015
اذيت	14016
بيچيني	14017
زيوومي	14018
گھڻائي	14019
انقره	14020
پتلون	14021
پيپلزپارٽي	14022
مساوات	14023
down	14024
ist	14025
log	14026
ri	14027
sch	14028
حليم	14029
خن	14030
ذر	14031
سرف	14032
شفي	14033
طاهر	14034
فاه	14035
مورو	14036
يارو	14037
پني	14038
پشت	14039
پشتي	14040
ڀڙ	14041
##ويل	14042
##ٽلن	14043
##ta	14044
##ضرب	14045
##ريزي	14046
ڪرسٽل	14047
ايي	14048
البيت	14049
توب	14050
ڪيلي	14051
##ميع	14052
##جوش	14053
ماده	14054
ماخذ	14055
بيدار	14056
ميار	14057
رهين	14058
استث	14059
##اڪس	14060
بردار	14061
ويندين	14062
نوشت	14063
هههههههههههـ	14064
بلغ	14065
همراه	14066
ارن	14067
بڻائيندو	14068
سوالف	14069
خوشين	14070
بچاءَ	14071
ابغى	14072
موڪلائي	14073
ڏنائون	14074
نامه	14075
نامياتي	14076
رحيم	14077
ڌرڻو	14078
پوسٽن	14079
rep	14080
سريال	14081
جامد	14082
هُوءَ	14083
پلاٽ	14084
##گاهن	14085
وڇو	14086
پيراگراف	14087
پارليام	14088
---	14089
اروح	14090
گونج	14091
گڏجاڻين	14092
فلسطيني	14093
مھينن	14094
گرافڪس	14095
گهوٽڪي	14096
معاوضو	14097
ڊونلڊ	14098
اللعبه	14099
84	14100
lif	14101
mb	14102
tu	14103
tech	14104
اءُ	14105
تائيو	14106
ثن	14107
جغ	14108
جتن	14109
علوم	14110
غو	14111
يخر	14112
ڏنگ	14113
کمپ	14114
ڪلم	14115
گمن	14116
##رام	14117
##مال	14118
##شير	14119
##پين	14120
##ثري	14121
##انسر	14122
##يند	14123
##ونك	14124
انى	14125
بهشت	14126
جيڪٽ	14127
هيت	14128
##قيم	14129
واو	14130
##لوا	14131
ميسر	14132
سيز	14133
سيمي	14134
شيم	14135
مسڪ	14136
مسخ	14137
نظرين	14138
ٻڌايون	14139
فرسٽ	14140
سمجھان	14141
ڇڏائي	14142
چوڪي	14143
اردن	14144
جمله	14145
##esh	14146
پڇيس	14147
بچيل	14148
ولادت	14149
ــــــي	14150
##زاق	14151
نسخي	14152
##كرة	14153
ڳوٺاڻي	14154
حصول	14155
گھٽتائي	14156
##ڙيندڙ	14157
کوج	14158
2018ع	14159
خواهشون	14160
ماپڻ	14161
اطلاعن	14162
متوازن	14163
web	14164
سيمسنگ	14165
پايگاه	14166
سنيپ	14167
برانڊي	14168
جاگرافيائي	14169
ويڙهاڪ	14170
سلاٽ	14171
قیمت	14172
تائيوان	14173
bar	14174
cn	14175
io	14176
آمي	14177
ئر	14178
این	14179
تـــ	14180
تخلص	14181
خاڪو	14182
دنگ	14183
ذرا	14184
شفتي	14185
قائ	14186
قاصر	14187
هاااا	14188
پسي	14189
ھاڻ	14190
##وبي	14191
##sاڻي	14192
##oy	14193
##َه	14194
##جهر	14195
##ُل	14196
##گس	14197
##ريٽر	14198
##ائف	14199
##روجن	14200
پراجي	14201
ڪندؤ	14202
ماسي	14203
ميجر	14204
ميگن	14205
##افل	14206
ڪجن	14207
ورانه	14208
سنة	14209
ڪاٺي	14210
ناهين	14211
سمجهايو	14212
لوڪل	14213
پيدايش	14214
ناظر	14215
هما	14216
سگهندس	14217
راتين	14218
مختيار	14219
##ets	14220
ڀرتي	14221
چڱائي	14222
ٽوئر	14223
سطحن	14224
کنم	14225
وشو	14226
اعترف	14227
لانچر	14228
بادشاهت	14229
طبيب	14230
knowsاڻي	14231
برانڊن	14232
5000	14233
تحريڪن	14234
شڪرگذار	14235
ذيشان	14236
age	14237
قاعده	14238
جشنواره	14239
ڏندن	14240
##iki	14241
youtube	14242
خزاني	14243
پيڪيجز	14244
فرينڊ	14245
رشتا	14246
عددي	14247
گاديءَ	14248
وابستگي	14249
ڀائيواري	14250
سپلائرز	14251
حراست	14252
سيوهڻ	14253
فصلن	14254
انٽيليجنس	14255
يسعدك	14256
قصدك	14257
ورکړ	14258
عباسي	14259
پراجيڪٽ	14260
ce	14261
da	14262
mul	14263
uk	14264
آح	14265
آئن	14266
بانس	14267
حف	14268
حـــ	14269
دك	14270
زع	14271
شــ	14272
شرف	14273
فان	14274
فلي	14275
قـــ	14276
مزار	14277
وإ	14278
وائيٽ	14279
وکر	14280
َنِ	14281
ٻئين	14282
ٽٽ	14283
ٽوٽ	14284
چقدر	14285
ڏنڊ	14286
کائيندي	14287
ڪع	14288
گهوري	14289
##sa	14290
##لآ	14291
##شنگ	14292
##11	14293
##أت	14294
##ائق	14295
اهائي	14296
##لاث	14297
ياخي	14298
##نيف	14299
موو	14300
موهي	14301
معل	14302
روا	14303
ويهين	14304
خواجه	14305
محاذ	14306
برون	14307
سردي	14308
مشتر	14309
ٻڌندو	14310
ٻڌائيندي	14311
ڪاٿي	14312
پنڊ	14313
فرقي	14314
ريءَ	14315
ريفرنس	14316
لکندي	14317
هموار	14318
##anc	14319
جوابن	14320
##واج	14321
تقبلي	14322
اداڪاري	14323
##بهآ	14324
ٻارڙي	14325
جلال	14326
المونيم	14327
187	14328
آپگه	14329
سونا	14330
سُڌ	14331
ــــن	14332
معاهم	14333
سنڀاليو	14334
##شاور	14335
نينگري	14336
الجز	14337
امريڪي	14338
اصطلاحن	14339
>>>>>	14340
تياريون	14341
جميلة	14342
هِتي	14343
رونق	14344
اڀرندڙ	14345
اسٽريٽجڪ	14346
indus	14347
جديده	14348
سمورين	14349
ڏُک	14350
چطور	14351
استعيفيٰ	14352
باعث	14353
ضعيف	14354
amazon	14355
پارلياماني	14356
آپگهات	14357
mot	14358
tro	14359
}}	14360
أع	14361
أعرف	14362
اعمال	14363
جڻ	14364
دخلت	14365
ذلك	14366
سبي	14367
عَ	14368
عيل	14369
فلاح	14370
ممل	14371
نآ	14372
يدي	14373
يها	14374
يوو	14375
پنگ	14376
ڇَ	14377
گانو	14378
گانا	14379
ھار	14380
ھوا	14381
##اعه	14382
##عور	14383
##سلام	14384
##ڊم	14385
##تب	14386
##ؤؤ	14387
##ائتا	14388
اسحاق	14389
پيالو	14390
##ستم	14391
موري	14392
پرجوش	14393
مايا	14394
اوج	14395
اوائلي	14396
ايني	14397
ورڪر	14398
مسج	14399
لاٿو	14400
اعلى	14401
تحس	14402
تحق	14403
دلال	14404
متأ	14405
لوپ	14406
ادم	14407
اندران	14408
اچين	14409
شوٽنگ	14410
##ory	14411
مالك	14412
مستند	14413
ردك	14414
سکين	14415
اشارا	14416
چونڊيندا	14417
2002	14418
كلش	14419
ابوك	14420
پنجون	14421
نشست	14422
جذبا	14423
1990	14424
بيماريون	14425
eng	14426
ism	14427
واتس	14428
سڪيورٽي	14429
ڪميونيڪيشن	14430
##ands	14431
dev	14432
فروخت	14433
تعرفين	14434
360	14435
سومرو	14436
3000	14437
خزانو	14438
ٿلهو	14439
##ange	14440
وابسته	14441
ناپسند	14442
قديمي	14443
netfl	14444
بسرعه	14445
جماعتن	14446
فديتك	14447
ممنون	14448
لوڊشيڊنگ	14449
netflix	14450
,"	14451
du	14452
der	14453
han	14454
sur	14455
آهم	14456
بريڪ	14457
داي	14458
دارن	14459
راد	14460
ساده	14461
غيري	14462
لهن	14463
واء	14464
يلعب	14465
ُون	14466
ٽڪري	14467
ٽائر	14468
کپن	14469
##عش	14470
##da	14471
##سفڪ	14472
##her	14473
##غه	14474
##xx	14475
##ريق	14476
انڌو	14477
هڪڙا	14478
پيڙ	14479
معبود	14480
مادو	14481
ويزن	14482
ميخ	14483
خوري	14484
محض	14485
محلات	14486
اينكه	14487
مساله	14488
ڪنڪريٽ	14489
ڊيڊ	14490
دودي	14491
باشه	14492
ٽيٽ	14493
اُس	14494
يوحنا	14495
وارد	14496
##قوب	14497
گردي	14498
يادون	14499
يادگي	14500
بدتر	14501
ـــــــــر	14502
سامھون	14503
المشار	14504
پئسفڪ	14505
ھيءُ	14506
رهڻو	14507
ميلن	14508
پنجابي	14509
اقليت	14510
2022	14511
پڪڙڻ	14512
وضاح	14513
مٿانهون	14514
نورتي	14515
ميوه	14516
read	14517
دانهون	14518
علامتن	14519
سوشلسٽ	14520
ايڊٽ	14521
گذاريندو	14522
دماغي	14523
تجزياتي	14524
##unt	14525
ٽائيٽل	14526
add	14527
usd	14528
رهواسين	14529
قاعدو	14530
جانچڻ	14531
صداقت	14532
پهلوان	14533
رياضت	14534
url	14535
مواضيع	14536
ڇانيل	14537
مشروط	14538
همدردي	14539
افاديت	14540
زيتون	14541
ناانصافي	14542
استثنا	14543
گمنام	14544
free	14545
game	14546
len	14547
son	14548
size	14549
آژ	14550
بصر	14551
تالي	14552
حلف	14553
خدي	14554
خادم	14555
دستان	14556
رائل	14557
ستل	14558
شڪي	14559
صدم	14560
عسل	14561
فکر	14562
للم	14563
هدا	14564
پب	14565
پـ	14566
کاتن	14567
ھفتي	14568
##ڪَ	14569
##ِِ	14570
##علي	14571
##عزم	14572
##cd	14573
##na	14574
##لیس	14575
##بات	14576
##پت	14577
##ؤال	14578
##ڀا	14579
##انداز	14580
##ونيا	14581
##ائج	14582
انڊي	14583
##ليزي	14584
هڪجه	14585
ايمن	14586
توج	14587
ياسمين	14588
مولڊ	14589
##ولد	14590
##راڪ	14591
##اتر	14592
معهم	14593
ڪورين	14594
بيك	14595
سالفه	14596
اينکه	14597
ڇاپي	14598
ڏيئو	14599
نوبل	14600
دودو	14601
ازا	14602
ڇوٽڪ	14603
فردن	14604
آرڪي	14605
نيس	14606
نمو	14607
ناسي	14608
جهٽ	14609
ڏسندڙ	14610
چاهيندي	14611
رسد	14612
ايسڊ	14613
فونن	14614
خطير	14615
ڄاڻندو	14616
سوچيندا	14617
ننڍيون	14618
بالڪل	14619
آبپا	14620
ھنڌ	14621
اثرانداز	14622
اٿيو	14623
ابدا	14624
شعري	14625
گروهي	14626
سنگهه	14627
##read	14628
ڏيکاريندو	14629
موسميات	14630
##ound	14631
بصراحة	14632
گولڊ	14633
الصوره	14634
موٽرسائي	14635
ity	14636
جرمنيءَ	14637
عاليه	14638
عاليشان	14639
تدبير	14640
ڌڻيءَ	14641
struct	14642
ياسلام	14643
چاليهه	14644
اسٽينلیس	14645
بدمعا	14646
اختتام	14647
وضاحتن	14648
ڇوٽڪارو	14649
آبپاشي	14650
موٽرسائيڪل	14651
air	14652
good	14653
sq	14654
آك	14655
اٽو	14656
بكم	14657
بقو	14658
زه	14659
سأ	14660
يط	14661
ٺاه	14662
ٻل	14663
پلو	14664
پتا	14665
پشاور	14666
ٿان	14667
ڊيڪ	14668
ڊنگ	14669
ڦاس	14670
ڪاڪ	14671
##air	14672
##خد	14673
##كرا	14674
##ٿن	14675
##zh	14676
تهران	14677
ايري	14678
السن	14679
##لاتن	14680
پيلو	14681
پرعزم	14682
سيٽل	14683
پهاڪو	14684
ڇاپو	14685
گهرڻ	14686
ڪنور	14687
نظامي	14688
رکجو	14689
پنهان	14690
پنجوي	14691
متل	14692
مختص	14693
ناياب	14694
خاصه	14695
پڙھي	14696
اسڪيل	14697
گوشي	14698
inv	14699
السؤال	14700
جنگين	14701
خودت	14702
coin	14703
اشو	14704
ڊگها	14705
##آآي	14706
اسٽيڊيم	14707
خانا	14708
110	14709
آفيسن	14710
اقلي	14711
ـــت	14712
تسلي	14713
قلمي	14714
آرٽسٽ	14715
ــــل	14716
ڪابل	14717
سريلن	14718
ويڪر	14719
امانت	14720
سوچيان	14721
ٽينس	14722
خليها	14723
وحشي	14724
سويڊن	14725
350	14726
شاهدي	14727
دادن	14728
سربراهي	14729
اسپيشل	14730
حوصله	14731
فلوري	14732
word	14733
عثماني	14734
ڪروڙين	14735
عمودي	14736
خخخخخخخ	14737
انديشه	14738
هيهيهيهيهي	14739
😂😂😂	14740
صباح	14741
ڀانيان	14742
ast	14743
aut	14744
get	14745
آج	14746
آريا	14747
اڍ	14748
تارو	14749
تفا	14750
تطلع	14751
تغي	14752
جرح	14753
حسيت	14754
خرو	14755
زپ	14756
صج	14757
لهه	14758
نی	14759
نير	14760
ٽه	14761
ٽان	14762
ٽاس	14763
ٽپو	14764
پٽو	14765
ڀريا	14766
ڊري	14767
ڊفالٽ	14768
##خيل	14769
##كرت	14770
##تَ	14771
##تين	14772
##دگار	14773
##حيل	14774
##الڪ	14775
پيپ	14776
پيئر	14777
پيارن	14778
پوشي	14779
سيپ	14780
برلن	14781
ايندين	14782
ترسي	14783
مشتا	14784
ليف	14785
ساحلي	14786
تمدن	14787
##سوفٽ	14788
دوسر	14789
دوکو	14790
احلي	14791
شاخن	14792
تحفي	14793
##ـــــــــــــ	14794
پنروڪ	14795
صحي	14796
لوھ	14797
سبحان	14798
وڏائي	14799
ڏسڻو	14800
فوجن	14801
گودام	14802
وساڻ	14803
سوچون	14804
چهار	14805
ھوٽل	14806
ڏکيا	14807
##ائوڊ	14808
شهد	14809
خرابين	14810
وسيم	14811
حركات	14812
نشوف	14813
##ower	14814
##مارڪ	14815
پوسٽون	14816
ڪالمن	14817
زالون	14818
ميوا	14819
مانيءَ	14820
مخصوصا	14821
ڳنڍڻا	14822
پکڙجي	14823
پوليو	14824
فوجين	14825
شخصيتون	14826
اگهن	14827
معاشرو	14828
اندرين	14829
گهرواري	14830
جهنم	14831
مرضيءَ	14832
مائڪروسوفٽ	14833
دليون	14834
گيرد	14835
phot	14836
گندگي	14837
كلمة	14838
ڳچيءَ	14839
تسلمي	14840
مسافرتی	14841
برٽش	14842
ھندستان	14843
السالفه	14844
archives	14845
ارجنٽائن	14846
مشتاق	14847
bank	14848
dail	14849
ge	14850
ob	14851
will	14852
آندا	14853
أبو	14854
بذ	14855
بوي	14856
بگو	14857
تنو	14858
ثبت	14859
جهر	14860
جنيه	14861
دی	14862
رچر	14863
رٿا	14864
لھي	14865
ٽئي	14866
ٽڪي	14867
ڇڙو	14868
ڏڪ	14869
کَ	14870
##بٽ	14871
##سُ	14872
##كين	14873
##ئله	14874
##یه	14875
##ثت	14876
##ڀن	14877
##امڪ	14878
##ياي	14879
ڪرنل	14880
هههههههههـ	14881
السم	14882
##دادي	14883
پرچي	14884
ڪنداسون	14885
ماست	14886
بيري	14887
##اصد	14888
سيب	14889
سيارو	14890
ملك	14891
جنريٽر	14892
ليبر	14893
مقصو	14894
فرمود	14895
سمجهائي	14896
لکجي	14897
ناامي	14898
پڙتال	14899
قوميت	14900
ديده	14901
جانسن	14902
ــــــــــي	14903
مالٽا	14904
چارجر	14905
حلوو	14906
ڏيکار	14907
##زادو	14908
صوتي	14909
فلاڻي	14910
قومپرست	14911
رھندو	14912
نڪاح	14913
سيٽون	14914
سياستدانن	14915
##شود	14916
الواحد	14917
extr	14918
ڪِتاب	14919
##ستهبل	14920
چراغ	14921
گناھ	14922
متوجه	14923
دُنيا	14924
فولڊ	14925
عضون	14926
اخلاقيات	14927
سالگرهه	14928
سعر	14929
انگلش	14930
ماهوار	14931
ڊالرن	14932
انجيڪشن	14933
برادرين	14934
فاروق	14935
daily	14936
ep	14937
gal	14938
light	14939
sal	14940
tion	14941
{{	14942
اءِ	14943
ججن	14944
خوني	14945
خلائي	14946
رهه	14947
شون	14948
ظهر	14949
عف	14950
فورڊ	14951
كس	14952
كري	14953
لر	14954
مائل	14955
مِن	14956
نــ	14957
هيرا	14958
وند	14959
يحي	14960
َء	14961
ٽائپ	14962
ڀڻ	14963
چک	14964
ڍانچي	14965
ڪڏ	14966
##se	14967
##سلو	14968
##ڊنٽ	14969
##گاهي	14970
##ھري	14971
##اريا	14972
ڪرنٽ	14973
الذ	14974
پرسن	14975
هيج	14976
##ائينٽون	14977
پوائينٽون	14978
واڍي	14979
روٽر	14980
ويگاس	14981
هههههههههههههـ	14982
ساليان	14983
شيط	14984
شيام	14985
سره	14986
مردان	14987
سنج	14988
باڊي	14989
ٻڌا	14990
پنه	14991
گھرو	14992
فرشت	14993
هههههههـ	14994
متض	14995
پارس	14996
آخوند	14997
ڪنديس	14998
ديه	14999
ڄاڻائي	15000
ننڍڙا	15001
بالع	15002
مٿاهين	15003
چارٽر	15004
ھوس	15005
تفك	15006
1500	15007
##سٽريٽ	15008
سنگل	15009
تكلم	15010
نفسها	15011
ولآ	15012
اختك	15013
ادبيات	15014
ٽرينون	15015
بناوت	15016
ڪاميابين	15017
سولنگي	15018
عاوز	15019
فقيرن	15020
زرد	15021
عنوانن	15022
عادل	15023
ــــــو	15024
تڪراري	15025
يقولون	15026
اداڪاره	15027
قاعد	15028
منافعو	15029
حقوقي	15030
خخخخخخخخخ	15031
مشڪلاتن	15032
ميثاق	15033
آرگنائيزيشن	15034
بيجنگ	15035
سقراط	15036
سيمينار	15037
انڪوائري	15038
بريفنگ	15039
آدمشماري	15040
آژانس	15041
()	15042
><	15043
bi	15044
cy	15045
dir	15046
ktn	15047
إذا	15048
بتا	15049
تالا	15050
جني	15051
حاط	15052
زهري	15053
سخي	15054
غلا	15055
لذ	15056
مئو	15057
نبو	15058
وغ	15059
وضو	15060
ٻوڙ	15061
پائ	15062
ڀوت	15063
کڙ	15064
ھزار	15065
##ob	15066
##بہ	15067
##بين	15068
##ھم	15069
##ًبهآ	15070
##ڌر	15071
##**	15072
##ينس	15073
##الات	15074
##ابا	15075
ياا	15076
پيتو	15077
ميده	15078
ميگير	15079
ڪمانڊ	15080
##شنا	15081
خوبه	15082
ماڻڪ	15083
هونء	15084
سرطان	15085
سنوار	15086
بسس	15087
##ڪاسي	15088
ماراح	15089
پاره	15090
ناتي	15091
راسي	15092
ڪتًبهآ	15093
عامر	15094
گذريا	15095
نظرون	15096
حاله	15097
108	15098
اسڪينڊل	15099
ـــــــــا	15100
##ord	15101
آهسته	15102
يهدي	15103
ــت	15104
پڪڙ	15105
140	15106
ٽيمپ	15107
مشينون	15108
معماري	15109
کليو	15110
صدقي	15111
spins	15112
رُڳو	15113
بيلجي	15114
ضلعن	15115
ارتقاء	15116
مھيني	15117
الشباب	15118
چيلينج	15119
لغاري	15120
ٽاٽو	15121
مهانگي	15122
عقلم	15123
ايونٽ	15124
super	15125
ڪوريج	15126
پهتاسين	15127
بيروزگار	15128
ڀينرن	15129
ڪجانءِ	15130
cbd	15131
bre	15132
fs	15133
take	15134
wr	15135
was	15136
آڳا	15137
بى	15138
جھي	15139
دب	15140
رژ	15141
ســــ	15142
عصر	15143
لقيت	15144
هاه	15145
وَر	15146
وهندو	15147
ٽاري	15148
ڇپر	15149
ڌوڙ	15150
گِ	15151
ھندو	15152
##رِ	15153
##خاص	15154
##ئجي	15155
##کاري	15156
##ٹی	15157
##انڊر	15158
جيلن	15159
جيوت	15160
##ليڪس	15161
##ائيڪ	15162
الور	15163
هوسٽ	15164
هوٽلن	15165
توبه	15166
يات	15167
يافت	15168
ڪيٽ	15169
##راهن	15170
##جوع	15171
رواجي	15172
ڪوال	15173
گهور	15174
برخي	15175
درسي	15176
جنين	15177
##بولي	15178
ساڙي	15179
شاپ	15180
يعقوب	15181
##iness	15182
ٻيھر	15183
خاصي	15184
##arn	15185
بڻائيندا	15186
جميڪا	15187
رساني	15188
ڪتابي	15189
وچن	15190
افقي	15191
ــــــــــن	15192
گوئي	15193
##قلبي	15194
مالدار	15195
ابقى	15196
تفهم	15197
سپنا	15198
مصال	15199
واقعيت	15200
پوره	15201
ٿياسين	15202
طبعي	15203
اڪائونٽن	15204
زيبا	15205
مڙئي	15206
معاهدن	15207
دٻائڻ	15208
مبينا	15209
نڪرندي	15210
ڇپجي	15211
سرير	15212
اسماء	15213
جزائر	15214
نمائندو	15215
شهيدن	15216
وبس	15217
آئڪن	15218
وڇوڙي	15219
ااااااااااااا	15220
نيويگيشن	15221
عقب	15222
خاموشيءَ	15223
وصلت	15224
انتهاپس	15225
مواصلاتي	15226
ڊولپرز	15227
هكذا	15228
ڊائريڪٽ	15229
هديه	15230
تجرباتي	15231
پوائنٽن	15232
واپرائيندڙ	15233
ڊيڄاري	15234
گيجٽ	15235
your	15236
eur	15237
je	15238
may	15239
ten	15240
أص	15241
اڪا	15242
بــــ	15243
تــ	15244
تيني	15245
تخص	15246
دارا	15247
رڳ	15248
ردو	15249
كسي	15250
كوي	15251
لسان	15252
لولي	15253
لياري	15254
لمر	15255
مــــــــ	15256
ندين	15257
نسيم	15258
وڳو	15259
يستر	15260
ٻارو	15261
ٽامي	15262
چٽا	15263
ڇونه	15264
##ax	15265
##آء	15266
##جندڙ	15267
##پول	15268
##ُه	15269
جيد	15270
اهلا	15271
ٿيم	15272
پيٽرو	15273
منٿ	15274
ڪوپ	15275
بيداري	15276
ميشن	15277
وڃايل	15278
فيروز	15279
مقياس	15280
باک	15281
ڪارٽون	15282
لوئي	15283
تنصيب	15284
چاهيندس	15285
قسمتي	15286
اسٽري	15287
##قلت	15288
سوالات	15289
ڄاڻين	15290
##صدق	15291
الاخر	15292
سڏبو	15293
رجعت	15294
ائو	15295
ڪاريون	15296
زينت	15297
وڪڻي	15298
اڏاو	15299
کردي	15300
پولس	15301
ڌيء	15302
فريق	15303
ائيءَ	15304
1980	15305
مسيحي	15306
سراسر	15307
عجبت	15308
عجائب	15309
ٽڪرن	15310
زهرا	15311
طلال	15312
ڊڄو	15313
شكلهم	15314
كرد	15315
ڊيوائسز	15316
معنوي	15317
زيورن	15318
ill	15319
love	15320
special	15321
color	15322
؟؟؟؟؟؟	15323
دردناڪ	15324
ڦهليل	15325
سرحدن	15326
پناهگيرن	15327
پسمنظر	15328
ben	15329
dem	15330
find	15331
ness	15332
om	15333
rs	15334
أش	15335
تسو	15336
تغير	15337
جٽ	15338
حلم	15339
دس	15340
رأ	15341
زمن	15342
شعا	15343
عـ	15344
لالي	15345
ماءِ	15346
مــــــ	15347
هٻ	15348
ينا	15349
ٺٽو	15350
ٻهر	15351
ڊان	15352
ڏون	15353
کري	15354
ڪف	15355
ڳچ	15356
##اعد	15357
##look	15358
##duct	15359
##لر	15360
##منگ	15361
##بها	15362
##man	15363
##کڙي	15364
##گها	15365
جيمس	15366
##ريات	15367
##وران	15368
اير	15369
اية	15370
البا	15371
الولد	15372
توقعت	15373
##لاگ	15374
ٿولهه	15375
پيڙا	15376
##دوري	15377
هيد	15378
پوپٽ	15379
ماذا	15380
ڪوت	15381
ويت	15382
ميں	15383
ڪمانڊر	15384
اوڏانهن	15385
ورسي	15386
ليز	15387
ٻيڙيءَ	15388
آمديد	15389
چوڏهن	15390
تنز	15391
مڪان	15392
##طيك	15393
پاڪائي	15394
ديپ	15395
ههههههاااي	15396
مسئله	15397
بودن	15398
بچيو	15399
ترقيء	15400
قبائلي	15401
ابڙو	15402
شعبو	15403
مينٽ	15404
براعظم	15405
125	15406
ذهنن	15407
نمبرن	15408
وڻندو	15409
اَن	15410
گذاريندا	15411
سوره	15412
نٿيون	15413
آسمانن	15414
قدها	15415
درويش	15416
ليڪس	15417
گناه	15418
مخالفن	15419
اڳيئي	15420
آباديءَ	15421
رضه	15422
غرض	15423
الرد	15424
ڪاوڙجي	15425
لأني	15426
block	15427
بطور	15428
ٽريڪنگ	15429
خواهيم	15430
##ized	15431
روانگي	15432
ations	15433
پورهيتن	15434
<<<<<<	15435
مشاورت	15436
آکاڻي	15437
رڌل	15438
فلپائن	15439
مقرري	15440
اصحاب	15441
نامزدگي	15442
گیمنگ	15443
رژيم	15444
."	15445
4k	15446
lu	15447
آث	15448
تى	15449
خـــ	15450
دوني	15451
رئ	15452
زار	15453
سكر	15454
طعام	15455
عطر	15456
فيو	15457
ككككك	15458
لعي	15459
نهين	15460
هجوم	15461
وڪو	15462
پخش	15463
ڀاتين	15464
ڀنڀ	15465
چلي	15466
چلو	15467
چمن	15468
کث	15469
کنگ	15470
ڳئون	15471
ھجن	15472
##ire	15473
##بتي	15474
##بختي	15475
##آخر	15476
##پار	15477
##زت	15478
##ُم	15479
##ٹي	15480
اسن	15481
##ابط	15482
البر	15483
الثاني	15484
منصب	15485
جاهل	15486
##اتب	15487
معليش	15488
ماجد	15489
سوئر	15490
سوئس	15491
##اية	15492
استان	15493
##افه	15494
خوار	15495
##ملٽ	15496
گهراڻي	15497
جنوبي	15498
سرپرست	15499
لاح	15500
فرنٽ	15501
سمجهين	15502
راھ	15503
ديري	15504
آزار	15505
فوٽن	15506
افوا	15507
سيڪٽر	15508
ٺاهيندي	15509
##als	15510
عيوني	15511
مستحق	15512
##ics	15513
منتظ	15514
نفعي	15515
ابوال	15516
ڊاڪٽري	15517
thro	15518
پلے	15519
مرحلا	15520
اھڙا	15521
چاڙ	15522
برطرف	15523
صديء	15524
ٻوڙي	15525
آلله	15526
قرضدار	15527
سائڊ	15528
چئني	15529
باغن	15530
ڊزائنر	15531
خلاصه	15532
طالع	15533
عمارتون	15534
2015ع	15535
مائيڪل	15536
طولاني	15537
ڇڪايو	15538
ووٽنگ	15539
knowاڻان	15540
ـــــــــــو	15541
پرنٽنگ	15542
سنڌوءَ	15543
پيئندا	15544
جوانيءَ	15545
moreيڪ	15546
افسانوي	15547
خفيه	15548
افريقي	15549
ذائقو	15550
rosary	15551
پژوه	15552
زبور	15553
جارحيت	15554
ٺيڪيدار	15555
مقتول	15556
اليڪٽرانڪس	15557
sql	15558
don	15559
gm	15560
king	15561
ling	15562
آرين	15563
بياد	15564
بعيد	15565
ثم	15566
حول	15567
حيل	15568
رند	15569
راڪ	15570
زان	15571
سٹ	15572
سمت	15573
سڪو	15574
ظال	15575
عقلي	15576
عڪاسي	15577
فضي	15578
مـآ	15579
همان	15580
هااا	15581
يص	15582
پاتو	15583
ڪہ	15584
گپ	15585
گني	15586
۱۰	15587
##ری	15588
##لة	15589
##جسٽ	15590
##قاد	15591
##ـڪ	15592
##ژن	15593
##ject	15594
ڪرب	15595
الجن	15596
يازين	15597
##ستين	15598
ماا	15599
ماج	15600
اولا	15601
وينا	15602
درمان	15603
امك	15604
اممممم	15605
مقاله	15606
ساقي	15607
باٿ	15608
پاڻهي	15609
پروازن	15610
ٻيٽن	15611
ٻيڙيون	15612
نيٽو	15613
اره	15614
قسمين	15615
تقبل	15616
اسڪور	15617
انگو	15618
حقا	15619
اصلی	15620
ساڳين	15621
حڪومتون	15622
مينا	15623
تاكل	15624
نشو	15625
نشين	15626
اونه	15627
رپورٽنگ	15628
138	15629
##حتك	15630
پڙهيا	15631
جھڙا	15632
تصورات	15633
ساڳيءَ	15634
يسوي	15635
پکو	15636
پولش	15637
آفريقي	15638
ڳاڇا	15639
جزيره	15640
ايجنسين	15641
هيڪر	15642
حرفي	15643
ٽيبلٽ	15644
پرتگال	15645
تنقيدي	15646
سنجيدگي	15647
يحفظ	15648
كتبت	15649
ندى	15650
پانڌي	15651
عرفان	15652
ٻانهي	15653
ايڪڙ	15654
ورجائي	15655
پروردگار	15656
وأنا	15657
آڱرين	15658
ياحبي	15659
فيڊريشن	15660
پروموشن	15661
پهاڙ	15662
شراڪت	15663
ڪلينڪ	15664
هاڪاري	15665
چطوري	15666
پرداخت	15667
گانڌي	15668
نافذ	15669
##شكله	15670
خدمات	15671
ڌمڪيون	15672
ساراهيو	15673
فلوريڊا	15674
مقصود	15675
),	15676
bb	15677
cam	15678
ian	15679
ive	15680
let	15681
ti	15682
tur	15683
val	15684
اااااي	15685
بليس	15686
ستو	15687
عاص	15688
عدن	15689
فـ	15690
فدا	15691
كون	15692
مئن	15693
مصو	15694
مڪر	15695
هس	15696
هپ	15697
يله	15698
يكتب	15699
ٻچ	15700
پڃ	15701
پاد	15702
ڌان	15703
کڏ	15704
ڪني	15705
##ڪچر	15706
##اڳ	15707
##يهر	15708
##مول	15709
##آني	15710
##he	15711
##ئڙو	15712
##کش	15713
##دع	15714
##حقي	15715
##we	15716
##٠٠	15717
اسلوب	15718
##جيريا	15719
اهدا	15720
ڪرونا	15721
ايڊيٽ	15722
هيملٽ	15723
رويا	15724
ميکن	15725
##ادگي	15726
پنهنجيون	15727
گهاري	15728
گهمي	15729
##ٽرڪ	15730
وردي	15731
جنوب	15732
سنين	15733
ليٽي	15734
هاٿي	15735
ساجن	15736
اعلام	15737
##فيه	15738
اصف	15739
پنو	15740
انتشار	15741
ٻيئي	15742
##منس	15743
ڏسنداسين	15744
طريقت	15745
يوگا	15746
##ark	15747
همچين	15748
ادل	15749
اچانڪ	15750
ڪلارڪ	15751
شرکت	15752
##يانا	15753
ماله	15754
تفكر	15755
ڏاڍيون	15756
موقع	15757
بارك	15758
پاسا	15759
##ids	15760
اكتر	15761
ٽوڙ	15762
ستاره	15763
فلائيٽ	15764
گفتار	15765
##اطع	15766
رھندا	15767
ولكن	15768
ميرسي	15769
اَڄ	15770
واڌايون	15771
شمشير	15772
سيٽان	15773
زخمن	15774
ڳنڍي	15775
عاشت	15776
اعتمادي	15777
صدقت	15778
اسٽيشنن	15779
عهدو	15780
قصا	15781
فوٽوز	15782
##ationاڻ	15783
##چارج	15784
تبصري	15785
رسولن	15786
ميڊريز	15787
سمجهائڻ	15788
ڇڪيو	15789
صليب	15790
بنگال	15791
علامتون	15792
روايتون	15793
----	15794
سرمائيدار	15795
صداي	15796
حاڪمن	15797
هجرت	15798
لاڙڪاڻو	15799
وهنوار	15800
هيهيهيهي	15801
ننگر	15802
outlook	15803
واپرائڻ	15804
۔۔۔۔۔۔۔۔۔	15805
آسيب	15806
informationاڻ	15807
ويٽنام	15808
زاويه	15809
ترحيب	15810
"'	15811
]]	15812
bec	15813
cur	15814
ga	15815
gem	15816
lol	15817
men	15818
other	15819
إيه	15820
ازي	15821
حشر	15822
ذليل	15823
زيان	15824
شڪري	15825
شبن	15826
شبيه	15827
غال	15828
ـن	15829
مارين	15830
نط	15831
نغ	15832
نزل	15833
هائڊ	15834
وظي	15835
پڳ	15836
پارو	15837
ڀاتي	15838
چارو	15839
ڦاهي	15840
##نوي	15841
##dy	15842
##خلا	15843
##طون	15844
##ya	15845
##30	15846
##10	15847
##گالي	15848
##ڌاني	15849
##رير	15850
اسكت	15851
سانحي	15852
ڪرائيندو	15853
ڪرسيءَ	15854
ايٿ	15855
يادم	15856
ڪولي	15857
سوڌو	15858
##ھيءَ	15859
سمون	15860
برك	15861
درهم	15862
مرن	15863
لاڀ	15864
سنتي	15865
هاڃ	15866
مقالي	15867
نوازي	15868
باين	15869
اعلم	15870
اعجب	15871
احط	15872
دلع	15873
تبا	15874
مختار	15875
مارڪو	15876
پارت	15877
پيشاني	15878
تنهنجون	15879
بڻيا	15880
بڻائين	15881
وچڙ	15882
ديسي	15883
افق	15884
عرس	15885
سامرا	15886
##ضوعي	15887
رکيون	15888
ساڳيون	15889
جسمن	15890
زمينون	15891
بخشش	15892
آيات	15893
صنم	15894
آپٽ	15895
##آآآآ	15896
ايڪسپي	15897
رجل	15898
ڊرامو	15899
اقصد	15900
گيئر	15901
130	15902
اھميت	15903
اختص	15904
سجدو	15905
شمالي	15906
گرميءَ	15907
دارم	15908
آفريقا	15909
نيڪال	15910
بروکر	15911
نعرو	15912
مهاج	15913
واقفيت	15914
شفٽ	15915
راستي	15916
پٺاڻ	15917
البم	15918
تحريرون	15919
ياريت	15920
ديدگاه	15921
سجاڳ	15922
بڇڙي	15923
حيواني	15924
انگلستان	15925
آدمي	15926
ذائقي	15927
سبسڪرپشن	15928
پوئلڳ	15929
مركز	15930
ناحق	15931
تبادلي	15932
مفاصلي	15933
فرصت	15934
پشتيباني	15935
توجہ	15936
تغيير	15937
متضاد	15938
شبنم	15939
bel	15940
fun	15941
har	15942
tic	15943
أف	15944
بڪس	15945
تكتب	15946
حوا	15947
خانن	15948
رنو	15949
ربن	15950
رٻڙ	15951
سے	15952
ممي	15953
نژ	15954
نچي	15955
هام	15956
هات	15957
هالي	15958
وئ	15959
يـــ	15960
چلم	15961
ڊل	15962
ڍڪي	15963
ڏٺيون	15964
ڪَر	15965
ڪڏهين	15966
ڻي	15967
##ee	15968
##لَ	15969
##بيل	15970
##آب	15971
##آه	15972
##هڙي	15973
##شمينٽ	15974
##طين	15975
##گھ	15976
اسمه	15977
ايسٽر	15978
موضوعي	15979
پرنس	15980
پرفار	15981
ڪمرا	15982
ڪمايو	15983
##ايق	15984
محلي	15985
درب	15986
لاهڻ	15987
ڪنچن	15988
ليها	15989
مقلب	15990
ٿيندس	15991
##زيه	15992
احا	15993
گھم	15994
بابر	15995
دنياي	15996
نمايش	15997
لکڻيون	15998
لوقا	15999
پيشاب	16000
چوندس	16001
ڪهڙن	16002
عملت	16003
##ont	16004
غيرك	16005
بليو	16006
گذارش	16007
خيز	16008
اچون	16009
اچار	16010
پاڇو	16011
پريت	16012
پريميم	16013
پيوسته	16014
##ital	16015
ـــــر	16016
مستحيل	16017
اسپانسر	16018
الحر	16019
الاول	16020
سڏڻ	16021
شاديون	16022
سگھيا	16023
اميدون	16024
ڊرامي	16025
پڪڙيو	16026
144	16027
اعتقد	16028
ڪالوني	16029
شكراً	16030
alt	16031
اميرن	16032
1997	16033
گذاريا	16034
سولر	16035
زوم	16036
ماتا	16037
ماتم	16038
کارائڻ	16039
نياپو	16040
ارسطو	16041
رائعة	16042
نرس	16043
لينن	16044
قصدي	16045
پَٽ	16046
هارائي	16047
ريموٽ	16048
##ification	16049
^^"	16050
زبردستي	16051
ويچارو	16052
پابندين	16053
ـــــــــــــا	16054
زيادي	16055
عمومي	16056
عموما	16057
اڀرڻ	16058
جابلو	16059
پرديس	16060
ڏوهارين	16061
غذائيت	16062
ڀينر	16063
تسلط	16064
پريميئر	16065
ڦوٽو	16066
incre	16067
ذهبي	16068
چگون	16069
برهمڻ	16070
پائلٽ	16071
packing	16072
المفروض	16073
مذڪوره	16074
life	16075
ساليانو	16076
through	16077
اصفهان	16078
پرفارمنس	16079
(→	16080
gt	16081
hum	16082
mer	16083
our	16084
آڪاش	16085
تقي	16086
ثلاث	16087
جــــ	16088
رنس	16089
صي	16090
قبوليت	16091
كد	16092
لز	16093
لذي	16094
مبل	16095
هسٽنگ	16096
ية	16097
يھو	16098
پهه	16099
ڍير	16100
ڏيا	16101
ڦاڙي	16102
گزي	16103
##عار	16104
##سازي	16105
##هاد	16106
##uk	16107
##ُڪ	16108
##gb	16109
##غرب	16110
##ble	16111
##ٿام	16112
##چی	16113
##20	16114
##ڀير	16115
##ًا	16116
##ڑو	16117
هنري	16118
الـ	16119
الإ	16120
الهه	16121
الارم	16122
هوائن	16123
آهني	16124
##دوس	16125
##جواب	16126
پهري	16127
پهلوي	16128
ڏيهي	16129
مسائل	16130
لاجواب	16131
مقطع	16132
باطل	16133
ٻڌائيندا	16134
ٽيڊ	16135
ڇوڪر	16136
بابي	16137
ريڊي	16138
اُڇ	16139
اُداس	16140
آرمين	16141
ٻيڙين	16142
لکندڙ	16143
##ons	16144
گردد	16145
اچڻو	16146
وٺندس	16147
ويبس	16148
سگهندين	16149
ولاي	16150
المشكله	16151
اٿاري	16152
##lex	16153
مزاجي	16154
ابشر	16155
مينو	16156
مصل	16157
خوبين	16158
ابوي	16159
پورچو	16160
ــن	16161
ڊرامن	16162
فلمي	16163
رحت	16164
قلندر	16165
بتح	16166
چاقو	16167
چمڪي	16168
ــــر	16169
موسمياتي	16170
مڃان	16171
افغاني	16172
##ائيٽڪس	16173
دروازن	16174
ڏوهي	16175
صورتي	16176
##ull	16177
گولف	16178
اسمها	16179
دعوا	16180
##pty	16181
ڀريندؤ	16182
مهاڳ	16183
وڙهندا	16184
مڇيءَ	16185
دوستيءَ	16186
ضلعو	16187
ــــــــــــــه	16188
گھڻيون	16189
رمز	16190
پچائڻ	16191
اااااا	16192
معصومه	16193
ماعرف	16194
لحظ	16195
##ike	16196
law	16197
ڦرڻ	16198
empty	16199
نبض	16200
برائوز	16201
rob	16202
چنب	16203
ٻيڙيء	16204
رڪاوٽون	16205
ريگستان	16206
اڏامون	16207
معجزو	16208
mark	16209
رٽائرڊ	16210
تجربيڪار	16211
معاونت	16212
هائپر	16213
ٻاجھ	16214
خخخخ	16215
چانڊوڪي	16216
اپنائڻ	16217
پاکستان	16218
آآآآآآآآ	16219
فيڊرل	16220
business	16221
پبليڪيشن	16222
direct	16223
پورهئي	16224
ايڊيٽوريل	16225
cc	16226
from	16227
mal	16228
mag	16229
ow	16230
آلا	16231
بی	16232
تقو	16233
تندر	16234
تلعب	16235
حار	16236
خاڪ	16237
سعي	16238
سلن	16239
شگر	16240
ضع	16241
طن	16242
غافل	16243
فهيم	16244
مائو	16245
مبتني	16246
ولس	16247
يارن	16248
يندڙ	16249
ٺهڪ	16250
ٻيلو	16251
ڄائي	16252
ڊريس	16253
ڦُ	16254
ڪفن	16255
##وڊ	16256
##عنا	16257
##آڪ	16258
##me	16259
##ئڙن	16260
##va	16261
##ذن	16262
##ھيو	16263
##الائيٽڪس	16264
جوتن	16265
بهت	16266
سانڍ	16267
سانتا	16268
##روب	16269
العم	16270
النت	16271
توحيد	16272
##يرس	16273
جيڪب	16274
موجو	16275
ڪيفي	16276
ويھي	16277
ميزن	16278
اووو	16279
##ئنڊ	16280
محق	16281
اينالائيٽڪس	16282
درجن	16283
##عيش	16284
سندر	16285
تراني	16286
مستي	16287
لاپ	16288
نوم	16289
مطهري	16290
ازين	16291
اعضاء	16292
پناهي	16293
متغير	16294
علينا	16295
اخاف	16296
ناوي	16297
ارزش	16298
واردات	16299
نقاد	16300
جانشين	16301
##aly	16302
تصير	16303
گھرندو	16304
stat	16305
step	16306
پهچائيندو	16307
##ict	16308
دسته	16309
حسرت	16310
لائف	16311
نگري	16312
معايا	16313
پورائي	16314
پنجره	16315
ٻوليء	16316
تشو	16317
وڻيو	16318
صوبو	16319
لنڪا	16320
ڪنٽرولر	16321
جھٽ	16322
پالش	16323
شمع	16324
جائداد	16325
لبى	16326
1998	16327
1990ع	16328
ڳنڍڻ	16329
##يفه	16330
فرمايائون	16331
دعوى	16332
انصاري	16333
رائد	16334
art	16335
آئيو	16336
ڪوئيٽا	16337
کڻندي	16338
ڊيلٽا	16339
نارنگي	16340
کيڏيو	16341
ٺاھيندڙ	16342
mod	16343
وڇڙي	16344
بُک	16345
ٻانهون	16346
ڦاٿل	16347
گيمز	16348
أخوي	16349
ورهائجي	16350
سجاڳي	16351
هئينءَ	16352
مچائي	16353
اعجبتني	16354
مثلاً	16355
رغد	16356
رأيك	16357
رسوخ	16358
key	16359
نروار	16360
کميسيون	16361
جلاو	16362
فنگر	16363
اسٽيبلشمينٽ	16364
المشاركات	16365
invest	16366
سريلنڪا	16367
رچرڊ	16368
اڪاؤنٽ	16369
چگونگي	16370
doc	16371
nex	16372
pi	16373
view	16374
اٽي	16375
بله	16376
باص	16377
بتيون	16378
رده	16379
شَ	16380
لمن	16381
َن	16382
ٺل	16383
ٻوري	16384
چی	16385
چچ	16386
چتر	16387
چائن	16388
ڊڪشن	16389
ڦٽو	16390
گدڙ	16391
ڳل	16392
##سوي	16393
##pn	16394
##ui	16395
##ّت	16396
##jack	16397
##ائه	16398
##ائٽ	16399
##ــم	16400
اسف	16401
اسير	16402
##امني	16403
##ياه	16404
ڪرت	16405
ڪرايون	16406
ايذ	16407
##روت	16408
الفاظ	16409
پيٽرن	16410
##اتك	16411
واج	16412
ميڙي	16413
ميشود	16414
گهڙيون	16415
##بيع	16416
سيون	16417
خوان	16418
محر	16419
اينگ	16420
اينجا	16421
درحقي	16422
شيعي	16423
سرشتي	16424
تعبت	16425
ساڀ	16426
##زيون	16427
باخبر	16428
ازاي	16429
احبه	16430
بابو	16431
ريجن	16432
اُتان	16433
##ert	16434
لوڏ	16435
تنهائي	16436
راهن	16437
راكان	16438
همس	16439
مثنوي	16440
داعش	16441
گرما	16442
تقولي	16443
ڏاڏن	16444
بحرين	16445
بوده	16446
ممنوع	16447
صاحبن	16448
منظرن	16449
المط	16450
مجبوري	16451
عنجد	16452
حسيني	16453
تعليمات	16454
خانم	16455
toاڻ	16456
ڪڍيا	16457
مرحبا	16458
وجھ	16459
هينري	16460
اطلع	16461
لكي	16462
ساراھ	16463
گھٽجي	16464
جرسي	16465
سوشلزم	16466
زخمين	16467
نڪرندڙ	16468
##چوئل	16469
##ult	16470
ماتر	16471
رائج	16472
بمق	16473
قصة	16474
هارون	16475
نعرا	16476
ريما	16477
اقولك	16478
الرس	16479
ٽيڪساس	16480
ااااااا	16481
موجودگيءَ	16482
پلاننگ	16483
حوصلو	16484
اختلافن	16485
گياهان	16486
ٻاڦ	16487
مـــن	16488
پيئندو	16489
هجري	16490
ميدوني	16491
ڪيمپس	16492
باهمي	16493
syn	16494
بلاگرز	16495
انرجي	16496
مممممممممم	16497
ابليسك	16498
blackjack	16499
اڪرم	16500
تلقين	16501
structure	16502
شڪريو	16503
محققن	16504
درحقيقت	16505
diff	16506
hol	16507
ia	16508
ni	16509
oc	16510
ret	16511
sec	16512
آڌي	16513
بظاهر	16514
تكر	16515
رني	16516
رھو	16517
رليف	16518
زلف	16519
عجي	16520
قــ	16521
كند	16522
مائن	16523
نازي	16524
نکن	16525
وهائي	16526
يأ	16527
ٺڳ	16528
ٽائل	16529
پند	16530
پڪاري	16531
ڇٽي	16532
ڏَ	16533
ڙيون	16534
ڪچو	16535
گٽ	16536
گد	16537
##سد	16538
##ple	16539
##ڏان	16540
##گوي	16541
جور	16542
ايڪي	16543
##ابة	16544
الريا	16545
آهنگي	16546
پيم	16547
پرداز	16548
منم	16549
مانند	16550
واذا	16551
بيد	16552
بيهاري	16553
##ڪيءَ	16554
محي	16555
فيفا	16556
##کيءَ	16557
وردة	16558
امسك	16559
تعدد	16560
مسير	16561
مساج	16562
نظارن	16563
##ويهه	16564
ساجد	16565
دواس	16566
ٽيچر	16567
هئاسون	16568
سمجھن	16569
##ini	16570
چوٽيءَ	16571
پڙهايو	16572
يومين	16573
رسالن	16574
##موضوع	16575
پڇندو	16576
ٻاراڻي	16577
##alk	16578
اکڙين	16579
مٿاهون	16580
المس	16581
المص	16582
المسك	16583
ابدي	16584
##ٽلر	16585
گروي	16586
ٽوئن	16587
##els	16588
علمن	16589
پيامک	16590
زيرو	16591
خيرها	16592
نوره	16593
مڃيل	16594
ref	16595
reg	16596
##گريشن	16597
ورڪنگ	16598
cha	16599
##وووووو	16600
##aph	16601
ويڪرو	16602
ate	16603
نمائندا	16604
سڌاري	16605
حجت	16606
روڪٿام	16607
adj	16608
leg	16609
امريکا	16610
لعب	16611
forex	16612
فيڪٽ	16613
سيکارڻ	16614
ڏهاڙو	16615
ماعند	16616
ڇڏينداسين	16617
سيمالٽ	16618
تعليقك	16619
عضلات	16620
الحمدلله	16621
يفهم	16622
جھڙوڪ	16623
مرکب	16624
have	16625
معناها	16626
جلوس	16627
اهنگ	16628
قديمه	16629
پختو	16630
صابر	16631
گرفتن	16632
انرژي	16633
https	16634
آموزش	16635
ڪعبي	16636
کثافت	16637
لذيذ	16638
___	16639
aff	16640
ds	16641
sar	16642
san	16643
آٿ	16644
بائيو	16645
بانڊ	16646
جليل	16647
خاي	16648
خليف	16649
ديم	16650
ذھن	16651
راڻو	16652
سكت	16653
شـ	16654
صرت	16655
صارت	16656
غصب	16657
فيڪل	16658
لپي	16659
نست	16660
هجون	16661
يصل	16662
ٻچن	16663
ٽڪيٽن	16664
ڄمي	16665
ڌريون	16666
کڄي	16667
ڳڙ	16668
ڳايو	16669
##وفر	16670
##ڪلي	16671
##اپي	16672
##يك	16673
##عتي	16674
##لنگ	16675
##قس	16676
##فورڊ	16677
##زده	16678
##یق	16679
##ye	16680
##ڀو	16681
##ههي	16682
جيٽ	16683
انڌا	16684
جوت	16685
ٿيءُ	16686
يادن	16687
موچ	16688
هيلي	16689
ڪيوسون	16690
##راق	16691
ميڻ	16692
اوپو	16693
##ڪيج	16694
سيءَ	16695
##ترن	16696
سرجري	16697
##ڻيءَ	16698
هههههههههههاي	16699
لوڏي	16700
ناهه	16701
چوپ	16702
##پيٽل	16703
واللي	16704
ارمان	16705
اجهو	16706
تاريخچه	16707
ھڪٻئي	16708
پاك	16709
سگهبو	16710
##بارت	16711
ههههههااااي	16712
گوڏن	16713
وسط	16714
ٽيڪسي	16715
##سلونا	16716
صاحبه	16717
##ition	16718
اٿاريو	16719
بيانن	16720
تاڪي	16721
بارسلونا	16722
##صلت	16723
ٽوٽل	16724
ٽرام	16725
فنڪارن	16726
مهلت	16727
انجليزي	16728
رحمان	16729
تكفون	16730
بتعرف	16731
وائرليس	16732
گمراهه	16733
ميوي	16734
##chain	16735
1995	16736
نڪرندا	16737
جامعه	16738
ائيڊ	16739
نرمي	16740
فوٽوگرافي	16741
مئٽرڪ	16742
مديره	16743
پرڏيهه	16744
plus	16745
حادثن	16746
كلامي	16747
انفراديت	16748
انتخابات	16749
تعجبني	16750
تلخ	16751
چڙهيل	16752
ڊائريڪٽرن	16753
ماڳن	16754
چينلز	16755
پبلشر	16756
رشوت	16757
پگهر	16758
اسڪوائر	16759
احمق	16760
احبك	16761
راڻيءَ	16762
حُڪم	16763
ڀانيو	16764
گهيري	16765
box	16766
أحلى	16767
خمير	16768
مرکوز	16769
كلمه	16770
اعجاز	16771
باشعور	16772
مجنونه	16773
ڊنر	16774
ڊيموڪري	16775
يونيفارم	16776
ذخيرا	16777
موديل	16778
روبرو	16779
ويٺس	16780
ڀڳوان	16781
پٿرن	16782
ڌاڙيلن	16783
حزب	16784
قائدا	16785
معلش	16786
مبلغ	16787
آٿت	16788
==	16789
bir	16790
ll	16791
mu	16792
ox	16793
port	16794
أب	16795
أول	16796
اڊ	16797
اٽل	16798
اصولي	16799
تروح	16800
ررررر	16801
ستم	16802
شاف	16803
شبه	16804
عنا	16805
قـ	16806
قض	16807
لـــ	16808
مهو	16809
مچي	16810
واني	16811
وسن	16812
ٻٻر	16813
ٽريل	16814
ٽٽل	16815
پہ	16816
پـــ	16817
کاه	16818
کائنس	16819
ڪٽس	16820
گلا	16821
گھن	16822
گندو	16823
ھيل	16824
##ڊس	16825
##ڀار	16826
##الڊ	16827
##الج	16828
جوز	16829
##ليكم	16830
سانچا	16831
هههههههههاي	16832
ايائين	16833
البي	16834
الشي	16835
پيءَ	16836
##ولر	16837
##قيب	16838
معها	16839
رواداري	16840
ڪوٽا	16841
ويش	16842
ويکي	16843
وڌائيندي	16844
اوم	16845
اوسر	16846
گهڙين	16847
ورز	16848
دوکي	16849
تحفه	16850
اصلن	16851
اصغر	16852
ڇوٽ	16853
ڪاربن	16854
پروڊيو	16855
ريفر	16856
##ina	16857
ڇڏائڻ	16858
لوهي	16859
جهون	16860
گهٽايو	16861
ههههههههههههـ	16862
نقا	16863
اچرج	16864
يادش	16865
تاريخون	16866
تقر	16867
تقليد	16868
شوفي	16869
شرعي	16870
شركت	16871
صورتون	16872
گويا	16873
اوله	16874
##let	16875
بخصوص	16876
آياسين	16877
شهريت	16878
183	16879
محبتن	16880
نسوي	16881
سونهري	16882
ڪپتان	16883
ويجها	16884
مڙسن	16885
ــــه	16886
مڃيندا	16887
علامتي	16888
بادشاهن	16889
ايڊز	16890
##ڙيندي	16891
2019ع	16892
دعائن	16893
پينشن	16894
##شوق	16895
گيتن	16896
بروقت	16897
ضحكني	16898
1970	16899
سفارشون	16900
need	16901
گهوڙا	16902
لڳايا	16903
کوليون	16904
نكتة	16905
مينيجمينٽ	16906
والوز	16907
پِر	16908
اخوك	16909
اخواني	16910
منشور	16911
نيپال	16912
مٽاسٽا	16913
specification	16914
نائيجيريا	16915
يستاهل	16916
كأن	16917
عابد	16918
سخاوت	16919
نارنجي	16920
اڍائي	16921
ڌانڌ	16922
adjust	16923
""	16924
aqu	16925
set	16926
vers	16927
آڵ	16928
أني	16929
جئ	16930
جعل	16931
حش	16932
حٿ	16933
ريور	16934
رخص	16935
زرين	16936
صلو	16937
عآ	16938
عــ	16939
قمبر	16940
كث	16941
كني	16942
كمل	16943
ليور	16944
مــــــــــ	16945
ننهن	16946
نجو	16947
نفا	16948
وجو	16949
يتيم	16950
ُن	16951
ٽپي	16952
چپس	16953
کِل	16954
ڪٺ	16955
ڪــ	16956
##عج	16957
##ll	16958
##سِ	16959
##טּ	16960
##ڏر	16961
##ظهر	16962
##ړي	16963
##ړه	16964
ڪرپٽ	16965
الفر	16966
هوُ	16967
##لاڪ	16968
پيانو	16969
##ميلي	16970
##ولڻ	16971
پويا	16972
ماڙ	16973
بيلي	16974
ويگن	16975
ميسين	16976
وڌا	16977
سودو	16978
سيري	16979
ملف	16980
محو	16981
محا	16982
ماڻه	16983
ايند	16984
سندا	16985
جنا	16986
جنازي	16987
سردارن	16988
مشابه	16989
لاڙو	16990
های	16991
ٿيندين	16992
ٻڌايائين	16993
عليا	16994
مدام	16995
وٽامن	16996
علاء	16997
اخراج	16998
آماده	16999
بلٽ	17000
##ann	17001
سببان	17002
اتش	17003
##ااااااا	17004
مليس	17005
يونائي	17006
يونٽن	17007
ڏاڏا	17008
رهنما	17009
ههههههههههههههـ	17010
عرش	17011
خطيره	17012
تصنيف	17013
اٿوَ	17014
اسپن	17015
چاره	17016
پئڪيج	17017
سپاس	17018
تاك	17019
ڏنس	17020
اِھو	17021
العام	17022
العلم	17023
سجاد	17024
آزاديء	17025
پليٽفارم	17026
##ose	17027
دانه	17028
قطب	17029
1999	17030
ملاقاتون	17031
سيلون	17032
سنڀاليندو	17033
end	17034
عيسائين	17035
ــــــــه	17036
فاش	17037
ٽينڪ	17038
الجديد	17039
خليهم	17040
ـــــــــــــــــي	17041
کوليا	17042
لنگر	17043
هناك	17044
قبرن	17045
##ateg	17046
ڪوٽڙي	17047
ڌنڌ	17048
two	17049
هڻندا	17050
ڪنگڻ	17051
ڦاٽي	17052
گياه	17053
لهرن	17054
##que	17055
سجاول	17056
آئرش	17057
ملاحظه	17058
شفافيت	17059
گزينه	17060
اُڀري	17061
گرانٽ	17062
ميخواهي	17063
انتقال	17064
پيشنهاد	17065
روينيو	17066
ارزيابي	17067
ڪرسٽوفر	17068
wellي	17069
ڪنٽينر	17070
يخرب	17071
دكتر	17072
راديو	17073
ميسينجر	17074
++	17075
;)	17076
az	17077
days	17078
hot	17079
ka	17080
ok	17081
ru	17082
sat	17083
tit	17084
wp	17085
~~	17086
بارو	17087
تکو	17088
خپل	17089
رنڊ	17090
رفيق	17091
صه	17092
عِ	17093
غداري	17094
فاض	17095
قاصد	17096
كما	17097
لی	17098
مڊ	17099
مفا	17100
نحن	17101
نبوت	17102
هڏي	17103
هالو	17104
وٿ	17105
پپ	17106
ڇِ	17107
ڊڊ	17108
کارو	17109
کٽيو	17110
ڪارين	17111
ڪبير	17112
′′	17113
##ron	17114
##لسي	17115
##بس	17116
##قص	17117
##ma	17118
##min	17119
##هڪي	17120
##ئڙي	17121
##کيو	17122
##ka	17123
##ضن	17124
##ثرين	17125
جيان	17126
جوتا	17127
تيسين	17128
ٿيٽر	17129
النو	17130
الائجي	17131
پيز	17132
موٽرو	17133
واڌو	17134
##لوس	17135
ڪوڪو	17136
ويهندي	17137
رهيبه	17138
وڃائجي	17139
سيستم	17140
پهتل	17141
سالميت	17142
درگاهه	17143
ڏيڻي	17144
ڪنسول	17145
هاذي	17146
رکين	17147
تمرين	17148
تحول	17149
اصبح	17150
فرائ	17151
ريف	17152
زندگ	17153
اخير	17154
##طيه	17155
نقشا	17156
##بارك	17157
بندگي	17158
106	17159
شوفو	17160
##att	17161
ڪلائوڊ	17162
روزا	17163
ste	17164
المش	17165
هُون	17166
ـــــا	17167
اڻان	17168
زمينه	17169
الحم	17170
تاث	17171
نگاهن	17172
ايڪسين	17173
سُڃ	17174
ٽوڙيو	17175
اُنهيءَ	17176
ally	17177
align	17178
ڪوڊنگ	17179
وڪالت	17180
1992	17181
ووون	17182
ڌرتيء	17183
known	17184
ميٽرن	17185
پولنگ	17186
##ung	17187
حجاب	17188
واپسيءَ	17189
ڪميونزم	17190
دڪاندار	17191
وحشت	17192
نوازش	17193
گُهر	17194
ڪاپيون	17195
عادتن	17196
اندام	17197
ناسا	17198
ass	17199
ask	17200
api	17201
ڏيندڙن	17202
اااااااي	17203
جميع	17204
رعب	17205
اثاثو	17206
سعادت	17207
سپاهين	17208
خواست	17209
لايفوتكم	17210
پھچڻ	17211
رپورٽر	17212
اڻڄاڻ	17213
بمبئيءَ	17214
نااهل	17215
يرجك	17216
ردودكم	17217
years	17218
جبتيها	17219
ورکړئ	17220
سيٽلائيٽ	17221
ٽاسڪ	17222
##ٹیج	17223
ظالمن	17224
نژاد	17225
رنسون	17226
يونائيٽيڊ	17227
موٽرولا	17228
bas	17229
gh	17230
ig	17231
lot	17232
loc	17233
nt	17234
pop	17235
rac	17236
wa	17237
way	17238
ئا	17239
بطن	17240
تدو	17241
جتو	17242
جھو	17243
حک	17244
دهر	17245
راف	17246
رضي	17247
رجوع	17248
شدي	17249
شيڪ	17250
شني	17251
شات	17252
شبي	17253
طنز	17254
عُ	17255
فش	17256
فورا	17257
قضيه	17258
قائد	17259
قبولي	17260
لولو	17261
مَر	17262
هسه	17263
هـآ	17264
وجي	17265
وقو	17266
يغ	17267
ٿڙ	17268
ځواب	17269
ڍنگ	17270
ڪشن	17271
گاريون	17272
ھئ	17273
ھڻي	17274
ین	17275
##وق	17276
##ii	17277
##land	17278
##ae	17279
##sي	17280
##ڊني	17281
##fect	17282
##ms	17283
##فاء	17284
##gen	17285
##غيب	17286
##ّد	17287
ايجو	17288
##رويد	17289
ڪيئر	17290
پرفارم	17291
منير	17292
مانَ	17293
واك	17294
ماقدر	17295
بيض	17296
ويانا	17297
ويهندا	17298
ميمو	17299
سوف	17300
اوست	17301
##ئنسي	17302
خواني	17303
برتر	17304
ماڻڻ	17305
سالڪ	17306
مرندي	17307
تره	17308
##بوطي	17309
هاشمي	17310
سگهياسين	17311
ساڃ	17312
ساڍا	17313
ريشم	17314
دلدار	17315
لوس	17316
تنت	17317
جهڳ	17318
يوفق	17319
بلد	17320
تجهيز	17321
گرمين	17322
ديش	17323
آنآ	17324
جانان	17325
صفات	17326
اٿائين	17327
السجن	17328
cool	17329
شعار	17330
مصرف	17331
anime	17332
هايي	17333
ڪڍو	17334
حرامي	17335
کنئي	17336
تشڪيل	17337
وجهندي	17338
هيونداي	17339
زيك	17340
بتحب	17341
منجهيل	17342
موسمن	17343
جوڙيل	17344
پيروڪار	17345
ويڪيوم	17346
وصال	17347
2016ع	17348
گليڪسي	17349
عجبك	17350
وڙهندي	17351
لعبه	17352
رسمون	17353
ملنديون	17354
قاعدي	17355
ڊڄڻ	17356
بطني	17357
تقولين	17358
تدخل	17359
اروپا	17360
مدرسي	17361
ذخيري	17362
مھينو	17363
,,,,	17364
ڊسپو	17365
روئندي	17366
تدريسي	17367
يعينك	17368
ٽائمز	17369
مڱريو	17370
افريقا	17371
media	17372
مُرڪي	17373
تائيد	17374
بيهوش	17375
سوداگر	17376
انحراف	17377
##load	17378
اسطوره	17379
جغرافي	17380
تفاوت	17381
پيٽروليم	17382
ڀنڀور	17383
غالبا	17384
throughout	17385
##ڏانھن	17386
جتوئي	17387
ايجوڪيشن	17388
eu	17389
high	17390
live	17391
pt	17392
pad	17393
power	17394
rad	17395
tes	17396
آرا	17397
أإ	17398
إلا	17399
ادر	17400
تسم	17401
تجيب	17402
خخ	17403
دڳ	17404
دائم	17405
رر	17406
رمو	17407
زل	17408
زده	17409
سٻ	17410
سٽر	17411
شامي	17412
عاا	17413
غصي	17414
غيب	17415
غدير	17416
فاي	17417
قون	17418
لگ	17419
مندي	17420
مكن	17421
مابي	17422
هڏن	17423
وא	17424
يٽ	17425
يــ	17426
چريا	17427
ڍو	17428
کام	17429
کلاس	17430
ڪـــ	17431
گی	17432
گاھ	17433
##وٽن	17434
##عض	17435
##ew	17436
##line	17437
##ةة	17438
##شلم	17439
##ينگ	17440
جوڳ	17441
جواهر	17442
##امام	17443
نهاد	17444
ايبل	17445
ايڪري	17446
توا	17447
توضي	17448
پيت	17449
پرايد	17450
معانا	17451
بيع	17452
بيانيه	17453
##هود	17454
سڀڪو	17455
ڏيندين	17456
برب	17457
برسل	17458
##اليه	17459
ورچوئل	17460
مرور	17461
ترديد	17462
##صوت	17463
لاٽ	17464
لاكن	17465
ڪنز	17466
نظيف	17467
نووا	17468
تمسك	17469
##ـــــــــــــــ	17470
ڪارل	17471
اُل	17472
آرڊين	17473
ٻيڙو	17474
وڏيءَ	17475
زندگيون	17476
ارسل	17477
گذا	17478
يقدر	17479
خلافت	17480
ٻارنهن	17481
بنان	17482
مضبوطي	17483
ٻاهرئين	17484
عمره	17485
ــــــن	17486
اڻون	17487
ڳالهايون	17488
تفصي	17489
سپنن	17490
الحل	17491
نسخه	17492
سُون	17493
اقرا	17494
نوجواني	17495
مقابل	17496
وجهو	17497
وجھڻ	17498
وڻج	17499
درياء	17500
العال	17501
ديوت	17502
چاک	17503
چاهن	17504
آفيسون	17505
real	17506
cho	17507
غريبة	17508
فٽنيس	17509
خلينا	17510
2017ع	17511
رائعه	17512
فاضيه	17513
سڌائي	17514
غلامن	17515
##ڙڪائي	17516
گهوڙو	17517
ناولن	17518
اگھ	17519
تڪليفن	17520
ماشين	17521
كنتي	17522
اندرويد	17523
##المپور	17524
چارجنگ	17525
عزيزتي	17526
شوراي	17527
پرتگالي	17528
تلاءَ	17529
داريد	17530
شناس	17531
ورهاست	17532
ٽيلر	17533
ويچارا	17534
ربيع	17535
مسكينه	17536
مشاهدي	17537
مروه	17538
گاديء	17539
ڦيرائي	17540
مشرق	17541
نَه	17542
پُڇيو	17543
جابر	17544
شکل	17545
ميگم	17546
مرسيدس	17547
تدريس	17548
##itten	17549
چهرا	17550
چهرن	17551
##ـَـ	17552
پريميئم	17553
پوائنٽس	17554
دهيد	17555
design	17556
center	17557
تلفظ	17558
مقدمو	17559
مجسمو	17560
يروشلم	17561
خنجر	17562
کوجنا	17563
ويتامين	17564
blockchain	17565
اهداف	17566
سامراجي	17567
ويبسائيٽ	17568
تاڪيد	17569
پروڊيوسر	17570
=)	17571
=))	17572
ck	17573
hand	17574
li	17575
less	17576
lake	17577
lcd	17578
pen	17579
؟.	17580
آفر	17581
بې	17582
تاي	17583
تنوع	17584
ثقل	17585
جی	17586
جــ	17587
حـــــــ	17588
خص	17589
دهه	17590
رؤ	17591
رھن	17592
رجب	17593
رِي	17594
زنا	17595
طمع	17596
ـت	17597
ككك	17598
مامو	17599
هـــــــــ	17600
وله	17601
يء	17602
يرحم	17603
ُو	17604
پاتل	17605
چورن	17606
ڍڪڻ	17607
کڻو	17608
को	17609
##ier	17610
##loud	17611
##سط	17612
##fe	17613
##فيت	17614
##پڙي	17615
##پرن	17616
##ضض	17617
##أله	17618
##्र	17619
##ارك	17620
انع	17621
جوڙا	17622
سانڍي	17623
##لاطون	17624
ڪيستائين	17625
مافه	17626
بيتن	17627
ويھ	17628
ميڊل	17629
سوسو	17630
ڪمر	17631
ڏينهون	17632
پهاڪا	17633
هونڊي	17634
ترغيب	17635
امرو	17636
امدادي	17637
مشي	17638
سنئين	17639
مقد	17640
##توا	17641
ٻڌن	17642
تحدي	17643
ريشه	17644
نمياد	17645
لوح	17646
##اءِجو	17647
2010ع	17648
راش	17649
اسٽورن	17650
نقطا	17651
##ance	17652
ديدي	17653
بدري	17654
بدامني	17655
شرڪ	17656
شرجي	17657
وٺجي	17658
خرچي	17659
ماليات	17660
بچائيندو	17661
منظورت	17662
پاڪستانين	17663
still	17664
ينفع	17665
عمرك	17666
ملاڪا	17667
عود	17668
پسندن	17669
##ster	17670
الاخ	17671
ڊوڙڻ	17672
رهف	17673
اسٽيم	17674
ڪورون	17675
ـــر	17676
جداً	17677
انيميشن	17678
وضع	17679
اھيو	17680
لنچ	17681
178	17682
170	17683
سلائيڊ	17684
ديواري	17685
تازن	17686
ــــد	17687
چرٻي	17688
ماريندو	17689
اظهر	17690
ايڊو	17691
بازو	17692
نياڻيون	17693
نمائندي	17694
سڌارن	17695
اخبارون	17696
سيرت	17697
چانڊيو	17698
چيمپ	17699
تعاقب	17700
هائوسنگ	17701
سينيٽر	17702
تبصرن	17703
ڏياريندڙ	17704
1960	17705
ريڪٽر	17706
کنيل	17707
ڪِين	17708
تعرفي	17709
##ibr	17710
ڇڪيل	17711
ومش	17712
ٺهراءُ	17713
icloud	17714
مــا	17715
ڪورسز	17716
ندارم	17717
نبين	17718
رشته	17719
سڳوري	17720
ملاحظ	17721
بقيه	17722
ميونسپلٽي	17723
iii	17724
ڀائيوار	17725
ياحلي	17726
شيوه	17727
ليبرا	17728
ٻڌائيندس	17729
ٺاھي	17730
##box	17731
linked	17732
آندل	17733
اولمپڪ	17734
elect	17735
ڇالاءِجو	17736
باورچی	17737
سرفراز	17738
ٽوٽڪا	17739
ٽيمپليٽ	17740
آثارن	17741
سٹیل	17742
فيڪلٽي	17743
تاثرات	17744
تفصيلات	17745
؟."	17746
مافهمت	17747
ba	17748
eth	17749
fir	17750
just	17751
lt	17752
mill	17753
rt	17754
آيم	17755
آسپ	17756
أخو	17757
أحب	17758
أجل	17759
بة	17760
تڙپ	17761
تغذ	17762
دڙو	17763
زِ	17764
زعل	17765
سز	17766
شوند	17767
شالله	17768
ضمي	17769
لڙي	17770
لبر	17771
لاف	17772
لساني	17773
لڌا	17774
لهندو	17775
نورت	17776
هيڪل	17777
ٽريڪٽر	17778
پڑ	17779
پڄي	17780
ٿئين	17781
چير	17782
ڍڪيل	17783
ڙِي	17784
ڪپور	17785
ھِن	17786
##بخ	17787
##بندي	17788
##جهان	17789
##پې	17790
##vc	17791
##ger	17792
##يوا	17793
جوڀن	17794
ٿيڻي	17795
ايرو	17796
الجو	17797
الليل	17798
يااا	17799
پرامن	17800
معاي	17801
معلق	17802
ماپي	17803
ماكنت	17804
سوڍ	17805
##شنو	17806
سيس	17807
محرو	17808
محنتي	17809
هوندين	17810
مشير	17811
نظارا	17812
ٻڌايل	17813
##ڪوڪ	17814
ٽيهن	17815
پنبه	17816
اُتر	17817
نماين	17818
پيشين	17819
پڙھو	17820
ارڙ	17821
ادراڪ	17822
اجراي	17823
آمريت	17824
وريو	17825
ڏاک	17826
ڪلهن	17827
هٿرادو	17828
خطأ	17829
گوش	17830
گود	17831
ڀيٽا	17832
پڇان	17833
##rop	17834
star	17835
رکيائين	17836
المدير	17837
عيال	17838
##ليلك	17839
coup	17840
پيرسن	17841
مُس	17842
تخاف	17843
فلڪ	17844
متاثرين	17845
العين	17846
ترجما	17847
يونيورسٽيء	17848
جھل	17849
پاليندڙ	17850
لکيون	17851
چرچو	17852
ووٽن	17853
222	17854
شويد	17855
اشتري	17856
آلآ	17857
ڪلوگرام	17858
ويڊيوز	17859
اوچتي	17860
exc	17861
چانورن	17862
شبكه	17863
##ational	17864
الخير	17865
گُذ	17866
##فقار	17867
ريڪو	17868
جهنڊو	17869
چُپ	17870
بشير	17871
365	17872
رجحانات	17873
اڻيءَ	17874
بندرگاهن	17875
هستيد	17876
بُڪ	17877
پناھ	17878
برفاني	17879
هڻندي	17880
youn	17881
خوشبوءِ	17882
ٻُڌايو	17883
رومانس	17884
ريڊمي	17885
سرحدون	17886
وهندڙ	17887
بڇڙو	17888
بضحكه	17889
پارٽنرشپ	17890
ڪوئلي	17891
ظرفيت	17892
ڳالهائينداسين	17893
http	17894
باقائ	17895
ماڊرن	17896
پاڳل	17897
لذت	17898
عقلمند	17899
كويس	17900
لمرورك	17901
لاحظ	17902
ڪربلا	17903
ٺهڪندڙ	17904
کاهش	17905
فرائض	17906
تدوين	17907
توضيح	17908
آسپاس	17909
bab	17910
cs	17911
fing	17912
hi	17913
ham	17914
ice	17915
ker	17916
lat	17917
sun	17918
tik	17919
war	17920
wag	17921
بگا	17922
بگير	17923
تام	17924
تجي	17925
تامين	17926
تتكلم	17927
جده	17928
جــــــــــــ	17929
خامي	17930
دق	17931
ديا	17932
رتو	17933
سهو	17934
صندو	17935
عريس	17936
فـــ	17937
فِي	17938
لار	17939
لــ	17940
نبود	17941
هے	17942
وھ	17943
وام	17944
يوري	17945
يجنن	17946
ٻير	17947
پښ	17948
پائيندو	17949
••	17950
##يئر	17951
##ڇاڻ	17952
##سى	17953
##hone	17954
##جس	17955
##ٽم	17956
##فات	17957
##پري	17958
##get	17959
##طط	17960
##طرس	17961
##ba	17962
##ظن	17963
##ھڪ	17964
جوڙن	17965
##ورر	17966
##ورٽ	17967
##روا	17968
ياقلبي	17969
پيلي	17970
مولي	17971
##ميان	17972
##رادي	17973
جاسوس	17974
پوڙها	17975
مازن	17976
ميٽي	17977
وڌايل	17978
سويل	17979
##ادار	17980
استخ	17981
استف	17982
##متك	17983
پهاڪن	17984
هرچي	17985
ورندي	17986
ترکيه	17987
گڏيو	17988
پنهل	17989
ڪارآمد	17990
فرما	17991
چيري	17992
ريڊر	17993
سمجهندي	17994
اخيرا	17995
##الوجي	17996
ناخو	17997
##جاج	17998
ههههههههااي	17999
ارض	18000
خبرداري	18001
ادع	18002
اجرائي	18003
جمالي	18004
##ane	18005
فوم	18006
افلاطون	18007
هههههههههههههههاي	18008
بندن	18009
گوتم	18010
سينگ	18011
وسڻ	18012
ٽيڪني	18013
ڳوڙهن	18014
##باط	18015
قابض	18016
گھرجن	18017
پنهنج	18018
مجال	18019
سهائتا	18020
فراق	18021
چهارم	18022
پليجو	18023
حسام	18024
ڏنم	18025
معاها	18026
اضرب	18027
##سٽريٽر	18028
حرك	18029
لاڳت	18030
مطالبا	18031
رحلت	18032
سٺيون	18033
پھر	18034
انڊس	18035
1996	18036
##ages	18037
لمحا	18038
کرده	18039
##ular	18040
وصيت	18041
##ersh	18042
طريقة	18043
جاچڻ	18044
short	18045
بلوٽو	18046
خورد	18047
بروح	18048
مدافع	18049
مئج	18050
سعوديه	18051
الجميع	18052
تحريرن	18053
450	18054
ــــــــــــــو	18055
ــــــــــــــل	18056
que	18057
blog	18058
##ogy	18059
تلاء	18060
سومرا	18061
بدنامي	18062
ڪليڪٽر	18063
ڊسپين	18064
شڪايتون	18065
بكره	18066
مٺائي	18067
ization	18068
وجهك	18069
بينڪننگ	18070
perfect	18071
گرامر	18072
شيلف	18073
اسڪيننگ	18074
خفيف	18075
السياره	18076
بيئرنگ	18077
وراڻيائين	18078
ترڪيبون	18079
گويي	18080
تماشو	18081
پيشنها	18082
اڇليو	18083
نُور	18084
جلسه	18085
water	18086
اشكال	18087
موافق	18088
اشياء	18089
عايز	18090
والاريل	18091
عائشه	18092
ذوالفقار	18093
الرحمان	18094
every	18095
multi	18096
مصلحت	18097
nexus	18098
المسكين	18099
تغذيه	18100
صندوق	18101
hal	18102
land	18103
list	18104
pass	18105
sem	18106
ts	18107
ty	18108
آفا	18109
أت	18110
ابل	18111
بڻي	18112
تفت	18113
جندي	18114
جئر	18115
جزن	18116
حور	18117
حاس	18118
داڻا	18119
زى	18120
ساڻي	18121
سهم	18122
سلها	18123
شوو	18124
شڪاري	18125
شکر	18126
طوري	18127
طفل	18128
ظل	18129
ظفر	18130
علوي	18131
عبارت	18132
ـو	18133
فقي	18134
فينا	18135
كنيد	18136
لڇ	18137
لڱ	18138
لحال	18139
نائيٽ	18140
نيرن	18141
نعيم	18142
هــــ	18143
يسم	18144
َڻ	18145
ٽرا	18146
ٽائن	18147
ڀرت	18148
ڄا	18149
ڄاتل	18150
چيا	18151
ڍور	18152
ڏاهي	18153
کائن	18154
ڪهي	18155
گستا	18156
ڳي	18157
##وڪ	18158
##واڻ	18159
##اھي	18160
##cy	18161
##خشيد	18162
##بيو	18163
##آك	18164
##pal	18165
##fa	18166
##داني	18167
##yc	18168
##ضت	18169
##zz	18170
##27	18171
جولائي	18172
##جيڪل	18173
اهڃاڻ	18174
بهانو	18175
نهارڻ	18176
##ابلي	18177
##ابول	18178
الْ	18179
موصول	18180
هيب	18181
هيستائين	18182
ڪيوسين	18183
معشوق	18184
ماادري	18185
ڪوهي	18186
بيب	18187
اوچي	18188
##هوڪار	18189
##رفع	18190
##گرد	18191
ماڻس	18192
گهرائڻ	18193
جنايت	18194
سرمد	18195
سرشتو	18196
ترن	18197
تركي	18198
مشاري	18199
لاٿ	18200
مقالو	18201
مقالا	18202
شاهوڪار	18203
##احبه	18204
پروت	18205
جونيئر	18206
ريشن	18207
ريشمي	18208
##شيءَ	18209
يوگنڊا	18210
جمعو	18211
تجري	18212
قيصر	18213
اسٽڊي	18214
نقطن	18215
پسڻ	18216
تقدر	18217
افراد	18218
هههههههههههههههـ	18219
##لاحيت	18220
اسڪرو	18221
بوءِ	18222
پڇت	18223
پڇندا	18224
##urs	18225
ٻارهين	18226
سوچين	18227
##ڊرنگ	18228
ننڍڙن	18229
المع	18230
اٿئون	18231
چارڻ	18232
ھيس	18233
ايرانسل	18234
##انوس	18235
الاع	18236
##ررر	18237
جڳائي	18238
##ely	18239
پيامك	18240
مطالعه	18241
كملي	18242
فلڪس	18243
ڏيکاريون	18244
ڪينيا	18245
ولك	18246
بتقول	18247
179	18248
لانك	18249
لانڊرنگ	18250
وليه	18251
رانديڪا	18252
##oun	18253
گرميء	18254
زبانن	18255
مراجع	18256
سنڀاليندڙ	18257
بدلجندڙ	18258
صدك	18259
هيڪرز	18260
1970ع	18261
پکيڙڻ	18262
روپين	18263
learn	18264
##سكري	18265
امينو	18266
اغاني	18267
بيلنس	18268
2014ع	18269
smart	18270
اتحادين	18271
##ینڈ	18272
وراثت	18273
ماعندي	18274
ڪچهريءَ	18275
ببخشيد	18276
اثاثا	18277
عادتون	18278
عارفه	18279
زلزلو	18280
casino	18281
منجھس	18282
جبتها	18283
##arius	18284
گيلري	18285
پيشواز	18286
شماريات	18287
السعوديه	18288
مباحثي	18289
اسئلة	18290
ٺھيل	18291
دكتور	18292
اقتصاديات	18293
gener	18294
ثنائي	18295
auto	18296
باصلاحيت	18297
mc	18298
sil	18299
tem	18300
آوي	18301
أختي	18302
إنت	18303
برين	18304
تث	18305
تات	18306
تفر	18307
تخل	18308
جـ	18309
جھن	18310
دز	18311
دبل	18312
شُ	18313
صع	18314
فريد	18315
كك	18316
لول	18317
لهندي	18318
مما	18319
هيات	18320
وهڻ	18321
يحت	18322
يكي	18323
ٻاھ	18324
ٻالڪ	18325
ٽما	18326
ٽولو	18327
پورن	18328
پطرس	18329
ڦِ	18330
کد	18331
کې	18332
ڪشي	18333
گھي	18334
ڳڻي	18335
ڳجهي	18336
ڻو	18337
ھان	18338
ھڻڻ	18339
##رڪي	18340
##عـ	18341
##ause	18342
##dd	18343
##of	18344
##بنا	18345
##سـ	18346
##pa	18347
##mi	18348
##هلي	18349
##حم	18350
##زوي	18351
##ُور	18352
##ېر	18353
##ٿين	18354
##ڳڻ	18355
انچي	18356
جوڻي	18357
##امج	18358
##ديده	18359
سانگهڙ	18360
ڪرش	18361
ايشن	18362
ايٿو	18363
الظاهر	18364
توڻي	18365
پرچار	18366
هيث	18367
جاک	18368
ماٿ	18369
روابط	18370
##انيزم	18371
##عيه	18372
وران	18373
جنن	18374
مرندو	18375
مربوط	18376
مرورك	18377
دوڪان	18378
گھوٽ	18379
##شيش	18380
##وليا	18381
وڏيرو	18382
لوز	18383
ناپ	18384
ناھن	18385
ارائه	18386
حالك	18387
##موت	18388
101	18389
102	18390
شوڪت	18391
خرج	18392
بنجڻ	18393
stand	18394
چارئي	18395
پهچن	18396
اڻا	18397
مصور	18398
ڊگھو	18399
نفعو	18400
128	18401
موڪليندڙ	18402
##ٽريشن	18403
سڃاتل	18404
رجحانن	18405
ٽوئي	18406
سنگتي	18407
سنگيت	18408
##كرك	18409
ويجھي	18410
واحدة	18411
##پرستي	18412
بجاء	18413
ولين	18414
العنو	18415
ديوارن	18416
چاچو	18417
سفارتي	18418
ڪالون	18419
وڪام	18420
عربستان	18421
فهرستن	18422
اٽڪ	18423
قدمي	18424
ويلز	18425
نڪرن	18426
پونديون	18427
سازگار	18428
صدقو	18429
نيڪالي	18430
she	18431
spot	18432
چانور	18433
اهلين	18434
edit	18435
موٽندي	18436
class	18437
ايڊيشنل	18438
ڀڳت	18439
تعجبكم	18440
تلاوت	18441
مھمان	18442
راسه	18443
سكسي	18444
رڪاوٽن	18445
manuf	18446
نبات	18447
بورچي	18448
مظاهرين	18449
fru	18450
عبراني	18451
ڳائڻي	18452
مئنيجمينٽ	18453
کُلي	18454
##ideي	18455
تأثير	18456
آڱريون	18457
نڀائي	18458
غيبت	18459
فرحت	18460
مرکز	18461
پروموشنل	18462
تطبي	18463
غلاميءَ	18464
ٽئڪس	18465
مؤمنن	18466
پوشاڪ	18467
اوپري	18468
ڊيزائين	18469
paypal	18470
المقطع	18471
سفارتخاني	18472
ييييييي	18473
ڪيٽيگري	18474
انسپيڪٽر	18475
مذھب	18476
ثالثي	18477
رسانه	18478
cnc	18479
چائنا	18480
الرياض	18481
دواسازي	18482
ريورس	18483
throughoutي	18484
آرڊيننس	18485
ديوتائن	18486
ناخوش	18487
2_	18488
bal	18489
dh	18490
den	18491
eg	18492
food	18493
kar	18494
look	18495
mesh	18496
sel	18497
site	18498
؟)	18499
إي	18500
بوري	18501
تامل	18502
تپي	18503
دبي	18504
دِل	18505
ذی	18506
ذبح	18507
ذرات	18508
رمان	18509
زاري	18510
عبي	18511
عـــ	18512
فھر	18513
كنا	18514
لى	18515
مٍ	18516
هبل	18517
وُ	18518
وكم	18519
يبارك	18520
٪)	18521
ٻہ	18522
چئه	18523
ڊاري	18524
ڊسٽر	18525
ڏڪڻ	18526
گاني	18527
یا	18528
۱۸	18529
##وى	18530
##900	18531
##ware	18532
##wiki	18533
##طم	18534
##ډيا	18535
سانگ	18536
الض	18537
المت	18538
العيد	18539
##داك	18540
جاك	18541
جاسوسي	18542
ڪوڙن	18543
ويڊ	18544
##ايتن	18545
گهٽيءَ	18546
##بيح	18547
##بيون	18548
سيارات	18549
##ٽيريا	18550
ملون	18551
سمسنگ	18552
فيديو	18553
درميان	18554
سرڪل	18555
ترم	18556
امو	18557
مشک	18558
##ويض	18559
ڊيش	18560
ٻڌندڙ	18561
تحصيلي	18562
##احي	18563
پارا	18564
تنظي	18565
##وريٽ	18566
خيبر	18567
ديهه	18568
107	18569
جانءِ	18570
##ative	18571
خرید	18572
اميگريشن	18573
مممم	18574
بهتره	18575
هُيو	18576
ـــــه	18577
خودرو	18578
123	18579
مُک	18580
نامياري	18581
جڳهيون	18582
تشكر	18583
مطالبي	18584
صوف	18585
پوريء	18586
سارة	18587
وشكرا	18588
خيره	18589
ايوة	18590
وفاء	18591
پُڄ	18592
ــــت	18593
لکيائين	18594
دانا	18595
دٻو	18596
##ents	18597
علامات	18598
مبين	18599
دارند	18600
حسابداري	18601
##ables	18602
زود	18603
مغز	18604
جامدة	18605
مسافرتي	18606
گولين	18607
ڏينديون	18608
مشكوره	18609
لينڪس	18610
sep	18611
جيئرا	18612
الجم	18613
user	18614
ڀڳل	18615
مٽجي	18616
يبقى	18617
ماحوليات	18618
پرستار	18619
ــــــــــل	18620
انسائيڪ	18621
صوبيدار	18622
پذيرش	18623
بشرط	18624
تعلقو	18625
اڀرندي	18626
ميراث	18627
##راهٽ	18628
شھرن	18629
خصوصيتن	18630
بلاشڪ	18631
چهره	18632
مقناطيس	18633
امسال	18634
چگونه	18635
مرتضيٰ	18636
because	18637
market	18638
قائداعظم	18639
ڌانڌلي	18640
النوم	18641
تنظيمي	18642
انسائيڪلو	18643
a2	18644
b2	18645
fer	18646
m2	18647
name	18648
sle	18649
turn	18650
yes	18651
،"	18652
إني	18653
بام	18654
تريد	18655
جک	18656
جمن	18657
ذره	18658
ذلت	18659
رڙي	18660
رباني	18661
زدن	18662
سڪا	18663
سلف	18664
صافي	18665
طاري	18666
طير	18667
طعم	18668
غب	18669
قن	18670
لءِ	18671
لقد	18672
نے	18673
ناتا	18674
پاند	18675
کره	18676
ڪڙو	18677
ڪڪرن	18678
گڻ	18679
گـــ	18680
ہیں	18681
##نع	18682
##sm	18683
##لون	18684
##بَ	18685
##po	18686
##جز	18687
##قك	18688
##ٽَ	18689
##شس	18690
##شف	18691
##شون	18692
##پيا	18693
##ying	18694
##غط	18695
##ّه	18696
##ڑي	18697
جيڏو	18698
جيمز	18699
##ينو	18700
##وندي	18701
اسڪا	18702
اسڪري	18703
اهلي	18704
السر	18705
هوي	18706
##هرب	18707
##راح	18708
واخ	18709
واد	18710
معز	18711
ماين	18712
ماحد	18713
بيست	18714
ويلا	18715
سوڊ	18716
سودي	18717
##برگ	18718
سيتا	18719
محسن	18720
هرڻ	18721
##درجه	18722
جنائي	18723
سرسب	18724
مشهو	18725
تعالو	18726
مسل	18727
ڪنڀار	18728
نوين	18729
هههههههههههههههههاي	18730
ٻڌندي	18731
احتم	18732
اصد	18733
پروين	18734
دنياوي	18735
ريون	18736
اُم	18737
آرامي	18738
عمان	18739
يوكن	18740
وناسه	18741
اجم	18742
بڻائيندي	18743
يادگاري	18744
پاڇي	18745
پريو	18746
فواز	18747
اتخيل	18748
109	18749
سيڪس	18750
سينڊ	18751
مخفف	18752
خدشو	18753
بالم	18754
stud	18755
ـــــو	18756
حلووه	18757
سچن	18758
سچائيءَ	18759
نيوزي	18760
any	18761
الاكل	18762
نامور	18763
پٽيو	18764
تخي	18765
اڪائونٽنگ	18766
وجهندو	18767
صوفين	18768
لوڊنگ	18769
يارڊ	18770
ايپليڪيشنز	18771
ولر	18772
176	18773
رانديڪن	18774
ايوي	18775
ربط	18776
غلطيءَ	18777
يمسك	18778
لبيا	18779
ناڪاري	18780
##خواهي	18781
واتان	18782
ڪيميا	18783
ــــــــا	18784
sha	18785
سيرامڪ	18786
انعامن	18787
هستن	18788
پکيڙي	18789
گلوڪوز	18790
ڪاوڙيل	18791
چُڪو	18792
چڙهيو	18793
انگيزه	18794
القصه	18795
بنگالي	18796
پوکيو	18797
پٺڀرائي	18798
ڪسڪس	18799
ڪارنامو	18800
برساتن	18801
ٺهرائي	18802
هڻندو	18803
هِڪ	18804
دانشگاه	18805
ٽرمينلز	18806
ھٿن	18807
واهپي	18808
ڪلوميٽرن	18809
مصيبتن	18810
بيوقوفي	18811
جهيڙي	18812
بوتلون	18813
ڊاک	18814
ٽپال	18815
mix	18816
انديشو	18817
تستاهل	18818
آڪسفورڊ	18819
جمالياتي	18820
خلصت	18821
دهليءَ	18822
##tok	18823
يابو	18824
نداريم	18825
اسٽرنگ	18826
ڦيرو	18827
گويم	18828
ذخيره	18829
پژو	18830
مڙيئي	18831
##ollow	18832
اسٽينڊنگ	18833
ٽالپر	18834
حداقل	18835
odm	18836
مصطفيٰ	18837
اقليتن	18838
آڳاٽي	18839
تخصصي	18840
ضعف	18841
مشابهت	18842
جغرافيائي	18843
چاکليٽ	18844
پروتئين	18845
جاکوڙ	18846
فھرست	18847
سرسبز	18848
[[	18849
around	18850
data	18851
pal	18852
sex	18853
tak	18854
vo	18855
؟:	18856
ؤن	18857
بائن	18858
بپر	18859
تــــ	18860
جـــــ	18861
جلوي	18862
حوي	18863
حفي	18864
خفت	18865
خلف	18866
رل	18867
ری	18868
رعيت	18869
سائڻ	18870
فلاس	18871
فاع	18872
كيو	18873
لٿي	18874
لڌي	18875
مائر	18876
مـــــ	18877
مرات	18878
مکان	18879
نسي	18880
نڪت	18881
نثري	18882
هقول	18883
وط	18884
وگهي	18885
يين	18886
يشن	18887
ٺهڪي	18888
ٽِ	18889
پاتي	18890
ڄڻو	18891
چٽس	18892
ڊرم	18893
ڌڻ	18894
ڏڪي	18895
ڏمر	18896
ڦڙ	18897
کجا	18898
##وض	18899
##وور	18900
##راء	18901
##95	18902
##la	18903
##ls	18904
##َـ	18905
##بز	18906
##كــ	18907
##قار	18908
##هد	18909
##ئِي	18910
##حافظ	18911
##صلي	18912
##غو	18913
##غن	18914
##र्	18915
##ريسر	18916
کيفيت	18917
انچارج	18918
##الك	18919
##ندگي	18920
ڪريل	18921
ايزي	18922
النس	18923
ياه	18924
##نيشيم	18925
هيئ	18926
منين	18927
منقول	18928
مانع	18929
پوان	18930
معاصر	18931
معالج	18932
ماف	18933
روزن	18934
ڪوي	18935
##انيت	18936
ڪمار	18937
اوجا	18938
##برري	18939
سيمينٽ	18940
##ٽيئر	18941
خواهه	18942
ملٽري	18943
سمائي	18944
براء	18945
برتري	18946
وقتها	18947
گهرون	18948
شيشه	18949
مرره	18950
مشڪوڪ	18951
لاج	18952
##يتك	18953
##بوا	18954
بسوي	18955
تموت	18956
مطرح	18957
دومين	18958
ازدو	18959
تحسين	18960
عليڪم	18961
ريه	18962
چوٽ	18963
تنين	18964
##ڪسن	18965
2011ع	18966
راعي	18967
ارڙهن	18968
سائيڊ	18969
رسيو	18970
يادت	18971
آنت	18972
فوڪس	18973
بدلايو	18974
103	18975
بوئ	18976
پڇيا	18977
بالن	18978
ster	18979
مجله	18980
مزدوري	18981
آفرين	18982
شعرن	18983
مصاحبه	18984
کاڄ	18985
ance	18986
##eter	18987
##سپال	18988
111	18989
رجال	18990
ذهنيت	18991
ٽرپ	18992
ٽرسٽ	18993
طبقه	18994
علماء	18995
ائتي	18996
ائبو	18997
اُنھيءَ	18998
حيراني	18999
پوريءَ	19000
سجايو	19001
##ابيطس	19002
اعتقاد	19003
منجهن	19004
سنڀار	19005
مفاهيم	19006
خواهم	19007
alread	19008
للتو	19009
للبيع	19010
بادشاه	19011
سورس	19012
ڳالھائڻ	19013
ويلن	19014
ويليو	19015
کوٽي	19016
پينٽ	19017
##ability	19018
نظريات	19019
1988ع	19020
سِڪ	19021
گزارشي	19022
پکيءَ	19023
غرق	19024
فرضن	19025
ڪائونٽي	19026
اگها	19027
الخبر	19028
أنتي	19029
1960ع	19030
use	19031
خونريزي	19032
ڪِري	19033
نارمل	19034
##یکٹ	19035
abs	19036
پروڊڪشن	19037
پوائنٽون	19038
اينڊريو	19039
طلبي	19040
سختيءَ	19041
شيرت	19042
دانشورن	19043
وڄائڻ	19044
پڄاڻان	19045
درجابندي	19046
افتتاحي	19047
ized	19048
ڏِس	19049
نعمتن	19050
ڀٽائيءَ	19051
ملائڪن	19052
آداب	19053
corros	19054
تبليغات	19055
serv	19056
احلامي	19057
پراگ	19058
ڪوهستان	19059
ترميمي	19060
واڳون	19061
children	19062
موافقت	19063
poly	19064
ٿامسن	19065
فرمانبردار	19066
زڪوات	19067
فاهمه	19068
مسجدن	19069
تحقیق	19070
ٺاهجي	19071
بيلجيم	19072
ڪوتاهي	19073
##پارڪر	19074
بربادي	19075
tiktok	19076
آفاقي	19077
هيثم	19078
manufact	19079
ذیابيطس	19080
already	19081
dom	19082
dog	19083
fo	19084
fin	19085
far	19086
ies	19087
pos	19088
ran	19089
ram	19090
si	19091
خيم	19092
رندڙ	19093
رائو	19094
سات	19095
سائل	19096
شمو	19097
ضيا	19098
فِ	19099
قليل	19100
قزاق	19101
لقي	19102
لارڊ	19103
نداشت	19104
هور	19105
هسٽ	19106
هينڊ	19107
يہ	19108
يابت	19109
يختي	19110
پورت	19111
څه	19112
ڇپي	19113
ڏهر	19114
کاڻ	19115
ڪب	19116
گـ	19117
گفٽ	19118
ڳائيندي	19119
ھتان	19120
ھُن	19121
ھُو	19122
##يين	19123
##sk	19124
##مَ	19125
##بيني	19126
##قط	19127
##ـك	19128
##ٽٽ	19129
##ڙيا	19130
##حيح	19131
##tage	19132
##ves	19133
##ux	19134
##ga	19135
##ھھ	19136
ڪرائين	19137
ٿيان	19138
ايپي	19139
توفيق	19140
ياعم	19141
پيرين	19142
مووي	19143
##ميڊيا	19144
پرزا	19145
پوٽو	19146
##اتما	19147
واث	19148
وايو	19149
واجهه	19150
بيگز	19151
ويهندو	19152
سواد	19153
سوڊيم	19154
اوچو	19155
گهُر	19156
هههههههههههههاي	19157
خواھ	19158
محرڪ	19159
ورڻ	19160
ورنه	19161
مرده	19162
ڪنارا	19163
##لامي	19164
##نايو	19165
تحر	19166
تحميل	19167
ڪارب	19168
پروپي	19169
رييس	19170
اُست	19171
ڇڏيل	19172
عمرو	19173
لکڻي	19174
ڪمپوز	19175
بلنگ	19176
بلندي	19177
گذران	19178
خيانت	19179
بڻجن	19180
داشتي	19181
رسالة	19182
پاڇا	19183
بينا	19184
فوجون	19185
فولاد	19186
بنده	19187
105	19188
وٺڻو	19189
خداحافظ	19190
بالك	19191
مٿيان	19192
مزا	19193
پهچندا	19194
اڻن	19195
شعبا	19196
مينڊيٽ	19197
شهزادو	19198
صنفن	19199
باره	19200
كلهن	19201
ٽيڪنالوجي	19202
محبتون	19203
##هارڻ	19204
اقدام	19205
مرڪندي	19206
کنڀ	19207
کننده	19208
لهجو	19209
##پرائز	19210
134	19211
يونيورسٽ	19212
اھڻ	19213
زيست	19214
وقفو	19215
##umb	19216
ــــو	19217
##شرتي	19218
فطر	19219
پڇيومانس	19220
مفڪر	19221
گمراهي	19222
##ould	19223
خواهد	19224
##َرِ	19225
وڪٽر	19226
سڃاڻان	19227
فيسبڪ	19228
قدام	19229
##ths	19230
کود	19231
سمجھه	19232
شوية	19233
بيوگرافي	19234
وڪيميڊيا	19235
ٻولھ	19236
سَڀ	19237
آفريدي	19238
ڪاليجن	19239
رسيده	19240
خاطره	19241
بغيت	19242
الجميل	19243
رُخ	19244
اگلا	19245
product	19246
نالاون	19247
عجبتك	19248
پڌرا	19249
قوتون	19250
مبارڪباد	19251
ڊزني	19252
دراز	19253
ترجيحن	19254
آڇون	19255
سومري	19256
باڪسر	19257
اصلاحي	19258
ثقافتن	19259
هستيءَ	19260
ندؤ	19261
اسڪواڊ	19262
جايگزين	19263
ديگران	19264
شاهين	19265
مـــا	19266
ڊاٽ	19267
معنائون	19268
رياضيات	19269
head	19270
نڀائڻ	19271
مڇيون	19272
بيچين	19273
ڀلائيءَ	19274
تضرب	19275
بيرل	19276
شهنش	19277
فرهنگ	19278
عيونك	19279
ڪوٺيو	19280
مشكلة	19281
چشمو	19282
تزعل	19283
منصفانه	19284
هٿياربندن	19285
pb027	19286
ثالث	19287
وڇوڙو	19288
زعلان	19289
سلنڈر	19290
ويکيپې	19291
فاضل	19292
امروٽي	19293
stillا	19294
چيمپئن	19295
ويکيپېډيا	19296
3g	19297
dd	19298
fu	19299
ger	19300
how	19301
jack	19302
pet	19303
vari	19304
آإ	19305
اڏو	19306
بندا	19307
تاپ	19308
تستهبل	19309
جڙڻ	19310
حِ	19311
حح	19312
خت	19313
خــ	19314
زاده	19315
[...]
