<unk>	0
<s>	0
</s>	0
▁ا	-0
هه	-1
▁ج	-2
▁م	-3
▁و	-4
▁ي	-5
▁ڪ	-6
▁ه	-7
▁ت	-8
▁س	-9
▁ن	-10
ان	-11
▁.	-12
▁آ	-13
▁جي	-14
▁پ	-15
هي	-16
▁ب	-17
ري	-18
▁هه	-19
▁ک	-20
▁ر	-21
هن	-22
▁ل	-23
▁،	-24
ين	-25
▁آهي	-26
ون	-27
▁هههه	-28
▁ٿ	-29
▁۾	-30
ار	-31
▁ان	-32
ئي	-33
▁کي	-34
يو	-35
▁۽	-36
▁د	-37
▁ع	-38
ال	-39
▁ش	-40
▁گ	-41
▁جو	-42
▁خ	-43
▁ف	-44
▁ح	-45
ور	-46
ند	-47
▁ته	-48
▁لا	-49
▁چ	-50
ــ	-51
▁اس	-52
▁ڏ	-53
نهن	-54
▁تي	-55
ائ	-56
▁ههه	-57
ام	-58
▁ق	-59
▁اه	-60
▁ڪري	-61
لي	-62
▁هڪ	-63
▁"	-64
▁ٻ	-65
ءِ	-66
يا	-67
▁ط	-68
▁ص	-69
▁کان	-70
▁ال	-71
▁ڪر	-72
▁سان	-73
▁نه	-74
▁هن	-75
▁ٿي	-76
▁اي	-77
▁:	-78
اڻ	-79
▁به	-80
▁يا	-81
▁هو	-82
▁تو	-83
دي	-84
▁ون	-85
▁1	-86
تي	-87
▁ز	-88
نهنج	-89
▁ٽ	-90
اب	-91
ير	-92
▁آهن	-93
دا	-94
▁ڇ	-95
▁وا	-96
▁ڪرڻ	-97
▁ٿو	-98
▁اسان	-99
▁ك	-100
▁ڊ	-101
▁ههههه	-102
▁اهو	-103
هان	-104
▁لاءِ	-105
رو	-106
▁2	-107
ءَ	-108
هر	-109
يڪ	-110
لا	-111
▁0	-112
▁ڪي	-113
▁ئي	-114
ني	-115
▁هي	-116
دو	-117
▁جا	-118
▁مو	-119
▁ري	-120
▁پر	-121
▁(	-122
▁سگ	-123
ول	-124
▁ين	-125
جي	-126
▁توهان	-127
▁پي	-128
ست	-129
▁-	-130
▁مان	-131
ڪي	-132
▁ڪيو	-133
▁مون	-134
▁؟	-135
▁ما	-136
▁ھ	-137
▁پنهنج	-138
▁ــ	-139
▁رو	-140
ڏهن	-141
▁وي	-142
▁نا	-143
▁پو	-144
▁ڳ	-145
را	-146
▁من	-147
مي	-148
▁)	-149
▁را	-150
▁ڪند	-151
▁ٿا	-152
سي	-153
▁ڀ	-154
▁ڪو	-155
قت	-156
▁مي	-157
▁ور	-158
قي	-159
▁وڌ	-160
ئن	-161
▁ڪم	-162
▁سو	-163
▁بي	-164
▁ض	-165
▁يو	-166
▁s	-167
▁ها	-168
▁او	-169
لو	-170
▁غ	-171
▁ڻ	-172
ھن	-173
ڪو	-174
▁ـ	-175
▁لاء	-176
رف	-177
▁رهي	-178
▁ويو	-179
▁ذ	-180
▁ات	-181
ھي	-182
▁انهن	-183
ڙي	-184
▁طور	-185
▁ار	-186
▁ءَ	-187
▁است	-188
▁!	-189
▁ڪا	-190
▁يڪ	-191
▁خو	-192
▁سڀ	-193
اد	-194
▁مع	-195
▁وڃ	-196
شن	-197
ورت	-198
▁3	-199
▁گه	-200
▁لي	-201
هو	-202
▁ائ	-203
ائين	-204
اص	-205
ها	-206
بر	-207
▁مال	-208
▁ئ	-209
رين	-210
له	-211
▁ڇا	-212
ٽر	-213
ائي	-214
▁9	-215
▁ڏين	-216
▁هر	-217
▁شا	-218
▁سم	-219
▁سي	-220
اري	-221
▁وين	-222
ڏي	-223
▁مح	-224
ٽي	-225
▁ني	-226
مل	-227
▁جن	-228
▁ماڻ	-229
▁در	-230
▁في	-231
▁وقت	-232
ـــ	-233
▁وڌيڪ	-234
▁مل	-235
گر	-236
▁تع	-237
بي	-238
▁5	-239
در	-240
کي	-241
▁ڪج	-242
▁منهنج	-243
▁بر	-244
▁هون	-245
▁i	-246
▁وار	-247
▁گهر	-248
مت	-249
جو	-250
از	-251
▁سال	-252
اني	-253
▁e	-254
اڻي	-255
▁4	-256
▁ڪار	-257
ڪا	-258
▁ام	-259
▁اهي	-260
▁نگ	-261
▁,	-262
▁اين	-263
▁اڳ	-264
▁تر	-265
▁ڏي	-266
▁سند	-267
▁آھي	-268
▁استع	-269
▁سن	-270
▁t	-271
▁جنهن	-272
▁نو	-273
▁ـــــ	-274
▁ڪئي	-275
▁ٺ	-276
▁شي	-277
▁ِ	-278
▁مر	-279
چي	-280
▁سا	-281
سم	-282
▁نظ	-283
ڻي	-284
▁هئي	-285
▁ڳال	-286
گي	-287
▁تائين	-288
▁جيڪو	-289
▁واري	-290
▁پا	-291
▁ٽي	-292
▁ڪنهن	-293
▁پوءِ	-294
▁مش	-295
▁ڌ	-296
▁مس	-297
صو	-298
سٽ	-299
▁ائي	-300
▁8	-301
▁ڊي	-302
▁c	-303
▁ڪريو	-304
▁ڪجهه	-305
▁عل	-306
▁اها	-307
▁6	-308
ڙو	-309
▁با	-310
▁a	-311
خت	-312
▁چيو	-313
▁ڪن	-314
▁ٿين	-315
فت	-316
▁جڏهن	-317
▁7	-318
▁سگهي	-319
▁ڏينهن	-320
نيا	-321
▁بس	-322
▁دو	-323
▁يل	-324
▁گڏ	-325
▁وڃي	-326
▁جيڪي	-327
نگ	-328
اصل	-329
في	-330
نا	-331
▁ُ	-332
▁رک	-333
يت	-334
ڪر	-335
▁ڄ	-336
عي	-337
▁n	-338
▁از	-339
▁تم	-340
▁َ	-341
▁سر	-342
▁يت	-343
▁حاصل	-344
ئين	-345
لام	-346
▁لڳ	-347
▁ضر	-348
اهي	-349
▁ست	-350
▁اع	-351
▁يند	-352
جود	-353
بو	-354
▁سندس	-355
▁وٽ	-356
ئر	-357
▁لو	-358
▁يڪڏهن	-359
▁ڪيت	-360
▁يم	-361
▁ٻڌ	-362
يد	-363
ثر	-364
▁علي	-365
▁هم	-366
▁مق	-367
▁پاڻ	-368
▁هئ	-369
الي	-370
▁شرو	-371
▁الله	-372
ما	-373
▁شروع	-374
▁تمام	-375
▁وٺ	-376
ڪل	-377
اه	-378
▁اص	-379
ڪن	-380
▁تح	-381
▁باب	-382
اا	-383
ٿي	-384
سان	-385
▁ڏس	-386
▁ناهي	-387
▁أ	-388
▁په	-389
▁فر	-390
▁گھ	-391
▁'	-392
ات	-393
▁ة	-394
▁يون	-395
▁دنيا	-396
▁ڇو	-397
▁l	-398
فر	-399
▁دا	-400
رح	-401
▁مط	-402
▁زند	-403
▁دل	-404
▁d	-405
▁صح	-406
▁ٿيو	-407
▁رهيو	-408
ءُ	-409
▁o	-410
▁تون	-411
▁عم	-412
▁عام	-413
▁مري	-414
دار	-415
لم	-416
▁چي	-417
▁/	-418
▁ڇڏ	-419
▁ماڻهو	-420
▁جون	-421
▁تب	-422
▁وئي	-423
بل	-424
ئون	-425
▁نن	-426
▁پن	-427
▁مخت	-428
▁۔	-429
▁وز	-430
▁پڻ	-431
▁m	-432
▁نظر	-433
▁نم	-434
▁وڏي	-435
ڻو	-436
▁زم	-437
▁ضرورت	-438
تو	-439
▁شام	-440
▁دور	-441
▁يع	-442
اهر	-443
▁انهي	-444
▁ڏان	-445
نو	-446
هم	-447
▁ويندو	-448
▁r	-449
ھان	-450
▁>	-451
▁مت	-452
▁قو	-453
▁سب	-454
▁عمل	-455
▁مد	-456
▁اُ	-457
▁صرف	-458
▁اچي	-459
▁خاص	-460
▁ويا	-461
▁ڪندا	-462
▁وڏ	-463
▁پيش	-464
▁زندگي	-465
▁ڙ	-466
▁ظ	-467
▁ٿيڻ	-468
▁ڪڏهن	-469
لف	-470
▁چون	-471
عد	-472
▁طرف	-473
▁نس	-474
▁ٻي	-475
▁طري	-476
▁ڪت	-477
▁ث	-478
▁وال	-479
▁S	-480
▁نق	-481
اح	-482
▁چو	-483
▁هئا	-484
▁ڪيئن	-485
▁بل	-486
▁A	-487
▁اڻ	-488
▁سمج	-489
▁p	-490
بت	-491
▁سين	-492
▁<	-493
▁خت	-494
▁ڪندو	-495
▁اح	-496
▁ند	-497
▁لک	-498
▁پار	-499
▁بابت	-500
لب	-501
▁سڀني	-502
▁جيئن	-503
▁ماڻهن	-504
با	-505
ڪار	-506
ٺو	-507
▁غير	-508
▁رس	-509
▁ڏانهن	-510
عو	-511
▁طرح	-512
▁ڪه	-513
▁بند	-514
▁خي	-515
▁قسم	-516
▁شامل	-517
▁گهٽ	-518
▁آخ	-519
▁قي	-520
زي	-521
▁صورت	-522
▁سنڌ	-523
▁ٻئي	-524
▁دار	-525
▁وري	-526
▁ندا	-527
▁_	-528
▁جه	-529
▁ايم	-530
▁مختلف	-531
▁آر	-532
▁يعني	-533
▁ٽر	-534
اف	-535
▁اد	-536
▁ول	-537
▁ٻار	-538
▁ياد	-539
▁اڄ	-540
▁شو	-541
سو	-542
▁وارو	-543
▁گر	-544
فا	-545
▁هت	-546
▁آهيان	-547
▁وان	-548
ائڻ	-549
▁مڪ	-550
▁مث	-551
▁رهيا	-552
صي	-553
▁تنهن	-554
▁نال	-555
▁واق	-556
▁خبر	-557
▁ڳالهه	-558
▁اسٽ	-559
▁حقي	-560
▁هوندي	-561
▁نت	-562
▁اندر	-563
▁ڪندي	-564
▁اب	-565
ڪس	-566
▁ڏيڻ	-567
تر	-568
▁تن	-569
ھو	-570
▁بڻ	-571
▁پيو	-572
▁حال	-573
▁فو	-574
▁گهرجي	-575
اس	-576
▁وچ	-577
▁هل	-578
▁اڪ	-579
▁بين	-580
لس	-581
▁بعد	-582
▁ڪتاب	-583
▁پس	-584
▁هيٺ	-585
▁ايس	-586
▁هوندو	-587
▁اپ	-588
▁آئون	-589
▁ڪندڙ	-590
▁چاهي	-591
▁واپ	-592
▁تاري	-593
▁يس	-594
▁ٻن	-595
▁آهيون	-596
▁جيڪا	-597
▁پڙ	-598
▁سبب	-599
▁مدد	-600
▁ذري	-601
▁in	-602
▁هري	-603
▁سيا	-604
هند	-605
▁ٻين	-606
▁C	-607
▁تاريخ	-608
▁ادا	-609
ھنج	-610
▁تج	-611
▁خر	-612
▁كم	-613
زا	-614
▁مڪمل	-615
▁موجود	-616
▁عورت	-617
▁=	-618
▁ڳو	-619
▁ھڪ	-620
▁اچ	-621
▁خوش	-622
▁کيس	-623
▁پاڪ	-624
▁شهر	-625
▁اج	-626
▁ٿيل	-627
▁بو	-628
▁ير	-629
▁اتي	-630
وا	-631
▁حس	-632
▁نئين	-633
▁نالو	-634
▁ڪمپ	-635
▁گذ	-636
▁انا	-637
▁خلا	-638
▁مم	-639
▁يه	-640
▁b	-641
▁اهم	-642
فظ	-643
▁ملڪ	-644
▁گهڻو	-645
ديل	-646
نڊ	-647
▁جواب	-648
مد	-649
نس	-650
▁سگه	-651
▁اخ	-652
▁يق	-653
▁هتي	-654
ٽا	-655
▁پور	-656
▁هاڻي	-657
▁ڪمپني	-658
▁پهرين	-659
▁تبديل	-660
▁تق	-661
▁؛	-662
▁ختم	-663
ذا	-664
هڻ	-665
▁قاب	-666
▁دوست	-667
▁M	-668
▁ڪل	-669
▁گي	-670
▁حق	-671
▁يور	-672
▁آن	-673
▁P	-674
▁er	-675
▁f	-676
ندي	-677
▁رد	-678
▁شر	-679
▁ائيٽ	-680
▁تنهنج	-681
طي	-682
▁اڃ	-683
ايو	-684
▁آھن	-685
▁دي	-686
▁سگهو	-687
▁ٿيندو	-688
on	-689
رن	-690
▁خيال	-691
▁شايد	-692
ڳو	-693
شت	-694
▁مسئ	-695
جب	-696
▁سالن	-697
شش	-698
▁u	-699
يان	-700
▁سلام	-701
▁ڇڏيو	-702
▁نٽ	-703
▁فار	-704
▁پيدا	-705
▁ڏا	-706
ar	-707
▁ائين	-708
صر	-709
است	-710
▁عر	-711
▁ڦ	-712
▁ڪون	-713
▁فون	-714
▁چين	-715
▁نيا	-716
▁ڏئي	-717
▁وڏو	-718
▁ٿئي	-719
ڪري	-720
اج	-721
امي	-722
▁ولا	-723
▁فائ	-724
▁ڇڏي	-725
▁T	-726
حد	-727
▁هٿ	-728
▁ی	-729
▁انت	-730
لاح	-731
▁بد	-732
▁ويب	-733
▁اهڙي	-734
دم	-735
شه	-736
▁قر	-737
▁نٿ	-738
▁سوا	-739
▁عليه	-740
▁وو	-741
▁چونڊ	-742
▁قان	-743
▁ڏنو	-744
ضو	-745
دڙ	-746
زار	-747
▁هترين	-748
▁ااا	-749
يم	-750
▁ڪوشش	-751
▁قانون	-752
▁پوء	-753
▁مض	-754
يح	-755
▁*	-756
▁سيڪ	-757
ارت	-758
▁مطلب	-759
▁آيو	-760
ليم	-761
▁قيمت	-762
▁ويندي	-763
▁پري	-764
▁g	-765
▁هجي	-766
▁طريق	-767
▁ايپ	-768
▁اف	-769
روري	-770
▁خدا	-771
▁رات	-772
▁وٺي	-773
▁ٻه	-774
▁اوهان	-775
er	-776
▁ٻيو	-777
▁معي	-778
▁گھر	-779
▁سوال	-780
▁10	-781
▁نش	-782
▁ران	-783
▁پئي	-784
▁مين	-785
لوم	-786
▁امي	-787
▁اري	-788
▁مهي	-789
▁ء	-790
▁st	-791
▁حل	-792
▁آئي	-793
اڪ	-794
▁وانگر	-795
يل	-796
▁آهيو	-797
▁ٽيڪ	-798
▁ملي	-799
▁پڇ	-800
هور	-801
▁انسان	-802
خل	-803
▁ذريعي	-804
▁غل	-805
▁اصل	-806
حك	-807
▁خط	-808
▁B	-809
▁شك	-810
▁وس	-811
▁رج	-812
▁پاڪست	-813
▁نج	-814
▁صحيح	-815
سوس	-816
▁ترقي	-817
▁معلوم	-818
▁يقين	-819
▁يڊ	-820
▁فق	-821
▁ڪيا	-822
وب	-823
▁توھان	-824
▁يان	-825
▁عال	-826
▁حقيقت	-827
ٽو	-828
▁لفظ	-829
مو	-830
ٺي	-831
▁هج	-832
ڪيٽ	-833
▁عمر	-834
ندڙ	-835
▁ڪيل	-836
▁پرو	-837
▁هنن	-838
▁صف	-839
▁يد	-840
تا	-841
▁ڪيترا	-842
صل	-843
▁رکي	-844
▁ڄاڻ	-845
▁قدر	-846
اجي	-847
▁بح	-848
▁[	-849
▁اک	-850
عا	-851
من	-852
▁سفر	-853
▁علا	-854
▁اوھان	-855
ڊيو	-856
▁جاري	-857
▁ڏسي	-858
▁ولي	-859
▁ختي	-860
▁وجود	-861
▁والله	-862
▁اثر	-863
▁اول	-864
▁ظاهر	-865
▁اڃا	-866
▁ارڪيٽ	-867
▁يار	-868
▁ننڍ	-869
▁دوران	-870
▁سوچ	-871
▁حڪو	-872
▁وائ	-873
▁ـــ	-874
▁تصو	-875
▁ڳالها	-876
▁پسند	-877
▁هاي	-878
▁كل	-879
▁پير	-880
▁حڪومت	-881
▁صاح	-882
or	-883
ريب	-884
▁شخ	-885
▁سپ	-886
▁ضروري	-887
▁فرا	-888
▁ڪيترن	-889
ضي	-890
▁تصوير	-891
▁ٻاهر	-892
▁D	-893
▁حڪ	-894
▁صاحب	-895
▁لڳي	-896
▁ئين	-897
جه	-898
▁جل	-899
▁I	-900
▁مٿ	-901
▁راند	-902
▁مريڪا	-903
▁مخ	-904
▁مواد	-905
ورٽ	-906
▁پٽ	-907
ڙا	-908
▁رهن	-909
▁ى	-910
▁جتي	-911
▁گو	-912
▁حصو	-913
▁نهي	-914
▁علائ	-915
▁علائق	-916
ريل	-917
▁ھن	-918
▁بهتر	-919
▁سڄ	-920
پي	-921
▁اسڪ	-922
▁سندن	-923
ران	-924
▁رق	-925
▁تص	-926
▁اند	-927
▁حو	-928
▁عن	-929
فو	-930
▁نتظ	-931
▁وق	-932
▁اني	-933
▁ختيار	-934
▁ڏسڻ	-935
▁خري	-936
in	-937
▁اسين	-938
ڙه	-939
▁]	-940
▁ڀر	-941
▁هريون	-942
▁جان	-943
صد	-944
▁بال	-945
▁هُ	-946
▁ڊيٽا	-947
▁محسوس	-948
▁اٿ	-949
▁ٺاهي	-950
▁ڪجھ	-951
▁يٽ	-952
▁هين	-953
▁صلاح	-954
▁موضو	-955
▁آسان	-956
▁مٿي	-957
▁هوندا	-958
رت	-959
▁چار	-960
▁عو	-961
▁آخر	-962
کار	-963
▁بيان	-964
▁موضوع	-965
▁خلاف	-966
▁اا	-967
▁يدا	-968
▁على	-969
لق	-970
▁نتي	-971
▁پاڻي	-972
ارف	-973
▁اھو	-974
▁وڪ	-975
ائو	-976
▁ڏني	-977
▁فارم	-978
▁زمين	-979
▁ٿيون	-980
▁حد	-981
▁معيار	-982
▁مثال	-983
▁بچ	-984
▁ڏک	-985
▁ساڳ	-986
▁مج	-987
▁پنھنج	-988
▁w	-989
▁چه	-990
▁اش	-991
▁ٿيندي	-992
ظيم	-993
▁ليڪ	-994
▁دف	-995
▁سام	-996
▁رڳو	-997
▁طرفان	-998
▁تعليم	-999
▁حالت	-1000
▁نداز	-1001
▁وارا	-1002
▁ڪاروب	-1003
▁h	-1004
▁منظ	-1005
▁رنگ	-1006
▁شع	-1007
▁يءَ	-1008
▁وسي	-1009
▁رکڻ	-1010
▁دست	-1011
▁پيار	-1012
▁سگهجي	-1013
ولي	-1014
▁ڊائ	-1015
▁لائن	-1016
كم	-1017
▁داخل	-1018
▁آز	-1019
▁خود	-1020
▁تجر	-1021
▁حلو	-1022
▁شخص	-1023
▁مشهور	-1024
▁آب	-1025
▁هوءَ	-1026
▁يشن	-1027
نت	-1028
▁ايپل	-1029
▁يداوا	-1030
سر	-1031
▁H	-1032
▁قوم	-1033
▁ندي	-1034
▁ٺاه	-1035
▁الي	-1036
▁همي	-1037
▁مار	-1038
▁اسپ	-1039
▁قب	-1040
▁سون	-1041
▁ضحك	-1042
▁مقصد	-1043
▁G	-1044
▁نف	-1045
▁پون	-1046
▁تيار	-1047
▁سط	-1048
▁واپس	-1049
▁نهيءَ	-1050
ڪاڻ	-1051
▁ڏاڍ	-1052
بان	-1053
▁ميا	-1054
▁ڀير	-1055
▁N	-1056
▁مرد	-1057
▁ايران	-1058
▁صن	-1059
▁ڇاڪاڻ	-1060
▁ورس	-1061
قل	-1062
▁عد	-1063
▁نظام	-1064
▁وڃڻ	-1065
▁y	-1066
▁نيو	-1067
به	-1068
ڊي	-1069
▁قابل	-1070
▁لين	-1071
▁تا	-1072
سٽم	-1073
▁ing	-1074
ڏھن	-1075
سپ	-1076
▁L	-1077
▁اعلي	-1078
▁لس	-1079
▁لاز	-1080
ندو	-1081
▁مز	-1082
اتي	-1083
▁ندو	-1084
▁مونکي	-1085
▁شه	-1086
▁هذا	-1087
▁تان	-1088
عت	-1089
▁هميشه	-1090
▁ٻنهي	-1091
▁ڏيو	-1092
▁اجاز	-1093
▁چوڻ	-1094
انه	-1095
▁مص	-1096
▁راب	-1097
▁ابو	-1098
▁يندو	-1099
▁شاع	-1100
▁خد	-1101
▁سک	-1102
▁سائ	-1103
▁قدم	-1104
▁توکي	-1105
▁جنگ	-1106
▁اجازت	-1107
▁فراهم	-1108
▁v	-1109
▁پئ	-1110
▁علم	-1111
▁عي	-1112
▁يندا	-1113
جن	-1114
▁جم	-1115
▁جر	-1116
▁ڪير	-1117
▁اميد	-1118
▁ايو	-1119
▁سلم	-1120
كن	-1121
▁مذ	-1122
▁آو	-1123
▁خوب	-1124
▁ڏيکار	-1125
▁رپ	-1126
▁نام	-1127
▁راه	-1128
▁نيادي	-1129
ائم	-1130
اپ	-1131
▁آيا	-1132
▁ره	-1133
▁حت	-1134
▁لم	-1135
ڊيا	-1136
ليل	-1137
▁سٺو	-1138
▁ڏٺو	-1139
▁k	-1140
▁سواءِ	-1141
وي	-1142
▁تعلق	-1143
زن	-1144
▁ھو	-1145
▁صفح	-1146
▁توڻ	-1147
▁آء	-1148
▁ڄڻ	-1149
▁وگر	-1150
▁te	-1151
▁توڻيڪ	-1152
▁نٿو	-1153
▁سلامي	-1154
▁تف	-1155
بار	-1156
انس	-1157
قيق	-1158
▁له	-1159
▁باري	-1160
▁روز	-1161
▁سٽ	-1162
▁تحقيق	-1163
▁انگ	-1164
▁اك	-1165
▁محفو	-1166
▁سگھ	-1167
▁آس	-1168
▁محفوظ	-1169
▁ڪونه	-1170
مبر	-1171
▁ہ	-1172
▁حڪم	-1173
▁ٽيڪن	-1174
▁احس	-1175
▁ڪلا	-1176
▁اگر	-1177
▁حيا	-1178
▁قائم	-1179
▁اڻي	-1180
▁اق	-1181
▁رح	-1182
▁th	-1183
▁حض	-1184
اسب	-1185
▁بار	-1186
▁آواز	-1187
▁مناسب	-1188
صوص	-1189
▁بت	-1190
▁طريقي	-1191
▁وگرام	-1192
يند	-1193
▁نئون	-1194
داد	-1195
▁ايت	-1196
▁ايڪس	-1197
▁واقعي	-1198
▁وش	-1199
لن	-1200
▁قت	-1201
▁يڪي	-1202
re	-1203
▁ھي	-1204
▁کڻي	-1205
▁شادي	-1206
▁مه	-1207
▁خدمت	-1208
▁رب	-1209
▁موق	-1210
▁رڪ	-1211
▁شيء	-1212
en	-1213
ڌو	-1214
▁محبت	-1215
ur	-1216
▁شين	-1217
▁ايل	-1218
شان	-1219
▁حي	-1220
▁طال	-1221
▁وزير	-1222
▁ڳول	-1223
▁خريد	-1224
▁ڊو	-1225
▁گرا	-1226
▁ممڪن	-1227
وري	-1228
▁هجڻ	-1229
▁عا	-1230
▁يست	-1231
▁نالي	-1232
ٽل	-1233
ابق	-1234
▁اسڪول	-1235
▁ويندا	-1236
▁سچ	-1237
▁آخري	-1238
▁سخت	-1239
▁نفس	-1240
▁صب	-1241
▁مطابق	-1242
▁E	-1243
▁رم	-1244
▁هيو	-1245
▁يائين	-1246
▁اڪثر	-1247
▁بنيا	-1248
مير	-1249
▁مهر	-1250
la	-1251
كر	-1252
▁خراب	-1253
▁بنياد	-1254
▁al	-1255
▁هچ	-1256
▁صحت	-1257
▁سگھي	-1258
▁بلا	-1259
▁خواست	-1260
▁ڀا	-1261
وه	-1262
▁R	-1263
لان	-1264
▁سرو	-1265
▁جسم	-1266
▁سه	-1267
▁اھ	-1268
▁آزاد	-1269
▁آه	-1270
▁يڪيشن	-1271
▁وب	-1272
▁روح	-1273
▁خان	-1274
ڻڻ	-1275
▁سڏ	-1276
▁موڪل	-1277
▁گهڻي	-1278
▁واحد	-1279
▁le	-1280
▁وارن	-1281
▁گري	-1282
▁سيڪڙو	-1283
▁پيا	-1284
▁اط	-1285
▁لکي	-1286
▁F	-1287
▁وڊيو	-1288
▁نمون	-1289
▁ٻارن	-1290
▁ميل	-1291
▁منهن	-1292
▁to	-1293
▁چڪو	-1294
▁جڳ	-1295
▁چڱ	-1296
▁ڊاڪ	-1297
▁آهين	-1298
انا	-1299
▁مفت	-1300
▁ٻيهر	-1301
▁طا	-1302
▁ڪمي	-1303
▁W	-1304
ديد	-1305
▁ڪپ	-1306
ڊر	-1307
▁گرو	-1308
▁آف	-1309
▁رت	-1310
▁سڄي	-1311
▁ڪٿي	-1312
▁سڃ	-1313
▁فقط	-1314
▁ٿيا	-1315
▁سائين	-1316
▁رياست	-1317
▁شد	-1318
▁سڪ	-1319
▁آفي	-1320
art	-1321
▁منت	-1322
▁اچڻ	-1323
▁وڪي	-1324
▁باقي	-1325
▁سطح	-1326
▁فت	-1327
▁که	-1328
▁ڪيس	-1329
▁ڊاڪٽر	-1330
جوا	-1331
▁نقص	-1332
▁اض	-1333
▁جهڙو	-1334
▁پولي	-1335
▁فيص	-1336
▁فيصلو	-1337
▁پارٽي	-1338
ra	-1339
▁20	-1340
▁تخ	-1341
▁بغ	-1342
▁ِي	-1343
▁رست	-1344
▁سياسي	-1345
▁ٽو	-1346
ائش	-1347
▁سگهن	-1348
▁ڪافي	-1349
▁پاران	-1350
گل	-1351
▁اڳو	-1352
▁ذهن	-1353
يوا	-1354
▁مير	-1355
▁نوجوا	-1356
▁ٻڌايو	-1357
▁مرڪ	-1358
▁رن	-1359
▁غلط	-1360
▁روم	-1361
▁يندي	-1362
ڪٽ	-1363
▁مُ	-1364
▁يز	-1365
▁عالمي	-1366
▁ڪڍ	-1367
▁ايه	-1368
لع	-1369
▁موت	-1370
▁مريڪي	-1371
▁ڳالهي	-1372
ڪت	-1373
▁بن	-1374
ريڪ	-1375
▁اڳتي	-1376
قا	-1377
▁ورتو	-1378
▁يوني	-1379
▁فع	-1380
▁ئن	-1381
▁زين	-1382
▁پل	-1383
يي	-1384
▁برا	-1385
▁ڌر	-1386
▁ڪهڙي	-1387
ڌي	-1388
▁ڪهاڻي	-1389
▁عت	-1390
مون	-1391
▁إ	-1392
▁سگهند	-1393
▁آءٌ	-1394
▁تس	-1395
▁تيز	-1396
▁ڏسو	-1397
▁کول	-1398
▁نقصان	-1399
ميت	-1400
▁پاس	-1401
▁جديد	-1402
▁ڳوٺ	-1403
▁ايندڙ	-1404
نل	-1405
▁ملڪن	-1406
▁وڙ	-1407
▁انج	-1408
▁ميڊيا	-1409
▁شيون	-1410
▁رپورٽ	-1411
st	-1412
حال	-1413
▁ده	-1414
▁لن	-1415
▁ئون	-1416
▁تاز	-1417
▁دلچ	-1418
▁بخ	-1419
زل	-1420
▁ڙي	-1421
▁دلچسپ	-1422
▁پڪ	-1423
▁ڀي	-1424
▁قا	-1425
▁هند	-1426
▁يندڙ	-1427
ro	-1428
▁لسلام	-1429
▁تڪ	-1430
▁رفت	-1431
▁اِ	-1432
▁پنج	-1433
▁روش	-1434
▁اڪائو	-1435
▁يش	-1436
▁ايڊ	-1437
▁گا	-1438
▁دير	-1439
▁ذاتي	-1440
وو	-1441
تيب	-1442
▁کين	-1443
▁وج	-1444
▁ضرور	-1445
▁مهربا	-1446
▁ترتيب	-1447
▁انه	-1448
▁يلي	-1449
▁O	-1450
▁پوليس	-1451
▁co	-1452
▁صدر	-1453
▁چاهيو	-1454
انگ	-1455
▁مشين	-1456
▁نوٽ	-1457
▁رٽ	-1458
▁فلم	-1459
▁ڪردار	-1460
▁خير	-1461
ڊل	-1462
اي	-1463
▁رسي	-1464
▁ّ	-1465
▁الاجي	-1466
▁اعلان	-1467
▁ترين	-1468
▁نر	-1469
▁رھ	-1470
▁لك	-1471
▁کا	-1472
▁جوڙ	-1473
▁يني	-1474
▁مضمون	-1475
▁مسا	-1476
▁پلي	-1477
▁لائ	-1478
le	-1479
▁گل	-1480
▁مرح	-1481
▁نمبر	-1482
▁جدا	-1483
▁حقيقي	-1484
▁واض	-1485
▁ستان	-1486
▁مسئلو	-1487
رر	-1488
▁انھن	-1489
▁تڏهن	-1490
▁ايئر	-1491
▁سسٽم	-1492
▁اسلام	-1493
▁ندڙ	-1494
▁ڍ	-1495
▁منٽ	-1496
▁طاقت	-1497
▁بڻجي	-1498
▁ڪيون	-1499
▁عرف	-1500
▁حير	-1501
▁لاڳ	-1502
▁هاڻ	-1503
▁گهڻ	-1504
▁رائي	-1505
هيل	-1506
▁حر	-1507
▁گڏي	-1508
ندا	-1509
▁عب	-1510
هار	-1511
▁سنڌي	-1512
▁ڊگ	-1513
▁وض	-1514
▁لح	-1515
▁قول	-1516
رول	-1517
▁نقل	-1518
ارو	-1519
▁ٽن	-1520
▁گوگل	-1521
▁نصو	-1522
▁سلس	-1523
▁نساني	-1524
▁گفت	-1525
▁عورتن	-1526
▁صبح	-1527
▁ٿور	-1528
▁ڏنل	-1529
▁مذه	-1530
▁ماءُ	-1531
nd	-1532
▁ٽيم	-1533
▁سامان	-1534
▁بنا	-1535
▁دش	-1536
▁آباد	-1537
▁ti	-1538
ڊو	-1539
▁تعمير	-1540
▁طريقو	-1541
▁ماح	-1542
▁وڃن	-1543
ڪان	-1544
▁ڳن	-1545
ديق	-1546
▁چئي	-1547
▁ڌار	-1548
▁سُ	-1549
▁ڪجي	-1550
▁ورسٽي	-1551
▁ڪش	-1552
▁ريا	-1553
زائ	-1554
▁عوام	-1555
▁چر	-1556
▁واپار	-1557
▁حضرت	-1558
نٽ	-1559
▁احساس	-1560
▁سماجي	-1561
▁قبول	-1562
▁ٺاهڻ	-1563
▁سٺي	-1564
▁حفا	-1565
▁پيغ	-1566
▁لڳو	-1567
▁سائنس	-1568
▁ماحول	-1569
▁ڪس	-1570
▁حفاظ	-1571
▁مقرر	-1572
الت	-1573
▁ed	-1574
▁ود	-1575
▁ائل	-1576
▁تقريب	-1577
▁ڪيتري	-1578
▁دري	-1579
▁پورو	-1580
ستي	-1581
ٽري	-1582
▁سمجھ	-1583
at	-1584
et	-1585
▁ريس	-1586
▁وٺڻ	-1587
▁حفاظت	-1588
an	-1589
▁•	-1590
▁لوڊ	-1591
▁اصلي	-1592
▁گذريل	-1593
▁شاء	-1594
ظم	-1595
▁en	-1596
▁معني	-1597
▁پاسي	-1598
▁سروس	-1599
▁ترج	-1600
ــــ	-1601
▁جها	-1602
▁صنعت	-1603
▁نين	-1604
▁رهڻ	-1605
▁لاڳاپ	-1606
▁جاءِ	-1607
▁علاج	-1608
▁قط	-1609
▁جمع	-1610
▁قومي	-1611
▁پوري	-1612
▁جذ	-1613
▁سار	-1614
▁فرق	-1615
▁بلڪل	-1616
ow	-1617
▁داري	-1618
▁يستائ	-1619
▁واضح	-1620
▁يك	-1621
▁حصي	-1622
▁طب	-1623
▁باز	-1624
▁نور	-1625
▁صارف	-1626
▁پوندو	-1627
▁صاف	-1628
▁ملا	-1629
▁وڌي	-1630
▁start	-1631
▁ئڻ	-1632
فٽ	-1633
مان	-1634
▁15	-1635
▁اندان	-1636
▁ڪرا	-1637
▁شرح	-1638
▁ٻيا	-1639
▁بخش	-1640
▁هف	-1641
▁مسافر	-1642
▁متا	-1643
▁30	-1644
ولت	-1645
▁تك	-1646
صيل	-1647
▁اکين	-1648
▁راهڪن	-1649
▁وجوده	-1650
▁نٿا	-1651
▁ڀيرو	-1652
سا	-1653
▁يگ	-1654
▁تفصيل	-1655
▁هيون	-1656
▁ڪوبه	-1657
▁نتظار	-1658
▁هذ	-1659
▁تعداد	-1660
▁شان	-1661
▁dur	-1662
▁رقم	-1663
▁موجب	-1664
▁حوالي	-1665
▁حياتي	-1666
▁جلد	-1667
▁عظيم	-1668
ليق	-1669
▁خرچ	-1670
▁وفا	-1671
بوط	-1672
▁گم	-1673
▁بور	-1674
▁لل	-1675
▁عز	-1676
▁هيءَ	-1677
▁ck	-1678
▁شت	-1679
▁ڊر	-1680
▁x	-1681
▁کائ	-1682
▁پڙهي	-1683
افي	-1684
▁اوزار	-1685
ٺا	-1686
▁مضبوط	-1687
▁اُن	-1688
▁پڙهڻ	-1689
▁ايش	-1690
▁ذڪر	-1691
▁جھ	-1692
▁ويئر	-1693
▁ھڪڙو	-1694
▁وت	-1695
▁جذب	-1696
▁گڏيل	-1697
▁$	-1698
▁دان	-1699
▁ناڪ	-1700
▁محمد	-1701
حان	-1702
▁متاثر	-1703
▁سنگ	-1704
▁فا	-1705
▁دعا	-1706
▁پوسٽ	-1707
▁ايف	-1708
▁جائ	-1709
▁لينڊ	-1710
▁ڏيندو	-1711
▁عند	-1712
▁هفتي	-1713
▁لکڻ	-1714
▁دعو	-1715
▁لازمي	-1716
▁آزا	-1717
▁مند	-1718
▁سلمان	-1719
▁هزار	-1720
▁آزادي	-1721
▁هال	-1722
▁اهڙو	-1723
▁re	-1724
▁رز	-1725
▁نموني	-1726
▁نٽرول	-1727
▁U	-1728
▁مٿان	-1729
▁عملي	-1730
▁X	-1731
▁ارا	-1732
▁درج	-1733
▁نيٽ	-1734
▁ارو	-1735
▁مڙ	-1736
▁واقع	-1737
ابر	-1738
▁لع	-1739
▁نسل	-1740
▁اڪي	-1741
▁چم	-1742
احت	-1743
▁خواب	-1744
شق	-1745
▁راح	-1746
▁معا	-1747
▁وٺند	-1748
▁ڌيان	-1749
▁مهيا	-1750
▁مثل	-1751
▁درد	-1752
ri	-1753
▁هفت	-1754
▁سڃاڻ	-1755
▁تہ	-1756
▁ڪهڙو	-1757
▁اَ	-1758
▁رابط	-1759
▁گريزي	-1760
▁ستق	-1761
▁موسم	-1762
▁وڻ	-1763
▁خواه	-1764
▁ڪريان	-1765
▁وضاحت	-1766
▁لڳا	-1767
▁بج	-1768
▁ذم	-1769
▁يک	-1770
▁غلطي	-1771
▁عدالت	-1772
ائل	-1773
▁ليک	-1774
▁سف	-1775
▁مست	-1776
▁آرام	-1777
▁ً	-1778
▁بينڪ	-1779
▁يورپ	-1780
يڪل	-1781
▁ch	-1782
▁نشان	-1783
▁حص	-1784
▁ريشان	-1785
▁پهچي	-1786
▁شم	-1787
▁گرف	-1788
يب	-1789
▁رکيو	-1790
▁ذميوا	-1791
▁كان	-1792
▁روشني	-1793
▁ڪرد	-1794
▁ميد	-1795
▁الد	-1796
▁ڪئين	-1797
▁سگهون	-1798
▁هنڌ	-1799
▁وه	-1800
▁هوا	-1801
▁ڪيم	-1802
▁خاصيت	-1803
▁وف	-1804
▁12	-1805
▁کن	-1806
▁سور	-1807
هين	-1808
▁برابر	-1809
▁هلي	-1810
آن	-1811
شل	-1812
▁عجب	-1813
سڪ	-1814
▁شرط	-1815
▁روسي	-1816
▁پوي	-1817
▁استاد	-1818
▁حسين	-1819
▁يڪشن	-1820
▁منھنج	-1821
▁تنظيم	-1822
▁يپ	-1823
▁ساز	-1824
▁پيام	-1825
▁هيچ	-1826
▁مليو	-1827
▁ڪريون	-1828
▁ڻي	-1829
▁دين	-1830
▁ءِ	-1831
▁تش	-1832
▁ــــ	-1833
▁واڌ	-1834
هڪ	-1835
الر	-1836
وٽ	-1837
▁وغ	-1838
▁هدا	-1839
▁علاوه	-1840
▁جلدي	-1841
▁شكرا	-1842
ريز	-1843
▁اعت	-1844
▁سٽي	-1845
▁ڪرڻو	-1846
▁حيث	-1847
▁وَ	-1848
ti	-1849
▁اهل	-1850
▁قتل	-1851
▁انتي	-1852
▁هار	-1853
▁تصديق	-1854
▁جنھن	-1855
▁شيءِ	-1856
▁وڪرو	-1857
▁نوڪري	-1858
▁ڪردگي	-1859
▁مالي	-1860
▁جهاز	-1861
يه	-1862
▁واٽ	-1863
▁شاعر	-1864
▁پورٽ	-1865
▁حيثيت	-1866
▁سمجها	-1867
▁ng	-1868
▁رستو	-1869
id	-1870
▁زور	-1871
▁گروپ	-1872
▁فرانس	-1873
▁ڪراچي	-1874
▁صدي	-1875
▁ٻولي	-1876
▁لان	-1877
▁پليٽ	-1878
▁رفتار	-1879
▁رڪاري	-1880
▁اسٽور	-1881
▁يڪڏھن	-1882
رس	-1883
شڪ	-1884
▁جائز	-1885
▁عرب	-1886
▁اث	-1887
▁سنڀ	-1888
▁نفر	-1889
▁ڇوڪري	-1890
▁يال	-1891
▁انتها	-1892
▁نمي	-1893
▁هريان	-1894
▁ماني	-1895
▁گھٽ	-1896
▁تصور	-1897
▁دوا	-1898
▁ااااا	-1899
▁خار	-1900
▁زال	-1901
▁ورا	-1902
▁ماڊل	-1903
▁ياتي	-1904
▁ٺهيل	-1905
▁ڪارڊ	-1906
▁پھ	-1907
▁فيصل	-1908
▁ڊالر	-1909
دن	-1910
▁غريب	-1911
▁ذار	-1912
▁مينٽ	-1913
▁يماري	-1914
▁ميٽر	-1915
▁رين	-1916
▁زبان	-1917
▁رسائي	-1918
▁زي	-1919
▁ڪلڪ	-1920
ڀر	-1921
▁ملڪي	-1922
▁آفيس	-1923
▁اصول	-1924
▁كي	-1925
ay	-1926
▁بڻائ	-1927
▁نڪ	-1928
▁سيٽ	-1929
▁امام	-1930
▁بز	-1931
▁فن	-1932
▁موٽ	-1933
▁ڪيائ	-1934
نيٽ	-1935
▁اون	-1936
▁امير	-1937
▁تجربو	-1938
انو	-1939
▁K	-1940
پو	-1941
▁فيس	-1942
▁ٍ	-1943
▁خوف	-1944
▁بلاگ	-1945
▁اٽ	-1946
▁زو	-1947
▁رگر	-1948
▁ھڪڙي	-1949
▁يج	-1950
▁چند	-1951
▁سياح	-1952
▁^	-1953
▁ريت	-1954
▁پڇيو	-1955
▁ستقبل	-1956
▁گرمي	-1957
▁سمجهي	-1958
▁ميابي	-1959
▁پيوٽر	-1960
▁اقت	-1961
▁بحث	-1962
▁ديو	-1963
ابت	-1964
▁طر	-1965
▁ڪيٽ	-1966
لت	-1967
▁50	-1968
▁آئ	-1969
▁ايندو	-1970
گار	-1971
▁زا	-1972
▁ورڪ	-1973
▁ماهر	-1974
▁ويج	-1975
▁اعظم	-1976
▁آءِ	-1977
▁ڪوڙ	-1978
▁پيغام	-1979
▁ٿيندا	-1980
ڏو	-1981
▁اڌ	-1982
ياري	-1983
▁بورڊ	-1984
▁دم	-1985
▁سافٽ	-1986
▁ٽرنيٽ	-1987
▁ڇڏيند	-1988
▁اللي	-1989
▁ڊائون	-1990
▁V	-1991
▁آآ	-1992
▁لاڳو	-1993
▁هڪڙي	-1994
▁ڏاڍو	-1995
▁نص	-1996
دود	-1997
▁يٰ	-1998
▁ٻڌي	-1999
▁ڳالھ	-2000
▁ڪونهي	-2001
▁ريم	-2002
▁وزن	-2003
گو	-2004
▁ڪين	-2005
▁فل	-2006
▁حب	-2007
▁ڪٽ	-2008
▁ڪوڊ	-2009
▁ائن	-2010
غان	-2011
▁خصوص	-2012
▁راج	-2013
▁ءُ	-2014
▁بير	-2015
▁ساڳي	-2016
▁يڪس	-2017
الف	-2018
▁1.	-2019
▁واس	-2020
▁اڳي	-2021
▁شاعري	-2022
▁تاب	-2023
▁تجز	-2024
▁جيت	-2025
▁نيشن	-2026
ائر	-2027
▁نها	-2028
▁علام	-2029
▁رگرمي	-2030
▁خام	-2031
▁يئر	-2032
▁سج	-2033
▁نڊ	-2034
▁قدي	-2035
▁شڪار	-2036
▁ويئي	-2037
ريٽ	-2038
▁افغان	-2039
▁پوئ	-2040
▁صد	-2041
▁قبل	-2042
▁نل	-2043
▁توق	-2044
▁اسٽي	-2045
▁فعال	-2046
ot	-2047
▁كت	-2048
▁ڊگهي	-2049
▁سڪرين	-2050
▁بود	-2051
▁فلس	-2052
▁ياس	-2053
▁ايا	-2054
▁گرم	-2055
▁سنڀال	-2056
▁بيت	-2057
▁دٻ	-2058
▁لاش	-2059
▁on	-2060
▁فض	-2061
▁آمد	-2062
▁يقيني	-2063
▁ادب	-2064
▁شڪل	-2065
▁ic	-2066
▁لاق	-2067
▁ايندي	-2068
▁حم	-2069
▁ھر	-2070
▁جز	-2071
▁عذ	-2072
▁مهم	-2073
▁اڳيان	-2074
▁بڻائي	-2075
▁دفعو	-2076
▁سگهيو	-2077
▁عالم	-2078
▁عه	-2079
▁قص	-2080
▁مڃ	-2081
▁ٿيندڙ	-2082
▁راز	-2083
▁ويون	-2084
▁وبائل	-2085
▁ٿورو	-2086
▁#	-2087
▁رآ	-2088
▁اکي	-2089
▁فيه	-2090
▁رهندو	-2091
ورن	-2092
▁ثابت	-2093
▁سائي	-2094
▁اھي	-2095
▁محدود	-2096
▁داد	-2097
▁خوشي	-2098
▁لکيو	-2099
▁قوامي	-2100
▁هلا	-2101
▁ڳولي	-2102
▁وم	-2103
▁رخ	-2104
▁زمان	-2105
▁ايترو	-2106
▁امن	-2107
▁ڪندڙن	-2108
▁سوشل	-2109
▁فٽ	-2110
▁نك	-2111
▁ادي	-2112
▁نڪر	-2113
سٽر	-2114
▁هرحال	-2115
▁فري	-2116
▁حساب	-2117
▁منظر	-2118
ونس	-2119
▁اڙ	-2120
▁هڙي	-2121
▁قديم	-2122
▁پيءُ	-2123
▁چوي	-2124
▁مخصوص	-2125
▁يري	-2126
▁جت	-2127
▁قابلي	-2128
▁ڪئ	-2129
▁يوم	-2130
▁ڪان	-2131
▁سگهان	-2132
ڪڻ	-2133
▁صورتح	-2134
▁ياب	-2135
▁سگھو	-2136
▁يگر	-2137
▁حتى	-2138
▁اڳواڻ	-2139
قيد	-2140
▁ريف	-2141
▁مخالف	-2142
لڊ	-2143
▁طاب	-2144
▁+	-2145
▁هوس	-2146
مر	-2147
▁ڇپ	-2148
▁يده	-2149
▁؟؟	-2150
▁11	-2151
نن	-2152
▁گير	-2153
▁ميدان	-2154
طر	-2155
▁يافت	-2156
▁زخ	-2157
▁ليه	-2158
▁ٺيڪ	-2159
▁مپ	-2160
▁ليس	-2161
▁اهڙا	-2162
▁فهم	-2163
▁يلا	-2164
▁ينڊ	-2165
▁اينڊ	-2166
▁قرار	-2167
▁ابندي	-2168
▁لط	-2169
▁بابا	-2170
▁ro	-2171
▁sh	-2172
▁نون	-2173
▁جهڙوڪ	-2174
▁عاد	-2175
▁گيري	-2176
▁جمي	-2177
▁پٺ	-2178
▁هدايت	-2179
▁يب	-2180
▁دوستن	-2181
▁سياست	-2182
▁حالتن	-2183
al	-2184
it	-2185
me	-2186
وش	-2187
▁چڪا	-2188
▁مياب	-2189
▁عرصي	-2190
▁درو	-2191
▁امه	-2192
▁ڪام	-2193
▁هڪڙو	-2194
▁?	-2195
▁مَ	-2196
▁ليش	-2197
▁نقلاب	-2198
▁عيد	-2199
▁ماري	-2200
ئڻ	-2201
▁ڌرتي	-2202
▁الدين	-2203
▁آگ	-2204
▁ڀري	-2205
▁ساڻ	-2206
▁تعارف	-2207
▁ليل	-2208
▁سمنڊ	-2209
▁انٽر	-2210
▁مھ	-2211
▁اءِ	-2212
▁وص	-2213
▁kn	-2214
▁مب	-2215
▁مالڪ	-2216
▁نيوز	-2217
يع	-2218
▁نهن	-2219
▁نڪري	-2220
گه	-2221
▁هيا	-2222
▁هير	-2223
▁ڳنڍ	-2224
▁لفظن	-2225
▁گهڻا	-2226
▁اڏ	-2227
▁اور	-2228
▁ڳولا	-2229
▁اضافي	-2230
▁ڪاري	-2231
▁ملڻ	-2232
▁اگردن	-2233
▁ندر	-2234
▁گذر	-2235
▁جد	-2236
▁پک	-2237
▁ويل	-2238
▁لاقات	-2239
▁سَ	-2240
▁نٿي	-2241
رار	-2242
▁سئ	-2243
▁ائون	-2244
▁۱	-2245
▁سعو	-2246
▁رسال	-2247
▁رجسٽر	-2248
▁زماني	-2249
▁سوچيو	-2250
▁دما	-2251
▁راد	-2252
▁توقع	-2253
▁مختصر	-2254
▁جڳهه	-2255
يره	-2256
▁فهر	-2257
▁اوجود	-2258
هيو	-2259
▁ڏاڍي	-2260
xt	-2261
▁فهرست	-2262
▁ٻڌڻ	-2263
▁جيل	-2264
▁ڪنھن	-2265
▁خواهش	-2266
▁نيشنل	-2267
اھ	-2268
▁لهي	-2269
▁ملين	-2270
ونا	-2271
▁اظ	-2272
▁ويجهو	-2273
شي	-2274
▁يف	-2275
▁يات	-2276
▁ڪُ	-2277
▁راڻ	-2278
▁وٽي	-2279
اء	-2280
▁18	-2281
▁ڏنا	-2282
اهه	-2283
▁صل	-2284
▁هيه	-2285
▁سفار	-2286
▁بق	-2287
تال	-2288
▁نسٽ	-2289
▁ڪلاڪ	-2290
▁ٽرانس	-2291
▁انچ	-2292
▁فائدو	-2293
سل	-2294
▁اءُ	-2295
▁شعر	-2296
▁گرفتا	-2297
▁شوف	-2298
▁منتقل	-2299
▁دماغ	-2300
▁شوق	-2301
▁وڌائڻ	-2302
▁زن	-2303
▁مشڪل	-2304
رير	-2305
▁مرحل	-2306
▁اخبار	-2307
▁روڊ	-2308
▁چڪي	-2309
▁ائو	-2310
▁ڀلي	-2311
▁يي	-2312
▁گزار	-2313
▁سل	-2314
▁فڪر	-2315
قافت	-2316
▁بدر	-2317
▁ٽائي	-2318
▁ثقافت	-2319
شر	-2320
▁تجو	-2321
▁لنڪ	-2322
▁ٽڪر	-2323
▁شاندا	-2324
▁انگي	-2325
▁خلاص	-2326
▁سگھن	-2327
▁سواء	-2328
▁اندين	-2329
▁جهڙي	-2330
▁فط	-2331
▁طبي	-2332
▁گذري	-2333
▁سهولت	-2334
▁پريشن	-2335
▁رف	-2336
▁know	-2337
▁جڏھن	-2338
ادل	-2339
▁لائي	-2340
▁تخليق	-2341
▁عين	-2342
▁بدل	-2343
اظ	-2344
چر	-2345
ماد	-2346
▁لق	-2347
▁روپ	-2348
▁سوي	-2349
▁ويز	-2350
▁وڏا	-2351
▁2.	-2352
▁خا	-2353
▁وط	-2354
▁فور	-2355
▁تحت	-2356
▁نسي	-2357
▁عتماد	-2358
▁وح	-2359
▁نع	-2360
▁ايج	-2361
▁پال	-2362
▁مهينن	-2363
▁de	-2364
▁بھ	-2365
▁رستي	-2366
▁منزل	-2367
▁خخ	-2368
▁رڪار	-2369
▁توانا	-2370
▁سماني	-2371
▁z	-2372
▁nd	-2373
▁هندست	-2374
▁چيزي	-2375
▁يٺ	-2376
▁ننڊ	-2377
▁رڪارڊ	-2378
▁وغيره	-2379
▁ٻڌائي	-2380
▁ec	-2381
▁اااا	-2382
▁ْ	-2383
▁بيشڪ	-2384
▁غور	-2385
▁مره	-2386
▁جيان	-2387
▁سڀئي	-2388
جر	-2389
ڇي	-2390
▁لکيل	-2391
▁25	-2392
▁امهون	-2393
▁اکيون	-2394
لاس	-2395
لسل	-2396
▁مگر	-2397
▁سپتال	-2398
▁نقش	-2399
▁گاڏي	-2400
▁مسلسل	-2401
▁هئڻ	-2402
▁وفي	-2403
▁J	-2404
▁~	-2405
▁ريل	-2406
▁بجلي	-2407
▁ليکڪ	-2408
▁حسن	-2409
▁اهميت	-2410
▁يراني	-2411
▁رکو	-2412
▁ولو	-2413
▁يسٽ	-2414
is	-2415
لاق	-2416
▁ڳا	-2417
▁مڙس	-2418
▁جئين	-2419
▁مقامي	-2420
▁شكل	-2421
▁زر	-2422
▁ارف	-2423
▁ايتري	-2424
▁su	-2425
▁لحاظ	-2426
▁ٻڌائ	-2427
▁رقرار	-2428
▁عاه	-2429
▁حبي	-2430
▁قرآن	-2431
▁آپ	-2432
▁وڃو	-2433
▁نار	-2434
▁جرم	-2435
▁طبق	-2436
▁عشق	-2437
رل	-2438
▁اتو	-2439
▁فوج	-2440
▁ارفين	-2441
▁لائين	-2442
▁ارس	-2443
▁موقعو	-2444
▁فكر	-2445
▁حيرت	-2446
▁داشت	-2447
▁آل	-2448
▁انڊ	-2449
▁اچو	-2450
▁ناس	-2451
▁اعليٰ	-2452
▁نتظام	-2453
▁।	-2454
▁نتيجي	-2455
▁شڪ	-2456
▁نِ	-2457
▁هيءُ	-2458
▁فصل	-2459
▁وجه	-2460
▁وقف	-2461
ناه	-2462
▁آڻڻ	-2463
▁اڻڻ	-2464
▁بلڪ	-2465
▁نيڪ	-2466
▁عنصر	-2467
▁رٽيڪل	-2468
▁نہ	-2469
▁اڃان	-2470
▁ناڪام	-2471
▁14	-2472
▁عبد	-2473
▁قرض	-2474
▁يسي	-2475
▁ٺاهيو	-2476
▁ايڇ	-2477
▁قلب	-2478
▁ڏيندا	-2479
▁صو	-2480
▁شڪر	-2481
▁يام	-2482
▁سميت	-2483
▁فائل	-2484
▁وسار	-2485
▁ونڊو	-2486
▁وووو	-2487
▁آساني	-2488
▁پوئتي	-2489
▁راڊ	-2490
▁عجي	-2491
▁هلند	-2492
▁وائرس	-2493
▁حا	-2494
▁ائڻ	-2495
▁ويس	-2496
▁text	-2497
▁بندي	-2498
▁چيني	-2499
▁گراف	-2500
▁اتح	-2501
▁بران	-2502
▁مصنو	-2503
▁قس	-2504
▁اتر	-2505
▁ليٽ	-2506
▁مصنوع	-2507
جا	-2508
▁بئن	-2509
▁ماه	-2510
▁مسي	-2511
▁ڏکڻ	-2512
▁ويه	-2513
▁مجهيو	-2514
▁مسئلن	-2515
▁وره	-2516
▁عجيب	-2517
▁قاعد	-2518
▁هور	-2519
▁ييي	-2520
▁بغير	-2521
▁درست	-2522
▁شايع	-2523
▁اهيان	-2524
▁متحان	-2525
▁يورپي	-2526
▁اً	-2527
▁آسم	-2528
▁ورن	-2529
▁ڏينھن	-2530
▁مئ	-2531
▁ادار	-2532
دير	-2533
▁اجلاس	-2534
▁ايون	-2535
▁نگر	-2536
▁قسمن	-2537
▁انع	-2538
▁امان	-2539
▁نسٽال	-2540
▁٪	-2541
▁ڪٽو	-2542
▁طلع	-2543
▁ورٽ	-2544
▁ھون	-2545
ھر	-2546
▁حوال	-2547
▁رکند	-2548
▁ايمان	-2549
▁منظور	-2550
▁li	-2551
▁الڳ	-2552
▁براي	-2553
▁ميمبر	-2554
▁ذات	-2555
▁ڳولڻ	-2556
▁چور	-2557
▁وانا	-2558
▁شن	-2559
ٿر	-2560
▁ڪَ	-2561
▁تحفظ	-2562
▁ديد	-2563
▁بئنڪ	-2564
▁ائس	-2565
▁عوامي	-2566
el	-2567
زم	-2568
▁مغ	-2569
▁لال	-2570
▁ميو	-2571
▁وهه	-2572
▁كر	-2573
▁اصلا	-2574
▁مقدار	-2575
▁هڻ	-2576
▁وحد	-2577
▁ڪاب	-2578
▁خالي	-2579
▁ٽيسٽ	-2580
▁قدرتي	-2581
▁ضاب	-2582
▁ڀارت	-2583
▁طلب	-2584
▁ينل	-2585
▁يول	-2586
▁جاچ	-2587
▁رهند	-2588
▁And	-2589
▁سير	-2590
▁ضابط	-2591
▁ڊوائ	-2592
▁لب	-2593
▁انص	-2594
▁وزي	-2595
▁ادري	-2596
▁ورتي	-2597
ريف	-2598
▁رڪن	-2599
▁حڪمت	-2600
▁سماج	-2601
▁خرڪار	-2602
▁انو	-2603
▁مهو	-2604
▁ادارن	-2605
▁پراڻي	-2606
▁نھي	-2607
▁دشمن	-2608
▁هوٽل	-2609
▁شخصيت	-2610
▁پوندي	-2611
▁چپ	-2612
▁روس	-2613
▁ڪندس	-2614
▁ڏيندي	-2615
▁ly	-2616
▁صور	-2617
▁ائسنس	-2618
▁ائيند	-2619
▁ماڻھو	-2620
ڌر	-2621
▁ڀيٽ	-2622
▁ننڍي	-2623
▁اظهار	-2624
▁مها	-2625
▁يدار	-2626
▁درواز	-2627
گرد	-2628
▁جار	-2629
▁خور	-2630
▁طيب	-2631
▁پهر	-2632
▁رابطو	-2633
▁عبدال	-2634
باس	-2635
▁هجن	-2636
▁وڪل	-2637
▁اچن	-2638
▁روا	-2639
▁عنو	-2640
▁وسيع	-2641
يز	-2642
▁ساڳيو	-2643
▁سعودي	-2644
▁گن	-2645
▁سول	-2646
▁وات	-2647
▁يهي	-2648
▁شعور	-2649
▁ٿوري	-2650
▁نب	-2651
▁يٽر	-2652
▁اخر	-2653
▁سڌو	-2654
▁حلوه	-2655
▁ڪسٽم	-2656
▁رائ	-2657
▁رض	-2658
▁حما	-2659
▁گڏو	-2660
▁Andr	-2661
▁مذهبي	-2662
▁100	-2663
▁جني	-2664
▁زير	-2665
▁سڏيو	-2666
▁عياري	-2667
▁Ma	-2668
▁مظ	-2669
▁انس	-2670
▁ايد	-2671
▁هست	-2672
▁گرد	-2673
▁فوجي	-2674
▁لڳند	-2675
▁مذهب	-2676
▁ترجم	-2677
▁شاگرد	-2678
ڙپ	-2679
▁وند	-2680
▁مهيني	-2681
▁اسر	-2682
▁ويڊيو	-2683
▁ارن	-2684
▁ss	-2685
▁شاهه	-2686
▁انجام	-2687
ٽڻ	-2688
▁es	-2689
▁شهي	-2690
▁انصاف	-2691
▁oid	-2692
▁تيل	-2693
▁ريڪ	-2694
▁تجرب	-2695
▁خيلي	-2696
▁خل	-2697
▁آسمان	-2698
▁اسپين	-2699
▁ساڳئي	-2700
▁رسم	-2701
▁ريٽ	-2702
▁مرڪز	-2703
▁سلسلي	-2704
▁حتج	-2705
▁گھرجي	-2706
▁أن	-2707
▁جنم	-2708
▁چنڊ	-2709
▁ٽرين	-2710
▁خاموش	-2711
▁In	-2712
▁كن	-2713
▁اذا	-2714
▁ڊجي	-2715
▁آهنگ	-2716
▁لڪ	-2717
▁ڄاڻي	-2718
▁ڊجيٽل	-2719
▁دڪان	-2720
▁گڏجي	-2721
▁حصن	-2722
▁چڱي	-2723
▁مارچ	-2724
▁پويان	-2725
بال	-2726
▁جمو	-2727
▁ايئن	-2728
▁روسيس	-2729
▁ڪيترو	-2730
▁مائ	-2731
▁جموعي	-2732
▁سٽيشن	-2733
بلي	-2734
▁مئي	-2735
▁حتجاج	-2736
▁40	-2737
وڙ	-2738
پر	-2739
▁دستا	-2740
▁ممكن	-2741
▁ڪال	-2742
▁ريشن	-2743
▁منظم	-2744
▁لباس	-2745
فاق	-2746
▁دخل	-2747
▁ردا	-2748
▁روف	-2749
▁عزي	-2750
▁ڪنڊ	-2751
▁فطرت	-2752
▁سياحت	-2753
▁عمارت	-2754
▁تل	-2755
▁لئ	-2756
▁حمل	-2757
▁شما	-2758
▁عيس	-2759
▁راضي	-2760
▁ڪورٽ	-2761
▁مهوري	-2762
▁com	-2763
▁ڪپڙ	-2764
▁هع	-2765
▁ڊپ	-2766
▁چيڪ	-2767
▁ادبي	-2768
▁نمائ	-2769
▁ڙهند	-2770
▁پرس	-2771
▁گاه	-2772
▁اڪيلو	-2773
▁تحريڪ	-2774
▁کر	-2775
▁ڪالي	-2776
▁اشارو	-2777
▁ڪٽوبر	-2778
li	-2779
ut	-2780
▁پشن	-2781
▁جنسي	-2782
▁باغ	-2783
▁ملائ	-2784
▁عط	-2785
▁محنت	-2786
▁13	-2787
▁يمبر	-2788
▁عمولي	-2789
▁ريڊ	-2790
▁سزا	-2791
▁عزت	-2792
▁هُو	-2793
▁يڙ	-2794
▁ورڊ	-2795
▁برانڊ	-2796
ch	-2797
▁هُن	-2798
▁وڏن	-2799
▁ڪور	-2800
▁قسمت	-2801
▁ٽيڪس	-2802
▁طابقت	-2803
▁معنيٰ	-2804
▁موٽر	-2805
▁نماز	-2806
▁مسئلي	-2807
▁هِ	-2808
▁مشت	-2809
▁پٿر	-2810
▁چيز	-2811
▁جميل	-2812
▁فقير	-2813
▁ڪمري	-2814
▁ايندا	-2815
▁بدران	-2816
▁طريقا	-2817
▁ائپ	-2818
▁حرف	-2819
▁عقل	-2820
▁فوت	-2821
▁ماپ	-2822
▁مني	-2823
▁پائ	-2824
▁چڱو	-2825
▁ٽين	-2826
▁تعريف	-2827
▁نشاني	-2828
ده	-2829
▁16	-2830
▁گيت	-2831
لوي	-2832
▁رك	-2833
▁اكل	-2834
▁(1	-2835
▁or	-2836
▁تڪڙ	-2837
▁لنڊ	-2838
▁لوڪ	-2839
▁ويند	-2840
▁تجزيو	-2841
ارٽ	-2842
▁کيڏ	-2843
▁ميان	-2844
▁نڌ	-2845
▁ڪلو	-2846
▁اضاف	-2847
▁ڪرائي	-2848
▁j	-2849
▁روي	-2850
▁صدق	-2851
▁نگن	-2852
▁کليل	-2853
▁گهربل	-2854
▁قد	-2855
▁نءَ	-2856
▁سيڙپ	-2857
▁شهري	-2858
▁pp	-2859
▁كنت	-2860
▁سموري	-2861
▁ڪڍي	-2862
▁پٽمبر	-2863
▁ڪتابن	-2864
▁>>	-2865
▁Ne	-2866
▁سيريز	-2867
رب	-2868
▁نصي	-2869
▁هيڪ	-2870
وم	-2871
▁عزيز	-2872
▁نواز	-2873
▁گراهڪ	-2874
جد	-2875
ٻي	-2876
▁وك	-2877
▁آدم	-2878
▁نسخ	-2879
▁موٽي	-2880
▁واپسي	-2881
▁پهچ	-2882
▁ڪابه	-2883
▁يمبلي	-2884
▁۔۔	-2885
▁مرا	-2886
▁يڪل	-2887
▁ھئي	-2888
▁سمارٽ	-2889
▁3.	-2890
▁راهي	-2891
▁يرا	-2892
▁<<	-2893
▁ادر	-2894
▁ھاڻي	-2895
▁عنوان	-2896
▁الز	-2897
▁سڄو	-2898
▁مکي	-2899
▁بحال	-2900
▁تبادل	-2901
▁ڊيزائ	-2902
▁گذاري	-2903
▁na	-2904
▁بع	-2905
▁آبا	-2906
▁طان	-2907
▁كتب	-2908
▁ميز	-2909
▁خريدا	-2910
▁وسيقي	-2911
ليت	-2912
▁برد	-2913
▁فائي	-2914
▁آبادي	-2915
▁جائزو	-2916
▁عليها	-2917
▁ڪاليج	-2918
▁تار	-2919
▁جاڳ	-2920
▁tion	-2921
▁طريقن	-2922
▁ملازم	-2923
▁ڪميون	-2924
▁وئ	-2925
▁الف	-2926
▁واسط	-2927
▁Co	-2928
▁خخخ	-2929
▁پئسا	-2930
▁ڊزائ	-2931
▁جام	-2932
▁يورو	-2933
▁ارڻ	-2934
▁الص	-2935
▁حيران	-2936
▁سفارش	-2937
بيت	-2938
▁nt	-2939
▁se	-2940
▁وپ	-2941
▁اڙي	-2942
▁تني	-2943
▁شمار	-2944
▁نوان	-2945
▁ٽيلي	-2946
▁ڃ	-2947
▁شوي	-2948
▁سمور	-2949
▁فوري	-2950
▁فوٽو	-2951
▁سخ	-2952
▁ڏانھن	-2953
▁24	-2954
▁تهي	-2955
▁نما	-2956
▁دورو	-2957
▁زخمي	-2958
▁انعام	-2959
▁جنرل	-2960
▁سوچي	-2961
▁اتفاق	-2962
▁جيترو	-2963
▁لاس	-2964
▁مدا	-2965
▁بونس	-2966
▁ائيڪل	-2967
▁ni	-2968
▁ٻُ	-2969
▁دون	-2970
▁پول	-2971
▁تض	-2972
▁ابي	-2973
▁بلو	-2974
▁ميوز	-2975
▁ڪرائڻ	-2976
▁ايان	-2977
▁شهيد	-2978
▁جمل	-2979
▁حبيب	-2980
▁يٽنگ	-2981
▁اِه	-2982
▁لله	-2983
▁ڪلاس	-2984
▁ترجمو	-2985
▁مشتمل	-2986
▁فرد	-2987
▁@	-2988
▁ليا	-2989
▁نيست	-2990
▁ويهي	-2991
▁يها	-2992
▁ارسال	-2993
▁انڪار	-2994
▁چوندا	-2995
▁قيام	-2996
▁اليسي	-2997
▁it	-2998
▁ئٽ	-2999
▁امڪان	-3000
▁جنيئر	-3001
ضر	-3002
▁لعب	-3003
▁واي	-3004
▁فلسف	-3005
▁پرست	-3006
▁حاج	-3007
▁ئس	-3008
▁مک	-3009
▁تعا	-3010
▁كله	-3011
▁مشك	-3012
▁۔۔۔	-3013
▁تنھن	-3014
▁چارج	-3015
▁ڏيئي	-3016
▁خاطر	-3017
▁روشن	-3018
▁وني	-3019
▁ٻڌو	-3020
▁ڀيرا	-3021
▁ڪانه	-3022
▁رکندڙ	-3023
▁انك	-3024
▁وطن	-3025
▁يڊيا	-3026
▁ٽيبل	-3027
▁چئ	-3028
▁اره	-3029
▁هنگ	-3030
▁آرڊر	-3031
▁آگسٽ	-3032
▁ڪِ	-3033
▁وائي	-3034
▁آفيسر	-3035
▁هينئر	-3036
رڪ	-3037
▁ll	-3038
▁رما	-3039
▁ستي	-3040
▁مزد	-3041
▁ثاني	-3042
▁سوچڻ	-3043
▁the	-3044
▁ئيگي	-3045
▁يونٽ	-3046
▁تربيت	-3047
▁سلامت	-3048
▁آڻ	-3049
▁ٿر	-3050
▁قيم	-3051
▁راءِ	-3052
▁اضافو	-3053
▁هچائڻ	-3054
se	-3055
▁کڻڻ	-3056
▁17	-3057
▁ساٿ	-3058
▁دائين	-3059
▁واقف	-3060
▁ٽيون	-3061
▁ملڪيت	-3062
▁وزيشن	-3063
tion	-3064
▁امين	-3065
▁ation	-3066
▁الت	-3067
▁امر	-3068
▁كيف	-3069
▁ڀلا	-3070
▁كلام	-3071
▁ايشيا	-3072
▁جاء	-3073
▁لنگ	-3074
▁ووو	-3075
▁سمجهڻ	-3076
▁سڃاڻپ	-3077
▁ونڊوز	-3078
▁کل	-3079
▁لون	-3080
▁مور	-3081
▁ڀريل	-3082
تل	-3083
▁اڇ	-3084
▁فرض	-3085
▁اما	-3086
▁جنس	-3087
▁قال	-3088
▁دليل	-3089
▁صفحا	-3090
▁وصول	-3091
▁فتح	-3092
▁an	-3093
▁رر	-3094
▁يخ	-3095
▁رئي	-3096
▁آسٽر	-3097
▁حمايت	-3098
▁mi	-3099
▁پُ	-3100
▁حاد	-3101
▁رحم	-3102
▁يٺل	-3103
▁يمكن	-3104
▁رهندا	-3105
▁سبق	-3106
▁ويچ	-3107
▁اخت	-3108
▁بئي	-3109
▁وهي	-3110
▁دريا	-3111
▁رابطي	-3112
نه	-3113
▁ؤ	-3114
▁پَ	-3115
▁عهد	-3116
▁لها	-3117
▁ساٿي	-3118
▁رائيڊ	-3119
▁سيڙپڪ	-3120
▁ect	-3121
▁مڇي	-3122
▁اداري	-3123
▁ma	-3124
▁mp	-3125
▁زنده	-3126
▁رائيو	-3127
▁يرو	-3128
▁روئ	-3129
▁شده	-3130
▁نكت	-3131
▁سگھجي	-3132
▁مسئلا	-3133
يءَ	-3134
▁ترڪي	-3135
▁جنوري	-3136
ڊيٽ	-3137
▁رام	-3138
▁عندي	-3139
▁وسيل	-3140
▁گزارش	-3141
ڳي	-3142
▁وڪليو	-3143
▁يورٽي	-3144
▁ورها	-3145
▁هوائي	-3146
خر	-3147
▁احمد	-3148
▁رآمد	-3149
▁نومبر	-3150
▁ag	-3151
▁رسيد	-3152
▁مکيه	-3153
▁ھوند	-3154
▁تجويز	-3155
▁تنھنج	-3156
▁موقعي	-3157
▁ممم	-3158
▁تعرف	-3159
▁هليو	-3160
▁ائلون	-3161
▁وڊ	-3162
▁تاج	-3163
▁حالا	-3164
▁ماضي	-3165
▁الو	-3166
▁لسٽ	-3167
▁هائو	-3168
▁اپڊيٽ	-3169
ليف	-3170
▁آھ	-3171
▁خون	-3172
▁هوش	-3173
▁شتهار	-3174
▁نز	-3175
▁ٻڌل	-3176
▁پوک	-3177
▁ريان	-3178
▁هلائڻ	-3179
▁ion	-3180
▁اگه	-3181
▁نان	-3182
▁جهان	-3183
▁حادث	-3184
▁گھڻو	-3185
lo	-3186
▁tt	-3187
▁ريد	-3188
▁ليگ	-3189
▁مردن	-3190
▁باد	-3191
▁جلس	-3192
▁رسول	-3193
▁رهيون	-3194
▁اڻو	-3195
▁ولڊ	-3196
▁سازي	-3197
▁طلاق	-3198
▁لنڊن	-3199
▁أنا	-3200
▁ربي	-3201
▁ٻول	-3202
▁ريح	-3203
▁سنڏ	-3204
▁هٿن	-3205
▁ناول	-3206
▁وارڊ	-3207
يوب	-3208
▁نبي	-3209
▁هئس	-3210
▁پيٽ	-3211
صاد	-3212
▁me	-3213
▁دد	-3214
▁تين	-3215
▁شاه	-3216
▁قوت	-3217
▁هوء	-3218
▁ينج	-3219
▁مبار	-3220
▁الزام	-3221
▁بڪ	-3222
▁for	-3223
▁مجب	-3224
▁لانچ	-3225
▁ٻيون	-3226
▁قتصاد	-3227
▁gh	-3228
▁ناهن	-3229
▁مجبور	-3230
▁بک	-3231
▁دهشت	-3232
▁ڇوڪر	-3233
▁اسرائ	-3234
▁دوز	-3235
▁كثر	-3236
▁يائ	-3237
▁هيٺين	-3238
▁ڊزائن	-3239
▁اٺ	-3240
▁حاضر	-3241
▁پرين	-3242
▁ليڪٽر	-3243
ڙن	-3244
▁ڱ	-3245
▁بتد	-3246
▁خات	-3247
▁اولا	-3248
▁ساري	-3249
▁عربي	-3250
▁ڀاءُ	-3251
▁ڪانهي	-3252
▁ڪميشن	-3253
▁آي	-3254
▁يهم	-3255
▁آپريٽ	-3256
▁زارين	-3257
▁کوٽ	-3258
▁سرور	-3259
▁پارڪ	-3260
▁سينٽر	-3261
▁ar	-3262
▁vi	-3263
▁اوڀر	-3264
▁تازو	-3265
ea	-3266
زور	-3267
▁بط	-3268
▁وائنٽ	-3269
us	-3270
▁19	-3271
▁شب	-3272
▁شتي	-3273
▁نيم	-3274
▁پناه	-3275
▁ra	-3276
▁كه	-3277
▁بہ	-3278
▁ارد	-3279
▁سيد	-3280
بن	-3281
▁ٌ	-3282
▁لف	-3283
▁ينس	-3284
▁ڀڳ	-3285
▁الا	-3286
▁ردو	-3287
▁عنى	-3288
▁وير	-3289
▁وفات	-3290
▁الحال	-3291
▁قابلو	-3292
▁بگ	-3293
▁ينا	-3294
▁ذريع	-3295
▁آيل	-3296
▁ضحكت	-3297
▁ويجه	-3298
▁نگران	-3299
گڏ	-3300
▁قل	-3301
▁افي	-3302
▁انڪ	-3303
▁سکڻ	-3304
▁مهور	-3305
وف	-3306
▁is	-3307
▁وِ	-3308
▁اسم	-3309
▁الع	-3310
▁ليو	-3311
▁ڪمزور	-3312
▁دمت	-3313
▁قطع	-3314
▁بنائ	-3315
▁راڊڪٽ	-3316
ريم	-3317
▁lo	-3318
▁نظم	-3319
▁ينه	-3320
▁هندو	-3321
▁انورن	-3322
▁تعاون	-3323
▁سمجهه	-3324
▁ميگ	-3325
▁ڊسم	-3326
▁ڪارو	-3327
▁رش	-3328
▁خوا	-3329
▁رکن	-3330
▁ستر	-3331
▁شير	-3332
▁منس	-3333
▁شهرن	-3334
▁ويٺو	-3335
▁اتحاد	-3336
▁سائيز	-3337
▁واقعا	-3338
▁يمبرن	-3339
▁ڪرايو	-3340
▁يح	-3341
▁ورد	-3342
▁وفاقي	-3343
▁ڊسمبر	-3344
▁زاح	-3345
▁پٺيان	-3346
▁Z	-3347
▁بم	-3348
▁رُ	-3349
▁رون	-3350
▁ميدو	-3351
▁وهين	-3352
▁ٻارڙ	-3353
▁ڏکيو	-3354
▁نتيجو	-3355
▁گڏوگڏ	-3356
ٻئي	-3357
▁حج	-3358
▁يڏو	-3359
▁نسان	-3360
▁ڪانگ	-3361
▁زاحمت	-3362
▁صير	-3363
▁باهه	-3364
▁پيروي	-3365
▁حنا	-3366
▁كون	-3367
▁وٺو	-3368
▁ينٽ	-3369
▁ئنات	-3370
▁نتظر	-3371
▁هد	-3372
▁بقى	-3373
▁وائس	-3374
▁di	-3375
▁بعض	-3376
▁محل	-3377
▁موقع	-3378
▁نگار	-3379
▁ويڙه	-3380
▁ٻانه	-3381
▁گرام	-3382
▁تجربي	-3383
▁بيڪ	-3384
▁اقول	-3385
▁اُهي	-3386
▁دارن	-3387
▁مريض	-3388
▁,,	-3389
▁يلو	-3390
▁شرڪت	-3391
▁هندي	-3392
▁نصوبي	-3393
▁بنت	-3394
▁درس	-3395
▁اهرين	-3396
▁ريڪٽر	-3397
UM	-3398
▁مِ	-3399
▁چڙ	-3400
▁day	-3401
▁برائ	-3402
▁بتدائ	-3403
▁وزارت	-3404
گا	-3405
▁ويد	-3406
▁اپريل	-3407
▁بردار	-3408
▁تسليم	-3409
▁تڪليف	-3410
▁علامت	-3411
▁Y	-3412
▁پئجي	-3413
▁يشه	-3414
▁ڪاس	-3415
▁مشور	-3416
▁وندا	-3417
▁ڪجھه	-3418
پل	-3419
▁ژ	-3420
▁تت	-3421
▁قري	-3422
▁نالا	-3423
▁هاءِ	-3424
▁پارٽ	-3425
ok	-3426
▁۲	-3427
ڏيهي	-3428
▁آڻي	-3429
▁لات	-3430
▁ڪلهه	-3431
▁رڏيهي	-3432
▁Q	-3433
▁ta	-3434
▁ڪٿ	-3435
▁احد	-3436
▁اٿم	-3437
▁مدير	-3438
▁جذبات	-3439
▁مؤ	-3440
▁مزو	-3441
▁تقول	-3442
ce	-3443
▁ظا	-3444
▁واهه	-3445
▁سلسلو	-3446
▁ڏسندا	-3447
▁افت	-3448
▁وڌو	-3449
▁يره	-3450
▁ڇڏيا	-3451
▁قيمتي	-3452
▁Re	-3453
▁ينو	-3454
▁توڙي	-3455
▁عقيد	-3456
▁چائي	-3457
▁اقتور	-3458
▁مينهن	-3459
ve	-3460
▁60	-3461
▁ذا	-3462
▁سِ	-3463
▁صرا	-3464
▁نگاه	-3465
▁کائي	-3466
▁اڳوڻي	-3467
▁داڪار	-3468
▁عاملي	-3469
▁نڊي	-3470
▁آھيان	-3471
ناس	-3472
▁4.	-3473
▁بوٽ	-3474
▁ٽنگ	-3475
▁شراب	-3476
▁ورونا	-3477
▁ويچار	-3478
▁لطف	-3479
▁نڪت	-3480
▁روڪي	-3481
▁کاتي	-3482
▁بچائڻ	-3483
پان	-3484
▁at	-3485
▁خواهي	-3486
ئا	-3487
▁ميڪ	-3488
▁جرمني	-3489
▁اطم	-3490
▁باس	-3491
▁ردي	-3492
▁پکي	-3493
▁جما	-3494
▁q	-3495
▁ڙو	-3496
▁صار	-3497
▁هيس	-3498
▁کار	-3499
▁پريس	-3500
▁اسٽيٽ	-3501
▁😂	-3502
▁ڄم	-3503
▁سنو	-3504
▁يقول	-3505
▁امداد	-3506
▁خدمتن	-3507
▁صط	-3508
▁اڻن	-3509
▁تازه	-3510
▁نفرنس	-3511
▁گهرجن	-3512
▁ab	-3513
▁ترا	-3514
▁ردن	-3515
▁هنا	-3516
▁ووٽ	-3517
▁ڊسٽ	-3518
▁ڊوڙ	-3519
▁ڳوله	-3520
▁گفتگو	-3521
▁اوچ	-3522
▁برر	-3523
▁رنس	-3524
▁ودڪار	-3525
شم	-3526
لاع	-3527
▁سؤ	-3528
▁نَ	-3529
▁فعل	-3530
▁هذه	-3531
▁چوٿ	-3532
▁ياري	-3533
▁ڪاپي	-3534
▁جانور	-3535
▁وڄ	-3536
▁اوي	-3537
▁ٽرو	-3538
▁ڪوٽ	-3539
▁مثبت	-3540
▁فته	-3541
▁لازم	-3542
▁واني	-3543
▁روايت	-3544
ou	-3545
▁زار	-3546
▁قلم	-3547
▁لهه	-3548
▁تهيه	-3549
▁وڪيپ	-3550
▁اعترا	-3551
رات	-3552
▁نھ	-3553
▁هٿي	-3554
▁جج	-3555
▁حقن	-3556
▁سته	-3557
▁شيئر	-3558
▁آمدني	-3559
▁ميدوا	-3560
▁نصوبو	-3561
▁برو	-3562
▁منع	-3563
▁نير	-3564
▁ڪوئي	-3565
▁اطلاع	-3566
▁بروري	-3567
▁ct	-3568
▁وجهي	-3569
▁ورلڊ	-3570
▁فٽبال	-3571
▁ريو	-3572
▁آئين	-3573
▁ڪارپو	-3574
▁ڪچ	-3575
▁بول	-3576
▁ماء	-3577
▁چمڪ	-3578
▁جيڪٽ	-3579
▁ساهه	-3580
▁شكله	-3581
▁نفرت	-3582
▁Mi	-3583
▁فخر	-3584
▁مهل	-3585
▁ڪيلي	-3586
▁يائون	-3587
▁دمتون	-3588
▁ڊسٽري	-3589
▁ارب	-3590
▁انٽ	-3591
▁بيس	-3592
▁وڻي	-3593
▁بلوچ	-3594
▁وڪيل	-3595
▁دشاهه	-3596
ol	-3597
▁ڀڄ	-3598
▁عطي	-3599
▁ولهه	-3600
▁لڊ	-3601
▁ڀڃ	-3602
▁اءَ	-3603
▁نرم	-3604
▁ha	-3605
▁ڏٺ	-3606
▁کٽ	-3607
▁ers	-3608
▁مصر	-3609
▁ڊرائ	-3610
▁ليڪشن	-3611
▁هلندڙ	-3612
UMX	-3613
▁ڀل	-3614
▁درجه	-3615
▁دعوت	-3616
▁سڃات	-3617
▁21	-3618
▁22	-3619
▁we	-3620
▁ديگر	-3621
بوب	-3622
▁ca	-3623
▁آءُ	-3624
▁سڌي	-3625
▁يڪر	-3626
▁ضمان	-3627
▁والد	-3628
▁رچ	-3629
▁گُ	-3630
▁ضلع	-3631
▁قلت	-3632
▁يءُ	-3633
▁ٺاھ	-3634
▁رداشت	-3635
▁صطلاح	-3636
▁XN	-3637
انيه	-3638
▁فاد	-3639
▁رارت	-3640
▁هانگ	-3641
▁يكون	-3642
▁اولاد	-3643
▁فائيل	-3644
راق	-3645
▁حاف	-3646
▁مسيح	-3647
▁گهڻن	-3648
▁si	-3649
▁وتي	-3650
▁گهه	-3651
▁دوستي	-3652
▁ماڻھن	-3653
▁بازي	-3654
▁چيست	-3655
▁ٽرويو	-3656
▁رٿ	-3657
▁رضا	-3658
▁سٽر	-3659
▁متن	-3660
▁يچر	-3661
▁يکي	-3662
▁پئس	-3663
▁ينسر	-3664
▁ضمانت	-3665
▁واڌار	-3666
▁يونين	-3667
▁گهٽائ	-3668
فرد	-3669
▁گز	-3670
▁بلند	-3671
▁منجه	-3672
▁هفته	-3673
▁ڳوڙه	-3674
▁CO	-3675
▁وصل	-3676
▁بيٽري	-3677
▁هڪٻئي	-3678
▁َر	-3679
▁اوت	-3680
▁اٿس	-3681
▁يادت	-3682
▁منفرد	-3683
▁ٹ	-3684
▁پهتو	-3685
▁بحالي	-3686
▁اؤ	-3687
▁ولين	-3688
▁XNUMX	-3689
▁حڪمرا	-3690
▁يزبان	-3691
▁St	-3692
▁ba	-3693
▁سري	-3694
▁شور	-3695
▁پهچڻ	-3696
▁گروه	-3697
▁بڻايو	-3698
▁دهشتگ	-3699
ھين	-3700
▁تھ	-3701
▁غم	-3702
▁نمائش	-3703
▁لآ	-3704
▁انف	-3705
▁چيه	-3706
▁بدلي	-3707
▁غلام	-3708
▁ننڍڙ	-3709
▁ڏيار	-3710
▁ٰ	-3711
▁رهو	-3712
▁هڻي	-3713
▁ُون	-3714
▁چرچ	-3715
▁ٻيڙي	-3716
▁ڄاڻا	-3717
▁Bi	-3718
▁ld	-3719
▁ڳڻ	-3720
▁متح	-3721
▁سوار	-3722
▁ٽئين	-3723
▁رع	-3724
▁نتخ	-3725
▁پڌر	-3726
▁جوان	-3727
▁خاتم	-3728
▁طانيه	-3729
▁عاملو	-3730
▁ڊڄ	-3731
▁دام	-3732
▁مزح	-3733
▁حافظ	-3734
▁دارو	-3735
▁عرفت	-3736
▁مسجد	-3737
▁پاور	-3738
▁ائونڊ	-3739
▁اڻيءَ	-3740
▁تحليل	-3741
▁راهيم	-3742
▁مرڪزي	-3743
▁ce	-3744
▁صفحي	-3745
▁مافي	-3746
▁el	-3747
▁دك	-3748
▁واب	-3749
▁يئي	-3750
▁افسوس	-3751
جڪ	-3752
ڊا	-3753
▁حلوة	-3754
▁عليكم	-3755
▁&	-3756
▁ne	-3757
▁نوع	-3758
▁ٽائ	-3759
▁کپي	-3760
▁انسٽ	-3761
▁نگين	-3762
▁گاهي	-3763
▁نتخاب	-3764
▁sm	-3765
▁نى	-3766
▁ter	-3767
▁هيك	-3768
▁طبيع	-3769
▁مف	-3770
▁طول	-3771
▁لكن	-3772
▁پرائ	-3773
▁ندازو	-3774
▁وايتي	-3775
▁ad	-3776
▁ناق	-3777
▁پرت	-3778
▁ائيڊ	-3779
▁کاڌي	-3780
▁اوھين	-3781
▁خيالن	-3782
▁عاهدي	-3783
▁مبارڪ	-3784
▁مبر	-3785
▁ناز	-3786
▁اكيد	-3787
▁گهڙي	-3788
▁{	-3789
ليا	-3790
ياد	-3791
▁جب	-3792
▁ھڙي	-3793
▁مرمت	-3794
▁نهار	-3795
▁پيئڻ	-3796
▁تياري	-3797
▁ھا	-3798
▁men	-3799
▁مدت	-3800
▁جوڙجڪ	-3801
▁ذريعو	-3802
▁محبوب	-3803
▁نتيجا	-3804
▁روڪ	-3805
▁ڇڏڻ	-3806
▁روڪڻ	-3807
▁وقتي	-3808
▁معاشي	-3809
▁وڌائي	-3810
روف	-3811
▁ارك	-3812
▁صنع	-3813
▁برقي	-3814
▁روزي	-3815
▁بردست	-3816
▁يافته	-3817
▁Th	-3818
▁وک	-3819
▁سادي	-3820
▁اڳيون	-3821
▁رجحان	-3822
▁تڪر	-3823
▁كلم	-3824
▁عشان	-3825
▁پيچي	-3826
▁وحاني	-3827
▁خلص	-3828
▁ودي	-3829
▁جيئر	-3830
▁پيئي	-3831
▁داخ	-3832
▁اهڙن	-3833
▁رھيو	-3834
▁la	-3835
▁شيخ	-3836
▁ڏيان	-3837
▁کاڌو	-3838
▁ريلوي	-3839
▁لائيٽ	-3840
▁الس	-3841
▁اپل	-3842
▁لاسٽ	-3843
▁ڪپڙا	-3844
▁فائدي	-3845
▁پيچيد	-3846
di	-3847
ma	-3848
▁شھر	-3849
▁جادو	-3850
▁دوري	-3851
▁عراق	-3852
▁ائيٽن	-3853
▁تڪرار	-3854
ته	-3855
يوس	-3856
▁اغ	-3857
▁موڙ	-3858
▁گھڻي	-3859
شا	-3860
▁ڷ	-3861
▁ارٽ	-3862
▁برس	-3863
▁تري	-3864
▁طرز	-3865
▁فين	-3866
▁كتي	-3867
▁ميم	-3868
▁ونه	-3869
▁ڙهندڙ	-3870
ذير	-3871
▁سرڪار	-3872
▁وڃائي	-3873
كس	-3874
▁گاهه	-3875
▁گهرن	-3876
▁سيڪنڊ	-3877
▁وڊيوز	-3878
طيف	-3879
▁نجم	-3880
▁هنج	-3881
▁چرا	-3882
▁آھيو	-3883
▁ارين	-3884
▁يڪنگ	-3885
▁جنب	-3886
▁ربت	-3887
▁شفا	-3888
▁مسلم	-3889
▁ڳاڙه	-3890
▁ٽڪ	-3891
▁اڻا	-3892
▁کير	-3893
▁هارڊ	-3894
▁سگھون	-3895
▁واقعن	-3896
بوت	-3897
▁ريج	-3898
▁سپر	-3899
▁لام	-3900
▁ياه	-3901
▁عندك	-3902
▁لائق	-3903
▁ft	-3904
▁جُ	-3905
▁هلڻ	-3906
▁چان	-3907
▁سينٽ	-3908
▁يارو	-3909
▁داخلا	-3910
▁رساله	-3911
▁ولاءِ	-3912
▁پرواز	-3913
▁پپ	-3914
▁يمپ	-3915
▁دولت	-3916
▁لطيف	-3917
▁وڃان	-3918
▁وليءَ	-3919
▁طين	-3920
▁نجھ	-3921
▁يڪٽ	-3922
▁ٽان	-3923
▁80	-3924
▁آآآ	-3925
▁جبل	-3926
▁موڪ	-3927
▁يهه	-3928
▁ٻيٽ	-3929
▁ٻُڌ	-3930
▁کلي	-3931
▁تعجب	-3932
▁جهڙا	-3933
▁ڪهڙا	-3934
▁سونهن	-3935
ڌار	-3936
▁ُر	-3937
▁اٻي	-3938
▁پٽي	-3939
▁ميشه	-3940
▁نصيب	-3941
▁تعليق	-3942
▁سنوار	-3943
▁}	-3944
▁شتر	-3945
▁موڊ	-3946
▁تابع	-3947
▁فائر	-3948
▁يليا	-3949
▁انح	-3950
▁تها	-3951
▁نيد	-3952
▁سکيا	-3953
▁ُنهن	-3954
▁گهرج	-3955
▁رهائش	-3956
▁مصروف	-3957
▁قبر	-3958
▁مول	-3959
▁نفي	-3960
▁هرو	-3961
▁پبل	-3962
▁سارا	-3963
▁هائوس	-3964
هرا	-3965
▁هوم	-3966
▁پنڌ	-3967
▁صراح	-3968
مار	-3969
▁lin	-3970
▁ليب	-3971
▁مٿين	-3972
▁نڪتو	-3973
▁اوچتو	-3974
پور	-3975
▁qu	-3976
▁ڪڻ	-3977
▁con	-3978
▁نعم	-3979
▁نيٺ	-3980
▁ئونسل	-3981
▁ڏيندڙ	-3982
▁اء	-3983
▁ائم	-3984
▁حدي	-3985
▁ديس	-3986
▁نقط	-3987
▁ويڪ	-3988
▁ھئا	-3989
▁انڊيا	-3990
▁بدلائ	-3991
▁رياضي	-3992
▁فريڪا	-3993
▁مقصدن	-3994
▁کوليو	-3995
▁pa	-3996
▁هيل	-3997
▁خاني	-3998
▁فاصل	-3999
▁يوان	-4000
▁انگيز	-4001
si	-4002
▁so	-4003
▁هَ	-4004
▁عاش	-4005
▁يزر	-4006
▁انجڻ	-4007
▁رکيل	-4008
▁ااااي	-4009
▁موڪلي	-4010
▁وفيسر	-4011
ID	-4012
▁اٿي	-4013
▁وڙه	-4014
▁شعبي	-4015
▁لکند	-4016
▁ڀائر	-4017
▁ڪرين	-4018
▁آڻيند	-4019
▁انسٽا	-4020
▁مآ	-4021
▁اکر	-4022
▁منح	-4023
▁ويت	-4024
▁ندگي	-4025
▁روائي	-4026
▁لاسٽڪ	-4027
▁هڙيون	-4028
▁وزاني	-4029
دد	-4030
▁تنگ	-4031
▁چيف	-4032
▁ڦير	-4033
▁گهرا	-4034
ميم	-4035
▁il	-4036
▁انڌ	-4037
▁ڊيم	-4038
▁فورم	-4039
▁منٽن	-4040
▁ئب	-4041
▁لٽي	-4042
▁آندو	-4043
▁اياز	-4044
▁ترجي	-4045
▁پالڻ	-4046
▁گهري	-4047
بول	-4048
▁حسب	-4049
▁ظلم	-4050
▁يتن	-4051
▁استح	-4052
▁بيٺو	-4053
▁بررسي	-4054
▁sp	-4055
▁(1)	-4056
▁بٽڻ	-4057
▁زون	-4058
▁هاڙ	-4059
▁ڊسپ	-4060
▁ڻيو	-4061
▁اڻان	-4062
▁آهستي	-4063
▁ايڪسپ	-4064
▁حصيدا	-4065
▁ڪميٽي	-4066
▁خب	-4067
▁ڇڪ	-4068
▁ميچ	-4069
▁نگي	-4070
▁پنجن	-4071
wa	-4072
▁جھڙ	-4073
▁شنگ	-4074
▁لئه	-4075
▁لڪا	-4076
▁اُهو	-4077
▁سادو	-4078
▁بازار	-4079
▁ملندي	-4080
▁هٿيار	-4081
▁هڙيءَ	-4082
▁يٿ	-4083
▁وسو	-4084
▁حرڪت	-4085
▁حملو	-4086
▁ذهني	-4087
▁پاسو	-4088
▁سپورٽ	-4089
يوم	-4090
▁کرد	-4091
▁ڪاغ	-4092
▁طالب	-4093
▁عباد	-4094
▁فيشن	-4095
▁خبرون	-4096
▁رکندو	-4097
▁ميوزڪ	-4098
مين	-4099
▁آڇ	-4100
▁رار	-4101
▁شڪا	-4102
▁ضرب	-4103
▁عڪس	-4104
▁چينل	-4105
▁ڪيان	-4106
▁ڀرسان	-4107
▁لچ	-4108
▁جنٽ	-4109
▁قاض	-4110
▁ويزن	-4111
▁ائڪ	-4112
▁گول	-4113
▁ھين	-4114
▁دفعي	-4115
▁ياسين	-4116
▁جوڳ	-4117
▁عذاب	-4118
▁يشيا	-4119
▁جارتي	-4120
▁صنعتي	-4121
▁خطرو	-4122
▁زمرو	-4123
▁ترجيح	-4124
▁تقرير	-4125
▁چوندو	-4126
▁;	-4127
▁نوي	-4128
▁ڪاغذ	-4129
▁رڙ	-4130
▁pro	-4131
▁چيم	-4132
▁اٿئي	-4133
▁بيهي	-4134
▁رئيس	-4135
▁ويٺي	-4136
▁سڀاڻي	-4137
▁منحصر	-4138
▁bi	-4139
▁فنڪ	-4140
▁نتق	-4141
▁يلز	-4142
▁ڊيل	-4143
▁دگار	-4144
▁ڳنڍيل	-4145
صوب	-4146
▁دوم	-4147
▁هائ	-4148
▁وڌڻ	-4149
▁پتو	-4150
▁لاهي	-4151
▁مائٽ	-4152
▁متحد	-4153
▁مطال	-4154
▁پائي	-4155
▁فنڪشن	-4156
▁منصوب	-4157
▁نظوري	-4158
▁fi	-4159
▁ڻو	-4160
▁سيم	-4161
▁عرض	-4162
▁ڀيڻ	-4163
▁رکون	-4164
▁قدرت	-4165
▁وارث	-4166
▁رمايو	-4167
▁طالبو	-4168
▁مرڻ	-4169
▁هيم	-4170
▁گار	-4171
▁شيءَ	-4172
▁وزانو	-4173
▁no	-4174
▁حظ	-4175
▁سس	-4176
▁لوب	-4177
▁مٽي	-4178
▁جرمن	-4179
▁مادي	-4180
▁موثر	-4181
▁هفتن	-4182
▁ينٽي	-4183
▁خلاقي	-4184
▁سيکار	-4185
▁چوڌار	-4186
ريت	-4187
▁تُ	-4188
▁شپ	-4189
▁اسي	-4190
▁بشر	-4191
▁جنن	-4192
▁ماهي	-4193
▁مقام	-4194
▁بيمار	-4195
▁ريٽري	-4196
ٽيف	-4197
▁ئج	-4198
▁ذخ	-4199
▁كف	-4200
▁ڪرڻي	-4201
▁اندار	-4202
▁بعدين	-4203
▁عاملن	-4204
ثير	-4205
▁لڙ	-4206
▁نڀ	-4207
▁ڪڙ	-4208
▁شاپ	-4209
▁لمح	-4210
▁لور	-4211
▁عادت	-4212
▁رادري	-4213
▁مظاهر	-4214
▁ضع	-4215
▁مٽ	-4216
▁چا	-4217
▁سيل	-4218
▁ٽوڙ	-4219
▁وئين	-4220
▁اصلاح	-4221
▁سرٽيف	-4222
▁لازمن	-4223
▁وڌندڙ	-4224
▁ڪلاڪن	-4225
ظا	-4226
▁et	-4227
▁هآ	-4228
▁جهه	-4229
▁ريون	-4230
▁عاشق	-4231
▁ڪاوڙ	-4232
▁معيشت	-4233
▁نسانن	-4234
▁طئي	-4235
▁مشق	-4236
▁چئن	-4237
▁نسبت	-4238
▁پذير	-4239
▁ڪلام	-4240
▁تنقيد	-4241
لوڊ	-4242
▁هذي	-4243
▁وپن	-4244
▁زياد	-4245
▁پيرن	-4246
▁قسمتي	-4247
▁۰	-4248
لاف	-4249
▁الح	-4250
▁فضل	-4251
▁ليز	-4252
▁ڀائ	-4253
▁تشدد	-4254
▁هائي	-4255
▁خارجي	-4256
▁ذريعن	-4257
▁رَ	-4258
▁صلى	-4259
▁قيد	-4260
▁حوصل	-4261
▁نامه	-4262
▁وجودگ	-4263
سيم	-4264
▁ميه	-4265
▁وٽو	-4266
▁وڪيو	-4267
▁ارادو	-4268
▁برسات	-4269
▁شهرين	-4270
▁ناقاب	-4271
▁ونلوڊ	-4272
ne	-4273
▁دس	-4274
▁ڇڙ	-4275
▁رائع	-4276
▁علمي	-4277
▁مضحك	-4278
▁يييي	-4279
▁انتظا	-4280
▁لغ	-4281
▁جيب	-4282
▁يوه	-4283
▁گنج	-4284
ؤر	-4285
ناڪ	-4286
▁عث	-4287
▁اُھ	-4288
▁سمه	-4289
▁مزا	-4290
▁هدي	-4291
▁ولد	-4292
▁يارڪ	-4293
▁سوالن	-4294
▁ڀرپور	-4295
▁90	-4296
▁Ch	-4297
▁نچ	-4298
▁ڇل	-4299
▁نجها	-4300
▁تحرير	-4301
▁طرناڪ	-4302
▁مڪاني	-4303
▁نصوبن	-4304
▁ڏسندي	-4305
ڪيل	-4306
▁جوش	-4307
▁خوي	-4308
▁اسٽيل	-4309
▁سڃاتو	-4310
▁فائدا	-4311
▁ٻولين	-4312
▁حلى	-4313
▁اُتي	-4314
▁جامع	-4315
▁دائر	-4316
▁ذخير	-4317
▁پاني	-4318
▁عبادت	-4319
▁ri	-4320
▁فيك	-4321
▁نصب	-4322
▁پڪڙ	-4323
▁ڪنڌ	-4324
▁باڪس	-4325
▁مرضي	-4326
▁نڪرڻ	-4327
▁متحرڪ	-4328
▁(2	-4329
▁بندر	-4330
▁ليڪس	-4331
▁مقبول	-4332
وت	-4333
ميرا	-4334
▁پڙھ	-4335
▁حيات	-4336
▁ڏسند	-4337
▁ئيندي	-4338
▁خوراڪ	-4339
▁نهايت	-4340
▁ورهين	-4341
▁وآ	-4342
▁امل	-4343
▁ٽرڪ	-4344
▁ڪاٺ	-4345
▁آھيون	-4346
▁ئميرا	-4347
▁سانيت	-4348
▁Me	-4349
▁ٿڪ	-4350
▁آرٽ	-4351
▁بلڪه	-4352
▁قريبا	-4353
▁مثالي	-4354
▁مرحله	-4355
▁تبا	-4356
▁ورج	-4357
▁ليون	-4358
▁ترميم	-4359
▁وليون	-4360
▁ماڳ	-4361
▁ڏهه	-4362
▁اڏام	-4363
▁مانس	-4364
▁چمڙي	-4365
▁عتبار	-4366
▁ڪناري	-4367
▁زوج	-4368
▁ارائ	-4369
▁کنيو	-4370
کو	-4371
▁·	-4372
طان	-4373
▁sta	-4374
▁ولپ	-4375
▁اديب	-4376
▁بچائي	-4377
▁ex	-4378
▁ڇر	-4379
▁اخذ	-4380
▁صبر	-4381
▁ڪڙي	-4382
▁ئيشن	-4383
▁هندڙ	-4384
▁ينءَ	-4385
▁ابليت	-4386
▁نتقلي	-4387
▁هلائي	-4388
▁2-	-4389
▁70	-4390
▁ابت	-4391
▁طوف	-4392
▁بالغ	-4393
▁هاري	-4394
▁هتان	-4395
▁ڊيسڪ	-4396
▁of	-4397
▁عض	-4398
▁هٽ	-4399
▁بزر	-4400
▁شرم	-4401
▁وست	-4402
▁وما	-4403
▁يڪا	-4404
▁ٽرم	-4405
▁ڏها	-4406
▁ڪتا	-4407
▁خانو	-4408
▁خطري	-4409
▁دفعا	-4410
▁مغرب	-4411
▁23	-4412
▁ve	-4413
▁بك	-4414
▁ديش	-4415
▁موب	-4416
▁رھيا	-4417
▁مستح	-4418
صوم	-4419
▁ry	-4420
▁سئو	-4421
▁ڊيو	-4422
▁able	-4423
▁حديث	-4424
▁حضور	-4425
▁ساڻس	-4426
▁ڊگهو	-4427
▁نھيءَ	-4428
▁ووووو	-4429
▁وڌايو	-4430
▁du	-4431
▁ph	-4432
▁آم	-4433
▁tor	-4434
▁بيل	-4435
▁زيد	-4436
▁كين	-4437
▁ائتي	-4438
▁اٽڪل	-4439
▁سهڻي	-4440
▁قبضو	-4441
▁اليوم	-4442
▁طوفان	-4443
▁ماهرن	-4444
▁نظارو	-4445
▁يونان	-4446
▁5.	-4447
▁جشن	-4448
▁يتي	-4449
▁بليو	-4450
▁ناھي	-4451
▁حصا	-4452
▁خيل	-4453
▁گند	-4454
▁بنات	-4455
▁جماعت	-4456
▁28	-4457
▁dh	-4458
▁رل	-4459
▁ity	-4460
▁عالي	-4461
▁كثير	-4462
▁معاف	-4463
▁سگهيا	-4464
▁فارسي	-4465
▁^^	-4466
▁كس	-4467
▁الك	-4468
▁حتر	-4469
▁دؤر	-4470
▁فزا	-4471
▁پکڙ	-4472
▁ثبوت	-4473
▁شريڪ	-4474
▁سرهند	-4475
▁شاخ	-4476
▁ڪتي	-4477
▁ٽائيم	-4478
▁ۈ	-4479
▁رڊ	-4480
▁اتل	-4481
▁صنف	-4482
▁لڳل	-4483
▁ڊڪٽ	-4484
▁ڏوه	-4485
▁اندا	-4486
▁تعال	-4487
▁ستار	-4488
▁سختي	-4489
▁ريڊيو	-4490
▁زائين	-4491
▁عاشري	-4492
▁يماني	-4493
▁Su	-4494
▁رأ	-4495
▁لر	-4496
▁اده	-4497
▁لكم	-4498
▁ڪمن	-4499
▁اپيل	-4500
▁باني	-4501
▁خوبي	-4502
▁مزدور	-4503
▁ke	-4504
▁ڪث	-4505
▁معك	-4506
▁ملو	-4507
▁کنڊ	-4508
▁وڌند	-4509
▁وڪري	-4510
▁يارا	-4511
▁معصوم	-4512
▁ڏند	-4513
▁حيدر	-4514
▁خارج	-4515
▁ڊومين	-4516
wi	-4517
▁Ca	-4518
▁ائتو	-4519
▁فيلڊ	-4520
▁مريم	-4521
▁فرادي	-4522
▁يامبر	-4523
ئس	-4524
▁اذ	-4525
▁ذر	-4526
▁ڌم	-4527
▁رمي	-4528
▁بلاڪ	-4529
▁همرا	-4530
▁ويٺا	-4531
▁ڪيئي	-4532
▁ارليا	-4533
▁حترام	-4534
▁جَ	-4535
▁زل	-4536
▁شغ	-4537
▁بچڻ	-4538
▁ڄڻا	-4539
▁تباهه	-4540
▁قربان	-4541
▁پڙهند	-4542
▁نيجر	-4543
▁ملندو	-4544
▁Ho	-4545
▁قق	-4546
▁لٿ	-4547
▁رڪا	-4548
▁همڻ	-4549
▁ڪيج	-4550
▁پائڻ	-4551
▁ٿورڙ	-4552
▁علامه	-4553
▁قاعده	-4554
▁جوا	-4555
▁سمي	-4556
▁ويٽ	-4557
▁آخرين	-4558
▁مجهند	-4559
▁نتيجن	-4560
▁آڏو	-4561
▁ائر	-4562
▁ائش	-4563
▁برن	-4564
▁جڳه	-4565
▁شفت	-4566
▁اختي	-4567
▁رينج	-4568
▁جس	-4569
▁نح	-4570
▁Awa	-4571
▁ارم	-4572
▁جيٽ	-4573
▁خطي	-4574
▁يكم	-4575
▁نامو	-4576
▁ننڍڙي	-4577
ائب	-4578
▁De	-4579
▁آرڪ	-4580
▁ماع	-4581
▁ڏهن	-4582
▁ڏٺا	-4583
▁ڪست	-4584
▁ڪلب	-4585
▁ياني	-4586
▁گهرو	-4587
▁التون	-4588
▁ختلاف	-4589
▁nk	-4590
▁أخ	-4591
▁اڀ	-4592
▁ڊا	-4593
▁ڙڪ	-4594
▁بيا	-4595
▁اسٽر	-4596
▁حالي	-4597
▁اسٽاڪ	-4598
▁نڪرند	-4599
فيد	-4600
▁سح	-4601
▁age	-4602
▁حمد	-4603
▁فاع	-4604
▁بهار	-4605
▁رندڙ	-4606
▁ليڪن	-4607
▁پريم	-4608
▁چايو	-4609
▁اسانج	-4610
▁كك	-4611
▁یک	-4612
▁اڪر	-4613
▁بني	-4614
▁رھي	-4615
▁مئن	-4616
▁يزا	-4617
▁ڏاڏ	-4618
▁ڙها	-4619
▁اعرف	-4620
▁اليه	-4621
▁ورتا	-4622
▁پڙهو	-4623
▁ڀريو	-4624
▁توسان	-4625
▁لڳائڻ	-4626
▁27	-4627
▁ليج	-4628
▁ڀاڱ	-4629
▁ڊسڪ	-4630
▁تازي	-4631
▁تضحك	-4632
▁دانش	-4633
▁ننڍو	-4634
▁ٺهرا	-4635
▁ڏهاڪ	-4636
▁ڪريم	-4637
▁سياري	-4638
▁صحافي	-4639
▁صفائي	-4640
▁ے	-4641
▁."	-4642
▁ڄا	-4643
▁اڀر	-4644
▁سنه	-4645
▁كمل	-4646
▁منك	-4647
▁صفحو	-4648
▁تقسيم	-4649
▁زمائش	-4650
▁آزم	-4651
▁آڪس	-4652
▁سوس	-4653
▁عزم	-4654
▁يبت	-4655
▁انها	-4656
▁بزرگ	-4657
▁ورزن	-4658
▁پنجاب	-4659
mo	-4660
▁فى	-4661
▁Sin	-4662
▁gra	-4663
▁خلق	-4664
▁زهر	-4665
▁منا	-4666
▁نند	-4667
▁نگا	-4668
▁هينا	-4669
▁والو	-4670
▁چانه	-4671
▁روفائ	-4672
▁سردار	-4673
▁مونڊي	-4674
▁26	-4675
▁نيل	-4676
▁ورة	-4677
▁پهت	-4678
▁سرما	-4679
▁مقال	-4680
▁منتد	-4681
▁ومين	-4682
▁ڪورس	-4683
▁ددگار	-4684
▁مايوس	-4685
▁واقعو	-4686
▁۳	-4687
برا	-4688
▁شيد	-4689
▁عليك	-4690
▁ياڻي	-4691
▁وٽيوب	-4692
▁يالله	-4693
▁ٺاهيل	-4694
▁ڪيميا	-4695
▁Pa	-4696
▁iz	-4697
▁تبص	-4698
▁ريگ	-4699
▁مزي	-4700
▁مڪي	-4701
▁يڻو	-4702
▁پلس	-4703
▁ment	-4704
▁ارٽر	-4705
▁تسلم	-4706
▁دارا	-4707
▁شرطن	-4708
▁فلٽر	-4709
▁مفيد	-4710
▁بدي	-4711
▁حيد	-4712
▁هيت	-4713
▁ڙيل	-4714
▁اھڙي	-4715
▁ليئر	-4716
▁وازن	-4717
▁پيپل	-4718
▁ڊرام	-4719
▁مستقل	-4720
▁ِر	-4721
▁sub	-4722
▁تلا	-4723
▁حبت	-4724
▁وول	-4725
▁ريئر	-4726
▁ريال	-4727
▁گهٽتا	-4728
▁آت	-4729
▁تأ	-4730
▁عيش	-4731
▁كذا	-4732
▁غائب	-4733
▁نوار	-4734
▁وهڪر	-4735
▁يگرن	-4736
▁شڪايت	-4737
▁شل	-4738
▁ڏڪ	-4739
▁بنگ	-4740
▁مٿا	-4741
▁نيڻ	-4742
▁انوي	-4743
▁عملن	-4744
▁عيون	-4745
▁نقطي	-4746
▁تبصرو	-4747
▁رهنما	-4748
▁سپريم	-4749
de	-4750
▁٠	-4751
▁ٽا	-4752
▁ارض	-4753
▁زيو	-4754
▁شرف	-4755
▁دارت	-4756
▁فيها	-4757
▁همراه	-4758
موع	-4759
▁عج	-4760
▁per	-4761
▁الم	-4762
▁خلي	-4763
▁شنو	-4764
▁چيئ	-4765
▁مارجي	-4766
▁mo	-4767
▁صري	-4768
▁لما	-4769
▁پيل	-4770
▁چڪر	-4771
▁رهجي	-4772
▁مجاز	-4773
▁پاڙي	-4774
▁اثرات	-4775
▁be	-4776
▁لٽ	-4777
▁ght	-4778
▁اھر	-4779
▁سنئ	-4780
▁حملي	-4781
▁سومر	-4782
▁مشكور	-4783
▁نهاري	-4784
▁نيٽور	-4785
▁هچائي	-4786
▁يدائش	-4787
▁ڪثريت	-4788
▁der	-4789
▁ent	-4790
▁جهل	-4791
▁ناب	-4792
▁ڪيڏ	-4793
▁الناس	-4794
▁سربرا	-4795
▁واسطو	-4796
▁وچيند	-4797
مپ	-4798
▁یس	-4799
▁جنت	-4800
▁ظاه	-4801
▁همه	-4802
▁يڪو	-4803
▁ٽون	-4804
▁ديوا	-4805
▁ناصر	-4806
▁روانو	-4807
▁فرمان	-4808
▁پڙهيو	-4809
▁قلع	-4810
▁ملن	-4811
▁هئو	-4812
▁ڪرس	-4813
▁رڪنن	-4814
▁عادي	-4815
▁كمان	-4816
▁يننگ	-4817
▁چوان	-4818
▁سگھوٿ	-4819
▁طانيا	-4820
▁ظاهري	-4821
▁عاهدو	-4822
▁مجموع	-4823
OS	-4824
▁ڻا	-4825
▁all	-4826
▁دهي	-4827
▁مات	-4828
▁هيز	-4829
▁هيڊ	-4830
▁يڊٽ	-4831
▁مسٽر	-4832
▁وليد	-4833
▁يهار	-4834
▁بقا	-4835
▁فنا	-4836
▁ننگ	-4837
▁گڏج	-4838
▁ريزن	-4839
▁مليا	-4840
▁ونئن	-4841
▁خرابي	-4842
▁طالعو	-4843
▁تَ	-4844
▁طق	-4845
▁وع	-4846
▁rch	-4847
▁سرچ	-4848
▁نڌن	-4849
▁هود	-4850
▁واچ	-4851
▁راحت	-4852
▁لندڙ	-4853
▁ڙهائي	-4854
▁Ta	-4855
▁ئل	-4856
▁؟؟؟	-4857
▁لاگ	-4858
▁لوا	-4859
▁صفحه	-4860
▁پرنٽ	-4861
▁هيٺان	-4862
▁ٺه	-4863
▁COV	-4864
▁جدو	-4865
▁رحد	-4866
▁رده	-4867
▁سما	-4868
▁پيج	-4869
▁ڌڻي	-4870
▁دائي	-4871
▁گورن	-4872
▁وبائي	-4873
▁يسائي	-4874
▁ڦر	-4875
▁لاڪ	-4876
▁حران	-4877
▁رمين	-4878
▁ساله	-4879
▁لمهم	-4880
co	-4881
▁Sa	-4882
▁فني	-4883
▁اتان	-4884
▁رهبر	-4885
▁پچ	-4886
▁مرض	-4887
▁هلو	-4888
▁ورت	-4889
▁رنگي	-4890
▁ڪارڻ	-4891
▁COVID	-4892
▁%	-4893
▁rd	-4894
▁كده	-4895
▁كره	-4896
▁همت	-4897
▁واه	-4898
▁ٽاپ	-4899
▁ائڪرو	-4900
▁روزگا	-4901
▁طالعي	-4902
سيل	-4903
▁ئف	-4904
▁حين	-4905
▁يين	-4906
▁ٽيل	-4907
ul	-4908
▁رڪي	-4909
▁سکر	-4910
▁كبر	-4911
▁جزا	-4912
▁شعب	-4913
▁هان	-4914
▁link	-4915
▁قلبي	-4916
▁يڪٽر	-4917
▁ڙهيل	-4918
▁وخ	-4919
▁بقي	-4920
▁ترم	-4921
▁ثار	-4922
▁غذا	-4923
▁هاء	-4924
▁ينر	-4925
▁ُها	-4926
▁چاھ	-4927
▁35	-4928
▁xt	-4929
▁حش	-4930
▁کم	-4931
▁الى	-4932
▁دلج	-4933
▁رشت	-4934
▁فوٽ	-4935
▁پيئ	-4936
▁ڊين	-4937
▁سيار	-4938
▁1-	-4939
▁ir	-4940
▁مود	-4941
▁هِن	-4942
▁يٽا	-4943
▁ٽيگ	-4944
▁لڳائي	-4945
▁cl	-4946
▁fa	-4947
▁دُ	-4948
▁ئيڊ	-4949
▁اڪو	-4950
▁اھا	-4951
▁بهت	-4952
▁سلط	-4953
▁ڻند	-4954
▁رواج	-4955
▁لانا	-4956
▁يتري	-4957
▁يڪسين	-4958
▁La	-4959
▁يچ	-4960
▁لطا	-4961
▁يتا	-4962
▁ماسڪ	-4963
▁سمجهو	-4964
▁موبائ	-4965
▁ٽري	-4966
▁روان	-4967
▁هڪار	-4968
▁ڪرائ	-4969
▁ابدار	-4970
▁پياري	-4971
▁شش	-4972
▁ڌڪ	-4973
▁ئوٽ	-4974
▁غار	-4975
▁پاپ	-4976
▁انيه	-4977
▁نهنج	-4978
▁کولي	-4979
▁مك	-4980
▁ڌو	-4981
▁داس	-4982
▁يبي	-4983
▁ھتي	-4984
▁مائي	-4985
▁un	-4986
▁کو	-4987
▁and	-4988
▁رتب	-4989
▁عطا	-4990
▁ماس	-4991
▁وشت	-4992
▁نامي	-4993
▁تبر	-4994
▁رسل	-4995
▁چشم	-4996
▁کيو	-4997
▁لامي	-4998
▁وڌائ	-4999
▁ڌيءَ	-5000
▁گرفت	-5001
وس	-5002
▁خلت	-5003
▁سكر	-5004
▁كلك	-5005
▁نشي	-5006
▁وسر	-5007
▁استر	-5008
▁انءِ	-5009
▁راهه	-5010
▁كلهم	-5011
▁بش	-5012
▁جهد	-5013
▁وڏين	-5014
▁يابي	-5015
▁سگھند	-5016
mi	-5017
▁Li	-5018
▁nn	-5019
▁يص	-5020
▁راس	-5021
▁سرد	-5022
▁Ro	-5023
▁ورز	-5024
▁سيلي	-5025
▁ئر	-5026
▁نث	-5027
▁ous	-5028
▁امد	-5029
▁بيه	-5030
▁فيڊ	-5031
▁پيء	-5032
▁ھار	-5033
▁دانه	-5034
▁راڄ	-5035
▁شتو	-5036
▁غاز	-5037
▁يلن	-5038
▁حرام	-5039
▁مارڪ	-5040
▁مناف	-5041
▁وائر	-5042
▁إن	-5043
▁حك	-5044
▁يآ	-5045
▁ook	-5046
▁صلي	-5047
▁وجھ	-5048
▁ينچ	-5049
▁لندا	-5050
▁مزاج	-5051
▁هُئي	-5052
▁يندس	-5053
▁شى	-5054
▁ھٿ	-5055
▁برگ	-5056
▁روج	-5057
▁قبض	-5058
▁نڪس	-5059
▁كتير	-5060
▁چڙهي	-5061
کر	-5062
▁ِڪ	-5063
▁(2)	-5064
▁اهه	-5065
▁لود	-5066
▁راڻو	-5067
▁سائن	-5068
▁لڊنگ	-5069
▁نائي	-5070
▁انداز	-5071
▁ای	-5072
▁حرا	-5073
▁ليت	-5074
▁بينا	-5075
▁us	-5076
▁اُٿ	-5077
▁توک	-5078
▁زاز	-5079
▁اشار	-5080
▁انور	-5081
▁ڪيشن	-5082
▁راڻيو	-5083
▁پرائي	-5084
▁جيئ	-5085
▁سمع	-5086
▁گهم	-5087
▁rn	-5088
▁يگه	-5089
▁يائي	-5090
▁نياڻي	-5091
▁3-	-5092
▁ff	-5093
▁po	-5094
▁wi	-5095
▁توا	-5096
▁وبا	-5097
▁پاڙ	-5098
▁کرن	-5099
▁گره	-5100
▁روئي	-5101
▁ماڻي	-5102
▁ريز	-5103
▁هيء	-5104
▁ونڊ	-5105
▁سڪين	-5106
▁ينيٽ	-5107
▁١	-5108
ore	-5109
▁رڻ	-5110
▁يدي	-5111
▁يسا	-5112
▁ينڪ	-5113
▁گيٽ	-5114
▁راڻي	-5115
▁سٽريٽ	-5116
▁do	-5117
▁ذب	-5118
▁وث	-5119
▁ايع	-5120
▁برف	-5121
▁رتي	-5122
▁عدد	-5123
▁يمن	-5124
▁حساس	-5125
▁استان	-5126
▁هك	-5127
▁بڻج	-5128
▁هاڪ	-5129
▁وءَ	-5130
▁ورو	-5131
▁نڪار	-5132
▁همين	-5133
▁راسر	-5134
▁پلائ	-5135
▁يقينا	-5136
▁ينگ	-5137
▁جاني	-5138
▁والا	-5139
▁راف	-5140
▁ُور	-5141
▁اسٽار	-5142
▁اخي	-5143
▁منه	-5144
▁هوڙ	-5145
▁ڏٺي	-5146
▁هوند	-5147
▁يڪٽري	-5148
▁ow	-5149
▁ُٽ	-5150
▁ٺي	-5151
▁ver	-5152
▁ادش	-5153
▁سچي	-5154
▁ليم	-5155
▁هيڙ	-5156
▁صوبي	-5157
▁نگريز	-5158
▁bo	-5159
▁اڏا	-5160
▁ستا	-5161
▁نجه	-5162
▁نهم	-5163
▁ڊيڪل	-5164
▁Sh	-5165
▁لَ	-5166
▁نيب	-5167
▁واڻ	-5168
▁ٽور	-5169
▁مران	-5170
▁جاپان	-5171
▁رمائي	-5172
▁مهمان	-5173
شو	-5174
▁cu	-5175
▁رِ	-5176
▁Pre	-5177
▁حاڪ	-5178
▁رول	-5179
▁نيس	-5180
▁اندي	-5181
▁لايو	-5182
▁گهار	-5183
▁تعالي	-5184
▁ثر	-5185
▁طل	-5186
▁The	-5187
▁افق	-5188
▁امت	-5189
▁سيت	-5190
▁نجي	-5191
▁احسا	-5192
▁معنا	-5193
▁To	-5194
▁وڇ	-5195
▁پاه	-5196
▁tter	-5197
▁29	-5198
▁Go	-5199
▁جِ	-5200
▁حط	-5201
▁ُل	-5202
▁ٽل	-5203
▁بعا	-5204
▁رزا	-5205
▁قبي	-5206
▁وءِ	-5207
▁يپر	-5208
▁کسي	-5209
▁اڙه	-5210
▁بان	-5211
▁ريپ	-5212
▁سجي	-5213
▁طرا	-5214
▁هتا	-5215
▁وهن	-5216
▁حاڪم	-5217
▁برطان	-5218
▁ورهائ	-5219
▁بوڪ	-5220
▁جاي	-5221
▁هني	-5222
▁ومن	-5223
▁ٿڌي	-5224
▁سندي	-5225
▁قطار	-5226
▁مدار	-5227
▁by	-5228
▁ائز	-5229
▁سست	-5230
▁ٻڌا	-5231
▁اسڪا	-5232
كه	-5233
▁پد	-5234
▁ain	-5235
▁تال	-5236
▁سنج	-5237
▁نڊو	-5238
▁هيرو	-5239
▁يرها	-5240
▁پت	-5241
▁ھم	-5242
▁ive	-5243
▁تقا	-5244
▁فرن	-5245
▁ولر	-5246
▁اسڪي	-5247
▁ٽريڪ	-5248
▁ڄاڻو	-5249
▁الائي	-5250
▁رعي	-5251
▁وها	-5252
▁وور	-5253
▁پڇڻ	-5254
▁پورا	-5255
▁مطالب	-5256
كي	-5257
▁sa	-5258
▁،،	-5259
▁كِ	-5260
▁pre	-5261
▁بائ	-5262
▁لاح	-5263
▁اريو	-5264
▁ڌاري	-5265
ود	-5266
▁حذ	-5267
▁نخ	-5268
▁ڙا	-5269
▁one	-5270
▁آور	-5271
▁ازم	-5272
▁تنا	-5273
▁ملت	-5274
▁يپس	-5275
▁بوتل	-5276
▁ندار	-5277
▁mb	-5278
▁yp	-5279
▁ئبو	-5280
▁بها	-5281
▁حري	-5282
▁رعا	-5283
▁سٽا	-5284
▁فلا	-5285
▁ونج	-5286
▁يلر	-5287
▁ڪتو	-5288
▁گلن	-5289
▁ريزي	-5290
▁ru	-5291
▁تظ	-5292
▁لھ	-5293
▁الب	-5294
▁اعدو	-5295
▁جيون	-5296
▁ستگي	-5297
▁ليشن	-5298
▁انب	-5299
▁مدل	-5300
▁وهر	-5301
▁يڊا	-5302
▁پڙه	-5303
▁ريري	-5304
▁۴	-5305
▁cr	-5306
▁ur	-5307
▁تِ	-5308
▁her	-5309
▁آيت	-5310
▁صدا	-5311
▁عرص	-5312
▁ونا	-5313
▁پھر	-5314
▁شاهي	-5315
▁٢	-5316
▁if	-5317
▁لأ	-5318
▁دول	-5319
▁صفا	-5320
▁نكم	-5321
▁نڪي	-5322
▁بيني	-5323
▁هيلو	-5324
▁ٽت	-5325
▁للي	-5326
▁لڪو	-5327
▁يبل	-5328
▁يرت	-5329
▁هستي	-5330
▁چهري	-5331
▁ia	-5332
▁چن	-5333
▁جبت	-5334
▁وٽن	-5335
▁پمپ	-5336
NT	-5337
▁א	-5338
▁(3	-5339
▁31	-5340
▁زڪ	-5341
▁ine	-5342
▁تير	-5343
▁اڻون	-5344
▁بندو	-5345
ره	-5346
▁ئا	-5347
▁يط	-5348
▁ڀو	-5349
▁اهر	-5350
▁صاب	-5351
▁صاد	-5352
▁ميت	-5353
▁وگو	-5354
▁يسو	-5355
▁ڪئن	-5356
▁گهي	-5357
▁ڪيبل	-5358
▁وشيءَ	-5359
ia	-5360
▁لپ	-5361
▁تاح	-5362
▁بادشا	-5363
▁्	-5364
▁45	-5365
▁od	-5366
▁بُ	-5367
▁شكر	-5368
▁هاا	-5369
▁وتا	-5370
▁يڏي	-5371
▁ٽيڊ	-5372
▁ناسي	-5373
▁ڏيون	-5374
are	-5375
ابند	-5376
▁ame	-5377
▁ديت	-5378
▁سمس	-5379
▁پڇي	-5380
▁ھجي	-5381
▁عيسي	-5382
▁نيون	-5383
▁پابند	-5384
▁دع	-5385
▁ُڇ	-5386
▁ٻا	-5387
▁ڪڪ	-5388
▁500	-5389
▁est	-5390
▁بري	-5391
▁بچي	-5392
▁ناچ	-5393
▁ائبر	-5394
▁صديق	-5395
▁فيئر	-5396
▁ئيندڙ	-5397
▁Ba	-5398
▁شف	-5399
▁اجل	-5400
▁بنج	-5401
▁ڪمال	-5402
▁US	-5403
▁صول	-5404
▁قصد	-5405
▁چاپ	-5406
▁گها	-5407
▁يريا	-5408
▁ub	-5409
▁ری	-5410
▁شار	-5411
▁ميٽ	-5412
▁وڳي	-5413
▁ندڙن	-5414
▁يوند	-5415
▁گرين	-5416
es	-5417
امل	-5418
▁da	-5419
▁زز	-5420
▁وٽا	-5421
▁چاه	-5422
▁●	-5423
▁جڻ	-5424
▁سڳ	-5425
▁200	-5426
▁ايي	-5427
▁مرت	-5428
un	-5429
▁gn	-5430
▁up	-5431
▁enc	-5432
▁man	-5433
▁معم	-5434
▁منو	-5435
▁هره	-5436
▁ڪنگ	-5437
▁احتي	-5438
▁رندي	-5439
▁رغ	-5440
▁hat	-5441
▁اجي	-5442
▁اڊا	-5443
▁رور	-5444
▁زخم	-5445
▁عذر	-5446
▁مسك	-5447
▁نھن	-5448
▁يٽي	-5449
▁ٽيو	-5450
▁عارف	-5451
▁فائد	-5452
▁پيرا	-5453
▁هس	-5454
▁آند	-5455
▁ابا	-5456
▁رند	-5457
▁مشا	-5458
▁هول	-5459
▁هيب	-5460
▁ونٽ	-5461
▁يجي	-5462
▁پرا	-5463
▁ڇهه	-5464
▁سروي	-5465
▁°	-5466
▁nce	-5467
▁ائج	-5468
▁ليك	-5469
▁پين	-5470
▁لمون	-5471
يف	-5472
▁يض	-5473
▁ڄي	-5474
▁out	-5475
▁لڪن	-5476
▁ناهه	-5477
▁گولي	-5478
▁معمول	-5479
ڇا	-5480
▁َس	-5481
▁ٺا	-5482
▁اوا	-5483
▁خشڪ	-5484
▁سئل	-5485
▁ستو	-5486
▁يرس	-5487
▁گوا	-5488
▁نياز	-5489
▁پيون	-5490
▁۵	-5491
▁؟!	-5492
▁يء	-5493
▁اقل	-5494
▁داع	-5495
▁شدت	-5496
▁نيپ	-5497
▁اوند	-5498
▁جنگي	-5499
▁£	-5500
▁Mo	-5501
▁راض	-5502
▁هرا	-5503
▁وزر	-5504
▁يمه	-5505
▁ٽلي	-5506
▁چئو	-5507
▁گهڙ	-5508
▁رمان	-5509
▁ns	-5510
▁هڙ	-5511
▁وأ	-5512
▁ڻن	-5513
▁شنا	-5514
▁فيت	-5515
▁ريڪا	-5516
▁يسين	-5517
▁ڪڏھن	-5518
▁رٽس	-5519
▁لچڪ	-5520
▁هها	-5521
▁واز	-5522
▁اسڪر	-5523
▁غيره	-5524
▁ئيندو	-5525
▁ماريو	-5526
▁۹	-5527
▁طف	-5528
▁بست	-5529
▁جهو	-5530
▁فتو	-5531
▁ميڊ	-5532
▁ِين	-5533
▁ڏور	-5534
▁ڪوٺ	-5535
▁ترسيل	-5536
one	-5537
▁use	-5538
▁انئ	-5539
▁جيد	-5540
▁سرت	-5541
▁موم	-5542
▁رپيا	-5543
▁سنگت	-5544
▁ميٽي	-5545
▁تظامي	-5546
CL	-5547
▁أي	-5548
▁دب	-5549
▁زد	-5550
▁ڌي	-5551
▁کس	-5552
▁ابر	-5553
▁بحر	-5554
▁اااي	-5555
▁رياض	-5556
▁فريق	-5557
▁ميونس	-5558
▁wa	-5559
▁يڏ	-5560
▁درا	-5561
▁ٽار	-5562
▁ڪتب	-5563
▁ڪتن	-5564
▁مادر	-5565
▁وڙهي	-5566
▁ڪوڪي	-5567
ub	-5568
▁36	-5569
▁سمجه	-5570
وز	-5571
▁um	-5572
▁أل	-5573
▁هب	-5574
▁ائد	-5575
▁اوب	-5576
▁رمض	-5577
▁نده	-5578
▁ٿڌو	-5579
▁ڳائڻ	-5580
▁ئيندا	-5581
▁زع	-5582
▁ڀت	-5583
▁Twi	-5584
▁الش	-5585
▁ترڪ	-5586
▁رجع	-5587
▁طبع	-5588
▁نگل	-5589
▁وبل	-5590
▁يئڻ	-5591
▁زوال	-5592
▁ناسب	-5593
▁ٽيءَ	-5594
ll	-5595
▁ure	-5596
▁جاب	-5597
▁زاد	-5598
▁ونگ	-5599
▁نينگر	-5600
▁وی	-5601
▁بلڊ	-5602
▁سچو	-5603
▁قرا	-5604
▁قرب	-5605
▁رستن	-5606
▁ې	-5607
▁ble	-5608
▁تخت	-5609
▁ساه	-5610
▁نڪا	-5611
▁ودا	-5612
▁ياء	-5613
▁ڙڪا	-5614
▁رستا	-5615
▁زيشن	-5616
▁كلها	-5617
▁لنگه	-5618
▁ملائي	-5619
▁Sp	-5620
▁ذي	-5621
▁باش	-5622
▁ربع	-5623
▁سٽس	-5624
▁شئي	-5625
▁وندي	-5626
▁پبلڪ	-5627
▁رگ	-5628
▁نک	-5629
▁يئ	-5630
▁رڪس	-5631
▁سدا	-5632
▁پنگ	-5633
▁ڇڪڻ	-5634
▁رويي	-5635
▁لوج	-5636
▁يوس	-5637
▁پيچ	-5638
▁چيس	-5639
▁مام	-5640
▁نڀا	-5641
▁چيل	-5642
▁ائٽي	-5643
▁نظري	-5644
▁An	-5645
▁نڍ	-5646
▁ڇت	-5647
▁tra	-5648
▁ula	-5649
▁ارڊ	-5650
▁ايز	-5651
▁فرم	-5652
▁لڳن	-5653
▁ميش	-5654
▁گلي	-5655
▁ڏياري	-5656
▁HT	-5657
▁بِ	-5658
▁Pro	-5659
▁منص	-5660
▁ودو	-5661
▁وسٽ	-5662
▁يگز	-5663
▁گان	-5664
▁ادائ	-5665
▁گلاب	-5666
▁ائيءَ	-5667
▁چونڊي	-5668
زر	-5669
▁Sea	-5670
▁اكم	-5671
▁فنڊ	-5672
▁لڪي	-5673
▁هڻو	-5674
▁وٺن	-5675
▁ارون	-5676
▁پِ	-5677
▁ess	-5678
▁اتم	-5679
▁ثير	-5680
▁زيل	-5681
▁سٺا	-5682
▁نتا	-5683
▁ڀٽو	-5684
▁form	-5685
▁انيا	-5686
▁روري	-5687
يني	-5688
▁هپ	-5689
▁آلو	-5690
▁رير	-5691
▁ستن	-5692
▁سود	-5693
▁هوٽ	-5694
▁پيس	-5695
▁ڀلو	-5696
▁چيٽ	-5697
▁ميري	-5698
▁نازل	-5699
sa	-5700
آآ	-5701
ابل	-5702
▁go	-5703
▁وھ	-5704
▁New	-5705
▁حلي	-5706
▁ليف	-5707
▁مشن	-5708
▁يشي	-5709
▁يٺي	-5710
▁ڏجي	-5711
lay	-5712
▁[.	-5713
▁اڍ	-5714
▁رث	-5715
▁تور	-5716
▁راء	-5717
▁اسٽا	-5718
▁مرور	-5719
▁ديوان	-5720
▁لى	-5721
▁شال	-5722
▁لمو	-5723
▁وون	-5724
▁يوٽ	-5725
▁تبصر	-5726
▁pt	-5727
▁ئو	-5728
▁ضد	-5729
▁لت	-5730
▁حفظ	-5731
▁ساني	-5732
يلت	-5733
▁ٻو	-5734
▁جين	-5735
▁رقي	-5736
▁لاٽ	-5737
▁ڪيپ	-5738
▁اڪيل	-5739
▁يرين	-5740
كت	-5741
▁ा	-5742
▁خذ	-5743
▁شئ	-5744
▁فح	-5745
▁ٽپ	-5746
▁ڙھ	-5747
▁احم	-5748
▁اھم	-5749
▁نڊا	-5750
▁گئس	-5751
▁دعوي	-5752
▁يلاپ	-5753
▁رباني	-5754
▁مهارت	-5755
▁32	-5756
▁شک	-5757
▁ظر	-5758
▁غر	-5759
▁َـ	-5760
▁ٻج	-5761
▁کپ	-5762
▁جھو	-5763
▁دلي	-5764
▁سڄڻ	-5765
▁نيت	-5766
▁پلگ	-5767
▁چال	-5768
▁bu	-5769
▁iOS	-5770
▁ted	-5771
▁tin	-5772
▁ئسن	-5773
▁نشا	-5774
▁يران	-5775
▁پروف	-5776
▁شھ	-5777
▁oin	-5778
▁wor	-5779
▁شاھ	-5780
▁لڪل	-5781
▁يوو	-5782
▁ٽول	-5783
▁ڇهن	-5784
▁ڪوئ	-5785
▁اسڪو	-5786
▁هيان	-5787
▁ينهن	-5788
▁اخلاق	-5789
▁❤	-5790
▁ريب	-5791
▁ارات	-5792
▁كد	-5793
▁لج	-5794
▁اسك	-5795
▁بجي	-5796
▁دنا	-5797
▁قوي	-5798
▁لهم	-5799
▁ماٺ	-5800
▁ڏيک	-5801
▁استن	-5802
▁حليل	-5803
▁دلين	-5804
▁زادي	-5805
▁فضيلت	-5806
▁6.	-5807
▁رص	-5808
▁اسه	-5809
▁سوئ	-5810
▁نزل	-5811
▁ورچ	-5812
▁وهو	-5813
▁وليو	-5814
▁ينيو	-5815
▁ينڊر	-5816
▁ڪوٺي	-5817
▁yo	-5818
▁جرا	-5819
▁رجن	-5820
▁لاڙ	-5821
▁يمي	-5822
▁ھلي	-5823
▁دانن	-5824
خا	-5825
▁ِل	-5826
▁برچ	-5827
▁سڪي	-5828
▁معه	-5829
▁وڃائ	-5830
▁رمضان	-5831
▁Na	-5832
▁تک	-5833
▁لُ	-5834
▁ُڪ	-5835
▁چُ	-5836
▁عدم	-5837
▁فال	-5838
▁زيور	-5839
▁ڊڪٽس	-5840
lu	-5841
▁ho	-5842
▁حمت	-5843
▁هنر	-5844
▁التو	-5845
▁جايو	-5846
▁قريب	-5847
▁اريند	-5848
▁بينڪن	-5849
ca	-5850
▁♥	-5851
▁2)	-5852
▁آمر	-5853
▁ابد	-5854
▁ريئ	-5855
▁ويژ	-5856
▁داره	-5857
▁سگهج	-5858
▁ڻندڙ	-5859
▁र	-5860
▁4-	-5861
▁تى	-5862
▁سد	-5863
▁لش	-5864
▁نی	-5865
▁ابن	-5866
▁دني	-5867
▁ساس	-5868
▁نجر	-5869
▁ڏھن	-5870
▁ڪول	-5871
▁ڪڍڻ	-5872
▁الات	-5873
▁امور	-5874
▁اڻيو	-5875
▁راجا	-5876
▁يشنل	-5877
▁ضم	-5878
▁بدن	-5879
▁ساد	-5880
▁محد	-5881
▁نڊل	-5882
▁ينك	-5883
▁ڀڄي	-5884
▁مراد	-5885
▁گناه	-5886
گرم	-5887
▁بَ	-5888
▁اجر	-5889
▁صوف	-5890
▁مٿس	-5891
▁وڻن	-5892
▁کٽي	-5893
▁رولي	-5894
▁سڳور	-5895
▁ديوتا	-5896
▁ُو	-5897
▁احل	-5898
▁اِن	-5899
▁تمي	-5900
▁رهه	-5901
▁ريه	-5902
▁هيڏ	-5903
▁يله	-5904
▁پتي	-5905
▁دٻاء	-5906
▁قيدي	-5907
▁wh	-5908
▁نُ	-5909
▁يَ	-5910
▁احب	-5911
▁فيد	-5912
▁لبر	-5913
▁سنجي	-5914
▁صادق	-5915
▁ٽايو	-5916
▁اهيند	-5917
▁سرگرم	-5918
▁گرافي	-5919
EM	-5920
وق	-5921
▁Ad	-5922
▁تڙ	-5923
▁خلو	-5924
▁فرو	-5925
▁لمي	-5926
▁ناھ	-5927
▁نشر	-5928
▁نجات	-5929
▁ڏيند	-5930
▁rea	-5931
▁تست	-5932
▁جري	-5933
▁شرا	-5934
▁عظم	-5935
▁ھنن	-5936
▁جمعي	-5937
▁جپان	-5938
▁راجع	-5939
▁مهينو	-5940
▁مڻ	-5941
▁می	-5942
▁هاد	-5943
▁يزن	-5944
▁ڪائي	-5945
▁اصلات	-5946
ir	-5947
▁(4	-5948
▁Da	-5949
▁ڏو	-5950
▁ئجي	-5951
▁ادت	-5952
▁تبي	-5953
▁سهي	-5954
▁لنا	-5955
▁وڪا	-5956
▁ڪشن	-5957
▁دوزخ	-5958
ep	-5959
▁fe	-5960
▁سٺ	-5961
▁برت	-5962
▁رسٽ	-5963
▁گال	-5964
▁وريون	-5965
▁(3)	-5966
▁جهي	-5967
▁حذف	-5968
▁سکي	-5969
▁فرما	-5970
▁Fa	-5971
▁tc	-5972
▁تغ	-5973
▁هز	-5974
▁رجي	-5975
▁سسٽ	-5976
▁سکو	-5977
▁منگ	-5978
▁وٽس	-5979
▁ينز	-5980
▁يهن	-5981
▁يڊم	-5982
▁گون	-5983
▁شاهد	-5984
▁ميلي	-5985
ua	-5986
▁اقا	-5987
▁بيع	-5988
▁ساب	-5989
▁محت	-5990
▁ڪلي	-5991
▁هارو	-5992
▁اريون	-5993
▁مقابل	-5994
ڌا	-5995
▁ki	-5996
▁تط	-5997
▁ظه	-5998
▁ٻر	-5999
▁بچت	-6000
▁يگا	-6001
▁اغوا	-6002
▁تاثر	-6003
▁تيون	-6004
▁سلسل	-6005
▁هيئن	-6006
▁ادشاه	-6007
ST	-6008
▁rr	-6009
▁ااي	-6010
▁لهج	-6011
▁هرن	-6012
▁واد	-6013
▁بزنس	-6014
▁نڊين	-6015
▁َل	-6016
▁SCL	-6017
▁tiv	-6018
▁زلز	-6019
▁صوب	-6020
▁لهو	-6021
▁يتو	-6022
▁اڳيا	-6023
▁رويو	-6024
▁نديم	-6025
▁نوڪر	-6026
▁اڱ	-6027
▁وظ	-6028
▁گس	-6029
▁art	-6030
▁اٽي	-6031
▁هيئ	-6032
▁وڪو	-6033
▁پنا	-6034
▁سيون	-6035
▁ليڊر	-6036
▁ميشن	-6037
▁SCLNT	-6038
▁انهيء	-6039
بس	-6040
▁1:	-6041
▁dis	-6042
▁فحش	-6043
▁ڪاش	-6044
▁يتون	-6045
▁يڪار	-6046
▁HD	-6047
▁We	-6048
▁ھت	-6049
▁لکت	-6050
▁ڪٽر	-6051
▁ڪٽڻ	-6052
ڻا	-6053
▁ئپ	-6054
▁ِت	-6055
▁ٽم	-6056
▁اقو	-6057
▁الث	-6058
▁ذائ	-6059
▁رجو	-6060
▁ضيا	-6061
▁پيڪ	-6062
▁ھيٺ	-6063
▁واڻي	-6064
▁ev	-6065
▁ژه	-6066
▁ائڊ	-6067
▁لوم	-6068
▁چائ	-6069
▁راني	-6070
▁Con	-6071
▁الٽ	-6072
▁ونز	-6073
▁اينا	-6074
▁ولاد	-6075
TE	-6076
▁€	-6077
▁لی	-6078
▁الق	-6079
▁زان	-6080
▁غرب	-6081
▁ورک	-6082
▁يوگ	-6083
▁ليءَ	-6084
▁پوره	-6085
▁ڪمائ	-6086
▁۸	-6087
ort	-6088
▁لِ	-6089
▁اوپ	-6090
▁جدت	-6091
▁ڄام	-6092
▁ڊول	-6093
▁ائيز	-6094
▁ائيو	-6095
▁بھتر	-6096
▁ريلي	-6097
▁واسي	-6098
▁يٽرو	-6099
▁انفرا	-6100
صف	-6101
▁IP	-6102
▁he	-6103
▁ol	-6104
▁نآ	-6105
▁سوم	-6106
▁لمن	-6107
▁گين	-6108
▁تقبل	-6109
▁طالع	-6110
▁ٽيوب	-6111
gi	-6112
od	-6113
▁**	-6114
▁يھ	-6115
▁ُن	-6116
▁چٽ	-6117
▁بڻي	-6118
▁جير	-6119
▁دها	-6120
▁راڳ	-6121
▁ساع	-6122
▁لفا	-6123
▁لوس	-6124
▁لوق	-6125
▁ميس	-6126
▁مٺي	-6127
▁ينيم	-6128
▁يوٽي	-6129
▁ئيدار	-6130
▁2:	-6131
▁Ra	-6132
▁op	-6133
▁ايڪ	-6134
▁رڪش	-6135
▁مرس	-6136
▁مزاح	-6137
▁يشان	-6138
▁Al	-6139
▁ga	-6140
▁آإ	-6141
▁وڳ	-6142
▁ئرس	-6143
▁تكم	-6144
▁راي	-6145
▁رسن	-6146
▁كانت	-6147
▁ٽولي	-6148
▁کاري	-6149
▁ڪامر	-6150
▁آمريڪ	-6151
▁Ti	-6152
▁سك	-6153
▁چت	-6154
▁حلا	-6155
▁ريع	-6156
▁ماي	-6157
▁کني	-6158
▁ازما	-6159
▁بيبي	-6160
▁ديده	-6161
▁نانگ	-6162
▁نگلي	-6163
▁ابتدا	-6164
▁ڪارخا	-6165
▁ڪوڪيز	-6166
▁بٽ	-6167
▁الخ	-6168
▁اڇو	-6169
▁اڳئ	-6170
▁جهن	-6171
▁طاق	-6172
▁لوو	-6173
▁دايت	-6174
▁پوڙه	-6175
▁id	-6176
▁ٺو	-6177
▁ٿئ	-6178
▁Bet	-6179
▁آبي	-6180
▁اقي	-6181
▁حجم	-6182
▁روٽ	-6183
▁زمر	-6184
▁طار	-6185
▁فلو	-6186
▁فيڪ	-6187
▁هجو	-6188
▁يدن	-6189
▁افيه	-6190
▁رامي	-6191
▁نيري	-6192
ru	-6193
▁حن	-6194
▁رود	-6195
▁ليڊ	-6196
▁ڀرڻ	-6197
▁ڪيڪ	-6198
▁زينب	-6199
▁So	-6200
▁ادم	-6201
▁بدو	-6202
▁تائ	-6203
▁دفن	-6204
▁شخصي	-6205
▁ينئر	-6206
▁آزمائ	-6207
▁8.	-6208
▁Am	-6209
▁اهن	-6210
▁موز	-6211
▁هڻڻ	-6212
▁يسر	-6213
▁يلون	-6214
▁َه	-6215
▁ياز	-6216
▁يرن	-6217
▁بادل	-6218
▁رندو	-6219
ed	-6220
▁️	-6221
ناط	-6222
▁دن	-6223
▁رڪت	-6224
▁نگھ	-6225
▁ڏات	-6226
▁ڪرو	-6227
▁انشو	-6228
▁سٽنگ	-6229
▁مشكل	-6230
▁ميني	-6231
▁نيئر	-6232
▁ڪريٽ	-6233
▁تقدير	-6234
▁دات	-6235
▁ٽيپ	-6236
▁پان	-6237
▁عاون	-6238
يس	-6239
▁×	-6240
توي	-6241
▁33	-6242
▁ye	-6243
▁ارڪ	-6244
▁راق	-6245
▁شاد	-6246
▁قطر	-6247
▁نيه	-6248
▁يبا	-6249
▁يٺا	-6250
▁ٽرا	-6251
▁گيم	-6252
▁اڳوڻ	-6253
▁عامل	-6254
▁ڳڻتي	-6255
▁ځ	-6256
▁🙂	-6257
▁Ha	-6258
▁ضح	-6259
▁كا	-6260
▁اهت	-6261
▁لهر	-6262
▁ڪيف	-6263
▁ڪٽي	-6264
▁ليها	-6265
▁ړ	-6266
▁Ex	-6267
▁؟"	-6268
▁ارت	-6269
▁اهد	-6270
▁خدم	-6271
▁سڪر	-6272
▁نوب	-6273
▁يٽل	-6274
▁گهن	-6275
▁انيءَ	-6276
em	-6277
هل	-6278
ويه	-6279
▁سڻ	-6280
▁ائق	-6281
▁تعب	-6282
▁عوا	-6283
▁هٽا	-6284
▁ورڈ	-6285
▁ولم	-6286
▁ويي	-6287
▁ڪنن	-6288
▁جميع	-6289
▁نويس	-6290
▁پلان	-6291
▁tu	-6292
▁هڏ	-6293
▁اسن	-6294
▁عنا	-6295
▁لڙڪ	-6296
▁مٿو	-6297
▁ٺهي	-6298
▁ٽام	-6299
▁ڪشا	-6300
▁بچاء	-6301
▁واٽر	-6302
▁ڪارا	-6303
ide	-6304
▁7.	-6305
▁شق	-6306
▁ضي	-6307
▁يث	-6308
▁ڌا	-6309
▁ٻوڏ	-6310
▁ارنٽ	-6311
▁سوني	-6312
▁ليٽر	-6313
▁क	-6314
▁فه	-6315
▁لڏ	-6316
▁اشا	-6317
▁انز	-6318
▁اوٽ	-6319
▁مرة	-6320
▁چپن	-6321
▁ڳائ	-6322
▁آگاه	-6323
▁دهلي	-6324
▁موري	-6325
▁ليمان	-6326
▁LG	-6327
▁ئڊ	-6328
▁عش	-6329
▁ڊچ	-6330
▁und	-6331
▁بيگ	-6332
▁تند	-6333
▁رنٽ	-6334
▁نائ	-6335
▁صحاف	-6336
▁ٿن	-6337
▁ٿڌ	-6338
▁ڻڪ	-6339
▁برش	-6340
▁بيش	-6341
▁حدن	-6342
▁سڪو	-6343
▁لاٿ	-6344
▁نڌي	-6345
▁وضو	-6346
▁ولك	-6347
▁يوب	-6348
▁جولا	-6349
▁سٽيٽ	-6350
▁مارٽ	-6351
▁يروز	-6352
▁ورائي	-6353
▁َن	-6354
▁ڦٽ	-6355
▁ڪھ	-6356
▁are	-6357
▁min	-6358
▁ارج	-6359
▁جيو	-6360
▁جڳھ	-6361
▁قاف	-6362
▁وڌا	-6363
▁وڙي	-6364
▁ٽهڪ	-6365
▁ڀرو	-6366
▁امون	-6367
▁عرفي	-6368
▁ورائ	-6369
▁نينهن	-6370
ليغ	-6371
▁ھڙ	-6372
▁ادل	-6373
▁افر	-6374
▁هڻا	-6375
▁ٽمي	-6376
▁پوڻ	-6377
▁ائيڪ	-6378
▁المن	-6379
▁سليم	-6380
▁ڳائي	-6381
▁دک	-6382
▁ھل	-6383
▁شيو	-6384
▁فات	-6385
▁ليپ	-6386
▁ومو	-6387
▁يکا	-6388
▁فارس	-6389
▁لهايو	-6390
▁وراڻي	-6391
▁يئرنگ	-6392
▁Po	-6393
▁og	-6394
▁تد	-6395
▁ڱي	-6396
▁ies	-6397
▁pla	-6398
▁بلن	-6399
▁يزي	-6400
▁ھيو	-6401
▁Play	-6402
▁دستي	-6403
▁نظار	-6404
▁واهي	-6405
▁ورتل	-6406
▁ڪامل	-6407
▁بهتري	-6408
▁تبليغ	-6409
▁سمجهن	-6410
▁وزگار	-6411
▁ڈ	-6412
▁Ph	-6413
▁sc	-6414
▁بص	-6415
▁عق	-6416
▁مٺ	-6417
▁300	-6418
▁ارش	-6419
▁اير	-6420
▁سچل	-6421
▁عيب	-6422
▁ڦري	-6423
▁ايند	-6424
▁رنٽي	-6425
▁لڪير	-6426
▁رواني	-6427
pe	-6428
ara	-6429
▁AP	-6430
▁ac	-6431
▁كيد	-6432
▁رونا	-6433
▁شويه	-6434
▁معاه	-6435
▁ڪالم	-6436
▁ڪارڪن	-6437
▁75	-6438
▁Ga	-6439
▁mm	-6440
▁سڏي	-6441
▁ورش	-6442
▁يهر	-6443
▁قولي	-6444
▁مقناط	-6445
▁nc	-6446
▁پش	-6447
▁ڀن	-6448
▁ago	-6449
▁احت	-6450
▁اوز	-6451
▁بيو	-6452
▁حتي	-6453
▁حسي	-6454
▁لڏي	-6455
▁ئونڊ	-6456
▁زاري	-6457
▁ھائي	-6458
▁اسڪيم	-6459
▁ملتوي	-6460
ite	-6461
اڻو	-6462
▁48	-6463
▁65	-6464
▁كو	-6465
▁مچ	-6466
▁ڙن	-6467
▁(4)	-6468
▁آصف	-6469
▁آهه	-6470
▁ازن	-6471
▁امس	-6472
▁رلي	-6473
▁ريش	-6474
▁عون	-6475
▁لبت	-6476
▁مرك	-6477
▁وهم	-6478
▁ڊبل	-6479
▁گھي	-6480
▁امري	-6481
دل	-6482
▁5-	-6483
▁fo	-6484
▁أس	-6485
▁طي	-6486
▁اڪن	-6487
▁بون	-6488
▁رحل	-6489
▁سوٽ	-6490
▁سيو	-6491
▁لسي	-6492
▁لير	-6493
▁ماا	-6494
▁مڃڻ	-6495
▁مھل	-6496
▁نئي	-6497
▁يفو	-6498
▁پوپ	-6499
▁ڊيٽ	-6500
▁کٽڻ	-6501
▁ڪڻڪ	-6502
▁مولا	-6503
▁ميدا	-6504
▁روانا	-6505
▁مهاجر	-6506
▁مولوي	-6507
ga	-6508
▁ja	-6509
▁<<<	-6510
▁les	-6511
▁قار	-6512
▁لکن	-6513
▁هدف	-6514
▁المو	-6515
▁الون	-6516
▁اهدو	-6517
▁سيني	-6518
▁نواب	-6519
▁پڙهائ	-6520
ta	-6521
▁Qu	-6522
▁pi	-6523
▁اگ	-6524
▁ذه	-6525
▁مگ	-6526
▁ڊل	-6527
▁ئيٽ	-6528
▁جرب	-6529
▁لاڏ	-6530
▁لقي	-6531
▁لوڻ	-6532
▁مٽا	-6533
▁ويھ	-6534
▁پاي	-6535
▁نهين	-6536
▁--	-6537
▁اٽو	-6538
▁اٿو	-6539
▁بچه	-6540
▁جهڻ	-6541
▁داي	-6542
▁سمو	-6543
▁سٽن	-6544
▁عود	-6545
▁عيو	-6546
▁مرک	-6547
▁واج	-6548
▁ولڪ	-6549
▁ووه	-6550
▁ٺين	-6551
▁ميمڻ	-6552
▁ٽرول	-6553
غا	-6554
▁II	-6555
▁یم	-6556
▁اتا	-6557
▁ووم	-6558
▁کاڌ	-6559
▁کلڻ	-6560
▁اهين	-6561
▁شناس	-6562
▁صوبن	-6563
▁ورين	-6564
▁بنگلا	-6565
▁تجارت	-6566
▁Le	-6567
▁Si	-6568
▁ُک	-6569
▁جهڙ	-6570
▁حول	-6571
▁سرا	-6572
▁وشي	-6573
▁يسن	-6574
▁آزما	-6575
▁ارسي	-6576
▁آچر	-6577
▁اخو	-6578
▁ماڪ	-6579
▁مبا	-6580
▁يما	-6581
▁يڊن	-6582
▁پهل	-6583
▁ڌرم	-6584
▁مٽائ	-6585
▁ناري	-6586
بة	-6587
▁as	-6588
▁ty	-6589
▁اڊ	-6590
▁nti	-6591
▁اچا	-6592
▁بدار	-6593
▁ليسي	-6594
▁نثار	-6595
چا	-6596
▁ئه	-6597
▁ترو	-6598
▁سكس	-6599
▁لهڻ	-6600
▁مدي	-6601
▁يفا	-6602
▁ڏسن	-6603
▁ڙهي	-6604
▁ڪشش	-6605
▁والي	-6606
▁ڊيمو	-6607
▁معاشر	-6608
▁هٽائڻ	-6609
▁ڪيمرا	-6610
ئه	-6611
ڙھ	-6612
▁←	-6613
▁وگ	-6614
▁ڪب	-6615
▁ھج	-6616
▁اسا	-6617
▁انھ	-6618
▁اوه	-6619
▁رقص	-6620
▁رهم	-6621
▁روب	-6622
▁قيق	-6623
▁عمار	-6624
▁ليلي	-6625
▁منھن	-6626
▁ڪسڪس	-6627
سن	-6628
▁٣	-6629
▁GB	-6630
▁لذ	-6631
▁کڻ	-6632
▁OEM	-6633
▁ادو	-6634
▁اڌا	-6635
▁جند	-6636
▁خال	-6637
▁منش	-6638
▁نسر	-6639
▁يجن	-6640
▁ڇڪي	-6641
▁جھاز	-6642
▁IS	-6643
▁ثق	-6644
▁جڪ	-6645
▁ذك	-6646
▁ڇن	-6647
▁gen	-6648
▁اعد	-6649
▁حفو	-6650
▁وئڻ	-6651
▁ومي	-6652
▁ڳري	-6653
▁ting	-6654
▁اهيو	-6655
▁اڻين	-6656
▁دادو	-6657
▁هنيو	-6658
▁يوار	-6659
▁ٽائڻ	-6660
▁ڪٽري	-6661
▁ڻائي	-6662
hm	-6663
op	-6664
آر	-6665
▁بدا	-6666
▁رني	-6667
▁عني	-6668
▁كات	-6669
ark	-6670
▁ew	-6671
هانت	-6672
▁ate	-6673
▁الڪ	-6674
▁تحق	-6675
▁عار	-6676
▁نسن	-6677
▁نيج	-6678
▁واع	-6679
▁ادگي	-6680
▁يونس	-6681
▁پسندي	-6682
ین	-6683
▁3)	-6684
▁SA	-6685
▁era	-6686
▁فير	-6687
▁پڪو	-6688
▁ڀاء	-6689
▁ڪھڙ	-6690
▁ارٽي	-6691
▁بائي	-6692
▁لعنت	-6693
▁ويهن	-6694
طب	-6695
▁۶	-6696
▁Se	-6697
▁نئ	-6698
▁یا	-6699
▁>>>	-6700
▁سوڀ	-6701
▁يوي	-6702
▁ختار	-6703
ِي	-6704
▁ټ	-6705
▁څ	-6706
فيق	-6707
▁3:	-6708
▁99	-6709
▁va	-6710
▁دى	-6711
▁ضا	-6712
▁نذ	-6713
▁سلا	-6714
▁مئل	-6715
▁ندس	-6716
▁گلو	-6717
▁جائي	-6718
▁رهان	-6719
▁سوئچ	-6720
▁ھيءَ	-6721
ھا	-6722
▁تی	-6723
▁زش	-6724
▁سع	-6725
▁سنت	-6726
▁فيش	-6727
▁متي	-6728
▁نڊر	-6729
▁ووڊ	-6730
▁يمو	-6731
▁ٿوڪ	-6732
▁ڻين	-6733
▁سعود	-6734
▁مرڪب	-6735
▁نصاب	-6736
ha	-6737
ید	-6738
▁ڪڇ	-6739
▁ازل	-6740
▁رنا	-6741
▁شرٽ	-6742
▁قاد	-6743
▁نتو	-6744
▁نيز	-6745
▁ڀار	-6746
▁ميرا	-6747
▁زيارت	-6748
▁34	-6749
▁ny	-6750
▁نط	-6751
▁هش	-6752
▁اصر	-6753
▁ڇان	-6754
▁ديني	-6755
▁ربان	-6756
▁ڙيون	-6757
▁گذار	-6758
▁اهڙيء	-6759
oo	-6760
ٽن	-6761
▁No	-6762
▁im	-6763
▁pe	-6764
▁،"	-6765
▁امڙ	-6766
▁اوس	-6767
▁اڇي	-6768
▁بجد	-6769
▁جيا	-6770
▁غزل	-6771
▁لتا	-6772
▁ندن	-6773
▁نڌو	-6774
▁پيڊ	-6775
▁پٺت	-6776
▁گنا	-6777
بط	-6778
سس	-6779
▁أم	-6780
▁عص	-6781
▁Mac	-6782
▁You	-6783
▁روع	-6784
▁علق	-6785
▁مڃي	-6786
▁هٽي	-6787
▁وٽل	-6788
▁ٽجي	-6789
▁الان	-6790
▁جيءَ	-6791
▁رسالي	-6792
▁لياتي	-6793
▁ګ	-6794
▁۷	-6795
▁(5	-6796
▁1)	-6797
▁En	-6798
▁wei	-6799
▁ايٽ	-6800
▁توي	-6801
▁تيم	-6802
▁زني	-6803
▁منج	-6804
▁واھ	-6805
▁وٽر	-6806
▁پٽن	-6807
▁رايو	-6808
▁قليت	-6809
▁وڻند	-6810
▁اقاعد	-6811
نر	-6812
▁ښ	-6813
ائن	-6814
▁فز	-6815
▁ُس	-6816
▁باھ	-6817
▁جدي	-6818
▁غلا	-6819
▁فضا	-6820
▁وپي	-6821
▁ٿار	-6822
▁ڪوڪ	-6823
▁صحاب	-6824
▁مراه	-6825
وڻ	-6826
ضيه	-6827
▁ip	-6828
▁سى	-6829
▁آٽو	-6830
▁اعي	-6831
▁بلي	-6832
▁بيب	-6833
▁نبو	-6834
▁وحي	-6835
▁وشن	-6836
▁وڙا	-6837
▁وکي	-6838
▁يعت	-6839
▁ينن	-6840
▁ڊيز	-6841
▁ڏيڍ	-6842
▁رادي	-6843
▁نجين	-6844
▁ڪنار	-6845
حت	-6846
یش	-6847
all	-6848
▁بئ	-6849
▁سڌ	-6850
▁طع	-6851
▁ٿل	-6852
▁اڏي	-6853
▁رزق	-6854
▁لڳڻ	-6855
▁وئل	-6856
▁وپو	-6857
▁يتر	-6858
▁ڄڻن	-6859
▁ڪبو	-6860
▁ائنٽ	-6861
▁اريا	-6862
▁خطرن	-6863
▁رهين	-6864
▁يرات	-6865
▁وائيس	-6866
اله	-6867
▁ari	-6868
▁اتك	-6869
▁ترى	-6870
▁راع	-6871
▁رڻو	-6872
▁سچا	-6873
▁شيا	-6874
▁غسل	-6875
▁لاك	-6876
▁مسز	-6877
▁وئن	-6878
▁ڏائ	-6879
▁گھا	-6880
▁Mehm	-6881
▁اهدي	-6882
▁هااا	-6883
▁ويها	-6884
▁وچين	-6885
▁يسوع	-6886
ka	-6887
va	-6888
▁iv	-6889
▁قم	-6890
▁وٿ	-6891
▁چل	-6892
▁150	-6893
▁بيڊ	-6894
▁محب	-6895
▁نجو	-6896
▁نهه	-6897
▁کند	-6898
▁اڙهي	-6899
▁بڻيل	-6900
▁ريٽر	-6901
▁يڪري	-6902
▁معامل	-6903
آل	-6904
▁95	-6905
▁Di	-6906
▁خص	-6907
▁رڳ	-6908
▁ضو	-6909
▁گی	-6910
▁Taj	-6911
▁ind	-6912
▁اڱڻ	-6913
▁هشت	-6914
▁هوت	-6915
▁more	-6916
▁عنده	-6917
▁مدني	-6918
▁وريءَ	-6919
کا	-6920
▁Lo	-6921
▁os	-6922
▁داغ	-6923
▁ربن	-6924
▁روڙ	-6925
▁عدن	-6926
▁لقب	-6927
▁هما	-6928
▁ٺهڻ	-6929
▁ٿيند	-6930
▁ذهانت	-6931
پا	-6932
▁ot	-6933
▁pb	-6934
▁ood	-6935
▁بيٽ	-6936
▁عضو	-6937
▁وجن	-6938
▁يئن	-6939
▁ڏٺم	-6940
▁ڪدم	-6941
▁مداح	-6942
▁نداري	-6943
▁وڪرين	-6944
ge	-6945
يات	-6946
ينا	-6947
▁55	-6948
▁ُه	-6949
▁mat	-6950
▁آيد	-6951
▁باا	-6952
▁بته	-6953
▁رتن	-6954
▁لند	-6955
▁لهن	-6956
▁ولف	-6957
▁ڪٿا	-6958
▁لابي	-6959
▁گاري	-6960
ff	-6961
vi	-6962
▁Un	-6963
▁eb	-6964
▁ثم	-6965
▁ین	-6966
▁اپا	-6967
▁رڪو	-6968
▁عاج	-6969
▁لبي	-6970
▁وڙڻ	-6971
▁يجو	-6972
▁يوت	-6973
▁Amro	-6974
▁ديوي	-6975
▁ڪائو	-6976
▁ڪروم	-6977
▁ڳاله	-6978
▁زلزلي	-6979
يش	-6980
▁39	-6981
▁ul	-6982
▁ئت	-6983
▁زب	-6984
▁One	-6985
▁Tra	-6986
▁bil	-6987
▁ترس	-6988
▁لاب	-6989
▁لمس	-6990
▁ٺٽي	-6991
▁ڙهڻ	-6992
▁ڪوچ	-6993
▁ڪڪر	-6994
▁اسرا	-6995
▁وڙيو	-6996
فف	-6997
▁حث	-6998
▁فش	-6999
▁ant	-7000
▁bet	-7001
▁ist	-7002
▁ائب	-7003
▁اجا	-7004
▁ازي	-7005
▁تحف	-7006
▁سحر	-7007
▁صيد	-7008
▁فوا	-7009
▁لول	-7010
▁مشي	-7011
▁ورڇ	-7012
▁ٻلي	-7013
▁رفان	-7014
▁واست	-7015
▁پيٽر	-7016
su	-7017
▁ि	-7018
روك	-7019
▁9.	-7020
▁ut	-7021
▁مة	-7022
▁tic	-7023
▁آري	-7024
▁ئرل	-7025
▁اٽڪ	-7026
▁جهت	-7027
▁فوڊ	-7028
▁لوي	-7029
▁نوا	-7030
▁نوح	-7031
▁ٽوڪ	-7032
▁ڏيئ	-7033
▁ستقب	-7034
▁سوئي	-7035
▁سورج	-7036
▁نيان	-7037
▁هوري	-7038
▁وليا	-7039
▁پڙها	-7040
IN	-7041
حح	-7042
كل	-7043
▁کت	-7044
▁اله	-7045
▁برج	-7046
▁قصه	-7047
▁ميڙ	-7048
▁وبه	-7049
▁وکر	-7050
▁پني	-7051
▁ڪجه	-7052
▁رايا	-7053
▁وفاق	-7054
▁مطالع	-7055
فل	-7056
▁►	-7057
▁43	-7058
▁رئ	-7059
▁ڏن	-7060
▁افس	-7061
▁دال	-7062
▁لاه	-7063
▁مرو	-7064
▁وده	-7065
▁سگھج	-7066
▁نادر	-7067
▁وڪڻڻ	-7068
▁يڪيو	-7069
ED	-7070
عع	-7071
یں	-7072
الا	-7073
▁Te	-7074
▁ov	-7075
▁کڙ	-7076
▁ڪڏ	-7077
▁ھد	-7078
▁اسو	-7079
▁رجا	-7080
▁عكس	-7081
▁غني	-7082
▁كدا	-7083
▁لاڻ	-7084
▁نرس	-7085
▁نوم	-7086
▁هلن	-7087
▁چري	-7088
▁ھڙو	-7089
▁حقيق	-7090
▁منتظ	-7091
▁هندس	-7092
▁پيمان	-7093
بع	-7094
ell	-7095
ينه	-7096
▁اسد	-7097
▁الر	-7098
▁راغ	-7099
▁صال	-7100
▁فتي	-7101
▁يشر	-7102
▁پڇا	-7103
▁اڪبر	-7104
▁جبهه	-7105
▁جماع	-7106
▁هلڪي	-7107
▁يٽرن	-7108
▁ٺيون	-7109
سه	-7110
▁म	-7111
▁44	-7112
▁Pi	-7113
▁ئڪ	-7114
▁اشت	-7115
▁اشي	-7116
▁بطن	-7117
▁دڙي	-7118
▁صفر	-7119
▁معت	-7120
▁نوڪ	-7121
▁پوڊ	-7122
▁ڙيو	-7123
▁کوڙ	-7124
▁ڪچي	-7125
▁دران	-7126
▁ڙائي	-7127
AT	-7128
اط	-7129
ree	-7130
▁Vi	-7131
▁حز	-7132
▁غز	-7133
▁ڍن	-7134
▁400	-7135
▁تما	-7136
▁فيل	-7137
▁هات	-7138
▁ميون	-7139
▁ڻيون	-7140
▁مبروك	-7141
عل	-7142
▁اى	-7143
▁طن	-7144
▁عة	-7145
▁ڌن	-7146
▁ڍڪ	-7147
▁ڏج	-7148
▁جڙي	-7149
▁داز	-7150
▁رڪر	-7151
▁شاٽ	-7152
▁لسه	-7153
▁وسن	-7154
▁يتك	-7155
▁ڀنگ	-7156
▁ريقا	-7157
▁سندو	-7158
▁عترف	-7159
▁لڪيل	-7160
▁نيوي	-7161
▁ٽيشن	-7162
▁چوند	-7163
▁ڏينه	-7164
▁//	-7165
▁Bu	-7166
▁NE	-7167
▁Wi	-7168
▁ڊف	-7169
▁اپي	-7170
▁حضر	-7171
▁خطن	-7172
▁صلح	-7173
▁ڪثر	-7174
▁هيرن	-7175
▁ڪارن	-7176
na	-7177
ڄي	-7178
که	-7179
ari	-7180
▁^_	-7181
▁يغ	-7182
▁mon	-7183
▁ابق	-7184
▁دخت	-7185
▁ضما	-7186
▁ڪرم	-7187
▁ريما	-7188
▁لانگ	-7189
▁نيرو	-7190
AN	-7191
ڇو	-7192
▁PD	-7193
▁ud	-7194
▁ya	-7195
▁دة	-7196
▁ٽئ	-7197
▁اشو	-7198
▁اوج	-7199
▁دٻي	-7200
▁سوز	-7201
▁عدي	-7202
▁لوپ	-7203
▁ناج	-7204
▁داني	-7205
▁رمائ	-7206
▁معاو	-7207
▁ڪاسٽ	-7208
لك	-7209
هج	-7210
▁دت	-7211
▁ُم	-7212
▁کی	-7213
▁Com	-7214
▁ser	-7215
▁اڻپ	-7216
▁خطر	-7217
▁دفع	-7218
▁شمو	-7219
▁عدو	-7220
▁هيج	-7221
▁يٽس	-7222
▁ڪڪڙ	-7223
▁انسپ	-7224
▁رهون	-7225
▁يزان	-7226
أأ	-7227
▁جڙ	-7228
▁ڇي	-7229
▁chi	-7230
▁لڊر	-7231
▁موج	-7232
▁نيش	-7233
▁واک	-7234
▁وبي	-7235
▁ڊيڄ	-7236
▁تاني	-7237
▁سيٽن	-7238
▁ويري	-7239
▁ويلي	-7240
▁يانگ	-7241
▁پيشي	-7242
▁پاڻيء	-7243
tt	-7244
▁न	-7245
ote	-7246
ube	-7247
▁37	-7248
▁اٻ	-7249
▁اجه	-7250
▁ازد	-7251
▁تجي	-7252
▁رھڻ	-7253
▁لمه	-7254
▁پسي	-7255
▁پگه	-7256
▁چڱا	-7257
▁ڊون	-7258
▁ھان	-7259
▁دائو	-7260
▁روين	-7261
▁ريڪٽ	-7262
▁عجبت	-7263
▁مركز	-7264
▁نڊون	-7265
▁هيڪر	-7266
▁لهائڻ	-7267
▁هربان	-7268
ww	-7269
اڄ	-7270
▁٤	-7271
ونه	-7272
▁64	-7273
▁dy	-7274
▁ka	-7275
▁ٽس	-7276
▁ڳر	-7277
▁tur	-7278
▁آله	-7279
▁اضي	-7280
▁اٺن	-7281
▁اڍا	-7282
▁شمس	-7283
▁فرش	-7284
▁وصف	-7285
▁ويم	-7286
▁يڊي	-7287
▁پنن	-7288
▁ڙين	-7289
▁بچائ	-7290
▁ريات	-7291
▁سيءَ	-7292
▁لقيت	-7293
▁يوزر	-7294
▁برادر	-7295
▁عوامل	-7296
آء	-7297
▁Ni	-7298
▁For	-7299
▁اُت	-7300
▁ثبت	-7301
▁جلا	-7302
▁سڙي	-7303
▁عمي	-7304
▁هُئ	-7305
▁وتن	-7306
▁يڙه	-7307
▁ڏکي	-7308
▁ڪيش	-7309
▁الهي	-7310
▁رسائ	-7311
▁ريڪي	-7312
▁ليبل	-7313
▁وڙين	-7314
▁يلين	-7315
▁چاھي	-7316
▁ھيون	-7317
▁ويڪسي	-7318
▁يداري	-7319
ek	-7320
▁٥	-7321
▁ٱ	-7322
▁ثل	-7323
▁دڙ	-7324
▁قض	-7325
▁ISO	-7326
▁fin	-7327
▁جاز	-7328
▁دود	-7329
▁سيب	-7330
▁عمو	-7331
▁قمر	-7332
▁ٽڪي	-7333
▁پلا	-7334
▁ڪنج	-7335
▁خاطب	-7336
▁کانئ	-7337
شد	-7338
ٽس	-7339
▁(6	-7340
▁gu	-7341
▁sy	-7342
▁ئم	-7343
▁وڍ	-7344
▁ڪک	-7345
▁Fac	-7346
▁ارک	-7347
▁روه	-7348
▁شته	-7349
▁لوڏ	-7350
▁نجا	-7351
▁يبر	-7352
▁Mart	-7353
▁رجال	-7354
▁موسي	-7355
▁وريو	-7356
▁42	-7357
▁Fi	-7358
▁َم	-7359
▁ڪف	-7360
▁ort	-7361
▁sti	-7362
▁ااه	-7363
▁امو	-7364
▁اوڙ	-7365
▁تام	-7366
▁سيس	-7367
▁يمس	-7368
▁ٻٽي	-7369
▁Zone	-7370
▁حامل	-7371
▁داسي	-7372
▁لندي	-7373
▁نواف	-7374
▁هادي	-7375
▁دائود	-7376
▁مرتضي	-7377
تم	-7378
▁SD	-7379
▁رڌ	-7380
▁زه	-7381
▁صر	-7382
▁(5)	-7383
▁Pad	-7384
▁int	-7385
▁مٿن	-7386
▁واڳ	-7387
▁وسا	-7388
▁پُٽ	-7389
▁ڪلپ	-7390
▁ايوا	-7391
▁طارق	-7392
▁لاقي	-7393
▁هلون	-7394
▁وريج	-7395
▁يالي	-7396
▁جولاء	-7397
ML	-7398
ly	-7399
ڀي	-7400
▁85	-7401
▁ze	-7402
▁ڀٽ	-7403
▁www	-7404
▁اعل	-7405
▁الج	-7406
▁انم	-7407
▁اوى	-7408
▁ايب	-7409
▁اھڙ	-7410
▁تقد	-7411
▁دوس	-7412
▁شيٽ	-7413
▁يڪن	-7414
▁ٿيس	-7415
▁گيج	-7416
▁ڳڻپ	-7417
▁راغب	-7418
▁رحيم	-7419
▁سڏين	-7420
▁شهور	-7421
▁قويه	-7422
▁لينا	-7423
▁نيءَ	-7424
▁کندڙ	-7425
ER	-7426
▁41	-7427
▁Ja	-7428
▁ٽچ	-7429
▁blo	-7430
▁met	-7431
▁way	-7432
▁جگر	-7433
▁سٺن	-7434
▁شدن	-7435
▁شون	-7436
▁قمي	-7437
▁لفت	-7438
▁نٽر	-7439
▁هاس	-7440
▁ٻيڙ	-7441
▁پست	-7442
▁ڄمڻ	-7443
▁ديري	-7444
▁زنان	-7445
▁سافر	-7446
▁لاٿو	-7447
▁يليون	-7448
▁ڊائري	-7449
آإ	-7450
کس	-7451
▁Ar	-7452
▁ئد	-7453
▁تپ	-7454
▁خن	-7455
▁ُت	-7456
▁ڏھ	-7457
▁کش	-7458
▁Bla	-7459
▁cha	-7460
▁اڇا	-7461
▁خطا	-7462
▁ركب	-7463
▁رنج	-7464
▁لغت	-7465
▁نثر	-7466
▁نگه	-7467
▁ولس	-7468
▁ٻڏي	-7469
▁ھجڻ	-7470
▁انھي	-7471
▁جناح	-7472
▁هيئت	-7473
▁معاهد	-7474
▁ډ	-7475
▁ak	-7476
▁hi	-7477
▁خه	-7478
▁لڄ	-7479
▁چڪ	-7480
▁Hua	-7481
▁cor	-7482
▁أخي	-7483
▁ائع	-7484
▁بيٺ	-7485
▁ترح	-7486
▁تقي	-7487
▁جال	-7488
▁سُر	-7489
▁هڙو	-7490
▁يشو	-7491
▁ڍنڍ	-7492
▁ڪيچ	-7493
▁ئيءَ	-7494
▁دادا	-7495
▁سالگ	-7496
▁لاني	-7497
▁مانن	-7498
▁نوري	-7499
▁هيري	-7500
▁स	-7501
▁IN	-7502
▁بب	-7503
▁انى	-7504
▁ترت	-7505
▁مدن	-7506
▁ووي	-7507
▁يڙي	-7508
▁يڪڙ	-7509
▁ٽال	-7510
▁پڇو	-7511
▁ائنس	-7512
▁جهند	-7513
▁ماند	-7514
▁نهون	-7515
▁يترا	-7516
▁چوڌر	-7517
▁Marte	-7518
um	-7519
او	-7520
▁ڵ	-7521
▁ो	-7522
▁قف	-7523
▁ڊڪ	-7524
▁Net	-7525
▁log	-7526
▁بزن	-7527
▁جوئ	-7528
▁جور	-7529
▁رمو	-7530
▁غال	-7531
▁فقي	-7532
▁قصو	-7533
▁نرو	-7534
▁همٿ	-7535
▁واش	-7536
▁ورق	-7537
▁يگن	-7538
▁سوره	-7539
▁علوم	-7540
▁نقاب	-7541
▁وقار	-7542
▁ترڪيب	-7543
▁نهنجي	-7544
صص	-7545
▁51	-7546
▁gi	-7547
▁لڻ	-7548
▁pri	-7549
▁sin	-7550
▁ارل	-7551
▁اڻه	-7552
▁بكل	-7553
▁رنه	-7554
▁وبس	-7555
▁وجي	-7556
▁وچي	-7557
▁کڙي	-7558
▁ڪفر	-7559
▁گلا	-7560
▁الها	-7561
▁اليا	-7562
▁ميلو	-7563
▁نگري	-7564
▁ٿاڻي	-7565
▁قبيلي	-7566
▁لهائي	-7567
نيف	-7568
▁om	-7569
▁طم	-7570
▁عس	-7571
▁فڪ	-7572
▁Xia	-7573
▁اكت	-7574
▁بغي	-7575
▁رها	-7576
▁لسا	-7577
▁لقا	-7578
▁نوف	-7579
▁وفد	-7580
▁وله	-7581
▁وڪڻ	-7582
▁هنوز	-7583
▁سارنگ	-7584
طس	-7585
ٻڙ	-7586
▁ב	-7587
ڪرت	-7588
▁4:	-7589
▁Lu	-7590
▁ge	-7591
▁مڇ	-7592
▁آغا	-7593
▁بتي	-7594
▁بره	-7595
▁حبه	-7596
▁سمن	-7597
▁فيا	-7598
▁فيض	-7599
▁هيد	-7600
▁يفڪ	-7601
▁ٽٽي	-7602
▁ٿائ	-7603
▁ڪاڻ	-7604
▁انته	-7605
▁مونک	-7606
▁هران	-7607
da	-7608
اش	-7609
oto	-7610
ورا	-7611
ينو	-7612
▁ID	-7613
▁مى	-7614
▁چڻ	-7615
▁shi	-7616
▁آيس	-7617
▁اكس	-7618
▁بكم	-7619
▁تسا	-7620
▁جوز	-7621
▁حكم	-7622
▁لئي	-7623
▁هڪا	-7624
▁يشل	-7625
▁ڊيا	-7626
▁ڪبي	-7627
▁تجار	-7628
▁رينا	-7629
▁فضول	-7630
▁لحين	-7631
▁نديد	-7632
▁هينئ	-7633
▁روپيا	-7634
PS	-7635
ذر	-7636
▁त	-7637
ere	-7638
▁QU	-7639
▁Wo	-7640
▁XD	-7641
▁كش	-7642
▁ِس	-7643
▁ide	-7644
▁iti	-7645
▁اتن	-7646
▁اڍي	-7647
▁سلو	-7648
▁قلي	-7649
▁لٽر	-7650
▁مٺو	-7651
▁نسب	-7652
▁نصف	-7653
▁نچي	-7654
▁وتو	-7655
▁يڊر	-7656
▁ڏٺل	-7657
▁ڪوپ	-7658
▁استي	-7659
▁رواي	-7660
▁مومل	-7661
▁ندين	-7662
▁ويژه	-7663
اٽ	-7664
عة	-7665
▁ۡ	-7666
▁→	-7667
▁Be	-7668
▁Sk	-7669
▁fu	-7670
▁ٽٽ	-7671
▁😂😂	-7672
▁Sta	-7673
▁can	-7674
▁rou	-7675
▁افو	-7676
▁اڌو	-7677
▁باق	-7678
▁حوا	-7679
▁سرن	-7680
▁سلي	-7681
▁ماڊ	-7682
▁متى	-7683
▁ناف	-7684
▁يوز	-7685
▁چٽو	-7686
▁ڙهه	-7687
▁work	-7688
▁اقوام	-7689
bo	-7690
sh	-7691
▁6-	-7692
▁AM	-7693
▁دآ	-7694
▁120	-7695
▁HTC	-7696
▁ايگ	-7697
▁جود	-7698
▁جيس	-7699
▁رجل	-7700
▁رٿي	-7701
▁ٺاڻ	-7702
▁ڀٽي	-7703
▁ڊڄي	-7704
▁ڏنڊ	-7705
▁دختر	-7706
▁مشكو	-7707
▁مظهر	-7708
▁نفيس	-7709
▁يانا	-7710
▁يونا	-7711
▁ٿائي	-7712
▁نائين	-7713
il	-7714
ry	-7715
مه	-7716
▁"،	-7717
▁00	-7718
▁صه	-7719
▁نپ	-7720
▁ڏه	-7721
▁cen	-7722
▁اڪا	-7723
▁سڪا	-7724
▁شري	-7725
▁شرڪ	-7726
▁ظهر	-7727
▁فسا	-7728
▁قرن	-7729
▁ندؤ	-7730
▁نقد	-7731
▁وڙن	-7732
▁ڃاڻ	-7733
▁ھڻي	-7734
▁صباح	-7735
▁مرشد	-7736
▁وياج	-7737
▁مينار	-7738
ؤن	-7739
حب	-7740
▁Ac	-7741
▁Jo	-7742
▁my	-7743
▁ok	-7744
▁فك	-7745
▁لگ	-7746
▁ِن	-7747
▁bon	-7748
▁بات	-7749
▁تول	-7750
▁ذوب	-7751
▁ذوق	-7752
▁ربو	-7753
▁رنڊ	-7754
▁سبز	-7755
▁سني	-7756
▁صيل	-7757
▁نبا	-7758
▁وڀر	-7759
▁کيه	-7760
▁گوي	-7761
▁ايڪو	-7762
▁ترکي	-7763
▁ستون	-7764
▁عاجز	-7765
▁ماسي	-7766
▁هميش	-7767
▁واعد	-7768
▁وليت	-7769
▁ويڪر	-7770
om	-7771
وط	-7772
▁49	-7773
▁52	-7774
▁,,,	-7775
▁ber	-7776
▁أهم	-7777
▁افٽ	-7778
▁بده	-7779
▁تحد	-7780
▁جاج	-7781
▁خفي	-7782
▁ديا	-7783
▁ديم	-7784
▁ديه	-7785
▁سرخ	-7786
▁ماد	-7787
▁هڪڙ	-7788
▁ورب	-7789
▁ونس	-7790
▁ڏکن	-7791
▁ڪنٽ	-7792
▁بوٽن	-7793
▁دريس	-7794
▁شروط	-7795
▁عمال	-7796
▁راعظم	-7797
to	-7798
قر	-7799
▁4)	-7800
▁MA	-7801
▁لٺ	-7802
▁يڻ	-7803
▁ڙپ	-7804
▁***	-7805
▁dia	-7806
▁get	-7807
▁nda	-7808
▁آيه	-7809
▁ائٽ	-7810
▁كدة	-7811
▁نصر	-7812
▁واڪ	-7813
▁HTML	-7814
▁Name	-7815
▁جزائ	-7816
▁حليم	-7817
▁قراط	-7818
▁نسار	-7819
▁والن	-7820
▁يملي	-7821
▁پيرو	-7822
▁چيءَ	-7823
▁ڪاڏي	-7824
▁گارن	-7825
so	-7826
▁47	-7827
▁CA	-7828
▁CB	-7829
▁lt	-7830
▁nu	-7831
▁آج	-7832
▁دخ	-7833
▁ٽڻ	-7834
▁آنا	-7835
▁آهر	-7836
▁بحا	-7837
▁سيٰ	-7838
▁كري	-7839
▁وكل	-7840
▁يلم	-7841
▁ڄار	-7842
▁ڪرن	-7843
▁ware	-7844
▁ائنا	-7845
▁اراد	-7846
▁اندو	-7847
▁انوا	-7848
▁انگل	-7849
▁خلوص	-7850
▁رانه	-7851
▁يٽري	-7852
▁ڀروس	-7853
▁اقبال	-7854
▁سانوڻ	-7855
▁نديءَ	-7856
WS	-7857
▁38	-7858
▁Tu	-7859
▁آڪ	-7860
▁ذو	-7861
▁کے	-7862
▁ہے	-7863
▁PST	-7864
▁آقا	-7865
▁انک	-7866
▁برك	-7867
▁رسا	-7868
▁رٽر	-7869
▁سوپ	-7870
▁شدي	-7871
▁ياا	-7872
▁ياي	-7873
▁پیش	-7874
▁کيا	-7875
▁وينس	-7876
▁تحريم	-7877
▁جزائر	-7878
▁مديني	-7879
أإ	-7880
OTE	-7881
dia	-7882
▁46	-7883
▁Gi	-7884
▁MI	-7885
▁NA	-7886
▁جڏ	-7887
▁دِ	-7888
▁وة	-7889
▁net	-7890
▁اسط	-7891
▁انپ	-7892
▁بصر	-7893
▁جِي	-7894
▁سجد	-7895
▁سخن	-7896
▁سمر	-7897
▁سيئ	-7898
▁قام	-7899
▁لڌو	-7900
▁ناد	-7901
▁نيئ	-7902
▁نٽي	-7903
▁يعي	-7904
▁يھر	-7905
▁گزي	-7906
▁اريل	-7907
▁انجن	-7908
▁رهيل	-7909
▁فارغ	-7910
▁قميص	-7911
▁ليكم	-7912
▁نقره	-7913
▁يانو	-7914
▁يجنس	-7915
▁نسڪرت	-7916
▁يواري	-7917
go	-7918
sp	-7919
▁٩	-7920
▁य	-7921
▁El	-7922
▁حف	-7923
▁سٿ	-7924
▁عف	-7925
▁fli	-7926
▁not	-7927
▁آفت	-7928
▁أنت	-7929
▁اٽل	-7930
▁برٽ	-7931
▁حلم	-7932
▁راث	-7933
▁سطو	-7934
▁شنل	-7935
▁يٽن	-7936
▁ٺڳي	-7937
▁چوڪ	-7938
▁ارڪر	-7939
▁عملد	-7940
▁غالي	-7941
▁لانه	-7942
▁واجه	-7943
▁ولان	-7944
▁اينڊر	-7945
▁ريائي	-7946
OL	-7947
ڊس	-7948
ڳڙ	-7949
▁98	-7950
▁Do	-7951
▁Ge	-7952
▁بى	-7953
▁خف	-7954
▁PDF	-7955
▁اوو	-7956
▁بجا	-7957
▁زائ	-7958
▁ستح	-7959
▁سيٺ	-7960
▁سکن	-7961
▁ضعي	-7962
▁عنه	-7963
▁لڏپ	-7964
▁مشر	-7965
▁ناي	-7966
▁ٽيب	-7967
▁ڀوڳ	-7968
▁ڇال	-7969
▁جزوي	-7970
▁جهون	-7971
▁زاني	-7972
▁ندان	-7973
▁ونيا	-7974
▁ٽيڪل	-7975
▁پروا	-7976
TN	-7977
sk	-7978
▁٦	-7979
يرا	-7980
▁ci	-7981
▁خم	-7982
▁قن	-7983
▁250	-7984
▁Pay	-7985
▁آني	-7986
▁اشن	-7987
▁انش	-7988
▁اوك	-7989
▁درن	-7990
▁عبا	-7991
▁غبي	-7992
▁لحد	-7993
▁مله	-7994
▁ولن	-7995
▁کري	-7996
▁Tube	-7997
▁راهم	-7998
▁هالا	-7999
▁وريا	-8000
▁ڪثرت	-8001
▁گھرج	-8002
▁QUOTE	-8003
▁نوڪيا	-8004
سڀ	-8005
یر	-8006
ttp	-8007
مال	-8008
ندر	-8009
▁My	-8010
▁Op	-8011
▁VI	-8012
▁sk	-8013
▁مڱ	-8014
▁Clo	-8015
▁che	-8016
▁جاد	-8017
▁جزو	-8018
▁رمت	-8019
▁سمت	-8020
▁نڪو	-8021
▁ڊرا	-8022
▁http	-8023
▁خطير	-8024
▁رجعت	-8025
▁زينت	-8026
▁مانت	-8027
▁ويلا	-8028
▁ڪيڏا	-8029
▁راثيم	-8030
BC	-8031
ڱر	-8032
rea	-8033
انت	-8034
▁(9	-8035
▁.:	-8036
▁62	-8037
▁Bo	-8038
▁Ri	-8039
▁رڍ	-8040
▁سآ	-8041
▁Out	-8042
▁ext	-8043
▁اقر	-8044
▁بوط	-8045
▁راش	-8046
▁رزش	-8047
▁زمن	-8048
▁سيز	-8049
▁شود	-8050
▁فله	-8051
▁هنم	-8052
▁وام	-8053
▁ولڻ	-8054
▁يجر	-8055
▁ڙند	-8056
▁گام	-8057
▁اسپا	-8058
▁توان	-8059
▁روپي	-8060
▁سونا	-8061
▁فرين	-8062
▁لوڊش	-8063
▁ليڊي	-8064
▁مرکز	-8065
▁ندست	-8066
▁هنيا	-8067
▁وينا	-8068
▁ٽريٽ	-8069
یق	-8070
lus	-8071
روض	-8072
عيم	-8073
▁OS	-8074
▁fl	-8075
▁حک	-8076
▁رة	-8077
▁ڳي	-8078
▁600	-8079
▁nge	-8080
▁ren	-8081
▁آتم	-8082
▁تسو	-8083
▁ديل	-8084
▁زنگ	-8085
▁سيء	-8086
▁كلي	-8087
▁لجي	-8088
▁ويگ	-8089
▁يوڪ	-8090
▁ڀڄڻ	-8091
▁ڪڙو	-8092
▁ھوا	-8093
▁تسلي	-8094
▁ديرو	-8095
▁رٿيل	-8096
▁سورت	-8097
▁ليٽي	-8098
▁ناڻي	-8099
▁نجوم	-8100
▁وسائ	-8101
▁يوسي	-8102
▁ڪنول	-8103
▁قبيلن	-8104
ON	-8105
RL	-8106
TC	-8107
آت	-8108
ٽڪ	-8109
چو	-8110
یت	-8111
▁ल	-8112
الو	-8113
▁(8	-8114
▁ئش	-8115
▁ٻئ	-8116
▁(6)	-8117
▁امح	-8118
▁اڪس	-8119
▁جات	-8120
▁حرم	-8121
▁ربا	-8122
▁رتا	-8123
▁زعل	-8124
▁زڪو	-8125
▁سجن	-8126
▁سره	-8127
▁سڀن	-8128
▁شمع	-8129
▁ضبط	-8130
▁عکس	-8131
▁قير	-8132
▁مرگ	-8133
▁مڊل	-8134
▁هوي	-8135
▁چمي	-8136
▁چيا	-8137
▁بيلٽ	-8138
▁رطان	-8139
▁يٽون	-8140
▁پارا	-8141
▁چرپر	-8142
▁ڪيٽن	-8143
▁اليان	-8144
CD	-8145
ثي	-8146
ميل	-8147
ميه	-8148
▁5:	-8149
▁hy	-8150
▁صي	-8151
▁غص	-8152
▁ڦا	-8153
▁Ama	-8154
▁tro	-8155
▁آفر	-8156
▁آهو	-8157
▁آڱر	-8158
▁بيح	-8159
▁جبر	-8160
▁جسٽ	-8161
▁حار	-8162
▁حلف	-8163
▁حيل	-8164
▁دعي	-8165
▁شبه	-8166
▁عبي	-8167
▁فوق	-8168
▁متع	-8169
▁هبل	-8170
▁هرب	-8171
▁وتر	-8172
▁وجو	-8173
▁ياڻ	-8174
▁کون	-8175
▁دودي	-8176
▁راڻا	-8177
▁زانو	-8178
▁ضعيف	-8179
▁نائڻ	-8180
▁وائل	-8181
▁ورنا	-8182
▁گران	-8183
▁	-8184
ي	-8185
ا	-8186
ه	-8187
ن	-8188
و	-8189
ر	-8190
م	-8191
ل	-8192
ت	-8193
س	-8194
ج	-8195
ڪ	-8196
د	-8197
ب	-8198
.	-8199
پ	-8200
آ	-8201
ئ	-8202
ک	-8203
ع	-8204
ڻ	-8205
ف	-8206
گ	-8207
ش	-8208
ق	-8209
،	-8210
ح	-8211
ٽ	-8212
ٿ	-8213
ڏ	-8214
ـ	-8215
ز	-8216
خ	-8217
۾	-8218
ء	-8219
چ	-8220
ص	-8221
۽	-8222
ھ	-8223
ط	-8224
ڊ	-8225
ڙ	-8226
ِ	-8227
ك	-8228
ڳ	-8229
ٻ	-8230
"	-8231
ڌ	-8232
:	-8233
َ	-8234
e	-8235
1	-8236
ض	-8237
ڇ	-8238
0	-8239
ڀ	-8240
a	-8241
ٺ	-8242
ظ	-8243
i	-8244
2	-8245
t	-8246
o	-8247
ذ	-8248
ُ	-8249
r	-8250
n	-8251
غ	-8252
s	-8253
؟	-8254
-	-8255
)	-8256
(	-8257
ث	-8258
ڃ	-8259
l	-8260
!	-8261
ڄ	-8262
3	-8263
5	-8264
d	-8265
c	-8266
9	-8267
u	-8268
4	-8269
,	-8270
ى	-8271
ة	-8272
m	-8273
8	-8274
6	-8275
h	-8276
7	-8277
p	-8278
ڍ	-8279
g	-8280
أ	-8281
S	-8282
y	-8283
ی	-8284
A	-8285
۔	-8286
'	-8287
b	-8288
>	-8289
/	-8290
k	-8291
C	-8292
<	-8293
w	-8294
M	-8295
T	-8296
ہ	-8297
f	-8298
_	-8299
P	-8300
D	-8301
I	-8302
v	-8303
؛	-8304
=	-8305
N	-8306
B	-8307
O	-8308
E	-8309
*	-8310
x	-8311
ڦ	-8312
L	-8313
ؤ	-8314
ڱ	-8315
G	-8316
R	-8317
ٰ	-8318
H	-8319
[	-8320
]	-8321
F	-8322
U	-8323
W	-8324
إ	-8325
ٌ	-8326
X	-8327
ً	-8328
V	-8329
z	-8330
ّ	-8331
K	-8332
^	-8333
٪	-8334
ے	-8335
•	-8336
$	-8337
ژ	-8338
ٍ	-8339
ٹ	-8340
j	-8341
?	-8342
+	-8343
#	-8344
~	-8345
۱	-8346
J	-8347
Y	-8348
ْ	-8349
ې	-8350
।	-8351
Q	-8352
ڷ	-8353
Z	-8354
😂	-8355
@	-8356
ۈ	-8357
۲	-8358
ڈ	-8359
%	-8360
ړ	-8361
q	-8362
۰	-8363
ں	-8364
&	-8365
{	-8366
}	-8367
٠	-8368
;	-8369
۳	-8370
א	-8371
·	-8372
١	-8373
۴	-8374
ګ	-8375
۵	-8376
ډ	-8377
٢	-8378
ځ	-8379
ږ	-8380
ټ	-8381
ڵ	-8382
ڑ	-8383
●	-8384
۹	-8385
ښ	-8386
्	-8387
°	-8388
️	-8389
۸	-8390
£	-8391
ा	-8392
♥	-8393
❤	-8394
र	-8395
څ	-8396
€	-8397
×	-8398
۶	-8399
۷	-8400
🙂	-8401
क	-8402
٣	-8403
←	-8404
ڼ	-8405
→	-8406
ٱ	-8407
٥	-8408
ۍ	-8409
ि	-8410
٤	-8411
ो	-8412
म	-8413
٦	-8414
►	-8415
ב	-8416
ڛ	-8417
′	-8418
é	-8419
न	-8420
٩	-8421
ڹ	-8422
स	-8423
ۡ	-8424
त	-8425
٨	-8426
य	-8427
ٖ	-8428
ּ	-8429
ٔ	-8430
ۅ	-8431
े	-8432
ल	-8433
♪	-8434
ۆ	-8435
♡	-8436
®	-8437
Ô	-8438
ٴ	-8439
ۑ	-8440
ღ	-8441
◄	-8442
٫	-8443
©	-8444
٧	-8445
प	-8446
ۉ	-8447
व	-8448
😉	-8449
§	-8450
а	-8451
🤣	-8452
ह	-8453
ۃ	-8454
☺	-8455
ڎ	-8456
ט	-8457
ڸ	-8458
ۊ	-8459
द	-8460
н	-8461
😁	-8462
è	-8463
ü	-8464
↑	-8465
♫	-8466
פ	-8467
›	-8468
😀	-8469
ु	-8470
â	-8471
î	-8472
ı	-8473
ڤ	-8474
≤	-8475
ڜ	-8476
о	-8477
ٗ	-8478
◆	-8479
и	-8480
ç	-8481
İ	-8482
ٓ	-8483
à	-8484
ग	-8485
ट	-8486
ۓ	-8487
💔	-8488
😍	-8489
★	-8490
ी	-8491
р	-8492
٬	-8493
ş	-8494
̈	-8495
ؑ	-8496
с	-8497
ڶ	-8498
ۀ	-8499
ێ	-8500
ब	-8501
е	-8502
ڣ	-8503
😭	-8504
כ	-8505
ݪ	-8506
ज	-8507
Ş	-8508
ٕ	-8509
उ	-8510
छ	-8511
ö	-8512
ࢪ	-8513
、	-8514
á	-8515
ڕ	-8516
श	-8517
॥	-8518
Ü	-8519
ω	-8520
м	-8521
т	-8522
ू	-8523
±	-8524
ै	-8525
😅	-8526
🙁	-8527
у	-8528
ۂ	-8529
ۧ	-8530
♦	-8531
ン	-8532
語	-8533
̷	-8534
ं	-8535
シ	-8536
д	-8537
ۄ	-8538
ۋ	-8539
√	-8540
л	-8541
ל	-8542
ٳ	-8543
ۿ	-8544
ड	-8545
ध	-8546
ド	-8547
؏	-8548
٘	-8549
‹	-8550
≥	-8551
😊	-8552
¤	-8553
ˇ	-8554
¢	-8555
ê	-8556
ؿ	-8557
ए	-8558
भ	-8559
ष	-8560
【	-8561
ツ	-8562
💞	-8563
¬	-8564
ë	-8565
α	-8566
к	-8567
٭	-8568
✿	-8569
】	-8570
﴾	-8571
﴿	-8572
👍	-8573
ā	-8574
ٚ	-8575
ە	-8576
ई	-8577
☆	-8578
¦	-8579
¿	-8580
ó	-8581
û	-8582
μ	-8583
ο	-8584
в	-8585
ٲ	-8586
ڝ	-8587
‐	-8588
⁄	-8589
з	-8590
ػ	-8591
ä	-8592
͜	-8593
β	-8594
ڒ	-8595
अ	-8596
च	-8597
⇄	-8598
─	-8599
🏻	-8600
ñ	-8601
х	-8602
ү	-8603
ա	-8604
ण	-8605
≈	-8606
■	-8607
😆	-8608
ž	-8609
ы	-8610
ؽ	-8611
ڠ	-8612
ࢦ	-8613
फ	-8614
。	-8615
菜	-8616
👌	-8617
Ø	-8618
÷	-8619
й	-8620
ֿ	-8621
ٛ	-8622
ڂ	-8623
आ	-8624
ख	-8625
⋆	-8626
🔥	-8627
😜	-8628
\	-8629
ğ	-8630
š	-8631
̨	-8632
б	-8633
г	-8634
ۇ	-8635
थ	-8636
ृ	-8637
🌹	-8638
¡	-8639
í	-8640
ô	-8641
̲	-8642
ᓄ	-8643
‡	-8644
▌	-8645
✅	-8646
✌	-8647
💘	-8648
Ç	-8649
̃	-8650
̧	-8651
ե	-8652
ݩ	-8653
ে	-8654
✔	-8655
❥	-8656
💙	-8657
😘	-8658
😛	-8659
̣	-8660
͡	-8661
ζ	-8662
ι	-8663
п	-8664
я	-8665
і	-8666
י	-8667
נ	-8668
↓	-8669
▐	-8670
◕	-8671
☀	-8672
✓	-8673
⭐	-8674
💕	-8675
🙈	-8676
Å	-8677
ï	-8678
č	-8679
œ	-8680
ξ	-8681
Ґ	-8682
ؐ	-8683
ڿ	-8684
ۦ	-8685
۩	-8686
۫	-8687
इ	-8688
ন	-8689
๑	-8690
♀	-8691
✋	-8692
✨	-8693
🌸	-8694
💗	-8695
😄	-8696
😇	-8697
🤔	-8698
Ö	-8699
Š	-8700
ː	-8701
ρ	-8702
ڨ	-8703
ँ	-8704
র	-8705
া	-8706
◊	-8707
♠	-8708
❣	-8709
音	-8710
😔	-8711
😝	-8712
😹	-8713
🙏	-8714
å	-8715
͠	-8716
Φ	-8717
Ω	-8718
ε	-8719
σ	-8720
ի	-8721
ն	-8722
ם	-8723
מ	-8724
ڭ	-8725
ۛ	-8726
ম	-8727
্	-8728
๋	-8729
※	-8730
♩	-8731
」	-8732
🌷	-8733
🖤	-8734
Ž	-8735
ɪ	-8736
ˈ	-8737
̤	-8738
η	-8739
ς	-8740
ч	-8741
ш	-8742
ո	-8743
ս	-8744
ր	-8745
ו	-8746
ע	-8747
ۗ	-8748
۞	-8749
ۤ	-8750
ۨ	-8751
ठ	-8752
ু	-8753
ஐ	-8754
ా	-8755
น	-8756
†	-8757
‿	-8758
▶	-8759
▷	-8760
▼	-8761
◇	-8762
☹	-8763
☻	-8764
♣	-8765
❀	-8766
❧	-8767
➡	-8768
⠀	-8769
「	-8770
・	-8771
🇩	-8772
🏃	-8773
💜	-8774
📷	-8775
😎	-8776
🥺	-8777
Á	-8778
ý	-8779
ć	-8780
ō	-8781
ɑ	-8782
̇	-8783
̶	-8784
ί	-8785
π	-8786
ҳ	-8787
ד	-8788
ؓ	-8789
ؼ	-8790
ٜ	-8791
ٞ	-8792
ٟ	-8793
ڞ	-8794
ܢ	-8795
ক	-8796
ত	-8797
দ	-8798
୭	-8799
า	-8800
ọ	-8801
⇣	-8802
⏪	-8803
▲	-8804
☝	-8805
♯	-8806
⚘	-8807
⚡	-8808
✯	-8809
🏼	-8810
😢	-8811
🤩	-8812
🥇	-8813
¶	-8814
ã	-8815
ð	-8816
ú	-8817
ē	-8818
ł	-8819
ż	-8820
ə	-8821
̅	-8822
̵	-8823
τ	-8824
ώ	-8825
ж	-8826
ц	-8827
э	-8828
մ	-8829
ւ	-8830
ן	-8831
ؒ	-8832
ٙ	-8833
ٝ	-8834
ڋ	-8835
ڔ	-8836
ۏ	-8837
ެ	-8838
झ	-8839
న	-8840
ಿ	-8841
്	-8842
ี	-8843
๛	-8844
າ	-8845
ᬼ	-8846
ị	-8847
⃣	-8848
−	-8849
⊙	-8850
╝	-8851
▪	-8852
◉	-8853
◎	-8854
◦	-8855
♍	-8856
✗	-8857
✘	-8858
✦	-8859
『	-8860
』	-8861
🇮	-8862
🇿	-8863
🌚	-8864
🌟	-8865
🍼	-8866
💖	-8867
💚	-8868
💪	-8869
💯	-8870
😱	-8871
😻	-8872
🦋	-8873
Ã	-8874
ø	-8875
ę	-8876
Ğ	-8877
Ħ	-8878
ʊ	-8879
̄	-8880
̐	-8881
θ	-8882
ν	-8883
φ	-8884
М	-8885
С	-8886
ь	-8887
є	-8888
հ	-8889
չ	-8890
ה	-8891
ז	-8892
ר	-8893
ٮ	-8894
ۜ	-8895
ۣ	-8896
۪	-8897
ौ	-8898
খ	-8899
য	-8900
়	-8901
ো	-8902
ਾ	-8903
ં	-8904
હ	-8905
ం	-8906
ම	-8907
ม	-8908
↯	-8909
∀	-8910
∫	-8911
╫	-8912
◀	-8913
♂	-8914
♬	-8915
✖	-8916
〇	-8917
よ	-8918
り	-8919
ミ	-8920
发	-8921
嘅	-8922
的	-8923
𐄒	-8924
🌿	-8925
🎼	-8926
🏾	-8927
👉	-8928
👊	-8929
👨	-8930
👩	-8931
💫	-8932
📚	-8933
🔞	-8934
🕘	-8935
😈	-8936
😋	-8937
😌	-8938
😒	-8939
😠	-8940
😦	-8941
😨	-8942
😪	-8943
😵	-8944
🙊	-8945
🤍	-8946
🤭	-8947
🧸	-8948
ò	-8949
Ă	-8950
ą	-8951
Đ	-8952
ě	-8953
ħ	-8954
Ł	-8955
ś	-8956
ƒ	-8957
ɛ	-8958
ˌ	-8959
̀	-8960
̊	-8961
̥	-8962
̯	-8963
γ	-8964
υ	-8965
ό	-8966
ϻ	-8967
Б	-8968
В	-8969
Т	-8970
Х	-8971
Я	-8972
Ҳ	-8973
Բ	-8974
տ	-8975
ח	-8976
ש	-8977
ڽ	-8978
ۙ	-8979
ۼ	-8980
ݛ	-8981
ݦ	-8982
ः	-8983
ব	-8984
ল	-8985
ি	-8986
ੀ	-8987
ੰ	-8988
ર	-8989
ે	-8990
ો	-8991
క	-8992
ల	-8993
వ	-8994
ి	-8995
ు	-8996
్	-8997
ನ	-8998
ന	-8999
න	-9000
ස	-9001
්	-9002
ก	-9003
ค	-9004
ฉ	-9005
ณ	-9006
ด	-9007
ั	-9008
ุ	-9009
ไ	-9010
໑	-9011
Ⴢ	-9012
ე	-9013
ი	-9014
ለ	-9015
ው	-9016
ᓅ	-9017
ᭁ	-9018
Ṁ	-9019
ṇ	-9020
ṣ	-9021
ṭ	-9022
ẹ	-9023
₥	-9024
₪	-9025
↔	-9026
≧	-9027
⌘	-9028
╚	-9029
○	-9030
☂	-9031
☑	-9032
☜	-9033
☼	-9034
♚	-9035
♛	-9036
⚫	-9037
✍	-9038
❌	-9039
❗	-9040
❦	-9041
➢	-9042
〗	-9043
う	-9044
の	-9045
を	-9046
ノ	-9047
ュ	-9048
可	-9049
發	-9050
﮼	-9051
︎	-9052
🌤	-9053
🌻	-9054
🍀	-9055
🎀	-9056
🏿	-9057
🐸	-9058
👀	-9059
👈	-9060
👤	-9061
💋	-9062
💐	-9063
💛	-9064
💻	-9065
🔸	-9066
😐	-9067
😽	-9068
🤨	-9069
🦦	-9070
|	-9071
¥	-9072
À	-9073
É	-9074
Ù	-9075
Ú	-9076
ì	-9077
õ	-9078
Ā	-9079
ă	-9080
Ė	-9081
Į	-9082
ť	-9083
ů	-9084
Ǝ	-9085
ƛ	-9086
ơ	-9087
Ʀ	-9088
ʀ	-9089
ʒ	-9090
ʻ	-9091
̉	-9092
̍	-9093
̳	-9094
Α	-9095
Ξ	-9096
Υ	-9097
έ	-9098
δ	-9099
λ	-9100
Ϟ	-9101
Д	-9102
О	-9103
П	-9104
Р	-9105
У	-9106
Ч	-9107
ъ	-9108
ю	-9109
҉	-9110
ґ	-9111
ө	-9112
Ի	-9113
Կ	-9114
է	-9115
ը	-9116
լ	-9117
խ	-9118
կ	-9119
պ	-9120
ռ	-9121
ց	-9122
ֆ	-9123
ך	-9124
؋	-9125
؍	-9126
ؾ	-9127
ڲ	-9128
ۘ	-9129
۬	-9130
ܓ	-9131
ݖ	-9132
ݢ	-9133
ݥ	-9134
ݨ	-9135
ࡗ	-9136
ञ	-9137
ढ	-9138
ॡ	-9139
আ	-9140
ঔ	-9141
ট	-9142
ড	-9143
স	-9144
ਂ	-9145
ਧ	-9146
ਬ	-9147
ਰ	-9148
ਸ	-9149
ਿ	-9150
ક	-9151
ચ	-9152
ટ	-9153
ા	-9154
િ	-9155
ી	-9156
ஓ	-9157
ఉ	-9158
ద	-9159
య	-9160
స	-9161
ీ	-9162
ಈ	-9163
ಲ	-9164
ೋ	-9165
್	-9166
ങ	-9167
ി	-9168
ි	-9169
ถ	-9170
ท	-9171
ย	-9172
ส	-9173
ๅ	-9174
่	-9175
้	-9176
້	-9177
ཻ	-9178
࿑	-9179
დ	-9180
რ	-9181
ს	-9182
ᄑ	-9183
ᄒ	-9184
ᅲ	-9185
ሂ	-9186
ህ	-9187
ል	-9188
ስ	-9189
ቅ	-9190
ን	-9191
እ	-9192
ይ	-9193
ድ	-9194
ᓆ	-9195
ᓘ	-9196
ន	-9197
ᴗ	-9198
Ṃ	-9199
Ẹ	-9200
Ọ	-9201
ố	-9202
ở	-9203
ỳ	-9204
‛	-9205
‟	-9206
₩	-9207
₽	-9208
⃫	-9209
↩	-9210
↴	-9211
⇠	-9212
⇡	-9213
⇦	-9214
∞	-9215
≠	-9216
≦	-9217
╦	-9218
╬	-9219
▽	-9220
◈	-9221
◍	-9222
◣	-9223
◩	-9224
◪	-9225
☘	-9226
♉	-9227
♌	-9228
♢	-9229
♤	-9230
⚽	-9231
✈	-9232
✧	-9233
✫	-9234
✮	-9235
✴	-9236
✷	-9237
❓	-9238
❕	-9239
❖	-9240
❝	-9241
❞	-9242
❢	-9243
⭕	-9244
〖	-9245
い	-9246
じ	-9247
ほ	-9248
コ	-9249
タ	-9250
ト	-9251
パ	-9252
ピ	-9253
ー	-9254
ㄨ	-9255
上	-9256
以	-9257
你	-9258
我	-9259
発	-9260
真	-9261
者	-9262
ꓘ	-9263
나	-9264
법	-9265
직	-9266
𓂅	-9267
𖣴	-9268
🇨	-9269
🇬	-9270
🇶	-9271
🇸	-9272
🇺	-9273
🌆	-9274
🌈	-9275
🌼	-9276
🎈	-9277
🎧	-9278
🎵	-9279
🎻	-9280
🐒	-9281
🐠	-9282
🐢	-9283
👆	-9284
👇	-9285
👎	-9286
👑	-9287
💅	-9288
💍	-9289
💓	-9290
💝	-9291
💠	-9292
💡	-9293
💮	-9294
💰	-9295
🔒	-9296
🔕	-9297
🔫	-9298
🔱	-9299
🔴	-9300
🔶	-9301
🔹	-9302
🔺	-9303
🖕	-9304
😃	-9305
😏	-9306
😕	-9307
😤	-9308
😬	-9309
😮	-9310
😯	-9311
😳	-9312
😿	-9313
🙄	-9314
🚶	-9315
🛫	-9316
🤎	-9317
🤐	-9318
🤓	-9319
🤤	-9320
🤧	-9321
🤪	-9322
🥀	-9323
🥰	-9324
🦼	-9325
🧐	-9326
Â	-9327
È	-9328
Ð	-9329
Ó	-9330
Û	-9331
ß	-9332
æ	-9333
ù	-9334
þ	-9335
Ą	-9336
ĉ	-9337
Č	-9338
Ď	-9339
đ	-9340
ė	-9341
Ę	-9342
Ģ	-9343
Ĥ	-9344
ī	-9345
į	-9346
ĵ	-9347
ĸ	-9348
ĺ	-9349
ļ	-9350
Ň	-9351
ŋ	-9352
Ō	-9353
ŏ	-9354
Ř	-9355
ř	-9356
Ŝ	-9357
ŝ	-9358
Ť	-9359
ŧ	-9360
ŭ	-9361
ű	-9362
ź	-9363
Ż	-9364
Ɓ	-9365
Ɠ	-9366
Ɣ	-9367
Ɲ	-9368
Ƴ	-9369
ƽ	-9370
ǟ	-9371
ǰ	-9372
Ǿ	-9373
ȅ	-9374
Ȋ	-9375
ș	-9376
ț	-9377
ɕ	-9378
ɞ	-9379
ɣ	-9380
ɨ	-9381
ɴ	-9382
ʃ	-9383
ʔ	-9384
ʚ	-9385
ʞ	-9386
ˆ	-9387
˹	-9388
˼	-9389
́	-9390
̋	-9391
̌	-9392
̖	-9393
̗	-9394
̝	-9395
̠	-9396
̩	-9397
̬	-9398
̮	-9399
̸	-9400
͛	-9401
ͦ	-9402
Ά	-9403
Έ	-9404
ΐ	-9405
Η	-9406
Θ	-9407
Ι	-9408
Μ	-9409
Ρ	-9410
Σ	-9411
Ψ	-9412
Ϋ	-9413
ά	-9414
ή	-9415
κ	-9416
χ	-9417
Ј	-9418
Ћ	-9419
А	-9420
Г	-9421
Й	-9422
К	-9423
ј	-9424
ћ	-9425
Ѣ	-9426
Ѧ	-9427
Ҏ	-9428
қ	-9429
Ҩ	-9430
Ұ	-9431
ҷ	-9432
ҽ	-9433
Ӎ	-9434
Պ	-9435
բ	-9436
ձ	-9437
ղ	-9438
յ	-9439
վ	-9440
փ	-9441
ք	-9442
ִ	-9443
ג	-9444
ס	-9445
צ	-9446
ת	-9447
؎	-9448
ٯ	-9449
ڐ	-9450
ڗ	-9451
ڟ	-9452
ڰ	-9453
ۚ	-9454
ۢ	-9455
ۥ	-9456
ۺ	-9457
܀	-9458
ܒ	-9459
ܨ	-9460
ܪ	-9461
ܵ	-9462
ݐ	-9463
ݒ	-9464
ݘ	-9465
ݧ	-9466
ހ	-9467
ވ	-9468
ߙ	-9469
࣪	-9470
ओ	-9471
घ	-9472
ङ	-9473
़	-9474
ॉ	-9475
॒	-9476
०	-9477
१	-9478
८	-9479
অ	-9480
ই	-9481
উ	-9482
এ	-9483
ঘ	-9484
ছ	-9485
জ	-9486
ধ	-9487
ভ	-9488
শ	-9489
ৌ	-9490
ਇ	-9491
ਈ	-9492
ਕ	-9493
ਜ	-9494
ਥ	-9495
ਪ	-9496
ਮ	-9497
ਲ	-9498
ਹ	-9499
ੇ	-9500
ੈ	-9501
ੋ	-9502
ੱ	-9503
ખ	-9504
છ	-9505
ડ	-9506
થ	-9507
ધ	-9508
પ	-9509
સ	-9510
ુ	-9511
୪	-9512
ற	-9513
ఇ	-9514
ఎ	-9515
చ	-9516
డ	-9517
ధ	-9518
ప	-9519
హ	-9520
ే	-9521
ో	-9522
ಂ	-9523
ಕ	-9524
ಡ	-9525
ಧ	-9526
ಸ	-9527
ഉ	-9528
ത	-9529
ധ	-9530
പ	-9531
ള	-9532
സ	-9533
ආ	-9534
උ	-9535
ක	-9536
ය	-9537
ල	-9538
ව	-9539
ශ	-9540
ෑ	-9541
ෙ	-9542
บ	-9543
ป	-9544
พ	-9545
ล	-9546
ห	-9547
อ	-9548
ฮ	-9549
ะ	-9550
ิ	-9551
เ	-9552
ກ	-9553
ຂ	-9554
ຈ	-9555
ຖ	-9556
ທ	-9557
ນ	-9558
ພ	-9559
ມ	-9560
ຢ	-9561
ະ	-9562
ົ	-9563
ເ	-9564
່	-9565
༄	-9566
༅	-9567
༺	-9568
࿅	-9569
ა	-9570
თ	-9571
კ	-9572
მ	-9573
ნ	-9574
უ	-9575
ქ	-9576
ላ	-9577
ም	-9578
ሩ	-9579
ር	-9580
ሳ	-9581
በ	-9582
ቦ	-9583
ታ	-9584
ት	-9585
ነ	-9586
ኔ	-9587
ኝ	-9588
አ	-9589
ወ	-9590
ዎ	-9591
ዘ	-9592
ዴ	-9593
ጋ	-9594
ጎ	-9595
ጠ	-9596
ጣ	-9597
ጥ	-9598
ፈ	-9599
ፍ	-9600
ᑐ	-9601
ញ	-9602
ព	-9603
ភ	-9604
េ	-9605
ំ	-9606
្	-9607
᪣	-9608
᭄	-9609
ᴀ	-9610
ᴋ	-9611
᷂	-9612
ḑ	-9613
ḭ	-9614
Ḿ	-9615
ḿ	-9616
Ṉ	-9617
ṛ	-9618
Ṝ	-9619
Ṧ	-9620
ṩ	-9621
Ṽ	-9622
Ạ	-9623
Ể	-9624
ệ	-9625
Ụ	-9626
ụ	-9627
ỹ	-9628
Ἄ	-9629
⁀	-9630
₦	-9631
₳	-9632
₹	-9633
₼	-9634
⃕	-9635
⃟	-9636
⃢	-9637
℘	-9638
↙	-9639
↜	-9640
↝	-9641
↣	-9642
↤	-9643
↫	-9644
↲	-9645
↷	-9646
⇐	-9647
⇜	-9648
⇢	-9649
∂	-9650
∇	-9651
∟	-9652
∴	-9653
≯	-9654
⏆	-9655
⏩	-9656
┇	-9657
═	-9658
▂	-9659
▃	-9660
□	-9661
▫	-9662
◝	-9663
◤	-9664
◥	-9665
◾	-9666
☁	-9667
☃	-9668
☄	-9669
☔	-9670
☚	-9671
☛	-9672
☠	-9673
☽	-9674
☿	-9675
♃	-9676
♄	-9677
♈	-9678
♊	-9679
♋	-9680
♎	-9681
♏	-9682
♒	-9683
♓	-9684
♭	-9685
⚒	-9686
⚠	-9687
⛳	-9688
⛺	-9689
✇	-9690
✜	-9691
✞	-9692
✭	-9693
✳	-9694
❒	-9695
❔	-9696
❶	-9697
➓	-9698
➘	-9699
➟	-9700
➥	-9701
➬	-9702
⦿	-9703
⬅	-9704
⬆	-9705
⬸	-9706
⸁	-9707
⸙	-9708
〈	-9709
〉	-9710
》	-9711
あ	-9712
え	-9713
お	-9714
か	-9715
が	-9716
く	-9717
さ	-9718
な	-9719
へ	-9720
ょ	-9721
わ	-9722
ん	-9723
イ	-9724
エ	-9725
ク	-9726
サ	-9727
ス	-9728
チ	-9729
ッ	-9730
バ	-9731
マ	-9732
ム	-9733
ヮ	-9734
一	-9735
之	-9736
了	-9737
云	-9738
传	-9739
位	-9740
何	-9741
刀	-9742
力	-9743
午	-9744
南	-9745
厩	-9746
古	-9747
吗	-9748
国	-9749
场	-9750
報	-9751
多	-9752
夢	-9753
如	-9754
子	-9755
学	-9756
它	-9757
少	-9758
屋	-9759
年	-9760
庆	-9761
彙	-9762
彩	-9763
很	-9764
情	-9765
惠	-9766
感	-9767
打	-9768
教	-9769
料	-9770
斯	-9771
於	-9772
月	-9773
机	-9774
機	-9775
泊	-9776
波	-9777
爱	-9778
瑞	-9779
用	-9780
电	-9781
着	-9782
示	-9783
科	-9784
端	-9785
篇	-9786
終	-9787
纳	-9788
职	-9789
背	-9790
节	-9791
花	-9792
葬	-9793
藍	-9794
蝶	-9795
要	-9796
詞	-9797
謝	-9798
话	-9799
语	-9800
谷	-9801
超	-9802
辛	-9803
迪	-9804
邏	-9805
钱	-9806
际	-9807
隨	-9808
雨	-9809
顯	-9810
鲁	-9811
ꓤ	-9812
ꔫ	-9813
ꖾ	-9814
ꟽ	-9815
ꦿ	-9816
ꪆ	-9817
ꪝ	-9818
ꫀ	-9819
ꫛ	-9820
각	-9821
금	-9822
길	-9823
는	-9824
다	-9825
대	-9826
래	-9827
리	-9828
마	-9829
만	-9830
문	-9831
방	-9832
서	-9833
손	-9834
솔	-9835
송	-9836
시	-9837
양	-9838
얼	-9839
에	-9840
연	-9841
요	-9842
우	-9843
정	-9844
져	-9845
조	-9846
좋	-9847
지	-9848
평	-9849
하	-9850
할	-9851
해	-9852
형	-9853
화	-9854
효	-9855
희	-9856
﮶	-9857
𐎚	-9858
𐭣	-9859
𐭦	-9860
𐭪	-9861
𐭬	-9862
𓆩	-9863
𓆪	-9864
𖣂	-9865
𖤈	-9866
𖤍	-9867
🅚	-9868
🅛	-9869
🅜	-9870
🅦	-9871
🇦	-9872
🇧	-9873
🇱	-9874
🇲	-9875
🇵	-9876
🇷	-9877
🇹	-9878
🌍	-9879
🌎	-9880
🌓	-9881
🌔	-9882
🌙	-9883
🌛	-9884
🌜	-9885
🌝	-9886
🌞	-9887
🌧	-9888
🌱	-9889
🌵	-9890
🌺	-9891
🍂	-9892
🍃	-9893
🍇	-9894
🍉	-9895
🍕	-9896
🍩	-9897
🍰	-9898
🍷	-9899
🍻	-9900
🍾	-9901
🍿	-9902
🎁	-9903
🎃	-9904
🎅	-9905
🎞	-9906
🎥	-9907
🎨	-9908
🎯	-9909
🎶	-9910
🏆	-9911
🏊	-9912
🏖	-9913
🏣	-9914
🏭	-9915
🏳	-9916
🏹	-9917
🏽	-9918
🐍	-9919
🐕	-9920
🐾	-9921
👃	-9922
👅	-9923
👋	-9924
👕	-9925
👠	-9926
👢	-9927
👧	-9928
👭	-9929
👰	-9930
👲	-9931
👳	-9932
👾	-9933
💀	-9934
💃	-9935
💇	-9936
💈	-9937
💒	-9938
💣	-9939
💦	-9940
💷	-9941
📄	-9942
📑	-9943
📛	-9944
📥	-9945
📩	-9946
📮	-9947
📲	-9948
📸	-9949
📿	-9950
🔆	-9951
🔈	-9952
🔐	-9953
🔗	-9954
🕊	-9955
🕌	-9956
🖼	-9957
🗯	-9958
🗿	-9959
😑	-9960
😧	-9961
😩	-9962
😲	-9963
😷	-9964
🙃	-9965
🙅	-9966
🙆	-9967
🙇	-9968
🙋	-9969
🙌	-9970
🚌	-9971
🚓	-9972
🚣	-9973
🚨	-9974
🚫	-9975
🚭	-9976
🚵	-9977
🚷	-9978
🛌	-9979
🛐	-9980
🛒	-9981
🛰	-9982
🟥	-9983
🤒	-9984
🤕	-9985
🤚	-9986
🤟	-9987
🤠	-9988
🤲	-9989
🤸	-9990
🤹	-9991
🦯	-9992
🦽	-9993
🧑	-9994
🧖	-9995
🧚	-9996
