[UNK]	0
[CLS]	1
[SEP]	2
[PAD]	3
[MASK]	4
!	5
"	6
#	7
$	8
%	9
&	10
'	11
(	12
)	13
*	14
+	15
,	16
-	17
.	18
/	19
0	20
1	21
2	22
3	23
4	24
5	25
6	26
7	27
8	28
9	29
:	30
;	31
<	32
=	33
>	34
?	35
@	36
[	37
\	38
]	39
^	40
_	41
a	42
b	43
c	44
d	45
e	46
f	47
g	48
h	49
i	50
j	51
k	52
l	53
m	54
n	55
o	56
p	57
q	58
r	59
s	60
t	61
u	62
v	63
w	64
x	65
y	66
z	67
{	68
|	69
}	70
~	71
¡	72
¢	73
£	74
¤	75
¥	76
¦	77
§	78
©	79
¬	80
®	81
°	82
±	83
¶	84
·	85
¿	86
×	87
ß	88
à	89
á	90
â	91
ã	92
ä	93
å	94
æ	95
ç	96
è	97
é	98
ê	99
ë	100
ì	101
í	102
î	103
ï	104
ð	105
ñ	106
ò	107
ó	108
ô	109
õ	110
ö	111
÷	112
ø	113
ù	114
ú	115
û	116
ü	117
ý	118
þ	119
ā	120
ă	121
ą	122
ć	123
ĉ	124
č	125
ď	126
đ	127
ē	128
ė	129
ę	130
ě	131
ğ	132
ģ	133
ĥ	134
ħ	135
ī	136
į	137
ı	138
ĵ	139
ĸ	140
ĺ	141
ļ	142
ł	143
ň	144
ŋ	145
ō	146
ŏ	147
œ	148
ř	149
ś	150
ŝ	151
ş	152
š	153
ť	154
ŧ	155
ŭ	156
ů	157
ű	158
ź	159
ż	160
ž	161
ƒ	162
ƛ	163
ơ	164
ƴ	165
ƽ	166
ǝ	167
ǟ	168
ǰ	169
ǿ	170
ȅ	171
ȋ	172
ș	173
ț	174
ɑ	175
ɓ	176
ɕ	177
ə	178
ɛ	179
ɞ	180
ɠ	181
ɣ	182
ɨ	183
ɪ	184
ɲ	185
ɴ	186
ʀ	187
ʃ	188
ʊ	189
ʒ	190
ʔ	191
ʚ	192
ʞ	193
ʻ	194
ˆ	195
ˇ	196
ˈ	197
ˌ	198
ː	199
˹	200
˼	201
̀	202
́	203
̃	204
̄	205
̅	206
̇	207
̈	208
̉	209
̊	210
̋	211
̌	212
̍	213
̐	214
̖	215
̗	216
̝	217
̠	218
̣	219
̤	220
̥	221
̧	222
̨	223
̩	224
̬	225
̮	226
̯	227
̲	228
̳	229
̵	230
̶	231
̷	232
̸	233
͛	234
͜	235
͠	236
͡	237
ͦ	238
ΐ	239
ά	240
έ	241
ή	242
ί	243
α	244
β	245
γ	246
δ	247
ε	248
ζ	249
η	250
θ	251
ι	252
κ	253
λ	254
μ	255
ν	256
ξ	257
ο	258
π	259
ρ	260
ς	261
σ	262
τ	263
υ	264
φ	265
χ	266
ψ	267
ω	268
ϋ	269
ό	270
ώ	271
ϟ	272
ϻ	273
а	274
б	275
в	276
г	277
д	278
е	279
ж	280
з	281
и	282
й	283
к	284
л	285
м	286
н	287
о	288
п	289
р	290
с	291
т	292
у	293
х	294
ц	295
ч	296
ш	297
ъ	298
ы	299
ь	300
э	301
ю	302
я	303
є	304
і	305
ј	306
ћ	307
ѣ	308
ѧ	309
҉	310
ҏ	311
ґ	312
қ	313
ҩ	314
ү	315
ұ	316
ҳ	317
ҷ	318
ҽ	319
ӎ	320
ө	321
ա	322
բ	323
ե	324
է	325
ը	326
ի	327
լ	328
խ	329
կ	330
հ	331
ձ	332
ղ	333
մ	334
յ	335
ն	336
ո	337
չ	338
պ	339
ռ	340
ս	341
վ	342
տ	343
ր	344
ց	345
ւ	346
փ	347
ք	348
ֆ	349
ִ	350
ּ	351
ֿ	352
א	353
ב	354
ג	355
ד	356
ה	357
ו	358
ז	359
ח	360
ט	361
י	362
ך	363
כ	364
ל	365
ם	366
מ	367
ן	368
נ	369
ס	370
ע	371
פ	372
צ	373
ר	374
ש	375
ת	376
؋	377
،	378
؍	379
؎	380
؏	381
ؐ	382
ؑ	383
ؒ	384
ؓ	385
؛	386
؟	387
ء	388
آ	389
أ	390
ؤ	391
إ	392
ئ	393
ا	394
ب	395
ة	396
ت	397
ث	398
ج	399
ح	400
خ	401
د	402
ذ	403
ر	404
ز	405
س	406
ش	407
ص	408
ض	409
ط	410
ظ	411
ع	412
غ	413
ػ	414
ؼ	415
ؽ	416
ؾ	417
ؿ	418
ـ	419
ف	420
ق	421
ك	422
ل	423
م	424
ن	425
ه	426
و	427
ى	428
ي	429
ً	430
ٌ	431
ٍ	432
َ	433
ُ	434
ِ	435
ّ	436
ْ	437
ٓ	438
ٔ	439
ٕ	440
ٖ	441
ٗ	442
٘	443
ٙ	444
ٚ	445
ٛ	446
ٜ	447
ٝ	448
ٞ	449
ٟ	450
٠	451
١	452
٢	453
٣	454
٤	455
٥	456
٦	457
٧	458
٨	459
٩	460
٪	461
٫	462
٬	463
٭	464
ٮ	465
ٯ	466
ٰ	467
ٱ	468
ٲ	469
ٳ	470
ٴ	471
ٹ	472
ٺ	473
ٻ	474
ټ	475
ٽ	476
پ	477
ٿ	478
ڀ	479
ځ	480
ڂ	481
ڃ	482
ڄ	483
څ	484
چ	485
ڇ	486
ڈ	487
ډ	488
ڊ	489
ڋ	490
ڌ	491
ڍ	492
ڎ	493
ڏ	494
ڐ	495
ڑ	496
ڒ	497
ړ	498
ڔ	499
ڕ	500
ږ	501
ڗ	502
ژ	503
ڙ	504
ښ	505
ڛ	506
ڜ	507
ڝ	508
ڞ	509
ڟ	510
ڠ	511
ڣ	512
ڤ	513
ڦ	514
ڨ	515
ک	516
ڪ	517
ګ	518
ڭ	519
گ	520
ڰ	521
ڱ	522
ڲ	523
ڳ	524
ڵ	525
ڶ	526
ڷ	527
ڸ	528
ڹ	529
ں	530
ڻ	531
ڼ	532
ڽ	533
ھ	534
ڿ	535
ۀ	536
ہ	537
ۂ	538
ۃ	539
ۄ	540
ۅ	541
ۆ	542
ۇ	543
ۈ	544
ۉ	545
ۊ	546
ۋ	547
ی	548
ۍ	549
ێ	550
ۏ	551
ې	552
ۑ	553
ے	554
ۓ	555
۔	556
ە	557
ۗ	558
ۘ	559
ۙ	560
ۚ	561
ۛ	562
ۜ	563
۞	564
ۡ	565
ۢ	566
ۣ	567
ۤ	568
ۥ	569
ۦ	570
ۧ	571
ۨ	572
۩	573
۪	574
۫	575
۬	576
۰	577
۱	578
۲	579
۳	580
۴	581
۵	582
۶	583
۷	584
۸	585
۹	586
ۺ	587
ۼ	588
۽	589
۾	590
ۿ	591
܀	592
ܒ	593
ܓ	594
ܢ	595
ܨ	596
ܪ	597
ܵ	598
ݐ	599
ݒ	600
ݖ	601
ݘ	602
ݛ	603
ݢ	604
ݥ	605
ݦ	606
ݧ	607
ݨ	608
ݩ	609
ݪ	610
ހ	611
ވ	612
ެ	613
ߙ	614
ࡗ	615
ࢦ	616
ࢪ	617
࣪	618
ँ	619
ं	620
ः	621
अ	622
आ	623
इ	624
ई	625
उ	626
ए	627
ओ	628
क	629
ख	630
ग	631
घ	632
ङ	633
च	634
छ	635
ज	636
झ	637
ञ	638
ट	639
ठ	640
ड	641
ढ	642
ण	643
त	644
थ	645
द	646
ध	647
न	648
प	649
फ	650
ब	651
भ	652
म	653
य	654
र	655
ल	656
व	657
श	658
ष	659
स	660
ह	661
़	662
ा	663
ि	664
ी	665
ु	666
ू	667
ृ	668
े	669
ै	670
ॉ	671
ो	672
ौ	673
्	674
॒	675
ॡ	676
।	677
॥	678
०	679
१	680
८	681
অ	682
আ	683
ই	684
উ	685
এ	686
ঔ	687
ক	688
খ	689
ঘ	690
ছ	691
জ	692
ট	693
ড	694
ত	695
দ	696
ধ	697
ন	698
ব	699
ভ	700
ম	701
য	702
র	703
ল	704
শ	705
স	706
়	707
া	708
ি	709
ু	710
ে	711
ো	712
ৌ	713
্	714
ਂ	715
ਇ	716
ਈ	717
ਕ	718
ਜ	719
ਥ	720
ਧ	721
ਪ	722
ਬ	723
ਮ	724
ਰ	725
ਲ	726
ਸ	727
ਹ	728
ਾ	729
ਿ	730
ੀ	731
ੇ	732
ੈ	733
ੋ	734
ੰ	735
ੱ	736
ં	737
ક	738
ખ	739
ચ	740
છ	741
ટ	742
ડ	743
થ	744
ધ	745
પ	746
ર	747
સ	748
હ	749
ા	750
િ	751
ી	752
ુ	753
ે	754
ો	755
୪	756
୭	757
ஐ	758
ஓ	759
ற	760
ం	761
ఇ	762
ఉ	763
ఎ	764
క	765
చ	766
డ	767
ద	768
ధ	769
న	770
ప	771
య	772
ల	773
వ	774
స	775
హ	776
ా	777
ి	778
ీ	779
ు	780
ే	781
ో	782
్	783
ಂ	784
ಈ	785
ಕ	786
ಡ	787
ಧ	788
ನ	789
ಲ	790
ಸ	791
ಿ	792
ೋ	793
್	794
ഉ	795
ങ	796
ത	797
ധ	798
ന	799
പ	800
ള	801
സ	802
ി	803
്	804
ආ	805
උ	806
ක	807
න	808
ම	809
ය	810
ල	811
ව	812
ශ	813
ස	814
්	815
ෑ	816
ි	817
ෙ	818
ก	819
ค	820
ฉ	821
ณ	822
ด	823
ถ	824
ท	825
น	826
บ	827
ป	828
พ	829
ม	830
ย	831
ล	832
ส	833
ห	834
อ	835
ฮ	836
ะ	837
ั	838
า	839
ิ	840
ี	841
ุ	842
เ	843
ไ	844
ๅ	845
่	846
้	847
๋	848
๑	849
๛	850
ກ	851
ຂ	852
ຈ	853
ຖ	854
ທ	855
ນ	856
ພ	857
ມ	858
ຢ	859
ະ	860
າ	861
ົ	862
ເ	863
່	864
້	865
໑	866
༄	867
༅	868
༺	869
ཻ	870
࿅	871
࿑	872
ა	873
დ	874
ე	875
თ	876
ი	877
კ	878
მ	879
ნ	880
რ	881
ს	882
უ	883
ქ	884
ღ	885
ᄑ	886
ᄒ	887
ᅲ	888
ሂ	889
ህ	890
ለ	891
ላ	892
ል	893
ም	894
ሩ	895
ር	896
ሳ	897
ስ	898
ቅ	899
በ	900
ቦ	901
ታ	902
ት	903
ነ	904
ኔ	905
ን	906
ኝ	907
አ	908
እ	909
ወ	910
ው	911
ዎ	912
ዘ	913
ይ	914
ዴ	915
ድ	916
ጋ	917
ጎ	918
ጠ	919
ጣ	920
ጥ	921
ፈ	922
ፍ	923
ᑐ	924
ᓄ	925
ᓅ	926
ᓆ	927
ᓘ	928
ញ	929
ន	930
ព	931
ភ	932
េ	933
ំ	934
្	935
᪣	936
ᬼ	937
ᭁ	938
᭄	939
ᴀ	940
ᴋ	941
ᴗ	942
᷂	943
ḑ	944
ḭ	945
ḿ	946
ṁ	947
ṃ	948
ṇ	949
ṉ	950
ṛ	951
ṝ	952
ṣ	953
ṧ	954
ṩ	955
ṭ	956
ṽ	957
ạ	958
ẹ	959
ể	960
ệ	961
ị	962
ọ	963
ố	964
ở	965
ụ	966
ỳ	967
ỹ	968
ἄ	969
‐	970
‛	971
‟	972
†	973
‡	974
•	975
′	976
‹	977
›	978
※	979
‿	980
⁀	981
⁄	982
₥	983
₦	984
₩	985
₪	986
€	987
₳	988
₹	989
₼	990
₽	991
⃕	992
⃟	993
⃢	994
⃣	995
⃫	996
℘	997
←	998
↑	999
→	1000
↓	1001
↔	1002
↙	1003
↜	1004
↝	1005
↣	1006
↤	1007
↩	1008
↫	1009
↯	1010
↲	1011
↴	1012
↷	1013
⇄	1014
⇐	1015
⇜	1016
⇠	1017
⇡	1018
⇢	1019
⇣	1020
⇦	1021
∀	1022
∂	1023
∇	1024
−	1025
√	1026
∞	1027
∟	1028
∫	1029
∴	1030
≈	1031
≠	1032
≤	1033
≥	1034
≦	1035
≧	1036
≯	1037
⊙	1038
⋆	1039
⌘	1040
⏆	1041
⏩	1042
⏪	1043
─	1044
┇	1045
═	1046
╚	1047
╝	1048
╦	1049
╫	1050
╬	1051
▂	1052
▃	1053
▌	1054
▐	1055
■	1056
□	1057
▪	1058
▫	1059
▲	1060
▶	1061
▷	1062
►	1063
▼	1064
▽	1065
◀	1066
◄	1067
◆	1068
◇	1069
◈	1070
◉	1071
◊	1072
○	1073
◍	1074
◎	1075
●	1076
◕	1077
◝	1078
◣	1079
◤	1080
◥	1081
◦	1082
◩	1083
◪	1084
◾	1085
☀	1086
☁	1087
☂	1088
☃	1089
☄	1090
★	1091
☆	1092
☑	1093
☔	1094
☘	1095
☚	1096
☛	1097
☜	1098
☝	1099
☠	1100
☹	1101
☺	1102
☻	1103
☼	1104
☽	1105
☿	1106
♀	1107
♂	1108
♃	1109
♄	1110
♈	1111
♉	1112
♊	1113
♋	1114
♌	1115
♍	1116
♎	1117
♏	1118
♒	1119
♓	1120
♚	1121
♛	1122
♠	1123
♡	1124
♢	1125
♣	1126
♤	1127
♥	1128
♦	1129
♩	1130
♪	1131
♫	1132
♬	1133
♭	1134
♯	1135
⚒	1136
⚘	1137
⚠	1138
⚡	1139
⚫	1140
⚽	1141
⛳	1142
⛺	1143
✅	1144
✇	1145
✈	1146
✋	1147
✌	1148
✍	1149
✓	1150
✔	1151
✖	1152
✗	1153
✘	1154
✜	1155
✞	1156
✦	1157
✧	1158
✨	1159
✫	1160
✭	1161
✮	1162
✯	1163
✳	1164
✴	1165
✷	1166
✿	1167
❀	1168
❌	1169
❒	1170
❓	1171
❔	1172
❕	1173
❖	1174
❗	1175
❝	1176
❞	1177
❢	1178
❣	1179
❤	1180
❥	1181
❦	1182
❧	1183
❶	1184
➓	1185
➘	1186
➟	1187
➡	1188
➢	1189
➥	1190
➬	1191
⠀	1192
⦿	1193
⬅	1194
⬆	1195
⬸	1196
⭐	1197
⭕	1198
ⴢ	1199
⸁	1200
⸙	1201
、	1202
。	1203
〇	1204
〈	1205
〉	1206
》	1207
「	1208
」	1209
『	1210
』	1211
【	1212
】	1213
〖	1214
〗	1215
あ	1216
い	1217
う	1218
え	1219
お	1220
か	1221
が	1222
く	1223
さ	1224
じ	1225
な	1226
の	1227
へ	1228
ほ	1229
ょ	1230
よ	1231
り	1232
わ	1233
を	1234
ん	1235
イ	1236
エ	1237
ク	1238
コ	1239
サ	1240
シ	1241
ス	1242
タ	1243
チ	1244
ッ	1245
ツ	1246
ト	1247
ド	1248
ノ	1249
バ	1250
パ	1251
ピ	1252
マ	1253
ミ	1254
ム	1255
ュ	1256
ヮ	1257
ン	1258
・	1259
ー	1260
ㄨ	1261
一	1262
上	1263
之	1264
了	1265
云	1266
以	1267
传	1268
位	1269
何	1270
你	1271
刀	1272
力	1273
午	1274
南	1275
厩	1276
发	1277
古	1278
可	1279
吗	1280
嘅	1281
国	1282
场	1283
報	1284
多	1285
夢	1286
如	1287
子	1288
学	1289
它	1290
少	1291
屋	1292
年	1293
庆	1294
彙	1295
彩	1296
很	1297
情	1298
惠	1299
感	1300
我	1301
打	1302
教	1303
料	1304
斯	1305
於	1306
月	1307
机	1308
機	1309
泊	1310
波	1311
爱	1312
瑞	1313
用	1314
电	1315
発	1316
發	1317
的	1318
真	1319
着	1320
示	1321
科	1322
端	1323
篇	1324
終	1325
纳	1326
者	1327
职	1328
背	1329
节	1330
花	1331
菜	1332
葬	1333
藍	1334
蝶	1335
要	1336
詞	1337
語	1338
謝	1339
话	1340
语	1341
谷	1342
超	1343
辛	1344
迪	1345
邏	1346
钱	1347
际	1348
隨	1349
雨	1350
音	1351
顯	1352
鲁	1353
ꓘ	1354
ꓤ	1355
ꔫ	1356
ꖾ	1357
ꟽ	1358
ꦿ	1359
ꪆ	1360
ꪝ	1361
ꫀ	1362
ꫛ	1363
각	1364
금	1365
길	1366
나	1367
는	1368
다	1369
대	1370
래	1371
리	1372
마	1373
만	1374
문	1375
방	1376
법	1377
서	1378
손	1379
솔	1380
송	1381
시	1382
양	1383
얼	1384
에	1385
연	1386
요	1387
우	1388
정	1389
져	1390
조	1391
좋	1392
지	1393
직	1394
평	1395
하	1396
할	1397
해	1398
형	1399
화	1400
효	1401
희	1402
﮶	1403
﮼	1404
﴾	1405
﴿	1406
︎	1407
️	1408
�	1409
𐄒	1410
𐎚	1411
𐭣	1412
𐭦	1413
𐭪	1414
𐭬	1415
𓂅	1416
𓆩	1417
𓆪	1418
𖣂	1419
𖣴	1420
𖤈	1421
𖤍	1422
🅚	1423
🅛	1424
🅜	1425
🅦	1426
🇦	1427
🇧	1428
🇨	1429
🇩	1430
🇬	1431
🇮	1432
🇱	1433
🇲	1434
🇵	1435
🇶	1436
🇷	1437
🇸	1438
🇹	1439
🇺	1440
🇿	1441
🌆	1442
🌈	1443
🌍	1444
🌎	1445
🌓	1446
🌔	1447
🌙	1448
🌚	1449
🌛	1450
🌜	1451
🌝	1452
🌞	1453
🌟	1454
🌤	1455
🌧	1456
🌱	1457
🌵	1458
🌷	1459
🌸	1460
🌹	1461
🌺	1462
🌻	1463
🌼	1464
🌿	1465
🍀	1466
🍂	1467
🍃	1468
🍇	1469
🍉	1470
🍕	1471
🍩	1472
🍰	1473
🍷	1474
🍻	1475
🍼	1476
🍾	1477
🍿	1478
🎀	1479
🎁	1480
🎃	1481
🎅	1482
🎈	1483
🎞	1484
🎥	1485
🎧	1486
🎨	1487
🎯	1488
🎵	1489
🎶	1490
🎻	1491
🎼	1492
🏃	1493
🏆	1494
🏊	1495
🏖	1496
🏣	1497
🏭	1498
🏳	1499
🏹	1500
🏻	1501
🏼	1502
🏽	1503
🏾	1504
🏿	1505
🐍	1506
🐒	1507
🐕	1508
🐠	1509
🐢	1510
🐸	1511
🐾	1512
👀	1513
👃	1514
👅	1515
👆	1516
👇	1517
👈	1518
👉	1519
👊	1520
👋	1521
👌	1522
👍	1523
👎	1524
👑	1525
👕	1526
👠	1527
👢	1528
👤	1529
👧	1530
👨	1531
👩	1532
👭	1533
👰	1534
👲	1535
👳	1536
👾	1537
💀	1538
💃	1539
💅	1540
💇	1541
💈	1542
💋	1543
💍	1544
💐	1545
💒	1546
💓	1547
💔	1548
💕	1549
💖	1550
💗	1551
💘	1552
💙	1553
💚	1554
💛	1555
💜	1556
💝	1557
💞	1558
💠	1559
💡	1560
💣	1561
💦	1562
💪	1563
💫	1564
💮	1565
💯	1566
💰	1567
💷	1568
💻	1569
📄	1570
📑	1571
📚	1572
📛	1573
📥	1574
📩	1575
📮	1576
📲	1577
📷	1578
📸	1579
📿	1580
🔆	1581
🔈	1582
🔐	1583
🔒	1584
🔕	1585
🔗	1586
🔞	1587
🔥	1588
🔫	1589
🔱	1590
🔴	1591
🔶	1592
🔸	1593
🔹	1594
🔺	1595
🕊	1596
🕌	1597
🕘	1598
🖕	1599
🖤	1600
🖼	1601
🗯	1602
🗿	1603
😀	1604
😁	1605
😂	1606
😃	1607
😄	1608
😅	1609
😆	1610
😇	1611
😈	1612
😉	1613
😊	1614
😋	1615
😌	1616
😍	1617
😎	1618
😏	1619
😐	1620
😑	1621
😒	1622
😔	1623
😕	1624
😘	1625
😛	1626
😜	1627
😝	1628
😠	1629
😢	1630
😤	1631
😦	1632
😧	1633
😨	1634
😩	1635
😪	1636
😬	1637
😭	1638
😮	1639
😯	1640
😱	1641
😲	1642
😳	1643
😵	1644
😷	1645
😹	1646
😻	1647
😽	1648
😿	1649
🙁	1650
🙂	1651
🙃	1652
🙄	1653
🙅	1654
🙆	1655
🙇	1656
🙈	1657
🙊	1658
🙋	1659
🙌	1660
🙏	1661
🚌	1662
🚓	1663
🚣	1664
🚨	1665
🚫	1666
🚭	1667
🚵	1668
🚶	1669
🚷	1670
🛌	1671
🛐	1672
🛒	1673
🛫	1674
🛰	1675
🟥	1676
🤍	1677
🤎	1678
🤐	1679
🤒	1680
🤓	1681
🤔	1682
🤕	1683
🤚	1684
🤟	1685
🤠	1686
🤣	1687
🤤	1688
🤧	1689
🤨	1690
🤩	1691
🤪	1692
🤭	1693
🤲	1694
🤸	1695
🤹	1696
🥀	1697
🥇	1698
🥰	1699
🥺	1700
🦋	1701
🦦	1702
🦯	1703
🦼	1704
🦽	1705
🧐	1706
🧑	1707
🧖	1708
🧚	1709
🧝	1710
🧸	1711
##ژ	1712
##و	1713
##ه	1714
##ش	1715
##گ	1716
##ر	1717
##ل	1718
##ج	1719
##ز	1720
##ا	1721
##ئ	1722
##ي	1723
##ـ	1724
##ב	1725
##ح	1726
##ة	1727
##د	1728
##ع	1729
##ٿ	1730
##ٽ	1731
##ڷ	1732
##ِ	1733
##س	1734
##آ	1735
##م	1736
##ب	1737
##ڪ	1738
##ق	1739
##ت	1740
##غ	1741
##ن	1742
##ذ	1743
##ڀ	1744
##خ	1745
##6	1746
##s	1747
##r	1748
##i	1749
##z	1750
##e	1751
##h	1752
##o	1753
##u	1754
##q	1755
##l	1756
##a	1757
##ف	1758
##ى	1759
##ڵ	1760
##f	1761
##y	1762
##ڻ	1763
##پ	1764
##n	1765
##ظ	1766
##َ	1767
##ڊ	1768
##ڄ	1769
##ڙ	1770
##ض	1771
##ص	1772
##ء	1773
##m	1774
##^	1775
##*	1776
##ُ	1777
##ࢪ	1778
##c	1779
##ط	1780
##ھ	1781
##d	1782
##2	1783
##ٌ	1784
##t	1785
##k	1786
##x	1787
##ڃ	1788
##ڏ	1789
##ك	1790
##w	1791
##p	1792
##g	1793
##9	1794
##1	1795
##8	1796
##v	1797
##0	1798
##ً	1799
##ّ	1800
##ݪ	1801
##ہ	1802
##ث	1803
##ی	1804
##چ	1805
##ٍ	1806
##4	1807
##ک	1808
##b	1809
##ڍ	1810
##ڇ	1811
##ڌ	1812
##ω	1813
##ؤ	1814
##ा	1815
##त	1816
##۔	1817
##؟	1818
##ː	1819
##ڑ	1820
##3	1821
##ڳ	1822
##ڈ	1823
##💇	1824
##♂	1825
##ے	1826
##ډ	1827
##ې	1828
##ْ	1829
##&	1830
##أ	1831
##ږ	1832
##ֿ	1833
##؏	1834
##ٖ	1835
##۲	1836
##7	1837
##é	1838
##č	1839
##_	1840
##ڶ	1841
##إ	1842
##े	1843
##य	1844
##र	1845
##ٔ	1846
##è	1847
##<	1848
##۰	1849
##💞	1850
##ڱ	1851
##5	1852
##ټ	1853
##ٰ	1854
##ۈ	1855
##à	1856
##¿	1857
##ٳ	1858
##ځ	1859
##ٹ	1860
##j	1861
##ê	1862
##✋	1863
##?	1864
##:	1865
##ٻ	1866
##ۆ	1867
##न	1868
##ु	1869
##ग	1870
##म	1871
##💣	1872
##ٺ	1873
##ल	1874
##ڛ	1875
##ो	1876
##̃	1877
##ۄ	1878
##į	1879
##ڟ	1880
##ڕ	1881
##🎃	1882
##"	1883
##{	1884
##'	1885
##ګ	1886
##ښ	1887
##ڦ	1888
##ґ	1889
##ړ	1890
##ۑ	1891
##ڝ	1892
##٠	1893
##є	1894
##ۡ	1895
##.	1896
##ï	1897
##ä	1898
##ێ	1899
##🌓	1900
##💕	1901
##)	1902
##ڹ	1903
##ٓ	1904
##ी	1905
##ज	1906
##٘	1907
##פ	1908
##ڸ	1909
##א	1910
##🏿	1911
##ۊ	1912
##›	1913
##š	1914
##ė	1915
##🔸	1916
##ִ	1917
##ë	1918
##ڞ	1919
##ι	1920
##क	1921
##ę	1922
##ٴ	1923
##څ	1924
##❔	1925
##ۅ	1926
##ł	1927
##ۃ	1928
##ş	1929
##❀	1930
##्	1931
##ट	1932
##फ	1933
##ۏ	1934
##ۓ	1935
##🤧	1936
##च	1937
##ö	1938
##۵	1939
##ט	1940
##ị	1941
##◍	1942
##व	1943
##श	1944
##ো	1945
##ম	1946
##া	1947
##ক	1948
##ে	1949
##ν	1950
##ο	1951
##υ	1952
##β	1953
##ς	1954
##ۉ	1955
##٩	1956
##ô	1957
##î	1958
##ۘ	1959
##+	1960
##۪	1961
##ݦ	1962
##ݩ	1963
##ڔ	1964
##ۨ	1965
##ז	1966
##😂	1967
##ڎ	1968
##स	1969
##>	1970
##û	1971
##۶	1972
##🤒	1973
##ػ	1974
##໑	1975
##ٱ	1976
##ण	1977
##۹	1978
##ల	1979
##ో	1980
##๋	1981
##͜	1982
##✿	1983
##ں	1984
##о	1985
##м	1986
##п	1987
##л	1988
##и	1989
##е	1990
##н	1991
##т	1992
##в	1993
##ā	1994
##д	1995
##і	1996
##😊	1997
##а	1998
##😐	1999
##ۜ	2000
##ۂ	2001
##ह	2002
##发	2003
##音	2004
##ڼ	2005
##͠	2006
##═	2007
##♥	2008
##╬	2009
##্	2010
##র	2011
##ন	2012
##দ	2013
##ত	2014
##}	2015
##;	2016
##-	2017
##ڂ	2018
##ۍ	2019
##р	2020
##у	2021
##ш	2022
##ы	2023
##̇	2024
##ü	2025
##🙂	2026
##💘	2027
##ա	2028
##ր	2029
##ո	2030
##ղ	2031
##б	2032
##к	2033
##ц	2034
##ñ	2035
##द	2036
##ۿ	2037
##☹	2038
##ã	2039
##ڒ	2040
##ि	2041
##ष	2042
##ּ	2043
##ब	2044
##ɪ	2045
##ʊ	2046
##इ	2047
##ड	2048
##[	2049
##마	2050
##나	2051
##ú	2052
##̷	2053
##ố	2054
##۴	2055
##œ	2056
##ç	2057
##ڤ	2058
##~	2059
##،	2060
##♡	2061
##й	2062
##★	2063
##۷	2064
##á	2065
##ٗ	2066
##ξ	2067
##ू	2068
##ः	2069
##ੰ	2070
##ਜ	2071
##ਾ	2072
##ਬ	2073
##ੀ	2074
##â	2075
##ă	2076
##с	2077
##ታ	2078
##¤	2079
##ٯ	2080
##۱	2081
##प	2082
##ࢦ	2083
##ⴢ	2084
##̤	2085
##ؽ	2086
##ؼ	2087
##❤	2088
##ᭁ	2089
##•	2090
##í	2091
##!	2092
###	2093
##]	2094
##ọ	2095
##ᄒ	2096
##١	2097
##ٲ	2098
##ۀ	2099
##כ	2100
##ڭ	2101
##,	2102
##✦	2103
##ݥ	2104
##◦	2105
##ത	2106
##്	2107
##പ	2108
##ന	2109
##ങ	2110
##ള	2111
##٧	2112
##🍼	2113
##/	2114
##؛	2115
##ṉ	2116
##ற	2117
##۳	2118
##۸	2119
##♪	2120
##♫	2121
##ť	2122
##ý	2123
##ौ	2124
##ۣ	2125
##ۗ	2126
##ۙ	2127
##💫	2128
##💔	2129
##ɓ	2130
##ŏ	2131
##đ	2132
##ᓅ	2133
##ए	2134
##ン	2135
##ピ	2136
##ュ	2137
##ー	2138
##タ	2139
##サ	2140
##イ	2141
##エ	2142
##ス	2143
##🔥	2144
##ć	2145
##մ	2146
##ը	2147
##ד	2148
##ו	2149
##נ	2150
##ڨ	2151
##ˇ	2152
##٨	2153
##ڜ	2154
##🥀	2155
##●	2156
##지	2157
##효	2158
##◣	2159
##💙	2160
##ğ	2161
##छ	2162
##۫	2163
##=	2164
##😉	2165
##ۢ	2166
##ж	2167
##ٕ	2168
##ೋ	2169
##ಈ	2170
##ै	2171
##ध	2172
##ž	2173
##❕	2174
##😢	2175
##ě	2176
##٢	2177
##😠	2178
##٬	2179
##ש	2180
##٥	2181
##♉	2182
##ۛ	2183
##ছ	2184
##ۇ	2185
##✗	2186
##🎀	2187
##【	2188
##🏻	2189
##х	2190
##̣	2191
##̐	2192
##̈	2193
##̖	2194
##́	2195
##☄	2196
##ख	2197
##θ	2198
##$	2199
##ь	2200
##٤	2201
##✅	2202
##η	2203
##ή	2204
##σ	2205
##ε	2206
##⃣	2207
##ı	2208
##😘	2209
##🤣	2210
##٦	2211
##纳	2212
##国	2213
##际	2214
##机	2215
##场	2216
##☺	2217
##ؑ	2218
##ؿ	2219
##ツ	2220
##͡	2221
##斯	2222
##語	2223
##月	2224
##ś	2225
##💛	2226
##ጠ	2227
##ይ	2228
##ቅ	2229
##ዎ	2230
##ө	2231
##г	2232
##້	2233
##າ	2234
##ພ	2235
##ະ	2236
##ເ	2237
##ຈ	2238
##ົ	2239
##ຢ	2240
##ກ	2241
##ຖ	2242
##ມ	2243
##ທ	2244
##່	2245
##ນ	2246
##@	2247
##ँ	2248
##🇷	2249
##э	2250
##⚡	2251
##%	2252
##ા	2253
##થ	2254
##י	2255
##→	2256
##ẹ	2257
##🏃	2258
##ञ	2259
##ώ	2260
##😯	2261
##×	2262
##⃢	2263
##ृ	2264
##з	2265
##(	2266
##🇵	2267
##◈	2268
##ᓄ	2269
##थ	2270
##ē	2271
##❥	2272
##▶	2273
##✘	2274
##ᴀ	2275
##ɴ	2276
##٣	2277
##♀	2278
##👧	2279
##ۋ	2280
##😍	2281
##‹	2282
##ۼ	2283
##°	2284
##○	2285
##🅜	2286
##🅦	2287
##🅛	2288
##ं	2289
##🏾	2290
##ø	2291
##ս	2292
##झ	2293
##έ	2294
##ᅲ	2295
##🤍	2296
##ר	2297
##ڠ	2298
##ా	2299
##క	2300
##ు	2301
##®	2302
##▽	2303
##ਈ	2304
##ਿ	2305
##ਧ	2306
##ڣ	2307
##ڽ	2308
##ݧ	2309
##ò	2310
##ෑ	2311
##ම	2312
##ó	2313
##♈	2314
##қ	2315
##力	2316
##ٞ	2317
##ላ	2318
##ጎ	2319
##ት	2320
##🌿	2321
##シ	2322
##ト	2323
##ެ	2324
##¦	2325
##ጣ	2326
##ም	2327
##מ	2328
##ל	2329
##ך	2330
##☚	2331
##ч	2332
##ħ	2333
##ꫀ	2334
##ꪝ	2335
##ζ	2336
##α	2337
##😇	2338
##ե	2339
##ւ	2340
##🌈	2341
##ù	2342
##♬	2343
##♩	2344
##०	2345
##😅	2346
##發	2347
##ህ	2348
##☛	2349
##ע	2350
##ן	2351
##✫	2352
##۩	2353
##ڋ	2354
##ە	2355
##κ	2356
##ρ	2357
##ą	2358
##ŧ	2359
##ћ	2360
##チ	2361
##コ	2362
##マ	2363
##խ	2364
##հ	2365
##տ	2366
##ց	2367
##լ	2368
##ở	2369
##ḑ	2370
##μ	2371
##§	2372
##ȋ	2373
##ठ	2374
##💈	2375
##ੈ	2376
##ਂ	2377
##❧	2378
##़	2379
##💦	2380
##🍻	2381
##⚘	2382
##📿	2383
##리	2384
##■	2385
##୭	2386
##π	2387
##ʒ	2388
##ɑ	2389
##ș	2390
##ᬼ	2391
##్	2392
##ಲ	2393
##್	2394
##ಿ	2395
##ু	2396
##τ	2397
##ᓘ	2398
##♍	2399
##ღ	2400
##͛	2401
##💓	2402
##🍷	2403
##🐠	2404
##・	2405
##ܪ	2406
##ܵ	2407
##🏼	2408
##ๅ	2409
##ހ	2410
##🙏	2411
##ն	2412
##չ	2413
##պ	2414
##ㄨ	2415
##位	2416
##😆	2417
##ѧ	2418
##ۤ	2419
##̍	2420
##ί	2421
##ਰ	2422
##ੋ	2423
##𓆪	2424
##̲	2425
##🔕	2426
##↓	2427
##я	2428
##🇧	2429
##ΐ	2430
##ɞ	2431
##금	2432
##만	2433
##✌	2434
##≥	2435
##ි	2436
##ල	2437
##න	2438
##්	2439
##̵	2440
##ү	2441
##😎	2442
##】	2443
##¡	2444
##ল	2445
##ব	2446
##স	2447
##ি	2448
##菜	2449
##─	2450
##⋆	2451
##⇢	2452
##ڿ	2453
##ස	2454
##ක	2455
##भ	2456
##ụ	2457
##յ	2458
##կ	2459
##ի	2460
##ཻ	2461
##ō	2462
##ț	2463
##ৌ	2464
##ড	2465
##়	2466
##😏	2467
##ŭ	2468
##ለ	2469
##ኝ	2470
##▌	2471
##ٛ	2472
##►	2473
##🛫	2474
##🤔	2475
##ڗ	2476
##😀	2477
##𐭦	2478
##𐭣	2479
##𐭪	2480
##ĸ	2481
##̅	2482
##ք	2483
##վ	2484
##🙈	2485
##ệ	2486
##খ	2487
##☻	2488
##↤	2489
##٭	2490
##↯	2491
##庆	2492
##정	2493
##에	2494
##서	2495
##🇩	2496
##પ	2497
##ડ	2498
##ં	2499
##য	2500
##λ	2501
##ṣ	2502
##ɛ	2503
##ə	2504
##ˈ	2505
##ܨ	2506
##ܓ	2507
##ٙ	2508
##ơ	2509
##ỹ	2510
##ۧ	2511
##ǿ	2512
##ṁ	2513
##ኔ	2514
##🦼	2515
##💚	2516
##ů	2517
##ю	2518
##आ	2519
##ई	2520
##️	2521
##법	2522
##ે	2523
##ટ	2524
##💪	2525
##🇿	2526
##。	2527
##▐	2528
##∀	2529
##発	2530
##を	2531
##િ	2532
##⚫	2533
##̶	2534
##ి	2535
##ం	2536
##ధ	2537
##ీ	2538
##😜	2539
##ۦ	2540
##ʞ	2541
##☜	2542
##♚	2543
##직	2544
##해	2545
##져	2546
##요	2547
##✨	2548
##🌸	2549
##子	2550
##◄	2551
##ٮ	2552
##午	2553
##节	2554
##ҽ	2555
##ż	2556
##╝	2557
##̋	2558
##😃	2559
##😵	2560
##ό	2561
##💻	2562
##🎨	2563
##🖼	2564
##『	2565
##り	2566
##ṭ	2567
##ј	2568
##😋	2569
##🦯	2570
##🔞	2571
##😭	2572
##ङ	2573
##◕	2574
##ٜ	2575
##何	2576
##用	2577
##鲁	2578
##瑞	2579
##语	2580
##🏭	2581
##💰	2582
##ṩ	2583
##🎥	2584
##▂	2585
##⊙	2586
##♦	2587
##ꪆ	2588
##传	2589
##者	2590
##🇮	2591
##←	2592
##ǝ	2593
##可	2594
##以	2595
##打	2596
##电	2597
##话	2598
##吗	2599
##📸	2600
##📩	2601
##ょ	2602
##う	2603
##ほ	2604
##か	2605
##が	2606
##く	2607
##ג	2608
##ა	2609
##რ	2610
##ე	2611
##კ	2612
##თ	2613
##😁	2614
##😪	2615
##♓	2616
##✷	2617
##′	2618
##一	2619
##篇	2620
##ъ	2621
##👆	2622
##∞	2623
##©	2624
##ി	2625
##ധ	2626
##ᄑ	2627
##ź	2628
##🌹	2629
##💐	2630
##◊	2631
##👋	2632
##ஐ	2633
##ϟ	2634
##😝	2635
##ۥ	2636
##ꦿ	2637
##᭄	2638
##⃕	2639
##₦	2640
##報	2641
##科	2642
##学	2643
##ռ	2644
##ؾ	2645
##😹	2646
##😻	2647
##👍	2648
##ݘ	2649
##🇲	2650
##📛	2651
##ი	2652
##ნ	2653
##დ	2654
##უ	2655
##要	2656
##多	2657
##少	2658
##钱	2659
##હ	2660
##ર	2661
##ો	2662
##࣪	2663
##ṃ	2664
##ḭ	2665
##ṝ	2666
##☘	2667
##√	2668
##ሩ	2669
##⇣	2670
##🖕	2671
##〗	2672
##↷	2673
##💗	2674
##న	2675
##వ	2676
##ุ	2677
##ณ	2678
##พ	2679
##า	2680
##ฉ	2681
##ั	2682
##น	2683
##ไ	2684
##ป	2685
##ท	2686
##ี	2687
##่	2688
##ส	2689
##ม	2690
##บ	2691
##ิ	2692
##ด	2693
##้	2694
##ห	2695
##å	2696
##◝	2697
##ĥ	2698
##ϻ	2699
##ď	2700
##\	2701
##្	2702
##ន	2703
##ំ	2704
##ព	2705
##េ	2706
##ញ	2707
##◉	2708
##ን	2709
##ድ	2710
##ሂ	2711
##ુ	2712
##ƒ	2713
##ȅ	2714
##각	2715
##형	2716
##φ	2717
##さ	2718
##い	2719
##ݢ	2720
##ڐ	2721
##🔗	2722
##🤤	2723
##💍	2724
##ᓆ	2725
##ڲ	2726
##เ	2727
##ก	2728
##ล	2729
##ย	2730
##ค	2731
##ሳ	2732
##ወ	2733
##ር	2734
##ढ	2735
##♏	2736
##ٚ	2737
##⁀	2738
##🥺	2739
##💖	2740
##ŋ	2741
##ð	2742
##⇡	2743
##➟	2744
##🦽	2745
##ì	2746
##ř	2747
##ű	2748
##⭐	2749
##צ	2750
##♋	2751
##̗	2752
##̀	2753
##ɕ	2754
##£	2755
##↣	2756
##教	2757
##🖤	2758
##ݨ	2759
##🎁	2760
##̩	2761
##̊	2762
##༅	2763
##ɣ	2764
##양	2765
##할	2766
##시	2767
##ꟽ	2768
##ው	2769
##謝	2770
##你	2771
##╦	2772
##ұ	2773
##ể	2774
##ĺ	2775
##♣	2776
##ව	2777
##ශ	2778
##ය	2779
##ෙ	2780
##😳	2781
##🌻	2782
##☆	2783
##🌚	2784
##̌	2785
##👌	2786
##ݛ	2787
##̉	2788
##◥	2789
##⃫	2790
##ҳ	2791
##ॉ	2792
##🕌	2793
##🌷	2794
##🌜	2795
##ፈ	2796
##ል	2797
##ጋ	2798
##🎈	2799
##🤠	2800
##⇦	2801
##ዴ	2802
##👈	2803
##ქ	2804
##მ	2805
##ს	2806
##య	2807
##อ	2808
##ถ	2809
##迪	2810
##ٟ	2811
##٪	2812
##۽	2813
##バ	2814
##ッ	2815
##ク	2816
##⠀	2817
##云	2818
##之	2819
##南	2820
##ṛ	2821
##॒	2822
##ī	2823
##🌍	2824
##🇦	2825
##♌	2826
##於	2827
##顯	2828
##示	2829
##了	2830
##着	2831
##屋	2832
##ধ	2833
##🎻	2834
##♊	2835
##ʔ	2836
##উ	2837
##ド	2838
##🏽	2839
##ň	2840
##ṇ	2841
##🔫	2842
##🍩	2843
##₩	2844
##ฮ	2845
##۬	2846
##ద	2847
##̯	2848
##화	2849
##하	2850
##는	2851
##̝	2852
##̥	2853
##🧐	2854
##🤨	2855
##·	2856
##😄	2857
##ই	2858
##🕊	2859
##❣	2860
##ɨ	2861
##ʀ	2862
##ǟ	2863
##🤎	2864
##真	2865
##的	2866
##很	2867
##爱	2868
##📑	2869
##雨	2870
##😱	2871
##🌝	2872
##ʻ	2873
##🇶	2874
##機	2875
##詞	2876
##彙	2877
##래	2878
##♠	2879
##చ	2880
##ే	2881
##స	2882
##🇸	2883
##≈	2884
##👊	2885
##उ	2886
##↝	2887
##ה	2888
##ם	2889
##◩	2890
##≯	2891
##ӎ	2892
##ά	2893
##ট	2894
##ੱ	2895
##ਥ	2896
##ੇ	2897
##ß	2898
##࿅	2899
##﴿	2900
##﮼	2901
##ನ	2902
##ಡ	2903
##٫	2904
##๑	2905
##æ	2906
##ಂ	2907
##ಧ	2908
##🐒	2909
##蝶	2910
##葬	2911
##花	2912
##😿	2913
##ધ	2914
##ી	2915
##ϋ	2916
##🧸	2917
##డ	2918
##👀	2919
##❦	2920
##ム	2921
##刀	2922
##ノ	2923
##の	2924
##ঔ	2925
##ۺ	2926
##🏹	2927
##문	2928
##희	2929
##🍃	2930
##ᑐ	2931
##ܢ	2932
##≧	2933
##∇	2934
##≦	2935
##ક	2936
##ƛ	2937
##ƴ	2938
##ɲ	2939
##𓆩	2940
##ओ	2941
##هه	2942
##ان	2943
جي	2944
##هههه	2945
##ري	2946
##هي	2947
##هن	2948
##ين	2949
##ون	2950
آهي	2951
##ار	2952
##يو	2953
##ائ	2954
کي	2955
ان	2956
##ال	2957
جو	2958
##ــ	2959
##ور	2960
##ند	2961
ته	2962
##هههههههه	2963
اس	2964
##لي	2965
تي	2966
##ام	2967
##نهن	2968
##اء	2969
##جي	2970
##يا	2971
##ئي	2972
هڪ	2973
اه	2974
ڪري	2975
##اڻ	2976
##دي	2977
کان	2978
لاء	2979
به	2980
سان	2981
##تي	2982
نه	2983
##اري	2984
ڪر	2985
ههههههههه	2986
هن	2987
ٿي	2988
اي	2989
##رو	2990
##ائي	2991
##اب	2992
ال	2993
هو	2994
تو	2995
##دا	2996
آهن	2997
##ير	2998
ڪرڻ	2999
##يڪ	3000
##لا	3001
يا	3002
ٿو	3003
اسان	3004
پي	3005
##هان	3006
اهو	3007
##ني	3008
جيڪ	3009
##دو	3010
لاءِ	3011
##ست	3012
مو	3013
##هر	3014
##ــــ	3015
ڪي	3016
##مي	3017
##ول	3018
##نهنجي	3019
##ءَ	3020
سگ	3021
پر	3022
هي	3023
توهان	3024
من	3025
ڪيو	3026
مان	3027
مون	3028
##سي	3029
##را	3030
##ائين	3031
##ڏهن	3032
جا	3033
##يل	3034
پو	3035
##ات	3036
##قي	3037
##جو	3038
##نگ	3039
وا	3040
ڪند	3041
##لو	3042
مع	3043
##قت	3044
ٿا	3045
ما	3046
رو	3047
ڪو	3048
بي	3049
ئي	3050
ههههه	3051
وي	3052
##اني	3053
##اهي	3054
مي	3055
وڌ	3056
##ڙي	3057
سو	3058
ڪم	3059
##اد	3060
##از	3061
او	3062
##ھن	3063
پنهنجي	3064
##هو	3065
##ڪي	3066
##اي	3067
##ھي	3068
##رف	3069
رهي	3070
##رين	3071
ويو	3072
##له	3073
##شن	3074
##سٽ	3075
انهن	3076
طور	3077
است	3078
##ههه	3079
سڀ	3080
##ئن	3081
##اص	3082
گه	3083
##بر	3084
وڃ	3085
##ورت	3086
ههههههههههههه	3087
##بي	3088
سي	3089
##اس	3090
##اف	3091
##ٽي	3092
خو	3093
##اڻي	3094
##اڪ	3095
##مت	3096
##گر	3097
مل	3098
ڏين	3099
سم	3100
##اا	3101
مح	3102
په	3103
##عم	3104
بر	3105
##ءِ	3106
ماڻ	3107
##گي	3108
##ڏي	3109
##ئين	3110
وين	3111
وڌيڪ	3112
هون	3113
وقت	3114
في	3115
سال	3116
##ٽر	3117
ڪج	3118
##ارو	3119
##مل	3120
هر	3121
اين	3122
در	3123
##سم	3124
##ها	3125
##کي	3126
##الي	3127
ڇا	3128
##ڙو	3129
گهر	3130
##عي	3131
##در	3132
ور	3133
##چي	3134
20	3135
##تر	3136
سند	3137
جن	3138
##نيا	3139
شي	3140
ڏي	3141
آھي	3142
اڳ	3143
سر	3144
جنهن	3145
مر	3146
تر	3147
##عمال	3148
ام	3149
مش	3150
استعمال	3151
تع	3152
مس	3153
##صو	3154
##ائڻ	3155
ڪئي	3156
##خت	3157
اهي	3158
لا	3159
##يت	3160
ڪن	3161
سن	3162
واري	3163
ڳال	3164
تائين	3165
##دار	3166
هئي	3167
جيڪو	3168
ڪنهن	3169
گڏ	3170
##بو	3171
نظ	3172
##اه	3173
لي	3174
##لام	3175
ڪريو	3176
اها	3177
##وي	3178
ڪجهه	3179
##ڻي	3180
ها	3181
##يم	3182
##ائن	3183
چيو	3184
بس	3185
مق	3186
ٿين	3187
##فت	3188
جڏهن	3189
نو	3190
##لم	3191
سگهي	3192
ڏينهن	3193
##تو	3194
سا	3195
##ندي	3196
وڃي	3197
رک	3198
جيڪي	3199
تم	3200
ڊي	3201
ههههههههههههههههه	3202
##سو	3203
##زي	3204
##ٺي	3205
##رح	3206
مط	3207
پوءِ	3208
حاص	3209
##ئر	3210
##ڪن	3211
منهنجي	3212
##ارن	3213
انهي	3214
دو	3215
با	3216
لڳ	3217
حاصل	3218
##نهنجو	3219
##نا	3220
از	3221
##سان	3222
ضر	3223
ٻڌ	3224
اع	3225
سندس	3226
##جود	3227
##ڪر	3228
##ڪو	3229
اح	3230
ٽي	3231
جيڪڏهن	3232
شا	3233
پاڻ	3234
تح	3235
##في	3236
##جن	3237
اص	3238
##ثر	3239
##ــــــــ	3240
علي	3241
##ايو	3242
##روع	3243
هئ	3244
##هم	3245
ڪا	3246
پن	3247
تمام	3248
شروع	3249
##ٿي	3250
ناهي	3251
الله	3252
##ندو	3253
##ئون	3254
ڇو	3255
گھ	3256
##ڪل	3257
ڪار	3258
##ڻو	3259
##اح	3260
فر	3261
باب	3262
##بت	3263
پرو	3264
تون	3265
##بل	3266
دنيا	3267
ههههههه	3268
ههههههههههه	3269
صح	3270
چي	3271
جون	3272
ٿيو	3273
رهيو	3274
ري	3275
##شي	3276
سمج	3277
##مين	3278
زند	3279
##ولي	3280
##ـــ	3281
##ھان	3282
اُ	3283
##نو	3284
مد	3285
##نڊ	3286
##ڪار	3287
انت	3288
يع	3289
وٽ	3290
##in	3291
##er	3292
آر	3293
وئي	3294
ڇڏ	3295
ٻي	3296
دل	3297
مت	3298
دور	3299
عل	3300
##تم	3301
وڏي	3302
##امل	3303
##دڙ	3304
ماڻهو	3305
ني	3306
اخ	3307
##ائون	3308
##ده	3309
نم	3310
عم	3311
تب	3312
ضرورت	3313
##من	3314
لک	3315
مخت	3316
##ڪا	3317
لو	3318
ويندو	3319
سب	3320
آم	3321
##الو	3322
مار	3323
صرف	3324
پيدا	3325
##ٺو	3326
19	3327
پار	3328
پڻ	3329
ويا	3330
نا	3331
پيش	3332
##اهر	3333
آخ	3334
موجود	3335
چو	3336
چون	3337
##انهن	3338
##امي	3339
##ستان	3340
##لف	3341
##اءِ	3342
خاص	3343
تن	3344
##ڪس	3345
##00	3346
ڪڏهن	3347
اچي	3348
##فر	3349
ٿيڻ	3350
زندگي	3351
##دن	3352
##عو	3353
جه	3354
وڏ	3355
طرف	3356
ڏس	3357
201	3358
##لب	3359
ڪيئن	3360
##ڪري	3361
را	3362
ڪندو	3363
##پي	3364
وال	3365
ڪه	3366
جيئن	3367
بابت	3368
سڀني	3369
##يني	3370
ڪت	3371
چاهي	3372
ماڻهن	3373
پڙ	3374
##عد	3375
##جا	3376
##ھو	3377
طري	3378
طرح	3379
##وري	3380
ڪمپ	3381
عمل	3382
##وو	3383
##مان	3384
##on	3385
تنهن	3386
شامل	3387
##هڻ	3388
##ران	3389
ٻئي	3390
سنڌ	3391
##صي	3392
غير	3393
يو	3394
هههههههههه	3395
##فا	3396
عام	3397
بل	3398
مختلف	3399
اڄ	3400
هههههههه	3401
يعني	3402
اڪ	3403
ڪيتر	3404
گهٽ	3405
ڪندا	3406
##ar	3407
وارو	3408
وان	3409
##ندا	3410
هئا	3411
هل	3412
هم	3413
ار	3414
گذ	3415
خي	3416
خبر	3417
اد	3418
ون	3419
اج	3420
بڻ	3421
آهيان	3422
نظر	3423
قسم	3424
##ندڙ	3425
##شت	3426
جم	3427
حال	3428
تج	3429
##كم	3430
قي	3431
ڳالهه	3432
سائي	3433
مڪ	3434
مدد	3435
رهيا	3436
مث	3437
##لس	3438
واق	3439
حقي	3440
نن	3441
##پور	3442
##رن	3443
هوندي	3444
دا	3445
قو	3446
ڏانهن	3447
شاي	3448
رس	3449
ٻن	3450
ڪندي	3451
وار	3452
اندر	3453
آمري	3454
هههههههههههه	3455
گهرجي	3456
واپ	3457
##بن	3458
اسٽ	3459
##طي	3460
ڪتاب	3461
##اتي	3462
هوندو	3463
##دم	3464
##قو	3465
گر	3466
آئون	3467
ڪندڙ	3468
نق	3469
پس	3470
تاري	3471
آهيون	3472
ڏيڻ	3473
جيڪا	3474
اچ	3475
ياد	3476
##ريون	3477
##ٽن	3478
ذري	3479
وچ	3480
ٻين	3481
##ڊيو	3482
ٿيل	3483
تاريخ	3484
سيا	3485
ھڪ	3486
پا	3487
##وني	3488
##an	3489
پاڪ	3490
مڪمل	3491
عورت	3492
جواب	3493
پري	3494
##ذا	3495
##اند	3496
##ترين	3497
ايس	3498
##ضي	3499
وري	3500
##وا	3501
ايم	3502
دي	3503
بين	3504
نئين	3505
آز	3506
تق	3507
انا	3508
##هين	3509
سبب	3510
فائ	3511
نالو	3512
آن	3513
##ڳو	3514
شهر	3515
فو	3516
کيس	3517
##ڙا	3518
##سين	3519
##ما	3520
##لن	3521
سگه	3522
بعد	3523
##es	3524
اپ	3525
##فظ	3526
ملڪ	3527
بد	3528
يق	3529
گهڻو	3530
ات	3531
##ورو	3532
بنيا	3533
##اااا	3534
هاڻي	3535
هتي	3536
##بار	3537
##شش	3538
پهرين	3539
##سن	3540
اف	3541
اهڙي	3542
تبدي	3543
ملي	3544
##زار	3545
##ٽو	3546
ختم	3547
##مو	3548
ههههههههههههههه	3549
##افي	3550
##تن	3551
##لاح	3552
##ٽا	3553
هههههه	3554
پنهنجو	3555
بند	3556
اڃ	3557
##رت	3558
آھن	3559
10	3560
سيڪ	3561
يون	3562
سگهو	3563
پيو	3564
۾،	3565
ٿيندو	3566
اهم	3567
اسڪ	3568
مسئ	3569
انگ	3570
سالن	3571
شايد	3572
##ادي	3573
##ڪيٽ	3574
ڇڏيو	3575
جان	3576
##زن	3577
ڏا	3578
ڪون	3579
##ڊي	3580
ادا	3581
فون	3582
رهن	3583
شو	3584
##شه	3585
##at	3586
ڪل	3587
ڏئي	3588
ٿئي	3589
هههههههههههههه	3590
وڏو	3591
شر	3592
وٺ	3593
ڇڏي	3594
هيٺ	3595
انسان	3596
ائين	3597
ـــــــــ	3598
خر	3599
دوست	3600
هٿ	3601
خلا	3602
عر	3603
##روري	3604
بح	3605
سام	3606
ايپ	3607
##اجي	3608
ويب	3609
##عت	3610
خط	3611
خيال	3612
##or	3613
##جب	3614
##خل	3615
##ضح	3616
##يان	3617
ڏنو	3618
##en	3619
آئي	3620
اسلام	3621
عليه	3622
بهترين	3623
صورت	3624
نٿ	3625
گو	3626
##ضو	3627
منهنجو	3628
ٻه	3629
##اءُ	3630
آيو	3631
حق	3632
اتي	3633
قيمت	3634
سگهن	3635
##لوم	3636
مطلب	3637
قان	3638
ڀي	3639
هجي	3640
وٺي	3641
##قل	3642
##ارف	3643
سوال	3644
رات	3645
اوهان	3646
ٺاهي	3647
معي	3648
ٻيو	3649
ڪمپني	3650
##به	3651
سين	3652
ويندي	3653
قر	3654
پئي	3655
بو	3656
پڇ	3657
وس	3658
خدا	3659
##وار	3660
ڪوشش	3661
##يح	3662
خوش	3663
پوء	3664
وانگر	3665
##پورٽ	3666
آهيو	3667
##پو	3668
مال	3669
##ءُ	3670
##ريل	3671
ذريعي	3672
##اج	3673
ڪيا	3674
امي	3675
##سوس	3676
in	3677
ڄاڻ	3678
ڪارو	3679
##سر	3680
حل	3681
فار	3682
ٽيڪ	3683
##ليم	3684
مخ	3685
##ur	3686
ڳو	3687
توھان	3688
صحيح	3689
آخر	3690
ٻار	3691
##مبر	3692
##مد	3693
ڪيل	3694
سوچ	3695
##جڻ	3696
رنگ	3697
##هور	3698
##فو	3699
##يرا	3700
##ڊر	3701
##ھنجي	3702
##al	3703
##حد	3704
غل	3705
منهن	3706
بچ	3707
بن	3708
حقيقت	3709
پاڻي	3710
لفظ	3711
تص	3712
تصو	3713
##عا	3714
معلوم	3715
سائيٽ	3716
##ريد	3717
هنن	3718
##يور	3719
مض	3720
ڏسي	3721
جل	3722
مم	3723
جاري	3724
##با	3725
اوھان	3726
شك	3727
قاب	3728
اڃا	3729
ترقي	3730
اک	3731
="	3732
والله	3733
##صر	3734
دوران	3735
ننڍ	3736
روز	3737
فيص	3738
انتظ	3739
خد	3740
هههههههههههههههه	3741
##اهه	3742
ڪان	3743
بال	3744
##ro	3745
##شان	3746
آب	3747
حڪو	3748
اصل	3749
ولا	3750
عال	3751
سڄ	3752
##ڊيا	3753
مٿ	3754
ھن	3755
##۔۔	3756
ضروري	3757
صف	3758
گھر	3759
##سل	3760
ڪيترن	3761
حڪ	3762
صاح	3763
##ساني	3764
اسين	3765
منظ	3766
اثر	3767
چين	3768
##لق	3769
ظاهر	3770
پاڪستان	3771
سفر	3772
جتي	3773
st	3774
مواد	3775
حصو	3776
##ورن	3777
ٻاهر	3778
##it	3779
لڳي	3780
علائ	3781
فق	3782
بهتر	3783
اول	3784
سندن	3785
رکي	3786
علا	3787
پون	3788
ساڳ	3789
پيار	3790
ءَ	3791
الم	3792
هُ	3793
اٿ	3794
ين	3795
مارڪيٽ	3796
ڪام	3797
عمر	3798
حڪومت	3799
مٿي	3800
##داز	3801
##باني	3802
پنهن	3803
##كن	3804
ـــــ	3805
ڪيت	3806
پهريون	3807
محسوس	3808
##ائم	3809
##le	3810
ڪجھ	3811
##خص	3812
عي	3813
مج	3814
آسان	3815
گرا	3816
مست	3817
هوندا	3818
الس	3819
مطاب	3820
آمريڪا	3821
اسپ	3822
تبديل	3823
جنگ	3824
مهي	3825
بيان	3826
صلاح	3827
ڏسڻ	3828
اھو	3829
رد	3830
ٿيون	3831
تصوير	3832
##ليل	3833
ڏني	3834
حو	3835
مثال	3836
سک	3837
على	3838
##ضوع	3839
ريا	3840
مز	3841
صاحب	3842
؟"	3843
چار	3844
لائن	3845
قب	3846
سه	3847
فرا	3848
ملا	3849
چه	3850
##جه	3851
وارا	3852
معيار	3853
خلاف	3854
تنهنجي	3855
##لان	3856
جسم	3857
پهچ	3858
##ستي	3859
##ظيم	3860
آف	3861
پئ	3862
طرفان	3863
##حي	3864
خريد	3865
##اپ	3866
##ic	3867
خدمت	3868
اڻ	3869
رڳو	3870
##ڙن	3871
ڳاله	3872
خود	3873
co	3874
##ازي	3875
تان	3876
##ڏھن	3877
##داد	3878
عو	3879
ٿيندي	3880
سگهجي	3881
##ميشه	3882
رکڻ	3883
اب	3884
اختي	3885
##تا	3886
شع	3887
راند	3888
زمين	3889
##ائل	3890
هوءَ	3891
ھو	3892
##كت	3893
دست	3894
##رم	3895
تجر	3896
اش	3897
الي	3898
##يي	3899
##قا	3900
حلو	3901
ڏک	3902
##ارت	3903
##صد	3904
##گرام	3905
##ياتي	3906
تيار	3907
ڏيک	3908
ھي	3909
قانون	3910
قدر	3911
سچ	3912
##دين	3913
شخص	3914
تف	3915
پيا	3916
##ايت	3917
##ٽرو	3918
ايران	3919
ڊيٽا	3920
دف	3921
واپس	3922
ڏاڍ	3923
سپ	3924
##ائر	3925
##اڪاڻ	3926
##داري	3927
##ديد	3928
ڇاڪاڻ	3929
##ڪرو	3930
انداز	3931
پيداوار	3932
بخ	3933
پسند	3934
##ِي	3935
عن	3936
ڏيو	3937
مين	3938
برا	3939
الح	3940
منت	3941
نتي	3942
مص	3943
آيا	3944
قابل	3945
چونڊ	3946
##سٽم	3947
##ٽل	3948
##ائو	3949
مشهور	3950
شين	3951
اعلي	3952
ڪيترائي	3953
شه	3954
کا	3955
##انو	3956
##ره	3957
##ڪٽ	3958
انهيءَ	3959
##تل	3960
15	3961
مونکي	3962
نظام	3963
هميشه	3964
تقري	3965
18	3966
##st	3967
اجاز	3968
بلا	3969
نيو	3970
##بان	3971
##ينڊ	3972
صن	3973
داخل	3974
آپ	3975
توکي	3976
تا	3977
چوڻ	3978
ڊگ	3979
##ڪاري	3980
موق	3981
##هون	3982
##غير	3983
ٻنهي	3984
صارف	3985
##دس	3986
طا	3987
بار	3988
اجازت	3989
مهر	3990
##مون	3991
##اسب	3992
پلي	3993
an	3994
آء	3995
يقين	3996
باري	3997
##ing	3998
شاع	3999
وز	4000
آو	4001
خوب	4002
الا	4003
حس	4004
پاس	4005
وارن	4006
ڏٺو	4007
سٺو	4008
سڏ	4009
هذا	4010
پير	4011
ههههههههههههههههههه	4012
##ڌو	4013
##يون	4014
جيتو	4015
##ڻيڪ	4016
نٿو	4017
بنيادي	4018
جيتوڻيڪ	4019
##قن	4020
واقعي	4021
مري	4022
##ڪيشن	4023
؟؟	4024
تحقي	4025
##اسين	4026
##فوظ	4027
وڃڻ	4028
راب	4029
ڊو	4030
سرو	4031
نف	4032
محفوظ	4033
##ذه	4034
##زا	4035
آه	4036
##ed	4037
کانپو	4038
200	4039
لائ	4040
##اھ	4041
نئون	4042
موضوع	4043
##يات	4044
12	4045
نگ	4046
طاقت	4047
##ڌي	4048
موڪل	4049
كل	4050
قائم	4051
يور	4052
##رر	4053
ڪلا	4054
ٽيڪن	4055
مُ	4056
##انن	4057
##نت	4058
ڪونه	4059
آواز	4060
ڏن	4061
ابو	4062
هههه	4063
گراه	4064
هههههههههههههههههه	4065
پروگرام	4066
هيو	4067
##ريڪ	4068
ڪاميا	4069
ڪير	4070
##ميت	4071
##id	4072
##et	4073
ڄڻ	4074
يه	4075
تعليم	4076
حد	4077
ره	4078
اسلامي	4079
کڻي	4080
##آآ	4081
##سپ	4082
ايڪس	4083
##وٽ	4084
سمجهي	4085
معلومات	4086
ڳول	4087
شيء	4088
حض	4089
سائين	4090
##ياري	4091
شادي	4092
ايت	4093
هجڻ	4094
حڪم	4095
##ڙهي	4096
تحقيق	4097
##خوا	4098
سخت	4099
ميل	4100
اسٽي	4101
ويندا	4102
محبت	4103
آخري	4104
ڪور	4105
##صل	4106
سگھ	4107
گرو	4108
اك	4109
اميد	4110
هاي	4111
اڪثر	4112
مطابق	4113
پنھنجي	4114
خراب	4115
##هار	4116
مقصد	4117
اسڪول	4118
منصو	4119
##am	4120
حي	4121
ڀر	4122
##ضحك	4123
##اريو	4124
فراهم	4125
روح	4126
نام	4127
نالي	4128
جڳ	4129
آزاد	4130
##خواست	4131
##ac	4132
کانپوءِ	4133
درخواست	4134
حالت	4135
سط	4136
زم	4137
##وه	4138
که	4139
انساني	4140
##يڪل	4141
معا	4142
##ٽري	4143
سگھي	4144
غلط	4145
##ڻڻ	4146
ٻارن	4147
سيڪڙو	4148
حم	4149
لاز	4150
##دال	4151
ڊاڪ	4152
چڪو	4153
انگري	4154
##سٽر	4155
مفت	4156
خان	4157
##ليس	4158
سڃ	4159
نس	4160
چڱ	4161
پور	4162
آهين	4163
گهڻي	4164
ٻيهر	4165
##art	4166
احس	4167
فقط	4168
##ارين	4169
11	4170
پٽ	4171
ڪمي	4172
آفي	4173
th	4174
سون	4175
##دگي	4176
سڄي	4177
ڪپ	4178
ٿيا	4179
رج	4180
پنج	4181
اض	4182
ڪهڙي	4183
ــ	4184
##رفت	4185
سائن	4186
انٽر	4187
ٻولي	4188
to	4189
اختيار	4190
نقص	4191
فلم	4192
فيصلو	4193
##هائي	4194
##حا	4195
##ريان	4196
سياسي	4197
باقي	4198
##ion	4199
##ائش	4200
##ليڪيشن	4201
).	4202
##طو	4203
پاران	4204
سُ	4205
##گل	4206
طريقي	4207
ذهن	4208
جهڙو	4209
ٽو	4210
بنياد	4211
ڊر	4212
ٻڌايو	4213
اق	4214
ـــ	4215
نوجو	4216
هههههههههههههههههههه	4217
ڪافي	4218
تخ	4219
##بح	4220
ڪڍ	4221
مناسب	4222
30	4223
رست	4224
وسي	4225
ڊاڪٽر	4226
##سٽري	4227
202	4228
حر	4229
ورتو	4230
اڳتي	4231
سنگ	4232
اڳو	4233
اچڻ	4234
ايل	4235
مرڪ	4236
##ريو	4237
رق	4238
ٽر	4239
##ec	4240
##el	4241
عالمي	4242
فن	4243
سطح	4244
نش	4245
قدم	4246
##ow	4247
##كر	4248
##مار	4249
مقاب	4250
رياست	4251
آءٌ	4252
ڏسو	4253
کول	4254
شيون	4255
شاگر	4256
ايندڙ	4257
ميڊيا	4258
ملڪن	4259
100	4260
کين	4261
وڊيو	4262
ممڪن	4263
کن	4264
مه	4265
پل	4266
ڳوٺ	4267
طب	4268
دلچ	4269
ڪٿي	4270
تس	4271
اون	4272
ست	4273
##ٽس	4274
نقصان	4275
ده	4276
مرح	4277
علم	4278
ويج	4279
خوبص	4280
تش	4281
##ٽنگ	4282
##دارن	4283
ائ	4284
##زر	4285
##دان	4286
ٽن	4287
اڪائون	4288
۔۔۔	4289
اُن	4290
ڪاروبار	4291
##ورڊ	4292
##طن	4293
ترتي	4294
السلام	4295
فع	4296
ضرور	4297
مهرباني	4298
گي	4299
##الاجي	4300
واحد	4301
چاهيو	4302
فارم	4303
آمريڪي	4304
##گار	4305
##is	4306
##ائيل	4307
جدا	4308
انج	4309
##il	4310
سلام	4311
مسلم	4312
##خخ	4313
ذاتي	4314
##جر	4315
##us	4316
له	4317
ڪيون	4318
شروعات	4319
پڪ	4320
##عه	4321
عب	4322
وج	4323
گهڻ	4324
ٽيڪنالاجي	4325
##گو	4326
##as	4327
اعلان	4328
##مم	4329
اصلي	4330
ترتيب	4331
مضمون	4332
لاڳ	4333
تڪ	4334
##عن	4335
##فتي	4336
هفت	4337
صحت	4338
صدر	4339
##هيل	4340
انھن	4341
نمبر	4342
حقيقي	4343
وڻ	4344
##re	4345
تعلق	4346
##يد	4347
مسئلو	4348
انٽرني	4349
پيام	4350
تڏهن	4351
موت	4352
مطال	4353
سسٽم	4354
رفت	4355
صو	4356
بڻجي	4357
##پر	4358
##سٽي	4359
##ڪت	4360
تعم	4361
##ڪشن	4362
14	4363
ايئر	4364
كم	4365
##ay	4366
هين	4367
حير	4368
ٽيم	4369
لوڊ	4370
##شل	4371
##اندي	4372
گل	4373
##اهڻ	4374
##چر	4375
هنڌ	4376
رپورٽ	4377
##ڊل	4378
13	4379
فل	4380
هاڻ	4381
ڊائون	4382
رح	4383
اني	4384
##فاظ	4385
ڌر	4386
##يندا	4387
يار	4388
هلي	4389
گوگل	4390
يونيور	4391
سٺي	4392
مذه	4393
##زو	4394
بج	4395
ماح	4396
عورتن	4397
سنڌي	4398
پوري	4399
گفت	4400
ڏنل	4401
ڳن	4402
دير	4403
تك	4404
##صوص	4405
##اط	4406
##مه	4407
##ريف	4408
شڪ	4409
قوم	4410
##احت	4411
نفس	4412
ماءُ	4413
چئي	4414
اِ	4415
وض	4416
ڪجي	4417
ايه	4418
وڃن	4419
طريقو	4420
اھ	4421
قل	4422
مشين	4423
ايپليڪيشن	4424
سامان	4425
##الر	4426
##ستائين	4427
هيون	4428
سماجي	4429
##ex	4430
##ئل	4431
حضرت	4432
ڪردار	4433
اط	4434
لك	4435
##oo	4436
لڳو	4437
<<	4438
پوليس	4439
رھ	4440
زي	4441
لکڻ	4442
تعمير	4443
پيغ	4444
ٺاهڻ	4445
ڏيکاري	4446
جديد	4447
دري	4448
ڪيس	4449
##ٽرول	4450
حفاظ	4451
پورو	4452
##ريب	4453
احساس	4454
آپري	4455
##هوري	4456
ڪين	4457
قومي	4458
ول	4459
گذريل	4460
جذ	4461
خوبصورت	4462
سروس	4463
سار	4464
##حت	4465
##سا	4466
جيت	4467
موب	4468
##الا	4469
معني	4470
ڪهاڻي	4471
مرد	4472
متا	4473
علاج	4474
##ورا	4475
">	4476
ڪرا	4477
بلڪل	4478
حصي	4479
##زم	4480
##اتو	4481
پارٽي	4482
واضح	4483
##ائيڊ	4484
مساف	4485
تيز	4486
الع	4487
عملي	4488
اخت	4489
تبديلي	4490
اڪائونٽ	4491
روش	4492
پوندو	4493
dur	4494
##ظم	4495
وڌي	4496
نڪ	4497
پاسي	4498
start	4499
##بوط	4500
آگ	4501
بت	4502
حص	4503
خاند	4504
25	4505
وش	4506
ڀيرو	4507
##ديق	4508
اکين	4509
##شم	4510
##ڪان	4511
گراهڪن	4512
16	4513
##ائيندو	4514
ڪاري	4515
نٿا	4516
ڪوبه	4517
حوالي	4518
##ديم	4519
ميمبر	4520
موجب	4521
خير	4522
##ڏو	4523
وٺڻ	4524
سج	4525
ٻيا	4526
آزادي	4527
صلاحيت	4528
موجوده	4529
صبح	4530
سلس	4531
عوام	4532
يورپ	4533
ايف	4534
باد	4535
صاف	4536
لن	4537
##ارڊ	4538
پڙهي	4539
مٿان	4540
##ميو	4541
عظيم	4542
قبول	4543
##وت	4544
گھٽ	4545
ھڪڙو	4546
جلد	4547
##ئو	4548
گڏيل	4549
##ابي	4550
ضح	4551
وق	4552
ڏيندو	4553
هند	4554
17	4555
##زل	4556
##ريم	4557
محمد	4558
عند	4559
##زائن	4560
مقرر	4561
##يب	4562
تعداد	4563
شرح	4564
##حان	4565
اعت	4566
نوجوان	4567
##يندو	4568
##ـــــ	4569
بيش	4570
رقم	4571
##ٽڻ	4572
##ڪڻ	4573
ترج	4574
لازمي	4575
اهڙو	4576
رهڻ	4577
سرگر	4578
##خي	4579
پڙهڻ	4580
آرٽ	4581
حت	4582
ڪنٽرول	4583
خرچ	4584
انتظار	4585
شان	4586
نيٽ	4587
لان	4588
##لاس	4589
##ad	4590
ولي	4591
##ٺيان	4592
سل	4593
##ارڻ	4594
مير	4595
ههه	4596
##ot	4597
پوسٽ	4598
سواءِ	4599
زين	4600
مضبوط	4601
هيءَ	4602
>>	4603
##رار	4604
مهيا	4605
##ولت	4606
نموني	4607
متاثر	4608
##ٺا	4609
ڪهڙو	4610
زندگيءَ	4611
يونيورسٽي	4612
تہ	4613
راندي	4614
ايو	4615
ديو	4616
چا	4617
آفيس	4618
اَ	4619
تاز	4620
هه	4621
انسٽ	4622
ڌيان	4623
##انس	4624
ڪريان	4625
خوشي	4626
##ھين	4627
##ائيو	4628
عدال	4629
##وڙ	4630
##رات	4631
صنعت	4632
بع	4633
احت	4634
ڀا	4635
ذڪر	4636
پنهنجن	4637
وزير	4638
مڙ	4639
پهچي	4640
##وز	4641
خواب	4642
##ارا	4643
جھ	4644
##شنل	4645
بينڪ	4646
انگريزي	4647
آباد	4648
سف	4649
وه	4650
##um	4651
رکيو	4652
لاڳاپ	4653
ڪئين	4654
ذميو	4655
برط	4656
##آن	4657
##ئڻ	4658
##سڪ	4659
##نس	4660
ڪال	4661
##شق	4662
سگهون	4663
##حال	4664
خاصيت	4665
فائل	4666
##ol	4667
##دود	4668
براب	4669
##ڳي	4670
##دت	4671
##افت	4672
پھ	4673
منج	4674
فرق	4675
##ريا	4676
زال	4677
استاد	4678
وف	4679
رب	4680
پُ	4681
اوزار	4682
آرام	4683
##هيون	4684
روشني	4685
ڪئ	4686
مليو	4687
50	4688
يءَ	4689
واڌ	4690
جلدي	4691
ڪرڻو	4692
حفاظت	4693
ڪريون	4694
جمهوري	4695
جنھن	4696
##ثيت	4697
تصديق	4698
چم	4699
##اڻو	4700
بيم	4701
شيءِ	4702
وڪرو	4703
علاوه	4704
##گه	4705
and	4706
ڪارڪر	4707
علائقي	4708
وضاحت	4709
معام	4710
##افٽ	4711
ڪلڪ	4712
هزار	4713
ڪارڪردگي	4714
مهم	4715
گروپ	4716
سرڪاري	4717
ڪراچي	4718
هفتي	4719
رسائي	4720
جيڪڏھن	4721
ونڊ	4722
##نين	4723
گري	4724
##لع	4725
##يوٽر	4726
##ابت	4727
##دايت	4728
تنظيم	4729
نور	4730
حيثيت	4731
پهريان	4732
تنهنڪري	4733
ــــ	4734
ٺهيل	4735
ڪارڊ	4736
مالي	4737
پال	4738
##قبل	4739
گا	4740
جر	4741
##داشت	4742
##شر	4743
شكرا	4744
رستو	4745
فط	4746
تجربو	4747
##ext	4748
شم	4749
ملڪي	4750
موسم	4751
جهاز	4752
ندي	4753
##يه	4754
ماڊل	4755
ريل	4756
ھڪڙي	4757
نشان	4758
پڇيو	4759
سنڀ	4760
مف	4761
ادب	4762
جمع	4763
رفتار	4764
وائر	4765
##قات	4766
قتل	4767
لکي	4768
گم	4769
پليٽ	4770
##تان	4771
انڊ	4772
غلطي	4773
وجود	4774
ٿيندا	4775
##تال	4776
ميز	4777
##باد	4778
ايندو	4779
جائ	4780
ڪمپيوٽر	4781
جاءِ	4782
24	4783
آءِ	4784
##ou	4785
يم	4786
سيٽ	4787
ماهر	4788
تصور	4789
مڃ	4790
نوڪري	4791
ميو	4792
ليک	4793
پيغام	4794
مائ	4795
سائنس	4796
##os	4797
معاه	4798
##وف	4799
##لى	4800
انٽرنيٽ	4801
ريت	4802
هڪڙي	4803
لاڳو	4804
ڏاڍو	4805
لب	4806
اقت	4807
گرفت	4808
##ڀر	4809
##خر	4810
مستقبل	4811
شاعري	4812
جوڙ	4813
مجمو	4814
##امو	4815
##كل	4816
بحث	4817
re	4818
امت	4819
##مائي	4820
ماحول	4821
اھي	4822
ڪونهي	4823
ماني	4824
خواه	4825
al	4826
##مپ	4827
اصول	4828
##گري	4829
##ليف	4830
##ااا	4831
ڊالر	4832
دان	4833
شاء	4834
ڳالهيون	4835
ترين	4836
چر	4837
گرمي	4838
بخش	4839
اگر	4840
چند	4841
امير	4842
زور	4843
دٻ	4844
##شيا	4845
ويئي	4846
امام	4847
افغ	4848
##رحال	4849
حسين	4850
گرم	4851
ايمان	4852
ويون	4853
ٽران	4854
##ch	4855
##ھر	4856
لل	4857
انتي	4858
ٻڌي	4859
##دري	4860
پيرو	4861
##ائيندي	4862
ٽرين	4863
##باري	4864
يقيني	4865
وزن	4866
معم	4867
قط	4868
##ig	4869
اسڪرين	4870
بڻائي	4871
##ent	4872
##ونا	4873
دفعو	4874
اڳيان	4875
ٿيندڙ	4876
علام	4877
نسل	4878
##يلو	4879
ڪاميابي	4880
##گز	4881
سگهيو	4882
ابت	4883
اللي	4884
بنا	4885
ميڪ	4886
##َر	4887
خوف	4888
رهندو	4889
موبائل	4890
ٿورو	4891
##مر	4892
kn	4893
##پٽ	4894
صفح	4895
لکيو	4896
ڪامياب	4897
##اله	4898
##لات	4899
ڪوڊ	4900
##ub	4901
وڪ	4902
ڪُ	4903
دين	4904
؟؟؟	4905
تنهنجو	4906
ايترو	4907
##نٽ	4908
ورڪ	4909
منهنجا	4910
ڪندڙن	4911
سڃاڻ	4912
شڪل	4913
ماري	4914
سوشل	4915
199	4916
##قوامي	4917
ڊگهي	4918
شڪار	4919
سگھو	4920
انتظام	4921
بادش	4922
بورڊ	4923
قانوني	4924
برابر	4925
اظ	4926
ڳولي	4927
مب	4928
نمي	4929
##صيل	4930
بهرحال	4931
##لسل	4932
##ليت	4933
پيءُ	4934
ثق	4935
جيستائين	4936
مخصوص	4937
ثابت	4938
##انڊ	4939
##جيب	4940
##ياب	4941
##هندي	4942
سگهان	4943
الاقوامي	4944
آڪ	4945
حتى	4946
000	4947
##دد	4948
ايڊ	4949
صورتحال	4950
ناڪ	4951
##ميل	4952
مخال	4953
هيچ	4954
ساڻ	4955
##اوي	4956
زمان	4957
کانسو	4958
##بلي	4959
انقل	4960
صدي	4961
ڪاب	4962
##اڊ	4963
اهڙا	4964
عدالت	4965
اڌ	4966
متع	4967
ٺيڪ	4968
##ادت	4969
مقابلي	4970
سافٽ	4971
com	4972
افغان	4973
پاب	4974
گذاري	4975
طبي	4976
فور	4977
فلس	4978
وفا	4979
پوي	4980
خاندان	4981
وو	4982
چڪا	4983
بابا	4984
ٻو	4985
##ريز	4986
عرب	4987
رت	4988
نوٽ	4989
##كي	4990
##غيره	4991
خال	4992
هدايت	4993
برق	4994
دوستن	4995
##راني	4996
چونڊيو	4997
سياست	4998
زبان	4999
##لائي	5000
حالتن	5001
##ڇي	5002
هوس	5003
هڪڙو	5004
the	5005
سور	5006
عرصي	5007
تفصيل	5008
##ag	5009
##ارتي	5010
بق	5011
دار	5012
جهڙوڪ	5013
تخلي	5014
ايندي	5015
ڌرتي	5016
##وجود	5017
##ايان	5018
نص	5019
##ڙين	5020
زخ	5021
##لاق	5022
ch	5023
##om	5024
سمنڊ	5025
ڳالھ	5026
ing	5027
##وووو	5028
اڏ	5029
دعا	5030
درد	5031
سول	5032
نڪري	5033
##ذي	5034
##ائيٽ	5035
لفظن	5036
ڳنڍ	5037
اضافي	5038
2020	5039
كله	5040
توان	5041
ايپل	5042
مَ	5043
##قع	5044
##ter	5045
شاگردن	5046
خار	5047
شام	5048
کولڻ	5049
ساڳي	5050
مارڪيٽنگ	5051
الف	5052
ڳولا	5053
##اع	5054
تعلي	5055
ملاقات	5056
زماني	5057
##ائيندا	5058
##سنگ	5059
حساب	5060
حياتي	5061
##بري	5062
ملين	5063
فيس	5064
سوچيو	5065
##ap	5066
جڳهه	5067
ڊپ	5068
نٿي	5069
آسم	5070
لم	5071
باوجود	5072
فهر	5073
##رڪ	5074
##ختي	5075
بيماري	5076
فهرست	5077
know	5078
اٽ	5079
باز	5080
##اض	5081
##ايل	5082
بلاگ	5083
##ٽيو	5084
ملڻ	5085
40	5086
قد	5087
ويل	5088
##زيشن	5089
22	5090
##ٽين	5091
##th	5092
مختصر	5093
پنهنجا	5094
سيل	5095
ويجهو	5096
ڀلي	5097
چوي	5098
##ندر	5099
انف	5100
کو	5101
##هايو	5102
هال	5103
يس	5104
##کيون	5105
درو	5106
لائين	5107
##ماغ	5108
##انه	5109
ڇوڪري	5110
##ئس	5111
##ـي	5112
ڪنداسين	5113
فائدو	5114
منتقل	5115
2019	5116
مرا	5117
چڪي	5118
دماغ	5119
مهين	5120
نيوز	5121
لاڳاپيل	5122
آئين	5123
وڌائڻ	5124
##ائيس	5125
علائقن	5126
موسي	5127
ويئر	5128
موڪ	5129
ڪاروباري	5130
دع	5131
لڪ	5132
ميدان	5133
سمجھ	5134
##اااااااا	5135
##ريت	5136
چاهيندا	5137
شاعر	5138
عز	5139
سگھن	5140
شاندار	5141
شوي	5142
کر	5143
راندين	5144
21	5145
نڪر	5146
##يف	5147
مالڪ	5148
ڪلاڪ	5149
##خو	5150
عا	5151
جڏھن	5152
سنڀال	5153
فض	5154
##عظم	5155
کل	5156
درست	5157
اعتم	5158
ڇپ	5159
##سپي	5160
##تك	5161
##ارٽ	5162
رکو	5163
واس	5164
##اما	5165
پريشان	5166
پک	5167
انتهائي	5168
ٻڌائي	5169
هيا	5170
پين	5171
ڌار	5172
راز	5173
ليڪ	5174
##عات	5175
ميٽر	5176
جهڙي	5177
مهينن	5178
غور	5179
گذري	5180
بدر	5181
رستي	5182
کانسواءِ	5183
##ڙيل	5184
تنھن	5185
ننڊ	5186
چيزي	5187
رڪار	5188
وڏا	5189
حبي	5190
سري	5191
ويڪ	5192
اکيون	5193
##پن	5194
بيشڪ	5195
جئين	5196
##ماني	5197
پوئ	5198
سڀئي	5199
وغيره	5200
يك	5201
روڊ	5202
لکيل	5203
ڏو	5204
##هيه	5205
##جون	5206
سامهون	5207
آپريشن	5208
توانائي	5209
صور	5210
پيڪ	5211
هئڻ	5212
تجز	5213
آمد	5214
ڏاڍي	5215
بجلي	5216
اشت	5217
اهميت	5218
آل	5219
الز	5220
اسپتال	5221
en	5222
منظر	5223
غريب	5224
##ve	5225
##چو	5226
مقامي	5227
بون	5228
##مينٽ	5229
چڱي	5230
مگر	5231
وڃو	5232
##حاظ	5233
بغير	5234
قبل	5235
##رب	5236
##طا	5237
الن	5238
ڪيائين	5239
##ئا	5240
##فته	5241
بيو	5242
امان	5243
ٽرانس	5244
##im	5245
ڏيندا	5246
2018	5247
##ir	5248
##ــي	5249
وڪي	5250
ٻول	5251
تقريبن	5252
موقعو	5253
دلچسپ	5254
رڪارڊ	5255
بئن	5256
قس	5257
وَ	5258
پائي	5259
اعليٰ	5260
هيءُ	5261
منٽ	5262
##نڊن	5263
نتيجي	5264
حيرت	5265
آڻڻ	5266
##ul	5267
##انگ	5268
صارفين	5269
text	5270
قديم	5271
واپار	5272
دلچسپي	5273
اڃان	5274
ٺاهيو	5275
بندي	5276
كان	5277
پول	5278
آرٽيڪل	5279
سميت	5280
برقرار	5281
بھ	5282
يوم	5283
ايڇ	5284
##انيه	5285
##يز	5286
سوچي	5287
آساني	5288
##چه	5289
##ab	5290
پوئتي	5291
آس	5292
زو	5293
فٽ	5294
وص	5295
يال	5296
##ينا	5297
ليه	5298
بڻائڻ	5299
فرم	5300
ڳالهائڻ	5301
سمجهيو	5302
پڙهن	5303
مغ	5304
ڌي	5305
##شو	5306
##اءَ	5307
هُن	5308
ايتري	5309
,,	5310
at	5311
جام	5312
مسلسل	5313
محدود	5314
امن	5315
قرض	5316
مصنو	5317
لحاظ	5318
دوا	5319
گن	5320
##فه	5321
##پل	5322
ڏکڻ	5323
آڻ	5324
چيائين	5325
مسئلن	5326
مسافر	5327
يک	5328
قرار	5329
مات	5330
##جد	5331
انه	5332
قسمن	5333
اث	5334
ڏينھن	5335
قرآن	5336
اعتماد	5337
چاهيان	5338
##un	5339
##ڄي	5340
بص	5341
گول	5342
##em	5343
الص	5344
شايع	5345
گهڻا	5346
شوق	5347
er	5348
نہ	5349
##يس	5350
وائرس	5351
##ڙپ	5352
زن	5353
ناز	5354
الڳ	5355
ڪيترا	5356
عالم	5357
##بال	5358
اچو	5359
عيس	5360
سَ	5361
اجلاس	5362
تحفظ	5363
ڪنھن	5364
خل	5365
##ٺل	5366
کار	5367
نظري	5368
عوامي	5369
بيڪ	5370
##ٽائي	5371
نيا	5372
واٽ	5373
con	5374
فوج	5375
انسٽال	5376
اڇ	5377
##روف	5378
آفري	5379
##وند	5380
خالي	5381
مشت	5382
ٽيسٽ	5383
متح	5384
قدرتي	5385
هز	5386
ڳا	5387
##ِن	5388
##ڙڻ	5389
ذات	5390
عشق	5391
تحت	5392
اڳواڻ	5393
هجن	5394
اسم	5395
ارس	5396
ننڍي	5397
##سه	5398
سواء	5399
ادارن	5400
دعو	5401
ايراني	5402
##ادر	5403
##يندي	5404
##ess	5405
آخرڪار	5406
##حن	5407
##دائي	5408
ڪندس	5409
جز	5410
لائسن	5411
سٽ	5412
سائ	5413
##انا	5414
ورتي	5415
مقدار	5416
اچن	5417
ڳولڻ	5418
##عودي	5419
جذب	5420
##شا	5421
##ليا	5422
##شتي	5423
##لڊ	5424
ويس	5425
2017	5426
مزاح	5427
ادي	5428
##نى	5429
اظهار	5430
##ers	5431
حڪمت	5432
##ٿر	5433
##ــــــ	5434
طريق	5435
پوندي	5436
تصويرون	5437
رابطو	5438
##ئه	5439
فعال	5440
ساڳيو	5441
براي	5442
شهري	5443
مڙس	5444
عجيب	5445
##كه	5446
23	5447
ڪسٽم	5448
انص	5449
اتر	5450
جنسي	5451
مذهبي	5452
##عام	5453
گڏو	5454
ارب	5455
سڏيو	5456
بئنڪ	5457
مظ	5458
منھنجي	5459
چنڊ	5460
##يراعظم	5461
جسماني	5462
is	5463
سڌو	5464
##ڊيٽ	5465
ڪلو	5466
معياري	5467
ماڻھو	5468
سماج	5469
شرط	5470
مهيني	5471
ڪڍي	5472
شاگرد	5473
انقلاب	5474
ارا	5475
ويڊيو	5476
بدل	5477
ڊائ	5478
هوا	5479
ڏان	5480
شخصيت	5481
ھر	5482
##ارش	5483
مئي	5484
##ut	5485
##ڏانهن	5486
ڪرائي	5487
فرانس	5488
##roid	5489
ساڳئي	5490
##طه	5491
گھرجي	5492
امتحان	5493
چيڪ	5494
##بير	5495
##جيٽل	5496
گڏجي	5497
فري	5498
خامو	5499
ڊوائيس	5500
ٽائي	5501
ايئن	5502
ايجن	5503
مخالف	5504
ڊجيٽل	5505
جاچ	5506
مثل	5507
وزيراعظم	5508
حصن	5509
android	5510
لائسنس	5511
26	5512
ساز	5513
صد	5514
نگر	5515
پويان	5516
مارچ	5517
الو	5518
ڪيترو	5519
ڪَ	5520
پراڻي	5521
پروسي	5522
منظور	5523
سلسلي	5524
مجموعي	5525
##ڪٽر	5526
مافي	5527
اسٽيشن	5528
مسلمان	5529
ائي	5530
رائ	5531
وات	5532
اوچ	5533
احتجا	5534
##oc	5535
منزل	5536
آڪٽو	5537
##رل	5538
فڪر	5539
لباس	5540
نيڪ	5541
گيت	5542
منظم	5543
کائڻ	5544
ڏيندي	5545
وانا	5546
ليکڪ	5547
##وم	5548
ڪيم	5549
اڪيلو	5550
ــــــــ	5551
طيب	5552
مور	5553
##مڻ	5554
##كس	5555
جنم	5556
ڪورٽ	5557
نمائ	5558
اشارو	5559
جرم	5560
عه	5561
##ظر	5562
##ايون	5563
شعر	5564
آڪٽوبر	5565
روم	5566
ٻڌڻ	5567
معمولي	5568
sh	5569
##ثي	5570
ٿوري	5571
خيلي	5572
ملاز	5573
ar	5574
راه	5575
##رز	5576
اسٽور	5577
تاريخي	5578
شهي	5579
والدين	5580
مطابقت	5581
دستياب	5582
معنيٰ	5583
ذميواري	5584
فت	5585
پالي	5586
ايندا	5587
مسئلي	5588
حلوه	5589
فيه	5590
بلو	5591
پرين	5592
##ia	5593
##پس	5594
ڪمري	5595
ٽيون	5596
شاهه	5597
طريقا	5598
بدران	5599
رين	5600
چيني	5601
بلڪ	5602
ممكن	5603
چڱو	5604
هندستان	5605
روشن	5606
فا	5607
هُو	5608
مرڪز	5609
sp	5610
ڊيو	5611
ڪالي	5612
موٽي	5613
##امه	5614
##بيت	5615
دستاوي	5616
تجزيو	5617
عذ	5618
کليل	5619
اسپين	5620
يورپي	5621
گهربل	5622
سينٽر	5623
چئ	5624
مشڪل	5625
داخ	5626
گرفتار	5627
خواهش	5628
بم	5629
خور	5630
##ياد	5631
هوٽل	5632
سيڙپ	5633
##ind	5634
سڌ	5635
##ڻن	5636
غلام	5637
##راف	5638
ڪتابن	5639
سيريز	5640
##ھنجو	5641
مشك	5642
سهولت	5643
ھئي	5644
تعريف	5645
گراهڪ	5646
اضاف	5647
سد	5648
سڪ	5649
هيٺيان	5650
بيت	5651
سيپٽ	5652
باغ	5653
سگهندا	5654
ڪابه	5655
اسيم	5656
نماز	5657
برو	5658
نر	5659
سيپٽمبر	5660
روس	5661
##pt	5662
موسيقي	5663
فوري	5664
پلا	5665
##کيه	5666
ڪمپنين	5667
سڄو	5668
رسي	5669
بود	5670
ندا	5671
198	5672
طريقن	5673
فوت	5674
ڀري	5675
##شمن	5676
اڳي	5677
فوجي	5678
فطرت	5679
##ٻي	5680
ضحك	5681
جائزو	5682
حج	5683
سزا	5684
مدا	5685
پئسا	5686
لين	5687
ڳالهين	5688
قص	5689
ٻُ	5690
دورو	5691
فوٽو	5692
طلب	5693
##يندڙ	5694
تيل	5695
واپسي	5696
لنڪ	5697
on	5698
مئ	5699
ھون	5700
##اسي	5701
##ميم	5702
مره	5703
عليها	5704
چيز	5705
2016	5706
اتفا	5707
قومن	5708
هيڪ	5709
مدي	5710
ڊزائن	5711
اسر	5712
197	5713
شما	5714
ڪرائڻ	5715
خلاص	5716
جيترو	5717
بونس	5718
رن	5719
##ـآ	5720
ليش	5721
se	5722
راح	5723
اذا	5724
##لينڊ	5725
ترجمو	5726
آسمان	5727
60	5728
عنصر	5729
##ڪش	5730
##ستاني	5731
##لها	5732
اخبار	5733
آبادي	5734
مشتمل	5735
سير	5736
اسيمبلي	5737
سست	5738
##نيئر	5739
محنت	5740
فقير	5741
ex	5742
طال	5743
نوان	5744
چوندا	5745
28	5746
زر	5747
رض	5748
ساري	5749
جنرل	5750
ڏيئي	5751
انجنيئر	5752
انعام	5753
موٽر	5754
بحال	5755
پَ	5756
چان	5757
ڀيٽ	5758
ڪميون	5759
هار	5760
وب	5761
ڀيرا	5762
##حڪ	5763
اينڊر	5764
رکندڙ	5765
##طف	5766
##گيري	5767
##لاد	5768
سفارش	5769
ٽين	5770
##ٿا	5771
اهل	5772
قيام	5773
واقع	5774
آگسٽ	5775
قسمت	5776
هينئر	5777
am	5778
بک	5779
فصل	5780
چيم	5781
##گن	5782
##قول	5783
زير	5784
مٽي	5785
##ائب	5786
تعا	5787
ادائي	5788
مذهب	5789
دائ	5790
##جان	5791
اتح	5792
ڪانه	5793
پهچائڻ	5794
برطان	5795
عزت	5796
اضافو	5797
تجو	5798
گلي	5799
وڏن	5800
ادبي	5801
سِ	5802
عزي	5803
لسٽ	5804
##انڪ	5805
ميوز	5806
ne	5807
دشمن	5808
گزار	5809
جنس	5810
27	5811
؟!	5812
نع	5813
سدائين	5814
چور	5815
##ونه	5816
روڪ	5817
سمجهڻ	5818
آرڊر	5819
رهندا	5820
ونڊوز	5821
خاط	5822
ڀريل	5823
جيئ	5824
سڃاڻپ	5825
حرف	5826
اداري	5827
ڪيتريون	5828
un	5829
##الن	5830
تحريڪ	5831
رهندي	5832
##ثير	5833
##راهي	5834
ساٿ	5835
ڪاليج	5836
کڻڻ	5837
cr	5838
##ڙيون	5839
سياحت	5840
ميان	5841
بغ	5842
دڪان	5843
عجب	5844
نين	5845
پٿر	5846
ساٿي	5847
ٻڌو	5848
رابطي	5849
آئ	5850
سعودي	5851
##آمد	5852
صفحا	5853
حيران	5854
الج	5855
نيست	5856
خلي	5857
ڀلا	5858
##جڪ	5859
برانڊ	5860
وسيع	5861
جيل	5862
هوائي	5863
رواي	5864
پرڏي	5865
##ائيندڙ	5866
پيٽ	5867
گهري	5868
صنع	5869
شب	5870
موقعي	5871
سگھجي	5872
##گا	5873
انڪار	5874
مسئلا	5875
سوچڻ	5876
##گير	5877
جنوري	5878
ناڪام	5879
جبل	5880
پابندي	5881
شيئر	5882
موڪليو	5883
ڪلاس	5884
حمايت	5885
2021	5886
##حه	5887
##بئي	5888
احتجاج	5889
tr	5890
هع	5891
سموري	5892
ترڪي	5893
ڊيزائن	5894
پروفي	5895
##ack	5896
ڏانھن	5897
##ريس	5898
افغانستان	5899
قيم	5900
مکيه	5901
##لك	5902
نومبر	5903
ملڪيت	5904
انصاف	5905
ويهي	5906
امڪان	5907
##يورٽي	5908
ضاب	5909
قال	5910
هست	5911
##ـن	5912
##سمبر	5913
هليو	5914
##ation	5915
سرگرمي	5916
آهنگ	5917
##فيد	5918
فائلون	5919
##ver	5920
##چار	5921
ڪوئي	5922
زخمي	5923
مصنوعات	5924
pl	5925
حاد	5926
دم	5927
ماضي	5928
ٻڌل	5929
گھڻو	5930
قلب	5931
پکي	5932
##اڻڻ	5933
ed	5934
وح	5935
رهيون	5936
مردن	5937
آدم	5938
ندو	5939
##ڻا	5940
##ليٽ	5941
ريم	5942
هائو	5943
روپ	5944
هيٺين	5945
گاڏي	5946
آسٽري	5947
لنڊن	5948
ڪائن	5949
##ak	5950
ادائيگي	5951
رُ	5952
غر	5953
فيل	5954
##ڙڪ	5955
##ائس	5956
سنڏ	5957
هئس	5958
هٿن	5959
##if	5960
هوء	5961
ناهن	5962
اقول	5963
آھ	5964
اٺ	5965
خصو	5966
راءِ	5967
گهو	5968
لڳا	5969
ٻيون	5970
خصوصي	5971
##بول	5972
انك	5973
ملائي	5974
درجي	5975
احمد	5976
الزام	5977
شده	5978
كه	5979
ماپ	5980
جاء	5981
نفر	5982
##كك	5983
اقتص	5984
##عل	5985
ايا	5986
سيني	5987
##فرنس	5988
هندو	5989
عورتون	5990
اپڊيٽ	5991
موٽ	5992
سمجهان	5993
ڪانهي	5994
ڪميشن	5995
دهشت	5996
ad	5997
عنو	5998
ڪنڊ	5999
تازو	6000
اينڊرائيڊ	6001
آيل	6002
آڻي	6003
حاض	6004
خات	6005
اوڀر	6006
تعالي	6007
فرض	6008
كيف	6009
##ly	6010
تقريبا	6011
مسي	6012
ناول	6013
##کر	6014
رکن	6015
##and	6016
80	6017
جهان	6018
متن	6019
رانديگر	6020
ڪائون	6021
##فڪ	6022
ڪرايو	6023
ليگ	6024
يمكن	6025
اڪي	6026
قول	6027
ليس	6028
رجسٽر	6029
مقابلو	6030
##پان	6031
پراڊ	6032
واقعا	6033
ڳالهائي	6034
اگ	6035
الخ	6036
انجام	6037
کلي	6038
نواز	6039
wh	6040
حب	6041
تبص	6042
الحال	6043
هاءِ	6044
ڏنا	6045
##ايه	6046
پراڊڪٽ	6047
کائي	6048
##هيهي	6049
##امين	6050
سمجهه	6051
متباد	6052
سائيز	6053
وفات	6054
ھاڻي	6055
##ينه	6056
عمارت	6057
2015	6058
هونديون	6059
رسول	6060
ـــــــــــــــــ	6061
ٻاه	6062
ميمبرن	6063
مني	6064
گُ	6065
ويٺو	6066
ابي	6067
فه	6068
ڊسمبر	6069
انو	6070
باهه	6071
وفاقي	6072
تجويز	6073
cl	6074
مها	6075
پٺيان	6076
##ڙيءَ	6077
سوي	6078
##پيڊيا	6079
شهرن	6080
عقي	6081
##گڏ	6082
##ـــــــ	6083
ڏکيو	6084
نتيجو	6085
گڏوگڏ	6086
وزار	6087
ڪھ	6088
##لت	6089
##ڊنگ	6090
##ٻئي	6091
##حب	6092
واقف	6093
پيروي	6094
</	6095
pro	6096
يورو	6097
عندي	6098
نالا	6099
##ٽيف	6100
متبادل	6101
ضم	6102
نصي	6103
وٺو	6104
##پوري	6105
##ائنٽ	6106
خطرن	6107
گزارش	6108
اُهي	6109
ضرورتن	6110
مريض	6111
منصوبي	6112
المو	6113
سبق	6114
شرڪت	6115
تعاون	6116
مبار	6117
واريون	6118
ڳالهايو	6119
اصلا	6120
وڙ	6121
ٿر	6122
نشاني	6123
<<<	6124
ڏياري	6125
اپريل	6126
مزو	6127
تسليم	6128
تڪليف	6129
ناق	6130
هلائڻ	6131
پئجي	6132
35	6133
de	6134
شف	6135
##لوڊ	6136
ٽيبل	6137
عربي	6138
اٿم	6139
ڪجھه	6140
شهيد	6141
500	6142
شد	6143
يڪ	6144
خريداري	6145
اليڪٽر	6146
ڪورونا	6147
29	6148
لاش	6149
فرد	6150
شعور	6151
##ect	6152
ڀاءُ	6153
پارڪ	6154
أن	6155
بڪ	6156
تھ	6157
سرا	6158
ايڊي	6159
##يڪشن	6160
ابتدائي	6161
قيمتي	6162
##کان	6163
194	6164
عيسي	6165
سلسلو	6166
يلا	6167
طاقتور	6168
معاش	6169
##ct	6170
توڙي	6171
مينهن	6172
کاتي	6173
روي	6174
وزارت	6175
آھيان	6176
اڳوڻي	6177
معاملي	6178
دعوي	6179
حسن	6180
ڳڻ	6181
##ڊا	6182
ماڻهوءَ	6183
بچائڻ	6184
رانديون	6185
##ازن	6186
پاليسي	6187
کڻ	6188
سيڙپڪاري	6189
ڪيتري	6190
it	6191
ماش	6192
سگهندو	6193
جرمني	6194
اتفاق	6195
فرو	6196
##رسي	6197
آزم	6198
90	6199
هٿي	6200
چپ	6201
##قد	6202
ڪوڙ	6203
سرور	6204
وجهي	6205
پرڏيهي	6206
##تائي	6207
الر	6208
ڪمز	6209
##ايد	6210
چوڌ	6211
خدمتن	6212
تازه	6213
هزارين	6214
le	6215
##سك	6216
روڪي	6217
گهرجن	6218
امين	6219
ڪائنات	6220
كنت	6221
##طان	6222
الك	6223
##اتل	6224
خودڪار	6225
تاب	6226
##ريٽ	6227
of	6228
اڀ	6229
مڇي	6230
ڊيل	6231
کوٽ	6232
##ريءَ	6233
تربيت	6234
196	6235
عالي	6236
##وره	6237
مثبت	6238
شروعاتي	6239
وسلم	6240
منصوبو	6241
هيس	6242
##رافي	6243
اصط	6244
سيڪيورٽي	6245
xn	6246
ڊرائيو	6247
or	6248
غم	6249
مؤ	6250
ايش	6251
ڪارپوري	6252
حقن	6253
عبدال	6254
آمدني	6255
كن	6256
گلو	6257
جانور	6258
سکڻ	6259
اطلا	6260
فتح	6261
عج	6262
##بروري	6263
##فق	6264
ورلڊ	6265
امري	6266
تخليق	6267
أنا	6268
بجي	6269
تهيه	6270
جدو	6271
چوٿ	6272
ضحكت	6273
ريڪ	6274
تحري	6275
اغ	6276
ڄاڻي	6277
##سيم	6278
ڪاپي	6279
ٽيڪس	6280
وڪيپيڊيا	6281
کني	6282
##اعت	6283
ڇڏڻ	6284
وينديون	6285
us	6286
افت	6287
مله	6288
##ڪرين	6289
سيد	6290
نظم	6291
يقينا	6292
وڪيل	6293
لهي	6294
کولي	6295
##ce	6296
جانورن	6297
شراب	6298
رخ	6299
كلام	6300
مِ	6301
ڀڃ	6302
##ٽڪ	6303
هلندڙ	6304
بادشاهه	6305
خون	6306
ڪِ	6307
اخر	6308
خدمتون	6309
##umx	6310
دليل	6311
وطن	6312
##سٽڪ	6313
##خخخخ	6314
عاد	6315
نكت	6316
##کو	6317
اند	6318
##الم	6319
اميدو	6320
آءُ	6321
لازم	6322
70	6323
هذه	6324
يت	6325
ڀڳ	6326
ميڊ	6327
برداشت	6328
مائي	6329
دوستي	6330
لانچ	6331
اصطلاح	6332
منع	6333
اندروني	6334
گهڻن	6335
ٽرانسپورٽ	6336
ma	6337
بيل	6338
حيات	6339
رئي	6340
وِ	6341
##راهه	6342
گهرو	6343
ماڻھن	6344
تعرف	6345
##فرد	6346
يونين	6347
ڪانفرنس	6348
نج	6349
موڪلي	6350
دعوت	6351
بہ	6352
ضمان	6353
##ib	6354
##برد	6355
فيبروري	6356
وساري	6357
##ٽرويو	6358
ضمانت	6359
جهن	6360
انٽرويو	6361
##ووو	6362
چارج	6363
تجربي	6364
ٻاهرين	6365
^^	6366
sc	6367
ضل	6368
طلاق	6369
##يري	6370
هڪٻئي	6371
ويڙ	6372
هفته	6373
xnumx	6374
سازي	6375
فائيل	6376
فخر	6377
##عة	6378
##يوم	6379
منفرد	6380
بحالي	6381
اٿس	6382
تعليمي	6383
آيت	6384
جُ	6385
سڌي	6386
پهتو	6387
ڪاوڙ	6388
سمجهن	6389
پسندي	6390
ــــــ	6391
روحاني	6392
هڻي	6393
پهر	6394
##يڪار	6395
پڌ	6396
##غذ	6397
گفتگو	6398
اقتصادي	6399
رپ	6400
لأ	6401
چرچ	6402
لنگ	6403
ٽئين	6404
ساهه	6405
خاصيتون	6406
نمائند	6407
دهشتگر	6408
##سري	6409
سنو	6410
انڊسٽري	6411
نفرت	6412
مجب	6413
ڪٽ	6414
##سب	6415
##سته	6416
چيه	6417
ٽري	6418
ڊيم	6419
##وال	6420
##پا	6421
ايشيا	6422
##افظ	6423
زنده	6424
معاملو	6425
مك	6426
مصر	6427
کپي	6428
##وڪي	6429
پيچي	6430
اولاد	6431
چيست	6432
پاور	6433
سپر	6434
برطانيه	6435
يافته	6436
##ٺيون	6437
صفحي	6438
چاهيون	6439
سائيڪل	6440
ثقافت	6441
45	6442
##جهه	6443
##َن	6444
##ڙائي	6445
##عيت	6446
روايتي	6447
##هاري	6448
##ندس	6449
##يره	6450
ڪاررو	6451
ڪارڪن	6452
سمجه	6453
متعارف	6454
بلوچ	6455
محبو	6456
بدلي	6457
اليڪشن	6458
ترا	6459
##قلي	6460
##up	6461
##امن	6462
منح	6463
وڌو	6464
برس	6465
انتخ	6466
گذر	6467
پريس	6468
خيالن	6469
اندازو	6470
شاه	6471
اوھين	6472
معاهدي	6473
ناس	6474
وير	6475
مرڪزي	6476
لطف	6477
##io	6478
##تيون	6479
پيئڻ	6480
پوزيشن	6481
مرمت	6482
هت	6483
وڌائي	6484
##اصر	6485
اڳيون	6486
ذريعو	6487
پهچڻ	6488
نتيجا	6489
جوڙجڪ	6490
تار	6491
##ائپ	6492
پيئي	6493
روڪڻ	6494
سادي	6495
يونٽ	6496
ــــــــــــــ	6497
ابراهي	6498
##يييي	6499
مجبور	6500
##بة	6501
##کن	6502
عقل	6503
مٽ	6504
هٽ	6505
ڀارت	6506
##ديت	6507
انتظامي	6508
کاڌي	6509
##مممم	6510
انفرا	6511
آي	6512
##زح	6513
اهڙن	6514
هنا	6515
مرت	6516
##est	6517
عنوان	6518
00	6519
##شد	6520
وڃائي	6521
ڏيان	6522
نقل	6523
رھيو	6524
جد	6525
رول	6526
##قه	6527
واع	6528
امداد	6529
احد	6530
پاڻيءَ	6531
##ريڪٽر	6532
ريلوي	6533
اور	6534
قبر	6535
##هل	6536
##اڻا	6537
کاڌو	6538
qu	6539
حمل	6540
زبرد	6541
ير	6542
گهرن	6543
##شيد	6544
حلوة	6545
ڪپڙا	6546
بندو	6547
تڪر	6548
رز	6549
شڪر	6550
نار	6551
جادو	6552
روسي	6553
ڏسندا	6554
سائيٽن	6555
as	6556
bl	6557
لع	6558
لينڊ	6559
گھڻي	6560
واپاري	6561
>>>	6562
for	6563
طول	6564
نمائش	6565
پڙهندڙ	6566
aw	6567
درجه	6568
واقعن	6569
قوت	6570
يقول	6571
ـــــــ	6572
مبارڪ	6573
ap	6574
عشان	6575
چڪ	6576
کيڏ	6577
ڊرائ	6578
##0ع	6579
وقتي	6580
آھيو	6581
نبي	6582
برقي	6583
##ink	6584
مزاحمت	6585
چئن	6586
تياري	6587
هيل	6588
وڃان	6589
برن	6590
سرڪار	6591
مقص	6592
سگھون	6593
انتخاب	6594
هارڊ	6595
پتو	6596
ڊبل	6597
##ابل	6598
رم	6599
پروف	6600
2014	6601
افسوس	6602
سونهن	6603
ءِ	6604
ڏٺ	6605
توقع	6606
##اڪو	6607
مدت	6608
نمون	6609
والد	6610
مٿين	6611
مهل	6612
اٿي	6613
طرز	6614
نون	6615
موڊ	6616
فيڪ	6617
ڊز	6618
بيٽري	6619
سيک	6620
##گيز	6621
راضي	6622
ڪهڙا	6623
ابراهيم	6624
وڌڻ	6625
2013	6626
بڻايو	6627
انٽرنيشنل	6628
نگراني	6629
##اڻين	6630
ذميوار	6631
تاج	6632
ڌو	6633
##ip	6634
ڏيندڙ	6635
پنڌ	6636
مصروف	6637
معاشي	6638
درا	6639
داد	6640
چُ	6641
انھي	6642
##نگي	6643
##ate	6644
##اھر	6645
بش	6646
ارت	6647
دستاويز	6648
عزيز	6649
31	6650
پچ	6651
ٿور	6652
ھا	6653
##ائشي	6654
اكيد	6655
نڪتو	6656
اوچتو	6657
رهو	6658
تعجب	6659
نيشنل	6660
ڪائونسل	6661
آغ	6662
مذ	6663
وهي	6664
ٺاھ	6665
##گاه	6666
##یک	6667
انڊيا	6668
نيٺ	6669
کوليو	6670
مقصدن	6671
ڏها	6672
##og	6673
رکيل	6674
فائر	6675
پڇي	6676
اسٽيٽ	6677
تُ	6678
##گين	6679
انجڻ	6680
دوري	6681
عليكم	6682
ٻيٽ	6683
روزاني	6684
لائق	6685
پروفيسر	6686
##انسي	6687
چيف	6688
آفريڪا	6689
شور	6690
چرا	6691
پرت	6692
منٽن	6693
شعبي	6694
##igh	6695
پلاسٽڪ	6696
36	6697
sm	6698
##az	6699
هيك	6700
سکيا	6701
سرگرمين	6702
آسٽريليا	6703
آندو	6704
ااااا	6705
ڇڪ	6706
گنا	6707
##عمل	6708
##اهري	6709
##ويئر	6710
ارسال	6711
تلا	6712
متو	6713
ٽڪر	6714
ڙي	6715
##لوي	6716
پنجن	6717
ٺاهيندڙ	6718
اياز	6719
تل	6720
داري	6721
ڪوٽ	6722
بيٺو	6723
بررسي	6724
مسجد	6725
آهستي	6726
32	6727
بٽڻ	6728
سپورٽ	6729
##وب	6730
##زش	6731
بلند	6732
پاسو	6733
ڪيان	6734
سرب	6735
##بوت	6736
ذهني	6737
جميل	6738
##ثن	6739
##ينج	6740
شيءَ	6741
سادو	6742
اُهو	6743
لوڪ	6744
حملو	6745
مھ	6746
نھ	6747
پالڻ	6748
اتحاد	6749
im	6750
##فن	6751
##ولو	6752
ميچ	6753
رکندو	6754
خبرون	6755
دفعي	6756
آفيسر	6757
خاموش	6758
ميوزڪ	6759
:)	6760
فين	6761
ندڙ	6762
ووٽ	6763
##اڻيو	6764
ترجي	6765
ڀرسان	6766
سؤ	6767
عرا	6768
نرم	6769
ھل	6770
##اوت	6771
mo	6772
ملو	6773
##نل	6774
##يول	6775
195	6776
درواز	6777
لطي	6778
هلا	6779
چڙهي	6780
##ین	6781
شيخ	6782
چوندو	6783
تنقي	6784
تجارتي	6785
عندك	6786
ڪئم	6787
عذاب	6788
خاطر	6789
صنعتي	6790
##سس	6791
خطرو	6792
اٿئي	6793
رسم	6794
ڀرو	6795
##خن	6796
##چا	6797
ڪرين	6798
مايو	6799
مرضي	6800
هلڻ	6801
زمرو	6802
آڇ	6803
إن	6804
ظلم	6805
مک	6806
ماهي	6807
سوم	6808
سڀاڻي	6809
وٺندو	6810
منظوري	6811
داخلا	6812
منحصر	6813
##ڊٽ	6814
بيهي	6815
تعارف	6816
رکون	6817
##all	6818
فورم	6819
ڳنڍيل	6820
ادار	6821
پٽي	6822
##op	6823
##ain	6824
اداڪار	6825
فنڪشن	6826
وائي	6827
##ثار	6828
ملندي	6829
علمي	6830
جرمن	6831
صلي	6832
لال	6833
##اره	6834
##اڻن	6835
باقا	6836
رجحان	6837
##ائجي	6838
##ستر	6839
موثر	6840
معامل	6841
احتر	6842
هفتن	6843
خارجي	6844
حاضر	6845
جار	6846
ذي	6847
سنجي	6848
مقام	6849
روزانو	6850
وڊيوز	6851
مطالبو	6852
اڻي	6853
موجودگي	6854
ڪميٽي	6855
چوڌاري	6856
طئي	6857
وڇ	6858
##هيو	6859
اسپي	6860
فيشن	6861
فرانسي	6862
ڪلاڪن	6863
فٽبال	6864
بـ	6865
مآ	6866
##دل	6867
وڌندڙ	6868
پيرن	6869
مائڪرو	6870
ملازمن	6871
ڪمزور	6872
معاملن	6873
ag	6874
##vid	6875
انگيز	6876
سرٽيف	6877
ڇڏيا	6878
انسانن	6879
معيشت	6880
ڊائريڪٽر	6881
مسيح	6882
هندي	6883
الق	6884
حرڪت	6885
شن	6886
##پنگ	6887
##ڙهو	6888
چاهين	6889
قيد	6890
اسٽيل	6891
باڪ	6892
ورا	6893
پلان	6894
سالي	6895
ذريعن	6896
ٻوليءَ	6897
بنگ	6898
خش	6899
يح	6900
ڪاغذ	6901
ايئرپورٽ	6902
ارادو	6903
تت	6904
وم	6905
ڌن	6906
ڪلام	6907
##یس	6908
اصلاح	6909
علائقو	6910
شهرين	6911
ناقابل	6912
ڪارروائي	6913
ٽڪ	6914
##عيد	6915
شريف	6916
قا	6917
قلم	6918
وحد	6919
##ريٽري	6920
الت	6921
سوالن	6922
منصوبن	6923
دؤ	6924
ميني	6925
##ist	6926
##day	6927
پيل	6928
ماڳ	6929
ڊيٽ	6930
هلائي	6931
ڀرپور	6932
علامت	6933
we	6934
بلي	6935
مرڻ	6936
ڊائونلوڊ	6937
بعض	6938
خطرناڪ	6939
الموضوع	6940
راس	6941
قاع	6942
هـ	6943
اُتي	6944
فائدا	6945
سڃاتو	6946
ٻولين	6947
وع	6948
##ود	6949
##وس	6950
##7ع	6951
ميون	6952
اسٽوري	6953
عرض	6954
ڄاڻڻ	6955
عبادت	6956
بيمار	6957
رساله	6958
##خلت	6959
مسلمانن	6960
متحرڪ	6961
##ريح	6962
##روز	6963
تقريب	6964
آلو	6965
##iv	6966
اکر	6967
ثقاف	6968
خوراڪ	6969
زبردست	6970
فى	6971
يکي	6972
##ڌا	6973
آھيون	6974
رکندي	6975
بندر	6976
سيڪريٽري	6977
اسرائيل	6978
ڪئميرا	6979
ab	6980
لكن	6981
ھئا	6982
ويٺي	6983
##one	6984
##صيلي	6985
بلڪه	6986
pre	6987
بدن	6988
كت	6989
هستي	6990
ڪلي	6991
الش	6992
ياداشت	6993
پوک	6994
مثالي	6995
مراد	6996
وت	6997
##جع	6998
نهايت	6999
ڪناري	7000
فيصل	7001
بزر	7002
طوف	7003
ماء	7004
کنيو	7005
تشدد	7006
چمڪ	7007
حاج	7008
سئو	7009
پائڻ	7010
پيرا	7011
پروڊ	7012
فيصلي	7013
هائوس	7014
رٿ	7015
شنا	7016
هتان	7017
پٺ	7018
ڊول	7019
ڪس	7020
##اق	7021
##باب	7022
قابليت	7023
دفعا	7024
sub	7025
ااااااااا	7026
##اڙي	7027
کير	7028
روايت	7029
پارلي	7030
ڀيڻ	7031
عيد	7032
**	7033
انٽ	7034
##ورة	7035
ڊيسڪ	7036
تنھنجي	7037
خطري	7038
نيوي	7039
##ame	7040
باقاع	7041
tw	7042
آڏو	7043
وڌايو	7044
هئاسين	7045
چينل	7046
قدرت	7047
منتقلي	7048
):	7049
99	7050
##رس	7051
##يرن	7052
ڊگهو	7053
رھيا	7054
دريافت	7055
ساڻس	7056
نڪرڻ	7057
جشن	7058
ڪٿ	7059
##پاني	7060
##ارڪ	7061
##ياس	7062
ايج	7063
پوائنٽ	7064
مادي	7065
نظارو	7066
##تمند	7067
ڪمپنيون	7068
بچائي	7069
قبضو	7070
انسانيت	7071
مرحله	7072
##ood	7073
حصيداري	7074
ماهرن	7075
اٽڪل	7076
وصول	7077
ند	7078
ڊزائين	7079
آآآ	7080
بري	7081
بازي	7082
اينڊ	7083
اعتبار	7084
زهر	7085
فارسي	7086
نوجوانن	7087
##ook	7088
ڏند	7089
##جل	7090
بازار	7091
رئيس	7092
33	7093
راي	7094
طل	7095
پد	7096
##شاني	7097
معاف	7098
##ـــي	7099
گرد	7100
پاڪستاني	7101
يكون	7102
چڙ	7103
ڪارن	7104
##او	7105
ڪمن	7106
لڳل	7107
چمڙي	7108
ٽائيم	7109
لطيف	7110
##يابي	7111
ناھي	7112
ملازم	7113
تقرير	7114
معاشري	7115
اطلاع	7116
ٽيو	7117
چيل	7118
ورها	7119
تحليل	7120
##ائونڊ	7121
بچڻ	7122
رياضي	7123
نسبت	7124
ip	7125
ڪيئي	7126
معصو	7127
چيئر	7128
ريڊيو	7129
سهڻي	7130
مريم	7131
ڊومين	7132
دلي	7133
دولت	7134
ڊڄ	7135
##ليه	7136
ڪرڻي	7137
ورهين	7138
سرهندي	7139
تباهه	7140
حوص	7141
قلت	7142
me	7143
خصوص	7144
لات	7145
کٽ	7146
##ڱي	7147
حدي	7148
فك	7149
هذي	7150
##ra	7151
اليوم	7152
پرواز	7153
يوٽيو	7154
فارمي	7155
--	7156
بط	7157
##سون	7158
##هندو	7159
##ئيشن	7160
مناف	7161
ملندو	7162
فائدي	7163
شكله	7164
ڄڻا	7165
جمي	7166
آخرين	7167
پاڙي	7168
اختلا	7169
شاعريءَ	7170
علامه	7171
حبيب	7172
محبوب	7173
سختي	7174
كر	7175
نتيجن	7176
sind	7177
فني	7178
ڊسپ	7179
ٻڌائڻ	7180
اخلا	7181
اپيل	7182
حصا	7183
new	7184
بُ	7185
شريڪ	7186
گولي	7187
معك	7188
ڪنڌ	7189
لڳندو	7190
ڪارخ	7191
ڪنديون	7192
ننڍڙي	7193
برسات	7194
تري	7195
شير	7196
پبل	7197
##ذير	7198
##ڏا	7199
پيماني	7200
لغ	7201
##ارم	7202
جاڳ	7203
ڏسندي	7204
اسٽاڪ	7205
سياري	7206
ٿينديون	7207
گيري	7208
ليڪن	7209
sindh	7210
يب	7211
کنڊ	7212
##ft	7213
ڪيف	7214
منك	7215
فعل	7216
پيامبر	7217
فرانسيسي	7218
رش	7219
رھي	7220
##ive	7221
جوڙي	7222
توسان	7223
ماع	7224
امر	7225
لڳائڻ	7226
پڙهو	7227
ننڍو	7228
صفائي	7229
covid	7230
بلاڪ	7231
تنگ	7232
ٽا	7233
##ڊن	7234
فيك	7235
پنھنجو	7236
صفحو	7237
ثبوت	7238
ٺهر	7239
پگ	7240
ڀت	7241
ڪلب	7242
##ھار	7243
معت	7244
تقسيم	7245
::	7246
ic	7247
بگ	7248
سلي	7249
كتي	7250
ٽريڪ	7251
پنا	7252
ورزن	7253
ڇڏيندو	7254
حالتون	7255
##ie	7256
##ونڊي	7257
سرچ	7258
تصويرن	7259
فيلڊ	7260
be	7261
انش	7262
واقعو	7263
اثرائ	7264
نمائندگي	7265
ht	7266
تازي	7267
مزي	7268
##هري	7269
مددگار	7270
ٺاهيل	7271
يوٽيوب	7272
فلو	7273
##ڙيو	7274
##دير	7275
الب	7276
##راض	7277
خواهي	7278
شرطن	7279
جب	7280
##قسم	7281
##فل	7282
##صف	7283
##ورڪ	7284
##روم	7285
##سوسي	7286
مستقل	7287
لح	7288
مـ	7289
##ik	7290
عملن	7291
بنت	7292
ماحولي	7293
ڪهاڻيون	7294
پسنديده	7295
احترام	7296
غائب	7297
پيد	7298
##ٽيءَ	7299
ملن	7300
مارجي	7301
گهٽتائي	7302
خاصيتن	7303
برف	7304
مضحك	7305
##pl	7306
نقطي	7307
پريشاني	7308
تقول	7309
##كتب	7310
سپريم	7311
##سٽريشن	7312
رانديگرن	7313
تڪرار	7314
فاص	7315
مــ	7316
ٽيل	7317
ڀو	7318
##پڻ	7319
##ڊو	7320
##ثريت	7321
پيپل	7322
مشق	7323
هئو	7324
حملي	7325
ترجيح	7326
##قسمتي	7327
ڪئن	7328
##دة	7329
##صب	7330
پرست	7331
ڪورس	7332
انھيءَ	7333
لئه	7334
مند	7335
پان	7336
##1ع	7337
جوا	7338
ويٺا	7339
عليك	7340
الناس	7341
اثرات	7342
ڪرن	7343
ڇڏيندا	7344
بالغ	7345
پنهنجون	7346
صفحه	7347
واسطو	7348
يالله	7349
##ight	7350
تضحك	7351
ظاهري	7352
هڻ	7353
هاء	7354
ڌم	7355
##حر	7356
##8ع	7357
##جنن	7358
2012	7359
همه	7360
300	7361
عادي	7362
چڪر	7363
افز	7364
هيٺان	7365
آپريٽنگ	7366
پڙهيو	7367
تبصرو	7368
خطي	7369
قوي	7370
لق	7371
مسٽر	7372
ڀريو	7373
گير	7374
##هاي	7375
##اده	7376
معاهدو	7377
سگھوٿا	7378
دُ	7379
مهان	7380
نان	7381
##ies	7382
پياري	7383
ڊرائيور	7384
تد	7385
سك	7386
مفيد	7387
پلس	7388
##يج	7389
##ھڻ	7390
پرس	7391
حالا	7392
اتان	7393
سامونڊي	7394
پهچائي	7395
today	7396
متعلق	7397
برطانيا	7398
كده	7399
##iz	7400
##ارات	7401
اسمار	7402
##سيل	7403
مطالعو	7404
وقف	7405
##حڪم	7406
اسمارٽ	7407
شھر	7408
لاهي	7409
هِ	7410
ڪچه	7411
گورن	7412
##ژه	7413
##حة	7414
##سيت	7415
چوري	7416
رهجي	7417
تنقيد	7418
ثقافتي	7419
رڪ	7420
اعرف	7421
ــــــــــ	7422
مهينا	7423
مزد	7424
ٽرئ	7425
خارج	7426
عاشق	7427
گنج	7428
اخلاقي	7429
اسڪو	7430
توجي	7431
اما	7432
ڪارڻ	7433
راهه	7434
##ڊيشن	7435
المهم	7436
تفصيلي	7437
آپشن	7438
انگريزن	7439
toاڻڻ	7440
ارو	7441
فول	7442
##5ع	7443
پيج	7444
ويچ	7445
سوئ	7446
گهڙي	7447
چوان	7448
سينٽ	7449
مستحڪم	7450
سائنسي	7451
پابند	7452
چڪاس	7453
اسٽوريج	7454
ندار	7455
چاھ	7456
ڪول	7457
ماهه	7458
کاٻي	7459
##ill	7460
مطالعي	7461
نيٽورڪ	7462
ڏوهه	7463
you	7464
ڏهن	7465
گرين	7466
##ڙها	7467
تيزي	7468
سرمائي	7469
احم	7470
طرفن	7471
پيپلز	7472
پمپ	7473
ٿڪ	7474
##ريشن	7475
##ائيءَ	7476
سيم	7477
ملت	7478
##ٽرن	7479
احب	7480
هلندو	7481
شرم	7482
حضور	7483
سلامت	7484
اڳواڻن	7485
دؤر	7486
شل	7487
صبر	7488
##همي	7489
پيچ	7490
پيون	7491
واش	7492
لڳائي	7493
##ine	7494
هلندي	7495
##ity	7496
##ell	7497
دانش	7498
أي	7499
خاني	7500
شنو	7501
طو	7502
انس	7503
سيڪشن	7504
ــــــــــــ	7505
ننڍڙو	7506
حيدر	7507
كلهم	7508
la	7509
رع	7510
هاري	7511
گون	7512
##ڪين	7513
ميشه	7514
اوهين	7515
اڪثريت	7516
ڌرتيءَ	7517
پروڊڪٽ	7518
جت	7519
راڻي	7520
سس	7521
ڦر	7522
##طل	7523
##ڍي	7524
ميلي	7525
گهرج	7526
سنواريو	7527
ااا	7528
كذا	7529
ِي	7530
##شمي	7531
##چن	7532
اندو	7533
##ميشن	7534
روان	7535
مليا	7536
ڏيکاريو	7537
موڪلڻ	7538
ٽرمين	7539
اشتهار	7540
ph	7541
عرف	7542
لكم	7543
##جين	7544
ڪريڊٽ	7545
واچ	7546
سوا	7547
##ant	7548
em	7549
ڌاري	7550
ھتي	7551
##ٿو	7552
##فٽ	7553
##پشن	7554
##3ع	7555
جاي	7556
ماسڪ	7557
ايوارڊ	7558
يسلم	7559
ٽرئفڪ	7560
باس	7561
والو	7562
ڪڪ	7563
##زين	7564
##اڪن	7565
بحران	7566
سچو	7567
پروسيسنگ	7568
هٿيار	7569
طوفان	7570
لآ	7571
يل	7572
##طر	7573
سمارٽ	7574
محل	7575
اعز	7576
حڪمران	7577
اوندا	7578
جج	7579
فاط	7580
هان	7581
يهم	7582
ڪتي	7583
##4ع	7584
##جيڪٽ	7585
ماسٽر	7586
روانو	7587
خودم	7588
ٻاهران	7589
چونڊن	7590
موبائيل	7591
خالص	7592
وآ	7593
##ـه	7594
##ڪارن	7595
##تري	7596
##ثاني	7597
193	7598
نسخو	7599
جمهوريت	7600
نصب	7601
تعليق	7602
cry	7603
حذ	7604
رڪا	7605
##متي	7606
پيء	7607
##زيد	7608
پيغمبر	7609
تخليقي	7610
دفا	7611
هِن	7612
پاي	7613
انها	7614
وڏين	7615
اسٽار	7616
انگلينڊ	7617
##حيد	7618
برادري	7619
اھا	7620
مسافرن	7621
بقى	7622
bit	7623
ٻان	7624
ٿڌي	7625
معنى	7626
هونئن	7627
سگهيا	7628
wor	7629
ڊسڪ	7630
ڌڪ	7631
##لز	7632
منسو	7633
##ادن	7634
اهڙيءَ	7635
جانچ	7636
ڀيري	7637
روزگار	7638
ڊوڙ	7639
شڪايت	7640
man	7641
سستي	7642
صلى	7643
##ربي	7644
##مئن	7645
ڪيسن	7646
هيڊ	7647
ماس	7648
سيٽنگ	7649
پڙهائي	7650
توجيهي	7651
ac	7652
##کا	7653
روئي	7654
بيٺل	7655
بدقسمتي	7656
آڊيو	7657
شمار	7658
صدار	7659
##خب	7660
##لوب	7661
مشغ	7662
لڳايو	7663
ڪاٺ	7664
اُها	7665
گذارڻ	7666
هُئي	7667
##امينٽ	7668
كمان	7669
كثير	7670
لما	7671
##قى	7672
ڪيمي	7673
##ٽيس	7674
وراڻيو	7675
##ore	7676
سکر	7677
اعتراض	7678
جست	7679
شري	7680
نب	7681
##ـو	7682
##الت	7683
سرم	7684
##ويد	7685
##ڪلهه	7686
بنائڻ	7687
##ابيس	7688
فارميٽ	7689
سچي	7690
##گهه	7691
ڪريم	7692
ايڪسڪس	7693
ڪميونٽي	7694
چيئرمين	7695
رَ	7696
ربي	7697
مصي	7698
ھٿ	7699
##جھ	7700
تڪڙو	7701
##ubl	7702
سهي	7703
عق	7704
يد	7705
ڪنگ	7706
البن	7707
##سٽنگ	7708
ڇوڪرو	7709
##بتني	7710
راڄ	7711
جوابدار	7712
شكلك	7713
پيارا	7714
حوالو	7715
فلٽر	7716
؟؟؟؟	7717
##app	7718
ڊيٽابيس	7719
ڪيميائي	7720
es	7721
سلو	7722
صدا	7723
ڀائ	7724
##9ع	7725
بهار	7726
##جهد	7727
ويڪسين	7728
جذباتي	7729
ڪارپوريشن	7730
تحرير	7731
جَ	7732
نالن	7733
هَ	7734
ووو	7735
ڦا	7736
##6ع	7737
واهه	7738
اوس	7739
برائو	7740
صحتمند	7741
ديگر	7742
اِن	7743
ڊسپلي	7744
احلى	7745
شاخ	7746
جهڙا	7747
رهندڙ	7748
رنگن	7749
سهڪار	7750
اگه	7751
بيا	7752
ڏٺي	7753
##نداسين	7754
مولان	7755
مرض	7756
وارين	7757
وڏيون	7758
ادري	7759
ڌيءَ	7760
ڪٿان	7761
ديگه	7762
اهڙيون	7763
مليل	7764
بچايو	7765
مولانا	7766
نِ	7767
##ھا	7768
##ثو	7769
گڏج	7770
نوٽيس	7771
گوشت	7772
چونڊڻ	7773
سروي	7774
شڪست	7775
اِهو	7776
ضلعي	7777
ڪارڪنن	7778
pr	7779
جتان	7780
دبئي	7781
عض	7782
گيا	7783
##زه	7784
##co	7785
سنه	7786
نيب	7787
پڇڻ	7788
##ros	7789
مداخلت	7790
ماحولياتي	7791
گنجائش	7792
48	7793
ثاني	7794
مذا	7795
##تاب	7796
##هيز	7797
اخي	7798
نامم	7799
جدوجهد	7800
بزن	7801
رلي	7802
فنڊ	7803
پِ	7804
##طع	7805
##ti	7806
واه	7807
ويندس	7808
احوال	7809
اسٽو	7810
پورٽ	7811
آغاز	7812
پيدائش	7813
بب	7814
بور	7815
##گرافي	7816
ليزر	7817
جيتري	7818
طبيعت	7819
by	7820
no	7821
ٽرم	7822
کسي	7823
##ااي	7824
##قق	7825
##ته	7826
2011	7827
فلسفي	7828
ڊيوائس	7829
سٽي	7830
ٽاپ	7831
##حل	7832
##الله	7833
منھن	7834
ميلا	7835
رجسٽريشن	7836
صوبي	7837
صلاحيتن	7838
بجيٽ	7839
75	7840
زياد	7841
غري	7842
گلن	7843
منھنجو	7844
مطمئن	7845
خوشبو	7846
ڪپڙن	7847
کيڏڻ	7848
بني	7849
منفي	7850
##urn	7851
اکرن	7852
كتير	7853
))	7854
dis	7855
بدي	7856
خز	7857
عار	7858
ڌاتو	7859
##زز	7860
##سف	7861
##ايع	7862
سيڪنڊ	7863
ـــــــــــــ	7864
سگهندي	7865
knowاڻ	7866
95	7867
همين	7868
خوبي	7869
ڇڏين	7870
گهٽائڻ	7871
ـــــــــــ	7872
ھيٺ	7873
حرارت	7874
مهمان	7875
فلسط	7876
اثا	7877
ٻُڌ	7878
ملائيشيا	7879
دعويٰ	7880
اندوز	7881
وڄ	7882
ٽنگ	7883
پذير	7884
ڌڻي	7885
##راحه	7886
ڪوٺي	7887
انگن	7888
اختيارن	7889
سيلز	7890
جامع	7891
پيچيده	7892
ناممڪن	7893
حاڪ	7894
يضحك	7895
ٻانهن	7896
پرچ	7897
احسان	7898
ٽيگ	7899
نمايان	7900
يقينن	7901
ation	7902
قيامت	7903
حديث	7904
34	7905
سورا	7906
لاڪ	7907
ڙو	7908
ھجي	7909
۾,	7910
ايسوسي	7911
اخو	7912
2010	7913
فراهمي	7914
پيڪيج	7915
چانهه	7916
what	7917
باڪس	7918
صدين	7919
وائ	7920
منو	7921
رومان	7922
فيها	7923
##ard	7924
پورهي	7925
هنڌن	7926
نفسياتي	7927
ميڪس	7928
ڪلومي	7929
روڪيو	7930
چوٿين	7931
بقا	7932
مدر	7933
موس	7934
ڪيري	7935
رکندا	7936
دوم	7937
اردو	7938
ڄاڻو	7939
رحم	7940
قدمن	7941
عراق	7942
افي	7943
نت	7944
ڀارتي	7945
گيم	7946
##ونگ	7947
ايڏو	7948
البت	7949
جماعت	7950
ڊاڪٽرن	7951
گريڊ	7952
طريقيڪار	7953
ڪسٽمر	7954
منعقد	7955
برنامه	7956
جاني	7957
صفا	7958
عين	7959
فرين	7960
تير	7961
توکان	7962
پرن	7963
ترميم	7964
تعال	7965
اعظم	7966
متان	7967
اولين	7968
تعلقات	7969
احتيا	7970
ميڊيڪل	7971
مشغول	7972
بك	7973
لله	7974
وک	7975
ٻر	7976
ڪرڪيٽ	7977
جنت	7978
ادارو	7979
ڪانگري	7980
وسيلي	7981
next	7982
حقو	7983
##قة	7984
ڪيائون	7985
هيه	7986
مسك	7987
اُنهن	7988
ٻارڙن	7989
سڄڻ	7990
اكثر	7991
##ome	7992
مظاه	7993
خاموشي	7994
اختلاف	7995
ro	7996
فات	7997
قيا	7998
چن	7999
##لح	8000
ماه	8001
##اهم	8002
پورا	8003
عبد	8004
عطا	8005
ٻج	8006
امڪ	8007
ريڊ	8008
پاپ	8009
##ort	8010
رهائش	8011
پيڪنگ	8012
فرمايو	8013
ڊبليو	8014
تلاش	8015
اڙي	8016
شاهي	8017
عادت	8018
وصل	8019
ڏهه	8020
ڪڻ	8021
##رائي	8022
##يٽ	8023
##فع	8024
پوئين	8025
گهمڻ	8026
لاگ	8027
وچولي	8028
تسلم	8029
ويجهي	8030
جيون	8031
رهنمائي	8032
تنھنڪري	8033
عهدي	8034
چئبو	8035
لچ	8036
ڀلو	8037
ڪتو	8038
##شار	8039
##عرف	8040
##نن	8041
هيلو	8042
سردار	8043
سنئون	8044
وٺندي	8045
ننڍن	8046
مرحلي	8047
ڪاريگر	8048
واڌاري	8049
برطانوي	8050
سوراخ	8051
ios	8052
فريم	8053
ڪشم	8054
ايڪ	8055
سگنل	8056
استحڪ	8057
##سمس	8058
ديس	8059
چهري	8060
پنجاب	8061
بجاءِ	8062
فطري	8063
پينل	8064
استحڪام	8065
##حش	8066
##بط	8067
الائي	8068
##راج	8069
سوس	8070
##افر	8071
مشاه	8072
##ڪرن	8073
پارٽين	8074
وسيلن	8075
قلبي	8076
اقتدار	8077
ايجنٽ	8078
اڪيلي	8079
حا	8080
عث	8081
لام	8082
يخ	8083
ٿل	8084
##عين	8085
##هندا	8086
##ٽيڊ	8087
دوز	8088
192	8089
اجل	8090
داستان	8091
ڏيکارڻ	8092
2008	8093
سولو	8094
بھترين	8095
انفرادي	8096
##inks	8097
پارليامينٽ	8098
44	8099
ڊين	8100
##حو	8101
##ذيب	8102
##de	8103
جاپان	8104
محتر	8105
مشورو	8106
مارڻ	8107
فوٽ	8108
تجربن	8109
انگريز	8110
حُ	8111
رشت	8112
پت	8113
##ـر	8114
جوش	8115
ڪيبل	8116
جاپاني	8117
امزح	8118
مدل	8119
ٻيڙي	8120
پهچايو	8121
آزاديءَ	8122
عيسائي	8123
سمجهاڻي	8124
crypt	8125
65	8126
##حص	8127
##ُن	8128
معذ	8129
ويٺل	8130
ميٽ	8131
پروجيڪٽ	8132
يعطي	8133
واعدو	8134
ادارا	8135
ڪانگريس	8136
ائن	8137
حافظ	8138
خلق	8139
وڪري	8140
۾)	8141
##آباد	8142
##طلع	8143
##ڏن	8144
سيشن	8145
خانگي	8146
مرحلن	8147
منجهان	8148
فيڪٽري	8149
دروازو	8150
خشڪ	8151
باقاعده	8152
بز	8153
بچي	8154
ذخي	8155
ڀان	8156
۔۔	8157
ايٽ	8158
##ادري	8159
لاهور	8160
##ace	8161
رياستن	8162
طبعا	8163
سروسز	8164
استادن	8165
خاتمي	8166
پالڻھار	8167
fr	8168
آفت	8169
دون	8170
غذا	8171
##غي	8172
##nt	8173
ماٺ	8174
##سٽس	8175
ورج	8176
ڪنيڪشن	8177
ننڍپڻ	8178
تنظيمن	8179
جهنگ	8180
sindhi	8181
رڪاوٽ	8182
ڀل	8183
##ُو	8184
ريگ	8185
انتها	8186
اخلاق	8187
شكل	8188
اسٽيج	8189
طبقي	8190
اصولن	8191
قطار	8192
افزائي	8193
((	8194
خا	8195
رام	8196
سڳ	8197
شدت	8198
ياري	8199
ٻا	8200
ايون	8201
المل	8202
روزي	8203
##هاها	8204
2000	8205
متفق	8206
يادگار	8207
خوشيءَ	8208
معتبر	8209
مصيبت	8210
بشر	8211
سني	8212
لها	8213
نڪي	8214
ڪامي	8215
##ust	8216
##av	8217
##نده	8218
سالگر	8219
لکين	8220
اسڪولن	8221
خانداني	8222
##اڊا	8223
حادثي	8224
سرٽيفڪيٽ	8225
آيس	8226
مـــ	8227
ٿڌو	8228
ڏور	8229
##بست	8230
##تاح	8231
ٽيلي	8232
پيشڪش	8233
ايپليڪيشنن	8234
ميزبان	8235
آئوٽ	8236
غربت	8237
افيئر	8238
أخ	8239
سع	8240
شئي	8241
نيل	8242
نامي	8243
پڄ	8244
چئو	8245
گهي	8246
##يش	8247
##ناڪ	8248
ناچ	8249
سنڌو	8250
سلط	8251
گاڏ	8252
all	8253
عيسى	8254
br	8255
سارو	8256
مٺي	8257
##هڪ	8258
##صير	8259
##2ع	8260
ٿيس	8261
ايد	8262
منه	8263
معافي	8264
پهلو	8265
##itter	8266
ڳالهائيندي	8267
اھڙي	8268
بيوقو	8269
ماڻي	8270
ڇهه	8271
ڏسان	8272
##حالي	8273
##رادو	8274
شعبن	8275
ڪينسر	8276
مغربي	8277
ڀروسو	8278
رشتي	8279
عرو	8280
وڳي	8281
##ٽون	8282
##te	8283
##ps	8284
کانئس	8285
ڪرسمس	8286
درج	8287
نظرات	8288
پنھن	8289
چيٽ	8290
سياحن	8291
پاؤ	8292
تبديليون	8293
نصيب	8294
400	8295
ڀڄ	8296
ڌا	8297
##جيل	8298
پيس	8299
جناب	8300
بوٽ	8301
فعلا	8302
متحده	8303
37	8304
جهي	8305
ٽڪيٽ	8306
چاپ	8307
گئس	8308
##ڪيٽن	8309
191	8310
الحين	8311
##سپل	8312
رازداري	8313
رائع	8314
بزرگ	8315
چاھيو	8316
39	8317
##ڪيم	8318
برگ	8319
ريزي	8320
ڪتن	8321
نشاند	8322
clubl	8323
clublinks	8324
رك	8325
سلم	8326
ڇڪڻ	8327
ڏکي	8328
کم	8329
##تيءَ	8330
پراڻو	8331
##راحي	8332
##بيه	8333
##مود	8334
عرصو	8335
گهڻيون	8336
اديب	8337
سالياني	8338
news	8339
ٽرمينل	8340
mic	8341
تخت	8342
عبر	8343
##ائز	8344
هڪدم	8345
پيئ	8346
وٽان	8347
بوتل	8348
تبديلين	8349
نازڪ	8350
twitter	8351
معصوم	8352
رون	8353
سٺ	8354
فائن	8355
هد	8356
همت	8357
ڊا	8358
ڪڏھن	8359
##قدر	8360
##ڀي	8361
منط	8362
پئسو	8363
حذف	8364
لهر	8365
##لڪ	8366
##qu	8367
ڪوڪي	8368
سوين	8369
ساله	8370
تنهنجا	8371
خيالي	8372
خداوند	8373
شمسي	8374
اڏام	8375
افتتاح	8376
ماريو	8377
##گاري	8378
##ايا	8379
##اپور	8380
ڪروڙ	8381
پيارو	8382
ڪيڏو	8383
پرائم	8384
ترسيل	8385
ريپ	8386
ڪانگ	8387
حساس	8388
نفسي	8389
هليا	8390
فاطمه	8391
سدا	8392
سٺا	8393
لش	8394
مٺ	8395
هج	8396
الط	8397
معن	8398
يوسف	8399
پاسورڊ	8400
خرابي	8401
ڪالهه	8402
##ious	8403
لچڪ	8404
43	8405
55	8406
آھين	8407
ئون	8408
جع	8409
كي	8410
گلاس	8411
##گاهه	8412
##بائي	8413
##ug	8414
##الب	8415
ڪيترين	8416
##ووووو	8417
ملازمت	8418
آهه	8419
لاس	8420
مھين	8421
نارا	8422
ٽپ	8423
ٿورا	8424
ڀٽو	8425
ويزا	8426
هرڪو	8427
لکيا	8428
سببن	8429
##are	8430
يادگيري	8431
ٽريننگ	8432
تعاليٰ	8433
عيسيٰ	8434
نشاندهي	8435
بيني	8436
زيا	8437
عڪس	8438
نوي	8439
نيم	8440
ڳائڻ	8441
##شپ	8442
##بند	8443
هوم	8444
پرور	8445
##سيءَ	8446
تصويري	8447
پاسخ	8448
1x	8449
ندس	8450
##ائڊ	8451
هوڏانهن	8452
ڪمال	8453
فرمان	8454
ايپس	8455
چهرو	8456
پليئر	8457
حرام	8458
خوفناڪ	8459
بقول	8460
دروازي	8461
مئني	8462
جستجو	8463
يهو	8464
هيء	8465
رواج	8466
رهيس	8467
بران	8468
تحياتي	8469
قيمتون	8470
رياض	8471
ڪڍڻ	8472
##ock	8473
رپيا	8474
اجن	8475
ريو	8476
رڪن	8477
##زون	8478
رويي	8479
بيگ	8480
محروم	8481
احنا	8482
چوٽي	8483
مزاج	8484
منتخب	8485
رستن	8486
كلها	8487
پائيدار	8488
فحش	8489
چنين	8490
موڙ	8491
واح	8492
برآمد	8493
لاڙڪ	8494
صحبت	8495
ريس	8496
عمران	8497
عارضي	8498
أك	8499
لَ	8500
وأ	8501
کُ	8502
##گوار	8503
##جهي	8504
##دام	8505
##یم	8506
##،،	8507
ايڏي	8508
ڪمائي	8509
رسمي	8510
خطاب	8511
چونڊيل	8512
لائيٽ	8513
##دانن	8514
##آإ	8515
##ھائي	8516
##اليشن	8517
ڇوڪرين	8518
ڏسجي	8519
انسٽاليشن	8520
رينج	8521
طالبان	8522
اميدوار	8523
رمض	8524
قيادت	8525
گاڏين	8526
حاجي	8527
##قائي	8528
##ــا	8529
پرهيز	8530
##اااي	8531
عمري	8532
حالانڪ	8533
لائبري	8534
##ide	8535
رستا	8536
سنگاپور	8537
مجموعو	8538
مخالفت	8539
بلوچستان	8540
ايجاد	8541
ٽرمپ	8542
[.	8543
bo	8544
fl	8545
آٽو	8546
بان	8547
خام	8548
رڙ	8549
شخ	8550
چال	8551
##ren	8552
##ڻيون	8553
چونڊي	8554
وٺن	8555
خالد	8556
دهشتگردي	8557
نمونو	8558
prev	8559
mi	8560
آري	8561
رٽ	8562
صار	8563
ضايع	8564
عط	8565
عارف	8566
ماما	8567
وهم	8568
پی	8569
چئل	8570
ڪٽن	8571
##يلت	8572
ميه	8573
##ـــــــــ	8574
عمو	8575
بنجي	8576
فلمن	8577
##ech	8578
پهرئين	8579
تأ	8580
جپان	8581
سڏي	8582
عد	8583
مندر	8584
ڇهن	8585
##ئت	8586
##سڪر	8587
##هند	8588
جوڙو	8589
##يڪر	8590
اوي	8591
ڊيگهه	8592
ڳوليو	8593
فنڪار	8594
۔۔۔۔	8595
اتو	8596
ذا	8597
لمي	8598
مشن	8599
ٽتو	8600
##زد	8601
##for	8602
ايرا	8603
مواص	8604
معروف	8605
هرگز	8606
وره	8607
شهرت	8608
گلاب	8609
وفاد	8610
ڀائرن	8611
برائوزر	8612
ڪلوميٽر	8613
38	8614
خانو	8615
مرو	8616
##خه	8617
##ليش	8618
نهاري	8619
مادر	8620
پناه	8621
ريسٽ	8622
خبردار	8623
##ans	8624
ڏنائين	8625
فلمون	8626
ڪراچيءَ	8627
ڪرنسي	8628
he	8629
جريان	8630
شديد	8631
غذ	8632
ڀڄي	8633
الل	8634
ڏسندو	8635
شود	8636
اولهه	8637
پوندا	8638
قبضي	8639
ڊگري	8640
<<<<	8641
پبلڪ	8642
اعزاز	8643
مذاق	8644
امڪاني	8645
آڱ	8646
آيون	8647
ئين	8648
شفا	8649
مھر	8650
##sapp	8651
##كـ	8652
جواني	8653
##اريءَ	8654
##ايش	8655
فائدن	8656
بچت	8657
جڳھ	8658
اِها	8659
اھم	8660
ڪھڙي	8661
whatsapp	8662
gr	8663
أح	8664
جدت	8665
راحت	8666
سکي	8667
عرفت	8668
پتي	8669
گادي	8670
##ذر	8671
##bet	8672
##سٽل	8673
سمورا	8674
تعل	8675
##صولي	8676
نظرثاني	8677
ديد	8678
بعدين	8679
ڏنيون	8680
دائري	8681
پڙهندڙن	8682
iz	8683
خخخخخ	8684
سجا	8685
صاد	8686
عدم	8687
ڏِ	8688
##عب	8689
تيئن	8690
##ang	8691
اٽلي	8692
گلوبل	8693
مظاهرو	8694
po	8695
ضد	8696
مبت	8697
هائي	8698
وجه	8699
ڦير	8700
کٽي	8701
##هارن	8702
##فري	8703
##نيت	8704
پرنٽ	8705
منڊي	8706
ميري	8707
مشر	8708
مارڪ	8709
پيشه	8710
قيمتن	8711
آگاهي	8712
آئر	8713
ملاح	8714
نَ	8715
##oft	8716
##tic	8717
جوڳي	8718
##ميد	8719
هيٺيون	8720
منها	8721
##ايي	8722
درس	8723
شيطان	8724
ڏيون	8725
مقبول	8726
##arch	8727
وارث	8728
##ڪٽري	8729
جڳهن	8730
پلگ	8731
پُڇ	8732
نازل	8733
فروغ	8734
ڏٺم	8735
قاضي	8736
اڱ	8737
باا	8738
بايد	8739
##ليد	8740
الاس	8741
معرف	8742
ملندڙ	8743
رکيا	8744
ڪتا	8745
##۔۔۔۔	8746
موقف	8747
شفاف	8748
بندوبست	8749
el	8750
أم	8751
می	8752
هئين	8753
##ڪڙي	8754
ويندڙ	8755
سمجھي	8756
نيون	8757
سپاهي	8758
پروگرامن	8759
حفاظتي	8760
صفحن	8761
صديءَ	8762
واشنگ	8763
ميلاپ	8764
ڪشمير	8765
:-	8766
ta	8767
اذ	8768
بست	8769
بقي	8770
لِ	8771
ڪيني	8772
##كات	8773
اينٽي	8774
مشڪ	8775
گھڻا	8776
دلين	8777
ڪتب	8778
پڙه	8779
مخلو	8780
رقص	8781
بدلجي	8782
ڪيريئر	8783
پرائمري	8784
ناراض	8785
اڀر	8786
ڏٺا	8787
##ذب	8788
##pr	8789
##ريائين	8790
رولي	8791
سوار	8792
سرحد	8793
ٻڌاءِ	8794
##خلص	8795
str	8796
پئسن	8797
سمجھڻ	8798
گردش	8799
عش	8800
گائيڊ	8801
انچ	8802
مادري	8803
سمجهو	8804
ننڍا	8805
سپل	8806
فورس	8807
جيئرو	8808
ملوث	8809
ظاھر	8810
نڀ	8811
وهن	8812
واب	8813
ڏات	8814
##زيل	8815
##خذ	8816
##ضع	8817
##ید	8818
انٽي	8819
پيپر	8820
گذريو	8821
اسٽاپ	8822
وٺندا	8823
ڳوليندا	8824
##ااااي	8825
ايجنسي	8826
ھوندو	8827
انجنيئرنگ	8828
اليڪٽرانڪ	8829
تابع	8830
ڪچهري	8831
ابا	8832
فائون	8833
مام	8834
وهو	8835
##فون	8836
##ُر	8837
##يڪو	8838
##يڪا	8839
موٽڻ	8840
ڪيڏي	8841
ادائ	8842
منتظر	8843
##able	8844
ڳاڙهو	8845
سراسري	8846
ميونسپل	8847
go	8848
ضي	8849
ميرا	8850
##گراف	8851
تهذيب	8852
##يارين	8853
ٿيڻو	8854
الضحك	8855
بيٺي	8856
وربي	8857
ترق	8858
تباهي	8859
ڏسون	8860
وڻن	8861
خوابن	8862
گريجو	8863
فضيلت	8864
##ime	8865
نعمت	8866
وحده	8867
ماشاء	8868
ٺاهيندڙن	8869
نيويارڪ	8870
يهمك	8871
عبدالو	8872
ڪٽنب	8873
آثار	8874
ابن	8875
جڙيل	8876
خم	8877
ڇت	8878
استن	8879
خوا	8880
اسٽريٽ	8881
سچائي	8882
ٽيڪنيڪل	8883
دٻاءُ	8884
معمول	8885
##age	8886
آئيني	8887
ادائگي	8888
ڄام	8889
هوش	8890
پويون	8891
ماي	8892
##اليت	8893
##اهت	8894
مٿا	8895
حجم	8896
فائرنگ	8897
47	8898
ii	8899
بڇ	8900
عزم	8901
قولي	8902
ليو	8903
گاهه	8904
##آم	8905
##قر	8906
##uc	8907
ڪيڏانهن	8908
بيحد	8909
برچ	8910
##بوليت	8911
چوندي	8912
تناسب	8913
همراهه	8914
خبرن	8915
اپليڪيشن	8916
ھنن	8917
مجازي	8918
موقعن	8919
##َرَ	8920
اشتهارن	8921
جذبات	8922
چورس	8923
ڏهاڪي	8924
حيدرآباد	8925
پروڊڪٽس	8926
##coin	8927
احتياط	8928
1xbet	8929
تعي	8930
طي	8931
وڻي	8932
ڀائيو	8933
ڙا	8934
##ail	8935
##ھه	8936
##ورتي	8937
ڪرپشن	8938
ياح	8939
معقول	8940
بلين	8941
جملو	8942
نقش	8943
بينڪن	8944
نامو	8945
سينيٽ	8946
98	8947
لاي	8948
مڇ	8949
ولو	8950
ٻلي	8951
کپ	8952
##ريه	8953
##افين	8954
حسب	8955
رابطن	8956
جائز	8957
one	8958
رضا	8959
دراصل	8960
گڏجاڻي	8961
sup	8962
##ial	8963
##ظه	8964
##ارٽي	8965
##اڪر	8966
جمعي	8967
ڪلهه	8968
ڪلچر	8969
جنگي	8970
##act	8971
مضمونن	8972
پکڙيل	8973
ڏينداسين	8974
اڇو	8975
play	8976
ايسوسيئيشن	8977
سوسائ	8978
per	8979
فكر	8980
هير	8981
##فين	8982
##ڳا	8983
توازن	8984
##ميز	8985
##ـــــــــــ	8986
مٿس	8987
پئماني	8988
اونهاري	8989
سلامتي	8990
##ختيار	8991
چمڪندڙ	8992
رمضان	8993
previous	8994
استنبول	8995
dr	8996
آبي	8997
جاب	8998
لائي	8999
مارو	9000
نظريو	9001
راجا	9002
سگهجن	9003
inter	9004
مهينو	9005
موقعا	9006
دٻاء	9007
##گزين	9008
ناڪامي	9009
فائونڊيشن	9010
حيو	9011
قاتل	9012
لُ	9013
پايان	9014
##دى	9015
##uct	9016
##يوار	9017
بيچ	9018
جانب	9019
دفن	9020
ولد	9021
پھريون	9022
جهازن	9023
نجات	9024
سيکاري	9025
ذخيرو	9026
چئلينج	9027
اا	9028
تبي	9029
جسٽس	9030
شفت	9031
نانگ	9032
وك	9033
##aw	9034
جيئڻ	9035
هيرو	9036
##ازم	9037
اوز	9038
احسن	9039
ريز	9040
ڇڏيون	9041
ڀرڻ	9042
صوبائي	9043
تكون	9044
سرگرم	9045
بيمارين	9046
زوال	9047
ڊولپر	9048
دفاع	9049
46	9050
بول	9051
شئ	9052
گز	9053
##امت	9054
اهوئي	9055
پردي	9056
ڪوريا	9057
ويسٽ	9058
پاڻم	9059
##ــــــــــ	9060
الحمد	9061
1000	9062
پارٽيءَ	9063
ديوار	9064
ميزباني	9065
پروسيس	9066
سعيد	9067
##ريڊ	9068
##راه	9069
وڃڻو	9070
درآمد	9071
مقدس	9072
صحافي	9073
اڄڪلهه	9074
قابو	9075
منجهه	9076
hd	9077
اندي	9078
ميٽرو	9079
ماڻهون	9080
ورت	9081
##ويه	9082
نيڻ	9083
بدلائي	9084
تعالى	9085
85	9086
ناري	9087
ڀلائي	9088
##يزن	9089
چيس	9090
بدون	9091
قرباني	9092
وسري	9093
چئجي	9094
اجنبي	9095
برچسب	9096
42	9097
اضحك	9098
عدد	9099
فئ	9100
##أي	9101
اوت	9102
ريٽ	9103
##مينان	9104
زندگيء	9105
مليون	9106
ڪپڙي	9107
ڪڍيو	9108
اطمينان	9109
داخلي	9110
مديريت	9111
search	9112
surn	9113
te	9114
زرا	9115
زلز	9116
ستن	9117
مچ	9118
ڪٽڻ	9119
##رج	9120
##حق	9121
هيئن	9122
پوڻ	9123
ويچار	9124
ٽيپ	9125
اڄوڪي	9126
اسٽاف	9127
##افيه	9128
بنائي	9129
پيروزي	9130
نياز	9131
scl	9132
اثرائتي	9133
bitcoin	9134
بيوقوف	9135
surname	9136
زيو	9137
ڪائي	9138
##كو	9139
##هوا	9140
##اسون	9141
محد	9142
اُڀ	9143
يعنى	9144
##منٽ	9145
ind	9146
گراف	9147
اختيارين	9148
قطر	9149
,,,	9150
سنجيده	9151
حقوق	9152
پاڻمرادو	9153
3d	9154
تـ	9155
شغ	9156
غي	9157
نديم	9158
يف	9159
ٽار	9160
##ـہ	9161
##فة	9162
##ائتو	9163
##ــو	9164
اهڙين	9165
اله	9166
پيٽر	9167
سمورن	9168
فيچر	9169
لڳندي	9170
##ank	9171
فائلن	9172
يونان	9173
ڳوڙهي	9174
ڊوائيسز	9175
ضمير	9176
اغوا	9177
پناهه	9178
رعايت	9179
حاڪم	9180
mac	9181
تض	9182
فرح	9183
##اپو	9184
##ast	9185
پيڊ	9186
هيهيهي	9187
##اااااا	9188
خوشگوار	9189
سڃاڻي	9190
مرحلو	9191
نڪتل	9192
جھڙو	9193
بغاوت	9194
سلطنت	9195
لشڪر	9196
تست	9197
جِي	9198
حامي	9199
فائي	9200
مٽائي	9201
هانگ	9202
ڌرين	9203
گند	9204
##جم	9205
##ڊيم	9206
روئڻ	9207
ڪوپن	9208
ساحل	9209
ڇڏيندي	9210
اڳواڻي	9211
ائڻ	9212
انقلابي	9213
گهوٽ	9214
مايوس	9215
شناسي	9216
بزنس	9217
فلسطين	9218
home	9219
بير	9220
طلع	9221
غزل	9222
هڙ	9223
ڪٽي	9224
##ساب	9225
##ff	9226
##ڊمي	9227
##روح	9228
ڪوش	9229
سواري	9230
فيڊ	9231
##شيار	9232
##ana	9233
ڏاڍا	9234
وڻندڙ	9235
بعدي	9236
انتظاميه	9237
تذ	9238
فال	9239
ڀٽائي	9240
ڄمار	9241
ڏوه	9242
##ld	9243
##der	9244
ايسٽ	9245
الأ	9246
##دات	9247
پوڙهي	9248
امارات	9249
##نڊي	9250
چاهيندو	9251
سياح	9252
ڳوڙها	9253
شكلها	9254
سکيو	9255
مڃي	9256
سهولتون	9257
ريڪارڊ	9258
نسبتا	9259
پورهيت	9260
sclnt	9261
آيد	9262
ذو	9263
راهي	9264
شپنگ	9265
##وَ	9266
##ڪشي	9267
موهن	9268
##اڪا	9269
سرد	9270
مرة	9271
مرک	9272
لڳن	9273
ريلي	9274
جملي	9275
گرام	9276
##آآآ	9277
سُر	9278
چوٿون	9279
##ible	9280
ڪاميٽي	9281
دارو	9282
رائي	9283
كلم	9284
چت	9285
##واب	9286
ايڪٽ	9287
معج	9288
ڪوري	9289
بيس	9290
ميم	9291
تحفا	9292
مارڪيٽن	9293
سکو	9294
2009	9295
ڏيکاريل	9296
سافٽويئر	9297
ارسالي	9298
مريضن	9299
لأن	9300
گناهه	9301
دوزخ	9302
ايراضي	9303
واشنگٽن	9304
cas	9305
آڪس	9306
جدي	9307
ٽولي	9308
ڄائو	9309
##لين	9310
پيوند	9311
پرسي	9312
برش	9313
فيهم	9314
وٽس	9315
لوگو	9316
وياسين	9317
اچان	9318
##جهڙائي	9319
رحمت	9320
انڊين	9321
ساٿين	9322
اينڊرائيڊس	9323
شھ	9324
فس	9325
يي	9326
ٺهي	9327
##کس	9328
##يڪس	9329
سگريٽ	9330
اينڪس	9331
ڏيڻو	9332
ساخت	9333
ريال	9334
اُھي	9335
راڳ	9336
پڙهيل	9337
پاڙ	9338
آفيسرن	9339
##لعب	9340
رسيد	9341
سرگرميون	9342
پڌرو	9343
***	9344
لائبريري	9345
64	9346
سمي	9347
يآ	9348
##انج	9349
الدين	9350
##لايو	9351
سگهه	9352
سمو	9353
برع	9354
شيشي	9355
بلڊنگ	9356
ادامه	9357
انگل	9358
ـــــــــــــــ	9359
پڇا	9360
##ورنس	9361
روشنيءَ	9362
##ake	9363
يقيناً	9364
ٿورڙي	9365
سربراهه	9366
عبدالوحيد	9367
تڏھن	9368
ننگ	9369
هري	9370
ڦري	9371
المن	9372
رويو	9373
##رفيس	9374
مدري	9375
##عدين	9376
جمال	9377
##ure	9378
بنات	9379
ٽوڪ	9380
لاڳاپا	9381
زخم	9382
وحدت	9383
out	9384
xd	9385
بِ	9386
تجنن	9387
دول	9388
عاج	9389
کی	9390
##خط	9391
##يڪي	9392
نظران	9393
تجزي	9394
وٺندڙ	9395
150	9396
سنگت	9397
طبق	9398
حتمي	9399
پھچ	9400
ٻوڏ	9401
ڇپيل	9402
پروفائل	9403
فائنل	9404
نظرانداز	9405
mp	9406
ليا	9407
هك	9408
هول	9409
پرائيو	9410
نقشو	9411
ڄاڻايل	9412
کاڌ	9413
##ami	9414
العالم	9415
پھرين	9416
ڪئمپ	9417
پالتو	9418
غلطيون	9419
گهريلو	9420
quot	9421
اسٽوڊيو	9422
امل	9423
مڪي	9424
ممت	9425
##هـ	9426
##tr	9427
##نيد	9428
هيچي	9429
منش	9430
امڙ	9431
ٻڌڻي	9432
اعج	9433
پرومو	9434
گهٽجي	9435
##ick	9436
لائيو	9437
كانت	9438
ٽيوب	9439
سوسائٽي	9440
ha	9441
ion	9442
بائ	9443
تط	9444
خلو	9445
دخل	9446
ستر	9447
شيل	9448
قم	9449
ٽول	9450
ڊس	9451
##که	9452
##سٽنٽ	9453
ليٽ	9454
ارد	9455
فيصلا	9456
اختياري	9457
مصنوعي	9458
سائٽ	9459
ڊائري	9460
دستاويزن	9461
دائمي	9462
ايڊيٽر	9463
sa	9464
آآ	9465
ڪبو	9466
##گان	9467
##ep	9468
معنا	9469
اوپن	9470
##شنر	9471
##سٽن	9472
وچان	9473
عيب	9474
صوفي	9475
مفاد	9476
ڊپارٽ	9477
بدلائڻ	9478
ھوندي	9479
ضابطن	9480
اڪيڊمي	9481
ڪيفيت	9482
micros	9483
شخصي	9484
can	9485
mar	9486
سهڻ	9487
فهم	9488
ٻاھر	9489
##ڪيل	9490
##hm	9491
روئ	9492
رومن	9493
امور	9494
سگهيس	9495
190	9496
آمريڪن	9497
جوابدارن	9498
سچل	9499
برازيل	9500
خوبصورتي	9501
موڪليل	9502
خلص	9503
زرعي	9504
زرداري	9505
امريڪا	9506
ڀڃڪڙي	9507
ڪئناڊا	9508
ڪوڪيز	9509
زراعت	9510
microsoft	9511
49	9512
more	9513
بــ	9514
دن	9515
ساد	9516
ليل	9517
نخ	9518
يش	9519
##ix	9520
##gle	9521
ڏيندس	9522
سگهين	9523
عليهم	9524
گھڻن	9525
فرار	9526
بحري	9527
ٻوليون	9528
اوند	9529
مائٽن	9530
نظريي	9531
نصيحت	9532
پگهار	9533
رليز	9534
پاؤڊر	9535
صادق	9536
مٿاڇ	9537
53	9538
عص	9539
چشم	9540
##صول	9541
تيم	9542
پها	9543
انهيء	9544
ڪونھي	9545
خوشحالي	9546
حڪومتي	9547
اٿن	9548
صارفن	9549
معاو	9550
بھتر	9551
غلامي	9552
ڪارپوريٽ	9553
رٽائر	9554
سٿ	9555
شک	9556
چالو	9557
##ڻين	9558
##ديءَ	9559
##ولتن	9560
رواني	9561
ويه	9562
ڪمشنر	9563
مشا	9564
ليٽر	9565
باش	9566
اسڪين	9567
اسپيڪر	9568
موڪلن	9569
تشخي	9570
پُر	9571
انٽرفيس	9572
اونداهي	9573
ڪوششن	9574
ly	9575
تِ	9576
شهن	9577
هڻڻ	9578
چَ	9579
##ضم	9580
##ئرس	9581
هلڪو	9582
مٿو	9583
تجربا	9584
مهارت	9585
حياتيءَ	9586
ضابطو	9587
اميدوارن	9588
حوصلا	9589
41	9590
56	9591
lg	9592
اقو	9593
تارن	9594
جلو	9595
قادر	9596
نعم	9597
ڊوي	9598
گڏي	9599
##تكم	9600
اندا	9601
سمورو	9602
مسڪين	9603
ٻڌايان	9604
##تما	9605
نيرو	9606
غيرها	9607
مالڪن	9608
ساڳيا	9609
ٻوٽي	9610
خاتمو	9611
عثمان	9612
sl	9613
اري	9614
تلو	9615
فنا	9616
ھيو	9617
##وين	9618
##حدود	9619
##آل	9620
##نيه	9621
نيري	9622
##واٽ	9623
بلاول	9624
سرواڻ	9625
گروهه	9626
##ass	9627
اعتراف	9628
زينب	9629
ڀاڱي	9630
انتظاميا	9631
ڇپائي	9632
مشكور	9633
سمجهندا	9634
حملن	9635
لامحدود	9636
مبتلا	9637
ذمي	9638
سوني	9639
شرا	9640
غالب	9641
ودي	9642
😂😂	9643
##سار	9644
##بارن	9645
توهين	9646
##سٽين	9647
محت	9648
پهتا	9649
##بود	9650
دوره	9651
اخذ	9652
لوڻ	9653
ڪهاڻين	9654
مجلس	9655
صنف	9656
2007	9657
ائپ	9658
تقريباً	9659
نشانيون	9660
مھل	9661
خصوصيت	9662
لچڪدار	9663
مئنيجر	9664
مھرباني	9665
سپلائر	9666
bible	9667
آت	9668
ظالم	9669
##ڀرو	9670
##فارم	9671
ميد	9672
گهم	9673
سمر	9674
پهتي	9675
سندي	9676
شيڊ	9677
##وليت	9678
اجمل	9679
سهولتن	9680
چونڊون	9681
نامن	9682
مائٽ	9683
ووڊ	9684
کرد	9685
سڪون	9686
يعطيك	9687
##form	9688
ir	9689
بشم	9690
تک	9691
جبر	9692
دخ	9693
سحر	9694
نز	9695
کاري	9696
##اگرام	9697
##بيا	9698
##ظي	9699
##ضل	9700
##--	9701
هنر	9702
پرسپ	9703
ڪنن	9704
ريسر	9705
اُٿ	9706
آرمي	9707
بدين	9708
ڪلين	9709
پاسپورٽ	9710
انجمن	9711
##پریس	9712
آزمائشي	9713
ويڙهه	9714
محترم	9715
هدف	9716
پايه	9717
##ـا	9718
##ُون	9719
##>>	9720
ميگ	9721
مرسي	9722
اخوي	9723
لکن	9724
والا	9725
غيره	9726
مثلا	9727
ڳالهائيندو	9728
ابتدا	9729
ٻولهه	9730
گليڪس	9731
فاتح	9732
ريسرچ	9733
51	9734
88	9735
if	9736
rec	9737
آصف	9738
مدار	9739
ڪيڪ	9740
##ud	9741
##الٽ	9742
پيسا	9743
لکندو	9744
لوازم	9745
جهل	9746
اڪيل	9747
دستخط	9748
ڳوٺن	9749
جذبي	9750
ونڊو	9751
##ign	9752
واسطي	9753
صدق	9754
مٽيءَ	9755
فهد	9756
ڳڻپ	9757
حالانڪه	9758
59	9759
تدري	9760
حدن	9761
ناصر	9762
هدي	9763
کس	9764
کٽڻ	9765
گار	9766
##لل	9767
##ov	9768
##كة	9769
##pe	9770
ڪندين	9771
ملندا	9772
ورتا	9773
ورهائي	9774
ليبار	9775
لکت	9776
ناپس	9777
صلاحڪار	9778
دهلي	9779
برابري	9780
منجھ	9781
ميوزيم	9782
awami	9783
گورنر	9784
اوسط	9785
بدو	9786
سليم	9787
مجن	9788
واٽر	9789
ويهڻ	9790
ورڈ	9791
##نديون	9792
يعين	9793
اخبارن	9794
بچاء	9795
قانونن	9796
نگاه	9797
سلطان	9798
واڌارو	9799
اسپيڊ	9800
06	9801
sk	9802
آڌ	9803
رپور	9804
لڪي	9805
وصولي	9806
اسسٽنٽ	9807
روبو	9808
سويت	9809
سالم	9810
شاھ	9811
ڪارا	9812
پرواهه	9813
نيپ	9814
قرب	9815
بچه	9816
بلاش	9817
اكل	9818
ڪپڙو	9819
گيٽ	9820
نشانو	9821
##گزاري	9822
awaz	9823
ڪڻڪ	9824
ٽتوٽ	9825
حرا	9826
سڪي	9827
يَ	9828
پڪو	9829
چپن	9830
ڪش	9831
ڪڙي	9832
##ِل	9833
هوشيار	9834
منا	9835
اڳئين	9836
پروژه	9837
دلبر	9838
ديگري	9839
کانپوء	9840
نفسك	9841
پُٽ	9842
فضل	9843
اوچائي	9844
ماشى	9845
انشورنس	9846
بالغن	9847
مزدور	9848
ورڈپریس	9849
دى	9850
نك	9851
ڇي	9852
ڊن	9853
ڏُ	9854
ڪجو	9855
ھدايت	9856
##طيني	9857
##ھون	9858
##to	9859
##ارتن	9860
اسما	9861
##اتار	9862
معائن	9863
بيه	9864
بيبي	9865
پهت	9866
هونءَ	9867
تبلي	9868
##ضيه	9869
##ضيع	9870
بنيادن	9871
تجرب	9872
معاون	9873
انسٽاگرام	9874
مَن	9875
شوقين	9876
عذر	9877
ميڪسيڪو	9878
ur	9879
اڻو	9880
لبن	9881
ٽئ	9882
چاندي	9883
ڊون	9884
گاهي	9885
##اهن	9886
##ile	9887
##صور	9888
##انيا	9889
الد	9890
##سيون	9891
ميڙ	9892
ترڪ	9893
##ناطي	9894
پروٽو	9895
that	9896
گروپن	9897
مڃڻ	9898
شويه	9899
ڌيءُ	9900
مافيه	9901
ڊيمو	9902
ٽيليو	9903
ڊويزن	9904
ائون	9905
جبت	9906
شپ	9907
ٽائم	9908
ڀائر	9909
ڪامل	9910
انور	9911
الان	9912
ڪيمپ	9913
بيٽ	9914
ورڊ	9915
فرز	9916
آرڪ	9917
وانت	9918
ديدار	9919
ــــــــــــــــ	9920
دوستو	9921
هٿان	9922
##end	9923
بوڪ	9924
لفظي	9925
ڪامرس	9926
پيرس	9927
ڪابينا	9928
وبعدين	9929
نينهن	9930
اليڪٽرڪ	9931
ڪارخانو	9932
غذائي	9933
600	9934
77	9935
اهن	9936
رآ	9937
ظهور	9938
قدي	9939
مــــ	9940
ياس	9941
##ولڪ	9942
##يلن	9943
ورتل	9944
ورهيه	9945
بايو	9946
فرش	9947
آخرت	9948
تقدير	9949
##ens	9950
ڄاڻان	9951
عالمن	9952
رهبر	9953
شاديءَ	9954
ڀاڱ	9955
بينڪنگ	9956
بيوس	9957
نياڻي	9958
گذرڻ	9959
مسكين	9960
برعڪس	9961
01	9962
hu	9963
id	9964
net	9965
جس	9966
جزا	9967
رشيد	9968
لڏ	9969
مئل	9970
ڳري	9971
##ian	9972
##nd	9973
##ضا	9974
##قيت	9975
معطل	9976
ملائ	9977
ناهيان	9978
ڏاڏي	9979
شينهن	9980
سمجھيو	9981
کلڻ	9982
سستا	9983
ago	9984
مينيجر	9985
صدارتي	9986
do	9987
آله	9988
آچر	9989
زون	9990
سيو	9991
عكس	9992
قريب	9993
پائپ	9994
ڇن	9995
ڊچ	9996
##ـِ	9997
##فس	9998
##ائلي	9999
