{
  "version": "1.0",
  "truncation": null,
  "padding": null,
  "added_tokens": [
    {
      "id": 0,
      "content": "[UNK]",
      "single_word": false,
      "lstrip": false,
      "rstrip": false,
      "normalized": false,
      "special": true
    },
    {
      "id": 1,
      "content": "[CLS]",
      "single_word": false,
      "lstrip": false,
      "rstrip": false,
      "normalized": false,
      "special": true
    },
    {
      "id": 2,
      "content": "[SEP]",
      "single_word": false,
      "lstrip": false,
      "rstrip": false,
      "normalized": false,
      "special": true
    },
    {
      "id": 3,
      "content": "[PAD]",
      "single_word": false,
      "lstrip": false,
      "rstrip": false,
      "normalized": false,
      "special": true
    },
    {
      "id": 4,
      "content": "[MASK]",
      "single_word": false,
      "lstrip": false,
      "rstrip": false,
      "normalized": false,
      "special": true
    }
  ],
  "normalizer": {
    "type": "Sequence",
    "normalizers": [
      {
        "type": "NFKC"
      },
      {
        "type": "Lowercase"
      }
    ]
  },
  "pre_tokenizer": {
    "type": "Whitespace"
  },
  "post_processor": null,
  "decoder": {
    "type": "WordPiece",
    "prefix": "##",
    "cleanup": true
  },
  "model": {
    "type": "WordPiece",
    "unk_token": "[UNK]",
    "continuing_subword_prefix": "##",
    "max_input_chars_per_word": 100,
    "vocab": {
      "[UNK]": 0,
      "[CLS]": 1,
      "[SEP]": 2,
      "[PAD]": 3,
      "[MASK]": 4,
      "!": 5,
      "\"": 6,
      "#": 7,
      "$": 8,
      "%": 9,
      "&": 10,
      "'": 11,
      "(": 12,
      ")": 13,
      "*": 14,
      "+": 15,
      ",": 16,
      "-": 17,
      ".": 18,
      "/": 19,
      "0": 20,
      "1": 21,
      "2": 22,
      "3": 23,
      "4": 24,
      "5": 25,
      "6": 26,
      "7": 27,
      "8": 28,
      "9": 29,
      ":": 30,
      ";": 31,
      "<": 32,
      "=": 33,
      ">": 34,
      "?": 35,
      "@": 36,
      "[": 37,
      "\\": 38,
      "]": 39,
      "^": 40,
      "_": 41,
      "a": 42,
      "b": 43,
      "c": 44,
      "d": 45,
      "e": 46,
      "f": 47,
      "g": 48,
      "h": 49,
      "i": 50,
      "j": 51,
      "k": 52,
      "l": 53,
      "m": 54,
      "n": 55,
      "o": 56,
      "p": 57,
      "q": 58,
      "r": 59,
      "s": 60,
      "t": 61,
      "u": 62,
      "v": 63,
      "w": 64,
      "x": 65,
      "y": 66,
      "z": 67,
      "{": 68,
      "|": 69,
      "}": 70,
      "~": 71,
      "¡": 72,
      "¢": 73,
      "£": 74,
      "¤": 75,
      "¥": 76,
      "¦": 77,
      "§": 78,
      "©": 79,
      "¬": 80,
      "®": 81,
      "°": 82,
      "±": 83,
      "¶": 84,
      "·": 85,
      "¿": 86,
      "×": 87,
      "ß": 88,
      "à": 89,
      "á": 90,
      "â": 91,
      "ã": 92,
      "ä": 93,
      "å": 94,
      "æ": 95,
      "ç": 96,
      "è": 97,
      "é": 98,
      "ê": 99,
      "ë": 100,
      "ì": 101,
      "í": 102,
      "î": 103,
      "ï": 104,
      "ð": 105,
      "ñ": 106,
      "ò": 107,
      "ó": 108,
      "ô": 109,
      "õ": 110,
      "ö": 111,
      "÷": 112,
      "ø": 113,
      "ù": 114,
      "ú": 115,
      "û": 116,
      "ü": 117,
      "ý": 118,
      "þ": 119,
      "ā": 120,
      "ă": 121,
      "ą": 122,
      "ć": 123,
      "ĉ": 124,
      "č": 125,
      "ď": 126,
      "đ": 127,
      "ē": 128,
      "ė": 129,
      "ę": 130,
      "ě": 131,
      "ğ": 132,
      "ģ": 133,
      "ĥ": 134,
      "ħ": 135,
      "ī": 136,
      "į": 137,
      "ı": 138,
      "ĵ": 139,
      "ĸ": 140,
      "ĺ": 141,
      "ļ": 142,
      "ł": 143,
      "ň": 144,
      "ŋ": 145,
      "ō": 146,
      "ŏ": 147,
      "œ": 148,
      "ř": 149,
      "ś": 150,
      "ŝ": 151,
      "ş": 152,
      "š": 153,
      "ť": 154,
      "ŧ": 155,
      "ŭ": 156,
      "ů": 157,
      "ű": 158,
      "ź": 159,
      "ż": 160,
      "ž": 161,
      "ƒ": 162,
      "ƛ": 163,
      "ơ": 164,
      "ƴ": 165,
      "ƽ": 166,
      "ǝ": 167,
      "ǟ": 168,
      "ǰ": 169,
      "ǿ": 170,
      "ȅ": 171,
      "ȋ": 172,
      "ș": 173,
      "ț": 174,
      "ɑ": 175,
      "ɓ": 176,
      "ɕ": 177,
      "ə": 178,
      "ɛ": 179,
      "ɞ": 180,
      "ɠ": 181,
      "ɣ": 182,
      "ɨ": 183,
      "ɪ": 184,
      "ɲ": 185,
      "ɴ": 186,
      "ʀ": 187,
      "ʃ": 188,
      "ʊ": 189,
      "ʒ": 190,
      "ʔ": 191,
      "ʚ": 192,
      "ʞ": 193,
      "ʻ": 194,
      "ˆ": 195,
      "ˇ": 196,
      "ˈ": 197,
      "ˌ": 198,
      "ː": 199,
      "˹": 200,
      "˼": 201,
      "̀": 202,
      "́": 203,
      "̃": 204,
      "̄": 205,
      "̅": 206,
      "̇": 207,
      "̈": 208,
      "̉": 209,
      "̊": 210,
      "̋": 211,
      "̌": 212,
      "̍": 213,
      "̐": 214,
      "̖": 215,
      "̗": 216,
      "̝": 217,
      "̠": 218,
      "̣": 219,
      "̤": 220,
      "̥": 221,
      "̧": 222,
      "̨": 223,
      "̩": 224,
      "̬": 225,
      "̮": 226,
      "̯": 227,
      "̲": 228,
      "̳": 229,
      "̵": 230,
      "̶": 231,
      "̷": 232,
      "̸": 233,
      "͛": 234,
      "͜": 235,
      "͠": 236,
      "͡": 237,
      "ͦ": 238,
      "ΐ": 239,
      "ά": 240,
      "έ": 241,
      "ή": 242,
      "ί": 243,
      "α": 244,
      "β": 245,
      "γ": 246,
      "δ": 247,
      "ε": 248,
      "ζ": 249,
      "η": 250,
      "θ": 251,
      "ι": 252,
      "κ": 253,
      "λ": 254,
      "μ": 255,
      "ν": 256,
      "ξ": 257,
      "ο": 258,
      "π": 259,
      "ρ": 260,
      "ς": 261,
      "σ": 262,
      "τ": 263,
      "υ": 264,
      "φ": 265,
      "χ": 266,
      "ψ": 267,
      "ω": 268,
      "ϋ": 269,
      "ό": 270,
      "ώ": 271,
      "ϟ": 272,
      "ϻ": 273,
      "а": 274,
      "б": 275,
      "в": 276,
      "г": 277,
      "д": 278,
      "е": 279,
      "ж": 280,
      "з": 281,
      "и": 282,
      "й": 283,
      "к": 284,
      "л": 285,
      "м": 286,
      "н": 287,
      "о": 288,
      "п": 289,
      "р": 290,
      "с": 291,
      "т": 292,
      "у": 293,
      "х": 294,
      "ц": 295,
      "ч": 296,
      "ш": 297,
      "ъ": 298,
      "ы": 299,
      "ь": 300,
      "э": 301,
      "ю": 302,
      "я": 303,
      "є": 304,
      "і": 305,
      "ј": 306,
      "ћ": 307,
      "ѣ": 308,
      "ѧ": 309,
      "҉": 310,
      "ҏ": 311,
      "ґ": 312,
      "қ": 313,
      "ҩ": 314,
      "ү": 315,
      "ұ": 316,
      "ҳ": 317,
      "ҷ": 318,
      "ҽ": 319,
      "ӎ": 320,
      "ө": 321,
      "ա": 322,
      "բ": 323,
      "ե": 324,
      "է": 325,
      "ը": 326,
      "ի": 327,
      "լ": 328,
      "խ": 329,
      "կ": 330,
      "հ": 331,
      "ձ": 332,
      "ղ": 333,
      "մ": 334,
      "յ": 335,
      "ն": 336,
      "ո": 337,
      "չ": 338,
      "պ": 339,
      "ռ": 340,
      "ս": 341,
      "վ": 342,
      "տ": 343,
      "ր": 344,
      "ց": 345,
      "ւ": 346,
      "փ": 347,
      "ք": 348,
      "ֆ": 349,
      "ִ": 350,
      "ּ": 351,
      "ֿ": 352,
      "א": 353,
      "ב": 354,
      "ג": 355,
      "ד": 356,
      "ה": 357,
      "ו": 358,
      "ז": 359,
      "ח": 360,
      "ט": 361,
      "י": 362,
      "ך": 363,
      "כ": 364,
      "ל": 365,
      "ם": 366,
      "מ": 367,
      "ן": 368,
      "נ": 369,
      "ס": 370,
      "ע": 371,
      "פ": 372,
      "צ": 373,
      "ר": 374,
      "ש": 375,
      "ת": 376,
      "؋": 377,
      "،": 378,
      "؍": 379,
      "؎": 380,
      "؏": 381,
      "ؐ": 382,
      "ؑ": 383,
      "ؒ": 384,
      "ؓ": 385,
      "؛": 386,
      "؟": 387,
      "ء": 388,
      "آ": 389,
      "أ": 390,
      "ؤ": 391,
      "إ": 392,
      "ئ": 393,
      "ا": 394,
      "ب": 395,
      "ة": 396,
      "ت": 397,
      "ث": 398,
      "ج": 399,
      "ح": 400,
      "خ": 401,
      "د": 402,
      "ذ": 403,
      "ر": 404,
      "ز": 405,
      "س": 406,
      "ش": 407,
      "ص": 408,
      "ض": 409,
      "ط": 410,
      "ظ": 411,
      "ع": 412,
      "غ": 413,
      "ػ": 414,
      "ؼ": 415,
      "ؽ": 416,
      "ؾ": 417,
      "ؿ": 418,
      "ـ": 419,
      "ف": 420,
      "ق": 421,
      "ك": 422,
      "ل": 423,
      "م": 424,
      "ن": 425,
      "ه": 426,
      "و": 427,
      "ى": 428,
      "ي": 429,
      "ً": 430,
      "ٌ": 431,
      "ٍ": 432,
      "َ": 433,
      "ُ": 434,
      "ِ": 435,
      "ّ": 436,
      "ْ": 437,
      "ٓ": 438,
      "ٔ": 439,
      "ٕ": 440,
      "ٖ": 441,
      "ٗ": 442,
      "٘": 443,
      "ٙ": 444,
      "ٚ": 445,
      "ٛ": 446,
      "ٜ": 447,
      "ٝ": 448,
      "ٞ": 449,
      "ٟ": 450,
      "٠": 451,
      "١": 452,
      "٢": 453,
      "٣": 454,
      "٤": 455,
      "٥": 456,
      "٦": 457,
      "٧": 458,
      "٨": 459,
      "٩": 460,
      "٪": 461,
      "٫": 462,
      "٬": 463,
      "٭": 464,
      "ٮ": 465,
      "ٯ": 466,
      "ٰ": 467,
      "ٱ": 468,
      "ٲ": 469,
      "ٳ": 470,
      "ٴ": 471,
      "ٹ": 472,
      "ٺ": 473,
      "ٻ": 474,
      "ټ": 475,
      "ٽ": 476,
      "پ": 477,
      "ٿ": 478,
      "ڀ": 479,
      "ځ": 480,
      "ڂ": 481,
      "ڃ": 482,
      "ڄ": 483,
      "څ": 484,
      "چ": 485,
      "ڇ": 486,
      "ڈ": 487,
      "ډ": 488,
      "ڊ": 489,
      "ڋ": 490,
      "ڌ": 491,
      "ڍ": 492,
      "ڎ": 493,
      "ڏ": 494,
      "ڐ": 495,
      "ڑ": 496,
      "ڒ": 497,
      "ړ": 498,
      "ڔ": 499,
      "ڕ": 500,
      "ږ": 501,
      "ڗ": 502,
      "ژ": 503,
      "ڙ": 504,
      "ښ": 505,
      "ڛ": 506,
      "ڜ": 507,
      "ڝ": 508,
      "ڞ": 509,
      "ڟ": 510,
      "ڠ": 511,
      "ڣ": 512,
      "ڤ": 513,
      "ڦ": 514,
      "ڨ": 515,
      "ک": 516,
      "ڪ": 517,
      "ګ": 518,
      "ڭ": 519,
      "گ": 520,
      "ڰ": 521,
      "ڱ": 522,
      "ڲ": 523,
      "ڳ": 524,
      "ڵ": 525,
      "ڶ": 526,
      "ڷ": 527,
      "ڸ": 528,
      "ڹ": 529,
      "ں": 530,
      "ڻ": 531,
      "ڼ": 532,
      "ڽ": 533,
      "ھ": 534,
      "ڿ": 535,
      "ۀ": 536,
      "ہ": 537,
      "ۂ": 538,
      "ۃ": 539,
      "ۄ": 540,
      "ۅ": 541,
      "ۆ": 542,
      "ۇ": 543,
      "ۈ": 544,
      "ۉ": 545,
      "ۊ": 546,
      "ۋ": 547,
      "ی": 548,
      "ۍ": 549,
      "ێ": 550,
      "ۏ": 551,
      "ې": 552,
      "ۑ": 553,
      "ے": 554,
      "ۓ": 555,
      "۔": 556,
      "ە": 557,
      "ۗ": 558,
      "ۘ": 559,
      "ۙ": 560,
      "ۚ": 561,
      "ۛ": 562,
      "ۜ": 563,
      "۞": 564,
      "ۡ": 565,
      "ۢ": 566,
      "ۣ": 567,
      "ۤ": 568,
      "ۥ": 569,
      "ۦ": 570,
      "ۧ": 571,
      "ۨ": 572,
      "۩": 573,
      "۪": 574,
      "۫": 575,
      "۬": 576,
      "۰": 577,
      "۱": 578,
      "۲": 579,
      "۳": 580,
      "۴": 581,
      "۵": 582,
      "۶": 583,
      "۷": 584,
      "۸": 585,
      "۹": 586,
      "ۺ": 587,
      "ۼ": 588,
      "۽": 589,
      "۾": 590,
      "ۿ": 591,
      "܀": 592,
      "ܒ": 593,
      "ܓ": 594,
      "ܢ": 595,
      "ܨ": 596,
      "ܪ": 597,
      "ܵ": 598,
      "ݐ": 599,
      "ݒ": 600,
      "ݖ": 601,
      "ݘ": 602,
      "ݛ": 603,
      "ݢ": 604,
      "ݥ": 605,
      "ݦ": 606,
      "ݧ": 607,
      "ݨ": 608,
      "ݩ": 609,
      "ݪ": 610,
      "ހ": 611,
      "ވ": 612,
      "ެ": 613,
      "ߙ": 614,
      "ࡗ": 615,
      "ࢦ": 616,
      "ࢪ": 617,
      "࣪": 618,
      "ँ": 619,
      "ं": 620,
      "ः": 621,
      "अ": 622,
      "आ": 623,
      "इ": 624,
      "ई": 625,
      "उ": 626,
      "ए": 627,
      "ओ": 628,
      "क": 629,
      "ख": 630,
      "ग": 631,
      "घ": 632,
      "ङ": 633,
      "च": 634,
      "छ": 635,
      "ज": 636,
      "झ": 637,
      "ञ": 638,
      "ट": 639,
      "ठ": 640,
      "ड": 641,
      "ढ": 642,
      "ण": 643,
      "त": 644,
      "थ": 645,
      "द": 646,
      "ध": 647,
      "न": 648,
      "प": 649,
      "फ": 650,
      "ब": 651,
      "भ": 652,
      "म": 653,
      "य": 654,
      "र": 655,
      "ल": 656,
      "व": 657,
      "श": 658,
      "ष": 659,
      "स": 660,
      "ह": 661,
      "़": 662,
      "ा": 663,
      "ि": 664,
      "ी": 665,
      "ु": 666,
      "ू": 667,
      "ृ": 668,
      "े": 669,
      "ै": 670,
      "ॉ": 671,
      "ो": 672,
      "ौ": 673,
      "्": 674,
      "॒": 675,
      "ॡ": 676,
      "।": 677,
      "॥": 678,
      "०": 679,
      "१": 680,
      "८": 681,
      "অ": 682,
      "আ": 683,
      "ই": 684,
      "উ": 685,
      "এ": 686,
      "ঔ": 687,
      "ক": 688,
      "খ": 689,
      "ঘ": 690,
      "ছ": 691,
      "জ": 692,
      "ট": 693,
      "ড": 694,
      "ত": 695,
      "দ": 696,
      "ধ": 697,
      "ন": 698,
      "ব": 699,
      "ভ": 700,
      "ম": 701,
      "য": 702,
      "র": 703,
      "ল": 704,
      "শ": 705,
      "স": 706,
      "়": 707,
      "া": 708,
      "ি": 709,
      "ু": 710,
      "ে": 711,
      "ো": 712,
      "ৌ": 713,
      "্": 714,
      "ਂ": 715,
      "ਇ": 716,
      "ਈ": 717,
      "ਕ": 718,
      "ਜ": 719,
      "ਥ": 720,
      "ਧ": 721,
      "ਪ": 722,
      "ਬ": 723,
      "ਮ": 724,
      "ਰ": 725,
      "ਲ": 726,
      "ਸ": 727,
      "ਹ": 728,
      "ਾ": 729,
      "ਿ": 730,
      "ੀ": 731,
      "ੇ": 732,
      "ੈ": 733,
      "ੋ": 734,
      "ੰ": 735,
      "ੱ": 736,
      "ં": 737,
      "ક": 738,
      "ખ": 739,
      "ચ": 740,
      "છ": 741,
      "ટ": 742,
      "ડ": 743,
      "થ": 744,
      "ધ": 745,
      "પ": 746,
      "ર": 747,
      "સ": 748,
      "હ": 749,
      "ા": 750,
      "િ": 751,
      "ી": 752,
      "ુ": 753,
      "ે": 754,
      "ો": 755,
      "୪": 756,
      "୭": 757,
      "ஐ": 758,
      "ஓ": 759,
      "ற": 760,
      "ం": 761,
      "ఇ": 762,
      "ఉ": 763,
      "ఎ": 764,
      "క": 765,
      "చ": 766,
      "డ": 767,
      "ద": 768,
      "ధ": 769,
      "న": 770,
      "ప": 771,
      "య": 772,
      "ల": 773,
      "వ": 774,
      "స": 775,
      "హ": 776,
      "ా": 777,
      "ి": 778,
      "ీ": 779,
      "ు": 780,
      "ే": 781,
      "ో": 782,
      "్": 783,
      "ಂ": 784,
      "ಈ": 785,
      "ಕ": 786,
      "ಡ": 787,
      "ಧ": 788,
      "ನ": 789,
      "ಲ": 790,
      "ಸ": 791,
      "ಿ": 792,
      "ೋ": 793,
      "್": 794,
      "ഉ": 795,
      "ങ": 796,
      "ത": 797,
      "ധ": 798,
      "ന": 799,
      "പ": 800,
      "ള": 801,
      "സ": 802,
      "ി": 803,
      "്": 804,
      "ආ": 805,
      "උ": 806,
      "ක": 807,
      "න": 808,
      "ම": 809,
      "ය": 810,
      "ල": 811,
      "ව": 812,
      "ශ": 813,
      "ස": 814,
      "්": 815,
      "ෑ": 816,
      "ි": 817,
      "ෙ": 818,
      "ก": 819,
      "ค": 820,
      "ฉ": 821,
      "ณ": 822,
      "ด": 823,
      "ถ": 824,
      "ท": 825,
      "น": 826,
      "บ": 827,
      "ป": 828,
      "พ": 829,
      "ม": 830,
      "ย": 831,
      "ล": 832,
      "ส": 833,
      "ห": 834,
      "อ": 835,
      "ฮ": 836,
      "ะ": 837,
      "ั": 838,
      "า": 839,
      "ิ": 840,
      "ี": 841,
      "ุ": 842,
      "เ": 843,
      "ไ": 844,
      "ๅ": 845,
      "่": 846,
      "้": 847,
      "๋": 848,
      "๑": 849,
      "๛": 850,
      "ກ": 851,
      "ຂ": 852,
      "ຈ": 853,
      "ຖ": 854,
      "ທ": 855,
      "ນ": 856,
      "ພ": 857,
      "ມ": 858,
      "ຢ": 859,
      "ະ": 860,
      "າ": 861,
      "ົ": 862,
      "ເ": 863,
      "່": 864,
      "້": 865,
      "໑": 866,
      "༄": 867,
      "༅": 868,
      "༺": 869,
      "ཻ": 870,
      "࿅": 871,
      "࿑": 872,
      "ა": 873,
      "დ": 874,
      "ე": 875,
      "თ": 876,
      "ი": 877,
      "კ": 878,
      "მ": 879,
      "ნ": 880,
      "რ": 881,
      "ს": 882,
      "უ": 883,
      "ქ": 884,
      "ღ": 885,
      "ᄑ": 886,
      "ᄒ": 887,
      "ᅲ": 888,
      "ሂ": 889,
      "ህ": 890,
      "ለ": 891,
      "ላ": 892,
      "ል": 893,
      "ም": 894,
      "ሩ": 895,
      "ር": 896,
      "ሳ": 897,
      "ስ": 898,
      "ቅ": 899,
      "በ": 900,
      "ቦ": 901,
      "ታ": 902,
      "ት": 903,
      "ነ": 904,
      "ኔ": 905,
      "ን": 906,
      "ኝ": 907,
      "አ": 908,
      "እ": 909,
      "ወ": 910,
      "ው": 911,
      "ዎ": 912,
      "ዘ": 913,
      "ይ": 914,
      "ዴ": 915,
      "ድ": 916,
      "ጋ": 917,
      "ጎ": 918,
      "ጠ": 919,
      "ጣ": 920,
      "ጥ": 921,
      "ፈ": 922,
      "ፍ": 923,
      "ᑐ": 924,
      "ᓄ": 925,
      "ᓅ": 926,
      "ᓆ": 927,
      "ᓘ": 928,
      "ញ": 929,
      "ន": 930,
      "ព": 931,
      "ភ": 932,
      "េ": 933,
      "ំ": 934,
      "្": 935,
      "᪣": 936,
      "ᬼ": 937,
      "ᭁ": 938,
      "᭄": 939,
      "ᴀ": 940,
      "ᴋ": 941,
      "ᴗ": 942,
      "᷂": 943,
      "ḑ": 944,
      "ḭ": 945,
      "ḿ": 946,
      "ṁ": 947,
      "ṃ": 948,
      "ṇ": 949,
      "ṉ": 950,
      "ṛ": 951,
      "ṝ": 952,
      "ṣ": 953,
      "ṧ": 954,
      "ṩ": 955,
      "ṭ": 956,
      "ṽ": 957,
      "ạ": 958,
      "ẹ": 959,
      "ể": 960,
      "ệ": 961,
      "ị": 962,
      "ọ": 963,
      "ố": 964,
      "ở": 965,
      "ụ": 966,
      "ỳ": 967,
      "ỹ": 968,
      "ἄ": 969,
      "‐": 970,
      "‛": 971,
      "‟": 972,
      "†": 973,
      "‡": 974,
      "•": 975,
      "′": 976,
      "‹": 977,
      "›": 978,
      "※": 979,
      "‿": 980,
      "⁀": 981,
      "⁄": 982,
      "₥": 983,
      "₦": 984,
      "₩": 985,
      "₪": 986,
      "€": 987,
      "₳": 988,
      "₹": 989,
      "₼": 990,
      "₽": 991,
      "⃕": 992,
      "⃟": 993,
      "⃢": 994,
      "⃣": 995,
      "⃫": 996,
      "℘": 997,
      "←": 998,
      "↑": 999,
      "→": 1000,
      "↓": 1001,
      "↔": 1002,
      "↙": 1003,
      "↜": 1004,
      "↝": 1005,
      "↣": 1006,
      "↤": 1007,
      "↩": 1008,
      "↫": 1009,
      "↯": 1010,
      "↲": 1011,
      "↴": 1012,
      "↷": 1013,
      "⇄": 1014,
      "⇐": 1015,
      "⇜": 1016,
      "⇠": 1017,
      "⇡": 1018,
      "⇢": 1019,
      "⇣": 1020,
      "⇦": 1021,
      "∀": 1022,
      "∂": 1023,
      "∇": 1024,
      "−": 1025,
      "√": 1026,
      "∞": 1027,
      "∟": 1028,
      "∫": 1029,
      "∴": 1030,
      "≈": 1031,
      "≠": 1032,
      "≤": 1033,
      "≥": 1034,
      "≦": 1035,
      "≧": 1036,
      "≯": 1037,
      "⊙": 1038,
      "⋆": 1039,
      "⌘": 1040,
      "⏆": 1041,
      "⏩": 1042,
      "⏪": 1043,
      "─": 1044,
      "┇": 1045,
      "═": 1046,
      "╚": 1047,
      "╝": 1048,
      "╦": 1049,
      "╫": 1050,
      "╬": 1051,
      "▂": 1052,
      "▃": 1053,
      "▌": 1054,
      "▐": 1055,
      "■": 1056,
      "□": 1057,
      "▪": 1058,
      "▫": 1059,
      "▲": 1060,
      "▶": 1061,
      "▷": 1062,
      "►": 1063,
      "▼": 1064,
      "▽": 1065,
      "◀": 1066,
      "◄": 1067,
      "◆": 1068,
      "◇": 1069,
      "◈": 1070,
      "◉": 1071,
      "◊": 1072,
      "○": 1073,
      "◍": 1074,
      "◎": 1075,
      "●": 1076,
      "◕": 1077,
      "◝": 1078,
      "◣": 1079,
      "◤": 1080,
      "◥": 1081,
      "◦": 1082,
      "◩": 1083,
      "◪": 1084,
      "◾": 1085,
      "☀": 1086,
      "☁": 1087,
      "☂": 1088,
      "☃": 1089,
      "☄": 1090,
      "★": 1091,
      "☆": 1092,
      "☑": 1093,
      "☔": 1094,
      "☘": 1095,
      "☚": 1096,
      "☛": 1097,
      "☜": 1098,
      "☝": 1099,
      "☠": 1100,
      "☹": 1101,
      "☺": 1102,
      "☻": 1103,
      "☼": 1104,
      "☽": 1105,
      "☿": 1106,
      "♀": 1107,
      "♂": 1108,
      "♃": 1109,
      "♄": 1110,
      "♈": 1111,
      "♉": 1112,
      "♊": 1113,
      "♋": 1114,
      "♌": 1115,
      "♍": 1116,
      "♎": 1117,
      "♏": 1118,
      "♒": 1119,
      "♓": 1120,
      "♚": 1121,
      "♛": 1122,
      "♠": 1123,
      "♡": 1124,
      "♢": 1125,
      "♣": 1126,
      "♤": 1127,
      "♥": 1128,
      "♦": 1129,
      "♩": 1130,
      "♪": 1131,
      "♫": 1132,
      "♬": 1133,
      "♭": 1134,
      "♯": 1135,
      "⚒": 1136,
      "⚘": 1137,
      "⚠": 1138,
      "⚡": 1139,
      "⚫": 1140,
      "⚽": 1141,
      "⛳": 1142,
      "⛺": 1143,
      "✅": 1144,
      "✇": 1145,
      "✈": 1146,
      "✋": 1147,
      "✌": 1148,
      "✍": 1149,
      "✓": 1150,
      "✔": 1151,
      "✖": 1152,
      "✗": 1153,
      "✘": 1154,
      "✜": 1155,
      "✞": 1156,
      "✦": 1157,
      "✧": 1158,
      "✨": 1159,
      "✫": 1160,
      "✭": 1161,
      "✮": 1162,
      "✯": 1163,
      "✳": 1164,
      "✴": 1165,
      "✷": 1166,
      "✿": 1167,
      "❀": 1168,
      "❌": 1169,
      "❒": 1170,
      "❓": 1171,
      "❔": 1172,
      "❕": 1173,
      "❖": 1174,
      "❗": 1175,
      "❝": 1176,
      "❞": 1177,
      "❢": 1178,
      "❣": 1179,
      "❤": 1180,
      "❥": 1181,
      "❦": 1182,
      "❧": 1183,
      "❶": 1184,
      "➓": 1185,
      "➘": 1186,
      "➟": 1187,
      "➡": 1188,
      "➢": 1189,
      "➥": 1190,
      "➬": 1191,
      "⠀": 1192,
      "⦿": 1193,
      "⬅": 1194,
      "⬆": 1195,
      "⬸": 1196,
      "⭐": 1197,
      "⭕": 1198,
      "ⴢ": 1199,
      "⸁": 1200,
      "⸙": 1201,
      "、": 1202,
      "。": 1203,
      "〇": 1204,
      "〈": 1205,
      "〉": 1206,
      "》": 1207,
      "「": 1208,
      "」": 1209,
      "『": 1210,
      "』": 1211,
      "【": 1212,
      "】": 1213,
      "〖": 1214,
      "〗": 1215,
      "あ": 1216,
      "い": 1217,
      "う": 1218,
      "え": 1219,
      "お": 1220,
      "か": 1221,
      "が": 1222,
      "く": 1223,
      "さ": 1224,
      "じ": 1225,
      "な": 1226,
      "の": 1227,
      "へ": 1228,
      "ほ": 1229,
      "ょ": 1230,
      "よ": 1231,
      "り": 1232,
      "わ": 1233,
      "を": 1234,
      "ん": 1235,
      "イ": 1236,
      "エ": 1237,
      "ク": 1238,
      "コ": 1239,
      "サ": 1240,
      "シ": 1241,
      "ス": 1242,
      "タ": 1243,
      "チ": 1244,
      "ッ": 1245,
      "ツ": 1246,
      "ト": 1247,
      "ド": 1248,
      "ノ": 1249,
      "バ": 1250,
      "パ": 1251,
      "ピ": 1252,
      "マ": 1253,
      "ミ": 1254,
      "ム": 1255,
      "ュ": 1256,
      "ヮ": 1257,
      "ン": 1258,
      "・": 1259,
      "ー": 1260,
      "ㄨ": 1261,
      "一": 1262,
      "上": 1263,
      "之": 1264,
      "了": 1265,
      "云": 1266,
      "以": 1267,
      "传": 1268,
      "位": 1269,
      "何": 1270,
      "你": 1271,
      "刀": 1272,
      "力": 1273,
      "午": 1274,
      "南": 1275,
      "厩": 1276,
      "发": 1277,
      "古": 1278,
      "可": 1279,
      "吗": 1280,
      "嘅": 1281,
      "国": 1282,
      "场": 1283,
      "報": 1284,
      "多": 1285,
      "夢": 1286,
      "如": 1287,
      "子": 1288,
      "学": 1289,
      "它": 1290,
      "少": 1291,
      "屋": 1292,
      "年": 1293,
      "庆": 1294,
      "彙": 1295,
      "彩": 1296,
      "很": 1297,
      "情": 1298,
      "惠": 1299,
      "感": 1300,
      "我": 1301,
      "打": 1302,
      "教": 1303,
      "料": 1304,
      "斯": 1305,
      "於": 1306,
      "月": 1307,
      "机": 1308,
      "機": 1309,
      "泊": 1310,
      "波": 1311,
      "爱": 1312,
      "瑞": 1313,
      "用": 1314,
      "电": 1315,
      "発": 1316,
      "發": 1317,
      "的": 1318,
      "真": 1319,
      "着": 1320,
      "示": 1321,
      "科": 1322,
      "端": 1323,
      "篇": 1324,
      "終": 1325,
      "纳": 1326,
      "者": 1327,
      "职": 1328,
      "背": 1329,
      "节": 1330,
      "花": 1331,
      "菜": 1332,
      "葬": 1333,
      "藍": 1334,
      "蝶": 1335,
      "要": 1336,
      "詞": 1337,
      "語": 1338,
      "謝": 1339,
      "话": 1340,
      "语": 1341,
      "谷": 1342,
      "超": 1343,
      "辛": 1344,
      "迪": 1345,
      "邏": 1346,
      "钱": 1347,
      "际": 1348,
      "隨": 1349,
      "雨": 1350,
      "音": 1351,
      "顯": 1352,
      "鲁": 1353,
      "ꓘ": 1354,
      "ꓤ": 1355,
      "ꔫ": 1356,
      "ꖾ": 1357,
      "ꟽ": 1358,
      "ꦿ": 1359,
      "ꪆ": 1360,
      "ꪝ": 1361,
      "ꫀ": 1362,
      "ꫛ": 1363,
      "각": 1364,
      "금": 1365,
      "길": 1366,
      "나": 1367,
      "는": 1368,
      "다": 1369,
      "대": 1370,
      "래": 1371,
      "리": 1372,
      "마": 1373,
      "만": 1374,
      "문": 1375,
      "방": 1376,
      "법": 1377,
      "서": 1378,
      "손": 1379,
      "솔": 1380,
      "송": 1381,
      "시": 1382,
      "양": 1383,
      "얼": 1384,
      "에": 1385,
      "연": 1386,
      "요": 1387,
      "우": 1388,
      "정": 1389,
      "져": 1390,
      "조": 1391,
      "좋": 1392,
      "지": 1393,
      "직": 1394,
      "평": 1395,
      "하": 1396,
      "할": 1397,
      "해": 1398,
      "형": 1399,
      "화": 1400,
      "효": 1401,
      "희": 1402,
      "﮶": 1403,
      "﮼": 1404,
      "﴾": 1405,
      "﴿": 1406,
      "︎": 1407,
      "️": 1408,
      "�": 1409,
      "𐄒": 1410,
      "𐎚": 1411,
      "𐭣": 1412,
      "𐭦": 1413,
      "𐭪": 1414,
      "𐭬": 1415,
      "𓂅": 1416,
      "𓆩": 1417,
      "𓆪": 1418,
      "𖣂": 1419,
      "𖣴": 1420,
      "𖤈": 1421,
      "𖤍": 1422,
      "🅚": 1423,
      "🅛": 1424,
      "🅜": 1425,
      "🅦": 1426,
      "🇦": 1427,
      "🇧": 1428,
      "🇨": 1429,
      "🇩": 1430,
      "🇬": 1431,
      "🇮": 1432,
      "🇱": 1433,
      "🇲": 1434,
      "🇵": 1435,
      "🇶": 1436,
      "🇷": 1437,
      "🇸": 1438,
      "🇹": 1439,
      "🇺": 1440,
      "🇿": 1441,
      "🌆": 1442,
      "🌈": 1443,
      "🌍": 1444,
      "🌎": 1445,
      "🌓": 1446,
      "🌔": 1447,
      "🌙": 1448,
      "🌚": 1449,
      "🌛": 1450,
      "🌜": 1451,
      "🌝": 1452,
      "🌞": 1453,
      "🌟": 1454,
      "🌤": 1455,
      "🌧": 1456,
      "🌱": 1457,
      "🌵": 1458,
      "🌷": 1459,
      "🌸": 1460,
      "🌹": 1461,
      "🌺": 1462,
      "🌻": 1463,
      "🌼": 1464,
      "🌿": 1465,
      "🍀": 1466,
      "🍂": 1467,
      "🍃": 1468,
      "🍇": 1469,
      "🍉": 1470,
      "🍕": 1471,
      "🍩": 1472,
      "🍰": 1473,
      "🍷": 1474,
      "🍻": 1475,
      "🍼": 1476,
      "🍾": 1477,
      "🍿": 1478,
      "🎀": 1479,
      "🎁": 1480,
      "🎃": 1481,
      "🎅": 1482,
      "🎈": 1483,
      "🎞": 1484,
      "🎥": 1485,
      "🎧": 1486,
      "🎨": 1487,
      "🎯": 1488,
      "🎵": 1489,
      "🎶": 1490,
      "🎻": 1491,
      "🎼": 1492,
      "🏃": 1493,
      "🏆": 1494,
      "🏊": 1495,
      "🏖": 1496,
      "🏣": 1497,
      "🏭": 1498,
      "🏳": 1499,
      "🏹": 1500,
      "🏻": 1501,
      "🏼": 1502,
      "🏽": 1503,
      "🏾": 1504,
      "🏿": 1505,
      "🐍": 1506,
      "🐒": 1507,
      "🐕": 1508,
      "🐠": 1509,
      "🐢": 1510,
      "🐸": 1511,
      "🐾": 1512,
      "👀": 1513,
      "👃": 1514,
      "👅": 1515,
      "👆": 1516,
      "👇": 1517,
      "👈": 1518,
      "👉": 1519,
      "👊": 1520,
      "👋": 1521,
      "👌": 1522,
      "👍": 1523,
      "👎": 1524,
      "👑": 1525,
      "👕": 1526,
      "👠": 1527,
      "👢": 1528,
      "👤": 1529,
      "👧": 1530,
      "👨": 1531,
      "👩": 1532,
      "👭": 1533,
      "👰": 1534,
      "👲": 1535,
      "👳": 1536,
      "👾": 1537,
      "💀": 1538,
      "💃": 1539,
      "💅": 1540,
      "💇": 1541,
      "💈": 1542,
      "💋": 1543,
      "💍": 1544,
      "💐": 1545,
      "💒": 1546,
      "💓": 1547,
      "💔": 1548,
      "💕": 1549,
      "💖": 1550,
      "💗": 1551,
      "💘": 1552,
      "💙": 1553,
      "💚": 1554,
      "💛": 1555,
      "💜": 1556,
      "💝": 1557,
      "💞": 1558,
      "💠": 1559,
      "💡": 1560,
      "💣": 1561,
      "💦": 1562,
      "💪": 1563,
      "💫": 1564,
      "💮": 1565,
      "💯": 1566,
      "💰": 1567,
      "💷": 1568,
      "💻": 1569,
      "📄": 1570,
      "📑": 1571,
      "📚": 1572,
      "📛": 1573,
      "📥": 1574,
      "📩": 1575,
      "📮": 1576,
      "📲": 1577,
      "📷": 1578,
      "📸": 1579,
      "📿": 1580,
      "🔆": 1581,
      "🔈": 1582,
      "🔐": 1583,
      "🔒": 1584,
      "🔕": 1585,
      "🔗": 1586,
      "🔞": 1587,
      "🔥": 1588,
      "🔫": 1589,
      "🔱": 1590,
      "🔴": 1591,
      "🔶": 1592,
      "🔸": 1593,
      "🔹": 1594,
      "🔺": 1595,
      "🕊": 1596,
      "🕌": 1597,
      "🕘": 1598,
      "🖕": 1599,
      "🖤": 1600,
      "🖼": 1601,
      "🗯": 1602,
      "🗿": 1603,
      "😀": 1604,
      "😁": 1605,
      "😂": 1606,
      "😃": 1607,
      "😄": 1608,
      "😅": 1609,
      "😆": 1610,
      "😇": 1611,
      "😈": 1612,
      "😉": 1613,
      "😊": 1614,
      "😋": 1615,
      "😌": 1616,
      "😍": 1617,
      "😎": 1618,
      "😏": 1619,
      "😐": 1620,
      "😑": 1621,
      "😒": 1622,
      "😔": 1623,
      "😕": 1624,
      "😘": 1625,
      "😛": 1626,
      "😜": 1627,
      "😝": 1628,
      "😠": 1629,
      "😢": 1630,
      "😤": 1631,
      "😦": 1632,
      "😧": 1633,
      "😨": 1634,
      "😩": 1635,
      "😪": 1636,
      "😬": 1637,
      "😭": 1638,
      "😮": 1639,
      "😯": 1640,
      "😱": 1641,
      "😲": 1642,
      "😳": 1643,
      "😵": 1644,
      "😷": 1645,
      "😹": 1646,
      "😻": 1647,
      "😽": 1648,
      "😿": 1649,
      "🙁": 1650,
      "🙂": 1651,
      "🙃": 1652,
      "🙄": 1653,
      "🙅": 1654,
      "🙆": 1655,
      "🙇": 1656,
      "🙈": 1657,
      "🙊": 1658,
      "🙋": 1659,
      "🙌": 1660,
      "🙏": 1661,
      "🚌": 1662,
      "🚓": 1663,
      "🚣": 1664,
      "🚨": 1665,
      "🚫": 1666,
      "🚭": 1667,
      "🚵": 1668,
      "🚶": 1669,
      "🚷": 1670,
      "🛌": 1671,
      "🛐": 1672,
      "🛒": 1673,
      "🛫": 1674,
      "🛰": 1675,
      "🟥": 1676,
      "🤍": 1677,
      "🤎": 1678,
      "🤐": 1679,
      "🤒": 1680,
      "🤓": 1681,
      "🤔": 1682,
      "🤕": 1683,
      "🤚": 1684,
      "🤟": 1685,
      "🤠": 1686,
      "🤣": 1687,
      "🤤": 1688,
      "🤧": 1689,
      "🤨": 1690,
      "🤩": 1691,
      "🤪": 1692,
      "🤭": 1693,
      "🤲": 1694,
      "🤸": 1695,
      "🤹": 1696,
      "🥀": 1697,
      "🥇": 1698,
      "🥰": 1699,
      "🥺": 1700,
      "🦋": 1701,
      "🦦": 1702,
      "🦯": 1703,
      "🦼": 1704,
      "🦽": 1705,
      "🧐": 1706,
      "🧑": 1707,
      "🧖": 1708,
      "🧚": 1709,
      "🧝": 1710,
      "🧸": 1711,
      "##n": 1712,
      "##g": 1713,
      "##l": 1714,
      "##خ": 1715,
      "##د": 1716,
      "##ل": 1717,
      "##ر": 1718,
      "##ب": 1719,
      "##ڪ": 1720,
      "##ه": 1721,
      "##ا": 1722,
      "##c": 1723,
      "##h": 1724,
      "##x": 1725,
      "##f": 1726,
      "##d": 1727,
      "##a": 1728,
      "##و": 1729,
      "##ئ": 1730,
      "##ت": 1731,
      "##ي": 1732,
      "##ح": 1733,
      "##ض": 1734,
      "##ف": 1735,
      "##ڏ": 1736,
      "##ن": 1737,
      "##ڻ": 1738,
      "##ج": 1739,
      "##ٿ": 1740,
      "##ز": 1741,
      "##j": 1742,
      "##i": 1743,
      "##b": 1744,
      "##t": 1745,
      "##v": 1746,
      "##s": 1747,
      "##ڌ": 1748,
      "##e": 1749,
      "##r": 1750,
      "##ک": 1751,
      "##ٻ": 1752,
      "##o": 1753,
      "##p": 1754,
      "##ی": 1755,
      "##ش": 1756,
      "##ڳ": 1757,
      "##پ": 1758,
      "##ڊ": 1759,
      "##ق": 1760,
      "##م": 1761,
      "##ة": 1762,
      "##ع": 1763,
      "##u": 1764,
      "##ٺ": 1765,
      "##ڙ": 1766,
      "##ٽ": 1767,
      "##ص": 1768,
      "##س": 1769,
      "##ھ": 1770,
      "##ى": 1771,
      "##آ": 1772,
      "##غ": 1773,
      "##ء": 1774,
      "##ā": 1775,
      "##گ": 1776,
      "##ڵ": 1777,
      "##ك": 1778,
      "##چ": 1779,
      "##ٌ": 1780,
      "##m": 1781,
      "##1": 1782,
      "##2": 1783,
      "##ـ": 1784,
      "##ِ": 1785,
      "##ړ": 1786,
      "##k": 1787,
      "##َ": 1788,
      "##أ": 1789,
      "##إ": 1790,
      "##z": 1791,
      "##ژ": 1792,
      "##ा": 1793,
      "##ډ": 1794,
      "##ط": 1795,
      "##ۍ": 1796,
      "##ڀ": 1797,
      "##ټ": 1798,
      "##w": 1799,
      "##y": 1800,
      "##،": 1801,
      "##)": 1802,
      "##•": 1803,
      "##ҽ": 1804,
      "##ż": 1805,
      "##ã": 1806,
      "##ث": 1807,
      "##٭": 1808,
      "##ٴ": 1809,
      "##ٰ": 1810,
      "##ç": 1811,
      "##ؤ": 1812,
      "##ڍ": 1813,
      "##î": 1814,
      "##ۀ": 1815,
      "##ά": 1816,
      "##ř": 1817,
      "##۴": 1818,
      "##۱": 1819,
      "##8": 1820,
      "##3": 1821,
      "##д": 1822,
      "##а": 1823,
      "##е": 1824,
      "##т": 1825,
      "##:": 1826,
      "##]": 1827,
      "##.": 1828,
      "##ڨ": 1829,
      "##_": 1830,
      "##ڼ": 1831,
      "##ö": 1832,
      "##ذ": 1833,
      "##л": 1834,
      "##ü": 1835,
      "##^": 1836,
      "##ڑ": 1837,
      "##5": 1838,
      "##ہ": 1839,
      "##ُ": 1840,
      "##ې": 1841,
      "##ظ": 1842,
      "##0": 1843,
      "##ۈ": 1844,
      "##ٹ": 1845,
      "##◥": 1846,
      "##ْ": 1847,
      "##ں": 1848,
      "##י": 1849,
      "##ז": 1850,
      "##ڇ": 1851,
      "##(": 1852,
      "##٠": 1853,
      "##6": 1854,
      "##ڄ": 1855,
      "##א": 1856,
      "##؟": 1857,
      "##!": 1858,
      "##ّ": 1859,
      "##ٍ": 1860,
      "##4": 1861,
      "##ے": 1862,
      "##ב": 1863,
      "##\"": 1864,
      "##😪": 1865,
      "##7": 1866,
      "##/": 1867,
      "##ګ": 1868,
      "##😆": 1869,
      "##٣": 1870,
      "##٥": 1871,
      "##٨": 1872,
      "##ږ": 1873,
      "##؛": 1874,
      "##۳": 1875,
      "##۷": 1876,
      "##н": 1877,
      "##и": 1878,
      "##̇": 1879,
      "##ş": 1880,
      "##٧": 1881,
      "##ښ": 1882,
      "##۵": 1883,
      "##ğ": 1884,
      "##ệ": 1885,
      "##ン": 1886,
      "##ド": 1887,
      "##語": 1888,
      "##۶": 1889,
      "##ݪ": 1890,
      "##ᴀ": 1891,
      "##ً": 1892,
      "##직": 1893,
      "##할": 1894,
      "##시": 1895,
      "##ۓ": 1896,
      "##🏻": 1897,
      "##😂": 1898,
      "##١": 1899,
      "##р": 1900,
      "##у": 1901,
      "##ę": 1902,
      "##イ": 1903,
      "##エ": 1904,
      "##ス": 1905,
      "##😁": 1906,
      "##q": 1907,
      "##ڃ": 1908,
      "##۽": 1909,
      "##о": 1910,
      "##з": 1911,
      "##à": 1912,
      "##ब": 1913,
      "##*": 1914,
      "##9": 1915,
      "##ピ": 1916,
      "##ュ": 1917,
      "##ー": 1918,
      "##タ": 1919,
      "##ł": 1920,
      "##ڈ": 1921,
      "##®": 1922,
      "##←": 1923,
      "##۰": 1924,
      "##发": 1925,
      "##音": 1926,
      "##٦": 1927,
      "##❀": 1928,
      "##ڷ": 1929,
      "##ڂ": 1930,
      "##і": 1931,
      "##û": 1932,
      "##ڦ": 1933,
      "##ڤ": 1934,
      "##ó": 1935,
      "##ٱ": 1936,
      "##♥": 1937,
      "##ڣ": 1938,
      "##۔": 1939,
      "##🇧": 1940,
      "##🥀": 1941,
      "##è": 1942,
      "##α": 1943,
      "##ࢦ": 1944,
      "##ı": 1945,
      "##ۊ": 1946,
      "##<": 1947,
      "##ځ": 1948,
      "##ο": 1949,
      "##ί": 1950,
      "##'": 1951,
      "##😳": 1952,
      "##💔": 1953,
      "##ٖ": 1954,
      "##ێ": 1955,
      "##ڹ": 1956,
      "##ы": 1957,
      "##+": 1958,
      "##ڶ": 1959,
      "##ۑ": 1960,
      "##ٚ": 1961,
      "##{": 1962,
      "##٢": 1963,
      "##ꫀ": 1964,
      "##ꪝ": 1965,
      "##ä": 1966,
      "##ە": 1967,
      "##ڞ": 1968,
      "##ۄ": 1969,
      "##ڒ": 1970,
      "##$": 1971,
      "##ڱ": 1972,
      "##ۅ": 1973,
      "##花": 1974,
      "##🔕": 1975,
      "##۸": 1976,
      "##;": 1977,
      "##=": 1978,
      "##ڎ": 1979,
      "##ड": 1980,
      "##в": 1981,
      "##é": 1982,
      "##څ": 1983,
      "##ु": 1984,
      "##ι": 1985,
      "##ۇ": 1986,
      "##כ": 1987,
      "##ڕ": 1988,
      "##✿": 1989,
      "##。": 1990,
      "##节": 1991,
      "##ọ": 1992,
      "##ڸ": 1993,
      "##×": 1994,
      "##м": 1995,
      "##š": 1996,
      "##ú": 1997,
      "##ò": 1998,
      "##ך": 1999,
      "##ۋ": 2000,
      "##~": 2001,
      "##ै": 2002,
      "##द": 2003,
      "##-": 2004,
      "##า": 2005,
      "##ก": 2006,
      "##🎈": 2007,
      "##🤠": 2008,
      "##ۆ": 2009,
      "##٩": 2010,
      "##۹": 2011,
      "##β": 2012,
      "##қ": 2013,
      "##ਈ": 2014,
      "##☆": 2015,
      "##չ": 2016,
      "##պ": 2017,
      "##ե": 2018,
      "##ս": 2019,
      "##۲": 2020,
      "##̲": 2021,
      "##ۧ": 2022,
      "##>": 2023,
      "##ڭ": 2024,
      "##ṭ": 2025,
      "##٤": 2026,
      "##『": 2027,
      "##😉": 2028,
      "##🏽": 2029,
      "##ž": 2030,
      "##ٕ": 2031,
      "##ۏ": 2032,
      "##ô": 2033,
      "##ؽ": 2034,
      "##♀": 2035,
      "##✦": 2036,
      "##ṁ": 2037,
      "##đ": 2038,
      "##ള": 2039,
      "##♫": 2040,
      "##ϋ": 2041,
      "##ϟ": 2042,
      "##ज": 2043,
      "##ï": 2044,
      "##,": 2045,
      "##ශ": 2046,
      "##ය": 2047,
      "##ʒ": 2048,
      "##ɑ": 2049,
      "##バ": 2050,
      "##ッ": 2051,
      "##ク": 2052,
      "##@": 2053,
      "##न": 2054,
      "##ि": 2055,
      "##ς": 2056,
      "##♬": 2057,
      "##♩": 2058,
      "##💓": 2059,
      "##‹": 2060,
      "##ल": 2061,
      "##[": 2062,
      "##⃣": 2063,
      "##ь": 2064,
      "##😭": 2065,
      "##ở": 2066,
      "##ḑ": 2067,
      "##я": 2068,
      "##◕": 2069,
      "##μ": 2070,
      "##थ": 2071,
      "##ڛ": 2072,
      "##♪": 2073,
      "##♭": 2074,
      "##ō": 2075,
      "##€": 2076,
      "##ٓ": 2077,
      "##ٛ": 2078,
      "##к": 2079,
      "##ц": 2080,
      "##詞": 2081,
      "##彙": 2082,
      "##🏼": 2083,
      "##ү": 2084,
      "##ө": 2085,
      "##г": 2086,
      "##հ": 2087,
      "##ա": 2088,
      "##տ": 2089,
      "##ո": 2090,
      "##ω": 2091,
      "##ε": 2092,
      "##ങ": 2093,
      "##π": 2094,
      "##각": 2095,
      "##형": 2096,
      "##ñ": 2097,
      "##ט": 2098,
      "##ּ": 2099,
      "##ħ": 2100,
      "##є": 2101,
      "##ל": 2102,
      "##🙊": 2103,
      "##🔞": 2104,
      "##♡": 2105,
      "##ෑ": 2106,
      "##ම": 2107,
      "##ố": 2108,
      "##٘": 2109,
      "##❤": 2110,
      "##ρ": 2111,
      "##&": 2112,
      "##х": 2113,
      "##▌": 2114,
      "##ু": 2115,
      "##খ": 2116,
      "##ࢪ": 2117,
      "##🦋": 2118,
      "##ë": 2119,
      "##í": 2120,
      "##教": 2121,
      "##者": 2122,
      "##ٗ": 2123,
      "##ٔ": 2124,
      "##ݨ": 2125,
      "##٪": 2126,
      "##ۉ": 2127,
      "##ւ": 2128,
      "##ն": 2129,
      "##ไ": 2130,
      "##ด": 2131,
      "##ɛ": 2132,
      "##ə": 2133,
      "##ᅲ": 2134,
      "##с": 2135,
      "##ታ": 2136,
      "##á": 2137,
      "##☺": 2138,
      "##ڜ": 2139,
      "##着": 2140,
      "##屋": 2141,
      "##ݩ": 2142,
      "##ǟ": 2143,
      "##👌": 2144,
      "##🕊": 2145,
      "##र": 2146,
      "##й": 2147,
      "##ý": 2148,
      "##ो": 2149,
      "##を": 2150,
      "##️": 2151,
      "##報": 2152,
      "##科": 2153,
      "##学": 2154,
      "##ź": 2155,
      "##·": 2156,
      "##ŋ": 2157,
      "##ч": 2158,
      "##¦": 2159,
      "##ˇ": 2160,
      "##►": 2161,
      "##😊": 2162,
      "##⃢": 2163,
      "##′": 2164,
      "##🙈": 2165,
      "##ȅ": 2166,
      "##🤣": 2167,
      "##🎁": 2168,
      "##म": 2169,
      "##٫": 2170,
      "##ػ": 2171,
      "##●": 2172,
      "##庆": 2173,
      "##う": 2174,
      "##ほ": 2175,
      "##ш": 2176,
      "##💞": 2177,
      "##ê": 2178,
      "##ī": 2179,
      "##😿": 2180,
      "##에": 2181,
      "##서": 2182,
      "##ŭ": 2183,
      "##?": 2184,
      "##👍": 2185,
      "##🎻": 2186,
      "##ր": 2187,
      "##ղ": 2188,
      "##🖕": 2189,
      "##〗": 2190,
      "##★": 2191,
      "##╦": 2192,
      "##۾": 2193,
      "##ۂ": 2194,
      "##ڝ": 2195,
      "##🤧": 2196,
      "##ஐ": 2197,
      "##💻": 2198,
      "##🙏": 2199,
      "##ж": 2200,
      "##ݢ": 2201,
      "##ण": 2202,
      "##ٮ": 2203,
      "##ۃ": 2204,
      "##◩": 2205,
      "##ḭ": 2206,
      "##ṝ": 2207,
      "##ă": 2208,
      "##£": 2209,
      "##ị": 2210,
      "##마": 2211,
      "##나": 2212,
      "##ڠ": 2213,
      "##篇": 2214,
      "##ღ": 2215,
      "##ए": 2216,
      "##래": 2217,
      "##ű": 2218,
      "##ś": 2219,
      "##😒": 2220,
      "##💍": 2221,
      "##ٜ": 2222,
      "##⇣": 2223,
      "##}": 2224,
      "##ۼ": 2225,
      "##ו": 2226,
      "##ٞ": 2227,
      "##ː": 2228,
      "##ҳ": 2229,
      "##😈": 2230,
      "##◝": 2231,
      "##☄": 2232,
      "##ց": 2233,
      "##լ": 2234,
      "##մ": 2235,
      "##ը": 2236,
      "##έ": 2237,
      "##用": 2238,
      "##鲁": 2239,
      "##瑞": 2240,
      "##ʀ": 2241,
      "##↓": 2242,
      "##ๅ": 2243,
      "##ހ": 2244,
      "##ಡ": 2245,
      "##ě": 2246,
      "##ŏ": 2247,
      "##ј": 2248,
      "##त": 2249,
      "##√": 2250,
      "##ܨ": 2251,
      "##ܓ": 2252,
      "##ト": 2253,
      "##ן": 2254,
      "##ם": 2255,
      "##ø": 2256,
      "##נ": 2257,
      "##ד": 2258,
      "###": 2259,
      "##ẹ": 2260,
      "##σ": 2261,
      "##η": 2262,
      "##۞": 2263,
      "##位": 2264,
      "##े": 2265,
      "##ۺ": 2266,
      "##व": 2267,
      "##%": 2268,
      "##💯": 2269,
      "##ڽ": 2270,
      "##ડ": 2271,
      "##🙂": 2272,
      "##💘": 2273,
      "##ው": 2274,
      "##🌤": 2275,
      "##ڿ": 2276,
      "##₩": 2277,
      "##۩": 2278,
      "##ǝ": 2279,
      "##ṛ": 2280,
      "##¬": 2281,
      "##œ": 2282,
      "##🌹": 2283,
      "##😔": 2284,
      "##ζ": 2285,
      "##å": 2286,
      "##›": 2287,
      "##传": 2288,
      "##य": 2289,
      "##🌷": 2290,
      "##๑": 2291,
      "##🌍": 2292,
      "##ে": 2293,
      "##উ": 2294,
      "##ٲ": 2295,
      "##ე": 2296,
      "##კ": 2297,
      "##თ": 2298,
      "##ম": 2299,
      "##ি": 2300,
      "##】": 2301,
      "##ट": 2302,
      "##น": 2303,
      "##ท": 2304,
      "##°": 2305,
      "##▽": 2306,
      "##छ": 2307,
      "##¡": 2308,
      "##ؿ": 2309,
      "##θ": 2310,
      "##ơ": 2311,
      "##ỹ": 2312,
      "##ћ": 2313,
      "##さ": 2314,
      "##い": 2315,
      "##可": 2316,
      "##以": 2317,
      "##顯": 2318,
      "##示": 2319,
      "##ù": 2320,
      "##💜": 2321,
      "##ɪ": 2322,
      "##■": 2323,
      "##力": 2324,
      "##ň": 2325,
      "##ꪆ": 2326,
      "##†": 2327,
      "##發": 2328,
      "##ש": 2329,
      "##υ": 2330,
      "##💙": 2331,
      "##ग": 2332,
      "##◣": 2333,
      "##చ": 2334,
      "##😘": 2335,
      "##ụ": 2336,
      "##😅": 2337,
      "##ೋ": 2338,
      "##ಈ": 2339,
      "##斯": 2340,
      "##§": 2341,
      "##ݥ": 2342,
      "##ů": 2343,
      "##해": 2344,
      "##져": 2345,
      "##요": 2346,
      "##国": 2347,
      "##际": 2348,
      "##机": 2349,
      "##场": 2350,
      "##æ": 2351,
      "##ई": 2352,
      "##ṇ": 2353,
      "##ठ": 2354,
      "##🇸": 2355,
      "##ٳ": 2356,
      "##😜": 2357,
      "##금": 2358,
      "##만": 2359,
      "##ē": 2360,
      "##👀": 2361,
      "##법": 2362,
      "##ڲ": 2363,
      "##ਾ": 2364,
      "##ਂ": 2365,
      "##ϻ": 2366,
      "##ď": 2367,
      "##â": 2368,
      "##╚": 2369,
      "##ể": 2370,
      "##ĺ": 2371,
      "##▶": 2372,
      "##✘": 2373,
      "##ڋ": 2374,
      "##❕": 2375,
      "##💕": 2376,
      "##☘": 2377,
      "##리": 2378,
      "##😍": 2379,
      "##ጎ": 2380,
      "##ት": 2381,
      "##😹": 2382,
      "##მ": 2383,
      "##ს": 2384,
      "##﴿": 2385,
      "##👊": 2386,
      "##ㄨ": 2387,
      "##ۡ": 2388,
      "##٬": 2389,
      "##ė": 2390,
      "##į": 2391,
      "##ɨ": 2392,
      "##✌": 2393,
      "##🌻": 2394,
      "##ມ": 2395,
      "##ທ": 2396,
      "##💫": 2397,
      "##🔥": 2398,
      "##ሂ": 2399,
      "##很": 2400,
      "##爱": 2401,
      "##你": 2402,
      "##👆": 2403,
      "##ì": 2404,
      "##雨": 2405,
      "##ю": 2406,
      "##ノ": 2407,
      "##の": 2408,
      "##迪": 2409,
      "##⠀": 2410,
      "##【": 2411,
      "##ถ": 2412,
      "##ม": 2413,
      "##ค": 2414,
      "##😝": 2415,
      "##🐒": 2416,
      "##ህ": 2417,
      "##ኔ": 2418,
      "##ા": 2419,
      "##થ": 2420,
      "##🌸": 2421,
      "##💪": 2422,
      "##😃": 2423,
      "##।": 2424,
      "##😀": 2425,
      "##מ": 2426,
      "##φ": 2427,
      "##ґ": 2428,
      "##ע": 2429,
      "##พ": 2430,
      "##ฉ": 2431,
      "##ለ": 2432,
      "##ኝ": 2433,
      "##😵": 2434,
      "##ნ": 2435,
      "##დ": 2436,
      "##უ": 2437,
      "##რ": 2438,
      "##ṣ": 2439,
      "##◊": 2440,
      "##פ": 2441,
      "##ג": 2442,
      "##😋": 2443,
      "##😱": 2444,
      "##⚡": 2445,
      "##॒": 2446,
      "##ह": 2447,
      "##ΐ": 2448,
      "##ɞ": 2449,
      "##ר": 2450,
      "##ป": 2451,
      "##ं": 2452,
      "##⚫": 2453,
      "##э": 2454,
      "##하": 2455,
      "##는": 2456,
      "##č": 2457,
      "##ъ": 2458,
      "##🤍": 2459,
      "##ይ": 2460,
      "##ቅ": 2461,
      "##ዎ": 2462,
      "##』": 2463,
      "##อ": 2464,
      "##ย": 2465,
      "##ల": 2466,
      "##ా": 2467,
      "##ܪ": 2468,
      "##ܵ": 2469,
      "##ે": 2470,
      "##ટ": 2471,
      "##❧": 2472,
      "##ห": 2473,
      "##♣": 2474,
      "##¿": 2475,
      "##◄": 2476,
      "##😻": 2477,
      "##が": 2478,
      "##く": 2479,
      "##╝": 2480,
      "##ሩ": 2481,
      "##ۦ": 2482,
      "##ի": 2483,
      "##🏃": 2484,
      "##̶": 2485,
      "##ᄒ": 2486,
      "##多": 2487,
      "##少": 2488,
      "##钱": 2489,
      "##💈": 2490,
      "##り": 2491,
      "##ݘ": 2492,
      "##♠": 2493,
      "##👑": 2494,
      "##₦": 2495,
      "##𐭣": 2496,
      "##𐭪": 2497,
      "##क": 2498,
      "##ध": 2499,
      "##เ": 2500,
      "##ล": 2501,
      "##ؼ": 2502,
      "##💰": 2503,
      "##յ": 2504,
      "##կ": 2505,
      "##云": 2506,
      "##之": 2507,
      "##南": 2508,
      "##ٙ": 2509,
      "##→": 2510,
      "##🔫": 2511,
      "##謝": 2512,
      "##ȋ": 2513,
      "##ന": 2514,
      "##😇": 2515,
      "##✋": 2516,
      "##ጣ": 2517,
      "##ም": 2518,
      "##コ": 2519,
      "##マ": 2520,
      "##ۿ": 2521,
      "##ռ": 2522,
      "##🍃": 2523,
      "##ƛ": 2524,
      "##ƴ": 2525,
      "##ɲ": 2526,
      "##ພ": 2527,
      "##ະ": 2528,
      "##ເ": 2529,
      "##ຈ": 2530,
      "##ό": 2531,
      "##💚": 2532,
      "##☝": 2533,
      "##ք": 2534,
      "##վ": 2535,
      "##𓆩": 2536,
      "##ន": 2537,
      "##藍": 2538,
      "##📿": 2539,
      "##บ": 2540,
      "##ຢ": 2541,
      "##າ": 2542,
      "##ກ": 2543,
      "##ຖ": 2544,
      "##ੈ": 2545,
      "##ል": 2546,
      "##ጋ": 2547,
      "##ू": 2548,
      "##̃": 2549,
      "##🇶": 2550,
      "##打": 2551,
      "##电": 2552,
      "##话": 2553,
      "##吗": 2554,
      "##🤟": 2555,
      "##💗": 2556,
      "##б": 2557,
      "##ꟽ": 2558,
      "##☛": 2559,
      "##ወ": 2560,
      "##ር": 2561,
      "##ʊ": 2562,
      "##✷": 2563,
      "##🤒": 2564,
      "##희": 2565,
      "##झ": 2566,
      "##խ": 2567,
      "##⚘": 2568,
      "##🎃": 2569,
      "##ນ": 2570,
      "##↝": 2571,
      "##هه": 2572,
      "##ان": 2573,
      "جي": 2574,
      "##هي": 2575,
      "ههه": 2576,
      "##ري": 2577,
      "##هن": 2578,
      "##ين": 2579,
      "آهي": 2580,
      "##ون": 2581,
      "##ار": 2582,
      "ان": 2583,
      "کي": 2584,
      "##يو": 2585,
      "##ال": 2586,
      "هههه": 2587,
      "##ائ": 2588,
      "جو": 2589,
      "##ور": 2590,
      "##ند": 2591,
      "ته": 2592,
      "اس": 2593,
      "لا": 2594,
      "##نهن": 2595,
      "تي": 2596,
      "##ئي": 2597,
      "##ام": 2598,
      "اه": 2599,
      "ڪري": 2600,
      "##لي": 2601,
      "هڪ": 2602,
      "##يا": 2603,
      "##ءِ": 2604,
      "کان": 2605,
      "##ــ": 2606,
      "ال": 2607,
      "ڪر": 2608,
      "سان": 2609,
      "نه": 2610,
      "هن": 2611,
      "ٿي": 2612,
      "اي": 2613,
      "##اڻ": 2614,
      "به": 2615,
      "هو": 2616,
      "يا": 2617,
      "تو": 2618,
      "##دي": 2619,
      "ون": 2620,
      "##تي": 2621,
      "##نهنج": 2622,
      "##اب": 2623,
      "##ير": 2624,
      "آهن": 2625,
      "##دا": 2626,
      "وا": 2627,
      "ڪرڻ": 2628,
      "ٿو": 2629,
      "اسان": 2630,
      "ههههه": 2631,
      "اهو": 2632,
      "##يڪ": 2633,
      "##هان": 2634,
      "لاءِ": 2635,
      "##رو": 2636,
      "##هر": 2637,
      "##لا": 2638,
      "ڪي": 2639,
      "ئي": 2640,
      "##ني": 2641,
      "هي": 2642,
      "##دو": 2643,
      "مو": 2644,
      "پر": 2645,
      "جا": 2646,
      "سگ": 2647,
      "##ول": 2648,
      "ين": 2649,
      "توهان": 2650,
      "پي": 2651,
      "##ست": 2652,
      "##جي": 2653,
      "مان": 2654,
      "ڪيو": 2655,
      "##ڪي": 2656,
      "مون": 2657,
      "ما": 2658,
      "پنهنج": 2659,
      "رو": 2660,
      "##ڏهن": 2661,
      "وي": 2662,
      "پو": 2663,
      "نا": 2664,
      "من": 2665,
      "##مي": 2666,
      "##را": 2667,
      "ڪند": 2668,
      "ري": 2669,
      "ٿا": 2670,
      "##سي": 2671,
      "ڪو": 2672,
      "را": 2673,
      "ور": 2674,
      "مي": 2675,
      "##قت": 2676,
      "##قي": 2677,
      "وڌ": 2678,
      "ڪم": 2679,
      "##ائي": 2680,
      "بي": 2681,
      "سو": 2682,
      "يو": 2683,
      "او": 2684,
      "##لو": 2685,
      "ها": 2686,
      "##ھن": 2687,
      "##ڪو": 2688,
      "لاء": 2689,
      "##رف": 2690,
      "رهي": 2691,
      "ويو": 2692,
      "ات": 2693,
      "##ھي": 2694,
      "انهن": 2695,
      "ائ": 2696,
      "طور": 2697,
      "ار": 2698,
      "ءَ": 2699,
      "است": 2700,
      "يڪ": 2701,
      "خو": 2702,
      "سڀ": 2703,
      "ڪا": 2704,
      "##ائين": 2705,
      "##اد": 2706,
      "مع": 2707,
      "وڃ": 2708,
      "##شن": 2709,
      "##ورت": 2710,
      "گه": 2711,
      "لي": 2712,
      "##هو": 2713,
      "##ءَ": 2714,
      "##اص": 2715,
      "ـــ": 2716,
      "##ڙي": 2717,
      "##بر": 2718,
      "##له": 2719,
      "مال": 2720,
      "##ئن": 2721,
      "##رين": 2722,
      "ڇا": 2723,
      "هر": 2724,
      "##ٽر": 2725,
      "##ها": 2726,
      "ڏين": 2727,
      "سي": 2728,
      "شا": 2729,
      "سم": 2730,
      "##اري": 2731,
      "وين": 2732,
      "##ڏي": 2733,
      "مح": 2734,
      "ني": 2735,
      "##ٽي": 2736,
      "جن": 2737,
      "##مل": 2738,
      "در": 2739,
      "ماڻ": 2740,
      "مل": 2741,
      "في": 2742,
      "وقت": 2743,
      "وڌيڪ": 2744,
      "##گر": 2745,
      "تع": 2746,
      "##بي": 2747,
      "##در": 2748,
      "##کي": 2749,
      "ڪج": 2750,
      "منهنج": 2751,
      "بر": 2752,
      "هون": 2753,
      "وار": 2754,
      "گهر": 2755,
      "##مت": 2756,
      "##از": 2757,
      "##جو": 2758,
      "سال": 2759,
      "##اني": 2760,
      "##اڻي": 2761,
      "ڪار": 2762,
      "ام": 2763,
      "اهي": 2764,
      "نگ": 2765,
      "اين": 2766,
      "اڳ": 2767,
      "##ڪا": 2768,
      "تر": 2769,
      "ڏي": 2770,
      "سند": 2771,
      "آھي": 2772,
      "استع": 2773,
      "سن": 2774,
      "جنهن": 2775,
      "نو": 2776,
      "ـــــ": 2777,
      "ڪئي": 2778,
      "شي": 2779,
      "مر": 2780,
      "##چي": 2781,
      "سا": 2782,
      "##سم": 2783,
      "نظ": 2784,
      "##ڻي": 2785,
      "هئي": 2786,
      "ڳال": 2787,
      "##گي": 2788,
      "تائين": 2789,
      "جيڪو": 2790,
      "واري": 2791,
      "ٽي": 2792,
      "پا": 2793,
      "ڪنهن": 2794,
      "پوءِ": 2795,
      "مش": 2796,
      "مس": 2797,
      "##صو": 2798,
      "##سٽ": 2799,
      "ڊي": 2800,
      "ڪريو": 2801,
      "ائي": 2802,
      "ــ": 2803,
      "ڪجهه": 2804,
      "عل": 2805,
      "با": 2806,
      "اها": 2807,
      "##خت": 2808,
      "ڪن": 2809,
      "چيو": 2810,
      "ٿين": 2811,
      "##نا": 2812,
      "##فت": 2813,
      "جڏهن": 2814,
      "سگهي": 2815,
      "بس": 2816,
      "##ڙو": 2817,
      "ڏينهن": 2818,
      "##نيا": 2819,
      "دو": 2820,
      "يل": 2821,
      "گڏ": 2822,
      "وڃي": 2823,
      "جيڪي": 2824,
      "##نگ": 2825,
      "##اصل": 2826,
      "##في": 2827,
      "رک": 2828,
      "##يت": 2829,
      "##ڪر": 2830,
      "از": 2831,
      "##عي": 2832,
      "سر": 2833,
      "تم": 2834,
      "يت": 2835,
      "حاصل": 2836,
      "##لام": 2837,
      "لڳ": 2838,
      "ضر": 2839,
      "##اهي": 2840,
      "ست": 2841,
      "اع": 2842,
      "يند": 2843,
      "##جود": 2844,
      "##بو": 2845,
      "سندس": 2846,
      "وٽ": 2847,
      "##ئر": 2848,
      "لو": 2849,
      "يڪڏهن": 2850,
      "ڪيت": 2851,
      "يم": 2852,
      "ٻڌ": 2853,
      "##يد": 2854,
      "علي": 2855,
      "هم": 2856,
      "مق": 2857,
      "پاڻ": 2858,
      "هئ": 2859,
      "شرو": 2860,
      "##الي": 2861,
      "الله": 2862,
      "##ئين": 2863,
      "##ثر": 2864,
      "##ما": 2865,
      "شروع": 2866,
      "تمام": 2867,
      "وٺ": 2868,
      "##ڪل": 2869,
      "##اه": 2870,
      "اص": 2871,
      "تح": 2872,
      "باب": 2873,
      "##اا": 2874,
      "##ڪن": 2875,
      "##سان": 2876,
      "##ٿي": 2877,
      "ڏس": 2878,
      "ناهي": 2879,
      "په": 2880,
      "فر": 2881,
      "گھ": 2882,
      "ڇو": 2883,
      "دا": 2884,
      "يون": 2885,
      "دنيا": 2886,
      "##فر": 2887,
      "##با": 2888,
      "دل": 2889,
      "##رح": 2890,
      "مط": 2891,
      "زند": 2892,
      "صح": 2893,
      "ٿيو": 2894,
      "رهيو": 2895,
      "تون": 2896,
      "عم": 2897,
      "عام": 2898,
      "مري": 2899,
      "##دار": 2900,
      "##لم": 2901,
      "چي": 2902,
      "ڇڏ": 2903,
      "ماڻهو": 2904,
      "جون": 2905,
      "##بل": 2906,
      "وئي": 2907,
      "##تو": 2908,
      "##ئون": 2909,
      "نن": 2910,
      "پن": 2911,
      "مخت": 2912,
      "وز": 2913,
      "پڻ": 2914,
      "نم": 2915,
      "نظر": 2916,
      "وڏي": 2917,
      "##ڻو": 2918,
      "زم": 2919,
      "ضرورت": 2920,
      "شام": 2921,
      "دور": 2922,
      "يع": 2923,
      "##اهر": 2924,
      "انهي": 2925,
      "ڏان": 2926,
      "ويندو": 2927,
      "##هم": 2928,
      "##نو": 2929,
      "##ھان": 2930,
      "مت": 2931,
      "قو": 2932,
      "عمل": 2933,
      "مد": 2934,
      "اُ": 2935,
      "صرف": 2936,
      "اچي": 2937,
      "سب": 2938,
      "خاص": 2939,
      "ويا": 2940,
      "ڪندا": 2941,
      "وڏ": 2942,
      "پيش": 2943,
      "زندگي": 2944,
      "ٿيڻ": 2945,
      "ڪڏهن": 2946,
      "##لف": 2947,
      "چون": 2948,
      "##عد": 2949,
      "تب": 2950,
      "طرف": 2951,
      "##تم": 2952,
      "نس": 2953,
      "ٻي": 2954,
      "طري": 2955,
      "##ءُ": 2956,
      "ڪت": 2957,
      "وال": 2958,
      "##ائن": 2959,
      "نق": 2960,
      "چو": 2961,
      "اڻ": 2962,
      "هئا": 2963,
      "##يل": 2964,
      "ڪيئن": 2965,
      "بل": 2966,
      "##فا": 2967,
      "سمج": 2968,
      "##بت": 2969,
      "سين": 2970,
      "ند": 2971,
      "ڪندو": 2972,
      "اح": 2973,
      "لک": 2974,
      "##اح": 2975,
      "پار": 2976,
      "بابت": 2977,
      "##لب": 2978,
      "سڀني": 2979,
      "جيئن": 2980,
      "ماڻهن": 2981,
      "##ڪار": 2982,
      "##ٺو": 2983,
      "غير": 2984,
      "رس": 2985,
      "ڏانهن": 2986,
      "##عو": 2987,
      "طرح": 2988,
      "ڪه": 2989,
      "بند": 2990,
      "قسم": 2991,
      "in": 2992,
      "شامل": 2993,
      "گهٽ": 2994,
      "آخ": 2995,
      "قي": 2996,
      "صورت": 2997,
      "ٻئي": 2998,
      "سنڌ": 2999,
      "دار": 3000,
      "وري": 3001,
      "##زي": 3002,
      "ندا": 3003,
      "آر": 3004,
      "جه": 3005,
      "ايم": 3006,
      "اڄ": 3007,
      "مختلف": 3008,
      "يعني": 3009,
      "ٽر": 3010,
      "اد": 3011,
      "ول": 3012,
      "ٻار": 3013,
      "ياد": 3014,
      "##ائڻ": 3015,
      "##اف": 3016,
      "شو": 3017,
      "هل": 3018,
      "وارو": 3019,
      "گر": 3020,
      "##سو": 3021,
      "آهيان": 3022,
      "هت": 3023,
      "وان": 3024,
      "مڪ": 3025,
      "مث": 3026,
      "رهيا": 3027,
      "خي": 3028,
      "تنهن": 3029,
      "نال": 3030,
      "واق": 3031,
      "خبر": 3032,
      "ڳالهه": 3033,
      "اسٽ": 3034,
      "حقي": 3035,
      "هوندي": 3036,
      "##تر": 3037,
      "نت": 3038,
      "اندر": 3039,
      "ڪندي": 3040,
      "اب": 3041,
      "ڏيڻ": 3042,
      "##سا": 3043,
      "##ڪس": 3044,
      "تن": 3045,
      "##ھو": 3046,
      "بڻ": 3047,
      "پيو": 3048,
      "حال": 3049,
      "فو": 3050,
      "گهرجي": 3051,
      "وچ": 3052,
      "اڪ": 3053,
      "بين": 3054,
      "بعد": 3055,
      "##لس": 3056,
      "ڪتاب": 3057,
      "پس": 3058,
      "هيٺ": 3059,
      "ايس": 3060,
      "هوندو": 3061,
      "اپ": 3062,
      "آئون": 3063,
      "ڪندڙ": 3064,
      "چاهي": 3065,
      "واپ": 3066,
      "تاري": 3067,
      "ٻن": 3068,
      "آهيون": 3069,
      "جيڪا": 3070,
      "پڙ": 3071,
      "سبب": 3072,
      "مدد": 3073,
      "ذري": 3074,
      "هري": 3075,
      "سيا": 3076,
      "##هند": 3077,
      "ٻين": 3078,
      "تاريخ": 3079,
      "ادا": 3080,
      "تج": 3081,
      "##ھنج": 3082,
      "خر": 3083,
      "كم": 3084,
      "##زا": 3085,
      "مڪمل": 3086,
      "موجود": 3087,
      "##وا": 3088,
      "عورت": 3089,
      "ھڪ": 3090,
      "اچ": 3091,
      "خوش": 3092,
      "کيس": 3093,
      "پاڪ": 3094,
      "ڳو": 3095,
      "شهر": 3096,
      "اج": 3097,
      "ٿيل": 3098,
      "بو": 3099,
      "ير": 3100,
      "اتي": 3101,
      "نئين": 3102,
      "نالو": 3103,
      "ڪمپ": 3104,
      "گذ": 3105,
      "انا": 3106,
      "يس": 3107,
      "يه": 3108,
      "خلا": 3109,
      "مم": 3110,
      "اهم": 3111,
      "##فظ": 3112,
      "##نڊ": 3113,
      "گهڻو": 3114,
      "ملڪ": 3115,
      "##ديل": 3116,
      "جواب": 3117,
      "سگه": 3118,
      "اخ": 3119,
      "##مد": 3120,
      "er": 3121,
      "يق": 3122,
      "هتي": 3123,
      "##ٽا": 3124,
      "پور": 3125,
      "هاڻي": 3126,
      "ڪمپني": 3127,
      "پهرين": 3128,
      "##قا": 3129,
      "تبديل": 3130,
      "ختم": 3131,
      "##ذا": 3132,
      "##هڻ": 3133,
      "قاب": 3134,
      "آن": 3135,
      "دوست": 3136,
      "ڪل": 3137,
      "##on": 3138,
      "يور": 3139,
      "ڏا": 3140,
      "رد": 3141,
      "##يان": 3142,
      "شر": 3143,
      "ائيٽ": 3144,
      "تنهنج": 3145,
      "حق": 3146,
      "اڃ": 3147,
      "##يم": 3148,
      "st": 3149,
      "##ايو": 3150,
      "آھن": 3151,
      "حس": 3152,
      "##ar": 3153,
      "##ندي": 3154,
      "سگهو": 3155,
      "ٿيندو": 3156,
      "##رن": 3157,
      "۾،": 3158,
      "##طي": 3159,
      "خيال": 3160,
      "شايد": 3161,
      "##ڳو": 3162,
      "##شت": 3163,
      "مسئ": 3164,
      "##جب": 3165,
      "سالن": 3166,
      "##شش": 3167,
      "سلام": 3168,
      "ڇڏيو": 3169,
      "نٽ": 3170,
      "فار": 3171,
      "پيدا": 3172,
      "ائين": 3173,
      "##صر": 3174,
      "عر": 3175,
      "تق": 3176,
      "ڪون": 3177,
      "فون": 3178,
      "چين": 3179,
      "ڏئي": 3180,
      "نيا": 3181,
      "وڏو": 3182,
      "ٿئي": 3183,
      "##ڪري": 3184,
      "##اج": 3185,
      "ولا": 3186,
      "فائ": 3187,
      "ڇڏي": 3188,
      "##امي": 3189,
      "هٿ": 3190,
      "دي": 3191,
      "##حد": 3192,
      "گي": 3193,
      "انت": 3194,
      "##لاح": 3195,
      "بد": 3196,
      "ويب": 3197,
      "اهڙي": 3198,
      "##صي": 3199,
      "##شه": 3200,
      "##دم": 3201,
      "قر": 3202,
      "نٿ": 3203,
      "سوا": 3204,
      "عليه": 3205,
      "وو": 3206,
      "چونڊ": 3207,
      "قان": 3208,
      "ڏنو": 3209,
      "##ضو": 3210,
      "##دڙ": 3211,
      "##زار": 3212,
      "هترين": 3213,
      "ااا": 3214,
      "##er": 3215,
      "ڪوشش": 3216,
      "قانون": 3217,
      "پوء": 3218,
      "مض": 3219,
      "##يح": 3220,
      "سيڪ": 3221,
      "##ارت": 3222,
      "مطلب": 3223,
      "آيو": 3224,
      "##ليم": 3225,
      "قيمت": 3226,
      "ويندي": 3227,
      "پري": 3228,
      "ٻه": 3229,
      "هجي": 3230,
      "ايپ": 3231,
      "اف": 3232,
      "##روري": 3233,
      "خدا": 3234,
      "ريا": 3235,
      "رات": 3236,
      "وٺي": 3237,
      "اوهان": 3238,
      "10": 3239,
      "ٻيو": 3240,
      "معي": 3241,
      "گھر": 3242,
      "سوال": 3243,
      "نش": 3244,
      "ران": 3245,
      "پئي": 3246,
      "مين": 3247,
      "امي": 3248,
      "##لوم": 3249,
      "اري": 3250,
      "مهي": 3251,
      "حل": 3252,
      "آئي": 3253,
      "وانگر": 3254,
      "##اڪ": 3255,
      "آهيو": 3256,
      "ٽيڪ": 3257,
      "ملي": 3258,
      "##جن": 3259,
      "پڇ": 3260,
      "##هور": 3261,
      "##حك": 3262,
      "انسان": 3263,
      "##خل": 3264,
      "ذريعي": 3265,
      "##ائق": 3266,
      "غل": 3267,
      "اصل": 3268,
      "خط": 3269,
      "شك": 3270,
      "پاڪست": 3271,
      "صحيح": 3272,
      "##سوس": 3273,
      "ترقي": 3274,
      "معلوم": 3275,
      "يقين": 3276,
      "يڊ": 3277,
      "##جه": 3278,
      "فق": 3279,
      "ڪيا": 3280,
      "##وب": 3281,
      "توھان": 3282,
      "##تا": 3283,
      "يان": 3284,
      "عال": 3285,
      "حقيقت": 3286,
      "##ٽو": 3287,
      "لفظ": 3288,
      "##ٺي": 3289,
      "وس": 3290,
      "##مو": 3291,
      "##ڪيٽ": 3292,
      "عمر": 3293,
      "##ندڙ": 3294,
      "ڪيل": 3295,
      "پرو": 3296,
      "هنن": 3297,
      "صف": 3298,
      "يد": 3299,
      "ڪيترا": 3300,
      "##صل": 3301,
      "رکي": 3302,
      "ڄاڻ": 3303,
      "قدر": 3304,
      "##اجي": 3305,
      "بح": 3306,
      "##عا": 3307,
      "اک": 3308,
      "سفر": 3309,
      "اوھان": 3310,
      "علا": 3311,
      "##ڊيو": 3312,
      "جاري": 3313,
      "ڏسي": 3314,
      "ولي": 3315,
      "ختي": 3316,
      "##or": 3317,
      "وجود": 3318,
      "والله": 3319,
      "اثر": 3320,
      "رج": 3321,
      "اول": 3322,
      "ظاهر": 3323,
      "اڃا": 3324,
      "ارڪيٽ": 3325,
      "يار": 3326,
      "##من": 3327,
      "ننڍ": 3328,
      "دوران": 3329,
      "سوچ": 3330,
      "ذا": 3331,
      "حڪو": 3332,
      "تصو": 3333,
      "ڳالها": 3334,
      "پسند": 3335,
      "هاي": 3336,
      "##يرو": 3337,
      "حڪومت": 3338,
      "صاح": 3339,
      "##ريب": 3340,
      "شخ": 3341,
      "سپ": 3342,
      "ضروري": 3343,
      "نج": 3344,
      "ڪيترن": 3345,
      "##ضي": 3346,
      "فرا": 3347,
      "تصوير": 3348,
      "ٻاهر": 3349,
      "حڪ": 3350,
      "صاحب": 3351,
      "پٽ": 3352,
      "لڳي": 3353,
      "##in": 3354,
      "ئين": 3355,
      "جل": 3356,
      "مٿ": 3357,
      "راند": 3358,
      "مريڪا": 3359,
      "مخ": 3360,
      "مواد": 3361,
      "##ورٽ": 3362,
      "ھن": 3363,
      "##ڙا": 3364,
      "رهن": 3365,
      "جتي": 3366,
      "گو": 3367,
      "حصو": 3368,
      "نهي": 3369,
      "##اس": 3370,
      "علائق": 3371,
      "##ريل": 3372,
      "بهتر": 3373,
      "سڄ": 3374,
      "اسڪ": 3375,
      "سندن": 3376,
      "##ران": 3377,
      "تص": 3378,
      "اند": 3379,
      "رق": 3380,
      "co": 3381,
      "حو": 3382,
      "عن": 3383,
      "##فو": 3384,
      "نتظ": 3385,
      "اني": 3386,
      "ختيار": 3387,
      "ڏسڻ": 3388,
      "طريق": 3389,
      "خري": 3390,
      "اسين": 3391,
      "##ڙه": 3392,
      "ڀر": 3393,
      "هريون": 3394,
      "جان": 3395,
      "بال": 3396,
      "##صد": 3397,
      "هُ": 3398,
      "##پي": 3399,
      "ڊيٽا": 3400,
      "محسوس": 3401,
      "اٿ": 3402,
      "ٺاهي": 3403,
      "ڪجھ": 3404,
      "يٽ": 3405,
      "كل": 3406,
      "هين": 3407,
      "صلاح": 3408,
      "موضو": 3409,
      "آسان": 3410,
      "مٿي": 3411,
      "هوندا": 3412,
      "وق": 3413,
      "چار": 3414,
      "عو": 3415,
      "آخر": 3416,
      "##کار": 3417,
      "بيان": 3418,
      "##نس": 3419,
      "موضوع": 3420,
      "خلاف": 3421,
      "اا": 3422,
      "يدا": 3423,
      "##رت": 3424,
      "على": 3425,
      "##لق": 3426,
      "نتي": 3427,
      "پاڻي": 3428,
      "##ارف": 3429,
      "اھو": 3430,
      "وڪ": 3431,
      "##ائو": 3432,
      "ڏني": 3433,
      "فارم": 3434,
      "حد": 3435,
      "ٿيون": 3436,
      "زمين": 3437,
      "th": 3438,
      "معيار": 3439,
      "مثال": 3440,
      "بچ": 3441,
      "ڏک": 3442,
      "چه": 3443,
      "ساڳ": 3444,
      "مج": 3445,
      "پنھنج": 3446,
      "اش": 3447,
      "ٿيندي": 3448,
      "ليڪ": 3449,
      "##ظيم": 3450,
      "سام": 3451,
      "دف": 3452,
      "رڳو": 3453,
      "##جڻ": 3454,
      "طرفان": 3455,
      "تعليم": 3456,
      "حالت": 3457,
      "نداز": 3458,
      "وارا": 3459,
      "ڪاروب": 3460,
      "منظ": 3461,
      "رنگ": 3462,
      "شع": 3463,
      "يءَ": 3464,
      "وسي": 3465,
      "رکڻ": 3466,
      "دست": 3467,
      "پيار": 3468,
      "خوا": 3469,
      "سگهجي": 3470,
      "##ولي": 3471,
      "لائن": 3472,
      "ڊائ": 3473,
      "##كم": 3474,
      "داخل": 3475,
      "آز": 3476,
      "##ـــ": 3477,
      "خود": 3478,
      "آب": 3479,
      "تجر": 3480,
      "حلو": 3481,
      "مشهور": 3482,
      "شخص": 3483,
      "هوءَ": 3484,
      "يشن": 3485,
      "ايپل": 3486,
      "يداوا": 3487,
      "۾.": 3488,
      "قوم": 3489,
      "ندي": 3490,
      "ٺاه": 3491,
      "الي": 3492,
      "همي": 3493,
      "te": 3494,
      "مار": 3495,
      "اسپ": 3496,
      "##نت": 3497,
      "سون": 3498,
      "قب": 3499,
      "ضحك": 3500,
      "مقصد": 3501,
      "نف": 3502,
      "پون": 3503,
      "##سر": 3504,
      "تيار": 3505,
      "سط": 3506,
      "واپس": 3507,
      "نهيءَ": 3508,
      "##ڪاڻ": 3509,
      "ڏاڍ": 3510,
      "##بان": 3511,
      "ميا": 3512,
      "تا": 3513,
      "مرد": 3514,
      "ايران": 3515,
      "صن": 3516,
      "ڇاڪاڻ": 3517,
      "##قل": 3518,
      "عد": 3519,
      "نظام": 3520,
      "وڃڻ": 3521,
      "ing": 3522,
      "نيو": 3523,
      "وائ": 3524,
      "al": 3525,
      "قابل": 3526,
      "لين": 3527,
      "ورس": 3528,
      "to": 3529,
      "##سٽم": 3530,
      "le": 3531,
      "##ڏھن": 3532,
      "##سپ": 3533,
      "نڊ": 3534,
      "اعلي": 3535,
      "مز": 3536,
      "لاز": 3537,
      "ندو": 3538,
      "مونکي": 3539,
      "شه": 3540,
      "پير": 3541,
      "هذا": 3542,
      "تان": 3543,
      "##عت": 3544,
      "هميشه": 3545,
      "ٻنهي": 3546,
      "ڏيو": 3547,
      "##به": 3548,
      "اجاز": 3549,
      "چوڻ": 3550,
      "مص": 3551,
      "راب": 3552,
      "##انه": 3553,
      "ابو": 3554,
      "يندو": 3555,
      "شاع": 3556,
      "خد": 3557,
      "له": 3558,
      "سک": 3559,
      "قدم": 3560,
      "توکي": 3561,
      "هند": 3562,
      "جنگ": 3563,
      "اجازت": 3564,
      "فراهم": 3565,
      "پئ": 3566,
      "علم": 3567,
      "عي": 3568,
      "يندا": 3569,
      "جر": 3570,
      "جم": 3571,
      "ڪير": 3572,
      "اميد": 3573,
      "ايو": 3574,
      "سلم": 3575,
      "##ائم": 3576,
      "مذ": 3577,
      "آو": 3578,
      "##كن": 3579,
      "خوب": 3580,
      "ڏيکار": 3581,
      "رپ": 3582,
      "نام": 3583,
      "لس": 3584,
      "راه": 3585,
      "نيادي": 3586,
      "آيا": 3587,
      "ره": 3588,
      "لم": 3589,
      "##اپ": 3590,
      "##ليل": 3591,
      "سٺو": 3592,
      "ڏٺو": 3593,
      "سواءِ": 3594,
      "تعلق": 3595,
      "آء": 3596,
      "ڄڻ": 3597,
      "ھو": 3598,
      "صفح": 3599,
      "##زن": 3600,
      "توڻ": 3601,
      "وگر": 3602,
      "توڻيڪ": 3603,
      "##ڊيا": 3604,
      "نٿو": 3605,
      "سلامي": 3606,
      "کا": 3607,
      "##بار": 3608,
      "##قيق": 3609,
      "تف": 3610,
      "##انس": 3611,
      "باري": 3612,
      "روز": 3613,
      "تحقيق": 3614,
      "سٽ": 3615,
      "انگ": 3616,
      "اك": 3617,
      "حت": 3618,
      "محفو": 3619,
      "سگھ": 3620,
      "محفوظ": 3621,
      "ڪونه": 3622,
      "##مبر": 3623,
      "##ur": 3624,
      "ma": 3625,
      "حڪم": 3626,
      "ٽيڪن": 3627,
      "ڪلا": 3628,
      "هه": 3629,
      "اگر": 3630,
      "حيا": 3631,
      "قائم": 3632,
      "اڻي": 3633,
      "رح": 3634,
      "an": 3635,
      "حض": 3636,
      "ھي": 3637,
      "مناس": 3638,
      "بار": 3639,
      "آواز": 3640,
      "مناسب": 3641,
      "##صوص": 3642,
      "re": 3643,
      "##يند": 3644,
      "طريقي": 3645,
      "وگرام": 3646,
      "بت": 3647,
      "نئون": 3648,
      "##داد": 3649,
      "ايت": 3650,
      "ايڪس": 3651,
      "واقعي": 3652,
      "وش": 3653,
      "##re": 3654,
      "آس": 3655,
      "قت": 3656,
      "##لن": 3657,
      "يڪي": 3658,
      "کڻي": 3659,
      "شادي": 3660,
      "مه": 3661,
      "خدمت": 3662,
      "موق": 3663,
      "رب": 3664,
      "رڪ": 3665,
      "شيء": 3666,
      "##ڌو": 3667,
      "ايل": 3668,
      "محبت": 3669,
      "شين": 3670,
      "حي": 3671,
      "##شان": 3672,
      "طال": 3673,
      "وزير": 3674,
      "عا": 3675,
      "سچ": 3676,
      "ڀا": 3677,
      "ڊو": 3678,
      "ڳول": 3679,
      "خريد": 3680,
      "##la": 3681,
      "ممڪن": 3682,
      "گرا": 3683,
      "##وري": 3684,
      "هجڻ": 3685,
      "يست": 3686,
      "نالي": 3687,
      "##ٽل": 3688,
      "##ابق": 3689,
      "اسڪول": 3690,
      "ويندا": 3691,
      "آخري": 3692,
      "سخت": 3693,
      "نفس": 3694,
      "مطابق": 3695,
      "رم": 3696,
      "هيو": 3697,
      "يائين": 3698,
      "اڪثر": 3699,
      "بنيا": 3700,
      "هـ": 3701,
      "مهر": 3702,
      "##كر": 3703,
      "خراب": 3704,
      "بنياد": 3705,
      "هچ": 3706,
      "وفا": 3707,
      "صحت": 3708,
      "##مير": 3709,
      "سگھي": 3710,
      "بلا": 3711,
      "خواست": 3712,
      "سه": 3713,
      "##وه": 3714,
      "سرو": 3715,
      "جسم": 3716,
      "آه": 3717,
      "اھ": 3718,
      "آزاد": 3719,
      "يڪيشن": 3720,
      "پل": 3721,
      "وب": 3722,
      "روح": 3723,
      "خان": 3724,
      "##st": 3725,
      "ميل": 3726,
      "سڏ": 3727,
      "##ڻڻ": 3728,
      "موڪل": 3729,
      "گهڻي": 3730,
      "واحد": 3731,
      "وارن": 3732,
      "گري": 3733,
      "سيڪڙو": 3734,
      "پيا": 3735,
      "اط": 3736,
      "لکي": 3737,
      "وڊيو": 3738,
      "نمون": 3739,
      "ٻارن": 3740,
      "اق": 3741,
      "منهن": 3742,
      "جڳ": 3743,
      "چڪو": 3744,
      "چڱ": 3745,
      "ڊاڪ": 3746,
      "آف": 3747,
      "##en": 3748,
      "آهين": 3749,
      "صب": 3750,
      "مفت": 3751,
      "ٻيهر": 3752,
      "طا": 3753,
      "ڪمي": 3754,
      "##ديد": 3755,
      "ڪپ": 3756,
      "گرو": 3757,
      "ڪٿي": 3758,
      "سڄي": 3759,
      "سڃ": 3760,
      "سائين": 3761,
      "ٿيا": 3762,
      "فقط": 3763,
      "رت": 3764,
      "رياست": 3765,
      "شد": 3766,
      "##انا": 3767,
      "##art": 3768,
      "سڪ": 3769,
      "##ra": 3770,
      "آفي": 3771,
      "منت": 3772,
      "وڪي": 3773,
      "که": 3774,
      "باقي": 3775,
      "اچڻ": 3776,
      "سطح": 3777,
      "فت": 3778,
      "ڪيس": 3779,
      "ڊاڪٽر": 3780,
      "20": 3781,
      "##جوا": 3782,
      "نقص": 3783,
      "ٽو": 3784,
      "اض": 3785,
      "پولي": 3786,
      "جهڙو": 3787,
      "فيص": 3788,
      "##ساس": 3789,
      "فيصلو": 3790,
      "پارٽي": 3791,
      "تخ": 3792,
      "بغ": 3793,
      "رست": 3794,
      "ِي": 3795,
      "سياسي": 3796,
      "##ائش": 3797,
      "##يوا": 3798,
      "سگهن": 3799,
      "ti": 3800,
      "ڪافي": 3801,
      "پاران": 3802,
      "اڳو": 3803,
      "ذهن": 3804,
      "سائن": 3805,
      "نوجوا": 3806,
      "ٻڌايو": 3807,
      "رن": 3808,
      "مرڪ": 3809,
      "غلط": 3810,
      "يز": 3811,
      "روم": 3812,
      "يندي": 3813,
      "مُ": 3814,
      "ڪڍ": 3815,
      "##گل": 3816,
      "عالمي": 3817,
      "ايه": 3818,
      "موت": 3819,
      "ڳالهي": 3820,
      "مريڪي": 3821,
      "##لع": 3822,
      "##ڪت": 3823,
      "بن": 3824,
      "##يي": 3825,
      "##ريڪ": 3826,
      "اڳتي": 3827,
      "ورتو": 3828,
      "يوني": 3829,
      "فع": 3830,
      "##ڊي": 3831,
      "زين": 3832,
      "ch": 3833,
      "قا": 3834,
      "برا": 3835,
      "ڌر": 3836,
      "اعل": 3837,
      "ڪهڙي": 3838,
      "ڪهاڻي": 3839,
      "##ڌي": 3840,
      "##ro": 3841,
      "سگهند": 3842,
      "آءٌ": 3843,
      "مير": 3844,
      "##مون": 3845,
      "کول": 3846,
      "تيز": 3847,
      "ڏسو": 3848,
      "نقصان": 3849,
      "جديد": 3850,
      "##ميت": 3851,
      "ايندڙ": 3852,
      "پاس": 3853,
      "ڳوٺ": 3854,
      "en": 3855,
      "ملڪن": 3856,
      "وڙ": 3857,
      "ميڊيا": 3858,
      "شيون": 3859,
      "پڪ": 3860,
      "رپورٽ": 3861,
      "##حال": 3862,
      "##ڊر": 3863,
      "لن": 3864,
      "ده": 3865,
      "##نل": 3866,
      "ئون": 3867,
      "تاز": 3868,
      "دلچ": 3869,
      "بخ": 3870,
      "##زل": 3871,
      "دلچسپ": 3872,
      "ڀي": 3873,
      "يندڙ": 3874,
      "لسلام": 3875,
      "تڪ": 3876,
      "رفت": 3877,
      "##ندو": 3878,
      "اِ": 3879,
      "پنج": 3880,
      "گا": 3881,
      "روش": 3882,
      "اڪائو": 3883,
      "يش": 3884,
      "ايڊ": 3885,
      "ذاتي": 3886,
      "##وو": 3887,
      "##تيب": 3888,
      "کين": 3889,
      "وج": 3890,
      "ضرور": 3891,
      "مهربا": 3892,
      "##ات": 3893,
      "ترتيب": 3894,
      "انه": 3895,
      "يلي": 3896,
      "##ڪٽ": 3897,
      "پوليس": 3898,
      "صدر": 3899,
      "چاهيو": 3900,
      "##id": 3901,
      "##انگ": 3902,
      "مشين": 3903,
      "نوٽ": 3904,
      "رٽ": 3905,
      "فلم": 3906,
      "ڪردار": 3907,
      "خير": 3908,
      "##le": 3909,
      "##ارو": 3910,
      "رسي": 3911,
      "گل": 3912,
      "الاجي": 3913,
      "اعلان": 3914,
      "ترين": 3915,
      "نر": 3916,
      "رھ": 3917,
      "لك": 3918,
      "يني": 3919,
      "جوڙ": 3920,
      "مضمون": 3921,
      "تس": 3922,
      "مسا": 3923,
      "پلي": 3924,
      "مرح": 3925,
      "نمبر": 3926,
      "جدا": 3927,
      "حقيقي": 3928,
      "واض": 3929,
      "ستان": 3930,
      "مسئلو": 3931,
      "##رر": 3932,
      "انھن": 3933,
      "تڏهن": 3934,
      "ايئر": 3935,
      "سسٽم": 3936,
      "اسلام": 3937,
      "ندڙ": 3938,
      "دير": 3939,
      "منٽ": 3940,
      "طاقت": 3941,
      "ڪيون": 3942,
      "بڻجي": 3943,
      "عرف": 3944,
      "حير": 3945,
      "ne": 3946,
      "لاڳ": 3947,
      "هاڻ": 3948,
      "گهڻ": 3949,
      "حر": 3950,
      "##هيل": 3951,
      "گڏي": 3952,
      "##ندا": 3953,
      "##هار": 3954,
      "ٽن": 3955,
      "عب": 3956,
      "سنڌي": 3957,
      "خت": 3958,
      "ڊگ": 3959,
      "رين": 3960,
      "وض": 3961,
      "ed": 3962,
      "لح": 3963,
      "قول": 3964,
      "##رول": 3965,
      "نقل": 3966,
      "گوگل": 3967,
      "نصو": 3968,
      "سلس": 3969,
      "نساني": 3970,
      "گفت": 3971,
      "عورتن": 3972,
      "ٿور": 3973,
      "ڏنل": 3974,
      "صبح": 3975,
      "مذه": 3976,
      "ماءُ": 3977,
      "ٽيم": 3978,
      "سامان": 3979,
      "بنا": 3980,
      "دش": 3981,
      "آباد": 3982,
      "تعمير": 3983,
      "طريقو": 3984,
      "ماح": 3985,
      "وڃن": 3986,
      "ڳن": 3987,
      "##ڪان": 3988,
      "##ديق": 3989,
      "چئي": 3990,
      "ڌار": 3991,
      "سُ": 3992,
      "ڪجي": 3993,
      "ورسٽي": 3994,
      "ڪش": 3995,
      "عوام": 3996,
      "واپار": 3997,
      "حضرت": 3998,
      "چر": 3999,
      "ro": 4000,
      "سماجي": 4001,
      "احساس": 4002,
      "قبول": 4003,
      "ٺاهڻ": 4004,
      "سٺي": 4005,
      "حفا": 4006,
      "پيغ": 4007,
      "لڳو": 4008,
      "سائنس": 4009,
      "ماحول": 4010,
      "مقرر": 4011,
      "حفاظ": 4012,
      "##الت": 4013,
      "ود": 4014,
      "ائل": 4015,
      "تقريب": 4016,
      "ڪيتري": 4017,
      "دري": 4018,
      "پورو": 4019,
      "خا": 4020,
      "##ٽري": 4021,
      "##ستي": 4022,
      "سمجھ": 4023,
      "وٺڻ": 4024,
      "حفاظت": 4025,
      "لوڊ": 4026,
      "اصلي": 4027,
      "گذريل": 4028,
      "de": 4029,
      "شاء": 4030,
      "##ظم": 4031,
      "معني": 4032,
      "پاسي": 4033,
      "سروس": 4034,
      "##ow": 4035,
      "ترج": 4036,
      "##ــــ": 4037,
      "ريس": 4038,
      "جها": 4039,
      "##يه": 4040,
      "صنعت": 4041,
      "نين": 4042,
      "رهڻ": 4043,
      "لاڳاپ": 4044,
      "جاءِ": 4045,
      "علاج": 4046,
      "قط": 4047,
      "##at": 4048,
      "جمع": 4049,
      "پوري": 4050,
      "قومي": 4051,
      "30": 4052,
      "ڪس": 4053,
      "جذ": 4054,
      "سار": 4055,
      "فرق": 4056,
      "بلڪل": 4057,
      "15": 4058,
      "داري": 4059,
      "يستائ": 4060,
      "واضح": 4061,
      "يك": 4062,
      "حصي": 4063,
      "طب": 4064,
      "start": 4065,
      "باز": 4066,
      "صارف": 4067,
      "نور": 4068,
      "mi": 4069,
      "پوندو": 4070,
      "صاف": 4071,
      "وڌي": 4072,
      "ئڻ": 4073,
      "dur": 4074,
      "##فٽ": 4075,
      "##مان": 4076,
      "ڪرا": 4077,
      "##ڊل": 4078,
      "اندان": 4079,
      "شرح": 4080,
      "ٻيا": 4081,
      "بخش": 4082,
      "se": 4083,
      "هف": 4084,
      "مسافر": 4085,
      "رائ": 4086,
      "متا": 4087,
      "تك": 4088,
      "##ولت": 4089,
      "ريڪ": 4090,
      "اکين": 4091,
      "وجوده": 4092,
      "راهڪن": 4093,
      "##صيل": 4094,
      "ڀيرو": 4095,
      "نٿا": 4096,
      "يگ": 4097,
      "تفصيل": 4098,
      "هيون": 4099,
      "ڪوبه": 4100,
      "نتظار": 4101,
      "هذ": 4102,
      "تعداد": 4103,
      "شان": 4104,
      "موجب": 4105,
      "رقم": 4106,
      "حوالي": 4107,
      "حياتي": 4108,
      "جلد": 4109,
      "ck": 4110,
      "عظيم": 4111,
      "گم": 4112,
      "##ليق": 4113,
      "خرچ": 4114,
      "##بوط": 4115,
      "بور": 4116,
      "عز": 4117,
      "فا": 4118,
      "لل": 4119,
      "هيءَ": 4120,
      "ڊر": 4121,
      "کائ": 4122,
      "پڙهي": 4123,
      "اوزار": 4124,
      "##ٺا": 4125,
      "مضبوط": 4126,
      "اُن": 4127,
      "پڙهڻ": 4128,
      "ذڪر": 4129,
      "ايش": 4130,
      "جھ": 4131,
      "ويئر": 4132,
      "ھڪڙو": 4133,
      "گڏيل": 4134,
      "##افي": 4135,
      "دان": 4136,
      "ناڪ": 4137,
      "محمد": 4138,
      "sh": 4139,
      "##حان": 4140,
      "متاثر": 4141,
      "وت": 4142,
      "سنگ": 4143,
      "مـ": 4144,
      "دعا": 4145,
      "پوسٽ": 4146,
      "at": 4147,
      "ايف": 4148,
      "جائ": 4149,
      "ڏيندو": 4150,
      "لينڊ": 4151,
      "عند": 4152,
      "اااا": 4153,
      "هفتي": 4154,
      "لکڻ": 4155,
      "دعو": 4156,
      "مند": 4157,
      "لازمي": 4158,
      "آزا": 4159,
      "سلمان": 4160,
      "هزار": 4161,
      "آزادي": 4162,
      "هال": 4163,
      "اهڙو": 4164,
      "رز": 4165,
      "نموني": 4166,
      "نٽرول": 4167,
      "ڙي": 4168,
      "مٿان": 4169,
      "عملي": 4170,
      "ارا": 4171,
      "درج": 4172,
      "نيٽ": 4173,
      "ارو": 4174,
      "شت": 4175,
      "##ri": 4176,
      "مڙ": 4177,
      "واقع": 4178,
      "##ابر": 4179,
      "لع": 4180,
      "نسل": 4181,
      "اڪي": 4182,
      "چم": 4183,
      "خواب": 4184,
      "تہ": 4185,
      "##احت": 4186,
      "##شق": 4187,
      "راح": 4188,
      "ڌيان": 4189,
      "معا": 4190,
      "وٺند": 4191,
      "me": 4192,
      "مهيا": 4193,
      "on": 4194,
      "مثل": 4195,
      "درد": 4196,
      "su": 4197,
      "اَ": 4198,
      "هفت": 4199,
      "سڃاڻ": 4200,
      "وڻ": 4201,
      "ڪهڙو": 4202,
      "رابط": 4203,
      "گريزي": 4204,
      "موسم": 4205,
      "ستق": 4206,
      "خواه": 4207,
      "ڪريان": 4208,
      "##ائل": 4209,
      "وضاحت": 4210,
      "لڳا": 4211,
      "ذم": 4212,
      "يک": 4213,
      "##يب": 4214,
      "بج": 4215,
      "غلطي": 4216,
      "عدالت": 4217,
      "ليک": 4218,
      "مست": 4219,
      "آرام": 4220,
      "بينڪ": 4221,
      "يورپ": 4222,
      "##يڪل": 4223,
      "نشان": 4224,
      "حص": 4225,
      "سف": 4226,
      "ريشان": 4227,
      "پهچي": 4228,
      "شم": 4229,
      "گرف": 4230,
      "li": 4231,
      "رکيو": 4232,
      "ذميوا": 4233,
      "12": 4234,
      "كان": 4235,
      "هوا": 4236,
      "روشني": 4237,
      "انج": 4238,
      "ڪرد": 4239,
      "##an": 4240,
      "ميد": 4241,
      "کن": 4242,
      "ڪئين": 4243,
      "الد": 4244,
      "سگهون": 4245,
      "وه": 4246,
      "هنڌ": 4247,
      "ڪيم": 4248,
      "خاصيت": 4249,
      "سور": 4250,
      "##هين": 4251,
      "برابر": 4252,
      "هلي": 4253,
      "##سڪ": 4254,
      "عجب": 4255,
      "روسي": 4256,
      "شرط": 4257,
      "##شل": 4258,
      "پوي": 4259,
      "استاد": 4260,
      "حسين": 4261,
      "منھنج": 4262,
      "يڪشن": 4263,
      "تنظيم": 4264,
      "ساز": 4265,
      "يپ": 4266,
      "پيام": 4267,
      "هيچ": 4268,
      "مليو": 4269,
      "ڪريون": 4270,
      "دين": 4271,
      "ڻي": 4272,
      "ءِ": 4273,
      "تش": 4274,
      "ــــ": 4275,
      "واڌ": 4276,
      "##الر": 4277,
      "##وي": 4278,
      "هدا": 4279,
      "وغ": 4280,
      "علاوه": 4281,
      "شكرا": 4282,
      "جلدي": 4283,
      "##ot": 4284,
      "##آن": 4285,
      "##ريز": 4286,
      "اعت": 4287,
      "ng": 4288,
      "سٽي": 4289,
      "ڪرڻو": 4290,
      "حيث": 4291,
      "وَ": 4292,
      "اهل": 4293,
      "قتل": 4294,
      "انتي": 4295,
      "تصديق": 4296,
      "جنھن": 4297,
      "شيءِ": 4298,
      "وڪرو": 4299,
      "نوڪري": 4300,
      "ڪردگي": 4301,
      "هار": 4302,
      "##ائر": 4303,
      "مالي": 4304,
      "جهاز": 4305,
      "واٽ": 4306,
      "پورٽ": 4307,
      "شاعر": 4308,
      "حيثيت": 4309,
      "##ڊو": 4310,
      "سمجها": 4311,
      "##وٽ": 4312,
      "رستو": 4313,
      "زور": 4314,
      "##رس": 4315,
      "گروپ": 4316,
      "فرانس": 4317,
      "ڪراچي": 4318,
      "صدي": 4319,
      "ٻولي": 4320,
      "لان": 4321,
      "رڪاري": 4322,
      "رفتار": 4323,
      "پليٽ": 4324,
      "يڪڏھن": 4325,
      "اسٽور": 4326,
      "جائز": 4327,
      "##شڪ": 4328,
      "عرب": 4329,
      "اث": 4330,
      "نفر": 4331,
      "سنڀ": 4332,
      "ڇوڪري": 4333,
      "يال": 4334,
      "انتها": 4335,
      "da": 4336,
      "نمي": 4337,
      "هريان": 4338,
      "ماني": 4339,
      "گھٽ": 4340,
      "تصور": 4341,
      "دوا": 4342,
      "ااااا": 4343,
      "خار": 4344,
      "زال": 4345,
      "ٺهيل": 4346,
      "ياتي": 4347,
      "ماڊل": 4348,
      "ڪارڊ": 4349,
      "پھ": 4350,
      "ڊالر": 4351,
      "##دن": 4352,
      "نها": 4353,
      "فيصل": 4354,
      "غريب": 4355,
      "ذار": 4356,
      "يماري": 4357,
      "مينٽ": 4358,
      "ic": 4359,
      "ميٽر": 4360,
      "زي": 4361,
      "زبان": 4362,
      "رسائي": 4363,
      "ڪلڪ": 4364,
      "ملڪي": 4365,
      "كي": 4366,
      "##ڀر": 4367,
      "اصول": 4368,
      "آفيس": 4369,
      "جز": 4370,
      "فن": 4371,
      "نڪ": 4372,
      "بڻائ": 4373,
      "سيٽ": 4374,
      "امام": 4375,
      "ملا": 4376,
      "ڪيائ": 4377,
      "موٽ": 4378,
      "اون": 4379,
      "##نيٽ": 4380,
      "تجربو": 4381,
      "بز": 4382,
      "##انو": 4383,
      "فيس": 4384,
      "اٽ": 4385,
      "##پو": 4386,
      "امير": 4387,
      "زو": 4388,
      "خوف": 4389,
      "بلاگ": 4390,
      "رگر": 4391,
      "ھڪڙي": 4392,
      "چند": 4393,
      "سياح": 4394,
      "50": 4395,
      "پڇيو": 4396,
      "ستقبل": 4397,
      "گرمي": 4398,
      "سمجهي": 4399,
      "and": 4400,
      "زا": 4401,
      "پيوٽر": 4402,
      "ميابي": 4403,
      "اقت": 4404,
      "ديو": 4405,
      "بحث": 4406,
      "##ابت": 4407,
      "اڌ": 4408,
      "طر": 4409,
      "ڪيٽ": 4410,
      "di": 4411,
      "آئ": 4412,
      "##لت": 4413,
      "ايندو": 4414,
      "##گار": 4415,
      "ماهر": 4416,
      "ورڪ": 4417,
      "bi": 4418,
      "دم": 4419,
      "ويج": 4420,
      "اعظم": 4421,
      "آءِ": 4422,
      "ڪوڙ": 4423,
      "ٿيندا": 4424,
      "پيغام": 4425,
      "##ڏو": 4426,
      "##ياري": 4427,
      "بورڊ": 4428,
      "سافٽ": 4429,
      "ڇڏيند": 4430,
      "ٽرنيٽ": 4431,
      "اللي": 4432,
      "ئن": 4433,
      "ڊائون": 4434,
      "آآ": 4435,
      "فل": 4436,
      "لاڳو": 4437,
      "هڪڙي": 4438,
      "ڏاڍو": 4439,
      "نص": 4440,
      "يٰ": 4441,
      "##دود": 4442,
      "ڳالھ": 4443,
      "ٻڌي": 4444,
      "ڪونهي": 4445,
      "ريت": 4446,
      "ريم": 4447,
      "وزن": 4448,
      "##گو": 4449,
      "ڪين": 4450,
      "حب": 4451,
      "##جا": 4452,
      "ڪٽ": 4453,
      "ڪوڊ": 4454,
      "pa": 4455,
      "##غان": 4456,
      "خصوص": 4457,
      "ءُ": 4458,
      "ساڳي": 4459,
      "يڪس": 4460,
      "##الف": 4461,
      "سج": 4462,
      "واس": 4463,
      "اڳي": 4464,
      "شاعري": 4465,
      "تاب": 4466,
      "جيت": 4467,
      "نيشن": 4468,
      "تجز": 4469,
      "علام": 4470,
      "رگرمي": 4471,
      "خام": 4472,
      "يئر": 4473,
      "شڪار": 4474,
      "قدي": 4475,
      "ويئي": 4476,
      "ca": 4477,
      "##ريٽ": 4478,
      "افغان": 4479,
      "پوئ": 4480,
      "صد": 4481,
      "قبل": 4482,
      "نل": 4483,
      "اسٽي": 4484,
      "توق": 4485,
      "فعال": 4486,
      "سڪرين": 4487,
      "ڊگهي": 4488,
      "فلس": 4489,
      "بود": 4490,
      "ياس": 4491,
      "ايا": 4492,
      "گرم": 4493,
      "سنڀال": 4494,
      "كت": 4495,
      "بيت": 4496,
      "دٻ": 4497,
      "ھر": 4498,
      "لاش": 4499,
      "آمد": 4500,
      "فض": 4501,
      "يقيني": 4502,
      "##me": 4503,
      "ادب": 4504,
      "شڪل": 4505,
      "لائ": 4506,
      "حم": 4507,
      "ايندي": 4508,
      "عذ": 4509,
      "قص": 4510,
      "مهم": 4511,
      "kn": 4512,
      "اڳيان": 4513,
      "بڻائي": 4514,
      "سگهيو": 4515,
      "دفعو": 4516,
      "عالم": 4517,
      "عه": 4518,
      "مڃ": 4519,
      "ٿيندڙ": 4520,
      "ويون": 4521,
      "راز": 4522,
      "وبائل": 4523,
      "ٿورو": 4524,
      "اکي": 4525,
      "رآ": 4526,
      "فيه": 4527,
      "##ورن": 4528,
      "رهندو": 4529,
      "na": 4530,
      "ثابت": 4531,
      "اھي": 4532,
      "محدود": 4533,
      "داد": 4534,
      "خوشي": 4535,
      "قوامي": 4536,
      "لکيو": 4537,
      "وم": 4538,
      "ڳولي": 4539,
      "رخ": 4540,
      "زمان": 4541,
      "ايترو": 4542,
      "بير": 4543,
      "امن": 4544,
      "ڪندڙن": 4545,
      "فٽ": 4546,
      "سوشل": 4547,
      "ادي": 4548,
      "نك": 4549,
      "نڪر": 4550,
      "##جر": 4551,
      "##سٽر": 4552,
      "هرحال": 4553,
      "ta": 4554,
      "be": 4555,
      "فري": 4556,
      "ڀير": 4557,
      "حساب": 4558,
      "منظر": 4559,
      "##ونس": 4560,
      "اڙ": 4561,
      "هڙي": 4562,
      "قديم": 4563,
      "پيءُ": 4564,
      "چوي": 4565,
      "مخصوص": 4566,
      "يري": 4567,
      "قابلي": 4568,
      "ڪئ": 4569,
      "ڪان": 4570,
      "##ڪڻ": 4571,
      "سگهان": 4572,
      "يوم": 4573,
      "صورتح": 4574,
      "11": 4575,
      "ياب": 4576,
      "سگھو": 4577,
      "يگر": 4578,
      "حتى": 4579,
      "اڳواڻ": 4580,
      "ريف": 4581,
      "##قيد": 4582,
      "مخالف": 4583,
      "طاب": 4584,
      "##لڊ": 4585,
      "هوس": 4586,
      "؟؟": 4587,
      "ڇپ": 4588,
      "يده": 4589,
      "##نٽ": 4590,
      "ميدان": 4591,
      "##طر": 4592,
      "يافت": 4593,
      "زخ": 4594,
      "ٺيڪ": 4595,
      "ليه": 4596,
      "مپ": 4597,
      "اهڙا": 4598,
      "ليس": 4599,
      "فهم": 4600,
      "ينڊ": 4601,
      "اينڊ": 4602,
      "قرار": 4603,
      "جت": 4604,
      "ابندي": 4605,
      "لط": 4606,
      "يلا": 4607,
      "گير": 4608,
      "##مر": 4609,
      "بابا": 4610,
      "##نن": 4611,
      "نون": 4612,
      "جهڙوڪ": 4613,
      "عاد": 4614,
      "گيري": 4615,
      "جمي": 4616,
      "پٺ": 4617,
      "هدايت": 4618,
      "سياست": 4619,
      "دوستن": 4620,
      "ورا": 4621,
      "يب": 4622,
      "حالتن": 4623,
      "چڪا": 4624,
      "مياب": 4625,
      "ڪام": 4626,
      "لاقا": 4627,
      "عرصي": 4628,
      "درو": 4629,
      "the": 4630,
      "هڪڙو": 4631,
      "امه": 4632,
      "vi": 4633,
      "مَ": 4634,
      "ليش": 4635,
      "نقلاب": 4636,
      "آگ": 4637,
      "عيد": 4638,
      "ماري": 4639,
      "ليل": 4640,
      "##وش": 4641,
      "##ئڻ": 4642,
      "ڌرتي": 4643,
      "الدين": 4644,
      "##يع": 4645,
      "ڀري": 4646,
      "ساڻ": 4647,
      "تعارف": 4648,
      "سمنڊ": 4649,
      "انٽر": 4650,
      "مھ": 4651,
      "سائي": 4652,
      "اءِ": 4653,
      "وص": 4654,
      "مب": 4655,
      "مالڪ": 4656,
      "نيوز": 4657,
      "نهن": 4658,
      "نڪري": 4659,
      "هيا": 4660,
      "##گه": 4661,
      "لفظن": 4662,
      "گهڻا": 4663,
      "ڳنڍ": 4664,
      "اڏ": 4665,
      "اور": 4666,
      "ڳولا": 4667,
      "اضافي": 4668,
      "ڪاري": 4669,
      "ملڻ": 4670,
      "اگردن": 4671,
      "ندر": 4672,
      "گذر": 4673,
      "جد": 4674,
      "پک": 4675,
      "لاقات": 4676,
      "سَ": 4677,
      "نٿي": 4678,
      "ويل": 4679,
      "سئ": 4680,
      "##رار": 4681,
      "ائون": 4682,
      "سعو": 4683,
      "رسال": 4684,
      "ec": 4685,
      "رجسٽر": 4686,
      "ra": 4687,
      "زماني": 4688,
      "سوچيو": 4689,
      "دما": 4690,
      "##xt": 4691,
      "##يره": 4692,
      "راد": 4693,
      "مختصر": 4694,
      "توقع": 4695,
      "جڳهه": 4696,
      "18": 4697,
      "فهر": 4698,
      "اوجود": 4699,
      "##هيو": 4700,
      "ڏاڍي": 4701,
      "know": 4702,
      "us": 4703,
      "فهرست": 4704,
      "ٻڌڻ": 4705,
      "جيل": 4706,
      "ڪنھن": 4707,
      "خواهش": 4708,
      "نيشنل": 4709,
      "لهي": 4710,
      "##اھ": 4711,
      "ملين": 4712,
      "اظ": 4713,
      "##شي": 4714,
      "##ونا": 4715,
      "ويجهو": 4716,
      "يات": 4717,
      "راڻ": 4718,
      "صل": 4719,
      "ڪُ": 4720,
      "كله": 4721,
      "وٽي": 4722,
      "ڏنا": 4723,
      "يف": 4724,
      "هيه": 4725,
      "سفار": 4726,
      "بق": 4727,
      "##سل": 4728,
      "رائي": 4729,
      "نسٽ": 4730,
      "##تال": 4731,
      "ڪلاڪ": 4732,
      "يج": 4733,
      "ٽرانس": 4734,
      "انچ": 4735,
      "فائدو": 4736,
      "اءُ": 4737,
      "زن": 4738,
      "شعر": 4739,
      "گرفتا": 4740,
      "شوف": 4741,
      "منتقل": 4742,
      "دماغ": 4743,
      "وڌائڻ": 4744,
      "شوق": 4745,
      "مشڪل": 4746,
      "##رير": 4747,
      "اخبار": 4748,
      "مرحل": 4749,
      "چڪي": 4750,
      "روڊ": 4751,
      "فط": 4752,
      "يي": 4753,
      "ڀلي": 4754,
      "ائو": 4755,
      "it": 4756,
      "گزار": 4757,
      "فڪر": 4758,
      "بدر": 4759,
      "ثقا": 4760,
      "ثقافت": 4761,
      "تجو": 4762,
      "ٽائي": 4763,
      "ٽڪر": 4764,
      "لنڪ": 4765,
      "شاندا": 4766,
      "nd": 4767,
      "##شر": 4768,
      "انگي": 4769,
      "خلاص": 4770,
      "##هڪ": 4771,
      "سگھن": 4772,
      "سواء": 4773,
      "اندين": 4774,
      "la": 4775,
      "##اء": 4776,
      "جهڙي": 4777,
      "عتم": 4778,
      "ba": 4779,
      "طبي": 4780,
      "گذري": 4781,
      "سهولت": 4782,
      "nt": 4783,
      "پريشن": 4784,
      "جڏھن": 4785,
      "رف": 4786,
      "##ادل": 4787,
      "25": 4788,
      "تخليق": 4789,
      "عين": 4790,
      "بدل": 4791,
      "حا": 4792,
      "وط": 4793,
      "##چر": 4794,
      "روپ": 4795,
      "ويز": 4796,
      "سوي": 4797,
      "وڏا": 4798,
      "ni": 4799,
      "si": 4800,
      "فور": 4801,
      "لائي": 4802,
      "نسي": 4803,
      "تحت": 4804,
      "عتماد": 4805,
      "وح": 4806,
      "پال": 4807,
      "مهينن": 4808,
      "بھ": 4809,
      "ايج": 4810,
      "منزل": 4811,
      "رستي": 4812,
      "خخ": 4813,
      "رڪار": 4814,
      "نع": 4815,
      "توانا": 4816,
      "سماني": 4817,
      "لق": 4818,
      "com": 4819,
      "هندست": 4820,
      "چيزي": 4821,
      "يٺ": 4822,
      "ٻڌائي": 4823,
      "ننڊ": 4824,
      "وغيره": 4825,
      "رڪارڊ": 4826,
      "ڳا": 4827,
      "روا": 4828,
      "بيشڪ": 4829,
      "غور": 4830,
      "جيان": 4831,
      "مره": 4832,
      "سڀئي": 4833,
      "لکيل": 4834,
      "##ڇي": 4835,
      "امهون": 4836,
      "##اظ": 4837,
      "اکيون": 4838,
      "مگر": 4839,
      "##لاس": 4840,
      "مسلس": 4841,
      "سپتال": 4842,
      "نقش": 4843,
      "گاڏي": 4844,
      "مسلسل": 4845,
      "وفي": 4846,
      "هئڻ": 4847,
      "ريل": 4848,
      "بجلي": 4849,
      "ليکڪ": 4850,
      "اهميت": 4851,
      "يراني": 4852,
      "حسن": 4853,
      "ولو": 4854,
      "يسٽ": 4855,
      "رکو": 4856,
      "آپ": 4857,
      "جئين": 4858,
      "##لاق": 4859,
      "مقامي": 4860,
      "مڙس": 4861,
      "شكل": 4862,
      "ارف": 4863,
      "زر": 4864,
      "ايتري": 4865,
      "ٻڌائ": 4866,
      "رقرار": 4867,
      "لحاظ": 4868,
      "عاه": 4869,
      "##li": 4870,
      "حبي": 4871,
      "قرآن": 4872,
      "وڃو": 4873,
      "سل": 4874,
      "is": 4875,
      "عشق": 4876,
      "جرم": 4877,
      "طبق": 4878,
      "لائين": 4879,
      "##رل": 4880,
      "اتو": 4881,
      "فوج": 4882,
      "ارفين": 4883,
      "آل": 4884,
      "ارس": 4885,
      "ڊيز": 4886,
      "14": 4887,
      "موقعو": 4888,
      "فكر": 4889,
      "داشت": 4890,
      "حيرت": 4891,
      "es": 4892,
      "انڊ": 4893,
      "اچو": 4894,
      "نتظام": 4895,
      "اعليٰ": 4896,
      "نہ": 4897,
      "شڪ": 4898,
      "ناس": 4899,
      "نتيجي": 4900,
      "نِ": 4901,
      "هيءُ": 4902,
      "فصل": 4903,
      "وجه": 4904,
      "يـ": 4905,
      "وقف": 4906,
      "آڻڻ": 4907,
      "نيڪ": 4908,
      "راج": 4909,
      "##ناه": 4910,
      "اڻڻ": 4911,
      "بلڪ": 4912,
      "عنصر": 4913,
      "رٽيڪل": 4914,
      "اڃان": 4915,
      "ناڪام": 4916,
      "يسي": 4917,
      "قرض": 4918,
      "ٺاهيو": 4919,
      "عبد": 4920,
      "قلب": 4921,
      "ايڇ": 4922,
      "ڏيندا": 4923,
      "سميت": 4924,
      "شڪر": 4925,
      "عت": 4926,
      "يام": 4927,
      "ونڊو": 4928,
      "فائل": 4929,
      "وووو": 4930,
      "وسار": 4931,
      "ss": 4932,
      "بـ": 4933,
      "آساني": 4934,
      "پوئتي": 4935,
      "عجي": 4936,
      "راڊ": 4937,
      "هلند": 4938,
      "text": 4939,
      "وائرس": 4940,
      "ويس": 4941,
      "ائڻ": 4942,
      "بندي": 4943,
      "چيني": 4944,
      "گراف": 4945,
      "اتح": 4946,
      "بران": 4947,
      "مصنو": 4948,
      "صو": 4949,
      "اتر": 4950,
      "ليٽ": 4951,
      "مصنوع": 4952,
      "بئن": 4953,
      "قس": 4954,
      "مسي": 4955,
      "ماه": 4956,
      "ڏکڻ": 4957,
      "ويه": 4958,
      "مسئلن": 4959,
      "مجهيو": 4960,
      "وره": 4961,
      "قاعد": 4962,
      "عجيب": 4963,
      "هور": 4964,
      "ييي": 4965,
      "شايع": 4966,
      "درست": 4967,
      "اهيان": 4968,
      "متحان": 4969,
      "يورپي": 4970,
      "بغير": 4971,
      "we": 4972,
      "اً": 4973,
      "آسم": 4974,
      "مئ": 4975,
      "ورن": 4976,
      "ڏينھن": 4977,
      "ادار": 4978,
      "##دير": 4979,
      "اجلاس": 4980,
      "ايون": 4981,
      "نگر": 4982,
      "قسمن": 4983,
      "امان": 4984,
      "نسٽال": 4985,
      "ڪٽو": 4986,
      "انع": 4987,
      "ly": 4988,
      "طلع": 4989,
      "ھون": 4990,
      "ورٽ": 4991,
      "رکند": 4992,
      "ايمان": 4993,
      "حوال": 4994,
      "منظور": 4995,
      "الڳ": 4996,
      "براي": 4997,
      "ميمبر": 4998,
      "ذات": 4999,
      "ڳولڻ": 5000,
      "شن": 5001,
      "چور": 5002,
      "وانا": 5003,
      "تبا": 5004,
      "lo": 5005,
      "ڪَ": 5006,
      "تحفظ": 5007,
      "ha": 5008,
      "ديد": 5009,
      "بئنڪ": 5010,
      "ad": 5011,
      "##ٿر": 5012,
      "##ھر": 5013,
      "ائس": 5014,
      "عوامي": 5015,
      "مغ": 5016,
      "##زم": 5017,
      "لال": 5018,
      "ميو": 5019,
      "وهه": 5020,
      "كر": 5021,
      "هڻ": 5022,
      "مقدار": 5023,
      "اصلا": 5024,
      "جذب": 5025,
      "خالي": 5026,
      "وحد": 5027,
      "ڪاب": 5028,
      "ٽيسٽ": 5029,
      "قدرتي": 5030,
      "or": 5031,
      "ضاب": 5032,
      "ڀارت": 5033,
      "طلب": 5034,
      "يول": 5035,
      "رهند": 5036,
      "جاچ": 5037,
      "ينل": 5038,
      "سير": 5039,
      "ڊوائ": 5040,
      "ضابط": 5041,
      "انص": 5042,
      "ورتي": 5043,
      "وزي": 5044,
      "ادري": 5045,
      "sa": 5046,
      "رڪن": 5047,
      "چپ": 5048,
      "##ريف": 5049,
      "انو": 5050,
      "سماج": 5051,
      "خرڪار": 5052,
      "حڪمت": 5053,
      "مهو": 5054,
      "پراڻي": 5055,
      "ادارن": 5056,
      "لب": 5057,
      "نھي": 5058,
      "##يز": 5059,
      "هوٽل": 5060,
      "دشمن": 5061,
      "شخصيت": 5062,
      "پوندي": 5063,
      "وند": 5064,
      "ڪندس": 5065,
      "روس": 5066,
      "ڏيندي": 5067,
      "صور": 5068,
      "ماڻھو": 5069,
      "ائيند": 5070,
      "ائسنس": 5071,
      "##ll": 5072,
      "##ڌر": 5073,
      "ڀيٽ": 5074,
      "ننڍي": 5075,
      "اظهار": 5076,
      "مها": 5077,
      "يدار": 5078,
      "درواز": 5079,
      "جار": 5080,
      "خور": 5081,
      "طيب": 5082,
      "پهر": 5083,
      "##گرد": 5084,
      "رابطو": 5085,
      "عبدال": 5086,
      "so": 5087,
      "sp": 5088,
      "هجن": 5089,
      "وڪل": 5090,
      "##باس": 5091,
      "عنو": 5092,
      "اچن": 5093,
      "وسيع": 5094,
      "نار": 5095,
      "گن": 5096,
      "ساڳيو": 5097,
      "سعودي": 5098,
      "سول": 5099,
      "يهي": 5100,
      "ٿوري": 5101,
      "شعور": 5102,
      "يٽر": 5103,
      "##um": 5104,
      "andr": 5105,
      "سڌو": 5106,
      "ڪسٽم": 5107,
      "اخر": 5108,
      "حلوه": 5109,
      "حما": 5110,
      "رض": 5111,
      "گڏو": 5112,
      "مذهبي": 5113,
      "جني": 5114,
      "عياري": 5115,
      "100": 5116,
      "سڏيو": 5117,
      "for": 5118,
      "مظ": 5119,
      "##ut": 5120,
      "وات": 5121,
      "un": 5122,
      "هست": 5123,
      "ايد": 5124,
      "لڳند": 5125,
      "گرد": 5126,
      "فوجي": 5127,
      "مذهب": 5128,
      "انس": 5129,
      "ترجم": 5130,
      "شاگرد": 5131,
      "ڊز": 5132,
      "##ڙپ": 5133,
      "مهيني": 5134,
      "نـ": 5135,
      "اسر": 5136,
      "ويڊيو": 5137,
      "ارن": 5138,
      "ar": 5139,
      "oid": 5140,
      "شاهه": 5141,
      "انجام": 5142,
      "شهي": 5143,
      "##ٽڻ": 5144,
      "انصاف": 5145,
      "40": 5146,
      "qu": 5147,
      "تيل": 5148,
      "خيلي": 5149,
      "تجرب": 5150,
      "خل": 5151,
      "ساڳئي": 5152,
      "اسپين": 5153,
      "آسمان": 5154,
      "رسم": 5155,
      "ريٽ": 5156,
      "مرڪز": 5157,
      "أن": 5158,
      "سلسلي": 5159,
      "كن": 5160,
      "##بال": 5161,
      "گھرجي": 5162,
      "حتج": 5163,
      "ٽرين": 5164,
      "چنڊ": 5165,
      "جنم": 5166,
      "خاموش": 5167,
      "اذا": 5168,
      "لڪ": 5169,
      "ڊجي": 5170,
      "آهنگ": 5171,
      "ڄاڻي": 5172,
      "ڊجيٽل": 5173,
      "دڪان": 5174,
      "گڏجي": 5175,
      "پويان": 5176,
      "مارچ": 5177,
      "چڱي": 5178,
      "حصن": 5179,
      "جمو": 5180,
      "ايئن": 5181,
      "ڪيترو": 5182,
      "روسيس": 5183,
      "mo": 5184,
      "##بلي": 5185,
      "سٽيشن": 5186,
      "جموعي": 5187,
      "مئي": 5188,
      "حتجاج": 5189,
      "13": 5190,
      "ho": 5191,
      "عط": 5192,
      "pp": 5193,
      "تل": 5194,
      "ممكن": 5195,
      "دستا": 5196,
      "ڪال": 5197,
      "##وڙ": 5198,
      "ريشن": 5199,
      "منظم": 5200,
      "لباس": 5201,
      "دخل": 5202,
      "ردا": 5203,
      "##ch": 5204,
      "روف": 5205,
      "ڪنڊ": 5206,
      "عمارت": 5207,
      "##فاق": 5208,
      "سياحت": 5209,
      "فطرت": 5210,
      "mp": 5211,
      "حمل": 5212,
      "شما": 5213,
      "لئ": 5214,
      "ڊپ": 5215,
      "ڪورٽ": 5216,
      "راضي": 5217,
      "عيس": 5218,
      "مهوري": 5219,
      "عزي": 5220,
      "ريڊ": 5221,
      "ڪپڙ": 5222,
      "هع": 5223,
      "چيڪ": 5224,
      "ڙهند": 5225,
      "نمائ": 5226,
      "ادبي": 5227,
      "گاه": 5228,
      "پرس": 5229,
      "تحريڪ": 5230,
      "اڪيلو": 5231,
      "ڪالي": 5232,
      "اشارو": 5233,
      "ڪٽوبر": 5234,
      "پشن": 5235,
      "کر": 5236,
      "جنسي": 5237,
      "ملائ": 5238,
      "باغ": 5239,
      "16": 5240,
      "محنت": 5241,
      "يمبر": 5242,
      "عمولي": 5243,
      "سزا": 5244,
      "هُو": 5245,
      "عزت": 5246,
      "ورڊ": 5247,
      "برانڊ": 5248,
      "يڙ": 5249,
      "ڪور": 5250,
      "وڏن": 5251,
      "ٽيڪس": 5252,
      "هُن": 5253,
      "معنيٰ": 5254,
      "طابقت": 5255,
      "قسمت": 5256,
      "موٽر": 5257,
      "نماز": 5258,
      "مسئلي": 5259,
      "هِ": 5260,
      "پٿر": 5261,
      "ڪمري": 5262,
      "ائپ": 5263,
      "ايندا": 5264,
      "مشت": 5265,
      "چيز": 5266,
      "طريقا": 5267,
      "فقير": 5268,
      "جميل": 5269,
      "بدران": 5270,
      "حرف": 5271,
      "عقل": 5272,
      "مني": 5273,
      "پائ": 5274,
      "ماپ": 5275,
      "فوت": 5276,
      "چڱو": 5277,
      "ٽين": 5278,
      "تعريف": 5279,
      "نشاني": 5280,
      "pro": 5281,
      "گيت": 5282,
      "رك": 5283,
      "قد": 5284,
      "##لوي": 5285,
      "اكل": 5286,
      "لنڊ": 5287,
      "ويند": 5288,
      "لوڪ": 5289,
      "تڪڙ": 5290,
      "تجزيو": 5291,
      "##ارٽ": 5292,
      "کيڏ": 5293,
      "ميان": 5294,
      "نڌ": 5295,
      "ڪلو": 5296,
      "ڪرائي": 5297,
      "اضاف": 5298,
      "کليل": 5299,
      "##ده": 5300,
      "روي": 5301,
      "گهربل": 5302,
      "نگن": 5303,
      "صدق": 5304,
      "نءَ": 5305,
      "سيڙپ": 5306,
      "شهري": 5307,
      "كنت": 5308,
      "نب": 5309,
      "سموري": 5310,
      ">>": 5311,
      "مائ": 5312,
      "ڪڍي": 5313,
      "ڪتابن": 5314,
      "پٽمبر": 5315,
      "سيريز": 5316,
      "نصي": 5317,
      "هيڪ": 5318,
      "##جد": 5319,
      "نواز": 5320,
      "گراهڪ": 5321,
      "عزيز": 5322,
      "no": 5323,
      "آدم": 5324,
      "وك": 5325,
      "موٽي": 5326,
      "نسخ": 5327,
      "واپسي": 5328,
      "۔۔": 5329,
      "##وم": 5330,
      "يمبلي": 5331,
      "پهچ": 5332,
      "ڪابه": 5333,
      "مرا": 5334,
      "ھئي": 5335,
      "يڪل": 5336,
      "سمارٽ": 5337,
      "راهي": 5338,
      "<<": 5339,
      "ادر": 5340,
      "ھاڻي": 5341,
      "عنوان": 5342,
      "مکي": 5343,
      "الز": 5344,
      "تبادل": 5345,
      "گذاري": 5346,
      "بحال": 5347,
      "سڄو": 5348,
      "tion": 5349,
      "ڊيزائ": 5350,
      "آبا": 5351,
      "بع": 5352,
      "طان": 5353,
      "ميز": 5354,
      "خريدا": 5355,
      "وسيقي": 5356,
      "كتب": 5357,
      "وپ": 5358,
      "##ليت": 5359,
      "برد": 5360,
      "24": 5361,
      "ـر": 5362,
      "فائي": 5363,
      "يرا": 5364,
      "عليها": 5365,
      "جائزو": 5366,
      "ڪاليج": 5367,
      "آبادي": 5368,
      "تار": 5369,
      "جاڳ": 5370,
      "طريقن": 5371,
      "ڪميون": 5372,
      "ملازم": 5373,
      "ll": 5374,
      "وئ": 5375,
      "##رب": 5376,
      "الف": 5377,
      "واسط": 5378,
      "پئسا": 5379,
      "خخخ": 5380,
      "جام": 5381,
      "يورو": 5382,
      "con": 5383,
      "الص": 5384,
      "ارڻ": 5385,
      "حيران": 5386,
      "سفارش": 5387,
      "اڙي": 5388,
      "تني": 5389,
      "##بيت": 5390,
      "نوان": 5391,
      "ٽيلي": 5392,
      "شمار": 5393,
      "سمور": 5394,
      "شوي": 5395,
      "فوري": 5396,
      "فوٽو": 5397,
      "سخ": 5398,
      "ڏانھن": 5399,
      "تهي": 5400,
      "زير": 5401,
      "نما": 5402,
      "##ٻي": 5403,
      "دورو": 5404,
      "زخمي": 5405,
      "انعام": 5406,
      "سوچي": 5407,
      "اتفاق": 5408,
      "جنرل": 5409,
      "جيترو": 5410,
      "بونس": 5411,
      "مدا": 5412,
      "لاس": 5413,
      "ائيڪل": 5414,
      "ag": 5415,
      "دون": 5416,
      "ٻُ": 5417,
      "پول": 5418,
      "ابي": 5419,
      "بلو": 5420,
      "تض": 5421,
      "ڪرائڻ": 5422,
      "ميوز": 5423,
      "fa": 5424,
      "ايان": 5425,
      "شهيد": 5426,
      "جمل": 5427,
      "يٽنگ": 5428,
      "حبيب": 5429,
      "لله": 5430,
      "پيرو": 5431,
      "ڪلاس": 5432,
      "اِه": 5433,
      "ترجمو": 5434,
      "مشتمل": 5435,
      "فرد": 5436,
      "ليا": 5437,
      "ويهي": 5438,
      "نيست": 5439,
      "يها": 5440,
      "انڪار": 5441,
      "ارسال": 5442,
      "چوندا": 5443,
      "قيام": 5444,
      "اليسي": 5445,
      "ئٽ": 5446,
      "امڪان": 5447,
      "جنيئر": 5448,
      "po": 5449,
      "مک": 5450,
      "##ضر": 5451,
      "واي": 5452,
      "پرست": 5453,
      "لعب": 5454,
      "فلسف": 5455,
      "ab": 5456,
      "حاج": 5457,
      "ئس": 5458,
      "تعا": 5459,
      "ڏيئي": 5460,
      "مشك": 5461,
      "تنھن": 5462,
      "چارج": 5463,
      "۔۔۔": 5464,
      "##lo": 5465,
      "روشن": 5466,
      "خاطر": 5467,
      "ce": 5468,
      "gh": 5469,
      "وائن": 5470,
      "ڪانه": 5471,
      "وني": 5472,
      "رکندڙ": 5473,
      "ٻڌو": 5474,
      "ڀيرا": 5475,
      "17": 5476,
      "انك": 5477,
      "ٽيبل": 5478,
      "يڊيا": 5479,
      "وطن": 5480,
      "چئ": 5481,
      "ڪِ": 5482,
      "هنگ": 5483,
      "اره": 5484,
      "آرڊر": 5485,
      "آگسٽ": 5486,
      "هينئر": 5487,
      "آفيسر": 5488,
      "ثاني": 5489,
      "رما": 5490,
      "ستي": 5491,
      "ٿر": 5492,
      "##رڪ": 5493,
      "سوچڻ": 5494,
      "مزد": 5495,
      "ئيگي": 5496,
      "تربيت": 5497,
      "يونٽ": 5498,
      "سلامت": 5499,
      "آڻ": 5500,
      "##بات": 5501,
      "قيم": 5502,
      "راءِ": 5503,
      "هچائڻ": 5504,
      "اضافو": 5505,
      "fi": 5506,
      "کڻڻ": 5507,
      "دائين": 5508,
      "##ion": 5509,
      "ساٿ": 5510,
      "وف": 5511,
      "ٽيون": 5512,
      "واقف": 5513,
      "ووو": 5514,
      "ملڪيت": 5515,
      "وزيشن": 5516,
      "هير": 5517,
      "امين": 5518,
      "ation": 5519,
      "كلام": 5520,
      "وائي": 5521,
      "ڀلا": 5522,
      "کل": 5523,
      "امر": 5524,
      "ايشيا": 5525,
      "كيف": 5526,
      "الت": 5527,
      "جاء": 5528,
      "لنگ": 5529,
      "سمجهڻ": 5530,
      "سڃاڻپ": 5531,
      "ونڊوز": 5532,
      "لون": 5533,
      "مور": 5534,
      "ڀريل": 5535,
      "##تل": 5536,
      "اڇ": 5537,
      "اما": 5538,
      "فرض": 5539,
      "دليل": 5540,
      "قال": 5541,
      "جنس": 5542,
      "صفحا": 5543,
      "وصول": 5544,
      "ex": 5545,
      "فتح": 5546,
      "رر": 5547,
      "رئي": 5548,
      "يخ": 5549,
      "آسٽر": 5550,
      "حمايت": 5551,
      "tt": 5552,
      "حاد": 5553,
      "پُ": 5554,
      "يمكن": 5555,
      "رهندا": 5556,
      "رحم": 5557,
      "يٺل": 5558,
      "ion": 5559,
      "ويچ": 5560,
      "سبق": 5561,
      "اخت": 5562,
      "بئي": 5563,
      "وهي": 5564,
      "ائن": 5565,
      "رابطي": 5566,
      "دريا": 5567,
      "ect": 5568,
      "پَ": 5569,
      "ساٿي": 5570,
      "عهد": 5571,
      "رائيڊ": 5572,
      "سيڙپڪ": 5573,
      "مڇي": 5574,
      "اداري": 5575,
      "زنده": 5576,
      "رائيو": 5577,
      "يرو": 5578,
      "روئ": 5579,
      "سگھجي": 5580,
      "شده": 5581,
      "نكت": 5582,
      "مسئلا": 5583,
      "رام": 5584,
      "##يءَ": 5585,
      "جنوري": 5586,
      "ترڪي": 5587,
      "ph": 5588,
      "عندي": 5589,
      "وسيل": 5590,
      "گزارش": 5591,
      "هلا": 5592,
      "##ڳي": 5593,
      "يورٽي": 5594,
      "وڪليو": 5595,
      "هوائي": 5596,
      "ورها": 5597,
      "##ڊيٽ": 5598,
      "sm": 5599,
      "##خر": 5600,
      "##ce": 5601,
      "##us": 5602,
      "احمد": 5603,
      "سـ": 5604,
      "نومبر": 5605,
      "رآمد": 5606,
      "تنھنج": 5607,
      "موقعي": 5608,
      "رسيد": 5609,
      "تجويز": 5610,
      "ھوند": 5611,
      "مکيه": 5612,
      "تـ": 5613,
      "الو": 5614,
      "تعرف": 5615,
      "هليو": 5616,
      "ممم": 5617,
      "ائلون": 5618,
      "تاج": 5619,
      "وڊ": 5620,
      "ماضي": 5621,
      "حالا": 5622,
      "لسٽ": 5623,
      "هائو": 5624,
      "اپڊيٽ": 5625,
      "pre": 5626,
      "نز": 5627,
      "##ليف": 5628,
      "آھ": 5629,
      "خون": 5630,
      "ريو": 5631,
      "هوش": 5632,
      "شتهار": 5633,
      "19": 5634,
      "پوک": 5635,
      "ريان": 5636,
      "ٻڌل": 5637,
      "هلائڻ": 5638,
      "اگه": 5639,
      "جهان": 5640,
      "نان": 5641,
      "گھڻو": 5642,
      "حادث": 5643,
      "go": 5644,
      "ريد": 5645,
      "ليگ": 5646,
      "مردن": 5647,
      "باد": 5648,
      "جلس": 5649,
      "رهيون": 5650,
      "رسول": 5651,
      "اڻو": 5652,
      "طلاق": 5653,
      "ولڊ": 5654,
      "سازي": 5655,
      "day": 5656,
      "لنڊن": 5657,
      "أنا": 5658,
      "ربي": 5659,
      "ٻول": 5660,
      "لـ": 5661,
      "ناول": 5662,
      "ريح": 5663,
      "وارڊ": 5664,
      "سنڏ": 5665,
      "هٿن": 5666,
      "نبي": 5667,
      "##يوب": 5668,
      "پيٽ": 5669,
      "هئس": 5670,
      "اٺ": 5671,
      "بک": 5672,
      "تين": 5673,
      "دد": 5674,
      "##صاد": 5675,
      "هوء": 5676,
      "شاه": 5677,
      "قوت": 5678,
      "بڪ": 5679,
      "مبار": 5680,
      "##بن": 5681,
      "ينج": 5682,
      "الزام": 5683,
      "كه": 5684,
      "مجب": 5685,
      "ٻيون": 5686,
      "قتصاد": 5687,
      "لانچ": 5688,
      "ناهن": 5689,
      "مجبور": 5690,
      "آي": 5691,
      "ڇوڪر": 5692,
      "دهشت": 5693,
      "اسرائ": 5694,
      "كثر": 5695,
      "دوز": 5696,
      "هيٺين": 5697,
      "ڊزائن": 5698,
      "پرين": 5699,
      "ليڪٽر": 5700,
      "حاضر": 5701,
      "ساري": 5702,
      "اولا": 5703,
      "عربي": 5704,
      "بتد": 5705,
      "ڀاءُ": 5706,
      "ڪميشن": 5707,
      "ڪانهي": 5708,
      "يهم": 5709,
      "##ڙن": 5710,
      "زارين": 5711,
      "آپريٽ": 5712,
      "کوٽ": 5713,
      "سرور": 5714,
      "سينٽر": 5715,
      "پارڪ": 5716,
      "اوڀر": 5717,
      "##نات": 5718,
      "تازو": 5719,
      "بط": 5720,
      "وائنٽ": 5721,
      "شتي": 5722,
      "پناه": 5723,
      "##زور": 5724,
      "نيم": 5725,
      "ينا": 5726,
      "بگ": 5727,
      "بہ": 5728,
      "شب": 5729,
      "الا": 5730,
      "ارد": 5731,
      "سيد": 5732,
      "ينس": 5733,
      "ردو": 5734,
      "ڀڳ": 5735,
      "الحال": 5736,
      "قابلو": 5737,
      "عنى": 5738,
      "وفات": 5739,
      "لف": 5740,
      "يائ": 5741,
      "ذريع": 5742,
      "آيل": 5743,
      "##si": 5744,
      "ويجه": 5745,
      "ضحكت": 5746,
      "نگران": 5747,
      "افي": 5748,
      "قل": 5749,
      "مهور": 5750,
      "انڪ": 5751,
      "سکڻ": 5752,
      "ليو": 5753,
      "وِ": 5754,
      "اسم": 5755,
      "الع": 5756,
      "ڪمزور": 5757,
      "دمت": 5758,
      "بنائ": 5759,
      "قطع": 5760,
      "راڊڪٽ": 5761,
      "##گڏ": 5762,
      "##ريم": 5763,
      "انورن": 5764,
      "ينه": 5765,
      "نظم": 5766,
      "سمجهه": 5767,
      "تعاون": 5768,
      "ڊسم": 5769,
      "ميگ": 5770,
      "ڪارو": 5771,
      "ct": 5772,
      "رش": 5773,
      "رکن": 5774,
      "ڪرايو": 5775,
      "ويٺو": 5776,
      "منس": 5777,
      "ستر": 5778,
      "واقعا": 5779,
      "شهرن": 5780,
      "سائيز": 5781,
      "اتحاد": 5782,
      "يمبرن": 5783,
      "بم": 5784,
      "يح": 5785,
      "ورد": 5786,
      "وفاقي": 5787,
      "ڊسمبر": 5788,
      "ri": 5789,
      "زاح": 5790,
      "##ve": 5791,
      "پٺيان": 5792,
      "حج": 5793,
      "رُ": 5794,
      "رون": 5795,
      "وهين": 5796,
      "ميدو": 5797,
      "ٻارڙ": 5798,
      "نتيجو": 5799,
      "ڏکيو": 5800,
      "گڏوگڏ": 5801,
      "نسان": 5802,
      "يڏو": 5803,
      "ڪانگ": 5804,
      "##ٻئي": 5805,
      "هندو": 5806,
      "زاحمت": 5807,
      "صير": 5808,
      "##وف": 5809,
      "باهه": 5810,
      "پيروي": 5811,
      "ئنات": 5812,
      "كون": 5813,
      "ينٽ": 5814,
      "وٺو": 5815,
      "نتظر": 5816,
      "حنا": 5817,
      "هد": 5818,
      "وائس": 5819,
      "بقى": 5820,
      "ٻانه": 5821,
      "ويڙه": 5822,
      "محل": 5823,
      "نگار": 5824,
      "گرام": 5825,
      "تجربي": 5826,
      "موقع": 5827,
      "بعض": 5828,
      "بيڪ": 5829,
      "مريض": 5830,
      "اُهي": 5831,
      "دارن": 5832,
      "اقول": 5833,
      ",,": 5834,
      "هندي": 5835,
      "يلو": 5836,
      "شرڪت": 5837,
      "نصوبي": 5838,
      "بنت": 5839,
      "چڙ": 5840,
      "##گا": 5841,
      "اهرين": 5842,
      "درس": 5843,
      "ريڪٽر": 5844,
      "مِ": 5845,
      "برائ": 5846,
      "وزارت": 5847,
      "بتدائ": 5848,
      "ter": 5849,
      "شير": 5850,
      "ويد": 5851,
      "بردار": 5852,
      "اپريل": 5853,
      "تڪليف": 5854,
      "تسليم": 5855,
      "علامت": 5856,
      "پئجي": 5857,
      "وندا": 5858,
      "يشه": 5859,
      "ڪاس": 5860,
      "مشور": 5861,
      "ڪجھه": 5862,
      "60": 5863,
      "قري": 5864,
      "هاءِ": 5865,
      "پارٽ": 5866,
      "نالا": 5867,
      "دشا": 5868,
      "آڻي": 5869,
      "تت": 5870,
      "رڏي": 5871,
      "##پل": 5872,
      "ڪلهه": 5873,
      "رڏيهي": 5874,
      "wa": 5875,
      "مدير": 5876,
      "ڪٿ": 5877,
      "لات": 5878,
      "احد": 5879,
      "اٿم": 5880,
      "جذبات": 5881,
      "مؤ": 5882,
      "وير": 5883,
      "تقول": 5884,
      "مزو": 5885,
      "ظا": 5886,
      "واهه": 5887,
      "ڏسندا": 5888,
      "سلسلو": 5889,
      "افت": 5890,
      "وڌو": 5891,
      "ڇڏيا": 5892,
      "يره": 5893,
      "قيمتي": 5894,
      "sc": 5895,
      "عقيد": 5896,
      "چائي": 5897,
      "توڙي": 5898,
      "مينهن": 5899,
      "اقتور": 5900,
      "سِ": 5901,
      "صرا": 5902,
      "کائي": 5903,
      "نگاه": 5904,
      "داڪار": 5905,
      "عاملي": 5906,
      "نڊي": 5907,
      "اڳوڻي": 5908,
      "آھيان": 5909,
      "ٽنگ": 5910,
      "ورونا": 5911,
      "##ناس": 5912,
      "بوٽ": 5913,
      "شراب": 5914,
      "ويچار": 5915,
      "نڪت": 5916,
      "روڪي": 5917,
      "ــي": 5918,
      "بچائڻ": 5919,
      "کاتي": 5920,
      "لطف": 5921,
      "bo": 5922,
      "##پان": 5923,
      "خواهي": 5924,
      "ميڪ": 5925,
      "##ئا": 5926,
      "جرمني": 5927,
      "ردي": 5928,
      "پکي": 5929,
      "باس": 5930,
      "اطم": 5931,
      "جما": 5932,
      "صار": 5933,
      "کار": 5934,
      "هنا": 5935,
      "هيس": 5936,
      "پريس": 5937,
      "اسٽيٽ": 5938,
      "ڄم": 5939,
      "ينو": 5940,
      "امداد": 5941,
      "يقول": 5942,
      "خدمتن": 5943,
      "صط": 5944,
      "نھ": 5945,
      "گهرجن": 5946,
      "اڻن": 5947,
      "ردن": 5948,
      "تازه": 5949,
      "نفرنس": 5950,
      "ترا": 5951,
      "سؤ": 5952,
      "ڊسٽ": 5953,
      "ووٽ": 5954,
      "ڊوڙ": 5955,
      "ڳوله": 5956,
      "گفتگو": 5957,
      "رنس": 5958,
      "اوچ": 5959,
      "برر": 5960,
      "ودڪار": 5961,
      "نَ": 5962,
      "##شم": 5963,
      "ياري": 5964,
      "##لاع": 5965,
      "ڪاپي": 5966,
      "چوٿ": 5967,
      "جانور": 5968,
      "فعل": 5969,
      "هذه": 5970,
      "وڄ": 5971,
      "ٽرو": 5972,
      "ڪوٽ": 5973,
      "اوي": 5974,
      "مثبت": 5975,
      "el": 5976,
      "واني": 5977,
      "لازم": 5978,
      "فته": 5979,
      "روايت": 5980,
      "زار": 5981,
      "قلم": 5982,
      "لهه": 5983,
      "وڪيپ": 5984,
      "اعترا": 5985,
      "تهيه": 5986,
      "هــ": 5987,
      "هٿي": 5988,
      "##رات": 5989,
      "جج": 5990,
      "شيئر": 5991,
      "سته": 5992,
      "ers": 5993,
      "حقن": 5994,
      "نصوبو": 5995,
      "آمدني": 5996,
      "ميدوا": 5997,
      "برو": 5998,
      "بروري": 5999,
      "منع": 6000,
      "ڪوئي": 6001,
      "اطلاع": 6002,
      "ورلڊ": 6003,
      "وجهي": 6004,
      "فٽبال": 6005,
      "22": 6006,
      "am": 6007,
      "آئين": 6008,
      "ڪچ": 6009,
      "ڪارپو": 6010,
      "بول": 6011,
      "ماء": 6012,
      "چمڪ": 6013,
      "ڙو": 6014,
      "جيڪٽ": 6015,
      "ساهه": 6016,
      "شكله": 6017,
      "نفرت": 6018,
      "فخر": 6019,
      "ڪيلي": 6020,
      "مهل": 6021,
      "يائون": 6022,
      "21": 6023,
      "do": 6024,
      "دمتون": 6025,
      "ڊسٽري": 6026,
      "وڻي": 6027,
      "ڀڄ": 6028,
      "انٽ": 6029,
      "بيس": 6030,
      "ارب": 6031,
      "sta": 6032,
      "وڪيل": 6033,
      "بلوچ": 6034,
      "دشاهه": 6035,
      "of": 6036,
      "لها": 6037,
      "ڀڃ": 6038,
      "ولهه": 6039,
      "اءَ": 6040,
      "لڊ": 6041,
      "ڀل": 6042,
      "ھا": 6043,
      "نرم": 6044,
      "xn": 6045,
      "سائ": 6046,
      "ـت": 6047,
      "مصر": 6048,
      "ڏٺ": 6049,
      "کٽ": 6050,
      "هلندڙ": 6051,
      "ليڪشن": 6052,
      "ڊرائ": 6053,
      "درجه": 6054,
      "دعوت": 6055,
      "##umx": 6056,
      "ديگر": 6057,
      "آءُ": 6058,
      "سڌي": 6059,
      "ضمان": 6060,
      "يڪر": 6061,
      "##بوب": 6062,
      "والد": 6063,
      "رچ": 6064,
      "ضلع": 6065,
      "قلت": 6066,
      "يءُ": 6067,
      "ٺاھ": 6068,
      "گُ": 6069,
      "رداشت": 6070,
      "صطلاح": 6071,
      "رارت": 6072,
      "فاد": 6073,
      "هانگ": 6074,
      "##انيه": 6075,
      "يكون": 6076,
      "فائيل": 6077,
      "اولاد": 6078,
      "حاف": 6079,
      "##راق": 6080,
      "گهڻن": 6081,
      "مسيح": 6082,
      "وتي": 6083,
      "گهه": 6084,
      "ماڻھن": 6085,
      "دوستي": 6086,
      "رضا": 6087,
      "ld": 6088,
      "men": 6089,
      "رٿ": 6090,
      "چيست": 6091,
      "بازي": 6092,
      "ٽرويو": 6093,
      "oo": 6094,
      "سٽر": 6095,
      "يکي": 6096,
      "يچر": 6097,
      "ينسر": 6098,
      "يونين": 6099,
      "متن": 6100,
      "گهٽائ": 6101,
      "پئس": 6102,
      "واڌار": 6103,
      "ضمانت": 6104,
      "گز": 6105,
      "منجه": 6106,
      "##فرد": 6107,
      "بلند": 6108,
      "ڳوڙه": 6109,
      "هفته": 6110,
      "تھ": 6111,
      "عطي": 6112,
      "وصل": 6113,
      "هڪٻئي": 6114,
      "بيٽري": 6115,
      "َر": 6116,
      "##it": 6117,
      "منفرد": 6118,
      "اوت": 6119,
      "يادت": 6120,
      "اٿس": 6121,
      "غم": 6122,
      "پهتو": 6123,
      "بحالي": 6124,
      "du": 6125,
      "اؤ": 6126,
      "ولين": 6127,
      "حڪمرا": 6128,
      "يزبان": 6129,
      "xnumx": 6130,
      "et": 6131,
      "سري": 6132,
      "شور": 6133,
      "ڊڄ": 6134,
      "بڻايو": 6135,
      "گروه": 6136,
      "پهچڻ": 6137,
      "دهشتگ": 6138,
      "##ھين": 6139,
      "نمائش": 6140,
      "غلام": 6141,
      "لآ": 6142,
      "انف": 6143,
      "ڏيار": 6144,
      "چيه": 6145,
      "بدلي": 6146,
      "ننڍڙ": 6147,
      "رهو": 6148,
      "هڻي": 6149,
      "ُون": 6150,
      "##وار": 6151,
      "ٻيڙي": 6152,
      "ڄاڻا": 6153,
      "چرچ": 6154,
      "ve": 6155,
      "ٽئين": 6156,
      "ڳڻ": 6157,
      "سوار": 6158,
      "متح": 6159,
      "رع": 6160,
      "طانيه": 6161,
      "پڌر": 6162,
      "جوان": 6163,
      "ـــا": 6164,
      "عاملو": 6165,
      "نتخ": 6166,
      "خاتم": 6167,
      "دام": 6168,
      "پاور": 6169,
      "مسجد": 6170,
      "تحليل": 6171,
      "دارو": 6172,
      "مزح": 6173,
      "اڻيءَ": 6174,
      "مرڪزي": 6175,
      "عرفت": 6176,
      "ائونڊ": 6177,
      "راهيم": 6178,
      "حافظ": 6179,
      "ke": 6180,
      "مافي": 6181,
      "صفحي": 6182,
      "دك": 6183,
      "واب": 6184,
      "ڪـ": 6185,
      "##ڊا": 6186,
      "افسوس": 6187,
      "يئي": 6188,
      "عليكم": 6189,
      "حلوة": 6190,
      "کپي": 6191,
      "گاهي": 6192,
      "##جڪ": 6193,
      "انسٽ": 6194,
      "نگين": 6195,
      "نوع": 6196,
      "نتخاب": 6197,
      "نى": 6198,
      "##di": 6199,
      "هيك": 6200,
      "طبيع": 6201,
      "yo": 6202,
      "طول": 6203,
      "لكن": 6204,
      "پرائ": 6205,
      "ندازو": 6206,
      "وايتي": 6207,
      "sin": 6208,
      "مف": 6209,
      "ناق": 6210,
      "اوھين": 6211,
      "ائيڊ": 6212,
      "خيالن": 6213,
      "کاڌي": 6214,
      "عاهدي": 6215,
      "مبارڪ": 6216,
      "wi": 6217,
      "مبر": 6218,
      "ناز": 6219,
      "گهڙي": 6220,
      "اكيد": 6221,
      "ft": 6222,
      "ھڙي": 6223,
      "تياري": 6224,
      "##ليا": 6225,
      "##ياد": 6226,
      "نهار": 6227,
      "پيئڻ": 6228,
      "مرمت": 6229,
      "lin": 6230,
      "پرت": 6231,
      "محبوب": 6232,
      "مدت": 6233,
      "ذريعو": 6234,
      "نتيجا": 6235,
      "جوڙجڪ": 6236,
      "روڪ": 6237,
      "روڪڻ": 6238,
      "وڌائي": 6239,
      "ڇڏڻ": 6240,
      "وقتي": 6241,
      "معاشي": 6242,
      "pla": 6243,
      "وک": 6244,
      "##روف": 6245,
      "روزي": 6246,
      "ارك": 6247,
      "برقي": 6248,
      "صنع": 6249,
      "يافته": 6250,
      "بردست": 6251,
      "سادي": 6252,
      "رجحان": 6253,
      "اڳيون": 6254,
      "تڪر": 6255,
      "عشان": 6256,
      "كلم": 6257,
      "پيچي": 6258,
      "وحاني": 6259,
      "ـآ": 6260,
      "ودي": 6261,
      "جيئر": 6262,
      "پيئي": 6263,
      "خلص": 6264,
      "ga": 6265,
      "كـ": 6266,
      "پپ": 6267,
      "اهڙن": 6268,
      "داخ": 6269,
      "رھيو": 6270,
      "ريلوي": 6271,
      "ڏيان": 6272,
      "شيخ": 6273,
      "کاڌو": 6274,
      "لائيٽ": 6275,
      "ـي": 6276,
      "##شا": 6277,
      "لاسٽ": 6278,
      "الس": 6279,
      "اپل": 6280,
      "فائدي": 6281,
      "ڪپڙا": 6282,
      "پيچيد": 6283,
      "شھر": 6284,
      "عراق": 6285,
      "##يوس": 6286,
      "جادو": 6287,
      "دوري": 6288,
      "ائيٽن": 6289,
      "تڪرار": 6290,
      "اغ": 6291,
      "موڙ": 6292,
      "گھڻي": 6293,
      "تري": 6294,
      "فين": 6295,
      "كتي": 6296,
      "ونه": 6297,
      "ميم": 6298,
      "ارٽ": 6299,
      "طرز": 6300,
      "ڙهندڙ": 6301,
      "80": 6302,
      "جب": 6303,
      "##ذير": 6304,
      "وڃائي": 6305,
      "سرڪار": 6306,
      "per": 6307,
      "##كس": 6308,
      "گهرن": 6309,
      "سيڪنڊ": 6310,
      "نجم": 6311,
      "وڊيوز": 6312,
      "گاهه": 6313,
      "ارين": 6314,
      "چرا": 6315,
      "هنج": 6316,
      "يڪنگ": 6317,
      "##طيف": 6318,
      "آھيو": 6319,
      "ربت": 6320,
      "شفا": 6321,
      "ٽڪ": 6322,
      "مسلم": 6323,
      "ڳاڙه": 6324,
      "ٽائ": 6325,
      "کير": 6326,
      "جنب": 6327,
      "يمپ": 6328,
      "اڻا": 6329,
      "سگھون": 6330,
      "واقعن": 6331,
      "هارڊ": 6332,
      "لائق": 6333,
      "لام": 6334,
      "ياه": 6335,
      "ريج": 6336,
      "##بوت": 6337,
      "سپر": 6338,
      "عندك": 6339,
      "جُ": 6340,
      "چان": 6341,
      "سينٽ": 6342,
      "هلڻ": 6343,
      "ولاءِ": 6344,
      "پرواز": 6345,
      "يارو": 6346,
      "رساله": 6347,
      "داخلا": 6348,
      "dh": 6349,
      "il": 6350,
      "دولت": 6351,
      "لطيف": 6352,
      "وڃان": 6353,
      "وليءَ": 6354,
      "طين": 6355,
      "ٽان": 6356,
      "يڪٽ": 6357,
      "نجھ": 6358,
      "جبل": 6359,
      "يهه": 6360,
      "کلي": 6361,
      "موڪ": 6362,
      "تعجب": 6363,
      "ٻيٽ": 6364,
      "ڪهڙا": 6365,
      "جهڙا": 6366,
      "سونهن": 6367,
      "آآآ": 6368,
      "ٻُڌ": 6369,
      "اٻي": 6370,
      "ُر": 6371,
      "پٽي": 6372,
      "##ڌار": 6373,
      "ميشه": 6374,
      "تعليق": 6375,
      "سنوار": 6376,
      "نصيب": 6377,
      "شتر": 6378,
      "تها": 6379,
      "موڊ": 6380,
      "فائر": 6381,
      "يليا": 6382,
      "تابع": 6383,
      "ُنهن": 6384,
      "انح": 6385,
      "نيد": 6386,
      "گهرج": 6387,
      "مصروف": 6388,
      "سکيا": 6389,
      "رهائش": 6390,
      "قبر": 6391,
      "نفي": 6392,
      "هائ": 6393,
      "هرو": 6394,
      "پبل": 6395,
      "مول": 6396,
      "سارا": 6397,
      "هائوس": 6398,
      "##wa": 6399,
      "هوم": 6400,
      "##هرا": 6401,
      "پنڌ": 6402,
      "صراح": 6403,
      "چا": 6404,
      "ڪڻ": 6405,
      "ليب": 6406,
      "مٿين": 6407,
      "نڪتو": 6408,
      "اوچتو": 6409,
      "##پور": 6410,
      "##مار": 6411,
      "ڏيندڙ": 6412,
      "نيٺ": 6413,
      "ئونسل": 6414,
      "نعم": 6415,
      "اء": 6416,
      "حدي": 6417,
      "مآ": 6418,
      "ويڪ": 6419,
      "ھئا": 6420,
      "انڊيا": 6421,
      "ائم": 6422,
      "نقط": 6423,
      "ديس": 6424,
      "رياضي": 6425,
      "مقصدن": 6426,
      "کوليو": 6427,
      "فريڪا": 6428,
      "بدلائ": 6429,
      "tu": 6430,
      "خاني": 6431,
      "فاصل": 6432,
      "هيل": 6433,
      "يوان": 6434,
      "انگيز": 6435,
      "هَ": 6436,
      "انجڻ": 6437,
      "رکيل": 6438,
      "عاش": 6439,
      "يزر": 6440,
      "ااااي": 6441,
      "وفيسر": 6442,
      "موڪلي": 6443,
      "اٿي": 6444,
      "وڙه": 6445,
      "ڀائر": 6446,
      "ڪرين": 6447,
      "لکند": 6448,
      "شعبي": 6449,
      "آڻيند": 6450,
      "انسٽا": 6451,
      "جــ": 6452,
      "##de": 6453,
      "روائي": 6454,
      "منح": 6455,
      "وزاني": 6456,
      "ندگي": 6457,
      "اکر": 6458,
      "هڙيون": 6459,
      "لاسٽڪ": 6460,
      "تنگ": 6461,
      "ڦير": 6462,
      "##دد": 6463,
      "گهرا": 6464,
      "چيف": 6465,
      "ڇڪ": 6466,
      "انڌ": 6467,
      "ويت": 6468,
      "##ميم": 6469,
      "ڊيم": 6470,
      "منٽن": 6471,
      "فورم": 6472,
      "cr": 6473,
      "آندو": 6474,
      "ئب": 6475,
      "خب": 6476,
      "لٽي": 6477,
      "گهري": 6478,
      "ترجي": 6479,
      "اياز": 6480,
      "پالڻ": 6481,
      "ظلم": 6482,
      "بيٺو": 6483,
      "استح": 6484,
      "يتن": 6485,
      "##سات": 6486,
      "حسب": 6487,
      "بررسي": 6488,
      "he": 6489,
      "بٽڻ": 6490,
      "زون": 6491,
      "ڊسپ": 6492,
      "ڻيو": 6493,
      "هاڙ": 6494,
      "اڻان": 6495,
      "ايڪسپ": 6496,
      "آهستي": 6497,
      "ڪميٽي": 6498,
      "حصيدا": 6499,
      "gra": 6500,
      "##بول": 6501,
      "ميچ": 6502,
      "نگي": 6503,
      "پنجن": 6504,
      "شنگ": 6505,
      "لڪا": 6506,
      "##se": 6507,
      "ملندي": 6508,
      "سادو": 6509,
      "اُهو": 6510,
      "بازار": 6511,
      "جھڙ": 6512,
      "هڙيءَ": 6513,
      "لئه": 6514,
      "هٿيار": 6515,
      "وسو": 6516,
      "يٿ": 6517,
      "پاسو": 6518,
      "سپورٽ": 6519,
      "ذهني": 6520,
      "حرڪت": 6521,
      "حملو": 6522,
      "##اتو": 6523,
      "##يوم": 6524,
      "ڪاغ": 6525,
      "فيشن": 6526,
      "رکندو": 6527,
      "خبرون": 6528,
      "طالب": 6529,
      "عباد": 6530,
      "کرد": 6531,
      "ميوزڪ": 6532,
      "آڇ": 6533,
      "رار": 6534,
      "شڪا": 6535,
      "عڪس": 6536,
      "ڪيان": 6537,
      "ضرب": 6538,
      "چينل": 6539,
      "ڀرسان": 6540,
      "لچ": 6541,
      "##مين": 6542,
      "ويزن": 6543,
      "جنٽ": 6544,
      "قاض": 6545,
      "one": 6546,
      "گول": 6547,
      "ھين": 6548,
      "ائڪ": 6549,
      "دفعي": 6550,
      "ياسين": 6551,
      "جوڳ": 6552,
      "يشيا": 6553,
      "عذاب": 6554,
      "جارتي": 6555,
      "صنعتي": 6556,
      "زمرو": 6557,
      "چوندو": 6558,
      "تقرير": 6559,
      "خطرو": 6560,
      "ترجيح": 6561,
      "نوي": 6562,
      "ڪاغذ": 6563,
      "رڙ": 6564,
      "ويٺي": 6565,
      "بيهي": 6566,
      "سڀاڻي": 6567,
      "ڊيل": 6568,
      "چيم": 6569,
      "اٿئي": 6570,
      "رئيس": 6571,
      "منحصر": 6572,
      "دگار": 6573,
      "دوم": 6574,
      "يلز": 6575,
      "نتق": 6576,
      "فنڪ": 6577,
      "ڳنڍيل": 6578,
      "پائي": 6579,
      "پتو": 6580,
      "لاهي": 6581,
      "منصو": 6582,
      "وڌڻ": 6583,
      "نظوري": 6584,
      "مطال": 6585,
      "متحد": 6586,
      "مائٽ": 6587,
      "فنڪشن": 6588,
      "منصوب": 6589,
      "ڻو": 6590,
      "##ريت": 6591,
      "سيم": 6592,
      "وارث": 6593,
      "ــا": 6594,
      "رکون": 6595,
      "عرض": 6596,
      "قدرت": 6597,
      "طالبو": 6598,
      "ڀيڻ": 6599,
      "رمايو": 6600,
      "گار": 6601,
      "هيم": 6602,
      "شيءَ": 6603,
      "مرڻ": 6604,
      "وزانو": 6605,
      "تُ": 6606,
      "حظ": 6607,
      "مٽي": 6608,
      "موثر": 6609,
      "ينٽي": 6610,
      "مادي": 6611,
      "سيکار": 6612,
      "جنن": 6613,
      "چوڌار": 6614,
      "خلاقي": 6615,
      "جرمن": 6616,
      "هفتن": 6617,
      "بشر": 6618,
      "شپ": 6619,
      "كف": 6620,
      "ماهي": 6621,
      "ريٽري": 6622,
      "بيمار": 6623,
      "لوب": 6624,
      "مقام": 6625,
      "tor": 6626,
      "ئج": 6627,
      "ذخ": 6628,
      "سس": 6629,
      "##ظا": 6630,
      "اندار": 6631,
      "اسي": 6632,
      "ڪرڻي": 6633,
      "##ٽيف": 6634,
      "عاملن": 6635,
      "بعدين": 6636,
      "لڙ": 6637,
      "لور": 6638,
      "نڀ": 6639,
      "ڪڙ": 6640,
      "##ثير": 6641,
      "ـــي": 6642,
      "شاپ": 6643,
      "لمح": 6644,
      "عادت": 6645,
      "رادري": 6646,
      "مظاهر": 6647,
      "ضع": 6648,
      "مٽ": 6649,
      "وئين": 6650,
      "##et": 6651,
      "وڌندڙ": 6652,
      "سيل": 6653,
      "سرٽيف": 6654,
      "اصلاح": 6655,
      "لازمن": 6656,
      "ڪلاڪن": 6657,
      "ٽوڙ": 6658,
      "جهه": 6659,
      "هآ": 6660,
      "ريون": 6661,
      "ڪاوڙ": 6662,
      "معيشت": 6663,
      "عاشق": 6664,
      "نسانن": 6665,
      "طئي": 6666,
      "پذير": 6667,
      "چئن": 6668,
      "ڪلام": 6669,
      "##em": 6670,
      "مشق": 6671,
      "نسبت": 6672,
      "تنقيد": 6673,
      "زياد": 6674,
      "##لوڊ": 6675,
      "قسمتي": 6676,
      "پيرن": 6677,
      "هذي": 6678,
      "وپن": 6679,
      "ڀائ": 6680,
      "الح": 6681,
      "##لاف": 6682,
      "ليز": 6683,
      "تشدد": 6684,
      "خارجي": 6685,
      "فضل": 6686,
      "ذريعن": 6687,
      "90": 6688,
      "رَ": 6689,
      "قيد": 6690,
      "وجودگ": 6691,
      "حوصل": 6692,
      "نامه": 6693,
      "صلى": 6694,
      "ونلوڊ": 6695,
      "##سيم": 6696,
      "ميه": 6697,
      "برسات": 6698,
      "وڪيو": 6699,
      "شهرين": 6700,
      "ارادو": 6701,
      "ناقاب": 6702,
      "bu": 6703,
      "دس": 6704,
      "ڇڙ": 6705,
      "علمي": 6706,
      "وٽو": 6707,
      "انتظا": 6708,
      "مضحك": 6709,
      "all": 6710,
      "رائع": 6711,
      "يييي": 6712,
      "ry": 6713,
      "لغ": 6714,
      "جيب": 6715,
      "يوه": 6716,
      "گنج": 6717,
      "عث": 6718,
      "مزا": 6719,
      "هدي": 6720,
      "##ؤر": 6721,
      "سمه": 6722,
      "##ناڪ": 6723,
      "اُھ": 6724,
      "ولد": 6725,
      "سوالن": 6726,
      "يارڪ": 6727,
      "ڀرپور": 6728,
      "نچ": 6729,
      "ڇل": 6730,
      "تحرير": 6731,
      "ڏسندي": 6732,
      "مڪاني": 6733,
      "نجها": 6734,
      "نصوبن": 6735,
      "طرناڪ": 6736,
      "جوش": 6737,
      "خوي": 6738,
      "فائدا": 6739,
      "سڃاتو": 6740,
      "اسٽيل": 6741,
      "ٻولين": 6742,
      "دائر": 6743,
      "پاني": 6744,
      "اُتي": 6745,
      "حلى": 6746,
      "جامع": 6747,
      "عبادت": 6748,
      "ذخير": 6749,
      "فيك": 6750,
      "مرضي": 6751,
      "باڪس": 6752,
      "ڪنڌ": 6753,
      "پڪڙ": 6754,
      "نصب": 6755,
      "نڪرڻ": 6756,
      "متحرڪ": 6757,
      "مقبول": 6758,
      "بندر": 6759,
      "ليڪس": 6760,
      "وآ": 6761,
      "ورهين": 6762,
      "ڏسند": 6763,
      "پڙھ": 6764,
      "ئيندي": 6765,
      "حيات": 6766,
      "##ميرا": 6767,
      "نهايت": 6768,
      "خوراڪ": 6769,
      "70": 6770,
      "ئميرا": 6771,
      "امل": 6772,
      "ٿڪ": 6773,
      "سانيت": 6774,
      "##ڪيل": 6775,
      "ڪاٺ": 6776,
      "آھيون": 6777,
      "ٽرڪ": 6778,
      "آرٽ": 6779,
      "مثالي": 6780,
      "مرحله": 6781,
      "بلڪه": 6782,
      "قريبا": 6783,
      "##کو": 6784,
      "ورج": 6785,
      "ليون": 6786,
      "ترميم": 6787,
      "وليون": 6788,
      "23": 6789,
      "ڏهه": 6790,
      "##wi": 6791,
      "مانس": 6792,
      "ماڳ": 6793,
      "ڪناري": 6794,
      "چمڙي": 6795,
      "اڏام": 6796,
      "عتبار": 6797,
      "ارائ": 6798,
      "کنيو": 6799,
      "زوج": 6800,
      "##طان": 6801,
      "ولپ": 6802,
      "بچائي": 6803,
      "اديب": 6804,
      "صبر": 6805,
      "هٽ": 6806,
      "هندڙ": 6807,
      "ڇر": 6808,
      "ڪڙي": 6809,
      "ئيشن": 6810,
      "ينءَ": 6811,
      "هلائي": 6812,
      "ابليت": 6813,
      "اخذ": 6814,
      "نتقلي": 6815,
      "iz": 6816,
      "ابت": 6817,
      "طوف": 6818,
      "هاري": 6819,
      "يڪا": 6820,
      "ڊيسڪ": 6821,
      "هتان": 6822,
      "بالغ": 6823,
      "عض": 6824,
      "وست": 6825,
      "وما": 6826,
      "ڏها": 6827,
      "ڪتا": 6828,
      "ٽرم": 6829,
      "شرم": 6830,
      "خطري": 6831,
      "دفعا": 6832,
      "خانو": 6833,
      "بزر": 6834,
      "مغرب": 6835,
      "ur": 6836,
      "بك": 6837,
      "موب": 6838,
      "ديش": 6839,
      "رھيا": 6840,
      "مستح": 6841,
      "ity": 6842,
      "28": 6843,
      "ڊيو": 6844,
      "وڌايو": 6845,
      "بيل": 6846,
      "##صوم": 6847,
      "حضور": 6848,
      "ڊگهو": 6849,
      "ساڻس": 6850,
      "سئو": 6851,
      "ووووو": 6852,
      "نھيءَ": 6853,
      "able": 6854,
      "حديث": 6855,
      "آم": 6856,
      "زيد": 6857,
      "كين": 6858,
      "اليوم": 6859,
      "ائتي": 6860,
      "نظارو": 6861,
      "يونان": 6862,
      "قبضو": 6863,
      "سهڻي": 6864,
      "new": 6865,
      "ــــي": 6866,
      "اٽڪل": 6867,
      "ماهرن": 6868,
      "طوفان": 6869,
      "tra": 6870,
      "جشن": 6871,
      "يتي": 6872,
      "ناھي": 6873,
      "بليو": 6874,
      "خيل": 6875,
      "رل": 6876,
      "گند": 6877,
      "بنات": 6878,
      "حصا": 6879,
      "جماعت": 6880,
      "^^": 6881,
      "عالي": 6882,
      "كثير": 6883,
      "ڄا": 6884,
      "معاف": 6885,
      "سگهيا": 6886,
      "فارسي": 6887,
      "ثبوت": 6888,
      "حتر": 6889,
      "دؤر": 6890,
      "شريڪ": 6891,
      "فزا": 6892,
      "الك": 6893,
      "ڪمن": 6894,
      "سرهند": 6895,
      "پکڙ": 6896,
      "ڪتي": 6897,
      "شاخ": 6898,
      "ٽائيم": 6899,
      "رڊ": 6900,
      "زائين": 6901,
      "لر": 6902,
      "هائي": 6903,
      "ڊڪٽ": 6904,
      "ڏوه": 6905,
      "اندا": 6906,
      "ريڊيو": 6907,
      "اتل": 6908,
      "تعال": 6909,
      "لڳل": 6910,
      "ستار": 6911,
      "يماني": 6912,
      "صنف": 6913,
      "sub": 6914,
      "سختي": 6915,
      "عاشري": 6916,
      "باني": 6917,
      "رأ": 6918,
      "لكم": 6919,
      "خوبي": 6920,
      "دارا": 6921,
      "اده": 6922,
      "اپيل": 6923,
      "يارا": 6924,
      "مزدور": 6925,
      "ملو": 6926,
      "وڪري": 6927,
      "کنڊ": 6928,
      "ڪث": 6929,
      "جوا": 6930,
      "وڌند": 6931,
      "معك": 6932,
      "معصوم": 6933,
      "ڏند": 6934,
      "حيدر": 6935,
      "ڊومين": 6936,
      "خارج": 6937,
      "age": 6938,
      "##وت": 6939,
      "##ma": 6940,
      "ائتو": 6941,
      "فيلڊ": 6942,
      "مريم": 6943,
      "فرادي": 6944,
      "يامبر": 6945,
      "اذ": 6946,
      "ذر": 6947,
      "رمي": 6948,
      "ڌم": 6949,
      "##ئس": 6950,
      "ڪيئي": 6951,
      "ويٺا": 6952,
      "ارليا": 6953,
      "همرا": 6954,
      "بلاڪ": 6955,
      "حترام": 6956,
      "جَ": 6957,
      "زل": 6958,
      "شغ": 6959,
      "پڙهند": 6960,
      "قربان": 6961,
      "بچڻ": 6962,
      "ڄڻا": 6963,
      "تباهه": 6964,
      "##پر": 6965,
      "نيجر": 6966,
      "ملندو": 6967,
      "جس": 6968,
      "رڪا": 6969,
      "قق": 6970,
      "لٿ": 6971,
      "پائڻ": 6972,
      "ڪيج": 6973,
      "همڻ": 6974,
      "ٿورڙ": 6975,
      "علامه": 6976,
      "قاعده": 6977,
      "سمي": 6978,
      "عــ": 6979,
      "آخرين": 6980,
      "نتيجن": 6981,
      "مجهند": 6982,
      "awa": 6983,
      "nk": 6984,
      "آڏو": 6985,
      "شفت": 6986,
      "ڊا": 6987,
      "ويٽ": 6988,
      "ائر": 6989,
      "ائش": 6990,
      "برن": 6991,
      "اختي": 6992,
      "جڳه": 6993,
      "رينج": 6994,
      ".\"": 6995,
      "خطي": 6996,
      "كس": 6997,
      "نح": 6998,
      "يكم": 6999,
      "جيٽ": 7000,
      "ارم": 7001,
      "ننڍڙي": 7002,
      "نامو": 7003,
      "ir": 7004,
      "ياني": 7005,
      "ڏهن": 7006,
      "ڏٺا": 7007,
      "ڪست": 7008,
      "ڪلب": 7009,
      "##ائب": 7010,
      "ماع": 7011,
      "گهرو": 7012,
      "آرڪ": 7013,
      "ختلاف": 7014,
      "التون": 7015,
      "27": 7016,
      "cu": 7017,
      "أخ": 7018,
      "اڀ": 7019,
      "بيا": 7020,
      "حالي": 7021,
      "ڙڪ": 7022,
      "##os": 7023,
      "اسٽر": 7024,
      "ورتا": 7025,
      "اسٽاڪ": 7026,
      "نڪرند": 7027,
      "حمد": 7028,
      "رندڙ": 7029,
      "سح": 7030,
      "يزا": 7031,
      "چايو": 7032,
      "ڻا": 7033,
      "بهار": 7034,
      "اسانج": 7035,
      "##فيد": 7036,
      "پريم": 7037,
      "ليڪن": 7038,
      "فاع": 7039,
      "ht": 7040,
      "اڪر": 7041,
      "بني": 7042,
      "رھي": 7043,
      "كك": 7044,
      "مئن": 7045,
      "یک": 7046,
      "توسان": 7047,
      "لڳائڻ": 7048,
      "اعرف": 7049,
      "پڙهو": 7050,
      "ڏاڏ": 7051,
      "اليه": 7052,
      "ڀريو": 7053,
      "ٺهرا": 7054,
      "ڊسڪ": 7055,
      "ڪريم": 7056,
      "ليج": 7057,
      "صحافي": 7058,
      "سياري": 7059,
      "صفائي": 7060,
      "ننڍو": 7061,
      "ڀاڱ": 7062,
      "ent": 7063,
      "تازي": 7064,
      "دانش": 7065,
      "تضحك": 7066,
      "ڏهاڪ": 7067,
      "26": 7068,
      "اڀر": 7069,
      "كمل": 7070,
      "منا": 7071,
      "منك": 7072,
      "سنه": 7073,
      "زمائش": 7074,
      "تقسيم": 7075,
      "صفحو": 7076,
      "der": 7077,
      "آڪس": 7078,
      "يبت": 7079,
      "انها": 7080,
      "ورزن": 7081,
      "سوس": 7082,
      "آزم": 7083,
      "پنجاب": 7084,
      "عزم": 7085,
      "بزرگ": 7086,
      "cl": 7087,
      "خلق": 7088,
      "زهر": 7089,
      "فى": 7090,
      "نند": 7091,
      "چانه": 7092,
      "مونڊي": 7093,
      "نگا": 7094,
      "سردار": 7095,
      "والو": 7096,
      "هينا": 7097,
      "روفائ": 7098,
      "by": 7099,
      "مايوس": 7100,
      "ورة": 7101,
      "نيل": 7102,
      "سرما": 7103,
      "مقال": 7104,
      "پهت": 7105,
      "واقعو": 7106,
      "منتد": 7107,
      "ومين": 7108,
      "ڪورس": 7109,
      "ددگار": 7110,
      "ياڻي": 7111,
      "##برا": 7112,
      "شيد": 7113,
      "وٽيوب": 7114,
      "عليك": 7115,
      "ٺاهيل": 7116,
      "ڪيميا": 7117,
      "يالله": 7118,
      "ment": 7119,
      "إن": 7120,
      "مڪي": 7121,
      "مفيد": 7122,
      "يڻو": 7123,
      "پلس": 7124,
      "ريگ": 7125,
      "ارٽر": 7126,
      "تبص": 7127,
      "cov": 7128,
      "تسلم": 7129,
      "شرطن": 7130,
      "فلٽر": 7131,
      "pi": 7132,
      "ver": 7133,
      "بدي": 7134,
      "حيد": 7135,
      "شل": 7136,
      "ٽا": 7137,
      "ڙيل": 7138,
      "وازن": 7139,
      "پيپل": 7140,
      "ليئر": 7141,
      "اھڙي": 7142,
      "ڊرام": 7143,
      "مستقل": 7144,
      "nn": 7145,
      "تلا": 7146,
      "حبت": 7147,
      "وول": 7148,
      "ِر": 7149,
      "هيت": 7150,
      "ريال": 7151,
      "ريئر": 7152,
      "گهٽتا": 7153,
      "ru": 7154,
      "تأ": 7155,
      "غائب": 7156,
      "كذا": 7157,
      "ڙه": 7158,
      "نوار": 7159,
      "عيش": 7160,
      "وهڪر": 7161,
      "يگرن": 7162,
      "شڪايت": 7163,
      "out": 7164,
      "بنگ": 7165,
      "مزي": 7166,
      "ڏڪ": 7167,
      "نيڻ": 7168,
      "عملن": 7169,
      "نقطي": 7170,
      "سپريم": 7171,
      "مٿا": 7172,
      "رهنما": 7173,
      "عيون": 7174,
      "تبصرو": 7175,
      "زيو": 7176,
      "شرف": 7177,
      "انوي": 7178,
      "ارض": 7179,
      "فيها": 7180,
      "دارت": 7181,
      "همراه": 7182,
      "خلي": 7183,
      "شنو": 7184,
      "الم": 7185,
      "چيئ": 7186,
      "##موع": 7187,
      "مارجي": 7188,
      "صري": 7189,
      "لما": 7190,
      "چڪر": 7191,
      "پيل": 7192,
      "پاڙي": 7193,
      "مجاز": 7194,
      "رهجي": 7195,
      "اثرات": 7196,
      "عج": 7197,
      "لٽ": 7198,
      "نهاري": 7199,
      "سومر": 7200,
      "سنئ": 7201,
      "يدائش": 7202,
      "هچائي": 7203,
      "اھر": 7204,
      "نيٽور": 7205,
      "حملي": 7206,
      "مشكور": 7207,
      "ght": 7208,
      "ڪثريت": 7209,
      "قـ": 7210,
      "ناب": 7211,
      "الناس": 7212,
      "ڪيڏ": 7213,
      "جنت": 7214,
      "سربرا": 7215,
      "جهل": 7216,
      "وچيند": 7217,
      "واسطو": 7218,
      "ديوا": 7219,
      "ظاه": 7220,
      "يڪو": 7221,
      "ٽون": 7222,
      "یس": 7223,
      "##مپ": 7224,
      "روانو": 7225,
      "ناصر": 7226,
      "همه": 7227,
      "فرمان": 7228,
      "پڙهيو": 7229,
      "قلع": 7230,
      "##co": 7231,
      "ڪرس": 7232,
      "يننگ": 7233,
      "مات": 7234,
      "ملن": 7235,
      "هئو": 7236,
      "چوان": 7237,
      "كمان": 7238,
      "مجموع": 7239,
      "man": 7240,
      "عادي": 7241,
      "سگھوٿ": 7242,
      "عاهدو": 7243,
      "رڪنن": 7244,
      "طانيا": 7245,
      "ظاهري": 7246,
      "up": 7247,
      "دهي": 7248,
      "هيز": 7249,
      "هيڊ": 7250,
      "مسٽر": 7251,
      "يهار": 7252,
      "يڊٽ": 7253,
      "وليد": 7254,
      "bet": 7255,
      "rd": 7256,
      "بقا": 7257,
      "فنا": 7258,
      "ننگ": 7259,
      "وع": 7260,
      "ونئن": 7261,
      "ريزن": 7262,
      "گڏج": 7263,
      "مليا": 7264,
      "طالعو": 7265,
      "خرابي": 7266,
      "ip": 7267,
      "mb": 7268,
      "rch": 7269,
      "ئل": 7270,
      "تَ": 7271,
      "طق": 7272,
      "لندڙ": 7273,
      "هود": 7274,
      "واچ": 7275,
      "سرچ": 7276,
      "راحت": 7277,
      "نڌن": 7278,
      "ڙهائي": 7279,
      "ٺه": 7280,
      "گورن": 7281,
      "لاگ": 7282,
      "پرنٽ": 7283,
      "لوا": 7284,
      "هيٺان": 7285,
      "صفحه": 7286,
      "؟؟؟": 7287,
      "xt": 7288,
      "جدو": 7289,
      "دائي": 7290,
      "رحد": 7291,
      "هج": 7292,
      "ڌڻي": 7293,
      "پيج": 7294,
      "سما": 7295,
      "يسائي": 7296,
      "رده": 7297,
      "وبائي": 7298,
      "link": 7299,
      "حران": 7300,
      "ڦر": 7301,
      "##mo": 7302,
      "لاڪ": 7303,
      "ساله": 7304,
      "لمهم": 7305,
      "رمين": 7306,
      "فني": 7307,
      "اتان": 7308,
      "رهبر": 7309,
      "ki": 7310,
      "od": 7311,
      "نير": 7312,
      "هلو": 7313,
      "پچ": 7314,
      "ڪارڻ": 7315,
      "مرض": 7316,
      "رنگي": 7317,
      "covid": 7318,
      "35": 7319,
      "ac": 7320,
      "ســ": 7321,
      "كده": 7322,
      "همت": 7323,
      "ٽاپ": 7324,
      "واه": 7325,
      "روزگا": 7326,
      "طالعي": 7327,
      "كره": 7328,
      "ائڪرو": 7329,
      "her": 7330,
      "ئف": 7331,
      "حين": 7332,
      "يين": 7333,
      "##سيل": 7334,
      "ٽيل": 7335,
      "رڪي": 7336,
      "كبر": 7337,
      "سکر": 7338,
      "جزا": 7339,
      "هان": 7340,
      "ڙهيل": 7341,
      "يڪٽر": 7342,
      "شعب": 7343,
      "قلبي": 7344,
      "if": 7345,
      "بقي": 7346,
      "ثار": 7347,
      "غذا": 7348,
      "وخ": 7349,
      "ُها": 7350,
      "چاھ": 7351,
      "کم": 7352,
      "ينر": 7353,
      "هاء": 7354,
      "ترم": 7355,
      "رشت": 7356,
      "يٽا": 7357,
      "ڊين": 7358,
      "الى": 7359,
      "پيئ": 7360,
      "سيار": 7361,
      "دلج": 7362,
      "فوٽ": 7363,
      "حش": 7364,
      "مود": 7365,
      "ٽيگ": 7366,
      "لڳائي": 7367,
      "احس": 7368,
      "هِن": 7369,
      "اڪو": 7370,
      "دُ": 7371,
      "لانا": 7372,
      "ڌڪ": 7373,
      "ڻند": 7374,
      "بهت": 7375,
      "ئيڊ": 7376,
      "رواج": 7377,
      "ــه": 7378,
      "يتري": 7379,
      "اھا": 7380,
      "يڪسين": 7381,
      "سلط": 7382,
      "يچ": 7383,
      "ماسڪ": 7384,
      "يتا": 7385,
      "سمجهو": 7386,
      "لطا": 7387,
      "موبائ": 7388,
      "ٽري": 7389,
      "ڌو": 7390,
      "هڪار": 7391,
      "ڪرائ": 7392,
      "روان": 7393,
      "ورت": 7394,
      "ابدار": 7395,
      "پياري": 7396,
      "عطا": 7397,
      "wh": 7398,
      "ئوٽ": 7399,
      "شش": 7400,
      "غار": 7401,
      "فـ": 7402,
      "کولي": 7403,
      "پاپ": 7404,
      "انيه": 7405,
      "نهنج": 7406,
      "مك": 7407,
      "يبي": 7408,
      "ھتي": 7409,
      "داس": 7410,
      "نامي": 7411,
      "وشت": 7412,
      "کو": 7413,
      "##sa": 7414,
      "ماس": 7415,
      "رتب": 7416,
      "تبر": 7417,
      "مائي": 7418,
      "چشم": 7419,
      "ڌيءَ": 7420,
      "کيو": 7421,
      "لامي": 7422,
      "وڌائ": 7423,
      "رسل": 7424,
      "گرفت": 7425,
      "بش": 7426,
      "خلت": 7427,
      "سكر": 7428,
      "انءِ": 7429,
      "راهه": 7430,
      "استر": 7431,
      "نشي": 7432,
      "وسر": 7433,
      "كلك": 7434,
      "كلهم": 7435,
      "پـ": 7436,
      "يابي": 7437,
      "وڏين": 7438,
      "جهد": 7439,
      "سگھند": 7440,
      "يص": 7441,
      "##un": 7442,
      "سرد": 7443,
      "ff": 7444,
      "fo": 7445,
      "ous": 7446,
      "ورز": 7447,
      "سيلي": 7448,
      "rn": 7449,
      "دانه": 7450,
      "نث": 7451,
      "يسا": 7452,
      "ھار": 7453,
      "پيء": 7454,
      "بيه": 7455,
      "فيڊ": 7456,
      "امد": 7457,
      "شتو": 7458,
      "غاز": 7459,
      "يآ": 7460,
      "مناف": 7461,
      "راڄ": 7462,
      "يلن": 7463,
      "مارڪ": 7464,
      "وائر": 7465,
      "حرام": 7466,
      "ook": 7467,
      "ئر": 7468,
      "حك": 7469,
      "صلي": 7470,
      "لندا": 7471,
      "ھٿ": 7472,
      "##وس": 7473,
      "##يف": 7474,
      "ينچ": 7475,
      "يندس": 7476,
      "هُئي": 7477,
      "وجھ": 7478,
      "مزاج": 7479,
      "شى": 7480,
      "نڪس": 7481,
      "راس": 7482,
      "برگ": 7483,
      "قبض": 7484,
      "چڙهي": 7485,
      "كتير": 7486,
      "اهه": 7487,
      "ِڪ": 7488,
      "##کر": 7489,
      "روج": 7490,
      "لود": 7491,
      "راڻو": 7492,
      "لڊنگ": 7493,
      "انداز": 7494,
      "ow": 7495,
      "ای": 7496,
      "حرا": 7497,
      "##te": 7498,
      "بينا": 7499,
      "##ore": 7500,
      "زاز": 7501,
      "انور": 7502,
      "توک": 7503,
      "ڪيشن": 7504,
      "پرائي": 7505,
      "ليت": 7506,
      "اُٿ": 7507,
      "اشار": 7508,
      "راڻيو": 7509,
      "gi": 7510,
      "جيئ": 7511,
      "گهم": 7512,
      "سمع": 7513,
      "op": 7514,
      "کرن": 7515,
      "توا": 7516,
      "ريز": 7517,
      "نياڻي": 7518,
      "يگه": 7519,
      "ــــن": 7520,
      "رڻ": 7521,
      "وبا": 7522,
      "يائي": 7523,
      "روئي": 7524,
      "ماڻي": 7525,
      "پاڙ": 7526,
      "گره": 7527,
      "۾)": 7528,
      "ونڊ": 7529,
      "هيء": 7530,
      "يمن": 7531,
      "سڪين": 7532,
      "ينيٽ": 7533,
      "راڻي": 7534,
      "يدي": 7535,
      "ينڪ": 7536,
      "گيٽ": 7537,
      "سٽريٽ": 7538,
      "ap": 7539,
      "ub": 7540,
      "برف": 7541,
      "حساس": 7542,
      "رتي": 7543,
      "وث": 7544,
      "ايع": 7545,
      "استان": 7546,
      "عدد": 7547,
      "gn": 7548,
      "ia": 7549,
      "ذب": 7550,
      "نڪار": 7551,
      "هك": 7552,
      "ورو": 7553,
      "وءَ": 7554,
      "هاڪ": 7555,
      "همين": 7556,
      "بڻج": 7557,
      "راسر": 7558,
      "يقينا": 7559,
      "پلائ": 7560,
      "جاني": 7561,
      "ينگ": 7562,
      "والا": 7563,
      "ُور": 7564,
      "##lt": 7565,
      "اسٽار": 7566,
      "ڏٺي": 7567,
      "هوڙ": 7568,
      "منه": 7569,
      "يڪٽري": 7570,
      "هوند": 7571,
      "اخي": 7572,
      "سچي": 7573,
      "ُٽ": 7574,
      "ٺي": 7575,
      "هيڙ": 7576,
      "نگريز": 7577,
      "ستا": 7578,
      "ادش": 7579,
      "صوبي": 7580,
      "29": 7581,
      "ja": 7582,
      "نجه": 7583,
      "ڊيڪل": 7584,
      "نهم": 7585,
      "ليم": 7586,
      "اڏا": 7587,
      "pe": 7588,
      "لَ": 7589,
      "واڻ": 7590,
      "ٽور": 7591,
      "جاپان": 7592,
      "نيب": 7593,
      "مران": 7594,
      "رمائي": 7595,
      "مهمان": 7596,
      "est": 7597,
      "wor": 7598,
      "حط": 7599,
      "حاڪ": 7600,
      "رِ": 7601,
      "رول": 7602,
      "اندي": 7603,
      "لايو": 7604,
      "گهار": 7605,
      "نيس": 7606,
      "تعالي": 7607,
      "احسا": 7608,
      "tter": 7609,
      "امت": 7610,
      "طل": 7611,
      "نجي": 7612,
      "##شو": 7613,
      "معنا": 7614,
      "افق": 7615,
      "وڇ": 7616,
      "پاه": 7617,
      "ٻڌا": 7618,
      "fe": 7619,
      "بعا": 7620,
      "جِ": 7621,
      "رزا": 7622,
      "قبي": 7623,
      "وءِ": 7624,
      "ُل": 7625,
      "ٽل": 7626,
      "کسي": 7627,
      "يپر": 7628,
      "اڙه": 7629,
      "بان": 7630,
      "سجي": 7631,
      "طرا": 7632,
      "وهن": 7633,
      "ريپ": 7634,
      "راف": 7635,
      "برطان": 7636,
      "هتا": 7637,
      "ورهائ": 7638,
      "حاڪم": 7639,
      "hat": 7640,
      "ive": 7641,
      "ثر": 7642,
      "مدار": 7643,
      "هيرو": 7644,
      "ومن": 7645,
      "پت": 7646,
      "ٿڌي": 7647,
      "۾,": 7648,
      "##mi": 7649,
      "هني": 7650,
      "بوڪ": 7651,
      "قطار": 7652,
      "سست": 7653,
      "ـو": 7654,
      "اسڪا": 7655,
      "جاي": 7656,
      "ائز": 7657,
      "سندي": 7658,
      "rea": 7659,
      "ain": 7660,
      "تال": 7661,
      "پد": 7662,
      "ھم": 7663,
      "سنج": 7664,
      "يرها": 7665,
      "تقا": 7666,
      "يـــ": 7667,
      "ٽريڪ": 7668,
      "اسڪي": 7669,
      "الائي": 7670,
      "سيت": 7671,
      "فرن": 7672,
      "ولر": 7673,
      "ڄاڻو": 7674,
      "،،": 7675,
      "رعي": 7676,
      "سٽا": 7677,
      "وور": 7678,
      "وها": 7679,
      "چن": 7680,
      "پورا": 7681,
      "پڇڻ": 7682,
      "مطالب": 7683,
      "كِ": 7684,
      "ڌاري": 7685,
      "ڙا": 7686,
      "##ود": 7687,
      "لاح": 7688,
      "اريو": 7689,
      "sea": 7690,
      "آور": 7691,
      "تنا": 7692,
      "حذ": 7693,
      "حري": 7694,
      "نخ": 7695,
      "ندار": 7696,
      "##كي": 7697,
      "ونا": 7698,
      "ازم": 7699,
      "ine": 7700,
      "بوتل": 7701,
      "يرت": 7702,
      "يپس": 7703,
      "45": 7704,
      "yp": 7705,
      "ئبو": 7706,
      "بائ": 7707,
      "رعا": 7708,
      "فلا": 7709,
      "ڪتو": 7710,
      "گلن": 7711,
      "بها": 7712,
      "ونج": 7713,
      "يلر": 7714,
      "تظ": 7715,
      "لھ": 7716,
      "##lu": 7717,
      "جيون": 7718,
      "الب": 7719,
      "ليشن": 7720,
      "ستگي": 7721,
      "اعدو": 7722,
      "ame": 7723,
      "شـــ": 7724,
      "وهر": 7725,
      "انب": 7726,
      "ريري": 7727,
      "ريزي": 7728,
      "ملت": 7729,
      "مدل": 7730,
      "پڙه": 7731,
      "يڊا": 7732,
      "31": 7733,
      "twi": 7734,
      "آيت": 7735,
      "تِ": 7736,
      "صدا": 7737,
      "نائي": 7738,
      "شاهي": 7739,
      "عرص": 7740,
      "پھر": 7741,
      "دول": 7742,
      "صفا": 7743,
      "لأ": 7744,
      "نڪي": 7745,
      "نكم": 7746,
      "هها": 7747,
      "هيلو": 7748,
      "بيني": 7749,
      "pt": 7750,
      "ئا": 7751,
      "للي": 7752,
      "لڪو": 7753,
      "هستي": 7754,
      "يبل": 7755,
      "ٽت": 7756,
      "چهري": 7757,
      "va": 7758,
      "جبت": 7759,
      "پمپ": 7760,
      "##كه": 7761,
      "وٽن": 7762,
      "زڪ": 7763,
      "تير": 7764,
      "اڻون": 7765,
      "بندو": 7766,
      "صاب": 7767,
      "صاد": 7768,
      "وگو": 7769,
      "يط": 7770,
      "يسو": 7771,
      "ڀو": 7772,
      "ڪئن": 7773,
      "گهي": 7774,
      "اهر": 7775,
      "ڪيبل": 7776,
      "گها": 7777,
      "وشيءَ": 7778,
      "تاح": 7779,
      "لپ": 7780,
      "نـــ": 7781,
      "ٻا": 7782,
      "الـ": 7783,
      "هاا": 7784,
      "##are": 7785,
      "بادشا": 7786,
      "as": 7787,
      "بُ": 7788,
      "وتا": 7789,
      "يڏي": 7790,
      "ناسي": 7791,
      "ڏيون": 7792,
      "ٽيڊ": 7793,
      "شكر": 7794,
      "ديت": 7795,
      "پاب": 7796,
      "ھجي": 7797,
      "##ره": 7798,
      "سمس": 7799,
      "نيون": 7800,
      "پڇي": 7801,
      "عيسي": 7802,
      "پابند": 7803,
      "بري": 7804,
      "بچي": 7805,
      "دع": 7806,
      "صديق": 7807,
      "ُڇ": 7808,
      "ڪڪ": 7809,
      "ناچ": 7810,
      "ائبر": 7811,
      "فيئر": 7812,
      "ئيندڙ": 7813,
      "500": 7814,
      "شف": 7815,
      "ميت": 7816,
      "ڪمال": 7817,
      "اجل": 7818,
      "نڊو": 7819,
      "بنج": 7820,
      "id": 7821,
      "صول": 7822,
      "ـہ": 7823,
      "قصد": 7824,
      "چاپ": 7825,
      "يريا": 7826,
      "ری": 7827,
      "شار": 7828,
      "وڳي": 7829,
      "گرين": 7830,
      "ميٽ": 7831,
      "يوند": 7832,
      "ندڙن": 7833,
      "nce": 7834,
      "زز": 7835,
      "چاه": 7836,
      "##امل": 7837,
      "وٽا": 7838,
      "enc": 7839,
      "آت": 7840,
      "جڻ": 7841,
      "سڳ": 7842,
      "ايي": 7843,
      "مرت": 7844,
      "200": 7845,
      "um": 7846,
      "رندي": 7847,
      "منو": 7848,
      "معم": 7849,
      "هره": 7850,
      "ڪنگ": 7851,
      "احتي": 7852,
      "اجي": 7853,
      "اڊا": 7854,
      "رغ": 7855,
      "رور": 7856,
      "رند": 7857,
      "عارف": 7858,
      "نھن": 7859,
      "يٽي": 7860,
      "ٽيو": 7861,
      "اوا": 7862,
      "مسك": 7863,
      "فائد": 7864,
      "پيرا": 7865,
      "عذر": 7866,
      "زخم": 7867,
      "use": 7868,
      "ns": 7869,
      "آند": 7870,
      "ابا": 7871,
      "هس": 7872,
      "يجي": 7873,
      "ڇهه": 7874,
      "هول": 7875,
      "ونٽ": 7876,
      "پرا": 7877,
      "مشا": 7878,
      "سروي": 7879,
      "پين": 7880,
      "هيب": 7881,
      "ائج": 7882,
      "ليك": 7883,
      "لمون": 7884,
      "im": 7885,
      "؟!": 7886,
      "لڪن": 7887,
      "يض": 7888,
      "ڄي": 7889,
      "ناهه": 7890,
      "گولي": 7891,
      "معمول": 7892,
      "ev": 7893,
      "أي": 7894,
      "خشڪ": 7895,
      "َس": 7896,
      "ٺا": 7897,
      "گوا": 7898,
      "پيون": 7899,
      "يرس": 7900,
      "نياز": 7901,
      "سئل": 7902,
      "اقل": 7903,
      "يء": 7904,
      "##اي": 7905,
      "نيپ": 7906,
      "جنگي": 7907,
      "داع": 7908,
      "##one": 7909,
      "شدت": 7910,
      "اوند": 7911,
      "36": 7912,
      "صـ": 7913,
      "هرا": 7914,
      "ٽلي": 7915,
      "راض": 7916,
      "گهڙ": 7917,
      "يمه": 7918,
      "وزر": 7919,
      "رمان": 7920,
      "چئو": 7921,
      "شنا": 7922,
      "عـ": 7923,
      "هڙ": 7924,
      "وأ": 7925,
      "ڪڏھن": 7926,
      "ڻن": 7927,
      "فيت": 7928,
      "يسين": 7929,
      "ريڪا": 7930,
      "(۽": 7931,
      "اسڪر": 7932,
      "واز": 7933,
      "ستو": 7934,
      "غيره": 7935,
      "ئيندو": 7936,
      "رٽس": 7937,
      "ماريو": 7938,
      "لچڪ": 7939,
      "ios": 7940,
      "بست": 7941,
      "جهو": 7942,
      "طف": 7943,
      "فتو": 7944,
      "ِين": 7945,
      "ڏور": 7946,
      "ڪوٺ": 7947,
      "ميڊ": 7948,
      "ترسيل": 7949,
      "ڌي": 7950,
      "جيد": 7951,
      "انئ": 7952,
      "موم": 7953,
      "ميٽي": 7954,
      "سرت": 7955,
      "رپيا": 7956,
      "سنگت": 7957,
      "تظامي": 7958,
      "ble": 7959,
      "ابر": 7960,
      "زد": 7961,
      "کس": 7962,
      "##نه": 7963,
      "ميونس": 7964,
      "اااي": 7965,
      "رياض": 7966,
      "بحر": 7967,
      "فريق": 7968,
      "دب": 7969,
      "درا": 7970,
      "يڏ": 7971,
      "ٽار": 7972,
      "مادر": 7973,
      "ڪوڪي": 7974,
      "ڪتب": 7975,
      "ڪتن": 7976,
      "وڙهي": 7977,
      "form": 7978,
      "tin": 7979,
      "سمجه": 7980,
      "dis": 7981,
      "أل": 7982,
      "هب": 7983,
      "ٿڌو": 7984,
      "ڀت": 7985,
      "ڳائڻ": 7986,
      "اوب": 7987,
      "ائد": 7988,
      "نگل": 7989,
      "نده": 7990,
      "ئيندا": 7991,
      "رمض": 7992,
      "ure": 7993,
      "ye": 7994,
      "زع": 7995,
      "وبل": 7996,
      "يئڻ": 7997,
      "الش": 7998,
      "ترڪ": 7999,
      "ٽيءَ": 8000,
      "رجع": 8001,
      "طبع": 8002,
      "زوال": 8003,
      "ناسب": 8004,
      "tc": 8005,
      "جاب": 8006,
      "زاد": 8007,
      "##وز": 8008,
      "##ta": 8009,
      "ونگ": 8010,
      "نينگر": 8011,
      "قرا": 8012,
      "وی": 8013,
      "يجن": 8014,
      "بلڊ": 8015,
      "قرب": 8016,
      "سچو": 8017,
      "رستن": 8018,
      "تخت": 8019,
      "ذي": 8020,
      "نڪا": 8021,
      "ڙڪا": 8022,
      "ياء": 8023,
      "ملائي": 8024,
      "ساه": 8025,
      "رستا": 8026,
      "زيشن": 8027,
      "كلها": 8028,
      "لنگه": 8029,
      "vo": 8030,
      "رگ": 8031,
      "شئي": 8032,
      "ودا": 8033,
      "يئ": 8034,
      "باش": 8035,
      "سٽس": 8036,
      "ربع": 8037,
      "ess": 8038,
      "پبلڪ": 8039,
      "رڪس": 8040,
      "سدا": 8041,
      "پنگ": 8042,
      "ڇڪڻ": 8043,
      "رويي": 8044,
      "ula": 8045,
      "مام": 8046,
      "پيچ": 8047,
      "لوج": 8048,
      "چيل": 8049,
      "چيس": 8050,
      "نک": 8051,
      "يوس": 8052,
      "ائٽي": 8053,
      "نظري": 8054,
      "نڀا": 8055,
      "بِ": 8056,
      "نڍ": 8057,
      "ڇت": 8058,
      "ڏياري": 8059,
      "گلي": 8060,
      "ايز": 8061,
      "ميش": 8062,
      "ارڊ": 8063,
      "لڳن": 8064,
      "فرم": 8065,
      "ted": 8066,
      "os": 8067,
      "رير": 8068,
      "ودو": 8069,
      "وسٽ": 8070,
      "گان": 8071,
      "منص": 8072,
      "ائيءَ": 8073,
      "ادائ": 8074,
      "چونڊي": 8075,
      "گلاب": 8076,
      "يگز": 8077,
      "اكم": 8078,
      "فنڊ": 8079,
      "لڪي": 8080,
      "هپ": 8081,
      "هڻو": 8082,
      "ارون": 8083,
      "وٺن": 8084,
      "hi": 8085,
      "ol": 8086,
      "ثير": 8087,
      "خــ": 8088,
      "زيل": 8089,
      "سٺا": 8090,
      "پِ": 8091,
      "ڀٽو": 8092,
      "انيا": 8093,
      "روري": 8094,
      "اتم": 8095,
      "نتا": 8096,
      "آلو": 8097,
      "ڀلو": 8098,
      "##يني": 8099,
      "هوٽ": 8100,
      "پيس": 8101,
      "نازل": 8102,
      "ميري": 8103,
      "سود": 8104,
      "ستن": 8105,
      "چيٽ": 8106,
      "حلي": 8107,
      "ـن": 8108,
      "مشن": 8109,
      "وھ": 8110,
      "يٺي": 8111,
      "ڏجي": 8112,
      "##ابل": 8113,
      "ليف": 8114,
      "ــال": 8115,
      "يشي": 8116,
      "[.": 8117,
      "اڍ": 8118,
      "تور": 8119,
      "رث": 8120,
      "ضد": 8121,
      "راء": 8122,
      "مرور": 8123,
      "اسٽا": 8124,
      "ديوان": 8125,
      "32": 8126,
      "hu": 8127,
      "ئو": 8128,
      "شال": 8129,
      "لى": 8130,
      "لمو": 8131,
      "مـــ": 8132,
      "وون": 8133,
      "يوٽ": 8134,
      "تبصر": 8135,
      "حفظ": 8136,
      "##زر": 8137,
      "ساني": 8138,
      "sk": 8139,
      "رقي": 8140,
      "ســـ": 8141,
      "شئ": 8142,
      "يرين": 8143,
      "ٻو": 8144,
      "ٽپ": 8145,
      "##كت": 8146,
      "جين": 8147,
      "لاٽ": 8148,
      "ڪيپ": 8149,
      "##يلت": 8150,
      "اڪيل": 8151,
      "play": 8152,
      "ie": 8153,
      "خذ": 8154,
      "فح": 8155,
      "لت": 8156,
      "ٻج": 8157,
      "ڙھ": 8158,
      "گئس": 8159,
      "احم": 8160,
      "نڊا": 8161,
      "مهارت": 8162,
      "رباني": 8163,
      "اھم": 8164,
      "دعوي": 8165,
      "يلاپ": 8166,
      "جھو": 8167,
      "دلي": 8168,
      "شک": 8169,
      "ظر": 8170,
      "غر": 8171,
      "َـ": 8172,
      "چال": 8173,
      "کپ": 8174,
      "##آآ": 8175,
      "انـ": 8176,
      "نيت": 8177,
      "سڄڻ": 8178,
      "پلگ": 8179,
      "art": 8180,
      "oin": 8181,
      "بـــ": 8182,
      "يران": 8183,
      "نشا": 8184,
      "پروف": 8185,
      "ئسن": 8186,
      "ii": 8187,
      "شھ": 8188,
      "لڪل": 8189,
      "ينهن": 8190,
      "ٽول": 8191,
      "ڇهن": 8192,
      "اسڪو": 8193,
      "هيان": 8194,
      "ڪوئ": 8195,
      "يوو": 8196,
      "شاھ": 8197,
      "اخلاق": 8198,
      "ارات": 8199,
      "كد": 8200,
      "##nt": 8201,
      "ريب": 8202,
      "بجي": 8203,
      "حليل": 8204,
      "دنا": 8205,
      "لج": 8206,
      "لهم": 8207,
      "اسك": 8208,
      "ماٺ": 8209,
      "استن": 8210,
      "ڏيک": 8211,
      "دلين": 8212,
      "قوي": 8213,
      "زادي": 8214,
      "فضيلت": 8215,
      "رص": 8216,
      "نزل": 8217,
      "وهو": 8218,
      "اسه": 8219,
      "ينيو": 8220,
      "ينڊر": 8221,
      "ڪوٺي": 8222,
      "ورچ": 8223,
      "سوئ": 8224,
      "وليو": 8225,
      "jo": 8226,
      "تک": 8227,
      "رجن": 8228,
      "وندي": 8229,
      "يمي": 8230,
      "ھلي": 8231,
      "لاڙ": 8232,
      "دانن": 8233,
      "جرا": 8234,
      "سڪي": 8235,
      "ِل": 8236,
      "##خا": 8237,
      "معه": 8238,
      "وڃائ": 8239,
      "برچ": 8240,
      "رمضان": 8241,
      "عدم": 8242,
      "فال": 8243,
      "لُ": 8244,
      "ُڪ": 8245,
      "چُ": 8246,
      "ڊڪٽس": 8247,
      "زيور": 8248,
      "ka": 8249,
      "حمت": 8250,
      "قريب": 8251,
      "التو": 8252,
      "هنر": 8253,
      "جايو": 8254,
      "بينڪن": 8255,
      "اريند": 8256,
      "ser": 8257,
      "آمر": 8258,
      "شـ": 8259,
      "ڻندڙ": 8260,
      "##ca": 8261,
      "ويژ": 8262,
      "ريئ": 8263,
      "داره": 8264,
      "ابد": 8265,
      "سگهج": 8266,
      "تى": 8267,
      "دني": 8268,
      "سد": 8269,
      "لش": 8270,
      "نی": 8271,
      "ڏھن": 8272,
      "ڪول": 8273,
      "الات": 8274,
      "راجا": 8275,
      "امور": 8276,
      "اڻيو": 8277,
      "ابن": 8278,
      "نجر": 8279,
      "يشنل": 8280,
      "ڪڍڻ": 8281,
      "ساد": 8282,
      "ضم": 8283,
      "گناه": 8284,
      "ينك": 8285,
      "محد": 8286,
      "ساس": 8287,
      "بدن": 8288,
      "نڊل": 8289,
      "مراد": 8290,
      "ڀڄي": 8291,
      "بَ": 8292,
      "کٽي": 8293,
      "رولي": 8294,
      "##گرم": 8295,
      "اجر": 8296,
      "مٿس": 8297,
      "وڻن": 8298,
      "ديوتا": 8299,
      "صوف": 8300,
      "سڳور": 8301,
      "تمي": 8302,
      "رهه": 8303,
      "يله": 8304,
      "ُو": 8305,
      "پتي": 8306,
      "هيڏ": 8307,
      "ريه": 8308,
      "ائيو": 8309,
      "احل": 8310,
      "قيدي": 8311,
      "اِن": 8312,
      "دٻاء": 8313,
      "لبر": 8314,
      "نُ": 8315,
      "يَ": 8316,
      "ٽايو": 8317,
      "فيد": 8318,
      "اهيند": 8319,
      "سنجي": 8320,
      "سرگرم": 8321,
      "احب": 8322,
      "گرافي": 8323,
      "صادق": 8324,
      "تڙ": 8325,
      "خلو": 8326,
      "فرو": 8327,
      "لمي": 8328,
      "##ته": 8329,
      "ناھ": 8330,
      "ڏيند": 8331,
      "نشر": 8332,
      "نجات": 8333,
      "تست": 8334,
      "جري": 8335,
      "جپان": 8336,
      "سٺ": 8337,
      "شرا": 8338,
      "عظم": 8339,
      "مهينو": 8340,
      "ھنن": 8341,
      "جمعي": 8342,
      "راجع": 8343,
      "مڻ": 8344,
      "می": 8345,
      "هارو": 8346,
      "يزن": 8347,
      "۾:": 8348,
      "##وق": 8349,
      "هاد": 8350,
      "اصلات": 8351,
      "ئجي": 8352,
      "تبي": 8353,
      "سهي": 8354,
      "لنا": 8355,
      "وڪا": 8356,
      "ڪائي": 8357,
      "ڪشن": 8358,
      "ادت": 8359,
      "دوزخ": 8360,
      "رسٽ": 8361,
      "هز": 8362,
      "ڏو": 8363,
      "گال": 8364,
      "برت": 8365,
      "وريون": 8366,
      "fu": 8367,
      "جهي": 8368,
      "سکي": 8369,
      "فرما": 8370,
      "حذف": 8371,
      "اقا": 8372,
      "تغ": 8373,
      "رجي": 8374,
      "سسٽ": 8375,
      "يهن": 8376,
      "گون": 8377,
      "##pe": 8378,
      "ينز": 8379,
      "منگ": 8380,
      "ميلي": 8381,
      "وٽس": 8382,
      "يڊم": 8383,
      "سکو": 8384,
      "شاهد": 8385,
      "ساب": 8386,
      "ڪلي": 8387,
      "##gi": 8388,
      "بيع": 8389,
      "محت": 8390,
      "مقابل": 8391,
      "اريون": 8392,
      "net": 8393,
      "##ote": 8394,
      "hd": 8395,
      "rr": 8396,
      "تط": 8397,
      "ظه": 8398,
      "ٻر": 8399,
      "##ڌا": 8400,
      "تيون": 8401,
      "هيئن": 8402,
      "بچت": 8403,
      "تاثر": 8404,
      "سلسل": 8405,
      "يگا": 8406,
      "اغوا": 8407,
      "ادشاه": 8408,
      "##ss": 8409,
      "واد": 8410,
      "هرن": 8411,
      "ااي": 8412,
      "نڊين": 8413,
      "لهج": 8414,
      "بزنس": 8415,
      "صوب": 8416,
      "لهو": 8417,
      "َل": 8418,
      "گيم": 8419,
      "رويو": 8420,
      "اڳيا": 8421,
      "نوڪر": 8422,
      "يتو": 8423,
      "نديم": 8424,
      "tiv": 8425,
      "scl": 8426,
      "زلز": 8427,
      "gen": 8428,
      "اڱ": 8429,
      "اٽي": 8430,
      "وڪو": 8431,
      "پنا": 8432,
      "گس": 8433,
      "هيئ": 8434,
      "ميشن": 8435,
      "ليڊر": 8436,
      "سيون": 8437,
      "انهيء": 8438,
      "sclnt": 8439,
      "ci": 8440,
      "ya": 8441,
      "جـ": 8442,
      "مــــ": 8443,
      "وظ": 8444,
      "يڪار": 8445,
      "ڪاش": 8446,
      "يتون": 8447,
      "فحش": 8448,
      "ge": 8449,
      "ٽم": 8450,
      "ڪٽر": 8451,
      "ھت": 8452,
      "لکت": 8453,
      "ڪٽڻ": 8454,
      "lg": 8455,
      "ئپ": 8456,
      "ذائ": 8457,
      "رجو": 8458,
      "ضيا": 8459,
      "واڻي": 8460,
      "ِت": 8461,
      "پيڪ": 8462,
      "##ڻا": 8463,
      "الث": 8464,
      "ھيٺ": 8465,
      "xi": 8466,
      "حـ": 8467,
      "راني": 8468,
      "ژه": 8469,
      "ونز": 8470,
      "ائڊ": 8471,
      "لوم": 8472,
      "iv": 8473,
      "الٽ": 8474,
      "اينا": 8475,
      "ولاد": 8476,
      "3d": 8477,
      "زان": 8478,
      "غرب": 8479,
      "ـه": 8480,
      "لی": 8481,
      "ورک": 8482,
      "ڪمائ": 8483,
      "يوگ": 8484,
      "ليءَ": 8485,
      "پوره": 8486,
      "لِ": 8487,
      "لفا": 8488,
      "ڄام": 8489,
      "ڊول": 8490,
      "واسي": 8491,
      "ريلي": 8492,
      "اوپ": 8493,
      "ائيز": 8494,
      "يٽرو": 8495,
      "بھتر": 8496,
      "انفرا": 8497,
      "**": 8498,
      "؟\"": 8499,
      "كــ": 8500,
      "لمن": 8501,
      "نآ": 8502,
      "ٽيوب": 8503,
      "گين": 8504,
      "##يس": 8505,
      "سوم": 8506,
      "تقبل": 8507,
      "طالع": 8508,
      "اقو": 8509,
      "جدت": 8510,
      "ut": 8511,
      "بڻي": 8512,
      "دها": 8513,
      "مٺي": 8514,
      "يھ": 8515,
      "ُن": 8516,
      "چٽ": 8517,
      "##صف": 8518,
      "جير": 8519,
      "ئيدار": 8520,
      "راڳ": 8521,
      "ميس": 8522,
      "يوٽي": 8523,
      "ساع": 8524,
      "لوق": 8525,
      "لوس": 8526,
      "ينيم": 8527,
      "my": 8528,
      "يشان": 8529,
      "##be": 8530,
      "ايڪ": 8531,
      "مرس": 8532,
      "مزاح": 8533,
      "رڪش": 8534,
      "gu": 8535,
      "more": 8536,
      "آإ": 8537,
      "ئرس": 8538,
      "تكم": 8539,
      "نائ": 8540,
      "وڳ": 8541,
      "ٽولي": 8542,
      "چت": 8543,
      "کاري": 8544,
      "##ne": 8545,
      "رسن": 8546,
      "mac": 8547,
      "كانت": 8548,
      "ڪامر": 8549,
      "آمريڪ": 8550,
      "حلا": 8551,
      "سك": 8552,
      "نانگ": 8553,
      "کني": 8554,
      "ماي": 8555,
      "ريع": 8556,
      "بيبي": 8557,
      "ڪارخا": 8558,
      "نگلي": 8559,
      "ازما": 8560,
      "ديده": 8561,
      "ابتدا": 8562,
      "ڪوڪيز": 8563,
      "بٽ": 8564,
      "جهن": 8565,
      "نــــ": 8566,
      "الخ": 8567,
      "پوڙه": 8568,
      "ـــم": 8569,
      "اڳئ": 8570,
      "لوو": 8571,
      "دايت": 8572,
      "طاق": 8573,
      "اڇو": 8574,
      "آبي": 8575,
      "اقي": 8576,
      "طار": 8577,
      "فيڪ": 8578,
      "فلو": 8579,
      "هجو": 8580,
      "ٿئ": 8581,
      "روٽ": 8582,
      "نيري": 8583,
      "زمر": 8584,
      "يدن": 8585,
      "افيه": 8586,
      "حجم": 8587,
      "min": 8588,
      "حن": 8589,
      "حـــ": 8590,
      "رامي": 8591,
      "ٺو": 8592,
      "ڪيڪ": 8593,
      "رود": 8594,
      "راي": 8595,
      "ليڊ": 8596,
      "ڀرڻ": 8597,
      "زينب": 8598,
      "بدو": 8599,
      "ينئر": 8600,
      "ادم": 8601,
      "شخصي": 8602,
      "دفن": 8603,
      "آزمائ": 8604,
      "sy": 8605,
      "ty": 8606,
      "اهن": 8607,
      "هڻڻ": 8608,
      "موز": 8609,
      "يلون": 8610,
      "يسر": 8611,
      "33": 8612,
      "mm": 8613,
      "بادل": 8614,
      "تائ": 8615,
      "َه": 8616,
      "الق": 8617,
      "ياز": 8618,
      "يرن": 8619,
      "wo": 8620,
      "xd": 8621,
      "دن": 8622,
      "رندو": 8623,
      "انشو": 8624,
      "ڪريٽ": 8625,
      "ڪرو": 8626,
      "نيئر": 8627,
      "نگھ": 8628,
      "##ناط": 8629,
      "تقدير": 8630,
      "سٽنگ": 8631,
      "رڪت": 8632,
      "مشكل": 8633,
      "ny": 8634,
      "كا": 8635,
      "پان": 8636,
      "چائ": 8637,
      "ٽيپ": 8638,
      "ميني": 8639,
      "عاون": 8640,
      "شاد": 8641,
      "يبا": 8642,
      "يٺا": 8643,
      "راق": 8644,
      "ارڪ": 8645,
      "نيه": 8646,
      "عامل": 8647,
      "##توي": 8648,
      "اڳوڻ": 8649,
      "قطر": 8650,
      "und": 8651,
      "ڳڻتي": 8652,
      "are": 8653,
      "ضح": 8654,
      "لهر": 8655,
      "ڪٽي": 8656,
      "اهت": 8657,
      "ڪيف": 8658,
      "ليها": 8659,
      "gb": 8660,
      "خدم": 8661,
      "سڪر": 8662,
      "عوا": 8663,
      "گهن": 8664,
      "اهد": 8665,
      "ارت": 8666,
      "انيءَ": 8667,
      "يٽل": 8668,
      "##ide": 8669,
      "سڻ": 8670,
      "فه": 8671,
      "هڏ": 8672,
      "هٽا": 8673,
      "ولم": 8674,
      "ويي": 8675,
      "ورڈ": 8676,
      "ائق": 8677,
      "تعب": 8678,
      "نوب": 8679,
      "ڪنن": 8680,
      "ant": 8681,
      "پلان": 8682,
      "جميع": 8683,
      "نويس": 8684,
      "عنا": 8685,
      "ٺهي": 8686,
      "ٽام": 8687,
      "اسن": 8688,
      "واٽر": 8689,
      "ڪارا": 8690,
      "مٿو": 8691,
      "بچاء": 8692,
      "ڪشا": 8693,
      "لڙڪ": 8694,
      "pl": 8695,
      "شق": 8696,
      "ضي": 8697,
      "لڏ": 8698,
      "يث": 8699,
      "ڌا": 8700,
      "ارنٽ": 8701,
      "ليٽر": 8702,
      "سوني": 8703,
      "ٻوڏ": 8704,
      "lu": 8705,
      "تند": 8706,
      "ڳائ": 8707,
      "انز": 8708,
      "موري": 8709,
      "اوٽ": 8710,
      "ليمان": 8711,
      "مرة": 8712,
      "اشا": 8713,
      "les": 8714,
      "دهلي": 8715,
      "آگاه": 8716,
      "چپن": 8717,
      "ئڊ": 8718,
      "عش": 8719,
      "يــــ": 8720,
      "ٽرا": 8721,
      "ٿڌ": 8722,
      "ڊچ": 8723,
      "بيگ": 8724,
      "صحاف": 8725,
      "رنٽ": 8726,
      "og": 8727,
      "سڪو": 8728,
      "نڌي": 8729,
      "وضو": 8730,
      "ٿن": 8731,
      "ڻڪ": 8732,
      "جولا": 8733,
      "لاٿ": 8734,
      "ورائي": 8735,
      "بيش": 8736,
      "يوب": 8737,
      "برش": 8738,
      "ولك": 8739,
      "حدن": 8740,
      "مارٽ": 8741,
      "سٽيٽ": 8742,
      "يروز": 8743,
      "قاف": 8744,
      "لــ": 8745,
      "وڙي": 8746,
      "َن": 8747,
      "ڀرو": 8748,
      "ڦٽ": 8749,
      "ڪھ": 8750,
      "##da": 8751,
      "جيو": 8752,
      "وڌا": 8753,
      "امون": 8754,
      "جڳھ": 8755,
      "عرفي": 8756,
      "نينهن": 8757,
      "pri": 8758,
      "افر": 8759,
      "دک": 8760,
      "سليم": 8761,
      "ٽمي": 8762,
      "ٽهڪ": 8763,
      "ڳائي": 8764,
      "ھڙ": 8765,
      "##ga": 8766,
      "##ليغ": 8767,
      "المن": 8768,
      "پوڻ": 8769,
      "ورائ": 8770,
      "ارج": 8771,
      "ـــو": 8772,
      "ائيڪ": 8773,
      "ادل": 8774,
      "هڻا": 8775,
      "ies": 8776,
      "65": 8777,
      "blo": 8778,
      "شيو": 8779,
      "نيرو": 8780,
      "ومو": 8781,
      "ھل": 8782,
      "##va": 8783,
      "##vi": 8784,
      "وراڻي": 8785,
      "ليپ": 8786,
      "ــن": 8787,
      "فارس": 8788,
      "يکا": 8789,
      "يئرنگ": 8790,
      "لهايو": 8791,
      "fin": 8792,
      "nc": 8793,
      "ps": 8794,
      "بــ": 8795,
      "تد": 8796,
      "دستي": 8797,
      "صبا": 8798,
      "مٺ": 8799,
      "ڱي": 8800,
      "ھيو": 8801,
      "واهي": 8802,
      "ورتل": 8803,
      "نظار": 8804,
      "وزگار": 8805,
      "تبليغ": 8806,
      "بلن": 8807,
      "سمجهن": 8808,
      "ڪامل": 8809,
      "بهتري": 8810,
      "75": 8811,
      "بص": 8812,
      "عق": 8813,
      "فات": 8814,
      "ڦري": 8815,
      "اير": 8816,
      "رواني": 8817,
      "ارش": 8818,
      "ايند": 8819,
      "ڏات": 8820,
      "##ara": 8821,
      "عيب": 8822,
      "سچل": 8823,
      "رنٽي": 8824,
      "300": 8825,
      "لڪير": 8826,
      "ago": 8827,
      "you": 8828,
      "ذه": 8829,
      "رونا": 8830,
      "كيد": 8831,
      "اوز": 8832,
      "معاه": 8833,
      "ڪارڪن": 8834,
      "شويه": 8835,
      "ڪالم": 8836,
      "48": 8837,
      "سڏي": 8838,
      "ـس": 8839,
      "يهر": 8840,
      "##ويه": 8841,
      "لاب": 8842,
      "ورش": 8843,
      "مقناط": 8844,
      "قولي": 8845,
      "بيو": 8846,
      "حتي": 8847,
      "حسي": 8848,
      "زاري": 8849,
      "لڏي": 8850,
      "مله": 8851,
      "پش": 8852,
      "ڀن": 8853,
      "ڙن": 8854,
      "ھائي": 8855,
      "ملتوي": 8856,
      "احت": 8857,
      "ئونڊ": 8858,
      "اسڪيم": 8859,
      "mu": 8860,
      "آهه": 8861,
      "آصف": 8862,
      "أس": 8863,
      "رلي": 8864,
      "عون": 8865,
      "لبت": 8866,
      "مچ": 8867,
      "وهم": 8868,
      "يزي": 8869,
      "ڊبل": 8870,
      "گھي": 8871,
      "##اڻو": 8872,
      "ريش": 8873,
      "ـــل": 8874,
      "امس": 8875,
      "امري": 8876,
      "مرك": 8877,
      "ــان": 8878,
      "ازن": 8879,
      "اڪن": 8880,
      "بون": 8881,
      "سيو": 8882,
      "طي": 8883,
      "لسي": 8884,
      "يفو": 8885,
      "کٽڻ": 8886,
      "##na": 8887,
      "##ly": 8888,
      "مولا": 8889,
      "مولوي": 8890,
      "ماا": 8891,
      "روانا": 8892,
      "پوپ": 8893,
      "ميدا": 8894,
      "سوٽ": 8895,
      "ڊيٽ": 8896,
      "ste": 8897,
      "رحل": 8898,
      "مڃڻ": 8899,
      "مھل": 8900,
      "مهاجر": 8901,
      "ڪڻڪ": 8902,
      "--": 8903,
      "قار": 8904,
      "كو": 8905,
      "##hm": 8906,
      "اهدو": 8907,
      "الون": 8908,
      "المو": 8909,
      "نواب": 8910,
      "سيني": 8911,
      "لکن": 8912,
      "##ort": 8913,
      "<<<": 8914,
      "هدف": 8915,
      "پڙهائ": 8916,
      "اگ": 8917,
      "لقي": 8918,
      "مگ": 8919,
      "مٽا": 8920,
      "ڊل": 8921,
      "لاڏ": 8922,
      "ئيٽ": 8923,
      "ويھ": 8924,
      "ـــن": 8925,
      "پاي": 8926,
      "لوڻ": 8927,
      "نهين": 8928,
      "جرب": 8929,
      "mar": 8930,
      "اٽو": 8931,
      "عيو": 8932,
      "لير": 8933,
      "يــ": 8934,
      "ٺين": 8935,
      "ٽرول": 8936,
      "واج": 8937,
      "اتا": 8938,
      "ـــه": 8939,
      "سمو": 8940,
      "مرک": 8941,
      "داي": 8942,
      "جهڻ": 8943,
      "ولڪ": 8944,
      "ووه": 8945,
      "اٿو": 8946,
      "عود": 8947,
      "بچه": 8948,
      "سٽن": 8949,
      "ميمڻ": 8950,
      "tur": 8951,
      "شناس": 8952,
      "نئي": 8953,
      "ورين": 8954,
      "يفا": 8955,
      "یم": 8956,
      "##غا": 8957,
      "اهين": 8958,
      "دات": 8959,
      "تجارت": 8960,
      "ووم": 8961,
      "کاڌ": 8962,
      "کلڻ": 8963,
      "بنگلا": 8964,
      "صوبن": 8965,
      "mon": 8966,
      "حول": 8967,
      "ُک": 8968,
      "ارسي": 8969,
      "جهڙ": 8970,
      "يسن": 8971,
      "آزما": 8972,
      "وشي": 8973,
      "cha": 8974,
      "nti": 8975,
      "gre": 8976,
      "آچر": 8977,
      "مبا": 8978,
      "##to": 8979,
      "##el": 8980,
      "ماڪ": 8981,
      "ناري": 8982,
      "يما": 8983,
      "پهل": 8984,
      "پنه": 8985,
      "اخو": 8986,
      "يڊن": 8987,
      "ڌرم": 8988,
      "مٽائ": 8989,
      "nu": 8990,
      "ov": 8991,
      "اڊ": 8992,
      "بدار": 8993,
      "ڪب": 8994,
      "اسا": 8995,
      "ليسي": 8996,
      "اچا": 8997,
      "era": 8998,
      "wei": 8999,
      "نثار": 9000,
      "ew": 9001,
      "ئه": 9002,
      "ترو": 9003,
      "سكس": 9004,
      "لهڻ": 9005,
      "مدي": 9006,
      "والي": 9007,
      "ڙهي": 9008,
      "ڪشش": 9009,
      "##سن": 9010,
      "##چا": 9011,
      "ڊيمو": 9012,
      "ڏسن": 9013,
      "معاشر": 9014,
      "ڪيمرا": 9015,
      "هٽائڻ": 9016,
      "oem": 9017,
      "رهم": 9018,
      "نئ": 9019,
      "##ڙھ": 9020,
      "انھ": 9021,
      "روب": 9022,
      "منھن": 9023,
      "اوه": 9024,
      "ليلي": 9025,
      "عمار": 9026,
      "قيق": 9027,
      "رقص": 9028,
      "ڪسڪس": 9029,
      "eb": 9030,
      "sd": 9031,
      "ادو": 9032,
      "جڪ": 9033,
      "جند": 9034,
      "خال": 9035,
      "وگ": 9036,
      "ڇڪي": 9037,
      "کڻ": 9038,
      "منش": 9039,
      "نسر": 9040,
      "جھاز": 9041,
      "اڌا": 9042,
      "ak": 9043,
      "ثق": 9044,
      "حفو": 9045,
      "ذك": 9046,
      "لذ": 9047,
      "ومي": 9048,
      "وئڻ": 9049,
      "ٽائڻ": 9050,
      "ڇن": 9051,
      "ڪٽري": 9052,
      "ڳري": 9053,
      "ڻائي": 9054,
      "##ha": 9055,
      "##ئه": 9056,
      "##ru": 9057,
      "هنيو": 9058,
      "يوار": 9059,
      "اهيو": 9060,
      "اعد": 9061,
      "دادو": 9062,
      "اڻين": 9063,
      "ate": 9064,
      "fac": 9065,
      "ting": 9066,
      "ari": 9067,
      "bon": 9068,
      "can": 9069,
      "بدا": 9070,
      "رني": 9071,
      "عني": 9072,
      "لــــ": 9073,
      "##بة": 9074,
      "##op": 9075,
      "mat": 9076,
      "cen": 9077,
      "عار": 9078,
      "الڪ": 9079,
      "واع": 9080,
      "##هانت": 9081,
      "نيج": 9082,
      "تحق": 9083,
      "يونس": 9084,
      "نسن": 9085,
      "ادگي": 9086,
      "پسندي": 9087,
      "ju": 9088,
      "pu": 9089,
      "پڪو": 9090,
      "##ین": 9091,
      "ويهن": 9092,
      "ارٽي": 9093,
      "ڀاء": 9094,
      "لعنت": 9095,
      "ڪھڙ": 9096,
      "99": 9097,
      "بائي": 9098,
      "یا": 9099,
      "##ed": 9100,
      "سوڀ": 9101,
      "يوي": 9102,
      "ختار": 9103,
      ">>>": 9104,
      "تی": 9105,
      "جائي": 9106,
      "دى": 9107,
      "رهان": 9108,
      "سلا": 9109,
      "ضا": 9110,
      "كات": 9111,
      "نذ": 9112,
      "گلو": 9113,
      "##ِي": 9114,
      "##فيق": 9115,
      "ندس": 9116,
      "ھيءَ": 9117,
      "مئل": 9118,
      "سوئچ": 9119,
      "،\"": 9120,
      "زش": 9121,
      "عص": 9122,
      "فير": 9123,
      "متي": 9124,
      "ڪڇ": 9125,
      "ڻين": 9126,
      "ٿوڪ": 9127,
      "فيش": 9128,
      "سنت": 9129,
      "يمو": 9130,
      "ووڊ": 9131,
      "مرڪب": 9132,
      "نصاب": 9133,
      "سعود": 9134,
      "34": 9135,
      "ot": 9136,
      "قاد": 9137,
      "نط": 9138,
      "نتو": 9139,
      "ڀار": 9140,
      "##اڙ": 9141,
      "##ید": 9142,
      "نيز": 9143,
      "ازل": 9144,
      "شرٽ": 9145,
      "ميرا": 9146,
      "زيارت": 9147,
      "cor": 9148,
      "رنا": 9149,
      "ربان": 9150,
      "سع": 9151,
      "شــ": 9152,
      "غزل": 9153,
      "هش": 9154,
      "ڇان": 9155,
      "اصر": 9156,
      "گذار": 9157,
      "اهڙيء": 9158,
      "ڙيون": 9159,
      "ديني": 9160,
      "أم": 9161,
      "اڇي": 9162,
      "لتا": 9163,
      "نڌو": 9164,
      "گنا": 9165,
      "##سس": 9166,
      "جيا": 9167,
      "پيڊ": 9168,
      "اوس": 9169,
      "امڙ": 9170,
      "ندن": 9171,
      "بجد": 9172,
      "پٺت": 9173,
      "ber": 9174,
      "bla": 9175,
      "ide": 9176,
      "تــــ": 9177,
      "هٽي": 9178,
      "ٽجي": 9179,
      "##بط": 9180,
      "جيءَ": 9181,
      "الان": 9182,
      "بيب": 9183,
      "علق": 9184,
      "وٽل": 9185,
      "رسالي": 9186,
      "نڊر": 9187,
      "مڃي": 9188,
      "لياتي": 9189,
      "زني": 9190,
      "فز": 9191,
      "قليت": 9192,
      "وٽر": 9193,
      "##وڻ": 9194,
      "##طب": 9195,
      "تيم": 9196,
      "ايٽ": 9197,
      "توي": 9198,
      "واھ": 9199,
      "روع": 9200,
      "منج": 9201,
      "رايو": 9202,
      "پٽن": 9203,
      "وڻند": 9204,
      "اقاعد": 9205,
      "جدي": 9206,
      "غلا": 9207,
      "وپي": 9208,
      "ُس": 9209,
      "ٿار": 9210,
      "۾!": 9211,
      "##حت": 9212,
      "ڪوڪ": 9213,
      "باھ": 9214,
      "صحاب": 9215,
      "time": 9216,
      "فضا": 9217,
      "مراه": 9218,
      "آٽو": 9219,
      "اعي": 9220,
      "بلي": 9221,
      "خـ": 9222,
      "سى": 9223,
      "نبو": 9224,
      "وشن": 9225,
      "وکي": 9226,
      "وڙا": 9227,
      "چل": 9228,
      "##ge": 9229,
      "##su": 9230,
      "ينن": 9231,
      "رادي": 9232,
      "بيٽ": 9233,
      "ڏيڍ": 9234,
      "ڪنار": 9235,
      "نجين": 9236,
      "##ضيه": 9237,
      "pay": 9238,
      "وحي": 9239,
      "pb": 9240,
      "اڏي": 9241,
      "بئ": 9242,
      "سڌ": 9243,
      "طع": 9244,
      "وپو": 9245,
      "ٿل": 9246,
      "ڪبو": 9247,
      "##am": 9248,
      "##نر": 9249,
      "##یش": 9250,
      "رهين": 9251,
      "ائنٽ": 9252,
      "يتر": 9253,
      "لڳڻ": 9254,
      "اريا": 9255,
      "خطرن": 9256,
      "ڄڻن": 9257,
      "chi": 9258,
      "رزق": 9259,
      "يرات": 9260,
      "وئل": 9261,
      "وائيس": 9262,
      "55": 9263,
      "رڻو": 9264,
      "سرا": 9265,
      "شيا": 9266,
      "غسل": 9267,
      "قم": 9268,
      "وئن": 9269,
      "ڏائ": 9270,
      "##اله": 9271,
      "لاك": 9272,
      "اهدي": 9273,
      "ويها": 9274,
      "راع": 9275,
      "هااا": 9276,
      "اتك": 9277,
      "ترى": 9278,
      "مسز": 9279,
      "وچين": 9280,
      "سچا": 9281,
      "mehm": 9282,
      "يسوع": 9283,
      "dy": 9284,
      "pd": 9285,
      "نهه": 9286,
      "نجو": 9287,
      "وٿ": 9288,
      "کند": 9289,
      "ريٽر": 9290,
      "بيڊ": 9291,
      "يڪري": 9292,
      "معامل": 9293,
      "محب": 9294,
      "يعت": 9295,
      "ind": 9296,
      "150": 9297,
      "taj": 9298,
      "اڙهي": 9299,
      "بڻيل": 9300,
      "\"۽": 9301,
      "95": 9302,
      "ist": 9303,
      "خص": 9304,
      "رڳ": 9305,
      "ضو": 9306,
      "هشت": 9307,
      "گی": 9308,
      "##tp": 9309,
      "هوت": 9310,
      "مدني": 9311,
      "وريءَ": 9312,
      "عنده": 9313,
      "bil": 9314,
      "quote": 9315,
      "ood": 9316,
      "اڱڻ": 9317,
      "ذهانت": 9318,
      "ٺهڻ": 9319,
      "##يش": 9320,
      "انــ": 9321,
      "روڙ": 9322,
      "ٿيند": 9323,
      "هما": 9324,
      "گھا": 9325,
      "داغ": 9326,
      "عدن": 9327,
      "ربن": 9328,
      "لقب": 9329,
      "ww": 9330,
      "عضو": 9331,
      "وجن": 9332,
      "يئن": 9333,
      "ڪدم": 9334,
      "##کا": 9335,
      "##پا": 9336,
      "نداري": 9337,
      "وڪرين": 9338,
      "shi": 9339,
      "met": 9340,
      "مداح": 9341,
      "ڏٺم": 9342,
      "39": 9343,
      "43": 9344,
      "fre": 9345,
      "آيد": 9346,
      "لهن": 9347,
      "لند": 9348,
      "ولف": 9349,
      "ُه": 9350,
      "گاري": 9351,
      "##ml": 9352,
      "##ينا": 9353,
      "لابي": 9354,
      "##يات": 9355,
      "باا": 9356,
      "بته": 9357,
      "رتن": 9358,
      "pad": 9359,
      "ڪٿا": 9360,
      "ast": 9361,
      "ثم": 9362,
      "رڪو": 9363,
      "عاج": 9364,
      "لبي": 9365,
      "يجو": 9366,
      "ڪائو": 9367,
      "ین": 9368,
      "##سه": 9369,
      "##آل": 9370,
      "ڪروم": 9371,
      "يوت": 9372,
      "ڳاله": 9373,
      "اپا": 9374,
      "وڙڻ": 9375,
      "ديوي": 9376,
      "amro": 9377,
      "زلزلي": 9378,
      "hy": 9379,
      "ze": 9380,
      "ئت": 9381,
      "زب": 9382,
      "ٺٽي": 9383,
      "ڙهڻ": 9384,
      "ڪڪر": 9385,
      "اسرا": 9386,
      "ڪوچ": 9387,
      "ورڇ": 9388,
      "sti": 9389,
      "لمس": 9390,
      "وڙيو": 9391,
      "حث": 9392,
      "صيد": 9393,
      "فش": 9394,
      "لول": 9395,
      "ٻلي": 9396,
      "##فف": 9397,
      "واست": 9398,
      "پيٽر": 9399,
      "ائب": 9400,
      "ترس": 9401,
      "مشي": 9402,
      "ازي": 9403,
      "تحف": 9404,
      "فوا": 9405,
      "tic": 9406,
      "رفان": 9407,
      "سحر": 9408,
      "hua": 9409,
      "bra": 9410,
      "ud": 9411,
      "آري": 9412,
      "ئرل": 9413,
      "مة": 9414,
      "هوري": 9415,
      "##روك": 9416,
      "سوئي": 9417,
      "نيان": 9418,
      "ڏيئ": 9419,
      "نوا": 9420,
      "نوح": 9421,
      "لوي": 9422,
      "جهت": 9423,
      "فوڊ": 9424,
      "پڙها": 9425,
      "وليا": 9426,
      "ٽوڪ": 9427,
      "ستقب": 9428,
      "سورج": 9429,
      "اٽڪ": 9430,
      "وبه": 9431,
      "پني": 9432,
      "کت": 9433,
      "##حح": 9434,
      "اله": 9435,
      "رايا": 9436,
      "ميڙ": 9437,
      "ڪجه": 9438,
      "برج": 9439,
      "وفاق": 9440,
      "che": 9441,
      "قصه": 9442,
      "وکر": 9443,
      "مطالع": 9444,
      "fra": 9445,
      "دال": 9446,
      "رئ": 9447,
      "مرو": 9448,
      "ڏن": 9449,
      "لاه": 9450,
      "نادر": 9451,
      "يڪيو": 9452,
      "افس": 9453,
      "وڪڻڻ": 9454,
      "سگھج": 9455,
      "وده": 9456,
      "dr": 9457,
      "عكس": 9458,
      "غني": 9459,
      "كدا": 9460,
      "مــ": 9461,
      "ڀٽ": 9462,
      "چري": 9463,
      "کڙ": 9464,
      "ڪڏ": 9465,
      "ھد": 9466,
      "ھڙو": 9467,
      "##فل": 9468,
      "##یں": 9469,
      "##عع": 9470,
      "##كل": 9471,
      "##الا": 9472,
      "لاڻ": 9473,
      "پيمان": 9474,
      "نوم": 9475,
      "هلن": 9476,
      "حقيق": 9477,
      "رجا": 9478,
      "ali": 9479,
      "هندس": 9480,
      "منتظ": 9481,
      "نرس": 9482,
      "44": 9483,
      "mart": 9484,
      "صال": 9485,
      "غز": 9486,
      "فتي": 9487,
      "##دل": 9488,
      "##بع": 9489,
      "##ينه": 9490,
      "اسد": 9491,
      "الر": 9492,
      "راغ": 9493,
      "هلڪي": 9494,
      "اڪبر": 9495,
      "پڇا": 9496,
      "يشر": 9497,
      "يٽرن": 9498,
      "جماع": 9499,
      "جبهه": 9500,
      "ٺيون": 9501,
      "clo": 9502,
      "om": 9503,
      "ئڪ": 9504,
      "اشت": 9505,
      "دڙي": 9506,
      "ديم": 9507,
      "صفر": 9508,
      "ڏھ": 9509,
      "ڙيو": 9510,
      "ڙائي": 9511,
      "کوڙ": 9512,
      "ڪچي": 9513,
      "##آر": 9514,
      "پوڊ": 9515,
      "دران": 9516,
      "نوڪ": 9517,
      "تما": 9518,
      "اشي": 9519,
      "بطن": 9520,
      "zone": 9521,
      "حز": 9522,
      "ڍن": 9523,
      "##ka": 9524,
      "ميون": 9525,
      "معت": 9526,
      "فيل": 9527,
      "اجا": 9528,
      "ڻيون": 9529,
      "مبروك": 9530,
      "log": 9531,
      "400": 9532,
      "way": 9533,
      "not": 9534,
      "wat": 9535,
      "اى": 9536,
      "جڙي": 9537,
      "داز": 9538,
      "رڪر": 9539,
      "طن": 9540,
      "عة": 9541,
      "لڪيل": 9542,
      "ڀنگ": 9543,
      "ڌن": 9544,
      "ڍڪ": 9545,
      "ڏج": 9546,
      "##عل": 9547,
      "ريقا": 9548,
      "ڏينه": 9549,
      "شاٽ": 9550,
      "سندو": 9551,
      "ٽيشن": 9552,
      "يتك": 9553,
      "چوند": 9554,
      "وسن": 9555,
      "نيوي": 9556,
      "لسه": 9557,
      "iso": 9558,
      "عترف": 9559,
      "//": 9560,
      "ea": 9561,
      "lt": 9562,
      "ڊف": 9563,
      "ڪثر": 9564,
      "##اط": 9565,
      "اسو": 9566,
      "سوز": 9567,
      "هات": 9568,
      "ڪارن": 9569,
      "اپي": 9570,
      "خطن": 9571,
      "حضر": 9572,
      "صلح": 9573,
      "هيرن": 9574,
      "دة": 9575,
      "دخت": 9576,
      "ضما": 9577,
      "لانگ": 9578,
      "يغ": 9579,
      "##ek": 9580,
      "##ڄي": 9581,
      "ڪرم": 9582,
      "ريما": 9583,
      "ابق": 9584,
      "نجا": 9585,
      "ko": 9586,
      "داني": 9587,
      "عدي": 9588,
      "نــ": 9589,
      "ٽئ": 9590,
      "##بـ": 9591,
      "ناج": 9592,
      "اوج": 9593,
      "ڪاسٽ": 9594,
      "لوپ": 9595,
      "اشو": 9596,
      "رمائ": 9597,
      "معاو": 9598,
      "دٻي": 9599,
      "64": 9600,
      "han": 9601,
      "دت": 9602,
      "شمو": 9603,
      "عدو": 9604,
      "ُم": 9605,
      "ڇي": 9606,
      "کی": 9607,
      "##لك": 9608,
      "انسپ": 9609,
      "واک": 9610,
      "هيج": 9611,
      "اڻپ": 9612,
      "اجه": 9613,
      "خطر": 9614,
      "يٽس": 9615,
      "دفع": 9616,
      "رهون": 9617,
      "يزان": 9618,
      "ڪڪڙ": 9619,
      "gro": 9620,
      "sn": 9621,
      "تاني": 9622,
      "جڙ": 9623,
      "لڊر": 9624,
      "وبي": 9625,
      "##أأ": 9626,
      "موج": 9627,
      "ويري": 9628,
      "ويلي": 9629,
      "نيش": 9630,
      "ڊيڄ": 9631,
      "پيشي": 9632,
      "يانگ": 9633,
      "پاڻيء": 9634,
      "سيٽن": 9635,
      "dia": 9636,
      "37": 9637,
      "pc": 9638,
      "اٻ": 9639,
      "تجي": 9640,
      "دائو": 9641,
      "پسي": 9642,
      "پگه": 9643,
      "ڊون": 9644,
      "ھان": 9645,
      "روين": 9646,
      "هربان": 9647,
      "ازد": 9648,
      "نڊون": 9649,
      "لهائڻ": 9650,
      "لمه": 9651,
      "چڱا": 9652,
      "رھڻ": 9653,
      "ريڪٽ": 9654,
      "هيڪر": 9655,
      "عجبت": 9656,
      "مركز": 9657,
      "آله": 9658,
      "اضي": 9659,
      "ٽس": 9660,
      "ڙين": 9661,
      "ڪک": 9662,
      "ڳر": 9663,
      "##bo": 9664,
      "##ti": 9665,
      "##sh": 9666,
      "##ونه": 9667,
      "ويم": 9668,
      "يوزر": 9669,
      "سيءَ": 9670,
      "فرش": 9671,
      "پنن": 9672,
      "##ari": 9673,
      "ريات": 9674,
      "يڊي": 9675,
      "بچائ": 9676,
      "برادر": 9677,
      "عوامل": 9678,
      "شمس": 9679,
      "bit": 9680,
      "وصف": 9681,
      "اٺن": 9682,
      "work": 9683,
      "اڍا": 9684,
      "لقيت": 9685,
      "af": 9686,
      "sl": 9687,
      "ثبت": 9688,
      "جلا": 9689,
      "سڙي": 9690,
      "عمي": 9691,
      "يڙه": 9692,
      "ڏکي": 9693,
      "الهي": 9694,
      "ڪيش": 9695,
      "ليبل": 9696,
      "يلين": 9697,
      "اُت": 9698,
      "رسائ": 9699,
      "int": 9700,
      "هُئ": 9701,
      "يداري": 9702,
      "ھيون": 9703,
      "وڙين": 9704,
      "ريڪي": 9705,
      "وتن": 9706,
      "چاھي": 9707,
      "ويڪسي": 9708,
      "get": 9709,
      "tro": 9710,
      "ثل": 9711,
      "دڙ": 9712,
      "قض": 9713,
      "قمر": 9714,
      "وسا": 9715,
      "ٽڪي": 9716,
      "پلا": 9717,
      "کانئ": 9718,
      "جاز": 9719,
      "سيب": 9720,
      "ڪنج": 9721,
      "دود": 9722,
      "عمو": 9723,
      "خاطب": 9724,
      "www": 9725,
      "42": 9726,
      "85": 9727,
      "ok": 9728,
      "part": 9729,
      "ئم": 9730,
      "تام": 9731,
      "زه": 9732,
      "وڍ": 9733,
      "يبر": 9734,
      "##شد": 9735,
      "##ٽس": 9736,
      "##ھا": 9737,
      "موسي": 9738,
      "روه": 9739,
      "ارک": 9740,
      "لوڏ": 9741,
      "وريو": 9742,
      "رجال": 9743,
      "rou": 9744,
      "شته": 9745,
      "iti": 9746,
      "ort": 9747,
      "post": 9748,
      "car": 9749,
      "eي": 9750,
      "ااه": 9751,
      "حامل": 9752,
      "لندي": 9753,
      "َم": 9754,
      "ٻٽي": 9755,
      "ڪف": 9756,
      "۾؟": 9757,
      "##که": 9758,
      "اوڙ": 9759,
      "هادي": 9760,
      "نواف": 9761,
      "يمس": 9762,
      "داسي": 9763,
      "مرتضي": 9764,
      "دائود": 9765,
      "41": 9766,
      "رڌ": 9767,
      "صر": 9768,
      "يالي": 9769,
      "##يـ": 9770,
      "لاقي": 9771,
      "واڳ": 9772,
      "سيس": 9773,
      "امو": 9774,
      "وريج": 9775,
      "هلون": 9776,
      "ڪلپ": 9777,
      "مٿن": 9778,
      "ايوا": 9779,
      "پُٽ": 9780,
      "طارق": 9781,
      "جولاء": 9782,
      "fli": 9783,
      "ji": 9784,
      "شهور": 9785,
      "لقا": 9786,
      "ٽچ": 9787,
      "کندڙ": 9788,
      "##ad": 9789,
      "##ڀي": 9790,
      "انم": 9791,
      "الج": 9792,
      "ٿيس": 9793,
      "ايب": 9794,
      "اوى": 9795,
      "يڪن": 9796,
      "نيءَ": 9797,
      "شيٽ": 9798,
      "ــك": 9799,
      "دوس": 9800,
      "قويه": 9801,
      "تقد": 9802,
      "گيج": 9803,
      "لينا": 9804,
      "رحيم": 9805,
      "اھڙ": 9806,
      "سڏين": 9807,
      "ama": 9808,
      "ڳڻپ": 9809,
      "tube": 9810,
      "راغب": 9811,
      "sch": 9812,
      "جگر": 9813,
      "حــــ": 9814,
      "شون": 9815,
      "قمي": 9816,
      "لفت": 9817,
      "نٽر": 9818,
      "پست": 9819,
      "##آء": 9820,
      "هاس": 9821,
      "سافر": 9822,
      "ٻيڙ": 9823,
      "ديري": 9824,
      "ڊائري": 9825,
      "شدن": 9826,
      "يليون": 9827,
      "زنان": 9828,
      "ڄمڻ": 9829,
      "سٺن": 9830,
      "لاٿو": 9831,
      "au": 9832,
      "tri": 9833,
      "ئد": 9834,
      "تپ": 9835,
      "خن": 9836,
      "نثر": 9837,
      "ُت": 9838,
      "ٻڏي": 9839,
      "کش": 9840,
      "ھجڻ": 9841,
      "##so": 9842,
      "##sk": 9843,
      "##کس": 9844,
      "##ou": 9845,
      "##ٽن": 9846,
      "انھي": 9847,
      "جناح": 9848,
      "نگه": 9849,
      "ولس": 9850,
      "خطا": 9851,
      "رنج": 9852,
      "اڇا": 9853,
      "لغت": 9854,
      "هيئت": 9855,
      "معاهد": 9856,
      "بب": 9857,
      "تقي": 9858,
      "جال": 9859,
      "خه": 9860,
      "لڄ": 9861,
      "لاني": 9862,
      "هڙو": 9863,
      "چڪ": 9864,
      "ڪيچ": 9865,
      "ئيءَ": 9866,
      "هيري": 9867,
      "مانن": 9868,
      "بيٺ": 9869,
      "ائع": 9870,
      "سالگ": 9871,
      "ترح": 9872,
      "نوري": 9873,
      "دادا": 9874,
      "سُر": 9875,
      "أخي": 9876,
      "ڍنڍ": 9877,
      "51": 9878,
      "cla": 9879,
      "pst": 9880,
      "tw": 9881,
      "جهند": 9882,
      "صا": 9883,
      "هــــ": 9884,
      "يڙي": 9885,
      "ٽال": 9886,
      "انى": 9887,
      "نهون": 9888,
      "ماند": 9889,
      "ائنس": 9890,
      "يڪڙ": 9891,
      "ترت": 9892,
      "يترا": 9893,
      "مدن": 9894,
      "چوڌر": 9895,
      "ووي": 9896,
      "پڇو": 9897,
      "ang": 9898,
      "يشو": 9899,
      "ركب": 9900,
      "marte": 9901,
      "fl": 9902,
      "بزن": 9903,
      "تــ": 9904,
      "رمو": 9905,
      "علوم": 9906,
      "غال": 9907,
      "فقي": 9908,
      "قف": 9909,
      "قصو": 9910,
      "نرو": 9911,
      "وله": 9912,
      "ڊڪ": 9913,
      "جور": 9914,
      "جوئ": 9915,
      "واش": 9916,
      "ورق": 9917,
      "همٿ": 9918,
      "نقاب": 9919,
      "وقار": 9920,
      "يگن": 9921,
      "سوره": 9922,
      "نهنجي": 9923,
      "ترڪيب": 9924,
      "pdf": 9925,
      "dra": 9926,
      "تـــ": 9927,
      "لڻ": 9928,
      "لسا": 9929,
      "مڇ": 9930,
      "وجي": 9931,
      "وچي": 9932,
      "ٿاڻي": 9933,
      "کڙي": 9934,
      "ڪفر": 9935,
      "گلا": 9936,
      "##صص": 9937,
      "الها": 9938,
      "ميلو": 9939,
      "ارل": 9940,
      "نگري": 9941,
      "اڻه": 9942,
      "اليا": 9943,
      "لهائي": 9944,
      "وبس": 9945,
      "رنه": 9946,
      "tag": 9947,
      "nda": 9948,
      "بكل": 9949,
      "http": 9950,
      "قبيلي": 9951,
      "xia": 9952,
      "رها": 9953,
      "طم": 9954,
      "عس": 9955,
      "فڪ": 9956,
      "نارو": 9957,
      "هنوز": 9958,
      "##نيف": 9959,
      "نوف": 9960,
      "وڪڻ": 9961,
      "اكت": 9962,
      "بغي": 9963,
      "سارنگ": 9964,
      "وفد": 9965,
      "htc": 9966,
      "html": 9967,
      "fla": 9968,
      "ul": 9969,
      "آغا": 9970,
      "بتي": 9971,
      "تسا": 9972,
      "حبه": 9973,
      "ٽٽي": 9974,
      "ٿائ": 9975,
      "ڪاڻ": 9976,
      "##ٻڙ": 9977,
      "##pa": 9978,
      "##طس": 9979,
      "هيد": 9980,
      "مونک": 9981,
      "هران": 9982,
      "سمن": 9983,
      "فيض": 9984,
      "بره": 9985,
      "##ڪرت": 9986,
      "انته": 9987,
      "يفڪ": 9988,
      "\"،": 9989,
      "pen": 9990,
      "بكم": 9991,
      "حكم": 9992,
      "ســــ": 9993,
      "عـــ": 9994,
      "فيا": 9995,
      "لئي": 9996,
      "مى": 9997,
      "چڻ": 9998,
      "ڊيا": 9999
    }
  }
}