<unk>	0
<s>	0
</s>	0
.	-3.3089
▁جي	-3.56713
▁آهي	-4.09787
▁۾	-4.124
،	-4.18025
▁کي	-4.25439
▁۽	-4.31965
▁جو	-4.52613
▁ته	-4.63499
▁.	-4.6489
ن	-4.80335
▁تي	-4.84254
▁،	-4.91595
ي	-4.97602
▁هڪ	-5.02507
▁سان	-5.11263
:	-5.11488
▁کان	-5.13795
▁نه	-5.16264
▁ڪري	-5.23015
▁به	-5.27937
▁هن	-5.29614
▁آهن	-5.35919
▁ان	-5.39008
▁ڪرڻ	-5.41226
▁هو	-5.43529
▁ٿي	-5.45848
▁ٿو	-5.47255
▁اسان	-5.48318
▁"	-5.48989
▁اهو	-5.51176
▁لاءِ	-5.52526
ه	-5.642
▁توهان	-5.71539
▁يا	-5.72854
▁ڪيو	-5.73699
▁مان	-5.82688
▁(	-5.83871
و	-5.84307
)	-5.86604
▁مون	-5.89278
ا	-5.94038
▁ٿا	-5.94142
▁	-5.95165
▁جا	-5.98126
▁پر	-6.05492
▁ئي	-6.08793
▁پنهنجي	-6.08931
▁لاء	-6.11069
؟	-6.12985
▁ويو	-6.13126
▁انهن	-6.19294
▁و	-6.20975
▁طور	-6.21329
▁-	-6.3043
!	-6.33551
"	-6.36757
▁وڌيڪ	-6.42642
▁وقت	-6.42964
ون	-6.43652
▁هي	-6.46503
ـ	-6.50341
م	-6.53476
▁ڇا	-6.5517
▁هر	-6.56008
س	-6.58746
▁استعمال	-6.59322
▁ڪئي	-6.59503
▁جنهن	-6.59716
▁ڪم	-6.61088
▁آھي	-6.62593
ءَ	-6.63063
▁هئي	-6.63748
▁اهي	-6.65034
▁تائين	-6.65482
▁جيڪو	-6.67275
▁ڪنهن	-6.67445
,	-6.67654
ت	-6.68235
▁اي	-6.70238
▁ڪريو	-6.72606
▁ڪو	-6.73246
▁ڪجهه	-6.73737
▁واري	-6.74868
▁اها	-6.76255
▁چيو	-6.77402
-	-6.78296
▁جڏهن	-6.79657
▁وڃي	-6.80488
▁ڏينهن	-6.80549
▁سڀ	-6.81141
ع	-6.82835
▁ههههههههه	-6.83226
▁جيڪي	-6.83235
▁بس	-6.8347
ل	-6.83658
ين	-6.88639
▁پوءِ	-6.8917
▁حاصل	-6.89533
▁منهنجي	-6.91692
▁سندس	-6.92787
▁بي	-6.9535
▁ههههههههههه	-6.96134
▁جيڪڏهن	-6.96271
ر	-6.96796
▁پاڻ	-6.98112
▁سال	-6.98718
▁سگهي	-6.9957
▁تمام	-6.99856
ان	-7.01102
▁ما	-7.01475
▁ههههههه	-7.01895
ك	-7.02235
▁گڏ	-7.02319
▁ناهي	-7.03355
▁سي	-7.03792
▁الله	-7.0488
▁از	-7.05261
▁دنيا	-7.07823
▁من	-7.09441
▁رهيو	-7.10103
ز	-7.10328
▁ٿيو	-7.10583
▁وئي	-7.14567
ــ	-7.18467
▁تون	-7.19645
▁ويندو	-7.20037
▁ها	-7.20826
▁ههههههههههههههه	-7.2186
▁صرف	-7.22444
▁هههههههههه	-7.22668
▁وڏي	-7.22782
▁پڻ	-7.23038
▁انهي	-7.23409
▁جون	-7.24358
▁ماڻهو	-7.24603
▁اچي	-7.24705
▁ٿيڻ	-7.24962
ها	-7.2589
▁ڪڏهن	-7.25993
ة	-7.26039
▁وٽ	-7.26137
▁پي	-7.26197
▁ويا	-7.27297
▁ضرورت	-7.2866
▁ڪيئن	-7.29914
▁هههههههه	-7.30626
▁ڪندو	-7.31142
▁در	-7.31622
▁شروع	-7.3177
▁بابت	-7.31961
▁رهي	-7.32429
▁سڀني	-7.32607
▁ههههههههههههه	-7.32692
▁ماڻهن	-7.32958
▁آ	-7.33244
▁اڳ	-7.33249
▁جيئن	-7.34107
▁طرح	-7.35275
▁ڪن	-7.35334
▁في	-7.35797
▁اين	-7.35897
▁ٻئي	-7.3597
▁شامل	-7.36442
▁ڇو	-7.37895
▁مختلف	-7.38745
▁جن	-7.38978
s	-7.39416
▁ڪندا	-7.40402
▁هئا	-7.40407
▁هههههههههههه	-7.40679
▁وارو	-7.41593
▁عام	-7.41697
▁ي	-7.42095
▁ا	-7.42269
▁لا	-7.4228
▁مي	-7.42439
ِ	-7.43788
▁م	-7.44244
▁ڳالهه	-7.44461
▁آهيان	-7.44627
▁رهيا	-7.45041
▁گهر	-7.45231
▁يعني	-7.45592
ڪ	-7.45646
▁ههههه	-7.45727
▁پيش	-7.47108
ـــ	-7.47476
▁ڪا	-7.47845
▁ڏانهن	-7.48207
▁گهرجي	-7.48715
▁ڏيڻ	-7.5064
▁خاص	-7.50701
▁تو	-7.50965
▁هوندو	-7.51175
َ	-7.52261
▁عمل	-7.5243
▁مدد	-7.5298
▁جيڪا	-7.53406
▁غير	-7.53913
▁اڄ	-7.54124
▁نظر	-7.55059
▁ٻين	-7.5527
▁موجود	-7.55456
▁آئون	-7.55586
▁زندگي	-7.56349
▁مڪمل	-7.56712
▁هوندي	-7.57277
▁آهيون	-7.57719
د	-7.5792
جي	-7.58021
▁ڪندي	-7.58316
ڻ	-7.58441
ش	-7.58785
▁ٿيل	-7.59006
▁نالو	-7.59423
▁سبب	-7.5996
▁اندر	-7.5999
▁نئين	-7.60397
▁ايس	-7.60859
▁ملڪ	-7.61341
▁2	-7.61452
▁کيس	-7.6187
▁گهڻو	-7.62155
▁پهرين	-7.64032
▁قسم	-7.64443
▁_	-7.64817
▁دل	-7.64847
▁خبر	-7.65032
▁او	-7.65053
▁ختم	-7.6524
▁ڊي	-7.65458
يءَ	-7.6557
▁هتي	-7.65612
▁گهٽ	-7.66133
▁'	-7.66316
▁پنهنجو	-7.66672
▁ٽي	-7.66678
▁ب	-7.66912
▁1	-7.66954
▁آھن	-7.67107
▁سگهو	-7.6721
▁هاڻي	-7.67574
▁ڪتاب	-7.67574
▁وري	-7.67591
▁!	-7.67941
▁بعد	-7.6796
▁3	-7.68439
▁ٿيندو	-7.68579
ب	-7.68665
▁هههههه	-7.68729
▁تنهن	-7.68816
نگ	-7.68823
▁هههههههههههههه	-7.68878
▁س	-7.69517
▁/	-7.69541
▁ڇڏيو	-7.69545
▁شايد	-7.70499
▁ايم	-7.7084
▁اهڙي	-7.71105
▁ٿئي	-7.71132
▁انا	-7.71159
▁ڏئي	-7.71478
▁شي	-7.71504
▁سالن	-7.71684
▁اهم	-7.7249
▁وڏو	-7.73568
▁پيدا	-7.73587
▁آن	-7.73866
▁جواب	-7.73907
▁وچ	-7.74605
▁پيو	-7.75439
ات	-7.76288
▁آئي	-7.7675
▁ڏنو	-7.76852
▁ڪندڙ	-7.77352
'	-7.77625
▁بهترين	-7.78251
▁آيو	-7.78254
▁؟	-7.78274
▁ياد	-7.78383
؛	-7.79625
▁مطلب	-7.79784
▁ٻه	-7.79905
▁وٺي	-7.80006
▁هجي	-7.80309
▁تاريخ	-7.80385
ج	-7.80418
▁شهر	-7.80845
▁منهنجو	-7.80938
▁5	-7.81732
ئي	-7.8225
▁فون	-7.82272
▁پئي	-7.8228
▁ويب	-7.82582
▁عليه	-7.83274
▁ٻيو	-7.83668
▁وانگر	-7.83727
▁پوء	-7.83975
▁بند	-7.84047
▁ال	-7.84188
▁سنڌ	-7.84716
▁ذريعي	-7.84877
▁سو	-7.84941
▁ڇڏي	-7.85137
▁وي	-7.85198
▁اوهان	-7.85879
▁ڪيا	-7.86386
▁رات	-7.8745
▁انسان	-7.87514
▁ڪوشش	-7.87799
▁توھان	-7.8832
▁صحيح	-7.89233
▁ڪيل	-7.90681
▁ع	-7.90774
ى	-7.91613
▁ڏسي	-7.91704
▁خيال	-7.92453
▁قيمت	-7.9345
▁اوھان	-7.93714
▁ت	-7.94382
▁اڃا	-7.94465
▁حل	-7.9453
▁ڪي	-7.94745
▁جاري	-7.94798
▁دوران	-7.95282
▁ادا	-7.95338
▁ترقي	-7.95362
▁اتي	-7.96086
▁آهيو	-7.96164
▁والله	-7.96459
نا	-7.96793
ٽ	-7.96924
▁سائيٽ	-7.97111
▁ائين	-7.97563
▁4	-7.97625
▁اصل	-7.97673
▁ڪيترن	-7.97796
▁ملي	-7.98131
▁ضروري	-7.98271
ُ	-7.98598
▁سوال	-7.98796
▁ظاهر	-7.99099
▁ويندي	-7.99274
▁هٿ	-7.99375
▁مواد	-7.99566
▁10	-7.99599
▁حصو	-7.99855
ائي	-8.00094
▁بهتر	-8.00129
▁طرف	-8.00715
▁خدا	-8.00773
▁جتي	-8.00906
▁آسان	-8.01617
▁ڪمپني	-8.01928
▁سندن	-8.02016
ري	-8.02163
▁حقيقت	-8.02731
▁سفر	-8.03164
▁لڳي	-8.03353
▁پاڪستان	-8.03384
▁رکي	-8.04087
▁محسوس	-8.04347
▁پهريون	-8.04891
▁هنن	-8.05235
ني	-8.0556
▁ڏسڻ	-8.05999
▁هوندا	-8.06814
▁ڪر	-8.0682
▁بيان	-8.07077
▁صاحب	-8.07085
▁حق	-8.0728
▁دور	-8.07328
▁اسين	-8.07601
تي	-8.07901
▁هيٺ	-8.08026
▁مٿي	-8.08313
▁على	-8.08596
▁معيار	-8.08663
▁آمريڪا	-8.08829
▁عمر	-8.0893
▁ن	-8.09142
▁اھو	-8.0939
▁ٻي	-8.09518
▁ڏي	-8.09623
ف	-8.0975
▁دوست	-8.1023
▁خلاف	-8.10277
▁طرفان	-8.10567
▁حڪومت	-8.10734
▁سر	-8.10764
▁ولا	-8.11017
▁وارا	-8.11453
ــــ	-8.11583
▁رکڻ	-8.11613
؟"	-8.11628
▁رڳو	-8.11788
▁ٻن	-8.11827
▁سگهجي	-8.12302
▁ٿيون	-8.12451
ههههههههه	-8.13219
▁ٻاهر	-8.13809
▁صورت	-8.13927
▁تنهنجي	-8.14266
▁پيار	-8.14647
▁ھن	-8.14707
▁رد	-8.14978
هه	-8.15025
ی	-8.15064
▁پاڻي	-8.15225
▁پيداوار	-8.15551
▁واپس	-8.15609
▁تبديل	-8.15976
▁تيار	-8.16013
▁لي	-8.16106
▁است	-8.16389
▁مثال	-8.16922
▁لائن	-8.1731
▁ڏني	-8.17363
▁پسند	-8.17371
يا	-8.17554
▁ڊيٽا	-8.17693
▁هوءَ	-8.18069
▁بر	-8.18551
▁اثر	-8.19098
▁ڇاڪاڻ	-8.19478
▁مشهور	-8.19486
▁مو	-8.19573
يو	-8.19968
▁تان	-8.20364
▁ايران	-8.20381
▁آخر	-8.20442
كم	-8.20462
يل	-8.20499
▁چين	-8.20551
▁قابل	-8.20711
▁چوڻ	-8.20828
▁ڪيترائي	-8.21005
▁ٻار	-8.21661
▁عورت	-8.21688
▁نظام	-8.22091
▁ڏيو	-8.2211
▁ٻنهي	-8.22617
▁خوش	-8.22676
▁انهيءَ	-8.22744
▁هميشه	-8.2281
▁رنگ	-8.22874
يون	-8.23137
آ	-8.23328
▁داخل	-8.23444
▁هم	-8.23612
لي	-8.23642
▁اجازت	-8.23908
هم	-8.23938
▁ج	-8.23967
▁علي	-8.24117
▁قانون	-8.24654
ہ	-8.25243
▁ٿيندي	-8.25972
▁هذا	-8.26187
▁آيا	-8.26219
▁*	-8.26446
▁مونکي	-8.26497
▁بنيادي	-8.27378
▁نٿو	-8.2749
▁سٺو	-8.27602
▁ڏٺو	-8.27673
وا	-8.27687
▁باري	-8.28033
▁ڪونه	-8.28516
▁وڃڻ	-8.28655
▁يو	-8.29271
▁جيتوڻيڪ	-8.29626
پ	-8.29796
▁محفوظ	-8.29966
▁توکي	-8.3001
▁قائم	-8.30854
ال	-8.31022
يه	-8.31362
▁جنگ	-8.31528
▁بين	-8.31607
▁ھو	-8.31628
▁6	-8.31699
▁پ	-8.32065
▁با	-8.32137
▁واقعي	-8.33382
▁معلومات	-8.33507
▁اميد	-8.33548
▁ڪجھ	-8.33654
▁ل	-8.33723
▁کڻي	-8.34174
هههههههه	-8.34329
▁نئون	-8.34357
▁سخت	-8.34587
▁ڪ	-8.34914
▁ڪير	-8.35316
▁لفظ	-8.35326
▁شيء	-8.35543
▁خريد	-8.35863
▁هجڻ	-8.36048
ار	-8.36197
▁آواز	-8.366
▁مقصد	-8.37128
▁,	-8.37219
▁اول	-8.37664
▁پنھنجي	-8.37678
▁مطابق	-8.37713
▁فراهم	-8.37823
▁زمين	-8.37852
▁تعليم	-8.38057
▁آخري	-8.38141
▁اڪثر	-8.38289
▁8	-8.38383
▁ھڪ	-8.38512
▁آر	-8.38539
▁محبت	-8.38768
▁شين	-8.3897
▁شو	-8.39053
▁سگھي	-8.39464
▁نالي	-8.39544
▁کانپوءِ	-8.39565
▁ه	-8.39749
▁چڪو	-8.40511
▁سيڪڙو	-8.40585
▁هيو	-8.40642
▁اسلامي	-8.41023
▁هههه	-8.41084
▁منهن	-8.41121
▁وارن	-8.41217
ههههههه	-8.41676
▁حد	-8.4178
▁ٻارن	-8.42327
▁گھر	-8.42492
▁آزاد	-8.42528
▁ويندا	-8.42569
▁مارڪيٽ	-8.42779
▁ٻيهر	-8.43198
▁مفت	-8.43323
▁سڄي	-8.43657
▁چي	-8.43804
▁فقط	-8.44207
▁را	-8.44612
▁لو	-8.44869
▁جسم	-8.45018
▁20	-8.45141
▁ڪهڙي	-8.45482
▁سگهن	-8.45593
ء	-8.45813
▁فيصلو	-8.4601
▁موضوع	-8.46213
▁که	-8.46344
▁اختيار	-8.46621
▁<	-8.46655
▁چه	-8.46859
▁پاران	-8.46917
▁شادي	-8.46918
بي	-8.46945
▁رو	-8.46996
▁ٻڌايو	-8.47025
▁باقي	-8.47033
▁طريقي	-8.47044
▁7	-8.47068
▁بنياد	-8.47104
▁انداز	-8.47337
▁مناسب	-8.4764
ڊ	-8.4775
▁ڪافي	-8.47753
▁سياسي	-8.48033
▁اچڻ	-8.48122
▁درخواست	-8.48562
/	-8.49264
▁قدم	-8.49449
▁اڳتي	-8.49537
▁ورتو	-8.49871
▁ام	-8.49893
▁تحقيق	-8.50507
▁غلط	-8.50712
▁عالمي	-8.51273
▁نن	-8.51427
ندي	-8.51658
▁تن	-8.51686
▁اسڪول	-8.51859
▁ايندڙ	-8.52627
▁شيون	-8.52664
▁سائين	-8.5275
▁ميڊيا	-8.52792
▁پروگرام	-8.52937
▁ابو	-8.52942
▁پيا	-8.52958
هههههههههه	-8.53045
▁ممڪن	-8.53089
▁آف	-8.53386
▁ڏسو	-8.53538
ق	-8.5359
▁بار	-8.53591
▁پٽ	-8.53719
▁ملڪن	-8.53891
▁A	-8.54308
▁شخص	-8.54524
رو	-8.54618
▁ڪاروبار	-8.5485
▁ڪار	-8.54898
▁چاهيو	-8.55202
▁ضرور	-8.55245
▁ڪٿي	-8.55445
ندو	-8.55507
▁آمريڪي	-8.55538
▁سطح	-8.55585
▁اپ	-8.55652
▁گهڻي	-8.55753
▁ذاتي	-8.56101
▁ترتيب	-8.56427
▁السلام	-8.56496
▁شروعات	-8.56529
▁ٿيا	-8.56793
▁خود	-8.56846
▁خراب	-8.56959
▁ھي	-8.57208
▁مش	-8.57511
▁كل	-8.57555
▁مهرباني	-8.57676
▁واحد	-8.57884
▁پري	-8.58012
ک	-8.58155
▁اعلان	-8.58431
▁نقصان	-8.58627
▁راند	-8.58754
▁حالت	-8.59078
▁فارم	-8.59285
▁آءٌ	-8.5944
▁صدر	-8.59855
▁مسئلو	-8.60079
▁سسٽم	-8.60142
▁بڻجي	-8.60212
▁[	-8.60308
▁ٽيڪنالاجي	-8.6046
ح	-8.60477
ور	-8.60504
▁ايل	-8.61149
▁انھن	-8.61266
سي	-8.6161
▁18	-8.61807
▁تڏهن	-8.62042
▁حقيقي	-8.62508
]	-8.62541
▁سا	-8.62729
▁ميل	-8.6279
▁15	-8.63085
▁چئي	-8.63125
▁جدا	-8.6321
ههههههههههه	-8.63448
▁ڏنل	-8.63527
▁نمبر	-8.63956
▁گوگل	-8.64011
▁تصوير	-8.64192
▁جان	-8.64309
▁ڄڻ	-8.64441
▁حڪم	-8.64988
▁طريقو	-8.65103
▁وڃن	-8.65397
▁سٺي	-8.65524
▁چار	-8.65562
▁عورتن	-8.65619
▁دير	-8.65725
▁سامان	-8.65999
▁ڪجي	-8.66001
▁اسلام	-8.66195
▁ڊاڪٽر	-8.66207
▁خدمت	-8.66259
▁لڳو	-8.66263
▁طاقت	-8.66362
هن	-8.66406
ـــــ	-8.66523
▁موت	-8.66589
▁اعلي	-8.66768
▁پوري	-8.66801
▁ٺاهڻ	-8.6688
▁انساني	-8.66882
▁ڪردار	-8.66936
▁خوبصورت	-8.6704
D	-8.67222
▁ماءُ	-8.67277
▁جديد	-8.67305
يت	-8.675
▁ڪيس	-8.67641
▁>	-8.67808
▁اڪائونٽ	-8.67832
▁اصلي	-8.67951
▁علم	-8.6797
▁مرد	-8.68322
▁پورو	-8.68481
ته	-8.68636
دي	-8.68639
▁سماجي	-8.68752
▁لوڊ	-8.69081
▁سچ	-8.69474
▁پوليس	-8.69569
▁وڌي	-8.69959
اي	-8.70488
٪	-8.7068
▁دي	-8.7076
▁S	-8.70842
▁علاج	-8.71101
▁گذريل	-8.71241
▁ف	-8.71281
▁پوندو	-8.71322
▁واضح	-8.71382
▁اُن	-8.71461
▁قوم	-8.71683
▁صارف	-8.71888
▁وٺڻ	-8.72092
▁لکڻ	-8.72146
▁صحت	-8.72209
▁مقرر	-8.72411
▁انت	-8.7243
▁ڀيرو	-8.72516
▁يقين	-8.72569
▁قومي	-8.72622
▁بلڪل	-8.72693
▁هاي	-8.72763
▁نٿا	-8.72813
▁تيز	-8.73032
▁اکين	-8.73177
▁حضرت	-8.732
2	-8.73253
▁ايه	-8.73265
▁گراهڪن	-8.73295
▁صاف	-8.73301
▁dur	-8.7334
▁حوالي	-8.73429
ڙي	-8.73444
▁start	-8.73489
▁رپورٽ	-8.73628
▁موجب	-8.73805
اڻي	-8.73855
▁ڪوبه	-8.73945
ھ	-8.73992
▁ٻيا	-8.74253
▁عوام	-8.74482
▁مضمون	-8.74533
▁تا	-8.74821
▁30	-8.74851
▁مع	-8.74948
▁جلد	-8.75274
هي	-8.75334
گ	-8.75499
ول	-8.75575
▁موجوده	-8.75723
▁رهڻ	-8.75757
▁مضبوط	-8.75876
▁پڙهڻ	-8.75881
▁ھڪڙو	-8.75969
▁اس	-8.75985
▁پس	-8.76011
▁رقم	-8.76135
▁متاثر	-8.76186
▁انتظار	-8.76265
▁نوجوان	-8.76296
▁ڏيندو	-8.76542
▁احساس	-8.76639
▁بال	-8.76656
ing	-8.7666
▁پاسي	-8.76712
▁عظيم	-8.76737
▁آه	-8.76976
▁خط	-8.76993
▁تعداد	-8.77129
▁ڪيون	-8.77194
▁قبول	-8.77268
▁نموني	-8.77524
▁9	-8.77564
لا	-8.7783
▁هاڻ	-8.77854
▁رياست	-8.78012
جو	-8.78021
▁گڏيل	-8.78095
▁اهڙو	-8.7832
▁فلم	-8.78445
▁لازمي	-8.78451
▁•	-8.78654
▁شرح	-8.78812
▁مهيا	-8.79301
مون	-8.79372
▁صبح	-8.79696
ص	-8.79932
يم	-8.7997
▁روح	-8.79992
▁سواءِ	-8.80141
▁عملي	-8.80287
▁ڌيان	-8.80336
مان	-8.8034
▁تعمير	-8.80765
▁يورپ	-8.80896
اري	-8.81158
▁تعلق	-8.81458
▁خان	-8.81462
▁مال	-8.81616
▁ٽن	-8.81695
را	-8.8173
▁ور	-8.8178
▁ايف	-8.81838
▁زندگيءَ	-8.8195
▁محمد	-8.81986
▁12	-8.82072
▁هيون	-8.82183
اڻ	-8.82336
▁پهچي	-8.82481
▁ڪهڙو	-8.82557
▁ڳوٺ	-8.82609
▁پير	-8.82891
▁پنهنجن	-8.82899
▁فرق	-8.82923
▁ڄاڻ	-8.82981
▁رکيو	-8.83071
▁ذڪر	-8.83391
▁ٽيم	-8.83447
چ	-8.83888
▁وڊيو	-8.84162
▁روز	-8.84173
▁ڪنٽرول	-8.84174
▁ڪريان	-8.84336
ندڙ	-8.84471
▁هنڌ	-8.84503
▁ذهن	-8.84744
▁تہ	-8.84816
▁پڪ	-8.85029
▁حال	-8.85204
▁ٺاهي	-8.85255
▁ِ	-8.85261
▁اوزار	-8.85377
1	-8.85515
▁مٿان	-8.86041
▁مليو	-8.86048
ڪي	-8.86124
y	-8.86257
پر	-8.86268
▁سگهون	-8.86288
▁حفاظت	-8.86371
▁بن	-8.86426
▁صنعت	-8.86509
▁علاوه	-8.86536
▁وار	-8.86587
▁هلي	-8.8712
."	-8.87142
▁خرچ	-8.87191
▁ص	-8.87291
▁تصديق	-8.87668
▁جنھن	-8.87689
▁اڻ	-8.87878
▁هزار	-8.87896
▁علائقي	-8.87929
ندا	-8.88177
▁شيءِ	-8.88234
▁سمجهي	-8.88443
▁مس	-8.88628
▁جلدي	-8.88901
▁وڪرو	-8.89094
▁هفتي	-8.89403
▁رفتار	-8.89633
▁وڌ	-8.89935
▁حيثيت	-8.90058
▁سرڪاري	-8.90252
▁هيءَ	-8.90254
▁سنڌي	-8.90316
▁رسائي	-8.90355
▁پهريان	-8.90426
▁وزير	-8.90709
تك	-8.9092
▁ٺهيل	-8.9098
▁جيڪڏھن	-8.91055
▁تنهنڪري	-8.91061
▁ڪارڊ	-8.91428
▁ڪلڪ	-8.91591
▁مشين	-8.91618
▁100	-8.91688
▁سن	-8.91711
).	-8.91792
ٽي	-8.91825
▁وجود	-8.91881
▁ڪئين	-8.9196
▁سروس	-8.92119
▁تجربو	-8.92155
نه	-8.92311
▁رستو	-8.92503
▁يه	-8.92573
▁له	-8.92889
▁جمع	-8.93018
d	-8.93081
▁ھڪڙي	-8.93097
▁وا	-8.93327
▁ٻولي	-8.9344
▁وش	-8.9368
▁ڪارڪردگي	-8.93834
ام	-8.94001
مي	-8.9406
وي	-8.94228
e	-8.94354
▁الي	-8.94464
▁ايندو	-8.945
▁ايڪس	-8.94811
▁مالي	-8.95324
▁؛	-8.95332
▁قتل	-8.9542
ed	-8.95457
▁لاڳو	-8.95496
▁ڊائون	-8.95511
▁قدر	-8.95592
کي	-8.95597
▁P	-8.95693
▁نسل	-8.95771
▁پل	-8.95823
▁وضاحت	-8.95845
▁پاڪ	-8.96074
▁چ	-8.96126
تون	-8.96152
▁ڪرڻو	-8.96319
▁ماحول	-8.96345
▁جاءِ	-8.9638
▁ڏاڍو	-8.96475
▁ڊالر	-8.96689
ــــــ	-8.96697
▁چون	-8.96915
▁پڇيو	-8.96928
▁بينڪ	-8.9703
▁ههه	-8.97053
▁ڪونهي	-8.97311
▁C	-8.97497
▁زور	-8.97561
▁پوسٽ	-8.97649
▁آءِ	-8.97773
▁انٽرنيٽ	-8.97895
▁بل	-8.97942
▁ـ	-8.9797
▁مستقبل	-8.97991
▁هڪڙي	-8.98002
ما	-8.9807
▁ٻڌي	-8.98113
▁پارٽي	-8.98122
▁ش	-8.98146
لو	-8.98163
▁ڳالهيون	-8.98181
▁سج	-8.98299
▁ٿيندا	-8.9842
">	-8.98445
▁بڻائي	-8.98511
▁لك	-8.98662
▁ويئي	-8.98904
▁ق	-8.98972
▁ريت	-8.99321
▁11	-8.99397
▁آرام	-8.99632
▁بحث	-8.99863
▁يونيورسٽي	-9.00178
▁د	-9.00412
▁خواب	-9.0053
اء	-9.00712
er	-9.00758
▁معلوم	-9.00791
▁وزن	-9.00882
خ	-9.00956
▁آباد	-9.00961
تو	-9.01034
▁ڊگهي	-9.01101
▁دفعو	-9.01147
▁مري	-9.01194
ڙو	-9.01447
▁سگهيو	-9.01552
▁اڳيان	-9.01634
▁ايئر	-9.01721
▁ٿيندڙ	-9.0185
▁لک	-9.01902
ــــــــ	-9.01943
▁لکيو	-9.01955
▁رهندو	-9.01955
▁يقيني	-9.01993
▁تصور	-9.02006
▁پليٽ	-9.02014
▁حسين	-9.02042
▁شكرا	-9.02123
هاي	-9.02381
▁ڪريون	-9.02444
▁ثابت	-9.02449
▁نمي	-9.02468
▁موبائل	-9.02656
▁برابر	-9.02678
ههههه	-9.028
▁تنهنجو	-9.02979
▁چند	-9.0298
▁ايپليڪيشن	-9.03022
t	-9.03038
▁آفيس	-9.03052
▁ماڊل	-9.03147
ئ	-9.03173
▁ڪمپيوٽر	-9.03267
هههههه	-9.03464
▁ادب	-9.03514
▁اسڪرين	-9.03648
▁لکي	-9.03662
▁خير	-9.0379
▁بت	-9.03966
▁پيغام	-9.03995
▁ٿورو	-9.04058
▁ايترو	-9.04094
3	-9.04109
▁انتي	-9.04198
▁دو	-9.04212
▁اھي	-9.04286
اني	-9.04355
▁پوي	-9.04395
▁گرم	-9.04531
▁سگهان	-9.04604
ڪو	-9.04676
ند	-9.04683
▁زال	-9.04718
يڪ	-9.0494
▁الاقوامي	-9.05019
▁بهرحال	-9.05021
▁وين	-9.05221
▁اللي	-9.05228
▁ڳولي	-9.05236
▁تبديلي	-9.05253
▁صورتحال	-9.05336
▁آزادي	-9.05368
▁صلاح	-9.05557
يد	-9.05638
▁پيءُ	-9.0568
ـــــــ	-9.05747
ڙ	-9.05765
▁گروپ	-9.05901
▁روشني	-9.05953
▁ڪندڙن	-9.05961
▁خاندان	-9.06152
▁$	-9.0633
▁قانوني	-9.06373
▁سيٽ	-9.06441
▁امام	-9.06563
▁گرمي	-9.06599
▁صدي	-9.06627
▁ميدان	-9.06632
▁مقابلي	-9.06645
▁چونڊيو	-9.06682
▁موسم	-9.06867
دا	-9.07029
▁منهنجا	-9.0707
▁ڪامياب	-9.07127
▁پنج	-9.07197
▁جيستائين	-9.07261
▁چڪا	-9.07407
▁اهڙا	-9.07447
▁حتى	-9.07455
▁اگر	-9.07557
▁نوٽ	-9.07844
▁سوچ	-9.07968
▁عرصي	-9.07977
▁تفصيل	-9.08003
▁خ	-9.08294
▁گھٽ	-9.08359
▁ڪهاڻي	-9.08377
ڪس	-9.08429
بر	-9.08492
▁ح	-9.08518
▁حصي	-9.08635
▁ايپ	-9.08922
▁چاهي	-9.08922
اتي	-9.09094
▁عدالت	-9.09099
▁حالتن	-9.09104
ائڻ	-9.09114
▁هڪڙو	-9.09225
▁14	-9.09641
▁درد	-9.09911
▁مين	-9.10042
▁نڪري	-9.10105
ے	-9.10115
▁شاء	-9.1025
▁دوستن	-9.10271
▁گل	-9.10347
دار	-9.10352
▁ک	-9.10356
▁دعا	-9.10442
▁سمنڊ	-9.10486
▁ساڳي	-9.10503
▁کولڻ	-9.10595
▁ڳولا	-9.10635
ِي	-9.10653
▁هوس	-9.10814
▁ڪل	-9.1086
▁سوچيو	-9.10867
▁ايپل	-9.10919
▁ملڻ	-9.11085
بو	-9.11127
▁ر	-9.11193
▁بورڊ	-9.11222
▁اضافي	-9.11291
▁ڪوڊ	-9.1149
▁جهاز	-9.1155
▁مارڪيٽنگ	-9.11565
▁شڪار	-9.11598
▁هيچ	-9.11625
?	-9.11654
▁لفظن	-9.11991
▁شاگردن	-9.12044
▁مخصوص	-9.12093
▁جهڙوڪ	-9.1219
▁باوجود	-9.1225
▁جڳهه	-9.1227
▁چونڊ	-9.12292
▁شام	-9.12339
تا	-9.12432
▁to	-9.12439
▁عرب	-9.12482
▁صلاحيت	-9.12528
▁زبان	-9.12806
▁زماني	-9.12867
▁بخش	-9.12891
▁ڪاميابي	-9.12916
▁أ	-9.12964
▁چوي	-9.13008
▁نور	-9.13318
ٽر	-9.1333
▁منتقل	-9.1348
▁ويجهو	-9.13488
▁پيام	-9.13564
▁ترين	-9.13682
▁اڌ	-9.13683
▁مختصر	-9.13848
▁پنهنجا	-9.13849
▁شڪل	-9.13917
>	-9.14268
▁فائدو	-9.14285
۔	-9.14319
▁=	-9.14434
▁16	-9.14455
▁شاعر	-9.1446
_	-9.14698
▁ڪراچي	-9.14848
▁لاڳاپيل	-9.14974
▁ڪنداسين	-9.15035
▁ڏين	-9.15084
▁وڌائڻ	-9.15102
▁علائقن	-9.15202
▁ٻڌائي	-9.1541
▁خوشي	-9.15424
ئن	-9.15437
▁13	-9.15561
▁استاد	-9.15563
4	-9.15656
▁سگھن	-9.15797
▁ز	-9.15942
▁چاهيندا	-9.16038
▁شاندار	-9.16133
▁17	-9.16548
▁ملين	-9.16603
▁گم	-9.16855
▁نا	-9.16953
▁50	-9.16964
▁منظر	-9.17059
جن	-9.17117
▁ڪلاڪ	-9.17125
▁25	-9.17151
▁راندين	-9.17263
▁رکو	-9.17312
▁مالڪ	-9.17366
▁ڌرتي	-9.17391
▁نيوز	-9.17508
▁ڪاروباري	-9.17515
▁پڙهي	-9.17628
▁گذري	-9.17805
▁ملاقات	-9.17846
▁2020	-9.1791
▁نيٽ	-9.18033
▁مهينن	-9.18033
▁انتهائي	-9.18261
▁پريشان	-9.18389
▁ويون	-9.18421
▁رت	-9.18425
گي	-9.18451
▁آپريشن	-9.18489
▁فهرست	-9.18502
▁انگريزي	-9.1885
ايو	-9.18978
▁وغيره	-9.19008
ـــــــــ	-9.19098
▁1.	-9.19199
▁رستي	-9.19215
▁ويئر	-9.19277
اس	-9.1938
▁بابا	-9.19394
▁غور	-9.19581
▁B	-9.19845
▁کانسواءِ	-9.20056
▁ولي	-9.20104
▁نٿي	-9.20138
▁هئڻ	-9.20171
▁توانائي	-9.20179
▁اکيون	-9.20189
▁سامهون	-9.20287
▁وڏا	-9.20299
▁لکيل	-9.20325
▁وڃو	-9.20351
▁ننڊ	-9.20401
▁غلطي	-9.20435
ث	-9.20474
▁سوشل	-9.20513
ست	-9.20535
▁جڏھن	-9.20539
C	-9.20564
▁ڏاڍي	-9.2066
▁بيشڪ	-9.20675
▁سڀئي	-9.20726
▁اهميت	-9.20732
▁برقرار	-9.20895
▁0	-9.21047
▁الا	-9.21092
▁چيزي	-9.21108
ٿ	-9.21128
▁ساڻ	-9.2116
o	-9.2128
▁ڏس	-9.21458
ط	-9.21606
▁مقامي	-9.21743
▁حساب	-9.21784
▁دوا	-9.21867
▁مگر	-9.21904
▁ڌار	-9.21986
▁واپار	-9.21998
▁2019	-9.22019
▁جئين	-9.22172
▁موقعو	-9.22272
।	-9.2237
▁مڙس	-9.22375
▁دلچسپ	-9.22378
▁تر	-9.22638
▁ڪيائين	-9.2269
▁حيرت	-9.22744
A	-9.22836
▁ٺاهيو	-9.22969
g	-9.22989
▁نتيجي	-9.22993
▁دلچسپي	-9.23109
▁ڪاري	-9.2319
▁آڻڻ	-9.23252
▁لائين	-9.23319
▁حياتي	-9.23406
▁مسلسل	-9.23498
G	-9.23531
▁بلاگ	-9.23706
وس	-9.23835
▁صح	-9.23857
▁ون	-9.23869
▁يار	-9.2389
▁سميت	-9.239
▁ٺيڪ	-9.24023
▁تقريبن	-9.24118
▁بڻائڻ	-9.2412
▁آرٽيڪل	-9.24122
▁رب	-9.24126
به	-9.24127
▁اعليٰ	-9.2413
اب	-9.24177
▁صارفين	-9.24178
▁زين	-9.24217
▁انتظام	-9.24229
▁محدود	-9.24246
▁پوئتي	-9.24518
▁ننڍي	-9.24905
▁M	-9.24962
text	-9.25005
▁پار	-9.25006
▁T	-9.25051
▁سلام	-9.25054
من	-9.25098
سٽ	-9.25145
▁سمجهيو	-9.25169
▁يوم	-9.25192
▁امير	-9.25229
▁لحاظ	-9.25271
▁قديم	-9.2531
▁اعتماد	-9.25385
▁مسافر	-9.25464
▁ايندي	-9.25466
▁نشان	-9.25744
▁دماغ	-9.25759
▁بجلي	-9.25851
▁ايڇ	-9.25964
ئين	-9.25982
▁ورڪ	-9.26326
▁غريب	-9.26329
▁مسئلن	-9.26376
▁امتحان	-9.26413
▁اجلاس	-9.26416
▁شايع	-9.2642
▁قبل	-9.26493
▁چاهيان	-9.26523
a	-9.26548
▁#	-9.26736
▁شڪ	-9.26746
▁ايتري	-9.26801
▁ڏينھن	-9.26809
▁چيائين	-9.26823
▁هيءُ	-9.26871
▁اني	-9.26873
▁بغير	-9.26874
رن	-9.26879
▁2018	-9.2721
▁منٽ	-9.2727
▁عجيب	-9.27327
▁الڳ	-9.27348
▁اڃان	-9.27411
▁انسٽال	-9.27708
غ	-9.27869
▁زمان	-9.27887
▁ڪيترا	-9.27941
▁ڳولڻ	-9.27979
▁جهڙو	-9.28086
▁ري	-9.2819
▁براي	-9.28194
▁تنظيم	-9.28195
▁گهڻا	-9.28234
▁تحفظ	-9.28237
▁وڻ	-9.2824
تر	-9.28327
▁اصول	-9.28393
▁چڪي	-9.28516
▁نوڪري	-9.28536
سين	-9.28564
p	-9.28573
▁پاس	-9.28639
ره	-9.28724
▁وائرس	-9.28788
▁مقدار	-9.28896
i	-9.29083
▁امن	-9.2924
▁ڪرائي	-9.2927
c	-9.29335
▁ڏيکاري	-9.29498
▁ميمبر	-9.29553
▁هيا	-9.29655
▁ليه	-9.2972
▁ڪنھن	-9.29724
▁ڳالهائڻ	-9.29832
▁24	-9.29887
▁الم	-9.29894
▁ادارن	-9.30135
ائن	-9.30167
▁يک	-9.30176
▁وال	-9.30217
▁سماج	-9.30247
ائين	-9.30355
▁سواء	-9.30404
▁ڪندس	-9.30524
▁F	-9.30588
▁مت	-9.30607
▁ڏکڻ	-9.30689
▁قدرتي	-9.30753
▁قسمن	-9.30774
شن	-9.30794
▁خالي	-9.30816
▁آخرڪار	-9.30916
▁عشق	-9.30939
▁کن	-9.31088
ءِ	-9.31107
▁جهڙي	-9.31117
▁اچو	-9.31177
▁حڪمت	-9.31335
▁تحت	-9.31367
▁هجن	-9.31565
▁اظهار	-9.31573
▁سافٽ	-9.31575
▁يورپي	-9.31584
▁زي	-9.31666
▁رابطو	-9.31726
سر	-9.31738
▁سائنس	-9.31799
▁ساڳيو	-9.31938
وري	-9.32207
n	-9.32259
▁سڏيو	-9.32403
▁ڪين	-9.32414
▁بود	-9.32427
▁اچن	-9.32518
▁فعال	-9.32793
▁سياست	-9.32825
▁عوامي	-9.32842
▁G	-9.32981
▁تصويرون	-9.33123
▁جسماني	-9.33246
▁سڌو	-9.33459
▁ڪڍي	-9.33463
▁شعر	-9.33541
▁وڃ	-9.33567
▁ايمان	-9.33589
▁قرآن	-9.3363
▁رڪارڊ	-9.33636
▁هُن	-9.33729
▁know	-9.33745
▁ٿين	-9.33823
▁بنا	-9.34124
▁حلو	-9.34125
▁بيماري	-9.34159
▁مهيني	-9.34215
ــــــــــــــــ	-9.34227
▁واٽ	-9.34275
▁دين	-9.34396
▁گھرجي	-9.34481
▁درست	-9.34481
▁نہ	-9.34563
▁منظور	-9.34613
با	-9.3465
▁بئنڪ	-9.34697
▁مذهبي	-9.34705
اڻڻ	-9.34707
▁عن	-9.34792
▁فن	-9.3487
▁سلسلي	-9.34914
▁گڏجي	-9.34987
▁ڀلي	-9.35024
▁مسلمان	-9.35133
▁ساڳئي	-9.35169
▁]	-9.35389
r	-9.35594
▁پويان	-9.35641
▁حصن	-9.35643
▁چيڪ	-9.35675
▁چنڊ	-9.35762
▁لائسنس	-9.35827
دو	-9.35862
▁مرڪز	-9.35999
ٺ	-9.36142
▁ڪيترو	-9.3616
▁سون	-9.3617
▁مئي	-9.36172
▁اک	-9.36199
▁خوف	-9.36216
▁مسئل	-9.36371
بل	-9.36415
▁وزيراعظم	-9.36451
▁ليکڪ	-9.36609
هههههههههههه	-9.36632
▁جنسي	-9.36646
▁احتجاج	-9.36727
▁ايئن	-9.36742
▁مارچ	-9.36746
▁جمهوري	-9.36796
in	-9.36862
▁گرفتار	-9.36917
▁انقلاب	-9.36974
▁ڪورٽ	-9.37058
▁<<	-9.37102
▁پوندي	-9.37165
▁ذات	-9.37176
B	-9.37184
▁+	-9.37256
▁مجموعي	-9.3734
▁مخالف	-9.3738
S	-9.37394
▁جنم	-9.37441
▁لباس	-9.3745
▁ڊجيٽل	-9.37451
▁منظم	-9.37453
ير	-9.3755
ْ	-9.37571
▁منھنجي	-9.37614
▁چڱي	-9.37619
▁معياري	-9.37632
▁ٻڌڻ	-9.37771
▁2017	-9.37888
▁ڏک	-9.37936
▁19	-9.37988
▁وس	-9.38292
7	-9.38312
▁Android	-9.38315
▁کائڻ	-9.38331
▁بندي	-9.38383
▁دستياب	-9.38475
▁معمولي	-9.3855
▁اتر	-9.38579
▁اشارو	-9.38606
▁امان	-9.3861
▁فيس	-9.38636
▁جاچ	-9.38699
هو	-9.38823
▁اڪيلو	-9.38901
▁نيو	-9.38997
▁بدران	-9.39068
▁طريقا	-9.39069
▁مهم	-9.39094
▁ڏا	-9.39225
▁مطابقت	-9.39238
▁طيب	-9.39326
ّ	-9.39409
▁ماهر	-9.39484
▁ٿوري	-9.39527
▁وانا	-9.39678
▁اسپتال	-9.39681
▁ٽيسٽ	-9.39768
ده	-9.39785
▁فڪر	-9.39795
▁ھئي	-9.3991
▁تجزيو	-9.3993
▁ڪمري	-9.39954
▁فطرت	-9.4008
▁پٿر	-9.40091
▁موٽي	-9.40272
▁خيلي	-9.40286
▁مشڪل	-9.40333
▁عالم	-9.40339
▁بحال	-9.40361
▁تعريف	-9.4037
▁آڪٽوبر	-9.40523
al	-9.4059
▁والدين	-9.40625
▁اسٽور	-9.40721
ڪر	-9.40833
▁گهربل	-9.40873
▁ويس	-9.40958
▁معنيٰ	-9.40971
▁فوج	-9.40996
▁>>	-9.41127
▁کليل	-9.41212
▁واقع	-9.41286
▁ممكن	-9.41417
▁سيريز	-9.41438
▁ڀيٽ	-9.41505
▁۔۔۔	-9.41579
اد	-9.41622
▁هندستان	-9.41646
▁الف	-9.41651
▁گراهڪ	-9.41653
▁آل	-9.41713
▁نماز	-9.41756
▁40	-9.41876
▁هيٺيان	-9.41893
▁حلوه	-9.41953
▁فيه	-9.41966
▁روڊ	-9.42052
m	-9.42111
▁مره	-9.42136
▁روم	-9.42138
▁ايندا	-9.42149
▁ڪابه	-9.42232
▁طلب	-9.4224
▁معني	-9.42248
ڪا	-9.42315
▁ھر	-9.42519
ــــــــــ	-9.42558
▁ويڊيو	-9.42711
▁تاريخي	-9.42724
ڙا	-9.42769
▁عنصر	-9.43019
▁طريقن	-9.43035
شي	-9.43048
P	-9.43112
▁پراڻي	-9.43518
▁سزا	-9.43547
▁ست	-9.43597
▁فوجي	-9.43776
▁موسيقي	-9.43841
▁ايراني	-9.4386
▁ڏيندي	-9.43894
▁ڳالهين	-9.43923
▁لنڪ	-9.43976
▁سيپٽمبر	-9.43996
▁جائزو	-9.44095
▁اذا	-9.44101
▁فرانس	-9.44156
▁سڄو	-9.44312
▁ده	-9.44402
▁بونس	-9.44494
▁پئسا	-9.44612
▁قرار	-9.44636
▁ڪرائڻ	-9.44664
▁گذاري	-9.44768
▁پيٽ	-9.44837
پي	-9.44869
▁مير	-9.44955
▁اسپين	-9.44999
▁هال	-9.4504
▁ماڻھو	-9.451
▁مشتمل	-9.45228
في	-9.45422
▁ٽرين	-9.45423
▁فوري	-9.4544
▁محنت	-9.45475
▁جنرل	-9.45547
▁انگ	-9.45644
▁عزت	-9.45654
▁جيترو	-9.45655
▁كان	-9.45706
▁شما	-9.45771
▁ڪمپنين	-9.45836
▁گ	-9.45922
▁رهن	-9.4593
▁ورتي	-9.45981
▁شرط	-9.4601
▁گيت	-9.46024
▁قومن	-9.46027
▁ڪتابن	-9.46124
▁شاهه	-9.46155
▁دورو	-9.462
▁هل	-9.4628
es	-9.46321
▁سگھو	-9.46344
▁ڏيئي	-9.46351
▁هوٽل	-9.46378
▁شاعري	-9.46417
▁ڪانه	-9.46449
▁آسمان	-9.46475
۽	-9.46536
▁سين	-9.4659
▁شاگرد	-9.46622
▁E	-9.46653
▁چيني	-9.46763
▁ڀيرا	-9.46969
▁انڪار	-9.47071
▁هوا	-9.4709
▁رکندڙ	-9.47123
▁ترجمو	-9.4716
▁حيران	-9.472
▁موڪليو	-9.474
▁نوان	-9.47447
جا	-9.47471
▁عمارت	-9.476
▁؟؟	-9.47625
▁چوندا	-9.47704
▁21	-9.47921
▁فوت	-9.47932
▁آرڊر	-9.48078
▁D	-9.481
▁پهچائڻ	-9.48234
▁قسمت	-9.48355
▁کڻڻ	-9.48408
▁قرض	-9.48546
▁اضافو	-9.48734
▁شهري	-9.48818
L	-9.48848
▁سوچڻ	-9.48884
يان	-9.48955
▁ٻڌو	-9.49156
ـــــــــــ	-9.49165
T	-9.49189
اسان	-9.49208
▁مذهب	-9.49255
▁عليها	-9.49279
▁انصاف	-9.49395
▁ساٿي	-9.49415
▁ملڪيت	-9.49419
▁تحريڪ	-9.49517
▁سدائين	-9.49688
▁سمجهڻ	-9.49692
▁نو	-9.4978
▁ڪاليج	-9.49844
زي	-9.49987
▁سياحت	-9.50007
▁هينئر	-9.5003
▁نيست	-9.50049
▁ماري	-9.50137
▁ڪيتريون	-9.50148
▁سڃاڻپ	-9.50177
▁2016	-9.50186
▁صفحا	-9.5019
▁وڏن	-9.50273
▁ڀريل	-9.50284
▁هدايت	-9.50471
▁حمايت	-9.50665
▁روشن	-9.50679
▁لل	-9.50865
▁راه	-9.51154
سن	-9.51179
▁شوق	-9.51288
▁آگسٽ	-9.51337
▁اسٽيشن	-9.51343
8	-9.51355
▁اداري	-9.51363
▁ادبي	-9.51387
▁ميٽر	-9.5147
▁زير	-9.51476
▁s	-9.51526
▁موٽر	-9.51536
▁منزل	-9.51557
▁ماني	-9.5166
▁سگھجي	-9.51828
▁روس	-9.51892
▁ذميواري	-9.51906
▁رابطي	-9.52039
الي	-9.52104
در	-9.52168
▁وسيع	-9.52178
▁شهيد	-9.52188
▁موقعي	-9.52252
▁ليش	-9.52258
▁ونڊوز	-9.52354
▁واڌ	-9.52363
انه	-9.52376
▁چڱو	-9.52384
▁هليو	-9.52441
▁آب	-9.52553
▁مسئلا	-9.5263
ـــــــــــــ	-9.52725
▁سوچي	-9.52779
▁انعام	-9.52787
5	-9.52803
▁the	-9.52878
▁امڪان	-9.52893
6	-9.52907
▁فصل	-9.52995
▁خواهش	-9.53031
▁خلاص	-9.53044
▁ويهي	-9.53089
▁لڳ	-9.5324
▁هُو	-9.53279
▁آساني	-9.53305
▁مکيه	-9.53556
▁ك	-9.53597
▁آهنگ	-9.53662
▁اپڊيٽ	-9.54007
اءِ	-9.54045
▁فائلون	-9.54165
▁سنگ	-9.54202
اهو	-9.54315
▁سفارش	-9.5436
▁هه	-9.54366
▁ٻڌل	-9.54396
▁پو	-9.54456
▁ساري	-9.54456
▁هع	-9.54644
▁مصنوعات	-9.5469
▁ادائيگي	-9.54722
▁فقير	-9.54734
▁لڳا	-9.5498
▁خصوصي	-9.55133
▁نومبر	-9.55212
▁گھڻو	-9.55247
▁الحال	-9.55253
▁زخمي	-9.55292
▁چو	-9.55336
▁مثل	-9.55547
نس	-9.55568
▁ناهن	-9.55675
▁هئس	-9.55734
▁فائل	-9.55735
▁چيز	-9.55791
▁افغانستان	-9.55903
▁هوائي	-9.55906
▁سنڏ	-9.55911
▁ميان	-9.55927
▁ماضي	-9.55954
▁ڊزائن	-9.56017
9	-9.56087
▁اخبار	-9.56155
▁جنوري	-9.56159
▁ڊيزائن	-9.5617
ض	-9.56241
▁واپسي	-9.56332
▁ناڪام	-9.56449
▁2.	-9.56582
▁رهندا	-9.56684
▁ڪلاس	-9.56698
▁فرد	-9.56746
▁ليگ	-9.56771
th	-9.56782
▁روڪي	-9.56783
گر	-9.56866
▁هيٺين	-9.56891
▁لنڊن	-9.56993
▁ڪميشن	-9.57006
▁سمجهان	-9.57127
▁درجي	-9.5714
له	-9.57223
▁مل	-9.57346
▁ڏانھن	-9.57352
ً	-9.57392
▁آبادي	-9.57435
▁ڳالهائي	-9.57584
ئر	-9.5762
▁هوء	-9.5781
▁سبق	-9.57866
▁عورتون	-9.57914
▁ٽيون	-9.57936
▁ڪانهي	-9.58021
▁تيل	-9.58038
▁K	-9.58038
▁احمد	-9.58078
▁اب	-9.58107
▁راح	-9.58231
▁شوي	-9.58261
▁باب	-9.58351
▁بيت	-9.58363
▁a	-9.58502
▁ڏيندا	-9.58589
▁واقعا	-9.58645
▁ڊ	-9.58728
▁ڳالھ	-9.58772
▁ڪارو	-9.58837
▁ڪوڙ	-9.58864
▁تازو	-9.58889
▁شده	-9.58905
▁مردن	-9.58952
▁اسيمبلي	-9.59104
▁مقابلو	-9.59128
▁آڻي	-9.59136
چي	-9.59139
▁پرو	-9.59211
▁سينٽر	-9.59219
ڪن	-9.59249
▁ڏکيو	-9.59337
▁رکن	-9.59365
▁فرض	-9.59512
▁ڪرايو	-9.5955
▁انجام	-9.59642
▁هٿن	-9.59682
▁سکڻ	-9.59708
▁22	-9.59825
▁ڏنا	-9.60027
▁~	-9.60059
▁وفات	-9.60081
▁ڀلا	-9.60153
▁جنس	-9.60157
▁2021	-9.60164
▁ڇوڪري	-9.60402
سو	-9.60476
▁ويٺو	-9.60519
M	-9.60582
▁جاء	-9.60594
▁متبادل	-9.60681
ــــــــــــ	-9.60839
▁پٺيان	-9.60884
b	-9.60988
▁آيل	-9.61022
▁يمكن	-9.61076
▁ڀر	-9.61177
▁نتيجو	-9.61228
هڪ	-9.61378
▁ميمبرن	-9.61433
▁سائيز	-9.61449
▁ڳالهايو	-9.61516
ٍ	-9.61544
▁هونديون	-9.61545
▁کائي	-9.6156
▁سمجهه	-9.61651
ئون	-9.61773
▁راز	-9.61776
▁تعاون	-9.61793
▁گڏوگڏ	-9.61964
▁اوڀر	-9.61979
▁نفس	-9.62012
▁اتفاق	-9.62039
▁منصوبي	-9.6216
▁سگهندا	-9.62175
▁پيروي	-9.62179
▁لسٽ	-9.62231
▁دا	-9.62379
▁ٻيون	-9.62391
▁جيان	-9.62419
▁پلي	-9.625
▁ڊسمبر	-9.6252
▁مزو	-9.62668
▁وفاقي	-9.62694
▁شرڪت	-9.62712
▁ڄاڻي	-9.62783
▁شخصيت	-9.62792
▁گفت	-9.62799
▁ڪائنات	-9.62885
▁مريض	-9.62927
ڪار	-9.63005
▁سرور	-9.63007
▁كم	-9.63017
▁وٺو	-9.63019
ؤ	-9.63067
▁وزارت	-9.63071
▁پئجي	-9.63271
▁نالا	-9.63331
▁رهندي	-9.63387
▁I	-9.63488
▁وات	-9.63518
▁ڊوائيس	-9.63548
▁آئين	-9.63648
▁تسليم	-9.63654
▁يورو	-9.63675
▁com	-9.63679
ــــــــــــــ	-9.63862
▁سعودي	-9.6389
▁دڪان	-9.63894
▁ليس	-9.6393
▁اڳي	-9.64007
▁اُهي	-9.64016
▁اٿم	-9.64047
▁خريداري	-9.64206
▁سلسلو	-9.64211
▁بڪ	-9.6426
ڙن	-9.64298
▁باهه	-9.64408
▁راءِ	-9.64468
▁وه	-9.64485
▁مَ	-9.64519
وم	-9.64695
▁طاقتور	-9.6481
▁معاملي	-9.64949
▁آس	-9.65016
▁شعور	-9.65041
▁توڙي	-9.65137
▁وجهي	-9.65191
▁سڏ	-9.65216
▁بچائڻ	-9.65332
▁رانديون	-9.65419
▁غ	-9.65436
▁پرڏيهي	-9.65525
▁شهرن	-9.65531
▁اچ	-9.65569
▁انك	-9.65598
▁مُ	-9.65606
▁ڪيتري	-9.65905
▁نظم	-9.6595
▁کاتي	-9.6595
▁عندي	-9.6602
▁سگهندو	-9.66123
▁حسن	-9.6621
▁ڪورونا	-9.66344
▁رهيون	-9.66354
▁2015	-9.66362
هر	-9.6643
ٌ	-9.66592
▁اخر	-9.66619
▁اپريل	-9.66691
▁رخ	-9.6671
▁دشمن	-9.66734
▁فيصل	-9.66859
اڻو	-9.66944
▁سيڙپڪاري	-9.67042
▁آھيان	-9.67067
▁تربيت	-9.67145
▁واريون	-9.67227
▁گفتگو	-9.67257
▁ڀاءُ	-9.67275
▁گهرجن	-9.67279
▁مينهن	-9.67299
▁ار	-9.67362
▁هت	-9.67375
▁سپر	-9.6741
us	-9.67449
▁ڪجھه	-9.67454
ې	-9.67468
ولي	-9.67553
▁ھاڻي	-9.67579
▁ماڻهوءَ	-9.67597
*	-9.67632
▁وسلم	-9.67676
▁هزارين	-9.67684
وه	-9.67702
▁پن	-9.67703
▁جوابدار	-9.67798
▁اڳوڻي	-9.6785
▁ابتدائي	-9.67858
▁چپ	-9.67945
▁کلي	-9.67948
▁جانور	-9.67957
▁مڇي	-9.67969
u	-9.67993
▁ڀي	-9.68004
أ	-9.68019
▁ٽرانسپورٽ	-9.68029
▁شراب	-9.68052
▁ناول	-9.68107
ندس	-9.68224
▁ڪانفرنس	-9.68225
▁هلائڻ	-9.68258
ـــــــــــــــ	-9.68297
▁ات	-9.68351
O	-9.68436
▁روي	-9.68505
▁منصوبو	-9.68624
▁تازه	-9.68626
▁مثبت	-9.68633
▁قيمتي	-9.68671
▁خدمتن	-9.68917
▁آمدني	-9.69046
▁وطن	-9.69225
گو	-9.69241
▁وڃائي	-9.69244
▁كنت	-9.69296
an	-9.69332
▁N	-9.69336
▁ڇڏڻ	-9.69359
▁لازم	-9.69359
▁ويل	-9.69499
▁متن	-9.69511
▁ط	-9.69511
▁كيف	-9.69609
="	-9.69628
▁خودڪار	-9.69633
▁سيڪيورٽي	-9.69809
▁برانڊ	-9.70014
▁فخر	-9.70025
▁سم	-9.70084
ائون	-9.70088
▁نفرت	-9.70101
▁لاش	-9.70258
▁ماپ	-9.70273
▁وينديون	-9.7031
▁ٻيٽ	-9.70438
▁ڪوئي	-9.70447
▁هيس	-9.7054
▁مجبور	-9.70728
▁60	-9.70964
▁@	-9.7097
▁ورلڊ	-9.71009
▁شروعاتي	-9.71073
▁تھ	-9.71092
▁لهي	-9.71095
▁شد	-9.71226
▁جانورن	-9.71448
▁W	-9.71454
ههههههههههههه	-9.71454
▁خدمتون	-9.71465
▁سموري	-9.71486
N	-9.71544
▁وت	-9.71579
▁ڊرائيو	-9.71602
K	-9.71651
▁لانچ	-9.71685
▁حقن	-9.71694
▁بيڪ	-9.7176
▁هاءِ	-9.71816
▁برداشت	-9.71817
▁سڌي	-9.71829
▁ضرورتن	-9.71928
▁دليل	-9.71987
▁هلندڙ	-9.72037
▁آدم	-9.7213
ٽو	-9.72135
▁3.	-9.72161
▁(1)	-9.72263
▁يلا	-9.72276
هههه	-9.72326
▁ضمانت	-9.72426
▁دعوت	-9.72427
▁چيست	-9.72456
▁اندروني	-9.72475
▁فائيل	-9.72493
▁رھيو	-9.7262
سا	-9.72633
▁ڳن	-9.72665
or	-9.72683
▁ريل	-9.72793
E	-9.72851
▁اصلا	-9.72852
▁يونين	-9.7287
▁ڪيم	-9.72916
▁أنا	-9.7295
▁جرمني	-9.72958
▁پهتو	-9.73051
▁بادشاهه	-9.73082
▁منفرد	-9.7325
▁هذه	-9.73275
هين	-9.73298
▁حرف	-9.73328
▁تجربي	-9.73331
▁سادي	-9.7339
▁انٽرويو	-9.73453
▁واقف	-9.73468
▁الزام	-9.7347
▁بيٽري	-9.7356
▁ٻاهرين	-9.73572
سون	-9.73657
▁اٿس	-9.73688
en	-9.73773
▁کار	-9.7378
x	-9.73788
▁پهچڻ	-9.73918
▁چارج	-9.73994
▁وڌائي	-9.74002
وو	-9.74054
▁ڪال	-9.74184
▁خاصيتون	-9.74191
▁اه	-9.74237
▁فتح	-9.74392
▁هڪٻئي	-9.74435
▁شيئر	-9.74528
▁ذميوار	-9.74575
زم	-9.746
▁گهڻن	-9.74643
▁نمائش	-9.74701
▁چيه	-9.74756
▁H	-9.74855
▁فيبروري	-9.74917
ظ	-9.74946
ود	-9.74976
يٽ	-9.74978
▁بدلي	-9.74988
▁اولاد	-9.74988
▁,,	-9.75034
▁ماڻھن	-9.75127
F	-9.75165
▁تجويز	-9.75166
▁يونٽ	-9.75196
▁ساهه	-9.75279
▁معاملو	-9.75327
▁موڪل	-9.7558
▁ثقافت	-9.75615
▁چئن	-9.75646
▁بو	-9.75733
▁رسول	-9.75752
▁صفحي	-9.75775
▁غلام	-9.75793
▁كه	-9.75809
▁آءُ	-9.75834
▁ٽئين	-9.75888
▁مافي	-9.7593
▁متعارف	-9.75961
▁هڻي	-9.75982
▁هفته	-9.76093
▁کپي	-9.7624
▁سار	-9.7626
▁تعليمي	-9.76399
▁گزارش	-9.76476
▁اقتصادي	-9.76505
▁وڌو	-9.76524
▁طلاق	-9.76611
تها	-9.76736
▁پريس	-9.76754
▁جوڙجڪ	-9.7681
▁نتيجا	-9.76811
▁پائي	-9.76823
▁سهولت	-9.76902
▁کاڌي	-9.76907
رز	-9.76961
▁عربي	-9.76988
▁انه	-9.77007
▁اندازو	-9.77008
▁پاور	-9.77051
▁روڪڻ	-9.77053
▁بک	-9.77104
ar	-9.77118
▁خوب	-9.77137
▁معاهدي	-9.77142
▁ڀري	-9.77192
▁پوزيشن	-9.77239
▁تخليق	-9.77245
▁پيئڻ	-9.77265
▁بحالي	-9.77285
▁لطف	-9.77339
بس	-9.77411
▁برطانيه	-9.7746
مر	-9.77527
▁اليڪشن	-9.77672
▁ضحك	-9.77681
▁روايتي	-9.77705
▁ايشيا	-9.77708
▁تهيه	-9.7774
▁دم	-9.77752
▁کا	-9.77766
▁ڏسندا	-9.77768
▁والد	-9.77777
▁پارڪ	-9.77783
▁مرمت	-9.77888
▁چاهيون	-9.77965
؟!	-9.78065
▁يافته	-9.78078
▁زنده	-9.78102
▁مرڪزي	-9.78182
▁پيئي	-9.78265
▁فوٽو	-9.78544
▁گو	-9.78726
▁اهڙن	-9.78757
از	-9.78842
▁نقل	-9.7888
W	-9.78909
▁ٿر	-9.78961
هههههههههههههههه	-9.78998
▁پرين	-9.79029
▁انڊسٽري	-9.79119
▁پاليسي	-9.79167
▁وڪيپيڊيا	-9.79213
▁اف	-9.79254
▁26	-9.79266
▁عنوان	-9.79277
▁برقي	-9.79407
▁وهي	-9.79427
▁عشان	-9.79457
▁کاڌو	-9.79491
▁رح	-9.79565
وار	-9.79617
▁ذريعو	-9.79632
ايل	-9.79719
▁مزاحمت	-9.79829
▁وساري	-9.7984
▁ڪپڙا	-9.79852
▁چرچ	-9.79904
▁امداد	-9.80047
▁تڪرار	-9.80286
▁سنڀال	-9.80386
▁وڃان	-9.80441
▁ريلوي	-9.80558
▁خاموش	-9.8065
فر	-9.80675
▁ھا	-9.80726
▁بڻايو	-9.80797
▁اڳيون	-9.80807
اه	-9.80906
▁واقعن	-9.80914
▁صور	-9.80927
▁نواز	-9.81198
▁ارب	-9.81199
▁حلوة	-9.81292
اف	-9.81341
▁ابراهيم	-9.81405
▁سگھون	-9.81465
▁ٽيبل	-9.81506
▁ميڪ	-9.81514
▁ڪاپي	-9.81553
▁پتو	-9.81585
▁پاڻيءَ	-9.81589
▁مات	-9.816
▁مهل	-9.81617
▁خيالن	-9.81636
▁سرڪار	-9.81643
▁طرز	-9.8165
▁23	-9.81878
▁بہ	-9.81878
▁L	-9.81982
▁هلڻ	-9.82074
▁واپاري	-9.82186
V	-9.82196
▁سور	-9.82217
جه	-9.82269
▁دستاويز	-9.82366
▁درجه	-9.82387
▁توقع	-9.82444
▁ابي	-9.82454
▁سونهن	-9.82462
▁افسوس	-9.82519
▁ڪهڙا	-9.82524
مين	-9.82634
k	-9.82649
▁روحاني	-9.82665
▁چيم	-9.82713
▁وڌڻ	-9.82726
▁ملڪي	-9.82729
▁معاشي	-9.82734
▁ڀارت	-9.82801
▁اٿي	-9.82948
▁پنڌ	-9.82992
▁نگراني	-9.83043
ذ	-9.83082
▁تڪليف	-9.83128
▁نڪتو	-9.83223
▁حب	-9.83303
▁احد	-9.83405
▁اقول	-9.83528
▁پابندي	-9.8355
▁</	-9.83575
▁ڏيان	-9.83591
▁تعارف	-9.83659
▁قول	-9.83691
▁موڊ	-9.83691
▁ٽيڪس	-9.83776
▁کوليو	-9.83797
▁گول	-9.83912
▁سکيا	-9.83952
▁سير	-9.84019
▁سک	-9.84035
▁گر	-9.84052
▁موڪلي	-9.84122
▁اوچتو	-9.84344
▁ارسال	-9.84363
h	-9.84457
l	-9.84457
▁انٽرنيشنل	-9.84582
▁27	-9.8459
▁راضي	-9.84596
▁اسٽيٽ	-9.84757
▁سائيٽن	-9.84801
▁ايش	-9.84809
▁شعبي	-9.84899
▁رکيل	-9.85035
▁پلاسٽڪ	-9.85037
▁ڪنڊ	-9.85047
▁عليكم	-9.85096
▁سرگرمين	-9.85131
▁مار	-9.85158
▁گه	-9.85249
▁آهستي	-9.85275
▁اكيد	-9.85283
f	-9.85326
▁آندو	-9.85347
▁سازي	-9.85371
▁لائق	-9.85508
▁آفريڪا	-9.85524
▁تم	-9.85525
▁بيٺو	-9.85528
▁مدت	-9.85582
▁ڪپ	-9.85588
▁دوستي	-9.85668
▁روزاني	-9.85774
on	-9.85808
▁اڳواڻ	-9.85939
وب	-9.85993
▁جبل	-9.85995
▁سادو	-9.86005
▁آھيو	-9.86067
▁منٽن	-9.86105
قي	-9.86106
▁مصر	-9.86187
▁پروفيسر	-9.86209
▁رکندو	-9.86233
▁28	-9.86234
▁بد	-9.86368
▁نام	-9.86412
▁نيٺ	-9.86448
▁حاضر	-9.86451
▁مٽي	-9.86467
▁جرمن	-9.86674
▁نيشنل	-9.86683
▁پاسو	-9.86744
▁بازار	-9.86767
▁مقصدن	-9.86769
▁حرڪت	-9.86909
▁آسٽريليا	-9.86918
▁اٿئي	-9.86921
▁آفيسر	-9.86923
▁مٿين	-9.8706
مو	-9.87106
▁ڀرسان	-9.8715
▁2014	-9.87164
▁اوھين	-9.8719
▁خون	-9.87242
▁چيف	-9.87346
▁نرم	-9.87358
▁بٽڻ	-9.87397
▁چوندو	-9.87431
▁په	-9.87455
ly	-9.87496
▁ڀڳ	-9.87531
▁حملو	-9.87569
▁بررسي	-9.87626
▁سپورٽ	-9.87632
▁R	-9.87646
▁هست	-9.87674
▁عقل	-9.87733
▁خطرو	-9.87762
▁پنجن	-9.8779
▁منحصر	-9.87858
▁ميوزڪ	-9.87858
▁ڪارروائي	-9.87858
▁وٺندو	-9.87882
▁سائيڪل	-9.87892
▁انڊيا	-9.87898
▁تجارتي	-9.87912
▁رک	-9.87931
▁ڪمزور	-9.87977
الله	-9.88039
▁ڪاغذ	-9.88096
▁ڳنڍيل	-9.88125
▁دفعي	-9.88145
ااا	-9.88179
مه	-9.88222
▁کنيو	-9.88227
▁in	-9.88237
▁عندك	-9.88271
▁روسي	-9.88316
▁خاطر	-9.88347
تن	-9.88374
▁ذهني	-9.88385
▁خبرون	-9.88436
آآ	-9.88469
▁هيك	-9.88498
▁ني	-9.88507
▁لوڪ	-9.88653
▁اون	-9.88724
۔۔۔	-9.88815
▁ايئرپورٽ	-9.88816
▁اُهو	-9.8883
▁امين	-9.88832
▁اسم	-9.88849
▁علامت	-9.88951
▁گهرن	-9.88972
▁ظلم	-9.89094
▁هين	-9.89113
▁مقام	-9.89345
▁O	-9.89345
ارو	-9.89346
▁ھئا	-9.89355
▁انجڻ	-9.89443
▁کل	-9.89474
▁بيمار	-9.89476
▁باغ	-9.89482
▁هفتن	-9.89492
▁بيهي	-9.89497
▁صنعتي	-9.89521
▁روزانو	-9.8955
▁چوڌاري	-9.89784
▁مطالبو	-9.89809
▁اسٽيل	-9.89837
▁رجحان	-9.89956
re	-9.89998
▁فل	-9.90024
▁ترڪي	-9.90025
▁معاملن	-9.90026
▁فٽبال	-9.90046
▁4.	-9.90234
توهان	-9.90265
▁وڪيل	-9.90316
▁رکون	-9.90415
▁مراد	-9.9044
اها	-9.90473
▁سيد	-9.90526
▁موثر	-9.90528
▁طئي	-9.90564
▁منظوري	-9.9059
لك	-9.90622
▁ڪائونسل	-9.9064
▁اکر	-9.90643
▁روپ	-9.90662
▁داخلا	-9.90674
▁وڊيوز	-9.90753
▁وڌندڙ	-9.908
▁2-	-9.90866
▁مسيح	-9.90868
▁ذريعن	-9.91006
▁معيشت	-9.91009
▁عذاب	-9.91016
H	-9.91084
▁گهري	-9.9111
▁ڊپ	-9.91168
▁لطيف	-9.91263
▁ملازمن	-9.91319
▁قوت	-9.91341
▁ڀيڻ	-9.91348
▁جهان	-9.91348
▁غم	-9.91349
▁پراڊڪٽ	-9.91361
▁ڇڏيا	-9.91405
▁اياز	-9.91414
▁آڇ	-9.91486
w	-9.91507
▁2013	-9.91526
▁انتخاب	-9.91538
▁اش	-9.91629
▁اَ	-9.91701
▁علائقو	-9.91746
▁ارادو	-9.91748
▁تنقيد	-9.91748
▁مرڻ	-9.91802
▁V	-9.91878
▁جه	-9.91951
▁جد	-9.92022
▁شھر	-9.92115
▁ملازم	-9.92155
▁ڪيان	-9.92193
انا	-9.92238
▁وڌايو	-9.92331
ڊي	-9.92343
-19	-9.92379
▁80	-9.92459
▁ٿ	-9.9246
▁آء	-9.9247
▁مسجد	-9.92517
▁زبردست	-9.92552
▁ٻوليءَ	-9.92632
R	-9.927
▁ڪلاڪن	-9.92726
▁ڊائونلوڊ	-9.92743
▁سڃاتو	-9.92744
▁ناقابل	-9.92744
▁ڀرپور	-9.92748
▁منصوبن	-9.92767
▁پيرن	-9.92775
▁هلائي	-9.92796
▁بچائي	-9.92801
▁ويٺي	-9.92896
▁نبي	-9.92914
▁p	-9.92914
▁بم	-9.92918
▁چاهين	-9.92972
▁عيد	-9.93034
▁بلند	-9.93049
▁ول	-9.93155
▁کولي	-9.93209
▁اسرائيل	-9.93243
▁فائدا	-9.93246
ers	-9.93308
▁خارجي	-9.93311
▁فيشن	-9.93382
▁شور	-9.93427
▁90	-9.93447
▁مني	-9.93491
▁دريافت	-9.935
▁قلت	-9.93538
▁شريف	-9.93551
▁ڪلام	-9.9363
▁مور	-9.93738
▁ڪميٽي	-9.93881
▁قيد	-9.93898
▁اُتي	-9.93918
صلى	-9.93928
▁ڄاڻڻ	-9.93983
▁خطرناڪ	-9.94003
▁نڪرڻ	-9.9402
▁سڀاڻي	-9.94133
▁قلم	-9.94179
le	-9.9424
▁الموضوع	-9.94261
▁لم	-9.94327
▁هندو	-9.94338
▁محبوب	-9.94366
▁&	-9.94424
▁متحرڪ	-9.94511
▁ڪئميرا	-9.94511
▁مسلم	-9.94556
▁شيءَ	-9.94613
▁ٻولين	-9.94718
▁قلب	-9.94784
▁گھڻي	-9.94796
▁اتحاد	-9.94911
▁علمي	-9.94967
▁قد	-9.95005
▁کوٽ	-9.95029
▁بلڪه	-9.95041
▁ياداشت	-9.95056
▁شهرين	-9.95144
▁ڪناري	-9.9522
▁نهايت	-9.95228
▁ڪيئي	-9.95241
▁پنھنجو	-9.95278
▁سرگرمي	-9.95285
▁زن	-9.95461
▁تشدد	-9.95535
▁چمڙي	-9.95552
▁دفعا	-9.95568
▁رئيس	-9.95573
[	-9.95583
▁فورم	-9.95637
؟؟	-9.95679
▁دوري	-9.95687
▁خوراڪ	-9.95793
▁گاڏي	-9.95794
▁زمرو	-9.95825
▁نون	-9.95839
▁جوڙي	-9.95865
▁سب	-9.95875
▁ننڍڙي	-9.95898
ڏي	-9.96049
▁هائوس	-9.96051
▁وصول	-9.96257
وش	-9.96278
▁وم	-9.96323
▁ڊائريڪٽر	-9.96345
▁ڏيندڙ	-9.96364
▁قال	-9.96373
▁ساٿ	-9.96433
ھي	-9.96436
▁پٽي	-9.96454
▁ميز	-9.96471
▁پيل	-9.96572
▁خطري	-9.96614
▁جوان	-9.96662
▁دولت	-9.96711
▁حصا	-9.96754
▁رھيا	-9.96763
▁مسلمانن	-9.96775
▁؟؟؟	-9.96836
▁چوري	-9.96866
▁وارث	-9.96884
▁انسانن	-9.96902
▁تار	-9.9694
▁محل	-9.96962
ڇا	-9.96963
▁يکي	-9.96986
▁لكن	-9.96987
X	-9.97047
▁پڙهو	-9.97089
▁اعتبار	-9.97096
▁عبدال	-9.97097
▁مرحله	-9.971
▁وٺ	-9.97111
▁قبضو	-9.97124
▁هئاسين	-9.97216
نڊ	-9.97293
▁فيصلي	-9.97299
▁اور	-9.97347
▁پا	-9.97366
▁ناھي	-9.97386
▁عرض	-9.97395
▁الع	-9.97414
▁حصيداري	-9.97464
▁انجنيئر	-9.97491
وني	-9.97616
▁سه	-9.97624
▁گهڙي	-9.97625
▁ڊگهو	-9.97648
▁قابليت	-9.97723
▁هتان	-9.97753
▁سرهندي	-9.97883
▁سوالن	-9.97905
▁ڪنڌ	-9.97909
▁اطلاع	-9.97927
▁ڌر	-9.97942
it	-9.97943
▁ڪمپنيون	-9.97967
▁عجب	-9.97982
▁لڳائي	-9.98014
▁مادي	-9.98078
▁عزيز	-9.98081
▁نظارو	-9.98143
▁سيل	-9.9817
▁مشق	-9.98186
▁سئو	-9.98201
▁اصطلاح	-9.98289
ستان	-9.98342
▁طوفان	-9.98407
▁عبادت	-9.9857
▁جولاءِ	-9.98579
▁امي	-9.98594
▁تنھنجي	-9.98712
▁ماهرن	-9.98782
▁يقول	-9.98784
▁اگه	-9.98813
▁معاشري	-9.9901
▁انسانيت	-9.9902
▁ترجيح	-9.9909
▁لڳل	-9.99107
▁سيڪريٽري	-9.99112
▁بچڻ	-9.99237
▁آھيون	-9.99447
▁وان	-9.99453
▁قدرت	-9.99463
رس	-9.99471
▁سري	-9.99548
▁رساله	-9.99553
▁سوي	-9.99563
سم	-9.99709
▁منتقلي	-9.99765
il	-9.99898
▁ملندي	-9.999
▁پهچائي	-9.99982
▁ثبوت	-10.0001
▁شريڪ	-10.0004
▁مثالي	-10.0004
I	-10.0007
▁سهڻي	-10.0012
اهي	-10.003
▁ملندو	-10.0032
▁طبي	-10.0046
▁تنگ	-10.0047
مل	-10.0057
▁اٽڪل	-10.0058
▁ورهين	-10.0058
▁ٽائيم	-10.006
▁پائڻ	-10.0062
▁ريڊيو	-10.0067
▁تقريبا	-10.0069
▁70	-10.0079
▁فائدي	-10.0082
▁نتيجن	-10.0082
كر	-10.0089
▁تقرير	-10.0094
▁کٽ	-10.0107
▁آرٽ	-10.0111
▁تباهه	-10.0112
▁اينڊرائيڊ	-10.012
▁ڏسندي	-10.0125
▁آڏو	-10.0127
▁re	-10.0131
;	-10.0132
▁عاد	-10.0134
▁اليوم	-10.0146
▁ڏند	-10.0148
▁·	-10.0165
▁وائي	-10.017
▁شاعريءَ	-10.0171
▁اختي	-10.0172
U	-10.0173
▁برسات	-10.0176
▁ڪلب	-10.0184
▁چور	-10.0188
اً	-10.0189
ڌ	-10.0199
ايا	-10.0202
▁بنت	-10.0213
▁تقريب	-10.0214
▁ريم	-10.0217
▁ٻڌائڻ	-10.0219
▁لڳندو	-10.0222
▁فارسي	-10.0224
بت	-10.0226
▁نوجوانن	-10.023
▁رجسٽر	-10.0233
▁يكون	-10.0233
▁ڄڻا	-10.0242
▁لڳائڻ	-10.0248
▁گهرو	-10.0252
▁موٽ	-10.0257
10	-10.0257
▁مر	-10.0259
▁مست	-10.0275
ووو	-10.0277
ھن	-10.0278
▁نيڪ	-10.0283
▁هذي	-10.0285
ڀ	-10.0291
▁عليك	-10.0293
▁پڙهيو	-10.0295
▁احترام	-10.0302
▁ميچ	-10.0308
▁ناس	-10.0316
▁رياضي	-10.0328
▁فعل	-10.0331
▁ڪَ	-10.0334
▁ٿينديون	-10.0338
▁رکندي	-10.0342
▁ڇڏيندو	-10.0347
▁ورزن	-10.0359
▁ماهي	-10.0359
▁c	-10.0361
▁شيخ	-10.0365
▁مريم	-10.0374
▁پرواز	-10.0376
▁طول	-10.0382
▁ڊرائيور	-10.0382
ٽن	-10.0388
▁ڀريو	-10.0389
▁حالتون	-10.0402
▁سول	-10.0405
اج	-10.0411
▁نمائندگي	-10.0413
▁اسٽاڪ	-10.0414
▁معك	-10.0414
▁صفحو	-10.0414
▁شب	-10.0425
▁ڇڏ	-10.0427
ڳ	-10.0429
▁واقعو	-10.044
▁ڪاوڙ	-10.044
▁ٺاهيل	-10.0449
▁آيت	-10.0457
▁ووٽ	-10.0458
ڏ	-10.0458
▁منك	-10.0466
▁خارج	-10.0469
▁فيك	-10.0471
▁ننڍو	-10.0472
▁ليڪن	-10.0473
▁عاشق	-10.0475
▁چينل	-10.0478
▁سند	-10.048
▁صفائي	-10.0481
▁أن	-10.0485
▁معي	-10.0488
▁ڪنديون	-10.0491
▁پيماني	-10.0495
▁تقسيم	-10.0498
▁ويٺا	-10.0499
▁مددگار	-10.05
▁اشتهار	-10.0501
▁ڊيسڪ	-10.0501
▁تحليل	-10.0509
▁X	-10.0516
ئو	-10.0527
▁گهٽتائي	-10.0527
▁فرانسيسي	-10.0527
▁سياري	-10.0528
▁توسان	-10.053
▁فى	-10.0543
▁ماء	-10.0547
▁بلاڪ	-10.0549
▁يوٽيوب	-10.0554
▁نقطي	-10.0562
مت	-10.0573
▁چڪر	-10.0576
▁ملن	-10.0577
جر	-10.0577
▁شرطن	-10.0584
آن	-10.0586
▁مارجي	-10.0592
▁انگيز	-10.0601
▁خاصيتن	-10.0607
▁پاڪستاني	-10.0612
▁واسطو	-10.0614
▁خاصيت	-10.0624
▁مستقل	-10.064
▁رهجي	-10.0644
ٿي	-10.0645
▁معاف	-10.0651
▁رانديگرن	-10.0662
▁وقتي	-10.0666
▁غائب	-10.0669
▁پسنديده	-10.067
▁روئي	-10.0678
▁پکي	-10.0679
▁رھي	-10.0687
▁تصويرن	-10.0692
▁چرا	-10.0698
at	-10.07
▁افغان	-10.0701
▁پوائنٽ	-10.0701
▁اڪثريت	-10.0713
▁نشاني	-10.0718
▁وقف	-10.0725
▁اثرات	-10.0726
▁نھ	-10.0729
▁اهل	-10.073
▁هئو	-10.0735
▁^^	-10.0742
▁پريشاني	-10.0751
▁آپريٽنگ	-10.0756
▁سگھوٿا	-10.0756
▁لئه	-10.0763
▁دؤر	-10.0775
▁اينڊ	-10.0779
▁سامونڊي	-10.0785
▁ماڳ	-10.0786
▁بلا	-10.079
وت	-10.0798
▁پيامبر	-10.0806
▁كذا	-10.0808
▁حملي	-10.0808
▁موجودگي	-10.0813
▁متعلق	-10.0814
▁امر	-10.082
شو	-10.082
▁مفيد	-10.0821
▁رس	-10.0821
▁پچ	-10.0824
▁فيلڊ	-10.0824
▁هيٺان	-10.0826
▁ڪهاڻيون	-10.0828
▁آمد	-10.0839
▁ڊسڪ	-10.0839
هآ	-10.0857
▁صبر	-10.0861
تني	-10.0867
▁سلامت	-10.0872
▁برطانيا	-10.0872
▁معاهدو	-10.0879
▁يالله	-10.0887
▁(2)	-10.0888
▁مطالعو	-10.0904
▁مرضي	-10.0909
ڻي	-10.0927
▁دست	-10.0929
▁اسمارٽ	-10.0931
▁مهينا	-10.0934
▁چوان	-10.0953
▁جيل	-10.0958
▁صفحه	-10.0963
▁آپشن	-10.0963
▁پد	-10.0982
▁اتان	-10.099
▁ماڻي	-10.1006
▁چڪاس	-10.1006
▁مهر	-10.1012
▁35	-10.1019
▁حضور	-10.1019
▁مستحڪم	-10.102
▁الناس	-10.1022
▁مطالعي	-10.1025
▁سنه	-10.1029
ٽس	-10.1037
▁تت	-10.1038
▁تياري	-10.1038
ol	-10.1041
▁شان	-10.1055
▁جميل	-10.106
وك	-10.1066
▁پمپ	-10.1081
▁ڪارڻ	-10.1081
▁اسٽوريج	-10.1081
▁روزگار	-10.1082
▁لڳايو	-10.1089
يني	-10.1091
▁پڙهائي	-10.1097
▁پور	-10.1102
▁فني	-10.1106
st	-10.1106
▁هلندو	-10.1114
▁29	-10.1115
▁جز	-10.1116
▁بحران	-10.1117
▁ترميم	-10.1117
▁ثقافتي	-10.1118
▁of	-10.1129
▁شر	-10.1131
▁نيٽورڪ	-10.114
▁شه	-10.1144
▁ننڍڙو	-10.1145
دل	-10.1147
▁پيج	-10.1154
آإ	-10.1163
▁حيات	-10.1164
▁پيدائش	-10.1172
▁آخرين	-10.1174
▁ڏوهه	-10.1175
▁شڪر	-10.1179
0	-10.1184
▁اڳواڻن	-10.1185
▁ڏيکاريو	-10.1189
▁حالا	-10.1192
▁بعض	-10.1196
▁سائنسي	-10.1211
▁المهم	-10.1211
▁تفصيلي	-10.1213
▁موڪلڻ	-10.1213
وف	-10.1216
v	-10.1217
▁عالي	-10.1223
اش	-10.1231
▁انگريزن	-10.1239
▁الل	-10.1242
▁سرچ	-10.1242
▁and	-10.1245
):	-10.1263
▁تبصرو	-10.1266
▁هارڊ	-10.1273
▁سينٽ	-10.128
20	-10.1281
▁ترا	-10.1287
▁قيام	-10.1298
▁ماسڪ	-10.1302
▁500	-10.1302
▁اپيل	-10.1312
▁مليا	-10.1321
▁ميشه	-10.1325
▁پول	-10.1327
▁ڊزائين	-10.133
يعني	-10.1331
▁هاء	-10.1332
▁گيري	-10.1333
▁رواج	-10.1339
▁سائن	-10.1347
▁تري	-10.1348
ائ	-10.1349
▁ٽرئفڪ	-10.1354
▁ايوارڊ	-10.1354
▁کاٻي	-10.1355
▁پروسيسنگ	-10.1357
▁گهرج	-10.1363
ڊو	-10.1364
▁ماهه	-10.1366
▁فلسفي	-10.1368
▁اخلاقي	-10.1368
▁فنڪشن	-10.1374
▁پلس	-10.1377
▁عادي	-10.1378
جان	-10.1382
ههه	-10.1388
▁sub	-10.1389
▁انھيءَ	-10.1395
▁مآ	-10.1406
▁مصروف	-10.1414
▁موبائيل	-10.1415
▁COVID	-10.1416
▁ڪلو	-10.1418
▁حديث	-10.1418
ڪل	-10.1421
▁ڪريڊٽ	-10.1422
▁نسخو	-10.1431
▁هندي	-10.144
▁چونڊڻ	-10.145
▁سپري	-10.1461
▁اما	-10.1462
▁روانو	-10.1471
▁نصب	-10.1474
▁ڪتي	-10.1481
▁1-	-10.1502
ur	-10.1507
ونه	-10.1513
رم	-10.1528
▁مائي	-10.1534
▁الخ	-10.1538
▁خالص	-10.1541
▁جمهوريت	-10.1543
▁توجيهي	-10.1544
ڻو	-10.1545
لين	-10.1547
▁مسٽر	-10.1552
▁هُئي	-10.1553
▁ھتي	-10.1556
▁فري	-10.1562
▁ظاهري	-10.1565
▁ڪوٽ	-10.1572
▁كده	-10.1573
▁سهڪار	-10.1574
▁سيڪشن	-10.1577
▁ڀيري	-10.1578
▁فارميٽ	-10.158
▁ٻاهران	-10.158
يء	-10.1584
▁ٿڌي	-10.159
▁روايت	-10.1596
وز	-10.1604
▁عملن	-10.1605
▁ٽڪر	-10.1606
▁2012	-10.1607
▁گذارڻ	-10.1607
▁بازي	-10.1613
▁بدقسمتي	-10.1625
▁سمارٽ	-10.1636
▁بيٺل	-10.1636
▁فلٽر	-10.1638
▁پنهنجون	-10.1639
ri	-10.1651
اح	-10.1653
▁مهمان	-10.1662
▁پاپ	-10.1666
▁انگلينڊ	-10.1667
▁ويڪسين	-10.1669
▁بنائڻ	-10.1671
▁اٺ	-10.1672
▁تاج	-10.1675
▁اُها	-10.1678
▁b	-10.1678
▁وراڻيو	-10.1678
▁مسافرن	-10.1679
▁پيء	-10.1681
حد	-10.1683
▁عطا	-10.1685
▁چڙهي	-10.1688
▁اعتراض	-10.1698
گري	-10.1699
▁گوشت	-10.1705
▁پڇڻ	-10.1708
▁رحم	-10.1708
▁ــ	-10.1709
▁اوهين	-10.1712
زر	-10.1713
▁سکر	-10.1715
▁راهه	-10.1725
▁چيئرمين	-10.173
▁اھا	-10.1731
▁صدارت	-10.1735
▁2010	-10.1736
▁چونڊن	-10.174
،"	-10.1742
▁جهڙا	-10.1743
▁سستي	-10.175
دن	-10.1751
▁طرفن	-10.1751
▁ڊيٽابيس	-10.1762
▁ڪميونٽي	-10.1762
▁ھٿ	-10.1768
سنڌي	-10.1782
▁ثاني	-10.1782
▁فنڊ	-10.1786
▁کنڊ	-10.1793
▁پياري	-10.1794
▁همه	-10.1802
▁سختي	-10.1803
▁ٽين	-10.1813
▁f	-10.1814
▁3-	-10.1825
▁شرم	-10.1826
▁ڊسپلي	-10.1827
▁هونئن	-10.1828
▁كمان	-10.1828
▁معنى	-10.1831
▁2011	-10.1831
عه	-10.1839
▁تڪڙو	-10.184
نٽ	-10.1842
▁منھنجو	-10.1862
▁هلندي	-10.1869
▁ملائي	-10.1871
▁نالن	-10.1872
un	-10.1875
=	-10.1878
▁ڪيميائي	-10.1892
▁صحتمند	-10.1892
▁ث	-10.1898
▁وَ	-10.1901
▁ڪاريگر	-10.1902
ic	-10.1905
اڙي	-10.1911
▁ڏٺي	-10.1916
اق	-10.1919
▁سٽ	-10.1921
▁ڪارپوريشن	-10.1924
▁كلهم	-10.193
z	-10.193
▁ڀ	-10.1934
▁اھڙي	-10.1942
▁عم	-10.1946
▁غذا	-10.1953
▁آڊيو	-10.1958
▁رهندڙ	-10.1958
▁اصلاح	-10.1961
▁ڪيسن	-10.1962
▁سوا	-10.1965
▁200	-10.1972
هههههههههههههه	-10.1975
▁(1	-10.198
▁نار	-10.198
▁نوٽيس	-10.1991
▁جامع	-10.2002
▁ڪارڪنن	-10.2003
▁تلاش	-10.2003
▁سگهيا	-10.2005
نداسين	-10.2006
يك	-10.2008
▁جذباتي	-10.2018
▁گنجائش	-10.2023
▁احوال	-10.2023
▁دبئي	-10.2024
▁ضلعي	-10.2029
▁ڇوڪرو	-10.203
▁مرض	-10.2037
um	-10.2049
▁ڏهن	-10.205
▁جدوجهد	-10.2056
▁مداخلت	-10.2056
▁مليل	-10.2063
is	-10.2064
▁بقى	-10.2075
▁واچ	-10.2078
▁حوالو	-10.2091
▁ويندس	-10.2096
▁اسٽار	-10.2098
▁كله	-10.2099
يش	-10.21
▁ضحكت	-10.2105
▁سَ	-10.2109
▁کسي	-10.2113
▁شكله	-10.2124
▁سام	-10.2127
بن	-10.2133
▁ماحولياتي	-10.2134
حب	-10.2136
▁شنو	-10.2137
▁ڪاٺ	-10.2139
▁شڪايت	-10.2139
▁شكلك	-10.2149
▁ديگه	-10.2156
▁احلى	-10.2158
▁آغاز	-10.2159
▁تعالي	-10.2159
▁ھجي	-10.2159
▁ڪٿان	-10.2164
▁فين	-10.2169
▁منفي	-10.2178
▁اهڙيون	-10.2186
▁لاهي	-10.2188
▁اقتدار	-10.2189
▁ايجنٽ	-10.2189
رڪ	-10.2189
▁يقينا	-10.2191
▁بجيٽ	-10.2191
▁جم	-10.2194
▁بلڪ	-10.2195
▁ڌڪ	-10.2195
▁جتان	-10.2199
اءُ	-10.22
▁بهار	-10.2211
يات	-10.2218
جل	-10.2221
▁محروم	-10.2222
▁مطمئن	-10.2223
▁طبيعت	-10.2223
▁شڪست	-10.2225
▁جشن	-10.2229
▁کيڏڻ	-10.2244
▁تضحك	-10.2245
رين	-10.2251
سس	-10.2251
▁حرارت	-10.2255
▁مٺي	-10.2274
▁m	-10.2278
▁نيب	-10.2285
▁مب	-10.2285
▁اندوز	-10.229
▁رجسٽريشن	-10.229
▁تنھن	-10.2291
▁ڪورس	-10.2294
▁هار	-10.2296
ion	-10.2297
پا	-10.2304
اا	-10.2304
▁گهٽائڻ	-10.2304
ادي	-10.231
▁ره	-10.2312
▁پيارا	-10.2312
ران	-10.2323
▁ڪپڙن	-10.2325
▁ڌاتو	-10.2329
رت	-10.2336
اين	-10.2336
▁وڏيون	-10.2343
▁دوم	-10.2345
▁برادري	-10.2345
▁حي	-10.2349
▁گولي	-10.2356
▁آي	-10.2357
▁دعويٰ	-10.2358
▁2008	-10.2362
▁ماٺ	-10.2371
▁۱	-10.2372
رب	-10.2373
▁كثير	-10.2376
▁ٽاپ	-10.2378
▁اکرن	-10.238
الا	-10.2381
▁پيچيده	-10.2395
▁31	-10.2399
▁صلاحيتن	-10.2401
يلي	-10.2415
▁ڪمن	-10.2421
▁ناممڪن	-10.2426
▁اِهو	-10.2428
▁ليزر	-10.2435
▁هاري	-10.2445
30	-10.2453
▁اخي	-10.2461
▁نمايان	-10.2461
▁بچايو	-10.2464
▁ڌيءَ	-10.2469
▁پڇي	-10.2484
▁فيڪٽري	-10.2486
▁سردار	-10.2487
▁J	-10.2489
▁ماسٽر	-10.249
▁ڪٽ	-10.249
▁رکندا	-10.2491
فت	-10.2492
▁هنا	-10.2494
▁منعقد	-10.2495
▁ويجهي	-10.2497
▁گرين	-10.2505
el	-10.2505
▁پورا	-10.2507
ٰ	-10.2513
▁اح	-10.2515
▁ڀت	-10.2516
▁ڊومين	-10.253
▁انها	-10.2536
؟؟؟	-10.2542
▁هيڪ	-10.2545
▁مها	-10.2549
▁تعلقات	-10.255
پور	-10.2551
▁جيتري	-10.2557
▁سست	-10.2559
▁ڪانگريس	-10.2564
▁پهچايو	-10.2566
▁لما	-10.2567
▁طريقيڪار	-10.2568
زا	-10.2574
▁پورٽ	-10.2575
▁نفسياتي	-10.2578
▁ادارو	-10.2584
▁كتير	-10.2585
▁سڄڻ	-10.2588
▁مند	-10.2589
▁هيل	-10.2593
▁سگنل	-10.2594
▁مشغول	-10.2599
اط	-10.2608
▁t	-10.2609
▁گلي	-10.2617
▁لينڊ	-10.2617
▁عراق	-10.2627
▁ادري	-10.2631
▁چوٿين	-10.2635
▁داستان	-10.2635
▁توکان	-10.2637
▁روڪيو	-10.2645
▁ڪيائون	-10.2648
▁احسان	-10.2649
يس	-10.2658
امي	-10.266
▁ڪرڪيٽ	-10.266
آر	-10.2662
▁لآ	-10.2668
▁ملائيشيا	-10.267
▁فرمايو	-10.2671
▁چانهه	-10.2672
▁ٻانهن	-10.2674
▁الن	-10.2677
يز	-10.2681
NT	-10.2681
ch	-10.2688
▁ڄاڻو	-10.2689
▁پيغمبر	-10.2693
عي	-10.2703
▁فيها	-10.2703
▁تك	-10.2706
▁نجي	-10.2708
▁ٽريڪ	-10.271
▁اُنهن	-10.2715
▁تخليقي	-10.2719
ڇ	-10.2727
▁يادگار	-10.2729
50	-10.273
پو	-10.2734
▁رهنمائي	-10.2741
▁گهمڻ	-10.2742
▁ٻارڙن	-10.2745
▁ڏهه	-10.2749
▁ڇڏيندا	-10.2753
▁اختلاف	-10.276
▁برف	-10.276
▁برو	-10.2765
▁باڪس	-10.2765
▁خشڪ	-10.2774
▁پروجيڪٽ	-10.2775
▁Z	-10.2775
▁هنڌن	-10.2775
▁پارليامينٽ	-10.2776
▁اعظم	-10.2776
▁ويٺل	-10.2777
▁ڪوٺي	-10.2777
▁وسيلي	-10.2777
▁إن	-10.2779
▁سنئون	-10.2779
شا	-10.2779
▁ايڏو	-10.2784
▁گريڊ	-10.2787
▁پينل	-10.2787
▁پَ	-10.2793
▁نڪ	-10.2798
▁معصوم	-10.2809
▁احس	-10.2811
▁ناچ	-10.2812
▁بجاءِ	-10.2812
▁بھ	-10.2813
▁مدل	-10.2815
▁ننڍن	-10.2818
▁الك	-10.2819
▁فراهمي	-10.282
▁فريم	-10.2821
▁پوئين	-10.2821
:-	-10.2824
▁رنگن	-10.2825
▁اختيارن	-10.2827
▁انگن	-10.2828
▁الس	-10.283
▁ٽيگ	-10.2834
▁تعجب	-10.284
▁باس	-10.2841
▁همين	-10.2847
▁ميڊيڪل	-10.2848
%	-10.285
▁ڪسٽم	-10.2851
▁هيڊ	-10.2856
▁واڌاري	-10.2857
▁ڊاڪٽرن	-10.2867
▁خاني	-10.2869
▁مارڻ	-10.287
▁گلن	-10.2874
▁يقينن	-10.2875
▁ڏيکارڻ	-10.2885
▁لاهور	-10.2885
▁چاھيو	-10.2887
تكم	-10.2893
▁پيس	-10.2896
▁بقا	-10.2899
▁چهري	-10.2903
▁موڙ	-10.2906
▁رهائش	-10.2907
▁پابند	-10.2911
▁الت	-10.2915
▁چيٽ	-10.2915
▁استحڪام	-10.2918
▁وسيلن	-10.2918
▁مرحلي	-10.2918
▁مشورو	-10.292
▁5.	-10.292
زن	-10.2921
▁ڪسٽمر	-10.2929
▁راڄ	-10.293
▁اعرف	-10.2935
▁واه	-10.2938
▁حس	-10.294
ter	-10.2941
▁انفرادي	-10.2942
اك	-10.2943
▁نصيب	-10.2946
▁سوراخ	-10.2955
▁جنت	-10.2955
دم	-10.2958
رد	-10.2958
▁اولين	-10.2961
▁وچولي	-10.2963
منهنجي	-10.2965
▁تجربن	-10.2968
▁کو	-10.2975
▁داد	-10.2976
▁سٽي	-10.2981
▁متان	-10.2983
▁قدمن	-10.2985
▁انگريز	-10.2986
▁کير	-10.2988
ٹ	-10.299
▁برطانوي	-10.2991
▁اڪيلي	-10.2992
▁واهه	-10.2993
+	-10.2998
▁بھترين	-10.2999
▁ڊگري	-10.3013
رف	-10.3017
آل	-10.3017
فل	-10.3021
▁ڦ	-10.3026
▁چئبو	-10.3027
▁سمجهاڻي	-10.3028
ation	-10.303
▁فطري	-10.3032
▁ڪتو	-10.3036
▁is	-10.3044
▁باقاعده	-10.3045
▁پهر	-10.3049
▁تازي	-10.3057
▁معافي	-10.3058
ent	-10.3064
ta	-10.3065
▁خاتمي	-10.3067
links	-10.3067
▁هِن	-10.3068
▁جاپان	-10.3068
▁خانگي	-10.3069
▁ڪيبل	-10.3073
▁بچي	-10.3083
▁لاگ	-10.3083
▁صفا	-10.3092
▁طب	-10.3095
▁ڀارتي	-10.3096
▁سروسز	-10.3096
سان	-10.3097
▁اُ	-10.3099
▁ڪنيڪشن	-10.31
▁مرحلن	-10.31
▁هستي	-10.3103
عليه	-10.3104
ارا	-10.3105
▁حبيب	-10.3108
▁فوٽ	-10.3117
ية	-10.3118
اااا	-10.3119
▁تقول	-10.3123
▁مندر	-10.3126
▁نكت	-10.3127
▁الائي	-10.3135
▁افزائي	-10.3137
▁آثار	-10.3138
▁واعدو	-10.3141
▁أي	-10.3144
فه	-10.3146
▁دروازو	-10.3147
▁سولو	-10.3148
▁ٻڌ	-10.3152
▁رسم	-10.3157
▁سچي	-10.3158
▁ڌاري	-10.3161
▁سگهندي	-10.3173
گا	-10.3174
▁ننڍپڻ	-10.3174
▁آزاديءَ	-10.318
▁پهچ	-10.3189
▁پارٽين	-10.319
▁پرست	-10.3191
▁مبارڪ	-10.3195
▁تع	-10.3198
ۈ	-10.32
▁شدت	-10.32
▁ٻج	-10.3202
▁ميزبان	-10.3204
▁ادارا	-10.3205
▁سرٽيفڪيٽ	-10.3211
▁پالڻھار	-10.3211
club	-10.3211
▁today	-10.3211
▁اكثر	-10.3213
▁وڏين	-10.3216
▁چوٽي	-10.322
▁جڳ	-10.3225
▁سچو	-10.3235
▁يم	-10.3235
▁لاڪ	-10.3236
▁قيامت	-10.3243
▁متفق	-10.3248
لن	-10.3249
▁سيلز	-10.3249
▁تنھنڪري	-10.3249
▁پيشڪش	-10.3253
▁زهر	-10.3255
ڄ	-10.3259
يشن	-10.3259
▁چاپ	-10.3272
كه	-10.3273
▁Next	-10.3285
▁معتبر	-10.3286
▁جج	-10.3297
▁ڀا	-10.3299
▁وير	-10.33
id	-10.3303
▁حادثي	-10.3307
▁برنامه	-10.3323
▁لله	-10.3329
▁تنظيمن	-10.333
▁پيچ	-10.3336
▁پنجاب	-10.3338
▁صف	-10.3339
▁عل	-10.3342
ههههههههههههههه	-10.3343
▁سروي	-10.3344
كِ	-10.3346
▁شئي	-10.3347
▁هيلو	-10.3349
▁تس	-10.3351
▁ڊيل	-10.3358
▁فور	-10.336
▁افيئر	-10.3361
▁عيسي	-10.3365
▁اصولن	-10.3367
▁ڪانگ	-10.3371
▁ساز	-10.3372
▁تهذيب	-10.3373
▁ڳالهائيندي	-10.3373
ولا	-10.3373
▁ڀروسو	-10.3398
▁نڪي	-10.3402
▁خوشيءَ	-10.3406
▁ماريو	-10.3408
▁شعبن	-10.3413
▁بدي	-10.3416
▁جوڳي	-10.3417
▁احم	-10.3419
ate	-10.3426
▁اسٽيج	-10.3438
▁اردو	-10.3439
▁ڀلو	-10.3441
▁رياستن	-10.3445
▁سچائي	-10.3455
▁ذ	-10.3456
40	-10.3461
▁ديگر	-10.3466
عت	-10.3467
رح	-10.3469
اسين	-10.3469
▁سمجھي	-10.347
▁ديس	-10.347
گل	-10.3472
▁امزح	-10.3476
▁رهو	-10.3477
▁پورهيت	-10.3478
▁چئو	-10.3479
▁وڳي	-10.3483
▁استادن	-10.3487
كي	-10.3491
▁ڏياري	-10.3498
▁طبقي	-10.35
▁ڏسان	-10.3503
▁سيڪنڊ	-10.3506
▁سؤ	-10.3507
▁تعليق	-10.3509
▁ايجاد	-10.3513
▁ڪينسر	-10.3515
▁خداوند	-10.3516
▁ڇت	-10.3516
▁ڊبليو	-10.3517
▁کانئس	-10.3535
▁الحين	-10.354
▁آيس	-10.3544
▁جر	-10.3546
▁سياحن	-10.3549
▁ايپليڪيشنن	-10.355
▁ڪرسمس	-10.355
▁تبديليون	-10.3558
▁تسلم	-10.3558
▁جماعت	-10.3561
▁ض	-10.3563
▁45	-10.357
▁عيسى	-10.3589
▁سالياني	-10.359
▁ڇڪڻ	-10.3592
دان	-10.3593
▁ڇهه	-10.3595
▁ٿڌو	-10.3599
▁ڪتن	-10.3601
ad	-10.3608
مس	-10.3608
▁نظرات	-10.3611
▁وڪري	-10.3613
▁ھيٺ	-10.3614
▁قطار	-10.3615
▁کٽي	-10.3619
▁لکين	-10.3626
▁عرصو	-10.3627
▁صنف	-10.3628
يها	-10.363
▁گئس	-10.363
▁آئوٽ	-10.3633
▁پائيدار	-10.3633
▁همت	-10.3637
فا	-10.364
▁قلبي	-10.364
▁گهڻيون	-10.3649
▁حمل	-10.3652
▁d	-10.3656
گن	-10.3657
▁ٽرمينل	-10.3659
▁منتظر	-10.3668
▁ملازمت	-10.3672
▁يضحك	-10.3677
▁اديب	-10.3682
▁إ	-10.3682
ذا	-10.3685
▁خانداني	-10.3686
تم	-10.3687
▁رڙ	-10.3688
▁صار	-10.3698
▁هڪدم	-10.3699
▁اداڪار	-10.3705
▁مغربي	-10.3705
▁£	-10.3706
▁ڪھڙي	-10.3707
▁غربت	-10.3708
▁قطر	-10.3709
▁نازڪ	-10.3712
▁ترسيل	-10.3712
اڻون	-10.3712
▁ڪچهري	-10.3714
▁جت	-10.3727
▁متحده	-10.3728
وان	-10.3733
ئه	-10.3745
▁والو	-10.3746
▁فرم	-10.3748
▁اسڪولن	-10.375
▁پراڻو	-10.3753
12	-10.3754
افي	-10.3756
▁سارو	-10.3765
▁h	-10.3767
پس	-10.3769
▁ڀٽو	-10.3782
▁پئسو	-10.3784
▁ڪمائي	-10.3787
وٽ	-10.3795
▁هرڪو	-10.3798
ايم	-10.3817
▁ڪڏھن	-10.3823
▁نشاندهي	-10.3823
▁پاسورڊ	-10.3823
▁ويزا	-10.3824
چر	-10.3826
▁گلاس	-10.383
▁لکيا	-10.3831
▁اِن	-10.3834
▁منجهان	-10.3835
▁؟!	-10.3836
لر	-10.3838
▁يادگيري	-10.3844
▁تعرف	-10.3844
▁الح	-10.3846
▁لات	-10.385
▁ڊيم	-10.3852
11	-10.386
▁فر	-10.386
▁ڪمال	-10.3861
▁سڃاڻي	-10.3864
▁سٺا	-10.3869
▁XNUMX	-10.3886
▁تعاليٰ	-10.3902
▁رستن	-10.3903
▁رازداري	-10.3904
▁هليا	-10.3904
▁سوين	-10.3906
▁ٽريننگ	-10.3914
▁بش	-10.3919
▁ھ	-10.3922
نى	-10.3922
▁بني	-10.3922
de	-10.3927
▁ضد	-10.3937
ia	-10.3941
نڊي	-10.395
▁سل	-10.3952
▁هوڏانهن	-10.3954
▁<<<	-10.3962
▁دروازي	-10.3963
▁ڪيترين	-10.3963
▁رفت	-10.3964
able	-10.3967
لم	-10.3967
بين	-10.3972
▁حرام	-10.3975
▁كلام	-10.3978
▁جاپاني	-10.3979
▁رائع	-10.3982
▁انتظامي	-10.3984
▁صحبت	-10.3984
▁ڪيڏو	-10.3985
▁صوبي	-10.3985
▁جوش	-10.399
▁برآمد	-10.3993
▁تنهنجا	-10.3993
▁تبديلين	-10.3995
▁چهرو	-10.3995
▁باز	-10.3995
▁پيارو	-10.4001
▁عند	-10.4003
▁اجل	-10.4005
▁يك	-10.4012
▁جستجو	-10.4022
▁فاطمه	-10.4023
▁پڇ	-10.4023
▁پليئر	-10.4025
▁ٿڪ	-10.4034
▁لكم	-10.4036
▁مخالفت	-10.4042
▁کر	-10.4044
▁داري	-10.4044
▁نر	-10.4044
آي	-10.4047
وها	-10.4049
▁اميدوار	-10.4051
▁ايپس	-10.4052
▁وب	-10.4053
▁خوفناڪ	-10.4063
▁حساس	-10.4064
▁سدا	-10.4065
▁ڪريم	-10.4068
اسي	-10.4074
▁سڏي	-10.4075
▁خاموشي	-10.4079
▁رپيا	-10.4082
▁خوبي	-10.4084
▁اعزاز	-10.4095
▁تش	-10.4097
▁ضايع	-10.4103
▁قيادت	-10.4103
▁نفسي	-10.4105
ro	-10.4109
▁ڪڍڻ	-10.411
ُو	-10.4113
▁وٽان	-10.4113
▁وع	-10.4118
ءُ	-10.4119
▁روزي	-10.412
▁ايڏي	-10.4123
▁جادو	-10.4132
زو	-10.4134
▁جاني	-10.4135
▁مجموعو	-10.4147
▁احنا	-10.4148
▁چنين	-10.415
▁بلوچ	-10.415
▁ڪالهه	-10.4151
▁خوشبو	-10.4153
▁وٺندي	-10.4153
يب	-10.4157
▁ٽو	-10.4161
▁جناب	-10.4161
▁چونڊيل	-10.4165
ot	-10.4165
▁حاجي	-10.4179
▁مرڪ	-10.4181
▁ٿورا	-10.4181
▁شفا	-10.4182
▁سيشن	-10.4185
▁خطاب	-10.4194
ul	-10.4194
▁رهيس	-10.4196
▁4-	-10.4197
▁عڪس	-10.4198
▁ڏسجي	-10.4201
▁موٽڻ	-10.4206
▁اينٽي	-10.421
▁بوٽ	-10.4212
▁قيمتون	-10.4214
▁خطي	-10.4217
▁شمسي	-10.4218
▁Twitter	-10.4225
▁پبلڪ	-10.4225
▁iOS	-10.4225
▁ڪه	-10.4229
▁عارضي	-10.4229
▁شير	-10.4229
▁طالبان	-10.4233
▁لائيٽ	-10.4241
▁شيطان	-10.4243
▁n	-10.4244
▁سرحد	-10.4248
▁پتي	-10.425
انو	-10.4254
▁پهرئين	-10.4267
▁بزرگ	-10.4269
▁حافظ	-10.4271
▁فنڪار	-10.4271
ٻ	-10.4272
▁بيٺي	-10.4273
قول	-10.4274
▁ـــ	-10.4276
▁تحرير	-10.4285
:)	-10.4289
mm	-10.429
▁مزاج	-10.4297
▁ڀڄي	-10.4299
▁لائبريري	-10.4308
▁نمونو	-10.4308
▁ڪٽنب	-10.4308
▁ڪلوميٽر	-10.4308
▁انسٽاليشن	-10.4309
▁منتخب	-10.4309
te	-10.4311
▁الو	-10.4312
▁گلاب	-10.4315
▁پال	-10.4321
▁e	-10.4327
▁تح	-10.433
ڊر	-10.4332
▁پرت	-10.4333
▁بنجي	-10.4342
▁وفا	-10.4343
▁مح	-10.4343
حي	-10.4346
▁رشتي	-10.4348
▁مذاق	-10.4349
▁ٽرمپ	-10.435
▁ڪشمير	-10.4351
▁رستا	-10.4351
▁ڏنائين	-10.4352
داد	-10.4353
▁((	-10.4353
▁گاڏين	-10.4357
▁تحياتي	-10.4359
▁دار	-10.436
ړ	-10.4362
▁32	-10.4367
سٽر	-10.4372
ينا	-10.4373
▁ڇوڪرين	-10.4373
▁ٽ	-10.4373
▁برا	-10.4376
▁شهرت	-10.4378
▁لاس	-10.4382
▁ليڪ	-10.4384
▁رينج	-10.4385
▁سنگاپور	-10.4391
▁ڊيگهه	-10.4392
▁رول	-10.4392
▁برائوزر	-10.4393
▁ڪرنسي	-10.4393
▁جريان	-10.4398
▁الش	-10.44
▁ڏ	-10.4402
▁مادر	-10.4406
▁رسي	-10.4407
▁لال	-10.4413
▁ڀائرن	-10.4414
او	-10.4424
▁ڳوليو	-10.4425
ااااا	-10.4426
▁خبردار	-10.4429
▁فائدن	-10.4433
▁معروف	-10.4434
▁ڏسندو	-10.444
▁خام	-10.4442
إ	-10.4443
▁وٺن	-10.4443
▁مارڪ	-10.4444
▁كلها	-10.4453
▁بوتل	-10.4461
۔۔	-10.4463
▁چونڊي	-10.4466
▁جدت	-10.4474
▁ظاھر	-10.4475
▁پاسخ	-10.4478
▁فلمون	-10.448
▁de	-10.4485
▁يهمك	-10.4486
▁قبضي	-10.4488
▁گذريو	-10.4491
ارن	-10.4505
▁روان	-10.4507
▁الق	-10.4509
▁رويي	-10.4514
▁رعايت	-10.4517
▁بلوچستان	-10.4517
▁نظرثاني	-10.4518
▁ويچار	-10.4524
كل	-10.4528
▁سمجھ	-10.4528
▁ڏٺا	-10.453
سنواريو	-10.4533
▁پڙهندڙن	-10.455
▁پون	-10.4553
▁گي	-10.4559
▁فعلا	-10.456
▁بدلائي	-10.4561
▁اع	-10.4561
▁خرابي	-10.4565
▁ڪراچيءَ	-10.4566
▁تصويري	-10.4573
▁ايڊ	-10.4577
▁سائٽ	-10.4579
▁سوار	-10.4587
▁حج	-10.4589
▁اھم	-10.46
▁صلي	-10.4601
▁پيپلز	-10.4602
▁هرگز	-10.4607
▁مظاهرو	-10.4608
Y	-10.4608
▁ونڊ	-10.4612
▁جڳهن	-10.4615
▁دائري	-10.4616
▁رسمي	-10.462
جيڪڏهن	-10.462
ائو	-10.4621
J	-10.4625
▁ڏنيون	-10.4633
▁ٻ	-10.4634
▁مقبول	-10.4643
▁بندوبست	-10.4645
▁ڏٺم	-10.4646
▁فلمن	-10.4647
▁حسب	-10.4647
▁عمران	-10.4648
▁°	-10.4649
▁حذف	-10.465
▁دهشتگردي	-10.4654
XNUMX	-10.4661
▁رام	-10.4665
▁سکي	-10.4673
وڪ	-10.468
▁شود	-10.4685
▁قاتل	-10.4688
مسنگ	-10.4689
▁وسري	-10.4689
▁ملندڙ	-10.4691
ابي	-10.4692
▁صفحن	-10.4693
▁پلگ	-10.4695
▁x	-10.4702
▁پوندا	-10.4704
▁مٽائي	-10.4709
پن	-10.4712
▁الج	-10.4714
▁جانچ	-10.4717
▁هيٺيون	-10.4718
▁چوندي	-10.4719
▁هيء	-10.4721
▁عيسائي	-10.4721
▁رولي	-10.4722
▁طبعا	-10.4728
▁فروغ	-10.4731
▁ميلاپ	-10.4734
▁رن	-10.4743
▁لان	-10.4744
▁تج	-10.4745
▁انو	-10.4747
25	-10.4749
▁آلو	-10.4753
▁امڪاني	-10.4762
رة	-10.4764
▁ڏور	-10.4766
▁اخ	-10.4766
▁اِ	-10.477
▁جيئڻ	-10.4773
▁ڪيريئر	-10.4777
▁بدلجي	-10.4777
▁●	-10.4778
▁سمجھڻ	-10.4781
▁اِها	-10.4785
دري	-10.4788
▁ويندڙ	-10.4795
▁ڇهن	-10.4797
▁پرنٽ	-10.4802
▁ريزي	-10.4802
▁گھڻا	-10.4809
▁خالد	-10.4809
▁جوڙو	-10.4815
جڻ	-10.4817
▁گائيڊ	-10.4819
▁يوسف	-10.482
سال	-10.482
▁پئسن	-10.4821
os	-10.4827
▁بچاء	-10.4835
ڷ	-10.4836
▁بعدين	-10.484
▁بايد	-10.4841
▁وحده	-10.4849
▁بشر	-10.4854
▁ڪُ	-10.4855
▁سمورا	-10.4864
▁راڻي	-10.4871
▁(3)	-10.4878
▁معمول	-10.4879
علامه	-10.4879
▁ڌڻي	-10.4886
▁سلامتي	-10.4887
▁پاڙي	-10.4891
▁ماما	-10.4892
▁ٽيڪ	-10.4894
ُ،	-10.4897
▁تيئن	-10.4898
▁ملوث	-10.4905
▁محقق	-10.4906
▁جيئرو	-10.4907
▁پوڻ	-10.4908
پل	-10.4909
▁شا	-10.4911
▁ادي	-10.4912
▁شديد	-10.4914
▁عادت	-10.4915
))	-10.4916
▁عدم	-10.4917
▁بچت	-10.492
▁وٺندا	-10.4922
▁يال	-10.4929
la	-10.4941
▁ربي	-10.4941
▁بري	-10.4942
▁{	-10.4943
ڇو	-10.4948
▁منو	-10.495
▁موقف	-10.4951
▁ننڍا	-10.4953
▁اهلڪار	-10.4956
▁رکيا	-10.4959
▁ڳ	-10.4965
▁سهي	-10.4965
▁ھوندو	-10.4966
سنڌ	-10.4972
▁آگاهي	-10.4973
بة	-10.4974
▁شل	-10.4977
شر	-10.4978
as	-10.498
▁ولد	-10.4981
01	-10.4982
▁اج	-10.4983
▁ڊيوائس	-10.4985
to	-10.4985
لف	-10.4989
▁نيويارڪ	-10.4993
كس	-10.4996
▁عيسيٰ	-10.4997
▁جڙيل	-10.5
▁انجنيئرنگ	-10.5001
▁سراسري	-10.5016
ائيڊ	-10.5021
▁ٺاهيندڙن	-10.5024
▁اولهه	-10.5029
▁ڌ	-10.5036
▁قبر	-10.5037
▁ٽيڪنيڪل	-10.5038
▁درآمد	-10.5038
▁اجنبي	-10.5038
▁Re	-10.5042
▁اڇو	-10.5044
▁ڪيڏي	-10.5045
▁پيون	-10.5048
▁پئمان	-10.5048
▁انچ	-10.5054
▁وربي	-10.5061
19	-10.5073
لام	-10.5077
▁لهر	-10.5078
▁فضيلت	-10.5082
▁اپليڪيشن	-10.5082
▁پرائمري	-10.5084
▁ڏهاڪي	-10.5085
سل	-10.5086
▁دٻاءُ	-10.5086
▁پروڊڪٽس	-10.5089
▁بنائي	-10.5089
▁جپان	-10.5094
▁سمور	-10.5097
▁نازل	-10.5099
مينٽ	-10.51
▁ميري	-10.5101
کا	-10.5102
فو	-10.5103
غير	-10.5105
▁رڪن	-10.5112
▁2000	-10.5114
▁اٽلي	-10.5114
▁سرد	-10.5117
60	-10.5118
▁آهه	-10.5122
▁شكل	-10.5123
▁اسٽاپ	-10.5127
▁احب	-10.513
▁منها	-10.5131
▁فائرنگ	-10.5131
▁كن	-10.5135
▁هيه	-10.5137
▁سنڌو	-10.5138
▁ڳوليندا	-10.5142
شه	-10.5143
▁سُ	-10.5152
▁موقعن	-10.5155
▁سڪ	-10.5158
▁سينيٽ	-10.516
▁احتياط	-10.5163
nd	-10.5167
▁ادائگي	-10.5172
▁لشڪر	-10.5173
▁فحش	-10.5173
▁."	-10.5174
▁اضحك	-10.5182
▁غزل	-10.5183
▁بيحد	-10.5185
▁ڪڍيو	-10.5187
▁>>>	-10.5188
▁مادري	-10.5198
▁نامي	-10.52
▁منه	-10.5203
▁منڊي	-10.5205
▁پويون	-10.5205
▁ڳاڙهو	-10.5217
▁مايوس	-10.5218
▁ذا	-10.522
▁تبي	-10.5227
▁2:	-10.5232
▁سعيد	-10.5234
▁وارين	-10.5234
▁^	-10.5235
▁جذبات	-10.5236
▁ڪتا	-10.5237
طي	-10.524
▁پيشه	-10.5247
▁بدن	-10.525
▁اشتهارن	-10.5257
▁ايسوسيئيشن	-10.5263
▁پکڙيل	-10.5265
▁مٿس	-10.5266
▁هلا	-10.5266
▁هند	-10.5267
▁ٽڪيٽ	-10.5272
▁سببن	-10.5272
▁مشن	-10.5273
▁جملو	-10.5274
▁2009	-10.5274
▁تابع	-10.5274
▁رابطن	-10.5279
▁پروگرامن	-10.528
▁راجا	-10.5281
▁تخت	-10.5286
▁سوم	-10.5288
▁اليڪٽرانڪ	-10.5297
▁ٻاھر	-10.5298
حل	-10.53
▁چئلينج	-10.53
▁الر	-10.53
▁بيوقوف	-10.5307
▁بيس	-10.5307
▁سگهجن	-10.5309
▁تناسب	-10.5311
▁ايڊيٽر	-10.5311
▁ٻڌاءِ	-10.5312
▁پڙهندڙ	-10.5319
00	-10.5323
▁Y	-10.5326
▁همراهه	-10.5329
رك	-10.5333
▁نظري	-10.5333
▁چورس	-10.5334
▁فٽ	-10.5345
▁عيب	-10.5351
▁حفاظتي	-10.5351
▁وأ	-10.5354
▁توازن	-10.5355
▁دلين	-10.5358
▁چشم	-10.5359
▁جڳھ	-10.5361
▁خل	-10.5362
▁موقعا	-10.5363
▁مصيبت	-10.5365
▁جائز	-10.5387
▁دفن	-10.5388
▁يعطيك	-10.5394
▁فائونڊيشن	-10.5401
▁چمڪندڙ	-10.5402
▁طريق	-10.5402
▁زوال	-10.5403
▁رانديگر	-10.5412
▁وِ	-10.5413
اله	-10.5414
▁حامي	-10.5414
▁آئيني	-10.5415
▁خوابن	-10.5417
ڪري	-10.5419
▁U	-10.5421
وڌيڪ	-10.5421
▁ايڪٽ	-10.5426
▁co	-10.5427
▁سيٽنگ	-10.543
▁مجازي	-10.5431
▁ڦري	-10.5432
▁چيس	-10.5437
لى	-10.5441
▁سرگرم	-10.5442
▁پگهار	-10.5447
▁حيدرآباد	-10.5448
▁جسٽس	-10.5448
▁پھريون	-10.5448
▁ذخيرو	-10.5449
آم	-10.5449
▁ۈ	-10.5453
▁ڏينداسين	-10.5453
▁اسانجي	-10.5457
▁ٽر	-10.546
▁بندر	-10.5461
سه	-10.5465
▁1:	-10.5475
▁پايان	-10.548
ood	-10.5481
▁اڏي	-10.5483
▁دٻاء	-10.5485
▁نظريو	-10.5488
ir	-10.5493
▁بغاوت	-10.5493
▁قاضي	-10.5498
▁رقص	-10.5499
99	-10.5499
▁قابو	-10.5499
▁هٿيار	-10.5507
▁شاهي	-10.5515
▁ناز	-10.5516
▁وڻن	-10.5523
رج	-10.5527
▁منجهه	-10.5529
اٽ	-10.553
▁نت	-10.5532
پٽ	-10.5534
▁اونهاري	-10.5541
▁جذب	-10.5541
▁آهي۔	-10.555
مار	-10.5558
▁پارٽيءَ	-10.5559
لها	-10.5562
▁پروسيس	-10.5564
▁ڀرڻ	-10.5567
طر	-10.557
▁حجم	-10.557
▁عمري	-10.5585
هان	-10.5585
▁ٻيڙي	-10.5586
▁بلين	-10.5587
▁ڀڃڪڙي	-10.5587
▁امارات	-10.5588
▁ڪيڏانهن	-10.5588
▁نجات	-10.5591
تِ	-10.5592
▁ڪان	-10.5596
▁ميزباني	-10.5596
▁پيپر	-10.5596
▁نگاه	-10.5597
▁سُر	-10.5604
▁دفاع	-10.5605
▁وهو	-10.5608
قت	-10.5612
▁نيڻ	-10.5613
ريل	-10.5614
▁بحري	-10.5622
▁بدون	-10.5625
▁ڪوريا	-10.5626
▁مقدس	-10.5634
▁استنبول	-10.5635
▁مديريت	-10.5636
▁عهدي	-10.5636
▁وو	-10.5644
▁خلق	-10.5645
▁چئجي	-10.5647
ژ	-10.5647
نديون	-10.5659
▁ٽپ	-10.566
▁نانگ	-10.5662
▁ڏسون	-10.5665
▁The	-10.567
شين	-10.567
▁قيمتن	-10.5671
▁ڪتب	-10.5673
▁ورهائي	-10.5674
▁33	-10.5676
▁مواصلات	-10.5682
▁سواري	-10.5682
▁انڪري	-10.5683
▁مڃي	-10.5683
▁تعالى	-10.5683
▁گلوبل	-10.5685
▁اڄڪلهه	-10.5686
▁ڪپڙي	-10.5687
▁اثرائتي	-10.5688
▁شمار	-10.5688
▁ڪٽڻ	-10.569
▁مک	-10.5691
▁بيمارين	-10.5695
وحيد	-10.5696
▁صحافي	-10.5696
▁جهازن	-10.5697
▁انقلابي	-10.5697
▁يب	-10.5698
▁والا	-10.5707
▁ساحل	-10.571
▁ريڊ	-10.5712
▁i	-10.5716
▁ماه	-10.5716
▁پوک	-10.5721
▁اطمينان	-10.5729
▁عدد	-10.5735
▁نقش	-10.5737
▁پيروزي	-10.5741
▁2)	-10.5748
▁مضمونن	-10.575
א	-10.5751
▁پيڪيج	-10.5769
اڪ	-10.5772
▁ٺ	-10.5775
▁ڪرپشن	-10.5778
▁صوبائي	-10.5778
▁آيون	-10.5778
▁اغوا	-10.5779
▁قريب	-10.578
▁رمضان	-10.578
▁قادر	-10.5782
▁دراصل	-10.5782
رائي	-10.5788
▁وڃڻو	-10.5789
ڏو	-10.5789
▁ابن	-10.5792
15	-10.5796
▁ڊوائيسز	-10.5798
▁نيم	-10.5804
▁احسن	-10.5808
▁فرار	-10.5818
الو	-10.5821
▁زندگيء	-10.5822
▁رڪاوٽ	-10.5823
▁نڪتل	-10.5826
▁ٿيڻو	-10.5827
▁مهينو	-10.5829
▁تيزي	-10.5829
تان	-10.583
ويب	-10.5842
▁شئ	-10.5846
▁ٺاهيندڙ	-10.5848
ذي	-10.5849
▁آپ	-10.5851
▁آم	-10.5852
▁v	-10.5853
sh	-10.5866
▁Previous	-10.5873
▁خوشگوار	-10.5873
▁پاڻمرادو	-10.5873
▁ڳوڙهي	-10.5873
▁سنجيده	-10.5874
▁g	-10.5877
▁سلطان	-10.588
هون	-10.5883
ut	-10.5887
am	-10.5891
▁ڏاڍا	-10.5896
▁سمجهو	-10.5906
اپ	-10.5911
▁لڳندي	-10.5917
▁دوزخ	-10.5923
▁فائر	-10.5924
ٽا	-10.5927
▁اختيارين	-10.5927
▁وهم	-10.593
▁آبي	-10.593
اره	-10.5932
▁ڦر	-10.5934
▁ٽيپ	-10.5941
▁سندي	-10.5944
▁ساله	-10.5956
▁يس	-10.5959
▁راحت	-10.5962
▁نص	-10.5965
آت	-10.5966
▁ڳوڙها	-10.5971
▁مرحلو	-10.5971
▁اسٽاف	-10.5971
▁ڄمار	-10.5972
▁فاتح	-10.5972
ائل	-10.5972
▁ڪوپن	-10.5972
▁امور	-10.5973
▁2007	-10.5976
▁ضمير	-10.5976
▁وڻندڙ	-10.5978
▁حاڪم	-10.5985
تنا	-10.5985
▁تل	-10.5986
▁مفاد	-10.599
SCL	-10.5998
▁عزم	-10.6001
Z	-10.6002
▁گھ	-10.6004
خر	-10.6005
▁سهولتون	-10.6008
▁ڪروڙ	-10.6016
▁دعوي	-10.6016
▁سلطنت	-10.602
▁سگريٽ	-10.602
▁يعنى	-10.6021
▁مد	-10.6024
▁انتظاميه	-10.6024
▁اڄوڪي	-10.6025
▁سائي	-10.6026
▁ماس	-10.6026
▁فائلن	-10.6028
▁وما	-10.603
▁چاهيندو	-10.603
▁افتتاح	-10.6035
▁بقول	-10.604
ine	-10.6045
ra	-10.6047
▁ڌرين	-10.6054
▁سکيو	-10.6055
▁تف	-10.6063
▁آيد	-10.6065
▁300	-10.6066
▁ٻوڏ	-10.6069
▁چوٿون	-10.6071
▁۲	-10.6084
▁پهتي	-10.6086
▁ٽهڪ	-10.6087
▁هيئن	-10.6087
▁پناهه	-10.6089
▁لين	-10.609
ڍ	-10.6095
▁الص	-10.6098
18	-10.6106
▁ڏيکاريل	-10.611
۱	-10.6114
▁غالب	-10.6118
▁برازيل	-10.6119
▁ايجنسي	-10.6121
▁ٺهي	-10.6122
بار	-10.6125
بقى	-10.6136
▁حقوق	-10.614
هل	-10.6143
▁ٽري	-10.6144
▁اينڊرائيڊس	-10.6148
▁وياسين	-10.6151
َن	-10.6152
▁چالو	-10.6153
▁ڪاميٽي	-10.6155
چو	-10.6155
j	-10.6159
▁نسبت	-10.6159
▁شاخ	-10.6164
▁حڪمران	-10.6168
▁ريڪارڊ	-10.6168
▁پوڙهي	-10.6169
▁صادق	-10.617
▁جوڙ	-10.6171
▁شپنگ	-10.6172
▁تحفا	-10.6177
▁خبرن	-10.6179
▁سمر	-10.6181
▁آرمي	-10.6181
▁پيڪ	-10.6186
▁شاه	-10.619
▁سکو	-10.6198
▁لڳن	-10.6199
▁سرگرميون	-10.6203
يار	-10.6205
▁جنگي	-10.6209
▁زخم	-10.6214
▁نيون	-10.6215
▁سافٽويئر	-10.6219
▁WhatsApp	-10.6219
بد	-10.622
▁پڌرو	-10.6222
▁ترڪ	-10.6226
ائيءَ	-10.6227
▁برش	-10.6229
▁وحدت	-10.623
24	-10.6231
▁ريو	-10.6237
▁ٻلي	-10.6238
داري	-10.6241
▁ناري	-10.6249
▁خيالي	-10.6261
▁لاڳاپا	-10.6268
▁ڄائو	-10.6269
▁سربراهه	-10.6271
▁سگهه	-10.6273
▁درج	-10.6274
▁ٿورڙي	-10.6275
▁بيا	-10.6275
▁بلڊنگ	-10.6276
عمل	-10.6282
80	-10.6287
▁نديم	-10.6289
▁ماي	-10.629
▁گھڙي	-10.6293
▁طلع	-10.6293
▁کم	-10.6294
▁گري	-10.6298
ie	-10.6298
▁جملي	-10.6301
▁اچان	-10.6304
▁ويسٽ	-10.6306
▁اڏام	-10.6307
▁بجي	-10.6312
▁جزو	-10.6313
▁بھتر	-10.6313
▁ديوار	-10.6318
▁ٻوٽي	-10.6318
▁ارسالي	-10.6319
▁واشنگٽن	-10.6319
▁پڙهيل	-10.632
▁پهتا	-10.6321
▁ماشاء	-10.6321
▁جھ	-10.6323
▁ڳائڻ	-10.6325
▁بزنس	-10.6326
▁اهوئي	-10.6331
▁بيني	-10.6333
ورو	-10.6333
فته	-10.6334
ڊا	-10.6336
▁گذرڻ	-10.6338
▁داخلي	-10.6339
▁ڪڍ	-10.6341
▁العالم	-10.6347
▁شيشي	-10.6347
▁روشنيءَ	-10.6347
▁نياز	-10.6348
▁نامو	-10.6351
كن	-10.6356
est	-10.6361
▁لکت	-10.6367
▁رحمت	-10.6367
▁Search	-10.637
▁جام	-10.637
▁نظرانداز	-10.6371
▁وٺندڙ	-10.6373
▁تجربا	-10.6373
▁ڇپيل	-10.6373
▁ڳڻتي	-10.6375
يف	-10.6378
▁مخ	-10.6379
▁مدري	-10.6379
▁ڇپائي	-10.6381
▁اله	-10.6386
▁?	-10.6387
▁be	-10.6388
▁ساٿين	-10.6392
▁اخلاق	-10.6392
ترين	-10.6396
▁نس	-10.6397
▁گاهه	-10.6398
▁ڪارن	-10.64
▁طي	-10.6401
▁گناهه	-10.6402
ڱ	-10.6403
ږ	-10.6407
▁ڪلچر	-10.6411
▁ريز	-10.6416
▁انتها	-10.6416
▁حتمي	-10.6422
▁يقيناً	-10.6425
▁گير	-10.6427
▁مڃڻ	-10.6429
ڪم	-10.643
▁هوم	-10.6431
▁نان	-10.6432
▁فائنل	-10.6432
پوءِ	-10.6441
▁منجھ	-10.6448
▁آفيسرن	-10.6449
ثر	-10.6449
▁قل	-10.6451
▁بيوس	-10.6454
▁اڳواڻي	-10.6455
▁سوسائٽي	-10.6458
▁اكل	-10.6459
▁ديو	-10.6467
ُون	-10.6468
اڄ	-10.6469
لينڊ	-10.6469
▁فائي	-10.6473
▁پالتو	-10.6474
▁اسپيڪر	-10.6476
▁گردش	-10.6478
▁ٽڪ	-10.6479
▁ادامه	-10.6484
▁ايڪسڪس	-10.6494
▁رويو	-10.6495
▁ڀٽائي	-10.6498
▁نقشو	-10.6503
▁5-	-10.6508
شت	-10.6511
▁ٿيس	-10.6512
▁غلطيون	-10.6513
اااااا	-10.6516
▁مشكور	-10.6519
هڻ	-10.652
▁گهٽجي	-10.6522
▁جمعي	-10.6524
▁ضابطن	-10.6524
▁€	-10.6525
▁بنات	-10.6526
▁پھرين	-10.6528
▁گهريلو	-10.653
▁ڪيفيت	-10.6538
دة	-10.654
ڪاري	-10.6543
رام	-10.6544
▁ڀائر	-10.6548
▁موهن	-10.6548
▁انڊين	-10.6557
آئون	-10.6564
اع	-10.6564
▁پيرا	-10.6567
▁فيصلا	-10.6567
آهي	-10.6568
▁ٽيوب	-10.6573
▁ڪٽي	-10.6575
▁بدلائڻ	-10.6576
حه	-10.6578
زين	-10.6585
ئا	-10.6592
چا	-10.6598
بري	-10.6598
▁ڇڏيندي	-10.6604
ٽين	-10.6606
▁موڪليل	-10.6607
▁لها	-10.6608
▁راڳ	-10.6611
ce	-10.6618
▁ناراض	-10.662
▁ڪئناڊا	-10.6628
▁مائڪرو	-10.6631
▁گڏجاڻي	-10.6634
▁رسيد	-10.6634
▁ھنن	-10.6639
▁يت	-10.664
کو	-10.665
▁دائمي	-10.6651
ولو	-10.6652
ډ	-10.6654
طور	-10.6655
▁א	-10.6656
▁اونداهي	-10.6657
li	-10.6667
وووو	-10.667
▁ورتا	-10.6673
▁وچان	-10.6675
▁رٿ	-10.6675
يري	-10.6675
▁اٿن	-10.6675
▁آمريڪن	-10.668
▁دستخط	-10.668
▁زرداري	-10.6683
▁راهي	-10.6685
▁صلاحڪار	-10.6686
اوي	-10.669
▁مئل	-10.6693
▁بوڪ	-10.6695
▁گار	-10.6695
▁مولانا	-10.6699
ڻا	-10.6703
جڏهن	-10.6707
انگ	-10.6709
▁اخوي	-10.671
▁مهارت	-10.6712
▁پلان	-10.6718
َ،	-10.6724
▁ٻڌڻي	-10.673
▁اڪيڊمي	-10.6732
▁نصيحت	-10.6733
▁پاؤڊر	-10.6733
▁مصنوعي	-10.6733
▁زرعي	-10.6733
▁ڄاڻايل	-10.6736
▁ڪونھي	-10.6744
▁مزي	-10.6756
▁شكلها	-10.6764
▁دستاويزن	-10.6765
▁انهيء	-10.6771
▁گولڊ	-10.6773
▁سنگت	-10.6778
تح	-10.6782
▁ڪارپوريٽ	-10.6785
▁ڪمشنر	-10.6786
▁هانگ	-10.6789
▁ڏيندس	-10.6794
▁رليز	-10.6796
▁امريڪا	-10.6806
▁پُر	-10.681
▁ٽڪرا	-10.6812
▁مارڪيٽن	-10.6813
▁گھڻن	-10.6814
▁يوناني	-10.6815
▁ڏيڻو	-10.6816
▁پيوند	-10.682
ڪلهه	-10.6823
▁قرباني	-10.6823
▁نظريي	-10.6825
▁ٻوليون	-10.6827
▁ڏيون	-10.6834
▁سوٽ	-10.6834
▁عين	-10.6837
▁زراعت	-10.6839
▁ضابطو	-10.6839
▁انٽرفيس	-10.6839
▁خاتمو	-10.6841
▁هلڪو	-10.6843
▁حوصلا	-10.6849
▁1000	-10.6853
▁ظالم	-10.6853
بع	-10.6855
▁زم	-10.6856
▁صوفي	-10.6857
نڪ	-10.686
▁هيچي	-10.686
▁مرة	-10.6863
▁الب	-10.6863
▁نسبتا	-10.6871
▁پايه	-10.6871
▁ندي	-10.6874
▁لائيو	-10.6876
no	-10.6884
▁برچسب	-10.6885
ma	-10.6886
▁رضا	-10.6891
▁مبتلا	-10.6892
▁Home	-10.6893
▁ڪوڪيز	-10.6895
▁سرواڻ	-10.6896
▁هڻڻ	-10.6896
▁لأ	-10.6896
▁اوپن	-10.6899
▁تباهي	-10.69
▁گورنر	-10.6901
▁ويهڻ	-10.6904
▁ٻڌايان	-10.691
قه	-10.6911
▁وانت	-10.6914
▁يآ	-10.6918
▁لوڻ	-10.6919
▁فيهم	-10.6921
▁مائٽن	-10.6922
كت	-10.6924
▁سمورو	-10.6932
▁ملندا	-10.6937
▁Microsoft	-10.6946
▁اميدوارن	-10.6948
▁مھل	-10.6948
▁كانت	-10.6949
▁سمجهندا	-10.695
▁مٿو	-10.6962
▁فلسطين	-10.6962
▁ڏات	-10.6964
▁تكون	-10.6968
ist	-10.6972
▁ايراضي	-10.6978
▁ليک	-10.698
▁مكان	-10.6981
▁خوبصورتي	-10.6986
▁انتظاميا	-10.6999
▁تشخيص	-10.7
▁Bible	-10.7
▁فيچر	-10.7
وڪي	-10.7001
▁تقريباً	-10.7005
▁مئنيجر	-10.7007
▁الضحك	-10.7009
▁ڳري	-10.7021
▁مليون	-10.7028
▁ابا	-10.703
▁لهڻ	-10.7031
▁منع	-10.7033
▁بگ	-10.7033
▁نيري	-10.7036
▁روش	-10.7043
▁خوشحالي	-10.7044
▁چال	-10.7046
▁جِي	-10.7047
▁بط	-10.7052
▁ريس	-10.7053
45	-10.7054
▁اعتراف	-10.7054
▁انجمن	-10.7055
▁لچڪدار	-10.7055
lo	-10.7056
هاڻي	-10.7056
▁لکن	-10.7058
▁(19	-10.7059
man	-10.7066
▁حملن	-10.7068
▁تجنن	-10.7069
▁زينب	-10.7074
▁سحر	-10.7076
پڻ	-10.7078
▁پڇو	-10.708
وق	-10.7081
▁لڏي	-10.7085
▁پذير	-10.7088
َء	-10.7093
▁چَ	-10.7093
▁un	-10.7095
عة	-10.7103
▁گيٽ	-10.7105
▁گليڪس	-10.7106
▁كي	-10.7106
▁مڪي	-10.7106
علي	-10.7108
▁لامحدود	-10.7109
▁هُئا	-10.7109
waz	-10.7112
▁بيش	-10.7113
▁اسپيڊ	-10.7113
▁کانپوء	-10.7113
ائيندو	-10.7115
▁ڳالهائيندو	-10.7115
33	-10.7116
خت	-10.7119
▁مدي	-10.7119
▁سگهيس	-10.7122
▁ساڳيا	-10.7128
رَ	-10.7131
▁مزدور	-10.7136
95	-10.714
ٽڪ	-10.7141
▁عثمان	-10.7142
▁أم	-10.7142
▁شال	-10.7146
فون	-10.7151
▁نشانيون	-10.7152
▁موڪلن	-10.7153
wami	-10.7164
▁پروژه	-10.7164
▁ڄام	-10.7165
▁ٻولهه	-10.7167
▁روئڻ	-10.7169
▁تارن	-10.717
▁لکندو	-10.7175
▁[.	-10.7177
▁ويڙهه	-10.7177
▁ٽولي	-10.7179
▁مائٽ	-10.7188
▁چونڊون	-10.7188
▁خلا	-10.7193
▁يونان	-10.7197
▁سچل	-10.7204
▁ڇڏيون	-10.7205
▁ميٽ	-10.7209
لس	-10.7213
▁امڙ	-10.7218
▁َ	-10.7218
se	-10.7218
▁اوچائي	-10.7219
▁ناصر	-10.7222
▁آصف	-10.7224
▁فرمائي	-10.7225
ھر	-10.7226
me	-10.7228
▁گروهه	-10.7229
▁شن	-10.723
▁مھرباني	-10.7231
▁لڪ	-10.724
▁يع	-10.7243
ین	-10.7245
▁ڪڪڙ	-10.7245
▁by	-10.7246
▁ڇ	-10.7249
سائين	-10.7257
▁چمڪ	-10.7259
▁غيرها	-10.7261
▁صد	-10.7262
et	-10.7263
▁سهولتن	-10.7264
▁ڪئ	-10.727
▁الان	-10.7273
▁ريسرچ	-10.7275
▁ملهايو	-10.7275
▁هدف	-10.7281
▁آزمائشي	-10.7287
~	-10.7292
▁In	-10.7295
▁ٻول	-10.7299
▁پيرس	-10.7301
▁جذبي	-10.7301
▁نفسك	-10.731
▁نسيت	-10.7312
▁مٽيءَ	-10.7313
▁ميڙ	-10.7315
۔۔۔۔	-10.7319
▁اڪ	-10.7329
▁پاسپورٽ	-10.7331
▁🙂	-10.7332
▁هوشيار	-10.7332
▁نيل	-10.7333
▁واڌارو	-10.7336
▁حالانڪه	-10.7343
▁w	-10.7343
▁کٽڻ	-10.7346
ڦ	-10.735
▁چا	-10.735
▁امل	-10.7355
منهنجو	-10.7361
▁فا	-10.7361
▁مالڪن	-10.7361
▁3:	-10.7365
▁خي	-10.737
▁اسڪيم	-10.7371
▁ڀلائي	-10.7374
▁معقول	-10.7376
▁انشورنس	-10.7387
▁ميوزيم	-10.7387
▁ڪپڙو	-10.739
▁ٽتوٽ	-10.7391
▁Sindhi	-10.7397
▁عبرت	-10.7397
mo	-10.7406
▁ڪور	-10.7408
▁محترم	-10.7409
▁ستن	-10.7413
گاه	-10.7413
▁کرد	-10.7417
مثال	-10.7418
ئِي	-10.742
▁ووڊ	-10.7426
▁بچه	-10.743
▁آزمائش	-10.7431
▁باھ	-10.7433
▁برابري	-10.7433
▁فلو	-10.7443
▁اوسط	-10.7445
ST	-10.7446
▁بيٺا	-10.7448
چه	-10.7457
▁نشانو	-10.7458
▁برڪت	-10.746
▁ڪڻڪ	-10.7462
▁(4)	-10.7463
▁آٽو	-10.7463
▁کی	-10.7466
▁پيسا	-10.7468
▁ڪهاڻين	-10.7476
▁جرم	-10.7477
▁ڪجو	-10.7478
di	-10.748
▁نوڪر	-10.748
▁گن	-10.7486
▁درس	-10.7489
تين	-10.7491
ay	-10.7498
▁بعدي	-10.7499
▁ورڈپریس	-10.75
▁ڊويزن	-10.75
▁ھدايت	-10.75
▁اسسٽنٽ	-10.75
▁بلاول	-10.7504
▁شفاف	-10.7504
▁ماشى	-10.7504
▁اجمل	-10.7506
▁ماستر	-10.7507
▁خال	-10.7508
▁ڊچ	-10.7512
▁دخل	-10.7512
▁تب	-10.7515
▁we	-10.7518
▁هيرو	-10.7518
ڪيو	-10.752
▁فنا	-10.7527
ڊس	-10.7535
▁36	-10.7536
▁شم	-10.7537
▁مافيه	-10.7543
▁مدار	-10.7544
▁ريال	-10.7552
▁ڪابينا	-10.7557
▁ڪارخانو	-10.7557
▁لن	-10.7558
▁معطل	-10.7558
▁سپاهي	-10.7559
▁نينهن	-10.7559
▁وبعدين	-10.7559
▁اخت	-10.7559
▁مجلس	-10.756
▁نشر	-10.756
▁اُھي	-10.7562
▁ناڪامي	-10.7568
ليٽ	-10.7568
▁ديگري	-10.7569
▁پُٽ	-10.7575
ھو	-10.7576
▁بالغن	-10.7578
اص	-10.758
▁گذر	-10.7584
▁48	-10.7585
▁منجه	-10.7589
▁بِ	-10.7594
▁ڪڪر	-10.7594
▁شك	-10.7596
ڪڻ	-10.7603
قدر	-10.7605
▁پروفائل	-10.7606
▁پرهيز	-10.7615
▁برعڪس	-10.7615
▁ڪامرس	-10.7615
▁رهبر	-10.7616
▁ميڪسيڪو	-10.7618
دين	-10.7618
▁سڪون	-10.762
جھ	-10.7623
▁چپن	-10.7625
▁توهين	-10.7631
▁شناسي	-10.7636
▁بينڪنگ	-10.7645
▁زو	-10.7645
ايه	-10.7648
وع	-10.7649
▁اخبارن	-10.7653
ڪٽر	-10.7654
▁بدين	-10.7657
▁بلڊ	-10.7658
▁سمجهن	-10.7661
▁رواني	-10.7664
▁انسٽاگرام	-10.7672
▁فهد	-10.7673
▁ڌيءُ	-10.7674
▁واٽر	-10.7685
▁اند	-10.7685
▁؟"	-10.769
▁بور	-10.7692
▁بادل	-10.7693
ارت	-10.7695
▁الز	-10.7698
▁حر	-10.7698
▁حڪومتي	-10.7703
▁عليهم	-10.7708
▁تک	-10.7708
▁لوگو	-10.771
▁شوقين	-10.7711
ائيندڙ	-10.7712
▁ميرا	-10.7712
▁بخ	-10.7724
▁اليڪٽرڪ	-10.7731
▁پرسپوليس	-10.7731
▁چادر	-10.7735
▁Q	-10.7738
▁ڪنگ	-10.7739
▁وصولي	-10.7744
هار	-10.7745
▁خو	-10.7748
▁ديدار	-10.7755
▁مرا	-10.7756
▁سالم	-10.7756
▁يارڪ	-10.7759
▁هٿان	-10.7762
▁جزا	-10.7763
22	-10.7764
▁قرب	-10.7765
▁يمن	-10.7771
▁ڪيپ	-10.7771
ميل	-10.7774
▁ميونسپل	-10.7775
▁مصري	-10.7778
▁ھيو	-10.7779
▁گرفتاري	-10.7779
▁دلبر	-10.7781
▁تخ	-10.7782
▁لڪي	-10.7789
▁تشريح	-10.7789
▁ڪارڪن	-10.7792
▁ورتل	-10.7793
▁مارو	-10.7795
▁قولي	-10.7795
▁ضم	-10.7798
کان	-10.7799
ies	-10.7806
▁سارا	-10.7806
▁پرواهه	-10.7808
▁سليمان	-10.7815
ھا	-10.7819
▁ڪامل	-10.7821
انگريزي	-10.7822
▁سمجھيو	-10.7824
وَ	-10.7825
▁وبا	-10.7827
▁گادي	-10.7831
▁ڳوٺن	-10.7835
▁دوره	-10.7837
▁اڏاوت	-10.7838
▁بدر	-10.7838
َنِ	-10.7843
جنهن	-10.7844
▁سمهڻ	-10.7849
ايي	-10.7849
▁ورهيه	-10.7849
▁ڏاڏي	-10.785
▁رڪنيت	-10.785
▁لڪير	-10.7852
▁سگھان	-10.7853
▁بدترين	-10.7853
يج	-10.7861
سوب	-10.7861
▁مضحك	-10.7863
ti	-10.7864
▁سالگره	-10.7872
▁هونءَ	-10.7873
▁بيشتر	-10.7875
ٻي	-10.7877
▁ڪيڪ	-10.7881
ڏا	-10.7881
ڪٽ	-10.7883
▁لاڙڪاڻي	-10.7907
▁منسوخ	-10.7907
▁پئرس	-10.7907
▁ڏوهاري	-10.7909
▁وسيلا	-10.7909
▁نِ	-10.791
▁پڪو	-10.791
▁لَ	-10.7911
▁سستو	-10.7913
▁آچر	-10.7917
▁زياد	-10.7918
▁عملدارن	-10.7919
▁سستا	-10.7926
▁کلڻ	-10.7927
▁شاديءَ	-10.7927
▁برائي	-10.7932
ton	-10.7932
▁نقشي	-10.7933
▁ڳولهي	-10.7936
▁عالمن	-10.7939
۾	-10.7941
▁بالم	-10.7949
▁گروپن	-10.7949
اڻان	-10.7951
▁ونڊو	-10.7953
▁وڪي	-10.7956
اڻن	-10.7957
▁آھين	-10.7957
▁بنايو	-10.7959
▁ٽيليويزن	-10.7967
▁آبهوا	-10.7967
▁ملتوي	-10.7968
▁رجسٽرڊ	-10.7971
▁وڃائڻ	-10.7971
▁ڄاڻان	-10.7972
▁منھن	-10.7979
▁ميه	-10.798
▁نعم	-10.798
وئي	-10.798
▁درياهه	-10.7981
▁بالغ	-10.7982
▁دان	-10.7984
▁ago	-10.7986
▁مه	-10.7989
▁وصل	-10.7996
<<	-10.8001
▁پڪڙي	-10.8015
▁لنڪس	-10.8021
▁ليبارٽري	-10.8026
▁حدن	-10.8027
▁تلوار	-10.8028
▁تقدير	-10.803
▁رشتو	-10.8033
▁بك	-10.8033
▁ناهيان	-10.8035
▁ڪارا	-10.8042
ٽري	-10.8042
▁ڀرجي	-10.8043
▁جھڙي	-10.8045
▁نياڻي	-10.8049
▁هوش	-10.8053
▁ميلي	-10.8054
واضع	-10.806
▁ڏيک	-10.8066
▁درجو	-10.8067
▁150	-10.8077
▁دوستو	-10.8079
▁l	-10.8083
▁تسلسل	-10.8087
▁گرو	-10.8088
▁ميمڻ	-10.8089
▁News	-10.8089
▁34	-10.8092
▁ٿِي	-10.8094
▁پائپ	-10.8096
▁نقطه	-10.81
▁جب	-10.8101
▁نج	-10.8102
▁نوع	-10.8103
▁ديوان	-10.8109
▁اجايو	-10.811
▁ڏجي	-10.8112
ګ	-10.8113
آه	-10.8113
▁پين	-10.8115
▁سوني	-10.8115
▁پنجم	-10.8116
21	-10.8117
▁بيبي	-10.8118
▁بيگ	-10.8119
▁هَ	-10.812
▁سائيٽون	-10.812
▁گهٽائي	-10.8122
▁2003	-10.8123
▁كلامك	-10.8124
ترا	-10.8125
67	-10.8131
▁فارس	-10.8133
▁ٽڪرو	-10.8133
▁Mi	-10.8135
▁ماڻهون	-10.8138
▁شويه	-10.8139
▁جهلي	-10.8139
ap	-10.8145
▁اشاعت	-10.8147
▁شهادت	-10.8147
▁ھوندي	-10.815
▁فضا	-10.815
يڊ	-10.8151
▁سكس	-10.8154
▁طراحي	-10.8154
▁البت	-10.8154
▁ٺاهه	-10.8156
▁ڪوششن	-10.8156
▁ڪمرو	-10.8157
روح	-10.8157
▁مشاهدو	-10.8157
▁فليٽ	-10.816
▁انگريزيءَ	-10.8164
▁نينگر	-10.8167
▁سنڀالڻ	-10.817
▁ڏياريو	-10.8176
ٿر	-10.8179
▁وارنٽي	-10.8182
▁تير	-10.8185
▁پڇاڙي	-10.8189
▁ريلي	-10.8194
▁آله	-10.8196
▁سريع	-10.8199
▁جميله	-10.8205
▁ڪڙي	-10.8206
▁o	-10.8206
▁پکين	-10.8207
▁لميٽيڊ	-10.8208
▁ڳاڙهي	-10.8208
▁منصوبا	-10.821
▁65	-10.8211
▁ڀليڪار	-10.8211
▁آخ	-10.8212
70	-10.8212
▁فال	-10.8213
▁تڏھن	-10.8214
▁6.	-10.8214
▁for	-10.8214
▁کني	-10.8222
▁ابتدا	-10.8225
26	-10.8225
▁ڀل	-10.8226
▁رنگين	-10.8226
▁De	-10.8227
▁فضل	-10.8228
تى	-10.8232
▁محد	-10.8234
▁ڇڪي	-10.8239
▁شينهن	-10.8239
▁٪	-10.824
▁خواهي	-10.8241
▁تيستائين	-10.8247
13	-10.8255
مير	-10.8266
▁ظهور	-10.827
▁that	-10.827
▁اڀياس	-10.827
▁معائنو	-10.8275
mp	-10.8276
وچ	-10.8278
▁آخرت	-10.828
▁چر	-10.8281
▁مرزا	-10.8281
طه	-10.8282
▁مٽ	-10.8282
هِ	-10.8289
ڪڪ	-10.8289
▁قانونن	-10.8296
▁هئائين	-10.83
قر	-10.8306
▁بع	-10.8309
▁ڪلي	-10.8309
▁سائنسدان	-10.8313
▁شق	-10.8313
ائجي	-10.8316
▁مڪاني	-10.8317
▁تجارت	-10.8318
▁فاهم	-10.832
▁يجي	-10.8322
▁اوي	-10.8325
na	-10.8327
▁بنيادن	-10.8328
▁بدل	-10.8331
▁قوي	-10.8331
▁ڀاڱي	-10.8331
▁زنجير	-10.8331
▁لڳاتار	-10.8332
▁پست	-10.8333
▁طالب	-10.8334
▁ايستائين	-10.8337
ـِ	-10.8338
▁هالينڊ	-10.8341
▁سهڻو	-10.8342
▁ڪالم	-10.8348
▁ڌرم	-10.835
▁رهائشي	-10.8351
▁وجه	-10.8352
▁پوڊ	-10.8354
▁پرس	-10.8357
▁چريو	-10.8357
▁سازش	-10.8365
آآآ	-10.8367
ائپ	-10.8368
▁نگاهي	-10.837
قو	-10.837
تري	-10.8372
▁ڊبل	-10.8375
▁بينڪن	-10.8379
▁مخلوق	-10.839
▁ترقيات	-10.8392
▁99	-10.8393
خدا	-10.8394
▁گذار	-10.8396
▁سيني	-10.8397
▁مٿاڇري	-10.8398
▁هفتا	-10.8402
▁ٺاهيا	-10.8403
جم	-10.8403
▁ڄاڻايو	-10.8403
▁صوبن	-10.8406
▁وڌندي	-10.8407
▁گرفت	-10.8407
▁جيئري	-10.8408
▁عكس	-10.8412
▁كتب	-10.8412
▁ديوتا	-10.8416
▁يونيورسٽيءَ	-10.8417
کن	-10.842
▁ملت	-10.8423
▁آري	-10.8426
▁ايام	-10.8426
كك	-10.8427
يئر	-10.8427
کر	-10.8427
▁صدا	-10.8433
▁تجي	-10.8435
▁ظ	-10.8442
▁ڇوڪريءَ	-10.8442
علم	-10.8445
0,000	-10.845
▁بصري	-10.8451
اهم	-10.8453
om	-10.8454
▁سرانجام	-10.8456
▁پروفائيل	-10.8456
▁ايڪسپريس	-10.8456
▁ڪيليفورنيا	-10.8456
▁ڊگھي	-10.8456
▁صحافت	-10.8456
▁وهڪري	-10.8457
▁نثار	-10.8457
▁ڪميونسٽ	-10.8457
▁اد	-10.8459
▁لڪائي	-10.8463
▁مسكين	-10.8464
▁ڪيف	-10.8467
▁بجد	-10.8472
مة	-10.8472
ity	-10.8479
لڪ	-10.8484
oti	-10.8491
ائيندي	-10.8493
55	-10.8495
▁فرمان	-10.8506
▁زباني	-10.8512
▁بخشي	-10.8513
▁ڪوششون	-10.8518
▁ريسٽورنٽ	-10.8519
▁ورهاڱي	-10.8519
▁ڊپارٽمينٽ	-10.8519
▁نامناسب	-10.8519
▁موزون	-10.852
▁عبدالله	-10.8523
▁رشيد	-10.8523
▁ٽائون	-10.8524
▁ويجھو	-10.8525
▁400	-10.8525
▁ڪيمرا	-10.8527
▁اثاثن	-10.8532
▁برباد	-10.8536
حال	-10.8537
▁لب	-10.8538
▁هان	-10.8539
▁اُٿي	-10.8539
▁ڪئمپ	-10.8544
▁وٽس	-10.8544
▁مردم	-10.8549
▁هندستاني	-10.8549
▁ٽرڪ	-10.8549
▁انور	-10.855
▁لوهه	-10.8552
90	-10.8557
▁وصف	-10.8565
▁مك	-10.8566
ٺي	-10.8571
▁نامزد	-10.858
▁عال	-10.858
▁فرنيچر	-10.8582
▁مرحوم	-10.8583
بند	-10.8584
▁مقبوليت	-10.8585
عرف	-10.8585
▁اوندهه	-10.8586
▁ڪشش	-10.8589
▁ايڪشن	-10.8593
ُن	-10.8594
▁پُ	-10.8594
▁مروري	-10.8597
▁بستر	-10.86
▁سگ	-10.8605
دك	-10.8606
▁ودي	-10.8606
▁گڏو	-10.8607
3">	-10.8609
▁تعميراتي	-10.8609
▁ڊو	-10.8616
▁بيڪار	-10.862
▁چت	-10.8621
ضحك	-10.8624
مبر	-10.8625
▁سني	-10.8625
که	-10.8629
and	-10.863
▁مص	-10.8631
▁مارڪس	-10.8637
▁اجي	-10.8644
▁هدايتون	-10.8645
▁پرائيويٽ	-10.8646
▁ٺهرايو	-10.8646
▁وهڪرو	-10.8646
▁هٽائڻ	-10.8647
▁رهبري	-10.8647
▁تعبير	-10.8647
▁هٽايو	-10.8648
▁پيشگيري	-10.8649
▁نوڪريون	-10.8663
▁طريقه	-10.8665
آب	-10.8672
28	-10.8673
▁موج	-10.8676
تل	-10.8677
ايون	-10.8682
ښ	-10.8684
02	-10.8686
▁مچ	-10.8691
88	-10.8691
▁سس	-10.8694
▁پابنديون	-10.8696
▁پيڊ	-10.8702
▁علائقا	-10.8706
▁واٽس	-10.8708
ha	-10.8709
▁افعال	-10.8711
▁لنگهي	-10.8713
▁خودڪشي	-10.8713
▁کاتو	-10.8715
▁روزانه	-10.8716
▁آڻيندو	-10.8717
▁ارتقا	-10.8719
▁گمان	-10.872
▁ياري	-10.872
▁قومون	-10.8721
▁ذري	-10.8725
ڙيون	-10.8729
▁اينڪس	-10.8733
▁کوڙ	-10.8734
جهي	-10.8741
▁قمر	-10.8746
ـُـ	-10.8751
ندؤ	-10.8752
▁75	-10.8764
▁ايوان	-10.8764
▁اسٽوڊيو	-10.8767
▁ضرب	-10.8768
▁شرٽ	-10.8769
▁شاٽ	-10.877
▁شيڊول	-10.8775
صور	-10.8776
قا	-10.8777
▁ورائي	-10.8781
ازي	-10.8782
▁موتي	-10.8782
▁ڊپٽي	-10.8783
▁سڪي	-10.8788
▁Co	-10.8791
رون	-10.8791
ايان	-10.8795
بان	-10.8804
▁انٽر	-10.8811
گان	-10.8812
▁you	-10.8814
رڻ	-10.8818
▁ترجمان	-10.8822
▁ايڊيشن	-10.8831
▁بيل	-10.8833
▁ورزش	-10.8835
▁معذور	-10.8839
▁عروج	-10.884
▁قلعي	-10.884
▁لوازمات	-10.884
▁ڳنڍيندڙ	-10.884
▁يادداشت	-10.8841
▁غسل	-10.8841
▁محافظ	-10.8841
▁مزيدار	-10.8841
▁ليپ	-10.8843
▁ڀاء	-10.8843
▁علائقائي	-10.8843
▁تنھنجو	-10.8845
ne	-10.8846
▁فهمت	-10.8848
▁سيڪنڊن	-10.8848
36	-10.885
▁لفظي	-10.8852
▁اسٽريٽ	-10.8853
▁لائٽ	-10.8853
▁سويت	-10.8859
▁پيشينه	-10.8861
▁اداس	-10.8861
▁مام	-10.8862
▁ورق	-10.8863
▁اسد	-10.8875
▁نسلن	-10.8878
▁لڳڻ	-10.888
▁مدير	-10.8881
▁نگار	-10.8881
▁جَ	-10.8888
▁جاڳ	-10.8888
▁پلانٽ	-10.889
39	-10.8891
▁وک	-10.8898
▁حبيبي	-10.8898
▁زيور	-10.8903
▁ليڊر	-10.8904
▁عناصر	-10.8905
▁وڙهڻ	-10.8905
▁توليد	-10.8905
▁ڏسن	-10.8906
▁ٻرندڙ	-10.8906
▁اسماعيل	-10.8907
▁شاپنگ	-10.8907
▁95	-10.8907
▁نعمت	-10.8908
شم	-10.8911
ضي	-10.8912
▁سوچيندو	-10.8914
▁LG	-10.8914
▁تحفو	-10.8918
▁ايمانداري	-10.8919
▁جذبو	-10.892
ټ	-10.8921
14	-10.8923
▁غريبن	-10.8926
▁ڪائي	-10.8926
مز	-10.8934
▁جبلن	-10.8937
▁بحر	-10.8944
اڻيو	-10.8945
▁هٽ	-10.8946
▁r	-10.8949
▁کائيندا	-10.895
▁روانا	-10.8953
▁سيف	-10.8954
▁IP	-10.8954
▁مُنهن	-10.8956
▁بندوق	-10.8959
▁سنگين	-10.896
▁عرفت	-10.8962
▁مينيجر	-10.8963
▁بچ	-10.8964
ٽنگ	-10.8964
وج	-10.8965
▁باني	-10.897
▁اطالوي	-10.8971
▁فئڪٽري	-10.8971
▁لاڳاپو	-10.8971
▁OEM	-10.8971
▁جھاز	-10.8971
▁پڙهندو	-10.8972
▁اڇي	-10.8973
▁مؤمن	-10.8973
▁هوسٽنگ	-10.8974
▁←	-10.8974
▁اختياري	-10.8978
04	-10.8981
▁برد	-10.8983
▁رپي	-10.8985
▁وَرو	-10.8987
▁هفتو	-10.8989
▁نوٽس	-10.8992
▁سرخ	-10.8993
▁37	-10.8993
▁نيت	-10.8993
▁ليول	-10.8997
▁سوچن	-10.8998
sa	-10.9
▁وح	-10.9004
▁نهاريو	-10.9005
▁متحد	-10.9005
جج	-10.9005
em	-10.9008
وره	-10.9009
34	-10.9021
▁منطقي	-10.9026
98	-10.9028
▁مرتب	-10.903
▁بڻيو	-10.9031
▁تفريح	-10.9034
▁گاهي	-10.9036
▁مطلوب	-10.9037
▁ڍنڍ	-10.9037
▁آزمائي	-10.9038
▁مجيد	-10.9039
▁زمري	-10.9042
ant	-10.9043
▁جل	-10.9046
▁مولوي	-10.9046
▁وڻي	-10.9047
ؤن	-10.9048
▁فار	-10.905
▁دريا	-10.9051
▁مينيو	-10.9051
▁عربن	-10.9054
▁سليم	-10.9054
▁ضمني	-10.9059
▁39	-10.906
▁وساريو	-10.9067
▁جيڪر	-10.9067
▁اسپ	-10.9067
▁ساخت	-10.907
▁سمهي	-10.9071
قل	-10.9072
▁عدالتي	-10.9077
▁چوڪ	-10.9079
▁اسوي	-10.9081
▁پهلو	-10.9082
▁گيم	-10.9085
▁صدق	-10.9089
▁مسڪين	-10.9091
▁روڪ	-10.9093
▁۳	-10.9099
▁محمود	-10.9103
▁فرينچ	-10.9103
▁ڪامريڊ	-10.9104
▁قم	-10.9105
▁ڀاڪر	-10.9106
▁بشمول	-10.9107
▁ماکي	-10.9108
▁هيڏانهن	-10.911
▁شاھ	-10.9111
▁ٽيمن	-10.9111
▁درستگي	-10.9114
="5	-10.9114
است	-10.9116
▁زمانو	-10.9118
▁فاسٽ	-10.9118
▁اعمل	-10.9118
ho	-10.912
▁لعنت	-10.9122
سٽن	-10.9123
▁ذيلي	-10.9125
▁معرفي	-10.9125
▁--	-10.913
▁صنعتن	-10.9131
▁سينگار	-10.9132
نج	-10.9133
▁حڪمراني	-10.9133
▁سؤال	-10.9136
▁واپارين	-10.9137
05	-10.9144
▁ريٽ	-10.9145
يرا	-10.9153
32	-10.9156
▁راس	-10.9162
▁تاثر	-10.9163
▁چڱا	-10.9164
▁نما	-10.9164
▁فرزند	-10.9171
▁k	-10.9175
▁فليش	-10.9176
▁بچاءُ	-10.9176
▁سوئچ	-10.9177
▁دعائون	-10.9181
▁فولڊر	-10.9183
co	-10.9186
▁نم	-10.9189
▁اهڙيء	-10.9196
اڙ	-10.9198
ٿا	-10.9203
▁ڦل	-10.921
ڊن	-10.9212
▁لڙڪ	-10.9221
▁""	-10.9225
ديد	-10.9226
▁وڃون	-10.9233
▁ليٽر	-10.9234
▁فاریکس	-10.9238
▁ممتاز	-10.9238
ڌي	-10.9238
يڪل	-10.9244
▁44	-10.9246
▁راء	-10.9246
▁مرڪب	-10.9247
▁لت	-10.9249
▁جادوگر	-10.925
▁درجا	-10.9251
▁انتى	-10.9256
▁منهم	-10.9256
▁پڇا	-10.926
عد	-10.9264
▁هائي	-10.9271
▁الدين	-10.9272
▁پراڊڪٽس	-10.9276
▁ڳائي	-10.9278
▁عارف	-10.9278
صح	-10.9279
▁دادو	-10.9282
▁پرينءَ	-10.9283
▁بيڊ	-10.9285
▁فونز	-10.9286
37	-10.929
▁وليد	-10.9295
▁سوئي	-10.9297
ec	-10.9297
▁غيره	-10.9299
▁عز	-10.9302
▁شاعرن	-10.9303
▁سلو	-10.9304
▁فيني	-10.9304
▁مفهوم	-10.9306
▁پائوڊر	-10.9306
▁انسٽيٽيوٽ	-10.9306
▁Google	-10.9307
▁ٽيليفون	-10.9307
▁نڪرندو	-10.9307
▁ستر	-10.9308
▁طبيعي	-10.9308
▁پارچه	-10.931
▁Play	-10.931
الف	-10.9318
ڪيل	-10.9318
▁خطرن	-10.9325
▁هنر	-10.9327
▁معرفت	-10.9329
▁كدا	-10.933
▁جس	-10.9333
▁ولايت	-10.9333
▁۔	-10.9334
▁ترى	-10.9334
▁ڪٿا	-10.9336
▁تق	-10.934
▁ويهه	-10.9341
pa	-10.9343
▁جواني	-10.9344
▁سينسر	-10.9345
▁گريه	-10.9351
▁دانهن	-10.9352
▁اڀري	-10.9357
اااي	-10.9357
ڵ	-10.9364
َر	-10.9365
ويه	-10.9365
▁الخط	-10.9365
▁هٽائي	-10.937
-1	-10.9373
▁رش	-10.9374
▁اپوزيشن	-10.9375
▁محتاط	-10.9375
▁ٽارگيٽ	-10.9376
▁پارسي	-10.9376
▁باضابطه	-10.9378
▁پٺتي	-10.9378
▁گويد	-10.9378
▁باشد	-10.9378
▁عجبتني	-10.9379
▁يزيد	-10.938
▁قطع	-10.9382
▁کائيندو	-10.9384
جيڪو	-10.9385
▁فكره	-10.9386
▁هنيو	-10.9387
ااااااا	-10.9392
▁ٽوڙي	-10.9393
▁حقيقتون	-10.9395
▁ارد	-10.9398
▁شپ	-10.9398
مش	-10.9405
▁ٻوٽ	-10.9411
كو	-10.9413
جهه	-10.9418
▁عيش	-10.9418
▁فيڊ	-10.9419
▁حقيقتن	-10.9421
▁ڏکي	-10.9421
▁صحافين	-10.9424
ڙيءَ	-10.9425
باب	-10.9432
▁ڊولپر	-10.9436
▁ڪش	-10.9439
▁article	-10.9444
▁نهاري	-10.9444
▁نمونن	-10.9444
▁ذي	-10.9444
▁سرزمين	-10.9445
▁پروٽين	-10.9445
▁اڱڻ	-10.9445
▁محتاج	-10.9446
▁ٺهڻ	-10.9446
لت	-10.9447
▁2005	-10.9448
▁ڊيوٽي	-10.9449
▁يعرف	-10.9451
▁واسطي	-10.9451
▁وجهڻ	-10.9457
▁محب	-10.9458
ex	-10.9473
▁مزدورن	-10.9477
▁گهرائي	-10.9478
▁HD	-10.9479
ائڊ	-10.948
▁مم	-10.9481
▁ڪردارن	-10.9482
▁رسالي	-10.9487
▁وانگي	-10.949
▁تعين	-10.9494
▁پان	-10.9494
▁ڪوڙو	-10.95
▁وكل	-10.9502
▁Mau	-10.9503
age	-10.9506
▁سگھيو	-10.9506
▁مياد	-10.9513
▁انڪشاف	-10.9513
▁ڪينيڊا	-10.9513
▁فائبر	-10.9514
▁مؤثر	-10.9515
▁نكته	-10.9515
▁تحب	-10.9516
▁جھڙو	-10.9517
▁پيڪنگ	-10.9519
▁چيائون	-10.9521
▁معاك	-10.9525
▁مطالبن	-10.9534
ونا	-10.9539
اڻا	-10.9541
وڊ	-10.9542
▁گياهي	-10.9545
▁اينديون	-10.955
وءَ	-10.9557
شان	-10.956
▁دري	-10.9561
▁ورڊ	-10.9561
▁پادري	-10.9563
▁ويران	-10.9563
▁برج	-10.9564
▁نفسيات	-10.9567
▁کاري	-10.9578
ڼ	-10.9583
ورا	-10.9583
▁اٿارٽي	-10.9583
▁انڊيڪس	-10.9583
▁عملدار	-10.9584
▁دفتر	-10.9584
▁ٽاور	-10.9585
▁سفيد	-10.9586
▁ڪرايا	-10.9587
▁اُھو	-10.9588
▁نائب	-10.9589
▁آرامده	-10.9589
▁4:	-10.9592
▁ورجن	-10.9593
▁کنيد	-10.9595
سڀ	-10.9597
▁پياده	-10.9597
▁باغي	-10.9602
لق	-10.9603
▁نسخ	-10.9609
▁حم	-10.9614
ئل	-10.9614
▁آقا	-10.9623
▁جاڳي	-10.9628
▁چري	-10.9629
▁مرڪي	-10.9636
يده	-10.9638
▁اڳڪٿي	-10.9639
▁لائنز	-10.9647
▁♥	-10.965
▁ڪروم	-10.9651
▁جمعه	-10.9652
▁انحصار	-10.9653
▁ساڄي	-10.9654
▁پولي	-10.9656
▁کول	-10.9656
وسي	-10.9657
▁هفتيوار	-10.9658
صل	-10.9659
▁حفظ	-10.966
ايس	-10.9663
vo	-10.9664
▁جدول	-10.9664
▁فوڊ	-10.9665
آس	-10.9666
١	-10.9667
▁راست	-10.9668
▁ذوق	-10.9668
▁اڪيلائي	-10.9674
▁ڌنڌو	-10.9674
▁مج	-10.9677
▁ڪبو	-10.9678
▁عنصرن	-10.9679
}	-10.9685
▁معنا	-10.9686
▁لکان	-10.9689
:$	-10.9705
▁عرف	-10.9706
▁بالا	-10.9707
▁يخ	-10.9709
▁علامه	-10.971
واري	-10.9712
ريشن	-10.9715
▁بهتري	-10.972
▁ديوي	-10.972
▁پيامها	-10.9721
▁مڙني	-10.9724
▁پاڙيسري	-10.9725
▁Bitcoin	-10.9725
▁محفل	-10.9725
ment	-10.9726
▁سامعين	-10.9726
▁ڏيارڻ	-10.9727
▁ٽوڙڻ	-10.9727
سك	-10.9728
▁پیش	-10.9729
▁نوعيت	-10.973
۲	-10.9731
▁قربان	-10.9733
▁وڃايو	-10.9736
▁st	-10.974
▁دارد	-10.9741
44	-10.9746
ow	-10.975
▁all	-10.9751
مك	-10.9751
بط	-10.9756
▁چيل	-10.9759
رق	-10.976
▁مالياتي	-10.976
ايت	-10.976
▁پئ	-10.9761
▁هندن	-10.9763
عام	-10.9774
ٿو	-10.9775
▁رسالت	-10.9777
▁ڪاش	-10.9778
▁3)	-10.9781
▁رومن	-10.9784
▁خانه	-10.9792
ستي	-10.9793
▁Mehm	-10.9796
lana	-10.9797
▁ويٽ	-10.9798
▁متوقع	-10.9798
▁رج	-10.9803
آخر	-10.9804
▁مدني	-10.9805
▁کردن	-10.9806
قص	-10.9808
▁صلح	-10.9809
▁ڏيڍ	-10.9809
▁ڏيهه	-10.981
▁ڌماڪي	-10.981
صلي	-10.9813
▁وحي	-10.9815
▁دستور	-10.9817
▁صفر	-10.9824
▁La	-10.9824
▁ليو	-10.9824
▁مشرقي	-10.9829
▁جهت	-10.9838
▁ٽنهي	-10.9839
▁فهم	-10.9843
▁روزو	-10.9845
دخل	-10.9846
رايو	-10.9848
توکي	-10.9851
َّ	-10.9862
▁اوس	-10.9866
▁شفت	-10.9866
▁عظمت	-10.9868
▁هڙتال	-10.9868
▁بڻجڻ	-10.9868
▁زيارت	-10.9869
▁تجديد	-10.9869
▁ٺاھڻ	-10.987
▁الحمد	-10.9871
▁آگهي	-10.9873
▁عندنا	-10.9874
▁گھربل	-10.9879
▁مولا	-10.9879
▁آگاهه	-10.9881
▁ڪرسي	-10.9883
ڪنهن	-10.9884
▁ُ	-10.9884
▁زياده	-10.9892
▁تعلقي	-10.9892
ty	-10.9894
▁مشكله	-10.9895
▁صحتيابي	-10.9906
وال	-10.9913
▁وڙهي	-10.9913
▁//	-10.992
▁ليك	-10.9926
ائر	-10.9931
▁بايو	-10.9939
وپ	-10.994
▁Amr	-10.994
▁پرچم	-10.994
▁پهريائين	-10.9941
▁آڌار	-10.9942
▁بغداد	-10.9942
▁پئسي	-10.9944
سنگ	-10.9944
▁شموليت	-10.9944
▁پرورش	-10.9944
▁**	-10.9945
▁ملائڻ	-10.9945
▁سِ	-10.9945
▁سگهين	-10.9946
▁معزز	-10.9946
▁بڻيل	-10.9947
▁ميني	-10.9948
35	-10.9948
▁دوائن	-10.9953
▁ڪلهي	-10.9955
▁اوٽ	-10.9955
▁پروفيشنل	-10.9957
▁وج	-10.9959
جيئن	-10.9959
▁حالي	-10.9961
▁برگزاري	-10.9963
دنيا	-10.9963
▁سپ	-10.9968
فن	-10.9968
iv	-10.9975
بيل	-10.9977
▁سٽون	-10.9979
▁حاصلات	-10.998
▁يمه	-10.998
▁پسر	-10.9981
▁ايپليڪيشنون	-10.9982
▁هيڏي	-10.9985
آء	-10.9985
▁ھوندا	-10.9989
▁ٽرانس	-11
صف	-11
▁راتيون	-11.0005
▁ڪنن	-11.0012
▁Taj	-11.0014
▁بنگلاديش	-11.0014
▁Pro	-11.0014
▁اتوقع	-11.0015
وين	-11.0016
ينه	-11.0016
▁هئم	-11.0019
▁بخير	-11.0023
▁زيادتي	-11.0032
ريا	-11.0032
▁تڪڙ	-11.0034
▁ٿوڪ	-11.0035
▁رائيٽ	-11.0038
خبر	-11.0038
▁سبز	-11.0039
31	-11.0039
▁بح	-11.004
▁گهڻائي	-11.0042
▁جوهر	-11.0049
▁گهرايو	-11.0061
▁نشانين	-11.0062
▁ڪلهه	-11.007
▁سنڀالي	-11.0072
▁هيم	-11.0075
▁جُ	-11.0075
16	-11.0076
▁وائيس	-11.0082
خير	-11.0083
▁عذر	-11.0084
▁بائبل	-11.0087
▁ذهانت	-11.0087
▁عقيدي	-11.0087
▁يڪدم	-11.0087
▁انواع	-11.0088
▁جوسينو	-11.0089
▁پيڪنگنگ	-11.0092
▁آفت	-11.0092
▁گُ	-11.0092
▁اسرائيلي	-11.0093
▁اُڀ	-11.0098
▁چاليه	-11.0098
▁شكلي	-11.0099
▁ايشيائي	-11.0101
▁ٻيلي	-11.0103
▁خالق	-11.0106
▁انس	-11.0106
▁زميندار	-11.0107
▁گس	-11.0109
▁۴	-11.0113
▁بهادر	-11.0113
▁پُڇ	-11.0114
▁مبارڪون	-11.0119
▁جعلي	-11.012
ve	-11.0125
▁سيکاريو	-11.0125
يندو	-11.013
▁پٽن	-11.013
▁ترس	-11.0133
▁ويز	-11.0135
ڪشن	-11.0135
▁ڇڏين	-11.014
▁نيڻن	-11.0141
▁کاڌ	-11.0141
▁غيرت	-11.0142
▁نين	-11.0142
رر	-11.0142
▁نيرو	-11.0147
▁جارج	-11.0152
▁محشش	-11.0152
لكم	-11.0154
03	-11.0156
▁منصوبابندي	-11.0161
▁لڪل	-11.0162
▁ڌوئڻ	-11.0162
▁قرارداد	-11.0162
▁مطلق	-11.0164
▁اثرائتو	-11.0164
▁اكبر	-11.0167
="4	-11.017
▁مايوسي	-11.0175
▁دروازا	-11.0176
▁قصه	-11.0177
▁انگليسي	-11.0179
▁پروسيسر	-11.0181
▁تارا	-11.0182
▁بندش	-11.0183
▁بلي	-11.0184
راج	-11.0195
▁سٽا	-11.0196
ڃ	-11.0201
▁ٻٽي	-11.0204
ٽل	-11.0205
▁شاهد	-11.0212
▁فيسبو	-11.0213
▁مرسي	-11.0213
▁شيٽ	-11.0219
-2	-11.0222
▁وچين	-11.0226
der	-11.0226
▁ساڻن	-11.0226
يندي	-11.0231
▁ٽيلي	-11.0231
▁مداح	-11.0233
▁امکان	-11.0234
▁چن	-11.0235
▁زلزلي	-11.0235
▁بصراحه	-11.0236
▁1990	-11.0237
▁ڪام	-11.0238
▁تصميم	-11.024
▁خر	-11.0241
▁داغ	-11.0241
گير	-11.0241
ڪَ	-11.0242
▁غار	-11.0245
▁اُٺ	-11.0245
خلي	-11.0251
▁کپ	-11.0257
▁بقي	-11.0262
ci	-11.0267
▁وارڊ	-11.0267
▁صورة	-11.027
▁رنج	-11.0274
000	-11.0274
▁ڪچي	-11.0278
▁سمجھو	-11.0279
▁آهو	-11.028
▁مشينري	-11.0282
▁بليڪ	-11.0282
▁أنت	-11.0294
▁پرستي	-11.0294
▁عهد	-11.0299
ڊين	-11.03
▁وادي	-11.0301
▁هير	-11.0307
▁اوطاق	-11.0311
▁يسوع	-11.0311
▁اپلوڊ	-11.0311
ريز	-11.0311
▁ارادي	-11.0313
▁پڇيائين	-11.0313
▁البنات	-11.0314
▁ردعمل	-11.0315
▁فلسفو	-11.0317
▁چمي	-11.0324
▁پرسش	-11.0324
▁وك	-11.0324
▁عنده	-11.0329
▁ملا	-11.0331
▁توجه	-11.0332
▁گهران	-11.0336
▁ترجمي	-11.0337
▁تحقيقي	-11.0338
▁ڪوڙي	-11.0339
▁جوڙڻ	-11.0339
47	-11.0343
▁صلاحيتون	-11.0344
ائيٽ	-11.0344
▁ڊوڙ	-11.0344
▁حتي	-11.0344
▁كف	-11.0345
▁رائ	-11.0347
▁دستي	-11.035
حت	-11.0358
کار	-11.0359
▁چارٽ	-11.036
آءٌ	-11.0362
▁55	-11.037
▁Ch	-11.0384
:00	-11.0386
▁سڀڪنھن	-11.0386
▁پيچيدگي	-11.0388
▁لاطيني	-11.0388
▁انتظر	-11.039
▁2006	-11.0391
▁اك	-11.0393
▁ڄاتو	-11.0396
وض	-11.0397
▁ڪڇ	-11.04
▁شخصي	-11.0401
▁اوور	-11.0406
▁لمحن	-11.0407
اهه	-11.0407
▁سچا	-11.0411
▁الكل	-11.0412
▁موڙي	-11.0413
▁پوريون	-11.0415
▁گفتي	-11.0416
▁رولر	-11.0417
▁1)	-11.0417
▁الغ	-11.0418
يڪا	-11.0418
▁لقب	-11.042
ضح	-11.0424
▁ثانيه	-11.0424
▁7.	-11.0425
▁اسٽين	-11.043
▁اوري	-11.0432
▁لائي	-11.0436
▁مشيني	-11.0436
▁وڄ	-11.0437
▁غلامي	-11.0439
▁ڄڻن	-11.0439
▁موضوعن	-11.044
اڻيءَ	-11.0449
▁انجي	-11.0452
▁سلي	-11.0462
▁گهوڙي	-11.0463
▁فساد	-11.0463
▁دٻايو	-11.0463
▁نداره	-11.0464
▁پنجين	-11.0464
برگ	-11.0464
▁ڏٺائين	-11.0465
▁هاڻوڪي	-11.0465
▁حاجة	-11.0465
نت	-11.0467
▁کيڏي	-11.0467
ian	-11.0469
▁نڪتا	-11.0469
▁طويل	-11.047
▁Ma	-11.0471
مني	-11.0473
▁سهڻا	-11.0475
▁فرش	-11.0477
▁حاجه	-11.0477
ps	-11.048
▁نادر	-11.0481
▁اڇا	-11.0481
▁حيدر	-11.0483
▁جهنگلي	-11.0483
▁وفاق	-11.0485
▁ڀاڳ	-11.0487
▁آلات	-11.0489
ومي	-11.0489
▁يهودي	-11.049
▁ايوب	-11.0494
▁يڪ	-11.0494
▁زد	-11.0495
اھي	-11.0495
وح	-11.0496
29	-11.0499
▁اكتب	-11.0499
▁دڙي	-11.05
▁بخار	-11.0502
يلينڊ	-11.0502
اڳ	-11.0504
▁سورج	-11.0506
▁ڄاڻندا	-11.0506
▁ربنا	-11.0509
per	-11.0509
▁حڪمرانن	-11.0511
Q	-11.0513
زيد	-11.0514
▁نظريه	-11.0516
آف	-11.0517
▁يح	-11.0526
▁ڇوڪريون	-11.0533
▁اڙي	-11.0537
موت	-11.0537
▁احتساب	-11.054
▁الوداع	-11.054
▁مشھور	-11.054
▁الد	-11.054
▁حڪيم	-11.054
▁سرمايو	-11.054
▁تعصب	-11.0541
▁گهوٽ	-11.0542
▁وفادار	-11.0547
▁سڙي	-11.0548
▁سلمان	-11.055
da	-11.055
▁چؤ	-11.0551
رنگ	-11.0553
▁اڳئي	-11.0553
▁خاطري	-11.0559
▁أخي	-11.0561
رض	-11.0562
▁بالله	-11.0563
▁بيهڻ	-11.0566
▁پراڻا	-11.0567
▁ليٽ	-11.0573
▁ڪجه	-11.0574
▁يبي	-11.0582
زه	-11.0585
ڑ	-11.0585
▁43	-11.0586
▁جهنگ	-11.0589
وله	-11.0593
▁درخواستون	-11.0596
پاسي	-11.06
▁ڄ	-11.0602
▁لڳس	-11.0603
ورة	-11.0609
ھين	-11.0611
▁زون	-11.0612
im	-11.0612
▁آپريٽر	-11.0615
▁يسلمو	-11.0617
▁دانلود	-11.0617
▁يوڪرين	-11.0617
▁سگھجن	-11.0618
▁هيلٿ	-11.062
▁تفريحي	-11.062
▁ورڇ	-11.0624
▁منصور	-11.0627
▁ڳا	-11.0628
▁اوليه	-11.0632
قة	-11.0638
▁تخيل	-11.0641
اتو	-11.0642
▁اجتماعي	-11.0642
▁مهدي	-11.0644
ااااااااا	-11.0646
▁نيز	-11.0652
▁***	-11.0652
يرو	-11.0652
▁رنگي	-11.0658
▁پيسٽ	-11.0666
▁پاسن	-11.0669
▁مورد	-11.0673
▁يد	-11.0674
▁سانچو	-11.0675
▁دهلي	-11.0678
▁صفت	-11.0682
▁تحقيقات	-11.0682
وٽو	-11.0689
حق	-11.0689
▁هدايتن	-11.0692
xBet	-11.0695
▁►	-11.0696
▁سخن	-11.0696
▁تاثير	-11.0696
▁وڪڻڻ	-11.0698
▁ويچاري	-11.0699
▁اڪبر	-11.0699
▁سرمائي	-11.07
▁چاندي	-11.0702
▁ڪرم	-11.0702
ـَـ	-11.0703
▁گھٽائڻ	-11.0703
▁رھڻ	-11.0706
▁پنهون	-11.0711
▁المللي	-11.0715
▁سوري	-11.0715
▁کاڌا	-11.0722
پار	-11.0722
لز	-11.0726
▁سٿ	-11.0729
▁لکڻين	-11.073
pe	-11.0731
▁يونيورسٽين	-11.0734
▁دٻي	-11.0734
▁کنيا	-11.0734
▁بدلو	-11.0735
▁برگ	-11.0738
▁بالي	-11.0738
'ـ	-11.0738
وقت	-11.0739
▁ڪس	-11.0739
قط	-11.074
پنهنجي	-11.0748
▁دى	-11.075
▁جگر	-11.075
ليس	-11.0752
▁فيض	-11.0753
▁دهشتگرد	-11.0754
▁64	-11.0764
▁فرا	-11.0766
طا	-11.0771
▁اكس	-11.0771
▁بهره	-11.0772
▁ندارد	-11.0774
▁ايڊريس	-11.0774
▁جانبدار	-11.0777
▁جمهور	-11.0777
▁فورس	-11.0778
▁قائل	-11.0778
ah	-11.0782
08	-11.0783
▁خانو	-11.0784
▁120	-11.0788
▁نواب	-11.079
▁فو	-11.0793
17	-11.0796
▁ماشي	-11.0797
▁ڪُل	-11.0798
▁زندهه	-11.0798
▁پيٽرول	-11.0805
▁لسه	-11.0806
▁شدن	-11.0807
▁ومن	-11.0807
66	-11.0808
▁پريم	-11.0808
ish	-11.0809
▁قاعدن	-11.0813
▁سوير	-11.0813
▁اندازه	-11.0822
▁چٽ	-11.0823
▁نشي	-11.0823
رات	-11.0824
ڪوٽ	-11.0832
▁دون	-11.084
500	-11.0843
▁اص	-11.0846
ٽيڪ	-11.0848
▁لاڳاپن	-11.0853
▁گريجوئيشن	-11.0853
▁استقبال	-11.0853
▁جرئت	-11.0853
▁خواهشمند	-11.0854
▁ورهايو	-11.0855
▁سفير	-11.0856
طلع	-11.0856
▁پوکي	-11.0856
▁اڳواٽ	-11.0856
▁آفتاب	-11.0858
▁يصير	-11.086
▁مشرف	-11.086
▁چڱيء	-11.0866
up	-11.0872
▁هوند	-11.0874
▁سڏجي	-11.0875
▁ابر	-11.0875
▁ميهن	-11.0875
▁سائنسدانن	-11.0879
100	-11.0883
▁موسمي	-11.0886
▁ايج	-11.0887
▁روعه	-11.0887
77	-11.0888
▁غلطين	-11.0893
▁اق	-11.0895
▁ڀاتي	-11.0895
▁خلص	-11.0895
▁پيٽر	-11.0895
▁اوزارن	-11.0895
▁ٽنگ	-11.0898
▁همراه	-11.09
▁بيزار	-11.09
▁روٽ	-11.0906
لآ	-11.0907
ليل	-11.0908
▁Le	-11.091
ard	-11.0916
فهم	-11.0917
▁فوق	-11.0924
ڊل	-11.0925
▁ڳالھه	-11.0932
ريءَ	-11.0932
▁ويڙهاڪ	-11.0933
هيو	-11.0934
▁سگهنداسين	-11.0938
جب	-11.0938
▁چيلهه	-11.0938
▁سڃاڻڻ	-11.0939
▁اخذ	-11.0943
▁هلڪي	-11.0943
▁پڄاڻي	-11.0945
▁سائينءَ	-11.0947
▁ٻارڙا	-11.0948
▁جهڙن	-11.0948
ack	-11.0949
ive	-11.0952
▁هنج	-11.0952
▁ماريا	-11.0954
▁عجبني	-11.0954
▁يون	-11.0955
▁38	-11.0956
▁تقاضا	-11.0962
يهر	-11.0963
▁واس	-11.0963
▁ائپ	-11.0964
▁لڙائي	-11.0967
▁سعد	-11.0967
▁خريدار	-11.0969
▁لکندا	-11.0972
▁ڏنڊ	-11.0973
شيا	-11.0975
▁لأن	-11.098
لنگ	-11.0981
▁رياستي	-11.0983
▁ويه	-11.0989
▁نوح	-11.0992
▁ڍ	-11.0998
▁ولو	-11.1005
▁ڪنوار	-11.1008
06	-11.1012
▁اسڪرپٽ	-11.1014
ba	-11.1016
▁ٺٽي	-11.1016
▁more	-11.1018
▁يقطع	-11.1018
▁پيمان	-11.1018
▁ساراهه	-11.1019
▁بعرف	-11.102
ast	-11.1023
▁pro	-11.1024
▁بكل	-11.1026
▁ايسٽ	-11.103
▁ملهائي	-11.1032
ng	-11.1034
▁تنها	-11.1036
▁ڳڻپ	-11.1044
▁می	-11.1045
جون	-11.1048
▁وفي	-11.1049
دى	-11.1049
▁گشت	-11.1054
▁بيه	-11.1055
▁رهان	-11.1056
▁on	-11.1063
▁آڻيو	-11.1064
ائج	-11.1068
▁ليبل	-11.1073
اک	-11.1075
▁الأ	-11.1077
▁پروگرامنگ	-11.1077
گار	-11.1086
▁ايٽ	-11.1086
▁اڪائونٽس	-11.1088
ّي	-11.1089
ڳي	-11.1092
▁بَ	-11.1092
▁بٽ	-11.1093
▁سيٺ	-11.1094
▁Windows	-11.1095
▁ڪئلينڊر	-11.1095
▁ايڪسچينج	-11.1095
▁ثواب	-11.1095
▁ناقص	-11.1096
▁مهاجر	-11.1097
گه	-11.1099
▁درٻار	-11.1099
▁سڪندر	-11.11
▁عيسوي	-11.1101
▁مٿيون	-11.1102
▁هلايو	-11.1103
▁ميموري	-11.1107
▁معلم	-11.1109
▁ائپس	-11.111
▁رَ	-11.111
▁ٻڌائيندو	-11.111
▁لٺ	-11.1114
op	-11.1114
پپ	-11.1114
▁عراقي	-11.1118
▁كثر	-11.1118
▁فرهنگي	-11.1122
▁اربع	-11.1122
▁ڊائري	-11.1124
76	-11.1129
▁لڳيون	-11.1131
ځ	-11.1132
▁مغ	-11.1135
▁mo	-11.1136
▁جاوا	-11.1139
۳	-11.114
▁سڌ	-11.114
▁بستري	-11.1141
85	-11.1145
▁يَ	-11.1146
▁الاهي	-11.1151
▁To	-11.1153
▁طبقن	-11.1154
يڪٽ	-11.1156
▁ڙي	-11.1156
▁ادخل	-11.1156
▁ڏھ	-11.1156
▁شناخت	-11.1168
▁خيرات	-11.1169
▁ڪراس	-11.1174
▁ڀاڙي	-11.1177
▁سرٽيفڪيشن	-11.1177
▁رومانوي	-11.1177
▁هارڊويئر	-11.1177
▁ڪارخاني	-11.1178
▁ٿلهي	-11.1179
جد	-11.118
38	-11.1183
ac	-11.1183
▁ميٽرڪ	-11.1184
▁ڊڪ	-11.1185
▁گذاريو	-11.1186
▁خدائي	-11.1195
▁سولي	-11.1198
▁لڪيل	-11.12
مال	-11.1201
كره	-11.1204
▁فلسفه	-11.1206
▁اعصاب	-11.1214
▁نظرياتي	-11.1214
▁گز	-11.1215
▁ڦٽي	-11.1216
▁ملاح	-11.1219
▁اوك	-11.1219
▁گرام	-11.1219
▁لهجي	-11.1223
▁ڪک	-11.1232
▁روڊن	-11.1232
▁مفادن	-11.1232
فق	-11.1233
▁فاصلي	-11.1236
اتك	-11.1241
▁البته	-11.1244
بير	-11.1245
لة	-11.1247
▁پهن	-11.1248
▁پڙ	-11.1248
▁ساره	-11.1249
ick	-11.1249
▁ايماندار	-11.1251
قد	-11.1252
27	-11.1259
▁پنھنجن	-11.126
▁اڳوڻو	-11.126
▁برانچ	-11.126
▁پائونڊ	-11.1261
▁پيرامون	-11.1262
بڪ	-11.1264
▁مصروفيت	-11.1266
▁ڦٽ	-11.1266
▁تحقيقاتي	-11.1266
09	-11.1267
▁اديبن	-11.1269
سيد	-11.127
ريم	-11.1272
▁رزق	-11.1275
▁هجو	-11.1275
▁ويهن	-11.128
▁ڪيچ	-11.128
▁۵	-11.128
گرد	-11.1284
▁(5)	-11.1287
▁ريان	-11.1288
▁سُک	-11.1293
▁are	-11.1293
▁جيسين	-11.1294
▁ٻڏي	-11.1295
▁ٻارهن	-11.1297
▁سما	-11.1302
▁لاڙ	-11.1303
ill	-11.1303
▁مشينن	-11.1307
oo	-11.1308
lu	-11.1308
▁روايتن	-11.1309
وڙي	-11.1309
▁ڪندين	-11.131
▁نصاب	-11.1315
تيني	-11.1317
▁زنان	-11.1318
زل	-11.1321
▁ٺاھيو	-11.1324
▁شخصيتن	-11.1324
▁سمجهون	-11.1328
▁سنت	-11.133
▁مٺا	-11.1331
▁جذبن	-11.1334
۵	-11.1335
هتي	-11.1338
OS	-11.1341
▁زر	-11.1342
▁سيال	-11.1342
▁انضمام	-11.1343
▁دارومدار	-11.1343
▁ڇڪتاڻ	-11.1343
▁ناجائز	-11.1343
▁عيوض	-11.1343
▁اوباما	-11.1344
▁پھريان	-11.1344
▁مذمت	-11.1344
▁ڪارائتو	-11.1344
َرَ	-11.1345
▁وسارڻ	-11.1346
چين	-11.1348
▁گند	-11.1351
▁مشوري	-11.1356
▁2004	-11.1357
▁گلو	-11.1357
▁ديني	-11.1358
اور	-11.136
▁ڪاڻ	-11.1362
▁ڄاڻون	-11.1364
▁ٺاهيندا	-11.1364
۴	-11.1369
▁ڇڏيائين	-11.1371
▁صديق	-11.1376
▁مبروك	-11.1376
▁انتو	-11.1385
▁معين	-11.1385
$	-11.1389
▁بق	-11.1391
▁كلنا	-11.1391
tion	-11.1394
▁طلعت	-11.1398
▁حا	-11.1399
▁سورن	-11.1399
▁هيرن	-11.1401
▁ٽيڪنڪ	-11.1405
▁جپاني	-11.1405
▁باه	-11.1408
▁اسٽيڪ	-11.1409
▁ايٽمي	-11.1409
اصل	-11.1411
▁حلوين	-11.1414
▁همٿ	-11.1414
امين	-11.1416
لع	-11.1416
é	-11.1427
ڛ	-11.1427
▁واجب	-11.1435
#	-11.1437
▁ابد	-11.1437
▁ٽول	-11.144
▁ڪاسٽ	-11.1443
▁ھل	-11.1447
ادا	-11.1451
▁مول	-11.1457
▁اسانکي	-11.1458
▁سياح	-11.146
▁سلوڪ	-11.1462
ياتي	-11.1464
▁گرد	-11.1466
▁پاڻيء	-11.1469
▁ايڪو	-11.1473
▁موڪليا	-11.1478
▁شفته	-11.1481
▁رلي	-11.1481
▁سگھندا	-11.149
▁sh	-11.1494
▁ڊا	-11.1502
یم	-11.1503
ٽيل	-11.1504
ge	-11.1507
▁دوستان	-11.1507
▁ڪُجهه	-11.1512
▁ملهائڻ	-11.1513
▁آلودگي	-11.1513
▁واڪ	-11.1513
▁ورثي	-11.1514
▁مترجم	-11.1514
▁حاضري	-11.1514
▁ٿورڙو	-11.1515
▁گڏي	-11.1518
▁پنن	-11.1518
▁اجزاء	-11.1519
اخ	-11.1521
▁سيم	-11.1534
▁قلبك	-11.1537
پين	-11.154
▁فريب	-11.1544
▁جوڙيو	-11.1548
ting	-11.155
▁نش	-11.1553
▁ٿورن	-11.1554
▁اِي	-11.1555
71	-11.1558
▁سيکاري	-11.1559
ُر	-11.1559
▁ڏکيائي	-11.1567
▁ڪمپنيءَ	-11.1569
▁ٽام	-11.1569
ka	-11.1569
▁پارٽيون	-11.157
▁اسمي	-11.157
▁يونس	-11.1576
▁خودمختيار	-11.1577
نده	-11.1579
▁ڇڪ	-11.158
ڈ	-11.1581
نڊا	-11.1583
▁حت	-11.1586
▁حيا	-11.1586
▁وبائي	-11.1587
ڪين	-11.1589
▁ڀاڻ	-11.1592
ga	-11.1593
▁ڀاڱو	-11.1597
▁پروٽوڪول	-11.1597
▁ھجڻ	-11.1598
▁سادگي	-11.16
▁سهارو	-11.1601
▁نڪتي	-11.1601
▁ٻاري	-11.1603
▁موٽو	-11.1603
▁البنت	-11.1606
▁×	-11.1606
▁اسرار	-11.1607
▁رڳ	-11.1608
▁لحظه	-11.1608
▁شهزادي	-11.161
▁لمحو	-11.161
▁دائرو	-11.161
▁تابعداري	-11.1616
75	-11.1617
▁رسالو	-11.1617
يق	-11.1621
يره	-11.1624
▁سِر	-11.1627
▁راج	-11.1629
▁ملئي	-11.1636
کس	-11.1637
مع	-11.1639
▁رِ	-11.1643
يٰ	-11.1644
▁ميگي	-11.1644
▁اٿو	-11.1651
▁موٽيو	-11.1654
▁me	-11.1655
▁گا	-11.1655
▁داره	-11.1657
▁پڌري	-11.1657
▁اٺن	-11.1658
مولانا	-11.1658
تس	-11.1659
▁خاندانن	-11.1661
مور	-11.1662
▁گروه	-11.1665
han	-11.167
فري	-11.1672
▁ڇڏيان	-11.1672
▁سوئٽزرلينڊ	-11.1684
▁مظلوم	-11.1684
▁مصنف	-11.1684
▁العافيه	-11.1684
▁آيه	-11.1686
▁دهشتگردن	-11.1687
▁اسڪوٽر	-11.1689
▁حبيبتي	-11.1691
▁ڳالهائيندڙ	-11.1691
▁مثلا	-11.1692
▁وڌائين	-11.1693
▁250	-11.1695
▁درباره	-11.1695
86	-11.1699
▁هلن	-11.1702
▁باقاعد	-11.1707
▁خطن	-11.171
▁ڪجھھ	-11.1711
▁سجيل	-11.1713
يندڙ	-11.1713
▁الاءِ	-11.1714
▁قصو	-11.1714
▁ٻا	-11.1719
▁كرد	-11.1722
▁متي	-11.1722
89	-11.1722
▁کائو	-11.1733
▁فونٽ	-11.1735
▁ڊڄي	-11.1735
ری	-11.1735
▁سومر	-11.1735
▁تاريخن	-11.1743
▁لنا	-11.1744
▁منكم	-11.1744
بك	-11.1746
▁هلو	-11.1753
▁پيري	-11.1755
▁اداڪارا	-11.1758
▁پٺي	-11.176
▁جيترا	-11.1763
تڪ	-11.1764
▁بده	-11.1764
اااااااا	-11.1765
48	-11.1766
حم	-11.1767
▁جمال	-11.1767
▁هيڪر	-11.177
▁اڳڀرائي	-11.1771
▁نوٽيفڪيشن	-11.1771
▁آڪسيجن	-11.1771
▁منتديات	-11.1771
ry	-11.1772
▁آنلائن	-11.1772
▁سوويت	-11.1773
▁سمجهندو	-11.1773
▁سوز	-11.1774
▁پيراهن	-11.1774
▁سينئر	-11.1775
▁پروموشن	-11.1775
▁الوقت	-11.1776
▁سياستدان	-11.1778
▁انجن	-11.1779
▁دوائون	-11.1781
▁ناٽڪ	-11.1781
▁ضحكتني	-11.1782
▁,,,	-11.1783
▁ھميشه	-11.1784
ts	-11.1784
▁سنجي	-11.1787
ااي	-11.1788
▁اينجلس	-11.1788
▁مارئي	-11.179
▁ماتحت	-11.1791
▁ڪمائڻ	-11.1792
▁مٺو	-11.1792
▁سڏيندا	-11.1792
▁پيوست	-11.1795
▁وينداسين	-11.1796
▁ارجو	-11.1803
▁ڀنگ	-11.1807
ائز	-11.1809
42	-11.1811
▁رهون	-11.1812
▁چاچا	-11.1815
>>	-11.182
^	-11.1823
▁دک	-11.1824
آئي	-11.1827
بلي	-11.183
▁برٽ	-11.1837
▁تجويزون	-11.1838
ak	-11.1841
▁مقناطيسي	-11.1841
▁خب	-11.1853
▁Al	-11.1855
ab	-11.1855
حة	-11.1855
بها	-11.1857
▁عقيدت	-11.1858
▁مھينا	-11.1858
▁آزمون	-11.1858
▁پارٽنر	-11.1859
▁بينظير	-11.1859
▁ويڪسينيشن	-11.1859
▁اُميد	-11.1859
▁ڄمڻ	-11.1862
▁پريشر	-11.1863
49	-11.1863
▁ليب	-11.1866
▁ٿري	-11.1868
▁پنجاهه	-11.1869
وووووو	-11.187
▁رآ	-11.1871
▁اندازي	-11.1872
▁con	-11.1873
▁گندي	-11.1876
سلام	-11.1881
▁ترجمه	-11.1882
▁ڳولها	-11.1882
▁هارين	-11.1885
فة	-11.1888
▁پرسيد	-11.1891
▁اگهه	-11.1892
[/	-11.1892
▁اوه	-11.1892
مند	-11.1895
▁توتي	-11.1898
▁كريم	-11.1901
خاص	-11.1903
خه	-11.1905
ودي	-11.1909
▁ڌارين	-11.1914
▁ديد	-11.1915
ريون	-11.1915
ۍ	-11.1917
فين	-11.1923
▁فكر	-11.1923
فس	-11.1925
ٺو	-11.1929
▁پريميئ	-11.193
گين	-11.1931
جنگ	-11.1933
▁مِ	-11.1933
ru	-11.1934
▁بص	-11.1934
▁نَ	-11.1938
▁آڷ	-11.1942
▁لپ	-11.1944
▁حڪومتن	-11.1946
▁گارنٽي	-11.1947
▁منزلن	-11.1947
▁تعميل	-11.1947
▁سرمايه	-11.1948
▁سوچيم	-11.1948
▁نانءُ	-11.1948
ثي	-11.195
▁گلابي	-11.195
▁منشيات	-11.1952
▁موٽائي	-11.1953
▁معكم	-11.1953
▁الصورة	-11.1953
▁وفد	-11.1955
▁لهم	-11.1957
▁بحب	-11.1958
▁ٿڪجي	-11.1958
▁چٽي	-11.1959
▁اسٽائل	-11.1959
ٻئي	-11.1961
▁فاصلو	-11.1963
min	-11.1964
▁گواهي	-11.1966
▁چُ	-11.1969
▁چوڻي	-11.1972
اءَ	-11.1973
▁گھرن	-11.1977
▁ڇهين	-11.1977
▁اسپام	-11.1977
▁ڪافر	-11.1978
▁رهيب	-11.1981
q	-11.1983
بال	-11.1983
▁ٻوٽو	-11.1985
▁پراڻن	-11.1986
▁پڇيم	-11.1988
▁حياتيات	-11.1989
▁مٿن	-11.199
▁وسي	-11.1991
▁ڪمپنيء	-11.1992
رِ	-11.1995
▁کڻندا	-11.1998
▁قالت	-11.2006
▁مهربان	-11.2007
▁ڇپيو	-11.2008
▁جائزي	-11.2009
▁گدا	-11.2011
▁ٻل	-11.2013
▁سٺن	-11.2017
▁نگران	-11.202
▁ميش	-11.2021
▁تڪ	-11.2022
ڊنگ	-11.2025
▁عش	-11.2026
▁ايوا	-11.2026
ens	-11.2026
▁کانسواء	-11.203
▁ٽريڊ	-11.2033
▁ھيون	-11.2033
▁تفسير	-11.2036
▁ڏاڙهي	-11.2037
▁ذهين	-11.2038
▁1980	-11.2038
▁ڊوڙندو	-11.2038
▁خلاصو	-11.204
▁ذميداري	-11.2041
▁ساعت	-11.2043
▁آڻ	-11.2045
نظر	-11.2045
▁كا	-11.2047
▁دانشور	-11.2048
▁42	-11.2048
</	-11.2049
▁تڪڙي	-11.2049
▁پرويز	-11.205
▁کس	-11.2054
▁ضرورتون	-11.2055
▁يوزر	-11.2055
▁وآ	-11.2057
▁فرياد	-11.2058
▁رابطه	-11.206
▁لکو	-11.2063
▁ڊوڙي	-11.2064
▁ڪيڏا	-11.2066
▁رين	-11.2067
end	-11.2068
دد	-11.2068
▁پنه	-11.2072
▁سايت	-11.2075
▁غني	-11.2075
▁ميگه	-11.2078
▁ڀرتي	-11.208
جانءِ	-11.208
▁ميت	-11.2085
گھ	-11.2087
▁ويڙهي	-11.209
لڊ	-11.2102
▁شغل	-11.2103
▁ڳاله	-11.2104
ذب	-11.2107
▁سيٽن	-11.2109
57	-11.2109
▁جولاء	-11.2111
روز	-11.2111
▁اميره	-11.2118
▁ويجهڙائي	-11.2122
▁مدو	-11.2123
▁معاون	-11.2124
▁small	-11.2125
▁خلي	-11.2125
مونکي	-11.2125
▁اقتباس	-11.2126
▁مخاطب	-11.2126
▁چنيسر	-11.2126
▁اسڪالرشپ	-11.2126
▁ثانوي	-11.2126
▁ورهايل	-11.2127
▁Zone	-11.2127
▁بااثر	-11.2127
▁چڙهڻ	-11.2129
▁افضل	-11.2129
▁كو	-11.2129
▁جبهه	-11.2131
go	-11.2131
سڪ	-11.2131
▁سلم	-11.2132
▁يطلع	-11.2133
▁رڻ	-11.2134
تش	-11.2137
▁يحب	-11.214
صير	-11.2142
▁😂	-11.2145
▁آگ	-11.2153
▁لمحي	-11.2153
▁جاندار	-11.2159
46	-11.2162
▁بلو	-11.2165
▁ماسڪو	-11.2166
▁گفتم	-11.2168
▁اوى	-11.2172
▁لڳندا	-11.218
▁ڪَن	-11.2182
▁مز	-11.2183
ضرب	-11.2187
▁وق	-11.2192
▁لُ	-11.2198
ell	-11.2198
▁بخاري	-11.2208
▁اتحادي	-11.2211
▁هندوستان	-11.2211
▁وفاداري	-11.2212
▁لٽ	-11.2214
▁منزلون	-11.2215
▁دائود	-11.2217
▁مهانگو	-11.2217
▁آسٽريا	-11.2217
▁آئرلينڊ	-11.2217
▁مارشل	-11.2218
▁راغب	-11.2218
▁نخ	-11.2218
▁اھڙو	-11.2218
▁ٽوپي	-11.2219
▁ايڪسڪسڪس	-11.2219
▁ممبئي	-11.2219
ok	-11.2219
فض	-11.2219
▁ڳوٺاڻن	-11.2219
▁بضحك	-11.222
▁شفقت	-11.2221
▁100%	-11.2222
▁انتم	-11.2222
▁پھ	-11.2222
▁حملا	-11.2223
▁لاچار	-11.2223
68	-11.2224
69	-11.2224
طف	-11.2226
▁غي	-11.2228
▁6-	-11.2234
▁واش	-11.2235
▁لاٿو	-11.2238
فور	-11.2238
▁٢	-11.2238
ذر	-11.224
ڪائي	-11.2241
wa	-11.2242
▁8.	-11.2243
▁ڪيمپ	-11.2245
▁پناه	-11.2246
ran	-11.2248
23	-11.2252
ائيندا	-11.2252
▁ريئل	-11.2252
▁Mo	-11.2252
61	-11.2257
▁دشمني	-11.226
وى	-11.226
▁ڇوڪرن	-11.2268
شوف	-11.2269
▁تبليغ	-11.2271
▁رم	-11.2272
ster	-11.2272
▁حڪمن	-11.2276
فٽ	-11.2278
▁عندكم	-11.2279
io	-11.2281
▁هُجي	-11.2283
حس	-11.2284
عم	-11.2286
▁مرت	-11.2288
▁اى	-11.2292
بابا	-11.2296
▁پرائي	-11.2299
▁اڏامي	-11.2301
▁حدون	-11.2302
▁محور	-11.2303
▁نگاهه	-11.2304
▁ڳولهيو	-11.2305
یک	-11.2305
رش	-11.2306
▁مرگ	-11.2308
دع	-11.2308
▁Instagram	-11.2309
▁استحصال	-11.2309
▁عقيدو	-11.2309
▁ڀٽي	-11.2309
▁سڳورن	-11.2309
▁گرائونڊ	-11.2309
▁علشان	-11.2309
▁ڊپريشن	-11.231
▁سائبر	-11.231
▁رابرٽ	-11.231
▁مائڪروسافٽ	-11.231
▁ابتڙ	-11.2311
▁ويلڊنگ	-11.2311
▁دلڪش	-11.2312
▁ريڪ	-11.2313
▁نيڪي	-11.2315
▁قياس	-11.2315
▁گيج	-11.2316
▁ٽچ	-11.2317
▁ملٽي	-11.2318
▁ذميواريون	-11.2319
▁ڏسندڙ	-11.232
▁نقطو	-11.232
▁سائز	-11.232
▁وآله	-11.2321
▁اسٽ	-11.2324
▁نواف	-11.2325
ons	-11.2325
▁ڇڏيندس	-11.2327
▁ملايو	-11.2329
سڪي	-11.2333
▁الحق	-11.2335
▁هزارن	-11.2335
يتي	-11.2335
▁بيٽا	-11.2336
▁ميلون	-11.2337
ريس	-11.2337
▁85	-11.234
▁ڪول	-11.2341
▁over	-11.2348
▁مناسبت	-11.2348
▁سڏين	-11.2358
▁هوءِ	-11.2359
▁واريءَ	-11.2359
▁كلكم	-11.236
▁سبزي	-11.2361
▁سپن	-11.2364
▁گاڏيون	-11.2367
▁ايدك	-11.2372
▁معاوض	-11.2373
▁آقاي	-11.2374
پاڪستان	-11.2376
ll	-11.2376
▁عدل	-11.2377
▁جلال	-11.2378
▁لالچ	-11.2382
▁لالا	-11.2384
▁پروڊڪٽ	-11.2388
▁عوامل	-11.2388
▁؟؟؟؟	-11.239
▁ٽا	-11.239
▁ڀٽ	-11.2396
▁شار	-11.2397
▁ڊراما	-11.2398
▁قويه	-11.2399
لائي	-11.2399
▁لام	-11.2401
▁هلون	-11.2401
تب	-11.2401
▁جمعيت	-11.2401
▁آپگهات	-11.2401
▁انفارميشن	-11.2401
▁ايلومينيم	-11.2401
▁ميٽروپوليٽن	-11.2401
▁ورڪشاپ	-11.2401
▁ٽرانزيڪشن	-11.2401
▁ڊرائنگ	-11.2401
▁پناهگير	-11.2402
▁شريعت	-11.2402
▁بيشمار	-11.2402
▁قبرستان	-11.2402
▁ڪھڙو	-11.2402
▁1947	-11.2402
▁سَر	-11.2406
انهن	-11.2406
▁آرزو	-11.2408
▁ميوو	-11.2408
▁مباني	-11.241
▁بلبل	-11.241
▁مداحن	-11.241
▁تور	-11.241
▁شماره	-11.2412
▁سرو	-11.2413
▁ير	-11.2413
▁مميز	-11.2416
▁رڙيون	-11.2416
▁ای	-11.2416
ارڻ	-11.2417
▁ولله	-11.2417
فيش	-11.2417
▁بيٽنگ	-11.242
ong	-11.242
ms	-11.242
▁ڪيش	-11.2422
ana	-11.2422
▁واي	-11.2423
▁طبقو	-11.2426
▁ٽم	-11.2428
▁فروش	-11.243
▁مقدر	-11.2431
▁اغ	-11.2431
▁سرڪٽ	-11.2432
ڙڻ	-11.2433
ڪلي	-11.2435
ڌو	-11.2439
▁جواز	-11.244
چار	-11.2441
▁وٺان	-11.2447
▁}	-11.2448
نسي	-11.2451
▁پوش	-11.2451
▁ڦيري	-11.2452
بندي	-11.2452
▁ميزان	-11.2453
▁خرچن	-11.2453
▁ليڊ	-11.2457
▁كر	-11.2457
▁گناهن	-11.2459
▁پيشرفت	-11.2462
▁ٽٽي	-11.2463
sk	-11.2466
رڊ	-11.2467
56	-11.2473
▁ميار	-11.2475
▁ميليون	-11.2476
انس	-11.2479
▁پنهنجيءَ	-11.2489
▁اقل	-11.2492
▁Martech	-11.2495
▁خورشيد	-11.2495
▁نامعلوم	-11.2495
▁تصوف	-11.2497
▁روبوٽ	-11.2499
▁گرجا	-11.2499
▁سُور	-11.2501
07	-11.2503
▁هيئت	-11.2503
▁گهيرو	-11.2504
▁Mac	-11.2504
▁مُلڪ	-11.2507
▁فعاليت	-11.2509
▁ٽائيپ	-11.251
▁2001	-11.2513
▁وڌندو	-11.2515
▁دشمنن	-11.2516
آآي	-11.2517
▁فلور	-11.2521
اُنھن	-11.2522
▁منور	-11.2529
▁ڪوچ	-11.253
شون	-11.253
▁هالا	-11.2531
▁ٽنڊو	-11.2531
si	-11.2531
▁ائ	-11.2532
▁پوڄا	-11.2536
▁چونڊجي	-11.2538
انت	-11.2539
فكر	-11.2541
الت	-11.2547
▁ٽوڪ	-11.2548
tra	-11.2548
ئڻ	-11.2562
▁پاليسين	-11.2565
▁آش	-11.2566
زان	-11.2566
▁سانوڻ	-11.2566
▁بز	-11.2566
▁مف	-11.2568
▁شش	-11.2571
▁امت	-11.2572
▁ی	-11.2572
ER	-11.2575
ورن	-11.2577
▁ڪاهي	-11.2577
رى	-11.2579
ايائين	-11.2584
▁منافع	-11.2586
ااااي	-11.2589
▁نمائندن	-11.2589
▁چوڌري	-11.2589
▁surname	-11.2589
▁معذرت	-11.2589
▁لغت	-11.2589
▁ڀڃي	-11.259
▁تصدق	-11.259
▁پرک	-11.259
▁1970	-11.2591
▁مزاحيه	-11.2591
▁ورتائين	-11.2591
▁ڏٺل	-11.2592
▁ڳولهڻ	-11.2592
▁زاهد	-11.2592
▁کتاب	-11.2592
▁نميشه	-11.2592
▁مشعل	-11.2594
▁روعة	-11.2595
▁ڏهاڪن	-11.2597
جز	-11.2598
▁پٺ	-11.2598
▁انجيل	-11.2598
▁بتن	-11.2599
▁سوپ	-11.2601
▁ڪُن	-11.2601
▁ڪپهه	-11.2601
▁اصليت	-11.2602
▁مبني	-11.2605
▁کامل	-11.2605
برا	-11.2606
▁ڄاڻن	-11.2606
43	-11.2607
▁نگر	-11.2608
▁افهم	-11.2609
▁حادثو	-11.2612
▁ساھ	-11.2613
▁ڏهين	-11.2615
▁جڙي	-11.2617
ائتي	-11.262
وون	-11.2622
65	-11.2623
سوي	-11.2625
low	-11.2636
▁واسي	-11.2637
حظ	-11.2637
▁پکيڙ	-11.2637
▁ميئر	-11.2639
▁ذريعا	-11.264
رُ	-11.2642
▁سينٽي	-11.2646
▁واحده	-11.2648
▁ميلو	-11.265
سير	-11.2656
com	-11.2658
▁سينٽرل	-11.2663
▁ٺڳي	-11.2663
▁can	-11.2665
▁سعود	-11.2667
▁وجهه	-11.2672
one	-11.2673
@	-11.2682
▁بول	-11.2682
▁Surname	-11.2684
▁وائ	-11.2685
▁چاٻي	-11.2685
▁منھنجا	-11.2686
▁مٽائڻ	-11.2686
▁فضول	-11.2687
:"	-11.2687
▁وحدة	-11.2689
▁پورهيو	-11.269
▁ڏڪار	-11.2691
▁ڏوھ	-11.2691
▁شهور	-11.2692
▁اٿ	-11.2693
▁چيومانس	-11.2693
▁خطر	-11.2693
▁شارٽ	-11.2694
▁ايوه	-11.2694
▁اقرار	-11.2695
▁زندگين	-11.2697
▁نثر	-11.2704
▁باي	-11.2706
▁فيكم	-11.2706
▁درياءَ	-11.2707
▁رشتن	-11.2708
="6	-11.2709
▁عنه	-11.2713
▁شاخون	-11.2716
▁الى	-11.2716
▁جناح	-11.2719
▁ترت	-11.2721
▁مارٽن	-11.2728
۶	-11.2731
▁52	-11.2735
▁ماب	-11.2736
▁تربيتي	-11.2737
▁ليست	-11.2738
•	-11.2746
▁ٻُ	-11.2747
چن	-11.275
كش	-11.275
97	-11.2751
▁كبير	-11.2759
ايد	-11.2761
لان	-11.2761
نيا	-11.2766
▁ڀوڳ	-11.2769
▁منشي	-11.2772
▁آسانيء	-11.2772
▁سپلائر	-11.2772
الدين	-11.2774
▁بعضي	-11.2774
<	-11.2777
▁Huawei	-11.2781
▁آڪسائيڊ	-11.2781
▁پرڪشش	-11.2781
▁جهيڙو	-11.2781
▁طارق	-11.2781
▁پيرو	-11.2782
▁نقاب	-11.2782
▁آسماني	-11.2785
▁بصيرت	-11.2787
▁اسپيس	-11.2789
▁ٽيڪسٽ	-11.2792
▁Sh	-11.2792
▁قبلي	-11.2794
▁ڊر	-11.2795
▁5:	-11.2798
▁خد	-11.2798
▁نصف	-11.2799
▁ميٽنگ	-11.2799
79	-11.28
93	-11.2802
▁متل	-11.2802
▁ملاك	-11.2802
▁قيدين	-11.2804
▁چڪيون	-11.2806
▁ڪوٽنگ	-11.2813
▁هٽي	-11.2813
▁عي	-11.2814
▁ھلي	-11.2816
▁آور	-11.2817
▁مٽا	-11.2819
لون	-11.282
نام	-11.2821
▁چٽو	-11.2822
▁ٽور	-11.2823
ance	-11.2824
ِين	-11.2825
▁سكر	-11.2827
▁جمهوريه	-11.2829
يح	-11.2832
ووووو	-11.2839
▁ياليت	-11.2839
▁مومن	-11.284
▁علا	-11.2841
▁اسپيني	-11.2847
▁ڏاڍ	-11.2848
▁توي	-11.2849
▁آڱر	-11.2849
ويل	-11.2849
تنهنجي	-11.2854
▁ملو	-11.2854
ائٽ	-11.2855
▁بلب	-11.2858
ناس	-11.2858
▁بيٽ	-11.2859
▁حبي	-11.2863
خص	-11.2867
po	-11.2869
▁نائين	-11.2872
روم	-11.2875
▁عباس	-11.2876
▁غذائي	-11.2877
▁ٿاڻي	-11.2878
र	-11.2878
ڹ	-11.2878
ۡ	-11.2878
▁اجاگر	-11.2879
▁مخدوم	-11.2879
▁طبقاتي	-11.288
▁تجسس	-11.288
▁ISO	-11.2881
▁بشه	-11.2882
▁حرارتي	-11.2882
▁بارش	-11.2882
▁98	-11.2883
▁پاي	-11.2884
▁چڪ	-11.2886
▁<<<<	-11.2887
▁وندر	-11.2887
▁ڳچي	-11.2889
▁اڳين	-11.289
رسي	-11.2892
▁مغل	-11.2896
۷	-11.2896
▁شيئرنگ	-11.2899
▁بأ	-11.29
▁ڊرائيونگ	-11.29
▁لڄ	-11.29
▁فضائي	-11.2902
مِ	-11.2903
▁راجع	-11.2903
▁پهچندي	-11.2903
▁انڊونيشيا	-11.2906
▁هنگامي	-11.2908
▁sp	-11.2909
▁جهاد	-11.2911
ڙين	-11.2912
▁تجربه	-11.2913
▁اريد	-11.2913
▁وڌندا	-11.2914
▁برتن	-11.2915
▁للم	-11.2916
▁انكم	-11.2917
▁ڪبي	-11.2918
يندا	-11.2923
▁الحل	-11.2926
▁پنير	-11.2927
▁سمو	-11.2929
58	-11.2934
▁سرمائيداري	-11.2934
▁نظرن	-11.2934
▁أو	-11.2934
▁انته	-11.2935
▁ڏوهن	-11.2936
▁پوپ	-11.2938
▁طبعي	-11.2939
▁برداري	-11.294
▁ترڪيب	-11.2941
▁عضو	-11.2941
مپ	-11.2946
▁ستين	-11.2948
▁اسيمبليءَ	-11.2951
▁ويري	-11.2952
▁ميگا	-11.2954
▁نيا	-11.2959
▁رھ	-11.296
▁بمبئي	-11.2962
▁کڻ	-11.2964
▁محصول	-11.2965
▁مڃ	-11.2969
انچي	-11.2971
يلو	-11.2971
▁گروهن	-11.2974
▁اشوف	-11.2975
▁پالڻهار	-11.2976
▁تضاد	-11.2976
▁ڪاربان	-11.2979
▁لاڏاڻو	-11.298
▁الفا	-11.2983
▁کانئن	-11.2984
▁سڱ	-11.2985
▁ذوب	-11.2985
▁انشاء	-11.2987
▁ٽريول	-11.2987
AN	-11.2989
▁سازمان	-11.299
▁شمس	-11.2991
▁سود	-11.2995
▁قوتن	-11.3007
،000	-11.3011
▁متى	-11.3012
▁هوندس	-11.3016
▁اڇلائي	-11.3022
▁راسك	-11.3023
▁حقدار	-11.3026
▁رکان	-11.3027
سازي	-11.3028
وومي	-11.3028
▁گونج	-11.3029
الم	-11.3032
▁رفته	-11.3032
▁قطعي	-11.3034
▁آخه	-11.3035
▁وقفي	-11.3035
▁آفريڪي	-11.3038
ڌا	-11.3039
▁جوڳو	-11.3041
▁گھري	-11.3042
▁ڊين	-11.3043
▁برس	-11.3044
ڀي	-11.3045
▁ڪاروائي	-11.3047
▁پکڙج	-11.3051
ally	-11.3052
▁حمد	-11.3052
▁جند	-11.3054
do	-11.3058
▁it	-11.3059
▁تَ	-11.3061
▁9.	-11.3062
▁لاني	-11.3063
منٽ	-11.3064
ki	-11.3069
▁چاهت	-11.3072
▁هب	-11.3073
▁قبيلي	-11.3075
▁بااختيار	-11.3075
▁آرٽسٽ	-11.3075
خلص	-11.3076
▁آرشيو	-11.3076
▁قاسم	-11.3076
▁ايجنڊا	-11.3077
▁شنگھائي	-11.3078
▁جارجيا	-11.3079
▁کند	-11.308
▁ادم	-11.308
▁بندرگاهه	-11.308
▁پهچندو	-11.308
▁ڪسٽمائيز	-11.3081
▁ضبط	-11.3081
▁اشاري	-11.3082
دت	-11.3089
▁مزار	-11.3089
رجي	-11.309
▁پريان	-11.309
▁قر	-11.309
▁وسعت	-11.309
▁گڏهه	-11.3092
▁وص	-11.3094
▁خودمختياري	-11.3099
كثر	-11.3102
▁سارنگ	-11.3102
گهر	-11.3103
▁ڀتين	-11.3107
▁اظن	-11.3108
▁چاچي	-11.3109
كار	-11.3111
▁چِ	-11.3111
▁آرٽس	-11.3112
▁اهواز	-11.3113
صي	-11.3113
وور	-11.3113
نِ	-11.3118
▁پاڙ	-11.3119
▁لانه	-11.312
▁پاڙون	-11.3121
▁چاه	-11.3122
▁شاد	-11.3122
▁هادي	-11.3123
▁آڻيندي	-11.3129
▁جبت	-11.313
قلب	-11.3131
وط	-11.3131
▁بيئر	-11.3132
▁واو	-11.3136
▁انف	-11.3137
▁بزن	-11.3138
▁رهياسين	-11.3138
▁ميٽرو	-11.3143
hi	-11.3145
غا	-11.3146
▁اسڪين	-11.3147
▁منافعي	-11.3147
▁پَر	-11.3148
▁ازل	-11.3149
يلا	-11.3153
وڙ	-11.3154
▁هٿيارن	-11.3155
▁600	-11.3157
▁an	-11.316
▁بغ	-11.3161
▁رهنديون	-11.3162
▁مڃيو	-11.3163
51	-11.3163
▁عني	-11.3166
وگرافي	-11.3167
="0.1	-11.3167
▁مُون	-11.3171
▁نوازيو	-11.3171
▁ياسر	-11.3173
▁ڏاڪڻ	-11.3173
▁Facebook	-11.3175
▁شهنشاهه	-11.3175
▁ويژه	-11.3177
▁اوترو	-11.3178
داء	-11.3181
▁قيدي	-11.3181
▁ٻيڻو	-11.3185
▁جھلي	-11.3185
▁2002	-11.3185
▁شڪارپور	-11.3186
▁هاد	-11.3186
▁لس	-11.3189
▁ڳو	-11.319
▁نسخن	-11.3191
▁تجزيي	-11.3191
▁→	-11.3191
قال	-11.3193
▁رهواسي	-11.3194
كتب	-11.3199
▁روپيا	-11.3202
سيس	-11.3204
▁پڙهندا	-11.3205
▁ڪِ	-11.3207
▁تڪڙا	-11.3212
ڙهي	-11.3215
▁عاجز	-11.3218
▁کوٽائي	-11.3219
200	-11.3219
▁بوٽن	-11.3221
▁ببين	-11.3223
▁موضوعك	-11.3224
ss	-11.3227
▁سنڌين	-11.3227
شش	-11.3229
ke	-11.3232
▁سڃاڻ	-11.3238
▁معاملا	-11.3243
ٽيڪل	-11.3244
ينو	-11.325
▁سامي	-11.3253
son	-11.3254
▁سوڀ	-11.3256
▁ايميل	-11.3258
ox	-11.3262
▁هفت	-11.3262
▁ڪلپ	-11.3263
▁دلي	-11.3263
▁مَن	-11.3265
ائيزيشن	-11.3268
▁طالع	-11.3268
▁ليڪچر	-11.3272
▁روحي	-11.3274
▁چم	-11.3274
="1	-11.3274
▁ٻري	-11.3275
▁ڪيٿولڪ	-11.3276
▁ضابطي	-11.3276
▁پوڙهو	-11.3276
▁لڪائڻ	-11.3278
▁ڇنڇر	-11.3278
▁رز	-11.3279
▁خيرپور	-11.3279
▁محرم	-11.328
▁j	-11.3281
▁ڇُ	-11.3281
▁كدة	-11.3281
▁ڀڄڻ	-11.3286
▁گهريو	-11.3287
▁نصير	-11.3291
▁اوج	-11.3295
▁قسط	-11.3295
▁چشمي	-11.3295
▁كلي	-11.3298
▁خوشحال	-11.3299
▁توان	-11.3301
▁ڏُک	-11.3302
▁خيالات	-11.3303
▁ترسي	-11.3304
▁پرچون	-11.3305
▁قهر	-11.3308
▁طر	-11.3308
▁أهم	-11.3309
غي	-11.331
96	-11.331
▁حوالا	-11.3316
▁ٻانهي	-11.3318
ابا	-11.3318
▁خودت	-11.3319
▁ٺاهيون	-11.332
▁رايا	-11.3321
▁شلون	-11.3322
▁II	-11.3322
▁اسمك	-11.3324
▁di	-11.3325
▁منهنج	-11.3327
▁اوكي	-11.3329
▁توجهه	-11.3332
ear	-11.3335
▁جدائي	-11.3337
▁ويلي	-11.334
▁واح	-11.3341
▁ويتر	-11.3343
طو	-11.3346
▁تباھ	-11.3347
▁ٽاري	-11.3351
▁طبع	-11.3355
▁اط	-11.3355
▁گردن	-11.3363
▁سموريون	-11.3364
▁مط	-11.3365
▁sa	-11.3372
ورٽ	-11.3374
▁ايريا	-11.3377
▁Xiaomi	-11.3378
▁پندرهن	-11.3378
▁گريجوئيٽ	-11.3378
▁تڪميل	-11.3378
▁ارشاد	-11.3378
▁روزمره	-11.3379
▁معبود	-11.3379
▁رياستون	-11.3381
▁رف	-11.3381
▁ٽيبليٽ	-11.3383
od	-11.3384
▁سمايل	-11.3384
▁ڪيريبي	-11.3384
▁تجزيه	-11.3384
رندڙ	-11.3388
▁نقصانڪار	-11.3388
▁مسوي	-11.339
▁ڪهاڻيڪار	-11.3391
▁بڻ	-11.3394
▁ڊن	-11.3398
▁47	-11.3398
صار	-11.3399
▁هڻ	-11.3399
▁صراحه	-11.34
▁اقدر	-11.3401
▁معاكم	-11.3402
▁وڌيو	-11.3403
▁ملتان	-11.3404
▁بادشاھ	-11.341
▁نوري	-11.341
▁موڪلائي	-11.3414
▁نك	-11.3414
▁دڪانن	-11.3416
▁رابطا	-11.3417
▁صحرا	-11.3419
▁باد	-11.342
▁گيس	-11.3421
▁ورا	-11.3422
▁آئس	-11.3422
▁گوڏ	-11.3422
▁ڄار	-11.3425
▁as	-11.3426
▁نقص	-11.3427
▁ويهاري	-11.3428
▁لون	-11.343
▁عدالتن	-11.3431
▁SD	-11.3431
92	-11.3433
▁اسپتالن	-11.3434
▁صلاحون	-11.3434
▁پڙھي	-11.3438
▁تاني	-11.344
▁مٿئي	-11.3442
ip	-11.3443
▁واڻي	-11.3443
▁راشد	-11.3444
▁آره	-11.3445
▁سمجهائي	-11.3448
▁انهم	-11.345
▁فلسطيني	-11.3452
ئس	-11.3452
▁وايد	-11.3454
▁گاه	-11.3459
▁جايون	-11.346
سب	-11.3461
▁صوره	-11.3461
▁گوري	-11.3463
▁بجا	-11.3466
ess	-11.3473
▁رائي	-11.3473
les	-11.3477
▁HTC	-11.3481
▁منسلڪ	-11.3481
▁ٽريفڪ	-11.3481
▁جاويد	-11.3482
▁مجرم	-11.3482
لِ	-11.3484
▁مامي	-11.3484
▁هنوز	-11.3488
▁متوجه	-11.349
اما	-11.349
▁رايكم	-11.3496
▁تعال	-11.3501
▁ملان	-11.3502
▁ايترا	-11.3503
▁سٺ	-11.3505
▁تشوف	-11.3508
▁يش	-11.3509
▁GB	-11.351
پاڻ	-11.3511
▁زميني	-11.3511
▁ملير	-11.3513
▁پڙهندي	-11.3524
3"	-11.3526
▁لج	-11.3526
▁حالات	-11.3527
▁تُنهنجي	-11.353
ism	-11.353
▁1,	-11.3531
2"	-11.3533
▁پتلي	-11.3536
▁چاهه	-11.3537
▁شوف	-11.3539
▁سفري	-11.3543
▁آيتون	-11.3545
▁دفاعي	-11.3549
▁بدك	-11.3558
▁تحليلي	-11.3558
فف	-11.3559
▁چطور	-11.3561
ness	-11.3561
دس	-11.3561
▁ريپ	-11.3562
نآ	-11.3562
▁ياسين	-11.3566
^^	-11.3569
▁چل	-11.357
▁گفته	-11.3574
▁نوف	-11.3574
▁پکسل	-11.3577
خي	-11.3578
▁ڳنڍي	-11.3578
ight	-11.358
▁گهرواري	-11.3581
▁An	-11.3583
▁نانو	-11.3584
▁گوڙ	-11.3584
▁ايگزيڪيوٽو	-11.3585
▁پاناما	-11.3585
▁واکاڻ	-11.3586
▁پڙهائڻ	-11.3586
▁ستا	-11.3586
▁1995	-11.3587
▁1960	-11.3587
▁لٿو	-11.3589
▁گھمڻ	-11.3589
▁عکس	-11.359
▁ريپبلڪ	-11.359
▁آسودو	-11.3591
▁ٻارڙي	-11.3593
▁ڌماڪو	-11.3594
▁منا	-11.3595
صد	-11.3597
▁ليکي	-11.36
▁ڳالھيون	-11.3602
▁ٻُڌ	-11.3602
▁ڪئن	-11.3603
▁ڄاڻندڙ	-11.3603
▁تست	-11.3604
دور	-11.3604
▁ڏکن	-11.3607
▁منطق	-11.3608
▁امري	-11.3609
▁ارت	-11.361
▁پرنٽر	-11.361
▁مومل	-11.3611
vi	-11.3617
▁انيڪ	-11.3618
▁رضامندي	-11.3618
▁پارت	-11.3623
▁الام	-11.3624
▁لينس	-11.3624
▁49	-11.3625
ھه	-11.3628
▁رمز	-11.363
▁فهمي	-11.363
▁مثلي	-11.363
▁la	-11.3632
▁مونکان	-11.3636
ڊيل	-11.3637
ue	-11.3641
▁ورد	-11.3644
94	-11.3644
▁اتفاقي	-11.3646
ڏن	-11.3648
▁پيتي	-11.365
▁لع	-11.3652
▁شيرين	-11.3654
▁تند	-11.3656
▁ڌو	-11.3659
▁دادا	-11.3665
مري	-11.3667
▁مجنون	-11.3671
▁ياهو	-11.3672
▁نچ	-11.3673
▁ستار	-11.3673
▁اولي	-11.3676
▁مق	-11.3678
▁خليل	-11.3685
ارب	-11.3687
63	-11.369
▁ايمرجنسي	-11.369
▁پيپلزپارٽي	-11.369
▁قوانين	-11.369
▁مرشد	-11.3691
▁ڪيبورڊ	-11.3691
▁مڃتا	-11.3692
▁وضعيت	-11.3692
▁جملا	-11.3693
▁مائع	-11.3695
▁پيگيري	-11.3697
▁پائين	-11.3698
▁الكلام	-11.3699
ڪون	-11.37
▁رحيم	-11.3701
▁کے	-11.3701
▁نفيس	-11.3703
▁حط	-11.3704
خط	-11.3707
▁الصور	-11.3709
41	-11.3715
▁اقليت	-11.3721
tt	-11.3723
▁قو	-11.3724
▁قا	-11.3726
حط	-11.3727
▁سيٽنگون	-11.3728
▁والي	-11.3729
81	-11.3733
▁مث	-11.3738
▁مريد	-11.3741
▁بينڊ	-11.3741
کل	-11.3741
▁رياض	-11.3742
▁46	-11.3746
اتل	-11.3747
▁هلان	-11.375
▁همون	-11.3751
▁51	-11.3753
bo	-11.3756
8"	-11.3757
▁گور	-11.3759
▁جانب	-11.3762
▁ڦير	-11.3763
▁ملك	-11.3764
▁لئي	-11.377
▁ونگ	-11.3775
▁ستارن	-11.3776
▁فاني	-11.3777
ڙھ	-11.378
▁هك	-11.3783
▁سِڪ	-11.3783
سيا	-11.3792
▁آغا	-11.3793
▁گُل	-11.3793
▁مانيٽر	-11.3795
▁پراسرار	-11.3797
▁cryptocurrency	-11.3797
▁ڪئپٽن	-11.3797
▁مشك	-11.3797
▁ميره	-11.3798
▁مخزن	-11.3798
▁ويساهه	-11.3798
▁الحلو	-11.3798
▁ڊانس	-11.3799
▁اقوام	-11.38
▁هاسٽل	-11.38
▁اوارڊ	-11.38
▁رينجرز	-11.38
▁عابد	-11.3801
▁فارمولا	-11.3801
نك	-11.3801
▁خصوصيت	-11.3801
▁اسلاميه	-11.3804
▁عيني	-11.381
هور	-11.3811
▁Te	-11.3813
▁وف	-11.3815
▁تص	-11.3817
▁مُنهنجي	-11.3821
▁سنواريو	-11.3822
▁ڪاوش	-11.3824
َه	-11.3826
▁سرن	-11.3827
▁بگو	-11.3829
نيس	-11.3831
▁سرنگ	-11.3832
▁يعين	-11.3834
▁گهمي	-11.3834
▁امتياز	-11.3834
▁يل	-11.3836
▁نفر	-11.3837
▁احساسن	-11.3838
ni	-11.3839
▁ٻنھي	-11.384
مم	-11.3841
▁هيري	-11.3842
▁سطحي	-11.3843
ھون	-11.3847
AS	-11.3849
▁راي	-11.3853
▁حرم	-11.3854
▁ڪون	-11.3854
▁فاضي	-11.3857
▁ميڪس	-11.3857
▁41	-11.3858
▁مهمانن	-11.3859
▁نشو	-11.3859
ڳا	-11.3861
1:	-11.3861
▁سردي	-11.3863
▁يق	-11.3864
ڏس	-11.3865
▁چاڙهي	-11.3865
▁رومي	-11.3866
ph	-11.3866
▁ويژگي	-11.3868
▁واءُ	-11.3869
▁ايندس	-11.3871
▁يارب	-11.3871
▁وضاحتون	-11.3872
▁لفٽ	-11.3874
▁همدردي	-11.3875
▁سکن	-11.3877
▁پھچي	-11.3877
&	-11.3878
▁ورزي	-11.3878
▁Con	-11.388
▁پشت	-11.3885
▁00	-11.3885
▁ماڻ	-11.3887
پري	-11.3891
آباد	-11.3892
▁سيزن	-11.3893
▁تبين	-11.3894
مح	-11.3894
▁ڍور	-11.3894
ٻو	-11.3895
▁فٽبالر	-11.3896
87	-11.3897
▁سندر	-11.3899
▁آمريکا	-11.3904
▁اڻڄاتل	-11.3904
▁انفيڪشن	-11.3904
▁غيرقانوني	-11.3904
▁ورثو	-11.3904
▁آخوند	-11.3905
▁دلال	-11.3905
▁اطلاق	-11.3906
▁سنسار	-11.3906
▁اتمنى	-11.3908
▁اڄوڪو	-11.3908
▁منصوبه	-11.3909
▁عالمگير	-11.391
▁وائس	-11.391
▁نظير	-11.3911
▁چيمبر	-11.3914
▁خواهيد	-11.3914
▁شكر	-11.3918
▁خوا	-11.3919
▁آڳ	-11.3919
▁سوچيندي	-11.3921
▁بيماريءَ	-11.3921
74	-11.3924
ٻيو	-11.3925
▁وٺون	-11.3929
▁مجاز	-11.3935
▁ڏجن	-11.3937
▁ٿياسين	-11.3937
▁پڇن	-11.3939
آك	-11.394
▁اردن	-11.3941
▁مهراڻ	-11.3942
▁رچ	-11.3942
▁الهي	-11.3943
▁مض	-11.3944
▁نوڪرين	-11.3946
▁ٻوٽا	-11.3946
he	-11.3947
all	-11.3951
▁1.1	-11.3951
▁شمع	-11.3952
غر	-11.3961
▁خبري	-11.3965
▁ڏهاڙي	-11.3967
▁ڇرڪ	-11.3969
▁حلال	-11.397
▁ايڪڙ	-11.3971
ٽيشن	-11.3972
▁دول	-11.3974
▁سيمي	-11.3979
▁نقشن	-11.3982
▁ھليو	-11.3986
عيد	-11.3986
▁آهر	-11.3988
▁St	-11.3992
▁نرس	-11.3996
▁ڏيکاريندي	-11.4
▁اهن	-11.4002
▁ٽائم	-11.4008
▁هِي	-11.4009
▁One	-11.4009
▁do	-11.401
AR	-11.4011
▁HTML	-11.4013
▁قميص	-11.4013
▁اينيمڪس	-11.4013
▁خوشخبري	-11.4013
▁ٽيليگرام	-11.4013
▁ايڪسپورٽ	-11.4013
▁حُسن	-11.4013
▁غمگين	-11.4014
▁پهتس	-11.4014
▁أكيد	-11.4014
▁ٻڌائيندي	-11.4014
▁پنھنجا	-11.4014
▁عاقل	-11.4015
▁جزائر	-11.4015
▁لانگ	-11.4016
▁لڌو	-11.4016
▁پڙھڻ	-11.4016
▁مغرب	-11.4016
▁مذهبن	-11.4017
▁1997	-11.4017
آآآآ	-11.4019
▁قرضن	-11.4021
▁نوڪريءَ	-11.4026
▁(6)	-11.4029
▁ٿڌ	-11.403
▁گرڊ	-11.4032
▁اثرن	-11.4035
سار	-11.4035
▁اخو	-11.4035
▁موڪليندا	-11.404
ندين	-11.4042
▁طبيب	-11.4043
▁نديءَ	-11.4046
▁ساڙي	-11.4046
▁شيل	-11.4047
٢	-11.405
جع	-11.4051
▁بلاگنگ	-11.4054
▁فيئر	-11.4056
▁تِ	-11.4057
▁ميهار	-11.406
گس	-11.406
▁مؤ	-11.406
▁CO	-11.4062
▁مگ	-11.4064
عك	-11.4067
▁امريڪ	-11.4069
▁الشر	-11.4071
▁بينچ	-11.4072
▁پهلوان	-11.4073
ite	-11.4077
▁گهرجون	-11.4079
TN	-11.4079
▁جئن	-11.4081
▁(2	-11.4083
▁go	-11.4084
▁En	-11.4088
ated	-11.4088
▁ماهو	-11.4092
ٱ	-11.4097
▁رُ	-11.4097
پيش	-11.4102
▁ماڊلز	-11.4102
▁تاب	-11.4102
▁بولي	-11.4102
صاحب	-11.4103
▁نع	-11.411
91	-11.4111
لال	-11.4112
▁ڇوته	-11.4112
▁ٻڌندا	-11.4113
▁جنگل	-11.4117
▁بخت	-11.4118
▁الزامن	-11.4118
▁عنك	-11.412
آڪ	-11.4123
▁اپارٽمنٽ	-11.4123
▁سنسڪرت	-11.4123
▁عملدرآمد	-11.4123
▁ناانصافي	-11.4123
▁غفلت	-11.4123
▁رٿابندي	-11.4123
▁اقبال	-11.4123
▁سپلائي	-11.4123
▁الطاف	-11.4123
۸	-11.4123
▁ورهائڻ	-11.4123
▁خميس	-11.4124
▁مثلك	-11.4124
▁تحريم	-11.4125
▁ڀروسي	-11.4125
▁سينيئر	-11.4126
▁وسيلو	-11.4126
▁شڪرگذار	-11.4126
اول	-11.4128
▁مظهر	-11.4128
▁صالح	-11.4128
▁عبير	-11.4129
▁رکڻو	-11.413
▁تبصرا	-11.413
▁بيض	-11.413
▁فرح	-11.4132
▁ضياءَ	-11.4132
▁آجيان	-11.4133
▁گهوري	-11.4133
▁سك	-11.4134
▁شرطون	-11.4134
▁فورسز	-11.4134
▁چارلس	-11.4138
▁رود	-11.4138
▁لقيت	-11.4138
▁اٿڻ	-11.4139
▁لاڳيتو	-11.4141
▁تدري	-11.4141
▁ڪنارن	-11.4141
ماني	-11.4142
▁عيون	-11.4144
▁مشاورت	-11.4147
▁ذرو	-11.4147
▁خار	-11.4151
پيڊ	-11.4151
تيءَ	-11.4157
ناڪ	-11.4159
▁وائرل	-11.416
▁ايز	-11.416
▁Ba	-11.4164
▁دختر	-11.4164
▁وياج	-11.4166
هاا	-11.4167
▁برادر	-11.4168
▁ڌنڌي	-11.4169
▁ورڪن	-11.4169
▁پوٽي	-11.4172
▁اساس	-11.4174
▁آوازن	-11.4175
▁برق	-11.4175
▁حسي	-11.418
▁تتر	-11.4181
▁خوبيون	-11.4182
؟'	-11.4182
▁ناروي	-11.4183
▁جڙ	-11.4183
▁ڪيٽ	-11.4186
عاد	-11.4188
▁بوس	-11.4192
▁معدن	-11.4195
ten	-11.4196
▁مضحكه	-11.4199
▁اجر	-11.4206
ב	-11.4208
تاريخ	-11.4209
صرف	-11.421
▁ايرانيان	-11.421
▁واھ	-11.4213
▁مرو	-11.4216
▁56	-11.4216
بى	-11.4217
eg	-11.4219
▁نظريا	-11.4222
طل	-11.4225
52	-11.4226
▁سينو	-11.4226
▁کائيندي	-11.4226
▁صوتي	-11.4228
وڻ	-11.4229
▁مُن	-11.423
▁بدنام	-11.4234
▁ضابطا	-11.4234
hy	-11.4234
▁ڊوائس	-11.4234
▁براعظم	-11.4234
▁فائديمند	-11.4235
▁ناپسند	-11.4235
▁خلوص	-11.4235
▁لگ	-11.4235
▁ڪولمبيا	-11.4235
▁فارغ	-11.4236
▁کڻندو	-11.4236
▁رهندس	-11.4237
▁والاري	-11.4237
▁عليءَ	-11.4239
▁^_^	-11.4239
▁اسپورٽس	-11.424
▁وقار	-11.4241
▁ماخذ	-11.4242
▁دورن	-11.4245
▁توسيع	-11.4246
اقي	-11.4248
▁حراست	-11.4248
▁ڊاهي	-11.4249
▁تُون	-11.4256
▁جهاني	-11.4256
▁جهڙيون	-11.4257
▁آتم	-11.4261
خا	-11.4261
▁عندهم	-11.4263
▁لحد	-11.4264
▁لف	-11.4265
▁ڪج	-11.4267
▁ٽائر	-11.4268
ٹر	-11.4269
▁حلف	-11.4272
▁وڪيلن	-11.4274
▁تسوي	-11.4274
▁تعلم	-11.4274
▁ستي	-11.4277
▁سڪل	-11.4277
ينٽ	-11.4279
▁جاين	-11.4282
▁خاڪي	-11.4289
▁ڊيوڊ	-11.4292
▁صليب	-11.4292
▁گهڙيءَ	-11.4294
ديو	-11.4294
▁ڪرسٽل	-11.4306
ائم	-11.4308
▁حيل	-11.431
▁معدني	-11.4311
▁آندي	-11.4312
▁ٻُڌي	-11.4314
9"	-11.4314
▁pre	-11.4314
4"	-11.4318
▁سالگي	-11.4321
▁مڊل	-11.4324
▁اساسي	-11.4324
ڪان	-11.4325
▁ايڪ	-11.4332
قب	-11.4337
▁جامد	-11.4339
▁مگه	-11.4342
▁ڪمپيوٽرن	-11.4343
مد	-11.4345
QUOTE	-11.4346
▁فيسٽيول	-11.4346
▁پھريائين	-11.4346
▁سوانح	-11.4346
▁نوڪيا	-11.4347
ڊونلڊ	-11.4347
▁وڇ	-11.4348
▁لياقت	-11.4348
▁هڪجهڙائي	-11.4348
▁هوريان	-11.4348
▁پولينڊ	-11.4349
▁سالي	-11.4349
▁ضحكتيني	-11.4349
▁فکر	-11.435
▁غضب	-11.435
▁سڌريل	-11.4351
▁حاوي	-11.4351
▁اعترف	-11.4351
▁هارمون	-11.4352
▁شاءالله	-11.4352
▁لڪايو	-11.4352
▁اختر	-11.4352
▁پلاٽ	-11.4354
▁مخلص	-11.4354
▁فكرة	-11.4356
ٽيون	-11.4358
▁شباب	-11.436
▁گھٽائي	-11.436
▁وڌائيندو	-11.4361
ings	-11.4362
▁بلاش	-11.4364
▁دام	-11.4368
▁بعيد	-11.4368
ليو	-11.4369
▁چڱائي	-11.4371
▁سمعت	-11.4376
▁چئون	-11.4378
▁اداره	-11.4378
یں	-11.438
▁مرچ	-11.4383
▁نب	-11.4386
ئم	-11.4386
▁کنيم	-11.4387
▁ٿڪل	-11.439
▁هائو	-11.4391
▁رکجي	-11.4392
نڊر	-11.4392
▁صل	-11.4394
▁گارڊ	-11.4395
▁بيلٽ	-11.4395
ـِـ	-11.4396
▁شري	-11.4396
▁گرل	-11.4399
▁قط	-11.4401
rd	-11.4403
خو	-11.4405
▁پردي	-11.4405
▁سمن	-11.4406
▁پِ	-11.4407
▁مڇ	-11.4409
▁اڻيو	-11.4409
▁pb	-11.4409
▁فديتك	-11.4412
عقل	-11.4413
خان	-11.4413
ليا	-11.4416
▁so	-11.4422
رائڻ	-11.4424
▁گام	-11.4425
▁تڙ	-11.4431
▁ڇوڙ	-11.4434
مُ	-11.4436
▁وجھي	-11.4439
▁استثنا	-11.4441
▁احلام	-11.4443
زاد	-11.4444
اده	-11.4444
▁زالن	-11.4444
▁ٿامس	-11.4446
▁6:	-11.4449
qu	-11.4452
▁کيڏيو	-11.4454
▁علت	-11.4455
كا	-11.4455
▁انزين	-11.4455
▁جرنل	-11.4458
▁بدعنواني	-11.446
▁عقيدن	-11.446
▁ٽرانسميشن	-11.446
▁گورنمينٽ	-11.446
▁ناپسنديده	-11.446
▁موسيٰ	-11.446
▁ڏکوئيندڙ	-11.446
▁1988	-11.4461
▁اسٽريمنگ	-11.4462
▁نمونا	-11.4462
▁ڍڪي	-11.4462
▁بادشاهي	-11.4462
▁حظ	-11.4463
▁ad	-11.4463
▁آريا	-11.4463
ٹي	-11.4467
▁اناج	-11.4467
▁راڻا	-11.4467
Names	-11.4467
▁بيروزگاري	-11.4467
▁ابوك	-11.4468
▁هلائيندڙ	-11.4468
▁بلاگر	-11.4468
▁يهودين	-11.447
▁اڷ	-11.4471
▁ران	-11.4472
▁ڪفر	-11.4472
▁مديني	-11.4472
▁آسرو	-11.4473
▁لبنان	-11.4473
▁رپورٽون	-11.4474
أإ	-11.4475
▁سسئي	-11.4476
▁مشكورة	-11.4476
▁شيعه	-11.4477
▁نقد	-11.4478
وند	-11.4478
▁أخ	-11.4479
وٽي	-11.4481
▁62	-11.4481
▁حوالن	-11.4482
▁٣	-11.4484
▁ڪاڏي	-11.4485
▁پارڪنگ	-11.4485
هہ	-11.4486
▁تنظيمون	-11.4486
▁هُ	-11.4492
▁آجي	-11.4494
▁جنهنڪري	-11.4495
٠	-11.4497
▁فنڪشنل	-11.4502
دام	-11.4504
▁ڍڪ	-11.4506
توا	-11.4508
▁جملن	-11.452
▁جنون	-11.4521
▁ايون	-11.4524
rs	-11.4524
▁ڊيز	-11.4527
▁عو	-11.4528
▁ود	-11.453
ca	-11.4531
حا	-11.4531
▁سی	-11.4533
صب	-11.4537
ڀا	-11.4538
▁ليل	-11.4538
ولين	-11.4544
يدي	-11.4546
▁صوت	-11.4547
▁موڪلون	-11.4548
ee	-11.4551
▁واسه	-11.4555
ٽرز	-11.4557
اوهان	-11.4558
▁بدا	-11.456
▁53	-11.4561
▁مالا	-11.4564
▁ڦاسي	-11.4569
▁صغير	-11.4569
▁رٽائر	-11.4573
▁مى	-11.4573
ليه	-11.4574
®	-11.4575
▁ڪنوينشن	-11.4575
▁crypto	-11.4575
▁ناگزير	-11.4575
▁حامد	-11.4575
▁مهانگائي	-11.4576
▁ہے	-11.4576
▁دارو	-11.4576
▁ميگزين	-11.4576
▁ڌن	-11.4579
▁حشر	-11.458
▁فيملي	-11.458
▁تجاري	-11.4581
▁نک	-11.4581
▁اشرف	-11.4581
▁پوين	-11.4582
▁انمي	-11.4582
▁اِهي	-11.4583
▁جاهل	-11.4583
▁خواه	-11.4583
مَ	-11.4584
فصل	-11.4584
▁سگھندو	-11.4586
▁ايد	-11.4586
78	-11.4587
ويو	-11.4587
▁پوکڻ	-11.4588
▁نڪرندي	-11.459
▁en	-11.459
▁مزاحمتي	-11.4591
,,	-11.4592
7"	-11.4592
▁ساگر	-11.4595
لات	-11.4596
▁ساک	-11.4597
▁فجر	-11.4597
طرح	-11.4598
▁دة	-11.46
▁الحب	-11.4602
▁ويم	-11.4603
▁ڌوئي	-11.4603
▁کوهه	-11.4604
نيٽ	-11.4605
://	-11.4606
صر	-11.4606
▁جوابي	-11.4607
▁ملائڪ	-11.4609
▁کڏ	-11.461
▁نفسه	-11.4612
""	-11.4612
▁اسٽيٽس	-11.462
GB	-11.4622
▁پليس	-11.4623
▁وانتي	-11.4623
▁ڀائيوارن	-11.4626
▁سريال	-11.4627
▁راني	-11.4627
▁ٽيب	-11.463
▁سرمائيدار	-11.463
كى	-11.4633
▁سمجه	-11.4638
▁وحشي	-11.4639
▁ميون	-11.4641
▁فيلم	-11.4643
▁ٻڌا	-11.4645
▁Ex	-11.4645
يييي	-11.4646
▁4)	-11.4649
▁قصي	-11.465
▁ڀائي	-11.4655
▁نل	-11.4658
▁سندو	-11.4658
ost	-11.4661
▁ميرو	-11.4661
▁دوسر	-11.4661
▁قوميت	-11.4661
▁ايدي	-11.4665
بول	-11.4666
گرام	-11.4667
▁نگاري	-11.4671
▁كار	-11.4671
▁کړ	-11.4675
نداسون	-11.4677
▁منتظم	-11.468
مثل	-11.4682
▁ڏيکاريا	-11.4682
ياد	-11.469
▁ڪافرن	-11.469
▁لڏپلاڻ	-11.4691
▁قبيلن	-11.4691
▁چانسلر	-11.4691
▁گناھ	-11.4691
▁ڪوارٽر	-11.4691
▁شهباز	-11.4691
اڻين	-11.4692
▁چمن	-11.4692
ائيز	-11.4692
▁تماڪ	-11.4693
▁ڳچ	-11.4693
▁آزمايو	-11.4694
▁گهڻ	-11.4696
▁مُرڪ	-11.4697
▁لِ	-11.4698
▁آزار	-11.47
▁بيگم	-11.4702
▁ڪثرت	-11.4702
▁پزشکي	-11.4703
ical	-11.4704
▁افكر	-11.4705
▁Li	-11.4707
-20	-11.471
▁وهن	-11.4711
▁مکڻ	-11.4712
1"	-11.4713
▁هيٺئين	-11.4721
عمر	-11.4727
▁ھنڌ	-11.4733
▁منجهند	-11.4735
▁فت	-11.4736
ron	-11.4739
▁تبديليءَ	-11.474
▁تازيون	-11.4743
▁بيدار	-11.4744
▁ترڻ	-11.4746
▁پوپٽ	-11.4748
دون	-11.4749
جري	-11.4749
▁اكون	-11.4751
لاء	-11.4752
▁وام	-11.4752
▁گاڏيءَ	-11.4754
ميم	-11.4756
▁پذيري	-11.4758
▁طا	-11.4759
▁سائو	-11.476
▁گوليون	-11.4762
▁حبيت	-11.4763
دِ	-11.4768
▁آتش	-11.4774
▁ليکڪن	-11.4777
▁تاجر	-11.4778
▁تد	-11.4779
راف	-11.4779
▁بريڪ	-11.4782
باد	-11.4783
چڱو	-11.4783
▁حيوان	-11.4788
حك	-11.4792
▁جتن	-11.4794
▁ٺهيو	-11.4795
تنھن	-11.4797
ئٽ	-11.48
امام	-11.4803
▁ma	-11.4806
▁جري	-11.4808
▁this	-11.4809
▁هروڀرو	-11.4809
▁ڊولپمينٽ	-11.4809
▁افريقي	-11.4809
▁حامل	-11.4809
▁ٻچا	-11.481
سِ	-11.481
▁اسڪاٽ	-11.481
▁خاتون	-11.481
▁خوشيون	-11.481
▁اشارن	-11.481
▁الٽرا	-11.4811
▁1992	-11.4813
▁يلعب	-11.4814
▁ميرن	-11.4814
▁نقشه	-11.4814
▁ورتيون	-11.4815
▁ڪمرن	-11.4815
▁پتلون	-11.4815
▁رهيل	-11.4816
▁رٿيل	-11.4816
▁نشست	-11.4816
▁سڏيندو	-11.4817
▁سلامي	-11.4819
▁افراد	-11.4819
▁اروح	-11.4824
▁آوري	-11.4825
اااااي	-11.4825
ina	-11.4829
▁الاس	-11.483
اااااااااااااااا	-11.4834
▁ٺاهيندو	-11.4835
▁زيبا	-11.4836
▁وعدو	-11.4837
▁ڪهاڻيءَ	-11.4838
سام	-11.484
▁جراحي	-11.4842
▁آبادگارن	-11.4846
mb	-11.4846
▁رڪارڊنگ	-11.4848
▁800	-11.4848
▁اٺين	-11.4849
▁آھ	-11.4853
▁مڪ	-11.4855
▁بگم	-11.4856
يٽر	-11.4856
▁تأ	-11.4861
مى	-11.4863
فعل	-11.4867
▁تغ	-11.4868
▁گهم	-11.4875
▁مدرس	-11.4877
▁صديون	-11.4878
▁داشت	-11.4882
▁اسانجو	-11.4882
▁محترمه	-11.4883
▁گهٽين	-11.4884
▁فتو	-11.4886
▁رپورٽن	-11.489
▁هج	-11.4891
▁پنجابي	-11.4893
آهن	-11.4894
گيري	-11.4897
▁عرس	-11.4899
ڊڊ	-11.4901
▁پرده	-11.4902
▁تڪي	-11.4902
ريڊ	-11.4902
لب	-11.4906
▁se	-11.4906
▁بردار	-11.4906
افت	-11.4908
▁ماڻھوءَ	-11.4911
▁دستيابي	-11.4915
▁عندها	-11.4916
ds	-11.4919
▁ڳنڍڻ	-11.4922
قطع	-11.4924
▁ڪوڙا	-11.4925
▁ڪنڊن	-11.4925
▁بزرگن	-11.4926
▁اُج	-11.4926
▁iPad	-11.4928
▁آدمشماري	-11.4928
▁جراثيم	-11.4928
▁مشروط	-11.4928
▁فرعون	-11.4928
▁مھينن	-11.4928
▁مذڪور	-11.4928
▁ھندستان	-11.4928
▁ڏاهپ	-11.4928
▁ريگستان	-11.4928
▁انقره	-11.4928
▁دهشت	-11.493
▁اُس	-11.4932
▁ڏنائون	-11.4933
▁1998	-11.4934
▁تسلمي	-11.4936
▁آڻيندا	-11.4937
▁السي	-11.4939
اگر	-11.4941
▁البيت	-11.4942
چند	-11.4944
▁ولادت	-11.4946
▁گھڻائي	-11.4947
▁هجان	-11.4947
▁هنيا	-11.4948
▁ڊرون	-11.4949
بح	-11.495
باني	-11.495
▁بهشت	-11.495
▁بڻائيندو	-11.4952
▁السو	-11.4954
▁ملهه	-11.4955
ينڊ	-11.4957
▁رسمن	-11.4958
▁سمجھان	-11.496
▁هموار	-11.496
▁حسد	-11.496
▁آندا	-11.4961
64	-11.4963
لیس	-11.4964
▁گهاري	-11.4966
گز	-11.4971
▁غالي	-11.4974
▁سپرين	-11.4975
▁لعل	-11.4976
▁پدر	-11.4977
عجب	-11.4977
▁رند	-11.4977
ید	-11.4977
▁سونا	-11.4978
▁ويد	-11.4979
▁حادث	-11.4981
اض	-11.4982
▁شبيه	-11.4982
▁طو	-11.4984
▁تحس	-11.4987
▁وارد	-11.4987
▁ڇوڪرا	-11.4989
لهه	-11.4989
▁بدو	-11.499
واني	-11.4995
▁بگير	-11.5001
اھر	-11.5003
لل	-11.5004
▁نڪو	-11.5009
پرس	-11.5011
▁ھوءَ	-11.5012
ٽٽ	-11.5014
▁پئدا	-11.5018
▁بج	-11.502
▁سورت	-11.502
▁پلنگ	-11.5021
اكل	-11.5021
سپ	-11.5022
▁دب	-11.5023
ٿن	-11.5024
▁بره	-11.5025
▁نی	-11.5029
▁ابدا	-11.5032
▁ڪِي	-11.5035
▁بيروزگار	-11.5041
▁ئ	-11.5041
res	-11.5044
▁آجو	-11.5047
▁ڪلائنٽ	-11.5049
▁بروکر	-11.5049
▁گھٽتائي	-11.5049
▁اذيت	-11.505
tro	-11.505
▁طئه	-11.505
▁چرپر	-11.5051
▁عنايت	-11.5051
▁xD	-11.5053
▁ويڪر	-11.5054
▁فرسٽ	-11.5054
▁XD	-11.5056
▁داعي	-11.5056
▁ورسي	-11.5057
▁بصر	-11.5058
▁ٺاھي	-11.5059
▁ڪارناما	-11.506
بيه	-11.5062
▁جبر	-11.5063
▁رنا	-11.5063
▁سيڙپڪار	-11.5064
سلي	-11.5064
▁انڌي	-11.5066
▁سلاٽ	-11.5066
▁ڇانو	-11.5066
▁لکندڙ	-11.5066
▁فڪس	-11.5069
پير	-11.5069
▁عباسي	-11.5071
▁پڳ	-11.5072
▁سيمسنگ	-11.5074
ورس	-11.5075
▁خور	-11.5075
▁کلندي	-11.5077
▁سياحتي	-11.5078
▁رضاڪار	-11.508
سلم	-11.5082
▁سگھ	-11.5084
▁عج	-11.5084
▁معاوضو	-11.5086
▁پی	-11.5087
▁وخ	-11.5088
▁وکر	-11.5089
▁نياڻين	-11.5093
▁پڇيس	-11.5098
ub	-11.5098
▁اسٽريٽج	-11.51
▁خليجي	-11.51
▁(18	-11.5101
▁ڪوريج	-11.5108
▁ماپڻ	-11.5109
▁مڙي	-11.5113
▁ڪلينڪ	-11.5113
▁غا	-11.5115
▁گڏجاڻين	-11.5117
▁ميسر	-11.5118
▁بسته	-11.512
▁شعوري	-11.5125
كون	-11.5126
▁بيچيني	-11.5134
▁سهيل	-11.5136
▁خطا	-11.5136
آد	-11.514
قتل	-11.5143
▁ھوا	-11.5143
امان	-11.5144
be	-11.5144
وئل	-11.5144
▁No	-11.5153
nt	-11.5155
▁برن	-11.5155
ڍي	-11.5159
▁پيغامن	-11.516
ा	-11.5161
▁ڪنول	-11.5167
ّه	-11.5169
▁فنانس	-11.5169
▁سيمينار	-11.517
▁قاصر	-11.517
▁تائيوان	-11.517
▁جشنواره	-11.517
▁مهذب	-11.5171
▁ٺيڪيدار	-11.5171
▁معنوي	-11.5171
▁نقاد	-11.5172
▁سگهندس	-11.5173
▁امانت	-11.5173
▁ھوٽل	-11.5174
▁گودام	-11.5175
▁ابت	-11.5175
▁جاگرافيائي	-11.5175
▁ڪندؤ	-11.5175
ber	-11.5175
▁گراف	-11.5177
▁رايك	-11.5177
ًا	-11.5179
نجي	-11.518
▁سپلائرز	-11.5181
▁اجائي	-11.5183
▁حميد	-11.5183
ندر	-11.5185
▁مکي	-11.5185
▁ستون	-11.5188
▁بادشاهت	-11.519
فش	-11.5191
▁ناتو	-11.5193
مڪ	-11.5198
لٽ	-11.52
اُ	-11.52
ft	-11.52
AT	-11.5203
ملڪ	-11.5213
▁پني	-11.5219
▁دارا	-11.5219
▁ادو	-11.5221
▁سلائي	-11.5222
▁زا	-11.5234
ووون	-11.524
▁اُت	-11.5243
▁خزاني	-11.5245
▁آلي	-11.5248
▁عنها	-11.5248
▁جيءُ	-11.5254
▁لانچر	-11.5258
▁محض	-11.5258
▁ٽينڪ	-11.5259
▁باش	-11.5259
ضيع	-11.526
٣	-11.5267
▁نويس	-11.527
▁هلندا	-11.527
▁ياسلام	-11.527
va	-11.5272
▁صديقي	-11.5276
زار	-11.5277
▁خوي	-11.5278
ڪتاب	-11.5279
▁صبا	-11.528
-5	-11.5284
▁ڀائيواري	-11.5286
ium	-11.5287
وڏي	-11.5287
▁پارس	-11.5288
▁أس	-11.529
▁جاگرافي	-11.529
▁or	-11.5292
اااااااااا	-11.5293
▁قیمت	-11.5294
▁وابستگي	-11.5294
▁پرداخت	-11.5294
▁استعيفيٰ	-11.5294
▁انٽيليجنس	-11.5294
▁قلعو	-11.5294
▁ريفرنس	-11.5294
▁پايگاه	-11.5294
▁ايڊٽ	-11.5294
▁Indu	-11.5294
▁شاگردياڻي	-11.5295
▁ابغى	-11.5296
▁سڀيئي	-11.5297
يهم	-11.53
▁حصول	-11.5301
tic	-11.5303
شور	-11.5304
▁کنم	-11.5305
▁بگي	-11.5305
شارك	-11.5308
▁حليم	-11.5308
▁صوف	-11.5308
▁ڊڄو	-11.5309
▁ليڊي	-11.5309
▁نقول	-11.5309
▁اشارا	-11.531
▁Pa	-11.5311
▁پيدايش	-11.5312
▁تغير	-11.5312
1-	-11.5313
▁ڌرڻو	-11.5314
▁رگ	-11.5314
▁ميگن	-11.5314
▁مضحكة	-11.5314
▁الط	-11.5314
▁سُڌ	-11.5315
▁پيڪيجز	-11.5315
▁سراج	-11.5317
▁لح	-11.5318
▁جذبا	-11.5319
▁خاڪو	-11.5321
83	-11.5321
خل	-11.5322
▁سمجهايو	-11.5325
▁گان	-11.5327
▁1999	-11.5327
▁منڊل	-11.5328
▁پرومو	-11.5328
سة	-11.5329
لنا	-11.5329
ev	-11.5329
▁راب	-11.5334
▁ياخي	-11.5336
▁جديده	-11.5337
▁اسٽينڊ	-11.534
▁تمنا	-11.534
▁بان	-11.5344
▁ٻارڻ	-11.5346
سائي	-11.5349
▁زينت	-11.535
▁الاخر	-11.5354
نھن	-11.5356
▁کيسي	-11.536
▁آرڪ	-11.5361
جوز	-11.5362
▁زيد	-11.5362
▁منت	-11.5363
▁ليا	-11.5365
ڻيون	-11.5368
ھان	-11.5369
53	-11.5369
ai	-11.5374
▁اري	-11.5377
▁گھم	-11.5379
▁پردو	-11.5379
😂	-11.538
طير	-11.538
ديه	-11.5382
▁جيڪٽ	-11.5382
pi	-11.5383
سور	-11.5384
▁غريبه	-11.5387
ظر	-11.5387
5"	-11.5392
au	-11.5393
▁مانس	-11.5397
▁بتحب	-11.5397
▁گرامي	-11.5401
▁وڏيري	-11.5403
▁ديرو	-11.5403
▁Bo	-11.5406
▁ھزار	-11.5408
eng	-11.5408
▁وليم	-11.5409
▁لوڪل	-11.5409
▁54	-11.541
▁آمين	-11.5414
ea	-11.5416
▁کپن	-11.5418
▁پارليام	-11.5419
▁لوڊشيڊنگ	-11.5419
▁مساوات	-11.5419
▁وابسته	-11.5419
▁متوازن	-11.5419
▁باعث	-11.5419
▁پراجيڪٽ	-11.5419
▁پيراگراف	-11.5419
▁پرجوش	-11.5419
▁ذيشان	-11.5419
▁محاذ	-11.5419
▁اَن	-11.5419
▁اڀرندڙ	-11.5419
▁طرفي	-11.542
تهم	-11.5421
الك	-11.5421
▁گهوٽڪي	-11.5421
▁متغير	-11.5421
▁جلسي	-11.5423
▁ڇاپي	-11.5423
▁ڊريس	-11.5423
▁ٽوڪيو	-11.5423
▁(3	-11.5424
▁عرش	-11.5425
▁شوٽنگ	-11.5425
▁لعبة	-11.5425
▁ٻڌندو	-11.5426
▁يتيم	-11.5428
▁دخلت	-11.5428
▁علوم	-11.5429
}}	-11.5429
▁هاٿي	-11.5429
▁شف	-11.5431
▁اطلاعن	-11.5431
▁گرافڪس	-11.5432
▁وضع	-11.5432
▁مزا	-11.5433
▁معاهم	-11.5434
▁سرطان	-11.5435
▁سخي	-11.5439
▁عط	-11.5442
▁موري	-11.5442
▁چراغ	-11.5442
▁جهل	-11.5447
▁نئي	-11.5448
▁زمينن	-11.5452
شكر	-11.5454
▁کردي	-11.5454
▁گھرو	-11.5459
اڪو	-11.5459
▁پٺاڻ	-11.5464
ڀلا	-11.5466
▁وينس	-11.5467
▁سومرو	-11.5467
82	-11.5467
▁رياضت	-11.5468
que	-11.5468
▁معاهد	-11.5471
▁96	-11.5473
▁هِتي	-11.5475
ستر	-11.5475
ميز	-11.5476
▁گفتن	-11.5477
▁لکندي	-11.5478
ذه	-11.5479
▁حواس	-11.5483
حلي	-11.5488
ارات	-11.549
▁سنڀاليو	-11.549
نهن	-11.5492
▁ھئ	-11.5492
▁بُ	-11.5492
رک	-11.5494
▁ڊائي	-11.5499
▁حنا	-11.5499
▁نورتي	-11.5503
▁وڇڙي	-11.5504
▁احلا	-11.5507
▁نينگري	-11.5507
▁ٽڪي	-11.5509
▁ايونٽ	-11.5514
▁وسط	-11.5522
▁الجو	-11.5525
62	-11.5525
▁ٽينس	-11.5526
▁مظاهري	-11.5527
▁ڏکيا	-11.5527
▁خواهشن	-11.5528
▁دعوا	-11.5528
ستائين	-11.5531
▁ڪجن	-11.5537
▁يسعدك	-11.5538
▁بدتر	-11.5542
▁كري	-11.5542
ھڻ	-11.5544
طلب	-11.5545
▁Netflix	-11.5545
▁تصنيف	-11.5545
▁المونيم	-11.5545
▁اوائلي	-11.5545
▁رونق	-11.5546
▁سامھون	-11.5546
▁ٿلهو	-11.5546
▁فاروق	-11.5546
▁1994	-11.5546
▁1996	-11.5547
▁آذربائيجان	-11.5548
▁اعمال	-11.5548
▁ھاڻ	-11.5548
▁مٿانهون	-11.555
▁فرينڊ	-11.555
▁تفكر	-11.5553
▁ڪڪ	-11.5556
▁ليٽي	-11.5559
▁امس	-11.5561
bi	-11.5561
▁گذاريندو	-11.5561
▁اسٽو	-11.5562
▁ماهوار	-11.5562
▁سنگل	-11.5562
▁نعرف	-11.5563
ud	-11.5566
▁جانچڻ	-11.5566
▁مستند	-11.5567
▁قاعدو	-11.5568
▁شڪلن	-11.5568
▁آح	-11.5568
▁غبي	-11.5568
انسان	-11.5568
2:	-11.5572
▁ڊور	-11.5573
▁اسڪ	-11.5573
▁خزانو	-11.5574
▁آنا	-11.5575
ميٽ	-11.558
▁فله	-11.558
▁بيماريون	-11.5581
▁دامن	-11.5582
▁زپ	-11.5584
▁فولڊ	-11.5586
▁هما	-11.5586
▁محلات	-11.5586
▁ڇڏائي	-11.5587
ڊور	-11.5588
▁بچيل	-11.5588
▁تعرفين	-11.5589
▁براڊ	-11.5591
2)	-11.5591
ide	-11.5592
▁ڪورين	-11.5597
tor	-11.5599
▁اُڃ	-11.5599
▁We	-11.5603
▁ناجي	-11.5605
بِ	-11.5605
▁وڏائي	-11.5606
▁ايري	-11.561
مائي	-11.561
▁الث	-11.5614
▁پڪي	-11.562
▁معه	-11.5621
نئين	-11.5624
▁يارو	-11.5627
▁منى	-11.5628
▁آڻين	-11.5628
▁ڌي	-11.5636
pl	-11.5636
▁برانڊن	-11.5636
▁تياريون	-11.5637
يبل	-11.564
▁نپ	-11.5641
▁اڃ	-11.5641
▁ca	-11.5642
▁ڀڄ	-11.5643
️	-11.5643
۹	-11.5645
▁هُوءَ	-11.5647
▁فيل	-11.5649
▁جدي	-11.5649
ـَ	-11.5653
▁سوره	-11.5656
▁ريما	-11.5656
یل	-11.5657
▁اينا	-11.5658
▁مالك	-11.566
▁اٿيو	-11.5661
▁الجن	-11.5662
▁عزيزي	-11.5664
▁ڪھاڻي	-11.5668
▁اختتام	-11.5671
اھڻ	-11.5672
▁پوليو	-11.5672
▁اسحاق	-11.5674
▁سڪيورٽي	-11.5674
▁موٽرسائيڪل	-11.5674
▁ڇوٽڪارو	-11.5674
▁فروخت	-11.5674
▁اثرانداز	-11.5674
▁خواجه	-11.5675
▁تجزياتي	-11.5675
▁سنتي	-11.5676
▁وزيرن	-11.5677
▁کاتن	-11.5678
▁طبق	-11.5679
▁نشين	-11.5679
ted	-11.568
▁نبود	-11.568
▁پڪڙڻ	-11.5681
▁غرض	-11.5682
▁تمدن	-11.5682
ko	-11.5682
▁ذلك	-11.5683
▁ميده	-11.5683
▁اصطلاحن	-11.5684
▁Lo	-11.5685
▁رشتا	-11.5685
ييي	-11.5686
▁الإ	-11.5686
▁عصر	-11.5686
▁vi	-11.5688
▁ورانه	-11.5688
▁هيڪل	-11.5689
▁بوي	-11.569
▁ٽائپ	-11.5691
وتي	-11.5693
▁ڏيکاريندو	-11.5693
▁کُلي	-11.5693
▁وبس	-11.5693
مات	-11.5694
▁خزان	-11.5695
▁اينكه	-11.5699
▁😂😂	-11.5699
هبل	-11.5702
▁ميجر	-11.5703
جيڪي	-11.5703
▁ڄاڻندو	-11.5704
ary	-11.5709
▁ڏنگ	-11.5713
▁ڊائ	-11.5717
راه	-11.5721
bit	-11.5721
▁رجعت	-11.5721
▁کُ	-11.5722
▁حوصل	-11.5723
▁Jo	-11.5728
▁ليلي	-11.5729
فيت	-11.573
▁قصا	-11.5732
زز	-11.5733
▁هوسٽ	-11.5734
port	-11.5736
پرو	-11.5737
▁قدرن	-11.5737
اهر	-11.574
آئ	-11.574
▁Vi	-11.5741
ڌن	-11.5742
▁وڙ	-11.5743
▁ميوه	-11.5745
▁برڪ	-11.5747
َي	-11.5748
▁ڳوٺاڻي	-11.5749
▁پيالو	-11.5751
▁58	-11.5753
▁63	-11.5757
شل	-11.5759
لهم	-11.5762
▁بی	-11.577
▁سانگي	-11.5775
▁ڇي	-11.5776
ov	-11.5777
▁ڊار	-11.5777
آمريڪا	-11.5778
▁le	-11.5779
▁رهواسين	-11.578
-15	-11.5785
▁اشو	-11.5787
بون	-11.5789
▁ايسڊ	-11.579
▁آرڪائيو	-11.5795
▁سنة	-11.5796
▁رايو	-11.5798
▁چاهيندي	-11.5799
ونکي	-11.58
▁ظرف	-11.5801
▁ردي	-11.5802
فڪ	-11.5802
راني	-11.5803
न	-11.5803
▁افاديت	-11.5803
▁بصراحة	-11.5803
▁وصلت	-11.5803
▁اسپيشل	-11.5804
▁سيوهڻ	-11.5804
▁ضعيف	-11.5804
▁عاليشان	-11.5804
▁ٽوئيٽ	-11.5804
▁1993	-11.5805
▁فڪري	-11.5805
▁ڪنڪريٽ	-11.5806
▁جهنم	-11.5806
▁چقدر	-11.5806
▁وعد	-11.5807
▁ڇانيل	-11.5807
▁ٽائيٽل	-11.5807
▁بسرعه	-11.5808
▁کليو	-11.5808
▁درواز	-11.5808
▁ماده	-11.5808
▁پرعزم	-11.5811
▁ڇھ	-11.5814
="3	-11.5815
▁مادو	-11.5816
▁اينکه	-11.5817
ايش	-11.5818
▁سويڊن	-11.5818
▁My	-11.5819
▁دانهون	-11.582
▁بئ	-11.582
▁ثبت	-11.582
تج	-11.582
▁رکجو	-11.582
▁قائد	-11.5822
▁صدقي	-11.5823
▁سوشلسٽ	-11.5826
▁تكلم	-11.5828
▁١	-11.5828
شى	-11.5828
تہ	-11.5828
▁ڪاٿي	-11.583
ling	-11.5833
▁حسيت	-11.5834
▁سئي	-11.5835
▁حوصله	-11.5839
▁ننڍيون	-11.584
▁سمورين	-11.5843
▁جمله	-11.5845
▁ڏيئو	-11.5846
▁قاعده	-11.5846
▁چونڊيندا	-11.5847
▁درويش	-11.5848
▁سوچيندا	-11.5849
▁دن	-11.5851
▁ڪابل	-11.5856
سٽي	-11.5856
▁مئ	-11.5859
▁خوري	-11.5859
▁لوپ	-11.5859
هااا	-11.586
▁جماعتن	-11.586
▁حلوو	-11.5863
▁دع	-11.5867
ld	-11.587
▁1.5	-11.587
▁چی	-11.587
▁گوشي	-11.5873
▁حقي	-11.5875
▁پنهان	-11.5876
▁خيو	-11.5876
▁رق	-11.5878
▁تال	-11.5881
▁پتا	-11.5882
▁پرچي	-11.5882
ةة	-11.5883
َل	-11.5883
▁ٽپو	-11.5885
▁ماتم	-11.5885
▁تالا	-11.5887
نور	-11.5888
▁تُ	-11.5889
▁عمي	-11.5891
▁ٽيبلٽ	-11.5892
ڪِ	-11.5896
ڪنگ	-11.5898
▁ڪچ	-11.5903
▁فلا	-11.5905
مٽ	-11.5906
▁مثالن	-11.5907
رگ	-11.5907
ware	-11.5908
ڪڙي	-11.5908
٥	-11.5909
▁شاهدي	-11.5909
▁زوج	-11.5913
land	-11.5915
▁آئل	-11.5915
▁ميوا	-11.5919
▁دانه	-11.5931
▁البن	-11.5931
▁ريڊي	-11.5932
▁ياس	-11.5932
اجي	-11.5933
▁مشهوري	-11.5934
ائب	-11.5935
▁آبپاشي	-11.5935
▁مائڪروسوف	-11.5935
▁ناياب	-11.5935
▁دكتر	-11.5935
▁ممنون	-11.5935
▁پنروڪ	-11.5935
▁Archives	-11.5935
▁USB	-11.5935
▁اسٽيڊيم	-11.5936
▁ڪميونيڪيشن	-11.5936
▁ياسمين	-11.5936
▁اسلوب	-11.5937
▁ٺاهيندي	-11.5937
▁مسافرتی	-11.5938
▁ٻوڙي	-11.5939
▁پيروڪار	-11.5939
▁تخلص	-11.594
▁گناه	-11.594
▁ويٽنام	-11.5941
▁عددي	-11.5942
▁دانش	-11.5943
فيد	-11.5944
▁پڙه	-11.5944
▁سبحان	-11.5945
▁ڳالهائيندا	-11.5946
▁أقول	-11.5946
▁ڇپر	-11.5949
ايف	-11.595
ڌر	-11.5951
حاول	-11.5952
▁ڪوپ	-11.5952
▁ٽڪري	-11.5952
▁شفتي	-11.5955
▁طاقتن	-11.5956
▁معاشرو	-11.5956
▁ھفتي	-11.5958
▁ذرا	-11.5959
ors	-11.5959
▁قصدك	-11.596
▁ايسٽر	-11.596
▁ڊگها	-11.596
▁حرفي	-11.5961
▁ڳنڍڻا	-11.5964
▁اڏ	-11.5965
▁واردات	-11.597
▁9-	-11.5971
▁زني	-11.5971
قع	-11.5972
ff	-11.5974
▁ماسي	-11.5975
محمد	-11.5977
▁ورجائي	-11.5977
▁ڌڻيءَ	-11.5978
▁اسڪيل	-11.598
▁لوھ	-11.5983
▁هٿي	-11.5985
ريئر	-11.5989
▁ڇاپو	-11.599
▁راتين	-11.599
▁سربراهي	-11.599
="7	-11.5991
ins	-11.5994
72	-11.5994
▁عملو	-11.5995
▁<~	-11.5995
▁چاھي	-11.5996
▁طفل	-11.5996
▁بات	-11.5997
▁ro	-11.6
▁ٽه	-11.6
راء	-11.6001
▁كت	-11.6003
▁ماله	-11.6003
▁نشوف	-11.6003
▁معهم	-11.6004
▁گهٽي	-11.6007
▁ڪوڪ	-11.6007
▁قديمي	-11.6009
▁ورن	-11.6011
▁زرد	-11.6011
▁مرضيءَ	-11.6015
▁مسيحي	-11.6015
▁سوچيان	-11.6018
▁عسل	-11.602
ure	-11.6021
اسلام	-11.6022
▁پَٽ	-11.6027
▁ڪمانڊ	-11.6032
صو	-11.6032
قف	-11.6032
▁رهڻو	-11.6032
▁وساڻ	-11.6032
▁پاڪائي	-11.6033
▁ڀو	-11.6033
▁مِن	-11.6035
▁پاڇو	-11.6036
آع	-11.6037
▁اُٿ	-11.6038
ارين	-11.6041
▁دنگ	-11.6041
ڪجهه	-11.6042
▁خُ	-11.6045
▁ايڪي	-11.6045
▁اوز	-11.6048
▁اسٽيم	-11.6053
▁پيشاني	-11.6053
bu	-11.6055
ave	-11.6059
كَ	-11.606
ous	-11.6065
ظهر	-11.6066
▁هولڊر	-11.6066
▁رٿا	-11.6067
▁فرو	-11.6067
تال	-11.6067
ۑ	-11.6068
▁لغاري	-11.6068
▁ڪِتاب	-11.6068
▁عجائب	-11.6068
▁عضلات	-11.6068
▁انجيڪشن	-11.6069
▁ڀانيان	-11.6069
▁اهائي	-11.607
▁عمودي	-11.607
▁◄	-11.6071
▁أعرف	-11.6071
▁الواحد	-11.6071
▁رھندو	-11.6071
▁دوکو	-11.6072
▁أل	-11.6072
▁تحريڪن	-11.6072
▁المنتدى	-11.6073
▁گمنام	-11.6074
▁واتس	-11.6075
▁ٽرام	-11.6077
▁فارمن	-11.6079
▁گندگي	-11.608
▁قضي	-11.6081
▁زيتون	-11.6082
▁اللعبه	-11.6083
▁فكرت	-11.6088
▁al	-11.609
▁ڏيکار	-11.6095
▁ڪروڙين	-11.6098
▁جميلة	-11.6101
▁ڇاهي	-11.6102
ھڪ	-11.6103
▁ڪمزوري	-11.6105
▁خورد	-11.6108
▁هوت	-11.6109
▁اجا	-11.6109
▁ڳل	-11.6114
▁بيها	-11.6115
▁هڪڙا	-11.6116
▁پاڻهي	-11.6119
▁موسميات	-11.6121
▁هس	-11.6121
▁ثم	-11.6124
▁عثماني	-11.6125
▁59	-11.6125
▁ځ	-11.6126
▁نظرين	-11.6127
▁پوسٽن	-11.6128
▁مرح	-11.6128
▁ڏِس	-11.613
▁کش	-11.613
مانس	-11.6132
جيب	-11.6133
▁راھ	-11.6134
▁انڌو	-11.6135
▁لکجي	-11.6137
▁El	-11.6137
▁ڪالوني	-11.6138
▁سوچون	-11.6139
▁سکين	-11.6141
:10	-11.6141
▁شرف	-11.6142
ial	-11.6142
▁يرجك	-11.6144
▁جلي	-11.6145
▁ڳڻي	-11.6147
▁Sa	-11.6149
▁Ro	-11.6156
▁تقبلي	-11.6158
▁ڪرس	-11.6159
▁پوسٽون	-11.6159
▁Dr	-11.6163
▁اسڪور	-11.6164
رتي	-11.6165
ڻن	-11.6166
▁وائر	-11.6168
▁باشه	-11.6169
پيو	-11.617
>>>	-11.6174
▁رسال	-11.6174
٦	-11.6177
ولوجي	-11.618
▁گروهي	-11.618
▁ستل	-11.618
صبح	-11.6184
▁برانڊي	-11.6184
▁ادل	-11.6188
پيل	-11.6189
▁هز	-11.6191
▁360	-11.6192
▁سياستدانن	-11.6195
هيءَ	-11.6196
▁سينا	-11.6196
▁السالفه	-11.6203
▁انڪوائري	-11.6203
▁پوائينٽون	-11.6203
▁ڊفالٽ	-11.6203
▁پشاور	-11.6204
▁آرگنائيزيشن	-11.6204
▁NEWS	-11.6204
تًب	-11.6204
▁انگلش	-11.6204
▁ڍانچي	-11.6204
▁جنريٽر	-11.6204
▁مٿاهين	-11.6204
▁آدرش	-11.6204
▁صداقت	-11.6204
▁وئين	-11.6204
▁سولنگي	-11.6205
xbet	-11.6205
▁ويگاس	-11.6205
▁نڀائي	-11.6206
▁فرمود	-11.6209
▁بناوت	-11.6209
▁نوبل	-11.6211
▁اعلى	-11.6211
ڪرن	-11.6212
▁فيروز	-11.6214
▁الاول	-11.6214
▁ياريت	-11.6214
▁تعمل	-11.6222
جھي	-11.6223
▁خلائي	-11.6225
▁ڪڻ	-11.6226
▁ڳڻ	-11.6228
ix	-11.6229
▁رحت	-11.623
مڪس	-11.6231
▁تحفي	-11.6232
ٺا	-11.6233
▁حاله	-11.6234
▁پاك	-11.6237
▁دليون	-11.6239
▁سوالات	-11.6239
▁پهري	-11.6239
▁كلش	-11.624
▁جڪ	-11.6241
اچ	-11.6242
▁چمڪي	-11.6243
▁منافعو	-11.6245
▁سيب	-11.625
▁حوا	-11.6252
▁تسلي	-11.6254
ions	-11.6254
▁مجبوري	-11.6255
▁ٻَ	-11.626
The	-11.6262
ٽيڊ	-11.6263
▁پيتو	-11.6266
▁ساحلي	-11.6266
▁اشك	-11.6268
▁اگهن	-11.6269
▁Qu	-11.627
LE	-11.6271
▁پهاڙ	-11.6279
▁كس	-11.6279
▁زالون	-11.628
▁مشڪلاتن	-11.6283
▁ڊيمو	-11.6283
▁سيٽون	-11.6285
▁مسك	-11.6289
▁شهد	-11.6291
▁شاخن	-11.6291
▁وائيٽ	-11.6291
▁صديء	-11.6292
▁شڪي	-11.6294
▁جُه	-11.6294
روس	-11.6295
▁مذ	-11.6301
تمام	-11.6302
▁ھوس	-11.6303
▁قلمي	-11.6305
عورت	-11.6305
شك	-11.6305
▁النكت	-11.6305
▁1.2	-11.6305
▁اندران	-11.6307
▁ٽئي	-11.6308
▁ڷ	-11.6309
▁عامل	-11.631
▁مونسان	-11.6313
▁يادون	-11.6314
▁ماتر	-11.6314
-10	-11.6316
▁گذاريا	-11.6321
▁per	-11.6322
▁جنگين	-11.6325
قبل	-11.6326
▁عضون	-11.6328
▁ً	-11.633
▁78	-11.6331
ائتو	-11.6331
.000	-11.6333
▁7-	-11.6333
▁بچيو	-11.6333
▁چک	-11.6335
а	-11.634
▁bonuses	-11.634
▁سقراط	-11.634
▁ارجنٽائن	-11.634
▁چيلينج	-11.634
▁Today	-11.6341
▁مھيني	-11.6341
▁رُڳو	-11.6341
▁پڙتال	-11.6341
▁مهانگي	-11.6341
▁روئ	-11.6341
▁بريفنگ	-11.6341
▁واڍي	-11.6342
▁آهسته	-11.6342
▁ميثاق	-11.6343
▁پهتاسين	-11.6343
▁اچار	-11.6344
▁وائل	-11.6345
▁گرافي	-11.6345
▁ڪجانءِ	-11.6345
▁برهمڻ	-11.6345
▁اسڪينڊل	-11.6345
ـُ	-11.6346
▁ٽرينون	-11.6346
▁حسرت	-11.6347
ٿل	-11.6349
▁مساله	-11.635
▁تهران	-11.635
▁كتاب	-11.6354
▁ڄاڻائي	-11.6361
▁جانسن	-11.6361
▁انديشه	-11.6363
▁ڊان	-11.6364
▁سنگهه	-11.6366
▁پھر	-11.637
▁عقب	-11.637
▁بائي	-11.6371
▁وهندو	-11.6372
▁چوين	-11.6373
▁دڪاندار	-11.6373
▁ضلعن	-11.6375
▁پوئلڳ	-11.6375
▁لائ	-11.6378
▁رسد	-11.6379
▁Mar	-11.638
▁ڀينرن	-11.6383
▁دودو	-11.6385
▁بتي	-11.6386
▁ڪنداسون	-11.6386
▁Ra	-11.6394
▁عاليه	-11.6397
▁رائل	-11.6398
ڪسڪس	-11.6399
ls	-11.6399
▁ويکي	-11.64
▁موقع	-11.64
▁هڏ	-11.6401
▁هجوم	-11.6402
ستا	-11.6402
▁ادبيات	-11.6402
▁پسي	-11.6403
▁فصلن	-11.6407
▁قب	-11.6408
▁ويڪ	-11.6408
فك	-11.641
▁برادرين	-11.641
▁ورڪر	-11.6411
▁خا	-11.6411
▁am	-11.6413
▁فقر	-11.6413
▁الض	-11.6414
▁ڏسين	-11.6417
▁ميس	-11.6417
59	-11.6417
▁بيچ	-11.642
▁ڪلا	-11.6421
▁ناهيون	-11.6422
▁ديه	-11.6422
-8	-11.6423
▁سالگرهه	-11.6423
▁روين	-11.6424
▁خرابين	-11.6424
ووووووووو	-11.6429
▁po	-11.6429
ob	-11.6432
▁همچي	-11.6434
▁صج	-11.6435
▁مسئله	-11.6436
▁ڇل	-11.6443
غني	-11.6445
ya	-11.6446
und	-11.6449
▁پيلو	-11.6452
څ	-11.6453
▁ڇونه	-11.6458
ڀر	-11.6461
▁ڪرنل	-11.6462
▁باڊي	-11.6463
▁اداڪاره	-11.6466
▁y	-11.6472
▁خذ	-11.6474
▁وچڙ	-11.6475
▁نهار	-11.6477
ि	-11.6479
▁آژانس	-11.6479
▁وڇوڙي	-11.648
▁آئڪن	-11.648
▁دٻائڻ	-11.648
▁پئسفڪ	-11.6482
▁عايز	-11.6482
▁دادن	-11.6483
▁ڇپجي	-11.6484
▁نفسها	-11.6484
ميه	-11.6484
over	-11.6486
▁ڍير	-11.6487
شتي	-11.6488
▁چارجر	-11.6489
▁زهرا	-11.649
▁منصب	-11.649
هيه	-11.649
▁رك	-11.6491
▁For	-11.6494
▁ٽار	-11.6494
▁خوبه	-11.6496
▁رجل	-11.6496
▁ماجد	-11.6496
▁ڇالاءِ	-11.6496
رل	-11.6496
▁ڊولپرز	-11.6496
▁نيپال	-11.6498
▁شبه	-11.6498
▁دماغي	-11.6499
▁ننڍڙا	-11.6499
▁ٽيهه	-11.65
▁شعري	-11.6501
▁ماراح	-11.6501
▁ڊڄڻ	-11.6503
▁ماڻڪ	-11.6504
ver	-11.6506
بعد	-11.6507
▁برلن	-11.6507
▁توبه	-11.6508
▁اخلاقيات	-11.6511
2">	-11.6512
▁ڪٺ	-11.6512
▁مالدار	-11.6512
صه	-11.6513
▁تجيب	-11.6514
▁والم	-11.6514
▁69	-11.6515
▁ليون	-11.6516
▁واسين	-11.6517
▁ولآ	-11.6517
▁صدقت	-11.6518
نامياتي	-11.6518
شب	-11.6518
▁ڊزائنر	-11.652
راب	-11.6521
عشق	-11.6522
▁معا	-11.6523
▁رويا	-11.6523
▁ڪوٺ	-11.6524
▁قاعدي	-11.6524
▁آو	-11.6525
fa	-11.6527
ارڊ	-11.6529
▁ہ	-11.653
▁گانو	-11.6531
▁ڪالمن	-11.6532
ٻار	-11.6533
عطي	-11.6534
▁سيارو	-11.6537
▁ڊيٽ	-11.6538
▁دُني	-11.6538
ورد	-11.6538
▁كند	-11.6538
ice	-11.6539
▁مسافرت	-11.6541
فتح	-11.6541
▁شيام	-11.6543
▁غل	-11.6544
▁اندرين	-11.6547
▁سراسر	-11.6549
▁وضو	-11.655
▁مايا	-11.6556
▁جمي	-11.6559
▁عقلي	-11.656
▁[1]	-11.6562
ِيءَ	-11.6563
▁المر	-11.6564
▁اوهانجي	-11.6566
ّت	-11.6568
▁حقوقي	-11.6572
▁2,	-11.6573
▁وائڙ	-11.6573
▁مشڪلات	-11.6576
▁فردن	-11.6577
▁ڊرا	-11.658
▁at	-11.6582
lin	-11.6583
▁ايلي	-11.6584
▁حلم	-11.6584
▁بڻيا	-11.6586
طق	-11.6588
▁مشينون	-11.6589
هَ	-11.6589
▁فرقي	-11.6589
▁نکن	-11.659
▁مئو	-11.6591
ٽيو	-11.6595
لَ	-11.6598
ذري	-11.66
بوس	-11.6601
ريٽ	-11.6605
اڪي	-11.6605
73	-11.6607
▁57	-11.6607
هُ	-11.6608
▁جنب	-11.6609
▁سرپرست	-11.6617
▁يافت	-11.6619
light	-11.662
▁زنگ	-11.662
ۃ	-11.662
▁Suppliers	-11.662
▁نمائندو	-11.662
▁پسمنظر	-11.662
▁نيويگيشن	-11.662
▁چانڊوڪي	-11.662
▁Amazon	-11.662
نئون	-11.6621
▁مراجع	-11.6621
▁تنصيب	-11.6621
▁ڦهليل	-11.6621
▁©	-11.6621
▁ڪلارڪ	-11.6622
▁دردناڪ	-11.6622
▁انصاري	-11.6624
▁پنجويه	-11.6624
▁كلمة	-11.6625
▁>>>>	-11.6625
▁2022	-11.6626
▁well	-11.6627
▁بالڪل	-11.6628
▁ٻيھر	-11.6628
▁چاهيندس	-11.6629
▁لچڪ	-11.663
▁عقلمند	-11.6631
▁ڪارٽون	-11.6631
ٺيڪ	-11.6631
اپي	-11.6632
▁وٽن	-11.6634
مزح	-11.6635
▁ڇٽ	-11.6635
رٽ	-11.6635
▁گيرد	-11.6636
وں	-11.6636
▁غصب	-11.6637
▁پهاڪو	-11.6639
▁نير	-11.664
▁بيجنگ	-11.664
▁ناسي	-11.6641
▁٤	-11.6642
▁بسس	-11.6643
hat	-11.6645
▁ڊيوائسز	-11.6647
▁مڻ	-11.6649
▁خصوص	-11.6649
▁بون	-11.6652
▁واقعيت	-11.6653
▁هونء	-11.6653
▁ڄم	-11.6659
▁معماري	-11.6661
اااااااااااا	-11.6664
▁ماپي	-11.6664
▁180	-11.6664
▁گفتار	-11.6664
لط	-11.6671
▁ليبر	-11.6675
▁دودي	-11.6676
▁مقابل	-11.6677
يريا	-11.6679
old	-11.668
▁مهاڻ	-11.6682
MA	-11.6685
▁3000	-11.6687
▁ٽاٽو	-11.6688
▁ريا	-11.669
▁پنجون	-11.6695
▁ڇڪيو	-11.6696
▁اسي	-11.6698
▁سمي	-11.6699
▁نيوي	-11.6699
چل	-11.6702
▁ڪٽيل	-11.6702
لله	-11.6703
▁مبين	-11.6706
ator	-11.6709
▁اٿاري	-11.6709
▁Tag	-11.6715
▁ہو	-11.6716
آأ	-11.6717
جلس	-11.6719
▁موم	-11.6722
بز	-11.6722
سول	-11.6723
والله	-11.673
▁عطر	-11.6732
▁ڦڙ	-11.6736
جمع	-11.6736
Sindhi	-11.6737
▁جنوبي	-11.6738
نيم	-11.6739
▁نگ	-11.6739
▁يقولون	-11.6739
▁رئ	-11.6741
واه	-11.6741
▁اُڏ	-11.6742
غو	-11.6742
▁پسندي	-11.6744
ٽرن	-11.675
▁ڪنديس	-11.6751
گهي	-11.6751
ديم	-11.6757
▁ڪشميري	-11.6758
▁نوم	-11.6759
▁ڊيڪ	-11.676
sm	-11.6761
क	-11.6763
▁السؤال	-11.6763
▁مڙئي	-11.6763
▁فرصت	-11.6763
▁هكذا	-11.6763
▁ٻهراڙي	-11.6764
▁نداري	-11.6764
▁سوف	-11.6764
▁اڻڄاڻ	-11.6764
▁گیمنگ	-11.6765
▁جميڪا	-11.6765
▁1975	-11.6765
▁ٺٽو	-11.6765
▁بزني	-11.6765
▁نڪاح	-11.6765
▁فوجن	-11.6766
ذآ	-11.6767
▁برخي	-11.6767
▁مالٽا	-11.6768
▁نامزدگي	-11.6769
▁رڌل	-11.6769
▁آمديد	-11.6769
▁گرافڪ	-11.677
▁سڏبو	-11.6772
▁انڊر	-11.6772
ker	-11.6772
▁ابڙو	-11.6773
داس	-11.6773
▁ٺھ	-11.6775
▁جليل	-11.6777
▁ارزش	-11.6777
▁تفهم	-11.678
ner	-11.6783
▁هجري	-11.6784
▁وڻندو	-11.6787
▁روانگي	-11.6787
▁آهم	-11.6788
▁اداڪاري	-11.6791
▁ظهر	-11.6798
▁ترقيء	-11.6798
▁زيورن	-11.6801
▁سالفه	-11.6801
▁گذريا	-11.6804
▁was	-11.6804
54	-11.6804
▁88	-11.6805
▁احلي	-11.6805
▁ڪمايو	-11.6806
هائو	-11.6806
▁Be	-11.6806
▁اڳيئي	-11.6809
ٻڌ	-11.681
▁رحمان	-11.681
▁نٿيون	-11.6812
▁سپنا	-11.6812
▁شفٽ	-11.6814
▁ٿولهه	-11.6815
اضي	-11.6815
▁قدها	-11.6816
ثير	-11.6818
▁سرير	-11.6821
▁ويزن	-11.6822
▁گذاريندا	-11.6825
▁درمان	-11.6827
تق	-11.683
▁اختك	-11.6831
دها	-11.6832
وفا	-11.6834
تف	-11.6834
▁مُک	-11.6836
▁چلي	-11.6837
طب	-11.6838
▁ڀُ	-11.6845
▁وضاحتن	-11.6847
▁ناتي	-11.6847
▁بيداري	-11.6853
▁حلا	-11.6853
▁ڀريا	-11.6855
▁دال	-11.6857
ساس	-11.6857
▁عنوانن	-11.687
▁تجربات	-11.6873
▁هيرا	-11.6873
▁شعبو	-11.6873
▁ناه	-11.6875
▁پروف	-11.6875
▁فقيرن	-11.6875
▁ارتقاء	-11.6879
▁سطحن	-11.688
َـ	-11.6882
▁شَ	-11.6883
▁پوائنٽن	-11.6884
ating	-11.6884
▁للي	-11.6884
دعا	-11.6885
▁مودي	-11.6885
▁يف	-11.6894
▁وڪڻي	-11.6896
وی	-11.6897
▁ڪنڊي	-11.6899
هاڻ	-11.6903
▁ٻڌايون	-11.6904
أنا	-11.6905
▁with	-11.6908
▁رژيم	-11.6908
▁شرکت	-11.6908
▁خدمات	-11.6908
▁ٻٻر	-11.6908
▁خادم	-11.6908
▁CBD	-11.6908
▁قلندر	-11.6908
▁نوي	-11.6909
▁مستحق	-11.6909
▁1991	-11.6909
▁برطرف	-11.6909
▁1948	-11.6909
▁تاكل	-11.6911
▁مرحلا	-11.6911
▁ڇڪايو	-11.6911
▁آسيب	-11.6912
▁نداشت	-11.6912
یت	-11.6912
▁اوڏانهن	-11.6913
▁مشتاق	-11.6913
▁وڃايل	-11.6914
▁مسائل	-11.6914
▁طولاني	-11.6915
▁ھيءُ	-11.6915
▁ميں	-11.6917
▁عيل	-11.6917
چوڏهن	-11.6918
▁پائلٽ	-11.6918
▁قرضدار	-11.6919
▁عهديدار	-11.6922
▁ڊرامو	-11.6923
▁پرنٽنگ	-11.6924
▁طريقت	-11.6924
خاف	-11.6927
▁قسمتي	-11.6928
▁پت	-11.6928
▁هدي	-11.6928
▁يستر	-11.693
ace	-11.6932
▁اٽڪي	-11.6933
یو	-11.6933
▁سجاڳ	-11.6935
▁وغ	-11.6936
▁رهنما	-11.6936
▁ماڪ	-11.6937
▁٥	-11.6937
ولڻ	-11.6937
▁المع	-11.694
▁اسماء	-11.694
▁ساڍ	-11.6941
▁پولش	-11.6941
▁تاري	-11.6942
زون	-11.6942
▁آباديءَ	-11.6943
IS	-11.6944
▁خواهيم	-11.6945
راڻي	-11.6946
كبر	-11.6948
▁خاڪ	-11.6949
▁تعبت	-11.6949
▁ضح	-11.6951
▁اليڪٽرانڪس	-11.6952
▁عروس	-11.6958
म	-11.6959
▁تپ	-11.6961
گون	-11.6966
▁پيپ	-11.6966
▁نفعي	-11.6966
ائع	-11.6969
▁غلا	-11.697
▁گردي	-11.6971
حو	-11.6972
▁مبينا	-11.6975
▁ڪمانڊر	-11.6976
▁ch	-11.6978
دُ	-11.6978
▁ڏسڻو	-11.6979
▁يوگا	-11.698
▁2.1	-11.6985
▁ٽڪرن	-11.6986
▁المس	-11.6992
روجن	-11.6993
ادر	-11.6993
har	-11.6993
دآ	-11.6993
▁عادل	-11.6994
ٻن	-11.6994
less	-11.6998
▁8-	-11.7002
▁بياد	-11.7003
ڏانهن	-11.7003
▁شمالي	-11.7006
▁لڏ	-11.7015
َلَ	-11.7021
▁الثاني	-11.7023
حش	-11.7023
رٍ	-11.7026
وڪس	-11.7026
▁مسير	-11.7027
▁ٽائي	-11.7028
ۅ	-11.7028
▁سڌاري	-11.7029
یر	-11.703
▁تصورات	-11.7034
men	-11.7035
لينا	-11.7035
▁پيئندا	-11.7038
▁آئن	-11.704
رار	-11.7041
▁ويڪري	-11.7042
آري	-11.7042
▁خمس	-11.7043
▁مركز	-11.7043
ليڪ	-11.7045
▁شاپ	-11.7046
مها	-11.7047
اندر	-11.7048
خاني	-11.7048
▁امه	-11.7049
فيل	-11.705
▁سيڙپ	-11.705
▁خوار	-11.705
صدق	-11.7051
▁لأني	-11.7053
▁آفيسن	-11.7054
▁ميرسي	-11.7054
▁خواهشون	-11.7055
▁فلوريڊا	-11.7055
▁جارحيت	-11.7055
▁پروردگار	-11.7055
▁قبائلي	-11.7055
▁عڪاسي	-11.7055
▁عاوز	-11.7056
▁ڳاڇا	-11.7056
ارة	-11.7056
▁الشباب	-11.7057
▁احاط	-11.7057
▁يوحنا	-11.7059
▁ريموٽ	-11.706
▁تركي	-11.7061
▁الجديد	-11.7061
▁فوجين	-11.7063
▁طلال	-11.7064
▁ذائقو	-11.7065
▁فرنٽ	-11.7068
,"	-11.7069
▁ڌيء	-11.707
▁سوئس	-11.7072
▁پلے	-11.7073
▁پيامک	-11.7074
▁فلاڻي	-11.7074
▁مائيڪل	-11.7074
▁ٽريڪنگ	-11.7075
ورين	-11.7076
▁تحر	-11.7077
▁بب	-11.7077
▁سيڪٽر	-11.7078
▁ٻر	-11.7079
▁جوري	-11.7079
▁ساده	-11.708
▁افسانوي	-11.7081
ِن	-11.7081
▁ڌوڙ	-11.7082
▁کڻندي	-11.7083
▁شرجي	-11.7084
▁ڪارل	-11.7086
▁جلوس	-11.7086
:30	-11.7086
▁پيشو	-11.7087
▁جزيره	-11.7087
▁خوني	-11.7091
▁مائل	-11.7092
▁چطوري	-11.7093
▁ڀانيو	-11.7094
▁ڳڙ	-11.7095
▁پيڙا	-11.7095
▁عا	-11.7097
▁ساراهيو	-11.7098
▁خطير	-11.7099
▁ابدي	-11.71
▁تكتب	-11.71
زعل	-11.7101
یا	-11.7103
▁ڪوري	-11.7104
متي	-11.7104
▁گانا	-11.7105
شف	-11.7108
▁ٻيڙيءَ	-11.7109
▁مڪان	-11.7111
▁دُ	-11.7112
▁ٻيڙيون	-11.7113
▁مارن	-11.7115
hen	-11.7116
if	-11.7117
▁بيهاري	-11.7118
▁(4	-11.7118
▁لھي	-11.7121
▁راستي	-11.7121
▁تعيش	-11.7122
▁متو	-11.7123
air	-11.7125
▁البم	-11.7125
امر	-11.7125
أن	-11.7126
▁جنوب	-11.7129
▁کِل	-11.7131
▁dis	-11.7134
▁بودن	-11.7135
▁پيشي	-11.714
قعد	-11.7141
ck	-11.7142
سته	-11.7144
▁المن	-11.7144
▁رپورٽنگ	-11.7147
ڏانھن	-11.7152
▁ولكن	-11.716
زندگي	-11.7162
▁جرح	-11.7165
▁عس	-11.7168
تَ	-11.717
▁ھم	-11.717
▁أك	-11.7175
▁اصلی	-11.7176
ۆ	-11.7178
ass	-11.7179
سچ	-11.718
تنهنجو	-11.7181
▁سعر	-11.7181
▁نٽ	-11.7182
▁پرديس	-11.7183
▁تحف	-11.7185
ml	-11.7185
▁ننگ	-11.7186
▁ناوي	-11.7187
▁رأي	-11.7188
▁افغاني	-11.719
▁پريميم	-11.7191
▁ڌمڪي	-11.7192
84	-11.7192
▁تارو	-11.7196
ڪڏهن	-11.7197
اليا	-11.7199
▁يلي	-11.7201
پال	-11.7202
▁شراڪت	-11.7204
▁واپرائيندڙ	-11.7204
▁مقتول	-11.7204
▁انتشار	-11.7204
▁سنجيدگي	-11.7204
▁هيملٽ	-11.7205
▁(9)	-11.7205
▁معليش	-11.7205
▁واڌايون	-11.7206
▁76	-11.7206
▁عمارتون	-11.7207
ھُ	-11.7208
▁اصحاب	-11.7209
▁فلي	-11.721
▁هاڪ	-11.7212
▁86	-11.7213
▁67	-11.7213
لوڪ	-11.7213
▁إذا	-11.7215
AM	-11.7215
▁پڙهيا	-11.7217
▁ڌمڪيون	-11.7221
▁سرت	-11.7221
▁اچانڪ	-11.7222
▁هاڪاري	-11.7229
ire	-11.7229
▁ڪاوڙجي	-11.7232
▁نيڪال	-11.7232
▁زمن	-11.7233
▁هوٽلن	-11.7234
پپا	-11.7237
▁واج	-11.7237
ريو	-11.7237
▁08	-11.7242
▁ګ	-11.7244
▁جنيه	-11.7245
▁لينا	-11.7245
يڪو	-11.7246
gi	-11.7246
ووم	-11.7247
▁پختو	-11.7249
▁گهرڻ	-11.725
حضرت	-11.7251
▁وجھ	-11.7251
▁چنگ	-11.7253
▁وط	-11.7253
فتي	-11.7253
▁اٽو	-11.7254
▁مقرري	-11.7257
▁چرخ	-11.726
▁تجلي	-11.726
▁يسوي	-11.726
▁اٽل	-11.7263
▁وڍي	-11.7264
▁پکو	-11.7266
▁شماريات	-11.7267
▁All	-11.7269
▁MP	-11.7272
▁رهه	-11.7276
ووه	-11.728
▁روايتون	-11.7282
▁ڊالرن	-11.7282
▁شکل	-11.7283
▁درهم	-11.7284
▁ناسا	-11.7287
▁{{	-11.7287
▁توري	-11.7287
▁باٿ	-11.7288
▁ڊيڊ	-11.7288
▁مارين	-11.7288
US	-11.7289
▁کڻو	-11.729
lic	-11.7295
رور	-11.7295
▁گھڻ	-11.7296
▁ڪرد	-11.7301
▁برك	-11.7301
▁ايجنسين	-11.7303
ations	-11.7304
▁He	-11.7309
ههههههههههاي	-11.731
▁کد	-11.7319
▁همان	-11.7321
آق	-11.7322
يوز	-11.7324
▁هدا	-11.7325
ريه	-11.7331
▁پارا	-11.7336
▁مئنيج	-11.7336
▁الصوره	-11.7337
حكي	-11.7339
▁۲۰	-11.7339
▁سوالي	-11.734
▁لڙ	-11.7342
▁نظرون	-11.7343
▁عامر	-11.7343
▁ڏو	-11.7344
سى	-11.7349
▁امك	-11.7349
وزي	-11.7353
▁پرکي	-11.7354
پيٽ	-11.7355
▁ڪيٽي	-11.7356
▁متضاد	-11.7356
▁واپرائڻ	-11.7356
▁نافذ	-11.7356
▁سبسڪرپشن	-11.7356
▁مفاصلي	-11.7356
▁فيڊريشن	-11.7356
اؤ	-11.7357
▁امريکا	-11.7357
▁ٽالپر	-11.7357
ڪارو	-11.7357
▁ومش	-11.7357
▁سمجهائڻ	-11.7357
▁ھار	-11.7357
▁پخش	-11.7357
▁يعقوب	-11.7358
▁حور	-11.7358
▁نخست	-11.7359
▁هارائي	-11.7359
▁گيئر	-11.736
▁پگهر	-11.7361
يئن	-11.7361
▁اھميت	-11.7362
▁سوڌو	-11.7362
▁عاشت	-11.7363
▁ندى	-11.7366
▁ڏسنداسين	-11.7367
▁واقفيت	-11.7369
▁ميلن	-11.7369
▁سد	-11.737
▁جھان	-11.7371
▁نعرو	-11.7372
book	-11.7372
▁ازاي	-11.7373
يتك	-11.7374
▁(8)	-11.7374
▁ذائقي	-11.7375
▁اروپا	-11.7375
▁مقالي	-11.7376
▁مرندي	-11.7377
▁لاهڻ	-11.7378
▁77	-11.7379
ورڊ	-11.7379
▁ساجن	-11.738
▁بوند	-11.7381
▁خفيف	-11.7382
▁ووٽنگ	-11.7383
عين	-11.7383
وول	-11.7384
▁چاقو	-11.7385
▁مُرڪي	-11.7387
▁تبصري	-11.7388
▁هجرت	-11.7388
▁دوز	-11.739
▁عق	-11.7393
▁آرسي	-11.7394
OR	-11.7395
▁للت	-11.7397
گراف	-11.7398
▁كتبت	-11.7405
▁گاديء	-11.7407
▁پاڇ	-11.7408
وصل	-11.7408
ڙيو	-11.741
▁گهيري	-11.7412
▁أب	-11.7412
▁عهدو	-11.7415
سري	-11.7415
▁فوٽوز	-11.7416
َم	-11.742
ئان	-11.742
▁عرفان	-11.7424
▁هديه	-11.7424
▁بيري	-11.7425
▁ويھي	-11.7425
اوه	-11.7427
▁هٿياربند	-11.7428
▁تبا	-11.743
mer	-11.7431
▁ٽامي	-11.7433
▁شكلهم	-11.7433
▁فدا	-11.7437
▁ڌرتيء	-11.7437
اٽي	-11.744
▁پرتگال	-11.744
▁تبع	-11.7441
واس	-11.7442
5">	-11.7446
▁ديده	-11.7446
▁7:	-11.7447
▁داس	-11.7447
▁68	-11.7452
▁زخمن	-11.7453
▁نيٽو	-11.7457
▁بنگل	-11.7457
▁حاڪمن	-11.7459
▁علامتون	-11.746
▁هى	-11.7463
▁رڪ	-11.7464
▁آمر	-11.7465
ڪش	-11.7466
▁شعبا	-11.7468
con	-11.747
▁اينجا	-11.7472
▁رھندا	-11.7473
▁مشڪ	-11.7473
ضه	-11.7474
▁org	-11.7476
اڃا	-11.7481
AL	-11.7482
▁۔۔۔۔	-11.7482
▁مشاعر	-11.7483
▁سح	-11.7483
▁لأنه	-11.7484
مفروض	-11.7484
are	-11.7486
▁ساهي	-11.7487
▁سيما	-11.7487
▁حكم	-11.7488
we	-11.749
▁سيٽان	-11.749
بحث	-11.749
▁ڦاڙي	-11.7491
▁مختص	-11.7492
▁ردك	-11.7492
▁ڪرونا	-11.7492
▁شخصيتون	-11.7493
▁فد	-11.7494
ES	-11.7498
▁92	-11.7499
▁پروازن	-11.7499
by	-11.75
حر	-11.7503
▁پکيڙي	-11.7504
▁گهراڻي	-11.7507
▁بيورو	-11.7508
▁سمير	-11.7509
▁URL	-11.751
▁پشتيباني	-11.751
ڸ	-11.751
▁لمرورك	-11.751
▁آفريقا	-11.751
▁توجہ	-11.751
▁آفريقي	-11.751
▁will	-11.751
▁stainless	-11.751
▁ساليانو	-11.7511
▁فلپائن	-11.7511
▁ٻيئي	-11.7511
▁طعام	-11.7511
▁1971	-11.7511
▁نارنگي	-11.7511
▁ناحق	-11.7512
▁§	-11.7512
▁ڳئون	-11.7512
▁اڀرڻ	-11.7512
▁ذليل	-11.7513
▁فلائيٽ	-11.7513
▁1950	-11.7513
▁زبور	-11.7513
▁Ho	-11.7514
▁ھجن	-11.7514
▁😉	-11.7514
▁پرهيزگار	-11.7514
▁بڇڙي	-11.7516
اريو	-11.7516
ئرن	-11.7516
▁وهنوار	-11.7517
▁چوندس	-11.7517
▁غز	-11.7519
▁کارائڻ	-11.7519
▁يكتب	-11.752
▁نسيم	-11.7521
▁آيات	-11.7521
▁ڪنچن	-11.7521
▁اطلع	-11.7522
▁ڊرامي	-11.7523
▁پنجره	-11.7524
▁ماتا	-11.7526
شير	-11.7528
▁غذائيت	-11.753
▁هڏي	-11.753
▁تحول	-11.7532
▁ساقي	-11.7533
▁اتساه	-11.7533
▁جميع	-11.7534
PE	-11.7535
▁زلف	-11.7537
▁ٿيندس	-11.7537
شيخ	-11.7537
▁آسمانن	-11.7538
▁پڄ	-11.7538
▁dr	-11.7542
▁واء	-11.7542
اته	-11.7544
▁سجدو	-11.7544
▁ايندين	-11.7544
▁سعادت	-11.7548
▁گذارش	-11.755
▁لوڏي	-11.755
▁ڪاميابين	-11.7551
▁هپ	-11.7551
پسند	-11.7551
تكلم	-11.7551
▁اتو	-11.7552
▁النت	-11.7558
IT	-11.7559
ناز	-11.756
▁تبادلي	-11.7562
▁چلم	-11.7564
▁man	-11.7566
▁ناني	-11.7568
PO	-11.7568
پائي	-11.7568
▁لکڻيون	-11.7569
▁ڪرنٽ	-11.7571
سڪو	-11.7575
▁مخصوصا	-11.7576
▁فريق	-11.7576
▁ټ	-11.7577
▁جوانيءَ	-11.7578
▁قطب	-11.7579
▁ڪاڪ	-11.7582
▁ڳايو	-11.7585
▁فلپ	-11.7586
▁سيز	-11.7587
سف	-11.7587
▁اگ	-11.7588
▁ڏٺيون	-11.7588
▁ٽرا	-11.7589
سمع	-11.759
▁پڪڙيو	-11.7594
▁ڇٽي	-11.7594
ڏيو	-11.7597
ris	-11.7598
▁وسيم	-11.76
سٽا	-11.7601
▁><	-11.7605
▁رساني	-11.7607
▁ٿائي	-11.7608
▁پاتو	-11.7609
▁حاط	-11.7609
za	-11.7615
نگنگ	-11.7616
▁این	-11.7616
▁%	-11.7619
سافر	-11.762
▁سِٽ	-11.762
مب	-11.7621
▁وراڻي	-11.7622
▁پيشاب	-11.7622
▁گرميءَ	-11.7628
▁خليها	-11.7632
▁گولف	-11.7634
▁بخشش	-11.7636
▁تکي	-11.7639
٩	-11.7639
→	-11.764
▁چهار	-11.7641
▁انتخابات	-11.7641
خوف	-11.7642
یه	-11.7644
gg	-11.7644
گهه	-11.7644
▁ڇپ	-11.7645
عات	-11.7647
▁خم	-11.7647
▁پيئر	-11.7648
جت	-11.765
▁اسٽري	-11.7652
▁سوئر	-11.7652
▁79	-11.7654
▁Sp	-11.7654
ائونڊ	-11.7657
▁برتري	-11.7658
▁سمت	-11.766
▁صنعتڪار	-11.7662
▁الرد	-11.7663
لح	-11.7664
حقيقي	-11.7665
▁اُڀري	-11.7665
े	-11.7666
empty	-11.7666
ۊ	-11.7666
▁ايڊيٽوريل	-11.7666
▁مرکب	-11.7666
▁مقياس	-11.7666
▁ممنوع	-11.7666
▁اسپانسر	-11.7666
▁ارسطو	-11.7666
▁مٽاسٽا	-11.7666
▁ميڊريز	-11.7666
▁اپنائڻ	-11.7666
rin	-11.7666
▁رفيق	-11.7666
▁بمقابل	-11.7666
▁LED	-11.7666
▁پرفارمنس	-11.7667
▁تسلط	-11.7667
▁شبنم	-11.7667
▁کڄي	-11.7667
▁1979	-11.7667
▁ڀريندؤ	-11.7667
▁ٽتو	-11.7668
▁ڪپتان	-11.7668
▁عمومي	-11.7668
▁وڙهندا	-11.7668
▁موسى	-11.7669
▁الولد	-11.7669
▁لاجواب	-11.7669
▁پاره	-11.767
▁سولائي	-11.7671
▁پچائڻ	-11.7672
▁خواست	-11.7672
▁ترحيب	-11.7673
▁تطلع	-11.7673
▁مقطع	-11.7674
▁PDF	-11.7676
▁توحيد	-11.7678
▁سودا	-11.7678
▁مڃان	-11.768
▁خفيه	-11.7683
▁نياپو	-11.7683
▁ٻڍ	-11.7683
غه	-11.7684
▁لياري	-11.7685
ليءَ	-11.7686
ندن	-11.7686
▁جابلو	-11.7688
▁لوئي	-11.7688
▁ځوا	-11.7688
▁هسٽنگ	-11.7689
ڳو	-11.769
▁فوٽن	-11.7691
▁ويڙه	-11.7694
▁اُنهي	-11.7695
▁ڪرو	-11.77
▁گرانٽ	-11.77
ڪيٽ	-11.77
▁شاف	-11.77
▁خصوصا	-11.7702
▁2.0	-11.7702
▁اعلم	-11.7702
▁ڪرسيءَ	-11.7703
▁Ar	-11.7703
اير	-11.7705
▁ڦرڻ	-11.7707
▁درسي	-11.7708
▁قبوليت	-11.7711
▁سڏڻ	-11.7711
گال	-11.7712
▁پالش	-11.7714
▁وھ	-11.7716
▁اڏامون	-11.7716
ڊيو	-11.7717
▁ڄاڻين	-11.7718
▁ئه	-11.7719
▁رڪاوٽون	-11.7719
▁زيادي	-11.772
▁جست	-11.7723
خب	-11.7724
▁باغن	-11.7727
▁احمق	-11.7728
▁ستاره	-11.7729
▁متر	-11.7729
لعب	-11.773
▁ښ	-11.7731
جاب	-11.7732
IA	-11.7733
▁گويا	-11.7735
▁کوليا	-11.7736
▁امسك	-11.7738
▁ماڙ	-11.7739
▁72	-11.7742
▁350	-11.7743
شهر	-11.7743
▁تقبل	-11.7744
▁ڦاهي	-11.7745
▁فريد	-11.7746
▁توقعت	-11.7747
وبي	-11.7751
▁راسي	-11.7753
▁سانحي	-11.7753
▁رايح	-11.7758
ُور	-11.7761
-6	-11.7762
▁ڪنٽرولر	-11.7766
▁ڪرن	-11.7768
),	-11.7768
▁ٻوليء	-11.7768
آني	-11.7771
اريون	-11.7775
av	-11.7776
▁انٽيلي	-11.7777
▁ٻڪري	-11.7777
▁سانڍي	-11.7778
اكم	-11.7779
▁جهڪي	-11.7779
▁سھ	-11.7779
طار	-11.7779
▁ڪوٽڙي	-11.7781
▁شکر	-11.7781
▁خلاصه	-11.7785
▁ڇنڊ	-11.7787
▁پٽو	-11.7787
ييييي	-11.7788
▁ديسي	-11.7791
▁حالانڪ	-11.7791
▁بحرين	-11.7792
▁ڪاريون	-11.7797
▁بسيار	-11.7798
lol	-11.7798
▁گِ	-11.7801
▁هول	-11.7802
▁پورائي	-11.7807
فار	-11.7808
▁ند	-11.7808
▁أحس	-11.7809
▁93	-11.7813
▁ء	-11.7815
▁اسمع	-11.7817
بخش	-11.7819
▁وڻيو	-11.7819
▁صداي	-11.782
▁السر	-11.7822
▁معصومه	-11.7824
▁Outlook	-11.7825
▁اينالائيٽڪس	-11.7825
▁اڪاؤنٽ	-11.7825
▁انگلستان	-11.7825
▁جائداد	-11.7825
▁معجزو	-11.7825
▁اھڙا	-11.7825
▁پورهئي	-11.7825
▁مطهري	-11.7825
▁فرمايائون	-11.7825
▁ورهائجي	-11.7825
▁حُڪم	-11.7825
▁تلقين	-11.7825
▁رٻڙ	-11.7825
▁شعاع	-11.7826
▁ڊيلٽا	-11.7826
▁ديدگاه	-11.7826
▁ڊرامن	-11.7826
▁مشابه	-11.7826
▁YouTube	-11.7827
ابت	-11.7827
▁اوڏ	-11.7829
▁نروار	-11.7829
▁وٺندس	-11.7829
▁مقصود	-11.7829
▁عموما	-11.7829
▁مهاڳ	-11.7829
▁نائ	-11.783
▁Du	-11.783
▁زمينون	-11.783
▁ڪفن	-11.7831
▁اكتر	-11.7833
▁وَر	-11.7833
▁تط	-11.7834
▁صوبو	-11.7834
▁اقصد	-11.7835
▁ٿيان	-11.7835
▁ڀانئي	-11.7837
▁پهچائيندو	-11.7837
▁المو	-11.7838
▁واذا	-11.7839
form	-11.7842
▁زاويه	-11.7843
▁هئينءَ	-11.7843
▁والع	-11.7844
▁ڪوڪي	-11.7844
▁پينٽ	-11.7846
رررر	-11.7847
هههههههااي	-11.7849
▁هرڻ	-11.7849
▁شوفي	-11.7849
▁باهمي	-11.7853
▁رائعة	-11.7853
▁گال	-11.7855
▁op	-11.7855
▁جمل	-11.7856
▁ڪرائيندو	-11.7857
▁معايا	-11.7859
▁هِت	-11.786
▁اجراي	-11.7861
▁پاک	-11.7862
▁افق	-11.7862
{	-11.7863
▁قسمين	-11.7863
▁شركت	-11.7863
ُم	-11.7864
▁ماذا	-11.7864
▁واصل	-11.7867
▁قولت	-11.7867
▁سوالف	-11.7868
▁صاحبي	-11.787
▁ٿانو	-11.7873
ولر	-11.7873
▁پالي	-11.7873
▁مَر	-11.7874
▁جنين	-11.7875
سيل	-11.7877
اگو	-11.788
▁گھرندو	-11.7881
▁ڏاڍيون	-11.7882
راح	-11.7883
▁لمحا	-11.7883
▁اُداس	-11.7885
▁نوازي	-11.7885
▁ڪڍو	-11.7886
▁تحريرون	-11.7888
▁جھڙا	-11.7888
▁انتبه	-11.7889
▁شكراً	-11.789
▁ملف	-11.789
طة	-11.7893
▁sc	-11.7897
▁منجھان	-11.7897
▁أخوي	-11.7897
▁ڏيهي	-11.7898
▁ڪيفي	-11.7898
جها	-11.7902
▁ديپ	-11.7902
▁قومپرست	-11.7903
▁ex	-11.7909
ونها	-11.791
▁نئ	-11.7912
▁inter	-11.7917
▁انڌير	-11.7917
▁ارو	-11.792
▁زيان	-11.7921
قى	-11.7921
۔۔۔۔۔	-11.7922
نڍ	-11.7923
ھل	-11.7925
▁يادم	-11.7925
▁پهلوي	-11.7926
▁اسكت	-11.7927
بق	-11.793
▁غيرك	-11.7933
▁ڪمرا	-11.7933
على	-11.7933
▁71	-11.7934
▁ڇوڪر	-11.7935
▁اسمه	-11.7935
▁فش	-11.7939
▁گران	-11.7941
▁مرن	-11.7946
▁محلي	-11.7949
▁ٻيڙين	-11.795
]]	-11.7953
گاهه	-11.7955
▁اَچ	-11.7955
▁سينيٽر	-11.7956
▁آدمي	-11.7964
نتظر	-11.7964
اگ	-11.7966
ِڪ	-11.7969
▁آرين	-11.797
▁عهدن	-11.7972
▁بالك	-11.7973
▁فاصل	-11.7973
▁اسٽيشنن	-11.7974
نفس	-11.7975
▁Ti	-11.7976
▁ڳالهائين	-11.7977
داني	-11.7979
▁آئر	-11.7979
▁حڪومتون	-11.7982
روب	-11.7984
▁البا	-11.7985
▁نف	-11.7985
טּ	-11.7986
٫	-11.7986
▁اصفهان	-11.7986
▁پبليڪيشن	-11.7986
▁ڦاٿل	-11.7986
▁داعش	-11.7986
▁ٻاڦ	-11.7986
▁پاکستان	-11.7986
▁گدڙ	-11.7986
▁اعضاء	-11.7987
▁المشاركات	-11.7987
▁1984	-11.7987
▁ميشود	-11.7987
▁information	-11.7987
▁يخرب	-11.7987
▁ڏاڏن	-11.7987
▁عنجد	-11.7988
▁نڪرندڙ	-11.7988
▁سلائيڊ	-11.7988
▁پيئندو	-11.7988
▁ٺاھيندڙ	-11.7988
▁ڪهڙن	-11.7989
▁رٽائرڊ	-11.7989
▁سريلنڪا	-11.7989
▁صنم	-11.7989
▁سرشتي	-11.7989
▁آمريت	-11.799
▁SQL	-11.799
▁طاهر	-11.7991
▁الجميل	-11.7991
▁الارم	-11.7992
▁لڌا	-11.7992
▁ڊائن	-11.7992
▁مفڪر	-11.7992
▁لڌي	-11.7992
▁ٻڌندڙ	-11.7992
▁کوجنا	-11.7993
▁جانشين	-11.7993
▁المدير	-11.7995
▁USD	-11.7995
▁فنگر	-11.7996
▁ٻير	-11.7996
▁بُک	-11.7999
▁اُتان	-11.8
▁گياهان	-11.8
▁پلاننگ	-11.8
▁نعرا	-11.8001
▁right	-11.8001
▁زه	-11.8002
▁قضا	-11.8003
▁بلاگرز	-11.8005
▁اسير	-11.8007
▁حول	-11.8013
مام	-11.8016
▁ويهين	-11.8018
▁گيمز	-11.8018
▁ٻانهون	-11.8019
1)	-11.802
▁نرمي	-11.8022
▁حوصلو	-11.8022
▁ڪنٽينر	-11.8023
وک	-11.8023
رسوخ	-11.8024
ورت	-11.8027
▁يدي	-11.8027
▁سگهندين	-11.8028
اسڪ	-11.8029
▁ٽون	-11.803
▁ڦاس	-11.8032
▁بُر	-11.8033
اية	-11.8033
▁آلله	-11.8035
يبه	-11.8035
ii	-11.8037
▁لنڪا	-11.8039
▁مانيءَ	-11.804
ui	-11.8041
▁چارو	-11.8041
ائد	-11.8041
▁ٽرم	-11.8042
ze	-11.8043
▁رُخ	-11.8044
▁زهريل	-11.8047
▁فط	-11.8048
▁مغز	-11.8051
IC	-11.8052
als	-11.8053
▁مستي	-11.8054
▁بروح	-11.8057
NA	-11.8058
▁ڀُل	-11.8064
▁گھٽجي	-11.8064
▁ايرو	-11.8064
▁موجودگيءَ	-11.8065
▁02	-11.807
▁باطل	-11.807
▁افقي	-11.8071
تُ	-11.8073
قات	-11.8074
ارٽ	-11.8077
▁پهه	-11.8079
▁چهارم	-11.8083
▁اتم	-11.8088
يط	-11.8089
▁هينري	-11.809
عود	-11.8093
▁گھڻيون	-11.8093
ومين	-11.8095
گنگ	-11.8097
▁ويچارو	-11.8098
ورڪ	-11.8102
▁موسمياتي	-11.8105
▁بيهوش	-11.8106
▁قليل	-11.8106
4:	-11.8106
رچ	-11.8109
Re	-11.8109
لج	-11.811
▁العام	-11.8111
▁ir	-11.8112
▁فرشت	-11.8113
▁ويڪرو	-11.8115
▁TM	-11.8116
▁نايم	-11.8117
ٖ	-11.8118
▁---	-11.8119
▁گهور	-11.8124
ندگي	-11.8125
▁دس	-11.8125
قرآن	-11.8126
▁فك	-11.8129
▁پابندين	-11.8131
▁__	-11.8132
▁كلو	-11.8133
our	-11.8134
▁fa	-11.8136
▁سولر	-11.8137
▁غيب	-11.8138
▁قاعد	-11.8138
ڀو	-11.8139
▁ليت	-11.8141
▁موسي	-11.8142
▁تعليمات	-11.8142
▁خانم	-11.8144
▁no	-11.8149
▁Daily	-11.815
▁اسٽيبلشمينٽ	-11.815
▁نمائندا	-11.815
▁سيکارڻ	-11.815
▁دعوى	-11.815
▁مٿاهون	-11.815
▁سيمالٽ	-11.815
▁نظارن	-11.815
▁کميسيون	-11.815
▁غافل	-11.815
▁ٻاجھ	-11.815
▁چگونگي	-11.8151
▁اندرويد	-11.8151
▁(7)	-11.8151
▁رأيك	-11.8151
▁not	-11.8151
▁ٻيڙيء	-11.8152
▁مبتني	-11.8152
▁پڙهايو	-11.8152
▁ڪوئيٽا	-11.8152
▁روٽر	-11.8153
▁اعجبتني	-11.8154
▁تجربيڪار	-11.8155
▁لوقا	-11.8155
▁باخبر	-11.8155
▁مثلاً	-11.8156
▁رغد	-11.8156
▁ڀال	-11.8156
▁ٽيڪن	-11.8156
="8	-11.8156
▁لائف	-11.8157
▁ٻوڙ	-11.8158
▁كويس	-11.8158
▁سمجھن	-11.8161
▁مستحيل	-11.8162
▁فيڊرل	-11.8163
▁نق	-11.8163
▁شڪريو	-11.8167
ساله	-11.8167
▁ڏهاڙو	-11.8168
▁ڀڃ	-11.8169
تائي	-11.8169
▁ٽيچر	-11.817
▁معاونت	-11.8173
▁ڇڏينداسين	-11.8174
▁تقدر	-11.8174
اسه	-11.8175
يمكن	-11.8177
;)	-11.8178
▁حركات	-11.8178
▁اميدون	-11.8179
▁سامراجي	-11.8179
▁اسمها	-11.8181
▁ڏوهي	-11.8183
▁ھت	-11.8186
▁جيڪب	-11.8186
▁ID	-11.8187
▁شگر	-11.8187
▁ڦوڪ	-11.8187
▁5000	-11.8187
▁گپ	-11.8187
▁ابل	-11.8188
▁نچي	-11.8188
▁آميز	-11.8188
هائي	-11.819
▁ڌنڌ	-11.8191
ليون	-11.8192
0،000	-11.8194
▁اض	-11.8197
▁مچائي	-11.8198
▁درجن	-11.8199
▁هئاسون	-11.8201
pt	-11.8202
dy	-11.8202
▁رنو	-11.8204
ڙِي	-11.8204
▁ابليسك	-11.8207
پپي	-11.8209
yl	-11.821
▁رسولن	-11.8211
ED	-11.8213
▁جيوت	-11.8214
ڊيم	-11.8221
▁Pre	-11.8221
تار	-11.8222
▁ساڳين	-11.8222
▁أبو	-11.8224
▁قصدي	-11.8226
▁پيوسته	-11.8229
▁مامو	-11.8229
▁لِک	-11.8231
▁واللي	-11.8232
▁اسر	-11.8232
▁ڪہ	-11.8235
▁قدام	-11.8236
هري	-11.8241
َرُ	-11.8245
▁ذهنن	-11.8247
▁واڳ	-11.8248
▁چاڪ	-11.8249
SA	-11.825
▁آموزش	-11.8251
▁ٺڳ	-11.8252
▁ڀَر	-11.8253
▁گهڙيون	-11.8256
▁ويھ	-11.8257
tu	-11.8259
▁خسار	-11.8259
▁گهٽايو	-11.826
▁سمع	-11.8261
ريق	-11.8262
▁سينه	-11.8263
▁بچا	-11.827
ign	-11.8272
ٿين	-11.8273
زير	-11.8275
کين	-11.8278
▁تره	-11.8278
ِّ	-11.8282
اويه	-11.8282
ولة	-11.8283
ڳڻ	-11.8285
▁اٿل	-11.8286
ino	-11.8289
▁سجاڳي	-11.829
٤	-11.829
تصوير	-11.8291
▁160	-11.8291
گهو	-11.8293
▁أر	-11.8293
▁ريگ	-11.8294
▁پيئ	-11.8294
▁پڪڙ	-11.8294
ايڪس	-11.8295
▁ڄمي	-11.8297
▁2-3	-11.8301
▁نسب	-11.8301
▁li	-11.8302
▁پرستار	-11.8307
اخر	-11.8307
▁چڙ	-11.8308
▁سَن	-11.8309
▁گروي	-11.831
▁صرت	-11.831
▁حجر	-11.831
▁ذھن	-11.8311
▁خانا	-11.8312
حف	-11.8312
سُ	-11.8313
▁ريسٽ	-11.8313
▁پهاڙي	-11.8314
ٔ	-11.8316
▁API	-11.8317
▁روڪٿام	-11.8317
▁مرکوز	-11.8317
▁سگهبو	-11.8317
▁انرژي	-11.8317
▁پرڏيهه	-11.8317
को	-11.8317
▁فيڪلٽي	-11.8317
▁رچرڊ	-11.8317
▁آٿت	-11.8317
▁فوٽوگرافي	-11.8317
▁مختيار	-11.8317
▁ٻچن	-11.8317
▁ٽيمپليٽ	-11.8317
ليز	-11.8318
▁1989	-11.8318
▁هائپر	-11.8318
ara	-11.8319
▁نبض	-11.832
▁ويٺس	-11.8321
دوست	-11.8322
▁حش	-11.8322
▁قصة	-11.8323
▁راكان	-11.8323
▁ذخيرا	-11.8324
▁ٽيڪساس	-11.8325
▁وڌا	-11.8325
▁پڇندو	-11.8326
امير	-11.8327
▁ڏڪڻ	-11.8327
▁تصير	-11.8328
▁نوشت	-11.8329
▁مقلب	-11.8329
قدم	-11.8332
▁110	-11.8332
▁اشتري	-11.8333
▁ورڻ	-11.8333
▁61	-11.8333
▁نشريات	-11.8334
els	-11.8335
▁ڪِري	-11.8335
▁جرسي	-11.8336
▁تائيد	-11.8338
▁نسوي	-11.8338
▁www	-11.8339
▁افسان	-11.8341
▁حيواني	-11.8342
▁کنئي	-11.8343
▁برتر	-11.8343
▁،،،	-11.8343
▁ارمان	-11.8344
▁ڊول	-11.8344
مڻ	-11.8344
▁ڪيمپس	-11.8345
▁ڦوٽو	-11.8345
▁اوپو	-11.8345
▁اسڪائي	-11.8346
▁نامه	-11.8351
▁ڇاتي	-11.8352
زور	-11.8353
واهه	-11.8356
▁ڪڍيا	-11.8357
▁المل	-11.8357
▁ٺه	-11.836
▁ويندين	-11.836
▁نڪرندا	-11.8362
▁سهم	-11.8363
آزاد	-11.8366
داخل	-11.8368
▁اختلافن	-11.8369
▁بارك	-11.837
سَ	-11.8373
▁تنهائي	-11.8377
▁ڦٽو	-11.8378
▁گوئي	-11.8378
▁مڃيل	-11.838
▁ورڪنگ	-11.8382
تيها	-11.8382
▁چوٽيءَ	-11.8382
▁ڌاڙيلن	-11.8383
▁اٿاريو	-11.8383
▁مابي	-11.8387
▁صا	-11.8387
▁Un	-11.8388
▁جئ	-11.8388
▁ذهبي	-11.8393
▁ڏينه	-11.8396
▁ميوي	-11.8398
▁ججن	-11.8398
▁لمن	-11.8399
▁بيك	-11.8401
▁باشند	-11.8406
▁گذشت	-11.841
▁پارو	-11.8414
▁لينن	-11.8414
تور	-11.8414
▁اچڻو	-11.8416
▁دراز	-11.8416
ميٽر	-11.8418
▁زود	-11.842
▁باک	-11.842
▁زوري	-11.842
وآ	-11.8422
▁عيوني	-11.8424
▁ڀان	-11.8424
▁بوده	-11.8425
▁ڪنجي	-11.8425
▁فديت	-11.8427
ڪول	-11.8427
هاري	-11.8428
▁بليو	-11.8431
ارڪ	-11.8432
mon	-11.8436
▁جعل	-11.8442
▁ٽوڙ	-11.8443
▁ايوي	-11.8443
ٽون	-11.8445
▁ڪاربن	-11.8448
▁ميڊل	-11.8448
▁أول	-11.8451
▁1-2	-11.8452
▁شاديون	-11.8453
اھو	-11.8453
▁كسي	-11.8453
▁اسڪو	-11.8457
▁سفارتخان	-11.846
▁ھائو	-11.8461
▁ميمو	-11.8462
شناسي	-11.8463
▁Wa	-11.8463
يوم	-11.8463
▁قي	-11.8465
▁مديره	-11.8466
▁سهر	-11.8467
باز	-11.8468
سمي	-11.8471
ny	-11.8473
▁كد	-11.8474
▁بانو	-11.8478
▁احبه	-11.8479
یش	-11.8482
▁97	-11.8483
تعليم	-11.8485
▁بارسلونا	-11.8486
▁مينيجمينٽ	-11.8486
▁ڌانڌلي	-11.8486
▁کثافت	-11.8486
▁نژاد	-11.8486
عالم	-11.8486
▁لذت	-11.8486
▁مافهمت	-11.8486
▁معلش	-11.8487
▁وائرليس	-11.8487
▁1973	-11.8487
▁الفاظ	-11.8487
▁رشوت	-11.8487
▁کٽيو	-11.8487
▁باشعور	-11.8488
▁اکڙين	-11.8488
▁ويبسائيٽ	-11.8488
▁مناظر	-11.8488
▁آڪاش	-11.8488
اڍائي	-11.8489
▁روبرو	-11.849
▁سرجري	-11.8491
▁درحقيقت	-11.8492
▁ٺڪر	-11.8493
▁ڇڏائڻ	-11.8493
▁رليف	-11.8494
▁پيٽرن	-11.8495
ادة	-11.8496
▁ڪرپٽ	-11.8498
▁کائنس	-11.8498
دني	-11.8498
▁يج	-11.8499
▁تاريخچه	-11.8499
طبق	-11.8499
▁نح	-11.85
▁پيشنهاد	-11.85
▁جھڙوڪ	-11.85
▁تلخ	-11.8501
▁ضلعو	-11.8501
جرب	-11.8502
▁ٽوٽل	-11.8502
ااان	-11.8502
▁وردة	-11.8503
▁مقاله	-11.8503
ههههههههاي	-11.8504
شڪ	-11.8505
▁روئندي	-11.8506
بُ	-11.8506
▁تعجبني	-11.8507
▁هآ	-11.8508
▁دسته	-11.8509
راس	-11.8509
صنع	-11.851
ence	-11.8516
غرب	-11.8518
ڄاڻ	-11.852
▁مھا	-11.8521
▁ٻاراڻي	-11.8525
▁66	-11.8526
▁پنو	-11.8526
▁انھي	-11.8526
هڙ	-11.8527
▁والوز	-11.8528
▁هوائن	-11.8528
▁بنگالي	-11.8531
▁علينا	-11.8533
ڙهو	-11.8533
▁شيوه	-11.8533
▁قديمه	-11.8535
▁10-	-11.8536
راق	-11.8537
▁زنا	-11.854
▁خودرو	-11.854
▁سمجهين	-11.8541
ڪرو	-11.8542
ويت	-11.8542
▁چينلز	-11.8543
▁انفراديت	-11.8546
▁چڙهيل	-11.8546
▁غر	-11.8546
▁ربن	-11.8547
▁ڏاند	-11.8548
▁وڌائيندي	-11.855
▁شوفو	-11.8551
احي	-11.8551
بيا	-11.8552
▁نازي	-11.8553
ينس	-11.8553
▁آزاديء	-11.8554
▁تبليغات	-11.8556
▁بانڊ	-11.8557
▁82	-11.8558
▁بتيون	-11.8558
اتر	-11.8559
▁سڪو	-11.8559
▁05	-11.856
▁اقولك	-11.8563
▁پنا	-11.8564
▁چلو	-11.8564
▁ساڳيون	-11.8565
▁بيج	-11.8566
لاگ	-11.8566
اريءَ	-11.8567
▁ٽوڙيو	-11.8567
اڊ	-11.8568
▁انرجي	-11.8571
▁ميڙي	-11.8572
▁العب	-11.8574
▁جهلڪ	-11.8575
▁سبي	-11.8579
َس	-11.858
▁ٽڪيٽن	-11.858
▁جيمس	-11.8581
▁حاس	-11.8582
▁اصلاحي	-11.8583
عذر	-11.8584
▁Man	-11.8587
ضع	-11.8587
بني	-11.8588
▁مئن	-11.859
▁(5	-11.859
دَ	-11.8591
▁مرس	-11.8591
▁سپيد	-11.8591
▁گياه	-11.8592
▁احبك	-11.8592
▁ننگر	-11.8593
▁وحش	-11.8594
▁چريا	-11.8594
▁مصرف	-11.8596
▁بانک	-11.8598
هيون	-11.8598
وما	-11.86
▁ڏه	-11.8602
▁مصور	-11.8604
امن	-11.8606
▁ساه	-11.8606
يخ	-11.8608
▁نظامي	-11.861
▁جاب	-11.8618
▁تعليقك	-11.8618
▁نمبرن	-11.8618
red	-11.8619
▁روزا	-11.8619
▁عد	-11.862
▁ونڊي	-11.8623
▁شماري	-11.8629
▁out	-11.863
▁گلا	-11.8632
برو	-11.8635
َرِ	-11.8641
▁مساج	-11.8641
▁اچون	-11.8642
ach	-11.8644
▁پڙھو	-11.8645
▁ڏن	-11.865
▁فنڪارن	-11.8657
▁نائيجيريا	-11.8658
▁يونيفارم	-11.8658
▁پئڪيج	-11.8658
▁سخاوت	-11.8659
▁اصغر	-11.8659
▁اعجاز	-11.8659
▁رواداري	-11.8659
▁آماده	-11.8659
▁إيه	-11.8659
▁سونهري	-11.866
▁ٻڌايائين	-11.866
▁اڪرم	-11.866
▁يومين	-11.866
▁وڪوڙي	-11.866
▁اچرج	-11.8661
▁پينشن	-11.8662
▁لاڙڪاڻو	-11.8662
▁pa	-11.8662
▁بظاهر	-11.8663
تيه	-11.8663
▁ٿيءُ	-11.8663
▁مئٽرڪ	-11.8663
▁take	-11.8664
AA	-11.8664
▁سنڀاليندو	-11.8664
▁مرتضي	-11.8665
▁خمير	-11.8665
ووووووو	-11.8666
▁بروقت	-11.8666
▁مٺ	-11.8666
▁وٽامن	-11.8667
پت	-11.8668
مآ	-11.8668
▁Ka	-11.8668
▁اوتار	-11.8669
▁ويجها	-11.8669
▁سائ	-11.8669
▁ღ	-11.867
▁ميدوني	-11.8671
▁تحميل	-11.8671
▁لوسي	-11.8671
▁اٿوَ	-11.8674
▁لٿي	-11.8674
▁گمراهه	-11.8675
▁post	-11.8676
▁ڏنس	-11.8676
▁يفهم	-11.8677
▁جنازي	-11.8677
▁نارنجي	-11.8678
CO	-11.8679
▁هد	-11.8679
وليو	-11.868
▁دڳ	-11.8681
▁الليل	-11.8681
▁جفا	-11.8681
▁آڌي	-11.8681
▁ميڊ	-11.8682
▁چيئر	-11.8683
▁هجون	-11.8685
▁فيفا	-11.8687
گرم	-11.8689
▁work	-11.8691
▁str	-11.8692
▁ڪنگڻ	-11.8694
▁دَ	-11.8695
▁ٽائل	-11.8695
اڻايل	-11.8696
▁آياسين	-11.8696
▁منسٽر	-11.8697
▁تکو	-11.8698
▁ڊنر	-11.8699
▁ڪعبي	-11.87
▁ڏيکاء	-11.8702
ڊيا	-11.8702
▁ايڊز	-11.8703
▁رائد	-11.8704
mg	-11.8704
▁بڻائين	-11.8705
▁مدام	-11.8705
ani	-11.8708
▁مچي	-11.8709
PS	-11.8709
ake	-11.8711
▁ڌريون	-11.8711
▁ٻيلو	-11.8714
,,,	-11.8715
▁عشر	-11.8717
▁جيلن	-11.8717
▁أش	-11.8718
▁ٽيلر	-11.8721
▁کري	-11.8724
▁بادشاهن	-11.8725
▁نڪر	-11.8726
▁باقر	-11.8727
▁خف	-11.8734
▁پَس	-11.8734
▁سنين	-11.8735
سكت	-11.8735
▁As	-11.8738
▁ٽيٽ	-11.8739
▁معناها	-11.874
▁he	-11.874
▁نوشي	-11.8742
▁رجب	-11.8744
▁وڍ	-11.8745
▁ډ	-11.8746
▁وڪڻ	-11.8746
اپيل	-11.8746
▁ميڻ	-11.8747
▁گوش	-11.8749
▁جهر	-11.875
ترو	-11.8751
▁Po	-11.8751
درو	-11.8752
▁خاصه	-11.8752
▁سأ	-11.8753
▁متع	-11.8753
ھڙ	-11.8754
▁مهلت	-11.8757
▁گرما	-11.8757
eb	-11.8757
▁يله	-11.8758
▁ٍ	-11.8762
▁يخلي	-11.8763
غار	-11.8764
▁واڌو	-11.8764
▁ڪرايون	-11.8765
▁ڪيوسون	-11.8771
5,000	-11.8773
اوا	-11.8773
▁بانس	-11.8773
واٽ	-11.8774
▁ڏاڏا	-11.8775
▁واخ	-11.8777
▁81	-11.8779
▁لق	-11.8779
زمين	-11.8782
▁يوري	-11.8782
▁باين	-11.8784
▁آذر	-11.8785
0.000	-11.8785
▁دعائ	-11.8785
فورڊ	-11.8786
بہ	-11.8786
▁لسان	-11.8787
ٿان	-11.8787
پول	-11.8789
▁ڪاٺي	-11.8789
▁چيري	-11.8789
ٿيل	-11.8792
▁صفات	-11.8794
▁اميرن	-11.8795
▁فول	-11.8797
▁لڙي	-11.8797
▁مشير	-11.8797
▁تحط	-11.8797
▁سلف	-11.8798
▁روبي	-11.8803
▁سيلون	-11.8803
net	-11.8803
▁ڀڳو	-11.8804
گم	-11.8807
٨	-11.8807
يوٽ	-11.8807
♥	-11.8808
▁ڪِن	-11.881
عى	-11.8813
▁معز	-11.8814
▁آفر	-11.8815
ائبو	-11.8815
عني	-11.8817
ريب	-11.882
▁بابي	-11.882
▁u	-11.8822
▁نااهل	-11.8823
▁وٿي	-11.8823
ja	-11.8824
▁ريجن	-11.8825
<<<	-11.8825
▁سفارشون	-11.8825
▁لاڙو	-11.8825
▁قرن	-11.8827
سی	-11.8827
▁زخمين	-11.8828
▁مهو	-11.8829
وڪري	-11.8829
جة	-11.8829
▁تاپ	-11.8831
▁سيٽلائيٽ	-11.8834
▁لذيذ	-11.8834
▁ڪرسٽوفر	-11.8834
▁معشوق	-11.8834
▁مبلغ	-11.8834
▁ميسينجر	-11.8834
▁اسڪوائر	-11.8834
▁شمشير	-11.8834
▁حزب	-11.8834
▁گهوڙا	-11.8834
▁ورکړئ	-11.8834
▁گزينه	-11.8835
▁پليٽفارم	-11.8835
▁أحلى	-11.8835
▁نبوت	-11.8835
▁پهتل	-11.8835
يڪس	-11.8836
▁1977	-11.8836
▁تعدد	-11.8836
▁دوڪان	-11.8836
▁وڃائجي	-11.8836
▁شرعي	-11.8836
▁انتقال	-11.8837
▁ڪڏهين	-11.8838
▁structure	-11.8838
▁ثلاث	-11.8838
▁تغيير	-11.8838
▁1930	-11.8838
▁نظارا	-11.8839
▁اجهو	-11.8839
▁♪	-11.8839
▁ڪنسول	-11.8842
▁شک	-11.8842
▁اخاف	-11.8844
▁ڀڳوان	-11.8846
▁اضرب	-11.8847
▁اثاثو	-11.8847
▁نبين	-11.8847
▁تكفون	-11.8847
▁known	-11.8849
▁گردد	-11.885
▁ڄائي	-11.8853
▁مڱ	-11.8853
▁ويگن	-11.8853
▁نقشا	-11.8854
▁مايو	-11.8854
▁مقدم	-11.8856
▁دوکي	-11.8856
▁درگاهه	-11.8859
▁01	-11.886
▁خپل	-11.886
▁ٽاسڪ	-11.8862
800	-11.8863
شايد	-11.8863
يں	-11.8863
▁آڱري	-11.8865
يتا	-11.8865
▁شعار	-11.8865
▁پيارن	-11.8872
ore	-11.8875
رحم	-11.8877
▁لڳايا	-11.8877
▁لنگر	-11.8879
▁پيانو	-11.888
▁GT	-11.8882
▁كنه	-11.8882
▁تراني	-11.8885
▁فلمي	-11.8887
▁ڦاٽي	-11.8889
▁لوهي	-11.8894
▁مشاهد	-11.8895
▁ارس	-11.8895
وفي	-11.8896
▁ملاقاتون	-11.8899
▁مزاجي	-11.89
AC	-11.8901
▁وراك	-11.8903
▁موب	-11.8906
▁z	-11.8907
▁زان	-11.8907
▁فردوس	-11.8907
▁your	-11.8908
▁جامعه	-11.8908
▁دلع	-11.8909
فيس	-11.8909
du	-11.8913
uck	-11.8913
▁ٽپال	-11.8914
▁اندام	-11.8918
▁خش	-11.8919
▁لهه	-11.8919
▁گندو	-11.892
vel	-11.892
▁res	-11.892
▁صر	-11.8921
شكل	-11.8921
يڪيوم	-11.8924
▁جوتن	-11.8925
▁ڪچو	-11.8925
قِ	-11.8926
▁مرغ	-11.8926
▁ريشم	-11.8927
َڻ	-11.8927
بقي	-11.893
ّر	-11.893
أس	-11.8934
▁گرفتن	-11.8936
▁خيز	-11.8938
▁راديو	-11.8938
▁ٽڙي	-11.8938
ama	-11.8939
▁دارم	-11.8939
▁واهي	-11.8942
▁مڙهي	-11.8942
▁نَه	-11.8949
اَ	-11.895
▁اوست	-11.8951
ھائي	-11.8952
▁ابليس	-11.8952
▁لٽي	-11.8952
▁ٽاڪ	-11.896
▁89	-11.8962
▁پولس	-11.8965
▁ربيع	-11.8967
="0.2	-11.8967
▁نحن	-11.8967
اهل	-11.8968
▁بڪس	-11.897
dd	-11.8973
▁خخخخ	-11.8974
▁حن	-11.8974
وير	-11.8974
▁هرچي	-11.8976
▁درياء	-11.8977
گلي	-11.8978
▁أع	-11.8978
▁Ca	-11.898
▁ماڳن	-11.898
حقيقت	-11.898
▁83	-11.898
▁رپورٽر	-11.8981
▁وڪام	-11.8982
اپو	-11.8982
▁بيتن	-11.8982
EN	-11.8985
▁تنه	-11.8988
▁سانتا	-11.899
کاري	-11.8994
▁بڻائيندا	-11.8995
▁بطل	-11.8996
▁موض	-11.8996
فرح	-11.8997
▁وردي	-11.9002
▁ڇَ	-11.9004
سوس	-11.9006
▁جڳائي	-11.9008
▁ميکني	-11.9008
▁ٽپي	-11.9009
▁throughout	-11.9012
▁ايجوڪيشن	-11.9012
▁مھينو	-11.9012
▁مڱريو	-11.9013
▁وڪالت	-11.9013
▁تفاوت	-11.9013
▁have	-11.9013
▁وڙهندي	-11.9014
▁رضه	-11.9014
▁اٿائين	-11.9014
▁سجاول	-11.9015
▁إي	-11.9015
▁وحشت	-11.9016
▁پيٽروليم	-11.9016
▁اخراج	-11.9018
▁سازگار	-11.9018
▁شفافيت	-11.9019
▁سالميت	-11.9019
▁ويڙھ	-11.9019
ٻر	-11.9019
▁ٽٽل	-11.902
▁يعينك	-11.902
▁قاصد	-11.9021
▁بنفس	-11.9021
▁سوشلزم	-11.9021
▁السجن	-11.9021
▁ڪوٽا	-11.9022
جمل	-11.9023
▁ملاحظه	-11.9026
▁پھچڻ	-11.9027
▁شوراي	-11.9027
Co	-11.9027
ڄي	-11.9029
▁ڪٿ	-11.9032
▁ذخيري	-11.9033
▁يقدر	-11.9033
▁رضي	-11.9034
▁پرفارم	-11.9035
▁محو	-11.9037
ڪُ	-11.9037
▁بمبئيءَ	-11.9037
▁ڊائريڪٽرن	-11.9038
رآ	-11.9039
ڄڻ	-11.9039
▁اخير	-11.9041
▁رشته	-11.9043
▁لبى	-11.9046
▁الذ	-11.9046
▁حجت	-11.905
مسك	-11.905
▁1500	-11.905
قين	-11.9052
▁توپ	-11.9053
وٽا	-11.9055
▁ويهندي	-11.9056
▁پرايد	-11.9058
▁ميراث	-11.9061
▁موديل	-11.9061
▁سگهياسين	-11.9063
فارم	-11.9066
▁سياه	-11.9066
▁زند	-11.9067
▁اخواني	-11.9069
بات	-11.9069
▁ليز	-11.9071
لامي	-11.9071
▁وجهندي	-11.9076
▁سيري	-11.908
▁ننهن	-11.908
▁شعل	-11.9081
غم	-11.9085
▁کجا	-11.9085
▁سردارن	-11.9085
▁دائم	-11.9086
▁سے	-11.9089
گاري	-11.9091
oc	-11.9092
▁هڻندا	-11.9092
AD	-11.9093
▁علمن	-11.9094
ثار	-11.9095
▁پپ	-11.9096
▁لاٽ	-11.9101
▁جی	-11.9102
▁ماڻڻ	-11.9102
▁هُج	-11.9103
قرأ	-11.9103
▁ننڍڙ	-11.9104
رته	-11.9105
▁ناش	-11.9107
▁انڌا	-11.9108
▁بابر	-11.9108
300	-11.911
▁رسمون	-11.9111
▁تحي	-11.9112
▁منافق	-11.9113
▁نوره	-11.9115
دفع	-11.9116
3-	-11.9118
▁سڏائي	-11.912
▁مزاح	-11.9121
▁معاه	-11.9122
▁هارون	-11.9123
▁ملنديون	-11.9124
▁حسيني	-11.9126
▁^^"	-11.9127
▁PS	-11.9129
▁پِر	-11.9129
نواز	-11.913
رجع	-11.9133
tan	-11.9135
▁هڙ	-11.9135
لاءِ	-11.9135
هلي	-11.9136
▁سانچا	-11.9137
▁94	-11.9137
ةِ	-11.9138
▁ڀڙ	-11.9138
▁هيج	-11.914
▁ومع	-11.914
سٽس	-11.9142
▁ڪاپيون	-11.9144
="10	-11.9146
▁So	-11.9147
دير	-11.9147
▁ڀون	-11.9148
گرا	-11.9149
▁جهٽ	-11.9149
▁انٽ	-11.9154
▁مڃيندا	-11.9157
▁زل	-11.916
▁فائز	-11.916
▁پھچ	-11.9164
▁چپس	-11.9166
ates	-11.9167
[2]	-11.9168
هندي	-11.9172
اڪا	-11.9174
كة	-11.9175
▁عيسائين	-11.9177
▁جانان	-11.9179
سندس	-11.9179
گذاري	-11.918
▁اسٽوري	-11.9181
▁آج	-11.9181
▁Me	-11.9182
سچو	-11.9184
▁رپ	-11.9185
▁عَ	-11.9185
ظل	-11.9186
▁بائيو	-11.9187
ائش	-11.9188
وڪو	-11.9191
▁جوڙيل	-11.9193
په	-11.9194
ڤ	-11.9194
î	-11.9194
▁ارزيابي	-11.9194
▁يروشلم	-11.9194
▁′′	-11.9194
▁المشكله	-11.9194
▁پاڳل	-11.9194
▁مھمان	-11.9194
▁افريقا	-11.9194
▁سيستم	-11.9195
▁يونائيٽي	-11.9195
▁فٽنيس	-11.9195
▁ماقلت	-11.9195
▁تشڪيل	-11.9195
▁تاڪيد	-11.9195
▁باورچ	-11.9195
▁1983	-11.9195
▁انجليزي	-11.9196
▁رنسون	-11.9197
▁بخصوص	-11.9198
▁همس	-11.9198
▁ترديد	-11.9198
▁وجهو	-11.9199
▁سعي	-11.9199
▁سگھيا	-11.9199
▁جبتيها	-11.9199
▁ڳجهي	-11.92
▁ڀنڀور	-11.92
▁مصدق	-11.9202
SI	-11.9203
▁ڪاٽي	-11.9203
افه	-11.9203
II	-11.9204
▁گاريون	-11.9205
▁دكتور	-11.9206
قرب	-11.9207
▁منشور	-11.9207
▁جائي	-11.9208
▁ڪونج	-11.9208
شريف	-11.9208
▁اهلا	-11.9208
▁ٽائمز	-11.9208
▁نمياد	-11.9209
▁فرحت	-11.921
▁گهڙين	-11.921
▁منجهيل	-11.9211
▁ڪيٽيگري	-11.9211
▁رعب	-11.9212
▁وغير	-11.9212
راءِ	-11.9212
▁مطالعات	-11.9212
ole	-11.9212
▁گليڪسي	-11.9214
gen	-11.9215
▁اتش	-11.9216
▁عزيزتي	-11.9217
▁ڪوتاهي	-11.9217
▁حو	-11.9217
▁حجاب	-11.9218
▁وهائي	-11.922
▁ڳنڍ	-11.9222
▁اخوك	-11.9223
▁اسف	-11.9224
▁پولنگ	-11.9224
ڪام	-11.9226
▁چهرن	-11.9227
▁کائين	-11.9229
اليه	-11.9229
▁نكتة	-11.923
▁Bit	-11.9231
▁مجسمو	-11.9232
▁ويچارا	-11.9234
▁ٻاهرئين	-11.9238
▁چهرا	-11.9241
▁کوليون	-11.9243
▁رحلت	-11.9243
اخذ	-11.9243
lt	-11.9244
ٽَ	-11.9246
▁پريت	-11.9246
▁جڏ	-11.9247
▁دلدار	-11.9249
دگي	-11.9249
▁سابق	-11.9249
▁زار	-11.925
▁مجنونه	-11.925
▁سنگيت	-11.925
▁ٻيڙو	-11.9251
▁ساهيڙي	-11.9251
▁اهنگ	-11.9251
ized	-11.9252
ووي	-11.9256
▁وسندي	-11.9257
▁ڇِ	-11.9257
▁اداسي	-11.926
▁شرڪ	-11.926
▁اولا	-11.9262
▁روپي	-11.9262
▁پاسا	-11.9262
▁شهريت	-11.9263
ليت	-11.9263
شهد	-11.9264
out	-11.9266
ھار	-11.9268
▁رهيبه	-11.9268
▁پُڇيو	-11.927
▁3.1	-11.9272
▁700	-11.9272
▁عيال	-11.9272
▁بآ	-11.9275
مرد	-11.9276
▁غداري	-11.9277
▁مدرسي	-11.9277
وگو	-11.9278
اھيو	-11.9279
▁مليس	-11.928
-3	-11.928
ult	-11.9282
▁توڻي	-11.9282
▁سپاهين	-11.9283
▁ڪرائ	-11.9285
فضل	-11.9285
يييييييي	-11.9286
▁تز	-11.9286
▁مشاهدي	-11.9288
▁شدي	-11.9288
؟."	-11.9289
▁ازم	-11.9289
▁صارت	-11.9289
▁شناس	-11.9292
أي	-11.9294
▁Do	-11.9295
▁سجاد	-11.9297
▁مشرق	-11.9298
وڻي	-11.9301
▁سودو	-11.9301
▁ٽيڪسي	-11.9301
وارن	-11.9301
▁بُڪ	-11.9302
عجز	-11.9304
▁فاط	-11.9306
▁پناهي	-11.9307
▁هڏن	-11.9308
▁لعبه	-11.9308
▁بدري	-11.9308
▁بابو	-11.9309
▁ڀائيوار	-11.931
▁عمرك	-11.9312
▁مذھب	-11.9312
ائس	-11.9314
اهش	-11.9314
▁عبا	-11.9318
▁هيهيهي	-11.9327
▁بخور	-11.9329
▁پاند	-11.9329
ert	-11.9331
▁تدريس	-11.9333
▁سببان	-11.9334
▁صحي	-11.9337
مره	-11.9338
ِيو	-11.9339
ركب	-11.9339
▁ڳاٽ	-11.9341
شد	-11.9341
پيا	-11.9342
▁سائڊ	-11.9342
▁نيپ	-11.9346
رنگي	-11.935
▁هش	-11.935
ظاهر	-11.9352
زال	-11.9352
▁يسلمووو	-11.9352
تعليق	-11.9353
اااااااااااااا	-11.9353
▁مكن	-11.9354
صديق	-11.9354
▁لئ	-11.9355
▁سهڻ	-11.9356
▁علامتي	-11.9356
▁حلوووو	-11.9358
▁خلف	-11.936
▁جواهر	-11.9361
▁جاسوس	-11.9363
▁آکاڻي	-11.9363
▁ذر	-11.9364
▁نحو	-11.9365
▁دردن	-11.9366
پنگ	-11.9366
ٽائي	-11.9367
رفت	-11.9367
لائ	-11.9369
▁بلٽ	-11.937
▁بيانيه	-11.937
▁ميدو	-11.9371
▁اوسر	-11.9374
mu	-11.9375
▁Su	-11.9376
▁پيلي	-11.9376
▁Blackjack	-11.9379
▁سٹیل	-11.9379
▁نمائندي	-11.9379
▁ورچوئل	-11.9379
▁موصول	-11.9379
▁تعاقب	-11.938
▁الحمدلله	-11.938
▁ڪوهستان	-11.938
▁😀	-11.9381
▁good	-11.9381
▁خنجر	-11.9381
▁1974	-11.9381
▁يستاهل	-11.9382
▁تلفظ	-11.9382
▁اعتقد	-11.9383
▁گُهر	-11.9383
▁برسي	-11.9383
▁چوڪيدار	-11.9384
▁تتكلم	-11.9384
▁ڪربلا	-11.9384
▁سوداگر	-11.9385
▁آئرش	-11.9385
▁تلاءَ	-11.9386
▁ٽوٽڪا	-11.9386
▁ڏمر	-11.9386
حياتي	-11.9386
▁پوڙها	-11.9386
▁ڏياريندڙ	-11.9387
▁سڳوري	-11.9387
▁وصال	-11.9388
▁تمرين	-11.9389
▁تازن	-11.939
▁درياه	-11.939
▁حض	-11.939
▁ٻڌائيندس	-11.939
▁سڀڪو	-11.9393
▁(0)	-11.9393
ye	-11.9393
▁بچائيندو	-11.9394
▁وجھڻ	-11.9396
▁پاتل	-11.9396
▁جِن	-11.9397
▁نقطا	-11.94
صلح	-11.94
▁پناھ	-11.9401
▁ماعرف	-11.9401
پيار	-11.9401
▁مائن	-11.9401
▁تعب	-11.9402
▁اسپري	-11.9402
led	-11.9402
▁ماريندو	-11.9404
▁اُڏام	-11.9406
▁سُم	-11.9406
▁ڪرت	-11.9407
▁وگهي	-11.9407
▁آندل	-11.9408
▁ڏيندڙن	-11.941
▁پڌرائي	-11.941
▁رومانس	-11.941
▁مقدمو	-11.941
▁عصا	-11.9412
▁عمان	-11.9412
▁هائوسنگ	-11.9413
▁ارسل	-11.9414
▁ڪلهن	-11.9414
▁ڳه	-11.9415
▁تبصرن	-11.9416
▁وٺجي	-11.9416
بيت	-11.9418
▁انحراف	-11.9419
▁گيتن	-11.9419
▁استان	-11.942
▁حُ	-11.9422
▁پِي	-11.9424
▁ڪورسز	-11.9425
▁حَ	-11.9426
ont	-11.9426
rg	-11.9426
▁اسٽيو	-11.9426
▁نياڻيون	-11.9431
▁ٿيٽر	-11.9432
▁رجحانات	-11.9434
ٻه	-11.9436
▁ديدي	-11.9436
اغ	-11.9436
▁راسه	-11.9442
▁پُڇي	-11.9442
▁پات	-11.9443
ديس	-11.9443
▁مروه	-11.9445
▁هههههههههاي	-11.9449
درس	-11.9449
▁صورتون	-11.945
▁چاره	-11.9452
▁تدريسي	-11.9452
شاهه	-11.9454
▁أجل	-11.9454
▁يادش	-11.9455
▁پالڻ	-11.9455
▁سپاس	-11.9457
ااات	-11.9457
▁جوڙا	-11.9458
▁واق	-11.946
▁کنيل	-11.9461
▁ورندي	-11.9461
▁وينا	-11.9461
ررر	-11.9464
▁خخخ	-11.9469
▁پوائنٽس	-11.9469
▁اختار	-11.947
▁يادت	-11.9472
▁رائعه	-11.9474
▁امو	-11.9474
ااااااااااااا	-11.9475
▁تڙپ	-11.9475
▁سنگتي	-11.948
▁ندا	-11.948
▁جک	-11.9481
▁قص	-11.9482
yo	-11.9486
گاهي	-11.9487
▁قصد	-11.9489
▁آفيسون	-11.949
▁علاء	-11.9494
▁يااا	-11.9495
▁هاشمي	-11.9495
ندينءَ	-11.9497
▁اجها	-11.9498
ڪوڪو	-11.9499
▁اوچي	-11.95
▁cover	-11.9503
▁حٿ	-11.9504
▁انزل	-11.9505
منت	-11.9506
▁ديوتائ	-11.9506
ble	-11.9508
پپو	-11.9508
▁لسا	-11.9508
▁اسٽي	-11.9508
▁ستو	-11.9511
▁اصولي	-11.9513
▁ڪبير	-11.9516
▁اٽي	-11.9517
▁هسه	-11.9518
▁بنگال	-11.952
▁عبد	-11.952
GE	-11.9522
▁زبردستي	-11.9523
▁فائن	-11.9523
▁فوم	-11.9527
پاس	-11.9528
▁ناهه	-11.9528
▁هينئ	-11.9529
احت	-11.9529
▁وسن	-11.9533
▁يرحم	-11.9535
پوٽ	-11.9535
أل	-11.9538
▁اينيمي	-11.9538
▁قبرن	-11.954
▁چاهن	-11.9541
▁إلا	-11.9541
ماڻهو	-11.9542
▁احل	-11.9546
▁عادتن	-11.9547
▁لهندي	-11.9547
دارن	-11.955
▁ميٽا	-11.955
▁سيرت	-11.955
▁يونٽن	-11.955
▁سومري	-11.9551
▁جاکوڙ	-11.9552
لک	-11.9553
ووول	-11.9554
▁مرڪند	-11.9554
▁اخبارون	-11.9555
▁مانند	-11.9556
▁اولمپڪ	-11.9557
▁كلامي	-11.9559
▁trans	-11.9561
▁other	-11.9562
روف	-11.9563
▁Go	-11.9565
جاز	-11.9566
ٗ	-11.9568
▁سرفراز	-11.9568
▁فرائض	-11.9568
▁مجاهد	-11.9568
▁پروڊيوسر	-11.9568
▁هٿرادو	-11.9568
▁ويتامين	-11.9568
▁گهوڙو	-11.9568
▁ڪميونزم	-11.9568
▁جايگزين	-11.9568
▁ٺهڪندڙ	-11.9568
▁اوچتي	-11.9568
▁مصلحت	-11.9568
▁پارٽنرشپ	-11.9568
▁ورهاست	-11.9568
▁ماڊرن	-11.9569
▁ندارم	-11.9569
رپور	-11.9569
▁ترغيب	-11.9569
▁هيونداي	-11.9569
▁رجوع	-11.9569
▁≤	-11.9569
▁اِھو	-11.9569
▁غدير	-11.9569
▁بڇڙو	-11.9569
▁چرٻي	-11.9569
▁ٺهراءُ	-11.9569
▁انيميشن	-11.9569
▁محرڪ	-11.957
▁1965	-11.957
▁تقليد	-11.957
▁چانڊيو	-11.957
تاب	-11.9571
▁ردودكم	-11.9571
▁بالن	-11.9571
شعر	-11.9571
▁پاليندڙ	-11.9572
نجر	-11.9573
▁ماكنت	-11.9573
▁ڳالهائينداسين	-11.9573
▁چُپ	-11.9573
▁جوڀن	-11.9574
▁still	-11.9575
▁قمبر	-11.9575
▁ٻڌايل	-11.9576
▁su	-11.9577
▁پنبه	-11.9578
▁سندا	-11.9578
▁ٽيل	-11.958
▁Br	-11.958
▁الائجي	-11.9581
▁وسڻ	-11.9581
▁دهيد	-11.9583
▁ٻُڌايو	-11.9584
▁وحد	-11.9584
▁وهندڙ	-11.9584
▁کشور	-11.9585
▁رهف	-11.9585
▁ڏُ	-11.9586
▁ڪيلي	-11.9586
DS	-11.9587
nn	-11.9587
▁مٿ	-11.9588
▁03	-11.9589
▁حار	-11.959
▁بندرگاهن	-11.9591
▁ڍڪيل	-11.9591
شة	-11.9592
▁معانا	-11.9593
▁يعمل	-11.9594
▁ميگم	-11.9594
▁ماليات	-11.9595
▁سنئين	-11.9597
▁لاكن	-11.9597
▁تاثرات	-11.9598
▁گون	-11.9598
▁اقرا	-11.9599
▁ڪجان	-11.9601
▁سڌارن	-11.9601
rk	-11.9603
▁يونيورسٽيء	-11.9604
▁هستيد	-11.9604
▁ڇڪيل	-11.9609
▁تات	-11.9609
▁هههههههههههاي	-11.9614
▁ميونسپلٽي	-11.9614
ندئو	-11.9615
▁سڃ	-11.9618
king	-11.9619
iss	-11.9619
▁مهي	-11.962
▁گج	-11.962
▁رکيائين	-11.962
▁۶	-11.962
سوال	-11.9621
کش	-11.9621
▁تسمع	-11.9622
▁اُپ	-11.9622
▁مولڊ	-11.9625
واحد	-11.9625
قسم	-11.9626
▁ماحد	-11.9627
▁فاكر	-11.9628
▁نائيٽ	-11.9631
▁شت	-11.9631
▁ٽُٽ	-11.9633
شپ	-11.9635
▁نھاري	-11.9635
آح	-11.9635
▁زندان	-11.9635
يلة	-11.9636
▁پهاڪا	-11.9638
▁ڏاهي	-11.964
ڪوڊ	-11.9641
▁تاريخون	-11.9641
▁بندگي	-11.9643
▁سرحدون	-11.9644
▁ٻارنهن	-11.9644
▁كلمه	-11.9644
▁مهڪ	-11.9649
cl	-11.9652
▁هاذي	-11.9653
▁پڄي	-11.9653
▁آورد	-11.9654
▁ناڪ	-11.9654
▁ويهندا	-11.9654
يييييي	-11.9655
ماسي	-11.9657
▁پَل	-11.9658
▁گيان	-11.9658
ging	-11.9659
▁لولي	-11.9661
▁صابر	-11.9662
▁ابوي	-11.9663
ey	-11.9664
▁ڪوئلي	-11.9665
▁لولو	-11.9666
لوا	-11.9666
▁روا	-11.9666
▁ٽرن	-11.9667
▁ماشين	-11.9668
RA	-11.9669
▁تلاء	-11.967
▁ويڊيوز	-11.9673
▁اٽڪ	-11.9675
تابع	-11.9675
▁وره	-11.9676
▁نذر	-11.9677
▁ڀڃڻي	-11.9678
027	-11.968
▁منجي	-11.9681
▁ڪوڊنگ	-11.9683
▁پويا	-11.9684
ليم	-11.9687
ويز	-11.9688
قابل	-11.9689
▁گنج	-11.969
▁جابر	-11.969
▁بلد	-11.9691
تيون	-11.9692
جِ	-11.9692
▁واد	-11.9693
MC	-11.9694
افيه	-11.9694
▁مکان	-11.9695
ns	-11.9695
▁لانك	-11.9698
▁ترجما	-11.9698
ٹو	-11.9698
▁السعودي	-11.97
▁سنيپ	-11.9701
▁CA	-11.9702
▁مليح	-11.9704
▁وَس	-11.9709
▁fr	-11.9709
amp	-11.9709
حتاج	-11.971
="12	-11.971
ذبح	-11.9711
▁اقتصاديات	-11.9711
▁يارن	-11.9713
اسلامي	-11.9714
حبه	-11.9716
▁سالڪ	-11.9717
▁AM	-11.9717
▁خيرها	-11.972
▁ٺاھ	-11.9725
▁چنبڙي	-11.9726
▁اَم	-11.9728
▁چوب	-11.9728
▁آهِ	-11.9729
▁bl	-11.9729
▁(17	-11.9731
▁تخلي	-11.9732
▁آهي۔۔۔	-11.9733
www	-11.9734
فرانس	-11.9736
ڪارن	-11.9737
▁چارڻ	-11.9738
rr	-11.9738
▁څ	-11.9741
هيل	-11.9741
▁ٻِ	-11.9742
ٻا	-11.9743
سيٽ	-11.9743
▁تدبير	-11.9744
جام	-11.9746
▁پاٽ	-11.9746
▁اجيب	-11.9747
▁معاي	-11.9748
TO	-11.975
▁Pi	-11.9751
▁نكن	-11.9752
ومه	-11.9752
tainless	-11.976
▁Nexus	-11.976
▁لاڳت	-11.976
="0.06	-11.9761
▁سهوليت	-11.9761
▁مملڪت	-11.9761
▁سهائتا	-11.9761
▁◆	-11.9761
▁ڊسپوز	-11.9761
▁مرسيدس	-11.9761
▁قابض	-11.9761
▁ڪلوگرام	-11.9761
▁آسپاس	-11.9761
طالع	-11.9761
▁جتوئي	-11.9762
▁الجزائر	-11.9763
▁ملاڪا	-11.9763
▁۱۹	-11.9764
▁مسكينه	-11.9765
▁خوشبوءِ	-11.9765
▁لنچ	-11.9766
▁رکيون	-11.9766
▁ڪيستائين	-11.9766
▁fl	-11.9766
▁bo	-11.9768
▁تنوع	-11.9768
پلي	-11.9769
▁اجرائي	-11.9769
▁اسڪيننگ	-11.9769
▁وصيت	-11.977
▁سڌائي	-11.977
▁tr	-11.9771
▁اتخيل	-11.9772
▁بيئرنگ	-11.9772
▁عليا	-11.9773
▁تلعب	-11.9773
▁رويني	-11.9774
▁ڍڪڻ	-11.9774
▁سڪا	-11.9775
▁بينڪننگ	-11.9776
▁ياقلبي	-11.9777
▁تماشو	-11.9777
▁ڊوڙڻ	-11.978
ree	-11.9781
▁موضوعي	-11.9781
▁جداً	-11.9784
ets	-11.9784
▁پش	-11.9785
▁هينڊ	-11.9786
▁هائيڊرو	-11.9786
___	-11.9787
▁الخير	-11.9788
▁ٽريڪٽر	-11.9791
▁تخليقڪار	-11.9791
▁داريد	-11.9792
▁Ja	-11.9793
▁مفروض	-11.9793
▁ترڪيبون	-11.9794
hu	-11.9795
त	-11.9797
وڃ	-11.9797
▁تدخل	-11.9797
▁اڇليو	-11.9799
▁ذلت	-11.98
▁بسم	-11.9802
▁#1	-11.9804
▁لهندو	-11.9805
▁سمجهندي	-11.9805
▁خخ	-11.9811
جُ	-11.9813
MP	-11.9815
جتي	-11.9815
▁app	-11.9816
af	-11.9817
▁پوکيو	-11.9817
▁گني	-11.9818
صاب	-11.9818
▁هناك	-11.9821
▁اهه	-11.9821
ہِ	-11.9822
▁نسخه	-11.9823
ven	-11.9833
أكل	-11.9834
؟؟؟؟	-11.9835
▁چانورن	-11.9837
▁ڪانڌ	-11.9837
:19	-11.9839
▁تفصيلات	-11.9839
▁گھرجن	-11.984
▁چڱ	-11.9841
:11	-11.9842
▁مشكل	-11.9843
▁ٻو	-11.9843
ڏنهن	-11.9844
▁نوار	-11.9845
ااال	-11.9847
▁فاضيه	-11.985
ath	-11.9851
▁گَ	-11.9851
▁جاچڻ	-11.9853
▁آنآ	-11.9855
▁Ad	-11.9856
ينها	-11.986
▁مَٽ	-11.9861
▁2.2	-11.9861
▁ڏنم	-11.9862
▁ھڻي	-11.9863
▁طل	-11.9864
غريب	-11.9866
▁اڀار	-11.9868
▁سانگ	-11.9868
▁خلو	-11.9872
▁Di	-11.9875
▁هڻندي	-11.9875
▁ثنا	-11.9877
▁وڏ	-11.9881
ااار	-11.9882
موضوع	-11.9887
▁NO	-11.989
▁نبا	-11.989
▁گڏيو	-11.9891
▁بالر	-11.9896
▁دوس	-11.9897
▁امها	-11.9898
▁جوابن	-11.9898
▁جبتها	-11.9899
▁نورت	-11.9899
▁هاه	-11.9901
▁ٽوٽ	-11.9904
▁مجسم	-11.9904
موس	-11.9905
▁اشي	-11.9906
ib	-11.9906
▁فِ	-11.9906
دق	-11.9906
حبيب	-11.9907
▁وااا	-11.9909
ڇي	-11.9909
▁وجهك	-11.9909
▁ظالمن	-11.991
▁رھندي	-11.9912
▁موافق	-11.9916
يمه	-11.9917
ائِي	-11.9919
▁130	-11.9921
▁بڻي	-11.9921
▁کنڊر	-11.9921
▁پلو	-11.9925
▁اسٽارٽ	-11.9927
▁مستان	-11.9928
اں	-11.9929
▁ليڪس	-11.9933
▁اوله	-11.9933
▁000	-11.9934
ائٽس	-11.9935
▁مطالبا	-11.9936
قلي	-11.9936
5:	-11.9937
ڳوٺ	-11.9938
▁گرا	-11.9939
▁پڇان	-11.9941
▁ڀلار	-11.9941
▁ايبل	-11.9942
▁عمو	-11.9944
▁AS	-11.9944
▁ڳول	-11.9944
mar	-11.9945
▁پڙهن	-11.9945
▁دخ	-11.9948
يٽس	-11.995
▁إل	-11.9952
▁تحفه	-11.9952
خوش	-11.9953
tar	-11.9953
▁وڻندي	-11.9953
▁سڃاڻو	-11.9953
ستن	-11.9954
▁مقالا	-11.9954
عصب	-11.9956
ٓ	-11.9957
▁اهڃاڻ	-11.9957
▁باصلاحيت	-11.9957
▁تغذيه	-11.9957
▁ڳوڙهن	-11.9957
▁لانڊرنگ	-11.9957
▁وراثت	-11.9957
▁اعتقاد	-11.9957
▁زلزلو	-11.9957
▁يوگنڊا	-11.9957
▁سرشتو	-11.9957
▁بدلجندڙ	-11.9957
▁بدامني	-11.9957
▁تدوين	-11.9957
▁جهيڙي	-11.9957
▁الصغير	-11.9958
بلو	-11.9958
▁ڪليڪٽر	-11.9958
▁1986	-11.9958
▁More	-11.9959
سيتائين	-11.9959
▁وشكرا	-11.9959
▁آرائش	-11.9959
▁شبكه	-11.9959
▁ڪلائوڊ	-11.9959
▁المسكين	-11.9959
▁گوتم	-11.996
▁ڳائڻي	-11.996
▁أح	-11.996
▁الظاهر	-11.9961
▁1940	-11.9961
align	-11.9961
▁سيرامڪ	-11.9961
▁رانديڪا	-11.9962
▁فولاد	-11.9963
▁برفاني	-11.9963
▁لڱ	-11.9966
▁التجا	-11.9967
▁ساجد	-11.9968
▁پکيڙڻ	-11.9968
▁ناظر	-11.9968
▁♡	-11.9969
▁اثاثا	-11.997
▁تزعل	-11.9971
cha	-11.9971
▁ڍنگ	-11.9972
▁اوپري	-11.9972
▁وڌايل	-11.9972
▁May	-11.9973
▁پليجو	-11.9973
▁وڪ	-11.9973
▁ڌيئر	-11.9977
▁پيز	-11.9978
▁فلڪس	-11.998
▁زيب	-11.9983
▁مجري	-11.9983
شروع	-11.9983
كمل	-11.9984
▁گجرات	-11.9984
▁مينا	-11.9985
▁نست	-11.999
▁پرامن	-11.999
ves	-11.9992
▁يعينه	-11.9994
▁مٺائي	-11.9994
▁ناولن	-11.9994
گلو	-11.9997
نگر	-11.9998
گهٽ	-11.9999
▁قار	-12.0003
▁Da	-12.0004
▁مباحثي	-12.0007
▁عطي	-12.0008
▁غصي	-12.0009
▁کنڀي	-12.001
▁يعطي	-12.0012
▁چتر	-12.0014
▁أحب	-12.0015
__	-12.0015
▁ڪيئر	-12.0015
▁مازن	-12.0016
▁ڪانٽ	-12.0017
▁نووا	-12.0019
▁مواضيع	-12.0019
▁چرچو	-12.0021
▁ميسيج	-12.0021
هندو	-12.0028
▁كما	-12.0029
▁ٻڌن	-12.0029
▁خطيره	-12.0031
روپ	-12.0032
▁لكي	-12.0033
▁آسيا	-12.0033
▁پخت	-12.0034
▁سومرا	-12.0035
▁نيرن	-12.0036
▁نيس	-12.0036
حرف	-12.0036
ادو	-12.0039
ضم	-12.004
▁عادتون	-12.004
سسس	-12.0041
▁ڌرڻ	-12.0045
▁ترکيه	-12.0048
▁06	-12.0049
▁إنت	-12.0049
وران	-12.005
▁if	-12.0053
▁شڪايتون	-12.0053
▁ڳالهايون	-12.0054
▁جمپ	-12.0059
**	-12.0061
حرم	-12.0062
▁نهاد	-12.0064
▁العين	-12.0065
▁ميٽرن	-12.0065
▁سلڪ	-12.0065
جلد	-12.0066
▁ٺپ	-12.007
نامو	-12.0072
▁شع	-12.0072
▁بازو	-12.0073
▁يابو	-12.0074
ding	-12.0074
برد	-12.0075
▁استري	-12.0076
▁تڪليفن	-12.0077
تلي	-12.0077
▁شھري	-12.0078
جنن	-12.0078
▁پرچار	-12.0081
▁ميخ	-12.0081
ويا	-12.0082
▁ريف	-12.0083
▁منير	-12.0086
▁ريشه	-12.0088
▁نهارڻ	-12.0089
▁پک	-12.009
وووووووو	-12.009
▁افتتاحي	-12.0094
▁Mon	-12.0095
▁شِ	-12.0096
▁مظاهر	-12.0097
▁تقر	-12.0098
▁غريبة	-12.01
وووه	-12.0103
▁بله	-12.0104
BC	-12.0106
ئٽر	-12.0106
▁پيرسن	-12.0106
طول	-12.0109
▁ٹ	-12.0109
▁نوڊ	-12.0109
▁ٽِ	-12.0111
وبه	-12.0112
▁ڳالھائي	-12.0113
▁MI	-12.0113
ale	-12.0115
▁ٿڙ	-12.0118
▁پيامك	-12.012
باغ	-12.0122
▁غدار	-12.0122
▁سف	-12.0122
▁ياحبي	-12.0125
▁سٽن	-12.0129
٧	-12.013
واد	-12.0131
▁۱۳	-12.0133
▁ڪنڊيشن	-12.0137
▁ووٽن	-12.014
ااااااااااا	-12.0142
بود	-12.0143
رِي	-12.0146
▁خرچي	-12.0147
▁تستاهل	-12.0147
▁علماء	-12.0151
▁تحريرن	-12.0154
▁چورن	-12.0154
à	-12.0156
▁افلاطون	-12.0156
▁اهداف	-12.0157
▁صندوق	-12.0157
▁two	-12.0157
▁شاهوڪار	-12.0157
▁قيصر	-12.0157
▁انتقام	-12.0157
▁سڃاتل	-12.0157
▁نظارت	-12.0157
▁بجاء	-12.0157
▁پوشاڪ	-12.0157
▁ڪارآمد	-12.0157
▁بيٺڪ	-12.0157
▁وراڻيائين	-12.0158
▁1981	-12.0158
▁ڊيزائين	-12.0158
▁سنج	-12.0158
▁رعيت	-12.0159
▁1945	-12.016
▁ھڻڻ	-12.016
▁لايفوتكم	-12.016
هاءِ	-12.016
ميشن	-12.016
▁ينفع	-12.016
▁74	-12.0161
▁گھوٽ	-12.0161
طبخ	-12.0161
▁نظيف	-12.0162
▁بنجڻ	-12.0163
▁وأنت	-12.0164
▁years	-12.0164
▁ناھن	-12.0164
▁اعتمادي	-12.0165
▁ٽيهن	-12.0166
▁اظهر	-12.0166
▁لٿا	-12.0166
▁كنيد	-12.0167
▁Res	-12.0167
▁پيشواز	-12.0167
ڪايو	-12.0167
▁ادراڪ	-12.0168
▁مقالو	-12.0168
▁91	-12.0169
فجر	-12.0169
▁نفعو	-12.0172
َتَ	-12.0173
▁موڪليندڙ	-12.0173
▁نز	-12.0174
▁ڊاک	-12.0175
▁جنايت	-12.0175
يقه	-12.0176
▁ڪيٿ	-12.0177
بنا	-12.0177
▁چائنا	-12.0178
-4	-12.0179
▁آڱريون	-12.0181
▁كش	-12.0182
▁الصح	-12.0182
▁امدادي	-12.0183
▁راڻو	-12.0183
▁پذيرش	-12.0183
▁ماڻس	-12.0184
▁پائيندو	-12.0186
▁وڪيٽ	-12.0186
▁ڪپور	-12.0187
▁تيسين	-12.0188
▁چهره	-12.019
نسل	-12.0191
▁ارجن	-12.0193
▁بفر	-12.0193
▁کاڄ	-12.0194
▁نادي	-12.0195
▁ھيس	-12.0196
▁سرڪي	-12.0196
▁ٽئڪس	-12.0198
ركه	-12.0198
▁گرميء	-12.02
▁سنڀار	-12.02
▁فراق	-12.02
▁هالي	-12.0201
▁جولائي	-12.0201
rent	-12.0202
▁ڏڪي	-12.0202
▁مشاري	-12.0204
▁tra	-12.0204
▁cha	-12.0204
mit	-12.0205
ying	-12.0207
▁دِل	-12.0208
▁ايرانسل	-12.0209
▁مِل	-12.021
▁سَڀ	-12.021
▁تقي	-12.0211
▁آهنگي	-12.0211
▁دڙو	-12.0211
TS	-12.0213
▁الْ	-12.0213
▁پڇندا	-12.0215
▁ڊرم	-12.0221
▁ڀيٽا	-12.0223
▁ريڊر	-12.0223
▁غرب	-12.0224
▁سٺيون	-12.0225
ID	-12.0225
▁نقطن	-12.0225
ise	-12.0226
ux	-12.0226
3:	-12.0226
▁ڪچهريءَ	-12.0226
▁بهانو	-12.0228
▁ra	-12.0231
▁اِس	-12.0232
▁معها	-12.0233
▁تعي	-12.0233
موم	-12.0237
▁غلاميءَ	-12.0238
▁خَ	-12.0239
fi	-12.0239
مشي	-12.0241
ڪير	-12.0244
اچي	-12.0247
▁رسيو	-12.0248
TM	-12.0248
▁پرتگالي	-12.0248
بيني	-12.0248
▁ثالثي	-12.025
ڏسو	-12.025
دلع	-12.0251
▁المت	-12.0252
▁پرواه	-12.0252
▁زيرو	-12.0256
ريد	-12.026
ane	-12.0261
▁بكر	-12.0263
▁پنگ	-12.0266
▁بضحكه	-12.0267
▁گهرائڻ	-12.0267
aj	-12.0267
ڊز	-12.0267
ile	-12.0269
▁كنتي	-12.0269
▁لساني	-12.0269
▁ڀيل	-12.027
▁الشي	-12.027
▁ميٽي	-12.0274
▁چارئي	-12.0274
box	-12.0278
ٽيءَ	-12.0279
▁آڙ	-12.028
▁تعا	-12.0282
▁Ha	-12.0285
كثير	-12.0286
▁حقا	-12.0287
▁وڄائي	-12.0287
▁نغم	-12.0289
▁اڀ	-12.029
وهم	-12.0294
▁ديوارن	-12.0295
▁مرکز	-12.0295
▁سڻ	-12.0296
ME	-12.0297
▁ماحوليات	-12.03
▁خفت	-12.0302
▁بخوا	-12.0302
▁پوريء	-12.0302
▁connect	-12.0302
▁ڌڪي	-12.0303
▁زڪو	-12.0303
▁ردود	-12.0304
ااام	-12.0305
دتي	-12.0305
tory	-12.0306
▁کڙي	-12.0307
▁بقيه	-12.0309
▁ايزي	-12.0311
▁رني	-12.0311
▁جِت	-12.0316
▁انٽيل	-12.0317
الل	-12.0319
▁سُڪ	-12.0319
صاف	-12.032
ject	-12.0321
▁ذو	-12.0323
▁داني	-12.0323
▁وجد	-12.0326
▁مرحبا	-12.033
ڪيم	-12.0331
حسين	-12.0332
▁مدر	-12.0335
▁Ta	-12.0335
اوھين	-12.0336
TE	-12.0336
ژي	-12.034
▁قصور	-12.0341
▁منم	-12.0341
▁کارو	-12.0342
AP	-12.0346
▁وهاب	-12.0346
بور	-12.0348
-9	-12.0349
▁اُم	-12.035
طع	-12.0351
▁ءِ	-12.0352
▁مورتي	-12.0354
لُ	-12.0356
سأل	-12.0356
▁زيك	-12.036
द	-12.036
ۓ	-12.0361
▁انسپيڪٽر	-12.0361
▁پطرس	-12.0361
▁اسطوره	-12.0361
▁تأثير	-12.0361
▁ڊگھو	-12.0361
▁مربوط	-12.0361
▁تلاوت	-12.0361
▁السياره	-12.0361
▁صاحبه	-12.0361
عنوان	-12.0362
▁1972	-12.0362
▁جلسه	-12.0362
ختي	-12.0363
▁دواسازي	-12.0363
▁جڳهيون	-12.0363
▁آيم	-12.0364
ليلي	-12.0364
▁ٺھيل	-12.0365
▁ايوة	-12.0365
▁پرسنل	-12.0367
شمي	-12.0367
▁سنڀاليندڙ	-12.0367
▁ڄاتل	-12.0368
پيڪ	-12.0368
▁عربستان	-12.0369
▁جيئرا	-12.037
▁ٽماٽ	-12.0371
▁أني	-12.0372
▁بوءِ	-12.0373
▁غازي	-12.0373
▁ٻہ	-12.0373
▁پولو	-12.0373
▁امسال	-12.0374
▁جامدة	-12.0375
▁مرندو	-12.0376
▁بغيت	-12.0376
▁عريس	-12.0377
▁بلاشڪ	-12.0378
▁مٽجي	-12.0378
▁زمينه	-12.038
pro	-12.0382
▁اسڪالر	-12.0382
▁لاڀ	-12.0384
2-	-12.0385
▁لکيائين	-12.0385
▁گرامر	-12.0387
▁فرمانبردار	-12.0388
بيون	-12.0388
ضو	-12.039
▁ذهنيت	-12.039
▁ڳُ	-12.039
▁سفارتي	-12.039
▁پونديون	-12.0391
جعل	-12.0391
▁تحصيلي	-12.0392
▁آئ	-12.0393
▁هيهيهيهي	-12.0393
▁ايڊيشنل	-12.0395
▁كملي	-12.0395
▁ژ	-12.0396
▁دلير	-12.0397
▁ارز	-12.0397
▁گڻ	-12.0398
▁بطني	-12.0398
▁تامل	-12.0399
ديني	-12.0402
▁ناتا	-12.0403
▁موٽندي	-12.0404
line	-12.0404
▁شيلف	-12.0405
▁چئه	-12.0405
▁احط	-12.0406
▁بيلي	-12.0408
▁بې	-12.0411
▁وايو	-12.0411
دكم	-12.0412
▁بگاڙ	-12.0413
▁معاها	-12.0415
▁داڻا	-12.0416
▁آلآ	-12.0416
▁my	-12.0417
▁نادان	-12.0418
▁ٻڌائين	-12.0421
▁دانا	-12.0422
▁براه	-12.0423
▁ريح	-12.0425
▁ask	-12.0427
ern	-12.0429
▁جاگير	-12.0434
ڪلو	-12.0434
▁البر	-12.0435
▁چشما	-12.0438
باس	-12.0438
▁غيبت	-12.0442
IM	-12.0443
ساعد	-12.0443
▁ثقل	-12.0443
▁کاڻ	-12.0446
▁محنتي	-12.0446
ल	-12.0447
▁لعب	-12.0449
گور	-12.0449
ِهِ	-12.0451
عَ	-12.0453
▁ويجھي	-12.0454
▁Ne	-12.0456
let	-12.0457
[...]
