[UNK]	0
[CLS]	1
[SEP]	2
[PAD]	3
[MASK]	4
!	5
"	6
#	7
$	8
%	9
&	10
'	11
(	12
)	13
*	14
+	15
,	16
-	17
.	18
/	19
0	20
1	21
2	22
3	23
4	24
5	25
6	26
7	27
8	28
9	29
:	30
;	31
<	32
=	33
>	34
?	35
@	36
[	37
\	38
]	39
^	40
_	41
a	42
b	43
c	44
d	45
e	46
f	47
g	48
h	49
i	50
j	51
k	52
l	53
m	54
n	55
o	56
p	57
q	58
r	59
s	60
t	61
u	62
v	63
w	64
x	65
y	66
z	67
{	68
|	69
}	70
~	71
¡	72
¢	73
£	74
¤	75
¥	76
¦	77
§	78
©	79
¬	80
®	81
°	82
±	83
¶	84
·	85
¿	86
×	87
ß	88
à	89
á	90
â	91
ã	92
ä	93
å	94
æ	95
ç	96
è	97
é	98
ê	99
ë	100
ì	101
í	102
î	103
ï	104
ð	105
ñ	106
ò	107
ó	108
ô	109
õ	110
ö	111
÷	112
ø	113
ù	114
ú	115
û	116
ü	117
ý	118
þ	119
ā	120
ă	121
ą	122
ć	123
ĉ	124
č	125
ď	126
đ	127
ē	128
ė	129
ę	130
ě	131
ğ	132
ģ	133
ĥ	134
ħ	135
ī	136
į	137
ı	138
ĵ	139
ĸ	140
ĺ	141
ļ	142
ł	143
ň	144
ŋ	145
ō	146
ŏ	147
œ	148
ř	149
ś	150
ŝ	151
ş	152
š	153
ť	154
ŧ	155
ŭ	156
ů	157
ű	158
ź	159
ż	160
ž	161
ƒ	162
ƛ	163
ơ	164
ƴ	165
ƽ	166
ǝ	167
ǟ	168
ǰ	169
ǿ	170
ȅ	171
ȋ	172
ș	173
ț	174
ɑ	175
ɓ	176
ɕ	177
ə	178
ɛ	179
ɞ	180
ɠ	181
ɣ	182
ɨ	183
ɪ	184
ɲ	185
ɴ	186
ʀ	187
ʃ	188
ʊ	189
ʒ	190
ʔ	191
ʚ	192
ʞ	193
ʻ	194
ˆ	195
ˇ	196
ˈ	197
ˌ	198
ː	199
˹	200
˼	201
̀	202
́	203
̃	204
̄	205
̅	206
̇	207
̈	208
̉	209
̊	210
̋	211
̌	212
̍	213
̐	214
̖	215
̗	216
̝	217
̠	218
̣	219
̤	220
̥	221
̧	222
̨	223
̩	224
̬	225
̮	226
̯	227
̲	228
̳	229
̵	230
̶	231
̷	232
̸	233
͛	234
͜	235
͠	236
͡	237
ͦ	238
ΐ	239
ά	240
έ	241
ή	242
ί	243
α	244
β	245
γ	246
δ	247
ε	248
ζ	249
η	250
θ	251
ι	252
κ	253
λ	254
μ	255
ν	256
ξ	257
ο	258
π	259
ρ	260
ς	261
σ	262
τ	263
υ	264
φ	265
χ	266
ψ	267
ω	268
ϋ	269
ό	270
ώ	271
ϟ	272
ϻ	273
а	274
б	275
в	276
г	277
д	278
е	279
ж	280
з	281
и	282
й	283
к	284
л	285
м	286
н	287
о	288
п	289
р	290
с	291
т	292
у	293
х	294
ц	295
ч	296
ш	297
ъ	298
ы	299
ь	300
э	301
ю	302
я	303
є	304
і	305
ј	306
ћ	307
ѣ	308
ѧ	309
҉	310
ҏ	311
ґ	312
қ	313
ҩ	314
ү	315
ұ	316
ҳ	317
ҷ	318
ҽ	319
ӎ	320
ө	321
ա	322
բ	323
ե	324
է	325
ը	326
ի	327
լ	328
խ	329
կ	330
հ	331
ձ	332
ղ	333
մ	334
յ	335
ն	336
ո	337
չ	338
պ	339
ռ	340
ս	341
վ	342
տ	343
ր	344
ց	345
ւ	346
փ	347
ք	348
ֆ	349
ִ	350
ּ	351
ֿ	352
א	353
ב	354
ג	355
ד	356
ה	357
ו	358
ז	359
ח	360
ט	361
י	362
ך	363
כ	364
ל	365
ם	366
מ	367
ן	368
נ	369
ס	370
ע	371
פ	372
צ	373
ר	374
ש	375
ת	376
؋	377
،	378
؍	379
؎	380
؏	381
ؐ	382
ؑ	383
ؒ	384
ؓ	385
؛	386
؟	387
ء	388
آ	389
أ	390
ؤ	391
إ	392
ئ	393
ا	394
ب	395
ة	396
ت	397
ث	398
ج	399
ح	400
خ	401
د	402
ذ	403
ر	404
ز	405
س	406
ش	407
ص	408
ض	409
ط	410
ظ	411
ع	412
غ	413
ػ	414
ؼ	415
ؽ	416
ؾ	417
ؿ	418
ـ	419
ف	420
ق	421
ك	422
ل	423
م	424
ن	425
ه	426
و	427
ى	428
ي	429
ً	430
ٌ	431
ٍ	432
َ	433
ُ	434
ِ	435
ّ	436
ْ	437
ٓ	438
ٔ	439
ٕ	440
ٖ	441
ٗ	442
٘	443
ٙ	444
ٚ	445
ٛ	446
ٜ	447
ٝ	448
ٞ	449
ٟ	450
٠	451
١	452
٢	453
٣	454
٤	455
٥	456
٦	457
٧	458
٨	459
٩	460
٪	461
٫	462
٬	463
٭	464
ٮ	465
ٯ	466
ٰ	467
ٱ	468
ٲ	469
ٳ	470
ٴ	471
ٹ	472
ٺ	473
ٻ	474
ټ	475
ٽ	476
پ	477
ٿ	478
ڀ	479
ځ	480
ڂ	481
ڃ	482
ڄ	483
څ	484
چ	485
ڇ	486
ڈ	487
ډ	488
ڊ	489
ڋ	490
ڌ	491
ڍ	492
ڎ	493
ڏ	494
ڐ	495
ڑ	496
ڒ	497
ړ	498
ڔ	499
ڕ	500
ږ	501
ڗ	502
ژ	503
ڙ	504
ښ	505
ڛ	506
ڜ	507
ڝ	508
ڞ	509
ڟ	510
ڠ	511
ڣ	512
ڤ	513
ڦ	514
ڨ	515
ک	516
ڪ	517
ګ	518
ڭ	519
گ	520
ڰ	521
ڱ	522
ڲ	523
ڳ	524
ڵ	525
ڶ	526
ڷ	527
ڸ	528
ڹ	529
ں	530
ڻ	531
ڼ	532
ڽ	533
ھ	534
ڿ	535
ۀ	536
ہ	537
ۂ	538
ۃ	539
ۄ	540
ۅ	541
ۆ	542
ۇ	543
ۈ	544
ۉ	545
ۊ	546
ۋ	547
ی	548
ۍ	549
ێ	550
ۏ	551
ې	552
ۑ	553
ے	554
ۓ	555
۔	556
ە	557
ۗ	558
ۘ	559
ۙ	560
ۚ	561
ۛ	562
ۜ	563
۞	564
ۡ	565
ۢ	566
ۣ	567
ۤ	568
ۥ	569
ۦ	570
ۧ	571
ۨ	572
۩	573
۪	574
۫	575
۬	576
۰	577
۱	578
۲	579
۳	580
۴	581
۵	582
۶	583
۷	584
۸	585
۹	586
ۺ	587
ۼ	588
۽	589
۾	590
ۿ	591
܀	592
ܒ	593
ܓ	594
ܢ	595
ܨ	596
ܪ	597
ܵ	598
ݐ	599
ݒ	600
ݖ	601
ݘ	602
ݛ	603
ݢ	604
ݥ	605
ݦ	606
ݧ	607
ݨ	608
ݩ	609
ݪ	610
ހ	611
ވ	612
ެ	613
ߙ	614
ࡗ	615
ࢦ	616
ࢪ	617
࣪	618
ँ	619
ं	620
ः	621
अ	622
आ	623
इ	624
ई	625
उ	626
ए	627
ओ	628
क	629
ख	630
ग	631
घ	632
ङ	633
च	634
छ	635
ज	636
झ	637
ञ	638
ट	639
ठ	640
ड	641
ढ	642
ण	643
त	644
थ	645
द	646
ध	647
न	648
प	649
फ	650
ब	651
भ	652
म	653
य	654
र	655
ल	656
व	657
श	658
ष	659
स	660
ह	661
़	662
ा	663
ि	664
ी	665
ु	666
ू	667
ृ	668
े	669
ै	670
ॉ	671
ो	672
ौ	673
्	674
॒	675
ॡ	676
।	677
॥	678
०	679
१	680
८	681
অ	682
আ	683
ই	684
উ	685
এ	686
ঔ	687
ক	688
খ	689
ঘ	690
ছ	691
জ	692
ট	693
ড	694
ত	695
দ	696
ধ	697
ন	698
ব	699
ভ	700
ম	701
য	702
র	703
ল	704
শ	705
স	706
়	707
া	708
ি	709
ু	710
ে	711
ো	712
ৌ	713
্	714
ਂ	715
ਇ	716
ਈ	717
ਕ	718
ਜ	719
ਥ	720
ਧ	721
ਪ	722
ਬ	723
ਮ	724
ਰ	725
ਲ	726
ਸ	727
ਹ	728
ਾ	729
ਿ	730
ੀ	731
ੇ	732
ੈ	733
ੋ	734
ੰ	735
ੱ	736
ં	737
ક	738
ખ	739
ચ	740
છ	741
ટ	742
ડ	743
થ	744
ધ	745
પ	746
ર	747
સ	748
હ	749
ા	750
િ	751
ી	752
ુ	753
ે	754
ો	755
୪	756
୭	757
ஐ	758
ஓ	759
ற	760
ం	761
ఇ	762
ఉ	763
ఎ	764
క	765
చ	766
డ	767
ద	768
ధ	769
న	770
ప	771
య	772
ల	773
వ	774
స	775
హ	776
ా	777
ి	778
ీ	779
ు	780
ే	781
ో	782
్	783
ಂ	784
ಈ	785
ಕ	786
ಡ	787
ಧ	788
ನ	789
ಲ	790
ಸ	791
ಿ	792
ೋ	793
್	794
ഉ	795
ങ	796
ത	797
ധ	798
ന	799
പ	800
ള	801
സ	802
ി	803
്	804
ආ	805
උ	806
ක	807
න	808
ම	809
ය	810
ල	811
ව	812
ශ	813
ස	814
්	815
ෑ	816
ි	817
ෙ	818
ก	819
ค	820
ฉ	821
ณ	822
ด	823
ถ	824
ท	825
น	826
บ	827
ป	828
พ	829
ม	830
ย	831
ล	832
ส	833
ห	834
อ	835
ฮ	836
ะ	837
ั	838
า	839
ิ	840
ี	841
ุ	842
เ	843
ไ	844
ๅ	845
่	846
้	847
๋	848
๑	849
๛	850
ກ	851
ຂ	852
ຈ	853
ຖ	854
ທ	855
ນ	856
ພ	857
ມ	858
ຢ	859
ະ	860
າ	861
ົ	862
ເ	863
່	864
້	865
໑	866
༄	867
༅	868
༺	869
ཻ	870
࿅	871
࿑	872
ა	873
დ	874
ე	875
თ	876
ი	877
კ	878
მ	879
ნ	880
რ	881
ს	882
უ	883
ქ	884
ღ	885
ᄑ	886
ᄒ	887
ᅲ	888
ሂ	889
ህ	890
ለ	891
ላ	892
ል	893
ም	894
ሩ	895
ር	896
ሳ	897
ስ	898
ቅ	899
በ	900
ቦ	901
ታ	902
ት	903
ነ	904
ኔ	905
ን	906
ኝ	907
አ	908
እ	909
ወ	910
ው	911
ዎ	912
ዘ	913
ይ	914
ዴ	915
ድ	916
ጋ	917
ጎ	918
ጠ	919
ጣ	920
ጥ	921
ፈ	922
ፍ	923
ᑐ	924
ᓄ	925
ᓅ	926
ᓆ	927
ᓘ	928
ញ	929
ន	930
ព	931
ភ	932
េ	933
ំ	934
្	935
᪣	936
ᬼ	937
ᭁ	938
᭄	939
ᴀ	940
ᴋ	941
ᴗ	942
᷂	943
ḑ	944
ḭ	945
ḿ	946
ṁ	947
ṃ	948
ṇ	949
ṉ	950
ṛ	951
ṝ	952
ṣ	953
ṧ	954
ṩ	955
ṭ	956
ṽ	957
ạ	958
ẹ	959
ể	960
ệ	961
ị	962
ọ	963
ố	964
ở	965
ụ	966
ỳ	967
ỹ	968
ἄ	969
‐	970
‛	971
‟	972
†	973
‡	974
•	975
′	976
‹	977
›	978
※	979
‿	980
⁀	981
⁄	982
₥	983
₦	984
₩	985
₪	986
€	987
₳	988
₹	989
₼	990
₽	991
⃕	992
⃟	993
⃢	994
⃣	995
⃫	996
℘	997
←	998
↑	999
→	1000
↓	1001
↔	1002
↙	1003
↜	1004
↝	1005
↣	1006
↤	1007
↩	1008
↫	1009
↯	1010
↲	1011
↴	1012
↷	1013
⇄	1014
⇐	1015
⇜	1016
⇠	1017
⇡	1018
⇢	1019
⇣	1020
⇦	1021
∀	1022
∂	1023
∇	1024
−	1025
√	1026
∞	1027
∟	1028
∫	1029
∴	1030
≈	1031
≠	1032
≤	1033
≥	1034
≦	1035
≧	1036
≯	1037
⊙	1038
⋆	1039
⌘	1040
⏆	1041
⏩	1042
⏪	1043
─	1044
┇	1045
═	1046
╚	1047
╝	1048
╦	1049
╫	1050
╬	1051
▂	1052
▃	1053
▌	1054
▐	1055
■	1056
□	1057
▪	1058
▫	1059
▲	1060
▶	1061
▷	1062
►	1063
▼	1064
▽	1065
◀	1066
◄	1067
◆	1068
◇	1069
◈	1070
◉	1071
◊	1072
○	1073
◍	1074
◎	1075
●	1076
◕	1077
◝	1078
◣	1079
◤	1080
◥	1081
◦	1082
◩	1083
◪	1084
◾	1085
☀	1086
☁	1087
☂	1088
☃	1089
☄	1090
★	1091
☆	1092
☑	1093
☔	1094
☘	1095
☚	1096
☛	1097
☜	1098
☝	1099
☠	1100
☹	1101
☺	1102
☻	1103
☼	1104
☽	1105
☿	1106
♀	1107
♂	1108
♃	1109
♄	1110
♈	1111
♉	1112
♊	1113
♋	1114
♌	1115
♍	1116
♎	1117
♏	1118
♒	1119
♓	1120
♚	1121
♛	1122
♠	1123
♡	1124
♢	1125
♣	1126
♤	1127
♥	1128
♦	1129
♩	1130
♪	1131
♫	1132
♬	1133
♭	1134
♯	1135
⚒	1136
⚘	1137
⚠	1138
⚡	1139
⚫	1140
⚽	1141
⛳	1142
⛺	1143
✅	1144
✇	1145
✈	1146
✋	1147
✌	1148
✍	1149
✓	1150
✔	1151
✖	1152
✗	1153
✘	1154
✜	1155
✞	1156
✦	1157
✧	1158
✨	1159
✫	1160
✭	1161
✮	1162
✯	1163
✳	1164
✴	1165
✷	1166
✿	1167
❀	1168
❌	1169
❒	1170
❓	1171
❔	1172
❕	1173
❖	1174
❗	1175
❝	1176
❞	1177
❢	1178
❣	1179
❤	1180
❥	1181
❦	1182
❧	1183
❶	1184
➓	1185
➘	1186
➟	1187
➡	1188
➢	1189
➥	1190
➬	1191
⠀	1192
⦿	1193
⬅	1194
⬆	1195
⬸	1196
⭐	1197
⭕	1198
ⴢ	1199
⸁	1200
⸙	1201
、	1202
。	1203
〇	1204
〈	1205
〉	1206
》	1207
「	1208
」	1209
『	1210
』	1211
【	1212
】	1213
〖	1214
〗	1215
あ	1216
い	1217
う	1218
え	1219
お	1220
か	1221
が	1222
く	1223
さ	1224
じ	1225
な	1226
の	1227
へ	1228
ほ	1229
ょ	1230
よ	1231
り	1232
わ	1233
を	1234
ん	1235
イ	1236
エ	1237
ク	1238
コ	1239
サ	1240
シ	1241
ス	1242
タ	1243
チ	1244
ッ	1245
ツ	1246
ト	1247
ド	1248
ノ	1249
バ	1250
パ	1251
ピ	1252
マ	1253
ミ	1254
ム	1255
ュ	1256
ヮ	1257
ン	1258
・	1259
ー	1260
ㄨ	1261
一	1262
上	1263
之	1264
了	1265
云	1266
以	1267
传	1268
位	1269
何	1270
你	1271
刀	1272
力	1273
午	1274
南	1275
厩	1276
发	1277
古	1278
可	1279
吗	1280
嘅	1281
国	1282
场	1283
報	1284
多	1285
夢	1286
如	1287
子	1288
学	1289
它	1290
少	1291
屋	1292
年	1293
庆	1294
彙	1295
彩	1296
很	1297
情	1298
惠	1299
感	1300
我	1301
打	1302
教	1303
料	1304
斯	1305
於	1306
月	1307
机	1308
機	1309
泊	1310
波	1311
爱	1312
瑞	1313
用	1314
电	1315
発	1316
發	1317
的	1318
真	1319
着	1320
示	1321
科	1322
端	1323
篇	1324
終	1325
纳	1326
者	1327
职	1328
背	1329
节	1330
花	1331
菜	1332
葬	1333
藍	1334
蝶	1335
要	1336
詞	1337
語	1338
謝	1339
话	1340
语	1341
谷	1342
超	1343
辛	1344
迪	1345
邏	1346
钱	1347
际	1348
隨	1349
雨	1350
音	1351
顯	1352
鲁	1353
ꓘ	1354
ꓤ	1355
ꔫ	1356
ꖾ	1357
ꟽ	1358
ꦿ	1359
ꪆ	1360
ꪝ	1361
ꫀ	1362
ꫛ	1363
각	1364
금	1365
길	1366
나	1367
는	1368
다	1369
대	1370
래	1371
리	1372
마	1373
만	1374
문	1375
방	1376
법	1377
서	1378
손	1379
솔	1380
송	1381
시	1382
양	1383
얼	1384
에	1385
연	1386
요	1387
우	1388
정	1389
져	1390
조	1391
좋	1392
지	1393
직	1394
평	1395
하	1396
할	1397
해	1398
형	1399
화	1400
효	1401
희	1402
﮶	1403
﮼	1404
﴾	1405
﴿	1406
︎	1407
️	1408
�	1409
𐄒	1410
𐎚	1411
𐭣	1412
𐭦	1413
𐭪	1414
𐭬	1415
𓂅	1416
𓆩	1417
𓆪	1418
𖣂	1419
𖣴	1420
𖤈	1421
𖤍	1422
🅚	1423
🅛	1424
🅜	1425
🅦	1426
🇦	1427
🇧	1428
🇨	1429
🇩	1430
🇬	1431
🇮	1432
🇱	1433
🇲	1434
🇵	1435
🇶	1436
🇷	1437
🇸	1438
🇹	1439
🇺	1440
🇿	1441
🌆	1442
🌈	1443
🌍	1444
🌎	1445
🌓	1446
🌔	1447
🌙	1448
🌚	1449
🌛	1450
🌜	1451
🌝	1452
🌞	1453
🌟	1454
🌤	1455
🌧	1456
🌱	1457
🌵	1458
🌷	1459
🌸	1460
🌹	1461
🌺	1462
🌻	1463
🌼	1464
🌿	1465
🍀	1466
🍂	1467
🍃	1468
🍇	1469
🍉	1470
🍕	1471
🍩	1472
🍰	1473
🍷	1474
🍻	1475
🍼	1476
🍾	1477
🍿	1478
🎀	1479
🎁	1480
🎃	1481
🎅	1482
🎈	1483
🎞	1484
🎥	1485
🎧	1486
🎨	1487
🎯	1488
🎵	1489
🎶	1490
🎻	1491
🎼	1492
🏃	1493
🏆	1494
🏊	1495
🏖	1496
🏣	1497
🏭	1498
🏳	1499
🏹	1500
🏻	1501
🏼	1502
🏽	1503
🏾	1504
🏿	1505
🐍	1506
🐒	1507
🐕	1508
🐠	1509
🐢	1510
🐸	1511
🐾	1512
👀	1513
👃	1514
👅	1515
👆	1516
👇	1517
👈	1518
👉	1519
👊	1520
👋	1521
👌	1522
👍	1523
👎	1524
👑	1525
👕	1526
👠	1527
👢	1528
👤	1529
👧	1530
👨	1531
👩	1532
👭	1533
👰	1534
👲	1535
👳	1536
👾	1537
💀	1538
💃	1539
💅	1540
💇	1541
💈	1542
💋	1543
💍	1544
💐	1545
💒	1546
💓	1547
💔	1548
💕	1549
💖	1550
💗	1551
💘	1552
💙	1553
💚	1554
💛	1555
💜	1556
💝	1557
💞	1558
💠	1559
💡	1560
💣	1561
💦	1562
💪	1563
💫	1564
💮	1565
💯	1566
💰	1567
💷	1568
💻	1569
📄	1570
📑	1571
📚	1572
📛	1573
📥	1574
📩	1575
📮	1576
📲	1577
📷	1578
📸	1579
📿	1580
🔆	1581
🔈	1582
🔐	1583
🔒	1584
🔕	1585
🔗	1586
🔞	1587
🔥	1588
🔫	1589
🔱	1590
🔴	1591
🔶	1592
🔸	1593
🔹	1594
🔺	1595
🕊	1596
🕌	1597
🕘	1598
🖕	1599
🖤	1600
🖼	1601
🗯	1602
🗿	1603
😀	1604
😁	1605
😂	1606
😃	1607
😄	1608
😅	1609
😆	1610
😇	1611
😈	1612
😉	1613
😊	1614
😋	1615
😌	1616
😍	1617
😎	1618
😏	1619
😐	1620
😑	1621
😒	1622
😔	1623
😕	1624
😘	1625
😛	1626
😜	1627
😝	1628
😠	1629
😢	1630
😤	1631
😦	1632
😧	1633
😨	1634
😩	1635
😪	1636
😬	1637
😭	1638
😮	1639
😯	1640
😱	1641
😲	1642
😳	1643
😵	1644
😷	1645
😹	1646
😻	1647
😽	1648
😿	1649
🙁	1650
🙂	1651
🙃	1652
🙄	1653
🙅	1654
🙆	1655
🙇	1656
🙈	1657
🙊	1658
🙋	1659
🙌	1660
🙏	1661
🚌	1662
🚓	1663
🚣	1664
🚨	1665
🚫	1666
🚭	1667
🚵	1668
🚶	1669
🚷	1670
🛌	1671
🛐	1672
🛒	1673
🛫	1674
🛰	1675
🟥	1676
🤍	1677
🤎	1678
🤐	1679
🤒	1680
🤓	1681
🤔	1682
🤕	1683
🤚	1684
🤟	1685
🤠	1686
🤣	1687
🤤	1688
🤧	1689
🤨	1690
🤩	1691
🤪	1692
🤭	1693
🤲	1694
🤸	1695
🤹	1696
🥀	1697
🥇	1698
🥰	1699
🥺	1700
🦋	1701
🦦	1702
🦯	1703
🦼	1704
🦽	1705
🧐	1706
🧑	1707
🧖	1708
🧚	1709
🧝	1710
🧸	1711
##ت	1712
##ف	1713
##آ	1714
##ع	1715
##ۆ	1716
##ا	1717
##م	1718
##ي	1719
##ه	1720
##e	1721
##a	1722
##t	1723
##ن	1724
##و	1725
##د	1726
##ل	1727
##ش	1728
##ء	1729
##ز	1730
##گ	1731
##ر	1732
##ٽ	1733
##ض	1734
##ى	1735
##ط	1736
##ڪ	1737
##8	1738
##h	1739
##r	1740
##س	1741
##ڻ	1742
##ب	1743
##ظ	1744
##ة	1745
##۱	1746
##ج	1747
##ث	1748
##إ	1749
##6	1750
##m	1751
##پ	1752
##ڊ	1753
##5	1754
##خ	1755
##ۈ	1756
##ډ	1757
##ك	1758
##غ	1759
##s	1760
##q	1761
##ُ	1762
##i	1763
##ڙ	1764
##2	1765
##ح	1766
##f	1767
##n	1768
##ç	1769
##k	1770
##ـ	1771
##ښ	1772
##j	1773
##d	1774
##o	1775
##c	1776
##b	1777
##ں	1778
##u	1779
##ک	1780
##چ	1781
##p	1782
##l	1783
##ڀ	1784
##y	1785
##ق	1786
##ص	1787
##א	1788
##ڍ	1789
##g	1790
##ې	1791
##ټ	1792
##v	1793
##ؤ	1794
##ڏ	1795
##ٺ	1796
##ګ	1797
##ئ	1798
##4	1799
##0	1800
##؛	1801
##ڄ	1802
##ٹ	1803
##ڵ	1804
##x	1805
##,	1806
##=	1807
##ی	1808
##ِ	1809
##ڳ	1810
##ٌ	1811
##:	1812
##ڷ	1813
##ٱ	1814
##َ	1815
##ۉ	1816
##ٰ	1817
##ö	1818
##ْ	1819
##ذ	1820
##أ	1821
##о	1822
##р	1823
##ڇ	1824
##ړ	1825
##ڈ	1826
##ژ	1827
##w	1828
##ڎ	1829
##ڌ	1830
##ھ	1831
##ٿ	1832
##ā	1833
##′	1834
##î	1835
##é	1836
##9	1837
##٥	1838
##٠	1839
##z	1840
##۰	1841
##😍	1842
##ٻ	1843
##7	1844
##<	1845
##>	1846
##ρ	1847
##ι	1848
##3	1849
##ڛ	1850
##.	1851
##ۃ	1852
##ڃ	1853
##ہ	1854
##ű	1855
##ś	1856
##ı	1857
##ڑ	1858
##)	1859
##1	1860
##ڜ	1861
##ມ	1862
##ທ	1863
##ۍ	1864
##झ	1865
##ै	1866
##ó	1867
##-	1868
##с	1869
##к	1870
##и	1871
##🇧	1872
##ս	1873
##コ	1874
##マ	1875
##̇	1876
##ڂ	1877
##ݪ	1878
##"	1879
##¬	1880
##_	1881
##ے	1882
##篇	1883
##١	1884
##ä	1885
##ّ	1886
##г	1887
##۳	1888
##؟	1889
##@	1890
##ڤ	1891
##ڱ	1892
##ڦ	1893
##ڹ	1894
##ڭ	1895
##╝	1896
##{	1897
##ٍ	1898
##ω	1899
##!	1900
##խ	1901
##ո	1902
##ի	1903
##٢	1904
##ە	1905
##*	1906
##ݢ	1907
##ږ	1908
##ڕ	1909
##❤	1910
##ט	1911
##ۑ	1912
##द	1913
##ο	1914
##υ	1915
##ٚ	1916
##а	1917
##в	1918
##۽	1919
##۵	1920
##ࢦ	1921
##~	1922
##♥	1923
##ş	1924
##ü	1925
##ۊ	1926
##۲	1927
##ڼ	1928
##з	1929
##д	1930
##й	1931
##🙈	1932
##à	1933
##ڝ	1934
##ү	1935
##х	1936
##😭	1937
##۔	1938
##ڸ	1939
##۸	1940
##'	1941
##۹	1942
##ɑ	1943
##ː	1944
##ē	1945
##ट	1946
##،	1947
##👌	1948
##ґ	1949
##•	1950
##►	1951
##н	1952
##ы	1953
##е	1954
##۾	1955
##×	1956
##]	1957
##♫	1958
##╦	1959
##ٓ	1960
##ڋ	1961
##ɪ	1962
##ێ	1963
##ۂ	1964
##♡	1965
##ë	1966
##?	1967
##ø	1968
##^	1969
##څ	1970
##ځ	1971
##ٴ	1972
##ػ	1973
##י	1974
##;	1975
##◕	1976
##금	1977
##만	1978
##ě	1979
##۶	1980
##ǟ	1981
##ì	1982
##ۀ	1983
##े	1984
##°	1985
##ݥ	1986
##ī	1987
##ህ	1988
##٨	1989
##/	1990
##ց	1991
##ե	1992
##լ	1993
##ј	1994
##ۧ	1995
##۷	1996
##ۓ	1997
##🏻	1998
##😂	1999
##⃢	2000
##謝	2001
##你	2002
##⠀	2003
##💔	2004
##→	2005
##ա	2006
##տ	2007
##ღ	2008
##ᴀ	2009
##α	2010
##π	2011
##ƛ	2012
##ƴ	2013
##ɲ	2014
##ݘ	2015
##🐒	2016
##バ	2017
##ッ	2018
##ク	2019
##ノ	2020
##の	2021
##·	2022
##ሩ	2023
##٪	2024
##נ	2025
##ẹ	2026
##ê	2027
##т	2028
##л	2029
##у	2030
##ۋ	2031
##が	2032
##く	2033
##σ	2034
##η	2035
##ע	2036
##ר	2037
##м	2038
##כ	2039
##희	2040
##ٖ	2041
##ô	2042
###	2043
##ً	2044
##è	2045
##ñ	2046
##٣	2047
##◣	2048
##۴	2049
##٩	2050
##$	2051
##ो	2052
##ल	2053
##ζ	2054
##ؿ	2055
##&	2056
##û	2057
##ל	2058
##🎁	2059
##٦	2060
##í	2061
##ؽ	2062
##ݩ	2063
##व	2064
##ۿ	2065
##ꫀ	2066
##ꪝ	2067
##ۅ	2068
##ㄨ	2069
##ğ	2070
##β	2071
##қ	2072
##न	2073
##ि	2074
##ٜ	2075
##●	2076
##ڠ	2077
##💫	2078
##ٔ	2079
##á	2080
##发	2081
##音	2082
##έ	2083
##ڶ	2084
##😈	2085
##ł	2086
##ે	2087
##ટ	2088
##ọ	2089
##մ	2090
##ր	2091
##ը	2092
##节	2093
##😅	2094
##發	2095
##ኔ	2096
##ш	2097
##ٗ	2098
##ב	2099
##😪	2100
##ǝ	2101
##ٕ	2102
##👍	2103
##ा	2104
##थ	2105
##😵	2106
##%	2107
##ž	2108
##ए	2109
##ú	2110
##🙏	2111
##ן	2112
##💞	2113
##💓	2114
##।	2115
##迪	2116
##מ	2117
##ך	2118
##ڒ	2119
##ම	2120
##[	2121
##§	2122
##💯	2123
##म	2124
##ħ	2125
##ꪆ	2126
##ˇ	2127
##🤍	2128
##æ	2129
##č	2130
##۞	2131
##š	2132
##}	2133
##👊	2134
##💰	2135
##θ	2136
##+	2137
##ታ	2138
##ּ	2139
##ಡ	2140
##٧	2141
##ڿ	2142
##◥	2143
##📿	2144
##र	2145
##ნ	2146
##დ	2147
##უ	2148
##რ	2149
##◊	2150
##і	2151
##↓	2152
##‹	2153
##ц	2154
##®	2155
##ւ	2156
##ն	2157
##ٮ	2158
##เ	2159
##ก	2160
##ล	2161
##イ	2162
##エ	2163
##ン	2164
##ス	2165
##ग	2166
##✿	2167
##ҳ	2168
##ෑ	2169
##ք	2170
##վ	2171
##🌻	2172
##٤	2173
##ю	2174
##อ	2175
##ย	2176
##า	2177
##👑	2178
##😝	2179
##μ	2180
##य	2181
##리	2182
##😹	2183
##€	2184
##ч	2185
##ۇ	2186
##ٛ	2187
##💘	2188
##ь	2189
##多	2190
##少	2191
##钱	2192
##😿	2193
##🏃	2194
##ռ	2195
##😘	2196
##さ	2197
##い	2198
##ٲ	2199
##🏼	2200
##հ	2201
##¿	2202
##🤣	2203
##️	2204
##ם	2205
##ћ	2206
##̲	2207
##庆	2208
##】	2209
##ݨ	2210
##▌	2211
##չ	2212
##պ	2213
##ί	2214
##ς	2215
##☘	2216
##▶	2217
##✘	2218
##🙊	2219
##œ	2220
##😁	2221
##ۄ	2222
##ڽ	2223
##ά	2224
##ř	2225
##٫	2226
##を	2227
##ু	2228
##খ	2229
##ō	2230
##›	2231
##🤒	2232
##╚	2233
##ؼ	2234
##ไ	2235
##ป	2236
##ท	2237
##ల	2238
##ా	2239
##ങ	2240
##🌹	2241
##🔥	2242
##位	2243
##э	2244
##ד	2245
##ו	2246
##ã	2247
##ň	2248
##😒	2249
##詞	2250
##彙	2251
##б	2252
##💻	2253
##✷	2254
##ડ	2255
##😇	2256
##ש	2257
##ज	2258
##ۺ	2259
##å	2260
##į	2261
##٬	2262
##很	2263
##爱	2264
##ṇ	2265
##â	2266
##💜	2267
##云	2268
##之	2269
##南	2270
##⃣	2271
##ु	2272
##ꟽ	2273
##ე	2274
##კ	2275
##თ	2276
##(	2277
##🌍	2278
##♪	2279
##🍃	2280
##ể	2281
##ĺ	2282
##🥀	2283
##ŏ	2284
##đ	2285
##ው	2286
##ጎ	2287
##ት	2288
##😉	2289
##♬	2290
##♩	2291
##り	2292
##ղ	2293
##☺	2294
##£	2295
##ố	2296
##ब	2297
##ٙ	2298
##ז	2299
##🕊	2300
##ࢪ	2301
##ۏ	2302
##ɛ	2303
##하	2304
##는	2305
##🇶	2306
##ڣ	2307
##छ	2308
##⚡	2309
##★	2310
##ʀ	2311
##💕	2312
##ź	2313
##ል	2314
##ጋ	2315
##ለ	2316
##👀	2317
##ू	2318
##ध	2319
##◩	2320
##ṁ	2321
##ę	2322
##น	2323
##ม	2324
##บ	2325
##ٳ	2326
##ड	2327
##ε	2328
##ý	2329
##ള	2330
##教	2331
##者	2332
##♠	2333
##🙂	2334
##♀	2335
##←	2336
##ڞ	2337
##😻	2338
##💗	2339
##𓆩	2340
##ន	2341
##פ	2342
##ʒ	2343
##😳	2344
##ถ	2345
##ค	2346
##ด	2347
##■	2348
##🎻	2349
##მ	2350
##ს	2351
##ೋ	2352
##ಈ	2353
##₩	2354
##٘	2355
##🌸	2356
##พ	2357
##ฉ	2358
##ᄒ	2359
##ম	2360
##ি	2361
##ڨ	2362
##◄	2363
##ṣ	2364
##ห	2365
##ਾ	2366
##ਂ	2367
##ụ	2368
##ۡ	2369
##国	2370
##际	2371
##机	2372
##场	2373
##ө	2374
##✌	2375
##🤟	2376
##ወ	2377
##ር	2378
##ቅ	2379
##ጣ	2380
##ም	2381
##😃	2382
##ນ	2383
##√	2384
##त	2385
##ٞ	2386
##🤧	2387
##ᅲ	2388
##ŭ	2389
##😊	2390
##❕	2391
##ȋ	2392
##ۼ	2393
##ɨ	2394
##ό	2395
##래	2396
##😀	2397
##٭	2398
##ə	2399
##⇣	2400
##ж	2401
##💙	2402
##॒	2403
##ह	2404
##✦	2405
##ይ	2406
##ዎ	2407
##ů	2408
##ị	2409
##마	2410
##나	2411
##❀	2412
##传	2413
##着	2414
##屋	2415
##ठ	2416
##ຢ	2417
##າ	2418
##ກ	2419
##ຖ	2420
##ශ	2421
##ය	2422
##ϋ	2423
##ϟ	2424
##😜	2425
##կ	2426
##я	2427
##💍	2428
##🔫	2429
##ė	2430
##ḭ	2431
##ṝ	2432
##ă	2433
##花	2434
##ŋ	2435
##ï	2436
##ở	2437
##ḑ	2438
##♭	2439
##¡	2440
##ơ	2441
##ỹ	2442
##ܨ	2443
##ܓ	2444
##◝	2445
##ṛ	2446
##藍	2447
##ṭ	2448
##☛	2449
##💪	2450
##🌷	2451
##ई	2452
##𐭣	2453
##𐭪	2454
##ে	2455
##উ	2456
##🏽	2457
##ന	2458
##ュ	2459
##ト	2460
##語	2461
##⚘	2462
##̃	2463
##각	2464
##형	2465
##😋	2466
##⚫	2467
##』	2468
##ъ	2469
##₦	2470
##🦋	2471
##🔞	2472
##😱	2473
##🎃	2474
##。	2475
##『	2476
##🖕	2477
##〗	2478
##†	2479
##🔕	2480
##ג	2481
##✋	2482
##ਈ	2483
##ા	2484
##થ	2485
##ΐ	2486
##ɞ	2487
##﴿	2488
##ं	2489
##̶	2490
##う	2491
##ほ	2492
##🎈	2493
##🤠	2494
##ੈ	2495
##ʊ	2496
##क	2497
##❧	2498
##打	2499
##电	2500
##话	2501
##吗	2502
##💈	2503
##ù	2504
##😔	2505
##用	2506
##鲁	2507
##瑞	2508
##ๅ	2509
##ހ	2510
##ण	2511
##雨	2512
##ệ	2513
##👆	2514
##ኝ	2515
##φ	2516
##☄	2517
##斯	2518
##💚	2519
##직	2520
##할	2521
##시	2522
##ż	2523
##↝	2524
##ҽ	2525
##報	2526
##科	2527
##学	2528
##🇸	2529
##ஐ	2530
##ሂ	2531
##చ	2532
##¦	2533
##🌤	2534
##յ	2535
##є	2536
##ພ	2537
##ະ	2538
##ເ	2539
##ຈ	2540
##【	2541
##ܪ	2542
##ܵ	2543
##ڲ	2544
##ۦ	2545
##力	2546
##ド	2547
##可	2548
##以	2549
##顯	2550
##示	2551
##법	2552
##해	2553
##져	2554
##요	2555
##😆	2556
##☝	2557
##๑	2558
##☆	2559
##۩	2560
##ー	2561
##ȅ	2562
##♣	2563
##ò	2564
##▽	2565
##ϻ	2566
##ď	2567
##에	2568
##서	2569
##ピ	2570
##タ	2571
##هه	2572
##ان	2573
جي	2574
##هي	2575
ههه	2576
##ري	2577
##هن	2578
##ين	2579
آهي	2580
##ون	2581
##ار	2582
ان	2583
کي	2584
##يو	2585
##ال	2586
هههه	2587
##ائ	2588
جو	2589
##ور	2590
##ند	2591
ته	2592
اس	2593
لا	2594
##نهن	2595
تي	2596
##ئي	2597
##ام	2598
اه	2599
ڪري	2600
##لي	2601
هڪ	2602
##يا	2603
##ءِ	2604
کان	2605
##ــ	2606
ال	2607
ڪر	2608
سان	2609
نه	2610
هن	2611
ٿي	2612
اي	2613
##اڻ	2614
به	2615
هو	2616
يا	2617
تو	2618
##دي	2619
ون	2620
##تي	2621
##نهنج	2622
##اب	2623
##ير	2624
آهن	2625
##دا	2626
وا	2627
ڪرڻ	2628
ٿو	2629
اسان	2630
ههههه	2631
اهو	2632
##يڪ	2633
##هان	2634
لاءِ	2635
##رو	2636
##هر	2637
##لا	2638
ڪي	2639
ئي	2640
##ني	2641
هي	2642
##دو	2643
مو	2644
پر	2645
جا	2646
سگ	2647
##ول	2648
ين	2649
توهان	2650
پي	2651
##ست	2652
##جي	2653
مان	2654
ڪيو	2655
##ڪي	2656
مون	2657
ما	2658
پنهنج	2659
رو	2660
##ڏهن	2661
وي	2662
پو	2663
نا	2664
من	2665
##مي	2666
##را	2667
ڪند	2668
ري	2669
ٿا	2670
##سي	2671
ڪو	2672
را	2673
ور	2674
مي	2675
##قت	2676
##قي	2677
وڌ	2678
ڪم	2679
##ائي	2680
بي	2681
سو	2682
يو	2683
او	2684
##لو	2685
ها	2686
##ھن	2687
##ڪو	2688
لاء	2689
##رف	2690
رهي	2691
ويو	2692
ات	2693
##ھي	2694
انهن	2695
ائ	2696
طور	2697
ار	2698
ءَ	2699
است	2700
يڪ	2701
خو	2702
سڀ	2703
ڪا	2704
##ائين	2705
##اد	2706
مع	2707
وڃ	2708
##شن	2709
##ورت	2710
گه	2711
لي	2712
##هو	2713
##ءَ	2714
##اص	2715
ـــ	2716
##ڙي	2717
##بر	2718
##له	2719
مال	2720
##ئن	2721
##رين	2722
ڇا	2723
هر	2724
##ٽر	2725
##ها	2726
ڏين	2727
سي	2728
شا	2729
سم	2730
##اري	2731
وين	2732
##ڏي	2733
مح	2734
ني	2735
##ٽي	2736
جن	2737
##مل	2738
در	2739
ماڻ	2740
مل	2741
في	2742
وقت	2743
وڌيڪ	2744
##گر	2745
تع	2746
##بي	2747
##در	2748
##کي	2749
ڪج	2750
منهنج	2751
بر	2752
هون	2753
وار	2754
گهر	2755
##مت	2756
##از	2757
##جو	2758
سال	2759
##اني	2760
##اڻي	2761
ڪار	2762
ام	2763
اهي	2764
نگ	2765
اين	2766
اڳ	2767
##ڪا	2768
تر	2769
ڏي	2770
سند	2771
آھي	2772
استع	2773
سن	2774
جنهن	2775
نو	2776
ـــــ	2777
ڪئي	2778
شي	2779
مر	2780
##چي	2781
سا	2782
##سم	2783
نظ	2784
##ڻي	2785
هئي	2786
ڳال	2787
##گي	2788
تائين	2789
جيڪو	2790
واري	2791
ٽي	2792
پا	2793
ڪنهن	2794
پوءِ	2795
مش	2796
مس	2797
##صو	2798
##سٽ	2799
ڊي	2800
ڪريو	2801
ائي	2802
ــ	2803
ڪجهه	2804
عل	2805
با	2806
اها	2807
##خت	2808
ڪن	2809
چيو	2810
ٿين	2811
##نا	2812
##فت	2813
جڏهن	2814
سگهي	2815
بس	2816
##ڙو	2817
ڏينهن	2818
##نيا	2819
دو	2820
يل	2821
گڏ	2822
وڃي	2823
جيڪي	2824
##نگ	2825
##اصل	2826
##في	2827
رک	2828
##يت	2829
##ڪر	2830
از	2831
##عي	2832
سر	2833
تم	2834
يت	2835
حاصل	2836
##لام	2837
لڳ	2838
ضر	2839
##اهي	2840
ست	2841
اع	2842
يند	2843
##جود	2844
##بو	2845
سندس	2846
وٽ	2847
##ئر	2848
لو	2849
يڪڏهن	2850
ڪيت	2851
يم	2852
ٻڌ	2853
##يد	2854
علي	2855
هم	2856
مق	2857
پاڻ	2858
هئ	2859
شرو	2860
##الي	2861
الله	2862
##ئين	2863
##ثر	2864
##ما	2865
شروع	2866
تمام	2867
وٺ	2868
##ڪل	2869
##اه	2870
اص	2871
تح	2872
باب	2873
##اا	2874
##ڪن	2875
##سان	2876
##ٿي	2877
ڏس	2878
ناهي	2879
په	2880
فر	2881
گھ	2882
ڇو	2883
دا	2884
يون	2885
دنيا	2886
##فر	2887
##با	2888
دل	2889
##رح	2890
مط	2891
زند	2892
صح	2893
ٿيو	2894
رهيو	2895
تون	2896
عم	2897
عام	2898
مري	2899
##دار	2900
##لم	2901
چي	2902
ڇڏ	2903
ماڻهو	2904
جون	2905
##بل	2906
وئي	2907
##تو	2908
##ئون	2909
نن	2910
پن	2911
مخت	2912
وز	2913
پڻ	2914
نم	2915
نظر	2916
وڏي	2917
##ڻو	2918
زم	2919
ضرورت	2920
شام	2921
دور	2922
يع	2923
##اهر	2924
انهي	2925
ڏان	2926
ويندو	2927
##هم	2928
##نو	2929
##ھان	2930
مت	2931
قو	2932
عمل	2933
مد	2934
اُ	2935
صرف	2936
اچي	2937
سب	2938
خاص	2939
ويا	2940
ڪندا	2941
وڏ	2942
پيش	2943
زندگي	2944
ٿيڻ	2945
ڪڏهن	2946
##لف	2947
چون	2948
##عد	2949
تب	2950
طرف	2951
##تم	2952
نس	2953
ٻي	2954
طري	2955
##ءُ	2956
ڪت	2957
وال	2958
##ائن	2959
نق	2960
چو	2961
اڻ	2962
هئا	2963
##يل	2964
ڪيئن	2965
بل	2966
##فا	2967
سمج	2968
##بت	2969
سين	2970
ند	2971
ڪندو	2972
اح	2973
لک	2974
##اح	2975
پار	2976
بابت	2977
##لب	2978
سڀني	2979
جيئن	2980
ماڻهن	2981
##ڪار	2982
##ٺو	2983
غير	2984
رس	2985
ڏانهن	2986
##عو	2987
طرح	2988
ڪه	2989
بند	2990
قسم	2991
in	2992
شامل	2993
گهٽ	2994
آخ	2995
قي	2996
صورت	2997
ٻئي	2998
سنڌ	2999
دار	3000
وري	3001
##زي	3002
ندا	3003
آر	3004
جه	3005
ايم	3006
اڄ	3007
مختلف	3008
يعني	3009
ٽر	3010
اد	3011
ول	3012
ٻار	3013
ياد	3014
##ائڻ	3015
##اف	3016
شو	3017
هل	3018
وارو	3019
گر	3020
##سو	3021
آهيان	3022
هت	3023
وان	3024
مڪ	3025
مث	3026
رهيا	3027
خي	3028
تنهن	3029
نال	3030
واق	3031
خبر	3032
ڳالهه	3033
اسٽ	3034
حقي	3035
هوندي	3036
##تر	3037
نت	3038
اندر	3039
ڪندي	3040
اب	3041
ڏيڻ	3042
##سا	3043
##ڪس	3044
تن	3045
##ھو	3046
بڻ	3047
پيو	3048
حال	3049
فو	3050
گهرجي	3051
وچ	3052
اڪ	3053
بين	3054
بعد	3055
##لس	3056
ڪتاب	3057
پس	3058
هيٺ	3059
ايس	3060
هوندو	3061
اپ	3062
آئون	3063
ڪندڙ	3064
چاهي	3065
واپ	3066
تاري	3067
ٻن	3068
آهيون	3069
جيڪا	3070
پڙ	3071
سبب	3072
مدد	3073
ذري	3074
هري	3075
سيا	3076
##هند	3077
ٻين	3078
تاريخ	3079
ادا	3080
تج	3081
##ھنج	3082
خر	3083
كم	3084
##زا	3085
مڪمل	3086
موجود	3087
##وا	3088
عورت	3089
ھڪ	3090
اچ	3091
خوش	3092
کيس	3093
پاڪ	3094
ڳو	3095
شهر	3096
اج	3097
ٿيل	3098
بو	3099
ير	3100
اتي	3101
نئين	3102
نالو	3103
ڪمپ	3104
گذ	3105
انا	3106
يس	3107
يه	3108
خلا	3109
مم	3110
اهم	3111
##فظ	3112
##نڊ	3113
گهڻو	3114
ملڪ	3115
##ديل	3116
جواب	3117
سگه	3118
اخ	3119
##مد	3120
er	3121
يق	3122
هتي	3123
##ٽا	3124
پور	3125
هاڻي	3126
ڪمپني	3127
پهرين	3128
##قا	3129
تبديل	3130
ختم	3131
##ذا	3132
##هڻ	3133
قاب	3134
آن	3135
دوست	3136
ڪل	3137
##on	3138
يور	3139
ڏا	3140
رد	3141
##يان	3142
شر	3143
ائيٽ	3144
تنهنج	3145
حق	3146
اڃ	3147
##يم	3148
st	3149
##ايو	3150
آھن	3151
حس	3152
##ar	3153
##ندي	3154
سگهو	3155
ٿيندو	3156
##رن	3157
۾،	3158
##طي	3159
خيال	3160
شايد	3161
##ڳو	3162
##شت	3163
مسئ	3164
##جب	3165
سالن	3166
##شش	3167
سلام	3168
ڇڏيو	3169
نٽ	3170
فار	3171
پيدا	3172
ائين	3173
##صر	3174
عر	3175
تق	3176
ڪون	3177
فون	3178
چين	3179
ڏئي	3180
نيا	3181
وڏو	3182
ٿئي	3183
##ڪري	3184
##اج	3185
ولا	3186
فائ	3187
ڇڏي	3188
##امي	3189
هٿ	3190
دي	3191
##حد	3192
گي	3193
انت	3194
##لاح	3195
بد	3196
ويب	3197
اهڙي	3198
##صي	3199
##شه	3200
##دم	3201
قر	3202
نٿ	3203
سوا	3204
عليه	3205
وو	3206
چونڊ	3207
قان	3208
ڏنو	3209
##ضو	3210
##دڙ	3211
##زار	3212
هترين	3213
ااا	3214
##er	3215
ڪوشش	3216
قانون	3217
پوء	3218
مض	3219
##يح	3220
سيڪ	3221
##ارت	3222
مطلب	3223
آيو	3224
##ليم	3225
قيمت	3226
ويندي	3227
پري	3228
ٻه	3229
هجي	3230
ايپ	3231
اف	3232
##روري	3233
خدا	3234
ريا	3235
رات	3236
وٺي	3237
اوهان	3238
10	3239
ٻيو	3240
معي	3241
گھر	3242
سوال	3243
نش	3244
ران	3245
پئي	3246
مين	3247
امي	3248
##لوم	3249
اري	3250
مهي	3251
حل	3252
آئي	3253
وانگر	3254
##اڪ	3255
آهيو	3256
ٽيڪ	3257
ملي	3258
##جن	3259
پڇ	3260
##هور	3261
##حك	3262
انسان	3263
##خل	3264
ذريعي	3265
##ائق	3266
غل	3267
اصل	3268
خط	3269
شك	3270
پاڪست	3271
صحيح	3272
##سوس	3273
ترقي	3274
معلوم	3275
يقين	3276
يڊ	3277
##جه	3278
فق	3279
ڪيا	3280
##وب	3281
توھان	3282
##تا	3283
يان	3284
عال	3285
حقيقت	3286
##ٽو	3287
لفظ	3288
##ٺي	3289
وس	3290
##مو	3291
##ڪيٽ	3292
عمر	3293
##ندڙ	3294
ڪيل	3295
پرو	3296
هنن	3297
صف	3298
يد	3299
ڪيترا	3300
##صل	3301
رکي	3302
ڄاڻ	3303
قدر	3304
##اجي	3305
بح	3306
##عا	3307
اک	3308
سفر	3309
اوھان	3310
علا	3311
##ڊيو	3312
جاري	3313
ڏسي	3314
ولي	3315
ختي	3316
##or	3317
وجود	3318
والله	3319
اثر	3320
رج	3321
اول	3322
ظاهر	3323
اڃا	3324
ارڪيٽ	3325
يار	3326
##من	3327
ننڍ	3328
دوران	3329
سوچ	3330
ذا	3331
حڪو	3332
تصو	3333
ڳالها	3334
پسند	3335
هاي	3336
##يرو	3337
حڪومت	3338
صاح	3339
##ريب	3340
شخ	3341
سپ	3342
ضروري	3343
نج	3344
ڪيترن	3345
##ضي	3346
فرا	3347
تصوير	3348
ٻاهر	3349
حڪ	3350
صاحب	3351
پٽ	3352
لڳي	3353
##in	3354
ئين	3355
جل	3356
مٿ	3357
راند	3358
مريڪا	3359
مخ	3360
مواد	3361
##ورٽ	3362
ھن	3363
##ڙا	3364
رهن	3365
جتي	3366
گو	3367
حصو	3368
نهي	3369
##اس	3370
علائق	3371
##ريل	3372
بهتر	3373
سڄ	3374
اسڪ	3375
سندن	3376
##ران	3377
تص	3378
اند	3379
رق	3380
co	3381
حو	3382
عن	3383
##فو	3384
نتظ	3385
اني	3386
ختيار	3387
ڏسڻ	3388
طريق	3389
خري	3390
اسين	3391
##ڙه	3392
ڀر	3393
هريون	3394
جان	3395
بال	3396
##صد	3397
هُ	3398
##پي	3399
ڊيٽا	3400
محسوس	3401
اٿ	3402
ٺاهي	3403
ڪجھ	3404
يٽ	3405
كل	3406
هين	3407
صلاح	3408
موضو	3409
آسان	3410
مٿي	3411
هوندا	3412
وق	3413
چار	3414
عو	3415
آخر	3416
##کار	3417
بيان	3418
##نس	3419
موضوع	3420
خلاف	3421
اا	3422
يدا	3423
##رت	3424
على	3425
##لق	3426
نتي	3427
پاڻي	3428
##ارف	3429
اھو	3430
وڪ	3431
##ائو	3432
ڏني	3433
فارم	3434
حد	3435
ٿيون	3436
زمين	3437
th	3438
معيار	3439
مثال	3440
بچ	3441
ڏک	3442
چه	3443
ساڳ	3444
مج	3445
پنھنج	3446
اش	3447
ٿيندي	3448
ليڪ	3449
##ظيم	3450
سام	3451
دف	3452
رڳو	3453
##جڻ	3454
طرفان	3455
تعليم	3456
حالت	3457
نداز	3458
وارا	3459
ڪاروب	3460
منظ	3461
رنگ	3462
شع	3463
يءَ	3464
وسي	3465
رکڻ	3466
دست	3467
پيار	3468
خوا	3469
سگهجي	3470
##ولي	3471
لائن	3472
ڊائ	3473
##كم	3474
داخل	3475
آز	3476
##ـــ	3477
خود	3478
آب	3479
تجر	3480
حلو	3481
مشهور	3482
شخص	3483
هوءَ	3484
يشن	3485
ايپل	3486
يداوا	3487
۾.	3488
قوم	3489
ندي	3490
ٺاه	3491
الي	3492
همي	3493
te	3494
مار	3495
اسپ	3496
##نت	3497
سون	3498
قب	3499
ضحك	3500
مقصد	3501
نف	3502
پون	3503
##سر	3504
تيار	3505
سط	3506
واپس	3507
نهيءَ	3508
##ڪاڻ	3509
ڏاڍ	3510
##بان	3511
ميا	3512
تا	3513
مرد	3514
ايران	3515
صن	3516
ڇاڪاڻ	3517
##قل	3518
عد	3519
نظام	3520
وڃڻ	3521
ing	3522
نيو	3523
وائ	3524
al	3525
قابل	3526
لين	3527
ورس	3528
to	3529
##سٽم	3530
le	3531
##ڏھن	3532
##سپ	3533
نڊ	3534
اعلي	3535
مز	3536
لاز	3537
ندو	3538
مونکي	3539
شه	3540
پير	3541
هذا	3542
تان	3543
##عت	3544
هميشه	3545
ٻنهي	3546
ڏيو	3547
##به	3548
اجاز	3549
چوڻ	3550
مص	3551
راب	3552
##انه	3553
ابو	3554
يندو	3555
شاع	3556
خد	3557
له	3558
سک	3559
قدم	3560
توکي	3561
هند	3562
جنگ	3563
اجازت	3564
فراهم	3565
پئ	3566
علم	3567
عي	3568
يندا	3569
جم	3570
جر	3571
ڪير	3572
اميد	3573
ايو	3574
سلم	3575
##ائم	3576
مذ	3577
آو	3578
##كن	3579
خوب	3580
ڏيکار	3581
رپ	3582
نام	3583
لس	3584
راه	3585
نيادي	3586
آيا	3587
ره	3588
لم	3589
##اپ	3590
##ليل	3591
سٺو	3592
ڏٺو	3593
سواءِ	3594
تعلق	3595
آء	3596
ڄڻ	3597
ھو	3598
صفح	3599
##زن	3600
توڻ	3601
وگر	3602
توڻيڪ	3603
##ڊيا	3604
نٿو	3605
سلامي	3606
کا	3607
##بار	3608
##قيق	3609
تف	3610
##انس	3611
باري	3612
روز	3613
تحقيق	3614
سٽ	3615
انگ	3616
اك	3617
حت	3618
محفو	3619
سگھ	3620
محفوظ	3621
ڪونه	3622
##مبر	3623
##ur	3624
ma	3625
حڪم	3626
ٽيڪن	3627
ڪلا	3628
هه	3629
اگر	3630
حيا	3631
قائم	3632
اڻي	3633
رح	3634
an	3635
حض	3636
ھي	3637
مناس	3638
بار	3639
آواز	3640
مناسب	3641
##صوص	3642
re	3643
##يند	3644
طريقي	3645
وگرام	3646
بت	3647
نئون	3648
##داد	3649
ايت	3650
ايڪس	3651
واقعي	3652
وش	3653
##re	3654
آس	3655
قت	3656
##لن	3657
يڪي	3658
کڻي	3659
شادي	3660
مه	3661
خدمت	3662
موق	3663
رب	3664
رڪ	3665
شيء	3666
##ڌو	3667
ايل	3668
محبت	3669
شين	3670
حي	3671
##شان	3672
طال	3673
وزير	3674
عا	3675
سچ	3676
ڀا	3677
ڊو	3678
ڳول	3679
خريد	3680
##la	3681
ممڪن	3682
گرا	3683
##وري	3684
هجڻ	3685
يست	3686
نالي	3687
##ٽل	3688
##ابق	3689
اسڪول	3690
ويندا	3691
آخري	3692
سخت	3693
نفس	3694
مطابق	3695
رم	3696
هيو	3697
يائين	3698
اڪثر	3699
بنيا	3700
هـ	3701
مهر	3702
##كر	3703
خراب	3704
بنياد	3705
هچ	3706
وفا	3707
صحت	3708
##مير	3709
سگھي	3710
بلا	3711
خواست	3712
سه	3713
##وه	3714
سرو	3715
جسم	3716
آه	3717
اھ	3718
آزاد	3719
يڪيشن	3720
پل	3721
وب	3722
روح	3723
خان	3724
##st	3725
ميل	3726
سڏ	3727
##ڻڻ	3728
موڪل	3729
گهڻي	3730
واحد	3731
وارن	3732
گري	3733
سيڪڙو	3734
پيا	3735
اط	3736
لکي	3737
وڊيو	3738
نمون	3739
ٻارن	3740
اق	3741
منهن	3742
جڳ	3743
چڪو	3744
چڱ	3745
ڊاڪ	3746
آف	3747
##en	3748
آهين	3749
صب	3750
مفت	3751
ٻيهر	3752
طا	3753
ڪمي	3754
##ديد	3755
ڪپ	3756
گرو	3757
ڪٿي	3758
سڄي	3759
سڃ	3760
سائين	3761
ٿيا	3762
فقط	3763
رت	3764
رياست	3765
شد	3766
##انا	3767
##art	3768
سڪ	3769
##ra	3770
آفي	3771
منت	3772
وڪي	3773
که	3774
باقي	3775
اچڻ	3776
سطح	3777
فت	3778
ڪيس	3779
ڊاڪٽر	3780
20	3781
##جوا	3782
نقص	3783
ٽو	3784
اض	3785
پولي	3786
جهڙو	3787
فيص	3788
##ساس	3789
فيصلو	3790
پارٽي	3791
تخ	3792
بغ	3793
رست	3794
ِي	3795
سياسي	3796
##ائش	3797
##يوا	3798
سگهن	3799
ti	3800
ڪافي	3801
پاران	3802
اڳو	3803
ذهن	3804
سائن	3805
نوجوا	3806
ٻڌايو	3807
رن	3808
مرڪ	3809
غلط	3810
يز	3811
روم	3812
يندي	3813
مُ	3814
ڪڍ	3815
##گل	3816
عالمي	3817
ايه	3818
موت	3819
ڳالهي	3820
مريڪي	3821
##لع	3822
##ڪت	3823
بن	3824
##يي	3825
##ريڪ	3826
اڳتي	3827
ورتو	3828
يوني	3829
فع	3830
##ڊي	3831
زين	3832
ch	3833
قا	3834
برا	3835
ڌر	3836
اعل	3837
ڪهڙي	3838
ڪهاڻي	3839
##ڌي	3840
##ro	3841
سگهند	3842
آءٌ	3843
مير	3844
##مون	3845
کول	3846
تيز	3847
ڏسو	3848
نقصان	3849
جديد	3850
##ميت	3851
ايندڙ	3852
پاس	3853
ڳوٺ	3854
en	3855
ملڪن	3856
وڙ	3857
ميڊيا	3858
شيون	3859
پڪ	3860
رپورٽ	3861
##حال	3862
##ڊر	3863
لن	3864
ده	3865
##نل	3866
ئون	3867
تاز	3868
دلچ	3869
بخ	3870
##زل	3871
دلچسپ	3872
ڀي	3873
يندڙ	3874
لسلام	3875
تڪ	3876
رفت	3877
##ندو	3878
اِ	3879
پنج	3880
گا	3881
روش	3882
اڪائو	3883
يش	3884
ايڊ	3885
ذاتي	3886
##وو	3887
##تيب	3888
کين	3889
وج	3890
ضرور	3891
مهربا	3892
##ات	3893
ترتيب	3894
انه	3895
يلي	3896
##ڪٽ	3897
پوليس	3898
صدر	3899
چاهيو	3900
##id	3901
##انگ	3902
مشين	3903
نوٽ	3904
رٽ	3905
فلم	3906
ڪردار	3907
خير	3908
##le	3909
##ارو	3910
رسي	3911
گل	3912
الاجي	3913
اعلان	3914
ترين	3915
نر	3916
رھ	3917
لك	3918
يني	3919
جوڙ	3920
مضمون	3921
تس	3922
مسا	3923
پلي	3924
مرح	3925
نمبر	3926
جدا	3927
حقيقي	3928
واض	3929
ستان	3930
مسئلو	3931
##رر	3932
انھن	3933
تڏهن	3934
ايئر	3935
سسٽم	3936
اسلام	3937
ندڙ	3938
دير	3939
منٽ	3940
طاقت	3941
ڪيون	3942
بڻجي	3943
عرف	3944
حير	3945
ne	3946
لاڳ	3947
هاڻ	3948
گهڻ	3949
حر	3950
##هيل	3951
گڏي	3952
##ندا	3953
##هار	3954
ٽن	3955
عب	3956
سنڌي	3957
خت	3958
ڊگ	3959
رين	3960
وض	3961
ed	3962
لح	3963
قول	3964
##رول	3965
نقل	3966
گوگل	3967
نصو	3968
سلس	3969
نساني	3970
گفت	3971
عورتن	3972
ٿور	3973
ڏنل	3974
صبح	3975
مذه	3976
ماءُ	3977
ٽيم	3978
سامان	3979
بنا	3980
دش	3981
آباد	3982
تعمير	3983
طريقو	3984
ماح	3985
وڃن	3986
ڳن	3987
##ڪان	3988
##ديق	3989
چئي	3990
ڌار	3991
سُ	3992
ڪجي	3993
ورسٽي	3994
ڪش	3995
عوام	3996
واپار	3997
حضرت	3998
چر	3999
ro	4000
سماجي	4001
احساس	4002
قبول	4003
ٺاهڻ	4004
سٺي	4005
حفا	4006
پيغ	4007
لڳو	4008
سائنس	4009
ماحول	4010
مقرر	4011
حفاظ	4012
##الت	4013
ود	4014
ائل	4015
تقريب	4016
ڪيتري	4017
دري	4018
پورو	4019
خا	4020
##ٽري	4021
##ستي	4022
سمجھ	4023
وٺڻ	4024
حفاظت	4025
لوڊ	4026
اصلي	4027
گذريل	4028
de	4029
شاء	4030
##ظم	4031
معني	4032
پاسي	4033
سروس	4034
##ow	4035
ترج	4036
##ــــ	4037
ريس	4038
جها	4039
##يه	4040
صنعت	4041
نين	4042
رهڻ	4043
لاڳاپ	4044
جاءِ	4045
علاج	4046
قط	4047
##at	4048
جمع	4049
پوري	4050
قومي	4051
30	4052
ڪس	4053
جذ	4054
سار	4055
فرق	4056
بلڪل	4057
15	4058
داري	4059
يستائ	4060
واضح	4061
يك	4062
حصي	4063
طب	4064
start	4065
باز	4066
صارف	4067
نور	4068
mi	4069
پوندو	4070
صاف	4071
وڌي	4072
ئڻ	4073
dur	4074
##فٽ	4075
##مان	4076
ڪرا	4077
##ڊل	4078
اندان	4079
شرح	4080
ٻيا	4081
بخش	4082
se	4083
هف	4084
مسافر	4085
رائ	4086
متا	4087
تك	4088
##ولت	4089
ريڪ	4090
اکين	4091
وجوده	4092
راهڪن	4093
##صيل	4094
ڀيرو	4095
نٿا	4096
يگ	4097
تفصيل	4098
هيون	4099
ڪوبه	4100
نتظار	4101
هذ	4102
تعداد	4103
شان	4104
موجب	4105
رقم	4106
حوالي	4107
حياتي	4108
جلد	4109
ck	4110
عظيم	4111
گم	4112
##ليق	4113
خرچ	4114
##بوط	4115
بور	4116
عز	4117
فا	4118
لل	4119
هيءَ	4120
ڊر	4121
کائ	4122
پڙهي	4123
اوزار	4124
##ٺا	4125
مضبوط	4126
اُن	4127
پڙهڻ	4128
ذڪر	4129
ايش	4130
جھ	4131
ويئر	4132
ھڪڙو	4133
گڏيل	4134
##افي	4135
دان	4136
ناڪ	4137
محمد	4138
sh	4139
##حان	4140
متاثر	4141
وت	4142
سنگ	4143
مـ	4144
دعا	4145
پوسٽ	4146
at	4147
ايف	4148
جائ	4149
ڏيندو	4150
لينڊ	4151
عند	4152
اااا	4153
هفتي	4154
لکڻ	4155
دعو	4156
مند	4157
لازمي	4158
آزا	4159
سلمان	4160
هزار	4161
آزادي	4162
هال	4163
اهڙو	4164
رز	4165
نموني	4166
نٽرول	4167
ڙي	4168
مٿان	4169
عملي	4170
ارا	4171
درج	4172
نيٽ	4173
ارو	4174
شت	4175
##ri	4176
مڙ	4177
واقع	4178
##ابر	4179
لع	4180
نسل	4181
اڪي	4182
چم	4183
خواب	4184
تہ	4185
##احت	4186
##شق	4187
راح	4188
ڌيان	4189
معا	4190
وٺند	4191
me	4192
مهيا	4193
on	4194
مثل	4195
درد	4196
su	4197
اَ	4198
هفت	4199
سڃاڻ	4200
وڻ	4201
ڪهڙو	4202
رابط	4203
گريزي	4204
موسم	4205
ستق	4206
خواه	4207
ڪريان	4208
##ائل	4209
وضاحت	4210
لڳا	4211
ذم	4212
يک	4213
##يب	4214
بج	4215
غلطي	4216
عدالت	4217
ليک	4218
مست	4219
آرام	4220
بينڪ	4221
يورپ	4222
##يڪل	4223
نشان	4224
حص	4225
سف	4226
ريشان	4227
پهچي	4228
شم	4229
گرف	4230
li	4231
رکيو	4232
ذميوا	4233
12	4234
كان	4235
هوا	4236
روشني	4237
انج	4238
ڪرد	4239
##an	4240
ميد	4241
کن	4242
ڪئين	4243
الد	4244
سگهون	4245
وه	4246
هنڌ	4247
ڪيم	4248
خاصيت	4249
سور	4250
##هين	4251
برابر	4252
هلي	4253
##سڪ	4254
عجب	4255
روسي	4256
شرط	4257
##شل	4258
پوي	4259
استاد	4260
حسين	4261
منھنج	4262
يڪشن	4263
تنظيم	4264
ساز	4265
يپ	4266
پيام	4267
هيچ	4268
مليو	4269
ڪريون	4270
دين	4271
ڻي	4272
ءِ	4273
تش	4274
ــــ	4275
واڌ	4276
##الر	4277
##وي	4278
هدا	4279
وغ	4280
علاوه	4281
شكرا	4282
جلدي	4283
##آن	4284
##ot	4285
##ريز	4286
اعت	4287
ng	4288
سٽي	4289
ڪرڻو	4290
حيث	4291
وَ	4292
اهل	4293
قتل	4294
انتي	4295
تصديق	4296
جنھن	4297
شيءِ	4298
وڪرو	4299
نوڪري	4300
ڪردگي	4301
هار	4302
##ائر	4303
مالي	4304
جهاز	4305
واٽ	4306
پورٽ	4307
شاعر	4308
حيثيت	4309
##ڊو	4310
سمجها	4311
##وٽ	4312
رستو	4313
زور	4314
##رس	4315
گروپ	4316
فرانس	4317
ڪراچي	4318
صدي	4319
ٻولي	4320
لان	4321
رڪاري	4322
رفتار	4323
پليٽ	4324
يڪڏھن	4325
اسٽور	4326
جائز	4327
##شڪ	4328
عرب	4329
اث	4330
نفر	4331
سنڀ	4332
ڇوڪري	4333
يال	4334
انتها	4335
da	4336
نمي	4337
هريان	4338
ماني	4339
گھٽ	4340
تصور	4341
دوا	4342
ااااا	4343
خار	4344
زال	4345
ٺهيل	4346
ياتي	4347
ماڊل	4348
ڪارڊ	4349
پھ	4350
ڊالر	4351
##دن	4352
نها	4353
فيصل	4354
غريب	4355
ذار	4356
يماري	4357
مينٽ	4358
ic	4359
ميٽر	4360
زي	4361
زبان	4362
رسائي	4363
ڪلڪ	4364
ملڪي	4365
كي	4366
##ڀر	4367
اصول	4368
آفيس	4369
جز	4370
فن	4371
نڪ	4372
بڻائ	4373
سيٽ	4374
امام	4375
ملا	4376
ڪيائ	4377
موٽ	4378
اون	4379
##نيٽ	4380
تجربو	4381
بز	4382
##انو	4383
فيس	4384
اٽ	4385
##پو	4386
امير	4387
زو	4388
خوف	4389
بلاگ	4390
رگر	4391
ھڪڙي	4392
چند	4393
سياح	4394
50	4395
پڇيو	4396
ستقبل	4397
گرمي	4398
سمجهي	4399
and	4400
زا	4401
پيوٽر	4402
ميابي	4403
اقت	4404
ديو	4405
بحث	4406
##ابت	4407
اڌ	4408
طر	4409
ڪيٽ	4410
di	4411
آئ	4412
##لت	4413
ايندو	4414
##گار	4415
ماهر	4416
ورڪ	4417
bi	4418
دم	4419
ويج	4420
اعظم	4421
آءِ	4422
ڪوڙ	4423
ٿيندا	4424
پيغام	4425
##ڏو	4426
##ياري	4427
بورڊ	4428
سافٽ	4429
ڇڏيند	4430
ٽرنيٽ	4431
اللي	4432
ئن	4433
ڊائون	4434
آآ	4435
فل	4436
لاڳو	4437
هڪڙي	4438
ڏاڍو	4439
نص	4440
يٰ	4441
##دود	4442
ڳالھ	4443
ٻڌي	4444
ڪونهي	4445
ريت	4446
ريم	4447
وزن	4448
##گو	4449
ڪين	4450
حب	4451
##جا	4452
ڪٽ	4453
ڪوڊ	4454
pa	4455
##غان	4456
خصوص	4457
ءُ	4458
ساڳي	4459
يڪس	4460
##الف	4461
سج	4462
واس	4463
اڳي	4464
شاعري	4465
تاب	4466
جيت	4467
نيشن	4468
تجز	4469
علام	4470
رگرمي	4471
خام	4472
يئر	4473
شڪار	4474
قدي	4475
ويئي	4476
ca	4477
##ريٽ	4478
افغان	4479
پوئ	4480
صد	4481
قبل	4482
نل	4483
اسٽي	4484
توق	4485
فعال	4486
سڪرين	4487
ڊگهي	4488
فلس	4489
بود	4490
ياس	4491
ايا	4492
گرم	4493
سنڀال	4494
كت	4495
بيت	4496
دٻ	4497
ھر	4498
لاش	4499
آمد	4500
فض	4501
يقيني	4502
##me	4503
ادب	4504
شڪل	4505
لائ	4506
حم	4507
ايندي	4508
عذ	4509
قص	4510
مهم	4511
kn	4512
اڳيان	4513
بڻائي	4514
سگهيو	4515
دفعو	4516
عالم	4517
عه	4518
مڃ	4519
ٿيندڙ	4520
ويون	4521
راز	4522
وبائل	4523
ٿورو	4524
اکي	4525
رآ	4526
فيه	4527
##ورن	4528
رهندو	4529
na	4530
ثابت	4531
اھي	4532
محدود	4533
داد	4534
خوشي	4535
قوامي	4536
لکيو	4537
وم	4538
ڳولي	4539
رخ	4540
زمان	4541
ايترو	4542
بير	4543
امن	4544
ڪندڙن	4545
فٽ	4546
سوشل	4547
ادي	4548
نك	4549
نڪر	4550
##سٽر	4551
##جر	4552
هرحال	4553
ta	4554
be	4555
فري	4556
ڀير	4557
حساب	4558
منظر	4559
##ونس	4560
اڙ	4561
هڙي	4562
قديم	4563
پيءُ	4564
چوي	4565
مخصوص	4566
يري	4567
قابلي	4568
ڪئ	4569
ڪان	4570
##ڪڻ	4571
سگهان	4572
يوم	4573
صورتح	4574
11	4575
ياب	4576
سگھو	4577
يگر	4578
حتى	4579
اڳواڻ	4580
ريف	4581
##قيد	4582
مخالف	4583
طاب	4584
##لڊ	4585
هوس	4586
؟؟	4587
ڇپ	4588
يده	4589
##نٽ	4590
ميدان	4591
##طر	4592
يافت	4593
زخ	4594
ٺيڪ	4595
ليه	4596
مپ	4597
اهڙا	4598
ليس	4599
فهم	4600
ينڊ	4601
اينڊ	4602
قرار	4603
جت	4604
ابندي	4605
لط	4606
يلا	4607
گير	4608
##مر	4609
بابا	4610
##نن	4611
نون	4612
جهڙوڪ	4613
عاد	4614
گيري	4615
جمي	4616
پٺ	4617
هدايت	4618
سياست	4619
دوستن	4620
ورا	4621
يب	4622
حالتن	4623
چڪا	4624
مياب	4625
ڪام	4626
لاقا	4627
عرصي	4628
درو	4629
the	4630
هڪڙو	4631
امه	4632
vi	4633
مَ	4634
ليش	4635
نقلاب	4636
آگ	4637
عيد	4638
ماري	4639
ليل	4640
##وش	4641
##ئڻ	4642
ڌرتي	4643
الدين	4644
##يع	4645
ڀري	4646
ساڻ	4647
تعارف	4648
سمنڊ	4649
انٽر	4650
مھ	4651
سائي	4652
اءِ	4653
وص	4654
مب	4655
مالڪ	4656
نيوز	4657
نهن	4658
نڪري	4659
هيا	4660
##گه	4661
لفظن	4662
گهڻا	4663
ڳنڍ	4664
اڏ	4665
اور	4666
ڳولا	4667
اضافي	4668
ڪاري	4669
ملڻ	4670
اگردن	4671
ندر	4672
گذر	4673
جد	4674
پک	4675
لاقات	4676
سَ	4677
نٿي	4678
ويل	4679
سئ	4680
##رار	4681
ائون	4682
سعو	4683
رسال	4684
ec	4685
رجسٽر	4686
ra	4687
زماني	4688
سوچيو	4689
دما	4690
##xt	4691
##يره	4692
راد	4693
مختصر	4694
توقع	4695
جڳهه	4696
18	4697
فهر	4698
اوجود	4699
##هيو	4700
ڏاڍي	4701
know	4702
us	4703
فهرست	4704
ٻڌڻ	4705
جيل	4706
ڪنھن	4707
خواهش	4708
نيشنل	4709
لهي	4710
##اھ	4711
ملين	4712
اظ	4713
##شي	4714
##ونا	4715
ويجهو	4716
يات	4717
راڻ	4718
صل	4719
ڪُ	4720
كله	4721
وٽي	4722
ڏنا	4723
يف	4724
هيه	4725
سفار	4726
بق	4727
##سل	4728
رائي	4729
نسٽ	4730
##تال	4731
ڪلاڪ	4732
يج	4733
ٽرانس	4734
انچ	4735
فائدو	4736
اءُ	4737
زن	4738
شعر	4739
گرفتا	4740
شوف	4741
منتقل	4742
دماغ	4743
وڌائڻ	4744
شوق	4745
مشڪل	4746
##رير	4747
اخبار	4748
مرحل	4749
چڪي	4750
روڊ	4751
فط	4752
يي	4753
ڀلي	4754
ائو	4755
it	4756
گزار	4757
فڪر	4758
بدر	4759
ثقا	4760
ثقافت	4761
تجو	4762
ٽائي	4763
ٽڪر	4764
لنڪ	4765
شاندا	4766
nd	4767
##شر	4768
انگي	4769
خلاص	4770
##هڪ	4771
سگھن	4772
سواء	4773
اندين	4774
la	4775
##اء	4776
جهڙي	4777
عتم	4778
ba	4779
طبي	4780
گذري	4781
سهولت	4782
nt	4783
پريشن	4784
جڏھن	4785
رف	4786
##ادل	4787
25	4788
تخليق	4789
عين	4790
بدل	4791
حا	4792
وط	4793
##چر	4794
روپ	4795
ويز	4796
سوي	4797
وڏا	4798
ni	4799
si	4800
فور	4801
لائي	4802
نسي	4803
تحت	4804
عتماد	4805
وح	4806
پال	4807
مهينن	4808
بھ	4809
ايج	4810
منزل	4811
رستي	4812
خخ	4813
رڪار	4814
نع	4815
توانا	4816
سماني	4817
لق	4818
com	4819
هندست	4820
چيزي	4821
يٺ	4822
ٻڌائي	4823
ننڊ	4824
وغيره	4825
رڪارڊ	4826
ڳا	4827
روا	4828
بيشڪ	4829
غور	4830
جيان	4831
مره	4832
سڀئي	4833
لکيل	4834
##ڇي	4835
امهون	4836
##اظ	4837
اکيون	4838
مگر	4839
##لاس	4840
مسلس	4841
سپتال	4842
نقش	4843
گاڏي	4844
مسلسل	4845
وفي	4846
هئڻ	4847
ريل	4848
بجلي	4849
ليکڪ	4850
اهميت	4851
يراني	4852
حسن	4853
ولو	4854
يسٽ	4855
رکو	4856
آپ	4857
جئين	4858
##لاق	4859
مقامي	4860
مڙس	4861
شكل	4862
ارف	4863
زر	4864
ايتري	4865
ٻڌائ	4866
رقرار	4867
لحاظ	4868
عاه	4869
##li	4870
حبي	4871
قرآن	4872
وڃو	4873
سل	4874
is	4875
عشق	4876
جرم	4877
طبق	4878
لائين	4879
##رل	4880
اتو	4881
فوج	4882
ارفين	4883
آل	4884
ارس	4885
ڊيز	4886
14	4887
موقعو	4888
فكر	4889
داشت	4890
حيرت	4891
es	4892
انڊ	4893
اچو	4894
نتظام	4895
اعليٰ	4896
نہ	4897
شڪ	4898
ناس	4899
نتيجي	4900
نِ	4901
هيءُ	4902
فصل	4903
وجه	4904
يـ	4905
وقف	4906
آڻڻ	4907
نيڪ	4908
راج	4909
##ناه	4910
اڻڻ	4911
بلڪ	4912
عنصر	4913
رٽيڪل	4914
اڃان	4915
ناڪام	4916
يسي	4917
قرض	4918
ٺاهيو	4919
عبد	4920
قلب	4921
ايڇ	4922
ڏيندا	4923
سميت	4924
شڪر	4925
عت	4926
يام	4927
ونڊو	4928
فائل	4929
وووو	4930
وسار	4931
ss	4932
بـ	4933
آساني	4934
پوئتي	4935
عجي	4936
راڊ	4937
هلند	4938
text	4939
وائرس	4940
ويس	4941
ائڻ	4942
بندي	4943
چيني	4944
گراف	4945
اتح	4946
بران	4947
مصنو	4948
صو	4949
اتر	4950
ليٽ	4951
مصنوع	4952
بئن	4953
قس	4954
مسي	4955
ماه	4956
ڏکڻ	4957
ويه	4958
مسئلن	4959
مجهيو	4960
وره	4961
قاعد	4962
عجيب	4963
هور	4964
ييي	4965
شايع	4966
درست	4967
اهيان	4968
متحان	4969
يورپي	4970
بغير	4971
we	4972
اً	4973
آسم	4974
مئ	4975
ورن	4976
ڏينھن	4977
ادار	4978
##دير	4979
اجلاس	4980
ايون	4981
نگر	4982
قسمن	4983
امان	4984
نسٽال	4985
ڪٽو	4986
انع	4987
ly	4988
طلع	4989
ھون	4990
ورٽ	4991
رکند	4992
ايمان	4993
حوال	4994
منظور	4995
الڳ	4996
براي	4997
ميمبر	4998
ذات	4999
ڳولڻ	5000
شن	5001
چور	5002
وانا	5003
تبا	5004
lo	5005
ڪَ	5006
تحفظ	5007
ha	5008
ديد	5009
بئنڪ	5010
ad	5011
##ھر	5012
##ٿر	5013
ائس	5014
عوامي	5015
مغ	5016
##زم	5017
لال	5018
ميو	5019
وهه	5020
كر	5021
هڻ	5022
مقدار	5023
اصلا	5024
جذب	5025
خالي	5026
وحد	5027
ڪاب	5028
ٽيسٽ	5029
قدرتي	5030
or	5031
ضاب	5032
ڀارت	5033
طلب	5034
يول	5035
رهند	5036
جاچ	5037
ينل	5038
سير	5039
ڊوائ	5040
ضابط	5041
انص	5042
ورتي	5043
وزي	5044
ادري	5045
sa	5046
رڪن	5047
چپ	5048
##ريف	5049
انو	5050
سماج	5051
خرڪار	5052
حڪمت	5053
مهو	5054
پراڻي	5055
ادارن	5056
لب	5057
نھي	5058
##يز	5059
هوٽل	5060
دشمن	5061
شخصيت	5062
پوندي	5063
وند	5064
ڪندس	5065
روس	5066
ڏيندي	5067
صور	5068
ماڻھو	5069
ائيند	5070
ائسنس	5071
##ll	5072
##ڌر	5073
ڀيٽ	5074
ننڍي	5075
اظهار	5076
مها	5077
يدار	5078
درواز	5079
جار	5080
خور	5081
طيب	5082
پهر	5083
##گرد	5084
رابطو	5085
عبدال	5086
so	5087
sp	5088
هجن	5089
وڪل	5090
##باس	5091
عنو	5092
اچن	5093
وسيع	5094
نار	5095
گن	5096
ساڳيو	5097
سعودي	5098
سول	5099
يهي	5100
ٿوري	5101
شعور	5102
يٽر	5103
##um	5104
andr	5105
سڌو	5106
ڪسٽم	5107
اخر	5108
حلوه	5109
حما	5110
رض	5111
گڏو	5112
مذهبي	5113
جني	5114
عياري	5115
100	5116
سڏيو	5117
for	5118
مظ	5119
##ut	5120
وات	5121
un	5122
هست	5123
ايد	5124
لڳند	5125
گرد	5126
فوجي	5127
مذهب	5128
انس	5129
ترجم	5130
شاگرد	5131
ڊز	5132
##ڙپ	5133
مهيني	5134
نـ	5135
اسر	5136
ويڊيو	5137
ارن	5138
ar	5139
oid	5140
شاهه	5141
انجام	5142
شهي	5143
##ٽڻ	5144
انصاف	5145
40	5146
qu	5147
تيل	5148
خيلي	5149
تجرب	5150
خل	5151
ساڳئي	5152
اسپين	5153
آسمان	5154
رسم	5155
ريٽ	5156
مرڪز	5157
أن	5158
سلسلي	5159
كن	5160
##بال	5161
گھرجي	5162
حتج	5163
ٽرين	5164
چنڊ	5165
جنم	5166
خاموش	5167
اذا	5168
لڪ	5169
ڊجي	5170
آهنگ	5171
ڄاڻي	5172
ڊجيٽل	5173
دڪان	5174
گڏجي	5175
پويان	5176
مارچ	5177
چڱي	5178
حصن	5179
جمو	5180
ايئن	5181
ڪيترو	5182
روسيس	5183
mo	5184
##بلي	5185
سٽيشن	5186
جموعي	5187
مئي	5188
حتجاج	5189
13	5190
ho	5191
عط	5192
pp	5193
تل	5194
ممكن	5195
دستا	5196
ڪال	5197
##وڙ	5198
ريشن	5199
منظم	5200
لباس	5201
دخل	5202
ردا	5203
##ch	5204
روف	5205
ڪنڊ	5206
عمارت	5207
##فاق	5208
سياحت	5209
فطرت	5210
mp	5211
حمل	5212
شما	5213
لئ	5214
ڊپ	5215
ڪورٽ	5216
راضي	5217
عيس	5218
مهوري	5219
عزي	5220
ريڊ	5221
ڪپڙ	5222
هع	5223
چيڪ	5224
ڙهند	5225
نمائ	5226
ادبي	5227
گاه	5228
پرس	5229
تحريڪ	5230
اڪيلو	5231
ڪالي	5232
اشارو	5233
ڪٽوبر	5234
پشن	5235
کر	5236
جنسي	5237
ملائ	5238
باغ	5239
16	5240
محنت	5241
يمبر	5242
عمولي	5243
سزا	5244
هُو	5245
عزت	5246
ورڊ	5247
برانڊ	5248
يڙ	5249
ڪور	5250
وڏن	5251
ٽيڪس	5252
هُن	5253
معنيٰ	5254
طابقت	5255
قسمت	5256
موٽر	5257
نماز	5258
مسئلي	5259
هِ	5260
پٿر	5261
ڪمري	5262
ائپ	5263
ايندا	5264
مشت	5265
چيز	5266
طريقا	5267
فقير	5268
جميل	5269
بدران	5270
حرف	5271
عقل	5272
مني	5273
پائ	5274
ماپ	5275
فوت	5276
چڱو	5277
ٽين	5278
تعريف	5279
نشاني	5280
pro	5281
گيت	5282
رك	5283
قد	5284
##لوي	5285
اكل	5286
لنڊ	5287
ويند	5288
لوڪ	5289
تڪڙ	5290
تجزيو	5291
##ارٽ	5292
کيڏ	5293
ميان	5294
نڌ	5295
ڪلو	5296
ڪرائي	5297
اضاف	5298
کليل	5299
##ده	5300
روي	5301
گهربل	5302
نگن	5303
صدق	5304
نءَ	5305
سيڙپ	5306
شهري	5307
كنت	5308
نب	5309
سموري	5310
>>	5311
مائ	5312
ڪڍي	5313
ڪتابن	5314
پٽمبر	5315
سيريز	5316
نصي	5317
هيڪ	5318
##جد	5319
نواز	5320
گراهڪ	5321
عزيز	5322
no	5323
آدم	5324
وك	5325
موٽي	5326
نسخ	5327
واپسي	5328
۔۔	5329
##وم	5330
يمبلي	5331
پهچ	5332
ڪابه	5333
مرا	5334
ھئي	5335
يڪل	5336
سمارٽ	5337
راهي	5338
<<	5339
ادر	5340
ھاڻي	5341
عنوان	5342
مکي	5343
الز	5344
تبادل	5345
گذاري	5346
بحال	5347
سڄو	5348
tion	5349
ڊيزائ	5350
آبا	5351
بع	5352
طان	5353
ميز	5354
خريدا	5355
وسيقي	5356
كتب	5357
وپ	5358
##ليت	5359
برد	5360
24	5361
ـر	5362
فائي	5363
يرا	5364
عليها	5365
جائزو	5366
ڪاليج	5367
آبادي	5368
تار	5369
جاڳ	5370
طريقن	5371
ڪميون	5372
ملازم	5373
ll	5374
وئ	5375
##رب	5376
الف	5377
واسط	5378
پئسا	5379
خخخ	5380
جام	5381
يورو	5382
con	5383
الص	5384
ارڻ	5385
حيران	5386
سفارش	5387
اڙي	5388
تني	5389
##بيت	5390
نوان	5391
ٽيلي	5392
شمار	5393
سمور	5394
شوي	5395
فوري	5396
فوٽو	5397
سخ	5398
ڏانھن	5399
تهي	5400
زير	5401
نما	5402
##ٻي	5403
دورو	5404
زخمي	5405
انعام	5406
سوچي	5407
اتفاق	5408
جنرل	5409
جيترو	5410
بونس	5411
مدا	5412
لاس	5413
ائيڪل	5414
ag	5415
دون	5416
ٻُ	5417
پول	5418
ابي	5419
بلو	5420
تض	5421
ڪرائڻ	5422
ميوز	5423
fa	5424
ايان	5425
شهيد	5426
جمل	5427
يٽنگ	5428
حبيب	5429
لله	5430
پيرو	5431
ڪلاس	5432
اِه	5433
ترجمو	5434
مشتمل	5435
فرد	5436
ليا	5437
ويهي	5438
نيست	5439
يها	5440
انڪار	5441
ارسال	5442
چوندا	5443
قيام	5444
اليسي	5445
ئٽ	5446
امڪان	5447
جنيئر	5448
po	5449
مک	5450
##ضر	5451
واي	5452
پرست	5453
لعب	5454
فلسف	5455
ab	5456
حاج	5457
ئس	5458
تعا	5459
ڏيئي	5460
مشك	5461
تنھن	5462
چارج	5463
۔۔۔	5464
##lo	5465
روشن	5466
خاطر	5467
ce	5468
gh	5469
وائن	5470
ڪانه	5471
وني	5472
رکندڙ	5473
ٻڌو	5474
ڀيرا	5475
17	5476
انك	5477
ٽيبل	5478
يڊيا	5479
وطن	5480
چئ	5481
ڪِ	5482
هنگ	5483
اره	5484
آرڊر	5485
آگسٽ	5486
هينئر	5487
آفيسر	5488
ثاني	5489
رما	5490
ستي	5491
ٿر	5492
##رڪ	5493
سوچڻ	5494
مزد	5495
ئيگي	5496
تربيت	5497
يونٽ	5498
سلامت	5499
آڻ	5500
##بات	5501
قيم	5502
راءِ	5503
هچائڻ	5504
اضافو	5505
fi	5506
کڻڻ	5507
دائين	5508
##ion	5509
ساٿ	5510
وف	5511
ٽيون	5512
واقف	5513
ووو	5514
ملڪيت	5515
وزيشن	5516
هير	5517
امين	5518
ation	5519
كلام	5520
وائي	5521
ڀلا	5522
کل	5523
امر	5524
ايشيا	5525
كيف	5526
الت	5527
جاء	5528
لنگ	5529
سمجهڻ	5530
سڃاڻپ	5531
ونڊوز	5532
لون	5533
مور	5534
ڀريل	5535
##تل	5536
اڇ	5537
اما	5538
فرض	5539
دليل	5540
قال	5541
جنس	5542
صفحا	5543
وصول	5544
ex	5545
فتح	5546
رر	5547
رئي	5548
يخ	5549
آسٽر	5550
حمايت	5551
tt	5552
حاد	5553
پُ	5554
يمكن	5555
رهندا	5556
رحم	5557
يٺل	5558
ion	5559
ويچ	5560
سبق	5561
اخت	5562
بئي	5563
وهي	5564
ائن	5565
رابطي	5566
دريا	5567
ect	5568
پَ	5569
ساٿي	5570
عهد	5571
رائيڊ	5572
سيڙپڪ	5573
مڇي	5574
اداري	5575
زنده	5576
رائيو	5577
يرو	5578
روئ	5579
سگھجي	5580
شده	5581
نكت	5582
مسئلا	5583
رام	5584
##يءَ	5585
جنوري	5586
ترڪي	5587
ph	5588
عندي	5589
وسيل	5590
گزارش	5591
هلا	5592
##ڳي	5593
يورٽي	5594
وڪليو	5595
هوائي	5596
ورها	5597
##ڊيٽ	5598
sm	5599
##خر	5600
##ce	5601
##us	5602
احمد	5603
سـ	5604
نومبر	5605
رآمد	5606
تنھنج	5607
موقعي	5608
رسيد	5609
تجويز	5610
ھوند	5611
مکيه	5612
تـ	5613
الو	5614
تعرف	5615
هليو	5616
ممم	5617
ائلون	5618
تاج	5619
وڊ	5620
ماضي	5621
حالا	5622
لسٽ	5623
هائو	5624
اپڊيٽ	5625
pre	5626
نز	5627
##ليف	5628
آھ	5629
خون	5630
ريو	5631
هوش	5632
شتهار	5633
19	5634
پوک	5635
ريان	5636
ٻڌل	5637
هلائڻ	5638
اگه	5639
جهان	5640
نان	5641
گھڻو	5642
حادث	5643
go	5644
ريد	5645
ليگ	5646
مردن	5647
باد	5648
جلس	5649
رهيون	5650
رسول	5651
اڻو	5652
طلاق	5653
ولڊ	5654
سازي	5655
day	5656
لنڊن	5657
أنا	5658
ربي	5659
ٻول	5660
لـ	5661
ناول	5662
ريح	5663
وارڊ	5664
سنڏ	5665
هٿن	5666
نبي	5667
##يوب	5668
پيٽ	5669
هئس	5670
اٺ	5671
بک	5672
تين	5673
دد	5674
##صاد	5675
هوء	5676
شاه	5677
قوت	5678
بڪ	5679
مبار	5680
##بن	5681
ينج	5682
الزام	5683
كه	5684
مجب	5685
ٻيون	5686
قتصاد	5687
لانچ	5688
ناهن	5689
مجبور	5690
آي	5691
ڇوڪر	5692
دهشت	5693
اسرائ	5694
كثر	5695
دوز	5696
هيٺين	5697
ڊزائن	5698
پرين	5699
ليڪٽر	5700
حاضر	5701
ساري	5702
اولا	5703
عربي	5704
بتد	5705
ڀاءُ	5706
ڪميشن	5707
ڪانهي	5708
يهم	5709
##ڙن	5710
زارين	5711
آپريٽ	5712
کوٽ	5713
سرور	5714
سينٽر	5715
پارڪ	5716
اوڀر	5717
##نات	5718
تازو	5719
بط	5720
وائنٽ	5721
شتي	5722
پناه	5723
##زور	5724
نيم	5725
ينا	5726
بگ	5727
بہ	5728
شب	5729
الا	5730
ارد	5731
سيد	5732
ينس	5733
ردو	5734
ڀڳ	5735
الحال	5736
قابلو	5737
عنى	5738
وفات	5739
لف	5740
يائ	5741
ذريع	5742
آيل	5743
##si	5744
ويجه	5745
ضحكت	5746
نگران	5747
افي	5748
قل	5749
مهور	5750
انڪ	5751
سکڻ	5752
ليو	5753
وِ	5754
اسم	5755
الع	5756
ڪمزور	5757
دمت	5758
بنائ	5759
قطع	5760
راڊڪٽ	5761
##گڏ	5762
##ريم	5763
انورن	5764
ينه	5765
نظم	5766
سمجهه	5767
تعاون	5768
ڊسم	5769
ميگ	5770
ڪارو	5771
ct	5772
رش	5773
رکن	5774
ڪرايو	5775
ويٺو	5776
منس	5777
ستر	5778
واقعا	5779
شهرن	5780
سائيز	5781
اتحاد	5782
يمبرن	5783
بم	5784
يح	5785
ورد	5786
وفاقي	5787
ڊسمبر	5788
ri	5789
زاح	5790
##ve	5791
پٺيان	5792
حج	5793
رُ	5794
رون	5795
وهين	5796
ميدو	5797
ٻارڙ	5798
نتيجو	5799
ڏکيو	5800
گڏوگڏ	5801
نسان	5802
يڏو	5803
ڪانگ	5804
##ٻئي	5805
هندو	5806
زاحمت	5807
صير	5808
##وف	5809
باهه	5810
پيروي	5811
ئنات	5812
كون	5813
ينٽ	5814
وٺو	5815
نتظر	5816
حنا	5817
هد	5818
وائس	5819
بقى	5820
ٻانه	5821
ويڙه	5822
محل	5823
نگار	5824
گرام	5825
تجربي	5826
موقع	5827
بعض	5828
بيڪ	5829
مريض	5830
اُهي	5831
دارن	5832
اقول	5833
,,	5834
هندي	5835
يلو	5836
شرڪت	5837
نصوبي	5838
بنت	5839
چڙ	5840
##گا	5841
اهرين	5842
درس	5843
ريڪٽر	5844
مِ	5845
برائ	5846
وزارت	5847
بتدائ	5848
ter	5849
شير	5850
ويد	5851
بردار	5852
اپريل	5853
تڪليف	5854
تسليم	5855
علامت	5856
پئجي	5857
وندا	5858
يشه	5859
ڪاس	5860
مشور	5861
ڪجھه	5862
60	5863
قري	5864
هاءِ	5865
پارٽ	5866
نالا	5867
دشا	5868
آڻي	5869
تت	5870
رڏي	5871
##پل	5872
ڪلهه	5873
رڏيهي	5874
wa	5875
مدير	5876
ڪٿ	5877
لات	5878
احد	5879
اٿم	5880
جذبات	5881
مؤ	5882
وير	5883
تقول	5884
مزو	5885
ظا	5886
واهه	5887
ڏسندا	5888
سلسلو	5889
افت	5890
وڌو	5891
ڇڏيا	5892
يره	5893
قيمتي	5894
sc	5895
عقيد	5896
چائي	5897
توڙي	5898
مينهن	5899
اقتور	5900
سِ	5901
صرا	5902
کائي	5903
نگاه	5904
داڪار	5905
عاملي	5906
نڊي	5907
اڳوڻي	5908
آھيان	5909
ٽنگ	5910
ورونا	5911
##ناس	5912
بوٽ	5913
شراب	5914
ويچار	5915
نڪت	5916
روڪي	5917
ــي	5918
بچائڻ	5919
کاتي	5920
لطف	5921
bo	5922
##پان	5923
خواهي	5924
ميڪ	5925
##ئا	5926
جرمني	5927
ردي	5928
پکي	5929
باس	5930
اطم	5931
جما	5932
صار	5933
کار	5934
هنا	5935
هيس	5936
پريس	5937
اسٽيٽ	5938
ڄم	5939
ينو	5940
امداد	5941
يقول	5942
خدمتن	5943
صط	5944
نھ	5945
گهرجن	5946
اڻن	5947
ردن	5948
تازه	5949
نفرنس	5950
ترا	5951
سؤ	5952
ڊسٽ	5953
ووٽ	5954
ڊوڙ	5955
ڳوله	5956
گفتگو	5957
رنس	5958
اوچ	5959
برر	5960
ودڪار	5961
نَ	5962
##شم	5963
ياري	5964
##لاع	5965
ڪاپي	5966
چوٿ	5967
جانور	5968
فعل	5969
هذه	5970
وڄ	5971
ٽرو	5972
ڪوٽ	5973
اوي	5974
مثبت	5975
el	5976
واني	5977
لازم	5978
فته	5979
روايت	5980
زار	5981
قلم	5982
لهه	5983
وڪيپ	5984
اعترا	5985
تهيه	5986
هــ	5987
هٿي	5988
##رات	5989
جج	5990
شيئر	5991
سته	5992
ers	5993
حقن	5994
نصوبو	5995
آمدني	5996
ميدوا	5997
برو	5998
بروري	5999
منع	6000
ڪوئي	6001
اطلاع	6002
ورلڊ	6003
وجهي	6004
فٽبال	6005
22	6006
am	6007
آئين	6008
ڪچ	6009
ڪارپو	6010
بول	6011
ماء	6012
چمڪ	6013
ڙو	6014
جيڪٽ	6015
ساهه	6016
شكله	6017
نفرت	6018
فخر	6019
ڪيلي	6020
مهل	6021
يائون	6022
21	6023
do	6024
دمتون	6025
ڊسٽري	6026
وڻي	6027
ڀڄ	6028
انٽ	6029
بيس	6030
ارب	6031
sta	6032
وڪيل	6033
بلوچ	6034
دشاهه	6035
of	6036
لها	6037
ڀڃ	6038
ولهه	6039
اءَ	6040
لڊ	6041
ڀل	6042
ھا	6043
نرم	6044
xn	6045
سائ	6046
ـت	6047
مصر	6048
ڏٺ	6049
کٽ	6050
هلندڙ	6051
ليڪشن	6052
ڊرائ	6053
درجه	6054
دعوت	6055
##umx	6056
ديگر	6057
آءُ	6058
سڌي	6059
ضمان	6060
يڪر	6061
##بوب	6062
والد	6063
رچ	6064
ضلع	6065
قلت	6066
يءُ	6067
ٺاھ	6068
گُ	6069
رداشت	6070
صطلاح	6071
رارت	6072
فاد	6073
هانگ	6074
##انيه	6075
يكون	6076
فائيل	6077
اولاد	6078
حاف	6079
##راق	6080
گهڻن	6081
مسيح	6082
وتي	6083
گهه	6084
ماڻھن	6085
دوستي	6086
رضا	6087
ld	6088
men	6089
رٿ	6090
چيست	6091
بازي	6092
ٽرويو	6093
oo	6094
سٽر	6095
يکي	6096
يچر	6097
ينسر	6098
يونين	6099
متن	6100
گهٽائ	6101
پئس	6102
واڌار	6103
ضمانت	6104
گز	6105
منجه	6106
##فرد	6107
بلند	6108
ڳوڙه	6109
هفته	6110
تھ	6111
عطي	6112
وصل	6113
هڪٻئي	6114
بيٽري	6115
َر	6116
##it	6117
منفرد	6118
اوت	6119
يادت	6120
اٿس	6121
غم	6122
پهتو	6123
بحالي	6124
du	6125
اؤ	6126
ولين	6127
حڪمرا	6128
يزبان	6129
xnumx	6130
et	6131
سري	6132
شور	6133
ڊڄ	6134
بڻايو	6135
گروه	6136
پهچڻ	6137
دهشتگ	6138
##ھين	6139
نمائش	6140
غلام	6141
لآ	6142
انف	6143
ڏيار	6144
چيه	6145
بدلي	6146
ننڍڙ	6147
رهو	6148
هڻي	6149
ُون	6150
##وار	6151
ٻيڙي	6152
ڄاڻا	6153
چرچ	6154
ve	6155
ٽئين	6156
ڳڻ	6157
سوار	6158
متح	6159
رع	6160
طانيه	6161
پڌر	6162
جوان	6163
ـــا	6164
عاملو	6165
نتخ	6166
خاتم	6167
دام	6168
پاور	6169
مسجد	6170
تحليل	6171
دارو	6172
مزح	6173
اڻيءَ	6174
مرڪزي	6175
عرفت	6176
ائونڊ	6177
راهيم	6178
حافظ	6179
ke	6180
مافي	6181
صفحي	6182
دك	6183
واب	6184
ڪـ	6185
##ڊا	6186
افسوس	6187
يئي	6188
عليكم	6189
حلوة	6190
کپي	6191
گاهي	6192
##جڪ	6193
انسٽ	6194
نگين	6195
نوع	6196
نتخاب	6197
نى	6198
##di	6199
هيك	6200
طبيع	6201
yo	6202
طول	6203
لكن	6204
پرائ	6205
ندازو	6206
وايتي	6207
sin	6208
مف	6209
ناق	6210
اوھين	6211
ائيڊ	6212
خيالن	6213
کاڌي	6214
عاهدي	6215
مبارڪ	6216
wi	6217
مبر	6218
ناز	6219
گهڙي	6220
اكيد	6221
ft	6222
ھڙي	6223
تياري	6224
##ليا	6225
##ياد	6226
نهار	6227
پيئڻ	6228
مرمت	6229
lin	6230
پرت	6231
محبوب	6232
مدت	6233
ذريعو	6234
نتيجا	6235
جوڙجڪ	6236
روڪ	6237
روڪڻ	6238
وڌائي	6239
ڇڏڻ	6240
وقتي	6241
معاشي	6242
pla	6243
وک	6244
##روف	6245
روزي	6246
ارك	6247
برقي	6248
صنع	6249
يافته	6250
بردست	6251
سادي	6252
رجحان	6253
اڳيون	6254
تڪر	6255
عشان	6256
كلم	6257
پيچي	6258
وحاني	6259
ـآ	6260
ودي	6261
جيئر	6262
پيئي	6263
خلص	6264
ga	6265
كـ	6266
پپ	6267
اهڙن	6268
داخ	6269
رھيو	6270
ريلوي	6271
ڏيان	6272
شيخ	6273
کاڌو	6274
لائيٽ	6275
ـي	6276
##شا	6277
لاسٽ	6278
الس	6279
اپل	6280
فائدي	6281
ڪپڙا	6282
پيچيد	6283
شھر	6284
عراق	6285
##يوس	6286
جادو	6287
دوري	6288
ائيٽن	6289
تڪرار	6290
اغ	6291
موڙ	6292
گھڻي	6293
تري	6294
فين	6295
كتي	6296
ونه	6297
ميم	6298
ارٽ	6299
طرز	6300
ڙهندڙ	6301
80	6302
جب	6303
##ذير	6304
وڃائي	6305
سرڪار	6306
per	6307
##كس	6308
گهرن	6309
سيڪنڊ	6310
نجم	6311
وڊيوز	6312
گاهه	6313
ارين	6314
چرا	6315
هنج	6316
يڪنگ	6317
##طيف	6318
آھيو	6319
ربت	6320
شفا	6321
ٽڪ	6322
مسلم	6323
ڳاڙه	6324
ٽائ	6325
کير	6326
جنب	6327
يمپ	6328
اڻا	6329
سگھون	6330
واقعن	6331
هارڊ	6332
لائق	6333
لام	6334
ياه	6335
ريج	6336
##بوت	6337
سپر	6338
عندك	6339
جُ	6340
چان	6341
سينٽ	6342
هلڻ	6343
ولاءِ	6344
پرواز	6345
يارو	6346
رساله	6347
داخلا	6348
dh	6349
il	6350
دولت	6351
لطيف	6352
وڃان	6353
وليءَ	6354
طين	6355
ٽان	6356
يڪٽ	6357
نجھ	6358
جبل	6359
يهه	6360
کلي	6361
موڪ	6362
تعجب	6363
ٻيٽ	6364
ڪهڙا	6365
جهڙا	6366
سونهن	6367
آآآ	6368
ٻُڌ	6369
اٻي	6370
ُر	6371
پٽي	6372
##ڌار	6373
ميشه	6374
تعليق	6375
سنوار	6376
نصيب	6377
شتر	6378
تها	6379
موڊ	6380
فائر	6381
يليا	6382
تابع	6383
ُنهن	6384
انح	6385
نيد	6386
گهرج	6387
مصروف	6388
سکيا	6389
رهائش	6390
قبر	6391
نفي	6392
هائ	6393
هرو	6394
پبل	6395
مول	6396
سارا	6397
هائوس	6398
##wa	6399
هوم	6400
##هرا	6401
پنڌ	6402
صراح	6403
چا	6404
ڪڻ	6405
ليب	6406
مٿين	6407
نڪتو	6408
اوچتو	6409
##مار	6410
##پور	6411
ڏيندڙ	6412
نيٺ	6413
ئونسل	6414
نعم	6415
اء	6416
حدي	6417
مآ	6418
ويڪ	6419
ھئا	6420
انڊيا	6421
ائم	6422
نقط	6423
ديس	6424
رياضي	6425
مقصدن	6426
کوليو	6427
فريڪا	6428
بدلائ	6429
tu	6430
خاني	6431
فاصل	6432
هيل	6433
يوان	6434
انگيز	6435
هَ	6436
انجڻ	6437
رکيل	6438
عاش	6439
يزر	6440
ااااي	6441
وفيسر	6442
موڪلي	6443
اٿي	6444
وڙه	6445
ڀائر	6446
ڪرين	6447
لکند	6448
شعبي	6449
آڻيند	6450
انسٽا	6451
جــ	6452
##em	6453
روائي	6454
منح	6455
وزاني	6456
ندگي	6457
اکر	6458
هڙيون	6459
لاسٽڪ	6460
تنگ	6461
ڦير	6462
##دد	6463
گهرا	6464
چيف	6465
ڇڪ	6466
انڌ	6467
ويت	6468
##ميم	6469
ڊيم	6470
منٽن	6471
فورم	6472
cr	6473
آندو	6474
ئب	6475
خب	6476
لٽي	6477
گهري	6478
ترجي	6479
اياز	6480
پالڻ	6481
ظلم	6482
بيٺو	6483
استح	6484
يتن	6485
##سات	6486
حسب	6487
بررسي	6488
بٽڻ	6489
زون	6490
ڊسپ	6491
ڻيو	6492
هاڙ	6493
اڻان	6494
ايڪسپ	6495
آهستي	6496
ڪميٽي	6497
حصيدا	6498
gra	6499
##et	6500
##بول	6501
ميچ	6502
نگي	6503
پنجن	6504
شنگ	6505
لڪا	6506
##de	6507
ملندي	6508
سادو	6509
اُهو	6510
بازار	6511
جھڙ	6512
هڙيءَ	6513
لئه	6514
هٿيار	6515
وسو	6516
يٿ	6517
پاسو	6518
سپورٽ	6519
ذهني	6520
حرڪت	6521
حملو	6522
##اتو	6523
##يوم	6524
ڪاغ	6525
فيشن	6526
رکندو	6527
خبرون	6528
طالب	6529
عباد	6530
کرد	6531
ميوزڪ	6532
آڇ	6533
رار	6534
شڪا	6535
عڪس	6536
ڪيان	6537
ضرب	6538
چينل	6539
ڀرسان	6540
لچ	6541
##مين	6542
ويزن	6543
جنٽ	6544
قاض	6545
one	6546
گول	6547
ھين	6548
ائڪ	6549
دفعي	6550
ياسين	6551
جوڳ	6552
يشيا	6553
عذاب	6554
جارتي	6555
صنعتي	6556
زمرو	6557
چوندو	6558
تقرير	6559
خطرو	6560
ترجيح	6561
نوي	6562
ڪاغذ	6563
رڙ	6564
ويٺي	6565
بيهي	6566
سڀاڻي	6567
ڊيل	6568
چيم	6569
اٿئي	6570
رئيس	6571
منحصر	6572
دگار	6573
##se	6574
دوم	6575
يلز	6576
نتق	6577
فنڪ	6578
ڳنڍيل	6579
پائي	6580
پتو	6581
لاهي	6582
منصو	6583
وڌڻ	6584
نظوري	6585
مطال	6586
متحد	6587
مائٽ	6588
فنڪشن	6589
منصوب	6590
ڻو	6591
##ريت	6592
سيم	6593
وارث	6594
ــا	6595
رکون	6596
عرض	6597
قدرت	6598
طالبو	6599
ڀيڻ	6600
رمايو	6601
گار	6602
هيم	6603
شيءَ	6604
مرڻ	6605
وزانو	6606
تُ	6607
حظ	6608
مٽي	6609
موثر	6610
ينٽي	6611
مادي	6612
سيکار	6613
جنن	6614
چوڌار	6615
خلاقي	6616
جرمن	6617
هفتن	6618
بشر	6619
شپ	6620
كف	6621
ماهي	6622
ريٽري	6623
بيمار	6624
لوب	6625
مقام	6626
tor	6627
ئج	6628
ذخ	6629
سس	6630
##ظا	6631
اندار	6632
اسي	6633
ڪرڻي	6634
##ٽيف	6635
عاملن	6636
بعدين	6637
لڙ	6638
لور	6639
نڀ	6640
ڪڙ	6641
##ثير	6642
ـــي	6643
شاپ	6644
لمح	6645
عادت	6646
رادري	6647
مظاهر	6648
ضع	6649
مٽ	6650
وئين	6651
وڌندڙ	6652
سيل	6653
سرٽيف	6654
اصلاح	6655
لازمن	6656
ڪلاڪن	6657
ٽوڙ	6658
جهه	6659
هآ	6660
ريون	6661
ڪاوڙ	6662
معيشت	6663
عاشق	6664
نسانن	6665
طئي	6666
پذير	6667
چئن	6668
ڪلام	6669
مشق	6670
نسبت	6671
تنقيد	6672
زياد	6673
##لوڊ	6674
قسمتي	6675
پيرن	6676
هذي	6677
وپن	6678
ڀائ	6679
الح	6680
##لاف	6681
ليز	6682
تشدد	6683
خارجي	6684
فضل	6685
ذريعن	6686
90	6687
رَ	6688
قيد	6689
وجودگ	6690
حوصل	6691
نامه	6692
صلى	6693
ونلوڊ	6694
##سيم	6695
ميه	6696
برسات	6697
وڪيو	6698
شهرين	6699
ارادو	6700
ناقاب	6701
bu	6702
دس	6703
ڇڙ	6704
علمي	6705
وٽو	6706
انتظا	6707
مضحك	6708
all	6709
رائع	6710
يييي	6711
ry	6712
لغ	6713
جيب	6714
يوه	6715
گنج	6716
he	6717
عث	6718
مزا	6719
هدي	6720
##ؤر	6721
سمه	6722
##ناڪ	6723
اُھ	6724
ولد	6725
سوالن	6726
يارڪ	6727
ڀرپور	6728
نچ	6729
ڇل	6730
تحرير	6731
ڏسندي	6732
مڪاني	6733
نجها	6734
نصوبن	6735
طرناڪ	6736
جوش	6737
خوي	6738
فائدا	6739
سڃاتو	6740
اسٽيل	6741
ٻولين	6742
دائر	6743
پاني	6744
اُتي	6745
حلى	6746
جامع	6747
عبادت	6748
ذخير	6749
فيك	6750
مرضي	6751
باڪس	6752
ڪنڌ	6753
پڪڙ	6754
نصب	6755
نڪرڻ	6756
متحرڪ	6757
مقبول	6758
بندر	6759
ليڪس	6760
وآ	6761
ورهين	6762
ڏسند	6763
پڙھ	6764
ئيندي	6765
حيات	6766
##ميرا	6767
نهايت	6768
خوراڪ	6769
70	6770
ئميرا	6771
امل	6772
ٿڪ	6773
سانيت	6774
##ڪيل	6775
ڪاٺ	6776
آھيون	6777
ٽرڪ	6778
آرٽ	6779
مثالي	6780
مرحله	6781
بلڪه	6782
قريبا	6783
##کو	6784
ورج	6785
ليون	6786
ترميم	6787
وليون	6788
23	6789
ڏهه	6790
##wi	6791
مانس	6792
ماڳ	6793
ڪناري	6794
چمڙي	6795
اڏام	6796
عتبار	6797
ارائ	6798
کنيو	6799
زوج	6800
##طان	6801
ولپ	6802
بچائي	6803
اديب	6804
صبر	6805
هٽ	6806
هندڙ	6807
ڇر	6808
ڪڙي	6809
ئيشن	6810
ينءَ	6811
هلائي	6812
ابليت	6813
اخذ	6814
نتقلي	6815
iz	6816
ابت	6817
طوف	6818
هاري	6819
يڪا	6820
ڊيسڪ	6821
هتان	6822
بالغ	6823
عض	6824
وست	6825
وما	6826
ڏها	6827
ڪتا	6828
ٽرم	6829
شرم	6830
خطري	6831
دفعا	6832
خانو	6833
بزر	6834
مغرب	6835
ur	6836
بك	6837
موب	6838
ديش	6839
رھيا	6840
مستح	6841
ity	6842
28	6843
ڊيو	6844
وڌايو	6845
بيل	6846
##صوم	6847
حضور	6848
ڊگهو	6849
ساڻس	6850
سئو	6851
ووووو	6852
نھيءَ	6853
able	6854
حديث	6855
آم	6856
زيد	6857
كين	6858
اليوم	6859
ائتي	6860
نظارو	6861
يونان	6862
قبضو	6863
سهڻي	6864
new	6865
ــــي	6866
اٽڪل	6867
ماهرن	6868
طوفان	6869
tra	6870
جشن	6871
يتي	6872
ناھي	6873
بليو	6874
خيل	6875
رل	6876
گند	6877
بنات	6878
حصا	6879
جماعت	6880
^^	6881
عالي	6882
كثير	6883
ڄا	6884
معاف	6885
سگهيا	6886
فارسي	6887
ثبوت	6888
حتر	6889
دؤر	6890
شريڪ	6891
فزا	6892
الك	6893
ڪمن	6894
سرهند	6895
پکڙ	6896
ڪتي	6897
شاخ	6898
ٽائيم	6899
رڊ	6900
زائين	6901
لر	6902
هائي	6903
ڊڪٽ	6904
ڏوه	6905
اندا	6906
ريڊيو	6907
اتل	6908
تعال	6909
لڳل	6910
ستار	6911
يماني	6912
صنف	6913
sub	6914
سختي	6915
عاشري	6916
باني	6917
رأ	6918
لكم	6919
خوبي	6920
دارا	6921
اده	6922
اپيل	6923
يارا	6924
مزدور	6925
ملو	6926
وڪري	6927
کنڊ	6928
ڪث	6929
جوا	6930
وڌند	6931
معك	6932
معصوم	6933
ڏند	6934
حيدر	6935
ڊومين	6936
خارج	6937
age	6938
##وت	6939
ائتو	6940
فيلڊ	6941
مريم	6942
فرادي	6943
يامبر	6944
اذ	6945
ذر	6946
رمي	6947
ڌم	6948
##ma	6949
##ئس	6950
ڪيئي	6951
ويٺا	6952
ارليا	6953
همرا	6954
بلاڪ	6955
حترام	6956
جَ	6957
زل	6958
شغ	6959
پڙهند	6960
قربان	6961
بچڻ	6962
ڄڻا	6963
تباهه	6964
##پر	6965
نيجر	6966
ملندو	6967
جس	6968
رڪا	6969
قق	6970
لٿ	6971
پائڻ	6972
ڪيج	6973
همڻ	6974
ٿورڙ	6975
علامه	6976
قاعده	6977
سمي	6978
عــ	6979
آخرين	6980
نتيجن	6981
مجهند	6982
awa	6983
nk	6984
آڏو	6985
شفت	6986
ڊا	6987
ويٽ	6988
ائش	6989
ائر	6990
برن	6991
اختي	6992
جڳه	6993
رينج	6994
."	6995
خطي	6996
كس	6997
نح	6998
يكم	6999
جيٽ	7000
ارم	7001
ننڍڙي	7002
نامو	7003
ir	7004
ياني	7005
ڏهن	7006
ڏٺا	7007
ڪست	7008
ڪلب	7009
##ائب	7010
ماع	7011
گهرو	7012
آرڪ	7013
ختلاف	7014
التون	7015
27	7016
cu	7017
أخ	7018
اڀ	7019
بيا	7020
حالي	7021
ڙڪ	7022
##os	7023
اسٽر	7024
ورتا	7025
اسٽاڪ	7026
نڪرند	7027
حمد	7028
رندڙ	7029
سح	7030
يزا	7031
چايو	7032
ڻا	7033
بهار	7034
اسانج	7035
##فيد	7036
پريم	7037
ليڪن	7038
فاع	7039
ht	7040
اڪر	7041
بني	7042
رھي	7043
كك	7044
مئن	7045
یک	7046
توسان	7047
لڳائڻ	7048
اعرف	7049
پڙهو	7050
ڏاڏ	7051
اليه	7052
ڀريو	7053
ٺهرا	7054
ڊسڪ	7055
ڪريم	7056
ليج	7057
صحافي	7058
سياري	7059
صفائي	7060
ننڍو	7061
ڀاڱ	7062
ent	7063
تازي	7064
دانش	7065
تضحك	7066
ڏهاڪ	7067
26	7068
اڀر	7069
كمل	7070
منا	7071
منك	7072
سنه	7073
زمائش	7074
تقسيم	7075
صفحو	7076
der	7077
آڪس	7078
يبت	7079
انها	7080
ورزن	7081
سوس	7082
آزم	7083
پنجاب	7084
عزم	7085
بزرگ	7086
cl	7087
خلق	7088
زهر	7089
فى	7090
نند	7091
چانه	7092
مونڊي	7093
نگا	7094
سردار	7095
والو	7096
هينا	7097
روفائ	7098
by	7099
مايوس	7100
ورة	7101
نيل	7102
سرما	7103
مقال	7104
پهت	7105
واقعو	7106
منتد	7107
ومين	7108
ڪورس	7109
ددگار	7110
ياڻي	7111
##برا	7112
شيد	7113
وٽيوب	7114
عليك	7115
ٺاهيل	7116
ڪيميا	7117
يالله	7118
ment	7119
إن	7120
مڪي	7121
مفيد	7122
يڻو	7123
پلس	7124
ريگ	7125
ارٽر	7126
تبص	7127
cov	7128
تسلم	7129
شرطن	7130
فلٽر	7131
pi	7132
ver	7133
بدي	7134
حيد	7135
شل	7136
ٽا	7137
ڙيل	7138
وازن	7139
پيپل	7140
ليئر	7141
اھڙي	7142
ڊرام	7143
مستقل	7144
nn	7145
تلا	7146
حبت	7147
وول	7148
ِر	7149
هيت	7150
ريال	7151
ريئر	7152
گهٽتا	7153
ru	7154
تأ	7155
غائب	7156
كذا	7157
ڙه	7158
نوار	7159
عيش	7160
وهڪر	7161
يگرن	7162
شڪايت	7163
out	7164
بنگ	7165
مزي	7166
ڏڪ	7167
نيڻ	7168
عملن	7169
نقطي	7170
سپريم	7171
مٿا	7172
رهنما	7173
عيون	7174
تبصرو	7175
زيو	7176
شرف	7177
انوي	7178
ارض	7179
فيها	7180
دارت	7181
همراه	7182
خلي	7183
شنو	7184
الم	7185
چيئ	7186
##موع	7187
مارجي	7188
صري	7189
لما	7190
چڪر	7191
پيل	7192
پاڙي	7193
مجاز	7194
رهجي	7195
اثرات	7196
عج	7197
لٽ	7198
نهاري	7199
سومر	7200
سنئ	7201
يدائش	7202
هچائي	7203
اھر	7204
نيٽور	7205
حملي	7206
مشكور	7207
ght	7208
ڪثريت	7209
قـ	7210
ناب	7211
الناس	7212
ڪيڏ	7213
جنت	7214
سربرا	7215
جهل	7216
وچيند	7217
واسطو	7218
ديوا	7219
ظاه	7220
يڪو	7221
ٽون	7222
یس	7223
##مپ	7224
روانو	7225
ناصر	7226
همه	7227
فرمان	7228
پڙهيو	7229
قلع	7230
##co	7231
ڪرس	7232
يننگ	7233
مات	7234
ملن	7235
هئو	7236
چوان	7237
كمان	7238
مجموع	7239
man	7240
عادي	7241
سگھوٿ	7242
عاهدو	7243
رڪنن	7244
طانيا	7245
ظاهري	7246
up	7247
دهي	7248
هيز	7249
هيڊ	7250
مسٽر	7251
يهار	7252
يڊٽ	7253
وليد	7254
bet	7255
rd	7256
بقا	7257
فنا	7258
ننگ	7259
وع	7260
ونئن	7261
ريزن	7262
گڏج	7263
مليا	7264
طالعو	7265
خرابي	7266
ip	7267
mb	7268
rch	7269
ئل	7270
تَ	7271
طق	7272
لندڙ	7273
هود	7274
واچ	7275
سرچ	7276
راحت	7277
نڌن	7278
ڙهائي	7279
ٺه	7280
گورن	7281
لاگ	7282
پرنٽ	7283
لوا	7284
هيٺان	7285
صفحه	7286
؟؟؟	7287
xt	7288
جدو	7289
دائي	7290
رحد	7291
هج	7292
ڌڻي	7293
پيج	7294
سما	7295
يسائي	7296
رده	7297
وبائي	7298
link	7299
حران	7300
ڦر	7301
لاڪ	7302
ساله	7303
لمهم	7304
رمين	7305
فني	7306
اتان	7307
رهبر	7308
ki	7309
od	7310
نير	7311
هلو	7312
پچ	7313
ڪارڻ	7314
مرض	7315
رنگي	7316
covid	7317
35	7318
ac	7319
ســ	7320
كده	7321
همت	7322
ٽاپ	7323
##mo	7324
واه	7325
روزگا	7326
طالعي	7327
كره	7328
ائڪرو	7329
her	7330
ئف	7331
حين	7332
يين	7333
##سيل	7334
ٽيل	7335
رڪي	7336
كبر	7337
سکر	7338
جزا	7339
هان	7340
ڙهيل	7341
يڪٽر	7342
شعب	7343
قلبي	7344
if	7345
بقي	7346
ثار	7347
غذا	7348
وخ	7349
ُها	7350
چاھ	7351
کم	7352
ينر	7353
هاء	7354
ترم	7355
رشت	7356
يٽا	7357
ڊين	7358
الى	7359
پيئ	7360
سيار	7361
دلج	7362
فوٽ	7363
حش	7364
مود	7365
ٽيگ	7366
لڳائي	7367
احس	7368
هِن	7369
اڪو	7370
دُ	7371
لانا	7372
ڌڪ	7373
ڻند	7374
بهت	7375
ئيڊ	7376
رواج	7377
ــه	7378
يتري	7379
اھا	7380
يڪسين	7381
سلط	7382
يچ	7383
ماسڪ	7384
يتا	7385
سمجهو	7386
لطا	7387
موبائ	7388
ٽري	7389
ڌو	7390
هڪار	7391
ڪرائ	7392
روان	7393
ورت	7394
ابدار	7395
پياري	7396
عطا	7397
wh	7398
ئوٽ	7399
شش	7400
غار	7401
فـ	7402
کولي	7403
پاپ	7404
انيه	7405
نهنج	7406
مك	7407
يبي	7408
ھتي	7409
داس	7410
نامي	7411
وشت	7412
کو	7413
##sa	7414
ماس	7415
رتب	7416
تبر	7417
مائي	7418
چشم	7419
ڌيءَ	7420
کيو	7421
لامي	7422
وڌائ	7423
رسل	7424
گرفت	7425
بش	7426
خلت	7427
سكر	7428
انءِ	7429
راهه	7430
استر	7431
نشي	7432
وسر	7433
كلك	7434
كلهم	7435
پـ	7436
يابي	7437
وڏين	7438
جهد	7439
سگھند	7440
يص	7441
##un	7442
سرد	7443
ff	7444
fo	7445
ous	7446
ورز	7447
سيلي	7448
rn	7449
دانه	7450
نث	7451
يسا	7452
ھار	7453
پيء	7454
بيه	7455
فيڊ	7456
امد	7457
شتو	7458
غاز	7459
يآ	7460
مناف	7461
راڄ	7462
يلن	7463
مارڪ	7464
وائر	7465
حرام	7466
ook	7467
ئر	7468
حك	7469
صلي	7470
لندا	7471
ھٿ	7472
##يف	7473
##وس	7474
ينچ	7475
يندس	7476
هُئي	7477
وجھ	7478
مزاج	7479
شى	7480
نڪس	7481
راس	7482
برگ	7483
قبض	7484
چڙهي	7485
كتير	7486
اهه	7487
ِڪ	7488
##کر	7489
روج	7490
لود	7491
راڻو	7492
لڊنگ	7493
انداز	7494
ow	7495
ای	7496
حرا	7497
##te	7498
بينا	7499
##ore	7500
زاز	7501
انور	7502
توک	7503
ڪيشن	7504
پرائي	7505
ليت	7506
اُٿ	7507
اشار	7508
راڻيو	7509
gi	7510
جيئ	7511
گهم	7512
سمع	7513
op	7514
کرن	7515
توا	7516
ريز	7517
نياڻي	7518
يگه	7519
ــــن	7520
رڻ	7521
وبا	7522
يائي	7523
روئي	7524
ماڻي	7525
پاڙ	7526
گره	7527
۾)	7528
ونڊ	7529
هيء	7530
يمن	7531
سڪين	7532
ينيٽ	7533
راڻي	7534
يدي	7535
ينڪ	7536
گيٽ	7537
سٽريٽ	7538
ap	7539
ub	7540
برف	7541
حساس	7542
رتي	7543
وث	7544
ايع	7545
استان	7546
عدد	7547
gn	7548
ia	7549
ذب	7550
نڪار	7551
هك	7552
ورو	7553
وءَ	7554
هاڪ	7555
همين	7556
بڻج	7557
راسر	7558
يقينا	7559
پلائ	7560
جاني	7561
ينگ	7562
والا	7563
ُور	7564
##lt	7565
اسٽار	7566
ڏٺي	7567
هوڙ	7568
منه	7569
يڪٽري	7570
هوند	7571
اخي	7572
سچي	7573
ُٽ	7574
ٺي	7575
هيڙ	7576
نگريز	7577
ستا	7578
ادش	7579
صوبي	7580
29	7581
ja	7582
نجه	7583
ڊيڪل	7584
نهم	7585
ليم	7586
اڏا	7587
pe	7588
لَ	7589
واڻ	7590
ٽور	7591
جاپان	7592
نيب	7593
مران	7594
رمائي	7595
مهمان	7596
est	7597
wor	7598
حط	7599
حاڪ	7600
رِ	7601
رول	7602
اندي	7603
لايو	7604
گهار	7605
نيس	7606
تعالي	7607
احسا	7608
tter	7609
امت	7610
طل	7611
نجي	7612
##شو	7613
معنا	7614
افق	7615
وڇ	7616
پاه	7617
ٻڌا	7618
fe	7619
بعا	7620
جِ	7621
رزا	7622
قبي	7623
وءِ	7624
ُل	7625
ٽل	7626
کسي	7627
يپر	7628
اڙه	7629
بان	7630
سجي	7631
طرا	7632
وهن	7633
ريپ	7634
راف	7635
برطان	7636
هتا	7637
ورهائ	7638
حاڪم	7639
hat	7640
ive	7641
ثر	7642
مدار	7643
هيرو	7644
ومن	7645
پت	7646
ٿڌي	7647
۾,	7648
هني	7649
بوڪ	7650
قطار	7651
سست	7652
ـو	7653
اسڪا	7654
جاي	7655
ائز	7656
سندي	7657
rea	7658
ain	7659
تال	7660
پد	7661
ھم	7662
سنج	7663
يرها	7664
تقا	7665
يـــ	7666
ٽريڪ	7667
اسڪي	7668
الائي	7669
سيت	7670
فرن	7671
ولر	7672
ڄاڻو	7673
،،	7674
رعي	7675
سٽا	7676
وور	7677
وها	7678
چن	7679
##mi	7680
پورا	7681
پڇڻ	7682
مطالب	7683
كِ	7684
ڌاري	7685
ڙا	7686
##ود	7687
لاح	7688
اريو	7689
sea	7690
آور	7691
تنا	7692
حذ	7693
حري	7694
نخ	7695
ندار	7696
##كي	7697
ونا	7698
ازم	7699
ine	7700
بوتل	7701
يرت	7702
يپس	7703
45	7704
yp	7705
ئبو	7706
بائ	7707
رعا	7708
فلا	7709
ڪتو	7710
گلن	7711
بها	7712
ونج	7713
يلر	7714
تظ	7715
لھ	7716
##lu	7717
جيون	7718
الب	7719
ليشن	7720
ستگي	7721
اعدو	7722
ame	7723
شـــ	7724
وهر	7725
انب	7726
ريري	7727
ريزي	7728
ملت	7729
مدل	7730
پڙه	7731
يڊا	7732
31	7733
twi	7734
آيت	7735
تِ	7736
صدا	7737
نائي	7738
شاهي	7739
عرص	7740
پھر	7741
دول	7742
صفا	7743
لأ	7744
نڪي	7745
نكم	7746
هها	7747
هيلو	7748
بيني	7749
pt	7750
ئا	7751
للي	7752
لڪو	7753
هستي	7754
يبل	7755
ٽت	7756
چهري	7757
va	7758
جبت	7759
پمپ	7760
##كه	7761
وٽن	7762
زڪ	7763
تير	7764
اڻون	7765
بندو	7766
صاب	7767
صاد	7768
وگو	7769
يط	7770
يسو	7771
ڀو	7772
ڪئن	7773
گهي	7774
اهر	7775
ڪيبل	7776
گها	7777
وشيءَ	7778
تاح	7779
لپ	7780
نـــ	7781
ٻا	7782
الـ	7783
هاا	7784
##are	7785
بادشا	7786
as	7787
بُ	7788
وتا	7789
يڏي	7790
ناسي	7791
ڏيون	7792
ٽيڊ	7793
شكر	7794
ديت	7795
پاب	7796
ھجي	7797
##ره	7798
سمس	7799
نيون	7800
پڇي	7801
عيسي	7802
پابند	7803
بري	7804
بچي	7805
دع	7806
صديق	7807
ُڇ	7808
ڪڪ	7809
ناچ	7810
ائبر	7811
فيئر	7812
ئيندڙ	7813
500	7814
شف	7815
ميت	7816
ڪمال	7817
اجل	7818
نڊو	7819
بنج	7820
id	7821
صول	7822
ـہ	7823
قصد	7824
چاپ	7825
يريا	7826
ری	7827
شار	7828
وڳي	7829
گرين	7830
ميٽ	7831
يوند	7832
ندڙن	7833
nce	7834
زز	7835
چاه	7836
##امل	7837
وٽا	7838
enc	7839
ns	7840
آت	7841
جڻ	7842
سڳ	7843
ايي	7844
مرت	7845
200	7846
um	7847
رندي	7848
منو	7849
معم	7850
هره	7851
ڪنگ	7852
احتي	7853
اجي	7854
اڊا	7855
رغ	7856
رور	7857
رند	7858
عارف	7859
نھن	7860
يٽي	7861
ٽيو	7862
اوا	7863
مسك	7864
فائد	7865
پيرا	7866
عذر	7867
زخم	7868
use	7869
آند	7870
ابا	7871
هس	7872
يجي	7873
ڇهه	7874
هول	7875
ونٽ	7876
پرا	7877
مشا	7878
سروي	7879
پين	7880
هيب	7881
ائج	7882
ليك	7883
لمون	7884
im	7885
؟!	7886
لڪن	7887
يض	7888
ڄي	7889
ناهه	7890
گولي	7891
معمول	7892
ev	7893
أي	7894
خشڪ	7895
َس	7896
ٺا	7897
گوا	7898
پيون	7899
يرس	7900
نياز	7901
سئل	7902
اقل	7903
يء	7904
##اي	7905
نيپ	7906
جنگي	7907
داع	7908
##one	7909
شدت	7910
اوند	7911
36	7912
صـ	7913
هرا	7914
ٽلي	7915
راض	7916
گهڙ	7917
يمه	7918
وزر	7919
رمان	7920
چئو	7921
شنا	7922
عـ	7923
هڙ	7924
وأ	7925
ڪڏھن	7926
ڻن	7927
فيت	7928
يسين	7929
ريڪا	7930
(۽	7931
اسڪر	7932
واز	7933
ستو	7934
غيره	7935
ئيندو	7936
رٽس	7937
ماريو	7938
لچڪ	7939
ios	7940
بست	7941
جهو	7942
طف	7943
فتو	7944
ِين	7945
ڏور	7946
ڪوٺ	7947
ميڊ	7948
ترسيل	7949
ڌي	7950
جيد	7951
انئ	7952
موم	7953
ميٽي	7954
سرت	7955
رپيا	7956
سنگت	7957
تظامي	7958
ble	7959
ابر	7960
زد	7961
کس	7962
##نه	7963
ميونس	7964
اااي	7965
رياض	7966
بحر	7967
فريق	7968
دب	7969
درا	7970
يڏ	7971
ٽار	7972
مادر	7973
ڪوڪي	7974
ڪتن	7975
ڪتب	7976
وڙهي	7977
form	7978
tin	7979
سمجه	7980
dis	7981
أل	7982
هب	7983
ٿڌو	7984
ڀت	7985
ڳائڻ	7986
اوب	7987
ائد	7988
نگل	7989
نده	7990
ئيندا	7991
رمض	7992
ure	7993
ye	7994
زع	7995
وبل	7996
يئڻ	7997
الش	7998
ترڪ	7999
ٽيءَ	8000
رجع	8001
طبع	8002
زوال	8003
ناسب	8004
tc	8005
جاب	8006
زاد	8007
##ta	8008
##وز	8009
ونگ	8010
نينگر	8011
قرا	8012
وی	8013
يجن	8014
بلڊ	8015
قرب	8016
سچو	8017
رستن	8018
تخت	8019
ذي	8020
نڪا	8021
ڙڪا	8022
ياء	8023
ملائي	8024
ساه	8025
رستا	8026
زيشن	8027
كلها	8028
لنگه	8029
vo	8030
رگ	8031
شئي	8032
ودا	8033
يئ	8034
باش	8035
سٽس	8036
ربع	8037
ess	8038
پبلڪ	8039
رڪس	8040
سدا	8041
پنگ	8042
ڇڪڻ	8043
رويي	8044
ula	8045
مام	8046
پيچ	8047
لوج	8048
چيل	8049
چيس	8050
نک	8051
يوس	8052
ائٽي	8053
نظري	8054
نڀا	8055
os	8056
بِ	8057
نڍ	8058
ڇت	8059
ڏياري	8060
گلي	8061
ايز	8062
ميش	8063
ارڊ	8064
لڳن	8065
فرم	8066
ted	8067
رير	8068
ودو	8069
وسٽ	8070
گان	8071
منص	8072
ائيءَ	8073
ادائ	8074
چونڊي	8075
گلاب	8076
يگز	8077
اكم	8078
فنڊ	8079
لڪي	8080
هپ	8081
هڻو	8082
ارون	8083
وٺن	8084
hi	8085
ol	8086
ثير	8087
خــ	8088
زيل	8089
سٺا	8090
پِ	8091
ڀٽو	8092
انيا	8093
روري	8094
اتم	8095
نتا	8096
آلو	8097
ڀلو	8098
##يني	8099
هوٽ	8100
پيس	8101
نازل	8102
ميري	8103
سود	8104
ستن	8105
چيٽ	8106
حلي	8107
ـن	8108
مشن	8109
وھ	8110
يٺي	8111
ڏجي	8112
##ابل	8113
ليف	8114
ــال	8115
يشي	8116
[.	8117
اڍ	8118
تور	8119
رث	8120
ضد	8121
راء	8122
مرور	8123
اسٽا	8124
ديوان	8125
32	8126
hu	8127
ئو	8128
شال	8129
لى	8130
لمو	8131
مـــ	8132
وون	8133
يوٽ	8134
تبصر	8135
حفظ	8136
##زر	8137
ساني	8138
sk	8139
رقي	8140
ســـ	8141
شئ	8142
يرين	8143
ٻو	8144
ٽپ	8145
##كت	8146
جين	8147
لاٽ	8148
ڪيپ	8149
##يلت	8150
اڪيل	8151
play	8152
ie	8153
خذ	8154
فح	8155
لت	8156
ٻج	8157
ڙھ	8158
گئس	8159
احم	8160
نڊا	8161
مهارت	8162
رباني	8163
اھم	8164
دعوي	8165
يلاپ	8166
جھو	8167
دلي	8168
شک	8169
ظر	8170
غر	8171
َـ	8172
چال	8173
کپ	8174
##آآ	8175
انـ	8176
نيت	8177
سڄڻ	8178
پلگ	8179
art	8180
oin	8181
بـــ	8182
يران	8183
نشا	8184
پروف	8185
ئسن	8186
ii	8187
شھ	8188
لڪل	8189
ينهن	8190
ٽول	8191
ڇهن	8192
اسڪو	8193
هيان	8194
ڪوئ	8195
يوو	8196
شاھ	8197
اخلاق	8198
ارات	8199
كد	8200
##nt	8201
ريب	8202
بجي	8203
حليل	8204
دنا	8205
لج	8206
لهم	8207
اسك	8208
ماٺ	8209
استن	8210
ڏيک	8211
دلين	8212
قوي	8213
زادي	8214
فضيلت	8215
رص	8216
نزل	8217
وهو	8218
اسه	8219
ينيو	8220
ينڊر	8221
ڪوٺي	8222
ورچ	8223
سوئ	8224
وليو	8225
jo	8226
تک	8227
رجن	8228
وندي	8229
يمي	8230
ھلي	8231
لاڙ	8232
دانن	8233
جرا	8234
سڪي	8235
ِل	8236
##خا	8237
معه	8238
وڃائ	8239
برچ	8240
رمضان	8241
عدم	8242
فال	8243
لُ	8244
ُڪ	8245
چُ	8246
ڊڪٽس	8247
زيور	8248
ka	8249
حمت	8250
قريب	8251
التو	8252
هنر	8253
جايو	8254
بينڪن	8255
اريند	8256
ser	8257
آمر	8258
شـ	8259
ڻندڙ	8260
##ca	8261
ويژ	8262
ريئ	8263
داره	8264
ابد	8265
سگهج	8266
تى	8267
دني	8268
سد	8269
لش	8270
نی	8271
ڏھن	8272
ڪول	8273
الات	8274
راجا	8275
امور	8276
اڻيو	8277
ابن	8278
نجر	8279
يشنل	8280
ڪڍڻ	8281
ساد	8282
ضم	8283
گناه	8284
ينك	8285
محد	8286
ساس	8287
بدن	8288
نڊل	8289
مراد	8290
ڀڄي	8291
بَ	8292
کٽي	8293
رولي	8294
##گرم	8295
اجر	8296
مٿس	8297
وڻن	8298
ديوتا	8299
صوف	8300
سڳور	8301
تمي	8302
رهه	8303
يله	8304
ُو	8305
پتي	8306
هيڏ	8307
ريه	8308
ائيو	8309
احل	8310
قيدي	8311
اِن	8312
دٻاء	8313
لبر	8314
نُ	8315
يَ	8316
ٽايو	8317
فيد	8318
اهيند	8319
سنجي	8320
سرگرم	8321
احب	8322
گرافي	8323
صادق	8324
تڙ	8325
خلو	8326
فرو	8327
لمي	8328
##ته	8329
ناھ	8330
ڏيند	8331
نشر	8332
نجات	8333
تست	8334
جري	8335
جپان	8336
سٺ	8337
شرا	8338
عظم	8339
مهينو	8340
ھنن	8341
جمعي	8342
راجع	8343
مڻ	8344
می	8345
هارو	8346
يزن	8347
۾:	8348
##وق	8349
هاد	8350
اصلات	8351
ئجي	8352
تبي	8353
سهي	8354
لنا	8355
وڪا	8356
ڪائي	8357
ڪشن	8358
ادت	8359
دوزخ	8360
رسٽ	8361
هز	8362
ڏو	8363
گال	8364
برت	8365
وريون	8366
fu	8367
جهي	8368
سکي	8369
فرما	8370
حذف	8371
اقا	8372
تغ	8373
رجي	8374
سسٽ	8375
يهن	8376
گون	8377
##pe	8378
ينز	8379
منگ	8380
ميلي	8381
وٽس	8382
يڊم	8383
سکو	8384
شاهد	8385
ساب	8386
ڪلي	8387
##gi	8388
بيع	8389
محت	8390
مقابل	8391
اريون	8392
net	8393
##ote	8394
hd	8395
rr	8396
تط	8397
ظه	8398
ٻر	8399
##ڌا	8400
تيون	8401
هيئن	8402
بچت	8403
تاثر	8404
سلسل	8405
يگا	8406
اغوا	8407
ادشاه	8408
##ss	8409
واد	8410
هرن	8411
ااي	8412
نڊين	8413
لهج	8414
بزنس	8415
صوب	8416
لهو	8417
َل	8418
گيم	8419
رويو	8420
اڳيا	8421
نوڪر	8422
يتو	8423
نديم	8424
tiv	8425
scl	8426
زلز	8427
gen	8428
اڱ	8429
اٽي	8430
وڪو	8431
پنا	8432
گس	8433
هيئ	8434
ميشن	8435
ليڊر	8436
سيون	8437
انهيء	8438
sclnt	8439
ci	8440
ya	8441
جـ	8442
مــــ	8443
وظ	8444
يڪار	8445
ڪاش	8446
يتون	8447
فحش	8448
ge	8449
ٽم	8450
ڪٽر	8451
ھت	8452
لکت	8453
ڪٽڻ	8454
lg	8455
ئپ	8456
ذائ	8457
رجو	8458
ضيا	8459
واڻي	8460
ِت	8461
پيڪ	8462
##ڻا	8463
الث	8464
ھيٺ	8465
xi	8466
حـ	8467
راني	8468
ژه	8469
ونز	8470
ائڊ	8471
لوم	8472
iv	8473
الٽ	8474
اينا	8475
ولاد	8476
3d	8477
زان	8478
غرب	8479
ـه	8480
لی	8481
ورک	8482
ڪمائ	8483
يوگ	8484
ليءَ	8485
پوره	8486
لِ	8487
لفا	8488
ڄام	8489
ڊول	8490
واسي	8491
ريلي	8492
اوپ	8493
ائيز	8494
يٽرو	8495
بھتر	8496
انفرا	8497
**	8498
؟"	8499
كــ	8500
لمن	8501
نآ	8502
ٽيوب	8503
گين	8504
##يس	8505
سوم	8506
تقبل	8507
طالع	8508
اقو	8509
جدت	8510
ut	8511
بڻي	8512
دها	8513
مٺي	8514
يھ	8515
ُن	8516
چٽ	8517
##صف	8518
جير	8519
ئيدار	8520
راڳ	8521
ميس	8522
يوٽي	8523
ساع	8524
لوس	8525
لوق	8526
ينيم	8527
my	8528
يشان	8529
##be	8530
ايڪ	8531
مرس	8532
مزاح	8533
رڪش	8534
gu	8535
more	8536
آإ	8537
ئرس	8538
تكم	8539
نائ	8540
وڳ	8541
ٽولي	8542
چت	8543
کاري	8544
##ne	8545
رسن	8546
mac	8547
كانت	8548
ڪامر	8549
آمريڪ	8550
حلا	8551
سك	8552
نانگ	8553
کني	8554
ماي	8555
ريع	8556
بيبي	8557
ڪارخا	8558
نگلي	8559
ازما	8560
ديده	8561
ابتدا	8562
ڪوڪيز	8563
بٽ	8564
جهن	8565
نــــ	8566
الخ	8567
پوڙه	8568
ـــم	8569
اڳئ	8570
لوو	8571
دايت	8572
طاق	8573
اڇو	8574
آبي	8575
اقي	8576
طار	8577
فيڪ	8578
فلو	8579
هجو	8580
ٿئ	8581
روٽ	8582
نيري	8583
زمر	8584
يدن	8585
افيه	8586
حجم	8587
min	8588
حن	8589
حـــ	8590
رامي	8591
ٺو	8592
ڪيڪ	8593
رود	8594
راي	8595
ليڊ	8596
ڀرڻ	8597
زينب	8598
بدو	8599
ينئر	8600
ادم	8601
شخصي	8602
دفن	8603
آزمائ	8604
sy	8605
ty	8606
اهن	8607
هڻڻ	8608
موز	8609
يلون	8610
يسر	8611
33	8612
mm	8613
بادل	8614
تائ	8615
َه	8616
الق	8617
ياز	8618
يرن	8619
wo	8620
xd	8621
دن	8622
رندو	8623
انشو	8624
ڪريٽ	8625
ڪرو	8626
نيئر	8627
نگھ	8628
##ناط	8629
تقدير	8630
سٽنگ	8631
رڪت	8632
مشكل	8633
ny	8634
كا	8635
پان	8636
چائ	8637
ٽيپ	8638
ميني	8639
عاون	8640
شاد	8641
يبا	8642
يٺا	8643
راق	8644
ارڪ	8645
نيه	8646
عامل	8647
##توي	8648
اڳوڻ	8649
قطر	8650
und	8651
ڳڻتي	8652
are	8653
ضح	8654
لهر	8655
ڪٽي	8656
اهت	8657
ڪيف	8658
ليها	8659
gb	8660
خدم	8661
سڪر	8662
عوا	8663
گهن	8664
اهد	8665
ارت	8666
انيءَ	8667
يٽل	8668
##ide	8669
سڻ	8670
فه	8671
هڏ	8672
هٽا	8673
ولم	8674
ويي	8675
ورڈ	8676
ائق	8677
تعب	8678
نوب	8679
ڪنن	8680
ant	8681
پلان	8682
جميع	8683
نويس	8684
عنا	8685
ٺهي	8686
ٽام	8687
اسن	8688
واٽر	8689
ڪارا	8690
مٿو	8691
بچاء	8692
ڪشا	8693
لڙڪ	8694
pl	8695
شق	8696
ضي	8697
لڏ	8698
يث	8699
ڌا	8700
ارنٽ	8701
ليٽر	8702
سوني	8703
ٻوڏ	8704
lu	8705
تند	8706
ڳائ	8707
انز	8708
موري	8709
اوٽ	8710
ليمان	8711
مرة	8712
اشا	8713
les	8714
دهلي	8715
آگاه	8716
چپن	8717
ئڊ	8718
عش	8719
يــــ	8720
ٽرا	8721
ٿڌ	8722
ڊچ	8723
بيگ	8724
صحاف	8725
رنٽ	8726
og	8727
سڪو	8728
نڌي	8729
وضو	8730
ٿن	8731
ڻڪ	8732
جولا	8733
لاٿ	8734
ورائي	8735
بيش	8736
يوب	8737
برش	8738
ولك	8739
حدن	8740
مارٽ	8741
سٽيٽ	8742
يروز	8743
قاف	8744
لــ	8745
وڙي	8746
َن	8747
ڀرو	8748
ڦٽ	8749
ڪھ	8750
##da	8751
جيو	8752
وڌا	8753
امون	8754
جڳھ	8755
عرفي	8756
نينهن	8757
pri	8758
افر	8759
دک	8760
سليم	8761
ٽمي	8762
ٽهڪ	8763
ڳائي	8764
ھڙ	8765
##ga	8766
##ليغ	8767
المن	8768
پوڻ	8769
ورائ	8770
ارج	8771
ـــو	8772
ائيڪ	8773
ادل	8774
هڻا	8775
ies	8776
65	8777
blo	8778
شيو	8779
نيرو	8780
ومو	8781
ھل	8782
##va	8783
##vi	8784
وراڻي	8785
ليپ	8786
ــن	8787
فارس	8788
يکا	8789
يئرنگ	8790
لهايو	8791
fin	8792
nc	8793
ps	8794
بــ	8795
تد	8796
دستي	8797
صبا	8798
مٺ	8799
ڱي	8800
ھيو	8801
واهي	8802
ورتل	8803
نظار	8804
وزگار	8805
تبليغ	8806
بلن	8807
سمجهن	8808
ڪامل	8809
بهتري	8810
75	8811
بص	8812
عق	8813
فات	8814
ڦري	8815
اير	8816
رواني	8817
ارش	8818
ايند	8819
ڏات	8820
##ara	8821
عيب	8822
سچل	8823
رنٽي	8824
300	8825
لڪير	8826
ago	8827
you	8828
ذه	8829
رونا	8830
كيد	8831
اوز	8832
معاه	8833
ڪارڪن	8834
شويه	8835
ڪالم	8836
48	8837
سڏي	8838
ـس	8839
يهر	8840
##ويه	8841
لاب	8842
ورش	8843
مقناط	8844
قولي	8845
بيو	8846
حتي	8847
حسي	8848
زاري	8849
لڏي	8850
مله	8851
پش	8852
ڀن	8853
ڙن	8854
ھائي	8855
ملتوي	8856
احت	8857
ئونڊ	8858
اسڪيم	8859
mu	8860
آهه	8861
آصف	8862
أس	8863
رلي	8864
عون	8865
لبت	8866
مچ	8867
وهم	8868
يزي	8869
ڊبل	8870
گھي	8871
##اڻو	8872
ريش	8873
ـــل	8874
امس	8875
امري	8876
مرك	8877
ــان	8878
ازن	8879
اڪن	8880
بون	8881
سيو	8882
طي	8883
لسي	8884
يفو	8885
کٽڻ	8886
##na	8887
##ly	8888
مولا	8889
مولوي	8890
ماا	8891
روانا	8892
پوپ	8893
ميدا	8894
سوٽ	8895
ڊيٽ	8896
ste	8897
رحل	8898
مڃڻ	8899
مھل	8900
مهاجر	8901
ڪڻڪ	8902
--	8903
قار	8904
كو	8905
##hm	8906
اهدو	8907
الون	8908
المو	8909
نواب	8910
سيني	8911
لکن	8912
##ort	8913
<<<	8914
هدف	8915
پڙهائ	8916
اگ	8917
لقي	8918
مگ	8919
مٽا	8920
ڊل	8921
لاڏ	8922
ئيٽ	8923
ويھ	8924
ـــن	8925
پاي	8926
لوڻ	8927
نهين	8928
جرب	8929
mar	8930
اٽو	8931
عيو	8932
لير	8933
يــ	8934
ٺين	8935
ٽرول	8936
واج	8937
اتا	8938
ـــه	8939
سمو	8940
مرک	8941
داي	8942
جهڻ	8943
ولڪ	8944
ووه	8945
اٿو	8946
عود	8947
بچه	8948
سٽن	8949
ميمڻ	8950
tur	8951
شناس	8952
نئي	8953
ورين	8954
يفا	8955
یم	8956
##غا	8957
اهين	8958
دات	8959
تجارت	8960
ووم	8961
کاڌ	8962
کلڻ	8963
بنگلا	8964
صوبن	8965
mon	8966
حول	8967
ُک	8968
ارسي	8969
جهڙ	8970
يسن	8971
آزما	8972
وشي	8973
cha	8974
nti	8975
gre	8976
آچر	8977
مبا	8978
##el	8979
##to	8980
ماڪ	8981
ناري	8982
يما	8983
پهل	8984
پنه	8985
اخو	8986
يڊن	8987
ڌرم	8988
مٽائ	8989
nu	8990
ov	8991
اڊ	8992
بدار	8993
ڪب	8994
اسا	8995
ليسي	8996
اچا	8997
era	8998
wei	8999
نثار	9000
ew	9001
ئه	9002
ترو	9003
سكس	9004
لهڻ	9005
مدي	9006
والي	9007
ڙهي	9008
ڪشش	9009
##سن	9010
##چا	9011
ڊيمو	9012
ڏسن	9013
معاشر	9014
ڪيمرا	9015
هٽائڻ	9016
oem	9017
رهم	9018
نئ	9019
##ڙھ	9020
انھ	9021
روب	9022
منھن	9023
اوه	9024
ليلي	9025
عمار	9026
قيق	9027
رقص	9028
ڪسڪس	9029
eb	9030
sd	9031
ادو	9032
جڪ	9033
جند	9034
خال	9035
وگ	9036
ڇڪي	9037
کڻ	9038
منش	9039
نسر	9040
جھاز	9041
اڌا	9042
ak	9043
ثق	9044
حفو	9045
ذك	9046
لذ	9047
ومي	9048
وئڻ	9049
ٽائڻ	9050
ڇن	9051
ڪٽري	9052
ڳري	9053
ڻائي	9054
##ha	9055
##ru	9056
##ئه	9057
هنيو	9058
يوار	9059
اهيو	9060
اعد	9061
دادو	9062
اڻين	9063
ate	9064
fac	9065
ting	9066
ari	9067
bon	9068
can	9069
بدا	9070
رني	9071
عني	9072
لــــ	9073
##بة	9074
##op	9075
mat	9076
cen	9077
عار	9078
الڪ	9079
واع	9080
##هانت	9081
نيج	9082
تحق	9083
يونس	9084
نسن	9085
ادگي	9086
پسندي	9087
ju	9088
pu	9089
پڪو	9090
##ین	9091
ويهن	9092
ارٽي	9093
ڀاء	9094
لعنت	9095
ڪھڙ	9096
99	9097
بائي	9098
یا	9099
##ed	9100
سوڀ	9101
يوي	9102
ختار	9103
>>>	9104
تی	9105
جائي	9106
دى	9107
رهان	9108
سلا	9109
ضا	9110
كات	9111
نذ	9112
گلو	9113
##ِي	9114
##فيق	9115
ندس	9116
ھيءَ	9117
مئل	9118
سوئچ	9119
،"	9120
زش	9121
عص	9122
فير	9123
متي	9124
ڪڇ	9125
ڻين	9126
ٿوڪ	9127
فيش	9128
سنت	9129
يمو	9130
ووڊ	9131
مرڪب	9132
نصاب	9133
سعود	9134
34	9135
ot	9136
قاد	9137
نط	9138
نتو	9139
ڀار	9140
##اڙ	9141
##ید	9142
نيز	9143
ازل	9144
شرٽ	9145
ميرا	9146
زيارت	9147
cor	9148
رنا	9149
ربان	9150
سع	9151
شــ	9152
غزل	9153
هش	9154
ڇان	9155
اصر	9156
گذار	9157
اهڙيء	9158
ڙيون	9159
ديني	9160
أم	9161
اڇي	9162
لتا	9163
نڌو	9164
گنا	9165
##سس	9166
جيا	9167
پيڊ	9168
اوس	9169
امڙ	9170
ندن	9171
بجد	9172
پٺت	9173
ber	9174
bla	9175
ide	9176
تــــ	9177
هٽي	9178
ٽجي	9179
##بط	9180
جيءَ	9181
الان	9182
بيب	9183
علق	9184
وٽل	9185
رسالي	9186
نڊر	9187
مڃي	9188
لياتي	9189
زني	9190
فز	9191
قليت	9192
وٽر	9193
##وڻ	9194
##طب	9195
تيم	9196
ايٽ	9197
توي	9198
واھ	9199
روع	9200
منج	9201
رايو	9202
پٽن	9203
وڻند	9204
اقاعد	9205
جدي	9206
غلا	9207
وپي	9208
ُس	9209
ٿار	9210
۾!	9211
##حت	9212
ڪوڪ	9213
باھ	9214
صحاب	9215
time	9216
فضا	9217
مراه	9218
آٽو	9219
اعي	9220
بلي	9221
خـ	9222
سى	9223
نبو	9224
وشن	9225
وکي	9226
وڙا	9227
چل	9228
##su	9229
##ge	9230
ينن	9231
رادي	9232
بيٽ	9233
ڏيڍ	9234
ڪنار	9235
نجين	9236
##ضيه	9237
pay	9238
وحي	9239
pb	9240
اڏي	9241
بئ	9242
سڌ	9243
طع	9244
وپو	9245
ٿل	9246
ڪبو	9247
##am	9248
##نر	9249
##یش	9250
رهين	9251
ائنٽ	9252
يتر	9253
لڳڻ	9254
اريا	9255
خطرن	9256
ڄڻن	9257
chi	9258
رزق	9259
يرات	9260
وئل	9261
وائيس	9262
55	9263
رڻو	9264
سرا	9265
شيا	9266
غسل	9267
قم	9268
وئن	9269
ڏائ	9270
##اله	9271
لاك	9272
اهدي	9273
ويها	9274
راع	9275
هااا	9276
اتك	9277
ترى	9278
مسز	9279
وچين	9280
سچا	9281
mehm	9282
يسوع	9283
dy	9284
pd	9285
نهه	9286
نجو	9287
وٿ	9288
کند	9289
ريٽر	9290
بيڊ	9291
يڪري	9292
معامل	9293
محب	9294
يعت	9295
ind	9296
150	9297
taj	9298
اڙهي	9299
بڻيل	9300
"۽	9301
95	9302
ist	9303
خص	9304
رڳ	9305
ضو	9306
هشت	9307
گی	9308
##tp	9309
هوت	9310
مدني	9311
وريءَ	9312
عنده	9313
bil	9314
quote	9315
ood	9316
اڱڻ	9317
ذهانت	9318
ٺهڻ	9319
##يش	9320
انــ	9321
روڙ	9322
ٿيند	9323
هما	9324
گھا	9325
داغ	9326
عدن	9327
ربن	9328
لقب	9329
ww	9330
عضو	9331
وجن	9332
يئن	9333
ڪدم	9334
##پا	9335
##کا	9336
نداري	9337
وڪرين	9338
shi	9339
met	9340
مداح	9341
ڏٺم	9342
39	9343
43	9344
fre	9345
آيد	9346
لهن	9347
لند	9348
ولف	9349
ُه	9350
گاري	9351
##ml	9352
##ينا	9353
لابي	9354
##يات	9355
باا	9356
بته	9357
رتن	9358
pad	9359
ڪٿا	9360
ast	9361
ud	9362
ثم	9363
رڪو	9364
عاج	9365
لبي	9366
يجو	9367
ڪائو	9368
ین	9369
##آل	9370
##سه	9371
ڪروم	9372
يوت	9373
ڳاله	9374
اپا	9375
وڙڻ	9376
ديوي	9377
amro	9378
زلزلي	9379
hy	9380
ze	9381
ئت	9382
زب	9383
ٺٽي	9384
ڙهڻ	9385
ڪڪر	9386
اسرا	9387
ڪوچ	9388
ورڇ	9389
sti	9390
لمس	9391
وڙيو	9392
حث	9393
صيد	9394
فش	9395
لول	9396
ٻلي	9397
##فف	9398
واست	9399
پيٽر	9400
ائب	9401
ترس	9402
مشي	9403
ازي	9404
تحف	9405
فوا	9406
tic	9407
رفان	9408
سحر	9409
hua	9410
bra	9411
آري	9412
ئرل	9413
مة	9414
هوري	9415
##روك	9416
سوئي	9417
نيان	9418
ڏيئ	9419
نوا	9420
نوح	9421
لوي	9422
جهت	9423
فوڊ	9424
پڙها	9425
وليا	9426
ٽوڪ	9427
ستقب	9428
سورج	9429
اٽڪ	9430
وبه	9431
پني	9432
کت	9433
##حح	9434
اله	9435
رايا	9436
ميڙ	9437
ڪجه	9438
برج	9439
وفاق	9440
che	9441
قصه	9442
وکر	9443
مطالع	9444
fra	9445
دال	9446
رئ	9447
مرو	9448
ڏن	9449
لاه	9450
نادر	9451
يڪيو	9452
افس	9453
وڪڻڻ	9454
سگھج	9455
وده	9456
dr	9457
عكس	9458
غني	9459
كدا	9460
مــ	9461
ڀٽ	9462
چري	9463
کڙ	9464
ڪڏ	9465
ھد	9466
ھڙو	9467
##فل	9468
##عع	9469
##كل	9470
##یں	9471
##الا	9472
لاڻ	9473
پيمان	9474
نوم	9475
هلن	9476
حقيق	9477
رجا	9478
ali	9479
هندس	9480
منتظ	9481
نرس	9482
44	9483
mart	9484
صال	9485
غز	9486
فتي	9487
##دل	9488
##بع	9489
##ينه	9490
اسد	9491
الر	9492
راغ	9493
هلڪي	9494
اڪبر	9495
پڇا	9496
يشر	9497
يٽرن	9498
جماع	9499
جبهه	9500
ٺيون	9501
clo	9502
om	9503
ئڪ	9504
اشت	9505
دڙي	9506
ديم	9507
صفر	9508
ڏھ	9509
ڙيو	9510
ڙائي	9511
کوڙ	9512
ڪچي	9513
##آر	9514
پوڊ	9515
دران	9516
نوڪ	9517
تما	9518
اشي	9519
بطن	9520
zone	9521
حز	9522
ڍن	9523
##ka	9524
ميون	9525
معت	9526
فيل	9527
اجا	9528
ڻيون	9529
مبروك	9530
log	9531
400	9532
way	9533
not	9534
wat	9535
اى	9536
جڙي	9537
داز	9538
رڪر	9539
طن	9540
عة	9541
لڪيل	9542
ڀنگ	9543
ڌن	9544
ڍڪ	9545
ڏج	9546
##عل	9547
ريقا	9548
ڏينه	9549
شاٽ	9550
سندو	9551
ٽيشن	9552
يتك	9553
چوند	9554
وسن	9555
نيوي	9556
لسه	9557
iso	9558
عترف	9559
//	9560
ea	9561
lt	9562
ڊف	9563
ڪثر	9564
##اط	9565
اسو	9566
سوز	9567
هات	9568
ڪارن	9569
اپي	9570
خطن	9571
حضر	9572
صلح	9573
هيرن	9574
دة	9575
دخت	9576
ضما	9577
لانگ	9578
يغ	9579
##ek	9580
##ڄي	9581
ڪرم	9582
ريما	9583
ابق	9584
نجا	9585
ko	9586
داني	9587
عدي	9588
نــ	9589
ٽئ	9590
##بـ	9591
ناج	9592
اوج	9593
ڪاسٽ	9594
لوپ	9595
اشو	9596
رمائ	9597
معاو	9598
دٻي	9599
64	9600
han	9601
دت	9602
شمو	9603
عدو	9604
ُم	9605
ڇي	9606
کی	9607
##لك	9608
انسپ	9609
واک	9610
هيج	9611
اڻپ	9612
اجه	9613
خطر	9614
يٽس	9615
دفع	9616
رهون	9617
يزان	9618
ڪڪڙ	9619
gro	9620
sn	9621
تاني	9622
جڙ	9623
لڊر	9624
وبي	9625
##أأ	9626
موج	9627
ويري	9628
ويلي	9629
نيش	9630
ڊيڄ	9631
پيشي	9632
يانگ	9633
پاڻيء	9634
سيٽن	9635
dia	9636
37	9637
pc	9638
اٻ	9639
تجي	9640
دائو	9641
پسي	9642
پگه	9643
ڊون	9644
ھان	9645
روين	9646
هربان	9647
ازد	9648
نڊون	9649
لهائڻ	9650
لمه	9651
چڱا	9652
رھڻ	9653
ريڪٽ	9654
هيڪر	9655
عجبت	9656
مركز	9657
آله	9658
اضي	9659
ٽس	9660
ڙين	9661
ڪک	9662
ڳر	9663
##ti	9664
##sh	9665
##bo	9666
##ونه	9667
ويم	9668
يوزر	9669
سيءَ	9670
فرش	9671
پنن	9672
##ari	9673
ريات	9674
يڊي	9675
بچائ	9676
برادر	9677
عوامل	9678
شمس	9679
bit	9680
وصف	9681
اٺن	9682
work	9683
اڍا	9684
لقيت	9685
af	9686
sl	9687
ثبت	9688
جلا	9689
سڙي	9690
عمي	9691
يڙه	9692
ڏکي	9693
الهي	9694
ڪيش	9695
ليبل	9696
يلين	9697
اُت	9698
رسائ	9699
int	9700
هُئ	9701
يداري	9702
ھيون	9703
وڙين	9704
ريڪي	9705
وتن	9706
چاھي	9707
ويڪسي	9708
get	9709
tro	9710
ثل	9711
دڙ	9712
قض	9713
قمر	9714
وسا	9715
ٽڪي	9716
پلا	9717
کانئ	9718
جاز	9719
سيب	9720
ڪنج	9721
دود	9722
عمو	9723
خاطب	9724
www	9725
42	9726
85	9727
ok	9728
part	9729
ئم	9730
تام	9731
زه	9732
وڍ	9733
يبر	9734
##شد	9735
##ٽس	9736
##ھا	9737
موسي	9738
روه	9739
ارک	9740
لوڏ	9741
وريو	9742
رجال	9743
rou	9744
شته	9745
iti	9746
ort	9747
post	9748
car	9749
eي	9750
ااه	9751
حامل	9752
لندي	9753
َم	9754
ٻٽي	9755
ڪف	9756
۾؟	9757
##که	9758
اوڙ	9759
هادي	9760
نواف	9761
يمس	9762
داسي	9763
مرتضي	9764
دائود	9765
41	9766
رڌ	9767
صر	9768
يالي	9769
##يـ	9770
لاقي	9771
واڳ	9772
سيس	9773
امو	9774
وريج	9775
هلون	9776
ڪلپ	9777
مٿن	9778
ايوا	9779
پُٽ	9780
طارق	9781
جولاء	9782
fli	9783
ji	9784
شهور	9785
لقا	9786
ٽچ	9787
کندڙ	9788
##ad	9789
##ڀي	9790
انم	9791
الج	9792
ٿيس	9793
ايب	9794
اوى	9795
يڪن	9796
نيءَ	9797
شيٽ	9798
ــك	9799
دوس	9800
قويه	9801
تقد	9802
گيج	9803
لينا	9804
رحيم	9805
اھڙ	9806
سڏين	9807
ama	9808
ڳڻپ	9809
tube	9810
راغب	9811
sch	9812
جگر	9813
حــــ	9814
شون	9815
قمي	9816
لفت	9817
نٽر	9818
پست	9819
##آء	9820
هاس	9821
سافر	9822
ٻيڙ	9823
ديري	9824
ڊائري	9825
شدن	9826
يليون	9827
زنان	9828
ڄمڻ	9829
سٺن	9830
لاٿو	9831
au	9832
tri	9833
ئد	9834
تپ	9835
خن	9836
نثر	9837
ُت	9838
ٻڏي	9839
کش	9840
ھجڻ	9841
##ٽن	9842
##sk	9843
##so	9844
##ou	9845
##کس	9846
انھي	9847
جناح	9848
نگه	9849
ولس	9850
خطا	9851
رنج	9852
اڇا	9853
لغت	9854
هيئت	9855
معاهد	9856
بب	9857
تقي	9858
جال	9859
خه	9860
لڄ	9861
لاني	9862
هڙو	9863
چڪ	9864
ڪيچ	9865
ئيءَ	9866
هيري	9867
مانن	9868
بيٺ	9869
ائع	9870
سالگ	9871
ترح	9872
نوري	9873
دادا	9874
سُر	9875
أخي	9876
ڍنڍ	9877
51	9878
cla	9879
pst	9880
tw	9881
جهند	9882
صا	9883
هــــ	9884
يڙي	9885
ٽال	9886
انى	9887
نهون	9888
ماند	9889
ائنس	9890
يڪڙ	9891
ترت	9892
يترا	9893
مدن	9894
چوڌر	9895
ووي	9896
پڇو	9897
ang	9898
يشو	9899
ركب	9900
marte	9901
fl	9902
بزن	9903
تــ	9904
رمو	9905
علوم	9906
غال	9907
فقي	9908
قف	9909
قصو	9910
نرو	9911
وله	9912
ڊڪ	9913
جور	9914
جوئ	9915
واش	9916
ورق	9917
همٿ	9918
نقاب	9919
وقار	9920
يگن	9921
سوره	9922
نهنجي	9923
ترڪيب	9924
pdf	9925
dra	9926
تـــ	9927
لڻ	9928
لسا	9929
مڇ	9930
وجي	9931
وچي	9932
ٿاڻي	9933
کڙي	9934
ڪفر	9935
گلا	9936
##صص	9937
الها	9938
ميلو	9939
ارل	9940
نگري	9941
اڻه	9942
اليا	9943
لهائي	9944
وبس	9945
رنه	9946
tag	9947
nda	9948
بكل	9949
http	9950
قبيلي	9951
xia	9952
رها	9953
طم	9954
عس	9955
فڪ	9956
نارو	9957
هنوز	9958
##نيف	9959
نوف	9960
وڪڻ	9961
اكت	9962
بغي	9963
سارنگ	9964
وفد	9965
htc	9966
html	9967
fla	9968
ul	9969
آغا	9970
بتي	9971
تسا	9972
حبه	9973
ٽٽي	9974
ٿائ	9975
ڪاڻ	9976
##طس	9977
##pa	9978
##ٻڙ	9979
هيد	9980
مونک	9981
هران	9982
سمن	9983
فيض	9984
بره	9985
##ڪرت	9986
انته	9987
يفڪ	9988
"،	9989
pen	9990
بكم	9991
حكم	9992
ســــ	9993
عـــ	9994
فيا	9995
لئي	9996
مى	9997
چڻ	9998
ڊيا	9999
ڪبي	10000
##ينو	10001
جوز	10002
هڪا	10003
ـــر	10004
تجار	10005
هينئ	10006
نديد	10007
اكس	10008
يشل	10009
رينا	10010
لحين	10011
فضول	10012
روپيا	10013
آيس	10014
5g	10015
bre	10016
cra	10017
em	10018
ig	10019
دآ	10020
سلو	10021
قلي	10022
كش	10023
لٽر	10024
مٺو	10025
نچي	10026
وتو	10027
ِس	10028
##ذر	10029
##ورا	10030
استي	10031
مومل	10032
ڪوپ	10033
يوز	10034
اتن	10035
ندين	10036
يڊر	10037
نصف	10038
ڏٺل	10039
اڍي	10040
serv	10041
ويژه	10042
اڌو	10043
حوا	10044
خـــ	10045
سلي	10046
ٽٽ	10047
چٽو	10048
ڙهه	10049
😂😂	10050
##عة	10051
##ci	10052
##ps	10053
##ld	10054
##go	10055
ماڊ	10056
ناف	10057
ورب	10058
باق	10059
سرن	10060
متى	10061
نسب	10062
افو	10063
##oto	10064
اقوام	10065
cre	10066
رٿي	10067
قرن	10068
نائين	10069
ٺاڻ	10070
ٿائي	10071
ڀٽي	10072
ڏنڊ	10073
##اش	10074
جيس	10075
جود	10076
ايگ	10077
يونا	10078
يانا	10079
رجل	10080
سڃات	10081
120	10082
مظهر	10083
مشكو	10084
ڊڄي	10085
نفيس	10086
دختر	10087
00	10088
49	10089
52	10090
za	10091
اڪا	10092
سڪا	10093
صه	10094
ظهر	10095
فسا	10096
لگ	10097
نپ	10098
ڃاڻ	10099
ڏه	10100
ھڻي	10101
مرشد	10102
وياج	10103
نقد	10104
ندؤ	10105
شرڪ	10106
مينار	10107
وڙن	10108
name	10109
38	10110
cb	10111
أح	10112
ذوب	10113
ذوق	10114
ربو	10115
رنڊ	10116
سني	10117
صيل	10118
نبا	10119
وڀر	10120
ِن	10121
##آإ	10122
##اٽ	10123
##وط	10124
##ؤن	10125
کيه	10126
لاق	10127
ايڪو	10128
تول	10129
واعد	10130
ماسي	10131
ترکي	10132
بات	10133
ستون	10134
سبز	10135
وليت	10136
گوي	10137
هميش	10138
led	10139
ويڪر	10140
عاجز	10141
bri	10142
ware	10143
أهم	10144
خفي	10145
ديا	10146
فك	10147
##مه	10148
هڪڙ	10149
ونس	10150
جاج	10151
ماد	10152
ڪنٽ	10153
سرخ	10154
شروط	10155
تحد	10156
عمال	10157
stra	10158
ديه	10159
بده	10160
افٽ	10161
ڏکن	10162
دريس	10163
,,,	10164
بوٽن	10165
راعظم	10166
46	10167
47	10168
آج	10169
آيه	10170
حليم	10171
لٺ	10172
نصر	10173
يڻ	10174
ڙپ	10175
##al	10176
##قر	10177
واڪ	10178
ائٽ	10179
ڪاڏي	10180
يملي	10181
چيءَ	10182
نسار	10183
والن	10184
گارن	10185
قراط	10186
كدة	10187
***	10188
cy	10189
آهر	10190
آنا	10191
دخ	10192
ذو	10193
شري	10194
كري	10195
ٽڻ	10196
ڄار	10197
##sp	10198
##oo	10199
اندو	10200
انوا	10201
ڪرن	10202
سانوڻ	10203
ائنا	10204
سيٰ	10205
ــل	10206
يلم	10207
##ere	10208
رانه	10209
بحا	10210
يٽري	10211
نديءَ	10212
انگل	10213
اقبال	10214
اراد	10215
وكل	10216
خلوص	10217
ڀروس	10218
آڪ	10219
آح	10220
آقا	10221
رٽر	10222
شدي	10223
پیش	10224
کے	10225
ہے	10226
انک	10227
کيا	10228
ياا	10229
ياي	10230
سوپ	10231
وينس	10232
برك	10233
تحريم	10234
مديني	10235
رسا	10236
nge	10237
جزائر	10238
web	10239
.:	10240
98	10241
بصر	10242
جڏ	10243
خات	10244
دِ	10245
ـك	10246
قام	10247
لڌو	10248
نٽي	10249
وة	10250
يعي	10251
يھر	10252
گزي	10253
##أإ	10254
انپ	10255
انجن	10256
اسط	10257
ناد	10258
يواري	10259
رهيل	10260
ليكم	10261
سيئ	10262
سمر	10263
نيئ	10264
نسڪرت	10265
نقره	10266
فارغ	10267
اريل	10268
يانو	10269
سجد	10270
سخن	10271
##dia	10272
game	10273
جِي	10274
يجنس	10275
قميص	10276
pm	10277
zh	10278
آفت	10279
أنت	10280
اٽل	10281
حف	10282
حلم	10283
سٿ	10284
شنل	10285
غالي	10286
لانه	10287
ٺڳي	10288
واجه	10289
ريائي	10290
راث	10291
ارڪر	10292
برٽ	10293
اينڊر	10294
ٽيب	10295
عملد	10296
چوڪ	10297
ولان	10298
يٽن	10299
سطو	10300
sky	10301
62	10302
dow	10303
بى	10304
زائ	10305
زاني	10306
ضعي	10307
عبا	10308
ڇال	10309
##يق	10310
##ڳڙ	10311
ونيا	10312
##يرا	10313
اوو	10314
سيٺ	10315
مشر	10316
ستح	10317
ندان	10318
جهون	10319
ٽيڪل	10320
پروا	10321
عنه	10322
سکن	10323
بجا	10324
جزوي	10325
رواي	10326
apk	10327
ڀوڳ	10328
plus	10329
لڏپ	10330
bot	10331
ext	10332
je	10333
آني	10334
اشن	10335
خف	10336
خم	10337
ربا	10338
رتا	10339
غبي	10340
قن	10341
لحد	10342
مڱ	10343
کري	10344
##tn	10345
انش	10346
راهم	10347
اوك	10348
درن	10349
وريا	10350
ولن	10351
گھرج	10352
هالا	10353
usb	10354
250	10355
نوڪيا	10356
ڪثرت	10357
tv	10358
رمت	10359
عف	10360
نڪو	10361
ڊرا	10362
##هل	10363
##ڊس	10364
##fa	10365
##یر	10366
##ندر	10367
جاد	10368
مانت	10369
ويـ	10370
ويلا	10371
سمت	10372
خطير	10373
رجعت	10374
زينت	10375
sha	10376
ڪيڏا	10377
راثيم	10378
sur	10379
ديرو	10380
رڍ	10381
سآ	10382
سجن	10383
فله	10384
فرين	10385
وام	10386
يجر	10387
ٽريٽ	10388
ڙند	10389
گام	10390
##no	10391
##ڱر	10392
هنم	10393
هنيا	10394
توان	10395
روپي	10396
راش	10397
ليڊي	10398
سيز	10399
وينا	10400
زمن	10401
ندست	10402
ولڻ	10403
شود	10404
بوط	10405
اسپا	10406
سونا	10407
اقر	10408
لوڊش	10409
رزش	10410
جزو	10411
off	10412
مرکز	10413
ian	10414
war	10415
آتم	10416
تسو	10417
حک	10418
ديل	10419
رة	10420
زنگ	10421
سورت	10422
كلي	10423
لجي	10424
ناڻي	10425
ڪڙو	10426
ڳي	10427
ھوا	10428
##dy	10429
##یق	10430
##روض	10431
ويگ	10432
ناي	10433
يوڪ	10434
يوسي	10435
ليٽي	10436
سيء	10437
ڪنول	10438
##عيم	10439
وسائ	10440
تسلي	10441
600	10442
ڀڄڻ	10443
قبيلن	10444
نجوم	10445
رٿيل	10446
blu	10447
cli	10448
ئش	10449
اڪس	10450
رطان	10451
زڪو	10452
ضبط	10453
عکس	10454
كــــ	10455
مڊل	10456
ٻئ	10457
چيا	10458
چمي	10459
##آت	10460
##ٽڪ	10461
##ba	10462
##یت	10463
##الو	10464
جات	10465
سڀن	10466
امح	10467
مرگ	10468
سره	10469
پارا	10470
يٽون	10471
اليان	10472
top	10473
حرم	10474
چرپر	10475
##ata	10476
share	10477
شمع	10478
ڪيٽن	10479
بيلٽ	10480
زعل	10481
=)	10482
cm	10483
fro	10484
sw	10485
sen	10486
آهو	10487
آفر	10488
آڱر	10489
جبر	10490
جسٽ	10491
حار	10492
حلف	10493
حيل	10494
دعي	10495
زانو	10496
شمي	10497
شبه	10498
عبي	10499
غص	10500
قير	10501
نائڻ	10502
هبل	10503
وجو	10504
وتر	10505
ياڻ	10506
کون	10507
##om	10508
هوي	10509
##ميه	10510
ورنا	10511
بيح	10512
نواري	10513
دودي	10514
ازا	10515
يته	10516
متع	10517
گران	10518
فوق	10519
وائل	10520
اديءَ	10521
راڻا	10522
مائڪر	10523
ضعيف	10524
dro	10525
por	10526
sq	10527
ئلي	10528
ذلك	10529
سڪل	10530
سٽو	10531
عدا	10532
غا	10533
وى	10534
ٻچ	10535
پهن	10536
ڌڻ	10537
ڦٽي	10538
ڪرند	10539
ياض	10540
راك	10541
وردي	10542
هرب	10543
برنا	10544
ترڻ	10545
مشڪ	10546
فرح	10547
نقاد	10548
ڪلائ	10549
بدك	10550
col	10551
toڻ	10552
يزائ	10553
ويجھ	10554
ڊزائ	10555
آڻين	10556
ٽتائي	10557
flix	10558
56	10559
oc	10560
tre	10561
wri	10562
اال	10563
خش	10564
ذرا	10565
صي	10566
لفي	10567
ڀون	10568
ڃان	10569
ڏائي	10570
گانا	10571
ھاڻ	10572
##زه	10573
##lk	10574
الن	10575
ونکي	10576
رويا	10577
##ميل	10578
سندا	10579
اڪائ	10580
sto	10581
پڇن	10582
نجون	10583
عدل	10584
مهار	10585
فتن	10586
تخا	10587
rosa	10588
ودام	10589
درويش	10590
نهنجو	10591
رچو	10592
چراغ	10593
رشتا	10594
صباح	10595
gg	10596
lla	10597
جست	10598
دلا	10599
رژ	10600
رڻي	10601
سڱ	10602
فــ	10603
لفٽ	10604
ٻڏ	10605
پاري	10606
ٿري	10607
ڻان	10608
الغ	10609
سانت	10610
ونهي	10611
موش	10612
مايا	10613
ويٺ	10614
ناا	10615
اوڏ	10616
ڪاٿي	10617
نگو	10618
ستائ	10619
بوس	10620
فاروق	10621
اريءَ	10622
تصنيف	10623
اٿڻ	10624
ren	10625
ڀاڳ	10626
رمز	10627
ٽوئر	10628
usd	10629
اظن	10630
نماي	10631
دكتر	10632
free	10633
.)	10634
bro	10635
cn	10636
gt	10637
tm	10638
ئدا	10639
ئني	10640
ذرو	10641
رتو	10642
طوري	10643
عبو	10644
مٺا	10645
نژ	10646
ومت	10647
ڀاڻ	10648
ڊنگ	10649
گور	10650
##فه	10651
##ep	10652
انيت	10653
راڪ	10654
سيف	10655
امك	10656
علت	10657
ستاد	10658
اُٺ	10659
آخه	10660
گرل	10661
واند	10662
مسئل	10663
گيس	10664
نجڻ	10665
remo	10666
لعل	10667
site	10668
لعبة	10669
رونق	10670
ڀڃي	10671
ڌوئي	10672
ناروي	10673
()	10674
bor	10675
ls	10676
mer	10677
pr	10678
ربر	10679
طئه	10680
غد	10681
قهر	10682
كني	10683
لدار	10684
ميوا	10685
هام	10686
َا	10687
پڪي	10688
ٿڪل	10689
چؤ	10690
ڊيڪ	10691
ڏنگ	10692
ڏجن	10693
##آم	10694
##يير	10695
##th	10696
##زو	10697
##گن	10698
##يور	10699
اهمي	10700
رافي	10701
ڇاپ	10702
##ark	10703
##تاق	10704
گوڙ	10705
معاش	10706
اونه	10707
جتن	10708
هيرا	10709
ملها	10710
54	10711
bb	10712
dri	10713
آد	10714
جئن	10715
جـــ	10716
ديان	10717
زيرو	10718
عري	10719
لحال	10720
مگه	10721
ناني	10722
نانو	10723
وڙو	10724
ٽئي	10725
ڇه	10726
ڏار	10727
ڻپ	10728
##ئو	10729
هوڏ	10730
ونء	10731
واء	10732
پوائ	10733
ريءَ	10734
بيري	10735
سڀا	10736
وانگ	10737
ابلو	10738
وڙج	10739
رشد	10740
هجوم	10741
59	10742
63	10743
eu	10744
ell	10745
zi	10746
أإ	10747
ئع	10748
ئگ	10749
زپ	10750
زح	10751
كما	10752
لبو	10753
وقا	10754
ُٺ	10755
ڙهيو	10756
ڻيند	10757
ھند	10758
##هـ	10759
##هري	10760
##ژي	10761
انيو	10762
الهه	10763
ناگ	10764
ميک	10765
يوري	10766
ڪاڪ	10767
نوبل	10768
دودو	10769
سرڪ	10770
صحي	10771
ندام	10772
ins	10773
گرڊ	10774
ايسڊ	10775
مزور	10776
reco	10777
فتار	10778
يشاني	10779
سنگهه	10780
ئنٽ	10781
قسط	10782
ڪابل	10783
عمودي	10784
53	10785
ai	10786
cat	10787
don	10788
lle	10789
رط	10790
رضو	10791
عيا	10792
ـل	10793
لائڻ	10794
نست	10795
ٺڳ	10796
ٺٽو	10797
ٽپو	10798
یش	10799
##ضب	10800
##جل	10801
انڌو	10802
کيل	10803
وازي	10804
پيد	10805
سوڍ	10806
ليد	10807
ڪجو	10808
سات	10809
دوکو	10810
يرون	10811
نتيج	10812
هندا	10813
سنڀار	10814
آئس	10815
ڪُل	10816
org	10817
هديه	10818
لأن	10819
پوپٽ	10820
برٽش	10821
aut	10822
ron	10823
بائل	10824
رنو	10825
صلا	10826
عطر	10827
فڪس	10828
قين	10829
لدي	10830
وصي	10831
يفي	10832
َي	10833
ڀوت	10834
گدا	10835
ڳئ	10836
##ju	10837
##ابي	10838
ارڙ	10839
اران	10840
برق	10841
ترك	10842
باي	10843
توني	10844
يعق	10845
##افل	10846
ابڙو	10847
زرد	10848
url	10849
هجري	10850
نڪاح	10851
ڀنڀ	10852
ترحيب	10853
افواه	10854
sql	10855
win	10856
آجو	10857
شڪي	10858
عزا	10859
لد	10860
مدو	10861
ية	10862
ڊور	10863
##ڪڙ	10864
##ht	10865
##ريو	10866
انون	10867
نهو	10868
موو	10869
پرک	10870
ورچي	10871
ارلي	10872
##اصد	10873
##صود	10874
پنهان	10875
چوڏ	10876
آره	10877
بڻا	10878
پيوٽ	10879
حسد	10880
نشو	10881
كلش	10882
مارج	10883
عافي	10884
اطل	10885
sel	10886
يگري	10887
ica	10888
نارا	10889
عضون	10890
news	10891
لتاڙ	10892
ويگاس	10893
88	10894
86	10895
ktn	10896
ob	10897
آلي	10898
حيت	10899
ظم	10900
يچي	10901
چٽي	10902
ڏيا	10903
انسي	10904
اهڻ	10905
ئيل	10906
ورل	10907
نوو	10908
نوش	10909
بسس	10910
ولھ	10911
مڪان	10912
نشست	10913
مينا	10914
ذاكر	10915
max	10916
ٽوٽ	10917
cho	10918
##ويس	10919
اڌور	10920
دادن	10921
لوني	10922
سِر	10923
ورچو	10924
mark	10925
cbd	10926
57	10927
96	10928
ben	10929
ua	10930
ابل	10931
جھن	10932
حان	10933
دگي	10934
زهرا	10935
سعد	10936
لخ	10937
مڙي	10938
نغ	10939
هٻ	10940
هـــ	10941
ووا	10942
پٺي	10943
ڃا	10944
چچ	10945
ڪٺ	10946
گيل	10947
##وع	10948
##شس	10949
##ذي	10950
اهش	10951
هيلي	10952
روٽر	10953
ويلن	10954
ناتي	10955
ليـ	10956
هرائ	10957
ترن	10958
نوشت	10959
يمان	10960
مقصود	10961
خاصي	10962
چوپ	10963
وچا	10964
stu	10965
عنك	10966
يٽور	10967
rec	10968
فاظ	10969
dir	10970
مکڻ	10971
وفائ	10972
رٿا	10973
فهد	10974
mult	10975
گيجٽ	10976
).	10977
<~	10978
gem	10979
hum	10980
lc	10981
آهم	10982
ئڙ	10983
تنو	10984
تلف	10985
غضب	10986
فخ	10987
قصي	10988
ڀائي	10989
ڦا	10990
##tt	10991
##fi	10992
##ھار	10993
##ٻر	10994
اسب	10995
ٿيم	10996
هاٿي	10997
ليبر	10998
ماڻه	10999
ساھ	11000
يمر	11001
ڪهڙ	11002
هلائ	11003
يارن	11004
گوش	11005
ten	11006
سونه	11007
ختص	11008
سائيٽ	11009
مغل	11010
قلندر	11011
ليور	11012
box	11013
سائيڪ	11014
800	11015
ڏوھ	11016
find	11017
ذهب	11018
ذهبي	11019
يعقوب	11020
cit	11021
بی	11022
ختر	11023
دنگ	11024
صج	11025
عاص	11026
لندو	11027
هى	11028
وڪس	11029
ٻچا	11030
چائڻ	11031
ڌوڙ	11032
ڳچ	11033
جيڪ	11034
اسف	11035
واءِ	11036
روو	11037
ويهين	11038
ارگ	11039
ملك	11040
برڪ	11041
سنة	11042
ازو	11043
لوگ	11044
چوڏهن	11045
ابط	11046
##وات	11047
بولي	11048
مينو	11049
ھنڌ	11050
وقع	11051
lea	11052
سٽڪ	11053
انگو	11054
rep	11055
زاويه	11056
casi	11057
logi	11058
was	11059
ائقو	11060
نافذ	11061
رژيم	11062
58	11063
92	11064
gor	11065
lar	11066
pow	11067
دی	11068
داب	11069
ظن	11070
غان	11071
نءِ	11072
يپي	11073
ُئي	11074
ٽنڊ	11075
چی	11076
ھُ	11077
##آح	11078
##ثي	11079
##ڑو	11080
اسڪيل	11081
الل	11082
ينيا	11083
راا	11084
سوئر	11085
محض	11086
شيش	11087
ــد	11088
لوئي	11089
ڇوڙ	11090
اجن	11091
ديپ	11092
ڙيءَ	11093
نسيم	11094
ڳاڙھ	11095
photo	11096
،،،	11097
نائيج	11098
طعام	11099
رڌل	11100
خفيف	11101
ستحيل	11102
82	11103
nf	11104
بهي	11105
دكم	11106
رسان	11107
زگ	11108
زيان	11109
عصر	11110
پلو	11111
ٿام	11112
ڊاهي	11113
ڊيوس	11114
##ke	11115
انق	11116
##ائف	11117
لاج	11118
##اڻا	11119
ونها	11120
ينشن	11121
نايم	11122
سوئس	11123
##بيل	11124
برون	11125
مرچ	11126
ٽيٽ	11127
ائيل	11128
باه	11129
ننگر	11130
ندى	11131
لکو	11132
بودن	11133
وڪڻي	11134
red	11135
بتن	11136
مـن	11137
آئل	11138
sse	11139
love	11140
آتش	11141
شراڪت	11142
حسيت	11143
68	11144
71	11145
93	11146
dd	11147
zo	11148
تلو	11149
دق	11150
سهم	11151
عيل	11152
فجر	11153
لز	11154
يأ	11155
ٺھي	11156
ڦل	11157
کڏ	11158
##عه	11159
##مة	11160
##mm	11161
##po	11162
##lc	11163
##ڳل	11164
لاا	11165
توڙ	11166
ينھن	11167
ناتو	11168
ريـ	11169
ميں	11170
ميار	11171
بيك	11172
ائقي	11173
ائنڊ	11174
نيٽو	11175
درش	11176
سنگي	11177
ڊيڊ	11178
ائيد	11179
باٿ	11180
ستل	11181
ندگ	11182
ابدا	11183
تنه	11184
ديدي	11185
حلق	11186
سامه	11187
ليند	11188
ana	11189
ريندو	11190
قصا	11191
پُر	11192
outl	11193
هجرت	11194
api	11195
360	11196
لذي	11197
color	11198
(.	11199
4k	11200
aro	11201
cri	11202
fs	11203
تتر	11204
رفيق	11205
عآ	11206
فـــ	11207
كسي	11208
لھي	11209
لياري	11210
وهان	11211
وبر	11212
ٿِي	11213
چک	11214
ڊن	11215
ڍير	11216
کړ	11217
##ية	11218
##ڻن	11219
لاو	11220
سانگ	11221
واص	11222
ڪمار	11223
بيچ	11224
شيل	11225
ــآ	11226
ستاني	11227
لوھ	11228
تحر	11229
جهٽ	11230
تقلي	11231
اسڪور	11232
عاشت	11233
پلے	11234
nex	11235
نعرو	11236
رعب	11237
ڌيء	11238
نڍي	11239
تغيير	11240
ms	11241
port	11242
uk	11243
جئ	11244
جھي	11245
ذن	11246
رٻڙ	11247
شاب	11248
شعا	11249
قصر	11250
وڪر	11251
ُتي	11252
ٺڪ	11253
ٻري	11254
پتا	11255
چمن	11256
##تن	11257
##بڪ	11258
##كار	11259
##ٹي	11260
##ژن	11261
جيه	11262
انگر	11263
ونئ	11264
ڪيٽي	11265
رايح	11266
ڪمرا	11267
سوسي	11268
شايف	11269
جنه	11270
ساجد	11271
مشتاق	11272
مسن	11273
گھو	11274
گھڻ	11275
مختص	11276
بڻيا	11277
پسر	11278
اپر	11279
شركت	11280
رانٽ	11281
مليح	11282
عاي	11283
sep	11284
روپا	11285
نيڪال	11286
ssi	11287
اختر	11288
مفروض	11289
شغل	11290
(→	11291
76	11292
72	11293
xy	11294
آسا	11295
جٽ	11296
جرات	11297
دھ	11298
دلو	11299
صيت	11300
عائ	11301
غذ	11302
لڪس	11303
مكر	11304
ُئ	11305
ڍي	11306
ڪائ	11307
گشت	11308
ھئ	11309
##پڙ	11310
##خش	11311
##كا	11312
##كة	11313
##كـ	11314
##lv	11315
##ڀار	11316
##قه	11317
##ؤؤ	11318
##یل	11319
انست	11320
ڪرت	11321
ياط	11322
ونو	11323
پيڙا	11324
پوز	11325
ڪوڏ	11326
يوڊ	11327
ترد	11328
ترسي	11329
سنس	11330
يمون	11331
يموٽ	11332
همس	11333
تحب	11334
پنڊ	11335
سينه	11336
وچن	11337
آنآ	11338
stat	11339
نياپو	11340
لينن	11341
اِي	11342
ros	11343
جزئي	11344
هناك	11345
يڏا	11346
مرکب	11347
ship	11348
شعاع	11349
69	11350
aa	11351
fer	11352
gla	11353
بخت	11354
جع	11355
خيا	11356
زنا	11357
سله	11358
فة	11359
ميرو	11360
مكن	11361
نرا	11362
ڳت	11363
##مز	11364
##ـي	11365
##cl	11366
##lm	11367
##أت	11368
انان	11369
لاڀ	11370
هنري	11371
##داء	11372
واح	11373
موه	11374
پيپ	11375
نايت	11376
ناڪار	11377
هرج	11378
ملف	11379
ڏيهي	11380
سبت	11381
اڻس	11382
ولآ	11383
stri	11384
وسين	11385
وليس	11386
اٿئ	11387
لهائ	11388
ڳولھ	11389
desi	11390
ٻوليء	11391
صوبو	11392
نبض	11393
whit	11394
موسيق	11395
نروار	11396
77	11397
><	11398
bt	11399
pot	11400
rat	11401
tan	11402
آجي	11403
إذا	11404
بسي	11405
زگار	11406
شهو	11407
شفٽ	11408
ضام	11409
غافل	11410
لڌا	11411
يريز	11412
ٽه	11413
پهه	11414
ڇرڪ	11415
ڌندڙ	11416
ڪہ	11417
ڻج	11418
ھه	11419
##یم	11420
لاين	11421
الگ	11422
الھ	11423
ايما	11424
ياسي	11425
ينڊو	11426
ناسا	11427
راک	11428
##قيل	11429
يويو	11430
هاه	11431
ائجي	11432
ازاي	11433
مطهري	11434
ادن	11435
ردك	11436
تقو	11437
نشور	11438
بحب	11439
##ine	11440
اكتر	11441
نوره	11442
نعرا	11443
key	11444
اڪرم	11445
ٻاڦ	11446
داعش	11447
گيمز	11448
step	11449
from	11450
""	11451
78	11452
73	11453
cer	11454
gl	11455
io	11456
pit	11457
آڳ	11458
بشه	11459
ذھن	11460
رائڻ	11461
فظ	11462
كند	11463
كويس	11464
لڇ	11465
مبي	11466
ننا	11467
هدو	11468
يدو	11469
ٺڪر	11470
ڇور	11471
##رم	11472
##ڊڪ	11473
##حا	11474
پرڏي	11475
ڪمر	11476
نيما	11477
ساک	11478
يرك	11479
شكال	11480
يدان	11481
تاڪي	11482
رحال	11483
ڀاتي	11484
اھيو	11485
ڪٽس	11486
قصة	11487
يحي	11488
وردة	11489
ڪچو	11490
ڙوڪ	11491
##کوز	11492
پنهج	11493
قضا	11494
عريس	11495
لذيذ	11496
پرڏيه	11497
61	11498
bar	11499
cc	11500
ds	11501
gm	11502
har	11503
nm	11504
xp	11505
ثال	11506
جهر	11507
ججن	11508
حٿ	11509
خليت	11510
رى	11511
وٿي	11512
يهو	11513
پٽو	11514
پخش	11515
ڀال	11516
ڄائ	11517
ڊم	11518
ڏون	11519
ڪٻئي	11520
۽،	11521
##سب	11522
انين	11523
ٿيٽر	11524
##وله	11525
ويڊ	11526
ريق	11527
رادو	11528
اوري	11529
اوپو	11530
هرام	11531
امم	11532
امڪ	11533
مرکوز	11534
لولي	11535
يمز	11536
دادي	11537
متل	11538
##فاء	11539
سپا	11540
نديس	11541
سونهر	11542
سٽال	11543
mak	11544
حيه	11545
نرژي	11546
det	11547
جھٽ	11548
she	11549
bir	11550
law	11551
رامن	11552
رشوت	11553
اوچت	11554
manu	11555
رغم	11556
تطبي	11557
cent	11558
تقليد	11559
66	11560
67	11561
91	11562
bl	11563
بگو	11564
خيو	11565
خبار	11566
زلف	11567
صارت	11568
صيب	11569
فتا	11570
لار	11571
مائش	11572
ننهن	11573
يفر	11574
ٻل	11575
پگ	11576
ڍور	11577
ڍنگ	11578
ڪني	11579
گيان	11580
ڳڻي	11581
##ضم	11582
##ذآ	11583
جول	11584
الاج	11585
روزا	11586
نادي	11587
سوق	11588
ڪات	11589
علان	11590
دوکي	11591
بلٽ	11592
اپو	11593
هريا	11594
بوي	11595
ئيند	11596
اٿن	11597
يٽيڪ	11598
ابوي	11599
رحت	11600
تختي	11601
لنگر	11602
need	11603
حرڪ	11604
يپٽ	11605
adju	11606
sam	11607
ڀڳت	11608
والوز	11609
هجون	11610
هسه	11611
نيپال	11612
لذت	11613
ڪفن	11614
ٻچن	11615
تطبيق	11616
cro	11617
vari	11618
تڏ	11619
دهه	11620
رفي	11621
كلو	11622
نبوت	11623
يبو	11624
يبه	11625
ٽٽل	11626
چلي	11627
چلم	11628
ڌند	11629
ڏام	11630
ڏنس	11631
ڙڻ	11632
گئ	11633
ڳايو	11634
۽.	11635
##zz	11636
##10	11637
لاد	11638
جاول	11639
ويانا	11640
ڪوه	11641
ائشي	11642
شاي	11643
درشن	11644
ڪجن	11645
سنا	11646
مرن	11647
پاڳل	11648
ڪنڊي	11649
##نگه	11650
لوهي	11651
مليس	11652
يڊنٽ	11653
هينري	11654
جمهور	11655
may	11656
قطب	11657
ريڪو	11658
بروکر	11659
يڏانه	11660
زاديء	11661
two	11662
74	11663
__	11664
br	11665
cf	11666
fru	11667
gp	11668
para	11669
تفر	11670
دڳ	11671
رائو	11672
سأ	11673
صفت	11674
ضب	11675
فکر	11676
قع	11677
قزا	11678
لص	11679
لئن	11680
لزا	11681
لڌي	11682
ٽاڪ	11683
ڀول	11684
ڀڳو	11685
ڳه	11686
ھري	11687
##نـ	11688
##وى	11689
##rl	11690
##ڀا	11691
##صت	11692
انن	11693
تيءَ	11694
هنئي	11695
ليان	11696
سيپ	11697
دوڪان	11698
يليو	11699
لوز	11700
يمين	11701
بلب	11702
ندري	11703
ابع	11704
نٽس	11705
گيءَ	11706
علاء	11707
وڪالت	11708
لمى	11709
سڏڻ	11710
تخلي	11711
set	11712
ئنسي	11713
ڌرتيء	11714
لبى	11715
spot	11716
ركز	11717
سخي	11718
يتيم	11719
منهج	11720
ڌيئر	11721
رجوع	11722
سعر	11723
79	11724
83	11725
fr	11726
mun	11727
pet	11728
ult	11729
won	11730
،.	11731
؟.	11732
آٿ	11733
بيرو	11734
حــ	11735
حقا	11736
خاڪ	11737
سے	11738
سبو	11739
ضه	11740
عسل	11741
قاصد	11742
مبل	11743
نھنج	11744
ڃي	11745
چلو	11746
چڙه	11747
ڱريو	11748
ڻجي	11749
ھيا	11750
##يك	11751
##طف	11752
##چو	11753
##xi	11754
##ڈر	11755
انڊي	11756
##ورة	11757
لاپ	11758
##لاط	11759
موس	11760
ورڻ	11761
ميڻ	11762
سويه	11763
ڪاپ	11764
جنان	11765
مساج	11766
بادي	11767
رسد	11768
وريء	11769
يورس	11770
ديون	11771
##صلت	11772
دريسي	11773
تشڪيل	11774
pal	11775
اديء	11776
مھينو	11777
180	11778
رائيل	11779
دوني	11780
fir	11781
نحن	11782
ڦرڻ	11783
acc	11784
قبيلا	11785
ڪنگڻ	11786
نژاد	11787
ڀنڀور	11788
97	11789
cur	11790
eur	11791
ib	11792
lf	11793
آرا	11794
أبو	11795
بة	11796
بسم	11797
جلي	11798
شريف	11799
طو	11800
فس	11801
لہ	11802
لٿي	11803
نڙ	11804
يكر	11805
ڀان	11806
ڇٽي	11807
ڌائي	11808
##آه	11809
##لى	11810
##he	11811
##ثت	11812
##حب	11813
##vo	11814
##یف	11815
##یز	11816
جوي	11817
جوس	11818
نهاد	11819
توپ	11820
هيـ	11821
ريشم	11822
بيد	11823
بيلا	11824
يوا	11825
اوسر	11826
معرف	11827
ترديد	11828
سادا	11829
##گيل	11830
تمرين	11831
احي	11832
وچو	11833
بوب	11834
خطأ	11835
toاڻ	11836
عاجب	11837
روشلم	11838
سُک	11839
miss	11840
جھا	11841
کنم	11842
وغير	11843
ڪانٽ	11844
؟؟!	11845
هيات	11846
حاق	11847
ada	11848
perf	11849
ڪڙڪ	11850
350	11851
ask	11852
مشرق	11853
blue	11854
صيلي	11855
تاڪيد	11856
fun	11857
ml	11858
sle	11859
zy	11860
أني	11861
جزي	11862
حريم	11863
رڙي	11864
شگر	11865
طح	11866
عتي	11867
عرو	11868
عشر	11869
ععع	11870
غب	11871
فاج	11872
قذ	11873
كار	11874
كرا	11875
لـــ	11876
مدر	11877
ٽپي	11878
ڦٽو	11879
ڪسي	11880
ڪلم	11881
ھِ	11882
ہر	11883
′′	11884
##آف	11885
##لة	11886
##جهر	11887
##ct	11888
##ui	11889
##قب	11890
##ئل	11891
##ٹر	11892
##ارا	11893
##ائض	11894
هوه	11895
مايو	11896
پويا	11897
ناه	11898
منم	11899
سوف	11900
محا	11901
ملح	11902
ڏيل	11903
نسا	11904
وريت	11905
پوند	11906
tok	11907
ani	11908
رتون	11909
لنچ	11910
ney	11911
چرٻي	11912
داريد	11913
فاكر	11914
جزء	11915
وصال	11916
مئو	11917
uni	11918
host	11919
ركض	11920
غرض	11921
ورچی	11922
ذكاء	11923
pub	11924
logy	11925
lcd	11926
81	11927
mor	11928
vid	11929
آق	11930
أو	11931
إيه	11932
تدو	11933
تاد	11934
حدا	11935
حتم	11936
دائ	11937
رجب	11938
رضي	11939
سق	11940
شط	11941
شمن	11942
ضاي	11943
غري	11944
لة	11945
وشش	11946
پالي	11947
پشت	11948
ڌاء	11949
ڍڪي	11950
ڍڪيل	11951
کندا	11952
ڳل	11953
##آب	11954
##كو	11955
##وني	11956
جوت	11957
اهڙ	11958
ايبل	11959
واو	11960
ويکي	11961
پوش	11962
ميلا	11963
ڪمان	11964
فرائض	11965
مدح	11966
star	11967
يڊمي	11968
هيندڙ	11969
thi	11970
رحبا	11971
قات	11972
del	11973
فاض	11974
فاضيه	11975
لعن	11976
يپل	11977
هداف	11978
پکو	11979
ائوس	11980
sis	11981
يسيج	11982
هڻن	11983
ڪالا	11984
هِي	11985
wag	11986
رعيت	11987
^^"	11988
بنگال	11989
وسٽن	11990
جراي	11991
هڏن	11992
blog	11993
ذوالف	11994
غصب	11995
ٽوٽڪا	11996
آٿت	11997
94	11998
ema	11999
gin	12000
تهه	12001
ذاب	12002
رؤ	12003
زيا	12004
سٻ	12005
صندو	12006
ضغ	12007
غيب	12008
قضيه	12009
نري	12010
هٽل	12011
هكر	12012
پط	12013
ڊان	12014
ڊسٽر	12015
ڏاهي	12016
ھڻ	12017
##فة	12018
##sc	12019
##ub	12020
##ڀير	12021
##ائت	12022
لاڪا	12023
اية	12024
توفيق	12025
واف	12026
جاه	12027
ريڊر	12028
ڪوس	12029
ڪما	12030
ارچ	12031
يڪسي	12032
هرڻ	12033
دوج	12034
ستع	12035
لوڏي	12036
وئيٽر	12037
پنبه	12038
تبار	12039
ابه	12040
قابض	12041
افلاط	12042
ھنج	12043
گوتم	12044
صنم	12045
tik	12046
mix	12047
زود	12048
مپن	12049
رويس	12050
tte	12051
رگز	12052
ful	12053
---	12054
پنهل	12055
عائشه	12056
سلهاڙ	12057
ويکيپ	12058
صندوق	12059
89	12060
nor	12061
ome	12062
par	12063
rt	12064
بې	12065
بطي	12066
تهن	12067
سڙ	12068
سهر	12069
طبا	12070
ظرف	12071
عما	12072
مچي	12073
نة	12074
نبات	12075
پڳ	12076
ڊنر	12077
ڙهن	12078
##فع	12079
##as	12080
##وڪ	12081
##لد	12082
##ڊٽ	12083
##il	12084
##bu	12085
لامت	12086
بهانو	12087
ونين	12088
ڪوري	12089
ارني	12090
ڇاتي	12091
اهيم	12092
شيلف	12093
لوه	12094
قيصر	12095
فقد	12096
فراد	12097
رنگا	12098
لكي	12099
عبارت	12100
وضع	12101
shop	12102
قصور	12103
وراثت	12104
ral	12105
نعري	12106
چپس	12107
لبن	12108
file	12109
smart	12110
لٿو	12111
ڪستان	12112
نائيٽ	12113
زلزلو	12114
اوپري	12115
type	12116
ريشمي	12117
حتمال	12118
bur	12119
but	12120
fri	12121
flu	12122
vp	12123
إلا	12124
بنو	12125
بــــ	12126
ثا	12127
حاس	12128
رگا	12129
طير	12130
كب	12131
لڱ	12132
نئر	12133
ٿم	12134
چنگ	12135
ڊرو	12136
ڙيند	12137
کڄي	12138
##لڪ	12139
##ho	12140
##ثيل	12141
##ڊن	12142
##ډيا	12143
##sm	12144
##حـ	12145
##ړه	12146
##اره	12147
توڻي	12148
##يڪا	12149
##لاء	12150
ويٽر	12151
ريخ	12152
ريخت	12153
راھ	12154
سوسو	12155
يوڪر	12156
ليلا	12157
سيري	12158
ٽيهن	12159
مسال	12160
گھوٽ	12161
مطرح	12162
اُڀ	12163
نقاش	12164
جهڳڙ	12165
شوڪت	12166
تجا	12167
صلاحي	12168
چارئي	12169
ڪپور	12170
tit	12171
end	12172
سُڌ	12173
sex	12174
فاقي	12175
sho	12176
short	12177
مَن	12178
رفع	12179
رضه	12180
pop	12181
حجت	12182
doc	12183
انڌا	12184
بيلنس	12185
ڊاک	12186
نيرن	12187
acce	12188
دراڪ	12189
فيڪٽ	12190
حزب	12191
هيڪرز	12192
تقييم	12193
وجيه	12194
ight	12195
cnc	12196
ٺھيل	12197
سنگيت	12198
قزاق	12199
تدوين	12200
پطرس	12201
4g	12202
ey	12203
mg	12204
mus	12205
ple	12206
ئيو	12207
اڙو	12208
دانا	12209
رال	12210
ررو	12211
زما	12212
سهڻ	12213
شتم	12214
طاري	12215
فد	12216
قدا	12217
قبا	12218
لپي	12219
نعيم	12220
هے	12221
يجه	12222
ٺھ	12223
ٻہ	12224
ڍو	12225
گت	12226
ېډيا	12227
##عج	12228
##ضت	12229
##طع	12230
##طق	12231
##كير	12232
##کت	12233
##vc	12234
جولي	12235
اهري	12236
##اڻن	12237
ويش	12238
جنج	12239
ملند	12240
##بيه	12241
نظارت	12242
ڊيش	12243
چوب	12244
ندرو	12245
ٽرن	12246
خيار	12247
پڙهن	12248
عرش	12249
اريم	12250
يانت	12251
اوله	12252
اولھ	12253
سوچين	12254
##فوي	12255
وڪام	12256
اليڪ	12257
test	12258
alt	12259
lev	12260
لمان	12261
تخص	12262
ڪشم	12263
bea	12264
bel	12265
يٺين	12266
صوت	12267
تلخ	12268
يراث	12269
بگم	12270
ڀڳل	12271
يحب	12272
نَه	12273
گُل	12274
ترکيب	12275
84	12276
bin	12277
nz	12278
ost	12279
pat	12280
أأأ	12281
ؤن	12282
تئين	12283
تکو	12284
جزن	12285
خلف	12286
ذرات	12287
سئي	12288
عبر	12289
غاد	12290
غصي	12291
فريڪ	12292
قــ	12293
قـــ	12294
لري	12295
ٺل	12296
ٻني	12297
ڄمي	12298
گپ	12299
ھج	12300
##اق	12301
##وك	12302
##دة	12303
##لر	12304
##پن	12305
##ڌن	12306
##وره	12307
يادي	12308
ياپي	12309
واجد	12310
پرن	12311
ماڙ	12312
نازي	12313
منى	12314
منڊ	12315
يوكن	12316
سمير	12317
نگالي	12318
تركي	12319
نووا	12320
ڪنڀار	12321
يلنگ	12322
نساء	12323
هلڪ	12324
فوم	12325
خوشب	12326
بدال	12327
ٽيڪنا	12328
سپلا	12329
مخفف	12330
کاڄ	12331
وفاء	12332
وڪيم	12333
وضيح	12334
فاق	12335
meta	12336
media	12337
ڇپر	12338
ائونٽ	12339
mp3	12340
نازع	12341
انڌير	12342
700	12343
odm	12344
ٽريشن	12345
نثري	12346
ھٿن	12347
شکل	12348
جهنڊو	12349
طمع	12350
++	12351
sf	12352
tr	12353
wide	12354
أجل	12355
حفي	12356
زائر	12357
صرت	12358
عفر	12359
فص	12360
فول	12361
نكر	12362
هيڪل	12363
وא	12364
وړ	12365
وڊي	12366
ٻٻر	12367
ڊار	12368
ڌيا	12369
ڳچي	12370
##عب	12371
##cc	12372
لاي	12373
ڪريا	12374
توري	12375
پيز	12376
پيما	12377
راڳي	12378
بيطس	12379
ملز	12380
تعوي	12381
ڪنا	12382
ڪنز	12383
يميا	12384
خيز	12385
پروڊڪ	12386
mesh	12387
نهاي	12388
رخصت	12389
نڪرن	12390
110	12391
vib	12392
ray	12393
اظهر	12394
روپين	12395
سولف	12396
بطل	12397
boa	12398
اوتار	12399
cru	12400
foll	12401
disp	12402
عقب	12403
تحقیق	12404
زڪوات	12405
قذاف	12406
vpn	12407
":	12408
02	12409
bli	12410
den	12411
lor	12412
wp	12413
ئبر	12414
تز	12415
ثنا	12416
خپل	12417
دبي	12418
دڪار	12419
رزن	12420
زيب	12421
شطر	12422
علو	12423
فدا	12424
كام	12425
كسر	12426
نے	12427
وء	12428
ِه	12429
ٽتو	12430
ڊني	12431
ڏڻ	12432
ڑھ	12433
ھڻڻ	12434
##آص	12435
##ڪش	12436
اسڪيٽ	12437
نهر	12438
هوب	12439
ياح	12440
ڪيئ	12441
هيبت	12442
ينسل	12443
رييس	12444
##سيس	12445
ائرن	12446
پاتي	12447
باک	12448
دلع	12449
اُس	12450
دارند	12451
وريل	12452
تنب	12453
وسڻ	12454
سپين	12455
ڀاڄ	12456
گروھ	12457
لكل	12458
خايف	12459
جده	12460
راجل	12461
مغز	12462
انوس	12463
عنود	12464
fore	12465
ڊزني	12466
هيڪس	12467
poly	12468
dog	12469
volt	12470
عقد	12471
ٽالپ	12472
ڊراپ	12473
گيلان	12474
تلويز	12475
فاضل	12476
01	12477
ace	12478
b2	12479
sna	12480
ءٌ	12481
تائي	12482
تکي	12483
ححح	12484
سٹ	12485
سكي	12486
عداد	12487
پہ	12488
پڪا	12489
ٿان	12490
ڊٽ	12491
ڍڪڻ	12492
ڪهي	12493
گد	12494
گج	12495
ھئڻ	12496
##إن	12497
##is	12498
##ul	12499
ڪريل	12500
هوُ	12501
هولو	12502
##روز	12503
هيفاء	12504
ناتا	12505
##راء	12506
اتف	12507
سمون	12508
نيچ	12509
ائيٽر	12510
تمثيل	12511
عمان	12512
پنو	12513
وچڙ	12514
پسڻ	12515
آنـ	12516
stre	12517
stro	12518
stan	12519
سيڪيو	12520
شكست	12521
ورسل	12522
ابوه	12523
رتاح	12524
mir	12525
کنه	12526
اونا	12527
نوني	12528
ليلى	12529
انڊس	12530
add	12531
لبيا	12532
گنه	12533
160	12534
شوية	12535
posi	12536
افتد	12537
ڊڄو	12538
ٺهڪي	12539
يينوس	12540
real	12541
ٽولو	12542
نيروي	12543
skype	12544
auto	12545
هٽلر	12546
تخصصي	12547
05	12548
ara	12549
dw	12550
gd	12551
sar	12552
sat	12553
xbo	12554
آئن	12555
اے	12556
بأ	12557
تيو	12558
ثري	12559
جرح	12560
حشر	12561
ذلت	12562
رمن	12563
زده	12564
ظفر	12565
عاا	12566
لءِ	12567
نفا	12568
ڇنڊ	12569
گني	12570
گنگ	12571
ڻائ	12572
ہیں	12573
۾؛	12574
##ةة	12575
##حي	12576
##fe	12577
##ni	12578
##ٻٽ	12579
اسون	12580
هنت	12581
ايئ	12582
ينين	12583
ينيات	12584
ڪوال	12585
بيج	12586
اوون	12587
های	12588
ڪاٽ	12589
تعز	12590
برس	12591
سنوات	12592
ساف	12593
ڪنڀر	12594
يلڊ	12595
فرج	12596
نسى	12597
نسور	12598
چوٽ	12599
رسو	12600
##ذاء	12601
ster	12602
لينک	12603
اڻيون	12604
ربط	12605
لنڈر	12606
deco	12607
##ant	12608
يئرن	12609
دٻو	12610
قصص	12611
ومش	12612
vir	12613
يٺان	12614
sale	12615
ويرا	12616
اوتري	12617
ڊڄڻ	12618
طفل	12619
چُپ	12620
قافلي	12621
affa	12622
واڳون	12623
gemi	12624
حفيظ	12625
xbox	12626
08	12627
3g	12628
low	12629
lot	12630
اٹ	12631
جــــ	12632
سبا	12633
صرار	12634
فاس	12635
فشل	12636
كاري	12637
كنا	12638
ٽبال	12639
ڃري	12640
ڄڻو	12641
ڇھ	12642
ڊاپ	12643
ڍڳ	12644
ڏُ	12645
گدڙ	12646
##دت	12647
##رة	12648
##حل	12649
##nd	12650
##do	12651
##ېر	12652
##ارب	12653
تيا	12654
اليو	12655
البا	12656
ڪرشن	12657
ايڪي	12658
ينما	12659
ينڊي	12660
ناريل	12661
سوڊ	12662
اوم	12663
سيج	12664
محو	12665
تره	12666
ــت	12667
ستگ	12668
تحس	12669
داء	12670
چيئر	12671
تبريز	12672
تجلي	12673
آنر	12674
ڪلين	12675
stor	12676
stem	12677
store	12678
عرس	12679
حلن	12680
يانڪ	12681
اشك	12682
نديون	12683
اليف	12684
tem	12685
tech	12686
تاپ	12687
let	12688
مزید	12689
سٽري	12690
اكي	12691
رحـ	12692
ڊوم	12693
ٽوڪن	12694
رينڊ	12695
ڌارا	12696
dev	12697
mit	12698
زيدي	12699
ئنڪ	12700
داده	12701
وراك	12702
راڊڪ	12703
orga	12704
نارمل	12705
روني	12706
لغز	12707
حطيت	12708
ڏوڪڙ	12709
طنز	12710
ular	12711
قرنط	12712
03	12713
87	12714
dor	12715
lli	12716
non	12717
rg	12718
ys	12719
ôô	12720
آڏ	12721
إني	12722
ئرن	12723
جی	12724
جله	12725
حسا	12726
دز	12727
دڙو	12728
شبي	12729
شکر	12730
ظيم	12731
غن	12732
قهو	12733
لست	12734
مهان	12735
نبر	12736
نذير	12737
هديل	12738
هضم	12739
يې	12740
ٻير	12741
پٿ	12742
پدر	12743
څه	12744
گفٽ	12745
ڳرو	12746
ھجن	12747
##بڙ	12748
##ile	12749
##ki	12750
##dd	12751
##ok	12752
##gg	12753
##ٺار	12754
جوک	12755
لاجي	12756
ڪروز	12757
هنجي	12758
ٿيار	12759
بهش	12760
موجو	12761
ويڳ	12762
ويسي	12763
ناو	12764
ورھا	12765
##ڪوز	12766
ارث	12767
ارٿ	12768
يڪاني	12769
يڪسپ	12770
خوت	12771
فيشل	12772
ٽيئي	12773
ڪنس	12774
تمند	12775
لڳائ	12776
##باط	12777
عماد	12778
والٽ	12779
وريٽ	12780
جهڪي	12781
##سوف	12782
leno	12783
رهاڻ	12784
سچن	12785
eng	12786
گلشن	12787
ودک	12788
سنگم	12789
medi	12790
سورٺ	12791
dist	12792
cam	12793
ومب	12794
بقو	12795
لقد	12796
ado	12797
spi	12798
مائڪ	12799
ينجهر	12800
انڪم	12801
boot	12802
بولٽ	12803
جوانن	12804
رأي	12805
ڊاٽ	12806
nni	12807
يلنج	12808
disco	12809
وشيء	12810
تنوير	12811
ضامن	12812
bat	12813
gri	12814
أول	12815
بله	12816
بگي	12817
تئ	12818
خس	12819
رڊر	12820
زام	12821
هق	12822
هڏي	12823
وبو	12824
وهڻ	12825
ٺھر	12826
ڏڪڻ	12827
ڪآن	12828
گيا	12829
گاني	12830
ڳڙ	12831
##آك	12832
##وة	12833
##زس	12834
##سة	12835
##جع	12836
لاک	12837
الين	12838
ايـ	12839
مولي	12840
##ولة	12841
ريمو	12842
ڪولي	12843
ڪوڪو	12844
ورھ	12845
##قيه	12846
بيلي	12847
هاتي	12848
ڪاف	12849
وينڊر	12850
##ٽيل	12851
نگهار	12852
ڏيج	12853
شيئ	12854
ڊيزل	12855
##فيل	12856
نمول	12857
دورا	12858
والار	12859
آنت	12860
فقر	12861
تصويب	12862
سپري	12863
انيون	12864
انيال	12865
بارڪ	12866
ret	12867
resi	12868
سهل	12869
ٽوئي	12870
ڪشي	12871
deli	12872
ايشين	12873
يالا	12874
صدك	12875
tak	12876
visi	12877
ڪُن	12878
lau	12879
أنقر	12880
هيڪنگ	12881
conn	12882
بلوٽو	12883
هنگري	12884
رُخ	12885
افته	12886
وڻيج	12887
ننگا	12888
what	12889
ھلڻ	12890
وئنگ	12891
جڙڻ	12892
روپيه	12893
fsx	12894
ڏونگر	12895
az	12896
bly	12897
cle	12898
db	12899
gar	12900
now	12901
note	12902
افا	12903
حذاء	12904
شآ	12905
طما	12906
غف	12907
غي	12908
مهن	12909
هبي	12910
يږ	12911
ُج	12912
چير	12913
ڇاڻ	12914
ڊاه	12915
ڪامي	12916
##ms	12917
##پس	12918
##چه	12919
##ڏا	12920
##ڏر	12921
##ژه	12922
##ھم	12923
##ٻو	12924
##ڑي	12925
لاھي	12926
ڪرام	12927
نهال	12928
هنئ	12929
هوو	12930
هولي	12931
ونصل	12932
مونو	12933
روبي	12934
منذ	12935
منٿ	12936
ميءَ	12937
هاذا	12938
ائير	12939
ستين	12940
ٻڌن	12941
تحرڪ	12942
نقدر	12943
اڻٽر	12944
ادگار	12945
ولت	12946
يرٽ	12947
يهڙ	12948
sty	12949
رانڊ	12950
هيند	12951
هينڊ	12952
سونھ	12953
ڄڻڪ	12954
مُک	12955
دهل	12956
نرالي	12957
نورة	12958
هالو	12959
onl	12960
شمال	12961
بزني	12962
ڪينڪي	12963
140	12964
صوبا	12965
sala	12966
ريٽنگ	12967
کره	12968
مداف	12969
شبهه	12970
اسمی	12971
ڀڃڻ	12972
gala	12973
peri	12974
ذره	12975
who	12976
disk	12977
يزيء	12978
مركب	12979
matt	12980
تیر	12981
كاتب	12982
dry	12983
دخول	12984
ھُن	12985
ضغط	12986
ڑھیں	12987
dv	12988
data	12989
gy	12990
jan	12991
kr	12992
py	12993
sor	12994
vide	12995
zz	12996
اڪار	12997
بڪس	12998
جئر	12999
جبن	13000
دمن	13001
داڻو	13002
ردار	13003
قيا	13004
مهه	13005
مارت	13006
هاني	13007
هجر	13008
يامي	13009
پڄي	13010
ڊس	13011
ڪسا	13012
ڳلن	13013
##آس	13014
##آج	13015
##مـ	13016
##ex	13017
##hi	13018
##rc	13019
##خار	13020
##غر	13021
وايو	13022
هيئي	13023
منبع	13024
##راف	13025
اتش	13026
وينج	13027
درت	13028
امع	13029
مربع	13030
مرڪوز	13031
هئم	13032
دايم	13033
مدينه	13034
نسري	13035
##زيب	13036
تنس	13037
ڪلمي	13038
وسل	13039
مخفي	13040
حدف	13041
ليڪٽ	13042
too	13043
ref	13044
مهون	13045
اطر	13046
ڳنڀير	13047
يكي	13048
seo	13049
ons	13050
sun	13051
live	13052
وهاب	13053
لانٽڪ	13054
ico	13055
زيك	13056
اونڌو	13057
رخان	13058
vip	13059
قالو	13060
روند	13061
amo	13062
خبله	13063
tori	13064
إنك	13065
ٽاٽ	13066
بنگلي	13067
سيتائ	13068
بُڪ	13069
نکن	13070
دلير	13071
میں	13072
گونگا	13073
syn	13074
بوند	13075
جوزف	13076
swe	13077
ٻڏڻ	13078
multi	13079
->	13080
ep	13081
hen	13082
how	13083
tü	13084
xx	13085
آش	13086
آأ	13087
أيه	13088
ئلو	13089
حدود	13090
خبل	13091
خزا	13092
رڏ	13093
رڱ	13094
سڪري	13095
شفي	13096
صند	13097
عائل	13098
لڀ	13099
نض	13100
نزا	13101
يظ	13102
يڇ	13103
يٽو	13104
ٽاري	13105
ڀوري	13106
ڊهي	13107
ڌڪي	13108
ڍڳي	13109
کد	13110
کنو	13111
گڊ	13112
۾"	13113
##ضض	13114
##hn	13115
##20	13116
##ـه	13117
##یا	13118
##یب	13119
##َر	13120
انيم	13121
لاکي	13122
سانول	13123
توب	13124
واا	13125
##ولو	13126
وييو	13127
ورتم	13128
سوجهر	13129
##ڪوس	13130
ارسا	13131
ليٰ	13132
ليسا	13133
شات	13134
امبر	13135
اموش	13136
اڳا	13137
اڳيو	13138
ترک	13139
سنك	13140
نوڊ	13141
ڊيمن	13142
ستم	13143
اعظ	13144
يندين	13145
صحيف	13146
نقاط	13147
ٽرپ	13148
وانس	13149
نتبه	13150
ابرا	13151
تنظ	13152
اجرت	13153
يرد	13154
مضح	13155
افكار	13156
اريس	13157
ندير	13158
جرد	13159
رحله	13160
رزان	13161
حصص	13162
##lia	13163
مئچ	13164
شنبه	13165
130	13166
hou	13167
fire	13168
افتكر	13169
سٽرڪ	13170
چرچا	13171
اغي	13172
جنبش	13173
نچڻ	13174
سميه	13175
نحو	13176
اڀيان	13177
إنه	13178
لاحي	13179
365	13180
نکنر	13181
ski	13182
سادس	13183
خلوط	13184
ڌايا	13185
راکش	13186
b2b	13187
gon	13188
ger	13189
kin	13190
kit	13191
mc	13192
pur	13193
zte	13194
بكر	13195
جک	13196
حاب	13197
دڪ	13198
ذيل	13199
شح	13200
ظل	13201
عك	13202
عاف	13203
عشا	13204
ـد	13205
فطر	13206
كذ	13207
كتر	13208
لڙي	13209
نورت	13210
وثر	13211
يؤ	13212
ٺري	13213
ٽھ	13214
ڇٽ	13215
ڏڪي	13216
ڪد	13217
گٽ	13218
ڳلي	13219
ہوم	13220
##ظر	13221
##خه	13222
##حه	13223
##ـر	13224
##کن	13225
##ڀيا	13226
##ڀات	13227
##ڍي	13228
جيء	13229
اسيا	13230
ايذا	13231
راول	13232
راسم	13233
ورڙ	13234
ورشن	13235
ورسا	13236
هاشم	13237
ارپ	13238
وينه	13239
نيسان	13240
جنا	13241
شيما	13242
ائيء	13243
يترو	13244
لوما	13245
لوئس	13246
ڇوٽ	13247
پنڻ	13248
وزٽ	13249
تبع	13250
نسپ	13251
ڪهڪش	13252
آرڊ	13253
شوٽ	13254
ڳوڙ	13255
اميه	13256
اريج	13257
اريشس	13258
اٿري	13259
تات	13260
lead	13261
مهاڻن	13262
حركت	13263
shou	13264
چمڙ	13265
med	13266
دينا	13267
تشوي	13268
فلپ	13269
حمـ	13270
يبن	13271
usa	13272
user	13273
loc	13274
أنك	13275
cont	13276
fall	13277
php	13278
مِن	13279
قريت	13280
آمري	13281
سميع	13282
word	13283
450	13284
صادر	13285
جهوپڙ	13286
ڏيکا	13287
عضوي	13288
رضوي	13289
هٻڪ	13290
::	13291
fur	13292
hp	13293
ire	13294
kon	13295
m1	13296
mid	13297
ner	13298
son	13299
sid	13300
san	13301
tar	13302
أحد	13303
ئنس	13304
بڙ	13305
بنڊ	13306
تث	13307
تفوي	13308
دث	13309
رڇ	13310
زى	13311
زِ	13312
زري	13313
زهار	13314
زيه	13315
سبي	13316
صلو	13317
فلي	13318
قالي	13319
كـــ	13320
لتي	13321
مبو	13322
متو	13323
مائن	13324
نني	13325
نفت	13326
نانا	13327
ناڻو	13328
وژ	13329
وبار	13330
ٻچي	13331
ٽڙي	13332
ٽمون	13333
ڀڻ	13334
چاڪ	13335
ڇـ	13336
ڊش	13337
ڏر	13338
##آق	13339
##عون	13340
##ee	13341
##ec	13342
##وير	13343
##گس	13344
##بى	13345
##sy	13346
##ie	13347
##pp	13348
##gh	13349
##gu	13350
##wto	13351
##ٿو	13352
##هيه	13353
##ينگ	13354
کيت	13355
جورو	13356
تهديد	13357
لاص	13358
بهر	13359
موږ	13360
ينال	13361
ينڌر	13362
##راڪ	13363
راو	13364
ورسٽ	13365
ڪمند	13366
بيعت	13367
سوگ	13368
اوڪي	13369
ائونس	13370
ڪاڪي	13371
سيه	13372
نيلام	13373
برک	13374
امز	13375
نگزيب	13376
مرمر	13377
دوئي	13378
##عيب	13379
لوري	13380
مقاط	13381
##ماٽ	13382
##باء	13383
پنل	13384
سبک	13385
نسوا	13386
ٻيل	13387
پڙا	13388
اجرڪ	13389
حقك	13390
يڊس	13391
رقابت	13392
چهل	13393
عده	13394
تفكير	13395
سهڪ	13396
گريز	13397
منتشر	13398
اضح	13399
ايڊوب	13400
نرالو	13401
ينيما	13402
مساء	13403
row	13404
rome	13405
demo	13406
show	13407
ڻيءَ	13408
زالو	13409
اونچا	13410
زوم	13411
bile	13412
فضيح	13413
وراک	13414
ssa	13415
ads	13416
addi	13417
وندر	13418
unwto	13419
poli	13420
چئه	13421
قريشي	13422
bui	13423
لغوي	13424
وعى	13425
رزاق	13426
هراس	13427
disc	13428
شکن	13429
غرق	13430
joy	13431
فروض	13432
اوپرا	13433
جهنگل	13434
منجمد	13435
grow	13436
سلوڪي	13437
نصرت	13438
ھِن	13439
ڏُک	13440
خزاں	13441
تفويض	13442
مقاطع	13443
gps	13444
jp	13445
mt	13446
pin	13447
آڊٽ	13448
ثقيل	13449
خفت	13450
رآن	13451
زمي	13452
سعي	13453
فآ	13454
مندي	13455
نجن	13456
نفو	13457
هسٽ	13458
هڙا	13459
ودر	13460
يرف	13461
ڄٽ	13462
ڌڙ	13463
کهن	13464
گڻ	13465
ھاري	13466
##اع	13467
##دح	13468
##پت	13469
##غت	13470
##ol	13471
##قع	13472
##ڈل	13473
##الة	13474
الض	13475
هنآ	13476
موع	13477
پرچ	13478
##جيت	13479
ويلو	13480
ورم	13481
ورٿ	13482
سوء	13483
سوڳ	13484
اولي	13485
اويا	13486
هايل	13487
ڪاٺي	13488
نيـ	13489
ڊيپ	13490
بسين	13491
يلس	13492
اصي	13493
چيء	13494
##توب	13495
تباه	13496
جهالت	13497
يسڪ	13498
##طيع	13499
قران	13500
سواڙ	13501
co2	13502
عناد	13503
than	13504
tel	13505
جمپ	13506
mad	13507
mal	13508
رتباط	13509
ٽوئ	13510
ڪسين	13511
ايشور	13512
اروي	13513
lite	13514
دينار	13515
بزاف	13516
رخي	13517
ڳاٽ	13518
ise	13519
week	13520
عطيو	13521
هِت	13522
نبڙي	13523
هنگام	13524
fit	13525
تـو	13526
ينهون	13527
scre	13528
boy	13529
گُم	13530
900	13531
hel	13532
cust	13533
وولٹ	13534
يچار	13535
گهاٽي	13536
بُک	13537
شکست	13538
iii	13539
اوپرو	13540
سڻڀ	13541
عشرت	13542
قارئ	13543
هاااا	13544
000	13545
رنڊڪ	13546
رڍن	13547
ٻڏل	13548
چوڏه	13549
عاصم	13550
##ڑوں	13551
لئنڊ	13552
هوبهو	13553
(:	13554
-.	13555
cart	13556
dre	13557
ei	13558
fle	13559
fat	13560
hot	13561
kh	13562
ku	13563
mot	13564
ole	13565
ori	13566
rs	13567
~>	13568
آڵ	13569
آڷ	13570
جپ	13571
جفا	13572
ذمي	13573
رچي	13574
زائن	13575
زدن	13576
سها	13577
فضي	13578
قند	13579
قاز	13580
لڪڻ	13581
نڪن	13582
ييا	13583
يلوي	13584
ڀيل	13585
چٻ	13586
ڇني	13587
ڇڻي	13588
ڊنل	13589
کاڻ	13590
ھٽ	13591
یشن	13592
##ap	13593
##نج	13594
##سار	13595
##جم	13596
##كب	13597
##غل	13598
##ـآ	13599
##ـو	13600
##قد	13601
##ٹو	13602
##ينة	13603
##ندق	13604
الپ	13605
ڪرنڊ	13606
توك	13607
واهن	13608
ڪيٻ	13609
هيڊر	13610
جايا	13611
ينش	13612
روچ	13613
منڍ	13614
بيز	13615
ائٽر	13616
گهو	13617
ليمن	13618
تعد	13619
سالي	13620
سالار	13621
ٽيء	13622
پاك	13623
مسح	13624
بسڊي	13625
يلول	13626
تحي	13627
نمو	13628
اُڃ	13629
وريم	13630
شوز	13631
شوخ	13632
گرن	13633
وانن	13634
سياڻو	13635
ڏاهو	13636
قرر	13637
قرص	13638
وستي	13639
مخصص	13640
##رته	13641
اكرم	13642
اقوا	13643
فتخار	13644
رومال	13645
زينم	13646
ena	13647
نرمل	13648
see	13649
هداء	13650
ngu	13651
talk	13652
مبلي	13653
lay	13654
ناسور	13655
nov	13656
زيرا	13657
ليات	13658
پَر	13659
ويديو	13660
wall	13661
ميڪر	13662
رديت	13663
plan	13664
clu	13665
opt	13666
val	13667
کپن	13668
وڳا	13669
لابس	13670
berg	13671
نبوي	13672
sni	13673
لوڏا	13674
ٽنڊي	13675
جھٽڪو	13676
سبوع	13677
ٽوئيٽ	13678
care	13679
dn	13680
far	13681
mr	13682
mw	13683
nj	13684
sla	13685
swi	13686
تؤ	13687
تفا	13688
جرو	13689
حح	13690
دهن	13691
دهم	13692
ذھ	13693
ذكر	13694
زيم	13695
زعيم	13696
شآء	13697
صنا	13698
صلع	13699
كاس	13700
نعو	13701
ٺن	13702
ٻوڙ	13703
ٽٽڻ	13704
چھ	13705
ڇڻ	13706
ڊال	13707
ڊونا	13708
کڙو	13709
ڪڷ	13710
ہو	13711
##يط	13712
##شف	13713
##كش	13714
##چل	13715
انٽي	13716
##اما	13717
سانج	13718
نهضت	13719
توها	13720
##روت	13721
##روم	13722
هيأت	13723
ڪوي	13724
ورٽل	13725
##قيب	13726
اوٻ	13727
اوڌر	13728
ليفو	13729
سيح	13730
سمـ	13731
نيها	13732
اينگ	13733
ڏيھ	13734
پاٿ	13735
ڪنت	13736
يلف	13737
همب	13738
تحط	13739
عمده	13740
پڻس	13741
ابڙي	13742
نيات	13743
افز	13744
اريخ	13745
ڀرت	13746
تاك	13747
بارود	13748
چڱن	13749
لكزس	13750
لحم	13751
miui	13752
sec	13753
جھل	13754
125	13755
قدير	13756
tab	13757
جدان	13758
يفن	13759
بقره	13760
كرم	13761
prov	13762
هيڪڙ	13763
nok	13764
مکن	13765
cell	13766
نزدي	13767
ليوان	13768
scri	13769
اؤس	13770
youn	13771
اغذ	13772
cry	13773
يچرو	13774
ورتھم	13775
پتڻ	13776
نيپئر	13777
حليب	13778
بدوي	13779
گهنڊ	13780
psy	13781
هيجان	13782
snd	13783
نادان	13784
=))	13785
ڇهون	13786
ختصار	13787
تنهج	13788
مكرر	13789
ڀولڙ	13790
بيروت	13791
جنجال	13792
تعزيت	13793
06	13794
2_	13795
ky	13796
ken	13797
lat	13798
n9	13799
nan	13800
our	13801
rti	13802
ton	13803
zen	13804
إنت	13805
اجو	13806
بعت	13807
تآ	13808
تگ	13809
تڪن	13810
جمن	13811
جبار	13812
دگ	13813
رجه	13814
سڻي	13815
غلي	13816
كح	13817
مے	13818
هی	13819
يهان	13820
يڻي	13821
يجا	13822
ِِ	13823
ٻھ	13824
ڀؤ	13825
ڄنگه	13826
ڙهو	13827
کلن	13828
یه	13829
##عـ	13830
##ۈن	13831
##bi	13832
##ya	13833
##یه	13834
##ريه	13835
##ونت	13836
##ارة	13837
اهرا	13838
نهى	13839
بهم	13840
توڏي	13841
##ديپ	13842
ونک	13843
واجا	13844
ماعت	13845
روى	13846
روغ	13847
ويڄ	13848
ناپ	13849
نايف	13850
منال	13851
ريتم	13852
ڪوڪا	13853
ورپ	13854
وڌن	13855
بيـ	13856
اری	13857
سيڊ	13858
شاف	13859
درون	13860
برآ	13861
برنس	13862
اينه	13863
ڏيها	13864
نواڻ	13865
نوبت	13866
نوته	13867
يلان	13868
يتزا	13869
لوح	13870
لوسي	13871
مطر	13872
اڄو	13873
ديءَ	13874
صفن	13875
رقس	13876
عوض	13877
tha	13878
اشر	13879
tele	13880
نفسي	13881
تاق	13882
لهار	13883
رپيو	13884
رهـ	13885
ھيڙو	13886
وشو	13887
مهما	13888
لکيت	13889
تخصص	13890
يشا	13891
ريندي	13892
چرب	13893
room	13894
جهاتي	13895
هذول	13896
shen	13897
اَڄ	13898
يکنه	13899
زيز	13900
diy	13901
نكات	13902
ڪئبن	13903
via	13904
ندرون	13905
bal	13906
nit	13907
lol	13908
fort	13909
ايده	13910
most	13911
هيڪا	13912
nom	13913
هنديه	13914
رھيز	13915
whe	13916
این	13917
گهاٽو	13918
هسڪي	13919
رقيب	13920
شرافت	13921
full	13922
hdmi	13923
sdwi	13924
فزڪس	13925
واھش	13926
hyp	13927
مروز	13928
slot	13929
دڙڪا	13930
ئملي	13931
تسوين	13932
يپيڊ	13933
ہرے	13934
gdp	13935
سوڊان	13936
ٽھڪ	13937
*.	13938
ban	13939
cd	13940
cut	13941
did	13942
hgh	13943
pon	13944
pra	13945
pan	13946
ran	13947
rine	13948
yu	13949
اكن	13950
ثقل	13951
خصلت	13952
دید	13953
زيت	13954
سڪن	13955
شيوا	13956
غبار	13957
قيات	13958
كيو	13959
كور	13960
لالي	13961
وڪيٽ	13962
وڑوں	13963
ٺوس	13964
ٻوٽ	13965
چني	13966
ڊاس	13967
ڍڙ	13968
ڳڻڻ	13969
۱۰	13970
##دى	13971
##طل	13972
##بس	13973
##بڻ	13974
##جھ	13975
##حة	13976
##حق	13977
##ko	13978
##ښت	13979
##کل	13980
##pi	13981
##ڀاٽ	13982
##ٹی	13983
##ِل	13984
انڪا	13985
هڪن	13986
ايرو	13987
توه	13988
ونيو	13989
##تيل	13990
هيڻا	13991
موض	13992
ينار	13993
روض	13994
روائ	13995
ويڇ	13996
ناٽ	13997
منٺار	13998
##راح	13999
ورور	14000
ورنگ	14001
بيض	14002
فيز	14003
##ازم	14004
مرز	14005
باڪ	14006
دوام	14007
يلاني	14008
سرعت	14009
ستني	14010
بلد	14011
يادل	14012
مثب	14013
اباڻي	14014
يسٽر	14015
نٽن	14016
رانا	14017
رانيا	14018
خطوط	14019
پروفا	14020
رجان	14021
جلن	14022
there	14023
سونو	14024
نيور	14025
نڊن	14026
حته	14027
رحب	14028
ڀاڀي	14029
رستم	14030
يزيو	14031
رومان	14032
يشين	14033
حرب	14034
rose	14035
bio	14036
آآه	14037
رخن	14038
best	14039
اڙد	14040
بقوه	14041
ndi	14042
بـه	14043
fil	14044
اڇن	14045
شبکه	14046
ڀڳا	14047
scan	14048
انٽڪ	14049
gam	14050
قبرص	14051
ويڪس	14052
heart	14053
heat	14054
nna	14055
ifڻ	14056
چالاڪ	14057
عصا	14058
زبون	14059
وڍي	14060
فقيه	14061
😂😂😂	14062
حفار	14063
رضوان	14064
uae	14065
white	14066
پہلو	14067
قازق	14068
ذھني	14069
<-	14070
aي	14071
aw	14072
cin	14073
dar	14074
ela	14075
f1	14076
gan	14077
jun	14078
ox	14079
sا	14080
آيم	14081
آڌي	14082
أما	14083
بما	14084
بهين	14085
تڪي	14086
دغا	14087
سڦ	14088
شٽل	14089
ظھار	14090
غش	14091
كفو	14092
نئن	14093
نعت	14094
هٺ	14095
وڳو	14096
ييو	14097
يگي	14098
ٻڪر	14099
ٽير	14100
پچي	14101
ڄڻي	14102
چسب	14103
چماٽ	14104
ڌڪڻ	14105
ڏمر	14106
ښتو	14107
کجا	14108
ڱور	14109
ھڻو	14110
##ea	14111
##طه	14112
##rp	14113
##sr	14114
##lf	14115
##ٹا	14116
##یس	14117
##ذن	14118
##ههه	14119
کيون	14120
##الم	14121
جوال	14122
ايري	14123
هوائ	14124
توم	14125
##داس	14126
ڪيڊ	14127
پراڻ	14128
پرڀات	14129
نات	14130
ناٿ	14131
نايس	14132
ريٽو	14133
ريکا	14134
ميپ	14135
ڪمدار	14136
سوو	14137
ارپي	14138
ڪاتي	14139
سمٿ	14140
محم	14141
نيال	14142
اهيون	14143
نوعي	14144
پات	14145
پاٽ	14146
پاک	14147
ڊيڊي	14148
ڪنور	14149
دويه	14150
گڏھ	14151
لڳس	14152
ستف	14153
لوئ	14154
دارين	14155
صحن	14156
پنچ	14157
نسو	14158
نسائي	14159
والپ	14160
احط	14161
اڄُ	14162
ابرو	14163
يرل	14164
يسس	14165
آنه	14166
گيه	14167
مهين	14168
يڊرو	14169
يانه	14170
يانس	14171
يدائ	14172
پٽڻ	14173
نيوس	14174
شهد	14175
شهداد	14176
رابع	14177
بارک	14178
rela	14179
char	14180
براه	14181
هذآ	14182
رزرو	14183
128	14184
اونڌا	14185
دمك	14186
pass	14187
جته	14188
bay	14189
رفه	14190
sim	14191
صوم	14192
spa	14193
qui	14194
كنك	14195
هيڪٽر	14196
لاسک	14197
fast	14198
abs	14199
sms	14200
اٺون	14201
بکنگ	14202
vel	14203
چاي	14204
چاق	14205
لٿل	14206
هيتري	14207
کمک	14208
يچرن	14209
ورته	14210
geo	14211
great	14212
##eld	14213
ڌنڌ	14214
east	14215
انھيء	14216
دِل	14217
جهوني	14218
sure	14219
عياش	14220
ڀوتار	14221
recy	14222
پنڊت	14223
samsu	14224
بېرته	14225
video	14226
build	14227
ڏيهاڙ	14228
..	14229
a2	14230
a1	14231
i̇	14232
jet	14233
lon	14234
tru	14235
yar	14236
آڙ	14237
آكل	14238
اان	14239
تپي	14240
حه	14241
دپ	14242
دې	14243
رڃ	14244
رپي	14245
رضيه	14246
زائي	14247
سڌا	14248
ضريب	14249
طلا	14250
عاري	14251
فِي	14252
قنا	14253
مڌ	14254
مڪن	14255
نول	14256
هامي	14257
وې	14258
وؤ	14259
ونهن	14260
وعي	14261
وهيل	14262
يسم	14263
پڻي	14264
ڀاري	14265
چائل	14266
ڊئ	14267
ڏئ	14268
ڪالر	14269
گاز	14270
۾-	14271
##اک	14272
##طيل	14273
##hs	14274
##ii	14275
##ku	14276
##َي	14277
جيم	14278
##ورو	14279
تهاس	14280
##ياب	14281
ونسل	14282
هيي	14283
هيام	14284
ماش	14285
ناڪا	14286
ناشر	14287
ريحان	14288
راڪا	14289
ڪمل	14290
سويا	14291
هاذ	14292
ڪاٽي	14293
ليري	14294
فيبر	14295
نوڙ	14296
ساتر	14297
پاگل	14298
علـ	14299
بسر	14300
ستقل	14301
پنهور	14302
بلائن	14303
لکه	14304
ابين	14305
حالة	14306
سياڻا	14307
بوم	14308
يرج	14309
eri	14310
ڪلھ	14311
شركه	14312
تقل	14313
فقه	14314
وسط	14315
وسٽر	14316
code	14317
حوض	14318
tho	14319
مجد	14320
رپور	14321
ھوش	14322
ربيا	14323
وبند	14324
آفريڪ	14325
بنز	14326
neo	14327
حركه	14328
edit	14329
نوران	14330
mill	14331
sema	14332
راحيل	14333
mel	14334
وهاڻي	14335
بزدل	14336
حبڪ	14337
پکن	14338
يجل	14339
زنج	14340
حاتم	14341
لقى	14342
لقمان	14343
##llo	14344
يٽرس	14345
mp4	14346
پُل	14347
smile	14348
رشين	14349
ويرون	14350
ٽنگون	14351
وڄي	14352
dom	14353
وڻيس	14354
pert	14355
ٽانڪي	14356
bun	14357
خويش	14358
رڪاش	14359
خطيب	14360
بنگلو	14361
here	14362
جزاك	14363
whi	14364
حراج	14365
gif	14366
gni	14367
لھج	14368
john	14369
نیک	14370
جريد	14371
مزاحم	14372
ڌاٻي	14373
دکتر	14374
green	14375
just	14376
نذر	14377
عسى	14378
zhen	14379
remov	14380
born	14381
ڊاپٽر	14382
قهوه	14383
(-	14384
04	14385
09	14386
av	14387
git	14388
lan	14389
ore	14390
ui	14391
uv	14392
ucl	14393
آتي	14394
ئيڪ	14395
جهم	14396
جعل	14397
خآ	14398
ذل	14399
زی	14400
سكن	14401
شعيب	14402
صدو	14403
ضيف	14404
فج	14405
مسم	14406
هئن	14407
هزا	14408
ويرو	14409
ٻڪ	14410
ٽٽو	14411
ڀور	14412
ڀڳي	14413
ڇهي	14414
ڪسر	14415
گڙ	14416
ڳهه	14417
۲۰	14418
##يٽ	14419
##شة	14420
##ءء	14421
##زق	14422
##طم	14423
##rt	14424
##سام	14425
##ٹل	14426
##ڎهن	14427
##ٿا	14428
##ونگ	14429
##ونة	14430
انسا	14431
لاري	14432
تيپ	14433
تيجي	14434
هڪل	14435
الديپ	14436
سانن	14437
ساند	14438
ايلس	14439
##ديه	14440
ونص	14441
ونان	14442
##ابا	14443
##روط	14444
##نيق	14445
پرڻ	14446
ينئ	14447
ينتر	14448
پيهي	14449
روڳ	14450
روسو	14451
پوزل	14452
ورٽي	14453
سوري	14454
ائیں	14455
معز	14456
نيپر	14457
اهيا	14458
نگیز	14459
ڏيڏر	14460
دوو	14461
يلسوف	14462
ازش	14463
يندر	14464
پهري	14465
يونگ	14466
يونخ	14467
دلم	14468
عمـ	14469
نماڻي	14470
متر	14471
قوس	14472
ندڻ	14473
دارال	14474
جهڪ	14475
يرم	14476
يسنگ	14477
يهون	14478
خلاق	14479
ڏاها	14480
عراب	14481
خطط	14482
گود	14483
coa	14484
cou	14485
انيس	14486
وقوع	14487
سونار	14488
مياڻي	14489
سکور	14490
resp	14491
relia	14492
عاطف	14493
وبن	14494
تخريب	14495
بنك	14496
وجد	14497
ريسک	14498
ڊرگ	14499
دانت	14500
مستوى	14501
nga	14502
اوني	14503
اونس	14504
ديول	14505
دادل	14506
ڪامن	14507
ita	14508
nta	14509
رفيو	14510
حاش	14511
نسيت	14512
عتذر	14513
saş	14514
sol	14515
ايدج	14516
ڪنڊا	14517
prot	14518
ركبت	14519
llc	14520
cet	14521
field	14522
قالين	14523
بکر	14524
ليوم	14525
حجام	14526
سِڪ	14527
tune	14528
مٽن	14529
اذن	14530
ڊينگي	14531
شىء	14532
(۽)	14533
فتوح	14534
seri	14535
هيئات	14536
بصح	14537
سوڀار	14538
bert	14539
وکيل	14540
روهڙ	14541
غالية	14542
bott	14543
خمس	14544
bbc	14545
ناگوا	14546
cert	14547
ibc	14548
ڪلمو	14549
طباع	14550
نفاذ	14551
نزاڪت	14552
سهاڳ	14553
ڌاٻيج	14554
(*	14555
1_	14556
2nd	14557
bru	14558
fy	14559
gur	14560
glo	14561
hk	14562
jin	14563
kw	14564
kar	14565
m2	14566
rge	14567
sli	14568
tp	14569
xl	14570
؟'	14571
إلى	14572
تالي	14573
خبي	14574
دالي	14575
ذآ	14576
زق	14577
سسي	14578
شائر	14579
ضن	14580
عع	14581
غوا	14582
نې	14583
هابي	14584
يہ	14585
يديد	14586
ٺپ	14587
ٺاڪ	14588
ٽب	14589
ٽما	14590
پڙي	14591
ڄاري	14592
چك	14593
ڇتي	14594
کوي	14595
گيو	14596
گاج	14597
ڱاري	14598
ڳاري	14599
یو	14600
۱۲	14601
##آد	14602
##عن	14603
##شين	14604
##زة	14605
##ٽٽ	14606
##ssi	14607
##pm	14608
##صح	14609
##ڦي	14610
##وند	14611
##ائز	14612
##ائح	14613
اسال	14614
##امر	14615
##ليه	14616
هنود	14617
واڪا	14618
واژه	14619
هيئر	14620
ويئ	14621
ويهان	14622
ويرين	14623
ناک	14624
ناويه	14625
ريڊي	14626
راين	14627
راجو	14628
راڌا	14629
بيٿ	14630
سوى	14631
هاپ	14632
هاڪي	14633
هاجر	14634
##ڪوٽ	14635
ڪاڪا	14636
سمى	14637
برم	14638
ڪارب	14639
نگول	14640
اينم	14641
##ڪات	14642
نوك	14643
نوکو	14644
ساح	14645
سرم	14646
سرٽ	14647
ستري	14648
لوهار	14649
ڇولي	14650
ننگي	14651
يعن	14652
والم	14653
بلت	14654
هلال	14655
گرمل	14656
##ساط	14657
بوك	14658
##ona	14659
ڏاهن	14660
تقر	14661
ديـ	14662
ديبل	14663
##era	14664
108	14665
شكم	14666
عالاد	14667
رکيم	14668
يداء	14669
thu	14670
ليڪا	14671
رنگه	14672
سونپ	14673
سطور	14674
نيول	14675
وائٽ	14676
toي	14677
عيـ	14678
رهف	14679
res	14680
سهله	14681
بغض	14682
تڪبر	14683
پنجاه	14684
چرخ	14685
جذي	14686
يگار	14687
فايل	14688
فاشل	14689
فلڪ	14690
تابوت	14691
cast	14692
رآح	14693
وراها	14694
vis	14695
ndro	14696
nia	14697
سلڪ	14698
كرڻ	14699
كرسي	14700
spe	14701
رضى	14702
خلل	14703
ابيه	14704
face	14705
رشی	14706
##dio	14707
چاڙھ	14708
گولو	14709
ضعف	14710
buy	14711
عضوا	14712
لٿا	14713
rub	14714
صريح	14715
bett	14716
راڄن	14717
حكمت	14718
girl	14719
وروثي	14720
چنبڙ	14721
صداق	14722
ٽولن	14723
750	14724
ھدف	14725
وصيه	14726
self	14727
خترت	14728
twoن	14729
pubg	14730
تعويذ	14731
تشويش	14732
چائلڊ	14733
1x	14734
3_	14735
asa	14736
cce	14737
ime	14738
js	14739
pn	14740
put	14741
plo	14742
pun	14743
sg	14744
tz	14745
wow	14746
yi	14747
آغ	14748
آذر	14749
ألف	14750
ئنڊ	14751
اڏو	14752
تفت	14753
حقت	14754
حجر	14755
درين	14756
دڙن	14757
رٻ	14758
رزي	14759
رھو	14760
شجا	14761
عجو	14762
قليم	14763
لؤ	14764
مداد	14765
ومان	14766
يدم	14767
ٽڪو	14768
پڪار	14769
ڊائي	14770
ڌل	14771
ڌپ	14772
ڌڪا	14773
ڍل	14774
ڍيو	14775
ڍورن	14776
ڙس	14777
کڻو	14778
ڪبا	14779
ڪٺي	14780
ڪپي	14781
••	14782
シン	14783
##تڙ	14784
##آي	14785
##دف	14786
##ءه	14787
##طط	14788
##بد	14789
##fs	14790
##کڻ	14791
##gb	14792
##ئی	14793
##ド語	14794
جوړ	14795
ايچ	14796
واسو	14797
##روب	14798
هيڻو	14799
پره	14800
جاگ	14801
پيه	14802
پوڙ	14803
پوتر	14804
ريام	14805
ڪومل	14806
راى	14807
وران	14808
ڪمبو	14809
سوڙ	14810
هراب	14811
فيم	14812
برند	14813
امتي	14814
مرث	14815
ٽيج	14816
مشو	14817
مسڪ	14818
علل	14819
ڪنو	14820
بسن	14821
اعم	14822
اعري	14823
همن	14824
گھاس	14825
داگ	14826
يونيو	14827
زندگ	14828
چيڀاٽ	14829
ڏانه	14830
قوه	14831
سبك	14832
تبون	14833
##تمع	14834
ندم	14835
احه	14836
رسوم	14837
جهارت	14838
وانو	14839
پسن	14840
stop	14841
ديء	14842
106	14843
وسه	14844
حڪوم	14845
وقال	14846
نفذ	14847
نفرا	14848
هذاك	14849
رهج	14850
ھوس	14851
ھيئن	14852
rev	14853
ربـ	14854
ڊوز	14855
آهك	14856
آهِ	14857
ڪپر	14858
ٽولا	14859
tia	14860
tide	14861
رومين	14862
گاڏ	14863
##وود	14864
نورا	14865
وهـ	14866
لاند	14867
زاى	14868
ڪينال	14869
pap	14870
صدف	14871
رآآ	14872
رخا	14873
ينڊنٽ	14874
اڏن	14875
rac	14876
زنـ	14877
تجوي	14878
nte	14879
sia	14880
sil	14881
لقاف	14882
صوص	14883
لڪون	14884
ڪورون	14885
هِڪ	14886
fab	14887
cel	14888
پَٽ	14889
pha	14890
phy	14891
هلاڪ	14892
الاڪي	14893
رونال	14894
رونوا	14895
هنادي	14896
dos	14897
door	14898
وکا	14899
وکون	14900
چاڪر	14901
مقالب	14902
pix	14903
ٽوني	14904
۾).	14905
يديك	14906
peop	14907
ونجهر	14908
voi	14909
circ	14910
prise	14911
فاتن	14912
رڳن	14913
صاوير	14914
الهاي	14915
جهونگ	14916
ديانت	14917
أإأإ	14918
gori	14919
دھات	14920
وڊيشل	14921
سٹرڪ	14922
غفار	14923
style	14924
بزنيس	14925
mwc	14926
シンド語	14927
1ـ	14928
dll	14929
fx	14930
fda	14931
g6	14932
gma	14933
mum	14934
mma	14935
moto	14936
park	14937
side	14938
ven	14939
ئوري	14940
بصل	14941
تذ	14942
تاڻي	14943
تلاف	14944
جگ	14945
حآ	14946
حور	14947
خصي	14948
رھن	14949
ربه	14950
سی	14951
سلف	14952
شہ	14953
صدار	14954
فجي	14955
قآ	14956
قه	14957
قلق	14958
قساط	14959
مڪر	14960
١٠	14961
ٺـ	14962
ټول	14963
ٽڪا	14964
پڪن	14965
ڀڙ	14966
چڪن	14967
چٽا	14968
ڦٽل	14969
کندو	14970
کـي	14971
ڪع	14972
ڳوا	14973
ھمت	14974
ېږ	14975
##فس	14976
##اك	14977
##سـ	14978
##od	14979
##یک	14980
##ِڪ	14981
##ہم	14982
##ځي	14983
##انت	14984
##هيد	14985
##ارع	14986
جوو	14987
نهري	14988
ونچ	14989
ونڊي	14990
##نيه	14991
هيپ	14992
هيڻي	14993
موذي	14994
روما	14995
ويڌن	14996
پوٽر	14997
ريمي	14998
ورك	14999
ورهي	15000
سوت	15001
ڪاڄ	15002
شاكر	15003
نيک	15004
نيلي	15005
نيلا	15006
ملكه	15007
تعي	15008
##کيد	15009
سندم	15010
نوسي	15011
ڪنڊو	15012
يلسي	15013
سرس	15014
لوٽ	15015
لوچ	15016
لوڙه	15017
مقا	15018
##ااف	15019
مريوم	15020
قوا	15021
چوه	15022
پارلي	15023
رسري	15024
آرش	15025
شوو	15026
ابهم	15027
تنسي	15028
حالم	15029
سياڻي	15030
بوال	15031
يسار	15032
يسائ	15033
يورٽ	15034
شرك	15035
نياها	15036
ديک	15037
گيز	15038
##صيح	15039
قرد	15040
ووڪيٽ	15041
نشل	15042
عالی	15043
وسڪ	15044
جانو	15045
هينڊل	15046
tea	15047
وائلڊ	15048
شهاب	15049
رپئي	15050
ھوء	15051
حتيا	15052
رحا	15053
rese	15054
رمزي	15055
آهست	15056
tim	15057
رنـ	15058
قاطع	15059
لكِ	15060
حرص	15061
ختلف	15062
چرس	15063
چربي	15064
def	15065
قطط	15066
مـآ	15067
اَن	15068
وڻج	15069
lit	15070
هارن	15071
زايد	15072
dit	15073
ڪٽڪ	15074
يريو	15075
ينڊس	15076
ڪاما	15077
ولوڙ	15078
isla	15079
144	15080
هورا	15081
adhe	15082
moq	15083
نبيرو	15084
ڪِي	15085
fill	15086
هدى	15087
قريش	15088
wal	15089
bol	15090
زارا	15091
ڪڙڇ	15092
وستن	15093
نحوس	15094
nne	15095
حكيل	15096
pedia	15097
قبيلو	15098
شارع	15099
هبة	15100
ska	15101
لجها	15102
kai	15103
نائٽر	15104
سكوت	15105
هڏا	15106
رنيم	15107
عضوو	15108
رڪوع	15109
ريماس	15110
اشوڪ	15111
رنڊم	15112
انپٽ	15113
ذنب	15114
قصرت	15115
xper	15116
رغمال	15117
غاده	15118
sfp	15119
شيماء	15120
راڪاس	15121
غواړ	15122
,.	15123
ez	15124
fon	15125
gat	15126
ora	15127
rm	15128
rf	15129
vs	15130
yen	15131
~~	15132
אه	15133
إل	15134
ئِ	15135
بريل	15136
تڪل	15137
ثمر	15138
جګ	15139
جبه	15140
حصر	15141
خدي	15142
ربل	15143
رفاق	15144
زئي	15145
زرين	15146
زات	15147
سهان	15148
صم	15149
طيور	15150
عڷ	15151
غصو	15152
كث	15153
لڀي	15154
نطر	15155
نآآ	15156
وفر	15157
يدر	15158
ٻڙ	15159
ٻڍ	15160
ٽهي	15161
ٽڪن	15162
ڀورا	15163
ڇاڻي	15164
ڇڙو	15165
ڍول	15166
ڏير	15167
ڏبا	15168
ڙوا	15169
کٻي	15170
کِل	15171
ڪٺو	15172
ڪٻٽ	15173
گهان	15174
ڳيت	15175
ھائ	15176
##عول	15177
##ايت	15178
##شاف	15179
##رك	15180
##ڪڪ	15181
##پٽ	15182
##im	15183
##ov	15184
##ؤد	15185
##یع	15186
##ڇڙ	15187
##ٻا	15188
##ڼه	15189
##ونل	15190
انڪي	15191
##الك	15192
اهئ	15193
نهبل	15194
نهوڙ	15195
هنيه	15196
##يرة	15197
##نيم	15198
موي	15199
ينم	15200
ويلڊ	15201
پوچ	15202
پولا	15203
ڪومت	15204
رايي	15205
راوي	15206
ورڳو	15207
يوپ	15208
هايو	15209
ارمي	15210
ارسل	15211
گهاڻي	15212
شاكس	15213
نيهن	15214
جنڊ	15215
ملل	15216
اينج	15217
ترش	15218
سنهي	15219
نوک	15220
ساط	15221
نظوم	15222
ٽيٽو	15223
ستطيل	15224
اعر	15225
لوڌي	15226
##اهب	15227
فرت	15228
پنھ	15229
نقا	15230
اڻبڻ	15231
سينڌ	15232
رسيا	15233
قيس	15234
ولول	15235
گرج	15236
هتر	15237
ناله	15238
نته	15239
نتها	15240
نتبا	15241
اپن	15242
يراڻي	15243
ردت	15244
شرت	15245
ديق	15246
105	15247
خطب	15248
فقهي	15249
يدين	15250
ڀرم	15251
سطر	15252
alex	15253
لينو	15254
نڊيم	15255
رهزن	15256
رحيل	15257
ٽوپ	15258
يشرو	15259
رسيم	15260
ٽنگيل	15261
رائت	15262
رائـ	15263
att	15264
atla	15265
چمچ	15266
راحل	15267
sum	15268
lia	15269
ــــو	15270
##ota	15271
##ڊوس	15272
پوئت	15273
رآم	15274
nas	15275
ڪانڊ	15276
welc	15277
ڪَن	15278
adv	15279
سيرا	15280
mod	15281
cond	15282
pol	15283
exe	15284
راما	15285
نزول	15286
شبِ	15287
scen	15288
boo	15289
ترادف	15290
اؤنڊ	15291
وابد	15292
head	15293
ڄاول	15294
ملوكه	15295
زلٽ	15296
المؤ	15297
whsr	15298
رتيءَ	15299
طلاب	15300
طلسم	15301
بانيا	15302
ڀومي	15303
ڀوائت	15304
بُت	15305
يٽيل	15306
yes	15307
دليري	15308
job	15309
ڪروڌ	15310
كاين	15311
نذاله	15312
سراغ	15313
لقاء	15314
پستول	15315
twe	15316
أحس	15317
بیک	15318
ھُو	15319
تردين	15320
sexy	15321
dvd	15322
xxx	15323
نوكيا	15324
ڙواڳ	15325
اڻبڻت	15326
'.	15327
ava	15328
bs	15329
dj	15330
din	15331
kat	15332
qc	15333
ust	15334
vps	15335
آلا	15336
اڵ	15337
اړ	15338
جآ	15339
حصلت	15340
خفا	15341
خاف	15342
دقت	15343
دکي	15344
رائين	15345
سائر	15346
شائ	15347
صص	15348
ضمن	15349
عسا	15350
فيو	15351
قز	15352
قڷ	15353
كنس	15354
لهان	15355
ممل	15356
مما	15357
نرف	15358
نکي	15359
وكم	15360
يذ	15361
ٺٺ	15362
ٺار	15363
ٽائن	15364
ٿڙ	15365
ځان	15366
ڇهڻ	15367
ڏڍ	15368
کج	15369
کام	15370
کمي	15371
ڪآ	15372
ڳرا	15373
ھنگ	15374
۱۸	15375
۽,	15376
##عر	15377
##es	15378
##لين	15379
##ٽز	15380
##ُڪ	15381
##ـا	15382
##dc	15383
##cra	15384
##ېږ	15385
##ڄڻ	15386
##30	15387
##انة	15388
جيپ	15389
کيف	15390
جوع	15391
تيج	15392
هنو	15393
توت	15394
ونگر	15395
##تيه	15396
##رود	15397
هيٿ	15398
پرڻي	15399
راؤ	15400
راڙي	15401
رايه	15402
ورون	15403
ڪملا	15404
اوف	15405
اوسي	15406
هاش	15407
هاج	15408
ارز	15409
ارٽل	15410
يڪين	15411
يڪجه	15412
هرڪا	15413
وينيا	15414
ملعون	15415
اينو	15416
ترانو	15417
نويد	15418
نوبيل	15419
شيف	15420
شيلا	15421
ساڙ	15422
ساڀيا	15423
پاتال	15424
مسج	15425
مساف	15426
ائيم	15427
باڪو	15428
تمر	15429
همگ	15430
عمدي	15431
وزو	15432
نمر	15433
نمڪ	15434
تبت	15435
تبيني	15436
نقدي	15437
احن	15438
اسٽول	15439
نتح	15440
بينه	15441
خرب	15442
بوش	15443
يرڪ	15444
شركة	15445
ديك	15446
##ero	15447
109	15448
اميل	15449
رجس	15450
گوشه	15451
ليڪو	15452
نيوڪ	15453
نيورو	15454
ley	15455
lear	15456
شهـ	15457
بارك	15458
تخنيق	15459
رنز	15460
زينو	15461
برات	15462
گاھ	15463
يليس	15464
رٽن	15465
نرڙ	15466
عرفش	15467
rom	15468
ريڪس	15469
شتراڪ	15470
list	15471
127	15472
ngo	15473
زيري	15474
زيلا	15475
اونها	15476
حمزه	15477
نونو	15478
جميـ	15479
جدد	15480
ram	15481
فطس	15482
last	15483
رفض	15484
وحا	15485
ڳاڙ	15486
ssd	15487
برانڈ	15488
لبس	15489
مظا	15490
prop	15491
مراقب	15492
fau	15493
سِٽ	15494
body	15495
سائمن	15496
ڪـہ	15497
مفعول	15498
gal	15499
هنجون	15500
شترك	15501
tue	15502
حظي	15503
وستا	15504
act	15505
when	15506
کوکر	15507
foot	15508
هكار	15509
دوله	15510
نيپچ	15511
رمانڊ	15512
هبله	15513
رقيه	15514
فالو	15515
##يسه	15516
gula	15517
رايش	15518
قافلو	15519
قارچ	15520
قمة	15521
ڪوچه	15522
ڪڏه	15523
ڪکن	15524
aft	15525
عميق	15526
card	15527
رموز	15528
قليچ	15529
ward	15530
drop	15531
تركيه	15532
ويلنٽ	15533
شابس	15534
statu	15535
يركض	15536
bird	15537
first	15538
deliv	15539
صندلي	15540
ٽوئٽر	15541
چٻاڙ	15542
الپڻي	15543
روغن	15544
چربی	15545
آغوش	15546
ارٽلٽ	15547
يڪجهت	15548
((	15549
6s	15550
==	15551
aj	15552
bm	15553
b1	15554
cs	15555
dc	15556
eg	15557
hr	15558
hor	15559
mk	15560
mx	15561
nch	15562
oh	15563
ou	15564
psa	15565
plu	15566
rmo	15567
؛)	15568
آرو	15569
أخر	15570
بانگ	15571
بشي	15572
تڻ	15573
تتي	15574
حصل	15575
حزن	15576
دهر	15577
رٽي	15578
رشي	15579
زت	15580
زلم	15581
شھي	15582
ضل	15583
ضدي	15584
ضطر	15585
غباء	15586
قاري	15587
كلب	15588
لبا	15589
مڪو	15590
هبه	15591
هٽڻ	15592
يخت	15593
ييل	15594
ٱل	15595
ٽٻ	15596
پژ	15597
ٿڌا	15598
چې	15599
چٺي	15600
ڏتڙ	15601
ڦٽا	15602
کې	15603
کنگه	15604
ڪڵ	15605
ڪانو	15606
ڪڇي	15607
ڻايو	15608
ھيل	15609
یڪ	15610
##مم	15611
##وچ	15612
##رج	15613
##بون	15614
##ظن	15615
##ۈر	15616
##ـت	15617
##xa	15618
##ہو	15619
##ڑی	15620
##ريا	15621
اسل	15622
لاکو	15623
ڪريڪ	15624
الاس	15625
الئی	15626
هنس	15627
ايها	15628
ايڌي	15629
واڙ	15630
##يڪي	15631
##يڪو	15632
هيدا	15633
مولو	15634
موبا	15635
يناد	15636
ينٽر	15637
روبل	15638
رواھ	15639
ويڙ	15640
منچ	15641
منان	15642
##راط	15643
ريٽي	15644
ٿاڪ	15645
ٿاڦ	15646
ورند	15647
اوپي	15648
ليچ	15649
سمٽ	15650
سمبر	15651
نيٰ	15652
درك	15653
تعقيب	15654
برٿ	15655
ترق	15656
##سٽا	15657
باگ	15658
##فيه	15659
يترن	15660
ستائي	15661
##بوع	15662
مقاس	15663
پهڻ	15664
داتا	15665
عمك	15666
مريح	15667
اُه	15668
اڻند	15669
بلی	15670
رسڻ	15671
دارس	15672
آرس	15673
شوڀا	15674
هلڪا	15675
ابقت	15676
##قاق	15677
ڪلڀ	15678
نياد	15679
ديڳ	15680
ديهي	15681
ووٽر	15682
مينه	15683
يڊو	15684
وسنيا	15685
رجـ	15686
نجاح	15687
مخي	15688
يٽنٽ	15689
سامو	15690
سامر	15691
نديء	15692
سونڪ	15693
وائٹ	15694
leo	15695
مزعج	15696
تانگه	15697
لهون	15698
##ائمر	15699
مذيع	15700
آوي	15701
لسلا	15702
رهڙ	15703
کاش	15704
سٽين	15705
mas	15706
mast	15707
anot	15708
ربى	15709
گراه	15710
جسما	15711
آهل	15712
آهک	15713
آهٍ	15714
ميلان	15715
آفس	15716
ڪڍو	15717
chu	15718
قاسي	15719
قايسه	15720
يشبه	15721
##lea	15722
حرق	15723
رينو	15724
roma	15725
قطري	15726
فاش	15727
ڊرم	15728
چمڻ	15729
mela	15730
mean	15731
mega	15732
مثلث	15733
اَڻ	15734
lib	15735
يالل	15736
dad	15737
##پوت	15738
حبة	15739
casu	15740
calc	15741
nad	15742
نكس	15743
tal	15744
جدك	15745
eco	15746
ٽائيٽ	15747
آپا	15748
isi	15749
عتدل	15750
wear	15751
sagi	15752
some	15753
que	15754
كنه	15755
holm	15756
aga	15757
پولس	15758
انكس	15759
بطال	15760
بيڪن	15761
صراط	15762
نڊيلا	15763
bou	15764
رديف	15765
اويس	15766
بروهي	15767
ڙوڇڙ	15768
سائٽ	15769
ڳڻيو	15770
پرتاب	15771
هَر	15772
جَي	15773
سحالي	15774
ڊينس	15775
ڌوٻي	15776
gno	15777
ذبح	15778
ههاي	15779
گهاٽ	15780
ٻاٽ	15781
دعول	15782
هڙيو	15783
vol	15784
hub	15785
ٽپڻي	15786
جھولي	15787
ٻرڻ	15788
لین	15789
uth	15790
mine	15791
شقن	15792
mono	15793
رنيل	15794
july	15795
سڌن	15796
kodi	15797
صرآح	15798
تپش	15799
جهونو	15800
رڍون	15801
porn	15802
lley	15803
سوڍل	15804
ڏياچ	15805
خترع	15806
جيڪڏ	15807
دیگ	15808
ڪوهلي	15809
muni	15810
firm	15811
عععع	15812
ويراڳ	15813
افزود	15814
n95	15815
بهينه	15816
(*)	15817
اعريء	15818
شہوت	15819
نتباہ	15820
پرڻيل	15821
الئیے	15822
):	15823
dm	15824
dot	15825
dark	15826
ek	15827
fly	15828
gr	15829
g7	15830
md	15831
nat	15832
sv	15833
var	15834
want	15835
؛؛	15836
آأإ	15837
أأ	15838
إم	15839
ئِي	15840
اٴ	15841
اورن	15842
اباس	15843
بتا	15844
بمن	15845
تاس	15846
جح	15847
حة	15848
خز	15849
خول	15850
خمل	15851
خالف	15852
دح	15853
دَ	15854
ذاري	15855
رښ	15856
سڳي	15857
شدم	15858
شفيق	15859
ضخ	15860
طائر	15861
عيان	15862
قش	15863
كيا	15864
كپي	15865
كنن	15866
ممي	15867
مبت	15868
مذا	15869
هې	15870
وڊو	15871
ٺون	15872
ٻڙي	15873
پخت	15874
پلاس	15875
ٿڃ	15876
چتر	15877
ڙج	15878
ڙها	15879
ڪلف	15880
ڪثير	15881
گہ	15882
گانگ	15883
ڳٽ	15884
##ايه	15885
##طا	15886
##hy	15887
##rd	15888
##بح	15889
##ُل	15890
##fo	15891
##ـد	15892
##pt	15893
##قن	15894
##ٺڪ	15895
##ګه	15896
##ڳر	15897
##ہن	15898
##هير	15899
انيد	15900
##يوف	15901
جوري	15902
اسلا	15903
لاف	15904
لاها	15905
##ليٽ	15906
##ليس	15907
ڪروه	15908
هنڊ	15909
هنجا	15910
هناء	15911
ايٿ	15912
هوڪي	15913
ونل	15914
##ابة	15915
هيش	15916
هيار	15917
هيڊي	15918
##دوي	15919
مواج	15920
ينور	15921
منز	15922
ريست	15923
ريجن	15924
ورني	15925
ميڊي	15926
##قيت	15927
اوڍ	15928
هاٿ	15929
ائست	15930
ارھ	15931
##ادر	15932
##ادة	15933
##هوء	15934
وينها	15935
وينچر	15936
نيام	15937
نيدر	15938
درى	15939
درب	15940
برڊ	15941
نگير	15942
نوس	15943
ڪنم	15944
دوان	15945
ازال	15946
سرائي	15947
لوط	15948
لوڙ	15949
يمدح	15950
تحري	15951
نمود	15952
ڏانھ	15953
متون	15954
قوة	15955
وياه	15956
چونڪ	15957
اڻهوء	15958
بلس	15959
احتر	15960
##عوب	15961
وريس	15962
ٽرز	15963
ابتو	15964
تنت	15965
سياس	15966
بوء	15967
ert	15968
ergo	15969
حقیق	15970
قرون	15971
يدل	15972
علاو	15973
##ڙاٽ	15974
##فوق	15975
اٿل	15976
وڪڙ	15977
حده	15978
اشق	15979
نفع	15980
alo	15981
عيال	15982
جمح	15983
لسى	15984
لمين	15985
کاسٽ	15986
اكشن	15987
اڻيل	15988
ھيڊ	15989
مهاڻي	15990
گراس	15991
206	15992
تخفي	15993
يزعل	15994
بنى	15995
بنـ	15996
گاهن	15997
گاڏو	15998
تسليت	15999
رينگ	16000
root	16001
ودك	16002
dea	16003
dele	16004
setp	16005
عزوم	16006
فاٽا	16007
شتھار	16008
کنن	16009
وهل	16010
دينو	16011
##آنه	16012
هارس	16013
واٽن	16014
جزوه	16015
اونهو	16016
اونڌي	16017
بزم	16018
ديوال	16019
div	16020
حبش	16021
حبك	16022
نكسر	16023
لطش	16024
يلاد	16025
يفري	16026
ite	16027
نعرن	16028
isي	16029
ويهج	16030
عطور	16031
ڪالز	16032
proto	16033
نڌاري	16034
رويشن	16035
240	16036
170	16037
لونه	16038
وهيا	16039
sma	16040
ينجھر	16041
رُت	16042
مِس	16043
sca	16044
doub	16045
ڊڄن	16046
plast	16047
گوله	16048
hea	16049
يتيمن	16050
داراي	16051
لٽڪ	16052
ipv	16053
ڌوڪو	16054
ڌوڻي	16055
open	16056
apo	16057
gnet	16058
pea	16059
دراك	16060
diss	16061
زعلت	16062
رگم	16063
oly	16064
iec	16065
چالان	16066
arti	16067
سوئم	16068
لميس	16069
utc	16070
gue	16071
anti	16072
الموض	16073
pull	16074
corn	16075
ڏنگي	16076
ڌنار	16077
ltd	16078
شموخ	16079
دڙڪو	16080
قضائ	16081
أحب	16082
zhou	16083
سطوح	16084
مڱڻ	16085
عفري	16086
ٻچو	16087
گورو	16088
سوڍا	16089
چوپڙا	16090
gory	16091
دلوع	16092
يركب	16093
nmn	16094
ڪاتب	16095
سادات	16096
روضه	16097
شھيد	16098
($	16099
07	16100
2ـ	16101
cv	16102
css	16103
emi	16104
fone	16105
hit	16106
ile	16107
jen	16108
kan	16109
lid	16110
lone	16111
n2	16112
nar	16113
ola	16114
pus	16115
pvc	16116
rb	16117
s8	16118
sne	16119
vat	16120
van	16121
wtt	16122
xa	16123
xo	16124
آك	16125
آها	16126
آڇي	16127
أه	16128
إلي	16129
بآ	16130
بھي	16131
تشت	16132
تاڪ	16133
ثن	16134
جتمع	16135
حجي	16136
حبو	16137
حبا	16138
حطي	16139
حفل	16140
داهي	16141
ذكي	16142
سھي	16143
سسم	16144
شمل	16145
صعب	16146
طبل	16147
طيف	16148
عله	16149
غو	16150
فرف	16151
فاز	16152
قله	16153
كال	16154
لعد	16155
مٽر	16156
مڪار	16157
نمل	16158
هڳ	16159
وڀ	16160
وذ	16161
يۈ	16162
يکار	16163
٢٠	16164
ٺهه	16165
ٺڪيل	16166
ٻٽو	16167
ٽاس	16168
پٻ	16169
پورت	16170
ڄڀ	16171
څو	16172
چغ	16173
چرو	16174
چکي	16175
چنا	16176
چٽڻ	16177
ڇپي	16178
ڇڄي	16179
ڌام	16180
ڌني	16181
ڍڳو	16182
ڏبو	16183
ڦڙا	16184
کتل	16185
ڪسٽ	16186
گـ	16187
گالي	16188
ھال	16189
ھور	16190
ھلو	16191
##شـ	16192
##رز	16193
##غي	16194
##ُر	16195
##ia	16196
##ft	16197
##ـن	16198
##ٺل	16199
##ګر	16200
##ھور	16201
##za	16202
انجي	16203
انائي	16204
اسفٽ	16205
تيب	16206
اهبل	16207
الک	16208
النا	16209
المر	16210
هنوف	16211
توس	16212
تولي	16213
ونٹی	16214
##تيش	16215
واڪي	16216
هيمو	16217
موئن	16218
پرد	16219
ينوا	16220
روك	16221
ويک	16222
منڌ	16223
منتر	16224
ريچ	16225
ريلو	16226
ريزم	16227
ورى	16228
ورهن	16229
ميٺ	16230
بيم	16231
سوپر	16232
اوکو	16233
اته	16234
ارڪي	16235
ارڪوس	16236
ڪاڪو	16237
گهلي	16238
هرڪ	16239
##هات	16240
وينت	16241
درزي	16242
فيلو	16243
امب	16244
نگها	16245
نگبو	16246
شيعا	16247
ساكن	16248
ٽيچ	16249
بسوط	16250
دولا	16251
ازت	16252
سرِ	16253
تمهيد	16254
ضرر	16255
ستت	16256
ستطيع	16257
لوشن	16258
لوئر	16259
دلِ	16260
پنٽ	16261
مدبر	16262
وريه	16263
ولہو	16264
شووف	16265
گرڀ	16266
تنهين	16267
اداش	16268
ڳوڙھ	16269
اجپوت	16270
يسٽي	16271
شرب	16272
عرق	16273
گيگ	16274
افروز	16275
102	16276
اريء	16277
صاحيه	16278
##ضيف	16279
cosm	16280
حوزه	16281
thc	16282
تاتي	16283
وائڙ	16284
لينٽ	16285
نڊيا	16286
انگهي	16287
حيف	16288
بلاغ	16289
اقوم	16290
ٽوئن	16291
رنر	16292
روميو	16293
مُٺ	16294
بنيو	16295
ڌرڻا	16296
##ووف	16297
##ووق	16298
dex	16299
shot	16300
لعاب	16301
يکر	16302
هاراج	16303
سنڀري	16304
يالن	16305
dal	16306
طرق	16307
die	16308
bill	16309
نصح	16310
ڪينو	16311
قبلی	16312
قصن	16313
رآآآ	16314
tam	16315
118	16316
وراء	16317
ڪامڻ	16318
اڏڻ	16319
ويلٽ	16320
بقه	16321
bala	16322
256	16323
well	16324
hall	16325
spre	16326
fami	16327
مکس	16328
phone	16329
prev	16330
اٺار	16331
ctrl	16332
رشح	16333
rist	16334
ينوس	16335
نھاري	16336
amst	16337
فادر	16338
wise	16339
gali	16340
كتيير	16341
هنجار	16342
هيمپ	16343
كسب	16344
ڻاي	16345
اڪرام	16346
byte	16347
nno	16348
acco	16349
حشى	16350
gna	16351
امتحا	16352
رافع	16353
ائزر	16354
چنچل	16355
لھڻ	16356
ٻاويه	16357
asp	16358
tinu	16359
tcd	16360
ویب	16361
سودان	16362
مڻيا	16363
يزنه	16364
گالا	16365
yal	16366
بٽن	16367
جهنڊي	16368
plc	16369
تندور	16370
عشاء	16371
طيار	16372
يويٽ	16373
قادر	16374
فضايح	16375
نبوهه	16376
ڏنم	16377
pend	16378
غادي	16379
يچيلس	16380
ڪيٽيل	16381
انستا	16382
ڪوڏر	16383
بسيج	16384
تقويت	16385
sleep	16386
ارچوب	16387
norm	16388
سڙڻ	16389
جروح	16390
ٽيرر	16391
پژو	16392
(!	16393
2d	16394
bh	16395
ear	16396
fen	16397
fan	16398
gta	16399
iata	16400
lb	16401
sr	16402
swa	16403
ts	16404
uh	16405
uri	16406
yor	16407
yan	16408
zu	16409
آڛ	16410
آوا	16411
أر	16412
اطي	16413
بڇ	16414
بئر	16415
تڻو	16416
تڙپ	16417
ثريت	16418
حسو	16419
خندق	16420
خروط	16421
دج	16422
دئ	16423
دند	16424
دمي	16425
داڻي	16426
دبل	16427
دبه	16428
ردود	16429
زدا	16430
زبي	16431
زيي	16432
زھر	16433
شيڪ	16434
شڪن	16435
ض1	16436
عفو	16437
غمن	16438
فنگ	16439
فضو	16440
فإن	16441
كرار	16442
كريم	16443
لفر	16444
مڊ	16445
نڱ	16446
نشن	16447
نڙي	16448
هۈ	16449
هياري	16450
هرات	16451
ومل	16452
وجب	16453
وإن	16454
يٴ	16455
يضي	16456
ٽڙ	16457
ٽٻي	16458
پنهن	16459
پله	16460
پڪل	16461
پلن	16462
پڦي	16463
څخه	16464
چـ	16465
چهن	16466
ښت	16467
ڦڙو	16468
کڙا	16469
ڪهه	16470
ڪله	16471
ڪاني	16472
گچ	16473
گئر	16474
ڳڀا	16475
ڻون	16476
ھے	16477
ھلا	16478
##فـ	16479
##آع	16480
##وين	16481
##وبت	16482
##رع	16483
##طت	16484
##ظف	16485
##خص	16486
##ڀڻ	16487
##قى	16488
##ټه	16489
##یو	16490
##ِت	16491
##َل	16492
##ړۍ	16493
##ڈا	16494
##ڌڻ	16495
کيش	16496
الٽو	16497
ڪرش	16498
ڪرتو	16499
هنما	16500
ياك	16501
ياسو	16502
ونچر	16503
##ابس	16504
واؤ	16505
واڙي	16506
هيگ	16507
هيائ	16508
##دوه	16509
جاڙ	16510
ينڪن	16511
ينڪس	16512
مونڊ	16513
ماج	16514
ويپ	16515
ناٺي	16516
ناطق	16517
منڪ	16518
منين	16519
راجي	16520
راڪي	16521
ورڪس	16522
ورژن	16523
ميي	16524
##قيم	16525
اوڳ	16526
اوڏو	16527
هاريل	16528
اتلي	16529
ائريڪ	16530
ائفل	16531
ارتي	16532
ارسيل	16533
معن	16534
سيسي	16535
سيمو	16536
سمح	16537
نيلم	16538
جنر	16539
فيج	16540
##گره	16541
ترائ	16542
سنبت	16543
ساڃ	16544
ڊيلي	16545
ائيگ	16546
ڪنٽر	16547
ڪنهين	16548
بسه	16549
ازیت	16550
سرح	16551
ستات	16552
اعده	16553
همير	16554
گھانا	16555
داؤد	16556
عمير	16557
زمير	16558
متلي	16559
ڪهڻي	16560
دارڪ	16561
داران	16562
وريك	16563
شوم	16564
هلت	16565
هلأ	16566
##سوا	16567
نالت	16568
نتف	16569
بڻبو	16570
اڪري	16571
تاريڪ	16572
يرزق	16573
خلاء	16574
##قاء	16575
##قايق	16576
ڪلر	16577
ڏاج	16578
ڪونڌر	16579
بدهي	16580
101	16581
مليت	16582
شكد	16583
يڊيڪ	16584
يڊيم	16585
صفق	16586
بالٽ	16587
هيني	16588
هينگر	16589
بچا	16590
اشک	16591
اشهر	16592
tell	16593
نڊروم	16594
جرائم	16595
ناما	16596
ھوم	16597
وگرځ	16598
سٽار	16599
##uri	16600
made	16601
magi	16602
بارز	16603
repa	16604
مهڙ	16605
حيـ	16606
پلڪ	16607
##sta	16608
يزرو	16609
chara	16610
يليٽ	16611
لكه	16612
nel	16613
necra	16614
حرک	16615
خاط	16616
خاك	16617
ڪسے	16618
ريڪن	16619
جھڳڙ	16620
تہه	16621
يکان	16622
يکاني	16623
123	16624
نهايه	16625
نڪور	16626
نڪرو	16627
dio	16628
big	16629
حمار	16630
قصف	16631
دادم	16632
ومع	16633
يلاز	16634
دروغ	16635
اڏار	16636
زنم	16637
فطوم	16638
ndo	16639
وحش	16640
عتياد	16641
lysi	16642
ڪَل	16643
ham	16644
كرد	16645
sola	16646
نارن	16647
forc	16648
مظفر	16649
خلك	16650
خلآص	16651
أنآ	16652
mou	16653
ركـ	16654
نبذ	16655
هيڪلي	16656
وپڙي	16657
llo	16658
lly	16659
وئٽي	16660
هيرس	16661
يخي	16662
190	16663
rise	16664
tera	16665
ولينا	16666
pers	16667
حظك	16668
اسيري	16669
ڀائٽ	16670
الحي	16671
هديت	16672
وآحد	16673
اڀي	16674
هيڊڪو	16675
نيرا	16676
ڌوڪي	16677
کوج	16678
کوھ	16679
حكت	16680
app	16681
read	16682
گهاٽا	16683
دعم	16684
شفق	16685
hist	16686
خذي	16687
غرام	16688
اسهل	16689
دنيـ	16690
yale	16691
جـو	16692
gel	16693
لومڙ	16694
چٽس	16695
gua	16696
نائيڪ	16697
ثقاف	16698
canي	16699
سوڀي	16700
سراء	16701
خصائ	16702
stim	16703
لوله	16704
رئو	16705
اشترا	16706
حزين	16707
watt	16708
کیا	16709
حواء	16710
crea	16711
رنڊي	16712
قنڌار	16713
pora	16714
occ	16715
راڪش	16716
سوڍو	16717
uab	16718
studi	16719
humi	16720
انقاه	16721
نراس	16722
جهرڪي	16723
گيانا	16724
يٽيڪٽ	16725
سقف	16726
أأأأأ	16727
strea	16728
فاسف	16729
مههن	16730
sweet	16731
furt	16732
صنايع	16733
صلعم	16734
wheel	16735
gdpr	16736
<--	16737
حاشيه	16738
نتهى	16739
مولود	16740
-:	16741
3rd	16742
aو	16743
ah	16744
ao	16745
bc	16746
cp	16747
emo	16748
g5	16749
gs	16750
g3	16751
ira	16752
kara	16753
m4	16754
nla	16755
oa	16756
tum	16757
vor	16758
wy	16759
wan	16760
yla	16761
آنو	16762
آحد	16763
أك	16764
بض	16765
ببر	16766
بخل	16767
تڏي	16768
جئي	16769
جلو	16770
حام	16771
حليت	16772
حبوب	16773
خابر	16774
خائف	16775
دهند	16776
دشت	16777
رې	16778
رعد	16779
زالي	16780
زرت	16781
سھ	16782
شاني	16783
شتا	16784
شريت	16785
صبو	16786
ضاف	16787
طاح	16788
عتر	16789
غمي	16790
غياب	16791
قح	16792
قضي	16793
كجا	16794
كتوب	16795
لهين	16796
مقت	16797
نمت	16798
نخل	16799
نانس	16800
هک	16801
هتو	16802
هزر	16803
يجب	16804
يڙا	16805
يليل	16806
يرول	16807
يريٽ	16808
ٻرن	16809
پچر	16810
پتل	16811
ٿرا	16812
ٿڏي	16813
ٿاڻو	16814
ڀيد	16815
چَ	16816
ڇير	16817
ڇھن	16818
ڌڪو	16819
ڌڪار	16820
ڏِ	16821
ڏهي	16822
ڦڙ	16823
کالا	16824
گھن	16825
ڻس	16826
##فض	16827
##فق	16828
##فير	16829
##ثوم	16830
##په	16831
##ـل	16832
##cs	16833
##کم	16834
##ڀو	16835
##قال	16836
##ئم	16837
##ذذ	16838
##أن	16839
##ڌهن	16840
##zi	16841
##ہر	16842
##11	16843
جيتر	16844
انال	16845
جوئر	16846
اسيو	16847
اسمو	16848
لاٿي	16849
ڪره	16850
نهـ	16851
ايک	16852
ايرا	16853
ايڪر	16854
هووا	16855
يازي	16856
ونن	16857
##ابه	16858
ڪيمن	16859
ئيٽر	16860
هيدر	16861
هيما	16862
هيلم	16863
هيلس	16864
هييه	16865
ينء	16866
ينون	16867
ينانگ	16868
پيم	16869
پيلا	16870
ماث	16871
روی	16872
ويان	16873
ناہ	16874
نايب	16875
ناشي	16876
##ميع	16877
ريسي	16878
ريبا	16879
ڪوم	16880
راتي	16881
ورھي	16882
ورانا	16883
بيونل	16884
يوئي	16885
يويا	16886
يوٽر	16887
اودا	16888
ويوٽا	16889
ائني	16890
ارڪٽ	16891
ڪاهل	16892
ليلو	16893
هربت	16894
سمك	16895
ويني	16896
ملک	16897
تعلي	16898
اينٽ	16899
سنها	16900
سنگر	16901
سنڊي	16902
شيم	16903
ساڌ	16904
ساهر	16905
ائيب	16906
ائيٽي	16907
علڻ	16908
باشر	16909
ڪنان	16910
دوب	16911
يلفي	16912
ستائر	16913
لولا	16914
لوفر	16915
عليم	16916
همچ	16917
مقاصد	16918
هئه	16919
فرس	16920
نماڻا	16921
ڪتر	16922
واله	16923
اڻيا	16924
شوال	16925
شويا	16926
اسٽڪ	16927
تنبيه	16928
اڪاڻ	16929
##واڙ	16930
بوٿ	16931
يسال	16932
يقلد	16933
stit	16934
افسر	16935
107	16936
خطو	16937
هينه	16938
thy	16939
اشند	16940
آبِ	16941
اليل	16942
تاي	16943
عدال	16944
لهـ	16945
راهب	16946
رهائ	16947
mach	16948
رحبـ	16949
ڀاونا	16950
ڊومي	16951
سهپ	16952
آهآ	16953
آهـ	16954
ٽوٽي	16955
اضمي	16956
تخبل	16957
يزول	16958
دهد	16959
##ووي	16960
رسيل	16961
رسيس	16962
ينيس	16963
مرحب	16964
حریف	16965
رينٽ	16966
roo	16967
rob	16968
وديا	16969
dem	16970
dece	16971
deta	16972
deal	16973
seg	16974
تكميل	16975
هيوند	16976
اُنه	16977
جھڪي	16978
وتري	16979
مـا	16980
پھچ	16981
زوز	16982
cad	16983
cal	16984
قصير	16985
رخوا	16986
beli	16987
يريس	16988
115	16989
ينڊا	16990
ڪامپ	16991
فطور	16992
ndy	16993
روپيو	16994
nice	16995
isا	16996
say	16997
same	16998
save	16999
وندن	17000
solv	17001
spri	17002
سوله	17003
ark	17004
لڪتي	17005
ڪالن	17006
قدس	17007
وكيل	17008
هنگيا	17009
filt	17010
لونگ	17011
پُڇ	17012
phen	17013
ليوس	17014
وائسس	17015
scam	17016
رچنٽ	17017
اغبى	17018
هنجهه	17019
ٽانڪ	17020
tude	17021
لغام	17022
280	17023
where	17024
fold	17025
نثى	17026
زعلي	17027
قراء	17028
volu	17029
نڊلٺ	17030
شراء	17031
لِء	17032
gui	17033
nyl	17034
راقبت	17035
ضيق	17036
عشآن	17037
سيور	17038
مگن	17039
nua	17040
ٿلڪ	17041
وکرز	17042
مروت	17043
وبيك	17044
ڳرڻ	17045
carb	17046
واڳيل	17047
scho	17048
نروس	17049
مڱڻي	17050
گاما	17051
rono	17052
obj	17053
جھنگ	17054
ڪٺن	17055
leav	17056
ضامين	17057
737	17058
عشره	17059
musi	17060
وאري	17061
ححححح	17062
ويڳاڻ	17063
batt	17064
شفيع	17065
يرفع	17066
flex	17067
قنديل	17068
ڱورجا	17069
هزاع	17070
font	17071
אهڑ	17072
شاكسه	17073
هيٿرو	17074
گہرا	17075
حبايب	17076
چهنب	17077
ڪرتوت	17078
$$	17079
')	17080
dge	17081
fm	17082
g2	17083
g4	17084
h2	17085
hz	17086
hon	17087
hin	17088
hem	17089
iا	17090
jar	17091
nho	17092
pf	17093
rar	17094
ror	17095
s5	17096
wr	17097
èے	17098
آين	17099
أبي	17100
ئيور	17101
بث	17102
بفر	17103
تڀ	17104
تڙي	17105
ثي	17106
جٺ	17107
حمي	17108
حازم	17109
خبا	17110
ختا	17111
دغ	17112
ذمو	17113
شهه	17114
عِ	17115
عَ	17116
فِ	17117
كوري	17118
ن2	17119
نسم	17120
نكن	17121
هؤ	17122
وفت	17123
وسان	17124
يڪيٽ	17125
َو	17126
ٺٺو	17127
ٻان	17128
ٿس	17129
ڃو	17130
ڄن	17131
چست	17132
چيد	17133
ڇند	17134
ڇتو	17135
ڊکڻ	17136
ڌير	17137
ڙت	17138
کہ	17139
کرو	17140
کاهي	17141
ڪٺا	17142
گٽر	17143
ڳند	17144
ھيم	17145
ۈن	17146
##تب	17147
##فن	17148
##عق	17149
##مى	17150
##يج	17151
##هآ	17152
##هة	17153
##وذ	17154
##ضـ	17155
##ىى	17156
##ڪون	17157
##جت	17158
##جان	17159
##ڊٿ	17160
##ڊين	17161
##كى	17162
##كون	17163
##حف	17164
##du	17165
##lla	17166
##ڍار	17167
##gr	17168
##أه	17169
##أل	17170
##ze	17171
##انج	17172
جيز	17173
##ينت	17174
انة	17175
انڪو	17176
انڪل	17177
انيل	17178
اسما	17179
لازا	17180
لاوه	17181
ڪريسي	17182
##ليڪ	17183
##ليث	17184
کانپو	17185
نهرو	17186
ايبي	17187
اييه	17188
توو	17189
ونږ	17190
هيک	17191
هيسيل	17192
پرش	17193
جاك	17194
سگا	17195
ينت	17196
ينـ	17197
ينگر	17198
پيت	17199
پيك	17200
روگ	17201
ويهو	17202
پوزي	17203
ريچر	17204
ڪوشان	17205
راپ	17206
راسيس	17207
ورٽو	17208
ميـ	17209
يوٿ	17210
يوانا	17211
يوجد	17212
اودي	17213
اوبر	17214
اوکي	17215
اوڻي	17216
هاٽ	17217
هاك	17218
ڪاهن	17219
ڪاشي	17220
ليٿ	17221
ليپر	17222
ليئو	17223
##اصة	17224
هرکي	17225
سيڻ	17226
سمعي	17227
وينٽ	17228
وينڊ	17229
ملھ	17230
##بية	17231
هوني	17232
وارؤ	17233
اهيل	17234
نگيز	17235
نگسار	17236
سنان	17237
نوز	17238
شيڊ	17239
مرغ	17240
ساق	17241
ساؤ	17242
ٽيٽي	17243
مسو	17244
ڊيگ	17245
ڪنب	17246
دوها	17247
##فية	17248
اعز	17249
لوك	17250
لوڀ	17251
لوڌ	17252
هموس	17253
اصن	17254
فرخ	17255
صحا	17256
مدعي	17257
نقوش	17258
رسـ	17259
##عود	17260
آرد	17261
هتڙ	17262
وانه	17263
اپت	17264
خرد	17265
##نڊا	17266
عركه	17267
ڪوني	17268
نشون	17269
اريک	17270
ذاك	17271
ذاکر	17272
سپس	17273
هُل	17274
يٽيو	17275
وڪلي	17276
مارڪي	17277
تاکيد	17278
لينگ	17279
tou	17280
شهداء	17281
لهام	17282
لسة	17283
سٽسٽ	17284
اكو	17285
mask	17286
اڻيج	17287
ھيء	17288
هـي	17289
سهري	17290
سهلا	17291
اطراف	17292
اقام	17293
ڊاڪٽ	17294
يزنگ	17295
chem	17296
قايل	17297
تڪيو	17298
پنجاھ	17299
رينس	17300
چرٻٽ	17301
rop	17302
خاک	17303
جهادي	17304
304	17305
سارم	17306
يكو	17307
seem	17308
تكسر	17309
يگول	17310
شانت	17311
فاطس	17312
جھه	17313
جھڪ	17314
atta	17315
meh	17316
کنگره	17317
يپو	17318
يپڪو	17319
هداي	17320
سٽيل	17321
اونھ	17322
نصائح	17323
ڪينٽ	17324
cas	17325
nav	17326
tai	17327
يريم	17328
114	17329
113	17330
ليسن	17331
نونه	17332
يبون	17333
جدید	17334
سَر	17335
ecu	17336
فطست	17337
ndl	17338
sili	17339
comm	17340
ولوژ	17341
آپٽ	17342
west	17343
ween	17344
ڪَر	17345
ونديل	17346
نارم	17347
ford	17348
كنم	17349
moon	17350
136	17351
عطاف	17352
ركت	17353
هيڪلو	17354
هيراڪ	17355
قاله	17356
يروم	17357
يروس	17358
الوان	17359
نانڪ	17360
ريحت	17361
بکن	17362
تيني	17363
رشا	17364
rich	17365
walk	17366
نھار	17367
رنسس	17368
220	17369
ڪچن	17370
domi	17371
شترک	17372
چاچ	17373
هيلري	17374
خبير	17375
وسوي	17376
نچوڙ	17377
ڏهاڳ	17378
ڄاڙ	17379
ڊاگ	17380
نحس	17381
نيلون	17382
pia	17383
nnou	17384
acne	17385
يچا	17386
ڌوئ	17387
فـي	17388
fox	17389
حكام	17390
gia	17391
ubun	17392
ينگلس	17393
منهـ	17394
fest	17395
هنيائ	17396
ptfe	17397
ٽيوٽ	17398
کسڻ	17399
کسب	17400
ٽپا	17401
جراء	17402
xim	17403
حلاج	17404
فلوٽ	17405
بدوش	17406
xdd	17407
nya	17408
fini	17409
psd	17410
stein	17411
لقيس	17412
کڻن	17413
عاجل	17414
ڀٽن	17415
نرسري	17416
troub	17417
اوڙاه	17418
ڏنڊي	17419
غصه	17420
brok	17421
رطوبت	17422
city	17423
عاصي	17424
##یلی	17425
شهوت	17426
blow	17427
gpc	17428
docx	17429
لپيٽ	17430
snap	17431
sars	17432
بأي	17433
يظهر	17434
کنوڻ	17435
تثليث	17436
نعوم	17437
نزديک	17438
ويڇا	17439
long	17440
عاريف	17441
عجوب	17442
مقاوم	17443
جګړه	17444
نيپچٽ	17445
اورنج	17446
stitu	17447
تڀيد	17448
(←	17449
^.	17450
avi	17451
dru	17452
fem	17453
iq	17454
iro	17455
km	17456
kur	17457
kra	17458
lte	17459
mh	17460
nh	17461
nx	17462
nut	17463
pk	17464
rri	17465
s7	17466
sara	17467
tb	17468
؟:	17469
آهان	17470
آجا	17471
آجر	17472
إي	17473
إس	17474
بٺ	17475
بذر	17476
تكر	17477
حيو	17478
حنيف	17479
خضر	17480
دے	17481
دقايق	17482
ذير	17483
ذيب	17484
رہ	17485
رے	17486
زبر	17487
سڳو	17488
سكه	17489
شٽر	17490
ششي	17491
صآ	17492
صام	17493
صمد	17494
ضضض	17495
عظ	17496
عاب	17497
عقيل	17498
غنا	17499
غيور	17500
فيوم	17501
قرف	17502
كول	17503
كشن	17504
لڌ	17505
مھي	17506
مجه	17507
نبل	17508
نفاق	17509
نړۍ	17510
وں	17511
وسم	17512
يسان	17513
ٺارو	17514
ٻٽ	17515
ٻِ	17516
ټر	17517
پند	17518
ٿڪڻ	17519
ڀنل	17520
ڀَر	17521
ڀينگ	17522
ڃائ	17523
چيت	17524
چائن	17525
چین	17526
ڇھي	17527
ڇٽو	17528
ڊب	17529
ڊير	17530
ڌٻ	17531
ڍر	17532
ڍال	17533
ڏري	17534
ڙٻ	17535
کجي	17536
کنگ	17537
کنس	17538
کسر	17539
کمان	17540
کمر	17541
کؤن	17542
ڪهان	17543
ڪاڻي	17544
گئي	17545
گلم	17546
##آأ	17547
##عم	17548
##او	17549
##وض	17550
##لل	17551
##لـ	17552
##طو	17553
##سف	17554
##سين	17555
##ثـ	17556
##fu	17557
##ny	17558
##ds	17559
##قـ	17560
##ڈو	17561
##12	17562
انآ	17563
انٹر	17564
کيم	17565
##ائد	17566
جوار	17567
تهِ	17568
اسيل	17569
لاؤ	17570
تيه	17571
الالم	17572
ڪرار	17573
ڪرني	17574
ڪرات	17575
نهج	17576
نهان	17577
هنڊي	17578
هنڊا	17579
ايليم	17580
ايليا	17581
هوتي	17582
ياڙي	17583
ونهان	17584
واهر	17585
واڪو	17586
واهڻ	17587
اهوه	17588
ئيز	17589
هيڅ	17590
هيتر	17591
هيمن	17592
هيگل	17593
پرل	17594
ينگل	17595
ماز	17596
ماٿر	17597
روجي	17598
روضي	17599
روميه	17600
ويع	17601
پوڪو	17602
نارين	17603
ريء	17604
ريجه	17605
ڪولا	17606
رايل	17607
راجن	17608
بيتا	17609
هاوش	17610
ائڪٽ	17611
اربل	17612
معيا	17613
ليبي	17614
ليمون	17615
ليئا	17616
هرک	17617
نيزي	17618
دره	17619
تعوب	17620
بردي	17621
برڪس	17622
اينگل	17623
سنديد	17624
سنن	17625
نوگ	17626
نوپ	17627
نواح	17628
ٽيڙو	17629
ڊيف	17630
ڪنف	17631
بسك	17632
ازعج	17633
سرپل	17634
لومي	17635
لوٽو	17636
فران	17637
داوم	17638
چيچ	17639
نمى	17640
نسٽر	17641
نساج	17642
ٻيڻ	17643
نقض	17644
چوم	17645
وريني	17646
نداء	17647
گرڻ	17648
هريم	17649
خرج	17650
بوک	17651
ڪلور	17652
يورسٽ	17653
ردگي	17654
str	17655
تقلد	17656
نياپا	17657
ديث	17658
افه	17659
نشبه	17660
يڊيل	17661
وسڪار	17662
##موم	17663
علاش	17664
نجحت	17665
نجلاء	17666
اسڪائ	17667
رقـ	17668
جانڻ	17669
thou	17670
بچو	17671
مجھ	17672
نفل	17673
مياڻ	17674
تاع	17675
تاء	17676
نيوٽ	17677
tow	17678
لهال	17679
پئو	17680
جمانه	17681
تفتيش	17682
اڻيٽو	17683
ree	17684
وشید	17685
مهدى	17686
ربح	17687
عااد	17688
هيوي	17689
سهام	17690
سهميه	17691
پلر	17692
til	17693
يزين	17694
بنر	17695
براء	17696
ئونس	17697
##ووت	17698
تسل	17699
ريني	17700
دشوا	17701
چرچي	17702
rol	17703
roll	17704
rohs	17705
dec	17706
وتني	17707
atte	17708
اروان	17709
اَي	17710
اَٺ	17711
lie	17712
ــــل	17713
وَر	17714
ice	17715
زيپ	17716
زويا	17717
زوڪي	17718
disa	17719
pac	17720
سجل	17721
واسين	17722
حمدا	17723
قصاص	17724
قصيره	17725
مڃن	17726
take	17727
111	17728
؟؟.	17729
گيرم	17730
vill	17731
ليلين	17732
اڏري	17733
جدة	17734
پکا	17735
بقرة	17736
nde	17737
حاط	17738
زرق	17739
آلآ	17740
شنب	17741
loca	17742
hal	17743
##umi	17744
لڪيات	17745
hol	17746
hoot	17747
ورڊن	17748
ركه	17749
llu	17750
تضح	17751
pose	17752
exo	17753
يخص	17754
ريوس	17755
god	17756
نبيل	17757
يهمج	17758
نيمه	17759
ردوي	17760
scra	17761
بولو	17762
اؤن	17763
ڳڻيا	17764
keep	17765
lina	17766
وديرو	17767
dhl	17768
dhea	17769
ٽانڊن	17770
crm	17771
hello	17772
وآه	17773
عضـ	17774
وماسي	17775
نحب	17776
سحب	17777
hta	17778
versa	17779
ننگز	17780
هجئي	17781
واهل	17782
مكه	17783
يابيط	17784
ایک	17785
gis	17786
gib	17787
apr	17788
gne	17789
pect	17790
واڻيو	17791
fea	17792
seas	17793
صابڻ	17794
ریز	17795
مرتين	17796
##اية	17797
جهود	17798
سرتاج	17799
دراس	17800
تورو	17801
320	17802
ٽولين	17803
jok	17804
jose	17805
فالح	17806
شراکت	17807
ينزو	17808
ڪليري	17809
hdr	17810
ظهري	17811
gent	17812
جـي	17813
uti	17814
آإآإ	17815
syne	17816
gbp	17817
عوافي	17818
لڏڻ	17819
ڌاڳي	17820
صباحك	17821
احترا	17822
steam	17823
سموح	17824
دايخ	17825
ڇنڀ	17826
نذرا	17827
هٽيل	17828
فزت	17829
550	17830
گیم	17831
هوتن	17832
مداحي	17833
ولفن	17834
ترسيو	17835
الهائ	17836
cheat	17837
cheap	17838
ڏنڀ	17839
غزال	17840
ديمة	17841
easy	17842
sche	17843
aug	17844
قليد	17845
قليله	17846
رباع	17847
surp	17848
تسوم	17849
حکمت	17850
حارب	17851
مهارا	17852
zip	17853
ارانت	17854
choi	17855
bene	17856
هٻڪي	17857
ترنم	17858
انقرا	17859
><"	17860
ينڊوچ	17861
فظيع	17862
gmt	17863
فتاة	17864
حداث	17865
بنوت	17866
لڱن	17867
ريخته	17868
وڪامج	17869
گجگ	17870
adobe	17871
قيافه	17872
فضيحة	17873
dns	17874
تاكد	17875
cutt	17876
خبيث	17877
ٽماٽي	17878
چوهاڻ	17879
گهانا	17880
يذكر	17881
لینڈ	17882
wttc	17883
ٻانڀڻ	17884
اوڻيه	17885
1st	17886
4_	17887
5s	17888
ay	17889
ach	17890
dz	17891
fus	17892
got	17893
ix	17894
iw	17895
ili	17896
imo	17897
kb	17898
ler	17899
mut	17900
nb	17901
nort	17902
rid	17903
sra	17904
slo	17905
tا	17906
ura	17907
wit	17908
were	17909
xml	17910
،'	17911
آص	17912
آلن	17913
ئې	17914
اڷ	17915
اڼه	17916
بڊ	17917
بهن	17918
بسٽ	17919
بڪر	17920
بجه	17921
بٺي	17922
بريز	17923
بگه	17924
تھي	17925
تخل	17926
تريل	17927
تتل	17928
تيوب	17929
جفت	17930
حله	17931
حضي	17932
حرر	17933
خرف	17934
خدر	17935
خآل	17936
ذکر	17937
رائن	17938
رفا	17939
رائم	17940
ركن	17941
زغ	17942
سئن	17943
ساڻي	17944
شارت	17945
ضارب	17946
طط	17947
طلي	17948
طمو	17949
فهو	17950
فندي	17951
فندق	17952
قدار	17953
كلا	17954
كلف	17955
كسل	17956
كوم	17957
لذا	17958
لونا	17959
مې	17960
نأ	17961
نائن	17962
نابر	17963
هغ	17964
هہ	17965
وڻو	17966
وعد	17967
وڪار	17968
وهار	17969
يءِ	17970
يفت	17971
يشت	17972
يحك	17973
يهانت	17974
١٦	17975
ٻانگ	17976
ٽسٽ	17977
ٽڪيل	17978
پام	17979
ڀڀ	17980
ڀلن	17981
ڄات	17982
چڙي	17983
ڇيو	17984
ڇلي	17985
ڊنو	17986
ڏول	17987
کور	17988
کتو	17989
کتا	17990
ڪز	17991
ڪها	17992
ڪزن	17993
گوب	17994
گانه	17995
ڱو	17996
ڳُ	17997
ڳجھ	17998
ڷڪ	17999
ھلن	18000
۱۳	18001
۱۵	18002
●●	18003
🙂.	18004
##تز	18005
##يري	18006
##ev	18007
##زين	18008
##رق	18009
##ضى	18010
##پٹ	18011
##كيل	18012
##iz	18013
##ff	18014
##jo	18015
##ue	18016
##40	18017
##یح	18018
##ړي	18019
##ړو	18020
##wd	18021
##ٿن	18022
##رية	18023
انبا	18024
انتر	18025
##ائی	18026
جوٽ	18027
جوكر	18028
ڪريس	18029
هنجو	18030
ايڏ	18031
هووو	18032
ياو	18033
ونگو	18034
ونود	18035
واڍ	18036
واڇ	18037
وايا	18038
##روا	18039
ڪيز	18040
ڪيهر	18041
ڪيبن	18042
هيح	18043
هيٽر	18044
پرٽي	18045
ينان	18046
ينسي	18047
ينهو	18048
پيگ	18049
پيڻ	18050
پيتل	18051
موني	18052
ويڻ	18053
ويك	18054
پوتي	18055
پوڙھ	18056
ناش	18057
نايات	18058
منـ	18059
##راس	18060
ريسا	18061
ريٽا	18062
ريليم	18063
ريڍار	18064
راٺي	18065
راجر	18066
ورځ	18067
ورجوا	18068
ورونه	18069
ورٹل	18070
ميك	18071
سوك	18072
سوٽي	18073
يوکر	18074
اوڪ	18075
اوول	18076
اوڙي	18077
اومد	18078
هاف	18079
هادا	18080
ارخ	18081
سڀُ	18082
سڀاڻ	18083
ڪاز	18084
شااء	18085
نيگ	18086
نيانگ	18087
درک	18088
درار	18089
ملی	18090
تعار	18091
وارتا	18092
ڪارم	18093
اينڪر	18094
اڳاري	18095
ترآ	18096
ڏيٺ	18097
نوج	18098
نوال	18099
نودي	18100
نوشه	18101
نوڊس	18102
ساسا	18103
باٽ	18104
دوخ	18105
سرگ	18106
يمنٽ	18107
همم	18108
وٺا	18109
فرز	18110
يونو	18111
دلت	18112
عمد	18113
ننه	18114
وزان	18115
نمی	18116
متت	18117
قوى	18118
مدونه	18119
نسداد	18120
اڻت	18121
##فات	18122
ڪهڻ	18123
دارک	18124
وريلا	18125
آرم	18126
جهڪيل	18127
ايمز	18128
ايمول	18129
اداب	18130
گرھ	18131
نتب	18132
ابك	18133
ابار	18134
ايسر	18135
تجميع	18136
خرم	18137
يرام	18138
يهز	18139
يقه	18140
يقال	18141
ڪلثوم	18142
يورا	18143
##طيه	18144
ديگ	18145
ديها	18146
سيڪڙ	18147
103	18148
معيش	18149
حلـ	18150
ٽيڪڪ	18151
خطاء	18152
شكار	18153
يانج	18154
##عاء	18155
سڄا	18156
عنج	18157
حدس	18158
اشندا	18159
تاڙ	18160
وائک	18161
alp	18162
tom	18163
lei	18164
leu	18165
نڊڻ	18166
خدت	18167
نامن	18168
لمـ	18169
mah	18170
map	18171
رحه	18172
بارح	18173
rema	18174
حيض	18175
يستحق	18176
رمون	18177
هيوف	18178
اقبل	18179
جڳن	18180
بغل	18181
tip	18182
##ييه	18183
زينا	18184
chan	18185
گاو	18186
لكـ	18187
neu	18188
edi	18189
rot	18190
roc	18191
نينٽ	18192
قطره	18193
داريه	18194
seek	18195
تكول	18196
وتين	18197
دعاي	18198
شتيا	18199
مڙد	18200
sus	18201
بجر	18202
ڪيمر	18203
##وية	18204
dai	18205
نهاية	18206
bios	18207
حبس	18208
حبـ	18209
pala	18210
cap	18211
كتشاف	18212
دٻا	18213
kni	18214
nab	18215
visu	18216
rad	18217
184	18218
زنه	18219
زنانه	18220
itي	18221
lab	18222
bag	18223
نسيس	18224
سلپ	18225
149	18226
يـآ	18227
يـا	18228
loo	18229
lov	18230
had	18231
وزيک	18232
لبور	18233
span	18234
خلـ	18235
أنه	18236
عطيا	18237
ٽينڪر	18238
نبري	18239
##ومة	18240
يراپ	18241
gho	18242
172	18243
وائيڊ	18244
لنگها	18245
phi	18246
تـه	18247
نبيري	18248
بطاط	18249
قلك	18250
يحس	18251
ria	18252
scot	18253
بروس	18254
تھذ	18255
line	18256
روڪيا	18257
اركت	18258
ليبيا	18259
heb	18260
heal	18261
رميش	18262
سميج	18263
سحليه	18264
مناك	18265
سنهڙ	18266
وولٽ	18267
وعن	18268
طقطق	18269
يينا	18270
کوک	18271
کوچ	18272
نشيط	18273
gio	18274
apri	18275
جِن	18276
طراز	18277
vac	18278
رغبت	18279
ترڪما	18280
ڀلوڙ	18281
يوٽيو	18282
skin	18283
uty	18284
آإي	18285
حنف	18286
ٺوڪي	18287
راقم	18288
گهندي	18289
هڏڪ	18290
650	18291
ps4	18292
پوپٽي	18293
mari	18294
مباکو	18295
خاله	18296
##ینڈ	18297
سوڀيا	18298
نذل	18299
سنتين	18300
واھپ	18301
وٿاڻ	18302
astm	18303
غزه	18304
اشتقت	18305
troy	18306
۾؟"	18307
چڪور	18308
flow	18309
ڪفرٽ	18310
flat	18311
چڻنگ	18312
brea	18313
##ooo	18314
swit	18315
sens	18316
bora	18317
ڏنگو	18318
rona	18319
جھنڊو	18320
نغم	18321
نغمو	18322
tend	18323
دقق	18324
چکڻ	18325
کړي	18326
msn	18327
عايشه	18328
shipp	18329
شهوان	18330
glow	18331
هدول	18332
twoه	18333
gpu	18334
ملحق	18335
رؤى	18336
plea	18337
plex	18338
أأأأ	18339
غادة	18340
عاادي	18341
اٹھو	18342
جوکيو	18343
pyri	18344
تنسين	18345
بنڊل	18346
jpy	18347
nano	18348
اریخ	18349
جتهد	18350
نوڙت	18351
شجاع	18352
لؤي	18353
fabr	18354
resea	18355
قزح	18356
ماثلت	18357
ٺٺولي	18358
")	18359
5t	18360
a4	18361
a3	18362
asi	18363
cj	18364
cum	18365
core	18366
dt	18367
ee	18368
flo	18369
hcl	18370
kha	18371
lm	18372
lv	18373
m3	18374
qi	18375
q2	18376
q4	18377
q1	18378
rra	18379
s6	18380
s2	18381
s9	18382
ue	18383
x2	18384
ءءء	18385
آٺ	18386
آڹ	18387
آول	18388
آمي	18389
آخت	18390
آذآ	18391
أش	18392
أظن	18393
إنو	18394
بے	18395
بڙو	18396
بزار	18397
بنس	18398
ةةة	18399
تبو	18400
تكن	18401
ثور	18402
جڏي	18403
خدو	18404
خشم	18405
دھو	18406
رمل	18407
رڌي	18408
زف	18409
زڪر	18410
سفا	18411
شني	18412
شرات	18413
شڪيل	18414
طـ	18415
طئ	18416
طرو	18417
طلو	18418
طاحت	18419
طائف	18420
عازم	18421
غرا	18422
فكه	18423
ففف	18424
قدو	18425
قلام	18426
قفل	18427
كيم	18428
كذآ	18429
لھر	18430
مآن	18431
نځ	18432
نندي	18433
نرت	18434
نزن	18435
هگ	18436
هخ	18437
هورن	18438
هده	18439
وخت	18440
ومد	18441
ولوم	18442
وښت	18443
يائن	18444
يغا	18445
ٺڪاڻ	18446
ٻک	18447
ٽِڪ	18448
ٿجي	18449
چهر	18450
چالي	18451
ڇڙي	18452
ډېر	18453
ڊج	18454
ڊئن	18455
ڊزن	18456
ڌڙو	18457
ڌنو	18458
ڍُڪ	18459
ڦي	18460
ڦڪي	18461
ڦڪو	18462
کڪ	18463
کال	18464
کوه	18465
گنڊ	18466
گهيو	18467
ڳڙي	18468
ھيڪ	18469
ھول	18470
ھيرو	18471
ۈل	18472
۱۱	18473
##فش	18474
##فى	18475
##آڪ	18476
##نڪ	18477
##ويل	18478
##دع	18479
##دان	18480
##ضع	18481
##ضا	18482
##طح	18483
##طور	18484
##ثيق	18485
##mc	18486
##خة	18487
##كين	18488
##غو	18489
##cm	18490
##ye	18491
##قم	18492
##قو	18493
##gn	18494
##ټر	18495
##ئت	18496
##ئة	18497
##یاز	18498
##ھل	18499
##ينل	18500
کيک	18501
##ائٽ	18502
##ائط	18503
جودي	18504
جوکو	18505
تهیه	18506
لاڊ	18507
لاتي	18508
اهى	18509
اهـ	18510
الڻ	18511
ڪرز	18512
ايلي	18513
ايلا	18514
ايڪا	18515
ياسا	18516
توبي	18517
##ديس	18518
##ديك	18519
واڊ	18520
وادر	18521
ڪيلو	18522
ڪيپر	18523
##نيل	18524
موجن	18525
جايل	18526
ينالي	18527
ينڊل	18528
مانج	18529
مونيا	18530
روڄ	18531
روٿ	18532
رووو	18533
رويه	18534
ويٽي	18535
پوٽ	18536
پوڻا	18537
منبر	18538
ريک	18539
##سيب	18540
ڪوسي	18541
راڙ	18542
راسل	18543
راكي	18544
ورڪي	18545
ورنو	18546
بيک	18547
سوه	18548
سوڻ	18549
سوئن	18550
سومار	18551
يوون	18552
يولي	18553
اوگ	18554
اوڀ	18555
اووه	18556
اوليا	18557
اوڍي	18558
رهيـ	18559
ائت	18560
ارجا	18561
ارپور	18562
يڪون	18563
يڪڪس	18564
ڪاڇ	18565
معو	18566
گهل	18567
ليي	18568
وينو	18569
نيك	18570
جننت	18571
ملر	18572
ملحد	18573
وارٽز	18574
سالاد	18575
سنڱ	18576
سنبل	18577
نوائي	18578
نوبال	18579
ساون	18580
ساوڻ	18581
ڪنون	18582
بسٽر	18583
يلڪ	18584
يلينا	18585
ازبڪ	18586
سرون	18587
يتم	18588
يتام	18589
لوڏو	18590
لوغت	18591
يمير	18592
##ااج	18593
داور	18594
داول	18595
صحح	18596
عمدو	18597
پنس	18598
پنجه	18599
نماڻو	18600
متیاز	18601
نسوي	18602
چوک	18603
بلون	18604
سينا	18605
نداس	18606
جهج	18607
ادگ	18608
ادمان	18609
شوار	18610
شوڪي	18611
شوشو	18612
هلين	18613
##سوي	18614
وانڊا	18615
مڪس	18616
اسٽري	18617
تنح	18618
تنھا	18619
بڻبي	18620
وچک	18621
اجرو	18622
يسور	18623
يهبل	18624
##نڊر	18625
يورڊ	18626
ڏاتر	18627
حقه	18628
حقارت	18629
stone	18630
عریف	18631
تقع	18632
ديال	18633
خطبي	18634
خطبه	18635
يڊين	18636
##تاي	18637
وسڙو	18638
بحس	18639
نجس	18640
نجان	18641
گوگ	18642
گولا	18643
انية	18644
ڀرڳڙ	18645
يٽلي	18646
كلن	18647
مارا	18648
قبـ	18649
عدت	18650
عدس	18651
وائڊ	18652
ala	18653
alti	18654
لينڊر	18655
لهڻي	18656
سکس	18657
جمـ	18658
جمال	18659
ايول	18660
روزان	18661
انگري	18662
اكوش	18663
mala	18664
حياة	18665
رحبو	18666
ano	18667
بارو	18668
قتراح	18669
مهڪ	18670
مهاڻا	18671
مهدوي	18672
رڪعت	18673
ايلين	18674
هيوك	18675
ڪپل	18676
رتش	18677
سڪڻ	18678
فتون	18679
يزڪي	18680
بنڈل	18681
براسي	18682
##ووم	18683
انهـ	18684
گلڙ	18685
نره	18686
نرسن	18687
حره	18688
حربي	18689
حركة	18690
ٽنگي	18691
وداني	18692
dest	18693
جهاڳي	18694
سارتر	18695
155	18696
154	18697
157	18698
يكهي	18699
ڪراڙ	18700
sem	18701
تكو	18702
يگو	18703
ايشون	18704
جھلڪ	18705
shek	18706
اروڻي	18707
شتگرد	18708
سفند	18709
هواڙ	18710
کنڀ	18711
ڻيء	18712
تشكيل	18713
هارٽ	18714
نفره	18715
زيڊ	18716
كيك	18717
كيلو	18718
نڪشن	18719
دمع	18720
دمه	18721
ڪينا	18722
pall	18723
قصان	18724
نكد	18725
beca	18726
112	18727
يبسي	18728
them	18729
vie	18730
vii	18731
سَڀ	18732
185	18733
بقر	18734
رائيم	18735
nik	18736
nio	18737
sib	18738
بھر	18739
لقط	18740
انڊاڻ	18741
نہاد	18742
راجس	18743
lou	18744
adam	18745
لالو	18746
spo	18747
خلى	18748
mode	18749
mpa	18750
لئٽ	18751
راضيه	18752
هيڪلا	18753
وپا	18754
ڪِن	18755
پَل	18756
##usi	18757
gov	18758
شبهو	18759
ويرم	18760
ويرس	18761
ظافر	18762
boli	18763
book	18764
اويلا	18765
225	18766
گُر	18767
غمز	18768
اؤزر	18769
ڳڻت	18770
your	18771
کليپ	18772
هيلر	18773
انڌاڻ	18774
ڪڙم	18775
ابتر	18776
urdu	18777
ڄاتا	18778
هائيٽ	18779
رميسا	18780
cup	18781
pis	18782
piec	18783
جنتري	18784
يڪوس	18785
ڌوڏي	18786
why	18787
ريزين	18788
apg	18789
pest	18790
ملتقى	18791
تِن	18792
valu	18793
صابع	18794
نڊوڊٿ	18795
ڪنگال	18796
dish	18797
رمضـ	18798
old	18799
شالا	18800
اسڪوپ	18801
يووڊ	18802
رصاص	18803
jou	18804
نیوز	18805
geni	18806
cia	18807
ڪاشف	18808
gee	18809
لیک	18810
نانگا	18811
xddd	18812
نگھار	18813
نوبيا	18814
ٽراپ	18815
وضوع	18816
لاٿا	18817
قافلا	18818
دکن	18819
turbo	18820
پنهـ	18821
ذكائ	18822
cant	18823
عارب	18824
نسنٽر	18825
cord	18826
dyna	18827
430	18828
غنية	18829
ڏھاڙ	18830
snow	18831
pcb	18832
يلينٽ	18833
بزنم	18834
مڇر	18835
tagg	18836
flag	18837
حكمة	18838
servo	18839
ڃاڻپ	18840
##ؤنڪ	18841
brit	18842
حکم	18843
دعيل	18844
شبهك	18845
پهنه	18846
لفيٽ	18847
ڏنگا	18848
عآد	18849
بيچلر	18850
ڪرتب	18851
شهود	18852
تقويم	18853
يهوك	18854
طوائف	18855
funny	18856
عشرة	18857
univ	18858
سڙڪ	18859
butt	18860
try	18861
ثريا	18862
رمنل	18863
جیک	18864
صندل	18865
نفوذ	18866
dream	18867
تڪلف	18868
ٻڙڪ	18869
نهبلت	18870
نرفز	18871
ينواس	18872
فنگس	18873
ساڃه	18874
صبوح	18875
ختاور	18876
ڌٻڻ	18877
خآلد	18878
شتياق	18879
april	18880
چاليھ	18881
"-	18882
"$	18883
'"	18884
(؟	18885
('	18886
,"	18887
3ـ	18888
4x	18889
5x	18890
5th	18891
=>	18892
ax	18893
bn	18894
bsp	18895
cca	18896
dx	18897
dna	18898
ele	18899
eos	18900
fet	18901
glea	18902
hw	18903
hur	18904
ima	18905
jh	18906
jb	18907
kg	18908
kla	18909
mide	18910
nl	18911
nv	18912
oz	18913
ota	18914
oxi	18915
p9	18916
p20	18917
tl	18918
vr	18919
xin	18920
xrp	18921
}~	18922
אن	18923
آبو	18924
آپي	18925
آشا	18926
أمل	18927
أكل	18928
ئز	18929
بۊ	18930
بشن	18931
تاڻ	18932
جٿي	18933
جريب	18934
جبان	18935
جئه	18936
حرير	18937
خله	18938
خرين	18939
ذان	18940
ذآآ	18941
ذاهب	18942
رشڪ	18943
رڳي	18944
رڙن	18945
زرو	18946
زول	18947
زئين	18948
زاڪ	18949
سقا	18950
شٽ	18951
شلو	18952
شڪو	18953
شبر	18954
شيرو	18955
شبلي	18956
صع	18957
صوات	18958
طه	18959
طغ	18960
طوا	18961
عآآ	18962
عروض	18963
غیر	18964
فاح	18965
فتر	18966
فريز	18967
فصيح	18968
قى	18969
كيان	18970
لڪر	18971
لعو	18972
مٍ	18973
نء	18974
نڻ	18975
نګ	18976
نقي	18977
نڪل	18978
نشه	18979
هç	18980
هرين	18981
هالي	18982
هانا	18983
هیر	18984
وھي	18985
وامي	18986
وندو	18987
يژ	18988
يسوس	18989
ُهي	18990
١٨	18991
ٽڪڻ	18992
ٽین	18993
پڊ	18994
پانگ	18995
ٿڪي	18996
ڀيو	18997
ڀاس	18998
ځي	18999
ڄڃ	19000
چرن	19001
چٻي	19002
ڇَ	19003
ڊڪي	19004
ڊيرا	19005
ڌري	19006
ڌرت	19007
ڌوم	19008
ڍار	19009
ڍرو	19010
ڍيل	19011
ڏبي	19012
ڙمين	19013
ښه	19014
ڦلي	19015
ڦڙي	19016
ڦرن	19017
ڦاڙ	19018
کٽل	19019
ڪسم	19020
ڪذآ	19021
گبول	19022
ڳهي	19023
ڳلو	19024
ھجو	19025
ھالا	19026
ھَي	19027
یز	19028
یر	19029
یام	19030
۵۰	19031
##آئ	19032
##آني	19033
##عش	19034
##اة	19035
##يں	19036
##يھ	19037
##يله	19038
##هون	19039
##tu	19040
##وئي	19041
##ٽم	19042
##طـ	19043
##بري	19044
##جهه	19045
##ثه	19046
##ثث	19047
##خن	19048
##كد	19049
##كك	19050
##sse	19051
##ir	19052
##ـب	19053
##چڪ	19054
##قة	19055
##قان	19056
##ټو	19057
##ہي	19058
تهاني	19059
تهتم	19060
لاھور	19061
تيغ	19062
اهون	19063
هڪُ	19064
ڪرب	19065
ڪرما	19066
سانا	19067
ٿيڙ	19068
ايام	19069
يادا	19070
ياٽي	19071
توح	19072
تومي	19073
توثيق	19074
##ديت	19075
ونڀار	19076
وارين	19077
واجب	19078
ڪيچي	19079
ڪيٽل	19080
هية	19081
هيبي	19082
مووت	19083
پرچا	19084
جاست	19085
ينائ	19086
ينول	19087
ينسٽ	19088
ينجر	19089
ماگ	19090
روبو	19091
ويلف	19092
ناض	19093
ناصح	19094
##راج	19095
ريدا	19096
ريسم	19097
ريڊل	19098
ڪوهن	19099
ڪوڪس	19100
راقيه	19101
راځي	19102
ورمي	19103
بيهو	19104
بيگل	19105
سوائي	19106
سوڊا	19107
يوڪي	19108
رهيم	19109
ويور	19110
ويولن	19111
ارى	19112
ارجي	19113
ارڪس	19114
يڪلو	19115
يڪانا	19116
گهور	19117
ليتر	19118
ڇاک	19119
نيٽي	19120
نيسم	19121
جنو	19122
جنات	19123
ملكي	19124
ملكت	19125
فيان	19126
فيلم	19127
گهرڙ	19128
امپ	19129
اينها	19130
ڏيهن	19131
ڏيهان	19132
سنـ	19133
سنوا	19134
نوَ	19135
شيب	19136
شيك	19137
شيلي	19138
مرل	19139
ساء	19140
ساتي	19141
سایت	19142
مشى	19143
مسڻ	19144
مسخ	19145
باڊوس	19146
دوي	19147
دوار	19148
سرء	19149
سرج	19150
سرڳ	19151
لوڪو	19152
لوفي	19153
لوڪس	19154
يمرا	19155
همش	19156
مقد	19157
##اهم	19158
تحميل	19159
داوار	19160
صحة	19161
عمى	19162
ننن	19163
پنڪ	19164
پڻهين	19165
مدلع	19166
سبع	19167
نسلو	19168
نسحب	19169
نقر	19170
سينگ	19171
رسام	19172
ina	19173
گهٽا	19174
جهـ	19175
جهڪو	19176
جهڪڻ	19177
جهونا	19178
ايمو	19179
ايمٽ	19180
ولى	19181
ولی	19182
ولورا	19183
شوڪا	19184
هتل	19185
ابخ	19186
تنط	19187
تنها	19188
تنبلي	19189
اپاري	19190
پڙل	19191
بوڪس	19192
يرڊ	19193
يرنا	19194
يسيا	19195
##قاس	19196
آنن	19197
ڪلچ	19198
شرک	19199
##يمة	19200
نياپن	19201
##اجر	19202
ولاړ	19203
ديونا	19204
بدت	19205
قرمز	19206
##ضوم	19207
افراط	19208
104	19209
نشد	19210
نشاء	19211
ٽيڪا	19212
خطف	19213
يڊرڪ	19214
##تاس	19215
يانوس	19216
وسڪي	19217
وسسه	19218
وسٹر	19219
وسیع	19220
صفدر	19221
وليٽ	19222
يارون	19223
فراغ	19224
گوپ	19225
گواه	19226
تصال	19227
رقد	19228
رقام	19229
رقاص	19230
cost	19231
هُت	19232
ther	19233
اشٽر	19234
سامة	19235
خوات	19236
لائنڊ	19237
tec	19238
teet	19239
سونگ	19240
نفري	19241
leg	19242
lene	19243
نڊنٽ	19244
مزنه	19245
رابلم	19246
لهب	19247
جرڪ	19248
ڄڻڻ	19249
ھيؤ	19250
resu	19251
مهد	19252
مهج	19253
مهـ	19254
مهري	19255
ربّ	19256
ربست	19257
حيلا	19258
طالق	19259
مهرة	19260
آهئ	19261
اقسام	19262
طايح	19263
سڃا	19264
فتنو	19265
فتخر	19266
ٽويٽ	19267
tis	19268
tile	19269
يزد	19270
بنون	19271
chart	19272
براز	19273
ene	19274
enco	19275
تڪڻ	19276
يليز	19277
گلڊ	19278
نرل	19279
ينيسي	19280
ينيٽر	19281
neel	19282
حرج	19283
رينل	19284
roi	19285
rope	19286
وديو	19287
deo	19288
deci	19289
نينو	19290
يكه	19291
يكان	19292
mitt	19293
ايشي	19294
جھر	19295
جھول	19296
سنگه	19297
رزر	19298
ارودي	19299
اڪيز	19300
چمپا	19301
sula	19302
sume	19303
شمر	19304
124	19305
129	19306
وهاڻو	19307
سورى	19308
يپسي	19309
تشول	19310
وَس	19311
هارج	19312
dau	19313
زاوي	19314
divi	19315
فلز	19316
صدقاء	19317
حمر	19318
رازق	19319
رآآح	19320
رخو	19321
نكب	19322
نڪرج	19323
هڙيال	19324
وراسي	19325
مَٽ	19326
radi	19327
189	19328
يفٽي	19329
bad	19330
babu	19331
nto	19332
nter	19333
ntfs	19334
nig	19335
simi	19336
لقان	19337
ولوس	19338
ولوين	19339
زرگ	19340
isو	19341
146	19342
عتاب	19343
نارس	19344
##uma	19345
ايدز	19346
arm	19347
qual	19348
132	19349
کرم	19350
165	19351
يڙن	19352
نبڻي	19353
nove	19354
nova	19355
پهچا	19356
يراج	19357
faq	19358
cele	19359
175	19360
179	19361
ٿرڊ	19362
اختلا	19363
phar	19364
smo	19365
pref	19366
نزال	19367
ريوف	19368
بطلت	19369
شبهي	19370
الاٽ	19371
sco	19372
ميڪو	19373
هيسج	19374
سؤٽ	19375
وڄڻ	19376
ججز	19377
بروڪ	19378
ڀڄن	19379
mend	19380
menu	19381
eth	19382
رعان	19383
هيكل	19384
نازک	19385
پپر	19386
persi	19387
جُڳ	19388
هائير	19389
ويڪو	19390
tun	19391
tup	19392
حظر	19393
bul	19394
هدية	19395
هائيڊ	19396
ملوك	19397
رميل	19398
زهرة	19399
run	19400
عجز	19401
ئلون	19402
kir	19403
ڊينيل	19404
while	19405
##une	19406
four	19407
rna	19408
ينچري	19409
حراام	19410
ريزد	19411
رڻن	19412
يديم	19413
ينگري	19414
واڻن	19415
##شوك	19416
نخرا	19417
نخاف	19418
صادم	19419
نھنجو	19420
eva	19421
أيش	19422
ستوى	19423
ٽپڙ	19424
لتون	19425
ريبين	19426
jogi	19427
شرايط	19428
جمعيه	19429
تغني	19430
هرنيو	19431
gear	19432
اوپنر	19433
اقوال	19434
نائڪ	19435
330	19436
دنبال	19437
كاش	19438
plor	19439
ڦٽن	19440
mui	19441
steel	19442
قارنه	19443
ليرا	19444
gree	19445
بداء	19446
centi	19447
سوڀود	19448
ڪڇڻ	19449
idea	19450
گھاٽي	19451
metri	19452
paddy	19453
ديمير	19454
ٽئڪ	19455
370	19456
jia	19457
draw	19458
ظهرت	19459
شريط	19460
ڀوڳنا	19461
خطيرة	19462
ڳيون	19463
ليٽيل	19464
زڪوه	19465
شمعون	19466
عبيط	19467
oct	19468
ڀونڪ	19469
ڀونگر	19470
دلايل	19471
brot	19472
drive	19473
زحل	19474
obt	19475
study	19476
دابير	19477
ديپڪ	19478
ddr	19479
ddl	19480
دلوعة	19481
خياب	19482
btc	19483
يحيى	19484
ركزت	19485
peti	19486
حاقد	19487
طحن	19488
ہری	19489
بطيخ	19490
path	19491
تعويض	19492
lori	19493
فشلت	19494
spir	19495
كذب	19496
scree	19497
تحطيم	19498
اجوه	19499
aws	19500
i̇z	19501
bunde	19502
which	19503
wowow	19504
رٻاٽ	19505
أإأإي	19506
mmad	19507
پڪنڪ	19508
yeni	19509
پنھج	19510
نتحار	19511
مواجه	19512
هاٿين	19513
تشتري	19514
ڏِس	19515
اؤنٹ	19516
ساڻيه	19517
ڌڙوٽ	19518
سوئنگ	19519
يتامڙ	19520
pisce	19521
هçî	19522
"!	19523
*^	19524
4ـ	19525
<=	19526
ae	19527
a6	19528
bha	19529
fc	19530
hh	19531
het	19532
ill	19533
ker	19534
lut	19535
lfi	19536
oce	19537
p2	19538
pv	19539
pare	19540
q7	19541
rro	19542
rus	19543
rdi	19544
rpm	19545
sme	19546
s10	19547
tat	19548
uz	19549
v2	19550
wt	19551
wm	19552
ws	19553
wen	19554
x3	19555
yr	19556
~.	19557
آہ	19558
آيي	19559
ؤؤؤ	19560
إيش	19561
اډ	19562
اہم	19563
بظ	19564
بھو	19565
بارت	19566
جك	19567
جدار	19568
جڌهن	19569
حئي	19570
خفف	19571
ذذ	19572
ذال	19573
ريوا	19574
زشت	19575
زيوس	19576
زميل	19577
سهه	19578
سرف	19579
سيوا	19580
شذ	19581
شبا	19582
شکار	19583
شجر	19584
شَي	19585
صصص	19586
ضيوف	19587
طآ	19588
طابق	19589
طوم	19590
طحت	19591
عک	19592
عمت	19593
عياد	19594
عصف	19595
غدا	19596
غارت	19597
فی	19598
فهه	19599
فند	19600
قة	19601
مڪا	19602
مفا	19603
نيند	19604
هتم	19605
هڙن	19606
وڦ	19607
وٍ	19608
وئر	19609
وڪن	19610
يصل	19611
يدير	19612
ُھ	19613
ٺپو	19614
ٻله	19615
ٽڪل	19616
ٽائو	19617
پئن	19618
پتر	19619
پڳو	19620
ٿڻ	19621
ٿال	19622
ڀَ	19623
ڀسم	19624
چس	19625
چاب	19626
چنو	19627
چانگ	19628
ڇڇ	19629
ڍاپ	19630
ژو	19631
ڦار	19632
ڦاٽ	19633
ڦوڪ	19634
کندي	19635
کرار	19636
کـه	19637
ڪذ	19638
ڪدو	19639
گاب	19640
گنو	19641
گجر	19642
ڳڀي	19643
ڻڻ	19644
ھٻ	19645
ھاس	19646
ھانگ	19647
یـ	19648
۲۷	19649
۳۰	19650
۴۰	19651
۽)	19652
को	19653
‹☺	19654
##تـ	19655
##آيه	19656
##اوي	19657
##مٽ	19658
##مور	19659
##نى	19660
##نة	19661
##وج	19662
##وپ	19663
##وح	19664
##وان	19665
##زيل	19666
##گز	19667
##گھ	19668
##ٽنٽ	19669
##ڻڪ	19670
##جز	19671
##جج	19672
##پم	19673
##ډه	19674
##ja	19675
##dm	19676
##cb	19677
##pc	19678
##قص	19679
##ٹن	19680
##ڳڻ	19681
##ٿل	19682
##ٿڪ	19683
##انن	19684
##اند	19685
جيف	19686
انڪٽ	19687
اسڪار	19688
اسليٽ	19689
##ئير	19690
اهرن	19691
هڪي	19692
هڪَ	19693
الام	19694
الکي	19695
القاس	19696
ڪرتي	19697
ڪرمي	19698
سانچ	19699
سانها	19700
هنسا	19701
اييد	19702
ايرر	19703
بهانا	19704
هوى	19705
هوڪا	19706
هويه	19707
هوجا	19708
تولو	19709
توتو	19710
توتر	19711
توپي	19712
وناس	19713
ونوس	19714
واتر	19715
ٿوم	19716
ٿولڪ	19717
هيٽ	19718
هيبه	19719
هيڊو	19720
هيڻن	19721
پرھ	19722
جاو	19723
ينھ	19724
ينڪو	19725
ينٽل	19726
ينگو	19727
ماٿ	19728
روڻا	19729
ويشت	19730
منة	19731
منِ	19732
منارو	19733
منجر	19734
##راڙ	19735
ريض	19736
ڪوب	19737
ڪوڏي	19738
راٽ	19739
راٽي	19740
راکي	19741
راچي	19742
راپي	19743
راعت	19744
ورڌن	19745
بيار	19746
بيٽر	19747
سوغ	19748
سوڄ	19749
اوڻ	19750
اوڏي	19751
اووو	19752
هاگ	19753
هاتو	19754
ائده	19755
يڪڪ	19756
گهٽيل	19757
ليگي	19758
ليفٽ	19759
##هوا	19760
هربا	19761
هرمز	19762
ڏينڀو	19763
سيان	19764
سيكل	19765
وينگس	19766
نيهو	19767
نيچر	19768
جنى	19769
درڪ	19770
درمل	19771
ماڻھ	19772
ملاله	19773
ملخص	19774
فيٽ	19775
هونت	19776
هونا	19777
هونڊا	19778
##ازل	19779
امنگ	19780
نگدل	19781
ترانه	19782
سنو	19783
نوت	19784
نوزا	19785
نوسار	19786
شيئا	19787
ساڪن	19788
ٽيپو	19789
پاٺ	19790
مشيت	19791
##سٽو	19792
ڊيمي	19793
ڊيما	19794
ائيس	19795
ائيڪي	19796
ڪنڪ	19797
دوه	19798
دوگ	19799
دوك	19800
دوهي	19801
يلآ	19802
يلڪس	19803
##يتو	19804
ستفي	19805
لوث	19806
لوٽي	19807
لوٿر	19808
يمار	19809
يمقن	19810
ٻڌم	19811
مقهور	19812
پهٔ	19813
داوري	19814
پنسل	19815
پنڇي	19816
نماد	19817
مدة	19818
تبن	19819
تبري	19820
نسـ	19821
نسيا	19822
ڪتبه	19823
والس	19824
ندائ	19825
ندرا	19826
رسڪ	19827
رسوت	19828
داروي	19829
وريد	19830
ٽرالي	19831
شوى	19832
شوڪ	19833
شووي	19834
شواق	19835
مثا	19836
ابري	19837
اڪريل	19838
ايسل	19839
ٻنڌڻ	19840
هريل	19841
ھڪڙ	19842
يرى	19843
يراب	19844
يرگي	19845
ڪلورا	19846
ردست	19847
##صرت	19848
تقهر	19849
تقعد	19850
نياري	19851
نيايد	19852
ديدا	19853
ديبا	19854
بدم	19855
ٻهڪ	19856
افوا	19857
افشين	19858
رانس	19859
مينج	19860
اميج	19861
حليو	19862
خطـ	19863
شكن	19864
يانة	19865
بحط	19866
بحق	19867
گوڏ	19868
گوڏا	19869
cop	19870
come	19871
كلة	19872
هينگ	19873
then	19874
بچن	19875
اشد	19876
لائنر	19877
اليز	19878
team	19879
نفـ	19880
تافي	19881
alu	19882
toو	19883
len	19884
مزن	19885
رهام	19886
حترف	19887
اڻيھ	19888
رحتي	19889
رحبت	19890
حضير	19891
rem	19892
reon	19893
reme	19894
آسف	19895
مهضوم	19896
حيآت	19897
ڊوگ	19898
رمني	19899
هيوا	19900
پلٽ	19901
وارنر	19902
اطهر	19903
ڪپٽ	19904
ٽوچ	19905
رنب	19906
ڪڍن	19907
زينش	19908
زينك	19909
chf	19910
قاچا	19911
##ووس	19912
يليپ	19913
يليڊ	19914
نرد	19915
تسنيم	19916
عبـ	19917
عبقر	19918
لحق	19919
بناء	19920
سُڃ	19921
rola	19922
role	19923
ودى	19924
ودني	19925
دريج	19926
نينا	19927
قطه	19928
ڪسبي	19929
يكل	19930
mia	19931
sey	19932
sell	19933
رائس	19934
shu	19935
دعاء	19936
رزه	19937
اراز	19938
اروپ	19939
چمپ	19940
mech	19941
mess	19942
sult	19943
يکڙاٽ	19944
lis	19945
نفرح	19946
فنن	19947
اڌما	19948
فلٽ	19949
ڪينري	19950
cab	19951
call	19952
صدام	19953
نلڪي	19954
رآك	19955
navi	19956
نڪران	19957
bell	19958
ڪانت	19959
116	19960
ليسيا	19961
يلادي	19962
وراج	19963
يبرا	19964
ڪامڻي	19965
vit	19966
vil	19967
جدآ	19968
ويلر	19969
ويلپ	19970
رائيس	19971
يجون	19972
lax	19973
رفس	19974
رفعت	19975
سويپ	19976
sit	19977
sir	19978
sio	19979
size	19980
فورا	19981
لقوف	19982
##lie	19983
147	19984
راجپ	19985
بئنڊ	19986
loy	19987
haw	19988
adh	19989
adva	19990
advi	19991
ائسگ	19992
انوپ	19993
sodi	19994
solu	19995
spon	19996
una	19997
انسه	19998
نـه	19999
