<unk>	0
<s>	0
</s>	0
.	-3.50947
▁جي	-3.7809
ن	-3.89615
ي	-4.02466
▁آهي	-4.31181
▁۾	-4.35129
،	-4.39414
▁کي	-4.47367
و	-4.5457
▁۽	-4.54695
▁جو	-4.70363
ا	-4.82925
ه	-4.82965
▁ته	-4.85657
▁.	-4.88849
▁	-5.03813
▁تي	-5.04756
▁،	-5.14956
ل	-5.15732
▁هڪ	-5.24292
:	-5.26613
م	-5.26834
س	-5.28755
ت	-5.30138
▁سان	-5.32733
▁کان	-5.35229
▁نه	-5.3803
▁ان	-5.38819
ون	-5.38903
▁ڪري	-5.44189
▁هن	-5.47134
▁به	-5.49165
ر	-5.54725
▁هو	-5.56232
▁آهن	-5.58653
▁ڪرڻ	-5.61146
▁ٿي	-5.62606
▁ٿو	-5.65214
ك	-5.69194
▁اسان	-5.69861
▁و	-5.7067
▁"	-5.71445
▁اهو	-5.73051
ان	-5.74179
▁لاءِ	-5.75299
ب	-5.8725
▁يا	-5.87812
ز	-5.88797
ڪ	-5.89212
)	-5.90651
▁م	-5.91129
▁ڪيو	-5.91759
ع	-5.93714
▁توهان	-5.94105
▁(	-5.9641
▁پر	-5.977
ين	-6.00411
ش	-6.01225
▁مان	-6.02784
د	-6.04844
▁جا	-6.05134
ري	-6.061
▁مون	-6.11623
▁ٿا	-6.15089
ڻ	-6.1983
ائي	-6.24275
▁هي	-6.25841
؟	-6.26834
ٽ	-6.27834
▁ب	-6.2884
▁پنهنجي	-6.31081
▁ئي	-6.31848
▁ويو	-6.32474
▁لاء	-6.33792
▁آ	-6.36636
ج	-6.39375
ار	-6.41824
▁انهن	-6.42158
▁طور	-6.44097
"	-6.46336
▁اي	-6.46515
ق	-6.4735
نگ	-6.48953
▁ا	-6.49109
ح	-6.49152
▁بي	-6.50787
!	-6.5107
▁-	-6.51295
▁ما	-6.5138
▁ن	-6.51702
▁ل	-6.57621
▁ع	-6.59028
▁س	-6.59631
لي	-6.59777
▁پ	-6.60356
ف	-6.60809
جي	-6.60958
ها	-6.61059
ـ	-6.61411
▁ڪو	-6.61968
▁وقت	-6.63085
پ	-6.63333
▁وڌيڪ	-6.65403
-	-6.65649
▁ڪم	-6.65669
▁ت	-6.66168
ڊ	-6.6674
هه	-6.68589
ور	-6.70009
▁من	-6.70452
ءَ	-6.70595
ِ	-6.70818
▁ڇا	-6.72266
ات	-6.7228
▁آھي	-6.72508
َ	-6.72738
▁سي	-6.73596
ة	-6.73823
▁هر	-6.74625
ھ	-6.74718
ک	-6.75771
آ	-6.75934
▁ڪ	-6.77245
ط	-6.77683
▁پي	-6.77882
s	-6.78745
ال	-6.79446
,	-6.79452
▁ي	-6.79983
خ	-6.8114
▁مي	-6.81147
▁جنهن	-6.81156
▁ڪئي	-6.81312
▁استعمال	-6.82049
تي	-6.82401
چ	-6.83462
ئي	-6.85273
▁هئي	-6.85977
▁ال	-6.8725
▁ر	-6.87794
▁اهي	-6.87804
▁تائين	-6.88248
▁واري	-6.89805
▁ڪنهن	-6.89938
▁جيڪو	-6.90839
يءَ	-6.92094
رو	-6.93769
▁سڀ	-6.94725
ندي	-6.94877
ڙ	-6.96059
▁ڪجهه	-6.96466
ُ	-6.96818
ندو	-6.97521
▁ڪريو	-6.97544
▁بس	-6.97902
▁لا	-6.98045
▁اها	-6.98614
▁او	-6.98632
▁چيو	-6.99411
▁جڏهن	-7.02393
را	-7.02514
▁ڏينهن	-7.03277
يل	-7.03353
▁وڃي	-7.03431
e	-7.04955
ئ	-7.06067
▁في	-7.07529
▁جيڪي	-7.07709
گ	-7.07871
▁سو	-7.08534
ڙي	-7.09415
▁سال	-7.10246
▁ش	-7.10391
يو	-7.1047
▁حاصل	-7.10621
دي	-7.10863
▁ههههههههه	-7.10928
▁پوءِ	-7.11923
ى	-7.11955
ء	-7.11986
▁سگهي	-7.1285
▁ها	-7.12917
يا	-7.14119
▁منهنجي	-7.14443
ی	-7.14771
▁پاڻ	-7.14983
▁سندس	-7.1558
ني	-7.15788
▁سر	-7.15882
ڪي	-7.16268
▁گهر	-7.16407
اري	-7.16489
▁ج	-7.17849
▁ههههههههههه	-7.17926
2	-7.18188
▁گڏ	-7.1879
ص	-7.18984
▁جيڪڏهن	-7.18986
▁در	-7.18997
▁ڪا	-7.19582
▁ههههههههههههههه	-7.19667
ٽي	-7.19694
▁وي	-7.19731
ندا	-7.19732
▁ه	-7.20668
▁از	-7.21177
▁تمام	-7.22593
▁ناهي	-7.22928
ول	-7.23384
▁چ	-7.23631
سي	-7.24562
▁خ	-7.24882
▁بر	-7.2506
يت	-7.25081
▁جن	-7.25448
o	-7.25842
▁رهيو	-7.27306
▁الله	-7.27726
نا	-7.2788
▁3	-7.2803
يد	-7.28113
ض	-7.29004
▁لي	-7.29129
ام	-7.29505
بي	-7.29569
▁ههههههه	-7.30293
لو	-7.30519
▁دنيا	-7.30546
▁ڪن	-7.30633
غ	-7.31665
▁وڏي	-7.33413
▁اڳ	-7.3413
ــ	-7.35949
▁ٿيو	-7.36173
يون	-7.36627
▁وئي	-7.36723
▁تو	-7.36796
▁مع	-7.37345
▁ف	-7.37426
▁ڪي	-7.3843
لا	-7.38807
▁ٽي	-7.39092
▁نا	-7.40081
ندڙ	-7.40394
▁اين	-7.40427
▁ضرورت	-7.41276
وا	-7.41383
يه	-7.4141
▁وٽ	-7.41424
▁وا	-7.41521
▁پيش	-7.4174
▁ويندو	-7.42882
a	-7.43078
▁انهي	-7.43362
▁رهي	-7.43617
▁ماڻهو	-7.44539
ند	-7.44619
d	-7.44694
▁ک	-7.4476
▁تون	-7.44988
▁ٿيڻ	-7.45077
▁صرف	-7.45181
مي	-7.45234
▁نظر	-7.45593
▁ز	-7.45671
▁پڻ	-7.4621
▁ويا	-7.46576
▁با	-7.46853
▁شي	-7.47017
▁ام	-7.47084
▁ور	-7.47133
يم	-7.47536
▁اچي	-7.47735
▁ڇو	-7.47744
▁ڊي	-7.48089
▁مر	-7.48355
i	-7.48433
▁هههههههههه	-7.48569
▁ڪڏهن	-7.48719
▁2	-7.4872
هن	-7.48761
هم	-7.49214
هي	-7.49342
ائ	-7.51486
▁ح	-7.51627
اس	-7.51783
t	-7.51816
▁ڪيئن	-7.52675
بر	-7.52675
▁د	-7.52694
4	-7.53127
▁شروع	-7.53945
▁ڪندو	-7.54094
▁بابت	-7.54693
دار	-7.54782
ير	-7.553
▁سڀني	-7.55489
▁ماڻهن	-7.55681
▁ري	-7.55728
▁عمل	-7.56359
اب	-7.56398
▁ص	-7.56601
▁گ	-7.56704
▁خاص	-7.57315
▁جيئن	-7.57421
▁ههههههههههههه	-7.57527
▁ڀ	-7.57717
▁طرح	-7.57999
▁مل	-7.58265
▁هئا	-7.58286
▁ٻئي	-7.58782
▁شامل	-7.59261
ائڻ	-7.59398
▁هههههههه	-7.59679
▁ڇڏي	-7.59824
ڪس	-7.60012
اڻي	-7.60231
1	-7.60458
ايو	-7.60511
ما	-7.60547
ست	-7.60792
▁عام	-7.61419
▁ق	-7.6147
▁مختلف	-7.61471
▁مو	-7.61669
▁دل	-7.61863
▁5	-7.61874
▁ڪندا	-7.61886
▁غير	-7.6207
▁4	-7.62887
▁1	-7.62914
وي	-7.63015
▁خبر	-7.63853
▁هههههههههههه	-7.64278
▁را	-7.64572
▁وارو	-7.64803
▁اڄ	-7.64834
ـــ	-7.64943
▁19	-7.65405
▁ك	-7.65545
▁جون	-7.65628
اني	-7.65964
y	-7.66564
▁گهٽ	-7.66732
▁رهيا	-7.67004
▁ڳالهه	-7.67225
▁قسم	-7.67747
3	-7.68017
ظ	-7.68291
▁هوندي	-7.68316
▁يعني	-7.68356
▁ڪندي	-7.68555
5	-7.69088
▁ڏيڻ	-7.69429
▁ڪر	-7.69492
دا	-7.6965
▁سا	-7.69968
▁مش	-7.69988
p	-7.70522
ٺ	-7.70535
كم	-7.70594
▁ڏ	-7.70873
▁زندگي	-7.7093
▁ههههه	-7.70964
▁ڏانهن	-7.71038
تا	-7.71514
▁گهرجي	-7.7158
▁رو	-7.71912
ڪو	-7.71917
اد	-7.72315
▁ملڪ	-7.73206
u	-7.73726
▁آهيان	-7.74012
▁هوندو	-7.74575
▁ڪتاب	-7.74797
▁بند	-7.75273
▁ڏي	-7.75532
▁مدد	-7.7583
g	-7.75974
▁سبب	-7.76282
ث	-7.76356
▁أ	-7.77274
▁شهر	-7.7738
▁جيڪا	-7.77433
▁اندر	-7.77676
▁موجود	-7.77691
▁ايس	-7.78041
▁آئون	-7.78359
▁تاريخ	-7.78943
▁ٻين	-7.79328
ٽر	-7.79388
▁مڪمل	-7.79438
▁وچ	-7.79454
▁بعد	-7.79548
ده	-7.79617
جو	-7.8142
▁پنهنجو	-7.81466
ذ	-7.82133
▁نالو	-7.82259
▁اهڙي	-7.82313
تر	-7.82731
ڏ	-7.82749
▁ٿيل	-7.82828
▁نئين	-7.83206
▁هم	-7.83387
▁ايم	-7.84115
ڪر	-7.84301
تو	-7.84494
▁ڊ	-7.84832
با	-7.84874
▁گهڻو	-7.84877
أ	-7.84892
▁تنهن	-7.84997
جن	-7.85219
ڙو	-7.85545
▁_	-7.8585
6	-7.85957
پي	-7.86357
7	-7.86396
▁پيو	-7.86453
▁ٻ	-7.8647
▁ڪمپني	-7.86562
▁پهرين	-7.86723
▁ڳ	-7.87501
▁قيمت	-7.87737
▁'	-7.87846
▁بد	-7.87974
▁ختم	-7.87992
▁ادا	-7.88069
سٽ	-7.88184
▁آن	-7.88503
▁هتي	-7.88714
▁سگهو	-7.88765
اي	-7.8881
زي	-7.88935
▁/	-7.88943
بل	-7.89046
بو	-7.89725
▁ڇڏيو	-7.89811
▁آھن	-7.8982
▁پو	-7.90502
▁ٽ	-7.90534
c	-7.9063
▁هاڻي	-7.90837
▁S	-7.90976
▁هههههههههههههه	-7.91113
▁الم	-7.9112
ڪار	-7.91482
ٿ	-7.91552
▁آهيون	-7.91556
شي	-7.91673
▁ٿيندو	-7.92051
▁!	-7.92232
▁خيال	-7.92742
'	-7.93186
S	-7.93187
▁شايد	-7.93265
k	-7.93266
▁غ	-7.93376
▁A	-7.93421
اء	-7.93491
ڌ	-7.93638
▁جواب	-7.93866
▁انسان	-7.93884
▁ٿئي	-7.93897
اڻ	-7.9395
▁هههههه	-7.93995
▁پيدا	-7.94201
▁کيس	-7.94238
▁؟	-7.94283
▁ڏئي	-7.94348
▁ٻيو	-7.94659
▁هٿ	-7.95181
▁وري	-7.9538
▁ڪار	-7.95474
▁اهم	-7.95482
▁ياد	-7.95571
▁حل	-7.95978
▁ڄاڻ	-7.96063
▁دي	-7.962
▁وڏو	-7.96282
▁آيو	-7.96409
▁ملي	-7.96604
ڀ	-7.96604
گر	-7.96812
له	-7.9709
▁آئي	-7.9723
▁سالن	-7.97379
▁اس	-7.97753
ہ	-7.97992
قي	-7.98098
▁سنڌ	-7.98327
▁ڪيا	-7.98453
▁فون	-7.98625
▁ني	-7.98733
▁حق	-7.98744
▁اصل	-7.98871
ڳ	-7.98959
▁ڪندڙ	-7.9909
اتي	-7.99243
▁ڏنو	-7.99603
n	-8.00024
▁لو	-8.0006
▁انا	-8.00071
▁ڇ	-8.00421
نڊ	-8.00562
▁ڪوشش	-8.00595
▁سائيٽ	-8.00671
؛	-8.00691
in	-8.00716
▁ذ	-8.00735
▁بهترين	-8.01066
▁اُ	-8.01322
▁آر	-8.01388
▁عليه	-8.01437
▁ٻه	-8.01528
▁ڪل	-8.01565
▁آسان	-8.01675
▁سوال	-8.01724
من	-8.02316
▁ويندي	-8.02487
▁مطلب	-8.02508
▁چي	-8.02785
▁هجي	-8.03309
▁رکي	-8.03469
▁خط	-8.03574
▁وٺي	-8.03577
▁منهنجو	-8.03674
r	-8.03933
b	-8.04017
▁ٻي	-8.04023
▁ويب	-8.04086
▁ٻار	-8.04496
▁رات	-8.04507
▁تر	-8.04551
D	-8.04556
رن	-8.0492
▁دوست	-8.05135
▁پئي	-8.0543
▁10	-8.06196
گي	-8.0627
▁مت	-8.06362
▁اوهان	-8.06376
في	-8.06396
▁وانگر	-8.06457
ئن	-8.06485
دو	-8.06513
▁پيار	-8.06636
▁پوء	-8.0684
▁هيٺ	-8.06966
A	-8.07002
ar	-8.07197
در	-8.07322
▁دور	-8.07439
کي	-8.07467
▁ذريعي	-8.07605
▁است	-8.07821
مان	-8.0783
يشن	-8.07888
▁چين	-8.07971
9	-8.08315
▁طرف	-8.08935
8	-8.09027
از	-8.09134
▁كل	-8.09264
▁عمر	-8.10335
▁يو	-8.1036
▁ترقي	-8.10414
0	-8.10608
▁توھان	-8.11046
▁ظاهر	-8.11068
an	-8.11096
▁سن	-8.11114
▁6	-8.11186
▁مٿي	-8.1155
▁پا	-8.11644
er	-8.11695
▁صحيح	-8.11958
▁خوش	-8.12071
پر	-8.12122
▁پاڪستان	-8.12161
▁بل	-8.1225
▁سم	-8.12756
▁ھ	-8.12859
▁ڏسي	-8.13376
▁ڪيل	-8.13523
l	-8.13817
ڄ	-8.14054
ing	-8.14125
اف	-8.14865
▁اڃا	-8.15031
▁خدا	-8.15035
ڇ	-8.15064
▁حقيقت	-8.15113
ره	-8.15274
▁ھو	-8.15598
▁واپس	-8.15611
▁اثر	-8.16315
▁اوھان	-8.1644
C	-8.16761
ڪا	-8.16858
▁دوران	-8.1799
ههههههههه	-8.18085
▁بهتر	-8.18208
▁جه	-8.18496
▁نو	-8.18584
▁سفر	-8.18824
جا	-8.1891
▁بال	-8.18995
▁ڌ	-8.19104
▁والله	-8.19308
▁جاري	-8.1941
ڊي	-8.19596
▁حصو	-8.19676
▁اول	-8.19829
▁بن	-8.19957
▁اتي	-8.2
▁حڪومت	-8.20274
▁ڪيترن	-8.20525
▁علي	-8.20542
▁رنگ	-8.20637
▁داخل	-8.20667
▁اب	-8.20671
▁ٻاهر	-8.20821
▁ائين	-8.21002
ود	-8.21102
▁ضروري	-8.21595
▁گو	-8.21821
عي	-8.22007
▁مثال	-8.22007
▁فر	-8.22099
▁مواد	-8.22381
▁رد	-8.2281
▁مس	-8.22863
T	-8.23177
▁لڳي	-8.23511
ِي	-8.23627
al	-8.23835
▁جتي	-8.23853
ئر	-8.23871
▁ط	-8.23958
▁ولا	-8.24075
ته	-8.2434
▁هل	-8.24514
▁ھن	-8.24729
جه	-8.24736
يس	-8.24914
▁سندن	-8.25121
وم	-8.25193
on	-8.2522
▁صاحب	-8.25528
/	-8.26119
▁7	-8.26125
▁ڏسڻ	-8.26247
ائين	-8.26281
ؤ	-8.26368
فت	-8.26384
▁C	-8.26565
وري	-8.26779
▁محسوس	-8.27076
▁ار	-8.27229
P	-8.27551
ئين	-8.2756
▁پهريون	-8.2761
فر	-8.2786
ڏي	-8.2812
▁مد	-8.2826
▁چا	-8.28274
▁ڪجھ	-8.28559
▁P	-8.28707
▁شو	-8.28925
؟"	-8.29091
▁بيان	-8.2935
00	-8.29443
▁8	-8.2961
or	-8.29951
▁هوندا	-8.30232
▁معيار	-8.3034
▁گه	-8.30459
▁T	-8.30648
▁ڏني	-8.30658
▁ض	-8.30748
▁رکڻ	-8.3083
▁چه	-8.3095
▁اسين	-8.3096
ٻ	-8.31152
▁خلاف	-8.31208
▁پاڻي	-8.31213
▁پير	-8.31224
▁گھر	-8.31276
▁على	-8.31348
▁صورت	-8.31431
▁آمريڪا	-8.31549
▁تبديل	-8.31671
▁آخر	-8.31852
▁چونڊ	-8.31897
▁اھو	-8.32115
ڪن	-8.32217
ائن	-8.32285
شت	-8.32453
▁مح	-8.32483
سر	-8.32632
▁تيار	-8.32644
▁تن	-8.33095
▁تا	-8.3313
ھي	-8.33279
▁ٺ	-8.33291
I	-8.33535
چي	-8.33542
▁طرفان	-8.33609
▁ٺاهي	-8.33644
ــــ	-8.33729
▁ٿيندي	-8.33824
▁سچ	-8.33926
▁جنگ	-8.33956
▁ٻن	-8.34035
▁لائن	-8.34293
▁رڳو	-8.34531
▁s	-8.34596
▁وارا	-8.34813
▁چو	-8.34902
▁سگهجي	-8.35031
هر	-8.35234
▁دو	-8.35314
▁انداز	-8.3541
اه	-8.35448
▁تعليم	-8.35819
▁اف	-8.35899
▁اختيار	-8.35987
ڙا	-8.36082
E	-8.36687
▁لک	-8.36809
نس	-8.36868
اح	-8.3695
▁تنهنجي	-8.37137
m	-8.3721
▁پري	-8.3722
▁پسند	-8.37263
▁نن	-8.37282
▁مشهور	-8.37368
▁چوڻ	-8.37667
وار	-8.37885
▁قانون	-8.37913
به	-8.38071
w	-8.38076
▁له	-8.38109
▁پيداوار	-8.38297
en	-8.38664
▁زمين	-8.38686
ضي	-8.38766
اهي	-8.38791
▁M	-8.3914
O	-8.39379
▁مقصد	-8.39625
▁ايران	-8.39838
▁لڳ	-8.39871
▁*	-8.39875
مو	-8.40006
▁ڏيو	-8.40017
▁گر	-8.40035
▁اپ	-8.40094
مر	-8.40169
▁تان	-8.40272
▁ڊيٽا	-8.40413
▁آف	-8.4045
▁هوءَ	-8.40895
▁ڪير	-8.41069
▁وس	-8.41173
▁وڃڻ	-8.41838
▁قوم	-8.42001
▁نظام	-8.42203
▁ڇاڪاڻ	-8.42203
مل	-8.42204
▁بين	-8.42364
es	-8.42374
▁ڦ	-8.42385
▁تج	-8.42551
▁سخت	-8.42578
▁عورت	-8.42906
ڍ	-8.43074
▁حد	-8.43381
▁قابل	-8.43393
▁ٿيون	-8.43394
ڪل	-8.43425
▁ڪيترائي	-8.43756
رس	-8.44007
▁اڪثر	-8.44034
▁آيا	-8.44045
▁پل	-8.44327
▁خان	-8.44396
▁وڌ	-8.44718
ed	-8.45072
▁مرد	-8.4531
▁B	-8.45357
تن	-8.45388
▁ٻنهي	-8.45413
▁انهيءَ	-8.45447
▁هميشه	-8.45535
يش	-8.45614
ندس	-8.45838
▁پٽ	-8.46
جر	-8.46116
داري	-8.46302
سو	-8.46333
▁اجازت	-8.46637
▁فراهم	-8.46638
▁ٽو	-8.47728
▁اسٽ	-8.47789
▁آخري	-8.47798
▁فل	-8.47843
▁انت	-8.47844
▁يقين	-8.48046
h	-8.48437
ههههههههههه	-8.48736
▁هذا	-8.48936
▁هنن	-8.49078
▁لفظ	-8.49132
يڪ	-8.49215
▁جان	-8.49226
وب	-8.49376
▁ڏٺو	-8.49405
▁مونکي	-8.4944
▁گل	-8.49842
M	-8.49864
f	-8.49939
▁سگھي	-8.50084
▁ڪونه	-8.50198
▁نٿو	-8.50283
▁سٺو	-8.50315
]	-8.504
▁خود	-8.50875
▁بنيادي	-8.51103
▁20	-8.51464
▁موضوع	-8.51561
اق	-8.51731
▁بار	-8.51783
re	-8.51797
▁پنج	-8.51909
سا	-8.5213
مون	-8.52189
▁ره	-8.52269
▁جيتوڻيڪ	-8.52348
v	-8.5237
▁خريد	-8.5238
▁تحقيق	-8.52495
▁ڄڻ	-8.52541
▁تصوير	-8.52661
▁محفوظ	-8.52692
▁توکي	-8.52803
▁c	-8.52851
حد	-8.52883
▁فا	-8.52948
ضحك	-8.52972
▁شروعات	-8.53088
ائون	-8.53117
▁ڏس	-8.53127
هههههههه	-8.53209
▁باري	-8.53313
▁دا	-8.53361
▁اميد	-8.53383
▁وارن	-8.53479
▁ڏا	-8.53564
▁قائم	-8.53581
سين	-8.53915
يئر	-8.53932
▁واقعي	-8.54007
▁اج	-8.54194
▁آهيو	-8.5432
x	-8.54556
▁الا	-8.54618
▁طريقي	-8.5463
هين	-8.54674
▁آواز	-8.54682
▁گي	-8.54695
▁[	-8.54753
▁پروگرام	-8.54828
ستان	-8.55078
▁آزاد	-8.55146
▁کن	-8.55323
▁مارڪيٽ	-8.5538
▁شيء	-8.55686
زم	-8.56019
▁په	-8.56022
▁شا	-8.56114
▁مار	-8.56142
▁معلومات	-8.56276
رت	-8.56282
▁ميل	-8.5668
▁چار	-8.56824
▁چاهيو	-8.57014
▁پيا	-8.57097
▁خدمت	-8.57163
▁قدم	-8.57174
▁نئون	-8.57212
▁شادي	-8.57289
▁ھي	-8.57459
▁کڻي	-8.57479
▁رک	-8.57481
le	-8.57695
▁شين	-8.57835
وٽ	-8.57845
▁وه	-8.58182
▁رس	-8.58325
دن	-8.58355
▁هجڻ	-8.5882
▁منهن	-8.58862
▁اح	-8.59033
="	-8.59064
▁علم	-8.59138
▁محبت	-8.59271
بت	-8.59313
▁وال	-8.59498
▁بنياد	-8.59696
▁اسلامي	-8.59763
ic	-8.59844
▁حال	-8.59857
ro	-8.59862
▁ھڪ	-8.59884
▁مطابق	-8.6008
▁اسڪول	-8.60108
تك	-8.60155
▁ات	-8.60275
زا	-8.60346
شا	-8.60391
▁پنھنجي	-8.60404
▁حالت	-8.60448
▁D	-8.60449
▁جم	-8.60523
▁ابو	-8.60539
▁روز	-8.6063
▁نالي	-8.60642
وس	-8.60743
شن	-8.60801
اج	-8.60933
▁بو	-8.60974
۔	-8.61119
مت	-8.61235
▁خراب	-8.61582
▁سل	-8.6162
هو	-8.61657
>	-8.61679
▁<	-8.61765
▁درخواست	-8.62225
▁کانپوءِ	-8.62225
▁پڪ	-8.62314
ڪٽ	-8.62335
شر	-8.62539
▁,	-8.62567
هڻ	-8.62776
▁گهڻي	-8.63243
▁آه	-8.63254
▁b	-8.63276
▁سيڪڙو	-8.63313
▁ويندا	-8.63329
▁چڪو	-8.63398
▁سگهن	-8.63974
▁L	-8.64059
▁مناسب	-8.64193
▁9	-8.64221
▁چاهي	-8.6458
▁هههه	-8.64724
ڪري	-8.64759
▁ٻارن	-8.65177
▁شر	-8.65191
▁فارم	-8.65695
▁مفت	-8.65734
▁ٻڌايو	-8.65843
▁غلط	-8.65865
▁تع	-8.65872
▁صنعت	-8.65916
▁ٻيهر	-8.65967
ههههههه	-8.65978
كر	-8.66018
▁هيو	-8.66121
▁آباد	-8.66188
▁ڏيکاري	-8.66365
▁سڄي	-8.66373
ٽو	-8.6641
قا	-8.66549
انه	-8.66743
B	-8.66807
▁فقط	-8.66931
▁رياست	-8.67274
دم	-8.67319
▁ست	-8.67405
▁ڏسو	-8.67413
▁اچڻ	-8.67504
▁فلم	-8.67721
▁شخص	-8.67745
▁جسم	-8.67748
ڊر	-8.678
at	-8.68061
R	-8.68117
▁ڪهڙي	-8.68189
ڙن	-8.68208
ئون	-8.68222
▁ڄ	-8.683
▁سائين	-8.684
▁ڪيس	-8.68422
▁سطح	-8.68473
عرف	-8.6895
_	-8.69171
▁فيصلو	-8.69309
▁که	-8.69501
▁15	-8.69627
▁وٺ	-8.69773
▁ڊاڪٽر	-8.69866
▁باقي	-8.69885
▁پاران	-8.69897
▁حس	-8.70078
▁18	-8.70104
it	-8.70189
رج	-8.70204
▁G	-8.70422
▁ذهن	-8.70613
▁ڪافي	-8.70689
▁ٻولي	-8.70837
▁سياسي	-8.70843
▁پرو	-8.70919
▁نوجوان	-8.71215
▁فن	-8.71329
▁واحد	-8.71415
سٽر	-8.71621
▁تعلق	-8.71631
پو	-8.71634
نٽ	-8.718
▁p	-8.71956
L	-8.72306
▁پس	-8.72314
▁پن	-8.7232
ڻي	-8.72397
▁اش	-8.72583
▁اڳتي	-8.72637
▁ورتو	-8.72752
▁نفس	-8.7279
▁مال	-8.72865
سل	-8.72927
▁ايڪس	-8.73226
▁لك	-8.73347
▁اُن	-8.73441
▁پاس	-8.73614
▁انساني	-8.73836
ّ	-8.73973
▁پار	-8.74211
▁اٿ	-8.74476
▁راند	-8.74522
▁عالمي	-8.74773
▁ڪهاڻي	-8.74831
▁سک	-8.74834
▁پارٽي	-8.74874
اءِ	-8.74897
et	-8.75109
▁نقصان	-8.75135
▁سُ	-8.75152
us	-8.75313
▁I	-8.75441
▁ميڊيا	-8.75508
▁مُ	-8.75723
ولي	-8.75808
▁ممڪن	-8.75817
▁ايندڙ	-8.75869
خت	-8.75876
N	-8.75901
امي	-8.75908
▁رپورٽ	-8.76063
▁ڀا	-8.76231
▁ضرور	-8.76421
▁ڪاروبار	-8.76512
▁بت	-8.76768
ثر	-8.76841
▁عرب	-8.77096
▁شيون	-8.77127
▁وڊيو	-8.77269
▁اڻ	-8.77284
▁خوبصورت	-8.77375
▁موت	-8.77517
وز	-8.77522
▁سمجه	-8.77526
▁ڳوٺ	-8.77565
▁اڪائونٽ	-8.7769
▁H	-8.77886
▁ڪٿي	-8.7822
▁آمريڪي	-8.78259
▁عن	-8.78391
مين	-8.78523
▁پڙه	-8.78553
▁مج	-8.786
as	-8.78677
اڪ	-8.78746
گو	-8.78753
▁200	-8.78925
▁جمع	-8.79144
گه	-8.79152
▁ترتيب	-8.79153
▁سج	-8.79213
▁السلام	-8.79254
▁جدا	-8.7931
▁ذاتي	-8.79349
▁تح	-8.79715
▁ايل	-8.79817
ءِ	-8.79833
ههههه	-8.79924
▁ڪردار	-8.80027
▁حڪم	-8.80043
▁سڏ	-8.80174
رڪ	-8.80191
الي	-8.80248
▁ملڪن	-8.80307
▁مهرباني	-8.80312
▁مشين	-8.80374
▁وڻ	-8.80437
▁وار	-8.80458
▁اسڪ	-8.8058
▁ٽيڪنالاجي	-8.80766
جھ	-8.80818
▁پوري	-8.80822
▁اعلان	-8.8116
صل	-8.81337
▁دير	-8.814
▁ڳولي	-8.81601
is	-8.81712
▁لکڻ	-8.81742
▁واقع	-8.81801
▁12	-8.81854
▁الح	-8.81903
٪	-8.8201
▁آءٌ	-8.82142
▁الس	-8.82249
▁زي	-8.82257
▁قدر	-8.82264
▁مضمون	-8.82341
G	-8.82436
▁صدر	-8.82679
تون	-8.82718
▁نمبر	-8.82741
▁سسٽم	-8.82872
▁تب	-8.82979
▁بڻجي	-8.8302
▁صحت	-8.83181
▁مسئلو	-8.83207
ے	-8.83404
عت	-8.83688
▁طاقت	-8.83747
▁پڇ	-8.84014
▁w	-8.84065
▁انھن	-8.84084
▁E	-8.84284
▁جديد	-8.84515
يف	-8.84589
▁تڏهن	-8.8475
▁سٺي	-8.84761
▁f	-8.85016
▁حقيقي	-8.85226
چر	-8.8594
اڻو	-8.86188
▁ڏنل	-8.86284
▁>	-8.86285
▁0	-8.86451
▁لوڊ	-8.86459
▁چئي	-8.86489
▁هنڌ	-8.86643
▁گوگل	-8.86748
▁وڌي	-8.86753
▁گھ	-8.86948
▁لکي	-8.87072
▁سين	-8.87086
ڃ	-8.87306
ارو	-8.87433
▁اسلام	-8.87574
▁صح	-8.87644
▁انتظام	-8.87845
th	-8.88037
▁ٽن	-8.88056
▁عوام	-8.88137
▁طريقو	-8.88138
▁اصلي	-8.88165
▁ايپليڪيشن	-8.88264
▁تعمير	-8.88406
▁سيٽ	-8.88459
ٽنگ	-8.8855
▁بينڪ	-8.88866
▁سامان	-8.88987
ـــــ	-8.89015
▁ٿ	-8.89033
فا	-8.89151
ٽا	-8.89436
▁پڙهي	-8.89513
▁ٿيا	-8.89544
▁ٺاهڻ	-8.89607
▁وڃن	-8.89636
▁قبول	-8.8968
▁اعلي	-8.89707
▁ڪجي	-8.8972
▁30	-8.89736
▁تبديلي	-8.89744
20	-8.89746
▁احساس	-8.89864
▁حا	-8.89941
▁هاڻ	-8.90097
▁ٽيم	-8.90214
▁عورتن	-8.90227
▁مقرر	-8.90252
▁ماءُ	-8.90334
▁قا	-8.90342
▁F	-8.90456
▁لڳو	-8.90755
▁N	-8.90777
ئس	-8.90828
▁يونيورسٽي	-8.90894
سم	-8.9106
▁رب	-8.9113
▁سه	-8.91232
▁سمجھ	-8.91291
▁ٻڌ	-8.91567
▁اق	-8.91633
">	-8.91761
▁حفاظت	-8.91835
▁واضح	-8.91893
عد	-8.91935
▁وٺڻ	-8.91961
▁سماجي	-8.92004
▁تيز	-8.92047
مع	-8.92099
▁پورو	-8.92163
▁قومي	-8.92251
نھن	-8.92279
▁پوليس	-8.92296
▁جھ	-8.92322
▁آل	-8.92354
▁سروس	-8.92571
▁روح	-8.92643
▁گا	-8.92704
ااا	-8.92923
رف	-8.93009
حب	-8.93186
▁رهڻ	-8.93252
▁الب	-8.93324
▁ٽا	-8.93647
▁حضرت	-8.93669
▁وڃ	-8.93769
▁علاج	-8.9382
▁حمل	-8.94031
▁پوندو	-8.94308
▁گذريل	-8.94393
▁صارف	-8.94429
▁ڳالهائي	-8.94468
▁صدي	-8.94529
▁اك	-8.94582
▁start	-8.94711
▁ڀيرو	-8.95245
▁بلڪل	-8.95443
پا	-8.9557
▁نٿا	-8.95652
▁خاندان	-8.95695
▁انگ	-8.95777
ur	-8.95812
▁رھ	-8.95864
ئل	-8.96014
▁اکين	-8.96034
▁dur	-8.96067
▁مسافر	-8.96069
▁موڪل	-8.96071
▁هلي	-8.96084
▁حوالي	-8.96189
▁صاف	-8.96193
صر	-8.96295
▁ميمبر	-8.96298
▁صلاحيت	-8.96306
اڙي	-8.96381
▁تفصيل	-8.96447
▁موجب	-8.96525
▁گراهڪن	-8.96631
اءُ	-8.96684
▁مير	-8.9674
▁گھٽ	-8.9683
▁ڪوبه	-8.96877
▁جلد	-8.96999
▁خرچ	-8.97063
▁ڌار	-8.97215
▁الع	-8.97244
000	-8.97248
دل	-8.97318
▁مٿان	-8.97757
▁اسپ	-8.97872
▁سنگ	-8.97903
▁اوزار	-8.97909
▁يه	-8.97959
▁100	-8.98217
▁ايڊ	-8.98278
▁خير	-8.98466
▁مضبوط	-8.98602
▁•	-8.9861
▁ھڪڙو	-8.98739
لينڊ	-8.98757
▁رقم	-8.98843
▁پڙهڻ	-8.98873
▁متاثر	-8.98914
▁بڻائي	-8.98943
▁فرق	-8.98965
▁انتظار	-8.98992
▁ٻيا	-8.99056
lo	-8.99124
اسي	-8.99221
▁جر	-8.99302
▁پاسي	-8.99354
▁عظيم	-8.99462
▁ڪين	-8.99509
▁ڪلاڪ	-8.99532
▁فائ	-8.99565
▁ڏيندو	-8.99581
▁ث	-8.99675
▁جذب	-8.99701
▁چڪا	-8.99723
▁تعداد	-8.99866
▁موجوده	-8.99992
ad	-9.00029
▁اع	-9.00107
▁هفتي	-9.00174
▁ڏک	-9.00179
▁لل	-9.00186
▁نموني	-9.00255
▁وجه	-9.00475
▁ڍ	-9.00516
ايا	-9.00726
ھر	-9.00762
گا	-9.00891
▁پوسٽ	-9.00931
▁منتقل	-9.00964
▁مالي	-9.01004
▁اهڙو	-9.01077
."	-9.01224
▁مين	-9.0127
▁گڏيل	-9.01271
▁هزار	-9.01323
▁کا	-9.01374
طر	-9.01379
▁صبح	-9.01388
ذا	-9.01413
ra	-9.01567
ri	-9.01602
▁لازمي	-9.0163
▁ڪنٽرول	-9.01683
▁شرح	-9.01751
▁ڀر	-9.01757
▁صلاح	-9.01833
▁ٻڌائي	-9.01882
▁11	-9.01887
▁فرم	-9.01903
وڊ	-9.02012
▁مهيا	-9.02114
ch	-9.02282
ol	-9.02449
▁1.	-9.0255
▁يورپ	-9.02629
am	-9.02911
▁نمي	-9.02925
▁مري	-9.02993
▁سواءِ	-9.02998
▁صف	-9.03
▁ڌيان	-9.03076
▁مليو	-9.03101
▁عملي	-9.03239
عه	-9.03265
▁ايف	-9.03277
▁ايه	-9.03641
z	-9.03747
▁إ	-9.03778
▁خواب	-9.03989
▁وش	-9.04035
▁هاي	-9.04189
▁وضاحت	-9.04201
st	-9.04331
▁گم	-9.04446
▁زندگيءَ	-9.04685
▁محمد	-9.04802
▁آڻي	-9.04816
▁a	-9.0502
ٽس	-9.05093
▁m	-9.05134
▁واڌ	-9.05142
▁موسم	-9.05211
▁ڪهڙو	-9.05279
▁عدالت	-9.05443
▁بخش	-9.05597
▁پنهنجن	-9.0561
▁رکيو	-9.05655
جڻ	-9.05713
▁نسل	-9.05724
▁سگھن	-9.05726
▁يار	-9.06112
▁آرام	-9.0618
▁ذڪر	-9.06243
▁سمجهي	-9.06253
▁لم	-9.06253
▁فري	-9.06271
دري	-9.06292
il	-9.06301
ٍ	-9.06363
▁پهچي	-9.06445
ٹ	-9.06448
اڳ	-9.06468
▁وزير	-9.06629
▁پريشان	-9.06713
▁دعا	-9.06963
ڪڻ	-9.0716
▁سوچ	-9.07245
▁ساڳي	-9.07336
رب	-9.07524
ههههههههههههه	-9.07566
قول	-9.07582
▁روم	-9.07649
الله	-9.07657
ڱ	-9.07816
▁تہ	-9.07846
رد	-9.07847
▁نور	-9.07932
▁منٽ	-9.08049
▁بق	-9.08235
▁W	-9.08276
ائيٽ	-9.08343
▁منظور	-9.08577
▁اِ	-9.08698
▁برابر	-9.08887
▁مرڪز	-9.08894
▁نص	-9.08917
ژ	-9.08918
ڪشن	-9.09087
▁تنظيم	-9.09091
▁سوچي	-9.09124
▁علاوه	-9.09264
▁پوي	-9.09309
وف	-9.09504
ٿي	-9.09517
▁نوڪري	-9.09585
هاي	-9.09695
▁خل	-9.09748
▁ِ	-9.09867
▁مها	-9.09952
▁ڪال	-9.10044
▁اَ	-9.10072
نداسين	-9.10073
▁نام	-9.10092
▁رسائي	-9.10139
گار	-9.1032
▁تصديق	-9.10395
ne	-9.10413
▁سب	-9.10493
ايل	-9.10497
▁جنھن	-9.10498
ڙهي	-9.10498
ءُ	-9.10611
▁علائقي	-9.10658
▁پيام	-9.10698
▁شڪ	-9.10887
▁بحال	-9.10946
▁گذري	-9.11047
▁شيءِ	-9.1113
un	-9.1119
▁رکو	-9.11262
▁ڪارڪردگي	-9.11362
▁سنڌي	-9.11364
فه	-9.11412
▁وڪرو	-9.11826
گاه	-9.11831
el	-9.11837
▁استاد	-9.11874
▁هيون	-9.11935
▁مب	-9.11942
▁ايپ	-9.11987
▁ول	-9.12062
H	-9.12151
▁جمهوري	-9.12161
▁گروپ	-9.12343
▁پاڪ	-9.12424
▁رفتار	-9.12438
▁رستو	-9.12514
▁زال	-9.12533
▁وين	-9.12554
▁سپ	-9.1272
▁حيثيت	-9.12786
▁R	-9.12791
▁دان	-9.12909
▁14	-9.12931
▁آزادي	-9.1294
▁سگهون	-9.12993
▁سائ	-9.13
رز	-9.13047
▁کو	-9.13072
گير	-9.13089
▁جلدي	-9.13107
ائل	-9.13142
▁پهريان	-9.13147
▁سڌ	-9.13204
▁ڪلڪ	-9.13221
▁ڊالر	-9.1324
▁گرم	-9.1328
▁جهاز	-9.1336
▁حر	-9.13372
▁آفيس	-9.13403
▁سرڪاري	-9.13405
چو	-9.13405
▁ماڊل	-9.13516
▁آس	-9.13538
▁ڇوڪري	-9.1355
▁قل	-9.13594
▁ڪراچي	-9.13598
▁روشني	-9.13609
▁ٺهيل	-9.13689
▁جيڪڏھن	-9.13777
▁تنهنڪري	-9.13846
j	-9.14049
▁فيصل	-9.14067
▁پُ	-9.14125
▁هيءَ	-9.14272
▁الف	-9.14504
▁ماحول	-9.14507
▁ڪارڊ	-9.14524
▁بنا	-9.14577
?	-9.14596
▁وجود	-9.14602
افي	-9.14716
▁مسلمان	-9.14733
▁تجربو	-9.1487
F	-9.1497
▁ماري	-9.1506
▁زبان	-9.1507
▁سائنس	-9.1512
▁غلطي	-9.15138
▁شكرا	-9.15235
▁شد	-9.15241
▁قر	-9.15274
▁ماهر	-9.15346
گھ	-9.15506
▁تصور	-9.15586
▁سگھو	-9.1571
▁زور	-9.15775
▁ڪريان	-9.15929
▁ورڪ	-9.15934
▁ھڪڙي	-9.15939
▁پڇيو	-9.16053
▁اصول	-9.1614
▁نوٽ	-9.16161
▁دار	-9.16173
▁هيچ	-9.16227
▁شرط	-9.16263
▁O	-9.16503
ازي	-9.16586
▁مخ	-9.16619
▁؛	-9.17055
U	-9.17208
▁ڪمپيوٽر	-9.17278
▁ملازم	-9.17377
▁ايئر	-9.17412
ادي	-9.17628
▁جد	-9.17834
▁عاد	-9.17915
▁موٽ	-9.17916
▁غريب	-9.17942
▁بيماري	-9.18004
▁يک	-9.18075
▁قتل	-9.18145
▁مالڪ	-9.18258
▁لاڳو	-9.18296
دگي	-9.1831
آآ	-9.1831
▁ده	-9.18492
▁ڊائون	-9.18516
پور	-9.18555
▁پيغام	-9.186
▁شه	-9.18623
▁ايندو	-9.18642
▁شاعر	-9.18643
▁تخ	-9.18644
ec	-9.18683
▁چون	-9.18696
ter	-9.18744
▁گري	-9.18771
▁رش	-9.19005
ــــــ	-9.19084
▁in	-9.19125
▁ڏاڍو	-9.19172
▁گفت	-9.19293
▁پليٽ	-9.19359
▁جاءِ	-9.19421
▁تم	-9.19475
▁زين	-9.19489
▁مثل	-9.19678
لف	-9.19735
▁حسين	-9.19768
▁الي	-9.19801
▁لڪ	-9.20077
▁گذاري	-9.2012
▁راه	-9.20275
وش	-9.20284
▁ڪپ	-9.20325
ائو	-9.20449
ووو	-9.20462
▁ساز	-9.20505
▁انٽرنيٽ	-9.20615
اً	-9.20629
▁آءِ	-9.2068
▁مستقبل	-9.20712
▁ٻڌي	-9.20752
▁ههه	-9.20759
▁آب	-9.20773
▁بلاگ	-9.2079
▁ڳالهيون	-9.20927
▁نشان	-9.20983
▁ڳالھ	-9.21004
▁کل	-9.21029
▁کائي	-9.21056
▁جز	-9.21088
▁حلو	-9.2115
▁بلا	-9.21153
▁نيو	-9.21282
▁ولي	-9.21338
ــــــــ	-9.21343
▁ڀري	-9.21818
▁دٻ	-9.21824
▁اد	-9.22046
▁درد	-9.22066
▁خوشي	-9.22131
▁گرمي	-9.22154
▁ڪونهي	-9.22212
بط	-9.22293
علي	-9.22389
▁ويئي	-9.22403
▁ٿيندا	-9.2248
ڌي	-9.22532
▁بحث	-9.2261
▁ڪڍي	-9.22761
▁امير	-9.22862
▁انسٽال	-9.22972
▁اسڪرين	-9.23085
▁وزن	-9.23096
▁سور	-9.23107
▁لکيو	-9.23122
▁اللي	-9.2319
▁گول	-9.23213
▁جانور	-9.23343
▁جل	-9.23372
▁اخت	-9.23375
▁معلوم	-9.23407
▁هڪڙي	-9.23484
▁$	-9.23502
ئو	-9.23758
▁ڊگهي	-9.23769
ً	-9.23853
▁دفعو	-9.23867
▁سرگرمي	-9.23877
▁بخ	-9.23951
▁پور	-9.23975
and	-9.2406
تم	-9.24095
▁اڳيان	-9.24317
▁شاء	-9.24322
▁شڪار	-9.2435
▁ـ	-9.24416
▁ڪاميابي	-9.2475
▁چند	-9.24809
▁17	-9.2484
▁رهندو	-9.24887
▁سنڀال	-9.25076
▁واٽ	-9.25089
▁قص	-9.25124
▁ثابت	-9.25178
▁موبائل	-9.25381
▁=	-9.25448
▁ادب	-9.25452
▁13	-9.25527
فق	-9.25547
▁ايمان	-9.25569
▁امام	-9.25718
▁تنهنجو	-9.25768
▁روس	-9.25819
li	-9.25886
la	-9.25943
▁عالم	-9.25997
▁ايندي	-9.26084
▁ڪامياب	-9.26117
▁شڪل	-9.26118
▁سپر	-9.26154
▁ريت	-9.26196
▁اچ	-9.263
▁ٿيندڙ	-9.26341
▁حصي	-9.26405
▁to	-9.26424
▁25	-9.26442
▁ساڻ	-9.26487
▁هست	-9.26582
▁تقريب	-9.26625
▁انگريزي	-9.26647
▁اگر	-9.26649
▁ايترو	-9.2683
▁50	-9.26855
▁روايت	-9.26931
▁اھي	-9.27251
▁قبل	-9.27261
ٽڪ	-9.2729
▁سگهان	-9.27336
ائر	-9.27359
▁چور	-9.27585
▁ڪئين	-9.27637
▁يقيني	-9.27637
▁حياتي	-9.27685
▁16	-9.27722
▁الاقوامي	-9.27747
▁بهرحال	-9.27748
▁چر	-9.27759
▁هڻ	-9.27923
▁مخصوص	-9.2793
▁صورتحال	-9.28073
ay	-9.28106
▁سوشل	-9.28281
▁ڊرائيو	-9.28397
▁جڳ	-9.28412
ـــــــ	-9.28414
ul	-9.28505
▁پيءُ	-9.28515
▁اڳواڻ	-9.28525
▁ٽر	-9.28636
▁ٽرين	-9.28693
▁سار	-9.28879
▁مه	-9.28897
▁روي	-9.2895
▁اڌ	-9.29086
▁مقابلي	-9.29321
▁ميدان	-9.29355
▁بورڊ	-9.29431
▁ڌر	-9.29444
▁مخالف	-9.29535
▁چونڊيو	-9.29599
ve	-9.29623
▁ٿورو	-9.29797
▁منهنجا	-9.29804
▁ڪوڊ	-9.30014
▁U	-9.30037
▁زمان	-9.3014
▁حتى	-9.30173
▁اهڙا	-9.302
▁روان	-9.30382
he	-9.30416
قص	-9.30456
▁تك	-9.30524
▁ڇپ	-9.3068
▁عرصي	-9.30705
▁سگهيو	-9.30755
▁جيستائين	-9.30966
▁سست	-9.31121
▁هدايت	-9.31136
▁موڪلي	-9.31167
ce	-9.31259
▁ڪُ	-9.31312
ائيڊ	-9.31399
▁تق	-9.31499
▁وڃو	-9.31707
▁هوس	-9.31801
ارڻ	-9.31801
▁شهري	-9.31808
ac	-9.31854
▁قانوني	-9.31919
▁حساب	-9.31998
▁رسال	-9.32063
Y	-9.32109
▁هال	-9.32111
▁شام	-9.32127
▁ايپل	-9.32161
خر	-9.32207
پس	-9.3225
▁فيس	-9.32273
▁قديم	-9.32273
▁پائي	-9.32351
▁روڪي	-9.32354
▁پيٽ	-9.32415
▁سياست	-9.32446
▁ڌرتي	-9.32824
▁جرمن	-9.32845
▁اسم	-9.3285
▁پنهنجا	-9.32874
قل	-9.33043
▁ڪندڙن	-9.33071
▁پهچ	-9.3314
▁لنڪ	-9.33188
▁انقلاب	-9.33313
▁کولڻ	-9.33315
▁ڳولا	-9.33321
▁سمنڊ	-9.33326
*	-9.33444
▁هڪڙو	-9.33606
راح	-9.3364
ation	-9.33685
▁ڏين	-9.33843
ٿا	-9.33845
▁اضافي	-9.33975
▁ميٽر	-9.34031
▁ملاقات	-9.34086
▁چوي	-9.34261
▁نڪري	-9.34326
▁ڏه	-9.34377
گراف	-9.34464
▁انتي	-9.34526
▁مارڪيٽنگ	-9.34538
▁نيٽ	-9.34561
▁حالتن	-9.34594
▁وڏا	-9.3465
▁گهڻا	-9.34711
ْ	-9.34866
▁الج	-9.34888
▁ملڻ	-9.34958
▁باوجود	-9.34978
▁نٿي	-9.34979
▁سوچيو	-9.3504
▁جهڙوڪ	-9.35107
حر	-9.35108
▁جڳهه	-9.35116
▁دوا	-9.35482
تها	-9.35484
▁سلام	-9.35614
▁اه	-9.35701
▁ڪيم	-9.35731
▁شاگردن	-9.35809
▁نيوز	-9.35813
▁دست	-9.35824
▁منظر	-9.35877
▁کار	-9.35892
▁ڏاڍي	-9.35895
▁فهرست	-9.36216
▁ويجهو	-9.36219
▁K	-9.36295
ir	-9.3644
▁ڊر	-9.3646
▁مختصر	-9.36557
10	-9.36693
▁نڪ	-9.36747
▁ڪرائي	-9.36814
ندر	-9.36836
▁زماني	-9.36841
▁شعب	-9.36853
▁ٻڌڻ	-9.36864
W	-9.36951
▁ٺيڪ	-9.37008
▁#	-9.37009
▁ترين	-9.37058
▁فائدو	-9.37059
▁خوب	-9.37086
[	-9.37296
▁ڀلي	-9.37536
▁لفظن	-9.37671
▁لاڳاپيل	-9.377
▁گرفتار	-9.37701
▁خوا	-9.37794
▁ٻا	-9.37856
▁علائقن	-9.37931
▁خواهش	-9.37933
▁مست	-9.3794
▁وڌائڻ	-9.37944
▁ڪنداسين	-9.37981
▁دوستن	-9.38005
▁ننڍي	-9.38302
▁لائين	-9.38358
▁مشڪل	-9.38405
▁درست	-9.38407
▁امڪان	-9.38535
V	-9.38572
ذر	-9.38598
▁رت	-9.38768
▁كم	-9.38828
▁شاندار	-9.38862
مينٽ	-9.38865
▁چڪي	-9.38994
▁چاهيندا	-9.39005
▁منجه	-9.3906
id	-9.39119
ې	-9.39207
▁وح	-9.39244
▁احس	-9.39245
▁ٽڪر	-9.39416
بار	-9.39447
▁دماغ	-9.39675
▁سهولت	-9.39677
ut	-9.39728
حت	-9.39768
▁مَ	-9.39828
▁ثقافت	-9.40027
ot	-9.40079
پل	-9.40223
▁راندين	-9.40353
ديد	-9.40372
▁2020	-9.40653
▁بڻ	-9.40728
▁know	-9.40736
▁مهينن	-9.40758
▁واپار	-9.40776
▁ڏنا	-9.40904
▁انتهائي	-9.40982
ٿو	-9.41032
ڙڻ	-9.41094
▁ٺاهيو	-9.41151
▁آپريشن	-9.41212
▁سڪ	-9.41326
▁اخبار	-9.4145
نام	-9.41655
▁تخليق	-9.41691
▁وغيره	-9.41692
▁اک	-9.41772
▁يس	-9.41788
▁کٽ	-9.41796
▁فعال	-9.41812
te	-9.41839
▁اعتماد	-9.41929
▁رڪارڊ	-9.4193
ـــــــــ	-9.41939
▁بود	-9.41965
ليٽ	-9.42002
ti	-9.42063
▁رستي	-9.42209
▁ڪئ	-9.42233
▁ڪاروباري	-9.42271
ائپ	-9.42439
▁جهڙي	-9.42609
▁ويس	-9.42619
co	-9.42717
▁ويل	-9.42772
▁کانسواءِ	-9.42772
▁منزل	-9.42805
ly	-9.42852
▁هئڻ	-9.42895
▁غور	-9.42902
▁توانائي	-9.42905
▁24	-9.42926
▁ويئر	-9.42962
▁اکيون	-9.42975
▁ننڊ	-9.42997
▁بابا	-9.43011
▁هندستان	-9.43017
▁سامهون	-9.43018
فل	-9.43107
▁هار	-9.43232
▁جڏھن	-9.43257
▁ناڪام	-9.43268
▁چڱي	-9.4327
▁گاڏي	-9.43312
بير	-9.43327
▁فوج	-9.43341
▁بيشڪ	-9.43393
▁نقش	-9.43529
کر	-9.4355
▁دلچسپ	-9.43566
▁برقرار	-9.43623
50	-9.43629
▁فو	-9.4373
▁اهميت	-9.43741
▁اسپتال	-9.43868
▁بجلي	-9.43873
▁ساٿي	-9.43886
▁راز	-9.44013
▁ليکڪ	-9.44118
▁لکيل	-9.44148
▁رائ	-9.44159
▁يوم	-9.44224
▁سڀئي	-9.44335
اسين	-9.44509
^	-9.44604
▁مئ	-9.44691
▁2019	-9.44742
ers	-9.4492
ڏانهن	-9.44966
▁موقعو	-9.44974
▁چيزي	-9.44996
▁بغير	-9.45012
▁كان	-9.45043
▁مقامي	-9.4507
▁بح	-9.45082
।	-9.45098
▁مڙس	-9.45117
▁جئين	-9.45124
▁پلي	-9.45135
▁قلب	-9.45169
▁ايتري	-9.45267
▁برا	-9.4547
▁حيرت	-9.45475
▁آسمان	-9.45655
▁مگر	-9.45662
▁ڪيائين	-9.45716
زين	-9.45716
▁نتيجي	-9.45722
▁راح	-9.45745
▁تس	-9.45874
▁دين	-9.45916
▁آڻڻ	-9.45977
▁شب	-9.46081
▁سون	-9.46083
ٌ	-9.46093
▁مسلسل	-9.46219
▁عنصر	-9.46252
▁لڳا	-9.46575
text	-9.46595
▁مسئل	-9.46679
▁پال	-9.46699
اڻڻ	-9.46711
▁ڀلا	-9.4675
ڪٽر	-9.46778
▁آرٽيڪل	-9.46847
▁اعليٰ	-9.46854
▁ملين	-9.4686
▁اسٽور	-9.46877
▁بڻائڻ	-9.46904
▁شعر	-9.46906
▁سميت	-9.46927
▁محدود	-9.46974
▁V	-9.4703
▁عجب	-9.47035
▁صارفين	-9.472
▁پوئتي	-9.47226
▁re	-9.473
تاب	-9.47319
▁دلچسپي	-9.47411
▁سَ	-9.47444
ائيءَ	-9.47508
▁ڳالهائڻ	-9.47624
▁موٽي	-9.47638
لام	-9.47705
▁ڪاري	-9.47726
▁کاڌ	-9.47922
▁t	-9.47934
▁لحاظ	-9.47988
ڙھ	-9.48009
رة	-9.48095
ha	-9.48095
▁ڳن	-9.48282
▁قرض	-9.48385
پٽ	-9.48405
▁ڪوڙ	-9.4851
ma	-9.4861
▁قرار	-9.4869
▁مص	-9.48745
▁روڊ	-9.48804
▁فائل	-9.48836
▁تقريبن	-9.48869
▁ڪيتري	-9.48957
داد	-9.49051
▁شما	-9.49063
▁امتحان	-9.49141
▁اجلاس	-9.49143
▁شايع	-9.49156
▁ايڇ	-9.4924
▁اچو	-9.49262
▁نع	-9.49303
▁شكل	-9.49328
▁سمجهيو	-9.49341
▁g	-9.49345
▁نقط	-9.49533
▁ڏينھن	-9.49609
▁شوق	-9.49644
▁دستياب	-9.4966
▁چيائين	-9.4967
▁فڪر	-9.49688
▁اسپين	-9.49767
▁هيءُ	-9.49822
▁چاهيان	-9.49893
▁بص	-9.49917
▁خلاص	-9.4992
▁2018	-9.49933
▁تار	-9.49946
▁عجيب	-9.5006
▁ساڳيو	-9.50148
إ	-9.5022
▁خصوصي	-9.50318
▁مسئلن	-9.50407
▁شاه	-9.50506
▁الڳ	-9.50541
▁ڪيترا	-9.50599
▁ڳولڻ	-9.50702
▁جهڙو	-9.50705
▁تحفظ	-9.51042
ڇا	-9.512
ڷ	-9.51358
▁عم	-9.5137
طلع	-9.51414
▁قرآن	-9.51494
▁وائرس	-9.51494
▁نش	-9.51505
▁اهل	-9.51581
▁بئنڪ	-9.51626
▁مقدار	-9.51698
▁وڌائي	-9.51721
فار	-9.51883
▁سماج	-9.52068
▁خارج	-9.52219
قر	-9.52226
▁ڀيٽ	-9.52346
ڳو	-9.52347
▁سول	-9.52458
▁چپ	-9.52499
فٽ	-9.52544
▁ڪنھن	-9.52642
▁ڪريون	-9.52658
صف	-9.52764
▁امان	-9.53041
▁ادارن	-9.53052
▁خوف	-9.53092
فكر	-9.53151
▁طبق	-9.53264
▁قدرتي	-9.53328
▁ڊوائيس	-9.53356
▁فرانس	-9.53363
▁مف	-9.53391
▁سواء	-9.53406
▁پکي	-9.53458
▁مافي	-9.53485
▁هٽ	-9.53502
▁+	-9.53518
▁خالي	-9.53539
▁ڪندس	-9.53562
▁پوندي	-9.53597
▁لائسنس	-9.53625
▁عشق	-9.53636
K	-9.53666
▁قول	-9.53668
▁براي	-9.53692
▁ڏکڻ	-9.53699
▁آخرڪار	-9.53749
هههههههههههههههه	-9.53794
▁هوٽل	-9.53816
▁پول	-9.53866
▁اڀ	-9.53942
▁مات	-9.53951
▁سام	-9.5405
▁ڏيندي	-9.54063
▁آئين	-9.54234
▁اظهار	-9.54301
▁سافٽ	-9.54353
▁هُن	-9.54366
▁رابطو	-9.54438
▁رح	-9.54447
▁مٺ	-9.54457
▁دشمن	-9.54574
▁هجن	-9.54616
ent	-9.54668
غير	-9.54679
▁حڪمت	-9.54729
▁درواز	-9.54748
▁اڃان	-9.54775
▁تحت	-9.54775
▁ٽيسٽ	-9.5487
جد	-9.54991
اصل	-9.55002
ex	-9.55041
▁خلي	-9.55149
▁سڏيو	-9.55215
▁ڪنڊ	-9.55423
ــــــــــــــــ	-9.55444
▁ماڻھو	-9.55531
▁وَ	-9.55879
▁شخصيت	-9.559
▁يورپي	-9.55986
▁مق	-9.55988
▁شاگرد	-9.56029
▁جسماني	-9.56075
▁h	-9.56114
▁روشن	-9.56252
▁شوي	-9.5648
▁<<	-9.56545
▁سٽ	-9.56657
حق	-9.56785
▁تصويرون	-9.56863
▁مذهب	-9.56924
▁مهيني	-9.56941
▁40	-9.56963
▁ايراني	-9.57001
me	-9.57027
اهو	-9.57079
▁اکر	-9.57128
um	-9.57153
▁ورتي	-9.57171
قد	-9.57184
▁پراڻي	-9.57224
▁اچن	-9.57339
▁ڪسٽم	-9.57352
▁ڀارت	-9.57444
di	-9.57488
▁جاچ	-9.57495
▁گھرجي	-9.57544
▁گن	-9.57566
▁عبدال	-9.57615
▁سلسلي	-9.57617
▁]	-9.57636
▁عوامي	-9.57758
▁ويڊيو	-9.57761
▁مور	-9.5777
mo	-9.57818
▁ساڳئي	-9.57896
▁نہ	-9.57969
▁سڌو	-9.58023
▁حصن	-9.58331
▁الص	-9.58373
▁الخ	-9.58431
▁مذهبي	-9.58593
▁گڏجي	-9.58702
▁ويه	-9.58712
ائٽ	-9.58733
▁اتر	-9.58738
▁ليه	-9.58744
▁پويان	-9.58775
▁چنڊ	-9.58814
▁ڪيترو	-9.58895
▁دڪان	-9.58898
▁وفا	-9.58941
▁اسٽيشن	-9.59121
▁ڊپ	-9.59123
▁وزيراعظم	-9.5917
▁جنسي	-9.59201
▁۔۔۔	-9.59202
▁سزا	-9.59284
▁Android	-9.59313
▁ذات	-9.59378
▁فوجي	-9.59424
▁احتجاج	-9.59456
▁خاموش	-9.59599
▁پروسيس	-9.59747
▁ڪورٽ	-9.59764
▁مارچ	-9.59775
ta	-9.60025
▁سياحت	-9.60036
▁باب	-9.60067
ظر	-9.60096
▁ايئن	-9.60125
▁ڊجيٽل	-9.60173
▁عمارت	-9.60176
▁منظم	-9.60178
▁لباس	-9.60181
▁سگ	-9.60218
ck	-9.60233
ترجم	-9.60262
▁چيڪ	-9.60292
▁منھنجي	-9.60318
جهه	-9.60334
▁ذميواري	-9.6035
اڻا	-9.60375
▁J	-9.60567
▁2017	-9.60618
▁تحريڪ	-9.60753
دخل	-9.60762
▁مجموعي	-9.60895
▁محنت	-9.60968
▁com	-9.6123
صدق	-9.61305
▁اشارو	-9.61376
▁کائڻ	-9.61458
ذي	-9.61492
▁اڪيلو	-9.61625
▁معمولي	-9.6164
▁يع	-9.61744
▁چيز	-9.61752
▁بدران	-9.61789
▁طيب	-9.61945
▁ارب	-9.61946
▁تف	-9.61977
▁برانڊ	-9.61978
▁؟؟	-9.6203
▁فرد	-9.62088
▁پَ	-9.62354
▁طريقا	-9.62452
قدر	-9.62551
▁تجزيو	-9.62653
▁ڪڍ	-9.62703
▁الر	-9.62733
▁هُو	-9.62746
▁فطرت	-9.628
▁پٿر	-9.62804
▁وانا	-9.62953
▁مطابقت	-9.62962
خير	-9.62983
▁خيلي	-9.63006
▁تعريف	-9.63096
▁ھئي	-9.63099
▁ڪَ	-9.63142
▁گراهڪ	-9.63183
▁آڪٽوبر	-9.63243
▁صور	-9.63341
▁والدين	-9.6347
▁دستاويز	-9.63541
😂	-9.63541
تني	-9.63597
▁گيت	-9.63599
▁معنيٰ	-9.63695
▁سموري	-9.63714
▁رهن	-9.63767
Q	-9.63839
ااااااااا	-9.63977
▁فقير	-9.63995
▁گهربل	-9.64021
ڏا	-9.64024
▁ممكن	-9.6414
▁سيريز	-9.6415
▁معياري	-9.64273
▁فصل	-9.64295
▁موٽر	-9.64359
▁انگريز	-9.64391
▁سگهندا	-9.64398
▁ادبي	-9.64448
▁کليل	-9.64479
▁جنم	-9.64508
▁>>	-9.64611
ڍي	-9.64619
▁هيٺيان	-9.64624
▁نار	-9.64665
▁مصر	-9.64693
▁ڪارو	-9.64699
خخخ	-9.64734
▁حب	-9.64765
▁پڇي	-9.64775
▁نماز	-9.64809
ۈ	-9.6489
▁سينٽر	-9.64896
▁طلب	-9.64906
▁مهم	-9.64975
▁حج	-9.65023
▁اسيمبلي	-9.65041
ــــــــــ	-9.65089
▁فوت	-9.65165
▁ڪابه	-9.65209
▁حلوه	-9.65455
▁روپ	-9.65472
▁داد	-9.65533
▁مئي	-9.65668
ميل	-9.65775
▁قسمت	-9.6578
▁تڪڙ	-9.65817
▁نما	-9.65923
▁ڀٽ	-9.65952
▁معني	-9.6607
▁نسخ	-9.66082
▁ڪاليج	-9.66123
▁غلام	-9.66163
▁فعل	-9.66205
▁ھر	-9.66305
▁موسيقي	-9.66565
ap	-9.66595
▁ڪمري	-9.66601
▁سيپٽمبر	-9.66718
گل	-9.66764
▁ڳالهين	-9.66794
▁the	-9.6692
عمل	-9.6693
▁ايندا	-9.66975
▁ڊزائن	-9.67026
▁سڄو	-9.67033
▁اذا	-9.67043
▁طريقن	-9.67054
▁الش	-9.67062
▁جائزو	-9.67254
im	-9.67257
▁حيران	-9.67338
▁پئسا	-9.67338
▁بونس	-9.67365
99	-9.67568
▁شاعري	-9.67609
▁ڪرائڻ	-9.6771
▁سفارش	-9.67801
▁تش	-9.6785
▁ٽيڪس	-9.6791
▁مشتمل	-9.67957
۲	-9.68111
▁باغ	-9.68123
se	-9.6818
▁جنرل	-9.68291
▁عزت	-9.6832
▁ڪانه	-9.68352
om	-9.68419
sh	-9.68433
▁جيترو	-9.68438
▁انعام	-9.68442
▁زير	-9.68479
▁اتفاق	-9.6858
▁پابندي	-9.68589
▁فوٽو	-9.68678
۽	-9.68889
ho	-9.69052
▁ڏيندا	-9.69115
▁رهندي	-9.69153
▁آدم	-9.69257
▁وساري	-9.69399
vi	-9.69408
▁22	-9.69501
▁شهيد	-9.69507
▁ارسال	-9.69539
ااااا	-9.6961
▁ڀيرا	-9.69698
▁ڏيئي	-9.69716
▁مٽي	-9.69775
ate	-9.69777
▁زخمي	-9.69778
▁ترجمو	-9.6985
▁,,	-9.69867
▁ڪلاس	-9.69889
▁عليها	-9.69917
▁انجنيئر	-9.7
▁رکندڙ	-9.70022
▁الت	-9.70028
▁شاهه	-9.70119
اسان	-9.70169
▁پاليسي	-9.70171
كتب	-9.70327
▁فوري	-9.70351
▁21	-9.70512
▁قال	-9.70608
لى	-9.70612
▁دريا	-9.70642
▁ميڪ	-9.70683
لعب	-9.70712
em	-9.7072
▁ادائيگي	-9.70797
▁ويهي	-9.70892
▁آرڊر	-9.709
▁ڀڳ	-9.70971
▁پهچائڻ	-9.71031
شوف	-9.71184
▁انڪار	-9.71238
▁ٿر	-9.71277
▁وات	-9.7128
▁آهنگ	-9.713
▁کڻڻ	-9.71313
▁چوندا	-9.71434
▁اضافو	-9.7144
▁تربيت	-9.71447
▁ماپ	-9.71549
▁نوان	-9.7169
▁اگه	-9.71785
▁گرد	-9.71801
ـــــــــــ	-9.71808
▁سوچڻ	-9.71828
▁مرڪ	-9.71871
علم	-9.72037
30	-9.72066
▁انصاف	-9.7209
▁ملڪيت	-9.7238
▁سدائين	-9.72413
▁حرف	-9.72479
▁~	-9.72664
▁نس	-9.72702
▁ٽيبل	-9.72715
▁موڪليو	-9.72729
▁هينئر	-9.72757
▁سڃاڻ	-9.72778
▁ڪرايو	-9.72842
▁ڊيزائن	-9.72902
▁صفحا	-9.72904
▁2016	-9.72914
▁سمجهڻ	-9.72924
▁وڏن	-9.72945
▁سڃاڻپ	-9.7303
▁نيست	-9.73058
▁آفيسر	-9.73066
▁قيد	-9.73199
▁شعور	-9.73241
▁دورو	-9.73275
▁ڪيتريون	-9.7334
▁حمايت	-9.73393
▁قد	-9.73436
▁نواز	-9.7347
▁ساري	-9.73571
تكم	-9.73599
۔۔۔	-9.73669
صور	-9.73683
▁معاف	-9.73927
▁مزو	-9.74016
▁ڀريل	-9.7402
▁آگسٽ	-9.74053
▁ڇڏ	-9.74099
▁رسم	-9.74156
19	-9.74208
▁ڊا	-9.74413
▁چيم	-9.74423
▁سگھجي	-9.7455
ia	-9.74561
▁ميان	-9.74662
▁رابطي	-9.74718
▁گذار	-9.74748
▁ميز	-9.74793
▁موقعي	-9.74883
▁وسيع	-9.74914
▁طبي	-9.74979
▁چڱو	-9.75051
▁ٻڌو	-9.75057
▁ونڊوز	-9.75064
▁سِ	-9.75139
▁اخر	-9.75158
▁ايشيا	-9.75173
ـــــــــــــ	-9.75375
▁ڳالهايو	-9.7541
▁فرض	-9.75435
▁ٽري	-9.75483
▁مڇي	-9.75537
▁قيام	-9.75585
X	-9.75591
▁گزارش	-9.7572
يٰ	-9.75806
▁اص	-9.7598
▁اخلاق	-9.76057
▁مسئلا	-9.76077
▁اداري	-9.76078
▁نيڪ	-9.76223
▁مکيه	-9.76241
▁نشاني	-9.76306
▁بگ	-9.76342
▁رجسٽر	-9.76365
▁تجويز	-9.76396
جان	-9.76484
▁بک	-9.76497
▁زنده	-9.766
▁رهندا	-9.76729
▁اپڊيٽ	-9.76735
▁خاطر	-9.76736
▁مره	-9.76881
%	-9.77075
▁سند	-9.77142
ړ	-9.77246
▁اشتهار	-9.77247
▁فائلون	-9.77375
▁عهد	-9.77389
▁مصنوعات	-9.77417
▁گهڙي	-9.77506
▁هُ	-9.77537
ظاهر	-9.77658
▁عقل	-9.77699
▁هليو	-9.77848
▁سبق	-9.77896
▁نومبر	-9.77933
▁گھڻو	-9.77936
▁۱	-9.78061
▁ليش	-9.78131
▁عزيز	-9.78284
▁شيئر	-9.78311
▁ٻڌل	-9.78345
▁الحال	-9.78368
▁پارڪ	-9.78397
اااا	-9.78423
▁رحم	-9.78455
▁ھل	-9.7846
▁وٺو	-9.78482
▁سعودي	-9.78621
▁جبل	-9.7863
▁افغانستان	-9.78635
▁هئس	-9.78641
▁هع	-9.7877
▁کڻ	-9.78788
▁سنڏ	-9.78894
▁الزام	-9.78975
ــــــــــــ	-9.79041
▁ريل	-9.79092
▁ناهن	-9.79095
▁هلائي	-9.79105
▁2-	-9.79184
▁جنوري	-9.79244
ng	-9.79363
▁لانچ	-9.79405
tion	-9.79523
▁کلي	-9.79532
▁ماضي	-9.79609
▁مجبور	-9.7967
▁لنڊن	-9.79684
▁سلامت	-9.79787
▁جميل	-9.79843
▁فور	-9.7989
▁ڏانھن	-9.80066
▁پاڙ	-9.80124
▁اينڊرائيڊ	-9.80192
▁ترڪي	-9.8022
طور	-9.80234
▁تحف	-9.80286
hi	-9.80357
▁ڪميشن	-9.80393
▁طب	-9.80422
▁X	-9.8068
▁كيف	-9.80718
▁سمجهان	-9.80741
▁هيٺين	-9.80741
▁احمد	-9.80852
▁رانديگر	-9.809
all	-9.81012
▁درجي	-9.81032
▁ليگ	-9.81038
▁حادث	-9.81076
▁يم	-9.81244
صير	-9.81374
▁گذر	-9.81486
▁واپاري	-9.81554
▁تازو	-9.8163
▁رخ	-9.81651
؟؟؟	-9.81656
▁آرٽ	-9.81688
▁مقابلو	-9.81788
▁عورتون	-9.81892
="1	-9.81948
▁لسٽ	-9.8195
▁ضحك	-9.8201
▁ڪانهي	-9.82019
▁کوٽ	-9.82025
▁پوک	-9.82028
▁ڏياري	-9.82131
▁وصول	-9.82163
▁ڏکيو	-9.82185
▁انجام	-9.82348
▁حبيب	-9.82375
▁كنت	-9.82544
▁ڦر	-9.82545
▁Ma	-9.82615
▁ناول	-9.82659
ok	-9.82719
12	-9.82763
▁2021	-9.82866
ow	-9.82924
▁سکڻ	-9.83012
▁پراڊڪٽ	-9.83047
▁ويٺو	-9.83235
▁ڪمزور	-9.83253
▁قوت	-9.83335
▁وفات	-9.83405
▁متبادل	-9.8341
▁واقف	-9.83415
▁شده	-9.83424
op	-9.83467
۰	-9.83591
▁پٺيان	-9.83591
▁امر	-9.83685
▁بدلي	-9.83686
▁ڪوئي	-9.83733
ں	-9.83774
to	-9.8378
▁يمكن	-9.83782
▁نالا	-9.83874
▁اٺ	-9.8393
▁اقول	-9.83943
▁نتيجو	-9.83957
▁مقا	-9.83999
▁ٻوٽ	-9.84052
▁تجربي	-9.84141
▁سائيز	-9.84165
▁واقعا	-9.8444
▁تعاون	-9.84518
▁چارج	-9.84625
▁پناه	-9.84638
▁گڏوگڏ	-9.84689
▁اوڀر	-9.84692
▁حاضر	-9.84694
ab	-9.84796
▁منصوبي	-9.84873
no	-9.84929
18	-9.84953
▁مزاحمت	-9.85058
▁پيروي	-9.85084
▁هت	-9.85087
▁لاش	-9.85137
▁ڊسمبر	-9.85243
▁مهر	-9.85283
▁وفاقي	-9.85291
▁چرچ	-9.8538
▁شرڪت	-9.85434
▁ڪائنات	-9.85616
▁وزارت	-9.858
▁مريض	-9.85804
▁مڃ	-9.85967
▁اتحاد	-9.85986
▁پئجي	-9.85989
▁تسليم	-9.86361
▁علامت	-9.86363
▁ڇڏڻ	-9.86415
▁ڪِ	-9.86425
▁اسرائيل	-9.86546
▁جاء	-9.86579
▁آيل	-9.86591
▁سمجهه	-9.86604
▁رسول	-9.86686
▁خريداري	-9.86687
ــــــــــــــ	-9.86736
▁رُ	-9.86743
▁يورو	-9.86839
▁تڪليف	-9.86922
▁سلسلو	-9.86924
ack	-9.87067
na	-9.87128
▁اُهي	-9.87191
عجب	-9.87212
يييي	-9.87257
▁ويڙه	-9.87266
▁اسٽر	-9.87388
▁يونٽ	-9.87485
▁راءِ	-9.87575
وووو	-9.87648
▁معاملي	-9.87679
▁60	-9.87707
▁عندك	-9.87732
▁سرور	-9.87807
▁طاقتور	-9.87844
▁عنوان	-9.87884
▁دليل	-9.87938
▁بچائڻ	-9.88059
▁@	-9.88225
▁پرڏيهي	-9.88249
15	-9.88253
▁اٿم	-9.88276
▁رانديون	-9.88298
▁باهه	-9.88428
▁کولي	-9.88441
▁رول	-9.88475
نتظر	-9.88506
▁زياد	-9.88515
bo	-9.88532
▁اداڪار	-9.88543
▁جاپان	-9.88563
▁اقتصادي	-9.8863
▁نظم	-9.8864
▁چال	-9.88643
▁توڙي	-9.88751
▁ھا	-9.88765
▁هندو	-9.88858
▁اخو	-9.88919
▁سگهندو	-9.88947
▁مڃي	-9.88995
▁ڪورونا	-9.89017
▁2015	-9.89034
▁تھ	-9.89158
▁گُ	-9.892
▁اسٽيٽ	-9.89255
چار	-9.89294
▁کاتي	-9.89341
▁اپريل	-9.89406
11	-9.8947
▁والد	-9.89495
if	-9.89548
▁سيڙپڪاري	-9.89591
▁کرد	-9.89639
▁راج	-9.89657
▁ووٽ	-9.89671
▁نرم	-9.89884
▁ويچار	-9.89891
ااااااا	-9.89944
▁پوائنٽ	-9.8998
▁دم	-9.90008
▁گفتگو	-9.90014
ry	-9.90076
▁ڀاءُ	-9.90141
▁مينهن	-9.90203
▁جهان	-9.90287
▁ماڻهوءَ	-9.90298
▁طريق	-9.90356
▁وسلم	-9.90389
▁ھاڻي	-9.90481
▁اڳوڻي	-9.90565
▁ابتدائي	-9.90603
▁ٽرانسپورٽ	-9.90757
▁جوابدار	-9.90792
▁هزارين	-9.90864
▁چئن	-9.90867
▁ڪانفرنس	-9.90953
▁لطف	-9.90964
▁شراب	-9.90968
ـــــــــــــــ	-9.91032
▁ڊوڙ	-9.91064
▁عندي	-9.91157
▁هلائڻ	-9.9122
▁لازم	-9.91314
▁منصوبو	-9.91346
▁مثبت	-9.91346
▁تازه	-9.91364
▁وڃائي	-9.91551
▁نگاه	-9.91627
▁توقع	-9.91751
▁نبي	-9.91773
▁آمدني	-9.91896
▁de	-9.919
▁وطن	-9.91906
▁26	-9.91942
▁بچائي	-9.91946
▁ٽيڪ	-9.92043
iz	-9.92043
▁شكله	-9.92175
▁نر	-9.92202
▁كر	-9.92269
▁؟؟؟	-9.92316
▁اطلاع	-9.92334
▁فٽبال	-9.92334
▁أخ	-9.92414
▁امداد	-9.92431
▁خودڪار	-9.92485
▁نقل	-9.92499
▁شڪر	-9.92531
▁سيڪيورٽي	-9.92533
۔۔۔۔	-9.92576
▁جاڳ	-9.92665
▁نفرت	-9.92739
▁فخر	-9.92865
▁st	-9.92953
▁ڪاپي	-9.93047
▁وڪيل	-9.93179
حال	-9.93254
▁مهل	-9.9353
▁ضحكت	-9.936
▁لوڪ	-9.93652
▁ورلڊ	-9.93742
▁پچ	-9.93835
▁ذميوار	-9.93889
▁ٻيٽ	-9.93926
روح	-9.9406
pl	-9.94129
ستائين	-9.94196
▁In	-9.94264
▁فار	-9.94382
▁ڀڄ	-9.94432
▁برداشت	-9.94543
▁وقف	-9.94611
ni	-9.94636
▁اميدوار	-9.94662
▁باش	-9.94676
▁(1)	-9.94753
▁هاءِ	-9.94855
{	-9.9495
▁ريم	-9.94999
▁غذا	-9.95023
▁هلندڙ	-9.9508
▁دعوت	-9.95154
▁ضمانت	-9.95155
▁بعض	-9.95185
▁رھيو	-9.95195
▁اندروني	-9.95234
▁فائيل	-9.95408
▁چيست	-9.9545
▁ڏسندا	-9.95511
▁انڊسٽري	-9.95563
▁خدمتون	-9.95595
▁يونين	-9.95671
▁أنا	-9.9586
▁پهتو	-9.9595
XNUMX	-9.95974
▁منفرد	-9.95976
▁هذه	-9.95979
▁انٽرويو	-9.96181
▁بادشاهه	-9.96212
▁محل	-9.96213
▁بيٽري	-9.96241
▁بڻايو	-9.9628
▁يلا	-9.96465
95	-9.96509
▁ميزبان	-9.96602
▁بلوچ	-9.96611
▁مسيح	-9.96617
▁ديگر	-9.96673
▁نڪر	-9.96782
▁خاصيتون	-9.96809
▁تنھن	-9.96811
▁پهچڻ	-9.96973
▁هڪٻئي	-9.97013
▁فتح	-9.97028
▁حڪمران	-9.97032
▁سادي	-9.97173
▁گهڻن	-9.97243
▁ارد	-9.97285
▁ٻاهرين	-9.97407
▁نمائش	-9.97427
ائجي	-9.9746
▁عالي	-9.97526
▁فيبروري	-9.97636
▁پهچائي	-9.9766
▁دهشتگرد	-9.97845
▁ماڻھن	-9.97846
▁کوليو	-9.97867
▁اولاد	-9.97987
▁اٿس	-9.9804
▁اصطلاح	-9.98056
▁معاملو	-9.98056
up	-9.98076
60	-9.98223
▁23	-9.9825
طالب	-9.98253
}	-9.98266
▁ڊڄ	-9.98298
٠	-9.98477
▁صفحي	-9.98484
one	-9.98572
▁روحاني	-9.98648
▁متعارف	-9.98688
▁هفته	-9.98692
▁ٽئين	-9.98701
▁برقي	-9.98854
▁آءُ	-9.98893
▁گروه	-9.98955
▁الق	-9.99082
▁پاور	-9.991
▁سائيڪل	-9.99115
▁27	-9.99147
▁ڪاوڙ	-9.99148
▁ساهه	-9.99156
▁مسجد	-9.99162
▁طلاق	-9.99327
حمد	-9.99366
▁1-	-9.99466
▁جوڙجڪ	-9.99539
▁انتخاب	-9.99539
▁افسوس	-9.9954
▁نتيجا	-9.9954
▁ٻيڙي	-9.99612
▁نكت	-9.99653
▁معاهدي	-9.99753
▁روڪڻ	-9.99874
▁يخ	-9.99934
▁پوزيشن	-9.99967
▁پيئڻ	-9.99971
est	-9.99991
;	-10.0018
▁برطانيه	-10.0018
▁راس	-10.0031
▁رجحان	-10.004
▁معاشي	-10.004
▁اليڪشن	-10.0043
▁رضا	-10.005
▁يافته	-10.0063
▁كلام	-10.0084
▁مرمت	-10.0088
tra	-10.0089
▁سارا	-10.0107
tor	-10.0111
▁بلند	-10.0116
▁بچي	-10.0124
▁طول	-10.0128
▁اهڙن	-10.0152
▁قاعد	-10.0155
▁وڪيپيڊيا	-10.0191
▁فائدي	-10.0192
▁اڏ	-10.0203
▁هد	-10.0203
▁جُ	-10.0215
▁عشان	-10.0218
▁قلم	-10.0222
▁Z	-10.0225
ant	-10.023
▁ذريعو	-10.0235
▁کر	-10.0256
▁محبوب	-10.0258
▁ڪپڙا	-10.0263
▁28	-10.0267
▁بيمار	-10.027
▁پڙهندڙ	-10.0278
▁زبردست	-10.0279
▁انڊيا	-10.0284
▁گھڻي	-10.0288
▁تڪرار	-10.0302
ver	-10.0313
▁مبارڪ	-10.0324
▁شھر	-10.0327
▁ريلوي	-10.0334
▁چٽ	-10.0335
▁رٿ	-10.0345
▁ونڊ	-10.0351
▁ٿڪ	-10.0358
▁تحليل	-10.0369
mp	-10.0371
13	-10.038
▁کاڌو	-10.0386
▁Co	-10.039
▁سرڪار	-10.0392
▁هارڊ	-10.0394
سلام	-10.0398
▁وڃان	-10.0398
ائڊ	-10.0412
▁ابراهيم	-10.0412
▁اڳيون	-10.0413
▁حلوة	-10.0418
▁80	-10.0429
▁پرواز	-10.0434
▁ھئا	-10.0439
▁طرز	-10.0443
▁آڇ	-10.0455
▁يقول	-10.0468
▁قبر	-10.0478
▁مصروف	-10.0504
▁نگراني	-10.0525
▁ٻُڌ	-10.0525
▁سيڪنڊ	-10.0525
▁ڪهڙا	-10.0525
▁درجه	-10.053
وووووو	-10.0531
▁ڊائ	-10.0531
qu	-10.0533
▁سونهن	-10.054
▁ثاني	-10.0544
▁ڊائريڪٽر	-10.0547
▁پتو	-10.055
25	-10.0559
▁احد	-10.0567
▁هائوس	-10.057
▁بہ	-10.0574
▁هلڻ	-10.0582
=	-10.0582
▁پنڌ	-10.0586
▁رهائش	-10.0593
▁سکيا	-10.0599
▁نڪتو	-10.0603
▁وڌڻ	-10.0625
▁</	-10.0627
▁ڪائونسل	-10.0638
▁تعارف	-10.0639
▁ڏيندڙ	-10.0655
▁ماسڪ	-10.067
age	-10.0689
۱	-10.069
14	-10.07
▁اوچتو	-10.0707
▁زهر	-10.0712
▁انٽرنيشنل	-10.073
ill	-10.0738
▁تعرف	-10.0741
▁راضي	-10.0758
▁آمد	-10.0766
▁موڊ	-10.0769
▁پلاسٽڪ	-10.0777
▁بچاء	-10.0777
▁ڀائر	-10.0779
▁عليكم	-10.0785
▁90	-10.0796
۳	-10.08
▁آهستي	-10.08
▁ڪميٽي	-10.0805
▁ٻول	-10.0812
▁بلڊ	-10.0818
▁آفريڪا	-10.0823
▁اكيد	-10.0823
▁لائق	-10.0824
▁بيٺو	-10.0825
ڈ	-10.0846
▁ويڪسين	-10.0847
▁روزاني	-10.087
▁فهم	-10.0872
▁ڌڪ	-10.0874
▁پروفيسر	-10.0893
▁شور	-10.0897
▁اينڊ	-10.091
▁سادو	-10.0911
▁هٿيار	-10.0921
▁ڪاٺ	-10.093
▁رکندو	-10.0934
▁نيشنل	-10.0941
▁بازار	-10.0942
▁ويٺي	-10.0943
▁فورم	-10.0947
خلص	-10.0952
▁نيٺ	-10.0956
▁مسلم	-10.0957
▁مارڪ	-10.0961
res	-10.0963
▁آسٽريليا	-10.0964
▁حرڪت	-10.0964
▁ملندي	-10.0968
▁ڀرسان	-10.0988
▁اوھين	-10.0989
▁2014	-10.0989
▁چُ	-10.1004
▁اٿئي	-10.101
▁بٽڻ	-10.1013
▁چڙهي	-10.103
▁سپورٽ	-10.1035
▁بررسي	-10.1036
able	-10.1041
▁تعجب	-10.1051
▁منحصر	-10.1059
▁ميوزڪ	-10.1059
▁ڪارروائي	-10.1059
▁پلان	-10.1064
▁چوندو	-10.1075
▁ڦير	-10.1082
▁ڳنڍيل	-10.1082
▁دفعي	-10.1083
▁ڪاغذ	-10.1083
▁وٺندو	-10.1097
▁باقاعد	-10.1106
▁چيف	-10.1126
ion	-10.1142
▁ايئرپورٽ	-10.1154
▁ترجيح	-10.1155
▁انگيز	-10.1158
▁کنيو	-10.1167
▁اُهو	-10.1177
▁ظلم	-10.1179
▁مقام	-10.1181
▁دولت	-10.1183
▁افغان	-10.1201
▁هفتن	-10.1204
17	-10.1221
▁شمار	-10.1224
▁روزانو	-10.1228
98	-10.1229
▁خد	-10.1234
▁چوڌاري	-10.1251
▁مطالبو	-10.1251
▁فنڪشن	-10.1256
▁سينٽ	-10.1257
per	-10.1263
توهان	-10.1267
▁معاملن	-10.1275
90	-10.1276
80	-10.1279
40	-10.1291
ity	-10.1297
▁مائڪرو	-10.13
▁تقرير	-10.13
▁اسٽيل	-10.1305
▁چشم	-10.1311
▁عراق	-10.1327
▁سؤ	-10.134
▁موثر	-10.1345
▁برادري	-10.1353
ضرب	-10.136
▁ذريعن	-10.1373
▁عذاب	-10.1374
▁معيشت	-10.1374
▁ساٿ	-10.1378
▁وڌندڙ	-10.1382
▁مهمان	-10.1383
▁مراد	-10.1393
▁لطيف	-10.1398
▁مائٽ	-10.1398
▁طئي	-10.14
▁Re	-10.1401
▁ڀيڻ	-10.1403
-19	-10.1415
▁2013	-10.1425
▁ڪنڌ	-10.1433
▁ڏسندي	-10.1447
▁علائقو	-10.1447
▁حوصل	-10.1448
▁تنقيد	-10.1448
▁ارادو	-10.1448
ff	-10.1448
~	-10.1459
▁شاخ	-10.1461
▁موجودگي	-10.1468
▁^^	-10.1472
33	-10.1485
▁سيڪريٽري	-10.1497
ist	-10.1498
فضل	-10.1503
▁حوا	-10.1503
א	-10.1522
▁وڌايو	-10.1526
▁سڃاتو	-10.1547
▁منصوبن	-10.1547
▁ناقابل	-10.1547
▁ڊائونلوڊ	-10.1547
▁حرارت	-10.1548
▁ڀرپور	-10.1551
▁برسات	-10.1551
▁ٻوليءَ	-10.1562
▁پورٽ	-10.1569
▁&	-10.1593
▁فائدا	-10.1611
▁سئو	-10.1618
▁ٽپ	-10.1624
▁دريافت	-10.1627
▁شريف	-10.1632
اخذ	-10.1659
١	-10.1673
▁خطرناڪ	-10.1673
▁احب	-10.1674
▁نڪرڻ	-10.1698
▁عبادت	-10.1698
▁الموضوع	-10.1702
▁فيشن	-10.1703
▁ڪلام	-10.1721
▁ڏٺا	-10.1721
▁ڪئميرا	-10.1724
▁متحرڪ	-10.1724
▁مقبول	-10.175
▁اُتي	-10.175
ڦ	-10.1762
▁ياداشت	-10.1775
▁70	-10.1778
▁نهايت	-10.1786
▁موڙ	-10.1794
16	-10.18
▁پنھنجو	-10.1801
▁تاج	-10.1809
▁اصلاح	-10.1822
▁رکندي	-10.1822
▁دفعا	-10.1826
▁عاشق	-10.1826
▁تشدد	-10.1826
▁چمڙي	-10.1827
▁رئيس	-10.1828
▁نسبت	-10.1832
▁اڏام	-10.1842
▁ٽريڪ	-10.1845
▁خوراڪ	-10.1852
▁زمرو	-10.1854
ممم	-10.1889
▁شفت	-10.1889
▁تحرير	-10.1905
der	-10.1914
▁رفت	-10.1931
▁آڏو	-10.1932
▁حصا	-10.1932
ell	-10.1961
mm	-10.1972
▁وارث	-10.1974
▁حيات	-10.1977
▁قبضو	-10.1982
▁اعتبار	-10.1982
▁مرحله	-10.1982
ood	-10.1988
▁عرض	-10.2009
▁ڊيسڪ	-10.2012
▁حصيداري	-10.2014
▁هئاسين	-10.2015
▁ڊگهو	-10.2035
▁ناھي	-10.2055
▁ڊزائين	-10.2061
▁ترميم	-10.2062
▁سرهندي	-10.2063
▁اديب	-10.2065
▁قابليت	-10.2083
▁هتان	-10.2087
▁نظارو	-10.2087
▁دؤر	-10.2087
▁جشن	-10.2109
▁طوفان	-10.2114
▁جولاءِ	-10.2116
ٰ	-10.2123
صلى	-10.2133
▁تنھنجي	-10.2158
65	-10.2159
▁فوٽ	-10.2168
▁مزدور	-10.2193
▁حضور	-10.2194
▁بچڻ	-10.2194
ight	-10.222
▁سهڻي	-10.2239
▁معصوم	-10.2247
01	-10.2258
▁ثبوت	-10.2274
▁ويٺا	-10.2276
▁ڏٺي	-10.2276
▁شريڪ	-10.2289
$	-10.2291
▁of	-10.2301
▁فارسي	-10.232
▁جماعت	-10.2328
▁اٽڪل	-10.2328
▁ريڊيو	-10.2328
▁پذير	-10.2329
▁ٽائيم	-10.2329
▁پيامبر	-10.2346
علامه	-10.2346
47	-10.235
97	-10.2351
▁نتيجن	-10.2355
▁·	-10.2359
▁ورهين	-10.2366
▁تباهه	-10.2383
67	-10.2384
▁يونان	-10.2402
▁اليوم	-10.2423
▁ڊومين	-10.2437
(	-10.2456
▁شاعريءَ	-10.246
▁ٻڌائڻ	-10.251
▁اختلاف	-10.2519
▁ڪوٺي	-10.2533
▁ڏند	-10.2546
▁لڳندو	-10.255
▁لڳائڻ	-10.2551
▁تقول	-10.2562
▁هذي	-10.2564
ment	-10.2566
▁احترام	-10.2574
آإ	-10.2597
▁تعليق	-10.2603
▁سگهندي	-10.2622
▁رينج	-10.2627
▁ورزن	-10.2641
▁ڊسڪ	-10.2646
عطي	-10.2675
▁آزمائش	-10.2686
▁نمائندگي	-10.2686
▁صفحو	-10.2686
▁تازي	-10.2692
▁اسٽاڪ	-10.2697
88	-10.2699
▁هُئي	-10.2701
<	-10.2711
▁ڇڪي	-10.2718
▁صحافي	-10.2719
آآآآ	-10.2722
▁مايوس	-10.2733
48	-10.2741
▁ننڍو	-10.2742
▁پيماني	-10.2745
ph	-10.2757
▁تقسيم	-10.2771
▁تابع	-10.2772
▁گلاب	-10.2783
▁مددگار	-10.2784
۴	-10.2799
▁بزرگ	-10.2799
▁فرانسيسي	-10.2799
▁گهٽتائي	-10.2801
▁توسان	-10.2803
▁فلٽر	-10.2826
▁يوٽيوب	-10.2827
▁شڪايت	-10.2856
▁واسطو	-10.2884
▁ٽرانس	-10.2886
▁پنجاب	-10.2891
+	-10.2907
▁ھٿ	-10.2907
▁مستقل	-10.2916
▁>>>	-10.2916
75	-10.2925
▁غائب	-10.2942
▁پسنديده	-10.2942
36	-10.2955
ګ	-10.2999
▁sub	-10.2999
▁آپريٽنگ	-10.3028
▁هئو	-10.3031
▁لئه	-10.3031
▁سگھوٿا	-10.3031
▁تسلم	-10.3032
▁كذا	-10.305
▁سامونڊي	-10.3057
▁فيلڊ	-10.306
▁همراه	-10.307
▁متعلق	-10.3087
▁مجموع	-10.3087
▁سيکاري	-10.3087
▁جپان	-10.3091
▁مفيد	-10.3105
▁اھڙي	-10.3116
▁برطانيا	-10.3145
▁معاهدو	-10.3145
▁(2)	-10.3147
▁مطالعو	-10.3175
▁ڪچهري	-10.3204
▁اسمارٽ	-10.3204
▁مهينا	-10.3207
غرب	-10.323
▁آپشن	-10.3234
▁صفحه	-10.3234
39	-10.3255
▁چئو	-10.3268
▁مستحڪم	-10.3293
▁انفرادي	-10.3293
▁مطالعي	-10.3293
▁الناس	-10.3298
۵	-10.3353
▁اسٽوريج	-10.3354
▁پمپ	-10.3356
▁روزگار	-10.3359
▁ھيٺ	-10.3381
ډ	-10.3383
▁بحران	-10.3384
▁جائز	-10.3406
▁نيٽورڪ	-10.3413
وحيد	-10.3415
▁لڳايو	-10.3429
▁پيدائش	-10.3444
سنواريو	-10.3448
lu	-10.3449
="3	-10.3453
▁پيپلز	-10.3474
٢	-10.3504
ځ	-10.3719
ږ	-10.3719
ټ	-10.3813
ڵ	-10.423
ڑ	-10.4428
●	-10.4596
۹	-10.463
ښ	-10.5048
J	-10.5346
°	-10.5373
️	-10.5484
۸	-10.5558
£	-10.5633
ा	-10.6135
♥	-10.6255
❤	-10.6376
Z	-10.6642
र	-10.7178
څ	-10.772
€	-10.8195
×	-10.8244
۶	-10.8745
۷	-10.8848
🙂	-10.9165
क	-10.9273
٣	-10.9547
←	-10.983
•	-10.9882
۾	-11.0176
ڼ	-11.042
→	-11.0481
ٱ	-11.0542
٥	-11.0919
#	-11.1114
ۍ	-11.1579
ि	-11.1997
٤	-11.2069
@	-11.2077
ो	-11.2286
म	-11.2434
٦	-11.2659
►	-11.2659
&	-11.2826
ב	-11.3047
ڛ	-11.3206
′	-11.3287
é	-11.3368
न	-11.3368
٩	-11.387
q	-11.4368
ڹ	-11.4399
स	-11.4768
ۡ	-11.5151
त	-11.5151
٨	-11.5651
य	-11.5963
ٖ	-11.607
ּ	-11.6286
ٔ	-11.6286
ۅ	-11.6396
े	-11.6396
ल	-11.6619
♪	-11.6619
ۆ	-11.6733
♡	-11.6733
®	-11.6848
ٴ	-11.7082
ۑ	-11.7082
ღ	-11.7321
◄	-11.7443
٫	-11.7692
©	-11.7818
٧	-11.8076
प	-11.8076
ۉ	-11.8208
व	-11.8208
😉	-11.8208
§	-11.8341
а	-11.8341
🤣	-11.8341
ह	-11.8752
ۃ	-11.8893
☺	-11.9036
ڎ	-11.9477
ט	-11.9782
ڸ	-11.9782
ۊ	-11.9939
द	-11.9939
н	-12.0259
😁	-12.0259
ü	-12.0589
è	-12.0589
♫	-12.0931
פ	-12.1107
›	-12.1107
😀	-12.1107
ु	-12.1285
â	-12.1467
î	-12.1467
ڤ	-12.1467
ı	-12.1467
≤	-12.1467
ڜ	-12.1652
ٗ	-12.1841
◆	-12.1841
о	-12.1841
и	-12.2033
ç	-12.2229
ٓ	-12.2229
İ	-12.2229
à	-12.2429
ट	-12.2429
ग	-12.2429
ۓ	-12.2633
😍	-12.3054
💔	-12.3055
★	-12.3272
ी	-12.3494
р	-12.3721
٬	-12.3721
ş	-12.3954
̈	-12.3954
ؑ	-12.3954
с	-12.4192
ڶ	-12.4192
ۀ	-12.4192
ێ	-12.4192
ब	-12.4192
е	-12.4686
ڣ	-12.4686
😭	-12.4686
כ	-12.4942
ݪ	-12.4942
ज	-12.4942
Ş	-12.5206
ٕ	-12.5206
उ	-12.5206
छ	-12.5476
ö	-12.5754
ࢪ	-12.5754
、	-12.5754
श	-12.6333
á	-12.6333
ڕ	-12.6333
॥	-12.6333
Ü	-12.6636
ω	-12.6949
м	-12.6949
т	-12.6949
ू	-12.6949
ै	-12.7271
±	-12.7272
😅	-12.7272
🙁	-12.7272
у	-12.7605
ン	-12.795
ۧ	-12.795
ۂ	-12.795
♦	-12.795
語	-12.795
̷	-12.8307
ं	-12.8307
·	-12.8614
ۄ	-12.8677
ۋ	-12.8677
√	-12.8677
д	-12.8677
л	-12.9062
ל	-12.9062
ۿ	-12.9062
ड	-12.9062
ध	-12.9062
ٳ	-12.9062
؏	-12.9462
٘	-12.9462
‹	-12.9462
≥	-12.9462
😊	-12.9462
¤	-12.9878
ˇ	-12.9878
¢	-13.0313
ê	-13.0313
ؿ	-13.0313
भ	-13.0313
ツ	-13.0313
💞	-13.0313
ए	-13.0313
【	-13.0313
ष	-13.0313
ë	-13.0768
α	-13.0768
к	-13.0768
٭	-13.0768
¬	-13.0768
✿	-13.0768
】	-13.0768
﴾	-13.0768
👍	-13.0768
﴿	-13.0768
ā	-13.1244
ٚ	-13.1244
ە	-13.1244
ई	-13.1244
☆	-13.1244
¿	-13.1744
ο	-13.1744
ڝ	-13.1744
¦	-13.1744
ó	-13.1744
û	-13.1744
μ	-13.1744
ٲ	-13.1744
‐	-13.1744
⁄	-13.1744
в	-13.1744
ػ	-13.227
з	-13.227
अ	-13.2826
͜	-13.2826
ڒ	-13.2826
⇄	-13.2826
🏻	-13.2826
ä	-13.2826
β	-13.2826
─	-13.2826
ñ	-13.3414
х	-13.3414
ա	-13.3414
ण	-13.3414
≈	-13.3414
😆	-13.3414
■	-13.3414
ž	-13.4039
ؽ	-13.4039
ڠ	-13.4039
ࢦ	-13.4039
फ	-13.4039
。	-13.4039
菜	-13.4039
👌	-13.4039
ы	-13.4039
आ	-13.4706
й	-13.4706
ֿ	-13.4706
÷	-13.4706
ٛ	-13.4706
ڂ	-13.4706
😜	-13.4706
ख	-13.4706
🔥	-13.4706
Ø	-13.4706
⋆	-13.4706
ۇ	-13.542
\	-13.542
ğ	-13.542
š	-13.542
г	-13.542
🌹	-13.542
̨	-13.542
б	-13.542
थ	-13.542
ृ	-13.542
ô	-13.6189
¡	-13.6189
ᓄ	-13.6189
✌	-13.6189
í	-13.6189
▌	-13.6189
✅	-13.6189
💘	-13.6189
̲	-13.6189
Ç	-13.7023
ে	-13.7023
💙	-13.7023
😘	-13.7023
ե	-13.7023
ݩ	-13.7023
❥	-13.7023
̃	-13.7023
̣	-13.7932
ζ	-13.7932
п	-13.7932
נ	-13.7932
ι	-13.7932
י	-13.7932
я	-13.7932
↓	-13.7932
◕	-13.7932
☀	-13.7932
⭐	-13.7932
💕	-13.7932
🙈	-13.7932
і	-13.7932
͡	-13.7932
▐	-13.7932
œ	-13.8932
ۦ	-13.8932
ï	-13.8932
ξ	-13.8932
ؐ	-13.8932
۩	-13.8932
۫	-13.8932
๑	-13.8932
♀	-13.8932
🌸	-13.8932
😄	-13.8932
č	-13.8932
✋	-13.8932
✨	-13.8932
😇	-13.8932
🤔	-13.8932
Ґ	-13.8932
इ	-13.8932
ন	-13.8932
💗	-13.8932
🙏	-14.0043
Ö	-14.0043
Š	-14.0043
া	-14.0043
😹	-14.0043
ρ	-14.0043
ڨ	-14.0043
◊	-14.0043
♠	-14.0043
😔	-14.0043
😝	-14.0043
র	-14.0043
ँ	-14.0043
❣	-14.0043
ː	-14.0043
音	-14.0043
Φ	-14.1293
ε	-14.1293
ն	-14.1293
מ	-14.1293
ম	-14.1293
※	-14.1293
」	-14.1293
🌷	-14.1293
Ω	-14.1293
σ	-14.1293
ի	-14.1293
ם	-14.1293
ڭ	-14.1293
🖤	-14.1293
͠	-14.1293
♩	-14.1293
å	-14.1293
্	-14.1293
ۛ	-14.1293
น	-14.2721
ո	-14.2721
🇩	-14.2721
ɪ	-14.2721
ו	-14.2721
ע	-14.2721
ठ	-14.2721
▶	-14.2721
☻	-14.2721
💜	-14.2721
Ž	-14.2721
ˈ	-14.2721
ς	-14.2721
ч	-14.2721
ր	-14.2721
۞	-14.2721
ু	-14.2721
ஐ	-14.2721
ా	-14.2721
†	-14.2721
‿	-14.2721
▷	-14.2721
◇	-14.2721
❀	-14.2721
🏃	-14.2721
📷	-14.2721
😎	-14.2721
̤	-14.2721
❧	-14.2721
・	-14.2721
ս	-14.2721
ۗ	-14.2721
η	-14.2721
ш	-14.2721
ۤ	-14.2721
🥺	-14.2721
ۨ	-14.2722
า	-14.4388
ý	-14.4388
ɑ	-14.4388
̶	-14.4388
ڞ	-14.4388
ত	-14.4388
ọ	-14.4388
⚡	-14.4388
🏼	-14.4388
😢	-14.4388
Á	-14.4388
ć	-14.4388
ō	-14.4388
̇	-14.4388
ί	-14.4388
π	-14.4388
ؓ	-14.4388
ٜ	-14.4388
ٞ	-14.4388
ٟ	-14.4388
୭	-14.4388
⇣	-14.4388
▲	-14.4388
☝	-14.4388
♯	-14.4388
⚘	-14.4388
✯	-14.4388
🤩	-14.4388
🥇	-14.4388
ד	-14.4388
ؼ	-14.4388
দ	-14.4388
ক	-14.4388
ҳ	-14.4388
ี	-14.6388
💪	-14.6388
്	-14.6388
¶	-14.6388
մ	-14.6388
✦	-14.6388
ł	-14.6388
̵	-14.6388
ц	-14.6388
ڔ	-14.6388
ެ	-14.6388
ಿ	-14.6388
🌟	-14.6388
ۏ	-14.6388
−	-14.6388
『	-14.6388
🍼	-14.6388
ã	-14.6388
ú	-14.6388
ē	-14.6388
ż	-14.6388
τ	-14.6388
ώ	-14.6388
ж	-14.6388
ן	-14.6388
ؒ	-14.6388
ٙ	-14.6388
๛	-14.6388
⃣	-14.6388
▪	-14.6388
◎	-14.6388
◦	-14.6388
』	-14.6388
🇮	-14.6388
💖	-14.6388
💚	-14.6388
💯	-14.6388
😱	-14.6388
😻	-14.6388
🦋	-14.6388
ڋ	-14.6388
ị	-14.6388
╝	-14.6388
🌚	-14.6388
ð	-14.6388
झ	-14.6388
న	-14.6388
♍	-14.6388
✘	-14.6388
э	-14.6388
ᬼ	-14.6388
✗	-14.6388
⊙	-14.6388
ə	-14.6388
̅	-14.6388
າ	-14.6389
ν	-14.8888
ม	-14.8888
ʊ	-14.8888
Ã	-14.8888
ę	-14.8888
ь	-14.8888
ר	-14.8888
ۜ	-14.8888
Ħ	-14.8888
հ	-14.8888
۪	-14.8888
𐄒	-14.8888
嘅	-14.8888
📚	-14.8888
🔞	-14.8888
🧸	-14.8888
ø	-14.8888
Ğ	-14.8888
φ	-14.8888
є	-14.8888
չ	-14.8888
ה	-14.8888
ौ	-14.8888
খ	-14.8888
ো	-14.8888
ਾ	-14.8888
ં	-14.8888
ం	-14.8888
ම	-14.8888
↯	-14.8888
∀	-14.8888
∫	-14.8888
♂	-14.8888
♬	-14.8888
よ	-14.8888
り	-14.8888
🌿	-14.8888
👉	-14.8888
👊	-14.8888
😈	-14.8888
😋	-14.8888
😌	-14.8888
😒	-14.8888
😠	-14.8888
😨	-14.8888
😪	-14.8888
😵	-14.8888
🙊	-14.8888
🤍	-14.8888
🤭	-14.8888
̐	-14.8888
θ	-14.8888
ז	-14.8888
ٮ	-14.8888
ۣ	-14.8888
য	-14.8888
়	-14.8888
🏾	-14.8888
✖	-14.8888
╫	-14.8888
ミ	-14.8888
的	-14.8888
ไ	-15.2221
ก	-15.2221
ੀ	-15.2221
ე	-15.2221
ੰ	-15.2221
ṣ	-15.2221
可	-15.2221
ᓅ	-15.2221
Ă	-15.2221
Ł	-15.2221
ϻ	-15.2221
ח	-15.2221
ব	-15.2221
ನ	-15.2221
ന	-15.2221
ი	-15.2221
⚫	-15.2221
ノ	-15.2221
👈	-15.2221
ħ	-15.2221
ƒ	-15.2221
̀	-15.2221
ڽ	-15.2221
ݛ	-15.2221
ᭁ	-15.2221
ẹ	-15.2221
︎	-15.2221
💻	-15.2221
🔸	-15.2221
ò	-15.2221
Đ	-15.2221
ś	-15.2221
̯	-15.2221
γ	-15.2221
υ	-15.2221
ό	-15.2221
Я	-15.2221
Ҳ	-15.2221
ש	-15.2221
ۙ	-15.2221
ۼ	-15.2221
ݦ	-15.2221
ः	-15.2221
ল	-15.2221
ি	-15.2221
ર	-15.2221
ો	-15.2221
క	-15.2221
ల	-15.2221
వ	-15.2221
ి	-15.2221
ు	-15.2221
ด	-15.2221
Ⴢ	-15.2221
ለ	-15.2221
ው	-15.2221
Ṁ	-15.2221
ṇ	-15.2221
ṭ	-15.2221
₥	-15.2221
₪	-15.2221
≧	-15.2221
○	-15.2221
☂	-15.2221
☑	-15.2221
♛	-15.2221
✍	-15.2221
❌	-15.2221
❦	-15.2221
➢	-15.2221
〗	-15.2221
う	-15.2221
の	-15.2221
を	-15.2221
ュ	-15.2221
發	-15.2221
🌻	-15.2221
🏿	-15.2221
👀	-15.2221
👤	-15.2221
💋	-15.2221
💐	-15.2221
💛	-15.2221
😐	-15.2221
😽	-15.2221
🤨	-15.2221
🦦	-15.2221
̊	-15.2221
ස	-15.2221
໑	-15.2221
﮼	-15.2221
ě	-15.2221
్	-15.2221
╚	-15.2221
☜	-15.2221
♚	-15.2221
🌤	-15.2221
ą	-15.2221
ɛ	-15.2221
Х	-15.2221
🎀	-15.2221
Р	-15.7221
ย	-15.7221
ă	-15.7221
ਬ	-15.7221
ส	-15.7221
้	-15.7221
ཻ	-15.7221
խ	-15.7221
ਸ	-15.7221
ങ	-15.7221
ስ	-15.7221
ን	-15.7221
Ṃ	-15.7221
ố	-15.7221
✫	-15.7221
❝	-15.7221
🧐	-15.7221
Ā	-15.7221
ť	-15.7221
ƛ	-15.7221
Ʀ	-15.7221
λ	-15.7221
؋	-15.7221
ট	-15.7221
ક	-15.7221
ద	-15.7221
ಲ	-15.7221
್	-15.7221
ി	-15.7221
ል	-15.7221
ይ	-15.7221
ở	-15.7221
真	-15.7221
직	-15.7221
̍	-15.7221
ݨ	-15.7221
♢	-15.7221
나	-15.7221
😮	-15.7221
🤎	-15.7221
🦼	-15.7221
Ù	-15.7221
|	-15.7221
¥	-15.7221
ì	-15.7221
Ė	-15.7221
Į	-15.7221
ů	-15.7221
Ǝ	-15.7221
ơ	-15.7221
ʀ	-15.7221
ʒ	-15.7221
ʻ	-15.7221
Α	-15.7221
Ξ	-15.7221
Υ	-15.7221
έ	-15.7221
Ϟ	-15.7221
У	-15.7221
Ч	-15.7221
ъ	-15.7221
ю	-15.7221
҉	-15.7221
ґ	-15.7221
ը	-15.7221
լ	-15.7221
պ	-15.7221
ռ	-15.7221
ց	-15.7221
ֆ	-15.7221
ך	-15.7221
ؾ	-15.7221
ڲ	-15.7221
ۘ	-15.7221
ܓ	-15.7221
ݖ	-15.7221
ݢ	-15.7221
ݥ	-15.7221
ॡ	-15.7221
ঔ	-15.7221
ড	-15.7221
স	-15.7221
ਂ	-15.7221
ਧ	-15.7221
ਿ	-15.7221
ચ	-15.7221
ટ	-15.7221
ા	-15.7221
િ	-15.7221
ી	-15.7221
ஓ	-15.7221
య	-15.7221
ಈ	-15.7221
ೋ	-15.7221
ි	-15.7221
ๅ	-15.7221
დ	-15.7221
რ	-15.7221
ს	-15.7221
ᄑ	-15.7221
ᄒ	-15.7221
ᅲ	-15.7221
ሂ	-15.7221
ህ	-15.7221
ቅ	-15.7221
ድ	-15.7221
ᓆ	-15.7221
ᓘ	-15.7221
ន	-15.7221
ᴗ	-15.7221
Ẹ	-15.7221
Ọ	-15.7221
‛	-15.7221
‟	-15.7221
₩	-15.7221
₽	-15.7221
⇡	-15.7221
∞	-15.7221
≠	-15.7221
≦	-15.7221
▽	-15.7221
◍	-15.7221
◣	-15.7221
◩	-15.7221
◪	-15.7221
☘	-15.7221
♉	-15.7221
♌	-15.7221
♤	-15.7221
⚽	-15.7221
✈	-15.7221
✧	-15.7221
✷	-15.7221
❕	-15.7221
❖	-15.7221
❞	-15.7221
❢	-15.7221
⭕	-15.7221
い	-15.7221
じ	-15.7221
ほ	-15.7221
タ	-15.7221
ピ	-15.7221
ー	-15.7221
ㄨ	-15.7221
発	-15.7221
者	-15.7221
법	-15.7221
𓂅	-15.7221
𖣴	-15.7221
🇸	-15.7221
🌈	-15.7221
🌼	-15.7221
🎈	-15.7221
🎵	-15.7221
🐒	-15.7221
🐢	-15.7221
👆	-15.7221
👇	-15.7221
👎	-15.7221
👑	-15.7221
💅	-15.7221
💍	-15.7221
💓	-15.7221
💝	-15.7221
💠	-15.7221
💮	-15.7221
💰	-15.7221
🔕	-15.7221
🔫	-15.7221
🔱	-15.7221
🔶	-15.7221
🖕	-15.7221
😃	-15.7221
😏	-15.7221
😤	-15.7221
😬	-15.7221
😯	-15.7221
😳	-15.7221
😿	-15.7221
🙄	-15.7221
🛫	-15.7221
🤐	-15.7221
🤤	-15.7221
🤧	-15.7221
🥀	-15.7221
🥰	-15.7221
↩	-15.7221
⇦	-15.7221
╬	-15.7221
🔒	-15.7221
Ú	-15.7221
ࡗ	-15.7221
ీ	-15.7221
◈	-15.7221
コ	-15.7221
你	-15.7221
࿑	-15.7222
⃫	-15.7222
؍	-15.7222
🤪	-16.7106
🤓	-16.7107
🚶	-16.7108
😕	-16.7109
🔺	-16.711
🔹	-16.7111
🔴	-16.7112
💡	-16.7113
🐠	-16.7114
🎻	-16.7115
🎧	-16.7116
🌆	-16.7117
🇺	-16.7118
🇶	-16.7119
🇬	-16.712
🇨	-16.7121
ꓘ	-16.7122
我	-16.7123
以	-16.7124
上	-16.7125
パ	-16.7126
ト	-16.7127
〖	-16.7128
❓	-16.7129
✴	-16.713
✮	-16.7131
╦	-16.7132
⇠	-16.7133
↴	-16.7134
ỳ	-16.7135
እ	-16.7136
້	-16.7137
่	-16.7138
ท	-16.7139
ถ	-16.714
స	-16.7141
ఉ	-16.7142
ਰ	-16.7143
আ	-16.7144
ढ	-16.7145
ञ	-16.7146
۬	-16.7147
կ	-16.7148
է	-16.7149
Կ	-16.715
Ի	-16.7151
ө	-16.7152
П	-16.7153
О	-16.7154
Д	-16.7155
δ	-16.7156
̳	-16.7157
̉	-16.7158
õ	-16.7159
É	-16.716
À	-16.7161
🐸	-16.7162
🍀	-16.7163
❗	-16.7164
☼	-16.7165
⌘	-16.7166
↔	-16.7167
ุ	-16.7168
ั	-16.7169
ณ	-16.717
ฉ	-16.7171
ค	-16.7172
්	-16.7173
න	-16.7174
ે	-16.7175
տ	-16.7176
Բ	-16.7177
Т	-16.7178
В	-16.7179
Б	-16.718
̥	-16.7181
ˌ	-16.7182
😦	-16.7183
🕘	-16.7184
💫	-16.7185
👩	-16.7186
👨	-16.7187
🎼	-16.7188
发	-16.7189
〇	-16.719
◀	-16.7191
હ	-16.7192
С	-16.7193
М	-16.7194
̄	-16.7195
🇿	-16.7196
◉	-16.7197
ٝ	-16.7198
ւ	-16.7199
⏪	-16.72
ܢ	-16.7201
「	-16.7202
⠀	-16.7203
➡	-16.7204
♣	-16.7205
☹	-16.7206
▼	-16.7207
๋	-16.7208
ڿ	-16.7209
Å	-16.721
✓	-16.7211
😛	-16.7212
✔	-16.7213
̧	-16.7214
‡	-16.7215
ү	-16.7216
च	-16.7217
ド	-16.7218
シ	-16.7219
↑	-16.722
ਜ	-16.7221
บ	-16.7221
ป	-16.7221
อ	-16.7221
̝	-16.7221
փ	-16.7221
ג	-16.7221
ආ	-16.7221
ล	-16.7221
เ	-16.7221
Ṽ	-16.7221
イ	-16.7221
Ð	-16.7221
ß	-16.7221
Ĥ	-16.7221
ĵ	-16.7221
Ƴ	-16.7221
ʔ	-16.7221
͛	-16.7221
Ϋ	-16.7221
Ӎ	-16.7221
ס	-16.7221
ڟ	-16.7221
ڰ	-16.7221
०	-16.7221
१	-16.7221
ৌ	-16.7221
ਇ	-16.7221
ੱ	-16.7221
చ	-16.7221
ప	-16.7221
ే	-16.7221
ಂ	-16.7221
ಕ	-16.7221
ಸ	-16.7221
സ	-16.7221
ฮ	-16.7221
ქ	-16.7221
ላ	-16.7221
ጠ	-16.7221
ፍ	-16.7221
ḭ	-16.7221
ḿ	-16.7221
Ṝ	-16.7221
Ṧ	-16.7221
Ạ	-16.7221
Ἄ	-16.7221
↣	-16.7221
バ	-16.7221
ム	-16.7221
刀	-16.7221
報	-16.7221
多	-16.7221
夢	-16.7221
少	-16.7221
很	-16.7221
情	-16.7221
蝶	-16.7221
要	-16.7221
ꫛ	-16.7221
대	-16.7221
솔	-16.7221
정	-16.7221
해	-16.7221
화	-16.7221
🅚	-16.7221
🅜	-16.7221
🌛	-16.7221
📛	-16.7221
🕌	-16.7221
🗯	-16.7221
🦯	-16.7221
ձ	-16.7221
অ	-16.7221
┇	-16.7221
☁	-16.7221
♈	-16.7221
♊	-16.7221
♋	-16.7221
♓	-16.7221
⚠	-16.7221
料	-16.7221
🍷	-16.7221
🎅	-16.7221
🎨	-16.7221
😩	-16.7221
🧑	-16.7221
🧚	-16.7221
Â	-16.7221
È	-16.7221
Û	-16.7221
ù	-16.7221
þ	-16.7221
Ą	-16.7221
ĉ	-16.7221
Č	-16.7221
Ď	-16.7221
đ	-16.7221
ė	-16.7221
Ę	-16.7221
ī	-16.7221
į	-16.7221
ĺ	-16.7221
Ň	-16.7221
ŋ	-16.7221
Ō	-16.7221
ŏ	-16.7221
Ř	-16.7221
ř	-16.7221
Ŝ	-16.7221
ŝ	-16.7221
Ť	-16.7221
ŭ	-16.7221
ű	-16.7221
ź	-16.7221
Ż	-16.7221
Ɓ	-16.7221
Ɠ	-16.7221
Ɣ	-16.7221
Ɲ	-16.7221
ƽ	-16.7221
ǟ	-16.7221
ǰ	-16.7221
Ǿ	-16.7221
ȅ	-16.7221
Ȋ	-16.7221
ș	-16.7221
ț	-16.7221
ɕ	-16.7221
ɞ	-16.7221
ɣ	-16.7221
ɨ	-16.7221
ɴ	-16.7221
ʃ	-16.7221
ʚ	-16.7221
ʞ	-16.7221
ˆ	-16.7221
˹	-16.7221
˼	-16.7221
́	-16.7221
̌	-16.7221
̖	-16.7221
̗	-16.7221
̮	-16.7221
̸	-16.7221
ͦ	-16.7221
Ά	-16.7221
Έ	-16.7221
ΐ	-16.7221
Η	-16.7221
Θ	-16.7221
Ι	-16.7221
Μ	-16.7221
Ρ	-16.7221
Σ	-16.7221
Ψ	-16.7221
ά	-16.7221
ή	-16.7221
κ	-16.7221
χ	-16.7221
Ј	-16.7221
А	-16.7221
Г	-16.7221
Й	-16.7221
ј	-16.7221
ћ	-16.7221
Ѣ	-16.7221
Ѧ	-16.7221
қ	-16.7221
Ұ	-16.7221
ҷ	-16.7221
ҽ	-16.7221
Պ	-16.7221
բ	-16.7221
ղ	-16.7221
յ	-16.7221
վ	-16.7221
ք	-16.7221
ִ	-16.7221
צ	-16.7221
ת	-16.7221
؎	-16.7221
ٯ	-16.7221
ڐ	-16.7221
ڗ	-16.7221
ۚ	-16.7221
ۢ	-16.7221
ۥ	-16.7221
ۺ	-16.7221
܀	-16.7221
ܒ	-16.7221
ܨ	-16.7221
ܪ	-16.7221
ܵ	-16.7221
ݒ	-16.7221
ݘ	-16.7221
ݧ	-16.7221
ހ	-16.7221
ވ	-16.7221
ߙ	-16.7221
࣪	-16.7221
घ	-16.7221
ङ	-16.7221
़	-16.7221
ॉ	-16.7221
॒	-16.7221
८	-16.7221
ই	-16.7221
উ	-16.7221
এ	-16.7221
ঘ	-16.7221
ছ	-16.7221
ধ	-16.7221
ভ	-16.7221
ਈ	-16.7221
ਕ	-16.7221
ਥ	-16.7221
ਪ	-16.7221
ਮ	-16.7221
ਲ	-16.7221
ਹ	-16.7221
ੇ	-16.7221
ੈ	-16.7221
ੋ	-16.7221
ખ	-16.7221
છ	-16.7221
ડ	-16.7221
થ	-16.7221
ધ	-16.7221
પ	-16.7221
સ	-16.7221
ુ	-16.7221
୪	-16.7221
ற	-16.7221
ఇ	-16.7221
డ	-16.7221
ధ	-16.7221
ో	-16.7221
ಡ	-16.7221
ಧ	-16.7221
ഉ	-16.7221
ത	-16.7221
ധ	-16.7221
പ	-16.7221
ള	-16.7221
උ	-16.7221
ක	-16.7221
ය	-16.7221
ල	-16.7221
ව	-16.7221
ශ	-16.7221
ෑ	-16.7221
ෙ	-16.7221
พ	-16.7221
ห	-16.7221
ะ	-16.7221
ิ	-16.7221
ນ	-16.7221
༺	-16.7221
࿅	-16.7221
ა	-16.7221
თ	-16.7221
კ	-16.7221
მ	-16.7221
ნ	-16.7221
უ	-16.7221
ም	-16.7221
ሩ	-16.7221
ር	-16.7221
ሳ	-16.7221
በ	-16.7221
ቦ	-16.7221
ታ	-16.7221
ት	-16.7221
ነ	-16.7221
ኔ	-16.7221
ኝ	-16.7221
አ	-16.7221
ወ	-16.7221
ዎ	-16.7221
ዘ	-16.7221
ዴ	-16.7221
ጋ	-16.7221
ጎ	-16.7221
ጣ	-16.7221
ጥ	-16.7221
ፈ	-16.7221
ᑐ	-16.7221
ញ	-16.7221
ព	-16.7221
ភ	-16.7221
េ	-16.7221
ំ	-16.7221
្	-16.7221
᪣	-16.7221
᭄	-16.7221
ᴀ	-16.7221
ᴋ	-16.7221
᷂	-16.7221
ḑ	-16.7221
Ḿ	-16.7221
ṛ	-16.7221
ṩ	-16.7221
Ể	-16.7221
ệ	-16.7221
Ụ	-16.7221
ụ	-16.7221
ỹ	-16.7221
⁀	-16.7221
₦	-16.7221
₳	-16.7221
₹	-16.7221
₼	-16.7221
⃟	-16.7221
⃢	-16.7221
↙	-16.7221
↜	-16.7221
↝	-16.7221
↤	-16.7221
↫	-16.7221
↲	-16.7221
↷	-16.7221
⇐	-16.7221
⇜	-16.7221
⇢	-16.7221
∂	-16.7221
∇	-16.7221
∟	-16.7221
∴	-16.7221
≯	-16.7221
⏆	-16.7221
⏩	-16.7221
═	-16.7221
▃	-16.7221
□	-16.7221
▫	-16.7221
◝	-16.7221
◤	-16.7221
◥	-16.7221
◾	-16.7221
☃	-16.7221
☄	-16.7221
☔	-16.7221
☚	-16.7221
☛	-16.7221
☠	-16.7221
☽	-16.7221
☿	-16.7221
♃	-16.7221
♄	-16.7221
♎	-16.7221
♏	-16.7221
♒	-16.7221
♭	-16.7221
⚒	-16.7221
⛳	-16.7221
⛺	-16.7221
✇	-16.7221
✜	-16.7221
✞	-16.7221
✭	-16.7221
✳	-16.7221
❒	-16.7221
❔	-16.7221
❶	-16.7221
➓	-16.7221
➘	-16.7221
➟	-16.7221
➥	-16.7221
➬	-16.7221
⦿	-16.7221
⬅	-16.7221
⬆	-16.7221
⬸	-16.7221
⸁	-16.7221
⸙	-16.7221
〈	-16.7221
〉	-16.7221
》	-16.7221
あ	-16.7221
え	-16.7221
お	-16.7221
か	-16.7221
が	-16.7221
く	-16.7221
さ	-16.7221
な	-16.7221
へ	-16.7221
ょ	-16.7221
わ	-16.7221
ん	-16.7221
エ	-16.7221
ク	-16.7221
サ	-16.7221
ス	-16.7221
チ	-16.7221
ッ	-16.7221
マ	-16.7221
ヮ	-16.7221
一	-16.7221
之	-16.7221
了	-16.7221
云	-16.7221
传	-16.7221
位	-16.7221
南	-16.7221
厩	-16.7221
古	-16.7221
吗	-16.7221
国	-16.7221
场	-16.7221
子	-16.7221
学	-16.7221
它	-16.7221
屋	-16.7221
年	-16.7221
庆	-16.7221
彙	-16.7221
彩	-16.7221
惠	-16.7221
感	-16.7221
打	-16.7221
教	-16.7221
斯	-16.7221
於	-16.7221
月	-16.7221
机	-16.7221
機	-16.7221
泊	-16.7221
爱	-16.7221
电	-16.7221
着	-16.7221
示	-16.7221
科	-16.7221
篇	-16.7221
終	-16.7221
纳	-16.7221
职	-16.7221
背	-16.7221
节	-16.7221
花	-16.7221
葬	-16.7221
藍	-16.7221
詞	-16.7221
謝	-16.7221
话	-16.7221
谷	-16.7221
辛	-16.7221
迪	-16.7221
邏	-16.7221
钱	-16.7221
际	-16.7221
隨	-16.7221
雨	-16.7221
顯	-16.7221
ꓤ	-16.7221
ꔫ	-16.7221
ꖾ	-16.7221
ꟽ	-16.7221
ꦿ	-16.7221
ꪆ	-16.7221
ꪝ	-16.7221
ꫀ	-16.7221
각	-16.7221
금	-16.7221
길	-16.7221
는	-16.7221
다	-16.7221
래	-16.7221
리	-16.7221
마	-16.7221
만	-16.7221
문	-16.7221
방	-16.7221
서	-16.7221
손	-16.7221
송	-16.7221
시	-16.7221
양	-16.7221
얼	-16.7221
에	-16.7221
연	-16.7221
요	-16.7221
우	-16.7221
져	-16.7221
조	-16.7221
좋	-16.7221
지	-16.7221
평	-16.7221
하	-16.7221
할	-16.7221
형	-16.7221
효	-16.7221
희	-16.7221
﮶	-16.7221
𐎚	-16.7221
𐭣	-16.7221
𐭦	-16.7221
𐭪	-16.7221
𐭬	-16.7221
𓆩	-16.7221
𓆪	-16.7221
𖣂	-16.7221
𖤈	-16.7221
𖤍	-16.7221
🅛	-16.7221
🅦	-16.7221
🇦	-16.7221
🇧	-16.7221
🇱	-16.7221
🇷	-16.7221
🇹	-16.7221
🌍	-16.7221
🌎	-16.7221
🌓	-16.7221
🌔	-16.7221
🌙	-16.7221
🌜	-16.7221
🌝	-16.7221
🌞	-16.7221
🌧	-16.7221
🌱	-16.7221
🌵	-16.7221
🌺	-16.7221
🍂	-16.7221
🍃	-16.7221
🍇	-16.7221
🍉	-16.7221
🍕	-16.7221
🍩	-16.7221
🍰	-16.7221
🍻	-16.7221
🍾	-16.7221
🍿	-16.7221
🎁	-16.7221
🎃	-16.7221
🎞	-16.7221
🎥	-16.7221
🎯	-16.7221
🎶	-16.7221
🏆	-16.7221
🏊	-16.7221
🏖	-16.7221
🏳	-16.7221
🏹	-16.7221
🏽	-16.7221
🐍	-16.7221
🐕	-16.7221
🐾	-16.7221
👃	-16.7221
👅	-16.7221
👕	-16.7221
👠	-16.7221
👧	-16.7221
👭	-16.7221
👰	-16.7221
👳	-16.7221
👾	-16.7221
💀	-16.7221
💃	-16.7221
💇	-16.7221
💈	-16.7221
💒	-16.7221
💣	-16.7221
💦	-16.7221
💷	-16.7221
📄	-16.7221
📑	-16.7221
📥	-16.7221
📩	-16.7221
📮	-16.7221
📲	-16.7221
📸	-16.7221
📿	-16.7221
🔆	-16.7221
🔈	-16.7221
🔐	-16.7221
🔗	-16.7221
🕊	-16.7221
🖼	-16.7221
🗿	-16.7221
😑	-16.7221
😧	-16.7221
😲	-16.7221
😷	-16.7221
🙃	-16.7221
🙅	-16.7221
🙆	-16.7221
🙇	-16.7221
🙋	-16.7221
🙌	-16.7221
🚌	-16.7221
🚓	-16.7221
🚣	-16.7221
🚨	-16.7221
🚫	-16.7221
🚭	-16.7221
🚵	-16.7221
🚷	-16.7221
🛌	-16.7221
🛒	-16.7221
🛰	-16.7221
🟥	-16.7221
🤒	-16.7221
🤕	-16.7221
🤚	-16.7221
🤟	-16.7221
🤠	-16.7221
🤲	-16.7221
🤸	-16.7221
🤹	-16.7221
🦽	-16.7221
🧖	-16.7221
Ô	-16.7221
̠	-16.7221
Ó	-16.7221
ļ	-16.7221
ݐ	-16.7221
ఎ	-16.7221
హ	-16.7221
午	-16.7221
波	-16.7221
🏣	-16.7221
👋	-16.7221
👢	-16.7221
👲	-16.7221
🛐	-16.7221
🧝	-16.7221
æ	-16.7222
Ģ	-16.7222
̩	-16.7222
̬	-16.7222
জ	-16.7222
শ	-16.7222
Ṉ	-16.7222
▂	-16.7222
力	-16.7222
端	-16.7222
超	-16.7222
🇲	-16.7222
🇵	-16.7222
🏭	-16.7222
ĸ	-16.7222
ŧ	-16.7222
̋	-16.7222
Ћ	-16.7222
К	-16.7222
Ҏ	-16.7222
Ҩ	-16.7222
ओ	-16.7222
༄	-16.7222
༅	-16.7222
⃕	-16.7222
瑞	-16.7222
语	-16.7222
鲁	-16.7222
ຂ	-16.7222
ທ	-16.7222
ມ	-16.7222
່	-16.7222
℘	-16.7222
用	-16.7222
何	-16.7222
如	-16.7222
्	-16.7222
ກ	-16.7222
ຈ	-16.7222
ຖ	-16.7222
ພ	-16.7222
ຢ	-16.7222
ະ	-16.7222
ົ	-16.7222
ເ	-16.7222
