<unk>	0
<s>	0
</s>	0
هه	-0
▁ا	-1
▁ج	-2
▁م	-3
ان	-4
▁ڪ	-5
▁ت	-6
▁س	-7
هههه	-8
▁آ	-9
▁ه	-10
▁و	-11
▁جي	-12
ري	-13
هي	-14
▁پ	-15
▁ب	-16
▁ک	-17
ين	-18
هن	-19
ون	-20
▁ن	-21
▁آهي	-22
ار	-23
يو	-24
لا	-25
▁۾	-26
▁ٿ	-27
ئي	-28
▁کي	-29
▁ر	-30
ال	-31
▁ان	-32
▁۽	-33
يا	-34
ــ	-35
هههههههه	-36
▁جو	-37
ور	-38
ند	-39
▁گ	-40
▁ش	-41
لي	-42
▁ته	-43
▁.	-44
▁ع	-45
▁د	-46
▁اس	-47
ائ	-48
نهن	-49
جي	-50
▁ڏ	-51
▁خ	-52
▁لا	-53
▁ح	-54
▁چ	-55
▁تي	-56
▁ف	-57
ام	-58
▁،	-59
▁هڪ	-60
▁ڪري	-61
▁اه	-62
تي	-63
اڻ	-64
▁ٻ	-65
دي	-66
ءِ	-67
▁ل	-68
▁کان	-69
رو	-70
▁هههههههه	-71
▁سان	-72
▁به	-73
اري	-74
▁ق	-75
▁ڪر	-76
▁نه	-77
▁ٿي	-78
▁هن	-79
اب	-80
▁اي	-81
▁ط	-82
دا	-83
▁هو	-84
▁ص	-85
▁تو	-86
ائي	-87
ير	-88
▁آهن	-89
▁ال	-90
▁ڪرڻ	-91
ــــ	-92
يڪ	-93
▁ڇ	-94
▁ٿو	-95
هان	-96
ني	-97
▁اسان	-98
▁"	-99
ست	-100
دو	-101
مي	-102
▁اهو	-103
▁يا	-104
▁جيڪ	-105
▁لاءِ	-106
▁پي	-107
▁ي	-108
هر	-109
ءَ	-110
ول	-111
▁مو	-112
نهنجي	-113
▁ڊ	-114
▁ٽ	-115
را	-116
يل	-117
▁سگ	-118
▁(	-119
سي	-120
▁توهان	-121
▁1	-122
▁ز	-123
▁ڪيو	-124
▁من	-125
▁پر	-126
يت	-127
▁مان	-128
▁جا	-129
▁مون	-130
ڏهن	-131
▁هي	-132
جو	-133
ات	-134
نگ	-135
▁پو	-136
قي	-137
ها	-138
لو	-139
ائين	-140
▁ما	-141
▁ڳ	-142
▁2	-143
قت	-144
▁وا	-145
ھن	-146
▁ڪند	-147
▁ٿا	-148
▁مع	-149
اني	-150
ههه	-151
ھي	-152
هو	-153
اهي	-154
يم	-155
▁ڪو	-156
ڙي	-157
▁رو	-158
▁وڌ	-159
▁ڀ	-160
▁وي	-161
▁ڪم	-162
رين	-163
▁سو	-164
اد	-165
ئن	-166
▁ئي	-167
رف	-168
▁پنهنجي	-169
ڪي	-170
▁لاء	-171
▁او	-172
▁رهي	-173
شن	-174
سٽ	-175
▁ويو	-176
▁بي	-177
ئين	-178
له	-179
▁انهن	-180
▁مي	-181
بر	-182
از	-183
اص	-184
▁هههههههههههه	-185
▁طور	-186
اا	-187
اس	-188
▁است	-189
▁سڀ	-190
ورت	-191
▁وڃ	-192
بي	-193
▁هههه	-194
▁غ	-195
▁ڪي	-196
▁گه	-197
▁ض	-198
ٽي	-199
▁-	-200
اي	-201
اف	-202
گر	-203
اڻي	-204
عم	-205
▁ھ	-206
▁خو	-207
▁ڏين	-208
اڪ	-209
▁ذ	-210
گي	-211
▁سم	-212
▁مل	-213
▁مح	-214
سم	-215
ڏي	-216
▁ماڻ	-217
کي	-218
▁په	-219
▁وين	-220
▁وڌيڪ	-221
ٽر	-222
▁ك	-223
▁هون	-224
▁وقت	-225
ارو	-226
▁بر	-227
مل	-228
الي	-229
▁ڪج	-230
ڙو	-231
▁سي	-232
در	-233
▁في	-234
▁اين	-235
▁سال	-236
چي	-237
مت	-238
▁گهر	-239
▁هر	-240
▁ڇا	-241
▁در	-242
نيا	-243
عي	-244
▁آھي	-245
▁سند	-246
▁اڳ	-247
▁ڏي	-248
نا	-249
خت	-250
عمال	-251
▁ور	-252
صو	-253
▁جنهن	-254
▁استعمال	-255
تو	-256
▁ڪئي	-257
▁ري	-258
▁مش	-259
▁مر	-260
بو	-261
▁سر	-262
▁مس	-263
▁تع	-264
دار	-265
▁تر	-266
▁شي	-267
▁جن	-268
▁اهي	-269
▁20	-270
▁هئي	-271
▁تائين	-272
ــــــــ	-273
▁ڳال	-274
▁واري	-275
▁ام	-276
▁جيڪو	-277
▁گڏ	-278
▁ڪنهن	-279
رن	-280
سو	-281
ائڻ	-282
▁ڪن	-283
اه	-284
▁نظ	-285
ڻي	-286
▁ڪريو	-287
▁ٺ	-288
▁ڪجهه	-289
ڪن	-290
لم	-291
▁سن	-292
وي	-293
فت	-294
ڪو	-295
▁لي	-296
▁چيو	-297
▁ٿين	-298
▁مق	-299
▁اها	-300
ندي	-301
▁سگهي	-302
▁جڏهن	-303
▁ڏينهن	-304
سان	-305
▁رک	-306
▁بس	-307
▁نو	-308
▁وڃي	-309
▁3	-310
هم	-311
زي	-312
▁جيڪي	-313
in	-314
▁سا	-315
▁شا	-316
▁تم	-317
رح	-318
▁ڌ	-319
ارن	-320
ٺي	-321
ئر	-322
جن	-323
اصل	-324
▁مط	-325
▁پوءِ	-326
نهنجو	-327
ئون	-328
▁انهي	-329
▁لڳ	-330
▁حاصل	-331
في	-332
▁منهنجي	-333
جود	-334
▁ٻڌ	-335
▁با	-336
▁ڊي	-337
▁سندس	-338
▁ضر	-339
▁اع	-340
▁ڪيت	-341
▁دو	-342
▁پاڻ	-343
ڪر	-344
ندو	-345
ٿي	-346
▁جيڪڏهن	-347
▁اح	-348
ڻو	-349
روع	-350
▁از	-351
بت	-352
ڪل	-353
00	-354
ايو	-355
▁هئ	-356
▁تح	-357
نو	-358
▁اص	-359
بل	-360
ثر	-361
▁شروع	-362
▁تمام	-363
▁ناهي	-364
من	-365
▁ڄ	-366
اح	-367
er	-368
مين	-369
▁گھ	-370
ڪا	-371
▁پرو	-372
▁علي	-373
▁ها	-374
▁ڇو	-375
▁الله	-376
شي	-377
▁باب	-378
▁پن	-379
ڪار	-380
▁يو	-381
▁ههههههههه	-382
▁ڪار	-383
▁ڪا	-384
▁دنيا	-385
لام	-386
▁ٽي	-387
▁ٿيو	-388
▁فر	-389
ما	-390
ءُ	-391
ـــ	-392
▁رهيو	-393
▁ڇڏ	-394
▁جون	-395
ھان	-396
▁صح	-397
▁سمج	-398
▁انت	-399
مو	-400
▁زند	-401
ائن	-402
ده	-403
▁مت	-404
نڊ	-405
▁مد	-406
مان	-407
▁اُ	-408
▁وئي	-409
▁بهت	-410
وو	-411
امل	-412
پي	-413
وري	-414
▁ههههههههههه	-415
▁دور	-416
▁ٻي	-417
جا	-418
▁ماڻهو	-419
▁وڏي	-420
▁وٽ	-421
▁ههههههه	-422
▁آر	-423
الو	-424
تم	-425
▁لک	-426
دڙ	-427
▁ضرورت	-428
▁يع	-429
▁تون	-430
ڪس	-431
ڪري	-432
▁تب	-433
▁5	-434
▁مخت	-435
▁ويندو	-436
ٺو	-437
امي	-438
انهن	-439
▁سب	-440
اهر	-441
▁دل	-442
▁پيدا	-443
دن	-444
▁نم	-445
كم	-446
لف	-447
▁ويا	-448
▁4	-449
ستان	-450
▁علا	-451
▁پيش	-452
▁اخ	-453
▁صرف	-454
▁مار	-455
▁پار	-456
▁موجود	-457
▁پڻ	-458
عو	-459
▁چون	-460
▁آم	-461
▁آخ	-462
لب	-463
▁خاص	-464
▁ٿيڻ	-465
▁ڪڏهن	-466
يني	-467
▁اچي	-468
ائون	-469
▁عم	-470
▁زندگي	-471
on	-472
ar	-473
▁طرف	-474
▁وڏ	-475
▁نا	-476
▁چي	-477
▁ڏس	-478
▁ڪيئن	-479
ران	-480
ھو	-481
▁ڪندو	-482
▁لو	-483
▁را	-484
عد	-485
▁چو	-486
▁بابت	-487
▁قسم	-488
▁وال	-489
▁چاهي	-490
فا	-491
▁سڀني	-492
▁ماڻهن	-493
ولي	-494
▁أ	-495
▁پڙ	-496
▁ڪه	-497
▁ڪت	-498
▁تن	-499
▁طري	-500
▁ڪمپ	-501
an	-502
▁جيئن	-503
رت	-504
▁طرح	-505
شت	-506
هڻ	-507
سن	-508
▁s	-509
صي	-510
▁عمل	-511
▁201	-512
▁تنهن	-513
▁شامل	-514
وا	-515
ندا	-516
ندڙ	-517
▁ٻئي	-518
▁19	-519
▁؟	-520
▁ني	-521
▁مختلف	-522
▁وان	-523
▁گهٽ	-524
▁عام	-525
▁ڪندا	-526
▁هئا	-527
▁غير	-528
▁وارو	-529
رب	-530
▁بڻ	-531
▁اڄ	-532
▁آهيان	-533
▁هههههههههه	-534
پور	-535
▁اج	-536
▁اڪ	-537
es	-538
▁گذ	-539
اااا	-540
لس	-541
▁خبر	-542
▁ڳالهه	-543
▁تج	-544
▁ههههههههههههه	-545
▁رهيا	-546
سين	-547
▁مڪ	-548
▁مدد	-549
▁يعني	-550
۔۔	-551
ٽن	-552
▁هوندي	-553
▁ظ	-554
▁واق	-555
▁خي	-556
ريون	-557
ارا	-558
▁سائي	-559
قو	-560
طي	-561
وني	-562
▁سنڌ	-563
فر	-564
▁حقي	-565
▁شاي	-566
▁ڏانهن	-567
ٽو	-568
▁ٻن	-569
▁ملڪ	-570
▁گهرجي	-571
دم	-572
▁بل	-573
▁S	-574
▁نن	-575
▁واپ	-576
▁ڪندي	-577
الت	-578
▁اندر	-579
▁نظر	-580
▁قو	-581
▁مث	-582
هين	-583
▁A	-584
▁هوندو	-585
▁آمري	-586
▁دا	-587
اتي	-588
▁ڪتاب	-589
▁آهيون	-590
ڊيو	-591
▁ڏيڻ	-592
بن	-593
at	-594
▁ڪندڙ	-595
▁جيڪا	-596
▁رس	-597
▁اچ	-598
▁نق	-599
اريخ	-600
▁ههههه	-601
▁ذري	-602
ڙا	-603
▁ياد	-604
▁ٻين	-605
▁سيا	-606
ذا	-607
▁ٿيل	-608
ضي	-609
▁آئون	-610
اند	-611
▁وچ	-612
▁ھڪ	-613
▁تاريخ	-614
▁اسٽ	-615
زا	-616
ڳو	-617
▁مڪمل	-618
▁جه	-619
▁پا	-620
▁جواب	-621
رم	-622
▁ڪيا	-623
لن	-624
ڊي	-625
▁عورت	-626
▁پس	-627
▁ادا	-628
رائي	-629
▁پري	-630
▁جم	-631
▁پاڪ	-632
▁کيس	-633
en	-634
▁نالو	-635
▁سبب	-636
▁فائ	-637
▁سگه	-638
▁نئين	-639
▁شهر	-640
زن	-641
▁ايس	-642
شش	-643
بار	-644
▁اد	-645
فظ	-646
▁گهڻو	-647
زار	-648
عت	-649
▁بنيا	-650
▁فو	-651
▁_	-652
به	-653
لاح	-654
ٽا	-655
▁تق	-656
▁يق	-657
▁بين	-658
▁بعد	-659
▁ث	-660
پو	-661
افي	-662
▁قيم	-663
▁پهرين	-664
▁تبدي	-665
▁'	-666
▁بد	-667
▁اهڙي	-668
or	-669
▁ايم	-670
▁انسان	-671
▁آن	-672
▁ختم	-673
▁هتي	-674
▁/	-675
▁اسڪ	-676
با	-677
▁6	-678
▁پيا	-679
لى	-680
ريل	-681
▁!	-682
▁آھن	-683
▁هاڻي	-684
▁پنهنجو	-685
▁انا	-686
al	-687
▁اف	-688
▁وري	-689
▁سگهو	-690
▁ات	-691
▁اڃ	-692
▁ٿيندو	-693
▁سيڪ	-694
يان	-695
▁اپ	-696
▁بند	-697
شه	-698
▁هل	-699
ڪيٽ	-700
▁مسئ	-701
▁سالن	-702
▁ڇڏيو	-703
▁پيو	-704
ضح	-705
▁شايد	-706
سر	-707
ورو	-708
▁ڪون	-709
▁رهن	-710
▁ڏئي	-711
▁t	-712
▁ٿئي	-713
▁اهم	-714
▁خلا	-715
▁هم	-716
▁ههههههههههههههه	-717
▁وٺ	-718
▁وڏو	-719
روري	-720
▁ڏا	-721
▁هيٺ	-722
▁هههههههههههههه	-723
▁c	-724
▁هٿ	-725
▁فون	-726
خل	-727
▁وس	-728
▁ايپ	-729
▁ملا	-730
▁دوست	-731
▁جان	-732
▁هههههه	-733
▁سام	-734
▁بح	-735
▁ملي	-736
▁ڦ	-737
جب	-738
ضو	-739
▁ڏنو	-740
▁انگ	-741
عا	-742
▁C	-743
▁نٿ	-744
▁صورت	-745
▁بهترين	-746
▁خط	-747
مون	-748
▁ڇڏي	-749
▁شو	-750
▁<	-751
▁خر	-752
▁دي	-753
▁آيو	-754
▁الا	-755
▁سگهن	-756
▁قيمت	-757
ارف	-758
▁خيال	-759
▁آئي	-760
▁ٻه	-761
▁M	-762
لوم	-763
▁مطلب	-764
▁وٺي	-765
▁ويب	-766
وار	-767
▁قان	-768
▁ٺاهي	-769
▁هجي	-770
▁ويندي	-771
يح	-772
▁ڀي	-773
▁ڪمپني	-774
▁حق	-775
▁پئي	-776
ههههههههه	-777
فو	-778
▁معي	-779
▁پڇ	-780
▁گو	-781
مد	-782
▁ڪوشش	-783
▁اوهان	-784
▁وانگر	-785
پورٽ	-786
▁منهنجو	-787
▁آهيو	-788
▁سوچ	-789
▁ٻيو	-790
ur	-791
▁پوء	-792
سوس	-793
▁خدا	-794
▁8	-795
يرا	-796
▁ذريعي	-797
▁خوش	-798
▁سوال	-799
▁رات	-800
▁7	-801
▁يون	-802
ليم	-803
▁ڪل	-804
▁عليه	-805
▁10	-806
it	-807
جڻ	-808
▁شر	-809
حد	-810
▁ڄاڻ	-811
▁ڪارو	-812
▁ار	-813
▁توھان	-814
جه	-815
اء	-816
هور	-817
ro	-818
▁ڳو	-819
▁مخ	-820
ھنجي	-821
▁امي	-822
▁صحيح	-823
▁گر	-824
لق	-825
▁d	-826
▁فار	-827
تا	-828
پر	-829
ing	-830
داري	-831
▁ٻار	-832
▁بچ	-833
يور	-834
▁آخر	-835
▁منهن	-836
▁لفظ	-837
▁ٽيڪ	-838
le	-839
▁P	-840
▁ڪيل	-841
▁مال	-842
▁سائيٽ	-843
▁غل	-844
▁پاڻي	-845
▁حقيقت	-846
شان	-847
▁تصو	-848
▁هنن	-849
يد	-850
كن	-851
▁مض	-852
="	-853
▁معلوم	-854
سل	-855
▁ڏسي	-856
▁اوھان	-857
يون	-858
▁بو	-859
زو	-860
▁تص	-861
▁حڪ	-862
▁قاب	-863
▁اڃا	-864
▁ترقي	-865
▁جاري	-866
ڊيا	-867
▁اتي	-868
زم	-869
ورن	-870
▁الم	-871
▁بن	-872
▁دوران	-873
▁فيص	-874
▁اک	-875
▁ننڍ	-876
تن	-877
اهه	-878
صر	-879
▁انتظ	-880
▁ڪان	-881
▁مم	-882
ياتي	-883
▁والله	-884
▁مٿ	-885
اءِ	-886
▁سڄ	-887
▁رنگ	-888
▁ائين	-889
▁حڪو	-890
▁عال	-891
▁ڪيترن	-892
▁ضروري	-893
▁T	-894
▁سين	-895
▁حالت	-896
هههههههههههه	-897
▁منظ	-898
▁9	-899
▁شك	-900
▁صف	-901
▁مواد	-902
▁ظاهر	-903
يي	-904
▁ولا	-905
باد	-906
▁حصو	-907
▁اصل	-908
▁گھر	-909
▁ٻاهر	-910
▁حل	-911
ic	-912
▁صاح	-913
▁علائ	-914
▁جل	-915
▁جتي	-916
▁خد	-917
لين	-918
▁بهتر	-919
▁سندن	-920
▁پاڪستان	-921
كت	-922
▁ساڳ	-923
▁چين	-924
ليل	-925
▁اٿ	-926
▁پون	-927
▁فق	-928
▁اثر	-929
خص	-930
▁مارڪيٽ	-931
▁پنهن	-932
راه	-933
▁ڪام	-934
▁الس	-935
▁محسوس	-936
▁اول	-937
▁حڪومت	-938
ره	-939
ڙن	-940
▁پهريون	-941
▁مٿي	-942
اپ	-943
▁ھن	-944
▁لڳي	-945
ائم	-946
▁آسان	-947
▁خري	-948
▁رکي	-949
▁سفر	-950
▁ڪجھ	-951
▁هوندا	-952
▁بال	-953
is	-954
دين	-955
▁مطاب	-956
▁مهي	-957
▁صلاح	-958
▁ڏسڻ	-959
ڊر	-960
▁اسين	-961
▁,	-962
▁هُ	-963
▁قر	-964
▁مست	-965
ضوع	-966
▁ڏني	-967
▁بيان	-968
▁عمر	-969
▁ٿيون	-970
هههههههههه	-971
▁اسپ	-972
▁B	-973
ed	-974
▁على	-975
لامي	-976
▁آمريڪا	-977
آآ	-978
▁تصوير	-979
قا	-980
ارت	-981
ستي	-982
▁اھو	-983
▁مج	-984
▁سک	-985
▁پهچ	-986
▁جنگ	-987
▁نف	-988
؟"	-989
▁>	-990
انو	-991
ظيم	-992
▁روز	-993
▁طرفان	-994
ههههههههههه	-995
داد	-996
▁جسم	-997
▁خلاف	-998
ِي	-999
يات	-1000
▁معيار	-1001
▁لائن	-1002
▁اندا	-1003
قل	-1004
▁*	-1005
▁صاحب	-1006
ساني	-1007
؟؟	-1008
ڏھن	-1009
▁پئ	-1010
▁ڏک	-1011
صد	-1012
▁شع	-1013
▁وارا	-1014
▁قب	-1015
▁ٿيندي	-1016
▁رڳو	-1017
اج	-1018
▁خدمت	-1019
▁سگهجي	-1020
▁رکڻ	-1021
ميشه	-1022
▁سه	-1023
▁چار	-1024
▁آف	-1025
▁رد	-1026
ڪٽ	-1027
گرام	-1028
پري	-1029
▁حو	-1030
اسين	-1031
ياري	-1032
ٽرو	-1033
▁اختي	-1034
▁مثال	-1035
ڌي	-1036
▁چه	-1037
▁خود	-1038
▁تنهنجي	-1039
▁عو	-1040
لان	-1041
هائي	-1042
▁الح	-1043
▁ڏيک	-1044
▁راند	-1045
ازي	-1046
▁زمين	-1047
▁هوءَ	-1048
▁دست	-1049
▁عر	-1050
هون	-1051
ڪاري	-1052
▁پيار	-1053
ديد	-1054
غير	-1055
ڪرو	-1056
▁تبديل	-1057
▁قانون	-1058
ائل	-1059
▁تيار	-1060
▁اش	-1061
اڪاڻ	-1062
▁شخص	-1063
▁ڊيٽا	-1064
▁واپس	-1065
باني	-1066
▁ايران	-1067
ئڻ	-1068
▁تان	-1069
▁ريا	-1070
▁ڏاڍ	-1071
▁نتي	-1072
▁p	-1073
▁حلو	-1074
▁بخ	-1075
▁ڇاڪاڻ	-1076
▁پيداوار	-1077
▁ھو	-1078
▁پسند	-1079
▁برا	-1080
20	-1081
▁تف	-1082
▁منت	-1083
▁اب	-1084
لائي	-1085
سٽم	-1086
▁I	-1087
▁قدر	-1088
▁چونڊ	-1089
▁مشهور	-1090
re	-1091
▁ڪيترائي	-1092
▁قابل	-1093
رر	-1094
▁سچ	-1095
▁ڏيو	-1096
▁مص	-1097
تل	-1098
▁بلا	-1099
ائو	-1100
▁فرا	-1101
اھ	-1102
▁اعلي	-1103
حي	-1104
انن	-1105
ٽل	-1106
▁انهيءَ	-1107
▁اجاز	-1108
▁نظام	-1109
▁ڪلا	-1110
▁هميشه	-1111
ڌو	-1112
▁تقري	-1113
▁چوڻ	-1114
).	-1115
▁موق	-1116
اسب	-1117
▁دف	-1118
▁صن	-1119
▁ٻنهي	-1120
▁کا	-1121
am	-1122
▁اجازت	-1123
قن	-1124
▁آيا	-1125
▁ڊگ	-1126
مبر	-1127
▁صارف	-1128
تر	-1129
▁آو	-1130
▁نيو	-1131
▁سڏ	-1132
▁مونکي	-1133
▁عن	-1134
▁طا	-1135
▁داخل	-1136
as	-1137
ذه	-1138
ac	-1139
▁ڏٺو	-1140
▁شين	-1141
▁خوب	-1142
▁يقين	-1143
ڻيڪ	-1144
▁باري	-1145
سپ	-1146
▁كل	-1147
توڻيڪ	-1148
دس	-1149
▁سٺو	-1150
▁نٿو	-1151
ڪيشن	-1152
▁الي	-1153
▁مري	-1154
▁پاس	-1155
▁شاع	-1156
▁[	-1157
▁پير	-1158
▁بنيادي	-1159
فوظ	-1160
قيق	-1161
▁ھي	-1162
▁آز	-1163
ائر	-1164
ياب	-1165
ميت	-1166
▁مهر	-1167
▁وارن	-1168
▁هذا	-1169
▁کانپو	-1170
▁وز	-1171
▁سرو	-1172
▁وڃڻ	-1173
▁جيتوڻيڪ	-1174
نت	-1175
▁راب	-1176
▁محفوظ	-1177
▁توکي	-1178
يس	-1179
ريڪ	-1180
▁پلي	-1181
us	-1182
art	-1183
▁لائ	-1184
▁موڪل	-1185
▁طاقت	-1186
▁ڏن	-1187
▁قائم	-1188
ــــــــــــ	-1189
▁حس	-1190
▁ڪونه	-1191
om	-1192
▁گراه	-1193
▁موضوع	-1194
▁بار	-1195
▁پروگرام	-1196
▁آواز	-1197
▁st	-1198
▁يور	-1199
وٽ	-1200
▁b	-1201
بان	-1202
et	-1203
خوا	-1204
▁H	-1205
▁ڳول	-1206
حا	-1207
ٽري	-1208
وه	-1209
▁واقعي	-1210
اريو	-1211
ضحك	-1212
▁مين	-1213
▁ڊو	-1214
▁نئون	-1215
▁مُ	-1216
▁ڄڻ	-1217
▁سمجهي	-1218
▁شه	-1219
ڙهي	-1220
▁N	-1221
▁کڻي	-1222
▁معلومات	-1223
▁ابو	-1224
▁ايت	-1225
ion	-1226
▁شيء	-1227
▁وار	-1228
▁آء	-1229
▁هيو	-1230
▁آه	-1231
▁سگھ	-1232
▁هجڻ	-1233
▁ڪير	-1234
▁تعليم	-1235
▁ويندا	-1236
ليس	-1237
▁اسلامي	-1238
▁D	-1239
يڪل	-1240
▁شادي	-1241
▁حڪم	-1242
▁سخت	-1243
▁خريد	-1244
▁ايڪس	-1245
▁تحقيق	-1246
ريا	-1247
▁مطابق	-1248
سا	-1249
هار	-1250
▁آخري	-1251
خواست	-1252
▁محبت	-1253
▁اڪثر	-1254
▁فراهم	-1255
ارين	-1256
▁مقصد	-1257
▁پنھنجي	-1258
▁منصو	-1259
▁ڪور	-1260
▁خراب	-1261
▁اسڪول	-1262
▁G	-1263
ڻڻ	-1264
ماني	-1265
ٽس	-1266
گل	-1267
ريان	-1268
▁اميد	-1269
▁حد	-1270
▁گرو	-1271
▁کانپوءِ	-1272
▁جڳ	-1273
▁درخواست	-1274
▁حض	-1275
سٽر	-1276
▁تا	-1277
گو	-1278
▁معا	-1279
▁سگھي	-1280
▁نالي	-1281
▁سيڪڙو	-1282
▁L	-1283
▁سط	-1284
▁ٻارن	-1285
صل	-1286
▁چڪو	-1287
▁15	-1288
ريو	-1289
▁آزاد	-1290
▁ڀر	-1291
▁200	-1292
▁غلط	-1293
▁آهين	-1294
بح	-1295
▁اسٽي	-1296
▁سڃ	-1297
مم	-1298
اجي	-1299
رفت	-1300
دگي	-1301
▁گهڻي	-1302
▁18	-1303
ex	-1304
▁ٿيا	-1305
▁ٻيهر	-1306
طو	-1307
▁m	-1308
▁ڊاڪ	-1309
▁ميل	-1310
▁نام	-1311
▁آفي	-1312
▁ميم	-1313
ورا	-1314
▁فقط	-1315
▁ڪمي	-1316
▁مفت	-1317
▁انداز	-1318
id	-1319
▁سڄي	-1320
el	-1321
▁سائين	-1322
يائين	-1323
▁ڪپ	-1324
▁احس	-1325
▁روح	-1326
il	-1327
گار	-1328
ٽنگ	-1329
▁فيصلو	-1330
▁ڳاله	-1331
ليڪيشن	-1332
دان	-1333
▁پنج	-1334
شو	-1335
ائش	-1336
▁فلم	-1337
▁پاران	-1338
كر	-1339
▁اختيار	-1340
▁اض	-1341
."	-1342
▁نقص	-1343
عه	-1344
▁طريقي	-1345
▁خان	-1346
▁ڪهڙي	-1347
▁چڱ	-1348
▁عد	-1349
▁ٻولي	-1350
▁ذهن	-1351
▁ره	-1352
▁ٻڌايو	-1353
▁سائن	-1354
▁سياسي	-1355
▁رج	-1356
▁که	-1357
▁باقي	-1358
▁بنياد	-1359
▁حي	-1360
▁نوجو	-1361
▁کول	-1362
▁ڪڍ	-1363
▁انٽر	-1364
▁ڪافي	-1365
دارن	-1366
▁اڳتي	-1367
ow	-1368
تون	-1369
▁ڀا	-1370
▁مناسب	-1371
▁رست	-1372
▁ورتو	-1373
خخ	-1374
▁جدا	-1375
▁پٽ	-1376
عن	-1377
▁اچڻ	-1378
▁جهڙو	-1379
▁اڳو	-1380
▁مرڪ	-1381
▁انگري	-1382
يندا	-1383
رڪ	-1384
▁مقاب	-1385
▁عالمي	-1386
▁سُ	-1387
▁ڊاڪٽر	-1388
▁اك	-1389
ڊل	-1390
▁ملڪن	-1391
▁سطح	-1392
طن	-1393
لاجي	-1394
▁شيون	-1395
▁رياست	-1396
ورڊ	-1397
▁ايندڙ	-1398
زر	-1399
▁ميڊيا	-1400
▁دلچ	-1401
▁شاگر	-1402
▁اق	-1403
▁نس	-1404
▁ممڪن	-1405
▁اڻ	-1406
سٽي	-1407
▁قدم	-1408
▁تخ	-1409
جر	-1410
شم	-1411
▁ڏسو	-1412
▁نقصان	-1413
▁بيم	-1414
▁خوبص	-1415
▁وڊيو	-1416
▁رق	-1417
▁وج	-1418
▁ڳوٺ	-1419
▁تجر	-1420
يب	-1421
▁اڪائون	-1422
▁ويج	-1423
فتي	-1424
▁کين	-1425
▁سنگ	-1426
▁ڪٿي	-1427
▁فن	-1428
يتن	-1429
▁انج	-1430
▁چاهيو	-1431
▁ضرور	-1432
▁اون	-1433
▁ترتي	-1434
▁ڪاروبار	-1435
▁واحد	-1436
▁مه	-1437
چر	-1438
▁حال	-1439
فته	-1440
▁شروعات	-1441
▁السلام	-1442
هيل	-1443
▁مرح	-1444
▁f	-1445
▁اُن	-1446
▁لاڳ	-1447
نالاجي	-1448
▁ذاتي	-1449
▁مهرباني	-1450
▁(1	-1451
000	-1452
▁R	-1453
▁آمريڪي	-1454
oo	-1455
▁ٽيڪنالاجي	-1456
ad	-1457
▁مز	-1458
▁اعلان	-1459
▁طب	-1460
▁کن	-1461
▁اصلي	-1462
▁مسلم	-1463
اندي	-1464
شل	-1465
▁آءٌ	-1466
ڪشن	-1467
▁فارم	-1468
او	-1469
▁پڪ	-1470
ec	-1471
▁مضمون	-1472
▁صحت	-1473
▁مسئلو	-1474
حت	-1475
▁فع	-1476
▁گهڻ	-1477
▁حا	-1478
▁نمبر	-1479
▁ٽو	-1480
▁ترتيب	-1481
▁F	-1482
▁w	-1483
▁ڊر	-1484
▁E	-1485
▁بڻجي	-1486
گري	-1487
▁0	-1488
▁W	-1489
▁تعلق	-1490
▁تڪ	-1491
▁ماح	-1492
▁سسٽم	-1493
▁علم	-1494
▁مطال	-1495
▁انھن	-1496
▁ڪيون	-1497
اهڻ	-1498
▁12	-1499
زادي	-1500
ay	-1501
▁صدر	-1502
▁نش	-1503
▁تعم	-1504
▁تڏهن	-1505
▁انٽرني	-1506
الر	-1507
فاظ	-1508
▁حير	-1509
ريف	-1510
ئو	-1511
لات	-1512
▁هنڌ	-1513
▁حقيقي	-1514
▁ڊائون	-1515
▁ايئر	-1516
▁ڏنل	-1517
يندو	-1518
▁رپورٽ	-1519
▁لوڊ	-1520
▁ٽيم	-1521
▁وڻ	-1522
صوص	-1523
▁سٺي	-1524
▁گوگل	-1525
▁سون	-1526
▁يونيور	-1527
يه	-1528
انا	-1529
▁عورتن	-1530
ريءَ	-1531
▁صو	-1532
آن	-1533
▁مذه	-1534
دت	-1535
▁سپ	-1536
▁وڃن	-1537
▁طريقو	-1538
اتو	-1539
يلو	-1540
▁وض	-1541
▁ايل	-1542
▁تس	-1543
▁اسلام	-1544
▁ايپليڪيشن	-1545
ريب	-1546
▁موت	-1547
ستائين	-1548
▁انساني	-1549
ديم	-1550
▁ڳن	-1551
▁هين	-1552
▁ڪجي	-1553
اڻو	-1554
▁مشين	-1555
▁ڌر	-1556
▁چئي	-1557
▁سامان	-1558
▁پل	-1559
ڏو	-1560
▁الع	-1561
he	-1562
يابي	-1563
▁لڳو	-1564
▁ماءُ	-1565
▁ڏيکاري	-1566
ڪان	-1567
▁قوم	-1568
nd	-1569
▁1.	-1570
▁اخت	-1571
▁جيت	-1572
لت	-1573
ائيندو	-1574
▁ماحول	-1575
▁ڪردار	-1576
▁تعمير	-1577
هوري	-1578
▁رھ	-1579
▁دير	-1580
ٽرول	-1581
خي	-1582
انه	-1583
▁حفاظ	-1584
▁پورو	-1585
▁اِ	-1586
ou	-1587
▁لکڻ	-1588
▁ٺاهڻ	-1589
▁پيغ	-1590
▁پور	-1591
▁آپري	-1592
">	-1593
▁احساس	-1594
▁خوبصورت	-1595
▁11	-1596
▁اط	-1597
▁رفت	-1598
گه	-1599
▁بت	-1600
▁سماجي	-1601
ظم	-1602
▁نفس	-1603
ادي	-1604
▁موب	-1605
▁نڪ	-1606
▁سروس	-1607
▁پوليس	-1608
ميو	-1609
▁صنعت	-1610
▁متا	-1611
▁جديد	-1612
اط	-1613
▁جذ	-1614
▁ڪيس	-1615
▁30	-1616
▁پوري	-1617
▁پارٽي	-1618
▁هاي	-1619
ol	-1620
هاي	-1621
▁حصي	-1622
▁ڪرا	-1623
▁قومي	-1624
▁ڪهاڻي	-1625
رات	-1626
▁گذريل	-1627
▁حضرت	-1628
▁پوندو	-1629
▁روش	-1630
▁واضح	-1631
▁مساف	-1632
ـــــ	-1633
▁علاج	-1634
▁اڪائونٽ	-1635
بوط	-1636
▁تش	-1637
▁start	-1638
▁وق	-1639
احت	-1640
▁تبديلي	-1641
▁تيز	-1642
▁معني	-1643
▁ڀيرو	-1644
▁ٽن	-1645
▁بلڪل	-1646
مه	-1647
لاس	-1648
▁ده	-1649
ديق	-1650
زمي	-1651
▁نٿا	-1652
▁گراهڪن	-1653
▁حص	-1654
▁خاند	-1655
▁ايه	-1656
▁ٻيا	-1657
▁اکين	-1658
ag	-1659
▁dur	-1660
▁مرد	-1661
▁گفت	-1662
▁حوالي	-1663
ڪڻ	-1664
▁ڪوبه	-1665
<<	-1666
▁سف	-1667
يتون	-1668
▁وڌي	-1669
▁موجب	-1670
▁هيون	-1671
هيون	-1672
▁ميمبر	-1673
ھين	-1674
ot	-1675
كل	-1676
▁پاسي	-1677
▁سلس	-1678
▁عوام	-1679
▁وٺڻ	-1680
▁تاز	-1681
▁اعت	-1682
زائن	-1683
▁يورپ	-1684
حال	-1685
سڪ	-1686
مار	-1687
▁موجوده	-1688
▁آزادي	-1689
پن	-1690
▁هند	-1691
▁يار	-1692
▁قبول	-1693
▁مٿان	-1694
▁100	-1695
▁جها	-1696
▁•	-1697
▁ھڪڙو	-1698
▁ست	-1699
انس	-1700
▁ڪئ	-1701
ائيو	-1702
▁ڍ	-1703
▁پڙهي	-1704
▁ڏيندو	-1705
ڙين	-1706
▁عملي	-1707
ٽڻ	-1708
▁صاف	-1709
حان	-1710
▁گھٽ	-1711
▁عظيم	-1712
▁مقرر	-1713
▁ڪين	-1714
شڪ	-1715
▁آگ	-1716
▁آرٽ	-1717
خو	-1718
وووو	-1719
ارڻ	-1720
▁رح	-1721
▁سرگر	-1722
▁تعداد	-1723
▁گڏيل	-1724
▁رهڻ	-1725
▁لازمي	-1726
رار	-1727
▁نوجوان	-1728
ٺيان	-1729
▁اهڙو	-1730
شيا	-1731
▁باد	-1732
▁ڪيم	-1733
زل	-1734
▁حت	-1735
▁جلد	-1736
▁شرح	-1737
▁خرچ	-1738
الله	-1739
ter	-1740
▁عند	-1741
▁هاڻ	-1742
▁صبح	-1743
▁اھ	-1744
▁O	-1745
▁ڪنٽرول	-1746
▁له	-1747
▁انتظار	-1748
▁سج	-1749
▁ايف	-1750
▁مهيا	-1751
▁راندي	-1752
۔۔۔	-1753
▁سواءِ	-1754
▁رقم	-1755
▁پڙهڻ	-1756
▁نموني	-1757
▁مضبوط	-1758
ٽين	-1759
▁وسي	-1760
ٺا	-1761
▁إ	-1762
▁ترج	-1763
▁ِ	-1764
▁آفيس	-1765
▁انسٽ	-1766
▁پوسٽ	-1767
▁خواب	-1768
▁ڪريان	-1769
شنل	-1770
▁احت	-1771
▁خير	-1772
▁هلا	-1773
▁ڌيان	-1774
▁زندگيءَ	-1775
لع	-1776
▁بع	-1777
▁خوشي	-1778
▁يونيورسٽي	-1779
ته	-1780
▁لن	-1781
▁ڪهڙو	-1782
شق	-1783
مر	-1784
ابر	-1785
▁پنهنجن	-1786
▁لاڳاپ	-1787
ڳي	-1788
▁رکيو	-1789
▁پهچي	-1790
▁بينڪ	-1791
▁محمد	-1792
▁ڪاري	-1793
▁ذميو	-1794
▁شان	-1795
▁سگهون	-1796
خر	-1797
▁مڙ	-1798
▁ڪئين	-1799
▁بج	-1800
▁پرا	-1801
▁چا	-1802
نين	-1803
▁ديو	-1804
ext	-1805
پٽ	-1806
▁تہ	-1807
شر	-1808
دود	-1809
▁k	-1810
▁برط	-1811
▁منج	-1812
▁وزير	-1813
▁ذڪر	-1814
نه	-1815
تان	-1816
ليت	-1817
▁14	-1818
▁اَ	-1819
▁نيٽ	-1820
▁حم	-1821
▁مليو	-1822
▁اوزار	-1823
امو	-1824
▁پھ	-1825
▁وف	-1826
▁فائل	-1827
سٽري	-1828
▁سنڌي	-1829
كي	-1830
ثيت	-1831
▁روشني	-1832
▁فل	-1833
▁ٽر	-1834
▁to	-1835
▁ڪرڻو	-1836
راف	-1837
▁وش	-1838
▁آباد	-1839
▁حفاظت	-1840
▁واڌ	-1841
▁آرام	-1842
افت	-1843
▁فرق	-1844
▁ون	-1845
▁علاوه	-1846
ابت	-1847
قبل	-1848
▁جلدي	-1849
▁متاثر	-1850
▁چم	-1851
▁جنھن	-1852
▁ڪارڪر	-1853
▁جمع	-1854
▁هلي	-1855
▁شيءِ	-1856
▁معام	-1857
▁علائقي	-1858
ڪت	-1859
▁تصديق	-1860
▁ڪريون	-1861
يوٽر	-1862
▁مير	-1863
▁هيءَ	-1864
▁ڪارڪردگي	-1865
افٽ	-1866
ent	-1867
▁جھ	-1868
ائيل	-1869
▁وڪرو	-1870
ارڊ	-1871
▁هفتي	-1872
os	-1873
▁ضح	-1874
▁زال	-1875
قات	-1876
▁جمهوري	-1877
▁سرڪاري	-1878
▁ڪال	-1879
▁استاد	-1880
▁پُ	-1881
▁پيام	-1882
▁حيثيت	-1883
▁هزار	-1884
▁تنظيم	-1885
▁ڪلڪ	-1886
▁پهريان	-1887
▁لان	-1888
▁انق	-1889
▁ايو	-1890
▁ٺهيل	-1891
▁ڪراچي	-1892
▁جيڪڏھن	-1893
▁تنهنڪري	-1894
بد	-1895
مينٽ	-1896
داشت	-1897
اااااااا	-1898
▁گي	-1899
▁رسائي	-1900
▁زين	-1901
ونا	-1902
▁سنڀ	-1903
▁ڪارڊ	-1904
▁سيٽ	-1905
▁عرب	-1906
▁تجربو	-1907
▁؛	-1908
▁لك	-1909
▁انڊ	-1910
تال	-1911
▁مف	-1912
ڪيل	-1913
▁رستو	-1914
▁پڇيو	-1915
▁شكرا	-1916
چو	-1917
ers	-1918
ائيندي	-1919
ab	-1920
اله	-1921
▁ھڪڙي	-1922
ينڊ	-1923
▁يه	-1924
▁نشان	-1925
▁رفتار	-1926
▁ماڊل	-1927
الف	-1928
لاب	-1929
▁ٿيندا	-1930
▁موسم	-1931
ch	-1932
وز	-1933
▁غلطي	-1934
▁13	-1935
▁ايندو	-1936
ليف	-1937
▁in	-1938
ــــــــــــــــ	-1939
ميل	-1940
▁مهم	-1941
▁ڪمپيوٽر	-1942
▁عي	-1943
▁ونڊ	-1944
باري	-1945
▁جائ	-1946
▁2.	-1947
▁مڃ	-1948
▁فط	-1949
-1	-1950
im	-1951
▁25	-1952
ig	-1953
▁ليک	-1954
▁لاڳو	-1955
▁وجود	-1956
▁پال	-1957
شا	-1958
▁نوڪري	-1959
هايو	-1960
▁مالي	-1961
▁ميو	-1962
▁ماهر	-1963
▁شڪ	-1964
▁جاءِ	-1965
▁معاه	-1966
▁وه	-1967
بري	-1968
▁هڪڙي	-1969
▁ڏاڍو	-1970
▁گرفت	-1971
▁پيغام	-1972
▁ـ	-1973
▁وائر	-1974
▁اني	-1975
>>	-1976
گز	-1977
▁عدالت	-1978
▁مائ	-1979
▁ڪونهي	-1980
بلي	-1981
▁سائنس	-1982
ولو	-1983
▁ميز	-1984
▁ادب	-1985
▁مجمو	-1986
▁ڊالر	-1987
▁تصور	-1988
▁آءِ	-1989
▁امت	-1990
يءَ	-1991
▁وضاحت	-1992
▁انٽرنيٽ	-1993
▁انگريزي	-1994
▁اقت	-1995
▁پليٽ	-1996
▁ڳالهيون	-1997
سنگ	-1998
▁گم	-1999
هندي	-2000
▁قتل	-2001
ولت	-2002
▁نمي	-2003
حن	-2004
▁16	-2005
ائيندا	-2006
جون	-2007
▁دٻ	-2008
▁جوڙ	-2009
▁ويئي	-2010
▁گرمي	-2011
▁مستقبل	-2012
َن	-2013
ريم	-2014
ڪارڊ	-2015
▁اصول	-2016
▁رب	-2017
پس	-2018
دري	-2019
▁ول	-2020
▁بحث	-2021
▁پيرو	-2022
رحال	-2023
▁l	-2024
انڊ	-2025
قول	-2026
▁ٽران	-2027
▁نور	-2028
▁$	-2029
حه	-2030
and	-2031
▁17	-2032
▁حر	-2033
ٽيو	-2034
▁سلام	-2035
▁خواه	-2036
▁دفعو	-2037
▁بڻائي	-2038
▁سگهيو	-2039
▁يقيني	-2040
ريز	-2041
▁هدا	-2042
▁اسڪرين	-2043
▁شاء	-2044
▁ٿيندڙ	-2045
غان	-2046
▁گا	-2047
▁اڳيان	-2048
سه	-2049
باس	-2050
▁ويون	-2051
▁ولي	-2052
▁رهندو	-2053
ريت	-2054
ايل	-2055
ــــــ	-2056
▁ٻو	-2057
ئل	-2058
▁انتي	-2059
▁لکيو	-2060
▁=	-2061
▁ڪاميابي	-2062
▁ميڪ	-2063
▁گرم	-2064
▁سڃاڻ	-2065
▁ايمان	-2066
▁حسين	-2067
▁کو	-2068
▁ڪندڙن	-2069
▁ڪامياب	-2070
▁ههه	-2071
▁قيا	-2072
قوامي	-2073
▁ٿورو	-2074
ختي	-2075
لسل	-2076
▁ٻڌي	-2077
▁سگھو	-2078
صيل	-2079
▁انتظام	-2080
▁موبائل	-2081
جيب	-2082
راني	-2083
▁وزن	-2084
▁ايترو	-2085
▁لکي	-2086
▁امير	-2087
▁اظ	-2088
َر	-2089
▁زور	-2090
▁چند	-2091
▁ڪاب	-2092
▁سگهان	-2093
▁بخش	-2094
▁ٽرين	-2095
▁ابت	-2096
▁شڪل	-2097
▁اللي	-2098
ub	-2099
▁بنا	-2100
▁ڊگهي	-2101
▁بهرحال	-2102
▁قانوني	-2103
اڻن	-2104
▁امام	-2105
▁صورتحال	-2106
▁چئ	-2107
▁برابر	-2108
▁الاقوامي	-2109
21	-2110
▁سل	-2111
▁هال	-2112
▁اينڊ	-2113
▁ثابت	-2114
▁مخصوص	-2115
▁پيءُ	-2116
▁ايڊ	-2117
▁اگر	-2118
▁ريت	-2119
▁الن	-2120
ذي	-2121
لاق	-2122
▁قل	-2123
▁نسل	-2124
▁ڪوڊ	-2125
▁کانسو	-2126
▁اھي	-2127
▁برق	-2128
▁متع	-2129
▁شڪار	-2130
iv	-2131
▁ورڪ	-2132
▁U	-2133
▁تك	-2134
▁ناڪ	-2135
▁سوشل	-2136
▁ماري	-2137
▁مقابلي	-2138
▁پاب	-2139
▁هوس	-2140
▁منهنجا	-2141
▁جيستائين	-2142
وجود	-2143
▁ثق	-2144
▁جر	-2145
▁خوف	-2146
▁h	-2147
ڙيل	-2148
▁اڌ	-2149
ايان	-2150
▁ڪُ	-2151
غيره	-2152
▁حتى	-2153
▁مات	-2154
▁بورڊ	-2155
▁ڳولي	-2156
▁وفا	-2157
▁گري	-2158
▁خاندان	-2159
▁چونڊيو	-2160
▁صدي	-2161
▁حالتن	-2162
فه	-2163
▁آب	-2164
▁گل	-2165
▁عرصي	-2166
نٽ	-2167
▁گروپ	-2168
▁دوستن	-2169
▁چڪا	-2170
ation	-2171
▁اهڙا	-2172
▁سافٽ	-2173
▁انف	-2174
now	-2175
▁هڪڙو	-2176
انگ	-2177
▁آڪ	-2178
▁قط	-2179
▁تفصيل	-2180
قع	-2181
▁زمان	-2182
ئس	-2183
▁اڏ	-2184
▁ايندي	-2185
ڀر	-2186
ليق	-2187
▁چر	-2188
▁زي	-2189
▁X	-2190
▁افغان	-2191
▁تنهنجو	-2192
▁هيچ	-2193
زيشن	-2194
كك	-2195
▁سياست	-2196
▁سار	-2197
▁ڌرتي	-2198
مائي	-2199
▁دري	-2200
▁فلس	-2201
.1	-2202
▁زخ	-2203
▁ڳنڍ	-2204
▁لفظن	-2205
▁نگ	-2206
▁نڪري	-2207
▁گذاري	-2208
ڊا	-2209
▁سمنڊ	-2210
ندر	-2211
▁پوي	-2212
ul	-2213
▁ڳولا	-2214
بال	-2215
▁دعا	-2216
▁شم	-2217
▁توان	-2218
▁نص	-2219
▁طبي	-2220
اوي	-2221
▁يم	-2222
▁شاگردن	-2223
▁مارڪيٽنگ	-2224
▁کولڻ	-2225
ائيس	-2226
▁هيا	-2227
ڊڪٽ	-2228
کيون	-2229
▁ڳالھ	-2230
▁ملاقات	-2231
▁50	-2232
▁درو	-2233
ـــــــ	-2234
▁لم	-2235
▁نٿي	-2236
▁جڳهه	-2237
▁اضافي	-2238
▁باوجود	-2239
▁ماني	-2240
▁زماني	-2241
▁سوچيو	-2242
هرست	-2243
▁شام	-2244
▁نوٽ	-2245
تك	-2246
▁199	-2247
▁الف	-2248
▁حساب	-2249
▁بيماري	-2250
▁K	-2251
ap	-2252
▁آئين	-2253
▁اڇ	-2254
لينڊ	-2255
▁ايپل	-2256
ونه	-2257
▁فهرست	-2258
▁ويجهو	-2259
▁صلاحيت	-2260
▁ترين	-2261
▁جهڙوڪ	-2262
لك	-2263
▁اث	-2264
ir	-2265
ارٽ	-2266
▁درد	-2267
▁ملين	-2268
چه	-2269
ماغ	-2270
▁حياتي	-2271
▁#	-2272
سپي	-2273
▁آسم	-2274
▁خار	-2275
▁ٺيڪ	-2276
▁چوي	-2277
عات	-2278
▁هفت	-2279
▁فائدو	-2280
▁ملڻ	-2281
▁بلاگ	-2282
▁لائين	-2283
▁زبان	-2284
▁پنهنجا	-2285
em	-2286
يندي	-2287
عظم	-2288
▁فور	-2289
▁موڪ	-2290
▁منتقل	-2291
▁لاڳاپيل	-2292
▁ڪنداسين	-2293
▁مهين	-2294
▁وڌائڻ	-2295
▁سور	-2296
▁علائقن	-2297
هيه	-2298
▁مب	-2299
ڙيون	-2300
▁بادش	-2301
▁ڇوڪري	-2302
▁جهاز	-2303
▁سمجھ	-2304
▁باز	-2305
▁خال	-2306
▁سنڀال	-2307
▁سگھن	-2308
▁شاندار	-2309
▁ڀلي	-2310
▁ڇپ	-2311
▁فيس	-2312
▁چڪي	-2313
▁مختصر	-2314
▁ڪاروباري	-2315
▁عل	-2316
▁24	-2317
▁چاهيندا	-2318
▁نيوز	-2319
▁ميدان	-2320
ئا	-2321
▁o	-2322
▁عز	-2323
ولين	-2324
▁دماغ	-2325
طا	-2326
▁راندين	-2327
رز	-2328
▁ويڪ	-2329
ايت	-2330
ارتي	-2331
علي	-2332
▁دان	-2333
▁ڪلاڪ	-2334
جان	-2335
انيه	-2336
يز	-2337
ڪٽر	-2338
▁قد	-2339
▁2020	-2340
▁know	-2341
▁موسي	-2342
▁مهينن	-2343
وند	-2344
▁پک	-2345
▁بدر	-2346
▁انتهائي	-2347
هڪ	-2348
ينا	-2349
اما	-2350
▁دع	-2351
▁ٻڌائي	-2352
كه	-2353
ھر	-2354
▁اشت	-2355
عام	-2356
▁وص	-2357
▁درست	-2358
▁پريشان	-2359
ھنجو	-2360
▁رکو	-2361
▁ننڊ	-2362
▁رستي	-2363
▁قديم	-2364
▁پوئ	-2365
تح	-2366
▁تجز	-2367
بير	-2368
▁اٽ	-2369
▁پيڪ	-2370
▁مالڪ	-2371
▁ويئر	-2372
کان	-2373
▁کانسواءِ	-2374
▁مرا	-2375
▁لکيل	-2376
▁گذري	-2377
▁اکيون	-2378
نڊن	-2379
▁هئڻ	-2380
▁سڀئي	-2381
▁سامهون	-2382
▁الز	-2383
▁فعال	-2384
جد	-2385
▁غور	-2386
▁جڏھن	-2387
▁ساڳي	-2388
ئه	-2389
حاظ	-2390
▁بيشڪ	-2391
▁توانائي	-2392
پا	-2393
▁وڃو	-2394
▁وڏا	-2395
▁آپريشن	-2396
▁اهميت	-2397
▁اسپتال	-2398
▁نڪر	-2399
▁بجلي	-2400
▁شاعر	-2401
▁وغيره	-2402
▁راز	-2403
▁مقامي	-2404
▁بابا	-2405
▁چيزي	-2406
ess	-2407
▁نيا	-2408
▁ڌار	-2409
▁2019	-2410
ٽائي	-2411
▁جئين	-2412
▁رت	-2413
▁ڏو	-2414
▁موقعو	-2415
▁آمد	-2416
▁پين	-2417
▁منظر	-2418
▁دلچسپ	-2419
▁بيو	-2420
▁ويل	-2421
▁فض	-2422
▁ڪيائين	-2423
شتي	-2424
▁ساڻ	-2425
ِن	-2426
▁الص	-2427
▁بئن	-2428
ڏانهن	-2429
▁رڪارڊ	-2430
بيت	-2431
لز	-2432
▁g	-2433
▁।	-2434
▁نتيجي	-2435
▁دلچسپي	-2436
un	-2437
▁ڏيندا	-2438
▁بغير	-2439
▁ٺاهيو	-2440
▁برقرار	-2441
▁مگر	-2442
▁V	-2443
▁واپار	-2444
▁تقريبن	-2445
▁ڏاڍي	-2446
▁حيرت	-2447
▁سميت	-2448
▁آساني	-2449
▁صارفين	-2450
▁اعليٰ	-2451
▁بڻائڻ	-2452
▁آڻ	-2453
▁واس	-2454
▁اڃان	-2455
▁ميٽر	-2456
▁پوئتي	-2457
روف	-2458
▁شوي	-2459
سون	-2460
▁ڳالهائڻ	-2461
▁آڻڻ	-2462
▁پڙهن	-2463
▁آرٽيڪل	-2464
th	-2465
وت	-2466
▁بيڪ	-2467
▁لحاظ	-2468
مپ	-2469
▁n	-2470
▁بص	-2471
▁غريب	-2472
▁مسئلن	-2473
▁سمجهيو	-2474
ڙپ	-2475
▁ايڇ	-2476
▁مصنو	-2477
ڄي	-2478
تماد	-2479
ڙڻ	-2480
▁بھ	-2481
▁کل	-2482
▁روڊ	-2483
▁مسلسل	-2484
▁چاهيان	-2485
▁جام	-2486
▁محدود	-2487
▁ٽرانس	-2488
um	-2489
text	-2490
▁آفري	-2491
▁قسمن	-2492
حو	-2493
ٺل	-2494
▁قا	-2495
▁هيءُ	-2496
▁ايتري	-2497
▁ڏينھن	-2498
▁چيائين	-2499
▁اعتماد	-2500
ـــــــــ	-2501
يف	-2502
ايون	-2503
▁دين	-2504
▁2018	-2505
▁كان	-2506
▁سري	-2507
▁قبل	-2508
سس	-2509
▁شايع	-2510
▁3.	-2511
▁الڳ	-2512
▁اجلاس	-2513
ادر	-2514
▁سيل	-2515
دد	-2516
▁ايا	-2517
▁قرار	-2518
طه	-2519
▁قرض	-2520
▁تحفظ	-2521
▁ڪيترا	-2522
all	-2523
▁عا	-2524
▁مغ	-2525
▁ڊپ	-2526
▁تجرب	-2527
سنس	-2528
▁گهڻا	-2529
▁متح	-2530
ڪه	-2531
2.	-2532
ڪيو	-2533
▁کر	-2534
▁مشت	-2535
▁وائرس	-2536
مولي	-2537
كس	-2538
ٿر	-2539
▁يک	-2540
▁شوق	-2541
ائيڊ	-2542
يائي	-2543
▁فوج	-2544
ظر	-2545
▁^	-2546
▁زم	-2547
▁ارس	-2548
▁عبد	-2549
▁فٽ	-2550
▁عالم	-2551
▁بون	-2552
▁ادارن	-2553
▁مسافر	-2554
▁انسٽال	-2555
▁هُن	-2556
▁+	-2557
عودي	-2558
يندڙ	-2559
▁ڪندس	-2560
▁قدرتي	-2561
ينه	-2562
▁ڏکڻ	-2563
▁خالي	-2564
▁ڪنھن	-2565
▁مقدار	-2566
ثي	-2567
ڻن	-2568
▁هز	-2569
▁ڊائ	-2570
▁سواء	-2571
▁آخرڪار	-2572
▁i	-2573
▁جيان	-2574
▁حڪمت	-2575
▁منٽ	-2576
▁پائي	-2577
▁ڳولڻ	-2578
ڊيٽ	-2579
▁And	-2580
▁انص	-2581
▁عاد	-2582
▁ايراني	-2583
ٻي	-2584
▁وح	-2585
▁پوندي	-2586
وم	-2587
ارش	-2588
▁هجن	-2589
▁ويس	-2590
▁پلا	-2591
▁رابطو	-2592
▁عوامي	-2593
▁نظري	-2594
وف	-2595
وره	-2596
▁امان	-2597
ٿا	-2598
▁آس	-2599
▁جاچ	-2600
▁ٽيسٽ	-2601
▁يوم	-2602
▁مزاح	-2603
▁ننڍي	-2604
▁وب	-2605
▁اچو	-2606
▁ساڳيو	-2607
▁سماج	-2608
يراعظم	-2609
ڪم	-2610
▁اچن	-2611
▁مڇ	-2612
▁تصويرون	-2613
الن	-2614
▁جذب	-2615
رل	-2616
▁]	-2617
ااا	-2618
اءُ	-2619
لوي	-2620
▁اڪي	-2621
▁ناز	-2622
▁گڏو	-2623
▁جسماني	-2624
ڙيءَ	-2625
▁ليه	-2626
▁واٽ	-2627
▁امن	-2628
▁تحت	-2629
▁دعو	-2630
▁ذات	-2631
▁ورتي	-2632
ind	-2633
▁دوا	-2634
امه	-2635
▁الو	-2636
▁اظهار	-2637
ابي	-2638
▁يك	-2639
roid	-2640
▁سڏيو	-2641
▁مهيني	-2642
انھن	-2643
▁بق	-2644
▁نہ	-2645
بادي	-2646
▁قرآن	-2647
▁بم	-2648
▁ڳا	-2649
▁ڪسٽم	-2650
▁مذهبي	-2651
▁گھرجي	-2652
گن	-2653
▁سڌو	-2654
اڻڻ	-2655
▁طريق	-2656
▁مڙس	-2657
▁ويڊيو	-2658
▁هيڪ	-2659
▁چيڪ	-2660
▁بئنڪ	-2661
▁بندي	-2662
▁گڏجي	-2663
▁معياري	-2664
ut	-2665
ياد	-2666
▁سائ	-2667
▁عجيب	-2668
▁ساڳئي	-2669
▁ماڻھو	-2670
▁ڊوائيس	-2671
▁براي	-2672
▁واقع	-2673
▁پويان	-2674
▁re	-2675
▁مظ	-2676
جيٽل	-2677
۔۔۔۔	-2678
▁اوچ	-2679
▁حصن	-2680
▁شهري	-2681
▁امتحان	-2682
▁داخ	-2683
▁سلسلي	-2684
▁پروسي	-2685
▁ايجن	-2686
▁وَ	-2687
▁جنسي	-2688
▁ڪيترو	-2689
▁اسٽيشن	-2690
▁لائسنس	-2691
▁چنڊ	-2692
▁ابتدا	-2693
▁پول	-2694
▁ايئن	-2695
▁Android	-2696
▁وزيراعظم	-2697
▁وم	-2698
▁شرط	-2699
▁وات	-2700
▁احتجا	-2701
▁خامو	-2702
▁يس	-2703
▁مئي	-2704
ٽوبر	-2705
▁مارچ	-2706
▁شاگرد	-2707
گا	-2708
▁v	-2709
▁<<	-2710
▁لڪ	-2711
▁ڊيو	-2712
▁ڪرائي	-2713
▁وو	-2714
▁مجموعي	-2715
▁J	-2716
ميم	-2717
▁ارا	-2718
▁عشق	-2719
▁نمائ	-2720
حب	-2721
▁2017	-2722
▁منظم	-2723
▁مخالف	-2724
سته	-2725
گيري	-2726
▁ڏيندي	-2727
جم	-2728
▁بيت	-2729
▁جنم	-2730
▁لباس	-2731
▁21	-2732
▁40	-2733
▁فا	-2734
▁مافي	-2735
▁ملاز	-2736
▁کائڻ	-2737
▁منھنجي	-2738
ٽيءَ	-2739
▁com	-2740
▁ليکڪ	-2741
▁معمولي	-2742
ڊنگ	-2743
▁کار	-2744
▁اشارو	-2745
▁مسئلي	-2746
▁پراڻي	-2747
▁ارب	-2748
▁ڊجيٽل	-2749
▁مسلمان	-2750
ڪش	-2751
▁ساز	-2752
▁چڱي	-2753
▁منظور	-2754
▁مطابقت	-2755
▁ذميواري	-2756
لاد	-2757
▁مَ	-2758
▁ايندا	-2759
▁اڪيلو	-2760
▁بدران	-2761
ستاني	-2762
▁طريقا	-2763
▁شهي	-2764
▁هوا	-2765
▁ڪمري	-2766
oc	-2767
▁صد	-2768
▁ڪلو	-2769
▁پالي	-2770
▁دستياب	-2771
نديون	-2772
▁جهڙي	-2773
▁منزل	-2774
▁ڪورٽ	-2775
▁اسٽور	-2776
▁فرانس	-2777
▁تاريخي	-2778
کو	-2779
▁تجزيو	-2780
پشن	-2781
▁ٻڌڻ	-2782
▁انقلاب	-2783
▁نگر	-2784
▁ڪالي	-2785
▁جز	-2786
▁سَ	-2787
▁فرم	-2788
نج	-2789
▁آزم	-2790
▁ٽائي	-2791
▁آڪٽوبر	-2792
▁مشڪل	-2793
▁فڪر	-2794
▁مرڪز	-2795
▁گهربل	-2796
▁دستاوي	-2797
▁والدين	-2798
▁گرفتار	-2799
عل	-2800
▁خيلي	-2801
▁معنيٰ	-2802
ak	-2803
pt	-2804
▁سڌ	-2805
▁هه	-2806
▁الخ	-2807
▁مشك	-2808
▁اضاف	-2809
▁کليل	-2810
50	-2811
شمن	-2812
▁فري	-2813
st	-2814
رس	-2815
ليٽ	-2816
▁وڪي	-2817
▁سيڙپ	-2818
▁ممكن	-2819
▁ڪتابن	-2820
▁هندستان	-2821
▁آئ	-2822
▁ڪڍي	-2823
▁روشن	-2824
▁وانا	-2825
▁اسپين	-2826
▁سگهندا	-2827
کيه	-2828
پٽمبر	-2829
▁هوٽل	-2830
کر	-2831
▁>>	-2832
▁هيٺيان	-2833
▁ھئي	-2834
▁سيريز	-2835
ڻا	-2836
باب	-2837
▁اتر	-2838
▁حبي	-2839
▁اسيم	-2840
▁ڪابه	-2841
▁موٽي	-2842
▁شاعري	-2843
▁عليها	-2844
گير	-2845
▁جرم	-2846
▁تعريف	-2847
▁يورپي	-2848
▁ڪمپنين	-2849
▁بلو	-2850
▁گراهڪ	-2851
طف	-2852
▁سد	-2853
▁طريقن	-2854
▁يال	-2855
لڊ	-2856
▁ھر	-2857
▁ٿوري	-2858
▁سڪ	-2859
▁مدا	-2860
▁آل	-2861
▁جيئ	-2862
ov	-2863
="1	-2864
اره	-2865
▁پرين	-2866
▁خواهش	-2867
3.	-2868
فرن	-2869
▁ادي	-2870
▁طيب	-2871
▁۔۔۔	-2872
▁نيڪ	-2873
▁سينٽر	-2874
▁سيپٽمبر	-2875
▁فوجي	-2876
▁جائزو	-2877
▁اسم	-2878
▁سڄو	-2879
▁ڳالهين	-2880
▁زن	-2881
هيهي	-2882
▁موسيقي	-2883
▁مئ	-2884
▁رائ	-2885
▁سزا	-2886
▁سوچي	-2887
▁قومن	-2888
▁ڊزائن	-2889
▁ڪرائڻ	-2890
▁(2	-2891
▁باغ	-2892
▁فيه	-2893
▁حلوه	-2894
▁فطرت	-2895
▁پئسا	-2896
▁برو	-2897
▁راه	-2898
وال	-2899
▁چيز	-2900
نى	-2901
▁ٻُ	-2902
▁لنڪ	-2903
▁اتفا	-2904
▁نماز	-2905
▁جيترو	-2906
▁مشتمل	-2907
▁عنصر	-2908
▁انجني	-2909
▁دورو	-2910
▁واپسي	-2911
ندس	-2912
▁عذ	-2913
▁بونس	-2914
▁فوري	-2915
▁؟؟	-2916
▁گول	-2917
▁شاهه	-2918
▁ادائي	-2919
سك	-2920
لاءِ	-2921
▁فوٽو	-2922
▁اسيمبلي	-2923
▁خور	-2924
▁صور	-2925
▁چيني	-2926
if	-2927
امن	-2928
▁,,	-2929
ترين	-2930
▁فوت	-2931
▁ڏيئي	-2932
ائيندڙ	-2933
▁بود	-2934
▁شعر	-2935
▁ڀري	-2936
▁ڀيرا	-2937
▁آبادي	-2938
▁مھ	-2939
راهي	-2940
▁هدايت	-2941
▁چوندا	-2942
▁دائ	-2943
▁مور	-2944
▁محنت	-2945
▁رکندڙ	-2946
▁عه	-2947
▁هُو	-2948
▁خلاص	-2949
▁جنرل	-2950
وڙ	-2951
ائب	-2952
▁حما	-2953
▁نوان	-2954
▁تجو	-2955
▁تيل	-2956
▁روم	-2957
▁بحال	-2958
▁انعام	-2959
چار	-2960
▁چيم	-2961
▁آسمان	-2962
▁ترجمو	-2963
▁پهچائڻ	-2964
▁ساٿ	-2965
▁سست	-2966
▁ڀيٽ	-2967
▁چان	-2968
▁فقير	-2969
▁گيت	-2970
جڪ	-2971
▁ڪانه	-2972
▁اضافو	-2973
▁198	-2974
▁موٽر	-2975
▁المو	-2976
▁اخبار	-2977
ڊو	-2978
عتي	-2979
▁اڳي	-2980
▁مدي	-2981
عة	-2982
▁برطان	-2983
ڙڪ	-2984
▁~	-2985
▁تعا	-2986
▁ھون	-2987
▁رهندا	-2988
ھيو	-2989
▁ڪميون	-2990
▁سدائين	-2991
▁اذا	-2992
▁4.	-2993
▁دشمن	-2994
▁ساري	-2995
▁ميوز	-2996
▁سفارش	-2997
▁هينئر	-2998
▁ڪيتريون	-2999
آمد	-3000
▁وت	-3001
▁راح	-3002
▁وڏن	-3003
▁2016	-3004
▁ڀريل	-3005
گڏ	-3006
ack	-3007
▁آرڊر	-3008
▁ادبي	-3009
▁تنھن	-3010
▁سڃاڻپ	-3011
▁الج	-3012
▁سمجهڻ	-3013
▁تحريڪ	-3014
▁سياحت	-3015
سب	-3016
▁لل	-3017
:1	-3018
ضر	-3019
ُو	-3020
▁the	-3021
▁کڻڻ	-3022
رائيڊ	-3023
▁مذهب	-3024
▁گزار	-3025
ــــــــــ	-3026
بئي	-3027
عرف	-3028
▁رهندي	-3029
▁آگسٽ	-3030
▁قسمت	-3031
▁اداري	-3032
ثير	-3033
▁شما	-3034
▁عيس	-3035
▁ساٿي	-3036
▁صفحا	-3037
▁ڪاليج	-3038
ia	-3039
▁كله	-3040
▁مثل	-3041
▁برانڊ	-3042
▁ناڪام	-3043
يلن	-3044
▁197	-3045
▁پنا	-3046
▁آهنگ	-3047
▁انڪار	-3048
▁سگھجي	-3049
))	-3050
30	-3051
هيو	-3052
▁خاط	-3053
▁طلب	-3054
est	-3055
▁قص	-3056
▁ايشيا	-3057
▁انه	-3058
▁چڱو	-3059
▁رابطي	-3060
▁مسئلا	-3061
▁ونڊوز	-3062
▁سير	-3063
▁دڪان	-3064
▁گهري	-3065
▁حيران	-3066
ايه	-3067
▁ٻڌو	-3068
▁موڪليو	-3069
فيد	-3070
▁طال	-3071
▁ليش	-3072
▁ڊيزائن	-3073
▁انجنيئر	-3074
سمبر	-3075
▁عزت	-3076
▁پرڏي	-3077
▁موقعي	-3078
▁عزي	-3079
▁وسيع	-3080
▁حمايت	-3081
جهه	-3082
▁پَ	-3083
▁روس	-3084
▁مره	-3085
▁سوچڻ	-3086
▁مکيه	-3087
▁پٿر	-3088
▁نيست	-3089
▁ويهي	-3090
▁سموري	-3091
▁پروفي	-3092
pp	-3093
ٻئي	-3094
يورٽي	-3095
▁احتجاج	-3096
▁زر	-3097
▁آسٽ	-3098
▁زير	-3099
▁چور	-3100
▁فائلون	-3101
▁بغ	-3102
▁بک	-3103
▁حرف	-3104
▁ضاب	-3105
▁امڪان	-3106
پان	-3107
▁ائ	-3108
▁كم	-3109
اسان	-3110
▁ٻڌل	-3111
▁هوائي	-3112
▁سرگرمي	-3113
▁رض	-3114
▁سِ	-3115
ليون	-3116
▁هليو	-3117
▁مصنوعات	-3118
ry	-3119
▁۱	-3120
▁رهيون	-3121
▁جيل	-3122
▁تعلي	-3123
▁22	-3124
▁رسي	-3125
▁شيئر	-3126
▁ڪلاس	-3127
▁نومبر	-3128
▁گھڻو	-3129
ندگي	-3130
▁ناهن	-3131
▁ادائيگي	-3132
بول	-3133
صوصي	-3134
▁رين	-3135
▁هئس	-3136
▁هٿن	-3137
▁گاڏي	-3138
▁پکي	-3139
اسي	-3140
▁هار	-3141
▁ڪرو	-3142
▁زخمي	-3143
▁ماضي	-3144
▁جنوري	-3145
▁افغانستان	-3146
▁جبل	-3147
▁لڳا	-3148
▁ميان	-3149
▁ملڪيت	-3150
ٽيف	-3151
▁حاد	-3152
▁ڏها	-3153
▁ٽيون	-3154
▁سعودي	-3155
▁هيٺين	-3156
ib	-3157
▁اگ	-3158
▁؟؟؟	-3159
▁سنڏ	-3160
▁انصاف	-3161
يري	-3162
▁ڀلا	-3163
▁هع	-3164
▁هوء	-3165
▁گهو	-3166
▁ٻيون	-3167
▁ڪميشن	-3168
چا	-3169
▁مردن	-3170
▁سمجهان	-3171
قد	-3172
يڪشن	-3173
▁ڏانھن	-3174
▁عورتون	-3175
رسي	-3176
▁موٽ	-3177
▁درجي	-3178
▁لنڊن	-3179
▁خصوصي	-3180
▁اينڊرائيڊ	-3181
فرنس	-3182
پوري	-3183
▁آڻي	-3184
ائيءَ	-3185
▁ڪانهي	-3186
▁a	-3187
▁سيم	-3188
سيم	-3189
▁لسٽ	-3190
▁ترڪي	-3191
▁اپڊيٽ	-3192
ٽڪ	-3193
الم	-3194
▁خات	-3195
▁ماپ	-3196
▁نين	-3197
اهرين	-3198
▁اقتص	-3199
سوي	-3200
▁فرض	-3201
▁دهشت	-3202
▁ڪوئي	-3203
▁رانديگر	-3204
▁تازو	-3205
▁ڳالهائي	-3206
ـــــــــــ	-3207
▁r	-3208
پيڊيا	-3209
▁مقابلو	-3210
ڊن	-3211
▁شده	-3212
▁عنو	-3213
▁پيٽ	-3214
▁تلا	-3215
▁جاء	-3216
▁انجام	-3217
▁ملائي	-3218
::	-3219
مڻ	-3220
بادل	-3221
▁سلا	-3222
▁فصل	-3223
▁2021	-3224
▁تقريبا	-3225
▁هونديون	-3226
لوڊ	-3227
▁رکن	-3228
▁ڪرايو	-3229
▁ميمبرن	-3230
▁پراڊڪٽ	-3231
od	-3232
بة	-3233
ليه	-3234
ٽون	-3235
▁انك	-3236
▁شهرن	-3237
▁نواز	-3238
▁ويٺو	-3239
▁هست	-3240
▁اقول	-3241
▁نالا	-3242
▁ڪائون	-3243
ائس	-3244
قاب	-3245
ووو	-3246
▁شف	-3247
▁مسي	-3248
▁وفات	-3249
▁پٺيان	-3250
UM	-3251
زش	-3252
▁2-	-3253
▁سرا	-3254
▁ناول	-3255
▁يمكن	-3256
▁ڏکيو	-3257
▁تجويز	-3258
▁رجسٽر	-3259
▁آدم	-3260
▁نتيجو	-3261
▁تعالي	-3262
▁گزارش	-3263
تيون	-3264
▁وزار	-3265
▁سائيز	-3266
▁سمجهه	-3267
▁عمارت	-3268
ُن	-3269
خخخخ	-3270
▁ڏنا	-3271
ازن	-3272
ليا	-3273
▁احمد	-3274
▁گڏوگڏ	-3275
ew	-3276
عمل	-3277
▁ڪھ	-3278
هندو	-3279
▁ليگ	-3280
▁واقعا	-3281
▁منصوبي	-3282
▁ضحك	-3283
▁ڳالهايو	-3284
▁ڪَ	-3285
▁تبص	-3286
▁ڊسمبر	-3287
):	-3288
اتل	-3289
▁جنس	-3290
▁فيل	-3291
▁اوڀر	-3292
▁شرڪت	-3293
▁وفاقي	-3294
ريٽ	-3295
يييي	-3296
▁آيل	-3297
▁متبادل	-3298
iz	-3299
▁مول	-3300
▁واقف	-3301
▁پيروي	-3302
▁ضرورتن	-3303
،"	-3304
جين	-3305
▁عقي	-3306
▁قرب	-3307
▁جهان	-3308
▁مريض	-3309
▁ڏياري	-3310
▁اسرائي	-3311
▁خل	-3312
▁ير	-3313
ڪرين	-3314
▁متن	-3315
▁خطرن	-3316
▁سيني	-3317
▁نشاني	-3318
طان	-3319
▁اٺ	-3320
▁کڻ	-3321
▁كيف	-3322
▁وٺو	-3323
▁خريداري	-3324
▁ماش	-3325
▁پئجي	-3326
▁تعاون	-3327
قه	-3328
ايتي	-3329
▁الحال	-3330
▁اٿم	-3331
▁روپ	-3332
▁نصي	-3333
▁گلي	-3334
▁اُهي	-3335
▁باهه	-3336
▁مبار	-3337
▁يورو	-3338
▁تسليم	-3339
▁واريون	-3340
يوم	-3341
▁راءِ	-3342
▁تخليق	-3343
▁تڪليف	-3344
▁سلسلو	-3345
▁کائي	-3346
سري	-3347
▁26	-3348
▁دار	-3349
ائنات	-3350
▁اصلا	-3351
▁معاش	-3352
▁قيمتي	-3353
ct	-3354
بين	-3355
▁مزو	-3356
▁توڙي	-3357
▁معاملي	-3358
نن	-3359
يره	-3360
▁اهل	-3361
▁رسول	-3362
▁طاقتور	-3363
▁@	-3364
▁آھيان	-3365
▁بچائڻ	-3366
▁رانديون	-3367
▁چپ	-3368
▁سبق	-3369
▁قلب	-3370
▁هندو	-3371
دة	-3372
▁دعوي	-3373
▁عندي	-3374
▁هائو	-3375
▁گُ	-3376
▁پارڪ	-3377
▁پوائن	-3378
hat	-3379
▁الك	-3380
▁چوڌ	-3381
▁ڪجھه	-3382
▁شخصيت	-3383
▁سگهندو	-3384
▁ماڻهوءَ	-3385
▁مها	-3386
▁2015	-3387
▁شعور	-3388
ly	-3389
ـــــــــــــ	-3390
چن	-3391
سٽڪ	-3392
رافي	-3393
▁کيڏ	-3394
▁ايڊي	-3395
▁کاتي	-3396
▁اپريل	-3397
▁خدمتن	-3398
▁وزارت	-3399
▁گهرجن	-3400
▁اتح	-3401
▁فرد	-3402
▁ٽيبل	-3403
▁ڪيتري	-3404
▁اليڪٽر	-3405
▁سيڙپڪاري	-3406
ائپ	-3407
مممم	-3408
▁ڪمز	-3409
▁شهيد	-3410
▁پاليسي	-3411
قلي	-3412
▁ڀاءُ	-3413
▁مينهن	-3414
▁انو	-3415
▁ھاڻي	-3416
▁هزارين	-3417
ڇا	-3418
▁اڀ	-3419
▁ضم	-3420
▁روڪي	-3421
▁سرور	-3422
▁ابتدائي	-3423
اڻا	-3424
برد	-3425
زين	-3426
▁اند	-3427
▁هٿي	-3428
▁ڳڻ	-3429
▁ڪائنات	-3430
کن	-3431
راهه	-3432
بروري	-3433
ههههههه	-3434
▁پرڏيهي	-3435
▁ڊرائيو	-3436
اڻين	-3437
يڪار	-3438
▁ٽين	-3439
▁وسلم	-3440
▁تربيت	-3441
▁منصوبو	-3442
ڙيو	-3443
▁60	-3444
▁هت	-3445
▁حقن	-3446
▁سکڻ	-3447
▁غر	-3448
▁وڙ	-3449
▁عجب	-3450
▁هيس	-3451
▁چوٿ	-3452
▁کوٽ	-3453
▁آمدني	-3454
▁جرمني	-3455
▁تھ	-3456
▁نر	-3457
▁اطلا	-3458
▁تازه	-3459
▁اڳوڻي	-3460
فن	-3461
ist	-3462
ايد	-3463
▁سول	-3464
▁لين	-3465
▁مثبت	-3466
▁وجهي	-3467
▁شروعاتي	-3468
▁وينديون	-3469
▁ڪارپوري	-3470
گين	-3471
▁شد	-3472
▁خودڪار	-3473
4.	-3474
av	-3475
ain	-3476
▁فرو	-3477
▁عربي	-3478
▁تاب	-3479
▁قيد	-3480
▁اتفاق	-3481
▁جانور	-3482
▁سيڪيورٽي	-3483
▁نفرت	-3484
UMX	-3485
▁جدو	-3486
▁لاش	-3487
▁ڪوڙ	-3488
▁وڪيل	-3489
غذ	-3490
فرد	-3491
▁ڀڃ	-3492
تائي	-3493
▁يقينا	-3494
▁جانورن	-3495
شد	-3496
ant	-3497
هاري	-3498
▁مني	-3499
hi	-3500
یک	-3501
اهو	-3502
▁سوي	-3503
▁ورلڊ	-3504
▁خدمتون	-3505
طلاح	-3506
ٺيون	-3507
▁ڪاپي	-3508
▁اميدو	-3509
اڻيو	-3510
▁برس	-3511
▁حسن	-3512
▁هلائڻ	-3513
▁اغ	-3514
NUMX	-3515
▁يلا	-3516
▁ڇڏڻ	-3517
▁ضمان	-3518
▁هاءِ	-3519
▁گهرو	-3520
زح	-3521
▁تحري	-3522
▁انٽرو	-3523
ڪين	-3524
▁عيسي	-3525
▁هلندڙ	-3526
فق	-3527
ٽرن	-3528
▁194	-3529
▁لانچ	-3530
▁ڄاڻي	-3531
هل	-3532
هندا	-3533
▁اندروني	-3534
0.	-3535
5.	-3536
ect	-3537
▁لهي	-3538
▁افت	-3539
▁شراب	-3540
▁دوستي	-3541
▁يونين	-3542
og	-3543
▁ٿر	-3544
▁ڀڳ	-3545
▁بجي	-3546
▁ڊيم	-3547
▁پهتو	-3548
▁ٻاهرين	-3549
▁بادشاهه	-3550
▁پڌ	-3551
▁ڪئم	-3552
وب	-3553
ِين	-3554
ڻيون	-3555
▁كنت	-3556
▁هذه	-3557
▁ڪورونا	-3558
▁انٽرويو	-3559
ُون	-3560
▁196	-3561
▁ابي	-3562
▁اٿس	-3563
▁خلي	-3564
▁چارج	-3565
▁برداشت	-3566
▁تعليمي	-3567
op	-3568
ڇو	-3569
▁منفرد	-3570
▁لأ	-3571
▁بحالي	-3572
▁گفتگو	-3573
▁خاصيتون	-3574
ین	-3575
▁Y	-3576
ديت	-3577
ندڙن	-3578
▁فخر	-3579
▁وطن	-3580
▁ويڙ	-3581
▁پهر	-3582
▁سالي	-3583
▁ضحكت	-3584
▁لازم	-3585
▁مستح	-3586
▁فائيل	-3587
▁هڪٻئي	-3588
▁وساري	-3589
▁ٽرانسپورٽ	-3590
افظ	-3591
▁مؤ	-3592
▁مجب	-3593
▁تهيه	-3594
▁گهڻن	-3595
ٿو	-3596
▁28	-3597
آآآآ	-3598
▁الق	-3599
▁امري	-3600
▁e	-3601
عدو	-3602
▁أنا	-3603
▁ميڊ	-3604
▁دليل	-3605
▁علامت	-3606
▁چاهيون	-3607
▁فيبروري	-3608
▁ڪانفرنس	-3609
▁27	-3610
▁فه	-3611
▁الت	-3612
▁روي	-3613
▁ساهه	-3614
▁ماڻھن	-3615
▁دهشتگر	-3616
جل	-3617
فڪ	-3618
▁رخ	-3619
▁وِ	-3620
▁چيست	-3621
▁تجربي	-3622
▁ڪاررو	-3623
▁اصطلاح	-3624
▁معاملو	-3625
▁بڪ	-3626
▁منع	-3627
▁هيل	-3628
▁الزام	-3629
▁ڪارڪن	-3630
؟!	-3631
▁آءُ	-3632
▁سڌي	-3633
▁گنا	-3634
يائون	-3635
▁صفحي	-3636
▁ٽئين	-3637
▁پاور	-3638
ks	-3639
گاه	-3640
▁رُ	-3641
▁نكت	-3642
▁عالي	-3643
▁ضمانت	-3644
▁اندازو	-3645
▁متعارف	-3646
روز	-3647
▁چڪ	-3648
▁جهن	-3649
▁نظم	-3650
▁انتخ	-3651
▁هفته	-3652
▁رپ	-3653
▁ضل	-3654
ھيءَ	-3655
▁کني	-3656
▁پيچي	-3657
▁خيالن	-3658
▁اقتصادي	-3659
▁ايش	-3660
▁ملڪي	-3661
▁ٽيڪس	-3662
▁اولاد	-3663
ڏا	-3664
▁بدل	-3665
▁چيه	-3666
▁جوڙجڪ	-3667
▁معاهدي	-3668
لال	-3669
▁ٽڪ	-3670
▁con	-3671
▁جما	-3672
▁پهچڻ	-3673
▁نتيجا	-3674
▁وڌائي	-3675
▁روايتي	-3676
▁پوزيشن	-3677
lin	-3678
▁رئي	-3679
▁کلي	-3680
▁کپي	-3681
▁محبو	-3682
▁برطانيه	-3683
نگي	-3684
▁الش	-3685
▁پسندي	-3686
بس	-3687
▁In	-3688
▁هڻي	-3689
▁وڌو	-3690
▁طلاق	-3691
▁فران	-3692
▁سهولت	-3693
▁سائيڪل	-3694
▁روڪڻ	-3695
▁رھيو	-3696
▁سمجه	-3697
اصر	-3698
اھر	-3699
پنگ	-3700
▁مقص	-3701
▁حيات	-3702
▁نمون	-3703
▁پيئي	-3704
▁مجبور	-3705
ثن	-3706
ائيٽ	-3707
▁ڊيل	-3708
▁مرمت	-3709
▁ٽيڪن	-3710
▁کاڌي	-3711
عني	-3712
▁أن	-3713
▁برن	-3714
راهيم	-3715
▁اهڙن	-3716
▁زنده	-3717
▁انفرا	-3718
▁مرڪزي	-3719
▁يافته	-3720
▁اليڪشن	-3721
ورة	-3722
▁5.	-3723
▁لع	-3724
▁ين	-3725
▁يونٽ	-3726
ID	-3727
▁Z	-3728
ويئر	-3729
▁تڪر	-3730
▁سادي	-3731
▁ثقافت	-3732
▁ڏسندا	-3733
▁وڪيپيڊيا	-3734
اڙي	-3735
ندن	-3736
▁23	-3737
▁منح	-3738
▁گذر	-3739
▁کاڌو	-3740
▁وڃائي	-3741
▁انتظامي	-3742
پڻ	-3743
ear	-3744
▁عج	-3745
▁ڏٺ	-3746
▁الر	-3747
▁خون	-3748
▁قول	-3749
▁ليس	-3750
▁وير	-3751
▁ٿور	-3752
▁گلو	-3753
▁جوان	-3754
▁پيئڻ	-3755
▁ذريعو	-3756
▁سائيٽن	-3757
▁y	-3758
▁مٽ	-3759
ائشي	-3760
▁فتح	-3761
▁ناس	-3762
▁آھيو	-3763
▁ڏيان	-3764
▁ڪپڙا	-3765
▁نمائش	-3766
شيد	-3767
▁دم	-3768
▁كه	-3769
▁بندو	-3770
▁دعوت	-3771
▁زبرد	-3772
▁واقعن	-3773
▁پاڻيءَ	-3774
▁پڙهندڙ	-3775
201	-3776
ريس	-3777
▁وهي	-3778
▁اڳيون	-3779
▁سگھون	-3780
▁واپاري	-3781
▁هٽ	-3782
▁ڌو	-3783
▁گهرن	-3784
▁مزاحمت	-3785
▁سيک	-3786
▁ڊرائ	-3787
▁عنوان	-3788
ate	-3789
▁آڇ	-3790
▁غم	-3791
▁مك	-3792
▁فيڪ	-3793
▁والد	-3794
▁وڃان	-3795
بوت	-3796
▁لطف	-3797
▁حلوة	-3798
▁امداد	-3799
▁انتخاب	-3800
▁1-	-3801
▁بہ	-3802
▁هنا	-3803
▁پتو	-3804
▁عشان	-3805
▁هارڊ	-3806
▁بڻايو	-3807
▁انڊسٽري	-3808
99	-3809
▁شب	-3810
▁قبر	-3811
▁چئن	-3812
▁جادو	-3813
▁بيٽري	-3814
igh	-3815
عده	-3816
▁وڪ	-3817
ستر	-3818
چين	-3819
▁يح	-3820
▁مٿين	-3821
▁داخلا	-3822
▁ڪهڙا	-3823
▁افسوس	-3824
▁سرڪار	-3825
▁مصروف	-3826
▁ذميوار	-3827
az	-3828
one	-3829
▁درا	-3830
▁ريل	-3831
▁سونهن	-3832
▁نگراني	-3833
▁شڪر	-3834
▁لنگ	-3835
▁درجه	-3836
▁معاشي	-3837
دير	-3838
▁ڊز	-3839
قابل	-3840
▁سپر	-3841
▁مڇي	-3842
▁پنڌ	-3843
▁برقي	-3844
▁نڪتو	-3845
▁مبارڪ	-3846
▁مقصدن	-3847
▁ڏيندڙ	-3848
▁پابندي	-3849
li	-3850
▁</	-3851
▁اخر	-3852
▁رهو	-3853
خن	-3854
اهري	-3855
▁<<<	-3856
▁حمل	-3857
▁طرز	-3858
▁بدلي	-3859
▁وقتي	-3860
▁پروف	-3861
▁پريس	-3862
▁ڀارت	-3863
عين	-3864
▁مِ	-3865
▁شاه	-3866
▁شكل	-3867
▁موڊ	-3868
ريليا	-3869
▁دستاويز	-3870
--	-3871
qu	-3872
آم	-3873
زه	-3874
قسم	-3875
▁CO	-3876
▁بش	-3877
▁اٿي	-3878
▁متو	-3879
▁مصر	-3880
▁ٺاھ	-3881
ڊٽ	-3882
ڙهو	-3883
▁وڌڻ	-3884
▁امين	-3885
▁رکيل	-3886
▁سازي	-3887
▁اوچتو	-3888
▁کوليو	-3889
▁ابراهيم	-3890
▁سرگرمين	-3891
▁مهل	-3892
▁انجڻ	-3893
▁منٽن	-3894
▁چوري	-3895
نداسين	-3896
▁انٽرنيشنل	-3897
لائڻ	-3898
▁(1)	-3899
▁تعرف	-3900
▁عليكم	-3901
▁مذ	-3902
ندين	-3903
▁مرت	-3904
▁روسي	-3905
▁شعبي	-3906
▁ريلوي	-3907
▁پلاسٽڪ	-3908
▁ٻيٽ	-3909
▁پوک	-3910
▁آندو	-3911
▁اكيد	-3912
▁آهستي	-3913
▁روحاني	-3914
دل	-3915
مول	-3916
▁آغ	-3917
▁استح	-3918
▁سکيا	-3919
▁لائي	-3920
▁آفريڪا	-3921
▁بيٺو	-3922
▁ترجي	-3923
▁روزاني	-3924
تاب	-3925
▁الب	-3926
▁سادو	-3927
▁لائق	-3928
ــــــــــــــ	-3929
▁پچ	-3930
▁ارت	-3931
▁بلوچ	-3932
▁راضي	-3933
▁ارسال	-3934
▁رکندو	-3935
مح	-3936
يول	-3937
▁نيٺ	-3938
▁اسٽيٽ	-3939
22	-3940
▁احد	-3941
▁حرڪ	-3942
▁نار	-3943
▁پيپ	-3944
اريءَ	-3945
▁انگي	-3946
▁پنجن	-3947
▁ڪائونسل	-3948
**	-3949
وس	-3950
▁نج	-3951
▁سرب	-3952
▁هيك	-3953
▁ذهني	-3954
▁يقول	-3955
ce	-3956
ارڪ	-3957
وڪي	-3958
▁اور	-3959
▁چيف	-3960
▁ڊبل	-3961
▁عزيز	-3962
▁پاسو	-3963
▁اوھين	-3964
▁نيشنل	-3965
▁ڀرسان	-3966
io	-3967
يرن	-3968
ڙائي	-3969
▁بٽڻ	-3970
▁عقل	-3971
▁قال	-3972
▁نبي	-3973
▁ٽري	-3974
▁حملو	-3975
▁اتحاد	-3976
▁خبرون	-3977
▁آسٽريليا	-3978
اق	-3979
انڪ	-3980
▁باڪ	-3981
▁مٽي	-3982
▁نقل	-3983
▁ٻول	-3984
▁مسجد	-3985
▁پالڻ	-3986
▁چڙهي	-3987
▁بررسي	-3988
▁صنعتي	-3989
▁چوندو	-3990
▁تجارتي	-3991
1.	-3992
▁اٿئي	-3993
▁خطرو	-3994
▁کولي	-3995
▁ڪيان	-3996
▁انڊيا	-3997
▁سپورٽ	-3998
6.	-3999
9.	-4000
کا	-4001
ياس	-4002
املن	-4003
ديءَ	-4004
▁پها	-4005
▁باقا	-4006
▁دفعي	-4007
▁آفيسر	-4008
▁خاموش	-4009
▁درواز	-4010
▁منحصر	-4011
▁موڪلي	-4012
▁ميوزڪ	-4013
▁وٺندو	-4014
OS	-4015
▁ڪِ	-4016
تيءَ	-4017
▁فائر	-4018
▁ڪاوڙ	-4019
▁ڳنڍيل	-4020
یس	-4021
▁اسپي	-4022
▁رکون	-4023
▁منظوري	-4024
▁ڊائريڪ	-4025
▁ووٽ	-4026
▁اُهو	-4027
▁تنقي	-4028
▁اداڪار	-4029
صف	-4030
▁80	-4031
▁عرا	-4032
▁2014	-4033
▁تعجب	-4034
▁اڳواڻ	-4035
▁رجحان	-4036
▁پروفيسر	-4037
ڌا	-4038
ارم	-4039
▁ڌي	-4040
▁نرم	-4041
▁ادار	-4042
▁توقع	-4043
▁فورم	-4044
▁كلام	-4045
▁ماهي	-4046
▁هفتن	-4047
8.	-4048
طل	-4049
▁رم	-4050
▁ترس	-4051
▁چرچ	-4052
▁مرضي	-4053
▁روزانو	-4054
اده	-4055
▁سؤ	-4056
ائجي	-4057
▁بجا	-4058
▁بيهي	-4059
▁غلام	-4060
▁فنڪشن	-4061
▁مطالبو	-4062
▁چوڌاري	-4063
ity	-4064
▁جار	-4065
▁طول	-4066
▁عندك	-4067
▁مايو	-4068
▁ڇڏيا	-4069
▁سرٽيف	-4070
▁سوالن	-4071
▁معاملن	-4072
نل	-4073
▁رسم	-4074
▁لطي	-4075
▁جد	-4076
▁رول	-4077
▁طئي	-4078
▁چرا	-4079
ريٽري	-4080
▁وڊيوز	-4081
▁انسانن	-4082
▁ملازمن	-4083
ثار	-4084
▁تار	-4085
▁مقام	-4086
▁پيرن	-4087
▁تعارف	-4088
▁فٽبال	-4089
سيسي	-4090
ليءَ	-4091
▁ملو	-4092
▁ذريعن	-4093
▁ڪلاڪن	-4094
روم	-4095
,000	-4096
▁جرمن	-4097
▁مائي	-4098
▁موثر	-4099
▁ڪرين	-4100
▁:	-4101
جيڪٽ	-4102
▁هلڻ	-4103
▁ڀرو	-4104
▁اياز	-4105
▁چاهين	-4106
▁موجودگي	-4107
▁ايئرپورٽ	-4108
بتي	-4109
▁ڪاغذ	-4110
▁ارادو	-4111
▁علائقو	-4112
جھ	-4113
ريح	-4114
▁^^	-4115
▁حج	-4116
▁تاج	-4117
▁مدت	-4118
▁عذاب	-4119
▁مسيح	-4120
▁پلان	-4121
▁معيشت	-4122
▁ڪمزور	-4123
ies	-4124
اوت	-4125
عيد	-4126
ورڪ	-4127
▁ڪنڊ	-4128
توهان	-4129
▁ٻوليءَ	-4130
▁زو	-4131
▁مآ	-4132
▁بيل	-4133
are	-4134
▁(3	-4135
▁تت	-4136
▁لات	-4137
▁ماڳ	-4138
▁خاطر	-4139
▁سڃاتو	-4140
▁ٻولين	-4141
▁منصوبن	-4142
▁ناقابل	-4143
▁&	-4144
ڪلهه	-4145
▁شيءَ	-4146
▁عباد	-4147
▁اسٽيل	-4148
▁شهرين	-4149
▁ڀرپور	-4150
ook	-4151
▁انٽ	-4152
▁ظلم	-4153
▁2013	-4154
▁جميل	-4155
▁دوري	-4156
▁علمي	-4157
▁فائدا	-4158
▁وڌندڙ	-4159
▁اسٽوري	-4160
▁مائڪرو	-4161
▁ڊائونلوڊ	-4162
▁حب	-4163
▁سوم	-4164
▁ثقاف	-4165
▁قوت	-4166
▁اُتي	-4167
▁سڀاڻي	-4168
ميٽ	-4169
▁90	-4170
▁چُ	-4171
صيلي	-4172
▁کير	-4173
▁شريف	-4174
▁آھيون	-4175
▁خطرناڪ	-4176
▁St	-4177
▁بعض	-4178
▁شور	-4179
▁نعم	-4180
▁بيمار	-4181
▁تقريب	-4182
▁خارجي	-4183
▁الموضوع	-4184
ep	-4185
،،	-4186
روح	-4187
لاف	-4188
پل	-4189
▁نھ	-4190
شاني	-4191
▁قلم	-4192
▁بلڪه	-4193
زز	-4194
خلت	-4195
▁بنگ	-4196
▁وحد	-4197
▁پرت	-4198
▁ھئا	-4199
▁حاضر	-4200
▁سهول	-4201
▁فيشن	-4202
▁ٽريڪ	-4203
▁کنيو	-4204
▁متحرڪ	-4205
▁نهايت	-4206
▁ڪناري	-4207
▁زبردست	-4208
▁سيڪريٽري	-4209
▁ڪارروائي	-4210
لامه	-4211
▁سنجي	-4212
▁اصلاح	-4213
▁مسلمانن	-4214
ؤر	-4215
▁جاڳ	-4216
▁شڪا	-4217
▁نون	-4218
▁ويٺي	-4219
▁ياداشت	-4220
ٿان	-4221
▁لوڪ	-4222
▁مرڻ	-4223
▁يکي	-4224
▁تشدد	-4225
▁زمرو	-4226
▁ڄاڻڻ	-4227
▁خوراڪ	-4228
▁ڪئميرا	-4229
مس	-4230
▁رٿ	-4231
▁پٺ	-4232
▁ترا	-4233
▁ڊيٽ	-4234
▁بلند	-4235
▁دفعا	-4236
هههههه	-4237
▁مثالي	-4238
10	-4239
ive	-4240
oin	-4241
▁ميچ	-4242
ههههه	-4243
▁بندر	-4244
▁خطري	-4245
▁هستي	-4246
ئيشن	-4247
ميشن	-4248
▁آڏو	-4249
▁رھيا	-4250
▁ساڻس	-4251
▁فيصلي	-4252
▁هائوس	-4253
▁منتقلي	-4254
عيت	-4255
▁3-	-4256
لاقي	-4257
▁گھڻي	-4258
ھا	-4259
پاني	-4260
▁آلو	-4261
▁قبضو	-4262
▁وڌايو	-4263
▁هئاسين	-4264
▁ڪمپنيون	-4265
حة	-4266
ood	-4267
▁مک	-4268
▁لكن	-4269
▁نيوي	-4270
▁وصول	-4271
اااااا	-4272
▁ماهرن	-4273
▁حصيداري	-4274
▁۲	-4275
ھار	-4276
▁ڌن	-4277
▁نڪرڻ	-4278
▁هتان	-4279
▁ڊگهو	-4280
▁عبادت	-4281
سيءَ	-4282
▁جشن	-4283
▁شيخ	-4284
▁طوف	-4285
▁سرهندي	-4286
▁ڊزائين	-4287
ڱي	-4288
ادن	-4289
▁ورا	-4290
▁نظارو	-4291
▁Q	-4292
▁بدن	-4293
▁جوا	-4294
▁عرض	-4295
▁سپري	-4296
▁جولاءِ	-4297
▁انسانيت	-4298
حر	-4299
-19	-4300
▁سيد	-4301
▁حرڪت	-4302
▁ڪلام	-4303
▁بچائي	-4304
▁ملازم	-4305
ill	-4306
متي	-4307
هري	-4308
ائتو	-4309
تمند	-4310
▁ايج	-4311
▁لڳل	-4312
▁ڪمن	-4313
▁ميني	-4314
▁ڊيسڪ	-4315
▁هلائي	-4316
▁ڪميٽي	-4317
▁تنھنجي	-4318
حل	-4319
ويه	-4320
ڪارن	-4321
▁احتر	-4322
▁ناھي	-4323
▁قابليت	-4324
▁معاشري	-4325
ros	-4326
▁ڪٽ	-4327
▁بزر	-4328
▁ڀيڻ	-4329
▁ميون	-4330
▁ڪرڻي	-4331
▁دريافت	-4332
▁نوجوانن	-4333
ik	-4334
ونڊي	-4335
▁فيصل	-4336
▁معصو	-4337
"،	-4338
سط	-4339
قى	-4340
▁of	-4341
▁حوص	-4342
▁فين	-4343
▁چمڪ	-4344
▁چمڙي	-4345
▁ڪيئي	-4346
▁رساله	-4347
▁مرحله	-4348
cl	-4349
ريه	-4350
▁ورها	-4351
▁چيئر	-4352
▁ملندو	-4353
▁وآ	-4354
▁وع	-4355
▁بچڻ	-4356
ائونڊ	-4357
▁مراد	-4358
▁نسبت	-4359
▁پائڻ	-4360
▁ورهين	-4361
▁اسرائيل	-4362
فل	-4363
يج	-4364
▁·	-4365
day	-4366
داز	-4367
▁Aw	-4368
▁رن	-4369
▁انش	-4370
▁اکر	-4371
▁راس	-4372
▁ڊسپ	-4373
▁ڊول	-4374
▁اٽڪل	-4375
▁اطلاع	-4376
▁ريڊيو	-4377
▁نتيجن	-4378
▁پرواز	-4379
خب	-4380
▁چڙ	-4381
ائتي	-4382
▁پٽي	-4383
▁بازار	-4384
▁تباهه	-4385
▁فائدي	-4386
▁اعتبار	-4387
▁پاڪستاني	-4388
طر	-4389
▁ڊڄ	-4390
▁ڪارخ	-4391
▁شاعريءَ	-4392
up	-4393
ell	-4394
شين	-4395
▁ڄڻا	-4396
▁ڪنڌ	-4397
▁ڪيف	-4398
▁تياري	-4399
▁ڊومين	-4400
25	-4401
صب	-4402
كو	-4403
كره	-4404
▁جُ	-4405
▁کٽ	-4406
گراف	-4407
▁راي	-4408
▁سئو	-4409
▁شريڪ	-4410
▁قدرت	-4411
▁يوٽيو	-4412
▁ھا	-4413
▁مزا	-4414
▁مادي	-4415
▁يكون	-4416
▁تقرير	-4417
▁لڳندو	-4418
▁ٻڌائڻ	-4419
▁ٿينديون	-4420
ft	-4421
ربي	-4422
ارات	-4423
▁عيد	-4424
▁پبل	-4425
▁خصوص	-4426
▁رئيس	-4427
▁سختي	-4428
▁پڙهو	-4429
▁لڳائڻ	-4430
ذير	-4431
▁70	-4432
▁پارليا	-4433
ھڻ	-4434
ڪام	-4435
▁."	-4436
▁بگ	-4437
▁پد	-4438
able	-4439
▁زهر	-4440
▁ماء	-4441
▁مناف	-4442
▁پيرا	-4443
▁برسات	-4444
▁رياضي	-4445
▁ٽائيم	-4446
▁ڪنديون	-4447
▁إن	-4448
▁ذي	-4449
▁حصا	-4450
▁ٺهر	-4451
▁معاف	-4452
▁حالتون	-4453
▁پنھنجو	-4454
▁ڇڏيندو	-4455
:-	-4456
aw	-4457
▁كن	-4458
▁ڪلب	-4459
▁ورزن	-4460
▁ملندي	-4461
eb	-4462
▁لق	-4463
▁ڪوٽ	-4464
▁مريم	-4465
▁واقعو	-4466
▁تصويرن	-4467
▁پيامبر	-4468
ver	-4469
▁بلي	-4470
▁حدي	-4471
▁سوا	-4472
▁چيل	-4473
▁دولت	-4474
▁لطيف	-4475
▁ليڪن	-4476
▁هندي	-4477
▁اسٽاڪ	-4478
▁جماعت	-4479
▁سلامت	-4480
▁ننڍڙي	-4481
▁ٺاهيل	-4482
▁نمائندگي	-4483
ثريت	-4484
▁برف	-4485
▁معت	-4486
▁گرد	-4487
▁شرطن	-4488
▁شكله	-4489
▁صفحو	-4490
جع	-4491
▁پيماني	-4492
:)	-4493
ود	-4494
راض	-4495
زيد	-4496
سيت	-4497
▁ڀت	-4498
▁هذي	-4499
▁ننڍو	-4500
سٽريشن	-4501
▁سياري	-4502
7.	-4503
▁آي	-4504
▁فى	-4505
▁پگ	-4506
ight	-4507
لابي	-4508
▁تنگ	-4509
▁رھي	-4510
▁سرچ	-4511
▁پرن	-4512
▁ثبوت	-4513
▁توسان	-4514
▁رکندي	-4515
▁خاصيتن	-4516
يڪس	-4517
▁منك	-4518
▁نقطي	-4519
▁اليوم	-4520
▁تقسيم	-4521
▁ڏسندي	-4522
ang	-4523
ڊيشن	-4524
▁جمي	-4525
▁كتي	-4526
▁محبوب	-4527
دف	-4528
شنگ	-4529
ليو	-4530
ونگ	-4531
▁500	-4532
▁افز	-4533
▁بلاڪ	-4534
▁عملن	-4535
▁پريشاني	-4536
▁رانديگرن	-4537
ڏين	-4538
▁لغ	-4539
سوسي	-4540
▁>>>	-4541
▁گولي	-4542
▁مارجي	-4543
▁يوٽيوب	-4544
ـــــــــــــــ	-4545
قر	-4546
▁وائي	-4547
▁ڇڏيندا	-4548
▁th	-4549
▁ملن	-4550
▁ٽيو	-4551
▁بالغ	-4552
▁آخرين	-4553
▁تڪرار	-4554
▁خاصيت	-4555
▁پسنديده	-4556
▁پنهنجون	-4557
▁گهٽتائي	-4558
اهم	-4559
▁نع	-4560
▁sub	-4561
▁شنا	-4562
▁مشق	-4563
▁بازي	-4564
▁جوڙي	-4565
▁اثرات	-4566
▁تحليل	-4567
▁ترجيح	-4568
▁واسطو	-4569
▁پڙهيو	-4570
▁فرانسيسي	-4571
دى	-4572
VID	-4573
مارٽ	-4574
▁سوئ	-4575
▁لئه	-4576
▁معك	-4577
▁کنڊ	-4578
▁مهان	-4579
▁پاڙي	-4580
▁هيٺان	-4581
▁احترام	-4582
▁مددگار	-4583
▁آپريٽنگ	-4584
orm	-4585
ٽيس	-4586
▁سلي	-4587
▁هئو	-4588
▁حملي	-4589
▁مستقل	-4590
▁سگھوٿا	-4591
▁ڪهاڻيون	-4592
▁x	-4593
▁سارا	-4594
▁سهڻي	-4595
▁ويٺا	-4596
ore	-4597
شمي	-4598
ڙها	-4599
▁گنج	-4600
▁توجي	-4601
▁غائب	-4602
▁سپريم	-4603
▁متعلق	-4604
▁ڊرائيور	-4605
▁ڊائريڪٽر	-4606
سف	-4607
ُ،	-4608
يڪا	-4609
▁ڌم	-4610
▁رهجي	-4611
▁معاهدو	-4612
▁باس	-4613
▁فني	-4614
▁قلت	-4615
▁چاھ	-4616
▁ڪئن	-4617
▁اندو	-4618
▁مطالعو	-4619
▁برطانيا	-4620
ame	-4621
▁پيد	-4622
▁پيل	-4623
▁ڪچه	-4624
▁تخلي	-4625
▁صفائي	-4626
▁مهينا	-4627
▁يالله	-4628
غي	-4629
▁نان	-4630
▁اسڪو	-4631
▁حالا	-4632
▁مضحك	-4633
▁ندار	-4634
▁پرست	-4635
▁ڀريو	-4636
▁ڪارن	-4637
▁اسمارٽ	-4638
؟؟؟	-4639
گهه	-4640
▁وأ	-4641
▁بيا	-4642
▁تري	-4643
▁ٽرئ	-4644
▁پان	-4645
▁آپشن	-4646
▁اتان	-4647
▁انگيز	-4648
َ،	-4649
آباد	-4650
▁لال	-4651
▁عليك	-4652
▁الناس	-4653
▁ظاهري	-4654
▁تفصيلي	-4655
▁ثقافتي	-4656
▁مستحڪم	-4657
ژه	-4658
امين	-4659
هاها	-4660
▁فيك	-4661
▁مزد	-4662
▁مليا	-4663
▁چڪاس	-4664
▁ڪورس	-4665
▁مطالعي	-4666
▁ڀو	-4667
▁شھر	-4668
▁طرفن	-4669
▁اڳواڻن	-4670
▁سائنسي	-4671
▁پهچائي	-4672
▁يخ	-4673
▁جاي	-4674
▁شرم	-4675
▁گورن	-4676
▁هلندو	-4677
▁اسٽوريج	-4678
ُر	-4679
فون	-4680
▁يب	-4681
▁شير	-4682
▁فعل	-4683
▁پيج	-4684
▁چڪر	-4685
▁تيزي	-4686
▁صفحه	-4687
▁گهرج	-4688
▁تنقيد	-4689
▁ننڍڙو	-4690
▁نيٽورڪ	-4691
▁يڪ	-4692
▁مام	-4693
▁مفيد	-4694
▁ڏوهه	-4695
▁گهڙي	-4696
▁اڪثريت	-4697
▁پوائنٽ	-4698
▁انگريزن	-4699
▁سامونڊي	-4700
▁29	-4701
▁sp	-4702
سٽنگ	-4703
▁بنت	-4704
▁اعرف	-4705
▁لڳائي	-4706
▁پيپلز	-4707
▁ڏيکاريو	-4708
اين	-4709
نده	-4710
ٽيڊ	-4711
▁35	-4712
ثاني	-4713
▁and	-4714
▁خارج	-4715
▁خودم	-4716
▁فيلڊ	-4717
▁چوان	-4718
▁المهم	-4719
▁بدقسم	-4720
الا	-4721
▁31	-4722
▁فلو	-4723
▁پيچ	-4724
▁جانچ	-4725
▁ماهه	-4726
▁تبصرو	-4727
▁اشتهار	-4728
▁سرمائي	-4729
▁پروڊڪٽ	-4730
فٽ	-4731
ort	-4732
قدر	-4733
▁هڻ	-4734
▁احم	-4735
▁هاء	-4736
▁فارسي	-4737
▁ڌرتيءَ	-4738
آإ	-4739
شتو	-4740
لوب	-4741
▁خطي	-4742
▁دانش	-4743
▁سينٽ	-4744
▁لينڊ	-4745
▁خواهي	-4746
▁پياري	-4747
طع	-4748
ورس	-4749
بتني	-4750
▁صلي	-4751
▁ماس	-4752
▁ميشه	-4753
▁هٿيار	-4754
▁اخلاقي	-4755
▁ايوارڊ	-4756
▁پروسيسنگ	-4757
4)	-4758
60	-4759
ip	-4760
كتب	-4761
ويد	-4762
▁دؤر	-4763
▁ويچ	-4764
▁راهه	-4765
▁کاٻي	-4766
▁ٽرئفڪ	-4767
▁انھيءَ	-4768
لح	-4769
يٽ	-4770
ans	-4771
▁طو	-4772
▁اعز	-4773
▁سهي	-4774
▁وقف	-4775
▁پمپ	-4776
▁عادي	-4777
▁COVID	-4778
▁ڪريڊٽ	-4779
▁حڪمران	-4780
33	-4781
بيه	-4782
▁لح	-4783
▁بري	-4784
▁مزي	-4785
▁قيام	-4786
▁ماسڪ	-4787
▁نسخو	-4788
▁روانو	-4789
▁ٽرمين	-4790
▁فول	-4791
▁حيدر	-4792
▁اوندا	-4793
▁بحران	-4794
▁طوفان	-4795
▁مسافرن	-4796
,,	-4797
آر	-4798
ثو	-4799
ضا	-4800
ast	-4801
طين	-4802
ابيس	-4803
▁رڪا	-4804
▁سرم	-4805
▁انجي	-4806
▁ڪارڻ	-4807
▁چونڊن	-4808
▁ٻاهران	-4809
▁موبائيل	-4810
ard	-4811
▁ــ	-4812
▁مله	-4813
▁واچ	-4814
▁ھتي	-4815
▁خالص	-4816
▁منسو	-4817
▁ڌاري	-4818
▁موڪلڻ	-4819
▁توجيهي	-4820
اڪو	-4821
▁رڪ	-4822
▁195	-4823
▁امر	-4824
▁هيڊ	-4825
▁پرچ	-4826
▁گڏج	-4827
▁تضحك	-4828
▁والو	-4829
▁وڏين	-4830
▁ڪيسن	-4831
▁سيڪشن	-4832
سٽس	-4833
▁(2)	-4834
▁ڪرن	-4835
▁حضور	-4836
▁چينل	-4837
▁گرين	-4838
▁لڳايو	-4839
ff	-4840
آي	-4841
ڪرن	-4842
▁جين	-4843
▁ليڪ	-4844
▁پيء	-4845
▁سستي	-4846
▁هُئي	-4847
▁يسلم	-4848
▁ڀيري	-4849
▁اهڙيءَ	-4850
جهد	-4851
▁شنو	-4852
▁مشغ	-4853
▁نصب	-4854
▁ڊوڙ	-4855
▁2012	-4856
▁بنائڻ	-4857
▁سگهيا	-4858
▁انگلينڊ	-4859
▁جمهوريت	-4860
▁is	-4861
▁ڦر	-4862
▁محل	-4863
▁ٽيل	-4864
▁پرس	-4865
▁پلس	-4866
▁اپيل	-4867
▁صدار	-4868
▁عاشق	-4869
▁مسٽر	-4870
▁اوهين	-4871
▁سمارٽ	-4872
▁روزگار	-4873
بط	-4874
مئن	-4875
▁انس	-4876
▁صبر	-4877
▁كده	-4878
▁كذا	-4879
▁ڊسڪ	-4880
▁اسٽو	-4881
▁انها	-4882
▁بيٺل	-4883
▁چيئرمين	-4884
راج	-4885
شوف	-4886
هيءَ	-4887
▁همه	-4888
▁گيري	-4889
▁روايت	-4890
▁سيٽنگ	-4891
▁ڊيٽابيس	-4892
▁ايڪ	-4893
▁دفا	-4894
▁راڄ	-4895
▁فاط	-4896
▁ڪتي	-4897
▁وراڻيو	-4898
11	-4899
يڪو	-4900
▁ڀائ	-4901
▁ڪاٺ	-4902
▁2011	-4903
▁تڪڙو	-4904
▁كمان	-4905
▁معنى	-4906
▁هونئن	-4907
▁گذارڻ	-4908
▁اعتراض	-4909
40	-4910
▁ريم	-4911
▁ٿڌي	-4912
▁فلٽر	-4913
▁نالن	-4914
▁برائو	-4915
خذ	-4916
ھه	-4917
▁احب	-4918
▁2010	-4919
▁سهڪار	-4920
▁صحتمند	-4921
▁پيغمبر	-4922
▁ڪميونٽي	-4923
▁ڪيميائي	-4924
ne	-4925
كِ	-4926
ڍي	-4927
گذ	-4928
مڪن	-4929
▁بط	-4930
▁ٽڪر	-4931
▁اُها	-4932
▁ڪارپوريشن	-4933
يش	-4934
ايي	-4935
▁مرض	-4936
▁ديگر	-4937
▁كلهم	-4938
▁مليل	-4939
▁رهندڙ	-4940
▁جذباتي	-4941
▁ڪارڪنن	-4942
NT	-4943
لڪ	-4944
ائڊ	-4945
بيا	-4946
جنن	-4947
حيد	-4948
▁بُ	-4949
▁جست	-4950
▁مصي	-4951
▁ڏٺي	-4952
▁آڊيو	-4953
▁ڊسپلي	-4954
▁اهڙيون	-4955
شار	-4956
يعني	-4957
▁اھا	-4958
▁داري	-4959
▁دبئي	-4960
▁ضلعي	-4961
▁اسٽار	-4962
▁بچايو	-4963
▁وڏيون	-4964
▁چونڊڻ	-4965
▁ڇوڪرو	-4966
▁فارميٽ	-4967
▁ويڪسين	-4968
▁گنجائش	-4969
23	-4970
اٽ	-4971
ine	-4972
▁بقى	-4973
▁عرف	-4974
▁لما	-4975
▁وهن	-4976
▁ڏهن	-4977
▁البن	-4978
▁منھن	-4979
▁نوٽيس	-4980
▁هلندي	-4981
act	-4982
out	-4983
ايع	-4984
زون	-4985
فري	-4986
▁شاخ	-4987
▁دريا	-4988
▁گوشت	-4989
▁حوالو	-4990
▁ويندس	-4991
▁پيارا	-4992
▁ايڪسڪس	-4993
▁جدوجهد	-4994
قة	-4995
صير	-4996
هيز	-4997
▁آپ	-4998
▁روئي	-4999
▁شمار	-5000
▁ڪريم	-5001
▁ڪٿان	-5002
▁ماسٽر	-5003
▁پڙهائي	-5004
▁جوابدار	-5005
▁ماحولياتي	-5006
قق	-5007
urn	-5008
▁وک	-5009
ڻيءَ	-5010
▁فنڊ	-5011
▁پاي	-5012
▁گيا	-5013
▁احلى	-5014
▁وارين	-5015
▁مداخلت	-5016
▁صلاحيتن	-5017
عر	-5018
▁Ch	-5019
▁ٿڪ	-5020
▁ڇڪ	-5021
▁جتان	-5022
▁رنگن	-5023
▁پيون	-5024
▁تحرير	-5025
▁جيتري	-5026
الب	-5027
كون	-5028
ادري	-5029
ڪڏهن	-5030
▁يهم	-5031
▁پڇڻ	-5032
▁بجيٽ	-5033
▁روان	-5034
▁شكلك	-5035
▁صوبي	-5036
▁والا	-5037
▁خوشبو	-5038
▁طبيعت	-5039
😂😂	-5040
مود	-5041
▁سٽ	-5042
▁ڪول	-5043
▁آغاز	-5044
▁اکرن	-5045
▁جهڙا	-5046
▁شڪست	-5047
▁ڇڏين	-5048
▁رومان	-5049
▁سگهندي	-5050
آء	-5051
لل	-5052
ديه	-5053
▁الط	-5054
راهمي	-5055
▁ميلا	-5056
▁کيڏڻ	-5057
▁ڊيوائس	-5058
▁گهٽائڻ	-5059
▁رجسٽريشن	-5060
▁)	-5061
▁ھٿ	-5062
ميٽر	-5063
▁سلو	-5064
▁محت	-5065
▁ٻُڌ	-5066
▁گون	-5067
▁ھيٺ	-5068
▁ديگه	-5069
▁فيها	-5070
▁ڪپڙن	-5071
▁حرارت	-5072
▁فراهمي	-5073
حش	-5074
▁{	-5075
راحه	-5076
ٽيون	-5077
گاهه	-5078
▁صدا	-5079
▁ياح	-5080
▁منفي	-5081
▁توکان	-5082
▁دعويٰ	-5083
▁اختيارن	-5084
▁جَ	-5085
rypt	-5086
ريئر	-5087
▁اثا	-5088
▁اما	-5089
▁بزن	-5090
▁مند	-5091
▁ٽرم	-5092
▁ثاني	-5093
▁زياد	-5094
▁پيچيده	-5095
ost	-5096
▁اِهو	-5097
▁محتا	-5098
▁هنڌن	-5099
▁اندوز	-5100
▁ناممڪن	-5101
ial	-5102
ren	-5103
▁وڄ	-5104
▁غري	-5105
▁واه	-5106
▁ڌيءَ	-5107
▁تعليق	-5108
که	-5109
▁خز	-5110
▁عض	-5111
▁جوش	-5112
▁حاڪ	-5113
▁روڪ	-5114
▁عار	-5115
▁نجي	-5116
▁نيب	-5117
▁خاني	-5118
▁صدين	-5119
▁قدمن	-5120
▁لاهي	-5121
▁مطمئن	-5122
▁منعقد	-5123
▁ايسوسي	-5124
wit	-5125
▁Am	-5126
▁پِ	-5127
سنڌي	-5128
▁سچي	-5129
اريون	-5130
▁بهار	-5131
▁تعال	-5132
▁احوال	-5133
▁يقينن	-5134
▁پيڪيج	-5135
▁ڊاڪٽرن	-5136
▁ڪانگري	-5137
ڏن	-5138
ائز	-5139
فيئر	-5140
▁فاص	-5141
▁ھجي	-5142
▁2008	-5143
▁جيون	-5144
▁سورا	-5145
▁ادارو	-5146
▁تعلقات	-5147
▁نمايان	-5148
▁طريقيڪار	-5149
دك	-5150
مرا	-5151
ڻين	-5152
▁کم	-5153
▁ربي	-5154
▁شري	-5155
▁گلن	-5156
▁البت	-5157
▁انگن	-5158
▁كثير	-5159
▁ڌاتو	-5160
▁رکندا	-5161
▁سيڪنڊ	-5162
▁پيدائش	-5163
زد	-5164
چڪ	-5165
سمس	-5166
ليز	-5167
هند	-5168
▁سك	-5169
▁كر	-5170
▁ايٽ	-5171
▁ڄاڻو	-5172
▁احتيا	-5173
▁فلسفي	-5174
▁چوٿين	-5175
▁ڪيائون	-5176
تب	-5177
▁اِن	-5178
▁سکر	-5179
▁گيم	-5180
▁ٻانهن	-5181
▁چانهه	-5182
▁اختلاف	-5183
▁ملائيشيا	-5184
ob	-5185
قص	-5186
ust	-5187
▁((	-5188
▁وك	-5189
اسون	-5190
▁حقو	-5191
▁سنه	-5192
▁سروي	-5193
▁ليزر	-5194
▁روڪيو	-5195
▁تخليقي	-5196
▁فرمايو	-5197
▁منھنجو	-5198
▁وائ	-5199
▁ٽاپ	-5200
▁ڏهه	-5201
▁عراق	-5202
▁ميڪس	-5203
▁همين	-5204
▁اُنهن	-5205
▁رهائش	-5206
▁ٻارڙن	-5207
▁برنامه	-5208
▁رهنمائي	-5209
▁نفسياتي	-5210
▁هِن	-5211
▁پيئ	-5212
▁ايڏو	-5213
▁خوبي	-5214
▁سنئون	-5215
▁مهمان	-5216
▁ويجهي	-5217
▁پورهي	-5218
▁ڪرڪيٽ	-5219
▁برادري	-5220
طلع	-5221
▁بلڪ	-5222
▁تير	-5223
▁صفا	-5224
▁مدر	-5225
▁ٽيگ	-5226
▁ننڍن	-5227
▁گهمڻ	-5228
▁بجاءِ	-5229
▁ترميم	-5230
▁پوئين	-5231
رج	-5232
ome	-5233
▁4-	-5234
عليه	-5235
▁اخي	-5236
▁مذا	-5237
اصلات	-5238
▁ادري	-5239
▁جامع	-5240
▁عهدي	-5241
▁احسان	-5242
▁وسيلي	-5243
▁پيڪنگ	-5244
▁خاموشي	-5245
ضع	-5246
▁ہ	-5247
افر	-5248
▁جت	-5249
گاري	-5250
▁ماه	-5251
▁ڀلو	-5252
▁باڪس	-5253
▁حديث	-5254
▁پورا	-5255
▁چهري	-5256
▁ڪوٺي	-5257
▁اولين	-5258
▁واڌاري	-5259
▁پارٽين	-5260
▁ڪاريگر	-5261
بست	-5262
▁ڦا	-5263
▁امڪ	-5264
▁اگه	-5265
▁ريگ	-5266
▁فرين	-5267
▁مشاه	-5268
▁پورٽ	-5269
▁مرحلي	-5270
▁مشورو	-5271
▁وسيلن	-5272
▁اقتدار	-5273
▁استحڪام	-5274
یم	-5275
her	-5276
تاح	-5277
لون	-5278
▁لآ	-5279
اهين	-5280
▁دوم	-5281
▁فوٽ	-5282
▁ڏند	-5283
▁تلاش	-5284
▁كتير	-5285
▁متان	-5286
▁يضحك	-5287
▁ايجنٽ	-5288
▁تجربن	-5289
▁جاپان	-5290
▁وچولي	-5291
▁ڪسٽمر	-5292
▁ميڊيڪل	-5293
▁پهچايو	-5294
▁انفرادي	-5295
ru	-5296
شپ	-5297
ide	-5298
ايا	-5299
سائ	-5300
▁سڳ	-5301
▁نب	-5302
ious	-5303
▁داد	-5304
▁غذا	-5305
▁ڪنگ	-5306
▁سوراخ	-5307
▁انگريز	-5308
▁بھترين	-5309
▁برطانوي	-5310
18	-5311
24	-5312
اءَ	-5313
دام	-5314
ذيب	-5315
ناڪ	-5316
▁پت	-5317
▁جنت	-5318
▁ڀان	-5319
▁ڪشم	-5320
▁اعظم	-5321
▁پذير	-5322
▁چئبو	-5323
منهنجي	-5324
▁ڀارتي	-5325
▁منجهان	-5326
خه	-5327
عدي	-5328
طيني	-5329
ورتي	-5330
▁سچو	-5331
▁منو	-5332
▁ٻان	-5333
▁ڪتو	-5334
▁فريم	-5335
▁هاري	-5336
▁پينل	-5337
▁ڪيبل	-5338
▁سروسز	-5339
▁پنجاب	-5340
▁رياستن	-5341
▁باقاعده	-5342
▁پارليامينٽ	-5343
مع	-5344
فين	-5345
بائي	-5346
حالي	-5347
سيون	-5348
▁ذخي	-5349
▁عطا	-5350
▁مشا	-5351
▁پاپ	-5352
▁گريڊ	-5353
▁خانگي	-5354
▁مرحلن	-5355
▁تنظيمن	-5356
▁داستان	-5357
▁ڪنيڪشن	-5358
▁آزاديءَ	-5359
خط	-5360
اها	-5361
▁تد	-5362
ڪيٽن	-5363
▁pro	-5364
▁دلي	-5365
▁معذ	-5366
indhi	-5367
▁سولو	-5368
▁ويٺل	-5369
▁اصولن	-5370
▁خاتمي	-5371
▁واعدو	-5372
▁سمجهاڻي	-5373
CL	-5374
َه	-5375
ڀي	-5376
سيد	-5377
▁ex	-5378
▁ڌڪ	-5379
▁ماٺ	-5380
▁پڇي	-5381
▁گير	-5382
▁المل	-5383
▁تسلم	-5384
▁جاني	-5385
▁واهه	-5386
▁ننڍپڻ	-5387
▁دروازو	-5388
▁بدقسمتي	-5389
eg	-5390
▁j	-5391
▁عق	-5392
▁بچي	-5393
▁خشڪ	-5394
▁منه	-5395
▁ناچ	-5396
▁فطري	-5397
▁today	-5398
▁الائي	-5399
▁رڪاوٽ	-5400
▁عبدال	-5401
▁ڏيکارڻ	-5402
▁پالڻھار	-5403
▁پروجيڪٽ	-5404
pl	-5405
لائ	-5406
يوي	-5407
▁آفت	-5408
▁رشت	-5409
▁شدت	-5410
links	-5411
▁راڻي	-5412
▁مارڻ	-5413
▁سالگر	-5414
▁سردار	-5415
▁مشغول	-5416
▁پابند	-5417
▁استادن	-5418
▁اسڪولن	-5419
▁تنھنڪري	-5420
▁ڪانگريس	-5421
▁ايپليڪيشنن	-5422
ذف	-5423
سٽن	-5424
▁Next	-5425
▁سيلز	-5426
▁سگنل	-5427
▁لکين	-5428
▁ٻيڙي	-5429
▁انتها	-5430
▁حادثي	-5431
▁لاهور	-5432
▁عيسائي	-5433
19	-5434
عب	-5435
ens	-5436
ليش	-5437
▁ch	-5438
▁عث	-5439
▁ٻج	-5440
▁پڄ	-5441
▁سڄڻ	-5442
▁کسي	-5443
▁پهلو	-5444
▁اڪيلي	-5445
▁افزائي	-5446
▁خوشيءَ	-5447
▁يادگار	-5448
▁سرٽيفڪيٽ	-5449
5)	-5450
67	-5451
▁دوز	-5452
▁فات	-5453
▁لاڪ	-5454
▁تقول	-5455
▁ڪامي	-5456
▁افيئر	-5457
▁قيامت	-5458
▁پيشڪش	-5459
آل	-5460
ail	-5461
ھون	-5462
▁45	-5463
▁شئي	-5464
▁ٿيس	-5465
▁اكثر	-5466
▁هيلو	-5467
▁شڪايت	-5468
▁ڀروسو	-5469
َـ	-5470
است	-5471
▁هِ	-5472
▁وڇ	-5473
▁ٻر	-5474
▁ٿل	-5475
club	-5476
▁Pre	-5477
▁لاگ	-5478
▁اردو	-5479
▁شعبن	-5480
▁مصيبت	-5481
▁معتبر	-5482
▁خانداني	-5483
اڊا	-5484
سپل	-5485
ڊمي	-5486
▁نت	-5487
▁باا	-5488
▁ماي	-5489
▁اڏام	-5490
▁سارو	-5491
▁فعلا	-5492
▁ڏسان	-5493
▁معافي	-5494
▁نشاند	-5495
▁چاھيو	-5496
▁فيڪٽري	-5497
▁تبديليون	-5498
نيت	-5499
يڪر	-5500
▁6.	-5501
اڻون	-5502
گوار	-5503
▁انح	-5504
▁روا	-5505
▁مدل	-5506
▁پڙه	-5507
▁امزح	-5508
▁جهنگ	-5509
▁رشتي	-5510
▁اخلاق	-5511
▁سياحن	-5512
▁ڊبليو	-5513
▁کانئس	-5514
clublinks	-5515
ههههههههههههه	-5516
ڊس	-5517
خلص	-5518
▁le	-5519
▁؟!	-5520
▁جج	-5521
▁دُ	-5522
راحي	-5523
▁بيگ	-5524
▁خلق	-5525
▁لله	-5526
▁واح	-5527
▁وڳي	-5528
▁چئو	-5529
▁پنھن	-5530
▁ڪرسمس	-5531
▁ڪينسر	-5532
▁گهڻيون	-5533
▁ڳالهائيندي	-5534
ev	-5535
فس	-5536
ڊين	-5537
▁بز	-5538
▁ڀڄ	-5539
▁عرو	-5540
▁نڪي	-5541
▁واب	-5542
▁ٿڌو	-5543
▁ڇهه	-5544
▁آئوٽ	-5545
▁بران	-5546
▁بوتل	-5547
▁تازي	-5548
▁طبقي	-5549
▁عيسى	-5550
▁وڪري	-5551
▁يعطي	-5552
▁ادارا	-5553
▁اسٽيج	-5554
▁بيوقو	-5555
▁تبديلين	-5556
▁ٽا	-5557
▁رحم	-5558
▁لهر	-5559
يارين	-5560
▁عرصو	-5561
▁متفق	-5562
▁هڪدم	-5563
age	-5564
end	-5565
زيل	-5566
ڪڙي	-5567
▁لش	-5568
▁آيس	-5569
▁موس	-5570
▁ڇڪڻ	-5571
witter	-5572
▁نظرات	-5573
▁ملازمت	-5574
▁سالياني	-5575
▁£	-5576
▁ی	-5577
صور	-5578
كين	-5579
▁تُ	-5580
▁چن	-5581
دانن	-5582
▁درج	-5583
▁رعا	-5584
▁ندي	-5585
▁چيٽ	-5586
▁اھڙي	-5587
▁هليا	-5588
▁ٽڪيٽ	-5589
▁گراف	-5590
▁ترسيل	-5591
▁محترم	-5592
▁پراڻو	-5593
▁پيارو	-5594
▁ٽرمينل	-5595
ڱو	-5596
منٽ	-5597
▁هج	-5598
▁عمو	-5599
▁همت	-5600
▁ڏور	-5601
▁ڪلي	-5602
▁روزي	-5603
▁طبعا	-5604
▁غربت	-5605
▁هرڪو	-5606
▁ماريو	-5607
▁متحده	-5608
▁مغربي	-5609
].	-5610
ڳا	-5611
ass	-5612
كات	-5613
▁سٺ	-5614
انين	-5615
▁بقا	-5616
▁منط	-5617
▁گئس	-5618
گرافي	-5619
▁آھين	-5620
▁مھين	-5621
▁نازڪ	-5622
▁پئسو	-5623
▁ڪيترين	-5624
ئت	-5625
وَ	-5626
ريد	-5627
وين	-5628
يڪي	-5629
▁هَ	-5630
قائي	-5631
▁اجل	-5632
▁سني	-5633
▁يهو	-5634
▁ڪتن	-5635
▁لکيا	-5636
▁ڪڏھن	-5637
▁الحين	-5638
▁افتتاح	-5639
▁ميزبان	-5640
▁پاسورڊ	-5641
رفي	-5642
سڪر	-5643
هوا	-5644
الفت	-5645
هارن	-5646
▁اخو	-5647
▁معن	-5648
▁جناب	-5649
▁سببن	-5650
▁قطار	-5651
▁قلبي	-5652
▁XNUMX	-5653
دات	-5654
▁اوت	-5655
▁لچڪ	-5656
▁چاپ	-5657
▁رهيس	-5658
▁مئني	-5659
▁وٽان	-5660
▁اسڪين	-5661
▁تعاليٰ	-5662
▁ٽريننگ	-5663
▁رازداري	-5664
ايش	-5665
يام	-5666
▁حُ	-5667
▁گن	-5668
▁سٺا	-5669
▁موڙ	-5670
▁فائن	-5671
▁نصيب	-5672
▁ٽيلي	-5673
▁پرور	-5674
▁دروازي	-5675
▁نشاندهي	-5676
▁هوڏانهن	-5677
TE	-5678
ضل	-5679
راء	-5680
▁بدي	-5681
▁جهي	-5682
▁ديس	-5683
▁مٺي	-5684
▁گهي	-5685
▁ايپس	-5686
▁رائع	-5687
▁چهرو	-5688
▁ڪمال	-5689
▁ڪيڏو	-5690
▁گلاس	-5691
▁فرمان	-5692
▁تنهنجا	-5693
ید	-5694
ميد	-5695
گان	-5696
hats	-5697
لائن	-5698
▁آيت	-5699
▁سلط	-5700
▁سٽي	-5701
▁رستن	-5702
▁سوين	-5703
▁ماڻي	-5704
▁ٿورا	-5705
▁ڳائڻ	-5706
▁جستجو	-5707
▁قيمتون	-5708
ug	-5709
ews	-5710
ock	-5711
سار	-5712
ميه	-5713
▁رَ	-5714
▁ٽپ	-5715
سلام	-5716
▁تخت	-5717
▁عين	-5718
▁ڀٽو	-5719
اليشن	-5720
▁انٽي	-5721
▁فاطمه	-5722
▁خوفناڪ	-5723
▁مخالفت	-5724
eh	-5725
ud	-5726
ana	-5727
اعت	-5728
▁ڌا	-5729
▁اجن	-5730
▁لكم	-5731
▁رپيا	-5732
▁پاسخ	-5733
▁معصوم	-5734
▁جاپاني	-5735
بع	-5736
▁●	-5737
قيه	-5738
يلت	-5739
ڊيم	-5740
▁مٺ	-5741
،000	-5742
اپور	-5743
ھائي	-5744
▁پيس	-5745
▁پُڇ	-5746
▁ڪٽن	-5747
▁ايڏي	-5748
▁رواج	-5749
▁سيشن	-5750
▁چنين	-5751
▁ڪوڪي	-5752
▁محروم	-5753
▁پرائم	-5754
▁پليئر	-5755
▁ڪالهه	-5756
▁مجموعو	-5757
12	-5758
ra	-5759
فع	-5760
our	-5761
▁Pl	-5762
▁زيا	-5763
▁عبر	-5764
▁هيه	-5765
▁ورج	-5766
▁شمسي	-5767
▁كلها	-5768
▁خيالي	-5769
▁قيادت	-5770
▁نهاري	-5771
▁چئلين	-5772
▁تصويري	-5773
▁چونڊيل	-5774
▁ڇوڪرين	-5775
80	-5776
ذب	-5777
وق	-5778
▁Al	-5779
▁نڀ	-5780
▁iOS	-5781
▁بست	-5782
▁بني	-5783
▁بور	-5784
▁سدا	-5785
▁فحش	-5786
▁هوم	-5787
ختيار	-5788
▁خطاب	-5789
▁شهرت	-5790
▁فلمن	-5791
▁نارا	-5792
▁ڪانگ	-5793
▁گاڏين	-5794
▁لائبري	-5795
▁Twitter	-5796
ok	-5797
أي	-5798
▁ۈ	-5799
پار	-5800
▁1:	-5801
▁2:	-5802
▁32	-5803
▁سجا	-5804
▁صلى	-5805
▁هير	-5806
▁وصل	-5807
▁احنا	-5808
▁اديب	-5809
▁حافظ	-5810
▁حرام	-5811
▁صحبت	-5812
▁نفسي	-5813
▁ويزا	-5814
▁برآمد	-5815
▁عارضي	-5816
▁چونڊي	-5817
▁ڪمائي	-5818
▁خداوند	-5819
▁پهرئين	-5820
▁پائيدار	-5821
وڌ	-5822
تكم	-5823
سٽل	-5824
▁ھل	-5825
▁مندر	-5826
▁انسٽاليشن	-5827
کس	-5828
منت	-5829
▁ارو	-5830
▁مرو	-5831
▁وٺن	-5832
▁ٽتو	-5833
▁ايرا	-5834
▁ٽرمپ	-5835
▁نمونو	-5836
▁تحياتي	-5837
▁ڏنائين	-5838
بخ	-5839
لاء	-5840
▁sh	-5841
▁ٻا	-5842
ڪٽري	-5843
▁رڪن	-5844
▁سلم	-5845
▁عڪس	-5846
▁جپان	-5847
▁حساس	-5848
▁رويي	-5849
▁وفاد	-5850
▁ڊگري	-5851
▁وٺندي	-5852
▁ڀائرن	-5853
▁ڊيگهه	-5854
▁ڳوليو	-5855
▁ڪلوميٽر	-5856
ِ،	-5857
und	-5858
اهرو	-5859
صولي	-5860
▁الأ	-5861
▁حاج	-5862
▁ماع	-5863
▁مشڪ	-5864
▁آيون	-5865
▁رستا	-5866
▁رينج	-5867
▁ضايع	-5868
▁چوٽي	-5869
▁ڏسجي	-5870
ريائين	-5871
▁اعزاز	-5872
▁فائدن	-5873
▁فلمون	-5874
▁پوندا	-5875
▁ڏسندو	-5876
آه	-5877
ech	-5878
بند	-5879
▁طل	-5880
ment	-5881
▁بشر	-5882
▁ـــ	-5883
▁مبت	-5884
▁ميٽ	-5885
انيءَ	-5886
▁بزرگ	-5887
▁بنجي	-5888
▁جوڙو	-5889
▁سنڌو	-5890
▁قبضي	-5891
▁لاڙڪ	-5892
▁يوسف	-5893
نواريو	-5894
▁خرابي	-5895
▁منتخب	-5896
▁ڏنيون	-5897
▁اميدوار	-5898
▁سنگاپور	-5899
▁پڙهندڙن	-5900
ـِ	-5901
ازم	-5902
ايم	-5903
▁[.	-5904
▁ڪڍڻ	-5905
▁رياض	-5906
▁پبلڪ	-5907
▁ڪراچيءَ	-5908
▁بلوچستان	-5909
پرو	-5910
▁أي	-5911
="2.	-5912
▁هيء	-5913
▁ريسٽ	-5914
▁مادر	-5915
▁پيشه	-5916
▁گادي	-5917
▁ڪرنسي	-5918
نس	-5919
▁،،	-5920
▁ڪڪ	-5921
▁اھم	-5922
▁ڀڄي	-5923
▁تيئن	-5924
▁جڳهن	-5925
▁رکيا	-5926
▁هرگز	-5927
▁بعدين	-5928
▁قيمتن	-5929
▁پرهيز	-5930
▁طالبان	-5931
▁مظاهرو	-5932
ST	-5933
▁°	-5934
روي	-5935
نيه	-5936
اااي	-5937
ٽائر	-5938
▁ڏٺم	-5939
▁حاجي	-5940
جيڪڏهن	-5941
▁امڪاني	-5942
▁بندوبست	-5943
▁نظرثاني	-5944
__	-5945
oft	-5946
ريڊ	-5947
ضان	-5948
ميز	-5949
▁ag	-5950
▁sm	-5951
▁آٽو	-5952
▁دون	-5953
▁سنو	-5954
▁ڇهن	-5955
XNUMX	-5956
▁اسما	-5957
▁خبرن	-5958
▁صفحن	-5959
▁ڪيني	-5960
▁دائري	-5961
▁صديءَ	-5962
▁فنڪار	-5963
▁مقبول	-5964
▁اسانجي	-5965
▁هيٺيون	-5966
▁يادگيري	-5967
هههههههههههههه	-5968
ظي	-5969
oun	-5970
ياء	-5971
▁اذ	-5972
▁خا	-5973
اڻان	-5974
▁اڀر	-5975
▁ريپ	-5976
▁پلگ	-5977
▁ڊين	-5978
▁مذاق	-5979
▁نامي	-5980
▁ايجاد	-5981
▁عمران	-5982
▁فائون	-5983
▁ويندڙ	-5984
▁گريجو	-5985
▁برائوزر	-5986
▁پروگرامن	-5987
ri	-5988
جهي	-5989
افين	-5990
▁خام	-5991
▁استن	-5992
▁بقول	-5993
▁شفاف	-5994
▁جريان	-5995
▁ملندڙ	-5996
▁ڪيريئر	-5997
ram	-5998
ساب	-5999
يتا	-6000
▁5-	-6001
▁رز	-6002
▁پی	-6003
▁الل	-6004
▁مشر	-6005
▁مشن	-6006
▁جارج	-6007
▁فروغ	-6008
▁منها	-6009
▁گھڻا	-6010
▁بدلجي	-6011
▁گائيڊ	-6012
مير	-6013
▁کُ	-6014
▁تعل	-6015
▁جدت	-6016
▁ظاھر	-6017
▁مزاج	-6018
▁وارث	-6019
▁يهمك	-6020
▁پئسن	-6021
▁ڪھڙي	-6022
▁جيئرو	-6023
▁سمجھي	-6024
▁سمورا	-6025
▁گذريو	-6026
▁ڳوليندا	-6027
رك	-6028
فة	-6029
وش	-6030
ااي	-6031
ثال	-6032
ليد	-6033
▁آهه	-6034
▁بان	-6035
▁بوٽ	-6036
▁هان	-6037
▁ڏات	-6038
▁آهي۔	-6039
▁پناه	-6040
▁گردش	-6041
▁سمجهو	-6042
▁سمجھڻ	-6043
▁ميلاپ	-6044
▁واشنگ	-6045
▁ڪشمير	-6046
▁ڪچهري	-6047
▁عبدالو	-6048
خصي	-6049
َرَ	-6050
▁جب	-6051
▁رڙ	-6052
ible	-6053
گزين	-6054
▁300	-6055
▁درس	-6056
▁لاس	-6057
▁ڦير	-6058
علامه	-6059
▁اِها	-6060
▁ساله	-6061
▁ملاح	-6062
▁ملوث	-6063
▁ھوندو	-6064
اڪر	-6065
▁بڇ	-6066
▁سس	-6067
▁يت	-6068
▁ڇت	-6069
▁شفا	-6070
▁شود	-6071
▁صار	-6072
▁پتي	-6073
▁جڙيل	-6074
▁موقف	-6075
▁موٽڻ	-6076
▁ننڍا	-6077
▁ٿيڻو	-6078
▁ڏسون	-6079
▁آگاهي	-6080
▁اولهه	-6081
▁عيسيٰ	-6082
▁حفاظتي	-6083
▁خبردار	-6084
▁سراسري	-6085
▁ٺاهيندڙن	-6086
▁انجنيئرنگ	-6087
▁أك	-6088
▁عش	-6089
▁نخ	-6090
ائگي	-6091
افيه	-6092
مانس	-6093
▁193	-6094
▁نوي	-6095
▁وجه	-6096
ئيندڙ	-6097
▁2000	-6098
▁بيٺي	-6099
▁راحت	-6100
▁رسمي	-6101
▁عمري	-6102
▁ڪٽنب	-6103
▁شيطان	-6104
▁معروف	-6105
▁ناراض	-6106
▁نيويارڪ	-6107
▁بچت	-6108
▁سڏي	-6109
▁وره	-6110
earch	-6111
بوليت	-6112
▁وربي	-6113
▁پرنٽ	-6114
▁crypt	-6115
▁خوابن	-6116
▁دٻاءُ	-6117
▁مادري	-6118
▁ڀائيو	-6119
▁ڏهاڪي	-6120
سنواريو	-6121
▁پروڊڪٽس	-6122
▁اپليڪيشن	-6123
بى	-6124
ظه	-6125
ick	-6126
ord	-6127
▁ڀل	-6128
▁عدم	-6129
▁ڏٺا	-6130
▁خالد	-6131
▁دلين	-6132
▁سرحد	-6133
▁اسٽاپ	-6134
▁ماشاء	-6135
▁وٺندا	-6136
▁پويون	-6137
▁فائرنگ	-6138
▁اشتهارن	-6139
▁ٽيڪنيڪل	-6140
ors	-6141
سنڌ	-6142
كرت	-6143
لايو	-6144
▁برچ	-6145
▁حذف	-6146
▁رام	-6147
▁رون	-6148
▁سکي	-6149
▁ميگ	-6150
vious	-6151
▁بيحد	-6152
▁شديد	-6153
▁پيپر	-6154
▁بينڪن	-6155
▁موقعن	-6156
▁مضمونن	-6157
شك	-6158
فيه	-6159
▁ad	-6160
▁أخ	-6161
▁اتو	-6162
▁صاد	-6163
▁مارڪ	-6164
▁هئين	-6165
▁ڪيڏي	-6166
▁Whats	-6167
▁اينٽي	-6168
▁تهذيب	-6169
▁سچائي	-6170
▁ڳاڙهو	-6171
▁ادائگي	-6172
▁گڏجاڻي	-6173
▁ميونسپل	-6174
29	-6175
ian	-6176
صار	-6177
▁HT	-6178
▁اڱ	-6179
▁ڪڻ	-6180
قيقي	-6181
▁بير	-6182
▁ماب	-6183
▁مٿس	-6184
▁پاؤ	-6185
▁جملو	-6186
▁جوڳي	-6187
▁عادت	-6188
▁عارف	-6189
▁مخلو	-6190
▁نازل	-6191
▁رابطن	-6192
▁لائيٽ	-6193
▁پکڙيل	-6194
▁اسٽريٽ	-6195
▁پئماني	-6196
▁پرائمري	-6197
▁ايسوسيئيشن	-6198
انج	-6199
اپو	-6200
▁غذ	-6201
زمين	-6202
▁نقش	-6203
▁بايد	-6204
▁خانو	-6205
▁هيرو	-6206
▁ورتا	-6207
▁تباهي	-6208
▁جذبات	-6209
▁سوسائ	-6210
▁سگهجن	-6211
▁ٻڌاءِ	-6212
▁چوندي	-6213
▁ناڪامي	-6214
▁همراهه	-6215
App	-6216
ٽرز	-6217
ريشن	-6218
▁ترق	-6219
▁2009	-6220
▁شاهي	-6221
▁منڊي	-6222
▁پردي	-6223
▁چورس	-6224
▁آئيني	-6225
▁الضحك	-6226
▁تناسب	-6227
▁توازن	-6228
▁جهازن	-6229
▁موقعا	-6230
6)	-6231
تس	-6232
واٽ	-6233
▁ضد	-6234
ated	-6235
سٽين	-6236
▁انچ	-6237
▁مٿا	-6238
▁بلين	-6239
▁رولي	-6240
▁سوار	-6241
▁فورس	-6242
▁وحده	-6243
▁مجازي	-6244
▁نظريو	-6245
▁ڇڏيون	-6246
▁ڊولپر	-6247
▁احتياط	-6248
▁چئلينج	-6249
▁بيمارين	-6250
▁اليڪٽرانڪ	-6251
EM	-6252
ذر	-6253
="0.	-6254
coin	-6255
▁اڇو	-6256
▁جسٽس	-6257
▁جيئڻ	-6258
▁ريزي	-6259
▁زوال	-6260
▁ذخيرو	-6261
▁فضيلت	-6262
▁پھريون	-6263
▁ڏينداسين	-6264
▁فائونڊيشن	-6265
هههههههههههههههه	-6266
عع	-6267
ime	-6268
طور	-6269
وله	-6270
ابري	-6271
▁اُڀ	-6272
▁وڻن	-6273
▁دٻاء	-6274
▁وڃڻو	-6275
▁منجهه	-6276
▁سلامتي	-6277
▁چمڪندڙ	-6278
▁پارٽيءَ	-6279
uc	-6280
توي	-6281
▁آڱ	-6282
▁مچ	-6283
▁می	-6284
عدين	-6285
ميءَ	-6286
▁ڄام	-6287
▁اندي	-6288
▁بيني	-6289
▁عرفت	-6290
▁ڪلچر	-6291
▁اونهاري	-6292
▁حيدرآباد	-6293
حح	-6294
غل	-6295
ڪشي	-6296
▁Bl	-6297
▁وخ	-6298
▁ليو	-6299
▁مارو	-6300
▁ماما	-6301
▁نجات	-6302
▁گلاب	-6303
▁ميٽرو	-6304
▁ماڻهون	-6305
▁پاڻمرا	-6306
▁پروسيس	-6307
▁ميزباني	-6308
▁ڪيڏانهن	-6309
aj	-6310
ure	-6311
ئرس	-6312
تين	-6313
ديو	-6314
واب	-6315
▁أح	-6316
▁قي	-6317
ڪيون	-6318
▁ڪتا	-6319
لائيٽ	-6320
▁آثار	-6321
▁جانب	-6322
▁قابو	-6323
▁ڪڍيو	-6324
▁انڪري	-6325
▁درآمد	-6326
▁سرگرم	-6327
▁سينيٽ	-6328
▁معمول	-6329
▁منتظر	-6330
راس	-6331
▁2)	-6332
▁36	-6333
▁8.	-6334
form	-6335
سٽنٽ	-6336
شاهه	-6337
▁(3)	-6338
▁اوز	-6339
▁جيو	-6340
▁ھنن	-6341
▁جمعي	-6342
▁چئجي	-6343
▁اهوئي	-6344
▁برچسب	-6345
▁تعالى	-6346
▁پايان	-6347
▁اڄڪلهه	-6348
▁انقلابي	-6349
▁دهشتگردي	-6350
ary	-6351
les	-6352
اهت	-6353
سال	-6354
وڌيڪ	-6355
▁Mic	-6356
▁ابن	-6357
▁تبي	-6358
▁گها	-6359
▁قاضي	-6360
▁ڏيون	-6361
▁اطمين	-6362
▁نظران	-6363
▁ويچار	-6364
▁پيوند	-6365
▁استنبول	-6366
َي	-6367
ڳن	-6368
▁""	-6369
▁an	-6370
▁تل	-6371
▁زيو	-6372
▁معج	-6373
▁کٽي	-6374
جانءِ	-6375
▁راجا	-6376
▁فيچر	-6377
▁قولي	-6378
▁ميري	-6379
▁ٽڪرا	-6380
▁دراصل	-6381
▁ديوار	-6382
▁ڪرپشن	-6383
▁ڪوريا	-6384
▁صوبائي	-6385
▁پيروزي	-6386
▁ڊوائيسز	-6387
▁اختيارين	-6388
ههههههههههههههه	-6389
55	-6390
ox	-6391
جيل	-6392
ڪون	-6393
▁7.	-6394
▁Sp	-6395
▁تأ	-6396
▁غي	-6397
▁فئ	-6398
▁ڏِ	-6399
التي	-6400
ورنس	-6401
▁رقص	-6402
▁زرا	-6403
▁زلز	-6404
▁فال	-6405
▁ڪٽڻ	-6406
▁احسن	-6407
▁الان	-6408
▁بدون	-6409
▁تابع	-6410
▁جائز	-6411
▁جنگي	-6412
▁نڪتل	-6413
▁ڪپڙي	-6414
▁سمورن	-6415
▁صحافي	-6416
▁فائلن	-6417
▁مهينو	-6418
▁ڀلائي	-6419
▁زندگيء	-6420
نيم	-6421
▁3:	-6422
▁An	-6423
▁US	-6424
▁شن	-6425
▁دفن	-6426
▁وهو	-6427
▁چيس	-6428
▁ڪوش	-6429
▁دفاع	-6430
▁معقول	-6431
▁سنجيده	-6432
▁مديريت	-6433
▁ڇڏيندي	-6434
▁اثرائتي	-6435
▁اطمينان	-6436
▁خوشگوار	-6437
▁ٺاهيندڙ	-6438
▁Previous	-6439
▁پاڻمرادو	-6440
آت	-6441
ؤن	-6442
ank	-6443
بون	-6444
لهم	-6445
▁0.	-6446
▁نيم	-6447
▁لشڪر	-6448
▁مقدس	-6449
▁نيون	-6450
urname	-6451
▁رمضان	-6452
كان	-6453
ڀرو	-6454
ڪٿي	-6455
▁Ma	-6456
CLNT	-6457
دنيا	-6458
▁لاي	-6459
▁وهم	-6460
▁ڏوه	-6461
▁ميرا	-6462
▁SCLNT	-6463
▁الحمد	-6464
▁اهڙين	-6465
▁مرحلو	-6466
▁نسبتا	-6467
▁وڻندڙ	-6468
▁گلوبل	-6469
▁بدلائي	-6470
▁سهولتون	-6471
▁انتظاميه	-6472
27	-6473
برو	-6474
تما	-6475
عال	-6476
فتو	-6477
▁نِ	-6478
بارن	-6479
شيار	-6480
▁اهن	-6481
▁تعي	-6482
▁فيڊ	-6483
▁هول	-6484
▁ڌڻي	-6485
ااااا	-6486
▁اغوا	-6487
▁هيئن	-6488
▁وسري	-6489
▁يعنى	-6490
▁ڄمار	-6491
▁ڪوپن	-6492
▁اجنبي	-6493
▁اسٽاف	-6494
▁داخلي	-6495
▁مايوس	-6496
▁ڳوڙهي	-6497
▁اڳواڻي	-6498
▁چاهيندو	-6499
itt	-6500
راي	-6501
▁al	-6502
رفيس	-6503
فارم	-6504
▁حجم	-6505
▁لڳن	-6506
▁مرک	-6507
▁منش	-6508
▁پاڙ	-6509
▁ايسٽ	-6510
▁ايڪٽ	-6511
▁جھڙو	-6512
itcoin	-6513
▁مريضن	-6514
▁مٽائي	-6515
▁پناهه	-6516
▁چوٿون	-6517
▁فلسطين	-6518
▁مارڪيٽن	-6519
▁ڏيکاريل	-6520
mm	-6521
ـُ	-6522
▁٢	-6523
بود	-6524
علم	-6525
قان	-6526
نيد	-6527
ويب	-6528
▁33	-6529
▁tr	-6530
▁لِ	-6531
▁آبي	-6532
▁آڪس	-6533
▁جنا	-6534
▁لمي	-6535
▁ڀرڻ	-6536
▁بالا	-6537
▁بعدي	-6538
▁راهي	-6539
▁ڌرين	-6540
▁ڏيڻو	-6541
ائيندس	-6542
▁بنائي	-6543
▁ساٿين	-6544
▁وياسين	-6545
1:	-6546
ضم	-6547
عك	-6548
▁عط	-6549
يوار	-6550
▁برع	-6551
▁جدي	-6552
▁فرن	-6553
▁قوي	-6554
▁محد	-6555
▁ٽنگ	-6556
▁اضحك	-6557
▁تحفا	-6558
▁دارو	-6559
▁ساحل	-6560
▁شپنگ	-6561
▁اينڪس	-6562
▁اڄوڪي	-6563
▁سرگرميون	-6564
cy	-6565
َل	-6566
ake	-6567
app	-6568
دون	-6569
فار	-6570
▁سٿ	-6571
▁آري	-6572
▁اعج	-6573
▁سرد	-6574
▁عدد	-6575
▁فكر	-6576
▁پوڻ	-6577
▁کاڌ	-6578
▁2007	-6579
▁حبيب	-6580
▁سکيو	-6581
▁پڌرو	-6582
▁ارسالي	-6583
▁ايراضي	-6584
▁بيوقوف	-6585
▁WhatsApp	-6586
▁عبدالوحيد	-6587
▁اينڊرائيڊس	-6588
45	-6589
▁?	-6590
▁Ad	-6591
▁الغ	-6592
▁ٺهي	-6593
▁پھچ	-6594
▁تجزي	-6595
▁رحمت	-6596
▁سگهه	-6597
▁قاتل	-6598
▁نانگ	-6599
▁ڄائو	-6600
▁بلڊنگ	-6601
▁ڳوڙها	-6602
▁آفيسرن	-6603
▁روشنيءَ	-6604
▁سربراهه	-6605
▁لائبريري	-6606
28	-6607
▁١	-6608
rot	-6609
الٽ	-6610
خير	-6611
نگر	-6612
▁Ar	-6613
▁Sh	-6614
▁by	-6615
▁un	-6616
▁حيو	-6617
▁چال	-6618
▁مھرب	-6619
▁نديم	-6620
▁سواري	-6621
▁سگهين	-6622
▁مليون	-6623
▁واشنگٽن	-6624
▁سافٽويئر	-6625
95	-6626
شتر	-6627
شون	-6628
ress	-6629
ليلي	-6630
▁آرڪ	-6631
▁برگ	-6632
▁عزم	-6633
▁هوش	-6634
▁پڇا	-6635
▁ڪتب	-6636
▁بزنس	-6637
▁حامي	-6638
▁حاڪم	-6639
▁حقوق	-6640
▁سياح	-6641
▁ڇپيل	-6642
▁گاهه	-6643
▁خخخخخ	-6644
▁Search	-6645
▁سيکاري	-6646
▁لاڳاپا	-6647
ڇي	-6648
ابه	-6649
▁شئ	-6650
▁شھ	-6651
▁هڙ	-6652
▁کپ	-6653
رررر	-6654
وليس	-6655
▁The	-6656
▁جڳھ	-6657
▁حسب	-6658
▁ساد	-6659
▁ميک	-6660
▁اچان	-6661
▁حتمي	-6662
▁دوزخ	-6663
▁روئڻ	-6664
▁رويو	-6665
▁ڏاڍا	-6666
▁بغاوت	-6667
▁سڃاڻي	-6668
▁گناهه	-6669
▁گهٽجي	-6670
▁ريڪارڊ	-6671
▁غلطيون	-6672
▁يقيناً	-6673
▁اسٽوڊيو	-6674
أأ	-6675
نڊي	-6676
ڪرا	-6677
▁لَ	-6678
▁يآ	-6679
ھيون	-6680
▁روئ	-6681
▁قطر	-6682
▁جملي	-6683
▁شيشي	-6684
▁نقشو	-6685
▁نياز	-6686
▁وچان	-6687
▁ٽولي	-6688
▁سلطنت	-6689
▁فيصلا	-6690
▁پالتو	-6691
▁پرومو	-6692
▁پوڙهي	-6693
▁ٿورڙي	-6694
▁ڀٽائي	-6695
▁پرائيو	-6696
▁نظرانداز	-6697
13	-6698
IN	-6699
كة	-6700
▁€	-6701
ami	-6702
ons	-6703
صلي	-6704
▁بك	-6705
ائيز	-6706
پوءِ	-6707
▁نيڻ	-6708
▁ٽيپ	-6709
▁ويسٽ	-6710
▁گهوٽ	-6711
▁سگريٽ	-6712
▁ضابطن	-6713
▁پڙهيل	-6714
▁پھرين	-6715
▁ايجنسي	-6716
▁گهريلو	-6717
70	-6718
9)	-6719
:"	-6720
oy	-6721
سڀ	-6722
▁َ	-6723
ish	-6724
يما	-6725
="1.	-6726
آئون	-6727
▁آيد	-6728
▁رضا	-6729
▁ريڊ	-6730
▁زخم	-6731
▁شهن	-6732
▁طلع	-6733
▁نيل	-6734
▁ڦري	-6735
▁اوند	-6736
▁هيچي	-6737
rosoft	-6738
▁سگهيس	-6739
▁موڪليل	-6740
▁دستاويزن	-6741
15	-6742
ضه	-6743
▁א	-6744
سرچ	-6745
هڻا	-6746
كككك	-6747
▁ريس	-6748
▁معاو	-6749
▁موهن	-6750
▁هائي	-6751
▁ڪمشن	-6752
▁العالم	-6753
▁ڪئناڊا	-6754
▁جوابدارن	-6755
14	-6756
88	-6757
ee	-6758
؟.	-6759
لوا	-6760
▁HD	-6761
▁ڦه	-6762
انيا	-6763
▁تست	-6764
▁ٻوڏ	-6765
▁گڏي	-6766
▁انگل	-6767
▁اٽلي	-6768
▁ضمير	-6769
▁فائي	-6770
▁مفاد	-6771
▁مٿاڇ	-6772
▁هانگ	-6773
▁شكلها	-6774
▁صارفن	-6775
▁فائنل	-6776
▁ڊپارٽ	-6777
▁آمريڪن	-6778
▁امارات	-6779
▁زرداري	-6780
تش	-6781
ite	-6782
▁هك	-6783
جڏهن	-6784
▁تكون	-6785
▁ساخت	-6786
▁سنگت	-6787
▁نامو	-6788
▁وحدت	-6789
▁ادامه	-6790
▁انڊين	-6791
▁دائمي	-6792
▁لڳندي	-6793
▁پاؤڊر	-6794
▁ڀڃڪڙي	-6795
▁ڪوششن	-6796
▁ڪونھي	-6797
▁ھوندي	-6798
▁اڪيڊمي	-6799
▁بدلائڻ	-6800
▁ٻوليون	-6801
▁پورهيت	-6802
▁ڄاڻايل	-6803
ie	-6804
غر	-6805
مة	-6806
جنگ	-6807
داء	-6808
عود	-6809
▁فرح	-6810
▁گهم	-6811
اگرام	-6812
▁بنات	-6813
▁زرعي	-6814
▁فيهم	-6815
▁گھڻن	-6816
▁رعايت	-6817
▁غيرها	-6818
▁نظريي	-6819
▁پگهار	-6820
▁ڏيندس	-6821
▁حڪومتي	-6822
▁قرباني	-6823
▁مولانا	-6824
26	-6825
ign	-6826
صول	-6827
عون	-6828
ميش	-6829
▁رك	-6830
▁لُ	-6831
▁برش	-6832
▁سکو	-6833
▁شيڊ	-6834
▁مرة	-6835
▁ممت	-6836
▁نيپ	-6837
▁1000	-6838
▁هلڪو	-6839
▁ٻڌڻي	-6840
▁ڪوري	-6841
▁انهيء	-6842
▁حوصلا	-6843
▁خاتمو	-6844
▁ساڳيا	-6845
▁ضابطو	-6846
▁مائٽن	-6847
▁مهارت	-6848
▁يعطيك	-6849
▁امريڪا	-6850
▁انٽرفيس	-6851
▁خوشحالي	-6852
▁اميدوارن	-6853
حق	-6854
▁Ex	-6855
less	-6856
over	-6857
ائلي	-6858
ياڻي	-6859
▁اوي	-6860
▁هجو	-6861
▁هنر	-6862
▁ڊوي	-6863
گزاري	-6864
▁مدري	-6865
▁هڪجه	-6866
▁ٻاھر	-6867
▁چالو	-6868
▁تجربا	-6869
▁سمجهن	-6870
▁سمورو	-6871
▁غلامي	-6872
▁مبتلا	-6873
▁برازيل	-6874
وووووووو	-6875
▁حياتيءَ	-6876
▁سمجهندا	-6877
▁پروفائل	-6878
▁خوبصورتي	-6879
ins	-6880
خبر	-6881
يتو	-6882
▁ذا	-6883
استي	-6884
▁باش	-6885
▁شمو	-6886
▁ميه	-6887
▁چشم	-6888
▁اوپن	-6889
▁رليز	-6890
▁سپلا	-6891
▁ٽيوب	-6892
▁پرسپ	-6893
▁رٽائر	-6894
▁مالڪن	-6895
▁موڪلن	-6896
▁ڊائري	-6897
▁ڪوڪيز	-6898
▁مصنوعي	-6899
▁ڪاميٽي	-6900
▁ڪارپوريٽ	-6901
▁Microsoft	-6902
90	-6903
پپ	-6904
ari	-6905
اتا	-6906
ضيه	-6907
انڪه	-6908
▁اُٿ	-6909
▁اٿن	-6910
▁بائ	-6911
▁راڳ	-6912
▁لها	-6913
▁مٿو	-6914
▁هڻڻ	-6915
انگري	-6916
▁بحري	-6917
▁تارن	-6918
▁تشخي	-6919
▁حملن	-6920
▁عيون	-6921
▁فرار	-6922
▁وضاح	-6923
▁پهتا	-6924
▁مشكور	-6925
▁تقريباً	-6926
▁سوسائٽي	-6927
ah	-6928
ert	-6929
بها	-6930
ولڪ	-6931
ڪاٽ	-6932
▁آڌ	-6933
▁گز	-6934
پریس	-6935
▁امل	-6936
▁عاج	-6937
▁ٽار	-6938
اڻيءَ	-6939
محدود	-6940
▁بھتر	-6941
▁سعيد	-6942
▁كانت	-6943
▁نامن	-6944
▁Bible	-6945
▁لائيو	-6946
▁گروهه	-6947
▁گليڪس	-6948
▁ايڊيٽر	-6949
▁سهولتن	-6950
▁سپلائر	-6951
▁لچڪدار	-6952
▁ڪهاڻين	-6953
جج	-6954
سيس	-6955
▁أم	-6956
▁يف	-6957
▁for	-6958
▁بيچ	-6959
▁غزل	-6960
▁مجن	-6961
▁مھل	-6962
▁ايون	-6963
▁سائٽ	-6964
▁ميلي	-6965
▁يعين	-6966
▁زراعت	-6967
▁چونڊون	-6968
▁نشانيون	-6969
▁انتظاميا	-6970
▁ڳالهائيندو	-6971
ئڪ	-6972
ron	-6973
ڙجي	-6974
▁تذ	-6975
▁شک	-6976
اتار	-6977
▁150	-6978
▁اله	-6979
▁حدن	-6980
▁حيا	-6981
▁ذمي	-6982
▁سچل	-6983
▁صنف	-6984
▁عيب	-6985
▁كلم	-6986
▁مڃي	-6987
▁معنا	-6988
▁پيٽر	-6989
▁انجمن	-6990
▁عثمان	-6991
▁لکندو	-6992
▁ويڙهه	-6993
▁ٻولهه	-6994
▁ٻڌايان	-6995
AN	-6996
yp	-6997
نيس	-6998
▁؟"	-6999
▁لڙ	-7000
ارتن	-7001
انچي	-7002
▁art	-7003
▁ستن	-7004
▁ليا	-7005
▁جذبي	-7006
▁صادق	-7007
▁ناري	-7008
▁وانت	-7009
▁ڀاڱي	-7010
▁ڪلين	-7011
▁Awami	-7012
▁ملندا	-7013
▁واسطي	-7014
▁کانپوء	-7015
▁آزمائشي	-7016
37	-7017
44	-7018
8)	-7019
َء	-7020
ِل	-7021
اول	-7022
توا	-7023
قين	-7024
▁or	-7025
▁تط	-7026
▁نز	-7027
امون	-7028
▁اجا	-7029
▁بول	-7030
▁تلو	-7031
▁فلا	-7032
▁لکن	-7033
▁هاڪ	-7034
ورنيا	-7035
▁Home	-7036
▁بچاء	-7037
▁پهتي	-7038
▁ڳوٺن	-7039
▁دستخط	-7040
▁سرواڻ	-7041
▁عليهم	-7042
▁مٽيءَ	-7043
▁وٺندڙ	-7044
▁اعتراف	-7045
▁قانونن	-7046
▁🙂	-7047
gle	-7048
rom	-7049
بوٽ	-7050
▁چَ	-7051
سينو	-7052
پريس	-7053
▁سُر	-7054
▁لوڻ	-7055
▁مڪي	-7056
▁ڳڻپ	-7057
▁Awaz	-7058
▁جمال	-7059
▁زنجي	-7060
▁مائٽ	-7061
▁مثلا	-7062
▁پيرس	-7063
▁ريسرچ	-7064
▁لوازم	-7065
▁نشانو	-7066
▁ڪندين	-7067
▁اخبارن	-7068
▁مئنيجر	-7069
▁واڌارو	-7070
▁حالانڪه	-7071
▁صلاحڪار	-7072
▁لامحدود	-7073
▁مھرباني	-7074
کڻ	-7075
▁IP	-7076
▁تک	-7077
▁آئر	-7078
▁امڙ	-7079
▁بيس	-7080
▁چپن	-7081
▁ڇان	-7082
▁ڪوٺ	-7083
▁ڪيڪ	-7084
▁ھدا	-7085
ڈپریس	-7086
▁آرمي	-7087
▁امور	-7088
▁رومن	-7089
▁منجھ	-7090
▁ناپس	-7091
▁ويهڻ	-7092
▁پايه	-7093
▁ڪپڙو	-7094
▁ليبار	-7095
▁ڇپائي	-7096
▁Sindhi	-7097
▁اسپيڪر	-7098
▁ميوزيم	-7099
▁انشورنس	-7100
ld	-7101
َّ	-7102
آهي	-7103
شاپ	-7104
صرن	-7105
▁لڏ	-7106
ناطي	-7107
▁400	-7108
▁ولد	-7109
▁پڪو	-7110
▁ڪجو	-7111
سائين	-7112
▁ريال	-7113
▁زينب	-7114
▁غالب	-7115
▁ديگري	-7116
▁يونان	-7117
7)	-7118
ond	-7119
عاد	-7120
▁--	-7121
▁on	-7122
▁اقو	-7123
▁اپو	-7124
▁بدو	-7125
▁حوا	-7126
▁سيو	-7127
▁طبق	-7128
▁وڻي	-7129
ڀرائي	-7130
▁شخصي	-7131
▁قادر	-7132
▁ماشى	-7133
▁بلاول	-7134
▁نصيحت	-7135
▁ڊويزن	-7136
▁ڪمشنر	-7137
▁گروپن	-7138
▁بنيادن	-7139
▁ورڈپریس	-7140
ِر	-7141
ايس	-7142
ٽيل	-7143
▁LG	-7144
▁be	-7145
▁im	-7146
▁pl	-7147
ings	-7148
خاني	-7149
سائي	-7150
لينا	-7151
ڏهين	-7152
▁شها	-7153
▁ويت	-7154
▁يسو	-7155
▁اُھي	-7156
▁مرسي	-7157
▁معائ	-7158
▁نفسك	-7159
▁پيسا	-7160
▁ڀائر	-7161
▁بالغن	-7162
▁سپاهي	-7163
▁مزدور	-7164
▁نينهن	-7165
▁اسسٽنٽ	-7166
▁وبعدين	-7167
▁ڪابينا	-7168
▁پاسپورٽ	-7169
▁ڪارخانو	-7170
طة	-7171
ild	-7172
احد	-7173
پين	-7174
ڪول	-7175
▁آد	-7176
▁تض	-7177
▁شل	-7178
icle	-7179
واري	-7180
▁سمو	-7181
▁ميڙ	-7182
▁مڃڻ	-7183
▁کرد	-7184
▁کٽڻ	-7185
▁اجمل	-7186
▁سالم	-7187
▁فاتح	-7188
▁هٿان	-7189
منهنجو	-7190
▁اڳئين	-7191
▁برعڪس	-7192
▁توهين	-7193
▁ڪامرس	-7194
▁ڪيفيت	-7195
▁بينڪنگ	-7196
▁ناهيان	-7197
▁ميڪسيڪو	-7198
AS	-7199
AT	-7200
أإ	-7201
ile	-7202
هاڻي	-7203
▁آصف	-7204
▁اجي	-7205
▁دخل	-7206
▁شيل	-7207
urren	-7208
▁اوسط	-7209
▁دوره	-7210
▁ظالم	-7211
▁نگاه	-7212
▁ٽتوٽ	-7213
▁ڊيمو	-7214
▁ڌيءُ	-7215
▁گذرڻ	-7216
▁سلطان	-7217
▁شوقين	-7218
▁مسڪين	-7219
▁اوچائي	-7220
▁برابري	-7221
▁ورهائي	-7222
ليفورنيا	-7223
▁انسٽاگرام	-7224
2)	-7225
35	-7226
▁۳	-7227
ice	-7228
امت	-7229
َنِ	-7230
▁طي	-7231
▁تقا	-7232
▁خلو	-7233
▁فهد	-7234
▁ڪنن	-7235
▁ھيو	-7236
ليفون	-7237
▁سڪون	-7238
▁ماهو	-7239
▁نيري	-7240
▁ڪروڙ	-7241
▁بيروز	-7242
▁معاون	-7243
▁پروٽو	-7244
▁صدارتي	-7245
tr	-7246
بڪ	-7247
صه	-7248
كا	-7249
200	-7250
دني	-7251
گيٽ	-7252
لاتي	-7253
▁190	-7254
▁ترڪ	-7255
▁تيم	-7256
▁جاب	-7257
▁جبر	-7258
▁شفت	-7259
▁لکت	-7260
▁هدف	-7261
▁همٿ	-7262
▁چهر	-7263
▁ڪبو	-7264
▁ڪٽي	-7265
يويزن	-7266
▁الاس	-7267
▁تبلي	-7268
▁معطل	-7269
▁واٽر	-7270
▁اسپيڊ	-7271
▁شاديءَ	-7272
▁مينيجر	-7273
▁هوشيار	-7274
▁پرواهه	-7275
▁اختياري	-7276
ww	-7277
یل	-7278
روڪ	-7279
نڊا	-7280
▁اڻڄ	-7281
▁بيٽ	-7282
▁بچه	-7283
▁راج	-7284
▁ريز	-7285
▁سحر	-7286
▁هنگ	-7287
▁ٽهڪ	-7288
▁پڇو	-7289
▁اخوي	-7290
▁رهبر	-7291
▁نقشي	-7292
▁دوستو	-7293
▁رواني	-7294
▁سگھان	-7295
▁عالمن	-7296
▁هونءَ	-7297
▁ورهيه	-7298
▁وصولي	-7299
▁پروژه	-7300
▁چاندي	-7301
▁بدترين	-7302
▁سائيٽون	-7303
▁عملدارن	-7304
ئم	-7305
ـٍ	-7306
عدن	-7307
هوم	-7308
ڪوٽ	-7309
="3.	-7310
▁آچر	-7311
▁جِي	-7312
▁پخت	-7313
▁ڀين	-7314
▁ڪڻڪ	-7315
▁آخرت	-7316
▁تدري	-7317
▁سستو	-7318
▁لوگو	-7319
▁مجلس	-7320
▁ورتل	-7321
▁ٽائم	-7322
▁ڏاڏي	-7323
▁رڪنيت	-7324
▁مافيه	-7325
▁وسيلا	-7326
▁ڄاڻان	-7327
انگريزي	-7328
▁سمجھيو	-7329
▁ملهايو	-7330
▁لاڙڪاڻي	-7331
36	-7332
ثل	-7333
حك	-7334
رة	-7335
نڍ	-7336
اسم	-7337
▁يد	-7338
شمول	-7339
▁(4)	-7340
▁باض	-7341
▁خوا	-7342
▁لڏي	-7343
▁ميد	-7344
▁مٽا	-7345
▁ڪيپ	-7346
▁جيڪر	-7347
▁درجو	-7348
▁لنڪس	-7349
▁ناصر	-7350
▁افسان	-7351
▁غذائي	-7352
▁مُنهن	-7353
▁وڃائڻ	-7354
▁درياهه	-7355
▁رجسٽرڊ	-7356
▁سالگره	-7357
▁اليڪٽرڪ	-7358
▁ٽيليويزن	-7359
تِ	-7360
▁٪	-7361
خدا	-7362
▁ڊچ	-7363
جنهن	-7364
▁بيش	-7365
▁تجي	-7366
▁جبت	-7367
▁جلو	-7368
▁فرز	-7369
▁هري	-7370
▁وٽس	-7371
▁ڀوڳ	-7372
▁استق	-7373
▁اسوي	-7374
▁بيٺا	-7375
▁رشتو	-7376
▁سستا	-7377
▁سمهڻ	-7378
▁فرهن	-7379
▁لفظي	-7380
▁ونڊو	-7381
▁پکين	-7382
▁ڀرجي	-7383
▁ڪمرو	-7384
▁ملتوي	-7385
▁پارٽن	-7386
▁گورنر	-7387
▁حقيقتن	-7388
▁سامسنگ	-7389
ics	-7390
ديش	-7391
سير	-7392
ٽيوٽ	-7393
▁اكل	-7394
▁لبن	-7395
▁پيڊ	-7396
▁ڳري	-7397
▁News	-7398
▁بدين	-7399
▁سوني	-7400
▁شويه	-7401
▁صوفي	-7402
▁ياري	-7403
▁پئرس	-7404
▁پائو	-7405
▁ڪامل	-7406
▁اسڪيم	-7407
▁امکان	-7408
▁تشخيص	-7409
▁زباني	-7410
▁انگريزيءَ	-7411
hy	-7412
ark	-7413
ئيٽ	-7414
گون	-7415
یکس	-7416
▁48	-7417
▁65	-7418
شمند	-7419
گارن	-7420
▁حرا	-7421
▁قبي	-7422
لائين	-7423
▁بيوس	-7424
▁مدار	-7425
▁يارڪ	-7426
▁ٺاهه	-7427
▁آبهوا	-7428
▁تسلسل	-7429
▁طراحي	-7430
▁مشاهدو	-7431
▁يوناني	-7432
سى	-7433
فف	-7434
▁ځ	-7435
اهد	-7436
اڪا	-7437
گهي	-7438
▁هذ	-7439
▁ڏُ	-7440
اتين	-7441
علوم	-7442
نيچر	-7443
ورنٽ	-7444
▁باھ	-7445
▁بوڪ	-7446
▁ديد	-7447
▁شاھ	-7448
▁لڪي	-7449
▁منا	-7450
▁ويه	-7451
▁ٽول	-7452
▁پوڄ	-7453
▁کلڻ	-7454
▁تجنن	-7455
▁تڏھن	-7456
▁دلبر	-7457
▁محقق	-7458
▁ٻوٽي	-7459
▁ٽڪرو	-7460
▁گرام	-7461
ations	-7462
▁بندوق	-7463
▁ديدار	-7464
▁شناسي	-7465
▁شينهن	-7466
▁ڳولهي	-7467
▁وارنٽي	-7468
▁ڀليڪار	-7469
▁ڪوششون	-7470
▁تيستائين	-7471
عج	-7472
▁♥	-7473
ash	-7474
انت	-7475
ستا	-7476
صاب	-7477
▁34	-7478
▁en	-7479
▁ago	-7480
▁بلڊ	-7481
▁مئل	-7482
▁ورت	-7483
▁ڏجي	-7484
▁انور	-7485
▁برڪت	-7486
▁بيبي	-7487
▁سليم	-7488
▁قريب	-7489
▁وڙهي	-7490
▁لميٽيڊ	-7491
▁معائنو	-7492
▁مقناطي	-7493
▁هئائين	-7494
أن	-7495
اُ	-7496
اڄ	-7497
کت	-7498
▁۴	-7499
خاص	-7500
▁عظ	-7501
▁كي	-7502
ator	-7503
ical	-7504
nect	-7505
ڪيءَ	-7506
▁dis	-7507
▁اكت	-7508
▁سمر	-7509
▁ووڊ	-7510
▁يجي	-7511
oogle	-7512
اڻيون	-7513
▁2003	-7514
▁بايو	-7515
▁رسيد	-7516
▁رپور	-7517
▁سهڻو	-7518
▁غيره	-7519
▁ميمڻ	-7520
▁نسلن	-7521
▁نقطه	-7522
▁هاڻو	-7523
▁اڀياس	-7524
▁اڳڪٿي	-7525
▁نگاهي	-7526
▁ڳاڙهي	-7527
▁دوستان	-7528
▁سينگار	-7529
▁لڳاتار	-7530
▁منصوبا	-7531
▁هالينڊ	-7532
▁ايستائين	-7533
▁ليبارٽري	-7534
▁يونيورسٽيءَ	-7535
َس	-7536
ace	-7537
old	-7538
جلس	-7539
داس	-7540
زوج	-7541
ميس	-7542
هاا	-7543
ويت	-7544
▁4:	-7545
▁9.	-7546
▁ڇن	-7547
▁کی	-7548
▁خلص	-7549
▁هائ	-7550
▁عبرت	-7551
▁ليڊر	-7552
▁مرزا	-7553
▁ڳڻتي	-7554
▁تجارت	-7555
▁مٿاڇري	-7556
▁هيهيهي	-7557
▁ترقياتي	-7558
▁ڇوڪريءَ	-7559
66	-7560
ER	-7561
ber	-7562
ult	-7563
upp	-7564
آخر	-7565
صلى	-7566
▁عص	-7567
نيءَ	-7568
▁آله	-7569
▁اڏي	-7570
▁سكس	-7571
▁شار	-7572
▁فنا	-7573
▁Play	-7574
▁that	-7575
▁اطال	-7576
▁ٽيمن	-7577
▁انسٽي	-7578
▁باضاب	-7579
▁تشريح	-7580
▁سرانج	-7581
▁شهادت	-7582
▁كلامك	-7583
▁وهڪري	-7584
▁آزمائش	-7585
▁بادشاھ	-7586
▁خودمخت	-7587
▁سنڀالڻ	-7588
▁سائنسدان	-7589
▁پروفائيل	-7590
▁ايمانداري	-7591
▁ڪيليفورنيا	-7592
سة	-7593
قف	-7594
لڻ	-7595
ٿل	-7596
جيد	-7597
دوم	-7598
ڙهن	-7599
▁قم	-7600
▁مڱ	-7601
▁ڇي	-7602
پرست	-7603
▁ستر	-7604
▁سوٽ	-7605
▁شيو	-7606
▁لاڏ	-7607
▁وبا	-7608
▁پُٽ	-7609
پريشن	-7610
▁بادل	-7611
▁بصري	-7612
▁سندي	-7613
▁صوبن	-7614
▁ظهور	-7615
▁لوهه	-7616
▁پائپ	-7617
▁اثاثن	-7618
▁بنايو	-7619
▁صنعتن	-7620
▁غريبن	-7621
▁مسكين	-7622
▁ويجھو	-7623
▁ورهاڱي	-7624
▁ڄاڻايو	-7625
▁عبدالله	-7626
▁نامناسب	-7627
ey	-7628
بب	-7629
وڪ	-7630
یر	-7631
عيل	-7632
▁Qu	-7633
▁بِ	-7634
▁جِ	-7635
▁مگ	-7636
باره	-7637
ستگي	-7638
▁حاض	-7639
▁پُر	-7640
▁ڊون	-7641
▁ڏسن	-7642
▁بضحك	-7643
▁عربن	-7644
▁هُئا	-7645
▁پردا	-7646
▁چريو	-7647
▁small	-7648
▁ايڪشن	-7649
▁بمبئي	-7650
▁بهتري	-7651
▁جواني	-7652
▁قومون	-7653
▁مروري	-7654
▁منسوخ	-7655
▁موزون	-7656
▁مڪاني	-7657
▁وانگي	-7658
▁ٽائون	-7659
▁اسڪالر	-7660
▁اوندهه	-7661
▁فرنيچر	-7662
▁حڪمراني	-7663
▁مقبوليت	-7664
▁نوڪريون	-7665
▁هدايتون	-7666
▁پروسيسر	-7667
▁تعميراتي	-7668
39	-7669
َم	-7670
حين	-7671
منى	-7672
نڊو	-7673
ions	-7674
دائي	-7675
سمين	-7676
ظاهر	-7677
▁ابا	-7678
▁اخذ	-7679
▁باه	-7680
▁تسل	-7681
▁سرخ	-7682
▁وڇو	-7683
▁ٿوڪ	-7684
▁ڪشش	-7685
▁افري	-7686
▁موتي	-7687
▁چادر	-7688
▁ڪالم	-7689
▁ديوتا	-7690
▁رنگين	-7691
▁هٽائڻ	-7692
▁وهڪرو	-7693
▁ٺاهيا	-7694
▁خودڪشي	-7695
▁رهائشي	-7696
▁عدالتي	-7697
▁ڏياريو	-7698
▁سرانجام	-7699
▁پيشگيري	-7700
▁کائيندا	-7701
▁هندستاني	-7702
▁پابنديون	-7703
ei	-7704
ire	-7705
اضي	-7706
كري	-7707
▁99	-7708
▁***	-7709
▁آجي	-7710
▁اوب	-7711
▁جزا	-7712
▁خيا	-7713
▁نما	-7714
▁گيٽ	-7715
▁ڳچي	-7716
خواهي	-7717
▁بالم	-7718
▁جبلن	-7719
▁سوچن	-7720
▁لڪير	-7721
▁وڃون	-7722
▁کاتو	-7723
▁بنگلا	-7724
▁تبليغ	-7725
▁جيئري	-7726
▁طريقه	-7727
▁آڻيندو	-7728
▁روزانه	-7729
▁سيڪنڊن	-7730
▁علائقا	-7731
▁ايڪسپريس	-7732
▁پروفيشنل	-7733
ps	-7734
ٹر	-7735
اھي	-7736
جري	-7737
خلي	-7738
▁75	-7739
▁،"	-7740
▁آک	-7741
▁چت	-7742
رايو	-7743
يڪيو	-7744
▁all	-7745
▁ميا	-7746
▁اسڪر	-7747
▁نواب	-7748
▁هنيو	-7749
▁چالي	-7750
▁جميله	-7751
▁حبيبي	-7752
▁شيڊول	-7753
▁فرمائي	-7754
▁ڪردارن	-7755
▁گهٽائي	-7756
:$	-7757
SO	-7758
لعب	-7759
مال	-7760
پاڪ	-7761
▁Re	-7762
▁فس	-7763
▁ارد	-7764
▁دول	-7765
▁ذائ	-7766
▁شرٽ	-7767
▁ملت	-7768
▁هيم	-7769
▁ڪوئ	-7770
▁عروج	-7771
▁قلعي	-7772
▁ڊگھي	-7773
▁گمان	-7774
▁برباد	-7775
▁تقدير	-7776
▁محافظ	-7777
▁ايڊيشن	-7778
▁ماضيءَ	-7779
▁مزيدار	-7780
▁اڪيلائي	-7781
▁لوازمات	-7782
▁واپارين	-7783
▁ڳنڍيندڙ	-7784
▁علائقائي	-7785
34	-7786
اش	-7787
ويل	-7788
▁بيه	-7789
▁جمل	-7790
▁غسل	-7791
▁لهڻ	-7792
▁منز	-7793
▁مَن	-7794
▁گھو	-7795
▁اينا	-7796
▁اٿار	-7797
▁تحفو	-7798
▁رشيد	-7799
▁سويت	-7800
▁محشش	-7801
▁مكان	-7802
▁نوٽس	-7803
▁هوند	-7804
▁ورزش	-7805
▁ڪارا	-7806
▁تلوار	-7807
▁روانا	-7808
▁سينسر	-7809
▁شاعرن	-7810
▁شاپنگ	-7811
▁مرحوم	-7812
▁پياده	-7813
▁ترجمان	-7814
▁ٺهرايو	-7815
▁پارٽنر	-7816
▁سوچيندو	-7817
▁پيامهاي	-7818
▁پرسپوليس	-7819
▁ڊپارٽمينٽ	-7820
te	-7821
▁←	-7822
3">	-7823
ows	-7824
▁as	-7825
ماڪي	-7826
▁OEM	-7827
▁آرش	-7828
▁لأن	-7829
▁گھڻ	-7830
فوتكم	-7831
▁بيئر	-7832
▁جذبو	-7833
▁مردم	-7834
▁هفتا	-7835
▁هفتو	-7836
▁واٽس	-7837
▁وَرو	-7838
▁اجتما	-7839
▁اشاعت	-7840
▁زمانو	-7841
▁مينيو	-7842
▁وڌندي	-7843
▁لاڳاپو	-7844
▁هوسٽنگ	-7845
▁پڙهندو	-7846
77	-7847
تها	-7848
راز	-7849
نوع	-7850
کار	-7851
▁آذ	-7852
▁لف	-7853
▁ڀُ	-7854
هانت	-7855
▁الد	-7856
▁جهو	-7857
▁صدق	-7858
▁نشر	-7859
▁هوت	-7860
▁ڍنڍ	-7861
▁کوڙ	-7862
ating	-7863
▁سوئي	-7864
▁ڊپٽي	-7865
▁ڪائي	-7866
▁گاهي	-7867
▁گران	-7868
▁بلاگر	-7869
▁بيڪار	-7870
▁رهبري	-7871
▁مخلوق	-7872
▁هٽايو	-7873
▁پرستي	-7874
▁سليمان	-7875
▁نهاريو	-7876
▁گرفتاري	-7877
AR	-7878
َڻ	-7879
یں	-7880
▁ئ	-7881
0.1	-7882
ong	-7883
اهل	-7884
داع	-7885
▁ڪڇ	-7886
ديات	-7887
سيني	-7888
▁بجد	-7889
▁عيو	-7890
▁للم	-7891
▁ميت	-7892
▁هرو	-7893
▁ولو	-7894
▁ٽائ	-7895
▁پهن	-7896
▁ذيلي	-7897
▁زمري	-7898
▁فونز	-7899
▁منهم	-7900
▁ٻاري	-7901
▁ارتقا	-7902
▁بشمول	-7903
▁تعبير	-7904
▁منسوب	-7905
▁نينگر	-7906
▁ڳالها	-7907
ocurren	-7908
▁درستگي	-7909
▁وساريو	-7910
▁حقيقتون	-7911
▁هيڏانهن	-7912
▁يادداشت	-7913
▁پرائيويٽ	-7914
Bet	-7915
سيا	-7916
لهه	-7917
▁سھ	-7918
▁غف	-7919
▁ڪڙ	-7920
جاهه	-7921
ليسي	-7922
▁you	-7923
▁سيف	-7924
▁ڀاء	-7925
▁(201	-7926
▁انتى	-7927
▁ضمني	-7928
▁فارس	-7929
▁فيني	-7930
▁نثار	-7931
▁ويهه	-7932
▁پندر	-7933
▁بچاءُ	-7934
▁سبسڪر	-7935
▁عناصر	-7936
▁معرفي	-7937
▁دعائون	-7938
▁مسافرت	-7939
ثا	-7940
وڻ	-7941
❤️	-7942
بتك	-7943
لله	-7944
▁Tr	-7945
▁ڦي	-7946
؟؟؟؟	-7947
▁شال	-7948
▁عذر	-7949
▁قصي	-7950
▁نوع	-7951
▁ٻلي	-7952
▁پوڊ	-7953
▁پٽن	-7954
▁تاثر	-7955
▁جھڙي	-7956
▁مؤمن	-7957
▁نوڪر	-7958
▁يوني	-7959
▁اسٽين	-7960
▁الدين	-7961
▁بيشتر	-7962
▁تفريح	-7963
▁سگھيو	-7964
▁ممتاز	-7965
▁منطقي	-7966
▁اطالوي	-7967
▁فاریکس	-7968
▁نفسيات	-7969
▁پرينءَ	-7970
▁پيشرفت	-7971
▁اونداهي	-7972
▁پراڊڪٽس	-7973
-0	-7974
47	-7975
48	-7976
ink	-7977
ئجي	-7978
لاڻ	-7979
ٻار	-7980
گال	-7981
ھور	-7982
▁نك	-7983
راحة	-7984
▁wor	-7985
▁ترى	-7986
▁قمر	-7987
▁ڇڪي	-7988
▁ڪڙي	-7989
ابندي	-7990
▁آڪسي	-7991
▁دادو	-7992
▁فاسٽ	-7993
▁ليول	-7994
▁ماکي	-7995
▁مناس	-7996
▁نسيت	-7997
▁ويجه	-7998
▁ڪوڙو	-7999
▁اجايو	-8000
▁دانهن	-8001
▁عنصرن	-8002
▁ورائي	-8003
▁صحافين	-8004
▁نڪرندو	-8005
▁پائوڊر	-8006
▁ٽيليفون	-8007
▁ڪميونسٽ	-8008
▁ريسٽورنٽ	-8009
'.	-8010
17	-8011
98	-8012
ڌن	-8013
▁۔	-8014
فيٰ	-8015
▁.:	-8016
▁نح	-8017
جيڪو	-8018
ڪشاف	-8019
ڪنھن	-8020
▁بسر	-8021
▁راء	-8022
▁سوڀ	-8023
▁فضل	-8024
▁فهم	-8025
▁باشد	-8026
▁تفري	-8027
▁رائي	-8028
▁فليش	-8029
▁مرڪب	-8030
▁مصري	-8031
▁کنيا	-8032
▁گذار	-8033
▁گھري	-8034
▁طبيعي	-8035
▁محمود	-8036
▁ٻرندڙ	-8037
▁ھدايت	-8038
▁Google	-8039
▁عجبتني	-8040
▁مزدورن	-8041
▁اپوزيشن	-8042
▁باضابطه	-8043
▁انسٽيٽيوٽ	-8044
erm	-8045
برا	-8046
بور	-8047
جها	-8048
شته	-8049
رائڻ	-8050
مثال	-8051
▁Meh	-8052
▁جهت	-8053
▁سمي	-8054
▁شاد	-8055
▁عكس	-8056
▁ٺهڻ	-8057
▁پست	-8058
▁اداس	-8059
▁اسٽر	-8060
▁انوا	-8061
▁بڻيو	-8062
▁تعين	-8063
▁جمعه	-8064
▁سفرن	-8065
▁فليٽ	-8066
▁متحد	-8067
▁نعمت	-8068
▁واضع	-8069
▁يعرف	-8070
▁رسالي	-8071
▁مارڪس	-8072
▁محتاط	-8073
▁نمونن	-8074
▁پارچه	-8075
▁پريمي	-8076
▁سرزمين	-8077
▁فئڪٽري	-8078
▁اينديون	-8079
▁کائيندو	-8080
32	-8081
حم	-8082
رد	-8083
غى	-8084
وك	-8085
ٻو	-8086
▁ُ	-8087
سٽا	-8088
ندؤ	-8089
ڙيا	-8090
▁95	-8091
ally	-8092
▁اڇي	-8093
▁دفت	-8094
▁ضيا	-8095
▁لڳڻ	-8096
▁يمن	-8097
▁ٻڌا	-8098
▁روزو	-8099
▁فاهم	-8100
▁مشرو	-8101
▁هندن	-8102
▁پنجم	-8103
▁گريه	-8104
▁گويد	-8105
▁اهڙيء	-8106
▁توليد	-8107
▁لائنز	-8108
▁نداري	-8109
▁گياهي	-8110
▁انڪشاف	-8111
▁تحقيقي	-8112
▁عمارتن	-8113
▁مطالبن	-8114
▁پروٽين	-8115
▁پيشينه	-8116
▁چيائون	-8117
ائينداسين	-8118
صح	-8119
آآآ	-8120
اتن	-8121
ومي	-8122
يڪٽ	-8123
▁we	-8124
▁جس	-8125
▁چؤ	-8126
ٽيشن	-8127
▁Ind	-8128
▁ويم	-8129
▁ڄڻن	-8130
▁اُھو	-8131
▁درجا	-8132
▁طالب	-8133
▁فهمت	-8134
▁منجه	-8135
▁تعلقي	-8136
▁ديوان	-8137
▁سلائي	-8138
▁سنگين	-8139
▁ماستر	-8140
▁هائيڊ	-8141
▁آرامده	-8142
▁زندگين	-8143
▁موضوعن	-8144
▁ڪينيڊا	-8145
▁article	-8146
57	-8147
ix	-8148
امد	-8149
بوڪ	-8150
ضاء	-8151
هيم	-8152
▁//	-8153
▁37	-8154
▁آق	-8155
▁بب	-8156
▁شپ	-8157
ڪائي	-8158
▁اسد	-8159
▁اڱڻ	-8160
▁برج	-8161
▁حفظ	-8162
▁دلا	-8163
▁وما	-8164
▁ڊيز	-8165
▁ساڄي	-8166
▁مبرو	-8167
▁نكته	-8168
▁نگار	-8169
▁ڌنڌو	-8170
▁کاري	-8171
▁کنيد	-8172
▁سيمين	-8173
▁ڪيمرا	-8174
ائيزيشن	-8175
▁تنھنجو	-8176
▁هفتيوار	-8177
ax	-8178
ph	-8179
هِ	-8180
ڇر	-8181
att	-8182
ave	-8183
ays	-8184
الح	-8185
زاء	-8186
ـُـ	-8187
موت	-8188
▁3)	-8189
▁ac	-8190
▁fl	-8191
انوي	-8192
▁Pro	-8193
▁سٽا	-8194
▁ودي	-8195
▁اشوف	-8196
▁ايام	-8197
▁جوهر	-8198
▁جھاز	-8199
▁ساڻن	-8200
▁سوئچ	-8201
▁ليٽر	-8202
▁متاث	-8203
▁مڙني	-8204
▁نارو	-8205
▁ڏيهه	-8206
▁افعال	-8207
▁جيسين	-8208
▁صدارت	-8209
▁علامه	-8210
▁فائبر	-8211
▁فرزند	-8212
▁معرفت	-8213
▁ترقيءَ	-8214
▁سامعين	-8215
▁Bitcoin	-8216
▁مالياتي	-8217
ED	-8218
،.	-8219
▁رڌ	-8220
رينا	-8221
▁مسز	-8222
▁پزش	-8223
▁Mehm	-8224
▁براد	-8225
▁فرما	-8226
▁لالا	-8227
▁نائب	-8228
▁وجهڻ	-8229
▁ورجن	-8230
▁وليد	-8231
▁ٽوڙڻ	-8232
▁پٺتي	-8233
▁inter	-8234
▁برائي	-8235
▁مولوي	-8236
▁پادري	-8237
▁ڌماڪي	-8238
▁انڊيڪس	-8239
▁نشانين	-8240
_^	-8241
مز	-8242
▁څ	-8243
ism	-8244
تني	-8245
▁نَ	-8246
توکي	-8247
مدار	-8248
▁آسو	-8249
▁سِر	-8250
▁هيت	-8251
▁چري	-8252
▁دارد	-8253
▁راست	-8254
▁مجيد	-8255
▁وچين	-8256
▁ٺاھڻ	-8257
زرلينڊ	-8258
▁آگاهه	-8259
▁عندنا	-8260
▁فرينچ	-8261
▁نوعيت	-8262
▁وارثن	-8263
▁گھربل	-8264
▁تاريخن	-8265
▁حاصلات	-8266
▁ٽارگيٽ	-8267
▁صحتيابي	-8268
▁مواصلات	-8269
▁ايپليڪيشنون	-8270
ةة	-8271
چل	-8272
تيه	-8273
جوز	-8274
ڊرن	-8275
اليه	-8276
▁بسي	-8277
▁بيڊ	-8278
▁تصد	-8279
▁شاٽ	-8280
▁فيم	-8281
▁مرك	-8282
▁پرک	-8283
▁ڪيٿ	-8284
▁2005	-8285
▁آگهي	-8286
▁ارجن	-8287
▁اوري	-8288
▁اُٿي	-8289
▁بخشي	-8290
▁بڻيل	-8291
▁خانه	-8292
▁سٽون	-8293
▁عظمت	-8294
▁ويهن	-8295
▁گھڙي	-8296
بابندي	-8297
▁دوائن	-8298
▁مشرقي	-8299
▁مشيني	-8300
▁آزمائي	-8301
▁راتيون	-8302
▁شموليت	-8303
▁برگزاري	-8304
▁پنهنجين	-8305
▁پهريائين	-8306
ژي	-8307
لود	-8308
▁**	-8309
▁بأ	-8310
▁رآ	-8311
▁ڊن	-8312
▁120	-8313
▁Taj	-8314
▁الث	-8315
▁رسو	-8316
▁فوڊ	-8317
▁قائ	-8318
▁ناج	-8319
▁پیش	-8320
▁ريلي	-8321
▁سفيد	-8322
▁فكره	-8323
▁كبير	-8324
▁لکان	-8325
▁مؤثر	-8326
▁معاك	-8327
▁نيڻن	-8328
▁هيڏي	-8329
▁ٽاور	-8330
▁ڀاڪر	-8331
▁ڪلهه	-8332
▁تجديد	-8333
▁زياده	-8334
▁مشكله	-8335
▁ملائڻ	-8336
▁ٽرانز	-8337
▁پيمان	-8338
▁گهران	-8339
'ـ	-8340
1"	-8341
tt	-8342
شى	-8343
لآ	-8344
ous	-8345
ارق	-8346
بيل	-8347
شاد	-8348
▁bl	-8349
ڪنهن	-8350
▁Mac	-8351
▁اوك	-8352
▁لڪل	-8353
▁هئم	-8354
▁هنج	-8355
▁هني	-8356
▁المق	-8357
▁جعلي	-8358
▁رنگي	-8359
▁سريع	-8360
▁شكلي	-8361
▁مياد	-8362
▁نظرن	-8363
▁وڙهڻ	-8364
▁يڪدم	-8365
▁ڪلهي	-8366
▁عقيدي	-8367
▁هڙتال	-8368
▁پلانٽ	-8369
▁ڏيارڻ	-8370
▁جوسينو	-8371
▁عملدار	-8372
▁مبارڪون	-8373
▁پيڪنگنگ	-8374
▁يونيورسٽين	-8375
ize	-8376
▁44	-8377
▁5:	-8378
▁حن	-8379
▁ذخ	-8380
▁كت	-8381
▁پژ	-8382
ميون	-8383
▁آور	-8384
▁أنت	-8385
▁سڪي	-8386
▁شرا	-8387
▁صفر	-8388
▁كتب	-8389
▁ويز	-8390
▁ڏيڍ	-8391
▁گار	-8392
▁بالي	-8393
▁بخير	-8394
▁بهره	-8395
▁معزز	-8396
▁پئسي	-8397
▁پرچم	-8398
▁پيشن	-8399
▁ڌوئڻ	-8400
▁گارن	-8401
▁لنگهي	-8402
▁لڪائي	-8403
▁نياڻي	-8404
▁وائيس	-8405
▁ھوندا	-8406
▁اوزارن	-8407
▁دروازا	-8408
▁گهرايو	-8409
▁اثرائتو	-8410
▁انگليسي	-8411
▁ايشيائي	-8412
air	-8413
led	-8414
طاق	-8415
لاو	-8416
roti	-8417
تكلم	-8418
▁Com	-8419
▁آهو	-8420
▁حتي	-8421
▁رأي	-8422
▁عنا	-8423
▁كدا	-8424
▁ليپ	-8425
▁ڀون	-8426
▁ڪٿا	-8427
▁ڪڪڙ	-8428
ulana	-8429
▁زيور	-8430
▁ٽنهي	-8431
▁کردن	-8432
▁انواع	-8433
▁ذهانت	-8434
▁سفارت	-8435
▁صحافت	-8436
▁غلطين	-8437
▁قربان	-8438
▁مفهوم	-8439
▁نامزد	-8440
▁وڃايو	-8441
▁Amroti	-8442
▁انٽيلي	-8443
▁هدايتن	-8444
▁پوريون	-8445
▁Maulana	-8446
▁Mehmood	-8447
▁صلاحيتون	-8448
▁منصوبابندي	-8449
1)	-8450
2"	-8451
اذ	-8452
٠٠	-8453
سيع	-8454
فيق	-8455
▁آڷ	-8456
▁چِ	-8457
▁ڊا	-8458
ئيءَ	-8459
ائنس	-8460
يولي	-8461
▁شنگ	-8462
▁قصه	-8463
▁ورک	-8464
▁يمه	-8465
▁ڏکي	-8466
▁1990	-8467
▁بصير	-8468
▁بليڪ	-8469
▁بندش	-8470
▁بڻجڻ	-8471
▁دستي	-8472
▁مدني	-8473
▁مرڪي	-8474
▁مولا	-8475
▁وقتن	-8476
▁يسوع	-8477
▁ڪئمپ	-8478
▁ڪولم	-8479
▁بائبل	-8480
▁ردعمل	-8481
▁زلزلي	-8482
▁فلسفو	-8483
▁مطلوب	-8484
▁ويڙها	-8485
▁حڪومتن	-8486
▁رياستي	-8487
▁پڇيائين	-8488
▁cryptocurren	-8489
PS	-8490
أل	-8491
ڪَ	-8492
▁}	-8493
fer	-8494
ith	-8495
آءٌ	-8496
ئرن	-8497
سول	-8498
ظير	-8499
ماڻ	-8500
يند	-8501
▁II	-8502
▁تغ	-8503
▁رغ	-8504
پولي	-8505
▁ايد	-8506
▁جرا	-8507
▁داغ	-8508
▁صفت	-8509
▁صلح	-8510
▁متر	-8511
▁مقر	-8512
▁پوش	-8513
▁ڀنگ	-8514
,000،	-8515
لينڊر	-8516
▁اوور	-8517
▁ايگز	-8518
▁باني	-8519
▁تارا	-8520
▁صورة	-8521
▁لمحن	-8522
▁مطلق	-8523
▁پاسن	-8524
▁ڄاتو	-8525
▁گفتي	-8526
indows	-8527
▁اپلوڊ	-8528
▁موسمي	-8529
▁پارسي	-8530
▁پنجين	-8531
▁آڻيندا	-8532
▁البنات	-8533
▁اٿارٽي	-8534
▁سڀڪنھن	-8535
▁گهڻائي	-8536
▁حڪمرانن	-8537
▁پنهنجيءَ	-8538
▁درخواستون	-8539
غب	-8540
قم	-8541
شير	-8542
نيٽ	-8543
وان	-8544
ورك	-8545
▁1)	-8546
▁Th	-8547
▁ود	-8548
▁پٿ	-8549
جيئن	-8550
▁اوٽ	-8551
▁بقي	-8552
▁بلب	-8553
▁عيش	-8554
▁يبي	-8555
▁ڌرم	-8556
▁بيهو	-8557
▁دردن	-8558
▁سؤال	-8559
▁لائٽ	-8560
▁يزيد	-8561
▁پيشو	-8562
▁ثانيه	-8563
▁دٻايو	-8564
▁فولڊر	-8565
▁پرورش	-8566
▁بصراحه	-8567
▁جهنگلي	-8568
▁لاطيني	-8569
▁مشينري	-8570
▁ڏٺائين	-8571
▁ڪامريڊ	-8572
▁ڇوڪريون	-8573
▁اسرائيلي	-8574
تع	-8575
ثه	-8576
ّي	-8577
▁×	-8578
▁۵	-8579
uct	-8580
ايف	-8581
نگن	-8582
▁كف	-8583
▁ٻڏ	-8584
▁کس	-8585
طوري	-8586
▁تڪڙ	-8587
▁دكت	-8588
▁قاف	-8589
▁لڳس	-8590
▁مقد	-8591
▁ياس	-8592
▁ڪاف	-8593
ڙيندڙ	-8594
▁آلات	-8595
▁السو	-8596
▁حاجة	-8597
▁رولر	-8598
▁رپين	-8599
▁سمهي	-8600
▁سهڻا	-8601
▁سورج	-8602
▁عنده	-8603
▁غيرت	-8604
▁لعنت	-8605
▁نائي	-8606
▁همدر	-8607
▁وفاق	-8608
▁ٻيلي	-8609
▁المنت	-8610
▁ايڊمن	-8611
▁بالله	-8612
▁بهادر	-8613
▁خاطري	-8614
▁سلمان	-8615
▁پراڻا	-8616
▁اندازه	-8617
▁تفريحي	-8618
▁جادوگر	-8619
▁سرمايو	-8620
▁فيسبوڪ	-8621
▁ڄاڻندا	-8622
2-	-8623
97	-8624
قب	-8625
داي	-8626
صال	-8627
فيس	-8628
▁Con	-8629
▁دڙي	-8630
▁ريو	-8631
▁زون	-8632
▁سچا	-8633
▁عهد	-8634
▁ويٺ	-8635
▁پٺي	-8636
▁ڀاڳ	-8637
▁ڪئپ	-8638
▁اكبر	-8639
▁السي	-8640
▁انتق	-8641
▁جوڙڻ	-8642
▁حاجه	-8643
▁ربنا	-8644
▁سازش	-8645
▁پولي	-8646
▁کيڏي	-8647
▁۔۔۔۔	-8648
▁سگھجن	-8649
▁لکڻين	-8650
▁مشينن	-8651
▁►	-8652
آهن	-8653
▁ای	-8654
▁دى	-8655
ارون	-8656
جنسي	-8657
قيقت	-8658
پاسي	-8659
▁ساه	-8660
▁مهن	-8661
▁چڱا	-8662
▁ڪچي	-8663
▁2006	-8664
▁ايلي	-8665
▁حڪمن	-8666
▁حڪيم	-8667
▁خبري	-8668
▁روين	-8669
▁طويل	-8670
▁ميهن	-8671
▁هيلٿ	-8672
▁وڪڻڻ	-8673
▁يسعد	-8674
▁کيسي	-8675
▁اوليه	-8676
▁جاگير	-8677
▁دستور	-8678
▁زندهه	-8679
▁سانچو	-8680
▁متوقع	-8681
▁نداره	-8682
▁المللي	-8683
▁اندازي	-8684
▁هاڻوڪي	-8685
▁ڪهڙيون	-8686
▁گهرائي	-8687
▁گھٽائڻ	-8688
▁اسماعيل	-8689
▁تحقيقات	-8690
16	-8691
38	-8692
ue	-8693
ets	-8694
شيم	-8695
صيب	-8696
ضرب	-8697
ڪيا	-8698
▁am	-8699
▁خس	-8700
▁ٽئ	-8701
▁چٽ	-8702
▁😂😂	-8703
xBet	-8704
اهون	-8705
سافٽ	-8706
گيءَ	-8707
▁10.	-8708
▁باي	-8709
▁بحر	-8710
▁شوف	-8711
▁لسه	-8712
▁ناف	-8713
▁يام	-8714
▁ٻٽي	-8715
▁ٽرڪ	-8716
يڪيشن	-8717
▁comp	-8718
▁الخط	-8719
▁ايڪو	-8720
▁جاوا	-8721
▁مدير	-8722
▁نيرو	-8723
▁نڪتا	-8724
▁وئين	-8725
▁گھرن	-8726
پنهنجي	-8727
▁قاعدن	-8728
▁لڳيون	-8729
▁مٿيون	-8730
▁هٽائي	-8731
▁پنهون	-8732
▁ڳالھه	-8733
▁دانلود	-8734
▁آسانيءَ	-8735
▁سائينءَ	-8736
▁سائنسدانن	-8737
CO	-8738
اڳ	-8739
شب	-8740
نف	-8741
باز	-8742
ديل	-8743
شتن	-8744
شور	-8745
عنو	-8746
▁ar	-8747
▁دک	-8748
▁ٿڌ	-8749
▁ڊس	-8750
▁ڪس	-8751
ِيءَ	-8752
▁انر	-8753
▁خطن	-8754
▁ذوق	-8755
▁سبز	-8756
▁فضا	-8757
▁وحي	-8758
▁ورڇ	-8759
▁ڏکو	-8760
▁ڪجه	-8761
▁گهن	-8762
="0.1	-8763
▁ريئل	-8764
▁سڏجي	-8765
▁علام	-8766
▁محفل	-8767
▁ڇانو	-8768
▁ڪرسي	-8769
▁ڪرڻا	-8770
▁اتوقع	-8771
▁اڳواٽ	-8772
▁ترجمي	-8773
▁ندارد	-8774
▁ولايت	-8775
▁گهوڙي	-8776
▁لاڳاپن	-8777
▁گريجوئيشن	-8778
جة	-8779
خد	-8780
رڻ	-8781
iss	-8782
own	-8783
جنس	-8784
نظر	-8785
نگا	-8786
ٽيڪ	-8787
▁AP	-8788
▁sc	-8789
▁نچ	-8790
▁ڙي	-8791
ائري	-8792
▁آمو	-8793
▁اوس	-8794
▁اُڏ	-8795
▁غني	-8796
▁مسو	-8797
▁ڪوه	-8798
▁گرف	-8799
▁Inst	-8800
▁آرگن	-8801
▁ايلو	-8802
▁اڀري	-8803
▁بائي	-8804
▁جيءَ	-8805
▁خالق	-8806
▁ماشي	-8807
▁ميگا	-8808
▁وادي	-8809
▁پرسش	-8810
▁پيري	-8811
▁ڪجان	-8812
▁گوري	-8813
▁امتيا	-8814
▁بغداد	-8815
▁تاثير	-8816
▁جمهور	-8817
▁زيارت	-8818
▁شماري	-8819
▁عجبني	-8820
▁وائرل	-8821
▁ويران	-8822
▁ٻارڙا	-8823
▁چاڙهي	-8824
▁چيلهه	-8825
▁احتساب	-8826
▁انحصار	-8827
▁ايڪسچين	-8828
▁ويڪسيني	-8829
▁اڪائونٽس	-8830
▁بنگلاديش	-8831
▁سگهنداسين	-8832
1]	-8833
جز	-8834
نڀ	-8835
گس	-8836
:00	-8837
الك	-8838
جرز	-8839
هجي	-8840
▁ro	-8841
ڙهيل	-8842
▁آقا	-8843
▁دشم	-8844
▁سما	-8845
▁ورڊ	-8846
▁ٺٽي	-8847
▁چني	-8848
▁more	-8849
▁آڻيو	-8850
▁بدلو	-8851
▁بعرف	-8852
▁بيهڻ	-8853
▁جهڙن	-8854
▁ديني	-8855
▁رهان	-8856
▁قائل	-8857
▁ليبل	-8858
▁مشرف	-8859
▁هالا	-8860
▁الحلو	-8861
▁اڏاوت	-8862
▁ڄاڻون	-8863
ااااااا	-8864
▁ساراهه	-8865
▁سنڀالي	-8866
▁شخصيتن	-8867
▁خاندانن	-8868
▁پروگرامنگ	-8869
ٿن	-8870
ڊم	-8871
anc	-8872
ann	-8873
ool	-8874
كار	-8875
ڊرز	-8876
▁39	-8877
▁ڦو	-8878
uses	-8879
امام	-8880
▁ائپ	-8881
▁بسم	-8882
▁شيٽ	-8883
▁پڙھ	-8884
▁ڏاڪ	-8885
▁آڌار	-8886
▁ائپس	-8887
▁انضم	-8888
▁اڪبر	-8889
▁دهلي	-8890
▁رضام	-8891
▁روڊن	-8892
▁سورن	-8893
▁مباح	-8894
▁هلڪي	-8895
▁اديبن	-8896
▁ارادي	-8897
▁اينيم	-8898
▁بستري	-8899
▁تصميم	-8900
▁سڃاڻڻ	-8901
▁لکندا	-8902
▁مفادن	-8903
▁نظريه	-8904
ٽزرلينڊ	-8905
▁اسانکي	-8906
▁ايڊريس	-8907
▁روايتن	-8908
▁فرهنگي	-8909
▁ميموري	-8910
▁Windows	-8911
▁اجتماعي	-8912
▁خواهشمند	-8913
▁ٻڌائيندو	-8914
3)	-8915
ai	-8916
خش	-8917
ٻر	-8918
یو	-8919
طني	-8920
لاڪ	-8921
▁55	-8922
▁6-	-8923
▁بئ	-8924
▁بَ	-8925
آمري	-8926
اهيو	-8927
يڪٽر	-8928
ڪتاڻ	-8929
▁250	-8930
▁جگر	-8931
▁دٻي	-8932
▁سڙي	-8933
▁قصد	-8934
▁قصو	-8935
▁لڙڪ	-8936
▁وكل	-8937
▁ڪاش	-8938
▁انڪو	-8939
▁ثواب	-8940
▁جهلي	-8941
▁طبقن	-8942
▁لهجي	-8943
▁لڪيل	-8944
▁مهدي	-8945
▁ناقص	-8946
▁يصير	-8947
▁پڪڙي	-8948
▁چوڻي	-8949
▁کاڌا	-8950
▁اعصاب	-8951
▁اوطاق	-8952
▁شناخت	-8953
▁ڪرايا	-8954
▁سمجهون	-8955
▁واريءَ	-8956
▁نظرياتي	-8957
▁ڪارخاني	-8958
▁تحقيقاتي	-8959
▁درخواستن	-8960
▁هارڊويئر	-8961
▁سرٽيفڪيشن	-8962
2:	-8963
ge	-8964
۰۰	-8965
ach	-8966
ase	-8967
تري	-8968
حلي	-8969
رام	-8970
ممم	-8971
▁it	-8972
▁آھ	-8973
بورڊ	-8974
هندڙ	-8975
▁ادو	-8976
▁بخت	-8977
▁جال	-8978
▁شدن	-8979
▁قري	-8980
▁مُن	-8981
▁همو	-8982
▁ومن	-8983
▁وول	-8984
▁پنن	-8985
ebook	-8986
يلينڊ	-8987
▁الام	-8988
▁الجو	-8989
▁سانس	-8990
▁صديق	-8991
▁هيرن	-8992
▁ٻوٽن	-8993
▁ٿورن	-8994
▁چارٽ	-8995
▁ڪراس	-8996
▁ھيءَ	-8997
▁ايوان	-8998
▁اُنھن	-8999
▁اڳوڻو	-9000
▁تقاضا	-9001
▁رسالت	-9002
▁ريپبل	-9003
▁فاصلي	-9004
▁يهودي	-9005
▁ٻارهن	-9006
▁پريان	-9007
▁چڱيءَ	-9008
▁ڇڏيان	-9009
▁وفادار	-9010
▁وڌائين	-9011
▁پنھنجن	-9012
▁connect	-9013
▁استقبال	-9014
▁دهشتگرد	-9015
▁ضرورتون	-9016
▁ڪمپنيءَ	-9017
3"	-9018
ll	-9019
طب	-9020
oll	-9021
اتك	-9022
تاج	-9023
ديك	-9024
▁00	-9025
▁En	-9026
▁يَ	-9027
▁ٻَ	-9028
▁چش	-9029
olog	-9030
ound	-9031
بيون	-9032
جبني	-9033
▁are	-9034
▁اُٺ	-9035
▁توي	-9036
▁جنب	-9037
▁دخت	-9038
▁رھڻ	-9039
▁يست	-9040
▁ڪڪر	-9041
agram	-9042
▁spec	-9043
▁انجن	-9044
▁تنها	-9045
▁توجه	-9046
▁جذبن	-9047
▁سفير	-9048
▁نصاب	-9049
▁يخلي	-9050
▁يقطع	-9051
▁البته	-9052
▁جيترا	-9053
▁حلوين	-9054
▁فلسفه	-9055
▁اسڪرپٽ	-9056
▁اوباما	-9057
▁پھريان	-9058
▁ڇڏيائين	-9059
▁ڪئلينڊر	-9060
":	-9061
af	-9062
let	-9063
ئنڊ	-9064
تيم	-9065
خخخ	-9066
ُور	-9067
▁1,	-9068
▁وغ	-9069
بيتي	-9070
گاهي	-9071
▁ظرف	-9072
▁ليك	-9073
▁نيت	-9074
▁هلن	-9075
▁وصف	-9076
▁يرج	-9077
▁ڊيڄ	-9078
▁انتو	-9079
▁بنهه	-9080
▁جارح	-9081
▁سيٽن	-9082
▁مجاز	-9083
▁پيسٽ	-9084
▁آفتاب	-9085
▁استعي	-9086
▁اسٽيڪ	-9087
▁بيزار	-9088
▁سڪندر	-9089
▁مشوري	-9090
▁مشڪلا	-9091
▁نوٽيف	-9092
▁وسارڻ	-9093
▁پاڻيء	-9094
▁ڇڪتاڻ	-9095
▁انضمام	-9096
▁ورهايو	-9097
▁پارٽيون	-9098
▁پيرامون	-9099
▁دارومدار	-9100
96	-9101
1">	-9102
2">	-9103
4">	-9104
ube	-9105
خيل	-9106
راط	-9107
ـَـ	-9108
▁Hu	-9109
▁co	-9110
▁فز	-9111
▁لب	-9112
▁ڀَ	-9113
▁ڦٽ	-9114
▁ڳج	-9115
ames	-9116
ized	-9117
▁---	-9118
▁اٺن	-9119
▁طبع	-9120
▁فرش	-9121
▁لقب	-9122
▁هلو	-9123
▁وٽن	-9124
▁ٻڏي	-9125
▁گند	-9126
liers	-9127
جمينٽ	-9128
عداري	-9129
▁جدول	-9130
▁جرئت	-9131
▁رهون	-9132
▁ريان	-9133
▁ساهي	-9134
▁ورثي	-9135
▁پوئل	-9136
▁چڱيء	-9137
▁ڪروم	-9138
▁ڪمان	-9139
▁خدائي	-9140
▁ريفري	-9141
▁سمجھو	-9142
▁عيسوي	-9143
▁مشھور	-9144
▁منزلن	-9145
▁هزارن	-9146
▁ٿورڙو	-9147
▁ڪُجهه	-9148
ainless	-9149
▁شهزادي	-9150
▁ملهائڻ	-9151
▁هلائين	-9152
▁ٺاهيندا	-9153
▁ڪارائتو	-9154
AD	-9155
mp	-9156
اك	-9157
▁ژ	-9158
orn	-9159
ابا	-9160
روس	-9161
روض	-9162
فهم	-9163
يار	-9164
کيو	-9165
▁دن	-9166
ater	-9167
▁سيٺ	-9168
▁ناا	-9169
▁ويژ	-9170
▁ھجڻ	-9171
مينيم	-9172
▁2004	-9173
▁اتحا	-9174
▁حالي	-9175
▁دفتر	-9176
▁كلنا	-9177
▁مخاط	-9178
▁معلم	-9179
▁معين	-9180
▁منكم	-9181
▁واجب	-9182
▁وارڊ	-9183
▁ويکي	-9184
▁ٿلهي	-9185
▁ڀاڱو	-9186
▁البنت	-9187
▁برانچ	-9188
▁دائرو	-9189
▁رسالو	-9190
▁سهارو	-9191
▁ماريا	-9192
▁موٽيو	-9193
▁وبائي	-9194
▁ٺاھيو	-9195
▁گذاريو	-9196
▁قرارداد	-9197
▁ايڪسچينج	-9198
▁دهشتگردن	-9199
▁پروٽوڪول	-9200
[/	-9201
یت	-9202
ino	-9203
ugh	-9204
سٽو	-9205
ويي	-9206
پول	-9207
ڪلي	-9208
ives	-9209
مولا	-9210
گذار	-9211
▁أخي	-9212
▁افا	-9213
▁اٿو	-9214
▁اڙي	-9215
▁برد	-9216
▁روٽ	-9217
▁سرح	-9218
▁غلا	-9219
▁فلپ	-9220
▁لهم	-9221
▁انسپ	-9222
▁خرچن	-9223
▁ديوي	-9224
▁سيال	-9225
▁فديت	-9226
▁لحظه	-9227
▁لمحو	-9228
▁ٽوڙي	-9229
▁چانڊ	-9230
▁ڪجھھ	-9231
▁ھيون	-9232
وووووو	-9233
▁اجزاء	-9234
▁الاءِ	-9235
▁الاهي	-9236
▁اپارٽ	-9237
▁دريءَ	-9238
▁ڊيوٽي	-9239
▁ڌارين	-9240
▁ڪمائڻ	-9241
▁آلودگي	-9242
▁اسٽريم	-9243
▁انڊوني	-9244
▁اهلڪار	-9245
▁حبيبتي	-9246
▁خريدار	-9247
▁سڏيندا	-9248
▁موڪليا	-9249
▁سيکاريو	-9250
▁سوئٽزرلينڊ	-9251
▁ڳالهائيندڙ	-9252
rad	-9253
جيو	-9254
قار	-9255
ييي	-9256
ڙهه	-9257
ڪاش	-9258
▁64	-9259
▁Ph	-9260
▁he	-9261
▁عس	-9262
▁نک	-9263
<<<<	-9264
بوري	-9265
ماري	-9266
ڪريٽ	-9267
▁آند	-9268
▁ائٽ	-9269
▁قدي	-9270
▁مٺو	-9271
▁ٿِي	-9272
▁ڪُل	-9273
▁گيل	-9274
▁ايوب	-9275
▁اگهه	-9276
▁توتي	-9277
▁جاڳي	-9278
▁دائو	-9279
▁ساره	-9280
▁سجيل	-9281
▁سفري	-9282
▁سودا	-9283
▁پيشي	-9284
▁پکسل	-9285
▁ڳائي	-9286
مولانا	-9287
▁ابليس	-9288
▁الوقت	-9289
▁برادر	-9290
▁جوڙيو	-9291
▁زنجير	-9292
▁سوويت	-9293
▁سينئر	-9294
▁فيصلن	-9295
▁معذور	-9296
▁گلابي	-9297
▁گولڊن	-9298
▁ھميشه	-9299
▁آنلائن	-9300
▁آڪسيجن	-9301
▁دوائون	-9302
▁ضحكتني	-9303
▁ناجائز	-9304
▁پيراهن	-9305
▁العافيه	-9306
▁اڳڀرائي	-9307
▁تجويزون	-9308
▁ذميداري	-9309
▁سمجهندو	-9310
▁منتديات	-9311
▁تابعداري	-9312
▁وينداسين	-9313
▁خودمختيار	-9314
▁نوٽيفڪيشن	-9315
3:	-9316
DD	-9317
ML	-9318
اڪس	-9319
كتي	-9320
نتي	-9321
ٿين	-9322
ڪسي	-9323
▁pr	-9324
▁رِ	-9325
▁ڇُ	-9326
▁ڪش	-9327
انيد	-9328
▁اڇا	-9329
▁بخو	-9330
▁جزو	-9331
▁حلق	-9332
▁ردي	-9333
▁رها	-9334
▁شكر	-9335
▁متي	-9336
▁ڀڳو	-9337
▁ڄمڻ	-9338
ااااي	-9339
▁تعصب	-9340
▁داره	-9341
▁رضاڪ	-9342
▁سائو	-9343
▁قالت	-9344
▁مذمت	-9345
▁موٽو	-9346
▁ڄاڻن	-9347
▁چاچا	-9348
▁حيوان	-9349
▁خلاصو	-9350
▁سوچيم	-9351
▁مبروك	-9352
▁مھينا	-9353
▁هارين	-9354
▁پريشر	-9355
acebook	-9356
▁اينجلس	-9357
▁بينظير	-9358
▁پائونڊ	-9359
▁پنجاهه	-9360
uppliers	-9361
▁ويڪسينيشن	-9362
//	-9363
0)	-9364
68	-9365
آب	-9366
ڍا	-9367
ږي	-9368
گھ	-9369
ath	-9370
ium	-9371
اسه	-9372
الة	-9373
خان	-9374
زاد	-9375
هتي	-9376
ڊنٽ	-9377
▁فص	-9378
بالر	-9379
▁(5)	-9380
▁One	-9381
▁سٺن	-9382
▁فدي	-9383
▁مٿن	-9384
▁نائ	-9385
▁نشي	-9386
▁ڏان	-9387
▁Mart	-9388
▁ارجو	-9389
▁انكم	-9390
▁اڳين	-9391
▁تاني	-9392
▁رهيب	-9393
▁سڏين	-9394
▁معكم	-9395
▁نادر	-9396
▁ٻوٽو	-9397
▁پڇيم	-9398
▁ڇهين	-9399
▁ايٽمي	-9400
▁جائزي	-9401
▁جوابي	-9402
▁عراقي	-9403
▁فاصلو	-9404
▁نانءُ	-9405
▁ٽيڪسٽ	-9406
▁پراڻن	-9407
▁ڳولها	-9408
▁الصورة	-9409
▁مناسبت	-9410
▁مهربان	-9411
▁ڪمپنيء	-9412
▁رومانوي	-9413
▁سياستدان	-9414
75	-9415
</	-9416
په	-9417
▁تَ	-9418
▁تِ	-9419
▁دڪ	-9420
▁ذه	-9421
امان	-9422
شمار	-9423
▁,,,	-9424
▁الٽ	-9425
▁اوى	-9426
▁بتن	-9427
▁تلف	-9428
▁تور	-9429
▁رزق	-9430
▁سرن	-9431
▁ضرب	-9432
▁فيض	-9433
▁ميك	-9434
▁مڙي	-9435
ility	-9436
ووووو	-9437
▁اثرن	-9438
▁جواز	-9439
▁حدون	-9440
▁ذهين	-9441
▁رابر	-9442
▁شاهد	-9443
▁مداح	-9444
▁ملئي	-9445
▁هوءِ	-9446
▁ڪافر	-9447
▁آزمون	-9448
▁تعميل	-9449
▁جولاء	-9450
▁روبوٽ	-9451
▁سنڌين	-9452
▁ماسڪو	-9453
▁ميلون	-9454
▁سرمايه	-9455
▁سگھندا	-9456
▁مانيٽر	-9457
▁منشيات	-9458
▁ڊوڙندو	-9459
▁اداڪارا	-9460
▁باقاعدي	-9461
▁جانبدار	-9462
:5	-9463
OL	-9464
ڌر	-9465
▁😂	-9466
eng	-9467
ify	-9468
ove	-9469
ادم	-9470
برگ	-9471
▁اى	-9472
▁تڙ	-9473
▁لط	-9474
ڪجهه	-9475
▁،،،	-9476
▁عاي	-9477
▁فوق	-9478
▁لنا	-9479
▁لون	-9480
▁ليٽ	-9481
▁محب	-9482
▁ڏوھ	-9483
▁ڪثر	-9484
مونکي	-9485
پمينٽ	-9486
▁1980	-9487
▁Zone	-9488
▁انتم	-9489
▁باغي	-9490
▁جبهه	-9491
▁مرتب	-9492
▁مشار	-9493
▁يونس	-9494
▁پريم	-9495
▁ڪاسٽ	-9496
▁ڪوڙي	-9497
▁گروه	-9498
▁اسپام	-9499
▁اميره	-9500
▁انفار	-9501
▁ترجمه	-9502
▁دشمنن	-9503
▁دشمني	-9504
▁مواضي	-9505
▁پڇاڙي	-9506
▁چنيسر	-9507
▁اسٽينڊ	-9508
▁اقتباس	-9509
▁الوداع	-9510
▁منزلون	-9511
▁ورهايل	-9512
▁پيشنها	-9513
▁السعودي	-9514
▁اهلڪارن	-9515
▁کانسواء	-9516
ii	-9517
اڊ	-9518
رِ	-9519
عث	-9520
اته	-9521
بته	-9522
رور	-9523
رير	-9524
سلڪ	-9525
يهر	-9526
▁سق	-9527
▁يش	-9528
اريا	-9529
جندڙ	-9530
▁اشك	-9531
▁تيا	-9532
▁جند	-9533
▁سوپ	-9534
▁ورق	-9535
▁ڇرڪ	-9536
▁ڪرم	-9537
حقيقت	-9538
▁100%	-9539
▁ادخل	-9540
▁اھڙو	-9541
▁راغب	-9542
▁سوري	-9543
▁قلبك	-9544
▁لاٿو	-9545
▁مورد	-9546
▁هلون	-9547
▁ٿڪجي	-9548
▁انشاء	-9549
▁زميني	-9550
▁عندكم	-9551
▁ممبئي	-9552
▁نگاهه	-9553
▁هلايو	-9554
▁ڇوڪرن	-9555
▁مهانگو	-9556
▁ڳوٺاڻن	-9557
▁آئرلينڊ	-9558
▁پاليسين	-9559
▁پاڙيسري	-9560
▁ايماندار	-9561
▁ايڪسڪسڪس	-9562
▁هندوستان	-9563
▁ذميواريون	-9564
65	-9565
لة	-9566
یا	-9567
اڪن	-9568
بيو	-9569
حنا	-9570
روش	-9571
سمو	-9572
سڪو	-9573
عنا	-9574
نگو	-9575
هيد	-9576
گاس	-9577
▁38	-9578
▁GB	-9579
▁de	-9580
▁ڀٽ	-9581
▁ڄم	-9582
دادي	-9583
شيءَ	-9584
▁pre	-9585
▁بات	-9586
▁زوج	-9587
▁سخن	-9588
▁مُر	-9589
▁ناح	-9590
▁واع	-9591
▁واک	-9592
▁ڊڄي	-9593
▁اللع	-9594
▁بخار	-9595
▁بستر	-9596
▁تخيل	-9597
▁جاين	-9598
▁حملا	-9599
▁روحي	-9600
▁سلوڪ	-9601
▁سومر	-9602
▁شفته	-9603
▁شفقت	-9604
▁كلكم	-9605
▁لمحي	-9606
▁ملٽي	-9607
▁نقطو	-9608
▁وآله	-9609
▁ٺيڪي	-9610
onuses	-9611
▁رابطه	-9612
▁سڳورن	-9613
▁عقيدو	-9614
▁لڳندا	-9615
▁مداحن	-9616
▁منصور	-9617
▁ويژگي	-9618
▁يسلمو	-9619
▁پرويز	-9620
▁ڊرائي	-9621
▁آپريٽر	-9622
▁ويلڊنگ	-9623
▁يوڪرين	-9624
▁ڇڏيندس	-9625
▁ڊپريشن	-9626
▁گاڏيون	-9627
▁زميندار	-9628
▁گرائونڊ	-9629
▁Instagram	-9630
▁مائڪروسافٽ	-9631
49	-9632
ON	-9633
lo	-9634
آس	-9635
غا	-9636
كب	-9637
ُه	-9638
بلا	-9639
ذري	-9640
ستن	-9641
فيا	-9642
قعت	-9643
وڪو	-9644
ھيل	-9645
▁NE	-9646
▁iP	-9647
▁تپ	-9648
▁لڄ	-9649
▁ٽچ	-9650
="4.	-9651
ific	-9652
ائتا	-9653
واره	-9654
▁خدم	-9655
▁دلو	-9656
▁ريٽ	-9657
▁سئي	-9658
▁عني	-9659
▁موج	-9660
▁نال	-9661
▁پات	-9662
▁پوپ	-9663
▁1947	-9664
▁آيتن	-9665
▁انته	-9666
▁انهم	-9667
▁برهم	-9668
▁ساعت	-9669
▁سايت	-9670
▁سرڪٽ	-9671
▁طبقو	-9672
▁كريم	-9673
▁لالچ	-9674
▁مانس	-9675
▁منصف	-9676
▁وجهه	-9677
▁ولله	-9678
▁چڙهڻ	-9679
▁ڪھڙو	-9680
پوليٽن	-9681
▁اسرار	-9682
▁اصليت	-9683
▁بيٽنگ	-9684
▁رڙيون	-9685
▁سادگي	-9686
▁مباني	-9687
▁مخاطب	-9688
▁واحده	-9689
▁ڌاڙيل	-9690
▁گناهن	-9691
▁آسماني	-9692
▁بيشمار	-9693
▁تربيتي	-9694
▁دانشور	-9695
▁منهنجن	-9696
▁ورڪشاپ	-9697
▁پيٽرول	-9698
▁ڊرائنگ	-9699
▁ڳولهيو	-9700
مممممممم	-9701
▁قبرستان	-9702
▁پناهگير	-9703
▁انفارميشن	-9704
▁ايلومينيم	-9705
▁ٽرانزيڪشن	-9706
▁ميٽروپوليٽن	-9707
ضب	-9708
ڪڪ	-9709
con	-9710
per	-9711
اهن	-9712
جوي	-9713
زيز	-9714
كرة	-9715
لها	-9716
يله	-9717
▁wh	-9718
تيار	-9719
گيشن	-9720
▁آدر	-9721
▁آره	-9722
▁ازل	-9723
▁الذ	-9724
▁الگ	-9725
▁انڌ	-9726
▁بيٺ	-9727
▁تند	-9728
▁زيب	-9729
▁عضو	-9730
▁لکو	-9731
▁ٻاج	-9732
▁ٽام	-9733
▁چاه	-9734
▁ڊال	-9735
رارتي	-9736
پورٽس	-9737
▁ايمر	-9738
▁بيٽا	-9739
▁تصوف	-9740
▁تڪڙي	-9741
▁دادا	-9742
▁روزم	-9743
▁فساد	-9744
▁فونٽ	-9745
▁قبلي	-9746
▁محور	-9747
▁ميوو	-9748
▁نواف	-9749
▁وڃين	-9750
▁يوزر	-9751
▁ڇپيو	-9752
▁گندي	-9753
▁علشان	-9754
▁ملايو	-9755
▁وڌندو	-9756
▁کانئن	-9757
▁گهيرو	-9758
▁گواهي	-9759
▁اسپيني	-9760
▁اسڪوٽر	-9761
▁ٺاهيون	-9762
▁چونڊجي	-9763
▁Martech	-9764
طس	-9765
ِء	-9766
▁ټ	-9767
▁سئ	-9768
▁شق	-9769
▁صب	-9770
▁لٺ	-9771
awei	-9772
تمام	-9773
▁ارز	-9774
▁الى	-9775
▁باق	-9776
▁تما	-9777
▁جرن	-9778
▁مفي	-9779
▁ناد	-9780
▁وفد	-9781
▁يحب	-9782
▁پرڪ	-9783
▁ڏٺل	-9784
ريبين	-9785
موضوع	-9786
وريءَ	-9787
گرافڪ	-9788
▁1970	-9789
▁ابتڙ	-9790
▁اسمي	-9791
▁افضل	-9792
▁دورن	-9793
▁روعة	-9794
▁سوير	-9795
▁مقدر	-9796
▁ميلو	-9797
▁ٿيان	-9798
▁ڏهين	-9799
▁ڪيٽي	-9800
▁ڪپهه	-9801
▁گهٽي	-9802
▁آوازن	-9803
▁حادثو	-9804
▁دائود	-9805
▁مارشل	-9806
▁نميشه	-9807
▁نگران	-9808
▁ڊراما	-9809
▁ڏهاڪن	-9810
▁مزاحيه	-9811
▁جمهوريه	-9812
▁نامعلوم	-9813
▁نمائندن	-9814
▁ورتائين	-9815
▁مقناطيسي	-9816
▁سرمائيداري	-9817
69	-9818
85	-9819
تَ	-9820
com	-9821
انص	-9822
سيه	-9823
گها	-9824
▁6:	-9825
▁سخ	-9826
▁سڻ	-9827
▁ٽم	-9828
ruct	-9829
▁اِي	-9830
▁بكل	-9831
▁خطر	-9832
▁زيد	-9833
▁مسا	-9834
▁واڳ	-9835
▁ٽال	-9836
انيان	-9837
▁اعمل	-9838
▁ايدك	-9839
▁رشتن	-9840
▁سعود	-9841
▁شهور	-9842
▁فهمي	-9843
▁فيكم	-9844
▁قوتن	-9845
▁قويه	-9846
▁لاني	-9847
▁مبني	-9848
▁هُجي	-9849
▁وحدة	-9850
▁اسڪاٽ	-9851
▁اميدن	-9852
▁ذريعا	-9853
▁شاخون	-9854
▁قيدين	-9855
▁ماتحت	-9856
▁معذرت	-9857
▁منافع	-9858
▁مٽائڻ	-9859
▁چوڌري	-9860
▁چڪيون	-9861
▁حرارتي	-9862
▁درباره	-9863
▁درياءَ	-9864
▁سينٽرل	-9865
▁عدالتن	-9866
▁فعاليت	-9867
▁منھنجا	-9868
▁پورهيو	-9869
▁پيچيدگي	-9870
▁چيومانس	-9871
uk	-9872
we	-9873
ڈر	-9874
ھڪ	-9875
omi	-9876
ory	-9877
oud	-9878
راد	-9879
سلر	-9880
يئي	-9881
▁1/	-9882
▁br	-9883
▁جع	-9884
▁رڻ	-9885
▁ڪچ	-9886
ates	-9887
ence	-9888
وريل	-9889
▁600	-9890
▁imp	-9891
▁اپن	-9892
▁نثر	-9893
▁پتل	-9894
▁چٽو	-9895
▁ڪوچ	-9896
▁گرا	-9897
تاسين	-9898
▁؟؟؟؟	-9899
▁اربع	-9900
▁اللى	-9901
▁براڊ	-9902
▁تباد	-9903
▁سطحي	-9904
▁طارق	-9905
▁منور	-9906
▁هميش	-9907
▁وٺان	-9908
▁ٿاڻي	-9909
▁گفتم	-9910
▁اُميد	-9911
▁اڏامي	-9912
▁جهيڙو	-9913
▁سينٽي	-9914
▁ميٽنگ	-9915
▁نائين	-9916
▁هوندس	-9917
▁پرڪشش	-9918
▁ڏاڙهي	-9919
▁کڻندا	-9920
▁ڪوٽنگ	-9921
▁Huawei	-9922
▁احساسن	-9923
▁برداري	-9924
▁مايوسي	-9925
▁گارنٽي	-9926
▁وفاداري	-9927
sm	-9928
آڪ	-9929
>>>	-9930
ele	-9931
erv	-9932
ise	-9933
روا	-9934
سمع	-9935
ههي	-9936
ونك	-9937
▁(5	-9938
▁تز	-9939
▁طن	-9940
▁ڍڪ	-9941
▁گج	-9942
67">	-9943
سرار	-9944
ٽائن	-9945
▁ISO	-9946
▁اوه	-9947
▁رنج	-9948
▁سعد	-9949
▁عائ	-9950
▁قمي	-9951
▁ڀٽي	-9952
▁ڪلپ	-9953
▁انيڪ	-9954
▁ايوه	-9955
▁برتن	-9956
▁ترمي	-9957
▁جوڳو	-9958
▁ريمو	-9959
▁ستين	-9960
▁شارٽ	-9961
▁فريب	-9962
▁فيسٽ	-9963
▁ليست	-9964
▁مشعل	-9965
▁نقاب	-9966
▁وقفي	-9967
▁ٽريف	-9968
▁ٽوپي	-9969
▁کتاب	-9970
▁گرجا	-9971
▁گڏهه	-9972
قانوني	-9973
▁تفسير	-9974
▁جايون	-9975
▁جمعيت	-9976
▁فضائي	-9977
▁ميزان	-9978
▁ياليت	-9979
▁گروهن	-9980
▁آسٽريا	-9981
▁شيئرنگ	-9982
▁طبقاتي	-9983
▁ملهائي	-9984
▁موٽائي	-9985
▁هنگامي	-9986
▁Surname	-9987
▁surname	-9988
▁آڪسائيڊ	-9989
▁اسپتالن	-9990
▁ڊرائيونگ	-9991
▁اسيمبليءَ	-9992
▁انڊونيشيا	-9993
▁خودمختياري	-9994
yn	-9995
ابو	-9996
راڪ	-9997
سام	-9998
فيل	-9999
ورٽ	-10000
ولا	-10001
ڊيز	-10002
ڪوز	-10003
▁خب	-10004
ارٽر	-10005
بليٽ	-10006
بندي	-10007
گنڊا	-10008
▁آيه	-10009
▁بدم	-10010
▁ذوب	-10011
▁عنه	-10012
▁متى	-10013
▁وفي	-10014
▁وڪڻ	-10015
▁ٽٽي	-10016
▁ڪيچ	-10017
▁تجسس	-10018
▁تشوف	-10019
▁رفته	-10020
▁مُون	-10021
▁هيري	-10022
▁يارو	-10023
▁ٻيءَ	-10024
▁ٽنڊو	-10025
▁پڌري	-10026
▁پکيڙ	-10027
▁ڏوهن	-10028
▁بصيرت	-10029
▁ثانوي	-10030
▁جپاني	-10031
▁رائيٽ	-10032
▁شماره	-10033
▁عوامل	-10034
▁وڌندا	-10035
▁ٽريول	-10036
▁پڄاڻي	-10037
▁ڳولهڻ	-10038
▁تيزيءَ	-10039
▁سازمان	-10040
▁لاڏاڻو	-10041
▁ميليون	-10042
▁ڪاربان	-10043
▁اسڪالرشپ	-10044
AC	-10045
DF	-10046
^^	-10047
لر	-10048
ُل	-10049
یز	-10050
▁ڷ	-10051
als	-10052
ote	-10053
آآي	-10054
آئي	-10055
ثري	-10056
رتا	-10057
طلب	-10058
كته	-10059
كرا	-10060
پيا	-10061
ڃاڻ	-10062
▁47	-10063
▁لت	-10064
▁وإ	-10065
ount	-10066
کاري	-10067
▁Xia	-10068
▁man	-10069
▁اصح	-10070
▁اكس	-10071
▁كثر	-10072
▁نيز	-10073
▁پسم	-10074
▁ڏکن	-10075
▁ڪاڻ	-10076
▁ڪيش	-10077
▁گيج	-10078
▁2001	-10079
▁<<<<	-10080
▁آرٽس	-10081
▁ايوا	-10082
▁سوان	-10083
▁مواف	-10084
▁ميئر	-10085
▁نسخن	-10086
▁يطلع	-10087
▁ٿائي	-10088
▁ڀتين	-10089
▁چاچي	-10090
▁چشمي	-10091
▁کائو	-10092
▁ڪهاڻ	-10093
يڪيوٽو	-10094
▁اجاگر	-10095
▁اسپيس	-10096
▁اقرار	-10097
▁اهواز	-10098
▁بخاري	-10099
▁دڪانن	-10100
▁قبيلي	-10101
▁لاچار	-10102
▁ليڪچر	-10103
▁مارٽن	-10104
▁مخدوم	-10105
▁ميٽرڪ	-10106
▁پائين	-10107
▁پاڙون	-10108
▁ڪنوار	-10109
▁آسانيء	-10110
▁اسٽائل	-10111
▁جارجيا	-10112
▁منافعي	-10113
▁هٿيارن	-10114
▁پهچندو	-10115
▁پڙهندا	-10116
▁رهنديون	-10117
▁رهياسين	-10118
▁ريگيولي	-10119
▁شنگھائي	-10120
▁ناپسندي	-10121
▁بااختيار	-10122
▁بندرگاهه	-10123
AM	-10124
BC	-10125
▁→	-10126
erg	-10127
oot	-10128
آني	-10129
ئِي	-10130
بوا	-10131
ستو	-10132
لاص	-10133
هلي	-10134
ياي	-10135
يته	-10136
ينو	-10137
▁(4	-10138
▁اڷ	-10139
گائي	-10140
▁Net	-10141
▁ابد	-10142
▁امس	-10143
▁بحب	-10144
▁تحب	-10145
▁سنت	-10146
▁عاب	-10147
▁مرگ	-10148
▁مقت	-10149
▁ميث	-10150
▁مٺا	-10151
▁ويٽ	-10152
▁پاک	-10153
▁کند	-10154
▁ڪاڪ	-10155
▁گان	-10156
▁ھلي	-10157
▁اكتب	-10158
▁بوٽن	-10159
▁تڪڙا	-10160
▁حبيت	-10161
▁دلڪش	-10162
▁سامي	-10163
▁سولي	-10164
▁عباس	-10165
▁عيوض	-10166
▁قطعي	-10167
▁مامي	-10168
▁مواص	-10169
▁مومن	-10170
▁ياسر	-10171
▁ياهو	-10172
▁ٻيڻو	-10173
▁پوکي	-10174
▁ڀائي	-10175
تنهنجي	-10176
▁اشاري	-10177
▁اوترو	-10178
▁روپيا	-10179
▁صورتن	-10180
▁محتاج	-10181
▁پرسيد	-10182
▁ڪنوين	-10183
▁آڻيندي	-10184
▁ايجنڊا	-10185
▁معاوضي	-10186
▁يورپين	-10187
▁اسلاميه	-10188
▁رياستون	-10189
▁شهنشاهه	-10190
▁Facebook	-10191
▁موڪليندا	-10192
oh	-10193
آخ	-10194
رأ	-10195
عش	-10196
ًا	-10197
ٻڙ	-10198
ٽٽ	-10199
یٹ	-10200
-20	-10201
ابق	-10202
ارة	-10203
دوا	-10204
هاڻ	-10205
ولد	-10206
يمه	-10207
پرا	-10208
▁SD	-10209
▁qu	-10210
▁هب	-10211
ands	-10212
cess	-10213
وران	-10214
▁آخه	-10215
▁أهم	-10216
▁حلا	-10217
▁سرف	-10218
▁عاش	-10219
▁عمي	-10220
▁كدة	-10221
▁ليڊ	-10222
▁نجو	-10223
▁نصف	-10224
▁چاڪ	-10225
ڙيندي	-10226
▁آڻين	-10227
▁جنون	-10228
▁روعه	-10229
▁رکان	-10230
▁منشي	-10231
▁ميكن	-10232
▁مُرڪ	-10233
▁ناٽڪ	-10234
▁هيئت	-10235
▁وسعت	-10236
▁وڌيو	-10237
▁کامل	-10238
▁ڪاهي	-10239
▁تجربه	-10240
▁توجهه	-10241
▁جدائي	-10242
▁خيرات	-10243
▁درٻار	-10244
▁سوالي	-10245
▁فنانس	-10246
▁لڪائڻ	-10247
▁مرتضي	-10248
▁پرچون	-10249
▁پوڙهو	-10250
▁خيرپور	-10251
▁صلاحون	-10252
▁نوڪرين	-10253
▁ڏوهاري	-10254
▁ڪيٿولڪ	-10255
▁سموريون	-10256
▁پالڻهار	-10257
▁ڪسٽمائيز	-10258
4"	-10259
:0	-10260
In	-10261
US	-10262
آف	-10263
ـ.	-10264
ِڪ	-10265
ڀا	-10266
▁ګ	-10267
اسڪ	-10268
ووه	-10269
چون	-10270
▁43	-10271
▁سڱ	-10272
▁فت	-10273
▁ڦل	-10274
بابا	-10275
فالٽ	-10276
▁جري	-10277
▁ساک	-10278
▁ضبط	-10279
▁منگ	-10280
▁نهي	-10281
▁نوح	-10282
▁هاد	-10283
▁ٿام	-10284
▁ٿان	-10285
▁ڦٽي	-10286
▁ھند	-10287
▁آذرب	-10288
▁آقاي	-10289
▁اقدر	-10290
▁جناح	-10291
▁رکڻو	-10292
▁سبزي	-10293
▁مشكل	-10294
▁ملاك	-10295
▁ملير	-10296
▁موڙي	-10297
▁مڃيو	-10298
▁وائس	-10299
▁وراڻ	-10300
▁ويژه	-10301
▁وٺون	-10302
▁پوين	-10303
▁پوڄا	-10304
▁چاهه	-10305
▁ڇنڇر	-10306
▁ڏسين	-10307
▁بدعنو	-10308
▁تجزيه	-10309
▁تجزيي	-10310
▁تڪميل	-10311
▁دفاعي	-10312
▁سارنگ	-10313
▁ضابطي	-10314
▁محصول	-10315
▁معاكم	-10316
▁پرائي	-10317
▁Xiaomi	-10318
▁تحليلي	-10319
▁خيالات	-10320
▁رهواسي	-10321
▁معاملا	-10322
▁نوازيو	-10323
▁پندرهن	-10324
▁نقصانڪار	-10325
اااااااااا	-10326
▁نيوزيلينڊ	-10327
اً	-10328
بٽ	-10329
سد	-10330
ُم	-10331
پت	-10332
ata	-10333
eed	-10334
ely	-10335
راب	-10336
رون	-10337
ونو	-10338
گهڙ	-10339
▁85	-10340
▁جپ	-10341
▁ٽُ	-10342
ذيري	-10343
سازي	-10344
ههاي	-10345
ونيا	-10346
ڪارو	-10347
گاهن	-10348
▁HTC	-10349
▁ابر	-10350
▁حدا	-10351
▁دام	-10352
▁سمن	-10353
▁سوز	-10354
▁فڪس	-10355
▁قسط	-10356
▁مرچ	-10357
▁نرو	-10358
▁ڀڃي	-10359
▁ڏاه	-10360
▁کلا	-10361
▁ڪرس	-10362
الدين	-10363
▁اسمك	-10364
▁الشر	-10365
▁راجع	-10366
▁سائز	-10367
▁سُور	-10368
▁طلعت	-10369
▁قرضن	-10370
▁مثلي	-10371
▁مصنف	-10372
▁نڪتي	-10373
▁ورڪن	-10374
▁وليم	-10375
▁پنير	-10376
▁گفته	-10377
▁آيتون	-10378
▁الصور	-10379
▁اولمپ	-10380
▁ايترا	-10381
▁رابطا	-10382
▁رايكم	-10383
▁سمايل	-10384
▁صراحه	-10385
▁عقيدت	-10386
▁مذهبن	-10387
▁منسلڪ	-10388
▁مٿئين	-10389
▁ياسين	-10390
▁ٽريفڪ	-10391
▁گهريو	-10392
▁جاندار	-10393
▁موضوعك	-10394
▁ويهاري	-10395
▁ٽيبليٽ	-10396
▁ڏکيائي	-10397
▁احتجاجي	-10398
▁استحصال	-10399
▁تُنهنجي	-10400
▁رضامندي	-10401
▁شڪارپور	-10402
▁ڪمپيوٽرن	-10403
QU	-10404
TC	-10405
yl	-10406
ؤؤ	-10407
زت	-10408
els	-10409
ric	-10410
row	-10411
سلو	-10412
صدق	-10413
عور	-10414
ٽرڪ	-10415
ڏيو	-10416
کين	-10417
▁Sk	-10418
▁ٿِ	-10419
ance	-10420
ريزي	-10421
ليڪس	-10422
ماتي	-10423
▁برٽ	-10424
▁عبا	-10425
▁لٿو	-10426
▁واش	-10427
▁پسر	-10428
▁1960	-10429
▁تائي	-10430
▁جوري	-10431
▁ردود	-10432
▁زالن	-10433
▁شلون	-10434
▁لسان	-10435
▁ملان	-10436
▁مومل	-10437
▁ميره	-10438
▁هلان	-10439
▁وايد	-10440
▁گھمڻ	-10441
▁آرشيو	-10442
▁آسودو	-10443
▁حوالا	-10444
▁مترجم	-10445
▁مونجه	-10446
▁ٽائيپ	-10447
▁ڌماڪو	-10448
▁آفريڪي	-10449
▁اتفاقي	-10450
▁السالف	-10451
▁زيادتي	-10452
▁مهمانن	-10453
▁مونکان	-10454
▁پڙهائڻ	-10455
▁منهنجون	-10456
▁ڳالھيون	-10457
▁ايگزيڪيوٽو	-10458
ys	-10459
دؤ	-10460
هآ	-10461
2.1	-10462
OTE	-10463
ina	-10464
ئنٽ	-10465
هرا	-10466
▁"،	-10467
▁Un	-10468
▁زع	-10469
▁سح	-10470
▁طف	-10471
▁کے	-10472
ower	-10473
روجن	-10474
▁per	-10475
▁ترت	-10476
▁تلق	-10477
▁جڙي	-10478
▁حسي	-10479
▁رلي	-10480
▁عکس	-10481
▁لئي	-10482
▁نسخ	-10483
▁وظي	-10484
▁ٽور	-10485
▁ڪاس	-10486
other	-10487
▁over	-10488
▁ترکي	-10489
▁طرفي	-10490
▁فكرت	-10491
▁لاتع	-10492
▁ميرو	-10493
▁يالغ	-10494
▁جاويد	-10495
▁زمينن	-10496
▁ستارن	-10497
▁مثالن	-10498
▁مجنون	-10499
▁ملتان	-10500
▁وضعيت	-10501
▁چندين	-10502
▁الزامن	-10503
▁الكلام	-10504
▁خورشيد	-10505
▁روزمره	-10506
▁رپورٽن	-10507
▁فٽبالر	-10508
▁قوانين	-10509
▁ويچاري	-10510
▁پيگيري	-10511
▁ڄاڻندڙ	-10512
▁کوٽائي	-10513
▁ڪيبورڊ	-10514
▁سيٽنگون	-10515
▁وضاحتون	-10516
▁پيپلزپار	-10517
▁ڪاميابيءَ	-10518
""	-10519
6"	-10520
oz	-10521
اخ	-10522
صص	-10523
ِِ	-10524
یه	-10525
eld	-10526
use	-10527
ارب	-10528
جال	-10529
سيل	-10530
طال	-10531
غرب	-10532
ولن	-10533
▁آش	-10534
▁بف	-10535
▁حظ	-10536
▁شغ	-10537
ents	-10538
هاڙي	-10539
▁اڪر	-10540
▁بگي	-10541
▁بڻج	-10542
▁تنو	-10543
▁ثال	-10544
▁ران	-10545
▁لاڙ	-10546
▁مذھ	-10547
▁معر	-10548
▁هما	-10549
▁واي	-10550
▁پائ	-10551
▁ٿري	-10552
▁ڀڄڻ	-10553
▁گلا	-10554
▁2002	-10555
▁اريد	-10556
▁الحق	-10557
▁الفا	-10558
▁الهي	-10559
▁ببين	-10560
▁بعضي	-10561
▁تضاد	-10562
▁جھان	-10563
▁رايا	-10564
▁سيزن	-10565
▁صوره	-10566
▁عيني	-10567
▁قاسم	-10568
▁ميخو	-10569
▁مڃتا	-10570
▁نامز	-10571
▁نقشن	-10572
▁نوري	-10573
▁نيڪي	-10574
▁واءُ	-10575
▁والي	-10576
▁ويلي	-10577
▁ٽريڊ	-10578
▁ڏڪار	-10579
▁ارشاد	-10580
▁ايريا	-10581
▁ايندس	-10582
▁ترڪيب	-10583
▁حقدار	-10584
▁شريعت	-10585
▁يادگي	-10586
▁پيوست	-10587
▁ڪئپٽن	-10588
▁خوشحال	-10589
▁رينجرز	-10590
▁ريپبلڪ	-10591
▁ويساهه	-10592
▁پهچندي	-10593
▁ٿياسين	-10594
▁ڀرپاسي	-10595
▁فارمولا	-10596
▁مصروفيت	-10597
▁مُنهنجي	-10598
▁ڪاروائي	-10599
formation	-10600
▁ايمرجنسي	-10601
▁بيماريءَ	-10602
▁cryptocurrency	-10603
ET	-10604
WS	-10605
قط	-10606
بات	-10607
ريق	-10608
زيه	-10609
ورد	-10610
▁رش	-10611
▁رچ	-10612
▁لھ	-10613
ائنا	-10614
بيهه	-10615
خبري	-10616
شتري	-10617
ڌيءَ	-10618
▁can	-10619
▁اظن	-10620
▁اقل	-10621
▁بده	-10622
▁بنو	-10623
▁جلس	-10624
▁سود	-10625
▁سُک	-10626
▁كلي	-10627
▁وتا	-10628
▁ٽيب	-10629
▁پڇن	-10630
▁چٽي	-10631
▁ڏجن	-10632
▁گور	-10633
▁اختت	-10634
▁الكل	-10635
▁تاري	-10636
▁ستار	-10637
▁محرم	-10638
▁مغرب	-10639
▁نارن	-10640
▁ورثو	-10641
▁ويتر	-10642
▁ٻوٽا	-10643
▁گردن	-10644
▁اتمنى	-10645
▁اوارڊ	-10646
▁اڄوڪو	-10647
▁حاضري	-10648
▁سنسار	-10649
▁عليءَ	-10650
▁فرياد	-10651
▁منجهس	-10652
▁وڪيلن	-10653
▁چيمبر	-10654
▁اڻڄاتل	-10655
▁خصوصيت	-10656
▁خواهيد	-10657
▁منصوبه	-10658
▁پاناما	-10659
آآآآآآآآ	-10660
يييييييي	-10661
▁انفيڪشن	-10662
▁نوڪريءَ	-10663
▁ويجهڙائي	-10664
؟'	-10665
آك	-10666
فك	-10667
man	-10668
ual	-10669
ؤال	-10670
سما	-10671
قاء	-10672
قيم	-10673
▁em	-10674
▁بذ	-10675
دوري	-10676
▁PST	-10677
▁You	-10678
▁آتم	-10679
▁آغا	-10680
▁آهر	-10681
▁حرم	-10682
▁سکن	-10683
▁غار	-10684
▁فاه	-10685
▁فيا	-10686
▁قرن	-10687
▁قطع	-10688
▁لتا	-10689
▁لڌو	-10690
▁وجي	-10691
▁ٽان	-10692
▁ڇنڊ	-10693
▁ڪلم	-10694
▁ڪوڪ	-10695
▁ڳاڙ	-10696
ition	-10697
اداري	-10698
ديمند	-10699
▁1995	-10700
▁HTML	-10701
▁أكيد	-10702
▁انڌي	-10703
▁جيڏي	-10704
▁راسك	-10705
▁سمعت	-10706
▁قميص	-10707
▁مائع	-10708
▁مفاص	-10709
▁موجو	-10710
▁نانو	-10711
▁همون	-10712
▁وندر	-10713
▁پتلي	-10714
▁پهتس	-10715
▁ڇوته	-10716
▁ڪيڏا	-10717
▁اطلاق	-10718
▁انجيل	-10719
▁حالات	-10720
▁سائبر	-10721
▁سلامي	-10722
▁ماڊلز	-10723
▁ناانص	-10724
▁نديءَ	-10725
▁ٽيڪنڪ	-10726
پاڪستان	-10727
▁سيٽنگن	-10728
▁گهرجون	-10729
▁اينيمڪس	-10730
▁فرمانبر	-10731
ااااااااا	-10732
▁ٽيليگرام	-10733
▁غيرقانوني	-10734
غه	-10735
▁z	-10736
ابع	-10737
وبي	-10738
ٻيو	-10739
▁Br	-10740
▁لئ	-10741
▁يج	-10742
▁ڊڪ	-10743
▁ڪک	-10744
ائلٽ	-10745
جواب	-10746
حانن	-10747
ميلي	-10748
▁800	-10749
▁und	-10750
▁اتس	-10751
▁بشه	-10752
▁جاه	-10753
▁ذرو	-10754
▁ساھ	-10755
▁ستا	-10756
▁مصط	-10757
▁ميش	-10758
▁ناب	-10759
▁وام	-10760
▁پرڻ	-10761
▁ڀاڄ	-10762
▁ڊرا	-10763
▁ڪَن	-10764
▁گوڙ	-10765
۔۔۔۔۔	-10766
▁with	-10767
▁آرزو	-10768
▁آندي	-10769
▁افهم	-10770
▁اڏاو	-10771
▁بالع	-10772
▁جاکو	-10773
▁جملا	-10774
▁عاجز	-10775
▁عملو	-10776
▁فاني	-10777
▁فضول	-10778
▁فيڊر	-10779
▁قيدي	-10780
▁لانه	-10781
▁مالا	-10782
▁مخزن	-10783
▁مرشد	-10784
▁مريد	-10785
▁هنوز	-10786
▁پئدا	-10787
▁پرسي	-10788
▁چئون	-10789
▁ڌنڌي	-10790
▁ڏاڪڻ	-10791
▁ڪنڊي	-10792
▁ھليو	-10793
▁آجيان	-10794
▁اقبال	-10795
▁اقوام	-10796
▁الطاف	-10797
▁بااثر	-10798
▁تبصرا	-10799
▁سنسڪر	-10800
▁شرطون	-10801
▁ضياءَ	-10802
▁عملدر	-10803
▁فورسز	-10804
▁ليکڪن	-10805
▁وسيلو	-10806
▁ڪنارن	-10807
▁اقتصاد	-10808
▁امتياز	-10809
▁بلاگنگ	-10810
▁جهڙيون	-10811
▁خوبيون	-10812
▁سپلائي	-10813
▁ميرپور	-10814
▁ورهائڻ	-10815
▁ڪمزوري	-10816
▁آرڪائيو	-10817
▁رٿابندي	-10818
▁ايرانيان	-10819
▁ايڪسپورٽ	-10820
▁حياتياتي	-10821
TN	-10822
sp	-10823
rap	-10824
الڪ	-10825
جبك	-10826
عزم	-10827
متك	-10828
ميع	-10829
پيو	-10830
▁4)	-10831
▁42	-10832
▁آج	-10833
▁حط	-10834
▁خذ	-10835
▁180	-10836
▁^_^	-10837
▁inc	-10838
▁آتش	-10839
▁ايز	-10840
▁بلغ	-10841
▁جئن	-10842
▁جوز	-10843
▁خفي	-10844
▁ستي	-10845
▁سڪل	-10846
▁فيو	-10847
▁ممن	-10848
▁هات	-10849
▁ٽوڪ	-10850
▁المف	-10851
▁انمي	-10852
▁تُون	-10853
▁خلوص	-10854
▁داني	-10855
▁راشد	-10856
▁رهيل	-10857
▁زاهد	-10858
▁عبير	-10859
▁غفلت	-10860
▁فارغ	-10861
▁فيئر	-10862
▁لينس	-10863
▁معدن	-10864
▁ميگه	-10865
▁نصير	-10866
▁هادي	-10867
▁وياج	-10868
▁يارب	-10869
▁پيتي	-10870
▁پڙھڻ	-10871
▁ڪنجي	-10872
▁ڪيلي	-10873
▁رهندس	-10874
▁سالگي	-10875
▁ضابطا	-10876
▁عندهم	-10877
▁غمگين	-10878
▁فارمن	-10879
▁مارئي	-10880
▁مهراڻ	-10881
▁نظريا	-10882
▁واکاڻ	-10883
▁ٻڌندا	-10884
▁ڀروسي	-10885
▁ڏهاڙي	-10886
▁کڻندو	-10887
▁سنڌيءَ	-10888
▁سينيئر	-10889
▁لاڳيتو	-10890
▁پيغامن	-10891
▁گهڙيءَ	-10892
▁رپورٽون	-10893
▁سنواريو	-10894
▁سوچيندي	-10895
▁مزاحمتي	-10896
▁ڪولمبيا	-10897
▁ڪيريبين	-10898
▁عملدرآمد	-10899
▁فائديمند	-10900
3-	-10901
87	-10902
Cl	-10903
DM	-10904
sh	-10905
500	-10906
bet	-10907
ئلة	-10908
ائج	-10909
ائع	-10910
جهر	-10911
پاڻ	-10912
▁Cl	-10913
▁ab	-10914
▁pb	-10915
▁ph	-10916
▁مى	-10917
▁يل	-10918
▁گس	-10919
▁اري	-10920
▁اُڃ	-10921
▁ترو	-10922
▁قهر	-10923
▁لاح	-10924
▁لام	-10925
▁نگه	-10926
▁ٺڳي	-10927
▁ٿڪل	-10928
▁چوڪ	-10929
QUOTE	-10930
انداز	-10931
▁1997	-10932
▁year	-10933
▁اساس	-10934
▁المن	-10935
▁اوسي	-10936
▁اوكي	-10937
▁بريف	-10938
▁جرنل	-10939
▁حاوي	-10940
▁خاڪي	-10941
▁روپي	-10942
▁ليکي	-10943
▁مسڪر	-10944
▁وقار	-10945
▁ٻنھي	-10946
▁پھچي	-10947
▁ٿانو	-10948
▁کنيم	-10949
▁گھرو	-10950
▁Black	-10951
▁اساسي	-10952
▁مضحكه	-10953
▁معدني	-10954
▁مهاجر	-10955
▁ميهار	-10956
▁نوڪيا	-10957
▁گهٽين	-10958
▁مشهوري	-10959
▁هارمون	-10960
▁هوريان	-10961
▁يهودين	-10962
▁پنھنجا	-10963
▁پولينڊ	-10964
▁اسپورٽس	-10965
▁بادشاهي	-10966
▁تنظيمون	-10967
▁شاءالله	-10968
▁ضحكتيني	-10969
▁فيسٽيول	-10970
▁وڌائيندو	-10971
▁پھريائين	-10972
42	-10973
:.	-10974
AP	-10975
رق	-10976
ړه	-10977
▁٣	-10978
lix	-10979
جوش	-10980
سيب	-10981
ينس	-10982
ينٽ	-10983
َرِ	-10984
▁آڳ	-10985
▁بٽ	-10986
▁حك	-10987
▁دة	-10988
▁رف	-10989
▁رڍ	-10990
▁عب	-10991
قلبي	-10992
▁آڱر	-10993
▁بدا	-10994
▁شمس	-10995
▁شيم	-10996
▁فرص	-10997
▁مگه	-10998
▁هٽي	-10999
▁ڪفر	-11000
▁گرل	-11001
▁استع	-11002
▁الرح	-11003
▁اڻيو	-11004
▁بارش	-11005
▁جملن	-11006
▁جيءُ	-11007
▁رکجي	-11008
▁سرنگ	-11009
▁شيعه	-11010
▁عهدن	-11011
▁فكرة	-11012
▁ملائ	-11013
▁ناگز	-11014
▁نسلي	-11015
▁ٻڪري	-11016
▁ڦاسي	-11017
▁ڪاڏي	-11018
▁ڪيمپ	-11019
▁انزين	-11020
▁ايميل	-11021
▁بادشا	-11022
▁جهاني	-11023
▁حوالن	-11024
▁سڌريل	-11025
▁عقيدن	-11026
▁لياقت	-11027
▁مديني	-11028
▁موسيٰ	-11029
▁نمونا	-11030
▁وانتي	-11031
▁پرنٽر	-11032
▁ڪنٽين	-11033
▁فنڪشنل	-11034
▁متاثرن	-11035
▁مشكورة	-11036
▁منجھان	-11037
▁موڪلون	-11038
▁پارڪنگ	-11039
▁جنهنڪري	-11040
▁دستيابي	-11041
▁پراسرار	-11042
▁اسٽريمنگ	-11043
▁اپارٽمنٽ	-11044
▁تبديليءَ	-11045
▁هلائيندڙ	-11046
▁هڪجهڙائي	-11047
▁پيداواري	-11048
▁ڏکوئيندڙ	-11049
▁گورنمينٽ	-11050
▁ناپسنديده	-11051
▁ٽرانسميشن	-11052
1-	-11053
43	-11054
RL	-11055
TO	-11056
سُ	-11057
َ.	-11058
ٹی	-11059
ery	-11060
ype	-11061
شود	-11062
▁98	-11063
▁Mi	-11064
▁حز	-11065
▁وڍ	-11066
▁ہے	-11067
اران	-11068
ستين	-11069
مارڪ	-11070
ميري	-11071
هااا	-11072
هااي	-11073
▁آئس	-11074
▁انب	-11075
▁جهل	-11076
▁زڪو	-11077
▁ساس	-11078
▁لڏپ	-11079
▁ماڪ	-11080
▁مسك	-11081
▁مكن	-11082
▁واھ	-11083
▁ٺاه	-11084
▁ڇوڙ	-11085
▁ڪبي	-11086
▁گدا	-11087
▁گرڊ	-11088
▁گیم	-11089
اوهان	-11090
▁1988	-11091
▁Sind	-11092
▁اناج	-11093
▁انھي	-11094
▁بينچ	-11095
▁حُسن	-11096
▁ديرو	-11097
▁سانت	-11098
▁فڪري	-11099
▁واسه	-11100
▁وجھي	-11101
▁پوکڻ	-11102
▁کوهه	-11103
▁ڪنڊن	-11104
▁گارڊ	-11105
▁Names	-11106
▁اختلا	-11107
▁اداره	-11108
▁تجاري	-11109
▁روئين	-11110
▁سوانح	-11111
▁سپرين	-11112
▁طاقتن	-11113
▁لوڊشي	-11114
▁واسين	-11115
▁وزيرن	-11116
▁ڊوائس	-11117
▁ڪاغذن	-11118
▁ڪافرن	-11119
▁اسٽيٽس	-11120
▁خوشيون	-11121
▁سياحتي	-11122
▁سگھندو	-11123
▁ميگزين	-11124
▁ناگزير	-11125
هيهيهيهي	-11126
▁ڏيکاريا	-11127
▁ڪنوينشن	-11128
▁ڀائيوارن	-11129
▁بيروزگاري	-11130
4-	-11131
GB	-11132
IC	-11133
ٻا	-11134
ڀن	-11135
ړي	-11136
100	-11137
://	-11138
ams	-11139
امڪ	-11140
بنا	-11141
ثنا	-11142
حاق	-11143
كثر	-11144
يتك	-11145
ٽلن	-11146
▁49	-11147
▁56	-11148
▁CB	-11149
▁أو	-11150
▁خم	-11151
▁دھ	-11152
▁سأ	-11153
▁غز	-11154
▁هش	-11155
انسر	-11156
واهه	-11157
وندي	-11158
▁rem	-11159
▁بدك	-11160
▁بيز	-11161
▁ترڻ	-11162
▁حمد	-11163
▁علت	-11164
▁لحد	-11165
▁معل	-11166
▁مڊل	-11167
▁نقد	-11168
▁کمي	-11169
▁Arch	-11170
▁اكون	-11171
▁ايدي	-11172
▁تباھ	-11173
▁تماڪ	-11174
▁جزوي	-11175
▁رسان	-11176
▁رسمن	-11177
▁رهين	-11178
▁ساگر	-11179
▁شڪلن	-11180
▁فاضي	-11181
▁مظهر	-11182
▁ميگي	-11183
▁ٽورن	-11184
▁چاٻي	-11185
▁چاھي	-11186
▁ڊوڙي	-11187
▁ڪشمي	-11188
▁ڪلهو	-11189
▁ڪمرن	-11190
▁ھوءَ	-11191
▁احلام	-11192
▁بزرگن	-11193
▁تحريم	-11194
▁جديده	-11195
▁سانوڻ	-11196
▁شعوري	-11197
▁شهباز	-11198
▁شيرين	-11199
▁صديون	-11200
▁قبيلن	-11201
▁لبنان	-11202
▁ناروي	-11203
▁پذيري	-11204
▁پزشکي	-11205
▁چارلس	-11206
▁اڇلائي	-11207
▁تازيون	-11208
▁رضاڪار	-11209
▁هيٺئين	-11210
▁ورتيون	-11211
▁پڙهندي	-11212
▁گاڏيءَ	-11213
▁گوليون	-11214
▁گھٽائي	-11215
▁ڪهاڻيءَ	-11216
▁ڪهاڻيڪار	-11217
IM	-11218
of	-11219
uf	-11220
؟)	-11221
تق	-11222
كد	-11223
ٹي	-11224
arn	-11225
ئان	-11226
تظر	-11227
جسٽ	-11228
جنا	-11229
لاگ	-11230
وون	-11231
▁De	-11232
▁بآ	-11233
▁قی	-11234
▁لس	-11235
duct	-11236
انيت	-11237
ريٽر	-11238
لاڻي	-11239
ميان	-11240
▁(6)	-11241
▁org	-11242
▁اٿڻ	-11243
▁سپي	-11244
▁سڀن	-11245
▁مدو	-11246
▁مذڪ	-11247
▁نوف	-11248
▁this	-11249
▁اشرف	-11250
▁افكر	-11251
▁اِهي	-11252
▁اٺين	-11253
▁بلاش	-11254
▁جنگل	-11255
▁خليل	-11256
▁رٿيل	-11257
▁ستون	-11258
▁سورت	-11259
▁شباب	-11260
▁فروش	-11261
▁قدرن	-11262
▁لانگ	-11263
▁مارن	-11264
▁منطق	-11265
▁نهار	-11266
▁وعدو	-11267
▁ٻُڌي	-11268
▁پرده	-11269
▁اشارن	-11270
▁بدنام	-11271
▁توسيع	-11272
▁خاتون	-11273
▁عندها	-11274
▁لڪايو	-11275
▁پتلون	-11276
▁گرافي	-11277
▁اسانجو	-11278
▁زيوومي	-11279
▁سڏيندو	-11280
▁لڏپلاڻ	-11281
▁محترمه	-11282
▁خوشخبري	-11283
▁رڪارڊنگ	-11284
▁ماڻھوءَ	-11285
▁ٺاهيندو	-11286
▁آبادگارن	-11287
▁ڊولپمينٽ	-11288
▁ڏيکاريندي	-11289
,"	-11290
..	-11291
ُ.	-11292
ree	-11293
فات	-11294
فتن	-11295
هها	-11296
پيش	-11297
چڱو	-11298
ڪلو	-11299
▁ذو	-11300
▁کِ	-11301
▁ڪٿ	-11302
▁ڳُ	-11303
نننن	-11304
▁آجو	-11305
▁بتي	-11306
▁بگم	-11307
▁بگو	-11308
▁ضعي	-11309
▁مسج	-11310
▁وشو	-11311
▁ڄار	-11312
شناسي	-11313
▁iPad	-11314
▁آسرو	-11315
▁المط	-11316
▁اولا	-11317
▁بيلٽ	-11318
▁تبين	-11319
▁جهاد	-11320
▁حلال	-11321
▁راني	-11322
▁رومي	-11323
▁سعاد	-11324
▁سينو	-11325
▁عامل	-11326
▁فارو	-11327
▁ملهه	-11328
▁موهي	-11329
▁مُلڪ	-11330
▁نفسه	-11331
▁نفيس	-11332
▁نقشه	-11333
▁هنيا	-11334
▁ڊرون	-11335
▁ڪوڙا	-11336
acking	-11337
اااااي	-11338
▁knows	-11339
▁آدمشم	-11340
▁البيت	-11341
▁انقره	-11342
▁بچاءَ	-11343
▁تائيو	-11344
▁مظاهر	-11345
▁منتظم	-11346
▁مھينن	-11347
▁هاسٽل	-11348
▁ڪورون	-11349
▁بيچيني	-11350
▁خواهشن	-11351
▁سمجھان	-11352
▁سنسڪرت	-11353
▁ناهيون	-11354
▁نياڻين	-11355
▁هروڀرو	-11356
▁ويندين	-11357
▁ڏنائون	-11358
▁گڏجاڻين	-11359
▁بدعنواني	-11360
▁بڻائيندو	-11361
▁گريجوئيٽ	-11362
▁پيپلزپارٽي	-11363
'،	-11364
ha	-11365
كش	-11366
ڏس	-11367
ہر	-11368
:10	-11369
<<<	-11370
="3	-11371
ern	-11372
اتر	-11373
بهآ	-11374
خوش	-11375
سڪي	-11376
شنا	-11377
طون	-11378
ولڻ	-11379
يمن	-11380
چند	-11381
ڊيل	-11382
▁7-	-11383
▁جڪ	-11384
▁نذ	-11385
▁ڌڙ	-11386
▁گد	-11387
read	-11388
زادو	-11389
شاور	-11390
▁Out	-11391
▁خيو	-11392
▁سيپ	-11393
▁طئه	-11394
▁لغت	-11395
▁ميخ	-11396
▁مکڻ	-11397
▁نڪو	-11398
▁واڪ	-11399
▁ٻچا	-11400
▁ٽوٽ	-11401
▁پاڳ	-11402
▁چمي	-11403
▁ابدا	-11404
▁اروح	-11405
▁اقلي	-11406
▁بلبل	-11407
▁بيگم	-11408
▁حامد	-11409
▁حصول	-11410
▁راڻا	-11411
▁قياس	-11412
▁ماست	-11413
▁مختص	-11414
▁مساو	-11415
▁مفيش	-11416
▁موسى	-11417
▁ميرن	-11418
▁ميسر	-11419
▁نسخي	-11420
▁هجان	-11421
▁پليس	-11422
▁پڇيس	-11423
▁ڊيوڊ	-11424
▁ڪاٺي	-11425
سائيڪل	-11426
▁الٽرا	-11427
▁بيدار	-11428
▁جراحي	-11429
▁خوشين	-11430
▁غريبه	-11431
▁لڙائي	-11432
▁ناهين	-11433
▁ڇوڪرا	-11434
▁آزمايو	-11435
▁اطلاعن	-11436
▁جاگراف	-11437
▁سيمسنگ	-11438
▁معاوضو	-11439
▁ٻڌايون	-11440
▁نامياتي	-11441
▁ڪارناما	-11442
),	-11443
4:	-11444
86	-11445
89	-11446
کل	-11447
="5	-11448
red	-11449
اير	-11450
جيم	-11451
خلو	-11452
دخل	-11453
لسي	-11454
ڙِي	-11455
▁<~	-11456
▁ID	-11457
▁جغ	-11458
▁لپ	-11459
flix	-11460
خواه	-11461
ڪندي	-11462
گهات	-11463
▁(20	-11464
▁For	-11465
▁Ros	-11466
▁بيك	-11467
▁تتر	-11468
▁رنا	-11469
▁شغل	-11470
▁فاس	-11471
▁فجر	-11472
▁واو	-11473
▁ورد	-11474
▁ڊيڪ	-11475
▁کنم	-11476
انسان	-11477
مونيم	-11478
ڏانھن	-11479
▁1998	-11480
▁الرس	-11481
▁اينگ	-11482
▁بسته	-11483
▁تاجر	-11484
▁تعلم	-11485
▁جبتي	-11486
▁زنان	-11487
▁سطحن	-11488
▁فيلم	-11489
▁ماخذ	-11490
▁ماپڻ	-11491
▁مثلك	-11492
▁مخلص	-11493
▁مزار	-11494
▁نويس	-11495
▁ورزي	-11496
▁ويري	-11497
▁ٽڪري	-11498
▁پاري	-11499
▁پردو	-11500
▁پشتي	-11501
▁چرپر	-11502
▁ڏاهپ	-11503
▁ڪثرت	-11504
▁ڪندؤ	-11505
▁ڪنول	-11506
ائيجان	-11507
▁اجائي	-11508
▁حراست	-11509
▁خليجي	-11510
▁رابرٽ	-11511
▁پوسٽن	-11512
▁ڊونلڊ	-11513
▁ڪارون	-11514
▁سگهندس	-11515
▁منجهند	-11516
▁چانسلر	-11517
▁ڪلائنٽ	-11518
▁تائيوان	-11519
▁سپلائرز	-11520
▁جاگرافيائي	-11521
AL	-11522
EC	-11523
ES	-11524
اع	-11525
رض	-11526
وڊ	-11527
int	-11528
واج	-11529
گرد	-11530
▁Ac	-11531
▁cl	-11532
▁خن	-11533
▁رڳ	-11534
▁شط	-11535
▁نل	-11536
▁ڪع	-11537
▁۲۰	-11538
Tube	-11539
اميد	-11540
بيني	-11541
فورڊ	-11542
ڙهين	-11543
▁Dis	-11544
▁Man	-11545
▁Tod	-11546
▁ext	-11547
▁تهي	-11548
▁جتن	-11549
▁حلف	-11550
▁حلي	-11551
▁منى	-11552
▁نمو	-11553
▁وڪو	-11554
▁پڪي	-11555
▁گيس	-11556
iness	-11557
سٽريٽ	-11558
▁آمين	-11559
▁ابغى	-11560
▁اختر	-11561
▁ايري	-11562
▁باور	-11563
▁بينڊ	-11564
▁خاڪو	-11565
▁طاهر	-11566
▁عاقل	-11567
▁قاصر	-11568
▁قلعو	-11569
▁قیمت	-11570
▁مهذب	-11571
▁ميسي	-11572
▁ناتو	-11573
▁ويٽن	-11574
▁ٺهيو	-11575
▁ٽوئر	-11576
▁پوٽي	-11577
▁چوين	-11578
▁ڌرڻو	-11579
▁ڦيري	-11580
▁ڪاوش	-11581
▁ھائو	-11582
▁trans	-11583
▁بردار	-11584
▁خزاني	-11585
▁سڀيئي	-11586
▁صاحبي	-11587
▁لانچر	-11588
▁مظلوم	-11589
▁ملائڪ	-11590
▁نظرين	-11591
▁وڏيري	-11592
▁پيٽرو	-11593
▁کلندي	-11594
▁برانڊن	-11595
▁سمورين	-11596
▁ويڙهاڪ	-11597
▁پيدايش	-11598
▁پيڪيجز	-11599
▁گاديءَ	-11600
▁گھڻائي	-11601
▁اداڪاري	-11602
▁اصطلاحن	-11603
▁جاگرافي	-11604
▁عالمگير	-11605
▁وابستگي	-11606
▁استعيفيٰ	-11607
▁مهانگائي	-11608
05	-11609
bl	-11610
ea	-11611
آد	-11612
ّت	-11613
ars	-11614
box	-11615
اية	-11616
خره	-11617
مهر	-11618
▁2,	-11619
▁7:	-11620
▁شش	-11621
▁كذ	-11622
atch	-11623
azon	-11624
تيها	-11625
ديون	-11626
دگار	-11627
راهن	-11628
▁(19	-11629
▁out	-11630
▁آنا	-11631
▁توج	-11632
▁جيب	-11633
▁شاب	-11634
▁صبا	-11635
▁عنك	-11636
▁لفٽ	-11637
▁ماج	-11638
▁ممل	-11639
▁نرس	-11640
▁هيج	-11641
▁پدر	-11642
▁پني	-11643
▁ڪجن	-11644
▁گشت	-11645
▁1992	-11646
▁احلا	-11647
▁اولي	-11648
▁باعث	-11649
▁جذبا	-11650
▁جلسي	-11651
▁جيڪٽ	-11652
▁خميس	-11653
▁زاوي	-11654
▁سراج	-11655
▁صحرا	-11656
▁لعبة	-11657
▁محاذ	-11658
▁هِتي	-11659
▁ٻارڻ	-11660
▁ڀرتي	-11661
▁ڊانس	-11662
▁ڊاهي	-11663
▁ڏندن	-11664
▁ڏکيا	-11665
▁گفتن	-11666
▁جوابن	-11667
▁ذيشان	-11668
▁سريال	-11669
▁سومرو	-11670
▁شوٽنگ	-11671
▁عزيزي	-11672
▁فيملي	-11673
▁مضحكة	-11674
▁معاهم	-11675
▁هلندا	-11676
▁همراه	-11677
▁هموار	-11678
▁ولادت	-11679
▁ٻارڙي	-11680
▁ٻڌندو	-11681
▁ٽوڪيو	-11682
▁پرجوش	-11683
▁پنجون	-11684
▁ڏيکار	-11685
▁آمريکا	-11686
▁تحريڪن	-11687
▁نينگري	-11688
▁وابسته	-11689
▁پايگاه	-11690
▁ڪنڊيشن	-11691
▁گرافڪس	-11692
▁تياريون	-11693
▁فلسطيني	-11694
▁پراجيڪٽ	-11695
▁گھٽتائي	-11696
▁اسٽريٽجڪ	-11697
▁اليڪٽران	-11698
▁بيماريون	-11699
▁لوڊشيڊنگ	-11700
▁چونڊيندا	-11701
▁انٽيليجنس	-11702
IS	-11703
MS	-11704
فى	-11705
لد	-11706
لِ	-11707
وح	-11708
ett	-11709
ؤنٽ	-11710
ئله	-11711
بيع	-11712
زاق	-11713
ستم	-11714
سلم	-11715
صرف	-11716
عمر	-11717
عيه	-11718
لیس	-11719
هرن	-11720
ياه	-11721
ڳال	-11722
▁("	-11723
▁46	-11724
▁يي	-11725
▁ھُ	-11726
ages	-11727
جيڪي	-11728
پائي	-11729
پليٽ	-11730
گالي	-11731
▁1.1	-11732
▁آلي	-11733
▁حنا	-11734
▁ليب	-11735
▁هِي	-11736
▁ويد	-11737
▁پشت	-11738
▁گام	-11739
▁گمن	-11740
▁ھوا	-11741
ٽڪارو	-11742
▁المت	-11743
▁اچين	-11744
▁بالن	-11745
▁بانس	-11746
▁بچيل	-11747
▁تصني	-11748
▁جراث	-11749
▁حامل	-11750
▁رهڻو	-11751
▁سيمي	-11752
▁صغير	-11753
▁عنها	-11754
▁فرقي	-11755
▁فصلن	-11756
▁فلاح	-11757
▁ليلي	-11758
▁مميز	-11759
▁ناجي	-11760
▁نعرف	-11761
▁هڪڙا	-11762
▁وينس	-11763
▁ياخي	-11764
▁ٿلهو	-11765
▁ڌوئي	-11766
▁اهائي	-11767
▁خزانو	-11768
▁راتين	-11769
▁صديقي	-11770
▁عنايت	-11771
▁فرعون	-11772
▁قاعدو	-11773
▁هُوءَ	-11774
▁يادون	-11775
▁اسٽيبل	-11776
▁ريفرنس	-11777
▁سامھون	-11778
▁علامتن	-11779
▁متوازن	-11780
▁ڪوارٽر	-11781
▁Netflix	-11782
▁المونيم	-11783
▁سوچيندا	-11784
▁شڪرگذار	-11785
▁مٿانهون	-11786
▁ناانصافي	-11787
▁پيراگراف	-11788
▁ڀائيواري	-11789
▁گذاريندو	-11790
OR	-11791
أت	-11792
زة	-11793
ضن	-11794
كى	-11795
مِ	-11796
نم	-11797
ّه	-11798
ڀو	-11799
esh	-11800
ott	-11801
احب	-11802
راق	-11803
ساس	-11804
ـِـ	-11805
منس	-11806
پرن	-11807
▁Pr	-11808
▁خش	-11809
▁زد	-11810
▁سع	-11811
▁۱۳	-11812
-201	-11813
الين	-11814
بتها	-11815
تنھن	-11816
رتون	-11817
ليزي	-11818
يولر	-11819
▁11.	-11820
▁ant	-11821
▁آپٽ	-11822
▁ارح	-11823
▁الإ	-11824
▁بسس	-11825
▁بوس	-11826
▁حسد	-11827
▁ذلك	-11828
▁سنة	-11829
▁عدل	-11830
▁ناه	-11831
▁ياع	-11832
▁ڦاس	-11833
▁ھنڌ	-11834
▁(200	-11835
▁1994	-11836
▁1999	-11837
▁ايسڊ	-11838
▁اٿيو	-11839
▁تسوي	-11840
▁جامد	-11841
▁راول	-11842
▁رايك	-11843
▁رحيم	-11844
▁رشتا	-11845
▁قولت	-11846
▁منتظ	-11847
▁مورو	-11848
▁نظير	-11849
▁هرهڪ	-11850
▁واسي	-11851
▁ورڪر	-11852
▁ٻئين	-11853
▁کاتن	-11854
▁Indus	-11855
▁اسحاق	-11856
▁اشارا	-11857
▁اينكه	-11858
▁جانچڻ	-11859
▁مستند	-11860
▁مشروط	-11861
▁معبود	-11862
▁نظامي	-11863
▁ورانه	-11864
▁ويڙهي	-11865
▁ڏسندڙ	-11866
▁کيڏيو	-11867
▁ڪرسٽل	-11868
▁گرامي	-11869
▁امريڪي	-11870
▁جماعتن	-11871
▁مساوات	-11872
▁ننڍيون	-11873
▁وضاحتن	-11874
▁ٻڌائين	-11875
▁ڄاڻندو	-11876
▁چاليهه	-11877
▁جرمنيءَ	-11878
▁جشنواره	-11879
▁رهواسين	-11880
▁سنڀاليو	-11881
▁ڇوٽڪارو	-11882
▁اثرانداز	-11883
▁مائڪروسو	-11884
▁ٻڌائيندي	-11885
▁ڏيکاريندو	-11886
▁موٽرسائيڪل	-11887
8"	-11888
IP	-11889
St	-11890
pr	-11891
لَ	-11892
مُ	-11893
▁ډ	-11894
-10	-11895
ini	-11896
uck	-11897
ئڙن	-11898
ئڙو	-11899
ائف	-11900
ابن	-11901
ادا	-11902
اصد	-11903
الق	-11904
سيڪ	-11905
عها	-11906
فاء	-11907
منگ	-11908
ولر	-11909
ڀلا	-11910
▁52	-11911
▁Sc	-11912
▁اڍ	-11913
▁جڙ	-11914
▁زب	-11915
▁كو	-11916
▁هڏ	-11917
edia	-11918
الوا	-11919
جهان	-11920
پاشي	-11921
▁cor	-11922
▁htt	-11923
▁res	-11924
▁ادم	-11925
▁بره	-11926
▁جزي	-11927
▁جلي	-11928
▁سُڌ	-11929
▁صوت	-11930
▁عجي	-11931
▁غبي	-11932
▁غضب	-11933
▁محض	-11934
▁نئي	-11935
▁نبو	-11936
▁ورو	-11937
▁ٻري	-11938
▁ڀنڀ	-11939
▁ڏنڊ	-11940
▁کپن	-11941
▁cont	-11942
▁آوري	-11943
▁اردن	-11944
▁السن	-11945
▁بيها	-11946
▁ترحي	-11947
▁تمنا	-11948
▁حواس	-11949
▁رايو	-11950
▁رکجو	-11951
▁سلاٽ	-11952
▁سندو	-11953
▁شفتي	-11954
▁فونن	-11955
▁مسوي	-11956
▁مشتر	-11957
▁ميلن	-11958
▁ناڻي	-11959
▁چاهت	-11960
▁چطور	-11961
▁چقدر	-11962
▁چوڪي	-11963
▁ڪابل	-11964
▁ڪاٿي	-11965
آمريڪا	-11966
داريءَ	-11967
▁آرٽسٽ	-11968
▁انتظر	-11969
▁اينکه	-11970
▁بيورو	-11971
▁جنگين	-11972
▁حوصله	-11973
▁خواجه	-11974
▁دماغي	-11975
▁سيوهڻ	-11976
▁فروخت	-11977
▁لکندي	-11978
▁پرعزم	-11979
▁پنهان	-11980
▁پيارن	-11981
▁پيالو	-11982
▁چيلين	-11983
▁چڱائي	-11984
▁کائين	-11985
▁ڪمانڊ	-11986
ability	-11987
▁crypto	-11988
▁آپگهات	-11989
▁اتحادي	-11990
▁استثنا	-11991
▁اندران	-11992
▁اوائلي	-11993
▁اڀرندڙ	-11994
▁بصراحة	-11995
▁دانهون	-11996
▁ٽائيٽل	-11997
▁پنجابي	-11998
▁ڪنڪريٽ	-11999
▁سمجهايو	-12000
▁عاليشان	-12001
▁اسٽينلیس	-12002
▁پارلياماني	-12003
EL	-12004
IF	-12005
IT	-12006
QL	-12007
ss	-12008
}}	-12009
بہ	-12010
ڍو	-12011
ڳڻ	-12012
ھم	-12013
ھھ	-12014
▁ً	-12015
ale	-12016
iki	-12017
ارك	-12018
ظهر	-12019
ليڪ	-12020
هئي	-12021
ويس	-12022
▁2،	-12023
▁Le	-12024
▁آژ	-12025
▁رگ	-12026
▁لذ	-12027
▁مڻ	-12028
▁نئ	-12029
▁پب	-12030
انيم	-12031
سكين	-12032
ڪريو	-12033
▁12.	-12034
▁USB	-12035
▁امه	-12036
▁اُج	-12037
▁ذرا	-12038
▁فله	-12039
▁قار	-12040
▁لهن	-12041
▁متأ	-12042
▁متض	-12043
▁معه	-12044
▁يان	-12045
▁ٽپو	-12046
▁ڀاڻ	-12047
▁1993	-12048
▁آندا	-12049
▁الجز	-12050
▁بدتر	-12051
▁تعيش	-12052
▁داعي	-12053
▁دلال	-12054
▁رونق	-12055
▁سردي	-12056
▁سکين	-12057
▁صالح	-12058
▁غيري	-12059
▁فردن	-12060
▁قلمي	-12061
▁ليڊي	-12062
▁معهم	-12063
▁ميوه	-12064
▁نقول	-12065
▁واپر	-12066
▁پيلو	-12067
▁پڪڙڻ	-12068
▁ڇاهي	-12069
▁ڇاپو	-12070
▁ڏسڻو	-12071
▁ڏيئو	-12072
▁ھفتي	-12073
▁آفيسن	-12074
▁اسٽري	-12075
▁تدبير	-12076
▁رياضت	-12077
▁سوچون	-12078
▁عباسي	-12079
▁ممنون	-12080
▁نگاري	-12081
▁پنجوي	-12082
▁پنروڪ	-12083
▁پکڙجي	-12084
▁ڇانيل	-12085
▁ڌڻيءَ	-12086
▁ڪورين	-12087
▁ڳنڍڻا	-12088
▁افاديت	-12089
▁اندرين	-12090
▁برانڊي	-12091
▁خرابين	-12092
▁سوچيان	-12093
▁مرضيءَ	-12094
▁معاشرو	-12095
▁پوائين	-12096
▁پوسٽون	-12097
▁گهوٽڪي	-12098
▁اسٽيڊيم	-12099
▁بادشاهت	-12100
▁تجزياتي	-12101
▁سربراهي	-12102
▁سڪيورٽي	-12103
▁مسافرتی	-12104
▁موسميات	-12105
▁موڪلائي	-12106
▁کائيندي	-12107
▁Archives	-12108
▁خخخخخخخخخ	-12109
▁ڪميونيڪيشن	-12110
▁ڳالهائيندا	-12111
2]	-12112
ٽم	-12113
کش	-12114
▁◄	-12115
ere	-12116
ole	-12117
que	-12118
حتك	-12119
▁(6	-12120
▁Cr	-12121
▁زپ	-12122
▁ڇَ	-12123
▁ڏھ	-12124
شكله	-12125
ميني	-12126
▁1.5	-12127
▁Pay	-12128
▁اعم	-12129
▁تحق	-12130
▁ترك	-12131
▁ستل	-12132
▁صحي	-12133
▁ميس	-12134
▁نير	-12135
▁ونگ	-12136
▁پڪڙ	-12137
▁ڪاو	-12138
ولوجي	-12139
▁أعرف	-12140
▁أقول	-12141
▁ابوك	-12142
▁الحب	-12143
▁اگهن	-12144
▁بريڪ	-12145
▁توقي	-12146
▁جمله	-12147
▁حميد	-12148
▁خودت	-12149
▁دوکو	-12150
▁سانڍ	-12151
▁شاخن	-12152
▁شعري	-12153
▁عددي	-12154
▁فرسٽ	-12155
▁فوجن	-12156
▁قاعد	-12157
▁لکجي	-12158
▁ماده	-12159
▁مادو	-12160
▁مجرم	-12161
▁مڙهي	-12162
▁پلنگ	-12163
▁گوشي	-12164
▁اسٽيم	-12165
▁اسڪيل	-12166
▁اعمال	-12167
▁امانت	-12168
▁توقعت	-12169
▁جميلة	-12170
▁دليون	-12171
▁رھندو	-12172
▁زالون	-12173
▁زيتون	-12174
▁ساحلي	-12175
▁سريلن	-12176
▁سويڊن	-12177
▁سيٽون	-12178
▁عمودي	-12179
▁فرينڊ	-12180
▁فلوري	-12181
▁قديمي	-12182
▁قوميت	-12183
▁متوجه	-12184
▁نورتي	-12185
▁يسعدك	-12186
▁چارٽر	-12187
▁ڊالرن	-12188
▁ڪنديس	-12189
▁گروهي	-12190
▁گندگي	-12191
▁ڳچيءَ	-12192
▁اللعبه	-12193
▁المشار	-12194
▁ايندين	-12195
▁عثماني	-12196
▁مختيار	-12197
▁ڀانيان	-12198
▁ڪروڙين	-12199
۔۔۔۔۔۔۔۔	-12200
▁المنتدى	-12201
▁انجيڪشن	-12202
▁برادرين	-12203
▁ڳالهائين	-12204
▁سياستدانن	-12205
▁مائڪروسوفٽ	-12206
46	-12207
UR	-12208
ts	-12209
؟:	-12210
مق	-12211
مَ	-12212
مڪ	-12213
وع	-12214
inn	-12215
قلت	-12216
يرة	-12217
يوا	-12218
ڪچر	-12219
▁ap	-12220
▁at	-12221
▁up	-12222
▁حف	-12223
▁وط	-12224
▁پڃ	-12225
راءِ	-12226
غاني	-12227
يانا	-12228
▁360	-12229
▁آئل	-12230
▁اُس	-12231
▁برڪ	-12232
▁تفا	-12233
▁تنا	-12234
▁جوس	-12235
▁كلش	-12236
▁لعل	-12237
▁وکر	-12238
▁ھاڻ	-12239
ياسين	-12240
▁NEWS	-12241
▁part	-12242
▁اعلى	-12243
▁الجن	-12244
▁السم	-12245
▁انڌو	-12246
▁ايمن	-12247
▁بارو	-12248
▁دقيق	-12249
▁سينا	-12250
▁عضون	-12251
▁علوم	-12252
▁قصدك	-12253
▁مايا	-12254
▁ميجر	-12255
▁ميگن	-12256
▁نوبل	-12257
▁وائل	-12258
▁واتس	-12259
▁ولاي	-12260
▁يادم	-12261
▁ٻارو	-12262
▁پرچي	-12263
▁چهار	-12264
▁کليو	-12265
▁گونج	-12266
▁ھوٽل	-12267
▁cover	-12268
▁تهران	-12269
▁خلائي	-12270
▁صداقت	-12271
▁فديتك	-12272
▁فقيرن	-12273
▁فوجين	-12274
▁ناياب	-12275
▁ويگاس	-12276
▁ڪِتاب	-12277
▁گهوري	-12278
="0.1">	-12279
▁اختتام	-12280
▁اسپيشل	-12281
▁مانيءَ	-12282
▁منافعو	-12283
▁مونسان	-12284
▁مٿاهين	-12285
▁ياسلام	-12286
▁ٽرينون	-12287
▁ڊاڪٽري	-12288
▁السالفه	-12289
▁سيمينار	-12290
▁مشڪلاتن	-12291
▁گهرواري	-12292
▁ھندستان	-12293
▁پوائينٽون	-12294
▁آرگنائيزيشن	-12295
")	-12296
-2	-12297
NC	-12298
ُڪ	-12299
ڑو	-12300
ائد	-12301
افه	-12302
راھ	-12303
سفڪ	-12304
عوا	-12305
عيش	-12306
نيل	-12307
يرس	-12308
َرُ	-12309
ٽار	-12310
پيل	-12311
▁()	-12312
▁آث	-12313
▁حَ	-12314
▁دب	-12315
▁نغ	-12316
▁وی	-12317
lect	-12318
بختي	-12319
ليها	-12320
ًبهآ	-12321
ڌاني	-12322
ڪاسي	-12323
▁Cas	-12324
▁KTN	-12325
▁int	-12326
▁not	-12327
▁sim	-12328
▁اوج	-12329
▁این	-12330
▁تسو	-12331
▁جهر	-12332
▁خدي	-12333
▁خطا	-12334
▁ديپ	-12335
▁رود	-12336
▁رٿا	-12337
▁رچر	-12338
▁ٽئي	-12339
▁پنڊ	-12340
▁کيف	-12341
ative	-12342
الوجي	-12343
ستهبل	-12344
هاااي	-12345
▁1996	-12346
▁ارزش	-12347
▁انڊر	-12348
▁تسلي	-12349
▁جلال	-12350
▁خوبه	-12351
▁دودو	-12352
▁رائل	-12353
▁رُڳو	-12354
▁زهري	-12355
▁سونا	-12356
▁ضلعن	-12357
▁طبيب	-12358
▁عقلم	-12359
▁مالك	-12360
▁ميوا	-12361
▁هوسٽ	-12362
▁واڻي	-12363
▁ٽيهه	-12364
▁پهري	-12365
▁پيتو	-12366
▁پڙھي	-12367
▁ڀريا	-12368
▁ڇونه	-12369
▁ڊگها	-12370
اريندڙ	-12371
▁Today	-12372
▁child	-12373
▁آهسته	-12374
▁النكت	-12375
▁انگلش	-12376
▁ايڪري	-12377
▁بدمعا	-12378
▁تقبلي	-12379
▁جانسن	-12380
▁دستان	-12381
▁سقراط	-12382
▁سنوار	-12383
▁سنگهه	-12384
▁عاليه	-12385
▁قاعده	-12386
▁متغير	-12387
▁مردان	-12388
▁مھيني	-12389
▁نظرون	-12390
▁پشاور	-12391
▁پڙتال	-12392
▁ڀينرن	-12393
▁ڊفالٽ	-12394
▁ڪالمن	-12395
▁ڪوريج	-12396
▁گودام	-12397
ization	-12398
▁آبپاشي	-12399
▁بريفنگ	-12400
▁سوشلسٽ	-12401
▁عنوانن	-12402
▁مشينون	-12403
▁ناپسند	-12404
▁همدردي	-12405
▁واقعيت	-12406
▁ياسمين	-12407
▁ڪتًبهآ	-12408
▁ڪجانءِ	-12409
▁bonuses	-12410
▁اداڪاره	-12411
▁اوهانجي	-12412
▁سالگرهه	-12413
▁پهتاسين	-12414
▁ڪنداسون	-12415
▁آدمشماري	-12416
▁ارجنٽائن	-12417
▁ڪاميابين	-12418
هااااااااا	-12419
▁آذربائيجان	-12420
-5	-12421
76	-12422
II	-12423
fl	-12424
ya	-12425
بِ	-12426
ړئ	-12427
ont	-12428
ئڙي	-12429
افل	-12430
امر	-12431
رتي	-12432
زشي	-12433
عار	-12434
فتح	-12435
قيت	-12436
كنت	-12437
لهي	-12438
گرا	-12439
▁1،	-12440
▁My	-12441
▁XD	-12442
▁أس	-12443
▁خُ	-12444
load	-12445
ديده	-12446
طوره	-12447
وريا	-12448
ڪتاب	-12449
▁rec	-12450
▁اتم	-12451
▁بتح	-12452
▁توب	-12453
▁دنگ	-12454
▁راد	-12455
▁رسد	-12456
▁زنگ	-12457
▁سعي	-12458
▁شڪي	-12459
▁فلي	-12460
▁كلو	-12461
▁لمر	-12462
▁مغل	-12463
▁ٻني	-12464
▁ڇڙو	-12465
▁کنگ	-12466
▁گال	-12467
▁ھين	-12468
گريشن	-12469
▁آئڪن	-12470
▁آريا	-12471
▁المس	-12472
▁المص	-12473
▁ايڊٽ	-12474
▁باشه	-12475
▁تحفي	-12476
▁تخلص	-12477
▁جيوت	-12478
▁حلوو	-12479
▁خاصه	-12480
▁رجعت	-12481
▁زندگ	-12482
▁ليبر	-12483
▁هيمل	-12484
▁وساڻ	-12485
▁پلاٽ	-12486
▁ڇپجي	-12487
▁گانو	-12488
▁گيجٽ	-12489
▁اعترف	-12490
▁اقليت	-12491
▁حقوقي	-12492
▁دٻائڻ	-12493
▁رواجي	-12494
▁سيارو	-12495
▁شهيدن	-12496
▁فاروق	-12497
▁محلات	-12498
▁مساله	-12499
▁ننڍڙا	-12500
▁هوٽلن	-12501
▁وائيٽ	-12502
▁پئسفڪ	-12503
▁پوليو	-12504
▁ڍانچي	-12505
▁گذريا	-12506
▁ادبيات	-12507
▁تڪراري	-12508
▁ماهوار	-12509
▁معاهدن	-12510
▁مهانگي	-12511
▁نڪرندي	-12512
▁هاهاها	-12513
▁ڇالاءِ	-12514
▁ڊولپرز	-12515
▁پوائنٽن	-12516
▁اڪائونٽن	-12517
▁بيروزگار	-12518
▁خاموشيءَ	-12519
▁مواصلاتي	-12520
bo	-12521
xx	-12522
ثت	-12523
ضض	-12524
ـَ	-12525
چی	-12526
▁©	-12527
▁٤	-12528
ier	-12529
ائٽ	-12530
جهو	-12531
جيت	-12532
دوس	-12533
راح	-12534
روت	-12535
كلم	-12536
هني	-12537
▁Fr	-12538
▁do	-12539
▁آح	-12540
▁ڦُ	-12541
look	-12542
xbet	-12543
اندر	-12544
بتكم	-12545
طاني	-12546
عورت	-12547
فران	-12548
ويهه	-12549
▁آئن	-12550
▁آڳا	-12551
▁ازا	-12552
▁بقو	-12553
▁بيع	-12554
▁تنز	-12555
▁سخي	-12556
▁سرت	-12557
▁سعر	-12558
▁عاو	-12559
▁غال	-12560
▁لوھ	-12561
▁ليف	-12562
▁موم	-12563
▁نشو	-12564
▁وبس	-12565
▁چنگ	-12566
▁ڊري	-12567
▁ڊڄو	-12568
▁کيا	-12569
▁ڪُن	-12570
▁ھوس	-12571
ption	-12572
▁2022	-12573
▁well	-12574
▁احلي	-12575
▁برلن	-12576
▁توني	-12577
▁حادث	-12578
▁دادن	-12579
▁زينت	-12580
▁سسئي	-12581
▁سنگل	-12582
▁سهيل	-12583
▁ــــ	-12584
▁كلمة	-12585
▁لوڪل	-12586
▁ليون	-12587
▁مهند	-12588
▁هونء	-12589
▁وارد	-12590
▁ٻيھر	-12591
▁ٽڪرن	-12592
▁پارس	-12593
▁ڀاڙي	-12594
▁ڊائي	-12595
▁ڪٽيل	-12596
▁گيرد	-12597
▁آژانس	-12598
▁ايڊيٽ	-12599
▁بالڪل	-12600
▁بيجنگ	-12601
▁درمان	-12602
▁زيورن	-12603
▁سانگي	-12604
▁سراسر	-12605
▁سرحدن	-12606
▁نٿيون	-12607
▁وهندو	-12608
▁وڇوڙي	-12609
▁پهاڪو	-12610
▁ڦهليل	-12611
▁ڪتابي	-12612
▁الواحد	-12613
▁دردناڪ	-12614
▁معماري	-12615
▁پسمنظر	-12616
▁پهلوان	-12617
▁ڪارٽون	-12618
▁اسڪينڊل	-12619
▁انتهاپس	-12620
▁تجرباتي	-12621
▁قومپرست	-12622
▁نمائندو	-12623
▁چاهيندس	-12624
▁ڊيوائسز	-12625
▁اخلاقيات	-12626
▁پناهگيرن	-12627
▁Suppliers	-12628
07	-12629
AB	-12630
_*	-12631
سِ	-12632
گم	-12633
-15	-12634
الج	-12635
خود	-12636
ضرت	-12637
پيٽ	-12638
کڙي	-12639
ڪوڪ	-12640
▁59	-12641
▁8-	-12642
▁96	-12643
▁AM	-12644
▁At	-12645
▁MP	-12646
▁se	-12647
▁أع	-12648
▁رأ	-12649
▁شى	-12650
▁عف	-12651
▁قس	-12652
▁نط	-12653
▁ڀڙ	-12654
▁ڳچ	-12655
fect	-12656
land	-12657
ربها	-12658
▁Tag	-12659
▁آهم	-12660
▁اسف	-12661
▁ايٿ	-12662
▁خوي	-12663
▁رڌل	-12664
▁زني	-12665
▁شفي	-12666
▁فکر	-12667
▁للي	-12668
▁مصو	-12669
▁وجو	-12670
▁پسي	-12671
▁ڀوت	-12672
▁ڪِي	-12673
نديءَ	-12674
▁3000	-12675
▁>>>>	-12676
▁ابقى	-12677
▁ابڙو	-12678
▁السا	-12679
▁ايني	-12680
▁بودن	-12681
▁بچيو	-12682
▁تمدن	-12683
▁توبه	-12684
▁جيلن	-12685
▁حليم	-12686
▁خاصي	-12687
▁خوني	-12688
▁دودي	-12689
▁دوسر	-12690
▁ذهنن	-12691
▁روٽر	-12692
▁سپنا	-12693
▁سڏبو	-12694
▁شعبو	-12695
▁صدقي	-12696
▁عامر	-12697
▁فلور	-12698
▁منڊل	-12699
▁مهاج	-12700
▁مڙئي	-12701
▁ناتي	-12702
▁نڪاح	-12703
▁وغير	-12704
▁ويزن	-12705
▁پژوه	-12706
▁کردي	-12707
▁ڪرنل	-12708
Sindhi	-12709
▁آمديد	-12710
▁الاخر	-12711
▁بناوت	-12712
▁جزائر	-12713
▁جغراف	-12714
▁جميڪا	-12715
▁دُنيا	-12716
▁فرمود	-12717
▁قسمتي	-12718
▁ماراح	-12719
▁مالٽا	-12720
▁مقرري	-12721
▁ميثاق	-12722
▁ميگير	-12723
▁نفسها	-12724
▁نمبرن	-12725
▁وڻندو	-12726
▁ٿولهه	-12727
▁ڇڏائي	-12728
▁گیمنگ	-12729
▁Amazon	-12730
▁آسمانن	-12731
▁السؤال	-12732
▁بيداري	-12733
▁سولائي	-12734
▁آباديءَ	-12735
▁چاهيندي	-12736
▁ڊائريڪٽ	-12737
▁ڊيموڪري	-12738
▁نيويگيشن	-12739
9"	-12740
SD	-12741
la	-12742
بك	-12743
تڪ	-12744
ذن	-12745
ِه	-12746
ٽَ	-12747
▁٥	-12748
900	-12749
aly	-12750
حتي	-12751
رول	-12752
كيد	-12753
نان	-12754
ٺيڪ	-12755
ٿام	-12756
گهر	-12757
ھري	-12758
▁xD	-12759
▁{{	-12760
▁صج	-12761
▁غو	-12762
▁ٻچ	-12763
="5.	-12764
ject	-12765
just	-12766
اهيم	-12767
بليو	-12768
رندڙ	-12769
رياض	-12770
زيون	-12771
محمد	-12772
▁14.	-12773
▁CBD	-12774
▁آآآ	-12775
▁اسي	-12776
▁تقو	-12777
▁سهر	-12778
▁سيز	-12779
▁شرف	-12780
▁كرد	-12781
▁منٿ	-12782
▁ميں	-12783
▁وضو	-12784
▁ولآ	-12785
▁وڳو	-12786
▁پٽو	-12787
ering	-12788
تاريخ	-12789
▁برخي	-12790
▁برٽش	-12791
▁بطور	-12792
▁بهشت	-12793
▁تارو	-12794
▁حاله	-12795
▁زيبا	-12796
▁سجاڳ	-12797
▁ماجد	-12798
▁مشتا	-12799
▁ميار	-12800
▁نورت	-12801
▁هاٿي	-12802
▁واڍي	-12803
▁يستر	-12804
▁پرسن	-12805
▁پيڙا	-12806
▁چراغ	-12807
▁ڇاپي	-12808
▁گناھ	-12809
▁ھيءُ	-12810
▁اڳيئي	-12811
▁ترقيء	-12812
▁تنصيب	-12813
▁سالفه	-12814
▁سرطان	-12815
▁عجائب	-12816
▁مسئله	-12817
▁وڃايل	-12818
▁وڏائي	-12819
▁چطوري	-12820
▁چوڏهن	-12821
▁گرافڪ	-12822
▁خواهيم	-12823
▁مشاورت	-12824
▁يقولون	-12825
▁پرنٽنگ	-12826
▁ڳوٺاڻي	-12827
▁اوڏانهن	-12828
▁خواهشون	-12829
▁نامزدگي	-12830
▁ٺاهيندي	-12831
▁پورهيتن	-12832
▁گذاريندا	-12833
▁اليڪٽرانڪس	-12834
93	-12835
rd	-12836
غن	-12837
نڌ	-12838
ڊڊ	-12839
کم	-12840
▁ء	-12841
▁ٱ	-12842
:))	-12843
The	-12844
ble	-12845
ife	-12846
its	-12847
ئوڊ	-12848
ربه	-12849
زان	-12850
زنگ	-12851
صبح	-12852
طيه	-12853
قوب	-12854
گهو	-12855
▁نٽ	-12856
▁نی	-12857
▁يز	-12858
▁ٽه	-12859
aily	-12860
الات	-12861
اميه	-12862
مادي	-12863
چارج	-12864
▁160	-12865
▁الض	-12866
▁اڪا	-12867
▁بتا	-12868
▁ثبت	-12869
▁جرح	-12870
▁جهٽ	-12871
▁جيد	-12872
▁دال	-12873
▁رهه	-12874
▁لوپ	-12875
▁محق	-12876
▁مکي	-12877
▁يلي	-12878
▁پاد	-12879
▁پلو	-12880
▁پلے	-12881
▁ڊور	-12882
▁ڌيء	-12883
▁ڪنو	-12884
▁ڪوت	-12885
▁گاه	-12886
rough	-12887
▁1948	-12888
▁اصلی	-12889
▁بياد	-12890
▁تصدق	-12891
▁جھلي	-12892
▁درهم	-12893
▁ساده	-12894
▁شيام	-12895
▁صوتي	-12896
▁طلال	-12897
▁كتاب	-12898
▁لأني	-12899
▁معرف	-12900
▁موضو	-12901
▁نشري	-12902
▁هكذا	-12903
▁همان	-12904
▁ورسي	-12905
▁ٻيٽن	-12906
▁چارو	-12907
▁گانا	-12908
▁گولڊ	-12909
▁ڳاڇا	-12910
نداسون	-12911
▁آڱرين	-12912
▁اسماء	-12913
▁ايونٽ	-12914
▁بسرعه	-12915
▁خواست	-12916
▁ذائقو	-12917
▁سامرا	-12918
▁ساڳين	-12919
▁طريقت	-12920
▁فيروز	-12921
▁مرحلا	-12922
▁مستحق	-12923
▁ياريت	-12924
▁يازين	-12925
▁يوحنا	-12926
▁ڄاڻين	-12927
▁گمنام	-12928
▁الثاني	-12929
▁تصورات	-12930
▁جارحيت	-12931
▁سرپرست	-12932
▁سمجهين	-12933
▁سوالات	-12934
▁مائيڪل	-12935
▁ٻيڙيءَ	-12936
▁ٻيڙيون	-12937
▁ٽريڪنگ	-12938
▁پرداخت	-12939
▁پروازن	-12940
▁چيلينج	-12941
▁افسانوي	-12942
▁ايجنسين	-12943
▁رپورٽنگ	-12944
▁عمارتون	-12945
▁فلوريڊا	-12946
41	-12947
بز	-12948
ابط	-12949
احي	-12950
سلي	-12951
طيك	-12952
عري	-12953
قاد	-12954
لوس	-12955
لوه	-12956
نوم	-12957
هلا	-12958
يرو	-12959
ژيم	-12960
گرن	-12961
▁9-	-12962
▁دڙ	-12963
▁لٽ	-12964
▁هٻ	-12965
▁ڪڏ	-12966
▁۱۹	-12967
>>>>	-12968
line	-12969
ters	-12970
vest	-12971
تاءُ	-12972
▁185	-12973
▁dec	-12974
▁mon	-12975
▁امك	-12976
▁حلم	-12977
▁ربن	-12978
▁ستو	-12979
▁ظال	-12980
▁للت	-12981
▁مئو	-12982
▁ماا	-12983
▁متل	-12984
▁موو	-12985
▁نفر	-12986
▁هاڃ	-12987
▁هيد	-12988
▁واج	-12989
▁پَر	-12990
▁ٿيم	-12991
▁چٽا	-12992
▁ڌان	-12993
▁ڪوپ	-12994
سائيٽ	-12995
شمينٽ	-12996
نهنجا	-12997
▁1991	-12998
▁البر	-12999
▁الما	-13000
▁ايڪڙ	-13001
▁باغن	-13002
▁جنوب	-13003
▁جنيه	-13004
▁حسيت	-13005
▁داشت	-13006
▁دامن	-13007
▁زخمن	-13008
▁سوئس	-13009
▁شرکت	-13010
▁صليب	-13011
▁قدها	-13012
▁مودي	-13013
▁ناظر	-13014
▁نفعي	-13015
▁نيٽو	-13016
▁ٽائر	-13017
▁ٽاٽو	-13018
▁پولش	-13019
▁چئني	-13020
▁ڇڪيو	-13021
▁اندرو	-13022
▁اچانڪ	-13023
▁جنوبي	-13024
▁حاڪمن	-13025
▁عڪاسي	-13026
▁قسمين	-13027
▁مبينا	-13028
▁مسيحي	-13029
▁معليش	-13030
▁همچين	-13031
▁ويهين	-13032
▁ٽيبلٽ	-13033
▁پاڻهي	-13034
▁پوئلڳ	-13035
▁پڙهيا	-13036
▁ٿيندس	-13037
▁چارجر	-13038
▁ڇڪايو	-13039
usiness	-13040
▁ارتقاء	-13041
▁ايڪسپي	-13042
▁براعظم	-13043
▁بڻائين	-13044
▁تعرفين	-13045
▁تنقيدي	-13046
▁جنريٽر	-13047
▁ساڳيءَ	-13048
▁طولاني	-13049
▁قبائلي	-13050
▁قرضدار	-13051
▁مالدار	-13052
▁مخالفن	-13053
▁ڊزائنر	-13054
▁ڌمڪيون	-13055
▁اسٽيشنن	-13056
▁روايتون	-13057
▁سنجيدگي	-13058
▁واڌايون	-13059
▁انڪوائري	-13060
▁پروردگار	-13061
▁واپرائيندڙ	-13062
31	-13063
مج	-13064
هد	-13065
ژن	-13066
▁ٌ	-13067
enc	-13068
ict	-13069
الڊ	-13070
بنم	-13071
داف	-13072
شمو	-13073
شوت	-13074
شوق	-13075
صلح	-13076
صوت	-13077
عان	-13078
پيڊ	-13079
ڪيج	-13080
▁58	-13081
▁62	-13082
▁Dr	-13083
▁El	-13084
▁tw	-13085
▁دَ	-13086
▁صل	-13087
▁هى	-13088
▁پڳ	-13089
▁کڙ	-13090
ادگي	-13091
بولي	-13092
داني	-13093
ضحكت	-13094
فاقي	-13095
فهان	-13096
وليو	-13097
▁(9)	-13098
▁Off	-13099
▁was	-13100
▁ائڊ	-13101
▁اَڄ	-13102
▁اٽو	-13103
▁باٿ	-13104
▁باک	-13105
▁تال	-13106
▁تغي	-13107
▁ثنا	-13108
▁جلا	-13109
▁جوت	-13110
▁جُو	-13111
▁ريڪ	-13112
▁زرد	-13113
▁زمن	-13114
▁شعا	-13115
▁شهد	-13116
▁عسل	-13117
▁فان	-13118
▁لاڀ	-13119
▁لعي	-13120
▁ندى	-13121
▁هاه	-13122
▁واء	-13123
▁واخ	-13124
▁وچن	-13125
▁ياب	-13126
▁پند	-13127
▁ڪني	-13128
زندگي	-13129
▁1975	-13130
▁آرين	-13131
▁آيات	-13132
▁البي	-13133
▁الشي	-13134
▁بولي	-13135
▁ترسي	-13136
▁جسمن	-13137
▁جنين	-13138
▁جيمس	-13139
▁حرفي	-13140
▁خوري	-13141
▁درسي	-13142
▁رژيم	-13143
▁سوڌو	-13144
▁صديء	-13145
▁ضعيف	-13146
▁عادل	-13147
▁عقلي	-13148
▁عهدو	-13149
▁فوٽن	-13150
▁لينا	-13151
▁مائل	-13152
▁مصال	-13153
▁نعرو	-13154
▁هيڪر	-13155
▁ويڪر	-13156
▁ٻيئي	-13157
▁ٽائپ	-13158
▁پوشي	-13159
▁گهرڻ	-13160
▁آخوند	-13161
▁الاول	-13162
▁تبصري	-13163
▁رکيون	-13164
▁سبحان	-13165
▁سيٽان	-13166
▁سيڪٽر	-13167
▁شكلهم	-13168
▁شمالي	-13169
▁فلاڻي	-13170
▁فوٽوز	-13171
▁لغاري	-13172
▁متضاد	-13173
▁معنوي	-13174
▁مقالي	-13175
▁نيڪال	-13176
▁ووٽنگ	-13177
▁پرديس	-13178
▁پرفار	-13179
▁پورچو	-13180
▁افريقي	-13181
▁الشباب	-13182
▁بيهاري	-13183
▁زمينون	-13184
▁ساڳيون	-13185
▁مخصوصا	-13186
▁هاڪاري	-13187
▁واقفيت	-13188
▁پاڪائي	-13189
▁گرميءَ	-13190
▁حڪومتون	-13191
▁سمجهائڻ	-13192
▁شخصيتون	-13193
▁علامتون	-13194
▁فيڊريشن	-13195
▁واپرائڻ	-13196
▁پروموشن	-13197
▁سبسڪرپشن	-13198
▁پنهنجيون	-13199
▁ڏسنداسين	-13200
78	-13201
EN	-13202
شف	-13203
ٹو	-13204
یش	-13205
▁%	-13206
▁§	-13207
▁😉	-13208
alt	-13209
dit	-13210
mer	-13211
rop	-13212
ung	-13213
اھڻ	-13214
تيل	-13215
رنگ	-13216
شنو	-13217
صود	-13218
طرف	-13219
غيب	-13220
لتك	-13221
هڙي	-13222
وقت	-13223
يوز	-13224
پال	-13225
ڀار	-13226
ڀير	-13227
▁(.	-13228
▁51	-13229
▁Co	-13230
▁ir	-13231
▁آٿ	-13232
▁يأ	-13233
▁٢٠	-13234
▁ڀڻ	-13235
▁کث	-13236
ener	-13237
ital	-13238
ures	-13239
ware	-13240
بازي	-13241
حسين	-13242
زيده	-13243
هاءِ	-13244
ورين	-13245
وليا	-13246
ونکي	-13247
▁11:	-13248
▁900	-13249
▁URL	-13250
▁إذا	-13251
▁اُت	-13252
▁باص	-13253
▁تحس	-13254
▁تخص	-13255
▁ردك	-13256
▁سُڃ	-13257
▁مڪر	-13258
▁وجھ	-13259
▁وسر	-13260
▁پخش	-13261
▁چلم	-13262
▁چمن	-13263
▁چنب	-13264
▁ڊار	-13265
▁ڌوڙ	-13266
▁کري	-13267
▁گُل	-13268
▁ھجن	-13269
irect	-13270
جيريا	-13271
گونگي	-13272
▁1950	-13273
▁آئيو	-13274
▁آسيب	-13275
▁الاح	-13276
▁اچون	-13277
▁اچڻو	-13278
▁تالا	-13279
▁تغير	-13280
▁تقبل	-13281
▁توجہ	-13282
▁جهنم	-13283
▁زهرا	-13284
▁ساجن	-13285
▁سجدو	-13286
▁عاشت	-13287
▁غالي	-13288
▁غيرك	-13289
▁فرنٽ	-13290
▁ناسي	-13291
▁نافذ	-13292
▁نسيم	-13293
▁هديه	-13294
▁هيرا	-13295
▁وحشي	-13296
▁ولكن	-13297
▁يوگا	-13298
▁ٽامي	-13299
▁پاره	-13300
▁پهاڙ	-13301
▁ڪنور	-13302
▁ڪنچن	-13303
▁گولف	-13304
▁ڳئون	-13305
▁ھزار	-13306
اريندو	-13307
▁المست	-13308
▁اھميت	-13309
▁بروکر	-13310
▁حسيني	-13311
▁دنياي	-13312
▁ذائقي	-13313
▁سانحي	-13314
▁سوالف	-13315
▁لياري	-13316
▁پڪڙيو	-13317
▁ڀاتين	-13318
▁چوندس	-13319
▁ڊرامي	-13320
▁ڏٺيون	-13321
▁ڪمايو	-13322
▁انتشار	-13323
▁انديشه	-13324
▁سنڌوءَ	-13325
▁سولنگي	-13326
▁غذائيت	-13327
▁لکڻيون	-13328
▁مفاصلي	-13329
▁کارائڻ	-13330
▁ڪاوڙجي	-13331
▁گهراڻي	-13332
▁اسپانسر	-13333
▁جوانيءَ	-13334
▁ساراهيو	-13335
▁ساليانو	-13336
▁ٺيڪيدار	-13337
▁پابندين	-13338
▁پريميئر	-13339
▁ڏوهارين	-13340
▁هٿياربند	-13341
▁پشتيباني	-13342
▁stainless	-13343
▁اينالائيٽ	-13344
IA	-13345
][	-13346
جت	-13347
شة	-13348
قك	-13349
نظ	-13350
▁ښ	-13351
ade	-13352
arb	-13353
ids	-13354
lex	-13355
pty	-13356
ائه	-13357
اسٽ	-13358
ايب	-13359
بلو	-13360
ديث	-13361
ذات	-13362
روڊ	-13363
شري	-13364
طار	-13365
لنگ	-13366
وڏي	-13367
ٽلر	-13368
▁(→	-13369
▁41	-13370
▁><	-13371
▁Se	-13372
▁ذر	-13373
▁ذك	-13374
▁لج	-13375
ines	-13376
راتي	-13377
لللل	-13378
هوءَ	-13379
وووه	-13380
يلين	-13381
▁110	-13382
▁2.1	-13383
▁350	-13384
▁LED	-13385
▁PDF	-13386
▁app	-13387
▁آلا	-13388
▁اُڇ	-13389
▁جني	-13390
▁جھي	-13391
▁سڏڻ	-13392
▁شفٽ	-13393
▁عصر	-13394
▁عيل	-13395
▁موچ	-13396
▁ننگ	-13397
▁وتن	-13398
▁ورن	-13399
▁ٺهڪ	-13400
▁پتا	-13401
▁پهه	-13402
▁پکو	-13403
▁ڏنگ	-13404
▁ڏون	-13405
▁ڏُک	-13406
❤️❤️	-13407
chain	-13408
پرستي	-13409
گذاري	-13410
▁will	-13411
▁آزار	-13412
▁اختك	-13413
▁اعلم	-13414
▁البم	-13415
▁التو	-13416
▁انگو	-13417
▁اڀرڻ	-13418
▁بخشش	-13419
▁بڻيا	-13420
▁تسلط	-13421
▁تفهم	-13422
▁جيئي	-13423
▁خفيه	-13424
▁دخلت	-13425
▁ديده	-13426
▁زبور	-13427
▁زيان	-13428
▁سنتي	-13429
▁شبيه	-13430
▁صباح	-13431
▁طبعي	-13432
▁لنڪا	-13433
▁ماڻه	-13434
▁ماڻڪ	-13435
▁مڃان	-13436
▁مڪان	-13437
▁ناحق	-13438
▁ننگر	-13439
▁وأنا	-13440
▁وعلي	-13441
▁وڪڻي	-13442
▁يارن	-13443
▁پارت	-13444
▁پاسا	-13445
▁پوپٽ	-13446
▁گيئر	-13447
▁اصحاب	-13448
▁تسلمي	-13449
▁جابلو	-13450
▁جزيره	-13451
▁خلاصه	-13452
▁خليها	-13453
▁خوبين	-13454
▁رسولن	-13455
▁رھندا	-13456
▁زيادي	-13457
▁شراڪت	-13458
▁صاحبن	-13459
▁مڇيءَ	-13460
▁نياپو	-13461
▁هسٽنگ	-13462
▁هيملٽ	-13463
▁ٻيڙين	-13464
▁پانڌي	-13465
▁پنهنج	-13466
▁پيشاب	-13467
▁پچائڻ	-13468
▁ڊرامو	-13469
▁ڪلينڪ	-13470
▁گفتار	-13471
▁struct	-13472
▁آفريقي	-13473
▁اميدون	-13474
▁اپنائڻ	-13475
▁اڏامون	-13476
▁تبادلي	-13477
▁دروازن	-13478
▁فلائيٽ	-13479
▁قبوليت	-13480
▁لاجواب	-13481
▁مشڪلات	-13482
▁معصومه	-13483
▁ميڊريز	-13484
▁وڙهندا	-13485
▁پرتگال	-13486
▁پيئندا	-13487
▁ڀريندؤ	-13488
▁ڏاڍيون	-13489
▁ڪاريون	-13490
▁ڪرسيءَ	-13491
▁گذاريا	-13492
▁through	-13493
▁ريگستان	-13494
▁رڪاوٽون	-13495
▁سگهندين	-13496
▁پرفارمنس	-13497
▁سرمائيدار	-13498
63	-13499
SI	-13500
gh	-13501
sk	-13502
vi	-13503
yd	-13504
تہ	-13505
ری	-13506
ara	-13507
iff	-13508
ush	-13509
آري	-13510
حات	-13511
زده	-13512
ضيع	-13513
قتي	-13514
واز	-13515
وٽن	-13516
گوي	-13517
▁TM	-13518
▁dr	-13519
▁هپ	-13520
▁وھ	-13521
▁کڏ	-13522
ants	-13523
eter	-13524
olor	-13525
نئين	-13526
▁(8)	-13527
▁10-	-13528
▁3.1	-13529
▁اڻو	-13530
▁بام	-13531
▁تقي	-13532
▁تكر	-13533
▁رحت	-13534
▁ريف	-13535
▁سَر	-13536
▁عاص	-13537
▁عقب	-13538
▁قصا	-13539
▁مسڪ	-13540
▁مِن	-13541
▁ندا	-13542
▁همس	-13543
▁وچڙ	-13544
▁يھو	-13545
▁ٻاه	-13546
▁پنو	-13547
▁پيت	-13548
▁ڦهل	-13549
▁گھم	-13550
ميڊيا	-13551
▁1971	-13552
▁cons	-13553
▁اھڙا	-13554
▁ذليل	-13555
▁راسي	-13556
▁رسوخ	-13557
▁رويا	-13558
▁ساقي	-13559
▁شبنم	-13560
▁صدقت	-13561
▁صوبو	-13562
▁طعام	-13563
▁فلمي	-13564
▁فيڪل	-13565
▁ماتا	-13566
▁ماتر	-13567
▁ماذا	-13568
▁منصب	-13569
▁نشوف	-13570
▁نشين	-13571
▁نقاد	-13572
▁هائڊ	-13573
▁هجرت	-13574
▁وڻيو	-13575
▁پاتو	-13576
▁پارو	-13577
▁پاڇو	-13578
▁پويا	-13579
▁ڏيهي	-13580
▁ڦاهي	-13581
▁ڪمرا	-13582
▁ارسطو	-13583
▁اينجا	-13584
▁خدمات	-13585
▁رائعة	-13586
▁راستي	-13587
▁ريموٽ	-13588
▁زاويه	-13589
▁زخمين	-13590
▁شكراً	-13591
▁صورتي	-13592
▁لکندڙ	-13593
▁ماعند	-13594
▁مزاجي	-13595
▁مطهري	-13596
▁معايا	-13597
▁معجزو	-13598
▁ميرسي	-13599
▁نمايش	-13600
▁هوائن	-13601
▁وٺندس	-13602
▁ٻوليء	-13603
▁پنجره	-13604
▁ڊرامن	-13605
▁گذارش	-13606
▁انصاري	-13607
▁جائداد	-13608
▁حالانڪ	-13609
▁مذڪوره	-13610
▁هئينءَ	-13611
▁پريميم	-13612
▁پورهئي	-13613
▁ڪالوني	-13614
▁گھرندو	-13615
▁Outlook	-13616
▁YouTube	-13617
▁تحريرون	-13618
▁دوستيءَ	-13619
▁زبردستي	-13620
▁چانڊوڪي	-13621
▁انگلستان	-13622
▁ڪرائيندو	-13623
▁فرمايائون	-13624
▁پهچائيندو	-13625
▁اينالائيٽڪس	-13626
61	-13627
HS	-13628
UI	-13629
טּ	-13630
غو	-13631
مش	-13632
وض	-13633
▁ٍ	-13634
▁′	-13635
arg	-13636
eca	-13637
oth	-13638
ton	-13639
اپي	-13640
جوع	-13641
ررر	-13642
صلت	-13643
لجي	-13644
مند	-13645
ورر	-13646
ونن	-13647
پير	-13648
▁بی	-13649
▁يغ	-13650
▁کَ	-13651
jack	-13652
ness	-13653
tern	-13654
ular	-13655
انٽر	-13656
انچو	-13657
حافظ	-13658
فهمت	-13659
وركم	-13660
ويلي	-13661
▁SQL	-13662
▁USD	-13663
▁آرا	-13664
▁اوم	-13665
▁جھو	-13666
▁جھٽ	-13667
▁خاڪ	-13668
▁دهر	-13669
▁ردو	-13670
▁رنڊ	-13671
▁رٻڙ	-13672
▁ساڀ	-13673
▁سهو	-13674
▁شائ	-13675
▁شاف	-13676
▁كند	-13677
▁لھي	-13678
▁ٻاڦ	-13679
▁ٽوڙ	-13680
▁چلي	-13681
empty	-13682
اڻايل	-13683
وريون	-13684
▁آهني	-13685
▁اسمه	-13686
▁اقصد	-13687
▁اكتر	-13688
▁الفر	-13689
▁اهلا	-13690
▁ايجو	-13691
▁برون	-13692
▁بوده	-13693
▁بيري	-13694
▁جزئي	-13695
▁جلاو	-13696
▁جوتن	-13697
▁خادم	-13698
▁دارا	-13699
▁داعش	-13700
▁درجن	-13701
▁دواس	-13702
▁ريما	-13703
▁زوري	-13704
▁صداي	-13705
▁عنجد	-13706
▁فنگر	-13707
▁مركز	-13708
▁موقع	-13709
▁نعرا	-13710
▁هجوم	-13711
▁وسيم	-13712
▁ويھي	-13713
▁يحفظ	-13714
▁ٽينس	-13715
▁پالش	-13716
▁پروڊ	-13717
▁پٺاڻ	-13718
▁چاقو	-13719
▁ڇوڪر	-13720
▁ڦاٿل	-13721
▁ڪهڙن	-13722
▁گناه	-13723
▁Sindh	-13724
▁right	-13725
▁اعضاء	-13726
▁الولد	-13727
▁اميرن	-13728
▁اُتان	-13729
▁حوصلو	-13730
▁خصوصا	-13731
▁ستاره	-13732
▁سرشتي	-13733
▁شمشير	-13734
▁عموما	-13735
▁عمومي	-13736
▁مارين	-13737
▁محققن	-13738
▁مقياس	-13739
▁موٽرو	-13740
▁ميشود	-13741
▁نروار	-13742
▁ويڪرو	-13743
▁ٻانهي	-13744
▁پائلٽ	-13745
▁پهلوي	-13746
▁ڊيلٽا	-13747
▁گھٽجي	-13748
▁اصفهان	-13749
▁الصوره	-13750
▁اڪاؤنٽ	-13751
▁بلاگرز	-13752
▁رٽائرڊ	-13753
▁شاديون	-13754
▁موضوعي	-13755
▁وهنوار	-13756
▁ويچارو	-13757
▁ٻانهون	-13758
▁پلاننگ	-13759
▁پيئندو	-13760
▁ڄاڻائي	-13761
▁ڪرايون	-13762
▁گياهان	-13763
▁گھڻيون	-13764
▁اختلافن	-13765
▁سريلنڪا	-13766
▁ميخواهي	-13767
▁ورهائجي	-13768
▁ٺاھيندڙ	-13769
▁پبليڪيشن	-13770
▁المشاركات	-13771
▁ايڊيٽوريل	-13772
▁موجودگيءَ	-13773
01	-13774
08	-13775
آح	-13776
اِ	-13777
بَ	-13778
تت	-13779
عى	-13780
ٻڌ	-13781
ڪِ	-13782
ats	-13783
تصو	-13784
رته	-13785
روب	-13786
وڙي	-13787
ڪيم	-13788
▁'_	-13789
▁.)	-13790
▁08	-13791
▁8:	-13792
▁MI	-13793
▁We	-13794
▁me	-13795
▁آت	-13796
▁صر	-13797
▁ڪہ	-13798
.000	-13799
بارك	-13800
ديها	-13801
رادو	-13802
نائي	-13803
ٽيلي	-13804
چوئل	-13805
▁exp	-13806
▁آمي	-13807
▁آني	-13808
▁أبو	-13809
▁ازم	-13810
▁انع	-13811
▁ثلا	-13812
▁ججن	-13813
▁جوڳ	-13814
▁داس	-13815
▁راڪ	-13816
▁رھو	-13817
▁سهڻ	-13818
▁شيڪ	-13819
▁صنم	-13820
▁قلي	-13821
▁كري	-13822
▁مبد	-13823
▁مهو	-13824
▁وسو	-13825
▁وڻج	-13826
▁ٽون	-13827
▁پيڙ	-13828
▁ڍير	-13829
سلونا	-13830
سينجر	-13831
يابان	-13832
▁ازاي	-13833
▁افقي	-13834
▁الاع	-13835
▁الرد	-13836
▁المش	-13837
▁اونه	-13838
▁باڊي	-13839
▁تندر	-13840
▁جائي	-13841
▁خوار	-13842
▁دعوى	-13843
▁ديسي	-13844
▁ساڙي	-13845
▁سمون	-13846
▁سنين	-13847
▁علمن	-13848
▁لاهڻ	-13849
▁لوقا	-13850
▁لينن	-13851
▁مائو	-13852
▁ماتم	-13853
▁ماسي	-13854
▁مهار	-13855
▁مهاڳ	-13856
▁ميزن	-13857
▁واذا	-13858
▁واهي	-13859
▁يادن	-13860
▁يرجك	-13861
▁ڀاتي	-13862
▁ڪرنٽ	-13863
▁ڪڍيا	-13864
▁گروي	-13865
تنهنجو	-13866
▁Daily	-13867
▁incre	-13868
▁world	-13869
▁اسمها	-13870
▁اسڪور	-13871
▁الارم	-13872
▁باخبر	-13873
▁درويش	-13874
▁رساني	-13875
▁سمجھن	-13876
▁شڪريو	-13877
▁عضلات	-13878
▁قديمه	-13879
▁مارڪو	-13880
▁مبتني	-13881
▁مثلاً	-13882
▁منظرن	-13883
▁نظارن	-13884
▁واللي	-13885
▁يعقوب	-13886
▁ٻيڙيء	-13887
▁پڪاري	-13888
▁ڏهاڙو	-13889
▁ڪرونا	-13890
▁گهاري	-13891
▁سيکارڻ	-13892
▁مجبوري	-13893
▁معاونت	-13894
▁مٿاهون	-13895
▁هئاسون	-13896
▁ورجائي	-13897
▁پورائي	-13898
▁چگونگي	-13899
▁ڪمانڊر	-13900
▁ڪوئيٽا	-13901
▁گهڙيون	-13902
▁اعجبتني	-13903
▁تنهنجون	-13904
▁نمائندا	-13905
▁کميسيون	-13906
▁ڪنٽرولر	-13907
▁تجربيڪار	-13908
▁ڇڏينداسين	-13909
▁اسٽيبلشمينٽ	-13910
OW	-13911
zh	-13912
ثق	-13913
طط	-13914
نع	-13915
को	-13916
▁↑	-13917
alk	-13918
arm	-13919
ode	-13920
ose	-13921
سمي	-13922
ملت	-13923
ملي	-13924
يين	-13925
▁54	-13926
▁88	-13927
▁GT	-13928
▁PC	-13929
▁ءَ	-13930
▁اڙ	-13931
▁ضي	-13932
▁عَ	-13933
▁نژ	-13934
▁يط	-13935
▁پہ	-13936
▁گِ	-13937
ould	-13938
بوطي	-13939
جبكم	-13940
كلها	-13941
يندس	-13942
پيٽل	-13943
▁1.2	-13944
▁Met	-13945
▁[1]	-13946
▁www	-13947
▁احا	-13948
▁اسر	-13949
▁بها	-13950
▁بهي	-13951
▁تشو	-13952
▁تلخ	-13953
▁خرو	-13954
▁رغد	-13955
▁رمز	-13956
▁رند	-13957
▁شگر	-13958
▁غرض	-13959
▁قصة	-13960
▁لذي	-13961
▁ميڻ	-13962
▁ونا	-13963
▁ٺٽو	-13964
▁ٻچن	-13965
▁چاڙ	-13966
▁ڇوٽ	-13967
▁ڊان	-13968
▁ڦٽو	-13969
▁گدڙ	-13970
="0.0	-13971
enter	-13972
سويها	-13973
▁1979	-13974
▁1989	-13975
▁5000	-13976
▁الاخ	-13977
▁الجم	-13978
▁الور	-13979
▁امرو	-13980
▁بابي	-13981
▁بعيد	-13982
▁بليو	-13983
▁بڇڙي	-13984
▁تاڪي	-13985
▁جھڙا	-13986
▁خطير	-13987
▁دسته	-13988
▁ريڊي	-13989
▁سانگ	-13990
▁سولر	-13991
▁سينه	-13992
▁فيڪٽ	-13993
▁قصدي	-13994
▁لائف	-13995
▁ليٽي	-13996
▁ماين	-13997
▁محلي	-13998
▁موري	-13999
▁ميده	-14000
▁ميوي	-14001
▁ويٺس	-14002
▁يخرب	-14003
▁پگهر	-14004
▁ڏاڏن	-14005
▁ڦوٽو	-14006
▁ڪيفي	-14007
▁گردي	-14008
▁گوڏن	-14009
ايائين	-14010
▁آرمين	-14011
▁بيانن	-14012
▁ترحيب	-14013
▁تلقين	-14014
▁ذخيرا	-14015
▁راكان	-14016
▁رسالن	-14017
▁سانتا	-14018
▁سجاڳي	-14019
▁سگهبو	-14020
▁شاهدي	-14021
▁عيوني	-14022
▁فيڊرل	-14023
▁مرکوز	-14024
▁نوازي	-14025
▁هولڊر	-14026
▁ورڪنگ	-14027
▁ٽڪيٽن	-14028
▁پيامک	-14029
▁پڇندو	-14030
▁ڀانيو	-14031
▁ڪرسٽو	-14032
▁ڪلارڪ	-14033
▁ڪيمپس	-14034
ational	-14035
▁آفريقا	-14036
▁اممممم	-14037
▁تنهائي	-14038
▁روانگي	-14039
▁روڪٿام	-14040
▁سيمالٽ	-14041
▁فلپائن	-14042
▁فنڪارن	-14043
▁ويٽنام	-14044
▁ٽيڪساس	-14045
▁پرڏيهه	-14046
▁پيوسته	-14047
▁ٿيندين	-14048
▁چوٽيءَ	-14049
▁ڌاڙيلن	-14050
▁المفروض	-14051
▁تعليمات	-14052
▁سمجهائي	-14053
▁موسمياتي	-14054
▁فوٽوگرافي	-14055
▁information	-14056
اااااااااااااا	-14057
79	-14058
;)	-14059
LC	-14060
OT	-14061
ڄو	-14062
ڪُ	-14063
یق	-14064
amp	-14065
ibr	-14066
ull	-14067
ئير	-14068
ابة	-14069
ارس	-14070
صاص	-14071
طري	-14072
مست	-14073
واق	-14074
ياڻ	-14075
ڊني	-14076
کون	-14077
گرو	-14078
▁AS	-14079
▁cr	-14080
▁kn	-14081
▁ئه	-14082
▁دی	-14083
▁سٹ	-14084
▁ھم	-14085
cies	-14086
entr	-14087
ائبو	-14088
ندري	-14089
ونها	-14090
چائي	-14091
چيءَ	-14092
▁15.	-14093
▁2.0	-14094
▁cap	-14095
▁cre	-14096
▁des	-14097
▁اشو	-14098
▁بوي	-14099
▁حكم	-14100
▁ذھن	-14101
▁روع	-14102
▁زلف	-14103
▁سيب	-14104
▁سڪو	-14105
▁عطر	-14106
▁فاي	-14107
▁كسي	-14108
▁لمن	-14109
▁مبل	-14110
▁مرن	-14111
▁نچي	-14112
▁يحي	-14113
▁ٽڪي	-14114
▁ڀاڱ	-14115
▁ڦرڻ	-14116
▁ڪات	-14117
▁ڪفن	-14118
▁گين	-14119
ities	-14120
▁1984	-14121
▁back	-14122
▁أخوي	-14123
▁ابدي	-14124
▁ابوي	-14125
▁التح	-14126
▁النت	-14127
▁اوپو	-14128
▁ايند	-14129
▁باين	-14130
▁جاهل	-14131
▁جليل	-14132
▁جوني	-14133
▁خانا	-14134
▁خانم	-14135
▁راهن	-14136
▁رشوت	-14137
▁رليف	-14138
▁روبو	-14139
▁رکين	-14140
▁سرير	-14141
▁سندر	-14142
▁سنيپ	-14143
▁ضلعو	-14144
▁لقيت	-14145
▁ماله	-14146
▁ماڳن	-14147
▁مرکب	-14148
▁مساج	-14149
▁مسير	-14150
▁مقلب	-14151
▁مڃيل	-14152
▁نهين	-14153
▁هجون	-14154
▁وردة	-14155
▁وصلت	-14156
▁يكتب	-14157
▁ٻوڙي	-14158
▁پختو	-14159
▁پٿرن	-14160
▁ٿيءُ	-14161
▁ڌانڌ	-14162
▁گهمي	-14163
▁گيتن	-14164
▁گيمز	-14165
▁ڳايو	-14166
▁استان	-14167
▁اسلوب	-14168
▁الفاظ	-14169
▁انرجي	-14170
▁انرژي	-14171
▁اکڙين	-14172
▁بتيون	-14173
▁توحيد	-14174
▁جھڙوڪ	-14175
▁حادثن	-14176
▁حركات	-14177
▁دعائن	-14178
▁رحمان	-14179
▁سگھيا	-14180
▁قلندر	-14181
▁مديره	-14182
▁هينري	-14183
▁والوز	-14184
▁يومين	-14185
▁چينلز	-14186
▁چڙهيل	-14187
▁ڇڏائڻ	-14188
▁کائنس	-14189
▁ھڪٻئي	-14190
▁آهي۔۔۔	-14191
▁ابليسك	-14192
▁افغاني	-14193
▁اٿاريو	-14194
▁باشعور	-14195
▁تعجبني	-14196
▁مٽاسٽا	-14197
▁مڃيندا	-14198
▁نڪرندا	-14199
▁نڪرندڙ	-14200
▁پڙهايو	-14201
▁کوليون	-14202
▁ڪيوسون	-14203
▁گهٽايو	-14204
▁توهانجي	-14205
▁درحقيقت	-14206
▁وائرليس	-14207
▁انفراديت	-14208
▁بارسلونا	-14209
▁وڌائيندي	-14210
▁مينيجمينٽ	-14211
▁ڊائريڪٽرن	-14212
اااااااااااااااا	-14213
/7	-14214
LE	-14215
PC	-14216
]]	-14217
me	-14218
ثم	-14219
ظن	-14220
مٽ	-14221
ّد	-14222
ہِ	-14223
▁ღ	-14224
oon	-14225
آتي	-14226
الع	-14227
اهش	-14228
بره	-14229
خرج	-14230
شهر	-14231
كرك	-14232
وئي	-14233
یشن	-14234
▁05	-14235
▁78	-14236
▁AC	-14237
▁go	-14238
▁دؤ	-14239
▁دخ	-14240
▁وئ	-14241
▁ڪف	-14242
▁ھئ	-14243
ateg	-14244
امني	-14245
باقي	-14246
حاول	-14247
داتي	-14248
ـٍـٍ	-14249
قرآن	-14250
ووون	-14251
ڊرنگ	-14252
▁(7)	-14253
▁700	-14254
▁API	-14255
▁تسم	-14256
▁تکو	-14257
▁جهڳ	-14258
▁راھ	-14259
▁رنو	-14260
▁ساڃ	-14261
▁سَن	-14262
▁شمع	-14263
▁عدن	-14264
▁عرس	-14265
▁فضي	-14266
▁لهه	-14267
▁مئن	-14268
▁منم	-14269
▁وسن	-14270
▁وٿي	-14271
▁چلو	-14272
▁ڏنس	-14273
▁ڏيا	-14274
▁ڪمر	-14275
▁ڪيٽ	-14276
ables	-14277
▁1500	-14278
▁1973	-14279
▁form	-14280
▁اذيت	-14281
▁اسكت	-14282
▁الوا	-14283
▁اچار	-14284
▁اچرج	-14285
▁اڪرم	-14286
▁باطل	-14287
▁تطلع	-14288
▁جرسي	-14289
▁حُڪم	-14290
▁خليف	-14291
▁ديري	-14292
▁شوفي	-14293
▁فرائ	-14294
▁فرصت	-14295
▁فيفا	-14296
▁لاڙو	-14297
▁لهرن	-14298
▁مليس	-14299
▁مهلت	-14300
▁نازي	-14301
▁نرمي	-14302
▁نشست	-14303
▁هنري	-14304
▁هيلي	-14305
▁يفهم	-14306
▁يلعب	-14307
▁ٻيلو	-14308
▁ٽوئن	-14309
▁ٽيچر	-14310
▁پريت	-14311
▁ڪولي	-14312
▁گياه	-14313
▁آموزش	-14314
▁ارمان	-14315
▁اصولي	-14316
▁اعجاز	-14317
▁اقولك	-14318
▁بحرين	-14319
▁بروقت	-14320
▁بظاهر	-14321
▁رهنما	-14322
▁سببان	-14323
▁سيلون	-14324
▁عرفان	-14325
▁ماعرف	-14326
▁نيپال	-14327
▁هائپر	-14328
▁وٽامن	-14329
▁ياحبي	-14330
▁ٽيڪسي	-14331
▁پينشن	-14332
▁ڌريون	-14333
▁کثافت	-14334
▁کوليا	-14335
▁کڻندي	-14336
▁گهڙين	-14337
▁invest	-14338
▁آزاديء	-14339
▁آياسين	-14340
▁الجديد	-14341
▁جانشين	-14342
▁روينيو	-14343
▁سردارن	-14344
▁سونهري	-14345
▁مستحيل	-14346
▁نارنجي	-14347
▁نارنگي	-14348
▁گمراهه	-14349
▁بادشاهن	-14350
▁تاريخون	-14351
▁سفارشون	-14352
▁لاڙڪاڻو	-14353
▁پاکستان	-14354
▁انتخابات	-14355
▁ملاقاتون	-14356
▁ٻڌايائين	-14357
▁سنڀاليندو	-14358
▁نائيجيريا	-14359
"؟	-14360
6:	-14361
==	-14362
AA	-14363
OM	-14364
Sh	-14365
ek	-14366
ux	-14367
آأ	-14368
رَ	-14369
ڏر	-14370
ڑي	-14371
▁♪	-14372
1].	-14373
eth	-14374
isc	-14375
ley	-14376
oss	-14377
؟."	-14378
اسو	-14379
برن	-14380
دوي	-14381
طرح	-14382
فاق	-14383
هڪي	-14384
ولة	-14385
ٹیج	-14386
ڊور	-14387
ڪسن	-14388
ڪيت	-14389
▁53	-14390
▁63	-14391
▁FS	-14392
▁Sl	-14393
▁gr	-14394
▁أص	-14395
▁حش	-14396
▁شَ	-14397
▁فك	-14398
▁قض	-14399
▁كد	-14400
▁ٺڳ	-14401
▁ڪٺ	-14402
▁گَ	-14403
▁گپ	-14404
ange	-14405
ract	-14406
vent	-14407
آزاد	-14408
جهڙو	-14409
دوين	-14410
ساعد	-14411
صورت	-14412
هائو	-14413
ويلا	-14414
ڪسڪس	-14415
▁All	-14416
▁Nex	-14417
▁ind	-14418
▁اَن	-14419
▁تاث	-14420
▁جتو	-14421
▁حيل	-14422
▁ديا	-14423
▁سلن	-14424
▁فقي	-14425
▁لٿي	-14426
▁ماف	-14427
▁هڏي	-14428
▁چاک	-14429
▁کڄي	-14430
▁ڪرت	-14431
inked	-14432
والله	-14433
ٽيريا	-14434
▁1930	-14435
▁fing	-14436
▁post	-14437
▁your	-14438
▁آدمي	-14439
▁آڪاش	-14440
▁أحلى	-14441
▁اخاف	-14442
▁اصلن	-14443
▁المح	-14444
▁ايڊز	-14445
▁بانڊ	-14446
▁بتحب	-14447
▁بيتن	-14448
▁جلوس	-14449
▁جوتا	-14450
▁جوڙا	-14451
▁حسرت	-14452
▁خمير	-14453
▁دوکي	-14454
▁ديوت	-14455
▁رأيك	-14456
▁رائج	-14457
▁سائڊ	-14458
▁سوره	-14459
▁شاهو	-14460
▁شيعي	-14461
▁عليا	-14462
▁غافل	-14463
▁مستي	-14464
▁ناسا	-14465
▁ناوي	-14466
▁نقشا	-14467
▁هجري	-14468
▁هرچي	-14469
▁ويگن	-14470
▁ٽرام	-14471
▁ٽوٽل	-14472
▁پهتل	-14473
▁چاره	-14474
▁ڏيڻي	-14475
▁ڦاٽي	-14476
▁ڪعبي	-14477
▁گذشت	-14478
▁گردد	-14479
▁گندو	-14480
▁ڳنڍڻ	-14481
ائيٽيڊ	-14482
▁known	-14483
▁آماده	-14484
▁آهنگي	-14485
▁اثاثو	-14486
▁ايسٽر	-14487
▁اينڊر	-14488
▁اُداس	-14489
▁اڍائي	-14490
▁بائيو	-14491
▁تكفون	-14492
▁صاحبه	-14493
▁علينا	-14494
▁ماعلي	-14495
▁مقتول	-14496
▁ممنوع	-14497
▁نگاهن	-14498
▁ورکړئ	-14499
▁يونٽن	-14500
▁ٽوڙيو	-14501
▁پئڪيج	-14502
▁پبلشر	-14503
▁پيٽرن	-14504
▁ڀڳوان	-14505
▁ڪاربن	-14506
▁ڪنسول	-14507
▁ڪپتان	-14508
▁ڪڏهين	-14509
▁درگاهه	-14510
▁صورتون	-14511
▁علامتي	-14512
▁معناها	-14513
▁هوندين	-14514
▁وڃائجي	-14515
▁پروڊيو	-14516
▁ڏيندڙن	-14517
▁اُنهيءَ	-14518
▁تاريخچه	-14519
▁عيسائين	-14520
▁موٽرولا	-14521
▁ميسينجر	-14522
▁ڪرسٽوفر	-14523
▁بڻائيندا	-14524
▁يونيفارم	-14525
6-	-14526
OP	-14527
ef	-14528
دِ	-14529
ذآ	-14530
ضت	-14531
ٽز	-14532
amm	-14533
eek	-14534
ork	-14535
ots	-14536
pro	-14537
اتم	-14538
اھو	-14539
بوس	-14540
جهن	-14541
حده	-14542
شيش	-14543
قيا	-14544
لته	-14545
لقه	-14546
مري	-14547
نجي	-14548
هود	-14549
ِيو	-14550
ٻين	-14551
▁Sm	-14552
▁To	-14553
▁UN	-14554
▁__	-14555
▁سے	-14556
▁طر	-14557
▁لگ	-14558
▁مڊ	-14559
▁ٺھ	-14560
▁ٻل	-14561
▁چی	-14562
▁ڏڪ	-14563
▁ڦِ	-14564
ritt	-14565
أأأأ	-14566
ئنسي	-14567
افتي	-14568
خوان	-14569
رينه	-14570
سپاس	-14571
شايد	-14572
قولي	-14573
نگنگ	-14574
ٽيئر	-14575
▁10:	-14576
▁Aqu	-14577
▁إيه	-14578
▁احط	-14579
▁بصر	-14580
▁توا	-14581
▁جات	-14582
▁رضه	-14583
▁ظهر	-14584
▁لبى	-14585
▁للا	-14586
▁ماٿ	-14587
▁ماڙ	-14588
▁محي	-14589
▁ممي	-14590
▁نبض	-14591
▁نحن	-14592
▁نسي	-14593
▁هدي	-14594
▁يله	-14595
▁ٻير	-14596
▁ٽٽل	-14597
▁پيم	-14598
▁چپس	-14599
▁ڪچو	-14600
▁ڪڍو	-14601
▁1977	-14602
▁have	-14603
▁work	-14604
▁اجهو	-14605
▁اصبح	-14606
▁برتر	-14607
▁بليس	-14608
▁تعدد	-14609
▁جيڪب	-14610
▁رائد	-14611
▁ريجن	-14612
▁سپاس	-14613
▁شامي	-14614
▁عمرك	-14615
▁لوهي	-14616
▁مينو	-14617
▁مڙسن	-14618
▁ننهن	-14619
▁هالي	-14620
▁هنئي	-14621
▁والع	-14622
▁واڌو	-14623
▁وڇڙي	-14624
▁ياعم	-14625
▁ٽاري	-14626
▁ځواب	-14627
▁ڊسپو	-14628
▁ڊڪشن	-14629
▁کٽيو	-14630
▁ڪنگڻ	-14631
▁گهور	-14632
سٽريٽر	-14633
▁السجن	-14634
▁اُڀري	-14635
▁باهمي	-14636
▁بيهوش	-14637
▁تراني	-14638
▁تيسين	-14639
▁جانان	-14640
▁جنازي	-14641
▁جوڙيل	-14642
▁ذخيري	-14643
▁سانچا	-14644
▁شهريت	-14645
▁مانند	-14646
▁محبتن	-14647
▁مرندي	-14648
▁مشابه	-14649
▁موسمن	-14650
▁مڱريو	-14651
▁مھينو	-14652
▁وڪالت	-14653
▁پناهي	-14654
▁ڌرتيء	-14655
▁گهوڙا	-14656
ووووووو	-14657
▁اخواني	-14658
▁اٿائين	-14659
▁جراثيم	-14660
▁ديدگاه	-14661
▁سالميت	-14662
▁سوشلزم	-14663
▁سپاهين	-14664
▁شفافيت	-14665
▁مافهمت	-14666
▁ملاحظه	-14667
▁منظورت	-14668
▁وجهندي	-14669
▁ويهندا	-14670
▁ويڪيوم	-14671
▁ٻاراڻي	-14672
▁ڪاپيون	-14673
ائينديون	-14674
▁اسڪوائر	-14675
▁بمبئيءَ	-14676
▁ملنديون	-14677
▁واپسيءَ	-14678
▁ايجوڪيشن	-14679
▁سيٽلائيٽ	-14680
▁سگهياسين	-14681
▁پيٽروليم	-14682
▁throughout	-14683
▁هههههههههاي	-14684
CD	-14685
GH	-14686
RE	-14687
نڪ	-14688
ٍي	-14689
ٻه	-14690
پې	-14691
्र	-14692
▁۸	-14693
ike	-14694
جاج	-14695
حيح	-14696
داك	-14697
ساز	-14698
شات	-14699
كلي	-14700
وور	-14701
ڇاڻ	-14702
▁57	-14703
▁69	-14704
▁حٿ	-14705
▁کد	-14706
▁′′	-14707
ائڻو	-14708
اپيل	-14709
حضرت	-14710
درجه	-14711
هندس	-14712
▁13.	-14713
▁Sch	-14714
▁؟؟!	-14715
▁آٿت	-14716
▁ببخ	-14717
▁تخل	-14718
▁تهه	-14719
▁حقا	-14720
▁دلع	-14721
▁رتو	-14722
▁سكر	-14723
▁صلو	-14724
▁غصب	-14725
▁قطب	-14726
▁مطل	-14727
▁مچي	-14728
▁وقو	-14729
▁ڄمي	-14730
Cloud	-14731
aking	-14732
روشلم	-14733
لمپور	-14734
ويهين	-14735
ٽريشن	-14736
▁ever	-14737
▁آلله	-14738
▁ابشر	-14739
▁انڊي	-14740
▁بابو	-14741
▁بارك	-14742
▁بگير	-14743
▁تصير	-14744
▁جوجو	-14745
▁خخخخ	-14746
▁دارم	-14747
▁دختر	-14748
▁ذهبي	-14749
▁رچرڊ	-14750
▁سوئر	-14751
▁سودو	-14752
▁سڀڪو	-14753
▁شرعي	-14754
▁شركت	-14755
▁عمره	-14756
▁فولڊ	-14757
▁قبرن	-14758
▁لذيذ	-14759
▁ليور	-14760
▁مامو	-14761
▁مانَ	-14762
▁ماڻڻ	-14763
▁نامه	-14764
▁ناني	-14765
▁نبود	-14766
▁نكتة	-14767
▁نوره	-14768
▁وااا	-14769
▁وجهو	-14770
▁ورجا	-14771
▁وينا	-14772
▁يافت	-14773
▁يقدر	-14774
▁ٻيڙو	-14775
▁ٿيٽر	-14776
▁ڄائي	-14777
▁چاهن	-14778
▁چمڪي	-14779
▁چهرا	-14780
▁چهرن	-14781
▁ڌيئر	-14782
▁ڏوهي	-14783
▁ڪوٽا	-14784
▁گُهر	-14785
هااااي	-14786
▁اخراج	-14787
▁العال	-14788
▁العام	-14789
▁برهمڻ	-14790
▁تائيد	-14791
▁جامعه	-14792
▁رسمون	-14793
▁رنسون	-14794
▁سڌاري	-14795
▁عادتن	-14796
▁غالبا	-14797
▁غلامن	-14798
▁فٽنيس	-14799
▁قائدا	-14800
▁كلامي	-14801
▁مئٽرڪ	-14802
▁مجسمو	-14803
▁مسائل	-14804
▁مقابل	-14805
▁مقاله	-14806
▁ميٽرن	-14807
▁ناولن	-14808
▁نمياد	-14809
▁هارون	-14810
▁ٽائمز	-14811
▁پيشين	-14812
▁گاديء	-14813
▁گرفتن	-14814
▁گرمين	-14815
▁آفيسون	-14816
▁انتقال	-14817
▁ايڪسين	-14818
▁رپورٽر	-14819
▁عزيزتي	-14820
▁مضبوطي	-14821
▁منجهيل	-14822
▁ويچارا	-14823
▁وڙهندي	-14824
▁ياحليل	-14825
▁يروشلم	-14826
▁پيشاني	-14827
▁گاريون	-14828
ockchain	-14829
▁ارزيابي	-14830
▁المشكله	-14831
▁نوجواني	-14832
▁ٻاهرئين	-14833
▁پيروڪار	-14834
▁پليٽفارم	-14835
▁ڳالهايون	-14836
▁هههههههههههاي	-14837
94	-14838
MI	-14839
Pl	-14840
ml	-14841
ms	-14842
اڃ	-14843
سَ	-14844
طم	-14845
فض	-14846
وچ	-14847
يك	-14848
▁ْ	-14849
▁😀	-14850
olt	-14851
rol	-14852
the	-14853
أله	-14854
اور	-14855
باء	-14856
تير	-14857
ظار	-14858
قتل	-14859
مام	-14860
ملڪ	-14861
ٽوٽ	-14862
گلو	-14863
▁3،	-14864
▁67	-14865
▁77	-14866
▁86	-14867
▁Gr	-14868
▁Is	-14869
▁La	-14870
▁MO	-14871
▁ثم	-14872
▁وٿ	-14873
▁ٽِ	-14874
▁ڇِ	-14875
ians	-14876
uper	-14877
بيءَ	-14878
تنهن	-14879
توقع	-14880
ڪسين	-14881
▁(0)	-14882
▁Rob	-14883
▁^^"	-14884
▁det	-14885
▁اجر	-14886
▁ادل	-14887
▁انى	-14888
▁اوڏ	-14889
▁اية	-14890
▁بعي	-14891
▁بيب	-14892
▁بڪس	-14893
▁تبا	-14894
▁تڙپ	-14895
▁تکي	-14896
▁درب	-14897
▁رخص	-14898
▁رُو	-14899
▁سمت	-14900
▁سٽن	-14901
▁شرڪ	-14902
▁صوف	-14903
▁لكي	-14904
▁هڏن	-14905
▁وڌا	-14906
▁ٻاھ	-14907
▁ٻٻر	-14908
▁پُڄ	-14909
▁ڇپر	-14910
▁ڊنر	-14911
▁ڌنڌ	-14912
▁ڍڪي	-14913
اسلام	-14914
صيلات	-14915
▁1983	-14916
▁Word	-14917
▁good	-14918
▁آئرش	-14919
▁اصغر	-14920
▁التع	-14921
▁ايرو	-14922
▁بنان	-14923
▁تازن	-14924
▁تلفظ	-14925
▁جوئي	-14926
▁خرچي	-14927
▁دانه	-14928
▁روزا	-14929
▁سٹیل	-14930
▁سپنن	-14931
▁شوفو	-14932
▁صارت	-14933
▁لوڏي	-14934
▁محرو	-14935
▁مروه	-14936
▁مصرف	-14937
▁معلش	-14938
▁ناهه	-14939
▁نبوت	-14940
▁نبين	-14941
▁نقطا	-14942
▁هناك	-14943
▁وٺجي	-14944
▁يااا	-14945
▁يابو	-14946
▁يتيم	-14947
▁ٻاجھ	-14948
▁ٽريل	-14949
▁پاتل	-14950
▁پروت	-14951
▁پيءَ	-14952
▁چيمپ	-14953
▁کلاس	-14954
▁کنئي	-14955
▁ڪلهن	-14956
▁گرما	-14957
▁ڳنڍي	-14958
▁آثارن	-14959
▁آرڊين	-14960
▁اروپا	-14961
▁بخصوص	-14962
▁تبصرن	-14963
▁تدريس	-14964
▁تشڪيل	-14965
▁تغيير	-14966
▁تلاءَ	-14967
▁درياء	-14968
▁دلدار	-14969
▁راديو	-14970
▁روبرو	-14971
▁سخاوت	-14972
▁سرجري	-14973
▁قاعدي	-14974
▁مقدمو	-14975
▁منشور	-14976
▁مُرڪي	-14977
▁هونڊي	-14978
▁يعينك	-14979
▁پرايد	-14980
▁پسندن	-14981
▁پيانو	-14982
▁پُڇيو	-14983
▁ڪورسز	-14984
▁گرانٽ	-14985
▁گهيري	-14986
▁باورچی	-14987
▁تدريسي	-14988
▁تڪليفن	-14989
▁جبتيها	-14990
▁مجنونه	-14991
▁مشاهدي	-14992
▁هارائي	-14993
▁پرفارم	-14994
▁ڏينهون	-14995
▁گليڪسي	-14996
▁special	-14997
▁اخبارون	-14998
▁اعتمادي	-14999
▁اندرويد	-15000
▁رواداري	-15001
▁زندگيون	-15002
▁ماريندو	-15003
▁نمائندي	-15004
▁نياڻيون	-15005
▁هائوسنگ	-15006
▁ٽيمپليٽ	-15007
▁پوائنٽس	-15008
▁الحمدلله	-15009
▁بچائيندو	-15010
▁ٻڌائيندس	-15011
▁Blackjack	-15012
▁يونائيٽيڊ	-15013
92	-15014
mg	-15015
تُ	-15016
شس	-15017
▁۶	-15018
▁≤	-15019
,,,	-15020
ane	-15021
oto	-15022
urs	-15023
ئڙا	-15024
ججي	-15025
جيه	-15026
دول	-15027
قيب	-15028
مرد	-15029
هيا	-15030
هير	-15031
يلي	-15032
ييه	-15033
پلس	-15034
کري	-15035
ڪير	-15036
▁CF	-15037
▁fr	-15038
▁،.	-15039
▁عُ	-15040
▁لڇ	-15041
----	-15042
echn	-15043
used	-15044
اريه	-15045
الها	-15046
بيان	-15047
ظيمي	-15048
ماسي	-15049
منين	-15050
▁Bit	-15051
▁Gem	-15052
▁Res	-15053
▁اوو	-15054
▁بپر	-15055
▁تات	-15056
▁خخخ	-15057
▁راش	-15058
▁رعب	-15059
▁رهف	-15060
▁عرش	-15061
▁لبر	-15062
▁لپي	-15063
▁محو	-15064
▁مفا	-15065
▁نست	-15066
▁نکن	-15067
▁هسه	-15068
▁هوُ	-15069
▁وسط	-15070
▁ومش	-15071
▁ياك	-15072
▁پڄي	-15073
▁چتر	-15074
▁چُپ	-15075
▁کڻو	-15076
▁گھن	-15077
ology	-15078
▁1974	-15079
▁Coin	-15080
▁آندل	-15081
▁احبك	-15082
▁احمق	-15083
▁السر	-15084
▁المع	-15085
▁اوست	-15086
▁اِھو	-15087
▁بالك	-15088
▁بڇڙو	-15089
▁تكلم	-15090
▁جوڀن	-15091
▁خامي	-15092
▁دهيد	-15093
▁رفيق	-15094
▁روزن	-15095
▁ريشم	-15096
▁زيرو	-15097
▁ساڍا	-15098
▁عابد	-15099
▁علاء	-15100
▁غدير	-15101
▁قاصد	-15102
▁قمبر	-15103
▁كنتي	-15104
▁لحال	-15105
▁لوئي	-15106
▁ماپي	-15107
▁مراج	-15108
▁مشرق	-15109
▁نهاد	-15110
▁نگري	-15111
▁هنجي	-15112
▁ووٽن	-15113
▁وڪام	-15114
▁يرحم	-15115
▁ٽاسڪ	-15116
▁ٽيلر	-15117
▁ٽينڪ	-15118
▁پنبه	-15119
▁پولس	-15120
▁پڙھو	-15121
▁ٿيڻي	-15122
▁چريا	-15123
▁ڇڪيل	-15124
▁ڍڪيل	-15125
▁ڏاهي	-15126
▁کنيل	-15127
▁گويا	-15128
ritten	-15129
ڪاريءَ	-15130
▁other	-15131
▁still	-15132
▁اعتقد	-15133
▁اندام	-15134
▁باقائ	-15135
▁برطرف	-15136
▁تاڪيد	-15137
▁ترديد	-15138
▁تعاقب	-15139
▁تمرين	-15140
▁جوائن	-15141
▁جواهر	-15142
▁خيرها	-15143
▁رهيبه	-15144
▁ريڊمي	-15145
▁زمينه	-15146
▁سنئين	-15147
▁سوچين	-15148
▁سڌارن	-15149
▁غداري	-15150
▁فرائض	-15151
▁لکيون	-15152
▁محنتي	-15153
▁موديل	-15154
▁نااهل	-15155
▁ندارم	-15156
▁نظارا	-15157
▁نوازش	-15158
▁هستيد	-15159
▁وراڻي	-15160
▁ويجها	-15161
▁ٻڌايل	-15162
▁ٽوٽڪا	-15163
▁پروپي	-15164
▁پهاڪا	-15165
▁کوجنا	-15166
▁ڪوٽڙي	-15167
▁ڪوڊنگ	-15168
▁گهوڙو	-15169
ااااااي	-15170
ينداسين	-15171
▁اسٽورن	-15172
▁افريقا	-15173
▁الائجي	-15174
▁امدادي	-15175
▁انحراف	-15176
▁اولمپڪ	-15177
▁تعليقك	-15178
▁ردودكم	-15179
▁روئندي	-15180
▁سرحدون	-15181
▁ماليات	-15182
▁مممممم	-15183
▁ميدوني	-15184
▁هٿرادو	-15185
▁ويڊيوز	-15186
▁ٺهراءُ	-15187
▁ٻارنهن	-15188
▁پڌرائي	-15189
▁چارجنگ	-15190
▁چانڊيو	-15191
▁ڏيندين	-15192
الالمپور	-15193
▁bitcoin	-15194
▁انجليزي	-15195
▁انيميشن	-15196
▁رجحانات	-15197
▁رکيائين	-15198
▁متاثرين	-15199
▁ويتامين	-15200
▁پاليندڙ	-15201
▁پيشنهاد	-15202
▁ڀائيوار	-15203
▁ڪميونزم	-15204
▁specific	-15205
▁بندرگاهن	-15206
▁ويبسائيٽ	-15207
▁پارٽنرشپ	-15208
▁پاڪستانين	-15209
▁يونيورسٽيء	-15210
▁ڳالهائينداسين	-15211
,5	-15212
91	-15213
PE	-15214
SA	-15215
UN	-15216
gl	-15217
~~	-15218
آع	-15219
ؤس	-15220
جس	-15221
غط	-15222
ٻن	-15223
ڑھ	-15224
کی	-15225
र्	-15226
▁◆	-15227
="7	-15228
cle	-15229
for	-15230
ich	-15231
lol	-15232
oly	-15233
way	-15234
ئيل	-15235
الس	-15236
اگر	-15237
اڳو	-15238
تيا	-15239
جتي	-15240
حيه	-15241
خوف	-15242
دتي	-15243
زما	-15244
سچو	-15245
طرس	-15246
فور	-15247
ككك	-15248
هنن	-15249
ووم	-15250
ٽيز	-15251
ینڈ	-15252
▁72	-15253
▁97	-15254
▁9:	-15255
▁Ab	-15256
▁CR	-15257
▁if	-15258
▁آڵ	-15259
▁دڳ	-15260
▁كث	-15261
ئرنگ	-15262
بانه	-15263
رادي	-15264
غذيه	-15265
ڪاءُ	-15266
گونه	-15267
▁(18	-15268
▁140	-15269
▁18.	-15270
▁Dec	-15271
▁Gal	-15272
▁May	-15273
▁آنآ	-15274
▁أول	-15275
▁إلا	-15276
▁اتش	-15277
▁ادر	-15278
▁تفك	-15279
▁تهن	-15280
▁حجت	-15281
▁رجب	-15282
▁رھن	-15283
▁سبي	-15284
▁ستم	-15285
▁شاپ	-15286
▁فاش	-15287
▁لنچ	-15288
▁لڌا	-15289
▁ملك	-15290
▁نَه	-15291
▁ويھ	-15292
▁ياا	-15293
▁ٽپي	-15294
▁چير	-15295
▁ڇٽي	-15296
▁کام	-15297
arius	-15298
لاطون	-15299
▁1965	-15300
▁اسپر	-15301
▁العم	-15302
▁امسك	-15303
▁اوله	-15304
▁ايبل	-15305
▁ايڊو	-15306
▁ايڪي	-15307
▁بدري	-15308
▁بندن	-15309
▁تالي	-15310
▁تلاء	-15311
▁تنوع	-15312
▁جابر	-15313
▁جاچڻ	-15314
▁جداً	-15315
▁جولي	-15316
▁جوڙن	-15317
▁رجوع	-15318
▁سندا	-15319
▁سيرت	-15320
▁سيري	-15321
▁عبار	-15322
▁فورا	-15323
▁قابض	-15324
▁لاكن	-15325
▁لاڳت	-15326
▁لعبه	-15327
▁لولي	-15328
▁مدام	-15329
▁منجي	-15330
▁ميگم	-15331
▁هاذي	-15332
▁وصال	-15333
▁پھچڻ	-15334
▁چرچو	-15335
▁ڊائن	-15336
▁ڦاڙي	-15337
▁ڪبير	-15338
▁ھندو	-15339
ically	-15340
الفقار	-15341
▁Nexus	-15342
▁آسپاس	-15343
▁آمريت	-15344
▁اٿاري	-15345
▁اڻڄاڻ	-15346
▁بمقاب	-15347
▁تجهيز	-15348
▁ترجما	-15349
▁تفاوت	-15350
▁تماشو	-15351
▁داريد	-15352
▁سيستم	-15353
▁سٺيون	-15354
▁سڌائي	-15355
▁شوراي	-15356
▁ظالمن	-15357
▁لهندو	-15358
▁لڳايا	-15359
▁ماشين	-15360
▁ماڊرن	-15361
▁ملاڪا	-15362
▁هاشمي	-15363
▁هڻندا	-15364
▁وهندڙ	-15365
▁وڏيءَ	-15366
▁چهارم	-15367
▁ڪربلا	-15368
▁گھرجن	-15369
▁اجرائي	-15370
▁باصلاح	-15371
▁بيانيه	-15372
▁تحريرن	-15373
▁رومانس	-15374
▁سهائتا	-15375
▁مرسيدس	-15376
▁مسكينه	-15377
▁ورچوئل	-15378
▁ويهندي	-15379
▁ياقلبي	-15380
▁ٺهڪندڙ	-15381
▁ٽرانسپ	-15382
▁چانورن	-15383
▁اسڪيننگ	-15384
▁بينڪننگ	-15385
▁ترڪيبون	-15386
▁تفصيلات	-15387
▁خوشبوءِ	-15388
▁دڪاندار	-15389
▁سامراجي	-15390
▁هيونداي	-15391
▁ڪلوگرام	-15392
▁business	-15393
▁پروڊيوسر	-15394
▁ڏياريندڙ	-15395
▁ڪيستائين	-15396
اااااااااااا	-15397
5"	-15398
DP	-15399
TF	-15400
صة	-15401
ہَ	-15402
▁ٹ	-15403
▁♡	-15404
ena	-15405
ths	-15406
ven	-15407
www	-15408
yst	-15409
ازو	-15410
جھي	-15411
خته	-15412
خطي	-15413
دها	-15414
ذكر	-15415
سمه	-15416
شاء	-15417
طيف	-15418
قتك	-15419
همك	-15420
هڻو	-15421
ونس	-15422
ووا	-15423
يڪن	-15424
پڙي	-15425
یکٹ	-15426
▁66	-15427
▁It	-15428
▁sl	-15429
▁vi	-15430
▁؟.	-15431
▁ءِ	-15432
▁أب	-15433
▁اڊ	-15434
▁ند	-15435
▁وظ	-15436
▁پښ	-15437
ersh	-15438
wiki	-15439
آوري	-15440
انوس	-15441
سندس	-15442
ناها	-15443
نايو	-15444
ووول	-15445
ڪومت	-15446
▁19.	-15447
▁rep	-15448
▁آفر	-15449
▁ابل	-15450
▁افق	-15451
▁اهه	-15452
▁برخ	-15453
▁برك	-15454
▁بيض	-15455
▁بُک	-15456
▁بگا	-15457
▁تاپ	-15458
▁حزب	-15459
▁زوم	-15460
▁سوف	-15461
▁شدي	-15462
▁عيا	-15463
▁فدا	-15464
▁فلڪ	-15465
▁كأن	-15466
▁مئج	-15467
▁مصل	-15468
▁هوي	-15469
▁وند	-15470
▁وها	-15471
▁ٻڌن	-15472
▁ڀرت	-15473
▁ڍڪڻ	-15474
▁ڏاک	-15475
▁ڏنم	-15476
▁کيل	-15477
▁ڪهي	-15478
▁گذا	-15479
▁گني	-15480
▁گھي	-15481
▁ھفت	-15482
لاميه	-15483
مارڪس	-15484
▁1940	-15485
▁More	-15486
▁ائنڊ	-15487
▁اخوك	-15488
▁استغ	-15489
▁اهنگ	-15490
▁اوسر	-15491
▁اوچي	-15492
▁اٿوَ	-15493
▁بروح	-15494
▁تطبي	-15495
▁توضي	-15496
▁جنان	-15497
▁جويو	-15498
▁حليل	-15499
▁خنجر	-15500
▁دعوا	-15501
▁دكتر	-15502
▁شيوه	-15503
▁فريق	-15504
▁فلاس	-15505
▁قضيه	-15506
▁لنگر	-15507
▁مازن	-15508
▁موفق	-15509
▁هوئي	-15510
▁وايو	-15511
▁وحشت	-15512
▁ٺاھي	-15513
▁ٽائل	-15514
▁ٽيهن	-15515
▁ٿئين	-15516
▁ڀيٽا	-15517
▁چورن	-15518
▁چيري	-15519
▁ڊوڙڻ	-15520
▁کاهش	-15521
▁گوئي	-15522
▁گوتم	-15523
▁گڏيو	-15524
▁اثاثا	-15525
▁اجراي	-15526
▁العلم	-15527
▁العنو	-15528
▁العين	-15529
▁اوچتي	-15530
▁اڇليو	-15531
▁بتعرف	-15532
▁بهانو	-15533
▁تقولي	-15534
▁جڳائي	-15535
▁زلزلو	-15536
▁سرشتو	-15537
▁سومرا	-15538
▁فاضيه	-15539
▁ليبرا	-15540
▁مدرسي	-15541
▁مشتاق	-15542
▁مقالا	-15543
▁مقصود	-15544
▁منجھس	-15545
▁موصول	-15546
▁ننڍڙن	-15547
▁وشكرا	-15548
▁وهائي	-15549
▁وڌايل	-15550
▁پرامن	-15551
▁پليجو	-15552
▁پولنگ	-15553
▁پيامك	-15554
▁پکيڙڻ	-15555
▁ڪوئلي	-15556
▁ڳوڙهن	-15557
سيتائين	-15558
▁انسائي	-15559
▁بادشاه	-15560
▁برفاني	-15561
▁بيئرنگ	-15562
▁تاثرات	-15563
▁جواسين	-15564
▁جولائي	-15565
▁سرفراز	-15566
▁عادتون	-15567
▁مباحثي	-15568
▁ورهاست	-15569
▁يوگنڊا	-15570
▁ٽريڪٽر	-15571
▁ڪليڪٽر	-15572
▁ڪنٽينر	-15573
▁ڪيوسين	-15574
▁اتحادين	-15575
▁بدلجندڙ	-15576
▁رانديڪا	-15577
▁شڪايتون	-15578
▁لانڊرنگ	-15579
▁والاريل	-15580
▁ڏيکاريون	-15581
DA	-15582
MC	-15583
UB	-15584
زس	-15585
مض	-15586
يع	-15587
ڳر	-15588
▁स	-15589
027	-15590
agn	-15591
eck	-15592
rog	-15593
umb	-15594
اقف	-15595
خري	-15596
دعا	-15597
زني	-15598
سلز	-15599
عنى	-15600
لاج	-15601
واڻ	-15602
پلي	-15603
ډيا	-15604
▁68	-15605
▁71	-15606
▁92	-15607
▁di	-15608
▁op	-15609
▁رئ	-15610
▁عِ	-15611
▁لڱ	-15612
▁چچ	-15613
▁ڏه	-15614
33">	-15615
raft	-15616
ئيٽر	-15617
الهم	-15618
خيلي	-15619
ندوق	-15620
ونين	-15621
يلنس	-15622
▁Aff	-15623
▁Tik	-15624
▁sol	-15625
▁أجل	-15626
▁أني	-15627
▁الْ	-15628
▁بلٽ	-15629
▁بنف	-15630
▁بڻي	-15631
▁خيز	-15632
▁رمو	-15633
▁زنا	-15634
▁سِڪ	-15635
▁شبه	-15636
▁شبي	-15637
▁شکل	-15638
▁عاا	-15639
▁غصي	-15640
▁ماڊ	-15641
▁محا	-15642
▁مسل	-15643
▁ياق	-15644
▁يسم	-15645
▁ٽما	-15646
▁پاك	-15647
▁پيز	-15648
▁ڊيڊ	-15649
▁ڊڄڻ	-15650
▁ھڻڻ	-15651
ional	-15652
izing	-15653
انيزم	-15654
ميٽرن	-15655
نياتي	-15656
▁اخير	-15657
▁اطلع	-15658
▁انڌا	-15659
▁اگها	-15660
▁بازو	-15661
▁بالت	-15662
▁بجاء	-15663
▁تاكل	-15664
▁تعبت	-15665
▁تفكر	-15666
▁جمعو	-15667
▁جميع	-15668
▁جوءِ	-15669
▁راڻو	-15670
▁رشته	-15671
▁سلها	-15672
▁شبكه	-15673
▁شرجي	-15674
▁طالع	-15675
▁فلڪس	-15676
▁كنيد	-15677
▁للتو	-15678
▁لمحا	-15679
▁ليها	-15680
▁ماڻس	-15681
▁مشهو	-15682
▁مقطع	-15683
▁ميڊل	-15684
▁ناھن	-15685
▁نسخه	-15686
▁نفعو	-15687
▁نقطن	-15688
▁نژاد	-15689
▁وجھڻ	-15690
▁يادش	-15691
▁يسوي	-15692
▁پريو	-15693
▁پهچن	-15694
▁پيئر	-15695
▁پيلي	-15696
▁پڇان	-15697
▁کارو	-15698
▁ڪرپٽ	-15699
▁ڪپور	-15700
▁الخير	-15701
▁بنگال	-15702
▁ترغيب	-15703
▁ترکيه	-15704
▁تغذيه	-15705
▁تقليد	-15706
▁خطيره	-15707
▁دوڪان	-15708
▁رائعه	-15709
▁زبانن	-15710
▁سجاول	-15711
▁سعادت	-15712
▁سڃاتل	-15713
▁غريبة	-15714
▁مارڪي	-15715
▁مشاري	-15716
▁معشوق	-15717
▁مقالو	-15718
▁مچائي	-15719
▁مھمان	-15720
▁نهارڻ	-15721
▁چائنا	-15722
▁چارئي	-15723
▁ڪارين	-15724
▁گرميء	-15725
▁گزينه	-15726
▁آڱريون	-15727
▁امريکا	-15728
▁بدنامي	-15729
▁ديوارن	-15730
▁رجحانن	-15731
▁سازگار	-15732
▁عقلمند	-15733
▁فهرستن	-15734
▁فيڪلٽي	-15735
▁لمرورك	-15736
▁ٻُڌايو	-15737
▁پيشواز	-15738
▁ڪارآمد	-15739
▁ڪلائوڊ	-15740
▁ديوتائن	-15741
▁غلاميءَ	-15742
▁مظاهرين	-15743
▁پائيندو	-15744
▁پرتگالي	-15745
▁پريميئم	-15746
▁پونديون	-15747
▁ڊيزائين	-15748
▁ڪچهريءَ	-15749
▁باصلاحيت	-15750
▁لايفوتكم	-15751
▁موڪليندڙ	-15752
▁هيستائين	-15753
▁سفارتخاني	-15754
▁مئنيجمينٽ	-15755
▁وراڻيائين	-15756
7"	-15757
ME	-15758
SS	-15759
sc	-15760
اٺ	-15761
ظة	-15762
غت	-15763
كَ	-15764
وڃ	-15765
ْن	-15766
ڄڻ	-15767
***	-15768
ues	-15769
؟؟!	-15770
اڳي	-15771
جيڪ	-15772
زوز	-15773
سبز	-15774
شتم	-15775
شيو	-15776
ٽيج	-15777
پپي	-15778
ڏسو	-15779
گاھ	-15780
گنگ	-15781
گهٽ	-15782
ڳوٺ	-15783
▁":	-15784
▁93	-15785
▁Av	-15786
▁Fl	-15787
▁Or	-15788
▁so	-15789
▁بې	-15790
▁ذی	-15791
▁شُ	-15792
▁كش	-15793
▁ٻہ	-15794
▁کړ	-15795
▁ڳل	-15796
ائِي	-15797
ابول	-15798
احبه	-15799
اليا	-15800
اھيو	-15801
جيءَ	-15802
حححح	-15803
ديرو	-15804
ديري	-15805
رانه	-15806
راهٽ	-15807
زززز	-15808
سكري	-15809
سمان	-15810
شاهي	-15811
مانه	-15812
هارڻ	-15813
وريٽ	-15814
پيئن	-15815
▁000	-15816
▁130	-15817
▁22.	-15818
▁25.	-15819
▁Rec	-15820
▁cas	-15821
▁two	-15822
▁اُل	-15823
▁اٽل	-15824
▁اگھ	-15825
▁بتو	-15826
▁بلد	-15827
▁جزن	-15828
▁جود	-15829
▁حشر	-15830
▁دهه	-15831
▁دڙو	-15832
▁فوم	-15833
▁قون	-15834
▁لاف	-15835
▁لذت	-15836
▁نقا	-15837
▁نكر	-15838
▁هوو	-15839
▁واد	-15840
▁وبت	-15841
▁وسڻ	-15842
▁ٽرن	-15843
▁کنڀ	-15844
▁کِل	-15845
ments	-15846
اوھين	-15847
فرانس	-15848
پارڪر	-15849
ڙيندو	-15850
▁1945	-15851
▁1972	-15852
▁1981	-15853
▁1986	-15854
▁disc	-15855
▁آرڪي	-15856
▁احبه	-15857
▁اصلو	-15858
▁اظهر	-15859
▁الرو	-15860
▁الهه	-15861
▁ايوة	-15862
▁ايٿو	-15863
▁بطني	-15864
▁بقيه	-15865
▁بنجڻ	-15866
▁بوءِ	-15867
▁تجري	-15868
▁تروح	-15869
▁دائم	-15870
▁دانا	-15871
▁رحلت	-15872
▁ساجد	-15873
▁سالڪ	-15874
▁عالا	-15875
▁فاصل	-15876
▁كلمه	-15877
▁ماءِ	-15878
▁ماڪو	-15879
▁مرکز	-15880
▁معها	-15881
▁منير	-15882
▁مولو	-15883
▁مولي	-15884
▁مٽجي	-15885
▁نايم	-15886
▁نبات	-15887
▁نيرن	-15888
▁هيات	-15889
▁وردي	-15890
▁يوري	-15891
▁پرنس	-15892
▁پطرس	-15893
▁پٽيو	-15894
▁پڇيا	-15895
▁ڄاتل	-15896
▁ڊريس	-15897
▁ڊگھو	-15898
▁ڪارل	-15899
▁ڪالا	-15900
▁ڪوهي	-15901
▁ڪيئر	-15902
▁گستا	-15903
ecause	-15904
▁Crypt	-15905
▁years	-15906
▁آرامي	-15907
▁الليل	-15908
▁امسال	-15909
▁اوپري	-15910
▁بضحكه	-15911
▁بلاشڪ	-15912
▁بهتره	-15913
▁تدوين	-15914
▁تلاوت	-15915
▁جامدة	-15916
▁جتوئي	-15917
▁جيئرا	-15918
▁ريشمي	-15919
▁سمسنگ	-15920
▁سنگيت	-15921
▁شڪاري	-15922
▁قبولي	-15923
▁لهندي	-15924
▁مربوط	-15925
▁مرندو	-15926
▁معاها	-15927
▁نڀائي	-15928
▁هيڪرز	-15929
▁هڻندي	-15930
▁ويانا	-15931
▁ٻڌندڙ	-15932
▁ٽيڪني	-15933
▁پذيرش	-15934
▁پوريء	-15935
▁پوشاڪ	-15936
▁پوکيو	-15937
▁پيرسن	-15938
▁الرياض	-15939
▁الظاهر	-15940
▁تحصيلي	-15941
▁جڳهيون	-15942
▁رڪاوٽن	-15943
▁سفارتي	-15944
▁گهٽيءَ	-15945
▁السياره	-15946
▁ايڊيشنل	-15947
▁خصوصيتن	-15948
▁دواسازي	-15949
▁سمجهندي	-15950
▁شماريات	-15951
▁عربستان	-15952
▁لکيائين	-15953
▁ماحوليات	-15954
▁پروموشنل	-15955
▁Stainless	-15956
▁اقتصاديات	-15957
▁سنڀاليندڙ	-15958
5-	-15959
pb	-15960
ءء	-15961
آص	-15962
تى	-15963
دُ	-15964
زع	-15965
فخ	-15966
وى	-15967
▁٠	-15968
ica	-15969
ift	-15970
آيد	-15971
امج	-15972
جيس	-15973
دال	-15974
شيه	-15975
فكر	-15976
قيع	-15977
لمه	-15978
هاش	-15979
هام	-15980
چيو	-15981
ڪنگ	-15982
گور	-15983
▁(7	-15984
▁(8	-15985
▁++	-15986
▁76	-15987
▁::	-15988
▁كأ	-15989
▁هے	-15990
▁يص	-15991
▁ڪب	-15992
icon	-15993
ارني	-15994
الٽي	-15995
ايڪس	-15996
نيڊا	-15997
وريت	-15998
ويءَ	-15999
ھرست	-16000
▁450	-16001
▁Law	-16002
▁ODM	-16003
▁reg	-16004
▁آلم	-16005
▁آيم	-16006
▁انز	-16007
▁اٽي	-16008
▁بكم	-16009
▁تره	-16010
▁تكت	-16011
▁حاس	-16012
▁حول	-16013
▁سهم	-16014
▁صرت	-16015
▁ليز	-16016
▁ماك	-16017
▁مغز	-16018
▁ملف	-16019
▁مُک	-16020
▁هام	-16021
▁هرڻ	-16022
▁هور	-16023
▁ولم	-16024
▁وَر	-16025
▁ٽئڪ	-16026
▁پسڻ	-16027
▁ڀڳل	-16028
▁چئه	-16029
▁چيا	-16030
▁ڊيش	-16031
▁ڍور	-16032
▁کڙڪ	-16033
▁ھٿن	-16034
▁ھڻي	-16035
ufact	-16036
جهڙوڪ	-16037
▁(1).	-16038
▁find	-16039
▁اسپن	-16040
▁التر	-16041
▁بشرط	-16042
▁تجيب	-16043
▁تعوي	-16044
▁توڻي	-16045
▁جوڻي	-16046
▁خانن	-16047
▁خدشو	-16048
▁خفيف	-16049
▁سرڪل	-16050
▁سكسي	-16051
▁شوڪت	-16052
▁شھرن	-16053
▁قدمي	-16054
▁قيصر	-16055
▁كويس	-16056
▁مائن	-16057
▁ماحد	-16058
▁مبين	-16059
▁مولڊ	-16060
▁مونٽ	-16061
▁ميڙي	-16062
▁نظيف	-16063
▁هُيو	-16064
▁والح	-16065
▁ٺھيل	-16066
▁پاڇي	-16067
▁پاڳل	-16068
▁پناھ	-16069
▁پنهل	-16070
▁چرٻي	-16071
▁ڌمڪي	-16072
▁ڏاڏا	-16073
▁ڦيرو	-16074
▁کرده	-16075
▁کشور	-16076
▁ڪيري	-16077
▁https	-16078
▁اسڪري	-16079
▁افراد	-16080
▁انٽيل	-16081
▁اهڃاڻ	-16082
▁اٿئون	-16083
▁بتقول	-16084
▁تأثير	-16085
▁تحسين	-16086
▁ثالثي	-16087
▁خلافت	-16088
▁خودرو	-16089
▁ذخيره	-16090
▁ريڪٽر	-16091
▁لاپرو	-16092
▁ماقدر	-16093
▁منجهن	-16094
▁ميراث	-16095
▁هڻندو	-16096
▁واتان	-16097
▁واهپي	-16098
▁وڏيرو	-16099
▁پرچار	-16100
▁پهاڪن	-16101
▁چانور	-16102
▁چڙهيو	-16103
▁ڪينيا	-16104
▁ڪھاڻي	-16105
▁iCloud	-16106
▁اقليتن	-16107
▁المدير	-16108
▁انعامن	-16109
▁ايڪسپل	-16110
▁ببخشيد	-16111
▁بوتلون	-16112
▁تقولين	-16113
▁دهليءَ	-16114
▁ماادري	-16115
▁مصطفيٰ	-16116
▁مصيبتن	-16117
▁مطالبا	-16118
▁مطالبي	-16119
▁وجهندو	-16120
▁چاکليٽ	-16121
▁ڪاوڙيل	-16122
▁گلوڪوز	-16123
▁افلاطون	-16124
▁بيوقوفي	-16125
▁پٺڀرائي	-16126
▁ڪارنامو	-16127
▁اسٽينڊنگ	-16128
▁اميگريشن	-16129
▁حسابداري	-16130
▁ڪلوميٽرن	-16131
▁جغرافيائي	-16132
هههههههههاي	-16133
▁ايپليڪيشنز	-16134
06	-16135
58	-16136
MP	-16137
OC	-16138
ao	-16139
by	-16140
آق	-16141
حس	-16142
كض	-16143
ٿم	-16144
ڙَ	-16145
▁ى	-16146
5">	-16147
Tok	-16148
aid	-16149
ani	-16150
elf	-16151
esc	-16152
ئنگ	-16153
ترا	-16154
ذاء	-16155
ذهب	-16156
زيب	-16157
زير	-16158
سور	-16159
طيب	-16160
مخت	-16161
مور	-16162
ولس	-16163
ونة	-16164
وها	-16165
يلة	-16166
ڙون	-16167
کرد	-16168
کلي	-16169
▁83	-16170
▁bu	-16171
▁et	-16172
▁ڳڙ	-16173
▁ھز	-16174
wide	-16175
ائرس	-16176
ااان	-16177
زيبل	-16178
ساله	-16179
سٽسٽ	-16180
شرتي	-16181
يران	-16182
ينوس	-16183
▁Mar	-16184
▁آرو	-16185
▁أحب	-16186
▁الظ	-16187
▁اير	-16188
▁بيج	-16189
▁تپي	-16190
▁جور	-16191
▁دهي	-16192
▁ديه	-16193
▁دٻو	-16194
▁سڪا	-16195
▁شني	-16196
▁شکر	-16197
▁طبا	-16198
▁ظفر	-16199
▁كات	-16200
▁كما	-16201
▁للب	-16202
▁لنو	-16203
▁ليل	-16204
▁نوم	-16205
▁هيئ	-16206
▁گهٻ	-16207
▁ھيس	-16208
▁۲۰۱	-16209
align	-16210
arket	-16211
ights	-16212
ollow	-16213
ready	-16214
ابيطس	-16215
انهين	-16216
حقيقي	-16217
فيديو	-16218
نيشيم	-16219
▁1967	-16220
▁from	-16221
▁hand	-16222
▁mult	-16223
▁استف	-16224
▁اسڪي	-16225
▁ايشن	-16226
▁بوند	-16227
▁تحفه	-16228
▁تقدر	-16229
▁جيڏو	-16230
▁داڻا	-16231
▁دوني	-16232
▁ذرات	-16233
▁سرمد	-16234
▁شعرن	-16235
▁شناس	-16236
▁فرضن	-16237
▁قالو	-16238
▁لاتو	-16239
▁لانك	-16240
▁لطفا	-16241
▁لولو	-16242
▁ليڪس	-16243
▁مانع	-16244
▁مداف	-16245
▁مشير	-16246
▁مکان	-16247
▁هولو	-16248
▁هينڊ	-16249
▁والم	-16250
▁وجهك	-16251
▁ويلز	-16252
▁يادت	-16253
▁يبقى	-16254
▁يوكن	-16255
▁پيسو	-16256
▁چارڻ	-16257
▁چاچو	-16258
▁چهره	-16259
▁چُڪو	-16260
▁ڊاري	-16261
▁کُلي	-16262
▁ڪوڙن	-16263
▁Trans	-16264
▁؟؟؟؟؟	-16265
▁اتخيل	-16266
▁اسئلة	-16267
▁اشتري	-16268
▁اشياء	-16269
▁اغاني	-16270
▁النوم	-16271
▁اميدي	-16272
▁اهداف	-16273
▁بيلنس	-16274
▁تصنيف	-16275
▁جاسوس	-16276
▁جبتها	-16277
▁جمالي	-16278
▁جنايت	-16279
▁ذهنيت	-16280
▁زڪوات	-16281
▁سجايو	-16282
▁سرسبز	-16283
▁صندوق	-16284
▁صوفين	-16285
▁ضحكني	-16286
▁عارفه	-16287
▁عليڪم	-16288
▁فاهمه	-16289
▁لساني	-16290
▁لينڪس	-16291
▁مؤمنن	-16292
▁معاصر	-16293
▁مڙيئي	-16294
▁ناخوش	-16295
▁نامور	-16296
▁نعمتن	-16297
▁وڄائڻ	-16298
▁پکيءَ	-16299
▁ٿامسن	-16300
▁کيفيت	-16301
▁گانڌي	-16302
▁گرامر	-16303
▁direct	-16304
▁الجميع	-16305
▁انديشو	-16306
▁انچارج	-16307
▁انگيزه	-16308
▁برساتن	-16309
▁بنگالي	-16310
▁حيواني	-16311
▁دنياوي	-16312
▁سانگهڙ	-16313
▁سينيٽر	-16314
▁ماعندي	-16315
▁مشابهت	-16316
▁موافقت	-16317
▁نداريم	-16318
▁نظريات	-16319
▁نيڪالي	-16320
▁ٻارهين	-16321
▁پوريءَ	-16322
▁پڄاڻان	-16323
وڪيپيڊيا	-16324
▁افتتاحي	-16325
▁ايرانسل	-16326
▁تبليغات	-16327
▁دانشورن	-16328
▁ذیابيطس	-16329
▁رانديڪن	-16330
▁مسافرتي	-16331
▁ٽرمينلز	-16332
▁پروتئين	-16333
▁پروڊڪشن	-16334
▁انسپيڪٽر	-16335
▁پوائنٽون	-16336
▁اڪائونٽنگ	-16337
83	-16338
AX	-16339
حط	-16340
طق	-16341
هہ	-16342
کِ	-16343
گٽ	-16344
یڈ	-16345
▁u	-16346
add	-16347
ali	-16348
ied	-16349
ute	-16350
آيا	-16351
ئيو	-16352
بحث	-16353
خار	-16354
شهد	-16355
يوب	-16356
ڊاڪ	-16357
▁79	-16358
▁Go	-16359
▁He	-16360
▁زِ	-16361
▁ضع	-16362
▁چک	-16363
acks	-16364
ones	-16365
raph	-16366
reat	-16367
آآآي	-16368
اتكم	-16369
بندن	-16370
خانو	-16371
شوري	-16372
صاحب	-16373
عدني	-16374
كتاب	-16375
هنجي	-16376
ڪيئن	-16377
▁2-3	-16378
▁2.2	-16379
▁3.0	-16380
▁Air	-16381
▁wag	-16382
▁اصد	-16383
▁بطن	-16384
▁بله	-16385
▁بمن	-16386
▁تاي	-16387
▁توپ	-16388
▁جيٽ	-16389
▁جھن	-16390
▁خپل	-16391
▁ديم	-16392
▁راف	-16393
▁رجل	-16394
▁زده	-16395
▁سلف	-16396
▁لءِ	-16397
▁لاج	-16398
▁لهو	-16399
▁لوڏ	-16400
▁لڌي	-16401
▁محم	-16402
▁ملز	-16403
▁منڊ	-16404
▁نبا	-16405
▁همي	-16406
▁هيب	-16407
▁ڄڻو	-16408
▁ڍنگ	-16409
▁ڪوي	-16410
▁گود	-16411
asing	-16412
rying	-16413
يندڙن	-16414
پېډيا	-16415
▁book	-16416
▁vari	-16417
▁آڇون	-16418
▁أختي	-16419
▁ازدو	-16420
▁ازين	-16421
▁اهلي	-16422
▁اوون	-16423
▁اگلا	-16424
▁بالح	-16425
▁بالف	-16426
▁بنفس	-16427
▁بواس	-16428
▁بيست	-16429
▁بڻجن	-16430
▁تقاض	-16431
▁تهذي	-16432
▁جلوي	-16433
▁جيني	-16434
▁حالك	-16435
▁حجاب	-16436
▁حسام	-16437
▁دارن	-16438
▁رابط	-16439
▁راسه	-16440
▁رسيو	-16441
▁سارة	-16442
▁سجاد	-16443
▁سودي	-16444
▁سوسو	-16445
▁سُون	-16446
▁شعار	-16447
▁شعبا	-16448
▁صفات	-16449
▁صنفن	-16450
▁عمان	-16451
▁غيبت	-16452
▁لهجو	-16453
▁لکڻي	-16454
▁محرڪ	-16455
▁مطرح	-16456
▁مينا	-16457
▁نظرب	-16458
▁نوين	-16459
▁نڪرن	-16460
▁هستن	-16461
▁هقول	-16462
▁وريو	-16463
▁وصيت	-16464
▁وقفو	-16465
▁ويلن	-16466
▁وٺڻو	-16467
▁يابت	-16468
▁يختي	-16469
▁يوفق	-16470
▁ٺهڪي	-16471
▁ٻهرا	-16472
▁ٽولو	-16473
▁پاتي	-16474
▁پاند	-16475
▁پرزا	-16476
▁ڇاتي	-16477
▁ڪڪرن	-16478
▁ڳجهي	-16479
السلام	-16480
▁spins	-16481
▁ادراڪ	-16482
▁اهلين	-16483
▁برتري	-16484
▁بيچين	-16485
▁جنائي	-16486
▁خليهم	-16487
▁خيانت	-16488
▁روابط	-16489
▁روپين	-16490
▁سمجھه	-16491
▁فوجون	-16492
▁فولاد	-16493
▁فيسبڪ	-16494
▁فھرست	-16495
▁مرحبا	-16496
▁مسجدن	-16497
▁مشكلة	-16498
▁مشڪوڪ	-16499
▁معانا	-16500
▁ملٽري	-16501
▁مٺائي	-16502
▁مٿيان	-16503
▁مڇيون	-16504
▁وراثت	-16505
▁ويجھي	-16506
▁ٺاهجي	-16507
▁ٽالپر	-16508
▁پروين	-16509
▁ڀنڀور	-16510
▁چگونه	-16511
▁ڪنارا	-16512
▁ڪوٺيو	-16513
▁گهرون	-16514
▁المقطع	-16515
▁اڀرندي	-16516
▁بدلايو	-16517
▁ترجيحن	-16518
▁تنظيمي	-16519
▁ثقافتن	-16520
▁جونيئر	-16521
▁سختيءَ	-16522
▁سيرامڪ	-16523
▁سيمينٽ	-16524
▁شهزادو	-16525
▁علامات	-16526
▁غلطيءَ	-16527
▁مرڪندي	-16528
▁مزدوري	-16529
▁مشكوره	-16530
▁ملائڪن	-16531
▁موٽندي	-16532
▁مينڊيٽ	-16533
▁نالاون	-16534
▁ناڪاري	-16535
▁وينديس	-16536
▁ويهندو	-16537
▁چيمپئن	-16538
▁ڪاليجن	-16539
▁ڪوتاهي	-16540
▁گزارشي	-16541
هاهاهاها	-16542
▁آرڊيننس	-16543
▁الرحمان	-16544
▁المسكين	-16545
▁اينڊريو	-16546
▁جايگزين	-16547
▁خبرداري	-16548
▁خونريزي	-16549
▁سچائيءَ	-16550
▁معنائون	-16551
▁مقناطيس	-16552
▁نامياري	-16553
▁يادگاري	-16554
▁ڪيٽيگري	-16555
▁جمالياتي	-16556
▁درجابندي	-16557
▁ذوالفقار	-16558
▁قائداعظم	-16559
▁مبارڪباد	-16560
▁يونيورسٽ	-16561
▁پڇيومانس	-16562
▁structure	-16563
▁هٿياربندن	-16564
▁ويکيپېډيا	-16565
▁ٽيڪنالوجي	-16566
▁فرمانبردار	-16567
-3	-16568
56	-16569
5:	-16570
An	-16571
GE	-16572
RP	-16573
VC	-16574
WC	-16575
sy	-16576
zz	-16577
بق	-16578
ضى	-16579
ڌڻ	-16580
ڦي	-16581
ڪڙ	-16582
मा	-16583
▁۷	-16584
="4	-16585
any	-16586
hip	-16587
ايز	-16588
بهو	-16589
جھه	-16590
روچ	-16591
ماس	-16592
هبل	-16593
هنگ	-16594
وءَ	-16595
ٽيم	-16596
ڊون	-16597
▁07	-16598
▁89	-16599
▁=)	-16600
▁DH	-16601
▁Ne	-16602
▁أت	-16603
▁جڏ	-16604
▁صع	-16605
▁فش	-16606
▁کې	-16607
____	-16608
etic	-16609
ient	-16610
reak	-16611
vers	-16612
اريم	-16613
جوري	-16614
ريسر	-16615
سڪون	-16616
عععع	-16617
لالا	-16618
نئون	-16619
وريم	-16620
چيني	-16621
ڪهڙي	-16622
▁17.	-16623
▁LCD	-16624
▁Rep	-16625
▁che	-16626
▁inf	-16627
▁ااا	-16628
▁اسن	-16629
▁بفر	-16630
▁حام	-16631
▁خطأ	-16632
▁ذلت	-16633
▁رضي	-16634
▁رُخ	-16635
▁سوڊ	-16636
▁شهو	-16637
▁طنز	-16638
▁عبي	-16639
▁كار	-16640
▁كام	-16641
▁كون	-16642
▁لار	-16643
▁لڙي	-16644
▁مشي	-16645
▁وضع	-16646
▁ولك	-16647
▁ياج	-16648
▁پرڀ	-16649
▁پنگ	-16650
▁پَٽ	-16651
▁ڏِس	-16652
▁کاڄ	-16653
▁ڪاپ	-16654
▁ڳڻي	-16655
▁ھئڻ	-16656
▁ھار	-16657
ement	-16658
ester	-16659
round	-16660
ماڻهو	-16661
▁1920	-16662
▁1953	-16663
▁1985	-16664
▁comm	-16665
▁knew	-16666
▁أنتي	-16667
▁اقرا	-16668
▁الحل	-16669
▁الدو	-16670
▁المد	-16671
▁انشا	-16672
▁ايپي	-16673
▁بشير	-16674
▁بكره	-16675
▁بوقت	-16676
▁بيهن	-16677
▁بيگز	-16678
▁جلسه	-16679
▁جنتي	-16680
▁جيمز	-16681
▁خورد	-16682
▁دراز	-16683
▁ديهه	-16684
▁رمان	-16685
▁رييس	-16686
▁سينگ	-16687
▁شوند	-16688
▁شويد	-16689
▁شيلف	-16690
▁فواز	-16691
▁كلهن	-16692
▁لبيا	-16693
[...]
