{
  "version": "1.0",
  "truncation": null,
  "padding": null,
  "added_tokens": [
    {
      "id": 0,
      "content": "[UNK]",
      "single_word": false,
      "lstrip": false,
      "rstrip": false,
      "normalized": false,
      "special": true
    },
    {
      "id": 1,
      "content": "[CLS]",
      "single_word": false,
      "lstrip": false,
      "rstrip": false,
      "normalized": false,
      "special": true
    },
    {
      "id": 2,
      "content": "[SEP]",
      "single_word": false,
      "lstrip": false,
      "rstrip": false,
      "normalized": false,
      "special": true
    },
    {
      "id": 3,
      "content": "[PAD]",
      "single_word": false,
      "lstrip": false,
      "rstrip": false,
      "normalized": false,
      "special": true
    },
    {
      "id": 4,
      "content": "[MASK]",
      "single_word": false,
      "lstrip": false,
      "rstrip": false,
      "normalized": false,
      "special": true
    }
  ],
  "normalizer": {
    "type": "Sequence",
    "normalizers": [
      {
        "type": "NFKC"
      },
      {
        "type": "Lowercase"
      }
    ]
  },
  "pre_tokenizer": {
    "type": "Whitespace"
  },
  "post_processor": null,
  "decoder": {
    "type": "WordPiece",
    "prefix": "##",
    "cleanup": true
  },
  "model": {
    "type": "WordPiece",
    "unk_token": "[UNK]",
    "continuing_subword_prefix": "##",
    "max_input_chars_per_word": 100,
    "vocab": {
      "[UNK]": 0,
      "[CLS]": 1,
      "[SEP]": 2,
      "[PAD]": 3,
      "[MASK]": 4,
      "!": 5,
      "\"": 6,
      "#": 7,
      "$": 8,
      "%": 9,
      "&": 10,
      "'": 11,
      "(": 12,
      ")": 13,
      "*": 14,
      "+": 15,
      ",": 16,
      "-": 17,
      ".": 18,
      "/": 19,
      "0": 20,
      "1": 21,
      "2": 22,
      "3": 23,
      "4": 24,
      "5": 25,
      "6": 26,
      "7": 27,
      "8": 28,
      "9": 29,
      ":": 30,
      ";": 31,
      "<": 32,
      "=": 33,
      ">": 34,
      "?": 35,
      "@": 36,
      "[": 37,
      "\\": 38,
      "]": 39,
      "^": 40,
      "_": 41,
      "a": 42,
      "b": 43,
      "c": 44,
      "d": 45,
      "e": 46,
      "f": 47,
      "g": 48,
      "h": 49,
      "i": 50,
      "j": 51,
      "k": 52,
      "l": 53,
      "m": 54,
      "n": 55,
      "o": 56,
      "p": 57,
      "q": 58,
      "r": 59,
      "s": 60,
      "t": 61,
      "u": 62,
      "v": 63,
      "w": 64,
      "x": 65,
      "y": 66,
      "z": 67,
      "{": 68,
      "|": 69,
      "}": 70,
      "~": 71,
      "¡": 72,
      "¢": 73,
      "£": 74,
      "¤": 75,
      "¥": 76,
      "¦": 77,
      "§": 78,
      "©": 79,
      "¬": 80,
      "®": 81,
      "°": 82,
      "±": 83,
      "¶": 84,
      "·": 85,
      "¿": 86,
      "×": 87,
      "ß": 88,
      "à": 89,
      "á": 90,
      "â": 91,
      "ã": 92,
      "ä": 93,
      "å": 94,
      "æ": 95,
      "ç": 96,
      "è": 97,
      "é": 98,
      "ê": 99,
      "ë": 100,
      "ì": 101,
      "í": 102,
      "î": 103,
      "ï": 104,
      "ð": 105,
      "ñ": 106,
      "ò": 107,
      "ó": 108,
      "ô": 109,
      "õ": 110,
      "ö": 111,
      "÷": 112,
      "ø": 113,
      "ù": 114,
      "ú": 115,
      "û": 116,
      "ü": 117,
      "ý": 118,
      "þ": 119,
      "ā": 120,
      "ă": 121,
      "ą": 122,
      "ć": 123,
      "ĉ": 124,
      "č": 125,
      "ď": 126,
      "đ": 127,
      "ē": 128,
      "ė": 129,
      "ę": 130,
      "ě": 131,
      "ğ": 132,
      "ģ": 133,
      "ĥ": 134,
      "ħ": 135,
      "ī": 136,
      "į": 137,
      "ı": 138,
      "ĵ": 139,
      "ĸ": 140,
      "ĺ": 141,
      "ļ": 142,
      "ł": 143,
      "ň": 144,
      "ŋ": 145,
      "ō": 146,
      "ŏ": 147,
      "œ": 148,
      "ř": 149,
      "ś": 150,
      "ŝ": 151,
      "ş": 152,
      "š": 153,
      "ť": 154,
      "ŧ": 155,
      "ŭ": 156,
      "ů": 157,
      "ű": 158,
      "ź": 159,
      "ż": 160,
      "ž": 161,
      "ƒ": 162,
      "ƛ": 163,
      "ơ": 164,
      "ƴ": 165,
      "ƽ": 166,
      "ǝ": 167,
      "ǟ": 168,
      "ǰ": 169,
      "ǿ": 170,
      "ȅ": 171,
      "ȋ": 172,
      "ș": 173,
      "ț": 174,
      "ɑ": 175,
      "ɓ": 176,
      "ɕ": 177,
      "ə": 178,
      "ɛ": 179,
      "ɞ": 180,
      "ɠ": 181,
      "ɣ": 182,
      "ɨ": 183,
      "ɪ": 184,
      "ɲ": 185,
      "ɴ": 186,
      "ʀ": 187,
      "ʃ": 188,
      "ʊ": 189,
      "ʒ": 190,
      "ʔ": 191,
      "ʚ": 192,
      "ʞ": 193,
      "ʻ": 194,
      "ˆ": 195,
      "ˇ": 196,
      "ˈ": 197,
      "ˌ": 198,
      "ː": 199,
      "˹": 200,
      "˼": 201,
      "̀": 202,
      "́": 203,
      "̃": 204,
      "̄": 205,
      "̅": 206,
      "̇": 207,
      "̈": 208,
      "̉": 209,
      "̊": 210,
      "̋": 211,
      "̌": 212,
      "̍": 213,
      "̐": 214,
      "̖": 215,
      "̗": 216,
      "̝": 217,
      "̠": 218,
      "̣": 219,
      "̤": 220,
      "̥": 221,
      "̧": 222,
      "̨": 223,
      "̩": 224,
      "̬": 225,
      "̮": 226,
      "̯": 227,
      "̲": 228,
      "̳": 229,
      "̵": 230,
      "̶": 231,
      "̷": 232,
      "̸": 233,
      "͛": 234,
      "͜": 235,
      "͠": 236,
      "͡": 237,
      "ͦ": 238,
      "ΐ": 239,
      "ά": 240,
      "έ": 241,
      "ή": 242,
      "ί": 243,
      "α": 244,
      "β": 245,
      "γ": 246,
      "δ": 247,
      "ε": 248,
      "ζ": 249,
      "η": 250,
      "θ": 251,
      "ι": 252,
      "κ": 253,
      "λ": 254,
      "μ": 255,
      "ν": 256,
      "ξ": 257,
      "ο": 258,
      "π": 259,
      "ρ": 260,
      "ς": 261,
      "σ": 262,
      "τ": 263,
      "υ": 264,
      "φ": 265,
      "χ": 266,
      "ψ": 267,
      "ω": 268,
      "ϋ": 269,
      "ό": 270,
      "ώ": 271,
      "ϟ": 272,
      "ϻ": 273,
      "а": 274,
      "б": 275,
      "в": 276,
      "г": 277,
      "д": 278,
      "е": 279,
      "ж": 280,
      "з": 281,
      "и": 282,
      "й": 283,
      "к": 284,
      "л": 285,
      "м": 286,
      "н": 287,
      "о": 288,
      "п": 289,
      "р": 290,
      "с": 291,
      "т": 292,
      "у": 293,
      "х": 294,
      "ц": 295,
      "ч": 296,
      "ш": 297,
      "ъ": 298,
      "ы": 299,
      "ь": 300,
      "э": 301,
      "ю": 302,
      "я": 303,
      "є": 304,
      "і": 305,
      "ј": 306,
      "ћ": 307,
      "ѣ": 308,
      "ѧ": 309,
      "҉": 310,
      "ҏ": 311,
      "ґ": 312,
      "қ": 313,
      "ҩ": 314,
      "ү": 315,
      "ұ": 316,
      "ҳ": 317,
      "ҷ": 318,
      "ҽ": 319,
      "ӎ": 320,
      "ө": 321,
      "ա": 322,
      "բ": 323,
      "ե": 324,
      "է": 325,
      "ը": 326,
      "ի": 327,
      "լ": 328,
      "խ": 329,
      "կ": 330,
      "հ": 331,
      "ձ": 332,
      "ղ": 333,
      "մ": 334,
      "յ": 335,
      "ն": 336,
      "ո": 337,
      "չ": 338,
      "պ": 339,
      "ռ": 340,
      "ս": 341,
      "վ": 342,
      "տ": 343,
      "ր": 344,
      "ց": 345,
      "ւ": 346,
      "փ": 347,
      "ք": 348,
      "ֆ": 349,
      "ִ": 350,
      "ּ": 351,
      "ֿ": 352,
      "א": 353,
      "ב": 354,
      "ג": 355,
      "ד": 356,
      "ה": 357,
      "ו": 358,
      "ז": 359,
      "ח": 360,
      "ט": 361,
      "י": 362,
      "ך": 363,
      "כ": 364,
      "ל": 365,
      "ם": 366,
      "מ": 367,
      "ן": 368,
      "נ": 369,
      "ס": 370,
      "ע": 371,
      "פ": 372,
      "צ": 373,
      "ר": 374,
      "ש": 375,
      "ת": 376,
      "؋": 377,
      "،": 378,
      "؍": 379,
      "؎": 380,
      "؏": 381,
      "ؐ": 382,
      "ؑ": 383,
      "ؒ": 384,
      "ؓ": 385,
      "؛": 386,
      "؟": 387,
      "ء": 388,
      "آ": 389,
      "أ": 390,
      "ؤ": 391,
      "إ": 392,
      "ئ": 393,
      "ا": 394,
      "ب": 395,
      "ة": 396,
      "ت": 397,
      "ث": 398,
      "ج": 399,
      "ح": 400,
      "خ": 401,
      "د": 402,
      "ذ": 403,
      "ر": 404,
      "ز": 405,
      "س": 406,
      "ش": 407,
      "ص": 408,
      "ض": 409,
      "ط": 410,
      "ظ": 411,
      "ع": 412,
      "غ": 413,
      "ػ": 414,
      "ؼ": 415,
      "ؽ": 416,
      "ؾ": 417,
      "ؿ": 418,
      "ـ": 419,
      "ف": 420,
      "ق": 421,
      "ك": 422,
      "ل": 423,
      "م": 424,
      "ن": 425,
      "ه": 426,
      "و": 427,
      "ى": 428,
      "ي": 429,
      "ً": 430,
      "ٌ": 431,
      "ٍ": 432,
      "َ": 433,
      "ُ": 434,
      "ِ": 435,
      "ّ": 436,
      "ْ": 437,
      "ٓ": 438,
      "ٔ": 439,
      "ٕ": 440,
      "ٖ": 441,
      "ٗ": 442,
      "٘": 443,
      "ٙ": 444,
      "ٚ": 445,
      "ٛ": 446,
      "ٜ": 447,
      "ٝ": 448,
      "ٞ": 449,
      "ٟ": 450,
      "٠": 451,
      "١": 452,
      "٢": 453,
      "٣": 454,
      "٤": 455,
      "٥": 456,
      "٦": 457,
      "٧": 458,
      "٨": 459,
      "٩": 460,
      "٪": 461,
      "٫": 462,
      "٬": 463,
      "٭": 464,
      "ٮ": 465,
      "ٯ": 466,
      "ٰ": 467,
      "ٱ": 468,
      "ٲ": 469,
      "ٳ": 470,
      "ٴ": 471,
      "ٹ": 472,
      "ٺ": 473,
      "ٻ": 474,
      "ټ": 475,
      "ٽ": 476,
      "پ": 477,
      "ٿ": 478,
      "ڀ": 479,
      "ځ": 480,
      "ڂ": 481,
      "ڃ": 482,
      "ڄ": 483,
      "څ": 484,
      "چ": 485,
      "ڇ": 486,
      "ڈ": 487,
      "ډ": 488,
      "ڊ": 489,
      "ڋ": 490,
      "ڌ": 491,
      "ڍ": 492,
      "ڎ": 493,
      "ڏ": 494,
      "ڐ": 495,
      "ڑ": 496,
      "ڒ": 497,
      "ړ": 498,
      "ڔ": 499,
      "ڕ": 500,
      "ږ": 501,
      "ڗ": 502,
      "ژ": 503,
      "ڙ": 504,
      "ښ": 505,
      "ڛ": 506,
      "ڜ": 507,
      "ڝ": 508,
      "ڞ": 509,
      "ڟ": 510,
      "ڠ": 511,
      "ڣ": 512,
      "ڤ": 513,
      "ڦ": 514,
      "ڨ": 515,
      "ک": 516,
      "ڪ": 517,
      "ګ": 518,
      "ڭ": 519,
      "گ": 520,
      "ڰ": 521,
      "ڱ": 522,
      "ڲ": 523,
      "ڳ": 524,
      "ڵ": 525,
      "ڶ": 526,
      "ڷ": 527,
      "ڸ": 528,
      "ڹ": 529,
      "ں": 530,
      "ڻ": 531,
      "ڼ": 532,
      "ڽ": 533,
      "ھ": 534,
      "ڿ": 535,
      "ۀ": 536,
      "ہ": 537,
      "ۂ": 538,
      "ۃ": 539,
      "ۄ": 540,
      "ۅ": 541,
      "ۆ": 542,
      "ۇ": 543,
      "ۈ": 544,
      "ۉ": 545,
      "ۊ": 546,
      "ۋ": 547,
      "ی": 548,
      "ۍ": 549,
      "ێ": 550,
      "ۏ": 551,
      "ې": 552,
      "ۑ": 553,
      "ے": 554,
      "ۓ": 555,
      "۔": 556,
      "ە": 557,
      "ۗ": 558,
      "ۘ": 559,
      "ۙ": 560,
      "ۚ": 561,
      "ۛ": 562,
      "ۜ": 563,
      "۞": 564,
      "ۡ": 565,
      "ۢ": 566,
      "ۣ": 567,
      "ۤ": 568,
      "ۥ": 569,
      "ۦ": 570,
      "ۧ": 571,
      "ۨ": 572,
      "۩": 573,
      "۪": 574,
      "۫": 575,
      "۬": 576,
      "۰": 577,
      "۱": 578,
      "۲": 579,
      "۳": 580,
      "۴": 581,
      "۵": 582,
      "۶": 583,
      "۷": 584,
      "۸": 585,
      "۹": 586,
      "ۺ": 587,
      "ۼ": 588,
      "۽": 589,
      "۾": 590,
      "ۿ": 591,
      "܀": 592,
      "ܒ": 593,
      "ܓ": 594,
      "ܢ": 595,
      "ܨ": 596,
      "ܪ": 597,
      "ܵ": 598,
      "ݐ": 599,
      "ݒ": 600,
      "ݖ": 601,
      "ݘ": 602,
      "ݛ": 603,
      "ݢ": 604,
      "ݥ": 605,
      "ݦ": 606,
      "ݧ": 607,
      "ݨ": 608,
      "ݩ": 609,
      "ݪ": 610,
      "ހ": 611,
      "ވ": 612,
      "ެ": 613,
      "ߙ": 614,
      "ࡗ": 615,
      "ࢦ": 616,
      "ࢪ": 617,
      "࣪": 618,
      "ँ": 619,
      "ं": 620,
      "ः": 621,
      "अ": 622,
      "आ": 623,
      "इ": 624,
      "ई": 625,
      "उ": 626,
      "ए": 627,
      "ओ": 628,
      "क": 629,
      "ख": 630,
      "ग": 631,
      "घ": 632,
      "ङ": 633,
      "च": 634,
      "छ": 635,
      "ज": 636,
      "झ": 637,
      "ञ": 638,
      "ट": 639,
      "ठ": 640,
      "ड": 641,
      "ढ": 642,
      "ण": 643,
      "त": 644,
      "थ": 645,
      "द": 646,
      "ध": 647,
      "न": 648,
      "प": 649,
      "फ": 650,
      "ब": 651,
      "भ": 652,
      "म": 653,
      "य": 654,
      "र": 655,
      "ल": 656,
      "व": 657,
      "श": 658,
      "ष": 659,
      "स": 660,
      "ह": 661,
      "़": 662,
      "ा": 663,
      "ि": 664,
      "ी": 665,
      "ु": 666,
      "ू": 667,
      "ृ": 668,
      "े": 669,
      "ै": 670,
      "ॉ": 671,
      "ो": 672,
      "ौ": 673,
      "्": 674,
      "॒": 675,
      "ॡ": 676,
      "।": 677,
      "॥": 678,
      "०": 679,
      "१": 680,
      "८": 681,
      "অ": 682,
      "আ": 683,
      "ই": 684,
      "উ": 685,
      "এ": 686,
      "ঔ": 687,
      "ক": 688,
      "খ": 689,
      "ঘ": 690,
      "ছ": 691,
      "জ": 692,
      "ট": 693,
      "ড": 694,
      "ত": 695,
      "দ": 696,
      "ধ": 697,
      "ন": 698,
      "ব": 699,
      "ভ": 700,
      "ম": 701,
      "য": 702,
      "র": 703,
      "ল": 704,
      "শ": 705,
      "স": 706,
      "়": 707,
      "া": 708,
      "ি": 709,
      "ু": 710,
      "ে": 711,
      "ো": 712,
      "ৌ": 713,
      "্": 714,
      "ਂ": 715,
      "ਇ": 716,
      "ਈ": 717,
      "ਕ": 718,
      "ਜ": 719,
      "ਥ": 720,
      "ਧ": 721,
      "ਪ": 722,
      "ਬ": 723,
      "ਮ": 724,
      "ਰ": 725,
      "ਲ": 726,
      "ਸ": 727,
      "ਹ": 728,
      "ਾ": 729,
      "ਿ": 730,
      "ੀ": 731,
      "ੇ": 732,
      "ੈ": 733,
      "ੋ": 734,
      "ੰ": 735,
      "ੱ": 736,
      "ં": 737,
      "ક": 738,
      "ખ": 739,
      "ચ": 740,
      "છ": 741,
      "ટ": 742,
      "ડ": 743,
      "થ": 744,
      "ધ": 745,
      "પ": 746,
      "ર": 747,
      "સ": 748,
      "હ": 749,
      "ા": 750,
      "િ": 751,
      "ી": 752,
      "ુ": 753,
      "ે": 754,
      "ો": 755,
      "୪": 756,
      "୭": 757,
      "ஐ": 758,
      "ஓ": 759,
      "ற": 760,
      "ం": 761,
      "ఇ": 762,
      "ఉ": 763,
      "ఎ": 764,
      "క": 765,
      "చ": 766,
      "డ": 767,
      "ద": 768,
      "ధ": 769,
      "న": 770,
      "ప": 771,
      "య": 772,
      "ల": 773,
      "వ": 774,
      "స": 775,
      "హ": 776,
      "ా": 777,
      "ి": 778,
      "ీ": 779,
      "ు": 780,
      "ే": 781,
      "ో": 782,
      "్": 783,
      "ಂ": 784,
      "ಈ": 785,
      "ಕ": 786,
      "ಡ": 787,
      "ಧ": 788,
      "ನ": 789,
      "ಲ": 790,
      "ಸ": 791,
      "ಿ": 792,
      "ೋ": 793,
      "್": 794,
      "ഉ": 795,
      "ങ": 796,
      "ത": 797,
      "ധ": 798,
      "ന": 799,
      "പ": 800,
      "ള": 801,
      "സ": 802,
      "ി": 803,
      "്": 804,
      "ආ": 805,
      "උ": 806,
      "ක": 807,
      "න": 808,
      "ම": 809,
      "ය": 810,
      "ල": 811,
      "ව": 812,
      "ශ": 813,
      "ස": 814,
      "්": 815,
      "ෑ": 816,
      "ි": 817,
      "ෙ": 818,
      "ก": 819,
      "ค": 820,
      "ฉ": 821,
      "ณ": 822,
      "ด": 823,
      "ถ": 824,
      "ท": 825,
      "น": 826,
      "บ": 827,
      "ป": 828,
      "พ": 829,
      "ม": 830,
      "ย": 831,
      "ล": 832,
      "ส": 833,
      "ห": 834,
      "อ": 835,
      "ฮ": 836,
      "ะ": 837,
      "ั": 838,
      "า": 839,
      "ิ": 840,
      "ี": 841,
      "ุ": 842,
      "เ": 843,
      "ไ": 844,
      "ๅ": 845,
      "่": 846,
      "้": 847,
      "๋": 848,
      "๑": 849,
      "๛": 850,
      "ກ": 851,
      "ຂ": 852,
      "ຈ": 853,
      "ຖ": 854,
      "ທ": 855,
      "ນ": 856,
      "ພ": 857,
      "ມ": 858,
      "ຢ": 859,
      "ະ": 860,
      "າ": 861,
      "ົ": 862,
      "ເ": 863,
      "່": 864,
      "້": 865,
      "໑": 866,
      "༄": 867,
      "༅": 868,
      "༺": 869,
      "ཻ": 870,
      "࿅": 871,
      "࿑": 872,
      "ა": 873,
      "დ": 874,
      "ე": 875,
      "თ": 876,
      "ი": 877,
      "კ": 878,
      "მ": 879,
      "ნ": 880,
      "რ": 881,
      "ს": 882,
      "უ": 883,
      "ქ": 884,
      "ღ": 885,
      "ᄑ": 886,
      "ᄒ": 887,
      "ᅲ": 888,
      "ሂ": 889,
      "ህ": 890,
      "ለ": 891,
      "ላ": 892,
      "ል": 893,
      "ም": 894,
      "ሩ": 895,
      "ር": 896,
      "ሳ": 897,
      "ስ": 898,
      "ቅ": 899,
      "በ": 900,
      "ቦ": 901,
      "ታ": 902,
      "ት": 903,
      "ነ": 904,
      "ኔ": 905,
      "ን": 906,
      "ኝ": 907,
      "አ": 908,
      "እ": 909,
      "ወ": 910,
      "ው": 911,
      "ዎ": 912,
      "ዘ": 913,
      "ይ": 914,
      "ዴ": 915,
      "ድ": 916,
      "ጋ": 917,
      "ጎ": 918,
      "ጠ": 919,
      "ጣ": 920,
      "ጥ": 921,
      "ፈ": 922,
      "ፍ": 923,
      "ᑐ": 924,
      "ᓄ": 925,
      "ᓅ": 926,
      "ᓆ": 927,
      "ᓘ": 928,
      "ញ": 929,
      "ន": 930,
      "ព": 931,
      "ភ": 932,
      "េ": 933,
      "ំ": 934,
      "្": 935,
      "᪣": 936,
      "ᬼ": 937,
      "ᭁ": 938,
      "᭄": 939,
      "ᴀ": 940,
      "ᴋ": 941,
      "ᴗ": 942,
      "᷂": 943,
      "ḑ": 944,
      "ḭ": 945,
      "ḿ": 946,
      "ṁ": 947,
      "ṃ": 948,
      "ṇ": 949,
      "ṉ": 950,
      "ṛ": 951,
      "ṝ": 952,
      "ṣ": 953,
      "ṧ": 954,
      "ṩ": 955,
      "ṭ": 956,
      "ṽ": 957,
      "ạ": 958,
      "ẹ": 959,
      "ể": 960,
      "ệ": 961,
      "ị": 962,
      "ọ": 963,
      "ố": 964,
      "ở": 965,
      "ụ": 966,
      "ỳ": 967,
      "ỹ": 968,
      "ἄ": 969,
      "‐": 970,
      "‛": 971,
      "‟": 972,
      "†": 973,
      "‡": 974,
      "•": 975,
      "′": 976,
      "‹": 977,
      "›": 978,
      "※": 979,
      "‿": 980,
      "⁀": 981,
      "⁄": 982,
      "₥": 983,
      "₦": 984,
      "₩": 985,
      "₪": 986,
      "€": 987,
      "₳": 988,
      "₹": 989,
      "₼": 990,
      "₽": 991,
      "⃕": 992,
      "⃟": 993,
      "⃢": 994,
      "⃣": 995,
      "⃫": 996,
      "℘": 997,
      "←": 998,
      "↑": 999,
      "→": 1000,
      "↓": 1001,
      "↔": 1002,
      "↙": 1003,
      "↜": 1004,
      "↝": 1005,
      "↣": 1006,
      "↤": 1007,
      "↩": 1008,
      "↫": 1009,
      "↯": 1010,
      "↲": 1011,
      "↴": 1012,
      "↷": 1013,
      "⇄": 1014,
      "⇐": 1015,
      "⇜": 1016,
      "⇠": 1017,
      "⇡": 1018,
      "⇢": 1019,
      "⇣": 1020,
      "⇦": 1021,
      "∀": 1022,
      "∂": 1023,
      "∇": 1024,
      "−": 1025,
      "√": 1026,
      "∞": 1027,
      "∟": 1028,
      "∫": 1029,
      "∴": 1030,
      "≈": 1031,
      "≠": 1032,
      "≤": 1033,
      "≥": 1034,
      "≦": 1035,
      "≧": 1036,
      "≯": 1037,
      "⊙": 1038,
      "⋆": 1039,
      "⌘": 1040,
      "⏆": 1041,
      "⏩": 1042,
      "⏪": 1043,
      "─": 1044,
      "┇": 1045,
      "═": 1046,
      "╚": 1047,
      "╝": 1048,
      "╦": 1049,
      "╫": 1050,
      "╬": 1051,
      "▂": 1052,
      "▃": 1053,
      "▌": 1054,
      "▐": 1055,
      "■": 1056,
      "□": 1057,
      "▪": 1058,
      "▫": 1059,
      "▲": 1060,
      "▶": 1061,
      "▷": 1062,
      "►": 1063,
      "▼": 1064,
      "▽": 1065,
      "◀": 1066,
      "◄": 1067,
      "◆": 1068,
      "◇": 1069,
      "◈": 1070,
      "◉": 1071,
      "◊": 1072,
      "○": 1073,
      "◍": 1074,
      "◎": 1075,
      "●": 1076,
      "◕": 1077,
      "◝": 1078,
      "◣": 1079,
      "◤": 1080,
      "◥": 1081,
      "◦": 1082,
      "◩": 1083,
      "◪": 1084,
      "◾": 1085,
      "☀": 1086,
      "☁": 1087,
      "☂": 1088,
      "☃": 1089,
      "☄": 1090,
      "★": 1091,
      "☆": 1092,
      "☑": 1093,
      "☔": 1094,
      "☘": 1095,
      "☚": 1096,
      "☛": 1097,
      "☜": 1098,
      "☝": 1099,
      "☠": 1100,
      "☹": 1101,
      "☺": 1102,
      "☻": 1103,
      "☼": 1104,
      "☽": 1105,
      "☿": 1106,
      "♀": 1107,
      "♂": 1108,
      "♃": 1109,
      "♄": 1110,
      "♈": 1111,
      "♉": 1112,
      "♊": 1113,
      "♋": 1114,
      "♌": 1115,
      "♍": 1116,
      "♎": 1117,
      "♏": 1118,
      "♒": 1119,
      "♓": 1120,
      "♚": 1121,
      "♛": 1122,
      "♠": 1123,
      "♡": 1124,
      "♢": 1125,
      "♣": 1126,
      "♤": 1127,
      "♥": 1128,
      "♦": 1129,
      "♩": 1130,
      "♪": 1131,
      "♫": 1132,
      "♬": 1133,
      "♭": 1134,
      "♯": 1135,
      "⚒": 1136,
      "⚘": 1137,
      "⚠": 1138,
      "⚡": 1139,
      "⚫": 1140,
      "⚽": 1141,
      "⛳": 1142,
      "⛺": 1143,
      "✅": 1144,
      "✇": 1145,
      "✈": 1146,
      "✋": 1147,
      "✌": 1148,
      "✍": 1149,
      "✓": 1150,
      "✔": 1151,
      "✖": 1152,
      "✗": 1153,
      "✘": 1154,
      "✜": 1155,
      "✞": 1156,
      "✦": 1157,
      "✧": 1158,
      "✨": 1159,
      "✫": 1160,
      "✭": 1161,
      "✮": 1162,
      "✯": 1163,
      "✳": 1164,
      "✴": 1165,
      "✷": 1166,
      "✿": 1167,
      "❀": 1168,
      "❌": 1169,
      "❒": 1170,
      "❓": 1171,
      "❔": 1172,
      "❕": 1173,
      "❖": 1174,
      "❗": 1175,
      "❝": 1176,
      "❞": 1177,
      "❢": 1178,
      "❣": 1179,
      "❤": 1180,
      "❥": 1181,
      "❦": 1182,
      "❧": 1183,
      "❶": 1184,
      "➓": 1185,
      "➘": 1186,
      "➟": 1187,
      "➡": 1188,
      "➢": 1189,
      "➥": 1190,
      "➬": 1191,
      "⠀": 1192,
      "⦿": 1193,
      "⬅": 1194,
      "⬆": 1195,
      "⬸": 1196,
      "⭐": 1197,
      "⭕": 1198,
      "ⴢ": 1199,
      "⸁": 1200,
      "⸙": 1201,
      "、": 1202,
      "。": 1203,
      "〇": 1204,
      "〈": 1205,
      "〉": 1206,
      "》": 1207,
      "「": 1208,
      "」": 1209,
      "『": 1210,
      "』": 1211,
      "【": 1212,
      "】": 1213,
      "〖": 1214,
      "〗": 1215,
      "あ": 1216,
      "い": 1217,
      "う": 1218,
      "え": 1219,
      "お": 1220,
      "か": 1221,
      "が": 1222,
      "く": 1223,
      "さ": 1224,
      "じ": 1225,
      "な": 1226,
      "の": 1227,
      "へ": 1228,
      "ほ": 1229,
      "ょ": 1230,
      "よ": 1231,
      "り": 1232,
      "わ": 1233,
      "を": 1234,
      "ん": 1235,
      "イ": 1236,
      "エ": 1237,
      "ク": 1238,
      "コ": 1239,
      "サ": 1240,
      "シ": 1241,
      "ス": 1242,
      "タ": 1243,
      "チ": 1244,
      "ッ": 1245,
      "ツ": 1246,
      "ト": 1247,
      "ド": 1248,
      "ノ": 1249,
      "バ": 1250,
      "パ": 1251,
      "ピ": 1252,
      "マ": 1253,
      "ミ": 1254,
      "ム": 1255,
      "ュ": 1256,
      "ヮ": 1257,
      "ン": 1258,
      "・": 1259,
      "ー": 1260,
      "ㄨ": 1261,
      "一": 1262,
      "上": 1263,
      "之": 1264,
      "了": 1265,
      "云": 1266,
      "以": 1267,
      "传": 1268,
      "位": 1269,
      "何": 1270,
      "你": 1271,
      "刀": 1272,
      "力": 1273,
      "午": 1274,
      "南": 1275,
      "厩": 1276,
      "发": 1277,
      "古": 1278,
      "可": 1279,
      "吗": 1280,
      "嘅": 1281,
      "国": 1282,
      "场": 1283,
      "報": 1284,
      "多": 1285,
      "夢": 1286,
      "如": 1287,
      "子": 1288,
      "学": 1289,
      "它": 1290,
      "少": 1291,
      "屋": 1292,
      "年": 1293,
      "庆": 1294,
      "彙": 1295,
      "彩": 1296,
      "很": 1297,
      "情": 1298,
      "惠": 1299,
      "感": 1300,
      "我": 1301,
      "打": 1302,
      "教": 1303,
      "料": 1304,
      "斯": 1305,
      "於": 1306,
      "月": 1307,
      "机": 1308,
      "機": 1309,
      "泊": 1310,
      "波": 1311,
      "爱": 1312,
      "瑞": 1313,
      "用": 1314,
      "电": 1315,
      "発": 1316,
      "發": 1317,
      "的": 1318,
      "真": 1319,
      "着": 1320,
      "示": 1321,
      "科": 1322,
      "端": 1323,
      "篇": 1324,
      "終": 1325,
      "纳": 1326,
      "者": 1327,
      "职": 1328,
      "背": 1329,
      "节": 1330,
      "花": 1331,
      "菜": 1332,
      "葬": 1333,
      "藍": 1334,
      "蝶": 1335,
      "要": 1336,
      "詞": 1337,
      "語": 1338,
      "謝": 1339,
      "话": 1340,
      "语": 1341,
      "谷": 1342,
      "超": 1343,
      "辛": 1344,
      "迪": 1345,
      "邏": 1346,
      "钱": 1347,
      "际": 1348,
      "隨": 1349,
      "雨": 1350,
      "音": 1351,
      "顯": 1352,
      "鲁": 1353,
      "ꓘ": 1354,
      "ꓤ": 1355,
      "ꔫ": 1356,
      "ꖾ": 1357,
      "ꟽ": 1358,
      "ꦿ": 1359,
      "ꪆ": 1360,
      "ꪝ": 1361,
      "ꫀ": 1362,
      "ꫛ": 1363,
      "각": 1364,
      "금": 1365,
      "길": 1366,
      "나": 1367,
      "는": 1368,
      "다": 1369,
      "대": 1370,
      "래": 1371,
      "리": 1372,
      "마": 1373,
      "만": 1374,
      "문": 1375,
      "방": 1376,
      "법": 1377,
      "서": 1378,
      "손": 1379,
      "솔": 1380,
      "송": 1381,
      "시": 1382,
      "양": 1383,
      "얼": 1384,
      "에": 1385,
      "연": 1386,
      "요": 1387,
      "우": 1388,
      "정": 1389,
      "져": 1390,
      "조": 1391,
      "좋": 1392,
      "지": 1393,
      "직": 1394,
      "평": 1395,
      "하": 1396,
      "할": 1397,
      "해": 1398,
      "형": 1399,
      "화": 1400,
      "효": 1401,
      "희": 1402,
      "﮶": 1403,
      "﮼": 1404,
      "﴾": 1405,
      "﴿": 1406,
      "︎": 1407,
      "️": 1408,
      "�": 1409,
      "𐄒": 1410,
      "𐎚": 1411,
      "𐭣": 1412,
      "𐭦": 1413,
      "𐭪": 1414,
      "𐭬": 1415,
      "𓂅": 1416,
      "𓆩": 1417,
      "𓆪": 1418,
      "𖣂": 1419,
      "𖣴": 1420,
      "𖤈": 1421,
      "𖤍": 1422,
      "🅚": 1423,
      "🅛": 1424,
      "🅜": 1425,
      "🅦": 1426,
      "🇦": 1427,
      "🇧": 1428,
      "🇨": 1429,
      "🇩": 1430,
      "🇬": 1431,
      "🇮": 1432,
      "🇱": 1433,
      "🇲": 1434,
      "🇵": 1435,
      "🇶": 1436,
      "🇷": 1437,
      "🇸": 1438,
      "🇹": 1439,
      "🇺": 1440,
      "🇿": 1441,
      "🌆": 1442,
      "🌈": 1443,
      "🌍": 1444,
      "🌎": 1445,
      "🌓": 1446,
      "🌔": 1447,
      "🌙": 1448,
      "🌚": 1449,
      "🌛": 1450,
      "🌜": 1451,
      "🌝": 1452,
      "🌞": 1453,
      "🌟": 1454,
      "🌤": 1455,
      "🌧": 1456,
      "🌱": 1457,
      "🌵": 1458,
      "🌷": 1459,
      "🌸": 1460,
      "🌹": 1461,
      "🌺": 1462,
      "🌻": 1463,
      "🌼": 1464,
      "🌿": 1465,
      "🍀": 1466,
      "🍂": 1467,
      "🍃": 1468,
      "🍇": 1469,
      "🍉": 1470,
      "🍕": 1471,
      "🍩": 1472,
      "🍰": 1473,
      "🍷": 1474,
      "🍻": 1475,
      "🍼": 1476,
      "🍾": 1477,
      "🍿": 1478,
      "🎀": 1479,
      "🎁": 1480,
      "🎃": 1481,
      "🎅": 1482,
      "🎈": 1483,
      "🎞": 1484,
      "🎥": 1485,
      "🎧": 1486,
      "🎨": 1487,
      "🎯": 1488,
      "🎵": 1489,
      "🎶": 1490,
      "🎻": 1491,
      "🎼": 1492,
      "🏃": 1493,
      "🏆": 1494,
      "🏊": 1495,
      "🏖": 1496,
      "🏣": 1497,
      "🏭": 1498,
      "🏳": 1499,
      "🏹": 1500,
      "🏻": 1501,
      "🏼": 1502,
      "🏽": 1503,
      "🏾": 1504,
      "🏿": 1505,
      "🐍": 1506,
      "🐒": 1507,
      "🐕": 1508,
      "🐠": 1509,
      "🐢": 1510,
      "🐸": 1511,
      "🐾": 1512,
      "👀": 1513,
      "👃": 1514,
      "👅": 1515,
      "👆": 1516,
      "👇": 1517,
      "👈": 1518,
      "👉": 1519,
      "👊": 1520,
      "👋": 1521,
      "👌": 1522,
      "👍": 1523,
      "👎": 1524,
      "👑": 1525,
      "👕": 1526,
      "👠": 1527,
      "👢": 1528,
      "👤": 1529,
      "👧": 1530,
      "👨": 1531,
      "👩": 1532,
      "👭": 1533,
      "👰": 1534,
      "👲": 1535,
      "👳": 1536,
      "👾": 1537,
      "💀": 1538,
      "💃": 1539,
      "💅": 1540,
      "💇": 1541,
      "💈": 1542,
      "💋": 1543,
      "💍": 1544,
      "💐": 1545,
      "💒": 1546,
      "💓": 1547,
      "💔": 1548,
      "💕": 1549,
      "💖": 1550,
      "💗": 1551,
      "💘": 1552,
      "💙": 1553,
      "💚": 1554,
      "💛": 1555,
      "💜": 1556,
      "💝": 1557,
      "💞": 1558,
      "💠": 1559,
      "💡": 1560,
      "💣": 1561,
      "💦": 1562,
      "💪": 1563,
      "💫": 1564,
      "💮": 1565,
      "💯": 1566,
      "💰": 1567,
      "💷": 1568,
      "💻": 1569,
      "📄": 1570,
      "📑": 1571,
      "📚": 1572,
      "📛": 1573,
      "📥": 1574,
      "📩": 1575,
      "📮": 1576,
      "📲": 1577,
      "📷": 1578,
      "📸": 1579,
      "📿": 1580,
      "🔆": 1581,
      "🔈": 1582,
      "🔐": 1583,
      "🔒": 1584,
      "🔕": 1585,
      "🔗": 1586,
      "🔞": 1587,
      "🔥": 1588,
      "🔫": 1589,
      "🔱": 1590,
      "🔴": 1591,
      "🔶": 1592,
      "🔸": 1593,
      "🔹": 1594,
      "🔺": 1595,
      "🕊": 1596,
      "🕌": 1597,
      "🕘": 1598,
      "🖕": 1599,
      "🖤": 1600,
      "🖼": 1601,
      "🗯": 1602,
      "🗿": 1603,
      "😀": 1604,
      "😁": 1605,
      "😂": 1606,
      "😃": 1607,
      "😄": 1608,
      "😅": 1609,
      "😆": 1610,
      "😇": 1611,
      "😈": 1612,
      "😉": 1613,
      "😊": 1614,
      "😋": 1615,
      "😌": 1616,
      "😍": 1617,
      "😎": 1618,
      "😏": 1619,
      "😐": 1620,
      "😑": 1621,
      "😒": 1622,
      "😔": 1623,
      "😕": 1624,
      "😘": 1625,
      "😛": 1626,
      "😜": 1627,
      "😝": 1628,
      "😠": 1629,
      "😢": 1630,
      "😤": 1631,
      "😦": 1632,
      "😧": 1633,
      "😨": 1634,
      "😩": 1635,
      "😪": 1636,
      "😬": 1637,
      "😭": 1638,
      "😮": 1639,
      "😯": 1640,
      "😱": 1641,
      "😲": 1642,
      "😳": 1643,
      "😵": 1644,
      "😷": 1645,
      "😹": 1646,
      "😻": 1647,
      "😽": 1648,
      "😿": 1649,
      "🙁": 1650,
      "🙂": 1651,
      "🙃": 1652,
      "🙄": 1653,
      "🙅": 1654,
      "🙆": 1655,
      "🙇": 1656,
      "🙈": 1657,
      "🙊": 1658,
      "🙋": 1659,
      "🙌": 1660,
      "🙏": 1661,
      "🚌": 1662,
      "🚓": 1663,
      "🚣": 1664,
      "🚨": 1665,
      "🚫": 1666,
      "🚭": 1667,
      "🚵": 1668,
      "🚶": 1669,
      "🚷": 1670,
      "🛌": 1671,
      "🛐": 1672,
      "🛒": 1673,
      "🛫": 1674,
      "🛰": 1675,
      "🟥": 1676,
      "🤍": 1677,
      "🤎": 1678,
      "🤐": 1679,
      "🤒": 1680,
      "🤓": 1681,
      "🤔": 1682,
      "🤕": 1683,
      "🤚": 1684,
      "🤟": 1685,
      "🤠": 1686,
      "🤣": 1687,
      "🤤": 1688,
      "🤧": 1689,
      "🤨": 1690,
      "🤩": 1691,
      "🤪": 1692,
      "🤭": 1693,
      "🤲": 1694,
      "🤸": 1695,
      "🤹": 1696,
      "🥀": 1697,
      "🥇": 1698,
      "🥰": 1699,
      "🥺": 1700,
      "🦋": 1701,
      "🦦": 1702,
      "🦯": 1703,
      "🦼": 1704,
      "🦽": 1705,
      "🧐": 1706,
      "🧑": 1707,
      "🧖": 1708,
      "🧚": 1709,
      "🧝": 1710,
      "🧸": 1711,
      "##o": 1712,
      "##u": 1713,
      "##n": 1714,
      "##d": 1715,
      "##s": 1716,
      "##ا": 1717,
      "##ك": 1718,
      "##ل": 1719,
      "##ر": 1720,
      "##ک": 1721,
      "##ي": 1722,
      "##ہ": 1723,
      "##م": 1724,
      "##و": 1725,
      "##ت": 1726,
      "##ن": 1727,
      "##ـ": 1728,
      "##ه": 1729,
      "##َ": 1730,
      "##ھ": 1731,
      "##ڙ": 1732,
      "##ع": 1733,
      "##ذ": 1734,
      "##ج": 1735,
      "##ء": 1736,
      "##ُ": 1737,
      "##f": 1738,
      "##ې": 1739,
      "##ڍ": 1740,
      "##ف": 1741,
      "##ش": 1742,
      "##ز": 1743,
      "##چ": 1744,
      "##ب": 1745,
      "##ق": 1746,
      "##ً": 1747,
      "##ئ": 1748,
      "##پ": 1749,
      "##س": 1750,
      "##گ": 1751,
      "##ڪ": 1752,
      "##د": 1753,
      "##ڊ": 1754,
      "##ٽ": 1755,
      "##ڹ": 1756,
      "##ډ": 1757,
      "##ٍ": 1758,
      "##ۑ": 1759,
      "##e": 1760,
      "##i": 1761,
      "##ص": 1762,
      "##ض": 1763,
      "##ح": 1764,
      "##ط": 1765,
      "##w": 1766,
      "##ڻ": 1767,
      "##ٿ": 1768,
      "##b": 1769,
      "##y": 1770,
      "##p": 1771,
      "##ڄ": 1772,
      "##ٔ": 1773,
      "##6": 1774,
      "##3": 1775,
      "##ث": 1776,
      "##ڏ": 1777,
      "##2": 1778,
      "##g": 1779,
      "##r": 1780,
      "##m": 1781,
      "##t": 1782,
      "##ظ": 1783,
      "##ة": 1784,
      "##غ": 1785,
      "##l": 1786,
      "##ڱ": 1787,
      "##a": 1788,
      "##أ": 1789,
      "##ِ": 1790,
      "##۷": 1791,
      "##۸": 1792,
      "##ی": 1793,
      "##ٹ": 1794,
      "##k": 1795,
      "##آ": 1796,
      "##خ": 1797,
      "##ڳ": 1798,
      "##h": 1799,
      "##ى": 1800,
      "##q": 1801,
      "##x": 1802,
      "##4": 1803,
      "##v": 1804,
      "##ڷ": 1805,
      "##ے": 1806,
      "##ؤ": 1807,
      "##ٻ": 1808,
      "##ڀ": 1809,
      "##c": 1810,
      "##5": 1811,
      "##0": 1812,
      "##٘": 1813,
      "##ٺ": 1814,
      "##9": 1815,
      "##z": 1816,
      "##ؑ": 1817,
      "##؟": 1818,
      "##ڵ": 1819,
      "##7": 1820,
      "##1": 1821,
      "##ْ": 1822,
      "##ٴ": 1823,
      "##<": 1824,
      "##]": 1825,
      "##~": 1826,
      "##څ": 1827,
      "##8": 1828,
      "##j": 1829,
      "##=": 1830,
      "##ّ": 1831,
      "##ڇ": 1832,
      "##💙": 1833,
      "##_": 1834,
      "##ڌ": 1835,
      "##ؿ": 1836,
      "##π": 1837,
      "##ο": 1838,
      "##ρ": 1839,
      "##ε": 1840,
      "##ί": 1841,
      "##ς": 1842,
      "##)": 1843,
      "##۱": 1844,
      "##۳": 1845,
      "##ځ": 1846,
      "##ু": 1847,
      "##ম": 1848,
      "##ন": 1849,
      "##্": 1850,
      "##ত": 1851,
      "##ґ": 1852,
      "##ں": 1853,
      "##إ": 1854,
      "##्": 1855,
      "##र": 1856,
      "##श": 1857,
      "##ि": 1858,
      "##क": 1859,
      "##ष": 1860,
      "##ण": 1861,
      "##ۊ": 1862,
      "##💞": 1863,
      "##.": 1864,
      "##ټ": 1865,
      "##😵": 1866,
      "##ګ": 1867,
      "##ा": 1868,
      "##म": 1869,
      "##ो": 1870,
      "##ڃ": 1871,
      "##ב": 1872,
      "##ۈ": 1873,
      "##ë": 1874,
      "##ۉ": 1875,
      "##ړ": 1876,
      "##ٰ": 1877,
      "##۴": 1878,
      "##ۃ": 1879,
      "##٧": 1880,
      "##ٌ": 1881,
      "##۰": 1882,
      "##۶": 1883,
      "##é": 1884,
      "##ڈ": 1885,
      "##ۂ": 1886,
      "##ڝ": 1887,
      "##;": 1888,
      "##פ": 1889,
      "##ֿ": 1890,
      "##ڸ": 1891,
      "##?": 1892,
      "##٦": 1893,
      "##ڤ": 1894,
      "##٥": 1895,
      "##٤": 1896,
      "##!": 1897,
      "##٠": 1898,
      "##ڜ": 1899,
      "##ؽ": 1900,
      "##۵": 1901,
      "##ݩ": 1902,
      "##ۍ": 1903,
      "##ڑ": 1904,
      "##а": 1905,
      "##з": 1906,
      "##д": 1907,
      "##ç": 1908,
      "##ێ": 1909,
      "##ڦ": 1910,
      "##न": 1911,
      "##य": 1912,
      "##۽": 1913,
      "##ş": 1914,
      "##ł": 1915,
      "##(": 1916,
      "##ެ": 1917,
      "##и": 1918,
      "##т": 1919,
      "##р": 1920,
      "##ы": 1921,
      "##й": 1922,
      "##،": 1923,
      "##♡": 1924,
      "##\"": 1925,
      "##ל": 1926,
      "##ּ": 1927,
      "##🇵": 1928,
      "##-": 1929,
      "##[": 1930,
      "##:": 1931,
      "##ਿ": 1932,
      "##ੰ": 1933,
      "##ਧ": 1934,
      "##ੀ": 1935,
      "##>": 1936,
      "##ٱ": 1937,
      "##ږ": 1938,
      "##ү": 1939,
      "##•": 1940,
      "##ښ": 1941,
      "##ݦ": 1942,
      "##â": 1943,
      "##ࢪ": 1944,
      "##ٕ": 1945,
      "##✿": 1946,
      "##。": 1947,
      "##è": 1948,
      "##ï": 1949,
      "##ê": 1950,
      "##ť": 1951,
      "##ý": 1952,
      "##स": 1953,
      "##ݥ": 1954,
      "##^": 1955,
      "##त": 1956,
      "##/": 1957,
      "##ā": 1958,
      "##ژ": 1959,
      "##̇": 1960,
      "##ω": 1961,
      "##ग": 1962,
      "##ह": 1963,
      "##ु": 1964,
      "##ღ": 1965,
      "##া": 1966,
      "##য": 1967,
      "##়": 1968,
      "##ল": 1969,
      "##ۧ": 1970,
      "##ۆ": 1971,
      "##١": 1972,
      "##۹": 1973,
      "##ä": 1974,
      "##ڶ": 1975,
      "##۲": 1976,
      "##۔": 1977,
      "##$": 1978,
      "##﴿": 1979,
      "##*": 1980,
      "##ڛ": 1981,
      "##ٛ": 1982,
      "##ٖ": 1983,
      "##ü": 1984,
      "##【": 1985,
      "##★": 1986,
      "##】": 1987,
      "##😂": 1988,
      "##💦": 1989,
      "##🍻": 1990,
      "##%": 1991,
      "##ٗ": 1992,
      "##ڕ": 1993,
      "##ۓ": 1994,
      "##}": 1995,
      "##🇿": 1996,
      "##💪": 1997,
      "##🔥": 1998,
      "##о": 1999,
      "##м": 2000,
      "##ؼ": 2001,
      "##@": 2002,
      "##ٚ": 2003,
      "##ध": 2004,
      "##ं": 2005,
      "##א": 2006,
      "##ڎ": 2007,
      "##द": 2008,
      "##💔": 2009,
      "##í": 2010,
      "##嘅": 2011,
      "##發": 2012,
      "##音": 2013,
      "##😪": 2014,
      "##ᄒ": 2015,
      "##ı": 2016,
      "##ۛ": 2017,
      "##'": 2018,
      "##ؐ": 2019,
      "##٢": 2020,
      "##ϋ": 2021,
      "##ά": 2022,
      "##ϟ": 2023,
      "##&": 2024,
      "###": 2025,
      "##ն": 2026,
      "##չ": 2027,
      "##🔫": 2028,
      "##ी": 2029,
      "##♪": 2030,
      "##♫": 2031,
      "##지": 2032,
      "##효": 2033,
      "##ݪ": 2034,
      "##€": 2035,
      "##̃": 2036,
      "##٩": 2037,
      "##٨": 2038,
      "##ۅ": 2039,
      "##◄": 2040,
      "##😄": 2041,
      "##ۡ": 2042,
      "##ט": 2043,
      "##❤": 2044,
      "##כ": 2045,
      "##μ": 2046,
      "##ڂ": 2047,
      "##,": 2048,
      "##ム": 2049,
      "##刀": 2050,
      "##ノ": 2051,
      "##の": 2052,
      "##√": 2053,
      "##ड": 2054,
      "##ە": 2055,
      "##ल": 2056,
      "##⇦": 2057,
      "##ð": 2058,
      "##{": 2059,
      "##ਈ": 2060,
      "##ۤ": 2061,
      "##←": 2062,
      "##菜": 2063,
      "##ڼ": 2064,
      "##ở": 2065,
      "##ḑ": 2066,
      "##ٲ": 2067,
      "##̲": 2068,
      "##š": 2069,
      "##ڒ": 2070,
      "##📑": 2071,
      "##🏼": 2072,
      "##î": 2073,
      "##û": 2074,
      "##छ": 2075,
      "##ස": 2076,
      "##න": 2077,
      "##්": 2078,
      "##ව": 2079,
      "##ශ": 2080,
      "##ය": 2081,
      "##ෙ": 2082,
      "##ì": 2083,
      "##✋": 2084,
      "##ι": 2085,
      "##☺": 2086,
      "##ज": 2087,
      "##ি": 2088,
      "##ই": 2089,
      "##ś": 2090,
      "##ć": 2091,
      "##œ": 2092,
      "##ڠ": 2093,
      "##×": 2094,
      "##η": 2095,
      "##ṣ": 2096,
      "##ọ": 2097,
      "##ṛ": 2098,
      "##ˇ": 2099,
      "##α": 2100,
      "##ч": 2101,
      "##👍": 2102,
      "##🏻": 2103,
      "##ृ": 2104,
      "##ू": 2105,
      "##ۋ": 2106,
      "##🤣": 2107,
      "##ब": 2108,
      "##इ": 2109,
      "##в": 2110,
      "##ь": 2111,
      "##ۀ": 2112,
      "##ి": 2113,
      "##ం": 2114,
      "##ధ": 2115,
      "##ీ": 2116,
      "##😠": 2117,
      "##藍": 2118,
      "##ᓄ": 2119,
      "##·": 2120,
      "##😻": 2121,
      "##ٓ": 2122,
      "##ٳ": 2123,
      "##ۄ": 2124,
      "##؛": 2125,
      "##♥": 2126,
      "##ᴀ": 2127,
      "##ɪ": 2128,
      "##ɴ": 2129,
      "##н": 2130,
      "##†": 2131,
      "##े": 2132,
      "##ē": 2133,
      "##у": 2134,
      "##ж": 2135,
      "##е": 2136,
      "##ʞ": 2137,
      "##φ": 2138,
      "##ú": 2139,
      "##۩": 2140,
      "##х": 2141,
      "##🏾": 2142,
      "##ڣ": 2143,
      "##£": 2144,
      "##ị": 2145,
      "##ö": 2146,
      "##č": 2147,
      "##۫": 2148,
      "##͜": 2149,
      "##ڲ": 2150,
      "##ݛ": 2151,
      "##ۿ": 2152,
      "##👊": 2153,
      "##⃣": 2154,
      "##г": 2155,
      "##л": 2156,
      "##ढ": 2157,
      "##с": 2158,
      "##🇸": 2159,
      "##٣": 2160,
      "##☆": 2161,
      "##̷": 2162,
      "##►": 2163,
      "##😊": 2164,
      "##♀": 2165,
      "##િ": 2166,
      "##ં": 2167,
      "##ધ": 2168,
      "##ી": 2169,
      "##🔕": 2170,
      "##צ": 2171,
      "##ע": 2172,
      "##ר": 2173,
      "##⃫": 2174,
      "##प": 2175,
      "##┇": 2176,
      "##ਾ": 2177,
      "##ਰ": 2178,
      "##ੋ": 2179,
      "##ਬ": 2180,
      "##٪": 2181,
      "##发": 2182,
      "##ಿ": 2183,
      "##ڭ": 2184,
      "##̶": 2185,
      "##॒": 2186,
      "##¬": 2187,
      "##래": 2188,
      "##ڐ": 2189,
      "##ख": 2190,
      "##ཻ": 2191,
      "##ș": 2192,
      "##๋": 2193,
      "##🙂": 2194,
      "##💘": 2195,
      "##😇": 2196,
      "##ğ": 2197,
      "##۾": 2198,
      "##ǝ": 2199,
      "##к": 2200,
      "##ó": 2201,
      "##ź": 2202,
      "##ۨ": 2203,
      "##◝": 2204,
      "##उ": 2205,
      "##ँ": 2206,
      "##̉": 2207,
      "##ò": 2208,
      "##😳": 2209,
      "##𐭦": 2210,
      "##𐭣": 2211,
      "##𐭪": 2212,
      "##り": 2213,
      "##à": 2214,
      "##୭": 2215,
      "##ս": 2216,
      "##✌": 2217,
      "##′": 2218,
      "##দ": 2219,
      "##ব": 2220,
      "##😏": 2221,
      "##💻": 2222,
      "##🏿": 2223,
      "##🦼": 2224,
      "##✗": 2225,
      "##🎀": 2226,
      "##🙈": 2227,
      "##😱": 2228,
      "##👧": 2229,
      "##↓": 2230,
      "##ڨ": 2231,
      "##ක": 2232,
      "##ම": 2233,
      "##ۢ": 2234,
      "##ڿ": 2235,
      "##🥺": 2236,
      "##💖": 2237,
      "##✨": 2238,
      "##å": 2239,
      "##į": 2240,
      "##ñ": 2241,
      "##ṃ": 2242,
      "##ḭ": 2243,
      "##ṝ": 2244,
      "##ă": 2245,
      "##մ": 2246,
      "##ታ": 2247,
      "##ै": 2248,
      "##ώ": 2249,
      "##ę": 2250,
      "##ŋ": 2251,
      "##।": 2252,
      "##ō": 2253,
      "##ô": 2254,
      "##້": 2255,
      "##າ": 2256,
      "##ພ": 2257,
      "##ະ": 2258,
      "##ເ": 2259,
      "##ຈ": 2260,
      "##ົ": 2261,
      "##ຢ": 2262,
      "##ກ": 2263,
      "##ຖ": 2264,
      "##ມ": 2265,
      "##ທ": 2266,
      "##່": 2267,
      "##ນ": 2268,
      "##何": 2269,
      "##用": 2270,
      "##鲁": 2271,
      "##瑞": 2272,
      "##语": 2273,
      "##🏹": 2274,
      "##ट": 2275,
      "##°": 2276,
      "##🤍": 2277,
      "##◍": 2278,
      "##̣": 2279,
      "##̥": 2280,
      "##ш": 2281,
      "##ø": 2282,
      "##ࢦ": 2283,
      "##व": 2284,
      "##≧": 2285,
      "##∇": 2286,
      "##≦": 2287,
      "##+": 2288,
      "##ɑ": 2289,
      "##ː": 2290,
      "##ۘ": 2291,
      "##ۏ": 2292,
      "##á": 2293,
      "##ה": 2294,
      "##ם": 2295,
      "##각": 2296,
      "##형": 2297,
      "##ż": 2298,
      "##・": 2299,
      "##∀": 2300,
      "##🌓": 2301,
      "##💕": 2302,
      "##🔸": 2303,
      "##※": 2304,
      "##●": 2305,
      "##ौ": 2306,
      "##ई": 2307,
      "##🏭": 2308,
      "##ۣ": 2309,
      "##ۗ": 2310,
      "##ۙ": 2311,
      "##͡": 2312,
      "##я": 2313,
      "##♓": 2314,
      "##ν": 2315,
      "##υ": 2316,
      "##σ": 2317,
      "##λ": 2318,
      "##đ": 2319,
      "##♩": 2320,
      "##͠": 2321,
      "##ؓ": 2322,
      "##ě": 2323,
      "##🎻": 2324,
      "##٬": 2325,
      "##❀": 2326,
      "##≥": 2327,
      "##ẹ": 2328,
      "##♊": 2329,
      "##💚": 2330,
      "##🧐": 2331,
      "##🤨": 2332,
      "##🦋": 2333,
      "##☚": 2334,
      "##໑": 2335,
      "##ᬼ": 2336,
      "##ɛ": 2337,
      "##ə": 2338,
      "##ˈ": 2339,
      "##ݧ": 2340,
      "##ե": 2341,
      "##ռ": 2342,
      "##ա": 2343,
      "##խ": 2344,
      "##ո": 2345,
      "##ի": 2346,
      "##😯": 2347,
      "##̍": 2348,
      "##ȋ": 2349,
      "##ė": 2350,
      "##ؒ": 2351,
      "##☹": 2352,
      "##👀": 2353,
      "##⊙": 2354,
      "##ⴢ": 2355,
      "##̤": 2356,
      "##ڋ": 2357,
      "##ܢ": 2358,
      "##ۜ": 2359,
      "##ù": 2360,
      "##थ": 2361,
      "##🙊": 2362,
      "##▽": 2363,
      "##👈": 2364,
      "##😎": 2365,
      "##😢": 2366,
      "##☝": 2367,
      "##🤎": 2368,
      "##⇣": 2369,
      "##ц": 2370,
      "##❣": 2371,
      "##ꫀ": 2372,
      "##ꪝ": 2373,
      "##👆": 2374,
      "##🔞": 2375,
      "##☛": 2376,
      "##ζ": 2377,
      "##ۺ": 2378,
      "##🎁": 2379,
      "##ž": 2380,
      "##͛": 2381,
      "##🤤": 2382,
      "##ĸ": 2383,
      "##̅": 2384,
      "##ᅲ": 2385,
      "##ħ": 2386,
      "##ツ": 2387,
      "##😮": 2388,
      "##😍": 2389,
      "##♍": 2390,
      "##ṩ": 2391,
      "##ን": 2392,
      "##ድ": 2393,
      "##ሂ": 2394,
      "##🔗": 2395,
      "##🦽": 2396,
      "##›": 2397,
      "##¦": 2398,
      "##♣": 2399,
      "##🚶": 2400,
      "##🌷": 2401,
      "##🐒": 2402,
      "##真": 2403,
      "##的": 2404,
      "##很": 2405,
      "##爱": 2406,
      "##你": 2407,
      "##리": 2408,
      "##ಲ": 2409,
      "##್": 2410,
      "##◩": 2411,
      "##պ": 2412,
      "##ৌ": 2413,
      "##ড": 2414,
      "##ڽ": 2415,
      "##ა": 2416,
      "##რ": 2417,
      "##ე": 2418,
      "##კ": 2419,
      "##თ": 2420,
      "##ڔ": 2421,
      "##च": 2422,
      "##ө": 2423,
      "##б": 2424,
      "##♉": 2425,
      "##🇩": 2426,
      "##έ": 2427,
      "##ٯ": 2428,
      "##ક": 2429,
      "##💍": 2430,
      "##®": 2431,
      "##😐": 2432,
      "##🌈": 2433,
      "##💜": 2434,
      "##ద": 2435,
      "##ా": 2436,
      "##ւ": 2437,
      "##ъ": 2438,
      "##ػ": 2439,
      "##発": 2440,
      "##を": 2441,
      "##ꟽ": 2442,
      "##ז": 2443,
      "##ህ": 2444,
      "##力": 2445,
      "##ִ": 2446,
      "##¿": 2447,
      "##⠀": 2448,
      "##ʊ": 2449,
      "##😀": 2450,
      "##◆": 2451,
      "##💰": 2452,
      "##ছ": 2453,
      "##ে": 2454,
      "##¤": 2455,
      "##✫": 2456,
      "##आ": 2457,
      "##🏃": 2458,
      "##\\": 2459,
      "##і": 2460,
      "##ր": 2461,
      "##😉": 2462,
      "##🤔": 2463,
      "##🙏": 2464,
      "##న": 2465,
      "##య": 2466,
      "##😭": 2467,
      "##ξ": 2468,
      "##๑": 2469,
      "##ݢ": 2470,
      "##💓": 2471,
      "##్": 2472,
      "##వ": 2473,
      "##ు": 2474,
      "##ʻ": 2475,
      "##‹": 2476,
      "##😁": 2477,
      "##😝": 2478,
      "##̩": 2479,
      "##̊": 2480,
      "##ۦ": 2481,
      "##⭐": 2482,
      "##ؾ": 2483,
      "##ङ": 2484,
      "##β": 2485,
      "##қ": 2486,
      "##̌": 2487,
      "##♈": 2488,
      "##️": 2489,
      "##♏": 2490,
      "##⇡": 2491,
      "##➟": 2492,
      "##ݘ": 2493,
      "##ਪ": 2494,
      "##ਜ": 2495,
      "##斯": 2496,
      "##語": 2497,
      "##ח": 2498,
      "##ו": 2499,
      "##ד": 2500,
      "##ש": 2501,
      "##着": 2502,
      "##屋": 2503,
      "##ン": 2504,
      "##ピ": 2505,
      "##ュ": 2506,
      "##ー": 2507,
      "##タ": 2508,
      "##サ": 2509,
      "##イ": 2510,
      "##エ": 2511,
      "##ス": 2512,
      "##🍃": 2513,
      "##י": 2514,
      "##ן": 2515,
      "##θ": 2516,
      "##ή": 2517,
      "##▂": 2518,
      "##❔": 2519,
      "##😘": 2520,
      "##ው": 2521,
      "##ዴ": 2522,
      "##😽": 2523,
      "##😅": 2524,
      "##ʒ": 2525,
      "##庆": 2526,
      "##‐": 2527,
      "##ř": 2528,
      "##ű": 2529,
      "##■": 2530,
      "##נ": 2531,
      "##子": 2532,
      "##ĥ": 2533,
      "##ϻ": 2534,
      "##ď": 2535,
      "##۪": 2536,
      "##؏": 2537,
      "##❥": 2538,
      "##✦": 2539,
      "##😌": 2540,
      "##🥀": 2541,
      "##ҳ": 2542,
      "##ڞ": 2543,
      "##ƽ": 2544,
      "##❧": 2545,
      "##ю": 2546,
      "##̐": 2547,
      "##̋": 2548,
      "##ٞ": 2549,
      "##फ": 2550,
      "##😹": 2551,
      "##💛": 2552,
      "##₪": 2553,
      "##◉": 2554,
      "##纳": 2555,
      "##国": 2556,
      "##际": 2557,
      "##机": 2558,
      "##场": 2559,
      "##蝶": 2560,
      "##葬": 2561,
      "##花": 2562,
      "##♋": 2563,
      "##ṭ": 2564,
      "##↝": 2565,
      "##ฮ": 2566,
      "##ক": 2567,
      "##ŭ": 2568,
      "##♬": 2569,
      "##©": 2570,
      "##§": 2571,
      "##ለ": 2572,
      "##ኝ": 2573,
      "##✅": 2574,
      "##₩": 2575,
      "##☻": 2576,
      "##↤": 2577,
      "##٭": 2578,
      "##ղ": 2579,
      "##🕊": 2580,
      "##ụ": 2581,
      "##ए": 2582,
      "##ɣ": 2583,
      "##🌤": 2584,
      "##κ": 2585,
      "##п": 2586,
      "##ۇ": 2587,
      "##డ": 2588,
      "##æ": 2589,
      "##ը": 2590,
      "##↷": 2591,
      "##◈": 2592,
      "##ි": 2593,
      "##ල": 2594,
      "##🍷": 2595,
      "##ΐ": 2596,
      "##ɞ": 2597,
      "##💣": 2598,
      "##╝": 2599,
      "##雨": 2600,
      "##迪": 2601,
      "##⁀": 2602,
      "##ג": 2603,
      "##מ": 2604,
      "##હ": 2605,
      "##ે": 2606,
      "##ર": 2607,
      "##ો": 2608,
      "##τ": 2609,
      "##ό": 2610,
      "##금": 2611,
      "##만": 2612,
      "##😃": 2613,
      "##ꪆ": 2614,
      "##ī": 2615,
      "##◦": 2616,
      "##ٮ": 2617,
      "##հ": 2618,
      "##տ": 2619,
      "##ց": 2620,
      "##լ": 2621,
      "##♭": 2622,
      "##要": 2623,
      "##多": 2624,
      "##少": 2625,
      "##钱": 2626,
      "##ः": 2627,
      "##ݨ": 2628,
      "##ፈ": 2629,
      "##ል": 2630,
      "##ጋ": 2631,
      "##ů": 2632,
      "##ల": 2633,
      "##传": 2634,
      "##者": 2635,
      "##😿": 2636,
      "##🖤": 2637,
      "##ą": 2638,
      "##ŧ": 2639,
      "##ћ": 2640,
      "##ठ": 2641,
      "##̵": 2642,
      "##ሳ": 2643,
      "##ወ": 2644,
      "##ር": 2645,
      "##ቅ": 2646,
      "##ٟ": 2647,
      "##̗": 2648,
      "##̀": 2649,
      "##ੈ": 2650,
      "##ਂ": 2651,
      "##☘": 2652,
      "##খ": 2653,
      "##👌": 2654,
      "##🇲": 2655,
      "##̈": 2656,
      "##於": 2657,
      "##可": 2658,
      "##以": 2659,
      "##顯": 2660,
      "##示": 2661,
      "##了": 2662,
      "##🌝": 2663,
      "##🇧": 2664,
      "##ۥ": 2665,
      "##উ": 2666,
      "##📿": 2667,
      "##ょ": 2668,
      "##う": 2669,
      "##ほ": 2670,
      "##か": 2671,
      "##が": 2672,
      "##く": 2673,
      "##ұ": 2674,
      "##ể": 2675,
      "##ĺ": 2676,
      "##झ": 2677,
      "##♠": 2678,
      "##ڗ": 2679,
      "##⃢": 2680,
      "##∞": 2681,
      "##ۼ": 2682,
      "##э": 2683,
      "##🍩": 2684,
      "##ᓅ": 2685,
      "##भ": 2686,
      "##ஐ": 2687,
      "##▌": 2688,
      "##ෑ": 2689,
      "##ጣ": 2690,
      "##ም": 2691,
      "##র": 2692,
      "##🖕": 2693,
      "##〗": 2694,
      "##ㄨ": 2695,
      "##チ": 2696,
      "##コ": 2697,
      "##マ": 2698,
      "##❕": 2699,
      "##ǿ": 2700,
      "##ṁ": 2701,
      "##ٜ": 2702,
      "##🌻": 2703,
      "##ệ": 2704,
      "##ɓ": 2705,
      "##ŏ": 2706,
      "##🎃": 2707,
      "##յ": 2708,
      "##կ": 2709,
      "##ך": 2710,
      "##្": 2711,
      "##ន": 2712,
      "##ំ": 2713,
      "##ព": 2714,
      "##េ": 2715,
      "##ញ": 2716,
      "##🇷": 2717,
      "##ટ": 2718,
      "##▶": 2719,
      "##✘": 2720,
      "##ञ": 2721,
      "##۬": 2722,
      "##ӎ": 2723,
      "##ओ": 2724,
      "##シ": 2725,
      "##ト": 2726,
      "##😆": 2727,
      "##ಈ": 2728,
      "##ถ": 2729,
      "##า": 2730,
      "##น": 2731,
      "##ท": 2732,
      "##ี": 2733,
      "##่": 2734,
      "##้": 2735,
      "##ด": 2736,
      "##ม": 2737,
      "##ก": 2738,
      "##화": 2739,
      "##하": 2740,
      "##는": 2741,
      "##ঔ": 2742,
      "##🤟": 2743,
      "##ನ": 2744,
      "##ಡ": 2745,
      "##ᭁ": 2746,
      "##🎨": 2747,
      "##🖼": 2748,
      "##▐": 2749,
      "##ో": 2750,
      "##₦": 2751,
      "##ܨ": 2752,
      "##ܓ": 2753,
      "##🥰": 2754,
      "##✷": 2755,
      "##۞": 2756,
      "##『": 2757,
      "##ܪ": 2758,
      "##ܵ": 2759,
      "##ᄑ": 2760,
      "##🇶": 2761,
      "##﮼": 2762,
      "##😜": 2763,
      "##−": 2764,
      "##마": 2765,
      "##나": 2766,
      "##ੱ": 2767,
      "##ਥ": 2768,
      "##ੇ": 2769,
      "##ጠ": 2770,
      "##ይ": 2771,
      "##ዎ": 2772,
      "##¶": 2773,
      "##̝": 2774,
      "##ٙ": 2775,
      "##ꦿ": 2776,
      "##᭄": 2777,
      "##⃕": 2778,
      "##バ": 2779,
      "##ッ": 2780,
      "##ク": 2781,
      "##😒": 2782,
      "##ট": 2783,
      "##ো": 2784,
      "##、": 2785,
      "##०": 2786,
      "##স": 2787,
      "##⚫": 2788,
      "##정": 2789,
      "##에": 2790,
      "##서": 2791,
      "##↯": 2792,
      "##👑": 2793,
      "##࣪": 2794,
      "##🇮": 2795,
      "##位": 2796,
      "##打": 2797,
      "##电": 2798,
      "##话": 2799,
      "##吗": 2800,
      "##ॉ": 2801,
      "##ã": 2802,
      "##양": 2803,
      "##직": 2804,
      "##할": 2805,
      "##시": 2806,
      "##ň": 2807,
      "##문": 2808,
      "##희": 2809,
      "##ი": 2810,
      "##ნ": 2811,
      "##დ": 2812,
      "##უ": 2813,
      "##午": 2814,
      "##节": 2815,
      "##📸": 2816,
      "##📩": 2817,
      "##ᓆ": 2818,
      "##법": 2819,
      "##🤧": 2820,
      "##ƒ": 2821,
      "##ȅ": 2822,
      "##♦": 2823,
      "##☄": 2824,
      "##◕": 2825,
      "##ๅ": 2826,
      "##ހ": 2827,
      "##ુ": 2828,
      "##報": 2829,
      "##科": 2830,
      "##学": 2831,
      "##😋": 2832,
      "##🤩": 2833,
      "##═": 2834,
      "##╬": 2835,
      "##ા": 2836,
      "##થ": 2837,
      "##機": 2838,
      "##詞": 2839,
      "##彙": 2840,
      "##💇": 2841,
      "##♂": 2842,
      "##ᑐ": 2843,
      "##🍼": 2844,
      "##ሩ": 2845,
      "##є": 2846,
      "##ั": 2847,
      "##อ": 2848,
      "##ย": 2849,
      "##ค": 2850,
      "##ุ": 2851,
      "##ณ": 2852,
      "##🅜": 2853,
      "##🅦": 2854,
      "##🅛": 2855,
      "##༅": 2856,
      "##◊": 2857,
      "##ᓘ": 2858,
      "##』": 2859,
      "##💫": 2860,
      "##💗": 2861,
      "##ʀ": 2862,
      "##🌚": 2863,
      "##ೋ": 2864,
      "##🌿": 2865,
      "##พ": 2866,
      "##ฉ": 2867,
      "##ไ": 2868,
      "##ป": 2869,
      "##ส": 2870,
      "##บ": 2871,
      "##ิ": 2872,
      "##ห": 2873,
      "##🦯": 2874,
      "##ố": 2875,
      "##💯": 2876,
      "##ɨ": 2877,
      "##ǟ": 2878,
      "##̯": 2879,
      "##પ": 2880,
      "##ડ": 2881,
      "##ላ": 2882,
      "##ጎ": 2883,
      "##ት": 2884,
      "##🌸": 2885,
      "##≈": 2886,
      "##เ": 2887,
      "##ล": 2888,
      "##ڟ": 2889,
      "##年": 2890,
      "##月": 2891,
      "##😈": 2892,
      "##ത": 2893,
      "##്": 2894,
      "##പ": 2895,
      "##ന": 2896,
      "##ങ": 2897,
      "##ള": 2898,
      "##→": 2899,
      "##≯": 2900,
      "##़": 2901,
      "##謝": 2902,
      "##ք": 2903,
      "##վ": 2904,
      "##ኔ": 2905,
      "##𓆪": 2906,
      "##ಂ": 2907,
      "##ಧ": 2908,
      "##ơ": 2909,
      "##ỹ": 2910,
      "##ধ": 2911,
      "##さ": 2912,
      "##い": 2913,
      "##घ": 2914,
      "##ド": 2915,
      "##╚": 2916,
      "##𓆩": 2917,
      "##࿅": 2918,
      "##ɕ": 2919,
      "##ј": 2920,
      "##☜": 2921,
      "##♚": 2922,
      "##⚘": 2923,
      "##¡": 2924,
      "##క": 2925,
      "##ქ": 2926,
      "##მ": 2927,
      "##ს": 2928,
      "##ʔ": 2929,
      "##一": 2930,
      "##篇": 2931,
      "##◥": 2932,
      "##◣": 2933,
      "##̖": 2934,
      "##́": 2935,
      "##🎈": 2936,
      "##🤠": 2937,
      "##ṉ": 2938,
      "##ற": 2939,
      "##ѧ": 2940,
      "##↣": 2941,
      "##😔": 2942,
      "##─": 2943,
      "##⋆": 2944,
      "##⇢": 2945,
      "##🎥": 2946,
      "##ҽ": 2947,
      "##🧸": 2948,
      "##చ": 2949,
      "##ే": 2950,
      "##స": 2951,
      "##ț": 2952,
      "##🛫": 2953,
      "##❦": 2954,
      "##÷": 2955,
      "##🌹": 2956,
      "##🐠": 2957,
      "##👋": 2958,
      "##ി": 2959,
      "##ധ": 2960,
      "##○": 2961,
      "##💐": 2962,
      "##云": 2963,
      "##之": 2964,
      "##南": 2965,
      "##🇦": 2966,
      "##♌": 2967,
      "##📛": 2968,
      "##해": 2969,
      "##져": 2970,
      "##요": 2971,
      "##ƛ": 2972,
      "##ƴ": 2973,
      "##ɲ": 2974,
      "##🤒": 2975,
      "##⚡": 2976,
      "##╦": 2977,
      "##🕌": 2978,
      "##🌜": 2979,
      "##💈": 2980,
      "##٫": 2981,
      "##ṇ": 2982,
      "##🌍": 2983,
      "##ß": 2984,
      "##教": 2985,
      "##🏽": 2986,
      "##هه": 2987,
      "##ان": 2988,
      "جي": 2989,
      "##هههه": 2990,
      "##ري": 2991,
      "##هي": 2992,
      "##ين": 2993,
      "##هن": 2994,
      "##ون": 2995,
      "آهي": 2996,
      "##ار": 2997,
      "##ائ": 2998,
      "##يو": 2999,
      "##ال": 3000,
      "کي": 3001,
      "ان": 3002,
      "##ــ": 3003,
      "جو": 3004,
      "##ور": 3005,
      "##ند": 3006,
      "##هههههههه": 3007,
      "ته": 3008,
      "اس": 3009,
      "##لي": 3010,
      "##ام": 3011,
      "##نهن": 3012,
      "##جي": 3013,
      "تي": 3014,
      "##اء": 3015,
      "##يا": 3016,
      "##ئي": 3017,
      "هڪ": 3018,
      "ڪري": 3019,
      "اه": 3020,
      "##اڻ": 3021,
      "##تي": 3022,
      "##دي": 3023,
      "کان": 3024,
      "لاء": 3025,
      "##اري": 3026,
      "سان": 3027,
      "به": 3028,
      "##رو": 3029,
      "نه": 3030,
      "ڪر": 3031,
      "ههههههههه": 3032,
      "ٿي": 3033,
      "##اب": 3034,
      "هن": 3035,
      "##ائي": 3036,
      "اي": 3037,
      "هو": 3038,
      "تو": 3039,
      "ال": 3040,
      "##دا": 3041,
      "آهن": 3042,
      "##ير": 3043,
      "##يڪ": 3044,
      "ڪرڻ": 3045,
      "##لا": 3046,
      "##ــــ": 3047,
      "ٿو": 3048,
      "اسان": 3049,
      "##هان": 3050,
      "##ني": 3051,
      "پي": 3052,
      "##ست": 3053,
      "اهو": 3054,
      "##دو": 3055,
      "جيڪ": 3056,
      "يا": 3057,
      "لاءِ": 3058,
      "##هر": 3059,
      "مو": 3060,
      "##مي": 3061,
      "##ءَ": 3062,
      "##ول": 3063,
      "##نهنجي": 3064,
      "##يل": 3065,
      "سگ": 3066,
      "##را": 3067,
      "توهان": 3068,
      "##يت": 3069,
      "من": 3070,
      "ڪيو": 3071,
      "##سي": 3072,
      "##ائين": 3073,
      "پر": 3074,
      "مان": 3075,
      "مون": 3076,
      "##ات": 3077,
      "هي": 3078,
      "##ڏهن": 3079,
      "##جو": 3080,
      "پو": 3081,
      "جا": 3082,
      "##نگ": 3083,
      "##قي": 3084,
      "##لو": 3085,
      "##قت": 3086,
      "##ها": 3087,
      "ڪند": 3088,
      "وا": 3089,
      "مع": 3090,
      "ٿا": 3091,
      "##اهي": 3092,
      "##اني": 3093,
      "##يم": 3094,
      "ڪو": 3095,
      "رو": 3096,
      "وڌ": 3097,
      "ما": 3098,
      "##ڙي": 3099,
      "ههههه": 3100,
      "وي": 3101,
      "##هو": 3102,
      "ڪم": 3103,
      "سو": 3104,
      "##اد": 3105,
      "##ھن": 3106,
      "##يٽ": 3107,
      "پنهنجي": 3108,
      "##رين": 3109,
      "ئي": 3110,
      "##رف": 3111,
      "او": 3112,
      "##ھي": 3113,
      "##از": 3114,
      "رهي": 3115,
      "##شن": 3116,
      "##سٽ": 3117,
      "ويو": 3118,
      "ڪي": 3119,
      "##له": 3120,
      "انهن": 3121,
      "##بر": 3122,
      "بي": 3123,
      "طور": 3124,
      "##اص": 3125,
      "سڀ": 3126,
      "است": 3127,
      "##اا": 3128,
      "##ئن": 3129,
      "##ههه": 3130,
      "##ورت": 3131,
      "وڃ": 3132,
      "گه": 3133,
      "##اس": 3134,
      "مي": 3135,
      "##بي": 3136,
      "ههههههههههههه": 3137,
      "##اف": 3138,
      "##اي": 3139,
      "##اڪ": 3140,
      "##اڻي": 3141,
      "##گر": 3142,
      "مل": 3143,
      "خو": 3144,
      "##عم": 3145,
      "ڏين": 3146,
      "##ٽي": 3147,
      "سم": 3148,
      "##ءِ": 3149,
      "مح": 3150,
      "##گي": 3151,
      "##ڏي": 3152,
      "##کي": 3153,
      "ماڻ": 3154,
      "په": 3155,
      "##سم": 3156,
      "وڌيڪ": 3157,
      "وين": 3158,
      "##ڪي": 3159,
      "بر": 3160,
      "##ئين": 3161,
      "هون": 3162,
      "وقت": 3163,
      "##ارو": 3164,
      "##الي": 3165,
      "##مل": 3166,
      "ڪج": 3167,
      "##ڙو": 3168,
      "اين": 3169,
      "##در": 3170,
      "في": 3171,
      "سال": 3172,
      "ڇا": 3173,
      "هر": 3174,
      "گهر": 3175,
      "##چي": 3176,
      "در": 3177,
      "##رن": 3178,
      "ام": 3179,
      "##عي": 3180,
      "##نيا": 3181,
      "آھي": 3182,
      "سند": 3183,
      "20": 3184,
      "اڳ": 3185,
      "جنهن": 3186,
      "ڏي": 3187,
      "##ائڻ": 3188,
      "##خت": 3189,
      "##عمال": 3190,
      "ور": 3191,
      "سي": 3192,
      "##صو": 3193,
      "استعمال": 3194,
      "مش": 3195,
      "ڪئي": 3196,
      "جن": 3197,
      "مر": 3198,
      "مس": 3199,
      "سر": 3200,
      "تع": 3201,
      "تر": 3202,
      "##بو": 3203,
      "##اه": 3204,
      "##دار": 3205,
      "شي": 3206,
      "اهي": 3207,
      "ڳال": 3208,
      "##ٽر": 3209,
      "هئي": 3210,
      "تائين": 3211,
      "جيڪو": 3212,
      "واري": 3213,
      "##ــــــــ": 3214,
      "ڪنهن": 3215,
      "گڏ": 3216,
      "ڪن": 3217,
      "سن": 3218,
      "##تو": 3219,
      "##لام": 3220,
      "##وي": 3221,
      "نظ": 3222,
      "ڪريو": 3223,
      "##ائن": 3224,
      "ڪجهه": 3225,
      "##ڻي": 3226,
      "##لم": 3227,
      "اها": 3228,
      "##وم": 3229,
      "لا": 3230,
      "##فت": 3231,
      "چيو": 3232,
      "مق": 3233,
      "ٿين": 3234,
      "##ندي": 3235,
      "جڏهن": 3236,
      "##سو": 3237,
      "بس": 3238,
      "سگهي": 3239,
      "##ڪن": 3240,
      "ڏينهن": 3241,
      "##هم": 3242,
      "وڃي": 3243,
      "رک": 3244,
      "##سان": 3245,
      "جيڪي": 3246,
      "##زي": 3247,
      "سا": 3248,
      "تم": 3249,
      "##نا": 3250,
      "##رح": 3251,
      "##ارن": 3252,
      "ههههههههههههههههه": 3253,
      "##ٺي": 3254,
      "مط": 3255,
      "پوءِ": 3256,
      "نو": 3257,
      "حاص": 3258,
      "منهنجي": 3259,
      "انهي": 3260,
      "##جن": 3261,
      "لڳ": 3262,
      "##ئر": 3263,
      "##نهنجو": 3264,
      "حاصل": 3265,
      "##في": 3266,
      "ٻڌ": 3267,
      "سندس": 3268,
      "##جود": 3269,
      "ضر": 3270,
      "اع": 3271,
      "لي": 3272,
      "جيڪڏهن": 3273,
      "ڪيت": 3274,
      "##in": 3275,
      "پاڻ": 3276,
      "با": 3277,
      "شا": 3278,
      "اح": 3279,
      "##ڪر": 3280,
      "##ندو": 3281,
      "##ٿي": 3282,
      "##دم": 3283,
      "از": 3284,
      "اص": 3285,
      "تح": 3286,
      "##روع": 3287,
      "دو": 3288,
      "##ڻو": 3289,
      "هئ": 3290,
      "##ڪل": 3291,
      "##ايو": 3292,
      "شروع": 3293,
      "تمام": 3294,
      "##بت": 3295,
      "علي": 3296,
      "##ثر": 3297,
      "##بل": 3298,
      "ناهي": 3299,
      "پن": 3300,
      "##اح": 3301,
      "##er": 3302,
      "##ئون": 3303,
      "گھ": 3304,
      "ڇو": 3305,
      "الله": 3306,
      "پرو": 3307,
      "##شي": 3308,
      "باب": 3309,
      "##رم": 3310,
      "ڪار": 3311,
      "##ولي": 3312,
      "دنيا": 3313,
      "ڪا": 3314,
      "##نو": 3315,
      "##ڪا": 3316,
      "ههههههههههه": 3317,
      "##تم": 3318,
      "ٽي": 3319,
      "ههههههه": 3320,
      "ٿيو": 3321,
      "##ڪار": 3322,
      "صح": 3323,
      "جون": 3324,
      "رهيو": 3325,
      "سمج": 3326,
      "##ھان": 3327,
      "تون": 3328,
      "##ران": 3329,
      "زند": 3330,
      "##اءِ": 3331,
      "اُ": 3332,
      "##نڊ": 3333,
      "ها": 3334,
      "##ائون": 3335,
      "مت": 3336,
      "ڇڏ": 3337,
      "##ـــ": 3338,
      "انت": 3339,
      "##ده": 3340,
      "يع": 3341,
      "مد": 3342,
      "##وري": 3343,
      "بهت": 3344,
      "وئي": 3345,
      "##امل": 3346,
      "عل": 3347,
      "وڏي": 3348,
      "نم": 3349,
      "##وو": 3350,
      "ماڻهو": 3351,
      "دور": 3352,
      "چي": 3353,
      "وٽ": 3354,
      "آر": 3355,
      "دل": 3356,
      "ضرورت": 3357,
      "تب": 3358,
      "##الو": 3359,
      "لک": 3360,
      "##دڙ": 3361,
      "آم": 3362,
      "مخت": 3363,
      "##ڪس": 3364,
      "عم": 3365,
      "##ڪري": 3366,
      "ويندو": 3367,
      "سب": 3368,
      "##كم": 3369,
      "##ڪو": 3370,
      "##00": 3371,
      "##ٺو": 3372,
      "پيدا": 3373,
      "##اهر": 3374,
      "اخ": 3375,
      "مار": 3376,
      "پيش": 3377,
      "##انهن": 3378,
      "صرف": 3379,
      "پار": 3380,
      "##لف": 3381,
      "##ستان": 3382,
      "ويا": 3383,
      "##دن": 3384,
      "موجود": 3385,
      "پڻ": 3386,
      "چون": 3387,
      "19": 3388,
      "آخ": 3389,
      "ٻي": 3390,
      "##امي": 3391,
      "خاص": 3392,
      "##پي": 3393,
      "ڪڏهن": 3394,
      "وال": 3395,
      "##عو": 3396,
      "حڪ": 3397,
      "##جا": 3398,
      "ٿيڻ": 3399,
      "##تن": 3400,
      "##لب": 3401,
      "اچي": 3402,
      "زندگي": 3403,
      "وڏ": 3404,
      "ڏس": 3405,
      "طرف": 3406,
      "##يني": 3407,
      "ڪيئن": 3408,
      "##on": 3409,
      "201": 3410,
      "ڪندو": 3411,
      "لو": 3412,
      "قسم": 3413,
      "بابت": 3414,
      "تن": 3415,
      "ڪه": 3416,
      "##ھو": 3417,
      "سڀني": 3418,
      "ڊي": 3419,
      "چو": 3420,
      "چاهي": 3421,
      "ماڻهن": 3422,
      "جيئن": 3423,
      "##عد": 3424,
      "پڙ": 3425,
      "##مين": 3426,
      "ڪمپ": 3427,
      "##ar": 3428,
      "طري": 3429,
      "##اتي": 3430,
      "طرح": 3431,
      "تنهن": 3432,
      "##صي": 3433,
      "شامل": 3434,
      "##فا": 3435,
      "##مان": 3436,
      "ٻئي": 3437,
      "اسٽ": 3438,
      "عمل": 3439,
      "ري": 3440,
      "##رت": 3441,
      "##ندا": 3442,
      "##ندڙ": 3443,
      "ڪت": 3444,
      "##هڻ": 3445,
      "سنڌ": 3446,
      "##من": 3447,
      "مختلف": 3448,
      "##وٽ": 3449,
      "عام": 3450,
      "اڪ": 3451,
      "اڄ": 3452,
      "گهٽ": 3453,
      "يعني": 3454,
      "نا": 3455,
      "وان": 3456,
      "غير": 3457,
      "ڪندا": 3458,
      "هئا": 3459,
      "##ما": 3460,
      "##شت": 3461,
      "وارو": 3462,
      "##رب": 3463,
      "بڻ": 3464,
      "آهيان": 3465,
      "هههههههههه": 3466,
      "##es": 3467,
      "##لس": 3468,
      "اج": 3469,
      "گذ": 3470,
      "خي": 3471,
      "خبر": 3472,
      "##پور": 3473,
      "هل": 3474,
      "##an": 3475,
      "ڳالهه": 3476,
      "تج": 3477,
      "##وا": 3478,
      "حال": 3479,
      "##اااا": 3480,
      "مڪ": 3481,
      "هههههههه": 3482,
      "مدد": 3483,
      "رهيا": 3484,
      "بل": 3485,
      "واق": 3486,
      "هوندي": 3487,
      "اد": 3488,
      "حقي": 3489,
      "سائي": 3490,
      "##سين": 3491,
      "مث": 3492,
      "شاي": 3493,
      "##طي": 3494,
      "##وني": 3495,
      "را": 3496,
      "ملڪ": 3497,
      "ٻن": 3498,
      "ڏانهن": 3499,
      "##ارا": 3500,
      "##ريون": 3501,
      "نن": 3502,
      "واپ": 3503,
      "آمري": 3504,
      "##سن": 3505,
      "گهرجي": 3506,
      "اندر": 3507,
      "ڪندي": 3508,
      "نظر": 3509,
      "##قو": 3510,
      "ڪتاب": 3511,
      "##فر": 3512,
      "هوندو": 3513,
      "آئون": 3514,
      "دا": 3515,
      "##at": 3516,
      "رس": 3517,
      "آهيون": 3518,
      "ڏيڻ": 3519,
      "اچ": 3520,
      "تاري": 3521,
      "##ڊيو": 3522,
      "##هين": 3523,
      "جيڪا": 3524,
      "نق": 3525,
      "هههههههههههه": 3526,
      "ڪندڙ": 3527,
      "سبب": 3528,
      "فر": 3529,
      "ياد": 3530,
      "سيا": 3531,
      "ذري": 3532,
      "ٻين": 3533,
      "تاريخ": 3534,
      "جه": 3535,
      "ھڪ": 3536,
      "ٿيل": 3537,
      "وچ": 3538,
      "##ضي": 3539,
      "##اند": 3540,
      "پاڪ": 3541,
      "جم": 3542,
      "##ڙا": 3543,
      "مڪمل": 3544,
      "عورت": 3545,
      "جواب": 3546,
      "پس": 3547,
      "پري": 3548,
      "##ذا": 3549,
      "آز": 3550,
      "پا": 3551,
      "##رائي": 3552,
      "##ورو": 3553,
      "##ڳو": 3554,
      "ايس": 3555,
      "نئين": 3556,
      "کيس": 3557,
      "نالو": 3558,
      "فائ": 3559,
      "شهر": 3560,
      "##لن": 3561,
      "سگه": 3562,
      "##مو": 3563,
      "##بن": 3564,
      "##زن": 3565,
      "##شش": 3566,
      "##فظ": 3567,
      "##ڪيٽ": 3568,
      "##بار": 3569,
      "تق": 3570,
      "گهڻو": 3571,
      "ايم": 3572,
      "بنيا": 3573,
      "بين": 3574,
      "يق": 3575,
      "اپ": 3576,
      "##en": 3577,
      "بعد": 3578,
      "هتي": 3579,
      "قيم": 3580,
      "بد": 3581,
      "انسان": 3582,
      "پهرين": 3583,
      "اسڪ": 3584,
      "هاڻي": 3585,
      "اهڙي": 3586,
      "##افي": 3587,
      "آن": 3588,
      "تبدي": 3589,
      "##زار": 3590,
      "هم": 3591,
      "ختم": 3592,
      "##لاح": 3593,
      "ني": 3594,
      "ههههههههههههههه": 3595,
      "اف": 3596,
      "انا": 3597,
      "پنهنجو": 3598,
      "ملي": 3599,
      "وري": 3600,
      "اڃ": 3601,
      "آھن": 3602,
      "##ادي": 3603,
      "سيڪ": 3604,
      "##يان": 3605,
      "##or": 3606,
      "بند": 3607,
      "سگهو": 3608,
      "##به": 3609,
      "۾،": 3610,
      "ٿيندو": 3611,
      "##ٽن": 3612,
      "مسئ": 3613,
      "شايد": 3614,
      "سالن": 3615,
      "پيو": 3616,
      "ڇڏيو": 3617,
      "##شه": 3618,
      "##عت": 3619,
      "ات": 3620,
      "ڪون": 3621,
      "انگ": 3622,
      "10": 3623,
      "رهن": 3624,
      "اهم": 3625,
      "##ضح": 3626,
      "ڏئي": 3627,
      "ٿئي": 3628,
      "وڏو": 3629,
      "ادا": 3630,
      "وٺ": 3631,
      "وس": 3632,
      "هيٺ": 3633,
      "##اجي": 3634,
      "ڇڏي": 3635,
      "##خل": 3636,
      "ڏا": 3637,
      "##روري": 3638,
      "هٿ": 3639,
      "هههههه": 3640,
      "فون": 3641,
      "دوست": 3642,
      "جان": 3643,
      "ايپ": 3644,
      "بح": 3645,
      "سام": 3646,
      "خلا": 3647,
      "##اءُ": 3648,
      "ويب": 3649,
      "دي": 3650,
      "هههههههههههههه": 3651,
      "خيال": 3652,
      "##جب": 3653,
      "ڏنو": 3654,
      "##ضو": 3655,
      "بهترين": 3656,
      "##al": 3657,
      "خط": 3658,
      "##قل": 3659,
      "##پو": 3660,
      "##سر": 3661,
      "خر": 3662,
      "صورت": 3663,
      "نٿ": 3664,
      "منهنجو": 3665,
      "اسلام": 3666,
      "آيو": 3667,
      "ٻه": 3668,
      "##لوم": 3669,
      "عليه": 3670,
      "سگهن": 3671,
      "آئي": 3672,
      "##ارف": 3673,
      "##مت": 3674,
      "ڪل": 3675,
      "مطلب": 3676,
      "قان": 3677,
      "##عا": 3678,
      "اوهان": 3679,
      "##وار": 3680,
      "وٺي": 3681,
      "حق": 3682,
      "سوال": 3683,
      "##ريل": 3684,
      "ٺاهي": 3685,
      "هجي": 3686,
      "ڪمپني": 3687,
      "شو": 3688,
      "ٻيو": 3689,
      "ويندي": 3690,
      "معي": 3691,
      "پڇ": 3692,
      "##يح": 3693,
      "پئي": 3694,
      "##اج": 3695,
      "گو": 3696,
      "##ur": 3697,
      "ڪوشش": 3698,
      "##پورٽ": 3699,
      "##ڪٽ": 3700,
      "وانگر": 3701,
      "پوء": 3702,
      "يون": 3703,
      "##وت": 3704,
      "آهيو": 3705,
      "خوش": 3706,
      "رات": 3707,
      "خدا": 3708,
      "سوچ": 3709,
      "##سوس": 3710,
      "##ءُ": 3711,
      "ذريعي": 3712,
      "##ليم": 3713,
      "مال": 3714,
      "الم": 3715,
      "ڪارو": 3716,
      "قيمت": 3717,
      "يو": 3718,
      "ڄاڻ": 3719,
      "##it": 3720,
      "سين": 3721,
      "##حد": 3722,
      "##يرا": 3723,
      "##جڻ": 3724,
      "ار": 3725,
      "ڪيا": 3726,
      "مخ": 3727,
      "توھان": 3728,
      "شر": 3729,
      "##يد": 3730,
      "امي": 3731,
      "ڳو": 3732,
      "##يون": 3733,
      "صحيح": 3734,
      "فار": 3735,
      "##مد": 3736,
      "##ھنجي": 3737,
      "ٻار": 3738,
      "آخر": 3739,
      "منهن": 3740,
      "بچ": 3741,
      "##ing": 3742,
      "##يور": 3743,
      "ٽيڪ": 3744,
      "##فو": 3745,
      "پاڻي": 3746,
      "لفظ": 3747,
      "حقيقت": 3748,
      "تصو": 3749,
      "غل": 3750,
      "##داري": 3751,
      "##لق": 3752,
      "سائيٽ": 3753,
      "معلوم": 3754,
      "ڪيل": 3755,
      "هنن": 3756,
      "گر": 3757,
      "##ro": 3758,
      "مض": 3759,
      "اوھان": 3760,
      "تص": 3761,
      "##شان": 3762,
      "بن": 3763,
      "ڏسي": 3764,
      "اڃا": 3765,
      "=\"": 3766,
      "اتي": 3767,
      "##كن": 3768,
      "بال": 3769,
      "##ڊي": 3770,
      "##با": 3771,
      "قاب": 3772,
      "##۔۔": 3773,
      "جل": 3774,
      "ڪام": 3775,
      "ترقي": 3776,
      "جاري": 3777,
      "عال": 3778,
      "ننڍ": 3779,
      "##سل": 3780,
      "مارڪيٽ": 3781,
      "اک": 3782,
      "ائين": 3783,
      "##ورن": 3784,
      "دوران": 3785,
      "مم": 3786,
      "فيص": 3787,
      "##ڊيا": 3788,
      "انتظ": 3789,
      "والله": 3790,
      "ڪان": 3791,
      "##صر": 3792,
      "رنگ": 3793,
      "سڄ": 3794,
      "مٿ": 3795,
      "حڪوم": 3796,
      "حل": 3797,
      "##اهه": 3798,
      "ڪيترن": 3799,
      "ضروري": 3800,
      "روز": 3801,
      "صف": 3802,
      "##هور": 3803,
      "##ic": 3804,
      "##le": 3805,
      "اصل": 3806,
      "منظ": 3807,
      "آب": 3808,
      "شك": 3809,
      "هههههههههههههههه": 3810,
      "صاح": 3811,
      "مواد": 3812,
      "پاڪستان": 3813,
      "حصو": 3814,
      "ظاهر": 3815,
      "جتي": 3816,
      "ٻاهر": 3817,
      "گھر": 3818,
      "علائ": 3819,
      "##يي": 3820,
      "ڊيٽ": 3821,
      "چين": 3822,
      "بهتر": 3823,
      "ولا": 3824,
      "سندن": 3825,
      "##جه": 3826,
      "ساڳ": 3827,
      "فق": 3828,
      "اٿ": 3829,
      "علا": 3830,
      "##كت": 3831,
      "پون": 3832,
      "رکي": 3833,
      "##ليل": 3834,
      "##داز": 3835,
      "اثر": 3836,
      "پنهن": 3837,
      "الس": 3838,
      "مٿي": 3839,
      "##خص": 3840,
      "ھن": 3841,
      "اول": 3842,
      "##لان": 3843,
      "اسپ": 3844,
      "##اپ": 3845,
      "##ائم": 3846,
      "اسين": 3847,
      "پهريون": 3848,
      "قر": 3849,
      "محسوس": 3850,
      "##راه": 3851,
      "##ستي": 3852,
      "لڳي": 3853,
      "##ed": 3854,
      "##ڙن": 3855,
      "سفر": 3856,
      "آسان": 3857,
      "عمر": 3858,
      "خري": 3859,
      "؟\"": 3860,
      "ڪجھ": 3861,
      "هُ": 3862,
      "هوندا": 3863,
      "مطاب": 3864,
      "مهي": 3865,
      "آمريڪا": 3866,
      "تبديل": 3867,
      "مست": 3868,
      "ڏسڻ": 3869,
      "خدم": 3870,
      "صلاح": 3871,
      "##ينڊ": 3872,
      "مج": 3873,
      "بيان": 3874,
      "اھو": 3875,
      "تصوير": 3876,
      "##ضوع": 3877,
      "ڏني": 3878,
      "جنگ": 3879,
      "ٿيون": 3880,
      "ڀي": 3881,
      "على": 3882,
      "حڪومت": 3883,
      "حو": 3884,
      "##تا": 3885,
      "سک": 3886,
      "مثال": 3887,
      "st": 3888,
      "##دين": 3889,
      "##st": 3890,
      "##ره": 3891,
      "##آآ": 3892,
      "##ارت": 3893,
      "پهچ": 3894,
      "نف": 3895,
      "معيار": 3896,
      "##ياتي": 3897,
      "ريا": 3898,
      "ملا": 3899,
      "##ظيم": 3900,
      "صاحب": 3901,
      "جسم": 3902,
      "قب": 3903,
      "طرفان": 3904,
      "پئ": 3905,
      "##ِي": 3906,
      "تنهنجي": 3907,
      "شع": 3908,
      "خلاف": 3909,
      "##داد": 3910,
      "مز": 3911,
      "لائن": 3912,
      "رڳو": 3913,
      "##ساني": 3914,
      "##ڏھن": 3915,
      "وارا": 3916,
      "ٿيندي": 3917,
      "چار": 3918,
      "آف": 3919,
      "##انو": 3920,
      "##پر": 3921,
      "سگهجي": 3922,
      "سه": 3923,
      "رکڻ": 3924,
      "رد": 3925,
      "##ميشه": 3926,
      "عو": 3927,
      "##صد": 3928,
      "##قا": 3929,
      "چه": 3930,
      "خود": 3931,
      "اختي": 3932,
      "##گرام": 3933,
      "هوءَ": 3934,
      "##ياري": 3935,
      "راند": 3936,
      "##ائل": 3937,
      "الح": 3938,
      "۾.": 3939,
      "ڏک": 3940,
      "پيار": 3941,
      "عر": 3942,
      "ڏيک": 3943,
      "##ازي": 3944,
      "دست": 3945,
      "ڳاله": 3946,
      "##يات": 3947,
      "قانون": 3948,
      "سچ": 3949,
      "##پري": 3950,
      "شخص": 3951,
      "فو": 3952,
      "تيار": 3953,
      "##ديد": 3954,
      "##اسين": 3955,
      "##ڪاري": 3956,
      "ايران": 3957,
      "##ڪرو": 3958,
      "واپس": 3959,
      "##اڪاڻ": 3960,
      "ڏاڍ": 3961,
      "ڊيٽا": 3962,
      "تف": 3963,
      "بخ": 3964,
      "اش": 3965,
      "ڇاڪاڻ": 3966,
      "تان": 3967,
      "اب": 3968,
      "##هون": 3969,
      "نتي": 3970,
      "منت": 3971,
      "پيداوار": 3972,
      "##ڊر": 3973,
      "پسند": 3974,
      "حلو": 3975,
      "##باني": 3976,
      "##ائو": 3977,
      "##غير": 3978,
      "چونڊ": 3979,
      "انداز": 3980,
      "co": 3981,
      "بو": 3982,
      "قدر": 3983,
      "زمين": 3984,
      "##ٽو": 3985,
      "##يس": 3986,
      "##سٽم": 3987,
      "مص": 3988,
      "مشهور": 3989,
      "ڪيترائي": 3990,
      "##رر": 3991,
      "قوم": 3992,
      "قابل": 3993,
      "برا": 3994,
      "ڏيو": 3995,
      "انهيءَ": 3996,
      "##مون": 3997,
      "اعلي": 3998,
      "مونکي": 3999,
      "##انن": 4000,
      "تقري": 4001,
      "الي": 4002,
      "نظام": 4003,
      "اجاز": 4004,
      "فرا": 4005,
      "هميشه": 4006,
      "##ائر": 4007,
      "##حي": 4008,
      "آيا": 4009,
      "##et": 4010,
      "توکي": 4011,
      "چوڻ": 4012,
      "ڊگ": 4013,
      "موق": 4014,
      "صن": 4015,
      "##id": 4016,
      "ٻنهي": 4017,
      "ھو": 4018,
      "##اسب": 4019,
      "بلا": 4020,
      "دف": 4021,
      "داخل": 4022,
      "##اھ": 4023,
      "اجازت": 4024,
      "نيو": 4025,
      "##نت": 4026,
      "##قن": 4027,
      "صارف": 4028,
      "15": 4029,
      "مهر": 4030,
      "آو": 4031,
      "##ٽرو": 4032,
      "##ڌو": 4033,
      "شين": 4034,
      "طا": 4035,
      "ههههههههههههههههههه": 4036,
      "سڏ": 4037,
      "يقين": 4038,
      "شاع": 4039,
      "خوب": 4040,
      "عن": 4041,
      "وز": 4042,
      "سٺو": 4043,
      "کا": 4044,
      "##زا": 4045,
      "ڏٺو": 4046,
      "پير": 4047,
      "##am": 4048,
      "##ذه": 4049,
      "مري": 4050,
      "18": 4051,
      "حس": 4052,
      "باري": 4053,
      "##ڻيڪ": 4054,
      "جيتو": 4055,
      "الا": 4056,
      "كل": 4057,
      "##تون": 4058,
      "بنيادي": 4059,
      "پاس": 4060,
      "##دس": 4061,
      "نٿو": 4062,
      "##ڪيشن": 4063,
      "##ڌي": 4064,
      "سرو": 4065,
      "جيتوڻيڪ": 4066,
      "##سپ": 4067,
      "پلي": 4068,
      "؟؟": 4069,
      "##فوظ": 4070,
      "##قيق": 4071,
      "هذا": 4072,
      "وارن": 4073,
      "راب": 4074,
      "محفوظ": 4075,
      "##ياب": 4076,
      "آء": 4077,
      "وڃڻ": 4078,
      "کانپو": 4079,
      "##ميت": 4080,
      "##ac": 4081,
      "يور": 4082,
      "##وه": 4083,
      "موڪل": 4084,
      "طاقت": 4085,
      "قائم": 4086,
      ").": 4087,
      "ڏن": 4088,
      "لائ": 4089,
      "ڪلا": 4090,
      "بار": 4091,
      "ڪونه": 4092,
      "ٽيڪن": 4093,
      "گراه": 4094,
      "موضوع": 4095,
      "آواز": 4096,
      "##ٽل": 4097,
      "پروگرام": 4098,
      ".\"": 4099,
      "واقعي": 4100,
      "نئون": 4101,
      "مُ": 4102,
      "##ــــــــــــ": 4103,
      "200": 4104,
      "شه": 4105,
      "##تل": 4106,
      "12": 4107,
      "##ريڪ": 4108,
      "تعليم": 4109,
      "##اريو": 4110,
      "##ion": 4111,
      "##خوا": 4112,
      "ڳول": 4113,
      "ڄڻ": 4114,
      "ڪير": 4115,
      "ايت": 4116,
      "سمجهي": 4117,
      "##صل": 4118,
      "##بان": 4119,
      "ابو": 4120,
      "وار": 4121,
      "آه": 4122,
      "مين": 4123,
      "##ڙهي": 4124,
      "ايڪس": 4125,
      "معلومات": 4126,
      "کڻي": 4127,
      "##يڪل": 4128,
      "هههههههههههههههههه": 4129,
      "ھي": 4130,
      "هيو": 4131,
      "##ليس": 4132,
      "##ضحك": 4133,
      "شيء": 4134,
      "شادي": 4135,
      "هجڻ": 4136,
      "پيا": 4137,
      "اسلامي": 4138,
      "سگھ": 4139,
      "سائين": 4140,
      "##تر": 4141,
      "تحقيق": 4142,
      "حڪم": 4143,
      "ويندا": 4144,
      "آخري": 4145,
      "سخت": 4146,
      "قدم": 4147,
      "##ارين": 4148,
      "محبت": 4149,
      "خريد": 4150,
      "حض": 4151,
      "اڪثر": 4152,
      "ڪور": 4153,
      "پنھنجي": 4154,
      "مطابق": 4155,
      "نس": 4156,
      "گرو": 4157,
      "##el": 4158,
      "اسڪول": 4159,
      "منصو": 4160,
      "خراب": 4161,
      "مقصد": 4162,
      "##خواست": 4163,
      "فراهم": 4164,
      "قو": 4165,
      "##ڻڻ": 4166,
      "##هار": 4167,
      "حد": 4168,
      "اميد": 4169,
      "جڳ": 4170,
      "in": 4171,
      "##art": 4172,
      "آزاد": 4173,
      "درخواست": 4174,
      "کانپوءِ": 4175,
      "##ec": 4176,
      "زم": 4177,
      "معا": 4178,
      "##دال": 4179,
      "##سٽر": 4180,
      "##ريان": 4181,
      "نالي": 4182,
      "سط": 4183,
      "ٻارن": 4184,
      "سگھي": 4185,
      "سيڪڙو": 4186,
      "##is": 4187,
      "انگري": 4188,
      "ڊاڪ": 4189,
      "لاز": 4190,
      "ڀر": 4191,
      "##گل": 4192,
      "غلط": 4193,
      "چڪو": 4194,
      "##حا": 4195,
      "چڱ": 4196,
      "سڃ": 4197,
      "نام": 4198,
      "آهين": 4199,
      "هههه": 4200,
      "ميل": 4201,
      "مفت": 4202,
      "گهڻي": 4203,
      "ٻيهر": 4204,
      "ڪمي": 4205,
      "##دگي": 4206,
      "روح": 4207,
      "##رفت": 4208,
      "ميم": 4209,
      "ره": 4210,
      "فقط": 4211,
      "آفي": 4212,
      "احس": 4213,
      "ٿيا": 4214,
      "##گو": 4215,
      "سڄي": 4216,
      "##as": 4217,
      "ڪپ": 4218,
      "##ريو": 4219,
      "حي": 4220,
      "##بح": 4221,
      "##مم": 4222,
      "خان": 4223,
      "ڪهڙي": 4224,
      "##سٽري": 4225,
      "##il": 4226,
      "##ورا": 4227,
      "پنج": 4228,
      "##طو": 4229,
      "##هائي": 4230,
      "پٽ": 4231,
      "ٻولي": 4232,
      "فيصلو": 4233,
      "an": 4234,
      "اض": 4235,
      "نقص": 4236,
      "اختيار": 4237,
      "##ليڪيشن": 4238,
      "سائن": 4239,
      "انٽر": 4240,
      "##گار": 4241,
      "فلم": 4242,
      "##رڪ": 4243,
      "##ائش": 4244,
      "اڻ": 4245,
      "##تح": 4246,
      "##us": 4247,
      "رج": 4248,
      "سياسي": 4249,
      "پاران": 4250,
      "##دان": 4251,
      "باقي": 4252,
      "طريقي": 4253,
      "##ow": 4254,
      "11": 4255,
      "که": 4256,
      "##عه": 4257,
      "نوجو": 4258,
      "ٻڌايو": 4259,
      "بنياد": 4260,
      "ذهن": 4261,
      "جهڙو": 4262,
      "##كر": 4263,
      "ڪافي": 4264,
      "ڪڍ": 4265,
      "##وڙ": 4266,
      "202": 4267,
      "رست": 4268,
      "اڳتي": 4269,
      "مناسب": 4270,
      "اڳو": 4271,
      "##دارن": 4272,
      "تا": 4273,
      "سُ": 4274,
      "##سا": 4275,
      "مرڪ": 4276,
      "ورتو": 4277,
      "اچڻ": 4278,
      "##يندا": 4279,
      "##خخ": 4280,
      "هههههههههههههههههههه": 4281,
      "اق": 4282,
      "عالمي": 4283,
      "اك": 4284,
      "##عن": 4285,
      "کول": 4286,
      "رياست": 4287,
      "سطح": 4288,
      "مقاب": 4289,
      "th": 4290,
      "ڏسو": 4291,
      "نش": 4292,
      "آءٌ": 4293,
      "ملڪن": 4294,
      "شاگر": 4295,
      "ايندڙ": 4296,
      "شيون": 4297,
      "##طن": 4298,
      "ميڊيا": 4299,
      "تخ": 4300,
      "سنگ": 4301,
      "ڳوٺ": 4302,
      "ممڪن": 4303,
      "دلچ": 4304,
      "##ورڊ": 4305,
      "وڊيو": 4306,
      "##زو": 4307,
      "ڪٿي": 4308,
      "سيٽ": 4309,
      "نقصان": 4310,
      "بيم": 4311,
      "30": 4312,
      "رق": 4313,
      "##زر": 4314,
      "فن": 4315,
      "کين": 4316,
      "خوبص": 4317,
      "اون": 4318,
      "##يب": 4319,
      "##الاجي": 4320,
      "##يتن": 4321,
      "ويج": 4322,
      "وج": 4323,
      "تجر": 4324,
      "انج": 4325,
      "##ٽس": 4326,
      "##زم": 4327,
      "اڪائون": 4328,
      "to": 4329,
      "اُن": 4330,
      "##فتي": 4331,
      "ضرور": 4332,
      "واحد": 4333,
      "ڪاروبار": 4334,
      "ترتي": 4335,
      "##شم": 4336,
      "##ريا": 4337,
      "100": 4338,
      "مرح": 4339,
      "چاهيو": 4340,
      "مهرباني": 4341,
      "آمريڪي": 4342,
      "السلام": 4343,
      "شروعات": 4344,
      "مه": 4345,
      "ذاتي": 4346,
      "مسلم": 4347,
      "##جر": 4348,
      "##فته": 4349,
      "طب": 4350,
      "##هيل": 4351,
      "##رانس": 4352,
      "علم": 4353,
      "##اهڻ": 4354,
      "جدا": 4355,
      "##ot": 4356,
      "لاڳ": 4357,
      "۔۔۔": 4358,
      "##باد": 4359,
      "##چر": 4360,
      "فع": 4361,
      "فارم": 4362,
      "ٽيڪنالاجي": 4363,
      "اصلي": 4364,
      "##ڊل": 4365,
      "گهڻ": 4366,
      "مضمون": 4367,
      "اعلان": 4368,
      "##شل": 4369,
      "پڪ": 4370,
      "تس": 4371,
      "صحت": 4372,
      "کن": 4373,
      "##ڪشن": 4374,
      "##اندي": 4375,
      "پل": 4376,
      "نمبر": 4377,
      "##ay": 4378,
      "تڪ": 4379,
      "ڊر": 4380,
      "مسئلو": 4381,
      "انٽرني": 4382,
      "##حت": 4383,
      "پيام": 4384,
      "ترتيب": 4385,
      "تش": 4386,
      "تڏهن": 4387,
      "سلام": 4388,
      "بج": 4389,
      "مطال": 4390,
      "سسٽم": 4391,
      "ڪيون": 4392,
      "تعلق": 4393,
      "حقيقي": 4394,
      "##يءَ": 4395,
      "انھن": 4396,
      "بڻجي": 4397,
      "##ريءَ": 4398,
      "ماح": 4399,
      "حالت": 4400,
      "تعم": 4401,
      "صدر": 4402,
      "##الا": 4403,
      "##ex": 4404,
      "حير": 4405,
      "##ائيندو": 4406,
      "ميٽ": 4407,
      "رپورٽ": 4408,
      "سون": 4409,
      "##فاظ": 4410,
      "##اتو": 4411,
      "##يندو": 4412,
      "ايئر": 4413,
      "ايل": 4414,
      "ڊائون": 4415,
      "هنڌ": 4416,
      "سپ": 4417,
      "يونيور": 4418,
      "##ريف": 4419,
      "وڻ": 4420,
      "هاڻ": 4421,
      "گوگل": 4422,
      "سٺي": 4423,
      "مذه": 4424,
      "عورتن": 4425,
      "ڏنل": 4426,
      "ٽيم": 4427,
      "لوڊ": 4428,
      "##re": 4429,
      "موت": 4430,
      "اِ": 4431,
      "انساني": 4432,
      "##صوص": 4433,
      "##دت": 4434,
      "##يلو": 4435,
      "وض": 4436,
      "##اط": 4437,
      "14": 4438,
      "وڃن": 4439,
      "طريقو": 4440,
      "خدمت": 4441,
      "##ئل": 4442,
      "##الر": 4443,
      "مشين": 4444,
      "ايپليڪيشن": 4445,
      "شم": 4446,
      "چئي": 4447,
      "ڳن": 4448,
      "فل": 4449,
      "ڪجي": 4450,
      "##ستائين": 4451,
      "##ol": 4452,
      "ماءُ": 4453,
      "سامان": 4454,
      "ڌر": 4455,
      "##ريب": 4456,
      "الع": 4457,
      "اخت": 4458,
      "##يه": 4459,
      "##ديم": 4460,
      "يونيورسٽ": 4461,
      "پور": 4462,
      "##ad": 4463,
      "سماجي": 4464,
      "13": 4465,
      "جيت": 4466,
      "پيغ": 4467,
      "هلي": 4468,
      "##يابي": 4469,
      "لڳو": 4470,
      "تعمير": 4471,
      "ڏيکاري": 4472,
      "انسٽ": 4473,
      "لکڻ": 4474,
      "ڪردار": 4475,
      "دير": 4476,
      "نفس": 4477,
      "حفاظ": 4478,
      "رھ": 4479,
      "##انه": 4480,
      "اڪائونٽ": 4481,
      "##هوري": 4482,
      "آپري": 4483,
      "پورو": 4484,
      "يار": 4485,
      "ٺاهڻ": 4486,
      "ڊاڪٽر": 4487,
      "نڪ": 4488,
      "پوليس": 4489,
      "##ٽري": 4490,
      "##آن": 4491,
      "##ٽرول": 4492,
      "حضرت": 4493,
      "گذريل": 4494,
      "احساس": 4495,
      "خوبصورت": 4496,
      "اط": 4497,
      "رفت": 4498,
      "جديد": 4499,
      "##ڪان": 4500,
      "سروس": 4501,
      "\">": 4502,
      "ڪهاڻي": 4503,
      "قومي": 4504,
      "موب": 4505,
      "ڪيس": 4506,
      "جذ": 4507,
      "<<": 4508,
      "##ڏو": 4509,
      "متا": 4510,
      "هين": 4511,
      "هاي": 4512,
      "##ظم": 4513,
      "پارٽي": 4514,
      "پوري": 4515,
      "بلڪل": 4516,
      "وق": 4517,
      "حصي": 4518,
      "##ئو": 4519,
      "روش": 4520,
      "گل": 4521,
      "معني": 4522,
      "ٽن": 4523,
      "واضح": 4524,
      "مساف": 4525,
      "start": 4526,
      "تبديلي": 4527,
      "علاج": 4528,
      "پوندو": 4529,
      "ده": 4530,
      "تيز": 4531,
      "dur": 4532,
      "ڪرا": 4533,
      "ايه": 4534,
      "سنڌي": 4535,
      "خاند": 4536,
      "##خي": 4537,
      "##وز": 4538,
      "##بوط": 4539,
      "##كل": 4540,
      "مرد": 4541,
      "##احت": 4542,
      "سف": 4543,
      "##ارڊ": 4544,
      "ڀيرو": 4545,
      "عملي": 4546,
      "اکين": 4547,
      "حص": 4548,
      "گراهڪن": 4549,
      "##ميو": 4550,
      "##ديق": 4551,
      "##يتون": 4552,
      "نٿا": 4553,
      "##وف": 4554,
      "ڪوبه": 4555,
      "گفت": 4556,
      "##رات": 4557,
      "فرم": 4558,
      "قل": 4559,
      "هند": 4560,
      "##ـــــ": 4561,
      "حوالي": 4562,
      "تاز": 4563,
      "آزادي": 4564,
      "آگ": 4565,
      "پاسي": 4566,
      "ٻيا": 4567,
      "##um": 4568,
      "عوام": 4569,
      "##ڪڻ": 4570,
      "##زل": 4571,
      "موجوده": 4572,
      "يورپ": 4573,
      "موجب": 4574,
      "هيون": 4575,
      "وڌي": 4576,
      "ميمبر": 4577,
      "وٺڻ": 4578,
      "ست": 4579,
      "سلس": 4580,
      "پڙهي": 4581,
      "##ھين": 4582,
      "اسٽي": 4583,
      "##زائن": 4584,
      "##ائيو": 4585,
      "جها": 4586,
      "ڪين": 4587,
      "مٿان": 4588,
      "قبول": 4589,
      "ايڊ": 4590,
      "ھڪڙو": 4591,
      "##اڻو": 4592,
      "رح": 4593,
      "##لاس": 4594,
      "گڏيل": 4595,
      "گھٽ": 4596,
      "عظيم": 4597,
      "وش": 4598,
      "16": 4599,
      "اھ": 4600,
      "باد": 4601,
      "صاف": 4602,
      "ايف": 4603,
      "ڏيندو": 4604,
      "آرٽ": 4605,
      "##oo": 4606,
      "25": 4607,
      "##هيون": 4608,
      "##وووو": 4609,
      "مقرر": 4610,
      "##گه": 4611,
      "سج": 4612,
      "جلد": 4613,
      "لازمي": 4614,
      "صبح": 4615,
      "سرگر": 4616,
      "تعداد": 4617,
      "نوجوان": 4618,
      "اهڙو": 4619,
      "رهڻ": 4620,
      "##حال": 4621,
      "خير": 4622,
      "##ارڻ": 4623,
      "شرح": 4624,
      "##ٽڻ": 4625,
      "##ٺيان": 4626,
      "خرچ": 4627,
      "##رار": 4628,
      "ڪنٽرول": 4629,
      "نيٽ": 4630,
      "##شڪ": 4631,
      "ترج": 4632,
      "عند": 4633,
      "انتظار": 4634,
      "رقم": 4635,
      "حت": 4636,
      "وسي": 4637,
      "له": 4638,
      "##سڪ": 4639,
      "##ارٽ": 4640,
      "اعت": 4641,
      "راندي": 4642,
      "سواءِ": 4643,
      "پڙهڻ": 4644,
      "مضبوط": 4645,
      "17": 4646,
      "مهيا": 4647,
      "نموني": 4648,
      "پوسٽ": 4649,
      "احت": 4650,
      "##os": 4651,
      "محمد": 4652,
      "زندگيءَ": 4653,
      "آفيس": 4654,
      "خواب": 4655,
      "بع": 4656,
      "ڪهڙو": 4657,
      "##ٺا": 4658,
      "##ڙين": 4659,
      "ڪريان": 4660,
      "##شنل": 4661,
      "خوشي": 4662,
      "ڌيان": 4663,
      "##گري": 4664,
      "لن": 4665,
      "بت": 4666,
      "وف": 4667,
      "ڪاري": 4668,
      "##هاي": 4669,
      "صنعت": 4670,
      "عدال": 4671,
      ">>": 4672,
      "شان": 4673,
      "اَ": 4674,
      "##ut": 4675,
      "پنهنجن": 4676,
      "ديو": 4677,
      "مڙ": 4678,
      "ٽو": 4679,
      "##ابت": 4680,
      "حم": 4681,
      "##پن": 4682,
      "لاڳاپ": 4683,
      "ذميو": 4684,
      "پهچي": 4685,
      "ون": 4686,
      "پرا": 4687,
      "رکيو": 4688,
      "انگريزي": 4689,
      "ڪئين": 4690,
      "##لائي": 4691,
      "##شق": 4692,
      "برط": 4693,
      "##ئڻ": 4694,
      "بينڪ": 4695,
      "تہ": 4696,
      "##لع": 4697,
      "سگهون": 4698,
      "##ابر": 4699,
      "وزير": 4700,
      "##نين": 4701,
      "ڪال": 4702,
      "##ent": 4703,
      "ذڪر": 4704,
      "مير": 4705,
      "هيءَ": 4706,
      "منج": 4707,
      "##افت": 4708,
      "##مه": 4709,
      "##دود": 4710,
      "جھ": 4711,
      "پھ": 4712,
      "##ائيل": 4713,
      "##ائيندي": 4714,
      "ڪئ": 4715,
      "چا": 4716,
      "##تان": 4717,
      "فائل": 4718,
      "ڀا": 4719,
      "##پٽ": 4720,
      "آباد": 4721,
      "اوزار": 4722,
      "مليو": 4723,
      "ضح": 4724,
      "آرام": 4725,
      "روشني": 4726,
      "##امو": 4727,
      "صو": 4728,
      "استاد": 4729,
      "چم": 4730,
      "##ثيت": 4731,
      "جلدي": 4732,
      "واڌ": 4733,
      "انڊ": 4734,
      "ڪرڻو": 4735,
      "جمع": 4736,
      "حفاظت": 4737,
      "فرق": 4738,
      "##كي": 4739,
      "جنھن": 4740,
      "ڊو": 4741,
      "علاوه": 4742,
      "##ch": 4743,
      "ايو": 4744,
      "پُ": 4745,
      "##مبر": 4746,
      "معام": 4747,
      "ڪارڪر": 4748,
      "متاثر": 4749,
      "شيءِ": 4750,
      "تصديق": 4751,
      "لان": 4752,
      "##ers": 4753,
      "علائقي": 4754,
      "وڪرو": 4755,
      "زال": 4756,
      "##قبل": 4757,
      "ڪريون": 4758,
      "عب": 4759,
      "##om": 4760,
      "جمهوري": 4761,
      "ڪارڪردگي": 4762,
      "هفتي": 4763,
      "##افٽ": 4764,
      "##ونا": 4765,
      "سرڪاري": 4766,
      "ڪلڪ": 4767,
      "##un": 4768,
      "ڪراچي": 4769,
      "##شر": 4770,
      "جيڪڏھن": 4771,
      "هزار": 4772,
      "گرم": 4773,
      "تنظيم": 4774,
      "##قات": 4775,
      "پهريان": 4776,
      "ڪمپيو": 4777,
      "تنهنڪري": 4778,
      "حيثيت": 4779,
      "ٺهيل": 4780,
      "##em": 4781,
      "زين": 4782,
      "جرم": 4783,
      "عرب": 4784,
      "##ابي": 4785,
      "مف": 4786,
      "##ag": 4787,
      "رسائي": 4788,
      "##تال": 4789,
      "يه": 4790,
      "##اله": 4791,
      "##ext": 4792,
      "ڪارڊ": 4793,
      "تجربو": 4794,
      "سنڀ": 4795,
      "مهم": 4796,
      "##ائيندا": 4797,
      "##ٽا": 4798,
      "رستو": 4799,
      "فط": 4800,
      "پال": 4801,
      "شكرا": 4802,
      "and": 4803,
      "##اااااااا": 4804,
      "##ڳي": 4805,
      "لك": 4806,
      "ھڪڙي": 4807,
      "پڇيو": 4808,
      "##خر": 4809,
      "ونڊ": 4810,
      "ول": 4811,
      "موسم": 4812,
      "##ig": 4813,
      "نشان": 4814,
      "رفتار": 4815,
      "##ٽين": 4816,
      "ماڊل": 4817,
      "غلطي": 4818,
      "شڪ": 4819,
      "##لى": 4820,
      "ههه": 4821,
      "اسم": 4822,
      "جائ": 4823,
      "##ڪت": 4824,
      "##خو": 4825,
      "ٿيندا": 4826,
      "دري": 4827,
      "ليک": 4828,
      "##داشت": 4829,
      "ايندو": 4830,
      "##ليف": 4831,
      "مڃ": 4832,
      "وجود": 4833,
      "##ــــــــــــــــ": 4834,
      "ميو": 4835,
      "وه": 4836,
      "ماهر": 4837,
      "ادب": 4838,
      "هال": 4839,
      "نوڪري": 4840,
      "سائنس": 4841,
      "گم": 4842,
      "##ڪيل": 4843,
      "اني": 4844,
      "ڏاڍو": 4845,
      "يونيورسٽي": 4846,
      "پيغام": 4847,
      "آءِ": 4848,
      "مائ": 4849,
      "مالي": 4850,
      "هڪڙي": 4851,
      "لاڳو": 4852,
      "انٽرنيٽ": 4853,
      "50": 4854,
      "معاه": 4855,
      "جاءِ": 4856,
      "##شيا": 4857,
      "##ab": 4858,
      "وائر": 4859,
      "##هايو": 4860,
      "گرفت": 4861,
      "##لات": 4862,
      "##ميل": 4863,
      "مجمو": 4864,
      "##باري": 4865,
      "ميز": 4866,
      "ڪونهي": 4867,
      "اقت": 4868,
      "##گز": 4869,
      "پليٽ": 4870,
      "ماحول": 4871,
      "يال": 4872,
      "معم": 4873,
      "تصور": 4874,
      "##ub": 4875,
      "وضاحت": 4876,
      "سل": 4877,
      "نمي": 4878,
      "ڊالر": 4879,
      "##ينا": 4880,
      "ڳالهيون": 4881,
      "##ولت": 4882,
      "مستقبل": 4883,
      "لکي": 4884,
      "دٻ": 4885,
      "قتل": 4886,
      "##بري": 4887,
      "رب": 4888,
      "##انا": 4889,
      "بحث": 4890,
      "##حن": 4891,
      "اصول": 4892,
      "##َن": 4893,
      "گرمي": 4894,
      "نور": 4895,
      "##راف": 4896,
      "ولي": 4897,
      "##قول": 4898,
      "##شو": 4899,
      "##رحال": 4900,
      "جوڙ": 4901,
      "ويئي": 4902,
      "خواه": 4903,
      "##بلي": 4904,
      "پيرو": 4905,
      "##هندي": 4906,
      "فوٽ": 4907,
      "##يري": 4908,
      "الن": 4909,
      "افغ": 4910,
      "##دري": 4911,
      "##ap": 4912,
      "##ليت": 4913,
      "هدا": 4914,
      "##حه": 4915,
      "ايمان": 4916,
      "اسڪرين": 4917,
      "24": 4918,
      "گا": 4919,
      "##نٽ": 4920,
      "##ريز": 4921,
      "شاء": 4922,
      "ميڪ": 4923,
      "يقيني": 4924,
      "##انڊ": 4925,
      "بڻائي": 4926,
      "##جون": 4927,
      "##سنگ": 4928,
      "ٿيندڙ": 4929,
      "اڳيان": 4930,
      "سگهيو": 4931,
      "دفعو": 4932,
      "حسين": 4933,
      "لب": 4934,
      "##ul": 4935,
      "اگر": 4936,
      "علام": 4937,
      "##اوي": 4938,
      "ويون": 4939,
      "رهندو": 4940,
      "انتي": 4941,
      "ڪاميابي": 4942,
      "امام": 4943,
      "سڃاڻ": 4944,
      "امير": 4945,
      "لکيو": 4946,
      "بخش": 4947,
      "kn": 4948,
      "ٿورو": 4949,
      "##دد": 4950,
      "ڪامياب": 4951,
      "##ــــــ": 4952,
      "##مر": 4953,
      "ايترو": 4954,
      "ٻڌي": 4955,
      "منهنجا": 4956,
      "تنهنجو": 4957,
      "وزن": 4958,
      "ڪندڙن": 4959,
      "##راني": 4960,
      "موبائل": 4961,
      "ابت": 4962,
      "فري": 4963,
      "##الف": 4964,
      "##قوامي": 4965,
      "ڊگهي": 4966,
      "اھي": 4967,
      "سگھو": 4968,
      "##لسل": 4969,
      "انتظام": 4970,
      "ريت": 4971,
      "##صيل": 4972,
      "بادش": 4973,
      "ڪمپيوٽر": 4974,
      "اظ": 4975,
      "چند": 4976,
      "ڳولي": 4977,
      "بهرحال": 4978,
      "؟؟؟": 4979,
      "شڪل": 4980,
      "##جيب": 4981,
      "اللي": 4982,
      "زور": 4983,
      "ٽرين": 4984,
      "ڪاب": 4985,
      "گري": 4986,
      "سوشل": 4987,
      "حر": 4988,
      "##ايل": 4989,
      "##تك": 4990,
      "##سه": 4991,
      "الف": 4992,
      "قانوني": 4993,
      "جيستائين": 4994,
      "انقل": 4995,
      "پيءُ": 4996,
      "برابر": 4997,
      "##ـي": 4998,
      "سگهان": 4999,
      "مخصوص": 5000,
      "تك": 5001,
      "199": 5002,
      "ثابت": 5003,
      "مب": 5004,
      "ڪوڊ": 5005,
      "اينڊ": 5006,
      "شڪار": 5007,
      "ناڪ": 5008,
      "##اڻن": 5009,
      "صورتحال": 5010,
      "##ختي": 5011,
      "هيچ": 5012,
      "ڪيم": 5013,
      "الاقوامي": 5014,
      "##َر": 5015,
      "ڪُ": 5016,
      "اڌ": 5017,
      "##رز": 5018,
      "گروپ": 5019,
      "##ته": 5020,
      "نسل": 5021,
      "خوف": 5022,
      "ورڪ": 5023,
      "ماري": 5024,
      "##im": 5025,
      "##iv": 5026,
      "کانسو": 5027,
      "متع": 5028,
      "برق": 5029,
      "مات": 5030,
      "بنا": 5031,
      "مقابلي": 5032,
      "حتى": 5033,
      "قط": 5034,
      "پاب": 5035,
      "انف": 5036,
      "ثق": 5037,
      "هوس": 5038,
      "##ايان": 5039,
      "خاندان": 5040,
      "زي": 5041,
      "ٺيڪ": 5042,
      "اهڙا": 5043,
      "##لاق": 5044,
      "افغان": 5045,
      "بورڊ": 5046,
      "##پس": 5047,
      "##ولو": 5048,
      "دوستن": 5049,
      "##غيره": 5050,
      "سار": 5051,
      "صدي": 5052,
      "نگ": 5053,
      "چونڊيو": 5054,
      "حالتن": 5055,
      "سافٽ": 5056,
      "زمان": 5057,
      "چر": 5058,
      "##وجود": 5059,
      "نوٽ": 5060,
      "ريل": 5061,
      "هڪڙو": 5062,
      "عرصي": 5063,
      "يم": 5064,
      "اڏ": 5065,
      "چڪا": 5066,
      "##ation": 5067,
      "سياست": 5068,
      "تفصيل": 5069,
      "##ter": 5070,
      "جهڙوڪ": 5071,
      "فلس": 5072,
      "وفا": 5073,
      "ايندي": 5074,
      "ڌرتي": 5075,
      "زخ": 5076,
      "##دائي": 5077,
      "ڳالھ": 5078,
      "##قع": 5079,
      "##ليق": 5080,
      "##يندي": 5081,
      "سمنڊ": 5082,
      "نص": 5083,
      "##ir": 5084,
      "##اءَ": 5085,
      "##زيشن": 5086,
      "عي": 5087,
      "##ـــــــ": 5088,
      "طبي": 5089,
      "##چو": 5090,
      "لفظن": 5091,
      "ڳنڍ": 5092,
      "عدالت": 5093,
      "نڪري": 5094,
      "##انگ": 5095,
      "000": 5096,
      "##ڀر": 5097,
      "پوي": 5098,
      "گذاري": 5099,
      "توان": 5100,
      "شاگردن": 5101,
      "درو": 5102,
      "##ائيس": 5103,
      "##اض": 5104,
      "##ريت": 5105,
      "2020": 5106,
      "بابا": 5107,
      "ڳولا": 5108,
      "مارڪيٽنگ": 5109,
      "اضافي": 5110,
      "اڇ": 5111,
      "آسم": 5112,
      "شام": 5113,
      "##كك": 5114,
      "##ڊڪٽ": 5115,
      "کولڻ": 5116,
      "##ڊا": 5117,
      "##ائيٽ": 5118,
      "آئين": 5119,
      "##کيون": 5120,
      "سوچيو": 5121,
      "ملاقات": 5122,
      "سور": 5123,
      "##اما": 5124,
      "ايپل": 5125,
      "جڳهه": 5126,
      "زماني": 5127,
      "نٿي": 5128,
      "##ئس": 5129,
      "باوجود": 5130,
      "خال": 5131,
      "اٽ": 5132,
      "فهر": 5133,
      "بيماري": 5134,
      "بيٽ": 5135,
      "درد": 5136,
      "لم": 5137,
      "##ندر": 5138,
      "فهرست": 5139,
      "خار": 5140,
      "##ڙيل": 5141,
      "ويجهو": 5142,
      "know": 5143,
      "اث": 5144,
      "حياتي": 5145,
      "فور": 5146,
      "هفت": 5147,
      "دعا": 5148,
      "صلاحيت": 5149,
      "ترين": 5150,
      "چوي": 5151,
      "com": 5152,
      "بلاگ": 5153,
      "ملڻ": 5154,
      "ملين": 5155,
      "پنهنجا": 5156,
      "دع": 5157,
      "عز": 5158,
      "زبان": 5159,
      "##عات": 5160,
      "ڇوڪري": 5161,
      "##پل": 5162,
      "فائدو": 5163,
      "باز": 5164,
      "دان": 5165,
      "سمجھ": 5166,
      "ڀلي": 5167,
      "##ايت": 5168,
      "##ونه": 5169,
      "وڌائڻ": 5170,
      "منتقل": 5171,
      "لاڳاپيل": 5172,
      "##عظم": 5173,
      "ڪنداسين": 5174,
      "فيس": 5175,
      "علائقن": 5176,
      "مهين": 5177,
      "##مائي": 5178,
      "##انيه": 5179,
      "##ماغ": 5180,
      "مختصر": 5181,
      "موڪ": 5182,
      "جهاز": 5183,
      "##بال": 5184,
      "ڪاروباري": 5185,
      "نيوز": 5186,
      "##سپي": 5187,
      "موسي": 5188,
      "هيا": 5189,
      "##ڙيون": 5190,
      "2019": 5191,
      "شاندار": 5192,
      "سگھن": 5193,
      "سنڀال": 5194,
      "دماغ": 5195,
      "ڇپ": 5196,
      "ميدان": 5197,
      "راندين": 5198,
      "##لك": 5199,
      "چڪي": 5200,
      "##th": 5201,
      "the": 5202,
      "ويڪ": 5203,
      "لائين": 5204,
      "پک": 5205,
      "چاهيندا": 5206,
      "##هيه": 5207,
      "ڪلاڪ": 5208,
      "##چه": 5209,
      "حساب": 5210,
      "قديم": 5211,
      "##يز": 5212,
      "بدر": 5213,
      "##ذي": 5214,
      "##ارتي": 5215,
      "انتهائي": 5216,
      "پريشان": 5217,
      "اشت": 5218,
      "##اع": 5219,
      "وص": 5220,
      "مهينن": 5221,
      "21": 5222,
      "قي": 5223,
      "پيڪ": 5224,
      "اعتم": 5225,
      "درست": 5226,
      "رکو": 5227,
      "ٻڌائي": 5228,
      "رڪار": 5229,
      "ننڊ": 5230,
      "##يف": 5231,
      "پوئ": 5232,
      "بيو": 5233,
      "جڏھن": 5234,
      "ٽر": 5235,
      "گذري": 5236,
      "مالڪ": 5237,
      "ساڳي": 5238,
      "فعال": 5239,
      "##ماني": 5240,
      "بيشڪ": 5241,
      "رستي": 5242,
      "22": 5243,
      "مرا": 5244,
      "##ئا": 5245,
      "##ھنجو": 5246,
      "سڀئي": 5247,
      "##ولين": 5248,
      "لکيل": 5249,
      "تجز": 5250,
      "##وند": 5251,
      "##ليا": 5252,
      "راز": 5253,
      "اکيون": 5254,
      "سامهون": 5255,
      "ويئر": 5256,
      "شاعر": 5257,
      "##طا": 5258,
      "وڏا": 5259,
      "ويل": 5260,
      "يوم": 5261,
      "هئڻ": 5262,
      "سيل": 5263,
      "آپريشن": 5264,
      "کانسواءِ": 5265,
      "توانائي": 5266,
      "غور": 5267,
      "کل": 5268,
      "##كه": 5269,
      "اسپتال": 5270,
      "##نڊن": 5271,
      "الز": 5272,
      "بجلي": 5273,
      "##ھر": 5274,
      "##حاظ": 5275,
      "نڪر": 5276,
      "##جد": 5277,
      "اهميت": 5278,
      "مقامي": 5279,
      "وڃو": 5280,
      "جئين": 5281,
      "وغيره": 5282,
      "پين": 5283,
      "##ess": 5284,
      "چيزي": 5285,
      "فض": 5286,
      "40": 5287,
      "ڏو": 5288,
      "آمد": 5289,
      "ڌار": 5290,
      "دلچسپ": 5291,
      "مگر": 5292,
      "تقريبن": 5293,
      "جام": 5294,
      "رت": 5295,
      "##جان": 5296,
      "موٽ": 5297,
      "موقعو": 5298,
      "2018": 5299,
      "بغير": 5300,
      "منظر": 5301,
      "بئن": 5302,
      "##ئه": 5303,
      "ڪيائين": 5304,
      "رڪارڊ": 5305,
      "ساڻ": 5306,
      "نتيجي": 5307,
      "هيءُ": 5308,
      "ليڪ": 5309,
      "امان": 5310,
      "##شتي": 5311,
      "اڃان": 5312,
      "صارفين": 5313,
      "##ڏانهن": 5314,
      "واپار": 5315,
      "ٺاهيو": 5316,
      "ڏاڍي": 5317,
      "دلچسپي": 5318,
      "بيڪ": 5319,
      "##کان": 5320,
      "##ِن": 5321,
      "##ائيڊ": 5322,
      "واس": 5323,
      "اعليٰ": 5324,
      "الص": 5325,
      "ڏيندا": 5326,
      "برقرار": 5327,
      "##ٽنگ": 5328,
      "ايڇ": 5329,
      "حيرت": 5330,
      "نيا": 5331,
      "آڻ": 5332,
      "دين": 5333,
      "سميت": 5334,
      "##شا": 5335,
      "##ڪٽر": 5336,
      "پوئتي": 5337,
      "آساني": 5338,
      "يس": 5339,
      "ٽرانس": 5340,
      "text": 5341,
      "عا": 5342,
      "##ـآ": 5343,
      "بڻائڻ": 5344,
      "آرٽيڪل": 5345,
      "##روف": 5346,
      "آڻڻ": 5347,
      "##وگ": 5348,
      "پڙهن": 5349,
      "ڳالهائڻ": 5350,
      "بص": 5351,
      "شوي": 5352,
      "غريب": 5353,
      "سري": 5354,
      "بھ": 5355,
      "لحاظ": 5356,
      "کو": 5357,
      "مصنو": 5358,
      "وب": 5359,
      "##ڙپ": 5360,
      "روڊ": 5361,
      "مسلسل": 5362,
      "مسئلن": 5363,
      "آفري": 5364,
      "سمجهيو": 5365,
      "##نى": 5366,
      "##بيت": 5367,
      "ايتري": 5368,
      "ماني": 5369,
      "چيائين": 5370,
      "ڏينھن": 5371,
      "محدود": 5372,
      "امتح": 5373,
      "چاهيان": 5374,
      "ڏکڻ": 5375,
      "##oc": 5376,
      ",,": 5377,
      "al": 5378,
      "مغ": 5379,
      "قسمن": 5380,
      "قبل": 5381,
      "آس": 5382,
      "ڊپ": 5383,
      "اعتماد": 5384,
      "ch": 5385,
      "عيس": 5386,
      "كان": 5387,
      "شايع": 5388,
      "قرآن": 5389,
      "##ٺل": 5390,
      "متح": 5391,
      "قرض": 5392,
      "گهڻا": 5393,
      "##ڄي": 5394,
      "##ايون": 5395,
      "الڳ": 5396,
      "ڪيترا": 5397,
      "قرار": 5398,
      "اجلاس": 5399,
      "تجرب": 5400,
      "##ادر": 5401,
      "##ااا": 5402,
      "تحفظ": 5403,
      "انص": 5404,
      "هُن": 5405,
      "عوامي": 5406,
      "وائرس": 5407,
      "ناز": 5408,
      "وح": 5409,
      "##كس": 5410,
      "##رج": 5411,
      "##يندڙ": 5412,
      "##ائيندڙ": 5413,
      "##سنس": 5414,
      "عاد": 5415,
      "فٽ": 5416,
      "##عام": 5417,
      "عالم": 5418,
      "مشت": 5419,
      "شوق": 5420,
      "فوج": 5421,
      "يک": 5422,
      "انسٽال": 5423,
      "##اره": 5424,
      "ڪنھن": 5425,
      "##رل": 5426,
      "ارس": 5427,
      "قدرتي": 5428,
      "مسافر": 5429,
      "ڀيٽ": 5430,
      "بون": 5431,
      "خالي": 5432,
      "ويس": 5433,
      "صور": 5434,
      "اچو": 5435,
      "آخرڪار": 5436,
      "ادارن": 5437,
      "امن": 5438,
      "نظري": 5439,
      "هز": 5440,
      "##ڪيو": 5441,
      "##لڊ": 5442,
      "##طه": 5443,
      "ايراني": 5444,
      "ڪندس": 5445,
      "سواء": 5446,
      "##عودي": 5447,
      "پائي": 5448,
      "منٽ": 5449,
      "مقدار": 5450,
      "ڳولڻ": 5451,
      "جيان": 5452,
      "##ينه": 5453,
      "واٽ": 5454,
      "پٿ": 5455,
      "##اسي": 5456,
      "ليه": 5457,
      "ننڍي": 5458,
      "2017": 5459,
      "ٽيسٽ": 5460,
      "حڪمت": 5461,
      "مزاح": 5462,
      "رابطو": 5463,
      "بم": 5464,
      "مڇ": 5465,
      "پوندي": 5466,
      "تصويرون": 5467,
      "هجن": 5468,
      "##حو": 5469,
      "تحت": 5470,
      "##ارش": 5471,
      "ساڳيو": 5472,
      "جذب": 5473,
      "##ڻن": 5474,
      "جاچ": 5475,
      "##بير": 5476,
      "##ثي": 5477,
      "##امه": 5478,
      "ورتي": 5479,
      "نہ": 5480,
      "ڪسٽم": 5481,
      "##ظر": 5482,
      "مڙس": 5483,
      "دعو": 5484,
      "##يراعظم": 5485,
      "بق": 5486,
      "ذات": 5487,
      "وڪي": 5488,
      "##مپ": 5489,
      "##سون": 5490,
      "اچن": 5491,
      "##ind": 5492,
      "سڏيو": 5493,
      "سائ": 5494,
      "ڳا": 5495,
      "دوا": 5496,
      "جسماني": 5497,
      "ڊائ": 5498,
      "##ــي": 5499,
      "معياري": 5500,
      "سماج": 5501,
      "مهيني": 5502,
      "انقلاب": 5503,
      "سڌو": 5504,
      "يك": 5505,
      "چيڪ": 5506,
      "ويڊيو": 5507,
      "ماڻھو": 5508,
      "مذهبي": 5509,
      "اظهار": 5510,
      "re": 5511,
      "##ائيءَ": 5512,
      "##ڪٽو": 5513,
      "##roid": 5514,
      "چنڊ": 5515,
      "##فه": 5516,
      "منھنجي": 5517,
      "جهڙي": 5518,
      "کر": 5519,
      "ايجن": 5520,
      "بدل": 5521,
      "عشق": 5522,
      "اوچ": 5523,
      "براي": 5524,
      "عجيب": 5525,
      "##گيري": 5526,
      "طريق": 5527,
      "con": 5528,
      "ساڳئي": 5529,
      "شهري": 5530,
      "بندي": 5531,
      "مظ": 5532,
      "پول": 5533,
      "##وال": 5534,
      "##ڊيٽ": 5535,
      "##if": 5536,
      "##ٿا": 5537,
      "##جيٽل": 5538,
      "گھرجي": 5539,
      "بئنڪ": 5540,
      "گن": 5541,
      "خامو": 5542,
      "ڊوائيس": 5543,
      "android": 5544,
      "جز": 5545,
      "لڪ": 5546,
      "گڏجي": 5547,
      "پروسي": 5548,
      "واقع": 5549,
      "ڪڍي": 5550,
      "وم": 5551,
      "وَ": 5552,
      "##گن": 5553,
      "پويان": 5554,
      "وزيراعظم": 5555,
      "هيڪ": 5556,
      "لائسنس": 5557,
      "آل": 5558,
      "فرانس": 5559,
      "##انھن": 5560,
      "ڪيترو": 5561,
      "سلسلي": 5562,
      "امتحان": 5563,
      "؟!": 5564,
      "##pt": 5565,
      "شرط": 5566,
      "شاگرد": 5567,
      "حصن": 5568,
      "اسٽيشن": 5569,
      "مجموعي": 5570,
      "##لينڊ": 5571,
      "ايئن": 5572,
      "پراڻي": 5573,
      "##اڻڻ": 5574,
      "مارچ": 5575,
      "##مينٽ": 5576,
      "احتجا": 5577,
      "وات": 5578,
      "بيت": 5579,
      "مئي": 5580,
      "ڊيو": 5581,
      "##ينٽ": 5582,
      "ليکڪ": 5583,
      "ڊجيٽل": 5584,
      "ارب": 5585,
      "الو": 5586,
      "مخالف": 5587,
      "کار": 5588,
      "مافي": 5589,
      "جنم": 5590,
      "نمائ": 5591,
      "منظور": 5592,
      "آڪٽو": 5593,
      "ساز": 5594,
      "##الن": 5595,
      "اشارو": 5596,
      "مسلمان": 5597,
      "ارا": 5598,
      "ڪلو": 5599,
      "منظم": 5600,
      "23": 5601,
      "منزل": 5602,
      "اڪيلو": 5603,
      "##سس": 5604,
      "##ياد": 5605,
      "معمولي": 5606,
      "مَ": 5607,
      "کائڻ": 5608,
      "ڪرائي": 5609,
      "ڏيندي": 5610,
      "جنسي": 5611,
      "چڱي": 5612,
      "لباس": 5613,
      "##سته": 5614,
      "آڪٽوبر": 5615,
      "آپ": 5616,
      "##ينج": 5617,
      "تاريخي": 5618,
      "مطابقت": 5619,
      "ذميواري": 5620,
      "زن": 5621,
      "هوا": 5622,
      "مسئلي": 5623,
      "شهي": 5624,
      "لل": 5625,
      "پالي": 5626,
      "##ميم": 5627,
      "ڪمري": 5628,
      "اسٽور": 5629,
      "##ٽرن": 5630,
      "##ak": 5631,
      "##يٽر": 5632,
      "ايندا": 5633,
      "##and": 5634,
      "بدران": 5635,
      "بلو": 5636,
      "نگر": 5637,
      "ٻڌڻ": 5638,
      "داخ": 5639,
      "چڱو": 5640,
      "معنيٰ": 5641,
      "##ستاني": 5642,
      "##ڙيءَ": 5643,
      "طريقا": 5644,
      "شاعري": 5645,
      "سَ": 5646,
      "ٽائي": 5647,
      "چئ": 5648,
      "خيلي": 5649,
      "دستياب": 5650,
      "ڪورٽ": 5651,
      "هندستان": 5652,
      "سڌ": 5653,
      "نيڪ": 5654,
      "##گا": 5655,
      "بلڪ": 5656,
      "تجزيو": 5657,
      "فڪر": 5658,
      "ڪالي": 5659,
      "##ڪش": 5660,
      "الخ": 5661,
      "##نديون": 5662,
      "،\"": 5663,
      "سوچي": 5664,
      "يورپي": 5665,
      "##ly": 5666,
      "روشن": 5667,
      "والدين": 5668,
      "دستاوي": 5669,
      "مرڪز": 5670,
      "کليل": 5671,
      "الج": 5672,
      "گهربل": 5673,
      "سيڙپ": 5674,
      "شاهه": 5675,
      "اتر": 5676,
      "اسپين": 5677,
      "گول": 5678,
      "عليها": 5679,
      "مشڪل": 5680,
      "ممكن": 5681,
      "هوٽل": 5682,
      "ڪتابن": 5683,
      "اضاف": 5684,
      "گرفتار": 5685,
      "آئ": 5686,
      "حبي": 5687,
      "چيني": 5688,
      "##هـ": 5689,
      "وانا": 5690,
      "ادي": 5691,
      "غلام": 5692,
      "##ـــــــــ": 5693,
      "خواهش": 5694,
      "سڪ": 5695,
      "##ia": 5696,
      "ٿوري": 5697,
      "##امن": 5698,
      "هيٺيان": 5699,
      "گراهڪ": 5700,
      "جيئ": 5701,
      "اسيم": 5702,
      "موٽي": 5703,
      "سيپٽ": 5704,
      "ڪابه": 5705,
      "سگهندا": 5706,
      "##شمن": 5707,
      "##کيه": 5708,
      "سيريز": 5709,
      "مٽ": 5710,
      "پلا": 5711,
      "پرين": 5712,
      "تعريف": 5713,
      "سد": 5714,
      "ھر": 5715,
      "ھئي": 5716,
      "##ٻي": 5717,
      "باغ": 5718,
      "ملاز": 5719,
      "خل": 5720,
      "ڪمپنين": 5721,
      "سڄو": 5722,
      "طيب": 5723,
      "198": 5724,
      "مئ": 5725,
      "طريقن": 5726,
      "موسيقي": 5727,
      "##گير": 5728,
      "##حڪ": 5729,
      "##طف": 5730,
      "نماز": 5731,
      "سيپٽمبر": 5732,
      "##رس": 5733,
      "مدا": 5734,
      "##ريم": 5735,
      "جائزو": 5736,
      "26": 5737,
      "راه": 5738,
      "عذ": 5739,
      "برو": 5740,
      "نوم": 5741,
      "چان": 5742,
      "پئسا": 5743,
      "فوجي": 5744,
      "##فرن": 5745,
      "ڳالهين": 5746,
      "تنھن": 5747,
      "##ڻا": 5748,
      "مشك": 5749,
      "هُو": 5750,
      "فطرت": 5751,
      "خور": 5752,
      "واپسي": 5753,
      "قومن": 5754,
      "سزا": 5755,
      "مور": 5756,
      "ٻُ": 5757,
      "##ليٽ": 5758,
      "2016": 5759,
      "ڊزائن": 5760,
      "اتح": 5761,
      "لنڪ": 5762,
      "ڪرائڻ": 5763,
      "اتفا": 5764,
      "انجني": 5765,
      "##رافي": 5766,
      "197": 5767,
      "شعر": 5768,
      "جيترو": 5769,
      "فوري": 5770,
      "چيز": 5771,
      "رائ": 5772,
      "ترجمو": 5773,
      "مھ": 5774,
      "##هيهي": 5775,
      "فيه": 5776,
      "عنصر": 5777,
      "آسمان": 5778,
      "##ew": 5779,
      "مشتمل": 5780,
      "اسيمبلي": 5781,
      "##يلن": 5782,
      "دورو": 5783,
      "بونس": 5784,
      "تيل": 5785,
      "چوندا": 5786,
      "حلوه": 5787,
      "sp": 5788,
      "چيم": 5789,
      "##کر": 5790,
      "خلاص": 5791,
      "دائ": 5792,
      "##ٽيءَ": 5793,
      "اڳي": 5794,
      "ادائي": 5795,
      "هدايت": 5796,
      "فوت": 5797,
      "جنرل": 5798,
      "ڪميون": 5799,
      "ڀري": 5800,
      "##لاد": 5801,
      "بحال": 5802,
      "آبادي": 5803,
      "##ڊنگ": 5804,
      "ڏيئي": 5805,
      "اخبار": 5806,
      "بود": 5807,
      "انعام": 5808,
      "محنت": 5809,
      "##ـــي": 5810,
      "صد": 5811,
      "ڀيرا": 5812,
      "روم": 5813,
      "نوان": 5814,
      "عه": 5815,
      "سينٽر": 5816,
      "سست": 5817,
      "گيت": 5818,
      "##رسي": 5819,
      "رکندڙ": 5820,
      "فقير": 5821,
      "هينئر": 5822,
      "تجو": 5823,
      "ٽرم": 5824,
      "##راهي": 5825,
      "مدي": 5826,
      "##ائب": 5827,
      "##لت": 5828,
      "ھون": 5829,
      "##ترين": 5830,
      "پهچائڻ": 5831,
      "سفارش": 5832,
      "برطان": 5833,
      "اضافو": 5834,
      "حما": 5835,
      "ساري": 5836,
      "آگسٽ": 5837,
      "ميوز": 5838,
      "دشمن": 5839,
      "ساٿ": 5840,
      "قسمت": 5841,
      "ڪانه": 5842,
      "قيام": 5843,
      "ميٽر": 5844,
      "راح": 5845,
      "ادبي": 5846,
      "مذهب": 5847,
      "اذا": 5848,
      "سدائين": 5849,
      "حج": 5850,
      "وڏن": 5851,
      "##ack": 5852,
      "##ڙڪ": 5853,
      "رهندا": 5854,
      "ڀريل": 5855,
      "##جڪ": 5856,
      "##سك": 5857,
      "مثل": 5858,
      "ونڊوز": 5859,
      "قص": 5860,
      "آرڊر": 5861,
      "##انڪ": 5862,
      "ڪيتريون": 5863,
      "سڃاڻپ": 5864,
      "سير": 5865,
      "وت": 5866,
      "##ھيو": 5867,
      "سمجهڻ": 5868,
      "##يوب": 5869,
      "موٽر": 5870,
      "تحريڪ": 5871,
      "سياحت": 5872,
      "تعا": 5873,
      "هه": 5874,
      "گزار": 5875,
      "برانڊ": 5876,
      "ساٿي": 5877,
      "ٻڌو": 5878,
      "کڻڻ": 5879,
      "رهندي": 5880,
      "sh": 5881,
      "طال": 5882,
      "طلب": 5883,
      "كله": 5884,
      "##بئي": 5885,
      "انڪار": 5886,
      "##est": 5887,
      "صفحا": 5888,
      "ڪاليج": 5889,
      "بک": 5890,
      "##آمد": 5891,
      "پرڏي": 5892,
      "روس": 5893,
      "اداري": 5894,
      "رابطي": 5895,
      "ناڪام": 5896,
      "عزي": 5897,
      "##ثير": 5898,
      "ميان": 5899,
      "##رائيڊ": 5900,
      "28": 5901,
      "پَ": 5902,
      "ڀلا": 5903,
      "##چار": 5904,
      "##حب": 5905,
      "آهنگ": 5906,
      "حيران": 5907,
      "انجنيئر": 5908,
      "دڪان": 5909,
      "شما": 5910,
      "چور": 5911,
      "##عتي": 5912,
      "##ايه": 5913,
      "ليش": 5914,
      "پروفي": 5915,
      "سگھجي": 5916,
      "عزت": 5917,
      "ex": 5918,
      "بغ": 5919,
      "حرف": 5920,
      "خاط": 5921,
      "رض": 5922,
      "كم": 5923,
      "گهري": 5924,
      "مسئلا": 5925,
      "سِ": 5926,
      "هٽ": 5927,
      "##هل": 5928,
      "وسيع": 5929,
      "ائ": 5930,
      "گي": 5931,
      "##عل": 5932,
      "هوائي": 5933,
      "##ry": 5934,
      "سوچڻ": 5935,
      "موڪليو": 5936,
      "پٿر": 5937,
      "زير": 5938,
      "حمايت": 5939,
      "سموري": 5940,
      "ڊيزائن": 5941,
      "موقعي": 5942,
      "##سمبر": 5943,
      "جنوري": 5944,
      "احتجاج": 5945,
      "زر": 5946,
      "سول": 5947,
      "مکيه": 5948,
      "ويهي": 5949,
      "2021": 5950,
      "60": 5951,
      "گهو": 5952,
      "##ib": 5953,
      "انه": 5954,
      "##ندس": 5955,
      "نيست": 5956,
      "فا": 5957,
      "##ليه": 5958,
      "اپڊيٽ": 5959,
      "##يورٽي": 5960,
      "افغانستان": 5961,
      "ضاب": 5962,
      "جيل": 5963,
      "##فيد": 5964,
      "فائلون": 5965,
      "سرگرمي": 5966,
      "جبل": 5967,
      "##سب": 5968,
      "ماپ": 5969,
      "امڪان": 5970,
      "ٽيون": 5971,
      "ڪلاس": 5972,
      "نومبر": 5973,
      "ترڪي": 5974,
      "شيئر": 5975,
      "ٻڌل": 5976,
      "مصنوعات": 5977,
      "ڪرو": 5978,
      "گھڻو": 5979,
      "هليو": 5980,
      "زخمي": 5981,
      "ايا": 5982,
      "رسي": 5983,
      "هار": 5984,
      "ٻو": 5985,
      "##عة": 5986,
      "ماضي": 5987,
      "رهيون": 5988,
      "اگ": 5989,
      "گاڏي": 5990,
      "آدم": 5991,
      "آسٽري": 5992,
      "پکي": 5993,
      "##وره": 5994,
      "هيٺين": 5995,
      "انصاف": 5996,
      "تعلي": 5997,
      "هٿن": 5998,
      "ادائيگي": 5999,
      "27": 6000,
      "حاد": 6001,
      "سعودي": 6002,
      "فصل": 6003,
      "##پان": 6004,
      "ناهن": 6005,
      "لنڊن": 6006,
      "##عرف": 6007,
      "هوء": 6008,
      "پيٽ": 6009,
      "##صوصي": 6010,
      "هئس": 6011,
      "##الم": 6012,
      "مردن": 6013,
      "ملڪيت": 6014,
      "ڏها": 6015,
      "اهل": 6016,
      "مره": 6017,
      "سنڏ": 6018,
      "ٻيون": 6019,
      "هع": 6020,
      "ڪوئي": 6021,
      "عورتون": 6022,
      "##ect": 6023,
      "ضحك": 6024,
      "اقتص": 6025,
      "لسٽ": 6026,
      "هائو": 6027,
      "##ڙڻ": 6028,
      "##ريٽ": 6029,
      "سمجهان": 6030,
      "ڪميشن": 6031,
      "خصوصي": 6032,
      "درجي": 6033,
      "لڳا": 6034,
      "ڪانهي": 6035,
      "ڏانھن": 6036,
      "##بول": 6037,
      "##ٽيف": 6038,
      "اينڊرائيڊ": 6039,
      "آڻي": 6040,
      "سيم": 6041,
      "##ود": 6042,
      "##ver": 6043,
      "##pl": 6044,
      "جول": 6045,
      "تازو": 6046,
      "##فرنس": 6047,
      "se": 6048,
      "ريم": 6049,
      "خات": 6050,
      "##قد": 6051,
      "##ائنٽ": 6052,
      "ناول": 6053,
      "فرض": 6054,
      "تقريبا": 6055,
      "دهشت": 6056,
      "المو": 6057,
      "رانديگر": 6058,
      "عنو": 6059,
      "ڪائن": 6060,
      "##پوري": 6061,
      "اوڀر": 6062,
      "ملائي": 6063,
      "##iz": 6064,
      "##اهرين": 6065,
      "##ووو": 6066,
      "وع": 6067,
      "##<<": 6068,
      "جنس": 6069,
      "ڳالهائي": 6070,
      "اقول": 6071,
      "مقابلو": 6072,
      "##ائس": 6073,
      "اسرائي": 6074,
      "##سيم": 6075,
      "وفات": 6076,
      "حاض": 6077,
      "شف": 6078,
      "##کن": 6079,
      "شده": 6080,
      "نواز": 6081,
      "تبص": 6082,
      "جاء": 6083,
      "ڪائون": 6084,
      "##ليون": 6085,
      "احمد": 6086,
      "انجام": 6087,
      "پراڊڪٽ": 6088,
      "قد": 6089,
      "متباد": 6090,
      "##پيڊيا": 6091,
      "يمكن": 6092,
      "رکن": 6093,
      "هونديون": 6094,
      "ميمبرن": 6095,
      "##ist": 6096,
      "ڪرايو": 6097,
      "سمجهه": 6098,
      "شهرن": 6099,
      "رجسٽر": 6100,
      "هست": 6101,
      "انك": 6102,
      "##لوڊ": 6103,
      "ماش": 6104,
      "ويٺو": 6105,
      "تعالي": 6106,
      "پٺيان": 6107,
      "##پا": 6108,
      "##ٻئي": 6109,
      "##هيو": 6110,
      "2015": 6111,
      "سائيز": 6112,
      "تجويز": 6113,
      "جهان": 6114,
      "شب": 6115,
      "ڪھ": 6116,
      "##اتل": 6117,
      "عمارت": 6118,
      "خطرن": 6119,
      "ڏکيو": 6120,
      "نتيجو": 6121,
      "##وگڏ": 6122,
      "اٺ": 6123,
      "كيف": 6124,
      "نين": 6125,
      "گلي": 6126,
      "##بة": 6127,
      "گڏوگڏ": 6128,
      "گزارش": 6129,
      "اڪي": 6130,
      "رُ": 6131,
      "وزار": 6132,
      "ڊسمبر": 6133,
      "##کو": 6134,
      "##ائپ": 6135,
      "متن": 6136,
      "وفاقي": 6137,
      "آيل": 6138,
      "فيل": 6139,
      "##ڊن": 6140,
      "##يڪشن": 6141,
      "باهه": 6142,
      "wh": 6143,
      "ڏنا": 6144,
      "ڪَ": 6145,
      "##مڻ": 6146,
      "واقعا": 6147,
      "الحال": 6148,
      "تخليق": 6149,
      "##ازن": 6150,
      "آزم": 6151,
      "منصوبي": 6152,
      "قال": 6153,
      "قرب": 6154,
      "ليگ": 6155,
      "اُهي": 6156,
      "ضرورتن": 6157,
      "شرڪت": 6158,
      "##خخخخ": 6159,
      "متبادل": 6160,
      "وو": 6161,
      "ڳالهايو": 6162,
      "رسول": 6163,
      "##يييي": 6164,
      "پيروي": 6165,
      "عقي": 6166,
      "##حان": 6167,
      "سرا": 6168,
      "##ــــــــــ": 6169,
      "ناق": 6170,
      "تڪليف": 6171,
      "هندو": 6172,
      "روپ": 6173,
      "واقف": 6174,
      "نشاني": 6175,
      "دار": 6176,
      "مسي": 6177,
      "مبار": 6178,
      "نصي": 6179,
      "ڏياري": 6180,
      "##يٽي": 6181,
      "اپريل": 6182,
      "مريض": 6183,
      "کڻ": 6184,
      "خريداري": 6185,
      "تسليم": 6186,
      "اصلا": 6187,
      "پئجي": 6188,
      "راءِ": 6189,
      "وٺو": 6190,
      "ھاڻي": 6191,
      "اليڪٽر": 6192,
      "تعاون": 6193,
      "گُ": 6194,
      "قلب": 6195,
      "##يوم": 6196,
      "##ايتي": 6197,
      "قيمتي": 6198,
      "اٿم": 6199,
      "مها": 6200,
      "نالا": 6201,
      "کائي": 6202,
      "واريون": 6203,
      "مزو": 6204,
      "##دل": 6205,
      "194": 6206,
      "سلسلو": 6207,
      "</": 6208,
      "مينهن": 6209,
      "معاش": 6210,
      "يورو": 6211,
      "توڙي": 6212,
      "آھيان": 6213,
      "ڪجھه": 6214,
      "طاقتور": 6215,
      "is": 6216,
      "عندي": 6217,
      "##سري": 6218,
      "شعور": 6219,
      "معاملي": 6220,
      "ڀاءُ": 6221,
      "##كـ": 6222,
      "##طان": 6223,
      "##عمل": 6224,
      "ماڻهوءَ": 6225,
      "بچائڻ": 6226,
      "ڪورونا": 6227,
      "رانديون": 6228,
      "کوٽ": 6229,
      "##ٽڪ": 6230,
      "سبق": 6231,
      "اسٽيٽ": 6232,
      "دعوي": 6233,
      "ضم": 6234,
      "##op": 6235,
      "##جهه": 6236,
      "پارڪ": 6237,
      "شخصيت": 6238,
      "سيڙپڪاري": 6239,
      "ar": 6240,
      "هاءِ": 6241,
      "##قه": 6242,
      "##ڪرين": 6243,
      "فرد": 6244,
      "تھ": 6245,
      "ٽيبل": 6246,
      "چوڌ": 6247,
      "سگهندو": 6248,
      "شهيد": 6249,
      "35": 6250,
      "کاتي": 6251,
      "ڪيتري": 6252,
      "ابتدائي": 6253,
      "پاليسي": 6254,
      "un": 6255,
      "##دة": 6256,
      "##يره": 6257,
      "ڪمز": 6258,
      "وزارت": 6259,
      "cl": 6260,
      "کيڏ": 6261,
      "##ندگي": 6262,
      "خدمتن": 6263,
      "جرمني": 6264,
      "پرڏيهي": 6265,
      "80": 6266,
      "##av": 6267,
      "##سٽڪ": 6268,
      "گهرجن": 6269,
      "سرور": 6270,
      "اڳوڻي": 6271,
      "##اڻا": 6272,
      "هزارين": 6273,
      "ڪائنات": 6274,
      "##هندو": 6275,
      "am": 6276,
      "الك": 6277,
      "عربي": 6278,
      "##مممم": 6279,
      "تازه": 6280,
      "هٿي": 6281,
      "ڳڻ": 6282,
      "ڪوڙ": 6283,
      "روڪي": 6284,
      "خودڪار": 6285,
      "29": 6286,
      "اڀ": 6287,
      "عجب": 6288,
      "196": 6289,
      "چوٿ": 6290,
      "##چن": 6291,
      "وسلم": 6292,
      "منصوبو": 6293,
      "غر": 6294,
      "ووٽ": 6295,
      "##قلي": 6296,
      "##يڪار": 6297,
      "##برد": 6298,
      "هلائڻ": 6299,
      "ڊرائيو": 6300,
      "##og": 6301,
      "هيس": 6302,
      "تربيت": 6303,
      "سيڪيورٽي": 6304,
      "حقن": 6305,
      "آمدني": 6306,
      "##بروري": 6307,
      "اصط": 6308,
      "شروعاتي": 6309,
      "ad": 6310,
      "تاب": 6311,
      "حسن": 6312,
      "وڙ": 6313,
      "##ڊو": 6314,
      "##ain": 6315,
      "اند": 6316,
      "سکڻ": 6317,
      "xn": 6318,
      "شد": 6319,
      "فرو": 6320,
      "چپ": 6321,
      "##هاري": 6322,
      "##ارڪ": 6323,
      "##اڻين": 6324,
      "##راهه": 6325,
      "مثبت": 6326,
      "جانور": 6327,
      "لات": 6328,
      "##up": 6329,
      "لاش": 6330,
      "ڪارپوري": 6331,
      "):": 6332,
      "انو": 6333,
      "ورلڊ": 6334,
      "##umx": 6335,
      "لين": 6336,
      "مني": 6337,
      "ڪاپي": 6338,
      "وينديون": 6339,
      "##ڊيشن": 6340,
      "وجهي": 6341,
      "اطلا": 6342,
      "عيسي": 6343,
      "اتفاق": 6344,
      "جدو": 6345,
      "هت": 6346,
      "##چا": 6347,
      "##ct": 6348,
      "بجي": 6349,
      "قيد": 6350,
      "##جين": 6351,
      "جانورن": 6352,
      "يقينا": 6353,
      "pro": 6354,
      "##ip": 6355,
      "اميدو": 6356,
      "بادشاهه": 6357,
      "ٻيٽ": 6358,
      "ڀڃ": 6359,
      "گهرو": 6360,
      "برس": 6361,
      "عبدال": 6362,
      "وڪيپيڊيا": 6363,
      "##ـــــــــــ": 6364,
      "مؤ": 6365,
      "وڪيل": 6366,
      "اغ": 6367,
      "##وڪي": 6368,
      "##تائي": 6369,
      "انٽرو": 6370,
      "خدمتون": 6371,
      "هيل": 6372,
      "يلا": 6373,
      "ڄاڻي": 6374,
      "##ین": 6375,
      "تحري": 6376,
      "فوٽو": 6377,
      "ٽرانسپورٽ": 6378,
      "جهن": 6379,
      "رن": 6380,
      "ڀڳ": 6381,
      "##ٺيون": 6382,
      "هلندڙ": 6383,
      "شراب": 6384,
      "آءُ": 6385,
      "ضمان": 6386,
      "کني": 6387,
      "##0ع": 6388,
      "##اڻيو": 6389,
      "دوستي": 6390,
      "ڇڏڻ": 6391,
      "ٽين": 6392,
      "##غذ": 6393,
      "الب": 6394,
      "ميڊ": 6395,
      "اندروني": 6396,
      "##فرد": 6397,
      "اصطلاح": 6398,
      "أن": 6399,
      "افت": 6400,
      "دليل": 6401,
      "کولي": 6402,
      "##گين": 6403,
      "لانچ": 6404,
      "لهي": 6405,
      "ڊيم": 6406,
      "##شد": 6407,
      "سوي": 6408,
      "pl": 6409,
      "تهيه": 6410,
      "عج": 6411,
      "##وب": 6412,
      "##نن": 6413,
      "##انس": 6414,
      "يونين": 6415,
      "كنت": 6416,
      "ٻاهرين": 6417,
      "##od": 6418,
      "ماڻھن": 6419,
      "##ومين": 6420,
      "گهڻن": 6421,
      "##ks": 6422,
      "##هندا": 6423,
      "امري": 6424,
      "تعليمي": 6425,
      "انٽرويو": 6426,
      "أنا": 6427,
      "لأ": 6428,
      "وطن": 6429,
      "هڪٻئي": 6430,
      "ڪئم": 6431,
      "بڪ": 6432,
      "خلي": 6433,
      "عالي": 6434,
      "پڌ": 6435,
      "کلي": 6436,
      "##زح": 6437,
      "پهتو": 6438,
      "xnumx": 6439,
      "فائيل": 6440,
      "هذه": 6441,
      "##ابل": 6442,
      "فيبروري": 6443,
      "بحالي": 6444,
      "چارج": 6445,
      "::": 6446,
      "ڌم": 6447,
      "##ائجي": 6448,
      "ايش": 6449,
      "منفرد": 6450,
      "ويڙ": 6451,
      "نظم": 6452,
      "وساري": 6453,
      "اٿس": 6454,
      "گفتگو": 6455,
      "ابي": 6456,
      "فتح": 6457,
      "##ـن": 6458,
      "ضحكت": 6459,
      "سالي": 6460,
      "گلو": 6461,
      "##فڪ": 6462,
      "برداشت": 6463,
      "ساهه": 6464,
      "خاصيتون": 6465,
      "دهشتگر": 6466,
      "رپ": 6467,
      "رخ": 6468,
      "فخر": 6469,
      "مجب": 6470,
      "پهر": 6471,
      "الق": 6472,
      "ڪاوڙ": 6473,
      "500": 6474,
      "سڌي": 6475,
      "هفته": 6476,
      "ٽئين": 6477,
      "##ِين": 6478,
      "##ديت": 6479,
      "##ندڙن": 6480,
      "انڊسٽري": 6481,
      "،،": 6482,
      "الت": 6483,
      "##افظ": 6484,
      "##ڻيون": 6485,
      "ٽيڪس": 6486,
      "ڪانفرنس": 6487,
      "نفرت": 6488,
      "تجربي": 6489,
      "معاملو": 6490,
      "دم": 6491,
      "رئي": 6492,
      "ضل": 6493,
      "روي": 6494,
      "نر": 6495,
      "##فن": 6496,
      "##زين": 6497,
      "واع": 6498,
      "محبو": 6499,
      "چاهيون": 6500,
      "برطانيه": 6501,
      "اقتصادي": 6502,
      "^^": 6503,
      "وِ": 6504,
      "ٿر": 6505,
      "##ُن": 6506,
      "##بين": 6507,
      "منع": 6508,
      "پاور": 6509,
      "##آآآآ": 6510,
      "الزام": 6511,
      "of": 6512,
      "نكت": 6513,
      "چڪ": 6514,
      "الش": 6515,
      "ڪاررو": 6516,
      "چيست": 6517,
      "لازم": 6518,
      "90": 6519,
      "##ٽون": 6520,
      "ڪارڪن": 6521,
      "صفحي": 6522,
      "##هڪ": 6523,
      "پيچي": 6524,
      "روايتي": 6525,
      "ملڪي": 6526,
      "انتخ": 6527,
      "ضمانت": 6528,
      "##گاه": 6529,
      "اولاد": 6530,
      "اندازو": 6531,
      "متعارف": 6532,
      "بہ": 6533,
      "طلاق": 6534,
      "كه": 6535,
      "كلام": 6536,
      "سمجه": 6537,
      "خيالن": 6538,
      "معاهدي": 6539,
      "ريڪ": 6540,
      "##او": 6541,
      "مرڪزي": 6542,
      "##یک": 6543,
      "##ht": 6544,
      "ايشيا": 6545,
      "چيه": 6546,
      "پسندي": 6547,
      "tr": 6548,
      "جما": 6549,
      "حيات": 6550,
      "ڊيل": 6551,
      "کپي": 6552,
      "پوزيشن": 6553,
      "زنده": 6554,
      "ذريعو": 6555,
      "##ُون": 6556,
      "##زش": 6557,
      "سائيڪل": 6558,
      "پهچڻ": 6559,
      "جوڙجڪ": 6560,
      "مرمت": 6561,
      "نتيجا": 6562,
      "اليڪشن": 6563,
      "ثقافت": 6564,
      "لع": 6565,
      "وڌائي": 6566,
      "برن": 6567,
      "نمون": 6568,
      "سهولت": 6569,
      "تڪر": 6570,
      "##ou": 6571,
      "##az": 6572,
      "وڌو": 6573,
      "انتظامي": 6574,
      "انفرا": 6575,
      "\"،": 6576,
      "هڻي": 6577,
      "ڀارت": 6578,
      "ڏٺ": 6579,
      "##فق": 6580,
      "رھيو": 6581,
      "مجبور": 6582,
      "خون": 6583,
      "نج": 6584,
      "ناس": 6585,
      "پيئي": 6586,
      "روڪڻ": 6587,
      "اوھين": 6588,
      "##ate": 6589,
      "پاڻيءَ": 6590,
      "کاڌي": 6591,
      "31": 6592,
      "اهڙن": 6593,
      "##اريءَ": 6594,
      "سيد": 6595,
      "مقص": 6596,
      "سادي": 6597,
      "يونٽ": 6598,
      "##اھر": 6599,
      "دعوت": 6600,
      "زبرد": 6601,
      "وير": 6602,
      "##ov": 6603,
      "##پنگ": 6604,
      "جوان": 6605,
      "##ھيءَ": 6606,
      "##اصر": 6607,
      "ابراهي": 6608,
      "ريلوي": 6609,
      "غم": 6610,
      "يافته": 6611,
      "اڳيون": 6612,
      "ڪپڙا": 6613,
      "45": 6614,
      "بش": 6615,
      "جر": 6616,
      "فران": 6617,
      "ٿور": 6618,
      "##ٿو": 6619,
      "پيئڻ": 6620,
      "منح": 6621,
      "##all": 6622,
      "درا": 6623,
      "قول": 6624,
      "وهي": 6625,
      "جادو": 6626,
      "##ايد": 6627,
      "##ويئر": 6628,
      "ليس": 6629,
      "ڏسندا": 6630,
      "کاڌو": 6631,
      "فيڪ": 6632,
      "##ُو": 6633,
      "##الله": 6634,
      "##ياس": 6635,
      "وڃائي": 6636,
      "##اڪي": 6637,
      "امين": 6638,
      "نمائش": 6639,
      "گذر": 6640,
      "ڊرائ": 6641,
      "پڙهندڙ": 6642,
      "قوت": 6643,
      "##ينل": 6644,
      "##ورة": 6645,
      "ڏيان": 6646,
      "سائيٽن": 6647,
      "عنوان": 6648,
      "آھيو": 6649,
      "##نگي": 6650,
      "واقعن": 6651,
      "بندو": 6652,
      "قبر": 6653,
      "لطف": 6654,
      "##ائشي": 6655,
      "گهرن": 6656,
      "امداد": 6657,
      "##شيد": 6658,
      "مصر": 6659,
      "سيک": 6660,
      "سگھون": 6661,
      "شڪر": 6662,
      "سرڪار": 6663,
      ">>>": 6664,
      "70": 6665,
      "آڇ": 6666,
      "مك": 6667,
      "چئن": 6668,
      "##هههههههههههه": 6669,
      "افسوس": 6670,
      "روحاني": 6671,
      "وقتي": 6672,
      "مزاحمت": 6673,
      "رم": 6674,
      "هارڊ": 6675,
      "##ريس": 6676,
      "وڃان": 6677,
      "مٿين": 6678,
      "حلوة": 6679,
      "انتخاب": 6680,
      "32": 6681,
      "عشان": 6682,
      "پتو": 6683,
      "ڊبل": 6684,
      "##بوت": 6685,
      "والد": 6686,
      "موڪلي": 6687,
      "وڪ": 6688,
      "##ثن": 6689,
      "##روز": 6690,
      "سونهن": 6691,
      "مبارڪ": 6692,
      "شاه": 6693,
      "هنا": 6694,
      "ڪهڙا": 6695,
      "بڻايو": 6696,
      "انٽرنيشنل": 6697,
      "مڇي": 6698,
      "طرز": 6699,
      "لنگ": 6700,
      "##ڪين": 6701,
      "##خن": 6702,
      "روسي": 6703,
      "پروف": 6704,
      "شكل": 6705,
      "##ـــــــــــــ": 6706,
      "en": 6707,
      "بدلي": 6708,
      "محت": 6709,
      "2014": 6710,
      "مصروف": 6711,
      "معاشي": 6712,
      "ذميوار": 6713,
      "اٿي": 6714,
      "ڊز": 6715,
      "##day": 6716,
      "##ندن": 6717,
      "برقي": 6718,
      "درجه": 6719,
      "پنڌ": 6720,
      "مِ": 6721,
      "مرت": 6722,
      "واپاري": 6723,
      "پريس": 6724,
      "نگراني": 6725,
      "دستاويز": 6726,
      "ابراهيم": 6727,
      "aw": 6728,
      "مذ": 6729,
      "ڏيندڙ": 6730,
      "##اهري": 6731,
      "نڪتو": 6732,
      "پابندي": 6733,
      "اوچتو": 6734,
      "بلوچ": 6735,
      "آغ": 6736,
      "حمل": 6737,
      "رهو": 6738,
      "سپر": 6739,
      "ماهي": 6740,
      "متو": 6741,
      "##يول": 6742,
      "نيٺ": 6743,
      "کوليو": 6744,
      "مقصدن": 6745,
      "اور": 6746,
      "چوري": 6747,
      "موڊ": 6748,
      "2013": 6749,
      "انڊيا": 6750,
      "ٺاھ": 6751,
      "##ce": 6752,
      "رکيل": 6753,
      "پڇي": 6754,
      "روزاني": 6755,
      "مهل": 6756,
      "رش": 6757,
      "سازي": 6758,
      "##io": 6759,
      "##ستر": 6760,
      "وڌڻ": 6761,
      "مدت": 6762,
      "نيشنل": 6763,
      "اكيد": 6764,
      "بيٽري": 6765,
      "bl": 6766,
      "نار": 6767,
      "##ڙهو": 6768,
      "انجڻ": 6769,
      "تعرف": 6770,
      "سرگرمين": 6771,
      "آفريڪا": 6772,
      "##نداسين": 6773,
      "منٽن": 6774,
      "ترجي": 6775,
      "##ناهه": 6776,
      "سکيا": 6777,
      "عزيز": 6778,
      "sc": 6779,
      "باڪ": 6780,
      "ٽري": 6781,
      "پچ": 6782,
      "##ڊٽ": 6783,
      "پوک": 6784,
      "عليكم": 6785,
      "راضي": 6786,
      "لائق": 6787,
      "پلاسٽڪ": 6788,
      "آندو": 6789,
      "حب": 6790,
      "پها": 6791,
      "##طل": 6792,
      "##لوي": 6793,
      "بررسي": 6794,
      "چيف": 6795,
      "شعبي": 6796,
      "اياز": 6797,
      "ارت": 6798,
      "نبي": 6799,
      "نرم": 6800,
      "##ندين": 6801,
      "پرت": 6802,
      "بيٺو": 6803,
      "آهستي": 6804,
      "on": 6805,
      "مٽي": 6806,
      "وڇ": 6807,
      "کٽ": 6808,
      "سرب": 6809,
      "نقل": 6810,
      "آسٽريليا": 6811,
      "بٽڻ": 6812,
      "عقل": 6813,
      "ڪٽ": 6814,
      "##7ع": 6815,
      "احد": 6816,
      "پنجن": 6817,
      "خاموش": 6818,
      "##جل": 6819,
      "##يرن": 6820,
      "سادو": 6821,
      "اُهو": 6822,
      "195": 6823,
      "ارسال": 6824,
      "ڪائونسل": 6825,
      "حرڪ": 6826,
      "سپورٽ": 6827,
      "##اوت": 6828,
      "##رك": 6829,
      "تياري": 6830,
      "رکندو": 6831,
      "پالڻ": 6832,
      "انگي": 6833,
      "اخر": 6834,
      "پاسو": 6835,
      "اتحاد": 6836,
      "پروفيسر": 6837,
      "يوٽ": 6838,
      "مسجد": 6839,
      "ڀرسان": 6840,
      "ذهني": 6841,
      "ميوزڪ": 6842,
      "چرا": 6843,
      "##وس": 6844,
      "##ant": 6845,
      "يقول": 6846,
      "آفيسر": 6847,
      "حملو": 6848,
      "درواز": 6849,
      "ادار": 6850,
      "##پڻ": 6851,
      "خبرون": 6852,
      "تجارتي": 6853,
      "صنعتي": 6854,
      "ڌي": 6855,
      "##نل": 6856,
      "##عين": 6857,
      "چوندو": 6858,
      "زمرو": 6859,
      "بيل": 6860,
      "عرا": 6861,
      "چڙهي": 6862,
      "ڪِ": 6863,
      "انٽ": 6864,
      "تنقي": 6865,
      "مائي": 6866,
      "ٻول": 6867,
      "##لاقي": 6868,
      "ڪيان": 6869,
      "سڀاڻي": 6870,
      "تعجب": 6871,
      "فائر": 6872,
      "خطرو": 6873,
      "اٿئي": 6874,
      "چرچ": 6875,
      "sm": 6876,
      "تاج": 6877,
      "جار": 6878,
      "لطي": 6879,
      "هيك": 6880,
      "ترس": 6881,
      "باقا": 6882,
      "##املن": 6883,
      "دفعي": 6884,
      "منحصر": 6885,
      ":)": 6886,
      "ظلم": 6887,
      "##یس": 6888,
      "##دير": 6889,
      "اداڪار": 6890,
      "وٺندو": 6891,
      "منظوري": 6892,
      "فنڪشن": 6893,
      "ڳنڍيل": 6894,
      "داخلا": 6895,
      "سؤ": 6896,
      "ڌو": 6897,
      "سوم": 6898,
      "رکون": 6899,
      "فورم": 6900,
      "00": 6901,
      "اسپي": 6902,
      "اڳواڻ": 6903,
      "عذاب": 6904,
      "ap": 6905,
      "رول": 6906,
      "يح": 6907,
      "ٽڪ": 6908,
      "##ies": 6909,
      "##lin": 6910,
      "مايو": 6911,
      "##ity": 6912,
      "رجحان": 6913,
      "هفتن": 6914,
      "36": 6915,
      "مآ": 6916,
      "توقع": 6917,
      "مرضي": 6918,
      "##one": 6919,
      "روزانو": 6920,
      "طول": 6921,
      "##ڏا": 6922,
      "##تيءَ": 6923,
      "بيهي": 6924,
      "تعارف": 6925,
      "وڊيوز": 6926,
      "مطالبو": 6927,
      "چوڌاري": 6928,
      "ملو": 6929,
      "##ڙيو": 6930,
      "##co": 6931,
      "موثر": 6932,
      "سوالن": 6933,
      "رسم": 6934,
      "لال": 6935,
      "مک": 6936,
      "ڊوڙ": 6937,
      "##اق": 6938,
      "معاملن": 6939,
      "سرٽيف": 6940,
      "مقام": 6941,
      "ڇڏيا": 6942,
      "فٽبال": 6943,
      "مسيح": 6944,
      "جد": 6945,
      "هلا": 6946,
      "##ik": 6947,
      "ڪرين": 6948,
      "ڪنڊ": 6949,
      "انسانن": 6950,
      "ملازمن": 6951,
      "فرانسي": 6952,
      "إن": 6953,
      "طئي": 6954,
      "ھل": 6955,
      "##ارم": 6956,
      "هلڻ": 6957,
      "ڪلاڪن": 6958,
      "تار": 6959,
      "نھ": 6960,
      "##ثار": 6961,
      "پيرن": 6962,
      "de": 6963,
      "پلان": 6964,
      "ڀرو": 6965,
      "##تيون": 6966,
      "ذريعن": 6967,
      "ٻوليءَ": 6968,
      "ڪمزور": 6969,
      "##ڌا": 6970,
      "##اده": 6971,
      "ڪاغذ": 6972,
      "ملازم": 6973,
      "ايئرپورٽ": 6974,
      "##جيڪٽ": 6975,
      "##روم": 6976,
      "##ادن": 6977,
      "موجودگي": 6978,
      "چاهين": 6979,
      "علائقو": 6980,
      "ناقابل": 6981,
      "جميل": 6982,
      "##ـه": 6983,
      "##vid": 6984,
      "##ديءَ": 6985,
      "ارادو": 6986,
      "بنگ": 6987,
      "عباد": 6988,
      "نعم": 6989,
      "##باب": 6990,
      "##ميٽ": 6991,
      "ماڳ": 6992,
      "اسٽوري": 6993,
      "##ريڪٽر": 6994,
      "جرمن": 6995,
      "مائڪرو": 6996,
      "##تاب": 6997,
      "##ڙائي": 6998,
      "##زه": 6999,
      "##بتي": 7000,
      "سنو": 7001,
      "شهرين": 7002,
      "منصوبن": 7003,
      "خارجي": 7004,
      "qu": 7005,
      "وڌندڙ": 7006,
      "شيخ": 7007,
      "اصلاح": 7008,
      "علمي": 7009,
      "اسٽيل": 7010,
      "ڀرپور": 7011,
      "عندك": 7012,
      "خطرناڪ": 7013,
      "ترا": 7014,
      "شرم": 7015,
      "ٻولين": 7016,
      "ڪلام": 7017,
      "##حة": 7018,
      "کير": 7019,
      "دوري": 7020,
      "اُتي": 7021,
      "لوڪ": 7022,
      "سڃاتو": 7023,
      "ڊائونلوڊ": 7024,
      "ثقاف": 7025,
      "شور": 7026,
      "كن": 7027,
      "چُ": 7028,
      "مرڻ": 7029,
      "شيءَ": 7030,
      "for": 7031,
      "##ويه": 7032,
      "بيمار": 7033,
      "مسلمانن": 7034,
      "شريف": 7035,
      "وحد": 7036,
      "##ورڪ": 7037,
      "##ڪلهه": 7038,
      "فائدا": 7039,
      "بعض": 7040,
      "حاضر": 7041,
      "لق": 7042,
      "جاڳ": 7043,
      "زبردست": 7044,
      "قلم": 7045,
      "ڪٿ": 7046,
      "##رد": 7047,
      "##عيد": 7048,
      "آھيون": 7049,
      "##ell": 7050,
      "متحرڪ": 7051,
      "نون": 7052,
      "##صف": 7053,
      "فيشن": 7054,
      "سنجي": 7055,
      "##صيلي": 7056,
      "تقريب": 7057,
      "الموضوع": 7058,
      "معيشت": 7059,
      "بلڪه": 7060,
      "تل": 7061,
      "##قسم": 7062,
      "سهول": 7063,
      "آلو": 7064,
      "تت": 7065,
      "جُ": 7066,
      "رٿ": 7067,
      "شڪا": 7068,
      "يکي": 7069,
      "ھئا": 7070,
      "نهايت": 7071,
      "ڪناري": 7072,
      "##خلت": 7073,
      "ڄاڻڻ": 7074,
      "کنيو": 7075,
      "خوراڪ": 7076,
      "ڪارروائي": 7077,
      "صلي": 7078,
      "پٺ": 7079,
      "##ريٽري": 7080,
      "انش": 7081,
      "بلند": 7082,
      "بندر": 7083,
      "منتقلي": 7084,
      "اسرائيل": 7085,
      "ڪئميرا": 7086,
      "سپري": 7087,
      "هتان": 7088,
      "پياري": 7089,
      "ڌن": 7090,
      "##زز": 7091,
      "##ريح": 7092,
      "ويٺي": 7093,
      "ميچ": 7094,
      "تنھنجي": 7095,
      "مثالي": 7096,
      "##ood": 7097,
      "le": 7098,
      "##ft": 7099,
      "تشدد": 7100,
      "بدن": 7101,
      "##کا": 7102,
      "##ـو": 7103,
      "##شاني": 7104,
      "##ؤر": 7105,
      "##ميشن": 7106,
      "خطري": 7107,
      "فيصلي": 7108,
      "دفعا": 7109,
      "##ill": 7110,
      "هائوس": 7111,
      "جولاءِ": 7112,
      "باقاع": 7113,
      "هستي": 7114,
      "##ھار": 7115,
      "گھڻي": 7116,
      "پارلي": 7117,
      "نيوي": 7118,
      "خاطر": 7119,
      "آڏو": 7120,
      "ھا": 7121,
      "##--": 7122,
      "وڌايو": 7123,
      "چينل": 7124,
      "ڀيڻ": 7125,
      "ڊگهو": 7126,
      "رھيا": 7127,
      "##ive": 7128,
      "ساڻس": 7129,
      "عبادت": 7130,
      "sub": 7131,
      "طوف": 7132,
      "##8ع": 7133,
      "##ائتو": 7134,
      "##ئيشن": 7135,
      "انسانيت": 7136,
      "حصيداري": 7137,
      "ماهرن": 7138,
      "نڪرڻ": 7139,
      "tw": 7140,
      "تلا": 7141,
      "جشن": 7142,
      "لكن": 7143,
      "##پاني": 7144,
      "##ائتي": 7145,
      "نظارو": 7146,
      "هئاسين": 7147,
      "ڪمپنيون": 7148,
      "فيصل": 7149,
      "قبضو": 7150,
      "ين": 7151,
      "پاڪستاني": 7152,
      "قابليت": 7153,
      "عرض": 7154,
      "اٽڪل": 7155,
      "وصول": 7156,
      "ڊزائين": 7157,
      "عيد": 7158,
      "##علي": 7159,
      "##hi": 7160,
      "##سيءَ": 7161,
      "نوجوانن": 7162,
      "قا": 7163,
      "قاع": 7164,
      "ميني": 7165,
      "##لاف": 7166,
      "پوائنٽ": 7167,
      "معاف": 7168,
      "ڪمن": 7169,
      "ميون": 7170,
      "سرهندي": 7171,
      "رساله": 7172,
      "ايج": 7173,
      "چمڪ": 7174,
      "حرڪت": 7175,
      "**": 7176,
      "بوٽ": 7177,
      "بزر": 7178,
      "لڳل": 7179,
      "##تمند": 7180,
      "ٽائيم": 7181,
      "وآ": 7182,
      "##حل": 7183,
      "ورها": 7184,
      "##اهم": 7185,
      "بچائي": 7186,
      "مرحله": 7187,
      "پٽي": 7188,
      "##1ع": 7189,
      "ڪيئي": 7190,
      "ناھي": 7191,
      "هلائي": 7192,
      "ڪميٽي": 7193,
      "دريافت": 7194,
      "معاشري": 7195,
      "رئيس": 7196,
      "سئو": 7197,
      "ڊڄ": 7198,
      "##هري": 7199,
      "##عيت": 7200,
      "##سط": 7201,
      "سيڪريٽري": 7202,
      "##ook": 7203,
      "چمڙي": 7204,
      "بلي": 7205,
      "##aw": 7206,
      "ڪرڻي": 7207,
      "معصو": 7208,
      "ڪوٽ": 7209,
      "چيئر": 7210,
      "ريڊيو": 7211,
      "حوص": 7212,
      "##ame": 7213,
      "مراد": 7214,
      "حاج": 7215,
      "زهر": 7216,
      "ٻوٽ": 7217,
      "ڊومين": 7218,
      "##5ع": 7219,
      "احتر": 7220,
      "##000": 7221,
      "قدرت": 7222,
      "33": 7223,
      "ماء": 7224,
      "پذ": 7225,
      "چڙ": 7226,
      "ڊول": 7227,
      "ڊسپ": 7228,
      "##ڪارن": 7229,
      "مادي": 7230,
      "پرواز": 7231,
      "##ــــــــــــــ": 7232,
      "بازار": 7233,
      "راس": 7234,
      "ياداشت": 7235,
      "ملندو": 7236,
      "ورهين": 7237,
      "ڪنڌ": 7238,
      "بچڻ": 7239,
      "اکر": 7240,
      "نسبت": 7241,
      "اعتبار": 7242,
      "پارليام": 7243,
      "ٽڪر": 7244,
      "پائڻ": 7245,
      "##ربي": 7246,
      "تباهه": 7247,
      "شاعريءَ": 7248,
      "مريم": 7249,
      "us": 7250,
      "پبل": 7251,
      "##يج": 7252,
      "##قى": 7253,
      "ڪارخ": 7254,
      "فائدي": 7255,
      "نتيجن": 7256,
      "اطلاع": 7257,
      "ma": 7258,
      "آي": 7259,
      "بگ": 7260,
      "حدي": 7261,
      "پيرا": 7262,
      "ڦا": 7263,
      "##ونڊي": 7264,
      "مناف": 7265,
      "##ائونڊ": 7266,
      "رياضي": 7267,
      "علامه": 7268,
      "خصوص": 7269,
      "دولت": 7270,
      "راي": 7271,
      "شريڪ": 7272,
      "لڳندو": 7273,
      "ٻڌائڻ": 7274,
      "سختي": 7275,
      "##جھ": 7276,
      "##دش": 7277,
      "##ليءَ": 7278,
      "پيماني": 7279,
      "ڪيف": 7280,
      "تقرير": 7281,
      "ڄڻا": 7282,
      "لطيف": 7283,
      "sind": 7284,
      "ذي": 7285,
      "##فل": 7286,
      "اسٽاڪ": 7287,
      "ٿينديون": 7288,
      "هندي": 7289,
      "##كره": 7290,
      "##eb": 7291,
      "##ارات": 7292,
      "يكون": 7293,
      "برسات": 7294,
      "توسان": 7295,
      "لڳائڻ": 7296,
      "پڙهو": 7297,
      "covid": 7298,
      "ليڪن": 7299,
      "im": 7300,
      "ورا": 7301,
      "ٺهر": 7302,
      "پنھنجو": 7303,
      "ڀاڱ": 7304,
      "برف": 7305,
      "ثبوت": 7306,
      "##3ع": 7307,
      "تحليل": 7308,
      "آخرين": 7309,
      "ڪنديون": 7310,
      "ننڍو": 7311,
      "پگ": 7312,
      "ڪلب": 7313,
      "جوا": 7314,
      "ورزن": 7315,
      "سرچ": 7316,
      "ڇڏيندو": 7317,
      "حالتون": 7318,
      "سياري": 7319,
      "صفحو": 7320,
      "حصا": 7321,
      "محبوب": 7322,
      "نع": 7323,
      "ملندي": 7324,
      "ننڍڙي": 7325,
      "تصويرن": 7326,
      "پيامبر": 7327,
      "هذي": 7328,
      "معت": 7329,
      "واقعو": 7330,
      "شكله": 7331,
      "ماحولي": 7332,
      "##ight": 7333,
      "نمائندگي": 7334,
      "ڀت": 7335,
      "##4ع": 7336,
      "رکندي": 7337,
      "ٺاهيل": 7338,
      "pre": 7339,
      "تنگ": 7340,
      "فين": 7341,
      "لغ": 7342,
      "پد": 7343,
      "گولي": 7344,
      "##ھڻ": 7345,
      "##ثريت": 7346,
      "شرطن": 7347,
      "##able": 7348,
      "رھي": 7349,
      "زو": 7350,
      "پيل": 7351,
      "پيد": 7352,
      "##سٽريشن": 7353,
      "جمي": 7354,
      "نان": 7355,
      "##صب": 7356,
      "جوڙي": 7357,
      "##راض": 7358,
      "عملن": 7359,
      "##اااااا": 7360,
      "تقسيم": 7361,
      "فرانسيسي": 7362,
      "99": 7363,
      "new": 7364,
      "فى": 7365,
      "وائي": 7366,
      "##خب": 7367,
      "##ريه": 7368,
      "اليوم": 7369,
      "خاصيتن": 7370,
      "ڊيسڪ": 7371,
      "بلاڪ": 7372,
      "ڪهاڻيون": 7373,
      "يوٽيوب": 7374,
      "كتي": 7375,
      "انس": 7376,
      "##سوسي": 7377,
      "ڏسندي": 7378,
      "نقطي": 7379,
      "پريشاني": 7380,
      "رانديگرن": 7381,
      "پسنديده": 7382,
      "تڪرار": 7383,
      "شنا": 7384,
      "کنڊ": 7385,
      "##for": 7386,
      "##دى": 7387,
      "سوئ": 7388,
      "افز": 7389,
      "سپريم": 7390,
      ":-": 7391,
      "بازي": 7392,
      "سلي": 7393,
      "لاهي": 7394,
      "مشق": 7395,
      "مارجي": 7396,
      "خاصيت": 7397,
      "مستقل": 7398,
      "سهڻي": 7399,
      "##الت": 7400,
      "پيپل": 7401,
      "منك": 7402,
      "پاڙي": 7403,
      "بالغ": 7404,
      "ترجيح": 7405,
      "ڇڏيندا": 7406,
      "پنهنجون": 7407,
      "ht": 7408,
      "سارا": 7409,
      "مهان": 7410,
      "##دف": 7411,
      "##9ع": 7412,
      "ملن": 7413,
      "گهٽتائي": 7414,
      "مددگار": 7415,
      "اثرات": 7416,
      "##حڪم": 7417,
      "احترام": 7418,
      "##زيد": 7419,
      "هيٺان": 7420,
      "آپريٽنگ": 7421,
      "پڙهيو": 7422,
      "ظاهري": 7423,
      "لئه": 7424,
      "##؟؟": 7425,
      "##ونگ": 7426,
      "صفائي": 7427,
      "today": 7428,
      "حملي": 7429,
      "معاهدو": 7430,
      "يالله": 7431,
      "واسطو": 7432,
      "ڊائريڪٽر": 7433,
      "فني": 7434,
      "يخ": 7435,
      "ڪئن": 7436,
      "##مار": 7437,
      "هئو": 7438,
      "##app": 7439,
      "سگھوٿا": 7440,
      "گنج": 7441,
      "ڊرائيور": 7442,
      "as": 7443,
      "باس": 7444,
      "غائب": 7445,
      "پان": 7446,
      "##ھا": 7447,
      "##2ع": 7448,
      "توجي": 7449,
      "ويٺا": 7450,
      "تبصرو": 7451,
      "يب": 7452,
      "ٽريڪ": 7453,
      "##ڙها": 7454,
      "##روح": 7455,
      "##ڪاوٽ": 7456,
      "مطالعو": 7457,
      "اسمارٽ": 7458,
      "متعلق": 7459,
      "برطانيا": 7460,
      "شير": 7461,
      "ڀريو": 7462,
      "ڪارن": 7463,
      "ڪچه": 7464,
      "##شمي": 7465,
      "اندو": 7466,
      "واش": 7467,
      "##ٽيس": 7468,
      "رهجي": 7469,
      "تخلي": 7470,
      "فاص": 7471,
      "وأ": 7472,
      "چاھ": 7473,
      "معك": 7474,
      "خودم": 7475,
      "##ang": 7476,
      "مهينا": 7477,
      "ٽرئ": 7478,
      "ثقافتي": 7479,
      "تري": 7480,
      "شھر": 7481,
      "مضحك": 7482,
      "##out": 7483,
      "##پشن": 7484,
      "##ps": 7485,
      "پرست": 7486,
      "اتان": 7487,
      "انگريزن": 7488,
      "فعل": 7489,
      "ندار": 7490,
      "حالا": 7491,
      "سامونڊي": 7492,
      "مستحڪم": 7493,
      "مزد": 7494,
      "تفصيلي": 7495,
      "آپشن": 7496,
      "چڪاس": 7497,
      "انگيز": 7498,
      "بُ": 7499,
      "گورن": 7500,
      "##6ع": 7501,
      "ماس": 7502,
      "سائنسي": 7503,
      "نيٽورڪ": 7504,
      "ــ": 7505,
      "پيج": 7506,
      "سرمائي": 7507,
      "فارسي": 7508,
      "ڪورس": 7509,
      "مطالعي": 7510,
      "الناس": 7511,
      "تنقيد": 7512,
      "اسٽوريج": 7513,
      "مام": 7514,
      "ڀو": 7515,
      "##يڪا": 7516,
      "ويچ": 7517,
      "کاٻي": 7518,
      "اڳواڻن": 7519,
      "فه": 7520,
      "هاء": 7521,
      "##گهه": 7522,
      "##ژه": 7523,
      "گهڙي": 7524,
      "طرفن": 7525,
      "هلندو": 7526,
      "سينٽ": 7527,
      "صفحه": 7528,
      "پهچائي": 7529,
      "علامت": 7530,
      "ڏوهه": 7531,
      "پيپلز": 7532,
      "بري": 7533,
      "مفيد": 7534,
      "چڪر": 7535,
      "انھيءَ": 7536,
      "##اريون": 7537,
      "پيچ": 7538,
      "جاي": 7539,
      "گهرج": 7540,
      "toاڻڻ": 7541,
      "سٽ": 7542,
      "##كِ": 7543,
      "##لين": 7544,
      "تيزي": 7545,
      "احم": 7546,
      "اخلاقي": 7547,
      "اڪثريت": 7548,
      "سيڪشن": 7549,
      "ننڍڙو": 7550,
      "سلامت": 7551,
      "طل": 7552,
      "فلو": 7553,
      "لينڊ": 7554,
      "مسٽر": 7555,
      "هڻ": 7556,
      "##هاها": 7557,
      "اوهين": 7558,
      "چوان": 7559,
      "المهم": 7560,
      "بنت": 7561,
      "ڌرتيءَ": 7562,
      "فيلڊ": 7563,
      "##ob": 7564,
      "##حر": 7565,
      "##طر": 7566,
      "لڳائي": 7567,
      "اعرف": 7568,
      "پروڊڪٽ": 7569,
      "بدقسم": 7570,
      "ڏيکاريو": 7571,
      "حيدر": 7572,
      "خارج": 7573,
      "اشتهار": 7574,
      "##سٽنگ": 7575,
      "دانش": 7576,
      "خطي": 7577,
      "رڪ": 7578,
      "##ثاني": 7579,
      "##غي": 7580,
      "جين": 7581,
      "انجي": 7582,
      "ماهه": 7583,
      "خواهي": 7584,
      "جانچ": 7585,
      "ايوارڊ": 7586,
      "عادي": 7587,
      "لام": 7588,
      "##ڪسي": 7589,
      "ڪريڊٽ": 7590,
      "همه": 7591,
      "قلت": 7592,
      "پروسيسنگ": 7593,
      "هٿيار": 7594,
      "ٽرئفڪ": 7595,
      "ڪلي": 7596,
      "گرين": 7597,
      "##فٽ": 7598,
      "##طع": 7599,
      "ميشه": 7600,
      "##ويد": 7601,
      "##ard": 7602,
      "راهه": 7603,
      "##ros": 7604,
      "سچو": 7605,
      "اوندا": 7606,
      "تضحك": 7607,
      "دؤر": 7608,
      "رين": 7609,
      "فول": 7610,
      "لاه": 7611,
      "##سف": 7612,
      "ڪرن": 7613,
      "پرچ": 7614,
      "##بتني": 7615,
      "چونڊن": 7616,
      "حڪمران": 7617,
      "وقف": 7618,
      "مزي": 7619,
      "پمپ": 7620,
      "گيري": 7621,
      "ھتي": 7622,
      "##لوب": 7623,
      "سرم": 7624,
      "بحران": 7625,
      "ٻاهران": 7626,
      "طوفان": 7627,
      "رڪاوٽ": 7628,
      "لح": 7629,
      "چيل": 7630,
      "##ائڊ": 7631,
      "پرس": 7632,
      "ماسڪ": 7633,
      "##كتب": 7634,
      "خالص": 7635,
      "ip": 7636,
      "مله": 7637,
      "ٽڪيٽ": 7638,
      "روانو": 7639,
      "سمارٽ": 7640,
      "اعز": 7641,
      "193": 7642,
      "نسخو": 7643,
      "مسافرن": 7644,
      "pr": 7645,
      "پلس": 7646,
      "##ثو": 7647,
      "##آباد": 7648,
      "##نده": 7649,
      "پيء": 7650,
      "هونئن": 7651,
      "امر": 7652,
      "وڏين": 7653,
      "انگلينڊ": 7654,
      "موبائيل": 7655,
      "عاشق": 7656,
      "##ابيس": 7657,
      "##ميائي": 7658,
      "منسو": 7659,
      "واچ": 7660,
      "ڪارڻ": 7661,
      "##ans": 7662,
      "##ats": 7663,
      "اهڙيءَ": 7664,
      "حضور": 7665,
      "جمهوريت": 7666,
      "فاط": 7667,
      "والو": 7668,
      "ٽيل": 7669,
      "##ـہ": 7670,
      "##20": 7671,
      "##امين": 7672,
      "روايت": 7673,
      "##بيه": 7674,
      "##اڪو": 7675,
      "فيك": 7676,
      "گڏج": 7677,
      "موڪلڻ": 7678,
      "توجيهي": 7679,
      "be": 7680,
      "سهي": 7681,
      "شنو": 7682,
      "##سٽس": 7683,
      "ڪيسن": 7684,
      "مليا": 7685,
      "سيٽنگ": 7686,
      "نصب": 7687,
      "يسلم": 7688,
      "ڀائ": 7689,
      "##لح": 7690,
      "##نه": 7691,
      "##قدر": 7692,
      "##qu": 7693,
      "مشغ": 7694,
      "لڳايو": 7695,
      "##ine": 7696,
      "اپيل": 7697,
      "هُئي": 7698,
      "پيغمبر": 7699,
      "اھا": 7700,
      "cry": 7701,
      "دفا": 7702,
      "سستي": 7703,
      "صدار": 7704,
      "ٿڌي": 7705,
      "ڊسڪ": 7706,
      "##شين": 7707,
      "هيڊ": 7708,
      "محل": 7709,
      "احب": 7710,
      "ڀيري": 7711,
      "آڊيو": 7712,
      "كذا": 7713,
      "ڀٽ": 7714,
      "بيٺل": 7715,
      "##ٽيڊ": 7716,
      "سگهيا": 7717,
      "بنائڻ": 7718,
      "روزگار": 7719,
      "##جهد": 7720,
      "صبر": 7721,
      "پاي": 7722,
      "ڦر": 7723,
      "ڪتي": 7724,
      "ھٿ": 7725,
      "##ast": 7726,
      "ڪاٺ": 7727,
      "راڄ": 7728,
      "ويڪسين": 7729,
      "كده": 7730,
      "##جع": 7731,
      "انها": 7732,
      "ڪرڪيٽ": 7733,
      "معنى": 7734,
      "ايڪسڪس": 7735,
      "چيئرمين": 7736,
      "ڪول": 7737,
      "پيارا": 7738,
      "ڪيميائي": 7739,
      "وراڻيو": 7740,
      "ڇوڪرو": 7741,
      "پڇا": 7742,
      "ڊيٽابيس": 7743,
      "تڪڙو": 7744,
      "اعتراض": 7745,
      "كمان": 7746,
      "مصي": 7747,
      "##لز": 7748,
      "##مئن": 7749,
      "##ڪڙ": 7750,
      "برائو": 7751,
      "اسٽار": 7752,
      "حوالو": 7753,
      "فلٽر": 7754,
      "بط": 7755,
      "جست": 7756,
      "طو": 7757,
      "##ـر": 7758,
      "##ھه": 7759,
      "ماسٽر": 7760,
      "صحتمند": 7761,
      "گذارڻ": 7762,
      "##لانا": 7763,
      "ڪميونٽي": 7764,
      "نالن": 7765,
      "##يش": 7766,
      "##ڏين": 7767,
      "اسڪو": 7768,
      "جذباتي": 7769,
      "بيا": 7770,
      "ڏهن": 7771,
      "۾)": 7772,
      "##ust": 7773,
      "##عب": 7774,
      "البن": 7775,
      "وڏيون": 7776,
      "2012": 7777,
      "سهڪار": 7778,
      "كلهم": 7779,
      "ڪٿان": 7780,
      "ag": 7781,
      "عرف": 7782,
      "وهن": 7783,
      "ڌاري": 7784,
      "##مڪن": 7785,
      "##خذ": 7786,
      "پيون": 7787,
      "ياح": 7788,
      "مرض": 7789,
      "اهڙيون": 7790,
      "مليل": 7791,
      "رهندڙ": 7792,
      "فارميٽ": 7793,
      "ٽرمينل": 7794,
      "ڪارپوريشن": 7795,
      "))": 7796,
      "لآ": 7797,
      "##فون": 7798,
      "##طين": 7799,
      "##راج": 7800,
      "منھن": 7801,
      "عليك": 7802,
      "اُها": 7803,
      "ديگر": 7804,
      "##urn": 7805,
      "بچايو": 7806,
      "اِهو": 7807,
      "knowاڻ": 7808,
      "ضلعي": 7809,
      "ڪارڪنن": 7810,
      "or": 7811,
      "داري": 7812,
      "دبئي": 7813,
      "ڇڪ": 7814,
      "ڏٺي": 7815,
      "##ore": 7816,
      "چونڊڻ": 7817,
      "ڊسپلي": 7818,
      "ماحولياتي": 7819,
      "گنجائش": 7820,
      "بوت": 7821,
      "ريٽ": 7822,
      "لما": 7823,
      "##كو": 7824,
      "##لون": 7825,
      "##ــن": 7826,
      "ڪريم": 7827,
      "مولانا": 7828,
      "روئي": 7829,
      "نوٽيس": 7830,
      "هلندي": 7831,
      "جوابدار": 7832,
      "گوشت": 7833,
      "ٻُڌ": 7834,
      "جتان": 7835,
      "سلو": 7836,
      "عق": 7837,
      "وک": 7838,
      "ٿڪ": 7839,
      "##ڪرن": 7840,
      "ويندس": 7841,
      "شكلك": 7842,
      "##ـــــــــــــــ": 7843,
      "بقى": 7844,
      "جدوجهد": 7845,
      "پيدائش": 7846,
      "me": 7847,
      "سچي": 7848,
      "فنڊ": 7849,
      "گون": 7850,
      "##كون": 7851,
      "##شار": 7852,
      "##ial": 7853,
      "##حيد": 7854,
      "##ايي": 7855,
      "شاخ": 7856,
      "پڙهائي": 7857,
      "جيتري": 7858,
      "شڪست": 7859,
      "مداخلت": 7860,
      "بزن": 7861,
      "مـ": 7862,
      "يهم": 7863,
      "##قق": 7864,
      "##هيز": 7865,
      "##ائز": 7866,
      "رومان": 7867,
      "احلى": 7868,
      "تحرير": 7869,
      "صدا": 7870,
      "روان": 7871,
      "##ايع": 7872,
      "وارين": 7873,
      "##جنن": 7874,
      "2011": 7875,
      "پڇڻ": 7876,
      "رنگن": 7877,
      "صلاحيتن": 7878,
      "سروي": 7879,
      "رجسٽريشن": 7880,
      "صوبي": 7881,
      "ڊيوائس": 7882,
      "وائ": 7883,
      "پرنٽ": 7884,
      "احوال": 7885,
      "خوشبو": 7886,
      "سکر": 7887,
      "ڪپڙن": 7888,
      "بجيٽ": 7889,
      "حذ": 7890,
      "گيا": 7891,
      "##قة": 7892,
      "ايٽ": 7893,
      "ميلا": 7894,
      "ڇڏين": 7895,
      "جهڙا": 7896,
      "ديگه": 7897,
      "##۔۔۔۔": 7898,
      "آغاز": 7899,
      "جَ": 7900,
      "حاڪ": 7901,
      "##زون": 7902,
      "##يوٽ": 7903,
      "بهار": 7904,
      "توکان": 7905,
      "الط": 7906,
      "منھنجو": 7907,
      "##ادري": 7908,
      "اما": 7909,
      "سگهندي": 7910,
      "اکرن": 7911,
      "ھيٺ": 7912,
      "کيڏڻ": 7913,
      "bit": 7914,
      "نجي": 7915,
      "##صير": 7916,
      "منفي": 7917,
      "اسٽو": 7918,
      "گهٽائڻ": 7919,
      "##راهمي": 7920,
      "دعويٰ": 7921,
      "؟.": 7922,
      "اگه": 7923,
      "زياد": 7924,
      "عار": 7925,
      "غري": 7926,
      "فراهمي": 7927,
      "ٽاپ": 7928,
      "ڌيءَ": 7929,
      "##يڪو": 7930,
      "فيها": 7931,
      "نيب": 7932,
      "ناممڪن": 7933,
      "حرارت": 7934,
      "پيچيده": 7935,
      "بـ": 7936,
      "ثاني": 7937,
      "دوم": 7938,
      "فهم": 7939,
      "مند": 7940,
      "ٻانهن": 7941,
      "تعليق": 7942,
      "سيڪنڊ": 7943,
      "اختيارن": 7944,
      "ڊاڪٽرن": 7945,
      "پورهي": 7946,
      "طبيعت": 7947,
      "اثا": 7948,
      "ملائيشيا": 7949,
      "شري": 7950,
      "پِ": 7951,
      "ڌاتو": 7952,
      "۾,": 7953,
      "##يوي": 7954,
      "البت": 7955,
      "##راحه": 7956,
      "واهه": 7957,
      "##اسون": 7958,
      "يقينن": 7959,
      "فلسفي": 7960,
      "بز": 7961,
      "بور": 7962,
      "حقو": 7963,
      "خز": 7964,
      "سك": 7965,
      "سورا": 7966,
      "عض": 7967,
      "قيا": 7968,
      "وڄ": 7969,
      "##گاهه": 7970,
      "جيون": 7971,
      "##ريئر": 7972,
      "ايسوسي": 7973,
      "واه": 7974,
      "##ort": 7975,
      "هنڌن": 7976,
      "پيڪيج": 7977,
      "ڪلومي": 7978,
      "چوٿين": 7979,
      "اندوز": 7980,
      "رلي": 7981,
      "صدين": 7982,
      "ڌڻي": 7983,
      "کم": 7984,
      "##ost": 7985,
      "##نس": 7986,
      "##ڍي": 7987,
      "##حش": 7988,
      "موس": 7989,
      "مطمئن": 7990,
      "نمايان": 7991,
      "2010": 7992,
      "قدمن": 7993,
      "سيلز": 7994,
      "چانهه": 7995,
      "خاني": 7996,
      "دُ": 7997,
      "گلن": 7998,
      "##دام": 7999,
      "##ــه": 8000,
      "جوش": 8001,
      "ايڏو": 8002,
      "روڪ": 8003,
      "تعال": 8004,
      "انگن": 8005,
      "<<<": 8006,
      "طريقيڪار": 8007,
      "قيامت": 8008,
      "منعقد": 8009,
      "34": 8010,
      "ربي": 8011,
      "كثير": 8012,
      "گيم": 8013,
      "جنت": 8014,
      "ڪانگري": 8015,
      "تعلقات": 8016,
      "48": 8017,
      "لچ": 8018,
      "نب": 8019,
      "ھجي": 8020,
      "##الب": 8021,
      "تير": 8022,
      "##فيئر": 8023,
      "ليزر": 8024,
      "احسان": 8025,
      "ادارو": 8026,
      "ڪسٽمر": 8027,
      "عراق": 8028,
      "حديث": 8029,
      "مدر": 8030,
      "مذا": 8031,
      "همين": 8032,
      "ٻان": 8033,
      "##سمس": 8034,
      "رکندا": 8035,
      "متان": 8036,
      "ڄاڻو": 8037,
      "اِن": 8038,
      "پورٽ": 8039,
      "احتيا": 8040,
      "ميڪس": 8041,
      "هِن": 8042,
      "ٽوڙ": 8043,
      "ڀارتي": 8044,
      "ڏند": 8045,
      "##آم": 8046,
      "روڪيو": 8047,
      "ڪيائون": 8048,
      "##اڻيءَ": 8049,
      "اُنهن": 8050,
      "ٻارڙن": 8051,
      "نفسياتي": 8052,
      "مهمان": 8053,
      "تخليقي": 8054,
      "ac": 8055,
      "next": 8056,
      "ph": 8057,
      "فرين": 8058,
      "لاڪ": 8059,
      "ٽا": 8060,
      "##لڪ": 8061,
      "##ناڪ": 8062,
      "##جهي": 8063,
      "##حص": 8064,
      "##tr": 8065,
      "سنه": 8066,
      "رهائش": 8067,
      "اختلاف": 8068,
      "جامع": 8069,
      "باڪس": 8070,
      "((": 8071,
      "جت": 8072,
      "داد": 8073,
      "ڏهه": 8074,
      "ڪاف": 8075,
      "##ud": 8076,
      "##لل": 8077,
      "##يڪس": 8078,
      "پيئ": 8079,
      "جاپان": 8080,
      "ڪوٺي": 8081,
      "##سٽن": 8082,
      "ترميم": 8083,
      "وچولي": 8084,
      "فرمايو": 8085,
      "خاموشي": 8086,
      "يضحك": 8087,
      "##ڻين": 8088,
      "##ــا": 8089,
      "پوئين": 8090,
      "ماه": 8091,
      "ماع": 8092,
      "خوبي": 8093,
      "رهنمائي": 8094,
      "انگريز": 8095,
      "برنامه": 8096,
      "ڊبليو": 8097,
      "br": 8098,
      "أي": 8099,
      "يڪ": 8100,
      "گهمڻ": 8101,
      "سنئون": 8102,
      "ٽيگ": 8103,
      "ننڍن": 8104,
      "اولين": 8105,
      "برادري": 8106,
      "ويجهي": 8107,
      "مرحلي": 8108,
      "وسيلي": 8109,
      "گريڊ": 8110,
      "چئبو": 8111,
      "##حڪام": 8112,
      "عهدي": 8113,
      "برطانوي": 8114,
      "ڀلو": 8115,
      "ڌا": 8116,
      "ڪشم": 8117,
      "گير": 8118,
      "##طلع": 8119,
      "##ڏن": 8120,
      "المل": 8121,
      "استحڪام": 8122,
      "ورج": 8123,
      "ريگ": 8124,
      "بجاءِ": 8125,
      "ڪاريگر": 8126,
      "واڌاري": 8127,
      "پيڪنگ": 8128,
      "جماعت": 8129,
      "we": 8130,
      "هاري": 8131,
      "ڀل": 8132,
      "##قر": 8133,
      "مشاه": 8134,
      "اخي": 8135,
      "پارٽين": 8136,
      "191": 8137,
      "ادري": 8138,
      "وسيلن": 8139,
      "اردو": 8140,
      "چهري": 8141,
      "ايجنٽ": 8142,
      "ميڊيڪل": 8143,
      "پارليامينٽ": 8144,
      "سوراخ": 8145,
      "\"\"": 8146,
      "سڳ": 8147,
      "ڪنگ": 8148,
      "##ايا": 8149,
      "##فري": 8150,
      "##یم": 8151,
      "امڪ": 8152,
      "##are": 8153,
      "پاپ": 8154,
      "پنجاب": 8155,
      "اقتدار": 8156,
      "بھترين": 8157,
      "انفرادي": 8158,
      "wor": 8159,
      "ڌڪ": 8160,
      "کسي": 8161,
      "ڪتو": 8162,
      "##ug": 8163,
      "##تاح": 8164,
      "سگنل": 8165,
      "مشورو": 8166,
      "داستان": 8167,
      "حساس": 8168,
      "##act": 8169,
      "##ome": 8170,
      "تجربن": 8171,
      "تلاش": 8172,
      "em": 8173,
      "ios": 8174,
      "دلي": 8175,
      "هيلو": 8176,
      "چيٽ": 8177,
      "الر": 8178,
      "منو": 8179,
      "##اهين": 8180,
      "ڪيبل": 8181,
      "پهچايو": 8182,
      "آزاديءَ": 8183,
      "كتير": 8184,
      "تُ": 8185,
      "تد": 8186,
      "كت": 8187,
      "پورا": 8188,
      "##بط": 8189,
      "##گاري": 8190,
      "معذ": 8191,
      "ويٺل": 8192,
      "سردار": 8193,
      "ٻيڙي": 8194,
      "##ious": 8195,
      "جاني": 8196,
      "ذخي": 8197,
      "##که": 8198,
      "##ذيب": 8199,
      "##شپ": 8200,
      "##بست": 8201,
      "##ie": 8202,
      "ماٺ": 8203,
      "اعظم": 8204,
      "مرحلن": 8205,
      "منجهان": 8206,
      "فريم": 8207,
      "واعدو": 8208,
      "پذير": 8209,
      "crypt": 8210,
      "39": 8211,
      "75": 8212,
      "غذا": 8213,
      "##طيني": 8214,
      "الائي": 8215,
      "مارڻ": 8216,
      "##enc": 8217,
      "خانگي": 8218,
      "رياستن": 8219,
      "سروسز": 8220,
      "پينل": 8221,
      "عيسائي": 8222,
      "پالڻھار": 8223,
      "دروازو": 8224,
      "باقاعده": 8225,
      "خشڪ": 8226,
      "عث": 8227,
      "پت": 8228,
      "##pr": 8229,
      "امزح": 8230,
      "ڪنيڪشن": 8231,
      "دوز": 8232,
      "پروجيڪٽ": 8233,
      "ننڍپڻ": 8234,
      "تنظيمن": 8235,
      "آفت": 8236,
      "بچي": 8237,
      "##بائي": 8238,
      "##حالي": 8239,
      "##آي": 8240,
      "سوا": 8241,
      "اخو": 8242,
      "ناچ": 8243,
      "استادن": 8244,
      "عبد": 8245,
      "فطري": 8246,
      "اصولن": 8247,
      "خاتمي": 8248,
      "بدقسمتي": 8249,
      "صلى": 8250,
      "عطا": 8251,
      "فات": 8252,
      "##دك": 8253,
      "##رادو": 8254,
      "جاپاني": 8255,
      "سوس": 8256,
      "انتها": 8257,
      "تسلم": 8258,
      "رحم": 8259,
      "خوشيءَ": 8260,
      "##und": 8261,
      "تنھنڪري": 8262,
      "سمجهاڻي": 8263,
      "dis": 8264,
      "##ااي": 8265,
      "سالگر": 8266,
      "لکين": 8267,
      "ڏيکارڻ": 8268,
      "اسڪولن": 8269,
      "خانداني": 8270,
      "پابند": 8271,
      "اڪيلي": 8272,
      "club": 8273,
      "سرٽيفڪيٽ": 8274,
      "sindhi": 8275,
      "لاهور": 8276,
      "مشغول": 8277,
      "مصيبت": 8278,
      "حُ": 8279,
      "شدت": 8280,
      "هِ": 8281,
      "ٻر": 8282,
      "پڄ": 8283,
      "ٿڌو": 8284,
      "##اڊا": 8285,
      "پهلو": 8286,
      "لاگ": 8287,
      "يادگار": 8288,
      "سڄڻ": 8289,
      "2008": 8290,
      "ايپليڪيشنن": 8291,
      "حادثي": 8292,
      "جهنگ": 8293,
      "##links": 8294,
      "ڪانگريس": 8295,
      "افيئر": 8296,
      "وڪري": 8297,
      "##ok": 8298,
      "##خه": 8299,
      "پڙه": 8300,
      "##end": 8301,
      "##ide": 8302,
      "اسٽيج": 8303,
      "پُڇ": 8304,
      "محترم": 8305,
      "37": 8306,
      "##عتن": 8307,
      "تقول": 8308,
      "بيوقو": 8309,
      "سارو": 8310,
      "شئي": 8311,
      "ٿل": 8312,
      "ڏسان": 8313,
      "##َه": 8314,
      "معن": 8315,
      "مدل": 8316,
      "اخلاق": 8317,
      "پيشڪش": 8318,
      "اھڙي": 8319,
      "عيسى": 8320,
      "ڀروسو": 8321,
      "شڪايت": 8322,
      "twit": 8323,
      "معتبر": 8324,
      "افزائي": 8325,
      "يهو": 8326,
      "ڀان": 8327,
      "چال": 8328,
      "ڇهه": 8329,
      "ڏور": 8330,
      "##ڊمي": 8331,
      "##ــو": 8332,
      "ٿيس": 8333,
      "معافي": 8334,
      "سياحن": 8335,
      "شعبن": 8336,
      "##سپل": 8337,
      "اكثر": 8338,
      "تبديليون": 8339,
      "ڪينسر": 8340,
      "اڏام": 8341,
      "آئوٽ": 8342,
      "ادارا": 8343,
      "by": 8344,
      "صفا": 8345,
      "نت": 8346,
      "ندي": 8347,
      "هج": 8348,
      "ڀڄ": 8349,
      "##ix": 8350,
      "##هند": 8351,
      "کانئس": 8352,
      "ڪرسمس": 8353,
      "پنھن": 8354,
      "غربت": 8355,
      "بني": 8356,
      "رشتي": 8357,
      "سني": 8358,
      "سولو": 8359,
      "چئو": 8360,
      "۔۔": 8361,
      "منه": 8362,
      "##سيون": 8363,
      "يعطي": 8364,
      "نشاند": 8365,
      "طبقي": 8366,
      "فعلا": 8367,
      "چاھيو": 8368,
      "43": 8369,
      "آيس": 8370,
      "سلم": 8371,
      "لله": 8372,
      "هَ": 8373,
      "واب": 8374,
      "وڳي": 8375,
      "##گذ": 8376,
      "##گوار": 8377,
      "##راحي": 8378,
      "ماي": 8379,
      "بران": 8380,
      "سنڌو": 8381,
      "ڳالهائيندي": 8382,
      "clublinks": 8383,
      "cr": 8384,
      "fr": 8385,
      "بان": 8386,
      "تازي": 8387,
      "خلق": 8388,
      "سٺ": 8389,
      "عرو": 8390,
      "نڪي": 8391,
      "گراف": 8392,
      "##آإ": 8393,
      "##10": 8394,
      "واح": 8395,
      "بيگ": 8396,
      "جناب": 8397,
      "متفق": 8398,
      "گهڻيون": 8399,
      "طبعا": 8400,
      "رازداري": 8401,
      "(۽": 8402,
      "44": 8403,
      "باا": 8404,
      "رعا": 8405,
      "لش": 8406,
      "چن": 8407,
      "ڏکي": 8408,
      "##گرافي": 8409,
      "##دانن": 8410,
      "##ورتي": 8411,
      "##ليش": 8412,
      "هڪدم": 8413,
      "پراڻو": 8414,
      "ڪمال": 8415,
      "درج": 8416,
      "192": 8417,
      "اجل": 8418,
      "##خلص": 8419,
      "تبديلين": 8420,
      "عرصو": 8421,
      "متحده": 8422,
      "65": 8423,
      "mic": 8424,
      "ـــ": 8425,
      "لهر": 8426,
      "لاس": 8427,
      "مٺي": 8428,
      "گئس": 8429,
      "##زد": 8430,
      "هرڪو": 8431,
      "مغربي": 8432,
      "سالياني": 8433,
      "twitter": 8434,
      "].": 8435,
      "ڇڪڻ": 8436,
      "ڪڏھن": 8437,
      "##ڪم": 8438,
      "پيارو": 8439,
      "روا": 8440,
      "روزي": 8441,
      "نظرات": 8442,
      "تنهنجا": 8443,
      "پئسو": 8444,
      "##ech": 8445,
      "قطار": 8446,
      "نازڪ": 8447,
      "بدي": 8448,
      "جج": 8449,
      "سس": 8450,
      "عبر": 8451,
      "ماريو": 8452,
      "چاپ": 8453,
      "##كين": 8454,
      "##ھون": 8455,
      "منط": 8456,
      "ڪيڏو": 8457,
      "ٽيلي": 8458,
      "شمسي": 8459,
      "ترسيل": 8460,
      "اجن": 8461,
      "ماڻي": 8462,
      "ياري": 8463,
      "ڪتن": 8464,
      "##ڊين": 8465,
      "الاس": 8466,
      "##يڪر": 8467,
      "##نيت": 8468,
      "الحين": 8469,
      "پاسورڊ": 8470,
      "ڪالهه": 8471,
      "ميزبان": 8472,
      "فيڪٽري": 8473,
      "سنواريو": 8474,
      "news": 8475,
      "آھين": 8476,
      "حافظ": 8477,
      "سع": 8478,
      "مھين": 8479,
      "##چين": 8480,
      "##سڪر": 8481,
      "##ڪڙي": 8482,
      "##ail": 8483,
      "هوم": 8484,
      "پرائم": 8485,
      "ڪيترين": 8486,
      "قلبي": 8487,
      "55": 8488,
      "تخت": 8489,
      "رز": 8490,
      "مٺ": 8491,
      "هير": 8492,
      "ٻج": 8493,
      "ٽپ": 8494,
      "گهي": 8495,
      "##اپور": 8496,
      "##قائي": 8497,
      "##te": 8498,
      "پرور": 8499,
      "اوت": 8500,
      "لکيا": 8501,
      "سببن": 8502,
      "ديس": 8503,
      "خداوند": 8504,
      "هليا": 8505,
      "سلط": 8506,
      "ٽريننگ": 8507,
      "افتتاح": 8508,
      "1x": 8509,
      "بقا": 8510,
      "جهي": 8511,
      "سٺا": 8512,
      "وك": 8513,
      "##وَ": 8514,
      "##زيل": 8515,
      "پيس": 8516,
      "ڪوڪي": 8517,
      "##رفي": 8518,
      "##ens": 8519,
      "تصويري": 8520,
      "مئني": 8521,
      "نصيب": 8522,
      "prev": 8523,
      "لچڪ": 8524,
      "نشاندهي": 8525,
      "آيت": 8526,
      "فائن": 8527,
      "ڀٽو": 8528,
      "##bet": 8529,
      "##انين": 8530,
      "##الفت": 8531,
      "هوڏانهن": 8532,
      "رهيس": 8533,
      "وٽان": 8534,
      "چهرو": 8535,
      "خوفناڪ": 8536,
      "دروازي": 8537,
      "تعاليٰ": 8538,
      "جستجو": 8539,
      "رَ": 8540,
      "سيني": 8541,
      "نارا": 8542,
      "گلاس": 8543,
      "ڳائڻ": 8544,
      "##هارن": 8545,
      "##ئت": 8546,
      "ايپس": 8547,
      "قيمتون": 8548,
      "فاطمه": 8549,
      "لكم": 8550,
      "ٿورا": 8551,
      "##مس": 8552,
      "##ian": 8553,
      "هيه": 8554,
      "##ock": 8555,
      "رائع": 8556,
      "300": 8557,
      "سٽي": 8558,
      "ياب": 8559,
      "##خط": 8560,
      "##ريد": 8561,
      "##دات": 8562,
      "##هوا": 8563,
      "سوين": 8564,
      "امت": 8565,
      "صحبت": 8566,
      "پاسخ": 8567,
      "رستن": 8568,
      "اديب": 8569,
      "رپيا": 8570,
      "اڙي": 8571,
      "عين": 8572,
      "فحش": 8573,
      "ڪٽن": 8574,
      "##tic": 8575,
      "##ڳا": 8576,
      "##ديه": 8577,
      "ايڏي": 8578,
      "رواج": 8579,
      "محروم": 8580,
      "##اليشن": 8581,
      "سيشن": 8582,
      "لاڙڪ": 8583,
      "مخالفت": 8584,
      "ڊائري": 8585,
      "معصوم": 8586,
      "بست": 8587,
      "سجا": 8588,
      "عڪس": 8589,
      "وصل": 8590,
      "موڙ": 8591,
      "##يلت": 8592,
      "ڇوڪرين": 8593,
      "##ـــن": 8594,
      "چوٽي": 8595,
      "خيالي": 8596,
      "يوسف": 8597,
      "چونڊيل": 8598,
      "پليئر": 8599,
      "گاڏين": 8600,
      "عارضي": 8601,
      "زيا": 8602,
      "مرو": 8603,
      "چنين": 8604,
      "##اين": 8605,
      "##ید": 8606,
      "انٽي": 8607,
      "##هههههههههههههههه": 8608,
      "الأ": 8609,
      "ويزا": 8610,
      "حالانڪ": 8611,
      "ڪانگ": 8612,
      "لائبري": 8613,
      "انسٽاليشن": 8614,
      "مجموعو": 8615,
      "حرام": 8616,
      "95": 8617,
      "at": 8618,
      "حاجي": 8619,
      "مندر": 8620,
      "چئل": 8621,
      "##ھائي": 8622,
      "نهاري": 8623,
      "##سٽل": 8624,
      "##ايش": 8625,
      "همت": 8626,
      "خطاب": 8627,
      "كلها": 8628,
      "بلوچستان": 8629,
      "بزرگ": 8630,
      "قيادت": 8631,
      "[.": 8632,
      "سدا": 8633,
      "نڀ": 8634,
      "##ff": 8635,
      "##ڊس": 8636,
      "ايرا": 8637,
      "برآمد": 8638,
      "عمران": 8639,
      "شهرت": 8640,
      "نفسي": 8641,
      "فلمن": 8642,
      "رستا": 8643,
      "سنگاپور": 8644,
      "##age": 8645,
      "پائيدار": 8646,
      "ٽرمپ": 8647,
      "پهرئين": 8648,
      "نمونو": 8649,
      "it": 8650,
      "رڪن": 8651,
      "##ـت": 8652,
      "##ڊيم": 8653,
      "ڪمائي": 8654,
      "مشڪ": 8655,
      "احنا": 8656,
      "ڏسجي": 8657,
      "ڊيگهه": 8658,
      "رياض": 8659,
      "منتخب": 8660,
      "ڳوليو": 8661,
      "ارو": 8662,
      "جپان": 8663,
      "ٽتو": 8664,
      "مواص": 8665,
      "##ميه": 8666,
      "##ميد": 8667,
      "هرگز": 8668,
      "تحياتي": 8669,
      "##منٽ": 8670,
      "اميدوار": 8671,
      "ڪلوميٽر": 8672,
      "بشر": 8673,
      "رويي": 8674,
      "وٺن": 8675,
      "ڏنائين": 8676,
      "فرمان": 8677,
      "وفاد": 8678,
      "ڀائرن": 8679,
      "رينج": 8680,
      "سڏي": 8681,
      "ضايع": 8682,
      "لائيٽ": 8683,
      "ٻا": 8684,
      "##uc": 8685,
      "##کس": 8686,
      "##فهم": 8687,
      "##ريائين": 8688,
      "جوڙو": 8689,
      "##صولي": 8690,
      "ڏسندو": 8691,
      "وٺندي": 8692,
      "##ڪٽري": 8693,
      "سينيٽ": 8694,
      "پوندا": 8695,
      "ڊگري": 8696,
      "فلمون": 8697,
      "ڪڍڻ": 8698,
      "پبلڪ": 8699,
      "اعزاز": 8700,
      "آڱ": 8701,
      "آيون": 8702,
      "اذ": 8703,
      "دون": 8704,
      "مبت": 8705,
      "##صور": 8706,
      "##ment": 8707,
      "ايڪ": 8708,
      "##ــــي": 8709,
      "هيء": 8710,
      "##قيه": 8711,
      "معروف": 8712,
      "مادر": 8713,
      "##اهرو": 8714,
      "##ana": 8715,
      "فائدن": 8716,
      "بنجي": 8717,
      "اولهه": 8718,
      "قبضي": 8719,
      "سپل": 8720,
      "گلاب": 8721,
      "ڪراچيءَ": 8722,
      "##atsapp": 8723,
      "جريان": 8724,
      "لاي": 8725,
      "هان": 8726,
      "ڀڄي": 8727,
      "ڇهن": 8728,
      "گادي": 8729,
      "الل": 8730,
      "پرهيز": 8731,
      "##ازم": 8732,
      "استن": 8733,
      "##arch": 8734,
      "ريسٽ": 8735,
      "ڏنيون": 8736,
      "خرابي": 8737,
      "##َرَ": 8738,
      "all": 8739,
      "پڙهندڙن": 8740,
      "مذاق": 8741,
      "جب": 8742,
      "راڻي": 8743,
      "کُ": 8744,
      "##oft": 8745,
      "##گان": 8746,
      "##ضع": 8747,
      "##يارين": 8748,
      "##يڪي": 8749,
      "اسانجي": 8750,
      "سمورا": 8751,
      "##ـــه": 8752,
      "پيشه": 8753,
      "ريپ": 8754,
      "بعدين": 8755,
      "طالبان": 8756,
      "ڪرنسي": 8757,
      "آهه": 8758,
      "آٽو": 8759,
      "بقول": 8760,
      "##ذب": 8761,
      "تيئن": 8762,
      "##انيءَ": 8763,
      "قيمتن": 8764,
      "اھم": 8765,
      "دائري": 8766,
      "رمض": 8767,
      "امڪاني": 8768,
      "حا": 8769,
      "##uct": 8770,
      "##ورس": 8771,
      "هيٺيون": 8772,
      "ترق": 8773,
      "رکيا": 8774,
      "خبرن": 8775,
      "خبردار": 8776,
      "نظرثاني": 8777,
      "بچت": 8778,
      "جڳهن": 8779,
      "فنڪار": 8780,
      "اِها": 8781,
      "مظاهرو": 8782,
      "ڏٺم": 8783,
      "اڀر": 8784,
      "فائون": 8785,
      "نيل": 8786,
      "نامي": 8787,
      "ڊين": 8788,
      "ڪيني": 8789,
      "##يتا": 8790,
      "##ٽيون": 8791,
      "مقبول": 8792,
      "يادگيري": 8793,
      "پلگ": 8794,
      "##ختيار": 8795,
      "گلوبل": 8796,
      "بندوبست": 8797,
      "##nt": 8798,
      "##وين": 8799,
      "ويندڙ": 8800,
      "2000": 8801,
      "شيطان": 8802,
      "اُڀ": 8803,
      "صفحن": 8804,
      "##ass": 8805,
      "۔۔۔۔": 8806,
      "حفاظتي": 8807,
      "گريجو": 8808,
      "صديءَ": 8809,
      "شفاف": 8810,
      "ايجاد": 8811,
      "واشنگ": 8812,
      "برائوزر": 8813,
      "بير": 8814,
      "سکي": 8815,
      "مشن": 8816,
      "ڦير": 8817,
      "ملندڙ": 8818,
      "مشر": 8819,
      "پناه": 8820,
      "گھڻا": 8821,
      "چونڊي": 8822,
      "مزاج": 8823,
      "پروگرامن": 8824,
      "ڪھڙي": 8825,
      "whatsapp": 8826,
      "فروغ": 8827,
      "fl": 8828,
      "جدت": 8829,
      "پی": 8830,
      "##أي": 8831,
      "##آل": 8832,
      "##ميز": 8833,
      "منها": 8834,
      "ڪيريئر": 8835,
      "ٻڌاءِ": 8836,
      "وارث": 8837,
      "بدلجي": 8838,
      "ملازمت": 8839,
      "عيسيٰ": 8840,
      "##coin": 8841,
      "38": 8842,
      "اڱ": 8843,
      "بڇ": 8844,
      "رام": 8845,
      "عش": 8846,
      "عدم": 8847,
      "ملاح": 8848,
      "نوي": 8849,
      "گائيڊ": 8850,
      "##ُر": 8851,
      "##يوار": 8852,
      "انچ": 8853,
      "##نيه": 8854,
      "پرن": 8855,
      "سرحد": 8856,
      "سمجهو": 8857,
      "رسمي": 8858,
      "گردش": 8859,
      "پئسن": 8860,
      "ind": 8861,
      "<<<<": 8862,
      "جيئرو": 8863,
      "ڪشمير": 8864,
      "ناراض": 8865,
      "رڙ": 8866,
      "رٽ": 8867,
      "ظاھر": 8868,
      "يت": 8869,
      "##فة": 8870,
      "اسٽاپ": 8871,
      "گذريو": 8872,
      "ننڍا": 8873,
      "ڳوليندا": 8874,
      "ڳاڙهو": 8875,
      "انجنيئرنگ": 8876,
      "ملوث": 8877,
      "ڪچهري": 8878,
      "ميلاپ": 8879,
      "عبدالو": 8880,
      "بب": 8881,
      "خام": 8882,
      "ذو": 8883,
      "رون": 8884,
      "صار": 8885,
      "ڏات": 8886,
      "گنا": 8887,
      "##ـا": 8888,
      "##فس": 8889,
      "##سلام": 8890,
      "##حق": 8891,
      "##11": 8892,
      "درس": 8893,
      "ادائ": 8894,
      "موقف": 8895,
      "سمجھڻ": 8896,
      "ھوندو": 8897,
      "پرائمري": 8898,
      "صاد": 8899,
      "غذ": 8900,
      "وجه": 8901,
      "ٽران": 8902,
      "پتي": 8903,
      "ڇت": 8904,
      "##ti": 8905,
      "##خصي": 8906,
      "##>>": 8907,
      "##ليد": 8908,
      "ٿيڻو": 8909,
      "موٽڻ": 8910,
      "ميگ": 8911,
      "ساله": 8912,
      "ڏسون": 8913,
      "آگاهي": 8914,
      "خالد": 8915,
      "##ible": 8916,
      "سراسري": 8917,
      "اليڪٽرانڪ": 8918,
      "ميونسپل": 8919,
      "ڪٽنب": 8920,
      "جڙيل": 8921,
      "راحت": 8922,
      "عط": 8923,
      "نخ": 8924,
      "##ريڊ": 8925,
      "##ارٽي": 8926,
      "وربي": 8927,
      "##ـــو": 8928,
      "دلين": 8929,
      "ٺاهيندڙن": 8930,
      "شود": 8931,
      "خوابن": 8932,
      "دٻاءُ": 8933,
      "##ime": 8934,
      "نيويارڪ": 8935,
      "لمي": 8936,
      "ڀائيو": 8937,
      "ڄام": 8938,
      "##ــت": 8939,
      "پويون": 8940,
      "مادري": 8941,
      "ڪيڏي": 8942,
      "بيٺي": 8943,
      "##اڪر": 8944,
      "عمري": 8945,
      "مخلو": 8946,
      "##ينڊر": 8947,
      "سچائي": 8948,
      "ٽيڪنيڪل": 8949,
      "مضمونن": 8950,
      "عادت": 8951,
      "ماشاء": 8952,
      "فائرنگ": 8953,
      "حذف": 8954,
      "اتو": 8955,
      "شاهي": 8956,
      "شفا": 8957,
      "شديد": 8958,
      "ڪڻ": 8959,
      "##اعت": 8960,
      "##ep": 8961,
      "تهذيب": 8962,
      "ڪيڏانهن": 8963,
      "ميري": 8964,
      "##بوليت": 8965,
      "اسٽريٽ": 8966,
      "اپليڪيشن": 8967,
      "همراهه": 8968,
      "##ick": 8969,
      "مجازي": 8970,
      "اشتهارن": 8971,
      "نازل": 8972,
      "جذبات": 8973,
      "ڏهاڪي": 8974,
      "قاضي": 8975,
      "پروڊڪٽس": 8976,
      "sup": 8977,
      "أم": 8978,
      "أخ": 8979,
      "عارف": 8980,
      "ماما": 8981,
      "ڏٺا": 8982,
      "پيپر": 8983,
      "پردي": 8984,
      "بيحد": 8985,
      "برچ": 8986,
      "اينٽي": 8987,
      "وره": 8988,
      "سمجھي": 8989,
      "جملو": 8990,
      "بينڪن": 8991,
      "وٺندا": 8992,
      "وحده": 8993,
      "1xbet": 8994,
      "ادائگي": 8995,
      "بايد": 8996,
      "##ساب": 8997,
      "الان": 8998,
      "هيرو": 8999,
      "نقش": 9000,
      "##افيه": 9001,
      "موقعن": 9002,
      "رابطن": 9003,
      "چورس": 9004,
      "دراصل": 9005,
      "حيدرآباد": 9006,
      "خد": 9007,
      "هئين": 9008,
      "##عك": 9009,
      "##گراف": 9010,
      "##ظه": 9011,
      "انڪري": 9012,
      "المن": 9013,
      "تباهي": 9014,
      "چوندي": 9015,
      "پاؤ": 9016,
      "مٿا": 9017,
      "پکڙيل": 9018,
      "حبيب": 9019,
      "يهمك": 9020,
      "ايسوسيئيشن": 9021,
      "سوسائ": 9022,
      "أح": 9023,
      "##تس": 9024,
      "الضحك": 9025,
      "تناسب": 9026,
      "مٿس": 9027,
      "پئماني": 9028,
      "اونهاري": 9029,
      "previous": 9030,
      "42": 9031,
      "أك": 9032,
      "ضد": 9033,
      "##كات": 9034,
      "##ائيز": 9035,
      "##لايو": 9036,
      "رولي": 9037,
      "تعل": 9038,
      "سگهجن": 9039,
      "str": 9040,
      "موقعا": 9041,
      "دٻاء": 9042,
      "ناڪامي": 9043,
      "آئيني": 9044,
      "استنبول": 9045,
      "ابن": 9046,
      "مارو": 9047,
      "##ـل": 9048,
      "##سار": 9049,
      "توازن": 9050,
      "سوار": 9051,
      "نظريو": 9052,
      "ڪتب": 9053,
      "##ated": 9054,
      "جهازن": 9055,
      "پھريون": 9056,
      "فورس": 9057,
      "احتياط": 9058,
      "ذخيرو": 9059,
      "فال": 9060,
      "می": 9061,
      "ماب": 9062,
      "##كرت": 9063,
      "##تين": 9064,
      "##ey": 9065,
      "جيئڻ": 9066,
      "منڊي": 9067,
      "##فيه": 9068,
      "مارڪ": 9069,
      "ڇڏيون": 9070,
      "مهينو": 9071,
      "بيمارين": 9072,
      "اڇو": 9073,
      "فضيلت": 9074,
      "دهشتگردي": 9075,
      "چمڪندڙ": 9076,
      "ڊولپر": 9077,
      "چئلينج": 9078,
      "فائونڊيشن": 9079,
      "آثار": 9080,
      "جسٽس": 9081,
      "زوال": 9082,
      "نيم": 9083,
      "۾:": 9084,
      "##اپو": 9085,
      "##ريشن": 9086,
      "اندي": 9087,
      "جوڳي": 9088,
      "معج": 9089,
      "ريزي": 9090,
      "ڪلچر": 9091,
      "ھنن": 9092,
      "سلامتي": 9093,
      "وڻن": 9094,
      "پارٽيءَ": 9095,
      "سرگرم": 9096,
      "ڏينداسين": 9097,
      "پروسيس": 9098,
      "ab": 9099,
      "وخ": 9100,
      "کپ": 9101,
      "##ox": 9102,
      "##cl": 9103,
      "##ابري": 9104,
      "ايسٽ": 9105,
      "ڪوش": 9106,
      "وڃڻو": 9107,
      "ماڻهون": 9108,
      "پاڻم": 9109,
      "اڄڪلهه": 9110,
      "##ors": 9111,
      "جنگي": 9112,
      "منجهه": 9113,
      "معمول": 9114,
      "نجات": 9115,
      "تبي": 9116,
      "عرفت": 9117,
      "مچ": 9118,
      "وهو": 9119,
      "##عع": 9120,
      "##حح": 9121,
      "##ااااا": 9122,
      "راجا": 9123,
      "بدون": 9124,
      "كلم": 9125,
      "لِ": 9126,
      "##ڪشي": 9127,
      "##ضم": 9128,
      "هوش": 9129,
      "اهوئي": 9130,
      "ڪوريا": 9131,
      "اوز": 9132,
      "##توي": 9133,
      "##ary": 9134,
      "ڪتا": 9135,
      "جمعي": 9136,
      "جانب": 9137,
      "ميٽرو": 9138,
      "ميزباني": 9139,
      "##َنِ": 9140,
      "وبعد": 9141,
      "man": 9142,
      "زرا": 9143,
      "فئ": 9144,
      "قولي": 9145,
      "پايان": 9146,
      "کٽي": 9147,
      "##ميءَ": 9148,
      "##ائيندس": 9149,
      "درآمد": 9150,
      "احسن": 9151,
      "زندگيء": 9152,
      "بلين": 9153,
      "قابو": 9154,
      "منتظر": 9155,
      "ڪڍيو": 9156,
      "رقص": 9157,
      "اطمين": 9158,
      "صوبائي": 9159,
      "تابع": 9160,
      "بوتل": 9161,
      "bitcoin": 9162,
      "برچسب": 9163,
      "surn": 9164,
      "ليو": 9165,
      "##))": 9166,
      "ڪرپشن": 9167,
      "ويچار": 9168,
      "##اهت": 9169,
      "نظران": 9170,
      "##ئرس": 9171,
      "ديوار": 9172,
      "جائز": 9173,
      "چئجي": 9174,
      "تعالى": 9175,
      "تأ": 9176,
      "نانگ": 9177,
      "ڀلائي": 9178,
      "##وش": 9179,
      "##ذر": 9180,
      "##دون": 9181,
      "##per": 9182,
      "هيئن": 9183,
      "ڏيون": 9184,
      "ورت": 9185,
      "صحافي": 9186,
      "اسٽاف": 9187,
      "دفن": 9188,
      "اختيارين": 9189,
      "پيروزي": 9190,
      "##form": 9191,
      "دفاع": 9192,
      "بيوقوف": 9193,
      "--": 9194,
      "بيني": 9195,
      "زيو": 9196,
      "زلز": 9197,
      "ڏِ": 9198,
      "##بون": 9199,
      "##راس": 9200,
      "سمورن": 9201,
      "فيچر": 9202,
      "يعنى": 9203,
      "فائلن": 9204,
      "##ورنس": 9205,
      "ڪپڙي": 9206,
      "##جانءِ": 9207,
      "ڊوائيسز": 9208,
      "scl": 9209,
      "سنجيده": 9210,
      "رمضان": 9211,
      "پاڻمرادو": 9212,
      "hd": 9213,
      "آڪس": 9214,
      "تعي": 9215,
      "شن": 9216,
      "ڪٽڻ": 9217,
      "##واب": 9218,
      "معقول": 9219,
      "ڪيپ": 9220,
      "مقدس": 9221,
      "ڇڏيندي": 9222,
      "اڄوڪي": 9223,
      "خوشگوار": 9224,
      "الحمد": 9225,
      "مرحلو": 9226,
      "نڪتل": 9227,
      "مديريت": 9228,
      "حجم": 9229,
      "اجنبي": 9230,
      "اطمينان": 9231,
      "3d": 9232,
      "اهن": 9233,
      "اضحك": 9234,
      "قاتل": 9235,
      "لَ": 9236,
      "وهم": 9237,
      "ڏوه": 9238,
      "##اٽ": 9239,
      "##انج": 9240,
      "اهڙين": 9241,
      "ايڪٽ": 9242,
      "منش": 9243,
      "فيڊ": 9244,
      "چيس": 9245,
      "##ank": 9246,
      "ٺاهيندڙ": 9247,
      "اثرائتي": 9248,
      ",,,": 9249,
      "بغاوت": 9250,
      "##فين": 9251,
      "##شك": 9252,
      "##aj": 9253,
      "##وله": 9254,
      "##سٽنٽ": 9255,
      "##ايائين": 9256,
      "نيون": 9257,
      "ڳوڙهي": 9258,
      "150": 9259,
      "وڻندڙ": 9260,
      "جھڙو": 9261,
      "داخلي": 9262,
      "search": 9263,
      "انتظاميه": 9264,
      "مايوس": 9265,
      "لشڪر": 9266,
      "surname": 9267,
      "آري": 9268,
      "ابا": 9269,
      "راهي": 9270,
      "فرن": 9271,
      "نِ": 9272,
      "پناهه": 9273,
      "##بيا": 9274,
      "##12": 9275,
      "الغ": 9276,
      "##نيد": 9277,
      "##يتو": 9278,
      "ڪوپن": 9279,
      "##نڊي": 9280,
      "بدلائي": 9281,
      "وسري": 9282,
      "##ure": 9283,
      "بنائي": 9284,
      "##ical": 9285,
      "انقلابي": 9286,
      "گهوٽ": 9287,
      "سهولتون": 9288,
      "نسبتا": 9289,
      "بزنس": 9290,
      "حقوق": 9291,
      "sclnt": 9292,
      "400": 9293,
      "دارو": 9294,
      "قوي": 9295,
      "يآ": 9296,
      "ڄمار": 9297,
      "##our": 9298,
      "##فتو": 9299,
      "پيوند": 9300,
      "##افين": 9301,
      "مرک": 9302,
      "##شيار": 9303,
      "چاهيندو": 9304,
      "##itt": 9305,
      "inter": 9306,
      "ڀرڻ": 9307,
      "چوٿون": 9308,
      "اغوا": 9309,
      "mac": 9310,
      "آبي": 9311,
      "تط": 9312,
      "جدي": 9313,
      "حيو": 9314,
      "سٿ": 9315,
      "عدد": 9316,
      "ڌرين": 9317,
      "##ؤن": 9318,
      "##ڀرو": 9319,
      "##رفيس": 9320,
      "##لهم": 9321,
      "##اااي": 9322,
      "ميلي": 9323,
      "برع": 9324,
      "ساحل": 9325,
      "لڳن": 9326,
      "تحفا": 9327,
      "مارڪيٽن": 9328,
      "ڏيکاريل": 9329,
      "فلسطين": 9330,
      "نياز": 9331,
      "مٽائي": 9332,
      "مھرب": 9333,
      "مريضن": 9334,
      "حاڪم": 9335,
      "ايراضي": 9336,
      "واشنگٽن": 9337,
      "خانو": 9338,
      "كر": 9339,
      "ڄائو": 9340,
      "گز": 9341,
      "##كان": 9342,
      "##بارن": 9343,
      "##les": 9344,
      "##ڳن": 9345,
      "##ياڻي": 9346,
      "الد": 9347,
      "##نيم": 9348,
      "پوڻ": 9349,
      "##يما": 9350,
      "ڏيڻو": 9351,
      "سرد": 9352,
      "وياسين": 9353,
      "##واٽ": 9354,
      "پاڙ": 9355,
      "کاڌ": 9356,
      "1000": 9357,
      "بعدي": 9358,
      "اٽلي": 9359,
      "ساٿين": 9360,
      "حامي": 9361,
      "شھ": 9362,
      "شپنگ": 9363,
      "عد": 9364,
      "گناهه": 9365,
      "##ومي": 9366,
      "##َي": 9367,
      "##30": 9368,
      "##ram": 9369,
      "##ابه": 9370,
      "پرائيو": 9371,
      "اينڪس": 9372,
      "شيشي": 9373,
      "اعج": 9374,
      "اُھي": 9375,
      "جڳھ": 9376,
      "آفيسرن": 9377,
      "پھچ": 9378,
      "سرگرميون": 9379,
      "پڌرو": 9380,
      "پورهيت": 9381,
      "دوزخ": 9382,
      "لائبريري": 9383,
      "خخخخخ": 9384,
      "فكر": 9385,
      "هانگ": 9386,
      "ٽنگ": 9387,
      "##ضل": 9388,
      "##امت": 9389,
      "موهن": 9390,
      "سگهه": 9391,
      "##اتا": 9392,
      "روئ": 9393,
      "##مانس": 9394,
      "بلڊنگ": 9395,
      "سياح": 9396,
      "سکيو": 9397,
      "ڏاڍا": 9398,
      "روشنيءَ": 9399,
      "ارسالي": 9400,
      "##ake": 9401,
      "اينڊرائيڊس": 9402,
      "يقيناً": 9403,
      "ريڪارڊ": 9404,
      "سربراهه": 9405,
      "عبدالوحيد": 9406,
      "هائي": 9407,
      "ٺهي": 9408,
      "گاهه": 9409,
      "##ليو": 9410,
      "##ـِ": 9411,
      "##ــر": 9412,
      "##روي": 9413,
      "سگريٽ": 9414,
      "##راي": 9415,
      "هيچي": 9416,
      "ٽيپ": 9417,
      "تجزي": 9418,
      "اچان": 9419,
      "ڳوڙها": 9420,
      "##ami": 9421,
      "2009": 9422,
      "انڊين": 9423,
      "سافٽويئر": 9424,
      "ضمير": 9425,
      "سيکاري": 9426,
      "شئ": 9427,
      "ضي": 9428,
      "عزم": 9429,
      "ميرا": 9430,
      "نديم": 9431,
      "##ڀي": 9432,
      "##هيءَ": 9433,
      "##الٽ": 9434,
      "##جيل": 9435,
      "پوڙهي": 9436,
      "روئڻ": 9437,
      "ويسٽ": 9438,
      "سواري": 9439,
      "گهم": 9440,
      "برگ": 9441,
      "##بود": 9442,
      "سگهين": 9443,
      "##وليت": 9444,
      "ريڊ": 9445,
      "بلڊ": 9446,
      "مليون": 9447,
      "##urr": 9448,
      "حتمي": 9449,
      "قطر": 9450,
      "ڇپيل": 9451,
      "***": 9452,
      "سلطنت": 9453,
      "46": 9454,
      "ii": 9455,
      "ٽولي": 9456,
      "##عال": 9457,
      "##فارم": 9458,
      "##بها": 9459,
      "##ائيزيشن": 9460,
      "جملي": 9461,
      "شمار": 9462,
      "لاڳاپا": 9463,
      "پھرين": 9464,
      "غلطيون": 9465,
      "ايجنسي": 9466,
      "ٿورڙي": 9467,
      "اسٽوڊيو": 9468,
      "47": 9469,
      "xd": 9470,
      "ساد": 9471,
      "شهن": 9472,
      "چت": 9473,
      "ڦري": 9474,
      "##hm": 9475,
      "رويو": 9476,
      "پرومو": 9477,
      "اُٿ": 9478,
      "لوگو": 9479,
      "پڙهيل": 9480,
      "گهٽجي": 9481,
      "نقشو": 9482,
      "جمال": 9483,
      "انگل": 9484,
      "##رررر": 9485,
      "سڃاڻي": 9486,
      "اڳواڻي": 9487,
      "پالتو": 9488,
      "زخم": 9489,
      "رضا": 9490,
      "گهريلو": 9491,
      "گڏجاڻي": 9492,
      "نظرانداز": 9493,
      "ريو": 9494,
      "##أأ": 9495,
      "پرسي": 9496,
      "##ھيون": 9497,
      "شيڊ": 9498,
      "##ins": 9499,
      "ريس": 9500,
      "##شته": 9501,
      "وچان": 9502,
      "نيڻ": 9503,
      "ڄاڻايل": 9504,
      "فيصلا": 9505,
      "حسب": 9506,
      "رحمت": 9507,
      "ڊپارٽ": 9508,
      "ٻوڏ": 9509,
      "شكلها": 9510,
      "micros": 9511,
      "آيد": 9512,
      "تست": 9513,
      "طلع": 9514,
      "##رة": 9515,
      "##ear": 9516,
      "اندا": 9517,
      "##ــــــــــــــــــــ": 9518,
      "ٻڌڻي": 9519,
      "اڪيل": 9520,
      "##شتر": 9521,
      "اوند": 9522,
      "دستاويزن": 9523,
      "ضابطن": 9524,
      "اڪيڊمي": 9525,
      "play": 9526,
      "quot": 9527,
      "microsoft": 9528,
      "home": 9529,
      "،.": 9530,
      "تڏھن": 9531,
      "لُ": 9532,
      "هڙ": 9533,
      "ٽار": 9534,
      "ٽيوب": 9535,
      "##تش": 9536,
      "##ـَ": 9537,
      "##عون": 9538,
      "ڪمشن": 9539,
      "امڙ": 9540,
      "سگهيس": 9541,
      "عليهم": 9542,
      "##ـــا": 9543,
      "ادامه": 9544,
      "آمريڪن": 9545,
      "جوابدارن": 9546,
      "معاو": 9547,
      "موڪليل": 9548,
      "بدلائڻ": 9549,
      "دائمي": 9550,
      "وحدت": 9551,
      "ڪئناڊا": 9552,
      "فائنل": 9553,
      "مٿاڇ": 9554,
      "بائ": 9555,
      "سهڻ": 9556,
      "فرح": 9557,
      "##بند": 9558,
      "##ظي": 9559,
      "##انيا": 9560,
      "هنر": 9561,
      "پيٽر": 9562,
      "##لوا": 9563,
      "اوپن": 9564,
      "برش": 9565,
      "ساخت": 9566,
      "لڳندي": 9567,
      "گھڻن": 9568,
      "برازيل": 9569,
      "لائيو": 9570,
      "ٻوليون": 9571,
      "سنگت": 9572,
      "العالم": 9573,
      "مائٽن": 9574,
      "زرعي": 9575,
      "زرداري": 9576,
      "قرباني": 9577,
      "امريڪا": 9578,
      "رعايت": 9579,
      "56": 9580,
      "بك": 9581,
      "تذ": 9582,
      "هك": 9583,
      "گڏي": 9584,
      "##ڪون": 9585,
      "##غل": 9586,
      "##__": 9587,
      "##نگر": 9588,
      "ڪوري": 9589,
      "امارات": 9590,
      "ڪونھي": 9591,
      "سچل": 9592,
      "صارفن": 9593,
      "##ish": 9594,
      "نامو": 9595,
      "خوبصورتي": 9596,
      "مفاد": 9597,
      "##ign": 9598,
      "##كككك": 9599,
      "پروفائل": 9600,
      "ڪوڪيز": 9601,
      "پاؤڊر": 9602,
      "53": 9603,
      "64": 9604,
      "rec": 9605,
      "ذا": 9606,
      "سعيد": 9607,
      "عاج": 9608,
      "غزل": 9609,
      "فائي": 9610,
      "##oy": 9611,
      "##پپ": 9612,
      "##حدود": 9613,
      "##ra": 9614,
      "جيو": 9615,
      "##ليلي": 9616,
      "##رايو": 9617,
      "انهيء": 9618,
      "##تما": 9619,
      "مدري": 9620,
      "راڳ": 9621,
      "بحري": 9622,
      "خوشحالي": 9623,
      "حڪومتي": 9624,
      "مڃي": 9625,
      "##ــــــــــــــــــ": 9626,
      "تكون": 9627,
      "مصنوعي": 9628,
      "نظريي": 9629,
      "ھوندي": 9630,
      "ڀڃڪڙي": 9631,
      "انٽرفيس": 9632,
      "پگهار": 9633,
      "ڪوششن": 9634,
      "98": 9635,
      "امل": 9636,
      "هجو": 9637,
      "ٻاھر": 9638,
      "چشم": 9639,
      "##اگرام": 9640,
      "هڪجه": 9641,
      "اوي": 9642,
      "ڏيندس": 9643,
      "فيهم": 9644,
      "باش": 9645,
      "غيرها": 9646,
      "هلڪو": 9647,
      "بنات": 9648,
      "ڪاميٽي": 9649,
      "سکو": 9650,
      "تشخي": 9651,
      "حياتيءَ": 9652,
      "مشكور": 9653,
      "ضابطو": 9654,
      "اميدوارن": 9655,
      "حوصلا": 9656,
      "مجن": 9657,
      "ممت": 9658,
      "چالو": 9659,
      "##تها": 9660,
      "##ـم": 9661,
      "##بع": 9662,
      "##ile": 9663,
      "##ضه": 9664,
      "##gle": 9665,
      "بيس": 9666,
      "سمورو": 9667,
      "مرة": 9668,
      "سمجهن": 9669,
      "190": 9670,
      "##عود": 9671,
      "نيپ": 9672,
      "مالڪن": 9673,
      "##ite": 9674,
      "مٿو": 9675,
      "مهارت": 9676,
      "خاتمو": 9677,
      "رليز": 9678,
      "عثمان": 9679,
      "49": 9680,
      "آئر": 9681,
      "تض": 9682,
      "رك": 9683,
      "عيون": 9684,
      "ليا": 9685,
      "ناري": 9686,
      "هڻڻ": 9687,
      "يام": 9688,
      "##كة": 9689,
      "##ائلي": 9690,
      "ايون": 9691,
      "هول": 9692,
      "پرسپ": 9693,
      "بيچ": 9694,
      "##ڪيون": 9695,
      "سمجهندا": 9696,
      "فرش": 9697,
      "پاڇ": 9698,
      "بلاول": 9699,
      "ايڊيٽر": 9700,
      "##وووووووو": 9701,
      "##گزاري": 9702,
      "تجربا": 9703,
      "سائٽ": 9704,
      "ڪارپوريٽ": 9705,
      "مبتلا": 9706,
      "زراعت": 9707,
      "85": 9708,
      "بول": 9709,
      "تارن": 9710,
      "قم": 9711,
      "##َل": 9712,
      "##ڱي": 9713,
      "##خاني": 9714,
      "توهين": 9715,
      "ميه": 9716,
      "ڪهاڻين": 9717,
      "ريسر": 9718,
      "فرار": 9719,
      "ساڳيا": 9720,
      "اٿن": 9721,
      "موڪلن": 9722,
      "سُر": 9723,
      "اختياري": 9724,
      "كانت": 9725,
      "تقريباً": 9726,
      "لامحدود": 9727,
      "لچڪدار": 9728,
      ":\"": 9729,
      "more": 9730,
      "آڌ": 9731,
      "تک": 9732,
      "لائي": 9733,
      "لها": 9734,
      "##فع": 9735,
      "##بس": 9736,
      "##برو": 9737,
      "##ديو": 9738,
      "##امون": 9739,
      "ميڙ": 9740,
      "پهتا": 9741,
      "چونڊون": 9742,
      "گروهه": 9743,
      "نامن": 9744,
      "وضاح": 9745,
      "##گزين": 9746,
      "انتظاميا": 9747,
      "نشانيون": 9748,
      "حملن": 9749,
      "سهولتن": 9750,
      "صادق": 9751,
      "سوسائٽي": 9752,
      ".:": 9753,
      "52": 9754,
      "bible": 9755,
      "per": 9756,
      "خم": 9757,
      "شک": 9758,
      "لڙ": 9759,
      "مڪي": 9760,
      "ڊوي": 9761,
      "ڪيڪ": 9762,
      "گها": 9763,
      "##ber": 9764,
      "##ِل": 9765,
      "##آه": 9766,
      "تيم": 9767,
      "##ميش": 9768,
      "ٻڌايان": 9769,
      "مثلا": 9770,
      "##ضيه": 9771,
      "##پریس": 9772,
      "صنف": 9773,
      "بھتر": 9774,
      "گليڪس": 9775,
      "آزمائشي": 9776,
      "بشم": 9777,
      "ذمي": 9778,
      "عيب": 9779,
      "چٽ": 9780,
      "##جج": 9781,
      "##گيٽ": 9782,
      "##صول": 9783,
      "##طور": 9784,
      "##ah": 9785,
      "##ولڪ": 9786,
      "رومن": 9787,
      "##ـــر": 9788,
      "##مود": 9789,
      "ڳالهائيندو": 9790,
      "مھل": 9791,
      "ويڙهه": 9792,
      "ٻولهه": 9793,
      "سپلائر": 9794,
      "تلو": 9795,
      "حدن": 9796,
      "غالب": 9797,
      "چَ": 9798,
      "ڇان": 9799,
      "ڪڇ": 9800,
      "##less": 9801,
      "##آت": 9802,
      "##اتار": 9803,
      "لکندو": 9804,
      "لوازم": 9805,
      "اسڪين": 9806,
      "2007": 9807,
      "ڳوٺن": 9808,
      "انجمن": 9809,
      "طبق": 9810,
      "جذبي": 9811,
      "زينب": 9812,
      "واسطي": 9813,
      "ڳڻپ": 9814,
      "يعطيك": 9815,
      "حالانڪه": 9816,
      "sl": 9817,
      "you": 9818,
      "ستن": 9819,
      "شل": 9820,
      "غي": 9821,
      "ليٽ": 9822,
      "مٽيءَ": 9823,
      "هاڪ": 9824,
      "گيٽ": 9825,
      "##شون": 9826,
      "##صه": 9827,
      "##انچي": 9828,
      "##ورنيا": 9829,
      "##يڪيو": 9830,
      "##نيس": 9831,
      "##اسم": 9832,
      "ملندا": 9833,
      "سالم": 9834,
      "گڏو": 9835,
      "لوڻ": 9836,
      "##ari": 9837,
      "ريز": 9838,
      "وٺندڙ": 9839,
      "مجلس": 9840,
      "کانپوء": 9841,
      "اعتراف": 9842,
      "مائٽ": 9843,
      "زنجي": 9844,
      "ميوزيم": 9845,
      "awami": 9846,
      "مھرباني": 9847,
      "ريسرچ": 9848,
      "41": 9849,
      "51": 9850,
      "lg": 9851,
      "ne": 9852,
      "اتم": 9853,
      "سيو": 9854,
      "شيل": 9855,
      "قادر": 9856,
      "##غر": 9857,
      "##ارتن": 9858,
      "معائن": 9859,
      "پهتي": 9860,
      "مرسي": 9861,
      "لکن": 9862,
      "اخبارن": 9863,
      "ريال": 9864,
      "وانت": 9865,
      "بچاء": 9866,
      "اسپيڪر": 9867,
      "صلاحڪار": 9868,
      "دستخط": 9869,
      "قانونن": 9870,
      "پاسپورٽ": 9871,
      "سرواڻ": 9872,
      "واڌارو": 9873,
      "مئنيجر": 9874,
      "06": 9875,
      "آصف": 9876,
      "لڏ": 9877,
      "پايه": 9878,
      "ھدا": 9879,
      "##َء": 9880,
      "پيسا": 9881,
      "ڪندين": 9882,
      "ويهڻ": 9883,
      "امور": 9884,
      "مسڪين": 9885,
      "ليبار": 9886,
      "يعين": 9887,
      "آرمي": 9888,
      "ناپس": 9889,
      "##سينو": 9890,
      "بدين": 9891,
      "پيرس": 9892,
      "ڪپڙو": 9893,
      "صوفي": 9894,
      "نشانو": 9895,
      "awaz": 9896,
      "اجي": 9897,
      "شخصي": 9898,
      "پڪو": 9899,
      "چپن": 9900,
      "😂😂": 9901,
      "##صرن": 9902,
      "##mm": 9903,
      "##ڈپریس": 9904,
      "##يته": 9905,
      "##قيقي": 9906,
      "##ong": 9907,
      "يونان": 9908,
      "منجھ": 9909,
      "ولد": 9910,
      "ابتدا": 9911,
      "ڇپائي": 9912,
      "انشورنس": 9913,
      "اجا": 9914,
      "بدو": 9915,
      "سحر": 9916,
      "شها": 9917,
      "وڻي": 9918,
      "يسو": 9919,
      "ڪجو": 9920,
      "##ضا": 9921,
      "اسسٽنٽ": 9922,
      "واٽر": 9923,
      "اڳئين": 9924,
      "ورڈپریس": 9925,
      "##وليس": 9926,
      "دلبر": 9927,
      "اجمل": 9928,
      "بنيادن": 9929,
      "ديگري": 9930,
      "##ings": 9931,
      "##ild": 9932,
      "اكل": 9933,
      "سلطان": 9934,
      "اوچائي": 9935,
      "نصيحت": 9936,
      "مزدور": 9937,
      "ميڪسيڪو": 9938,
      "ڪمشنر": 9939,
      "طي": 9940,
      "ظالم": 9941,
      "ويت": 9942,
      "ڀائر": 9943,
      "کٽڻ": 9944,
      "##ودي": 9945,
      "##وڙي": 9946,
      "##َّ": 9947,
      "##زمين": 9948,
      "##pe": 9949,
      "##ڀرائي": 9950,
      "هنگ": 9951,
      "هوشيار": 9952,
      "##هرا": 9953,
      "پرک": 9954,
      "ڪوٺ": 9955,
      "روبو": 9956,
      "اوسط": 9957,
      "بيش": 9958,
      "مشا": 9959,
      "ترڪ": 9960,
      "##توا": 9961,
      "##ناطي": 9962,
      "شاھ": 9963,
      "آرڪ": 9964,
      "بالم": 9965,
      "عالمن": 9966,
      "گروپن": 9967,
      "معاون": 9968,
      "سپاهي": 9969,
      "انسٽاگرام": 9970,
      "پُٽ": 9971,
      "شوقين": 9972,
      "ماشى": 9973,
      "ڌيءُ": 9974,
      "بالغن": 9975,
      "فاتح": 9976,
      "ڊويزن": 9977,
      "gr": 9978,
      "آجي": 9979,
      "جبر": 9980,
      "خلو": 9981,
      "هونءَ": 9982,
      "ورهائي": 9983,
      "##ink": 9984,
      "دوره": 9985,
      "تبلي": 9986,
      "آخرت": 9987,
      "همٿ": 9988,
      "هٿان": 9989,
      "ڪامرس": 9990,
      "مڃڻ": 9991,
      "ڪابينا": 9992,
      "نگاه": 9993,
      "نينهن": 9994,
      "ڪارخانو": 9995,
      "فهد": 9996,
      "وبعدين": 9997,
      "بِ": 9998,
      "جاب": 9999,
      "دخل": 10000,
      "##شاپ": 10001,
      "ماهو": 10002,
      "برابري": 10003,
      "ناهيان": 10004,
      "پرواهه": 10005,
      "اخوي": 10006,
      "نيري": 10007,
      "لفظي": 10008,
      "شاديءَ": 10009,
      "رهبر": 10010,
      "اڻڄ": 10011,
      "بينڪنگ": 10012,
      "اسپيڊ": 10013,
      "ڪيفيت": 10014,
      "ٽتوٽ": 10015,
      "برعڪس": 10016,
      "dr": 10017,
      "تدري": 10018,
      "شفت": 10019,
      "هدف": 10020,
      "ٽئ": 10021,
      "چاندي": 10022,
      "##سال": 10023,
      "##ڏهين": 10024,
      "##ml": 10025,
      "##ts": 10026,
      "جيڪر": 10027,
      "بيروز": 10028,
      "سمو": 10029,
      "اڳڪ": 10030,
      "ورتا": 10031,
      "ڪنن": 10032,
      "اپو": 10033,
      "دوستو": 10034,
      "ڪلين": 10035,
      "بچه": 10036,
      "##پريس": 10037,
      "##ليفورنيا": 10038,
      "سڪون": 10039,
      "گذرڻ": 10040,
      "صدارتي": 10041,
      "مئل": 10042,
      "ٽائم": 10043,
      "ٽهڪ": 10044,
      "ڪٽي": 10045,
      "ڪامل": 10046,
      "ھيو": 10047,
      "##جم": 10048,
      "##زادي": 10049,
      "##قف": 10050,
      "##أإ": 10051,
      "اله": 10052,
      "معنا": 10053,
      "معطل": 10054,
      "رواني": 10055,
      "پروژه": 10056,
      "لکت": 10057,
      "افسان": 10058,
      "ڄاڻان": 10059,
      "شينهن": 10060,
      "درياهه": 10061,
      "ڪروڙ": 10062,
      "لاڙڪاڻي": 10063,
      "out": 10064,
      "آچر": 10065,
      "سوني": 10066,
      "ناصر": 10067,
      "هري": 10068,
      "ڪبو": 10069,
      "هني": 10070,
      "##اتين": 10071,
      "ورتل": 10072,
      "ورهيه": 10073,
      "##ٽرز": 10074,
      "##نڊو": 10075,
      "عملدارن": 10076,
      "بدترين": 10077,
      "ڏاڏي": 10078,
      "نفسك": 10079,
      "انگريزيءَ": 10080,
      "کرد": 10081,
      "اليڪٽرڪ": 10082,
      "مينيجر": 10083,
      "ٽيليوي": 10084,
      "غذائي": 10085,
      "ڪڻڪ": 10086,
      "ٽيليويزن": 10087,
      "59": 10088,
      "جلو": 10089,
      "جِي": 10090,
      "وصولي": 10091,
      "پخت": 10092,
      "ڇن": 10093,
      "##علم": 10094,
      "##طة": 10095,
      "##یل": 10096,
      "اسما": 10097,
      "سگھان": 10098,
      "وڃائڻ": 10099,
      "ميد": 10100,
      "سمر": 10101,
      "درجو": 10102,
      "اُھو": 10103,
      "پارٽن": 10104,
      "والا": 10105,
      "نقشي": 10106,
      "ديد": 10107,
      "سائيٽون": 10108,
      "مُنهن": 10109,
      "##ـــــي": 10110,
      "سمجھيو": 10111,
      "بيوس": 10112,
      "مافيه": 10113,
      "سستو": 10114,
      "small": 10115,
      "##urrenc": 10116,
      "goo": 10117,
      "id": 10118,
      "تـ": 10119,
      "دريا": 10120,
      "ڀين": 10121,
      "ڊچ": 10122,
      "##نڍ": 10123,
      "##ڙجي": 10124,
      "##قان": 10125,
      "##her": 10126,
      "##روڪ": 10127,
      "جاگرافي": 10128,
      "ڪمرو": 10129,
      "ملائ": 10130,
      "ملهايو": 10131,
      "سمهڻ": 10132,
      "ريلي": 10133,
      "فرز": 10134,
      "فرهن": 10135,
      "تقاض": 10136,
      "اسڪيم": 10137,
      "پڇو": 10138,
      "گرام": 10139,
      "##rom": 10140,
      "وسيلا": 10141,
      "ونڊو": 10142,
      "##ليفون": 10143,
      "پکين": 10144,
      "شناسي": 10145,
      "گورنر": 10146,
      "رڪنيت": 10147,
      "عبرت": 10148,
      "تشخيص": 10149,
      "تجي": 10150,
      "زباني": 10151,
      "سليم": 10152,
      "طراحي": 10153,
      "عص": 10154,
      "ليل": 10155,
      "لڏي": 10156,
      "لبن": 10157,
      "يف": 10158,
      "يش": 10159,
      "##كا": 10160,
      "##فار": 10161,
      "##قين": 10162,
      "##ديش": 10163,
      "ايستائين": 10164,
      "پيڊ": 10165,
      "پوڄ": 10166,
      "##هاا": 10167,
      "بيٺا": 10168,
      "امکان": 10169,
      "##اهد": 10170,
      "وٽس": 10171,
      "يوناني": 10172,
      "لنڪس": 10173,
      "ايمانداري": 10174,
      "کلڻ": 10175,
      "نياڻي": 10176,
      "رجسٽرڊ": 10177,
      "رشتو": 10178,
      "ڀوڳ": 10179,
      "سالگره": 10180,
      "جبت": 10181,
      "مٽا": 10182,
      "ٽائ": 10183,
      "پائو": 10184,
      "پئرس": 10185,
      "ڊون": 10186,
      "ڳري": 10187,
      "##سة": 10188,
      "انور": 10189,
      "##هههههههههه": 10190,
      "اسوي": 10191,
      "##هوم": 10192,
      "ملتوي": 10193,
      "باھ": 10194,
      "##نڊا": 10195,
      "سامسنگ": 10196,
      "حقيقتن": 10197,
      "ڀرجي": 10198,
      "تسلسل": 10199,
      "نگاهي": 10200,
      "سستا": 10201,
      "بشمول": 10202,
      "اكت": 10203,
      "حرا": 10204,
      "فس": 10205,
      "لڪي": 10206,
      "مدار": 10207,
      "هذ": 10208,
      "هائ": 10209,
      "يد": 10210,
      "ٺاهه": 10211,
      "ٽول": 10212,
      "ڏُ": 10213,
      "##لائن": 10214,
      "##علوم": 10215,
      "##بڪ": 10216,
      "##gr": 10217,
      "##ستن": 10218,
      "ويه": 10219,
      "بيبي": 10220,
      "محقق": 10221,
      "##ark": 10222,
      "راج": 10223,
      "وارنٽي": 10224,
      "يونيورسٽيءَ": 10225,
      "هالينڊ": 10226,
      "conn": 10227,
      "ٻوٽي": 10228,
      "57": 10229,
      "63": 10230,
      "sn": 10231,
      "تجنن": 10232,
      "فنا": 10233,
      "##گارن": 10234,
      "##ضاب": 10235,
      "##ــل": 10236,
      "تيستائين": 10237,
      "##ئيٽ": 10238,
[...]
