<unk>	0
<s>	0
</s>	0
▁.	-3.43344
▁جي	-3.77697
▁ي	-4.00458
▁،	-4.14019
▁آهي	-4.32556
▁۾	-4.3414
▁ا	-4.3502
▁کي	-4.4705
▁۽	-4.53651
▁هههه	-4.57254
▁م	-4.57689
▁ن	-4.61113
▁جو	-4.74493
▁و	-4.81905
▁پ	-4.84446
▁ته	-4.8461
▁تي	-5.04587
▁ههه	-5.07715
▁س	-5.08329
▁ان	-5.16559
▁"	-5.19953
ي	-5.22266
.	-5.22481
▁هڪ	-5.22872
▁کان	-5.28903
▁نه	-5.30964
▁سان	-5.32198
▁ه	-5.37342
▁:	-5.38833
▁ب	-5.38844
▁ڪري	-5.41269
▁ت	-5.42105
▁هن	-5.47816
نهنج	-5.48592
▁به	-5.492
ن	-5.50452
▁ج	-5.51001
▁ون	-5.57027
▁آهن	-5.57751
ا	-5.62612
▁ڪرڻ	-5.63082
▁هو	-5.63282
▁اسان	-5.67222
▁ٿي	-5.67686
▁ٿو	-5.67851
▁اهو	-5.70656
▁ههههه	-5.71084
▁يا	-5.73822
▁لاءِ	-5.74252
▁1	-5.78659
▁0	-5.79924
▁آ	-5.84445
▁ئي	-5.86205
▁ال	-5.88215
▁توهان	-5.91701
▁ر	-5.9201
▁-	-5.94724
▁ڪيو	-5.95615
▁(	-5.96902
▁2	-6.00815
▁مان	-6.01028
▁؟	-6.02682
▁پر	-6.02835
،	-6.04854
▁مون	-6.07937
▁)	-6.11494
▁ٿا	-6.15563
▁جا	-6.1629
و	-6.26675
▁ف	-6.27116
▁ـ	-6.32167
▁لاء	-6.32804
ه	-6.34059
▁ويو	-6.34802
▁ين	-6.36566
ر	-6.37632
▁ع	-6.38321
▁انهن	-6.40601
▁طور	-6.4088
ـ	-6.41618
▁ءَ	-6.41933
▁!	-6.42445
▁گ	-6.4391
▁ش	-6.46827
▁ڪ	-6.47056
▁چ	-6.47284
▁ڪم	-6.49528
▁يو	-6.50418
▁ڻ	-6.51115
▁ڇا	-6.54774
▁هي	-6.58019
▁ل	-6.58876
ل	-6.60263
▁خ	-6.61002
▁وقت	-6.61807
▁	-6.62237
▁وڌيڪ	-6.62858
▁9	-6.63408
▁ات	-6.65202
▁ها	-6.65555
▁مال	-6.67234
▁هر	-6.68225
▁ك	-6.70701
▁ما	-6.71967
ت	-6.72762
▁3	-6.75868
▁ڪا	-6.76917
▁,	-6.78339
ستع	-6.78961
▁جنهن	-6.793
▁ڪو	-6.79711
▁اي	-6.81639
▁ڪئي	-6.81718
▁ـــــ	-6.81972
▁اهي	-6.82613
▁5	-6.82957
▁لا	-6.84184
▁د	-6.84559
▁ک	-6.85376
▁آھي	-6.85425
▁هئي	-6.86534
▁ز	-6.87027
▁تائين	-6.87221
▁جيڪو	-6.87584
▁واري	-6.8782
▁ڪنهن	-6.88313
▁بي	-6.88693
▁پوءِ	-6.8901
▁s	-6.91368
▁ڪريو	-6.9426
▁ــ	-6.94326
▁ڪجهه	-6.94423
▁4	-6.95192
▁اها	-6.95864
▁چيو	-6.97811
▁سڀ	-6.97905
▁در	-6.98285
▁8	-6.99172
▁جڏهن	-6.99434
▁ڪار	-7.00471
▁بس	-7.02005
▁ڏينهن	-7.02044
س	-7.03211
▁نا	-7.03415
▁وڃي	-7.03741
▁جيڪي	-7.04035
م	-7.08618
▁ِ	-7.08875
▁حاصل	-7.09262
▁6	-7.09558
▁ح	-7.09966
▁7	-7.09973
▁سال	-7.10527
▁سندس	-7.13886
▁يڪڏهن	-7.15089
▁نگ	-7.16686
▁پاڻ	-7.16882
▁سگهي	-7.17017
ائ	-7.17452
▁سي	-7.18143
▁الله	-7.19368
▁َ	-7.19532
▁از	-7.20218
▁شروع	-7.20851
▁تمام	-7.20973
▁ٻ	-7.21089
ڪ	-7.231
▁يل	-7.23691
ند	-7.2383
▁ناهي	-7.24072
▁گڏ	-7.24866
▁من	-7.25145
▁'	-7.25196
▁ة	-7.2637
▁دنيا	-7.27047
▁ڊ	-7.28242
▁ق	-7.30999
▁رهيو	-7.32023
▁ٿيو	-7.32319
▁تون	-7.33036
د	-7.33435
▁وڏي	-7.34753
▁ٽ	-7.34834
▁ماڻهو	-7.34936
▁وئي	-7.3503
▁وٽ	-7.35998
▁/	-7.36755
▁يت	-7.36765
▁هم	-7.36792
▁پي	-7.38202
▁پڻ	-7.3897
▁نظر	-7.39003
▁اڳ	-7.39487
▁ضرورت	-7.39976
▁بر	-7.40207
▁جون	-7.40824
t	-7.41253
▁ويندو	-7.41798
▁ص	-7.42174
▁ڪن	-7.42236
▁صرف	-7.43478
▁اين	-7.43533
▁اچي	-7.43865
▁انهي	-7.442
▁ڪندا	-7.44717
:	-7.45168
▁پيش	-7.45577
▁زندگي	-7.45577
▁ويا	-7.45784
▁في	-7.46416
▁ڪڏهن	-7.46723
▁ٿيڻ	-7.46853
▁ُ	-7.47946
▁عمل	-7.48138
▁ڪر	-7.48565
▁مي	-7.48696
▁۔	-7.48917
▁رهي	-7.49296
▁هئا	-7.5064
▁ھ	-7.50773
▁ڪيئن	-7.50919
▁گهر	-7.51223
ج	-7.51578
▁ڪندو	-7.52916
يءَ	-7.53359
▁بابت	-7.53668
▁سڀني	-7.53805
▁ماڻهن	-7.54183
▁جيئن	-7.54233
▁ڏانهن	-7.54995
▁ڇو	-7.55135
▁>	-7.5524
▁طرح	-7.55596
▁وا	-7.56825
▁گهٽ	-7.5779
▁شامل	-7.57881
▁عام	-7.58166
▁صورت	-7.5845
▁ٻئي	-7.58491
▁سر	-7.59446
▁غير	-7.5945
▁دل	-7.59889
▁مختلف	-7.6003
▁_	-7.60213
▁او	-7.60412
▁يعني	-7.60741
▁اڄ	-7.62467
▁وارو	-7.63002
▁ڊي	-7.63325
▁تنهن	-7.63859
▁ڪي	-7.64218
▁جن	-7.64252
▁آهيان	-7.64524
▁رهيا	-7.64928
▁ڳالهه	-7.65752
▁خاص	-7.66284
▁با	-7.66416
▁هوندي	-7.66596
▁ني	-7.6667
▁اندر	-7.67101
▁<	-7.67148
▁ڪندي	-7.67408
▁ٽي	-7.67687
▁ڳاله	-7.67737
▁ڏيڻ	-7.68252
▁ڇڏي	-7.68784
ٽ	-7.6957
▁مع	-7.69676
▁ائي	-7.70312
▁گهرجي	-7.70709
▁تو	-7.7079
▁ياد	-7.72018
r	-7.72356
▁هوندو	-7.72911
▁وري	-7.7297
▁آئون	-7.73038
▁سبب	-7.74073
▁جيڪا	-7.74255
▁مدد	-7.74296
▁ايس	-7.74413
▁خبر	-7.74869
▁آهيون	-7.74992
▁ايم	-7.75101
▁ار	-7.75457
▁تاريخ	-7.75959
▁ٻين	-7.75996
نھنج	-7.76189
ست	-7.76277
▁مڪمل	-7.7693
▁موجود	-7.77
)	-7.77123
▁سين	-7.77461
▁پاڪ	-7.78045
▁=	-7.78337
▁وي	-7.78546
▁أ	-7.79094
▁شي	-7.79436
▁ٿيل	-7.80006
▁اهم	-7.80112
▁کيس	-7.80414
▁وچ	-7.80599
▁نالو	-7.80743
پ	-7.80922
▁نئين	-7.80958
▁بعد	-7.81302
▁سو	-7.81748
▁اتي	-7.81908
▁ور	-7.82363
▁بند	-7.82407
ڻ	-7.82494
▁ملڪ	-7.82541
▁قسم	-7.82566
▁كم	-7.82709
▁گهڻو	-7.83467
ب	-7.84321
▁جواب	-7.8433
▁غ	-7.84422
▁ڏ	-7.84531
▁هتي	-7.85023
▁ڪمپني	-7.85089
▁هاڻي	-7.85302
▁انا	-7.8533
▁پهرين	-7.85808
▁تبديل	-7.85899
▁؛	-7.8625
▁ختم	-7.86331
▁دوست	-7.86502
ع	-7.86782
ف	-7.87225
▁ڪتاب	-7.87817
▁آن	-7.87934
▁آھن	-7.88908
ح	-7.88964
▁سگهو	-7.89475
▁ري	-7.89729
▁ٿيندو	-7.90273
▁ادا	-7.90296
▁شايد	-7.908
▁شهر	-7.91482
▁سنڌ	-7.91604
▁ڇڏيو	-7.92192
ز	-7.92265
▁سالن	-7.92321
▁پيدا	-7.92574
▁مو	-7.93046
▁ڏئي	-7.9398
▁فون	-7.94002
▁وڏو	-7.94501
▁ٿئي	-7.94559
▁هٿ	-7.94625
▁ڀ	-7.94635
▁هيٺ	-7.95406
▁را	-7.95889
▁ويب	-7.96784
▁يه	-7.97451
▁عليه	-7.97499
▁ڪندڙ	-7.97507
▁اس	-7.97725
▁رو	-7.97936
▁ڏنو	-7.98282
ــ	-7.98546
▁پيو	-7.9857
▁حق	-7.98639
▁ائيٽ	-7.98748
▁هترين	-7.99004
▁ڪوشش	-7.99355
▁قانون	-7.99702
▁پوء	-7.9995
▁اهڙي	-8.0014
▁قيمت	-8.00311
▁مطلب	-8.00434
ڙ	-8.0046
وب	-8.00632
▁آيو	-8.00768
گ	-8.01143
▁ويندي	-8.01345
ش	-8.01476
▁هجي	-8.01769
▁رات	-8.02174
▁خدا	-8.02348
▁اوهان	-8.02819
▁ٻه	-8.02942
▁ٻيو	-8.03214
▁وٺي	-8.03291
▁يون	-8.03438
▁ڪيا	-8.03521
▁خيال	-8.03719
▁خوش	-8.03933
▁طرف	-8.03938
▁لي	-8.04134
▁پئي	-8.04176
▁چونڊ	-8.04814
▁آئي	-8.05064
▁وانگر	-8.05444
▁ط	-8.05647
▁اصل	-8.05979
▁ء	-8.06123
▁دار	-8.06378
▁er	-8.06391
ان	-8.0654
▁انسان	-8.06598
▁ذريعي	-8.06747
ك	-8.06773
▁*	-8.07095
▁سا	-8.07192
▁ائين	-8.07273
▁ٻار	-8.0757
وھان	-8.07841
▁صحيح	-8.0823
▁ترقي	-8.08517
▁معلوم	-8.08707
▁حقيقت	-8.1042
▁ڪيل	-8.1111
▁مٿي	-8.11443
▁ٿ	-8.11549
▁عمر	-8.11801
▁ولا	-8.11864
▁حل	-8.12353
ار	-8.12422
؟	-8.12434
▁اول	-8.12792
▁ڪيترا	-8.13017
▁رد	-8.13345
ري	-8.13542
▁آهيو	-8.136
▁اُ	-8.13616
▁سفر	-8.14675
▁يس	-8.14736
▁ظاهر	-8.1544
▁اڃا	-8.15504
يل	-8.15559
▁علي	-8.15591
▁جاري	-8.15647
▁ڏسي	-8.1567
▁والله	-8.15722
▁اثر	-8.15723
▁اوھان	-8.16052
▁ارڪيٽ	-8.1627
▁سوال	-8.16372
▁دوران	-8.16541
▁چاهي	-8.16652
▁پسند	-8.167
▁اسٽ	-8.17129
▁ـــ	-8.17757
▁حڪومت	-8.17763
▁هاي	-8.17865
▁هنن	-8.18269
ة	-8.18496
▁عورت	-8.18911
▁لک	-8.18975
▁ضروري	-8.19191
▁ڪيترن	-8.193
▁تصوير	-8.19384
▁ٻاهر	-8.19455
▁صاحب	-8.1974
▁ملي	-8.19837
▁ڌ	-8.19947
▁لڳي	-8.20112
▁راند	-8.20449
▁مريڪا	-8.20458
▁مواد	-8.20753
▁ى	-8.21285
▁است	-8.21311
▁جتي	-8.21486
▁حصو	-8.21512
▁ھو	-8.2177
لائق	-8.22031
▁بهتر	-8.22106
ک	-8.22173
a	-8.22198
ون	-8.22586
▁مح	-8.22812
▁سندن	-8.23137
يپل	-8.2445
▁ختيار	-8.24678
▁ڏسڻ	-8.24774
▁دور	-8.24907
▁اسين	-8.2523
▁]	-8.25247
▁هريون	-8.25513
▁ض	-8.25644
▁ڊيٽا	-8.25945
▁محسوس	-8.25995
▁A	-8.26082
▁مش	-8.26205
▁[	-8.26295
▁آسان	-8.2635
▁ڪجھ	-8.26365
▁حد	-8.26451
▁صلاح	-8.26644
▁آخر	-8.26793
▁هوندا	-8.27031
▁خريد	-8.27626
▁بيان	-8.27678
▁موضوع	-8.2768
▁خلاف	-8.27955
▁على	-8.28234
▁ڏي	-8.28323
▁اڻ	-8.28446
▁رکي	-8.28888
▁اھو	-8.29041
▁ڏني	-8.29134
▁مثال	-8.29329
▁يان	-8.29385
▁10	-8.29566
▁فارم	-8.29643
▁زمين	-8.29754
▁معيار	-8.29831
e	-8.29898
▁ندا	-8.29962
▁ئ	-8.3009
▁ٿيون	-8.31197
▁ٿيندي	-8.3141
▁گھر	-8.31704
▁رڳو	-8.31992
▁رنگ	-8.32187
▁طرفان	-8.32306
▁تعليم	-8.32506
▁ھن	-8.32724
▁وارا	-8.33063
▁ڙ	-8.33177
▁بين	-8.33263
▁پيار	-8.33499
▁يءَ	-8.33616
▁رکڻ	-8.33754
▁پاڻي	-8.33926
▁سگهجي	-8.3419
▁داخل	-8.34443
▁چين	-8.34742
▁لائن	-8.34746
▁آر	-8.34922
ـــ	-8.35034
▁كل	-8.35224
▁وار	-8.35409
▁خود	-8.35579
▁مشهور	-8.3576
داوا	-8.35836
▁هوءَ	-8.35887
▁قوم	-8.36132
▁ام	-8.36438
▁نٽ	-8.36806
▁لو	-8.36843
ھ	-8.37209
▁يم	-8.37284
▁اري	-8.37489
ئ	-8.3783
ڪاڻ	-8.37949
i	-8.38117
آ	-8.38127
▁ٽر	-8.38146
▁ند	-8.38285
▁واپس	-8.38457
▁تيار	-8.38599
▁ٻي	-8.39324
▁ايران	-8.39735
▁نظام	-8.40345
▁وڃڻ	-8.40411
▁موڪل	-8.40481
▁قابل	-8.40824
▁ائ	-8.40824
▁مس	-8.41337
▁ٻن	-8.41577
ال	-8.41979
▁بال	-8.42022
▁ing	-8.42029
!	-8.42184
▁ی	-8.42444
▁ندو	-8.42457
▁ڄاڻ	-8.42471
▁ذ	-8.42565
▁چه	-8.42599
▁مونکي	-8.43121
▁هذا	-8.43166
▁نن	-8.43183
ق	-8.43791
▁ڏيو	-8.43824
▁هميشه	-8.43875
▁فر	-8.43919
▁ٻنهي	-8.43923
▁چوڻ	-8.44122
▁يندو	-8.4427
▁تان	-8.44373
▁مت	-8.44516
▁ابو	-8.44549
▁ست	-8.44706
▁جنگ	-8.45238
▁قدم	-8.45272
▁علم	-8.45343
▁توکي	-8.45417
▁اجازت	-8.45561
▁فراهم	-8.457
▁لفظ	-8.45762
▁شو	-8.45873
▁يشن	-8.46103
▁ڇ	-8.46254
▁يندا	-8.46454
▁اميد	-8.46621
▁ڪير	-8.46904
▁خوب	-8.46955
▁يقين	-8.47031
▁ڏيکار	-8.47296
o	-8.47378
▁ڦ	-8.47489
▁پرو	-8.47494
▁نيادي	-8.47625
▁a	-8.47838
▁آيا	-8.48022
▁اپ	-8.48083
▁سٺو	-8.48432
▁ڏٺو	-8.4849
▁سواءِ	-8.48517
▁تعلق	-8.4861
,	-8.49027
▁توڻيڪ	-8.4904
▁ٽيڪن	-8.49131
▁نٿو	-8.49231
▁i	-8.49384
▁ايو	-8.49644
▁سلامي	-8.49829
▁دم	-8.50027
▁تحقيق	-8.50144
▁گي	-8.5021
▁ڪونه	-8.50389
▁باري	-8.50533
▁پنج	-8.50611
▁محفوظ	-8.50677
▁حڪم	-8.51194
▁جان	-8.51779
▁قائم	-8.52097
▁آواز	-8.52839
▁مناسب	-8.52889
▁وگرام	-8.53188
▁نئون	-8.5324
▁طريقي	-8.53344
▁بار	-8.53438
▁ڳ	-8.53576
▁واقعي	-8.53755
▁نداز	-8.5385
▁ايڪس	-8.5406
▁ايل	-8.54172
▁چي	-8.54307
▁هه	-8.54474
▁ڪل	-8.54519
▁کڻي	-8.54928
▁شادي	-8.54975
▁چار	-8.54998
▁سمجه	-8.55105
▁بل	-8.55204
▁اا	-8.55729
▁خط	-8.55893
▁شيء	-8.55928
▁محبت	-8.56341
u	-8.56586
▁e	-8.56621
▁پٽ	-8.56627
▁نفس	-8.56708
▁وزير	-8.56806
▁ممڪن	-8.57413
▁هجڻ	-8.57563
▁c	-8.57594
▁نالي	-8.57843
▁سخت	-8.5786
▁شين	-8.57914
▁سگهن	-8.57956
▁اب	-8.57965
▁انگ	-8.57985
▁اسڪول	-8.5806
▁مقصد	-8.58107
▁ويندا	-8.58228
▁ہ	-8.58313
y	-8.58364
▁تر	-8.58519
▁آخري	-8.58639
▁مطابق	-8.58773
▁اڪثر	-8.58984
▁يائين	-8.5914
▁ميل	-8.59442
▁ھڪ	-8.59455
▁ندي	-8.59513
▁بنياد	-8.59781
▁انت	-8.59962
▁آف	-8.60117
▁صحت	-8.60274
▁اني	-8.60466
▁سگھي	-8.60503
▁آزاد	-8.60525
▁خواست	-8.60541
▁to	-8.60581
▁جسم	-8.61018
▁هيو	-8.61204
▁يڪيشن	-8.61281
▁روح	-8.61627
▁منهن	-8.61647
ٿ	-8.61815
▁بد	-8.61952
▁گهڻي	-8.61959
▁واحد	-8.62043
m	-8.62177
لي	-8.62241
▁سيڪڙو	-8.62369
▁وارن	-8.62596
n	-8.62651
▁چڪو	-8.62658
▁روز	-8.63358
▁قدر	-8.63542
▁ٻارن	-8.63561
▁ڄڻ	-8.64112
▁تا	-8.64113
▁مفت	-8.64153
▁ٻيهر	-8.64305
▁ضحك	-8.64796
▁وٺ	-8.64857
▁ڪٿي	-8.64876
▁که	-8.64962
▁سڄي	-8.65
▁فقط	-8.65036
l	-8.65072
▁سائين	-8.65132
▁رياست	-8.65156
ين	-8.65776
▁اچڻ	-8.65887
▁باقي	-8.65905
▁سطح	-8.66106
▁سچ	-8.66224
▁ڊاڪٽر	-8.66438
▁روم	-8.66545
▁ڪيس	-8.66568
w	-8.66915
▁يندي	-8.6747
▁دست	-8.67628
▁فيصلو	-8.67875
▁پارٽي	-8.67982
▁سياسي	-8.68044
▁ڪافي	-8.68415
▁پاران	-8.686
▁le	-8.68624
▁مرد	-8.68671
▁ذهن	-8.68757
▁غلط	-8.68854
▁نوجو	-8.69035
▁ٻڌايو	-8.69209
▁du	-8.69511
▁موت	-8.69975
▁مريڪي	-8.70036
▁عالمي	-8.70172
▁ِي	-8.70306
▁ورتو	-8.7045
▁يوني	-8.70475
▁ڀر	-8.70492
▁اڳتي	-8.70758
▁ايه	-8.70894
▁وين	-8.70929
▁ٿيا	-8.71868
ور	-8.7198
▁مُ	-8.71994
▁ڪهڙي	-8.72139
▁ڪهاڻي	-8.72176
▁شخص	-8.72665
▁آءٌ	-8.72901
▁پاس	-8.73077
▁نقصان	-8.73329
▁له	-8.73334
▁جديد	-8.73395
▁ڏسو	-8.73445
▁ڳوٺ	-8.73511
▁ايندڙ	-8.73554
▁ميڊيا	-8.73818
ول	-8.73971
ط	-8.74022
▁رپورٽ	-8.74061
▁شيون	-8.74073
▁ملڪن	-8.74698
▁تيز	-8.74743
▁دلچسپ	-8.748
▁يندڙ	-8.75117
▁لسلام	-8.75234
▁دي	-8.75527
ى	-8.75689
▁ضرور	-8.7614
▁ستان	-8.76345
هربا	-8.7636
يو	-8.76375
▁وجود	-8.76378
▁al	-8.76457
▁ھي	-8.76654
▁ايڊ	-8.76655
▁ذاتي	-8.76688
ڪائو	-8.76799
▁ترتيب	-8.76989
▁پوليس	-8.77444
▁صدر	-8.7761
▁مشين	-8.7782
▁ڪردار	-8.77885
▁فلم	-8.77945
▁چاهيو	-8.7797
▁نوٽ	-8.78021
▁خير	-8.78046
▁يار	-8.78059
▁جدا	-8.78277
▁ّ	-8.78912
▁الاجي	-8.78992
▁اعلان	-8.79036
▁ترين	-8.7924
▁خراب	-8.79339
▁حال	-8.7937
▁اسپ	-8.7947
▁in	-8.7948
▁پير	-8.79628
▁مضمون	-8.79681
▁مير	-8.79708
▁فوج	-8.79769
▁وش	-8.79802
▁حالت	-8.80057
▁رک	-8.80459
▁نمبر	-8.80851
▁هُ	-8.81012
▁حقيقي	-8.81034
▁ڏس	-8.81169
▁مسئلو	-8.81281
▁انھن	-8.81361
▁تڏهن	-8.81516
▁دير	-8.81556
▁اڻي	-8.81615
▁اسلام	-8.81649
▁سسٽم	-8.8166
▁ايئر	-8.81661
▁طاقت	-8.8193
▁بڻجي	-8.82357
▁لك	-8.82376
ی	-8.82528
▁منٽ	-8.82656
ڊ	-8.82705
▁هاڻ	-8.82714
▁o	-8.8275
▁انه	-8.83127
▁پري	-8.83567
▁قول	-8.83731
▁سون	-8.83965
▁زين	-8.84004
ڪڙ	-8.84041
▁پيا	-8.84076
▁ٺاهي	-8.84573
▁گوگل	-8.84608
▁گھ	-8.84653
▁خان	-8.84751
▁n	-8.84895
▁نساني	-8.85085
▁سنڌي	-8.85086
▁ڏنل	-8.85156
▁صبح	-8.85164
را	-8.8527
▁ٽيم	-8.85451
▁ماءُ	-8.85637
▁عورتن	-8.85729
▁خدمت	-8.85733
گهند	-8.85762
▁20	-8.8578
▁سامان	-8.85868
▁آباد	-8.85931
▁ريس	-8.85953
▁ٽن	-8.86267
▁ڌار	-8.86291
▁ولي	-8.86345
▁ئين	-8.8652
▁بو	-8.86597
▁تعمير	-8.86816
▁طريقو	-8.8696
▁ث	-8.8715
▁بينڪ	-8.87168
▁وال	-8.87382
▁وڃن	-8.87424
▁اعلي	-8.87649
▁ورسٽي	-8.87659
▁چئي	-8.87729
▁وڃ	-8.87759
▁ڪجي	-8.87861
▁واپار	-8.87866
▁حضرت	-8.87948
▁وس	-8.88028
▁احساس	-8.88099
▁قبول	-8.88151
▁سماجي	-8.88367
▁ٺاهڻ	-8.88389
▁پڇ	-8.88487
▁ڪيتر	-8.88597
▁تن	-8.8874
▁حب	-8.88966
▁ماحول	-8.89001
▁سائنس	-8.89022
▁مقرر	-8.89073
▁تح	-8.89073
▁لڳو	-8.8911
▁ed	-8.89277
▁تقريب	-8.8943
▁ڪيون	-8.8972
▁لوڊ	-8.89913
▁پورو	-8.89951
مجھ	-8.89953
▁وٺڻ	-8.90055
▁حفاظت	-8.90148
▁•	-8.903
▁آه	-8.90399
▁گذريل	-8.90611
▁صنعت	-8.90628
▁شاء	-8.9069
▁جمع	-8.90717
▁يد	-8.90772
▁سروس	-8.91019
ڳاپ	-8.91183
▁star	-8.91189
-	-8.91268
▁رهڻ	-8.91381
▁جاءِ	-8.91386
▁علاج	-8.914
ــــ	-8.91438
▁پاسي	-8.91553
▁وڊيو	-8.91574
▁اصلي	-8.91629
يا	-8.91975
▁فرق	-8.92002
▁پوري	-8.923
▁واضح	-8.9234
▁حصي	-8.92561
▁قومي	-8.9277
▁صاف	-8.92806
▁صارف	-8.92868
▁پوندو	-8.93083
▁نور	-8.93207
▁ئڻ	-8.93412
▁اندان	-8.93667
▁th	-8.93684
▁وڌي	-8.93711
▁شرح	-8.93773
▁بخش	-8.93828
ستائ	-8.93942
▁مسافر	-8.93971
▁نٿا	-8.94126
▁نام	-8.94178
▁راهڪن	-8.94273
▁پس	-8.94277
▁اکين	-8.94335
▁سُ	-8.94388
▁سوچ	-8.94447
▁ٻيا	-8.9445
▁ڀيرو	-8.94479
▁وجوده	-8.94481
▁تفصيل	-8.94572
▁نتظار	-8.94723
▁جلد	-8.94729
ء	-8.9482
▁ڪوبه	-8.94836
▁تعداد	-8.94951
▁سمور	-8.94997
▁رقم	-8.95048
▁موجب	-8.95108
▁گل	-8.9517
▁حياتي	-8.95341
به	-8.95395
▁حوالي	-8.95419
▁عظيم	-8.95481
▁خرچ	-8.95593
▁داري	-8.95733
▁عوام	-8.95737
▁گم	-8.96091
▁y	-8.96144
▁لل	-8.96257
▁ck	-8.96258
▁کائ	-8.9639
▁ڪس	-8.96643
ڏ	-8.96678
▁اوزار	-8.9671
▁وڌ	-8.96721
▁مضبوط	-8.9686
▁دعا	-8.96894
▁پڙهڻ	-8.96942
▁ڀي	-8.96953
▁هيون	-8.96955
▁ذڪر	-8.97021
▁رب	-8.9714
▁هين	-8.97151
▁ويئر	-8.97205
▁لينڊ	-8.97261
▁ھڪڙو	-8.97329
▁گڏيل	-8.97426
▁محمد	-8.97712
▁$	-8.97721
▁متاثر	-8.9779
▁هيءَ	-8.9804
▁اُن	-8.98053
▁پوسٽ	-8.9826
▁ڏيندو	-8.98448
▁آهين	-8.98608
▁لکڻ	-8.98658
▁پڪ	-8.98697
▁ايف	-8.98734
▁هفتي	-8.98809
▁تك	-8.98833
▁سلمان	-8.98987
▁لازمي	-8.99026
▁هزار	-8.99049
▁ڊائ	-8.99161
▁نسل	-8.9919
▁اهڙو	-8.99282
▁نٽرول	-8.99519
▁نموني	-8.99677
ڳ	-8.99722
p	-8.99759
▁شه	-8.99768
▁بت	-8.99791
▁مٿان	-8.99796
▁آزادي	-8.99837
هن	-8.99991
▁نتيج	-9.00107
▁درج	-9.00396
يه	-9.00739
▁S	-9.01092
ٺي	-9.01096
▁مهيا	-9.01128
▁ندڙ	-9.01178
▁خواب	-9.01213
▁ڌيان	-9.01522
▁ڪش	-9.01695
▁مند	-9.01769
▁مثل	-9.01783
▁پوي	-9.02064
▁ڪهڙو	-9.02177
▁لڳا	-9.02181
▁عملي	-9.02199
▁گريزي	-9.02248
▁مري	-9.02255
▁درد	-9.02341
▁موسم	-9.02417
▁ارو	-9.0246
▁تہ	-9.02553
s	-9.02798
▁وضاحت	-9.02901
▁يورپ	-9.03284
نه	-9.03396
▁عدالت	-9.03476
▁ً	-9.03727
▁آرام	-9.0377
▁نشان	-9.03813
▁ڪريان	-9.04037
▁کول	-9.04077
▁غلطي	-9.0424
▁ريشان	-9.04391
▁ذميو	-9.0472
▁پهچي	-9.0472
▁گرفت	-9.0489
▁مرڪز	-9.05049
▁نو	-9.05141
▁رکيو	-9.05223
▁روشني	-9.05259
▁هلي	-9.05284
لڪل	-9.05317
▁اَ	-9.05335
▁هنڌ	-9.05714
▁ڏک	-9.05727
▁خاصيت	-9.05755
v	-9.05772
▁دوا	-9.05797
سٽر	-9.05895
▁15	-9.06117
▁رت	-9.06174
▁D	-9.06316
▁برابر	-9.06321
▁حلو	-9.06325
ها	-9.06374
▁عجب	-9.06469
b	-9.06755
▁استاد	-9.06758
▁سگهون	-9.06766
▁دو	-9.06831
▁حسين	-9.06866
▁ڄ	-9.06969
▁ڳول	-9.07156
▁يڪشن	-9.07174
▁تنظيم	-9.07255
▁I	-9.07507
▁پيام	-9.07595
▁هيچ	-9.07646
▁پور	-9.0766
▁اک	-9.07693
▁نيو	-9.07706
▁ءِ	-9.0788
▁مليو	-9.07949
▁علاوه	-9.08288
▁اع	-9.08291
▁شكرا	-9.08381
▁30	-9.08401
▁قتل	-9.08587
▁واٽ	-9.08587
"	-9.08594
▁مين	-9.0884
▁هال	-9.08914
▁دا	-9.08972
▁تصديق	-9.08981
▁جلدي	-9.08994
▁ــــ	-9.0901
▁اهل	-9.0904
▁جنھن	-9.09068
▁شيءِ	-9.09083
▁تع	-9.0913
▁شاعر	-9.0914
▁وَ	-9.09158
▁ڪردگي	-9.0933
ڪس	-9.09378
▁ڪئين	-9.09379
▁نوڪري	-9.09427
▁وڪرو	-9.09472
▁ريم	-9.09487
▁ڏا	-9.09501
▁جهاز	-9.09514
ام	-9.09575
▁پورٽ	-9.09725
▁حيثيت	-9.09768
▁انتي	-9.09929
▁زور	-9.10007
▁ٻولي	-9.10157
▁رستو	-9.10268
▁گروپ	-9.10301
▁ڪراچي	-9.10385
▁فرانس	-9.10385
▁عرب	-9.10413
▁وڏ	-9.10569
▁صدي	-9.10637
▁رڪاري	-9.1066
▁رفتار	-9.10662
▁پليٽ	-9.1067
اب	-9.10672
▁زال	-9.10692
▁يڪڏھن	-9.10738
▁ذار	-9.10758
▁اسٽور	-9.10779
▁B	-9.10875
▁E	-9.10906
▁عن	-9.11147
▁کين	-9.11181
▁ڊر	-9.11324
▁ڇوڪري	-9.11638
چ	-9.11817
▁هريان	-9.11844
▁گھٽ	-9.1196
▁فيصل	-9.11979
▁تصور	-9.11993
▁اگر	-9.12002
▁ورڪ	-9.12075
▁چون	-9.12091
ٽر	-9.12163
▁ٺهيل	-9.12196
▁ماڊل	-9.12198
▁ڪريون	-9.12244
▁ڊالر	-9.12256
ئين	-9.12272
▁ڪارڊ	-9.12287
▁وق	-9.12291
▁ٻڌ	-9.123
▁ااااا	-9.12348
▁غريب	-9.12348
▁ميٽر	-9.12362
▁يماري	-9.12447
خ	-9.125
▁مينٽ	-9.12501
▁نمي	-9.1256
▁زبان	-9.12621
▁رسائي	-9.12772
▁بڻائ	-9.12804
▁آفيس	-9.12908
▁ڪلڪ	-9.12946
▁اصول	-9.13074
▁سيڪ	-9.13139
▁ياتي	-9.13168
▁موٽ	-9.13229
▁بنا	-9.13275
D	-9.13443
▁پل	-9.1345
▁امام	-9.13595
▁امي	-9.13696
▁تجربو	-9.13829
▁ريت	-9.1383
▁امير	-9.13895
▁بود	-9.14041
▁فيس	-9.14043
▁x	-9.14147
▁بلاگ	-9.14175
▁ٍ	-9.14175
▁خوف	-9.14216
نتها	-9.14411
▁ڙي	-9.14537
▁ستقبل	-9.14546
▁اِ	-9.14589
▁پڇيو	-9.14597
▁ڪرڻو	-9.1461
▁ڪيٽ	-9.14614
▁ھڪڙ	-9.14636
▁ول	-9.14742
ہ	-9.15201
▁اح	-9.15217
▁گرمي	-9.1524
▁پيوٽر	-9.15315
▁آئ	-9.15355
▁چند	-9.15412
▁بحث	-9.15458
▁ميابي	-9.15741
▁سمجهي	-9.15789
▁ايندو	-9.15967
▁مالي	-9.15968
▁اعظم	-9.16391
▁پيغام	-9.16486
▁آءِ	-9.16486
▁ٿيندا	-9.16538
▁بورڊ	-9.1658
▁ٽرنيٽ	-9.1667
▁سافٽ	-9.16677
▁ڪوڙ	-9.16728
▁هوا	-9.16778
▁ڊائون	-9.1689
▁لاڳو	-9.16974
▁ڏاڍو	-9.17015
▁ڳالھ	-9.17141
▁يٰ	-9.17172
▁te	-9.17195
▁هڪڙي	-9.17214
▁اللي	-9.17228
وم	-9.17407
▁ايپ	-9.17415
▁رز	-9.17425
▁وزن	-9.17576
رو	-9.17691
▁حمل	-9.17705
▁ٻڌي	-9.1772
c	-9.17758
d	-9.17763
نگ	-9.18062
▁إ	-9.18196
▁ڪونهي	-9.18201
▁ڪوڊ	-9.18422
▁ھر	-9.18534
▁گرم	-9.18543
▁جوڙ	-9.18633
▁خصوص	-9.18764
▁لائ	-9.18793
▁ساڳي	-9.18959
▁ءُ	-9.19161
▁قبل	-9.19485
▁ng	-9.19528
▁رگرمي	-9.20114
اغ	-9.20173
▁شاعري	-9.20521
▁سگھن	-9.20642
▁هل	-9.20688
▁ويئي	-9.20731
▁شڪار	-9.20779
▁افغان	-9.20797
▁ير	-9.20934
▁12	-9.20952
ص	-9.21024
گه	-9.2114
▁فعال	-9.21193
▁ڊگهي	-9.2129
▁سڪرين	-9.21292
▁سلام	-9.21337
▁ڻي	-9.21439
▁چڱ	-9.21461
▁فلس	-9.21489
▁ادب	-9.21575
▁سنڀال	-9.21584
ئر	-9.21759
▁باب	-9.21794
▁بير	-9.21812
▁بيت	-9.21853
▁P	-9.21872
▁ئون	-9.21986
▁لاش	-9.22089
▁ليس	-9.22159
▁كان	-9.22308
▁دين	-9.22351
▁ويل	-9.22401
▁شڪل	-9.22531
▁عالم	-9.2257
▁ينڊ	-9.22655
▁ايندي	-9.22708
▁وت	-9.228
▁اڳيان	-9.22978
▁دفعو	-9.22999
▁ده	-9.23027
▁اينڊ	-9.23116
▁ٿيندڙ	-9.23183
▁وبائل	-9.23279
▁يقيني	-9.23326
▁راز	-9.2342
▁بڻائي	-9.23474
▁وڙ	-9.23499
يم	-9.23539
وشل	-9.23643
▁شام	-9.23658
▁ثابت	-9.2368
▁ٿورو	-9.23724
▁رهندو	-9.23724
▁اف	-9.2376
▁محدود	-9.23782
▁قوامي	-9.23983
▁زمان	-9.23997
▁G	-9.24085
ث	-9.2412
▁اھي	-9.24175
▁لکيو	-9.24214
▁فيه	-9.24397
▁سگهيو	-9.24452
▁يلي	-9.24573
▁امن	-9.24589
▁ايترو	-9.24594
▁ماني	-9.24641
▁يڊ	-9.24674
▁سيٽ	-9.24687
▁ڳولي	-9.2483
▁رسي	-9.24899
▁داد	-9.24947
▁سنگ	-9.24998
▁عز	-9.25224
▁لکي	-9.25416
ٺ	-9.25531
▁ئن	-9.25559
▁منظر	-9.25615
▁حساب	-9.25619
▁خوشي	-9.25684
▁وڻ	-9.25761
▁قديم	-9.25829
▁ڇپ	-9.25921
▁پيءُ	-9.25926
▁صح	-9.26019
▁مخصوص	-9.26027
▁C	-9.26142
C	-9.26239
▁ڪين	-9.26278
ڪي	-9.26282
▁ڪندڙن	-9.26343
▁سگهان	-9.26448
سي	-9.26487
▁چوي	-9.2649
▁سڏ	-9.26692
▁گر	-9.26698
▁اڳواڻ	-9.26961
▁سام	-9.26961
▁حتى	-9.26967
دا	-9.2697
▁ريف	-9.27024
▁مخالف	-9.27065
▁ليه	-9.27178
▁پڙهي	-9.27276
▁ليل	-9.27353
▁ڊو	-9.27386
▁قابلي	-9.27612
▁ٺاه	-9.27646
▁يده	-9.27703
▁ندر	-9.27793
▁ميدان	-9.27886
▁الي	-9.27993
▁ٺيڪ	-9.28023
▁يوم	-9.28057
▁ننڍ	-9.2808
▁اهڙا	-9.28115
رحال	-9.28163
▁گير	-9.28217
▁فهم	-9.28222
▁قرار	-9.28267
▁اور	-9.28272
▁ابندي	-9.28327
▁#	-9.28415
▁سٽ	-9.28657
▁جهڙوڪ	-9.28703
▁گفت	-9.28795
▁بابا	-9.28833
▁T	-9.28873
▁مياب	-9.29144
▁هدايت	-9.29175
▁آب	-9.29227
▁سياست	-9.29287
اس	-9.29292
▁ياب	-9.29309
▁گيري	-9.2936
▁d	-9.29422
st	-9.29425
▁ڪئ	-9.29433
▁مص	-9.29457
▁ساڻ	-9.29489
▁آڻي	-9.29504
▁ic	-9.29523
▁چڪا	-9.29735
▁ليش	-9.2977
▁W	-9.29802
▁عرصي	-9.29871
▁نيٽ	-9.2993
▁يک	-9.30021
▁نقلاب	-9.30036
▁سج	-9.30038
▁حالتن	-9.30048
▁?	-9.30053
▁هڪڙو	-9.30054
▁عيد	-9.30248
▁ڌرتي	-9.30248
▁الدين	-9.30251
▁هوس	-9.30459
▁سلسل	-9.30495
▁رخ	-9.30509
▁اخ	-9.30671
▁مَ	-9.30721
g	-9.30739
▁تعارف	-9.30785
▁يني	-9.30841
▁سمنڊ	-9.30899
▁سور	-9.31049
▁اءِ	-9.31332
▁خت	-9.31366
▁مط	-9.31436
تا	-9.31467
▁ويون	-9.31611
▁نيوز	-9.31637
k	-9.31831
▁ڳنڍ	-9.31879
▁گهڻا	-9.31909
▁نون	-9.31989
▁شر	-9.31992
▁اضافي	-9.32014
▁نڪري	-9.32035
▁+	-9.32105
▁گذر	-9.32131
هي	-9.32133
▁اگردن	-9.32313
▁ملڻ	-9.3242
▁ڳولا	-9.32444
▁يٽ	-9.32511
▁مالڪ	-9.32573
▁لاقات	-9.32755
▁لفظن	-9.32828
▁ورس	-9.32849
ِ	-9.32949
▁بن	-9.32987
▁نٿي	-9.32995
▁سَ	-9.33292
▁ڍ	-9.33306
▁اش	-9.33308
▁ro	-9.33514
▁هچ	-9.33646
▁توقع	-9.33649
▁مختصر	-9.33653
▁مر	-9.33678
▁سوچيو	-9.33697
▁جڳهه	-9.33827
▁لهي	-9.33853
▁اوجود	-9.33864
اء	-9.33892
▁راح	-9.34048
▁زماني	-9.34125
▁ڏاڍي	-9.34188
▁فهرست	-9.34311
▁رج	-9.34349
ات	-9.34453
▁نل	-9.3448
▁يڪ	-9.34549
▁ٻڌڻ	-9.34588
▁ڪنھن	-9.34649
▁سوي	-9.34659
▁خواهش	-9.34774
▁نيشنل	-9.34782
▁لم	-9.35091
▁نين	-9.35124
▁ويجهو	-9.35219
▁مپ	-9.35317
▁m	-9.35424
▁ڪلاڪ	-9.35505
▁ڏنا	-9.35591
▁روڊ	-9.35948
▁ٽرانس	-9.3601
يون	-9.36038
▁ڪُ	-9.36045
▁فائدو	-9.36181
▁ٽو	-9.36182
▁شعر	-9.36238
▁اءُ	-9.36239
▁ملين	-9.36302
▁منتقل	-9.36466
▁شوف	-9.36636
▁مل	-9.36645
▁وڌائڻ	-9.36711
▁۱	-9.36712
▁مرحل	-9.36792
▁شوق	-9.36827
▁مشڪل	-9.36831
▁انچ	-9.36926
▁اخبار	-9.36928
▁سگھو	-9.37049
2	-9.37094
▁هيه	-9.37148
▁چڪي	-9.37271
▁نھ	-9.37349
▁فڪر	-9.3749
▁ثقافت	-9.37503
▁ڀلي	-9.3755
▁سلم	-9.37556
▁لنڪ	-9.3767
▁ولو	-9.37718
▁خلاص	-9.37738
▁ٽڪر	-9.37754
▁انور	-9.37822
▁سواء	-9.38008
▁اندين	-9.38119
▁جهڙي	-9.38195
▁ڪاري	-9.38285
4	-9.38327
جي	-9.38427
▁سهولت	-9.38433
▁ٿين	-9.38464
▁پريشن	-9.38559
▁جڏھن	-9.38667
▁گذري	-9.3888
▁تخليق	-9.38904
▁عرف	-9.38917
▁ويز	-9.39136
▁وٽي	-9.39217
▁آل	-9.39276
▁ريل	-9.39348
▁تحت	-9.3944
▁عين	-9.39506
▁عتماد	-9.39609
▁رين	-9.39615
▁مهينن	-9.39847
▁وڏا	-9.39856
▁ورٽ	-9.39889
▁ويس	-9.39936
▁kno	-9.39965
▁منزل	-9.39973
▁اااا	-9.40001
▁رجسٽ	-9.40014
▁اڌ	-9.40026
▁اٿ	-9.40075
▁سماني	-9.4009
▁ٺا	-9.40098
▁توانا	-9.4013
اندا	-9.40185
▁رستي	-9.40191
▁زم	-9.40336
ير	-9.40336
▁بغ	-9.40398
▁شڪ	-9.4042
▁رڪارڊ	-9.40441
▁وغيره	-9.40452
▁يات	-9.40564
▁co	-9.40657
▁ْ	-9.40689
▁غور	-9.40758
▁چيزي	-9.40769
▁يئر	-9.40775
▁ورن	-9.40831
▁رح	-9.40965
▁يسٽ	-9.40971
▁ٻڌائي	-9.40985
▁سڀئي	-9.40998
▁ايج	-9.4101
▁ننڊ	-9.41112
▁امهون	-9.41165
▁مره	-9.41232
▁سب	-9.41277
▁شد	-9.41283
▁لکيل	-9.41295
▁اکيون	-9.41297
▁ڏين	-9.41301
▁سپتال	-9.41399
▁li	-9.41407
▁نقش	-9.41408
▁مسلسل	-9.4152
▁گاڏي	-9.41521
▁مه	-9.41552
▁مگر	-9.41587
دست	-9.41613
▁رس	-9.41648
▁مڃ	-9.41704
▁يع	-9.41709
▁ٻڌائ	-9.41711
▁بجلي	-9.41764
▁ليکڪ	-9.41794
x	-9.41821
▁هئڻ	-9.41884
▁اهميت	-9.41919
▁يراني	-9.42045
▁حسن	-9.42068
▁رکو	-9.42167
id	-9.42225
▁شكل	-9.42267
▁مڙس	-9.42293
▁شرط	-9.42348
▁ايتري	-9.42496
▁مقامي	-9.42518
▁رقرار	-9.42611
▁لحاظ	-9.42611
▁ائو	-9.42855
▁قرآن	-9.42856
▁لڳ	-9.42865
▁سگھ	-9.43097
▁زر	-9.43289
▁نس	-9.43293
▁جت	-9.43295
▁وڃو	-9.43302
▁هيا	-9.43323
▁بدل	-9.43343
▁عشق	-9.43349
▁طبق	-9.43353
لا	-9.43433
▁ارفين	-9.43468
▁يب	-9.43481
▁پھ	-9.43523
▁شن	-9.43792
▁ائل	-9.43794
▁نيا	-9.43794
▁مم	-9.43821
▁لائين	-9.43829
▁حيرت	-9.43838
▁واقع	-9.43838
▁موقعو	-9.4384
▁داشت	-9.43841
▁فكر	-9.43934
يشڪ	-9.43987
ائر	-9.44042
▁نتظام	-9.44084
▁اعليٰ	-9.44084
▁سار	-9.44176
▁ويه	-9.44177
।	-9.44208
▁وجه	-9.44271
▁ڪڍ	-9.44292
▁نم	-9.44347
▁F	-9.4437
▁18	-9.44386
▁اچو	-9.44449
▁هيءُ	-9.44458
ے	-9.44523
▁اسڪ	-9.44523
▁قلب	-9.44554
▁فصل	-9.4458
▁وسار	-9.44581
▁وقف	-9.44633
▁رٽيڪل	-9.44704
▁عنصر	-9.44704
▁آڻڻ	-9.44709
▁re	-9.44734
▁انڊ	-9.44784
▁11	-9.44831
▁اڻڻ	-9.44832
▁ناڪام	-9.44836
▁اڙ	-9.44855
▁اڻو	-9.44949
▁قرض	-9.44962
▁رهن	-9.44993
وز	-9.45067
▁M	-9.45151
▁فائل	-9.45175
▁ايڇ	-9.45182
▁ڏيندا	-9.45186
▁سميت	-9.45271
▁ٺاهيو	-9.45315
▁واڌ	-9.45341
▁نيڪ	-9.45365
▁شڪر	-9.45458
▁جهڙو	-9.4555
▁نِ	-9.45655
▁ااا	-9.45683
▁گراف	-9.45687
▁پوئتي	-9.45706
▁ليٽ	-9.45885
▁اد	-9.45894
▁پار	-9.45905
▁tex	-9.45968
▁~	-9.45975
▁راه	-9.45985
▁وائرس	-9.45992
▁نسي	-9.46032
▁هلند	-9.46033
▁نہ	-9.46167
▁ريڊ	-9.46172
▁قد	-9.46274
▁جز	-9.46293
▁اڃان	-9.46307
▁يڪس	-9.4633
1	-9.46352
ني	-9.46384
▁ورا	-9.46691
▁مصنو	-9.46745
▁اتو	-9.46789
▁ڪارو	-9.46795
▁ڇڏ	-9.46904
re	-9.4692
▁مب	-9.46941
▁سن	-9.46944
▁ائڻ	-9.46976
▁ڪنڊ	-9.4698
▁ڪٽ	-9.47049
▁ڏکڻ	-9.47157
▁مجهيو	-9.47225
▁اق	-9.47231
▁عجيب	-9.47354
▁آساني	-9.4737
▁متحان	-9.47484
▁شايع	-9.47485
▁بغير	-9.47512
▁يسي	-9.47552
▁يج	-9.47575
▁مسئلن	-9.47622
▁اً	-9.47673
▁روس	-9.4771
▁اچ	-9.47856
▁ڏينھن	-9.47865
▁چيني	-9.4789
▁اهيان	-9.47943
وا	-9.48075
▁درست	-9.48082
بي	-9.48101
▁اجلاس	-9.48126
▁50	-9.4819
▁يورپي	-9.48325
▁حوال	-9.48379
▁نسٽال	-9.48513
▁ظ	-9.48553
لو	-9.48575
▁مسئل	-9.48731
▁رکند	-9.48739
▁٪	-9.48767
▁طلع	-9.48788
▁ذات	-9.48851
▁ماه	-9.48896
▁منظور	-9.48898
▁وڪي	-9.48912
▁امان	-9.48985
▁بندي	-9.49049
▁اتر	-9.49071
▁ايمان	-9.49109
▁ميمبر	-9.49167
▁چور	-9.49275
▁ڳولڻ	-9.49348
▁nt	-9.49442
▁الڳ	-9.49484
▁براي	-9.49489
▁ارن	-9.49535
▁اه	-9.49674
▁تحفظ	-9.49681
▁ڪَ	-9.49806
▁وانا	-9.49918
▁بئنڪ	-9.49942
▁اث	-9.49945
▁مق	-9.50074
▁پهر	-9.50095
▁بچ	-9.50245
▁جيان	-9.50259
▁ڊيز	-9.50316
▁چر	-9.504
▁سير	-9.50456
▁وحد	-9.50488
▁قسمن	-9.50509
▁مقدار	-9.50602
▁جذب	-9.50723
▁ره	-9.50856
▁ٽيسٽ	-9.50897
▁رهند	-9.50927
▁خالي	-9.50993
▁عوامي	-9.51006
▁طلب	-9.51016
▁ڀارت	-9.51026
▁لال	-9.51046
▁تف	-9.51075
▁سماج	-9.51151
▁قدرتي	-9.51174
▁وهه	-9.51264
▁زن	-9.51266
▁ايون	-9.5132
▁And	-9.51411
▁کن	-9.51438
▁جاچ	-9.51629
▁خرڪار	-9.51663
la	-9.51677
▁ورتي	-9.51683
▁ch	-9.51698
رواز	-9.51779
▁ادارن	-9.518
▁پراڻي	-9.51904
▁en	-9.51989
▁حڪمت	-9.51992
▁ادري	-9.52061
▁انس	-9.52061
▁دشمن	-9.52064
▁ريٽ	-9.5213
ابط	-9.52169
▁ريا	-9.52193
▁هفت	-9.52196
٪	-9.52198
▁هوٽل	-9.52236
▁پوندي	-9.52237
▁شخصيت	-9.52242
▁مهم	-9.52337
▁ڪندس	-9.52349
▁O	-9.52415
▁ائسنس	-9.526
▁صور	-9.52613
▁ڏيندي	-9.5263
▁ly	-9.52632
▁كن	-9.52632
ؤ	-9.52654
▁ماڻھو	-9.52727
▁ئب	-9.52831
▁اظهار	-9.5287
▁هجن	-9.52883
A	-9.52926
▁يدار	-9.52986
3	-9.53021
نا	-9.53099
▁طيب	-9.53166
▁هت	-9.53257
▁رابطو	-9.53265
▁وات	-9.53435
▁de	-9.53438
▁وسيع	-9.53438
▁ينل	-9.53504
وس	-9.53523
▁ننڍي	-9.53563
▁سعودي	-9.53656
▁اچن	-9.53746
▁دان	-9.53777
▁ساڳيو	-9.53811
▁شعور	-9.53819
▁سڌو	-9.53858
▁وج	-9.53865
▁شما	-9.54043
▁ڪسٽم	-9.54093
▁اخر	-9.54182
ذ	-9.54233
▁مذهب	-9.54238
▁حلوه	-9.54395
▁عبدا	-9.54433
▁لڳند	-9.54471
▁عياري	-9.54509
▁سڏيو	-9.54567
▁100	-9.5457
▁هڙ	-9.54622
ڇ	-9.5466
▁تم	-9.54666
▁ساد	-9.5468
▁ترجم	-9.54729
▁برا	-9.54745
ٽو	-9.54853
▁گرد	-9.54865
ئي	-9.54901
▁مذهبي	-9.54907
▁أن	-9.5492
▁25	-9.5494
▁شاگرد	-9.55054
▁nd	-9.55063
▁گاه	-9.55144
▁يك	-9.55147
▁تجرب	-9.55159
▁مهيني	-9.55195
▁ٿوري	-9.55223
▁ويڊيو	-9.55332
بل	-9.5537
▁K	-9.55488
▁ايد	-9.55544
▁ti	-9.55611
▁انجام	-9.55615
▁مخ	-9.55742
▁انصاف	-9.55746
▁شاهه	-9.55754
▁14	-9.55759
▁ساڳئي	-9.56025
▁آسمان	-9.56029
▁اسپين	-9.56068
▁ڪام	-9.56077
▁خيلي	-9.56181
▁رسم	-9.56349
ڻي	-9.56431
▁گھرجي	-9.5654
▁خاموش	-9.56586
▁چنڊ	-9.56697
▁ٽرين	-9.56798
▁ڊجيٽل	-9.56865
▁يول	-9.56884
▁In	-9.56903
▁دڪان	-9.57006
▁هست	-9.57055
▁اذا	-9.5713
▁هور	-9.5715
▁جنم	-9.5717
▁پويان	-9.57203
▁مارچ	-9.57213
▁حصن	-9.57225
يت	-9.57255
▁ايئن	-9.57336
▁روسيس	-9.57351
▁گڏجي	-9.57352
▁نما	-9.5738
▁جموعي	-9.57429
▁سٽيشن	-9.5743
▁حتجاج	-9.5757
▁com	-9.57571
▁ڪيترو	-9.57659
▁مار	-9.57723
▁يهي	-9.57798
▁na	-9.57924
▁ڊپ	-9.57993
▁ممكن	-9.57995
▁عيس	-9.58064
▁معاش	-9.58101
▁منظم	-9.58138
▁ريشن	-9.58234
▁سڄ	-9.58276
▁لباس	-9.58289
▁دستا	-9.5829
▁ڪپڙ	-9.58377
▁ڪلو	-9.58419
▁لوڪ	-9.5842
▁فطرت	-9.58423
▁دخل	-9.58435
▁عمارت	-9.5845
▁سياحت	-9.5849
▁آهنگ	-9.58547
▁رف	-9.58573
▁ڄاڻي	-9.58577
▁ڪورٽ	-9.58587
▁ڪيم	-9.58592
▁سم	-9.58606
▁ورڊ	-9.58625
▁ڀا	-9.5863
▁راضي	-9.5885
▁نمائ	-9.58939
I	-9.5899
▁تحريڪ	-9.58995
▁مهوري	-9.58999
▁مئي	-9.59047
▁اڪيلو	-9.59061
▁ڪٽوبر	-9.5914
▁چيڪ	-9.59219
▁وز	-9.59224
▁اشارو	-9.59225
▁لين	-9.59251
▁نت	-9.59294
▁ni	-9.59353
▁جر	-9.59358
▁ملائ	-9.59443
▁سگ	-9.59444
▁يف	-9.59456
هو	-9.596
▁رن	-9.59625
▁st	-9.59645
▁ادبي	-9.59647
سخ	-9.59756
▁جنسي	-9.59831
▁عمولي	-9.59862
▁پشن	-9.59881
▁لق	-9.60009
▁صدق	-9.6002
▁معني	-9.60068
▁سوچي	-9.60083
▁باغ	-9.60141
▁برانڊ	-9.60162
▁سزا	-9.60181
▁معنيٰ	-9.60296
▁طابقت	-9.60296
▁چيز	-9.60401
▁هُو	-9.60418
▁ٽيڪس	-9.60425
▁ماهر	-9.60467
▁قسمت	-9.6047
▁نماز	-9.60483
▁وو	-9.60688
▁ميان	-9.60724
▁بدران	-9.60742
▁ويند	-9.60761
▁فقير	-9.60763
▁ائپ	-9.60763
▁جميل	-9.60766
▁موٽر	-9.60777
▁پٿر	-9.60833
▁عقل	-9.6088
▁ايندا	-9.60907
▁وڙه	-9.60918
▁فل	-9.60921
▁حرف	-9.60932
▁فوت	-9.60933
▁تعريف	-9.61026
▁طريقا	-9.61038
ra	-9.61087
▁on	-9.61144
▁چڱو	-9.61157
▁هع	-9.61201
▁يڪل	-9.61205
▁سول	-9.61247
▁اكل	-9.6144
▁H	-9.61451
▁تجزيو	-9.61475
▁روپ	-9.61555
▁ماپ	-9.61618
▁مذ	-9.61664
L	-9.61698
▁گيت	-9.61735
▁عند	-9.6177
أ	-9.61798
▁پرس	-9.61965
▁گهربل	-9.61967
▁تش	-9.61981
▁كنت	-9.61984
▁نشاني	-9.61989
▁لب	-9.61996
▁کليل	-9.62021
▁نءَ	-9.62057
▁سيڙپ	-9.62057
▁ڪرائي	-9.62081
▁دٻ	-9.62214
ائي	-9.62215
▁pp	-9.62234
وٿ	-9.62249
▁زير	-9.62256
پر	-9.62438
▁پٽمبر	-9.62504
▁mi	-9.62521
▁سيريز	-9.62656
▁يلا	-9.6269
▁اڪ	-9.62706
اد	-9.62735
▁پرائ	-9.62879
▁گراهڪ	-9.6295
▁لاس	-9.62953
▁عزيز	-9.62956
▁نواز	-9.62967
▁ڪڍي	-9.63001
▁وڃائ	-9.63058
▁آدم	-9.63145
▁يمبلي	-9.63248
▁ماري	-9.63326
▁1.	-9.63335
ڪو	-9.63338
▁سمارٽ	-9.634
▁سٺ	-9.63493
▁ھئي	-9.6352
▁بحال	-9.63561
▁ادر	-9.63594
▁كتب	-9.63729
▁the	-9.63729
▁مھ	-9.63764
▁راج	-9.63792
▁عنوان	-9.63849
▁اط	-9.63928
▁ھاڻي	-9.63948
▁تبادل	-9.64001
▁موٽي	-9.64024
▁پول	-9.6408
▁گذاري	-9.64121
▁وسيقي	-9.64152
ri	-9.64216
▁is	-9.64389
▁ll	-9.64391
▁ڪاليج	-9.64456
▁ابي	-9.64561
▁بھ	-9.64569
▁جائزو	-9.64586
▁ملازم	-9.64607
▁tion	-9.64608
▁گه	-9.64618
▁شهري	-9.64705
▁ٿر	-9.64795
▁ڪتابن	-9.6483
▁خخخ	-9.64913
▁طريقن	-9.64962
▁نوان	-9.64964
▁واپسي	-9.64988
▁ميز	-9.65043
▁se	-9.65062
▁جاڳ	-9.65077
▁پئسا	-9.65181
▁حيران	-9.65215
▁سفارش	-9.65226
G	-9.6524
▁Ma	-9.65382
▁ستي	-9.65389
▁چو	-9.6544
▁يورو	-9.65451
▁ديد	-9.65561
▁شمار	-9.65575
▁فوٽو	-9.65619
▁ٽيلي	-9.65633
▁الص	-9.65646
▁آبادي	-9.65646
▁ڏانھن	-9.65674
▁ارڻ	-9.65707
▁يڙ	-9.65766
▁انعام	-9.6583
▁فوري	-9.65882
▁جنرل	-9.65984
▁جيترو	-9.6599
▁اتفاق	-9.65991
▁زخمي	-9.66049
▁الف	-9.66099
▁بونس	-9.66165
▁ائيڪل	-9.66193
▁هتا	-9.66261
▁يري	-9.66293
▁تار	-9.6636
▁تني	-9.66398
▁عليها	-9.66425
▁قص	-9.6644
▁ڪرائڻ	-9.66466
▁مني	-9.66485
▁جمل	-9.66571
▁قال	-9.66601
▁يال	-9.66632
▁اعت	-9.66642
▁ايان	-9.66674
▁دون	-9.66735
دي	-9.66757
▁شهيد	-9.66765
سپ	-9.66782
▁نگن	-9.66824
▁تنھن	-9.66836
▁فرد	-9.66839
▁دورو	-9.66842
▁حبيب	-9.66927
▁يٽنگ	-9.6693
ڌر	-9.66992
▁مشتمل	-9.67065
▁ڪلاس	-9.67109
▁u	-9.67144
▁اڙي	-9.67268
▁حاج	-9.67273
▁ترجمو	-9.67277
▁@	-9.67382
▁ئٽ	-9.67515
▁لله	-9.67529
▁ارسال	-9.67541
▁ليڪ	-9.67683
▁ويهي	-9.67733
▁چوندا	-9.67776
▁نيست	-9.67798
▁انڪار	-9.67816
▁قيام	-9.67858
▁فن	-9.67858
▁اليسي	-9.67865
▁ووو	-9.67886
▁ٽين	-9.67889
▁جنيئر	-9.68004
▁امڪان	-9.68007
نج	-9.68109
اي	-9.68249
▁ڪانه	-9.68336
▁روشن	-9.68374
▁يها	-9.68463
▁کاڌ	-9.68467
▁۔۔۔	-9.68476
▁روي	-9.68529
▁ڏيئي	-9.68616
▁خاطر	-9.68634
▁چارج	-9.68644
▁وطن	-9.6878
▁ra	-9.68827
▁رکندڙ	-9.68832
▁vi	-9.68906
▁يڊيا	-9.68934
▁ڀيرا	-9.69016
▁ٽيبل	-9.69023
▁آگسٽ	-9.6911
▁آرڊر	-9.69116
▁ٻڌو	-9.69121
▁وند	-9.69217
▁ائن	-9.69382
▁رھ	-9.69407
▁پائ	-9.69413
▁ثاني	-9.69431
▁سوچڻ	-9.69511
▁آفيسر	-9.6957
▁تربيت	-9.69587
▁ڪِ	-9.69607
▁ساٿ	-9.69627
▁هار	-9.69676
▁ئيگي	-9.69696
▁يونٽ	-9.69754
▁سلامت	-9.69784
▁هچائڻ	-9.69907
▁راءِ	-9.6991
▁اضافو	-9.69923
▁16	-9.69955
▁پرست	-9.6996
يس	-9.69965
َ	-9.69983
▁ايش	-9.70003
▁تيل	-9.7002
▁13	-9.70077
▁کڻڻ	-9.70078
▁نبي	-9.70143
▁واقف	-9.70389
▁وزيشن	-9.7039
▁دائين	-9.70469
▁امر	-9.70512
▁ملڪيت	-9.70526
▁وه	-9.70551
▁ation	-9.70711
▁شوي	-9.70753
▁اره	-9.70816
▁وهي	-9.70822
▁ٽيون	-9.7084
▁ايشيا	-9.70888
ته	-9.70895
▁كلام	-9.70915
اف	-9.70952
▁كيف	-9.70969
▁ونڊوز	-9.71211
▁ريد	-9.71225
▁ڀلا	-9.71232
▁سڃاڻپ	-9.71236
▁سمجهڻ	-9.71321
▁فرض	-9.714
▁سڃاڻ	-9.71481
▁وان	-9.7153
▁ڀريل	-9.7156
▁24	-9.7157
▁امين	-9.71624
▁اما	-9.71626
▁نيم	-9.71655
▁وصول	-9.71687
▁تل	-9.71765
▁عل	-9.71801
▁روئ	-9.71848
▁صفحا	-9.71862
▁فتح	-9.71871
▁ورها	-9.71877
▁دليل	-9.7196
▁رحم	-9.71968
▁حمايت	-9.72012
▁جاء	-9.72049
▁يگر	-9.7208
▁ليگ	-9.7209
▁جنس	-9.72126
▁يمكن	-9.72175
▁يٺل	-9.72203
▁ربي	-9.72331
▁سبق	-9.72532
▁رهندا	-9.72631
▁دريا	-9.72638
▁وڊ	-9.72705
▁کٽ	-9.72774
▁ريح	-9.72819
▁رائيڊ	-9.72859
▁عهد	-9.72873
▁؟؟	-9.73014
▁ect	-9.73019
▁مڇي	-9.73091
▁رابطي	-9.73105
▁اداري	-9.73186
▁بئي	-9.73285
▁مها	-9.73332
▁mp	-9.73357
▁ساٿي	-9.73396
▁محن	-9.73399
▁رائيو	-9.73407
▁زنده	-9.73419
▁ؤ	-9.73491
▁عامل	-9.73496
▁سپ	-9.73568
6	-9.73635
▁پَ	-9.73645
▁وسيل	-9.73677
▁سگھجي	-9.73787
▁شده	-9.73803
▁نكت	-9.73854
▁ba	-9.73908
▁جنوري	-9.73994
▁هلا	-9.74035
▁گزارش	-9.74174
▁مسئلا	-9.74288
▁وڪليو	-9.74331
▁يورٽي	-9.74332
▁صف	-9.74368
▁رر	-9.74403
O	-9.74507
▁انك	-9.74539
▁ياس	-9.74643
▁گري	-9.74657
▁رسال	-9.74668
▁احمد	-9.74687
مي	-9.74697
▁عندي	-9.74796
▁ta	-9.74803
▁رآمد	-9.7483
▁نومبر	-9.74833
▁جه	-9.74879
▁17	-9.74912
▁هوائي	-9.74939
▁ممم	-9.74956
▁تجويز	-9.75
▁مکيه	-9.75013
▁نار	-9.75014
▁رسيد	-9.75111
▁مور	-9.75124
▁ائلون	-9.75204
▁تعرف	-9.75207
▁لسٽ	-9.75339
le	-9.75355
▁ماضي	-9.7538
▁آآ	-9.75417
▁ڌر	-9.75436
▁خوا	-9.75469
▁موقعي	-9.75497
▁اپڊيٽ	-9.75505
▁هليو	-9.75576
▁تاج	-9.75632
▁^	-9.75687
▁يخ	-9.757
▁نج	-9.7577
▁انو	-9.75777
▁ريان	-9.75828
▁شتهار	-9.75852
T	-9.75866
▁ڇڪ	-9.75995
▁هلائڻ	-9.76023
▁پوک	-9.7604
▁يٽر	-9.76199
▁ٻڌل	-9.76267
▁حالا	-9.76275
هه	-9.76281
▁وفا	-9.7633
▁حادث	-9.76355
▁ion	-9.76365
▁me	-9.76369
▁رام	-9.76384
▁خون	-9.76466
▁گھڻو	-9.76525
▁ڀڳ	-9.76528
▁ساز	-9.76577
▁جلس	-9.76618
▁زمر	-9.76627
▁دري	-9.76643
▁نڊي	-9.76678
▁شاه	-9.76717
▁جد	-9.76725
▁رسول	-9.76739
▁اسم	-9.76751
▁طريق	-9.7677
▁نڪر	-9.76825
ئو	-9.76846
ڪا	-9.76867
▁طلاق	-9.76872
▁sh	-9.76919
▁لنڊن	-9.76933
▁آس	-9.76998
▁جهان	-9.77026
▁ولڊ	-9.77096
▁N	-9.77105
▁سنڏ	-9.77236
▁وارڊ	-9.77274
R	-9.77357
▁سازي	-9.77426
▁هئس	-9.7745
▁ناول	-9.77468
▁پيٽ	-9.77489
▁أنا	-9.7755
▁هوش	-9.77583
ھڙ	-9.77584
ې	-9.77597
▁قوت	-9.77623
▁ca	-9.77625
▁لح	-9.77663
▁شتي	-9.77682
▁ارد	-9.77684
▁جيل	-9.77702
▁مردن	-9.77715
▁الزام	-9.77732
▁ڇوڪر	-9.77747
▁قتصاد	-9.77905
▁لانچ	-9.77914
▁تخ	-9.77938
▁تج	-9.78053
▁40	-9.78061
▁مجبور	-9.78078
▁Co	-9.7812
وت	-9.78135
▁نز	-9.78171
▁pa	-9.78172
▁دهشت	-9.78257
▁تاب	-9.78291
▁ناهن	-9.78292
▁ce	-9.78294
▁ستر	-9.78352
▁کوٽ	-9.78371
▁ma	-9.78402
▁هوء	-9.78426
▁كثر	-9.78427
▁گز	-9.78469
▁ڊزائن	-9.78484
▁هيٺين	-9.78543
▁وره	-9.78561
▁حاضر	-9.78601
▁ليڪٽر	-9.78613
؛	-9.78643
▁لف	-9.7874
▁ڪميشن	-9.78777
▁ڀاءُ	-9.78777
▁نڪ	-9.78807
▁ڪپ	-9.78824
پريٽ	-9.78906
▁بتد	-9.78927
▁بلڪ	-9.7897
▁زارين	-9.79084
E	-9.79153
▁پارڪ	-9.79229
▁هڻ	-9.7931
▁يهم	-9.79338
▁سرور	-9.79341
▁اوڀر	-9.7935
▁ڪانهي	-9.79382
▁مج	-9.79407
▁سينٽر	-9.79425
▁تازو	-9.79476
▁وائنٽ	-9.79486
▁لن	-9.79581
▁بڪ	-9.79608
▁دعو	-9.79639
▁پناه	-9.79719
بر	-9.79761
▁عربي	-9.79852
▁ٽنگ	-9.79944
▁ردو	-9.79993
▁ذريع	-9.80004
▁ساري	-9.8003
سرائ	-9.8007
▁ٌ	-9.80377
▁ٻيون	-9.80461
▁پرين	-9.80472
▁هندو	-9.80526
▁مهور	-9.80568
▁الحال	-9.80609
▁عنى	-9.80625
▁مک	-9.80631
▁وفات	-9.80675
▁يچر	-9.80757
▁نمون	-9.8076
▁ويجه	-9.80763
▁اون	-9.80793
▁عطي	-9.80874
▁سيد	-9.80897
▁نگران	-9.80911
ٻ	-9.80925
▁ينا	-9.80951
▁فا	-9.80974
▁بہ	-9.8106
▁لعب	-9.81086
▁سکڻ	-9.81112
ll	-9.8114
▁ڪمزور	-9.81256
▁ضحكت	-9.81285
▁قابلو	-9.81299
نٽر	-9.81384
▁راڊڪٽ	-9.81439
▁قطع	-9.81452
▁هنگ	-9.81541
▁نر	-9.81568
▁تعاون	-9.81619
▁ڀري	-9.81674
▁نظم	-9.81676
▁ڪانگ	-9.81712
▁رهيون	-9.81716
▁ظا	-9.81732
▁ss	-9.81807
▁هند	-9.81838
▁اڳي	-9.81891
▁ينس	-9.82001
▁ريو	-9.82048
▁كه	-9.82052
▁ناس	-9.82063
▁بک	-9.82093
▁يلو	-9.82097
▁الع	-9.82111
▁اتحاد	-9.8216
▁ڪرايو	-9.82164
▁ميگ	-9.82171
▁الو	-9.82176
▁سائيز	-9.82183
▁ويٺو	-9.82184
▁مئ	-9.82208
▁ويد	-9.82249
▁يمبرن	-9.82257
▁ڊسمبر	-9.82338
▁نسان	-9.82461
▁وفاقي	-9.82467
▁پٺيان	-9.8252
▁آيل	-9.82524
M	-9.82567
▁L	-9.82598
▁X	-9.8264
▁وِ	-9.82644
▁واقعا	-9.82683
▁گڏوگڏ	-9.82701
▁ڏکيو	-9.82773
يڙه	-9.82786
▁ڪاس	-9.82863
▁زاحمت	-9.82883
▁موقع	-9.82892
▁يڏو	-9.8293
▁رکن	-9.82932
B	-9.82938
▁ارٽ	-9.82985
▁باهه	-9.8312
▁نتيجو	-9.8313
▁صير	-9.83164
▁پيروي	-9.83175
▁وهين	-9.832
ما	-9.83247
▁نتظر	-9.83249
▁نقل	-9.8326
▁ئنات	-9.83265
▁وائس	-9.83279
▁جج	-9.83313
▁منس	-9.83323
▁حنا	-9.83351
▁لڪ	-9.83361
▁ينٽ	-9.83419
▁بقى	-9.8344
▁ha	-9.83465
S	-9.83611
▁بعض	-9.83617
▁گرام	-9.8362
ينئر	-9.83632
تر	-9.8367
هرين	-9.8367
▁نگار	-9.83678
▁رُ	-9.83708
▁اقت	-9.83753
▁كون	-9.83804
▁مريض	-9.83813
▁عاد	-9.83826
▁اقول	-9.83858
▁وٺو	-9.83871
▁نصوبي	-9.83984
▁شرڪت	-9.84005
▁بم	-9.84038
▁تس	-9.84124
▁اُهي	-9.84181
▁ريڪٽر	-9.84209
▁محل	-9.84311
▁تجربي	-9.84334
▁وزارت	-9.84353
▁day	-9.84363
▁شير	-9.84376
▁وير	-9.84479
▁تڪليف	-9.84538
▁اپريل	-9.84539
▁تسليم	-9.84554
▁بردار	-9.84571
▁معا	-9.8464
▁علامت	-9.84649
نڊ	-9.84697
▁ڪال	-9.84703
▁روڪي	-9.84833
▁شهرن	-9.84896
▁دارن	-9.84897
▁پارٽ	-9.84913
▁يشه	-9.84918
▁بنت	-9.84932
▁نالا	-9.84949
▁لات	-9.84954
▁درس	-9.84968
▁مشور	-9.84992
▁ڳاڙ	-9.85016
▁ناڪ	-9.85022
▁هاءِ	-9.85101
▁ٽڪ	-9.85217
▁رڏيهي	-9.85282
▁ڪلهه	-9.85305
▁۲	-9.85308
▁ووٽ	-9.85325
عقيد	-9.85332
▁مزو	-9.85392
▁مدير	-9.85393
▁هندي	-9.85413
▁احد	-9.85425
▁جذبات	-9.85481
z	-9.85592
▁اٿم	-9.85603
▁نرم	-9.85607
▁وندا	-9.85674
▁تقول	-9.85675
▁اخت	-9.85697
▁انٽ	-9.85713
▁اصلا	-9.85781
▁زي	-9.85784
▁وڌو	-9.85787
▁Mi	-9.85807
▁19	-9.85854
▁پئج	-9.85891
▁وك	-9.85911
▁بگ	-9.85934
▁انڪ	-9.86011
▁هيس	-9.86033
▁واهه	-9.86033
ٹ	-9.86094
▁ڏسندا	-9.86115
▁سلسلو	-9.86169
▁اقتور	-9.86237
▁مينهن	-9.8625
▁توڙي	-9.86331
▁نان	-9.86343
▁جھ	-9.86381
▁داڪار	-9.86415
سٽ	-9.86462
▁نگاه	-9.86531
▁صار	-9.8656
▁اڳوڻي	-9.86597
▁چائي	-9.86656
▁سٽر	-9.86747
▁نڪت	-9.86754
▁ويچار	-9.86792
▁ورونا	-9.86793
ُ	-9.868
▁شراب	-9.86816
▁ارب	-9.86834
▁لطف	-9.86977
▁بچائڻ	-9.86986
▁ينج	-9.87012
▁تاز	-9.87015
▁کار	-9.87036
▁کائي	-9.87212
▁مِ	-9.87236
▁آھيان	-9.87262
▁يره	-9.87316
▁مؤ	-9.87345
▁بيڪ	-9.87347
ڀر	-9.87469
▁اٽ	-9.87536
▁ليا	-9.87697
▁خواهي	-9.87717
▁اوي	-9.87772
▁اطم	-9.87861
▁ڪوٽ	-9.87861
▁جرمني	-9.87982
▁>>	-9.88135
▁پاڙ	-9.88137
▁اسٽيٽ	-9.88149
▁زار	-9.88153
▁عد	-9.88158
وي	-9.88228
ِه	-9.88254
▁ڳوڙ	-9.88282
ٽي	-9.88294
▁يقول	-9.88324
▁مرڪ	-9.88324
▁امداد	-9.88325
نس	-9.88453
▁la	-9.88492
▁پريس	-9.88496
▁نفرنس	-9.88509
▁لازم	-9.8856
▁تازه	-9.88687
▁گفتگو	-9.88705
▁چوڌ	-9.88707
▁ڀل	-9.88764
▁ڊوڙ	-9.8881
▁گهرجن	-9.88857
▁چپ	-9.88879
▁پکي	-9.88881
▁ودڪار	-9.88898
▁باس	-9.88898
▁ناز	-9.8891
▁فعل	-9.88935
رڙ	-9.88937
▁رنس	-9.89007
ض	-9.89031
▁وتي	-9.89126
▁جانور	-9.89156
▁اھ	-9.89163
▁ايا	-9.89173
▁ڪاپي	-9.89193
▁هذه	-9.892
▁لون	-9.89205
▁ڇڏيا	-9.8924
▁مثبت	-9.89284
8	-9.89336
بو	-9.89354
▁خدمتن	-9.89442
▁روايت	-9.89504
▁واني	-9.89506
▁قيمتي	-9.89538
يدوا	-9.89591
▁ترا	-9.89614
▁فته	-9.89647
▁ورد	-9.89692
ود	-9.8974
▁سِ	-9.89747
▁قلم	-9.89758
▁ھا	-9.89772
▁نوع	-9.89815
▁وائي	-9.89831
▁اڻن	-9.8992
▁Ca	-9.89939
▁نصوبو	-9.90063
▁سؤ	-9.90068
▁آمدني	-9.90072
يد	-9.90074
▁غم	-9.90108
▁مصر	-9.90127
▁شيئر	-9.90165
▁مهل	-9.90193
▁ميڪ	-9.9025
▁اطلاع	-9.90259
▁بروري	-9.90284
▁نَ	-9.90298
▁ڪنار	-9.90315
▁لهه	-9.90417
▁گھڻ	-9.90444
▁ورلڊ	-9.90469
▁فٽبال	-9.90471
▁رٽ	-9.9055
▁si	-9.90691
▁ڪوئي	-9.90703
▁ردن	-9.9073
▁وڪيل	-9.90733
▁ct	-9.90742
▁ڙو	-9.90788
▁منع	-9.90827
عترا	-9.90846
▁چمڪ	-9.90895
▁والد	-9.90903
▁سته	-9.91056
▁ماڻھ	-9.91062
▁يڪر	-9.91063
▁نفرت	-9.91079
▁يور	-9.91152
▁ساهه	-9.91176
▁ٺ	-9.91206
▁2.	-9.91254
▁يائون	-9.91255
▁فخر	-9.91269
▁وجهي	-9.91333
▁شكله	-9.91336
▁دمتون	-9.91444
▁ڊسٽري	-9.91444
له	-9.91509
▁تت	-9.91617
▁سڌي	-9.91642
▁جيڪٽ	-9.91642
▁دشاهه	-9.91642
▁ردي	-9.91643
▁بلوچ	-9.91653
▁گو	-9.91688
▁تهيه	-9.91699
▁اك	-9.91772
▁يست	-9.91791
ne	-9.91878
▁ولهه	-9.91893
▁ينه	-9.91996
▁اءَ	-9.92047
غ	-9.92126
▁ليڪشن	-9.92247
▁هلندڙ	-9.92293
▁ers	-9.92318
▁شان	-9.92326
▁t	-9.92338
▁no	-9.92443
▁<<	-9.92443
▁so	-9.92458
▁وئ	-9.92464
▁or	-9.92484
▁بيس	-9.92565
▁دعوت	-9.92582
▁چرچ	-9.92595
▁ود	-9.92631
▁ديگر	-9.92653
▁آمد	-9.92655
▁ڊيم	-9.92665
▁حقن	-9.92821
▁ياري	-9.92826
▁آءُ	-9.92848
ُڌ	-9.92887
▁درجه	-9.92941
▁ترڪي	-9.92948
▁قلت	-9.92965
▁ماء	-9.92965
▁صطلاح	-9.93045
▁ضلع	-9.93046
▁رداشت	-9.93046
▁يءُ	-9.93048
▁متن	-9.93056
F	-9.93094
▁سوا	-9.93156
ڙھ	-9.9316
▁رضا	-9.93213
▁پُ	-9.93229
▁اولاد	-9.93287
▁يكون	-9.93292
▁وڄ	-9.93296
▁فق	-9.93297
▁فائيل	-9.9332
▁رارت	-9.93375
▁ذا	-9.93432
▁مسيح	-9.93472
▁فاد	-9.93488
▁گهڻن	-9.9352
▁پئس	-9.9358
▁ودي	-9.93596
▁سپر	-9.93616
▁هانگ	-9.93695
▁ri	-9.93765
▁ٽرويو	-9.93856
▁آئين	-9.93952
▁رابط	-9.93966
▁ينو	-9.94
▁ضمانت	-9.94061
▁گهه	-9.94085
▁چيست	-9.94096
▁ينسر	-9.94166
▁وصل	-9.94305
▁بازي	-9.94349
▁منجه	-9.94353
▁شت	-9.94462
▁بيٽري	-9.94478
ڪيپ	-9.94517
▁هڪٻئي	-9.94525
▁هفته	-9.94531
▁تھ	-9.94532
▁بلند	-9.94587
▁کل	-9.94648
▁منفرد	-9.94673
تو	-9.94708
▁شب	-9.94788
▁سل	-9.94831
▁راد	-9.94832
▁ريج	-9.94844
▁ٽائ	-9.94866
▁Bi	-9.94954
▁پهتو	-9.95021
▁ڪيلي	-9.95046
▁XNUMX	-9.95084
▁يزبان	-9.95084
▁ٹ	-9.95107
▁پک	-9.95186
▁علام	-9.95205
▁ننڍڙ	-9.95228
▁بڻايو	-9.95293
ڙي	-9.95299
▁پهچڻ	-9.95305
▁ڏيار	-9.95322
▁شتر	-9.95328
▁گروه	-9.95347
▁اٿس	-9.95389
▁ائيڊ	-9.95389
▁ٿڌ	-9.95434
▁يافت	-9.95519
▁نمائش	-9.95545
▁يونين	-9.95584
▁بحالي	-9.95622
▁فائ	-9.95637
▁شور	-9.95735
▁غلام	-9.95735
▁دارو	-9.95779
▁يادت	-9.95811
▁su	-9.9582
▁Ne	-9.95841
▁ٰ	-9.95915
▁مول	-9.95922
▁يکي	-9.95954
▁ٻيڙي	-9.96058
▁نها	-9.96081
▁CO	-9.96135
▁V	-9.96227
▁دام	-9.96248
▁سک	-9.96302
▁ارا	-9.96332
▁طانيه	-9.96336
▁ld	-9.96355
▁رهو	-9.96379
▁ُون	-9.96403
▁ٽائي	-9.9642
▁Re	-9.9644
▁مدا	-9.96465
▁حافظ	-9.96536
▁تحليل	-9.96537
▁پاور	-9.96546
▁مسجد	-9.96547
▁مزح	-9.96553
▁ائونڊ	-9.96557
▁سوار	-9.96567
▁راهيم	-9.96585
▁روف	-9.96624
▁مافي	-9.96638
▁عاملو	-9.96653
▁بدلي	-9.96683
▁عرفت	-9.96754
▁اڻيءَ	-9.9683
▁چيه	-9.96849
▁es	-9.96887
▁ولين	-9.96923
▁ڳن	-9.96928
▁افسوس	-9.96958
اق	-9.97052
▁صفحي	-9.97091
▁کات	-9.97131
▁ليب	-9.9719
▁ex	-9.97198
▁هڻي	-9.97214
▁عليكم	-9.97233
▁حلوة	-9.97234
▁مبر	-9.97325
▁َر	-9.97358
▁نتخاب	-9.97376
▁&	-9.97391
▁ارين	-9.97413
▁کپي	-9.97532
▁ڄاڻا	-9.97585
▁طبيع	-9.97621
▁رفت	-9.97687
▁طول	-9.97717
▁الا	-9.97787
▁وايتي	-9.97801
▁روڪ	-9.97885
▁هنج	-9.97966
▁اوھين	-9.9801
▁عاهدي	-9.9801
▁دوستي	-9.98015
▁مبارڪ	-9.98026
▁نگين	-9.98139
▁گاهي	-9.98207
▁ter	-9.98222
▁اكيد	-9.98229
▁تص	-9.98274
9	-9.98284
▁مرمت	-9.98441
▁{	-9.98441
▁پيئڻ	-9.9852
▁گهڙي	-9.98529
▁الم	-9.98559
▁3.	-9.98585
▁ندازو	-9.9859
▁جوڙجڪ	-9.98649
▁محبوب	-9.98659
▁لكن	-9.98693
▁اؤ	-9.98724
▁مدت	-9.98727
۽	-9.98729
▁ھڙي	-9.98775
وه	-9.9883
▁ذريعو	-9.98874
▁جائز	-9.98901
▁روڪڻ	-9.98909
▁ارك	-9.98932
▁ڇڏڻ	-9.98933
▁رڙ	-9.99101
▁برقي	-9.99185
▁بردست	-9.99205
▁ڊڄ	-9.99241
▁وڌائي	-9.99258
▁يافته	-9.99259
▁روسي	-9.99261
تي	-9.99283
▁رجحان	-9.99291
▁فٽ	-9.99305
▁نيد	-9.99353
▁اڳيون	-9.99443
▁وحاني	-9.99507
▁خلص	-9.99521
▁عشان	-9.99537
▁يئي	-9.99567
▁نتيجا	-9.99613
▁لان	-9.99634
P	-9.99665
h	-9.9986
▁حر	-9.99863
▁كلم	-9.99867
▁اهڙن	-9.99939
▁هيك	-9.99967
▁ڇر	-9.99993
▁خب	-10.0003
▁واب	-10.0007
▁رھيو	-10.001
هر	-10.0011
▁ريلوي	-10.0017
▁رم	-10.0021
▁پيئي	-10.0021
▁لائيٽ	-10.0022
▁شيخ	-10.0025
▁ڏيان	-10.0034
▁پيچيد	-10.0037
▁رڪ	-10.0039
▁ڄم	-10.0039
▁اپل	-10.004
▁کاڌو	-10.0041
▁ملڪي	-10.0045
پو	-10.0052
▁sta	-10.0059
▁تڪرار	-10.0059
▁عراق	-10.0059
پي	-10.006
▁بول	-10.0064
▁21	-10.0065
▁فائدي	-10.0069
▁لآ	-10.0071
▁شھر	-10.0078
▁نى	-10.008
▁اسي	-10.0082
▁خيالن	-10.0085
▁ڪپڙا	-10.0092
▁جادو	-10.0101
▁ڙهندڙ	-10.0104
▁طرز	-10.0105
▁ليو	-10.0107
▁ڷ	-10.0111
▁روزي	-10.0125
ڌ	-10.0126
▁be	-10.0126
▁سرڪار	-10.0128
▁يزر	-10.0136
ڀ	-10.0136
▁نجم	-10.014
▁نب	-10.0141
▁چان	-10.0142
▁سيڪنڊ	-10.0147
▁يارو	-10.015
▁تياري	-10.0155
▁نهار	-10.0157
▁وڊيوز	-10.0157
▁پرت	-10.0158
▁آهست	-10.016
▁il	-10.0163
▁ديس	-10.0167
▁p	-10.017
U	-10.0172
▁يڪنگ	-10.0172
▁گاهه	-10.0175
▁موڙ	-10.0188
يٺ	-10.0188
▁مسلم	-10.0192
▁کلي	-10.0192
▁هيل	-10.0194
ظ	-10.0196
si	-10.0213
▁هارڊ	-10.0214
▁پن	-10.0226
▁ملا	-10.0234
▁عندك	-10.0239
▁وڻي	-10.0243
▁جوان	-10.0247
▁يمپ	-10.0252
▁ربت	-10.0252
▁شفا	-10.0253
▁يرا	-10.0256
▁ولاءِ	-10.0257
▁mo	-10.0261
▁ft	-10.0261
▁يوان	-10.0261
▁يڪٽ	-10.0263
▁لطيف	-10.0279
▁رساله	-10.028
▁موڊ	-10.0281
▁هلڻ	-10.0282
▁واقعن	-10.0284
▁نعم	-10.0287
▁دولت	-10.0287
▁وڃان	-10.0289
▁سينٽ	-10.029
بت	-10.029
▁سگھون	-10.0293
▁جُ	-10.0304
▁شا	-10.0307
▁دوري	-10.0311
▁ڪڻ	-10.0316
▁لائق	-10.032
wa	-10.0323
▁تعجب	-10.0324
▁z	-10.0327
▁يليا	-10.0328
▁ڪهڙا	-10.0329
▁طين	-10.033
▁كي	-10.0334
▁اڻا	-10.0336
▁تبا	-10.0337
▁جهڙا	-10.0337
▁سونهن	-10.0339
▁ڇڙ	-10.034
▁ادي	-10.0344
▁تعليق	-10.0346
▁سنوار	-10.0346
▁نصيب	-10.0348
▁گُ	-10.0351
▁نجھ	-10.0352
▁ٻيٽ	-10.0354
▁آآآ	-10.0356
يٽ	-10.0357
▁ميشه	-10.0357
▁جبل	-10.0362
▁گهرج	-10.0363
▁ائيٽن	-10.0367
▁}	-10.0369
▁تابع	-10.0374
▁وٺن	-10.0385
▁آء	-10.0387
▁رهائش	-10.0391
▁پرواز	-10.0391
▁مصروف	-10.0391
▁ُنهن	-10.0391
▁,,	-10.0397
▁اٺ	-10.0399
▁اٻي	-10.0402
▁بوٽ	-10.0403
▁60	-10.0403
▁پال	-10.0406
▁ارلي	-10.0409
▁سکيا	-10.041
▁پنڌ	-10.0416
▁هائوس	-10.0417
▁سري	-10.042
▁آڇ	-10.0421
▁ڪون	-10.0428
▁قبر	-10.043
▁22	-10.0435
▁سارا	-10.0439
▁ڌڪ	-10.044
▁ائر	-10.0442
▁رچ	-10.0442
▁داخلا	-10.0451
▁ڊيل	-10.0458
▁اوچتو	-10.0461
▁افت	-10.0462
▁نقط	-10.0465
7	-10.0472
▁وف	-10.0476
نسٽا	-10.0478
▁ئونسل	-10.0481
▁qu	-10.0481
▁نڪتو	-10.0482
▁ڏيندڙ	-10.0483
▁دوم	-10.0486
▁لام	-10.0493
▁ڪچ	-10.0499
▁سڪ	-10.0501
f	-10.0504
▁انڊيا	-10.0507
▁فريڪا	-10.0508
▁ھئا	-10.051
▁اکر	-10.051
▁لور	-10.0512
چي	-10.0517
▁وني	-10.0518
▁کوليو	-10.0522
▁انج	-10.0523
▁فاصل	-10.0527
▁انگيز	-10.0532
▁ائم	-10.0532
▁رياضي	-10.0536
K	-10.0536
▁ديو	-10.0539
▁g	-10.055
▁وفيسر	-10.055
▁ُر	-10.0554
▁الس	-10.0563
li	-10.0568
▁آھيو	-10.0576
▁انجڻ	-10.0579
▁كف	-10.0594
▁لاسٽڪ	-10.0595
▁وزاني	-10.0596
▁ڀائر	-10.0597
▁هاڙ	-10.0599
▁روائي	-10.0601
▁ندگي	-10.0605
يز	-10.0605
▁هڙيو	-10.061
▁شعبي	-10.0614
▁لٽي	-10.0614
▁هَ	-10.0616
▁گول	-10.0621
▁U	-10.0621
▁وسي	-10.0622
▁ڦير	-10.0623
شن	-10.0628
▁هيم	-10.0629
▁رکيل	-10.0638
▁لڪا	-10.0642
▁گهرن	-10.0648
▁چيف	-10.0648
▁فورم	-10.0649
▁ااااي	-10.0655
▁حسب	-10.0668
▁پالڻ	-10.0669
▁وائ	-10.067
▁پئ	-10.0671
▁هري	-10.0671
▁ازم	-10.0672
▁con	-10.0673
▁پٽي	-10.0674
▁تري	-10.0676
▁آندو	-10.0678
▁اياز	-10.0679
▁مقصدن	-10.068
▁بررسي	-10.0688
▁ظلم	-10.0688
▁وم	-10.0689
▁إن	-10.0691
▁بيٺو	-10.0692
وش	-10.0693
▁ڪميٽي	-10.0711
▁استح	-10.0712
▁(1)	-10.0713
▁خاني	-10.0713
▁تنگ	-10.0721
▁اٿي	-10.0726
▁ميچ	-10.0729
▁بٽڻ	-10.0733
▁يهه	-10.0743
قاب	-10.0747
ارتي	-10.0751
▁هٿيار	-10.0757
▁ملندي	-10.0758
▁بازار	-10.076
▁ڻيو	-10.0771
▁اڻان	-10.0773
▁لئه	-10.0773
▁سپورٽ	-10.0781
▁حرڪت	-10.0782
▁ضرب	-10.0783
▁فين	-10.0784
اڻ	-10.0785
▁طالب	-10.0787
▁باز	-10.079
▁وسو	-10.0794
▁زيد	-10.0797
▁علا	-10.0797
کي	-10.0798
▁خطر	-10.0798
راح	-10.0799
▁شنگ	-10.0799
▁قاض	-10.0806
▁ميوزڪ	-10.0808
▁کرد	-10.0808
▁رٿ	-10.0818
▁ويت	-10.0818
▁حملو	-10.0827
▁ڀرسان	-10.0828
▁فيشن	-10.0828
▁ائش	-10.0831
▁خبرون	-10.0831
▁ڪڙ	-10.0833
▁رکندو	-10.0838
▁كس	-10.0839
▁لوب	-10.084
▁ٿڪ	-10.0843
▁di	-10.0846
▁زون	-10.0848
▁پاسو	-10.0853
▁هون	-10.0861
▁چيم	-10.0867
▁عڪس	-10.0873
▁ياسين	-10.0878
▁سيم	-10.0878
▁انح	-10.0888
▁دفعي	-10.089
▁De	-10.0894
▁عذاب	-10.0899
▁يشيا	-10.09
▁چينل	-10.0904
وف	-10.091
اتم	-10.091
▁جنٽ	-10.0911
▁اء	-10.0911
▁ڇل	-10.0911
▁پپ	-10.0912
▁عم	-10.0922
▁ترجيح	-10.0922
▁تقرير	-10.0922
▁پو	-10.0922
▁چوندو	-10.0928
▁ويزن	-10.0932
▁ضع	-10.0934
▁ڪاغذ	-10.0946
▁خطرو	-10.0946
▁;	-10.0947
▁مست	-10.0953
▁جم	-10.0956
▁تڪ	-10.0958
▁منحصر	-10.097
▁😂	-10.097
▁رئيس	-10.0974
▁ڏه	-10.0976
▁سڀاڻي	-10.0977
▁کا	-10.0978
▁اٿئي	-10.0979
▁هئ	-10.0984
▁ونه	-10.0991
5	-10.0992
▁ويٺي	-10.0994
▁دگار	-10.0994
▁lo	-10.0996
▁فور	-10.0999
▁كر	-10.101
▁صل	-10.1016
▁فنڪشن	-10.1017
▁نظوري	-10.1017
▁مائٽ	-10.1018
▁متحد	-10.1019
▁ٽان	-10.1028
▁b	-10.1029
▁بيهي	-10.1035
▁وڌڻ	-10.1037
▁قدرت	-10.104
▁رمايو	-10.1042
▁عرض	-10.1045
▁وارث	-10.1047
▁يلز	-10.1057
▁لاهي	-10.1059
▁طالبو	-10.1061
▁مقام	-10.1062
▁جرمن	-10.1064
▁وزانو	-10.1066
برا	-10.1068
▁مرڻ	-10.1074
▁صنعتي	-10.1076
رام	-10.108
جھ	-10.1082
▁ڪاٺ	-10.1084
▁سط	-10.1087
▁گهرا	-10.1088
▁موثر	-10.1089
▁خلاقي	-10.109
▁ئج	-10.1094
▁جنب	-10.1097
▁حظ	-10.1098
▁ورج	-10.1099
▁ينٽي	-10.11
en	-10.1105
▁رار	-10.1107
يکار	-10.1109
ٽيف	-10.1112
▁بيمار	-10.1114
▁انگي	-10.1116
▁فار	-10.112
▁هوم	-10.1124
▁پتو	-10.1124
▁Pa	-10.1126
▁قاعد	-10.1126
▁رکون	-10.1131
▁بشر	-10.1132
▁ريٽري	-10.1137
▁Ho	-10.114
▁an	-10.1141
▁يڪا	-10.1142
▁وووو	-10.1142
ظاهر	-10.1149
▁وما	-10.1153
▁بعدين	-10.1156
▁رادري	-10.1166
▁شاپ	-10.1167
▁اندار	-10.1168
▁ھين	-10.1168
▁wi	-10.1172
▁ليز	-10.1174
▁ٽوڙ	-10.1175
▁عادت	-10.1178
▁ڪيان	-10.1181
انه	-10.1182
▁يتن	-10.1184
▁حت	-10.1186
نصوب	-10.1187
▁دس	-10.1188
▁اصلاح	-10.1193
▁مڙ	-10.1195
▁عاملن	-10.12
▁وڌندڙ	-10.1201
▁مادي	-10.1203
▁el	-10.1206
▁هذي	-10.1208
▁راس	-10.121
▁معيشت	-10.1211
▁عاشق	-10.1212
▁تُ	-10.1216
▁ڪاوڙ	-10.1221
▁بط	-10.1232
▁نگي	-10.1235
▁تنقيد	-10.1235
▁پذير	-10.1235
▁لازمن	-10.1237
▁نسبت	-10.1239
▁ڪلام	-10.1243
▁شپ	-10.1247
▁ڀائ	-10.1249
▁طئي	-10.1251
▁مشق	-10.1251
▁مٽي	-10.1251
▁حوص	-10.126
▁ماهي	-10.1261
▁زياد	-10.1262
▁پائي	-10.1264
▁فضل	-10.1265
▁ve	-10.1265
▁ٽيڪ	-10.1269
▁ڪلاڪن	-10.1273
▁شيءَ	-10.1274
▁اوت	-10.1275
▁جنن	-10.1281
▁وپن	-10.1283
▁تشدد	-10.1284
▁قيد	-10.1285
▁چئن	-10.1287
▁۰	-10.1288
▁جهه	-10.1299
در	-10.1304
▁ڄا	-10.1305
▁ٽئي	-10.1308
▁نظ	-10.131
▁صلى	-10.1312
▁برسات	-10.1334
▁ونلوڊ	-10.1334
▁خارجي	-10.1335
▁رڪن	-10.1337
▁ارادو	-10.1342
▁ولد	-10.1346
نتظا	-10.1346
▁et	-10.1348
▁وڪيو	-10.1349
▁ڪنڌ	-10.1349
▁رَ	-10.135
▁قسمتي	-10.1356
▁مضحك	-10.1359
▁رائع	-10.1362
▁گنج	-10.1364
▁نصب	-10.1366
▁ريون	-10.137
▁نامه	-10.1371
▁رون	-10.1371
▁عث	-10.1374
▁منت	-10.1375
▁ائون	-10.1383
▁گهري	-10.1384
▁پيرن	-10.1394
▁ڪٿ	-10.1397
▁برو	-10.1406
▁ڀرپور	-10.1408
▁يييي	-10.141
▁ارم	-10.1419
▁يرو	-10.142
▁طرناڪ	-10.1433
▁نصوبن	-10.1433
▁تحرير	-10.1433
▁هاري	-10.1437
▁سمه	-10.1437
▁باني	-10.1437
▁شهرين	-10.1438
▁يارڪ	-10.1438
▁سمي	-10.1443
▁رڊ	-10.1443
▁ذخي	-10.1458
▁سڃاتو	-10.1463
▁نجها	-10.1463
▁اص	-10.1469
▁ke	-10.1471
▁اسٽيل	-10.1479
▁عبادت	-10.1483
▁فائدا	-10.1483
▁هيڊ	-10.1487
▁ڏسندي	-10.1487
▁حلى	-10.1497
▁ڏسند	-10.1499
▁يٿ	-10.15
▁اُتي	-10.1502
▁ئس	-10.1503
▁وفي	-10.1506
▁هرو	-10.1507
▁متحرڪ	-10.1508
▁نڪرڻ	-10.1514
▁حيات	-10.1515
▁رك	-10.1521
▁باڪس	-10.1522
▁مرضي	-10.153
▁ليڪس	-10.1532
▁مقبول	-10.1533
▁ڻو	-10.1535
▁پاني	-10.1541
▁ياه	-10.1553
▁خوراڪ	-10.1559
▁ورهين	-10.1561
▁نهايت	-10.1562
▁ئيندي	-10.1564
▁سائ	-10.1571
N	-10.1572
▁we	-10.1574
▁ٻولين	-10.1574
▁فيك	-10.1575
▁وقتي	-10.1578
▁ئميرا	-10.1584
▁يام	-10.1586
▁خوي	-10.1587
▁ديش	-10.1589
▁بز	-10.1606
▁سنه	-10.161
▁ليون	-10.1613
▁الح	-10.1624
▁ويٽ	-10.1626
▁ٽرڪ	-10.1626
▁ڏڪ	-10.1628
▁قريبا	-10.163
▁بلڪه	-10.1634
▁ترميم	-10.1636
▁آرٽ	-10.1637
▁سيل	-10.1637
▁روش	-10.1644
▁مرحله	-10.1649
مر	-10.1652
▁علمي	-10.1653
▁4.	-10.1655
▁نيل	-10.1655
▁عتبار	-10.166
▁چمڙي	-10.1666
▁وليون	-10.167
▁Su	-10.1671
▁امل	-10.1677
▁سانيت	-10.1677
▁Z	-10.168
ئڻ	-10.1682
▁R	-10.1683
▁عال	-10.1683
مح	-10.1684
▁ڏهه	-10.1685
▁اديب	-10.1692
▁زوج	-10.1694
▁کنيو	-10.1698
▁آھيون	-10.1702
▁سوالن	-10.1702
▁·	-10.1712
▁پلي	-10.1717
▁رش	-10.1722
▁دك	-10.1722
▁ولپ	-10.1724
▁بندر	-10.1727
▁بچائي	-10.1729
▁ماڳ	-10.1729
▁نتقلي	-10.1737
▁ينءَ	-10.1737
▁ابليت	-10.1737
▁اخذ	-10.1739
▁هندڙ	-10.1742
▁ڪتا	-10.1745
▁مآ	-10.1749
▁هلائي	-10.175
▁ارائ	-10.1756
▁سياح	-10.1756
▁شرم	-10.1758
▁sm	-10.1762
▁ميه	-10.1763
▁ڊيسڪ	-10.1765
▁بالغ	-10.1766
▁صبر	-10.1766
▁لما	-10.177
▁ئيشن	-10.177
▁دارا	-10.1774
▁وٽو	-10.1789
▁مغرب	-10.1789
▁خر	-10.1789
▁of	-10.1791
▁pro	-10.1791
▁دفعا	-10.18
کڙ	-10.1802
▁حمد	-10.1804
▁هائ	-10.1813
ڪاني	-10.1815
▁حصا	-10.1818
▁مستح	-10.1819
▁ڪڙي	-10.1823
▁ٽرم	-10.1839
▁حديث	-10.1841
▁ڊگهو	-10.1841
▁able	-10.1841
▁حضور	-10.1841
▁وڌايو	-10.1842
▁ry	-10.1843
V	-10.1848
▁اند	-10.1849
▁ذر	-10.1849
▁رھيا	-10.185
▁ووووو	-10.1862
▁J	-10.1863
▁ليک	-10.1864
▁خانو	-10.1866
▁طوفان	-10.1867
لط	-10.1867
▁سهڻي	-10.1868
ro	-10.187
▁اليوم	-10.187
▁ائتي	-10.187
ره	-10.1872
▁نظارو	-10.1875
▁قبضو	-10.1882
▁واه	-10.1882
▁حش	-10.1883
▁sp	-10.1885
▁بني	-10.1887
▁ڀڃ	-10.189
▁يز	-10.1891
وٽ	-10.1893
ڪر	-10.1897
▁يونان	-10.1905
▁بليو	-10.1908
▁چيئ	-10.1914
▁لاڪ	-10.1919
▁جماعت	-10.1923
▁ناھي	-10.1929
▁لائي	-10.1935
▁ماهرن	-10.1939
▁جشن	-10.194
▁وست	-10.1944
▁كثير	-10.1945
▁ity	-10.1947
▁ad	-10.195
▁هآ	-10.1953
▁r	-10.1954
▁بنات	-10.1956
▁معاف	-10.1958
▁هائي	-10.1958
▁مثالي	-10.1964
▁فارسي	-10.1971
▁فزا	-10.1971
▁ثبوت	-10.1972
▁دؤر	-10.1972
▁شريڪ	-10.1974
▁كين	-10.1978
▁تعال	-10.1981
▁طبي	-10.1983
▁خيل	-10.1983
▁ڏوه	-10.1984
▁عالي	-10.1991
رهند	-10.1995
▁ڪتي	-10.1998
▁صنف	-10.1998
▁شاخ	-10.1999
▁ستار	-10.2005
▁dh	-10.2005
▁ٽائيم	-10.201
▁ييي	-10.2012
▁ماع	-10.2017
▁زائين	-10.2025
▁عاشري	-10.2026
▁يماني	-10.2026
▁ريڊيو	-10.2028
▁لر	-10.2034
▁ۈ	-10.2035
▁وڪري	-10.2041
lo	-10.2046
▁معك	-10.2051
▁مزدور	-10.2052
▁لڳل	-10.2054
▁خارج	-10.2055
▁رمي	-10.2067
▁اپيل	-10.2072
▁حس	-10.2074
▁معصوم	-10.2078
▁نامو	-10.2079
يلڊ	-10.208
▁لكم	-10.2088
اج	-10.2091
▁وئين	-10.2092
▁کنڊ	-10.2096
▁وڌند	-10.21
▁ورتا	-10.2104
▁ڊومين	-10.2105
▁يزا	-10.2119
an	-10.212
▁اختي	-10.212
▁حيدر	-10.2121
هڪ	-10.2121
▁ڌم	-10.2123
de	-10.2126
اط	-10.2127
▁ڏها	-10.2128
▁ائتو	-10.2134
▁صب	-10.2138
▁يامبر	-10.2139
▁فرادي	-10.2141
▁do	-10.2141
▁رأ	-10.2151
▁حترام	-10.2158
▁رڪا	-10.216
▁مريم	-10.2162
▁بلا	-10.2165
▁ويٺا	-10.2166
▁بلاڪ	-10.2166
▁ڪيئي	-10.2167
ٽڪل	-10.217
▁اده	-10.2173
▁سس	-10.218
▁ڏند	-10.2182
▁برن	-10.2182
▁جب	-10.2184
▁تباهه	-10.2185
▁قربان	-10.2187
▁کم	-10.219
نائ	-10.2193
▁بچڻ	-10.2193
ليءَ	-10.2203
▁خلي	-10.2204
▁ملندو	-10.2212
▁الك	-10.2218
▁طل	-10.2222
▁نيجر	-10.2223
نت	-10.2223
▁هد	-10.2227
▁اتل	-10.2229
▁افي	-10.2229
▁ne	-10.2231
▁چرا	-10.2233
▁گند	-10.2238
▁لها	-10.224
▁مانس	-10.2243
▁جوش	-10.2243
▁پائڻ	-10.2246
▁جَ	-10.2253
ڏام	-10.2254
▁قاعده	-10.2258
▁تلا	-10.2258
جهند	-10.2261
▁ليم	-10.2268
▁قق	-10.227
▁يوه	-10.2278
▁واس	-10.2279
▁ثر	-10.2289
▁آڏو	-10.2293
▁جڳه	-10.2293
▁جڳ	-10.2301
▁fi	-10.2301
▁سختي	-10.2302
▁يارا	-10.2302
▁سه	-10.2306
▁همڻ	-10.2307
▁رينج	-10.2312
▁شفت	-10.2316
ھا	-10.232
▁كت	-10.232
▁ڪيج	-10.2322
▁انڌ	-10.2322
▁دف	-10.2325
▁عه	-10.2327
▁لٿ	-10.2327
▁نص	-10.2342
▁ريگ	-10.2347
▁ختلاف	-10.2348
▁ديوا	-10.2349
▁دوز	-10.2356
▁يكم	-10.2359
▁ڄڻا	-10.236
▁خوبي	-10.2362
▁ڪلب	-10.2369
▁po	-10.2369
▁ليج	-10.2371
▁آرڪ	-10.2373
▁ڏٺا	-10.2374
▁التون	-10.2374
▁ڙڪ	-10.2375
▁at	-10.2377
▁اسٽاڪ	-10.2381
▁80	-10.2385
'	-10.2389
▁ننڍڙي	-10.2393
▁ملو	-10.24
▁age	-10.2403
▁چايو	-10.2404
▁فاع	-10.2404
▁رندڙ	-10.2405
▁nk	-10.2407
▁منك	-10.2412
▁ئر	-10.2416
▁اذ	-10.2424
▁ar	-10.2426
▁توسان	-10.243
▁ڏاڏ	-10.2434
▁پڙهو	-10.2438
▁لڳائڻ	-10.2438
▁وب	-10.2444
▁چئ	-10.2446
▁اعرف	-10.2448
▁تضحك	-10.2458
▁صفائي	-10.2459
▁ڊسڪ	-10.246
▁دانش	-10.2464
▁سند	-10.2465
▁La	-10.2465
▁لڪي	-10.2465
▁ڀريو	-10.2466
▁رع	-10.2471
H	-10.2474
▁سوس	-10.2475
▁ليڪن	-10.2476
▁یک	-10.2478
▁سما	-10.248
▁صحافي	-10.2484
▁جهل	-10.2485
▁تقسيم	-10.2485
▁زمائش	-10.2485
▁آخرين	-10.2488
▁واڌا	-10.2492
▁رتب	-10.2492
▁fa	-10.2493
▁ڊيو	-10.2494
▁صفحو	-10.2501
كر	-10.2506
▁ننڍو	-10.2507
▁tor	-10.2508
▁رائ	-10.251
▁بزرگ	-10.2513
▁ڊا	-10.2514
▁سياري	-10.2514
▁ے	-10.2515
▁پريم	-10.2518
▁شيد	-10.2532
▁منا	-10.2533
▁هينا	-10.2536
▁اهر	-10.2541
▁gra	-10.2542
▁عزم	-10.2542
▁كك	-10.2543
▁عطا	-10.2546
▁خلق	-10.2546
▁سردار	-10.2546
▁Ba	-10.2547
ژ	-10.2548
▁ورزن	-10.2549
▁Sin	-10.2552
▁ُه	-10.2561
▁زهر	-10.2561
▁مونڊي	-10.2562
▁پهت	-10.2565
من	-10.2568
▁ددگار	-10.2569
▁مايوس	-10.2569
▁90	-10.2572
▁سرما	-10.2577
▁ڪورس	-10.2577
▁اليه	-10.258
▁چانه	-10.2583
▁ڪست	-10.2585
▁مئن	-10.259
▁مقال	-10.2593
▁ومين	-10.2597
▁رق	-10.2597
▁يالله	-10.2598
▁۳	-10.26
▁ڪيميا	-10.26
▁ٻان	-10.2601
▁نوار	-10.2602
▁وٽيوب	-10.2605
▁ننگ	-10.2609
▁واقعو	-10.2611
▁عليك	-10.2615
▁هير	-10.2615
▁سائي	-10.2619
▁فى	-10.262
مراه	-10.2622
▁تسلم	-10.2625
▁مفيد	-10.2626
▁ment	-10.2627
▁فلٽر	-10.2627
از	-10.2628
▁iz	-10.2628
▁گهرو	-10.2637
X	-10.2639
▁فت	-10.2639
▁ورة	-10.2641
▁شل	-10.2642
▁كمل	-10.2647
▁طق	-10.2653
▁ھار	-10.2653
▁مستقل	-10.2653
▁حيد	-10.2654
ڙهند	-10.2654
ُھ	-10.2656
▁28	-10.2656
▁رھي	-10.2657
▁ٺاهيل	-10.266
▁نڊ	-10.266
شو	-10.2662
▁ليئر	-10.2663
▁اسٽر	-10.2669
▁عيش	-10.267
▁حالي	-10.2671
▁حج	-10.2674
▁وازن	-10.2683
▁قا	-10.2683
▁sub	-10.2684
▁كذا	-10.2688
▁لس	-10.2689
▁پلس	-10.2691
▁نھي	-10.2691
▁23	-10.2693
في	-10.2694
▁ڏاڍ	-10.2695
هڪر	-10.27
▁ريئر	-10.2703
▁سگهيا	-10.2707
▁غائب	-10.271
▁مزي	-10.2712
▁يبت	-10.2712
▁rd	-10.2714
▁ڙيل	-10.2715
▁شرطن	-10.2718
_	-10.272
▁مٿا	-10.2728
▁هِ	-10.2729
▁ريال	-10.2735
▁ph	-10.2737
▁يڻو	-10.2737
▁رهنما	-10.2739
▁تبصرو	-10.2751
ڪايت	-10.2753
▁يگرن	-10.2755
▁اڀ	-10.2756
▁وع	-10.2759
▁بهار	-10.2765
▁٠	-10.2771
▁ياڻي	-10.2775
▁كره	-10.2784
▁شرف	-10.2787
▁ملن	-10.2788
▁شش	-10.2796
▁وڪ	-10.2796
Y	-10.2796
▁نيڻ	-10.2797
يف	-10.28
▁لع	-10.2801
▁عيون	-10.2802
▁ارض	-10.2804
▁انها	-10.2806
▁نقطي	-10.2806
▁مارجي	-10.2808
▁چڪر	-10.2817
▁تأ	-10.2822
▁ياني	-10.2823
▁مجاز	-10.2825
▁ٺهر	-10.2825
▁رهجي	-10.2826
▁یس	-10.2827
▁اثرات	-10.2831
▁ent	-10.2832
▁تجز	-10.2835
▁يٽا	-10.2843
▁شنو	-10.2843
▁خطي	-10.2847
▁سنئ	-10.2849
▁مڪي	-10.285
▁ڪثريت	-10.2853
▁يدائش	-10.2853
▁هچائي	-10.2854
▁لنگ	-10.2855
▁ght	-10.2857
▁مشكور	-10.2857
▁انوي	-10.2866
▁هيت	-10.2866
▁بدي	-10.2874
▁دارت	-10.2879
▁جنت	-10.288
▁الناس	-10.2882
▁لٽ	-10.2882
▁27	-10.2883
▁هدي	-10.2883
▁مف	-10.2886
▁فيها	-10.2889
▁واسطو	-10.2898
▁يش	-10.29
▁لوا	-10.2905
▁يڊٽ	-10.2907
▁ناصر	-10.291
جموع	-10.2911
▁قلع	-10.2915
▁سکر	-10.2917
▁ڱ	-10.2921
وڙ	-10.2922
▁بقا	-10.2926
▁اھر	-10.2929
▁روانو	-10.293
▁فرمان	-10.2938
▁عاهدو	-10.2939
▁طانيا	-10.2941
VID	-10.2943
▁وول	-10.2946
▁چوان	-10.2946
▁der	-10.2951
پريم	-10.2955
▁يپ	-10.2962
▁پڙهيو	-10.2963
▁cu	-10.2964
▁صري	-10.2965
ڪسين	-10.2968
▁نهاري	-10.2971
يڊ	-10.2979
▁كمان	-10.2984
▁رڪنن	-10.2987
▁يننگ	-10.299
▁هيز	-10.2997
▁وليد	-10.2997
▁زد	-10.3001
▁فنا	-10.3004
▁رل	-10.3007
▁طالعو	-10.3008
▁ڪرس	-10.301
▁ريزن	-10.3011
▁ٽون	-10.3013
▁ابدا	-10.3021
▁ڙهائي	-10.3027
▁rch	-10.3027
▁لندڙ	-10.3029
▁ونئن	-10.3031
▁هئو	-10.3043
▁عادي	-10.3055
▁گڏج	-10.3056
اك	-10.3059
▁26	-10.3059
▁Sa	-10.306
▁راحت	-10.306
▁؟؟؟	-10.3061
▁نڌن	-10.3063
▁خور	-10.3063
▁ir	-10.3066
اڱ	-10.3066
▁گورن	-10.3067
▁ڦر	-10.3069
▁واچ	-10.3069
▁صفحه	-10.3072
▁يڪو	-10.3072
▁ڀير	-10.3074
▁جدو	-10.3077
▁دائي	-10.3081
▁پرنٽ	-10.3081
▁جس	-10.3083
▁وبائي	-10.3087
▁هيٺان	-10.309
▁يسائي	-10.3093
▁پچ	-10.3093
▁لاگ	-10.31
▁سرچ	-10.3101
▁اُه	-10.3101
▁رحد	-10.3101
▁يهار	-10.3102
▁ڌڻي	-10.3104
▁تَ	-10.3108
▁نفي	-10.3108
▁وخ	-10.3114
▁لمهم	-10.3118
▁خواه	-10.3119
▁طب	-10.3123
▁پيغ	-10.3124
▁نچ	-10.3135
▁هلو	-10.3136
▁نگا	-10.3138
▁رهبر	-10.3146
▁غار	-10.315
▁حران	-10.3156
▁ٺه	-10.3156
▁دهي	-10.3157
▁رمين	-10.3168
▁مرض	-10.3174
▁اڏا	-10.3184
رچ	-10.3186
▁مليا	-10.32
▁ڳا	-10.32
▁ژ	-10.3201
اش	-10.3203
▁رعي	-10.3208
▁%	-10.321
▁كده	-10.322
▁ٽاپ	-10.322
▁روج	-10.3226
▁وث	-10.3226
▁ئل	-10.323
چيند	-10.3235
▁رست	-10.3235
▁ترم	-10.3235
▁طالعي	-10.3236
▁شعب	-10.324
se	-10.324
▁رڪي	-10.3243
▁ليت	-10.3243
▁خرابي	-10.3243
▁پيج	-10.3252
نتد	-10.3252
▁كبر	-10.3254
▁راب	-10.3256
▁ٽيل	-10.326
▁رده	-10.3261
▁همه	-10.3262
▁ئف	-10.3263
▁قل	-10.3263
▁ڪارڻ	-10.3265
▁يڪٽر	-10.3266
▁ڃ	-10.3267
▁نشي	-10.3269
▁ناب	-10.3269
▁روان	-10.3271
▁چاھ	-10.3271
▁تبر	-10.3277
▁اتان	-10.3289
▁ورت	-10.3289
▁link	-10.3294
▁فني	-10.3296
▁مارڪ	-10.3299
▁ڙهيل	-10.33
ti	-10.3304
▁70	-10.3314
▁حين	-10.332
▁پيئ	-10.3323
▁sa	-10.3328
▁فوٽ	-10.3331
▁ثار	-10.3337
▁غذا	-10.3337
ڄ	-10.3337
▁سمع	-10.3343
▁ڻا	-10.3346
▁داس	-10.3358
▁پيل	-10.3369
▁سيار	-10.3378
▁خار	-10.3381
▁ڪور	-10.3381
▁لڳائي	-10.3389
▁معي	-10.339
▁احس	-10.3403
▁us	-10.3406
▁ظاهري	-10.3407
▁جزا	-10.3407
▁باد	-10.341
▁عملن	-10.3414
▁لطا	-10.3415
▁مات	-10.3421
▁رواج	-10.3423
▁قلبي	-10.3426
▁un	-10.3427
▁هِن	-10.3428
▁ٽيگ	-10.3432
▁بقي	-10.3433
▁گار	-10.3447
▁ئوٽ	-10.3453
▁ماسڪ	-10.3457
W	-10.3458
▁کند	-10.3461
▁رشت	-10.3465
▁آي	-10.3466
▁^^	-10.3475
▁زو	-10.3483
▁يسا	-10.3487
▁To	-10.3489
▁ينڪ	-10.3491
▁همت	-10.3494
▁مود	-10.3496
▁هاء	-10.3498
▁يتري	-10.3502
وزگا	-10.3506
▁پاپ	-10.351
▁لانا	-10.3524
وبائ	-10.3525
اٽ	-10.3527
▁دُ	-10.3529
▁2-	-10.3531
▁الى	-10.3533
▁حي	-10.3537
▁هيڪ	-10.3545
▁ئيڊ	-10.3548
▁ڪرائ	-10.3553
▁ڪريم	-10.3556
▁سمجهو	-10.3558
▁طري	-10.3559
با	-10.3561
▁."	-10.3565
▁هذ	-10.357
▁وڌائ	-10.3573
▁and	-10.3576
▁ھتي	-10.3579
▁اڪو	-10.3581
▁ساله	-10.3584
▁بيا	-10.3587
▁لامي	-10.359
▁يح	-10.36
▁ينچ	-10.3602
▁چشم	-10.3606
▁رسل	-10.3606
يٽور	-10.3611
▁جهد	-10.3613
▁والا	-10.3619
ادي	-10.3626
▁شف	-10.3627
ږ	-10.363
▁انءِ	-10.363
▁امد	-10.3632
▁سكر	-10.3633
▁برگ	-10.3634
ړ	-10.3637
▁كلهم	-10.3638
▁نيس	-10.3639
▁استر	-10.364
me	-10.3642
▁ڌيءَ	-10.3646
▁خلت	-10.3648
▁ورز	-10.365
▁اڪر	-10.3654
▁كلك	-10.3659
آن	-10.366
▁وشت	-10.3663
▁کولي	-10.3664
جه	-10.3674
▁وها	-10.368
▁ڪمن	-10.368
▁راهه	-10.368
گر	-10.3682
▁ينيٽ	-10.3683
اڻي	-10.3699
▁يبي	-10.3699
وك	-10.3701
▁وسر	-10.3702
▁ريز	-10.3709
▁ڻند	-10.3724
▁بش	-10.373
▁كتير	-10.3732
▁The	-10.3737
di	-10.3738
▁وبا	-10.3741
▁سائن	-10.3746
▁ous	-10.3755
▁مزاج	-10.3757
▁شم	-10.3764
▁سرد	-10.3767
▁يدي	-10.377
▁نامي	-10.3776
▁هاڪ	-10.3778
▁لود	-10.3782
▁پيء	-10.3782
▁هود	-10.3782
▁غاز	-10.3792
▁بوڪ	-10.3793
▁لپ	-10.3796
▁راڄ	-10.3805
▁مناف	-10.3808
▁حرام	-10.3808
▁صلي	-10.3814
▁سيلي	-10.3814
▁دانه	-10.3815
▁طان	-10.3818
▁انيه	-10.3818
▁ook	-10.3819
▁يندس	-10.3823
نٽ	-10.3823
▁مهر	-10.3823
▁چم	-10.3829
▁قبض	-10.3832
▁هُئي	-10.3842
▁شتو	-10.3843
▁لندا	-10.3844
▁يمن	-10.3859
▁اجر	-10.386
▁چڙهي	-10.3861
▁رنگي	-10.3862
▁وآ	-10.3866
▁صد	-10.3868
▁حيا	-10.3872
▁گيٽ	-10.3876
▁سئ	-10.3879
▁(2)	-10.3882
▁لڊنگ	-10.3883
▁انداز	-10.3883
▁ia	-10.3889
▁سف	-10.3895
▁بق	-10.3903
▁راڻو	-10.3905
▁پياري	-10.3907
▁ھٿ	-10.3912
▁جيب	-10.3924
▁شى	-10.3925
▁ستا	-10.3926
▁خام	-10.393
▁توک	-10.3934
▁ho	-10.3941
▁اشار	-10.3946
▁زاز	-10.3959
▁نجه	-10.396
▁عذ	-10.3961
▁واسط	-10.3964
▁وائر	-10.3965
▁راڻيو	-10.3966
▁گهم	-10.3968
▁بائ	-10.3968
▁ڪيشن	-10.3969
▁Mo	-10.3976
ta	-10.399
▁cl	-10.3998
▁يص	-10.4
▁ماس	-10.4003
▁ذب	-10.4019
▁مائي	-10.402
▁rn	-10.4021
▁کرن	-10.4023
▁هڪار	-10.4023
▁ڇه	-10.403
▁نياڻي	-10.4031
▁الب	-10.4031
▁نند	-10.4031
سا	-10.4038
▁Go	-10.404
▁غل	-10.4041
▁ff	-10.4043
يك	-10.4046
▁ونڊ	-10.4046
يب	-10.4049
▁كله	-10.4057
▁حرا	-10.4058
▁ٽور	-10.4071
ma	-10.4079
▁اڇ	-10.408
▁bu	-10.4084
▁سندي	-10.409
▁Ch	-10.4092
▁ماڻي	-10.4097
▁زڪ	-10.41
▁سٽريٽ	-10.4109
▁سڪين	-10.4109
▁١	-10.4112
▁گره	-10.4118
▁بڻج	-10.412
▁شغ	-10.412
▁راڻي	-10.4124
▁حم	-10.4127
ية	-10.4132
▁هيء	-10.4134
ڇا	-10.4136
ئن	-10.4141
▁حساس	-10.4142
▁په	-10.4145
ڪرو	-10.4148
▁ينر	-10.415
▁عدد	-10.4152
▁صفح	-10.4155
▁استان	-10.4171
▁وءَ	-10.4174
▁ھم	-10.4174
▁بيه	-10.418
▁اهه	-10.4187
▁cr	-10.4189
▁نير	-10.4189
▁Li	-10.4193
▁نڪس	-10.4199
▁روئي	-10.42
▁حلي	-10.4209
▁اڪي	-10.4209
▁همين	-10.4214
▁بينا	-10.4229
فت	-10.4232
▁راسر	-10.4233
▁برف	-10.4249
▁ur	-10.4255
▁ڪارپ	-10.4259
▁da	-10.4265
▁صدا	-10.4274
ادو	-10.4277
▁نڪار	-10.4282
▁نيب	-10.4291
ڷ	-10.4292
▁تال	-10.4293
▁نڌ	-10.4294
▁ينگ	-10.4295
ڊي	-10.4297
▁فلا	-10.43
▁اسٽار	-10.4314
▁ُور	-10.4316
▁حري	-10.4322
▁لڪو	-10.4325
▁نخ	-10.4327
▁اسڪا	-10.433
▁هيڙ	-10.4333
▁نتي	-10.4337
▁نگريز	-10.4341
▁ow	-10.4348
▁Da	-10.4349
mo	-10.4352
▁پاه	-10.4358
▁اخي	-10.4361
▁per	-10.4363
▁کو	-10.4364
▁رڻ	-10.4369
▁ڏٺي	-10.437
▁يڪٽري	-10.437
▁ايع	-10.4374
▁يابي	-10.4379
▁ڊيڪل	-10.438
▁صوبي	-10.4384
▁والو	-10.4397
▁نڊو	-10.4398
▁يپس	-10.44
▁ريزي	-10.4401
▁لھ	-10.4402
▁k	-10.4404
▁جاپان	-10.4406
▁مهمان	-10.4415
▁مران	-10.442
▁هيرو	-10.4424
▁ver	-10.4424
▁ru	-10.4425
▁رعا	-10.4426
▁يپر	-10.4428
▁it	-10.4429
▁go	-10.4429
▁رمائي	-10.443
▁اندي	-10.4435
▁سوم	-10.4437
▁گهار	-10.4438
▁Pre	-10.4442
▁رزا	-10.4443
▁رآ	-10.445
▁زند	-10.4453
▁مخت	-10.4454
▁بح	-10.4457
▁کسي	-10.446
▁حاڪم	-10.4474
امع	-10.4476
▁سٽا	-10.4482
▁معنا	-10.4487
▁احسا	-10.4487
▁لَ	-10.4491
▁وڇ	-10.4493
▁دب	-10.4496
▁لايو	-10.4499
▁tter	-10.4508
▁تعالي	-10.4509
▁ومن	-10.4513
▁يتا	-10.4515
▁رِ	-10.452
▁افق	-10.4523
▁دول	-10.4537
▁وءِ	-10.4541
▁توا	-10.4544
▁امت	-10.4545
▁مدل	-10.4547
▁بعا	-10.4559
NT	-10.4563
رطان	-10.4565
▁اڙه	-10.4572
▁يائي	-10.4573
▁عض	-10.4577
▁ٽل	-10.4579
▁ريپ	-10.4581
▁مدار	-10.4582
▁گوا	-10.4598
▁يگه	-10.461
▁قطار	-10.4612
▁ولر	-10.4612
▁l	-10.4616
▁راف	-10.4623
▁جرم	-10.4625
▁ٻڌا	-10.4644
فر	-10.4645
▁by	-10.4647
▁ائز	-10.4649
▁ڪج	-10.4664
▁رول	-10.4674
▁ملت	-10.4679
▁ain	-10.4681
▁طرا	-10.4687
▁ٽريڪ	-10.469
▁Ha	-10.4693
يق	-10.4706
▁بخ	-10.4707
▁هان	-10.471
▁منه	-10.4712
▁ive	-10.4716
▁يرها	-10.472
▁أل	-10.4727
▁جاني	-10.473
▁هوڙ	-10.473
▁قر	-10.4731
دو	-10.4747
▁مطالب	-10.4748
▁وتا	-10.475
▁هنا	-10.475
▁قبيل	-10.4751
▁سنج	-10.476
ئل	-10.4761
بس	-10.4763
▁پڇڻ	-10.4767
اري	-10.4769
▁ٽيڊ	-10.4771
▁for	-10.478
▁pre	-10.4784
▁يڊا	-10.4786
▁ريري	-10.4789
▁ڇت	-10.479
سس	-10.4794
يش	-10.481
▁بوتل	-10.4819
▁كِ	-10.4821
▁اريو	-10.4822
▁one	-10.4826
▁وور	-10.4829
▁سيت	-10.4829
▁ula	-10.4835
ۈ	-10.484
▁وهر	-10.4857
▁yp	-10.4859
▁أخ	-10.4859
▁ڄاڻو	-10.486
▁نجي	-10.4864
جا	-10.4864
▁29	-10.4867
▁mb	-10.4877
▁لئ	-10.4878
مل	-10.4883
▁ستگي	-10.489
اتي	-10.4891
▁پورا	-10.4899
▁جرا	-10.49
▁اعدو	-10.4901
▁عرص	-10.4906
▁هيب	-10.4916
▁تقا	-10.492
▁شار	-10.4921
▁نش	-10.4921
▁جل	-10.4923
▁فرن	-10.4931
▁سجي	-10.4939
▁ٽار	-10.495
▁ابر	-10.4954
وو	-10.4955
▁گهي	-10.4957
▁۴	-10.4962
▁ڪتو	-10.4963
▁جبت	-10.4967
▁ئا	-10.4969
▁طاب	-10.4972
▁لاح	-10.4981
لائ	-10.4988
▁آور	-10.4988
▁ابا	-10.4988
▁ذي	-10.4992
▁٢	-10.4997
▁if	-10.4998
خا	-10.5
▁ليف	-10.5001
▁هيلو	-10.5004
▁سٽي	-10.501
▁ندار	-10.5017
ڃ	-10.5025
▁پھر	-10.5026
▁يلر	-10.503
▁ليشن	-10.5032
ڀيٽ	-10.5035
▁نكم	-10.5037
▁گلن	-10.5044
▁وهن	-10.5046
ھڙي	-10.5049
▁آيت	-10.505
▁چهري	-10.5054
▁صاب	-10.5057
▁يرت	-10.5065
ڪار	-10.5067
جر	-10.5069
▁Q	-10.5073
رت	-10.5075
▁ميم	-10.5075
شت	-10.5078
▁گان	-10.5082
▁اسڪي	-10.5082
▁نوي	-10.5083
▁يريا	-10.5085
▁ڙا	-10.5092
▁شاهي	-10.5095
▁تض	-10.5096
▁مٿ	-10.5096
▁ڌاري	-10.5103
▁رتي	-10.5105
▁א	-10.5108
▁پمپ	-10.511
▁هوند	-10.5117
▁ine	-10.512
▁لچ	-10.5121
▁لأ	-10.5132
▁وگو	-10.5135
▁انب	-10.5136
▁ميڊ	-10.5137
▁ڪتب	-10.5139
▁بادش	-10.5142
سو	-10.5143
▁شكر	-10.5143
▁ڪيبل	-10.5151
▁ڊين	-10.5153
▁تنا	-10.5166
▁enc	-10.5167
▁لنگه	-10.5168
▁وشيءَ	-10.5169
▁هستي	-10.5172
▁ٽا	-10.5186
▁her	-10.5188
▁تِ	-10.5189
▁سمس	-10.5199
▁فتو	-10.5202
▁يٽي	-10.5206
्	-10.5211
▁ناسي	-10.5225
▁صفا	-10.5228
▁ليك	-10.5235
▁جيئ	-10.5242
▁تاح	-10.5242
▁od	-10.5242
▁ورو	-10.5244
▁پابند	-10.5247
▁ame	-10.525
▁شك	-10.5256
▁يبل	-10.5257
▁ٽم	-10.5258
▁ga	-10.5261
ٽل	-10.5262
▁حك	-10.5264
▁ھجي	-10.5265
▁ٽپ	-10.5271
طر	-10.5279
▁ئيندڙ	-10.5285
▁اجل	-10.5287
▁500	-10.529
▁ڪئن	-10.5292
▁صديق	-10.5293
ھر	-10.5296
▁ائبر	-10.5297
▁ودا	-10.5298
▁فيئر	-10.5306
mi	-10.5322
▁للي	-10.5325
▁نڪي	-10.533
▁يگ	-10.5334
▁قصد	-10.5336
▁مسي	-10.5343
▁Ro	-10.5346
▁حط	-10.5346
▁est	-10.5347
▁بيني	-10.5348
▁چاپ	-10.5362
▁ناچ	-10.5366
▁ڀت	-10.5373
▁وک	-10.5374
▁گن	-10.5385
▁يڏي	-10.5386
▁عيسي	-10.5388
▁چاه	-10.5392
▁صول	-10.5393
▁ديت	-10.5397
▁35	-10.5398
▁هها	-10.5403
▁ٽري	-10.5406
▁ub	-10.5407
▁بك	-10.5407
▁تجو	-10.5412
▁ميٽ	-10.5414
▁جيٽ	-10.5417
▁ڪمال	-10.5418
▁وڳي	-10.544
عت	-10.5446
▁فائد	-10.5447
▁نف	-10.5448
▁گرين	-10.5455
▁5.	-10.5457
▁ستن	-10.5459
▁نياز	-10.5462
▁man	-10.5463
▁اڊا	-10.5464
▁●	-10.547
▁nce	-10.5475
▁200	-10.5483
na	-10.549
▁زخم	-10.549
▁باش	-10.55
▁وڙي	-10.5504
▁گزار	-10.551
▁پڇي	-10.5511
▁up	-10.5512
▁ڀڄ	-10.5517
▁يلن	-10.5519
▁ائد	-10.5534
▁وزر	-10.5535
▁ڏٺ	-10.5541
▁عارف	-10.5547
▁احتي	-10.5547
▁يرس	-10.5552
▁رندي	-10.5563
▁ميت	-10.5568
▁ستو	-10.5569
▁يشي	-10.5572
▁عذر	-10.5573
▁مسك	-10.5576
▁ڏيون	-10.5577
▁ندڙن	-10.5581
كه	-10.5584
▁ميد	-10.5586
▁زز	-10.5595
▁hat	-10.5602
▁ڇهه	-10.5607
▁ائج	-10.5612
▁ڦٽ	-10.5614
▁يڊم	-10.5615
▁bi	-10.5619
▁°	-10.562
▁يٺي	-10.5626
ومر	-10.5628
▁سست	-10.5631
▁سروي	-10.5638
▁لمون	-10.5639
▁اجي	-10.5642
▁چيل	-10.5646
▁ئو	-10.5646
▁معمول	-10.5658
▁out	-10.5658
▁يتي	-10.5661
ھم	-10.5662
in	-10.5663
رٽر	-10.5671
▁دڙ	-10.5672
▁قت	-10.5675
▁ناهه	-10.5679
▁مرح	-10.569
▁خشڪ	-10.5696
▁رپيا	-10.5697
▁سئل	-10.571
▁ns	-10.5714
▁واڻ	-10.5718
▁راض	-10.5719
▁منو	-10.5719
▁گولي	-10.5723
▁لوم	-10.5723
▁um	-10.5724
▁ريب	-10.5725
▁سٽس	-10.5736
▁گهڙ	-10.5737
▁اقل	-10.5737
▁۵	-10.5738
▁فري	-10.5753
▁£	-10.5773
▁لڪن	-10.5773
▁شدت	-10.5773
▁ابد	-10.5781
هڻ	-10.5789
▁پيرا	-10.5794
▁ڪيڏ	-10.58
▁واز	-10.5803
▁زيل	-10.5803
▁ڪڏھن	-10.5811
▁شخ	-10.5813
▁ٽلي	-10.5814
▁مزد	-10.5819
▁پروف	-10.5821
▁يجي	-10.5824
▁اوند	-10.5829
▁چئو	-10.5834
▁نيون	-10.5842
▁جام	-10.5846
▁رٽس	-10.5849
▁ريڪا	-10.5849
▁نهم	-10.5853
▁ئيندو	-10.5853
▁گا	-10.586
▁وغ	-10.5865
سر	-10.5873
▁ڪوٺ	-10.5877
▁جار	-10.5877
▁Twi	-10.5889
▁عط	-10.5889
▁۹	-10.5891
▁پد	-10.5892
▁وبل	-10.5894
▁ترسيل	-10.5895
▁آمر	-10.5899
▁نك	-10.5903
▁ماريو	-10.5904
▁ki	-10.5905
▁سنگت	-10.5905
▁يوند	-10.5906
▁انف	-10.5906
▁يض	-10.5907
▁اسڪر	-10.5909
▁3-	-10.5913
▁رياض	-10.5916
▁ڏور	-10.5924
▁ڪتن	-10.5924
▁لڙ	-10.5927
▁تظامي	-10.5928
▁use	-10.5932
▁شنا	-10.5939
▁قرب	-10.5942
▁؟!	-10.5944
▁ڄي	-10.5948
▁بحر	-10.5949
▁ساه	-10.5953
▁ترڪ	-10.5959
▁نائي	-10.5959
j	-10.5963
▁يمي	-10.5966
▁ضد	-10.5969
▁بيل	-10.5972
▁فريق	-10.5972
▁رجع	-10.5972
▁ونج	-10.5973
▁طبع	-10.5974
▁يسين	-10.5986
▁ميٽي	-10.5988
▁کر	-10.5989
▁وٽن	-10.5991
▁عج	-10.5998
▁موم	-10.6002
▁يمه	-10.6011
▁وأ	-10.6021
▁سرت	-10.6028
▁1-	-10.6031
▁مادر	-10.6033
▁أي	-10.6043
وڙه	-10.6046
ڑ	-10.6046
▁يء	-10.6048
▁هك	-10.605
▁زاد	-10.6051
▁جھو	-10.6053
▁ڪه	-10.6056
▁مشا	-10.6062
▁رمان	-10.6064
ڪل	-10.607
▁ای	-10.6072
▁ايڪ	-10.6085
▁جڻ	-10.6093
▁ئيندا	-10.6095
▁رور	-10.6111
لت	-10.6113
▁نده	-10.6115
▁اااي	-10.6116
▁يين	-10.6116
▁ربع	-10.612
▁ٿڌو	-10.6122
▁ble	-10.6128
▁کس	-10.6129
▁زوال	-10.6129
▁خي	-10.613
▁يگا	-10.6131
▁ناسب	-10.6134
▁فيت	-10.6144
▁روا	-10.6145
▁شھ	-10.6153
▁مغ	-10.6155
▁نينگر	-10.6167
▁ure	-10.6171
▁الد	-10.6183
▁جنگي	-10.6199
▁نڀا	-10.6202
▁منص	-10.6202
▁غيره	-10.6204
▁لوج	-10.6209
▁fe	-10.6211
▁ونگ	-10.6213
مت	-10.6217
يج	-10.6217
▁ِين	-10.622
▁تخت	-10.6227
▁ختي	-10.6228
▁رستا	-10.6229
▁اوا	-10.623
ar	-10.6234
▁بلڊ	-10.6243
▁نھن	-10.6244
▁زيشن	-10.6247
▁form	-10.6248
▁ڳائ	-10.6249
▁پيچ	-10.6261
▁انيا	-10.6271
▁ارڊ	-10.6282
▁نگل	-10.6291
▁كلها	-10.6303
▁ران	-10.6306
▁ڙڪا	-10.6312
▁رند	-10.6315
▁نتا	-10.6325
▁يگز	-10.6333
▁صوب	-10.6336
▁ڇڪڻ	-10.6338
▁ائق	-10.6338
▁ونٽ	-10.635
▁رڪس	-10.6352
▁تبي	-10.6352
▁ڪيپ	-10.6357
وڪ	-10.6357
▁yo	-10.6363
▁ائٽي	-10.6364
▁پٺ	-10.6366
▁rr	-10.6368
▁سچو	-10.6369
ڪش	-10.6371
▁چيس	-10.6377
▁اڻيو	-10.6379
▁وسٽ	-10.6384
▁تک	-10.6384
▁آخ	-10.6385
▁شئي	-10.6387
▁الش	-10.6391
▁ضا	-10.6401
▁ملائي	-10.6403
▁Sea	-10.6405
▁وٽا	-10.6406
يونس	-10.6412
el	-10.6413
▁ودو	-10.6417
▁هره	-10.6417
▁انئ	-10.6424
▁نڊا	-10.6436
▁رويي	-10.6446
▁فرم	-10.645
▁tra	-10.6452
▁بور	-10.6452
▁سدا	-10.6457
▁ضم	-10.6471
▁مرا	-10.6476
▁راڳ	-10.6481
▁هز	-10.6491
▁h	-10.6491
▁آند	-10.6492
▁Pro	-10.6493
▁گلاب	-10.6499
▁خد	-10.6504
▁ظر	-10.6512
▁ess	-10.6517
▁ادائ	-10.652
▁گلي	-10.6526
▁ارڪ	-10.6528
▁31	-10.6534
ده	-10.6534
▁tt	-10.6551
▁ڏياري	-10.6562
▁Y	-10.6567
▁gn	-10.6573
▁نشا	-10.6575
▁فنڊ	-10.6577
▁هڻو	-10.6578
▁ثير	-10.658
▁لڳن	-10.658
▁وڻن	-10.6582
▁ڙهند	-10.6593
▁ڀٽو	-10.6596
ڪن	-10.6604
▁اكم	-10.6607
▁ری	-10.6608
▁نشر	-10.6612
▁Lo	-10.6618
▁لمو	-10.6618
▁ميش	-10.6622
▁لت	-10.6631
▁سود	-10.6633
▁ٽيو	-10.6639
▁v	-10.6641
▁پيون	-10.6642
▁رير	-10.6644
nd	-10.6647
▁چيٽ	-10.6647
▁پنگ	-10.6648
▁عر	-10.6653
▁نازل	-10.6654
▁New	-10.6662
▁مك	-10.6668
▁يران	-10.6669
▁روري	-10.6676
▁سٺا	-10.6677
co	-10.6677
▁سکو	-10.668
بة	-10.6688
▁f	-10.6691
▁بنگل	-10.6707
لم	-10.671
▁فو	-10.6714
▁مرور	-10.6714
▁ڏجي	-10.672
▁تبصر	-10.6724
▁جاب	-10.6724
▁ڪان	-10.6733
▁rea	-10.674
▁احم	-10.6746
▁وندي	-10.6759
▁يٺا	-10.6759
ڏي	-10.6765
▁ديوان	-10.6769
▁چن	-10.6777
▁آلو	-10.6777
▁طف	-10.6777
▁جها	-10.6781
▁عت	-10.6781
▁حفظ	-10.6786
▁ڀلو	-10.679
▁ئسن	-10.6792
▁اغ	-10.6797
▁ٻج	-10.6797
▁رث	-10.6811
▁pt	-10.6812
▁راء	-10.682
▁ارون	-10.6822
▁يق	-10.6825
▁مد	-10.6832
▁وھ	-10.6835
▁اڪيل	-10.6838
▁لى	-10.6838
▁يلاپ	-10.6844
▁ارات	-10.6849
▁نجر	-10.685
▁ينڊر	-10.6861
▁اتح	-10.6868
▁45	-10.687
▁گئس	-10.6871
▁ा	-10.6872
▁قوي	-10.6873
▁ساس	-10.6873
▁شال	-10.6875
▁مهارت	-10.6876
▁ڪلي	-10.6879
▁اسك	-10.6879
▁بِ	-10.6881
▁ڙھ	-10.6882
▁خذ	-10.6892
▁ايز	-10.6895
▁ٽول	-10.6895
▁يزن	-10.6899
▁لج	-10.6901
▁رباني	-10.6907
▁راني	-10.6913
▁عا	-10.692
▁خلا	-10.692
رهائ	-10.6928
▁بري	-10.6929
▁پلگ	-10.6932
▁سڄڻ	-10.6945
▁شئ	-10.6956
▁iOS	-10.6958
▁pla	-10.6959
▁ted	-10.6963
▁nn	-10.6967
▁چڙ	-10.6967
بلڪ	-10.6973
▁ميري	-10.6975
▁چٽ	-10.698
▁لاٽ	-10.698
▁گرا	-10.6986
▁يط	-10.6987
▁پِ	-10.6995
▁قط	-10.6995
▁اخلاق	-10.7001
▁oin	-10.7003
▁دعوي	-10.7004
▁ڪوئ	-10.7006
▁شاھ	-10.7006
▁يرين	-10.7007
▁استن	-10.7011
▁يوس	-10.7014
وفائ	-10.7021
▁ٺو	-10.7029
▁واڻي	-10.7033
▁دلين	-10.7033
▁اتم	-10.7036
▁دنا	-10.7036
▁عضو	-10.7038
▁❤	-10.7046
▁کپ	-10.7046
▁نيت	-10.7053
▁هاا	-10.7058
وق	-10.7066
all	-10.7068
وع	-10.7071
▁طر	-10.7072
▁هول	-10.7074
▁اسه	-10.7079
▁آزم	-10.7079
▁ارس	-10.7081
▁ينيم	-10.7082
▁فضيلت	-10.7089
▁ياء	-10.7089
▁پيس	-10.7095
▁اوب	-10.7096
▁رجن	-10.7102
▁اسٽا	-10.7106
گي	-10.7119
▁لڪل	-10.712
▁هٽ	-10.712
▁نزل	-10.7122
▁سمو	-10.7124
▁gh	-10.7127
▁بست	-10.7128
▁ec	-10.7131
▁آپ	-10.7133
وڊ	-10.7139
▁ماٺ	-10.7142
▁لهم	-10.7149
▁لاڙ	-10.715
▁لش	-10.7152
▁دع	-10.7156
▁نوب	-10.7163
▁گال	-10.7164
▁Po	-10.7164
ڙو	-10.7171
▁لمي	-10.7174
▁هيان	-10.7176
▁مام	-10.7177
▁سفار	-10.7178
▁رقي	-10.7183
▁تق	-10.7191
ڍ	-10.7191
▁زيور	-10.7193
▁قطر	-10.7194
غا	-10.7195
▁ينهن	-10.72
▁ڏيک	-10.7201
▁احل	-10.7217
▁تور	-10.7217
▁رمضان	-10.7221
te	-10.7225
▁بان	-10.7226
▁بيع	-10.7232
▁ايي	-10.7245
▁چونڊي	-10.7245
▁tu	-10.7251
▁ڪوٺي	-10.7256
▁پڙ	-10.7257
▁تڙ	-10.7263
▁ھلي	-10.7264
▁he	-10.7268
▁ڪول	-10.7269
مو	-10.727
▁ڊڪٽس	-10.7272
▁قريب	-10.7275
▁رائي	-10.7289
▁وليو	-10.729
▁عدم	-10.7295
▁نيپ	-10.7295
▁بجي	-10.7296
▁يآ	-10.73
▁لوس	-10.7306
▁سگهج	-10.7306
▁دانن	-10.731
▁لُ	-10.7314
▁مشن	-10.7317
▁[.	-10.7319
▁ينيو	-10.732
▁ريئ	-10.733
▁پوئ	-10.7334
▁دني	-10.7335
اڙي	-10.7335
▁امور	-10.7341
ڳور	-10.7356
▁♥	-10.7358
▁وهو	-10.7358
▁التو	-10.7359
▁ڻندڙ	-10.7361
▁هوٽ	-10.7365
▁چُ	-10.7369
▁نڊل	-10.7377
لس	-10.739
▁र	-10.7402
ھي	-10.7402
▁جهو	-10.7405
جو	-10.7409
▁راجا	-10.7412
▁مراد	-10.7414
▁رما	-10.7414
▁ڪڍڻ	-10.7416
▁ڏھن	-10.7424
▁اسڪو	-10.7426
▁وڪا	-10.7431
بار	-10.7437
▁پين	-10.7446
▁ُڪ	-10.7454
▁گناه	-10.7459
▁Se	-10.7461
▁ميوز	-10.7462
▁فال	-10.7466
▁Me	-10.7469
▁دد	-10.747
▁چائ	-10.7472
▁واد	-10.7478
▁محد	-10.748
▁ورچ	-10.7485
▁ابن	-10.7492
▁سڪي	-10.7493
▁ديوتا	-10.7494
▁رص	-10.75
▁Ra	-10.7501
▁صوف	-10.7504
▁ڀڄي	-10.7514
▁يوٽ	-10.752
وض	-10.7522
▁لوو	-10.7529
▁يشنل	-10.7533
▁دٻاء	-10.7541
sa	-10.7541
▁الات	-10.7542
▁هپ	-10.755
▁جهي	-10.7551
▁لهو	-10.7554
▁رولي	-10.7561
ce	-10.7564
▁معه	-10.7564
▁احب	-10.7564
▁طال	-10.7571
▁تمي	-10.7571
▁وون	-10.758
▁راي	-10.7581
▁سرگرم	-10.7584
▁صادق	-10.7584
▁ٽايو	-10.7587
▁قيدي	-10.7599
▁قرا	-10.7603
فا	-10.7613
▁داره	-10.7615
▁الت	-10.7618
▁هيڏ	-10.7622
on	-10.7623
▁بَ	-10.7624
▁لبر	-10.7627
کو	-10.7629
▁ڏيند	-10.763
وڻ	-10.7637
▁نجات	-10.7643
▁ناھ	-10.7647
▁بُ	-10.766
▁سنجي	-10.7665
شي	-10.7667
▁کٽي	-10.767
▁رهه	-10.7675
▁عظم	-10.7677
▁مهينو	-10.7677
▁جپان	-10.7677
▁واسي	-10.7687
▁راجع	-10.7689
▁اير	-10.7697
▁تى	-10.7704
آآ	-10.7705
▁نيه	-10.7706
۔	-10.7711
▁افر	-10.7713
▁وڳ	-10.7714
▁لنا	-10.7715
▁بدن	-10.7715
▁ِل	-10.7716
▁هارو	-10.7721
وچ	-10.7722
▁فيد	-10.7736
▁نصي	-10.7741
▁ڪاش	-10.7741
▁تكم	-10.7748
▁tc	-10.7751
اح	-10.7755
ڻو	-10.7757
▁پتي	-10.7759
▁اصلات	-10.7767
▁مظ	-10.7772
▁دوزخ	-10.7773
▁سڪر	-10.7779
▁گرافي	-10.7785
▁رسٽ	-10.7803
حب	-10.7807
▁وط	-10.7815
▁سکي	-10.7819
▁ادت	-10.7821
▁نُ	-10.7827
قابل	-10.7836
▁2)	-10.7845
▁ينك	-10.7846
▁ميا	-10.7852
ch	-10.7853
▁اٽي	-10.7862
▁(3)	-10.7865
ni	-10.7866
▁حذف	-10.7867
▁ٻر	-10.7872
▁فرما	-10.7875
كس	-10.7877
▁ريه	-10.7878
▁ئجي	-10.7887
▁پبل	-10.7899
▁نظري	-10.7902
▁وريون	-10.7914
▁لهج	-10.793
▁ڪائي	-10.7932
▁ينز	-10.7934
lu	-10.7937
▁ol	-10.7941
لف	-10.7943
▁ye	-10.7946
▁ٻُ	-10.7948
▁ورش	-10.7949
▁مهي	-10.7955
▁نق	-10.7964
يع	-10.7966
▁ائڊ	-10.7976
▁ُو	-10.798
▁هب	-10.7987
ٿس	-10.7988
▁pe	-10.7991
ضي	-10.7994
▁محت	-10.7995
▁مٽ	-10.8007
▁تاثر	-10.8009
▁ادشاه	-10.8009
▁اغوا	-10.801
▁ٽولي	-10.8018
▁ريڪ	-10.802
▁برت	-10.802
جد	-10.8026
▁هيئن	-10.8029
▁So	-10.8034
▁ڪشن	-10.8041
▁هاد	-10.8042
▁ڪنگ	-10.8042
▁يوٽي	-10.8048
اع	-10.805
▁نوڪر	-10.8054
▁بچت	-10.8055
آل	-10.8061
▁ڏج	-10.8061
▁رويو	-10.8063
▁بزنس	-10.8064
▁اريون	-10.8067
▁سرو	-10.8073
▁وٽس	-10.8074
فٽ	-10.8081
▁ميلي	-10.8084
▁سسٽ	-10.8084
اک	-10.8085
مع	-10.8089
▁خل	-10.8103
▁SCL	-10.8106
▁ٻا	-10.8111
at	-10.8111
▁داي	-10.8113
▁يَ	-10.8124
▁ھنن	-10.813
زي	-10.8135
▁يکا	-10.8136
▁id	-10.8141
▁رغ	-10.8143
▁ريلي	-10.815
▁نديم	-10.8159
▁سهي	-10.8169
▁ليڊر	-10.8174
▁پت	-10.8183
▁داع	-10.8184
▁فحش	-10.8204
▁نڊين	-10.8209
▁اڳيا	-10.8209
نفرا	-10.821
▁بيش	-10.8211
▁ميشن	-10.8216
▁ابت	-10.8217
▁ڪرا	-10.8217
▁art	-10.8219
ويه	-10.822
▁ڊول	-10.8222
▁يرن	-10.8222
▁غرب	-10.8226
▁لکت	-10.824
▁عنا	-10.824
▁قب	-10.8241
▁نگر	-10.8246
▁va	-10.8256
▁برد	-10.826
▁Ta	-10.8266
▁ھون	-10.8275
▁ورک	-10.8275
▁ائيز	-10.828
/	-10.8281
▁ڪٽڻ	-10.8283
▁ادم	-10.8286
▁ئپ	-10.8287
▁مث	-10.8302
▁جمعي	-10.8309
▁ذائ	-10.8313
▁منگ	-10.8317
▁لفا	-10.8317
▁گها	-10.8317
▁ميس	-10.832
▁يوو	-10.832
▁ھيٺ	-10.8322
▁يتون	-10.8333
▁يچ	-10.8343
▁ڪٽر	-10.8348
▁ساب	-10.8356
▁وپ	-10.8359
▁ظه	-10.8364
▁جري	-10.8375
▁ژه	-10.8382
▁وظ	-10.8382
ڵ	-10.8389
▁ڻن	-10.8389
▁پنا	-10.8399
▁يوگ	-10.8402
▁رجي	-10.8404
▁واج	-10.8409
▁گس	-10.8412
▁ردا	-10.8414
▁راق	-10.8416
▁روٽ	-10.8416
▁ضيا	-10.8419
▁مرس	-10.8423
▁fo	-10.8435
▁الث	-10.8437
▁No	-10.8439
دار	-10.8443
▁راڊ	-10.8444
▁لغ	-10.8451
▁اڏ	-10.8453
▁€	-10.8453
▁Con	-10.8458
▁وڪو	-10.846
كي	-10.846
▁رحل	-10.8467
▁جِ	-10.847
▁يٽرو	-10.8473
▁ڀو	-10.8474
▁4-	-10.8476
▁زان	-10.8482
▁يله	-10.8485
▁ې	-10.8491
▁ev	-10.8492
▁طالع	-10.8494
▁طاق	-10.8498
▁ارج	-10.8502
▁ولاد	-10.8503
▁بھتر	-10.8505
▁ھت	-10.8507
▁۸	-10.8507
ha	-10.8511
▁يڪار	-10.8512
▁يبا	-10.8517
▁ائيو	-10.8526
▁ڄام	-10.8526
▁لمن	-10.8532
ٽڻ	-10.8539
▁جدت	-10.8542
▁تقبل	-10.8554
▁ٽيپ	-10.8561
▁سيون	-10.8564
▁لِ	-10.8565
▁ضي	-10.8572
▁نوا	-10.8573
▁وی	-10.8581
▁دها	-10.8585
▁ڪت	-10.8589
▁Sp	-10.8597
▁رود	-10.8601
▁Te	-10.8603
▁رسن	-10.8604
▁دش	-10.8616
▁ڌو	-10.8621
▁ئيدار	-10.8632
▁ٽيوب	-10.8638
▁لوق	-10.8646
th	-10.8649
▁تست	-10.8657
▁مزاح	-10.8658
▁يشان	-10.8659
▁عي	-10.8659
▁ساع	-10.8661
▁خات	-10.8664
مريڪ	-10.868
▁ارت	-10.8684
▁Vi	-10.8685
▁أم	-10.8685
▁عوا	-10.87
▁ريع	-10.8709
▁يٽل	-10.871
▁Di	-10.8717
▁ليڊ	-10.8723
▁ئرس	-10.8724
▁پوڻ	-10.873
▁جزو	-10.8734
▁لند	-10.8735
رف	-10.8741
ارٽ	-10.8743
▁چال	-10.8754
▁وح	-10.8755
▁فلو	-10.8759
▁ابتدا	-10.876
▁ڪوڪيز	-10.8761
▁Do	-10.8763
▁الق	-10.8765
▁ڪرو	-10.8767
▁op	-10.8769
▁كانت	-10.8771
▁نانگ	-10.8773
▁فيش	-10.8776
▁يدن	-10.8782
▁mm	-10.8786
▁نع	-10.8787
▁ِت	-10.8801
▁نيري	-10.8807
▁هلڪ	-10.8817
ذا	-10.8818
▁ديده	-10.8821
جڻ	-10.8822
▁پيڪ	-10.8829
▁دايت	-10.8829
کر	-10.8833
▁مدي	-10.8834
▁بيبي	-10.8842
or	-10.8851
▁لڊ	-10.8855
ڱ	-10.8862
▁ليءَ	-10.8863
▁ٿئ	-10.8871
▁الٽ	-10.8874
▁ميني	-10.8876
▁کاري	-10.8878
▁حجم	-10.8879
▁سد	-10.8882
▁اهد	-10.8885
پل	-10.8893
▁Bet	-10.8894
▁زينب	-10.8903
▁نڌي	-10.8905
▁افيه	-10.8905
مز	-10.8906
▁نگلي	-10.8906
▁ناري	-10.8916
وط	-10.8923
▁زادي	-10.8927
▁اڇو	-10.8932
▁چا	-10.894
▁رئي	-10.8942
▁ٽت	-10.8945
▁ونز	-10.8947
سم	-10.8951
▁sc	-10.8954
▁ڀرڻ	-10.8955
▁يسر	-10.897
▁ja	-10.897
▁الخ	-10.8972
▁جميع	-10.8974
▁نسر	-10.8976
زا	-10.8977
▁آإ	-10.8981
no	-10.8981
▁فرا	-10.8981
▁ليپ	-10.8983
▁هڻڻ	-10.8985
▁اقي	-10.8995
▁St	-10.8997
▁حتي	-10.8997
لاء	-10.8998
▁دفن	-10.9002
▁ڪيف	-10.901
▁يتو	-10.9026
▁IP	-10.9028
▁رامي	-10.9035
▁ثق	-10.904
▁رونا	-10.9057
▁ائيڪ	-10.9071
▁کني	-10.9074
▁بيگ	-10.9082
▁تيون	-10.9083
▁موز	-10.9085
▁بادل	-10.9104
▁رندو	-10.9106
▁ينئر	-10.9106
▁32	-10.9107
رج	-10.911
▁تقدير	-10.913
▁مشكل	-10.9132
نڍ	-10.9132
▁️	-10.9136
▁سٽنگ	-10.9138
▁شاد	-10.9139
▁1:	-10.9139
▁روب	-10.9141
▁ااي	-10.915
▁رڪت	-10.9161
▁چت	-10.9166
▁نيئر	-10.9167
گو	-10.9172
ڻا	-10.9177
▁تعب	-10.9177
▁رپ	-10.918
▁عاون	-10.9188
▁اڳوڻ	-10.9192
▁دک	-10.9194
دى	-10.9196
▁خخ	-10.9208
▁برش	-10.921
▁ٽهڪ	-10.9214
▁ياز	-10.9233
▁پهچ	-10.9237
▁ڳڻتي	-10.9239
▁×	-10.924
▁ھل	-10.9241
▁ارسي	-10.925
▁(1	-10.9254
ظهر	-10.9258
▁ڪيڪ	-10.926
▁آبي	-10.9268
▁مٺي	-10.9281
▁احت	-10.9288
▁ڳو	-10.9292
گل	-10.9293
▁🙂	-10.9293
▁يئ	-10.93
رب	-10.9301
▁ځ	-10.9303
ca	-10.9308
▁Ti	-10.9311
▁nc	-10.9313
ڌا	-10.9314
▁نويس	-10.9314
▁ونڊو	-10.9324
▁ڇن	-10.9324
▁راهي	-10.9327
▁fu	-10.9341
▁ويڪ	-10.9344
▁ضح	-10.9352
▁Ex	-10.9353
ٽس	-10.9353
▁خدم	-10.9355
▁ڏات	-10.9356
▁ٻول	-10.9357
ڌي	-10.9359
آر	-10.9359
▁ٽرا	-10.9359
▁اهت	-10.936
▁ړ	-10.9371
چڪ	-10.9371
▁نيرو	-10.9376
▁ڳڻ	-10.9392
▁آت	-10.9392
▁ورڈ	-10.9406
▁يلون	-10.9408
▁رگ	-10.9408
▁دهلي	-10.9413
▁لڙڪ	-10.9413
▁w	-10.9417
ٽا	-10.9418
▁هرا	-10.9421
▁شق	-10.9423
▁ڪٽي	-10.9433
▁2:	-10.9434
▁pi	-10.9435
▁شخصي	-10.944
▁لهر	-10.9445
▁Le	-10.9446
▁دات	-10.9449
▁پلان	-10.9452
▁بچاء	-10.9462
▁ٽام	-10.9467
▁ليها	-10.9467
▁لسي	-10.9468
▁Hu	-10.947
▁مٿو	-10.9489
▁ولم	-10.9497
▁هٽا	-10.9499
▁؟"	-10.9502
▁سوٽ	-10.9505
كت	-10.9511
▁ٻوڏ	-10.9514
▁بدر	-10.9516
▁ارش	-10.952
▁نگھ	-10.9521
▁ارنٽ	-10.9547
فل	-10.9547
▁ٺهي	-10.9549
▁لکن	-10.9549
▁رنٽ	-10.9557
▁آگاه	-10.9571
▁क	-10.9571
▁صحاف	-10.9576
▁اھڙ	-10.9579
▁ليمان	-10.958
▁ڊچ	-10.9582
▁ڪشا	-10.9583
▁اينا	-10.9583
ss	-10.9586
▁ٽوڪ	-10.9586
▁ولڪ	-10.9588
▁ئڊ	-10.9596
▁واٽر	-10.9603
▁ڪوڪ	-10.9603
اڪ	-10.9608
▁ويي	-10.961
▁ليٽر	-10.9611
هل	-10.9611
ڊل	-10.9612
▁ومو	-10.9618
کا	-10.9623
▁ولك	-10.9624
▁LG	-10.9629
▁und	-10.963
▁سٽيٽ	-10.9637
▁بص	-10.9646
▁یم	-10.9651
▁Na	-10.9656
.1	-10.9659
▁كو	-10.9669
ډ	-10.967
▁سڪو	-10.9674
▁مرة	-10.9681
ٽن	-10.9683
▁چپن	-10.969
▁ويھ	-10.9695
▁اشا	-10.9696
▁يروز	-10.9698
▁حن	-10.9704
سه	-10.9705
▁ٽمي	-10.9705
to	-10.9711
▁ڪامل	-10.973
▁وضو	-10.9745
▁جڳھ	-10.9746
▁نينهن	-10.9748
▁ٺي	-10.9755
▁are	-10.9755
▁ورائي	-10.9757
▁ُن	-10.9764
▁موري	-10.979
▁نڊر	-10.9793
▁ايت	-10.9794
مان	-10.9807
▁امون	-10.9807
▁سليم	-10.9812
▁اسا	-10.9817
▁ھڙ	-10.9817
▁َه	-10.9818
▁فارس	-10.9823
زائ	-10.9829
▁Al	-10.984
▁اسن	-10.9841
▁اعد	-10.9844
▁فات	-10.9854
▁طي	-10.9857
▁لهايو	-10.986
▁يئرنگ	-10.9861
▁وراڻي	-10.9867
▁يڊي	-10.9871
▁وڌا	-10.9875
▁ورائ	-10.9883
▁ڳائي	-10.9884
▁آزما	-10.9885
▁اوٽ	-10.9889
▁ورتل	-10.989
▁نظار	-10.9891
▁پرا	-10.9895
▁عيب	-10.9897
▁لوڻ	-10.9898
▁جهڙ	-10.9912
▁ies	-10.9914
▁تبليغ	-10.9914
▁وزگار	-10.9914
▁Play	-10.9915
ڳائڻ	-10.9917
▁HD	-10.9919
▁شيو	-10.9925
▁رلي	-10.9932
▁خال	-10.9936
▁حلا	-10.9937
▁اجا	-10.9947
▁مسا	-10.9949
▁راڻ	-10.9951
▁لبي	-10.9953
▁عش	-10.9954
]	-10.996
▁ڪب	-10.9962
▁يزي	-10.9964
دل	-10.9968
▁هڻا	-10.9969
▁يهن	-10.9978
▁300	-10.9984
▁ڈ	-10.9984
pe	-10.9986
▁سوني	-10.9987
▁ادل	-10.9995
▁ذري	-11.0008
▁لڪير	-11.0012
▁og	-11.0018
▁مقنا	-11.0019
▁ڪالم	-11.0019
▁أس	-11.0021
▁وڪڻ	-11.0022
▁ڱي	-11.0024
▁شويه	-11.0024
▁هندس	-11.0026
▁رنٽي	-11.0032
▁گون	-11.0032
▁كيد	-11.0032
10	-11.0033
▁ڪارڪن	-11.0046
▁عرفي	-11.0061
▁لهڻ	-11.0062
ڊر	-11.0074
▁Si	-11.0076
ټ	-11.0077
▁واهي	-11.008
▁يما	-11.008
رك	-11.0082
▁رواني	-11.0084
▁موج	-11.0088
▁نيز	-11.0095
وى	-11.0107
▁ليلي	-11.0108
▁گذ	-11.0116
▁ڦري	-11.0118
▁ٿن	-11.012
▁وهم	-11.0131
▁کڻ	-11.0134
▁ملتوي	-11.0151
▁ago	-11.0152
▁ھيو	-11.0154
▁ڀار	-11.0155
▁نڍ	-11.0157
▁ئونڊ	-11.016
▁ڪڇ	-11.0165
▁یا	-11.0167
▁لير	-11.0175
رڻ	-11.0178
ST	-11.0197
▁لڏي	-11.0197
▁ھائي	-11.02
▁(4)	-11.021
▁آصف	-11.021
▁قيق	-11.0224
▁مز	-11.0229
▁گڏو	-11.0237
▁ڊبل	-11.024
▁فضا	-11.0243
▁بلن	-11.0246
▁ليسي	-11.0249
▁ڻڪ	-11.0261
▁ڌرم	-11.0262
▁تائ	-11.0265
▁يسن	-11.0268
▁يث	-11.0271
▁مهاجر	-11.0272
▁مولوي	-11.0272
▁يڊن	-11.0274
▁ئد	-11.0275
نى	-11.0276
▁هدف	-11.0281
▁مڃڻ	-11.029
▁لبت	-11.0295
▁نجا	-11.03
▁ڪريٽ	-11.0301
▁Bu	-11.0305
▁ڊيٽ	-11.0312
▁ميدا	-11.0316
?	-11.0318
▁les	-11.032
▁مھل	-11.0327
▁عار	-11.0329
ڼ	-11.0331
▁<<<	-11.0331
▁مچ	-11.034
كل	-11.034
حت	-11.0341
▁روانا	-11.0347
▁نواب	-11.0354
▁مولا	-11.0354
▁اهدو	-11.0355
▁كا	-11.0361
▁امس	-11.0367
▁زاري	-11.0368
▁کڙ	-11.0369
▁مٽا	-11.0371
al	-11.0378
▁هنر	-11.0381
▁سمجهن	-11.0386
▁نڪا	-11.0388
▁جرب	-11.0402
▁رض	-11.0406
▁جهڻ	-11.041
▁بدو	-11.0413
▁Pi	-11.0413
▁bil	-11.0415
▁لاڏ	-11.0416
چر	-11.0418
▁ڊيمو	-11.0418
▁امري	-11.0419
▁سڏي	-11.0428
لة	-11.043
▁زلزل	-11.0435
▁پولي	-11.0438
▁سگه	-11.0452
▁يفو	-11.0455
ڊس	-11.0456
▁نثار	-11.0456
▁ميمڻ	-11.0461
▁ومي	-11.0462
▁آهه	-11.0464
▁ڙن	-11.0467
▁Bo	-11.0475
▁ٽرول	-11.0476
▁هرن	-11.0477
▁دستي	-11.0478
▁انز	-11.0487
▁ووه	-11.0493
▁نقد	-11.0494
▁مڻ	-11.0498
انگ	-11.05
▁گين	-11.05
انو	-11.0503
▁مٺ	-11.0507
▁واع	-11.0508
▁عود	-11.0512
هڙ	-11.0521
▁تجارت	-11.0523
▁عون	-11.0524
▁اسر	-11.0527
▁سنت	-11.0532
▁شناس	-11.0534
▁کلڻ	-11.0537
▁بچه	-11.0538
▁اڪن	-11.0541
▁شبه	-11.0545
▁حول	-11.0546
▁اٿو	-11.0553
▁غر	-11.0562
▁پان	-11.057
▁قولي	-11.0576
▁حبي	-11.058
ho	-11.0597
▁پون	-11.0601
▁اخو	-11.0601
▁ايند	-11.0606
▁لی	-11.0612
SO	-11.0613
▁min	-11.0617
▁gu	-11.0625
▁پاي	-11.0627
▁واض	-11.0629
إ	-11.0642
▁اوز	-11.0655
da	-11.0662
▁سكس	-11.0663
et	-11.0668
▁آچر	-11.0669
▁يڪي	-11.0679
رة	-11.068
▁زائ	-11.0684
▁ٺين	-11.0686
▁منھن	-11.0689
▁سٽن	-11.0693
▁فائي	-11.0698
▁زب	-11.0703
▁عيو	-11.0708
▁بدا	-11.0716
▁نئي	-11.0733
▁33	-11.0734
▁log	-11.0746
▁هينئ	-11.0748
▁ڙهي	-11.0749
▁گڏي	-11.075
▁گھي	-11.075
▁يھ	-11.0758
▁نی	-11.076
▁هٽائڻ	-11.0766
▁قاد	-11.0767
▁پهل	-11.0767
▁اوه	-11.0771
▁ڪيمرا	-11.0773
▁You	-11.0778
آإ	-11.0778
▁ثم	-11.0781
▁يشر	-11.0786
▁واي	-11.0789
▁ڪشش	-11.08
▁بٽ	-11.0806
▁bo	-11.0808
▁بهتري	-11.0813
▁ڪنن	-11.0814
▁اچا	-11.0816
▁ئه	-11.0829
▁←	-11.0831
▁عمار	-11.0837
▁ڊل	-11.0839
▁ڪسڪس	-11.0839
%	-11.0847
▁رقص	-11.0852
▁نهين	-11.0858
ru	-11.0867
▁ڌي	-11.0882
▁رهم	-11.0882
▁عب	-11.0886
▁OEM	-11.0894
▁ڪمپ	-11.0894
مة	-11.0895
▁٣	-11.0896
▁جھاز	-11.0897
sk	-11.09
▁يفا	-11.09
▁GB	-11.09
▁يهر	-11.0901
▁يتر	-11.0913
▁مبا	-11.0913
▁ڳر	-11.0914
▁ڪڪ	-11.0922
ڦ	-11.0945
▁نثر	-11.0955
▁ووم	-11.0957
▁ting	-11.0959
▁وڪل	-11.0961
▁ويها	-11.0965
▁ٽائڻ	-11.0971
▁نڀ	-11.098
▁حفو	-11.0984
▁يجن	-11.0997
▁نرس	-11.1005
مپ	-11.101
قي	-11.1012
زر	-11.1014
▁ڊڪٽ	-11.1024
بع	-11.1028
ve	-11.1028
▁ڻائي	-11.1029
▁ختار	-11.1042
▁ڪٽري	-11.1044
00	-11.1045
▁المو	-11.1046
▁ڳري	-11.1052
▁منش	-11.1054
ٽائ	-11.1056
▁اسو	-11.1062
er	-11.1068
▁خص	-11.107
▁رجو	-11.1072
▁ئيٽ	-11.1081
▁ضر	-11.1083
▁ew	-11.1089
▁ادگي	-11.109
▁اليا	-11.1095
▁ate	-11.1098
▁دادو	-11.1102
▁نح	-11.1111
▁ٽٽ	-11.1115
▁اٽو	-11.1117
▁عبا	-11.1121
▁ٻڏ	-11.1123
▁نسن	-11.1124
▁48	-11.1138
▁ka	-11.114
▁وض	-11.114
su	-11.114
عد	-11.1147
دة	-11.115
▁ڏسن	-11.1153
▁ڌا	-11.1159
▁لعنت	-11.116
▁لاب	-11.116
.2	-11.1174
▁ڀاء	-11.118
▁وئڻ	-11.1183
▁ائڪ	-11.1186
▁يونس	-11.1189
▁سوڀ	-11.1197
▁gen	-11.1199
▁يوار	-11.1199
ٿن	-11.1201
▁im	-11.1201
▁مرت	-11.1202
▁زش	-11.1203
▁نآ	-11.1206
▁زل	-11.1209
▁j	-11.121
▁ماڪ	-11.1217
داء	-11.1218
▁>>>	-11.1221
ka	-11.1221
▁۶	-11.1224
▁اڌا	-11.1228
▁وچين	-11.1228
نڊي	-11.1232
▁ڻين	-11.1245
▁سح	-11.1252
▁يمو	-11.1261
▁era	-11.1262
▁os	-11.1271
▁پش	-11.1274
▁رنا	-11.1281
▁دال	-11.1288
▁سوئچ	-11.1289
▁سعود	-11.13
▁بئ	-11.1302
▁ټ	-11.1302
▁ندس	-11.1314
▁ارٽي	-11.1319
نهيء	-11.1322
▁حما	-11.1328
▁He	-11.1328
Q	-11.134
▁وسن	-11.1347
▁اکي	-11.1354
▁ميرا	-11.1357
▁نصاب	-11.1357
▁رهان	-11.1362
▁65	-11.1366
▁شک	-11.1368
▁ڏو	-11.1371
▁واھ	-11.1371
▁ادو	-11.1371
▁ترو	-11.1383
▁کت	-11.1385
▁اڻين	-11.1394
▁هنيو	-11.1398
▁فيل	-11.1411
▁دى	-11.1412
▁ويهن	-11.1416
▁ديوي	-11.1416
▁ge	-11.1419
▁زيارت	-11.1422
▁رڳ	-11.1426
▁We	-11.143
▁5-	-11.1431
▁رجا	-11.1432
▁نيج	-11.1439
▁گذار	-11.1439
▁Mac	-11.1441
▁شرٽ	-11.145
هان	-11.1463
▁افس	-11.1463
ڙهائ	-11.1464
▁ووڊ	-11.1466
▁36	-11.1468
▁سلا	-11.1472
▁تند	-11.1472
▁والي	-11.1473
Z	-11.1477
▁يڪري	-11.1483
▁پڙه	-11.1483
▁دريس	-11.1488
▁3)	-11.149
▁بجد	-11.1495
▁انھ	-11.1497
اني	-11.15
بى	-11.15
▁ربان	-11.1503
ad	-11.1504
▁غزل	-11.1506
▁ny	-11.1509
▁پٺت	-11.1512
لڊ	-11.1513
▁گلو	-11.152
▁ڪارا	-11.1523
▁ركب	-11.1525
▁ديني	-11.1533
▁گنا	-11.1534
▁اصر	-11.1539
▁يڊر	-11.1539
ٻي	-11.1546
قت	-11.1547
▁ڙيون	-11.1559
لڻ	-11.1568
▁خطرن	-11.157
▁ڪند	-11.1577
▁علق	-11.158
▁الون	-11.159
▁عو	-11.1596
▁نڌو	-11.1599
▁اٽڪ	-11.1609
▁امڙ	-11.1615
▁فش	-11.1615
30	-11.1615
▁اقو	-11.1618
▁پيڊ	-11.1628
▁Meh	-11.1628
▁چل	-11.1629
▁می	-11.1629
▁الڪ	-11.163
▁اوس	-11.1631
وسي	-11.1634
▁لياتي	-11.1635
▁اڇي	-11.1637
▁wa	-11.1637
▁پڪو	-11.164
سار	-11.1653
▁َن	-11.1653
▁وکر	-11.1661
▁ٽجي	-11.1667
▁نتو	-11.1671
اڄ	-11.1677
▁جائي	-11.1683
▁هائو	-11.1684
▁يرات	-11.1698
▁قليت	-11.1699
▁۷	-11.1701
▁wei	-11.1703
▁ويڪس	-11.1708
▁ګ	-11.1709
قاعد	-11.1726
▁ya	-11.1738
▁ائنٽ	-11.1742
▁بزن	-11.1752
▁ايٽ	-11.1754
▁3:	-11.1759
▁روع	-11.1762
▁مراه	-11.1766
▁دلي	-11.177
▁رايو	-11.1771
▁صحاب	-11.1775
ین	-11.1776
▁رزق	-11.1783
يض	-11.1786
▁بيٽ	-11.1789
▁ڇي	-11.1793
▁آم	-11.1802
▁وحي	-11.1816
رز	-11.1821
▁غلا	-11.1824
▁رني	-11.1825
ڈ	-11.1835
ood	-11.1839
▁ڏيڍ	-11.1841
▁باھ	-11.1846
▁سيني	-11.1851
ذر	-11.1859
▁sti	-11.1859
▁6.	-11.1859
▁وزي	-11.1866
▁Ja	-11.1867
▁ڪبو	-11.189
▁ip	-11.1893
▁gi	-11.1895
▁ذك	-11.1897
▁ڪرم	-11.1905
ि	-11.1908
▁more	-11.1911
ed	-11.1911
▁محب	-11.1918
▁فع	-11.192
▁قم	-11.1923
▁لڳڻ	-11.1931
▁نجين	-11.1933
▁وپي	-11.1935
▁هااا	-11.194
▁هشت	-11.1942
▁ابق	-11.1943
دان	-11.1945
▁نيشن	-11.1952
شم	-11.1962
▁قصو	-11.1967
بط	-11.1968
▁دود	-11.1972
یک	-11.1972
▁غسل	-11.198
▁اهيو	-11.1984
▁روڙ	-11.1985
▁ari	-11.1995
▁سڌ	-11.1999
▁75	-11.2003
ويش	-11.2003
▁حص	-11.2031
▁فرو	-11.2034
▁ڊون	-11.2037
ښ	-11.2038
ځ	-11.2038
▁99	-11.204
▁ترى	-11.204
▁بيب	-11.2042
▁وپو	-11.2042
▁لقب	-11.2043
▁Ad	-11.2044
ly	-11.2049
▁ائب	-11.2049
▁بڻيل	-11.2052
▁جدي	-11.2056
▁رڻو	-11.2062
▁iv	-11.2066
rd	-11.2069
▁پوڊ	-11.207
▁اهدي	-11.2071
▁اڊ	-11.2074
▁150	-11.2081
▁Fac	-11.209
▁ازل	-11.2096
▁مدني	-11.2097
▁ويري	-11.2106
▁دن	-11.2107
▁عني	-11.2108
▁hi	-11.2108
▁ind	-11.211
J	-11.2111
▁گيم	-11.2119
▁ُس	-11.212
▁ريٽر	-11.212
فع	-11.2123
▁وڙا	-11.2123
▁كتي	-11.2125
▁اڱڻ	-11.2126
▁Wi	-11.2129
▁وئل	-11.2135
▁فز	-11.214
▁رادي	-11.214
نتظ	-11.2153
gi	-11.2159
عامل	-11.2161
▁ڏائ	-11.2162
▁لوي	-11.2163
▁For	-11.2163
▁پسندي	-11.2163
▁وشن	-11.2167
▁هڏ	-11.2168
▁اڙهي	-11.2172
▁نيش	-11.2183
▁ندن	-11.2184
vi	-11.2188
▁صال	-11.2191
▁يعت	-11.2191
▁تغ	-11.2194
ो	-11.2197
▁ذهانت	-11.2197
▁اڏي	-11.2197
▁ورين	-11.2199
▁هٽي	-11.2204
▁ٺهڻ	-11.2208
▁يمبر	-11.221
▁ازن	-11.2214
▁عنده	-11.2215
▁ٿل	-11.222
سوع	-11.2229
▁فيڪ	-11.223
▁بائي	-11.2233
▁تحف	-11.2237
▁زني	-11.2238
یر	-11.2241
▁ولف	-11.2242
▁فير	-11.225
گا	-11.2257
▁عدن	-11.2281
▁داغ	-11.2282
▁ڪدم	-11.2283
▁مداح	-11.2284
▁ڏٺم	-11.2287
▁الان	-11.229
▁نوم	-11.2291
▁نيان	-11.2299
لڪ	-11.2299
▁نادر	-11.2303
▁سحر	-11.2303
▁اتك	-11.2305
▁هس	-11.2309
▁عاش	-11.232
▁لاك	-11.2321
▁لمس	-11.2327
▁ot	-11.2331
▁لابي	-11.2334
وکو	-11.2335
▁نک	-11.2338
▁وٽل	-11.2343
▁pb	-11.2348
▁اعي	-11.2362
یں	-11.2363
▁pu	-11.2363
▁اپا	-11.2365
▁پٽن	-11.2368
▁زعل	-11.2373
▁حكم	-11.2377
▁زيو	-11.2377
▁وڪرين	-11.2383
▁متي	-11.2389
▁اريا	-11.2399
▁اسرا	-11.24
▁ڪروم	-11.2401
▁نبو	-11.2403
▁طار	-11.2407
▁پڙها	-11.2411
لك	-11.2416
▁واڪ	-11.2427
▁اشي	-11.2428
op	-11.2432
▁eb	-11.2436
▁وجن	-11.2438
▁يٽرن	-11.244
▁نداري	-11.2445
▁ڪٿا	-11.2447
▁سچا	-11.2448
▁Th	-11.2453
▁سندو	-11.2468
▁ci	-11.2469
>	-11.2474
ga	-11.2479
▁آيد	-11.2479
فو	-11.2489
▁انته	-11.2491
▁Ni	-11.2492
▁ربن	-11.2492
▁One	-11.2498
▁ڙهڻ	-11.2499
▁Tra	-11.2499
تل	-11.2504
▁وڙڻ	-11.2504
▁تد	-11.2505
▁مڪان	-11.2506
▁وده	-11.2512
▁سى	-11.2513
ek	-11.2518
▁زه	-11.2519
▁Fi	-11.2519
▁صيد	-11.2519
▁لول	-11.253
▁قار	-11.253
▁ورڇ	-11.2533
نڀ	-11.2536
▁گاري	-11.2541
▁Sta	-11.2544
▁وڙيو	-11.2545
▁ant	-11.2552
▁بيڊ	-11.2556
▁يجو	-11.2559
▁ڪڪر	-11.256
▁ڪائو	-11.2563
▁34	-11.2568
▁ضو	-11.2572
TC	-11.258
▁رفان	-11.2588
وپ	-11.259
▁Ki	-11.2592
▁ڏيئ	-11.26
▁سوز	-11.2606
▁غز	-11.2607
▁نوح	-11.2619
▁ستقب	-11.2633
▁پيٽر	-11.2637
مه	-11.2646
▁وليا	-11.2647
▁اڪبر	-11.265
▁1)	-11.2663
▁بته	-11.2664
▁ٻلي	-11.2669
▁آھ	-11.267
▁ٺٽ	-11.267
▁ab	-11.2676
▁فوڊ	-11.2683
▁ئرل	-11.2684
▁فوا	-11.2689
▁سورج	-11.2691
▁كد	-11.2696
زم	-11.2706
▁جهت	-11.2707
▁ڪچي	-11.2709
▁وفاق	-11.2709
طالع	-11.2711
▁ov	-11.2718
انا	-11.2723
▁هش	-11.2727
▁95	-11.2728
سط	-11.2728
▁صرا	-11.2728
▁غني	-11.2737
▁هدا	-11.2737
▁قصه	-11.2739
شه	-11.2741
▁يڪيو	-11.2743
▁پنه	-11.2747
▁تط	-11.275
▁كش	-11.2751
▁رايا	-11.276
▁اعل	-11.2764
▁رتن	-11.2765
▁سگھج	-11.2782
نڊا	-11.2782
▁ڪجه	-11.2783
AT	-11.2783
▁mat	-11.2787
▁واست	-11.2788
ئم	-11.279
▁►	-11.2801
▁ميڙ	-11.2805
▁وڪڻڻ	-11.2806
ُک	-11.2812
he	-11.2817
▁nu	-11.2817
▁حقيق	-11.2821
▁ڪوچ	-11.2826
▁عكس	-11.2829
▁يئن	-11.2831
▁wor	-11.2832
▁لوپ	-11.2839
▁Gi	-11.284
▁گھا	-11.284
▁شرا	-11.2842
50	-11.2846
▁ڀٽ	-11.2864
▁سوئي	-11.2871
▁اشو	-11.2873
▁Amr	-11.2882
▁هات	-11.2882
▁ڪڏ	-11.289
▁كدا	-11.2894
▁،"	-11.2896
▁پيمان	-11.2902
▁ھڙو	-11.2914
لٽ	-11.2915
▁درا	-11.2946
▁جماع	-11.2947
▁وتن	-11.2956
▁جبهه	-11.296
▁bet	-11.2963
▁ٺيون	-11.2965
▁گرو	-11.2975
▁ضما	-11.2975
▁برج	-11.2976
ګ	-11.2985
▁لاڻ	-11.2987
ڄي	-11.2991
ڇو	-11.2992
ئه	-11.2993
▁ٽڪي	-11.2995
▁گهن	-11.2996
▁تما	-11.2997
▁ھد	-11.3004
خت	-11.3004
▁ديه	-11.3007
▁جڪ	-11.3019
▁دوس	-11.3025
▁म	-11.3038
▁هلن	-11.3044
▁ڙائي	-11.3053
▁يوزر	-11.3059
▁ڳل	-11.3061
مال	-11.3085
مير	-11.3089
▁ميون	-11.3093
▁رڪو	-11.3098
▁وسا	-11.3098
aj	-11.3099
▁تقد	-11.3099
▁خف	-11.3106
▁بيو	-11.3113
▁ئڪ	-11.3114
▁مبروك	-11.3118
▁ريش	-11.312
▁لوڏ	-11.3121
▁اوڙ	-11.3126
▁ut	-11.3128
▁400	-11.3129
▁توي	-11.3131
▁گی	-11.314
▁اسد	-11.314
▁وٽر	-11.3145
▁صفر	-11.3151
▁cha	-11.3152
▁ٿوڪ	-11.3154
▁II	-11.3159
ut	-11.3168
▁ڊف	-11.317
ڪٽ	-11.3173
مى	-11.3173
سڪ	-11.3174
▁ud	-11.3177
▁لهن	-11.3181
▁Du	-11.3184
صح	-11.3189
▁ڙيو	-11.3191
▁بطن	-11.3193
▁لاق	-11.3194
▁ھان	-11.3195
▁عترف	-11.3198
▁ڏھ	-11.3199
▁blo	-11.3199
▁ڪثر	-11.3199
قر	-11.3207
▁ٽيشن	-11.3215
▁ريقا	-11.3216
▁واک	-11.3217
▁ڀنگ	-11.3229
▁آڻين	-11.3231
▁دران	-11.3235
آء	-11.3238
▁چوند	-11.3241
▁اڻه	-11.3243
▁Be	-11.3245
▁نفر	-11.3245
ide	-11.3245
▁شته	-11.325
▁نيوي	-11.3252
▁ze	-11.3253
▁شاٽ	-11.326
▁فتي	-11.326
א	-11.3266
٠	-11.3266
▁سيو	-11.3267
▁لسه	-11.3269
▁Com	-11.327
▁داز	-11.3274
▁هيرن	-11.3276
كو	-11.3278
é	-11.3279
▁حضر	-11.3287
▁لاڳ	-11.3287
20	-11.3288
▁//	-11.329
▁رسائ	-11.329
▁صلح	-11.3292
اوي	-11.3293
▁ڏينه	-11.3302
▁زنان	-11.3304
لى	-11.3311
▁ٽئ	-11.332
▁يسو	-11.332
▁کش	-11.332
▁ڍڪ	-11.3323
▁39	-11.3326
.5	-11.3334
▁ناج	-11.3338
▁تحر	-11.334
▁لقا	-11.3347
▁شمو	-11.3349
▁مشي	-11.3356
▁ٽس	-11.3357
▁پني	-11.3365
▁جڙي	-11.3367
▁رڪر	-11.3369
▁اشت	-11.3379
▁وبي	-11.3389
▁ڻيون	-11.339
▁مگ	-11.3394
هار	-11.3395
40	-11.3397
▁وٿ	-11.3401
▁رنج	-11.3406
▁اهين	-11.3413
▁چري	-11.3419
▁رمائ	-11.3424
▁لڊر	-11.3427
▁Cr	-11.3433
▁سڻ	-11.3435
▁دفع	-11.3442
▁توق	-11.3443
▁ريڪي	-11.345
▁عدي	-11.3465
TE	-11.3469
▁جند	-11.3477
▁هيد	-11.3478
▁هجو	-11.3494
▁لانگ	-11.3505
▁ملك	-11.3507
▁فط	-11.351
▁ڪاسٽ	-11.3516
▁يزان	-11.3521
▁Wo	-11.3527
▁قمر	-11.3536
زمائ	-11.3537
▁chi	-11.3543
ؤن	-11.3549
▁وبه	-11.3558
▁رهين	-11.3579
وئي	-11.3592
▁روين	-11.3596
▁عة	-11.3598
▁ثل	-11.36
IN	-11.3607
▁لاه	-11.3608
▁مركز	-11.3611
▁اڍا	-11.3613
▁mon	-11.3613
▁تول	-11.3619
▁ڪيش	-11.3623
▁نئ	-11.363
▁يتك	-11.3635
اله	-11.3638
▁ڪلپ	-11.3651
پٽ	-11.3656
▁Lu	-11.3656
▁شيا	-11.366
▁معت	-11.3663
▁سونه	-11.3668
▁ئم	-11.367
▁راڪ	-11.3673
▁عيا	-11.3675
▁ین	-11.3676
~	-11.3678
▁امو	-11.3681
▁عدو	-11.3684
▁ويژ	-11.3688
▁ريڪٽ	-11.3691
غل	-11.3695
▁न	-11.3696
▁لهائڻ	-11.3699
▁هربان	-11.3699
▁لقيت	-11.37
▁سيس	-11.3703
▁فرش	-11.3707
▁دة	-11.3712
AN	-11.3715
▁مض	-11.3715
ید	-11.3717
▁رھڻ	-11.3717
▁شمس	-11.3728
▁رهون	-11.3735
▁داني	-11.3743
▁ولس	-11.3758
▁نڊون	-11.3761
▁دٻي	-11.3763
▁ووي	-11.3767
فد	-11.3771
▁ht	-11.3772
▁الهي	-11.3774
▁بچائ	-11.3774
آم	-11.3781
▁اجه	-11.3782
▁٤	-11.3784
▁برادر	-11.3784
▁اكس	-11.3784
▁وصف	-11.3788
▁fl	-11.3789
▁جلا	-11.3791
▁ڪٺ	-11.3792
▁ڪيچ	-11.3796
▁dy	-11.3796
▁هوري	-11.3799
▁ڀرو	-11.3803
▁يٽس	-11.3804
▁اونه	-11.3809
▁ارک	-11.3811
▁ويلي	-11.3812
▁عجبت	-11.3819
va	-11.382
▁ڙين	-11.3821
▁کی	-11.3822
▁tur	-11.3831
▁لمه	-11.3838
▁هُئ	-11.3842
تم	-11.3844
▁یش	-11.3847
▁اٺن	-11.3853
▁چوڏه	-11.3868
▁عمي	-11.387
▁ثبت	-11.3873
▁سيب	-11.3882
▁ريات	-11.389
▁وص	-11.3895
▁باا	-11.3895
▁هما	-11.3903
▁زع	-11.3904
▁che	-11.3917
▁رجال	-11.3929
ندر	-11.3931
▁عوامل	-11.3934
۱	-11.3941
▁ليبل	-11.3944
اڻو	-11.3945
▁ترس	-11.3953
▁خاطب	-11.3954
ge	-11.3959
▁٥	-11.3959
▁ٱ	-11.396
هڙيء	-11.3961
▁سيٽن	-11.3965
▁ty	-11.3966
▁آله	-11.3967
▁سڙي	-11.397
▁بلي	-11.397
▁ڄار	-11.397
▁ديا	-11.3975
so	-11.3976
▁يبر	-11.398
▁لڄ	-11.3991
▁نط	-11.3996
▁ڌن	-11.4004
▁ھيون	-11.4007
▁چڱا	-11.401
▁چاھي	-11.4025
▁تام	-11.4041
▁يڙه	-11.4042
▁Mart	-11.4044
▁اڪا	-11.4051
▁ظهر	-11.4054
▁داسي	-11.4062
سى	-11.4063
▁ايب	-11.4065
▁پنن	-11.4067
▁وگ	-11.4069
▁آگ	-11.407
▁اوو	-11.4074
رى	-11.4078
▁اوج	-11.4086
▁بج	-11.41
اڳ	-11.4104
▁تسا	-11.4106
▁يمس	-11.4112
▁كات	-11.4114
▁بع	-11.4116
▁وشي	-11.4119
▁Zone	-11.4131
▁دائود	-11.4131
▁اُت	-11.4131
▁حامل	-11.4131
▁مرتضي	-11.4131
▁ڊڪ	-11.4134
▁hu	-11.4138
▁نواف	-11.4145
▁جائ	-11.4146
▁ٿيند	-11.4148
▁Ka	-11.4149
▁ort	-11.4158
▁ٻٽي	-11.4168
tp	-11.4169
اڪت	-11.417
▁ac	-11.4175
▁ويم	-11.4186
▁يٺ	-11.4197
▁هبل	-11.4197
▁نقص	-11.42
▁وڍ	-11.4201
*	-11.4203
▁اڌو	-11.4204
۰	-11.4206
▁رمز	-11.4211
.3	-11.4214
▁اضي	-11.4215
▁پلا	-11.4216
ذي	-11.4219
▁(5)	-11.422
▁طارق	-11.4222
▁يداري	-11.4226
▁vo	-11.4228
▁يانگ	-11.4235
▁پُٽ	-11.4239
▁لندي	-11.425
▁ڪک	-11.4259
▁ڳچ	-11.4259
داد	-11.4261
▁ترت	-11.4267
▁رمو	-11.4269
شين	-11.4269
▁int	-11.427
tu	-11.427
ائيس	-11.4286
▁Ar	-11.4288
▁ps	-11.4295
0	-11.4296
▁www	-11.431
▁راغب	-11.431
▁ڳڻپ	-11.4317
▁رحيم	-11.4318
▁اڃ	-11.432
▁حو	-11.4328
▁ريما	-11.4328
▁يڏ	-11.4329
▁شهور	-11.4329
حط	-11.4334
اص	-11.4341
▁ٽچ	-11.4343
▁لينا	-11.4346
▁55	-11.4347
▁ڪنج	-11.4358
▁قويه	-11.4359
▁دت	-11.4364
▁هلون	-11.4374
▁ريشم	-11.4385
▁سڏين	-11.4387
▁Tu	-11.4389
▁لاقي	-11.4392
▁آري	-11.4401
▁دختر	-11.4401
▁وريو	-11.4403
▁way	-11.4403
▁ازد	-11.4408
▁سافر	-11.441
▁لاٿو	-11.4415
▁ٻيڙ	-11.4417
▁ڄمڻ	-11.4417
▁ak	-11.442
▁ااه	-11.443
▁جگر	-11.443
▁ڏکي	-11.4432
▁ڊائري	-11.4436
▁تجي	-11.4439
▁وريج	-11.4449
▁اوڏ	-11.4464
▁يشو	-11.4471
ڪڻ	-11.4482
▁يليون	-11.4488
▁En	-11.4489
▁هيئت	-11.4493
▁فضول	-11.4494
DM	-11.4495
▁گهاٽ	-11.4501
▁جناح	-11.4503
▁Pad	-11.4504
▁منج	-11.4504
▁لغت	-11.4515
▁يوت	-11.4523
▁نوف	-11.4526
▁Jo	-11.4529
▁ٽال	-11.4534
▁SD	-11.4534
▁اتا	-11.4539
▁الها	-11.4543
▁شيٽ	-11.4544
▁لفت	-11.4553
نيف	-11.4557
هون	-11.4562
▁يغ	-11.4565
▁هڙي	-11.4575
▁رئ	-11.458
▁يشل	-11.4582
▁ڪلا	-11.4583
▁ٺڳي	-11.4584
▁ورق	-11.4584
حل	-11.4585
▁اٻ	-11.4585
▁رها	-11.4587
▁تسلي	-11.4588
▁مدو	-11.459
▁اوى	-11.4592
▁تحق	-11.4594
▁بون	-11.4595
▁ډ	-11.4607
▁ديم	-11.461
▁قف	-11.4612
ٿي	-11.4617
▁بده	-11.4628
▁شدن	-11.463
▁رجل	-11.4632
▁ائنس	-11.4633
▁--	-11.4637
▁نسب	-11.4642
▁اپي	-11.4643
▁كري	-11.4647
چو	-11.4653
▁نشو	-11.4653
om	-11.4663
▁تاني	-11.4668
▁يڪن	-11.4675
▁هادي	-11.4702
▁َم	-11.4706
▁خطا	-11.4723
▁أخي	-11.4729
▁هيري	-11.4732
▁44	-11.4738
▁مدن	-11.4741
آه	-11.4745
۲	-11.476
▁جاز	-11.4766
▁جهند	-11.477
▁ڪوپ	-11.4772
▁ٿار	-11.4773
▁يگن	-11.4775
▁64	-11.4779
▁علوم	-11.4779
▁43	-11.478
▁اكت	-11.4782
ديني	-11.4784
▁Fa	-11.4789
▁ترڪيب	-11.4792
sp	-11.4792
ER	-11.4794
▁بكل	-11.4796
▁ڵ	-11.4798
▁نهنجي	-11.4805
▁يلين	-11.4807
▁اى	-11.481
▁هڙو	-11.4818
▁وقار	-11.4818
▁men	-11.4825
▁يترا	-11.4829
▁لاني	-11.483
▁لسا	-11.4836
▁قصي	-11.4855
▁بيٺ	-11.486
عاهد	-11.4863
▁ارل	-11.4866
▁Xia	-11.4868
▁دادا	-11.4872
▁طم	-11.488
▁ائٽ	-11.4883
▁تی	-11.4886
▁ٺڪ	-11.4898
▁يالي	-11.4898
▁cor	-11.4902
▁ڪفر	-11.4911
▁لهائي	-11.4914
oot	-11.492
▁پسي	-11.4922
▁حض	-11.4922
▁om	-11.4928
▁rou	-11.4942
▁وبس	-11.4944
▁سوره	-11.4945
▁غال	-11.4949
▁سمن	-11.4954
سة	-11.4965
▁سارنگ	-11.4972
▁Cu	-11.4974
▁اڇا	-11.4978
▁ڪارن	-11.4979
▁مبار	-11.4983
▁37	-11.4987
▁ويژه	-11.499
▁sin	-11.4996
▁کڙي	-11.5006
▁نفيس	-11.5008
فذ	-11.5011
▁ٿاڻي	-11.5018
▁فيض	-11.502
▁پڇو	-11.5027
▁هاس	-11.5032
▁هنيا	-11.5039
▁واش	-11.5044
پس	-11.5048
▁Ac	-11.5051
حال	-11.5053
▁ב	-11.5065
▁گوش	-11.5072
▁ٽٽي	-11.5077
nt	-11.5079
طور	-11.5081
▁ستائ	-11.5089
▁ُت	-11.5095
▁اوپ	-11.5098
حق	-11.5102
▁ڏنگ	-11.5105
لق	-11.5107
▁يفڪ	-11.5116
وج	-11.5126
▁HT	-11.5126
▁سخ	-11.5131
▁Ri	-11.5158
▁بلو	-11.5161
▁نگري	-11.5162
▁لگ	-11.5163
▁ڪاڻ	-11.5169
▁راك	-11.5169
▁روپيا	-11.517
▁وكل	-11.517
▁لحين	-11.517
▁ميلو	-11.5172
▁تجار	-11.5175
▁ښ	-11.5177
sh	-11.5181
▁نقاب	-11.519
▁قافل	-11.5191
▁SA	-11.5192
▁گلا	-11.5195
▁Hi	-11.5198
▁حيل	-11.5206
شك	-11.521
▁نوو	-11.5214
▁ڪبي	-11.5217
▁انع	-11.522
▁ديري	-11.5221
▁بكم	-11.5226
▁ڀن	-11.5229
▁وله	-11.5229
▁شمع	-11.523
▁وائل	-11.5232
▁رنه	-11.5236
▁nda	-11.524
▁تاري	-11.524
▁لڻ	-11.5242
▁sto	-11.5246
▁El	-11.5249
▁ورب	-11.5249
▁त	-11.5259
▁اڍي	-11.526
▁**	-11.5262
▁lt	-11.5267
▁سطو	-11.5268
▁ڍڳ	-11.527
▁ايگ	-11.527
▁نصف	-11.5273
▁بتي	-11.5274
ڏڻ	-11.5281
▁can	-11.5286
▁مٺو	-11.5291
▁نديد	-11.5291
ری	-11.5294
▁ڏٺل	-11.5294
▁چڻ	-11.53
▁قرن	-11.5305
▁مومل	-11.5306
▁met	-11.5314
▁بغي	-11.5325
▁Wa	-11.5332
الت	-11.5334
▁ويڪر	-11.5335
▁حبه	-11.5346
▁ۡ	-11.5359
▁فسا	-11.536
▁work	-11.536
▁اقوام	-11.536
▁→	-11.5367
▁وکي	-11.5373
▁آيس	-11.5377
حس	-11.538
▁تحد	-11.5381
▁متى	-11.5393
دم	-11.5399
▁نث	-11.5407
▁نگه	-11.5416
▁85	-11.5422
▁نوري	-11.5423
اؤ	-11.5424
▁عص	-11.5427
آح	-11.5427
▁سيا	-11.5431
▁ماڊ	-11.5432
ذآ	-11.5432
▁lin	-11.5434
▁هران	-11.5437
▁ائنا	-11.5439
▁XD	-11.544
▁روه	-11.544
▁سڃات	-11.5441
ET	-11.5442
▁مشكو	-11.5446
ٍ	-11.5446
▁گوي	-11.5451
▁شرڪ	-11.5453
▁gre	-11.5463
▁دآ	-11.5468
▁لٽر	-11.5468
▁رينا	-11.5475
▁لذ	-11.5482
▁رواي	-11.5489
ينڊر	-11.5491
▁Pe	-11.5493
▁ٺاڻ	-11.5495
▁120	-11.5499
▁ٻچ	-11.5512
▁as	-11.5524
▁جڏ	-11.5526
▁سوپ	-11.5536
▁ڀٽي	-11.555
▁هيرا	-11.555
▁بران	-11.5556
▁لتا	-11.5558
وں	-11.5561
▁مرشد	-11.5562
▁ٽيٽ	-11.5565
▁ڃاڻ	-11.5568
▁ندؤ	-11.5579
اچ	-11.5585
▁صباح	-11.559
▁نسو	-11.5597
▁حوا	-11.5598
▁ھڻي	-11.56
▁صر	-11.5607
▁مينار	-11.5611
▁لئي	-11.5611
لی	-11.5611
▁مونک	-11.5615
▁ok	-11.5622
▁باق	-11.5626
▁4:	-11.5632
go	-11.5633
▁نچي	-11.5633
▁فض	-11.5644
▁نٽر	-11.5644
▁نبا	-11.5651
▁nge	-11.5654
▁bon	-11.5654
▁ٿائ	-11.5662
▁عاجز	-11.5665
▁هميش	-11.5667
25	-11.5669
▁نسٽ	-11.567
▁ذوق	-11.567
آت	-11.5673
▁نائين	-11.5675
▁ترکي	-11.5675
▁my	-11.5682
▁org	-11.5685
▁ٿائي	-11.569
▁رسا	-11.5692
▁سبز	-11.5696
▁not	-11.5701
▁چوڪ	-11.5707
▁مڇ	-11.5709
▁بوٽن	-11.5718
▁عمال	-11.572
▁Ga	-11.5722
▁انى	-11.5725
▁حک	-11.5734
SS	-11.5742
it	-11.5745
▁يڙي	-11.5747
▁الج	-11.5752
▁ستون	-11.5752
ئٽر	-11.5763
▁راعظم	-11.5769
▁أهم	-11.577
▁يٽري	-11.577
▁شروط	-11.5771
▁سني	-11.5778
▁,,,	-11.5779
▁وليت	-11.5782
▁ڍور	-11.5785
▁نڪو	-11.5792
▁فقي	-11.5793
كم	-11.5794
▁ڏنڊ	-11.5795
▁صيل	-11.5796
▁قضا	-11.5799
hou	-11.5818
▁ايڪو	-11.582
▁يملي	-11.5822
▁سرخ	-11.5828
▁dia	-11.5831
▁درش	-11.5834
▁ڃا	-11.5834
▁وگر	-11.5845
▁چڪ	-11.5849
▁آفر	-11.5849
▁ڊيڊ	-11.585
▁وياج	-11.5854
▁نال	-11.5869
▁HTML	-11.5874
▁***	-11.5874
▁وتو	-11.5883
▁اڪائ	-11.5883
▁ڳڻي	-11.5886
ڊنٽ	-11.5889
▁حسي	-11.5893
▁كدة	-11.5899
▁An	-11.5899
▁ڪاڏي	-11.5902
▁ماسي	-11.5902
▁ڪنٽ	-11.5911
▁get	-11.5915
▁ِس	-11.592
▁42	-11.5928
▁غد	-11.5928
▁فڪ	-11.593
0%	-11.593
▁اض	-11.5931
▁گارن	-11.5933
گن	-11.5935
▁لٺ	-11.5941
▁اراد	-11.5948
▁بحا	-11.5949
▁سڪا	-11.595
▁ولن	-11.5951
▁ترسي	-11.5972
▁بوس	-11.5973
▁بره	-11.5979
▁اقبال	-11.5981
▁خلوص	-11.5981
▁ware	-11.5984
▁CB	-11.5986
▁وئن	-11.5988
▁نسڪر	-11.5988
▁شري	-11.5992
▁قام	-11.5993
▁والن	-11.5995
▁فتن	-11.6018
▁سيٰ	-11.6024
ھار	-11.6037
▁سخن	-11.6044
▁هيڪر	-11.6058
▁وينس	-11.6058
▁ٽڻ	-11.6069
ّ	-11.6075
▁سات	-11.6085
▁صه	-11.6088
▁تحريم	-11.6089
فة	-11.609
▁آقا	-11.609
▁امه	-11.6095
▁سمت	-11.6096
▁يانو	-11.6096
as	-11.6101
▁افوا	-11.6103
▁ہے	-11.6104
is	-11.6109
▁نهون	-11.6121
عة	-11.6124
▁غبي	-11.6124
▁سيئ	-11.6131
▁پیش	-11.6144
وڪيا	-11.6147
▁بات	-11.6148
▁ندين	-11.6166
▁دِ	-11.6167
▁سهل	-11.617
یز	-11.6177
▁کے	-11.618
▁انگل	-11.6191
أإ	-11.6194
▁قميص	-11.6197
▁ذھن	-11.6197
▁نقره	-11.6198
▁فارغ	-11.6199
▁پيرو	-11.6202
▁غالي	-11.6206
▁لڌو	-11.6208
▁ديل	-11.6209
▁اشن	-11.6211
▁يجنس	-11.6217
▁ليكم	-11.6225
▁ادش	-11.6228
▁ليد	-11.623
ci	-11.6231
▁عنه	-11.6231
▁بب	-11.6238
▁ڀاڳ	-11.6242
▁اندو	-11.6249
▁نوش	-11.6262
سڻ	-11.6271
▁حرم	-11.6271
▁هيڪل	-11.6273
▁Mu	-11.6274
وء	-11.6275
▁حليم	-11.6276
▁وتر	-11.6286
یم	-11.6288
كار	-11.6298
▁net	-11.63
▁يعي	-11.6302
▁OS	-11.6303
▁شود	-11.6304
े	-11.6307
▁य	-11.6307
▁سمر	-11.6309
▁لنڊ	-11.6309
▁٩	-11.631
▁لڏپ	-11.6312
▁عمد	-11.6316
▁جِي	-11.6317
▁4)	-11.6321
▁ورھ	-11.6322
▁پوپٽ	-11.6325
▁برٽ	-11.633
▁يواري	-11.6337
▁ربو	-11.6343
▁ريائي	-11.6343
▁آيه	-11.6347
▁رضي	-11.6351
▁قهر	-11.6354
▁واجه	-11.6365
سڀ	-11.6365
▁بصر	-11.6366
▁ارڪر	-11.6372
TN	-11.6377
▁روو	-11.6381
▁راش	-11.6382
▁حلم	-11.6386
+	-11.6404
▁انجن	-11.6412
هاڙ	-11.6415
▁PDF	-11.6418
▁ڀوڳ	-11.642
▁راثي	-11.6422
▁أنت	-11.6424
▁cen	-11.6428
▁جهون	-11.6433
▁سونا	-11.644
▁حف	-11.6442
▁47	-11.6444
▁زاني	-11.646
▁اريل	-11.6468
▁آڻ	-11.6469
▁لحد	-11.6475
ڙڻ	-11.6483
ومي	-11.6483
▁ڦا	-11.649
ورة	-11.6501
▁انوا	-11.6503
▁آهر	-11.6503
▁څ	-11.6522
▁قيم	-11.6524
▁QUOTE	-11.653
▁Tube	-11.653
▁Clo	-11.6534
▁٦	-11.6537
▁فك	-11.6538
▁رٽر	-11.6546
زل	-11.6547
▁رتا	-11.6548
rk	-11.6555
▁ٻئ	-11.6559
▁مله	-11.656
▁250	-11.6567
EC	-11.6571
▁دعي	-11.6576
▁يٽن	-11.6576
▁Op	-11.6592
▁ٽيب	-11.6592
▁ويجھ	-11.6594
یت	-11.6601
▁راهم	-11.6605
داف	-11.6612
▁بجا	-11.6615
▁جوئ	-11.6615
▁اقر	-11.6621
▁ليڊي	-11.6627
▁Ph	-11.6629
▁گھرج	-11.663
١	-11.663
$	-11.663
▁شدي	-11.6637
▁سکن	-11.6645
راط	-11.6653
▁تركي	-11.6654
▁خلو	-11.666
▁My	-11.6661
▁شيل	-11.6664
▁ٽريٽ	-11.6673
▁زنگ	-11.6674
▁رجعت	-11.6682
▁بيلٽ	-11.6683
▁38	-11.6685
▁رزش	-11.6689
▁لعل	-11.6691
▁مى	-11.6742
▁شون	-11.6743
▁ڪيڏا	-11.6751
▁sha	-11.6752
▁مرکز	-11.6759
▁Out	-11.676
▁ميوا	-11.6761
▁نيئ	-11.6764
▁گام	-11.6766
تك	-11.6769
▁مزا	-11.677
▁ڀاڻ	-11.677
▁AM	-11.6781
▁يانا	-11.6781
▁متع	-11.6784
▁يونا	-11.6792
▁فله	-11.6792
▁6-	-11.6797
▁رويا	-11.6811
▁فرين	-11.6813
ٹر	-11.6813
▁هيج	-11.6818
▁ڳه	-11.6822
▁CA	-11.6825
▁رڍ	-11.6828
▁سيٺ	-11.6831
▁تنب	-11.6844
▁عشر	-11.6845
▁قير	-11.6848
▁ئش	-11.6854
MS	-11.6858
▁گور	-11.6858
آب	-11.6877
▁هالا	-11.6878
▁نجوم	-11.6883
▁ويلا	-11.6887
▁رٿيل	-11.689
▁سلي	-11.6895
▁كار	-11.6896
▁ros	-11.6899
▁ڀور	-11.6904
▁تنه	-11.6905
▁حرك	-11.6908
▁رمت	-11.6917
▁گهڻ	-11.6921
▁دق	-11.6925
▁آتم	-11.6936
▁ls	-11.6938
▁بوط	-11.6947
▁زمن	-11.6956
▁کري	-11.6967
▁ديرو	-11.6976
▁برك	-11.6979
▁برڪ	-11.6987
▁ڪنول	-11.699
▁گران	-11.699
ٴ	-11.6993
ۑ	-11.6993
▁(6)	-11.6993
▁عکس	-11.6993
▁ल	-11.6993
▁سيء	-11.6994
▁نکن	-11.6994
▁ضبط	-11.6998
▁چرپر	-11.6999
▁Ama	-11.7008
▁ڪڙو	-11.701
▁وسائ	-11.7012
▁سيز	-11.7014
مبر	-11.7014
لے	-11.7026
وئ	-11.7028
اروي	-11.7029
▁يٽون	-11.7031
▁Fe	-11.7032
▁مرگ	-11.7035
زاق	-11.7036
▁خطير	-11.7038
▁لجي	-11.7038
▁رطان	-11.7039
▁am	-11.704
▁گيس	-11.704
▁At	-11.7041
▁توان	-11.7042
▁ڪلم	-11.7042
zz	-11.7044
▁فرح	-11.7047
▁ماد	-11.7052
▁سورت	-11.7055
▁عبي	-11.7073
▁تخا	-11.7076
▁نرال	-11.7081
be	-11.709
▁هديه	-11.7091
▁يجر	-11.7093
▁برر	-11.7094
️	-11.7098
▁آڱر	-11.7112
▁ضعيف	-11.7114
▁tro	-11.7114
▁ليٽي	-11.7115
دام	-11.7119
▁يلم	-11.712
▁wo	-11.7125
▁هرب	-11.7131
▁ko	-11.7132
▁هاٿي	-11.7132
▁جاج	-11.7141
▁دھ	-11.7143
▁46	-11.7149
ٿر	-11.715
▁ويچ	-11.7151
▁نائڻ	-11.716
▁نسا	-11.716
▁فوق	-11.7171
▁اوك	-11.7173
▁سهم	-11.7175
▁عدل	-11.7175
▁ونيا	-11.7179
▁لوگ	-11.7187
▁Un	-11.7188
▁ئلي	-11.7192
▁راڻا	-11.7195
▁ٿري	-11.7198
▁شعا	-11.7205
▁ڊزائ	-11.7208
قد	-11.7211
▁pri	-11.7213
▁49	-11.7213
▁car	-11.7213
▁زانو	-11.7217
▁بى	-11.722
ES	-11.7226
▁USB	-11.7233
▁ּ	-11.7234
▁ٽتائي	-11.7234
▁نقاد	-11.7234
▁ذلك	-11.7236
▁لبو	-11.7238
▁dra	-11.724
▁وام	-11.7247
▁دودي	-11.726
▁لڏ	-11.7267
▁ويج	-11.7269
▁موش	-11.7274
ڪم	-11.7289
▁قصا	-11.7291
▁عدا	-11.7295
شش	-11.7296
▁ماند	-11.7296
▁اٿڻ	-11.7301
سڪي	-11.7302
▁بدك	-11.7303
▁پارا	-11.731
▁ڌڻ	-11.7318
▁jo	-11.7322
▁چمي	-11.7325
▁متح	-11.7328
▁سجن	-11.7331
▁برنا	-11.7333
▁حلف	-11.7339
▁تعا	-11.7339
▁رچو	-11.7343
▁ھاڻ	-11.7354
▁flix	-11.7354
▁®	-11.7355
▁ڳئ	-11.7355
▁نواري	-11.7358
▁52	-11.7359
زين	-11.7362
▁USD	-11.7364
▁ٽوئر	-11.7365
▁چراغ	-11.7366
▁Cha	-11.7368
▁نهنجو	-11.7368
▁وجو	-11.7371
▁نجون	-11.7376
▁ڦل	-11.7382
▁ڪلائ	-11.7385
▁سندا	-11.7385
▁وينا	-11.7389
▁جسٽ	-11.7392
▁اسپا	-11.7393
اڻيء	-11.7397
▁98	-11.7403
▁fin	-11.7413
RS	-11.7413
▁ڃان	-11.7415
▁41	-11.7418
▁ڦٽي	-11.7421
▁شمي	-11.7421
▁wat	-11.7435
▁ڊنگ	-11.744
▁ast	-11.7442
▁اسف	-11.7445
▁سوئ	-11.7445
▁مشڪ	-11.7452
▁lla	-11.7452
▁ورنا	-11.7453
▁جبر	-11.7453
▁لفٽ	-11.7459
▁Pu	-11.7462
▁يوسي	-11.7466
ang	-11.747
▁xi	-11.7471
▁سيف	-11.7476
▁فاروق	-11.7479
▁دكتر	-11.748
▁اظن	-11.748
▁ju	-11.7481
▁ڌوئي	-11.7483
▁ڏائي	-11.7491
▁سڱ	-11.7492
▁ڪاٿي	-11.7495
▁گانا	-11.7508
فف	-11.7514
▁قاف	-11.7515
▁ذرا	-11.7528
▁اسب	-11.7529
▁ڪيٽن	-11.7536
▁لوني	-11.7542
▁Ci	-11.7544
▁پروا	-11.755
▁ونکي	-11.7555
▁لوئ	-11.7555
▁gg	-11.758
▁Nam	-11.7583
▁عاي	-11.7592
▁^_^	-11.7603
▁◄	-11.7603
▁q	-11.7606
▁ياض	-11.7606
▁ڪانٽ	-11.7607
يجٽ	-11.7617
▁نٽي	-11.7618
AS	-11.7619
▁ھئ	-11.762
▁لعبة	-11.7623
▁sy	-11.7627
▁IN	-11.7629
اں	-11.763
سز	-11.7634
▁اقا	-11.7637
▁ستاد	-11.7647
sc	-11.7648
▁رشد	-11.7648
▁وقا	-11.7649
اعد	-11.7649
▁زرد	-11.7649
▁الغ	-11.7655
▁بيح	-11.7657
▁آخه	-11.7658
▁چوپ	-11.766
ائڪر	-11.7662
آف	-11.7673
▁دگ	-11.768
▁مٺا	-11.7681
▁آهو	-11.7698
▁امك	-11.77
▁کون	-11.7702
▁يوري	-11.7703
▁گوڙ	-11.7706
▁واند	-11.7707
ڛ	-11.7716
▁مايا	-11.7721
▁وردي	-11.7731
▁ذرو	-11.7736
كسر	-11.7737
قص	-11.7744
▁گرڊ	-11.7748
▁علت	-11.7749
▁ناني	-11.7752
▁لدار	-11.7763
▁گرل	-11.7771
▁قين	-11.7773
▁عبو	-11.7776
▁يفي	-11.7784
▁پوائ	-11.7786
▁ملها	-11.7788
dd	-11.7795
▁پوپ	-11.7799
▁لاٿ	-11.7804
▁ٿڪل	-11.7813
▁رة	-11.7813
▁نيٽو	-11.782
▁Im	-11.7824
▁ندان	-11.7841
▁رسو	-11.7843
▁TM	-11.7844
▁PS	-11.7851
▁©	-11.7857
▁ولھ	-11.7858
▁عما	-11.7864
▁Per	-11.7865
▁ڀڃي	-11.7866
▁هجوم	-11.7871
▁ابلو	-11.788
▁چؤ	-11.7885
▁ويٺ	-11.7894
▁يتيم	-11.7896
▁انھي	-11.7898
▁56	-11.7919
▁قع	-11.7931
▁طع	-11.7933
▁حان	-11.7935
نگال	-11.7941
▁زيرو	-11.7946
▁قيا	-11.7954
▁fla	-11.7964
▁ومت	-11.7974
now	-11.7984
ركب	-11.7985
▁LED	-11.7987
▁عمودي	-11.7988
▁♡	-11.7989
▁ٖ	-11.799
▁سنگهه	-11.7995
▁AN	-11.7996
▁قسط	-11.7999
▁چيا	-11.8002
▁ديان	-11.8009
▁MO	-11.8014
▁جئن	-11.8015
▁مرو	-11.8017
▁sse	-11.8019
▁فتار	-11.8024
▁ڙهيو	-11.8026
▁وانگ	-11.8031
▁گدا	-11.8032
▁رڻي	-11.8034
▁ئنٽ	-11.8035
▁lu	-11.804
▁ميک	-11.804
اض	-11.8047
▁نوبل	-11.8047
▁نانو	-11.8049
▁بطل	-11.8049
▁رافي	-11.8057
▁ٺٽو	-11.8067
▁دودو	-11.8068
▁ايسڊ	-11.8073
▁62	-11.8073
▁مهار	-11.8074
▁يٽور	-11.8075
▁عبد	-11.8091
▁ربر	-11.8091
▁ئگ	-11.8098
▁ٽپو	-11.8103
▁ٽاڪ	-11.8109
▁مزور	-11.8113
▁ئع	-11.8113
▁سنڀار	-11.8119
▁ئني	-11.8124
▁dro	-11.8125
▁صحي	-11.8127
▁يشاني	-11.8127
▁ڇھ	-11.8128
▁سوڍ	-11.8131
▁ۍ	-11.8131
▁لخ	-11.814
▁MP	-11.8145
ائش	-11.8157
▁شڪي	-11.816
▁ڊگ	-11.8173
▁انڌو	-11.8177
▁جتن	-11.8183
▁Tag	-11.8187
LE	-11.8188
▁ren	-11.8197
▁UN	-11.8202
▁Fu	-11.821
▁بيري	-11.8214
▁الهه	-11.8215
•	-11.8239
▁ڪجو	-11.8239
а	-11.8252
▁ترحيب	-11.8252
▁ويڊ	-11.8253
▁هجري	-11.8254
▁SQ	-11.8255
▁عافي	-11.8256
▁ابڙو	-11.8258
▁ورل	-11.8258
▁نڪاح	-11.8263
▁ڏار	-11.827
▁ونهي	-11.8272
▁وڙو	-11.8287
آك	-11.8291
▁شرك	-11.8294
▁ڪوڏ	-11.8295
▁طئ	-11.8296
يگاس	-11.8303
▁ڻان	-11.8314
▁ali	-11.8315
▁ربا	-11.8319
قليد	-11.8319
▁رحب	-11.8324
▁وازي	-11.8325
▁ڪٽو	-11.8333
▁برق	-11.8356
▁51	-11.8365
۳	-11.8374
=	-11.8374
طق	-11.8381
▁اطل	-11.8382
▁بڻا	-11.8387
▁NEWS	-11.8387
▁Off	-11.8387
▁part	-11.8387
▁Time	-11.8388
CE	-11.839
▁♪	-11.839
▁عطر	-11.8392
▁پنهان	-11.8395
▁مهاڻ	-11.84
▁پاري	-11.8403
ضر	-11.8415
ul	-11.8417
▁Ju	-11.8419
▁مارج	-11.842
▁حسد	-11.842
▁ڇاپ	-11.8424
▁سرڪ	-11.8426
زائر	-11.8431
NA	-11.8447
▁هيلي	-11.8454
ME	-11.8461
▁نعر	-11.8464
بڪ	-11.8465
▁اجن	-11.8465
▁هوڏ	-11.8471
▁ندام	-11.8474
▁يپٽ	-11.8477
▁ظم	-11.8478
▁آجو	-11.8478
▁كلش	-11.8495
▁لفي	-11.8503
▁شڪا	-11.8506
▁رتو	-11.8508
۵	-11.8511
▁Sho	-11.8516
▁ell	-11.8516
▁ID	-11.8526
▁han	-11.8527
▁ذاكر	-11.8527
فض	-11.8527
▁بڻيا	-11.8531
▁يرون	-11.8531
▁انيت	-11.8532
▁ڍير	-11.8539
▁xD	-11.8541
▁نشست	-11.8543
وغ	-11.8545
ائيٽ	-11.8546
▁ins	-11.855
▁زپ	-11.8552
▁was	-11.8555
▁نڍي	-11.8569
▁lle	-11.8579
راج	-11.8585
رض	-11.8589
▁زهرا	-11.8589
▁ڊور	-11.859
▁فجر	-11.86
▁پيوٽ	-11.8613
▁زگ	-11.8622
▁حار	-11.8622
▁نارا	-11.8623
▁ورچي	-11.8628
▁ste	-11.8646
▁je	-11.8658
▁ڀول	-11.8661
▁ديپ	-11.8663
▁مقصود	-11.8663
▁व	-11.8664
▁ღ	-11.8665
▁قريش	-11.8666
▁فهد	-11.8666
ونق	-11.8667
▁فاظ	-11.8667
▁stra	-11.867
▁ليور	-11.867
قاطع	-11.867
▁رژي	-11.8679
▁ستل	-11.8685
▁مکڻ	-11.8696
▁عتي	-11.8698
OS	-11.8702
▁نوشت	-11.8703
▁فتا	-11.8717
▁واڳ	-11.8719
▁واص	-11.8723
ld	-11.8734
▁هينڊ	-11.8735
▁اران	-11.8741
▁ڪهڙ	-11.8742
▁رحت	-11.8745
▁ھند	-11.8749
▁ذهب	-11.875
▁عنك	-11.875
▁صلا	-11.8756
pa	-11.8758
▁كني	-11.8761
▁ليبر	-11.8761
▁ji	-11.8763
▁ماڻه	-11.8765
▁روٽر	-11.8765
▁خري	-11.8765
▁مكن	-11.877
▁حذ	-11.8772
▁وفائ	-11.8777
ڹ	-11.8791
ۍ	-11.8791
۴	-11.8791
▁ساھ	-11.8795
▁سعد	-11.8795
DA	-11.8801
▁رٿا	-11.8802
▁غضب	-11.8804
▁يعقوب	-11.8804
▁ह	-11.8804
▁لدي	-11.8804
▁§	-11.8805
▁All	-11.8807
▁ڏوھ	-11.8809
▁<~	-11.8812
mm	-11.8812
▁Pri	-11.8814
▁چٽي	-11.8816
▁800	-11.8824
▁تلف	-11.8828
▁عزا	-11.8832
▁ينيا	-11.8836
▁کڏ	-11.8838
EL	-11.8839
▁هندا	-11.885
▁ذهبي	-11.8859
▁يحي	-11.8865
▁نحو	-11.8867
▁vol	-11.8875
▁US	-11.8878
▁Dr	-11.8882
▁چرٻ	-11.8885
▁داب	-11.8896
▁رعب	-11.8896
▁سائيٽ	-11.8897
ووو	-11.8899
▁She	-11.8904
▁acc	-11.8905
▁ظن	-11.8906
پور	-11.8907
12	-11.8919
۸	-11.8934
مش	-11.894
UR	-11.8941
▁سٽڪ	-11.8944
▁URL	-11.8947
▁واءِ	-11.8947
▁زاويه	-11.8947
▁😉	-11.8948
▁خفيف	-11.8948
▁bra	-11.8951
▁bre	-11.8951
PS	-11.8957
▁چائڻ	-11.8961
▁ھنڌ	-11.8963
▁ڌوڙ	-11.897
▁آهم	-11.8974
▁شاي	-11.8975
▁حسيت	-11.8978
▁عصر	-11.8987
ارب	-11.8988
▁سنة	-11.8989
▁ٻچا	-11.8999
▁ننگر	-11.9
▁پيد	-11.9
▁مينا	-11.9002
▁مينو	-11.9009
▁دادن	-11.9029
▁ارگ	-11.9033
▁عفر	-11.9034
▁RO	-11.9036
▁زيا	-11.905
SI	-11.905
▁Gam	-11.9054
روس	-11.906
IA	-11.9068
▁نسيم	-11.9068
▁رنو	-11.9074
فش	-11.9075
▁يگري	-11.9078
▁هلائ	-11.9079
▁وقع	-11.9085
▁ستحيل	-11.9092
▁😂😂	-11.9092
▁نءِ	-11.9092
▁رڌل	-11.9092
▁طعام	-11.9093
gg	-11.9102
▁سوئس	-11.9104
▁ليند	-11.9108
▁فخ	-11.9109
▁دنگ	-11.9109
▁محض	-11.9112
▁Sy	-11.9126
IS	-11.9133
▁ھُ	-11.9134
▁آره	-11.9142
▁PC	-11.9147
ديك	-11.915
▁ماڻ	-11.9157
▁ii	-11.9163
نٽڪ	-11.9168
▁مسئ	-11.9173
▁سوئر	-11.9175
▁نادي	-11.918
جان	-11.9181
▁اسڪيل	-11.9182
▁يموٽ	-11.9198
▁ُئي	-11.92
▁ڊيوس	-11.9202
▁نصر	-11.9224
▁،،،	-11.9226
▁Ko	-11.923
bo	-11.9231
▁متل	-11.9232
▁هجرت	-11.9239
▁بولي	-11.924
▁ڊاهي	-11.9244
▁لوئي	-11.9247
آع	-11.9248
▁آتش	-11.9249
حك	-11.9251
▁صج	-11.9259
▁چچ	-11.9262
▁63	-11.9273
فق	-11.9275
▁ڊيڪ	-11.929
▁سنا	-11.9297
▁دكم	-11.9303
▁چی	-11.9316
▁غان	-11.9317
▁ڦڙ	-11.9318
▁قطب	-11.9326
▁ويهين	-11.9348
▁شيش	-11.9354
▁سامه	-11.9358
▁ينشن	-11.936
▁ڇوڙ	-11.9362
▁رسان	-11.9366
▁ابط	-11.9378
▁نايم	-11.9379
ڎ	-11.9388
▁API	-11.9388
▁whe	-11.9389
▁باٿ	-11.9389
▁ينھن	-11.9391
▁ريندو	-11.9393
▁tri	-11.9393
▁post	-11.9393
▁360	-11.9395
▁Gra	-11.9398
▁Dis	-11.9403
▁لوھ	-11.9407
70	-11.9407
▁ركز	-11.941
▁war	-11.9424
▁ica	-11.9433
▁ندگ	-11.9455
▁عصا	-11.9456
▁ناتو	-11.9463
ٽٽ	-11.9467
▁ميں	-11.947
▁صبا	-11.9479
▁cho	-11.9481
▁أح	-11.9483
▁fr	-11.9492
▁disc	-11.9492
▁حلق	-11.9498
▁ملف	-11.95
▁96	-11.9502
▁انگو	-11.9515
▁Fo	-11.9516
څ	-11.9526
▁59	-11.9526
▁برون	-11.9527
▁روپا	-11.9532
▁تغيير	-11.954
▁(9)	-11.954
▁ٿِي	-11.954
▁ۃ	-11.9541
▁ڌيء	-11.9542
▁رفيق	-11.9543
▁time	-11.9543
▁ساجد	-11.9551
▁نبض	-11.9552
▁لڪس	-11.9557
▁fro	-11.9558
▁شركت	-11.956
▁ائنڊ	-11.9563
▁نعرو	-11.9564
▁جهڪي	-11.9568
▁لياري	-11.9578
do	-11.9581
▁53	-11.9583
▁جمي	-11.959
▁کړ	-11.9592
▁86	-11.9593
▁رانٽ	-11.9597
ke	-11.9601
OR	-11.9603
▁ضب	-11.9614
▁نارم	-11.9615
▁اسڪور	-11.9618
ba	-11.9621
▁جزئي	-11.9626
▁تتر	-11.9627
▁غذ	-11.9629
▁زيان	-11.9635
▁ائيد	-11.9637
قال	-11.9638
▁ميار	-11.9639
▁أإ	-11.9644
ڄڻ	-11.9649
▁cra	-11.965
▁مختص	-11.9681
فروض	-11.9681
▁كسي	-11.9686
▁Je	-11.969
▁جهر	-11.9693
ט	-11.9693
ڸ	-11.9693
▁مرکب	-11.9693
▁مشتاق	-11.9693
▁نژاد	-11.9694
▁remo	-11.9697
▁هٻڪ	-11.9702
▁Ru	-11.9705
▁جهڳ	-11.9706
▁ڀائي	-11.9706
▁رايح	-11.9708
▁رٻڙ	-11.9711
▁اختر	-11.9711
▁پنهج	-11.9715
▁بيچ	-11.9719
شرق	-11.972
یش	-11.972
▁شايف	-11.9735
▁57	-11.974
▁ولآ	-11.976
▁تحب	-11.9765
كش	-11.9768
.0	-11.977
جب	-11.9772
کوز	-11.9773
▁سنس	-11.9786
▁شغل	-11.9787
▁گھو	-11.979
▁ڌيئ	-11.98
▁توڙ	-11.9808
▁اڱ	-11.9811
▁وليس	-11.9815
▁رفع	-11.9822
▁Sha	-11.9825
▁ُتي	-11.9827
▁ڌڙ	-11.9835
→	-11.9836
▁As	-11.9838
▁ديون	-11.9843
ۊ	-11.985
▁غافل	-11.985
▁پيڙا	-11.9851
11	-11.9855
▁نياپو	-11.9856
▁ڀال	-11.9856
▁معاه	-11.9857
▁Fra	-11.9858
▁مليح	-11.9858
▁UA	-11.9862
▁يڏا	-11.9865
IT	-11.9867
شف	-11.988
يٰ	-11.9886
▁جھي	-11.9886
CL	-11.9895
یل	-11.9896
یب	-11.99
EM	-11.9915
▁لھي	-11.9916
▁گشت	-11.9918
▁صيت	-11.9924
▁fra	-11.9924
▁ber	-11.9931
▁CR	-11.9935
▁cla	-11.9939
▁سكي	-11.995
▁هناك	-11.9955
بڙي	-11.9968
▁يورس	-11.9977
RP	-11.9984
▁اٿئ	-11.9985
▁لوٽ	-11.9985
▁چمن	-11.9989
▁آنآ	-11.9992
▁طير	-11.9992
▁ُئ	-11.9993
▁AS	-11.9996
وڪو	-11.9996
ٹي	-12.0006
ايب	-12.0008
▁Quot	-12.0008
▁(8)	-12.0009
▁عقب	-12.0009
▁نروار	-12.0009
▁ڪفن	-12.0013
▁Sch	-12.0013
▁ٔ	-12.0015
▁zo	-12.0016
▁ندرو	-12.0018
وسيق	-12.0019
▁گيمز	-12.0022
▁54	-12.0023
▁SL	-12.0029
▁عائش	-12.0042
ڏانه	-12.0044
▁Vo	-12.0047
▁tin	-12.0048
▁lar	-12.005
▁ڏيهي	-12.005
▁ڪمرا	-12.0057
▁ڳڙ	-12.0058
▁يريز	-12.0058
▁NO	-12.006
▁io	-12.0081
▁صوبو	-12.0083
OL	-12.0086
▁00	-12.0088
▁لاڀ	-12.0088
▁وائن	-12.01
▁ڳت	-12.0102
▁ڀوت	-12.0104
▁ازاي	-12.0116
▁نايت	-12.0121
قع	-12.0133
▁دلير	-12.0147
▁لولي	-12.0155
▁ردك	-12.0159
▁لهائ	-12.0168
▁يمين	-12.0169
▁APK	-12.017
▁مطهري	-12.017
▁ٻاڦ	-12.017
▁><	-12.0171
▁🤣	-12.0172
▁وراك	-12.0173
▁إذا	-12.0173
▁زگار	-12.0173
ڌندڙ	-12.0174
▁ڪوڪي	-12.0175
ئی	-12.0175
▁داعش	-12.0181
▁يمون	-12.0183
UM	-12.0186
رے	-12.0189
▁دوڪا	-12.0194
▁وسين	-12.0201
▁اكتر	-12.0205
مض	-12.0207
▁ناسا	-12.0208
▁نشور	-12.0209
▁سخي	-12.021
▁اڪرم	-12.0214
▁88	-12.0217
▁نعرا	-12.0219
-3	-12.022
▁قاص	-12.0223
TA	-12.0229
▁ssi	-12.0231
▁ڀڳو	-12.0241
▁شفٽ	-12.0247
▁ملح	-12.0247
▁ڊان	-12.0248
صرت	-12.0248
▁زود	-12.0257
▁ٻري	-12.0257
قط	-12.0258
PE	-12.0261
▁bit	-12.0264
▁MI	-12.0265
▁قاب	-12.0266
▁آسا	-12.0273
▁لڀ	-12.0273
▁bot	-12.0283
▁AC	-12.0288
▁جھا	-12.0293
RE	-12.0306
هى	-12.032
كات	-12.0323
▁بخت	-12.033
▁Plus	-12.0334
▁لذيذ	-12.0334
▁نرژي	-12.0334
▁द	-12.0334
▁كويس	-12.0336
▁68	-12.0337
▁عريس	-12.0337
▁آسم	-12.0338
▁Man	-12.0341
▁ڊزن	-12.0341
▁٨	-12.0342
▁بحب	-12.0343
▁شكال	-12.0344
▁dri	-12.0346
▁تخلي	-12.0349
▁طح	-12.0352
▁حٿ	-12.0353
▁ڀاتي	-12.0356
▁رگا	-12.0356
▁ڪٽس	-12.0359
▁ڇٽ	-12.0359
▁لوز	-12.036
رڏيه	-12.0362
▁قصة	-12.0363
▁رگر	-12.0364
▁وردة	-12.0368
▁ساک	-12.0386
▁سوسي	-12.0388
▁بشه	-12.039
▁58	-12.039
▁نهاي	-12.0394
▁پسر	-12.0411
▁ثال	-12.0411
▁سوق	-12.0412
▁2.1	-12.0416
▁كرا	-12.0428
▁وهان	-12.0431
▁ڪچو	-12.0433
▁ٺڪر	-12.0434
▁واح	-12.0436
▁ائجي	-12.0439
▁ڪہ	-12.0445
▁Ros	-12.0448
▁pol	-12.0461
ڪٻئي	-12.0461
▁Va	-12.0471
▁افلا	-12.0479
▁اوچت	-12.0482
ٌ	-12.0483
زعل	-12.05
ü	-12.05
▁پخش	-12.0501
▁لاين	-12.0503
▁Blu	-12.0504
▁CH	-12.0506
▁ڍنگ	-12.0516
▁امم	-12.0521
▁وصي	-12.0523
▁زيب	-12.0523
▁ورڻ	-12.0528
▁69	-12.0532
▁يويو	-12.054
▁فقر	-12.0548
▁يٽيڪ	-12.0549
▁ful	-12.0558
▁توپ	-12.0562
▁76	-12.0563
18	-12.0565
▁ريق	-12.0569
▁za	-12.057
▁خليت	-12.058
▁Or	-12.0581
▁ship	-12.0584
▁ڊيش	-12.0603
▁سٽال	-12.0605
فتكر	-12.0605
شوت	-12.0618
▁رحال	-12.0626
▁LC	-12.0631
▁امڪ	-12.0633
▁لنگر	-12.0638
▁صارت	-12.0642
▁ڊوم	-12.065
▁اھيو	-12.066
▁Am	-12.0668
▁تطبيق	-12.067
▁ريڪو	-12.0674
15	-12.0675
▁دوکي	-12.0678
ُڪ	-12.0683
▁ٺڳ	-12.0683
ْ	-12.0829
^	-12.1182
ु	-12.1196
î	-12.1378
ı	-12.1378
н	-12.1378
ڤ	-12.1378
&	-12.1739
о	-12.1752
ç	-12.214
İ	-12.214
à	-12.234
ग	-12.234
۷	-12.2531
ۓ	-12.2544
ٱ	-12.2739
٢	-12.2739
[	-12.2739
💔	-12.2965
;	-12.3392
и	-12.3405
ी	-12.3405
۶	-12.3619
р	-12.3632
٦	-12.3852
ş	-12.3865
٥	-12.409
ڶ	-12.4103
ۀ	-12.4103
ێ	-12.4103
ۆ	-12.4584
ڣ	-12.4597
😭	-12.4597
е	-12.4597
ً	-12.471
כ	-12.4853
ݪ	-12.4853
۾	-12.5103
Ş	-12.5117
ٕ	-12.5117
उ	-12.5117
٨	-12.5373
۹	-12.5373
#	-12.5651
ö	-12.5665
ࢪ	-12.5665
с	-12.595
٫	-12.6231
á	-12.6244
ڕ	-12.6244
श	-12.6244
॥	-12.6244
ں	-12.626
ۅ	-12.6534
q	-12.6534
ω	-12.686
м	-12.686
ू	-12.686
т	-12.686
ै	-12.7182
😅	-12.7182
🙁	-12.7182
у	-12.7516
ٔ	-12.7847
}	-12.7847
ۂ	-12.7861
ۧ	-12.7861
♦	-12.7861
♥	-12.8204
̷	-12.8218
ं	-12.8218
●	-12.8575
ۄ	-12.8588
ۋ	-12.8588
√	-12.8588
٩	-12.8959
л	-12.8973
ל	-12.8973
ۿ	-12.8973
ड	-12.8973
ध	-12.8973
؏	-12.9373
٘	-12.9373
ב	-12.9776
٣	-12.9776
@	-12.9776
¤	-12.9789
ˇ	-12.9789
٤	-13.0211
¢	-13.0224
ê	-13.0224
ؿ	-13.0224
ए	-13.0224
【	-13.0224
💞	-13.0224
٧	-13.0665
¬	-13.0679
ë	-13.0679
α	-13.0679
к	-13.0679
٭	-13.0679
✿	-13.0679
】	-13.0679
﴾	-13.0679
﴿	-13.0679
👍	-13.0679
<	-13.1131
😂	-13.1141
×	-13.1142
{	-13.1142
ٚ	-13.1155
ە	-13.1155
ई	-13.1155
☆	-13.1155
ā	-13.1155
ा	-13.1642
ڝ	-13.1655
¦	-13.1655
¿	-13.1655
ó	-13.1655
û	-13.1655
μ	-13.1655
ο	-13.1655
в	-13.1655
д	-13.1655
ٲ	-13.1655
‐	-13.1655
⁄	-13.1655
з	-13.2181
ػ	-13.2181
ۉ	-13.2723
←	-13.2724
❤	-13.2724
β	-13.2737
ڒ	-13.2737
च	-13.2737
⇄	-13.2737
─	-13.2737
🏻	-13.2737
ä	-13.2737
ٖ	-13.3312
ñ	-13.3325
ա	-13.3325
х	-13.3325
ण	-13.3325
■	-13.3325
😆	-13.3325
♫	-13.3937
ž	-13.395
ы	-13.395
ؽ	-13.395
ڠ	-13.395
ࢦ	-13.395
फ	-13.395
菜	-13.395
👌	-13.395
。	-13.395
♪	-13.4603
Ø	-13.4617
÷	-13.4617
й	-13.4617
ֿ	-13.4617
ٛ	-13.4617
ڂ	-13.4617
ख	-13.4617
⋆	-13.4617
🔥	-13.4617
😜	-13.4617
\	-13.5331
š	-13.5331
̨	-13.5331
б	-13.5331
г	-13.5331
ۇ	-13.5331
थ	-13.5331
ृ	-13.5331
‹	-13.5331
🌹	-13.5331
ğ	-13.5331
ٰ	-13.5344
è	-13.6087
🤣	-13.6087
¡	-13.61
ô	-13.61
̲	-13.61
▌	-13.61
✌	-13.61
💘	-13.61
í	-13.61
ٓ	-13.692
💙	-13.6934
😘	-13.6934
̃	-13.6934
ե	-13.6934
ݩ	-13.6934
ে	-13.6934
ღ	-13.7829
♡	-13.7829
י	-13.7843
◕	-13.7843
̣	-13.7843
͡	-13.7843
ζ	-13.7843
ι	-13.7843
і	-13.7843
נ	-13.7843
💕	-13.7843
🙈	-13.7843
я	-13.7843
Å	-13.8843
č	-13.8843
œ	-13.8843
ξ	-13.8843
Ґ	-13.8843
ۦ	-13.8843
۩	-13.8843
۫	-13.8843
इ	-13.8843
๑	-13.8843
♀	-13.8843
✋	-13.8843
🌸	-13.8843
ï	-13.8843
💗	-13.8843
٬	-13.994
ٗ	-13.994
ڜ	-13.994
😁	-13.994
ּ	-13.994
म	-13.994
°	-13.994
Ö	-13.9954
Š	-13.9954
ː	-13.9954
ρ	-13.9954
ڨ	-13.9954
ँ	-13.9954
র	-13.9954
া	-13.9954
◊	-13.9954
♠	-13.9954
音	-13.9954
😔	-13.9954
😝	-13.9954
😹	-13.9954
🙏	-13.9954
ն	-14.1204
♩	-14.1204
å	-14.1204
͠	-14.1204
Φ	-14.1204
Ω	-14.1204
ε	-14.1204
σ	-14.1204
ի	-14.1204
ם	-14.1204
מ	-14.1204
ڭ	-14.1204
ۛ	-14.1204
ম	-14.1204
্	-14.1204
๋	-14.1204
」	-14.1204
🌷	-14.1204
›	-14.2619
★	-14.2619
क	-14.2619
र	-14.2619
€	-14.2619
ո	-14.2632
ɪ	-14.2632
̤	-14.2632
η	-14.2632
ς	-14.2632
ч	-14.2632
ш	-14.2632
ս	-14.2632
ր	-14.2632
ו	-14.2632
ע	-14.2632
ۗ	-14.2632
۞	-14.2632
ۤ	-14.2632
ठ	-14.2632
ু	-14.2632
ஐ	-14.2632
ా	-14.2632
†	-14.2632
‿	-14.2632
▶	-14.2632
▷	-14.2632
◇	-14.2632
♣	-14.2632
❀	-14.2632
⠀	-14.2632
・	-14.2632
🇩	-14.2632
💜	-14.2632
📷	-14.2632
😎	-14.2632
Ž	-14.2632
น	-14.2632
ब	-14.4286
😉	-14.4286
·	-14.4286
Ü	-14.4298
♯	-14.4299
ڞ	-14.4299
Á	-14.4299
ý	-14.4299
ć	-14.4299
ō	-14.4299
̶	-14.4299
ί	-14.4299
π	-14.4299
ҳ	-14.4299
ؓ	-14.4299
ؼ	-14.4299
ٜ	-14.4299
ٞ	-14.4299
ٟ	-14.4299
ܢ	-14.4299
ত	-14.4299
୭	-14.4299
า	-14.4299
ọ	-14.4299
⇣	-14.4299
⏪	-14.4299
☝	-14.4299
⚡	-14.4299
✯	-14.4299
🏼	-14.4299
🥇	-14.4299
ד	-14.4299
פ	-14.6286
☺	-14.6286
ۃ	-14.6286
®	-14.6286
न	-14.6286
մ	-14.6299
ē	-14.6299
ị	-14.6299
◉	-14.6299
✘	-14.6299
¶	-14.6299
ã	-14.6299
ú	-14.6299
ł	-14.6299
ż	-14.6299
ə	-14.6299
̅	-14.6299
̵	-14.6299
ж	-14.6299
ц	-14.6299
э	-14.6299
ւ	-14.6299
ן	-14.6299
ؒ	-14.6299
ٙ	-14.6299
ڋ	-14.6299
ۏ	-14.6299
ެ	-14.6299
झ	-14.6299
న	-14.6299
്	-14.6299
ี	-14.6299
๛	-14.6299
ᬼ	-14.6299
⃣	-14.6299
−	-14.6299
⊙	-14.6299
╝	-14.6299
▪	-14.6299
◎	-14.6299
◦	-14.6299
♍	-14.6299
✦	-14.6299
『	-14.6299
』	-14.6299
🌟	-14.6299
🍼	-14.6299
💚	-14.6299
💪	-14.6299
💯	-14.6299
😱	-14.6299
😻	-14.6299
🦋	-14.6299
າ	-14.6299
😍	-14.8786
§	-14.8786
व	-14.8786
ल	-14.8786
य	-14.8786
🙂	-14.8786
չ	-14.8799
Ğ	-14.8799
ז	-14.8799
Ã	-14.8799
ø	-14.8799
ę	-14.8799
Ħ	-14.8799
̐	-14.8799
θ	-14.8799
φ	-14.8799
С	-14.8799
є	-14.8799
հ	-14.8799
ר	-14.8799
ٮ	-14.8799
ۜ	-14.8799
ۣ	-14.8799
۪	-14.8799
ौ	-14.8799
খ	-14.8799
য	-14.8799
ਾ	-14.8799
ં	-14.8799
ం	-14.8799
ම	-14.8799
ม	-14.8799
∫	-14.8799
♂	-14.8799
♬	-14.8799
よ	-14.8799
り	-14.8799
ミ	-14.8799
发	-14.8799
𐄒	-14.8799
🌿	-14.8799
🏾	-14.8799
👉	-14.8799
👩	-14.8799
💫	-14.8799
📚	-14.8799
🔞	-14.8799
😈	-14.8799
😋	-14.8799
😒	-14.8799
😪	-14.8799
😵	-14.8799
🙊	-14.8799
🤍	-14.8799
ь	-14.8799
ʊ	-14.8799
द	-15.2119
ۡ	-15.2119
►	-15.2119
ก	-15.2132
ไ	-15.2132
ò	-15.2132
Ă	-15.2132
ą	-15.2132
Đ	-15.2132
ě	-15.2132
ħ	-15.2132
Ł	-15.2132
ś	-15.2132
ƒ	-15.2132
ɛ	-15.2132
ˌ	-15.2132
̀	-15.2132
̯	-15.2132
υ	-15.2132
ό	-15.2132
В	-15.2132
Т	-15.2132
Х	-15.2132
Я	-15.2132
Ҳ	-15.2132
Բ	-15.2132
ש	-15.2132
ڽ	-15.2132
ۙ	-15.2132
ۼ	-15.2132
ݛ	-15.2132
ः	-15.2132
ব	-15.2132
ল	-15.2132
ি	-15.2132
ੀ	-15.2132
ੰ	-15.2132
ર	-15.2132
ે	-15.2132
ો	-15.2132
క	-15.2132
ల	-15.2132
వ	-15.2132
ి	-15.2132
ు	-15.2132
్	-15.2132
ന	-15.2132
න	-15.2132
්	-15.2132
ค	-15.2132
ฉ	-15.2132
ด	-15.2132
ั	-15.2132
ุ	-15.2132
໑	-15.2132
Ⴢ	-15.2132
ე	-15.2132
ለ	-15.2132
ው	-15.2132
ᓅ	-15.2132
ᭁ	-15.2132
Ṁ	-15.2132
ṭ	-15.2132
ẹ	-15.2132
₥	-15.2132
₪	-15.2132
↔	-15.2132
≧	-15.2132
╚	-15.2132
○	-15.2132
☑	-15.2132
☜	-15.2132
☼	-15.2132
⚫	-15.2132
✍	-15.2132
❌	-15.2132
➢	-15.2132
〗	-15.2132
う	-15.2132
の	-15.2132
を	-15.2132
ノ	-15.2132
可	-15.2132
發	-15.2132
語	-15.2132
🌤	-15.2132
🏿	-15.2132
👀	-15.2132
👈	-15.2132
👤	-15.2132
💋	-15.2132
💐	-15.2132
💻	-15.2132
🔸	-15.2132
😐	-15.2132
ϻ	-15.2132
ṇ	-15.2132
ṣ	-15.2132
🌻	-15.2132
ン	-15.2132
ュ	-15.2132
ज	-15.7119
ट	-15.7119
◄	-15.7119
त	-15.7119
ց	-15.7132
発	-15.7132
|	-15.7132
ì	-15.7132
Ā	-15.7132
ă	-15.7132
Ė	-15.7132
Į	-15.7132
ů	-15.7132
Ǝ	-15.7132
ƛ	-15.7132
ơ	-15.7132
ʀ	-15.7132
ʻ	-15.7132
̉	-15.7132
̍	-15.7132
Α	-15.7132
Υ	-15.7132
έ	-15.7132
δ	-15.7132
Ϟ	-15.7132
О	-15.7132
П	-15.7132
У	-15.7132
Ч	-15.7132
ъ	-15.7132
ю	-15.7132
҉	-15.7132
ґ	-15.7132
ը	-15.7132
լ	-15.7132
խ	-15.7132
պ	-15.7132
ռ	-15.7132
ֆ	-15.7132
ך	-15.7132
؋	-15.7132
؍	-15.7132
ؾ	-15.7132
ڲ	-15.7132
ۘ	-15.7132
ܓ	-15.7132
ݖ	-15.7132
ݥ	-15.7132
ݨ	-15.7132
ࡗ	-15.7132
ञ	-15.7132
ढ	-15.7132
ॡ	-15.7132
ঔ	-15.7132
ট	-15.7132
ড	-15.7132
স	-15.7132
ਂ	-15.7132
ਧ	-15.7132
ਬ	-15.7132
ਰ	-15.7132
ਸ	-15.7132
ਿ	-15.7132
ક	-15.7132
ચ	-15.7132
ટ	-15.7132
ા	-15.7132
િ	-15.7132
ી	-15.7132
ஓ	-15.7132
ఉ	-15.7132
ద	-15.7132
స	-15.7132
ీ	-15.7132
ಈ	-15.7132
ಲ	-15.7132
ೋ	-15.7132
್	-15.7132
ങ	-15.7132
ി	-15.7132
ි	-15.7132
ท	-15.7132
ย	-15.7132
ๅ	-15.7132
่	-15.7132
้	-15.7132
້	-15.7132
ཻ	-15.7132
࿑	-15.7132
დ	-15.7132
რ	-15.7132
ს	-15.7132
ᄑ	-15.7132
ᄒ	-15.7132
ᅲ	-15.7132
ሂ	-15.7132
ህ	-15.7132
ል	-15.7132
ስ	-15.7132
ቅ	-15.7132
ን	-15.7132
ይ	-15.7132
ድ	-15.7132
ᓆ	-15.7132
ᓘ	-15.7132
ន	-15.7132
ᴗ	-15.7132
Ẹ	-15.7132
Ọ	-15.7132
ố	-15.7132
ở	-15.7132
‛	-15.7132
‟	-15.7132
₩	-15.7132
₽	-15.7132
⃫	-15.7132
↩	-15.7132
⇦	-15.7132
∞	-15.7132
≠	-15.7132
≦	-15.7132
╬	-15.7132
▽	-15.7132
◈	-15.7132
◍	-15.7132
◣	-15.7132
◩	-15.7132
◪	-15.7132
☘	-15.7132
♉	-15.7132
♌	-15.7132
♢	-15.7132
⚽	-15.7132
✈	-15.7132
✧	-15.7132
✫	-15.7132
✷	-15.7132
❓	-15.7132
❕	-15.7132
❖	-15.7132
❝	-15.7132
い	-15.7132
じ	-15.7132
ほ	-15.7132
コ	-15.7132
タ	-15.7132
パ	-15.7132
ー	-15.7132
ㄨ	-15.7132
以	-15.7132
你	-15.7132
我	-15.7132
真	-15.7132
者	-15.7132
나	-15.7132
법	-15.7132
직	-15.7132
𓂅	-15.7132
𖣴	-15.7132
🇨	-15.7132
🇶	-15.7132
🇸	-15.7132
🌼	-15.7132
🎈	-15.7132
🎵	-15.7132
🐒	-15.7132
🐠	-15.7132
🐢	-15.7132
👆	-15.7132
👇	-15.7132
👎	-15.7132
👑	-15.7132
💅	-15.7132
💍	-15.7132
💓	-15.7132
💮	-15.7132
💰	-15.7132
🔒	-15.7132
🔕	-15.7132
🔫	-15.7132
🔴	-15.7132
🔶	-15.7132
🔹	-15.7132
🖕	-15.7132
😃	-15.7132
😏	-15.7132
😤	-15.7132
😮	-15.7132
😿	-15.7132
🙄	-15.7132
🚶	-15.7132
🛫	-15.7132
🤎	-15.7132
🤐	-15.7132
🤤	-15.7132
🤧	-15.7132
🥀	-15.7132
🦼	-15.7132
🧐	-15.7132
ݢ	-15.7132
😳	-15.7132
ピ	-15.7132
🥰	-16.6946
🤪	-16.6947
🤓	-16.6948
😯	-16.695
😬	-16.695
😕	-16.6951
🔺	-16.6952
🔱	-16.6953
💡	-16.6954
💠	-16.6955
💝	-16.6957
🎻	-16.6957
🎧	-16.6958
🌈	-16.6959
🌆	-16.696
🇺	-16.6961
🇬	-16.6962
ꓘ	-16.6964
上	-16.6964
ト	-16.6965
〖	-16.6966
⭕	-16.6967
❢	-16.6968
❞	-16.6969
✴	-16.6971
✮	-16.6971
♤	-16.6972
╦	-16.6973
⇡	-16.6974
⇠	-16.6975
↴	-16.6976
ỳ	-16.6978
Ṃ	-16.6978
እ	-16.6979
ส	-16.698
ถ	-16.6981
య	-16.6982
আ	-16.6983
۬	-16.6985
կ	-16.6985
է	-16.6986
Կ	-16.6987
Ի	-16.6988
ө	-16.6989
Р	-16.699
Д	-16.6992
λ	-16.6992
Ξ	-16.6993
̳	-16.6994
ʒ	-16.6995
Ʀ	-16.6996
ť	-16.6997
õ	-16.6999
Ú	-16.6999
Ù	-16.7
É	-16.7001
À	-16.7002
¥	-16.7003
🦦	-16.7004
🤨	-16.7006
😽	-16.7006
💛	-16.7007
🐸	-16.7008
🎀	-16.7009
🍀	-16.701
︎	-16.7011
﮼	-16.7013
❦	-16.7013
❗	-16.7014
♛	-16.7015
♚	-16.7016
☂	-16.7017
⌘	-16.7018
ი	-16.702
ณ	-16.702
ස	-16.7021
ನ	-16.7022
ݦ	-16.7023
ח	-16.7024
տ	-16.7025
Б	-16.7027
γ	-16.7027
̥	-16.7028
̊	-16.7029
🧸	-16.703
🤭	-16.7031
😨	-16.7032
😦	-16.7034
😠	-16.7034
😌	-16.7035
🕘	-16.7036
👨	-16.7037
👊	-16.7038
🎼	-16.7039
的	-16.7041
嘅	-16.7041
〇	-16.7042
✖	-16.7043
◀	-16.7044
╫	-16.7045
∀	-16.7046
↯	-16.7048
હ	-16.7048
ো	-16.7049
়	-16.705
ה	-16.7051
М	-16.7052
ν	-16.7053
̄	-16.7055
💖	-16.7055
🌚	-16.7056
🇿	-16.7057
🇮	-16.7058
✗	-16.7059
ಿ	-16.706
ڔ	-16.7062
ٝ	-16.7062
ώ	-16.7063
τ	-16.7064
ð	-16.7065
🤩	-16.7066
😢	-16.7067
⚘	-16.7069
▲	-16.7069
দ	-16.707
ক	-16.7071
̇	-16.7072
ɑ	-16.7073
🥺	-16.7074
🏃	-16.7076
「	-16.7076
➡	-16.7077
❧	-16.7078
☻	-16.7079
☹	-16.708
▼	-16.7081
ۨ	-16.7083
ˈ	-16.7083
🖤	-16.7084
※	-16.7085
❣	-16.7086
🤔	-16.7087
😇	-16.7088
😄	-16.709
✨	-16.709
ন	-16.7091
ڿ	-16.7092
ؐ	-16.7093
⭐	-16.7094
✓	-16.7095
☀	-16.7097
▐	-16.7097
↓	-16.7098
п	-16.7099
😛	-16.71
❥	-16.7101
✔	-16.7102
̧	-16.7104
Ç	-16.7104
✅	-16.7105
‡	-16.7106
ᓄ	-16.7107
आ	-16.7108
≈	-16.7109
ү	-16.7111
अ	-16.7111
͜	-16.7112
ツ	-16.7113
ष	-16.7114
भ	-16.7115
😊	-16.7116
≥	-16.7118
ド	-16.7118
ٳ	-16.7119
छ	-16.712
、	-16.712
ؑ	-16.712
â	-16.712
ह	-16.712
©	-16.712
シ	-16.712
±	-16.7121
̈	-16.7122
◆	-16.7123
≤	-16.7125
😀	-16.7125
↑	-16.7126
प	-16.7127
Ô	-16.7128
स	-16.7129
′	-16.713
£	-16.7132
Ϋ	-16.7132
ք	-16.7132
ნ	-16.7132
ḭ	-16.7132
国	-16.7132
很	-16.7132
纳	-16.7132
际	-16.7132
ī	-16.7132
𓆪	-16.7132
😲	-16.7132
Â	-16.7132
È	-16.7132
Ð	-16.7132
Ó	-16.7132
Û	-16.7132
ß	-16.7132
æ	-16.7132
ù	-16.7132
þ	-16.7132
Ą	-16.7132
ĉ	-16.7132
Č	-16.7132
Ď	-16.7132
đ	-16.7132
ė	-16.7132
Ę	-16.7132
Ģ	-16.7132
Ĥ	-16.7132
į	-16.7132
ĵ	-16.7132
ĸ	-16.7132
ĺ	-16.7132
ļ	-16.7132
Ň	-16.7132
ŋ	-16.7132
Ō	-16.7132
ŏ	-16.7132
Ř	-16.7132
ř	-16.7132
Ŝ	-16.7132
ŝ	-16.7132
Ť	-16.7132
ŧ	-16.7132
ŭ	-16.7132
ű	-16.7132
ź	-16.7132
Ż	-16.7132
Ɓ	-16.7132
Ɠ	-16.7132
Ɣ	-16.7132
Ɲ	-16.7132
Ƴ	-16.7132
ƽ	-16.7132
ǟ	-16.7132
ǰ	-16.7132
Ǿ	-16.7132
ȅ	-16.7132
Ȋ	-16.7132
ș	-16.7132
ț	-16.7132
ɕ	-16.7132
ɞ	-16.7132
ɣ	-16.7132
ɨ	-16.7132
ɴ	-16.7132
ʃ	-16.7132
ʔ	-16.7132
ʚ	-16.7132
ʞ	-16.7132
ˆ	-16.7132
˹	-16.7132
˼	-16.7132
́	-16.7132
̋	-16.7132
̌	-16.7132
̖	-16.7132
̗	-16.7132
̝	-16.7132
̠	-16.7132
̩	-16.7132
̬	-16.7132
̮	-16.7132
̸	-16.7132
͛	-16.7132
ͦ	-16.7132
Ά	-16.7132
Έ	-16.7132
ΐ	-16.7132
Η	-16.7132
Θ	-16.7132
Ι	-16.7132
Μ	-16.7132
Ρ	-16.7132
Σ	-16.7132
Ψ	-16.7132
ά	-16.7132
ή	-16.7132
κ	-16.7132
χ	-16.7132
Ћ	-16.7132
А	-16.7132
Г	-16.7132
Й	-16.7132
К	-16.7132
ј	-16.7132
ћ	-16.7132
Ѣ	-16.7132
Ѧ	-16.7132
Ҏ	-16.7132
қ	-16.7132
Ҩ	-16.7132
Ұ	-16.7132
ҷ	-16.7132
ҽ	-16.7132
Ӎ	-16.7132
Պ	-16.7132
բ	-16.7132
ձ	-16.7132
ղ	-16.7132
յ	-16.7132
վ	-16.7132
փ	-16.7132
ִ	-16.7132
ג	-16.7132
ס	-16.7132
צ	-16.7132
ת	-16.7132
؎	-16.7132
ٯ	-16.7132
ڐ	-16.7132
ڗ	-16.7132
ڟ	-16.7132
ڰ	-16.7132
ۚ	-16.7132
ۢ	-16.7132
ۥ	-16.7132
ۺ	-16.7132
܀	-16.7132
ܒ	-16.7132
ܨ	-16.7132
ܪ	-16.7132
ܵ	-16.7132
ݐ	-16.7132
ݒ	-16.7132
ݘ	-16.7132
ݧ	-16.7132
ހ	-16.7132
ވ	-16.7132
ߙ	-16.7132
࣪	-16.7132
ओ	-16.7132
घ	-16.7132
ङ	-16.7132
़	-16.7132
ॉ	-16.7132
॒	-16.7132
०	-16.7132
१	-16.7132
८	-16.7132
অ	-16.7132
ই	-16.7132
উ	-16.7132
এ	-16.7132
ঘ	-16.7132
ছ	-16.7132
জ	-16.7132
ধ	-16.7132
ভ	-16.7132
শ	-16.7132
ৌ	-16.7132
ਇ	-16.7132
ਈ	-16.7132
ਕ	-16.7132
ਜ	-16.7132
ਥ	-16.7132
ਪ	-16.7132
ਮ	-16.7132
ਲ	-16.7132
ਹ	-16.7132
ੇ	-16.7132
ੈ	-16.7132
ੋ	-16.7132
ੱ	-16.7132
ખ	-16.7132
છ	-16.7132
ડ	-16.7132
થ	-16.7132
ધ	-16.7132
પ	-16.7132
સ	-16.7132
ુ	-16.7132
୪	-16.7132
ற	-16.7132
ఇ	-16.7132
చ	-16.7132
డ	-16.7132
ధ	-16.7132
ప	-16.7132
హ	-16.7132
ే	-16.7132
ో	-16.7132
ಂ	-16.7132
ಕ	-16.7132
ಡ	-16.7132
ಧ	-16.7132
ಸ	-16.7132
ഉ	-16.7132
ത	-16.7132
ധ	-16.7132
പ	-16.7132
ള	-16.7132
സ	-16.7132
ආ	-16.7132
උ	-16.7132
ක	-16.7132
ය	-16.7132
ල	-16.7132
ව	-16.7132
ශ	-16.7132
ෑ	-16.7132
ෙ	-16.7132
บ	-16.7132
ป	-16.7132
พ	-16.7132
ล	-16.7132
ห	-16.7132
อ	-16.7132
ฮ	-16.7132
ะ	-16.7132
ิ	-16.7132
เ	-16.7132
ກ	-16.7132
ຂ	-16.7132
ຈ	-16.7132
ຖ	-16.7132
ທ	-16.7132
ນ	-16.7132
ມ	-16.7132
ຢ	-16.7132
ົ	-16.7132
ເ	-16.7132
່	-16.7132
༄	-16.7132
༅	-16.7132
༺	-16.7132
࿅	-16.7132
ა	-16.7132
თ	-16.7132
კ	-16.7132
მ	-16.7132
უ	-16.7132
ქ	-16.7132
ላ	-16.7132
ም	-16.7132
ሩ	-16.7132
ር	-16.7132
ሳ	-16.7132
በ	-16.7132
ቦ	-16.7132
ታ	-16.7132
ት	-16.7132
ነ	-16.7132
ኔ	-16.7132
ኝ	-16.7132
አ	-16.7132
ወ	-16.7132
ዎ	-16.7132
ዘ	-16.7132
ዴ	-16.7132
ጋ	-16.7132
ጎ	-16.7132
ጠ	-16.7132
ጣ	-16.7132
ጥ	-16.7132
ፈ	-16.7132
ፍ	-16.7132
ᑐ	-16.7132
ញ	-16.7132
ព	-16.7132
ភ	-16.7132
េ	-16.7132
ំ	-16.7132
្	-16.7132
᪣	-16.7132
᭄	-16.7132
ᴀ	-16.7132
ᴋ	-16.7132
᷂	-16.7132
ḑ	-16.7132
Ḿ	-16.7132
ḿ	-16.7132
Ṉ	-16.7132
ṛ	-16.7132
Ṝ	-16.7132
Ṧ	-16.7132
ṩ	-16.7132
Ṽ	-16.7132
Ạ	-16.7132
Ể	-16.7132
ệ	-16.7132
Ụ	-16.7132
ụ	-16.7132
ỹ	-16.7132
Ἄ	-16.7132
⁀	-16.7132
₦	-16.7132
₳	-16.7132
₹	-16.7132
₼	-16.7132
⃕	-16.7132
⃟	-16.7132
⃢	-16.7132
℘	-16.7132
↙	-16.7132
↜	-16.7132
↝	-16.7132
↣	-16.7132
↤	-16.7132
↫	-16.7132
↲	-16.7132
↷	-16.7132
⇐	-16.7132
⇜	-16.7132
⇢	-16.7132
∂	-16.7132
∇	-16.7132
∟	-16.7132
∴	-16.7132
≯	-16.7132
⏆	-16.7132
⏩	-16.7132
┇	-16.7132
═	-16.7132
▂	-16.7132
▃	-16.7132
□	-16.7132
▫	-16.7132
◝	-16.7132
◤	-16.7132
◥	-16.7132
◾	-16.7132
☁	-16.7132
☃	-16.7132
☄	-16.7132
☚	-16.7132
☛	-16.7132
☠	-16.7132
☽	-16.7132
☿	-16.7132
♃	-16.7132
♄	-16.7132
♈	-16.7132
♊	-16.7132
♋	-16.7132
♎	-16.7132
♏	-16.7132
♒	-16.7132
♓	-16.7132
♭	-16.7132
⚒	-16.7132
⚠	-16.7132
⛳	-16.7132
⛺	-16.7132
✇	-16.7132
✜	-16.7132
✞	-16.7132
✭	-16.7132
✳	-16.7132
❒	-16.7132
❔	-16.7132
❶	-16.7132
➓	-16.7132
➘	-16.7132
➟	-16.7132
➥	-16.7132
➬	-16.7132
⦿	-16.7132
⬅	-16.7132
⬆	-16.7132
⬸	-16.7132
⸁	-16.7132
⸙	-16.7132
〈	-16.7132
〉	-16.7132
》	-16.7132
あ	-16.7132
え	-16.7132
お	-16.7132
か	-16.7132
が	-16.7132
く	-16.7132
さ	-16.7132
な	-16.7132
へ	-16.7132
ょ	-16.7132
わ	-16.7132
ん	-16.7132
ク	-16.7132
ス	-16.7132
チ	-16.7132
ッ	-16.7132
バ	-16.7132
マ	-16.7132
ム	-16.7132
ヮ	-16.7132
一	-16.7132
之	-16.7132
了	-16.7132
云	-16.7132
传	-16.7132
位	-16.7132
何	-16.7132
刀	-16.7132
力	-16.7132
午	-16.7132
南	-16.7132
厩	-16.7132
古	-16.7132
吗	-16.7132
场	-16.7132
報	-16.7132
多	-16.7132
夢	-16.7132
如	-16.7132
子	-16.7132
学	-16.7132
它	-16.7132
少	-16.7132
屋	-16.7132
年	-16.7132
庆	-16.7132
彙	-16.7132
彩	-16.7132
情	-16.7132
惠	-16.7132
感	-16.7132
打	-16.7132
教	-16.7132
料	-16.7132
斯	-16.7132
於	-16.7132
月	-16.7132
机	-16.7132
機	-16.7132
泊	-16.7132
波	-16.7132
爱	-16.7132
瑞	-16.7132
用	-16.7132
电	-16.7132
着	-16.7132
示	-16.7132
科	-16.7132
端	-16.7132
篇	-16.7132
終	-16.7132
背	-16.7132
节	-16.7132
花	-16.7132
葬	-16.7132
藍	-16.7132
蝶	-16.7132
要	-16.7132
詞	-16.7132
謝	-16.7132
话	-16.7132
语	-16.7132
谷	-16.7132
超	-16.7132
辛	-16.7132
迪	-16.7132
邏	-16.7132
钱	-16.7132
隨	-16.7132
雨	-16.7132
顯	-16.7132
鲁	-16.7132
ꓤ	-16.7132
ꔫ	-16.7132
ꖾ	-16.7132
ꟽ	-16.7132
ꦿ	-16.7132
ꪆ	-16.7132
ꪝ	-16.7132
ꫀ	-16.7132
ꫛ	-16.7132
각	-16.7132
금	-16.7132
길	-16.7132
는	-16.7132
다	-16.7132
대	-16.7132
래	-16.7132
리	-16.7132
마	-16.7132
만	-16.7132
문	-16.7132
방	-16.7132
서	-16.7132
손	-16.7132
솔	-16.7132
송	-16.7132
시	-16.7132
양	-16.7132
얼	-16.7132
에	-16.7132
연	-16.7132
요	-16.7132
우	-16.7132
정	-16.7132
져	-16.7132
조	-16.7132
좋	-16.7132
지	-16.7132
평	-16.7132
하	-16.7132
할	-16.7132
해	-16.7132
형	-16.7132
화	-16.7132
효	-16.7132
희	-16.7132
﮶	-16.7132
𐎚	-16.7132
𐭣	-16.7132
𐭦	-16.7132
𐭪	-16.7132
𐭬	-16.7132
𓆩	-16.7132
𖣂	-16.7132
𖤈	-16.7132
𖤍	-16.7132
🅚	-16.7132
🅛	-16.7132
🅜	-16.7132
🅦	-16.7132
🇦	-16.7132
🇧	-16.7132
🇱	-16.7132
🇲	-16.7132
🇵	-16.7132
🇷	-16.7132
🇹	-16.7132
🌍	-16.7132
🌎	-16.7132
🌓	-16.7132
🌔	-16.7132
🌙	-16.7132
🌛	-16.7132
🌜	-16.7132
🌝	-16.7132
🌞	-16.7132
🌧	-16.7132
🌱	-16.7132
🌵	-16.7132
🌺	-16.7132
🍂	-16.7132
🍃	-16.7132
🍇	-16.7132
🍉	-16.7132
🍕	-16.7132
🍩	-16.7132
🍰	-16.7132
🍷	-16.7132
🍻	-16.7132
🍾	-16.7132
🍿	-16.7132
🎁	-16.7132
🎃	-16.7132
🎅	-16.7132
🎞	-16.7132
🎥	-16.7132
🎨	-16.7132
🎯	-16.7132
🎶	-16.7132
🏆	-16.7132
🏊	-16.7132
🏖	-16.7132
🏣	-16.7132
🏭	-16.7132
🏳	-16.7132
🏹	-16.7132
🏽	-16.7132
🐍	-16.7132
🐕	-16.7132
🐾	-16.7132
👃	-16.7132
👅	-16.7132
👋	-16.7132
👕	-16.7132
👠	-16.7132
👢	-16.7132
👧	-16.7132
👭	-16.7132
👰	-16.7132
👲	-16.7132
👳	-16.7132
👾	-16.7132
💀	-16.7132
💃	-16.7132
💇	-16.7132
💈	-16.7132
💒	-16.7132
💣	-16.7132
💦	-16.7132
💷	-16.7132
📄	-16.7132
📑	-16.7132
📛	-16.7132
📥	-16.7132
📩	-16.7132
📮	-16.7132
📲	-16.7132
📸	-16.7132
📿	-16.7132
🔆	-16.7132
🔈	-16.7132
🔐	-16.7132
🔗	-16.7132
🕊	-16.7132
🕌	-16.7132
🖼	-16.7132
🗯	-16.7132
🗿	-16.7132
😑	-16.7132
😧	-16.7132
😩	-16.7132
😷	-16.7132
🙃	-16.7132
🙅	-16.7132
🙆	-16.7132
🙇	-16.7132
🙋	-16.7132
🙌	-16.7132
🚌	-16.7132
🚓	-16.7132
🚣	-16.7132
🚨	-16.7132
🚫	-16.7132
🚭	-16.7132
🚵	-16.7132
🚷	-16.7132
🛌	-16.7132
🛐	-16.7132
🛒	-16.7132
🛰	-16.7132
🟥	-16.7132
🤒	-16.7132
🤕	-16.7132
🤚	-16.7132
🤟	-16.7132
🤠	-16.7132
🤲	-16.7132
🤸	-16.7132
🤹	-16.7132
🦯	-16.7132
🦽	-16.7132
🧑	-16.7132
🧖	-16.7132
🧚	-16.7132
Ј	-16.7132
ఎ	-16.7132
☔	-16.7132
职	-16.7132
(	-16.7132
ພ	-16.7132
ະ	-16.7132
イ	-16.7132
エ	-16.7132
サ	-16.7132
