<unk>	0
<s>	0
</s>	0
▁.	-3.52064
▁جي	-3.85637
▁ي	-3.96982
▁،	-4.22712
▁ا	-4.30511
▁آهي	-4.40649
▁۾	-4.42937
ي	-4.4363
▁م	-4.48447
▁ن	-4.4942
▁کي	-4.54867
▁۽	-4.62448
▁و	-4.64993
▁هههه	-4.65967
ا	-4.75895
ن	-4.78781
▁پ	-4.79285
▁جو	-4.82032
▁ته	-4.93516
▁س	-4.95633
▁تي	-5.12727
▁ان	-5.13991
▁ههه	-5.16305
و	-5.1787
.	-5.24882
▁ه	-5.25889
▁ب	-5.26325
▁"	-5.28755
▁ت	-5.30055
▁هڪ	-5.31269
▁نه	-5.36799
▁کان	-5.37724
▁سان	-5.40389
▁ج	-5.42181
▁:	-5.47647
▁ڪري	-5.4869
ه	-5.49579
ل	-5.53057
▁هن	-5.53872
ر	-5.55251
▁ر	-5.55269
نهنج	-5.57302
▁به	-5.57495
▁ون	-5.59892
ت	-5.6195
▁هو	-5.66038
▁آهن	-5.66536
▁ڪرڻ	-5.71593
▁ٿي	-5.74736
▁اسان	-5.76033
▁ٿو	-5.76239
▁ال	-5.76533
▁آ	-5.77442
▁يا	-5.77689
▁اهو	-5.79428
▁ههههه	-5.80574
▁لاءِ	-5.83063
▁1	-5.84408
▁0	-5.88602
م	-5.92168
▁ئي	-5.92497
▁	-5.95162
▁ف	-5.98783
▁2	-5.98932
▁توهان	-6.00498
▁-	-6.02937
▁(	-6.03256
▁ڪيو	-6.04156
س	-6.05296
▁ع	-6.05605
▁پر	-6.06799
▁مان	-6.08349
▁؟	-6.0974
ڪ	-6.10694
،	-6.12969
▁ش	-6.16187
▁مون	-6.16668
▁ل	-6.17011
▁)	-6.20325
د	-6.21773
▁جا	-6.22277
▁ٿا	-6.22789
▁ڪ	-6.26833
▁ين	-6.28755
ٽ	-6.29116
▁گ	-6.32175
▁چ	-6.33061
▁هي	-6.36529
▁خ	-6.39919
▁ـ	-6.41088
▁لاء	-6.41625
▁ويو	-6.43538
ج	-6.45118
▁ڻ	-6.47159
▁يو	-6.47506
▁انهن	-6.4949
▁طور	-6.49697
ب	-6.502
ـ	-6.5036
▁ك	-6.50393
▁ءَ	-6.50732
▁!	-6.51261
ڻ	-6.52783
ك	-6.53354
▁ڪم	-6.53442
▁د	-6.55834
ائ	-6.57856
▁ک	-6.5894
▁لا	-6.60021
▁ها	-6.61438
ع	-6.61839
▁ما	-6.62537
ز	-6.62615
▁ڇا	-6.62905
▁3	-6.63016
▁ز	-6.64026
▁ات	-6.65236
▁ح	-6.65748
▁هر	-6.66689
▁وقت	-6.67758
▁9	-6.68031
ند	-6.68242
ش	-6.70955
▁ڪو	-6.71668
▁وڌيڪ	-6.71669
ان	-6.72125
ار	-6.72977
▁مال	-6.7622
▁اي	-6.77912
ف	-6.77959
▁ڪا	-6.78204
ق	-6.78351
▁بي	-6.78837
▁5	-6.80578
t	-6.81068
ئ	-6.85342
▁4	-6.85994
ح	-6.86294
▁,	-6.8716
▁ق	-6.88008
▁جنهن	-6.88105
ري	-6.89092
▁اهي	-6.89181
پ	-6.89857
▁آھي	-6.90109
ستع	-6.90218
▁ڪئي	-6.9025
▁ٽ	-6.90483
▁ـــــ	-6.90763
▁s	-6.91524
▁هئي	-6.95437
▁تائين	-6.9602
▁نا	-6.96144
▁در	-6.96546
▁جيڪو	-6.9678
▁واري	-6.9682
▁ڪنهن	-6.97118
▁پوءِ	-6.97816
▁ص	-7.00403
▁ــ	-7.03157
▁ڪجهه	-7.03218
▁سي	-7.04245
▁ڪريو	-7.04272
▁8	-7.04527
▁نگ	-7.04868
▁اها	-7.04965
▁ھ	-7.05484
▁ڪار	-7.05783
ھ	-7.06491
ڙ	-7.06668
▁سڀ	-7.06764
▁چيو	-7.06765
▁ڊ	-7.07864
▁ٻ	-7.08118
▁جڏهن	-7.0823
▁6	-7.09329
▁بر	-7.09589
▁بس	-7.10277
▁ِ	-7.10709
▁ڏينهن	-7.10837
▁من	-7.11352
▁وڃي	-7.12633
▁7	-7.12923
▁وا	-7.1339
▁جيڪي	-7.13531
▁سال	-7.15844
گ	-7.16772
ال	-7.16798
▁َ	-7.17237
▁حاصل	-7.18059
ک	-7.19619
r	-7.20145
a	-7.20902
▁سگهي	-7.21057
▁پي	-7.21836
e	-7.22295
▁سندس	-7.22681
▁يڪڏهن	-7.23886
▁يل	-7.2401
▁از	-7.2407
▁مي	-7.24681
▁ُ	-7.24863
▁گڏ	-7.2494
▁پاڻ	-7.25232
▁هم	-7.25383
▁يت	-7.25832
ون	-7.26148
▁را	-7.26968
▁الله	-7.2821
▁وٽ	-7.29156
▁شروع	-7.29648
▁تمام	-7.29773
▁في	-7.32574
▁ناهي	-7.32899
▁رهيو	-7.33724
i	-7.33803
▁'	-7.33999
▁گهر	-7.34954
▁ة	-7.35305
چ	-7.35745
▁دنيا	-7.35834
▁ڪر	-7.36399
▁ط	-7.36629
يءَ	-7.36689
▁ور	-7.36854
▁اڳ	-7.37315
ست	-7.37502
ڊ	-7.37562
▁او	-7.38402
▁ني	-7.38705
▁وئي	-7.395
ص	-7.39675
▁ار	-7.39719
ين	-7.40463
▁رو	-7.41051
ور	-7.41811
▁سر	-7.42088
▁ري	-7.42135
لي	-7.42484
▁ٿيو	-7.42499
▁ڪن	-7.42577
▁تون	-7.4268
▁/	-7.43669
▁ماڻهو	-7.4373
▁وڏي	-7.43828
يل	-7.43993
:	-7.44064
▁نظر	-7.44499
▁ٽي	-7.46315
▁ڪي	-7.47968
آ	-7.48559
▁ضرورت	-7.48831
▁ڏ	-7.49223
▁پڻ	-7.49383
▁ڊي	-7.50163
▁ويندو	-7.50638
▁عمل	-7.50816
▁اين	-7.50988
▁غ	-7.51297
▁انهي	-7.52199
▁صرف	-7.52273
▁اچي	-7.52697
▁ويا	-7.53154
▁سو	-7.53203
▁ڪندا	-7.5353
o	-7.54191
▁زندگي	-7.54374
▁پيش	-7.54641
ى	-7.54757
▁رهي	-7.54935
▁ڪڏهن	-7.55519
▁جون	-7.55694
▁ٿيڻ	-7.56285
▁۔	-7.57718
▁وي	-7.57947
u	-7.58228
▁تو	-7.58243
▁جن	-7.58896
▁با	-7.59083
▁هئا	-7.59418
▁ڪيئن	-7.59733
نگ	-7.60556
خ	-7.61282
▁أ	-7.61567
▁ڪندو	-7.61728
▁دل	-7.61855
ة	-7.62077
▁بابت	-7.62519
▁اس	-7.62523
▁سڀني	-7.62655
)	-7.62855
▁>	-7.62893
▁ماڻهن	-7.62974
▁ڇو	-7.63118
▁غير	-7.63528
ض	-7.63558
▁جيئن	-7.6362
▁ڏانهن	-7.63792
▁طرح	-7.64392
▁مع	-7.64411
▁عام	-7.65718
▁گهٽ	-7.66632
▁شامل	-7.66724
▁ڇڏي	-7.66915
▁لو	-7.66989
▁صورت	-7.6728
▁ٻئي	-7.67322
ط	-7.67513
▁لي	-7.67579
▁_	-7.67974
▁مختلف	-7.68827
▁ائي	-7.6902
▁يعني	-7.69546
▁تنهن	-7.71008
▁اڄ	-7.71364
▁وارو	-7.7203
ائي	-7.7206
▁شي	-7.7242
ی	-7.73199
▁وري	-7.73215
▁ڀ	-7.73677
▁ڌ	-7.73938
▁رهيا	-7.74309
▁<	-7.74471
▁A	-7.74555
▁ڳالهه	-7.74759
▁خاص	-7.75056
▁هوندي	-7.75371
▁آهيان	-7.75696
▁اندر	-7.75961
▁ڪندي	-7.76225
▁ڳاله	-7.76321
▁ڏيڻ	-7.7713
▁ام	-7.77421
▁ض	-7.7828
▁گهرجي	-7.79595
▁ائ	-7.80046
وب	-7.80336
▁ملڪ	-7.80398
ٿ	-7.81585
▁ئ	-7.81607
▁هوندو	-7.81702
▁آئون	-7.81848
▁ياد	-7.82187
▁ڙ	-7.82219
▁ايس	-7.82311
▁بند	-7.82311
▁سبب	-7.82896
▁مدد	-7.83099
▁خبر	-7.83715
▁كم	-7.83792
▁جيڪا	-7.83865
▁دوست	-7.83915
▁تاريخ	-7.84755
نھنج	-7.85085
▁ٻين	-7.85135
▁سين	-7.85184
▁ايم	-7.85272
▁مو	-7.85408
▁آهيون	-7.85467
▁مڪمل	-7.85727
▁موجود	-7.85797
▁=	-7.86361
▁وچ	-7.86779
▁پاڪ	-7.86854
▁دار	-7.88139
را	-7.88168
▁سا	-7.88837
▁اهم	-7.88899
▁نالو	-7.89601
▁نئين	-7.89813
▁بعد	-7.90114
▁قسم	-7.90749
▁ٿيل	-7.90884
ِ	-7.91407
l	-7.91795
▁گهڻو	-7.92259
▁اتي	-7.92839
▁کيس	-7.93059
▁S	-7.93084
▁جواب	-7.93546
▁هتي	-7.93714
▁ڪمپني	-7.93885
ذ	-7.93891
▁هاڻي	-7.94372
▁فر	-7.94609
▁پهرين	-7.94621
▁تبديل	-7.94696
▁قيمت	-7.95053
▁؛	-7.95063
▁ختم	-7.95198
▁ائيٽ	-7.95621
ء	-7.95758
ول	-7.95841
▁ذ	-7.95862
▁ڪتاب	-7.96234
▁ادا	-7.96414
▁يس	-7.97349
▁آھن	-7.97696
▁است	-7.97707
▁سگهو	-7.97871
▁آن	-7.98165
يم	-7.98592
▁ٿيندو	-7.99073
▁ڳ	-7.99141
ٽي	-7.99355
▁شهر	-7.99452
▁خيال	-7.99466
▁ڪيا	-7.99493
يو	-7.99549
▁شايد	-7.99595
▁ٿ	-7.9974
▁سنڌ	-7.99833
▁حل	-8.00062
y	-8.00077
ڳ	-8.00125
ڪي	-8.00383
يا	-8.00836
▁پيدا	-8.01417
▁ڇڏيو	-8.01495
▁يه	-8.01574
▁ڇ	-8.01719
▁يم	-8.01736
▁سالن	-8.02096
▁ڏئي	-8.02819
▁هٿ	-8.03027
▁حق	-8.0309
▁فون	-8.03189
▁ٿئي	-8.03352
▁انا	-8.03356
▁وڏو	-8.03407
▁پيو	-8.03601
▁هيٺ	-8.04222
رو	-8.04298
نا	-8.04467
▁رد	-8.04748
▁تر	-8.05105
▁اسٽ	-8.05319
▁ڪندڙ	-8.05911
▁عليه	-8.06027
▁ويب	-8.06146
▁چونڊ	-8.06961
▁ڪيل	-8.07058
▁ڏنو	-8.07086
ــ	-8.0722
n	-8.07232
ام	-8.07589
▁اهڙي	-8.07665
ڏ	-8.07742
▁هترين	-8.07801
ني	-8.08059
▁ڪوشش	-8.08149
▁له	-8.08451
▁قانون	-8.08499
▁پوء	-8.08702
▁*	-8.08972
▁يون	-8.0909
ات	-8.09211
▁مطلب	-8.09231
▁آيو	-8.09823
s	-8.09929
▁ويندي	-8.10277
ها	-8.10749
▁هجي	-8.10909
اب	-8.11158
▁خدا	-8.11223
▁er	-8.11226
اء	-8.11553
▁اوهان	-8.11613
▁اصل	-8.11701
▁ڏي	-8.11844
▁ٻيو	-8.11951
▁رات	-8.11961
▁مش	-8.11988
▁خوش	-8.12176
▁ٻه	-8.12398
▁سوال	-8.12642
▁طرف	-8.12645
▁وٺي	-8.12973
c	-8.13001
▁كل	-8.134
▁پئي	-8.1356
▁ظاهر	-8.13594
▁ء	-8.13728
▁آئي	-8.13919
دي	-8.1405
▁ست	-8.14088
▁وانگر	-8.14238
▁ائين	-8.14499
▁لک	-8.14517
m	-8.14738
▁انسان	-8.1542
▁ذريعي	-8.15649
يت	-8.15919
▁اري	-8.16013
▁ٻار	-8.16044
▁ی	-8.16322
▁ولا	-8.16407
ڻي	-8.16493
وھان	-8.1662
▁اڻ	-8.16947
▁صحيح	-8.17027
-	-8.1716
▁ملي	-8.17202
▁ترقي	-8.17314
▁مح	-8.17406
p	-8.17448
▁i	-8.1747
▁معلوم	-8.17504
يه	-8.1774
▁مر	-8.18233
▁اب	-8.18327
ٺ	-8.18415
ئي	-8.18584
▁اُ	-8.18722
▁ند	-8.1884
▁دور	-8.18901
▁a	-8.18905
لا	-8.18975
d	-8.19074
▁حقيقت	-8.19211
▁مس	-8.19738
جي	-8.20087
▁مٿي	-8.20128
▁عمر	-8.20795
▁پسند	-8.20886
؟	-8.21131
ث	-8.21267
▁ڪيترا	-8.22034
w	-8.22289
▁[	-8.2262
▁اول	-8.23588
▁سفر	-8.23666
▁ٽر	-8.23824
▁اڃا	-8.23895
▁مثال	-8.24209
دا	-8.24402
▁والله	-8.24527
▁اثر	-8.24551
ٽر	-8.24664
▁علي	-8.2467
v	-8.24679
▁ڏسي	-8.24872
▁اوھان	-8.24898
▁جاري	-8.24946
▁ارڪيٽ	-8.25066
▁چاهي	-8.25166
▁دوران	-8.25435
▁بهتر	-8.25499
▁بد	-8.25553
▁ھو	-8.26203
▁e	-8.26223
▁بين	-8.26422
▁داخل	-8.26454
▁حڪومت	-8.26559
▁ـــ	-8.26604
ير	-8.26621
▁عورت	-8.27314
▁تصوير	-8.2818
▁بل	-8.28202
▁ٻاهر	-8.28252
▁ڪيترن	-8.28298
▁ضروري	-8.28322
▁صاحب	-8.28537
▁لڳي	-8.29234
▁مريڪا	-8.29263
▁راند	-8.29514
▁مواد	-8.29585
▁رنگ	-8.29689
بي	-8.29872
ڪر	-8.29992
غ	-8.30099
▁حصو	-8.30301
▁هاي	-8.30401
▁جتي	-8.30469
▁o	-8.30483
▁ى	-8.30537
▁ول	-8.30674
لائق	-8.30741
▁پيار	-8.31196
▁يان	-8.31507
▁c	-8.3165
▁تيار	-8.31756
▁گي	-8.31888
▁سندن	-8.31903
نه	-8.32204
سي	-8.32291
▁ھن	-8.32309
▁ندا	-8.32529
▁هنن	-8.33299
بل	-8.33396
▁ختيار	-8.33472
▁ڏسڻ	-8.33637
▁آخر	-8.3388
▁لم	-8.33911
▁]	-8.34063
▁اسين	-8.34083
▁حد	-8.34303
▁هريون	-8.34386
▁آسان	-8.34589
▁ڊيٽا	-8.34719
▁محسوس	-8.34792
▁ڪجھ	-8.35188
g	-8.35303
▁صلاح	-8.3544
▁هوندا	-8.35803
▁T	-8.3584
▁خريد	-8.36407
▁موضوع	-8.36477
▁آهيو	-8.36573
▁خط	-8.36597
لو	-8.36685
▁خلاف	-8.36748
▁بيان	-8.36897
▁على	-8.37041
▁گھر	-8.3717
▁رکي	-8.37654
يپل	-8.37679
▁علم	-8.37691
▁اھو	-8.37824
▁10	-8.37879
▁ڏني	-8.3801
▁ڄاڻ	-8.38175
▁فارم	-8.38505
▁زمين	-8.38572
تو	-8.3861
اد	-8.38616
▁معيار	-8.38627
وي	-8.39916
!	-8.40046
يون	-8.40069
▁خوب	-8.4011
▁نو	-8.40121
▁ٿيندي	-8.40207
▁ڪل	-8.40319
▁P	-8.40325
▁چي	-8.40509
ڪو	-8.40545
ما	-8.40679
▁رڳو	-8.4078
▁سمجه	-8.40949
▁پاڻي	-8.41137
▁آر	-8.41185
▁طرفان	-8.41218
▁تعليم	-8.41303
▁چه	-8.41631
ٺي	-8.41719
▁ٿيون	-8.41722
▁جه	-8.42364
▁وارا	-8.42485
▁رکڻ	-8.42618
ڌ	-8.42645
▁يءَ	-8.4283
▁سگهجي	-8.43041
▁ڦ	-8.43574
▁ڏيو	-8.43579
▁چين	-8.43688
ـــ	-8.43725
وا	-8.4376
▁مت	-8.43817
بر	-8.43827
▁لائن	-8.43941
▁ث	-8.43963
▁جنگ	-8.44076
▁انگ	-8.44083
S	-8.44168
1	-8.4427
▁قوم	-8.44431
▁خود	-8.44479
▁مشهور	-8.44557
▁ٻي	-8.44631
▁هوءَ	-8.44687
داوا	-8.44835
ڪاڻ	-8.45315
5	-8.4553
D	-8.46039
▁يشن	-8.46312
▁وار	-8.46314
▁مقصد	-8.46501
▁واپس	-8.46676
▁اح	-8.46733
هن	-8.46853
▁دا	-8.47864
A	-8.47975
وم	-8.482
▁شو	-8.48213
▁ايران	-8.48535
▁قابل	-8.48689
▁نٽ	-8.49028
▁سخت	-8.49058
▁B	-8.49121
▁نظام	-8.4914
▁وڃڻ	-8.49274
▁موڪل	-8.49278
▁رب	-8.49331
▁گه	-8.49405
▁ير	-8.49539
هي	-8.49618
k	-8.4964
▁خان	-8.50047
▁اپ	-8.50061
اف	-8.50464
▁روز	-8.5048
هه	-8.50585
▁ing	-8.50841
▁تان	-8.51017
▁وٺ	-8.51148
▁دي	-8.5115
▁ندي	-8.51173
▁پرو	-8.51371
▁هذا	-8.51858
▁سگهن	-8.5197
▁مونکي	-8.51999
▁آخري	-8.52039
▁وس	-8.52125
▁ٻن	-8.52416
▁ندو	-8.5257
▁هميشه	-8.52664
▁ٻنهي	-8.52738
▁بال	-8.52932
▁چوڻ	-8.52968
▁پير	-8.53045
نڊ	-8.53066
,	-8.53223
▁پٽ	-8.53256
▁يندو	-8.53267
ڪا	-8.53721
▁وال	-8.53942
َ	-8.53991
▁قدم	-8.5413
▁توکي	-8.54167
▁لفظ	-8.54173
▁اجازت	-8.54358
▁ابو	-8.54381
▁ڄڻ	-8.54484
▁فراهم	-8.54497
▁سچ	-8.54606
▁گل	-8.54797
ئر	-8.55036
▁سٽ	-8.55063
▁يقين	-8.55251
b	-8.55289
▁ھي	-8.55339
▁جان	-8.55477
▁اميد	-8.55515
▁يندا	-8.55534
هر	-8.55943
2	-8.55996
▁ڏيکار	-8.56093
▁C	-8.56227
▁وش	-8.56276
▁نيادي	-8.5643
▁ڪير	-8.56636
▁سٺو	-8.57173
▁آيا	-8.57264
▁سواءِ	-8.57325
▁تعلق	-8.57406
▁پڇ	-8.57408
▁تا	-8.57422
▁ڏٺو	-8.57444
ظ	-8.57711
▁رس	-8.57793
▁توڻيڪ	-8.57835
▁ٽيڪن	-8.58019
▁نٿو	-8.58039
▁in	-8.58041
▁مل	-8.58331
▁ڪونه	-8.58687
▁ميل	-8.588
▁ٺ	-8.58858
▁D	-8.58868
▁سلامي	-8.58914
▁تحقيق	-8.58941
▁اد	-8.59466
▁محفوظ	-8.59474
▁پنج	-8.5972
▁حڪم	-8.59768
ڪس	-8.59787
▁تح	-8.59913
▁دم	-8.59918
▁باري	-8.60103
▁ہ	-8.60257
▁يڊ	-8.60766
▁G	-8.60818
▁اف	-8.60879
▁قائم	-8.60896
تا	-8.60944
▁آواز	-8.61636
▁مناسب	-8.61686
▁ٽو	-8.61869
▁هه	-8.61941
▁وگرام	-8.61984
▁نئون	-8.62045
▁طريقي	-8.62314
▁دو	-8.62366
▁نداز	-8.62441
▁ڀر	-8.62488
▁ايڪس	-8.62491
▁ايو	-8.62507
▁I	-8.62748
▁واقعي	-8.62994
C	-8.63142
▁شادي	-8.63699
▁کڻي	-8.63861
▁شيء	-8.64248
ڀ	-8.64413
▁نام	-8.64548
▁چار	-8.64574
▁بار	-8.64574
▁محبت	-8.65146
▁آف	-8.65172
▁n	-8.65341
▁ڀي	-8.65413
▁نفس	-8.65502
▁وزير	-8.65605
▁رم	-8.65864
▁ممڪن	-8.66209
▁گھ	-8.66275
▁هجڻ	-8.66319
ئن	-8.66732
▁اسڪول	-8.66871
أ	-8.66891
▁نالي	-8.66955
▁ويندا	-8.67214
▁ايل	-8.67249
▁دست	-8.67262
▁حال	-8.67262
E	-8.67321
▁مطابق	-8.6757
ود	-8.67629
▁p	-8.67697
▁اڪثر	-8.67781
▁منهن	-8.67865
▁E	-8.67924
▁يائين	-8.67944
▁اسڪ	-8.68369
▁le	-8.6837
▁خراب	-8.68526
▁بنياد	-8.68576
▁ھڪ	-8.68684
▁شين	-8.68731
▁آزاد	-8.6874
ُ	-8.68772
▁صحت	-8.69329
▁خواست	-8.69344
▁رج	-8.6943
مي	-8.695
▁to	-8.69515
اس	-8.69563
▁سگھي	-8.69591
▁جسم	-8.6977
▁ولي	-8.70054
▁يڪيشن	-8.70078
▁بو	-8.70205
▁نن	-8.70229
"	-8.70643
▁روح	-8.70738
▁گهڻي	-8.70762
▁واحد	-8.70838
▁انت	-8.70841
ڇ	-8.70859
▁شخص	-8.71079
▁سيڪڙو	-8.71165
O	-8.71279
▁چڪو	-8.71648
▁گر	-8.71654
▁ِي	-8.7175
▁وارن	-8.71987
▁وين	-8.72032
▁قدر	-8.72261
T	-8.72594
▁اڻي	-8.72688
6	-8.72723
▁مفت	-8.72788
▁ٻارن	-8.7306
▁صنعت	-8.73095
▁ٻيهر	-8.73123
وز	-8.73215
▁ٺاهي	-8.73237
▁W	-8.73332
▁ضحك	-8.73365
▁فقط	-8.73841
▁سائين	-8.73871
▁ڪٿي	-8.73884
▁رياست	-8.73967
▁اق	-8.7403
▁هيو	-8.74111
▁سڄي	-8.74132
▁مير	-8.74444
شن	-8.74461
▁باقي	-8.74675
▁al	-8.74741
▁اچڻ	-8.74749
يس	-8.74824
▁سطح	-8.74926
▁صح	-8.75094
▁ڊاڪٽر	-8.75234
▁اني	-8.75396
I	-8.75577
▁پل	-8.75666
▁سون	-8.75846
▁نس	-8.75901
▁که	-8.75985
▁ڪيس	-8.76068
▁روم	-8.76282
▁يندي	-8.76713
▁ڪش	-8.76771
▁سياسي	-8.76843
دو	-8.76869
▁فيصلو	-8.7689
▁پارٽي	-8.7698
▁غلط	-8.77068
▁ڪافي	-8.772
▁مرد	-8.77408
▁پاران	-8.77433
▁ذهن	-8.77597
▁ڌار	-8.77721
▁نوجو	-8.77838
▁ٻڌايو	-8.78004
P	-8.78106
h	-8.78135
▁du	-8.78336
8	-8.78522
▁مريڪي	-8.78855
به	-8.79039
▁يٽ	-8.79197
▁ورتو	-8.79281
ڪائو	-8.79283
▁عالمي	-8.79316
▁اڳتي	-8.79552
▁مُ	-8.79779
▁موت	-8.79814
▁ڏس	-8.79845
▁y	-8.7986
▁رت	-8.79922
▁دير	-8.80409
▁يوني	-8.8052
3	-8.80541
هربا	-8.80761
▁ڪهڙي	-8.80912
▁ڪهاڻي	-8.80972
▁زين	-8.81444
re	-8.81516
▁پاس	-8.81532
▁آءٌ	-8.81698
▁نقصان	-8.82123
▁جديد	-8.82197
▁ڳوٺ	-8.82306
▁ايندڙ	-8.82308
▁قول	-8.824
▁هُ	-8.82498
▁ڏسو	-8.82603
▁ميڊيا	-8.82612
▁تن	-8.82802
▁رپورٽ	-8.82857
▁آه	-8.8307
▁اا	-8.83171
▁شيون	-8.83214
▁اسپ	-8.83298
ؤ	-8.83351
▁ايه	-8.83397
M	-8.83473
▁دلچسپ	-8.83597
▁H	-8.83648
▁يندڙ	-8.83922
▁لسلام	-8.84031
▁ظ	-8.84117
▁ضرور	-8.84124
▁ملڪن	-8.84716
▁لڪ	-8.84816
▁سم	-8.84927
▁وجود	-8.84967
▁وڙ	-8.85005
▁ستان	-8.85243
9	-8.85246
تر	-8.85415
▁ڙي	-8.85423
▁حب	-8.85541
▁ذاتي	-8.85768
▁ترتيب	-8.85786
▁جمع	-8.85796
▁رز	-8.86026
▁هين	-8.86032
▁پوليس	-8.8624
▁اٿ	-8.86321
▁صدر	-8.86425
▁ده	-8.86428
▁مشين	-8.86634
▁ايڊ	-8.86657
▁ڪردار	-8.86677
▁فلم	-8.86853
▁يد	-8.86892
▁سن	-8.86987
▁خير	-8.87094
▁يار	-8.87241
▁چاهيو	-8.87397
وس	-8.87449
▁ڄ	-8.876
▁نج	-8.87655
▁تيز	-8.87685
▁ّ	-8.87716
▁ڪس	-8.87755
▁الاجي	-8.87771
▁اعلان	-8.87831
▁جدا	-8.87853
▁نوٽ	-8.87864
▁ترين	-8.88088
4	-8.88335
▁F	-8.8834
▁مضمون	-8.88477
▁فوج	-8.88529
▁حالت	-8.88759
▁رک	-8.89007
▁ٻولي	-8.89007
ڙي	-8.89406
▁کول	-8.89575
▁عد	-8.89579
▁نمبر	-8.89604
▁g	-8.89665
▁لك	-8.89685
▁حقيقي	-8.89785
0	-8.8998
▁انھن	-8.90144
▁مسئلو	-8.90253
▁تڏهن	-8.90313
▁اسلام	-8.90446
▁سسٽم	-8.90447
▁ٿيا	-8.90481
▁حر	-8.90533
▁ايئر	-8.90568
▁قص	-8.90639
▁انه	-8.90674
▁طاقت	-8.90711
▁شر	-8.90752
▁ندڙ	-8.90765
▁ڍ	-8.90924
▁L	-8.91019
▁بڻجي	-8.91275
▁منٽ	-8.91448
گه	-8.92008
▁بچ	-8.92177
▁هاڻ	-8.92365
▁20	-8.92525
▁جز	-8.92877
▁وڌ	-8.92914
7	-8.92932
ri	-8.93244
يب	-8.9325
ئو	-8.93354
▁گوگل	-8.93404
▁وڃ	-8.93651
▁ڏنل	-8.93964
▁صبح	-8.9399
ڪڙ	-8.9402
▁نساني	-8.94105
▁خدمت	-8.9412
▁آباد	-8.9416
▁تك	-8.94233
اڻ	-8.94238
▁ڪٽ	-8.94264
▁ماءُ	-8.94433
يد	-8.94538
▁سامان	-8.94727
▁مين	-8.95049
▁بنا	-8.95152
▁تع	-8.95196
▁t	-8.95223
▁عورتن	-8.95301
▁ٽيم	-8.95324
▁سنڌي	-8.95372
▁عوام	-8.95476
▁تعمير	-8.95611
▁ريس	-8.95828
▁طريقو	-8.95897
▁بينڪ	-8.96143
▁پور	-8.96218
▁پيا	-8.96339
▁ڪيتر	-8.96388
▁ٻڌ	-8.96389
▁اعلي	-8.96451
▁M	-8.96457
▁ورسٽي	-8.96475
▁وڃن	-8.96627
كر	-8.96631
▁واپار	-8.96664
بت	-8.96668
▁چئي	-8.96722
▁حضرت	-8.96734
▁احساس	-8.96875
▁قبول	-8.96946
▁O	-8.96984
▁ڪجي	-8.9724
▁ٺاهڻ	-8.97259
▁m	-8.97391
▁سماجي	-8.97477
▁پري	-8.97548
R	-8.97548
▁ماحول	-8.97798
▁سائنس	-8.97799
▁صدي	-8.9786
▁مقرر	-8.9787
▁لل	-8.97883
▁نھ	-8.98017
▁ed	-8.98129
▁نور	-8.9818
کي	-8.98221
▁تقريب	-8.98226
▁لڳو	-8.98247
ٽو	-8.98267
▁عن	-8.98682
ra	-8.98939
▁حفاظت	-8.98945
▁re	-8.98986
▁وٺڻ	-8.99033
▁لوڊ	-8.99057
▁•	-8.99103
▁پورو	-8.99158
▁اع	-8.99175
مجھ	-8.99192
ستائ	-8.99355
▁ڊر	-8.9949
▁گذريل	-8.9958
▁سروس	-8.99831
▁شاء	-8.99858
ڳاپ	-8.99963
▁ٽن	-8.9997
▁star	-8.99996
ــــ	-9.0008
▁جاءِ	-9.00195
▁علاج	-9.0023
▁رهڻ	-9.00254
▁ڊائ	-9.00275
▁وڊيو	-9.0029
▁سُ	-9.00668
يز	-9.0077
▁پس	-9.00941
▁شن	-9.01041
▁پاسي	-9.01071
▁خت	-9.0109
▁فرق	-9.01091
▁واضح	-9.01133
▁حصي	-9.01288
▁جر	-9.01458
▁th	-9.01561
L	-9.01697
▁صارف	-9.01698
▁صاف	-9.01737
▁پوندو	-9.01873
▁اصلي	-9.01875
▁پوري	-9.01883
▁ڏا	-9.02033
▁اخ	-9.0217
▁اندان	-9.02433
سٽر	-9.02502
▁سوچ	-9.02507
▁قومي	-9.02597
▁بخش	-9.0262
▁شرح	-9.02672
▁ئڻ	-9.02706
سٽ	-9.02729
▁مسافر	-9.02768
▁دان	-9.02849
وڙ	-9.02901
▁d	-9.0291
▁نٿا	-9.02948
▁جلد	-9.02952
▁ارو	-9.02966
▁وڌي	-9.02984
st	-9.03048
▁راهڪن	-9.03069
▁سنگ	-9.03132
▁اکين	-9.03154
▁ننڍ	-9.03234
▁ڀيرو	-9.03269
▁تفصيل	-9.03369
اي	-9.03403
▁سمور	-9.03403
▁نتظار	-9.0352
▁وجوده	-9.03534
▁ئين	-9.03652
▁ڪوبه	-9.03693
▁هل	-9.03698
▁اش	-9.03728
▁تعداد	-9.03747
▁رقم	-9.03831
▁داري	-9.03837
▁موجب	-9.03899
▁شه	-9.03923
▁st	-9.04046
ائر	-9.04239
▁عظيم	-9.04278
▁حياتي	-9.04314
▁ٻيا	-9.04333
▁خرچ	-9.04357
وٽ	-9.04368
▁رن	-9.04429
▁اڪ	-9.04447
▁حوالي	-9.04562
▁بت	-9.04602
اغ	-9.04952
▁ck	-9.05084
▁وق	-9.05118
x	-9.05216
▁x	-9.05443
▁اوزار	-9.05505
▁دعا	-9.0553
▁کائ	-9.05575
▁مضبوط	-9.05656
▁پڙهڻ	-9.05791
▁عجب	-9.05825
▁ذڪر	-9.05886
▁اک	-9.06022
ڍ	-9.06026
▁ويئر	-9.06072
▁te	-9.06089
▁لينڊ	-9.06091
▁داد	-9.06145
▁ڪيون	-9.06259
▁ڏک	-9.06291
▁ھڪڙو	-9.06404
▁گڏيل	-9.06432
▁پڙهي	-9.06433
▁محمد	-9.0651
▁$	-9.06525
▁متاثر	-9.06586
▁جھ	-9.06691
▁نيو	-9.06859
▁پوسٽ	-9.07061
▁ڏيندو	-9.07226
▁هيون	-9.07481
▁گم	-9.07568
▁راه	-9.07615
▁هيءَ	-9.07654
▁لکڻ	-9.07732
▁اُن	-9.07824
▁سلمان	-9.07842
▁هزار	-9.07846
▁نتيج	-9.07851
ٻ	-9.07906
▁هفتي	-9.07952
▁لازمي	-9.08065
▁اهڙو	-9.08077
▁رح	-9.08085
▁نٽرول	-9.08315
▁نسل	-9.08542
▁U	-9.0862
▁مٿان	-9.08701
▁نموني	-9.08736
▁واٽ	-9.08886
نج	-9.09033
▁ايف	-9.09124
▁ڀا	-9.09189
ro	-9.09243
▁چر	-9.09363
▁آزادي	-9.09504
▁فيه	-9.0965
▁ينڊ	-9.097
▁درج	-9.09849
▁مهيا	-9.0987
▁خواب	-9.10062
▁شد	-9.10299
▁ڌيان	-9.1032
▁لائ	-9.10396
▁مثل	-9.10567
▁ڪهڙو	-9.10962
▁گريزي	-9.11045
▁لڳا	-9.11057
ڏي	-9.11103
▁موسم	-9.11213
ہ	-9.11217
ئين	-9.11271
▁تہ	-9.11454
▁يورپ	-9.11495
▁إ	-9.11533
▁سور	-9.11537
▁ڊو	-9.11592
▁ريم	-9.11602
▁وضاحت	-9.11697
مر	-9.11898
▁نشان	-9.11909
▁عدالت	-9.12273
▁درد	-9.12274
▁پوي	-9.12288
▁15	-9.12308
▁يک	-9.1232
▁لڳ	-9.12343
▁آرام	-9.12515
▁ً	-9.12528
▁ايپ	-9.1263
▁ره	-9.12694
▁پڪ	-9.12841
▁ريشان	-9.13184
▁اَ	-9.13295
▁ديو	-9.13361
▁پهچي	-9.13433
▁وم	-9.13474
▁ذميو	-9.13519
▁گرفت	-9.13687
▁مرڪز	-9.13828
▁غلطي	-9.13873
▁عملي	-9.14042
پر	-9.14077
يڊ	-9.14101
▁واقع	-9.14357
▁روشني	-9.14378
▁سڏ	-9.14622
▁خاصيت	-9.14648
▁نيا	-9.14656
▁كان	-9.14668
▁اِ	-9.14672
▁ڳول	-9.14699
▁رکيو	-9.14781
▁ليش	-9.1481
▁ڪارو	-9.14927
▁ch	-9.15063
▁برابر	-9.15133
▁هنڌ	-9.15157
▁30	-9.15253
▁12	-9.153
▁شرط	-9.15519
▁ئون	-9.15595
▁استاد	-9.15614
▁حسين	-9.15663
▁چون	-9.1576
▁يڪشن	-9.1599
وڊ	-9.16007
▁روي	-9.16051
▁تنظيم	-9.16051
▁ڪريان	-9.16103
جر	-9.16292
▁حلو	-9.16309
▁دوا	-9.16504
▁ڪئ	-9.16536
اق	-9.16596
گهند	-9.16604
▁مخ	-9.16688
▁ءِ	-9.16752
▁پيام	-9.1682
▁سگهون	-9.16841
▁هلي	-9.16857
▁علاوه	-9.17084
▁شكرا	-9.17087
▁ڪيٽ	-9.17294
▁هيچ	-9.17346
▁شاعر	-9.17352
▁قتل	-9.17356
▁ليس	-9.17552
▁اهل	-9.17707
▁تصديق	-9.17778
▁مليو	-9.17846
▁جنھن	-9.17868
▁ــــ	-9.17871
▁شيءِ	-9.17925
en	-9.18006
▁وڪرو	-9.18057
▁ڪردگي	-9.18126
▁نوڪري	-9.18128
▁مند	-9.18229
▁جهاز	-9.18305
له	-9.18406
▁جلدي	-9.18471
يش	-9.18513
▁حيثيت	-9.18564
▁عرب	-9.18603
▁هال	-9.1861
ے	-9.18667
▁ئن	-9.18705
▁پورٽ	-9.18712
▁ng	-9.18957
نس	-9.18985
▁رستو	-9.1906
▁گروپ	-9.19094
▁قلب	-9.19122
▁ڪراچي	-9.1918
▁فرانس	-9.19182
▁وَ	-9.19215
▁اڌ	-9.19226
شت	-9.19277
▁چڱ	-9.19302
▁زور	-9.19303
▁مري	-9.19452
▁پليٽ	-9.19458
▁رڪاري	-9.19484
▁رفتار	-9.19494
▁يڪڏھن	-9.19534
▁وڏ	-9.19606
▁انتي	-9.19649
▁اسٽور	-9.19717
f	-9.20031
▁ذار	-9.20042
▁دين	-9.201
▁زال	-9.20295
▁فيصل	-9.20439
▁هڻ	-9.20483
▁هريان	-9.2063
▁تخ	-9.20695
▁ڇوڪري	-9.2074
▁يج	-9.20742
▁تصور	-9.20811
▁يڪ	-9.20859
▁ويل	-9.20907
▁ليل	-9.20922
▁ماڊل	-9.20965
▁ٺهيل	-9.21002
▁گھٽ	-9.21014
▁بڻائ	-9.21024
▁وڻ	-9.21051
▁ڊالر	-9.21055
▁غريب	-9.21143
▁يماري	-9.21244
▁ميٽر	-9.21285
▁زبان	-9.21415
▁اگر	-9.21423
▁ڪارڊ	-9.21473
▁مينٽ	-9.21501
▁ااااا	-9.21503
▁آفيس	-9.21522
B	-9.21525
▁رسائي	-9.21585
▁وت	-9.21585
▁لب	-9.21833
▁اصول	-9.21868
▁ياتي	-9.21957
▁ڪئين	-9.221
▁ڪلڪ	-9.22106
▁ro	-9.22167
▁چو	-9.22259
▁يف	-9.2232
▁ورڪ	-9.22341
▁امام	-9.22624
▁ليه	-9.22671
▁مط	-9.22693
▁K	-9.22806
▁تجربو	-9.22851
▁امير	-9.22887
▁موٽ	-9.22909
▁بلاگ	-9.22963
▁ٍ	-9.22982
▁راج	-9.22994
نتها	-9.23091
▁خوف	-9.23125
▁ستقبل	-9.23327
▁پڇيو	-9.23407
▁سيڪ	-9.23433
▁نمي	-9.23458
▁سيٽ	-9.23586
▁لق	-9.23622
▁بود	-9.23778
▁قسمت	-9.23799
▁ھڪڙ	-9.23922
کر	-9.24128
▁پيوٽر	-9.24162
▁فيس	-9.24203
▁بحث	-9.24253
▁عم	-9.24326
▁آئ	-9.24327
▁ورا	-9.24383
در	-9.24432
▁رھ	-9.24611
▁گرمي	-9.24634
▁ايندو	-9.24826
▁ميابي	-9.25056
▁ناس	-9.25062
▁اعظم	-9.25185
▁ريت	-9.25277
▁پيغام	-9.2529
▁آءِ	-9.25294
▁سج	-9.25313
▁ٿيندا	-9.25341
▁بورڊ	-9.25375
▁چند	-9.25461
▁ٽرنيٽ	-9.25467
▁سافٽ	-9.2547
▁ماهر	-9.25575
▁ڊائون	-9.25751
▁لاڳو	-9.25752
▁سگھن	-9.25895
▁ڏاڍو	-9.25925
▁ڳالھ	-9.25938
N	-9.26
▁سمجهي	-9.26171
▁يٰ	-9.26246
▁ياب	-9.26305
▁ماه	-9.26342
▁ڪوڙ	-9.26376
▁زي	-9.26415
▁ڪريون	-9.26458
00	-9.26488
▁V	-9.26548
▁هڪڙي	-9.26556
▁آڻي	-9.26607
بو	-9.26669
▁ويه	-9.26778
▁اھي	-9.26781
▁گو	-9.26816
▁حمل	-9.26894
▁وزن	-9.27025
▁گرم	-9.27077
▁ساد	-9.27287
▁ساڳي	-9.27419
▁ٻڌي	-9.27438
▁خصوص	-9.27557
▁اللي	-9.27615
▁امي	-9.27749
▁پھ	-9.278
وف	-9.27803
▁ڪوڊ	-9.27956
▁ءُ	-9.27993
▁يب	-9.27995
la	-9.28063
▁ڪونهي	-9.28154
▁Ma	-9.28284
▁اينڊ	-9.28397
▁قبل	-9.28403
▁ڪڍ	-9.28415
▁رگرمي	-9.2891
▁ااا	-9.28933
▁عز	-9.29109
▁لف	-9.29171
▁آب	-9.29195
▁عرف	-9.29259
▁سلام	-9.29319
ھڙ	-9.29325
G	-9.29345
id	-9.2935
▁يگر	-9.29462
▁جد	-9.29552
▁افغان	-9.29594
▁u	-9.29668
▁ويئي	-9.29702
▁شڪار	-9.2977
رحال	-9.29959
▁شاعري	-9.29976
▁وز	-9.29989
▁فعال	-9.29989
▁مق	-9.30014
▁ادب	-9.30076
▁سڪرين	-9.30087
▁ڊگهي	-9.30087
وشل	-9.30112
لڪل	-9.30165
▁ھر	-9.30375
▁سنڀال	-9.30381
▁فلس	-9.30424
▁مب	-9.30474
▁يني	-9.30564
▁عالم	-9.30753
▁دٻ	-9.30756
▁تج	-9.30779
▁گراف	-9.30818
▁روان	-9.30875
▁سک	-9.31078
فر	-9.31146
▁قر	-9.31212
▁نيٽ	-9.31263
▁سام	-9.3132
▁ڻي	-9.31325
▁بير	-9.31428
▁ic	-9.31442
▁شڪل	-9.31545
▁ايندي	-9.31575
▁باب	-9.31644
▁اڳيان	-9.31685
▁دفعو	-9.31774
▁ٿيندڙ	-9.31978
▁ليڪ	-9.32042
▁وبائل	-9.32074
▁جوڙ	-9.32145
▁مالي	-9.32183
▁زمان	-9.32281
▁#	-9.32284
▁لاش	-9.32453
▁ليٽ	-9.32461
▁ثابت	-9.32477
▁مڃ	-9.32528
▁محدود	-9.32578
يف	-9.32588
▁رف	-9.3266
▁قوامي	-9.3278
▁شام	-9.32786
▁رهندو	-9.32792
▁co	-9.32813
▁يئر	-9.32878
▁بڻائي	-9.32928
▁ڏين	-9.32966
▁ٺاه	-9.32995
▁ندر	-9.32996
▁راز	-9.33006
▁ٿورو	-9.33337
▁صف	-9.3335
▁يقيني	-9.3338
▁ايترو	-9.33393
▁لکيو	-9.33431
▁يلي	-9.34077
▁الي	-9.34106
▁ڳولي	-9.34333
▁ڪرڻو	-9.34404
▁منظر	-9.34412
▁حساب	-9.34431
▁قديم	-9.34649
▁هست	-9.34663
▁ڪين	-9.34703
▁پيءُ	-9.34721
▁مخصوص	-9.34824
▁رخ	-9.34834
▁عيس	-9.34873
▁اخت	-9.34993
▁ريل	-9.35098
▁بيت	-9.35099
▁ڇپ	-9.35105
اط	-9.35197
▁فل	-9.35218
▁سگهان	-9.3524
▁کن	-9.35252
▁نين	-9.35587
▁اڳواڻ	-9.35758
▁حتى	-9.3576
▁مخالف	-9.35862
▁+	-9.36106
▁سگهيو	-9.3611
▁R	-9.36127
▁عل	-9.36167
▁لکي	-9.36234
▁يع	-9.3633
▁زن	-9.36375
▁امن	-9.36426
▁خوشي	-9.36453
▁ڪندڙن	-9.36577
▁ميدان	-9.36601
▁يده	-9.3664
▁چوي	-9.36653
▁ريف	-9.36788
▁ٺيڪ	-9.36812
▁اهڙا	-9.36911
▁فهم	-9.37045
▁ابندي	-9.37127
▁قرار	-9.37145
▁رسي	-9.3715
▁11	-9.3722
▁گير	-9.37474
▁گفت	-9.37553
▁مياب	-9.37571
▁جهڙوڪ	-9.37623
▁قابلي	-9.37807
▁هدايت	-9.37971
▁تم	-9.37972
▁يٽر	-9.38031
▁سياست	-9.38086
▁بابا	-9.38128
▁de	-9.38204
▁سڄ	-9.38247
▁وج	-9.38286
▁بغ	-9.38439
▁روپ	-9.38519
▁رين	-9.38745
▁هڪڙو	-9.38749
▁چڪا	-9.38838
▁نقلاب	-9.38844
▁عرصي	-9.38847
▁?	-9.38871
▁مدا	-9.38904
▁سلسل	-9.38952
▁گيري	-9.3901
▁ڌرتي	-9.39045
▁الدين	-9.39055
▁طب	-9.39056
▁عيد	-9.3938
▁سگھو	-9.39443
▁آل	-9.39495
▁حالتن	-9.39504
▁تعارف	-9.39582
▁يسي	-9.39596
▁ساڻ	-9.39664
▁سمنڊ	-9.39731
▁ائن	-9.39785
▁زم	-9.39996
▁li	-9.40091
▁اءِ	-9.40127
▁گذر	-9.40257
▁ملائ	-9.4035
▁گهڻا	-9.40673
▁ڳنڍ	-9.40677
▁نيوز	-9.40698
▁اضافي	-9.4078
▁اگردن	-9.41111
▁نڪري	-9.41255
▁مَ	-9.41315
▁ملڻ	-9.41386
▁مها	-9.41432
▁لاقات	-9.41551
▁نٿي	-9.41723
▁ڳولا	-9.41846
▁mi	-9.4197
▁۱	-9.42024
▁ٺا	-9.42046
▁شڪ	-9.42168
▁ارن	-9.42395
▁مختصر	-9.42437
▁توقع	-9.42439
▁مص	-9.42443
▁لفظن	-9.42574
▁اوجود	-9.42661
▁ورس	-9.42698
▁جڳهه	-9.4271
▁سوچيو	-9.42789
▁هوا	-9.42836
▁يوم	-9.42944
▁فهرست	-9.43109
▁ڏاڍي	-9.43219
▁سَ	-9.43264
▁راح	-9.43364
جه	-9.43424
▁ڪنھن	-9.4345
▁مالڪ	-9.43451
▁سب	-9.43511
▁نيشنل	-9.43559
▁ٻڌڻ	-9.4356
▁زماني	-9.43573
▁خواهش	-9.43603
▁ماري	-9.43663
▁آهين	-9.43681
▁واڌ	-9.43815
▁ڪلاڪ	-9.439
▁ويجهو	-9.4423
▁عاد	-9.44232
▁ma	-9.44381
▁اچ	-9.44454
▁ڪُ	-9.44555
▁N	-9.44578
▁ڏنا	-9.44602
ڄ	-9.44714
▁se	-9.44717
▁ٽرانس	-9.44806
▁18	-9.44911
▁فائدو	-9.4492
▁اءُ	-9.45035
▁شعر	-9.45046
▁پار	-9.45136
▁ha	-9.45167
▁منتقل	-9.45263
▁هوس	-9.4533
▁مرحل	-9.45335
▁هچ	-9.45481
▁وڌائڻ	-9.45546
▁روڊ	-9.45568
ll	-9.45584
▁مشڪل	-9.4561
▁هڙ	-9.45698
▁اخبار	-9.45728
▁شوف	-9.45819
▁شوق	-9.45964
▁سلم	-9.46036
▁ڪام	-9.4624
▁ثقافت	-9.46299
▁ريٽ	-9.46363
▁شاه	-9.46365
▁اور	-9.46427
▁خلاص	-9.46532
▁چڪي	-9.46648
▁روئ	-9.46649
▁سگھ	-9.46675
▁لنڪ	-9.46682
▁لهي	-9.46729
▁اندين	-9.46805
▁جهڙي	-9.46926
▁ملين	-9.46928
▁سواء	-9.46942
▁فڪر	-9.46989
▁ٽڪر	-9.47016
▁زر	-9.47071
ې	-9.47113
▁ڀلي	-9.47196
▁kno	-9.4723
▁سهولت	-9.4723
▁پريشن	-9.47387
▁جڏھن	-9.47464
▁b	-9.4753
▁يدار	-9.47634
▁me	-9.47641
▁يلا	-9.47663
▁تخليق	-9.47699
▁برا	-9.47806
▁ورن	-9.47879
▁ڊيز	-9.47954
▁گذري	-9.48056
▁ماني	-9.48068
▁سار	-9.48206
▁بدل	-9.48306
▁مار	-9.48308
▁عتماد	-9.48406
▁اااا	-9.48419
▁مهينن	-9.48643
▁منزل	-9.48767
▁رستي	-9.48807
▁تحت	-9.48818
▁سماني	-9.48884
▁توانا	-9.48889
▁ننڍڙ	-9.48926
▁Co	-9.4905
▁وڪي	-9.49174
▁z	-9.49211
▁وغيره	-9.49237
▁رڪارڊ	-9.49238
▁ڪيم	-9.49288
▁وڏا	-9.49297
▁رجسٽ	-9.49327
▁مھ	-9.49358
▁سوي	-9.49406
▁ti	-9.49424
▁ويز	-9.49454
▁ْ	-9.49493
▁ديد	-9.49515
▁انچ	-9.49571
▁بھ	-9.4964
▁نون	-9.49779
▁انور	-9.49782
▁ويون	-9.49842
▁عين	-9.49892
▁غور	-9.49896
▁امهون	-9.49957
▁بلڪ	-9.4999
▁تف	-9.50003
يشڪ	-9.5002
▁ٻڌائ	-9.50035
▁چيزي	-9.50049
▁سڀئي	-9.50054
▁فت	-9.50091
▁ورٽ	-9.50108
▁اکيون	-9.50117
▁nd	-9.5019
▁سپتال	-9.50196
▁نقش	-9.50215
▁ائو	-9.50281
▁مسلسل	-9.50316
▁گاڏي	-9.50319
▁ٻڌائي	-9.50425
▁لکيل	-9.50521
▁بجلي	-9.50564
te	-9.50588
▁J	-9.50599
▁~	-9.50615
▁أن	-9.50655
▁ليکڪ	-9.5066
▁يراني	-9.50727
▁شكل	-9.5079
▁اهميت	-9.50836
▁هئڻ	-9.50906
▁مپ	-9.5093
▁مره	-9.50969
▁رکو	-9.51003
▁مڙس	-9.5107
▁مگر	-9.51084
▁ويس	-9.51198
▁50	-9.51265
▁حسن	-9.51288
▁ايتري	-9.513
پو	-9.51329
▁ايج	-9.51336
▁رقرار	-9.51407
▁لحاظ	-9.51408
▁مقامي	-9.51614
▁قرآن	-9.51652
▁ولو	-9.51679
▁ڇڪ	-9.51725
▁عشق	-9.52145
▁طبق	-9.52265
▁ارفين	-9.52265
▁يسٽ	-9.52375
▁ننڊ	-9.52502
▁لائين	-9.52602
▁حيرت	-9.52635
▁داشت	-9.52666
▁کٽ	-9.52666
▁وڃو	-9.52701
▁لين	-9.52741
▁ارٽ	-9.52827
▁جت	-9.52861
▁موقعو	-9.52867
▁هيه	-9.5288
▁نتظام	-9.52881
▁اعليٰ	-9.52883
।	-9.53004
▁فكر	-9.53093
ژ	-9.53127
▁انڊ	-9.53154
▁هيءُ	-9.53253
▁فصل	-9.53384
▁وسار	-9.53482
▁رٽيڪل	-9.53501
▁عنصر	-9.53502
▁آڻڻ	-9.5351
▁اچو	-9.53538
▁وقف	-9.53578
▁وجه	-9.53646
▁ناڪام	-9.5365
▁نسي	-9.53653
دست	-9.53659
▁لن	-9.53666
▁sh	-9.53694
▁پول	-9.53764
▁قرض	-9.53813
▁لح	-9.53829
▁فائل	-9.53894
▁ائل	-9.53903
▁بز	-9.53914
▁ڏيندا	-9.53915
▁دعو	-9.53942
▁ll	-9.54002
▁هيا	-9.54026
اندا	-9.54074
▁عند	-9.54101
▁اڻڻ	-9.54107
▁جهڙو	-9.5416
▁ايڇ	-9.54174
▁nt	-9.54194
▁سميت	-9.54255
قاب	-9.54268
▁14	-9.54311
ابط	-9.54444
▁پوئتي	-9.54502
▁ڇڏ	-9.54653
▁گري	-9.5474
▁وائرس	-9.54758
▁tex	-9.54772
▁يڪس	-9.54807
▁نڊي	-9.54874
پي	-9.54895
ته	-9.54903
▁هلند	-9.54925
▁di	-9.54929
▁ڪاري	-9.54941
▁ٺاهيو	-9.54973
▁نقط	-9.55013
▁وفا	-9.55021
▁ريڊ	-9.55092
▁شڪر	-9.55165
le	-9.55239
▁نہ	-9.55328
▁رهن	-9.55362
▁مصنو	-9.55518
▁ڪنڊ	-9.5567
ar	-9.55697
▁شوي	-9.56005
▁مجهيو	-9.56022
▁مسئل	-9.56085
▁ڪڙ	-9.56122
▁ڏکڻ	-9.56131
▁عجيب	-9.56151
▁Ne	-9.5623
▁متحان	-9.56278
▁شايع	-9.56278
▁بغير	-9.56314
ڪار	-9.564
▁نيڪ	-9.56401
▁en	-9.56426
▁اً	-9.56472
▁اڃان	-9.56567
▁حوال	-9.56578
▁يره	-9.56636
▁ڏينھن	-9.56663
▁ريا	-9.56729
▁مسئلن	-9.56817
▁اجلاس	-9.56926
ڱ	-9.57075
▁ائڻ	-9.57103
▁نسٽال	-9.57309
▁رکند	-9.57352
▁درست	-9.57386
▁ذات	-9.57402
▁وٽي	-9.57451
▁طلع	-9.5757
▁قد	-9.57602
▁٪	-9.57676
▁منظور	-9.57695
▁روس	-9.57702
▁اڙ	-9.57716
▁نار	-9.5786
▁ميمبر	-9.57957
▁X	-9.57983
▁اڻو	-9.57995
▁اهيان	-9.58003
▁يورپي	-9.58042
▁آساني	-9.58124
▁ar	-9.58302
▁ڳولڻ	-9.58305
F	-9.58359
▁ايمان	-9.58384
▁صل	-9.58396
lo	-9.58401
▁ڏٺ	-9.58469
▁تحفظ	-9.58477
▁امان	-9.58487
▁چيني	-9.58613
▁نِ	-9.58708
▁بئنڪ	-9.58741
▁ڪَ	-9.58984
▁رهند	-9.59274
▁وحد	-9.59293
▁تس	-9.59326
▁براي	-9.5933
▁يرا	-9.59337
▁سماج	-9.59338
▁الڳ	-9.59371
▁مقدار	-9.59398
▁وانا	-9.59471
▁جذب	-9.59498
▁چور	-9.59645
▁خالي	-9.59694
▁ٽيسٽ	-9.59772
▁ڀارت	-9.59798
▁طلب	-9.59798
▁معا	-9.59815
▁هفت	-9.60043
▁ناز	-9.60211
▁And	-9.60214
▁ورتي	-9.60231
▁قدرتي	-9.60291
▁رڪن	-9.60424
▁خرڪار	-9.60459
▁پراڻي	-9.60606
▁ادارن	-9.6061
▁پهر	-9.60678
رواز	-9.60693
ضي	-9.60708
U	-9.60744
طر	-9.60771
▁دشمن	-9.60859
٪	-9.60879
▁هوٽل	-9.60898
▁25	-9.60947
▁مهم	-9.60973
▁عوامي	-9.60995
▁پوندي	-9.60997
▁ڌر	-9.61067
▁شخصيت	-9.6107
▁ڪندس	-9.61139
▁ڏيندي	-9.61308
▁ائسنس	-9.61397
▁حڪمت	-9.61405
▁ly	-9.61423
▁قسمن	-9.61433
▁بندي	-9.61516
▁عبدا	-9.61535
▁ٿڌ	-9.61639
▁اظهار	-9.61666
▁ادري	-9.61668
▁ماڻھو	-9.61755
▁هجن	-9.61761
▁صور	-9.61835
▁جاچ	-9.61915
▁مول	-9.61925
▁فار	-9.61989
▁وهه	-9.62049
▁طيب	-9.62081
▁اث	-9.62082
▁ra	-9.6216
▁اڇ	-9.62194
▁ٿين	-9.62208
▁رابطو	-9.6229
▁وسيع	-9.623
▁سعودي	-9.62344
▁زير	-9.62375
وت	-9.62396
▁چپ	-9.62442
▁مذهب	-9.62451
▁شعور	-9.62618
▁سڌو	-9.62628
▁ڪسٽم	-9.62891
گر	-9.62952
▁تجرب	-9.63033
▁ساڳيو	-9.63089
▁گاه	-9.63134
▁ترجم	-9.6319
▁اچن	-9.63215
▁عياري	-9.63302
▁لڳند	-9.63374
▁سڏيو	-9.63376
▁شت	-9.63494
لف	-9.63495
▁اخر	-9.63507
▁حلوه	-9.63527
▁رام	-9.63554
▁ننڍي	-9.6368
▁شما	-9.6371
▁vi	-9.63732
▁100	-9.63757
▁يات	-9.63824
▁شاگرد	-9.63851
▁on	-9.63985
▁مهيني	-9.63991
H	-9.64014
▁گرد	-9.64068
▁ويڊيو	-9.64128
▁اتر	-9.64151
كس	-9.64251
▁ئب	-9.64279
▁مذهبي	-9.64296
اش	-9.64332
▁ڏيار	-9.6437
▁انجام	-9.6441
▁انصاف	-9.64544
▁نب	-9.64598
▁نم	-9.64666
▁لام	-9.64669
▁خيلي	-9.64717
▁يها	-9.64806
▁ايون	-9.64812
▁ساڳئي	-9.64822
▁آسمان	-9.64822
▁شاهه	-9.64875
▁شم	-9.64929
▁اسپين	-9.64977
ne	-9.64981
z	-9.65243
▁اتو	-9.6527
▁ca	-9.65285
▁گھرجي	-9.6534
▁خاموش	-9.65381
▁اذا	-9.65442
▁In	-9.65611
▁ڊجيٽل	-9.65661
▁ٽرين	-9.6568
▁فق	-9.65698
▁رسم	-9.65738
▁دڪان	-9.65811
▁حصن	-9.65952
▁چنڊ	-9.65966
▁سير	-9.65986
▁كن	-9.65997
▁مارچ	-9.6604
▁گڏجي	-9.66109
▁پويان	-9.66152
▁or	-9.66226
▁جموعي	-9.66226
▁سٽيشن	-9.66226
▁روسيس	-9.66251
▁^	-9.66276
▁com	-9.66285
▁حتجاج	-9.66366
▁ايئن	-9.66432
▁ٿر	-9.6655
▁ڪپڙ	-9.6676
▁ممكن	-9.66792
ٹ	-9.66828
▁معاش	-9.66839
▁منظم	-9.66935
▁رش	-9.66963
▁na	-9.67048
▁کار	-9.67067
▁راس	-9.67076
▁لس	-9.67099
▁ريشن	-9.67107
▁لباس	-9.67108
▁ڪيترو	-9.67138
▁انس	-9.6718
▁عمارت	-9.6722
▁فطرت	-9.6722
▁دخل	-9.67223
▁امر	-9.67308
▁ڪورٽ	-9.67378
▁هند	-9.67397
إ	-9.674
▁سياحت	-9.67411
▁راضي	-9.67451
▁ٿوري	-9.67493
▁جنم	-9.6754
▁ٺه	-9.67563
▁ڊپ	-9.67622
▁ڀل	-9.67786
▁تحريڪ	-9.67793
▁اڪيلو	-9.67795
▁ni	-9.67818
▁ورڊ	-9.67821
▁نما	-9.67852
▁نمائ	-9.67871
▁ڪٽوبر	-9.67936
▁اط	-9.68053
▁سگ	-9.6806
▁اشارو	-9.68173
▁مهوري	-9.68271
▁تش	-9.68406
▁ايد	-9.68462
▁لال	-9.68467
▁آس	-9.6847
▁دستا	-9.68515
▁هار	-9.68521
▁wa	-9.68548
▁عمولي	-9.68658
ئڻ	-9.68718
▁صدق	-9.68805
▁لوڪ	-9.68811
▁وات	-9.68812
li	-9.68819
▁چيڪ	-9.68825
▁ويهي	-9.68894
▁سزا	-9.68921
▁برانڊ	-9.68979
▁طابقت	-9.69093
▁معنيٰ	-9.69094
▁معني	-9.69117
▁ڪلو	-9.69211
▁13	-9.69215
▁چيز	-9.69255
▁جنسي	-9.69299
▁mo	-9.69324
▁ويند	-9.69331
▁ادبي	-9.69378
▁نماز	-9.69379
▁ٽيڪس	-9.69409
▁باغ	-9.69446
▁بدران	-9.69534
▁جميل	-9.69546
▁پٿر	-9.6955
▁h	-9.69562
▁فقير	-9.69563
▁عقل	-9.69692
▁ڄاڻي	-9.69708
▁ايندا	-9.69807
▁تعريف	-9.69823
▁آهنگ	-9.69887
▁حرف	-9.69921
▁فوت	-9.69933
▁اكل	-9.69942
▁سوچي	-9.7002
▁موٽر	-9.70051
▁هُو	-9.70059
▁ائپ	-9.70085
▁be	-9.70115
▁يڪل	-9.70123
▁طريقا	-9.70238
▁تجزيو	-9.70284
▁پشن	-9.70289
▁ينل	-9.70299
▁ميان	-9.70492
▁چڱو	-9.70547
▁pa	-9.70593
▁16	-9.70738
▁تار	-9.70756
▁نءَ	-9.70855
▁سيڙپ	-9.70855
▁j	-9.70862
▁سول	-9.70913
▁گهربل	-9.70962
▁کليل	-9.70969
▁ڪرائي	-9.71001
▁كنت	-9.71035
▁pp	-9.7108
▁وڙه	-9.71214
▁تعال	-9.71222
▁پٽمبر	-9.71299
an	-9.71432
▁سيريز	-9.71466
▁>>	-9.7147
شو	-9.71596
▁مئي	-9.71598
▁ئر	-9.71639
▁بحال	-9.7168
▁گراهڪ	-9.71746
▁ذر	-9.71747
▁نواز	-9.71756
▁عزيز	-9.71768
حب	-9.7179
▁زار	-9.7182
▁نشاني	-9.71834
▁محن	-9.71897
▁آدم	-9.7192
يٺ	-9.71958
▁ماپ	-9.7197
▁يمبلي	-9.72047
▁سمارٽ	-9.72195
▁ريڪ	-9.72204
▁گول	-9.72224
▁گيت	-9.72293
▁اصلا	-9.72299
▁ڪال	-9.72309
me	-9.7233
▁كتب	-9.7251
▁دف	-9.72556
▁the	-9.72567
▁ھئي	-9.72617
▁عنوان	-9.72648
▁ھاڻي	-9.72651
▁<<	-9.72662
▁es	-9.72775
▁گذاري	-9.72797
▁تبادل	-9.72797
▁هتا	-9.72828
▁ڪڍي	-9.72875
▁is	-9.72889
▁وسيقي	-9.72949
▁تنھن	-9.73175
▁يڙ	-9.73208
▁ڪاليج	-9.73254
▁ملازم	-9.73402
▁tion	-9.73409
▁لنگ	-9.73588
▁جائزو	-9.73624
▁اعت	-9.73658
▁خخخ	-9.73707
▁lo	-9.73712
▁سفارش	-9.74012
▁حيران	-9.74012
▁موٽي	-9.74032
in	-9.74112
▁طريقن	-9.74117
▁ڊيم	-9.74124
▁نوان	-9.74168
▁ادر	-9.74262
▁مور	-9.74294
▁فوٽو	-9.74324
▁پئسا	-9.74327
▁مذ	-9.74355
▁پاڙ	-9.74433
▁ڏانھن	-9.74471
▁ڃ	-9.74506
▁ايش	-9.74525
▁جاڳ	-9.74553
وش	-9.74573
▁انعام	-9.74629
▁ٽيلي	-9.74637
▁ورها	-9.74673
▁شمار	-9.74732
▁اتفاق	-9.74779
▁جنرل	-9.74792
▁جيترو	-9.74849
▁يورو	-9.74883
▁ائيڪل	-9.74939
▁بونس	-9.74988
▁لاس	-9.75049
▁اون	-9.75083
▁زخمي	-9.75089
▁فوري	-9.7509
▁جمل	-9.75165
▁24	-9.75222
▁ڪرائڻ	-9.75244
▁وڃائ	-9.75259
▁يهي	-9.75295
▁ارڻ	-9.75482
▁ڀڳ	-9.7549
ڌر	-9.75538
▁شهيد	-9.75589
▁ووو	-9.75613
▁آبادي	-9.75739
▁حبيب	-9.75746
▁پرس	-9.75806
▁واپسي	-9.75852
▁ce	-9.75853
▁مشتمل	-9.75862
▁يٽنگ	-9.75864
▁هور	-9.75934
▁ڪلاس	-9.75939
▁ڪتابن	-9.75946
▁سپ	-9.76041
▁حاج	-9.76046
▁ta	-9.76077
▁قال	-9.76094
▁@	-9.76183
▁رك	-9.76295
▁ارسال	-9.76332
▁ترجمو	-9.76458
▁شهري	-9.76533
▁چوندا	-9.7654
▁فرد	-9.76621
▁قيام	-9.76652
▁لعب	-9.76662
▁اليسي	-9.76717
▁ڪانه	-9.76733
▁کاڌ	-9.76752
▁جنيئر	-9.76803
▁امڪان	-9.76804
▁ميز	-9.76912
▁روشن	-9.76944
▁نيست	-9.77019
▁ڄا	-9.77092
▁انڪار	-9.77108
▁ايان	-9.77201
▁پيٽ	-9.77225
▁لله	-9.77241
▁۔۔۔	-9.77273
▁ٽائ	-9.7728
▁الص	-9.77297
on	-9.77334
▁ئٽ	-9.77423
▁ڏيئي	-9.77432
▁خاطر	-9.77433
▁دورو	-9.77463
▁وطن	-9.77492
سخ	-9.77553
▁هع	-9.77676
▁رکندڙ	-9.77691
▁ڀيرا	-9.77723
▁يڊيا	-9.77743
▁چارج	-9.77754
▁عليها	-9.77813
▁آگسٽ	-9.77907
▁آرڊر	-9.77907
▁si	-9.77907
▁ٽيبل	-9.77998
▁ساٿ	-9.78045
▁ثاني	-9.7823
▁يول	-9.78269
▁تربيت	-9.78385
▁لع	-9.78411
▁ئيگي	-9.78425
▁سوچڻ	-9.78531
▁ورد	-9.78584
▁ارا	-9.78616
▁ئس	-9.78621
▁بگ	-9.78684
▁اضافو	-9.78704
▁هچائڻ	-9.78704
▁راءِ	-9.78704
▁آفيسر	-9.78729
▁ٻڌو	-9.78762
▁ستي	-9.78772
▁کڻڻ	-9.78869
▁سلامت	-9.78947
▁ss	-9.78987
▁ne	-9.79134
▁وزيشن	-9.79186
▁واقف	-9.79189
▁اڙي	-9.79191
▁ڪِ	-9.79274
▁راد	-9.79275
▁ڪچ	-9.79292
▁دون	-9.79299
▁قيد	-9.79325
▁يونٽ	-9.7933
▁ملڪيت	-9.79413
ينئر	-9.7944
▁ليا	-9.79478
▁ation	-9.79507
▁دائين	-9.79515
▁تني	-9.79659
▁17	-9.79713
▁ايشيا	-9.79718
▁ڪپ	-9.79746
▁كلام	-9.79855
▁كيف	-9.79969
▁پرست	-9.79974
▁ونڊوز	-9.79994
▁سڃاڻپ	-9.80091
▁الف	-9.80137
عد	-9.80165
▁اسم	-9.80185
▁سڃاڻ	-9.8022
▁ٽيون	-9.80339
▁no	-9.80389
▁فرض	-9.80472
▁وصول	-9.80485
▁سمجهڻ	-9.80567
▁ڀريل	-9.80703
▁يڪٽر	-9.80761
▁حمايت	-9.80808
▁فتح	-9.80811
▁ڀلا	-9.80838
▁صفحا	-9.80894
▁يمكن	-9.80979
▁يٺل	-9.81007
▁وهي	-9.81039
▁دليل	-9.81061
▁رحم	-9.81186
▁ليگ	-9.81196
▁مزو	-9.81427
▁سبق	-9.81487
▁دريا	-9.81607
▁an	-9.81621
▁رائيڊ	-9.81631
▁ٽڪ	-9.81634
▁امين	-9.81634
▁عهد	-9.8166
▁هلا	-9.81706
▁؟؟	-9.81736
▁ect	-9.81793
▁مڇي	-9.81831
ڈ	-9.81959
▁آآ	-9.82015
▁رهندا	-9.82034
▁اره	-9.82081
▁ٽين	-9.82131
▁زنده	-9.82137
▁رائيو	-9.82146
▁mp	-9.8219
▁Pa	-9.82238
▁وڊ	-9.82273
▁جنس	-9.82273
▁ؤ	-9.82288
▁ريح	-9.82334
▁ba	-9.82354
▁ترڪي	-9.82372
▁رابطي	-9.82385
▁نكت	-9.82393
▁ابي	-9.8243
▁نگن	-9.82447
▁اداري	-9.82466
▁سگھجي	-9.82497
▁ريد	-9.8265
▁شب	-9.82658
▁ساٿي	-9.82799
▁جنوري	-9.82801
▁po	-9.82859
▁وسيل	-9.82879
▁گزارش	-9.83009
▁ذا	-9.8311
▁وڪليو	-9.83123
▁يورٽي	-9.83134
▁شده	-9.83143
▁جاء	-9.83359
▁رسال	-9.83386
▁پُ	-9.83411
▁احمد	-9.83461
▁رآمد	-9.83627
▁نومبر	-9.83628
▁مسئلا	-9.83691
سپ	-9.83698
▁طريق	-9.8376
▁ممم	-9.83761
▁تجويز	-9.83795
▁مکيه	-9.83811
▁تعرف	-9.83965
▁بط	-9.84007
▁ليب	-9.84024
▁ائلون	-9.84068
▁رسيد	-9.84168
▁بئي	-9.84171
▁نبي	-9.84207
▁اپڊيٽ	-9.84302
▁ماضي	-9.84341
▁پَ	-9.84445
▁ئج	-9.84541
▁عندي	-9.84624
▁شتهار	-9.84642
▁تاج	-9.8466
▁لسٽ	-9.84665
▁خوا	-9.84767
▁هلائڻ	-9.84819
▁موقعي	-9.84842
▁پوک	-9.84872
▁40	-9.84951
▁يڪر	-9.85071
▁هليو	-9.85152
ړ	-9.85152
▁حادث	-9.85152
▁ion	-9.85182
▁جلس	-9.8524
▁ساز	-9.85259
▁ڪاس	-9.85553
▁وائي	-9.85578
▁هنگ	-9.8558
▁گھڻو	-9.85604
▁رسول	-9.8563
▁طلاق	-9.85667
▁لنڊن	-9.85673
▁ٻڌل	-9.85715
▁جهان	-9.85764
يڙه	-9.85776
▁وير	-9.85873
▁ولڊ	-9.85974
▁هوائي	-9.86084
▁ربي	-9.86099
V	-9.86106
▁سنڏ	-9.86125
▁ڇوڪر	-9.86157
▁we	-9.86188
▁يلو	-9.86191
▁هئس	-9.86205
▁وارڊ	-9.86265
▁وره	-9.86279
▁صار	-9.86328
▁ريان	-9.86394
▁الزام	-9.86531
▁قوت	-9.86551
▁k	-9.86588
▁قتصاد	-9.86701
▁لانچ	-9.86717
▁ناول	-9.86763
▁حالا	-9.86801
▁سازي	-9.86814
▁نڪر	-9.86826
▁مجبور	-9.86875
▁حس	-9.86903
▁خون	-9.86949
▁la	-9.87041
▁دهشت	-9.8708
▁دوز	-9.87107
سرائ	-9.87185
▁ڊزائن	-9.87223
▁كثر	-9.87226
▁رٿ	-9.87317
؛	-9.87323
▁أنا	-9.87372
▁ناهن	-9.87381
▁حاضر	-9.87397
▁کوٽ	-9.87401
▁ليڪٽر	-9.87446
▁رهو	-9.87485
▁ڀاءُ	-9.87572
▁ڪميشن	-9.8758
▁زمر	-9.87597
▁شتي	-9.87608
▁هيٺين	-9.87653
▁مردن	-9.87699
پريٽ	-9.87702
▁زارين	-9.8783
▁ذريع	-9.87864
▁l	-9.8788
▁ڱ	-9.87892
▁ارد	-9.88032
▁ينس	-9.88045
▁پرائ	-9.88069
▁نان	-9.88128
▁بتد	-9.88151
▁اوڀر	-9.88169
▁Re	-9.88179
▁وائنٽ	-9.88276
▁پارڪ	-9.88317
▁ڄم	-9.8842
▁سينٽر	-9.88437
▁پناه	-9.88474
▁تازو	-9.88595
▁سرور	-9.88655
▁اما	-9.88661
▁گز	-9.88743
▁هوء	-9.88759
▁مهور	-9.88797
▁ڪانهي	-9.88841
▁عطي	-9.88852
▁يچر	-9.89004
▁نيم	-9.8905
▁نمون	-9.89074
▁fi	-9.89166
▁ٌ	-9.89206
▁19	-9.89269
▁ويجه	-9.89283
▁يهم	-9.89322
▁الحال	-9.89343
▁تاب	-9.89386
ڙهند	-9.89463
▁عنى	-9.89495
si	-9.89502
▁ٽنگ	-9.89627
▁ٻان	-9.89637
▁نگران	-9.89709
ta	-9.89725
▁عربي	-9.89824
وق	-9.89834
▁وفات	-9.89834
_	-9.89983
▁ڳڻ	-9.90019
▁ستر	-9.90046
▁ڪمزور	-9.90055
▁بہ	-9.90099
▁سکڻ	-9.90139
▁راڊڪٽ	-9.90232
▁قطع	-9.90233
▁مني	-9.90365
▁ساري	-9.90377
▁وان	-9.90381
▁تعاون	-9.90413
▁نظم	-9.90422
ڀر	-9.90621
▁bo	-9.90631
▁موقع	-9.90762
▁ضحكت	-9.90802
▁اتحاد	-9.90954
▁يمبرن	-9.90955
▁ڪرايو	-9.90959
▁ويٺو	-9.90962
▁سائيز	-9.90964
▁نسان	-9.90988
▁هندو	-9.91104
▁ڊسمبر	-9.91135
▁وفاقي	-9.91136
▁مرڪ	-9.91182
▁پٺيان	-9.91321
▁ڪانگ	-9.9135
ڙھ	-9.91401
▁قابلو	-9.91479
▁گڏوگڏ	-9.91498
▁ياس	-9.91557
▁ڏکيو	-9.91596
ں	-9.9168
▁زاحمت	-9.9168
▁يڏو	-9.91742
هرين	-9.91807
▁ميگ	-9.91904
▁وائس	-9.91932
▁نقل	-9.91935
▁پيروي	-9.91985
▁ٻيون	-9.92021
▁ردو	-9.92031
▁نتظر	-9.92045
▁باهه	-9.92092
▁ئنات	-9.92121
▁ڳوڙ	-9.92137
▁بقى	-9.92235
▁هوش	-9.92243
▁ينٽ	-9.92275
▁ڳاڙ	-9.92279
▁گرام	-9.9235
▁بعض	-9.92418
▁صير	-9.92419
▁وهين	-9.925
▁واقعا	-9.927
▁نتيجو	-9.92709
▁مريض	-9.92716
▁اقول	-9.92731
▁پرين	-9.92733
▁رکن	-9.92742
▁رُ	-9.92753
▁نصوبي	-9.92782
▁شرڪت	-9.92782
▁حنا	-9.92819
▁ظا	-9.92907
▁ڀري	-9.92922
▁بول	-9.92953
▁ريڪٽر	-9.93
▁پارٽ	-9.93107
▁وزارت	-9.9315
▁day	-9.93169
▁,,	-9.93202
▁اقت	-9.93247
▁بنت	-9.93257
▁يزا	-9.93297
▁يشه	-9.93332
▁تڪليف	-9.93334
▁تسليم	-9.93335
▁اپريل	-9.93339
▁بردار	-9.9334
▁آيل	-9.93581
▁علامت	-9.93649
▁اُهي	-9.93667
▁پئج	-9.93762
▁Bi	-9.9377
▁سيد	-9.93846
▁هاءِ	-9.93894
▁نگار	-9.93912
▁تجربي	-9.9392
▁عامل	-9.94047
▁رڏيهي	-9.94079
▁مشور	-9.94088
▁كون	-9.9409
▁مدير	-9.94116
▁۲	-9.94128
▁ڪلهه	-9.94179
▁وٺو	-9.94211
▁گار	-9.94215
▁ژ	-9.94267
▁روڪي	-9.94281
▁ڪٿ	-9.94281
▁نرم	-9.94299
▁جذبات	-9.94314
▁نالا	-9.94338
عقيد	-9.94415
▁تقول	-9.94457
▁اٺ	-9.94461
▁احد	-9.94475
▁محل	-9.94497
▁تاز	-9.94545
▁خطر	-9.94606
▁صب	-9.94632
▁بوٽ	-9.94637
K	-9.94956
▁Mi	-9.94965
▁اٿم	-9.9504
▁اقتور	-9.95077
▁مينهن	-9.95098
▁لون	-9.95181
▁توڙي	-9.95205
▁نڪت	-9.95235
▁داڪار	-9.95239
▁ڏسندا	-9.95262
▁نگاه	-9.95264
▁ويد	-9.95339
▁واهه	-9.95393
▁وندا	-9.95533
▁سلسلو	-9.95558
▁ويچار	-9.95585
▁ورونا	-9.95597
▁اڳوڻي	-9.95601
▁وڌو	-9.95606
▁شراب	-9.9568
▁پڙه	-9.95764
▁بچائڻ	-9.95774
▁لطف	-9.95776
▁ووٽ	-9.95968
▁کات	-9.95983
اتم	-9.96015
▁درس	-9.96266
▁شير	-9.96274
▁لازم	-9.96353
▁دك	-9.96355
▁منس	-9.96383
▁شهرن	-9.96443
▁شان	-9.96498
▁چائي	-9.96573
▁وِ	-9.96658
▁ڪنار	-9.96675
▁ارب	-9.96696
▁افت	-9.96898
▁خواهي	-9.96913
▁اطم	-9.9692
▁اسٽيٽ	-9.96934
▁الع	-9.97107
▁امداد	-9.97113
▁دارن	-9.97118
▁يقول	-9.97128
▁😂	-9.97185
▁هندي	-9.97204
▁جرمني	-9.97246
▁چوڌ	-9.97293
▁نفرنس	-9.97305
▁bi	-9.97386
▁ناڪ	-9.97417
▁گفتگو	-9.97499
▁بک	-9.97617
de	-9.97667
▁ودڪار	-9.97694
▁تازه	-9.97708
▁فعل	-9.97718
▁مؤ	-9.97846
▁ينج	-9.9788
▁هذه	-9.979
▁آھيان	-9.9791
▁ڊوڙ	-9.97914
▁گهرجن	-9.9801
▁مثبت	-9.9808
▁ڪاپي	-9.98104
▁رچ	-9.98147
▁جانور	-9.98159
▁سط	-9.98258
▁روايت	-9.98278
▁كه	-9.98326
▁پريس	-9.98336
▁Ca	-9.98434
▁so	-9.98441
▁قلم	-9.9849
وٿ	-9.98515
▁کائي	-9.98526
يدوا	-9.98629
▁مهل	-9.98677
▁نصوبو	-9.98861
▁وڪري	-9.98866
▁رنس	-9.9887
▁نوع	-9.9888
▁آمدني	-9.98898
▁ريو	-9.98913
▁Me	-9.98934
▁پکي	-9.99002
▁اطلاع	-9.99056
▁شيئر	-9.99062
▁بروري	-9.99081
di	-9.99148
▁فٽبال	-9.99252
▁ورلڊ	-9.99255
▁فته	-9.99282
▁خدمتن	-9.99359
▁مصر	-9.99436
▁ماڻھ	-9.99523
▁غم	-9.99673
▁وڄ	-9.99681
▁واني	-9.99736
▁وتي	-9.9982
▁ڪوئي	-9.99851
▁نفرت	-9.99853
▁چمڪ	-9.99872
▁ct	-9.99902
▁su	-9.99955
▁وڪيل	-10.0001
▁جيڪٽ	-10.0003
▁ساهه	-10.0004
▁فخر	-10.0005
▁سؤ	-10.0008
▁سڌي	-10.0008
▁يائون	-10.001
▁دمتون	-10.0024
▁ڊسٽري	-10.0024
▁باس	-10.0027
▁دشاهه	-10.0044
▁بلوچ	-10.0044
▁شكله	-10.0048
▁بيڪ	-10.0048
▁سِ	-10.0049
▁والد	-10.0054
▁ڪوٽ	-10.0066
▁ڀڄ	-10.0071
ُڌ	-10.0076
▁ولهه	-10.0077
W	-10.0079
▁ضع	-10.0083
▁اءَ	-10.0084
▁هيس	-10.0087
▁ڀڃ	-10.0088
▁سپر	-10.0089
▁حم	-10.0097
راح	-10.0103
▁ليڪشن	-10.0107
▁وجهي	-10.0112
▁ٿڪ	-10.0115
▁هلندڙ	-10.0117
▁تص	-10.0117
▁انڌ	-10.0119
▁ers	-10.0124
جھ	-10.0129
▁مِ	-10.0136
▁سٽر	-10.0139
▁چرچ	-10.014
▁لات	-10.0141
▁آمد	-10.0143
▁ديگر	-10.0148
▁منع	-10.0161
▁آءُ	-10.0166
▁قلت	-10.0167
▁اڻن	-10.0172
▁دعوت	-10.0179
▁واه	-10.018
▁صطلاح	-10.0184
▁رداشت	-10.0184
▁يءُ	-10.0184
▁ضلع	-10.0185
▁پئس	-10.0187
▁رضا	-10.0188
ڃ	-10.0189
▁لهه	-10.0199
▁رابط	-10.0203
▁ri	-10.0203
▁ودي	-10.0205
▁فائيل	-10.0206
▁يكون	-10.0209
▁رارت	-10.021
▁ترا	-10.0214
▁اولاد	-10.0219
عترا	-10.0219
▁گهڻن	-10.0225
▁مسيح	-10.0226
▁سته	-10.0228
▁نَ	-10.0233
▁ڙو	-10.0234
▁درجه	-10.0241
▁ڳن	-10.0243
▁گُ	-10.025
▁22	-10.0252
▁21	-10.0265
▁ٽرويو	-10.0265
X	-10.0281
▁ضمانت	-10.0286
▁ردن	-10.0289
ma	-10.0295
▁چيست	-10.0301
▁ڀو	-10.0305
▁وصل	-10.0311
▁ينسر	-10.0319
▁فاد	-10.0319
▁منجه	-10.0326
▁هڪٻئي	-10.0327
▁بيٽري	-10.0328
▁CO	-10.0334
▁اهد	-10.0335
▁علام	-10.0343
▁منفرد	-10.0347
▁هانگ	-10.0357
▁تهيه	-10.0365
▁بازي	-10.0365
▁هفته	-10.0366
ڪيپ	-10.0373
▁بلند	-10.0388
▁XNUMX	-10.0388
▁يزبان	-10.0388
▁يافت	-10.0396
▁ٹ	-10.0403
▁گھڻ	-10.0404
▁پهتو	-10.0408
▁بڻايو	-10.0409
▁پهچڻ	-10.0409
▁گروه	-10.041
▁اٿس	-10.0421
▁ائيڊ	-10.0442
*	-10.0446
▁نمائش	-10.0446
▁غلام	-10.0453
▁حقن	-10.0462
▁ميڪ	-10.0467
▁ٻيڙي	-10.0479
▁ٰ	-10.048
▁گهه	-10.0494
▁متن	-10.0508
▁ld	-10.0508
▁طانيه	-10.0512
▁شتر	-10.0519
▁بحالي	-10.0523
▁حافظ	-10.0533
▁تحليل	-10.0534
▁خب	-10.0534
▁مسجد	-10.0537
▁مزح	-10.0537
▁پاور	-10.0542
▁ائونڊ	-10.0543
▁مافي	-10.0544
▁راهيم	-10.0544
▁ڊڄ	-10.0549
▁ريج	-10.0556
▁آئين	-10.0559
▁ٽائي	-10.0566
▁ڻيو	-10.0574
▁افسوس	-10.0575
▁اڻيءَ	-10.0578
▁بيس	-10.058
▁زاد	-10.059
▁ُون	-10.0591
▁عاملو	-10.0602
▁ex	-10.0603
▁عرفت	-10.0607
▁حلوة	-10.0609
▁يونين	-10.0615
▁عليكم	-10.0615
▁نتخاب	-10.0617
▁&	-10.062
▁کپي	-10.0624
▁صفحي	-10.0627
▁ڪج	-10.0628
▁طبيع	-10.0639
▁سوار	-10.0644
▁وايتي	-10.066
▁يادت	-10.0676
▁عاهدي	-10.0681
▁اوھين	-10.0681
▁مبارڪ	-10.0681
▁رفت	-10.0683
▁دام	-10.0684
▁بدلي	-10.0688
▁طول	-10.0694
▁اكيد	-10.0703
▁يڪٽ	-10.0705
▁گهڙي	-10.0709
▁ter	-10.0718
▁مرمت	-10.0724
▁{	-10.0724
▁دارو	-10.0725
▁پيئڻ	-10.0737
▁جائز	-10.0737
۽	-10.0741
▁ad	-10.0741
مراه	-10.0742
▁جوڙجڪ	-10.0745
▁محبوب	-10.0745
▁لآ	-10.0755
▁ھڙي	-10.0755
▁نگين	-10.0761
▁مدت	-10.0762
▁un	-10.0767
se	-10.077
▁روڪڻ	-10.0781
▁چيه	-10.0785
▁برقي	-10.079
▁ڇڏڻ	-10.079
▁گاهي	-10.0791
▁شور	-10.0795
▁بردست	-10.0803
▁ذريعو	-10.0808
▁رجحان	-10.0809
▁ڦر	-10.0821
▁يافته	-10.0828
▁وحاني	-10.083
▁عشان	-10.0831
▁خلص	-10.0831
▁ردي	-10.0838
▁روڪ	-10.0842
▁اڳيون	-10.0843
▁ياري	-10.0847
▁ولين	-10.0853
▁وڻي	-10.0855
▁وڌائي	-10.0858
▁ارك	-10.0859
▁كس	-10.0868
▁ليو	-10.087
▁اهڙن	-10.0873
▁ندازو	-10.0883
▁لكن	-10.0883
▁رھيو	-10.0883
▁لائيٽ	-10.0896
▁ريلوي	-10.0902
▁ڄاڻا	-10.0906
▁پيئي	-10.0911
▁روسي	-10.0914
▁پيچيد	-10.0917
▁فائدي	-10.0917
▁تڪرار	-10.0939
▁عراق	-10.0939
▁شھر	-10.094
▁شيخ	-10.095
▁يزر	-10.0954
▁نتيجا	-10.0967
▁کاڌو	-10.0968
▁اوت	-10.0972
▁ڙهندڙ	-10.0982
▁sta	-10.0982
▁ڏيان	-10.0983
▁طرز	-10.0983
▁كلم	-10.099
▁ڷ	-10.0998
▁il	-10.1004
▁اپل	-10.1012
▁سرڪار	-10.1016
▁جادو	-10.1022
▁سيڪنڊ	-10.1031
▁ادي	-10.1039
▁ڪپڙا	-10.1043
▁at	-10.1048
▁آهست	-10.1052
▁وڊيوز	-10.1065
▁يڪنگ	-10.1066
▁هڻي	-10.1068
▁مسلم	-10.1071
▁شفا	-10.1078
▁نجم	-10.1079
▁گاهه	-10.1089
▁هارڊ	-10.1103
▁تبا	-10.1109
▁کلي	-10.1127
▁el	-10.1131
▁يمپ	-10.1134
▁ولاءِ	-10.1136
▁ft	-10.1136
▁عندك	-10.1141
جد	-10.1144
▁ڀائ	-10.1145
▁ڇر	-10.1155
▁لطيف	-10.1159
▁دولت	-10.116
▁نعم	-10.1168
▁ديس	-10.1184
▁هلڻ	-10.1187
▁رساله	-10.1188
▁60	-10.1191
▁وڃان	-10.1197
▁ڪهڙا	-10.1203
▁تعجب	-10.1203
▁جهڙا	-10.1203
▁چاھ	-10.1206
▁جنب	-10.121
▁سونهن	-10.1214
رڙ	-10.1217
▁Ho	-10.122
▁تعليق	-10.1226
▁وسي	-10.1226
▁نصيب	-10.1226
▁سنوار	-10.1226
▁ميشه	-10.1228
▁اٻي	-10.123
▁آآآ	-10.1235
lu	-10.1242
▁هيك	-10.1243
▁چان	-10.1248
▁}	-10.1249
▁ڇڙ	-10.1255
▁ائون	-10.1255
▁ٽان	-10.1258
ڪاني	-10.1258
▁Q	-10.126
wa	-10.1261
▁تابع	-10.1265
▁سگھون	-10.1268
▁رهائش	-10.127
▁ُنهن	-10.1271
▁مصروف	-10.1272
▁پرواز	-10.1275
▁سوس	-10.1275
▁سينٽ	-10.1279
▁سکيا	-10.1283
▁ve	-10.1283
▁طين	-10.1287
▁نفي	-10.1288
▁اُه	-10.1289
▁هائوس	-10.1293
▁پنڌ	-10.1297
▁نجھ	-10.1297
▁لائق	-10.1298
▁چم	-10.1299
▁واقعن	-10.1299
ارتي	-10.1301
▁ارلي	-10.1302
▁ٻيٽ	-10.1304
▁جُ	-10.1312
▁گهرج	-10.1319
▁اوچتو	-10.1338
▁قبر	-10.1348
نسٽا	-10.1359
▁qu	-10.1361
▁ڏيندڙ	-10.1361
▁ئونسل	-10.1361
▁ربت	-10.1365
▁do	-10.1367
▁آڇ	-10.1374
▁فريڪا	-10.1384
▁ھئا	-10.1385
▁يارو	-10.1386
▁انڊيا	-10.1393
▁کوليو	-10.1398
▁نڪتو	-10.1403
▁فاصل	-10.1406
▁نيد	-10.1406
▁هدي	-10.1407
▁انگيز	-10.1414
▁يليا	-10.1414
▁جبل	-10.142
▁وفيسر	-10.1429
▁انجڻ	-10.1433
▁آء	-10.145
▁رياضي	-10.1451
ho	-10.1453
▁Z	-10.146
▁يوان	-10.1463
▁سارا	-10.1468
▁لاسٽڪ	-10.1475
▁وزاني	-10.1475
▁ندگي	-10.1476
▁رڙ	-10.1477
▁نوار	-10.1491
▁con	-10.1492
▁ڀائر	-10.1512
▁ڦير	-10.1515
▁دوم	-10.1529
▁شعبي	-10.1539
▁روائي	-10.1542
▁هڙيو	-10.1545
▁پالڻ	-10.1546
▁فورم	-10.1546
▁اياز	-10.1549
▁آندو	-10.1565
▁حسب	-10.1565
▁بررسي	-10.1567
▁ظلم	-10.1568
▁بيٺو	-10.1568
▁ائم	-10.1569
▁كف	-10.1574
▁لٽي	-10.1587
▁(1)	-10.159
▁ڪميٽي	-10.1592
▁بٽڻ	-10.1594
▁sm	-10.1599
قد	-10.1608
▁چيف	-10.1612
▁طالب	-10.1631
▁ٽئي	-10.1636
▁ملندي	-10.1638
▁هٿيار	-10.1638
▁De	-10.164
▁داس	-10.164
▁زهر	-10.1645
▁بازار	-10.1649
▁ااااي	-10.1653
▁استح	-10.1658
▁سپورٽ	-10.166
▁حرڪت	-10.1661
▁ضرب	-10.1661
▁sp	-10.1664
▁هَ	-10.1672
▁لئه	-10.1673
▁رکيل	-10.1674
▁ڌڪ	-10.1674
▁ميوزڪ	-10.1684
▁اڻان	-10.1684
▁قاض	-10.1685
▁کرد	-10.1686
▁هاڙ	-10.1687
▁باز	-10.1697
▁إن	-10.1701
j	-10.1706
▁ڀرسان	-10.1707
▁فيشن	-10.1715
▁ميچ	-10.1725
يکار	-10.1729
▁دفعي	-10.1755
▁يشيا	-10.1757
▁خبرون	-10.176
▁ياسين	-10.1767
▁عذاب	-10.1778
▁رکندو	-10.1782
▁خلي	-10.1783
▁اڙه	-10.1784
▁حملو	-10.1793
▁ائش	-10.1796
▁تقرير	-10.1802
▁ترجيح	-10.1802
▁زيد	-10.1804
▁چوندو	-10.1807
▁عڪس	-10.1823
▁ڪاغذ	-10.1825
يلڊ	-10.1827
▁;	-10.1828
▁علا	-10.183
▁منحصر	-10.1849
▁رئيس	-10.185
▁سڀاڻي	-10.185
▁wi	-10.1852
▁زون	-10.1854
▁pro	-10.1854
▁جرمن	-10.1857
▁اٿئي	-10.1861
▁پاسو	-10.1866
▁دگار	-10.1873
▁نڊو	-10.1878
نصوب	-10.1879
▁وسو	-10.1882
ha	-10.1884
▁لڪا	-10.1887
▁ويٺي	-10.189
▁مقام	-10.189
▁خطرو	-10.1892
▁ويزن	-10.1895
▁فنڪشن	-10.1897
▁نظوري	-10.1897
▁متحد	-10.1897
▁مائٽ	-10.1905
▁ڏڪ	-10.1914
▁شنگ	-10.1919
▁رمايو	-10.1921
▁عرض	-10.1922
▁چينل	-10.1925
▁بيهي	-10.1937
▁وارث	-10.1938
▁لٿ	-10.1945
▁وزانو	-10.1945
▁وڌڻ	-10.1948
▁جنٽ	-10.1952
▁ٽيڪ	-10.1956
▁قدرت	-10.1957
▁لچ	-10.1966
א	-10.2313
/	-10.2566
Y	-10.28
'	-10.3257
ګ	-10.379
۵	-10.4143
ډ	-10.4173
ځ	-10.451
ږ	-10.451
ټ	-10.4604
>	-10.4605
ڵ	-10.502
ڷ	-10.5161
ڑ	-10.5219
]	-10.5295
۹	-10.5421
ۈ	-10.5708
ښ	-10.5839
्	-10.609
°	-10.6163
️	-10.6274
۸	-10.6349
ा	-10.6926
%	-10.698
♥	-10.7045
<	-10.7097
❤	-10.7166
र	-10.7968
Q	-10.8121
ڦ	-10.8439
څ	-10.851
۔	-10.8579
€	-10.8985
×	-10.9034
۶	-10.9536
۷	-10.9639
~	-10.9824
🙂	-10.9956
क	-11.0063
٣	-11.0338
←	-11.0621
ٰ	-11.0637
?	-11.1186
ڼ	-11.1211
→	-11.1272
ٱ	-11.1333
٥	-11.1709
😂	-11.2009
^	-11.2141
Z	-11.2345
ۍ	-11.237
۰	-11.2622
ि	-11.2788
٤	-11.2859
J	-11.2979
ो	-11.3077
+	-11.3199
म	-11.3224
٦	-11.345
►	-11.345
ב	-11.3837
ڛ	-11.3997
٠	-11.4134
é	-11.4159
न	-11.4159
٩	-11.4661
۱	-11.4809
q	-11.501
ڹ	-11.519
۲	-11.5628
ٌ	-11.5723
ۡ	-11.5941
त	-11.5941
ٍ	-11.6314
٨	-11.6441
य	-11.6754
ٖ	-11.686
ّ	-11.6943
ּ	-11.7076
ٔ	-11.7076
ۅ	-11.7186
े	-11.7186
ल	-11.741
♪	-11.741
١	-11.7499
$	-11.7499
ۆ	-11.7523
♡	-11.7523
®	-11.7638
ٴ	-11.7872
ۑ	-11.7872
ღ	-11.8112
◄	-11.8234
٫	-11.8482
©	-11.8609
٧	-11.8867
ۉ	-11.8998
व	-11.8998
😉	-11.8998
•	-11.9107
§	-11.9132
а	-11.9132
🤣	-11.9132
۳	-11.9242
=	-11.9242
ह	-11.9543
۴	-11.9659
ۃ	-11.9684
☺	-11.9827
ڎ	-12.0268
ט	-12.0573
ڸ	-12.0573
ۊ	-12.0729
द	-12.0729
н	-12.1049
😁	-12.1049
è	-12.138
ü	-12.138
ْ	-12.1697
♫	-12.1722
פ	-12.1897
›	-12.1897
ु	-12.2076
â	-12.2258
î	-12.2258
ı	-12.2258
ڤ	-12.2258
ڜ	-12.2443
&	-12.2607
о	-12.2632
ٗ	-12.2632
и	-12.2824
ç	-12.302
İ	-12.302
ٓ	-12.302
à	-12.322
ग	-12.322
ट	-12.322
ۓ	-12.3424
٢	-12.3607
[	-12.3608
💔	-12.3845
😍	-12.3845
★	-12.4063
;	-12.426
ी	-12.4285
р	-12.4512
٬	-12.4512
ş	-12.4745
ؑ	-12.4745
ڶ	-12.4983
ۀ	-12.4983
ێ	-12.4983
ब	-12.4983
с	-12.4983
ڣ	-12.5477
😭	-12.5477
е	-12.5477
ً	-12.5574
כ	-12.5733
ݪ	-12.5733
ज	-12.5733
۾	-12.5971
Ş	-12.5996
ٕ	-12.5996
उ	-12.5996
छ	-12.6266
#	-12.6519
ö	-12.6544
ࢪ	-12.6544
、	-12.6544
á	-12.7124
ڕ	-12.7124
श	-12.7124
॥	-12.7124
Ü	-12.7427
м	-12.774
т	-12.774
ω	-12.774
ू	-12.774
ै	-12.8062
😅	-12.8062
🙁	-12.8062
у	-12.8396
}	-12.8715
ۂ	-12.874
ۧ	-12.874
♦	-12.874
語	-12.874
ン	-12.874
̷	-12.9097
ं	-12.9097
●	-12.9443
д	-12.9468
√	-12.9468
ۄ	-12.9468
ۋ	-12.9468
ל	-12.9852
ۿ	-12.9852
ड	-12.9852
ध	-12.9852
л	-12.9852
؏	-13.0252
٘	-13.0252
‹	-13.0252
@	-13.0644
¤	-13.0669
ˇ	-13.0669
¢	-13.1104
ê	-13.1104
ؿ	-13.1104
ए	-13.1104
【	-13.1104
💞	-13.1104
¬	-13.1558
ë	-13.1558
α	-13.1558
к	-13.1558
٭	-13.1558
✿	-13.1558
】	-13.1558
﴾	-13.1558
﴿	-13.1558
👍	-13.1558
{	-13.201
ā	-13.2035
ٚ	-13.2035
ە	-13.2035
ई	-13.2035
☆	-13.2035
¦	-13.2535
¿	-13.2535
ó	-13.2535
û	-13.2535
μ	-13.2535
ο	-13.2535
в	-13.2535
ٲ	-13.2535
ڝ	-13.2535
‐	-13.2535
⁄	-13.2535
з	-13.3061
ػ	-13.3061
ä	-13.3617
β	-13.3617
ڒ	-13.3617
च	-13.3617
⇄	-13.3617
─	-13.3617
🏻	-13.3617
ñ	-13.4205
х	-13.4205
ա	-13.4205
ण	-13.4205
■	-13.4205
😆	-13.4205
ž	-13.483
ؽ	-13.483
ڠ	-13.483
ࢦ	-13.483
फ	-13.483
。	-13.483
菜	-13.483
👌	-13.483
ы	-13.483
Ø	-13.5496
÷	-13.5496
й	-13.5496
ֿ	-13.5496
ٛ	-13.5496
ڂ	-13.5496
ख	-13.5496
⋆	-13.5496
🔥	-13.5496
😜	-13.5496
б	-13.6211
ۇ	-13.6211
\	-13.6211
ğ	-13.6211
š	-13.6211
̨	-13.6211
г	-13.6211
थ	-13.6211
ृ	-13.6211
🌹	-13.6211
¡	-13.698
í	-13.698
ô	-13.698
̲	-13.698
▌	-13.698
💘	-13.698
✌	-13.698
̃	-13.7813
ե	-13.7813
ݩ	-13.7813
ে	-13.7813
💙	-13.7813
😘	-13.7813
я	-13.8722
і	-13.8722
י	-13.8722
̣	-13.8722
͡	-13.8722
ζ	-13.8722
ι	-13.8722
נ	-13.8722
◕	-13.8722
💕	-13.8722
🙈	-13.8722
Å	-13.9722
ï	-13.9722
č	-13.9722
œ	-13.9722
ξ	-13.9722
Ґ	-13.9722
ۦ	-13.9722
۩	-13.9722
۫	-13.9722
इ	-13.9722
๑	-13.9722
♀	-13.9722
✋	-13.9722
🌸	-13.9722
💗	-13.9722
ː	-14.0833
ρ	-14.0833
Ö	-14.0833
Š	-14.0833
ڨ	-14.0833
ँ	-14.0833
র	-14.0833
া	-14.0833
◊	-14.0833
♠	-14.0833
音	-14.0833
😔	-14.0833
😝	-14.0833
😹	-14.0833
🙏	-14.0833
ম	-14.2083
å	-14.2083
͠	-14.2083
Φ	-14.2083
Ω	-14.2083
ε	-14.2083
ի	-14.2083
ם	-14.2083
מ	-14.2083
ڭ	-14.2083
ۛ	-14.2083
্	-14.2083
๋	-14.2083
♩	-14.2083
」	-14.2083
🌷	-14.2083
σ	-14.2083
ն	-14.2083
ɪ	-14.3512
Ž	-14.3512
̤	-14.3512
η	-14.3512
ς	-14.3512
ш	-14.3512
ո	-14.3512
ս	-14.3512
ր	-14.3512
ע	-14.3512
ۗ	-14.3512
۞	-14.3512
ۤ	-14.3512
ठ	-14.3512
ু	-14.3512
ஐ	-14.3512
ా	-14.3512
น	-14.3512
†	-14.3512
‿	-14.3512
▶	-14.3512
▷	-14.3512
◇	-14.3512
♣	-14.3512
⠀	-14.3512
・	-14.3512
🇩	-14.3512
💜	-14.3512
📷	-14.3512
😎	-14.3512
❀	-14.3512
ч	-14.3512
ו	-14.3512
·	-14.5154
π	-14.5179
ҳ	-14.5179
Á	-14.5179
ý	-14.5179
ć	-14.5179
ō	-14.5179
̶	-14.5179
ד	-14.5179
ؓ	-14.5179
ؼ	-14.5179
ٜ	-14.5179
ٞ	-14.5179
ٟ	-14.5179
ڞ	-14.5179
ܢ	-14.5179
ত	-14.5179
୭	-14.5179
ọ	-14.5179
⇣	-14.5179
⏪	-14.5179
☝	-14.5179
♯	-14.5179
⚡	-14.5179
✯	-14.5179
🏼	-14.5179
🥇	-14.5179
ί	-14.5179
า	-14.5179
¶	-14.7179
ã	-14.7179
ē	-14.7179
ł	-14.7179
ż	-14.7179
ə	-14.7179
̅	-14.7179
̵	-14.7179
ж	-14.7179
э	-14.7179
մ	-14.7179
ւ	-14.7179
ן	-14.7179
ؒ	-14.7179
ٙ	-14.7179
ڋ	-14.7179
ۏ	-14.7179
ެ	-14.7179
झ	-14.7179
న	-14.7179
്	-14.7179
ี	-14.7179
๛	-14.7179
ᬼ	-14.7179
ị	-14.7179
⃣	-14.7179
−	-14.7179
⊙	-14.7179
╝	-14.7179
▪	-14.7179
◉	-14.7179
◎	-14.7179
◦	-14.7179
♍	-14.7179
✘	-14.7179
✦	-14.7179
『	-14.7179
』	-14.7179
🌟	-14.7179
🍼	-14.7179
💚	-14.7179
💪	-14.7179
💯	-14.7179
😱	-14.7179
😻	-14.7179
🦋	-14.7179
ú	-14.7179
ц	-14.7179
າ	-14.7179
ь	-14.9679
ז	-14.9679
Ã	-14.9679
ø	-14.9679
Ğ	-14.9679
Ħ	-14.9679
̐	-14.9679
θ	-14.9679
φ	-14.9679
С	-14.9679
є	-14.9679
հ	-14.9679
ר	-14.9679
ٮ	-14.9679
ۜ	-14.9679
ۣ	-14.9679
۪	-14.9679
ौ	-14.9679
খ	-14.9679
য	-14.9679
ਾ	-14.9679
ં	-14.9679
ం	-14.9679
ම	-14.9679
∫	-14.9679
♂	-14.9679
♬	-14.9679
り	-14.9679
ミ	-14.9679
发	-14.9679
𐄒	-14.9679
🌿	-14.9679
🏾	-14.9679
👉	-14.9679
👩	-14.9679
💫	-14.9679
📚	-14.9679
🔞	-14.9679
😈	-14.9679
😋	-14.9679
😒	-14.9679
😪	-14.9679
😵	-14.9679
🙊	-14.9679
🤍	-14.9679
ม	-14.9679
ę	-14.9679
ʊ	-14.9679
չ	-14.9679
よ	-14.9679
Ł	-15.3012
ɛ	-15.3012
Ă	-15.3012
ą	-15.3012
Đ	-15.3012
ě	-15.3012
ħ	-15.3012
ś	-15.3012
ƒ	-15.3012
ˌ	-15.3012
̀	-15.3012
̯	-15.3012
υ	-15.3012
ό	-15.3012
В	-15.3012
Т	-15.3012
Х	-15.3012
Я	-15.3012
Ҳ	-15.3012
Բ	-15.3012
ש	-15.3012
ڽ	-15.3012
ۙ	-15.3012
ۼ	-15.3012
ݛ	-15.3012
ः	-15.3012
ব	-15.3012
ল	-15.3012
ি	-15.3012
ੀ	-15.3012
ੰ	-15.3012
ર	-15.3012
ે	-15.3012
ો	-15.3012
క	-15.3012
ల	-15.3012
వ	-15.3012
ి	-15.3012
ు	-15.3012
్	-15.3012
ന	-15.3012
න	-15.3012
්	-15.3012
ค	-15.3012
ฉ	-15.3012
ด	-15.3012
ั	-15.3012
ุ	-15.3012
ไ	-15.3012
໑	-15.3012
Ⴢ	-15.3012
ე	-15.3012
ለ	-15.3012
ው	-15.3012
ᓅ	-15.3012
ᭁ	-15.3012
Ṁ	-15.3012
ṇ	-15.3012
ṭ	-15.3012
ẹ	-15.3012
₥	-15.3012
₪	-15.3012
↔	-15.3012
≧	-15.3012
○	-15.3012
☑	-15.3012
☜	-15.3012
☼	-15.3012
⚫	-15.3012
✍	-15.3012
❌	-15.3012
➢	-15.3012
〗	-15.3012
う	-15.3012
の	-15.3012
を	-15.3012
ノ	-15.3012
可	-15.3012
發	-15.3012
🌤	-15.3012
🌻	-15.3012
🏿	-15.3012
👀	-15.3012
👈	-15.3012
👤	-15.3012
💋	-15.3012
💐	-15.3012
💻	-15.3012
🔸	-15.3012
😐	-15.3012
ò	-15.3012
ϻ	-15.3012
ṣ	-15.3012
ก	-15.3012
╚	-15.3012
ュ	-15.3012
ƛ	-15.8012
ơ	-15.8012
დ	-15.8012
რ	-15.8012
以	-15.8012
発	-15.8012
ܓ	-15.8012
ೋ	-15.8012
ๅ	-15.8012
ở	-15.8012
🎈	-15.8012
😳	-15.8012
|	-15.8012
ì	-15.8012
Ā	-15.8012
ă	-15.8012
Ė	-15.8012
Į	-15.8012
ů	-15.8012
Ǝ	-15.8012
ʀ	-15.8012
ʻ	-15.8012
̉	-15.8012
̍	-15.8012
Α	-15.8012
Υ	-15.8012
έ	-15.8012
δ	-15.8012
Ϟ	-15.8012
О	-15.8012
П	-15.8012
У	-15.8012
Ч	-15.8012
ъ	-15.8012
ю	-15.8012
҉	-15.8012
ґ	-15.8012
ը	-15.8012
լ	-15.8012
խ	-15.8012
ռ	-15.8012
ց	-15.8012
ֆ	-15.8012
ך	-15.8012
؋	-15.8012
؍	-15.8012
ؾ	-15.8012
ڲ	-15.8012
ۘ	-15.8012
ݖ	-15.8012
ݢ	-15.8012
ݥ	-15.8012
ݨ	-15.8012
ࡗ	-15.8012
ञ	-15.8012
ढ	-15.8012
ॡ	-15.8012
ঔ	-15.8012
ট	-15.8012
ড	-15.8012
স	-15.8012
ਂ	-15.8012
ਧ	-15.8012
ਬ	-15.8012
ਰ	-15.8012
ਸ	-15.8012
ਿ	-15.8012
ક	-15.8012
ચ	-15.8012
ટ	-15.8012
ા	-15.8012
િ	-15.8012
ી	-15.8012
ஓ	-15.8012
ఉ	-15.8012
ద	-15.8012
స	-15.8012
ీ	-15.8012
ಈ	-15.8012
ಲ	-15.8012
್	-15.8012
ങ	-15.8012
ി	-15.8012
ි	-15.8012
ท	-15.8012
ย	-15.8012
่	-15.8012
้	-15.8012
້	-15.8012
ཻ	-15.8012
࿑	-15.8012
ს	-15.8012
ᄑ	-15.8012
ᄒ	-15.8012
ᅲ	-15.8012
ሂ	-15.8012
ህ	-15.8012
ል	-15.8012
ስ	-15.8012
ቅ	-15.8012
ን	-15.8012
ይ	-15.8012
ድ	-15.8012
ᓆ	-15.8012
ᓘ	-15.8012
ន	-15.8012
ᴗ	-15.8012
Ẹ	-15.8012
Ọ	-15.8012
ố	-15.8012
‛	-15.8012
‟	-15.8012
₩	-15.8012
₽	-15.8012
⃫	-15.8012
↩	-15.8012
⇦	-15.8012
∞	-15.8012
≠	-15.8012
≦	-15.8012
╬	-15.8012
▽	-15.8012
◈	-15.8012
◍	-15.8012
◣	-15.8012
◩	-15.8012
◪	-15.8012
☘	-15.8012
♉	-15.8012
♌	-15.8012
♢	-15.8012
⚽	-15.8012
✈	-15.8012
✧	-15.8012
✫	-15.8012
✷	-15.8012
❓	-15.8012
❕	-15.8012
❖	-15.8012
❝	-15.8012
い	-15.8012
じ	-15.8012
ほ	-15.8012
コ	-15.8012
タ	-15.8012
パ	-15.8012
ピ	-15.8012
ー	-15.8012
ㄨ	-15.8012
你	-15.8012
我	-15.8012
真	-15.8012
者	-15.8012
나	-15.8012
법	-15.8012
직	-15.8012
𓂅	-15.8012
𖣴	-15.8012
🇨	-15.8012
🇶	-15.8012
🇸	-15.8012
🌼	-15.8012
🎵	-15.8012
🐒	-15.8012
🐠	-15.8012
🐢	-15.8012
👆	-15.8012
👇	-15.8012
👎	-15.8012
👑	-15.8012
💅	-15.8012
💍	-15.8012
💓	-15.8012
💮	-15.8012
💰	-15.8012
🔒	-15.8012
🔕	-15.8012
🔫	-15.8012
🔴	-15.8012
🔶	-15.8012
🔹	-15.8012
🖕	-15.8012
😃	-15.8012
😏	-15.8012
😤	-15.8012
😮	-15.8012
😿	-15.8012
🙄	-15.8012
🚶	-15.8012
🛫	-15.8012
🤎	-15.8012
🤐	-15.8012
🤤	-15.8012
🤧	-15.8012
🥀	-15.8012
🦼	-15.8012
🧐	-15.8012
պ	-15.8012
🥰	-16.7826
🤪	-16.7827
🤓	-16.7828
😯	-16.7829
😬	-16.783
😕	-16.7831
🔺	-16.7832
🔱	-16.7833
💡	-16.7834
💠	-16.7835
💝	-16.7836
🎻	-16.7837
🎧	-16.7838
🌈	-16.7839
🌆	-16.784
🇺	-16.7841
🇬	-16.7842
ꓘ	-16.7843
上	-16.7844
ト	-16.7845
〖	-16.7846
⭕	-16.7847
❢	-16.7848
❞	-16.7849
✴	-16.785
✮	-16.7851
♤	-16.7852
╦	-16.7853
⇡	-16.7854
⇠	-16.7855
↴	-16.7856
ỳ	-16.7857
Ṃ	-16.7858
እ	-16.7859
ส	-16.786
ถ	-16.7861
య	-16.7862
আ	-16.7863
۬	-16.7864
կ	-16.7865
է	-16.7866
Կ	-16.7867
Ի	-16.7868
ө	-16.7869
Р	-16.787
Д	-16.7871
λ	-16.7872
Ξ	-16.7873
̳	-16.7874
ʒ	-16.7875
Ʀ	-16.7876
ť	-16.7877
õ	-16.7878
Ú	-16.7879
Ù	-16.788
É	-16.7881
À	-16.7882
¥	-16.7883
🦦	-16.7884
🤨	-16.7885
😽	-16.7886
💛	-16.7887
🐸	-16.7888
🎀	-16.7889
🍀	-16.789
︎	-16.7891
﮼	-16.7892
❦	-16.7893
❗	-16.7894
♛	-16.7895
♚	-16.7896
☂	-16.7897
⌘	-16.7898
ი	-16.7899
ณ	-16.79
ස	-16.7901
ನ	-16.7902
ݦ	-16.7903
ח	-16.7904
տ	-16.7905
Б	-16.7906
γ	-16.7907
̥	-16.7908
̊	-16.7909
🧸	-16.791
🤭	-16.7911
😨	-16.7912
😦	-16.7913
😠	-16.7914
😌	-16.7915
🕘	-16.7916
👨	-16.7917
👊	-16.7918
🎼	-16.7919
的	-16.792
嘅	-16.7921
〇	-16.7922
✖	-16.7923
◀	-16.7924
╫	-16.7925
∀	-16.7926
↯	-16.7927
હ	-16.7928
ো	-16.7929
়	-16.793
ה	-16.7931
М	-16.7932
ν	-16.7933
̄	-16.7934
💖	-16.7935
🌚	-16.7936
🇿	-16.7937
🇮	-16.7938
✗	-16.7939
ಿ	-16.794
ڔ	-16.7941
ٝ	-16.7942
ώ	-16.7943
τ	-16.7944
ð	-16.7945
🤩	-16.7946
😢	-16.7947
⚘	-16.7948
▲	-16.7949
দ	-16.795
ক	-16.7951
̇	-16.7952
ɑ	-16.7953
🥺	-16.7954
🏃	-16.7955
「	-16.7956
➡	-16.7957
❧	-16.7958
☻	-16.7959
☹	-16.796
▼	-16.7961
ۨ	-16.7962
ˈ	-16.7963
🖤	-16.7964
※	-16.7965
❣	-16.7966
🤔	-16.7967
😇	-16.7968
😄	-16.7969
✨	-16.797
ন	-16.7971
ڿ	-16.7972
ؐ	-16.7973
⭐	-16.7974
✓	-16.7975
☀	-16.7976
▐	-16.7977
↓	-16.7978
п	-16.7979
😛	-16.798
❥	-16.7981
✔	-16.7982
̧	-16.7983
Ç	-16.7984
✅	-16.7985
‡	-16.7986
ᓄ	-16.7987
आ	-16.7988
≈	-16.7989
ү	-16.799
अ	-16.7991
͜	-16.7992
ツ	-16.7993
ष	-16.7994
भ	-16.7995
😊	-16.7996
≥	-16.7997
ド	-16.7998
ٳ	-16.7999
シ	-16.8
±	-16.8001
̈	-16.8002
◆	-16.8003
≤	-16.8004
😀	-16.8005
↑	-16.8006
प	-16.8007
Ô	-16.8008
स	-16.8009
′	-16.801
£	-16.8011
ნ	-16.8012
Ɓ	-16.8012
Ƴ	-16.8012
Μ	-16.8012
Ϋ	-16.8012
ፈ	-16.8012
ḭ	-16.8012
Ṧ	-16.8012
サ	-16.8012
很	-16.8012
於	-16.8012
纳	-16.8012
솔	-16.8012
ř	-16.8012
ŧ	-16.8012
ș	-16.8012
ʚ	-16.8012
Г	-16.8012
Ұ	-16.8012
Ӎ	-16.8012
բ	-16.8012
ܒ	-16.8012
ߙ	-16.8012
ਮ	-16.8012
ව	-16.8012
ላ	-16.8012
በ	-16.8012
አ	-16.8012
₳	-16.8012
か	-16.8012
な	-16.8012
チ	-16.8012
刀	-16.8012
古	-16.8012
感	-16.8012
機	-16.8012
波	-16.8012
背	-16.8012
ꓤ	-16.8012
ꫛ	-16.8012
다	-16.8012
얼	-16.8012
정	-16.8012
조	-16.8012
화	-16.8012
𐭦	-16.8012
𓆪	-16.8012
🌎	-16.8012
🍇	-16.8012
̠	-16.8012
Â	-16.8012
È	-16.8012
Ð	-16.8012
Ó	-16.8012
Û	-16.8012
ß	-16.8012
æ	-16.8012
ù	-16.8012
þ	-16.8012
Ą	-16.8012
Č	-16.8012
Ď	-16.8012
đ	-16.8012
ė	-16.8012
Ę	-16.8012
Ģ	-16.8012
Ĥ	-16.8012
ī	-16.8012
į	-16.8012
ĵ	-16.8012
ĸ	-16.8012
ĺ	-16.8012
ļ	-16.8012
Ň	-16.8012
ŋ	-16.8012
Ō	-16.8012
ŏ	-16.8012
Ř	-16.8012
Ŝ	-16.8012
ŝ	-16.8012
Ť	-16.8012
ŭ	-16.8012
ű	-16.8012
ź	-16.8012
Ż	-16.8012
Ɠ	-16.8012
Ɣ	-16.8012
Ɲ	-16.8012
ƽ	-16.8012
ǟ	-16.8012
ǰ	-16.8012
Ǿ	-16.8012
ȅ	-16.8012
Ȋ	-16.8012
ț	-16.8012
ɕ	-16.8012
ɞ	-16.8012
ɣ	-16.8012
ɨ	-16.8012
ɴ	-16.8012
ʃ	-16.8012
ʔ	-16.8012
ʞ	-16.8012
ˆ	-16.8012
˹	-16.8012
˼	-16.8012
́	-16.8012
̋	-16.8012
̌	-16.8012
̖	-16.8012
̗	-16.8012
̝	-16.8012
̩	-16.8012
̬	-16.8012
̮	-16.8012
̸	-16.8012
͛	-16.8012
ͦ	-16.8012
Ά	-16.8012
Έ	-16.8012
ΐ	-16.8012
Η	-16.8012
Θ	-16.8012
Ι	-16.8012
Ρ	-16.8012
Σ	-16.8012
Ψ	-16.8012
ά	-16.8012
ή	-16.8012
χ	-16.8012
Ј	-16.8012
Ћ	-16.8012
А	-16.8012
Й	-16.8012
К	-16.8012
ј	-16.8012
ћ	-16.8012
Ѣ	-16.8012
Ѧ	-16.8012
Ҏ	-16.8012
қ	-16.8012
Ҩ	-16.8012
ҷ	-16.8012
ҽ	-16.8012
Պ	-16.8012
ղ	-16.8012
յ	-16.8012
վ	-16.8012
փ	-16.8012
ք	-16.8012
ִ	-16.8012
ג	-16.8012
ס	-16.8012
צ	-16.8012
ת	-16.8012
؎	-16.8012
ٯ	-16.8012
ڐ	-16.8012
ڗ	-16.8012
ڟ	-16.8012
ڰ	-16.8012
ۚ	-16.8012
ۢ	-16.8012
ۥ	-16.8012
ۺ	-16.8012
܀	-16.8012
ܨ	-16.8012
ܪ	-16.8012
ܵ	-16.8012
ݐ	-16.8012
ݒ	-16.8012
ݘ	-16.8012
ݧ	-16.8012
ހ	-16.8012
ވ	-16.8012
࣪	-16.8012
ओ	-16.8012
घ	-16.8012
ङ	-16.8012
़	-16.8012
ॉ	-16.8012
॒	-16.8012
०	-16.8012
१	-16.8012
অ	-16.8012
ই	-16.8012
উ	-16.8012
এ	-16.8012
ঘ	-16.8012
ছ	-16.8012
জ	-16.8012
ধ	-16.8012
ভ	-16.8012
শ	-16.8012
ৌ	-16.8012
ਇ	-16.8012
ਈ	-16.8012
ਕ	-16.8012
ਜ	-16.8012
ਥ	-16.8012
ਪ	-16.8012
ਲ	-16.8012
ੇ	-16.8012
ੈ	-16.8012
ੋ	-16.8012
ੱ	-16.8012
ખ	-16.8012
છ	-16.8012
ડ	-16.8012
થ	-16.8012
ધ	-16.8012
પ	-16.8012
સ	-16.8012
ુ	-16.8012
୪	-16.8012
ற	-16.8012
ఇ	-16.8012
ఎ	-16.8012
చ	-16.8012
డ	-16.8012
ధ	-16.8012
ప	-16.8012
హ	-16.8012
ే	-16.8012
ో	-16.8012
ಂ	-16.8012
ಕ	-16.8012
ಡ	-16.8012
ಧ	-16.8012
ಸ	-16.8012
ഉ	-16.8012
ത	-16.8012
ധ	-16.8012
പ	-16.8012
ള	-16.8012
സ	-16.8012
ආ	-16.8012
උ	-16.8012
ක	-16.8012
ය	-16.8012
ල	-16.8012
ශ	-16.8012
ෑ	-16.8012
ෙ	-16.8012
บ	-16.8012
ป	-16.8012
พ	-16.8012
ล	-16.8012
ห	-16.8012
อ	-16.8012
ฮ	-16.8012
ะ	-16.8012
ิ	-16.8012
เ	-16.8012
ກ	-16.8012
ຂ	-16.8012
ຈ	-16.8012
ຖ	-16.8012
ທ	-16.8012
ນ	-16.8012
ພ	-16.8012
ມ	-16.8012
ຢ	-16.8012
ະ	-16.8012
ົ	-16.8012
ເ	-16.8012
່	-16.8012
༄	-16.8012
༅	-16.8012
༺	-16.8012
࿅	-16.8012
ა	-16.8012
თ	-16.8012
კ	-16.8012
მ	-16.8012
უ	-16.8012
ქ	-16.8012
ም	-16.8012
ሩ	-16.8012
ር	-16.8012
ሳ	-16.8012
ቦ	-16.8012
ታ	-16.8012
ት	-16.8012
ነ	-16.8012
ኔ	-16.8012
ኝ	-16.8012
ወ	-16.8012
ዎ	-16.8012
ዘ	-16.8012
ዴ	-16.8012
ጋ	-16.8012
ጎ	-16.8012
ጠ	-16.8012
ጣ	-16.8012
ጥ	-16.8012
ፍ	-16.8012
ᑐ	-16.8012
ញ	-16.8012
ព	-16.8012
ភ	-16.8012
េ	-16.8012
ំ	-16.8012
្	-16.8012
᪣	-16.8012
᭄	-16.8012
ᴀ	-16.8012
ᴋ	-16.8012
᷂	-16.8012
ḑ	-16.8012
Ḿ	-16.8012
ḿ	-16.8012
Ṉ	-16.8012
ṛ	-16.8012
Ṝ	-16.8012
ṩ	-16.8012
Ṽ	-16.8012
Ạ	-16.8012
Ể	-16.8012
ệ	-16.8012
Ụ	-16.8012
ụ	-16.8012
ỹ	-16.8012
Ἄ	-16.8012
⁀	-16.8012
₦	-16.8012
₹	-16.8012
₼	-16.8012
⃕	-16.8012
⃟	-16.8012
⃢	-16.8012
℘	-16.8012
↙	-16.8012
↜	-16.8012
↝	-16.8012
↣	-16.8012
↤	-16.8012
↫	-16.8012
↲	-16.8012
↷	-16.8012
⇐	-16.8012
⇜	-16.8012
⇢	-16.8012
∂	-16.8012
∇	-16.8012
∟	-16.8012
∴	-16.8012
≯	-16.8012
⏆	-16.8012
⏩	-16.8012
┇	-16.8012
═	-16.8012
▂	-16.8012
▃	-16.8012
□	-16.8012
▫	-16.8012
◝	-16.8012
◤	-16.8012
◥	-16.8012
◾	-16.8012
☁	-16.8012
☃	-16.8012
☄	-16.8012
☔	-16.8012
☚	-16.8012
☛	-16.8012
☠	-16.8012
☽	-16.8012
☿	-16.8012
♃	-16.8012
♄	-16.8012
♈	-16.8012
♊	-16.8012
♋	-16.8012
♎	-16.8012
♏	-16.8012
♒	-16.8012
♓	-16.8012
♭	-16.8012
⚒	-16.8012
⚠	-16.8012
⛳	-16.8012
⛺	-16.8012
✇	-16.8012
✜	-16.8012
✞	-16.8012
✭	-16.8012
✳	-16.8012
❒	-16.8012
❔	-16.8012
❶	-16.8012
➓	-16.8012
➘	-16.8012
➟	-16.8012
➥	-16.8012
➬	-16.8012
⦿	-16.8012
⬅	-16.8012
⬆	-16.8012
⬸	-16.8012
⸁	-16.8012
⸙	-16.8012
〈	-16.8012
〉	-16.8012
》	-16.8012
あ	-16.8012
え	-16.8012
お	-16.8012
が	-16.8012
く	-16.8012
さ	-16.8012
へ	-16.8012
ょ	-16.8012
わ	-16.8012
ん	-16.8012
イ	-16.8012
エ	-16.8012
ク	-16.8012
ス	-16.8012
ッ	-16.8012
バ	-16.8012
マ	-16.8012
ム	-16.8012
ヮ	-16.8012
一	-16.8012
之	-16.8012
了	-16.8012
云	-16.8012
传	-16.8012
位	-16.8012
何	-16.8012
力	-16.8012
午	-16.8012
南	-16.8012
厩	-16.8012
吗	-16.8012
国	-16.8012
场	-16.8012
報	-16.8012
多	-16.8012
夢	-16.8012
如	-16.8012
子	-16.8012
学	-16.8012
它	-16.8012
少	-16.8012
屋	-16.8012
年	-16.8012
庆	-16.8012
彙	-16.8012
彩	-16.8012
情	-16.8012
惠	-16.8012
打	-16.8012
教	-16.8012
料	-16.8012
斯	-16.8012
月	-16.8012
机	-16.8012
泊	-16.8012
爱	-16.8012
瑞	-16.8012
用	-16.8012
电	-16.8012
着	-16.8012
示	-16.8012
科	-16.8012
端	-16.8012
篇	-16.8012
終	-16.8012
职	-16.8012
节	-16.8012
花	-16.8012
葬	-16.8012
藍	-16.8012
蝶	-16.8012
要	-16.8012
詞	-16.8012
謝	-16.8012
话	-16.8012
谷	-16.8012
超	-16.8012
辛	-16.8012
迪	-16.8012
邏	-16.8012
钱	-16.8012
际	-16.8012
隨	-16.8012
雨	-16.8012
顯	-16.8012
鲁	-16.8012
ꔫ	-16.8012
ꖾ	-16.8012
ꟽ	-16.8012
ꦿ	-16.8012
ꪆ	-16.8012
ꪝ	-16.8012
ꫀ	-16.8012
각	-16.8012
금	-16.8012
길	-16.8012
는	-16.8012
대	-16.8012
래	-16.8012
리	-16.8012
마	-16.8012
만	-16.8012
문	-16.8012
방	-16.8012
서	-16.8012
손	-16.8012
송	-16.8012
시	-16.8012
양	-16.8012
에	-16.8012
연	-16.8012
요	-16.8012
우	-16.8012
져	-16.8012
좋	-16.8012
지	-16.8012
평	-16.8012
하	-16.8012
할	-16.8012
해	-16.8012
형	-16.8012
효	-16.8012
희	-16.8012
﮶	-16.8012
𐎚	-16.8012
𐭣	-16.8012
𐭪	-16.8012
𐭬	-16.8012
𓆩	-16.8012
𖣂	-16.8012
𖤈	-16.8012
𖤍	-16.8012
🅚	-16.8012
🅛	-16.8012
🅜	-16.8012
🅦	-16.8012
🇦	-16.8012
🇧	-16.8012
🇱	-16.8012
🇲	-16.8012
🇵	-16.8012
🇷	-16.8012
🇹	-16.8012
🌍	-16.8012
🌓	-16.8012
🌔	-16.8012
🌙	-16.8012
🌛	-16.8012
🌜	-16.8012
🌝	-16.8012
🌞	-16.8012
🌧	-16.8012
🌱	-16.8012
🌵	-16.8012
🌺	-16.8012
🍂	-16.8012
🍃	-16.8012
🍉	-16.8012
🍕	-16.8012
🍩	-16.8012
🍰	-16.8012
🍷	-16.8012
🍻	-16.8012
🍾	-16.8012
🍿	-16.8012
🎁	-16.8012
🎃	-16.8012
🎅	-16.8012
🎞	-16.8012
🎥	-16.8012
🎨	-16.8012
🎯	-16.8012
🎶	-16.8012
🏆	-16.8012
🏊	-16.8012
🏖	-16.8012
🏣	-16.8012
🏭	-16.8012
🏳	-16.8012
🏹	-16.8012
🏽	-16.8012
🐍	-16.8012
🐕	-16.8012
🐾	-16.8012
👃	-16.8012
👅	-16.8012
👋	-16.8012
👕	-16.8012
👠	-16.8012
👢	-16.8012
👧	-16.8012
👭	-16.8012
👰	-16.8012
👲	-16.8012
👳	-16.8012
👾	-16.8012
💀	-16.8012
💃	-16.8012
💇	-16.8012
💈	-16.8012
💒	-16.8012
💣	-16.8012
💦	-16.8012
💷	-16.8012
📄	-16.8012
📑	-16.8012
📛	-16.8012
📥	-16.8012
📩	-16.8012
📮	-16.8012
📲	-16.8012
📸	-16.8012
📿	-16.8012
🔆	-16.8012
🔈	-16.8012
🔐	-16.8012
🔗	-16.8012
🕊	-16.8012
🕌	-16.8012
🖼	-16.8012
🗯	-16.8012
🗿	-16.8012
😧	-16.8012
😩	-16.8012
😲	-16.8012
😷	-16.8012
🙃	-16.8012
🙅	-16.8012
🙆	-16.8012
🙇	-16.8012
🙋	-16.8012
🙌	-16.8012
🚌	-16.8012
🚓	-16.8012
🚣	-16.8012
🚨	-16.8012
🚫	-16.8012
🚭	-16.8012
🚵	-16.8012
🚷	-16.8012
🛌	-16.8012
🛐	-16.8012
🛒	-16.8012
🛰	-16.8012
🟥	-16.8012
🤒	-16.8012
🤕	-16.8012
🤚	-16.8012
🤟	-16.8012
🤠	-16.8012
🤲	-16.8012
🤸	-16.8012
🤹	-16.8012
🦯	-16.8012
🦽	-16.8012
🧑	-16.8012
🧖	-16.8012
(	-16.8012
ĉ	-16.8012
κ	-16.8012
ձ	-16.8012
८	-16.8012
ਹ	-16.8012
语	-16.8012
😑	-16.8012
🧚	-16.8012
