<unk>	0
<s>	0
</s>	0
هه	-0
▁ا	-1
▁ج	-2
▁م	-3
ان	-4
▁ڪ	-5
▁ت	-6
▁س	-7
هههه	-8
▁آ	-9
▁ه	-10
▁و	-11
▁جي	-12
ري	-13
هي	-14
▁پ	-15
▁ب	-16
▁ک	-17
ين	-18
هن	-19
ون	-20
▁ن	-21
▁آهي	-22
ار	-23
يو	-24
لا	-25
▁۾	-26
▁ٿ	-27
ئي	-28
▁کي	-29
▁ر	-30
ال	-31
▁ان	-32
▁۽	-33
يا	-34
ــ	-35
هههههههه	-36
▁جو	-37
ور	-38
ند	-39
▁گ	-40
▁ش	-41
لي	-42
▁ته	-43
▁.	-44
▁ع	-45
▁د	-46
▁اس	-47
ائ	-48
نهن	-49
جي	-50
▁ڏ	-51
▁خ	-52
▁لا	-53
▁ح	-54
▁چ	-55
▁تي	-56
▁ف	-57
ام	-58
▁،	-59
▁هڪ	-60
▁ڪري	-61
▁اه	-62
تي	-63
اڻ	-64
▁ٻ	-65
دي	-66
ءِ	-67
▁ل	-68
▁کان	-69
رو	-70
▁هههههههه	-71
▁سان	-72
▁به	-73
اري	-74
▁ق	-75
▁ڪر	-76
▁نه	-77
▁ٿي	-78
▁هن	-79
اب	-80
▁اي	-81
▁ط	-82
دا	-83
▁هو	-84
▁ص	-85
▁تو	-86
ائي	-87
ير	-88
▁آهن	-89
▁ال	-90
▁ڪرڻ	-91
ــــ	-92
يڪ	-93
▁ڇ	-94
▁ٿو	-95
هان	-96
ني	-97
▁اسان	-98
▁"	-99
ست	-100
دو	-101
مي	-102
▁اهو	-103
▁يا	-104
▁جيڪ	-105
▁لاءِ	-106
▁پي	-107
▁ي	-108
هر	-109
ءَ	-110
ول	-111
▁مو	-112
نهنجي	-113
▁ڊ	-114
▁ٽ	-115
را	-116
يل	-117
▁سگ	-118
▁(	-119
سي	-120
▁توهان	-121
▁1	-122
▁ز	-123
▁ڪيو	-124
▁من	-125
▁پر	-126
يت	-127
▁مان	-128
▁جا	-129
▁مون	-130
ڏهن	-131
▁هي	-132
جو	-133
ات	-134
نگ	-135
▁پو	-136
قي	-137
ها	-138
لو	-139
ائين	-140
▁ما	-141
▁ڳ	-142
▁2	-143
قت	-144
▁وا	-145
ھن	-146
▁ڪند	-147
▁ٿا	-148
▁مع	-149
اني	-150
ههه	-151
ھي	-152
هو	-153
اهي	-154
يم	-155
▁ڪو	-156
ڙي	-157
▁رو	-158
▁وڌ	-159
▁ڀ	-160
▁وي	-161
▁ڪم	-162
رين	-163
▁سو	-164
اد	-165
ئن	-166
▁ئي	-167
رف	-168
▁پنهنجي	-169
ڪي	-170
▁لاء	-171
▁او	-172
▁رهي	-173
شن	-174
سٽ	-175
▁ويو	-176
▁بي	-177
ئين	-178
له	-179
▁انهن	-180
▁مي	-181
بر	-182
از	-183
اص	-184
▁هههههههههههه	-185
▁طور	-186
اا	-187
اس	-188
▁است	-189
▁سڀ	-190
ورت	-191
▁وڃ	-192
بي	-193
▁هههه	-194
▁غ	-195
▁ڪي	-196
▁گه	-197
▁ض	-198
ٽي	-199
▁-	-200
اي	-201
اف	-202
گر	-203
اڻي	-204
عم	-205
▁ھ	-206
▁خو	-207
▁ڏين	-208
اڪ	-209
▁ذ	-210
گي	-211
▁سم	-212
▁مل	-213
▁مح	-214
سم	-215
ڏي	-216
▁ماڻ	-217
کي	-218
▁په	-219
▁وين	-220
▁وڌيڪ	-221
ٽر	-222
▁ك	-223
▁هون	-224
▁وقت	-225
ارو	-226
▁بر	-227
مل	-228
الي	-229
▁ڪج	-230
ڙو	-231
▁سي	-232
در	-233
▁في	-234
▁اين	-235
▁سال	-236
چي	-237
مت	-238
▁گهر	-239
▁هر	-240
▁ڇا	-241
▁در	-242
نيا	-243
عي	-244
▁آھي	-245
▁سند	-246
▁اڳ	-247
▁ڏي	-248
نا	-249
خت	-250
عمال	-251
▁ور	-252
صو	-253
▁جنهن	-254
▁استعمال	-255
تو	-256
▁ڪئي	-257
▁ري	-258
▁مش	-259
▁مر	-260
بو	-261
▁سر	-262
▁مس	-263
▁تع	-264
دار	-265
▁تر	-266
▁شي	-267
▁جن	-268
▁اهي	-269
▁20	-270
▁هئي	-271
▁تائين	-272
ــــــــ	-273
▁ڳال	-274
▁واري	-275
▁ام	-276
▁جيڪو	-277
▁گڏ	-278
▁ڪنهن	-279
رن	-280
سو	-281
ائڻ	-282
▁ڪن	-283
اه	-284
▁نظ	-285
ڻي	-286
▁ڪريو	-287
▁ٺ	-288
▁ڪجهه	-289
ڪن	-290
لم	-291
▁سن	-292
وي	-293
فت	-294
ڪو	-295
▁لي	-296
▁چيو	-297
▁ٿين	-298
▁مق	-299
▁اها	-300
ندي	-301
▁سگهي	-302
▁جڏهن	-303
▁ڏينهن	-304
سان	-305
▁رک	-306
▁بس	-307
▁نو	-308
▁وڃي	-309
▁3	-310
هم	-311
زي	-312
▁جيڪي	-313
in	-314
▁سا	-315
▁شا	-316
▁تم	-317
رح	-318
▁ڌ	-319
ارن	-320
ٺي	-321
ئر	-322
جن	-323
اصل	-324
▁مط	-325
▁پوءِ	-326
نهنجو	-327
ئون	-328
▁انهي	-329
▁لڳ	-330
▁حاصل	-331
في	-332
▁منهنجي	-333
جود	-334
▁ٻڌ	-335
▁با	-336
▁ڊي	-337
▁سندس	-338
▁ضر	-339
▁اع	-340
▁ڪيت	-341
▁دو	-342
▁پاڻ	-343
ڪر	-344
ندو	-345
ٿي	-346
▁جيڪڏهن	-347
▁اح	-348
ڻو	-349
روع	-350
▁از	-351
بت	-352
ڪل	-353
00	-354
ايو	-355
▁هئ	-356
▁تح	-357
نو	-358
▁اص	-359
بل	-360
ثر	-361
▁شروع	-362
▁تمام	-363
▁ناهي	-364
من	-365
▁ڄ	-366
اح	-367
er	-368
مين	-369
▁گھ	-370
ڪا	-371
▁پرو	-372
▁علي	-373
▁ها	-374
▁ڇو	-375
▁الله	-376
شي	-377
▁باب	-378
▁پن	-379
ڪار	-380
▁يو	-381
▁ههههههههه	-382
▁ڪار	-383
▁ڪا	-384
▁دنيا	-385
لام	-386
▁ٽي	-387
▁ٿيو	-388
▁فر	-389
ما	-390
ءُ	-391
ـــ	-392
▁رهيو	-393
▁ڇڏ	-394
▁جون	-395
ھان	-396
▁صح	-397
▁سمج	-398
▁انت	-399
مو	-400
▁زند	-401
ائن	-402
ده	-403
▁مت	-404
نڊ	-405
▁مد	-406
مان	-407
▁اُ	-408
▁وئي	-409
▁بهت	-410
وو	-411
امل	-412
پي	-413
وري	-414
▁ههههههههههه	-415
▁دور	-416
▁ٻي	-417
جا	-418
▁ماڻهو	-419
▁وڏي	-420
▁وٽ	-421
▁ههههههه	-422
▁آر	-423
الو	-424
تم	-425
▁لک	-426
دڙ	-427
▁ضرورت	-428
▁يع	-429
▁تون	-430
ڪس	-431
ڪري	-432
▁تب	-433
▁5	-434
▁مخت	-435
▁ويندو	-436
ٺو	-437
امي	-438
انهن	-439
▁سب	-440
اهر	-441
▁دل	-442
▁پيدا	-443
دن	-444
▁نم	-445
كم	-446
لف	-447
▁ويا	-448
▁4	-449
ستان	-450
▁علا	-451
▁پيش	-452
▁اخ	-453
▁صرف	-454
▁مار	-455
▁پار	-456
▁موجود	-457
▁پڻ	-458
عو	-459
▁چون	-460
▁آم	-461
▁آخ	-462
لب	-463
▁خاص	-464
▁ٿيڻ	-465
▁ڪڏهن	-466
يني	-467
▁اچي	-468
ائون	-469
▁عم	-470
▁زندگي	-471
on	-472
ar	-473
▁طرف	-474
▁وڏ	-475
▁نا	-476
▁چي	-477
▁ڏس	-478
▁ڪيئن	-479
ران	-480
ھو	-481
▁ڪندو	-482
▁لو	-483
▁را	-484
عد	-485
▁چو	-486
▁بابت	-487
▁قسم	-488
▁وال	-489
▁چاهي	-490
فا	-491
▁سڀني	-492
▁ماڻهن	-493
ولي	-494
▁أ	-495
▁پڙ	-496
▁ڪه	-497
▁ڪت	-498
▁تن	-499
▁طري	-500
▁ڪمپ	-501
an	-502
▁جيئن	-503
رت	-504
▁طرح	-505
شت	-506
هڻ	-507
سن	-508
▁s	-509
صي	-510
▁عمل	-511
▁201	-512
▁تنهن	-513
▁شامل	-514
وا	-515
ندا	-516
ندڙ	-517
▁ٻئي	-518
▁19	-519
▁؟	-520
▁ني	-521
▁مختلف	-522
▁وان	-523
▁گهٽ	-524
▁عام	-525
▁ڪندا	-526
▁هئا	-527
▁غير	-528
▁وارو	-529
رب	-530
▁بڻ	-531
▁اڄ	-532
▁آهيان	-533
▁هههههههههه	-534
پور	-535
▁اج	-536
▁اڪ	-537
es	-538
▁گذ	-539
اااا	-540
لس	-541
▁خبر	-542
▁ڳالهه	-543
▁تج	-544
▁ههههههههههههه	-545
▁رهيا	-546
سين	-547
▁مڪ	-548
▁مدد	-549
▁يعني	-550
۔۔	-551
ٽن	-552
▁هوندي	-553
▁ظ	-554
▁واق	-555
▁خي	-556
ريون	-557
ارا	-558
▁سائي	-559
قو	-560
طي	-561
وني	-562
▁سنڌ	-563
فر	-564
▁حقي	-565
▁شاي	-566
▁ڏانهن	-567
ٽو	-568
▁ٻن	-569
▁ملڪ	-570
▁گهرجي	-571
دم	-572
▁بل	-573
▁S	-574
▁نن	-575
▁واپ	-576
▁ڪندي	-577
الت	-578
▁اندر	-579
▁نظر	-580
▁قو	-581
▁مث	-582
هين	-583
▁A	-584
▁هوندو	-585
▁آمري	-586
▁دا	-587
اتي	-588
▁ڪتاب	-589
▁آهيون	-590
ڊيو	-591
▁ڏيڻ	-592
بن	-593
at	-594
▁ڪندڙ	-595
▁جيڪا	-596
▁رس	-597
▁اچ	-598
▁نق	-599
اريخ	-600
▁ههههه	-601
▁ذري	-602
ڙا	-603
▁ياد	-604
▁ٻين	-605
▁سيا	-606
ذا	-607
▁ٿيل	-608
ضي	-609
▁آئون	-610
اند	-611
▁وچ	-612
▁ھڪ	-613
▁تاريخ	-614
▁اسٽ	-615
زا	-616
ڳو	-617
▁مڪمل	-618
▁جه	-619
▁پا	-620
▁جواب	-621
رم	-622
▁ڪيا	-623
لن	-624
ڊي	-625
▁عورت	-626
▁پس	-627
▁ادا	-628
رائي	-629
▁پري	-630
▁جم	-631
▁پاڪ	-632
▁کيس	-633
en	-634
▁نالو	-635
▁سبب	-636
▁فائ	-637
▁سگه	-638
▁نئين	-639
▁شهر	-640
زن	-641
▁ايس	-642
شش	-643
بار	-644
▁اد	-645
فظ	-646
▁گهڻو	-647
زار	-648
عت	-649
▁بنيا	-650
▁فو	-651
▁_	-652
به	-653
لاح	-654
ٽا	-655
▁تق	-656
▁يق	-657
▁بين	-658
▁بعد	-659
▁ث	-660
پو	-661
افي	-662
▁قيم	-663
▁پهرين	-664
▁تبدي	-665
▁'	-666
▁بد	-667
▁اهڙي	-668
or	-669
▁ايم	-670
▁انسان	-671
▁آن	-672
▁ختم	-673
▁هتي	-674
▁/	-675
▁اسڪ	-676
با	-677
▁6	-678
▁پيا	-679
لى	-680
ريل	-681
▁!	-682
▁آھن	-683
▁هاڻي	-684
▁پنهنجو	-685
▁انا	-686
al	-687
▁اف	-688
▁وري	-689
▁سگهو	-690
▁ات	-691
▁اڃ	-692
▁ٿيندو	-693
▁سيڪ	-694
يان	-695
▁اپ	-696
▁بند	-697
شه	-698
▁هل	-699
ڪيٽ	-700
▁مسئ	-701
▁سالن	-702
▁ڇڏيو	-703
▁پيو	-704
ضح	-705
▁شايد	-706
سر	-707
ورو	-708
▁ڪون	-709
▁رهن	-710
▁ڏئي	-711
▁t	-712
▁ٿئي	-713
▁اهم	-714
▁خلا	-715
▁هم	-716
▁ههههههههههههههه	-717
▁وٺ	-718
▁وڏو	-719
روري	-720
▁ڏا	-721
▁هيٺ	-722
▁هههههههههههههه	-723
▁c	-724
▁هٿ	-725
▁فون	-726
خل	-727
▁وس	-728
▁ايپ	-729
▁ملا	-730
▁دوست	-731
▁جان	-732
▁هههههه	-733
▁سام	-734
▁بح	-735
▁ملي	-736
▁ڦ	-737
جب	-738
ضو	-739
▁ڏنو	-740
▁انگ	-741
عا	-742
▁C	-743
▁نٿ	-744
▁صورت	-745
▁بهترين	-746
▁خط	-747
مون	-748
▁ڇڏي	-749
▁شو	-750
▁<	-751
▁خر	-752
▁دي	-753
▁آيو	-754
▁الا	-755
▁سگهن	-756
▁قيمت	-757
ارف	-758
▁خيال	-759
▁آئي	-760
▁ٻه	-761
▁M	-762
لوم	-763
▁مطلب	-764
▁وٺي	-765
▁ويب	-766
وار	-767
▁قان	-768
▁ٺاهي	-769
▁هجي	-770
▁ويندي	-771
يح	-772
▁ڀي	-773
▁ڪمپني	-774
▁حق	-775
▁پئي	-776
ههههههههه	-777
فو	-778
▁معي	-779
▁پڇ	-780
▁گو	-781
مد	-782
▁ڪوشش	-783
▁اوهان	-784
▁وانگر	-785
پورٽ	-786
▁منهنجو	-787
▁آهيو	-788
▁سوچ	-789
▁ٻيو	-790
ur	-791
▁پوء	-792
سوس	-793
▁خدا	-794
▁8	-795
يرا	-796
▁ذريعي	-797
▁خوش	-798
▁سوال	-799
▁رات	-800
▁7	-801
▁يون	-802
ليم	-803
▁ڪل	-804
▁عليه	-805
▁10	-806
it	-807
جڻ	-808
▁شر	-809
حد	-810
▁ڄاڻ	-811
▁ڪارو	-812
▁ار	-813
▁توھان	-814
جه	-815
اء	-816
هور	-817
ro	-818
▁ڳو	-819
▁مخ	-820
ھنجي	-821
▁امي	-822
▁صحيح	-823
▁گر	-824
لق	-825
▁d	-826
▁فار	-827
تا	-828
پر	-829
ing	-830
داري	-831
▁ٻار	-832
▁بچ	-833
يور	-834
▁آخر	-835
▁منهن	-836
▁لفظ	-837
▁ٽيڪ	-838
le	-839
▁P	-840
▁ڪيل	-841
▁مال	-842
▁سائيٽ	-843
▁غل	-844
▁پاڻي	-845
▁حقيقت	-846
شان	-847
▁تصو	-848
▁هنن	-849
يد	-850
كن	-851
▁مض	-852
="	-853
▁معلوم	-854
سل	-855
▁ڏسي	-856
▁اوھان	-857
يون	-858
▁بو	-859
زو	-860
▁تص	-861
▁حڪ	-862
▁قاب	-863
▁اڃا	-864
▁ترقي	-865
▁جاري	-866
ڊيا	-867
▁اتي	-868
زم	-869
ورن	-870
▁الم	-871
▁بن	-872
▁دوران	-873
▁فيص	-874
▁اک	-875
▁ننڍ	-876
تن	-877
اهه	-878
صر	-879
▁انتظ	-880
▁ڪان	-881
▁مم	-882
ياتي	-883
▁والله	-884
▁مٿ	-885
اءِ	-886
▁سڄ	-887
▁رنگ	-888
▁ائين	-889
▁حڪو	-890
▁عال	-891
▁ڪيترن	-892
▁ضروري	-893
▁T	-894
▁سين	-895
▁حالت	-896
هههههههههههه	-897
▁منظ	-898
▁9	-899
▁شك	-900
▁صف	-901
▁مواد	-902
▁ظاهر	-903
يي	-904
▁ولا	-905
باد	-906
▁حصو	-907
▁اصل	-908
▁گھر	-909
▁ٻاهر	-910
▁حل	-911
ic	-912
▁صاح	-913
▁علائ	-914
▁جل	-915
▁جتي	-916
▁خد	-917
لين	-918
▁بهتر	-919
▁سندن	-920
▁پاڪستان	-921
كت	-922
▁ساڳ	-923
▁چين	-924
ليل	-925
▁اٿ	-926
▁پون	-927
▁فق	-928
▁اثر	-929
خص	-930
▁مارڪيٽ	-931
▁پنهن	-932
راه	-933
▁ڪام	-934
▁الس	-935
▁محسوس	-936
▁اول	-937
▁حڪومت	-938
ره	-939
ڙن	-940
▁پهريون	-941
▁مٿي	-942
اپ	-943
▁ھن	-944
▁لڳي	-945
ائم	-946
▁آسان	-947
▁خري	-948
▁رکي	-949
▁سفر	-950
▁ڪجھ	-951
▁هوندا	-952
▁بال	-953
is	-954
دين	-955
▁مطاب	-956
▁مهي	-957
▁صلاح	-958
▁ڏسڻ	-959
ڊر	-960
▁اسين	-961
▁,	-962
▁هُ	-963
▁قر	-964
▁مست	-965
ضوع	-966
▁ڏني	-967
▁بيان	-968
▁عمر	-969
▁ٿيون	-970
هههههههههه	-971
▁اسپ	-972
▁B	-973
ed	-974
▁على	-975
لامي	-976
▁آمريڪا	-977
آآ	-978
▁تصوير	-979
قا	-980
ارت	-981
ستي	-982
▁اھو	-983
▁مج	-984
▁سک	-985
▁پهچ	-986
▁جنگ	-987
▁نف	-988
؟"	-989
▁>	-990
انو	-991
ظيم	-992
▁روز	-993
▁طرفان	-994
ههههههههههه	-995
داد	-996
▁جسم	-997
▁خلاف	-998
ِي	-999
يات	-1000
▁معيار	-1001
▁لائن	-1002
▁اندا	-1003
قل	-1004
▁*	-1005
▁صاحب	-1006
ساني	-1007
؟؟	-1008
ڏھن	-1009
▁پئ	-1010
▁ڏک	-1011
صد	-1012
▁شع	-1013
▁وارا	-1014
▁قب	-1015
▁ٿيندي	-1016
▁رڳو	-1017
اج	-1018
▁خدمت	-1019
▁سگهجي	-1020
▁رکڻ	-1021
ميشه	-1022
▁سه	-1023
▁چار	-1024
▁آف	-1025
▁رد	-1026
ڪٽ	-1027
گرام	-1028
پري	-1029
▁حو	-1030
اسين	-1031
ياري	-1032
ٽرو	-1033
▁اختي	-1034
▁مثال	-1035
ڌي	-1036
▁چه	-1037
▁خود	-1038
▁تنهنجي	-1039
▁عو	-1040
لان	-1041
هائي	-1042
▁الح	-1043
▁ڏيک	-1044
▁راند	-1045
ازي	-1046
▁زمين	-1047
▁هوءَ	-1048
▁دست	-1049
▁عر	-1050
هون	-1051
ڪاري	-1052
▁پيار	-1053
ديد	-1054
غير	-1055
ڪرو	-1056
▁تبديل	-1057
▁قانون	-1058
ائل	-1059
▁تيار	-1060
▁اش	-1061
اڪاڻ	-1062
▁شخص	-1063
▁ڊيٽا	-1064
▁واپس	-1065
باني	-1066
▁ايران	-1067
ئڻ	-1068
▁تان	-1069
▁ريا	-1070
▁ڏاڍ	-1071
▁نتي	-1072
▁p	-1073
▁حلو	-1074
▁بخ	-1075
▁ڇاڪاڻ	-1076
▁پيداوار	-1077
▁ھو	-1078
▁پسند	-1079
▁برا	-1080
20	-1081
▁تف	-1082
▁منت	-1083
▁اب	-1084
لائي	-1085
سٽم	-1086
▁I	-1087
▁قدر	-1088
▁چونڊ	-1089
▁مشهور	-1090
re	-1091
▁ڪيترائي	-1092
▁قابل	-1093
رر	-1094
▁سچ	-1095
▁ڏيو	-1096
▁مص	-1097
تل	-1098
▁بلا	-1099
ائو	-1100
▁فرا	-1101
اھ	-1102
▁اعلي	-1103
حي	-1104
انن	-1105
ٽل	-1106
▁انهيءَ	-1107
▁اجاز	-1108
▁نظام	-1109
▁ڪلا	-1110
▁هميشه	-1111
ڌو	-1112
▁تقري	-1113
▁چوڻ	-1114
).	-1115
▁موق	-1116
اسب	-1117
▁دف	-1118
▁صن	-1119
▁ٻنهي	-1120
▁کا	-1121
am	-1122
▁اجازت	-1123
قن	-1124
▁آيا	-1125
▁ڊگ	-1126
مبر	-1127
▁صارف	-1128
تر	-1129
▁آو	-1130
▁نيو	-1131
▁سڏ	-1132
▁مونکي	-1133
▁عن	-1134
▁طا	-1135
▁داخل	-1136
as	-1137
ذه	-1138
ac	-1139
▁ڏٺو	-1140
▁شين	-1141
▁خوب	-1142
▁يقين	-1143
ڻيڪ	-1144
▁باري	-1145
سپ	-1146
▁كل	-1147
توڻيڪ	-1148
دس	-1149
▁سٺو	-1150
▁نٿو	-1151
ڪيشن	-1152
▁الي	-1153
▁مري	-1154
▁پاس	-1155
▁شاع	-1156
▁[	-1157
▁پير	-1158
▁بنيادي	-1159
فوظ	-1160
قيق	-1161
▁ھي	-1162
▁آز	-1163
ائر	-1164
ياب	-1165
ميت	-1166
▁مهر	-1167
▁وارن	-1168
▁هذا	-1169
▁کانپو	-1170
▁وز	-1171
▁سرو	-1172
▁وڃڻ	-1173
▁جيتوڻيڪ	-1174
نت	-1175
▁راب	-1176
▁محفوظ	-1177
▁توکي	-1178
يس	-1179
ريڪ	-1180
▁پلي	-1181
us	-1182
art	-1183
▁لائ	-1184
▁موڪل	-1185
▁طاقت	-1186
▁ڏن	-1187
▁قائم	-1188
ــــــــــــ	-1189
▁حس	-1190
▁ڪونه	-1191
om	-1192
▁گراه	-1193
▁موضوع	-1194
▁بار	-1195
▁پروگرام	-1196
▁آواز	-1197
▁st	-1198
▁يور	-1199
وٽ	-1200
▁b	-1201
بان	-1202
et	-1203
خوا	-1204
▁H	-1205
▁ڳول	-1206
حا	-1207
ٽري	-1208
وه	-1209
▁واقعي	-1210
اريو	-1211
ضحك	-1212
▁مين	-1213
▁ڊو	-1214
▁نئون	-1215
▁مُ	-1216
▁ڄڻ	-1217
▁سمجهي	-1218
▁شه	-1219
ڙهي	-1220
▁N	-1221
▁کڻي	-1222
▁معلومات	-1223
▁ابو	-1224
▁ايت	-1225
ion	-1226
▁شيء	-1227
▁وار	-1228
▁آء	-1229
▁هيو	-1230
▁آه	-1231
▁سگھ	-1232
▁هجڻ	-1233
▁ڪير	-1234
▁تعليم	-1235
▁ويندا	-1236
ليس	-1237
▁اسلامي	-1238
▁D	-1239
يڪل	-1240
▁شادي	-1241
▁حڪم	-1242
▁سخت	-1243
▁خريد	-1244
▁ايڪس	-1245
▁تحقيق	-1246
ريا	-1247
▁مطابق	-1248
سا	-1249
هار	-1250
▁آخري	-1251
خواست	-1252
▁محبت	-1253
▁اڪثر	-1254
▁فراهم	-1255
ارين	-1256
▁مقصد	-1257
▁پنھنجي	-1258
▁منصو	-1259
▁ڪور	-1260
▁خراب	-1261
▁اسڪول	-1262
▁G	-1263
ڻڻ	-1264
ماني	-1265
ٽس	-1266
گل	-1267
ريان	-1268
▁اميد	-1269
▁حد	-1270
▁گرو	-1271
▁کانپوءِ	-1272
▁جڳ	-1273
▁درخواست	-1274
▁حض	-1275
سٽر	-1276
▁تا	-1277
گو	-1278
▁معا	-1279
▁سگھي	-1280
▁نالي	-1281
▁سيڪڙو	-1282
▁L	-1283
▁سط	-1284
▁ٻارن	-1285
صل	-1286
▁چڪو	-1287
▁15	-1288
ريو	-1289
▁آزاد	-1290
▁ڀر	-1291
▁200	-1292
▁غلط	-1293
▁آهين	-1294
بح	-1295
▁اسٽي	-1296
▁سڃ	-1297
مم	-1298
اجي	-1299
رفت	-1300
دگي	-1301
▁گهڻي	-1302
▁18	-1303
ex	-1304
▁ٿيا	-1305
▁ٻيهر	-1306
طو	-1307
▁m	-1308
▁ڊاڪ	-1309
▁ميل	-1310
▁نام	-1311
▁آفي	-1312
▁ميم	-1313
ورا	-1314
▁فقط	-1315
▁ڪمي	-1316
▁مفت	-1317
▁انداز	-1318
id	-1319
▁سڄي	-1320
el	-1321
▁سائين	-1322
يائين	-1323
▁ڪپ	-1324
▁احس	-1325
▁روح	-1326
il	-1327
گار	-1328
ٽنگ	-1329
▁فيصلو	-1330
▁ڳاله	-1331
ليڪيشن	-1332
دان	-1333
▁پنج	-1334
شو	-1335
ائش	-1336
▁فلم	-1337
▁پاران	-1338
كر	-1339
▁اختيار	-1340
▁اض	-1341
."	-1342
▁نقص	-1343
عه	-1344
▁طريقي	-1345
▁خان	-1346
▁ڪهڙي	-1347
▁چڱ	-1348
▁عد	-1349
▁ٻولي	-1350
▁ذهن	-1351
▁ره	-1352
▁ٻڌايو	-1353
▁سائن	-1354
▁سياسي	-1355
▁رج	-1356
▁که	-1357
▁باقي	-1358
▁بنياد	-1359
▁حي	-1360
▁نوجو	-1361
▁کول	-1362
▁ڪڍ	-1363
▁انٽر	-1364
▁ڪافي	-1365
دارن	-1366
▁اڳتي	-1367
ow	-1368
تون	-1369
▁ڀا	-1370
▁مناسب	-1371
▁رست	-1372
▁ورتو	-1373
خخ	-1374
▁جدا	-1375
▁پٽ	-1376
عن	-1377
▁اچڻ	-1378
▁جهڙو	-1379
▁اڳو	-1380
▁مرڪ	-1381
▁انگري	-1382
يندا	-1383
رڪ	-1384
▁مقاب	-1385
▁عالمي	-1386
▁سُ	-1387
▁ڊاڪٽر	-1388
▁اك	-1389
ڊل	-1390
▁ملڪن	-1391
▁سطح	-1392
طن	-1393
لاجي	-1394
▁شيون	-1395
▁رياست	-1396
ورڊ	-1397
▁ايندڙ	-1398
زر	-1399
▁ميڊيا	-1400
▁دلچ	-1401
▁شاگر	-1402
▁اق	-1403
▁نس	-1404
▁ممڪن	-1405
▁اڻ	-1406
سٽي	-1407
▁قدم	-1408
▁تخ	-1409
جر	-1410
شم	-1411
▁ڏسو	-1412
▁نقصان	-1413
▁بيم	-1414
▁خوبص	-1415
▁وڊيو	-1416
▁رق	-1417
▁وج	-1418
▁ڳوٺ	-1419
▁تجر	-1420
يب	-1421
▁اڪائون	-1422
▁ويج	-1423
فتي	-1424
▁کين	-1425
▁سنگ	-1426
▁ڪٿي	-1427
▁فن	-1428
يتن	-1429
▁انج	-1430
▁چاهيو	-1431
▁ضرور	-1432
▁اون	-1433
▁ترتي	-1434
▁ڪاروبار	-1435
▁واحد	-1436
▁مه	-1437
چر	-1438
▁حال	-1439
فته	-1440
▁شروعات	-1441
▁السلام	-1442
هيل	-1443
▁مرح	-1444
▁f	-1445
▁اُن	-1446
▁لاڳ	-1447
نالاجي	-1448
▁ذاتي	-1449
▁مهرباني	-1450
▁(1	-1451
000	-1452
▁R	-1453
▁آمريڪي	-1454
oo	-1455
▁ٽيڪنالاجي	-1456
ad	-1457
▁مز	-1458
▁اعلان	-1459
▁طب	-1460
▁کن	-1461
▁اصلي	-1462
▁مسلم	-1463
اندي	-1464
شل	-1465
▁آءٌ	-1466
ڪشن	-1467
▁فارم	-1468
او	-1469
▁پڪ	-1470
ec	-1471
▁مضمون	-1472
▁صحت	-1473
▁مسئلو	-1474
حت	-1475
▁فع	-1476
▁گهڻ	-1477
▁حا	-1478
▁نمبر	-1479
▁ٽو	-1480
▁ترتيب	-1481
▁F	-1482
▁w	-1483
▁ڊر	-1484
▁E	-1485
▁بڻجي	-1486
گري	-1487
▁0	-1488
▁W	-1489
▁تعلق	-1490
▁تڪ	-1491
▁ماح	-1492
▁سسٽم	-1493
▁علم	-1494
▁مطال	-1495
▁انھن	-1496
▁ڪيون	-1497
اهڻ	-1498
▁12	-1499
زادي	-1500
ay	-1501
▁صدر	-1502
▁نش	-1503
▁تعم	-1504
▁تڏهن	-1505
▁انٽرني	-1506
الر	-1507
فاظ	-1508
▁حير	-1509
ريف	-1510
ئو	-1511
لات	-1512
▁هنڌ	-1513
▁حقيقي	-1514
▁ڊائون	-1515
▁ايئر	-1516
▁ڏنل	-1517
يندو	-1518
▁رپورٽ	-1519
▁لوڊ	-1520
▁ٽيم	-1521
▁وڻ	-1522
صوص	-1523
▁سٺي	-1524
▁گوگل	-1525
▁سون	-1526
▁يونيور	-1527
يه	-1528
انا	-1529
▁عورتن	-1530
ريءَ	-1531
▁صو	-1532
آن	-1533
▁مذه	-1534
دت	-1535
▁سپ	-1536
▁وڃن	-1537
▁طريقو	-1538
اتو	-1539
يلو	-1540
▁وض	-1541
▁ايل	-1542
▁تس	-1543
▁اسلام	-1544
▁ايپليڪيشن	-1545
ريب	-1546
▁موت	-1547
ستائين	-1548
▁انساني	-1549
ديم	-1550
▁ڳن	-1551
▁هين	-1552
▁ڪجي	-1553
اڻو	-1554
▁مشين	-1555
▁ڌر	-1556
▁چئي	-1557
▁سامان	-1558
▁پل	-1559
ڏو	-1560
▁الع	-1561
he	-1562
يابي	-1563
▁لڳو	-1564
▁ماءُ	-1565
▁ڏيکاري	-1566
ڪان	-1567
▁قوم	-1568
nd	-1569
▁1.	-1570
▁اخت	-1571
▁جيت	-1572
لت	-1573
ائيندو	-1574
▁ماحول	-1575
▁ڪردار	-1576
▁تعمير	-1577
هوري	-1578
▁رھ	-1579
▁دير	-1580
ٽرول	-1581
خي	-1582
انه	-1583
▁حفاظ	-1584
▁پورو	-1585
▁اِ	-1586
ou	-1587
▁لکڻ	-1588
▁ٺاهڻ	-1589
▁پيغ	-1590
▁پور	-1591
▁آپري	-1592
">	-1593
▁احساس	-1594
▁خوبصورت	-1595
▁11	-1596
▁اط	-1597
▁رفت	-1598
گه	-1599
▁بت	-1600
▁سماجي	-1601
ظم	-1602
▁نفس	-1603
ادي	-1604
▁موب	-1605
▁نڪ	-1606
▁سروس	-1607
▁پوليس	-1608
ميو	-1609
▁صنعت	-1610
▁متا	-1611
▁جديد	-1612
اط	-1613
▁جذ	-1614
▁ڪيس	-1615
▁30	-1616
▁پوري	-1617
▁پارٽي	-1618
▁هاي	-1619
ol	-1620
هاي	-1621
▁حصي	-1622
▁ڪرا	-1623
▁قومي	-1624
▁ڪهاڻي	-1625
رات	-1626
▁گذريل	-1627
▁حضرت	-1628
▁پوندو	-1629
▁روش	-1630
▁واضح	-1631
▁مساف	-1632
ـــــ	-1633
▁علاج	-1634
▁اڪائونٽ	-1635
بوط	-1636
▁تش	-1637
▁start	-1638
▁وق	-1639
احت	-1640
▁تبديلي	-1641
▁تيز	-1642
▁معني	-1643
▁ڀيرو	-1644
▁ٽن	-1645
▁بلڪل	-1646
مه	-1647
لاس	-1648
▁ده	-1649
ديق	-1650
زمي	-1651
▁نٿا	-1652
▁گراهڪن	-1653
▁حص	-1654
▁خاند	-1655
▁ايه	-1656
▁ٻيا	-1657
▁اکين	-1658
ag	-1659
▁dur	-1660
▁مرد	-1661
▁گفت	-1662
▁حوالي	-1663
ڪڻ	-1664
▁ڪوبه	-1665
<<	-1666
▁سف	-1667
يتون	-1668
▁وڌي	-1669
▁موجب	-1670
▁هيون	-1671
هيون	-1672
▁ميمبر	-1673
ھين	-1674
ot	-1675
كل	-1676
▁پاسي	-1677
▁سلس	-1678
▁عوام	-1679
▁وٺڻ	-1680
▁تاز	-1681
▁اعت	-1682
زائن	-1683
▁يورپ	-1684
حال	-1685
سڪ	-1686
مار	-1687
▁موجوده	-1688
▁آزادي	-1689
پن	-1690
▁هند	-1691
▁يار	-1692
▁قبول	-1693
▁مٿان	-1694
▁100	-1695
▁جها	-1696
▁•	-1697
▁ھڪڙو	-1698
▁ست	-1699
انس	-1700
▁ڪئ	-1701
ائيو	-1702
▁ڍ	-1703
▁پڙهي	-1704
▁ڏيندو	-1705
ڙين	-1706
▁عملي	-1707
ٽڻ	-1708
▁صاف	-1709
حان	-1710
▁گھٽ	-1711
▁عظيم	-1712
▁مقرر	-1713
▁ڪين	-1714
شڪ	-1715
▁آگ	-1716
▁آرٽ	-1717
خو	-1718
وووو	-1719
ارڻ	-1720
▁رح	-1721
▁سرگر	-1722
▁تعداد	-1723
▁گڏيل	-1724
▁رهڻ	-1725
▁لازمي	-1726
رار	-1727
▁نوجوان	-1728
ٺيان	-1729
▁اهڙو	-1730
شيا	-1731
▁باد	-1732
▁ڪيم	-1733
زل	-1734
▁حت	-1735
▁جلد	-1736
▁شرح	-1737
▁خرچ	-1738
الله	-1739
ter	-1740
▁عند	-1741
▁هاڻ	-1742
▁صبح	-1743
▁اھ	-1744
▁O	-1745
▁ڪنٽرول	-1746
▁له	-1747
▁انتظار	-1748
▁سج	-1749
▁ايف	-1750
▁مهيا	-1751
▁راندي	-1752
۔۔۔	-1753
▁سواءِ	-1754
▁رقم	-1755
▁پڙهڻ	-1756
▁نموني	-1757
▁مضبوط	-1758
ٽين	-1759
▁وسي	-1760
ٺا	-1761
▁إ	-1762
▁ترج	-1763
▁ِ	-1764
▁آفيس	-1765
▁انسٽ	-1766
▁پوسٽ	-1767
▁خواب	-1768
▁ڪريان	-1769
شنل	-1770
▁احت	-1771
▁خير	-1772
▁هلا	-1773
▁ڌيان	-1774
▁زندگيءَ	-1775
لع	-1776
▁بع	-1777
▁خوشي	-1778
▁يونيورسٽي	-1779
ته	-1780
▁لن	-1781
▁ڪهڙو	-1782
شق	-1783
مر	-1784
ابر	-1785
▁پنهنجن	-1786
▁لاڳاپ	-1787
ڳي	-1788
▁رکيو	-1789
▁پهچي	-1790
▁بينڪ	-1791
▁محمد	-1792
▁ڪاري	-1793
▁ذميو	-1794
▁شان	-1795
▁سگهون	-1796
خر	-1797
▁مڙ	-1798
▁ڪئين	-1799
▁بج	-1800
▁پرا	-1801
▁چا	-1802
نين	-1803
▁ديو	-1804
ext	-1805
پٽ	-1806
▁تہ	-1807
شر	-1808
دود	-1809
▁k	-1810
▁برط	-1811
▁منج	-1812
▁وزير	-1813
▁ذڪر	-1814
نه	-1815
تان	-1816
ليت	-1817
▁14	-1818
▁اَ	-1819
▁نيٽ	-1820
▁حم	-1821
▁مليو	-1822
▁اوزار	-1823
امو	-1824
▁پھ	-1825
▁وف	-1826
▁فائل	-1827
سٽري	-1828
▁سنڌي	-1829
كي	-1830
ثيت	-1831
▁روشني	-1832
▁فل	-1833
▁ٽر	-1834
▁to	-1835
▁ڪرڻو	-1836
راف	-1837
▁وش	-1838
▁آباد	-1839
▁حفاظت	-1840
▁واڌ	-1841
▁آرام	-1842
افت	-1843
▁فرق	-1844
▁ون	-1845
▁علاوه	-1846
ابت	-1847
قبل	-1848
▁جلدي	-1849
▁متاثر	-1850
▁چم	-1851
▁جنھن	-1852
▁ڪارڪر	-1853
▁جمع	-1854
▁هلي	-1855
▁شيءِ	-1856
▁معام	-1857
▁علائقي	-1858
ڪت	-1859
▁تصديق	-1860
▁ڪريون	-1861
يوٽر	-1862
▁مير	-1863
▁هيءَ	-1864
▁ڪارڪردگي	-1865
افٽ	-1866
ent	-1867
▁جھ	-1868
ائيل	-1869
▁وڪرو	-1870
ارڊ	-1871
▁هفتي	-1872
os	-1873
▁ضح	-1874
▁زال	-1875
قات	-1876
▁جمهوري	-1877
▁سرڪاري	-1878
▁ڪال	-1879
▁استاد	-1880
▁پُ	-1881
▁پيام	-1882
▁حيثيت	-1883
▁هزار	-1884
▁تنظيم	-1885
▁ڪلڪ	-1886
▁پهريان	-1887
▁لان	-1888
▁انق	-1889
▁ايو	-1890
▁ٺهيل	-1891
▁ڪراچي	-1892
▁جيڪڏھن	-1893
▁تنهنڪري	-1894
بد	-1895
مينٽ	-1896
داشت	-1897
اااااااا	-1898
▁گي	-1899
▁رسائي	-1900
▁زين	-1901
ونا	-1902
▁سنڀ	-1903
▁ڪارڊ	-1904
▁سيٽ	-1905
▁عرب	-1906
▁تجربو	-1907
▁؛	-1908
▁لك	-1909
▁انڊ	-1910
تال	-1911
▁مف	-1912
ڪيل	-1913
▁رستو	-1914
▁پڇيو	-1915
▁شكرا	-1916
چو	-1917
ers	-1918
ائيندي	-1919
ab	-1920
اله	-1921
▁ھڪڙي	-1922
ينڊ	-1923
▁يه	-1924
▁نشان	-1925
▁رفتار	-1926
▁ماڊل	-1927
الف	-1928
لاب	-1929
▁ٿيندا	-1930
▁موسم	-1931
ch	-1932
وز	-1933
▁غلطي	-1934
▁13	-1935
▁ايندو	-1936
ليف	-1937
▁in	-1938
ــــــــــــــــ	-1939
ميل	-1940
▁مهم	-1941
▁ڪمپيوٽر	-1942
▁عي	-1943
▁ونڊ	-1944
باري	-1945
▁جائ	-1946
▁2.	-1947
▁مڃ	-1948
▁فط	-1949
-1	-1950
im	-1951
▁25	-1952
ig	-1953
▁ليک	-1954
▁لاڳو	-1955
▁وجود	-1956
▁پال	-1957
شا	-1958
▁نوڪري	-1959
هايو	-1960
▁مالي	-1961
▁ميو	-1962
▁ماهر	-1963
▁شڪ	-1964
▁جاءِ	-1965
▁معاه	-1966
▁وه	-1967
بري	-1968
▁هڪڙي	-1969
▁ڏاڍو	-1970
▁گرفت	-1971
▁پيغام	-1972
▁ـ	-1973
▁وائر	-1974
▁اني	-1975
>>	-1976
گز	-1977
▁عدالت	-1978
▁مائ	-1979
▁ڪونهي	-1980
بلي	-1981
▁سائنس	-1982
ولو	-1983
▁ميز	-1984
▁ادب	-1985
▁مجمو	-1986
▁ڊالر	-1987
▁تصور	-1988
▁آءِ	-1989
▁امت	-1990
يءَ	-1991
▁وضاحت	-1992
▁انٽرنيٽ	-1993
▁انگريزي	-1994
▁اقت	-1995
▁پليٽ	-1996
▁ڳالهيون	-1997
سنگ	-1998
▁گم	-1999
هندي	-2000
▁قتل	-2001
ولت	-2002
▁نمي	-2003
حن	-2004
▁16	-2005
ائيندا	-2006
جون	-2007
▁دٻ	-2008
▁جوڙ	-2009
▁ويئي	-2010
▁گرمي	-2011
▁مستقبل	-2012
َن	-2013
ريم	-2014
ڪارڊ	-2015
▁اصول	-2016
▁رب	-2017
پس	-2018
دري	-2019
▁ول	-2020
▁بحث	-2021
▁پيرو	-2022
رحال	-2023
▁l	-2024
انڊ	-2025
قول	-2026
▁ٽران	-2027
▁نور	-2028
▁$	-2029
حه	-2030
and	-2031
▁17	-2032
▁حر	-2033
ٽيو	-2034
▁سلام	-2035
▁خواه	-2036
▁دفعو	-2037
▁بڻائي	-2038
▁سگهيو	-2039
▁يقيني	-2040
ريز	-2041
▁هدا	-2042
▁اسڪرين	-2043
▁شاء	-2044
▁ٿيندڙ	-2045
غان	-2046
▁گا	-2047
▁اڳيان	-2048
سه	-2049
باس	-2050
▁ويون	-2051
▁ولي	-2052
▁رهندو	-2053
ريت	-2054
ايل	-2055
ــــــ	-2056
▁ٻو	-2057
ئل	-2058
▁انتي	-2059
▁لکيو	-2060
▁=	-2061
▁ڪاميابي	-2062
▁ميڪ	-2063
▁گرم	-2064
▁سڃاڻ	-2065
▁ايمان	-2066
▁حسين	-2067
▁کو	-2068
▁ڪندڙن	-2069
▁ڪامياب	-2070
▁ههه	-2071
▁قيا	-2072
قوامي	-2073
▁ٿورو	-2074
ختي	-2075
لسل	-2076
▁ٻڌي	-2077
▁سگھو	-2078
صيل	-2079
▁انتظام	-2080
▁موبائل	-2081
جيب	-2082
راني	-2083
▁وزن	-2084
▁ايترو	-2085
▁لکي	-2086
▁امير	-2087
▁اظ	-2088
َر	-2089
▁زور	-2090
▁چند	-2091
▁ڪاب	-2092
▁سگهان	-2093
▁بخش	-2094
▁ٽرين	-2095
▁ابت	-2096
▁شڪل	-2097
▁اللي	-2098
ub	-2099
▁بنا	-2100
▁ڊگهي	-2101
▁بهرحال	-2102
▁قانوني	-2103
اڻن	-2104
▁امام	-2105
▁صورتحال	-2106
▁چئ	-2107
▁برابر	-2108
▁الاقوامي	-2109
21	-2110
▁سل	-2111
▁هال	-2112
▁اينڊ	-2113
▁ثابت	-2114
▁مخصوص	-2115
▁پيءُ	-2116
▁ايڊ	-2117
▁اگر	-2118
▁ريت	-2119
▁الن	-2120
ذي	-2121
لاق	-2122
▁قل	-2123
▁نسل	-2124
▁ڪوڊ	-2125
▁کانسو	-2126
▁اھي	-2127
▁برق	-2128
▁متع	-2129
▁شڪار	-2130
iv	-2131
▁ورڪ	-2132
▁U	-2133
▁تك	-2134
▁ناڪ	-2135
▁سوشل	-2136
▁ماري	-2137
▁مقابلي	-2138
▁پاب	-2139
▁هوس	-2140
▁منهنجا	-2141
▁جيستائين	-2142
وجود	-2143
▁ثق	-2144
▁جر	-2145
▁خوف	-2146
▁h	-2147
ڙيل	-2148
▁اڌ	-2149
ايان	-2150
▁ڪُ	-2151
غيره	-2152
▁حتى	-2153
▁مات	-2154
▁بورڊ	-2155
▁ڳولي	-2156
▁وفا	-2157
▁گري	-2158
▁خاندان	-2159
▁چونڊيو	-2160
▁صدي	-2161
▁حالتن	-2162
فه	-2163
▁آب	-2164
▁گل	-2165
▁عرصي	-2166
نٽ	-2167
▁گروپ	-2168
▁دوستن	-2169
▁چڪا	-2170
ation	-2171
▁اهڙا	-2172
▁سافٽ	-2173
▁انف	-2174
now	-2175
▁هڪڙو	-2176
انگ	-2177
▁آڪ	-2178
▁قط	-2179
▁تفصيل	-2180
قع	-2181
▁زمان	-2182
ئس	-2183
▁اڏ	-2184
▁ايندي	-2185
ڀر	-2186
ليق	-2187
▁چر	-2188
▁زي	-2189
▁X	-2190
▁افغان	-2191
▁تنهنجو	-2192
▁هيچ	-2193
زيشن	-2194
كك	-2195
▁سياست	-2196
▁سار	-2197
▁ڌرتي	-2198
مائي	-2199
▁دري	-2200
▁فلس	-2201
.1	-2202
▁زخ	-2203
▁ڳنڍ	-2204
▁لفظن	-2205
▁نگ	-2206
▁نڪري	-2207
▁گذاري	-2208
ڊا	-2209
▁سمنڊ	-2210
ندر	-2211
▁پوي	-2212
ul	-2213
▁ڳولا	-2214
بال	-2215
▁دعا	-2216
▁شم	-2217
▁توان	-2218
▁نص	-2219
▁طبي	-2220
اوي	-2221
▁يم	-2222
▁شاگردن	-2223
▁مارڪيٽنگ	-2224
▁کولڻ	-2225
ائيس	-2226
▁هيا	-2227
ڊڪٽ	-2228
کيون	-2229
▁ڳالھ	-2230
▁ملاقات	-2231
▁50	-2232
▁درو	-2233
ـــــــ	-2234
▁لم	-2235
▁نٿي	-2236
▁جڳهه	-2237
▁اضافي	-2238
▁باوجود	-2239
▁ماني	-2240
▁زماني	-2241
▁سوچيو	-2242
هرست	-2243
▁شام	-2244
▁نوٽ	-2245
تك	-2246
▁199	-2247
▁الف	-2248
▁حساب	-2249
▁بيماري	-2250
▁K	-2251
ap	-2252
▁آئين	-2253
▁اڇ	-2254
لينڊ	-2255
▁ايپل	-2256
ونه	-2257
▁فهرست	-2258
▁ويجهو	-2259
▁صلاحيت	-2260
▁ترين	-2261
▁جهڙوڪ	-2262
لك	-2263
▁اث	-2264
ir	-2265
ارٽ	-2266
▁درد	-2267
▁ملين	-2268
چه	-2269
ماغ	-2270
▁حياتي	-2271
▁#	-2272
سپي	-2273
▁آسم	-2274
▁خار	-2275
▁ٺيڪ	-2276
▁چوي	-2277
عات	-2278
▁هفت	-2279
▁فائدو	-2280
▁ملڻ	-2281
▁بلاگ	-2282
▁لائين	-2283
▁زبان	-2284
▁پنهنجا	-2285
em	-2286
يندي	-2287
عظم	-2288
▁فور	-2289
▁موڪ	-2290
▁منتقل	-2291
▁لاڳاپيل	-2292
▁ڪنداسين	-2293
▁مهين	-2294
▁وڌائڻ	-2295
▁سور	-2296
▁علائقن	-2297
هيه	-2298
▁مب	-2299
ڙيون	-2300
▁بادش	-2301
▁ڇوڪري	-2302
▁جهاز	-2303
▁سمجھ	-2304
▁باز	-2305
▁خال	-2306
▁سنڀال	-2307
▁سگھن	-2308
▁شاندار	-2309
▁ڀلي	-2310
▁ڇپ	-2311
▁فيس	-2312
▁چڪي	-2313
▁مختصر	-2314
▁ڪاروباري	-2315
▁عل	-2316
▁24	-2317
▁چاهيندا	-2318
▁نيوز	-2319
▁ميدان	-2320
ئا	-2321
▁o	-2322
▁عز	-2323
ولين	-2324
▁دماغ	-2325
طا	-2326
▁راندين	-2327
رز	-2328
▁ويڪ	-2329
ايت	-2330
ارتي	-2331
علي	-2332
▁دان	-2333
▁ڪلاڪ	-2334
جان	-2335
انيه	-2336
يز	-2337
ڪٽر	-2338
▁قد	-2339
▁2020	-2340
▁know	-2341
▁موسي	-2342
▁مهينن	-2343
وند	-2344
▁پک	-2345
▁بدر	-2346
▁انتهائي	-2347
هڪ	-2348
ينا	-2349
اما	-2350
▁دع	-2351
▁ٻڌائي	-2352
كه	-2353
ھر	-2354
▁اشت	-2355
عام	-2356
▁وص	-2357
▁درست	-2358
▁پريشان	-2359
ھنجو	-2360
▁رکو	-2361
▁ننڊ	-2362
▁رستي	-2363
▁قديم	-2364
▁پوئ	-2365
تح	-2366
▁تجز	-2367
بير	-2368
▁اٽ	-2369
▁پيڪ	-2370
▁مالڪ	-2371
▁ويئر	-2372
کان	-2373
▁کانسواءِ	-2374
▁مرا	-2375
▁لکيل	-2376
▁گذري	-2377
▁اکيون	-2378
نڊن	-2379
▁هئڻ	-2380
▁سڀئي	-2381
▁سامهون	-2382
▁الز	-2383
▁فعال	-2384
جد	-2385
▁غور	-2386
▁جڏھن	-2387
▁ساڳي	-2388
ئه	-2389
حاظ	-2390
▁بيشڪ	-2391
▁توانائي	-2392
پا	-2393
▁وڃو	-2394
▁وڏا	-2395
▁آپريشن	-2396
▁اهميت	-2397
▁اسپتال	-2398
▁نڪر	-2399
▁بجلي	-2400
▁شاعر	-2401
▁وغيره	-2402
▁راز	-2403
▁مقامي	-2404
▁بابا	-2405
▁چيزي	-2406
ess	-2407
▁نيا	-2408
▁ڌار	-2409
▁2019	-2410
ٽائي	-2411
▁جئين	-2412
▁رت	-2413
▁ڏو	-2414
▁موقعو	-2415
▁آمد	-2416
▁پين	-2417
▁منظر	-2418
▁دلچسپ	-2419
▁بيو	-2420
▁ويل	-2421
▁فض	-2422
▁ڪيائين	-2423
شتي	-2424
▁ساڻ	-2425
ِن	-2426
▁الص	-2427
▁بئن	-2428
ڏانهن	-2429
▁رڪارڊ	-2430
بيت	-2431
لز	-2432
▁g	-2433
▁।	-2434
▁نتيجي	-2435
▁دلچسپي	-2436
un	-2437
▁ڏيندا	-2438
▁بغير	-2439
▁ٺاهيو	-2440
▁برقرار	-2441
▁مگر	-2442
▁V	-2443
▁واپار	-2444
▁تقريبن	-2445
▁ڏاڍي	-2446
▁حيرت	-2447
▁سميت	-2448
▁آساني	-2449
▁صارفين	-2450
▁اعليٰ	-2451
▁بڻائڻ	-2452
▁آڻ	-2453
▁واس	-2454
▁اڃان	-2455
▁ميٽر	-2456
▁پوئتي	-2457
روف	-2458
▁شوي	-2459
سون	-2460
▁ڳالهائڻ	-2461
▁آڻڻ	-2462
▁پڙهن	-2463
▁آرٽيڪل	-2464
th	-2465
وت	-2466
▁بيڪ	-2467
▁لحاظ	-2468
مپ	-2469
▁n	-2470
▁بص	-2471
▁غريب	-2472
▁مسئلن	-2473
▁سمجهيو	-2474
ڙپ	-2475
▁ايڇ	-2476
▁مصنو	-2477
ڄي	-2478
تماد	-2479
ڙڻ	-2480
▁بھ	-2481
▁کل	-2482
▁روڊ	-2483
▁مسلسل	-2484
▁چاهيان	-2485
▁جام	-2486
▁محدود	-2487
▁ٽرانس	-2488
um	-2489
text	-2490
▁آفري	-2491
▁قسمن	-2492
حو	-2493
ٺل	-2494
▁قا	-2495
▁هيءُ	-2496
▁ايتري	-2497
▁ڏينھن	-2498
▁چيائين	-2499
▁اعتماد	-2500
ـــــــــ	-2501
يف	-2502
ايون	-2503
▁دين	-2504
▁2018	-2505
▁كان	-2506
▁سري	-2507
▁قبل	-2508
سس	-2509
▁شايع	-2510
▁3.	-2511
▁الڳ	-2512
▁اجلاس	-2513
ادر	-2514
▁سيل	-2515
دد	-2516
▁ايا	-2517
▁قرار	-2518
طه	-2519
▁قرض	-2520
▁تحفظ	-2521
▁ڪيترا	-2522
all	-2523
▁عا	-2524
▁مغ	-2525
▁ڊپ	-2526
▁تجرب	-2527
سنس	-2528
▁گهڻا	-2529
▁متح	-2530
ڪه	-2531
2.	-2532
ڪيو	-2533
▁کر	-2534
▁مشت	-2535
▁وائرس	-2536
مولي	-2537
كس	-2538
ٿر	-2539
▁يک	-2540
▁شوق	-2541
ائيڊ	-2542
يائي	-2543
▁فوج	-2544
ظر	-2545
▁^	-2546
▁زم	-2547
▁ارس	-2548
▁عبد	-2549
▁فٽ	-2550
▁عالم	-2551
▁بون	-2552
▁ادارن	-2553
▁مسافر	-2554
▁انسٽال	-2555
▁هُن	-2556
▁+	-2557
عودي	-2558
يندڙ	-2559
▁ڪندس	-2560
▁قدرتي	-2561
ينه	-2562
▁ڏکڻ	-2563
▁خالي	-2564
▁ڪنھن	-2565
▁مقدار	-2566
ثي	-2567
ڻن	-2568
▁هز	-2569
▁ڊائ	-2570
▁سواء	-2571
▁آخرڪار	-2572
▁i	-2573
▁جيان	-2574
▁حڪمت	-2575
▁منٽ	-2576
▁پائي	-2577
▁ڳولڻ	-2578
ڊيٽ	-2579
▁And	-2580
▁انص	-2581
▁عاد	-2582
▁ايراني	-2583
ٻي	-2584
▁وح	-2585
▁پوندي	-2586
وم	-2587
ارش	-2588
▁هجن	-2589
▁ويس	-2590
▁پلا	-2591
▁رابطو	-2592
▁عوامي	-2593
▁نظري	-2594
وف	-2595
وره	-2596
▁امان	-2597
ٿا	-2598
▁آس	-2599
▁جاچ	-2600
▁ٽيسٽ	-2601
▁يوم	-2602
▁مزاح	-2603
▁ننڍي	-2604
▁وب	-2605
▁اچو	-2606
▁ساڳيو	-2607
▁سماج	-2608
يراعظم	-2609
ڪم	-2610
▁اچن	-2611
▁مڇ	-2612
▁تصويرون	-2613
الن	-2614
▁جذب	-2615
رل	-2616
▁]	-2617
ااا	-2618
اءُ	-2619
لوي	-2620
▁اڪي	-2621
▁ناز	-2622
▁گڏو	-2623
▁جسماني	-2624
ڙيءَ	-2625
▁ليه	-2626
▁واٽ	-2627
▁امن	-2628
▁تحت	-2629
▁دعو	-2630
▁ذات	-2631
▁ورتي	-2632
ind	-2633
▁دوا	-2634
امه	-2635
▁الو	-2636
▁اظهار	-2637
ابي	-2638
▁يك	-2639
roid	-2640
▁سڏيو	-2641
▁مهيني	-2642
انھن	-2643
▁بق	-2644
▁نہ	-2645
بادي	-2646
▁قرآن	-2647
▁بم	-2648
▁ڳا	-2649
▁ڪسٽم	-2650
▁مذهبي	-2651
▁گھرجي	-2652
گن	-2653
▁سڌو	-2654
اڻڻ	-2655
▁طريق	-2656
▁مڙس	-2657
▁ويڊيو	-2658
▁هيڪ	-2659
▁چيڪ	-2660
▁بئنڪ	-2661
▁بندي	-2662
▁گڏجي	-2663
▁معياري	-2664
ut	-2665
ياد	-2666
▁سائ	-2667
▁عجيب	-2668
▁ساڳئي	-2669
▁ماڻھو	-2670
▁ڊوائيس	-2671
▁براي	-2672
▁واقع	-2673
▁پويان	-2674
▁re	-2675
▁مظ	-2676
جيٽل	-2677
۔۔۔۔	-2678
▁اوچ	-2679
▁حصن	-2680
▁شهري	-2681
▁امتحان	-2682
▁داخ	-2683
▁سلسلي	-2684
▁پروسي	-2685
▁ايجن	-2686
▁وَ	-2687
▁جنسي	-2688
▁ڪيترو	-2689
▁اسٽيشن	-2690
▁لائسنس	-2691
▁چنڊ	-2692
▁ابتدا	-2693
▁پول	-2694
▁ايئن	-2695
▁Android	-2696
▁وزيراعظم	-2697
▁وم	-2698
▁شرط	-2699
▁وات	-2700
▁احتجا	-2701
▁خامو	-2702
▁يس	-2703
▁مئي	-2704
ٽوبر	-2705
▁مارچ	-2706
▁شاگرد	-2707
گا	-2708
▁v	-2709
▁<<	-2710
▁لڪ	-2711
▁ڊيو	-2712
▁ڪرائي	-2713
▁وو	-2714
▁مجموعي	-2715
▁J	-2716
ميم	-2717
▁ارا	-2718
▁عشق	-2719
▁نمائ	-2720
حب	-2721
▁2017	-2722
▁منظم	-2723
▁مخالف	-2724
سته	-2725
گيري	-2726
▁ڏيندي	-2727
جم	-2728
▁بيت	-2729
▁جنم	-2730
▁لباس	-2731
▁21	-2732
▁40	-2733
▁فا	-2734
▁مافي	-2735
▁ملاز	-2736
▁کائڻ	-2737
▁منھنجي	-2738
ٽيءَ	-2739
▁com	-2740
▁ليکڪ	-2741
▁معمولي	-2742
ڊنگ	-2743
▁کار	-2744
▁اشارو	-2745
▁مسئلي	-2746
▁پراڻي	-2747
▁ارب	-2748
▁ڊجيٽل	-2749
▁مسلمان	-2750
ڪش	-2751
▁ساز	-2752
▁چڱي	-2753
▁منظور	-2754
▁مطابقت	-2755
▁ذميواري	-2756
لاد	-2757
▁مَ	-2758
▁ايندا	-2759
▁اڪيلو	-2760
▁بدران	-2761
ستاني	-2762
▁طريقا	-2763
▁شهي	-2764
▁هوا	-2765
▁ڪمري	-2766
oc	-2767
▁صد	-2768
▁ڪلو	-2769
▁پالي	-2770
▁دستياب	-2771
نديون	-2772
▁جهڙي	-2773
▁منزل	-2774
▁ڪورٽ	-2775
▁اسٽور	-2776
▁فرانس	-2777
▁تاريخي	-2778
کو	-2779
▁تجزيو	-2780
پشن	-2781
▁ٻڌڻ	-2782
▁انقلاب	-2783
▁نگر	-2784
▁ڪالي	-2785
▁جز	-2786
▁سَ	-2787
▁فرم	-2788
نج	-2789
▁آزم	-2790
▁ٽائي	-2791
▁آڪٽوبر	-2792
▁مشڪل	-2793
▁فڪر	-2794
▁مرڪز	-2795
▁گهربل	-2796
▁دستاوي	-2797
▁والدين	-2798
▁گرفتار	-2799
عل	-2800
▁خيلي	-2801
▁معنيٰ	-2802
ak	-2803
pt	-2804
▁سڌ	-2805
▁هه	-2806
▁الخ	-2807
▁مشك	-2808
▁اضاف	-2809
▁کليل	-2810
50	-2811
شمن	-2812
▁فري	-2813
st	-2814
رس	-2815
ليٽ	-2816
▁وڪي	-2817
▁سيڙپ	-2818
▁ممكن	-2819
▁ڪتابن	-2820
▁هندستان	-2821
▁آئ	-2822
▁ڪڍي	-2823
▁روشن	-2824
▁وانا	-2825
▁اسپين	-2826
▁سگهندا	-2827
کيه	-2828
پٽمبر	-2829
▁هوٽل	-2830
کر	-2831
▁>>	-2832
▁هيٺيان	-2833
▁ھئي	-2834
▁سيريز	-2835
ڻا	-2836
باب	-2837
▁اتر	-2838
▁حبي	-2839
▁اسيم	-2840
▁ڪابه	-2841
▁موٽي	-2842
▁شاعري	-2843
▁عليها	-2844
گير	-2845
▁جرم	-2846
▁تعريف	-2847
▁يورپي	-2848
▁ڪمپنين	-2849
▁بلو	-2850
▁گراهڪ	-2851
طف	-2852
▁سد	-2853
▁طريقن	-2854
▁يال	-2855
لڊ	-2856
▁ھر	-2857
▁ٿوري	-2858
▁سڪ	-2859
▁مدا	-2860
▁آل	-2861
▁جيئ	-2862
ov	-2863
="1	-2864
اره	-2865
▁پرين	-2866
▁خواهش	-2867
3.	-2868
فرن	-2869
▁ادي	-2870
▁طيب	-2871
▁۔۔۔	-2872
▁نيڪ	-2873
▁سينٽر	-2874
▁سيپٽمبر	-2875
▁فوجي	-2876
▁جائزو	-2877
▁اسم	-2878
▁سڄو	-2879
▁ڳالهين	-2880
▁زن	-2881
هيهي	-2882
▁موسيقي	-2883
▁مئ	-2884
▁رائ	-2885
▁سزا	-2886
▁سوچي	-2887
▁قومن	-2888
▁ڊزائن	-2889
▁ڪرائڻ	-2890
▁(2	-2891
▁باغ	-2892
▁فيه	-2893
▁حلوه	-2894
▁فطرت	-2895
▁پئسا	-2896
▁برو	-2897
▁راه	-2898
وال	-2899
▁چيز	-2900
نى	-2901
▁ٻُ	-2902
▁لنڪ	-2903
▁اتفا	-2904
▁نماز	-2905
▁جيترو	-2906
▁مشتمل	-2907
▁عنصر	-2908
▁انجني	-2909
▁دورو	-2910
▁واپسي	-2911
ندس	-2912
▁عذ	-2913
▁بونس	-2914
▁فوري	-2915
▁؟؟	-2916
▁گول	-2917
▁شاهه	-2918
▁ادائي	-2919
سك	-2920
لاءِ	-2921
▁فوٽو	-2922
▁اسيمبلي	-2923
▁خور	-2924
▁صور	-2925
▁چيني	-2926
if	-2927
امن	-2928
▁,,	-2929
ترين	-2930
▁فوت	-2931
▁ڏيئي	-2932
ائيندڙ	-2933
▁بود	-2934
▁شعر	-2935
▁ڀري	-2936
▁ڀيرا	-2937
▁آبادي	-2938
▁مھ	-2939
راهي	-2940
▁هدايت	-2941
▁چوندا	-2942
▁دائ	-2943
▁مور	-2944
▁محنت	-2945
▁رکندڙ	-2946
▁عه	-2947
▁هُو	-2948
▁خلاص	-2949
▁جنرل	-2950
وڙ	-2951
ائب	-2952
▁حما	-2953
▁نوان	-2954
▁تجو	-2955
▁تيل	-2956
▁روم	-2957
▁بحال	-2958
▁انعام	-2959
چار	-2960
▁چيم	-2961
▁آسمان	-2962
▁ترجمو	-2963
▁پهچائڻ	-2964
▁ساٿ	-2965
▁سست	-2966
▁ڀيٽ	-2967
▁چان	-2968
▁فقير	-2969
▁گيت	-2970
جڪ	-2971
▁ڪانه	-2972
▁اضافو	-2973
▁198	-2974
▁موٽر	-2975
▁المو	-2976
▁اخبار	-2977
ڊو	-2978
عتي	-2979
▁اڳي	-2980
▁مدي	-2981
عة	-2982
▁برطان	-2983
ڙڪ	-2984
▁~	-2985
▁تعا	-2986
▁ھون	-2987
▁رهندا	-2988
ھيو	-2989
▁ڪميون	-2990
▁سدائين	-2991
▁اذا	-2992
▁4.	-2993
▁دشمن	-2994
▁ساري	-2995
▁ميوز	-2996
▁سفارش	-2997
▁هينئر	-2998
▁ڪيتريون	-2999
آمد	-3000
▁وت	-3001
▁راح	-3002
▁وڏن	-3003
▁2016	-3004
▁ڀريل	-3005
گڏ	-3006
ack	-3007
▁آرڊر	-3008
▁ادبي	-3009
▁تنھن	-3010
▁سڃاڻپ	-3011
▁الج	-3012
▁سمجهڻ	-3013
▁تحريڪ	-3014
▁سياحت	-3015
سب	-3016
▁لل	-3017
:1	-3018
ضر	-3019
ُو	-3020
▁the	-3021
▁کڻڻ	-3022
رائيڊ	-3023
▁مذهب	-3024
▁گزار	-3025
ــــــــــ	-3026
بئي	-3027
عرف	-3028
▁رهندي	-3029
▁آگسٽ	-3030
▁قسمت	-3031
▁اداري	-3032
ثير	-3033
▁شما	-3034
▁عيس	-3035
▁ساٿي	-3036
▁صفحا	-3037
▁ڪاليج	-3038
ia	-3039
▁كله	-3040
▁مثل	-3041
▁برانڊ	-3042
▁ناڪام	-3043
يلن	-3044
▁197	-3045
▁پنا	-3046
▁آهنگ	-3047
▁انڪار	-3048
▁سگھجي	-3049
))	-3050
30	-3051
هيو	-3052
▁خاط	-3053
▁طلب	-3054
est	-3055
▁قص	-3056
▁ايشيا	-3057
▁انه	-3058
▁چڱو	-3059
▁رابطي	-3060
▁مسئلا	-3061
▁ونڊوز	-3062
▁سير	-3063
▁دڪان	-3064
▁گهري	-3065
▁حيران	-3066
ايه	-3067
▁ٻڌو	-3068
▁موڪليو	-3069
فيد	-3070
▁طال	-3071
▁ليش	-3072
▁ڊيزائن	-3073
▁انجنيئر	-3074
سمبر	-3075
▁عزت	-3076
▁پرڏي	-3077
▁موقعي	-3078
▁عزي	-3079
▁وسيع	-3080
▁حمايت	-3081
جهه	-3082
▁پَ	-3083
▁روس	-3084
▁مره	-3085
▁سوچڻ	-3086
▁مکيه	-3087
▁پٿر	-3088
▁نيست	-3089
▁ويهي	-3090
▁سموري	-3091
▁پروفي	-3092
pp	-3093
ٻئي	-3094
يورٽي	-3095
▁احتجاج	-3096
▁زر	-3097
▁آسٽ	-3098
▁زير	-3099
▁چور	-3100
▁فائلون	-3101
▁بغ	-3102
▁بک	-3103
▁حرف	-3104
▁ضاب	-3105
▁امڪان	-3106
پان	-3107
▁ائ	-3108
▁كم	-3109
اسان	-3110
▁ٻڌل	-3111
▁هوائي	-3112
▁سرگرمي	-3113
▁رض	-3114
▁سِ	-3115
ليون	-3116
▁هليو	-3117
▁مصنوعات	-3118
ry	-3119
▁۱	-3120
▁رهيون	-3121
▁جيل	-3122
▁تعلي	-3123
▁22	-3124
▁رسي	-3125
▁شيئر	-3126
▁ڪلاس	-3127
▁نومبر	-3128
▁گھڻو	-3129
ندگي	-3130
▁ناهن	-3131
▁ادائيگي	-3132
بول	-3133
صوصي	-3134
▁رين	-3135
▁هئس	-3136
▁هٿن	-3137
▁گاڏي	-3138
▁پکي	-3139
اسي	-3140
▁هار	-3141
▁ڪرو	-3142
▁زخمي	-3143
▁ماضي	-3144
▁جنوري	-3145
▁افغانستان	-3146
▁جبل	-3147
▁لڳا	-3148
▁ميان	-3149
▁ملڪيت	-3150
ٽيف	-3151
▁حاد	-3152
▁ڏها	-3153
▁ٽيون	-3154
▁سعودي	-3155
▁هيٺين	-3156
ib	-3157
▁اگ	-3158
▁؟؟؟	-3159
▁سنڏ	-3160
▁انصاف	-3161
يري	-3162
▁ڀلا	-3163
▁هع	-3164
▁هوء	-3165
▁گهو	-3166
▁ٻيون	-3167
▁ڪميشن	-3168
چا	-3169
▁مردن	-3170
▁سمجهان	-3171
قد	-3172
يڪشن	-3173
▁ڏانھن	-3174
▁عورتون	-3175
رسي	-3176
▁موٽ	-3177
▁درجي	-3178
▁لنڊن	-3179
▁خصوصي	-3180
▁اينڊرائيڊ	-3181
فرنس	-3182
پوري	-3183
▁آڻي	-3184
ائيءَ	-3185
▁ڪانهي	-3186
▁a	-3187
▁سيم	-3188
سيم	-3189
▁لسٽ	-3190
▁ترڪي	-3191
▁اپڊيٽ	-3192
ٽڪ	-3193
الم	-3194
▁خات	-3195
▁ماپ	-3196
▁نين	-3197
اهرين	-3198
▁اقتص	-3199
سوي	-3200
▁فرض	-3201
▁دهشت	-3202
▁ڪوئي	-3203
▁رانديگر	-3204
▁تازو	-3205
▁ڳالهائي	-3206
ـــــــــــ	-3207
▁r	-3208
پيڊيا	-3209
▁مقابلو	-3210
ڊن	-3211
▁شده	-3212
▁عنو	-3213
▁پيٽ	-3214
▁تلا	-3215
▁جاء	-3216
▁انجام	-3217
▁ملائي	-3218
::	-3219
مڻ	-3220
بادل	-3221
▁سلا	-3222
▁فصل	-3223
▁2021	-3224
▁تقريبا	-3225
▁هونديون	-3226
لوڊ	-3227
▁رکن	-3228
▁ڪرايو	-3229
▁ميمبرن	-3230
▁پراڊڪٽ	-3231
od	-3232
بة	-3233
ليه	-3234
ٽون	-3235
▁انك	-3236
▁شهرن	-3237
▁نواز	-3238
▁ويٺو	-3239
▁هست	-3240
▁اقول	-3241
▁نالا	-3242
▁ڪائون	-3243
ائس	-3244
قاب	-3245
ووو	-3246
▁شف	-3247
▁مسي	-3248
▁وفات	-3249
▁پٺيان	-3250
UM	-3251
زش	-3252
▁2-	-3253
▁سرا	-3254
▁ناول	-3255
▁يمكن	-3256
▁ڏکيو	-3257
▁تجويز	-3258
▁رجسٽر	-3259
▁آدم	-3260
▁نتيجو	-3261
▁تعالي	-3262
▁گزارش	-3263
تيون	-3264
▁وزار	-3265
▁سائيز	-3266
▁سمجهه	-3267
▁عمارت	-3268
ُن	-3269
خخخخ	-3270
▁ڏنا	-3271
ازن	-3272
ليا	-3273
▁احمد	-3274
▁گڏوگڏ	-3275
ew	-3276
عمل	-3277
▁ڪھ	-3278
هندو	-3279
▁ليگ	-3280
▁واقعا	-3281
▁منصوبي	-3282
▁ضحك	-3283
▁ڳالهايو	-3284
▁ڪَ	-3285
▁تبص	-3286
▁ڊسمبر	-3287
):	-3288
اتل	-3289
▁جنس	-3290
▁فيل	-3291
▁اوڀر	-3292
▁شرڪت	-3293
▁وفاقي	-3294
ريٽ	-3295
يييي	-3296
▁آيل	-3297
▁متبادل	-3298
iz	-3299
▁مول	-3300
▁واقف	-3301
▁پيروي	-3302
▁ضرورتن	-3303
،"	-3304
جين	-3305
▁عقي	-3306
▁قرب	-3307
▁جهان	-3308
▁مريض	-3309
▁ڏياري	-3310
▁اسرائي	-3311
▁خل	-3312
▁ير	-3313
ڪرين	-3314
▁متن	-3315
▁خطرن	-3316
▁سيني	-3317
▁نشاني	-3318
طان	-3319
▁اٺ	-3320
▁کڻ	-3321
▁كيف	-3322
▁وٺو	-3323
▁خريداري	-3324
▁ماش	-3325
▁پئجي	-3326
▁تعاون	-3327
قه	-3328
ايتي	-3329
▁الحال	-3330
▁اٿم	-3331
▁روپ	-3332
▁نصي	-3333
▁گلي	-3334
▁اُهي	-3335
▁باهه	-3336
▁مبار	-3337
▁يورو	-3338
▁تسليم	-3339
▁واريون	-3340
يوم	-3341
▁راءِ	-3342
▁تخليق	-3343
▁تڪليف	-3344
▁سلسلو	-3345
▁کائي	-3346
سري	-3347
▁26	-3348
▁دار	-3349
ائنات	-3350
▁اصلا	-3351
▁معاش	-3352
▁قيمتي	-3353
ct	-3354
بين	-3355
▁مزو	-3356
▁توڙي	-3357
▁معاملي	-3358
نن	-3359
يره	-3360
▁اهل	-3361
▁رسول	-3362
▁طاقتور	-3363
▁@	-3364
▁آھيان	-3365
▁بچائڻ	-3366
▁رانديون	-3367
▁چپ	-3368
▁سبق	-3369
▁قلب	-3370
▁هندو	-3371
دة	-3372
▁دعوي	-3373
▁عندي	-3374
▁هائو	-3375
▁گُ	-3376
▁پارڪ	-3377
▁پوائن	-3378
hat	-3379
▁الك	-3380
▁چوڌ	-3381
▁ڪجھه	-3382
▁شخصيت	-3383
▁سگهندو	-3384
▁ماڻهوءَ	-3385
▁مها	-3386
▁2015	-3387
▁شعور	-3388
ly	-3389
ـــــــــــــ	-3390
چن	-3391
سٽڪ	-3392
رافي	-3393
▁کيڏ	-3394
▁ايڊي	-3395
▁کاتي	-3396
▁اپريل	-3397
▁خدمتن	-3398
▁وزارت	-3399
▁گهرجن	-3400
▁اتح	-3401
▁فرد	-3402
▁ٽيبل	-3403
▁ڪيتري	-3404
▁اليڪٽر	-3405
▁سيڙپڪاري	-3406
ائپ	-3407
مممم	-3408
▁ڪمز	-3409
▁شهيد	-3410
▁پاليسي	-3411
قلي	-3412
▁ڀاءُ	-3413
▁مينهن	-3414
▁انو	-3415
▁ھاڻي	-3416
▁هزارين	-3417
ڇا	-3418
▁اڀ	-3419
▁ضم	-3420
▁روڪي	-3421
▁سرور	-3422
▁ابتدائي	-3423
اڻا	-3424
برد	-3425
زين	-3426
▁اند	-3427
▁هٿي	-3428
▁ڳڻ	-3429
▁ڪائنات	-3430
کن	-3431
راهه	-3432
بروري	-3433
ههههههه	-3434
▁پرڏيهي	-3435
▁ڊرائيو	-3436
اڻين	-3437
يڪار	-3438
▁ٽين	-3439
▁وسلم	-3440
▁تربيت	-3441
▁منصوبو	-3442
ڙيو	-3443
▁60	-3444
▁هت	-3445
▁حقن	-3446
▁سکڻ	-3447
▁غر	-3448
▁وڙ	-3449
▁عجب	-3450
▁هيس	-3451
▁چوٿ	-3452
▁کوٽ	-3453
▁آمدني	-3454
▁جرمني	-3455
▁تھ	-3456
▁نر	-3457
▁اطلا	-3458
▁تازه	-3459
▁اڳوڻي	-3460
فن	-3461
ist	-3462
ايد	-3463
▁سول	-3464
▁لين	-3465
▁مثبت	-3466
▁وجهي	-3467
▁شروعاتي	-3468
▁وينديون	-3469
▁ڪارپوري	-3470
گين	-3471
▁شد	-3472
▁خودڪار	-3473
4.	-3474
av	-3475
ain	-3476
▁فرو	-3477
▁عربي	-3478
▁تاب	-3479
▁قيد	-3480
▁اتفاق	-3481
▁جانور	-3482
▁سيڪيورٽي	-3483
▁نفرت	-3484
UMX	-3485
▁جدو	-3486
▁لاش	-3487
▁ڪوڙ	-3488
▁وڪيل	-3489
غذ	-3490
فرد	-3491
▁ڀڃ	-3492
تائي	-3493
▁يقينا	-3494
▁جانورن	-3495
شد	-3496
ant	-3497
هاري	-3498
▁مني	-3499
hi	-3500
یک	-3501
اهو	-3502
▁سوي	-3503
▁ورلڊ	-3504
▁خدمتون	-3505
طلاح	-3506
ٺيون	-3507
▁ڪاپي	-3508
▁اميدو	-3509
اڻيو	-3510
▁برس	-3511
▁حسن	-3512
▁هلائڻ	-3513
▁اغ	-3514
NUMX	-3515
▁يلا	-3516
▁ڇڏڻ	-3517
▁ضمان	-3518
▁هاءِ	-3519
▁گهرو	-3520
زح	-3521
▁تحري	-3522
▁انٽرو	-3523
ڪين	-3524
▁عيسي	-3525
▁هلندڙ	-3526
فق	-3527
ٽرن	-3528
▁194	-3529
▁لانچ	-3530
▁ڄاڻي	-3531
هل	-3532
هندا	-3533
▁اندروني	-3534
0.	-3535
5.	-3536
ect	-3537
▁لهي	-3538
▁افت	-3539
▁شراب	-3540
▁دوستي	-3541
▁يونين	-3542
og	-3543
▁ٿر	-3544
▁ڀڳ	-3545
▁بجي	-3546
▁ڊيم	-3547
▁پهتو	-3548
▁ٻاهرين	-3549
▁بادشاهه	-3550
▁پڌ	-3551
▁ڪئم	-3552
وب	-3553
ِين	-3554
ڻيون	-3555
▁كنت	-3556
▁هذه	-3557
▁ڪورونا	-3558
▁انٽرويو	-3559
ُون	-3560
▁196	-3561
▁ابي	-3562
▁اٿس	-3563
▁خلي	-3564
▁چارج	-3565
▁برداشت	-3566
▁تعليمي	-3567
op	-3568
ڇو	-3569
▁منفرد	-3570
▁لأ	-3571
▁بحالي	-3572
▁گفتگو	-3573
▁خاصيتون	-3574
ین	-3575
▁Y	-3576
ديت	-3577
ندڙن	-3578
▁فخر	-3579
▁وطن	-3580
▁ويڙ	-3581
▁پهر	-3582
▁سالي	-3583
▁ضحكت	-3584
▁لازم	-3585
▁مستح	-3586
▁فائيل	-3587
▁هڪٻئي	-3588
▁وساري	-3589
▁ٽرانسپورٽ	-3590
افظ	-3591
▁مؤ	-3592
▁مجب	-3593
▁تهيه	-3594
▁گهڻن	-3595
ٿو	-3596
▁28	-3597
آآآآ	-3598
▁الق	-3599
▁امري	-3600
▁e	-3601
عدو	-3602
▁أنا	-3603
▁ميڊ	-3604
▁دليل	-3605
▁علامت	-3606
▁چاهيون	-3607
▁فيبروري	-3608
▁ڪانفرنس	-3609
▁27	-3610
▁فه	-3611
▁الت	-3612
▁روي	-3613
▁ساهه	-3614
▁ماڻھن	-3615
▁دهشتگر	-3616
جل	-3617
فڪ	-3618
▁رخ	-3619
▁وِ	-3620
▁چيست	-3621
▁تجربي	-3622
▁ڪاررو	-3623
▁اصطلاح	-3624
▁معاملو	-3625
▁بڪ	-3626
▁منع	-3627
▁هيل	-3628
▁الزام	-3629
▁ڪارڪن	-3630
؟!	-3631
▁آءُ	-3632
▁سڌي	-3633
▁گنا	-3634
يائون	-3635
▁صفحي	-3636
▁ٽئين	-3637
▁پاور	-3638
ks	-3639
گاه	-3640
▁رُ	-3641
▁نكت	-3642
▁عالي	-3643
▁ضمانت	-3644
▁اندازو	-3645
▁متعارف	-3646
روز	-3647
▁چڪ	-3648
▁جهن	-3649
▁نظم	-3650
▁انتخ	-3651
▁هفته	-3652
▁رپ	-3653
▁ضل	-3654
ھيءَ	-3655
▁کني	-3656
▁پيچي	-3657
▁خيالن	-3658
▁اقتصادي	-3659
▁ايش	-3660
▁ملڪي	-3661
▁ٽيڪس	-3662
▁اولاد	-3663
ڏا	-3664
▁بدل	-3665
▁چيه	-3666
▁جوڙجڪ	-3667
▁معاهدي	-3668
لال	-3669
▁ٽڪ	-3670
▁con	-3671
▁جما	-3672
▁پهچڻ	-3673
▁نتيجا	-3674
▁وڌائي	-3675
▁روايتي	-3676
▁پوزيشن	-3677
lin	-3678
▁رئي	-3679
▁کلي	-3680
▁کپي	-3681
▁محبو	-3682
▁برطانيه	-3683
نگي	-3684
▁الش	-3685
▁پسندي	-3686
بس	-3687
▁In	-3688
▁هڻي	-3689
▁وڌو	-3690
▁طلاق	-3691
▁فران	-3692
▁سهولت	-3693
▁سائيڪل	-3694
▁روڪڻ	-3695
▁رھيو	-3696
▁سمجه	-3697
اصر	-3698
اھر	-3699
پنگ	-3700
▁مقص	-3701
▁حيات	-3702
▁نمون	-3703
▁پيئي	-3704
▁مجبور	-3705
ثن	-3706
ائيٽ	-3707
▁ڊيل	-3708
▁مرمت	-3709
▁ٽيڪن	-3710
▁کاڌي	-3711
عني	-3712
▁أن	-3713
▁برن	-3714
راهيم	-3715
▁اهڙن	-3716
▁زنده	-3717
▁انفرا	-3718
▁مرڪزي	-3719
▁يافته	-3720
▁اليڪشن	-3721
ورة	-3722
▁5.	-3723
▁لع	-3724
▁ين	-3725
▁يونٽ	-3726
ID	-3727
▁Z	-3728
ويئر	-3729
▁تڪر	-3730
▁سادي	-3731
▁ثقافت	-3732
▁ڏسندا	-3733
▁وڪيپيڊيا	-3734
اڙي	-3735
ندن	-3736
▁23	-3737
▁منح	-3738
▁گذر	-3739
▁کاڌو	-3740
▁وڃائي	-3741
▁انتظامي	-3742
پڻ	-3743
ear	-3744
▁عج	-3745
▁ڏٺ	-3746
▁الر	-3747
▁خون	-3748
▁قول	-3749
▁ليس	-3750
▁وير	-3751
▁ٿور	-3752
▁گلو	-3753
▁جوان	-3754
▁پيئڻ	-3755
▁ذريعو	-3756
▁سائيٽن	-3757
▁y	-3758
▁مٽ	-3759
ائشي	-3760
▁فتح	-3761
▁ناس	-3762
▁آھيو	-3763
▁ڏيان	-3764
▁ڪپڙا	-3765
▁نمائش	-3766
شيد	-3767
▁دم	-3768
▁كه	-3769
▁بندو	-3770
▁دعوت	-3771
▁زبرد	-3772
▁واقعن	-3773
▁پاڻيءَ	-3774
▁پڙهندڙ	-3775
201	-3776
ريس	-3777
▁وهي	-3778
▁اڳيون	-3779
▁سگھون	-3780
▁واپاري	-3781
▁هٽ	-3782
▁ڌو	-3783
▁گهرن	-3784
▁مزاحمت	-3785
▁سيک	-3786
▁ڊرائ	-3787
▁عنوان	-3788
ate	-3789
▁آڇ	-3790
▁غم	-3791
▁مك	-3792
▁فيڪ	-3793
▁والد	-3794
▁وڃان	-3795
بوت	-3796
▁لطف	-3797
▁حلوة	-3798
▁امداد	-3799
▁انتخاب	-3800
▁1-	-3801
▁بہ	-3802
▁هنا	-3803
▁پتو	-3804
▁عشان	-3805
▁هارڊ	-3806
▁بڻايو	-3807
▁انڊسٽري	-3808
99	-3809
▁شب	-3810
▁قبر	-3811
▁چئن	-3812
▁جادو	-3813
▁بيٽري	-3814
igh	-3815
عده	-3816
▁وڪ	-3817
ستر	-3818
چين	-3819
▁يح	-3820
▁مٿين	-3821
▁داخلا	-3822
▁ڪهڙا	-3823
▁افسوس	-3824
▁سرڪار	-3825
▁مصروف	-3826
▁ذميوار	-3827
az	-3828
one	-3829
▁درا	-3830
▁ريل	-3831
▁سونهن	-3832
▁نگراني	-3833
▁شڪر	-3834
▁لنگ	-3835
▁درجه	-3836
▁معاشي	-3837
دير	-3838
▁ڊز	-3839
قابل	-3840
▁سپر	-3841
▁مڇي	-3842
▁پنڌ	-3843
▁برقي	-3844
▁نڪتو	-3845
▁مبارڪ	-3846
▁مقصدن	-3847
▁ڏيندڙ	-3848
▁پابندي	-3849
li	-3850
▁</	-3851
▁اخر	-3852
▁رهو	-3853
خن	-3854
اهري	-3855
▁<<<	-3856
▁حمل	-3857
▁طرز	-3858
▁بدلي	-3859
▁وقتي	-3860
▁پروف	-3861
▁پريس	-3862
▁ڀارت	-3863
عين	-3864
▁مِ	-3865
▁شاه	-3866
▁شكل	-3867
▁موڊ	-3868
ريليا	-3869
▁دستاويز	-3870
--	-3871
qu	-3872
آم	-3873
زه	-3874
قسم	-3875
▁CO	-3876
▁بش	-3877
▁اٿي	-3878
▁متو	-3879
▁مصر	-3880
▁ٺاھ	-3881
ڊٽ	-3882
ڙهو	-3883
▁وڌڻ	-3884
▁امين	-3885
▁رکيل	-3886
▁سازي	-3887
▁اوچتو	-3888
▁کوليو	-3889
▁ابراهيم	-3890
▁سرگرمين	-3891
▁مهل	-3892
▁انجڻ	-3893
▁منٽن	-3894
▁چوري	-3895
نداسين	-3896
▁انٽرنيشنل	-3897
لائڻ	-3898
▁(1)	-3899
▁تعرف	-3900
▁عليكم	-3901
▁مذ	-3902
ندين	-3903
▁مرت	-3904
▁روسي	-3905
▁شعبي	-3906
▁ريلوي	-3907
▁پلاسٽڪ	-3908
▁ٻيٽ	-3909
▁پوک	-3910
▁آندو	-3911
▁اكيد	-3912
▁آهستي	-3913
▁روحاني	-3914
دل	-3915
مول	-3916
▁آغ	-3917
▁استح	-3918
▁سکيا	-3919
▁لائي	-3920
▁آفريڪا	-3921
▁بيٺو	-3922
▁ترجي	-3923
▁روزاني	-3924
تاب	-3925
▁الب	-3926
▁سادو	-3927
▁لائق	-3928
ــــــــــــــ	-3929
▁پچ	-3930
▁ارت	-3931
▁بلوچ	-3932
▁راضي	-3933
▁ارسال	-3934
▁رکندو	-3935
مح	-3936
يول	-3937
▁نيٺ	-3938
▁اسٽيٽ	-3939
22	-3940
▁احد	-3941
▁حرڪ	-3942
▁نار	-3943
▁پيپ	-3944
اريءَ	-3945
▁انگي	-3946
▁پنجن	-3947
▁ڪائونسل	-3948
**	-3949
وس	-3950
▁نج	-3951
▁سرب	-3952
▁هيك	-3953
▁ذهني	-3954
▁يقول	-3955
ce	-3956
ارڪ	-3957
وڪي	-3958
▁اور	-3959
▁چيف	-3960
▁ڊبل	-3961
▁عزيز	-3962
▁پاسو	-3963
▁اوھين	-3964
▁نيشنل	-3965
▁ڀرسان	-3966
io	-3967
يرن	-3968
ڙائي	-3969
▁بٽڻ	-3970
▁عقل	-3971
▁قال	-3972
▁نبي	-3973
▁ٽري	-3974
▁حملو	-3975
▁اتحاد	-3976
▁خبرون	-3977
▁آسٽريليا	-3978
اق	-3979
انڪ	-3980
▁باڪ	-3981
▁مٽي	-3982
▁نقل	-3983
▁ٻول	-3984
▁مسجد	-3985
▁پالڻ	-3986
▁چڙهي	-3987
▁بررسي	-3988
▁صنعتي	-3989
▁چوندو	-3990
▁تجارتي	-3991
1.	-3992
▁اٿئي	-3993
▁خطرو	-3994
▁کولي	-3995
▁ڪيان	-3996
▁انڊيا	-3997
▁سپورٽ	-3998
6.	-3999
9.	-4000
کا	-4001
ياس	-4002
املن	-4003
ديءَ	-4004
▁پها	-4005
▁باقا	-4006
▁دفعي	-4007
▁آفيسر	-4008
▁خاموش	-4009
▁درواز	-4010
▁منحصر	-4011
▁موڪلي	-4012
▁ميوزڪ	-4013
▁وٺندو	-4014
OS	-4015
▁ڪِ	-4016
تيءَ	-4017
▁فائر	-4018
▁ڪاوڙ	-4019
▁ڳنڍيل	-4020
یس	-4021
▁اسپي	-4022
▁رکون	-4023
▁منظوري	-4024
▁ڊائريڪ	-4025
▁ووٽ	-4026
▁اُهو	-4027
▁تنقي	-4028
▁اداڪار	-4029
صف	-4030
▁80	-4031
▁عرا	-4032
▁2014	-4033
▁تعجب	-4034
▁اڳواڻ	-4035
▁رجحان	-4036
▁پروفيسر	-4037
ڌا	-4038
ارم	-4039
▁ڌي	-4040
▁نرم	-4041
▁ادار	-4042
▁توقع	-4043
▁فورم	-4044
▁كلام	-4045
▁ماهي	-4046
▁هفتن	-4047
8.	-4048
طل	-4049
▁رم	-4050
▁ترس	-4051
▁چرچ	-4052
▁مرضي	-4053
▁روزانو	-4054
اده	-4055
▁سؤ	-4056
ائجي	-4057
▁بجا	-4058
▁بيهي	-4059
▁غلام	-4060
▁فنڪشن	-4061
▁مطالبو	-4062
▁چوڌاري	-4063
ity	-4064
▁جار	-4065
▁طول	-4066
▁عندك	-4067
▁مايو	-4068
▁ڇڏيا	-4069
▁سرٽيف	-4070
▁سوالن	-4071
▁معاملن	-4072
نل	-4073
▁رسم	-4074
▁لطي	-4075
▁جد	-4076
▁رول	-4077
▁طئي	-4078
▁چرا	-4079
ريٽري	-4080
▁وڊيوز	-4081
▁انسانن	-4082
▁ملازمن	-4083
ثار	-4084
▁تار	-4085
▁مقام	-4086
▁پيرن	-4087
▁تعارف	-4088
▁فٽبال	-4089
سيسي	-4090
ليءَ	-4091
▁ملو	-4092
▁ذريعن	-4093
▁ڪلاڪن	-4094
روم	-4095
,000	-4096
▁جرمن	-4097
▁مائي	-4098
▁موثر	-4099
▁ڪرين	-4100
▁:	-4101
جيڪٽ	-4102
▁هلڻ	-4103
▁ڀرو	-4104
▁اياز	-4105
▁چاهين	-4106
▁موجودگي	-4107
▁ايئرپورٽ	-4108
بتي	-4109
▁ڪاغذ	-4110
▁ارادو	-4111
▁علائقو	-4112
جھ	-4113
ريح	-4114
▁^^	-4115
▁حج	-4116
▁تاج	-4117
▁مدت	-4118
▁عذاب	-4119
▁مسيح	-4120
▁پلان	-4121
▁معيشت	-4122
▁ڪمزور	-4123
ies	-4124
اوت	-4125
عيد	-4126
ورڪ	-4127
▁ڪنڊ	-4128
توهان	-4129
▁ٻوليءَ	-4130
▁زو	-4131
▁مآ	-4132
▁بيل	-4133
are	-4134
▁(3	-4135
▁تت	-4136
▁لات	-4137
▁ماڳ	-4138
▁خاطر	-4139
▁سڃاتو	-4140
▁ٻولين	-4141
▁منصوبن	-4142
▁ناقابل	-4143
▁&	-4144
ڪلهه	-4145
▁شيءَ	-4146
▁عباد	-4147
▁اسٽيل	-4148
▁شهرين	-4149
▁ڀرپور	-4150
ook	-4151
▁انٽ	-4152
▁ظلم	-4153
▁2013	-4154
▁جميل	-4155
▁دوري	-4156
▁علمي	-4157
▁فائدا	-4158
▁وڌندڙ	-4159
▁اسٽوري	-4160
▁مائڪرو	-4161
▁ڊائونلوڊ	-4162
▁حب	-4163
▁سوم	-4164
▁ثقاف	-4165
▁قوت	-4166
▁اُتي	-4167
▁سڀاڻي	-4168
ميٽ	-4169
▁90	-4170
▁چُ	-4171
صيلي	-4172
▁کير	-4173
▁شريف	-4174
▁آھيون	-4175
▁خطرناڪ	-4176
▁St	-4177
▁بعض	-4178
▁شور	-4179
▁نعم	-4180
▁بيمار	-4181
▁تقريب	-4182
▁خارجي	-4183
▁الموضوع	-4184
ep	-4185
،،	-4186
روح	-4187
لاف	-4188
پل	-4189
▁نھ	-4190
شاني	-4191
▁قلم	-4192
▁بلڪه	-4193
زز	-4194
خلت	-4195
▁بنگ	-4196
▁وحد	-4197
▁پرت	-4198
▁ھئا	-4199
▁حاضر	-4200
▁سهول	-4201
▁فيشن	-4202
▁ٽريڪ	-4203
▁کنيو	-4204
▁متحرڪ	-4205
▁نهايت	-4206
▁ڪناري	-4207
▁زبردست	-4208
▁سيڪريٽري	-4209
▁ڪارروائي	-4210
لامه	-4211
▁سنجي	-4212
▁اصلاح	-4213
▁مسلمانن	-4214
ؤر	-4215
▁جاڳ	-4216
▁شڪا	-4217
▁نون	-4218
▁ويٺي	-4219
▁ياداشت	-4220
ٿان	-4221
▁لوڪ	-4222
▁مرڻ	-4223
▁يکي	-4224
▁تشدد	-4225
▁زمرو	-4226
▁ڄاڻڻ	-4227
▁خوراڪ	-4228
▁ڪئميرا	-4229
مس	-4230
▁رٿ	-4231
▁پٺ	-4232
▁ترا	-4233
▁ڊيٽ	-4234
▁بلند	-4235
▁دفعا	-4236
هههههه	-4237
▁مثالي	-4238
10	-4239
ive	-4240
oin	-4241
▁ميچ	-4242
ههههه	-4243
▁بندر	-4244
▁خطري	-4245
▁هستي	-4246
ئيشن	-4247
ميشن	-4248
▁آڏو	-4249
▁رھيا	-4250
▁ساڻس	-4251
▁فيصلي	-4252
▁هائوس	-4253
▁منتقلي	-4254
عيت	-4255
▁3-	-4256
لاقي	-4257
▁گھڻي	-4258
ھا	-4259
پاني	-4260
▁آلو	-4261
▁قبضو	-4262
▁وڌايو	-4263
▁هئاسين	-4264
▁ڪمپنيون	-4265
حة	-4266
ood	-4267
▁مک	-4268
▁لكن	-4269
▁نيوي	-4270
▁وصول	-4271
اااااا	-4272
▁ماهرن	-4273
▁حصيداري	-4274
▁۲	-4275
ھار	-4276
▁ڌن	-4277
▁نڪرڻ	-4278
▁هتان	-4279
▁ڊگهو	-4280
▁عبادت	-4281
سيءَ	-4282
▁جشن	-4283
▁شيخ	-4284
▁طوف	-4285
▁سرهندي	-4286
▁ڊزائين	-4287
ڱي	-4288
ادن	-4289
▁ورا	-4290
▁نظارو	-4291
▁Q	-4292
▁بدن	-4293
▁جوا	-4294
▁عرض	-4295
▁سپري	-4296
▁جولاءِ	-4297
▁انسانيت	-4298
حر	-4299
-19	-4300
▁سيد	-4301
▁حرڪت	-4302
▁ڪلام	-4303
▁بچائي	-4304
▁ملازم	-4305
ill	-4306
متي	-4307
هري	-4308
ائتو	-4309
تمند	-4310
▁ايج	-4311
▁لڳل	-4312
▁ڪمن	-4313
▁ميني	-4314
▁ڊيسڪ	-4315
▁هلائي	-4316
▁ڪميٽي	-4317
▁تنھنجي	-4318
حل	-4319
ويه	-4320
ڪارن	-4321
▁احتر	-4322
▁ناھي	-4323
▁قابليت	-4324
▁معاشري	-4325
ros	-4326
▁ڪٽ	-4327
▁بزر	-4328
▁ڀيڻ	-4329
▁ميون	-4330
▁ڪرڻي	-4331
▁دريافت	-4332
▁نوجوانن	-4333
ik	-4334
ونڊي	-4335
▁فيصل	-4336
▁معصو	-4337
"،	-4338
سط	-4339
قى	-4340
▁of	-4341
▁حوص	-4342
▁فين	-4343
▁چمڪ	-4344
▁چمڙي	-4345
▁ڪيئي	-4346
▁رساله	-4347
▁مرحله	-4348
cl	-4349
ريه	-4350
▁ورها	-4351
▁چيئر	-4352
▁ملندو	-4353
▁وآ	-4354
▁وع	-4355
▁بچڻ	-4356
ائونڊ	-4357
▁مراد	-4358
▁نسبت	-4359
▁پائڻ	-4360
▁ورهين	-4361
▁اسرائيل	-4362
فل	-4363
يج	-4364
▁·	-4365
day	-4366
داز	-4367
▁Aw	-4368
▁رن	-4369
▁انش	-4370
▁اکر	-4371
▁راس	-4372
▁ڊسپ	-4373
▁ڊول	-4374
▁اٽڪل	-4375
▁اطلاع	-4376
▁ريڊيو	-4377
▁نتيجن	-4378
▁پرواز	-4379
خب	-4380
▁چڙ	-4381
ائتي	-4382
▁پٽي	-4383
▁بازار	-4384
▁تباهه	-4385
▁فائدي	-4386
▁اعتبار	-4387
▁پاڪستاني	-4388
طر	-4389
▁ڊڄ	-4390
▁ڪارخ	-4391
▁شاعريءَ	-4392
up	-4393
ell	-4394
شين	-4395
▁ڄڻا	-4396
▁ڪنڌ	-4397
▁ڪيف	-4398
▁تياري	-4399
▁ڊومين	-4400
25	-4401
صب	-4402
كو	-4403
كره	-4404
▁جُ	-4405
▁کٽ	-4406
گراف	-4407
▁راي	-4408
▁سئو	-4409
▁شريڪ	-4410
▁قدرت	-4411
▁يوٽيو	-4412
▁ھا	-4413
▁مزا	-4414
▁مادي	-4415
▁يكون	-4416
▁تقرير	-4417
▁لڳندو	-4418
▁ٻڌائڻ	-4419
▁ٿينديون	-4420
ft	-4421
ربي	-4422
ارات	-4423
▁عيد	-4424
▁پبل	-4425
▁خصوص	-4426
▁رئيس	-4427
▁سختي	-4428
▁پڙهو	-4429
▁لڳائڻ	-4430
ذير	-4431
▁70	-4432
▁پارليا	-4433
ھڻ	-4434
ڪام	-4435
▁."	-4436
▁بگ	-4437
▁پد	-4438
able	-4439
▁زهر	-4440
▁ماء	-4441
▁مناف	-4442
▁پيرا	-4443
▁برسات	-4444
▁رياضي	-4445
▁ٽائيم	-4446
▁ڪنديون	-4447
▁إن	-4448
▁ذي	-4449
▁حصا	-4450
▁ٺهر	-4451
▁معاف	-4452
▁حالتون	-4453
▁پنھنجو	-4454
▁ڇڏيندو	-4455
:-	-4456
aw	-4457
▁كن	-4458
▁ڪلب	-4459
▁ورزن	-4460
▁ملندي	-4461
eb	-4462
▁لق	-4463
▁ڪوٽ	-4464
▁مريم	-4465
▁واقعو	-4466
▁تصويرن	-4467
▁پيامبر	-4468
ver	-4469
▁بلي	-4470
▁حدي	-4471
▁سوا	-4472
▁چيل	-4473
▁دولت	-4474
▁لطيف	-4475
▁ليڪن	-4476
▁هندي	-4477
▁اسٽاڪ	-4478
▁جماعت	-4479
▁سلامت	-4480
▁ننڍڙي	-4481
▁ٺاهيل	-4482
▁نمائندگي	-4483
ثريت	-4484
▁برف	-4485
▁معت	-4486
▁گرد	-4487
▁شرطن	-4488
▁شكله	-4489
▁صفحو	-4490
جع	-4491
▁پيماني	-4492
:)	-4493
ود	-4494
راض	-4495
زيد	-4496
سيت	-4497
▁ڀت	-4498
▁هذي	-4499
▁ننڍو	-4500
سٽريشن	-4501
▁سياري	-4502
7.	-4503
▁آي	-4504
▁فى	-4505
▁پگ	-4506
ight	-4507
لابي	-4508
▁تنگ	-4509
▁رھي	-4510
▁سرچ	-4511
▁پرن	-4512
▁ثبوت	-4513
▁توسان	-4514
▁رکندي	-4515
▁خاصيتن	-4516
يڪس	-4517
▁منك	-4518
▁نقطي	-4519
▁اليوم	-4520
▁تقسيم	-4521
▁ڏسندي	-4522
ang	-4523
ڊيشن	-4524
▁جمي	-4525
▁كتي	-4526
▁محبوب	-4527
دف	-4528
شنگ	-4529
ليو	-4530
ونگ	-4531
▁500	-4532
▁افز	-4533
▁بلاڪ	-4534
▁عملن	-4535
▁پريشاني	-4536
▁رانديگرن	-4537
ڏين	-4538
▁لغ	-4539
سوسي	-4540
▁>>>	-4541
▁گولي	-4542
▁مارجي	-4543
▁يوٽيوب	-4544
ـــــــــــــــ	-4545
قر	-4546
▁وائي	-4547
▁ڇڏيندا	-4548
▁th	-4549
▁ملن	-4550
▁ٽيو	-4551
▁بالغ	-4552
▁آخرين	-4553
▁تڪرار	-4554
▁خاصيت	-4555
▁پسنديده	-4556
▁پنهنجون	-4557
▁گهٽتائي	-4558
اهم	-4559
▁نع	-4560
▁sub	-4561
▁شنا	-4562
▁مشق	-4563
▁بازي	-4564
▁جوڙي	-4565
▁اثرات	-4566
▁تحليل	-4567
▁ترجيح	-4568
▁واسطو	-4569
▁پڙهيو	-4570
▁فرانسيسي	-4571
دى	-4572
VID	-4573
مارٽ	-4574
▁سوئ	-4575
▁لئه	-4576
▁معك	-4577
▁کنڊ	-4578
▁مهان	-4579
▁پاڙي	-4580
▁هيٺان	-4581
▁احترام	-4582
▁مددگار	-4583
▁آپريٽنگ	-4584
orm	-4585
ٽيس	-4586
▁سلي	-4587
▁هئو	-4588
▁حملي	-4589
▁مستقل	-4590
▁سگھوٿا	-4591
▁ڪهاڻيون	-4592
▁x	-4593
▁سارا	-4594
▁سهڻي	-4595
▁ويٺا	-4596
ore	-4597
شمي	-4598
ڙها	-4599
▁گنج	-4600
▁توجي	-4601
▁غائب	-4602
▁سپريم	-4603
▁متعلق	-4604
▁ڊرائيور	-4605
▁ڊائريڪٽر	-4606
سف	-4607
ُ،	-4608
يڪا	-4609
▁ڌم	-4610
▁رهجي	-4611
▁معاهدو	-4612
▁باس	-4613
▁فني	-4614
▁قلت	-4615
▁چاھ	-4616
▁ڪئن	-4617
▁اندو	-4618
▁مطالعو	-4619
▁برطانيا	-4620
ame	-4621
▁پيد	-4622
▁پيل	-4623
▁ڪچه	-4624
▁تخلي	-4625
▁صفائي	-4626
▁مهينا	-4627
▁يالله	-4628
غي	-4629
▁نان	-4630
▁اسڪو	-4631
▁حالا	-4632
▁مضحك	-4633
▁ندار	-4634
▁پرست	-4635
▁ڀريو	-4636
▁ڪارن	-4637
▁اسمارٽ	-4638
؟؟؟	-4639
گهه	-4640
▁وأ	-4641
▁بيا	-4642
▁تري	-4643
▁ٽرئ	-4644
▁پان	-4645
▁آپشن	-4646
▁اتان	-4647
▁انگيز	-4648
َ،	-4649
آباد	-4650
▁لال	-4651
▁عليك	-4652
▁الناس	-4653
▁ظاهري	-4654
▁تفصيلي	-4655
▁ثقافتي	-4656
▁مستحڪم	-4657
ژه	-4658
امين	-4659
هاها	-4660
▁فيك	-4661
▁مزد	-4662
▁مليا	-4663
▁چڪاس	-4664
▁ڪورس	-4665
▁مطالعي	-4666
▁ڀو	-4667
▁شھر	-4668
▁طرفن	-4669
▁اڳواڻن	-4670
▁سائنسي	-4671
▁پهچائي	-4672
▁يخ	-4673
▁جاي	-4674
▁شرم	-4675
▁گورن	-4676
▁هلندو	-4677
▁اسٽوريج	-4678
ُر	-4679
فون	-4680
▁يب	-4681
▁شير	-4682
▁فعل	-4683
▁پيج	-4684
▁چڪر	-4685
▁تيزي	-4686
▁صفحه	-4687
▁گهرج	-4688
▁تنقيد	-4689
▁ننڍڙو	-4690
▁نيٽورڪ	-4691
▁يڪ	-4692
▁مام	-4693
▁مفيد	-4694
▁ڏوهه	-4695
▁گهڙي	-4696
▁اڪثريت	-4697
▁پوائنٽ	-4698
▁انگريزن	-4699
▁سامونڊي	-4700
▁29	-4701
▁sp	-4702
سٽنگ	-4703
▁بنت	-4704
▁اعرف	-4705
▁لڳائي	-4706
▁پيپلز	-4707
▁ڏيکاريو	-4708
اين	-4709
نده	-4710
ٽيڊ	-4711
▁35	-4712
ثاني	-4713
▁and	-4714
▁خارج	-4715
▁خودم	-4716
▁فيلڊ	-4717
▁چوان	-4718
▁المهم	-4719
▁بدقسم	-4720
الا	-4721
▁31	-4722
▁فلو	-4723
▁پيچ	-4724
▁جانچ	-4725
▁ماهه	-4726
▁تبصرو	-4727
▁اشتهار	-4728
▁سرمائي	-4729
▁پروڊڪٽ	-4730
فٽ	-4731
ort	-4732
قدر	-4733
▁هڻ	-4734
▁احم	-4735
▁هاء	-4736
▁فارسي	-4737
▁ڌرتيءَ	-4738
آإ	-4739
شتو	-4740
لوب	-4741
▁خطي	-4742
▁دانش	-4743
▁سينٽ	-4744
▁لينڊ	-4745
▁خواهي	-4746
▁پياري	-4747
طع	-4748
ورس	-4749
بتني	-4750
▁صلي	-4751
▁ماس	-4752
▁ميشه	-4753
▁هٿيار	-4754
▁اخلاقي	-4755
▁ايوارڊ	-4756
▁پروسيسنگ	-4757
4)	-4758
60	-4759
ip	-4760
كتب	-4761
ويد	-4762
▁دؤر	-4763
▁ويچ	-4764
▁راهه	-4765
▁کاٻي	-4766
▁ٽرئفڪ	-4767
▁انھيءَ	-4768
لح	-4769
يٽ	-4770
ans	-4771
▁طو	-4772
▁اعز	-4773
▁سهي	-4774
▁وقف	-4775
▁پمپ	-4776
▁عادي	-4777
▁COVID	-4778
▁ڪريڊٽ	-4779
▁حڪمران	-4780
33	-4781
بيه	-4782
▁لح	-4783
▁بري	-4784
▁مزي	-4785
▁قيام	-4786
▁ماسڪ	-4787
▁نسخو	-4788
▁روانو	-4789
▁ٽرمين	-4790
▁فول	-4791
▁حيدر	-4792
▁اوندا	-4793
▁بحران	-4794
▁طوفان	-4795
▁مسافرن	-4796
,,	-4797
آر	-4798
ثو	-4799
ضا	-4800
ast	-4801
طين	-4802
ابيس	-4803
▁رڪا	-4804
▁سرم	-4805
▁انجي	-4806
▁ڪارڻ	-4807
▁چونڊن	-4808
▁ٻاهران	-4809
▁موبائيل	-4810
ard	-4811
▁ــ	-4812
▁مله	-4813
▁واچ	-4814
▁ھتي	-4815
▁خالص	-4816
▁منسو	-4817
▁ڌاري	-4818
▁موڪلڻ	-4819
▁توجيهي	-4820
اڪو	-4821
▁رڪ	-4822
▁195	-4823
▁امر	-4824
▁هيڊ	-4825
▁پرچ	-4826
▁گڏج	-4827
▁تضحك	-4828
▁والو	-4829
▁وڏين	-4830
▁ڪيسن	-4831
▁سيڪشن	-4832
سٽس	-4833
▁(2)	-4834
▁ڪرن	-4835
▁حضور	-4836
▁چينل	-4837
▁گرين	-4838
▁لڳايو	-4839
ff	-4840
آي	-4841
ڪرن	-4842
▁جين	-4843
▁ليڪ	-4844
▁پيء	-4845
▁سستي	-4846
▁هُئي	-4847
▁يسلم	-4848
▁ڀيري	-4849
▁اهڙيءَ	-4850
جهد	-4851
▁شنو	-4852
▁مشغ	-4853
▁نصب	-4854
▁ڊوڙ	-4855
▁2012	-4856
▁بنائڻ	-4857
▁سگهيا	-4858
▁انگلينڊ	-4859
▁جمهوريت	-4860
▁is	-4861
▁ڦر	-4862
▁محل	-4863
▁ٽيل	-4864
▁پرس	-4865
▁پلس	-4866
▁اپيل	-4867
▁صدار	-4868
▁عاشق	-4869
▁مسٽر	-4870
▁اوهين	-4871
▁سمارٽ	-4872
▁روزگار	-4873
بط	-4874
مئن	-4875
▁انس	-4876
▁صبر	-4877
▁كده	-4878
▁كذا	-4879
▁ڊسڪ	-4880
▁اسٽو	-4881
▁انها	-4882
▁بيٺل	-4883
▁چيئرمين	-4884
راج	-4885
شوف	-4886
هيءَ	-4887
▁همه	-4888
▁گيري	-4889
▁روايت	-4890
▁سيٽنگ	-4891
▁ڊيٽابيس	-4892
▁ايڪ	-4893
▁دفا	-4894
▁راڄ	-4895
▁فاط	-4896
▁ڪتي	-4897
▁وراڻيو	-4898
11	-4899
يڪو	-4900
▁ڀائ	-4901
▁ڪاٺ	-4902
▁2011	-4903
▁تڪڙو	-4904
▁كمان	-4905
▁معنى	-4906
▁هونئن	-4907
▁گذارڻ	-4908
▁اعتراض	-4909
40	-4910
▁ريم	-4911
▁ٿڌي	-4912
▁فلٽر	-4913
▁نالن	-4914
▁برائو	-4915
خذ	-4916
ھه	-4917
▁احب	-4918
▁2010	-4919
▁سهڪار	-4920
▁صحتمند	-4921
▁پيغمبر	-4922
▁ڪميونٽي	-4923
▁ڪيميائي	-4924
ne	-4925
كِ	-4926
ڍي	-4927
گذ	-4928
مڪن	-4929
▁بط	-4930
▁ٽڪر	-4931
▁اُها	-4932
▁ڪارپوريشن	-4933
يش	-4934
ايي	-4935
▁مرض	-4936
▁ديگر	-4937
▁كلهم	-4938
▁مليل	-4939
▁رهندڙ	-4940
▁جذباتي	-4941
▁ڪارڪنن	-4942
NT	-4943
لڪ	-4944
ائڊ	-4945
بيا	-4946
جنن	-4947
حيد	-4948
▁بُ	-4949
▁جست	-4950
▁مصي	-4951
▁ڏٺي	-4952
▁آڊيو	-4953
▁ڊسپلي	-4954
▁اهڙيون	-4955
شار	-4956
يعني	-4957
▁اھا	-4958
▁داري	-4959
▁دبئي	-4960
▁ضلعي	-4961
▁اسٽار	-4962
▁بچايو	-4963
▁وڏيون	-4964
▁چونڊڻ	-4965
▁ڇوڪرو	-4966
▁فارميٽ	-4967
▁ويڪسين	-4968
▁گنجائش	-4969
23	-4970
اٽ	-4971
ine	-4972
▁بقى	-4973
▁عرف	-4974
▁لما	-4975
▁وهن	-4976
▁ڏهن	-4977
▁البن	-4978
▁منھن	-4979
▁نوٽيس	-4980
▁هلندي	-4981
act	-4982
out	-4983
ايع	-4984
زون	-4985
فري	-4986
▁شاخ	-4987
▁دريا	-4988
▁گوشت	-4989
▁حوالو	-4990
▁ويندس	-4991
▁پيارا	-4992
▁ايڪسڪس	-4993
▁جدوجهد	-4994
قة	-4995
صير	-4996
هيز	-4997
▁آپ	-4998
▁روئي	-4999
▁شمار	-5000
▁ڪريم	-5001
▁ڪٿان	-5002
▁ماسٽر	-5003
▁پڙهائي	-5004
▁جوابدار	-5005
▁ماحولياتي	-5006
قق	-5007
urn	-5008
▁وک	-5009
ڻيءَ	-5010
▁فنڊ	-5011
▁پاي	-5012
▁گيا	-5013
▁احلى	-5014
▁وارين	-5015
▁مداخلت	-5016
▁صلاحيتن	-5017
عر	-5018
▁Ch	-5019
▁ٿڪ	-5020
▁ڇڪ	-5021
▁جتان	-5022
▁رنگن	-5023
▁پيون	-5024
▁تحرير	-5025
▁جيتري	-5026
الب	-5027
كون	-5028
ادري	-5029
ڪڏهن	-5030
▁يهم	-5031
▁پڇڻ	-5032
▁بجيٽ	-5033
▁روان	-5034
▁شكلك	-5035
▁صوبي	-5036
▁والا	-5037
▁خوشبو	-5038
▁طبيعت	-5039
😂😂	-5040
مود	-5041
▁سٽ	-5042
▁ڪول	-5043
▁آغاز	-5044
▁اکرن	-5045
▁جهڙا	-5046
▁شڪست	-5047
▁ڇڏين	-5048
▁رومان	-5049
▁سگهندي	-5050
آء	-5051
لل	-5052
ديه	-5053
▁الط	-5054
راهمي	-5055
▁ميلا	-5056
▁کيڏڻ	-5057
▁ڊيوائس	-5058
▁گهٽائڻ	-5059
▁رجسٽريشن	-5060
▁)	-5061
▁ھٿ	-5062
ميٽر	-5063
▁سلو	-5064
▁محت	-5065
▁ٻُڌ	-5066
▁گون	-5067
▁ھيٺ	-5068
▁ديگه	-5069
▁فيها	-5070
▁ڪپڙن	-5071
▁حرارت	-5072
▁فراهمي	-5073
حش	-5074
▁{	-5075
راحه	-5076
ٽيون	-5077
گاهه	-5078
▁صدا	-5079
▁ياح	-5080
▁منفي	-5081
▁توکان	-5082
▁دعويٰ	-5083
▁اختيارن	-5084
▁جَ	-5085
rypt	-5086
ريئر	-5087
▁اثا	-5088
▁اما	-5089
▁بزن	-5090
▁مند	-5091
▁ٽرم	-5092
▁ثاني	-5093
▁زياد	-5094
▁پيچيده	-5095
ost	-5096
▁اِهو	-5097
▁محتا	-5098
▁هنڌن	-5099
▁اندوز	-5100
▁ناممڪن	-5101
ial	-5102
ren	-5103
▁وڄ	-5104
▁غري	-5105
▁واه	-5106
▁ڌيءَ	-5107
▁تعليق	-5108
که	-5109
▁خز	-5110
▁عض	-5111
▁جوش	-5112
▁حاڪ	-5113
▁روڪ	-5114
▁عار	-5115
▁نجي	-5116
▁نيب	-5117
▁خاني	-5118
▁صدين	-5119
▁قدمن	-5120
▁لاهي	-5121
▁مطمئن	-5122
▁منعقد	-5123
▁ايسوسي	-5124
wit	-5125
▁Am	-5126
▁پِ	-5127
سنڌي	-5128
▁سچي	-5129
اريون	-5130
▁بهار	-5131
▁تعال	-5132
▁احوال	-5133
▁يقينن	-5134
▁پيڪيج	-5135
▁ڊاڪٽرن	-5136
▁ڪانگري	-5137
ڏن	-5138
ائز	-5139
فيئر	-5140
▁فاص	-5141
▁ھجي	-5142
▁2008	-5143
▁جيون	-5144
▁سورا	-5145
▁ادارو	-5146
▁تعلقات	-5147
▁نمايان	-5148
▁طريقيڪار	-5149
دك	-5150
مرا	-5151
ڻين	-5152
▁کم	-5153
▁ربي	-5154
▁شري	-5155
▁گلن	-5156
▁البت	-5157
▁انگن	-5158
▁كثير	-5159
▁ڌاتو	-5160
▁رکندا	-5161
▁سيڪنڊ	-5162
▁پيدائش	-5163
زد	-5164
چڪ	-5165
سمس	-5166
ليز	-5167
هند	-5168
▁سك	-5169
▁كر	-5170
▁ايٽ	-5171
▁ڄاڻو	-5172
▁احتيا	-5173
▁فلسفي	-5174
▁چوٿين	-5175
▁ڪيائون	-5176
تب	-5177
▁اِن	-5178
▁سکر	-5179
▁گيم	-5180
▁ٻانهن	-5181
▁چانهه	-5182
▁اختلاف	-5183
▁ملائيشيا	-5184
ob	-5185
قص	-5186
ust	-5187
▁((	-5188
▁وك	-5189
اسون	-5190
▁حقو	-5191
▁سنه	-5192
▁سروي	-5193
▁ليزر	-5194
▁روڪيو	-5195
▁تخليقي	-5196
▁فرمايو	-5197
▁منھنجو	-5198
▁وائ	-5199
▁ٽاپ	-5200
▁ڏهه	-5201
▁عراق	-5202
▁ميڪس	-5203
▁همين	-5204
▁اُنهن	-5205
▁رهائش	-5206
▁ٻارڙن	-5207
▁برنامه	-5208
▁رهنمائي	-5209
▁نفسياتي	-5210
▁هِن	-5211
▁پيئ	-5212
▁ايڏو	-5213
▁خوبي	-5214
▁سنئون	-5215
▁مهمان	-5216
▁ويجهي	-5217
▁پورهي	-5218
▁ڪرڪيٽ	-5219
▁برادري	-5220
طلع	-5221
▁بلڪ	-5222
▁تير	-5223
▁صفا	-5224
▁مدر	-5225
▁ٽيگ	-5226
▁ننڍن	-5227
▁گهمڻ	-5228
▁بجاءِ	-5229
▁ترميم	-5230
▁پوئين	-5231
رج	-5232
ome	-5233
▁4-	-5234
عليه	-5235
▁اخي	-5236
▁مذا	-5237
اصلات	-5238
▁ادري	-5239
▁جامع	-5240
▁عهدي	-5241
▁احسان	-5242
▁وسيلي	-5243
▁پيڪنگ	-5244
▁خاموشي	-5245
ضع	-5246
▁ہ	-5247
افر	-5248
▁جت	-5249
گاري	-5250
▁ماه	-5251
▁ڀلو	-5252
▁باڪس	-5253
▁حديث	-5254
▁پورا	-5255
▁چهري	-5256
▁ڪوٺي	-5257
▁اولين	-5258
▁واڌاري	-5259
▁پارٽين	-5260
▁ڪاريگر	-5261
بست	-5262
▁ڦا	-5263
▁امڪ	-5264
▁اگه	-5265
▁ريگ	-5266
▁فرين	-5267
▁مشاه	-5268
▁پورٽ	-5269
▁مرحلي	-5270
▁مشورو	-5271
▁وسيلن	-5272
▁اقتدار	-5273
▁استحڪام	-5274
یم	-5275
her	-5276
تاح	-5277
لون	-5278
▁لآ	-5279
اهين	-5280
▁دوم	-5281
▁فوٽ	-5282
▁ڏند	-5283
▁تلاش	-5284
▁كتير	-5285
▁متان	-5286
▁يضحك	-5287
▁ايجنٽ	-5288
▁تجربن	-5289
▁جاپان	-5290
▁وچولي	-5291
▁ڪسٽمر	-5292
▁ميڊيڪل	-5293
▁پهچايو	-5294
▁انفرادي	-5295
ru	-5296
شپ	-5297
ide	-5298
ايا	-5299
سائ	-5300
▁سڳ	-5301
▁نب	-5302
ious	-5303
▁داد	-5304
▁غذا	-5305
▁ڪنگ	-5306
▁سوراخ	-5307
▁انگريز	-5308
▁بھترين	-5309
▁برطانوي	-5310
18	-5311
24	-5312
اءَ	-5313
دام	-5314
ذيب	-5315
ناڪ	-5316
▁پت	-5317
▁جنت	-5318
▁ڀان	-5319
▁ڪشم	-5320
▁اعظم	-5321
▁پذير	-5322
▁چئبو	-5323
منهنجي	-5324
▁ڀارتي	-5325
▁منجهان	-5326
خه	-5327
عدي	-5328
طيني	-5329
ورتي	-5330
▁سچو	-5331
▁منو	-5332
▁ٻان	-5333
▁ڪتو	-5334
▁فريم	-5335
▁هاري	-5336
▁پينل	-5337
▁ڪيبل	-5338
▁سروسز	-5339
▁پنجاب	-5340
▁رياستن	-5341
▁باقاعده	-5342
▁پارليامينٽ	-5343
مع	-5344
فين	-5345
بائي	-5346
حالي	-5347
سيون	-5348
▁ذخي	-5349
▁عطا	-5350
▁مشا	-5351
▁پاپ	-5352
▁گريڊ	-5353
▁خانگي	-5354
▁مرحلن	-5355
▁تنظيمن	-5356
▁داستان	-5357
▁ڪنيڪشن	-5358
▁آزاديءَ	-5359
خط	-5360
اها	-5361
▁تد	-5362
ڪيٽن	-5363
▁pro	-5364
▁دلي	-5365
▁معذ	-5366
indhi	-5367
▁سولو	-5368
▁ويٺل	-5369
▁اصولن	-5370
▁خاتمي	-5371
▁واعدو	-5372
▁سمجهاڻي	-5373
CL	-5374
َه	-5375
ڀي	-5376
سيد	-5377
▁ex	-5378
▁ڌڪ	-5379
▁ماٺ	-5380
▁پڇي	-5381
▁گير	-5382
▁المل	-5383
▁تسلم	-5384
▁جاني	-5385
▁واهه	-5386
▁ننڍپڻ	-5387
▁دروازو	-5388
▁بدقسمتي	-5389
eg	-5390
▁j	-5391
▁عق	-5392
▁بچي	-5393
▁خشڪ	-5394
▁منه	-5395
▁ناچ	-5396
▁فطري	-5397
▁today	-5398
▁الائي	-5399
▁رڪاوٽ	-5400
▁عبدال	-5401
▁ڏيکارڻ	-5402
▁پالڻھار	-5403
▁پروجيڪٽ	-5404
pl	-5405
لائ	-5406
يوي	-5407
▁آفت	-5408
▁رشت	-5409
▁شدت	-5410
links	-5411
▁راڻي	-5412
▁مارڻ	-5413
▁سالگر	-5414
▁سردار	-5415
▁مشغول	-5416
▁پابند	-5417
▁استادن	-5418
▁اسڪولن	-5419
▁تنھنڪري	-5420
▁ڪانگريس	-5421
▁ايپليڪيشنن	-5422
ذف	-5423
سٽن	-5424
▁Next	-5425
▁سيلز	-5426
▁سگنل	-5427
▁لکين	-5428
▁ٻيڙي	-5429
▁انتها	-5430
▁حادثي	-5431
▁لاهور	-5432
▁عيسائي	-5433
19	-5434
عب	-5435
ens	-5436
ليش	-5437
▁ch	-5438
▁عث	-5439
▁ٻج	-5440
▁پڄ	-5441
▁سڄڻ	-5442
▁کسي	-5443
▁پهلو	-5444
▁اڪيلي	-5445
▁افزائي	-5446
▁خوشيءَ	-5447
▁يادگار	-5448
▁سرٽيفڪيٽ	-5449
5)	-5450
67	-5451
▁دوز	-5452
▁فات	-5453
▁لاڪ	-5454
▁تقول	-5455
▁ڪامي	-5456
▁افيئر	-5457
▁قيامت	-5458
▁پيشڪش	-5459
آل	-5460
ail	-5461
ھون	-5462
▁45	-5463
▁شئي	-5464
▁ٿيس	-5465
▁اكثر	-5466
▁هيلو	-5467
▁شڪايت	-5468
▁ڀروسو	-5469
َـ	-5470
است	-5471
▁هِ	-5472
▁وڇ	-5473
▁ٻر	-5474
▁ٿل	-5475
club	-5476
▁Pre	-5477
▁لاگ	-5478
▁اردو	-5479
▁شعبن	-5480
▁مصيبت	-5481
▁معتبر	-5482
▁خانداني	-5483
اڊا	-5484
سپل	-5485
ڊمي	-5486
▁نت	-5487
▁باا	-5488
▁ماي	-5489
▁اڏام	-5490
▁سارو	-5491
▁فعلا	-5492
▁ڏسان	-5493
▁معافي	-5494
▁نشاند	-5495
▁چاھيو	-5496
▁فيڪٽري	-5497
▁تبديليون	-5498
نيت	-5499
يڪر	-5500
▁6.	-5501
اڻون	-5502
گوار	-5503
▁انح	-5504
▁روا	-5505
▁مدل	-5506
▁پڙه	-5507
▁امزح	-5508
▁جهنگ	-5509
▁رشتي	-5510
▁اخلاق	-5511
▁سياحن	-5512
▁ڊبليو	-5513
▁کانئس	-5514
clublinks	-5515
ههههههههههههه	-5516
ڊس	-5517
خلص	-5518
▁le	-5519
▁؟!	-5520
▁جج	-5521
▁دُ	-5522
راحي	-5523
▁بيگ	-5524
▁خلق	-5525
▁لله	-5526
▁واح	-5527
▁وڳي	-5528
▁چئو	-5529
▁پنھن	-5530
▁ڪرسمس	-5531
▁ڪينسر	-5532
▁گهڻيون	-5533
▁ڳالهائيندي	-5534
ev	-5535
فس	-5536
ڊين	-5537
▁بز	-5538
▁ڀڄ	-5539
▁عرو	-5540
▁نڪي	-5541
▁واب	-5542
▁ٿڌو	-5543
▁ڇهه	-5544
▁آئوٽ	-5545
▁بران	-5546
▁بوتل	-5547
▁تازي	-5548
▁طبقي	-5549
▁عيسى	-5550
▁وڪري	-5551
▁يعطي	-5552
▁ادارا	-5553
▁اسٽيج	-5554
▁بيوقو	-5555
▁تبديلين	-5556
▁ٽا	-5557
▁رحم	-5558
▁لهر	-5559
يارين	-5560
▁عرصو	-5561
▁متفق	-5562
▁هڪدم	-5563
age	-5564
end	-5565
زيل	-5566
ڪڙي	-5567
▁لش	-5568
▁آيس	-5569
▁موس	-5570
▁ڇڪڻ	-5571
witter	-5572
▁نظرات	-5573
▁ملازمت	-5574
▁سالياني	-5575
▁£	-5576
▁ی	-5577
صور	-5578
كين	-5579
▁تُ	-5580
▁چن	-5581
دانن	-5582
▁درج	-5583
▁رعا	-5584
▁ندي	-5585
▁چيٽ	-5586
▁اھڙي	-5587
▁هليا	-5588
▁ٽڪيٽ	-5589
▁گراف	-5590
▁ترسيل	-5591
▁محترم	-5592
▁پراڻو	-5593
▁پيارو	-5594
▁ٽرمينل	-5595
ڱو	-5596
منٽ	-5597
▁هج	-5598
▁عمو	-5599
▁همت	-5600
▁ڏور	-5601
▁ڪلي	-5602
▁روزي	-5603
▁طبعا	-5604
▁غربت	-5605
▁هرڪو	-5606
▁ماريو	-5607
▁متحده	-5608
▁مغربي	-5609
].	-5610
ڳا	-5611
ass	-5612
كات	-5613
▁سٺ	-5614
انين	-5615
▁بقا	-5616
▁منط	-5617
▁گئس	-5618
گرافي	-5619
▁آھين	-5620
▁مھين	-5621
▁نازڪ	-5622
▁پئسو	-5623
▁ڪيترين	-5624
ئت	-5625
وَ	-5626
ريد	-5627
وين	-5628
يڪي	-5629
▁هَ	-5630
قائي	-5631
▁اجل	-5632
▁سني	-5633
▁يهو	-5634
▁ڪتن	-5635
▁لکيا	-5636
▁ڪڏھن	-5637
▁الحين	-5638
▁افتتاح	-5639
▁ميزبان	-5640
▁پاسورڊ	-5641
رفي	-5642
سڪر	-5643
هوا	-5644
الفت	-5645
هارن	-5646
▁اخو	-5647
▁معن	-5648
▁جناب	-5649
▁سببن	-5650
▁قطار	-5651
▁قلبي	-5652
▁XNUMX	-5653
دات	-5654
▁اوت	-5655
▁لچڪ	-5656
▁چاپ	-5657
▁رهيس	-5658
▁مئني	-5659
▁وٽان	-5660
▁اسڪين	-5661
▁تعاليٰ	-5662
▁ٽريننگ	-5663
▁رازداري	-5664
ايش	-5665
يام	-5666
▁حُ	-5667
▁گن	-5668
▁سٺا	-5669
▁موڙ	-5670
▁فائن	-5671
▁نصيب	-5672
▁ٽيلي	-5673
▁پرور	-5674
▁دروازي	-5675
▁نشاندهي	-5676
▁هوڏانهن	-5677
TE	-5678
ضل	-5679
راء	-5680
▁بدي	-5681
▁جهي	-5682
▁ديس	-5683
▁مٺي	-5684
▁گهي	-5685
▁ايپس	-5686
▁رائع	-5687
▁چهرو	-5688
▁ڪمال	-5689
▁ڪيڏو	-5690
▁گلاس	-5691
▁فرمان	-5692
▁تنهنجا	-5693
ید	-5694
ميد	-5695
گان	-5696
hats	-5697
لائن	-5698
▁آيت	-5699
▁سلط	-5700
▁سٽي	-5701
▁رستن	-5702
▁سوين	-5703
▁ماڻي	-5704
▁ٿورا	-5705
▁ڳائڻ	-5706
▁جستجو	-5707
▁قيمتون	-5708
ug	-5709
ews	-5710
ock	-5711
سار	-5712
ميه	-5713
▁رَ	-5714
▁ٽپ	-5715
سلام	-5716
▁تخت	-5717
▁عين	-5718
▁ڀٽو	-5719
اليشن	-5720
▁انٽي	-5721
▁فاطمه	-5722
▁خوفناڪ	-5723
▁مخالفت	-5724
eh	-5725
ud	-5726
ana	-5727
اعت	-5728
▁ڌا	-5729
▁اجن	-5730
▁لكم	-5731
▁رپيا	-5732
▁پاسخ	-5733
▁معصوم	-5734
▁جاپاني	-5735
بع	-5736
▁●	-5737
قيه	-5738
يلت	-5739
ڊيم	-5740
▁مٺ	-5741
،000	-5742
اپور	-5743
ھائي	-5744
▁پيس	-5745
▁پُڇ	-5746
▁ڪٽن	-5747
▁ايڏي	-5748
▁رواج	-5749
▁سيشن	-5750
▁چنين	-5751
▁ڪوڪي	-5752
▁محروم	-5753
▁پرائم	-5754
▁پليئر	-5755
▁ڪالهه	-5756
▁مجموعو	-5757
12	-5758
ra	-5759
فع	-5760
our	-5761
▁Pl	-5762
▁زيا	-5763
▁عبر	-5764
▁هيه	-5765
▁ورج	-5766
▁شمسي	-5767
▁كلها	-5768
▁خيالي	-5769
▁قيادت	-5770
▁نهاري	-5771
▁چئلين	-5772
▁تصويري	-5773
▁چونڊيل	-5774
▁ڇوڪرين	-5775
80	-5776
ذب	-5777
وق	-5778
▁Al	-5779
▁نڀ	-5780
▁iOS	-5781
▁بست	-5782
▁بني	-5783
▁بور	-5784
▁سدا	-5785
▁فحش	-5786
▁هوم	-5787
ختيار	-5788
▁خطاب	-5789
▁شهرت	-5790
▁فلمن	-5791
▁نارا	-5792
▁ڪانگ	-5793
▁گاڏين	-5794
▁لائبري	-5795
▁Twitter	-5796
ok	-5797
أي	-5798
▁ۈ	-5799
پار	-5800
▁1:	-5801
▁2:	-5802
▁32	-5803
▁سجا	-5804
▁صلى	-5805
▁هير	-5806
▁وصل	-5807
▁احنا	-5808
▁اديب	-5809
▁حافظ	-5810
▁حرام	-5811
▁صحبت	-5812
▁نفسي	-5813
▁ويزا	-5814
▁برآمد	-5815
▁عارضي	-5816
▁چونڊي	-5817
▁ڪمائي	-5818
▁خداوند	-5819
▁پهرئين	-5820
▁پائيدار	-5821
وڌ	-5822
تكم	-5823
سٽل	-5824
▁ھل	-5825
▁مندر	-5826
▁انسٽاليشن	-5827
کس	-5828
منت	-5829
▁ارو	-5830
▁مرو	-5831
▁وٺن	-5832
▁ٽتو	-5833
▁ايرا	-5834
▁ٽرمپ	-5835
▁نمونو	-5836
▁تحياتي	-5837
▁ڏنائين	-5838
بخ	-5839
لاء	-5840
▁sh	-5841
▁ٻا	-5842
ڪٽري	-5843
▁رڪن	-5844
▁سلم	-5845
▁عڪس	-5846
▁جپان	-5847
▁حساس	-5848
▁رويي	-5849
▁وفاد	-5850
▁ڊگري	-5851
▁وٺندي	-5852
▁ڀائرن	-5853
▁ڊيگهه	-5854
▁ڳوليو	-5855
▁ڪلوميٽر	-5856
ِ،	-5857
und	-5858
اهرو	-5859
صولي	-5860
▁الأ	-5861
▁حاج	-5862
▁ماع	-5863
▁مشڪ	-5864
▁آيون	-5865
▁رستا	-5866
▁رينج	-5867
▁ضايع	-5868
▁چوٽي	-5869
▁ڏسجي	-5870
ريائين	-5871
▁اعزاز	-5872
▁فائدن	-5873
▁فلمون	-5874
▁پوندا	-5875
▁ڏسندو	-5876
آه	-5877
ech	-5878
بند	-5879
▁طل	-5880
ment	-5881
▁بشر	-5882
▁ـــ	-5883
▁مبت	-5884
▁ميٽ	-5885
انيءَ	-5886
▁بزرگ	-5887
▁بنجي	-5888
▁جوڙو	-5889
▁سنڌو	-5890
▁قبضي	-5891
▁لاڙڪ	-5892
▁يوسف	-5893
نواريو	-5894
▁خرابي	-5895
▁منتخب	-5896
▁ڏنيون	-5897
▁اميدوار	-5898
▁سنگاپور	-5899
▁پڙهندڙن	-5900
ـِ	-5901
ازم	-5902
ايم	-5903
▁[.	-5904
▁ڪڍڻ	-5905
▁رياض	-5906
▁پبلڪ	-5907
▁ڪراچيءَ	-5908
▁بلوچستان	-5909
پرو	-5910
▁أي	-5911
="2.	-5912
▁هيء	-5913
▁ريسٽ	-5914
▁مادر	-5915
▁پيشه	-5916
▁گادي	-5917
▁ڪرنسي	-5918
نس	-5919
▁،،	-5920
▁ڪڪ	-5921
▁اھم	-5922
▁ڀڄي	-5923
▁تيئن	-5924
▁جڳهن	-5925
▁رکيا	-5926
▁هرگز	-5927
▁بعدين	-5928
▁قيمتن	-5929
▁پرهيز	-5930
▁طالبان	-5931
▁مظاهرو	-5932
ST	-5933
▁°	-5934
روي	-5935
نيه	-5936
اااي	-5937
ٽائر	-5938
▁ڏٺم	-5939
▁حاجي	-5940
جيڪڏهن	-5941
▁امڪاني	-5942
▁بندوبست	-5943
▁نظرثاني	-5944
__	-5945
oft	-5946
ريڊ	-5947
ضان	-5948
ميز	-5949
▁ag	-5950
▁sm	-5951
▁آٽو	-5952
▁دون	-5953
▁سنو	-5954
▁ڇهن	-5955
XNUMX	-5956
▁اسما	-5957
▁خبرن	-5958
▁صفحن	-5959
▁ڪيني	-5960
▁دائري	-5961
▁صديءَ	-5962
▁فنڪار	-5963
▁مقبول	-5964
▁اسانجي	-5965
▁هيٺيون	-5966
▁يادگيري	-5967
هههههههههههههه	-5968
ظي	-5969
oun	-5970
ياء	-5971
▁اذ	-5972
▁خا	-5973
اڻان	-5974
▁اڀر	-5975
▁ريپ	-5976
▁پلگ	-5977
▁ڊين	-5978
▁مذاق	-5979
▁نامي	-5980
▁ايجاد	-5981
▁عمران	-5982
▁فائون	-5983
▁ويندڙ	-5984
▁گريجو	-5985
▁برائوزر	-5986
▁پروگرامن	-5987
ri	-5988
جهي	-5989
افين	-5990
▁خام	-5991
▁استن	-5992
▁بقول	-5993
▁شفاف	-5994
▁جريان	-5995
▁ملندڙ	-5996
▁ڪيريئر	-5997
ram	-5998
ساب	-5999
يتا	-6000
▁5-	-6001
▁رز	-6002
▁پی	-6003
▁الل	-6004
▁مشر	-6005
▁مشن	-6006
▁جارج	-6007
▁فروغ	-6008
▁منها	-6009
▁گھڻا	-6010
▁بدلجي	-6011
▁گائيڊ	-6012
مير	-6013
▁کُ	-6014
▁تعل	-6015
▁جدت	-6016
▁ظاھر	-6017
▁مزاج	-6018
▁وارث	-6019
▁يهمك	-6020
▁پئسن	-6021
▁ڪھڙي	-6022
▁جيئرو	-6023
▁سمجھي	-6024
▁سمورا	-6025
▁گذريو	-6026
▁ڳوليندا	-6027
رك	-6028
فة	-6029
وش	-6030
ااي	-6031
ثال	-6032
ليد	-6033
▁آهه	-6034
▁بان	-6035
▁بوٽ	-6036
▁هان	-6037
▁ڏات	-6038
▁آهي۔	-6039
▁پناه	-6040
▁گردش	-6041
▁سمجهو	-6042
▁سمجھڻ	-6043
▁ميلاپ	-6044
▁واشنگ	-6045
▁ڪشمير	-6046
▁ڪچهري	-6047
▁عبدالو	-6048
خصي	-6049
َرَ	-6050
▁جب	-6051
▁رڙ	-6052
ible	-6053
گزين	-6054
▁300	-6055
▁درس	-6056
▁لاس	-6057
▁ڦير	-6058
علامه	-6059
▁اِها	-6060
▁ساله	-6061
▁ملاح	-6062
▁ملوث	-6063
▁ھوندو	-6064
اڪر	-6065
▁بڇ	-6066
▁سس	-6067
▁يت	-6068
▁ڇت	-6069
▁شفا	-6070
▁شود	-6071
▁صار	-6072
▁پتي	-6073
▁جڙيل	-6074
▁موقف	-6075
▁موٽڻ	-6076
▁ننڍا	-6077
▁ٿيڻو	-6078
▁ڏسون	-6079
▁آگاهي	-6080
▁اولهه	-6081
▁عيسيٰ	-6082
▁حفاظتي	-6083
▁خبردار	-6084
▁سراسري	-6085
▁ٺاهيندڙن	-6086
▁انجنيئرنگ	-6087
▁أك	-6088
▁عش	-6089
▁نخ	-6090
ائگي	-6091
افيه	-6092
مانس	-6093
▁193	-6094
▁نوي	-6095
▁وجه	-6096
ئيندڙ	-6097
▁2000	-6098
▁بيٺي	-6099
▁راحت	-6100
▁رسمي	-6101
▁عمري	-6102
▁ڪٽنب	-6103
▁شيطان	-6104
▁معروف	-6105
▁ناراض	-6106
▁نيويارڪ	-6107
▁بچت	-6108
▁سڏي	-6109
▁وره	-6110
earch	-6111
بوليت	-6112
▁وربي	-6113
▁پرنٽ	-6114
▁crypt	-6115
▁خوابن	-6116
▁دٻاءُ	-6117
▁مادري	-6118
▁ڀائيو	-6119
▁ڏهاڪي	-6120
سنواريو	-6121
▁پروڊڪٽس	-6122
▁اپليڪيشن	-6123
بى	-6124
ظه	-6125
ick	-6126
ord	-6127
▁ڀل	-6128
▁عدم	-6129
▁ڏٺا	-6130
▁خالد	-6131
▁دلين	-6132
▁سرحد	-6133
▁اسٽاپ	-6134
▁ماشاء	-6135
▁وٺندا	-6136
▁پويون	-6137
▁فائرنگ	-6138
▁اشتهارن	-6139
▁ٽيڪنيڪل	-6140
ors	-6141
سنڌ	-6142
كرت	-6143
لايو	-6144
▁برچ	-6145
▁حذف	-6146
▁رام	-6147
▁رون	-6148
▁سکي	-6149
▁ميگ	-6150
vious	-6151
▁بيحد	-6152
▁شديد	-6153
▁پيپر	-6154
▁بينڪن	-6155
▁موقعن	-6156
▁مضمونن	-6157
شك	-6158
فيه	-6159
▁ad	-6160
▁أخ	-6161
▁اتو	-6162
▁صاد	-6163
▁مارڪ	-6164
▁هئين	-6165
▁ڪيڏي	-6166
▁Whats	-6167
▁اينٽي	-6168
▁تهذيب	-6169
▁سچائي	-6170
▁ڳاڙهو	-6171
▁ادائگي	-6172
▁گڏجاڻي	-6173
▁ميونسپل	-6174
29	-6175
ian	-6176
صار	-6177
▁HT	-6178
▁اڱ	-6179
▁ڪڻ	-6180
قيقي	-6181
▁بير	-6182
▁ماب	-6183
▁مٿس	-6184
▁پاؤ	-6185
▁جملو	-6186
▁جوڳي	-6187
▁عادت	-6188
▁عارف	-6189
▁مخلو	-6190
▁نازل	-6191
▁رابطن	-6192
▁لائيٽ	-6193
▁پکڙيل	-6194
▁اسٽريٽ	-6195
▁پئماني	-6196
▁پرائمري	-6197
▁ايسوسيئيشن	-6198
انج	-6199
اپو	-6200
▁غذ	-6201
زمين	-6202
▁نقش	-6203
▁بايد	-6204
▁خانو	-6205
▁هيرو	-6206
▁ورتا	-6207
▁تباهي	-6208
▁جذبات	-6209
▁سوسائ	-6210
▁سگهجن	-6211
▁ٻڌاءِ	-6212
▁چوندي	-6213
▁ناڪامي	-6214
▁همراهه	-6215
App	-6216
ٽرز	-6217
ريشن	-6218
▁ترق	-6219
▁2009	-6220
▁شاهي	-6221
▁منڊي	-6222
▁پردي	-6223
▁چورس	-6224
▁آئيني	-6225
▁الضحك	-6226
▁تناسب	-6227
▁توازن	-6228
▁جهازن	-6229
▁موقعا	-6230
6)	-6231
تس	-6232
واٽ	-6233
▁ضد	-6234
ated	-6235
سٽين	-6236
▁انچ	-6237
▁مٿا	-6238
▁بلين	-6239
▁رولي	-6240
▁سوار	-6241
▁فورس	-6242
▁وحده	-6243
▁مجازي	-6244
▁نظريو	-6245
▁ڇڏيون	-6246
▁ڊولپر	-6247
▁احتياط	-6248
▁چئلينج	-6249
▁بيمارين	-6250
▁اليڪٽرانڪ	-6251
EM	-6252
ذر	-6253
="0.	-6254
coin	-6255
▁اڇو	-6256
▁جسٽس	-6257
▁جيئڻ	-6258
▁ريزي	-6259
▁زوال	-6260
▁ذخيرو	-6261
▁فضيلت	-6262
▁پھريون	-6263
▁ڏينداسين	-6264
▁فائونڊيشن	-6265
هههههههههههههههه	-6266
عع	-6267
ime	-6268
طور	-6269
وله	-6270
ابري	-6271
▁اُڀ	-6272
▁وڻن	-6273
▁دٻاء	-6274
▁وڃڻو	-6275
▁منجهه	-6276
▁سلامتي	-6277
▁چمڪندڙ	-6278
▁پارٽيءَ	-6279
uc	-6280
توي	-6281
▁آڱ	-6282
▁مچ	-6283
▁می	-6284
عدين	-6285
ميءَ	-6286
▁ڄام	-6287
▁اندي	-6288
▁بيني	-6289
▁عرفت	-6290
▁ڪلچر	-6291
▁اونهاري	-6292
▁حيدرآباد	-6293
حح	-6294
غل	-6295
ڪشي	-6296
▁Bl	-6297
▁وخ	-6298
▁ليو	-6299
▁مارو	-6300
▁ماما	-6301
▁نجات	-6302
▁گلاب	-6303
▁ميٽرو	-6304
▁ماڻهون	-6305
▁پاڻمرا	-6306
▁پروسيس	-6307
▁ميزباني	-6308
▁ڪيڏانهن	-6309
aj	-6310
ure	-6311
ئرس	-6312
تين	-6313
ديو	-6314
واب	-6315
▁أح	-6316
▁قي	-6317
ڪيون	-6318
▁ڪتا	-6319
لائيٽ	-6320
▁آثار	-6321
▁جانب	-6322
▁قابو	-6323
▁ڪڍيو	-6324
▁انڪري	-6325
▁درآمد	-6326
▁سرگرم	-6327
▁سينيٽ	-6328
▁معمول	-6329
▁منتظر	-6330
راس	-6331
▁2)	-6332
▁36	-6333
▁8.	-6334
form	-6335
سٽنٽ	-6336
شاهه	-6337
▁(3)	-6338
▁اوز	-6339
▁جيو	-6340
▁ھنن	-6341
▁جمعي	-6342
▁چئجي	-6343
▁اهوئي	-6344
▁برچسب	-6345
▁تعالى	-6346
▁پايان	-6347
▁اڄڪلهه	-6348
▁انقلابي	-6349
▁دهشتگردي	-6350
ary	-6351
les	-6352
اهت	-6353
سال	-6354
وڌيڪ	-6355
▁Mic	-6356
▁ابن	-6357
▁تبي	-6358
▁گها	-6359
▁قاضي	-6360
▁ڏيون	-6361
▁اطمين	-6362
▁نظران	-6363
▁ويچار	-6364
▁پيوند	-6365
▁استنبول	-6366
َي	-6367
ڳن	-6368
▁""	-6369
▁an	-6370
▁تل	-6371
▁زيو	-6372
▁معج	-6373
▁کٽي	-6374
جانءِ	-6375
▁راجا	-6376
▁فيچر	-6377
▁قولي	-6378
▁ميري	-6379
▁ٽڪرا	-6380
▁دراصل	-6381
▁ديوار	-6382
▁ڪرپشن	-6383
▁ڪوريا	-6384
▁صوبائي	-6385
▁پيروزي	-6386
▁ڊوائيسز	-6387
▁اختيارين	-6388
ههههههههههههههه	-6389
55	-6390
ox	-6391
جيل	-6392
ڪون	-6393
▁7.	-6394
▁Sp	-6395
▁تأ	-6396
▁غي	-6397
▁فئ	-6398
▁ڏِ	-6399
التي	-6400
ورنس	-6401
▁رقص	-6402
▁زرا	-6403
▁زلز	-6404
▁فال	-6405
▁ڪٽڻ	-6406
▁احسن	-6407
▁الان	-6408
▁بدون	-6409
▁تابع	-6410
▁جائز	-6411
▁جنگي	-6412
▁نڪتل	-6413
▁ڪپڙي	-6414
▁سمورن	-6415
▁صحافي	-6416
▁فائلن	-6417
▁مهينو	-6418
▁ڀلائي	-6419
▁زندگيء	-6420
نيم	-6421
▁3:	-6422
▁An	-6423
▁US	-6424
▁شن	-6425
▁دفن	-6426
▁وهو	-6427
▁چيس	-6428
▁ڪوش	-6429
▁دفاع	-6430
▁معقول	-6431
▁سنجيده	-6432
▁مديريت	-6433
▁ڇڏيندي	-6434
▁اثرائتي	-6435
▁اطمينان	-6436
▁خوشگوار	-6437
▁ٺاهيندڙ	-6438
▁Previous	-6439
▁پاڻمرادو	-6440
آت	-6441
ؤن	-6442
ank	-6443
بون	-6444
لهم	-6445
▁0.	-6446
▁نيم	-6447
▁لشڪر	-6448
▁مقدس	-6449
▁نيون	-6450
urname	-6451
▁رمضان	-6452
كان	-6453
ڀرو	-6454
ڪٿي	-6455
▁Ma	-6456
CLNT	-6457
دنيا	-6458
▁لاي	-6459
▁وهم	-6460
▁ڏوه	-6461
▁ميرا	-6462
▁SCLNT	-6463
▁الحمد	-6464
▁اهڙين	-6465
▁مرحلو	-6466
▁نسبتا	-6467
▁وڻندڙ	-6468
▁گلوبل	-6469
▁بدلائي	-6470
▁سهولتون	-6471
▁انتظاميه	-6472
27	-6473
برو	-6474
تما	-6475
عال	-6476
فتو	-6477
▁نِ	-6478
بارن	-6479
شيار	-6480
▁اهن	-6481
▁تعي	-6482
▁فيڊ	-6483
▁هول	-6484
▁ڌڻي	-6485
ااااا	-6486
▁اغوا	-6487
▁هيئن	-6488
▁وسري	-6489
▁يعنى	-6490
▁ڄمار	-6491
▁ڪوپن	-6492
▁اجنبي	-6493
▁اسٽاف	-6494
▁داخلي	-6495
▁مايوس	-6496
▁ڳوڙهي	-6497
▁اڳواڻي	-6498
▁چاهيندو	-6499
itt	-6500
راي	-6501
▁al	-6502
رفيس	-6503
فارم	-6504
▁حجم	-6505
▁لڳن	-6506
▁مرک	-6507
▁منش	-6508
▁پاڙ	-6509
▁ايسٽ	-6510
▁ايڪٽ	-6511
▁جھڙو	-6512
itcoin	-6513
▁مريضن	-6514
▁مٽائي	-6515
▁پناهه	-6516
▁چوٿون	-6517
▁فلسطين	-6518
▁مارڪيٽن	-6519
▁ڏيکاريل	-6520
mm	-6521
ـُ	-6522
▁٢	-6523
بود	-6524
علم	-6525
قان	-6526
نيد	-6527
ويب	-6528
▁33	-6529
▁tr	-6530
▁لِ	-6531
▁آبي	-6532
▁آڪس	-6533
▁جنا	-6534
▁لمي	-6535
▁ڀرڻ	-6536
▁بالا	-6537
▁بعدي	-6538
▁راهي	-6539
▁ڌرين	-6540
▁ڏيڻو	-6541
ائيندس	-6542
▁بنائي	-6543
▁ساٿين	-6544
▁وياسين	-6545
1:	-6546
ضم	-6547
عك	-6548
▁عط	-6549
يوار	-6550
▁برع	-6551
▁جدي	-6552
▁فرن	-6553
▁قوي	-6554
▁محد	-6555
▁ٽنگ	-6556
▁اضحك	-6557
▁تحفا	-6558
▁دارو	-6559
▁ساحل	-6560
▁شپنگ	-6561
▁اينڪس	-6562
▁اڄوڪي	-6563
▁سرگرميون	-6564
cy	-6565
َل	-6566
ake	-6567
app	-6568
دون	-6569
فار	-6570
▁سٿ	-6571
▁آري	-6572
▁اعج	-6573
▁سرد	-6574
▁عدد	-6575
▁فكر	-6576
▁پوڻ	-6577
▁کاڌ	-6578
▁2007	-6579
▁حبيب	-6580
▁سکيو	-6581
▁پڌرو	-6582
▁ارسالي	-6583
▁ايراضي	-6584
▁بيوقوف	-6585
▁WhatsApp	-6586
▁عبدالوحيد	-6587
▁اينڊرائيڊس	-6588
45	-6589
▁?	-6590
▁Ad	-6591
▁الغ	-6592
▁ٺهي	-6593
▁پھچ	-6594
▁تجزي	-6595
▁رحمت	-6596
▁سگهه	-6597
▁قاتل	-6598
▁نانگ	-6599
▁ڄائو	-6600
▁بلڊنگ	-6601
▁ڳوڙها	-6602
▁آفيسرن	-6603
▁روشنيءَ	-6604
▁سربراهه	-6605
▁لائبريري	-6606
28	-6607
▁١	-6608
rot	-6609
الٽ	-6610
خير	-6611
نگر	-6612
▁Ar	-6613
▁Sh	-6614
▁by	-6615
▁un	-6616
▁حيو	-6617
▁چال	-6618
▁مھرب	-6619
▁نديم	-6620
▁سواري	-6621
▁سگهين	-6622
▁مليون	-6623
▁واشنگٽن	-6624
▁سافٽويئر	-6625
95	-6626
شتر	-6627
شون	-6628
ress	-6629
ليلي	-6630
▁آرڪ	-6631
▁برگ	-6632
▁عزم	-6633
▁هوش	-6634
▁پڇا	-6635
▁ڪتب	-6636
▁بزنس	-6637
▁حامي	-6638
▁حاڪم	-6639
▁حقوق	-6640
▁سياح	-6641
▁ڇپيل	-6642
▁گاهه	-6643
▁خخخخخ	-6644
▁Search	-6645
▁سيکاري	-6646
▁لاڳاپا	-6647
ڇي	-6648
ابه	-6649
▁شئ	-6650
▁شھ	-6651
▁هڙ	-6652
▁کپ	-6653
رررر	-6654
وليس	-6655
▁The	-6656
▁جڳھ	-6657
▁حسب	-6658
▁ساد	-6659
▁ميک	-6660
▁اچان	-6661
▁حتمي	-6662
▁دوزخ	-6663
▁روئڻ	-6664
▁رويو	-6665
▁ڏاڍا	-6666
▁بغاوت	-6667
▁سڃاڻي	-6668
▁گناهه	-6669
▁گهٽجي	-6670
▁ريڪارڊ	-6671
▁غلطيون	-6672
▁يقيناً	-6673
▁اسٽوڊيو	-6674
أأ	-6675
نڊي	-6676
ڪرا	-6677
▁لَ	-6678
▁يآ	-6679
ھيون	-6680
▁روئ	-6681
▁قطر	-6682
▁جملي	-6683
▁شيشي	-6684
▁نقشو	-6685
▁نياز	-6686
▁وچان	-6687
▁ٽولي	-6688
▁سلطنت	-6689
▁فيصلا	-6690
▁پالتو	-6691
▁پرومو	-6692
▁پوڙهي	-6693
▁ٿورڙي	-6694
▁ڀٽائي	-6695
▁پرائيو	-6696
▁نظرانداز	-6697
13	-6698
IN	-6699
كة	-6700
▁€	-6701
ami	-6702
ons	-6703
صلي	-6704
▁بك	-6705
ائيز	-6706
پوءِ	-6707
▁نيڻ	-6708
▁ٽيپ	-6709
▁ويسٽ	-6710
▁گهوٽ	-6711
▁سگريٽ	-6712
▁ضابطن	-6713
▁پڙهيل	-6714
▁پھرين	-6715
▁ايجنسي	-6716
▁گهريلو	-6717
70	-6718
9)	-6719
:"	-6720
oy	-6721
سڀ	-6722
▁َ	-6723
ish	-6724
يما	-6725
="1.	-6726
آئون	-6727
▁آيد	-6728
▁رضا	-6729
▁ريڊ	-6730
▁زخم	-6731
▁شهن	-6732
▁طلع	-6733
▁نيل	-6734
▁ڦري	-6735
▁اوند	-6736
▁هيچي	-6737
rosoft	-6738
▁سگهيس	-6739
▁موڪليل	-6740
▁دستاويزن	-6741
15	-6742
ضه	-6743
▁א	-6744
سرچ	-6745
هڻا	-6746
كككك	-6747
▁ريس	-6748
▁معاو	-6749
▁موهن	-6750
▁هائي	-6751
▁ڪمشن	-6752
▁العالم	-6753
▁ڪئناڊا	-6754
▁جوابدارن	-6755
14	-6756
88	-6757
ee	-6758
؟.	-6759
لوا	-6760
▁HD	-6761
▁ڦه	-6762
انيا	-6763
▁تست	-6764
▁ٻوڏ	-6765
▁گڏي	-6766
▁انگل	-6767
▁اٽلي	-6768
▁ضمير	-6769
▁فائي	-6770
▁مفاد	-6771
▁مٿاڇ	-6772
▁هانگ	-6773
▁شكلها	-6774
▁صارفن	-6775
▁فائنل	-6776
▁ڊپارٽ	-6777
▁آمريڪن	-6778
▁امارات	-6779
▁زرداري	-6780
تش	-6781
ite	-6782
▁هك	-6783
جڏهن	-6784
▁تكون	-6785
▁ساخت	-6786
▁سنگت	-6787
▁نامو	-6788
▁وحدت	-6789
▁ادامه	-6790
▁انڊين	-6791
▁دائمي	-6792
▁لڳندي	-6793
▁پاؤڊر	-6794
▁ڀڃڪڙي	-6795
▁ڪوششن	-6796
▁ڪونھي	-6797
▁ھوندي	-6798
▁اڪيڊمي	-6799
▁بدلائڻ	-6800
▁ٻوليون	-6801
▁پورهيت	-6802
▁ڄاڻايل	-6803
ie	-6804
غر	-6805
مة	-6806
جنگ	-6807
داء	-6808
عود	-6809
▁فرح	-6810
▁گهم	-6811
اگرام	-6812
▁بنات	-6813
▁زرعي	-6814
▁فيهم	-6815
▁گھڻن	-6816
▁رعايت	-6817
▁غيرها	-6818
▁نظريي	-6819
▁پگهار	-6820
▁ڏيندس	-6821
▁حڪومتي	-6822
▁قرباني	-6823
▁مولانا	-6824
26	-6825
ign	-6826
صول	-6827
عون	-6828
ميش	-6829
▁رك	-6830
▁لُ	-6831
▁برش	-6832
▁سکو	-6833
▁شيڊ	-6834
▁مرة	-6835
▁ممت	-6836
▁نيپ	-6837
▁1000	-6838
▁هلڪو	-6839
▁ٻڌڻي	-6840
▁ڪوري	-6841
▁انهيء	-6842
▁حوصلا	-6843
▁خاتمو	-6844
▁ساڳيا	-6845
▁ضابطو	-6846
▁مائٽن	-6847
▁مهارت	-6848
▁يعطيك	-6849
▁امريڪا	-6850
▁انٽرفيس	-6851
▁خوشحالي	-6852
▁اميدوارن	-6853
حق	-6854
▁Ex	-6855
less	-6856
over	-6857
ائلي	-6858
ياڻي	-6859
▁اوي	-6860
▁هجو	-6861
▁هنر	-6862
▁ڊوي	-6863
گزاري	-6864
▁مدري	-6865
▁هڪجه	-6866
▁ٻاھر	-6867
▁چالو	-6868
▁تجربا	-6869
▁سمجهن	-6870
▁سمورو	-6871
▁غلامي	-6872
▁مبتلا	-6873
▁برازيل	-6874
وووووووو	-6875
▁حياتيءَ	-6876
▁سمجهندا	-6877
▁پروفائل	-6878
▁خوبصورتي	-6879
ins	-6880
خبر	-6881
يتو	-6882
▁ذا	-6883
استي	-6884
▁باش	-6885
▁شمو	-6886
▁ميه	-6887
▁چشم	-6888
▁اوپن	-6889
▁رليز	-6890
▁سپلا	-6891
▁ٽيوب	-6892
▁پرسپ	-6893
▁رٽائر	-6894
▁مالڪن	-6895
▁موڪلن	-6896
▁ڊائري	-6897
▁ڪوڪيز	-6898
▁مصنوعي	-6899
▁ڪاميٽي	-6900
▁ڪارپوريٽ	-6901
▁Microsoft	-6902
90	-6903
پپ	-6904
ari	-6905
اتا	-6906
ضيه	-6907
انڪه	-6908
▁اُٿ	-6909
▁اٿن	-6910
▁بائ	-6911
▁راڳ	-6912
▁لها	-6913
▁مٿو	-6914
▁هڻڻ	-6915
انگري	-6916
▁بحري	-6917
▁تارن	-6918
▁تشخي	-6919
▁حملن	-6920
▁عيون	-6921
▁فرار	-6922
▁وضاح	-6923
▁پهتا	-6924
▁مشكور	-6925
▁تقريباً	-6926
▁سوسائٽي	-6927
ah	-6928
ert	-6929
بها	-6930
ولڪ	-6931
ڪاٽ	-6932
▁آڌ	-6933
▁گز	-6934
پریس	-6935
▁امل	-6936
▁عاج	-6937
▁ٽار	-6938
اڻيءَ	-6939
محدود	-6940
▁بھتر	-6941
▁سعيد	-6942
▁كانت	-6943
▁نامن	-6944
▁Bible	-6945
▁لائيو	-6946
▁گروهه	-6947
▁گليڪس	-6948
▁ايڊيٽر	-6949
▁سهولتن	-6950
▁سپلائر	-6951
▁لچڪدار	-6952
▁ڪهاڻين	-6953
جج	-6954
سيس	-6955
▁أم	-6956
▁يف	-6957
▁for	-6958
▁بيچ	-6959
▁غزل	-6960
▁مجن	-6961
▁مھل	-6962
▁ايون	-6963
▁سائٽ	-6964
▁ميلي	-6965
▁يعين	-6966
▁زراعت	-6967
▁چونڊون	-6968
▁نشانيون	-6969
▁انتظاميا	-6970
▁ڳالهائيندو	-6971
ئڪ	-6972
ron	-6973
ڙجي	-6974
▁تذ	-6975
▁شک	-6976
اتار	-6977
▁150	-6978
▁اله	-6979
▁حدن	-6980
▁حيا	-6981
▁ذمي	-6982
▁سچل	-6983
▁صنف	-6984
▁عيب	-6985
▁كلم	-6986
▁مڃي	-6987
▁معنا	-6988
▁پيٽر	-6989
▁انجمن	-6990
▁عثمان	-6991
▁لکندو	-6992
▁ويڙهه	-6993
▁ٻولهه	-6994
▁ٻڌايان	-6995
AN	-6996
yp	-6997
نيس	-6998
▁؟"	-6999
▁لڙ	-7000
ارتن	-7001
انچي	-7002
▁art	-7003
▁ستن	-7004
▁ليا	-7005
▁جذبي	-7006
▁صادق	-7007
▁ناري	-7008
▁وانت	-7009
▁ڀاڱي	-7010
▁ڪلين	-7011
▁Awami	-7012
▁ملندا	-7013
▁واسطي	-7014
▁کانپوء	-7015
▁آزمائشي	-7016
37	-7017
44	-7018
8)	-7019
َء	-7020
ِل	-7021
اول	-7022
توا	-7023
قين	-7024
▁or	-7025
▁تط	-7026
▁نز	-7027
امون	-7028
▁اجا	-7029
▁بول	-7030
▁تلو	-7031
▁فلا	-7032
▁لکن	-7033
▁هاڪ	-7034
ورنيا	-7035
▁Home	-7036
▁بچاء	-7037
▁پهتي	-7038
▁ڳوٺن	-7039
▁دستخط	-7040
▁سرواڻ	-7041
▁عليهم	-7042
▁مٽيءَ	-7043
▁وٺندڙ	-7044
▁اعتراف	-7045
▁قانونن	-7046
▁🙂	-7047
gle	-7048
rom	-7049
بوٽ	-7050
▁چَ	-7051
سينو	-7052
پريس	-7053
▁سُر	-7054
▁لوڻ	-7055
▁مڪي	-7056
▁ڳڻپ	-7057
▁Awaz	-7058
▁جمال	-7059
▁زنجي	-7060
▁مائٽ	-7061
▁مثلا	-7062
▁پيرس	-7063
▁ريسرچ	-7064
▁لوازم	-7065
▁نشانو	-7066
▁ڪندين	-7067
▁اخبارن	-7068
▁مئنيجر	-7069
▁واڌارو	-7070
▁حالانڪه	-7071
▁صلاحڪار	-7072
▁لامحدود	-7073
▁مھرباني	-7074
کڻ	-7075
▁IP	-7076
▁تک	-7077
▁آئر	-7078
▁امڙ	-7079
▁بيس	-7080
▁چپن	-7081
▁ڇان	-7082
▁ڪوٺ	-7083
▁ڪيڪ	-7084
▁ھدا	-7085
ڈپریس	-7086
▁آرمي	-7087
▁امور	-7088
▁رومن	-7089
▁منجھ	-7090
▁ناپس	-7091
▁ويهڻ	-7092
▁پايه	-7093
▁ڪپڙو	-7094
▁ليبار	-7095
▁ڇپائي	-7096
▁Sindhi	-7097
▁اسپيڪر	-7098
▁ميوزيم	-7099
▁انشورنس	-7100
ld	-7101
َّ	-7102
آهي	-7103
شاپ	-7104
صرن	-7105
▁لڏ	-7106
ناطي	-7107
▁400	-7108
▁ولد	-7109
▁پڪو	-7110
▁ڪجو	-7111
سائين	-7112
▁ريال	-7113
▁زينب	-7114
▁غالب	-7115
▁ديگري	-7116
▁يونان	-7117
7)	-7118
ond	-7119
عاد	-7120
▁--	-7121
▁on	-7122
▁اقو	-7123
▁اپو	-7124
▁بدو	-7125
▁حوا	-7126
▁سيو	-7127
▁طبق	-7128
▁وڻي	-7129
ڀرائي	-7130
▁شخصي	-7131
▁قادر	-7132
▁ماشى	-7133
▁بلاول	-7134
▁نصيحت	-7135
▁ڊويزن	-7136
▁ڪمشنر	-7137
▁گروپن	-7138
▁بنيادن	-7139
▁ورڈپریس	-7140
ِر	-7141
ايس	-7142
ٽيل	-7143
▁LG	-7144
▁be	-7145
▁im	-7146
▁pl	-7147
ings	-7148
خاني	-7149
سائي	-7150
لينا	-7151
ڏهين	-7152
▁شها	-7153
▁ويت	-7154
▁يسو	-7155
▁اُھي	-7156
▁مرسي	-7157
▁معائ	-7158
▁نفسك	-7159
▁پيسا	-7160
▁ڀائر	-7161
▁بالغن	-7162
▁سپاهي	-7163
▁مزدور	-7164
▁نينهن	-7165
▁اسسٽنٽ	-7166
▁وبعدين	-7167
▁ڪابينا	-7168
▁پاسپورٽ	-7169
▁ڪارخانو	-7170
طة	-7171
ild	-7172
احد	-7173
پين	-7174
ڪول	-7175
▁آد	-7176
▁تض	-7177
▁شل	-7178
icle	-7179
واري	-7180
▁سمو	-7181
▁ميڙ	-7182
▁مڃڻ	-7183
▁کرد	-7184
▁کٽڻ	-7185
▁اجمل	-7186
▁سالم	-7187
▁فاتح	-7188
▁هٿان	-7189
منهنجو	-7190
▁اڳئين	-7191
▁برعڪس	-7192
▁توهين	-7193
▁ڪامرس	-7194
▁ڪيفيت	-7195
▁بينڪنگ	-7196
▁ناهيان	-7197
▁ميڪسيڪو	-7198
AS	-7199
AT	-7200
أإ	-7201
ile	-7202
هاڻي	-7203
▁آصف	-7204
▁اجي	-7205
▁دخل	-7206
▁شيل	-7207
urren	-7208
▁اوسط	-7209
▁دوره	-7210
▁ظالم	-7211
▁نگاه	-7212
▁ٽتوٽ	-7213
▁ڊيمو	-7214
▁ڌيءُ	-7215
▁گذرڻ	-7216
▁سلطان	-7217
▁شوقين	-7218
▁مسڪين	-7219
▁اوچائي	-7220
▁برابري	-7221
▁ورهائي	-7222
ليفورنيا	-7223
▁انسٽاگرام	-7224
2)	-7225
35	-7226
▁۳	-7227
ice	-7228
امت	-7229
َنِ	-7230
▁طي	-7231
▁تقا	-7232
▁خلو	-7233
▁فهد	-7234
▁ڪنن	-7235
▁ھيو	-7236
ليفون	-7237
▁سڪون	-7238
▁ماهو	-7239
▁نيري	-7240
▁ڪروڙ	-7241
▁بيروز	-7242
▁معاون	-7243
▁پروٽو	-7244
▁صدارتي	-7245
tr	-7246
بڪ	-7247
صه	-7248
كا	-7249
200	-7250
دني	-7251
گيٽ	-7252
لاتي	-7253
▁190	-7254
▁ترڪ	-7255
▁تيم	-7256
▁جاب	-7257
▁جبر	-7258
▁شفت	-7259
▁لکت	-7260
▁هدف	-7261
▁همٿ	-7262
▁چهر	-7263
▁ڪبو	-7264
▁ڪٽي	-7265
يويزن	-7266
▁الاس	-7267
▁تبلي	-7268
▁معطل	-7269
▁واٽر	-7270
▁اسپيڊ	-7271
▁شاديءَ	-7272
▁مينيجر	-7273
▁هوشيار	-7274
▁پرواهه	-7275
▁اختياري	-7276
ww	-7277
یل	-7278
روڪ	-7279
نڊا	-7280
▁اڻڄ	-7281
▁بيٽ	-7282
▁بچه	-7283
▁راج	-7284
▁ريز	-7285
▁سحر	-7286
▁هنگ	-7287
▁ٽهڪ	-7288
▁پڇو	-7289
▁اخوي	-7290
▁رهبر	-7291
▁نقشي	-7292
▁دوستو	-7293
▁رواني	-7294
▁سگھان	-7295
▁عالمن	-7296
▁هونءَ	-7297
▁ورهيه	-7298
▁وصولي	-7299
▁پروژه	-7300
▁چاندي	-7301
▁بدترين	-7302
▁سائيٽون	-7303
▁عملدارن	-7304
ئم	-7305
ـٍ	-7306
عدن	-7307
هوم	-7308
ڪوٽ	-7309
="3.	-7310
▁آچر	-7311
▁جِي	-7312
▁پخت	-7313
▁ڀين	-7314
▁ڪڻڪ	-7315
▁آخرت	-7316
▁تدري	-7317
▁سستو	-7318
▁لوگو	-7319
▁مجلس	-7320
▁ورتل	-7321
▁ٽائم	-7322
▁ڏاڏي	-7323
▁رڪنيت	-7324
▁مافيه	-7325
▁وسيلا	-7326
▁ڄاڻان	-7327
انگريزي	-7328
▁سمجھيو	-7329
▁ملهايو	-7330
▁لاڙڪاڻي	-7331
36	-7332
ثل	-7333
حك	-7334
رة	-7335
نڍ	-7336
اسم	-7337
▁يد	-7338
شمول	-7339
▁(4)	-7340
▁باض	-7341
▁خوا	-7342
▁لڏي	-7343
▁ميد	-7344
▁مٽا	-7345
▁ڪيپ	-7346
▁جيڪر	-7347
▁درجو	-7348
▁لنڪس	-7349
▁ناصر	-7350
▁افسان	-7351
▁غذائي	-7352
▁مُنهن	-7353
▁وڃائڻ	-7354
▁درياهه	-7355
▁رجسٽرڊ	-7356
▁سالگره	-7357
▁اليڪٽرڪ	-7358
▁ٽيليويزن	-7359
تِ	-7360
▁٪	-7361
خدا	-7362
▁ڊچ	-7363
جنهن	-7364
▁بيش	-7365
▁تجي	-7366
▁جبت	-7367
▁جلو	-7368
▁فرز	-7369
▁هري	-7370
▁وٽس	-7371
▁ڀوڳ	-7372
▁استق	-7373
▁اسوي	-7374
▁بيٺا	-7375
▁رشتو	-7376
▁سستا	-7377
▁سمهڻ	-7378
▁فرهن	-7379
▁لفظي	-7380
▁ونڊو	-7381
▁پکين	-7382
▁ڀرجي	-7383
▁ڪمرو	-7384
▁ملتوي	-7385
▁پارٽن	-7386
▁گورنر	-7387
▁حقيقتن	-7388
▁سامسنگ	-7389
ics	-7390
ديش	-7391
سير	-7392
ٽيوٽ	-7393
▁اكل	-7394
▁لبن	-7395
▁پيڊ	-7396
▁ڳري	-7397
▁News	-7398
▁بدين	-7399
▁سوني	-7400
▁شويه	-7401
▁صوفي	-7402
▁ياري	-7403
▁پئرس	-7404
▁پائو	-7405
▁ڪامل	-7406
▁اسڪيم	-7407
▁امکان	-7408
▁تشخيص	-7409
▁زباني	-7410
▁انگريزيءَ	-7411
hy	-7412
ark	-7413
ئيٽ	-7414
گون	-7415
یکس	-7416
▁48	-7417
▁65	-7418
شمند	-7419
گارن	-7420
▁حرا	-7421
▁قبي	-7422
لائين	-7423
▁بيوس	-7424
▁مدار	-7425
▁يارڪ	-7426
▁ٺاهه	-7427
▁آبهوا	-7428
▁تسلسل	-7429
▁طراحي	-7430
▁مشاهدو	-7431
▁يوناني	-7432
سى	-7433
فف	-7434
▁ځ	-7435
اهد	-7436
اڪا	-7437
گهي	-7438
▁هذ	-7439
▁ڏُ	-7440
اتين	-7441
علوم	-7442
نيچر	-7443
ورنٽ	-7444
▁باھ	-7445
▁بوڪ	-7446
▁ديد	-7447
▁شاھ	-7448
▁لڪي	-7449
▁منا	-7450
▁ويه	-7451
▁ٽول	-7452
▁پوڄ	-7453
▁کلڻ	-7454
▁تجنن	-7455
▁تڏھن	-7456
▁دلبر	-7457
▁محقق	-7458
▁ٻوٽي	-7459
▁ٽڪرو	-7460
▁گرام	-7461
ations	-7462
▁بندوق	-7463
▁ديدار	-7464
▁شناسي	-7465
▁شينهن	-7466
▁ڳولهي	-7467
▁وارنٽي	-7468
▁ڀليڪار	-7469
▁ڪوششون	-7470
▁تيستائين	-7471
عج	-7472
▁♥	-7473
ash	-7474
انت	-7475
ستا	-7476
صاب	-7477
▁34	-7478
▁en	-7479
▁ago	-7480
▁بلڊ	-7481
▁مئل	-7482
▁ورت	-7483
▁ڏجي	-7484
▁انور	-7485
▁برڪت	-7486
▁بيبي	-7487
▁سليم	-7488
▁قريب	-7489
▁وڙهي	-7490
▁لميٽيڊ	-7491
▁معائنو	-7492
▁مقناطي	-7493
▁هئائين	-7494
أن	-7495
اُ	-7496
اڄ	-7497
کت	-7498
▁۴	-7499
خاص	-7500
▁عظ	-7501
▁كي	-7502
ator	-7503
ical	-7504
nect	-7505
ڪيءَ	-7506
▁dis	-7507
▁اكت	-7508
▁سمر	-7509
▁ووڊ	-7510
▁يجي	-7511
oogle	-7512
اڻيون	-7513
▁2003	-7514
▁بايو	-7515
▁رسيد	-7516
▁رپور	-7517
▁سهڻو	-7518
▁غيره	-7519
▁ميمڻ	-7520
▁نسلن	-7521
▁نقطه	-7522
▁هاڻو	-7523
▁اڀياس	-7524
▁اڳڪٿي	-7525
▁نگاهي	-7526
▁ڳاڙهي	-7527
▁دوستان	-7528
▁سينگار	-7529
▁لڳاتار	-7530
▁منصوبا	-7531
▁هالينڊ	-7532
▁ايستائين	-7533
▁ليبارٽري	-7534
▁يونيورسٽيءَ	-7535
َس	-7536
ace	-7537
old	-7538
جلس	-7539
داس	-7540
زوج	-7541
ميس	-7542
هاا	-7543
ويت	-7544
▁4:	-7545
▁9.	-7546
▁ڇن	-7547
▁کی	-7548
▁خلص	-7549
▁هائ	-7550
▁عبرت	-7551
▁ليڊر	-7552
▁مرزا	-7553
▁ڳڻتي	-7554
▁تجارت	-7555
▁مٿاڇري	-7556
▁هيهيهي	-7557
▁ترقياتي	-7558
▁ڇوڪريءَ	-7559
66	-7560
ER	-7561
ber	-7562
ult	-7563
upp	-7564
آخر	-7565
صلى	-7566
▁عص	-7567
نيءَ	-7568
▁آله	-7569
▁اڏي	-7570
▁سكس	-7571
▁شار	-7572
▁فنا	-7573
▁Play	-7574
▁that	-7575
▁اطال	-7576
▁ٽيمن	-7577
▁انسٽي	-7578
▁باضاب	-7579
▁تشريح	-7580
▁سرانج	-7581
▁شهادت	-7582
▁كلامك	-7583
▁وهڪري	-7584
▁آزمائش	-7585
▁بادشاھ	-7586
▁خودمخت	-7587
▁سنڀالڻ	-7588
▁سائنسدان	-7589
▁پروفائيل	-7590
▁ايمانداري	-7591
▁ڪيليفورنيا	-7592
سة	-7593
قف	-7594
لڻ	-7595
ٿل	-7596
جيد	-7597
دوم	-7598
ڙهن	-7599
▁قم	-7600
▁مڱ	-7601
▁ڇي	-7602
پرست	-7603
▁ستر	-7604
▁سوٽ	-7605
▁شيو	-7606
▁لاڏ	-7607
▁وبا	-7608
▁پُٽ	-7609
پريشن	-7610
▁بادل	-7611
▁بصري	-7612
▁سندي	-7613
▁صوبن	-7614
▁ظهور	-7615
▁لوهه	-7616
▁پائپ	-7617
▁اثاثن	-7618
▁بنايو	-7619
▁صنعتن	-7620
▁غريبن	-7621
▁مسكين	-7622
▁ويجھو	-7623
▁ورهاڱي	-7624
▁ڄاڻايو	-7625
▁عبدالله	-7626
▁نامناسب	-7627
ey	-7628
بب	-7629
وڪ	-7630
یر	-7631
عيل	-7632
▁Qu	-7633
▁بِ	-7634
▁جِ	-7635
▁مگ	-7636
باره	-7637
ستگي	-7638
▁حاض	-7639
▁پُر	-7640
▁ڊون	-7641
▁ڏسن	-7642
▁بضحك	-7643
▁عربن	-7644
▁هُئا	-7645
▁پردا	-7646
▁چريو	-7647
▁small	-7648
▁ايڪشن	-7649
▁بمبئي	-7650
▁بهتري	-7651
▁جواني	-7652
▁قومون	-7653
▁مروري	-7654
▁منسوخ	-7655
▁موزون	-7656
▁مڪاني	-7657
▁وانگي	-7658
▁ٽائون	-7659
▁اسڪالر	-7660
▁اوندهه	-7661
▁فرنيچر	-7662
▁حڪمراني	-7663
▁مقبوليت	-7664
▁نوڪريون	-7665
▁هدايتون	-7666
▁پروسيسر	-7667
▁تعميراتي	-7668
39	-7669
َم	-7670
حين	-7671
منى	-7672
نڊو	-7673
ions	-7674
دائي	-7675
سمين	-7676
ظاهر	-7677
▁ابا	-7678
▁اخذ	-7679
▁باه	-7680
▁تسل	-7681
▁سرخ	-7682
▁وڇو	-7683
▁ٿوڪ	-7684
▁ڪشش	-7685
▁افري	-7686
▁موتي	-7687
▁چادر	-7688
▁ڪالم	-7689
▁ديوتا	-7690
▁رنگين	-7691
▁هٽائڻ	-7692
▁وهڪرو	-7693
▁ٺاهيا	-7694
▁خودڪشي	-7695
▁رهائشي	-7696
▁عدالتي	-7697
▁ڏياريو	-7698
▁سرانجام	-7699
▁پيشگيري	-7700
▁کائيندا	-7701
▁هندستاني	-7702
▁پابنديون	-7703
ei	-7704
ire	-7705
اضي	-7706
كري	-7707
▁99	-7708
▁***	-7709
▁آجي	-7710
▁اوب	-7711
▁جزا	-7712
▁خيا	-7713
▁نما	-7714
▁گيٽ	-7715
▁ڳچي	-7716
خواهي	-7717
▁بالم	-7718
▁جبلن	-7719
▁سوچن	-7720
▁لڪير	-7721
▁وڃون	-7722
▁کاتو	-7723
▁بنگلا	-7724
▁تبليغ	-7725
▁جيئري	-7726
▁طريقه	-7727
▁آڻيندو	-7728
▁روزانه	-7729
▁سيڪنڊن	-7730
▁علائقا	-7731
▁ايڪسپريس	-7732
▁پروفيشنل	-7733
ps	-7734
ٹر	-7735
اھي	-7736
جري	-7737
خلي	-7738
▁75	-7739
▁،"	-7740
▁آک	-7741
▁چت	-7742
رايو	-7743
يڪيو	-7744
▁all	-7745
▁ميا	-7746
▁اسڪر	-7747
▁نواب	-7748
▁هنيو	-7749
▁چالي	-7750
▁جميله	-7751
▁حبيبي	-7752
▁شيڊول	-7753
▁فرمائي	-7754
▁ڪردارن	-7755
▁گهٽائي	-7756
:$	-7757
SO	-7758
لعب	-7759
مال	-7760
پاڪ	-7761
▁Re	-7762
▁فس	-7763
▁ارد	-7764
▁دول	-7765
▁ذائ	-7766
▁شرٽ	-7767
▁ملت	-7768
▁هيم	-7769
▁ڪوئ	-7770
▁عروج	-7771
▁قلعي	-7772
▁ڊگھي	-7773
▁گمان	-7774
▁برباد	-7775
▁تقدير	-7776
▁محافظ	-7777
▁ايڊيشن	-7778
▁ماضيءَ	-7779
▁مزيدار	-7780
▁اڪيلائي	-7781
▁لوازمات	-7782
▁واپارين	-7783
▁ڳنڍيندڙ	-7784
▁علائقائي	-7785
34	-7786
اش	-7787
ويل	-7788
▁بيه	-7789
▁جمل	-7790
▁غسل	-7791
▁لهڻ	-7792
▁منز	-7793
▁مَن	-7794
▁گھو	-7795
▁اينا	-7796
▁اٿار	-7797
▁تحفو	-7798
▁رشيد	-7799
▁سويت	-7800
▁محشش	-7801
▁مكان	-7802
▁نوٽس	-7803
▁هوند	-7804
▁ورزش	-7805
▁ڪارا	-7806
▁تلوار	-7807
▁روانا	-7808
▁سينسر	-7809
▁شاعرن	-7810
▁شاپنگ	-7811
▁مرحوم	-7812
▁پياده	-7813
▁ترجمان	-7814
▁ٺهرايو	-7815
▁پارٽنر	-7816
▁سوچيندو	-7817
▁پيامهاي	-7818
▁پرسپوليس	-7819
▁ڊپارٽمينٽ	-7820
te	-7821
▁←	-7822
3">	-7823
ows	-7824
▁as	-7825
ماڪي	-7826
▁OEM	-7827
▁آرش	-7828
▁لأن	-7829
▁گھڻ	-7830
فوتكم	-7831
▁بيئر	-7832
▁جذبو	-7833
▁مردم	-7834
▁هفتا	-7835
▁هفتو	-7836
▁واٽس	-7837
▁وَرو	-7838
▁اجتما	-7839
▁اشاعت	-7840
▁زمانو	-7841
▁مينيو	-7842
▁وڌندي	-7843
▁لاڳاپو	-7844
▁هوسٽنگ	-7845
▁پڙهندو	-7846
77	-7847
تها	-7848
راز	-7849
نوع	-7850
کار	-7851
▁آذ	-7852
▁لف	-7853
▁ڀُ	-7854
هانت	-7855
▁الد	-7856
▁جهو	-7857
▁صدق	-7858
▁نشر	-7859
▁هوت	-7860
▁ڍنڍ	-7861
▁کوڙ	-7862
ating	-7863
▁سوئي	-7864
▁ڊپٽي	-7865
▁ڪائي	-7866
▁گاهي	-7867
▁گران	-7868
▁بلاگر	-7869
▁بيڪار	-7870
▁رهبري	-7871
▁مخلوق	-7872
▁هٽايو	-7873
▁پرستي	-7874
▁سليمان	-7875
▁نهاريو	-7876
▁گرفتاري	-7877
AR	-7878
َڻ	-7879
یں	-7880
▁ئ	-7881
0.1	-7882
ong	-7883
اهل	-7884
داع	-7885
▁ڪڇ	-7886
ديات	-7887
سيني	-7888
▁بجد	-7889
▁عيو	-7890
▁للم	-7891
▁ميت	-7892
▁هرو	-7893
▁ولو	-7894
▁ٽائ	-7895
▁پهن	-7896
▁ذيلي	-7897
▁زمري	-7898
▁فونز	-7899
▁منهم	-7900
▁ٻاري	-7901
▁ارتقا	-7902
▁بشمول	-7903
▁تعبير	-7904
▁منسوب	-7905
▁نينگر	-7906
▁ڳالها	-7907
ocurren	-7908
▁درستگي	-7909
▁وساريو	-7910
▁حقيقتون	-7911
▁هيڏانهن	-7912
▁يادداشت	-7913
▁پرائيويٽ	-7914
Bet	-7915
سيا	-7916
لهه	-7917
▁سھ	-7918
▁غف	-7919
▁ڪڙ	-7920
جاهه	-7921
ليسي	-7922
▁you	-7923
▁سيف	-7924
▁ڀاء	-7925
▁(201	-7926
▁انتى	-7927
▁ضمني	-7928
▁فارس	-7929
▁فيني	-7930
▁نثار	-7931
▁ويهه	-7932
▁پندر	-7933
▁بچاءُ	-7934
▁سبسڪر	-7935
▁عناصر	-7936
▁معرفي	-7937
▁دعائون	-7938
▁مسافرت	-7939
ثا	-7940
وڻ	-7941
❤️	-7942
بتك	-7943
لله	-7944
▁Tr	-7945
▁ڦي	-7946
؟؟؟؟	-7947
▁شال	-7948
▁عذر	-7949
▁قصي	-7950
▁نوع	-7951
▁ٻلي	-7952
▁پوڊ	-7953
▁پٽن	-7954
▁تاثر	-7955
▁جھڙي	-7956
▁مؤمن	-7957
▁نوڪر	-7958
▁يوني	-7959
▁اسٽين	-7960
▁الدين	-7961
▁بيشتر	-7962
▁تفريح	-7963
▁سگھيو	-7964
▁ممتاز	-7965
▁منطقي	-7966
▁اطالوي	-7967
▁فاریکس	-7968
▁نفسيات	-7969
▁پرينءَ	-7970
▁پيشرفت	-7971
▁اونداهي	-7972
▁پراڊڪٽس	-7973
-0	-7974
47	-7975
48	-7976
ink	-7977
ئجي	-7978
لاڻ	-7979
ٻار	-7980
گال	-7981
ھور	-7982
▁نك	-7983
راحة	-7984
▁wor	-7985
▁ترى	-7986
▁قمر	-7987
▁ڇڪي	-7988
▁ڪڙي	-7989
ابندي	-7990
▁آڪسي	-7991
▁دادو	-7992
▁فاسٽ	-7993
▁ليول	-7994
▁ماکي	-7995
▁مناس	-7996
▁نسيت	-7997
▁ويجه	-7998
▁ڪوڙو	-7999
▁اجايو	-8000
▁دانهن	-8001
▁عنصرن	-8002
▁ورائي	-8003
▁صحافين	-8004
▁نڪرندو	-8005
▁پائوڊر	-8006
▁ٽيليفون	-8007
▁ڪميونسٽ	-8008
▁ريسٽورنٽ	-8009
'.	-8010
17	-8011
98	-8012
ڌن	-8013
▁۔	-8014
فيٰ	-8015
▁.:	-8016
▁نح	-8017
جيڪو	-8018
ڪشاف	-8019
ڪنھن	-8020
▁بسر	-8021
▁راء	-8022
▁سوڀ	-8023
▁فضل	-8024
▁فهم	-8025
▁باشد	-8026
▁تفري	-8027
▁رائي	-8028
▁فليش	-8029
▁مرڪب	-8030
▁مصري	-8031
▁کنيا	-8032
▁گذار	-8033
▁گھري	-8034
▁طبيعي	-8035
▁محمود	-8036
▁ٻرندڙ	-8037
▁ھدايت	-8038
▁Google	-8039
▁عجبتني	-8040
▁مزدورن	-8041
▁اپوزيشن	-8042
▁باضابطه	-8043
▁انسٽيٽيوٽ	-8044
erm	-8045
برا	-8046
بور	-8047
جها	-8048
شته	-8049
رائڻ	-8050
مثال	-8051
▁Meh	-8052
▁جهت	-8053
▁سمي	-8054
▁شاد	-8055
▁عكس	-8056
▁ٺهڻ	-8057
▁پست	-8058
▁اداس	-8059
▁اسٽر	-8060
▁انوا	-8061
▁بڻيو	-8062
▁تعين	-8063
▁جمعه	-8064
▁سفرن	-8065
▁فليٽ	-8066
▁متحد	-8067
▁نعمت	-8068
▁واضع	-8069
▁يعرف	-8070
▁رسالي	-8071
▁مارڪس	-8072
▁محتاط	-8073
▁نمونن	-8074
▁پارچه	-8075
▁پريمي	-8076
▁سرزمين	-8077
▁فئڪٽري	-8078
▁اينديون	-8079
▁کائيندو	-8080
32	-8081
حم	-8082
رد	-8083
غى	-8084
وك	-8085
ٻو	-8086
▁ُ	-8087
سٽا	-8088
ندؤ	-8089
ڙيا	-8090
▁95	-8091
ally	-8092
▁اڇي	-8093
▁دفت	-8094
▁ضيا	-8095
▁لڳڻ	-8096
▁يمن	-8097
▁ٻڌا	-8098
▁روزو	-8099
▁فاهم	-8100
▁مشرو	-8101
▁هندن	-8102
▁پنجم	-8103
▁گريه	-8104
▁گويد	-8105
▁اهڙيء	-8106
▁توليد	-8107
▁لائنز	-8108
▁نداري	-8109
▁گياهي	-8110
▁انڪشاف	-8111
▁تحقيقي	-8112
▁عمارتن	-8113
▁مطالبن	-8114
▁پروٽين	-8115
▁پيشينه	-8116
▁چيائون	-8117
ائينداسين	-8118
صح	-8119
آآآ	-8120
اتن	-8121
ومي	-8122
يڪٽ	-8123
▁we	-8124
▁جس	-8125
▁چؤ	-8126
ٽيشن	-8127
▁Ind	-8128
▁ويم	-8129
▁ڄڻن	-8130
▁اُھو	-8131
▁درجا	-8132
▁طالب	-8133
▁فهمت	-8134
▁منجه	-8135
▁تعلقي	-8136
▁ديوان	-8137
▁سلائي	-8138
▁سنگين	-8139
▁ماستر	-8140
▁هائيڊ	-8141
▁آرامده	-8142
▁زندگين	-8143
▁موضوعن	-8144
▁ڪينيڊا	-8145
▁article	-8146
57	-8147
ix	-8148
امد	-8149
بوڪ	-8150
ضاء	-8151
هيم	-8152
▁//	-8153
▁37	-8154
▁آق	-8155
▁بب	-8156
▁شپ	-8157
ڪائي	-8158
▁اسد	-8159
▁اڱڻ	-8160
▁برج	-8161
▁حفظ	-8162
▁دلا	-8163
▁وما	-8164
▁ڊيز	-8165
▁ساڄي	-8166
▁مبرو	-8167
▁نكته	-8168
▁نگار	-8169
▁ڌنڌو	-8170
▁کاري	-8171
▁کنيد	-8172
▁سيمين	-8173
▁ڪيمرا	-8174
ائيزيشن	-8175
▁تنھنجو	-8176
▁هفتيوار	-8177
ax	-8178
ph	-8179
هِ	-8180
ڇر	-8181
att	-8182
▁	-8183
ي	-8184
ا	-8185
ه	-8186
ن	-8187
و	-8188
ر	-8189
م	-8190
ل	-8191
ت	-8192
س	-8193
ج	-8194
ڪ	-8195
د	-8196
ب	-8197
.	-8198
پ	-8199
آ	-8200
ئ	-8201
ک	-8202
ع	-8203
ڻ	-8204
ف	-8205
گ	-8206
ش	-8207
ق	-8208
،	-8209
ح	-8210
ٽ	-8211
ٿ	-8212
ڏ	-8213
ـ	-8214
ز	-8215
خ	-8216
۾	-8217
ء	-8218
چ	-8219
ص	-8220
۽	-8221
ھ	-8222
ط	-8223
ڊ	-8224
ڙ	-8225
ِ	-8226
ك	-8227
ڳ	-8228
ٻ	-8229
"	-8230
ڌ	-8231
:	-8232
َ	-8233
e	-8234
1	-8235
ض	-8236
ڇ	-8237
0	-8238
ڀ	-8239
a	-8240
ٺ	-8241
ظ	-8242
i	-8243
2	-8244
t	-8245
o	-8246
ذ	-8247
ُ	-8248
r	-8249
n	-8250
غ	-8251
s	-8252
؟	-8253
-	-8254
)	-8255
(	-8256
ث	-8257
ڃ	-8258
l	-8259
!	-8260
ڄ	-8261
3	-8262
5	-8263
d	-8264
c	-8265
9	-8266
u	-8267
4	-8268
,	-8269
ى	-8270
ة	-8271
m	-8272
8	-8273
6	-8274
h	-8275
7	-8276
p	-8277
ڍ	-8278
g	-8279
أ	-8280
S	-8281
y	-8282
ی	-8283
A	-8284
۔	-8285
'	-8286
b	-8287
>	-8288
/	-8289
k	-8290
C	-8291
<	-8292
w	-8293
M	-8294
T	-8295
ہ	-8296
f	-8297
_	-8298
P	-8299
D	-8300
I	-8301
v	-8302
؛	-8303
=	-8304
N	-8305
B	-8306
O	-8307
E	-8308
*	-8309
x	-8310
ڦ	-8311
L	-8312
ؤ	-8313
ڱ	-8314
G	-8315
R	-8316
ٰ	-8317
H	-8318
[	-8319
]	-8320
F	-8321
U	-8322
W	-8323
إ	-8324
ٌ	-8325
X	-8326
ً	-8327
V	-8328
z	-8329
ّ	-8330
K	-8331
^	-8332
٪	-8333
ے	-8334
•	-8335
$	-8336
ژ	-8337
ٍ	-8338
ٹ	-8339
j	-8340
?	-8341
+	-8342
#	-8343
~	-8344
۱	-8345
J	-8346
Y	-8347
ْ	-8348
ې	-8349
।	-8350
Q	-8351
ڷ	-8352
Z	-8353
😂	-8354
@	-8355
ۈ	-8356
۲	-8357
ڈ	-8358
%	-8359
ړ	-8360
q	-8361
۰	-8362
ں	-8363
&	-8364
{	-8365
}	-8366
٠	-8367
;	-8368
۳	-8369
א	-8370
·	-8371
١	-8372
۴	-8373
ګ	-8374
۵	-8375
ډ	-8376
٢	-8377
ځ	-8378
ږ	-8379
ټ	-8380
ڵ	-8381
ڑ	-8382
●	-8383
۹	-8384
ښ	-8385
्	-8386
°	-8387
️	-8388
۸	-8389
£	-8390
ा	-8391
♥	-8392
❤	-8393
र	-8394
څ	-8395
€	-8396
×	-8397
۶	-8398
۷	-8399
🙂	-8400
क	-8401
٣	-8402
←	-8403
ڼ	-8404
→	-8405
ٱ	-8406
٥	-8407
ۍ	-8408
ि	-8409
٤	-8410
ो	-8411
म	-8412
٦	-8413
►	-8414
ב	-8415
ڛ	-8416
′	-8417
é	-8418
न	-8419
٩	-8420
ڹ	-8421
स	-8422
ۡ	-8423
त	-8424
٨	-8425
य	-8426
ٖ	-8427
ּ	-8428
ٔ	-8429
ۅ	-8430
े	-8431
ल	-8432
♪	-8433
ۆ	-8434
♡	-8435
®	-8436
Ô	-8437
ٴ	-8438
ۑ	-8439
ღ	-8440
◄	-8441
٫	-8442
©	-8443
٧	-8444
प	-8445
ۉ	-8446
व	-8447
😉	-8448
§	-8449
а	-8450
🤣	-8451
ह	-8452
ۃ	-8453
☺	-8454
ڎ	-8455
ט	-8456
ڸ	-8457
ۊ	-8458
द	-8459
н	-8460
😁	-8461
è	-8462
ü	-8463
↑	-8464
♫	-8465
פ	-8466
›	-8467
😀	-8468
ु	-8469
â	-8470
î	-8471
ı	-8472
ڤ	-8473
≤	-8474
ڜ	-8475
о	-8476
ٗ	-8477
◆	-8478
и	-8479
ç	-8480
İ	-8481
ٓ	-8482
à	-8483
ग	-8484
ट	-8485
ۓ	-8486
💔	-8487
😍	-8488
★	-8489
ी	-8490
р	-8491
٬	-8492
ş	-8493
̈	-8494
ؑ	-8495
с	-8496
ڶ	-8497
ۀ	-8498
ێ	-8499
ब	-8500
е	-8501
ڣ	-8502
😭	-8503
כ	-8504
ݪ	-8505
ज	-8506
Ş	-8507
ٕ	-8508
उ	-8509
छ	-8510
ö	-8511
ࢪ	-8512
、	-8513
á	-8514
ڕ	-8515
श	-8516
॥	-8517
Ü	-8518
ω	-8519
м	-8520
т	-8521
ू	-8522
±	-8523
ै	-8524
😅	-8525
🙁	-8526
у	-8527
ۂ	-8528
ۧ	-8529
♦	-8530
ン	-8531
語	-8532
̷	-8533
ं	-8534
シ	-8535
д	-8536
ۄ	-8537
ۋ	-8538
√	-8539
л	-8540
ל	-8541
ٳ	-8542
ۿ	-8543
ड	-8544
ध	-8545
ド	-8546
؏	-8547
٘	-8548
‹	-8549
≥	-8550
😊	-8551
¤	-8552
ˇ	-8553
¢	-8554
ê	-8555
ؿ	-8556
ए	-8557
भ	-8558
ष	-8559
【	-8560
ツ	-8561
💞	-8562
¬	-8563
ë	-8564
α	-8565
к	-8566
٭	-8567
✿	-8568
】	-8569
﴾	-8570
﴿	-8571
👍	-8572
ā	-8573
ٚ	-8574
ە	-8575
ई	-8576
☆	-8577
¦	-8578
¿	-8579
ó	-8580
û	-8581
μ	-8582
ο	-8583
в	-8584
ٲ	-8585
ڝ	-8586
‐	-8587
⁄	-8588
з	-8589
ػ	-8590
ä	-8591
͜	-8592
β	-8593
ڒ	-8594
अ	-8595
च	-8596
⇄	-8597
─	-8598
🏻	-8599
ñ	-8600
х	-8601
ү	-8602
ա	-8603
ण	-8604
≈	-8605
■	-8606
😆	-8607
ž	-8608
ы	-8609
ؽ	-8610
ڠ	-8611
ࢦ	-8612
फ	-8613
。	-8614
菜	-8615
👌	-8616
Ø	-8617
÷	-8618
й	-8619
ֿ	-8620
ٛ	-8621
ڂ	-8622
आ	-8623
ख	-8624
⋆	-8625
🔥	-8626
😜	-8627
\	-8628
ğ	-8629
š	-8630
̨	-8631
б	-8632
г	-8633
ۇ	-8634
थ	-8635
ृ	-8636
🌹	-8637
¡	-8638
í	-8639
ô	-8640
̲	-8641
ᓄ	-8642
‡	-8643
▌	-8644
✅	-8645
✌	-8646
💘	-8647
Ç	-8648
̃	-8649
̧	-8650
ե	-8651
ݩ	-8652
ে	-8653
✔	-8654
❥	-8655
💙	-8656
😘	-8657
😛	-8658
̣	-8659
͡	-8660
ζ	-8661
ι	-8662
п	-8663
я	-8664
і	-8665
י	-8666
נ	-8667
↓	-8668
▐	-8669
◕	-8670
☀	-8671
✓	-8672
⭐	-8673
💕	-8674
🙈	-8675
Å	-8676
ï	-8677
č	-8678
œ	-8679
ξ	-8680
Ґ	-8681
ؐ	-8682
ڿ	-8683
ۦ	-8684
۩	-8685
۫	-8686
इ	-8687
ন	-8688
๑	-8689
♀	-8690
✋	-8691
✨	-8692
🌸	-8693
💗	-8694
😄	-8695
😇	-8696
🤔	-8697
Ö	-8698
Š	-8699
ː	-8700
ρ	-8701
ڨ	-8702
ँ	-8703
র	-8704
া	-8705
◊	-8706
♠	-8707
❣	-8708
音	-8709
😔	-8710
😝	-8711
😹	-8712
🙏	-8713
å	-8714
͠	-8715
Φ	-8716
Ω	-8717
ε	-8718
σ	-8719
ի	-8720
ն	-8721
ם	-8722
מ	-8723
ڭ	-8724
ۛ	-8725
ম	-8726
্	-8727
๋	-8728
※	-8729
♩	-8730
」	-8731
🌷	-8732
🖤	-8733
Ž	-8734
ɪ	-8735
ˈ	-8736
̤	-8737
η	-8738
ς	-8739
ч	-8740
ш	-8741
ո	-8742
ս	-8743
ր	-8744
ו	-8745
ע	-8746
ۗ	-8747
۞	-8748
ۤ	-8749
ۨ	-8750
ठ	-8751
ু	-8752
ஐ	-8753
ా	-8754
น	-8755
†	-8756
‿	-8757
▶	-8758
▷	-8759
▼	-8760
◇	-8761
☹	-8762
☻	-8763
♣	-8764
❀	-8765
❧	-8766
➡	-8767
⠀	-8768
「	-8769
・	-8770
🇩	-8771
🏃	-8772
💜	-8773
📷	-8774
😎	-8775
🥺	-8776
Á	-8777
ý	-8778
ć	-8779
ō	-8780
ɑ	-8781
̇	-8782
̶	-8783
ί	-8784
π	-8785
ҳ	-8786
ד	-8787
ؓ	-8788
ؼ	-8789
ٜ	-8790
ٞ	-8791
ٟ	-8792
ڞ	-8793
ܢ	-8794
ক	-8795
ত	-8796
দ	-8797
୭	-8798
า	-8799
ọ	-8800
⇣	-8801
⏪	-8802
▲	-8803
☝	-8804
♯	-8805
⚘	-8806
⚡	-8807
✯	-8808
🏼	-8809
😢	-8810
🤩	-8811
🥇	-8812
¶	-8813
ã	-8814
ð	-8815
ú	-8816
ē	-8817
ł	-8818
ż	-8819
ə	-8820
̅	-8821
̵	-8822
τ	-8823
ώ	-8824
ж	-8825
ц	-8826
э	-8827
մ	-8828
ւ	-8829
ן	-8830
ؒ	-8831
ٙ	-8832
ٝ	-8833
ڋ	-8834
ڔ	-8835
ۏ	-8836
ެ	-8837
झ	-8838
న	-8839
ಿ	-8840
്	-8841
ี	-8842
๛	-8843
າ	-8844
ᬼ	-8845
ị	-8846
⃣	-8847
−	-8848
⊙	-8849
╝	-8850
▪	-8851
◉	-8852
◎	-8853
◦	-8854
♍	-8855
✗	-8856
✘	-8857
✦	-8858
『	-8859
』	-8860
🇮	-8861
🇿	-8862
🌚	-8863
🌟	-8864
🍼	-8865
💖	-8866
💚	-8867
💪	-8868
💯	-8869
😱	-8870
😻	-8871
🦋	-8872
Ã	-8873
ø	-8874
ę	-8875
Ğ	-8876
Ħ	-8877
ʊ	-8878
̄	-8879
̐	-8880
θ	-8881
ν	-8882
φ	-8883
М	-8884
С	-8885
ь	-8886
є	-8887
հ	-8888
չ	-8889
ה	-8890
ז	-8891
ר	-8892
ٮ	-8893
ۜ	-8894
ۣ	-8895
۪	-8896
ौ	-8897
খ	-8898
য	-8899
়	-8900
ো	-8901
ਾ	-8902
ં	-8903
હ	-8904
ం	-8905
ම	-8906
ม	-8907
↯	-8908
∀	-8909
∫	-8910
╫	-8911
◀	-8912
♂	-8913
♬	-8914
✖	-8915
〇	-8916
よ	-8917
り	-8918
ミ	-8919
发	-8920
嘅	-8921
的	-8922
𐄒	-8923
🌿	-8924
🎼	-8925
🏾	-8926
👉	-8927
👊	-8928
👨	-8929
👩	-8930
💫	-8931
📚	-8932
🔞	-8933
🕘	-8934
😈	-8935
😋	-8936
😌	-8937
😒	-8938
😠	-8939
😦	-8940
😨	-8941
😪	-8942
😵	-8943
🙊	-8944
🤍	-8945
🤭	-8946
🧸	-8947
ò	-8948
Ă	-8949
ą	-8950
Đ	-8951
ě	-8952
ħ	-8953
Ł	-8954
ś	-8955
ƒ	-8956
ɛ	-8957
ˌ	-8958
̀	-8959
̊	-8960
̥	-8961
̯	-8962
γ	-8963
υ	-8964
ό	-8965
ϻ	-8966
Б	-8967
В	-8968
Т	-8969
Х	-8970
Я	-8971
Ҳ	-8972
Բ	-8973
տ	-8974
ח	-8975
ש	-8976
ڽ	-8977
ۙ	-8978
ۼ	-8979
ݛ	-8980
ݦ	-8981
ः	-8982
ব	-8983
ল	-8984
ি	-8985
ੀ	-8986
ੰ	-8987
ર	-8988
ે	-8989
ો	-8990
క	-8991
ల	-8992
వ	-8993
ి	-8994
ు	-8995
్	-8996
ನ	-8997
ന	-8998
න	-8999
ස	-9000
්	-9001
ก	-9002
ค	-9003
ฉ	-9004
ณ	-9005
ด	-9006
ั	-9007
ุ	-9008
ไ	-9009
໑	-9010
Ⴢ	-9011
ე	-9012
ი	-9013
ለ	-9014
ው	-9015
ᓅ	-9016
ᭁ	-9017
Ṁ	-9018
ṇ	-9019
ṣ	-9020
ṭ	-9021
ẹ	-9022
₥	-9023
₪	-9024
↔	-9025
≧	-9026
⌘	-9027
╚	-9028
○	-9029
☂	-9030
☑	-9031
☜	-9032
☼	-9033
♚	-9034
♛	-9035
⚫	-9036
✍	-9037
❌	-9038
❗	-9039
❦	-9040
➢	-9041
〗	-9042
う	-9043
の	-9044
を	-9045
ノ	-9046
ュ	-9047
可	-9048
發	-9049
﮼	-9050
︎	-9051
🌤	-9052
🌻	-9053
🍀	-9054
🎀	-9055
🏿	-9056
🐸	-9057
👀	-9058
👈	-9059
👤	-9060
💋	-9061
💐	-9062
💛	-9063
💻	-9064
🔸	-9065
😐	-9066
😽	-9067
🤨	-9068
🦦	-9069
|	-9070
¥	-9071
À	-9072
É	-9073
Ù	-9074
Ú	-9075
ì	-9076
õ	-9077
Ā	-9078
ă	-9079
Ė	-9080
Į	-9081
ť	-9082
ů	-9083
Ǝ	-9084
ƛ	-9085
ơ	-9086
Ʀ	-9087
ʀ	-9088
ʒ	-9089
ʻ	-9090
̉	-9091
̍	-9092
̳	-9093
Α	-9094
Ξ	-9095
Υ	-9096
έ	-9097
δ	-9098
λ	-9099
Ϟ	-9100
Д	-9101
О	-9102
П	-9103
Р	-9104
У	-9105
Ч	-9106
ъ	-9107
ю	-9108
҉	-9109
ґ	-9110
ө	-9111
Ի	-9112
Կ	-9113
է	-9114
ը	-9115
լ	-9116
խ	-9117
կ	-9118
պ	-9119
ռ	-9120
ց	-9121
ֆ	-9122
ך	-9123
؋	-9124
؍	-9125
ؾ	-9126
ڲ	-9127
ۘ	-9128
۬	-9129
ܓ	-9130
ݖ	-9131
ݢ	-9132
ݥ	-9133
ݨ	-9134
ࡗ	-9135
ञ	-9136
ढ	-9137
ॡ	-9138
আ	-9139
ঔ	-9140
ট	-9141
ড	-9142
স	-9143
ਂ	-9144
ਧ	-9145
ਬ	-9146
ਰ	-9147
ਸ	-9148
ਿ	-9149
ક	-9150
ચ	-9151
ટ	-9152
ા	-9153
િ	-9154
ી	-9155
ஓ	-9156
ఉ	-9157
ద	-9158
య	-9159
స	-9160
ీ	-9161
ಈ	-9162
ಲ	-9163
ೋ	-9164
್	-9165
ങ	-9166
ി	-9167
ි	-9168
ถ	-9169
ท	-9170
ย	-9171
ส	-9172
ๅ	-9173
่	-9174
้	-9175
້	-9176
ཻ	-9177
࿑	-9178
დ	-9179
რ	-9180
ს	-9181
ᄑ	-9182
ᄒ	-9183
ᅲ	-9184
ሂ	-9185
ህ	-9186
ል	-9187
ስ	-9188
ቅ	-9189
ን	-9190
እ	-9191
ይ	-9192
ድ	-9193
ᓆ	-9194
ᓘ	-9195
ន	-9196
ᴗ	-9197
Ṃ	-9198
Ẹ	-9199
Ọ	-9200
ố	-9201
ở	-9202
ỳ	-9203
‛	-9204
‟	-9205
₩	-9206
₽	-9207
⃫	-9208
↩	-9209
↴	-9210
⇠	-9211
⇡	-9212
⇦	-9213
∞	-9214
≠	-9215
≦	-9216
╦	-9217
╬	-9218
▽	-9219
◈	-9220
◍	-9221
◣	-9222
◩	-9223
◪	-9224
☘	-9225
♉	-9226
♌	-9227
♢	-9228
♤	-9229
⚽	-9230
✈	-9231
✧	-9232
✫	-9233
✮	-9234
✴	-9235
✷	-9236
❓	-9237
❕	-9238
❖	-9239
❝	-9240
❞	-9241
❢	-9242
⭕	-9243
〖	-9244
い	-9245
じ	-9246
ほ	-9247
コ	-9248
タ	-9249
ト	-9250
パ	-9251
ピ	-9252
ー	-9253
ㄨ	-9254
上	-9255
以	-9256
你	-9257
我	-9258
発	-9259
真	-9260
者	-9261
ꓘ	-9262
나	-9263
법	-9264
직	-9265
𓂅	-9266
𖣴	-9267
🇨	-9268
🇬	-9269
🇶	-9270
🇸	-9271
🇺	-9272
🌆	-9273
🌈	-9274
🌼	-9275
🎈	-9276
🎧	-9277
🎵	-9278
🎻	-9279
🐒	-9280
🐠	-9281
🐢	-9282
👆	-9283
👇	-9284
👎	-9285
👑	-9286
💅	-9287
💍	-9288
💓	-9289
💝	-9290
💠	-9291
💡	-9292
💮	-9293
💰	-9294
🔒	-9295
🔕	-9296
🔫	-9297
🔱	-9298
🔴	-9299
🔶	-9300
🔹	-9301
🔺	-9302
🖕	-9303
😃	-9304
😏	-9305
😕	-9306
😤	-9307
😬	-9308
😮	-9309
😯	-9310
😳	-9311
😿	-9312
🙄	-9313
🚶	-9314
🛫	-9315
🤎	-9316
🤐	-9317
🤓	-9318
🤤	-9319
🤧	-9320
🤪	-9321
🥀	-9322
🥰	-9323
🦼	-9324
🧐	-9325
Â	-9326
È	-9327
Ð	-9328
Ó	-9329
Û	-9330
ß	-9331
æ	-9332
ù	-9333
þ	-9334
Ą	-9335
ĉ	-9336
Č	-9337
Ď	-9338
đ	-9339
ė	-9340
Ę	-9341
Ģ	-9342
Ĥ	-9343
ī	-9344
į	-9345
ĵ	-9346
ĸ	-9347
ĺ	-9348
ļ	-9349
Ň	-9350
ŋ	-9351
Ō	-9352
ŏ	-9353
Ř	-9354
ř	-9355
Ŝ	-9356
ŝ	-9357
Ť	-9358
ŧ	-9359
ŭ	-9360
ű	-9361
ź	-9362
Ż	-9363
Ɓ	-9364
Ɠ	-9365
Ɣ	-9366
Ɲ	-9367
Ƴ	-9368
ƽ	-9369
ǟ	-9370
ǰ	-9371
Ǿ	-9372
ȅ	-9373
Ȋ	-9374
ș	-9375
ț	-9376
ɕ	-9377
ɞ	-9378
ɣ	-9379
ɨ	-9380
ɴ	-9381
ʃ	-9382
ʔ	-9383
ʚ	-9384
ʞ	-9385
ˆ	-9386
˹	-9387
˼	-9388
́	-9389
̋	-9390
̌	-9391
̖	-9392
̗	-9393
̝	-9394
̠	-9395
̩	-9396
̬	-9397
̮	-9398
̸	-9399
͛	-9400
ͦ	-9401
Ά	-9402
Έ	-9403
ΐ	-9404
Η	-9405
Θ	-9406
Ι	-9407
Μ	-9408
Ρ	-9409
Σ	-9410
Ψ	-9411
Ϋ	-9412
ά	-9413
ή	-9414
κ	-9415
χ	-9416
Ј	-9417
Ћ	-9418
А	-9419
Г	-9420
Й	-9421
К	-9422
ј	-9423
ћ	-9424
Ѣ	-9425
Ѧ	-9426
Ҏ	-9427
қ	-9428
Ҩ	-9429
Ұ	-9430
ҷ	-9431
ҽ	-9432
Ӎ	-9433
Պ	-9434
բ	-9435
ձ	-9436
ղ	-9437
յ	-9438
վ	-9439
փ	-9440
ք	-9441
ִ	-9442
ג	-9443
ס	-9444
צ	-9445
ת	-9446
؎	-9447
ٯ	-9448
ڐ	-9449
ڗ	-9450
ڟ	-9451
ڰ	-9452
ۚ	-9453
ۢ	-9454
ۥ	-9455
ۺ	-9456
܀	-9457
ܒ	-9458
ܨ	-9459
ܪ	-9460
ܵ	-9461
ݐ	-9462
ݒ	-9463
ݘ	-9464
ݧ	-9465
ހ	-9466
ވ	-9467
ߙ	-9468
࣪	-9469
ओ	-9470
घ	-9471
ङ	-9472
़	-9473
ॉ	-9474
॒	-9475
०	-9476
१	-9477
८	-9478
অ	-9479
ই	-9480
উ	-9481
এ	-9482
ঘ	-9483
ছ	-9484
জ	-9485
ধ	-9486
ভ	-9487
শ	-9488
ৌ	-9489
ਇ	-9490
ਈ	-9491
ਕ	-9492
ਜ	-9493
ਥ	-9494
ਪ	-9495
ਮ	-9496
ਲ	-9497
ਹ	-9498
ੇ	-9499
ੈ	-9500
ੋ	-9501
ੱ	-9502
ખ	-9503
છ	-9504
ડ	-9505
થ	-9506
ધ	-9507
પ	-9508
સ	-9509
ુ	-9510
୪	-9511
ற	-9512
ఇ	-9513
ఎ	-9514
చ	-9515
డ	-9516
ధ	-9517
ప	-9518
హ	-9519
ే	-9520
ో	-9521
ಂ	-9522
ಕ	-9523
ಡ	-9524
ಧ	-9525
ಸ	-9526
ഉ	-9527
ത	-9528
ധ	-9529
പ	-9530
ള	-9531
സ	-9532
ආ	-9533
උ	-9534
ක	-9535
ය	-9536
ල	-9537
ව	-9538
ශ	-9539
ෑ	-9540
ෙ	-9541
บ	-9542
ป	-9543
พ	-9544
ล	-9545
ห	-9546
อ	-9547
ฮ	-9548
ะ	-9549
ิ	-9550
เ	-9551
ກ	-9552
ຂ	-9553
ຈ	-9554
ຖ	-9555
ທ	-9556
ນ	-9557
ພ	-9558
ມ	-9559
ຢ	-9560
ະ	-9561
ົ	-9562
ເ	-9563
່	-9564
༄	-9565
༅	-9566
༺	-9567
࿅	-9568
ა	-9569
თ	-9570
კ	-9571
მ	-9572
ნ	-9573
უ	-9574
ქ	-9575
ላ	-9576
ም	-9577
ሩ	-9578
ር	-9579
ሳ	-9580
በ	-9581
ቦ	-9582
ታ	-9583
ት	-9584
ነ	-9585
ኔ	-9586
ኝ	-9587
አ	-9588
ወ	-9589
ዎ	-9590
ዘ	-9591
ዴ	-9592
ጋ	-9593
ጎ	-9594
ጠ	-9595
ጣ	-9596
ጥ	-9597
ፈ	-9598
ፍ	-9599
ᑐ	-9600
ញ	-9601
ព	-9602
ភ	-9603
េ	-9604
ំ	-9605
្	-9606
᪣	-9607
᭄	-9608
ᴀ	-9609
ᴋ	-9610
᷂	-9611
ḑ	-9612
ḭ	-9613
Ḿ	-9614
ḿ	-9615
Ṉ	-9616
ṛ	-9617
Ṝ	-9618
Ṧ	-9619
ṩ	-9620
Ṽ	-9621
Ạ	-9622
Ể	-9623
ệ	-9624
Ụ	-9625
ụ	-9626
ỹ	-9627
Ἄ	-9628
⁀	-9629
₦	-9630
₳	-9631
₹	-9632
₼	-9633
⃕	-9634
⃟	-9635
⃢	-9636
℘	-9637
↙	-9638
↜	-9639
↝	-9640
↣	-9641
↤	-9642
↫	-9643
↲	-9644
↷	-9645
⇐	-9646
⇜	-9647
⇢	-9648
∂	-9649
∇	-9650
∟	-9651
∴	-9652
≯	-9653
⏆	-9654
⏩	-9655
┇	-9656
═	-9657
▂	-9658
▃	-9659
□	-9660
▫	-9661
◝	-9662
◤	-9663
◥	-9664
◾	-9665
☁	-9666
☃	-9667
☄	-9668
☔	-9669
☚	-9670
☛	-9671
☠	-9672
☽	-9673
☿	-9674
♃	-9675
♄	-9676
♈	-9677
♊	-9678
♋	-9679
♎	-9680
♏	-9681
♒	-9682
♓	-9683
♭	-9684
⚒	-9685
⚠	-9686
⛳	-9687
⛺	-9688
✇	-9689
✜	-9690
✞	-9691
✭	-9692
✳	-9693
❒	-9694
❔	-9695
❶	-9696
➓	-9697
➘	-9698
➟	-9699
➥	-9700
➬	-9701
⦿	-9702
⬅	-9703
⬆	-9704
⬸	-9705
⸁	-9706
⸙	-9707
〈	-9708
〉	-9709
》	-9710
あ	-9711
え	-9712
お	-9713
か	-9714
が	-9715
く	-9716
さ	-9717
な	-9718
へ	-9719
ょ	-9720
わ	-9721
ん	-9722
イ	-9723
エ	-9724
ク	-9725
サ	-9726
ス	-9727
チ	-9728
ッ	-9729
バ	-9730
マ	-9731
ム	-9732
ヮ	-9733
一	-9734
之	-9735
了	-9736
云	-9737
传	-9738
位	-9739
何	-9740
刀	-9741
力	-9742
午	-9743
南	-9744
厩	-9745
古	-9746
吗	-9747
国	-9748
场	-9749
報	-9750
多	-9751
夢	-9752
如	-9753
子	-9754
学	-9755
它	-9756
少	-9757
屋	-9758
年	-9759
庆	-9760
彙	-9761
彩	-9762
很	-9763
情	-9764
惠	-9765
感	-9766
打	-9767
教	-9768
料	-9769
斯	-9770
於	-9771
月	-9772
机	-9773
機	-9774
泊	-9775
波	-9776
爱	-9777
瑞	-9778
用	-9779
电	-9780
着	-9781
示	-9782
科	-9783
端	-9784
篇	-9785
終	-9786
纳	-9787
职	-9788
背	-9789
节	-9790
花	-9791
葬	-9792
藍	-9793
蝶	-9794
要	-9795
詞	-9796
謝	-9797
话	-9798
语	-9799
谷	-9800
超	-9801
辛	-9802
迪	-9803
邏	-9804
钱	-9805
际	-9806
隨	-9807
雨	-9808
顯	-9809
鲁	-9810
ꓤ	-9811
ꔫ	-9812
ꖾ	-9813
ꟽ	-9814
ꦿ	-9815
ꪆ	-9816
ꪝ	-9817
ꫀ	-9818
ꫛ	-9819
각	-9820
금	-9821
길	-9822
는	-9823
다	-9824
대	-9825
래	-9826
리	-9827
마	-9828
만	-9829
문	-9830
방	-9831
서	-9832
손	-9833
솔	-9834
송	-9835
시	-9836
양	-9837
얼	-9838
에	-9839
연	-9840
요	-9841
우	-9842
정	-9843
져	-9844
조	-9845
좋	-9846
지	-9847
평	-9848
하	-9849
할	-9850
해	-9851
형	-9852
화	-9853
효	-9854
희	-9855
﮶	-9856
𐎚	-9857
𐭣	-9858
𐭦	-9859
𐭪	-9860
𐭬	-9861
𓆩	-9862
𓆪	-9863
𖣂	-9864
𖤈	-9865
𖤍	-9866
🅚	-9867
🅛	-9868
🅜	-9869
🅦	-9870
🇦	-9871
🇧	-9872
🇱	-9873
🇲	-9874
🇵	-9875
🇷	-9876
🇹	-9877
🌍	-9878
🌎	-9879
🌓	-9880
🌔	-9881
🌙	-9882
🌛	-9883
🌜	-9884
🌝	-9885
🌞	-9886
🌧	-9887
🌱	-9888
🌵	-9889
🌺	-9890
🍂	-9891
🍃	-9892
🍇	-9893
🍉	-9894
🍕	-9895
🍩	-9896
🍰	-9897
🍷	-9898
🍻	-9899
🍾	-9900
🍿	-9901
🎁	-9902
🎃	-9903
🎅	-9904
🎞	-9905
🎥	-9906
🎨	-9907
🎯	-9908
🎶	-9909
🏆	-9910
🏊	-9911
🏖	-9912
🏣	-9913
🏭	-9914
🏳	-9915
🏹	-9916
🏽	-9917
🐍	-9918
🐕	-9919
🐾	-9920
👃	-9921
👅	-9922
👋	-9923
👕	-9924
👠	-9925
👢	-9926
👧	-9927
👭	-9928
👰	-9929
👲	-9930
👳	-9931
👾	-9932
💀	-9933
💃	-9934
💇	-9935
💈	-9936
💒	-9937
💣	-9938
💦	-9939
💷	-9940
📄	-9941
📑	-9942
📛	-9943
📥	-9944
📩	-9945
📮	-9946
📲	-9947
📸	-9948
📿	-9949
🔆	-9950
🔈	-9951
🔐	-9952
🔗	-9953
🕊	-9954
🕌	-9955
🖼	-9956
🗯	-9957
🗿	-9958
😑	-9959
😧	-9960
😩	-9961
😲	-9962
😷	-9963
🙃	-9964
🙅	-9965
🙆	-9966
🙇	-9967
🙋	-9968
🙌	-9969
🚌	-9970
🚓	-9971
🚣	-9972
🚨	-9973
🚫	-9974
🚭	-9975
🚵	-9976
🚷	-9977
🛌	-9978
🛐	-9979
🛒	-9980
🛰	-9981
🟥	-9982
🤒	-9983
🤕	-9984
🤚	-9985
🤟	-9986
🤠	-9987
🤲	-9988
🤸	-9989
🤹	-9990
🦯	-9991
🦽	-9992
🧑	-9993
🧖	-9994
🧚	-9995
🧝	-9996
